#version: 0.2
Ġ Ġ
ĠĠ ĠĠ
Ġ t
i n
e r
o n
Ġ a
h e
r e
a t
e n
Ġt he
o r
Ġ s
a l
e s
i t
i s
Ġ c
i on
a n
a r
Ġ o
l e
Ġ f
ĠĠ Ġ
Ġ w
e d
Ġ p
ĠĠĠĠ ĠĠĠĠ
in g
r o
i c
Ġ b
n d
Ġ in
a s
Ġo f
e t
c t
Ġ d
Ġ \
Ġ m
e l
en t
Ġ $
o u
Ġt o
Ġa nd
s t
a m
Ġt h
i g
Ġ re
o m
Ġ n
i l
Ġ h
at ion
i m
a c
i d
Ġ e
o l
o t
Ġ (
u t
ĠĠĠĠ ĠĠĠ
u r
Ġ l
s e
Ġ =
Ġ is
Ġ T
i v
Ġ S
{ \
u l
o d
a d
c e
i f
Ġ g
a b
Ġf or
o w
q u
t r
Ġ C
ĉ ĉ
Ġ A
Ġ v
a g
č Ċ
u m
t h
e m
u n
) ;
â Ģ
l y
a y
c h
u s
a p
it h
Ġ <
Ġ I
Ġ on
e ct
Ġ {
at e
t er
Ġb e
Ġc on
e x
- -
v er
en d
Ġth at
_ {
= "
at h
h t
Ġ M
i r
Ġs t
/ /
es t
o c
e g
ct ion
ĠĠĠĠĠĠĠĠ ĠĠĠ
Ġa s
a v
Ġ *
Ġw ith
er s
Ġ P
re s
p t
< /
Ġ$ \
p e
Ġp ro
as s
u p
Ġa n
Ġ B
Ġa l
es s
u b
Ġ &
an d
e w
2 0
Ġ }
a in
e f
is t
o s
Ġ F
Ġw h
p l
Ġe x
am e
m ath
Ġ R
it y
Ġ D
ig ht
u e
o re
in e
or t
Ġ it
u re
Ġ H
Ġ L
er e
o p
Ġ r
ĠT he
ou r
ar t
Ġc om
Ġw e
Ġb y
ro m
Ġa re
Ġ N
r i
Ġ W
} \
ex t
re f
Ġth is
Ġ Ċ
Ġ "
ag e
i z
Ġc l
Ġ E
^ {
} $
i al
m ent
Ġ or
ĠĠĠĠĠĠĠĠ ĠĠĠĠĠĠĠĠ
Ġ y
e c
ĠĠĠĠ Ġ
p h
i es
a k
ul t
it e
Ġ G
Ġa t
iv e
il l
" >
s p
an t
( )
n t
g e
ur n
p er
* *
ab le
o g
i b
e p
c l
ac k
âĢ Ļ
al l
m a
u d
Ġt r
Ġf rom
or m
l d
in t
a ct
. .
} }
Ġ if
( \
0 0
f r
p ort
p ro
f t
t urn
y pe
Ġs h
Ġ O
an s
c on
st r
Ġ -
Ġn ot
av e
eg in
c al
od e
ion s
as e
b egin
e qu
Ġc h
a re
t a
ac e
= =
T he
-- --
f f
in d
u nd
g et
Ġ '
el l
t ext
i le
ig n
at ed
p le
Ġcl ass
Ġ he
) $
ic al
_ {\
Ġ le
Ġc an
ar y
Ġ k
Ġw as
t o
b er
an g
at a
I n
o v
im e
en s
c om
ic h
Ġ us
j ect
e v
Ġ J
ar d
un ction
) ,
o st
) .
} {
ou t
it ion
u st
i p
i re
ĠĠĠĠĠĠĠĠ ĠĠĠĠĠĠĠ
} ,
Ġ +
as t
Ġh ave
ation s
en ce
Ġ U
id e
or d
s er
il d
fr ac
e q
al ue
ab el
Ġ âĢ
c c
Ġ //
ic e
Ġal l
u g
f ig
f orm
Ġre turn
1 9
or k
d u
r ight
Ġ im
e y
an ce
on g
ĠI n
ro w
et a
o k
Ġs e
en er
l ic
l i
ĠT h
c ite
ar am
ou ld
- >
Ġ j
Ġre s
p ut
Ġa d
Ġa p
Ġ [
Ġd is
Ġwh ich
ac h
Ġh as
Ġ un
tr ing
Ġn ew
C on
s et
Ġa b
1 0
: :
t he
l abel
u se
Ġp l
r m
th er
o b
ent s
Ġ V
iz e
math b
p s
Ġ @
ĉĉ ĉĉ
Ġ K
pt ion
oc k
res s
Ġy ou
Ġf unction
, \
or y
f er
s o
ub lic
$ ,
t ain
$ .
i a
S t
ou s
Ġw ill
Ġs p
l ow
our ce
o ver
c ri
Ġo b
equ ation
e ar
r ay
s um
Ġ< /
} )
le ft
he n
r a
el f
20 1
Ġa r
Ġ /
od el
" ,
ul l
' s
i el
math cal
Ġd ef
l ine
er m
} .
ou nd
en c
on e
Ġcom p
at or
iel d
on d
o se
ow n
y st
Ġ qu
Ġm e
l l
} (
Ġo ut
Ġs et
.. /
( "
ol d
Ġon e
( );
u al
et h
re e
om e
cl ud
Ġd o
el y
ar k
Ġin t
i k
Ġs u
Ġe v
Ġin ter
} ^
' ,
er r
Ġv ar
w e
} _
Ġp art
âĢ Ŀ
Ġ up
o int
at es
~ \
Ġ :
yst em
ph a
Ġb ut
c he
ot h
E x
r ap
t e
am b
le ct
Ġp r
ic s
Ġs tr
b o
d iv
ir st
i ew
Ġ* /
m l
ou nt
al pha
---- ----
in k
o f
Ġ |
d a
Ġp er
c k
w o
i x
in al
Ġcon t
** **
Ġ .
tr ib
ĠS t
um ber
ak e
) \
ess age
Ġg et
s h
ic t
Ġm ore
Ġp re
Ġal so
E R
ro up
le d
l o
Ġthe ir
i an
y m
trib ut
a x
pe c
er v
Ġp ublic
im es
el ta
o id
) )
Ġ ro
or s
Ġex p
amb da
c re
er y
s ub
u ct
h at
Ġn e
ul ar
ig h
P ro
$ \
p r
Ġres ult
Ġo ver
Ġs o
ĠĠĠĠĠĠĠĠ Ġ
en g
t y
Ġn ame
Ġ i
ap p
ĉĉ ĉ
1 2
th is
== ==
Ġd ata
sp an
Ġt ime
> </
n ame
Ġo ur
v ar
Ġ _
ĠĠĠĠĠĠĠĠ ĠĠĠĠĠĠĠĠĠĠĠ
am ma
h o
( '
d ef
p os
r y
s s
Ġit s
ic k
eth od
ĠW e
ing s
Ġfor m
Ġthe y
m u
I N
Ġh is
_ \
20 0
id th
Ġc ol
a il
= \
Ġ Y
Ġt wo
T h
le ment
O N
Ġd if
d ot
Ġo ther
Ġv alue
ov e
Ġm an
rap h
Ġd e
an ge
v e
if ic
ol low
i ent
N ame
at ive
l es
Ġan y
Ġ\ \
Ġd es
T ype
ig ma
i ed
er t
> <
Ġm odel
p aram
Ġw hen
c ent
ĠâĢ ľ
Ġs up
Ġs ub
ĠC h
} ^{
} _{
mathb b
at ch
ĠTh is
Ġw ork
y s
Ġad d
- \
../ ../
i o
ter n
ar g
Ġw ere
r it
Ġon ly
Ġa g
o ok
b ar
ect ion
is h
c ol
at ic
Ġ en
eg a
Ġth ere
Ġ {\
l ation
^ {\
Ġth an
Ġb et
Ġg o
u es
ph i
p i
is e
Ġbe en
Ġf irst
Ġt ype
Ġf ollow
r am
im port
is s
Ġ #
und er
ay s
Ġl ine
il ity
re turn
y n
Ġa cc
Ġp os
Ġre g
Ġwh ere
ac he
le m
ro und
l ambda
f o
Ġ x
b f
o ol
S T
n g
R E
ur re
S tring
Ġs im
it em
Ġcon st
Ġsu ch
Ġtr ans
W e
al se
1 1
on s
an n
I d
Ġg ener
Ġ use
ht ml
at ing
id er
Ġin to
res ent
se ction
c ess
cri pt
Ġs ome
Ġin d
Ġab out
Ġc or
f ter
a w
Ġn o
at er
l ock
ĠI t
ol ut
an c
pl ic
Ġre qu
Ġcom m
Ġc ase
Ġe qu
it s
ib le
al s
in ed
Ġcon s
Ġ id
Ġdif fer
Ġs elf
tr ans
s ource
t t
Ġ !
d d
Ġthe n
Ġv al
Ġ `
Ġwh o
: //
on t
Ġsh ow
ect ed
i ous
Ġs c
Ġe m
il on
e ad
d er
m essage
s c
Ġh ref
u res
Ġp h
1 6
ar ray
p art
R es
w h
C om
Ġ end
Ġt e
as ed
Ġ el
mathb f
ug h
20 2
t ype
u ild
Ġd ec
it ies
i e
t d
A T
Ġ( \
ik e
al ign
oc al
s igma
Ġre sp
Ġre l
Ġpro v
v al
at ure
a ult
we en
re ad
ot e
ser v
b eta
f or
} {\
Ġ err
ou g
iv en
ic es
Ġthe se
^{ -
ang le
1 5
ar ch
c ode
ou n
ad d
m in
ild e
Ġ under
ol og
Ġus ed
1 8
Ġe ach
Ġ= >
Ġk n
am ple
Ġs ystem
ce ption
ep end
Ġy ear
in ce
cl ass
urre nt
ep s
Ġf e
Ġw ould
al ly
Ġm ay
b r
aram et
\ \
am es
Ġn umber
Ġy our
# #
Ġc o
n ing
Ġe ff
Ġ= =
em ent
Ġh er
Ġc re
C h
as h
/ >
Ġbet ween
Ġn ull
eng th
+ \
iz ed
v ent
Ġh igh
Ġof f
Ġp oint
t on
ire ct
Ġa ct
Ġ )
I D
Ġs a
Ġ >
u le
ĠP ro
y le
O R
as k
Ġin st
g amma
Ġh ad
Ġt est
L ist
Ġs pec
a ction
Ġv oid
ation al
_ _
Ġin clud
A R
* }
p on
L E
c ed
n er
Ġthe m
Ġpro b
ow er
iz ation
pt ions
math rm
l og
r ic
ht t
Ġb ack
Ġre m
t ing
) :
r ho
ag es
Ġs m
ad e
a use
1 3
^ \
b ack
Ġus ing
Ġo p
r t
Ġf ield
ap t
d elta
r r
w idth
Ġp e
ĠU n
Ġst ud
Ġa m
ro ugh
Ġp ol
" />
) }
C l
he d
Ġd ev
A L
Ġtr ue
ut h
2 5
ent ial
em ber
g y
T o
oc ation
um ent
n e
bo x
Ġs ec
1 4
ta u
ser t
.. .
the ta
Ġm ethod
] {
ĠF or
Ġ ent
iv ate
e ver
fig ure
y p
le ction
i er
Ġch ar
ĠC om
ĠĠĠĠĠĠĠĠĠĠĠĠĠĠĠĠ ĠĠĠĠĠĠĠĠĠĠĠĠĠĠĠĠ
s on
p re
Ġne ed
o le
w ard
Ġh ow
c dot
b ig
Ġ X
$ -
ment s
a ir
Ġre c
le q
Ġor g
Ġpro du
Ġ Q
Ġc al
T r
S S
) );
Ġn on
I t
in es
Ġl ike
O b
Ġg r
Ġap pro
Ġf l
o y
E N
v el
// //
Ġs ign
Ġe ver
Ġm od
n ot
Ġm ost
m er
part ial
ĠâĢ ĵ
str ing
Ġin v
in clud
}$ ,
t s
Ġo per
trans lation
ĠA s
it le
**** ****
}$ .
w ork
Ġs tring
ar get
p m
ar s
ĠĠĠĠ ĠĠ
us s
per ty
Ġse e
Ġsh ould
an k
form ation
Ġ --
Ġf alse
n ew
Ġa fter
s elf
Ġs ame
} (\
Ġ z
n u
Ġdiffer ent
ical ly
b e
Ġel se
A r
is m
Ġst ate
ar row
il y
ist s
Ġre p
olut ion
Ġs he
Ġg iven
Ġm at
Ġa c
"> <
Ġth rough
Ġw ell
t imes
V alue
3 2
e e
eq ref
Ġf il
d ata
" );
D ata
Ġcom ple
ĠH e
oug h
v alue
Ġex t
um n
-------- --------
eq n
am p
F or
as es
w w
A s
Ġas s
Ġd et
erv ice
re am
or g
u ff
3 0
ft y
op le
Ġf inal
Ġm in
in fty
Ġ& &
f ace
om ega
re d
Ġpart ic
ect or
c es
p ar
Ġp aramet
Ġg roup
Ġsa id
Ġf act
t ilde
Ġj ust
Ġob ject
Ġ u
if y
od y
v iew
Ġor der
Ġ/ **
et s
Ġwh at
1 7
1 00
or ld
Ġst art
Ġt erm
ĠĠĠĠĠĠĠĠ ĠĠĠĠĠ
le t
ur ing
ens ion
ot s
it ed
ĠC on
f ul
C ol
u ch
ro l
Ġm y
Ġs ur
g er
he ck
if ied
c le
ver s
av a
str uct
re at
Ġbe c
sp ace
| \
Ġb oth
se c
ĠE x
S et
d ate
k ey
qu ad
ĠĠĠĠĠĠĠĠĠĠĠĠĠĠĠĠ ĠĠĠĠĠĠĠ
S E
Ġ est
re qu
d is
ire d
ab ility
Ġn ow
] ;
Ġ Z
b ol
ĠI f
l a
' )
I T
D elta
ra w
c o
Ġcons ider
A N
in s
are nt
Ġl ong
er n
" )
Ġm on
ĠA l
Ġpl ay
Ġfollow ing
Ġever y
enc y
Ġb o
pl ay
iv es
f ile
tr y
ri x
Ġvar i
ĠN ew
ult i
ĠT r
Ġdo es
t est
] ,
B y
Ġb r
iv ely
Ġpro cess
C T
Ġdis c
res p
Ġex per
oc i
s q
Ġc ould
el op
Ġwh ile
. ,
Ex ception
==== ====
p p
( $
5 0
re m
con t
Ġeff ect
Ġresult s
Ġ$ (
E rr
D E
t ed
Ġ ed
b y
Ġh and
are d
Ġr ight
an y
en se
iv ers
it ions
\ ,
m s
at us
ce pt
s ize
l ob
il s
Ġre ad
iv er
al ity
oth er
E n
Ġan al
. _
n et
Ob ject
m ary
Ġf ind
Ġl ist
ĠA n
$ $
ers ion
Th is
t en
Ġst atic
ch i
Ġpe ople
wh ere
Ġ! =
x i
Ġ// /
Ġcon d
Ġ %
Ġk ey
t able
old s
ant s
cent er
Ġper form
Ġat t
ym bol
ak ing
i qu
Ġob tain
Ġ| |
com m
Ġs er
n b
T est
ro ss
in ter
2 4
cc ess
ore m
eqn array
f ore
Ġe lement
p x
Ġm ake
Ġstr uct
f l
' t
m et
)$ .
g or
r on
} }\
Ġsup port
f unction
Ġc urrent
19 9
} [
is ion
e le
} ;
it ial
P h
Ġsm all
Ġf ound
G et
Ġb ound
l and
U n
Ġpr ivate
ĠS tring
ar ge
ps i
I m
is hed
ro ll
Ġev en
as on
Ġc all
Ġbec ause
s cript
Ġb el
M E
ord er
eps ilon
Ġim port
A t
ef ore
t ime
m an
Ġd r
ĠS h
r ite
Ġcon tain
l er
Con t
() .
Ġl ocal
Ġme as
c m
Ġag ain
Ġman y
âĢ ľ
lo ad
Ġr un
enc es
() );
nb sp
Ġle ad
ind ow
s im
re g
e k
ro id
A n
et work
um er
Ġkn ow
r al
m od
Ġar g
m ed
C O
Ġv ery
Ġsec ond
w n
Ġs ize
t ab
ĠĠ Ċ
olog y
l p
. âĢĿ
cal e
d ay
K ey
00 0
ch n
re n
Ġin cre
Ġap p
r c
Err or
an e
ener gy
I nd
} _{\
Ġth ree
ex p
Ġin formation
t op
m e
Ġw ay
Ġa v
Ġb l
Ġval ues
ul ation
Ġdis tribut
Ġdes cri
Ġl ast
Ġbe ing
O m
Ġc ent
g ram
2 2
h er
Ġs ing
Ġcont in
' );
b le
per t
n ess
im it
g o
g r
Ġd irect
o ad
Ġto p
Ġt em
Ġm ass
Ġerr or
Ġbe fore
ers on
ver t
resp ond
ro p
Ġf in
Ġprob lem
he ad
sq rt
Ġm et
6 4
Ġf ile
Cl ass
ur ation
] .
Om ega
Ġyear s
^ *
b ed
Ġh ere
Ġsp ace
ĠF ig
l ess
G amma
op y
v ious
g round
Ġpos s
orm al
Ġp resent
)$ ,
i ence
re ak
ĠC l
ress ion
ut e
if e
ps ilon
il ar
Ġ$ {\
ind ex
S h
ath er
sum mary
l ocation
al th
Ġ čĊ
A C
Ġall ow
p ace
Ġf r
Ġm ust
oc ument
g roup
a z
Ġl ook
L L
Ġdev elop
Ġh im
l ist
raph ics
l ink
" ;
ag er
b m
ĠR es
Ġrep resent
ur al
Ġs ince
Ġth ose
R O
ar n
Ġprov id
Ġre al
I nt
is ter
Ġob serv
Ġm ain
ur l
Ġcon n
Ġcom put
c apt
4 0
ir c
R equ
Ġresp ect
f ield
iss ion
b ers
Ġd ist
ot t
ual ly
pos ition
id ent
Ġid ent
ĠĠĠĠ Ċ
() ,
n o
Ġ ,
ol v
Ġle t
2 3
us h
sub section
uff er
htt p
^{ (
v are
w ay
V iew
un c
} =
F ile
a h
at t
Ġ energy
P E
Ġg u
Ġm ap
n ode
text bf
I C
ĠA r
Ġas sum
it ive
[ '
vare psilon
n on
O n
Ġ\ ,
Ġ );
a u
o od
Ġle vel
Ġo pt
ific ation
I ON
s l
Ġp ass
ou se
r angle
Ġm ed
pl it
Ġint eg
Ġcor respond
T E
ĠH ow
f il
Ġpro t
se e
act er
p ath
}^ {\
Ġd own
capt ion
se arch
s m
s k
Ġa ut
p ublic
ac es
Ġar t
ad i
Ġpro ject
) =
ĠA nd
b l
a j
Ġv is
Ġas sert
Ġev ent
lob al
. </
pert ies
it al
Ġex pl
os s
er o
al k
con st
om et
W ith
ĠI nd
i or
f in
right arrow
el s
tribut e
Ġm ax
ak es
pt y
Ġd id
ĉĉĉĉ ĉ
' '
ur s
Ġm uch
" :
k e
re l
v ir
ch ool
e b
Ġl arge
m ap
T ime
ap e
w ith
N ode
it or
l ength
Q u
h ip
202 2
am pl
Ġ: =
Ġm ark
plic ation
gor ith
Ġmeas ure
ar i
Ġp ath
Ġab ove
ma x
pon se
Ġt yp
Ġm em
ar m
L A
ess ion
D ef
tr act
Ġ ?
"> </
ain ing
E qu
Ġt arget
Ġth row
3 3
E lement
Ġd uring
ator s
Ġp at
uth or
Ġc le
if t
E vent
6 0
Ġgener al
Ġd epend
col or
Ġp ar
mer ic
Ġf am
Ġhe lp
Ġm ade
m it
ust om
o pe
in ation
od es
eg raphics
includ egraphics
Ġst and
8 0
A l
htt ps
Ġest im
Ġc oun
' ]
Ġl og
ter s
/ *
in ess
Ġle ft
Ġn ext
j s
Ġre f
' :
im al
ut il
Ġm ulti
A dd
Ġex ample
end s
iv ity
iv ed
T R
p ack
Ġc r
ition al
Ġdef ined
Ġre port
ens ure
Ġgo od
ro du
/ **
Ġb uild
Ġn ode
i ag
Ġop en
ur ther
A P
Ġw orld
var phi
o ff
Requ est
og le
Ġt ake
yn am
or n
R ef
o h
Ġar ray
ĠC ol
s ide
Ġa ction
ole an
fr ak
Ġ/ >
res ult
l ay
In fo
Ġw ant
P ath
Ġn etwork
ail able
ac y
Ġc heck
ord s
Ġb ased
u c
tern al
Ġst ill
iv al
o ot
em ph
Ġ/ *
2 1
ĠO n
ge q
Ġp ower
im ension
. ~\
ĠY ou
n av
s up
in ition
i j
Ind ex
or th
Ġin put
, âĢĿ
ys is
St ate
ĠT o
M ap
w it
d es
Ġor ig
over line
2 7
ix ed
Ġw rit
Ġre le
B ig
Ġp res
Ġrequ est
Ġs at
" "
er tain
our ces
id d
du ct
b s
oc us
Ġqu ant
. }
ap er
U R
at ures
it er
Ġc ar
Con fig
M an
u ction
a f
Ġte chn
d ict
com e
c ul
Ġ et
T ext
Con text
Ġe lect
Ġh tt
Ġcomm un
pro of
F ield
Ġhe ad
Ġo wn
Ġbe h
p oint
Ġm ag
Ġt ext
Ġt ri
Ġd en
r ide
pl oy
() )
2 8
} ).
Ġs um
Ġa round
& \
over n
` `
v ec
ens ity
op er
st ance
st yle
) ^
o x
us er
ab les
Ġ( !
ĠS c
A D
Ġin itial
al e
ivers ity
ar ly
Ġc ur
Ġwith out
w are
Ġmodel s
cri ption
Ġt itle
[ \
at s
ef f
Ġre fer
in c
a it
//// ////
}, \
f rom
math frak
ib r
ign ed
e ep
Ġ} ,
Ġcont ent
Ġb est
at ely
com p
I S
en e
Ġp ost
u ck
ple ment
=" ../../
l ight
Ar ray
Ġm ov
Ġwith in
Ġd on
Ġv iew
Ġs ource
Ġdet erm
O ver
âĢ ĵ
Ġcomp on
Ġch ild
ain s
ap ache
Ġsp ect
E D
v oid
ile d
L O
Ġus er
Ġsh own
E S
w id
20 20
er efore
Ġsim ilar
and om
I f
us iness
Ġsing le
iv ing
b it
ap i
A S
Ġre du
Ġb as
Ġpartic ular
Ġp op
! --
at ter
Ġ} );
ĠA meric
Ġs erv
im um
ot ential
Ġdef ault
ob ject
p or
m m
Ġap pe
Ġstud y
R e
or ph
t il
ĠS e
c or
S ervice
ord ing
2 6
iqu e
l angle
m odel
It em
l im
ym met
Ġinclud ing
N ot
ĠP h
Ġb lock
he s
L et
ang u
Ġfollow s
Ġcon str
Ġs ection
ug g
def ine
4 5
ass ert
Ġcon text
h line
a ut
u i
) (
M P
O r
Ġcont rol
Ġd om
Ġch o
Ġto t
Ġch ang
tr ue
i od
re t
Ġ( $
Ġparamet ers
as ter
Ġdisc uss
ic le
Ġex ist
+ +
w ays
Ġinter est
Ġs ol
in put
ames pace
Ġ_ _
U T
u f
ic y
l ish
Ġl ow
Ġcor re
******** ********
p ose
Ġst at
D es
Ġterm s
Ġte am
Ġprodu ct
Ġd el
u ary
L ambda
ag s
} }$
b olds
ĠI s
Ġcon fig
Ġch ange
lect ed
Ġind ex
ĠĠĠĠĠĠĠĠĠĠĠĠĠĠĠĠ ĠĠĠĠĠĠĠĠĠĠĠ
C H
n ab
9 9
con fig
S ystem
Ġpro gram
Ġd ue
Ġcre ate
bolds ymbol
' ;
pl ate
I s
i ents
ww w
ld ots
Ġposs ible
ou ble
ar ning
n al
Ġtr y
is f
[ ]
Ġ q
u x
ĠB ut
m box
ur ity
Ġinst ance
um p
IN G
Ġb ro
err or
Ġcon f
et y
Ġr ange
Ġf our
Ġcal led
gorith m
Ġ enc
I G
yn c
ic on
ul es
F F
âĢ ¦
Ġ= ==
Ġd ep
ĠW h
p d
ĠA d
C ode
s f
val id
che d
Ph i
b lock
app a
is ed
Ġd em
202 1
S ize
O f
2 9
Ġass oci
Ġre ce
Ġme an
s i
3 5
vir on
Ġd eta
d t
anc es
ec ut
Ġinv est
epend ent
Ġim p
pro v
ĠP r
ist ic
nd er
Ġo cc
Ġth ink
pos ed
at rix
F orm
## ##
che s
Ġd at
Ġchar acter
Ġcl os
ith er
7 5
Ġbe g
m d
=" +
ot imes
et urn
ĠâĢ ĺ
ĠR e
ĠHow ever
ut ton
Ġc ode
ate g
H and
. \
201 8
Ġv ersion
Ġpoint s
b ody
nab la
Ġd er
} ),
ĠF r
l ing
cre ate
st ate
Ġdistribut ion
Ġs k
Res ult
vers ion
A B
ir d
ampl es
Ġexp ect
E T
Ġrequ ire
x im
Ġparamet er
pro t
Ġf ull
read y
Ġl imit
Ġav ailable
A ll
pon ent
Ġshow s
able d
st and
lo at
Ġstruct ure
d own
20 19
av ing
H e
Ġim age
i um
. "
9 0
ic ient
k appa
Ġpre vious
Ġp otential
F rom
M odel
Ġb reak
Ġs ay
r u
qu ot
Ġp erson
t es
Ġagain st
d raw
t ings
201 7
Ġc ap
Ġe as
ĠâĢ Ķ
en u
Ġg ame
M L
ĠThe n
Ġl ink
Ġacc ess
Ġ} ;
Ġ` `
is on
it t
s w
l in
B uild
D is
u str
cl us
m p
ater ial
ann el
Ġn il
se m
non umber
ĠA ll
Ġad v
Ġis s
} )$
Ġtot al
Ġimport ant
ust er
end ed
Ġan other
e ed
ott om
li ent
ĠG et
Ġstr ong
im ent
con d
Ġs pe
Ġfunction s
Ġse ver
0 1
cite p
def ault
ent ion
w ord
Ġo ptions
A nd
ist ory
V al
ut ure
st art
t itle
Ġwe ek
um e
ĠO b
Ġsup er
Ġc our
in a
includ e
~ ~
ĠS ystem
Ġf ree
ain ed
Ġmat rix
Ġsat isf
c ap
Ġexp ected
ore d
Ġm om
Ġl arg
Ġal ong
ĠD e
an sp
S er
Ġs olution
N ew
Ġcom b
angu age
U N
201 6
end er
i i
Ġd ay
sub set
in ary
v en
7 0
ĠA t
\ |
Ġs equ
text it
Ġo ld
re c
o in
Ġpos ition
Ġl ength
Ġf ew
Ġpl ace
k en
S e
che ck
M A
M essage
Ġback ground
o pt
Ġit em
ear ch
Ġreg ion
et er
ib ility
var i
ial ly
ir t
Ġt urn
Ġkn own
Ġc ell
Ġj ava
tr a
Ġl ess
ĠC O
ict ion
ou th
Ġv ert
om en
ev e
Ġg raph
p ed
id es
S igma
Ġg row
O ut
In ter
um ents
Ġb ase
Ġa ff
ou d
Ġind ic
Ġv ol
tain er
w ide
Ġl aw
ĠThe y
Ġcontin u
ĠĠĠĠĠĠĠĠ ĠĠĠĠ
ĠM ar
and s
ĠB y
Ġanal ysis
Ġst ates
âĢ Ķ
Ġn ear
O T
Ġl ife
Ġint rodu
Ġadd ress
ide o
Ġsu ccess
on se
= '
d ev
\ %
T able
ud e
Ġpro perty
Ġsign ific
Ġcol or
}} {
19 8
l ang
) {
us ing
Ġobtain ed
ĠU S
viron ment
ĠP l
Ġresp onse
Ġr ate
Qu ery
og raph
F il
ĠE n
R eg
ire ction
Ġs cal
Ġbet ter
ĠĠĠĠĠĠĠĠ ĠĠ
Ġout put
U S
U LL
n ext
Ġconst ant
Ġstand ard
in fo
Ġp aper
ill ion
ensure math
Ġpre dict
3 4
Ġd eg
Ã ©
/ \
ĠL et
port s
ĠS he
ic ro
Ġt imes
Ġ ide
R ec
Ġc ount
Ġw idth
is tr
se qu
ĠS p
en ame
a im
Ġph ot
\ [
Ġs it
Ġl ay
Ġc ou
Ġ-- >
ĠO r
Ġc rit
ĠUn iversity
Ġqu est
ĉ Ċ
F ig
he ther
ref er
u ro
wid et
c it
201 5
Man ager
I P
Ġcomple x
Ġle ast
ol l
re en
g es
end ing
id ual
roll er
u ation
Ġto o
Ġc a
Ġequ ation
Ġal ready
P r
0 5
if ier
oc ial
Ġinclud e
Ġprov ide
Ġal ways
Ġd ensity
L og
cont ent
Ġc over
re ate
k s
Ġcal cul
um an
Ġappro ach
dot s
Ġl ight
R ead
Ġin du
ver age
Ġg reat
Ġre cent
Ġthe ory
Ġsh ort
Pro perty
Ġorig inal
Ġperform ance
c ast
Ġb ook
Ġs ervice
C C
Ġan n
widet ilde
Ġcorrespond ing
us ic
ain t
con text
---------------- ----------------
b t
Ġval id
Ġrequ ired
ĠJ an
m ethod
and roid
Ġfam ily
b ase
ĠG r
C lient
Ġmethod s
Ġ es
3 6
Ġl a
EN T
oh n
ĠS o
G roup
Ġs che
P l
Ġs rc
l ished
A d
T H
m on
Ġorg an
\ !
le y
O D
Ġph ys
res h
Ġt ask
o op
C ell
n ow
ĠT e
Ġm atch
ĠTh ere
ac c
Ġm ight
un e
Ġdes ign
Ġappro xim
Ġb ool
v es
Ġpro perties
b ra
Ġf urther
or ies
Ġp air
aj or
201 4
ab ly
Ġacc ount
as ing
Ġt able
{ -
Ġre search
al f
4 8
5 5
c all
Ġs l
ur y
s ing
] (
Res ponse
======== ========
ew ork
Ġab s
3 1
ok en
Ġs om
ep ar
Ġsignific ant
Ġcond itions
j ava
Ġh app
Ġst yle
Ġb usiness
is ing
Ġcond ition
Ġdif f
ĠI N
ĠB l
ĠS et
Ġh y
f unc
Ġper iod
U p
Col or
P I
a i
fo ot
C all
er g
u k
Ġser ies
Ġs ide
Ġ< <
pr ime
Ġsystem s
Ġme ans
Ġn ormal
Ġl ower
m y
h and
c irc
Ġc ases
Tr ans
Ġmon th
ens or
; &
ĠB r
ri or
Ar g
w ise
6 6
a ff
ev ent
x y
Ġc ost
ĠM an
Ġr andom
ĉĉĉĉ ĉĉ
Ġe ither
Ġsever al
T D
Ġhigh er
} -
i am
Ex p
ur b
Ġm essage
="../../ ../../
Ġgo ing
bo ok
Ġhe alth
an el
z eta
ĠE ng
Ġcon tribut
I R
C ount
} +
ĠN o
le g
n s
00 00
Ġg overn
if f
m ult
Ġg l
ag ement
center ing
Ġbel ow
Ġ Ð
Ġp ut
Ġc are
Ġph ase
Ġs chool
Ġv ector
p ly
Ġre d
pl ace
3 8
pl ied
] )
Ġle g
c ore
st atic
I L
M ethod
M od
Ġst d
( (
s pec
d oc
pack age
F act
o ption
o ptions
ĠC ent
3 9
sm all
Ġassoci ated
F r
con n
ĠThe se
g ress
d om
m ark
Ġrespect ively
\ ]
> &
Over ride
Ġh ard
ĠM ay
Ġh ome
Ġm ot
ĠR ep
In put
St ream
E nd
f alse
U ser
b ased
g t
\ {
Ġ& =
Ġd ynam
Ġline ar
ĠE q
O S
itt le
e h
d ec
Ġim plement
Ġd ocument
ord in
pr int
im age
Ġp ur
Ġre st
ward s
Ġd iag
Ġtem per
f low
ight s
Ġg ive
W h
we b
r ist
p en
olog ical
t em
ĠW ith
ar r
pro p
l t
201 3
Ġare a
Ġp arent
our s
Ġelement s
at form
I I
ent ly
Ġpro of
he m
; \
in it
Ġdef ine
Ġg lobal
Ġb ig
Ġn um
pl ies
Ġf ocus
H E
Ġcol l
> (
Ġfe atures
d r
Ġs ays
o ber
ugg est
Ġbeh av
) =\
3 7
ar ing
e lement
tab ular
Ġn eg
Ġmom ent
om ic
Build er
c urrent
H ow
ĠA p
Ġinteg r
dis play
S ub
Ġev al
c y
ver se
Ġc y
go ogle
d b
Ġ eng
, "
N o
ly ing
ith ub
C E
) ]
Ġre ally
sk ip
Ġst ep
Ġl abel
Ġg e
c os
ĠS up
Ġac ross
St atus
Ġse en
Ġl ik
le x
Ġpro m
Ġz ero
ag ed
) }\
M S
om orph
4 4
th ing
Ð °
T O
olut ions
Ġf ore
am ed
Ġan g
ab ase
Ġb u
d o
ak en
Ġse em
Im age
d e
oug ht
id ence
action s
Ġw hether
} =\
ĠThe orem
N A
em ma
Ġspec ial
Ġv ia
Ġp ay
u id
on y
ĠL e
ĠM ed
Ġp o
Ġs cale
Ġr adi
Ġsu ff
Ġan t
ch an
Ð ¾
Ġcol umn
E E
th m
Ġd iv
ĠC ar
Ġc ustom
m ember
ĠS ec
p ect
Ġpos itive
Ġsim ple
c ss
S P
ĠI m
wh ich
olv ed
Ġal gorithm
r un
ec ess
ateg ory
Ġs epar
p c
ĠC an
A G
m ost
Ġoper ator
oc ol
201 2
202 3
he ight
c ell
act ive
ap s
Ġl ater
l ocal
Ġf und
Ġp ack
Ġev ents
Ġf ar
g ithub
Ġcon struct
b uild
Ġs ymmet
Ġ und
Ġfield s
ĠT est
Ġne ver
Ġrel ations
) ^{
g ener
ER T
0 8
st it
plic it
ĠS ection
Ġin div
us ed
G ener
Ġcomp any
{ (
ĠP ol
Ġp age
ĠM ore
Ġf requ
arg in
Ġd one
Ġpl an
c er
p ng
b all
en n
ĠD is
Ġc ross
Ġf uture
E X
er ing
Ġb i
al ax
ĠW hen
ma il
} ]
cl ient
Ġex ists
S tr
Ġg ot
A p
n ull
Ġfin ite
$ )
Ġtr aining
n own
Ġl oc
c ase
med i
Ġ( )
D ate
9 5
wit ch
eth ing
Ġt re
s cale
Ġl oss
Ġk eep
ic ense
Ġab le
or age
S ource
N S
Ġcomm on
Ġcom e
ch o
p ol
oper ator
ĠI nt
P si
B ar
Ġf ac
Ġs ample
Ġf low
ot ype
Ġcons ist
Equ al
( {
Ġspec ific
cre en
on al
cdot s
Ġcl ose
Ġro le
Ġun til
ĠL ist
ĠCom m
ĠĠĠĠĠĠĠĠĠĠĠĠĠĠĠĠ Ġ
Ġpr act
ĠN ULL
ON T
N ull
Ġem ploy
y nt
Ġl ines
iz er
Ġfe ature
=" ../
ĠC o
iz ing
Ġprovid ed
T oken
irt ual
Ġbo olean
ser ver
=" #
ĠA dd
d ir
wide hat
} |
6 5
ĠG e
t x
h as
B lock
ĠAmeric an
il ities
A ction
Ġto get
P aramet
aram s
ul a
imension al
r ing
Ġtoget her
at ural
Ġa verage
ch ar
g en
S c
i res
ri es
Ġw rite
l s
lem ma
S ec
0 4
Ġm ajor
ok e
o o
Ġs em
im ate
Ð µ
P os
Ġen ough
Ġp erm
Ġs uggest
p age
Ġfact or
E d
th ough
Ġrec ord
}\ ,
O ff
}_ \
an ch
H ead
, -
}^ \
em ents
Ġtr ack
ip s
f e
Ġindiv idual
ĠĠĠĠĠĠĠĠĠĠĠĠĠĠĠĠ ĠĠĠĠĠĠĠĠĠĠĠĠĠĠĠ
ge bra
app ing
im ary
Ġex act
Ġre ason
Ġhtt p
0 7
q quad
G L
Ġp ort
; </
S up
old er
Ġ" ""
ĠB e
In stance
. ~
A pp
ĠF e
Ġf it
ĠR eg
O P
z e
ast ic
ĠD r
0 2
ag ing
Ġcle ar
201 1
Ġh om
Ġb en
Ġconsider ed
ibr ary
Ġcompon ent
Ġmark et
Ġ row
20 10
Ġunder stand
el ine
I M
ion al
net ic
Ġam ong
Ġc ertain
Y PE
requ est
qu ery
Ġmulti ple
Ġa uthor
th ers
Ġh ost
ul ations
un g
AT E
A M
Con n
St yle
ĠM in
Ġin s
c ount
Ġth us
Ġobserv ed
^ +
Ġsur face
ĠJ ohn
ĠN ov
Ġf a
b b
Ġf ail
) </
Ġse arch
C K
ul y
{ {\
pl ac
al t
Ġb ody
Ġf ixed
Ġcan not
t arget
ab or
U L
s g
L ine
Ġ Â
& =
ig en
}) \
O ptions
ache d
arg s
Ġrel ated
in o
Ġp ress
R un
ĠĠĠĠĠĠĠĠ ĠĠĠĠĠĠ
Ġadd ition
Ġexp ress
mod ule
se lect
ft ware
Com p
Ġoff ic
ĠC al
ĠQ u
Ġsequ ence
H T
Ġw ater
is k
Ġv er
app end
Ġequ ival
At tribute
Ġd irection
r um
Ġa chi
Ġcon ver
ind ent
Ġl oad
ad ata
ĠN ot
B ase
Ġquant um
l ib
Ġof ten
ĠD ef
( {\
am ent
Ġbe come
Ġm ove
ard s
Res ource
od ing
Ġbl ack
av el
0 6
Ġind ependent
ch ild
ch ange
ĠTh at
ĠO ne
Ġchang es
S p
Ġtrans form
Ġn ecess
Ġm ode
al es
ect ions
[ "
Cont ent
Ġbel i
Ġr at
Ġd ays
n amespace
il t
ens ions
ĠUn ited
P ar
7 8
Ġre view
Ġl ittle
Ġle arning
ele te
Ġb order
pd f
Ġe arly
i ans
A ct
Ġw in
R ep
ig ation
Ġn umer
og n
Ġanal y
D ec
Ġp ub
Com m
re ed
Ġ ]
str uction
p o
le ase
Ġof fer
er al
B uffer
Ġse ason
on es
ĠR ec
b utton
ĠS er
fer ence
Ġdescri bed
un k
Ġdis play
l ong
( -
Ġun it
er a
F I
ĠFig ure
s plit
Ġm aking
Ġacc ording
Ġre t
Ġsom ething
equ iv
Ġchild ren
U E
Ġmem bers
Ġl im
Ġcontain s
Hand ler
Ġpro posed
O per
4 9
Ġadd itional
Ġcon v
Ġr a
in st
Ġvar ious
p arent
Ġb it
Ġj ob
Ġ\ {
ĠS ince
F A
Ġ+ =
0 3
B e
p tr
ic ation
math sf
ap pro
< !--
id s
ic a
Ġk ind
le vel
eg er
ĠM e
Ġexper iment
s in
text width
Ġdist ance
F unction
tribut es
i ol
S C
Ġm aterial
Ġth ings
Ġh uman
Com ponent
Ġcl aim
Ġcommun ity
Ġin f
c up
ansp ort
ĠW orld
Ġen vironment
Ġprob ability
w rite
Ġst re
eb ug
Ġas k
av es
Ġh aving
is es
* /
ĠSt ate
ug in
Ġassum e
Ġcon tr
C D
O L
0 9
Ġtemper ature
op en
W indow
h ost
f irst
ĠG o
ĠB o
ĠC or
Ġw indow
f ill
Ġt reat
Ġo ption
Ġ- >
Ġst op
ĠJan uary
Ġap plic
Ġpro f
com es
Ġcon c
Ġon ce
add ing
Ġtyp es
L ay
n ote
qu e
W hat
Ġr ad
j son
p ing
Ġm akes
St art
m id
Ġhe ight
iz es
ĠE d
Ġst ory
er ed
ir m
ac ity
comm and
Tr ue
Ġset s
Ġthrow s
6 8
ure d
Fact ory
Ġacc ur
) -
r l
}^{ (
ĠA g
li ke
ra ft
Ġto ol
Ġgr ad
Ġim prov
Ġgroup s
und le
ĠR eturn
Ġp ast
ĠA b
ĠA ug
}} (
Ġdevelop ment
Def ault
ĠN ational
R ow
Ġinst ead
Ġhtt ps
ar ies
200 9
Ġa way
7 7
Ġ$ (\
Ġprot ected
} :
Ġhow ever
igh b
V ersion
}\ \
Ġs ocial
Ġup date
Ġt aken
D O
P art
ĠOb ject
ce ed
Ġsp in
Ġg ives
Ġle arn
ĠD es
s rc
Ġm usic
200 8
Ġst ar
uro pe
Ġ{ @
Ġs ite
Ref er
n a
d at
Ġcl ient
Ġap plication
cle ar
ph p
o oth
Ġwe ight
em pt
Ġcomp ar
Ġg alax
x ml
ĠC ont
s el
Ġequ al
Ġeffect s
Ġd ouble
sem b
ut es
Ð ¸
Ġcomple te
ĠL emma
b ound
} /
Ġc ut
Ġand roid
Ġest ab
Ġun ique
Ġf ri
Ġexper ience
Ġs olutions
m ain
st ream
id ed
Ġnot e
ur g
" ]
Ġbeg in
Ġgener ated
Ġit er
Ġdat as
r s
Ġreg ular
Ġfe el
h ib
Ġl ot
v is
Ġwork ing
Ġse lect
Th ere
idd en
S pec
Ġgovern ment
in ing
ĠG ener
al y
Ġh istory
ĠO ct
ab s
.. ..
Ġar r
ĠA rt
ist ics
Ġam ount
Ġmed ia
Ġed ge
| ^
head er
l or
Ġl and
Ġpre c
Ġdeta ils
ial og
th at
c an
ed ge
// /
G r
st ar
Ġadd ed
ĠG u
Ġth ird
Fil ter
Ġtr ad
4 7
str act
Ġlarg er
Ġst ream
ĠCom p
Ġdef inition
ĠY ork
Ġs ure
V ER
it es
Ġs ent
Ġ ill
. $
l en
Ġm illion
Ġ( (
P C
or iz
N av
Ġf ig
em pty
pl us
Y ou
if orm
P oint
ap ter
N umber
Ġres ource
O ne
rit er
Ġc opy
Ġth ough
ĠĠĠĠĠĠĠĠ Ċ
m ar
ĠN one
Ġmod ule
ram ework
Equ als
h space
p ost
ho od
pro perty
Ġopt im
b ottom
ĠR ef
P ol
Pro v
al le
ĠD o
& &
ob j
} +\
is try
Ġme chan
n um
pro ject
led ge
Ġch all
Ġspec ified
n ers
Ġ ...
Ġwh y
Ġequ ations
m ber
idd le
} );
Ġ& \
Ġst atus
g l
Ġme et
str ong
ĠP art
//////// ////////
f ind
LA SS
ic ol
ate gy
] [
ĠTh us
ry pt
n ey
$ {
Ġcoun try
el oc
st atus
ache s
Ġinter nal
end if
8 8
Ġserv ices
ud io
P re
s u
operator name
Ġcour se
Ġim ages
Ġg round
Ġatt ack
Ġpol it
Ġcre ated
j av
ĠM on
col umn
r ation
pro cess
ict ure
Ġbound ary
Ġprovid es
u ed
ir cle
uss ian
Ġeffect ive
Ġex ecut
IN T
ĠA ss
' $
ul ly
Ġ- \
Ġr ather
om an
ĠCh rist
5 00
L oad
E m
Ġcorre ct
}} {\
ock et
art ment
ĠA pr
c ing
anc ed
Ġobject s
at tr
ĠM ark
umer ate
Ġc ity
A b
ot o
l n
Ġcomp ared
N ext
6 7
4 2
Ġext ends
Ġv ideo
Ġh alf
Ġpr int
cit et
Ñ Ĥ
ĠA ct
Ġquest ion
ĠP ar
RE F
un ch
] $
ĠS ch
C heck
Ġf ive
enc ies
Ġd ate
Ġp rior
k nown
F irst
Ġstud ents
x space
Ġy et
p ush
L ink
Ġimp act
Ġpro p
ain ts
F l
op s
Ġmat ter
Ġcompon ents
d l
at ory
re w
A A
ol ve
Ġsur v
Ġco ordin
Ġdiffer ence
ĠS im
at al
ell ing
bt n
F T
ty p
Ġexp ression
an a
fin ished
Ġa ir
Ġe ar
Ġcol lection
Ġl anguage
prot otype
Ġincre ase
re st
un ity
ĠS chool
p y
ad a
ĠO ff
Ġre str
Ġcontin ue
S U
} -\
Ġg as
Ġh old
I V
W hen
y les
Ġs ens
ĠC ount
Ġt w
Ġprodu ction
n ce
Ġfil m
Ch ild
Ġth erefore
" .
row ser
Ġrepresent ation
yp es
Ġtrans ition
Ġb and
no indent
f ont
er c
T ask
d ag
Ġy ield
ĠSt ates
ug ht
ig ger
ill s
b uf
Ġneed s
E L
Ġcl uster
ĠCl ass
sc r
inal ly
m ore
n ormal
ĉ ĠĠĠ
st d
Ġrefer ence
M et
C reate
ĠW hat
n eq
Ġd est
Ġden ote
ĠN ote
ĠC ity
Ġre lation
s igned
ov ed
M M
Ġwork s
qu are
Ġro t
Ġwh ose
Ġmax imum
ĠE urope
omet ry
A cc
200 7
Ġwrit ten
ic ult
il it
Ġvari ables
ri ed
Ġyou ng
Ġal most
Ġn atural
Ġ ~
ĠM c
Ġo thers
im g
g ing
\ ,\
H el
pr ivate
( &
g ed
Ġfil ter
V ert
Ġin fl
t ex
4 6
_ .
t ic
Ġm iss
Ġc atch
R A
Ġset ting
Ġinter face
N D
Ex t
st ack
Ġneed ed
ref ix
{ }
Ġl at
val ues
am il
Ġdoes n
L abel
S I
d s
n umber
ĠM arch
Ġform at
Ġ ir
Ġc ult
m t
P RO
y l
des cription
B U
at ively
Ġsub ject
ĠT able
ĠIn tern
Col lection
ĉĉĉĉ ĉĉĉĉ
) }{
Ġ url
Ġd raw
um b
AB LE
en umerate
ĠR ev
N O
c r
Form at
y ing
the orem
ou ch
Ġd ig
F ONT
Ġv irtual
$ }
and id
Ġpat tern
S ON
Ġcent er
Ġt aking
C P
d imensional
un it
ect ors
C L
it ude
Ġl ove
row s
Ġar ch
Ġent ire
F e
ĠW ill
Ġdirect ly
Ġc irc
Ġv eloc
y ear
op h
ot ed
l ast
ĠG L
ef ined
un finished
D B
om ial
ĠS outh
Ġeval u
P age
os p
Ġallow s
Ġact iv
Ġreport ed
ot es
Ġrel ative
clus ion
item ize
Ġc amp
Ġwe ak
Ġappe ar
our nal
Ġt akes
V ID
A ut
st er
Ġpro ve
on str
Out put
Ġbas is
ĠD ata
ce mber
C ON
form at
) }$
Ġl ocation
Ġon line
on ic
] \
c i
Ġdom ain
Ġa ge
che ma
à ¤
Ġe p
Ġvari able
vari ant
Ġt alk
fil ter
le ge
9 8
Ġconn ection
ic les
tr i
. )
Ġco eff
ang ed
Ġth ought
5 7
Ġw ords
ĠIn ter
Ġw omen
so ft
ĠA pp
av or
Ġe con
Ġinclud ed
Ġim plies
Ġh olds
so le
S ince
ĠE X
ĠF rom
om s
m at
Ġpol icy
R em
ĠP er
Ġto day
Ġac cept
Ġoper ation
line ar
r ule
Ð ½
Ġcou pl
P S
B ox
Ġus ers
Ġapp ly
v ant
P er
ex ample
Ġg en
Ġvis it
he et
up date
Ġ! ==
Ġsign al
Ġdeg ree
rem ove
Ġbehav ior
Ġnew s
m em
L ength
ĠNew s
f s
h am
R eturn
ĠD ev
Ġs w
Ġcomp et
Ch ar
Ġcall back
h a
p ress
5 8
Ġb ar
I O
Ġbo x
omorph ism
ĠA fter
Ġlik ely
Ġcom es
Ġf ace
param s
Ġup d
ĠI D
ĠĠĠĠĠĠĠĠ ĠĠĠĠĊ
Ġresp ons
Ġphys ical
200 6
Ġs ix
g g
Ġcomm and
sh ip
bs ite
Ġser ver
Ġch annel
pt ember
Ġqu ery
Ġa x
d ep
UR L
Ġact ually
Ġin it
L ocal
j ust
ĠO F
P i
Ġ[ ]
on ly
Ġann oun
Ġcomp os
id ge
Ġf all
Ġpresent ed
v space
Ġt ree
U t
Ġf oot
We b
Ġclos ed
Ġn odes
Ġne ighb
ub e
}} _
Ġcho ice
Ġg ames
ul ated
The n
C ache
Ġn u
ind ing
ĠTr ans
ER R
P R
Add ress
ot a
S O
U I
Ġs s
C ase
N N
em ic
9 6
) +
Ġproblem s
Ġ ;
q l
Ġ _{
ĠM y
> >
\ "
ĠN orth
Ġal gebra
ĠO ur
he l
con tainer
Comm and
ĠP res
ent ry
ri ef
Ġdiff icult
mult icol
List ener
ac ing
m eta
res ponse
' re
o res
semb ly
if act
S im
ark s
sh ow
Ġf un
el se
ĠA m
Ġde b
r ics
ĠJ une
Ġc apt
at ives
}} }
Ġed uc
in stance
return s
c s
Val id
exp ected
4 3
Ġd imension
ĠTh erefore
multicol umn
Ġw on
i ation
ĠApr il
ist or
Ġwho le
ĠS tr
tt p
Ġap plied
Ġaut om
Ġconfig uration
ĠE l
Ġmag netic
appro x
T hat
ev en
bo ard
Cont roller
D F
20 00
L ast
Ġlead ing
du c
Ġdem onstr
Ġro ot
cl ose
t ag
n orm
Ġun c
fil es
5 6
Ġl iter
ect s
Ġde ath
Ġpl atform
Ñ Ģ
out put
T YPE
Ġinvest ig
B ack
under line
W idth
Ġform er
Ġto ok
C R
Ġben ef
Col umn
it ory
Ġu int
Ġarg ument
" ),
Ġhapp en
Off set
Ġnum bers
Ġde al
Ġs ense
au ge
ĠS ee
od er
" ).
Ġde ep
Ġreturn s
ach ine
Ġ\ |
Ġper cent
Ġact ive
Ġaut o
M ode
Ġdev ice
Ġev olution
Ġoff set
Ġsh all
bed d
Ġcomp an
Ġdid n
Ġp ers
D ev
ph er
or ing
Ġl ive
Se lect
Ġs ound
b in
ĠV al
row n
ĠS ub
Ġestim ate
ĠD ep
ter m
Ġse lected
ĠT ype
Ġc ame
oun ter
clud e
ĠF irst
o on
Ġm ar
Ġstart ed
Ġcon sum
Ġus es
p ass
b a
D at
N ote
$ (
d et
Ġreg ard
Ġits elf
Ġsc en
im ation
i et
a ul
Ġt im
Ġspect rum
\ }$
19 7
Ġfr ame
T P
5 9
alle l
ĠJ uly
^ -
ĠCount y
Ġfil es
Ġf ra
c el
Ġst ars
ot al
Ġdec re
4 1
Ser ver
ĠH ere
Ġup per
Ġdescri ption
Ġpop ulation
at ur
Ġe igen
++ )
Ġ\ ;
f loat
Ġrele ase
serv ice
ĠR em
im ents
istr ation
S D
gr ad
ist ance
= {
ĠDe cember
Ġ ess
Ġincre asing
Ġinclud es
sc ope
pro to
Ġsuccess ful
ĠS m
Ġsol id
Ġcrit ical
Ġg re
Ġpat ients
Ġne ut
Ġpartic ip
Ġrun ning
nav bar
Ġrat io
( [
math scr
Ġstud ies
N et
Ġrelations hip
Ġr ank
off set
ens ive
ustr al
ĠL icense
Ġm ult
ym pt
Ġpr inc
Ġs ources
z z
am ily
ak er
ro y
N ow
T op
Ġcomple t
av en
} '
Ġl en
Ġnecess ary
M ax
Ġsupport ed
Ġfor ward
P O
com ing
Ġcomm it
c d
pec ially
f ect
Ġb uffer
Up date
Ġsim ply
ann ot
S o
t ask
Ġrece ived
as cript
Ġbe comes
D r
Ġplay ers
ver y
ess ages
ous ly
Ġm ember
ĠA cc
ĠOct ober
ĠAug ust
Ġqu ality
ic i
U s
Ġconstr uction
ĠU p
Ġbuild ing
( _
Ġr isk
Ġth ing
ate gor
ĠNov ember
st ant
ar ily
ur ch
Ġcont act
Ġiss ue
requ ire
ĠC LASS
tr m
9 7
Ġm argin
E nt
ĠSe ptember
Ġs eg
T em
ĠW ar
Ġex plicit
**************** ****************
ev el
sh ould
G e
Ġsmall er
{ $
Ġpro ced
u int
in ner
il er
Ġeas y
tr ies
ĠH REF
to ol
tex trm
Ġfor ce
a id
Ġelect ron
T ag
il es
Ġw alk
ĠHe alth
ob ile
om y
us ion
u it
Ġequival ent
C A
tem plate
br uary
200 5
Ġmem ory
Ġh ouse
\ '
Prov ider
ag ue
in ated
Ġcon duct
Ġfr ont
Ġmet ric
C o
Ġiss ues
< ?
str y
m ission
ĠH igh
Ġproduct s
A fter
Ġn ight
The ta
Ġveloc ity
m enu
Ġcent ral
Ġfrequ ency
lic k
Ġm er
refer ence
e es
il le
Ġlay er
Ġbro ad
B C
Ġent ry
I F
am a
}^{ -
Ġtechn ology
m ing
ĠW est
f ree
Ġf ood
a ur
Ġav oid
Ġconn ected
U rl
i as
ĠH T
{ {
oc r
the n
Ġrem ove
CO L
: "
Ġlevel s
Ġin side
B ut
Ġro b
Ġn one
Ġv iol
#### ####
NA ME
Ġdeterm ined
Ġart icle
Ġsh are
ĉ Ġ
ĠB ar
an es
Ġso ftware
U M
Ġvol ume
Ð¾ Ð
ern el
Ġw ord
T I
Ġatt empt
M in
ev ed
ĠN ow
ort s
d en
Ġse lection
Ġan sw
Ġmonth s
ans ion
. /
Ġop port
Ġpart s
Ġspe ed
Ġsec urity
olv ing
Ġarg uments
Ġm ention
b reak
ar io
' ).
b um
n ov
ĠN e
Ġt ell
Ġrec ogn
B utton
us es
Ġgrow th
Ġlook ing
Ġhand le
d epend
< \
av y
Ġob j
Ġoper ators
lay out
AT ION
a res
it ect
al let
par se
ĠE m
ro ot
ser ve
Ġinfl u
) /
os en
yn omial
ĠD av
H O
ot ic
Ġw or
g n
ĠW ork
Ġqu ick
wit ter
Ġindu stry
}} _{
ĠG roup
En try
T ypes
ĠAr ray
Ġdescri be
5 4
Ġ$ |
`` `
B o
a e
] );
cript or
T arget
Ġlink s
m atch
5 2
Con tainer
ĠR ead
K E
ed ia
Ġes pecially
Ġreg ister
V is
Ġre plac
W ork
M em
Ġim medi
) |
Ġp ick
Config uration
anc ial
il i
ĠCh ar
~ $
pro d
m es
Ġno ise
R L
Ġeng ine
Ġperform ed
Ġneg ative
t ree
Ġem pty
A V
Ġs ong
Fr ame
Ġwh ite
d im
f inal
Ñ ģ
ĠĠĠĠĠĠĠĠĠĠĠĠĠĠĠĠ ĠĠĠĠĠĠĠĠĠĠĠĠĠĠĠĠĠĠĠ
Ġex cept
Ġlong er
Ġt ax
b ul
Ġw atch
Ġr ule
Ġclass es
Ġarg s
et ch
Ġide a
E M
el i
ad es
Ġf ont
ct or
Ġa rm
foot note
Ġerr ors
ĠR ed
at tern
Ġw ar
com ple
* {
}} ,
Ġstat ement
Ġ ensure
Ġag re
M ore
ĠA fr
Ġallow ed
ã ģ
Ġ* *
k it
lo or
o ch
^{ -\
ph ere
Ġout side
Ġm en
Ġtrans fer
Ġv ers
d ro
rap per
ify ing
dag ger
min us
_ +
iss ions
) {\
Ġro und
Ġm ix
over y
Ġf ramework
ĠD ec
ĠS T
P ack
Ġder iv
res ents
u el
Ġsm ooth
ma z
Ġw ave
Ġcurrent ly
sel ves
v ector
jav ascript
Ġinterest ing
Ġ$\ {
P P
ĠĠĠ Ċ
amil ton
ĠSt ud
ĠS k
A ccess
Ġc andid
i ers
() ->
Ġw ait
Ġqu ite
im ages
tain s
Ġthe orem
ef t
ĠA PI
ther n
he nt
Ġe y
Inter face
Q L
w indow
a uthor
5 1
ĠO ut
Ġexist ing
Ġin c
Ġunc ertain
s ign
Ġknow ledge
ĠP ark
Ġstre ng
O ur
ĠAs sert
ĠG a
Ġin sp
n es
Ġmon ey
6 9
m ulti
Ġ< !--
cre te
t ical
Ġd oc
bit r
Ġinter action
Ġbu ilt
Head er
Ġbr ing
ĠB ro
b on
comm on
' ),
Ġf ix
Ġre ach
b uffer
= (
h ing
Lay out
ĠC oun
cont rol
ru pt
he st
8 7
Ġhy per
ĠA ustral
li er
Ġsh ape
e in
le v
i os
ang es
ĠRes earch
ograph y
Ġd ark
Ġcho ose
fr ame
Ġal tern
Ġfl ux
ĠF ile
R ange
Ġmin imum
Ġtreat ment
Ut ils
bo ol
AR T
Ġreg ions
Ġal ign
R el
Ġrequ ires
Ġdevelop ed
Pro cess
con f
ĠReturn s
Ġdo ing
D e
p g
Ġsuff icient
Ġto ld
lim its
ol ume
Ġ( -
Ġinter n
Call back
5 3
Ġperson al
H ere
ell ow
Ġg auge
B r
ar p
M e
Paramet er
D irect
Ġin fin
Ġs amples
C S
n ap
Ġact ual
g s
Ġl oop
sh ift
Ġh ours
pro ve
Z E
ĠCent er
ann ing
Ġs low
Ġ ign
c a
Ġrestr ict
200 4
ĠFe bruary
s ystem
w edge
Ġd im
equ al
Ġn ames
p ri
Ġpro per
s y
g raph
ad ow
Ġb re
ĠB rit
act ers
Un it
UL T
Ġa w
ing ton
ĠH is
Ġn ov
ut ils
Ġpl ot
Ġreturn ed
Ġch arg
Ġmechan ism
Ġ{ }
olut e
Ġc ore
Ġare as
Ġother wise
B l
Ġt ag
Ġintrodu ced
Ġform ula
Ġcre d
a ign
g ence
$ _
\ }
Ġdeterm ine
Ġgo al
icro soft
o plus
T ree
ĠP e
Ġcompan ies
ST R
Ġst age
AC K
He ight
Ġre ve
h om
i ences
Ġb ad
bl ack
Ġwe bsite
Ġdatas et
is ation
subset eq
o e
lo od
ac ed
Ġuse ful
N E
_{ {\
Ġag o
Ġobserv ations
as c
M C
Ġw ent
resh old
Ġm ind
Ġim m
Ġvert ex
Ġs ymbol
ĠL og
Ġchar ge
ec ause
Ġdiscuss ed
ew idth
Ġbeh ind
it able
Ġup on
Ġqu e
ĉĉ Ċ
ec ute
p atch
M D
: </
C opy
Ġre nder
sup port
ct x
Ġex tra
? :
Ġcur ve
ul ate
set s
P T
ĠR E
Ġh ot
ĠG erm
Ġrecent ly
Ġte ach
Ġ( $\
Ġp anel
Ġext ension
iz ations
Ġoper ations
text tt
ab ilities
el er
} %
Ġtr a
cl os
Ġright s
-- -
Ġk e
8 5
S A
S H
ĠD E
ĠS pec
Ġapplic ations
id get
Ġcou ple
ĠH ouse
P ost
lay er
ĠWh ile
att ice
Ġinter pre
Ġ> =
W rite
Ġr ules
ĠA c
d ocument
IN E
c ache
id ay
ĠAmeric a
Ġs plit
Ġun iform
Ġseem s
Ser ial
Ġinst all
_{ (
Ġcomp act
Ġsymmet ry
rel ated
ĠC E
Ġman agement
Ġcontinu ous
Ġeas ily
ĠĠĠĠĠĠĠĠĠĠĠĠĠĠĠĠ ĠĠĠĠĠ
re et
Ġv an
c il
Ġ$ -
Ġf ully
Ġstart ing
M O
f n
3 00
am era
Ġget ting
Ġn av
ĠI I
8 6
Ġresult ing
co pe
ber g
Ġoffic ial
Ġst ore
Ġwrit ing
Ġfe ed
Ġh ol
Ġsche me
Ġdiag ram
O p
O pen
100 0
Ġh it
for ce
S L
Ġs us
ĉĉĉĉ ĉĉĉ
ction s
ol ar
ond on
yn ch
it ing
Ġchall eng
Ġhe nce
ĠC reate
AP I
r ad
se cond
oci ety
Ġman if
um in
Ġper t
Ġext rem
Ġpe ak
th on
B O
f ort
a a
eta ils
Cont rol
r ange
in y
D D
Ġs creen
D ir
res ource
Th read
Ġres ources
Ġpr imary
Ġon es
Ġpartic le
_ *
o z
CO DE
c ar
g ate
def inition
Em pty
am s
Ġpol ynomial
as hed
ĠCO VID
Ġf loat
z ero
Ġb all
P A
erv ices
Ġconc ern
av ity
Ġcon tract
Ġwe b
Ġpop ular
ĠT HE
Ġexact ly
Ġcompar ison
o om
Ġtem plate
ĠC r
Ġdec ision
Ġcon cept
Ġa uth
Ġgener ate
h y
Ġplay er
new command
Ã ¡
R ight
el t
f act
b and
c f
is ions
Ġconn ect
B A
Ġgalax ies
Ġpres ence
Ġf ast
s d
Ġex ception
x x
Ġa im
Ġbec ame
ib er
Ġt our
Ġcom ment
Ġpartic les
as ic
Ġl ate
et ime
Ġs witch
Ġem bedd
Ġp ul
we ight
: \
oriz ont
to ken
d eg
OR T
set minus
Ġexp and
Ġfact ors
ĠA ir
stit ute
con s
Ġprocess es
ĠBl ack
ĠC heck
L I
iver se
Ġappro pri
Ġpub lished
p ite
Ġitem s
in ct
ĠO f
Ġmap s
ank s
con struct
ag ment
Set tings
PE CT
Ġad min
od ed
St at
Ġsa f
Ġth erm
Ġcom ing
Ġrele ased
ĠL a
c ur
ell ar
ĠInd ia
Ġ$ [
V AL
Ġ â
f a
ĠH ar
AL L
g le
ĠM ich
ĠD em
ĠS w
Ġdynam ics
Pos ition
Ġess ential
lin ewidth
Mod ule
rop y
ĠK ing
ĠE nd
ĠF l
Ġhe art
Ġrem ains
Ġmot ion
ĠP re
U til
Ġem ission
Ġh yp
Ġr ates
N one
Ġdec l
Ġev idence
Ġpro file
Ġill ustr
Ġcol lect
Ent ity
= -
D o
iv ial
Ġlead s
Ġbound ed
Ġar bitr
c at
Ġn ational
or ig
Ġover ride
ĠA ng
F O
Ġstr ategy
S earch
align ed
ĠE rr
ĠIntern ational
ound ation
' \
Ġrep resents
)\ ,
Ġmoment um
Ġto wards
l ate
ĠS ome
Ġcomput e
Ġtr ansport
Ġs end
af e
ent ity
Ġapproxim ation
H ash
ĠGo ogle
Ġfig ure
r d
Ġhe ld
al ysis
Ġre comm
at ial
), \
vent ion
at ically
Ġst eps
Ġc os
d rop
Ġnot hing
d x
T e
Ġor d
ill ing
st ep
Ġn orm
en ing
Ġet c
ish ing
Ġrele vant
Ġ Ã
S ee
ynt ax
Ġw ays
Ġradi us
id ing
Ġs ort
Ġredu ced
ir th
Ġus ually
oll ary
" ))
Ġex tract
ĠPres ident
Ġatt ention
c p
Ġbeli eve
ĠN S
Ġlim ited
ĠD irect
Ġpress ure
ar a
J son
P arams
6 2
ec k
R I
re ct
Ġ* )
Ġto ken
Ġmeasure d
ang er
Ġder ived
Ġ} \
ĠL aw
Ġ$ {
ĠEx ception
sequ ence
ĠH er
Conn ection
Pro perties
Ġident ity
s cal
Ġt ensor
Ġsc atter
> ,
m ode
st yles
ix el
ic ate
Ġp arams
f ord
fo o
L evel
Ġch ain
anc y
Ġat tribute
Ġopt imal
re es
Pro ject
P L
M y
att le
am l
200 3
Ġcle an
Ġc ause
AN D
Ġn et
Ġim prove
j oy
Ġcoun ter
a fter
Ġexper iments
ad r
Ch ange
k a
6 3
Ġnetwork s
IG N
r ong
Ġconsist ent
ĠWe b
om b
ĠN ame
ou l
Pro t
Ġm icro
orizont al
Ġcoupl ing
Ġmag n
_{ -
E Q
Ġn ature
ĠO pen
Ġbl ue
b ind
un t
Ġbas ic
ic ip
Ġinteg er
P o
f aces
C urrent
Ġexp on
st at
s v
Ġstr ict
Ġdepend s
) }(
big g
typ es
Ġconstr aints
ĠEng lish
ĠV AL
O ption
Ġund efined
Ġdis e
Ġb ottom
Ġcontribut ion
Ġloc ated
Ġclass ical
ut ion
omet ric
% %
: (
Ġchar acters
o ice
M atch
t im
Ġprodu ced
Ġv eh
Ġc he
,\ ,
enc ed
ĠIn st
C al
Â ł
f it
Ġper fect
Ġb al
Ġpro gress
Ġimplement ation
h igh
Ġnumer ical
ber t
m atrix
Ġset tings
Ġst ation
S cript
Ġcell s
Ġro om
Ġpl ane
Ġpass ed
c opy
Ġpol ar
Exp ression
' _
Ġaccur acy
D A
m as
Ġex amples
if ies
art ifact
Ġn amed
T ER
Ġ| \
L ocation
ĠM od
ĠT ime
ĠO R
i ef
H ttp
Ġcontain ing
; ->
D C
Ġquest ions
ĠT V
ĠC our
Ġro ad
t ml
d el
How ever
ã ĥ
Ġact ivity
E q
l ap
Ġcalcul ated
ĠS an
200 1
ĠH amilton
a el
M on
Ġmin im
ĠS ervice
8 9
Ġf ire
Ġpr ice
Ġ util
class es
Ġto wn
w in
ar ant
Ġsim ulations
Oper ation
K ind
et ers
Ġexp ansion
ĠP at
Ġrem ain
Ġcl oud
~~ ~~
Ġa ud
Ġsim pl
Ġc ache
C an
Ġch osen
ant ic
Ġsc ope
ĠTe chn
ĠJ ust
Ġd ed
Ġscal ar
Ġ+ \
urs or
z er
v ents
ic ients
Ġp ain
equ ality
Ġex am
Ġh on
re q
F ont
ĠPro position
Ġre v
=" _
Ġany thing
Ġdistribut ed
Ġdes igned
Ġredu ce
Ġtest s
ĠSc ience
D ocument
sub figure
Ġv s
Ġfinal ly
iqu es
D I
Ġorig in
Ġfa iled
Ġs ession
Ġsit uation
Ġsatisf ies
Ġchang ed
Ġc ategory
Fig ure
back ground
h ad
D own
Ġam plit
Ġal bum
ici ency
Ġsignificant ly
ĠAss oci
Ġad apt
gorith ms
u ge
COL OR
Ġsub s
Ġlead ers
d ebug
Ġprob ably
k et
Ġsp aces
et ic
ĠP ublic
Ġres olution
Ġpolit ical
pro du
h ash
ynam ic
ect ive
ĠL ondon
Ġmeasure ments
pro duct
Ġvert ices
Ġle d
as ons
G E
Ġre pe
ed eral
v as
p op
Ġre li
u a
it ch
As ync
ĠH ence
G B
7 2
Ġover all
Ġm id
P ort
n eg
Ġth read
CT ION
up le
Ġplay ed
Ġn amespace
Ġdec ay
G o
I ter
Ġfra ction
H ost
Ġprof ession
ĠF urther
ĠEX PECT
ĠM odel
g lobal
Ġgre ater
ro s
Ġproced ure
j oin
Ġevery thing
Ġincre ased
ĠH ol
d irect
Ġ\ (
St ore
m ake
b i
Ġh ope
ĠJ ap
if orn
Ġfri end
ĠF orm
Ġs ex
}} (\
b efore
Ġs light
Ġqu al
() :
a ight
Int eger
ĠU K
ĠDep artment
Hand le
Ġsh ift
Ġm ut
S l
Ġtr avel
n y
S k
Ġinv olved
y ond
le te
Ġdis k
in i
v est
re al
Ġstreng th
Ġdet ection
n ost
ms g
" ));
Ġap i
D om
ĠD ay
. ;
Ġ&= &
9 2
6 1
Ġis n
ĠG od
Ġbe yond
r is
=" -
Rec ord
Ġin fo
Ġdec om
Ġform s
Im pl
ar ter
trans form
Ġcorrespond s
Ġl ock
c ases
ĠI S
ele br
9 4
Ġthrough out
if fer
Ġcomp are
Ġx ml
iction ary
col on
ain e
l ines
Ġ$ .
Ġcontain er
cri be
ĠB ook
se ct
Ġmean ing
ib ly
L S
Ġtest ing
Ġpract ice
Ġexperiment al
wh ile
ĠM ag
Ġd ro
ir ing
Ġext ended
Ġpre p
Ġen h
in f
Paramet ers
ategor ies
for all
cl es
il led
200 2
pon ents
Ġed ges
ĠCol lege
Ġspect ral
L eft
Refer ence
Ġfil ename
Ġear lier
Ġsh ared
ann els
b ut
OR D
re nder
Ġab ility
Ġpert urb
def ined
Des cription
R ev
Ġin ner
Ġstud ied
Or der
Ġdat abase
st o
Ġc ard
Ġl ost
Ġang le
Ġl if
result s
p ers
ĠCh ina
X X
9 3
ĠP ost
t og
h i
ĠO ver
E l
Ġprodu ce
es tern
En c
ar th
iforn ia
u ations
Ġlat est
ĠM et
ĠP o
Ġget s
Ġhas h
Ġj oin
Ġcorre lation
param eter
as er
) _{
8 4
Ġask ed
s ur
ĠIn c
S ign
as ure
Ġlarg est
Ġstruct ures
Ġd i
r ices
Ġst ay
================ ================
mit ted
V ari
Ġcomplet ely
ĠRep ublic
N on
="../../../../ ../
en ge
g u
per p
rodu ction
all ow
dev ice
Ġarch itect
ĠB uild
ERR OR
Ġac qu
Ġad opt
) ^{\
vir t
Ġbeg an
erv e
Ġal though
in ternal
Ġd a
Ġass ess
B undle
k r
Ġpart y
r adi
Ġappe ars
ĠMore over
Ġd ual
Hel per
Ġ{ };
an o
L ong
}$ -
Ġl attice
P tr
Ġso on
ĠPro gram
g reg
Ġst aff
ic o
Ġbel ong
ime q
Ġs il
L e
) ^{-
over ed
\! \!
ã Ĥ
ĠĠĠĠĠĠĠĠĠĠĠĠĠĠĠĠ ĠĠĠĠ
T im
s imeq
Ġprevious ly
Ġdep th
Com ple
ĠD ate
Ġinteg ral
Ġfl at
Ġm or
Ġdig ital
' }
Ġhigh ly
Ġthem selves
ĠC ON
Ġannoun ced
Ġthe ore
artifact Id
d elete
F alse
sub subsection
h an
Ġhe l
Ġappropri ate
The se
ev al
ĠSt reet
S ession
ĠD O
b order
ĠPh il
model s
Ġex hib
uct ure
app ed
Ġpar se
N ames
Ġsim ulation
4 00
Ġcoun tries
b es
ail y
R ender
ĠO ther
ĠB en
m ut
Ġd am
add ress
Ġtry ing
In valid
Ġrece ive
Ġassum ption
Ġb ul
ĠA ut
Ġex ternal
Ġstr aight
Ġincre ases
ĠR un
ind er
X ml
Ġax is
Ġl ack
Ġen joy
ing er
Ġmin utes
c ard
ĠS en
str ap
com ponent
P RE
As sert
Ġem erg
urre n
omet imes
t ty
ap id
Ġspec ies
hand le
Ġp adding
Ġeduc ation
Ġra ise
v m
ĠB G
25 5
Ġc ook
Ġst ack
Ġ$ $
Ġfin ancial
wo od
Ġin variant
Ġcal c
% ;
Ġform ation
id a
In st
hes is
M enu
Ġc hem
Ġex c
U P
Ġshow ed
C ore
ag raph
ynch ron
Ġgo es
ul er
al o
ig hest
_ ;
s ol
og ene
Ġcoeff icients
G ET
ĠTr ump
ĠAl so
Ġvis ual
ond s
Ġcamp aign
bl ue
iv acy
Ġcontr ast
Ġident ified
Ġin equality
Ġg reen
equ als
w ell
O K
sh ot
a o
en v
M ark
Ġm is
d est
="../../../../ ../../
w ner
pro b
os ing
ilit ary
T C
Ġagre ement
inter face
Ġ+ +
Ġc op
Ġw ide
Ġcom pl
8 2
Ġcare er
.~ (\
Ġestab lished
S R
ĠSer ies
Ġdiscuss ion
Ġw orth
ĠU se
}^ *
Ġb inary
Ġun its
A g
Ġtr ain
Ġl atter
a uth
ĠDav id
ĠWill iam
Q ue
ĠG reen
M eta
h r
Ġgener ation
N G
7 6
ĠL O
Read er
E C
Ġ ::
bul let
ir al
group Id
( *
f ocus
Ġcomput ed
ĠC ons
Ġreve al
Ġle ave
ĠM ap
{ $\
Ġestim ated
ick er
e ch
U B
osp ital
Ġ( "
Ġprot ocol
Ġh istor
Ġintern ational
Ġf avor
Ġident ify
Ġpack age
ac cess
Ġfollow ed
Ġsurv ey
Ġpre vent
ĠF il
ĠF in
fr am
Ġarbitr ary
Ġdel iver
by te
P ass
err y
ren ch
se ud
uf act
est amp
Ġvari ety
Ġcon cent
ic an
' m
olog ies
ĠRev iew
ur i
ing u
Ġeff icient
U RE
M B
Nav Bar
9 1
ĠK ey
Ġv acc
Ġass ign
( :
ĠGener al
Ġdistribut ions
Ġmod es
Ġe mail
N um
L P
Ġsc ore
ert ific
$ $\
field s
Ġintrodu ce
b al
' ],
tribut ion
ir l
W E
k er
to String
Ġread ing
Ġelect ric
Ġtrans formation
Ġmain tain
Ġprop ag
$ ).
E ach
ip eline
Ġrad io
b urg
Ġh arm
h ol
^{ +
te e
b old
Ġcon serv
Ġinter val
Ġpair s
ck now
ĠY our
A ss
ĠV alue
doc s
Ġmeas ures
ĠĠĠĠĠĠĠĠĠĠĠĠĠĠĠĠ ĠĠ
Ġimmedi ately
bo ot
Ġde ad
Ġs aw
re p
}} ^
ampl ing
B R
d ouble
Ex ternal
Ġm ole
Ġaction s
F R
ist ent
Ġ( '
ĠG overn
pl es
' ve
all s
eta il
end ix
ust ers
ĠM ath
ip ped
ond er
ĠPro ject
Ġ= \
Ġde lete
land s
Ġgener ally
Ġl iving
Ġocc ur
ĠE qu
ĠA nt
Ġe lection
Ġbe aut
y a
ĠD on
Ġe lem
k ind
Ġseg ment
Arg ument
) }{\
Ġf air
Def inition
Ġprinc i
Ġres id
ro t
v an
Ġtask s
iv il
r or
rom e
Ġ[ '
end ar
B ody
ot ion
Ġal gorithms
T S
wid get
ri a
med ia
Ġm ask
R ed
Ġcur ves
IN S
Ġf ight
SS ERT
Ġsome one
R ect
V er
Ġappro aches
eth er
Ġin j
ĠCal ifornia
Ġcomb ination
ĠA re
ĠP aul
atal og
Ġv ict
Ġhead er
w s
ir us
Ġst able
ound s
Ġexist ence
Dat abase
or ge
if ically
M ar
point s
em y
ing le
A re
P arent
Ap plication
f ull
ĠC ap
wh ite
pm atrix
ĠI r
ĠEurope an
Ġadv ant
ĠC re
C or
' ll
V ector
ĠR equ
Ã Ń
Ġnov el
ex ports
T ool
il ib
Ġmod ern
Met adata
)\ \
Ġpart ial
) _
Ġim ag
ult ure
Val ues
Ġauth ors
V ar
P H
an i
Ġpur pose
Ã ³
ress ed
ĠTr ue
Ġant i
B S
SE T
Ġmeasure ment
Ġoff ers
r ate
h s
call back
Ġoff ice
Ġwant ed
Ġs quare
Ġm iddle
Ġpol ice
ĠU s
Ġden otes
S chema
Wh ile
ĠIn stitute
d f
$ ^{-
Ġestab lish
in ant
l oc
Ġinter actions
) --
en um
ĠM at
Ġ ^
Pol icy
ic ity
Ġp refer
cl ick
ĠDev elop
tr ict
Ġmention ed
S ection
OR M
Ġdeta il
Ġparticular ly
b ing
Ġevery one
7 3
ot ing
b its
? âĢĿ
Ġcle arly
ĠP ort
s end
p icture
ĠA rm
is hes
Ġdepend ence
Ġplay ing
Ġs cript
le ep
Th us
Ġby te
text sc
al g
E ng
ie ce
Ġ ),
rom ise
\ _
Ġsp atial
he ll
ir it
fram ework
AT A
Dev ice
S u
Ġin cor
ĠE ast
y r
Ġstr ateg
Ġro ck
Ġt en
Ġrem aining
ĠR uss
} )$.
U se
ace book
Ġbo ard
v ille
ĠCan ada
el es
Tr ack
7 9
Ġsing ular
Ġestim ates
s ession
z a
ug ins
Ġinv oke
Ġm achine
cont in
Ġsymmet ric
i ant
\| _{
7 4
Ġrem oved
W S
display style
Ġp ure
sq l
ex port
D S
c ut
Ġas pect
Arg s
Ġcoordin ates
Ġin tr
M ember
Ġcall s
dis abled
ent al
ament al
Ġdr ug
reed om
Ġep is
> ();
By tes
m ic
Tem plate
` .
Ġcons ists
8 3
Ġref lect
h aps
Ġf em
Ġyield s
air s
ĠErr or
er ies
! !
ri al
Ġunderstand ing
Ġpart ition
w rit
sp ect
Ġassert Equals
Ġsur pr
it z
ĠM or
d ependent
Ġexp os
Ġm ock
Ġw rong
h over
Ġby tes
or ation
ĠM ethod
m c
D L
Ġh ighest
ash ington
A m
Ġansw er
Ġn or
Ġ" \
Ġmat rices
d ist
av ed
Refer ences
omorph ic
Ġst e
Ð »
Ġspect ra
)$ -
Ġor ient
rem ark
ĠB ay
in itial
du le
Ġt ro
Result s
Ġc ast
Ġhim self
Ġhigh light
Ġat tr
Ġabs olute
_ -
ad o
ra z
ick s
Ġdem and
w ar
ĠBG COLOR
__ (
Ġfri ends
Ġnear ly
h bar
Ġ ut
Ġbegin ning
leg al
Ġdeta iled
Ġtechn iques
ĠY ear
ĠP y
199 9
On ly
ĠM em
ic ons
Ġtem por
Ġanal og
Ġdev ices
bo olean
web kit
N R
in v
Ġsc ient
Ġst orage
D ep
Ġun signed
Ġs ave
Ġtool s
IT Y
M ock
Ġprovid ing
Ġsc ience
olv es
re place
Ġre serv
l as
Ġl ives
styles heet
Ġm es
Window s
sh ort
Ġw oman
Ġtrans action
Ġgr id
", "
Ġob vious
Ġsub set
Ġleg al
on ical
Ġrun s
Ġproject s
ĠM al
| _{
Ġbehav i
} "
D oc
Ġpart ners
h box
ĠN OT
ific ations
ĠM r
Ġcontribut ions
Ġmov ing
ĠBrit ish
Ġwork ed
N e
Ġcl in
ĠE ach
m os
8 1
ĠD el
H as
Ġj oint
ĠA R
c ustom
ri um
Ġag ent
ex ception
ri p
am ing
Ġo dd
u ate
Ġweek s
AT H
En abled
ĠN O
Ġcap acity
ĠI O
G S
Ġth reshold
Ġex cit
Ġl i
Ġon to
amp ions
Ġgu arant
Ġfl ag
St ack
d y
Ġdise ase
}} ^{
Ġr ing
Ġmed ical
ĠInd ian
Ġp en
Ġl ibrary
TE ST
ang ular
Ġdiffer ential
Ġsaf ety
A pi
Ġas ympt
F L
Ġcoll abor
Ġdist inct
Ġh um
est ed
R ule
Ġth reat
Ġin line
com put
S ION
j o
mod al
Ġe q
Bo olean
An y
Ġ< =
ill a
} &
T itle
ĠO per
Ġupd ated
ĠAr ch
Ġp hen
Ġc elebr
ĠĠĠĠĠĠĠĠĠĠĠĠĠĠĠĠ ĠĠĠĠĠĠĠĠĠ
ĠGa ussian
Ġnot ice
Ġmiss ing
pro position
spec ial
for ward
w rap
or ter
Par ser
Ġ} )
Ġc ool
[ (
j oint
ust ain
Ġtr ansp
ploy ment
virt ual
Ġob serve
Ġhe avy
Ġent er
Ġdirect ory
"" "
D elete
pl ugin
co in
F C
use um
Ġin ject
R oot
Ġconstr aint
Ġs on
ĠH el
ä ¸
Ġm orph
HT ML
ax is
Ġdiffer ences
H z
Ġsp read
map sto
Ġqu as
M R
Ġal t
ĠN or
ak ers
in n
P e
ann ed
pos ite
Ġindic ates
Ġcy cle
set tings
in ate
Ġquick ly
Ġform al
ĠI P
Ġd rop
Ġm sg
ens es
Ġst ellar
Ġan im
h old
Ġw ind
k g
Ġo s
EX T
ĠJ ames
Ġv ac
ro te
g an
ov ing
ĠF oundation
Ġstud ent
ro om
Ġgr ant
st ore
com ment
ĠB usiness
ĠU sing
ri z
su ccess
U sing
reg ister
> .
Ġpur ch
Ġth ick
' (
pos es
` ,
m ock
ol ic
St orage
od ot
15 0
7 1
il ation
sequ ently
Ex ecut
ĠJ SON
ĠP al
Ġread y
$ ;
] ]
The orem
Ġro ut
Ġassum ed
Ġfam il
en a
form s
Ġg iving
Ġm ount
ĠM ac
ic ated
Ġcomput ation
P aram
W riter
es ter
f g
Ġslight ly
ĠR el
ult s
\ {\
Ġc ircle
& #
ĠCoun cil
Ġp ush
Ġs qu
sh ape
Ġset up
on a
Ġd ou
By te
and emic
ĠF unction
re v
Ġbr anch
ur t
ĠT ex
ĠN etwork
AG E
Ġk ernel
ĠAn n
ĠJ ack
cond ition
Ġliter ature
Ġredu ction
ple ments
) },
ĠHamilton ian
C re
ĠE vent
am ely
-------------------------------- --------------------------------
Ġcult ure
Ob j
C lick
ist ical
Ġv ectors
sup er
Des criptor
ilib rium
p a
Ġachi eve
ĠTh om
Ġs ector
Ġactiv ities
Ġprogram s
Ġj ud
Con s
Ġtrad itional
Ġbu y
S um
ĠM ax
Ġ er
Ġe cho
Ġ' /
Ġ" /
Ġhy dro
Ġs old
Ġcrit er
Ġ( *
clus ive
FA ULT
Ġh idden
conn ect
ĠS U
Ġb irth
ick et
}( {\
p ub
Ġj av
Ġg ave
in em
Ġg ap
Ġsa fe
i h
Ġtre nd
un s
ivers al
Ġrel atively
Ġb ur
d iag
out e
Ġcre ating
cl oud
Ġbound s
Ġprocess ing
not ation
Ġp an
Ġsatisf y
ĠU RL
Ġf ine
ĠV er
W idget
Field s
' ))
KE Y
a iled
ĠĠĠĠĠĠĠĠĠĠĠĠĠĠĠĠĠĠĠĠĠĠĠĠĠĠĠĠĠĠĠĠ ĠĠĠĠĠĠĠ
ĠM art
ad min
ĠAustral ia
cal led
&= &
Ġa ward
Ġv ary
EN D
k y
Ġneighb or
ĠC opy
ĠB ig
) ),
he lp
Ġaff ect
t ik
st op
ĠB est
av it
tr ack
Ġdim ensions
Ġp lease
J ob
ĠL eg
dom ain
Ġmass es
Ġtr ust
| |
m ag
$ ~
C I
Ġfamil ies
p ower
ĠP M
ĠS um
Pro p
Ġrepresent ed
, $
Ġl o
Ġsit es
199 8
Ġvert ical
Ġopport unity
at ible
Ġang ular
Ġshow ing
Ġt or
Ġclass ification
ĠT op
Ġreport s
Ġres on
Ġmass ive
m ass
Ġfunction al
at tribute
Ġmod ified
Ġabs or
A ME
Ġbook s
Ġcost s
Que ue
Ġtr ade
Ġad just
U ES
S cope
Ġmeet ing
s che
## #
ic ies
ĠE duc
Ġcom ments
Ġopt ical
Dec l
ĠS ur
aw s
TE D
' >
Ġf ather
Ġteam s
Ġm apping
ip al
Ġt ouch
ent er
t ure
ĠA L
Ġdel ay
C ustom
Ġide al
pos s
ĠA ND
Ġ ul
sc ill
c ircle
ier arch
in sert
ang ing
) ).
had oop
ar c
p adding
ig ration
ĠD an
G C
Ġcomb ined
Ġpar allel
Ġconver gence
we et
ĠWh ite
Ġpredict ion
Ġser ial
Ġdef in
Ġhe at
r f
Ġgalax y
ud es
Ġpol y
H ome
Ġindic ate
D IR
Ġex port
key s
ĠEng land
ill er
t wo
12 3
Ġun known
ap plication
Ġc ref
Class es
ĠCon n
Ġadd ing
ollow ing
des c
Ġc ov
m ann
Ġfoot ball
Ġlook s
ĠR ich
Con st
Ġinter view
S m
ĠS O
Ġex change
G R
Ġr apid
" `
S M
et te
e ach
Ġmin imal
ĠP ress
Ġj son
it ivity
O O
M ulti
ab il
em ail
Ġecon omic
Ġtr igger
ex ists
C le
D T
go ing
Time out
ess or
lo ok
25 6
ĠU ser
Ġmov ie
Ġst ories
c ategory
m ma
Ġcomput er
A tt
Ġexpress ed
as y
lo op
d iff
ag r
Ġsc ene
m iss
' .
ĠCour t
~ $\
ell ig
anc ing
Ġr ace
) +\
In itial
id ers
D R
Ġpre tty
B efore
Ġb rief
Ġdynam ic
Ġin form
aut o
Ġin sert
Con d
pro file
Ġcl ub
I con
C F
Ġcar ry
h older
Ġeff iciency
Ġcap ital
Ġinflu ence
as tr
Ġm other
M sg
ĠF ield
Ġinst it
Ġqu adr
ĠW ashington
cm d
Ġbr and
Ġm aster
c are
Ġconsider ing
i pe
Ġpl ant
ober t
Ch anged
all oc
Ġkey s
Ġed itor
n el
ĠĠĠĠĠĠĠĠĠĠĠĠĠĠĠĠĠĠĠĠĠĠĠĠĠĠĠĠĠĠĠĠ ĠĠĠĠĠĠĠĠĠĠĠĠĠĠĠĠĠĠĠĠĠĠĠĠĠĠĠĠĠĠĠĠ
Ġat tributes
Ġcommun ication
ful ly
al led
Ġscatter ing
Ġoptim ization
t n
sec urity
Ġblock s
Ġmaterial s
Ġcl imate
Ġcour t
Ġca used
atur day
Ġstrong ly
Ġindu ced
Ġcalc ulation
th read
Ġsepar ate
Ġcustom ers
H S
param eters
Ġman ufact
OD O
plic ations
ĠC all
ir med
st on
Ġeval uation
} )$,
Ġdr ive
ro ad
ymmet ric
k in
Ð º
Ġpl ans
I B
Ġall oc
maz on
Ġunder lying
ĠF inally
Ġb ank
Act ive
Dis play
Ġ Î
Ġr ise
Ġen able
Ġge ometry
-> _
r ons
Ġrequire ments
Ġtyp ically
Ġfail ure
and er
s ort
A rt
ĠHT ML
ĠF our
ĠMed ia
p ay
Ġex tr
rec ated
ĠC P
Ġp od
Ġaltern ative
N etwork
ĠT H
t w
Ġso ft
depend ency
AC E
tik z
Ġun less
Ġbut ton
ĠM A
Ġmov ed
Ġin nov
in ations
ĠAfr ica
ri er
Ġnot ation
ĠDem ocr
Ġindividual s
net work
ines e
ĠF acebook
g reen
ĠR ob
ĠB ase
Ġs ynt
item s
ĠU nder
reg ion
Ġt un
ac ro
ag o
Ġinterest ed
ov es
ele gate
Ġcent ury
Ġf ill
ap ers
ch ain
i ance
ig r
} }$,
Ġhyp ot
ell i
FI LE
Ġrot ation
os h
Ġin fr
) -\
J SON
Ġcalcul ate
ĠâĢ ¦
ab e
proto buf
) )$
Ġs al
Ġmatch ing
CH E
gr id
ĠS te
Style ID
Ġinterpre t
ĠL ong
Id ent
=" /
ogene ous
Ġcon clude
Ġp iece
} }$.
mod ules
Ġm us
op es
Ġobserv ation
he tic
Ġe ight
ram es
Ġcomple ted
radi us
ock er
-- >
Ġtyp ical
1 20
ĠT witter
ĠA N
l anguage
D raw
ud get
Ġs n
Ġturn ed
Ġo scill
Ġlay ers
Ġcalcul ations
Ġser ious
ĠB el
Ġgrad ient
m argin
Ġin str
os is
urren cy
ĠJ ournal
Ġamplit ude
Ġreg ime
D M
_ ->
and ard
ĠV iew
Ġnu cle
TE X
conn ection
se y
Ġapproxim ately
g in
i us
un signed
w ords
Ġt ab
f ix
Ġ ener
Ġcontain ed
Ġsub group
Ġm essages
; <
p anel
ip age
//////////////// ////////////////
D ebug
LO G
Ġpro port
Ġdepend ing
Ġsee k
g a
Ġrec ords
Ġhand ler
Ġacc eler
S ymbol
ĠD i
Ch annel
Ġinstance of
st able
I A
Ġprov ed
INS ERT
Ġdirect or
c ular
am m
12 8
Ġread er
Not Null
Ġman ager
ĠAcc ording
Ġocc urs
ugh ter
Sec urity
Ġfor ces
Ġsh ock
Ġm ixed
Ġcoordin ate
ad er
ĠM ost
medi ate
up s
Int roduction
ĠĠĠĠĠĠĠĠĠĠĠĠĠĠĠĠ ĠĠĠĠĠĠĠĠ
ĠĠĠĠĠĠĠĠĠĠĠĠĠĠĠĠ ĠĠĠĠĠĠ
Ġsay ing
Ġbro ught
Ġfund amental
in line
od ay
Ġs ections
ĠS und
}{ |
D P
Ġst ress
- $
F inally
B P
: }
Ġwork ers
ĠC le
St ep
ic ial
In it
Ġext end
)) )
ner gy
Ġcur v
D ialog
et t
Ġpro te
l ig
ĠF rench
R et
Ġs ometimes
un ities
min ipage
Ġre ached
Ġresp ond
ag on
nap shot
Ġmagn itude
E CT
Ġcl ick
u ous
ed it
Ġtherm al
ĠMich ael
Ġorgan ization
S end
Ġlim its
Ġp ages
Ġwrit er
Ġpo or
Ġfl uct
ĠAssoci ation
ĠIN TO
ĠDef ault
b u
M ain
Ġnot ed
uck et
âĢĿ .
Ġ icon
The y
hent ication
Ġin her
Ġch annels
ĠG old
assert Equal
Ġbe am
Ġintegr ation
ree k
ĠL ife
Sh ow
Ġm ilitary
ĠSh ow
ĠV is
c uss
ch annel
Sup port
Ġbo ost
}\ ,\
Ġp m
ĠAl though
Ġscen ario
Ġw rote
Ġuncertain ty
Ġj o
Ġ[ ];
add r
I ST
Ġenc our
$ ),
ertific ate
w hen
Ġpos itions
pro perties
ĠT ra
Ġla unch
it ation
cc cc
ev es
g est
Ġmon itor
s uch
ĠFr iday
Ġcandid ate
Ġscal ing
L ock
W A
ĠLe ague
Ġinfin ite
Ġconst it
Ñ ĥ
ol ver
Ġtr aff
T ab
Ġcl usters
Ġany one
Ġvis ible
h ere
Ġ$ |\
f i
s at
k i
}$ )
Ġch ance
op ic
c b
Ġus ual
ĠW indow
Ġgrow ing
Ã ¼
ar se
ĠA v
es ian
i able
Ġ ..
Ġsol ve
ri end
Ġb illion
Ġevalu ate
Ġp icture
Ġexpl ain
it a
Ġpres ident
ĠC A
Th erefore
ĠTex as
n umer
M T
if ul
Ġent ity
) }_{
Ġgraph s
Ġparent s
ĠA lex
ĠS un
) }}
iv ery
el ines
") ]
Run time
}{ (
Ġb us
Ġfind ing
big l
I E
Ġw aves
A v
Ġal one
Ġver ify
I X
j pg
Ġn ative
ĠS ervices
Ġs even
cknow led
ond ay
RO M
b as
Ġpl aces
Ġp ull
und red
Pack age
ĠT ext
Ġp ool
ĠVAL UES
Ġtr uth
Ġwas n
m ove
sc roll
tog gle
Ġprot ect
: =
Ġh or
Ġf ans
c over
en ed
Ġp andemic
Ġenc oding
> \
ĠN ode
Ġpro ceed
r b
ĠL ie
Ġconstruct ed
ĠB i
Ġl ib
s ince
ĠC ong
ac le
Ġb right
ty ped
br ace
ĠFurther more
Ġn ation
D el
ĠC ode
Com par
oy al
âĢ ĺ
Ġpo inter
l at
act ic
Ġp le
Ġschool s
Ġh ole
Ġdr iver
Ġtheore tical
ĠS u
ta il
Ġthan k
Ġphen omen
Ġre place
Acc ount
ĠComp any
ĠH all
Ġ[ \
n one
Ġst ock
P attern
ĠI d
Ġh ar
ver b
que ue
ic ine
M ENT
math op
Ġdet ect
op ed
ĠT om
Ġpath s
Ġhand s
ist an
Ġ{ $
anc el
big r
Ġrem ember
re y
ĠIn formation
con g
Ġv ill
foot er
ad ing
ĠE con
Ġocc up
Ġcomplex ity
R R
annot ation
ĠE v
ĠQ ue
ĠM icrosoft
AR Y
Ġsec ret
h ouse
Ġat tract
199 7
. *
16 0
t otal
c pp
iz able
oth ing
ĠW ed
Ġb lood
ist ed
fr ont
Ġconst ants
Ġcon ven
it ors
Ġf unc
tx t
Ġrob ust
ĉ ĠĠĠĠĠĠĠ
Ġre ct
A meric
g ies
_ ,
ly ph
Ġadvant age
sy ch
="../../ ../
T A
ĠC he
ip p
clus ions
ĠF alse
Ġh ous
ĠC up
Ġdes ired
P ub
type of
Ġsus p
Ġind eed
ĠP lay
Ġro ute
199 6
ilar ly
Ġm ill
pl ot
Ġdown load
Ġinit i
are n
l imit
ĠS am
ob s
P ool
pe ed
Ġsur round
Ġc amera
ĠA tt
Ġw ild
ach ing
Ġis ol
ĠS y
Ġre asons
Ġsp ot
ĠF ore
P erm
os ity
[ :
Iter ator
ig ital
Ġab stract
[ $
Ġcontinu ed
Ġreplac ed
P AR
ri an
, {\
ann er
Ġscal es
ĠM us
F loat
Ġmat ches
v s
id en
ent y
ev ents
Ġachi eved
cre t
ĠW il
ĠE ven
Ġ ion
Ġre ject
ig er
assert Equals
Fe ature
Ġey es
Ġmov ement
Ext ension
w ik
F S
ĠPro f
Ġf lex
Ġcommun ities
ĠM usic
se lected
Ġsh ot
Ġdeg rees
Ġf elt
Ġp ark
A uth
n ames
] }
Ġc m
Ġtr ace
ail s
Ġproject ion
Ġcoeff icient
str aint
od ec
bo ost
Ġrespons ible
ĠUp date
L java
Ġb in
ĠUS A
ph one
Ġlabel s
Ġd ir
Ġf reedom
Ġrec all
ĠS aturday
Ġexpon ential
Ġqu arter
Ġro ll
G raph
erv ed
ĠT O
Ġg ain
l ers
A c
ash ion
og en
ĠEduc ation
Ġprofession al
Ġdet ected
ĠAn y
L a
sum e
ĠSup er
Ġexpl ained
Ġ ^{
ven ue
r im
Ġh tml
B it
ĠR oad
ĠOff ice
ou thern
M edia
ĠH and
Ġcon sole
C M
Ġphys ics
sp ring
if ts
Ġimplement ed
\ ;
Ġm obile
ĠM o
\ )
ĠC H
im pl
Ġstart s
Ed itor
Ġent ries
app ly
ĠH ead
S ome
Ġj Query
Ġtra ject
ĠD istr
Ġv oice
SI ZE
ĠU N
ues day
Ġj ournal
c ref
ĠT wo
ĠE arth
Ġchall enge
ens ed
Ġchalleng es
ĠSt art
ĠEx p
L INE
ĠT im
ĠT ask
un ct
I MP
est ival
ĠU kr
ĠSt ar
Ġrecomm end
ĠD et
v c
Ġnu clear
est s
Ġpr im
ĠS l
$ {\
on ym
em s
Ġpre m
at io
Ġexplicit ly
et ween
. __
form ance
B ook
Ġn orth
Ġdec ided
,\ \
Ġwe ights
ur ations
less sim
r ical
boot strap
am el
ĠL i
ig gs
ĠG lobal
$ _{
b p
Select or
ĠDistr ict
Ġtechn ique
urre d
ĠPro v
p ool
block List
n n
sk i
ĠJ ul
Ġst ated
Ġ\ (\
VER SION
s ite
c ape
Ġdis trict
M at
Ġo wner
ĠV ersion
ĠR iver
con v
anes e
Ġeff orts
cl aim
O pt
Ġform ed
ad s
Ġb orn
ang o
aw a
Ġp seud
Ġs en
Ġchem ical
web pack
F ull
Ġsh ip
w ait
MA X
G P
Ġp y
m aster
Ġsol ar
G u
ĠP ub
pr imary
fl ags
ist ant
Ġle mma
rel ations
ĠV ir
Ġinst ant
by tes
ĠB er
ĠO p
Ġf irm
() ).
Ġse ed
Ġd ied
Ġimport ance
ĠIm age
Ġn g
F ound
. &
ĠS E
import ant
ar ation
Ġtr ained
Ġg old
Ġp or
Ġ[ [
ĠĠĠĠĠĠ Ċ
Ġarchitect ure
ĠPh ys
Ġpattern s
Ġsem i
Ġsum mer
Ġdis crete
Ġeff ort
Ġin valid
ĠIs ra
) [
Ġcon j
l arge
$ :
int eg
ĠG en
Ġl umin
Ġag ree
Direct ory
m aterial
it iz
Ġset t
script style
E vents
u um
A uthor
ograph ic
Ġpower ful
Ġth er
Ġd b
ch mark
Ġsatisf ying
Ġconv ex
Ġb undle
Ġph one
S he
Ġsp ent
Ġst ability
Ġro ugh
( !
Ġin struction
) "
ĠDirect or
ST ATE
ĠMark et
Ġpub lish
k m
Ġw rap
Ġsign ature
Item s
Ġdatas ets
At tributes
Ġsup ply
ĠL L
Ġimprov ed
Ġs ales
Ġ ens
Ġpro pos
hem at
IV E
In ternal
h ow
Fl ags
Ġplan et
ĠS al
Ġen abled
struct or
Ġneut r
Ġwhere as
Ġregard ing
Ġent ropy
Ġth ous
Ġrequest s
Ġl icense
Ġaccur ate
U ID
Ġmin or
p ir
ĠPl an
Pro xy
Ġlist ed
D et
por ate
ĠCh inese
B E
Ġsecond s
C ap
b el
Ġcolumn s
ol es
ĠG ets
Con f
iter ator
t frac
pass word
Ġlead er
Po inter
Ġcar ried
ĠEng ine
ĠOn ly
Ġe arn
gr ade
rec ord
Ġjav ax
Ġmax im
ol f
ĠD iv
Ġr aw
are a
ĠT em
az z
Ġdes pite
Ġpl aced
ĠEx t
Ġprinci ple
per iment
)) );
ic ations
Ġpl us
Ġtraff ic
Ġh uge
ph ys
Ġto ward
Test s
anc er
Ġide as
ĠSm ith
Ġth r
urs day
F IG
R AN
ĠE very
Ġsign ed
Ġopen ing
ĠB ank
Ġb rowser
a ud
Ġc at
ĠCom mit
ĠCh ild
ĠCom put
br id
^* $
s ample
Ġbenef its
Ġapp lying
Trans action
inst all
ĠSund ay
. '
Ø §
Ġmajor ity
G lobal
f ail
() {
ub y
stand ing
Ġemploy ees
Ġden oted
Ġr are
ĠH y
sing le
t ip
__ __
ĠH istory
Ġir re
Ġview s
cont roller
is ely
tribut ed
ap es
r andom
Ġcon vers
ĠT or
ad y
j ac
IC E
p at
ĠMan agement
' d
ampions hip
Ġcomm erc
Ġfl uid
Ġgu id
ON E
Ġautom atically
++ ;
Ġchang ing
199 5
ĠB ack
T ABLE
() ));
$ };
Ġrem ark
ap y
Ġvari ation
Ġpers pect
th rows
at o
O ther
ut able
199 0
Ġrel ig
ĠFr anc
1 10
ĠCh urch
and ra
Ġserv e
Ġstat istical
ĠB ecause
Ġgener ic
ĠM iss
Ġa ware
) )\
ç ļ
Ġlet ter
Ġi o
par a
k l
al gorithm
hen s
ST AT
Ġstat istics
P od
s ave
L IC
ĠF lor
CHE CK
H R
S ch
ĠRuss ia
v ey
Ġpat ient
ĠPol icy
ĠDevelop ment
ĠJ er
Ġinst ances
sc ape
clud ed
Prot ocol
S cale
F ail
Trans form
çļ Ħ
ĠTechn ology
print f
Ġw ants
ĠRep ort
_ (
Ġsum mar
\ }$.
m b
Log ger
Ġw id
[ -
ĠL ocal
Ġsm art
}[ \
ĠI R
ĠC R
ibr ation
pl ugins
Sc roll
ĠCol lection
Reg ister
ve e
u ce
@ "
Ġh undred
Ġtechn ical
a ver
b or
Ġhe ard
Ġs ampling
Ġbal ance
Ġrem ote
Ġ eth
ron ic
e al
Ġestim ation
ing ly
ĠN umber
N T
f amily
] :
ĠBo ard
In v
F unc
Mem ory
] $.
ur a
Ġf n
ĠG ood
Ġturn s
Ġis omorphism
ph as
ĉĉĉ Ċ
}) }
Ġopen ed
Cl ose
it ative
Ġw all
RE AD
Ġbenef it
Ġcan cer
Ġrepresent ations
Ġre tri
our ney
IT E
ow ers
ĠM ary
drop down
Ġ% }
ĠL android
b en
ĠD en
}} _{\
iffer ent
Ġsum mary
ĠA ward
Ġin verse
ĠJ ew
ĠR ad
ĠAr g
Aut o
ov a
Ġstring s
Ġmost ly
}} )
Ġlook ed
st ein
Ġd aily
######## ########
Ġf erm
ĠM onday
ĠS ociety
Ġcont roller
Ġradi ation
ĠT ri
Ġcon vert
ĠGe orge
Ġequ ilibrium
iv ation
Re ce
N amed
Ð° Ð
ĠT ODO
ĠP ath
Ġmed ium
ĠL ou
Ġsom ew
P M
Ġbuild er
Ġpredict ed
ï ¼
ĠG l
Ã ¤
Ġs outh
k w
res et
Ġd ram
Ġo il
IN D
ĠL at
Element s
long rightarrow
S Y
Ġsuggest s
Ġveh icle
Pl ugin
Ġa udio
Ġtype of
Ġcapt ure
Ġt err
re lation
s chema
Ġfil ms
Ġ{ {
Ġw at
Fil es
ĠCol or
Ġexpl ore
Ġdecom position
acc ount
Ġb os
Ġla un
M atrix
ĠL ink
ĠCar ol
er ial
Ġobject ive
Ġ( _
ce ptions
dep th
ĠFr ance
s creen
nes day
org an
k o
Ġgr avit
P ORT
H ER
Ġ" "
ĠV ol
Ġ ×
Ġbi as
u zz
hand ler
/ (
typed ef
Ġd og
Ġ{ '
ĠCopy right
met adata
25 0
tool s
ĠAc ad
Pr int
Ġloc ations
Ġim plements
( __
par agraph
Ġs izes
Ġre q
ph ant
f ol
Ġab und
Act ivity
) ">
Ġs ell
Ġserv ed
Ġw ife
Ġd uration
art s
low er
ĠM er
Ġsu itable
Ġhapp ens
test s
ĠR ussian
plic ity
il ing
Ġfeed back
con tains
Ġlearn ed
T wo
stit ut
ix els
ĠSec ond
Ġgr and
am er
Ġallow ing
Ġdist ingu
ĠR obert
os itory
ĠSt at
ĠO ption
it ar
h idden
Key s
Ġlocal ly
T erm
y an
ĠĠĠĠĠĠĠĠĠĠĠĠĠĠĠĠ ĠĠĠĠĠĠĠĠĠĠĠĠĠ
Ġmod ul
S QL
d frac
ĠH ill
.... ....
Ġcover ed
Load er
Des c
ĠGerm an
iven ess
f d
Ġm ission
Ġw el
M OD
child ren
Ab stract
ĠIs land
, ...
Ġsh oot
T ra
Ġd ust
Ġgo als
J ECT
ĠIO Exception
Ġw allet
Ġsupport s
cl uster
and a
t ies
pl an
H igh
Lay er
ĠThe ir
Ġmet al
Ĥ ¬
Ġ\ !
" /
6 00
Ġkn ew
om ent
Ġb ill
}) ^
Ġqu ark
al gebra
ã Ģ
Ġt end
Ġs un
T ags
ĠSt ep
it ness
h ome
Ġque ue
b ot
pt on
Ġhe ar
ĠS ocial
Ġrel ax
w orld
Ġapp arent
erm an
re du
or ial
ĠN ext
Ġw onder
fl at
ĠComm ission
ymmet ry
}) =
if iers
Ġneighbor hood
Ġpart ner
Ġcontin ues
V M
Ġor th
Ġinvestig ate
uc ial
im s
tr igger
li k
Ġn amely
U LE
ay lor
i ota
j i
ĠCent ral
ĠA mazon
ĠL and
C ar
Ġbehavi our
ĠT imes
astr ucture
Ġevent ually
Ġcharacter istic
om a
Ġmor ning
Gr id
ult ane
Ġaw ait
ĠL ine
t or
Ġpl ays
ĠH ome
Ġind ices
s witch
ĠCon fig
Ġcall ing
Ġh our
id x
j a
com ponents
$ &
S ER
ip ment
Ġtyp ename
At tr
Ġf ederal
r ich
in her
z en
Ġsufficient ly
ĠC amp
Ġs ustain
Ġpol icies
Ġcon sequence
Ġold er
ĠG reat
Ġa ver
ĠS pr
Ġrecord ed
Ġexpl an
N ULL
O F
ul s
"> &
Ġ\ &
t ics
pos itory
ĠT uesday
Ġr ich
Ġb log
ident ifier
ĠB oth
Ġassum ptions
ĠApp endix
Ġtrans l
ĠAp ple
s ym
Ġne ural
W R
T T
ele ase
ĠĠĠĠĠĠĠĠĠĠĠĠĠĠĠĠ ĠĠĠĠĠĠĠĠĠĠ
Const ants
B ound
c hen
Ġex cell
al d
Ġan c
Ġout er
Ġop in
ch or
Gener ic
M I
Ġco inc
Ġn om
Ġcan onical
az ine
ĠPro t
Ġprov ider
Ġp refix
] $,
el ess
F urther
ĠS D
Com mon
t iny
ĠP ower
ĠMin ister
st ro
Ġdest roy
Ġcre ation
Ġd ie
Ġdr iving
Ġ\ ]
empty set
Ġappe ared
man ager
Ġsp ac
s ys
Ġcomput ing
Ġclaim s
Ġmanif old
i em
os es
ĠChrist ian
ap pe
Ġmet rics
ĠInd eed
ĠA ction
Ġor bit
Ġaff ected
Ġke pt
Ġcov ari
Ġk ids
Ġspe ak
Ġtre es
Ġepis ode
S F
S pace
Or ig
ul ator
ed y
ĠGovern ment
not es
P ER
ĠJap an
sl ash
Ġk illed
let ed
Ġo k
Ed it
ĠB rown
@ {
i ate
ed itor
Ġsuccessful ly
f old
Ġexper t
t an
Ġupd ates
ĠG ame
ĠWe ek
p erson
F ix
N amespace
od d
Ġp aid
;\ ;\
', '
at tributes
'] )
Ġem it
D ouble
Ã ¶
v a
Acc ording
ĠPro perty
Ġown ers
f ound
Ġcover age
^{ *
C RE
is is
b rief
Ġcommerc ial
Ġm eta
S w
up load
ð Ł
Ġdiag onal
V olume
comple te
u ing
Ġw ish
}} .
D iag
ed er
Par se
Ġord ers
rypt o
To String
En um
Ġw arm
Ġbul k
Ġconn ections
Go ogle
B B
Ġre con
G en
ĠF ree
oriz on
ĠPe ople
l f
ĠSec urity
Ġpredict ions
S ocket
ĠM ake
ens us
Ġfocus ed
UT F
Ġtrans lation
Ġk m
eli hood
Ġderiv ative
Rem ove
Ġid x
} </
d p
Cl uster
Ġun ion
m ask
ĠR ock
Ġag greg
ĠIn itial
Ġexecut ion
ĠIt s
Ġtri al
Ġper haps
Ġd iam
od ies
Pro of
ĠUn ion
Ġsatisf ied
gener ated
Ġpl anning
Ġbusiness es
Ġp ars
Ġman ner
Ġf arm
M ed
,\ ,\
Ġsub stant
Ġmax imal
ition ally
Ġtop ic
lect ric
Ġst ored
ab y
Ġ} {
ist ing
ant a
poss ible
Ġcontrol s
W N
Ġoption al
onal d
in ator
Ġinvest ment
sim ple
imit ive
Ġinter act
âĢĿ ,
Ġc ategories
Ġel im
Ġstr ugg
i en
m n
Ġoper ating
199 4
Ġm enu
A CT
ec es
ĠL ear
Ġ( {\
Ġapplic able
Ġconf lic
| }{
Ġconf irm
ide os
* )
form al
Stat ement
Ġexpress ions
U SE
Ġfin ished
00 1
Ġtr ivial
ict ed
ĠT ur
S ingle
Ġdescri bes
Ġener gies
struct ure
art icle
ens ities
ential s
Ġ ).
Ġc ivil
Ġp aram
Ġt al
N odes
Ġinter section
Ġvalid ation
P anel
och astic
Ġval ign
Ġa head
ĠP oint
s ymbol
Ġposs ibility
E ST
og ram
Ġclin ical
ĠP age
ub ble
med skip
Ġs ociety
qu ant
ĉ ĠĠĠĠĠ
Ad apter
pre v
Ġopport unities
ĠS M
Ġtre ated
al a
ĠS uch
==== ==
Ġag ents
sum er
tr ivial
k ens
18 0
L oc
ĠS ing
Ġsp an
Ġfour th
Ġd ot
Ġlist en
ĠP en
ex pr
ĠT our
Ġat mos
t mp
est ion
f x
g it
Ġv ote
Ġd x
al ing
ĠB ill
E V
gener al
ĠS il
ĠâĢ ¢
Ġcred it
Pro file
Ġp i
W rapper
ĠGerm any
ut y
Ġmain ly
ĠN et
Ġad vert
Ġfore ign
Ġm ur
Ġl iqu
S che
a us
Ġphot o
B I
Ġl ies
}} }\
col lection
N OT
Ġg lob
he ta
G N
Ġrow s
ser ial
ĠF und
pp ed
ĠThom as
Ġvers ions
igh ter
Ġse a
ĠInt eger
Ġre ality
Ġjob s
ĠB lock
g b
angu ages
Ġcandid ates
Ġsk ills
ĠE nergy
Ġgu ide
ic ed
Ġdef orm
th ere
ĠM il
Ġsequ ences
Ġstrateg ies
ack et
Ġhappen ed
Ġsp irit
NavBar Cell
Ġshe ll
Ġs ym
Ġd ream
A U
By Id
Head ers
sem ble
Ġcol lected
O UT
br as
h ave
IP T
Ġthe ories
nost ic
get Name
Ġ ],
X ML
Ġrepresent ing
all ery
Ġann ual
Ġthan ks
Ġmet adata
ĠFlor ida
Ġpr ime
ad ian
Ġh ospital
Ġinvest igation
Ġconf idence
Ġf ol
b c
Ġg irl
Ġcharg ed
Ġevalu ated
Ġas ync
ĠC are
ĠA M
Ġinput s
ĠM ain
Ġmay be
G iven
P op
Ġint ensity
M ag
J ava
Ġind ust
ĠG iven
bm atrix
Ġdirect ed
Ġsh op
Ġprec isely
Ġbeaut iful
v ed
S ync
function s
script size
ce an
sub s
Ġsuggest ed
ĠT R
Ġapp end
ĠD ir
Pro duct
}} ^{\
d em
un ately
b ad
ir ls
ass ets
resent ation
ĠJ ava
Ġdes c
ĠTh ursday
ĠRes ource
)-- (
Ġb ed
ĠSc ott
Ġ$ ,
p u
Com ment
ar ity
as et
Eng ine
p refix
ĠRe act
ĠWindow s
Ġre produ
Ġra ised
ĠInd ex
Ġconf irmed
z one
Ġder ive
F ailed
sequ ent
Ġrad ial
ĠD uring
ic ago
ist ence
Collection s
Ġc tx
Ġact s
Ġf aster
cl ine
Ġw ire
N C
- (
tain ed
BU G
Ġz one
agr ang
pro ps
Ġcar bon
w p
P refix
{ %
ĠM ex
Ġanaly z
Ġin fer
Ġad m
Pro ps
Ġdoc uments
Ġembedd ing
Ġcomm ut
Wh y
pl atform
Ġl ic
plic ated
ĠL ead
P ATH
v art
ĠL ibrary
Ġj ump
O B
Ñ ı
Ġs ports
ĠP ass
w est
j unit
m o
ut f
Ġem phas
J S
ĠComm unity
Ġapp oint
Reg istry
Reg ion
âĢ ¢
ĠB re
Ġmark ed
et al
sv g
Ġnon linear
Ġrefer ences
8 00
Cons ider
ĠPro cess
requ ired
r ase
Ġs pher
Ġfl ags
b orn
config uration
H ence
v als
Ġcontr ad
Ġd u
Ġb udget
ĠCE O
ĠB it
ĠFranc is
Ġintegr ated
ĠPart y
Ġextrem ely
Ġpur poses
] {\
Ġ[ ],
Ġtri ed
Ġart ist
y cle
D uration
ari os
Ġap pre
Ġhel ps
| }
av our
Ġdo or
Ã §
Ġc old
C G
F ind
f ixed
Ġmom ents
Ġcurv ature
Ġfund ing
cl ip
TEX T
) }_
Ġgr avity
par allel
ĠCommit tee
}_{ -
il bert
Ġtrans mission
nd ef
sh all
it o
ĠG al
pl ane
Ġj et
L emma
H istory
St ats
at iv
ĠCl ub
ĠM ass
Ġcertain ly
prot ected
em on
e cho
Ġgeneral ized
Ġconstruct or
Ġlay out
P ay
ig an
ot on
Ġass igned
ge bras
ag ram
up lic
Ġ ,\
Ġquant ity
k t
ur able
Ġlaw s
RE G
eng ine
ou ter
ĠSo ftware
O M
v ol
Ġecon omy
ĠWed nesday
Su ccess
ir ror
Ġcustom er
ĠS ign
10 1
Ġphot on
Ġpro pose
S eg
sh adow
log ger
Ġreveal ed
Ġenh ance
l ife
Ġsh ut
w ill
et es
Ġin come
Ġtop ological
Ġ" ,
Ġasympt otic
mon th
Ġcol lege
Ġle aves
ĠFr ank
CO MP
Ġorgan izations
Ġcor ner
Ġmorph ism
Vari able
Ġac ad
d one
Ġus age
}} =
W ill
d ing
S V
Ġposs ibly
Ġvari ance
ĠCont rol
y es
ĠGr and
ellig ence
} ~
Ġex ceed
if def
M ay
rop ic
LE CT
fil ename
UR I
Ġfem ale
b ib
\ }\
ĠAfr ican
} |\
Ġattack s
M ath
s quare
neg ative
ĠL in
j query
Ġw arn
TI ME
Ġthink ing
ĠJ ac
b d
Ġl abor
Ex pr
Ġenvironment al
Ġt it
Ġt ail
L en
Ġca ref
ĠA P
n il
fig ures
Ġrepe ated
Ġf ear
Ġsign als
F E
Ġign ore
E ff
Ġcompos ition
l aw
RE S
u an
en ess
ĠK ore
ard en
LO CK
Ġcl ients
Ph one
R est
st one
ĠI mm
S equ
Ġex it
Ġenc ounter
Ġtemper atures
-------- ----
h ang
ĠR et
vart heta
Ġtr ail
Ġdynam ical
or a
Ġdis s
Ġindic ated
Ġd imensional
Ġnecess arily
b re
ĠGe V
Ġor b
sec ut
Sim ple
Ġre action
ĠL ast
Dom ain
ĠK e
> ::
ex ternal
Ġequ ality
ĠP eter
ĠA uthor
Ġtest ed
R oute
ict or
P y
ord ers
Ġexper i
Ġ-- -
Ġf resh
Ġm ys
Ġmod ules
ro le
Ġen v
C B
avel ength
ĠP R
ign ment
Ġdepend ent
Ġs ch
A x
Ġsize of
Ġd iver
as ion
Ġpro xy
orn ey
Ġcomput ational
Ġdemonstr ate
Ġsim ultane
t ensor
Ġhelp ed
ell a
12 5
Ġbr ain
ĠVir gin
Ġquant ities
ĠW estern
f ire
pro gress
Sec ond
ĠAd min
ĠC ase
ĠH uman
ĠW ell
Ġconduct ed
Char acter
ab it
ĠG P
199 3
S yntax
ĠĠĠĠĠĠĠĠĠĠĠĠĠĠĠĠ ĠĠĠĠĠĠĠĠĠĠĠĠ
Ġfe et
Ġb its
ast e
I ZE
Ġoffer ed
Se lection
Ġey e
ĠD at
co q
ĠDes ign
Ġpre par
p an
key word
M apping
rior ity
Ġprec ision
ĠS QL
W orld
pre c
Ġ ult
=" ${
Ab out
oper ation
ĠO h
: =\
Americ an
ĠTe am
s n
Tr ace
u v
um es
test ing
p icker
Ġcl ock
U ri
ĠA ccess
199 2
Ġfact ory
D est
ur ance
ch anged
G O
head ers
Ġcos m
ĠH ash
ĠM any
; /
Ġjo ined
T V
Ġrest aur
ex tern
S ym
ĠEx ecut
Ġstat ements
Ġpro files
ĠM el
ĠReg ister
Ġexc ited
ĠD om
ĠM useum
Ġag reed
Ġident ical
Ġcharacter istics
Ġ il
Ġst uff
Ġaud ience
agrang ian
IT ION
li e
par ser
\ }$,
in ity
h ide
Ġc row
Ġop posite
column width
ĠJ ose
Pre vious
s afe
he el
ĠC ustom
Ġorder ed
Ġprot ection
Ġdam age
G A
Ġhead ers
al i
abe led
Ġle aving
b ro
L ook
Ġdevelop ing
w a
Ġleg is
ii i
ĠD own
ĠP et
Ġb atter
ook ie
tikz picture
p res
Ġres olve
Ġhapp y
ĠSpec ial
ĠM ount
ched uler
ĠN on
Ġg ather
exp and
AL SE
Ad min
T otal
H C
Back ground
& =\
lap se
pt o
% )
Ġpr ivacy
P ublic
Ġexpl o
Ġs ides
v olume
ĠT re
IG HT
ĠCong ress
spec ific
ĠSup port
Ġcorre ctions
Ġr ig
Ġpr ices
err ors
por ary
prot ocol
B rowser
ell o
f ony
Ġtransp arent
' ));
man if
Ġxml ns
sl ant
+ (
Ġ> >
Ġparticip ants
ĠWh y
Ġd anger
Ġcr yst
d i
Ġb ands
Ġend s
Gener ator
ĠC a
Ġcompet ition
}$ }
ph ase
og onal
U pd
im inal
Ġaspect s
Ġcan cel
\% $
d etails
iv ated
multi row
st ates
Ġpass word
Ġman aged
dec l
ĠC D
Ġdet ector
Ġcon vent
Ġdef ines
s ch
ĠF ind
ĠW omen
w t
Ġco her
. \\
if er
ĠH ot
h ar
Ġofficial s
Ġnormal ized
Ident ifier
ĠĠĠĠĠĠĠĠĠĠĠĠĠĠĠĠĠĠĠĠĠĠĠĠĠĠĠĠĠĠĠĠ ĠĠĠĠĠĠĠĠĠĠĠ
= [
ĠCons ider
ab ric
h u
Ġda ughter
Ġcorre ction
Ġcirc um
Ġb atch
Ġcho ices
) ->
U nder
ate ver
n odes
F in
Ġreserv ed
Ġn arrow
ĠEn ter
) })
Rep ository
trans ition
Ġj ourney
re port
Ġpass ing
% ,
rom ag
Ġc itiz
Ġbro ken
Ex ample
s es
Ġ ice
Ġrefer red
Rep ort
ĠI ll
Ġgener ator
Ġn ice
Ġred shift
Ġdecre ase
ĠL os
or row
%% %%
dev elop
Ġcy cl
ER S
L i
ĠL ee
ĠRe al
S cal
const ant
T F
Ġeigen values
Ġpart ies
ĠA I
Ġthem e
TR UE
J ohn
Ġinc ident
ĠM ont
Ġgener ating
Ġsens itive
Ġassum ing
Ġart ists
ĠB ob
Ġeas ier
ĠH iggs
ĠN Y
Ġp urs
AD D
ĠA SSERT
ir a
Ġrec over
Ġf an
Ġr ational
ĠW AR
$ /
Ġm ale
Ġspec ify
f ast
! \
Ġspec ifically
ĠD u
][ ]{
Ġperspect ive
Ġcriter ia
D etails
du led
Ġfin ish
n ight
Ġs ynchron
Ġeffect ively
u ced
ro ut
> :
Ġapproxim ate
Ġcould n
en able
Ġd oll
ĠP RO
Ġte lev
ĠN E
rit ical
ĠP lease
Im port
Ġlow est
Ġspe ech
ĠIn vest
Ġfluct uations
ob serv
Ġimprov ement
iss on
C ategory
Ġquas i
Ġsong s
. ",
ext ension
Ġ" -
Ġinv olving
Ġd ense
Ġal leg
sub sec
ĠAb out
j ar
ho ok
V ideo
ach ment
atur ally
= .
L R
b rowser
s ome
19 80
Ġdest ination
Ġ ing
is er
ĠM essage
ex ecut
^{ (\
Gener ated
clos ed
Ġt ight
un ique
Ġadv anced
pt ic
Ġfavor ite
u y
Ġ ip
Ġsup pose
Ġlaun ched
X i
h ard
m i
Ġbig gest
Ġhypot hesis
Ġdis p
ĠL ake
se q
fe ature
Ġme ant
ĠL ook
Ġcons ult
n i
Ġdr ink
Ġ" <
iter al
Ġachi ev
Ġb tn
Date Time
Ġwait ing
st ood
FF FF
Ġinstit ut
Ġinst alled
ĠBo olean
Ġequival ence
Ġmix ing
Ġd ashed
index Of
Q U
ar ith
Ġdirection s
tab s
Ġk in
Ġst ochastic
=" "
is ot
f ly
t ion
ĠRich ard
c ounter
g ather
am ps
Ġv ision
Ġelectron ic
ĠW ho
å ı
EN SE
Ġmag net
P Y
ĠL y
tem p
Ġsecond ary
ĠYou ng
ĠAnd roid
Ġex erc
à ¥
ĠP A
ĠJ oe
Ġadopt ed
Ġvac uum
Ġw ood
=" ">
p air
ierarch y
Sup pose
equ ations
ĠS ym
Ġlog ger
! âĢĿ
Ġf ashion
Ġext ent
as ync
\ |\
\ /
Ġtime out
Ġca uses
Ġfind s
Ġsk y
d ash
ell er
not ag
in os
Ġlist ener
Ġun iversal
Ġd ialog
Ġregister ed
orig inal
Ġfore st
ĠM ur
ĠRequ est
Ġexcell ent
s heet
t ags
Ġpl as
Ġbre aking
Ġcent re
Ã ¢
Ġcon tribute
Ġessential ly
g ers
reg ular
Ġcon ference
Ġiter ation
Ġde leg
ra ise
j ango
Ġf loor
at i
E mail
av ior
Ġfor ced
r ank
t ons
iss ues
ĠR oman
G a
I LE
pl ates
Ġclos er
Ġcomp atible
^* \
tri angle
An other
d ialog
Ġsk ip
Ġpract ical
Ġart icles
Ġyour self
Ġcouple d
duc ible
Ġequ ipment
Ġcontrol led
Ġresid ents
re land
. ");
Ġsc roll
ĠIsra el
Ġsec ure
More over
, '
z ure
ff ff
Ġprinc ipal
Ġsup ers
conn ected
Ġproper ly
Ph ys
$- $
ĠS earch
Ġdisc over
ĠOr ig
i ro
am in
ul ner
Ġar c
ĠO ld
ĠU I
L android
ĠF amily
Ġare n
S ervices
Ġg one
ĠI II
ĠE p
Ġu i
Sh ape
Ġconfig urations
Ġcont ents
ĠP op
ĠE lement
Ġ' <
phant om
an ish
ins ic
ĠUkr aine
ĉĉĉĉ ĉĉĉĉĉ
ĠW ay
l ibrary
ts d
build er
ĠB ur
Ġcharg es
k ins
C red
Ġtyp ed
ĠT own
ĠE V
Ġdel ivery
act or
ĠP H
Ġgu ess
Ġappear ance
F UN
Ġen um
ĠI E
Ġprom ise
Ġ= ========
Ġr ac
cuss ion
Ġlumin osity
pl ier
n p
Ġan om
Ġfil led
pr ise
Ġdefin itions
prov ider
Ġocc urred
ser ies
Ġbe coming
Ġd t
u cl
ct ic
< !
ĠS pace
Ġvers us
ĠP an
Ġdemonstr ated
( -\
S G
L in
D epend
Ġm iles
ul ating
res ize
0000 00
Ġar rest
Ġveh icles
b lem
Ġtalk ing
R T
Ġl ie
l legal
ĠN AME
Ġconcern s
math it
Ġwid ely
Ġ$\ {\
ĠJ un
Ġmole cular
F P
M any
er ior
at re
Ġreason able
F N
Ġpar ser
if ndef
Ġg ate
Ġadv ance
Ġinstr ument
Ġcr ucial
Pro gress
plement ation
exp ect
Ġb attle
ĠS ource
Ġsh aring
ĠSc iences
Ġwh om
Ġcon clusion
D elegate
Ġtelev ision
se par
Al though
F low
ap se
j ob
Ġsee ing
& -
ĠLO G
ĠA T
st orage
Ġs leep
) ^\
ĠH en
Ġphot os
ject ion
bold math
J oin
g ame
ic ular
Ġnot ion
at ar
ĠVal id
ĠD igital
ĠOb serv
Ġnav igation
ĠIn put
> ()
c n
y e
ĠC art
Ġdocument ation
Ġfr agment
ap l
R ole
ack s
Ġredu ces
w rapper
Ġp ixel
Ġcom fort
p attern
Ġassert That
enc ing
Ġanim als
HT TP
Ġinitial ly
ud d
Ġin vari
Ġdisc overed
VAL UE
Ġperform ing
init ely
Ġnot es
en abled
ĠHT TP
us hed
U D
ĠIntern et
p et
( @
ĠCh icago
F LA
Ġact ing
ĠM ov
Ġb oy
Ġpl ugin
}\ |
Ġkeep ing
ĠSec ret
ĠMart in
cle an
Ġex ecute
Ġexper iences
L imit
Ġp p
Ġres et
ual ity
ess ions
Ġded icated
es h
im its
Ñ Į
Com put
cor ollary
b asic
ĠM a
Ġdisc rim
om ics
S N
inst ein
z y
Ġ} }
Ġdec ades
P D
Ġm arg
ask et
Ġ ];
w atch
Ġch urch
» ¿
in ating
if ted
Ġc odes
Ġleaders hip
Ġh orizontal
B L
at omic
Ġinter mediate
stack rel
Ġfl ight
Child ren
t k
plac ement
Vert ex
Ġph ases
f riend
P lay
Ġear th
us band
text up
=" @
ret ch
Str uct
Ð ´
ic ing
ï »¿
Ġs ale
Ġpres erv
u er
Ġt x
T x
Ġtem p
con tain
Ġknow s
ĠT erm
Ġsub sequent
al ian
und efined
Ġd raft
Ġperturb ation
end or
ĠJap anese
h orizontal
Ġsc ores
Ġbas eline
j et
ĠAng eles
check ed
h l
id ential
Res ources
St op
~ (\
ĠComm un
Ġfa ith
fin ite
ĠCh ief
ĠJ im
st ats
sl ice
se g
v ideo
j Query
Ġoriginal ly
res ources
Ġtarget s
Ġr ail
B ind
u on
Ġdec isions
| -
Ġf mt
ex ecute
m oment
ol a
I gn
ĠLou is
(' .
Ġf lo
Ġdef ense
; }
Ġint ended
Ġis ot
script scriptstyle
Ġatt end
sh ared
os c
h ref
à ¸
b g
Ġfig ures
ĠM ulti
Ġf ish
com b
ĠE U
OR TED
est ic
m k
Ġth in
Ġinterpret ation
Ġinf lation
Ġscen arios
ĠP erson
po ch
rem e
ĠL u
or ient
d etail
um my
tr ace
Ġsens itivity
ĠCent re
Ġ' '
tr im
erv ised
Ñ ĭ
ext end
Ð ¼
Ġb ind
s ig
Ġtri p
it ely
V E
Ġrelationship s
Ġcult ural
! ]
ĠAd v
ab out
pro xy
Sh ort
Ġcol ors
Ġex cess
sp in
S W
Ġp sych
Ġpolar ization
Ġc ities
Ġfind ings
Ġfam ous
ĠAs sembly
F ree
ynam ics
com pl
Ġpotential ly
ĠEx ample
text color
Ġin clusion
Sum mary
C ho
Ġm erg
H om
y g
me an
ĠS ol
On ce
Ġpract ices
an aly
ĠOn ce
Ġgravit ational
Ġfund s
Ġaccount s
Ġmarket ing
Ġmov es
Ġselect or
in variant
g ba
Ġend ed
ĠAN Y
ĠJ o
ĠInst ead
ĠH ttp
ĠJohn son
support ed
us ers
Ġ[ "
D iv
back slash
End point
ĠW ater
Ġtw ice
is or
at on
B est
Se lected
requ ency
ĠOr gan
ĠM ad
l g
Wh ere
ĠEn vironment
per iod
Ġc ub
ĠÂ »
Ġan imation
Ġwe ap
ĉ ĠĠĠĠ
Ġb inding
time out
arg ument
is c
ac ific
Ġb urn
D ictionary
Ġtrans late
ok ed
Ġconsum er
RE Q
ict ures
ri age
$. }
Ġv ideos
Ġb uf
Ġf re
t c
Ġun iverse
ĠChrist mas
element s
e lem
as tern
ĠF OR
Ġch ief
Ġc ars
Ġadmin istration
ail ability
Ġad jac
Ġf if
ĠAr ab
h fill
ĠAustral ian
stit ution
Ġhistor ical
Ġprote in
Ġtal ent
in valid
^* (
Ġ _{\
Ġg un
Ġent ertain
Ġsupport ing
En ter
Ġclos ely
Ġoffer ing
D on
Ġc md
sc opic
Ġc atalog
et ry
ion e
Ġcheck ed
Ġdis abled
ĠJ ud
F ORM
ak a
S ur
w all
Ġd ict
im a
. $$
B egin
Ġas sembly
m oz
Ġmod ify
Ġlog ic
Ġabs ence
ĠÂ £
ĠF ort
199 1
group s
Ġge ometric
Ġ{ "
Ġem ot
cri bed
E val
ir ation
nost ics
Î ±
ig ate
Ġtechn ologies
Ġsen ior
Ġcon figure
Ġcomple ment
Ġanal ys
urb an
AN T
Ġinfr astructure
) >
ĠĠ čĊ
Ġstandard s
ĠPar is
ibr aries
Ġuncertain ties
Ġch art
Pass word
o es
DE FAULT
Ġvalid ate
Ġco ach
= >
Ġrestr iction
ĠB iden
Ġsur faces
RE E
Ġwe ather
ĠC ath
w ater
Ġorient ation
Ġbe at
á ĥ
Ð ²
ĠT aylor
{ "
Ġt ang
ĠP ack
ĠGe org
Ġcomp re
Ġr u
iss ue
Ġ\ ,\
Ġdr ag
}{ *
ĠA ust
Ġstraight forward
MOD ULE
W atch
av ailable
m en
ic ode
M ask
l b
s a
Al so
Ġtrans itions
Ġnumer ous
N ormal
33 33
e z
| ^{
A E
Error f
ĠO N
Ġentire ly
Ag ent
ur ies
viron ments
Ġtr uly
B M
Ġperiod ic
g ov
Ġcon version
Ġf ib
str ings
ĠE ff
ĠC ast
Ġperm it
ic ians
ĠL ove
ĠF ROM
ĠG R
) }.
Ġp et
ĠJ ones
ĠAt l
on av
grad ient
ĠCl oud
ĠC ard
Inter val
Ġfore ach
ĠL ike
th ick
os oph
w ave
option al
on omy
IN FO
N ative
ok es
Ġa maz
ĠMed ical
y y
AN CE
Ġpre d
aw n
e lect
Ġmark ets
Ġaddress es
Ġsup press
at ivity
Y ear
Ġap plies
re pe
Ġgl ass
S ort
ĠC ho
Ġdiag n
Ġfeel ing
Ġt urb
ul ing
im ately
fort unately
un te
r ick
um ps
w er
serv ices
ĠA ff
Method s
Ġ' \
Ġexplan ation
Ġb low
Ġliqu id
Sub s
u ated
ĠVal ley
Ġresearch ers
\! \
Ġsepar ation
Ġcrit ic
Ġ_ ,
Ġdeb ut
A ng
Ġman age
Ġpre v
n am
Ġthous ands
ph y
Cont act
Vis ible
Ġdeg ener
Ġcr isis
Ġtell s
Ġsche dule
fl ag
W ORD
Ġlink ed
L anguage
)} (\
Ġpres ents
Ġtop ology
e an
Ġmur der
Ġuniform ly
ed u
Mem bers
P UT
ĠGu ide
Ġunder stood
Ġ à¤
Ġm al
_{ +
ĠP ak
ĠI reland
ĠCol l
p ot
Ġprec ise
log in
ac cept
Ġrequire ment
p are
ĠW ood
| $
Ġt mp
Ġmys elf
Ġmodel ing
Ġappre ci
a ug
Ġdeb ug
ip ping
r ated
Ġemploy ed
Ġem b
Ġsc r
Id s
Ġaccept ed
ult ural
Ġout come
ĠĠĠĠĠĠĠĠĠĠĠĠĠĠĠĠ ĠĠĠĠĠĠĠĠĠĠĠĠĠĠ
Ġh op
Ġcre ates
comm it
Ġn p
Ġpro ps
&= &\
Ġpi eces
N V
ĠR ights
ation Token
Con ver
Ġquadr atic
ud den
Ġs ql
Ġtrack s
con duct
ĠM O
h d
ov al
STR ING
ĠSup pose
ap ol
ĠP aramet
C s
Ġh alo
the less
Ġvari ations
con ver
por ation
) (\
b atch
aj ax
Ġf ake
ĠW IT
ĠF re
Ġop acity
as sembly
t body
Ġm m
" ],
Ġfrequ encies
i ated
ĠAg ain
. <
lo pe
ĠC ond
comp are
Ġp ixels
ĠZ eal
Ġbro ther
col l
Hel p
Ġwin ning
Ġrec overy
ĠVirgin ia
ĠF oot
ĠD ocument
Ġp ri
el astic
ĠBl ue
Cl oud
ĠF ood
Ġf uel
Ġexpect ation
i ations
se p
ĠW rite
Ġw itness
ĠArt s
Ġbeg ins
Ġprep ared
Ġes cape
Ġdisplay ed
Ġfac ilities
sk y
f c
Ġs olving
ex ec
Ġpartners hip
Sp an
Ġcorrect ly
ĠR am
Ġplatform s
Ġdev iation
Ġscient ific
d eep
Ġs yn
Ġh ist
Ġindic ating
ĠC y
anc ell
() ))
p kg
orig in
col lapse
ian a
s en
Ġ( [
ĠAcad emy
ĠC la
Ġde ploy
Ġrestrict ed
Ġdiv ided
19 70
} >
Ġsk in
En umer
us al
U ST
ĠAn other
n ol
ult y
Post ed
Ġconj ug
Ġw est
ĠPol ice
Ġcomplet ion
L ower
ĠH as
oun try
{ (\
Ġform ulation
th let
Ġstre et
g i
int ell
user name
ap os
Ġst ead
Ġvill age
Ġw arning
pol icy
ĠR oyal
ĠC ov
M ouse
ak ed
on om
M F
Ġsu c
Ġp ipeline
Ġconcent ration
v in
Ġm ist
Ġr ain
Ġem pir
ĉ ĠĠĠĠĠĠĠĠĠĠĠ
Ġpro to
; )
Ġrequest ed
Ġannoun ce
Ġinvestig ated
qu ote
ĠCan adian
Ġf ant
th rough
">< !--
B asic
Ġ$ ^{
m ouse
ap ed
typ ename
Ġdef e
Ġread only
Ġtri ple
Ġpay ment
J ust
play er
Ġpol l
ĠZeal and
sh al
eff ect
ĠRef er
th row
Ġlimit ations
al so
Ġdraw n
Ġ@ "
Ġinter ior
E P
& &\
es ides
Ġn arr
D ay
Ġw avelength
ĠFour ier
spring framework
m aven
Ġchalleng ing
Ġbr ings
Ġrecon struction
A F
Ġanaly ze
ĠOr der
ĠB et
M ove
J an
Ġs ending
Ġderiv atives
Re al
ME TH
Ġsepar ated
Ġfit ting
run time
ir ms
Ġn ine
Ġread s
intell ij
EE EE
F n
Ġs ister
hel per
ut r
Ġm ental
urre nce
Ġdep artment
M s
Ġintrodu ction
Ġd ensities
sl am
print ln
Â ©
ĠCom ple
Ġcover ing
Ġfail s
w ild
ĠI T
Ġstand s
ĠAs ia
onym ous
check box
down arrow
ib ilities
ĠA S
Ġsystem atic
comple x
are st
Ġk ill
d c
force ment
Ġsp end
clud es
select or
onav irus
Ġabsor ption
Ġembedd ed
fol io
A SSERT
Ġh orizon
object s
******************************** ********************************
DE F
s ync
ĠV ector
t z
ĠFor ce
E SS
Ġben chmark
Sequ ence
d ensity
ĠArray List
Ġopin ion
Ġbroad cast
G ER
eng er
Ġdom ains
in er
An imation
ly mp
Ġl ab
c ross
? "
Ġs cre
, .
set up
Ġproport ional
ĠR ight
ĠN av
Ġcan cell
b log
Ġmechanism s
Ġstrong er
Ġmot or
Ġl anguages
? >
Ġw ww
B ased
$ ^
Pro gram
Ġinv olves
INT ER
l ip
Ġimmedi ate
on ed
ĠCh ange
mem ory
ic ious
Ġn aturally
b ur
Text ure
per m
Ġp owers
Ġat omic
vari able
Ġs y
w riter
.& .&
Ġmer ge
Ġh ook
Ġh air
\| _
Ġsche ma
Ge V
ĠM P
r ift
Serial izer
c ert
Ġclass ic
ĠP O
P air
construct or
R C
ĠX ML
Ġsymbol s
Ġrece iving
Ġsomew hat
ĠG ames
Ġsuc ceed
TR Y
Ġanaly tic
ĠAp plication
Ðµ Ð½
Ġopt s
us p
Ġdiff usion
t witter
Ġstrict ly
ĠB OO
stand ard
ĠS pe
ry ption
Ġelect rons
Ġdom inant
Ġf rames
# {
ject ure
Ġh ers
ĠÐ ¿
7 00
Ġextrem e
Ġv ot
ĠG re
F ramework
on ce
ĠO l
Cond ition
Ġm ach
ane ous
uck y
s b
i y
al ed
mult line
r ine
Ġrecogn ition
Ġhom ogeneous
Ġmar ried
Ġsign s
cknowled g
Ġt ick
Ġmat hemat
romag netic
p ull
ĠC G
m f
ĠS af
Ġtempor al
ordin ate
PO ST
d ig
res olve
table block
ĠRes ults
Ġre ward
B AR
Ġrespect ive
Ġp apers
$ ^{
Ġcook ies
ĠD C
Ġalgebra ic
Ġdr iven
ĠCarol ina
cre d
Ġsh ares
Ġrespons es
ĠE nt
Ġat oms
Ġad vers
ĠSt atus
Ġfr ag
Ġv ulner
d k
Ġnull ptr
_ );
ar ia
Ġ= ======
d irection
! [
Ġcontinu um
Ġm ouse
Ġneut ral
ĠR est
Ġpan els
198 9
Ġph il
hens ive
Ġtrans verse
ag ger
A I
as m
Ġqu ot
A li
em it
' _{
ĠSt andard
Ġh usband
sequ ences
B D
ĠL agrangian
Ġcom plicated
es e
Ġneutr ino
Ġseem ed
ĠF ull
OR Y
own er
text sf
ĠP ay
r an
g overn
ĠKing dom
Ġent ered
Ġr is
Ġiss ued
ĠM iddle
Ġs an
Ġinj ury
Ġprior ity
ĠArm y
ĠS che
â Ĥ¬
Ġ\ [
}$ \
Ġreg ression
Fl ag
Ġmet all
Ġviol ence
ĠMed icine
ID TH
Not ification
sh arp
] ^
Ġal ter
ĠD M
Ġm yst
Ġcop ies
Ġsat ell
Ġdecre ases
"/ ></
N UM
ce il
ĠCE LL
Test Case
F ocus
E very
Ġcomp r
Ġim plicit
Ġvary ing
ev in
Ġcommon ly
}. }
iem ann
Ġdep art
Ġorth ogonal
ĠAmeric ans
el ian
METH OD
$ '
part icle
Ġpurch ase
Ġextract ed
Ġconven ient
Ġent ang
Return s
Ġf ul
ort ion
tr l
Ġhard ware
up d
G LE
al ty
En vironment
Ġun iqu
ĠP ut
Ġs phere
t p
Ġtrans actions
includ ing
Ġco ast
ip art
ĠA D
ĠM ike
opt s
um s
fact ory
. """
Ġcol our
ĠL o
12 7
ic ator
M ake
w d
Ġe ast
Ġout comes
s ocket
Ġweek end
ĠS ports
Ġ" ",
ut ch
l ass
Ġ\ "
ĠC urrent
Ġap art
ĠChar les
Ġhe av
M er
Ġrough ly
W ait
Ġact or
II I
Ġsur g
vert ex
Gener al
(' #
d ynamic
ĠS N
S ql
Ġ? >
au x
pro pto
ĠStud ies
Ġrec urs
dr iver
Ġg ender
Ġwor st
ĠF eb
Ġprodu ces
Ġend point
Ġt ags
ĠW al
Ġperm ission
ĠK im
C V
Ġas sets
(' /
ĠC lient
Ġload ed
mer ge
Ġs pl
Ġprom pt
ativ istic
Ġhy brid
Ġident ification
ad ed
ĉ čĊ
am i
L at
ĠV ictor
Al low
Ar ch
up arrow
z ip
} /\
str aints
âĢ ī
prob lem
Ġcompl iance
p b
O wn
C ast
Ġcoll ision
ĠS and
Ġcor relations
P ers
in et
Ġro ots
Ġres idual
ĠCon ference
C ur
Ġadd s
ĠS ar
Ph oto
Ġvacc ine
Ġfac ility
ex amples
Ġf its
olut ely
ĠDef inition
}) ^{
f all
Ġsent ence
Ġwor se
Ġfam ili
Ġro les
ro ute
Ġnew ly
Requ ired
Ġhelp ing
ĠMex ico
M iss
Ġperm ut
irc raft
{ .
Valid ation
comp iler
new s
w an
S ample
ĠÂ ·
Oper ator
ĠF ederal
ĠAn alysis
s hell
ĠCh ampionship
ur er
Ġam b
Ġpl ate
W rit
ĠF ire
Ġdiscuss ions
ĠC ur
Ġpercent age
an alysis
Ġpr ison
Pro to
Ġwould n
D ATA
ĠCh ris
p ag
Ġhold ing
Ġs ympt
ĠF estival
Ġinsp ired
get Value
os ed
P lease
L ibrary
part s
w arn
th an
g oto
Ġirre ducible
*} [
Ġrun time
method s
Ġman ip
ic ian
Ġincre d
Ġal ert
Ġcollabor ation
Ġweight ed
ab c
the me
Ġp il
id al
ex it
bl ank
n ic
x s
Argument Exception
Pl an
n m
EEEE FF
Ġsche mes
Ġm el
ar ian
um ul
face book
Ġpresent ation
Ġpl ants
Ġp al
T ube
Ġref lection
Ġwhen ever
{ |
Ġm o
ĠL ord
Ġb ird
Ġm acro
foot notes
ĠH om
ĠSt ream
re lease
ĠL ight
let ter
ĠB ow
ĠCor ollary
Ġelect ro
ĠV ari
Ġc art
Ġ( +
nav List
p aper
Ġac comp
Ġpost ed
H D
ass andra
l oss
VAL ID
Ġassoci ation
Ġc as
sh op
Ġsex ual
ĠDiv ision
B en
er os
ap h
}{ {\
all classes
Fr agment
Ġc ash
B inary
Ġgu y
d uration
u able
re ce
ill is
Ġsp ring
Ġexperi enced
Ġexper ts
Ġexpos ure
; ">
Ġread ers
Ġbelong s
Ġis land
y er
ath an
= $
Ġdist ances
Ġp atch
se lection
AT ED
ĠAl gorithm
ĠM D
Ġreport ing
be h
$\ \
3 60
ĠJ on
Ġdef ining
ik es
Ġr an
Ġfac ilit
Ġc ert
ĠM L
Ġlarg ely
Ġan imal
S ave
Ġclaim ed
po inter
Ġre verse
our se
dest roy
Ġinter pol
t le
Ġf aces
ĠN ever
ĠK ar
Ġext ensions
Ġsimilar ly
B inding
ĠS H
erm i
ĠC ross
ĠL oad
Ġpolynomial s
ĠS ets
Ġsup posed
con sole
Ġd iverse
ost on
ĠSim ilarly
Ġd elta
ten ance
Ġcirc uit
Ġe poch
ĠF act
ĠM ot
ĠB ol
Con stant
s un
Ġfe e
Ġprogram ming
ug s
D IS
Dr iver
small skip
Ġconv olution
g ot
M IN
Ġport ion
ĠP DF
C ONT
Event Listener
ĠR o
ĠO k
not ations
Ġrat ios
raz il
Ġrandom ly
Ġchar set
ĠW alk
is Empty
in ction
Ġm it
}^{ +
C N
=\ {
b our
Ġs we
Ã³ n
ag ers
Str ategy
ON G
Ġexpand ed
Ġtro ub
st ances
/ {
y ou
Ġl aser
Ġsimultane ously
: [
ud a
Ġpr iv
ĠS P
IO Exception
,... ,
% .
get Element
Ġl ens
Ġconsist ing
Ġbuild ings
Ġl ists
ĠE st
we ak
inher it
Ġrepresent ative
footnotes ize
Ġtransform ations
D b
13 0
Ġl es
Be an
Down load
B bb
ĠB ern
m ay
do i
c atch
view s
r ink
ĠH ard
am az
G ame
SE LECT
Ġs aved
ĠEngine ering
Ġsum m
ĠL uc
Ġincor por
Ġ_ .
Ġsurround ing
å Ī
ĠM aster
Ġorgan ized
ord an
Ġdou b
Ġs and
ĠS i
R S
Ġtrack ing
ãĢ Ĥ
py thon
Ġcharacter ized
ĠAnd rew
DE BUG
Ġdiagram s
ĠW atch
Ġlik elihood
Ġwatch ing
M icrosoft
Con structor
NavBar Font
Ġsim ulated
Ġex ports
Ġv ent
Ġdom inated
Ġ ~\
ĠS at
$\ ,
Ob serv
D em
left arrow
Ġne ither
et ing
col lect
? ?
Ġre venue
Ġbound aries
exp ression
ĠL ive
Ġ" $
cl one
) _{\
Input Stream
Ġad vent
id ents
md c
Ġcr iminal
ĠWilliam s
Ġflow s
Ġatt ached
Ed ge
ĠIr an
ĠV ideo
Null able
T L
Ġag ency
it age
Ġreview s
Ġw inter
valid ate
I AL
C apt
SC R
Pr ivate
ĠMc C
Ġconvent ional
Ġa ug
* ,
M aterial
B al
Ġdisp ersion
MO DE
A gg
Ġim possible
ĠWil son
B Y
li x
ru ption
assert True
M ost
cor respond
Ġcitiz ens
un icip
ĠD B
ĠS IZE
EL D
ĠAp ache
ĠW all
tr ight
ĠW ild
Pe ople
ĠA wards
Ġoutput s
Ġcre ative
Ġadv ice
C ALL
ĠV an
Ġcomp aring
Ġwh atever
t i
ost er
Ġconcern ed
Are a
ĠCom mon
con trib
Ġdiv ision
ĠR O
Ġdeath s
ĠF ix
Ġl ose
y d
ĠT oday
Map per
Ġc ursor
AR D
Ġhers elf
L Y
Ġstud io
Ġmed ian
Ġcond itional
M AP
ĠM ajor
li ament
'] ['
Ġoffic er
w as
Ġcommit ted
Ġplas ma
Ġaccess ible
bin om
Ġengine ering
Ġs port
ĠF uture
Object s
Ġm and
Ġprim arily
Ġpack et
ĠComm and
Ġorb ital
ĠCont ent
P red
ĠFil m
ĠC ore
Ġpoint ed
LO C
A K
on to
Ġup load
Ġen vironments
ĠB E
Ġmonitor ing
H ub
Ġs ensor
t re
Ġb ond
Ġdef initely
rupt ed
h al
sign ature
st ud
Ġt ables
Ġcover s
ro ke
RE D
it an
Ġsub space
ĠBOO ST
at ibility
Ġ elli
Ġf oo
form ing
\ },
j k
CT YPE
ĠH a
ĠOption al
11 1
DO M
Conn ect
Ġspe aking
ĠIt aly
osp it
d ark
ian o
Ġen ables
ĠÂ ©
Ġnear by
Copy right
Ġr gba
ĠN a
cont ents
Ġtop ics
ĠF ar
ĠĠĠĠĠĠĠĠĠĠĠĠĠĠĠĠĠĠĠĠĠĠĠĠĠĠĠĠĠĠĠĠ Ġ
ĠPro duct
int eger
Ġtyped ef
Ġreal ized
Big g
am ber
Ġk id
Ġacad emic
writ ten
col Last
Execut ion
T Y
ĠWh ere
ĠH on
Ġphot ograph
E st
Ġe ase
ucl ide
ĠRem ove
ĠE ND
ĠRes ponse
st age
Ġhand ling
Ġinter net
Ġassess ment
go od
Ġaff ord
Ġyou th
br ane
UN D
N ET
Ġign ored
Ġk ick
und ers
ĠL ore
Ġmod er
Ġfil ters
Ġamaz ing
ID E
Ġv irus
Ġrecomm ended
D uring
Ġl ived
ĠI L
. âĢĻ
ch er
ĠK en
Ġdepend encies
$ }}
per ature
198 7
(" /
SS L
ens itive
Ġap ps
tright arrow
] =
Ġcont em
for Each
ĠP C
w arning
CH AR
Ġf at
Sk ip
' ];
Ġconserv ation
198 8
fr ag
ĠU V
Ġd iversity
Con straint
t age
: `
Ġstop ped
ific ial
Ġfact s
ĠTh rough
Ġon going
anch or
U V
D av
Ġc e
Ġch iral
T ok
oun ce
Ax is
Ġcr ime
Ġte le
ĠDan iel
Ġ' ''
Ġa f
h ab
Ġext ensive
Ġtraject ory
Ġst abil
ass oci
ĠL ab
Ġequ als
Ġp itch
Ġident ifier
pro gram
f eed
g lyph
\ }.
) }$.
Ġexp ensive
ä »
aps ed
to k
B atch
Ġferm ion
Ġsit uations
Ġpost s
Ġst ages
ĠJ eff
uclide an
up per
Ġrestrict ions
ĠH ilbert
col First
n c
ĠM C
C LASS
Ġreli able
Ġf le
aut ore
Ġn a
Ġqu eries
Ġimp ly
The me
Rem ote
" },
Ġ" ";
R aw
ĠS W
Ġcol le
vis ible
Ġperm issions
ĠW rit
b us
ĠAb stract
Ġcomp ens
Ġ' ';
ĠOn line
Ġguarant ee
ĠRepublic an
ĠJ es
Ġcompos ed
Ġto kens
Ġconflic t
Ġacc ret
det erm
Ġdescri bing
ĠH or
pl ays
Ġfamili ar
Ġrapid ly
Ġexecut ed
ĠEx pl
m apping
Ġres olved
Ġbeli ef
Ġs udden
Ġp ot
W arning
NS String
pl oad
Ġreson ance
down load
Ġhealth y
ĠPol it
om m
Ġacc um
Ġadjac ent
Ġpre ced
resp ect
ĠM id
B IT
Ġrob ot
az y
high light
Ã £
Ġsim plicity
Ġadv oc
ĠB as
ĠS C
le ts
CON FIG
ĠE lect
Â °
ĠH am
Ġ ðŁ
ĠM ock
An notation
ass um
com par
Ġp ed
m ix
Ġhous ing
Ġcompar able
f ake
Ġs olved
ex pl
Ġm il
ir cles
el a
ĠW at
Ġoffic ers
Ġsub mit
Ġle ague
Ġredu cing
Ġed ition
ĠJose ph
du ction
In formation
=\ "
et ies
Ġ> >>
ĠO lymp
ind ependent
f mt
an imation
( --
14 0
Ġdep os
p od
Ġn an
pos ing
clos ure
um a
Ġs ync
New s
li a
Ġ" %
ĠK now
ans as
var rho
Ġg irls
Ġin vent
ĠSch olar
Ġdis order
Ġcap able
p in
t un
ĠT w
Ġm ess
Ġm ort
ĠSh ould
US ER
side bar
Ġperiod s
Ġinter vals
ĠI slam
/ .
Ġf iber
Ġpseud o
~~~~ ~~~~
Sh ould
ĠN ight
R ate
b etween
be an
Ġcoll apse
Ġpop ulations
S ame
Ġfrequ ently
Us age
ĠF A
ĠAd am
in istic
ĠM en
Ġs in
Ġteach er
Ġbatter y
Ġindu ction
S pe
Ġdec ide
Ġhum ans
Ġcount s
ĠL abor
Ġillustr ated
Ġload ing
Ġgener ators
epend ence
ĠP os
f lex
dis tribution
> $
DO CTYPE
St atic
Ġbr idge
cer ning
Ġhol es
act ivity
Ġpolit ics
over view
OP T
dis able
ĠSen ate
ĠSim ple
w ing
ĠJust ice
P layer
X Y
Ġch unk
Inst all
T uple
Ġattempt s
AR N
P erson
H L
ĠC S
Ġconsum ers
ab ove
ĠĠĠĠĠĠĠĠĠĠĠĠĠĠĠĠ Ċ
ĠSer ver
Ġl ang
form ed
in cre
Ġl oved
i ph
e a
dat abase
Î ¿
pre vious
comp ile
l ined
Ġ\ {\
Ch ain
Ġpor tr
Ob server
Compar ison
ind s
Ġemploy ee
Ġd ip
Fail ure
l m
Ġexecut ive
est im
Th row
ĠSp anish
ĠB a
Ġf ellow
AT CH
Ġrece iver
Ġch air
ĠEq s
rad io
es is
ch art
æ ľ
Local e
fact or
Un known
Ġw av
Ġw a
Ġin ference
ĠTr ust
char acter
ĠFrancis co
t b
Ġsh adow
rem arks
Ġcrow d
Ġat om
Ġdisc overy
Ġcoupl ings
ĠI V
BP ACK
Ġacc ident
n ament
Ġst im
Ġs ys
Y es
int ro
f b
Ġiter ations
Ġcl im
T X
ĠR ay
iz z
Not Found
Pro position
Ex port
Ġh aven
Ġconsum ption
F ore
ĠJac ob
cre ated
ĠC as
ĠH ospital
new line
Ġprep are
ĠMich igan
Ġcapt ured
is ition
arg uments
Ġ era
Ġun iversity
Ġsound s
Ġvari ant
ad or
Ġk ing
ĠIt alian
is a
ress ive
\, {\
ĠO S
Comple te
Ġrelig ious
Ġmov ies
Ġca ught
Ġres istance
Ġac id
cul es
F uture
iz ers
Ġrem ained
'] );
Ġpropos al
Ġe at
av i
Ġmat ched
b at
re act
_{ -\
Ï Ħ
Ġdro pped
Ġconsider ation
ab eth
d istance
Ġgu ard
M aster
Ġlog arith
ic er
M ult
k ing
Ġcap abilities
sh ire
ĠOb ama
L eg
ch a
Ġb odies
^ ^
Ġst ores
Ġtr unc
. (\
Ġut ility
}^ +
Named Cell
Ġregion al
ĠE r
Ġspect ro
Ġemerg ency
Ġcomm ands
Ġs ocket
! "
Ġre new
il ly
Ġm ent
Ġ' %
def n
p resent
Ġord inary
Ġcl ip
A SE
ĠInst agram
Ġref ers
ĠL com
iv ari
^+ $
Process or
f p
A udio
pher ic
... </
Ġproced ures
sub ject
oid s
Ġre ly
;\ ;
> )
Ġaccret ion
Ã ¨
Ġm ail
Ġm ob
F older
ĠCon f
Y our
el ly
Res olver
En v
us form
Ġg iant
Ġ{ },
adi um
W H
numer usform
Ġfun ctor
AT TR
Ġ ĉ
pre dict
G M
Ġ{ $\
periment al
ak i
}[ !
! <
ĠMe an
Ġr anges
10 5
St ud
Cle ar
Ġch apter
1 12
me asure
it udes
ly wood
PRO C
ik ing
ĠEqu ation
Ġal gebras
Ġte ch
ag ent
Ġsurpr ising
ym er
bel ow
h ot
es ome
cent ury
198 6
Ġstruct ural
Filter Database
Ð° Ð½
Ġsem antic
Ġinstitut ions
Ġsh arp
AS K
ĠC NN
Ġv irt
ne ed
gy pt
> ;
We ight
V AR
) }$,
All oc
ĠJack son
ĠTh ree
An alysis
Ġexpl ains
Ġinteg ers
Ġin n
ĠWAR RAN
Ġsever e
eg o
Ġput ting
Ġre tail
Ġconver ted
Ġamount s
or ough
Ġp ref
__ )
Ġ( @
ĠSe ason
part y
Ñ ĩ
Ġf ault
Ġg ar
cont act
rel ative
u ent
Ġpay load
ass ign
Ġrecogn ized
Ġst yles
Ġappro ved
C md
() ),
Ġmus ical
ĠS ta
Ġdou bt
cal endar
Ġdec ade
Ġteach ing
ï¼ Į
ĠB efore
Ġ ig
ĠSc ot
Ġserv es
ĠB Y
L oop
Ġ\ }
% "
C ard
Ġfe as
Ġst ations
Ñģ ÑĤ
Ġmin ute
Ġim plied
}{ }
asket ball
Ġprov en
Ġeigen value
ĠP acific
L ike
ĠM S
ĠRes ult
ĠPak istan
Ġ\ |\
Ġfe els
Ġanalyz ed
Ġarm s
un iform
Serial ization
Ġe lev
mid rule
Ġsl ot
10 24
ĠPh ot
sub equations
ĠQ CD
B ecause
}) =\
ĠCath olic
Ġc ro
Ġhom es
Ġrepe at
Ġt ack
ĠDE FAULT
Ġcosm ological
D iff
Ġtot ally
Further more
Ġunit ary
Ġcont roll
Tr ansport
ĠOut put
Ġvict ory
c ou
ĠH arr
ĠL ay
Ġestim ator
Ġdeliver ed
ĠE C
Ġindust rial
ap is
i ot
A nt
Ġun able
gener ate
ĠS em
os a
Ġprom ote
ĠUn it
Ġs b
Ġin hib
Ġconvers ation
Ġ| =
Ġbring ing
F i
P G
Ġexam ine
Ġther apy
Ġfe at
is set
str ict
Ġgu ys
A bs
Ġpart ially
Ġel if
amaz on
Ġim aging
b ell
Ġisol ated
Ġfore cast
ĠF ac
ho le
Ġseg ments
Label s
V D
ĠH aw
ĠProf essor
Ġb ow
ĠSe lect
ĠĠĠĠ čĊ
P N
ĠC F
Ġexerc ise
ĠRad io
comput e
m iddle
Ġenh anced
Ġclos ure
n amed
j ack
ĠF air
Ġphot ons
math tt
= -\
ĠP rem
le arning
Ġre construct
W allet
hy per
Ġm d
ĠB ell
ĠD eep
Ġauthor ity
n ative
Ġbeli eved
ĠW in
ex tra
ab br
) &
appro xim
Sh ared
Ġ" .
LI ST
ee per
ĠI llegal
Ġgreat est
] +
Ġs lope
nol imits
Ġabs olutely
Ġsimilar ity
ĠM ah
Ġv ort
Ġpass ion
ĠAs sum
ow ski
el d
cept or
Ġne ur
big cup
cc c
\ [\
Ġprefer red
Id entity
g iven
Ġfeature d
sp aces
Ġsmall est
bound ed
uff ers
Ġpl anned
Cont in
Ġcheck s
hold ers
Ġempir ical
Ġt er
Ġcon formal
og y
v o
Err ors
He alth
ear s
vert ical
ORD ER
Ġ rom
Ġindependent ly
ĠRec ords
Ġdecre asing
WE BPACK
Ġneut ron
Ġp in
S creen
Ġh ide
10 2
Ġins urance
ĠC hem
Ġhe ter
Ġexhib it
om atic
B eh
Ġang les
Ġb old
Ġ ur
ĠD A
E ven
C r
Ġis omorphic
k top
ç Ķ
ad el
Ġkin etic
che ster
Ã£ o
Ä ±
it i
I Z
Group Name
Ġa ircraft
Ġreturn ing
valid ation
Ġbig ger
cf g
ub ern
ag g
Ġen semble
Ġeven ing
Ġre vers
W ord
] ))
il a
Ġassign ment
Ġdistingu ish
Ġre normal
Ġadmin istr
ĠDes cription
Ġso le
Ġturb ul
ĠCl in
Ġwork er
ĠS A
Ġatmos phere
Ġs ight
Ġt error
ĠAL IGN
a ired
C enter
Ġb are
( .
Ġgener ates
Ġsub section
b x
Ġv en
Ġhelp ful
Ġ' ',
Ġmanif est
Group s
ĠI ss
ĠP ers
ĠCh annel
s r
ĠM ember
Ġan isot
Ġl abeled
ĠGr ant
Ġinterest s
C ref
s pe
ĠC red
F OR
ct ors
Ġincreasing ly
L ight
Ġse at
k ern
Ġstation ary
\ }_{
Render er
Ġstead y
ĠL ic
ĠLear ning
Ġprovid ers
Ġs ter
In sert
c overy
an ches
Ġloss es
M essages
Bl ack
ĠJew ish
Ġgu itar
Ġsp arse
co hol
Ġd il
N ov
ad v
ri e
get s
bl ing
ĠA li
p ur
198 4
Ġtr uck
Ġcho osing
R ad
ag en
ip es
Ġaim s
mut able
Ġpro min
Ġa id
Ġac compl
ul as
Ġ urban
Comp iler
pl ing
u uid
to Be
re ement
Ġcy l
leq slant
ul f
[ ]{
ch arge
W IN
Ġf ell
Seg ment
las g
ut s
Ġs now
ĠL ib
P OS
HER E
l ab
ĠSe a
ĠW hether
Ġrec ording
Ġconcept s
or al
Ġactiv ation
Ġcirc ular
out s
F amily
Ġinvest ors
ĠR en
ĠBe ach
er red
ĠB O
AC H
Ġcompre hensive
ï ¿
St andard
Ġb id
ĠT ele
Ġd ry
ĠL anguage
Ġgeneral ization
Ġconver ges
V ICE
ĠI ter
Ġd s
lo om
198 5
Ġpe ace
Ġabund ance
W ell
_ )
Ġlet ters
Ġb ars
}) )
Ġown ed
m atic
Ġamplit udes
ic he
" ].
c ue
bol ic
cite alt
ĠD ar
R andom
f etch
il ine
ik i
ĠCol umb
Ġh al
R a
r uby
mer ce
Ġanc ient
Ġa ux
Ġy es
Ġcy cles
Ġd ance
ĠY es
d ashed
C ross
In tern
Con tains
R PC
ĠB al
Ġdis appe
alax y
sur face
Ġb ary
Ġwe alth
t ically
Ġvol unte
comm od
Ġcoll isions
ang les
ĠS outhern
Ġperm an
Ġnormal ization
M o
Ġtri angle
Ġpro position
_{ [
r idge
cal cul
Ġpublic ation
Rec all
Ġcopy right
M c
x html
Ð¾Ð ²
N d
å Ĳ
ĠN AS
Ġsp ending
U C
ok ing
Z one
enc ode
Ġfound ed
h pp
Ġsche duled
ĠEd itor
}} ,\
ĠL ittle
S plit
Ġtrend s
th ree
ĠSt ory
A UT
ĠR iemann
Ġview ed
Exp ected
Ġstream ing
re pre
Ġcomm ission
IN ST
ĠC ost
Ġsubstant ial
Ġv oc
Ġ' .
ri ers
comm ons
Ġarr ived
rypt ed
Ġcut s
Ġaug ment
Ġb ath
Trans ition
Ġslow ly
Ġhundred s
/ "
clud ing
Ġl it
Ġpropag ation
Ġge odes
Ġd st
ul i
u et
ĠT ree
Ġserv ing
ĠPh oto
å ®
ĠT ool
vel ope
Ġstand ing
ĠB razil
val ued
ĠT ake
p f
} <
ff ee
R ules
Ġf iction
iz abeth
E v
Ġsc an
O C
Ġf old
ĠGeorg ia
Ġauthor ities
Big l
ĠChild ren
Ġorder ing
Ġdis able
CH AN
sub mit
ĠB oston
Ġask ing
ĠP L
ism s
Ġr iver
ĠL im
ĠPr int
ever al
DE X
Add r
Ġbrief ly
V ol
Ġreplac ement
ĠH istor
y cl
cd n
n ob
ĠN iger
ire ment
ĠCre ates
Cont ents
Ġcluster ing
H tml
Ġg ene
D en
**** **
Ġcount y
Ġposs ess
Ġrespons ibility
U psilon
Ġcool ing
Tim er
Ġreg istration
Ġhe aring
ĠPo isson
V irtual
Ġlog ging
Ġteach ers
Big r
on line
display Name
Ġregard less
ĠOther wise
cy cle
ili ary
ĠG ar
is o
if i
Ġp ending
trans action
| _{\
ĠQu ery
in son
^* _
qu ality
Ġsc ored
Ġpro ud
met ric
Ġjust ice
Ġleg end
Tim estamp
Ġrec ru
over ning
Ġan chor
Rel ated
le f
Ġterm inal
Ġprob e
Ġt um
Ġ Ø
ĉ ĠĠ
bound s
< <
ach er
ĠAcc ount
ĠConfig uration
i at
ĠN AV
Ġs ac
Ġst ick
Ġdec ays
Ġoper ate
RA Y
m essages
HE AD
Ġdes cript
æ ĸ
C ursor
| _
Met rics
Ġspher ical
Ġreal istic
Ġsl ice
Ġdeterm ines
ann a
ĠO pt
Des ign
h alf
ĠT urn
Ġf avour
ĠSpr ing
del ay
IMP ORTED
List en
repre ne
Ġdevelop ers
C ounter
D id
ou st
Ġpul se
Ġre pository
ĠD im
Ġwe ar
ĠF inal
load er
S em
AT OR
b inary
ĠF ermi
R ob
Ġhot el
Ġle af
Ġsepar ately
sw arm
5 12
M r
App end
is y
p ages
Ġconsist ency
ĠHen ry
B order
Ġdrug s
Ġdr ivers
Ġinitial ize
ong o
ĠC SS
o ir
Ġhon est
Ġkind s
Ġt a
Ġexpos ed
ey n
Ġmod al
ĠSystem s
ub b
Right arrow
Ġwill ing
ĠV irtual
Ġinnov ation
ĠAut o
Ġt on
Ġre nt
top ic
Decl aration
ĠMethod s
as ters
Ġintr insic
u its
ĠD ub
tr action
Ġh un
Ġv ast
Ġar ise
Ġbo ot
Î µ
Ġprob abilities
Agg reg
Ġenc oded
p otential
do or
ï¿ ½
m ac
LO W
nt z
Ġfor get
ĠAre a
Ġd y
Ġmes h
L ib
Ġult imately
Ġris ks
Arg uments
ĠL ow
STAT US
Ġsplit ting
Ī Ĵ
Ġcommit tee
Ġinf ection
F ixed
ĠB ox
. },
ĠD ue
u j
ĠD elete
u z
Ġent ities
Ġpass es
Id x
B T
Set ting
Ġsubject s
the ory
Ġpl ots
ĠN eed
sol id
inter pre
ĠRec ord
Ġint elligence
Ġf ly
Qu ant
ĠCov id
ĠOrig inal
n ed
ĠSt an
Ġwel come
P at
Ġover lap
ĠB ased
Ġreg ul
em an
ĠF ish
et ary
Th rough
ist ically
b inding
19 60
Row s
}{* }{
Ġend ing
In f
des ign
st e
ĠTh read
kw args
Ġcon e
Ġprodu cer
P romise
ĠMan ager
B el
t f
P ower
ĠC C
ĠB ad
Ġmin ister
al ert
le ading
ĠO P
item pty
it is
not in
ĠE mp
Ġb an
al ias
riter ia
om itempty
g ray
Ġcon sequences
ind uced
Rev iew
Ġint ent
wild fly
D rop
Ġpe er
Ġsympt oms
Ġexcit ing
c ov
Ap J
lik ely
oc aml
Ġprodu cing
class Name
FF ER
ĠDO M
u ity
ĠD ouble
text normal
Ġp ump
Ġed it
Ġshoot ing
}\ ;
Mon th
ch anges
ĠAdd itionally
× ķ
B ounds
> "
Enc oding
R elease
Ġassert True
Ġenc ode
can vas
ĠA ud
ĠL A
oid al
phys ical
ĠC hen
ĠDir ac
Ġsu it
Ġperturb ations
nes ota
P ut
Ġpost erior
s pl
Ġab use
ct rine
Ġanaly tical
Ġmat ters
direct ory
O h
du al
Ġk it
Ġcon crete
are t
SCR IPT
Ġsp ons
Ġdis cret
m ond
Ġval uable
Ġseek ing
N a
Ġhydro gen
id el
pp ing
Con sumer
B ottom
str a
l u
Ġc er
ĠAs ian
Ġobserv able
ĠRefer ence
Ġcontrad iction
Î ½
or i
ubern etes
c ost
ĠCon text
d z
Ġor bits
Ġexpon ent
Ġprocess ed
Ġv eg
re ason
Ġst orm
ĠIr ish
ĠNor thern
Ġad ults
K S
ĠT ro
Ġfor th
c ancel
Ġs oc
) ",
ĠPy thon
as p
ĠR ail
r atio
Ġdec or
F M
ĠSw ed
' $.
Ġcre w
un a
yl van
Ġalign ment
Ġneg lig
ro vers
198 3
ĠL ev
Ġf s
Ġmarg inal
Ġturn ing
t ar
ar ial
he ast
\, ,
ĠB ang
: @"
l r
ĠD NA
S pr
sp acing
Ġcor porate
& $
Ġun ivers
Ġiter ator
O ct
ĠDo es
Ġst ats
ers hip
Ġworld wide
ĠPr ivacy
M ac
N umer
× Ļ
W I
v ect
Ġb ott
ĠYou Tube
ater n
con vert
ĠJ r
cond itions
Ġacqu ired
ĠR ow
Ġpl ain
iam ond
b ec
13 5
Ġf abric
ĠCont in
ĠMon te
Sign ature
ĠK r
Ġstudy ing
Ġdanger ous
column s
th rift
Ġbre ath
Ġsustain able
Ġc od
Ġplot ted
ĠFoot ball
we ek
B H
Ġinterpre ted
t ouch
Ġtext ure
ou red
Ġdem ocr
Ġarr ang
b oth
ĠĠĠĠĠĠĠĠĠĠĠĠĠĠĠĠĠĠĠĠĠĠĠĠĠĠĠĠĠĠĠĠ ĠĠ
Ġperform s
ro g
* \
ĠB ul
| =
ĠOh io
Ġwas te
mathbb m
e ah
Ġspac etime
at ile
ay a
Ġour selves
Ġn s
pol y
Ġmult ip
Ġcriter ion
ĠBro ok
} ~\
ĠCar l
dep recated
ĠBook s
Run ner
load ing
ĠSt eve
ĠKore a
Ġfight ing
Ġ} {\
ĠL java
secut ive
Array List
Ġland scape
Com b
ĉĉ ĠĠĠ
FI X
Ġ ----------------------------------------------------------------
}} =\
Ġdes tr
Ġto ler
h ou
im m
Ġdeleg ate
l an
p ars
Ġch a
ap ore
; "
Ġreve als
ĠG i
Ġover flow
d ocker
Ġinstruction s
ĠM att
b lob
Ġqu iet
Ġneg ot
r ame
ĠW IDTH
' }\
Ġimprov ements
ĠM atch
Ġse es
Ġtrans mit
Ġt ens
Ġsynt hetic
P ress
Ġv eter
AD C
Ġthrow n
ĠS om
b est
S erv
Ð ¿
ĠJ S
Ġfew er
Ġhealth care
ĠBro ad
Ġcomb ine
Ġem issions
end a
In ner
Ġharm onic
ow nt
H ook
P res
wik i
ĠR a
}} )$
Ġwrit es
Ġpers ons
d ays
ĠT ag
read er
Ġdecl ared
ĠMus lim
ĠH un
ag ma
Ġw alls
' )$
sub stack
te en
getElement ById
Ġconnect ing
tribut ions
ĠAdd ress
s peed
ĠCom par
ĠG raph
Pl atform
Ġim pl
us r
is ons
ĠE gypt
Ġcovari ance
ĠD eb
Ġass ist
ock s
Ġarg ue
Ac cept
Col l
ĠJer sey
ĠSp ain
Ġc ards
Ġant icip
St ar
I ME
Ġdef end
ĠA GN
oc om
ĠĠĠĠĠĠĠĠĠĠĠĠĠĠĠĠĠĠĠĠĠĠĠĠĠĠĠĠĠĠĠĠ ĠĠĠĠĠĠĠĠĠĠĠĠĠĠĠ
B ool
ĠSt ore
Ġas set
> '
ĠS F
L IN
Ġ& $
Ġm igr
Ġtraject ories
\| ^
FI ELD
ĠPr ime
opt im
ĠCh air
/* !
ke ep
ab olic
Ġr ide
xy gen
govern or
uplic ate
ĠF ox
Ver ify
N P
patch er
Ġ< -
Ġpeak s
Ġp un
Ġal pha
lic ense
ĠBuild er
ro b
m al
Ġc rypt
~ (
Pre v
run ner
ĠExecut ive
amp ion
l arg
ent ed
id i
Ġcol on
)= (
Ġcheck ing
UR CE
Ġing red
Valid ator
Ex ists
Ġlocal ized
Us ers
Ġreplac ing
Fe atures
Ġc raft
H y
g ent
ign ore
w hat
ĠÐ ²
ĠSh ort
c od
dis k
ps on
ĠStud y
Ġalleg ed
Ġins ight
) |\
Ġansw ers
D etail
tr ain
Ġmechan ical
Ġre tain
Ġre plic
ĠTe ch
ĠS ep
if ference
Ġobvious ly
D irection
Ġrestaur ant
s he
Ġshe et
Ġass istance
s ale
hom ology
ess el
Ġaff ine
Z ero
ĠE instein
ĠZ end
c v
c amel
Ġpl enty
ĠT y
Ġexpl os
i pl
Over view
ĠC amb
Ġcompet itive
ĠAs sume
B its
Ġcommit ment
ĠB u
âĢĻ ,
U pload
int on
, ~
Ġvan ishes
an im
Ġ$ _
Ġens ures
over s
Ġexpect ations
ĠConn ect
burg h
Ġre in
Ġad ult
ĠL td
Ġcent ers
Ġadm its
ag a
CO MM
Ġsignific ance
ar on
ĠMark ov
Y Y
Ġir on
å ħ
ĠP ri
ĠNAV BAR
ak s
im p
Ġ' ./
Ġelect ed
Point s
W rap
ple ctic
Ġm ath
ĠQue en
cons istent
ĠH op
Ġk inem
Ġanalys es
T M
ĠB uffer
ĠMin istry
Ġex clusive
ĠA ge
ex cept
con cat
as i
ĠA DC
Ġdeb ate
Ġthought s
âĢĻ .
With out
fore ach
EE E
ĠEcon omic
Ġclass ified
}_{ {\
EN TRY
Ġcorrespond ence
Ġimprov ing
get Id
LIC ENSE
d m
Ġb aby
ĠN C
Ġ- =
Ġadvert ising
Ġscen es
ut ter
act ual
res olution
ock ey
Ġde leted
create Element
tr aining
Ġg overning
Ġf etch
Ġacc ord
Ġprogram me
in ject
ĠA sh
ac er
Ġwin ner
Ġlist ening
Ġscient ists
198 2
00 5
r ules
Ġpro sp
Sup er
Ġg ro
map s
sh ips
Ġall Classes
A cknowledg
Ġs outhern
ĠDemocr atic
Ġcoher ent
(" %
Column s
Ġup coming
() </
Ġfl avor
Ġmag ic
Ġdes criptor
Ġpul s
Ġal ias
M illis
inc ipal
ĠF ollowing
Ġcomb inations
Ġv ice
op ens
g re
or b
Ġcor related
get Instance
ĠallClasses Link
Ġ ^{\
Ġvis ibility
Ġw idget
}. \
ĠCol umn
ĠR om
Ġmill ions
Ġh its
Ġmathemat ical
as is
p rom
Ġalong side
Ġsup plied
Ù Ħ
Ġwalk ing
Ġcamp us
Ġtim estamp
sat isf
IL ITY
h olds
Con vert
ĠJ ob
S ite
od ge
ĠD ark
Ġc ircles
Ġm irror
Ġh abit
Ġrem oving
= {\
lish er
m ount
' $,
ĠRes ources
Ġwindow s
in formation
RE SS
Ġmar riage
ĠE P
Ġarr ive
Ġco al
Ġpars ed
Ġsubs cription
Ġse ar
UN T
ĠS ong
lic enses
met ic
Ġdiam eter
10 4
Ġpre gn
}\ !
St ub
NO DE
our n
Ġaut hent
B us
Ġm g
)} _{\
Ġg rew
ĠTh ose
Ġinter ference
im er
Ġinv olve
p n
c assandra
Ġcollect ive
e en
Ġcross ing
inter val
eng ers
ĠS ite
Â ®
ĠU pd
ylvan ia
Ġa st
Ġproject ive
.* ;
ä ½
Ġshe l
e per
j ax
B ER
As sume
Ġsub sets
Ġp ictures
IL D
ĠDis ney
ĠDes pite
j u
Av ailable
F ollowing
ĠSer ial
Ġig et
Ġfile d
ĠT ax
t ot
ic ates
Ġreal ize
Ġgrant ed
AV E
UR N
Ġac commod
ĠD a
="../../../../../../ ../
T yp
Ġde bt
l am
Ġcomp ression
ĠN FL
PRO P
Î ¹
$ _{\
r ig
ĠCor poration
Ġdis joint
ĠPar se
over set
s z
Ġproject ed
. }\
aw are
Ġcl one
Part ition
L D
Ġfac ing
repe at
Ġ$\ |
v skip
Ġnor thern
Ġphil osoph
L T
Ġs ed
W ho
Man agement
ac ement
f lix
ĠD onald
C ity
11 5
Ign ore
v dots
it ud
ĠS V
Ġag ric
ĠĠĠĠĠĠĠĠĠĠĠĠĠĠĠĠĠĠĠĠĠĠĠĠĠĠĠĠĠĠĠĠ ĠĠĠĠ
H ave
Ġtransform ed
ile y
ant ed
Ġvisit ors
ac on
Ġnew sp
ĠGu ard
Ġy ellow
Ġch ains
Ġanalog ous
Ġbr ands
Con sole
C ancel
ĠI mp
Int eg
ĠP romise
Ġsatell ite
3 50
Ġcon cerning
G G
w orth
ĠC ivil
Ġob server
erm it
F inal
An aly
r id
ĠJ ordan
( /
Ġco q
( ()
v ia
p ression
ĠP red
Ġcircum stances
T ouch
ĠD aily
Ġh ospit
pre d
p ad
Ġest ate
Ġguid ance
Ġ$ <
ure au
( ['
Ġelement ary
form er
Ġequ ally
LE TE
process ing
t l
ĠBy te
ĠCo ast
Ġmod ification
Ġt uple
rem ote
LA Y
9 00
Ġl ots
}, {\
ha ust
Ġa cknowled
log o
ino is
}) -
ĠEx per
Ġweak ly
S elf
Ġinter sect
ĠPro p
ĠAdmin istration
Ġappe aring
ĠE uclidean
C ent
}) (
Ġpack ages
Ġfair ly
ĠR od
Ġmanufact uring
Ġ urg
Ġ{ {\
Dr ag
t m
Task s
ĠCont act
pi e
Ġt ough
Line ar
Ġdom estic
= }
Ġad mit
Ġequ ipped
Ġso il
Dep th
b ecause
ĠAct ive
re po
Ġcub ic
Ġre aches
=" $
}_{ (
Ġl osing
Ġdo ctor
f requency
Ġd war
Ġvol tage
Ġover view
OR K
Ġgood s
Ġprinci ples
sc ore
V O
Ġatt orney
ĠReg ion
Ġstre ets
G reen
Ġenc oder
in ates
Ġc ab
Support ed
ĠH o
Ġ' "
Ġneighb our
ip edia
' ',
T AG
Ġprov es
Conver ter
d ifferent
row th
Ġdeform ation
ĠC at
Ġp ray
bu ilt
comp act
Ġpres erve
Ġmole cules
qu al
Ġr id
Ġfl u
Ġ âĢĻ
Ġillustr ate
B F
en berg
al ink
ĠG ro
10 3
ĠCap ital
O k
Nd Ex
y o
a udio
Ġconstr ained
Diag nostics
ir k
re le
ĠSecret ary
tr ansport
Ġv o
Ġincor rect
op her
b ow
Ġcomb ining
enn is
TI ES
Ġb at
L ear
Ġc ertificate
ĠSk y
and y
Ġperform ances
Ġphenomen on
Ġm outh
equ ival
Ġocc asion
ĠAir port
Ġge omet
Ġfall s
ĠW ord
cos ystem
und les
Ġke eps
fl ush
cons ider
Perm ission
G ood
Sym fony
if ting
UE ST
ident ity
Ġperfect ly
ĠC ulture
A ug
ort ed
s is
ĠS end
ĠTr ansport
' +
Ġcomp iler
Ġinfin ity
Log in
= (\
Nav igation
ph oton
Ġmiss ed
ĠSm all
R adi
MM ARY
H older
I ES
S witch
U K
R ot
ile vel
Ġe le
ĠB all
Ġw ins
Ġh int
ĠE ll
Ġdeal ing
iv ities
= &
p end
Ġclass Name
ugg ing
W arn
i ac
Ġall ocation
ĠĠĠĠ ĠĊ
Ġbeaut y
Ġel ig
Ġcr ash
Ġline arly
B oth
Ġdifficult y
nt il
ĠNot ice
f ac
F ALSE
D ynamic
Ġr ising
ĠB on
Ġm ic
ĠPr ivate
Ġtempor ary
j d
Ġquot ient
Ġded uce
Ġch ose
S ol
O ld
Execut or
Ġbur st
Ġclos ing
ish op
Ġs weet
dr iven
with out
off s
ustr y
PH P
ĠG reek
ant ly
EX PORT
ĠL ew
Ġ$ $\
Ġag encies
ter ms
Ġ` ``
Ġop ens
Per iod
Ġsurg ery
L C
Del ay
OL D
enn y
19 2
Ġcor onavirus
ound ed
Res et
ĠP S
ell s
Ġdraw ing
Output Stream
cl ock
Ġto m
Ġnon zero
ast s
Ġvis ited
ĠM aterial
Ġresult ed
h or
Ġt ip
Ġbreak s
Ġemot ional
pl er
Ġh a
Ġd ictionary
ĠB an
Res p
En able
Ġintrodu cing
ear ing
EN V
ĠMe V
Ġindu ces
AC CE
Ġca using
Ġb ug
k ernel
Ġd ates
Ġdeterm ination
d st
ey l
Sim ilarly
ĠE th
Ġsurpr ise
s ure
w alk
Ġtrad ing
ĠS ir
RE CT
Ġlif etime
Miss ing
st rip
Ġpl astic
ff f
S napshot
ag ues
ss l
ĠD iag
Ser ies
it ro
D er
10 6
ext ensions
Ġconc ert
ly n
Ø ±
M ut
second ary
ĠR og
Ġeffect iveness
Ġ uri
Ġv m
Ġyoung er
lf loor
Ġver ified
D ATE
Ġst ake
enc oding
ĠS on
) |^
Ġo x
Ġaward ed
deg ree
Ġins ights
Ġy ards
Ġfit ted
prot ect
ĠMin nesota
ĠS ize
Ġexpand ing
Ġsegment ation
Ġcompos ite
24 0
T ex
log ging
resp ons
Ġb ag
ĠThe atre
RE T
cor rect
ĠK ent
Ġde ployment
W in
ĠB eh
ĠT EST
Ġbl ank
Ġaddress ed
ĠA C
Ġl ob
ch unk
V ec
Ġne uro
IM IT
ĠI C
ious ly
Ġ" '
Ġeduc ational
M achine
Ġfeat uring
go og
Dav id
197 9
p ixel
h our
g p
ĠV ill
br and
Ġul tr
2 13
it ter
ĠP od
c ursor
Ġ Ñģ
Ġsp oke
Ġcal ibration
ĠWARRAN TIES
Ġwe bs
ub s
j e
y ard
Ġmain tenance
Ġent r
Ġexpl oration
app oint
gener ator
Ġcon secutive
fil led
aw ay
Upd ated
A MP
= %
Ġ/* !<
RA ME
p id
nav igation
ĠAn th
Ġstr ip
Ġcommun ications
Ġj s
ĠSta ff
s qu
H ar
ĠAg ency
Ġbox es
S uch
FN GL
/ ">
Å ¡
P ixel
ns ylvania
Ġcloud s
ĠM u
Ġun expected
ion ed
Ġdesign s
Ġdoll ars
Ġen umer
ask a
Ġdiss ip
": "
K G
tain ment
Ġtherm od
Ġun stable
ĉĉĉĉ ĉĉĉĉĉĉ
ĠK ong
prov ed
"> (
ĠĠĠĠĠĠĠĠĠĠĠĠĠĠĠĠĠĠĠĠĠĠĠĠĠĠĠĠĠĠĠĠ ĠĠĠĠĠ
Ġhon or
\| _{\
Ġsus pect
Ġh ierarchy
Ġlog ical
Ġlat ent
p ref
ĠS R
B i
or ry
Ġne arest
cho ice
Ï ĥ
c u
b one
t ures
ĠSup reme
et ric
ĠT al
Ġneighb ors
rf loor
ro ck
Ġcon clusions
an z
Ġcan vas
E Y
ĠImm utable
Ġvot ers
B ad
app ings
Ġsup plement
Ġact ors
Ġdeterm ining
Ġtri als
ĠS aint
Ġveloc ities
Ġparticip ate
198 1
Ġcryst al
U CT
b ury
Ġc b
mult ip
) !
An im
) *
and o
ĠD ead
Ġanom al
And roid
Me an
re ll
Ġan notation
âĢ ĭ
ĠN ick
r pc
T ile
ĠHand le
Ġreach ing
ĠCom ponent
Ġconserv ative
Ġinnov ative
T ri
ec lip
ĠW is
Ġm igration
itect ure
10 8
pro c
Ġre act
ĠLat in
Ge ometry
Ġhom omorphism
refer ences
fl uid
el come
f un
ĠD R
ĠR os
Ġentang lement
BU FFER
ĠF ord
] ^{
Pr imary
at om
S epar
Ġrep ly
: '
Ġfunction ality
Ġp c
el le
Ġwrit ers
et o
Ġacceler ation
ĠT ry
f m
se x
ĠR yan
Ch rist
ĠWith out
ĠRes p
er en
ab stract
' }$
big skip
Ġformal ism
ĠEl izabeth
ĉĉĉĉ Ċ
h istory
Ġgot o
G EN
Ġcent ered
d jango
================================ ================================
Ġtalk s
ĠN ative
ur ities
link s
Ġefficient ly
Am ount
Ġident ifying
TER N
refer red
ar ters
no ise
ĠDav is
Ġsurv ival
( |
r int
Ġliter al
cl s
Ġre form
ĠAm ong
eff icient
Class Name
Ġdestroy ed
U AL
}| ^
ĠK n
11 7
BO OL
A SS
O FF
Ġgrow n
l ot
L icense
ĠB C
ĠP a
eles cope
000 1
Ġacqu isition
m aking
l ive
Ġd ose
sl ot
out ing
Ġlist ing
}} }$
Ġpotential s
ĠH D
Re ason
Ġ$- $
Ġrece ives
Ġmembers hip
label s
ĠCoun try
Ġinst ability
ĠFin ancial
ik a
Ġag es
Ġcaref ully
eclip se
ĠB H
Ġtr av
ĠO x
im edia
Ġobtain ing
ĠDef ine
Ġs elling
Ġaver aged
Ã ±
Ġte en
Ġtr im
Pack et
ĠL I
ge ometry
Ġrequ iring
tern oon
rep resent
Ġelection s
10 7
Exp ect
ĠCO L
Ġsuff ices
Ġpen alty
ĠE astern
Ġo cean
Ġfif th
â ĸ
Ġasympt ot
Ġmach ines
Ġsub mitted
Ġad s
Depend ency
h h
est yle
Ġv ir
Ġstrateg ic
Ġmix ture
Ġexcit ation
Ch anges
ĠSpec ifically
s ame
ĠMod ule
Ġpure ly
G ate
Ġl ift
Ġrelax ation
redu ce
Ġhistor ic
oc y
at able
AS H
Ġ" ${
Ġepis odes
Ass oci
TR AN
add Class
}= (
f our
def er
)} =
Ext ensions
Ġcos mic
Ġnorm ally
ĠSur vey
ce ived
Ġweap ons
cp u
fl u
ĠM I
ĠPub lished
Ġ{ %
Ð ·
G IN
ĠPr ince
ul um
Ġcon vention
ph ia
Ġimag ine
Ġsh apes
be ing
} ",
ĠF all
ĠCh apter
Ġbos on
ri ent
ra q
Ġencour age
ĠNew ton
pos itive
C art
ĠD am
ge o
Ġpos it
Ġput s
c ers
int o
Ġw ine
Ġsample d
ĠCar lo
ĠBrit ain
Ġv oting
h skip
Ġsuper conduct
PRO JECT
Ġintegr als
Ġt ends
ab ling
let ion
Ġt d
tem perature
d on
ĠSU MMARY
Ġint ention
Spec ial
' },
app y
Ġs ink
re pository
cm p
enn es
ĠJ son
Ġt elling
\, .
h us
Ġdepend ency
ph rase
Ġav ailability
Ad v
14 4
Ġwonder ful
ph an
Ġtit les
E mit
head ing
fe atures
ĠEd ition
sup ervised
Ġhom ot
eg as
ĠM ust
ester day
Ġmark s
Ġg rap
or ous
ĠH ave
th in
ĠL E
ĠLore ntz
Ä ģ
ac o
Ex pl
}) _{
ĠY et
B s
$ --
Ġentertain ment
Ġtr ick
ma j
ĠH ou
ey ond
fr agment
t uple
Ġcy ber
Ġhous es
ex act
multi ple
Ġb anks
) <
. (
} &\
In struction
ä º
ten ess
Ã Ĥ
Ġw estern
Be en
Ġco ffee
Ġhappen ing
b undle
pm b
ver ify
annot ations
ir y
v i
Ġsh ifts
ĠSum mer
Ġextr action
n l
**************************************************************** ********
ĠCl ark
Ġre actions
D eep
get String
Ġsing er
Ġbe ar
ĠP si
Ġpar ad
Ġin coming
Ġobserv ables
Ġcont rovers
glyph icon
Ġlimit ing
me as
ĠExp ression
tr ansp
ĠDemocr ats
A X
K L
Ġjud ge
ĠB oy
ĠR h
ĠM iller
Ï ģ
... )
ĠH AL
g ression
ĠL P
ĠBr and
ĠCon serv
ĠSt ation
Ġs yntax
Ġev ident
ĠInt eg
s amples
adi ents
RES ULT
Ġevery where
ĠVAL IGN
Ġ' _
adel phia
Ġrecogn ize
}_ +
Ġform ulas
ĠM ill
Ġpick ed
Ġcontem porary
Ġreg ulations
r at
CC ESS
F eed
ress ions
Ġviol ation
/ _
FLA G
) )$.
or er
Ġstr ange
local e
Ġop posed
Ġhyper bolic
as hes
Met ric
ĠI F
add le
Ġs ad
et ition
+ |
ĠTor onto
Option al
ĠE mer
h yp
Ġa thlet
Ġout per
c x
ĠC am
ac l
Ġadapt ed
Ġf older
HO UT
Ġmag azine
Ġnumer ically
Gr ad
ad oc
M ich
Dis k
ĠIn s
ST M
G T
ĠF O
Ġf er
Ġproport ion
Ġil legal
h ist
Ġd ress
Ġpar agraph
Ġpay ments
(" #
DE D
ips ch
ol s
æ ķ
el lect
add ed
Ġincre ment
Ġaut hentication
Ġ( #
Ġsit ting
Ġheav ily
ĠIm ages
Ġim g
Ġlength s
Ġ// !
ĠN ull
Ġfr uit
ĠB and
Ġloop s
Ġm useum
Ġpul led
K it
Ġhead s
Un ited
ĠA k
As sembly
Ġsup erv
Ġs ep
Ġemerg ing
Ġste el
L iteral
Ġf inger
respect ively
Ġc ached
est ing
ĠD er
d n
{ [
S B
ĠOff icer
Ġdise ases
Ġpromin ent
ĠIn f
Dep recated
). }
ast ro
reg on
he t
rel ax
Ġarm y
Ġt sd
H H
ades h
ĠA venue
tim estamp
Ġcon jecture
P resent
ĠU RI
Ġb on
Mod ified
ĠS ingle
(' <
Ġtim ing
contin ue
sim ilar
Ġinvari ance
Ġm apped
ĠMay be
. [
scal a
p al
Vis ual
ater al
Ġar ises
work s
fin ement
BA SE
] _{
Con tract
Ġguid elines
Ġtang ent
ĠL evel
Ġgener ality
\ }}
Ġ$ [\
ĠMag azine
ug ar
id ity
center line
2 20
A zure
Re act
ĠE N
Ġs av
ord on
ĠR elease
re newcommand
Ġstr ike
lef trightarrow
ard ing
m r
ĠB asic
Ġher o
et he
ĠO K
ĠIm port
Al gorithm
UB LIC
ail ing
10 9
al actic
' )\
ipsch itz
F ac
Ġ} $
az e
sh are
Ġimp ressive
riz ona
ĠT arget
ĠClass es
display math
m ime
om er
Ġgr ade
make box
: #
ter ior
attr s
ens ing
f ish
Scal ar
om es
produ ction
Sh ader
Ġun ity
ĠPro of
S i
ĠTr aining
< >();
ĠSc ient
ĠE ric
Ġany where
Ġmeas uring
ĠL ind
____ ____
the y
Ġautom atic
Ġe gg
equal ities
Ġinform ed
Ġim per
gr avity
Ġwav ef
AN G
Ġst retch
ĠRem ark
; |
ĠF L
ĠCP U
c raft
view port
ĠColor ado
not ify
Ġappe al
mem bers
ĠSing apore
i est
Ġhol iday
Ġpr imitive
get Type
Sup press
ĠS a
$ (\
Ġam pl
order ed
v ision
è ¯
11 4
ĠH ad
Ġser vers
Ġfe es
ĠDe ath
us cript
W D
ĠH E
Test ing
ĠMem ory
ĠF I
im od
^- $
at en
Eff ect
I p
Ġapparent ly
rop ical
Ġrem oval
ĠRun time
iv idual
ĠRec all
}} }{
it led
Ġg ray
gress ive
ĠBuild ing
c ritical
19 50
__ .
ĠLog ger
tim er
ser vers
Ġim plications
Aut hentication
Ġdeterm inistic
C odec
Ġpar a
d ue
Ġhe ll
Ġal cohol
uss ia
on i
ant ics
Path s
Ġexpl ored
ch arg
f older
Ġt iny
Ġmulti plication
v y
ĠVer ify
ĠM icro
Ġappoint ed
G s
Draw ing
Ġmount ain
LE MENT
ĠG uid
19 78
Ġfin itely
ĠL eft
Ġar ts
Ġcons c
ĠQu ant
Ġconven ience
Ġvan ishing
ĠK evin
Ġderiv ation
ig ator
Ġlegis l
ĠB rian
f ar
t ile
sm ooth
ip ient
Ġprepar ation
/** */
T ry
Ġde eper
Ġde als
Action s
load ed
ĠSt ock
Ġdis plays
, (
r gb
Ġprint f
ack ing
ĠĠĠĠĠĠĠĠĠĠĠĠĠĠĠĠĠĠĠĠĠĠĠĠĠĠĠĠĠĠĠĠ ĠĠĠĠĠĠ
nov ation
if iable
Ġhe ating
Ġs ched
Ġb g
em ark
acc ur
le e
Ġcount ing
Ġm ac
Ġlegis lation
}} +
Work er
Ġimag inary
ĠB log
Ġhas n
Ġun us
Ġaff ects
ĠP ur
ĠE vents
ab b
Ġpod cast
Ġf usion
Ġw ond
Ġar row
book s
Ġr ural
Ġemploy ment
ĠIn ternal
Table Row
Ġmodul i
iam i
Ġdefault s
Ġab elian
Ġbr anches
Ġgu est
M AN
pr agma
math ds
u h
Ġf asc
Ġreject ed
ĠPro blem
reat ment
ĠH ong
Ġdes ire
F rames
Ðµ ÑĢ
' =
Ġflex ible
Ġmin i
45 6
ĠC ro
Ġc avity
ĠPen nsylvania
Ġinher it
med ium
se en
Ġcarry ing
Ġprom ising
unk nown
d v
equ ate
Ġart ificial
se ason
Ġto x
ĠIll inois
ent ric
oun ced
lin ux
ĠH O
Ġk illing
upd ated
Ġvari ability
P riority
â Ħ
ĠC T
ĠW I
D im
Ġcaref ul
Ġleg acy
Dec imal
ĠPr act
Ġro utes
Ġrout ine
Ġa wards
g z
Ġwor ry
is ations
ĠIt em
Ġn ested
ivers ary
ĠC L
c ountry
Ġt icket
ann y
Ġfl ash
n ecess
Comp at
R F
ĠC ru
itud inal
ĠT YPE
Ġj ets
Ġh ur
SO URCE
Ġprofession als
0000 0000
Sh are
ĠStep hen
Ġman ual
Ġcontinu ing
p k
an th
Ġun like
EN ABLE
Ġconcent r
Ġ' -
Ġthick ness
uet ooth
Ġp ose
Ġnot ification
Ġsub str
unders et
Ġmon ot
ent h
Ġh all
in ch
hed ral
ĠN GC
Ġaware ness
Ġse asons
Ġsymmet ries
A ST
Ġjoin ing
Ġpro ton
c as
ĠC ancer
in itions
Ġoptim ized
N EL
con straint
C LA
am ount
por ter
ĠK h
Ġfocus es
Ġn ob
__ ,
Ġel astic
ĠH ay
dec om
ĠD CHECK
Ġprof essor
Ġch rom
con current
Ġ-- ></
B N
j b
Ġmark er
Ġf i
Ġhand led
oper ative
A pr
Ġnarr ative
ĠJes us
Comp are
Ġtarget ed
Ġregard ed
og ether
] _
Ġmeaning ful
^{ [
ok er
ĠM ic
Ġlocal ization
TH E
get Message
ĠPl atform
ĠSt ill
ĠS elf
eff ective
Ð° ÑĤ
Ġcoun cil
ĠIn v
c op
ul se
Ġcook ie
T y
ĠC ook
C trl
Ġv on
i Ã³n
Ġscreen ing
Ġarrest ed
seg ment
M ix
un ning
Ġant ib
. ',
}\ }$
Ġglob ally
Ġclass ifier
Ġe cosystem
Ġb ought
s uff
Ġver ification
ĠAl li
Ġarr ival
Ġw heel
Ġm ine
iline ar
Ġnot iced
ard ed
Ġal ive
) }^
Ġfound ation
on ia
ĠA V
ĠAnd erson
Ġearn ed
Ġcl ar
ĠPl ace
p ic
c us
Ġrest ore
Ġprov ision
re view
olog ist
M ust
mat ches
Û Į
N ational
ĠV ar
ang ers
ĠK at
Ġbar rier
Ġoper ated
String Builder
Col lect
Ġhost s
st ock
vers al
Ġcour ses
re ach
set ting
Ġo xygen
Com mit
U nd
S afe
Ġcut ting
Ġs i
p q
ĠCon vert
vel oc
Ġsh orter
Ġover come
m obile
ĠScot land
arch ive
99 99
ĠH ost
12 1
ul us
Ġhel per
g if
Ġart ifact
AP P
Ġinstall ation
se a
ĠS us
t v
he at
)\ ,\
r v
gener ic
ĠF ound
ĠR eb
66 66
part ition
ĠMA X
Ġvict ims
ur ers
p us
ne ut
Ġprof it
ow a
ĠArt icle
ict s
ĠIn valid
pert urb
R UN
l st
pr iv
od o
Ġminim ize
ĠR ic
Ġstr ain
M a
Ġ\, ,
Ġfraction al
iv als
S PE
Ġdot ted
ĠP aper
he alth
Ġaux iliary
Ġg host
19 77
en ant
Ġneglig ible
Ġ ell
Ġsu ite
Ġbus y
Ġguarant eed
}}\ ,
Ġelli ptic
G D
00 2
}{ $
ĠT ab
Ġent ering
Ġb ucket
th ird
ph ab
B ro
Ġenjoy ed
opt imal
Ġm s
Ġknow ing
Ġvict im
Ġrec overed
Ġfeas ible
Ġm unicip
Ġshe ar
ential ly
Ġex cluded
D ITION
ĠUs ed
contain ers
Ġconsist ently
Ġs ectors
Ġw rapper
Ġs essions
Ġcontinu ity
Ġuser name
Ġ )$
N eg
Ġis instance
Ġes cap
Wh ite
Ġscal ed
Ġout line
M N
ub er
Sec ret
C a
Ġvari ants
Ġp ole
Ġgreat ly
File Name
^ +\
fr action
ap ple
Ġi Phone
fil ters
Ġowners hip
ĠSt op
b ug
ĠR ose
ĠR oute
rout er
Ġretri eve
Ġt ension
Or gan
arg o
en ario
ĠTh er
ĠMod ern
ate ful
ĠEd ward
12 4
Enumer able
te ch
Ġsuper ior
' ].
pro fit
ut down
}( -
elastic search
Ġaf ternoon
. -
Ġs ends
Ġap ilevel
Ġfall ing
' -
path s
LO AD
ĠGr id
oust ic
is ode
Ġfocus ing
Ġplace holder
Ġ( %
ĠPro perties
he x
Ġappro val
z o
CRE ATE
Ġab and
ĠC HE
Ġarg ued
{ },
197 6
Ġbeli eves
ta x
res olved
andid ate
Ġinteract ing
y ers
P ane
pos itions
F s
ĠH art
Ġexam ined
pr ice
ĠTh ank
Ġuniqu ely
ĠCh all
Ġref resh
P DF
Ġcond ens
sl ide
Ġtri es
Can vas
umn i
s ent
x sd
ĠSt and
ST ART
Ġst ood
Ġgr ab
tr ained
Ġsort ed
ĠT er
ĠR ender
(" \
Ġr anging
ĠPart ners
ĠGr ad
ĠV en
k ov
Ġem er
" ];
;| &
re str
ĠFore st
Ġoper ational
Ġthread s
fa iled
ĠGold en
S K
C SS
P al
In sp
Ġgrow s
O wner
d ers
ĠR andom
Ġv ibr
st eps
N eed
ĠD ise
amer as
` :
p aces
ĠUn iverse
Ġarray s
ib ling
Ġf ro
ether lands
ĠPH P
Ġin equalities
B ACK
ĠT ok
Ġdram a
Ġpermut ation
27 0
Ġbo ys
Mark er
F etch
A ff
Ġsett lement
Orig in
ĠY ang
Ġnav bar
am ination
Ġs oph
Ġb acter
Ġdec oder
Ġp it
cho ose
ĠOper ation
Ind eed
ĠI raq
Run ning
omet er
ĠÐ ½
ĠFil ter
âĦ ¢
Ġal igned
sign al
ĠP rom
w ind
ĠO nt
__ ["
H er
Ġfound er
ĠD oug
R M
ĠD og
Ġclos est
' (\
ĠD id
Ġindic ator
Ġf ired
get Attribute
Tr igger
k ip
Ġinitial ized
op acity
Ġhe x
ĠHol lywood
Ġfr act
dec ode
D istance
Ġregular ly
SP ACE
Ġre put
ab i
\ -
at ics
Ġg od
Ġcomple tes
Model s
re nt
Ġs oci
Ġs le
ĠN um
ĠE uler
Ġsy nd
p ending
cl i
ant e
}^{ (\
Ġun likely
Ġremark able
H A
ĠWIT HOUT
k n
ak h
raz y
Ġqu arks
ĠT ABLE
ĠGovern or
Ġpublic ly
Ġtun nel
ĠHar ry
ph ot
du cer
Ġrot ate
var s
}$ $
br anch
ĠM atrix
Ġ\ #
co ordinate
` )
ĠD ebug
Ġassoci ate
ĠB at
miss ible
Ġv otes
AR RAY
Ġs napshot
ĠD I
F D
Ġw ider
Ġind ent
~ {\
100 00
ur bed
P s
ĠM oon
Ġpil ot
amp ing
}$ ).
ĠL apl
Ġrele ases
ph ony
Ġl in
ĠG ra
Ġ å
Ġ erg
SS ION
Ġs oul
Ġb ins
ĠI gn
Ġeng agement
correspond ing
H is
text style
Ġmaintain ed
Ġg ained
en vironment
ĠPer formance
. ]
Ġw arr
Form s
Ġexpert ise
(' ./
ĠParamet ers
fr ames
19 75
autore f
ĠM IT
-------- --
Ġint u
AR B
Ġsuggest ing
C ulture
T oday
ĠV iet
includ es
Ġtour nament
igen ous
Z Z
Ġh align
Y S
Ġbas ically
Ġgen us
car lasg
carlasg uns
Ġdes cent
Cre ated
Ġâ Ĩ
Ġspec ification
AR G
Ġrect angle
Ġecon om
Ġsh ifted
Ġrev olution
> ${
Ġg aming
pi pe
Ġperman ent
ar ma
Ù Ĩ
Ġport folio
C annot
Ġ\\ [
Ġtransfer red
Ġgo ogle
ĠSm art
Control s
the mes
Ġi i
ĠCon sequently
Ġaccur ately
out ube
d am
Ġhor se
ancell ationToken
ĠS ant
Ġ' #
Ġmed icine
Sub ject
Ġfra ud
Ġthere by
Th ree
tes y
Ġimpact s
os ph
Ġev il
Ġtransport ation
sol r
Ġsub sequently
ĠColumb ia
ri ble
us et
ierarch ical
Ġf estival
dat aset
Ġdog s
met rics
Ġdep icted
ĠW as
Ġcollection s
ind ices
ĠHe art
Ġmechan ics
ĠW H
Ġex haust
ĠAl ice
T ensor
ĠTr avel
Ġb asketball
ĠN atural
Ġph arm
ĠST ART
Ġrecommend ations
vious ly
Ġtw enty
ĠS L
ĠHel p
v v
ĠAlex ander
Ġ' ,
Ġrel ativistic
Ġr ating
Ġreprodu ce
IN IT
z ing
Ġband width
Sc an
Ġlog in
Ġadapt ation
hes es
Ġwe aring
ĠC ell
un ks
Ġdiagn osis
tt ing
ĠRet ri
Ġref lected
c urrency
Set up
t oc
Ġmin ing
ĠPl us
H ol
Ġplan ets
D ict
M W
Ġpark ing
g h
get Class
Ġco homology
erial ize
quant um
ĠLic ensed
ĠN othing
L ow
sh a
odel s
G H
Ġim posed
() ]
ĠBit coin
the w
ĠBr ad
Al pha
Ġcomb at
Ġstream s
big gl
list en
IN VALID
We ek
ĠNever theless
ession al
sup p
SP AN
Ġatt ended
ĠA h
Ġf urn
Ġst one
S eq
pos able
Ġnot ing
N ONE
do es
Ġt issue
sp ot
è ¿
M ount
Ġl ibraries
Ġconfigure d
ig m
allow ed
m ust
Serv let
M utable
Ġveg et
cre p
Ġgen etic
on na
Ġmer ely
Ġsch olar
jack son
rot ate
ĠS anta
Ġform ing
ĠSaf ety
$& $
Ġinject ion
row se
o or
i q
est ure
Ġpay ing
d elegate
dat etime
}} -
%%%% %%%%
ĠS quare
ĠK EY
Ġvol umes
Ġcontribut ed
Ġwebs ites
ed s
Ġ# {
bib li
ĠM obile
ar ance
% "><
sc opy
C UR
ri ends
B uf
Ġin cl
_ [
enn a
re ts
min ute
Des pite
×ķ ×
Ġind ependence
Ġsym plectic
Read y
es tr
Ġtrad ition
itor ies
H ello
Ġhost ed
moment um
Ġdec line
Ġpoint ing
Ġs ick
ĠE ver
rop ol
EV ENT
IC ATION
Ġdec ent
V I
Ġp ushed
Ġp ic
ast y
Ġcap ability
Ġdecl are
H AND
Ġvar ies
Ġver b
ĠW i
ple d
Ġover l
Ġferm ions
): =\
pro j
Ġup grade
ĠM ult
ĠMon th
ors ion
Hash Map
k h
Ġind irect
ĠCom ments
Ġred irect
Load ing
Ġsens ors
ĠM ir
Ù ħ
Block ly
V C
n r
Ġsk ill
Ġtor us
tr on
s it
Ġcl s
Ġl ux
dest ination
ĠA B
sw ing
Ġeng age
> %
D ig
Ġelse where
Ġ* ,
Ġ" _
}}\ \
ĠK eep
Rel ative
ĠPhil ipp
ighb or
Ġspe aker
por al
Ex ecute
st ers
Ġgeodes ic
ĠD ream
Ġvan ish
ĠUn less
File Path
ogn itive
@ {}
17 0
ĠNS String
ab ul
ĠAl tern
S ide
G uid
Ch unk
is l
Ġattract ive
h arm
Ġany way
) /\
........ ........
ever y
Ġta ught
sche me
sub float
Ġtim er
ĠIs lands
cknow ledge
Ġguarant ees
ĠWork ing
rt l
MP L
r x
ĠT ai
N orth
Ġhighlight s
WA RE
D ist
11 8
Ġquant itative
ith metic
Ġregular ization
Ġprotocol s
ĠR ule
est imate
Ġgu ests
Ġvalid ity
L arge
197 4
Ġadd r
ĠDat abase
ig e
Ġcal endar
ĠD oc
Ġdemonstr ates
z oom
j p
ĠO ptions
Ġcor rel
text ure
ĠO regon
n od
f ollow
n an
Ġshould n
Ġinter vention
bre aking
ĠPhil adelphia
ĠMem bers
q q
lim ited
Ġs ender
æ ĺ
ic ide
Not ice
bur st
ĠB R
Ġw ed
Enc oded
G F
LA B
Ġrel ies
Ġen forcement
Ġobserv ational
Ġaccord ance
I ss
i w
Ġcol span
S core
ĠF un
ject ive
] ->
Ali as
car bon
al og
Ġth orough
Ex tra
Ġful fill
Ġ\ :
ams ung
su it
Ġsqu ares
Ġc rypto
ĠPr ice
v g
Ġdisc ipl
Ġf irms
ĠAn aly
sc an
ĠS ound
Ġmod ular
Ġs ought
Ġpar ity
ĠU t
Ġst roke
ĠK IND
pre pare
av is
ĠF ALSE
ĠCred it
Ġelect romagnetic
list ener
fg han
Ġair port
vis it
Ex it
################ ################
br idge
big gr
Ġfac ed
ĠT oken
ank a
ĠW inter
ownt own
qu ark
ec onds
Link ed
}$ ;
sd k
Pl ace
ĠD IS
ens ively
Own Property
S outh
S an
B reak
Ġch at
olog ically
Ġposs ibilities
ĠG alaxy
New ton
Valid ate
V A
L ines
Ġcomfort able
Ġassum es
o a
ĠH al
Multi ple
Ġsingular ity
Ġg ift
od a
b n
Ġqu bit
Ġla ugh
), (
Ġent reprene
Ġaim ed
ĠEn c
ĠS ymbol
eder ation
F ake
process or
ref resh
Ġrelig ion
fig s
f w
po i
G RO
Ġh at
w ho
Ġwrap ped
Ġdisc ount
D one
der iv
Ġlo an
T w
v p
Ġch ampionship
50 9
n os
Ġphys ically
con sin
ĠW ars
Ġme ets
Ġbo at
ĠM eta
Ġcont est
Ġ" >
Ġmeet ings
l c
ĠR ome
ĠM arg
Sche me
ĠC irc
Ġr um
Ġmanif olds
[ [
Ġfin ance
plement ed
ĠA rizona
Rece ived
m issions
il st
Ġdiver gence
Ġremain der
D TD
ĠS SL
ec on
tog ether
Ġinstr uments
Look up
uch y
W ARN
ME M
Ġconnect ivity
st ellar
ef ul
ĠPhys ics
g lob
ĠId ent
. ")
Track er
r h
uck s
Ġb ases
M ail
}{ $\
ĠAt tribute
ĠS ri
ĠArg ument
ivari ate
çĶ ¨
T IM
Lower Case
ermit ian
Ġro oms
Ġfac ulty
Ġsearch ing
Ġpre lim
qu es
ĠĠĠĠĠĠĠĠ ĠĠĊ
Ġtroub le
Ġsc oring
ĠT OP
umul ative
st ation
all as
Sm all
or ange
Ġexp r
m any
Ġorient ed
Ġcons ent
Ġincred ible
Data Type
project s
Ġph on
Ġeng aged
Ġg arden
s olution
cri ber
ĠE RR
A rr
Ġ} ).
40 4
5 000
Con tain
ox y
Ġmer ger
Ġob st
; ,
con str
F our
12 2
Ä į
}} +\
run ning
K ernel
lock ed
Ġar ising
em bed
tool tip
un ing
ced ure
dis patch
scal ar
Ġke V
Ġdual ity
mut ex
ĠP ot
d imension
11 6
Jan uary
L ive
ĠE D
Ġsus cept
ĠI o
) ~\
ĠL es
Ġform ally
Ġa ria
umb n
Ġdem ands
Ġd iet
ĠB ru
Ġproof s
ad apter
ĠA ws
ath y
Ġmetall icity
Ġfriend ly
Ġbirth s
Pub lished
ĠE val
n ear
ĠSim ilar
\' {
An n
] ).
== =
Ġinitial ization
}] $
197 2
task s
Stat istics
Int ent
C amera
Ġd uty
ĠFr ont
ĠR oss
local host
W est
L M
Ġd ies
ĠSen ior
yg on
pl ain
Ġr ings
trans late
Ġche ap
Ġalloc ated
dr ag
197 3
ĠA udio
Ġembedd ings
Ġdis appoint
Ġf o
\\ \
Sec onds
Ġreflect s
b ucket
start s
AT URE
C ost
sub string
k k
ĠW ales
Ġwire less
ĠK al
Ġ" #
Ġpro hib
Ġz oom
3 000
Ġbeh alf
Ġdeep ly
v endor
ĠStud ent
at in
ĠStud ents
Ġsh ots
Ġinj uries
Ġadvant ages
veloc ity
Ġman aging
Error Code
ĠRepublic ans
Ġnucle i
Ġdis miss
ĠG ib
Ġsp ark
Cle an
g c
ĠB S
Ġwith draw
ĠF ellow
vers ely
Ġsurvey s
con j
ĠL eb
ĠEmp ire
ad ic
ĠU l
mer c
Ġbright ness
ĠJ osh
Ġop position
Ġaccomp an
ĠC ache
ĠM E
F B
Ġs wit
T or
' })
Ġsuppress ed
Ġadapt ive
back s
| {\
) ~
ĠP ed
en o
pe ople
ĠCl imate
Ġimprov es
Ġmot ivated
ĠN avy
pay load
Ġpro test
ener ate
' ,\
qu et
Ġmed i
Ġqual ified
S n
ĠC M
SH A
] ),
Ġprocess or
c ord
em pl
á »
() [
HO ME
Ġsimpl ified
ĠD ictionary
Ġphenomen a
ĠL ock
Ġiniti ative
ĠT alk
Ġprot otype
st ri
ĠHot el
im b
Ġfor t
ĠTr ade
ĠS ET
C ertificate
Tool s
ĠEx change
or se
Ġspec ifies
ĠTh ough
inc i
Ġm ir
×Ļ ×
ĠFe ature
Tem p
Ġcharacter ization
Ġradi i
Ġrem ind
interpre t
gr pc
Ġlook up
ĠInitial ize
_{ (\
ym ore
man agement
Up per
value Of
Ġsil ver
H ard
db c
ĠLew is
ĠInd ustry
D a
ĠG reg
ht bp
ĠThe ory
ĠS ix
lib s
ĉĉĉĉĉĉĉĉ ĉĉĉ
m g
m ad
TableRow Color
P ush
inn ed
Ġtick ets
Ġ} ),
4 50
os er
Bit map
Ġr ay
the se
Ġcontinu ously
contin uous
Ġcl ause
ĠGener ated
em ia
ĠO cean
diag ram
Ġsummar ized
us ive
LE D
ang el
ap ters
~~ ~
Ġmonth ly
Ġhol omorphic
ij k
por ters
Ġh ate
Menu Item
hell o
Status Code
l int
Ġwat ched
ĠR aj
uset ts
Ġb le
stat ement
ch ant
Sc ene
qu estion
ĠIn sp
ĠPar liament
Ġmoder ate
T ake
Ġsw im
Ġstrugg le
end point
Ġparticip ation
Ġext ending
Mon itor
ach usetts
Back end
ĠMount ain
ĠHou ston
cy cl
Ġjud g
ar ound
ĠT E
Ġdis patch
ĠP AR
/ )
Ġn m
pl aces
Ġg ram
fl ux
M ass
Def ine
12 6
ĠN N
Ġinj ured
Ġflo ating
Ġl y
ch at
ĠC ab
ĠAnn ual
Ġinter rupt
ĠF ast
ĠCom ment
Ġintrodu ces
trans fer
Ġt all
Ġorgan ic
Ġcom edy
Ġexception al
f und
ter y
Ġbro ke
Sl ice
Ġo ct
Ġbi ological
Ġaff ili
ĠCart esian
Ġg amma
set length
Ġ( `
Orig inal
Ġfrequ ent
Ġsup ern
OR S
Ġg enu
SP AC
Ġachi eves
? )
ĠDate Time
Ġdis put
Ġparamet riz
ĠPort ug
Ġweek ly
ĠS NR
Ġb rown
ĠP it
ĠO s
Ġoscill ations
Ġ$ -\
ellect ual
Ġp up
end o
c ule
Ġexhib its
i per
CR IPT
ph oto
Ġpr on
ME SS
Ġk il
ADD ING
I ll
tract ed
Ġm ild
ĠDi ego
asc ular
Con clusion
ĠE M
list ing
Ġconsider able
Ġp aint
N Y
Ġact ress
ĠCom b
el led
Ġout standing
sm odels
x rightarrow
Ġident ities
ĠEnvironment al
Ġc up
Ġ& #
Ġhist ogram
prec ision
Ġmut ual
}] \
ment ioned
IT LE
Ġaut omorphism
ĠG allery
ĠN u
om as
ĠD un
be ans
es cape
Ġpriv ile
C he
K K
v t
{ +
ĠDev ice
Q ual
Lin q
c am
ag an
append Child
ir able
Ġattr s
Ġc ategor
Ġacc used
ĠC V
RO W
v ectors
ĠVictor ia
ĠIllegal ArgumentException
C ould
. ');
Ġass ault
em ony
Ð¾Ð »
end ers
ĠRel ations
Oper ations
1 19
Ġhand les
ĠM B
ĠP E
bound ary
Ðµ ÑĤ
Ġen emy
igh th
Ġgr adients
Ġpurch ased
ĠE arly
Ġtw ist
Ġv ital
ĠSh er
ĠA bb
L u
Ġsurv ive
in verse
Un iform
. :
w ire
XX XX
Ġdevelop ments
ĠG C
f uture
v et
ĠY O
Ġperson nel
ĠSar ah
D an
Ġreli ef
Ġrank ing
11 3
P ad
ĠP arent
Ġvisit ing
Ġman uscript
Ġequ ity
Ġdet ectors
Ġreview ed
Form atter
et c
ĠProt ection
ĠSt orage
Ġc ry
P B
ĠK enn
ĠL abel
Ġcons iders
2 10
ynchron ous
ĠLL C
alt Color
Ġhead ing
Ġcontract s
se cret
ex isting
ĠAl low
ĠM oh
AR CH
Ġb eta
Ġfr ustr
it ure
ĠB ody
ordin ates
manif old
Ġcomput ations
Ï Ģ
Str ucture
Ġf lood
Ġa cknowledge
ĠH ur
Ġoptim ize
z ier
Ġaut ore
ab a
Ġex ceptions
As set
Ph ase
Ġdecre ased
O cc
s ources
Ġ} .
Ġg ains
Ġcommut ative
æ Ĺ
pop up
ĠHash Map
Ġ )\
N orm
Com ponents
, âĢĻ
ĠT otal
N ON
Ġtrans it
Ġinter faces
ur is
Ġin vert
ĠM iami
aren cy
Ġun f
Ġcon cluded
m ov
Ġh opes
TO M
h op
trans l
S ets
execut ion
est ions
Ġcomp atibility
Ġsuff er
ĠTh ings
ĠW HERE
Dev elop
ĠO C
F it
ĠNet flix
s ocial
ou b
Ġn eck
Ġse ats
ĠBr idge
g raphics
Ġelig ible
ĠM it
* {-
Fact or
iz ard
Ġle ct
Ð ¹
M al
ĠYear s
ĠTh ird
ack ets
form ula
Array s
Ġwalk ed
TH ER
Ġelect rical
ĠG it
Ġassert ion
Ġcell padding
Ġconver ge
Ġm eth
â ĪĴ
in x
Ġhouse hold
Access or
Ġfor cing
ĠN ations
w hel
op ol
Ġcomp ilation
vari ables
Do es
P ADDING
View Controller
N I
> [
Ġt f
ĠEcon omics
ot ive
ĠF low
Reg istration
to Equal
P ending
: %
ĠL ady
s ymmetric
Ġfilter ed
17 5
des cribe
ĠNAS A
') ->
ĠJ ane
str ument
Match er
B usiness
Ġrender ed
ĠL ag
our i
dict ion
ĠK it
ĠEnter tainment
Comple tion
ourn als
ĠEx press
ĠSp ect
Ġsold iers
C at
[ {\
Ġsudden ly
ĠW ang
Ġelectric ity
ĠV ice
ennes see
( []
g ap
w allet
et r
IE W
Ġann ih
R ich
Ġsub stitut
ĠB BC
ut orial
FA IL
D ue
ĠCHE CK
Top ic
A Y
Ġens uring
^{ {\
ĠS cal
Ġkn ock
Ġsol it
In line
Fig ures
im eter
ĠÐ ¸
and al
Ġadvers arial
ist a
depend encies
reg istry
Ġcomp ile
ĠGal actic
Ġoffic ially
---- ---
Ġman ually
Ġcycl ic
Ġserious ly
m acro
Ġmaintain ing
Function s
on ing
& +
R o
ĠO DI
ĠĠĠĠĠĠĠĠĠĠĠĠĠĠĠĠĠĠĠĠĠĠĠĠĠĠĠĠĠĠĠĠ ĠĠĠĠĠĠĠĠ
P ipeline
Ġb ubble
Ġqu ote
Ġret ro
parent Node
Ġadjust ed
D Y
REQ UEST
ĠN ation
el son
ĠS yntax
Ġcard inal
Un iversity
w ang
th ur
ren ce
Ġfr anch
top rule
ĠFore ign
Us ed
Ġharm ony
Ġ\ }$
Ġbe ach
Ġsol o
Ġlik es
it atively
ab ases
op ing
Ġgr ass
å ¤
Eng lish
Ġgovern ments
ret val
Ġthous and
! (
Ġc urrency
en ix
>< !--
elf are
i pher
Ġj oy
ĠCle ar
av ors
i ology
Ġt weet
Con straints
ĠB attle
RE NT
Ġcoinc ides
ht b
f aster
RO OT
Capt ure
Ġb ass
ĠS n
Sh arp
\!\! \!\!
ĠHarr is
Ġla id
\ ":
ĠR ange
* >(
ĠAp pro
ĠConn ection
Bl ue
In cre
ĠDet erm
Ġas ks
ĠTR UE
Ġt ank
Ġt ou
Ġch ronic
ĠS eg
B lob
ĠDef ense
Us es
}) }\
default s
Ġrestaur ants
L o
ĠT en
ĠLink ed
Ġb ike
ĠUn fortunately
Ġsimpl er
T imes
ĠPub lish
ĠSum mary
vent ions
Ġsuff ered
subs cribe
Ġsp ins
Dest roy
ĠPerson al
ill iant
ĠJ am
lat est
g ar
ĠOff icial
Ġlisten ers
F oundation
For ward
Ġmoment a
t bl
Ġread ily
Re pe
}, \\
ĠAv ailable
ĠG h
Ġprote ins
ĠF arm
NE W
Ġco ins
Ġe c
link ed
pol ar
ĠJava Script
Ġ" )
Ġp ng
Ġqu bits
ĉ ĠĠĠĠĠĠĠĠĠĠĠĠĠĠĠ
MA GE
sin h
aud i
cos h
maj or
Ġill ness
P rom
ites pace
ĠCon stant
Ġflux es
Ġconjug ate
Ġdist urb
att ach
Ġbu ying
se ed
t ol
Ġvulner able
AB ILITY
Conn ector
ĠN etherlands
AA AA
). $$
h p
ew ise
ĠUS D
}^{ *
B u
com ments
Ġf lying
Ġ[ {
ĠCl ose
Ġbelong ing
Ġas c
Ġattempt ed
sp i
Ġnot ify
cos ity
M esh
Ġ[ -
re tt
ĠSt adium
Ġg lyph
Ġr c
ib l
us age
ĠN ature
ĠL ess
ĠB ORDER
ĠR ound
ĠD utch
Ġregul atory
$ =
ampl er
Ġbird s
ĠK ansas
å Ĭ
ze ch
M art
2 30
Ġc ow
Ġgrad uate
In s
M arch
g uid
en h
ĠP layer
Ġvar ied
Ġd ump
big oplus
Ġdel ight
ĠLa ure
to LowerCase
Ġoccup ied
Ġ. =
Ġw ake
sh ots
ĠOx ford
Ġt ile
âĢ¦ ]
Ġintegr ate
s yn
Ġdevelop er
og gle
IN DEX
3 20
Ġlabor atory
B G
g tr
ad apt
+ $
Res earch
Trans fer
ĠD etails
Ġalbum s
Att empt
h base
compar ison
â Ķ
ĠL iter
ĠS ession
prop ri
iv a
ant i
Ġsign ing
initial ize
Ġannounce ment
un ion
sl ider
Ġlogarith mic
For ce
ĠCon struct
Cal endar
jav ax
G re
ĠL as
H AL
Ġan ten
ĠF a
Ġrel ating
Ġp s
P ref
Ġprov ing
Exp and
N L
Ġb att
var pi
ĠD est
Ġmod ifications
Radi us
ol i
ĠA LL
ref lect
Z oom
G raphics
ĠAnt on
Ġpoly g
c ached
ĠC reek
F ollow
R atio
Ġb omb
An chor
Ġbehavi ors
Ġcelebr ate
Ġl ying
Pl us
Ġbl ind
Ġaggreg ate
Ġt aste
Ġf illing
Ġvacc ines
Ġinv ited
Ġexhib ition
Ġsurpr ised
}} }{\
script s
Ġg it
'' .
Ġ' @
Ġre write
Ġinv oked
Ġtax es
- {\
//////////////////////////////// ////////////////////////////////
Ġt ied
u pt
G AN
ĠTest s
$ ^\
ad just
Ġhard er
ĠR ick
ump y
Ġshop ping
Ġdis ag
Ġconstant ly
Ġrender ing
iv ia
Ġfacilit ate
ul p
Ġin comp
App ly
Ġgener ations
FUN CTION
B ucket
ĠFin ance
Ġsimpl est
Al ert
ĠF lo
b an
ĠĠĠĠĠĠĠ Ċ
Ġdis crep
over flow
}} ^{(
ĠWh it
clus ively
ĠOnt ario
Ġperson ality
St age
Ġblock chain
Ġtrigger ed
Ġrem oves
Ġpres erved
Ġexponential ly
}} _\
Ġreg ulation
ĠT ony
V P
ĠCh rome
b urn
eg u
per cent
Ġreason ing
ĠAtl antic
R ussia
ĠSil ver
ĠĠĠĠĠĠĠĠĠĠĠĠĠĠĠĠĠĠĠĠĠĠĠĠĠĠĠĠĠĠĠĠ ĠĠĠĠĠĠĠĠĠĠĠĠĠĠĠĠĠĠĠ
ber ry
Ġdip ole
che m
Ġhor ror
enc er
Ġund ert
e u
Ġc oc
ĠM achine
Sl ot
Ġdialog ue
section s
ĠJ ean
ĠH R
FORM AT
ĠB reak
Ġy esterday
ĠE T
Ġdis ks
c ence
ĠLin ux
Ġsole ly
C oin
Ġhe lic
ĠBer lin
et ics
Ġh urt
Con v
onom ous
ro oms
] ['
Ġfarm ers
ĠV in
a que
k ubernetes
Character Offset
war z
ĠAtt orney
qu ick
cur ve
inem a
OB JECT
N ER
Requ ire
ĠCamb ridge
d anger
Ġwat ers
ĠG T
Ġen velope
ĠPat rick
Ġrep air
S ig
ĠA WS
En tries
$ }\
ĉĉ Ġ
oul omb
R GB
ann on
mod ified
Ġin duct
ash i
}) :
Mer ge
ĠĠĠĠĠĠĠĠĠĠĠĠĠĠĠĠĠĠĠĠĠĠĠĠĠĠĠĠĠĠĠĠ ĠĠĠĠĠĠĠĠĠ
Ġre ar
writ ing
Ġrank ed
Ġan ymore
Event Args
ri k
ĠB AS
ĠA fghan
ĠH an
Ġcut off
asc ade
Ġn ic
ĠCon sole
ĠMarket ing
ĠC I
19 0
Ġstop ping
i ab
ĠW ik
St d
- $\
Ġt ur
Ġpart itions
ĠEn able
]( #
Ġdiag nostic
m x
SPAC ING
] ^{\
Ġst em
Ñ Ĩ
ĠDr ive
ĠSu ccess
Ġth ro
Ġrad ical
Ġt ips
ĠT a
Ġfund ed
comm ut
EN CE
phab et
um ann
Ġcontr ary
ĠC lick
CO UNT
Ġc ameras
T om
conv ex
d ynamics
in cess
Ġradi ative
Ġadvent ure
Ġcred entials
ĠMo ore
ĠD or
e igen
M ASK
l ad
Ġp a
Ġconsider ations
Ġout flow
Ġexpl oring
Ġimplement ing
ĠAff airs
le in
Ġtem plates
Ġevalu ating
Ġs ake
it r
ĠÐ º
Ġman agers
over ty
ĠG O
SU CCESS
STR UCT
Ġcons ensus
LO B
i op
Ġent hus
ing ham
un lock
Ġro se
ĠC ow
ĠN eg
Ġsh ips
Ġbal anced
sp ark
Ġsynt hesis
Ġbound ing
end ment
Ġad joint
ial s
Ġcr u
c ity
13 2
system s
est or
Ġan not
ĠS in
Ġag ed
te am
ĠJ ay
i ors
ĠS ave
Ġfilter ing
Ġmask s
col head
ĉĉĉĉĉĉ Ċ
}$ :
ent ries
Ġrot ating
Ġs alt
con figure
urs ing
Ġin clusive
Ġsc oped
ĠX ml
tra its
ĠWh ich
AR K
scale box
Ġaccept able
ob e
P aul
Ġreg istry
B LOCK
Ġinterpol ation
ar l
ĠN ash
Ġproject ions
L ead
Ñ ĸ
ĠH ind
Ġlong itudinal
Ġsomew here
Un ique
Ġdiv ide
ma ils
Ġobserv ing
Ġdro ps
Ġlock ed
des criptor
ĠL ar
Ġsure ly
}. $
Ġround s
ap ing
ĠS olar
Has Been
Ġr aces
es la
control s
ack now
Ġgr ain
19 69
over rightarrow
Ġobtain s
Sh ift
ĠA uth
ig gers
Un expected
date picker
not ification
Intern ational
ĠDown load
ĠPal est
ta h
ĠAdd ed
Re place
is p
? (
F oot
Ġgrad ed
ĠNiger ia
ĠReg ional
m ade
h w
197 1
ĠG W
Ġcharg ing
Ġdev iations
Ġvis its
Ġmerg ed
en ium
Ġmode led
Ġstop s
W alk
2 25
ĠS S
ĠWis consin
>( <
19 68
ĠW ait
look up
Ġunus ual
ol ly
comm un
)$ $
pre view
ĠP FNGL
ĠK y
ĠB ound
Ġch ip
g ls
Ġindust ries
ick en
ĠD raw
ff ic
ĠG irl
Ġstart up
ĠTur key
Ġsimpl ify
Ġlight s
Ġcorrect ed
Ch art
! </
e or
Ġanom aly
ĠJ ason
p ipeline
set Attribute
C ookie
Ġob ey
r k
Ġw ing
Ġ( âĢľ
ĠSim on
Ġex ec
Ġover head
ĠReview s
Ġh ack
p ick
Ġcell spacing
16 8
Dis abled
sp ir
) '
r ides
iss ip
uff le
** *
Type Def
c art
um ar
Ġagre es
ĠLim ited
f loor
p riority
r ically
Ġflex ibility
yst yle
Ġoff ices
" ?>
M obile
Ġhomot opy
> {
99 9
Not es
Ġterr itory
S en
$ ^{\
Ġend if
Ä ĩ
Ġnot able
Ġtw isted
ĠTh anks
Ġp ace
Pe er
arg v
Ġass istant
Ġp our
g em
Ġor ange
Ġinter active
Ġ" );
Ġintegr ating
arr ing
if old
Ġto String
ĠÐ ´
re verse
FT WARE
Ġcurrent s
ape ut
ĠAust in
Ġmov ements
Ġh am
Ġlocal e
Ġinher ited
Ġa str
Ġelim inate
is ible
Ġsingular ities
Ġdecl aration
Ġs quad
Ġh az
ĠB ry
Sur face
amp ed
ush ing
n ik
Ref lection
Ġt s
ĠInd ust
Ġas ide
Ġex clude
æ Ī
Ġas ymmetry
Ġprint ed
Ġpermit ted
S ys
V T
el and
bal ance
LE S
Ġsp okes
ĠG ard
L F
Ġc f
Ġmethod ology
Ġc ss
ĠCELL PADDING
ĠF ro
ĠB urn
ĠL iber
ĠĠĠĠĠĠĠĠĠĠĠĠĠĠĠĠ ĠĠĠĠĊ
resize box
D ash
st an
ĠF C
Ġad mitted
^* (\
Ġinfer red
bibli ograph
ĠP sych
ĠBay esian
ĠCELL SPACING
ang a
ĠSt one
, }
c ategories
Ġro y
pack et
ec ycle
ĠM ess
Warn ings
âĢ¦ .
Ġgen es
u u
q ed
ĠCle an
U Int
ĠForm at
r and
Ġ ions
ĠO UT
Ã º
Ġw et
il ty
V R
m icro
ĠG un
m is
}$ ),
: @
bibliograph ystyle
sc atter
ord inary
Ġme at
ĠAnd re
Ġisot ropic
}\ )
: -
S ent
Ġsent ences
in ance
Ġdev oted
Ġsubstant ially
ac les
Ġdis placement
Sh adow
necess ary
DB LP
rep resentation
ĠAll en
ĠS Y
ĠB ush
(" .
Ġb one
ĠRep resent
ĠAd vent
T ick
the ad
14 5
Th m
Ġoff ensive
Ġep id
Ġpair ing
Subs cription
ĠE ss
> `
ĠC op
iv o
Ġat tributed
ul k
}) ^{-
or bit
_{ {
A lex
ac ies
HasBeen Set
F un
ĠT X
ĠMan chester
ĠT IM
hen e
Text View
00 3
Ġaccount ing
Ġres cue
Su ite
âĸ Ī
Ġback ward
ĠMass achusetts
sh ifts
US Y
Ġdegener ate
d iffer
ĠCal cul
ĠR on
Ġmy th
Ġdeg rad
Int o
ess ment
che ll
] \\
Ġro of
Ġprov ince
nob r
Ġt ill
}} )\
ĠSh op
ĠâĨ Ĵ
ĠC os
ur se
cre ens
Ġchild hood
Ġr hs
w en
ĠV egas
abil istic
Ġinsert ed
ĠTh row
red irect
Ġpars ing
Ġatt ach
ĠGP U
Ġ\, .
US A
ĠK a
ĠS oc
gener ation
Ġhighlight ed
i pt
le af
ĠS ex
min imum
grad ed
ĠK elly
Ġreal ization
decl are
AR GET
a verage
Ġr acing
e eq
cal c
Comple x
Ġam big
au i
Ġc oding
Ġenter prise
ĠVis ual
ĠS ales
Ġim pose
S at
}. $$
Ù Ī
Ġcomp iled
Ġrel ate
'] ))
Ġingred ients
ann e
' }(
ĠAd vis
ĠR ot
SU B
/ $
R G
Ġch ampion
Ġutil ize
Per cent
script ions
cons ist
ĠAnth ony
Ġp t
Ġs id
Ġp reference
Name Link
13 4
Ġd ash
Ġgovern or
Ġqual itative
S rc
In ject
****** /
ĠCl uster
block s
Ġl ip
Ġb reed
Ġfun ny
BY TE
f ollowing
Ġint ense
associ ated
Ġcolle agues
Load ed
Co ord
Ġen abling
ĠC orn
): =
over lay
ĠAg ric
H I
Request s
aur a
Ġsk ew
ĠAuthor ity
od ic
ĠB or
Ret ry
Ġfl ights
Ġaccept ance
Ġnewsp aper
File System
Ġn od
Ġwork flow
cor relation
al tern
Pro f
WR ITE
tract or
friend ly
ĠS ab
Â ·
]{ ./
ab ama
ym atrix
Al t
{\ '
ic it
15 5
bottom rule
PT ION
Ġvari eties
plac ed
14 7
Ġcommun icate
ĠR T
Ġenc ryption
ace ut
enc il
Ġprelim inary
ĉĉ čĊ
gu ide
ĠS ER
Ġconcentr ations
Ġcar ries
ĠAg reement
CO M
Ġgo og
Observ able
ĠJ enn
Ġswitch ing
ĠB io
no frame
v ard
ĠS equ
Th reshold
olog ists
55 5
raise box
Ġintegr ity
Ang le
ele ton
ev ing
" }
âĢ ¯
F ace
al go
Ġstructure d
or able
n atural
ĠP erm
Ġdifferent ly
Ġpred icate
class ical
Ġtro ops
diag onal
Ġcoun sel
W W
z ym
L ife
Ġgr ateful
Ġdo ors
u ating
ĠEnt ity
F ire
ĠH um
hom ogeneous
Ġin ert
qu is
ur istic
Ġk w
Ġaver aging
Ġspirit ual
h ill
iss a
Ã© s
F RAME
light s
ĠPh D
ĠB ureau
Ġocc as
Ġfant asy
ar o
ĠO ak
Ġb ol
Im ages
Ġneur ons
Ġm art
Ġdi ab
pack ages
ĠGener ate
H int
St e
Ġi OS
Ġenhance ment
ĠM rs
ĠR oy
Ġrep orter
y c
ĠE lection
pot ent
Ġcalcul ating
Im mutable
ĠCl inton
F ill
ĠEx amples
Ġanal yst
Ġg ates
Ġl ad
] }\
Ġapproxim ations
Ġsub graph
Beh avior
ex per
}= -
Ġsuff ering
Ġrobust ness
tim eline
Ġlic ensed
Mich ael
ĠRes erved
Ġleg it
æķ °
et ter
Ġarch ive
Ġdiv isor
Ġrem arks
Ġpre val
Check ed
Ġinstit ution
gtr sim
> .</
ĠL ater
per formance
Ġroad s
d td
te chn
v r
ĠKore an
Ġasymptot ically
ub a
Ġform ats
c amera
Ġl ambda
wit zer
+ "
] *
^{ *}
ĠV olume
ap ps
Ġselect ing
erm al
Th anks
Pr ice
13 8
U A
Ġa z
Dec oder
ov iet
ĠString Builder
H P
Dat aset
S al
ĠU SE
Ġc c
Ġgen re
ĠLeg al
Ġnon trivial
ĠM as
Rep ly
manif est
c ourse
NG TH
\\ [
ve ill
ĠL HC
Ġtransl ated
Ġr ub
ĠN orm
Ġdr ift
ĠC u
)} =\
Ġabs ent
Ġpl acement
ĠVis it
Ġmob ility
Ġsome how
v ance
ĠOrgan ization
Ass ign
Te ch
Ġreconstruct ed
f v
uth er
OPT ION
qu arters
Ġneg lect
Ġadd itive
Ġco res
serv let
google apis
bedd ed
F W
Ġdefin ite
Ġbre ast
Ġfit ness
Ġred und
Ġd ial
n pm
om ing
uck er
Ġcompan ion
P an
w ich
St yles
Ġinterview s
Ġpro c
ĠD ick
Ġeas tern
Br anch
Ġcharacter ize
: &
Ġdesign er
AR S
b v
13 6
Ġto gg
ĠF ixed
Ġweak er
R ay
Ġout break
inter action
Ġsynchron ized
o ft
å Ń
Ġst ub
19 67
R IGHT
Q A
Ġsaf ely
Listen ers
Ġo mitted
led g
s ized
è ¡
ĠT yp
ro it
Ġb unch
Mod ifier
MESS AGE
ĠN ich
m ys
)$ }
-------------------------------- ----------------
Ġdelay ed
() `
Ġdig it
separ ator
Ġleg s
Ġdec ode
e V
Ġra ising
Ġle tting
Ġinflu enced
iv ot
v n
ore l
c ookie
M ov
Ġsp ont
ol id
h uman
re ply
remove Class
back end
ĠDis play
+ {\
ĠR oom
ĠT ennessee
un es
ĠMov ie
Block s
Ex amples
ĠLe on
Ġocc urrence
W P
\ `
Ġillustr ates
^ *}
ex ist
set Text
Ġfore ver
à¤ ¾
ext ends
Pro b
Gate way
Ga ussian
MA IN
Ġfol ks
Ġconf ident
qu o
ĠG ree
)) =
ĠW eyl
( `
witzer land
ent a
Ġv oted
Ġl l
C ert
ĠSy d
Apr il
amazon aws
}} }}
Ġlimit ation
() ">
CL I
Ġs aving
Pop up
ĠP UBLIC
S cheduler
ĠF ive
Ġtrans ient
Ġequival ently
Ġdef ensive
Ġover whel
dom inant
Ġbranch ing
P adding
m ont
ĠK han
n able
im plementation
veill ance
=" {{
C ategories
ut ies
Ġca usal
Ġinter fer
Ġgrad ually
ĠInter est
ain ian
ĠCON DITION
pos al
ĠSe attle
Ġp ipe
Ġz ip
Ġ( {
Ġle x
! )
E urope
J une
Ġre start
ĠP ier
ĠSp ot
Ġe ating
Ġmot ivation
ct rl
. ";
draw able
16 9
TR A
C tx
d h
E p
Ġext inction
aceut ical
Ġrare ly
ĠS B
G l
ĠCo q
Ġappreci ate
Ġprem ium
merc ial
Ġult imate
M usic
work er
Component Model
Ġcoinc ide
li est
ĠS witch
ĠH old
Ġle ver
Ġatmos pheric
CON F
Ġlog o
Ġcompens ation
tok es
Ø ¯
Ġa uction
sche mas
Ġreput ation
ĠW E
}) ^{\
ĠT itle
Ġquant ization
ĠO t
Ġgl uon
ĠN ormal
Ġob lig
Par cel
i NdEx
Ġg aps
Ġs ou
Part s
Ġd inner
be at
T ON
Ġgr an
ĠFig s
Ġthink s
Ġfeel ings
ĠMem orial
ish ment
oun ters
ĠE ag
is cal
shall er
ern els
w so
12 9
x ymatrix
Ġst eep
Ġre fr
Ġed iting
d or
az ure
Ġle ak
Ġtransform s
Ġcr ack
Ġg raphics
Ġdifficult ies
Ã© e
' ):
tool bar
c odec
OT TOM
ING S
n x
ard o
est one
Ġp tr
Ġ" [
11 11
weight ed
}; \
Ġsummar ize
om ething
Ġn ations
cs v
Ġw eren
leg end
Ġgr pc
ÑĢ Ðµ
ag greg
String s
Ġrot ational
urs ive
Ġpres idential
F ast
re ng
Ġcomp ress
Ġcomp ound
ĠProt ocol
An notations
place holder
ĠG ET
M or
at ype
ĠM ET
m ill
Ġb io
ĠM eg
Ġstr at
Ġno isy
pag ination
param ref
Ġdiff ers
Ġam id
Ġback up
ĠF E
ĠD epend
ellig ent
k ish
erv es
\" {
tab les
Ġrout er
Ġvari ational
ĠH ung
Ġb ra
Ġsl ide
Ġsustain ability
i ating
ĠComput er
ym orph
ow ed
SER VER
pre vent
J O
over ride
m ak
Ġhospit als
we ets
be am
ĠI owa
SU PP
Ġobject ives
Ġbase ball
Ġpe ers
sw er
Ġmus cle
Ġcom ic
N ever
Ã ł
ĠTr ack
è ®
ors es
ay er
Ġmil k
L ite
S un
Me asure
Ġpass engers
ver ted
Ġ} (
net t
ust ed
Ġpolit icians
L com
in sp
ex tr
GB T
Ġregular ity
period ic
ĠE ST
Ġut ter
Ġpain ting
ĠH u
Ġperturb ative
tr ation
w ick
NR AS
ĠSt udio
Å ¾
Ġmes on
Ġencounter ed
ĠAtl anta
ĠPh arm
input s
Ġev olved
ĠH IV
{ |\
eq q
for ced
e ast
2 24
ĠS everal
Equal To
ag u
ĠObserv able
ir i
J ac
rb an
ĠD ave
ĠIn cre
ĠG arden
d ump
PROP ERT
Ġmem ories
Opt im
Ġt y
ĠH ope
Ġ( .
Ġbl ess
Ġl iber
la hom
r if
Ġlik ed
Ġsum s
ertific ates
G ui
IT H
S peed
Separ ator
L and
Ġdwar f
win ning
b ird
second s
Ġt one
Ġc able
ĠP as
Ġcon front
Sign al
Data Source
CD ATA
art z
Ġsp ots
Ġd ots
size of
Ġneutr inos
Ġweap on
Ġincorpor ated
Ġinvari ants
ĠF R
th reshold
---- -
umbn ail
ur ious
Ġportr ait
ĠD allas
}{ !
g al
ĠS av
---- --
ĠM R
Ġdo i
to kens
ig roup
Ġacqu ire
ĠO THER
PRE FIX
Ġdeploy ed
r ac
Ġrun ner
ĠAdv anced
ab ol
faster xml
Ġthem es
* (
{ }{
14 3
Ġl ung
Def ined
Ġpush ing
Ġb lob
LA S
W ORK
ĠA z
st ub
E O
ĠTe V
U ntil
Ð¸ ÑĤ
ather ine
seud o
ĠMar vel
pie ce
less ly
Ġtr aces
Rece ive
reed y
ach i
io let
Part icip
ĠB us
Ġcal ibr
Ġem otion
Ġvort ex
Ġeng ines
ĠArg ent
ĠB egin
Al ign
Ġref uge
13 7
Ġdram atic
Ġgre y
AUT H
) },\
Ġconc aten
ãģ ®
ĠCONDITION S
Ġmass less
Ġs el
stro ke
Ġ======= =
em ed
N U
ynt hetic
Ġthreat s
ĠK ind
Ġmod elling
lic t
Ġwalk s
Ġaccompan ied
ĠS cript
) )$,
16 5
Ġcompet e
ĠImp act
ion ic
Ġc rop
ĠL ipschitz
! =
ĠParamet er
Ġapproxim ated
ĠRequ ired
ĠN A
Ġt act
| }{\
I EEE
Ġb orrow
P ars
}) }{
Ġplan es
Ġpublic ations
Ġan onymous
q a
Ġshort ly
sat z
idel ity
ops is
Ġdestr uction
ism atch
ĠPrem ier
per mission
S heet
Ġb undles
Ġpres cription
ĠAlli ance
ĠBow l
i ar
ir ty
Ġtr ap
at im
ro d
Ġkit chen
t ick
Î ·
o j
elect ron
is ol
Ġ(! (
A ud
ĠB esides
Ġencour aged
Ġb oss
d dot
Ġcar rier
Ġlaw yer
Ġle ts
ĠM s
Ġs lic
el ve
19 65
Gener ate
ĠPack age
Ġcor ners
W M
Ġinvest ments
ĠT F
C MD
ic ul
lem an
ĠL anka
D MA
ole cular
Cal led
J o
ia h
d w
st mt
Ġ um
ĠCollection s
ĠT ogether
Ġbuild s
g ui
std err
orient ed
ink ing
non atomic
TO OL
Ġaccess ed
Ġc aut
ĠA x
Ġextr apol
Tra its
ĠMc K
ĠMal ays
a is
V s
Ġbut tons
Ñ ħ
Ġwin ners
Ġ' ')
ĠCon tainer
Ġphilosoph y
Ġgr ants
Ġcomb inator
af ka
Ġb read
add EventListener
Ġrepresent atives
aw t
bour ne
Â »
Ġlat ency
Ġincor porate
Ġtr ains
Br idge
m art
i ang
Ġn ut
Ġz eros
Ġimm un
ĠSO FTWARE
Ġconsc ious
Ġrank s
inv oke
ĠBAS IS
Ġco operation
20 8
ph ones
Ġtack le
S ources
j ud
19 64
ĠSh are
Ġliter ally
olv ement
BU ILD
Ġadv is
ĠDel hi
V IEW
ĠN az
ĠJew s
ot er
ous el
itar ian
ĠCon st
U UID
Ġcl ot
Ġbr illiant
ol ph
] </
s il
nap shots
upload s
Ġex clusively
Ġpers istent
ĠCle arly
Ġst uck
ĠS port
R outer
cor r
ĠPh ase
semb les
) ?
L ang
INST ANCE
Ð¾ ÑĢ
algorithm ic
0 10
Ġmem brane
ĠMary land
Ġepoch s
utr ition
am an
render er
ĠM ars
an ies
ĠSt yle
ov en
Ġsqu ared
b usiness
ĠM un
ĠSt age
Ġvis cosity
f av
l vert
ab bit
help ers
lahom a
Ġp ione
Ġe V
Ġcap s
Ġfant astic
19 40
Ġac oustic
is Array
Ġsim ulate
ig ious
Ġ" ;
Ġconf usion
oc hem
o ys
Ġpass age
Ġclub s
Ġpropos als
K eep
C AP
pl iers
G it
im ir
ĠSt ories
m ot
Ġin cent
Ġrig id
iph eral
ĠR M
ache l
serial ize
Pers istent
Ġupd ating
Ġcompar isons
Ġsoph istic
Ġcontribut ing
Ġs ig
N il
Ġbroad er
r as
ĠS K
ĠS TR
m ms
Ġsear ches
subs cription
Ġcancell ation
er k
Ġ á
ĠSyd ney
L ONG
Ġprefer ences
// ----------------------------------------------------------------
Ġun changed
z i
( $\
Cl aim
ç »
19 20
19 30
Ġmor al
ho enix
Ġdesc end
Ġinsp iration
G old
Ġcontext s
hash Code
)} }\
ĠCommun ications
G erm
im ag
ĠSet tings
gle w
Ġret ired
build ing
ĠWe bsite
up les
oss ible
<? >
m akers
ĠMot or
ĠLear n
Will iam
Ġent itled
P icker
ag ation
Ġsup plies
Ġad option
oth ers
const ants
Ġcall er
Pr imitive
Ġax es
2 60
Ġoff ense
Ġemit ted
ric ulum
if est
ĠPos ition
Ð ±
Cl ip
Comple ted
o il
id ays
ĠPl ant
Ġsynd rome
G W
Ġconsider ably
------------ -
Ġ\| _{
mark er
Ġp uzz
CON ST
ĠBel g
PA SS
Ġturbul ence
Ġte a
Con version
LO AT
Ġhyp ers
look ing
Ġev olve
Ġif f
Ġs event
o i
Ġg ent
ing ers
}} ^\
Pay load
Ġf atal
Ġpat ent
Ġspe akers
b os
el ing
Ġstreng then
Ġiniti atives
ĠB ra
ĠN ic
Ġar ithmetic
Ġperson ally
M AC
ev olution
Ġexperiment ally
)$ )
Ġcont our
ĠR ES
ud son
Ag ain
, +
T ip
M icro
em ies
Ġinvestig ations
Cred entials
ĠSym fony
Ph ot
Ġpreserv es
Me V
Ġconstit ut
ipp et
R ank
is an
reg ex
Ġre try
Ġnucle us
[ ];
man aged
Ġapp endix
Ġstrength s
Ġscr atch
ĠS ustain
stat smodels
ot ypes
ĠÃ ł
Pro c
E OF
Ġâ Ĥ¬
ĠSchool s
cell color
Ġprepar ing
Ġpy thon
az el
Ġfactor ization
ĠDo ctor
Ġul tra
ĠInd ones
Ġutil ized
J ames
ĠUS B
Ġoccur ring
col n
Ġmeas urable
sl f
dir name
Ġdeterm inant
Meta Data
J ack
ing e
oc a
xi ety
Con clusions
xim ity
ĠTerm s
ĠN ob
ĠAut om
^* ,
Ġseed s
b idden
Ġres ident
Det ector
d og
Ġph rase
Ġoper ates
ĠD ist
Ġco in
miss ing
Ġmulti plic
Ġden om
ĠStr ucture
stream ing
LIN K
og a
has OwnProperty
ĠTra il
g mail
erv ing
Ġexam ination
Ġafford able
Ġimplement ations
as ant
Ġar rows
Ġg ang
Ġbos ons
Ġto wer
Ġrepeated ly
Ġtun ing
ĠNO TE
ache lor
Ġbe er
Ġan th
dis c
Ġ$ ('#
ul ates
Str ip
transp arent
ĠCh ap
dem o
ĠYou th
P a
F oo
Ġhop ing
Ġmusic ians
b ass
E LEMENT
Ġdr ives
grad uate
id o
){ $
Ġdefe at
l brace
F at
Ġamong st
Ġautom ated
Ġm oon
Mag ick
Ġrenormal ization
g ue
Ġmot iv
FFFF FF
ĠG ab
Ġrespond ed
Ġindu ce
20 4
Ġv it
Ġexplo it
Ġh ang
_{ |
ĠInter face
ĠR ele
Ġin qu
Ġ= &
ĠM and
ĠG all
}, $
Ġcoher ence
ĠS EC
ari ant
IT S
Ġpopular ity
br anes
D imension
"> @
T ax
ĠInst all
ĠA F
z ed
ĠÐ ¾
t ake
Ġ\\ \
Oct ober
ĠR C
ĠS ect
ĠY uk
under brace
ĠS ho
" ])
ĠB ible
Ï Ĥ
ul pt
Ġres ist
sub str
T s
De cember
Ġpreserv ing
LE NGTH
ĠL IC
ĠV i
ĠExt ension
n ie
ĠC oulomb
ch rome
pro f
loc als
AS C
Ġhouse holds
Con figure
Ġview ing
ĠP D
w estern
ath ers
Ġscript s
ĠN V
H idden
ĠĠĠĠĠĠĠĠĠĠĠĠĠĠĠĠĠĠĠĠĠĠĠĠĠĠĠĠĠĠĠĠ ĠĠĠĠĠĠĠĠĠĠ
au er
ig a
M X
Vis itor
l attice
Ġdistingu ished
ĠG er
sm art
Ġac ute
ĠWith in
Ġru led
the ir
Ġin ches
s leep
ĠI MP
Ġthere in
Aug ust
ĠV ert
Ġl azy
19 66
B as
Ġdocument ary
e o
Ġlog s
Ġreli ability
integ ration
d al
open api
b eq
ple t
2 80
ogen ic
Ġre serve
Ġ' $
Ġexpect s
Ġphot ometric
Part y
/ #
Ġ\ '
Ġagre ements
verb atim
ĠIndian a
J uly
grad le
ra ig
bas is
S ink
Ġsh rink
En code
-- \
Ġdescript ions
Ġcomple teness
Ġfranch ise
Ġch amber
sw ap
Add itional
* .
Ġher itage
Ġentr ance
F IN
vers ions
é Ģ
Ġa stro
ĠL am
Ġabund ances
her ence
with in
ĠEd ge
ĠA UT
RET URN
ĠIn novation
? }
| ,
Ġj u
Ġgl ad
L ie
A W
E arly
J s
In clude
fin ity
Ġport s
Ġsub tle
Al ignment
ĠF ed
N OS
ĠR PC
). $
ĠHol y
Ġ[ âĢ¦]
Ġinfr ared
IC K
get Key
l it
sur ance
Ġcampaign s
}\, ,
ĠB alt
Ġvirt ually
est ab
Ġad missible
De ployment
ron es
ĠS to
ĠCon tract
Ġaccess key
ĠH ER
ct ree
ĠWalk er
Ġle verage
col ors
Ġb onds
ĠW y
Ġref used
claim ed
ce q
develop er
Ġachiev ing
O s
Ġt ube
mod ifier
Ġp sy
Al tern
Un mar
acknow ledg
Ġpublish ing
ĠIn it
m icrosoft
ĠR L
Ġw x
â Ĩ
ĠF M
sh aped
Ġmulti plicity
Ġimm une
Ġplan ar
C ountry
r w
T ables
Ġarbitr arily
P V
con c
S il
ular ity
Q t
ĠPh ill
ĠEm ploy
ĠIsra eli
in ite
Ġl oud
P ages
Th ank
Add ed
spect rum
ĠUn ivers
Ġcancell ationToken
ĉĉĉĉĉĉĉĉ ĉĉĉĉ
CA SE
Ġk ernels
ĠE lectric
Ġtrans mitted
Ġco ord
equ ilibrium
ĠL ocation
Ġtreat ments
ĠNot es
ĠP ear
Z end
a ac
Ġsm ile
TO P
Ġfor got
ĠF ant
Ġ# #
AME TER
Ġrecurs ive
Vis it
Ġe cc
Ġrele vance
V EL
t cp
Ġre lying
} '$
an imate
Ġarchitect ures
S printf
Ġcontain ers
post s
ĠL oc
U int
Ġconstruct ing
Ġbg color
Ġt ub
Fix ture
Ġdi pl
n as
- }
M LE
Ġc fg
C amp
Art ifact
Ġc s
Ġemerg ed
Ġmount ed
M ajor
ĠComput e
in ery
plic ial
Write Line
ĠB udd
ĠN ev
vent ory
Ph il
ĠEn try
Ġr s
ock ets
un its
The lia
fail ure
Ġaccomp any
ĠD ays
Ġa xi
ĠR ank
Allow ed
i ere
M IT
Ġvacc ination
ĠPri ze
em a
h n
pars ed
Ġ[ (
Dest ination
Ġcer emony
CHAN NEL
Ġt rem
1 2022
ig g
ĠC hat
al one
orient ation
eval uate
Ġstr uck
Ġv ocal
Ġell ip
-> ]
Ġbro thers
Sim ilar
S IGN
Oper and
:: $
ob i
if rame
33 3
MS G
}} -\
Ġmaxim ize
{- }
Ġmill is
ĠStat ement
he art
Ġdream s
Ġcomput ers
ĠM ut
15 4
Ġtri angles
S ocial
f ers
Ġc ul
Ġold est
Ġopin ions
ĠD al
h int
Ġform ulated
Ġc url
ation ally
ĠChar acter
ey er
ĠR F
ĠS olutions
hy dro
ĠUn like
c uda
ĠPl anning
Ġimm igr
w al
che stra
Ġcovari ant
ic acy
ĠH it
Ġevolution ary
AC HE
Ġex tern
hy thm
D onald
Ġre nd
g auge
Ġkey board
0000 000
ser ting
Fil ters
Ġviol ent
ĠSwed en
Ġlux ury
Te am
Ġdo ctors
ĠViet nam
Ġpo etry
S am
rol led
ĠAl abama
ĠVal ues
Ġun lock
nu cle
ge on
Ġb es
at ially
Ġm im
A rm
Ġan notations
Ġact ively
A ir
× Ķ
ch annels
Ġball s
Ġthermod ynamic
ĠSub s
Ġmort ality
Pay ment
om ed
c py
Î »
l on
Ph aser
TEXT URE
r n
Ġ æ
Ġval ued
ĠN BA
ch ing
Ñ İ
ĠI de
Ġeng aging
Ġcontribut es
C hen
Ġpol es
Ġresid ential
sc ene
Typ ed
Ch apter
Back up
} "/>
00 4
p romise
EN C
Ġless ons
Ġle pton
Ġst y
ter rit
out heast
Ġanisot ropy
ĠM ort
ĠRev olution
ĠF i
Ġinsp ection
H a
ĠĠĠĠĠĠĠĠ čĊ
Ġout lined
Ġsup pression
Ġad equate
Ġsat ur
ĠMiss ouri
Ġwarn ings
Ġdist ant
Ġgather ed
ĠCond ition
Ġr am
C odes
E nergy
g m
), \\
Ġre ven
Ġqu oted
Cl os
ah n
i u
ĠC ould
Ġ$\ |\
Ġr m
Ġhar vest
B a
at z
Conf irm
Part ial
aa aa
ĠIslam ic
numer ic
Ġ' </
Ġpreced ing
M NRAS
U TE
Ġarrang ement
Ġdesign ated
p read
Cap acity
Pro blem
}}{ (
Ġtravel ing
Ġden ied
ENT S
Ġsubgroup s
ĠF ILE
ĠSp irit
the ore
ĠMon ey
ĠClin ical
neut ral
As sum
Ġun e
integ r
cess ion
13 3
ĠU P
Ġag enda
Ġtext s
Ġground s
own ed
c rit
Ġto w
Ġscre ens
ĠPro file
assum ption
ia o
15 2
Ġsuff ix
Ġm ales
ĠRead ing
S ender
Enc oder
Ġconvers ations
B rit
ĠG as
A ustral
Ġc razy
l iteral
Ġsuggest ions
HO ST
BO O
ĠP T
window s
at ers
Ġg ear
pl ant
sec ure
mark s
ĠA zure
re nd
pend icular
7 50
Ġsc ulpt
Ġc ock
T i
Ġl oves
ick ing
ĠR ole
r brace
Wh ich
Ġsem antics
C are
Ġend points
Ġdec ou
Ġneg lected
Ġh ip
Ġout door
C over
ĠM ach
art icles
mark et
ĠTem ple
V S
C hat
Ġb ull
ĠG ram
ĠMat thew
ĠL ang
phys ics
k ar
road cast
Ġann iversary
Ġon set
ĠTH IS
ĠRes et
am ine
ĠS ide
ĠMar ia
Ġf uck
Ġinf ected
ĠM T
TE GER
Te chn
D ao
ich let
ĠC K
ĠM ission
vis ual
ĠDise ase
g un
ĠMean while
ĠIss ue
Ġb il
Trans lation
ĠB h
ear ly
ipart ite
MA G
Ġmet ers
k now
colon eqq
Ġsett led
Ġexp ans
ĠStr ategy
15 7
Ġemphas ize
ĠB arn
pe er
geq slant
Ġfre ely
ĠB ron
Ġintegr able
Ġadministr ative
Ġv ec
Vari ant
ĠE uro
Ġrel ay
LE N
Ġcompet ing
Ġexcit ations
ĠL iving
Ġgovern ed
plic a
Ġcapt ures
Ġ" ./
ben ch
Ġdec oding
H W
Ref resh
ens en
Ġ. /
13 9
Ġpredict ive
Pl ot
Ġaffect ing
Ġdep ression
ĠValid ate
Ġrout ing
ĠP ap
. ).
F ROM
m ates
Ġp ow
ĠLabor atory
Ġs ust
Ġc ensus
Ġr uling
Ġfl ip
Q R
ĠB L
ĠPol and
ield s
Ġsup porters
Ġsign atures
Ġdefe ated
ĠAdd itional
Ġap artment
D i
Ġ" --
Ġtalk ed
B ag
Ġ/ ></
ific ant
ed ges
Ġprodu cers
Ġd w
ren a
dim en
Ġint ellectual
ĠD ur
go al
r p
end region
Ġminim izing
Ġunivers ities
Ġc ognitive
ĠT i
ym ph
Ġpri ze
CP U
rows ers
Ġparticip ating
Ġbirth day
ĠNe uro
| }\
Ġm ice
ool s
ol en
ĠWork s
Ġg ay
ĠM organ
Ġcyl ind
dec or
ch anging
Ġx si
cast le
Ġstat istically
ĠScott ish
att ices
st ory
j an
ĠPer haps
ĠL arge
NotFound Exception
s burg
ĠE R
Ġsp iral
le ad
ev a
Ġben ch
Ġd ating
fil er
Ġjournal ist
Ġal i
Inst ances
ĠD ifferent
Ġpack ed
Rel ation
Ġwe ird
}: \
ĠHer itage
Ġanim ated
DO WN
Ġwarr ant
Ġhead ed
I J
ĠS yn
On line
Vert ical
ĠSte el
r ceil
å ľ
Ġaddress ing
Ġ< ?
ĠH ans
ep age
ĠPhilipp ines
N F
13 1
Ġp ad
Ġf est
ac ht
Ġconserv ed
Ġp ip
le ave
Ġimportant ly
Ġemploy er
ĠModel s
ethe less
Ġ Ø§
Ġper pendicular
ĠBe ing
ĠCon structor
St ates
Ġinv olvement
define Property
CL U
ig o
Ġwind s
rint f
\ @
in th
g ency
oc he
ĠZ e
Th rows
Ã ĥ
Ñ Ī
ĠCh ern
Ġfra ctions
ĠB ull
check mark
Ġp as
Ġpl ates
ah ler
;& #
)- (
to o
Ġpol ymer
ol k
ent o
ĠT aking
2 64
rest ore
Ġun w
Ġrandom ized
power ed
Dis cussion
Ġrecommend ation
ĠT err
Ex cel
ĠG A
DE LETE
m ate
Ġa ster
act ing
c rum
ev t
( (\
Ġbr acket
Key word
ĠCa uchy
om p
âĢ ħ
ĠN ik
Ġres il
PI O
Ġwh ilst
Ġdes per
^* _{
}$ &
territ ory
fin ish
Ġs cheduler
ĠThe ore
At trib
Ġsequ ential
; %
Ġin set
small matrix
I BU
w x
Ġadmin ister
> -
Ġh ub
ĠJ oin
ĠInt el
ĠE mail
Ġhand lers
Vis ibility
[ <
M ot
ou ver
)) ^
}= -\
Ġmot ions
Ġincred ibly
Ġ(! $
Ġconv ey
Ġburn ing
Ġo c
anc ies
. ),
ĠAn ne
j q
i ov
Ġ/ ><
PO INT
Ġecc entric
spec ified
on z
ĠB uff
it ol
ĠWIT H
Ġsp acing
ĠCast le
}) +
Ġf ed
ch arts
ov ld
ĠS oviet
Ġle an
Ġvoc als
Ø ª
Ġel abor
/ ******/
l ists
Ġroll ing
Ġin struct
Ġneighb oring
20 5
col ogy
ĠRiemann ian
Ġg fx
Ġr ib
ĠPhil ip
im ore
IL TER
U X
am ous
)$ ;
text area
ograph ical
Check er
P ACK
Ġsch ol
sub Nav
Ġc umulative
ĠR s
). \
resh olds
tensor flow
Ġprogress ive
Eval uation
ic ut
but tons
Ġdis contin
Ġsurround ed
RE AM
Ġexceed s
CT RL
Nov ember
)} ]
ele g
Ġdirect ive
Ġ) {
ĠM ode
Ġfem ales
ĠVill age
3 30
Equ ation
Ġj unction
ĠSt ew
ĠRE AD
ĠF loat
å Ľ
Ġc ited
ĠCap tain
Ġisol ation
m achine
ĠB eck
Y P
Ġinfl amm
Ġmyst ery
dec ay
L if
cent ral
bo y
ĠIn fo
the o
Th an
D s
el m
ĠHow ard
Ġext ensively
ogn ition
ĠG round
Ġcyl inder
Ġh ierarchical
ĠCol lect
ĠFor um
Ġcelebr ated
rient ation
ĠT ypes
Ġcol ored
ĠM ind
act iv
abs olute
ocol ate
ts burgh
Ġt ar
J ul
Ġtoler ance
Ġchem istry
con tr
N ested
ogene ity
Ġc hest
ĠT esla
Ġwarm ing
ĠL ane
Ġanomal ous
y aml
Per formance
E t
ĠAr k
Ġwed ding
I o
Ġin ev
Ġindex ed
Ġad verse
str ategy
Over flow
ĠV M
ĠJon athan
Ġdemocr acy
H ide
al gebras
Author ization
Event Handler
Ġfix ing
Ġa fr
ug by
Ġdimension less
Ġt orsion
comp ass
ĠAd ams
Ġdis aster
* {\
Ġtum or
Initial ize
hip s
Ġpredict s
Ġpair wise
prob ability
14 6
all ing
orm s
ref ox
oot strap
Ð¾Ð ´
Ġj un
He ap
load s
Ã§ Ã£o
ext ype
ĠS ample
Ġ& -
Fil ename
te le
ous ing
Ġadvert is
Vari ables
ĠPr imary
ĠV iol
Ġmod ulation
Ġfrag ments
Ġend l
_{\ {
ĠCo oper
Ġconvolution al
Im plementation
IN PUT
apol is
con e
Ġple asure
ãĢĤ </
ĠP ast
ous es
bar a
ĠPlan ck
" </
ĠR ain
co eff
ĠM ilitary
eta iled
ĠStr uct
âĢĿ )
az a
C lock
] }$
lin ing
ĠMag ic
ĠOper ations
Map s
ï ¬
B in
Rec ords
ĠRuss ell
se ek
Ġslow er
Ġrac ial
Se ptember
ĠOlymp ic
Ġsk etch
l ceil
Ġp ill
ĠF ollow
ĠR ub
hel le
h c
Ġpres um
Ġ{ (
ol o
ĠUkr ainian
ĠDu ke
pos er
Ġtens ors
T LS
Ġmon omial
==== =
Direct ive
ĠChrist opher
av g
ĠD ak
Ġt ie
respons ive
Ġdis orders
DI RECT
ĠCons ult
Ġautore st
Î ¼
ĠO wn
Ex ec
em p
ex tract
ex clude
Ġad apter
Ġt idal
ĠG ov
d yn
C NN
ĠSing h
ĠLIC ENSE
m ir
Ġsp ars
36 5
Ġtrust ed
Ġmist ake
Thread ing
ĠĠĠĠĠĠĠĠĠĠĠĠĠĠĠĠĠĠĠĠĠĠĠĠĠĠĠĠĠĠĠĠ ĠĠĠĠĠĠĠĠĠĠĠĠ
vari ance
Ġion ization
fit ting
Ġretri eved
ĠH ills
y ellow
Ġ Å
Ġcontroll ing
a ire
dot ted
> /
Ã¡ n
ĠCON FIG
Dis patcher
Ġ[ #
ĠI ce
ynam ical
Ġbenef icial
ĠS ay
ĠB uck
Fore ign
Ġmole cule
Reg ex
ãĥ ¼
integ ral
}$ \\
ĠH aving
× ª
Ġ utils
no align
Ġlong est
l ishes
Ġident ifies
Ġvolunte ers
Ġn ick
ĠS creen
get Text
Ġper ception
Ġterm in
00 7
Type Name
MP TY
Ã ¥
em et
Ġrev ision
M iddle
ĠLe ave
ĠInt elligence
ĠAssum ption
ĠW el
Ġor al
Ġdown stream
Ġmagn itudes
Ġaltern ate
uls ion
[ ],
IC S
Ġbackground s
Ġprom oting
ĠH ell
R D
Ġcon gr
scal ing
ent ropy
Ġinf ections
@{ }}
Ġappoint ment
D u
Ġdr um
Ġres ort
enc oder
Ġz ones
) _\
Ġcounter part
dec oration
amilton ian
Ġhit ting
Ġdistribut e
Read Only
other apy
ĠMay or
n or
ink s
conf irm
ict ions
Emit ter
Ġdef ect
Des cribe
ail and
Ġconj unction
qu er
Ġreg imes
Ġo mit
Ġv e
Ġdrink ing
other wise
Ġspeed s
ĠIP v
multip ut
Ġvis itor
ci pl
Ġsql ite
equival ent
CON NE
Ġpre t
j j
inter faces
ILE D
Ġinvert ible
v d
Ġanalyz ing
log ic
Ġestim ating
Rad io
ĠB loom
Ġdoll ar
math rel
Pol y
ĠF ried
c url
Ġpurs ue
Ġp overty
ss on
Ġco arse
Ġestablish ing
k es
ĠB rowser
Ġfl ush
ur face
App endix
S el
ĠIN T
id ad
c z
re ject
Ġ! !
Un able
ĠTr ad
Ġblock ing
Comp ilation
Ġf ishing
{ })
Ġcomp ounds
Ġres cal
Ġdat etime
ĠRe ce
Ġple ased
p ix
s an
ator ial
ĠW ard
su ite
Ġl ands
Ġent ers
L uc
ĠF red
Ġsee ks
Ġcent uries
ĠThom pson
P en
in ian
up id
ĠH ero
ern ate
can onical
^+ _
Ass ignment
ĠN AT
Q CD
Ġdiff e
Ġsophistic ated
ip ients
ig s
ri el
$ ~\
b ank
Ġb ot
H orizontal
Ġpolar ized
u ates
\ ).
Ġr ival
chi at
h it
to ctree
ex c
Ġicon ic
Ind ices
15 00
Ġal arm
Ind icator
Ġcritic ism
Â Ń
Ġintr ig
Â ±
} ],
Ġex terior
Ġevery day
ĠSet ting
G Hz
E lem
Ġnormal ize
copy right
Cal cul
Ġrob ots
ĠTechn ologies
Ġd jango
Ġsub stance
ac ular
Mod al
Ġbary on
g d
Cre ation
Ġattempt ing
P K
Ġsequ el
') ).
}\, .
ĠDe an
ĠÃ ¢
IS H
ides pread
al ways
2 11
Ġin version
Ġaltern atives
ĠPolit ics
}\ |_{
ĠRes erve
Ġinc idence
Ġuniqu eness
ĠRem arks
g as
Ġo w
.&.& .&.&
ĠBer k
ple te
ĠT ensor
Ġle pt
ob tained
W O
c atalog
v b
max imum
Ġl unch
> ';
ac ian
Ġpart ly
Ġorgan isation
ID S
Ġhost ing
SD K
Ġl iv
ĠInd ependent
Ġcr imes
Ġpass ive
C ut
Ġassess ed
Ġdel iber
Ġsw ap
^^ ^^
Ġt une
ĠJ ess
depend ence
ĠV ery
Mod ules
O ps
d ed
ĠR GB
Ġpack ets
s ender
Ġd ad
ĠB lood
Ġtogg le
ĠQ ual
IP S
Custom er
v dash
Ġun clear
in ion
Ġel der
ĠC over
Ġturbul ent
Ġland ing
Ġhard ly
ĠR isk
ĠA str
\% ,
Germ any
im plies
ext ended
Ġ" +
Ġtown s
IC AL
K e
lick r
Contin ue
Ġl oyal
Ġtr apped
Ġrefer ring
Ġl ake
yst er
ĠMar ine
ĠP ART
Are Equal
ĠG ray
Ġprom ises
Ġa fore
ER Y
comm ands
Ġprom otion
ĠP apers
}$ ~
ĠP I
By Name
TR ACT
v ac
Ġfail ures
product s
av al
se ver
Ġv ic
or ption
Ġcap ac
Ġen orm
awa ii
Ġsub mission
Ġinvestig ating
Ġtom orrow
add itional
eff ects
Ġinject ive
ĠF riend
ĠR ober
W ang
Ġdiscuss ing
ĠKent ucky
dat as
Ġ"- //
Ġkn ot
Ġdistrict s
s napshot
ig rate
Ġpat ches
="# "
Ġsix th
Work flow
n io
x t
ĠAfghan istan
br acket
Ġpass enger
Ġ( );
Ġrep o
Ġanaly tics
Ġcross ed
R obert
ĠS witzerland
Ġ" :
.\ ]
Ġdead line
ct l
Ġcoupl es
' ^
16 6
Res olve
Ġengine er
Inv oke
Ġtri b
Ġf d
ign er
ÐµÐ½ Ð¸
ĠS audi
eral d
Ġun safe
Ġemphas is
}} %
Stack Trace
Ġneighbour hood
Ġd owntown
amb ig
inc ar
uck ets
Ġodd s
sup ers
inner HTML
Log ging
Ġpublish er
19 45
harm onic
Ġcomplement ary
4 000
Ġrecru it
Ġsing ing
ĠR S
an ia
M vc
Ġg uns
osc ow
yst al
30 4
STAT IC
uk i
ĠV AR
ĠM ove
Ġcon form
Ġmain stream
(" <
ash ing
ros so
14 2
> )</
pro port
Instance Of
ĠD elta
sup set
UN K
ĠArch ives
at ility
Ġspeak s
Ġamb ient
Pred icate
Ġcontact s
Ġdiscrim ination
ĠA BC
Ġshall ow
4 80
ĠG Hz
uct ive
capt ure
ĠS el
Ġhom ology
ĠF ramework
Ġhuman ity
Ġpropag ator
Ex per
Ġswe ep
Ġ( <
' /
ĠMat hemat
IBU TE
P b
D X
Ġcell ular
Ġcollect ing
ĠCre ated
R eq
ĠD ATA
}} ;
Ġaccording ly
im uth
Ġemot ions
x f
Ġmorphism s
Ġbon us
Cor ollary
be zier
WARN ING
la h
Ġbur den
ĠComple x
14 9
Ġship ping
Ġfore ground
Ġback end
Fr ont
beh avior
vis ibility
^+ (
Art icle
20 3
hand ed
F G
Ġnot ations
roll ers
Ġ$ ^
T aking
ĠF T
ä¸ Ń
M argin
Ġt il
Ġob s
ud o
Ġoscill ator
ĠU tah
con straints
Ġcred its
ĠP attern
ĠC hel
Ġscatter ed
)\ |_{
Ġreal m
A IN
Ġed ited
pan ic
H ist
+ -
Ã ¸
Ġestablish ment
ak ov
Ġkey word
UT C
Ġiter ative
ĠFact ory
id ges
ĠOk lahoma
à ¦
o ct
Ġgu ilty
ĠG ate
Ġdep recated
Ġm ile
ĠTok yo
Ġcon sequently
Ġk pc
* >
Ġunder go
s ymmetry
ond a
anc ouver
cur r
ex istence
Ġcor ruption
Å Ĥ
ĠB OTTOM
observ ed
Ġclot hes
Ġgeneral ize
Head ing
D U
Ġm k
Ð¾Ð ¼
Ġrender er
Ġbare ly
N M
Con struct
m ixed
Ġvo ices
19 5
ian ces
Ġsub stitute
ed a
ĠFe atures
L ab
y outube
Ġtarget ing
Ġprom oted
Ġreason ably
Ġcomp ressed
ĠB etween
{ #
oper ations
R en
Ġg ri
Ġb is
ĠZ one
] _{\
\, $
Ġpre vention
Ġsup ervised
w br
LI B
ĠN P
Ġch ances
p oll
b age
Ġre written
Ġoff line
Comput e
Ġpl ugins
19 63
Ġb orders
Ġj e
iver pool
C AL
Ġinject ed
wik imedia
l uc
io x
15 8
ĠFish er
D ER
is i
ĠG ordon
Ġshel ter
Ġshould er
UP DATE
Java Script
L iving
log ical
Ġb ills
M en
ĠM enu
Ġarm ed
ĠAg ent
s uggest
Ap ple
ĠChair man
Rec ent
ad joint
'' $
pt s
ur u
ur ches
ho o
ir ts
ĠP ick
OD Y
>() </
K nown
Ġafore mentioned
IS O
pi res
ro se
Ġt ort
Ġblock ed
Ġtrunc ated
l ag
Ġr ap
âĸĪ âĸĪ
H aving
="@ +
y our
it ations
ĠJ oh
B ur
ĠB ird
Ġactiv ated
14 8
ĠLaw rence
ĠTem plate
sc ss
18 5
Ġret irement
v iol
. ][]{
ĠAt omic
Ġportr ay
B ay
Ġaggreg ation
ĠPer iod
Ġmin us
Ġlib eral
Ġarr anged
Ġprob abilistic
Ġconduct ivity
H ex
Ġatt itude
Ġt ale
Ġvol atile
Ġcre am
Ap pro
Tag Name
Ġbin aries
ĠS peed
Ġ/** <
Ġj uris
Ġsol ver
In jection
Ġdeliver ing
L aw
ĠD rop
ĠL GBT
19 62
T ITLE
as ym
ĠRef s
Ġe mails
Ġbar riers
Ġmanufact urers
n othing
Ġ Ã©
ĠValue Error
f re
Ġp ion
Ġg olf
D ot
Ġin h
'' '
ik h
ĠSw ift
ĠS ale
Ġsat uration
get Property
Ġnews letter
W ar
Ġrefer enced
Suppress Warnings
Ġt ropical
f red
s elling
Ġpr icing
H F
S ing
Ġclean up
lo ating
? </
B etween
N s
down s
Ġexplos ion
V V
ĠLin coln
Ġtr act
ĠOlymp ics
Ġl uck
ĠM uch
row Color
ffff ff
sh own
H o
Ġrail way
c ook
ĠBr un
ai ro
d id
Ġp ra
ĠAr thur
us hes
ĠJud ge
H it
Ġillustr ation
Ġg a
ĠBe aut
IF Y
' }),
I FT
View s
T oggle
Ġ\ %
ol as
Ġreported ly
our t
pr ises
chan ical
ha us
ĠWrit ing
Abs olute
ĠU til
ĠB ond
o S
Ġnav igate
Ġs ugar
col og
assert False
Ġsl ots
ĠT ar
c amp
2 12
EN S
append ix
M id
he els
or o
Ġsusp ended
(" -
mes h
pre ced
Ġred shifts
Ġw idespread
ĠFig ures
Ġcomb ines
or ce
ĠI ron
Rev ision
ĠLead ership
Te X
Ġoccup ation
L ev
ĠD NS
St ation
Ġ} ));
14 1
ĠCre ative
ĠAng el
Ġf ram
ĠSt ack
Ġaddition ally
Ù ĩ
Get String
HAND LE
|\ ,
Ġm ilit
ĠOpt im
hook rightarrow
Ġcallback s
Operation Exception
ĠR ate
ENT ER
pl ots
Debug ger
y ll
ĠH ug
Ġlight ing
h ort
ĠSet up
Perm issions
RO P
G overn
oc c
Ġboot strap
="# ">
Ġm ad
Rece iver
Ġsp atially
Ġdes ert
R ound
Ġfail ing
FLA GS
ĠRem ote
ĠT am
ĠW R
., ][]{
Ġiter ate
ĠW IN
Ġdat abases
ĠCO MP
iff s
Ġ ].
, $$
b ie
ĠIn surance
u ator
he im
In her
or ters
ram a
ar ab
L U
Ġexp enses
Ġpre view
ill ation
Ġenc rypted
CC CC
Ġinflu ences
ar ations
oc o
ĠCy ber
- ">
ĠCr ime
Ġe leg
ĠP NG
Ġdis pers
ĠDet roit
ens on
iv an
Ġpro l
å ¼
C atalog
ĠP anel
Ġm as
Inv ocation
' =>
act ivate
Ġdist inction
ĠST AT
ĠF P
* }\
Ġ\ )
3 75
O H
ĠM W
Ġad iab
Act or
approxim ation
r vert
ĠZ hang
Ġtr acing
OP EN
std out
Ġtit led
PAR AM
first row
rel ativistic
15 1
z h
Ġstr iking
Ġsil ent
ett i
l adesh
Ġal umni
Ġprint ing
ĠW orth
ĠSe pt
ĠLeg end
s ensitive
ass et
ĠF BI
}: =\
m v
ĠG M
ĠG B
Ġconstr ain
Ġseem ingly
ĠP P
Ġadv ances
ĠShe l
ill o
! }
) ',
Ġper f
ugg ed
Ġcour ts
Ġrat ings
Sm art
erm ark
Prot otype
Ġcomplex es
Ġrec ipient
Ġdynam ically
ĠAd S
ĠChall enge
> ');
ĠM ail
ir ates
Ã ª
User name
atern ion
N ING
p ure
Ġstrugg ling
ĠC MB
Ġst unning
ĠPod cast
j amin
Ġnorm s
ordin ator
ĠTrans action
Ch ina
ow s
Ġp iano
ynt hesis
ĠP ic
RE C
ĠPolit ical
Ġpregn ancy
ĠC ut
rec ision
m el
Ġattack ed
Ġclean ing
ĠDiag nostic
R NA
ha o
Ġe ject
ĠB uy
Ġpower ed
Ġcur r
D ark
rot ation
Ġcon cludes
ene z
> =
S ound
ĠF ather
ĠR ol
lay ers
ĠGener ic
Ġgenu ine
mon itor
ĠA G
Ġconcent rated
Ġ// -->
.\ ,\
]{ $
Ġrest ored
ac eful
40 1
B and
cel ona
Ġoscill ation
Ġstock s
A verage
pt ical
sc ar
Ġ" ")
igh ters
Ġra ises
Ġph ones
E s
ĠD VD
Res olution
Ġinfin itely
emet ery
es a
ĠD S
ment al
equ e
ĠC elebr
ĠB erg
ĠW right
Com ments
ĠK am
ĠG ary
ĠR y
ib li
ĠCor ps
Ġdir ty
Ġm i
} --\
Ġun ve
ĠSy ria
{ }\
Le ave
struct ures
f are
Ġw elfare
Part icle
Ġnov els
tain ing
ke V
ene ath
Ġfavour ite
umin ate
ĠL ot
mat ched
ĠK ir
DE P
custom er
Ġres idence
ĠIn struction
Cl osed
Ġagric ultural
Ġab ilities
erv ation
ĠJ en
Ġaud iences
ĠTai wan
v ing
Ġminor ity
Ġharm on
rr or
Ġes c
ĠQue ens
ĠGree ce
L em
id y
ĠCurrent ly
ah l
ĠHigh way
}} /
Ġton ight
Ex change
ar ms
Ġdes irable
Ġcl othing
IN LINE
Ġquant ify
SD L
\ ),
cap acity
Ġsav ings
bo ards
Ġanticip ated
Ġf ert
end ors
ĠHistor ic
ul u
Ġafr aid
ĠL ower
Ġinvent ory
15 3
ĠO cc
/ %
Ġg onna
Ġmand atory
Ġpresent ing
Ġreson ant
Ġinv asion
){ $\
ÑĢ Ð°Ð
Ġdef ects
Ġ= ================================================================
Ġspec ifying
Ġlaw suit
ĠAss istant
cou pling
Ġsched uling
in ar
ag ain
ĠOC aml
AR M
ACCE SS
R X
Ġdissip ation
âĶ Ģ
ele y
ĠU rban
Ġc u
ĠG OP
Ġdef erred
ann ah
Ġh ill
ĠPe ace
ad vant
Ġbos onic
ĠMaterial s
ĠApp ly
ĠB eng
Ġprov isions
Ġr ays
A mazon
Ġis lands
Ġin complete
pro per
ĠStr ateg
ĠJ u
ther mal
Sche dule
Ġsp oken
Ġf iring
ĠC apt
ĠM adr
fer m
Ġmodul o
sql ite
get Data
] ];
Ġansw ered
Ġserial ized
ĠI M
cr im
Ġn ons
ĠN i
15 6
Fe bruary
pg f
f ive
mid t
Cl one
Ġdifferent iable
Ġbeg un
ĠStat istics
al most
Ġsal ary
Ġd ys
Ġcop ied
, </
arc sec
con cept
Ġjoint ly
ID ENT
Ġaw s
ĠF al
ĠO d
Ġveter an
row ing
ĠMulti ple
ĠCon ver
level and
Ġd type
Ġl ov
A CTION
l iter
Ar row
Ġsp anning
Ġ! (
Ġview ers
Ġthe atre
Ġf ut
Ġexp ense
ab ad
ĠD J
ĠW riter
m orph
ers ions
cre ation
Un its
ur c
ĠMax well
ĠP ain
ĠSt ars
Ġcult ures
ĠTrans form
s al
ĠMar shall
Ġt ap
ist ol
ĠIn iti
uff icient
ĠPh one
Ġmunicip al
Ġev olving
Alloc ator
ĠS FR
ĠDec l
ĠU r
Ġsqu ee
Ġt ies
ĠQ String
Ġfle et
g ender
ĠS now
Sub mit
nos cript
ap or
act ory
Ġestim ators
| $.
P atch
fr astructure
Ġs ke
Ġmark ers
Ġjo ins
) ^*
Ġout going
Ġ$( {\
Ġg allery
en z
Ġdel ays
Ġindic ation
ĠT an
Ġcon current
Ġp unct
Ġfollow ers
dec re
Ġcontr action
Ġdist ortion
s ight
Ġh older
) ]{
le arn
ĠHun ter
Ġse aled
Ġph osph
ap propri
__ _
ĠN FT
ĠL em
ex ceptions
ĠAl an
Ġh ockey
ST EM
Ġmodul us
IT ER
Ġcancel led
ĠFac ulty
prov ided
et ra
' ')
Ġag gressive
ĠZ ero
ĠChar lie
J P
Ġconn ects
-- ;
ĠR ules
t u
=\ ,
comm unity
ij ing
tz mann
ĠQ uality
Ġcl arity
Ġg all
ex plicit
Ġo ps
ĠV ent
r ass
ĠS r
H i
Ġl apt
Lear n
m otion
l ov
Res ize
ĠPro duction
Ġaw esome
T urn
Ġemploy ers
ĠSD SS
Ġcha os
Ġ... ,
ĠO il
Ġt ent
ĠR oll
ĠIter ator
ĠC ONT
ex change
ĠV eter
Ap pe
ĠL if
ĠAn imal
NUM BER
L ess
ĠCon struction
Ġspl its
Ġfix es
Ġfix ture
Ġch arts
18 8
eg ree
Ġsens ing
May be
ĠS ac
in ely
Ġpoor ly
Ġan satz
Ġid s
Ġan xiety
Ġcor por
ĠA bs
ens itivity
ĠAct ivity
[ _
ĠDr ug
Ġcontinu ation
Ġfro zen
Ġa est
Ġanalog ue
Ġv iral
Ġsucceed ed
Ġoutper forms
Ġd uplic
h ai
Ġmanufact urer
bar s
ĠD ocker
ast ing
m bf
Ġref ined
comput er
Fr ag
id ually
Ġg ard
Ġcapt ion
Ġload er
ut ers
ĠProf essional
ĠE s
Ġfr iction
Off ice
Q UE
Ġad mission
Ġmetall ic
ĠPol y
th al
UM N
ĠColl ins
ĠDr agon
ĠUpd ated
ĠW olf
amil ies
GRO UP
Ġcelebr ation
riter ion
Ġdiscrep ancy
) }^{
Ġsh ar
reng th
d ifference
ĠB ah
min imal
W ords
N or
Ġdec imal
Ġimm igration
ĠW oman
ĠÂ ±
ĠCO MM
Ġattack er
Ġcounter parts
ĠBet ter
ĠM other
get Time
Ġgot ten
ĠS amsung
ĠQuant um
Ġj ew
Json Property
ĠM ix
ĠC atalog
Qu estion
Rec ently
ĠCon v
font s
202 4
node Type
ĠAp pe
care t
2 32
Red irect
ĠP el
et ta
Ġgrap hene
Ġab ortion
H ot
W T
issip pi
ĠW ire
E r
sche dule
ĠA U
ĠE dd
ĠV I
S chool
ĠE S
atter y
cript ors
ropol itan
b rew
ĠC B
u art
Ġnon negative
Form er
le ans
Ġl iver
met er
Ġdirect ors
field set
sp arse
Ġter rible
Dis able
get Default
Ġfluct uation
Ġg alactic
aut om
j ournal
| <
M il
st retch
Ġc ube
or ship
Input s
] <
Ġ' {
Ġtri ang
Ġgraph ic
SE C
b is
tr ait
Ġ* **
ĠCustom er
Ġhad ron
R ew
T ARGET
12 34
Ġmar ine
ĠQ t
ut er
23 4
Ġmyst er
w ould
Ġf av
Ġparticip ated
Ġf oss
ĠR ace
Ġprior i
Ġtransp arency
Ġvent ure
em ploy
Ġbur ied
Ġwidth s
ĠExper ience
S hell
ĠE L
Ġen force
Ġglob e
Ġ' ../
Ġt elescope
C ov
Ä ĥ
Cred it
Ġjust ify
ĠH P
ber ger
fo od
ĠAgain st
Max imum
/ '
Ver b
K B
Ġsub div
LE VEL
17 6
ĠJust in
ĠR R
Ġathlet es
ĠN elson
Ġspread ing
Ġdepart ure
Ġm ood
Ġnucle on
ĠU INT
Ġgr ains
sem bl
os cal
ĠTur kish
ĠU TC
Ġfib ers
z ens
Rem ark
ĠM illion
Ġreson ances
Is Null
NOS CRIPT
}) }{\
Ġinn oc
Ġaband oned
m or
> }
e asy
}} ({\
Ġa pert
Ġhash Code
( @"
19 61
Ġbl ame
Ġlo ose
Ġen zym
n f
ĠA ST
Ġ* _
ĠC ape
ymorph ic
up iter
Ġkw args
O W
ĠAs ync
C y
Ġw rest
Ġevery body
ĠGL int
Serial izable
Dis tribution
and ro
Ġsupers ymmetry
string ify
ĠA le
Ġhad ronic
P aint
ĠBO OL
Ġcor ollary
ĠMe eting
Un lock
( <
us k
ĠI SO
ĠĠĠĠĠĠĠĠĠĠĠĠĠĠĠĠĠĠĠĠĠĠĠĠĠĠĠĠĠĠĠĠ ĠĠĠĠĠĠĠĠĠĠĠĠĠĠĠĠĠĠĠĠĠĠĠ
Any Ref
ĠS ent
Ġflow ers
ĠPol ish
Ġiniti ated
å ¯
Ġfermion ic
et erm
direct ive
ĠScient ific
ĠAnd y
Ġdoc s
ĠD MA
Ge o
Ġwarn ed
> ../
h ire
c ategor
ĠA rc
Ġshe af
B er
u ons
Ġo l
Ġp ix
ur d
ĠF ocus
Ġassoci ations
Ġcrypt oc
ĠS urg
Aut om
Content Type
ĠM AP
d ale
I FI
ĠM N
00 6
x c
Ġcas ual
Bal ancer
F ar
f h
ĠCamp aign
Ġaccompl ished
ant on
ul in
x ff
ĠP hoenix
tem plates
uzz y
pub lished
PROPERT Y
oper ators
Ġbank ing
d eb
Ġaut onomous
E lect
ĠM os
g ro
n om
st ars
Ġsur veillance
Ġsurv iv
Phys Rev
dis crete
ur ring
ĠAnton io
19 52
ic ating
}}{ {\
prevent Default
um m
Ġob sc
Sp in
press ed
S everal
imit er
ĠEp isode
d type
Ġear liest
ort heast
Inst ead
}$ };
ĠK o
ĠLay out
br ack
Ġhe ap
ĠPro b
Ġpar abolic
Ã Ĺ
ĠB ed
urs es
ĠMet ro
ens ors
der ived
Ġhad n
ĠCent ury
Link s
Ġtun ed
Ġparse Int
$ ]
max cdn
n orth
16 7
Dec ode
NO WN
Ġd yn
Ġlaw yers
Ġsubstr ate
or acle
DE VICE
Ġaccept s
G al
Ġdem o
Ġreg ex
Ð ³
ĠG irls
control led
_+ $
Ġbelief s
ra f
he ap
Ġsub stitution
Ġoccasion ally
exp ansion
Ġanalog y
un ov
Object Meta
Hand lers
-\ !
Ġloc als
ĠIn stance
Ġpro ximity
Ġsp ell
00 8
ast ore
fl ink
gu ard
ĠRob inson
fav icon
ĠC row
s id
br ains
Ġfem in
em e
Ġemer ge
B on
ĠSh ared
Ġund ers
Ġsp ir
oc ate
av atar
ĠB aker
Ġorgan isations
Initial ized
p ow
Mean while
ĠS ql
van ishing
Ġinf ect
Ġtrail er
Ġphotograph s
ath on
ĠK ate
-------- -
Ġc ot
Ġd amping
Ġparticip ant
UL AR
@ {\
ĠC ou
ĠM M
W elcome
om i
ĠD ES
Ġvisual ization
Ġp ounds
Ġper ceived
Ġdocument ed
Ġsusp ension
F atal
ST O
Ġas ymmetric
Ġprom ised
function al
Ġen emies
; "><
ĠC AN
Ġlif estyle
focus ed
hat tan
ĠCon sumer
triangle q
ĠSch r
Ġep ic
int rodu
Ġmut ation
perturb ative
ocom plete
ĠF ederation
' }}
Ġsur jective
her ent
ĠTest ing
t one
15 9
Ġreserv oir
å º
ĠC ategory
Ġbr ane
port let
ĠTrans itional
d iam
Ġimplicit ly
m q
Ġbut ter
ĠÐ ·
w i
Ù Ĭ
hes ized
FO RE
ing ing
Âł Âł
Ġrel ates
Ġste am
Cho ose
ĠL IMIT
16 2
pre tty
' }{
d g
Ġs ons
19 00
22 2
work ing
ĠCal led
ĠN at
CK ET
c in
ĠS chema
ĠB A
ĠB ishop
N u
r isk
en ue
Ġconf ined
Ġauthor ized
mu x
K ing
ĠComple te
wikimedia ui
Ġsh a
ut o
Build ing
ĠN L
24 5
Ġegg s
in tern
A ge
Ġcon fer
Ġdom inate
ĠMel bourne
ĠB ab
="../ _
ĠB U
ong s
Ġextra ordinary
constr ained
spir acy
oll ar
Ġdiam ond
R oom
D K
ĠA qu
th anks
ĠG rowth
Start ing
it ize
Http Request
Ġpoll ution
m ind
Ġf ought
' "
we ights
Ġven ue
it zer
ĠâĢ Ŀ
inal s
Ġindic ators
Rel ations
Ġmount ains
Ġd f
Ġun set
ĠOver all
pub lish
Ġme al
Ġspecial ized
s child
Ġsent iment
ĠAc cept
iv ially
tr an
ĠE li
I MAGE
em ale
comp atible
Ġ{ })
ph on
ĠAn na
)+ (
k le
Ġpick s
p ared
}{ .
we ather
ĠNetwork s
Ġwork place
ĠFr ame
F LOAT
T ODO
Ġ" (
... ,
ĠR G
USE D
ĠK ids
ĠĠĠĠĠĠĠĠĠĠĠĠĠĠĠĠĠĠĠĠĠĠĠĠĠĠĠĠĠĠĠĠ ĠĠĠĠĠĠĠĠĠĠĠĠĠ
ĠEn sure
ĠT S
Ġsu icide
(" [
cell s
Ġwavelength s
ĠW ind
C op
Py thon
Ġload s
Ġc ust
,\ ;
ĠM oscow
Ġproceed s
ol ine
ĠEvery thing
D AT
ĠP f
ĠP il
Ġgu ided
F acebook
Ġb if
Reg ular
f ather
ĠD L
Ġun ified
ĠComm ons
Ġprem ier
ine q
ĉ ĠĠĠĠĠĠĠĠ
Ġtheore ms
b az
eyn olds
D eb
ĠA rr
omorphism s
// !
ĠF eed
Ġsumm ation
al ph
ĠTr igger
AB C
}), \
CO VID
ĠLab our
lot te
Ġl ucky
Ġinstrument al
get Elements
ang led
Spr ing
Ġkinem atic
ĠMalays ia
ge om
dis tributed
mag n
ĠTh or
Ġindex es
Ġgather ing
Ġcour tesy
Ġsl ave
ĠEl se
ĠW a
Ġpul ses
D ry
}{ -
ĠAnt i
ĠMus k
ĠN J
Ġport al
hen g
Ġwild life
re ction
Ġconflic ts
em ption
ĠJ oy
Default s
olv able
ĠAr gs
Ġconstit u
ĠM ade
Ġattract ed
Ġstay ed
Byte Array
est ors
ĠSc i
Ġarg v
Ġmagnet ization
; -
ĠBru ce
C LE
H op
Ġdiff use
Ġs eq
set Value
cri bers
Draw able
Ġc p
O rientation
Ñ Ħ
l if
ĠD ynamic
it ical
BU FR
ĠStud ios
19 4
Ġpre vents
ĠMe asure
ĠSh adow
ĠAdd s
Ġm ature
Ġreg ret
Ġprotect ing
Å į
Ġs orry
ĠB B
ĠLead er
apeut ic
ĠV R
ĠArch itecture
Ġp ec
am plit
Ġbe ams
Ġly rics
r ating
call s
Ġl on
part icles
Ġphot ometry
con struction
TH READ
ĠA thlet
Ġtalent ed
E duc
ĠS eq
be it
)} +
ast ically
Ġexpl aining
d ummy
G reat
Aut hent
ĠN an
Ġval ley
for ge
Ġfasc inating
Prot os
R outing
amb ling
stud y
b ach
pay ment
b ian
ĠOper a
tr uth
Ġanaly tically
ĠUs ers
Ġarrang ements
We ak
^ -\
ĠBut ton
ill ary
10 16
38 4
Ġt ear
Ġab ort
j obs
Ġbeh ave
å® ļ
r ain
ĠH im
Ġj azz
Ġl ocus
J ap
mod es
rosso ver
Ġs hed
. }.
k ed
} ',
Ġthe ater
RE L
ĠTri b
A H
ort ex
Ġsl ip
B ob
d iamond
x e
al ter
Do ctrine
c ies
he ets
Ġeth nic
}\ |\
ĠF iction
ĠD ig
Ġ( ((
}} |
Ġconstit ute
ĠC el
[] )
ĠMod al
Mat ches
/ ><
ĠS ometimes
as ympt
Ġappear ances
- )
r ub
Ġengine ers
ĠEff ect
member NameLink
SE D
< >(
Ġev t
Ġliter ary
ĠT s
Key board
i ator
F inder
Ġcol ours
Ġtw in
Ġtour ism
Ð» Ð¸
ĠCommun ication
as a
clos ing
man ual
LOB AL
Comm ands
Ġacceler ated
ick ets
ĠH ubble
Ġax ial
Ġinter cept
inher ited
ä¸ Ģ
Ġcont ours
ĠGra ham
Ġacknowled ges
Th ird
Man aged
Ġd uties
ĠOr th
Ġdram atically
Ġ ÑĤ
ĠT D
($ _
H uman
ĠTrans fer
æĺ ¯
TO K
Ġappropri ately
ĠM IN
Ġshut down
Ġv iable
Fat alf
Ġbr ut
Ġhypot heses
enc oded
Ġwor ship
fold ing
Ġenthus i
Qu ick
Ġ ))
Ġtri angular
Start ed
Ġmicro scopic
path y
child node
Pre view
ĠB P
h on
C ss
aw esome
Ġexpon ents
ĠLine ar
ĠF reedom
ud ge
ĠM is
ĠST ATE
B AD
Ġagric ulture
ĠR ap
Tok ens
Ġfast est
Ġentreprene ur
ter min
ĠG lob
plement ary
Ġcirc uits
C U
Ġ@ {
Writ ten
ink owski
ob ar
ĠOr leans
ĠComp etition
Ġw age
y arn
Ġb rowsers
vert ices
ĠRec ently
ĠHar vard
key words
× ¨
sem i
thread s
L ee
Ġdig its
Ġsmart phone
1 200
part icular
Im p
Ġspectro scopic
Ġaccompl ish
T witter
ĠB orel
ĠE E
Ġre tained
Ġpass phrase
Ra ises
s yntax
Ġjournal ists
Ġearn ings
ĠPublish ing
V IS
Ġcon ce
ĠAl bert
cond itional
ĠBang ladesh
ĠT ik
NE SS
ĠF ake
Ġcollabor ative
Ġwe igh
jet brains
B re
in struction
ĠH ub
abul ary
> ("
n ested
ĠCh anges
normal ized
c ould
Ġdel ivers
Ġmerg ing
ĠB inary
pon ential
list ed
ĠEn h
ĠB rew
Ġgovern ance
w ere
Ġconf used
v ary
Ġh ired
Com posite
Ġartifact s
Ġatt achment
ĉĉĉĉĉ Ċ
n ick
Ġweak ness
sh ake
Ġc ere
per or
Ġmanip ulation
ĠB os
ĠPat ri
iat ric
] -
Ġsing let
Ut ility
Ġmind s
bit coin
ĠDirect ory
Ġ ì
ĠV A
: **
20 6
rel im
ĠHigh er
Process ing
Na N
s izing
sc ience
in tr
S pect
Ġin sect
... "
17 8
Ġtre ating
ĠS afe
ĠSt even
ĠRail way
l abeled
ĠB art
Ġstat istic
Get Type
dat ab
ĠP oll
ĠCon stitution
Ġhand ed
ĠF ail
Ġun s
Work space
ess els
VER R
J ournal
Ġqu otes
C riteria
Ġv essel
m ol
al ong
Ġrelax ed
ĠL S
ĠBrook lyn
Ġset Up
ĠF alls
Ġenorm ous
h is
Ġdesign ing
Ġd uplicate
Ġthe sis
ĠE SP
Ġcombinator ial
Ġfaith ful
W il
Ġg ross
sh ops
Ġpar liament
xx xx
x b
Ġcap tain
La unch
determ ined
ĠDoug las
ĠE le
ĠPart icip
A MS
{ -\
ĠA SC
Ġoffset s
Lat est
Ġstay ing
LOC AL
ĠLi u
conver gence
)\ )
V oid
Ġdo zen
23 5
à¤ °
ĠSw iss
Cle arly
Ġpsych ological
x ref
he ld
ĠP rior
s ampling
Ġpo et
Ġdemand ing
Ġsh it
Ġpo ison
OP ER
Ġencour aging
ĠCla im
Ġforest s
Ġsc rap
Ġlabel led
App Compat
C LO
un i
cut s
ĠCar ter
at ri
ĠM ol
ĠĠĠĠĠĠĠĠĠĠĠĠĠĠĠĠĠĠĠĠĠĠĠĠĠĠĠĠĠĠĠĠ ĠĠĠĠĠĠĠĠĠĠĠĠĠĠ
analy tics
| .
St ock
Ġ) :
ric ane
bad ge
ĠSD K
Ġposs ession
t aking
Ġf id
. \,
Ġbacter ia
ĠPit tsburgh
D N
ĠKen ya
Ġcontrovers ial
Ġcomple ting
ĠCont roller
ĠMon itor
ĠL ac
Ġab b
Ġcont amination
Ġn ose
Ġok ay
Ġqu it
ĠA aron
cript ions
ĠU lt
ĠUp per
e ur
ĠG ulf
ĠIo T
K im
b id
Ġh ung
M el
pr act
Ġlearn s
mag netic
Ġre wards
I llegal
Ġint elligent
omet ers
m aker
Ġ\ ,\,
get Logger
Ï ħ
ĠF ont
^* $.
Ġstrong est
Iss ue
G LA
}} [
Ġpl acing
Ġanisot ropic
et ed
() }
ps frag
dis cussion
ĠE state
thin space
co ins
urch ase
c odes
Ex perimental
ĠQu estion
tr unc
}} }(
Ġshort est
Ġdiab etes
os hi
} ')
g age
Ġst ays
Ġindiv idually
Ġrom antic
ĠJenn ifer
Ġdraw s
Ġab road
Ġsupers ymmetric
- .
ĠP ad
Ex plicit
Over lay
16 4
Ġde emed
eyn man
ah a
ps y
Ġback ing
Ġco aches
Ġf aint
=" //
Ġsim plicial
dis p
B g
ĠG ot
PE G
Ġ{ !
ĠTH REE
ĠR ect
Ġdefault Value
num bers
Ġannih ilation
ĠF err
Sh ard
ĠCOL SPAN
IR ST
Dep artment
Cho ice
Not ify
ĠTechn ical
bi ased
ĠM ED
Ġunder ground
alth ough
late x
Ġutil izing
sh ore
Ġport ions
ĠD ance
Ġtimes cale
!! !
Ġwork shop
Cross Ref
ĠC ox
Ġ/ \
ĠBel ow
ĠF ern
verb ose
ĠK ings
Ġaff airs
ĠGL enum
Ġchair man
Ġtag ged
Ġpro tests
iz za
Ar c
mys ql
ĠM oz
Ġphot ography
æ ī
ac co
et ype
Pres ident
âĢ ³
LE ASE
host name
PAR AMETER
] /
ID s
Ġsimultane ous
ĠPut in
' _{\
Ġm p
ĠS DL
ĠPro gress
\% )
ĠBe at
la z
( ",
Ġimp ression
) }}{
With in
Ġdom inates
ĠClass ic
ĠColl abor
Ġll vm
Ġsil ence
Ġvic inity
x a
Ġto y
Ġdiscuss es
Ġtem ple
Ad S
17 2
C ached
ĠD P
Ġpl ug
dev ices
ÑĢ Ð¸
Am ong
Ġdev ast
Ġl os
pe ak
Ġener get
ĠF iles
la unch
K W
Ġcompl aint
ĠR adi
Ġsm oke
ĠB eyond
mon ary
alt ies
ĠMet al
SE CON
Ġre plied
Ġsur f
ĠGa uss
30 1
det ect
Ġpro secut
o ples
N EXT
ĠT reatment
Ġperspect ives
] ,\
ĠDevelop er
ĠC zech
ĠW u
al ia
N AS
Ġh i
ĠV o
å Į
ĠC ass
ĠA st
ray s
18 7
ĠPort land
Ġd ivers
ĠGener ation
is enberg
ĠRep orts
Ġpick ing
Ġlink ing
ĠMin or
c ot
g ems
)) }
ĠCor p
ĠAP Is
Ar n
MA KE
Ġ$ %
math ord
Ġconduct ing
ĠArch ive
c ient
ĠP i
Ġr ally
EX CE
. }}
n ut
NAME SPACE
Ġabsor bed
Ġbr ackets
S yn
\ :
sq cup
Ġbar rel
ĠFl ag
ups ilon
ĠA ve
Ġr iding
Ġauthor ization
Ġdecl ined
Cl ause
ĠPr incess
ick y
ĠMov ies
ĠF ly
] ));
ĠCh ron
Ġstake holders
Ġs addle
Ġball ot
Ġdes ktop
s phere
oc on
w at
Ġin tra
im als
ĠR aw
ĠIn sert
Ġrev ised
ĠL ik
ĠProduct s
Ġaccommod ate
ig ating
Ġn ights
19 3
ĠPro du
19 57
Ġlif ted
in aries
ĠDir ichlet
ĠM ask
ri b
ĠResp ond
&& &&
Ġrom ance
C u
Ġelim inated
el ist
et ched
Ã¼ r
r ific
Ġinsp ect
-------- ---
00 000
Ġadiab atic
ĠK az
E U
ĠCo hen
P ur
Grad ient
Ġst ating
ĠStew art
ĠSe lection
: /
So ftware
ĠM OD
Ġtox ic
T CP
Ġflat ten
Ġl as
Ġparamet ric
Ġsing les
z hang
ĠRead er
ĠV ancouver
| ^{\
19 6
Ġwork force
Ġnumer ic
inherit Doc
os phere
ĠJ e
Get ter
ch apter
Comp any
ĠTr ain
Ġlic enses
Att achment
or ious
al p
ele b
Ġmed al
ĠDis tribution
sp irit
5 50
t ou
ĠInvest ment
B ill
19 59
ER O
)^{ -\
Ġart istic
w eg
Ġnot ions
ĠCon vention
Ġhe li
H u
Ã ½
Ġspectro scopy
W ater
ĠR and
A RE
iz a
Ġis set
col s
Ġs urre
Ġpredict ing
resource GroupName
tikz cd
ĠB UT
S ep
ell ers
Ex act
comput ed
2 15
h dr
Im plemented
Ġsever ity
Ġsepar able
R ever
Ġg em
ĠL yn
Ġpl aus
Ð Ł
em ployment
bar rel
ĠOr ange
)$ :
n at
Ġj ail
Ġcompos er
Ġsmooth ing
m eth
7 68
Ġqu art
Ġshow er
let es
ĠH H
ĠAnaly tics
AT T
ĠPhys ical
o ak
pers istence
Ġdetect ing
Ġe ager
k u
des cribed
ast ed
Comb ining
Ġor thon
ĠY u
ĠSch w
EQ UAL
W L
ib bean
19 58
ĠCol on
co res
D igital
ro gate
Ġb eneath
th us
Ġth resholds
match ing
as List
sc apes
ex perimental
P ing
Ġthrough put
g ie
}^{ -\
Ġ" ");
ON LY
Ġown s
Phys ical
Ġcha otic
EX TERN
ĠPark er
Dis covery
ĠV eh
Ġpres cribed
Ġ ~~
Ġoper and
Fl at
m ob
ex e
CD M
n z
Ġfood s
\% .
Ġs olves
REQ UI
Ġan ger
Ġd ummy
ĠN ag
(' ../
Ġgold en
R out
Ġst iff
El se
ĠP aram
Ġhead quarters
Ġant is
ä» ¶
}{ (\
Ġcomp elling
Ġclaim ing
ĠIndones ia
ugh ters
Ġwork space
ĠDak ota
op am
con tract
Ġapproach ing
ĠF er
++ ++
y u
Ġminim ization
Ġdegrad ation
ĠMar ie
× ľ
}= {\
ĠId entity
ow ards
">( </
cor ner
norm als
n ant
le vant
ORM AL
und ef
PRO TO
Fin ished
t own
Ġcook ing
ĠMex ican
Rep o
char set
ĠPaul i
ĠDub lin
] ",
c ous
Ġd ub
get Current
Tool bar
s and
ĠR TC
B IND
Ġprevent ing
Ġpolit ician
ĠDemocr at
0 20
CLI ENT
E ll
Ġa qu
ĠL iverpool
ole v
ĠEx pect
}=\ {
Ġrad ar
Ġanten na
Ġtw elve
Ġwor ried
High light
}\ {
Ġeff icacy
preced ented
Cal c
6 50
r ors
Ġsh ield
set counter
At A
c nt
ĠMET H
Ġem bed
B ODY
rec ords
Ġdim in
feed back
r ans
Ġcomp ares
Ġyield ing
B log
le et
Pro ducer
ĠAb d
ĠCh ain
Ġir regular
is ors
s ound
Ġproduct ivity
ĠNe umann
Ġrenew able
Ġap pl
Ġover se
Ġ/ .
Th ose
Ġalloc ate
Ġther ap
Ġfol k
k ill
Ġh orses
Ġk iss
om o
( %
Ġ ----------------
B ank
eg en
Ġpract ition
ass o
Ġexpl ores
Americ a
n ets
ĠEx pr
request s
SS M
Ġ nd
^{- (
rece ive
Ġb esides
NO TE
^* $,
hand lers
ĠHead er
ĠSt ev
18 00
sl ug
cn fn
Ġop ponent
Ġmod est
Ġrock s
ob server
Ġcop per
ĠK on
F X
F und
ĠPo incar
Ġexperi encing
url s
Ġaz imuth
align ment
oxy gen
âĢ¦ âĢĿ
Ġtransl ations
}^ -
)} +\
ĠBar celona
Ġclos es
atal yst
Ġsuperconduct ing
ST ER
type param
LE FT
pl as
Ġinter ventions
bre ve
ĠT oy
Ġbl end
ĠSwed ish
iv ic
Ġattr action
Ġirre levant
ra ction
ĠDocument ation
Z ip
Ġcal m
Ġsh ops
ĠY ES
Ġatt ending
Ġun necessary
19 48
18 4
Ġs q
Ġpo em
ĠInter view
ĠLouis iana
Ġhook s
P et
Ġf ingers
K P
su cc
Throw able
ĠN umer
Ġconv in
Ġdam aged
h m
ch ip
), $
Util ities
ec ca
ĠHy per
CO PY
valid ator
ĠTh ailand
ĠSh ah
ĠBen ef
Ġem power
ĠPract ice
ĠR ing
Ob serve
ic z
ĠB ear
ak u
Ġel ite
16 3
Ġshock s
Ġh o
ĠF S
ĠAug sburg
ç ±
Ġsem igroup
Ġadjust ment
Ġal phabet
ch rom
Numer ic
comp any
as ide
ber ta
ĠNor way
ak et
ĠQu ick
c C
ĠRem ember
ĠAl bum
Sm ith
c rypto
quad r
Ġmyster ious
Ġm uon
ĠW ol
Cre ator
ph inx
l v
ĠF DA
à¥ į
W all
ĠF LA
Ġtrail ing
Ġpro x
Ġpath way
dis cuss
P aper
S uff
ĠV a
0 25
Ġl ymph
Ġj umps
Ġconcept ual
Ġset Timeout
ĠH awaii
Ext ended
Ġnom inal
ĠH I
Ġthreat ened
Ġrig orous
Ġnot ably
Ġcomput es
)}\ \
Tr ump
k j
Ġres ume
ate ur
ĠT ob
ch ars
ent ities
er gy
Ġcan nab
Ġper pet
ĠField s
ĠBalt imore
% ),
Ġf ate
Ġautom ation
Acknowledg ements
Fr ank
LE T
Ġregister s
18 9
requ ires
Ġcle ared
s chool
q p
Ġinit With
he imer
à¥ ĩ
Ġcardinal ity
or us
ĠS ED
ĠAl ert
F all
Direct or
ĠPre vious
ĠEnter prise
ĠT M
D ead
ĠR u
w heel
Ġpolyg on
pr ising
uls ive
Ġcre ator
ym an
Man ifest
graph s
oun ces
Rec on
ĠÐ ±
read crum
log y
Ġcrit ics
Doc s
Ġp arks
Ġs its
Ġcert ified
Ġconf irms
ĠDE BUG
Ġaccompany ing
f ee
... ]
rev ision
CONT RO
Ġcross es
fl ip
tabular newline
Opt s
tun ing
ĠM UST
H am
Ġnob ody
Ġoverl apping
ĠI an
Ġl ag
../../ ../
ĠTre nd
Ġmist akes
50 1
C AN
comp ress
ĠS ud
high er
om on
ĠUn iversal
Ġtra its
Ġl ane
ĠF IX
ĠMor ris
t ec
oth y
å °
=\ !
/// <
Ġbott le
comb ination
Ġback ed
Ġtechn ological
Dec or
l ift
ri ors
FA ILED
Ġaugment ed
ew ay
Ġu uid
Ġbo ards
Ġmorph ology
ĠArab ia
ot he
Ġfin ishing
Ġinher ent
Ġst upid
TIME OUT
ĠSche dule
Î º
ĠC leveland
Cond itional
Ġm a
ĠA y
uch i
F ILTER
b ay
Ġavoid ing
Ġorig ins
idd ing
ot yp
eqn o
estim ated
ĠK rist
m tx
ST REAM
Ġarr ives
Mar shal
sen al
roll ing
\ ;\
og g
rob ust
Ġimport ed
UM ENT
ATTR IBUTE
ov y
ik er
Ġper ipheral
flu ence
GL enum
Min imum
ĠMiss issippi
ĠDen ver
expand ed
Ġc ad
Ġw is
Ġp ause
ÃŃ a
Ġh ab
Ġfoot age
Ġre finement
ĠS ob
ĠAssoci ate
Ġpost ing
ĠC er
Ġlo ans
c A
Ġtri ps
ens ely
Ġscal ars
ĠT ig
ĠV ision
ĠDom ain
ĠP ope
deg enerate
n v
rec v
eli ef
Attr s
is co
ĠM erc
D IV
ĠC ertificate
17 7
term inal
U INT
å Ģ
Ġre ceptor
List s
Ġinvest ing
qu bit
+ }
Ġr ice
ĠJ oint
Ġx hr
DE V
Ġbi ased
ubb les
19 56
Ġun used
Ġsub spaces
Ġro l
ĠJ O
ĠMar c
ack er
ĠLet ter
Ġfil tration
ĠMc G
ĠSen ator
H on
U uid
Ġrecord ings
bal anced
"> '
inter est
Ġpregn ant
ĠEmer gency
ĠL ov
Ġworld s
ĠCal endar
Ġavoid ed
ĠEv ans
Ġsurprising ly
Ġch rome
Ġr he
ĠMadr id
R pc
is Valid
Ġsatisf action
p referred
Ġaud it
k pc
Ġ$ +
C OR
s creens
m outh
ĠV acc
ĠArgent ina
Ġjun ior
@ \
Ġparad igm
U i
log ue
sw ift
Null Exception
Ġpron ounced
ans wer
semb led
Ġdro pping
s outh
ĠAl aska
Ġbel t
CO RE
Ġexplan ations
ĠL oss
Ġchar ity
d ip
ĠB ud
unt u
Ġide als
ĠM aps
Ġdec k
print s
Ġ' )
Ġspont aneous
Ġdeb ugging
)\, ,
123 456
M Q
17 1
Ġdegener acy
ĠAdmin istr
N i
in vert
Ġcor rupt
in vest
Ġhe aling
16 1
An swer
Ġcur ious
ĠBrown ian
Ind ia
ĠSk ip
Ġsu ck
Ġvulner ability
ĠT el
ee k
assert Raises
> ',
ĠW ould
Ġemploy ing
Ġcomp ass
Ġcomm ute
ĠType Error
ĠChel sea
Ġc ave
Ġmet als
=" '
ĠTurn er
im ize
Ġpre dominant
ĠR ever
spect ral
G UI
^ (
R B
Ġpr inter
GEN ER
as ures
eloc ity
S a
Ġcount ed
com fort
jb oss
R oll
ĠRec ent
Â «
Ġt ons
Ġcom ics
ph ic
(' \
] >
p unct
ad os
ĠM ak
c g
Ex ist
ĠH z
back up
Ġdef ence
Ġvalid ated
/ ************************************************************************
HEAD ER
St mt
H M
Tag ged
Ġn erv
Ġsub t
O G
Ġf ires
inc ial
ane an
0 30
Loc ator
EX P
Ġthrow ing
ival ent
un ting
sing ular
og ue
M AT
t ls
ĠSe an
ch t
ĠW A
andid ates
o auth
P TR
k b
s ided
ĠC raig
Ġretri eval
Ġf iscal
ĠConnect icut
Ġox id
Ġfall en
Work ing
L y
v ation
Bu ilt
re ports
Ġsh aped
par ity
Ġsymbol ic
17 4
Ret ri
il io
r g
ond o
read only
Ġorthon ormal
ĠĠĠĠ ĉ
es c
getElements By
Ġappro ached
Ġsuccess ive
Ġal ien
ĠStr ong
Ġd oses
y z
VERR IDE
+ |\
ok emon
ict ing
W ITH
me ans
Ġsit uated
Par allel
ĠCheck s
ag ination
http Request
Ġbi om
int endo
Ġclass ify
be en
Ġbi jection
ĠS ame
con serv
ĠPo inter
W hether
Ġl ady
Ġ[] *
è ¦
Ġt ape
Ġob l
ĠJul ia
it ual
accur acy
get Parent
ok u
Ġst ret
ĠL aura
c ub
ĠT CP
im ited
hen ce
d B
amb le
ĠS I
un icode
ĠS PI
ĠCamp bell
ĠValid ation
Ġv endor
_* \
OFF SET
ĠSt orm
Ġperm its
u els
Ġg ym
project ion
Z hang
UD ING
Ġs ne
W F
att ention
ov ich
ĠHistor ical
Ġmin istry
)= -\
Ġ Ä
;\;\ ;\;\
spl ice
ĠT ower
ĠU pon
Ġas h
20 9
roll ment
ĠAll ah
div ider
ME T
ĠT IME
Ġchar m
node Name
Ġte eth
Ġwant ing
icon duct
Ġaccept ing
ĠP ars
ĠL en
In vest
Ġcomp ly
ol er
CL UDING
ĠA the
Ġelev ated
$ _\
Ġsur ge
Im plicit
Ġconfirm ation
PI X
sup ports
ĠRic ci
ç ½
Ġlens ing
Ġsoc cer
ĠChrist ians
Ġcryst all
Ġhun ting
Est im
So ft
b ias
im ony
Ġhigh way
Ġloc om
Ġang ry
P t
Ġs ock
che str
Ġh ire
ustr ation
ĠM aine
Ġfeed ing
bas eline
R P
_* $
ĠM AC
ĠR ather
f oundation
q t
ĠG il
Ġsusp ected
Ġ) );
ç± »
G I
)\ ;
ĠCap itol
ĠMit chell
Ġc am
ĠIn n
Ġf t
Å Ł
ag h
Ġpop ulated
c id
Ġnull able
amer on
struct ured
d ense
"> "
Ġst olen
op ter
}) \\
Ġfound ing
ĠR eynolds
fl ash
cover age
ĠJ a
Ġpro gression
)= -
C Y
o is
ĠP ow
re ck
Ġs our
Ġspecial ist
Ġd ying
Ġsec ured
od b
"> &#
Ġless on
ĠBe ijing
ĠBan ach
] =\
op enc
ism iss
ĠKenn edy
XML Schema
Ġclass room
ĠG ive
re li
com merce
ĠUpd ates
ĠJ obs
air y
ĠV oice
)}{ (
iz ar
ĠCo al
In side
Ġre plication
Ġform ulate
ĠSp ark
Ġpermut ations
develop ment
D ifferent
b h
Ġpract ically
AT IVE
j unction
Ġl attices
Im g
Ġsuscept ibility
Ġexist ed
Ġas ynchronous
Ġsh ifting
Cur ve
Ġlegit imate
Bo ost
ĠDr ag
Ġp ink
ĠGr ace
em en
Ġnetwork ing
------------ --
E F
y ang
res on
ĠG ill
ĠK illing
Ġlog ged
Ġexecut or
Ġcitiz en
ĠN ep
17 9
SER VICE
Ġre dis
ĠWik ipedia
] ],
un stable
Ġch ron
b z
Ġcons olid
PO SE
ĠSam uel
Ġdis ability
char At
P icture
19 55
Ġacknowled ged
Arch ive
Ġmiss ions
Ð½ Ñĭ
b right
T B
t alk
) ];
Ġ& =\
pm od
Ġtrem end
big cap
Th ough
ĠN LO
Ġd ocker
ĠMan hattan
ĠInt roduction
j ump
ĠCond itions
Ġar cs
ĠM om
Ġescap ed
ĠA CT
Ġrest oration
W ed
ĠL anc
ĠK er
ĠCh ampions
Ġvolunte er
ĠCompar ison
Ġre open
as pect
Ġcur riculum
é ĩ
int age
Numer ical
bor ne
Ġsp anned
Ġtor que
20 7
de ploy
Dis patch
Ġp aired
Ġdepart ments
ĠS cale
by e
} &=&
olog ic
DO CK
Ġcoast al
ĠEx cell
Ġb uffers
ĠM aking
ĠF ine
Particip ant
{- .
P eter
ac iÃ³n
Ġd ining
cent ric
Ġsec rets
s ap
Ġn ond
ĠK night
ĠGu y
Ġoverwhel ming
g reek
ĠPl ugin
Ġpull ing
Clos ure
( |\
Ġdes k
ĠN ord
ĠT un
Ġviol ations
19 1
Ġs la
ĠDen ote
T ele
ĠP in
Ġdig est
Ġhal os
Ġle ar
Ġstep ped
ĠRuntime Exception
scal ed
Associ ation
3 25
Ġv essels
Ġcor pus
P ull
ĠB orn
map per
Ġmain tains
ĠERR OR
Ġconst expr
Ġjust ified
ot ional
Ġpro gen
Ġmonot onic
ll ll
Ġfac ial
Ġtr iggers
Ġsub tract
Ġcompr ises
P references
Ġb om
ycl ing
G od
lim sup
it les
ĠB ou
L ondon
Ġp b
ĠT u
Ġcosm ology
r ise
18 2
Ġbro ker
Ġover r
W omen
Ġon click
Att ach
Ġd z
ĠF riends
ĠPal ace
contain ing
le tt
ĠAl ong
an on
for um
g res
ĠP un
Q Q
V ote
ĠC arr
Ġemerg ence
yn e
T ur
ĠM ER
Pub lisher
fix ture
Ġlaunch ing
Ġa apt
ĠP ush
^* )
ĠR at
j l
ac ion
19 44
conf irmed
Ġdis rupt
reg ions
Po jo
wik ipedia
K T
ced es
dec oder
ãģ Ļ
b w
3 10
}^{ {\
Ġess ay
urren ces
Through out
W ild
} `
ĠS ony
AD DR
Ġjud ges
Ġdec ides
ĠProv ince
Ġkn ee
æ İ
Ġpreval ence
c S
ĠT ed
ag ic
ass er
Ġrec ipe
0 11
Ġframework s
ĠVari able
}) +\
ond e
ht m
ik o
SY S
ĠBr anch
re search
ĠM aur
get Context
Ġcru ise
Ġroy al
Ø ³
ĠD NN
ne ighbor
Ġpro spect
query Selector
root Scope
Ġloc ate
Ġequal To
)}\ ,
ĠEV ENT
Ġmillis econds
23 7
}} ^{-
Ġpart on
ĠFrank lin
Or g
Ġdemonstr ation
hol m
ĠPortug al
In stant
Ġat ten
ĠN ames
20 30
L B
s ay
Or d
qu arter
Ġop ponents
Ġli ability
Spec ific
am ents
ex periment
Add itionally
Ġ iv
an che
Pr incipal
Ġachiev ement
filter ed
e ither
Ġ ĉĉ
Ġ' [
Tr ust
ãĤ Ĵ
Ġcatalog ue
Ġfor um
ĠR A
- "
AP PL
ĠLay er
ab we
w b
Ġd Ã©
bra ham
co ord
ĠFl ash
Ġmulti plier
ĠSch warz
l Vert
ĠL ED
Ġprop ri
ign ite
Ġco aching
Ġcomputation ally
=' #
ĠC MS
ĠWar ren
Ġswim ming
Ġ} _{
]{ @{}
row ave
Ġw ishes
Upd ates
Lear ning
et imes
p v
Ġr ip
\, (
[ @
ĠH AVE
Ġcom plications
19 54
Ġth irty
ĠA pi
Ġsu ited
add on
'' (
Ġlaun ches
C li
Insp ector
Ġacceler ate
Ġalleged ly
Ġann ually
Ġeigen states
Ġgate way
ĠC ome
ĠA my
ack ed
Spe aker
Ġp ocket
Ġk iller
Ġm ere
S ports
is en
Ġan ime
Ġcond em
Dan iel
od ash
ĠS TD
ĠH erm
Ġtra uma
d V
S y
Spr ite
ĠFant asy
ĠB SD
ge ometric
Ġ$( -
Ġvol can
dr ive
ĠTransport ation
l ighter
ĠHealth care
comple tion
alloc ate
ĠF ace
ĠB ug
17 3
à ®
Ġapert ure
re try
ĠRed is
ant om
ĠL isa
EN SION
Ġjudg ment
ut t
Ġse am
ĠRog er
int roduction
file Name
aut hentication
real m
)\, .
ĠForm ula
ĠFor ces
Ġb rew
size i
Ġmet abol
n P
ir s
S PI
\ },\
Ġdifferent iation
Ġconsum ed
ĠMur ray
Ġmultiplic ative
m om
á º
Ġb uff
Ġtrans fers
Ġinsert ion
bul k
ĠMed ic
Ġc rown
ĠI l
h aw
ĠCom ics
Ġpre dec
Ġbas elines
æ ³
ard i
Ġcl ine
ĠKe ith
ĠSt atic
Ġb ump
ĠCho ose
Ġreplic a
redu ced
A WS
Ġsecret ary
ĠNAT O
Ġ" </
min or
usal em
ĠRest aur
econ omic
ĠC ircle
ĠAl ways
FUN C
ĠTr uth
itro gen
I AN
ĠH end
At om
ĠCl iff
ĠJim my
rele ases
)} -
um ble
xx x
s ass
Ġd ans
ĠMax imum
Ġcondens ate
ĠP resent
Ġ\ ;\;
Ch ars
Ġl ap
$\ %
Ġen compass
Rot ation
ĠM aj
ĠU T
ĠF oo
Ġexpect ing
S olution
im o
Ġcent r
Ġtab index
s sec
ĠE sp
ogen esis
s ong
ĠS ort
ĠP or
appropri ate
th umb
Ġun precedented
m ers
Ch ris
ĠL D
Ġrec urrent
level s
W ire
ĠN BC
Ġman ages
ĠAgric ulture
ĠN ear
K er
Ġc odec
ĠC old
B IN
ĠE ve
Hel pers
3 80
f req
Ġalter ed
Ġexecut ing
con sc
m aml
ĠS PE
ĠDis cussion
Ã ´
}$. }
Ġintu itive
ĠThe ater
ep he
")) );
Ġassign ments
Ġsurv ived
GR AM
ĠJun ior
ĠLapl acian
wh ose
CH O
ĠL ex
Th omas
Ġs orts
ĠS qu
View er
Ġinstitut ional
=" {
ĠR oot
normal ize
dim ensions
hab ilit
H ouse
comp iled
process ed
19 39
FAIL URE
m atter
ĠComp anies
Ġmay or
Ġintern ally
ĠAp plications
imb abwe
R TC
r ational
m other
it ten
Over all
car ousel
Ġhand ful
Trans l
ĠSum mit
Ġlob by
Ġphon on
P reference
Ġm appings
Ġmer ch
ef ault
ĠM i
F ee
pol ynomial
es ters
ĠAuth ors
F ort
$\ {
ĠM ack
organ ization
ĠF an
ĠSu ite
Ġpec uli
Co ins
Ġbel oved
charg ed
Ġnot ifications
iz ational
Ġch urches
Mix in
differ ential
t ap
Ġbreak fast
Ġal le
x l
Ġsh oes
ĠCO PY
Ġ ub
Ġlab our
I r
Ġqu ad
ĠNE W
Ġrac ism
Quant um
Ġref ere
Ġpuls ar
Ġhaz ard
s aved
Perm alink
ĠYuk awa
Ġa u
Ġun bounded
ĠL ost
ĠInd igenous
Ġreflect ing
e ing
so id
ĠDis able
Ġres ign
ĠX box
Ġd os
Ġhabit at
Ġcoord ination
ĠC itiz
27 5
initial ized
Ġenjoy ing
ĠMin i
Ġinfin ites
The ir
ĠTo o
Ġaccess ibility
ĠB irth
Newton soft
DE s
bedd ing
ĠEm pty
am ic
Ġconsum e
, [
ue z
Number Of
Ġprof ound
DIS ABLE
P AGE
ĠIndust rial
Ġw ings
Ġre use
ĠS ad
ut ed
Ġincl ination
S in
s ix
ator ies
ĠC N
Ġmon op
Ġverb ose
d ns
Collect or
() "
Pos itive
Sort ed
st orm
It s
Cent ral
t om
ro ots
Ġ* (
Ġtempor arily
j sp
us c
Ġpet ition
ĠB order
ick ed
Un icode
Serial ize
ĠC arn
Ġcount ies
i ological
her o
ĠDis covery
ĠCall back
in fl
ĠIniti ative
Ġd rew
o led
s low
L ef
r hs
23 1
ĠRob in
ĠK ay
Ġtermin ology
ĠS tokes
Ġsust ained
(" ./
Col ors
Ġd ressed
are l
0 100
ĠÐ ¼
Ġgrad uated
Rich ard
e i
Ġalleg ations
ĠD ialog
amb ers
Q C
0 22
ĠC urt
Ġpos es
Ch rome
ĠBi ology
Ġem p
Ġup grad
>> >
Ġbe ating
quot ed
Ġsatell ites
inherit doc
ĠF ab
LE X
ĠDen mark
ĠCare er
Ġall ies
Ġplanet ary
ĠEval uation
C ircle
pat ient
E ast
then Return
P ic
Ġfree ze
ĠM yst
Ġr if
Ġresid ue
HO W
2 16
tr ust
(( (
Ġcapt uring
CONT ENT
ant is
AN Y
ĠAssum ing
ĠL R
ĠCar ibbean
ceed ed
}^* $
consist ency
q r
ĠM all
ĠEx ternal
Ġspin or
ENABLE D
B LE
Ġh iring
Ġres ize
C as
AR GS
class ification
Un ion
Ġc v
ĠG D
Ġsp y
Ġprior ities
ĠK an
author ized
Ġactiv ists
ĠU nd
e ak
ĠDe al
Ġro ster
M igration
} <\
T K
g ol
LA ST
ĠÎ ¼
ĠAssoci ated
b ands
re start
Ġin aug
ĠP UR
ĠC BS
r Vert
28 8
Ġhon ey
Person al
Ġex empl
au k
ĠObserv atory
UB LE
j dbc
Ġg ig
per form
60 1
in ces
ĠL oop
ĠBo ys
}: =
Ġth rew
Ġre ception
Ġl ig
ĠE DT
ĠStart ing
E MPTY
ĠW allet
ĠSo ft
Ġa pt
OUT PUT
em in
fr ared
Ġ] );
P in
Ġterm ination
ĠResp ons
Ġdesign ers
Project ion
ĠFunction s
M ad
at op
Ðº Ð°
Ġfin ancing
ĠG host
li qu
ĠO B
Ġpain tings
C irc
ynam ically
pher es
ap on
0 12
Ġconvin ced
Ġnew er
x z
ici encies
id ae
Ġsystem atically
Ġpress ed
Ġimm ers
Ġcontribut ors
Ġvacc inated
ĠWal ter
ĠChem ical
7 20
Ġt m
ĠS even
over e
class path
P OL
S ibling
g rey
Ġc ats
Ġ* */
Ġfil ing
3 13
Un fortunately
Ġval uation
Ġfib re
A fr
ĠH ermitian
ĠU TF
Ġsubs idi
clip se
ĠH udson
ï¬ ģ
ĠFor ward
oph ys
s ock
Ġlov ely
ĠN ad
ser if
ibl ings
online cite
ĠB ag
ĠK ath
Ġback wards
g ive
ay an
iss ance
({ },
w m
Ġsc anning
stat istics
SV G
U r
ER N
ĠH em
ĠIn stitut
Ġentang led
a uses
he size
}) ]
Ġmathemat ics
th a
GP KG
: ]
ĠAss essment
ph al
At omic
ĠLu ke
ĠDes cribe
fill draw
Ġqual itatively
Ġbul let
ĠMur phy
3 40
? .
n h
s amp
ĠDefault s
Ġexpans ions
p el
ĠEv olution
ear th
Ġcurv ed
W ave
ĠJ os
Ġmore over
18 1
E W
Â Ģ
Ġsc ar
Ġtool tip
ĠAust ria
ĠLa unch
p aren
Ġup stream
\ &
ost ream
Ġscient ist
ĠA DD
DEF IN
Ġrol led
ĠN ap
Ġeth ical
J on
Gener ation
ĠPart ner
' |
el n
ec om
ins ide
urren cies
ĠH at
N B
Hy per
DE C
im on
19 53
Ġmed ic
Î ³
mk dir
ed e
ĠUn known
Ġspecific ations
Ġresource GroupName
ĠT ak
/ -
eler ation
/ ?
parent s
Ġprof its
ĠProgram s
cipl inary
D ocker
ĠC OR
Ġisol ate
Ġb ipartite
Ġb anned
GLE W
pred icate
ĠBen jamin
Ġr amp
64 0
ĠEth iop
Comm un
INTER N
Ġabb rev
Writ able
' )}
ĠC DC
Ġvill ages
Ġlater al
App lying
Fl ush
ari ju
Ġr hythm
d an
li ers
m ess
n est
w ear
Ġvot er
ĠTh ink
ĠQ atar
r ases
Ġspect acular
\ >
Ġb ags
Ġj ury
Ġna ive
M g
ĠK in
e lectric
get User
ĠCour se
G lob
T W
ct ype
ug u
M us
Ġincorpor ating
Ġdro ve
H istor
Ġcre ativity
ra h
Ġins ufficient
ĠCh amber
}/ {
ret ty
h ive
ir q
ĠRef orm
ogen ous
Ġfil mm
Ġlegend ary
>: ]<
Brit ish
ĠA f
Callback s
S AT
{ }^
SE Q
Ġmut ually
ĠIss ues
Ġassert False
Ġref id
k an
Ġt weets
Ġre cept
cur v
Ġinh abit
Ġimp lying
c out
Ġim posing
Value Type
- |
ia z
22 1
ĠWe ight
Ġdisput e
Ġdevelop s
C rypto
c ertain
Ġh anging
ben ius
ADD RESS
uer to
ĠGre ater
ç Ľ
) &=
ĠF ight
Def initions
Ġpod s
Ent ities
ec raft
Ġp index
Ġl p
analy tic
A h
ĠBelg ium
Con sequently
Ġdes erve
Ñ ī
Ġposition ed
Ġquarter back
ariju ana
ĠN H
ĠGr ass
ĠGener ator
Ġhom eless
Ġro oted
restr icted
X iv
J im
on er
ĠP eters
im en
et on
con clusion
, &
Ġt iles
ĠCho ice
Id le
ĠTool s
p airs
Ġsp ike
PRE SS
Ġbif urc
Ġlabel ing
ĠFin land
c annot
Ġc ascade
!! !!
19 47
IG H
current Time
B ot
ĠTele vision
Ġ($ (
h ub
Ġdis closure
ĠEn um
inst ances
ĠB row
Aggreg ation
) &=&
ĠSc ore
ĠL ux
Ġbe an
add y
od ium
Conn ected
year s
ref s
con sum
ĠT reat
Ġfall back
ĠMor ning
Cart esian
B ol
Ġcro ps
Ġdo zens
enn ial
Ġex otic
Pod s
Ġb ab
ĠA part
6 55
p ause
em ission
ĠR AM
Ġline up
ĠWeek ly
V ars
tr uct
ĠOff set
Ġsimilar ities
Ġimpact ed
pres erve
F ACE
Ġsett le
pr im
Ġhar ass
Ġposit ively
æ ł
Ġsepar ator
Track ing
Ġbi ases
Ge orge
ĠHop f
Ġin ad
Ġvar s
Dir ty
Rect angle
} ")
Ġinc idents
Ġfriend ship
b k
ord ial
ĠMuslim s
Neg ative
Ġv in
aut hent
ĠB ec
ĠH alf
Ġcompl aints
Ġwh is
ib e
Look ing
~~~~~~~~ ~~~~~~~~
ĠStan ley
ĠC rit
ĠGit Hub
Ġp id
Ġair line
avi our
un used
con sumer
Ġestablish ments
L ou
math ring
depend s
18 6
Ġsignal ing
}) -\
L ittle
19 49
col sep
Ġpress ures
Ġmut ations
Suff ix
Qu ota
cred entials
ĠR uby
Ġschol ars
w y
ĠPre vention
. #
C ACHE
at is
rupted Exception
f ine
mathb in
Ġparameter ized
Ġsynchron ization
l ua
Ġb ilinear
on aut
ir atory
ĠMETH OD
mem Item
Ex tract
inter pol
ĠSaf ari
ar lier
am med
Ġforgot ten
# /
en es
30 3
ĠA w
ern ess
Ġaugment ation
Ġ ^{-
str action
ĠD ie
av oid
poss ibly
Ġmet aph
Ġign oring
ĠC ultural
Ġint ensive
stitut ing
Ġwis dom
ĠK ol
_+ (
Te V
in burgh
ith ium
ĠHash Set
ĠNY C
Ġs igma
ĠPlay ers
D am
out line
st ability
Ġformer ly
ĠC UR
}) /
Ġb b
Hash Code
Ġmerg ers
ĠJ uan
uns afe
Ġlogarith m
H en
item ent
rr rr
) <\
R W
Ġour s
uit ively
WH M
Ġen rich
ĠComp are
te in
ĠPlan et
z el
Ġreg ards
ĠAn imation
Ġcomment ed
ĠSte in
Ġcolle ges
| $,
Ġv i
pol ymer
ĠNot ification
"> ,</
D ays
") ).
mm ode
Ġdead ly
amp a
ĠC ert
ĠE asy
V an
Tr aining
_{ *
Ġtrad itions
Ġhot els
ĠCommission er
lik elihood
ĠD WORD
Ġsc iences
press ure
Ġaver ages
Ġpr ide
ĠSh a
Ad just
Ġpost er
Ġpain ted
K D
id ency
ĠR ab
op ath
Ġslic es
normals ize
Ġal umin
40 5
Ġmes ons
sub title
Ġadv ised
Ġpack aging
Ġlegisl ative
> ",
ĠK u
40 3
AL LOW
ĠB right
Ġ ../
Ġac res
ĠC ole
ĠSpr ings
P F
Ð ¶
Ġheart s
> ";
Ġher oes
ĠCamp us
h size
Ġbr on
ĠChar lotte
ou x
ĠK el
B esides
FE ATURE
ĠA PP
eng u
Ġem br
ĠInitial izes
% );
we alth
M acro
ro tt
ac s
ĠM atter
COL UMN
V L
commut ative
if mmode
Ġmem o
im ple
calcul ate
Ġn est
Ġnew est
box es
sur vey
auth ors
Ðº Ð¸
as ury
ĠK err
co ordinates
ĠBar bara
arc ia
æ į
Ġevalu ations
âĶĢ âĶĢ
ĠSh ape
ĠK os
80 80
ĠArt ist
ĠArt icles
Ġact ivate
Ġinv ite
Ġsear ched
br aket
R ic
pl oys
Ġhum or
ĠUt ils
Ġeigen vectors
Ġg aug
ep per
Ġped estr
Ġswit ched
it us
CE SS
ĠS erv
ĉĉĉ ĠĠĠ
Ġsurg ical
Ġrevers ed
Ġaccum ulation
Ġl hs
Organ ization
ĠG em
Ġfoss il
Ġviol ated
" ):
perm issions
ĠAir lines
Ġconvent ions
li u
Ġtim eline
M ON
State Exception
ĠBroad way
Ġneighborhood s
Ġwavef unction
it ime
ound ing
ĠSus an
ĠS TE
end ant
ob b
Ġserial izer
im ath
P ART
23 8
Ġsub algebra
ĠH ousing
sm ash
comp ressed
Sc ott
ĠN amed
Ġhe uristic
Ġformat ted
ĠPhil osoph
ĠEcon omy
Ġdiscret ization
ĠArray s
; :
ĠG H
Ã «
Ġ\ ;\
ĠR achel
ĠU ri
imod al
g f
Ġmonot one
Ġspars ity
Ġking dom
N othing
J y
Ġsuggest ion
arth y
ĠA stro
ill ery
arab ic
Ġy ard
Sup plier
ĠChampionship s
se ar
Ġpert urbed
it ored
ĠLapl ace
ĠĠĠĠĠĠĠĠĠĠĠĠĠĠ Ċ
T IP
Ġl ingu
Ġcent res
Str ict
CON TEXT
ĠPat ients
il ateral
Ġstr ikes
Ġdemonstr ating
BE GIN
K w
s cheduler
ĠL it
Ġpre st
H s
Y ES
ME DI
, #
Ġtheore tically
ps line
Ġpow der
M ur
ĠUs age
F re
m ong
Ġsub sequence
Ġch icken
Ġfl our
Ġdiagn osed
tab End
Ġaccount ed
Ġmag ical
ĠĠĠĠĠĠĠĠĠĠĠĠĠĠĠĠĠĠĠĠĠĠĠĠĠĠĠĠĠĠĠĠ ĠĠĠĠĠĠĠĠĠĠĠĠĠĠĠĠ
ĠW onder
M ike
ac re
p se
Gr ant
Ġrecurs ion
ĠA ld
Ġind oor
in finite
ĠWay ne
ÂĢ Â
ap unov
Ġtend ency
\ (
Ġw heels
ĠS ections
19 51
{\ "
Ġredund ant
ar us
Ġspher es
Ġlif ting
Ġpassion ate
end l
Dis pose
}} },
Ġt abs
ĠC es
ED IT
Ġ' --
30 2
Ġtriple t
Comp ile
ĠFre der
æ ŀ
:: ~
ĠDom in
ĠYO U
Ġend orse
St roke
d ie
err anean
Ġinflu ential
Ġterm inate
v oc
x FF
ĠF ashion
che l
assert That
ĠP enn
30 8
ins ula
Log ical
$ [
Ġsp ans
Ġcalcul us
Ġadvoc ate
el o
Ġround ed
H ey
ab ort
ĠC amera
att achment
Ġdiv iding
Compar ator
}\ }
ing ale
}) _{\
rt imes
Char Field
A ws
g allery
h um
ĠSQL Exception
raw l
$ |
b et
c O
Code Attribute
ĠTik Tok
Ġtrunc ation
Ġrec i
Ã µ
el ike
row eak
suff ix
ĠN ar
æĸ ĩ
Ġelectron ics
; (
I CT
RO WS
rece ived
Ġcompet itors
ĠPO ST
Ġal ike
Ġres c
cccc cccc
ĠJ azz
K I
] -->
p ane
ĠIm per
Stud y
ĠCO M
ĠLand au
ess ors
Ġlock down
ĠF light
ok ia
Ġcontribut or
Ġfl are
Ġor acle
ĠN am
f ade
Ġcar riers
ĠTh an
Ġp ie
ine a
ĠCh arg
Comm unity
incre asing
Ġshe ets
Ġh ass
W as
ater nal
Ġcour age
L ater
Ġc ous
ĠC ensus
ĠP ER
}) _
Ġbatter ies
Ġt anks
ach ers
Job s
olog raph
Ġpen et
G esture
success ful
sort ed
Ġecon omics
Depend encies
ide al
ĠCar bon
pect ive
Ġemb od
19 42
ĠA verage
Ġdr ain
Ġten ant
å į
ĠEm ily
Thread s
E u
Ġpath ways
erc ise
Ġelder ly
(\ {
18 3
Ð½ Ð¾
LI ED
Ġscholar ship
Y M
Ġ ic
Ġm amm
: .
Ġex clusion
, -\
ĠO H
Ġclick ing
22 9
Pr iv
[] {\
as io
hed ron
- {
ĠO scar
plan et
Ġcontroll ers
Ġre named
ash a
)/ (
St udio
Symbol s
L ove
Ġst om
Ġt ours
ĠM inkowski
Ġdis advant
text greek
St ill
Ġnerv ous
ĠT ags
ĠK umar
]{ $\
t odo
Prop agation
ĠEvery one
Ġexp ed
cy cles
Ġsubs cribe
Ġcryst als
Ġc rossover
im ap
UT ION
ï¼ ļ
Ġful filled
ĠAr n
âĢ¦ âĢ¦
tan h
Ġo prot
ĠB aby
** :
ST AR
Transform er
ro bot
ĠOper ator
ey e
ĠEx hib
ĠProgram me
ĠC rown
uk a
Block Index
Ġmult ic
hook s
Ġcert ification
BU IL
Ġsystem ic
Al g
Ġmit igate
Ġt ired
Ġ( -\
R N
Ġmulti plied
ĠObject s
CL K
Mut ex
Ġd ated
od ers
ĠID s
ĠD raft
ĠE ither
Ġsh ore
y i
Ġfile Name
Out Of
Ġpropag ate
Ġstrugg les
=" <?
ins ki
Ġbl ur
Rep resentation
Ġsw ift
Ġs ail
S amples
ĠRober ts
Ġare na
Ġoffer ings
allow s
ĠInd ividual
W ay
Ġsup rem
read able
Non Null
Ġaltern ating
pl anes
rm k
Ġob servers
ĠH S
bo ys
Ġmusic ian
short cut
V ED
up al
}\ ]
22 8
Request ed
' </
Ġannot ated
Ġv ig
Ġ- (
Ġexp ose
ĠJohn ny
Analy zer
Ġkey words
Ġformula e
y ield
Ġp ig
{( -
Ġvers a
Aggreg ate
Ġswit ches
D H
ist le
Subs cribe
N ORMAL
ĠTh r
de leted
Ġsuperv ision
d fs
Ġcheck sum
Ġintu ition
" +
19 41
2 14
ĠC ounter
ĠF el
ĠMan ufact
Ġess ence
P LAY
GP U
Ġdenom inator
M Hz
ĠG PS
qu ire
US H
w oman
ĠM ouse
p rior
w r
ĠCh ile
d up
)) :
26 5
G LOBAL
M ont
B ERT
ĠR NA
int ent
ull ivan
ĠY a
At Index
ore n
mit t
M u
)) {
ĠQu estions
Ġmultip ly
er ce
You ng
Ġnation wide
ess ed
start ed
ĠBro thers
Ġearth qu
Ġle ase
is ch
In c
MLE lement
Ġde le
ĠI da
ĠCh art
\ #
ĠE W
Ġimport s
mk ern
Ġnom inated
M Y
Ġm akers
ĠB lo
Ad apt
tribut or
ĠV ER
c M
ograph er
w u
ynch ro
cl usters
Ð° Ð»
Ġannoun ces
ĠRE G
Ġtransl ates
em porary
ident ified
sim ulation
Ġbuy ers
Ġveter ans
ĠD F
ĠBol tzmann
ĠIn side
Ġreprodu ced
ig ue
Ġfin ishes
Ġc ig
LE AN
ĠQu arter
åı ĸ
ĠM Hz
Tr im
De ath
Ġther apeutic
new page
et able
ĠSh ang
ĠCost a
Ġbreak down
S af
Ġt ong
an ol
cor related
ĠS ure
IS A
Ġ} ^{
ĠD iff
ĠJer usalem
ĠSpec ifies
Ġproceed ings
x d
ĠS plit
Ġsome body
++ ]
ĠB eth
widget s
ĠIR S
ĠLook s
ĠB ot
vers ation
Ġadvers ary
th ink
Ġmark up
Ġg ifts
it ting
Ġdr one
3 45
Ġr t
Ġt ennis
Ġsp ite
Ġaccess ing
ĠHel per
f air
Ġin consistent
Integ ration
C AT
ĠP G
Ġby pass
co herent
Li u
\, $\
Ġdistinct ive
conver ted
x hr
Ġcomp rom
ĠDub ai
if s
em ics
ĠDep uty
h b
ch r
Ġmin eral
}- {\
ĠF if
ĠRes Net
ĠBr ain
ĠSub ject
ĠK B
Ġ` $
ues e
S uggest
s uc
Ġt c
Ġ* =
ass ignment
in j
ĠK irk
Ġf ool
an try
eg an
un iversal
22 3
spec ially
Ġfund ament
Ġfun ctors
Ġt v
p ark
19 46
Conn ections
cm id
Ġcoal ition
Ġf idelity
de ployment
et itive
8 50
f ork
ter ed
ri o
Ġde ce
ĠLeg isl
Bel ow
la zy
Ġf ur
SE SSION
Ġres olutions
ĠF ame
irm ingham
Acknowledg ments
Ġinvest or
s sh
Ġrele asing
pack ed
collection s
Ġm arch
vent ional
Ġconcent rate
Ġcannab is
ar x
ĠL imit
De leted
dash board
Ġh iding
Î ¯
Code Dom
Ð¾Ð º
}{ |\
in el
IT EM
ra ising
ĠMe et
ĠAb u
Ġign or
ĠLar ry
p ip
ĠB illy
Ġed itors
av an
output s
/ :
x r
Ġwond ering
Ind ent
Ġv endors
ok a
} ''
id is
sh utdown
To o
ĠMov ement
VAR I
Ġl t
ĠBase ball
F K
we i
=" ./
24 7
Image View
V B
g old
Ġcare ers
ĠW S
claim er
Ġh ull
Ġill um
ĠI con
ĠJ et
Is ra
n ia
ĠG ay
9 78
ĠP IX
Ġab normal
ĠO thers
Ġelse if
Locale Resource
ĠCru z
ĠThrow able
ĠG NU
- %
})- (\
Ġheter ogeneous
ĠBr ig
Q F
ĠB apt
Ġtensor flow
Ġvirt ue
ĠStand ards
GLA PI
ed ing
R eb
Ġbe ings
Ġsl opes
Ġdest ro
Be ing
V ersions
Ġcompr ising
um per
Ġc d
get C
Ex isting
ĠBuff alo
ĠLeg acy
Ġafter wards
umb ai
Ġm ismatch
Ġrot ations
ĠA CC
Ġ" *
Ġget ter
Ġenc ounters
T alk
d if
Ġsan ctions
L ex
Ġdecom posed
Ġmal icious
Ġr h
ys on
ĠSol id
Ġplaus ible
× Ĳ
re cent
Ġtrans cript
so ftware
ĠT ell
ĠK ur
Ġro d
Und efined
' ",
G U
For Key
Ð¾ ÑĤ
Ġpers u
Ġgeomet ries
bal ena
BOO ST
Ġl ighter
us a
Ġpray er
~ ,
Ġtr ait
weg ian
Ġcoll apsed
ĠAct or
J oe
Ġtr ivially
Ġgu ides
Ġep it
Ġre dd
ce led
t ro
ĠS ou
ä¸ ª
AL T
Ġo d
Ġgeomet rical
Ġt body
ĠElement ary
has Next
g pu
Ġmacro scopic
ĠK id
ĠLIMIT ED
}= (\
ul o
port folio
h ma
ĠWork ers
Europe an
! ");
ĠInd ians
ans om
S and
Ġt ears
ĠK ash
avor ite
Ġ" {
ĠY ellow
ĠTr ace
ĠI BM
Ġcomm od
APPL ICATION
m ega
log s
CP P
ĠNev ada
Ġun fortunately
ob by
Ch annels
scatter ing
CLU DE
ĠI Enumerable
os i
}{ %
Ġl oving
Ġcho oses
osp el
Ġwood en
B ern
O Auth
ĠGl ass
Ġingred ient
les h
Ġfair ness
Ġcom ed
icul ous
Contain ers
Pol ygon
Adv anced
Ġconscious ness
b ash
Ġc ord
ur acy
Ġh orm
rit is
ĠKnow ledge
od ox
ĠM otion
redu ction
ĠS ays
ave led
R ock
Ġ ug
32 1
ĠZ imbabwe
à ¹
ĠMad ison
") ),
Ġarr iving
Ġtunnel ing
anc ers
Ġview port
H V
c oc
Ġr ush
the m
}{ {
) ");
Bound ing
Ġ{ :
30 5
Im ports
Des erial
Ġobst acles
ĠLiter ature
ĠB rief
ĠV P
ĠReg Exp
Ġhol idays
Red uce
DEF INE
Ġc inema
om al
Sh utdown
First Name
Ġprosp ects
ĠK ill
mm as
Call able
Ġsepar ating
ĠS oph
ason ic
t elling
colog ical
BO X
Ġcompr ised
le igh
ub le
ĠL uther
=- =-
es pecially
Ġc argo
================ ========
Ġinvest ed
Ġu pt
ĠCo ach
hl js
amplit ude
def i
}| $
enez uel
rec ogn
g om
center ed
Ġq q
EM ENT
_* (
Ġreveal ing
ĠSu z
) ],
ĠT C
ĠP RE
ĠThe me
dig est
ĠA rena
Ġdis connected
Ġident ically
F ive
Ġchemical s
Ġauthent ic
F old
W at
l hs
Ġre fin
ĠBl ues
radi ation
ĠMarg aret
Ġcan celed
alax ies
document ation
Ġn ursing
ĠT LS
Ġgr at
Get Value
Ġexhib ited
found er
ac ial
ĠMed it
Ġimag ination
30 7
Ġprot ons
Ġsem ic
he nd
Ġb lo
ĠPr adesh
rupt cy
Ġpartnership s
ĠâĢ º
act ed
æľ ī
ĠBeh avior
P ark
ĠAcad emic
}} ]
Ġg erm
Ġaccum ulated
op pler
Ġspons ored
W ER
k al
z c
e er
e lection
Ġover lay
ĠL ion
ĠT elescope
ĠG EN
getElementsBy TagName
Ġeditor ial
Ġd ancing
Ġex cluding
\/ }
Ġ$ ("#
Ġrep orters
) ";
: $
K M
Inter pre
Ġtable t
Ġthorough ly
ĠAl pha
ĠIs ing
enc ia
bar rass
| (
Ġsum mit
exper iments
M gr
ĠP ool
[...]
