{
  "version": "1.0",
  "truncation": null,
  "padding": null,
  "added_tokens": [
    {
      "id": 0,
      "content": "[UNK]",
      "single_word": false,
      "lstrip": false,
      "rstrip": false,
      "normalized": false,
      "special": true
    }
  ],
  "normalizer": null,
  "pre_tokenizer": {
    "type": "Sequence",
    "pretokenizers": [
      {
        "type": "Digits",
        "individual_digits": false
      },
      {
        "type": "ByteLevel",
        "add_prefix_space": false,
        "trim_offsets": true,
        "use_regex": true
      }
    ]
  },
  "post_processor": null,
  "decoder": null,
  "model": {
    "type": "BPE",
    "dropout": null,
    "unk_token": "[UNK]",
    "continuing_subword_prefix": null,
    "end_of_word_suffix": null,
    "fuse_unk": false,
    "byte_fallback": false,
    "vocab": {
      "[UNK]": 0,
      "!": 1,
      "\"": 2,
      "#": 3,
      "$": 4,
      "%": 5,
      "&": 6,
      "'": 7,
      "(": 8,
      ")": 9,
      "*": 10,
      "+": 11,
      ",": 12,
      "-": 13,
      ".": 14,
      "/": 15,
      "0": 16,
      "1": 17,
      "2": 18,
      "3": 19,
      "4": 20,
      "5": 21,
      "6": 22,
      "7": 23,
      "8": 24,
      "9": 25,
      ":": 26,
      ";": 27,
      "<": 28,
      "=": 29,
      ">": 30,
      "?": 31,
      "@": 32,
      "A": 33,
      "B": 34,
      "C": 35,
      "D": 36,
      "E": 37,
      "F": 38,
      "G": 39,
      "H": 40,
      "I": 41,
      "J": 42,
      "K": 43,
      "L": 44,
      "M": 45,
      "N": 46,
      "O": 47,
      "P": 48,
      "Q": 49,
      "R": 50,
      "S": 51,
      "T": 52,
      "U": 53,
      "V": 54,
      "W": 55,
      "X": 56,
      "Y": 57,
      "Z": 58,
      "[": 59,
      "\\": 60,
      "]": 61,
      "^": 62,
      "_": 63,
      "`": 64,
      "a": 65,
      "b": 66,
      "c": 67,
      "d": 68,
      "e": 69,
      "f": 70,
      "g": 71,
      "h": 72,
      "i": 73,
      "j": 74,
      "k": 75,
      "l": 76,
      "m": 77,
      "n": 78,
      "o": 79,
      "p": 80,
      "q": 81,
      "r": 82,
      "s": 83,
      "t": 84,
      "u": 85,
      "v": 86,
      "w": 87,
      "x": 88,
      "y": 89,
      "z": 90,
      "{": 91,
      "|": 92,
      "}": 93,
      "~": 94,
      "¡": 95,
      "¢": 96,
      "£": 97,
      "¤": 98,
      "¥": 99,
      "¦": 100,
      "§": 101,
      "¨": 102,
      "©": 103,
      "ª": 104,
      "«": 105,
      "¬": 106,
      "®": 107,
      "¯": 108,
      "°": 109,
      "±": 110,
      "²": 111,
      "³": 112,
      "´": 113,
      "µ": 114,
      "¶": 115,
      "·": 116,
      "¸": 117,
      "¹": 118,
      "º": 119,
      "»": 120,
      "¼": 121,
      "½": 122,
      "¾": 123,
      "¿": 124,
      "Â": 125,
      "Ã": 126,
      "Ä": 127,
      "Å": 128,
      "Æ": 129,
      "Ç": 130,
      "È": 131,
      "É": 132,
      "Ê": 133,
      "Ë": 134,
      "Ì": 135,
      "Í": 136,
      "Î": 137,
      "Ï": 138,
      "Ð": 139,
      "Ñ": 140,
      "Ò": 141,
      "Ó": 142,
      "Ô": 143,
      "Õ": 144,
      "Ö": 145,
      "×": 146,
      "Ø": 147,
      "Ù": 148,
      "Ú": 149,
      "Û": 150,
      "Ü": 151,
      "Ý": 152,
      "Þ": 153,
      "ß": 154,
      "à": 155,
      "á": 156,
      "â": 157,
      "ã": 158,
      "ä": 159,
      "å": 160,
      "æ": 161,
      "ç": 162,
      "è": 163,
      "é": 164,
      "ê": 165,
      "ë": 166,
      "ì": 167,
      "í": 168,
      "î": 169,
      "ï": 170,
      "ð": 171,
      "ñ": 172,
      "ò": 173,
      "ó": 174,
      "ô": 175,
      "Ā": 176,
      "ā": 177,
      "Ă": 178,
      "ă": 179,
      "Ą": 180,
      "ą": 181,
      "Ć": 182,
      "ć": 183,
      "Ĉ": 184,
      "ĉ": 185,
      "Ċ": 186,
      "ċ": 187,
      "Č": 188,
      "č": 189,
      "Ď": 190,
      "ď": 191,
      "Đ": 192,
      "đ": 193,
      "Ē": 194,
      "ē": 195,
      "Ĕ": 196,
      "ĕ": 197,
      "Ė": 198,
      "ė": 199,
      "Ę": 200,
      "ę": 201,
      "Ě": 202,
      "ě": 203,
      "Ĝ": 204,
      "ĝ": 205,
      "Ğ": 206,
      "ğ": 207,
      "Ġ": 208,
      "ġ": 209,
      "Ģ": 210,
      "ģ": 211,
      "Ĥ": 212,
      "ĥ": 213,
      "Ħ": 214,
      "ħ": 215,
      "Ĩ": 216,
      "ĩ": 217,
      "Ī": 218,
      "ī": 219,
      "Ĭ": 220,
      "ĭ": 221,
      "Į": 222,
      "į": 223,
      "İ": 224,
      "ı": 225,
      "Ĳ": 226,
      "ĳ": 227,
      "Ĵ": 228,
      "ĵ": 229,
      "Ķ": 230,
      "ķ": 231,
      "ĸ": 232,
      "Ĺ": 233,
      "ĺ": 234,
      "Ļ": 235,
      "ļ": 236,
      "Ľ": 237,
      "ľ": 238,
      "Ŀ": 239,
      "ŀ": 240,
      "Ł": 241,
      "ł": 242,
      "Ń": 243,
      "ĠĠ": 244,
      "ĠĠĠĠ": 245,
      "Ġt": 246,
      "in": 247,
      "er": 248,
      "on": 249,
      "Ġa": 250,
      "he": 251,
      "re": 252,
      "at": 253,
      "en": 254,
      "Ġthe": 255,
      "or": 256,
      "Ġs": 257,
      "al": 258,
      "es": 259,
      "it": 260,
      "is": 261,
      "Ġc": 262,
      "ion": 263,
      "an": 264,
      "ar": 265,
      "Ġo": 266,
      "le": 267,
      "Ġf": 268,
      "ĠĠĠ": 269,
      "Ġw": 270,
      "ed": 271,
      "Ġp": 272,
      "ĠĠĠĠĠĠĠĠ": 273,
      "ing": 274,
      "ro": 275,
      "ic": 276,
      "Ġb": 277,
      "nd": 278,
      "Ġin": 279,
      "as": 280,
      "Ġof": 281,
      "et": 282,
      "ct": 283,
      "Ġd": 284,
      "Ġ\\": 285,
      "Ġm": 286,
      "el": 287,
      "ent": 288,
      "Ġ$": 289,
      "ou": 290,
      "Ġto": 291,
      "Ġand": 292,
      "st": 293,
      "am": 294,
      "Ġth": 295,
      "ig": 296,
      "Ġre": 297,
      "om": 298,
      "Ġn": 299,
      "il": 300,
      "Ġh": 301,
      "ation": 302,
      "im": 303,
      "ac": 304,
      "id": 305,
      "Ġe": 306,
      "ol": 307,
      "ot": 308,
      "Ġ(": 309,
      "ut": 310,
      "ĠĠĠĠĠĠĠ": 311,
      "ur": 312,
      "Ġl": 313,
      "se": 314,
      "Ġ=": 315,
      "Ġis": 316,
      "ĠT": 317,
      "iv": 318,
      "ĠS": 319,
      "{\\": 320,
      "ul": 321,
      "od": 322,
      "ad": 323,
      "ce": 324,
      "if": 325,
      "Ġg": 326,
      "ab": 327,
      "Ġfor": 328,
      "ow": 329,
      "qu": 330,
      "tr": 331,
      "ĠC": 332,
      "ĉĉ": 333,
      "ĠA": 334,
      "Ġv": 335,
      "ag": 336,
      "čĊ": 337,
      "um": 338,
      "th": 339,
      "em": 340,
      "un": 341,
      ");": 342,
      "âĢ": 343,
      "ly": 344,
      "ay": 345,
      "ch": 346,
      "us": 347,
      "ap": 348,
      "ith": 349,
      "Ġ<": 350,
      "ĠI": 351,
      "Ġon": 352,
      "ect": 353,
      "Ġ{": 354,
      "ate": 355,
      "ter": 356,
      "Ġbe": 357,
      "Ġcon": 358,
      "ex": 359,
      "--": 360,
      "ver": 361,
      "end": 362,
      "Ġthat": 363,
      "_{": 364,
      "=\"": 365,
      "ath": 366,
      "ht": 367,
      "ĠM": 368,
      "ir": 369,
      "Ġst": 370,
      "//": 371,
      "est": 372,
      "oc": 373,
      "eg": 374,
      "ction": 375,
      "ĠĠĠĠĠĠĠĠĠĠĠ": 376,
      "Ġas": 377,
      "av": 378,
      "Ġ*": 379,
      "Ġwith": 380,
      "ers": 381,
      "ĠP": 382,
      "res": 383,
      "pt": 384,
      "</": 385,
      "Ġ$\\": 386,
      "pe": 387,
      "Ġpro": 388,
      "ass": 389,
      "up": 390,
      "Ġan": 391,
      "ĠB": 392,
      "Ġal": 393,
      "ess": 394,
      "ub": 395,
      "Ġ&": 396,
      "and": 397,
      "ew": 398,
      "20": 399,
      "Ġ}": 400,
      "ain": 401,
      "ef": 402,
      "ist": 403,
      "os": 404,
      "ĠF": 405,
      "Ġwh": 406,
      "pl": 407,
      "Ġex": 408,
      "ame": 409,
      "math": 410,
      "ĠR": 411,
      "ity": 412,
      "ĠD": 413,
      "ight": 414,
      "ue": 415,
      "ore": 416,
      "ine": 417,
      "ort": 418,
      "Ġit": 419,
      "ure": 420,
      "ĠH": 421,
      "ĠL": 422,
      "ere": 423,
      "op": 424,
      "Ġr": 425,
      "ĠThe": 426,
      "our": 427,
      "art": 428,
      "Ġcom": 429,
      "Ġwe": 430,
      "Ġby": 431,
      "rom": 432,
      "Ġare": 433,
      "ĠN": 434,
      "ri": 435,
      "ĠW": 436,
      "}\\": 437,
      "ext": 438,
      "ref": 439,
      "Ġthis": 440,
      "ĠĊ": 441,
      "Ġ\"": 442,
      "age": 443,
      "iz": 444,
      "Ġcl": 445,
      "ĠE": 446,
      "^{": 447,
      "}$": 448,
      "ial": 449,
      "ment": 450,
      "Ġor": 451,
      "ĠĠĠĠĠĠĠĠĠĠĠĠĠĠĠĠ": 452,
      "Ġy": 453,
      "ec": 454,
      "ĠĠĠĠĠ": 455,
      "ph": 456,
      "ies": 457,
      "ak": 458,
      "ult": 459,
      "ite": 460,
      "ĠG": 461,
      "Ġat": 462,
      "ive": 463,
      "ill": 464,
      "\">": 465,
      "sp": 466,
      "ant": 467,
      "()": 468,
      "nt": 469,
      "ge": 470,
      "urn": 471,
      "per": 472,
      "**": 473,
      "able": 474,
      "og": 475,
      "ib": 476,
      "ep": 477,
      "cl": 478,
      "ack": 479,
      "âĢĻ": 480,
      "all": 481,
      "ma": 482,
      "ud": 483,
      "Ġtr": 484,
      "Ġfrom": 485,
      "orm": 486,
      "ld": 487,
      "int": 488,
      "act": 489,
      "..": 490,
      "}}": 491,
      "Ġif": 492,
      "(\\": 493,
      "00": 494,
      "fr": 495,
      "port": 496,
      "pro": 497,
      "ft": 498,
      "turn": 499,
      "ype": 500,
      "Ġsh": 501,
      "ĠO": 502,
      "ans": 503,
      "con": 504,
      "str": 505,
      "Ġ-": 506,
      "Ġnot": 507,
      "ave": 508,
      "egin": 509,
      "cal": 510,
      "ode": 511,
      "ions": 512,
      "ase": 513,
      "begin": 514,
      "equ": 515,
      "Ġch": 516,
      "are": 517,
      "ta": 518,
      "ace": 519,
      "==": 520,
      "The": 521,
      "----": 522,
      "ff": 523,
      "ind": 524,
      "und": 525,
      "get": 526,
      "Ġ'": 527,
      "ell": 528,
      "text": 529,
      "ile": 530,
      "ign": 531,
      "ated": 532,
      "ple": 533,
      "Ġclass": 534,
      "Ġhe": 535,
      ")$": 536,
      "ical": 537,
      "_{\\": 538,
      "Ġle": 539,
      "Ġcan": 540,
      "ary": 541,
      "Ġk": 542,
      "Ġwas": 543,
      "to": 544,
      "ber": 545,
      "ang": 546,
      "ata": 547,
      "In": 548,
      "ov": 549,
      "ime": 550,
      "ens": 551,
      "com": 552,
      "ich": 553,
      "Ġus": 554,
      "ject": 555,
      "ev": 556,
      "ĠJ": 557,
      "ard": 558,
      "unction": 559,
      "),": 560,
      "ost": 561,
      ").": 562,
      "}{": 563,
      "out": 564,
      "ition": 565,
      "ust": 566,
      "ip": 567,
      "ire": 568,
      "ĠĠĠĠĠĠĠĠĠĠĠĠĠĠĠ": 569,
      "},": 570,
      "Ġ+": 571,
      "ast": 572,
      "Ġhave": 573,
      "ations": 574,
      "ence": 575,
      "ĠU": 576,
      "ide": 577,
      "ord": 578,
      "ser": 579,
      "ild": 580,
      "frac": 581,
      "eq": 582,
      "alue": 583,
      "abel": 584,
      "ĠâĢ": 585,
      "cc": 586,
      "Ġ//": 587,
      "ice": 588,
      "Ġall": 589,
      "ug": 590,
      "fig": 591,
      "form": 592,
      "Ġreturn": 593,
      "19": 594,
      "ork": 595,
      "du": 596,
      "right": 597,
      "Ġim": 598,
      "ey": 599,
      "ance": 600,
      "ong": 601,
      "ĠIn": 602,
      "row": 603,
      "eta": 604,
      "ok": 605,
      "Ġse": 606,
      "ener": 607,
      "lic": 608,
      "li": 609,
      "ĠTh": 610,
      "cite": 611,
      "aram": 612,
      "ould": 613,
      "->": 614,
      "Ġj": 615,
      "Ġres": 616,
      "put": 617,
      "Ġad": 618,
      "Ġap": 619,
      "Ġ[": 620,
      "Ġdis": 621,
      "Ġwhich": 622,
      "ach": 623,
      "Ġhas": 624,
      "Ġun": 625,
      "tring": 626,
      "Ġnew": 627,
      "Con": 628,
      "set": 629,
      "Ġab": 630,
      "10": 631,
      "::": 632,
      "the": 633,
      "label": 634,
      "use": 635,
      "Ġpl": 636,
      "rm": 637,
      "ther": 638,
      "ob": 639,
      "ents": 640,
      "ĠV": 641,
      "ize": 642,
      "mathb": 643,
      "ps": 644,
      "Ġ@": 645,
      "ĉĉĉĉ": 646,
      "ĠK": 647,
      "ption": 648,
      "ock": 649,
      "ress": 650,
      "Ġyou": 651,
      "Ġfunction": 652,
      ",\\": 653,
      "ory": 654,
      "fer": 655,
      "so": 656,
      "ublic": 657,
      "$,": 658,
      "tain": 659,
      "$.": 660,
      "ia": 661,
      "St": 662,
      "ous": 663,
      "Ġwill": 664,
      "Ġsp": 665,
      "low": 666,
      "ource": 667,
      "over": 668,
      "cri": 669,
      "Ġob": 670,
      "equation": 671,
      "ear": 672,
      "ray": 673,
      "sum": 674,
      "Ġ</": 675,
      "})": 676,
      "left": 677,
      "hen": 678,
      "ra": 679,
      "elf": 680,
      "201": 681,
      "Ġar": 682,
      "Ġ/": 683,
      "odel": 684,
      "\",": 685,
      "ull": 686,
      "'s": 687,
      "iel": 688,
      "mathcal": 689,
      "Ġdef": 690,
      "line": 691,
      "erm": 692,
      "}.": 693,
      "ound": 694,
      "enc": 695,
      "one": 696,
      "Ġcomp": 697,
      "ator": 698,
      "ield": 699,
      "ond": 700,
      "ose": 701,
      "own": 702,
      "yst": 703,
      "Ġqu": 704,
      "Ġme": 705,
      "ll": 706,
      "}(": 707,
      "Ġout": 708,
      "Ġset": 709,
      "../": 710,
      "(\"": 711,
      "old": 712,
      "Ġone": 713,
      "();": 714,
      "ual": 715,
      "eth": 716,
      "ree": 717,
      "ome": 718,
      "clud": 719,
      "Ġdo": 720,
      "ely": 721,
      "ark": 722,
      "Ġint": 723,
      "ik": 724,
      "Ġsu": 725,
      "Ġev": 726,
      "Ġinter": 727,
      "}^": 728,
      "',": 729,
      "err": 730,
      "Ġvar": 731,
      "we": 732,
      "}_": 733,
      "Ġpart": 734,
      "âĢĿ": 735,
      "Ġup": 736,
      "oint": 737,
      "ates": 738,
      "~\\": 739,
      "Ġ:": 740,
      "ystem": 741,
      "pha": 742,
      "Ġbut": 743,
      "che": 744,
      "oth": 745,
      "Ex": 746,
      "rap": 747,
      "te": 748,
      "amb": 749,
      "lect": 750,
      "Ġpr": 751,
      "ics": 752,
      "Ġstr": 753,
      "bo": 754,
      "div": 755,
      "irst": 756,
      "iew": 757,
      "Ġ*/": 758,
      "ml": 759,
      "ount": 760,
      "alpha": 761,
      "--------": 762,
      "ink": 763,
      "of": 764,
      "Ġ|": 765,
      "da": 766,
      "Ġper": 767,
      "ck": 768,
      "wo": 769,
      "ix": 770,
      "inal": 771,
      "Ġcont": 772,
      "****": 773,
      "Ġ.": 774,
      "trib": 775,
      "ĠSt": 776,
      "umber": 777,
      "ake": 778,
      ")\\": 779,
      "essage": 780,
      "Ġget": 781,
      "sh": 782,
      "ict": 783,
      "Ġmore": 784,
      "Ġpre": 785,
      "Ġalso": 786,
      "ER": 787,
      "roup": 788,
      "led": 789,
      "lo": 790,
      "Ġtheir": 791,
      "ian": 792,
      "ym": 793,
      "tribut": 794,
      "ax": 795,
      "pec": 796,
      "erv": 797,
      "Ġpublic": 798,
      "imes": 799,
      "elta": 800,
      "oid": 801,
      "))": 802,
      "Ġro": 803,
      "ors": 804,
      "Ġexp": 805,
      "ambda": 806,
      "cre": 807,
      "ery": 808,
      "sub": 809,
      "uct": 810,
      "hat": 811,
      "Ġne": 812,
      "ular": 813,
      "igh": 814,
      "Pro": 815,
      "$\\": 816,
      "pr": 817,
      "Ġresult": 818,
      "Ġover": 819,
      "Ġso": 820,
      "ĠĠĠĠĠĠĠĠĠ": 821,
      "eng": 822,
      "ty": 823,
      "Ġname": 824,
      "Ġi": 825,
      "app": 826,
      "ĉĉĉ": 827,
      "12": 828,
      "this": 829,
      "====": 830,
      "Ġdata": 831,
      "span": 832,
      "Ġtime": 833,
      "></": 834,
      "name": 835,
      "Ġour": 836,
      "var": 837,
      "Ġ_": 838,
      "ĠĠĠĠĠĠĠĠĠĠĠĠĠĠĠĠĠĠĠ": 839,
      "amma": 840,
      "ho": 841,
      "('": 842,
      "def": 843,
      "pos": 844,
      "ry": 845,
      "ss": 846,
      "Ġits": 847,
      "ick": 848,
      "ethod": 849,
      "ĠWe": 850,
      "ings": 851,
      "Ġform": 852,
      "Ġthey": 853,
      "mu": 854,
      "IN": 855,
      "Ġhis": 856,
      "_\\": 857,
      "200": 858,
      "idth": 859,
      "Ġcol": 860,
      "ail": 861,
      "=\\": 862,
      "ĠY": 863,
      "Ġtwo": 864,
      "Th": 865,
      "lement": 866,
      "ON": 867,
      "Ġdif": 868,
      "dot": 869,
      "Ġother": 870,
      "Ġvalue": 871,
      "ove": 872,
      "Ġman": 873,
      "raph": 874,
      "Ġde": 875,
      "ange": 876,
      "ve": 877,
      "ific": 878,
      "ollow": 879,
      "ient": 880,
      "Name": 881,
      "ative": 882,
      "les": 883,
      "Ġany": 884,
      "Ġ\\\\": 885,
      "Ġdes": 886,
      "Type": 887,
      "igma": 888,
      "ied": 889,
      "ert": 890,
      "><": 891,
      "Ġmodel": 892,
      "param": 893,
      "Ġwhen": 894,
      "cent": 895,
      "ĠâĢľ": 896,
      "Ġsup": 897,
      "Ġsub": 898,
      "ĠCh": 899,
      "}^{": 900,
      "}_{": 901,
      "mathbb": 902,
      "atch": 903,
      "ĠThis": 904,
      "Ġwork": 905,
      "ys": 906,
      "Ġadd": 907,
      "-\\": 908,
      "../../": 909,
      "io": 910,
      "tern": 911,
      "arg": 912,
      "Ġwere": 913,
      "rit": 914,
      "Ġonly": 915,
      "Ġag": 916,
      "ook": 917,
      "bar": 918,
      "ection": 919,
      "ish": 920,
      "col": 921,
      "atic": 922,
      "Ġen": 923,
      "ega": 924,
      "Ġthere": 925,
      "Ġ{\\": 926,
      "lation": 927,
      "^{\\": 928,
      "Ġthan": 929,
      "Ġbet": 930,
      "Ġgo": 931,
      "ues": 932,
      "phi": 933,
      "pi": 934,
      "ise": 935,
      "Ġbeen": 936,
      "Ġfirst": 937,
      "Ġtype": 938,
      "Ġfollow": 939,
      "ram": 940,
      "import": 941,
      "iss": 942,
      "Ġ#": 943,
      "under": 944,
      "ays": 945,
      "Ġline": 946,
      "ility": 947,
      "return": 948,
      "yn": 949,
      "Ġacc": 950,
      "Ġpos": 951,
      "Ġreg": 952,
      "Ġwhere": 953,
      "ache": 954,
      "lem": 955,
      "round": 956,
      "lambda": 957,
      "fo": 958,
      "Ġx": 959,
      "bf": 960,
      "ool": 961,
      "ST": 962,
      "ng": 963,
      "RE": 964,
      "urre": 965,
      "String": 966,
      "Ġsim": 967,
      "item": 968,
      "Ġconst": 969,
      "Ġsuch": 970,
      "Ġtrans": 971,
      "We": 972,
      "alse": 973,
      "11": 974,
      "ons": 975,
      "ann": 976,
      "Id": 977,
      "Ġgener": 978,
      "Ġuse": 979,
      "html": 980,
      "ating": 981,
      "ider": 982,
      "Ġinto": 983,
      "resent": 984,
      "section": 985,
      "cess": 986,
      "cript": 987,
      "Ġsome": 988,
      "Ġind": 989,
      "Ġabout": 990,
      "Ġcor": 991,
      "fter": 992,
      "aw": 993,
      "Ġno": 994,
      "ater": 995,
      "lock": 996,
      "ĠIt": 997,
      "olut": 998,
      "anc": 999,
      "plic": 1000,
      "Ġrequ": 1001,
      "Ġcomm": 1002,
      "Ġcase": 1003,
      "Ġequ": 1004,
      "its": 1005,
      "ible": 1006,
      "als": 1007,
      "ined": 1008,
      "Ġcons": 1009,
      "Ġid": 1010,
      "Ġdiffer": 1011,
      "Ġself": 1012,
      "trans": 1013,
      "source": 1014,
      "tt": 1015,
      "Ġ!": 1016,
      "dd": 1017,
      "Ġthen": 1018,
      "Ġval": 1019,
      "Ġ`": 1020,
      "Ġwho": 1021,
      "://": 1022,
      "ont": 1023,
      "Ġshow": 1024,
      "ected": 1025,
      "ious": 1026,
      "Ġsc": 1027,
      "Ġem": 1028,
      "ilon": 1029,
      "ead": 1030,
      "der": 1031,
      "message": 1032,
      "sc": 1033,
      "Ġhref": 1034,
      "ures": 1035,
      "Ġph": 1036,
      "16": 1037,
      "array": 1038,
      "part": 1039,
      "Res": 1040,
      "wh": 1041,
      "Com": 1042,
      "Ġend": 1043,
      "Ġte": 1044,
      "ased": 1045,
      "Ġel": 1046,
      "mathbf": 1047,
      "ugh": 1048,
      "202": 1049,
      "type": 1050,
      "uild": 1051,
      "Ġdec": 1052,
      "ities": 1053,
      "ie": 1054,
      "td": 1055,
      "AT": 1056,
      "Ġ(\\": 1057,
      "ike": 1058,
      "align": 1059,
      "ocal": 1060,
      "sigma": 1061,
      "Ġresp": 1062,
      "Ġrel": 1063,
      "Ġprov": 1064,
      "val": 1065,
      "ature": 1066,
      "ault": 1067,
      "ween": 1068,
      "read": 1069,
      "ote": 1070,
      "serv": 1071,
      "beta": 1072,
      "for": 1073,
      "}{\\": 1074,
      "Ġerr": 1075,
      "oug": 1076,
      "iven": 1077,
      "ices": 1078,
      "Ġthese": 1079,
      "^{-": 1080,
      "angle": 1081,
      "15": 1082,
      "arch": 1083,
      "code": 1084,
      "oun": 1085,
      "add": 1086,
      "min": 1087,
      "ilde": 1088,
      "Ġunder": 1089,
      "olog": 1090,
      "Ġused": 1091,
      "18": 1092,
      "Ġeach": 1093,
      "Ġ=>": 1094,
      "Ġkn": 1095,
      "ample": 1096,
      "Ġsystem": 1097,
      "ception": 1098,
      "epend": 1099,
      "Ġyear": 1100,
      "ince": 1101,
      "class": 1102,
      "urrent": 1103,
      "eps": 1104,
      "Ġfe": 1105,
      "Ġwould": 1106,
      "ally": 1107,
      "Ġmay": 1108,
      "br": 1109,
      "aramet": 1110,
      "\\\\": 1111,
      "ames": 1112,
      "Ġnumber": 1113,
      "Ġyour": 1114,
      "##": 1115,
      "Ġco": 1116,
      "ning": 1117,
      "Ġeff": 1118,
      "Ġ==": 1119,
      "ement": 1120,
      "Ġher": 1121,
      "Ġcre": 1122,
      "Ch": 1123,
      "ash": 1124,
      "/>": 1125,
      "Ġbetween": 1126,
      "Ġnull": 1127,
      "ength": 1128,
      "+\\": 1129,
      "ized": 1130,
      "vent": 1131,
      "Ġhigh": 1132,
      "Ġoff": 1133,
      "Ġpoint": 1134,
      "ton": 1135,
      "irect": 1136,
      "Ġact": 1137,
      "Ġ)": 1138,
      "ID": 1139,
      "Ġsa": 1140,
      "Ġ>": 1141,
      "ule": 1142,
      "ĠPro": 1143,
      "yle": 1144,
      "OR": 1145,
      "ask": 1146,
      "Ġinst": 1147,
      "gamma": 1148,
      "Ġhad": 1149,
      "Ġtest": 1150,
      "List": 1151,
      "Ġspec": 1152,
      "action": 1153,
      "Ġvoid": 1154,
      "ational": 1155,
      "__": 1156,
      "Ġinclud": 1157,
      "AR": 1158,
      "*}": 1159,
      "pon": 1160,
      "LE": 1161,
      "ced": 1162,
      "ner": 1163,
      "Ġthem": 1164,
      "Ġprob": 1165,
      "ower": 1166,
      "ization": 1167,
      "ptions": 1168,
      "mathrm": 1169,
      "log": 1170,
      "ric": 1171,
      "htt": 1172,
      "Ġback": 1173,
      "Ġrem": 1174,
      "ting": 1175,
      "):": 1176,
      "rho": 1177,
      "ages": 1178,
      "Ġsm": 1179,
      "ade": 1180,
      "ause": 1181,
      "13": 1182,
      "^\\": 1183,
      "back": 1184,
      "Ġusing": 1185,
      "Ġop": 1186,
      "rt": 1187,
      "Ġfield": 1188,
      "apt": 1189,
      "delta": 1190,
      "rr": 1191,
      "width": 1192,
      "Ġpe": 1193,
      "ĠUn": 1194,
      "Ġstud": 1195,
      "Ġam": 1196,
      "rough": 1197,
      "Ġpol": 1198,
      "\"/>": 1199,
      ")}": 1200,
      "Cl": 1201,
      "hed": 1202,
      "Ġdev": 1203,
      "AL": 1204,
      "Ġtrue": 1205,
      "uth": 1206,
      "25": 1207,
      "ential": 1208,
      "ember": 1209,
      "gy": 1210,
      "To": 1211,
      "ocation": 1212,
      "ument": 1213,
      "ne": 1214,
      "box": 1215,
      "Ġsec": 1216,
      "14": 1217,
      "tau": 1218,
      "sert": 1219,
      "...": 1220,
      "theta": 1221,
      "Ġmethod": 1222,
      "]{": 1223,
      "ĠFor": 1224,
      "Ġent": 1225,
      "ivate": 1226,
      "ever": 1227,
      "figure": 1228,
      "yp": 1229,
      "lection": 1230,
      "ier": 1231,
      "Ġchar": 1232,
      "ĠCom": 1233,
      "ĠĠĠĠĠĠĠĠĠĠĠĠĠĠĠĠĠĠĠĠĠĠĠĠĠĠĠĠĠĠĠĠ": 1234,
      "son": 1235,
      "pre": 1236,
      "Ġneed": 1237,
      "ole": 1238,
      "ward": 1239,
      "Ġhow": 1240,
      "cdot": 1241,
      "big": 1242,
      "ĠX": 1243,
      "$-": 1244,
      "ments": 1245,
      "air": 1246,
      "Ġrec": 1247,
      "leq": 1248,
      "Ġorg": 1249,
      "Ġprodu": 1250,
      "ĠQ": 1251,
      "Ġcal": 1252,
      "Tr": 1253,
      "SS": 1254,
      "));": 1255,
      "Ġnon": 1256,
      "It": 1257,
      "ines": 1258,
      "Ġlike": 1259,
      "Ob": 1260,
      "Ġgr": 1261,
      "Ġappro": 1262,
      "Ġfl": 1263,
      "oy": 1264,
      "EN": 1265,
      "vel": 1266,
      "////": 1267,
      "Ġsign": 1268,
      "Ġever": 1269,
      "Ġmod": 1270,
      "not": 1271,
      "Ġmost": 1272,
      "mer": 1273,
      "partial": 1274,
      "ĠâĢĵ": 1275,
      "string": 1276,
      "Ġinv": 1277,
      "includ": 1278,
      "}$,": 1279,
      "ts": 1280,
      "Ġoper": 1281,
      "translation": 1282,
      "ĠAs": 1283,
      "itle": 1284,
      "********": 1285,
      "}$.": 1286,
      "work": 1287,
      "Ġstring": 1288,
      "arget": 1289,
      "pm": 1290,
      "ars": 1291,
      "ĠĠĠĠĠĠ": 1292,
      "uss": 1293,
      "perty": 1294,
      "Ġsee": 1295,
      "Ġshould": 1296,
      "ank": 1297,
      "formation": 1298,
      "Ġ--": 1299,
      "Ġfalse": 1300,
      "new": 1301,
      "Ġafter": 1302,
      "self": 1303,
      "Ġsame": 1304,
      "}(\\": 1305,
      "Ġz": 1306,
      "nu": 1307,
      "Ġdifferent": 1308,
      "ically": 1309,
      "be": 1310,
      "Ġelse": 1311,
      "Ar": 1312,
      "ism": 1313,
      "Ġstate": 1314,
      "arrow": 1315,
      "ily": 1316,
      "ists": 1317,
      "Ġrep": 1318,
      "olution": 1319,
      "Ġshe": 1320,
      "Ġgiven": 1321,
      "Ġmat": 1322,
      "Ġac": 1323,
      "\"><": 1324,
      "Ġthrough": 1325,
      "Ġwell": 1326,
      "times": 1327,
      "Value": 1328,
      "32": 1329,
      "ee": 1330,
      "eqref": 1331,
      "Ġfil": 1332,
      "data": 1333,
      "\");": 1334,
      "Data": 1335,
      "Ġcomple": 1336,
      "ĠHe": 1337,
      "ough": 1338,
      "value": 1339,
      "Ġext": 1340,
      "umn": 1341,
      "----------------": 1342,
      "eqn": 1343,
      "amp": 1344,
      "For": 1345,
      "ases": 1346,
      "ww": 1347,
      "As": 1348,
      "Ġass": 1349,
      "Ġdet": 1350,
      "ervice": 1351,
      "ream": 1352,
      "org": 1353,
      "uff": 1354,
      "30": 1355,
      "fty": 1356,
      "ople": 1357,
      "Ġfinal": 1358,
      "Ġmin": 1359,
      "infty": 1360,
      "Ġ&&": 1361,
      "face": 1362,
      "omega": 1363,
      "red": 1364,
      "Ġpartic": 1365,
      "ector": 1366,
      "ces": 1367,
      "par": 1368,
      "Ġparamet": 1369,
      "Ġgroup": 1370,
      "Ġsaid": 1371,
      "Ġfact": 1372,
      "tilde": 1373,
      "Ġjust": 1374,
      "Ġobject": 1375,
      "Ġu": 1376,
      "ify": 1377,
      "ody": 1378,
      "view": 1379,
      "Ġorder": 1380,
      "Ġ/**": 1381,
      "ets": 1382,
      "Ġwhat": 1383,
      "17": 1384,
      "100": 1385,
      "orld": 1386,
      "Ġstart": 1387,
      "Ġterm": 1388,
      "ĠĠĠĠĠĠĠĠĠĠĠĠĠ": 1389,
      "let": 1390,
      "uring": 1391,
      "ension": 1392,
      "ots": 1393,
      "ited": 1394,
      "ĠCon": 1395,
      "ful": 1396,
      "Col": 1397,
      "uch": 1398,
      "rol": 1399,
      "Ġmy": 1400,
      "Ġsur": 1401,
      "ger": 1402,
      "heck": 1403,
      "ified": 1404,
      "cle": 1405,
      "vers": 1406,
      "ava": 1407,
      "struct": 1408,
      "reat": 1409,
      "Ġbec": 1410,
      "space": 1411,
      "|\\": 1412,
      "Ġboth": 1413,
      "sec": 1414,
      "ĠEx": 1415,
      "Set": 1416,
      "date": 1417,
      "key": 1418,
      "quad": 1419,
      "ĠĠĠĠĠĠĠĠĠĠĠĠĠĠĠĠĠĠĠĠĠĠĠ": 1420,
      "SE": 1421,
      "Ġest": 1422,
      "requ": 1423,
      "dis": 1424,
      "ired": 1425,
      "ability": 1426,
      "Ġnow": 1427,
      "];": 1428,
      "ĠZ": 1429,
      "bol": 1430,
      "ĠIf": 1431,
      "la": 1432,
      "')": 1433,
      "IT": 1434,
      "Delta": 1435,
      "raw": 1436,
      "co": 1437,
      "Ġconsider": 1438,
      "AN": 1439,
      "ins": 1440,
      "arent": 1441,
      "Ġlong": 1442,
      "ern": 1443,
      "\")": 1444,
      "Ġmon": 1445,
      "ĠAl": 1446,
      "Ġplay": 1447,
      "Ġfollowing": 1448,
      "Ġevery": 1449,
      "ency": 1450,
      "Ġbo": 1451,
      "play": 1452,
      "ives": 1453,
      "file": 1454,
      "try": 1455,
      "rix": 1456,
      "Ġvari": 1457,
      "ĠNew": 1458,
      "ulti": 1459,
      "ĠTr": 1460,
      "Ġdoes": 1461,
      "test": 1462,
      "],": 1463,
      "By": 1464,
      "Ġbr": 1465,
      "ively": 1466,
      "Ġprocess": 1467,
      "CT": 1468,
      "Ġdisc": 1469,
      "resp": 1470,
      "Ġexper": 1471,
      "oci": 1472,
      "sq": 1473,
      "Ġcould": 1474,
      "elop": 1475,
      "Ġwhile": 1476,
      ".,": 1477,
      "Exception": 1478,
      "========": 1479,
      "pp": 1480,
      "($": 1481,
      "50": 1482,
      "rem": 1483,
      "cont": 1484,
      "Ġeffect": 1485,
      "Ġresults": 1486,
      "Ġ$(": 1487,
      "Err": 1488,
      "DE": 1489,
      "ted": 1490,
      "Ġed": 1491,
      "by": 1492,
      "Ġhand": 1493,
      "ared": 1494,
      "Ġright": 1495,
      "any": 1496,
      "ense": 1497,
      "ivers": 1498,
      "itions": 1499,
      "\\,": 1500,
      "ms": 1501,
      "atus": 1502,
      "cept": 1503,
      "size": 1504,
      "lob": 1505,
      "ils": 1506,
      "Ġread": 1507,
      "iver": 1508,
      "ality": 1509,
      "other": 1510,
      "En": 1511,
      "Ġanal": 1512,
      "._": 1513,
      "net": 1514,
      "Object": 1515,
      "mary": 1516,
      "Ġfind": 1517,
      "Ġlist": 1518,
      "ĠAn": 1519,
      "$$": 1520,
      "ersion": 1521,
      "This": 1522,
      "ten": 1523,
      "Ġstatic": 1524,
      "chi": 1525,
      "Ġpeople": 1526,
      "where": 1527,
      "Ġ!=": 1528,
      "xi": 1529,
      "Ġ///": 1530,
      "Ġcond": 1531,
      "Ġ%": 1532,
      "Ġkey": 1533,
      "table": 1534,
      "olds": 1535,
      "ants": 1536,
      "center": 1537,
      "Ġperform": 1538,
      "Ġatt": 1539,
      "ymbol": 1540,
      "aking": 1541,
      "iqu": 1542,
      "Ġobtain": 1543,
      "Ġ||": 1544,
      "comm": 1545,
      "Ġser": 1546,
      "nb": 1547,
      "Test": 1548,
      "ross": 1549,
      "inter": 1550,
      "24": 1551,
      "ccess": 1552,
      "orem": 1553,
      "eqnarray": 1554,
      "fore": 1555,
      "Ġelement": 1556,
      "px": 1557,
      "Ġmake": 1558,
      "Ġstruct": 1559,
      "fl": 1560,
      "'t": 1561,
      "met": 1562,
      ")$.": 1563,
      "gor": 1564,
      "ron": 1565,
      "}}\\": 1566,
      "Ġsupport": 1567,
      "function": 1568,
      "Ġcurrent": 1569,
      "199": 1570,
      "}[": 1571,
      "ision": 1572,
      "ele": 1573,
      "};": 1574,
      "itial": 1575,
      "Ph": 1576,
      "Ġsmall": 1577,
      "Ġfound": 1578,
      "Get": 1579,
      "Ġbound": 1580,
      "land": 1581,
      "Un": 1582,
      "Ġprivate": 1583,
      "ĠString": 1584,
      "arge": 1585,
      "psi": 1586,
      "Im": 1587,
      "ished": 1588,
      "roll": 1589,
      "Ġeven": 1590,
      "ason": 1591,
      "Ġcall": 1592,
      "Ġbecause": 1593,
      "script": 1594,
      "Ġbel": 1595,
      "ME": 1596,
      "order": 1597,
      "epsilon": 1598,
      "Ġimport": 1599,
      "At": 1600,
      "efore": 1601,
      "time": 1602,
      "man": 1603,
      "Ġdr": 1604,
      "ĠSh": 1605,
      "rite": 1606,
      "Ġcontain": 1607,
      "ler": 1608,
      "Cont": 1609,
      "().": 1610,
      "Ġlocal": 1611,
      "Ġmeas": 1612,
      "cm": 1613,
      "Ġagain": 1614,
      "Ġmany": 1615,
      "âĢľ": 1616,
      "load": 1617,
      "Ġrun": 1618,
      "ences": 1619,
      "());": 1620,
      "nbsp": 1621,
      "Ġlead": 1622,
      "indow": 1623,
      "sim": 1624,
      "reg": 1625,
      "ek": 1626,
      "roid": 1627,
      "An": 1628,
      "etwork": 1629,
      "umer": 1630,
      "Ġknow": 1631,
      "ral": 1632,
      "mod": 1633,
      "Ġarg": 1634,
      "med": 1635,
      "CO": 1636,
      "Ġvery": 1637,
      "Ġsecond": 1638,
      "wn": 1639,
      "Ġsize": 1640,
      "tab": 1641,
      "ĠĠĊ": 1642,
      "ology": 1643,
      "lp": 1644,
      ".âĢĿ": 1645,
      "cale": 1646,
      "day": 1647,
      "Key": 1648,
      "000": 1649,
      "chn": 1650,
      "ren": 1651,
      "Ġincre": 1652,
      "Ġapp": 1653,
      "rc": 1654,
      "Error": 1655,
      "ane": 1656,
      "energy": 1657,
      "Ind": 1658,
      "}_{\\": 1659,
      "Ġthree": 1660,
      "exp": 1661,
      "Ġinformation": 1662,
      "top": 1663,
      "me": 1664,
      "Ġway": 1665,
      "Ġav": 1666,
      "Ġbl": 1667,
      "Ġvalues": 1668,
      "ulation": 1669,
      "Ġdistribut": 1670,
      "Ġdescri": 1671,
      "Ġlast": 1672,
      "Ġbeing": 1673,
      "Om": 1674,
      "Ġcent": 1675,
      "gram": 1676,
      "22": 1677,
      "her": 1678,
      "Ġsing": 1679,
      "Ġcontin": 1680,
      "');": 1681,
      "ble": 1682,
      "pert": 1683,
      "ness": 1684,
      "imit": 1685,
      "go": 1686,
      "gr": 1687,
      "Ġdirect": 1688,
      "oad": 1689,
      "Ġtop": 1690,
      "Ġtem": 1691,
      "Ġmass": 1692,
      "Ġerror": 1693,
      "Ġbefore": 1694,
      "erson": 1695,
      "vert": 1696,
      "respond": 1697,
      "rop": 1698,
      "Ġfin": 1699,
      "Ġproblem": 1700,
      "head": 1701,
      "sqrt": 1702,
      "Ġmet": 1703,
      "64": 1704,
      "Ġfile": 1705,
      "Class": 1706,
      "uration": 1707,
      "].": 1708,
      "Omega": 1709,
      "Ġyears": 1710,
      "^*": 1711,
      "bed": 1712,
      "Ġhere": 1713,
      "Ġspace": 1714,
      "ĠFig": 1715,
      "less": 1716,
      "Gamma": 1717,
      "opy": 1718,
      "vious": 1719,
      "ground": 1720,
      "Ġposs": 1721,
      "ormal": 1722,
      "Ġpresent": 1723,
      ")$,": 1724,
      "ience": 1725,
      "reak": 1726,
      "ĠCl": 1727,
      "ression": 1728,
      "ute": 1729,
      "ife": 1730,
      "psilon": 1731,
      "ilar": 1732,
      "Ġ${\\": 1733,
      "index": 1734,
      "Sh": 1735,
      "ather": 1736,
      "summary": 1737,
      "location": 1738,
      "alth": 1739,
      "ĠčĊ": 1740,
      "AC": 1741,
      "Ġallow": 1742,
      "pace": 1743,
      "Ġfr": 1744,
      "Ġmust": 1745,
      "ocument": 1746,
      "group": 1747,
      "az": 1748,
      "Ġlook": 1749,
      "LL": 1750,
      "Ġdevelop": 1751,
      "Ġhim": 1752,
      "list": 1753,
      "raphics": 1754,
      "link": 1755,
      "\";": 1756,
      "ager": 1757,
      "bm": 1758,
      "ĠRes": 1759,
      "Ġrepresent": 1760,
      "ural": 1761,
      "Ġsince": 1762,
      "Ġthose": 1763,
      "RO": 1764,
      "arn": 1765,
      "Ġprovid": 1766,
      "Ġreal": 1767,
      "Int": 1768,
      "ister": 1769,
      "Ġobserv": 1770,
      "Ġmain": 1771,
      "url": 1772,
      "Ġconn": 1773,
      "Ġcomput": 1774,
      "capt": 1775,
      "40": 1776,
      "irc": 1777,
      "Requ": 1778,
      "Ġrespect": 1779,
      "field": 1780,
      "ission": 1781,
      "bers": 1782,
      "Ġdist": 1783,
      "ott": 1784,
      "ually": 1785,
      "position": 1786,
      "ident": 1787,
      "Ġident": 1788,
      "ĠĠĠĠĊ": 1789,
      "(),": 1790,
      "no": 1791,
      "Ġ,": 1792,
      "olv": 1793,
      "Ġlet": 1794,
      "23": 1795,
      "ush": 1796,
      "subsection": 1797,
      "uffer": 1798,
      "http": 1799,
      "^{(": 1800,
      "vare": 1801,
      "way": 1802,
      "View": 1803,
      "unc": 1804,
      "}=": 1805,
      "File": 1806,
      "ah": 1807,
      "att": 1808,
      "Ġenergy": 1809,
      "PE": 1810,
      "Ġgu": 1811,
      "Ġmap": 1812,
      "node": 1813,
      "textbf": 1814,
      "IC": 1815,
      "ĠAr": 1816,
      "Ġassum": 1817,
      "itive": 1818,
      "['": 1819,
      "varepsilon": 1820,
      "non": 1821,
      "On": 1822,
      "Ġ\\,": 1823,
      "Ġ);": 1824,
      "au": 1825,
      "ood": 1826,
      "Ġlevel": 1827,
      "Ġopt": 1828,
      "ification": 1829,
      "ION": 1830,
      "sl": 1831,
      "Ġpass": 1832,
      "ouse": 1833,
      "rangle": 1834,
      "Ġmed": 1835,
      "plit": 1836,
      "Ġinteg": 1837,
      "Ġcorrespond": 1838,
      "TE": 1839,
      "ĠHow": 1840,
      "fil": 1841,
      "Ġprot": 1842,
      "see": 1843,
      "acter": 1844,
      "path": 1845,
      "}^{\\": 1846,
      "Ġdown": 1847,
      "caption": 1848,
      "search": 1849,
      "sm": 1850,
      "sk": 1851,
      "Ġaut": 1852,
      "public": 1853,
      "aces": 1854,
      "Ġart": 1855,
      "adi": 1856,
      "Ġproject": 1857,
      ")=": 1858,
      "ĠAnd": 1859,
      "bl": 1860,
      "aj": 1861,
      "Ġvis": 1862,
      "Ġassert": 1863,
      "Ġevent": 1864,
      "lobal": 1865,
      ".</": 1866,
      "perties": 1867,
      "ital": 1868,
      "Ġexpl": 1869,
      "oss": 1870,
      "ero": 1871,
      "alk": 1872,
      "const": 1873,
      "omet": 1874,
      "With": 1875,
      "ĠInd": 1876,
      "ior": 1877,
      "fin": 1878,
      "rightarrow": 1879,
      "els": 1880,
      "tribute": 1881,
      "Ġmax": 1882,
      "akes": 1883,
      "pty": 1884,
      "Ġdid": 1885,
      "ĉĉĉĉĉ": 1886,
      "''": 1887,
      "urs": 1888,
      "Ġmuch": 1889,
      "\":": 1890,
      "ke": 1891,
      "rel": 1892,
      "vir": 1893,
      "chool": 1894,
      "eb": 1895,
      "Ġlarge": 1896,
      "map": 1897,
      "Time": 1898,
      "ape": 1899,
      "with": 1900,
      "Node": 1901,
      "itor": 1902,
      "length": 1903,
      "Qu": 1904,
      "hip": 1905,
      "2022": 1906,
      "ampl": 1907,
      "Ġ:=": 1908,
      "Ġmark": 1909,
      "plication": 1910,
      "gorith": 1911,
      "Ġmeasure": 1912,
      "ari": 1913,
      "Ġpath": 1914,
      "Ġabove": 1915,
      "max": 1916,
      "ponse": 1917,
      "Ġtyp": 1918,
      "Ġmem": 1919,
      "arm": 1920,
      "LA": 1921,
      "ession": 1922,
      "Def": 1923,
      "tract": 1924,
      "Ġ?": 1925,
      "\"></": 1926,
      "aining": 1927,
      "Equ": 1928,
      "Ġtarget": 1929,
      "Ġthrow": 1930,
      "33": 1931,
      "Element": 1932,
      "Ġduring": 1933,
      "ators": 1934,
      "Ġpat": 1935,
      "uthor": 1936,
      "Ġcle": 1937,
      "ift": 1938,
      "Event": 1939,
      "60": 1940,
      "Ġgeneral": 1941,
      "Ġdepend": 1942,
      "color": 1943,
      "Ġpar": 1944,
      "meric": 1945,
      "Ġfam": 1946,
      "Ġhelp": 1947,
      "Ġmade": 1948,
      "mit": 1949,
      "ustom": 1950,
      "ope": 1951,
      "ination": 1952,
      "odes": 1953,
      "egraphics": 1954,
      "includegraphics": 1955,
      "Ġstand": 1956,
      "80": 1957,
      "Al": 1958,
      "https": 1959,
      "Ġestim": 1960,
      "Ġcoun": 1961,
      "']": 1962,
      "Ġlog": 1963,
      "ters": 1964,
      "/*": 1965,
      "iness": 1966,
      "Ġleft": 1967,
      "Ġnext": 1968,
      "js": 1969,
      "Ġref": 1970,
      "':": 1971,
      "imal": 1972,
      "util": 1973,
      "Ġmulti": 1974,
      "Add": 1975,
      "Ġexample": 1976,
      "ends": 1977,
      "ivity": 1978,
      "ived": 1979,
      "TR": 1980,
      "pack": 1981,
      "Ġcr": 1982,
      "itional": 1983,
      "Ġdefined": 1984,
      "Ġreport": 1985,
      "ensure": 1986,
      "Ġgood": 1987,
      "rodu": 1988,
      "/**": 1989,
      "Ġbuild": 1990,
      "Ġnode": 1991,
      "iag": 1992,
      "Ġopen": 1993,
      "urther": 1994,
      "AP": 1995,
      "Ġworld": 1996,
      "varphi": 1997,
      "off": 1998,
      "Request": 1999,
      "ogle": 2000,
      "Ġtake": 2001,
      "ynam": 2002,
      "orn": 2003,
      "Ref": 2004,
      "oh": 2005,
      "Ġarray": 2006,
      "ĠCol": 2007,
      "side": 2008,
      "Ġaction": 2009,
      "olean": 2010,
      "frak": 2011,
      "Ġ/>": 2012,
      "result": 2013,
      "lay": 2014,
      "Info": 2015,
      "Ġwant": 2016,
      "Path": 2017,
      "Ġnetwork": 2018,
      "ailable": 2019,
      "acy": 2020,
      "Ġcheck": 2021,
      "ords": 2022,
      "Ġbased": 2023,
      "uc": 2024,
      "ternal": 2025,
      "Ġstill": 2026,
      "ival": 2027,
      "oot": 2028,
      "emph": 2029,
      "Ġ/*": 2030,
      "21": 2031,
      "ĠOn": 2032,
      "geq": 2033,
      "Ġpower": 2034,
      "imension": 2035,
      ".~\\": 2036,
      "ĠYou": 2037,
      "nav": 2038,
      "sup": 2039,
      "inition": 2040,
      "ij": 2041,
      "Index": 2042,
      "orth": 2043,
      "Ġinput": 2044,
      ",âĢĿ": 2045,
      "ysis": 2046,
      "State": 2047,
      "ĠTo": 2048,
      "Map": 2049,
      "wit": 2050,
      "des": 2051,
      "Ġorig": 2052,
      "overline": 2053,
      "27": 2054,
      "ixed": 2055,
      "Ġwrit": 2056,
      "Ġrele": 2057,
      "Big": 2058,
      "Ġpres": 2059,
      "Ġrequest": 2060,
      "Ġsat": 2061,
      "\"\"": 2062,
      "ertain": 2063,
      "ources": 2064,
      "idd": 2065,
      "duct": 2066,
      "bs": 2067,
      "ocus": 2068,
      "Ġquant": 2069,
      ".}": 2070,
      "aper": 2071,
      "UR": 2072,
      "atures": 2073,
      "iter": 2074,
      "Ġcar": 2075,
      "Config": 2076,
      "Man": 2077,
      "uction": 2078,
      "af": 2079,
      "Ġtechn": 2080,
      "dict": 2081,
      "come": 2082,
      "cul": 2083,
      "Ġet": 2084,
      "Text": 2085,
      "Context": 2086,
      "Ġelect": 2087,
      "Ġhtt": 2088,
      "Ġcommun": 2089,
      "proof": 2090,
      "Field": 2091,
      "Ġhead": 2092,
      "Ġown": 2093,
      "Ġbeh": 2094,
      "point": 2095,
      "Ġmag": 2096,
      "Ġtext": 2097,
      "Ġtri": 2098,
      "Ġden": 2099,
      "ride": 2100,
      "ploy": 2101,
      "())": 2102,
      "28": 2103,
      "}).": 2104,
      "Ġsum": 2105,
      "Ġaround": 2106,
      "&\\": 2107,
      "overn": 2108,
      "``": 2109,
      "vec": 2110,
      "ensity": 2111,
      "oper": 2112,
      "stance": 2113,
      "style": 2114,
      ")^": 2115,
      "ox": 2116,
      "user": 2117,
      "ables": 2118,
      "Ġ(!": 2119,
      "ĠSc": 2120,
      "AD": 2121,
      "Ġinitial": 2122,
      "ale": 2123,
      "iversity": 2124,
      "arly": 2125,
      "Ġcur": 2126,
      "Ġwithout": 2127,
      "ware": 2128,
      "Ġmodels": 2129,
      "cription": 2130,
      "Ġtitle": 2131,
      "[\\": 2132,
      "ats": 2133,
      "eff": 2134,
      "Ġrefer": 2135,
      "inc": 2136,
      "ait": 2137,
      "////////": 2138,
      "},\\": 2139,
      "from": 2140,
      "mathfrak": 2141,
      "ibr": 2142,
      "igned": 2143,
      "eep": 2144,
      "Ġ},": 2145,
      "Ġcontent": 2146,
      "Ġbest": 2147,
      "ately": 2148,
      "comp": 2149,
      "IS": 2150,
      "ene": 2151,
      "Ġpost": 2152,
      "uck": 2153,
      "plement": 2154,
      "=\"../../": 2155,
      "light": 2156,
      "Array": 2157,
      "Ġmov": 2158,
      "Ġwithin": 2159,
      "Ġdon": 2160,
      "Ġview": 2161,
      "Ġsource": 2162,
      "Ġdeterm": 2163,
      "Over": 2164,
      "âĢĵ": 2165,
      "Ġcompon": 2166,
      "Ġchild": 2167,
      "ains": 2168,
      "apache": 2169,
      "Ġspect": 2170,
      "ED": 2171,
      "void": 2172,
      "iled": 2173,
      "LO": 2174,
      "Ġuser": 2175,
      "Ġshown": 2176,
      "ES": 2177,
      "wid": 2178,
      "2020": 2179,
      "erefore": 2180,
      "Ġsimilar": 2181,
      "andom": 2182,
      "If": 2183,
      "usiness": 2184,
      "Ġsingle": 2185,
      "iving": 2186,
      "bit": 2187,
      "api": 2188,
      "AS": 2189,
      "Ġredu": 2190,
      "Ġbas": 2191,
      "Ġparticular": 2192,
      "Ġpop": 2193,
      "!--": 2194,
      "atter": 2195,
      "Ġ});": 2196,
      "ĠAmeric": 2197,
      "Ġserv": 2198,
      "imum": 2199,
      "otential": 2200,
      "Ġdefault": 2201,
      "object": 2202,
      "por": 2203,
      "mm": 2204,
      "Ġappe": 2205,
      "Ġstudy": 2206,
      "Re": 2207,
      "orph": 2208,
      "til": 2209,
      "ĠSe": 2210,
      "cor": 2211,
      "Service": 2212,
      "ording": 2213,
      "26": 2214,
      "ique": 2215,
      "langle": 2216,
      "model": 2217,
      "Item": 2218,
      "lim": 2219,
      "ymmet": 2220,
      "Ġincluding": 2221,
      "Not": 2222,
      "ĠPh": 2223,
      "Ġblock": 2224,
      "hes": 2225,
      "Let": 2226,
      "angu": 2227,
      "Ġfollows": 2228,
      "Ġconstr": 2229,
      "Ġsection": 2230,
      "ugg": 2231,
      "define": 2232,
      "45": 2233,
      "assert": 2234,
      "Ġcontext": 2235,
      "hline": 2236,
      "aut": 2237,
      "ui": 2238,
      ")(": 2239,
      "MP": 2240,
      "Or": 2241,
      "Ġcontrol": 2242,
      "Ġdom": 2243,
      "Ġcho": 2244,
      "Ġtot": 2245,
      "Ġchang": 2246,
      "true": 2247,
      "iod": 2248,
      "ret": 2249,
      "Ġ($": 2250,
      "Ġparameters": 2251,
      "aster": 2252,
      "Ġdiscuss": 2253,
      "icle": 2254,
      "Ġexist": 2255,
      "++": 2256,
      "ways": 2257,
      "Ġinterest": 2258,
      "Ġsol": 2259,
      "input": 2260,
      "amespace": 2261,
      "Ġ__": 2262,
      "UT": 2263,
      "uf": 2264,
      "icy": 2265,
      "lish": 2266,
      "Ġlow": 2267,
      "Ġcorre": 2268,
      "****************": 2269,
      "pose": 2270,
      "Ġstat": 2271,
      "Des": 2272,
      "Ġterms": 2273,
      "Ġteam": 2274,
      "Ġproduct": 2275,
      "Ġdel": 2276,
      "uary": 2277,
      "Lambda": 2278,
      "ags": 2279,
      "}}$": 2280,
      "bolds": 2281,
      "ĠIs": 2282,
      "Ġconfig": 2283,
      "Ġchange": 2284,
      "lected": 2285,
      "Ġindex": 2286,
      "ĠĠĠĠĠĠĠĠĠĠĠĠĠĠĠĠĠĠĠĠĠĠĠĠĠĠĠ": 2287,
      "CH": 2288,
      "nab": 2289,
      "99": 2290,
      "config": 2291,
      "System": 2292,
      "Ġprogram": 2293,
      "Ġdue": 2294,
      "Ġcreate": 2295,
      "boldsymbol": 2296,
      "';": 2297,
      "plate": 2298,
      "Is": 2299,
      "ients": 2300,
      "www": 2301,
      "ldots": 2302,
      "Ġpossible": 2303,
      "ouble": 2304,
      "arning": 2305,
      "nal": 2306,
      "Ġtry": 2307,
      "isf": 2308,
      "[]": 2309,
      "Ġq": 2310,
      "ux": 2311,
      "ĠBut": 2312,
      "mbox": 2313,
      "urity": 2314,
      "Ġinstance": 2315,
      "ump": 2316,
      "ING": 2317,
      "Ġbro": 2318,
      "error": 2319,
      "Ġconf": 2320,
      "ety": 2321,
      "Ġrange": 2322,
      "Ġfour": 2323,
      "Ġcalled": 2324,
      "gorithm": 2325,
      "Ġenc": 2326,
      "IG": 2327,
      "ync": 2328,
      "icon": 2329,
      "ules": 2330,
      "FF": 2331,
      "âĢ¦": 2332,
      "Ġ===": 2333,
      "Ġdep": 2334,
      "ĠWh": 2335,
      "pd": 2336,
      "ĠAd": 2337,
      "Code": 2338,
      "sf": 2339,
      "valid": 2340,
      "ched": 2341,
      "Phi": 2342,
      "block": 2343,
      "appa": 2344,
      "ised": 2345,
      "Ġdem": 2346,
      "2021": 2347,
      "Size": 2348,
      "Of": 2349,
      "29": 2350,
      "Ġassoci": 2351,
      "Ġrece": 2352,
      "Ġmean": 2353,
      "si": 2354,
      "35": 2355,
      "viron": 2356,
      "Ġdeta": 2357,
      "dt": 2358,
      "ances": 2359,
      "ecut": 2360,
      "Ġinvest": 2361,
      "ependent": 2362,
      "Ġimp": 2363,
      "prov": 2364,
      "ĠPr": 2365,
      "istic": 2366,
      "nder": 2367,
      "Ġocc": 2368,
      "Ġthink": 2369,
      "posed": 2370,
      "atrix": 2371,
      "Form": 2372,
      "####": 2373,
      "ches": 2374,
      "Ġdat": 2375,
      "Ġcharacter": 2376,
      "Ġclos": 2377,
      "ither": 2378,
      "75": 2379,
      "Ġbeg": 2380,
      "md": 2381,
      "=\"+": 2382,
      "otimes": 2383,
      "eturn": 2384,
      "ĠâĢĺ": 2385,
      "ĠRe": 2386,
      "ĠHowever": 2387,
      "utton": 2388,
      "Ġcode": 2389,
      "ateg": 2390,
      "Hand": 2391,
      ".\\": 2392,
      "2018": 2393,
      "Ġversion": 2394,
      "Ġpoints": 2395,
      "body": 2396,
      "nabla": 2397,
      "Ġder": 2398,
      "}),": 2399,
      "ĠFr": 2400,
      "ling": 2401,
      "create": 2402,
      "state": 2403,
      "Ġdistribution": 2404,
      "Ġsk": 2405,
      "Result": 2406,
      "version": 2407,
      "AB": 2408,
      "ird": 2409,
      "amples": 2410,
      "Ġexpect": 2411,
      "ET": 2412,
      "Ġrequire": 2413,
      "xim": 2414,
      "Ġparameter": 2415,
      "prot": 2416,
      "Ġfull": 2417,
      "ready": 2418,
      "Ġlimit": 2419,
      "Ġavailable": 2420,
      "All": 2421,
      "ponent": 2422,
      "Ġshows": 2423,
      "abled": 2424,
      "stand": 2425,
      "loat": 2426,
      "Ġstructure": 2427,
      "down": 2428,
      "2019": 2429,
      "aving": 2430,
      "He": 2431,
      "Ġimage": 2432,
      "ium": 2433,
      ".\"": 2434,
      "90": 2435,
      "icient": 2436,
      "kappa": 2437,
      "Ġprevious": 2438,
      "Ġpotential": 2439,
      "From": 2440,
      "Model": 2441,
      "Ġbreak": 2442,
      "Ġsay": 2443,
      "ru": 2444,
      "quot": 2445,
      "Ġperson": 2446,
      "tes": 2447,
      "Ġagainst": 2448,
      "draw": 2449,
      "tings": 2450,
      "2017": 2451,
      "Ġcap": 2452,
      "Ġeas": 2453,
      "ĠâĢĶ": 2454,
      "enu": 2455,
      "Ġgame": 2456,
      "ML": 2457,
      "ĠThen": 2458,
      "Ġlink": 2459,
      "Ġaccess": 2460,
      "Ġ};": 2461,
      "Ġ``": 2462,
      "ison": 2463,
      "itt": 2464,
      "sw": 2465,
      "lin": 2466,
      "Build": 2467,
      "Dis": 2468,
      "ustr": 2469,
      "clus": 2470,
      "mp": 2471,
      "aterial": 2472,
      "annel": 2473,
      "Ġnil": 2474,
      "sem": 2475,
      "nonumber": 2476,
      "ĠAll": 2477,
      "Ġadv": 2478,
      "Ġiss": 2479,
      "})$": 2480,
      "Ġtotal": 2481,
      "Ġimportant": 2482,
      "uster": 2483,
      "ended": 2484,
      "Ġanother": 2485,
      "eed": 2486,
      "ottom": 2487,
      "lient": 2488,
      "ĠGet": 2489,
      "Ġstrong": 2490,
      "iment": 2491,
      "cond": 2492,
      "Ġspe": 2493,
      "Ġfunctions": 2494,
      "Ġsever": 2495,
      "01": 2496,
      "citep": 2497,
      "default": 2498,
      "ention": 2499,
      "word": 2500,
      "Ġoptions": 2501,
      "And": 2502,
      "istory": 2503,
      "Val": 2504,
      "uture": 2505,
      "start": 2506,
      "title": 2507,
      "Ġweek": 2508,
      "ume": 2509,
      "ĠOb": 2510,
      "Ġsuper": 2511,
      "Ġcour": 2512,
      "ina": 2513,
      "include": 2514,
      "~~": 2515,
      "ĠSystem": 2516,
      "Ġfree": 2517,
      "ained": 2518,
      "Ġmatrix": 2519,
      "Ġsatisf": 2520,
      "cap": 2521,
      "Ġexpected": 2522,
      "ored": 2523,
      "Ġmom": 2524,
      "Ġlarg": 2525,
      "Ġalong": 2526,
      "ĠDe": 2527,
      "ansp": 2528,
      "Ser": 2529,
      "Ġsolution": 2530,
      "New": 2531,
      "Ġcomb": 2532,
      "anguage": 2533,
      "UN": 2534,
      "2016": 2535,
      "ender": 2536,
      "ii": 2537,
      "Ġday": 2538,
      "subset": 2539,
      "inary": 2540,
      "ven": 2541,
      "70": 2542,
      "ĠAt": 2543,
      "\\|": 2544,
      "Ġsequ": 2545,
      "textit": 2546,
      "Ġold": 2547,
      "rec": 2548,
      "oin": 2549,
      "Ġposition": 2550,
      "Ġlength": 2551,
      "Ġfew": 2552,
      "Ġplace": 2553,
      "ken": 2554,
      "Se": 2555,
      "check": 2556,
      "MA": 2557,
      "Message": 2558,
      "Ġbackground": 2559,
      "opt": 2560,
      "Ġitem": 2561,
      "earch": 2562,
      "Ġregion": 2563,
      "eter": 2564,
      "ibility": 2565,
      "vari": 2566,
      "ially": 2567,
      "irt": 2568,
      "Ġturn": 2569,
      "Ġknown": 2570,
      "Ġcell": 2571,
      "Ġjava": 2572,
      "tra": 2573,
      "Ġless": 2574,
      "ĠCO": 2575,
      "iction": 2576,
      "outh": 2577,
      "Ġvert": 2578,
      "omen": 2579,
      "eve": 2580,
      "Ġgraph": 2581,
      "ped": 2582,
      "ides": 2583,
      "Sigma": 2584,
      "Ġgrow": 2585,
      "Out": 2586,
      "Inter": 2587,
      "uments": 2588,
      "Ġbase": 2589,
      "Ġaff": 2590,
      "oud": 2591,
      "Ġindic": 2592,
      "Ġvol": 2593,
      "tainer": 2594,
      "wide": 2595,
      "Ġlaw": 2596,
      "ĠThey": 2597,
      "Ġcontinu": 2598,
      "ĠĠĠĠĠĠĠĠĠĠĠĠ": 2599,
      "ĠMar": 2600,
      "ands": 2601,
      "ĠBy": 2602,
      "Ġanalysis": 2603,
      "Ġstates": 2604,
      "âĢĶ": 2605,
      "Ġnear": 2606,
      "OT": 2607,
      "Ġlife": 2608,
      "Ġintrodu": 2609,
      "Ġaddress": 2610,
      "ideo": 2611,
      "Ġsuccess": 2612,
      "onse": 2613,
      "='": 2614,
      "dev": 2615,
      "\\%": 2616,
      "Table": 2617,
      "ude": 2618,
      "Ġproperty": 2619,
      "Ġsignific": 2620,
      "Ġcolor": 2621,
      "}}{": 2622,
      "198": 2623,
      "lang": 2624,
      "){": 2625,
      "using": 2626,
      "Ġobtained": 2627,
      "ĠUS": 2628,
      "vironment": 2629,
      "ĠPl": 2630,
      "Ġresponse": 2631,
      "Ġrate": 2632,
      "Query": 2633,
      "ograph": 2634,
      "Fil": 2635,
      "ĠEn": 2636,
      "Reg": 2637,
      "irection": 2638,
      "Ġscal": 2639,
      "Ġbetter": 2640,
      "ĠĠĠĠĠĠĠĠĠĠ": 2641,
      "Ġoutput": 2642,
      "US": 2643,
      "ULL": 2644,
      "next": 2645,
      "Ġconstant": 2646,
      "Ġstandard": 2647,
      "info": 2648,
      "Ġpaper": 2649,
      "illion": 2650,
      "ensuremath": 2651,
      "Ġpredict": 2652,
      "34": 2653,
      "Ġdeg": 2654,
      "Ã©": 2655,
      "/\\": 2656,
      "ĠLet": 2657,
      "ports": 2658,
      "ĠShe": 2659,
      "icro": 2660,
      "Ġtimes": 2661,
      "Ġide": 2662,
      "Rec": 2663,
      "Ġcount": 2664,
      "Ġwidth": 2665,
      "istr": 2666,
      "sequ": 2667,
      "ĠSp": 2668,
      "ename": 2669,
      "aim": 2670,
      "Ġphot": 2671,
      "\\[": 2672,
      "Ġsit": 2673,
      "Ġlay": 2674,
      "Ġcou": 2675,
      "Ġ-->": 2676,
      "ĠOr": 2677,
      "Ġcrit": 2678,
      "ĠUniversity": 2679,
      "Ġquest": 2680,
      "ĉĊ": 2681,
      "Fig": 2682,
      "hether": 2683,
      "refer": 2684,
      "uro": 2685,
      "widet": 2686,
      "cit": 2687,
      "2015": 2688,
      "Manager": 2689,
      "IP": 2690,
      "Ġcomplex": 2691,
      "Ġleast": 2692,
      "oll": 2693,
      "reen": 2694,
      "ges": 2695,
      "ending": 2696,
      "idual": 2697,
      "roller": 2698,
      "uation": 2699,
      "Ġtoo": 2700,
      "Ġca": 2701,
      "Ġequation": 2702,
      "Ġalready": 2703,
      "Pr": 2704,
      "05": 2705,
      "ifier": 2706,
      "ocial": 2707,
      "Ġinclude": 2708,
      "Ġprovide": 2709,
      "Ġalways": 2710,
      "Ġdensity": 2711,
      "Log": 2712,
      "content": 2713,
      "Ġcover": 2714,
      "reate": 2715,
      "ks": 2716,
      "Ġcalcul": 2717,
      "uman": 2718,
      "Ġapproach": 2719,
      "dots": 2720,
      "Ġlight": 2721,
      "Read": 2722,
      "Ġindu": 2723,
      "verage": 2724,
      "Ġgreat": 2725,
      "Ġrecent": 2726,
      "Ġtheory": 2727,
      "Ġshort": 2728,
      "Property": 2729,
      "Ġoriginal": 2730,
      "Ġperformance": 2731,
      "cast": 2732,
      "Ġbook": 2733,
      "Ġservice": 2734,
      "CC": 2735,
      "Ġann": 2736,
      "widetilde": 2737,
      "Ġcorresponding": 2738,
      "usic": 2739,
      "aint": 2740,
      "context": 2741,
      "--------------------------------": 2742,
      "bt": 2743,
      "Ġvalid": 2744,
      "Ġrequired": 2745,
      "ĠJan": 2746,
      "method": 2747,
      "android": 2748,
      "Ġfamily": 2749,
      "base": 2750,
      "ĠGr": 2751,
      "Client": 2752,
      "Ġmethods": 2753,
      "Ġes": 2754,
      "36": 2755,
      "Ġla": 2756,
      "ENT": 2757,
      "ohn": 2758,
      "ĠSo": 2759,
      "Group": 2760,
      "Ġsche": 2761,
      "Pl": 2762,
      "Ġsrc": 2763,
      "lished": 2764,
      "Ad": 2765,
      "TH": 2766,
      "mon": 2767,
      "Ġorgan": 2768,
      "\\!": 2769,
      "ley": 2770,
      "OD": 2771,
      "Ġphys": 2772,
      "resh": 2773,
      "Ġtask": 2774,
      "oop": 2775,
      "Cell": 2776,
      "now": 2777,
      "ĠTe": 2778,
      "Ġmatch": 2779,
      "ĠThere": 2780,
      "acc": 2781,
      "Ġmight": 2782,
      "une": 2783,
      "Ġdesign": 2784,
      "Ġapproxim": 2785,
      "Ġbool": 2786,
      "ves": 2787,
      "Ġproperties": 2788,
      "bra": 2789,
      "Ġfurther": 2790,
      "ories": 2791,
      "Ġpair": 2792,
      "ajor": 2793,
      "2014": 2794,
      "ably": 2795,
      "Ġaccount": 2796,
      "asing": 2797,
      "Ġtable": 2798,
      "{-": 2799,
      "Ġresearch": 2800,
      "alf": 2801,
      "48": 2802,
      "55": 2803,
      "call": 2804,
      "Ġsl": 2805,
      "ury": 2806,
      "sing": 2807,
      "](": 2808,
      "Response": 2809,
      "================": 2810,
      "ework": 2811,
      "Ġabs": 2812,
      "31": 2813,
      "oken": 2814,
      "Ġsom": 2815,
      "epar": 2816,
      "Ġsignificant": 2817,
      "Ġconditions": 2818,
      "java": 2819,
      "Ġhapp": 2820,
      "Ġstyle": 2821,
      "Ġbusiness": 2822,
      "ising": 2823,
      "Ġcondition": 2824,
      "Ġdiff": 2825,
      "ĠIN": 2826,
      "ĠBl": 2827,
      "ĠSet": 2828,
      "Ġhy": 2829,
      "func": 2830,
      "Ġperiod": 2831,
      "Up": 2832,
      "Color": 2833,
      "PI": 2834,
      "ai": 2835,
      "foot": 2836,
      "Call": 2837,
      "erg": 2838,
      "uk": 2839,
      "Ġseries": 2840,
      "Ġside": 2841,
      "Ġ<<": 2842,
      "prime": 2843,
      "Ġsystems": 2844,
      "Ġmeans": 2845,
      "Ġnormal": 2846,
      "Ġlower": 2847,
      "my": 2848,
      "hand": 2849,
      "circ": 2850,
      "Ġcases": 2851,
      "Trans": 2852,
      "Ġmonth": 2853,
      "ensor": 2854,
      ";&": 2855,
      "ĠBr": 2856,
      "rior": 2857,
      "Arg": 2858,
      "wise": 2859,
      "66": 2860,
      "aff": 2861,
      "event": 2862,
      "xy": 2863,
      "Ġcost": 2864,
      "ĠMan": 2865,
      "Ġrandom": 2866,
      "ĉĉĉĉĉĉ": 2867,
      "Ġeither": 2868,
      "Ġseveral": 2869,
      "TD": 2870,
      "Ġhigher": 2871,
      "}-": 2872,
      "iam": 2873,
      "Exp": 2874,
      "urb": 2875,
      "Ġmessage": 2876,
      "=\"../../../../": 2877,
      "Ġgoing": 2878,
      "book": 2879,
      "Ġhealth": 2880,
      "anel": 2881,
      "zeta": 2882,
      "ĠEng": 2883,
      "Ġcontribut": 2884,
      "IR": 2885,
      "Count": 2886,
      "}+": 2887,
      "ĠNo": 2888,
      "leg": 2889,
      "ns": 2890,
      "0000": 2891,
      "Ġgovern": 2892,
      "iff": 2893,
      "mult": 2894,
      "Ġgl": 2895,
      "agement": 2896,
      "centering": 2897,
      "Ġbelow": 2898,
      "ĠÐ": 2899,
      "Ġput": 2900,
      "Ġcare": 2901,
      "Ġphase": 2902,
      "Ġschool": 2903,
      "Ġvector": 2904,
      "ply": 2905,
      "Ġred": 2906,
      "place": 2907,
      "38": 2908,
      "plied": 2909,
      "])": 2910,
      "Ġleg": 2911,
      "core": 2912,
      "static": 2913,
      "IL": 2914,
      "Method": 2915,
      "Mod": 2916,
      "Ġstd": 2917,
      "((": 2918,
      "spec": 2919,
      "doc": 2920,
      "package": 2921,
      "Fact": 2922,
      "option": 2923,
      "options": 2924,
      "ĠCent": 2925,
      "39": 2926,
      "small": 2927,
      "Ġassociated": 2928,
      "Fr": 2929,
      "conn": 2930,
      "ĠThese": 2931,
      "gress": 2932,
      "dom": 2933,
      "mark": 2934,
      "Ġrespectively": 2935,
      "\\]": 2936,
      ">&": 2937,
      "Override": 2938,
      "Ġhard": 2939,
      "ĠMay": 2940,
      "Ġhome": 2941,
      "Ġmot": 2942,
      "ĠRep": 2943,
      "Input": 2944,
      "Stream": 2945,
      "End": 2946,
      "false": 2947,
      "User": 2948,
      "based": 2949,
      "gt": 2950,
      "\\{": 2951,
      "Ġ&=": 2952,
      "Ġdynam": 2953,
      "Ġlinear": 2954,
      "ĠEq": 2955,
      "OS": 2956,
      "ittle": 2957,
      "eh": 2958,
      "dec": 2959,
      "Ġimplement": 2960,
      "Ġdocument": 2961,
      "ordin": 2962,
      "print": 2963,
      "image": 2964,
      "Ġpur": 2965,
      "Ġrest": 2966,
      "wards": 2967,
      "Ġdiag": 2968,
      "Ġtemper": 2969,
      "flow": 2970,
      "ights": 2971,
      "Ġgive": 2972,
      "Wh": 2973,
      "web": 2974,
      "rist": 2975,
      "pen": 2976,
      "ological": 2977,
      "tem": 2978,
      "ĠWith": 2979,
      "arr": 2980,
      "prop": 2981,
      "lt": 2982,
      "2013": 2983,
      "Ġarea": 2984,
      "Ġparent": 2985,
      "ours": 2986,
      "Ġelements": 2987,
      "atform": 2988,
      "II": 2989,
      "ently": 2990,
      "Ġproof": 2991,
      "hem": 2992,
      ";\\": 2993,
      "init": 2994,
      "Ġdefine": 2995,
      "Ġglobal": 2996,
      "Ġbig": 2997,
      "Ġnum": 2998,
      "plies": 2999,
      "Ġfocus": 3000,
      "HE": 3001,
      "Ġcoll": 3002,
      ">(": 3003,
      "Ġfeatures": 3004,
      "dr": 3005,
      "Ġsays": 3006,
      "ober": 3007,
      "uggest": 3008,
      "Ġbehav": 3009,
      ")=\\": 3010,
      "37": 3011,
      "aring": 3012,
      "element": 3013,
      "tabular": 3014,
      "Ġneg": 3015,
      "Ġmoment": 3016,
      "omic": 3017,
      "Builder": 3018,
      "current": 3019,
      "How": 3020,
      "ĠAp": 3021,
      "Ġintegr": 3022,
      "display": 3023,
      "Sub": 3024,
      "Ġeval": 3025,
      "cy": 3026,
      "verse": 3027,
      "Ġcy": 3028,
      "google": 3029,
      "db": 3030,
      "Ġeng": 3031,
      ",\"": 3032,
      "No": 3033,
      "lying": 3034,
      "ithub": 3035,
      "CE": 3036,
      ")]": 3037,
      "Ġreally": 3038,
      "skip": 3039,
      "Ġstep": 3040,
      "Ġlabel": 3041,
      "Ġge": 3042,
      "cos": 3043,
      "ĠSup": 3044,
      "Ġacross": 3045,
      "Status": 3046,
      "Ġseen": 3047,
      "Ġlik": 3048,
      "lex": 3049,
      "Ġprom": 3050,
      "Ġzero": 3051,
      "aged": 3052,
      ")}\\": 3053,
      "MS": 3054,
      "omorph": 3055,
      "44": 3056,
      "thing": 3057,
      "Ð°": 3058,
      "TO": 3059,
      "olutions": 3060,
      "Ġfore": 3061,
      "amed": 3062,
      "Ġang": 3063,
      "abase": 3064,
      "Ġbu": 3065,
      "do": 3066,
      "aken": 3067,
      "Ġseem": 3068,
      "Image": 3069,
      "de": 3070,
      "ought": 3071,
      "idence": 3072,
      "actions": 3073,
      "Ġwhether": 3074,
      "}=\\": 3075,
      "ĠTheorem": 3076,
      "NA": 3077,
      "emma": 3078,
      "Ġspecial": 3079,
      "Ġvia": 3080,
      "Ġpay": 3081,
      "uid": 3082,
      "ony": 3083,
      "ĠLe": 3084,
      "ĠMed": 3085,
      "Ġpo": 3086,
      "Ġscale": 3087,
      "Ġradi": 3088,
      "Ġsuff": 3089,
      "Ġant": 3090,
      "chan": 3091,
      "Ð¾": 3092,
      "Ġcolumn": 3093,
      "EE": 3094,
      "thm": 3095,
      "Ġdiv": 3096,
      "ĠCar": 3097,
      "Ġcustom": 3098,
      "member": 3099,
      "ĠSec": 3100,
      "pect": 3101,
      "Ġpositive": 3102,
      "Ġsimple": 3103,
      "css": 3104,
      "SP": 3105,
      "ĠIm": 3106,
      "which": 3107,
      "olved": 3108,
      "Ġalgorithm": 3109,
      "run": 3110,
      "ecess": 3111,
      "ategory": 3112,
      "Ġsepar": 3113,
      "pc": 3114,
      "ĠCan": 3115,
      "AG": 3116,
      "most": 3117,
      "Ġoperator": 3118,
      "ocol": 3119,
      "2012": 3120,
      "2023": 3121,
      "height": 3122,
      "cell": 3123,
      "active": 3124,
      "aps": 3125,
      "Ġlater": 3126,
      "local": 3127,
      "Ġfund": 3128,
      "Ġpack": 3129,
      "Ġevents": 3130,
      "Ġfar": 3131,
      "github": 3132,
      "Ġconstruct": 3133,
      "build": 3134,
      "Ġsymmet": 3135,
      "Ġund": 3136,
      "Ġfields": 3137,
      "ĠTest": 3138,
      "Ġnever": 3139,
      "Ġrelations": 3140,
      ")^{": 3141,
      "gener": 3142,
      "ERT": 3143,
      "08": 3144,
      "stit": 3145,
      "plicit": 3146,
      "ĠSection": 3147,
      "Ġindiv": 3148,
      "used": 3149,
      "Gener": 3150,
      "Ġcompany": 3151,
      "{(": 3152,
      "ĠPol": 3153,
      "Ġpage": 3154,
      "ĠMore": 3155,
      "Ġfrequ": 3156,
      "argin": 3157,
      "Ġdone": 3158,
      "Ġplan": 3159,
      "cer": 3160,
      "png": 3161,
      "ball": 3162,
      "enn": 3163,
      "ĠDis": 3164,
      "Ġcross": 3165,
      "Ġfuture": 3166,
      "EX": 3167,
      "ering": 3168,
      "Ġbi": 3169,
      "alax": 3170,
      "ĠWhen": 3171,
      "mail": 3172,
      "}]": 3173,
      "client": 3174,
      "Ġexists": 3175,
      "Str": 3176,
      "Ġgot": 3177,
      "Ap": 3178,
      "null": 3179,
      "Ġfinite": 3180,
      "$)": 3181,
      "Ġtraining": 3182,
      "nown": 3183,
      "Ġloc": 3184,
      "case": 3185,
      "medi": 3186,
      "Ġ()": 3187,
      "Date": 3188,
      "95": 3189,
      "witch": 3190,
      "ething": 3191,
      "Ġtre": 3192,
      "scale": 3193,
      "Ġloss": 3194,
      "Ġkeep": 3195,
      "icense": 3196,
      "Ġable": 3197,
      "orage": 3198,
      "Source": 3199,
      "NS": 3200,
      "Ġcommon": 3201,
      "Ġcome": 3202,
      "cho": 3203,
      "pol": 3204,
      "operator": 3205,
      "ĠInt": 3206,
      "Psi": 3207,
      "Bar": 3208,
      "Ġfac": 3209,
      "Ġsample": 3210,
      "Ġflow": 3211,
      "otype": 3212,
      "Ġconsist": 3213,
      "Equal": 3214,
      "({": 3215,
      "Ġspecific": 3216,
      "creen": 3217,
      "onal": 3218,
      "cdots": 3219,
      "Ġclose": 3220,
      "Ġrole": 3221,
      "Ġuntil": 3222,
      "ĠList": 3223,
      "ĠComm": 3224,
      "ĠĠĠĠĠĠĠĠĠĠĠĠĠĠĠĠĠ": 3225,
      "Ġpract": 3226,
      "ĠNULL": 3227,
      "ONT": 3228,
      "Null": 3229,
      "Ġemploy": 3230,
      "ynt": 3231,
      "Ġlines": 3232,
      "izer": 3233,
      "Ġfeature": 3234,
      "=\"../": 3235,
      "ĠCo": 3236,
      "izing": 3237,
      "Ġprovided": 3238,
      "Token": 3239,
      "irtual": 3240,
      "Ġboolean": 3241,
      "server": 3242,
      "=\"#": 3243,
      "ĠAdd": 3244,
      "dir": 3245,
      "widehat": 3246,
      "}|": 3247,
      "65": 3248,
      "ĠGe": 3249,
      "tx": 3250,
      "has": 3251,
      "Block": 3252,
      "ĠAmerican": 3253,
      "ilities": 3254,
      "Action": 3255,
      "Ġtoget": 3256,
      "Paramet": 3257,
      "arams": 3258,
      "ula": 3259,
      "imensional": 3260,
      "ring": 3261,
      "Ġtogether": 3262,
      "atural": 3263,
      "Ġaverage": 3264,
      "char": 3265,
      "gen": 3266,
      "Sc": 3267,
      "ires": 3268,
      "ries": 3269,
      "Ġwrite": 3270,
      "ls": 3271,
      "lemma": 3272,
      "Sec": 3273,
      "04": 3274,
      "Ġmajor": 3275,
      "oke": 3276,
      "oo": 3277,
      "Ġsem": 3278,
      "imate": 3279,
      "Ðµ": 3280,
      "Pos": 3281,
      "Ġenough": 3282,
      "Ġperm": 3283,
      "Ġsuggest": 3284,
      "page": 3285,
      "Ġfactor": 3286,
      "Ed": 3287,
      "though": 3288,
      "Ġrecord": 3289,
      "}\\,": 3290,
      "Off": 3291,
      "}_\\": 3292,
      "anch": 3293,
      "Head": 3294,
      ",-": 3295,
      "}^\\": 3296,
      "ements": 3297,
      "Ġtrack": 3298,
      "ips": 3299,
      "fe": 3300,
      "Ġindividual": 3301,
      "ĠĠĠĠĠĠĠĠĠĠĠĠĠĠĠĠĠĠĠĠĠĠĠĠĠĠĠĠĠĠĠ": 3302,
      "gebra": 3303,
      "apping": 3304,
      "imary": 3305,
      "Ġexact": 3306,
      "Ġreason": 3307,
      "Ġhttp": 3308,
      "07": 3309,
      "qquad": 3310,
      "GL": 3311,
      "Ġport": 3312,
      ";</": 3313,
      "Sup": 3314,
      "older": 3315,
      "Ġ\"\"\"": 3316,
      "ĠBe": 3317,
      "Instance": 3318,
      ".~": 3319,
      "App": 3320,
      "ĠFe": 3321,
      "Ġfit": 3322,
      "ĠReg": 3323,
      "OP": 3324,
      "ze": 3325,
      "astic": 3326,
      "ĠDr": 3327,
      "02": 3328,
      "aging": 3329,
      "Ġclear": 3330,
      "2011": 3331,
      "Ġhom": 3332,
      "Ġben": 3333,
      "Ġconsidered": 3334,
      "ibrary": 3335,
      "Ġcomponent": 3336,
      "Ġmarket": 3337,
      "Ġrow": 3338,
      "2010": 3339,
      "Ġunderstand": 3340,
      "eline": 3341,
      "IM": 3342,
      "ional": 3343,
      "netic": 3344,
      "Ġamong": 3345,
      "Ġcertain": 3346,
      "YPE": 3347,
      "request": 3348,
      "query": 3349,
      "Ġmultiple": 3350,
      "Ġauthor": 3351,
      "thers": 3352,
      "Ġhost": 3353,
      "ulations": 3354,
      "ung": 3355,
      "ATE": 3356,
      "AM": 3357,
      "Conn": 3358,
      "Style": 3359,
      "ĠMin": 3360,
      "Ġins": 3361,
      "count": 3362,
      "Ġthus": 3363,
      "Ġobserved": 3364,
      "^+": 3365,
      "Ġsurface": 3366,
      "ĠJohn": 3367,
      "ĠNov": 3368,
      "Ġfa": 3369,
      "bb": 3370,
      "Ġfail": 3371,
      ")</": 3372,
      "Ġsearch": 3373,
      "CK": 3374,
      "uly": 3375,
      "{{\\": 3376,
      "plac": 3377,
      "alt": 3378,
      "Ġbody": 3379,
      "Ġfixed": 3380,
      "Ġcannot": 3381,
      "target": 3382,
      "abor": 3383,
      "UL": 3384,
      "sg": 3385,
      "Line": 3386,
      "ĠÂ": 3387,
      "&=": 3388,
      "igen": 3389,
      "})\\": 3390,
      "Options": 3391,
      "ached": 3392,
      "args": 3393,
      "Ġrelated": 3394,
      "ino": 3395,
      "Ġpress": 3396,
      "Run": 3397,
      "ĠĠĠĠĠĠĠĠĠĠĠĠĠĠ": 3398,
      "Ġaddition": 3399,
      "Ġexpress": 3400,
      "module": 3401,
      "select": 3402,
      "ftware": 3403,
      "Comp": 3404,
      "Ġoffic": 3405,
      "ĠCal": 3406,
      "ĠQu": 3407,
      "Ġsequence": 3408,
      "HT": 3409,
      "Ġwater": 3410,
      "isk": 3411,
      "Ġver": 3412,
      "append": 3413,
      "Ġequival": 3414,
      "Attribute": 3415,
      "Ġdirection": 3416,
      "rum": 3417,
      "Ġachi": 3418,
      "Ġconver": 3419,
      "indent": 3420,
      "Ġload": 3421,
      "adata": 3422,
      "ĠNot": 3423,
      "Base": 3424,
      "Ġquantum": 3425,
      "lib": 3426,
      "Ġoften": 3427,
      "ĠDef": 3428,
      "({\\": 3429,
      "ament": 3430,
      "Ġbecome": 3431,
      "Ġmove": 3432,
      "ards": 3433,
      "Resource": 3434,
      "oding": 3435,
      "Ġblack": 3436,
      "avel": 3437,
      "06": 3438,
      "Ġindependent": 3439,
      "child": 3440,
      "change": 3441,
      "ĠThat": 3442,
      "ĠOne": 3443,
      "Ġchanges": 3444,
      "Sp": 3445,
      "Ġtransform": 3446,
      "Ġnecess": 3447,
      "Ġmode": 3448,
      "ales": 3449,
      "ections": 3450,
      "[\"": 3451,
      "Content": 3452,
      "Ġbeli": 3453,
      "Ġrat": 3454,
      "Ġdays": 3455,
      "namespace": 3456,
      "ilt": 3457,
      "ensions": 3458,
      "ĠUnited": 3459,
      "Par": 3460,
      "78": 3461,
      "Ġreview": 3462,
      "Ġlittle": 3463,
      "Ġlearning": 3464,
      "elete": 3465,
      "Ġborder": 3466,
      "pdf": 3467,
      "Ġearly": 3468,
      "ians": 3469,
      "Act": 3470,
      "Ġwin": 3471,
      "Rep": 3472,
      "igation": 3473,
      "Ġnumer": 3474,
      "ogn": 3475,
      "Ġanaly": 3476,
      "Dec": 3477,
      "Ġpub": 3478,
      "Comm": 3479,
      "reed": 3480,
      "Ġ]": 3481,
      "struction": 3482,
      "po": 3483,
      "lease": 3484,
      "Ġoffer": 3485,
      "eral": 3486,
      "Buffer": 3487,
      "Ġseason": 3488,
      "ones": 3489,
      "ĠRec": 3490,
      "button": 3491,
      "ĠSer": 3492,
      "ference": 3493,
      "Ġdescribed": 3494,
      "unk": 3495,
      "Ġdisplay": 3496,
      "long": 3497,
      "(-": 3498,
      "Ġunit": 3499,
      "era": 3500,
      "FI": 3501,
      "ĠFigure": 3502,
      "split": 3503,
      "Ġmaking": 3504,
      "Ġaccording": 3505,
      "Ġret": 3506,
      "Ġsomething": 3507,
      "equiv": 3508,
      "Ġchildren": 3509,
      "UE": 3510,
      "Ġmembers": 3511,
      "Ġlim": 3512,
      "Ġcontains": 3513,
      "Handler": 3514,
      "Ġproposed": 3515,
      "Oper": 3516,
      "49": 3517,
      "Ġadditional": 3518,
      "Ġconv": 3519,
      "Ġra": 3520,
      "inst": 3521,
      "Ġvarious": 3522,
      "parent": 3523,
      "Ġbit": 3524,
      "Ġjob": 3525,
      "Ġ\\{": 3526,
      "ĠSince": 3527,
      "FA": 3528,
      "Ġ+=": 3529,
      "03": 3530,
      "Be": 3531,
      "ptr": 3532,
      "ication": 3533,
      "mathsf": 3534,
      "appro": 3535,
      "<!--": 3536,
      "ids": 3537,
      "ica": 3538,
      "Ġkind": 3539,
      "level": 3540,
      "eger": 3541,
      "ĠMe": 3542,
      "Ġexperiment": 3543,
      "sin": 3544,
      "textwidth": 3545,
      "Ġdistance": 3546,
      "Function": 3547,
      "tributes": 3548,
      "iol": 3549,
      "SC": 3550,
      "Ġmaterial": 3551,
      "Ġthings": 3552,
      "Ġhuman": 3553,
      "Component": 3554,
      "Ġclaim": 3555,
      "Ġcommunity": 3556,
      "Ġinf": 3557,
      "cup": 3558,
      "ansport": 3559,
      "ĠWorld": 3560,
      "Ġenvironment": 3561,
      "Ġprobability": 3562,
      "write": 3563,
      "Ġstre": 3564,
      "ebug": 3565,
      "Ġask": 3566,
      "aves": 3567,
      "Ġhaving": 3568,
      "ises": 3569,
      "*/": 3570,
      "ĠState": 3571,
      "ugin": 3572,
      "Ġassume": 3573,
      "Ġcontr": 3574,
      "CD": 3575,
      "OL": 3576,
      "09": 3577,
      "Ġtemperature": 3578,
      "open": 3579,
      "Window": 3580,
      "host": 3581,
      "first": 3582,
      "ĠGo": 3583,
      "ĠBo": 3584,
      "ĠCor": 3585,
      "Ġwindow": 3586,
      "fill": 3587,
      "Ġtreat": 3588,
      "Ġoption": 3589,
      "Ġ->": 3590,
      "Ġstop": 3591,
      "ĠJanuary": 3592,
      "Ġapplic": 3593,
      "Ġprof": 3594,
      "comes": 3595,
      "Ġconc": 3596,
      "Ġonce": 3597,
      "adding": 3598,
      "Ġtypes": 3599,
      "Lay": 3600,
      "note": 3601,
      "que": 3602,
      "What": 3603,
      "Ġrad": 3604,
      "json": 3605,
      "ping": 3606,
      "Ġmakes": 3607,
      "Start": 3608,
      "mid": 3609,
      "Ġheight": 3610,
      "izes": 3611,
      "ĠEd": 3612,
      "Ġstory": 3613,
      "ered": 3614,
      "irm": 3615,
      "acity": 3616,
      "command": 3617,
      "True": 3618,
      "Ġsets": 3619,
      "Ġthrows": 3620,
      "68": 3621,
      "ured": 3622,
      "Factory": 3623,
      "Ġaccur": 3624,
      ")-": 3625,
      "rl": 3626,
      "}^{(": 3627,
      "ĠAg": 3628,
      "like": 3629,
      "raft": 3630,
      "Ġtool": 3631,
      "Ġgrad": 3632,
      "Ġimprov": 3633,
      "Ġgroups": 3634,
      "undle": 3635,
      "ĠReturn": 3636,
      "Ġpast": 3637,
      "ĠAb": 3638,
      "ĠAug": 3639,
      "}}(": 3640,
      "Ġdevelopment": 3641,
      "Default": 3642,
      "ĠNational": 3643,
      "Row": 3644,
      "Ġinstead": 3645,
      "Ġhttps": 3646,
      "aries": 3647,
      "2009": 3648,
      "Ġaway": 3649,
      "77": 3650,
      "Ġ$(\\": 3651,
      "Ġprotected": 3652,
      "}:": 3653,
      "Ġhowever": 3654,
      "ighb": 3655,
      "Version": 3656,
      "}\\\\": 3657,
      "Ġsocial": 3658,
      "Ġupdate": 3659,
      "Ġtaken": 3660,
      "DO": 3661,
      "Part": 3662,
      "ĠObject": 3663,
      "ceed": 3664,
      "Ġspin": 3665,
      "Ġgives": 3666,
      "Ġlearn": 3667,
      "ĠDes": 3668,
      "src": 3669,
      "Ġmusic": 3670,
      "2008": 3671,
      "Ġstar": 3672,
      "urope": 3673,
      "Ġ{@": 3674,
      "Ġsite": 3675,
      "Refer": 3676,
      "na": 3677,
      "dat": 3678,
      "Ġclient": 3679,
      "Ġapplication": 3680,
      "clear": 3681,
      "php": 3682,
      "ooth": 3683,
      "Ġweight": 3684,
      "empt": 3685,
      "Ġcompar": 3686,
      "Ġgalax": 3687,
      "xml": 3688,
      "ĠCont": 3689,
      "sel": 3690,
      "Ġequal": 3691,
      "Ġeffects": 3692,
      "Ġdouble": 3693,
      "semb": 3694,
      "utes": 3695,
      "Ð¸": 3696,
      "Ġcomplete": 3697,
      "ĠLemma": 3698,
      "bound": 3699,
      "}/": 3700,
      "Ġcut": 3701,
      "Ġandroid": 3702,
      "Ġestab": 3703,
      "Ġunique": 3704,
      "Ġfri": 3705,
      "Ġexperience": 3706,
      "Ġsolutions": 3707,
      "main": 3708,
      "stream": 3709,
      "ided": 3710,
      "Ġnote": 3711,
      "urg": 3712,
      "\"]": 3713,
      "Ġbegin": 3714,
      "Ġgenerated": 3715,
      "Ġiter": 3716,
      "Ġdatas": 3717,
      "rs": 3718,
      "Ġregular": 3719,
      "Ġfeel": 3720,
      "hib": 3721,
      "Ġlot": 3722,
      "vis": 3723,
      "Ġworking": 3724,
      "Ġselect": 3725,
      "There": 3726,
      "idden": 3727,
      "Spec": 3728,
      "Ġgovernment": 3729,
      "ining": 3730,
      "ĠGener": 3731,
      "aly": 3732,
      "Ġhistory": 3733,
      "ĠOct": 3734,
      "abs": 3735,
      "....": 3736,
      "Ġarr": 3737,
      "ĠArt": 3738,
      "istics": 3739,
      "Ġamount": 3740,
      "Ġmedia": 3741,
      "Ġedge": 3742,
      "|^": 3743,
      "header": 3744,
      "lor": 3745,
      "Ġland": 3746,
      "Ġprec": 3747,
      "Ġdetails": 3748,
      "ialog": 3749,
      "that": 3750,
      "can": 3751,
      "edge": 3752,
      "///": 3753,
      "Gr": 3754,
      "star": 3755,
      "Ġadded": 3756,
      "ĠGu": 3757,
      "Ġthird": 3758,
      "Filter": 3759,
      "Ġtrad": 3760,
      "47": 3761,
      "stract": 3762,
      "Ġlarger": 3763,
      "Ġstream": 3764,
      "ĠComp": 3765,
      "Ġdefinition": 3766,
      "ĠYork": 3767,
      "Ġsure": 3768,
      "VER": 3769,
      "ites": 3770,
      "Ġsent": 3771,
      "Ġill": 3772,
      ".$": 3773,
      "len": 3774,
      "Ġmillion": 3775,
      "Ġ((": 3776,
      "PC": 3777,
      "oriz": 3778,
      "Nav": 3779,
      "Ġfig": 3780,
      "empty": 3781,
      "plus": 3782,
      "You": 3783,
      "iform": 3784,
      "Point": 3785,
      "apter": 3786,
      "Number": 3787,
      "Ġresource": 3788,
      "One": 3789,
      "riter": 3790,
      "Ġcopy": 3791,
      "Ġthough": 3792,
      "ĠĠĠĠĠĠĠĠĊ": 3793,
      "mar": 3794,
      "ĠNone": 3795,
      "Ġmodule": 3796,
      "ramework": 3797,
      "Equals": 3798,
      "hspace": 3799,
      "post": 3800,
      "hood": 3801,
      "property": 3802,
      "Ġoptim": 3803,
      "bottom": 3804,
      "ĠRef": 3805,
      "Pol": 3806,
      "Prov": 3807,
      "alle": 3808,
      "ĠDo": 3809,
      "&&": 3810,
      "obj": 3811,
      "}+\\": 3812,
      "istry": 3813,
      "Ġmechan": 3814,
      "num": 3815,
      "project": 3816,
      "ledge": 3817,
      "Ġchall": 3818,
      "Ġspecified": 3819,
      "ners": 3820,
      "Ġ...": 3821,
      "Ġwhy": 3822,
      "Ġequations": 3823,
      "mber": 3824,
      "iddle": 3825,
      "});": 3826,
      "Ġ&\\": 3827,
      "Ġstatus": 3828,
      "gl": 3829,
      "Ġmeet": 3830,
      "strong": 3831,
      "ĠPart": 3832,
      "////////////////": 3833,
      "find": 3834,
      "LASS": 3835,
      "icol": 3836,
      "ategy": 3837,
      "][": 3838,
      "ĠThus": 3839,
      "rypt": 3840,
      "ney": 3841,
      "${": 3842,
      "Ġcountry": 3843,
      "eloc": 3844,
      "status": 3845,
      "aches": 3846,
      "Ġinternal": 3847,
      "endif": 3848,
      "88": 3849,
      "Ġservices": 3850,
      "udio": 3851,
      "Pre": 3852,
      "su": 3853,
      "operatorname": 3854,
      "Ġcourse": 3855,
      "Ġimages": 3856,
      "Ġground": 3857,
      "Ġattack": 3858,
      "Ġpolit": 3859,
      "Ġcreated": 3860,
      "jav": 3861,
      "ĠMon": 3862,
      "column": 3863,
      "ration": 3864,
      "process": 3865,
      "icture": 3866,
      "Ġboundary": 3867,
      "Ġprovides": 3868,
      "ued": 3869,
      "ircle": 3870,
      "ussian": 3871,
      "Ġeffective": 3872,
      "Ġexecut": 3873,
      "INT": 3874,
      "ĠAss": 3875,
      "'$": 3876,
      "ully": 3877,
      "Ġ-\\": 3878,
      "Ġrather": 3879,
      "oman": 3880,
      "ĠChrist": 3881,
      "500": 3882,
      "Load": 3883,
      "Em": 3884,
      "Ġcorrect": 3885,
      "}}{\\": 3886,
      "ocket": 3887,
      "artment": 3888,
      "ĠApr": 3889,
      "cing": 3890,
      "anced": 3891,
      "Ġobjects": 3892,
      "attr": 3893,
      "ĠMark": 3894,
      "umerate": 3895,
      "Ġcity": 3896,
      "Ab": 3897,
      "oto": 3898,
      "ln": 3899,
      "Ġcompared": 3900,
      "Next": 3901,
      "67": 3902,
      "42": 3903,
      "Ġextends": 3904,
      "Ġvideo": 3905,
      "Ġhalf": 3906,
      "Ġprint": 3907,
      "citet": 3908,
      "ÑĤ": 3909,
      "ĠAct": 3910,
      "Ġquestion": 3911,
      "ĠPar": 3912,
      "REF": 3913,
      "unch": 3914,
      "]$": 3915,
      "ĠSch": 3916,
      "Check": 3917,
      "Ġfive": 3918,
      "encies": 3919,
      "Ġdate": 3920,
      "Ġprior": 3921,
      "known": 3922,
      "First": 3923,
      "Ġstudents": 3924,
      "xspace": 3925,
      "Ġyet": 3926,
      "push": 3927,
      "Link": 3928,
      "Ġimpact": 3929,
      "Ġprop": 3930,
      "aints": 3931,
      "Fl": 3932,
      "ops": 3933,
      "Ġmatter": 3934,
      "Ġcomponents": 3935,
      "dl": 3936,
      "atory": 3937,
      "rew": 3938,
      "AA": 3939,
      "olve": 3940,
      "Ġsurv": 3941,
      "Ġcoordin": 3942,
      "Ġdifference": 3943,
      "ĠSim": 3944,
      "atal": 3945,
      "elling": 3946,
      "btn": 3947,
      "FT": 3948,
      "typ": 3949,
      "Ġexpression": 3950,
      "ana": 3951,
      "finished": 3952,
      "Ġair": 3953,
      "Ġear": 3954,
      "Ġcollection": 3955,
      "Ġlanguage": 3956,
      "prototype": 3957,
      "Ġincrease": 3958,
      "rest": 3959,
      "unity": 3960,
      "ĠSchool": 3961,
      "py": 3962,
      "ada": 3963,
      "ĠOff": 3964,
      "Ġrestr": 3965,
      "Ġcontinue": 3966,
      "SU": 3967,
      "}-\\": 3968,
      "Ġgas": 3969,
      "Ġhold": 3970,
      "IV": 3971,
      "When": 3972,
      "yles": 3973,
      "Ġsens": 3974,
      "ĠCount": 3975,
      "Ġtw": 3976,
      "Ġproduction": 3977,
      "nce": 3978,
      "Ġfilm": 3979,
      "Child": 3980,
      "Ġtherefore": 3981,
      "\".": 3982,
      "rowser": 3983,
      "Ġrepresentation": 3984,
      "ypes": 3985,
      "Ġtransition": 3986,
      "Ġband": 3987,
      "noindent": 3988,
      "font": 3989,
      "erc": 3990,
      "Task": 3991,
      "dag": 3992,
      "Ġyield": 3993,
      "ĠStates": 3994,
      "ught": 3995,
      "igger": 3996,
      "ills": 3997,
      "buf": 3998,
      "Ġneeds": 3999,
      "EL": 4000,
      "Ġcluster": 4001,
      "ĠClass": 4002,
      "scr": 4003,
      "inally": 4004,
      "more": 4005,
      "normal": 4006,
      "ĉĠĠĠ": 4007,
      "std": 4008,
      "Ġreference": 4009,
      "Met": 4010,
      "Create": 4011,
      "ĠWhat": 4012,
      "neq": 4013,
      "Ġdest": 4014,
      "Ġdenote": 4015,
      "ĠNote": 4016,
      "ĠCity": 4017,
      "Ġrelation": 4018,
      "signed": 4019,
      "oved": 4020,
      "MM": 4021,
      "Ġworks": 4022,
      "quare": 4023,
      "Ġrot": 4024,
      "Ġwhose": 4025,
      "Ġmaximum": 4026,
      "ĠEurope": 4027,
      "ometry": 4028,
      "Acc": 4029,
      "2007": 4030,
      "Ġwritten": 4031,
      "icult": 4032,
      "ilit": 4033,
      "Ġvariables": 4034,
      "ried": 4035,
      "Ġyoung": 4036,
      "Ġalmost": 4037,
      "Ġnatural": 4038,
      "Ġ~": 4039,
      "ĠMc": 4040,
      "Ġothers": 4041,
      "img": 4042,
      "ging": 4043,
      "\\,\\": 4044,
      "Hel": 4045,
      "private": 4046,
      "(&": 4047,
      "ged": 4048,
      "Ġfilter": 4049,
      "Vert": 4050,
      "Ġinfl": 4051,
      "tex": 4052,
      "46": 4053,
      "_.": 4054,
      "tic": 4055,
      "Ġmiss": 4056,
      "Ġcatch": 4057,
      "RA": 4058,
      "Ġsetting": 4059,
      "Ġinterface": 4060,
      "ND": 4061,
      "Ext": 4062,
      "stack": 4063,
      "Ġneeded": 4064,
      "refix": 4065,
      "{}": 4066,
      "Ġlat": 4067,
      "values": 4068,
      "amil": 4069,
      "Ġdoesn": 4070,
      "Label": 4071,
      "SI": 4072,
      "ds": 4073,
      "number": 4074,
      "ĠMarch": 4075,
      "Ġformat": 4076,
      "Ġir": 4077,
      "Ġcult": 4078,
      "mt": 4079,
      "PRO": 4080,
      "yl": 4081,
      "description": 4082,
      "BU": 4083,
      "atively": 4084,
      "Ġsubject": 4085,
      "ĠTable": 4086,
      "ĠIntern": 4087,
      "Collection": 4088,
      "ĉĉĉĉĉĉĉĉ": 4089,
      ")}{": 4090,
      "Ġurl": 4091,
      "Ġdraw": 4092,
      "umb": 4093,
      "ABLE": 4094,
      "enumerate": 4095,
      "ĠRev": 4096,
      "NO": 4097,
      "cr": 4098,
      "Format": 4099,
      "ying": 4100,
      "theorem": 4101,
      "ouch": 4102,
      "Ġdig": 4103,
      "FONT": 4104,
      "Ġvirtual": 4105,
      "$}": 4106,
      "andid": 4107,
      "Ġpattern": 4108,
      "SON": 4109,
      "Ġcenter": 4110,
      "Ġtaking": 4111,
      "CP": 4112,
      "dimensional": 4113,
      "unit": 4114,
      "ectors": 4115,
      "CL": 4116,
      "itude": 4117,
      "Ġlove": 4118,
      "rows": 4119,
      "Ġarch": 4120,
      "Ġentire": 4121,
      "Fe": 4122,
      "ĠWill": 4123,
      "Ġdirectly": 4124,
      "Ġcirc": 4125,
      "Ġveloc": 4126,
      "year": 4127,
      "oph": 4128,
      "oted": 4129,
      "last": 4130,
      "ĠGL": 4131,
      "efined": 4132,
      "unfinished": 4133,
      "DB": 4134,
      "omial": 4135,
      "ĠSouth": 4136,
      "Ġevalu": 4137,
      "Page": 4138,
      "osp": 4139,
      "Ġallows": 4140,
      "Ġactiv": 4141,
      "Ġreported": 4142,
      "otes": 4143,
      "Ġrelative": 4144,
      "clusion": 4145,
      "itemize": 4146,
      "Ġcamp": 4147,
      "Ġweak": 4148,
      "Ġappear": 4149,
      "ournal": 4150,
      "Ġtakes": 4151,
      "VID": 4152,
      "Aut": 4153,
      "ster": 4154,
      "Ġprove": 4155,
      "onstr": 4156,
      "Output": 4157,
      "Ġbasis": 4158,
      "ĠData": 4159,
      "cember": 4160,
      "CON": 4161,
      "format": 4162,
      ")}$": 4163,
      "Ġlocation": 4164,
      "Ġonline": 4165,
      "onic": 4166,
      "]\\": 4167,
      "ci": 4168,
      "Ġdomain": 4169,
      "Ġage": 4170,
      "chema": 4171,
      "à¤": 4172,
      "Ġep": 4173,
      "Ġvariable": 4174,
      "variant": 4175,
      "Ġtalk": 4176,
      "filter": 4177,
      "lege": 4178,
      "98": 4179,
      "Ġconnection": 4180,
      "icles": 4181,
      "tri": 4182,
      ".)": 4183,
      "Ġcoeff": 4184,
      "anged": 4185,
      "Ġthought": 4186,
      "57": 4187,
      "Ġwords": 4188,
      "ĠInter": 4189,
      "Ġwomen": 4190,
      "soft": 4191,
      "ĠApp": 4192,
      "avor": 4193,
      "Ġecon": 4194,
      "Ġincluded": 4195,
      "Ġimplies": 4196,
      "Ġholds": 4197,
      "sole": 4198,
      "Since": 4199,
      "ĠEX": 4200,
      "ĠFrom": 4201,
      "oms": 4202,
      "mat": 4203,
      "Ġpolicy": 4204,
      "Rem": 4205,
      "ĠPer": 4206,
      "Ġtoday": 4207,
      "Ġaccept": 4208,
      "Ġoperation": 4209,
      "linear": 4210,
      "rule": 4211,
      "Ð½": 4212,
      "Ġcoupl": 4213,
      "PS": 4214,
      "Box": 4215,
      "Ġusers": 4216,
      "Ġapply": 4217,
      "vant": 4218,
      "Per": 4219,
      "example": 4220,
      "Ġgen": 4221,
      "Ġvisit": 4222,
      "heet": 4223,
      "update": 4224,
      "Ġ!==": 4225,
      "Ġsignal": 4226,
      "Ġdegree": 4227,
      "remove": 4228,
      "Ġbehavior": 4229,
      "Ġnews": 4230,
      "mem": 4231,
      "Length": 4232,
      "ĠNews": 4233,
      "fs": 4234,
      "ham": 4235,
      "Return": 4236,
      "ĠDev": 4237,
      "Ġsw": 4238,
      "Ġcompet": 4239,
      "Char": 4240,
      "Ġcallback": 4241,
      "ha": 4242,
      "press": 4243,
      "58": 4244,
      "Ġbar": 4245,
      "IO": 4246,
      "Ġbox": 4247,
      "omorphism": 4248,
      "ĠAfter": 4249,
      "Ġlikely": 4250,
      "Ġcomes": 4251,
      "Ġface": 4252,
      "params": 4253,
      "Ġupd": 4254,
      "ĠID": 4255,
      "ĠĠĠĠĠĠĠĠĠĠĠĠĊ": 4256,
      "Ġrespons": 4257,
      "Ġphysical": 4258,
      "2006": 4259,
      "Ġsix": 4260,
      "gg": 4261,
      "Ġcommand": 4262,
      "ship": 4263,
      "bsite": 4264,
      "Ġserver": 4265,
      "Ġchannel": 4266,
      "ptember": 4267,
      "Ġquery": 4268,
      "Ġax": 4269,
      "dep": 4270,
      "URL": 4271,
      "Ġactually": 4272,
      "Ġinit": 4273,
      "Local": 4274,
      "just": 4275,
      "ĠOF": 4276,
      "Pi": 4277,
      "Ġ[]": 4278,
      "only": 4279,
      "Ġannoun": 4280,
      "Ġcompos": 4281,
      "idge": 4282,
      "Ġfall": 4283,
      "Ġpresented": 4284,
      "vspace": 4285,
      "Ġtree": 4286,
      "Ut": 4287,
      "Ġfoot": 4288,
      "Web": 4289,
      "Ġclosed": 4290,
      "Ġnodes": 4291,
      "Ġneighb": 4292,
      "ube": 4293,
      "}}_": 4294,
      "Ġchoice": 4295,
      "Ġgames": 4296,
      "ulated": 4297,
      "Then": 4298,
      "Cache": 4299,
      "Ġnu": 4300,
      "inding": 4301,
      "ĠTrans": 4302,
      "ERR": 4303,
      "PR": 4304,
      "Address": 4305,
      "ota": 4306,
      "SO": 4307,
      "UI": 4308,
      "Ġss": 4309,
      "Case": 4310,
      "NN": 4311,
      "emic": 4312,
      "96": 4313,
      ")+": 4314,
      "Ġproblems": 4315,
      "Ġ;": 4316,
      "ql": 4317,
      "Ġ_{": 4318,
      "ĠMy": 4319,
      ">>": 4320,
      "\\\"": 4321,
      "ĠNorth": 4322,
      "Ġalgebra": 4323,
      "ĠOur": 4324,
      "hel": 4325,
      "container": 4326,
      "Command": 4327,
      "ĠPres": 4328,
      "entry": 4329,
      "rief": 4330,
      "Ġdifficult": 4331,
      "multicol": 4332,
      "Listener": 4333,
      "acing": 4334,
      "meta": 4335,
      "response": 4336,
      "'re": 4337,
      "ores": 4338,
      "sembly": 4339,
      "ifact": 4340,
      "Sim": 4341,
      "arks": 4342,
      "show": 4343,
      "Ġfun": 4344,
      "else": 4345,
      "ĠAm": 4346,
      "Ġdeb": 4347,
      "rics": 4348,
      "ĠJune": 4349,
      "Ġcapt": 4350,
      "atives": 4351,
      "}}}": 4352,
      "Ġeduc": 4353,
      "instance": 4354,
      "returns": 4355,
      "cs": 4356,
      "Valid": 4357,
      "expected": 4358,
      "43": 4359,
      "Ġdimension": 4360,
      "ĠTherefore": 4361,
      "multicolumn": 4362,
      "Ġwon": 4363,
      "iation": 4364,
      "ĠApril": 4365,
      "istor": 4366,
      "Ġwhole": 4367,
      "ĠStr": 4368,
      "ttp": 4369,
      "Ġapplied": 4370,
      "Ġautom": 4371,
      "Ġconfiguration": 4372,
      "ĠEl": 4373,
      "Ġmagnetic": 4374,
      "approx": 4375,
      "That": 4376,
      "even": 4377,
      "board": 4378,
      "Controller": 4379,
      "DF": 4380,
      "2000": 4381,
      "Last": 4382,
      "Ġleading": 4383,
      "duc": 4384,
      "Ġdemonstr": 4385,
      "Ġroot": 4386,
      "close": 4387,
      "tag": 4388,
      "norm": 4389,
      "Ġunc": 4390,
      "files": 4391,
      "56": 4392,
      "Ġliter": 4393,
      "ects": 4394,
      "Ġdeath": 4395,
      "Ġplatform": 4396,
      "ÑĢ": 4397,
      "output": 4398,
      "TYPE": 4399,
      "Ġinvestig": 4400,
      "Back": 4401,
      "underline": 4402,
      "Width": 4403,
      "Ġformer": 4404,
      "Ġtook": 4405,
      "CR": 4406,
      "Ġbenef": 4407,
      "Column": 4408,
      "itory": 4409,
      "Ġuint": 4410,
      "Ġargument": 4411,
      "\"),": 4412,
      "Ġhappen": 4413,
      "Offset": 4414,
      "Ġnumbers": 4415,
      "Ġdeal": 4416,
      "Ġsense": 4417,
      "auge": 4418,
      "ĠSee": 4419,
      "oder": 4420,
      "\").": 4421,
      "Ġdeep": 4422,
      "Ġreturns": 4423,
      "achine": 4424,
      "Ġ\\|": 4425,
      "Ġpercent": 4426,
      "Ġactive": 4427,
      "Ġauto": 4428,
      "Mode": 4429,
      "Ġdevice": 4430,
      "Ġevolution": 4431,
      "Ġoffset": 4432,
      "Ġshall": 4433,
      "bedd": 4434,
      "Ġcompan": 4435,
      "Ġdidn": 4436,
      "Ġpers": 4437,
      "Dev": 4438,
      "pher": 4439,
      "oring": 4440,
      "Ġlive": 4441,
      "Select": 4442,
      "Ġsound": 4443,
      "bin": 4444,
      "ĠVal": 4445,
      "rown": 4446,
      "ĠSub": 4447,
      "Ġestimate": 4448,
      "ĠDep": 4449,
      "term": 4450,
      "Ġselected": 4451,
      "ĠType": 4452,
      "Ġcame": 4453,
      "ounter": 4454,
      "clude": 4455,
      "ĠFirst": 4456,
      "oon": 4457,
      "Ġmar": 4458,
      "Ġstarted": 4459,
      "Ġconsum": 4460,
      "Ġuses": 4461,
      "pass": 4462,
      "ba": 4463,
      "Dat": 4464,
      "Note": 4465,
      "$(": 4466,
      "det": 4467,
      "Ġregard": 4468,
      "Ġitself": 4469,
      "Ġscen": 4470,
      "imation": 4471,
      "iet": 4472,
      "aul": 4473,
      "Ġtim": 4474,
      "Ġspectrum": 4475,
      "\\}$": 4476,
      "197": 4477,
      "Ġframe": 4478,
      "TP": 4479,
      "59": 4480,
      "allel": 4481,
      "ĠJuly": 4482,
      "^-": 4483,
      "ĠCounty": 4484,
      "Ġfiles": 4485,
      "Ġfra": 4486,
      "cel": 4487,
      "Ġstars": 4488,
      "otal": 4489,
      "Ġdecre": 4490,
      "41": 4491,
      "Server": 4492,
      "ĠHere": 4493,
      "Ġupper": 4494,
      "Ġdescription": 4495,
      "Ġpopulation": 4496,
      "atur": 4497,
      "Ġeigen": 4498,
      "++)": 4499,
      "Ġ\\;": 4500,
      "float": 4501,
      "Ġrelease": 4502,
      "service": 4503,
      "ĠRem": 4504,
      "iments": 4505,
      "istration": 4506,
      "SD": 4507,
      "grad": 4508,
      "istance": 4509,
      "={": 4510,
      "ĠDecember": 4511,
      "Ġess": 4512,
      "Ġincreasing": 4513,
      "Ġincludes": 4514,
      "scope": 4515,
      "proto": 4516,
      "Ġsuccessful": 4517,
      "ĠSm": 4518,
      "Ġsolid": 4519,
      "Ġcritical": 4520,
      "Ġgre": 4521,
      "Ġpatients": 4522,
      "Ġneut": 4523,
      "Ġparticip": 4524,
      "Ġrunning": 4525,
      "navbar": 4526,
      "Ġratio": 4527,
      "([": 4528,
      "mathscr": 4529,
      "Ġstudies": 4530,
      "Net": 4531,
      "Ġrelationship": 4532,
      "Ġrank": 4533,
      "offset": 4534,
      "ensive": 4535,
      "ustral": 4536,
      "ĠLicense": 4537,
      "Ġmult": 4538,
      "ympt": 4539,
      "Ġprinc": 4540,
      "Ġsources": 4541,
      "zz": 4542,
      "amily": 4543,
      "aker": 4544,
      "roy": 4545,
      "Now": 4546,
      "Top": 4547,
      "Ġcomplet": 4548,
      "aven": 4549,
      "}'": 4550,
      "Ġlen": 4551,
      "Ġnecessary": 4552,
      "Max": 4553,
      "Ġsupported": 4554,
      "Ġforward": 4555,
      "PO": 4556,
      "coming": 4557,
      "Ġcommit": 4558,
      "cd": 4559,
      "pecially": 4560,
      "fect": 4561,
      "Ġbuffer": 4562,
      "Update": 4563,
      "Ġsimply": 4564,
      "annot": 4565,
      "So": 4566,
      "task": 4567,
      "Ġreceived": 4568,
      "ascript": 4569,
      "Ġbecomes": 4570,
      "Dr": 4571,
      "Ġplayers": 4572,
      "very": 4573,
      "essages": 4574,
      "ously": 4575,
      "Ġmember": 4576,
      "ĠAcc": 4577,
      "ĠOctober": 4578,
      "ĠAugust": 4579,
      "Ġquality": 4580,
      "ici": 4581,
      "Us": 4582,
      "Ġconstruction": 4583,
      "ĠUp": 4584,
      "Ġbuilding": 4585,
      "(_": 4586,
      "Ġrisk": 4587,
      "Ġthing": 4588,
      "ategor": 4589,
      "ĠNovember": 4590,
      "stant": 4591,
      "arily": 4592,
      "urch": 4593,
      "Ġcontact": 4594,
      "Ġissue": 4595,
      "require": 4596,
      "ĠCLASS": 4597,
      "trm": 4598,
      "97": 4599,
      "Ġmargin": 4600,
      "Ent": 4601,
      "ĠSeptember": 4602,
      "Ġseg": 4603,
      "Tem": 4604,
      "ĠWar": 4605,
      "Ġexplicit": 4606,
      "********************************": 4607,
      "evel": 4608,
      "should": 4609,
      "Ge": 4610,
      "Ġsmaller": 4611,
      "{$": 4612,
      "Ġproced": 4613,
      "uint": 4614,
      "inner": 4615,
      "iler": 4616,
      "Ġeasy": 4617,
      "tries": 4618,
      "ĠHREF": 4619,
      "tool": 4620,
      "textrm": 4621,
      "Ġforce": 4622,
      "aid": 4623,
      "Ġelectron": 4624,
      "Tag": 4625,
      "iles": 4626,
      "Ġwalk": 4627,
      "ĠHealth": 4628,
      "obile": 4629,
      "omy": 4630,
      "usion": 4631,
      "uit": 4632,
      "Ġequivalent": 4633,
      "CA": 4634,
      "template": 4635,
      "bruary": 4636,
      "2005": 4637,
      "Ġmemory": 4638,
      "Ġhouse": 4639,
      "\\'": 4640,
      "Provider": 4641,
      "ague": 4642,
      "inated": 4643,
      "Ġconduct": 4644,
      "Ġfront": 4645,
      "Ġmetric": 4646,
      "Co": 4647,
      "Ġissues": 4648,
      "<?": 4649,
      "stry": 4650,
      "mission": 4651,
      "ĠHigh": 4652,
      "Ġproducts": 4653,
      "After": 4654,
      "Ġnight": 4655,
      "Theta": 4656,
      "Ġvelocity": 4657,
      "menu": 4658,
      "Ġcentral": 4659,
      "Ġfrequency": 4660,
      "lick": 4661,
      "Ġmer": 4662,
      "reference": 4663,
      "ees": 4664,
      "ille": 4665,
      "Ġlayer": 4666,
      "Ġbroad": 4667,
      "BC": 4668,
      "Ġentry": 4669,
      "IF": 4670,
      "ama": 4671,
      "}^{-": 4672,
      "Ġtechnology": 4673,
      "ming": 4674,
      "ĠWest": 4675,
      "free": 4676,
      "Ġfood": 4677,
      "aur": 4678,
      "Ġavoid": 4679,
      "Ġconnected": 4680,
      "Url": 4681,
      "ias": 4682,
      "ĠHT": 4683,
      "{{": 4684,
      "ocr": 4685,
      "then": 4686,
      "Ġremove": 4687,
      "COL": 4688,
      ":\"": 4689,
      "Ġlevels": 4690,
      "Ġinside": 4691,
      "But": 4692,
      "Ġrob": 4693,
      "Ġnone": 4694,
      "Ġviol": 4695,
      "########": 4696,
      "NAME": 4697,
      "Ġdetermined": 4698,
      "Ġarticle": 4699,
      "Ġshare": 4700,
      "ĉĠ": 4701,
      "ĠBar": 4702,
      "anes": 4703,
      "Ġsoftware": 4704,
      "UM": 4705,
      "Ġvolume": 4706,
      "Ð¾Ð": 4707,
      "ernel": 4708,
      "Ġword": 4709,
      "TI": 4710,
      "Ġattempt": 4711,
      "Min": 4712,
      "eved": 4713,
      "ĠNow": 4714,
      "orts": 4715,
      "den": 4716,
      "Ġselection": 4717,
      "Ġansw": 4718,
      "Ġmonths": 4719,
      "ansion": 4720,
      "./": 4721,
      "Ġopport": 4722,
      "Ġparts": 4723,
      "Ġspeed": 4724,
      "Ġsecurity": 4725,
      "olving": 4726,
      "Ġarguments": 4727,
      "Ġmention": 4728,
      "break": 4729,
      "ario": 4730,
      "').": 4731,
      "bum": 4732,
      "nov": 4733,
      "ĠNe": 4734,
      "Ġtell": 4735,
      "Ġrecogn": 4736,
      "Button": 4737,
      "uses": 4738,
      "Ġgrowth": 4739,
      "Ġlooking": 4740,
      "Ġhandle": 4741,
      "depend": 4742,
      "<\\": 4743,
      "avy": 4744,
      "Ġobj": 4745,
      "Ġoperators": 4746,
      "layout": 4747,
      "ATION": 4748,
      "ares": 4749,
      "itect": 4750,
      "allet": 4751,
      "parse": 4752,
      "ĠEm": 4753,
      "root": 4754,
      "serve": 4755,
      "Ġinflu": 4756,
      ")/": 4757,
      "osen": 4758,
      "ynomial": 4759,
      "ĠDav": 4760,
      "HO": 4761,
      "otic": 4762,
      "Ġwor": 4763,
      "gn": 4764,
      "ĠWork": 4765,
      "Ġquick": 4766,
      "witter": 4767,
      "Ġindustry": 4768,
      "}}_{": 4769,
      "ĠGroup": 4770,
      "Entry": 4771,
      "Types": 4772,
      "ĠArray": 4773,
      "Ġdescribe": 4774,
      "54": 4775,
      "Ġ$|": 4776,
      "```": 4777,
      "Bo": 4778,
      "ae": 4779,
      "]);": 4780,
      "criptor": 4781,
      "Target": 4782,
      "Ġlinks": 4783,
      "match": 4784,
      "52": 4785,
      "Container": 4786,
      "ĠRead": 4787,
      "KE": 4788,
      "edia": 4789,
      "Ġespecially": 4790,
      "Ġregister": 4791,
      "Vis": 4792,
      "Ġreplac": 4793,
      "Work": 4794,
      "Mem": 4795,
      "Ġimmedi": 4796,
      ")|": 4797,
      "Ġpick": 4798,
      "Configuration": 4799,
      "ancial": 4800,
      "ili": 4801,
      "ĠChar": 4802,
      "~$": 4803,
      "prod": 4804,
      "mes": 4805,
      "Ġnoise": 4806,
      "RL": 4807,
      "Ġengine": 4808,
      "Ġperformed": 4809,
      "Ġnegative": 4810,
      "tree": 4811,
      "Ġempty": 4812,
      "AV": 4813,
      "Ġsong": 4814,
      "Frame": 4815,
      "Ġwhite": 4816,
      "dim": 4817,
      "final": 4818,
      "Ñģ": 4819,
      "ĠĠĠĠĠĠĠĠĠĠĠĠĠĠĠĠĠĠĠĠĠĠĠĠĠĠĠĠĠĠĠĠĠĠĠ": 4820,
      "Ġexcept": 4821,
      "Ġlonger": 4822,
      "Ġtax": 4823,
      "bul": 4824,
      "Ġwatch": 4825,
      "Ġrule": 4826,
      "Ġclasses": 4827,
      "Ġargs": 4828,
      "etch": 4829,
      "Ġidea": 4830,
      "EM": 4831,
      "eli": 4832,
      "ades": 4833,
      "Ġfont": 4834,
      "ctor": 4835,
      "Ġarm": 4836,
      "footnote": 4837,
      "Ġerrors": 4838,
      "ĠRed": 4839,
      "attern": 4840,
      "Ġwar": 4841,
      "comple": 4842,
      "*{": 4843,
      "}},": 4844,
      "Ġstatement": 4845,
      "Ġensure": 4846,
      "Ġagre": 4847,
      "More": 4848,
      "ĠAfr": 4849,
      "Ġallowed": 4850,
      "ãģ": 4851,
      "Ġ**": 4852,
      "kit": 4853,
      "loor": 4854,
      "och": 4855,
      "^{-\\": 4856,
      "phere": 4857,
      "Ġoutside": 4858,
      "Ġmen": 4859,
      "Ġtransfer": 4860,
      "Ġvers": 4861,
      "dro": 4862,
      "rapper": 4863,
      "ifying": 4864,
      "dagger": 4865,
      "minus": 4866,
      "_+": 4867,
      "issions": 4868,
      "){\\": 4869,
      "Ġround": 4870,
      "Ġmix": 4871,
      "overy": 4872,
      "Ġframework": 4873,
      "ĠDec": 4874,
      "ĠST": 4875,
      "Pack": 4876,
      "Ġderiv": 4877,
      "resents": 4878,
      "uel": 4879,
      "Ġsmooth": 4880,
      "maz": 4881,
      "Ġwave": 4882,
      "Ġcurrently": 4883,
      "selves": 4884,
      "vector": 4885,
      "javascript": 4886,
      "Ġinteresting": 4887,
      "Ġ$\\{": 4888,
      "PP": 4889,
      "ĠĠĠĊ": 4890,
      "amilton": 4891,
      "ĠStud": 4892,
      "ĠSk": 4893,
      "Access": 4894,
      "Ġcandid": 4895,
      "iers": 4896,
      "()->": 4897,
      "Ġwait": 4898,
      "Ġquite": 4899,
      "images": 4900,
      "tains": 4901,
      "Ġtheorem": 4902,
      "eft": 4903,
      "ĠAPI": 4904,
      "thern": 4905,
      "hent": 4906,
      "Ġey": 4907,
      "Interface": 4908,
      "QL": 4909,
      "window": 4910,
      "author": 4911,
      "51": 4912,
      "ĠOut": 4913,
      "Ġexisting": 4914,
      "Ġinc": 4915,
      "Ġuncertain": 4916,
      "sign": 4917,
      "Ġknowledge": 4918,
      "ĠPark": 4919,
      "Ġstreng": 4920,
      "Our": 4921,
      "ĠAssert": 4922,
      "ĠGa": 4923,
      "Ġinsp": 4924,
      "nes": 4925,
      "Ġmoney": 4926,
      "69": 4927,
      "multi": 4928,
      "Ġ<!--": 4929,
      "crete": 4930,
      "tical": 4931,
      "Ġdoc": 4932,
      "bitr": 4933,
      "Ġinteraction": 4934,
      "Ġbuilt": 4935,
      "Header": 4936,
      "Ġbring": 4937,
      "ĠBro": 4938,
      "bon": 4939,
      "common": 4940,
      "'),": 4941,
      "Ġfix": 4942,
      "Ġreach": 4943,
      "buffer": 4944,
      "=(": 4945,
      "hing": 4946,
      "Layout": 4947,
      "ĠCoun": 4948,
      "control": 4949,
      "rupt": 4950,
      "hest": 4951,
      "87": 4952,
      "Ġhyper": 4953,
      "ĠAustral": 4954,
      "lier": 4955,
      "Ġshape": 4956,
      "ein": 4957,
      "lev": 4958,
      "ios": 4959,
      "anges": 4960,
      "ĠResearch": 4961,
      "ography": 4962,
      "Ġdark": 4963,
      "Ġchoose": 4964,
      "frame": 4965,
      "Ġaltern": 4966,
      "Ġflux": 4967,
      "ĠFile": 4968,
      "Range": 4969,
      "Ġminimum": 4970,
      "Ġtreatment": 4971,
      "Utils": 4972,
      "bool": 4973,
      "ART": 4974,
      "Ġregions": 4975,
      "Ġalign": 4976,
      "Rel": 4977,
      "Ġrequires": 4978,
      "Ġdeveloped": 4979,
      "Process": 4980,
      "conf": 4981,
      "ĠReturns": 4982,
      "Ġdoing": 4983,
      "De": 4984,
      "pg": 4985,
      "Ġsufficient": 4986,
      "Ġtold": 4987,
      "limits": 4988,
      "olume": 4989,
      "Ġ(-": 4990,
      "Ġintern": 4991,
      "Callback": 4992,
      "53": 4993,
      "Ġpersonal": 4994,
      "Here": 4995,
      "ellow": 4996,
      "Ġgauge": 4997,
      "Br": 4998,
      "arp": 4999,
      "Me": 5000,
      "Parameter": 5001,
      "Direct": 5002,
      "Ġinfin": 5003,
      "Ġsamples": 5004,
      "CS": 5005,
      "nap": 5006,
      "Ġactual": 5007,
      "gs": 5008,
      "Ġloop": 5009,
      "shift": 5010,
      "Ġhours": 5011,
      "prove": 5012,
      "ZE": 5013,
      "ĠCenter": 5014,
      "anning": 5015,
      "Ġslow": 5016,
      "Ġign": 5017,
      "ca": 5018,
      "Ġrestrict": 5019,
      "2004": 5020,
      "ĠFebruary": 5021,
      "system": 5022,
      "wedge": 5023,
      "Ġdim": 5024,
      "equal": 5025,
      "Ġnames": 5026,
      "pri": 5027,
      "Ġproper": 5028,
      "sy": 5029,
      "graph": 5030,
      "adow": 5031,
      "Ġbre": 5032,
      "ĠBrit": 5033,
      "acters": 5034,
      "Unit": 5035,
      "ULT": 5036,
      "Ġaw": 5037,
      "ington": 5038,
      "ĠHis": 5039,
      "Ġnov": 5040,
      "utils": 5041,
      "Ġplot": 5042,
      "Ġreturned": 5043,
      "Ġcharg": 5044,
      "Ġmechanism": 5045,
      "Ġ{}": 5046,
      "olute": 5047,
      "Ġcore": 5048,
      "Ġareas": 5049,
      "Ġotherwise": 5050,
      "Bl": 5051,
      "Ġtag": 5052,
      "Ġintroduced": 5053,
      "Ġformula": 5054,
      "Ġcred": 5055,
      "aign": 5056,
      "gence": 5057,
      "$_": 5058,
      "\\}": 5059,
      "Ġdetermine": 5060,
      "Ġgoal": 5061,
      "icrosoft": 5062,
      "oplus": 5063,
      "Tree": 5064,
      "ĠPe": 5065,
      "Ġcompanies": 5066,
      "STR": 5067,
      "Ġstage": 5068,
      "ACK": 5069,
      "Height": 5070,
      "Ġreve": 5071,
      "hom": 5072,
      "iences": 5073,
      "Ġbad": 5074,
      "black": 5075,
      "Ġwebsite": 5076,
      "Ġdataset": 5077,
      "isation": 5078,
      "subseteq": 5079,
      "oe": 5080,
      "lood": 5081,
      "aced": 5082,
      "Ġuseful": 5083,
      "NE": 5084,
      "_{{\\": 5085,
      "Ġago": 5086,
      "Ġobservations": 5087,
      "asc": 5088,
      "MC": 5089,
      "Ġwent": 5090,
      "reshold": 5091,
      "Ġmind": 5092,
      "Ġimm": 5093,
      "Ġvertex": 5094,
      "Ġsymbol": 5095,
      "ĠLog": 5096,
      "Ġcharge": 5097,
      "ecause": 5098,
      "Ġdiscussed": 5099,
      "ewidth": 5100,
      "Ġbehind": 5101,
      "itable": 5102,
      "Ġupon": 5103,
      "Ġque": 5104,
      "ĉĉĊ": 5105,
      "ecute": 5106,
      "patch": 5107,
      "MD": 5108,
      ":</": 5109,
      "Copy": 5110,
      "Ġrender": 5111,
      "support": 5112,
      "ctx": 5113,
      "Ġextra": 5114,
      "?:": 5115,
      "Ġcurve": 5116,
      "ulate": 5117,
      "sets": 5118,
      "PT": 5119,
      "ĠRE": 5120,
      "Ġhot": 5121,
      "ĠGerm": 5122,
      "Ġrecently": 5123,
      "Ġteach": 5124,
      "Ġ($\\": 5125,
      "Ġpanel": 5126,
      "Ġextension": 5127,
      "izations": 5128,
      "Ġoperations": 5129,
      "texttt": 5130,
      "abilities": 5131,
      "eler": 5132,
      "}%": 5133,
      "Ġtra": 5134,
      "clos": 5135,
      "Ġrights": 5136,
      "---": 5137,
      "Ġke": 5138,
      "85": 5139,
      "SA": 5140,
      "SH": 5141,
      "ĠDE": 5142,
      "ĠSpec": 5143,
      "Ġapplications": 5144,
      "idget": 5145,
      "Ġcouple": 5146,
      "ĠHouse": 5147,
      "Post": 5148,
      "layer": 5149,
      "ĠWhile": 5150,
      "attice": 5151,
      "Ġinterpre": 5152,
      "Ġ>=": 5153,
      "Write": 5154,
      "Ġrules": 5155,
      "ĠAc": 5156,
      "document": 5157,
      "INE": 5158,
      "cache": 5159,
      "iday": 5160,
      "ĠAmerica": 5161,
      "Ġsplit": 5162,
      "Ġuniform": 5163,
      "Ġseems": 5164,
      "Serial": 5165,
      "Ġinstall": 5166,
      "_{(": 5167,
      "Ġcompact": 5168,
      "Ġsymmetry": 5169,
      "related": 5170,
      "ĠCE": 5171,
      "Ġmanagement": 5172,
      "Ġcontinuous": 5173,
      "Ġeasily": 5174,
      "ĠĠĠĠĠĠĠĠĠĠĠĠĠĠĠĠĠĠĠĠĠ": 5175,
      "reet": 5176,
      "Ġvan": 5177,
      "cil": 5178,
      "Ġ$-": 5179,
      "Ġfully": 5180,
      "Ġstarting": 5181,
      "MO": 5182,
      "fn": 5183,
      "300": 5184,
      "amera": 5185,
      "Ġgetting": 5186,
      "Ġnav": 5187,
      "ĠII": 5188,
      "86": 5189,
      "Ġresulting": 5190,
      "cope": 5191,
      "berg": 5192,
      "Ġofficial": 5193,
      "Ġstore": 5194,
      "Ġwriting": 5195,
      "Ġfeed": 5196,
      "Ġhol": 5197,
      "Ġscheme": 5198,
      "Ġdiagram": 5199,
      "Op": 5200,
      "Open": 5201,
      "1000": 5202,
      "Ġhit": 5203,
      "force": 5204,
      "SL": 5205,
      "Ġsus": 5206,
      "ĉĉĉĉĉĉĉ": 5207,
      "ctions": 5208,
      "olar": 5209,
      "ondon": 5210,
      "ynch": 5211,
      "iting": 5212,
      "Ġchalleng": 5213,
      "Ġhence": 5214,
      "ĠCreate": 5215,
      "API": 5216,
      "rad": 5217,
      "second": 5218,
      "ociety": 5219,
      "Ġmanif": 5220,
      "umin": 5221,
      "Ġpert": 5222,
      "Ġextrem": 5223,
      "Ġpeak": 5224,
      "thon": 5225,
      "BO": 5226,
      "fort": 5227,
      "aa": 5228,
      "etails": 5229,
      "Control": 5230,
      "range": 5231,
      "iny": 5232,
      "DD": 5233,
      "Ġscreen": 5234,
      "Dir": 5235,
      "resource": 5236,
      "Thread": 5237,
      "Ġresources": 5238,
      "Ġprimary": 5239,
      "Ġones": 5240,
      "Ġparticle": 5241,
      "_*": 5242,
      "oz": 5243,
      "CODE": 5244,
      "car": 5245,
      "gate": 5246,
      "definition": 5247,
      "Empty": 5248,
      "ams": 5249,
      "Ġpolynomial": 5250,
      "ashed": 5251,
      "ĠCOVID": 5252,
      "Ġfloat": 5253,
      "zero": 5254,
      "Ġball": 5255,
      "PA": 5256,
      "ervices": 5257,
      "Ġconcern": 5258,
      "avity": 5259,
      "Ġcontract": 5260,
      "Ġweb": 5261,
      "Ġpopular": 5262,
      "ĠTHE": 5263,
      "Ġexactly": 5264,
      "Ġcomparison": 5265,
      "oom": 5266,
      "Ġtemplate": 5267,
      "ĠCr": 5268,
      "Ġdecision": 5269,
      "Ġconcept": 5270,
      "Ġauth": 5271,
      "Ġgenerate": 5272,
      "hy": 5273,
      "Ġplayer": 5274,
      "newcommand": 5275,
      "Ã¡": 5276,
      "Right": 5277,
      "elt": 5278,
      "fact": 5279,
      "band": 5280,
      "cf": 5281,
      "isions": 5282,
      "Ġconnect": 5283,
      "BA": 5284,
      "Ġgalaxies": 5285,
      "Ġpresence": 5286,
      "Ġfast": 5287,
      "sd": 5288,
      "Ġexception": 5289,
      "xx": 5290,
      "Ġaim": 5291,
      "Ġbecame": 5292,
      "iber": 5293,
      "Ġtour": 5294,
      "Ġcomment": 5295,
      "Ġparticles": 5296,
      "asic": 5297,
      "Ġlate": 5298,
      "etime": 5299,
      "Ġswitch": 5300,
      "Ġembedd": 5301,
      "Ġpul": 5302,
      "weight": 5303,
      ":\\": 5304,
      "orizont": 5305,
      "token": 5306,
      "deg": 5307,
      "ORT": 5308,
      "setminus": 5309,
      "Ġexpand": 5310,
      "Ġfactors": 5311,
      "ĠAir": 5312,
      "stitute": 5313,
      "cons": 5314,
      "Ġprocesses": 5315,
      "ĠBlack": 5316,
      "ĠCheck": 5317,
      "LI": 5318,
      "iverse": 5319,
      "Ġappropri": 5320,
      "Ġpublished": 5321,
      "pite": 5322,
      "Ġitems": 5323,
      "inct": 5324,
      "ĠOf": 5325,
      "Ġmaps": 5326,
      "anks": 5327,
      "construct": 5328,
      "agment": 5329,
      "Settings": 5330,
      "PECT": 5331,
      "Ġadmin": 5332,
      "oded": 5333,
      "Stat": 5334,
      "Ġsaf": 5335,
      "Ġtherm": 5336,
      "Ġcoming": 5337,
      "Ġreleased": 5338,
      "ĠLa": 5339,
      "cur": 5340,
      "ellar": 5341,
      "ĠIndia": 5342,
      "Ġ$[": 5343,
      "VAL": 5344,
      "Ġâ": 5345,
      "fa": 5346,
      "ĠHar": 5347,
      "ALL": 5348,
      "gle": 5349,
      "ĠMich": 5350,
      "ĠDem": 5351,
      "ĠSw": 5352,
      "Ġdynamics": 5353,
      "Position": 5354,
      "Ġessential": 5355,
      "linewidth": 5356,
      "Module": 5357,
      "ropy": 5358,
      "ĠKing": 5359,
      "ĠEnd": 5360,
      "ĠFl": 5361,
      "Ġheart": 5362,
      "Ġremains": 5363,
      "Ġmotion": 5364,
      "ĠPre": 5365,
      "Util": 5366,
      "Ġemission": 5367,
      "Ġhyp": 5368,
      "Ġrates": 5369,
      "None": 5370,
      "Ġdecl": 5371,
      "Ġevidence": 5372,
      "Ġprofile": 5373,
      "Ġillustr": 5374,
      "Ġcollect": 5375,
      "Entity": 5376,
      "=-": 5377,
      "Do": 5378,
      "ivial": 5379,
      "Ġleads": 5380,
      "Ġbounded": 5381,
      "Ġarbitr": 5382,
      "cat": 5383,
      "Ġnational": 5384,
      "orig": 5385,
      "Ġoverride": 5386,
      "ĠAng": 5387,
      "FO": 5388,
      "Ġstrategy": 5389,
      "Search": 5390,
      "aligned": 5391,
      "ĠErr": 5392,
      "ĠInternational": 5393,
      "oundation": 5394,
      "'\\": 5395,
      "Ġrepresents": 5396,
      ")\\,": 5397,
      "Ġmomentum": 5398,
      "Ġtowards": 5399,
      "late": 5400,
      "ĠSome": 5401,
      "Ġcompute": 5402,
      "Ġtransport": 5403,
      "Ġsend": 5404,
      "afe": 5405,
      "entity": 5406,
      "Ġapproximation": 5407,
      "Hash": 5408,
      "ĠGoogle": 5409,
      "Ġfigure": 5410,
      "rd": 5411,
      "Ġheld": 5412,
      "alysis": 5413,
      "Ġrecomm": 5414,
      "atial": 5415,
      "),\\": 5416,
      "vention": 5417,
      "atically": 5418,
      "Ġsteps": 5419,
      "Ġcos": 5420,
      "drop": 5421,
      "Ġnothing": 5422,
      "dx": 5423,
      "Te": 5424,
      "Ġord": 5425,
      "illing": 5426,
      "step": 5427,
      "Ġnorm": 5428,
      "ening": 5429,
      "Ġetc": 5430,
      "ishing": 5431,
      "Ġrelevant": 5432,
      "ĠÃ": 5433,
      "See": 5434,
      "yntax": 5435,
      "Ġways": 5436,
      "Ġradius": 5437,
      "iding": 5438,
      "Ġsort": 5439,
      "Ġreduced": 5440,
      "irth": 5441,
      "Ġusually": 5442,
      "ollary": 5443,
      "\"))": 5444,
      "Ġextract": 5445,
      "ĠPresident": 5446,
      "Ġattention": 5447,
      "cp": 5448,
      "Ġbelieve": 5449,
      "ĠNS": 5450,
      "Ġlimited": 5451,
      "ĠDirect": 5452,
      "Ġpressure": 5453,
      "ara": 5454,
      "Json": 5455,
      "Params": 5456,
      "62": 5457,
      "eck": 5458,
      "RI": 5459,
      "rect": 5460,
      "Ġ*)": 5461,
      "Ġtoken": 5462,
      "Ġmeasured": 5463,
      "anger": 5464,
      "Ġderived": 5465,
      "Ġ}\\": 5466,
      "ĠLaw": 5467,
      "Ġ${": 5468,
      "ĠException": 5469,
      "sequence": 5470,
      "ĠHer": 5471,
      "Connection": 5472,
      "Properties": 5473,
      "Ġidentity": 5474,
      "scal": 5475,
      "Ġtensor": 5476,
      "Ġscatter": 5477,
      ">,": 5478,
      "mode": 5479,
      "styles": 5480,
      "ixel": 5481,
      "icate": 5482,
      "Ġparams": 5483,
      "ford": 5484,
      "foo": 5485,
      "Level": 5486,
      "Ġchain": 5487,
      "ancy": 5488,
      "Ġattribute": 5489,
      "Ġoptimal": 5490,
      "rees": 5491,
      "Project": 5492,
      "PL": 5493,
      "My": 5494,
      "attle": 5495,
      "aml": 5496,
      "2003": 5497,
      "Ġclean": 5498,
      "Ġcause": 5499,
      "AND": 5500,
      "Ġnet": 5501,
      "Ġimprove": 5502,
      "joy": 5503,
      "Ġcounter": 5504,
      "after": 5505,
      "Ġexperiments": 5506,
      "adr": 5507,
      "Change": 5508,
      "ka": 5509,
      "63": 5510,
      "Ġnetworks": 5511,
      "IGN": 5512,
      "rong": 5513,
      "Ġconsistent": 5514,
      "ĠWeb": 5515,
      "omb": 5516,
      "ĠName": 5517,
      "oul": 5518,
      "Prot": 5519,
      "Ġmicro": 5520,
      "orizontal": 5521,
      "Ġcoupling": 5522,
      "Ġmagn": 5523,
      "_{-": 5524,
      "EQ": 5525,
      "Ġnature": 5526,
      "ĠOpen": 5527,
      "Ġblue": 5528,
      "bind": 5529,
      "unt": 5530,
      "Ġbasic": 5531,
      "icip": 5532,
      "Ġinteger": 5533,
      "Po": 5534,
      "faces": 5535,
      "Current": 5536,
      "Ġexpon": 5537,
      "stat": 5538,
      "sv": 5539,
      "Ġstrict": 5540,
      "Ġdepends": 5541,
      ")}(": 5542,
      "bigg": 5543,
      "types": 5544,
      "Ġconstraints": 5545,
      "ĠEnglish": 5546,
      "ĠVAL": 5547,
      "Option": 5548,
      "Ġundefined": 5549,
      "Ġdise": 5550,
      "Ġbottom": 5551,
      "Ġcontribution": 5552,
      "Ġlocated": 5553,
      "Ġclassical": 5554,
      "ution": 5555,
      "ometric": 5556,
      "%%": 5557,
      ":(": 5558,
      "Ġcharacters": 5559,
      "oice": 5560,
      "Match": 5561,
      "tim": 5562,
      "Ġproduced": 5563,
      "Ġveh": 5564,
      "Ġche": 5565,
      ",\\,": 5566,
      "enced": 5567,
      "ĠInst": 5568,
      "Cal": 5569,
      "Âł": 5570,
      "fit": 5571,
      "Ġperfect": 5572,
      "Ġbal": 5573,
      "Ġprogress": 5574,
      "Ġimplementation": 5575,
      "high": 5576,
      "Ġnumerical": 5577,
      "bert": 5578,
      "matrix": 5579,
      "Ġsettings": 5580,
      "Ġstation": 5581,
      "Script": 5582,
      "Ġcells": 5583,
      "Ġroom": 5584,
      "Ġplane": 5585,
      "Ġpassed": 5586,
      "copy": 5587,
      "Ġpolar": 5588,
      "Expression": 5589,
      "'_": 5590,
      "Ġaccuracy": 5591,
      "DA": 5592,
      "mas": 5593,
      "Ġexamples": 5594,
      "ifies": 5595,
      "artifact": 5596,
      "Ġnamed": 5597,
      "TER": 5598,
      "Ġ|\\": 5599,
      "Location": 5600,
      "ĠMod": 5601,
      "ĠTime": 5602,
      "ĠOR": 5603,
      "ief": 5604,
      "Http": 5605,
      "Ġcontaining": 5606,
      ";->": 5607,
      "DC": 5608,
      "Ġquestions": 5609,
      "ĠTV": 5610,
      "ĠCour": 5611,
      "Ġroad": 5612,
      "tml": 5613,
      "del": 5614,
      "However": 5615,
      "ãĥ": 5616,
      "Ġactivity": 5617,
      "Eq": 5618,
      "lap": 5619,
      "Ġcalculated": 5620,
      "ĠSan": 5621,
      "2001": 5622,
      "ĠHamilton": 5623,
      "ael": 5624,
      "Mon": 5625,
      "Ġminim": 5626,
      "ĠService": 5627,
      "89": 5628,
      "Ġfire": 5629,
      "Ġprice": 5630,
      "Ġutil": 5631,
      "classes": 5632,
      "Ġtown": 5633,
      "win": 5634,
      "arant": 5635,
      "Ġsimulations": 5636,
      "Operation": 5637,
      "Kind": 5638,
      "eters": 5639,
      "Ġexpansion": 5640,
      "ĠPat": 5641,
      "Ġremain": 5642,
      "Ġcloud": 5643,
      "~~~~": 5644,
      "Ġaud": 5645,
      "Ġsimpl": 5646,
      "Ġcache": 5647,
      "Can": 5648,
      "Ġchosen": 5649,
      "antic": 5650,
      "Ġscope": 5651,
      "ĠTechn": 5652,
      "ĠJust": 5653,
      "Ġded": 5654,
      "Ġscalar": 5655,
      "Ġ+\\": 5656,
      "ursor": 5657,
      "zer": 5658,
      "vents": 5659,
      "icients": 5660,
      "Ġpain": 5661,
      "equality": 5662,
      "Ġexam": 5663,
      "Ġhon": 5664,
      "req": 5665,
      "Font": 5666,
      "ĠProposition": 5667,
      "Ġrev": 5668,
      "=\"_": 5669,
      "Ġanything": 5670,
      "Ġdistributed": 5671,
      "Ġdesigned": 5672,
      "Ġreduce": 5673,
      "Ġtests": 5674,
      "ĠScience": 5675,
      "Document": 5676,
      "subfigure": 5677,
      "Ġvs": 5678,
      "Ġfinally": 5679,
      "iques": 5680,
      "DI": 5681,
      "Ġorigin": 5682,
      "Ġfailed": 5683,
      "Ġsession": 5684,
      "Ġsituation": 5685,
      "Ġsatisfies": 5686,
      "Ġchanged": 5687,
      "Ġcategory": 5688,
      "Figure": 5689,
      "background": 5690,
      "had": 5691,
      "Down": 5692,
      "Ġamplit": 5693,
      "Ġalbum": 5694,
      "iciency": 5695,
      "Ġsignificantly": 5696,
      "ĠAssoci": 5697,
      "Ġadapt": 5698,
      "gorithms": 5699,
      "uge": 5700,
      "COLOR": 5701,
      "Ġsubs": 5702,
      "Ġleaders": 5703,
      "debug": 5704,
      "Ġprobably": 5705,
      "ket": 5706,
      "Ġspaces": 5707,
      "etic": 5708,
      "ĠPublic": 5709,
      "Ġresolution": 5710,
      "Ġpolitical": 5711,
      "produ": 5712,
      "hash": 5713,
      "ynamic": 5714,
      "ective": 5715,
      "ĠLondon": 5716,
      "Ġmeasurements": 5717,
      "product": 5718,
      "Ġvertices": 5719,
      "Ġled": 5720,
      "asons": 5721,
      "GE": 5722,
      "Ġrepe": 5723,
      "ederal": 5724,
      "vas": 5725,
      "pop": 5726,
      "Ġreli": 5727,
      "ua": 5728,
      "itch": 5729,
      "Async": 5730,
      "ĠHence": 5731,
      "GB": 5732,
      "72": 5733,
      "Ġoverall": 5734,
      "Ġmid": 5735,
      "Port": 5736,
      "neg": 5737,
      "Ġthread": 5738,
      "CTION": 5739,
      "uple": 5740,
      "Ġplayed": 5741,
      "Ġnamespace": 5742,
      "Ġdecay": 5743,
      "Go": 5744,
      "Iter": 5745,
      "Ġfraction": 5746,
      "Host": 5747,
      "Ġprofession": 5748,
      "ĠFurther": 5749,
      "ĠEXPECT": 5750,
      "ĠModel": 5751,
      "global": 5752,
      "Ġgreater": 5753,
      "ros": 5754,
      "Ġprocedure": 5755,
      "join": 5756,
      "Ġeverything": 5757,
      "Ġincreased": 5758,
      "ĠHol": 5759,
      "direct": 5760,
      "Ġ\\(": 5761,
      "Store": 5762,
      "make": 5763,
      "bi": 5764,
      "Ġhope": 5765,
      "ĠJap": 5766,
      "iforn": 5767,
      "Ġfriend": 5768,
      "ĠForm": 5769,
      "Ġsex": 5770,
      "}}(\\": 5771,
      "before": 5772,
      "Ġslight": 5773,
      "Ġqual": 5774,
      "():": 5775,
      "aight": 5776,
      "Integer": 5777,
      "ĠUK": 5778,
      "ĠDepartment": 5779,
      "Handle": 5780,
      "Ġshift": 5781,
      "Ġmut": 5782,
      "Sl": 5783,
      "Ġtravel": 5784,
      "ny": 5785,
      "Sk": 5786,
      "Ġinvolved": 5787,
      "yond": 5788,
      "lete": 5789,
      "Ġdisk": 5790,
      "ini": 5791,
      "vest": 5792,
      "real": 5793,
      "Ġstrength": 5794,
      "Ġdetection": 5795,
      "nost": 5796,
      "msg": 5797,
      "\"));": 5798,
      "Ġapi": 5799,
      "Dom": 5800,
      "ĠDay": 5801,
      ".;": 5802,
      "Ġ&=&": 5803,
      "92": 5804,
      "61": 5805,
      "Ġisn": 5806,
      "ĠGod": 5807,
      "Ġbeyond": 5808,
      "ris": 5809,
      "=\"-": 5810,
      "Record": 5811,
      "Ġinfo": 5812,
      "Ġdecom": 5813,
      "Ġforms": 5814,
      "Impl": 5815,
      "arter": 5816,
      "transform": 5817,
      "Ġcorresponds": 5818,
      "Ġlock": 5819,
      "cases": 5820,
      "ĠIS": 5821,
      "elebr": 5822,
      "94": 5823,
      "Ġthroughout": 5824,
      "iffer": 5825,
      "Ġcompare": 5826,
      "Ġxml": 5827,
      "ictionary": 5828,
      "colon": 5829,
      "aine": 5830,
      "lines": 5831,
      "Ġ$.": 5832,
      "Ġcontainer": 5833,
      "cribe": 5834,
      "ĠBook": 5835,
      "sect": 5836,
      "Ġmeaning": 5837,
      "ibly": 5838,
      "LS": 5839,
      "Ġtesting": 5840,
      "Ġpractice": 5841,
      "Ġexperimental": 5842,
      "while": 5843,
      "ĠMag": 5844,
      "Ġdro": 5845,
      "iring": 5846,
      "Ġextended": 5847,
      "Ġprep": 5848,
      "Ġenh": 5849,
      "inf": 5850,
      "Parameters": 5851,
      "ategories": 5852,
      "forall": 5853,
      "cles": 5854,
      "illed": 5855,
      "2002": 5856,
      "ponents": 5857,
      "Ġedges": 5858,
      "ĠCollege": 5859,
      "Ġspectral": 5860,
      "Left": 5861,
      "Reference": 5862,
      "Ġfilename": 5863,
      "Ġearlier": 5864,
      "Ġshared": 5865,
      "annels": 5866,
      "but": 5867,
      "ORD": 5868,
      "render": 5869,
      "Ġability": 5870,
      "Ġperturb": 5871,
      "defined": 5872,
      "Description": 5873,
      "Rev": 5874,
      "Ġinner": 5875,
      "Ġstudied": 5876,
      "Order": 5877,
      "Ġdatabase": 5878,
      "sto": 5879,
      "Ġcard": 5880,
      "Ġlost": 5881,
      "Ġangle": 5882,
      "Ġlif": 5883,
      "results": 5884,
      "pers": 5885,
      "ĠChina": 5886,
      "XX": 5887,
      "93": 5888,
      "ĠPost": 5889,
      "tog": 5890,
      "hi": 5891,
      "ĠOver": 5892,
      "El": 5893,
      "Ġproduce": 5894,
      "estern": 5895,
      "Enc": 5896,
      "arth": 5897,
      "ifornia": 5898,
      "uations": 5899,
      "Ġlatest": 5900,
      "ĠMet": 5901,
      "ĠPo": 5902,
      "Ġgets": 5903,
      "Ġhash": 5904,
      "Ġjoin": 5905,
      "Ġcorrelation": 5906,
      "parameter": 5907,
      "aser": 5908,
      ")_{": 5909,
      "84": 5910,
      "Ġasked": 5911,
      "sur": 5912,
      "ĠInc": 5913,
      "Sign": 5914,
      "asure": 5915,
      "Ġlargest": 5916,
      "Ġstructures": 5917,
      "Ġdi": 5918,
      "rices": 5919,
      "Ġstay": 5920,
      "================================": 5921,
      "mitted": 5922,
      "Vari": 5923,
      "Ġcompletely": 5924,
      "ĠRepublic": 5925,
      "Non": 5926,
      "=\"../../../../../": 5927,
      "enge": 5928,
      "gu": 5929,
      "perp": 5930,
      "roduction": 5931,
      "allow": 5932,
      "device": 5933,
      "Ġarchitect": 5934,
      "ĠBuild": 5935,
      "ERROR": 5936,
      "Ġacqu": 5937,
      "Ġadopt": 5938,
      ")^{\\": 5939,
      "virt": 5940,
      "Ġbegan": 5941,
      "erve": 5942,
      "Ġalthough": 5943,
      "internal": 5944,
      "Ġda": 5945,
      "Ġassess": 5946,
      "Bundle": 5947,
      "kr": 5948,
      "Ġparty": 5949,
      "radi": 5950,
      "Ġappears": 5951,
      "ĠMoreover": 5952,
      "Ġdual": 5953,
      "Helper": 5954,
      "Ġ{};": 5955,
      "ano": 5956,
      "Long": 5957,
      "}$-": 5958,
      "Ġlattice": 5959,
      "Ptr": 5960,
      "Ġsoon": 5961,
      "ĠProgram": 5962,
      "greg": 5963,
      "Ġstaff": 5964,
      "ico": 5965,
      "Ġbelong": 5966,
      "imeq": 5967,
      "Ġsil": 5968,
      "Le": 5969,
      ")^{-": 5970,
      "overed": 5971,
      "\\!\\!": 5972,
      "ãĤ": 5973,
      "ĠĠĠĠĠĠĠĠĠĠĠĠĠĠĠĠĠĠĠĠ": 5974,
      "Tim": 5975,
      "simeq": 5976,
      "Ġpreviously": 5977,
      "Ġdepth": 5978,
      "Comple": 5979,
      "ĠDate": 5980,
      "Ġintegral": 5981,
      "Ġflat": 5982,
      "Ġmor": 5983,
      "Ġdigital": 5984,
      "'}": 5985,
      "Ġhighly": 5986,
      "Ġthemselves": 5987,
      "ĠCON": 5988,
      "Ġannounced": 5989,
      "Ġtheore": 5990,
      "artifactId": 5991,
      "delete": 5992,
      "False": 5993,
      "subsubsection": 5994,
      "han": 5995,
      "Ġhel": 5996,
      "Ġappropriate": 5997,
      "These": 5998,
      "eval": 5999,
      "ĠStreet": 6000,
      "Session": 6001,
      "ĠDO": 6002,
      "border": 6003,
      "ĠPhil": 6004,
      "models": 6005,
      "Ġexhib": 6006,
      "ucture": 6007,
      "apped": 6008,
      "Ġparse": 6009,
      "Names": 6010,
      "Ġsimulation": 6011,
      "400": 6012,
      "Ġcountries": 6013,
      "bes": 6014,
      "aily": 6015,
      "Render": 6016,
      "ĠOther": 6017,
      "ĠBen": 6018,
      "mut": 6019,
      "Ġdam": 6020,
      "address": 6021,
      "Ġtrying": 6022,
      "Invalid": 6023,
      "Ġreceive": 6024,
      "Ġassumption": 6025,
      "Ġbul": 6026,
      "ĠAut": 6027,
      "Ġexternal": 6028,
      "Ġstraight": 6029,
      "Ġincreases": 6030,
      "ĠRun": 6031,
      "inder": 6032,
      "Xml": 6033,
      "Ġaxis": 6034,
      "Ġlack": 6035,
      "Ġenjoy": 6036,
      "inger": 6037,
      "Ġminutes": 6038,
      "card": 6039,
      "ĠSen": 6040,
      "strap": 6041,
      "component": 6042,
      "PRE": 6043,
      "Assert": 6044,
      "Ġemerg": 6045,
      "urren": 6046,
      "ometimes": 6047,
      "tty": 6048,
      "apid": 6049,
      "Ġspecies": 6050,
      "handle": 6051,
      "Ġpadding": 6052,
      "Ġeducation": 6053,
      "Ġraise": 6054,
      "vm": 6055,
      "ĠBG": 6056,
      "255": 6057,
      "Ġcook": 6058,
      "Ġstack": 6059,
      "Ġ$$": 6060,
      "Ġfinancial": 6061,
      "wood": 6062,
      "Ġinvariant": 6063,
      "Ġcalc": 6064,
      "%;": 6065,
      "Ġformation": 6066,
      "ida": 6067,
      "Inst": 6068,
      "hesis": 6069,
      "Menu": 6070,
      "Ġchem": 6071,
      "Ġexc": 6072,
      "UP": 6073,
      "Ġshowed": 6074,
      "Core": 6075,
      "agraph": 6076,
      "ynchron": 6077,
      "Ġgoes": 6078,
      "uler": 6079,
      "alo": 6080,
      "ighest": 6081,
      "_;": 6082,
      "sol": 6083,
      "ogene": 6084,
      "Ġcoefficients": 6085,
      "GET": 6086,
      "ĠTrump": 6087,
      "ĠAlso": 6088,
      "Ġvisual": 6089,
      "onds": 6090,
      "Ġcampaign": 6091,
      "blue": 6092,
      "ivacy": 6093,
      "Ġcontrast": 6094,
      "Ġidentified": 6095,
      "Ġinequality": 6096,
      "Ġgreen": 6097,
      "equals": 6098,
      "well": 6099,
      "OK": 6100,
      "shot": 6101,
      "ao": 6102,
      "env": 6103,
      "Mark": 6104,
      "Ġmis": 6105,
      "dest": 6106,
      "=\"../../../../../../": 6107,
      "wner": 6108,
      "prob": 6109,
      "osing": 6110,
      "ilitary": 6111,
      "TC": 6112,
      "Ġagreement": 6113,
      "interface": 6114,
      "Ġ++": 6115,
      "Ġcop": 6116,
      "Ġwide": 6117,
      "Ġcompl": 6118,
      "82": 6119,
      "Ġcareer": 6120,
      ".~(\\": 6121,
      "Ġestablished": 6122,
      "SR": 6123,
      "ĠSeries": 6124,
      "Ġdiscussion": 6125,
      "Ġworth": 6126,
      "ĠUse": 6127,
      "}^*": 6128,
      "Ġbinary": 6129,
      "Ġunits": 6130,
      "Ag": 6131,
      "Ġtrain": 6132,
      "Ġlatter": 6133,
      "auth": 6134,
      "ĠDavid": 6135,
      "ĠWilliam": 6136,
      "Que": 6137,
      "ĠGreen": 6138,
      "Meta": 6139,
      "hr": 6140,
      "Ġgeneration": 6141,
      "NG": 6142,
      "76": 6143,
      "ĠLO": 6144,
      "Reader": 6145,
      "EC": 6146,
      "Ġ::": 6147,
      "bullet": 6148,
      "iral": 6149,
      "groupId": 6150,
      "(*": 6151,
      "focus": 6152,
      "Ġcomputed": 6153,
      "ĠCons": 6154,
      "Ġreveal": 6155,
      "Ġleave": 6156,
      "ĠMap": 6157,
      "{$\\": 6158,
      "Ġestimated": 6159,
      "icker": 6160,
      "ech": 6161,
      "UB": 6162,
      "ospital": 6163,
      "Ġ(\"": 6164,
      "Ġprotocol": 6165,
      "Ġhistor": 6166,
      "Ġinternational": 6167,
      "Ġfavor": 6168,
      "Ġidentify": 6169,
      "Ġpackage": 6170,
      "access": 6171,
      "Ġfollowed": 6172,
      "Ġsurvey": 6173,
      "Ġprevent": 6174,
      "ĠFil": 6175,
      "ĠFin": 6176,
      "fram": 6177,
      "Ġarbitrary": 6178,
      "Ġdeliver": 6179,
      "byte": 6180,
      "Pass": 6181,
      "erry": 6182,
      "rench": 6183,
      "seud": 6184,
      "ufact": 6185,
      "estamp": 6186,
      "Ġvariety": 6187,
      "Ġconcent": 6188,
      "ican": 6189,
      "'m": 6190,
      "ologies": 6191,
      "ĠReview": 6192,
      "uri": 6193,
      "ingu": 6194,
      "Ġefficient": 6195,
      "URE": 6196,
      "MB": 6197,
      "NavBar": 6198,
      "91": 6199,
      "ĠKey": 6200,
      "Ġvacc": 6201,
      "Ġassign": 6202,
      "(:": 6203,
      "ĠGeneral": 6204,
      "Ġdistributions": 6205,
      "Ġmodes": 6206,
      "Ġemail": 6207,
      "Num": 6208,
      "LP": 6209,
      "Ġscore": 6210,
      "ertific": 6211,
      "$$\\": 6212,
      "fields": 6213,
      "Ġintroduce": 6214,
      "bal": 6215,
      "'],": 6216,
      "tribution": 6217,
      "irl": 6218,
      "WE": 6219,
      "ker": 6220,
      "toString": 6221,
      "Ġreading": 6222,
      "Ġelectric": 6223,
      "Ġtransformation": 6224,
      "Ġmaintain": 6225,
      "Ġpropag": 6226,
      "$).": 6227,
      "Each": 6228,
      "ipeline": 6229,
      "Ġradio": 6230,
      "burg": 6231,
      "Ġharm": 6232,
      "hol": 6233,
      "^{+": 6234,
      "tee": 6235,
      "bold": 6236,
      "Ġconserv": 6237,
      "Ġinterval": 6238,
      "Ġpairs": 6239,
      "cknow": 6240,
      "ĠYour": 6241,
      "Ass": 6242,
      "ĠValue": 6243,
      "docs": 6244,
      "Ġmeasures": 6245,
      "ĠĠĠĠĠĠĠĠĠĠĠĠĠĠĠĠĠĠ": 6246,
      "Ġimmediately": 6247,
      "boot": 6248,
      "Ġdead": 6249,
      "Ġsaw": 6250,
      "rep": 6251,
      "}}^": 6252,
      "ampling": 6253,
      "BR": 6254,
      "double": 6255,
      "External": 6256,
      "Ġmole": 6257,
      "Ġactions": 6258,
      "FR": 6259,
      "istent": 6260,
      "Ġ('": 6261,
      "ĠGovern": 6262,
      "ples": 6263,
      "'ve": 6264,
      "alls": 6265,
      "etail": 6266,
      "endix": 6267,
      "usters": 6268,
      "ĠMath": 6269,
      "ipped": 6270,
      "onder": 6271,
      "ĠProject": 6272,
      "Ġ=\\": 6273,
      "Ġdelete": 6274,
      "lands": 6275,
      "Ġgenerally": 6276,
      "Ġliving": 6277,
      "Ġoccur": 6278,
      "ĠEqu": 6279,
      "ĠAnt": 6280,
      "Ġelection": 6281,
      "Ġbeaut": 6282,
      "ya": 6283,
      "ĠDon": 6284,
      "Ġelem": 6285,
      "kind": 6286,
      "Ġsegment": 6287,
      "Argument": 6288,
      ")}{\\": 6289,
      "Ġfair": 6290,
      "Definition": 6291,
      "Ġprinci": 6292,
      "Ġresid": 6293,
      "rot": 6294,
      "van": 6295,
      "Ġtasks": 6296,
      "ivil": 6297,
      "ror": 6298,
      "rome": 6299,
      "Ġ['": 6300,
      "endar": 6301,
      "Body": 6302,
      "otion": 6303,
      "Ġalgorithms": 6304,
      "TS": 6305,
      "widget": 6306,
      "ria": 6307,
      "media": 6308,
      "Ġmask": 6309,
      "Red": 6310,
      "Ġcurves": 6311,
      "INS": 6312,
      "Ġfight": 6313,
      "SSERT": 6314,
      "Ġsomeone": 6315,
      "Rect": 6316,
      "Ver": 6317,
      "Ġapproaches": 6318,
      "ether": 6319,
      "Ġinj": 6320,
      "ĠCalifornia": 6321,
      "Ġcombination": 6322,
      "ĠAre": 6323,
      "ĠPaul": 6324,
      "atalog": 6325,
      "Ġvict": 6326,
      "Ġheader": 6327,
      "ws": 6328,
      "irus": 6329,
      "Ġstable": 6330,
      "ounds": 6331,
      "Ġexistence": 6332,
      "Database": 6333,
      "orge": 6334,
      "ifically": 6335,
      "Mar": 6336,
      "points": 6337,
      "emy": 6338,
      "ingle": 6339,
      "Are": 6340,
      "Parent": 6341,
      "Application": 6342,
      "full": 6343,
      "ĠCap": 6344,
      "white": 6345,
      "pmatrix": 6346,
      "ĠIr": 6347,
      "ĠEuropean": 6348,
      "Ġadvant": 6349,
      "ĠCre": 6350,
      "Cor": 6351,
      "'ll": 6352,
      "Vector": 6353,
      "ĠRequ": 6354,
      "ÃŃ": 6355,
      "Ġnovel": 6356,
      "exports": 6357,
      "Tool": 6358,
      "ilib": 6359,
      "Ġmodern": 6360,
      "Metadata": 6361,
      ")\\\\": 6362,
      "Ġpartial": 6363,
      ")_": 6364,
      "Ġimag": 6365,
      "ulture": 6366,
      "Values": 6367,
      "Ġauthors": 6368,
      "Var": 6369,
      "PH": 6370,
      "ani": 6371,
      "Ġpurpose": 6372,
      "Ã³": 6373,
      "ressed": 6374,
      "ĠTrue": 6375,
      "Ġanti": 6376,
      "BS": 6377,
      "SET": 6378,
      "Ġmeasurement": 6379,
      "Ġoffers": 6380,
      "rate": 6381,
      "hs": 6382,
      "callback": 6383,
      "Ġoffice": 6384,
      "Ġwanted": 6385,
      "Ġsquare": 6386,
      "Ġmiddle": 6387,
      "Ġpolice": 6388,
      "ĠUs": 6389,
      "Ġdenotes": 6390,
      "Schema": 6391,
      "While": 6392,
      "ĠInstitute": 6393,
      "df": 6394,
      "$^{-": 6395,
      "Ġestablish": 6396,
      "inant": 6397,
      "loc": 6398,
      "Ġinteractions": 6399,
      ")--": 6400,
      "enum": 6401,
      "ĠMat": 6402,
      "Ġ^": 6403,
      "Policy": 6404,
      "icity": 6405,
      "Ġprefer": 6406,
      "click": 6407,
      "ĠDevelop": 6408,
      "trict": 6409,
      "Ġmentioned": 6410,
      "Section": 6411,
      "ORM": 6412,
      "Ġdetail": 6413,
      "Ġparticularly": 6414,
      "bing": 6415,
      "Ġeveryone": 6416,
      "73": 6417,
      "oting": 6418,
      "bits": 6419,
      "?âĢĿ": 6420,
      "Ġclearly": 6421,
      "ĠPort": 6422,
      "send": 6423,
      "picture": 6424,
      "ĠArm": 6425,
      "ishes": 6426,
      "Ġdependence": 6427,
      "Ġplaying": 6428,
      "Ġscript": 6429,
      "leep": 6430,
      "Thus": 6431,
      "Ġbyte": 6432,
      "textsc": 6433,
      "alg": 6434,
      "Eng": 6435,
      "iece": 6436,
      "Ġ),": 6437,
      "romise": 6438,
      "\\_": 6439,
      "Ġspatial": 6440,
      "hell": 6441,
      "irit": 6442,
      "framework": 6443,
      "ATA": 6444,
      "Device": 6445,
      "Su": 6446,
      "Ġincor": 6447,
      "ĠEast": 6448,
      "yr": 6449,
      "Ġstrateg": 6450,
      "Ġrock": 6451,
      "Ġten": 6452,
      "Ġremaining": 6453,
      "ĠRuss": 6454,
      "})$.": 6455,
      "Use": 6456,
      "acebook": 6457,
      "Ġboard": 6458,
      "ville": 6459,
      "ĠCanada": 6460,
      "eles": 6461,
      "Track": 6462,
      "79": 6463,
      "Ġsingular": 6464,
      "Ġestimates": 6465,
      "session": 6466,
      "za": 6467,
      "ugins": 6468,
      "Ġinvoke": 6469,
      "Ġmachine": 6470,
      "contin": 6471,
      "Ġsymmetric": 6472,
      "iant": 6473,
      "\\|_{": 6474,
      "74": 6475,
      "Ġremoved": 6476,
      "WS": 6477,
      "displaystyle": 6478,
      "Ġpure": 6479,
      "sql": 6480,
      "export": 6481,
      "DS": 6482,
      "cut": 6483,
      "Ġaspect": 6484,
      "Args": 6485,
      "Ġcoordinates": 6486,
      "Ġintr": 6487,
      "Member": 6488,
      "Ġcalls": 6489,
      "disabled": 6490,
      "ental": 6491,
      "amental": 6492,
      "Ġdrug": 6493,
      "reedom": 6494,
      "Ġepis": 6495,
      ">();": 6496,
      "Bytes": 6497,
      "mic": 6498,
      "Template": 6499,
      "`.": 6500,
      "Ġconsists": 6501,
      "83": 6502,
      "Ġreflect": 6503,
      "haps": 6504,
      "Ġfem": 6505,
      "Ġyields": 6506,
      "airs": 6507,
      "ĠError": 6508,
      "eries": 6509,
      "!!": 6510,
      "rial": 6511,
      "Ġunderstanding": 6512,
      "Ġpartition": 6513,
      "writ": 6514,
      "spect": 6515,
      "ĠassertEquals": 6516,
      "Ġsurpr": 6517,
      "itz": 6518,
      "ĠMor": 6519,
      "dependent": 6520,
      "Ġexpos": 6521,
      "Ġmock": 6522,
      "Ġwrong": 6523,
      "hover": 6524,
      "Ġbytes": 6525,
      "oration": 6526,
      "ĠMethod": 6527,
      "mc": 6528,
      "DL": 6529,
      "Ġhighest": 6530,
      "ashington": 6531,
      "Am": 6532,
      "Ġanswer": 6533,
      "Ġnor": 6534,
      "Ġ\"\\": 6535,
      "Ġmatrices": 6536,
      "dist": 6537,
      "aved": 6538,
      "References": 6539,
      "omorphic": 6540,
      "Ġste": 6541,
      "Ð»": 6542,
      "Ġspectra": 6543,
      ")$-": 6544,
      "Ġorient": 6545,
      "remark": 6546,
      "ĠBay": 6547,
      "initial": 6548,
      "dule": 6549,
      "Ġtro": 6550,
      "Results": 6551,
      "Ġcast": 6552,
      "Ġhimself": 6553,
      "Ġhighlight": 6554,
      "Ġattr": 6555,
      "Ġabsolute": 6556,
      "_-": 6557,
      "ado": 6558,
      "raz": 6559,
      "icks": 6560,
      "Ġdemand": 6561,
      "war": 6562,
      "ĠBGCOLOR": 6563,
      "__(": 6564,
      "Ġfriends": 6565,
      "Ġnearly": 6566,
      "hbar": 6567,
      "Ġut": 6568,
      "Ġbeginning": 6569,
      "legal": 6570,
      "Ġdetailed": 6571,
      "Ġtechniques": 6572,
      "ĠYear": 6573,
      "ĠPy": 6574,
      "1999": 6575,
      "Only": 6576,
      "ĠMem": 6577,
      "icons": 6578,
      "Ġtempor": 6579,
      "Ġanalog": 6580,
      "Ġdevices": 6581,
      "boolean": 6582,
      "webkit": 6583,
      "NR": 6584,
      "inv": 6585,
      "Ġscient": 6586,
      "Ġstorage": 6587,
      "Dep": 6588,
      "Ġunsigned": 6589,
      "Ġsave": 6590,
      "Ġtools": 6591,
      "ITY": 6592,
      "Mock": 6593,
      "Ġproviding": 6594,
      "Ġscience": 6595,
      "olves": 6596,
      "replace": 6597,
      "Ġreserv": 6598,
      "las": 6599,
      "Ġlives": 6600,
      "stylesheet": 6601,
      "Ġmes": 6602,
      "Windows": 6603,
      "short": 6604,
      "Ġwoman": 6605,
      "Ġtransaction": 6606,
      "Ġgrid": 6607,
      "\",\"": 6608,
      "Ġobvious": 6609,
      "Ġsubset": 6610,
      "Ġlegal": 6611,
      "onical": 6612,
      "Ġruns": 6613,
      "Ġprojects": 6614,
      "ĠMal": 6615,
      "|_{": 6616,
      "Ġbehavi": 6617,
      "}\"": 6618,
      "Doc": 6619,
      "Ġpartners": 6620,
      "hbox": 6621,
      "ĠNOT": 6622,
      "ifications": 6623,
      "ĠMr": 6624,
      "Ġcontributions": 6625,
      "Ġmoving": 6626,
      "ĠBritish": 6627,
      "Ġworked": 6628,
      "Ne": 6629,
      "Ġclin": 6630,
      "ĠEach": 6631,
      "mos": 6632,
      "81": 6633,
      "ĠDel": 6634,
      "Has": 6635,
      "Ġjoint": 6636,
      "ĠAR": 6637,
      "custom": 6638,
      "rium": 6639,
      "Ġagent": 6640,
      "exception": 6641,
      "rip": 6642,
      "aming": 6643,
      "Ġodd": 6644,
      "uate": 6645,
      "Ġweeks": 6646,
      "ATH": 6647,
      "Enabled": 6648,
      "ĠNO": 6649,
      "Ġcapacity": 6650,
      "ĠIO": 6651,
      "GS": 6652,
      "Ġthreshold": 6653,
      "Ġexcit": 6654,
      "Ġli": 6655,
      "Ġonto": 6656,
      "ampions": 6657,
      "Ġguarant": 6658,
      "Ġflag": 6659,
      "Stack": 6660,
      "dy": 6661,
      "Ġdisease": 6662,
      "}}^{": 6663,
      "Ġring": 6664,
      "Ġmedical": 6665,
      "ĠIndian": 6666,
      "Ġpen": 6667,
      "Ġlibrary": 6668,
      "TEST": 6669,
      "angular": 6670,
      "Ġdifferential": 6671,
      "Ġsafety": 6672,
      "Api": 6673,
      "Ġasympt": 6674,
      "FL": 6675,
      "Ġcollabor": 6676,
      "Ġdistinct": 6677,
      "Ġhum": 6678,
      "ested": 6679,
      "Rule": 6680,
      "Ġthreat": 6681,
      "Ġinline": 6682,
      "comput": 6683,
      "SION": 6684,
      "jo": 6685,
      "modal": 6686,
      "Ġeq": 6687,
      "Boolean": 6688,
      "Any": 6689,
      "Ġ<=": 6690,
      "illa": 6691,
      "}&": 6692,
      "Title": 6693,
      "ĠOper": 6694,
      "Ġupdated": 6695,
      "ĠArch": 6696,
      "Ġphen": 6697,
      "Ġcelebr": 6698,
      "ĠĠĠĠĠĠĠĠĠĠĠĠĠĠĠĠĠĠĠĠĠĠĠĠĠ": 6699,
      "ĠGaussian": 6700,
      "Ġnotice": 6701,
      "Ġmissing": 6702,
      "proposition": 6703,
      "special": 6704,
      "forward": 6705,
      "wrap": 6706,
      "orter": 6707,
      "Parser": 6708,
      "Ġ})": 6709,
      "Ġcool": 6710,
      "[(": 6711,
      "joint": 6712,
      "ustain": 6713,
      "Ġtransp": 6714,
      "ployment": 6715,
      "virtual": 6716,
      "Ġobserve": 6717,
      "Ġheavy": 6718,
      "Ġenter": 6719,
      "Ġdirectory": 6720,
      "\"\"\"": 6721,
      "Delete": 6722,
      "plugin": 6723,
      "coin": 6724,
      "FC": 6725,
      "useum": 6726,
      "Ġinject": 6727,
      "Root": 6728,
      "Ġconstraint": 6729,
      "Ġson": 6730,
      "ĠHel": 6731,
      "ä¸": 6732,
      "Ġmorph": 6733,
      "HTML": 6734,
      "axis": 6735,
      "Ġdifferences": 6736,
      "Hz": 6737,
      "Ġspread": 6738,
      "mapsto": 6739,
      "Ġquas": 6740,
      "MR": 6741,
      "Ġalt": 6742,
      "ĠNor": 6743,
      "akers": 6744,
      "inn": 6745,
      "Pe": 6746,
      "anned": 6747,
      "posite": 6748,
      "Ġindicates": 6749,
      "Ġcycle": 6750,
      "settings": 6751,
      "inate": 6752,
      "Ġquickly": 6753,
      "Ġformal": 6754,
      "ĠIP": 6755,
      "Ġdrop": 6756,
      "Ġmsg": 6757,
      "enses": 6758,
      "Ġstellar": 6759,
      "Ġanim": 6760,
      "hold": 6761,
      "Ġwind": 6762,
      "kg": 6763,
      "Ġos": 6764,
      "EXT": 6765,
      "ĠJames": 6766,
      "Ġvac": 6767,
      "rote": 6768,
      "gan": 6769,
      "oving": 6770,
      "ĠFoundation": 6771,
      "Ġstudent": 6772,
      "room": 6773,
      "Ġgrant": 6774,
      "store": 6775,
      "comment": 6776,
      "ĠBusiness": 6777,
      "ĠUsing": 6778,
      "riz": 6779,
      "success": 6780,
      "Using": 6781,
      "register": 6782,
      ">.": 6783,
      "Ġpurch": 6784,
      "Ġthick": 6785,
      "'(": 6786,
      "poses": 6787,
      "`,": 6788,
      "mock": 6789,
      "olic": 6790,
      "Storage": 6791,
      "odot": 6792,
      "150": 6793,
      "71": 6794,
      "ilation": 6795,
      "sequently": 6796,
      "Execut": 6797,
      "ĠJSON": 6798,
      "ĠPal": 6799,
      "Ġready": 6800,
      "$;": 6801,
      "]]": 6802,
      "Theorem": 6803,
      "Ġrout": 6804,
      "Ġassumed": 6805,
      "Ġfamil": 6806,
      "ena": 6807,
      "forms": 6808,
      "Ġgiving": 6809,
      "Ġmount": 6810,
      "ĠMac": 6811,
      "icated": 6812,
      "Ġcomputation": 6813,
      "Param": 6814,
      "Writer": 6815,
      "ester": 6816,
      "fg": 6817,
      "Ġslightly": 6818,
      "ĠRel": 6819,
      "ults": 6820,
      "\\{\\": 6821,
      "Ġcircle": 6822,
      "&#": 6823,
      "ĠCouncil": 6824,
      "Ġpush": 6825,
      "Ġsqu": 6826,
      "shape": 6827,
      "Ġsetup": 6828,
      "ona": 6829,
      "Ġdou": 6830,
      "Byte": 6831,
      "andemic": 6832,
      "ĠFunction": 6833,
      "rev": 6834,
      "Ġbranch": 6835,
      "urt": 6836,
      "ĠTex": 6837,
      "ĠNetwork": 6838,
      "AGE": 6839,
      "Ġkernel": 6840,
      "ĠAnn": 6841,
      "ĠJack": 6842,
      "condition": 6843,
      "Ġliterature": 6844,
      "Ġreduction": 6845,
      "plements": 6846,
      ")},": 6847,
      "ĠHamiltonian": 6848,
      "Cre": 6849,
      "ĠEvent": 6850,
      "amely": 6851,
      "----------------------------------------------------------------": 6852,
      "Ġculture": 6853,
      "Obj": 6854,
      "Click": 6855,
      "istical": 6856,
      "Ġvectors": 6857,
      "super": 6858,
      "Descriptor": 6859,
      "ilibrium": 6860,
      "pa": 6861,
      "Ġachieve": 6862,
      "ĠThom": 6863,
      "Ġsector": 6864,
      "Ġactivities": 6865,
      "Ġprograms": 6866,
      "Ġjud": 6867,
      "Cons": 6868,
      "Ġtraditional": 6869,
      "Ġbuy": 6870,
      "Sum": 6871,
      "ĠMax": 6872,
      "Ġer": 6873,
      "Ġecho": 6874,
      "Ġ'/": 6875,
      "Ġ\"/": 6876,
      "Ġhydro": 6877,
      "Ġsold": 6878,
      "Ġcriter": 6879,
      "Ġ(*": 6880,
      "clusive": 6881,
      "FAULT": 6882,
      "Ġhidden": 6883,
      "connect": 6884,
      "ĠSU": 6885,
      "Ġbirth": 6886,
      "icket": 6887,
      "}({\\": 6888,
      "pub": 6889,
      "Ġjav": 6890,
      "Ġgave": 6891,
      "inem": 6892,
      "Ġgap": 6893,
      "Ġsafe": 6894,
      "ih": 6895,
      "Ġtrend": 6896,
      "uns": 6897,
      "iversal": 6898,
      "Ġrelatively": 6899,
      "Ġbur": 6900,
      "diag": 6901,
      "oute": 6902,
      "Ġcreating": 6903,
      "cloud": 6904,
      "Ġbounds": 6905,
      "Ġprocessing": 6906,
      "notation": 6907,
      "Ġpan": 6908,
      "Ġsatisfy": 6909,
      "ĠURL": 6910,
      "Ġfine": 6911,
      "ĠVer": 6912,
      "Widget": 6913,
      "Fields": 6914,
      "'))": 6915,
      "KEY": 6916,
      "ailed": 6917,
      "ĠĠĠĠĠĠĠĠĠĠĠĠĠĠĠĠĠĠĠĠĠĠĠĠĠĠĠĠĠĠĠĠĠĠĠĠĠĠĠ": 6918,
      "ĠMart": 6919,
      "admin": 6920,
      "ĠAustralia": 6921,
      "called": 6922,
      "&=&": 6923,
      "Ġaward": 6924,
      "Ġvary": 6925,
      "END": 6926,
      "ky": 6927,
      "Ġneighbor": 6928,
      "ĠCopy": 6929,
      "ĠBig": 6930,
      ")),": 6931,
      "help": 6932,
      "Ġaffect": 6933,
      "tik": 6934,
      "stop": 6935,
      "ĠBest": 6936,
      "avit": 6937,
      "track": 6938,
      "Ġdimensions": 6939,
      "Ġplease": 6940,
      "Job": 6941,
      "ĠLeg": 6942,
      "domain": 6943,
      "Ġmasses": 6944,
      "Ġtrust": 6945,
      "||": 6946,
      "mag": 6947,
      "$~": 6948,
      "CI": 6949,
      "Ġfamilies": 6950,
      "power": 6951,
      "ĠPM": 6952,
      "ĠSum": 6953,
      "Prop": 6954,
      "Ġrepresented": 6955,
      ",$": 6956,
      "Ġlo": 6957,
      "Ġsites": 6958,
      "1998": 6959,
      "Ġvertical": 6960,
      "Ġopportunity": 6961,
      "atible": 6962,
      "Ġangular": 6963,
      "Ġshowing": 6964,
      "Ġtor": 6965,
      "Ġclassification": 6966,
      "ĠTop": 6967,
      "Ġreports": 6968,
      "Ġreson": 6969,
      "Ġmassive": 6970,
      "mass": 6971,
      "Ġfunctional": 6972,
      "attribute": 6973,
      "Ġmodified": 6974,
      "Ġabsor": 6975,
      "AME": 6976,
      "Ġbooks": 6977,
      "Ġcosts": 6978,
      "Queue": 6979,
      "Ġtrade": 6980,
      "Ġadjust": 6981,
      "UES": 6982,
      "Scope": 6983,
      "Ġmeeting": 6984,
      "sche": 6985,
      "###": 6986,
      "icies": 6987,
      "ĠEduc": 6988,
      "Ġcomments": 6989,
      "Ġoptical": 6990,
      "Decl": 6991,
      "ĠSur": 6992,
      "aws": 6993,
      "TED": 6994,
      "'>": 6995,
      "Ġfather": 6996,
      "Ġteams": 6997,
      "Ġmapping": 6998,
      "ipal": 6999,
      "Ġtouch": 7000,
      "enter": 7001,
      "ture": 7002,
      "ĠAL": 7003,
      "Ġdelay": 7004,
      "Custom": 7005,
      "Ġideal": 7006,
      "poss": 7007,
      "ĠAND": 7008,
      "Ġul": 7009,
      "scill": 7010,
      "circle": 7011,
      "ierarch": 7012,
      "insert": 7013,
      "anging": 7014,
      ")).": 7015,
      "hadoop": 7016,
      "arc": 7017,
      "padding": 7018,
      "igration": 7019,
      "ĠDan": 7020,
      "GC": 7021,
      "Ġcombined": 7022,
      "Ġparallel": 7023,
      "Ġconvergence": 7024,
      "weet": 7025,
      "ĠWhite": 7026,
      "Ġprediction": 7027,
      "Ġserial": 7028,
      "Ġdefin": 7029,
      "Ġheat": 7030,
      "rf": 7031,
      "Ġgalaxy": 7032,
      "udes": 7033,
      "Ġpoly": 7034,
      "Home": 7035,
      "Ġindicate": 7036,
      "DIR": 7037,
      "Ġexport": 7038,
      "keys": 7039,
      "ĠEngland": 7040,
      "iller": 7041,
      "two": 7042,
      "123": 7043,
      "Ġunknown": 7044,
      "application": 7045,
      "Ġcref": 7046,
      "Classes": 7047,
      "ĠConn": 7048,
      "Ġadding": 7049,
      "ollowing": 7050,
      "desc": 7051,
      "Ġcov": 7052,
      "mann": 7053,
      "Ġfootball": 7054,
      "Ġlooks": 7055,
      "ĠRich": 7056,
      "Const": 7057,
      "Ġinterview": 7058,
      "Sm": 7059,
      "ĠSO": 7060,
      "Ġexchange": 7061,
      "GR": 7062,
      "Ġrapid": 7063,
      "\"`": 7064,
      "SM": 7065,
      "ette": 7066,
      "each": 7067,
      "Ġminimal": 7068,
      "ĠPress": 7069,
      "Ġjson": 7070,
      "itivity": 7071,
      "OO": 7072,
      "Multi": 7073,
      "abil": 7074,
      "email": 7075,
      "Ġeconomic": 7076,
      "Ġtrigger": 7077,
      "exists": 7078,
      "Cle": 7079,
      "DT": 7080,
      "going": 7081,
      "Timeout": 7082,
      "essor": 7083,
      "look": 7084,
      "256": 7085,
      "ĠUser": 7086,
      "Ġmovie": 7087,
      "Ġstories": 7088,
      "category": 7089,
      "mma": 7090,
      "Ġcomputer": 7091,
      "Att": 7092,
      "Ġexpressed": 7093,
      "asy": 7094,
      "loop": 7095,
      "diff": 7096,
      "agr": 7097,
      "Ġscene": 7098,
      "miss": 7099,
      "'.": 7100,
      "ĠCourt": 7101,
      "~$\\": 7102,
      "ellig": 7103,
      "ancing": 7104,
      "Ġrace": 7105,
      ")+\\": 7106,
      "Initial": 7107,
      "iders": 7108,
      "DR": 7109,
      "Ġpretty": 7110,
      "Before": 7111,
      "Ġbrief": 7112,
      "Ġdynamic": 7113,
      "Ġinform": 7114,
      "auto": 7115,
      "Ġinsert": 7116,
      "Cond": 7117,
      "profile": 7118,
      "Ġclub": 7119,
      "Icon": 7120,
      "CF": 7121,
      "Ġcarry": 7122,
      "holder": 7123,
      "Ġefficiency": 7124,
      "Ġcapital": 7125,
      "Ġinfluence": 7126,
      "astr": 7127,
      "Ġmother": 7128,
      "Msg": 7129,
      "ĠField": 7130,
      "Ġinstit": 7131,
      "Ġquadr": 7132,
      "ĠWashington": 7133,
      "cmd": 7134,
      "Ġbrand": 7135,
      "Ġmaster": 7136,
      "care": 7137,
      "Ġconsidering": 7138,
      "ipe": 7139,
      "Ġplant": 7140,
      "obert": 7141,
      "Changed": 7142,
      "alloc": 7143,
      "Ġkeys": 7144,
      "Ġeditor": 7145,
      "nel": 7146,
      "ĠĠĠĠĠĠĠĠĠĠĠĠĠĠĠĠĠĠĠĠĠĠĠĠĠĠĠĠĠĠĠĠĠĠĠĠĠĠĠĠĠĠĠĠĠĠĠĠĠĠĠĠĠĠĠĠĠĠĠĠĠĠĠĠ": 7147,
      "Ġattributes": 7148,
      "Ġcommunication": 7149,
      "fully": 7150,
      "alled": 7151,
      "Ġscattering": 7152,
      "Ġoptimization": 7153,
      "tn": 7154,
      "security": 7155,
      "Ġblocks": 7156,
      "Ġmaterials": 7157,
      "Ġclimate": 7158,
      "Ġcourt": 7159,
      "Ġcaused": 7160,
      "aturday": 7161,
      "Ġstrongly": 7162,
      "Ġinduced": 7163,
      "Ġcalculation": 7164,
      "thread": 7165,
      "Ġseparate": 7166,
      "Ġcustomers": 7167,
      "HS": 7168,
      "parameters": 7169,
      "Ġmanufact": 7170,
      "ODO": 7171,
      "plications": 7172,
      "ĠCall": 7173,
      "irmed": 7174,
      "ston": 7175,
      "Ġevaluation": 7176,
      "})$,": 7177,
      "Ġdrive": 7178,
      "road": 7179,
      "ymmetric": 7180,
      "kin": 7181,
      "Ðº": 7182,
      "Ġplans": 7183,
      "IB": 7184,
      "Ġalloc": 7185,
      "mazon": 7186,
      "Ġunderlying": 7187,
      "ĠFinally": 7188,
      "Ġbank": 7189,
      "Active": 7190,
      "Display": 7191,
      "ĠÎ": 7192,
      "Ġrise": 7193,
      "Ġenable": 7194,
      "Ġgeometry": 7195,
      "->_": 7196,
      "rons": 7197,
      "Ġrequirements": 7198,
      "Ġtypically": 7199,
      "Ġfailure": 7200,
      "ander": 7201,
      "sort": 7202,
      "Art": 7203,
      "ĠHTML": 7204,
      "ĠFour": 7205,
      "ĠMedia": 7206,
      "pay": 7207,
      "Ġextr": 7208,
      "recated": 7209,
      "ĠCP": 7210,
      "Ġpod": 7211,
      "Ġalternative": 7212,
      "Network": 7213,
      "ĠTH": 7214,
      "tw": 7215,
      "Ġsoft": 7216,
      "dependency": 7217,
      "ACE": 7218,
      "tikz": 7219,
      "Ġunless": 7220,
      "Ġbutton": 7221,
      "ĠMA": 7222,
      "Ġmoved": 7223,
      "Ġinnov": 7224,
      "inations": 7225,
      "ĠAfrica": 7226,
      "rier": 7227,
      "Ġnotation": 7228,
      "ĠDemocr": 7229,
      "Ġindividuals": 7230,
      "network": 7231,
      "inese": 7232,
      "ĠFacebook": 7233,
      "green": 7234,
      "ĠRob": 7235,
      "ĠBase": 7236,
      "Ġsynt": 7237,
      "items": 7238,
      "ĠUnder": 7239,
      "region": 7240,
      "Ġtun": 7241,
      "acro": 7242,
      "ago": 7243,
      "Ġinterested": 7244,
      "oves": 7245,
      "elegate": 7246,
      "Ġcentury": 7247,
      "Ġfill": 7248,
      "apers": 7249,
      "chain": 7250,
      "iance": 7251,
      "igr": 7252,
      "}}$,": 7253,
      "Ġhypot": 7254,
      "elli": 7255,
      "FILE": 7256,
      "Ġrotation": 7257,
      "osh": 7258,
      "Ġinfr": 7259,
      ")-\\": 7260,
      "JSON": 7261,
      "Ġcalculate": 7262,
      "ĠâĢ¦": 7263,
      "abe": 7264,
      "protobuf": 7265,
      "))$": 7266,
      "Ġsal": 7267,
      "Ġmatching": 7268,
      "CHE": 7269,
      "grid": 7270,
      "ĠSte": 7271,
      "StyleID": 7272,
      "Ġinterpret": 7273,
      "ĠLong": 7274,
      "Ident": 7275,
      "=\"/": 7276,
      "ogeneous": 7277,
      "Ġconclude": 7278,
      "Ġpiece": 7279,
      "}}$.": 7280,
      "modules": 7281,
      "Ġmus": 7282,
      "opes": 7283,
      "Ġobservation": 7284,
      "hetic": 7285,
      "Ġeight": 7286,
      "rames": 7287,
      "Ġcompleted": 7288,
      "radius": 7289,
      "ocker": 7290,
      "-->": 7291,
      "Ġtypical": 7292,
      "120": 7293,
      "ĠTwitter": 7294,
      "ĠAN": 7295,
      "language": 7296,
      "Draw": 7297,
      "udget": 7298,
      "Ġsn": 7299,
      "Ġturned": 7300,
      "Ġoscill": 7301,
      "Ġlayers": 7302,
      "Ġcalculations": 7303,
      "Ġserious": 7304,
      "ĠBel": 7305,
      "Ġgradient": 7306,
      "margin": 7307,
      "Ġinstr": 7308,
      "osis": 7309,
      "urrency": 7310,
      "ĠJournal": 7311,
      "Ġamplitude": 7312,
      "Ġregime": 7313,
      "DM": 7314,
      "_->": 7315,
      "andard": 7316,
      "ĠView": 7317,
      "Ġnucle": 7318,
      "TEX": 7319,
      "connection": 7320,
      "sey": 7321,
      "Ġapproximately": 7322,
      "gin": 7323,
      "ius": 7324,
      "unsigned": 7325,
      "words": 7326,
      "Ġtab": 7327,
      "fix": 7328,
      "Ġener": 7329,
      "Ġcontained": 7330,
      "Ġsubgroup": 7331,
      "Ġmessages": 7332,
      ";<": 7333,
      "panel": 7334,
      "ipage": 7335,
      "////////////////////////////////": 7336,
      "Debug": 7337,
      "LOG": 7338,
      "Ġproport": 7339,
      "Ġdepending": 7340,
      "Ġseek": 7341,
      "ga": 7342,
      "Ġrecords": 7343,
      "Ġhandler": 7344,
      "Ġacceler": 7345,
      "Symbol": 7346,
      "ĠDi": 7347,
      "Channel": 7348,
      "Ġinstanceof": 7349,
      "stable": 7350,
      "IA": 7351,
      "Ġproved": 7352,
      "INSERT": 7353,
      "Ġdirector": 7354,
      "cular": 7355,
      "amm": 7356,
      "128": 7357,
      "Ġreader": 7358,
      "NotNull": 7359,
      "Ġmanager": 7360,
      "ĠAccording": 7361,
      "Ġoccurs": 7362,
      "ughter": 7363,
      "Security": 7364,
      "Ġforces": 7365,
      "Ġshock": 7366,
      "Ġmixed": 7367,
      "Ġcoordinate": 7368,
      "ader": 7369,
      "ĠMost": 7370,
      "mediate": 7371,
      "ups": 7372,
      "Introduction": 7373,
      "ĠĠĠĠĠĠĠĠĠĠĠĠĠĠĠĠĠĠĠĠĠĠĠĠ": 7374,
      "ĠĠĠĠĠĠĠĠĠĠĠĠĠĠĠĠĠĠĠĠĠĠ": 7375,
      "Ġsaying": 7376,
      "Ġbrought": 7377,
      "Ġfundamental": 7378,
      "inline": 7379,
      "oday": 7380,
      "Ġsections": 7381,
      "ĠSund": 7382,
      "}{|": 7383,
      "DP": 7384,
      "Ġstress": 7385,
      "-$": 7386,
      "Finally": 7387,
      "BP": 7388,
      ":}": 7389,
      "Ġworkers": 7390,
      "ĠCle": 7391,
      "Step": 7392,
      "icial": 7393,
      "Init": 7394,
      "Ġextend": 7395,
      ")))": 7396,
      "nergy": 7397,
      "Ġcurv": 7398,
      "Dialog": 7399,
      "ett": 7400,
      "Ġprote": 7401,
      "lig": 7402,
      "ĠFrench": 7403,
      "Ret": 7404,
      "Ġsometimes": 7405,
      "unities": 7406,
      "minipage": 7407,
      "Ġreached": 7408,
      "Ġrespond": 7409,
      "agon": 7410,
      "napshot": 7411,
      "Ġmagnitude": 7412,
      "ECT": 7413,
      "Ġclick": 7414,
      "uous": 7415,
      "edit": 7416,
      "Ġthermal": 7417,
      "ĠMichael": 7418,
      "Ġorganization": 7419,
      "Send": 7420,
      "Ġlimits": 7421,
      "Ġpages": 7422,
      "Ġwriter": 7423,
      "Ġpoor": 7424,
      "Ġfluct": 7425,
      "ĠAssociation": 7426,
      "ĠINTO": 7427,
      "ĠDefault": 7428,
      "bu": 7429,
      "Main": 7430,
      "Ġnoted": 7431,
      "ucket": 7432,
      "âĢĿ.": 7433,
      "Ġicon": 7434,
      "They": 7435,
      "hentication": 7436,
      "Ġinher": 7437,
      "Ġchannels": 7438,
      "ĠGold": 7439,
      "assertEqual": 7440,
      "Ġbeam": 7441,
      "Ġintegration": 7442,
      "reek": 7443,
      "ĠLife": 7444,
      "Show": 7445,
      "Ġmilitary": 7446,
      "ĠShow": 7447,
      "ĠVis": 7448,
      "cuss": 7449,
      "channel": 7450,
      "Support": 7451,
      "Ġboost": 7452,
      "}\\,\\": 7453,
      "Ġpm": 7454,
      "ĠAlthough": 7455,
      "Ġscenario": 7456,
      "Ġwrote": 7457,
      "Ġuncertainty": 7458,
      "Ġjo": 7459,
      "Ġ[];": 7460,
      "addr": 7461,
      "IST": 7462,
      "Ġencour": 7463,
      "$),": 7464,
      "ertificate": 7465,
      "when": 7466,
      "Ġpositions": 7467,
      "properties": 7468,
      "ĠTra": 7469,
      "Ġlaunch": 7470,
      "itation": 7471,
      "cccc": 7472,
      "eves": 7473,
      "gest": 7474,
      "Ġmonitor": 7475,
      "such": 7476,
      "ĠFriday": 7477,
      "Ġcandidate": 7478,
      "Ġscaling": 7479,
      "Lock": 7480,
      "WA": 7481,
      "ĠLeague": 7482,
      "Ġinfinite": 7483,
      "Ġconstit": 7484,
      "Ñĥ": 7485,
      "olver": 7486,
      "Ġtraff": 7487,
      "Tab": 7488,
      "Ġclusters": 7489,
      "Ġanyone": 7490,
      "Ġvisible": 7491,
      "here": 7492,
      "Ġ$|\\": 7493,
      "fi": 7494,
      "sat": 7495,
      "ki": 7496,
      "}$)": 7497,
      "Ġchance": 7498,
      "opic": 7499,
      "cb": 7500,
      "Ġusual": 7501,
      "ĠWindow": 7502,
      "Ġgrowing": 7503,
      "Ã¼": 7504,
      "arse": 7505,
      "ĠAv": 7506,
      "esian": 7507,
      "iable": 7508,
      "Ġ..": 7509,
      "Ġsolve": 7510,
      "riend": 7511,
      "Ġbillion": 7512,
      "Ġevaluate": 7513,
      "Ġpicture": 7514,
      "Ġexplain": 7515,
      "ita": 7516,
      "Ġpresident": 7517,
      "ĠCA": 7518,
      "Therefore": 7519,
      "ĠTexas": 7520,
      "numer": 7521,
      "MT": 7522,
      "iful": 7523,
      "Ġentity": 7524,
      ")}_{": 7525,
      "Ġgraphs": 7526,
      "Ġparents": 7527,
      "ĠAlex": 7528,
      "ĠSun": 7529,
      ")}}": 7530,
      "ivery": 7531,
      "elines": 7532,
      "\")]": 7533,
      "Runtime": 7534,
      "}{(": 7535,
      "Ġbus": 7536,
      "Ġfinding": 7537,
      "bigl": 7538,
      "IE": 7539,
      "Ġwaves": 7540,
      "Av": 7541,
      "Ġalone": 7542,
      "Ġverify": 7543,
      "IX": 7544,
      "jpg": 7545,
      "Ġnative": 7546,
      "ĠServices": 7547,
      "Ġseven": 7548,
      "cknowled": 7549,
      "onday": 7550,
      "ROM": 7551,
      "bas": 7552,
      "Ġplaces": 7553,
      "Ġpull": 7554,
      "undred": 7555,
      "Package": 7556,
      "ĠText": 7557,
      "Ġpool": 7558,
      "ĠVALUES": 7559,
      "Ġtruth": 7560,
      "Ġwasn": 7561,
      "move": 7562,
      "scroll": 7563,
      "toggle": 7564,
      "Ġprotect": 7565,
      ":=": 7566,
      "Ġhor": 7567,
      "Ġfans": 7568,
      "cover": 7569,
      "ened": 7570,
      "Ġpandemic": 7571,
      "Ġencoding": 7572,
      ">\\": 7573,
      "ĠNode": 7574,
      "Ġproceed": 7575,
      "rb": 7576,
      "ĠLie": 7577,
      "Ġconstructed": 7578,
      "ĠBi": 7579,
      "Ġlib": 7580,
      "since": 7581,
      "ĠCong": 7582,
      "acle": 7583,
      "Ġbright": 7584,
      "typed": 7585,
      "brace": 7586,
      "ĠFurthermore": 7587,
      "Ġnation": 7588,
      "Del": 7589,
      "ĠCode": 7590,
      "Compar": 7591,
      "oyal": 7592,
      "âĢĺ": 7593,
      "Ġpointer": 7594,
      "lat": 7595,
      "actic": 7596,
      "Ġple": 7597,
      "Ġschools": 7598,
      "Ġhole": 7599,
      "Ġdriver": 7600,
      "Ġtheoretical": 7601,
      "ĠSu": 7602,
      "tail": 7603,
      "Ġthank": 7604,
      "Ġphenomen": 7605,
      "Ġreplace": 7606,
      "Account": 7607,
      "ĠCompany": 7608,
      "ĠHall": 7609,
      "Ġ[\\": 7610,
      "none": 7611,
      "Ġstock": 7612,
      "Pattern": 7613,
      "ĠId": 7614,
      "Ġhar": 7615,
      "verb": 7616,
      "queue": 7617,
      "icine": 7618,
      "MENT": 7619,
      "mathop": 7620,
      "Ġdetect": 7621,
      "oped": 7622,
      "ĠTom": 7623,
      "Ġpaths": 7624,
      "Ġhands": 7625,
      "istan": 7626,
      "Ġ{$": 7627,
      "ancel": 7628,
      "bigr": 7629,
      "Ġremember": 7630,
      "rey": 7631,
      "ĠInformation": 7632,
      "cong": 7633,
      "Ġvill": 7634,
      "footer": 7635,
      "ading": 7636,
      "ĠEcon": 7637,
      "Ġoccup": 7638,
      "Ġcomplexity": 7639,
      "RR": 7640,
      "annotation": 7641,
      "ĠEv": 7642,
      "ĠQue": 7643,
      "ĠMicrosoft": 7644,
      "ARY": 7645,
      "Ġsecret": 7646,
      "house": 7647,
      "Ġattract": 7648,
      "1997": 7649,
      ".*": 7650,
      "160": 7651,
      "total": 7652,
      "cpp": 7653,
      "izable": 7654,
      "othing": 7655,
      "ĠWed": 7656,
      "Ġblood": 7657,
      "isted": 7658,
      "front": 7659,
      "Ġconstants": 7660,
      "Ġconven": 7661,
      "itors": 7662,
      "Ġfunc": 7663,
      "txt": 7664,
      "Ġrobust": 7665,
      "ĉĠĠĠĠĠĠĠ": 7666,
      "Ġrect": 7667,
      "Americ": 7668,
      "gies": 7669,
      "_,": 7670,
      "lyph": 7671,
      "Ġadvantage": 7672,
      "sych": 7673,
      "=\"../../../": 7674,
      "TA": 7675,
      "ĠChe": 7676,
      "ipp": 7677,
      "clusions": 7678,
      "ĠFalse": 7679,
      "Ġhous": 7680,
      "ĠCup": 7681,
      "Ġdesired": 7682,
      "Pub": 7683,
      "typeof": 7684,
      "Ġsusp": 7685,
      "Ġindeed": 7686,
      "ĠPlay": 7687,
      "Ġroute": 7688,
      "1996": 7689,
      "ilarly": 7690,
      "Ġmill": 7691,
      "plot": 7692,
      "Ġdownload": 7693,
      "Ġiniti": 7694,
      "aren": 7695,
      "limit": 7696,
      "ĠSam": 7697,
      "obs": 7698,
      "Pool": 7699,
      "peed": 7700,
      "Ġsurround": 7701,
      "Ġcamera": 7702,
      "ĠAtt": 7703,
      "Ġwild": 7704,
      "aching": 7705,
      "Ġisol": 7706,
      "ĠSy": 7707,
      "Ġreasons": 7708,
      "Ġspot": 7709,
      "ĠFore": 7710,
      "Perm": 7711,
      "osity": 7712,
      "[:": 7713,
      "Iterator": 7714,
      "igital": 7715,
      "Ġabstract": 7716,
      "[$": 7717,
      "Ġcontinued": 7718,
      "Ġreplaced": 7719,
      "PAR": 7720,
      "rian": 7721,
      ",{\\": 7722,
      "anner": 7723,
      "Ġscales": 7724,
      "ĠMus": 7725,
      "Float": 7726,
      "Ġmatches": 7727,
      "vs": 7728,
      "iden": 7729,
      "enty": 7730,
      "events": 7731,
      "Ġachieved": 7732,
      "cret": 7733,
      "ĠWil": 7734,
      "ĠEven": 7735,
      "Ġion": 7736,
      "Ġreject": 7737,
      "iger": 7738,
      "assertEquals": 7739,
      "Feature": 7740,
      "Ġeyes": 7741,
      "Ġmovement": 7742,
      "Extension": 7743,
      "wik": 7744,
      "FS": 7745,
      "ĠProf": 7746,
      "Ġflex": 7747,
      "Ġcommunities": 7748,
      "ĠMusic": 7749,
      "selected": 7750,
      "Ġshot": 7751,
      "Ġdegrees": 7752,
      "Ġfelt": 7753,
      "Ġpark": 7754,
      "Auth": 7755,
      "names": 7756,
      "]}": 7757,
      "Ġcm": 7758,
      "Ġtrace": 7759,
      "ails": 7760,
      "Ġprojection": 7761,
      "Ġcoefficient": 7762,
      "straint": 7763,
      "odec": 7764,
      "boost": 7765,
      "Ġresponsible": 7766,
      "ĠUpdate": 7767,
      "Ljava": 7768,
      "Ġbin": 7769,
      "ĠUSA": 7770,
      "phone": 7771,
      "Ġlabels": 7772,
      "Ġdir": 7773,
      "Ġfreedom": 7774,
      "Ġrecall": 7775,
      "ĠSaturday": 7776,
      "Ġexponential": 7777,
      "Ġquarter": 7778,
      "Ġroll": 7779,
      "Graph": 7780,
      "erved": 7781,
      "ĠTO": 7782,
      "Ġgain": 7783,
      "lers": 7784,
      "Ac": 7785,
      "ashion": 7786,
      "ogen": 7787,
      "ĠEducation": 7788,
      "Ġprofessional": 7789,
      "Ġdetected": 7790,
      "ĠAny": 7791,
      "La": 7792,
      "sume": 7793,
      "ĠSuper": 7794,
      "Ġexplained": 7795,
      "Ġ^{": 7796,
      "venue": 7797,
      "rim": 7798,
      "Ġhtml": 7799,
      "Bit": 7800,
      "ĠRoad": 7801,
      "ĠOffice": 7802,
      "outhern": 7803,
      "Media": 7804,
      "ĠHand": 7805,
      "Ġconsole": 7806,
      "CM": 7807,
      "Ġphysics": 7808,
      "spring": 7809,
      "ifts": 7810,
      "Ġimplemented": 7811,
      "\\;": 7812,
      "Ġmobile": 7813,
      "ĠMo": 7814,
      "\\)": 7815,
      "ĠCH": 7816,
      "impl": 7817,
      "Ġstarts": 7818,
      "Editor": 7819,
      "Ġentries": 7820,
      "apply": 7821,
      "ĠHead": 7822,
      "Some": 7823,
      "ĠjQuery": 7824,
      "Ġtraject": 7825,
      "ĠDistr": 7826,
      "Ġvoice": 7827,
      "SIZE": 7828,
      "ĠUN": 7829,
      "uesday": 7830,
      "Ġjournal": 7831,
      "cref": 7832,
      "ĠTwo": 7833,
      "ĠEarth": 7834,
      "Ġchallenge": 7835,
      "ensed": 7836,
      "Ġchallenges": 7837,
      "ĠStart": 7838,
      "ĠExp": 7839,
      "LINE": 7840,
      "ĠTim": 7841,
      "ĠTask": 7842,
      "unct": 7843,
      "IMP": 7844,
      "estival": 7845,
      "ĠUkr": 7846,
      "ĠStar": 7847,
      "Ġrecommend": 7848,
      "ĠDet": 7849,
      "vc": 7850,
      "Ġnuclear": 7851,
      "ests": 7852,
      "Ġprim": 7853,
      "ĠSl": 7854,
      "${\\": 7855,
      "onym": 7856,
      "ems": 7857,
      "Ġprem": 7858,
      "atio": 7859,
      "Ġexplicitly": 7860,
      "etween": 7861,
      ".__": 7862,
      "formance": 7863,
      "Book": 7864,
      "Ġnorth": 7865,
      "Ġdecided": 7866,
      ",\\\\": 7867,
      "Ġweights": 7868,
      "urations": 7869,
      "lesssim": 7870,
      "rical": 7871,
      "bootstrap": 7872,
      "amel": 7873,
      "ĠLi": 7874,
      "iggs": 7875,
      "ĠGlobal": 7876,
      "$_{": 7877,
      "bp": 7878,
      "Selector": 7879,
      "ĠDistrict": 7880,
      "Ġtechnique": 7881,
      "urred": 7882,
      "ĠProv": 7883,
      "pool": 7884,
      "blockList": 7885,
      "nn": 7886,
      "ski": 7887,
      "ĠJul": 7888,
      "Ġstated": 7889,
      "Ġ\\(\\": 7890,
      "VERSION": 7891,
      "site": 7892,
      "cape": 7893,
      "Ġdistrict": 7894,
      "Mat": 7895,
      "Ġowner": 7896,
      "ĠVersion": 7897,
      "ĠRiver": 7898,
      "conv": 7899,
      "anese": 7900,
      "Ġefforts": 7901,
      "claim": 7902,
      "Opt": 7903,
      "Ġformed": 7904,
      "ads": 7905,
      "Ġborn": 7906,
      "ango": 7907,
      "awa": 7908,
      "Ġpseud": 7909,
      "Ġsen": 7910,
      "Ġchemical": 7911,
      "webpack": 7912,
      "Full": 7913,
      "Ġship": 7914,
      "wait": 7915,
      "MAX": 7916,
      "GP": 7917,
      "Ġpy": 7918,
      "master": 7919,
      "Ġsolar": 7920,
      "Gu": 7921,
      "ĠPub": 7922,
      "primary": 7923,
      "flags": 7924,
      "istant": 7925,
      "Ġlemma": 7926,
      "relations": 7927,
      "ĠVir": 7928,
      "Ġinstant": 7929,
      "bytes": 7930,
      "ĠBer": 7931,
      "ĠOp": 7932,
      "Ġfirm": 7933,
      "()).": 7934,
      "Ġseed": 7935,
      "Ġdied": 7936,
      "Ġimportance": 7937,
      "ĠImage": 7938,
      "Ġng": 7939,
      "Found": 7940,
      ".&": 7941,
      "ĠSE": 7942,
      "important": 7943,
      "aration": 7944,
      "Ġtrained": 7945,
      "Ġgold": 7946,
      "Ġpor": 7947,
      "Ġ[[": 7948,
      "ĠĠĠĠĠĠĊ": 7949,
      "Ġarchitecture": 7950,
      "ĠPhys": 7951,
      "Ġpatterns": 7952,
      "Ġsemi": 7953,
      "Ġsummer": 7954,
      "Ġdiscrete": 7955,
      "Ġeffort": 7956,
      "Ġinvalid": 7957,
      "ĠIsra": 7958,
      ")[": 7959,
      "Ġconj": 7960,
      "large": 7961,
      "$:": 7962,
      "integ": 7963,
      "ĠGen": 7964,
      "Ġlumin": 7965,
      "Ġagree": 7966,
      "Directory": 7967,
      "material": 7968,
      "itiz": 7969,
      "Ġsett": 7970,
      "scriptstyle": 7971,
      "Events": 7972,
      "uum": 7973,
      "Author": 7974,
      "ographic": 7975,
      "Ġpowerful": 7976,
      "Ġther": 7977,
      "Ġdb": 7978,
      "chmark": 7979,
      "Ġsatisfying": 7980,
      "Ġconvex": 7981,
      "Ġbundle": 7982,
      "Ġphone": 7983,
      "She": 7984,
      "Ġspent": 7985,
      "Ġstability": 7986,
      "Ġrough": 7987,
      "(!": 7988,
      "Ġinstruction": 7989,
      ")\"": 7990,
      "ĠDirector": 7991,
      "STATE": 7992,
      "ĠMarket": 7993,
      "Ġpublish": 7994,
      "km": 7995,
      "Ġwrap": 7996,
      "Ġsignature": 7997,
      "Items": 7998,
      "Ġdatasets": 7999,
      "Attributes": 8000,
      "Ġsupply": 8001,
      "ĠLL": 8002,
      "Ġimproved": 8003,
      "Ġsales": 8004,
      "Ġens": 8005,
      "Ġpropos": 8006,
      "hemat": 8007,
      "IVE": 8008,
      "Internal": 8009,
      "how": 8010,
      "Flags": 8011,
      "Ġplanet": 8012,
      "ĠSal": 8013,
      "Ġenabled": 8014,
      "structor": 8015,
      "Ġneutr": 8016,
      "Ġwhereas": 8017,
      "Ġregarding": 8018,
      "Ġentropy": 8019,
      "Ġthous": 8020,
      "Ġrequests": 8021,
      "Ġlicense": 8022,
      "Ġaccurate": 8023,
      "UID": 8024,
      "Ġminor": 8025,
      "pir": 8026,
      "ĠPlan": 8027,
      "Proxy": 8028,
      "Ġlisted": 8029,
      "Det": 8030,
      "porate": 8031,
      "ĠChinese": 8032,
      "BE": 8033,
      "Ġseconds": 8034,
      "Cap": 8035,
      "bel": 8036,
      "Ġcolumns": 8037,
      "oles": 8038,
      "ĠGets": 8039,
      "Conf": 8040,
      "iterator": 8041,
      "tfrac": 8042,
      "password": 8043,
      "Ġleader": 8044,
      "Pointer": 8045,
      "Ġcarried": 8046,
      "ĠEngine": 8047,
      "ĠOnly": 8048,
      "Ġearn": 8049,
      "grade": 8050,
      "record": 8051,
      "Ġjavax": 8052,
      "Ġmaxim": 8053,
      "olf": 8054,
      "ĠDiv": 8055,
      "Ġraw": 8056,
      "area": 8057,
      "ĠTem": 8058,
      "azz": 8059,
      "Ġdespite": 8060,
      "Ġplaced": 8061,
      "ĠExt": 8062,
      "Ġprinciple": 8063,
      "periment": 8064,
      ")));": 8065,
      "ications": 8066,
      "Ġplus": 8067,
      "Ġtraffic": 8068,
      "Ġhuge": 8069,
      "phys": 8070,
      "Ġtoward": 8071,
      "Tests": 8072,
      "ancer": 8073,
      "Ġideas": 8074,
      "ĠSmith": 8075,
      "Ġthr": 8076,
      "ursday": 8077,
      "FIG": 8078,
      "RAN": 8079,
      "ĠEvery": 8080,
      "Ġsigned": 8081,
      "Ġopening": 8082,
      "ĠBank": 8083,
      "Ġbrowser": 8084,
      "aud": 8085,
      "Ġcat": 8086,
      "ĠCommit": 8087,
      "ĠChild": 8088,
      "ĠComput": 8089,
      "brid": 8090,
      "^*$": 8091,
      "sample": 8092,
      "Ġbenefits": 8093,
      "Ġapplying": 8094,
      "Transaction": 8095,
      "install": 8096,
      "ĠSunday": 8097,
      ".'": 8098,
      "Ø§": 8099,
      "Ġmajority": 8100,
      "Global": 8101,
      "fail": 8102,
      "(){": 8103,
      "uby": 8104,
      "standing": 8105,
      "Ġemployees": 8106,
      "Ġdenoted": 8107,
      "Ġrare": 8108,
      "ĠHy": 8109,
      "single": 8110,
      "tip": 8111,
      "____": 8112,
      "ĠHistory": 8113,
      "Ġirre": 8114,
      "Ġviews": 8115,
      "controller": 8116,
      "isely": 8117,
      "tributed": 8118,
      "apes": 8119,
      "random": 8120,
      "Ġconvers": 8121,
      "ĠTor": 8122,
      "ady": 8123,
      "jac": 8124,
      "ICE": 8125,
      "pat": 8126,
      "ĠManagement": 8127,
      "'d": 8128,
      "ampionship": 8129,
      "Ġcommerc": 8130,
      "Ġfluid": 8131,
      "Ġguid": 8132,
      "ONE": 8133,
      "Ġautomatically": 8134,
      "++;": 8135,
      "Ġchanging": 8136,
      "1995": 8137,
      "ĠBack": 8138,
      "TABLE": 8139,
      "()));": 8140,
      "$};": 8141,
      "Ġremark": 8142,
      "apy": 8143,
      "Ġvariation": 8144,
      "Ġperspect": 8145,
      "throws": 8146,
      "ato": 8147,
      "Other": 8148,
      "utable": 8149,
      "1990": 8150,
      "Ġrelig": 8151,
      "ĠFranc": 8152,
      "110": 8153,
      "ĠChurch": 8154,
      "andra": 8155,
      "Ġserve": 8156,
      "Ġstatistical": 8157,
      "ĠBecause": 8158,
      "Ġgeneric": 8159,
      "ĠMiss": 8160,
      "Ġaware": 8161,
      "))\\": 8162,
      "çļ": 8163,
      "Ġletter": 8164,
      "Ġio": 8165,
      "para": 8166,
      "kl": 8167,
      "algorithm": 8168,
      "hens": 8169,
      "STAT": 8170,
      "Ġstatistics": 8171,
      "Pod": 8172,
      "save": 8173,
      "LIC": 8174,
      "ĠFlor": 8175,
      "CHECK": 8176,
      "HR": 8177,
      "Sch": 8178,
      "ĠRussia": 8179,
      "vey": 8180,
      "Ġpatient": 8181,
      "ĠPolicy": 8182,
      "ĠDevelopment": 8183,
      "ĠJer": 8184,
      "Ġinstances": 8185,
      "scape": 8186,
      "cluded": 8187,
      "Protocol": 8188,
      "Scale": 8189,
      "Fail": 8190,
      "Transform": 8191,
      "çļĦ": 8192,
      "ĠTechnology": 8193,
      "printf": 8194,
      "Ġwants": 8195,
      "ĠReport": 8196,
      "_(": 8197,
      "Ġsummar": 8198,
      "\\}$.": 8199,
      "mb": 8200,
      "Logger": 8201,
      "Ġwid": 8202,
      "[-": 8203,
      "ĠLocal": 8204,
      "Ġsmart": 8205,
      "}[\\": 8206,
      "ĠIR": 8207,
      "ĠCR": 8208,
      "ibration": 8209,
      "plugins": 8210,
      "Scroll": 8211,
      "ĠCollection": 8212,
      "Register": 8213,
      "vee": 8214,
      "uce": 8215,
      "@\"": 8216,
      "Ġhundred": 8217,
      "Ġtechnical": 8218,
      "aver": 8219,
      "bor": 8220,
      "Ġheard": 8221,
      "Ġsampling": 8222,
      "Ġbalance": 8223,
      "Ġremote": 8224,
      "Ġeth": 8225,
      "ronic": 8226,
      "eal": 8227,
      "Ġestimation": 8228,
      "ingly": 8229,
      "ĠNumber": 8230,
      "NT": 8231,
      "family": 8232,
      "]:": 8233,
      "ĠBoard": 8234,
      "Inv": 8235,
      "Func": 8236,
      "Memory": 8237,
      "]$.": 8238,
      "ura": 8239,
      "Ġfn": 8240,
      "ĠGood": 8241,
      "Ġturns": 8242,
      "Ġisomorphism": 8243,
      "phas": 8244,
      "ĉĉĉĊ": 8245,
      "})}": 8246,
      "Ġopened": 8247,
      "Close": 8248,
      "itative": 8249,
      "Ġwall": 8250,
      "READ": 8251,
      "Ġbenefit": 8252,
      "Ġcancer": 8253,
      "Ġrepresentations": 8254,
      "Ġretri": 8255,
      "ourney": 8256,
      "ITE": 8257,
      "owers": 8258,
      "ĠMary": 8259,
      "dropdown": 8260,
      "Ġ%}": 8261,
      "ĠLandroid": 8262,
      "ben": 8263,
      "ĠDen": 8264,
      "}}_{\\": 8265,
      "ifferent": 8266,
      "Ġsummary": 8267,
      "ĠAward": 8268,
      "Ġinverse": 8269,
      "ĠJew": 8270,
      "ĠRad": 8271,
      "ĠArg": 8272,
      "Auto": 8273,
      "ova": 8274,
      "Ġstrings": 8275,
      "Ġmostly": 8276,
      "}})": 8277,
      "Ġlooked": 8278,
      "stein": 8279,
      "Ġdaily": 8280,
      "################": 8281,
      "Ġferm": 8282,
      "ĠMonday": 8283,
      "ĠSociety": 8284,
      "Ġcontroller": 8285,
      "Ġradiation": 8286,
      "ĠTri": 8287,
      "Ġconvert": 8288,
      "ĠGeorge": 8289,
      "Ġequilibrium": 8290,
      "ivation": 8291,
      "Rece": 8292,
      "Named": 8293,
      "Ð°Ð": 8294,
      "ĠTODO": 8295,
      "ĠPath": 8296,
      "Ġmedium": 8297,
      "ĠLou": 8298,
      "Ġsomew": 8299,
      "PM": 8300,
      "Ġbuilder": 8301,
      "Ġpredicted": 8302,
      "ï¼": 8303,
      "ĠGl": 8304,
      "Ã¤": 8305,
      "Ġsouth": 8306,
      "kw": 8307,
      "reset": 8308,
      "Ġdram": 8309,
      "Ġoil": 8310,
      "IND": 8311,
      "ĠLat": 8312,
      "Elements": 8313,
      "longrightarrow": 8314,
      "SY": 8315,
      "Ġsuggests": 8316,
      "Ġvehicle": 8317,
      "Plugin": 8318,
      "Ġaudio": 8319,
      "Ġtypeof": 8320,
      "Ġcapture": 8321,
      "Ġterr": 8322,
      "relation": 8323,
      "schema": 8324,
      "Ġfilms": 8325,
      "Ġ{{": 8326,
      "Ġwat": 8327,
      "Files": 8328,
      "ĠColor": 8329,
      "Ġexplore": 8330,
      "Ġdecomposition": 8331,
      "account": 8332,
      "Ġbos": 8333,
      "Ġlaun": 8334,
      "Matrix": 8335,
      "ĠLink": 8336,
      "ĠCarol": 8337,
      "erial": 8338,
      "Ġobjective": 8339,
      "Ġ(_": 8340,
      "ceptions": 8341,
      "depth": 8342,
      "ĠFrance": 8343,
      "screen": 8344,
      "nesday": 8345,
      "organ": 8346,
      "ko": 8347,
      "Ġgravit": 8348,
      "PORT": 8349,
      "HER": 8350,
      "Ġ\"\"": 8351,
      "ĠVol": 8352,
      "Ġ×": 8353,
      "Ġbias": 8354,
      "uzz": 8355,
      "handler": 8356,
      "/(": 8357,
      "typedef": 8358,
      "Ġdog": 8359,
      "Ġ{'": 8360,
      "ĠCopyright": 8361,
      "metadata": 8362,
      "250": 8363,
      "tools": 8364,
      "ĠAcad": 8365,
      "Print": 8366,
      "Ġlocations": 8367,
      "Ġimplements": 8368,
      "(__": 8369,
      "paragraph": 8370,
      "Ġsizes": 8371,
      "Ġreq": 8372,
      "phant": 8373,
      "fol": 8374,
      "Ġabund": 8375,
      "Activity": 8376,
      ")\">": 8377,
      "Ġsell": 8378,
      "Ġserved": 8379,
      "Ġwife": 8380,
      "Ġduration": 8381,
      "arts": 8382,
      "lower": 8383,
      "ĠMer": 8384,
      "Ġsuitable": 8385,
      "Ġhappens": 8386,
      "tests": 8387,
      "ĠRussian": 8388,
      "plicity": 8389,
      "iling": 8390,
      "Ġfeedback": 8391,
      "contains": 8392,
      "Ġlearned": 8393,
      "Two": 8394,
      "stitut": 8395,
      "ixels": 8396,
      "ĠSecond": 8397,
      "Ġgrand": 8398,
      "amer": 8399,
      "Ġallowing": 8400,
      "Ġdistingu": 8401,
      "ĠRobert": 8402,
      "ository": 8403,
      "ĠStat": 8404,
      "ĠOption": 8405,
      "itar": 8406,
      "hidden": 8407,
      "Keys": 8408,
      "Ġlocally": 8409,
      "Term": 8410,
      "yan": 8411,
      "ĠĠĠĠĠĠĠĠĠĠĠĠĠĠĠĠĠĠĠĠĠĠĠĠĠĠĠĠĠ": 8412,
      "Ġmodul": 8413,
      "SQL": 8414,
      "dfrac": 8415,
      "ĠHill": 8416,
      "........": 8417,
      "Ġcovered": 8418,
      "Loader": 8419,
      "Desc": 8420,
      "ĠGerman": 8421,
      "iveness": 8422,
      "fd": 8423,
      "Ġmission": 8424,
      "Ġwel": 8425,
      "MOD": 8426,
      "children": 8427,
      "Abstract": 8428,
      "ĠIsland": 8429,
      ",...": 8430,
      "Ġshoot": 8431,
      "Tra": 8432,
      "Ġdust": 8433,
      "Ġgoals": 8434,
      "JECT": 8435,
      "ĠIOException": 8436,
      "Ġwallet": 8437,
      "Ġsupports": 8438,
      "cluster": 8439,
      "anda": 8440,
      "ties": 8441,
      "plan": 8442,
      "High": 8443,
      "Layer": 8444,
      "ĠTheir": 8445,
      "Ġmetal": 8446,
      "Ĥ¬": 8447,
      "Ġ\\!": 8448,
      "\"/": 8449,
      "600": 8450,
      "Ġknew": 8451,
      "oment": 8452,
      "Ġbill": 8453,
      "})^": 8454,
      "Ġquark": 8455,
      "algebra": 8456,
      "ãĢ": 8457,
      "Ġtend": 8458,
      "Ġsun": 8459,
      "Tags": 8460,
      "ĠStep": 8461,
      "itness": 8462,
      "home": 8463,
      "Ġqueue": 8464,
      "bot": 8465,
      "pton": 8466,
      "Ġhear": 8467,
      "ĠSocial": 8468,
      "Ġrelax": 8469,
      "world": 8470,
      "Ġapparent": 8471,
      "erman": 8472,
      "redu": 8473,
      "orial": 8474,
      "ĠNext": 8475,
      "Ġwonder": 8476,
      "flat": 8477,
      "ĠCommission": 8478,
      "ymmetry": 8479,
      "})=": 8480,
      "ifiers": 8481,
      "Ġneighborhood": 8482,
      "Ġpartner": 8483,
      "Ġcontinues": 8484,
      "VM": 8485,
      "Ġorth": 8486,
      "Ġinvestigate": 8487,
      "ucial": 8488,
      "ims": 8489,
      "trigger": 8490,
      "lik": 8491,
      "Ġnamely": 8492,
      "ULE": 8493,
      "aylor": 8494,
      "iota": 8495,
      "ji": 8496,
      "ĠCentral": 8497,
      "ĠAmazon": 8498,
      "ĠLand": 8499,
      "Car": 8500,
      "Ġbehaviour": 8501,
      "ĠTimes": 8502,
      "astructure": 8503,
      "Ġeventually": 8504,
      "Ġcharacteristic": 8505,
      "oma": 8506,
      "Ġmorning": 8507,
      "Grid": 8508,
      "ultane": 8509,
      "Ġawait": 8510,
      "ĠLine": 8511,
      "tor": 8512,
      "Ġplays": 8513,
      "ĠHome": 8514,
      "Ġindices": 8515,
      "switch": 8516,
      "ĠConfig": 8517,
      "Ġcalling": 8518,
      "Ġhour": 8519,
      "idx": 8520,
      "ja": 8521,
      "components": 8522,
      "$&": 8523,
      "SER": 8524,
      "ipment": 8525,
      "Ġtypename": 8526,
      "Attr": 8527,
      "Ġfederal": 8528,
      "rich": 8529,
      "inher": 8530,
      "zen": 8531,
      "Ġsufficiently": 8532,
      "ĠCamp": 8533,
      "Ġsustain": 8534,
      "Ġpolicies": 8535,
      "Ġconsequence": 8536,
      "Ġolder": 8537,
      "ĠGreat": 8538,
      "Ġaver": 8539,
      "ĠSpr": 8540,
      "Ġrecorded": 8541,
      "Ġexplan": 8542,
      "NULL": 8543,
      "OF": 8544,
      "uls": 8545,
      "\">&": 8546,
      "Ġ\\&": 8547,
      "tics": 8548,
      "pository": 8549,
      "ĠTuesday": 8550,
      "Ġrich": 8551,
      "Ġblog": 8552,
      "identifier": 8553,
      "ĠBoth": 8554,
      "Ġassumptions": 8555,
      "ĠAppendix": 8556,
      "Ġtransl": 8557,
      "ĠApple": 8558,
      "sym": 8559,
      "Ġneural": 8560,
      "WR": 8561,
      "TT": 8562,
      "elease": 8563,
      "ĠĠĠĠĠĠĠĠĠĠĠĠĠĠĠĠĠĠĠĠĠĠĠĠĠĠ": 8564,
      "Constants": 8565,
      "Bound": 8566,
      "chen": 8567,
      "Ġexcell": 8568,
      "ald": 8569,
      "Ġanc": 8570,
      "Ġouter": 8571,
      "Ġopin": 8572,
      "chor": 8573,
      "Generic": 8574,
      "MI": 8575,
      "Ġcoinc": 8576,
      "Ġnom": 8577,
      "Ġcanonical": 8578,
      "azine": 8579,
      "ĠProt": 8580,
      "Ġprovider": 8581,
      "Ġprefix": 8582,
      "]$,": 8583,
      "eless": 8584,
      "Further": 8585,
      "ĠSD": 8586,
      "Common": 8587,
      "tiny": 8588,
      "ĠPower": 8589,
      "ĠMinister": 8590,
      "stro": 8591,
      "Ġdestroy": 8592,
      "Ġcreation": 8593,
      "Ġdie": 8594,
      "Ġdriving": 8595,
      "Ġ\\]": 8596,
      "emptyset": 8597,
      "Ġappeared": 8598,
      "manager": 8599,
      "Ġspac": 8600,
      "sys": 8601,
      "Ġcomputing": 8602,
      "Ġclaims": 8603,
      "Ġmanifold": 8604,
      "iem": 8605,
      "oses": 8606,
      "ĠChristian": 8607,
      "appe": 8608,
      "Ġmetrics": 8609,
      "ĠIndeed": 8610,
      "ĠAction": 8611,
      "Ġorbit": 8612,
      "Ġaffected": 8613,
      "Ġkept": 8614,
      "Ġcovari": 8615,
      "Ġkids": 8616,
      "Ġspeak": 8617,
      "Ġtrees": 8618,
      "Ġepisode": 8619,
      "SF": 8620,
      "Space": 8621,
      "Orig": 8622,
      "ulator": 8623,
      "edy": 8624,
      "ĠGovernment": 8625,
      "notes": 8626,
      "PER": 8627,
      "ĠJapan": 8628,
      "slash": 8629,
      "Ġkilled": 8630,
      "leted": 8631,
      "Ġok": 8632,
      "Edit": 8633,
      "ĠBrown": 8634,
      "@{": 8635,
      "iate": 8636,
      "editor": 8637,
      "Ġsuccessfully": 8638,
      "fold": 8639,
      "Ġexpert": 8640,
      "tan": 8641,
      "Ġupdates": 8642,
      "ĠGame": 8643,
      "ĠWeek": 8644,
      "person": 8645,
      "Fix": 8646,
      "Namespace": 8647,
      "odd": 8648,
      "Ġpaid": 8649,
      ";\\;\\": 8650,
      "','": 8651,
      "attributes": 8652,
      "'])": 8653,
      "Ġemit": 8654,
      "Double": 8655,
      "Ã¶": 8656,
      "va": 8657,
      "According": 8658,
      "ĠProperty": 8659,
      "Ġowners": 8660,
      "found": 8661,
      "Ġcoverage": 8662,
      "^{*": 8663,
      "CRE": 8664,
      "isis": 8665,
      "brief": 8666,
      "Ġcommercial": 8667,
      "Ġmeta": 8668,
      "Sw": 8669,
      "upload": 8670,
      "ðŁ": 8671,
      "Ġdiagonal": 8672,
      "Volume": 8673,
      "complete": 8674,
      "uing": 8675,
      "Ġwish": 8676,
      "}}.": 8677,
      "Diag": 8678,
      "eder": 8679,
      "Parse": 8680,
      "Ġorders": 8681,
      "rypto": 8682,
      "ToString": 8683,
      "Enum": 8684,
      "Ġwarm": 8685,
      "Ġbulk": 8686,
      "Ġconnections": 8687,
      "Google": 8688,
      "BB": 8689,
      "Ġrecon": 8690,
      "Gen": 8691,
      "ĠFree": 8692,
      "orizon": 8693,
      "ĠPeople": 8694,
      "lf": 8695,
      "ĠSecurity": 8696,
      "Ġpredictions": 8697,
      "Socket": 8698,
      "ĠMake": 8699,
      "ensus": 8700,
      "Ġfocused": 8701,
      "UTF": 8702,
      "Ġtranslation": 8703,
      "Ġkm": 8704,
      "elihood": 8705,
      "Ġderivative": 8706,
      "Remove": 8707,
      "Ġidx": 8708,
      "}</": 8709,
      "dp": 8710,
      "Cluster": 8711,
      "Ġunion": 8712,
      "mask": 8713,
      "ĠRock": 8714,
      "Ġaggreg": 8715,
      "ĠInitial": 8716,
      "Ġexecution": 8717,
      "ĠIts": 8718,
      "Ġtrial": 8719,
      "Ġperhaps": 8720,
      "Ġdiam": 8721,
      "odies": 8722,
      "Proof": 8723,
      "ĠUnion": 8724,
      "Ġsatisfied": 8725,
      "generated": 8726,
      "Ġplanning": 8727,
      "Ġbusinesses": 8728,
      "Ġpars": 8729,
      "Ġmanner": 8730,
      "Ġfarm": 8731,
      "Med": 8732,
      ",\\,\\": 8733,
      "Ġsubstant": 8734,
      "Ġmaximal": 8735,
      "itionally": 8736,
      "Ġtopic": 8737,
      "lectric": 8738,
      "Ġstored": 8739,
      "aby": 8740,
      "Ġ}{": 8741,
      "isting": 8742,
      "anta": 8743,
      "possible": 8744,
      "Ġcontrols": 8745,
      "WN": 8746,
      "Ġoptional": 8747,
      "onald": 8748,
      "inator": 8749,
      "Ġinvestment": 8750,
      "simple": 8751,
      "imitive": 8752,
      "Ġinteract": 8753,
      "âĢĿ,": 8754,
      "Ġcategories": 8755,
      "Ġelim": 8756,
      "Ġstrugg": 8757,
      "ien": 8758,
      "mn": 8759,
      "Ġoperating": 8760,
      "1994": 8761,
      "Ġmenu": 8762,
      "ACT": 8763,
      "eces": 8764,
      "ĠLear": 8765,
      "Ġ({\\": 8766,
      "Ġapplicable": 8767,
      "Ġconflic": 8768,
      "|}{": 8769,
      "Ġconfirm": 8770,
      "ideos": 8771,
      "*)": 8772,
      "formal": 8773,
      "Statement": 8774,
      "Ġexpressions": 8775,
      "USE": 8776,
      "Ġfinished": 8777,
      "001": 8778,
      "Ġtrivial": 8779,
      "icted": 8780,
      "ĠTur": 8781,
      "Single": 8782,
      "Ġdescribes": 8783,
      "Ġenergies": 8784,
      "structure": 8785,
      "article": 8786,
      "ensities": 8787,
      "entials": 8788,
      "Ġ).": 8789,
      "Ġcivil": 8790,
      "Ġparam": 8791,
      "Ġtal": 8792,
      "Nodes": 8793,
      "Ġintersection": 8794,
      "Ġvalidation": 8795,
      "Panel": 8796,
      "ochastic": 8797,
      "Ġvalign": 8798,
      "Ġahead": 8799,
      "ĠPoint": 8800,
      "symbol": 8801,
      "Ġpossibility": 8802,
      "EST": 8803,
      "ogram": 8804,
      "Ġclinical": 8805,
      "ĠPage": 8806,
      "ubble": 8807,
      "medskip": 8808,
      "Ġsociety": 8809,
      "quant": 8810,
      "ĉĠĠĠĠĠ": 8811,
      "Adapter": 8812,
      "prev": 8813,
      "Ġopportunities": 8814,
      "ĠSM": 8815,
      "Ġtreated": 8816,
      "ala": 8817,
      "ĠSuch": 8818,
      "======": 8819,
      "Ġagents": 8820,
      "sumer": 8821,
      "trivial": 8822,
      "kens": 8823,
      "180": 8824,
      "Loc": 8825,
      "ĠSing": 8826,
      "Ġspan": 8827,
      "Ġfourth": 8828,
      "Ġdot": 8829,
      "Ġlisten": 8830,
      "ĠPen": 8831,
      "expr": 8832,
      "ĠTour": 8833,
      "Ġatmos": 8834,
      "tmp": 8835,
      "estion": 8836,
      "fx": 8837,
      "git": 8838,
      "Ġvote": 8839,
      "Ġdx": 8840,
      "aling": 8841,
      "ĠBill": 8842,
      "EV": 8843,
      "general": 8844,
      "ĠSil": 8845,
      "ĠâĢ¢": 8846,
      "Ġcredit": 8847,
      "Profile": 8848,
      "Ġpi": 8849,
      "Wrapper": 8850,
      "ĠGermany": 8851,
      "uty": 8852,
      "Ġmainly": 8853,
      "ĠNet": 8854,
      "Ġadvert": 8855,
      "Ġforeign": 8856,
      "Ġmur": 8857,
      "Ġliqu": 8858,
      "Sche": 8859,
      "aus": 8860,
      "Ġphoto": 8861,
      "BI": 8862,
      "Ġlies": 8863,
      "}}}\\": 8864,
      "collection": 8865,
      "NOT": 8866,
      "Ġglob": 8867,
      "heta": 8868,
      "GN": 8869,
      "Ġrows": 8870,
      "serial": 8871,
      "ĠFund": 8872,
      "pped": 8873,
      "ĠThomas": 8874,
      "Ġversions": 8875,
      "ighter": 8876,
      "Ġsea": 8877,
      "ĠInteger": 8878,
      "Ġreality": 8879,
      "Ġjobs": 8880,
      "ĠBlock": 8881,
      "gb": 8882,
      "anguages": 8883,
      "Ġcandidates": 8884,
      "Ġskills": 8885,
      "ĠEnergy": 8886,
      "Ġguide": 8887,
      "iced": 8888,
      "Ġdeform": 8889,
      "there": 8890,
      "ĠMil": 8891,
      "Ġsequences": 8892,
      "Ġstrategies": 8893,
      "acket": 8894,
      "Ġhappened": 8895,
      "Ġspirit": 8896,
      "NavBarCell": 8897,
      "Ġshell": 8898,
      "Ġsym": 8899,
      "Ġdream": 8900,
      "AU": 8901,
      "ById": 8902,
      "Headers": 8903,
      "semble": 8904,
      "Ġcollected": 8905,
      "OUT": 8906,
      "bras": 8907,
      "have": 8908,
      "IPT": 8909,
      "Ġtheories": 8910,
      "nostic": 8911,
      "getName": 8912,
      "Ġ],": 8913,
      "XML": 8914,
      "Ġrepresenting": 8915,
      "allery": 8916,
      "Ġannual": 8917,
      "Ġthanks": 8918,
      "Ġmetadata": 8919,
      "ĠFlorida": 8920,
      "Ġprime": 8921,
      "adian": 8922,
      "Ġhospital": 8923,
      "Ġinvestigation": 8924,
      "Ġconfidence": 8925,
      "Ġfol": 8926,
      "bc": 8927,
      "Ġgirl": 8928,
      "Ġcharged": 8929,
      "Ġevaluated": 8930,
      "Ġasync": 8931,
      "ĠCare": 8932,
      "ĠAM": 8933,
      "Ġinputs": 8934,
      "ĠMain": 8935,
      "Ġmaybe": 8936,
      "Given": 8937,
      "Pop": 8938,
      "Ġintensity": 8939,
      "Mag": 8940,
      "Java": 8941,
      "Ġindust": 8942,
      "ĠGiven": 8943,
      "bmatrix": 8944,
      "Ġdirected": 8945,
      "Ġshop": 8946,
      "Ġprecisely": 8947,
      "Ġbeautiful": 8948,
      "ved": 8949,
      "Sync": 8950,
      "functions": 8951,
      "scriptsize": 8952,
      "cean": 8953,
      "subs": 8954,
      "Ġsuggested": 8955,
      "ĠTR": 8956,
      "Ġappend": 8957,
      "ĠDir": 8958,
      "Product": 8959,
      "}}^{\\": 8960,
      "dem": 8961,
      "unately": 8962,
      "bad": 8963,
      "irls": 8964,
      "assets": 8965,
      "resentation": 8966,
      "ĠJava": 8967,
      "Ġdesc": 8968,
      "ĠThursday": 8969,
      "ĠResource": 8970,
      ")--(": 8971,
      "Ġbed": 8972,
      "ĠScott": 8973,
      "Ġ$,": 8974,
      "pu": 8975,
      "Comment": 8976,
      "arity": 8977,
      "aset": 8978,
      "Engine": 8979,
      "prefix": 8980,
      "ĠReact": 8981,
      "ĠWindows": 8982,
      "Ġreprodu": 8983,
      "Ġraised": 8984,
      "ĠIndex": 8985,
      "Ġconfirmed": 8986,
      "zone": 8987,
      "Ġderive": 8988,
      "Failed": 8989,
      "sequent": 8990,
      "Ġradial": 8991,
      "ĠDuring": 8992,
      "icago": 8993,
      "istence": 8994,
      "Collections": 8995,
      "Ġctx": 8996,
      "Ġacts": 8997,
      "Ġfaster": 8998,
      "cline": 8999,
      "Ġwire": 9000,
      "NC": 9001,
      "-(": 9002,
      "tained": 9003,
      "BUG": 9004,
      "Ġzone": 9005,
      "agrang": 9006,
      "props": 9007,
      "Ġcarbon": 9008,
      "wp": 9009,
      "Prefix": 9010,
      "{%": 9011,
      "ĠMex": 9012,
      "Ġanalyz": 9013,
      "Ġinfer": 9014,
      "Ġadm": 9015,
      "Props": 9016,
      "Ġdocuments": 9017,
      "Ġembedding": 9018,
      "Ġcommut": 9019,
      "Why": 9020,
      "platform": 9021,
      "Ġlic": 9022,
      "plicated": 9023,
      "ĠLead": 9024,
      "PATH": 9025,
      "vart": 9026,
      "ĠLibrary": 9027,
      "Ġjump": 9028,
      "OB": 9029,
      "Ñı": 9030,
      "Ġsports": 9031,
      "ĠPass": 9032,
      "west": 9033,
      "junit": 9034,
      "mo": 9035,
      "utf": 9036,
      "Ġemphas": 9037,
      "JS": 9038,
      "ĠCommunity": 9039,
      "Ġappoint": 9040,
      "Registry": 9041,
      "Region": 9042,
      "âĢ¢": 9043,
      "ĠBre": 9044,
      "Ġmarked": 9045,
      "etal": 9046,
      "svg": 9047,
      "Ġnonlinear": 9048,
      "Ġreferences": 9049,
      "800": 9050,
      "Consider": 9051,
      "ĠProcess": 9052,
      "required": 9053,
      "rase": 9054,
      "Ġspher": 9055,
      "Ġflags": 9056,
      "born": 9057,
      "configuration": 9058,
      "Hence": 9059,
      "vals": 9060,
      "Ġcontrad": 9061,
      "Ġdu": 9062,
      "Ġbudget": 9063,
      "ĠCEO": 9064,
      "ĠBit": 9065,
      "ĠFrancis": 9066,
      "Ġintegrated": 9067,
      "ĠParty": 9068,
      "Ġextremely": 9069,
      "Ġpurposes": 9070,
      "]{\\": 9071,
      "Ġ[],": 9072,
      "Ġtried": 9073,
      "Ġartist": 9074,
      "ycle": 9075,
      "Duration": 9076,
      "arios": 9077,
      "Ġappre": 9078,
      "Ġhelps": 9079,
      "|}": 9080,
      "avour": 9081,
      "Ġdoor": 9082,
      "Ã§": 9083,
      "Ġcold": 9084,
      "CG": 9085,
      "Find": 9086,
      "fixed": 9087,
      "Ġmoments": 9088,
      "Ġcurvature": 9089,
      "Ġfunding": 9090,
      "clip": 9091,
      "TEXT": 9092,
      ")}_": 9093,
      "Ġgravity": 9094,
      "parallel": 9095,
      "ĠCommittee": 9096,
      "}_{-": 9097,
      "ilbert": 9098,
      "Ġtransmission": 9099,
      "ndef": 9100,
      "shall": 9101,
      "ito": 9102,
      "ĠGal": 9103,
      "plane": 9104,
      "Ġjet": 9105,
      "Lemma": 9106,
      "History": 9107,
      "Stats": 9108,
      "ativ": 9109,
      "ĠClub": 9110,
      "ĠMass": 9111,
      "Ġcertainly": 9112,
      "protected": 9113,
      "emon": 9114,
      "echo": 9115,
      "Ġgeneralized": 9116,
      "Ġconstructor": 9117,
      "Ġlayout": 9118,
      "Pay": 9119,
      "igan": 9120,
      "oton": 9121,
      "Ġassigned": 9122,
      "gebras": 9123,
      "agram": 9124,
      "uplic": 9125,
      "Ġ,\\": 9126,
      "Ġquantity": 9127,
      "kt": 9128,
      "urable": 9129,
      "Ġlaws": 9130,
      "REG": 9131,
      "engine": 9132,
      "outer": 9133,
      "ĠSoftware": 9134,
      "OM": 9135,
      "vol": 9136,
      "Ġeconomy": 9137,
      "ĠWednesday": 9138,
      "Success": 9139,
      "irror": 9140,
      "Ġcustomer": 9141,
      "ĠSign": 9142,
      "101": 9143,
      "Ġphoton": 9144,
      "Ġpropose": 9145,
      "Seg": 9146,
      "shadow": 9147,
      "logger": 9148,
      "Ġrevealed": 9149,
      "Ġenhance": 9150,
      "life": 9151,
      "Ġshut": 9152,
      "will": 9153,
      "etes": 9154,
      "Ġincome": 9155,
      "Ġtopological": 9156,
      "Ġ\",": 9157,
      "Ġasymptotic": 9158,
      "month": 9159,
      "Ġcollege": 9160,
      "Ġleaves": 9161,
      "ĠFrank": 9162,
      "COMP": 9163,
      "Ġorganizations": 9164,
      "Ġcorner": 9165,
      "Ġmorphism": 9166,
      "Variable": 9167,
      "Ġacad": 9168,
      "done": 9169,
      "Ġusage": 9170,
      "}}=": 9171,
      "Will": 9172,
      "ding": 9173,
      "SV": 9174,
      "Ġpossibly": 9175,
      "Ġvariance": 9176,
      "ĠControl": 9177,
      "yes": 9178,
      "ĠGrand": 9179,
      "elligence": 9180,
      "}~": 9181,
      "Ġexceed": 9182,
      "ifdef": 9183,
      "May": 9184,
      "ropic": 9185,
      "LECT": 9186,
      "filename": 9187,
      "URI": 9188,
      "Ġfemale": 9189,
      "bib": 9190,
      "\\}\\": 9191,
      "ĠAfrican": 9192,
      "}|\\": 9193,
      "Ġattacks": 9194,
      "Math": 9195,
      "square": 9196,
      "negative": 9197,
      "ĠLin": 9198,
      "jquery": 9199,
      "Ġwarn": 9200,
      "TIME": 9201,
      "Ġthinking": 9202,
      "ĠJac": 9203,
      "bd": 9204,
      "Ġlabor": 9205,
      "Expr": 9206,
      "Ġenvironmental": 9207,
      "Ġtit": 9208,
      "Ġtail": 9209,
      "Len": 9210,
      "Ġcaref": 9211,
      "ĠAP": 9212,
      "nil": 9213,
      "figures": 9214,
      "Ġrepeated": 9215,
      "Ġfear": 9216,
      "Ġsignals": 9217,
      "FE": 9218,
      "Ġignore": 9219,
      "Eff": 9220,
      "Ġcomposition": 9221,
      "law": 9222,
      "RES": 9223,
      "uan": 9224,
      "eness": 9225,
      "ĠKore": 9226,
      "arden": 9227,
      "LOCK": 9228,
      "Ġclients": 9229,
      "Phone": 9230,
      "Rest": 9231,
      "stone": 9232,
      "ĠImm": 9233,
      "Sequ": 9234,
      "Ġexit": 9235,
      "Ġencounter": 9236,
      "Ġtemperatures": 9237,
      "------------": 9238,
      "hang": 9239,
      "ĠRet": 9240,
      "vartheta": 9241,
      "Ġtrail": 9242,
      "Ġdynamical": 9243,
      "ora": 9244,
      "Ġdiss": 9245,
      "Ġindicated": 9246,
      "Ġdimensional": 9247,
      "Ġnecessarily": 9248,
      "bre": 9249,
      "ĠGeV": 9250,
      "Ġorb": 9251,
      "secut": 9252,
      "Simple": 9253,
      "Ġreaction": 9254,
      "ĠLast": 9255,
      "Domain": 9256,
      "ĠKe": 9257,
      ">::": 9258,
      "external": 9259,
      "Ġequality": 9260,
      "ĠPeter": 9261,
      "ĠAuthor": 9262,
      "Ġtested": 9263,
      "Route": 9264,
      "ictor": 9265,
      "Py": 9266,
      "orders": 9267,
      "Ġexperi": 9268,
      "Ġ---": 9269,
      "Ġfresh": 9270,
      "Ġmys": 9271,
      "Ġmodules": 9272,
      "role": 9273,
      "Ġenv": 9274,
      "CB": 9275,
      "avelength": 9276,
      "ĠPR": 9277,
      "ignment": 9278,
      "Ġdependent": 9279,
      "Ġsch": 9280,
      "Ax": 9281,
      "Ġsizeof": 9282,
      "Ġdiver": 9283,
      "asion": 9284,
      "Ġproxy": 9285,
      "orney": 9286,
      "Ġcomputational": 9287,
      "Ġdemonstrate": 9288,
      "Ġsimultane": 9289,
      "tensor": 9290,
      "Ġhelped": 9291,
      "ella": 9292,
      "125": 9293,
      "Ġbrain": 9294,
      "ĠVirgin": 9295,
      "Ġquantities": 9296,
      "ĠWestern": 9297,
      "fire": 9298,
      "progress": 9299,
      "Second": 9300,
      "ĠAdmin": 9301,
      "ĠCase": 9302,
      "ĠHuman": 9303,
      "ĠWell": 9304,
      "Ġconducted": 9305,
      "Character": 9306,
      "abit": 9307,
      "ĠGP": 9308,
      "1993": 9309,
      "Syntax": 9310,
      "ĠĠĠĠĠĠĠĠĠĠĠĠĠĠĠĠĠĠĠĠĠĠĠĠĠĠĠĠ": 9311,
      "Ġfeet": 9312,
      "Ġbits": 9313,
      "aste": 9314,
      "IZE": 9315,
      "Ġoffered": 9316,
      "Selection": 9317,
      "Ġeye": 9318,
      "ĠDat": 9319,
      "coq": 9320,
      "ĠDesign": 9321,
      "Ġprepar": 9322,
      "pan": 9323,
      "keyword": 9324,
      "Mapping": 9325,
      "riority": 9326,
      "Ġprecision": 9327,
      "ĠSQL": 9328,
      "World": 9329,
      "prec": 9330,
      "Ġult": 9331,
      "=\"${": 9332,
      "About": 9333,
      "operation": 9334,
      "ĠOh": 9335,
      ":=\\": 9336,
      "American": 9337,
      "ĠTeam": 9338,
      "sn": 9339,
      "Trace": 9340,
      "uv": 9341,
      "umes": 9342,
      "testing": 9343,
      "picker": 9344,
      "Ġclock": 9345,
      "Uri": 9346,
      "ĠAccess": 9347,
      "1992": 9348,
      "Ġfactory": 9349,
      "Dest": 9350,
      "urance": 9351,
      "changed": 9352,
      "GO": 9353,
      "headers": 9354,
      "Ġcosm": 9355,
      "ĠHash": 9356,
      "ĠMany": 9357,
      ";/": 9358,
      "Ġjoined": 9359,
      "TV": 9360,
      "Ġrestaur": 9361,
      "extern": 9362,
      "Sym": 9363,
      "ĠExecut": 9364,
      "Ġstatements": 9365,
      "Ġprofiles": 9366,
      "ĠMel": 9367,
      "ĠRegister": 9368,
      "Ġexcited": 9369,
      "ĠDom": 9370,
      "ĠMuseum": 9371,
      "Ġagreed": 9372,
      "Ġidentical": 9373,
      "Ġcharacteristics": 9374,
      "Ġil": 9375,
      "Ġstuff": 9376,
      "Ġaudience": 9377,
      "agrangian": 9378,
      "ITION": 9379,
      "lie": 9380,
      "parser": 9381,
      "\\}$,": 9382,
      "inity": 9383,
      "hide": 9384,
      "Ġcrow": 9385,
      "Ġopposite": 9386,
      "columnwidth": 9387,
      "ĠJose": 9388,
      "Previous": 9389,
      "safe": 9390,
      "heel": 9391,
      "ĠCustom": 9392,
      "Ġordered": 9393,
      "Ġprotection": 9394,
      "Ġdamage": 9395,
      "GA": 9396,
      "Ġheaders": 9397,
      "ali": 9398,
      "abeled": 9399,
      "Ġleaving": 9400,
      "bro": 9401,
      "Look": 9402,
      "Ġdeveloping": 9403,
      "wa": 9404,
      "Ġlegis": 9405,
      "iii": 9406,
      "ĠDown": 9407,
      "ĠPet": 9408,
      "Ġbatter": 9409,
      "ookie": 9410,
      "tikzpicture": 9411,
      "pres": 9412,
      "Ġresolve": 9413,
      "Ġhappy": 9414,
      "ĠSpecial": 9415,
      "ĠMount": 9416,
      "cheduler": 9417,
      "ĠNon": 9418,
      "Ġgather": 9419,
      "expand": 9420,
      "ALSE": 9421,
      "Admin": 9422,
      "Total": 9423,
      "HC": 9424,
      "Background": 9425,
      "&=\\": 9426,
      "lapse": 9427,
      "pto": 9428,
      "%)": 9429,
      "Ġprivacy": 9430,
      "Public": 9431,
      "Ġexplo": 9432,
      "Ġsides": 9433,
      "volume": 9434,
      "ĠTre": 9435,
      "IGHT": 9436,
      "ĠCongress": 9437,
      "specific": 9438,
      "ĠSupport": 9439,
      "Ġcorrections": 9440,
      "Ġrig": 9441,
      "Ġprices": 9442,
      "errors": 9443,
      "porary": 9444,
      "protocol": 9445,
      "Browser": 9446,
      "ello": 9447,
      "fony": 9448,
      "Ġtransparent": 9449,
      "'));": 9450,
      "manif": 9451,
      "Ġxmlns": 9452,
      "slant": 9453,
      "+(": 9454,
      "Ġ>>": 9455,
      "Ġparticipants": 9456,
      "ĠWhy": 9457,
      "Ġdanger": 9458,
      "Ġcryst": 9459,
      "di": 9460,
      "Ġbands": 9461,
      "Ġends": 9462,
      "Generator": 9463,
      "ĠCa": 9464,
      "Ġcompetition": 9465,
      "}$}": 9466,
      "phase": 9467,
      "ogonal": 9468,
      "Upd": 9469,
      "iminal": 9470,
      "Ġaspects": 9471,
      "Ġcancel": 9472,
      "\\%$": 9473,
      "details": 9474,
      "ivated": 9475,
      "multirow": 9476,
      "states": 9477,
      "Ġpassword": 9478,
      "Ġmanaged": 9479,
      "decl": 9480,
      "ĠCD": 9481,
      "Ġdetector": 9482,
      "Ġconvent": 9483,
      "Ġdefines": 9484,
      "sch": 9485,
      "ĠFind": 9486,
      "ĠWomen": 9487,
      "wt": 9488,
      "Ġcoher": 9489,
      ".\\\\": 9490,
      "ifer": 9491,
      "ĠHot": 9492,
      "har": 9493,
      "Ġofficials": 9494,
      "Ġnormalized": 9495,
      "Identifier": 9496,
      "ĠĠĠĠĠĠĠĠĠĠĠĠĠĠĠĠĠĠĠĠĠĠĠĠĠĠĠĠĠĠĠĠĠĠĠĠĠĠĠĠĠĠĠ": 9497,
[...]
