{"[UNK]":0,"!":1,"\"":2,"#":3,"$":4,"%":5,"&":6,"'":7,"(":8,")":9,"*":10,"+":11,",":12,"-":13,".":14,"/":15,"0":16,"1":17,"2":18,"3":19,"4":20,"5":21,"6":22,"7":23,"8":24,"9":25,":":26,";":27,"<":28,"=":29,">":30,"?":31,"@":32,"A":33,"B":34,"C":35,"D":36,"E":37,"F":38,"G":39,"H":40,"I":41,"J":42,"K":43,"L":44,"M":45,"N":46,"O":47,"P":48,"Q":49,"R":50,"S":51,"T":52,"U":53,"V":54,"W":55,"X":56,"Y":57,"Z":58,"[":59,"\\":60,"]":61,"^":62,"_":63,"`":64,"a":65,"b":66,"c":67,"d":68,"e":69,"f":70,"g":71,"h":72,"i":73,"j":74,"k":75,"l":76,"m":77,"n":78,"o":79,"p":80,"q":81,"r":82,"s":83,"t":84,"u":85,"v":86,"w":87,"x":88,"y":89,"z":90,"{":91,"|":92,"}":93,"~":94,"¡":95,"¢":96,"£":97,"¤":98,"¥":99,"¦":100,"§":101,"¨":102,"©":103,"ª":104,"«":105,"¬":106,"®":107,"¯":108,"°":109,"±":110,"²":111,"³":112,"´":113,"µ":114,"¶":115,"·":116,"¸":117,"¹":118,"º":119,"»":120,"¼":121,"½":122,"¾":123,"¿":124,"Â":125,"Ã":126,"Ä":127,"Å":128,"Æ":129,"Ç":130,"È":131,"É":132,"Ê":133,"Ë":134,"Ì":135,"Í":136,"Î":137,"Ï":138,"Ð":139,"Ñ":140,"Ò":141,"Ó":142,"Ô":143,"Õ":144,"Ö":145,"×":146,"Ø":147,"Ù":148,"Ú":149,"Û":150,"Ü":151,"Ý":152,"Þ":153,"ß":154,"à":155,"á":156,"â":157,"ã":158,"ä":159,"å":160,"æ":161,"ç":162,"è":163,"é":164,"ê":165,"ë":166,"ì":167,"í":168,"î":169,"ï":170,"ð":171,"ñ":172,"ò":173,"ó":174,"ô":175,"Ā":176,"ā":177,"Ă":178,"ă":179,"Ą":180,"ą":181,"Ć":182,"ć":183,"Ĉ":184,"ĉ":185,"Ċ":186,"ċ":187,"Č":188,"č":189,"Ď":190,"ď":191,"Đ":192,"đ":193,"Ē":194,"ē":195,"Ĕ":196,"ĕ":197,"Ė":198,"ė":199,"Ę":200,"ę":201,"Ě":202,"ě":203,"Ĝ":204,"ĝ":205,"Ğ":206,"ğ":207,"Ġ":208,"ġ":209,"Ģ":210,"ģ":211,"Ĥ":212,"ĥ":213,"Ħ":214,"ħ":215,"Ĩ":216,"ĩ":217,"Ī":218,"ī":219,"Ĭ":220,"ĭ":221,"Į":222,"į":223,"İ":224,"ı":225,"Ĳ":226,"ĳ":227,"Ĵ":228,"ĵ":229,"Ķ":230,"ķ":231,"ĸ":232,"Ĺ":233,"ĺ":234,"Ļ":235,"ļ":236,"Ľ":237,"ľ":238,"Ŀ":239,"ŀ":240,"Ł":241,"ł":242,"Ń":243,"ĠĠ":244,"ĠĠĠĠ":245,"Ġt":246,"in":247,"er":248,"on":249,"Ġa":250,"he":251,"re":252,"at":253,"en":254,"Ġthe":255,"or":256,"Ġs":257,"al":258,"es":259,"it":260,"is":261,"Ġc":262,"ion":263,"an":264,"ar":265,"Ġo":266,"le":267,"Ġf":268,"ĠĠĠ":269,"Ġw":270,"ed":271,"Ġp":272,"ĠĠĠĠĠĠĠĠ":273,"ing":274,"ro":275,"ic":276,"Ġb":277,"nd":278,"Ġin":279,"as":280,"Ġof":281,"et":282,"ct":283,"Ġd":284,"Ġ\\":285,"Ġm":286,"el":287,"ent":288,"Ġ$":289,"ou":290,"Ġto":291,"Ġand":292,"st":293,"am":294,"Ġth":295,"ig":296,"Ġre":297,"om":298,"Ġn":299,"il":300,"Ġh":301,"ation":302,"im":303,"ac":304,"id":305,"Ġe":306,"ol":307,"ot":308,"Ġ(":309,"ut":310,"ĠĠĠĠĠĠĠ":311,"ur":312,"Ġl":313,"se":314,"Ġ=":315,"Ġis":316,"ĠT":317,"iv":318,"ĠS":319,"{\\":320,"ul":321,"od":322,"ad":323,"ce":324,"if":325,"Ġg":326,"ab":327,"Ġfor":328,"ow":329,"qu":330,"tr":331,"ĠC":332,"ĉĉ":333,"ĠA":334,"Ġv":335,"ag":336,"čĊ":337,"um":338,"th":339,"em":340,"un":341,");":342,"âĢ":343,"ly":344,"ay":345,"ch":346,"us":347,"ap":348,"ith":349,"Ġ<":350,"ĠI":351,"Ġon":352,"ect":353,"Ġ{":354,"ate":355,"ter":356,"Ġbe":357,"Ġcon":358,"ex":359,"--":360,"ver":361,"end":362,"Ġthat":363,"_{":364,"=\"":365,"ath":366,"ht":367,"ĠM":368,"ir":369,"Ġst":370,"//":371,"est":372,"oc":373,"eg":374,"ction":375,"ĠĠĠĠĠĠĠĠĠĠĠ":376,"Ġas":377,"av":378,"Ġ*":379,"Ġwith":380,"ers":381,"ĠP":382,"res":383,"pt":384,"</":385,"Ġ$\\":386,"pe":387,"Ġpro":388,"ass":389,"up":390,"Ġan":391,"ĠB":392,"Ġal":393,"ess":394,"ub":395,"Ġ&":396,"and":397,"ew":398,"20":399,"Ġ}":400,"ain":401,"ef":402,"ist":403,"os":404,"ĠF":405,"Ġwh":406,"pl":407,"Ġex":408,"ame":409,"math":410,"ĠR":411,"ity":412,"ĠD":413,"ight":414,"ue":415,"ore":416,"ine":417,"ort":418,"Ġit":419,"ure":420,"ĠH":421,"ĠL":422,"ere":423,"op":424,"Ġr":425,"ĠThe":426,"our":427,"art":428,"Ġcom":429,"Ġwe":430,"Ġby":431,"rom":432,"Ġare":433,"ĠN":434,"ri":435,"ĠW":436,"}\\":437,"ext":438,"ref":439,"Ġthis":440,"ĠĊ":441,"Ġ\"":442,"age":443,"iz":444,"Ġcl":445,"ĠE":446,"^{":447,"}$":448,"ial":449,"ment":450,"Ġor":451,"ĠĠĠĠĠĠĠĠĠĠĠĠĠĠĠĠ":452,"Ġy":453,"ec":454,"ĠĠĠĠĠ":455,"ph":456,"ies":457,"ak":458,"ult":459,"ite":460,"ĠG":461,"Ġat":462,"ive":463,"ill":464,"\">":465,"sp":466,"ant":467,"()":468,"nt":469,"ge":470,"urn":471,"per":472,"**":473,"able":474,"og":475,"ib":476,"ep":477,"cl":478,"ack":479,"âĢĻ":480,"all":481,"ma":482,"ud":483,"Ġtr":484,"Ġfrom":485,"orm":486,"ld":487,"int":488,"act":489,"..":490,"}}":491,"Ġif":492,"(\\":493,"00":494,"fr":495,"port":496,"pro":497,"ft":498,"turn":499,"ype":500,"Ġsh":501,"ĠO":502,"ans":503,"con":504,"str":505,"Ġ-":506,"Ġnot":507,"ave":508,"egin":509,"cal":510,"ode":511,"ions":512,"ase":513,"begin":514,"equ":515,"Ġch":516,"are":517,"ta":518,"ace":519,"==":520,"The":521,"----":522,"ff":523,"ind":524,"und":525,"get":526,"Ġ'":527,"ell":528,"text":529,"ile":530,"ign":531,"ated":532,"ple":533,"Ġclass":534,"Ġhe":535,")$":536,"ical":537,"_{\\":538,"Ġle":539,"Ġcan":540,"ary":541,"Ġk":542,"Ġwas":543,"to":544,"ber":545,"ang":546,"ata":547,"In":548,"ov":549,"ime":550,"ens":551,"com":552,"ich":553,"Ġus":554,"ject":555,"ev":556,"ĠJ":557,"ard":558,"unction":559,"),":560,"ost":561,").":562,"}{":563,"out":564,"ition":565,"ust":566,"ip":567,"ire":568,"ĠĠĠĠĠĠĠĠĠĠĠĠĠĠĠ":569,"},":570,"Ġ+":571,"ast":572,"Ġhave":573,"ations":574,"ence":575,"ĠU":576,"ide":577,"ord":578,"ser":579,"ild":580,"frac":581,"eq":582,"alue":583,"abel":584,"ĠâĢ":585,"cc":586,"Ġ//":587,"ice":588,"Ġall":589,"ug":590,"fig":591,"form":592,"Ġreturn":593,"19":594,"ork":595,"du":596,"right":597,"Ġim":598,"ey":599,"ance":600,"ong":601,"ĠIn":602,"row":603,"eta":604,"ok":605,"Ġse":606,"ener":607,"lic":608,"li":609,"ĠTh":610,"cite":611,"aram":612,"ould":613,"->":614,"Ġj":615,"Ġres":616,"put":617,"Ġad":618,"Ġap":619,"Ġ[":620,"Ġdis":621,"Ġwhich":622,"ach":623,"Ġhas":624,"Ġun":625,"tring":626,"Ġnew":627,"Con":628,"set":629,"Ġab":630,"10":631,"::":632,"the":633,"label":634,"use":635,"Ġpl":636,"rm":637,"ther":638,"ob":639,"ents":640,"ĠV":641,"ize":642,"mathb":643,"ps":644,"Ġ@":645,"ĉĉĉĉ":646,"ĠK":647,"ption":648,"ock":649,"ress":650,"Ġyou":651,"Ġfunction":652,",\\":653,"ory":654,"fer":655,"so":656,"ublic":657,"$,":658,"tain":659,"$.":660,"ia":661,"St":662,"ous":663,"Ġwill":664,"Ġsp":665,"low":666,"ource":667,"over":668,"cri":669,"Ġob":670,"equation":671,"ear":672,"ray":673,"sum":674,"Ġ</":675,"})":676,"left":677,"hen":678,"ra":679,"elf":680,"201":681,"Ġar":682,"Ġ/":683,"odel":684,"\",":685,"ull":686,"'s":687,"iel":688,"mathcal":689,"Ġdef":690,"line":691,"erm":692,"}.":693,"ound":694,"enc":695,"one":696,"Ġcomp":697,"ator":698,"ield":699,"ond":700,"ose":701,"own":702,"yst":703,"Ġqu":704,"Ġme":705,"ll":706,"}(":707,"Ġout":708,"Ġset":709,"../":710,"(\"":711,"old":712,"Ġone":713,"();":714,"ual":715,"eth":716,"ree":717,"ome":718,"clud":719,"Ġdo":720,"ely":721,"ark":722,"Ġint":723,"ik":724,"Ġsu":725,"Ġev":726,"Ġinter":727,"}^":728,"',":729,"err":730,"Ġvar":731,"we":732,"}_":733,"Ġpart":734,"âĢĿ":735,"Ġup":736,"oint":737,"ates":738,"~\\":739,"Ġ:":740,"ystem":741,"pha":742,"Ġbut":743,"che":744,"oth":745,"Ex":746,"rap":747,"te":748,"amb":749,"lect":750,"Ġpr":751,"ics":752,"Ġstr":753,"bo":754,"div":755,"irst":756,"iew":757,"Ġ*/":758,"ml":759,"ount":760,"alpha":761,"--------":762,"ink":763,"of":764,"Ġ|":765,"da":766,"Ġper":767,"ck":768,"wo":769,"ix":770,"inal":771,"Ġcont":772,"****":773,"Ġ.":774,"trib":775,"ĠSt":776,"umber":777,"ake":778,")\\":779,"essage":780,"Ġget":781,"sh":782,"ict":783,"Ġmore":784,"Ġpre":785,"Ġalso":786,"ER":787,"roup":788,"led":789,"lo":790,"Ġtheir":791,"ian":792,"ym":793,"tribut":794,"ax":795,"pec":796,"erv":797,"Ġpublic":798,"imes":799,"elta":800,"oid":801,"))":802,"Ġro":803,"ors":804,"Ġexp":805,"ambda":806,"cre":807,"ery":808,"sub":809,"uct":810,"hat":811,"Ġne":812,"ular":813,"igh":814,"Pro":815,"$\\":816,"pr":817,"Ġresult":818,"Ġover":819,"Ġso":820,"ĠĠĠĠĠĠĠĠĠ":821,"eng":822,"ty":823,"Ġname":824,"Ġi":825,"app":826,"ĉĉĉ":827,"12":828,"this":829,"====":830,"Ġdata":831,"span":832,"Ġtime":833,"></":834,"name":835,"Ġour":836,"var":837,"Ġ_":838,"ĠĠĠĠĠĠĠĠĠĠĠĠĠĠĠĠĠĠĠ":839,"amma":840,"ho":841,"('":842,"def":843,"pos":844,"ry":845,"ss":846,"Ġits":847,"ick":848,"ethod":849,"ĠWe":850,"ings":851,"Ġform":852,"Ġthey":853,"mu":854,"IN":855,"Ġhis":856,"_\\":857,"200":858,"idth":859,"Ġcol":860,"ail":861,"=\\":862,"ĠY":863,"Ġtwo":864,"Th":865,"lement":866,"ON":867,"Ġdif":868,"dot":869,"Ġother":870,"Ġvalue":871,"ove":872,"Ġman":873,"raph":874,"Ġde":875,"ange":876,"ve":877,"ific":878,"ollow":879,"ient":880,"Name":881,"ative":882,"les":883,"Ġany":884,"Ġ\\\\":885,"Ġdes":886,"Type":887,"igma":888,"ied":889,"ert":890,"><":891,"Ġmodel":892,"param":893,"Ġwhen":894,"cent":895,"ĠâĢľ":896,"Ġsup":897,"Ġsub":898,"ĠCh":899,"}^{":900,"}_{":901,"mathbb":902,"atch":903,"ĠThis":904,"Ġwork":905,"ys":906,"Ġadd":907,"-\\":908,"../../":909,"io":910,"tern":911,"arg":912,"Ġwere":913,"rit":914,"Ġonly":915,"Ġag":916,"ook":917,"bar":918,"ection":919,"ish":920,"col":921,"atic":922,"Ġen":923,"ega":924,"Ġthere":925,"Ġ{\\":926,"lation":927,"^{\\":928,"Ġthan":929,"Ġbet":930,"Ġgo":931,"ues":932,"phi":933,"pi":934,"ise":935,"Ġbeen":936,"Ġfirst":937,"Ġtype":938,"Ġfollow":939,"ram":940,"import":941,"iss":942,"Ġ#":943,"under":944,"ays":945,"Ġline":946,"ility":947,"return":948,"yn":949,"Ġacc":950,"Ġpos":951,"Ġreg":952,"Ġwhere":953,"ache":954,"lem":955,"round":956,"lambda":957,"fo":958,"Ġx":959,"bf":960,"ool":961,"ST":962,"ng":963,"RE":964,"urre":965,"String":966,"Ġsim":967,"item":968,"Ġconst":969,"Ġsuch":970,"Ġtrans":971,"We":972,"alse":973,"11":974,"ons":975,"ann":976,"Id":977,"Ġgener":978,"Ġuse":979,"html":980,"ating":981,"ider":982,"Ġinto":983,"resent":984,"section":985,"cess":986,"cript":987,"Ġsome":988,"Ġind":989,"Ġabout":990,"Ġcor":991,"fter":992,"aw":993,"Ġno":994,"ater":995,"lock":996,"ĠIt":997,"olut":998,"anc":999,"plic":1000,"Ġrequ":1001,"Ġcomm":1002,"Ġcase":1003,"Ġequ":1004,"its":1005,"ible":1006,"als":1007,"ined":1008,"Ġcons":1009,"Ġid":1010,"Ġdiffer":1011,"Ġself":1012,"trans":1013,"source":1014,"tt":1015,"Ġ!":1016,"dd":1017,"Ġthen":1018,"Ġval":1019,"Ġ`":1020,"Ġwho":1021,"://":1022,"ont":1023,"Ġshow":1024,"ected":1025,"ious":1026,"Ġsc":1027,"Ġem":1028,"ilon":1029,"ead":1030,"der":1031,"message":1032,"sc":1033,"Ġhref":1034,"ures":1035,"Ġph":1036,"16":1037,"array":1038,"part":1039,"Res":1040,"wh":1041,"Com":1042,"Ġend":1043,"Ġte":1044,"ased":1045,"Ġel":1046,"mathbf":1047,"ugh":1048,"202":1049,"type":1050,"uild":1051,"Ġdec":1052,"ities":1053,"ie":1054,"td":1055,"AT":1056,"Ġ(\\":1057,"ike":1058,"align":1059,"ocal":1060,"sigma":1061,"Ġresp":1062,"Ġrel":1063,"Ġprov":1064,"val":1065,"ature":1066,"ault":1067,"ween":1068,"read":1069,"ote":1070,"serv":1071,"beta":1072,"for":1073,"}{\\":1074,"Ġerr":1075,"oug":1076,"iven":1077,"ices":1078,"Ġthese":1079,"^{-":1080,"angle":1081,"15":1082,"arch":1083,"code":1084,"oun":1085,"add":1086,"min":1087,"ilde":1088,"Ġunder":1089,"olog":1090,"Ġused":1091,"18":1092,"Ġeach":1093,"Ġ=>":1094,"Ġkn":1095,"ample":1096,"Ġsystem":1097,"ception":1098,"epend":1099,"Ġyear":1100,"ince":1101,"class":1102,"urrent":1103,"eps":1104,"Ġfe":1105,"Ġwould":1106,"ally":1107,"Ġmay":1108,"br":1109,"aramet":1110,"\\\\":1111,"ames":1112,"Ġnumber":1113,"Ġyour":1114,"##":1115,"Ġco":1116,"ning":1117,"Ġeff":1118,"Ġ==":1119,"ement":1120,"Ġher":1121,"Ġcre":1122,"Ch":1123,"ash":1124,"/>":1125,"Ġbetween":1126,"Ġnull":1127,"ength":1128,"+\\":1129,"ized":1130,"vent":1131,"Ġhigh":1132,"Ġoff":1133,"Ġpoint":1134,"ton":1135,"irect":1136,"Ġact":1137,"Ġ)":1138,"ID":1139,"Ġsa":1140,"Ġ>":1141,"ule":1142,"ĠPro":1143,"yle":1144,"OR":1145,"ask":1146,"Ġinst":1147,"gamma":1148,"Ġhad":1149,"Ġtest":1150,"List":1151,"Ġspec":1152,"action":1153,"Ġvoid":1154,"ational":1155,"__":1156,"Ġinclud":1157,"AR":1158,"*}":1159,"pon":1160,"LE":1161,"ced":1162,"ner":1163,"Ġthem":1164,"Ġprob":1165,"ower":1166,"ization":1167,"ptions":1168,"mathrm":1169,"log":1170,"ric":1171,"htt":1172,"Ġback":1173,"Ġrem":1174,"ting":1175,"):":1176,"rho":1177,"ages":1178,"Ġsm":1179,"ade":1180,"ause":1181,"13":1182,"^\\":1183,"back":1184,"Ġusing":1185,"Ġop":1186,"rt":1187,"Ġfield":1188,"apt":1189,"delta":1190,"rr":1191,"width":1192,"Ġpe":1193,"ĠUn":1194,"Ġstud":1195,"Ġam":1196,"rough":1197,"Ġpol":1198,"\"/>":1199,")}":1200,"Cl":1201,"hed":1202,"Ġdev":1203,"AL":1204,"Ġtrue":1205,"uth":1206,"25":1207,"ential":1208,"ember":1209,"gy":1210,"To":1211,"ocation":1212,"ument":1213,"ne":1214,"box":1215,"Ġsec":1216,"14":1217,"tau":1218,"sert":1219,"...":1220,"theta":1221,"Ġmethod":1222,"]{":1223,"ĠFor":1224,"Ġent":1225,"ivate":1226,"ever":1227,"figure":1228,"yp":1229,"lection":1230,"ier":1231,"Ġchar":1232,"ĠCom":1233,"ĠĠĠĠĠĠĠĠĠĠĠĠĠĠĠĠĠĠĠĠĠĠĠĠĠĠĠĠĠĠĠĠ":1234,"son":1235,"pre":1236,"Ġneed":1237,"ole":1238,"ward":1239,"Ġhow":1240,"cdot":1241,"big":1242,"ĠX":1243,"$-":1244,"ments":1245,"air":1246,"Ġrec":1247,"leq":1248,"Ġorg":1249,"Ġprodu":1250,"ĠQ":1251,"Ġcal":1252,"Tr":1253,"SS":1254,"));":1255,"Ġnon":1256,"It":1257,"ines":1258,"Ġlike":1259,"Ob":1260,"Ġgr":1261,"Ġappro":1262,"Ġfl":1263,"oy":1264,"EN":1265,"vel":1266,"////":1267,"Ġsign":1268,"Ġever":1269,"Ġmod":1270,"not":1271,"Ġmost":1272,"mer":1273,"partial":1274,"ĠâĢĵ":1275,"string":1276,"Ġinv":1277,"includ":1278,"}$,":1279,"ts":1280,"Ġoper":1281,"translation":1282,"ĠAs":1283,"itle":1284,"********":1285,"}$.":1286,"work":1287,"Ġstring":1288,"arget":1289,"pm":1290,"ars":1291,"ĠĠĠĠĠĠ":1292,"uss":1293,"perty":1294,"Ġsee":1295,"Ġshould":1296,"ank":1297,"formation":1298,"Ġ--":1299,"Ġfalse":1300,"new":1301,"Ġafter":1302,"self":1303,"Ġsame":1304,"}(\\":1305,"Ġz":1306,"nu":1307,"Ġdifferent":1308,"ically":1309,"be":1310,"Ġelse":1311,"Ar":1312,"ism":1313,"Ġstate":1314,"arrow":1315,"ily":1316,"ists":1317,"Ġrep":1318,"olution":1319,"Ġshe":1320,"Ġgiven":1321,"Ġmat":1322,"Ġac":1323,"\"><":1324,"Ġthrough":1325,"Ġwell":1326,"times":1327,"Value":1328,"32":1329,"ee":1330,"eqref":1331,"Ġfil":1332,"data":1333,"\");":1334,"Data":1335,"Ġcomple":1336,"ĠHe":1337,"ough":1338,"value":1339,"Ġext":1340,"umn":1341,"----------------":1342,"eqn":1343,"amp":1344,"For":1345,"ases":1346,"ww":1347,"As":1348,"Ġass":1349,"Ġdet":1350,"ervice":1351,"ream":1352,"org":1353,"uff":1354,"30":1355,"fty":1356,"ople":1357,"Ġfinal":1358,"Ġmin":1359,"infty":1360,"Ġ&&":1361,"face":1362,"omega":1363,"red":1364,"Ġpartic":1365,"ector":1366,"ces":1367,"par":1368,"Ġparamet":1369,"Ġgroup":1370,"Ġsaid":1371,"Ġfact":1372,"tilde":1373,"Ġjust":1374,"Ġobject":1375,"Ġu":1376,"ify":1377,"ody":1378,"view":1379,"Ġorder":1380,"Ġ/**":1381,"ets":1382,"Ġwhat":1383,"17":1384,"100":1385,"orld":1386,"Ġstart":1387,"Ġterm":1388,"ĠĠĠĠĠĠĠĠĠĠĠĠĠ":1389,"let":1390,"uring":1391,"ension":1392,"ots":1393,"ited":1394,"ĠCon":1395,"ful":1396,"Col":1397,"uch":1398,"rol":1399,"Ġmy":1400,"Ġsur":1401,"ger":1402,"heck":1403,"ified":1404,"cle":1405,"vers":1406,"ava":1407,"struct":1408,"reat":1409,"Ġbec":1410,"space":1411,"|\\":1412,"Ġboth":1413,"sec":1414,"ĠEx":1415,"Set":1416,"date":1417,"key":1418,"quad":1419,"ĠĠĠĠĠĠĠĠĠĠĠĠĠĠĠĠĠĠĠĠĠĠĠ":1420,"SE":1421,"Ġest":1422,"requ":1423,"dis":1424,"ired":1425,"ability":1426,"Ġnow":1427,"];":1428,"ĠZ":1429,"bol":1430,"ĠIf":1431,"la":1432,"')":1433,"IT":1434,"Delta":1435,"raw":1436,"co":1437,"Ġconsider":1438,"AN":1439,"ins":1440,"arent":1441,"Ġlong":1442,"ern":1443,"\")":1444,"Ġmon":1445,"ĠAl":1446,"Ġplay":1447,"Ġfollowing":1448,"Ġevery":1449,"ency":1450,"Ġbo":1451,"play":1452,"ives":1453,"file":1454,"try":1455,"rix":1456,"Ġvari":1457,"ĠNew":1458,"ulti":1459,"ĠTr":1460,"Ġdoes":1461,"test":1462,"],":1463,"By":1464,"Ġbr":1465,"ively":1466,"Ġprocess":1467,"CT":1468,"Ġdisc":1469,"resp":1470,"Ġexper":1471,"oci":1472,"sq":1473,"Ġcould":1474,"elop":1475,"Ġwhile":1476,".,":1477,"Exception":1478,"========":1479,"pp":1480,"($":1481,"50":1482,"rem":1483,"cont":1484,"Ġeffect":1485,"Ġresults":1486,"Ġ$(":1487,"Err":1488,"DE":1489,"ted":1490,"Ġed":1491,"by":1492,"Ġhand":1493,"ared":1494,"Ġright":1495,"any":1496,"ense":1497,"ivers":1498,"itions":1499,"\\,":1500,"ms":1501,"atus":1502,"cept":1503,"size":1504,"lob":1505,"ils":1506,"Ġread":1507,"iver":1508,"ality":1509,"other":1510,"En":1511,"Ġanal":1512,"._":1513,"net":1514,"Object":1515,"mary":1516,"Ġfind":1517,"Ġlist":1518,"ĠAn":1519,"$$":1520,"ersion":1521,"This":1522,"ten":1523,"Ġstatic":1524,"chi":1525,"Ġpeople":1526,"where":1527,"Ġ!=":1528,"xi":1529,"Ġ///":1530,"Ġcond":1531,"Ġ%":1532,"Ġkey":1533,"table":1534,"olds":1535,"ants":1536,"center":1537,"Ġperform":1538,"Ġatt":1539,"ymbol":1540,"aking":1541,"iqu":1542,"Ġobtain":1543,"Ġ||":1544,"comm":1545,"Ġser":1546,"nb":1547,"Test":1548,"ross":1549,"inter":1550,"24":1551,"ccess":1552,"orem":1553,"eqnarray":1554,"fore":1555,"Ġelement":1556,"px":1557,"Ġmake":1558,"Ġstruct":1559,"fl":1560,"'t":1561,"met":1562,")$.":1563,"gor":1564,"ron":1565,"}}\\":1566,"Ġsupport":1567,"function":1568,"Ġcurrent":1569,"199":1570,"}[":1571,"ision":1572,"ele":1573,"};":1574,"itial":1575,"Ph":1576,"Ġsmall":1577,"Ġfound":1578,"Get":1579,"Ġbound":1580,"land":1581,"Un":1582,"Ġprivate":1583,"ĠString":1584,"arge":1585,"psi":1586,"Im":1587,"ished":1588,"roll":1589,"Ġeven":1590,"ason":1591,"Ġcall":1592,"Ġbecause":1593,"script":1594,"Ġbel":1595,"ME":1596,"order":1597,"epsilon":1598,"Ġimport":1599,"At":1600,"efore":1601,"time":1602,"man":1603,"Ġdr":1604,"ĠSh":1605,"rite":1606,"Ġcontain":1607,"ler":1608,"Cont":1609,"().":1610,"Ġlocal":1611,"Ġmeas":1612,"cm":1613,"Ġagain":1614,"Ġmany":1615,"âĢľ":1616,"load":1617,"Ġrun":1618,"ences":1619,"());":1620,"nbsp":1621,"Ġlead":1622,"indow":1623,"sim":1624,"reg":1625,"ek":1626,"roid":1627,"An":1628,"etwork":1629,"umer":1630,"Ġknow":1631,"ral":1632,"mod":1633,"Ġarg":1634,"med":1635,"CO":1636,"Ġvery":1637,"Ġsecond":1638,"wn":1639,"Ġsize":1640,"tab":1641,"ĠĠĊ":1642,"ology":1643,"lp":1644,".âĢĿ":1645,"cale":1646,"day":1647,"Key":1648,"000":1649,"chn":1650,"ren":1651,"Ġincre":1652,"Ġapp":1653,"rc":1654,"Error":1655,"ane":1656,"energy":1657,"Ind":1658,"}_{\\":1659,"Ġthree":1660,"exp":1661,"Ġinformation":1662,"top":1663,"me":1664,"Ġway":1665,"Ġav":1666,"Ġbl":1667,"Ġvalues":1668,"ulation":1669,"Ġdistribut":1670,"Ġdescri":1671,"Ġlast":1672,"Ġbeing":1673,"Om":1674,"Ġcent":1675,"gram":1676,"22":1677,"her":1678,"Ġsing":1679,"Ġcontin":1680,"');":1681,"ble":1682,"pert":1683,"ness":1684,"imit":1685,"go":1686,"gr":1687,"Ġdirect":1688,"oad":1689,"Ġtop":1690,"Ġtem":1691,"Ġmass":1692,"Ġerror":1693,"Ġbefore":1694,"erson":1695,"vert":1696,"respond":1697,"rop":1698,"Ġfin":1699,"Ġproblem":1700,"head":1701,"sqrt":1702,"Ġmet":1703,"64":1704,"Ġfile":1705,"Class":1706,"uration":1707,"].":1708,"Omega":1709,"Ġyears":1710,"^*":1711,"bed":1712,"Ġhere":1713,"Ġspace":1714,"ĠFig":1715,"less":1716,"Gamma":1717,"opy":1718,"vious":1719,"ground":1720,"Ġposs":1721,"ormal":1722,"Ġpresent":1723,")$,":1724,"ience":1725,"reak":1726,"ĠCl":1727,"ression":1728,"ute":1729,"ife":1730,"psilon":1731,"ilar":1732,"Ġ${\\":1733,"index":1734,"Sh":1735,"ather":1736,"summary":1737,"location":1738,"alth":1739,"ĠčĊ":1740,"AC":1741,"Ġallow":1742,"pace":1743,"Ġfr":1744,"Ġmust":1745,"ocument":1746,"group":1747,"az":1748,"Ġlook":1749,"LL":1750,"Ġdevelop":1751,"Ġhim":1752,"list":1753,"raphics":1754,"link":1755,"\";":1756,"ager":1757,"bm":1758,"ĠRes":1759,"Ġrepresent":1760,"ural":1761,"Ġsince":1762,"Ġthose":1763,"RO":1764,"arn":1765,"Ġprovid":1766,"Ġreal":1767,"Int":1768,"ister":1769,"Ġobserv":1770,"Ġmain":1771,"url":1772,"Ġconn":1773,"Ġcomput":1774,"capt":1775,"40":1776,"irc":1777,"Requ":1778,"Ġrespect":1779,"field":1780,"ission":1781,"bers":1782,"Ġdist":1783,"ott":1784,"ually":1785,"position":1786,"ident":1787,"Ġident":1788,"ĠĠĠĠĊ":1789,"(),":1790,"no":1791,"Ġ,":1792,"olv":1793,"Ġlet":1794,"23":1795,"ush":1796,"subsection":1797,"uffer":1798,"http":1799,"^{(":1800,"vare":1801,"way":1802,"View":1803,"unc":1804,"}=":1805,"File":1806,"ah":1807,"att":1808,"Ġenergy":1809,"PE":1810,"Ġgu":1811,"Ġmap":1812,"node":1813,"textbf":1814,"IC":1815,"ĠAr":1816,"Ġassum":1817,"itive":1818,"['":1819,"varepsilon":1820,"non":1821,"On":1822,"Ġ\\,":1823,"Ġ);":1824,"au":1825,"ood":1826,"Ġlevel":1827,"Ġopt":1828,"ification":1829,"ION":1830,"sl":1831,"Ġpass":1832,"ouse":1833,"rangle":1834,"Ġmed":1835,"plit":1836,"Ġinteg":1837,"Ġcorrespond":1838,"TE":1839,"ĠHow":1840,"fil":1841,"Ġprot":1842,"see":1843,"acter":1844,"path":1845,"}^{\\":1846,"Ġdown":1847,"caption":1848,"search":1849,"sm":1850,"sk":1851,"Ġaut":1852,"public":1853,"aces":1854,"Ġart":1855,"adi":1856,"Ġproject":1857,")=":1858,"ĠAnd":1859,"bl":1860,"aj":1861,"Ġvis":1862,"Ġassert":1863,"Ġevent":1864,"lobal":1865,".</":1866,"perties":1867,"ital":1868,"Ġexpl":1869,"oss":1870,"ero":1871,"alk":1872,"const":1873,"omet":1874,"With":1875,"ĠInd":1876,"ior":1877,"fin":1878,"rightarrow":1879,"els":1880,"tribute":1881,"Ġmax":1882,"akes":1883,"pty":1884,"Ġdid":1885,"ĉĉĉĉĉ":1886,"''":1887,"urs":1888,"Ġmuch":1889,"\":":1890,"ke":1891,"rel":1892,"vir":1893,"chool":1894,"eb":1895,"Ġlarge":1896,"map":1897,"Time":1898,"ape":1899,"with":1900,"Node":1901,"itor":1902,"length":1903,"Qu":1904,"hip":1905,"2022":1906,"ampl":1907,"Ġ:=":1908,"Ġmark":1909,"plication":1910,"gorith":1911,"Ġmeasure":1912,"ari":1913,"Ġpath":1914,"Ġabove":1915,"max":1916,"ponse":1917,"Ġtyp":1918,"Ġmem":1919,"arm":1920,"LA":1921,"ession":1922,"Def":1923,"tract":1924,"Ġ?":1925,"\"></":1926,"aining":1927,"Equ":1928,"Ġtarget":1929,"Ġthrow":1930,"33":1931,"Element":1932,"Ġduring":1933,"ators":1934,"Ġpat":1935,"uthor":1936,"Ġcle":1937,"ift":1938,"Event":1939,"60":1940,"Ġgeneral":1941,"Ġdepend":1942,"color":1943,"Ġpar":1944,"meric":1945,"Ġfam":1946,"Ġhelp":1947,"Ġmade":1948,"mit":1949,"ustom":1950,"ope":1951,"ination":1952,"odes":1953,"egraphics":1954,"includegraphics":1955,"Ġstand":1956,"80":1957,"Al":1958,"https":1959,"Ġestim":1960,"Ġcoun":1961,"']":1962,"Ġlog":1963,"ters":1964,"/*":1965,"iness":1966,"Ġleft":1967,"Ġnext":1968,"js":1969,"Ġref":1970,"':":1971,"imal":1972,"util":1973,"Ġmulti":1974,"Add":1975,"Ġexample":1976,"ends":1977,"ivity":1978,"ived":1979,"TR":1980,"pack":1981,"Ġcr":1982,"itional":1983,"Ġdefined":1984,"Ġreport":1985,"ensure":1986,"Ġgood":1987,"rodu":1988,"/**":1989,"Ġbuild":1990,"Ġnode":1991,"iag":1992,"Ġopen":1993,"urther":1994,"AP":1995,"Ġworld":1996,"varphi":1997,"off":1998,"Request":1999,"ogle":2000,"Ġtake":2001,"ynam":2002,"orn":2003,"Ref":2004,"oh":2005,"Ġarray":2006,"ĠCol":2007,"side":2008,"Ġaction":2009,"olean":2010,"frak":2011,"Ġ/>":2012,"result":2013,"lay":2014,"Info":2015,"Ġwant":2016,"Path":2017,"Ġnetwork":2018,"ailable":2019,"acy":2020,"Ġcheck":2021,"ords":2022,"Ġbased":2023,"uc":2024,"ternal":2025,"Ġstill":2026,"ival":2027,"oot":2028,"emph":2029,"Ġ/*":2030,"21":2031,"ĠOn":2032,"geq":2033,"Ġpower":2034,"imension":2035,".~\\":2036,"ĠYou":2037,"nav":2038,"sup":2039,"inition":2040,"ij":2041,"Index":2042,"orth":2043,"Ġinput":2044,",âĢĿ":2045,"ysis":2046,"State":2047,"ĠTo":2048,"Map":2049,"wit":2050,"des":2051,"Ġorig":2052,"overline":2053,"27":2054,"ixed":2055,"Ġwrit":2056,"Ġrele":2057,"Big":2058,"Ġpres":2059,"Ġrequest":2060,"Ġsat":2061,"\"\"":2062,"ertain":2063,"ources":2064,"idd":2065,"duct":2066,"bs":2067,"ocus":2068,"Ġquant":2069,".}":2070,"aper":2071,"UR":2072,"atures":2073,"iter":2074,"Ġcar":2075,"Config":2076,"Man":2077,"uction":2078,"af":2079,"Ġtechn":2080,"dict":2081,"come":2082,"cul":2083,"Ġet":2084,"Text":2085,"Context":2086,"Ġelect":2087,"Ġhtt":2088,"Ġcommun":2089,"proof":2090,"Field":2091,"Ġhead":2092,"Ġown":2093,"Ġbeh":2094,"point":2095,"Ġmag":2096,"Ġtext":2097,"Ġtri":2098,"Ġden":2099,"ride":2100,"ploy":2101,"())":2102,"28":2103,"}).":2104,"Ġsum":2105,"Ġaround":2106,"&\\":2107,"overn":2108,"``":2109,"vec":2110,"ensity":2111,"oper":2112,"stance":2113,"style":2114,")^":2115,"ox":2116,"user":2117,"ables":2118,"Ġ(!":2119,"ĠSc":2120,"AD":2121,"Ġinitial":2122,"ale":2123,"iversity":2124,"arly":2125,"Ġcur":2126,"Ġwithout":2127,"ware":2128,"Ġmodels":2129,"cription":2130,"Ġtitle":2131,"[\\":2132,"ats":2133,"eff":2134,"Ġrefer":2135,"inc":2136,"ait":2137,"////////":2138,"},\\":2139,"from":2140,"mathfrak":2141,"ibr":2142,"igned":2143,"eep":2144,"Ġ},":2145,"Ġcontent":2146,"Ġbest":2147,"ately":2148,"comp":2149,"IS":2150,"ene":2151,"Ġpost":2152,"uck":2153,"plement":2154,"=\"../../":2155,"light":2156,"Array":2157,"Ġmov":2158,"Ġwithin":2159,"Ġdon":2160,"Ġview":2161,"Ġsource":2162,"Ġdeterm":2163,"Over":2164,"âĢĵ":2165,"Ġcompon":2166,"Ġchild":2167,"ains":2168,"apache":2169,"Ġspect":2170,"ED":2171,"void":2172,"iled":2173,"LO":2174,"Ġuser":2175,"Ġshown":2176,"ES":2177,"wid":2178,"2020":2179,"erefore":2180,"Ġsimilar":2181,"andom":2182,"If":2183,"usiness":2184,"Ġsingle":2185,"iving":2186,"bit":2187,"api":2188,"AS":2189,"Ġredu":2190,"Ġbas":2191,"Ġparticular":2192,"Ġpop":2193,"!--":2194,"atter":2195,"Ġ});":2196,"ĠAmeric":2197,"Ġserv":2198,"imum":2199,"otential":2200,"Ġdefault":2201,"object":2202,"por":2203,"mm":2204,"Ġappe":2205,"Ġstudy":2206,"Re":2207,"orph":2208,"til":2209,"ĠSe":2210,"cor":2211,"Service":2212,"ording":2213,"26":2214,"ique":2215,"langle":2216,"model":2217,"Item":2218,"lim":2219,"ymmet":2220,"Ġincluding":2221,"Not":2222,"ĠPh":2223,"Ġblock":2224,"hes":2225,"Let":2226,"angu":2227,"Ġfollows":2228,"Ġconstr":2229,"Ġsection":2230,"ugg":2231,"define":2232,"45":2233,"assert":2234,"Ġcontext":2235,"hline":2236,"aut":2237,"ui":2238,")(":2239,"MP":2240,"Or":2241,"Ġcontrol":2242,"Ġdom":2243,"Ġcho":2244,"Ġtot":2245,"Ġchang":2246,"true":2247,"iod":2248,"ret":2249,"Ġ($":2250,"Ġparameters":2251,"aster":2252,"Ġdiscuss":2253,"icle":2254,"Ġexist":2255,"++":2256,"ways":2257,"Ġinterest":2258,"Ġsol":2259,"input":2260,"amespace":2261,"Ġ__":2262,"UT":2263,"uf":2264,"icy":2265,"lish":2266,"Ġlow":2267,"Ġcorre":2268,"****************":2269,"pose":2270,"Ġstat":2271,"Des":2272,"Ġterms":2273,"Ġteam":2274,"Ġproduct":2275,"Ġdel":2276,"uary":2277,"Lambda":2278,"ags":2279,"}}$":2280,"bolds":2281,"ĠIs":2282,"Ġconfig":2283,"Ġchange":2284,"lected":2285,"Ġindex":2286,"ĠĠĠĠĠĠĠĠĠĠĠĠĠĠĠĠĠĠĠĠĠĠĠĠĠĠĠ":2287,"CH":2288,"nab":2289,"99":2290,"config":2291,"System":2292,"Ġprogram":2293,"Ġdue":2294,"Ġcreate":2295,"boldsymbol":2296,"';":2297,"plate":2298,"Is":2299,"ients":2300,"www":2301,"ldots":2302,"Ġpossible":2303,"ouble":2304,"arning":2305,"nal":2306,"Ġtry":2307,"isf":2308,"[]":2309,"Ġq":2310,"ux":2311,"ĠBut":2312,"mbox":2313,"urity":2314,"Ġinstance":2315,"ump":2316,"ING":2317,"Ġbro":2318,"error":2319,"Ġconf":2320,"ety":2321,"Ġrange":2322,"Ġfour":2323,"Ġcalled":2324,"gorithm":2325,"Ġenc":2326,"IG":2327,"ync":2328,"icon":2329,"ules":2330,"FF":2331,"âĢ¦":2332,"Ġ===":2333,"Ġdep":2334,"ĠWh":2335,"pd":2336,"ĠAd":2337,"Code":2338,"sf":2339,"valid":2340,"ched":2341,"Phi":2342,"block":2343,"appa":2344,"ised":2345,"Ġdem":2346,"2021":2347,"Size":2348,"Of":2349,"29":2350,"Ġassoci":2351,"Ġrece":2352,"Ġmean":2353,"si":2354,"35":2355,"viron":2356,"Ġdeta":2357,"dt":2358,"ances":2359,"ecut":2360,"Ġinvest":2361,"ependent":2362,"Ġimp":2363,"prov":2364,"ĠPr":2365,"istic":2366,"nder":2367,"Ġocc":2368,"Ġthink":2369,"posed":2370,"atrix":2371,"Form":2372,"####":2373,"ches":2374,"Ġdat":2375,"Ġcharacter":2376,"Ġclos":2377,"ither":2378,"75":2379,"Ġbeg":2380,"md":2381,"=\"+":2382,"otimes":2383,"eturn":2384,"ĠâĢĺ":2385,"ĠRe":2386,"ĠHowever":2387,"utton":2388,"Ġcode":2389,"ateg":2390,"Hand":2391,".\\":2392,"2018":2393,"Ġversion":2394,"Ġpoints":2395,"body":2396,"nabla":2397,"Ġder":2398,"}),":2399,"ĠFr":2400,"ling":2401,"create":2402,"state":2403,"Ġdistribution":2404,"Ġsk":2405,"Result":2406,"version":2407,"AB":2408,"ird":2409,"amples":2410,"Ġexpect":2411,"ET":2412,"Ġrequire":2413,"xim":2414,"Ġparameter":2415,"prot":2416,"Ġfull":2417,"ready":2418,"Ġlimit":2419,"Ġavailable":2420,"All":2421,"ponent":2422,"Ġshows":2423,"abled":2424,"stand":2425,"loat":2426,"Ġstructure":2427,"down":2428,"2019":2429,"aving":2430,"He":2431,"Ġimage":2432,"ium":2433,".\"":2434,"90":2435,"icient":2436,"kappa":2437,"Ġprevious":2438,"Ġpotential":2439,"From":2440,"Model":2441,"Ġbreak":2442,"Ġsay":2443,"ru":2444,"quot":2445,"Ġperson":2446,"tes":2447,"Ġagainst":2448,"draw":2449,"tings":2450,"2017":2451,"Ġcap":2452,"Ġeas":2453,"ĠâĢĶ":2454,"enu":2455,"Ġgame":2456,"ML":2457,"ĠThen":2458,"Ġlink":2459,"Ġaccess":2460,"Ġ};":2461,"Ġ``":2462,"ison":2463,"itt":2464,"sw":2465,"lin":2466,"Build":2467,"Dis":2468,"ustr":2469,"clus":2470,"mp":2471,"aterial":2472,"annel":2473,"Ġnil":2474,"sem":2475,"nonumber":2476,"ĠAll":2477,"Ġadv":2478,"Ġiss":2479,"})$":2480,"Ġtotal":2481,"Ġimportant":2482,"uster":2483,"ended":2484,"Ġanother":2485,"eed":2486,"ottom":2487,"lient":2488,"ĠGet":2489,"Ġstrong":2490,"iment":2491,"cond":2492,"Ġspe":2493,"Ġfunctions":2494,"Ġsever":2495,"01":2496,"citep":2497,"default":2498,"ention":2499,"word":2500,"Ġoptions":2501,"And":2502,"istory":2503,"Val":2504,"uture":2505,"start":2506,"title":2507,"Ġweek":2508,"ume":2509,"ĠOb":2510,"Ġsuper":2511,"Ġcour":2512,"ina":2513,"include":2514,"~~":2515,"ĠSystem":2516,"Ġfree":2517,"ained":2518,"Ġmatrix":2519,"Ġsatisf":2520,"cap":2521,"Ġexpected":2522,"ored":2523,"Ġmom":2524,"Ġlarg":2525,"Ġalong":2526,"ĠDe":2527,"ansp":2528,"Ser":2529,"Ġsolution":2530,"New":2531,"Ġcomb":2532,"anguage":2533,"UN":2534,"2016":2535,"ender":2536,"ii":2537,"Ġday":2538,"subset":2539,"inary":2540,"ven":2541,"70":2542,"ĠAt":2543,"\\|":2544,"Ġsequ":2545,"textit":2546,"Ġold":2547,"rec":2548,"oin":2549,"Ġposition":2550,"Ġlength":2551,"Ġfew":2552,"Ġplace":2553,"ken":2554,"Se":2555,"check":2556,"MA":2557,"Message":2558,"Ġbackground":2559,"opt":2560,"Ġitem":2561,"earch":2562,"Ġregion":2563,"eter":2564,"ibility":2565,"vari":2566,"ially":2567,"irt":2568,"Ġturn":2569,"Ġknown":2570,"Ġcell":2571,"Ġjava":2572,"tra":2573,"Ġless":2574,"ĠCO":2575,"iction":2576,"outh":2577,"Ġvert":2578,"omen":2579,"eve":2580,"Ġgraph":2581,"ped":2582,"ides":2583,"Sigma":2584,"Ġgrow":2585,"Out":2586,"Inter":2587,"uments":2588,"Ġbase":2589,"Ġaff":2590,"oud":2591,"Ġindic":2592,"Ġvol":2593,"tainer":2594,"wide":2595,"Ġlaw":2596,"ĠThey":2597,"Ġcontinu":2598,"ĠĠĠĠĠĠĠĠĠĠĠĠ":2599,"ĠMar":2600,"ands":2601,"ĠBy":2602,"Ġanalysis":2603,"Ġstates":2604,"âĢĶ":2605,"Ġnear":2606,"OT":2607,"Ġlife":2608,"Ġintrodu":2609,"Ġaddress":2610,"ideo":2611,"Ġsuccess":2612,"onse":2613,"='":2614,"dev":2615,"\\%":2616,"Table":2617,"ude":2618,"Ġproperty":2619,"Ġsignific":2620,"Ġcolor":2621,"}}{":2622,"198":2623,"lang":2624,"){":2625,"using":2626,"Ġobtained":2627,"ĠUS":2628,"vironment":2629,"ĠPl":2630,"Ġresponse":2631,"Ġrate":2632,"Query":2633,"ograph":2634,"Fil":2635,"ĠEn":2636,"Reg":2637,"irection":2638,"Ġscal":2639,"Ġbetter":2640,"ĠĠĠĠĠĠĠĠĠĠ":2641,"Ġoutput":2642,"US":2643,"ULL":2644,"next":2645,"Ġconstant":2646,"Ġstandard":2647,"info":2648,"Ġpaper":2649,"illion":2650,"ensuremath":2651,"Ġpredict":2652,"34":2653,"Ġdeg":2654,"Ã©":2655,"/\\":2656,"ĠLet":2657,"ports":2658,"ĠShe":2659,"icro":2660,"Ġtimes":2661,"Ġide":2662,"Rec":2663,"Ġcount":2664,"Ġwidth":2665,"istr":2666,"sequ":2667,"ĠSp":2668,"ename":2669,"aim":2670,"Ġphot":2671,"\\[":2672,"Ġsit":2673,"Ġlay":2674,"Ġcou":2675,"Ġ-->":2676,"ĠOr":2677,"Ġcrit":2678,"ĠUniversity":2679,"Ġquest":2680,"ĉĊ":2681,"Fig":2682,"hether":2683,"refer":2684,"uro":2685,"widet":2686,"cit":2687,"2015":2688,"Manager":2689,"IP":2690,"Ġcomplex":2691,"Ġleast":2692,"oll":2693,"reen":2694,"ges":2695,"ending":2696,"idual":2697,"roller":2698,"uation":2699,"Ġtoo":2700,"Ġca":2701,"Ġequation":2702,"Ġalready":2703,"Pr":2704,"05":2705,"ifier":2706,"ocial":2707,"Ġinclude":2708,"Ġprovide":2709,"Ġalways":2710,"Ġdensity":2711,"Log":2712,"content":2713,"Ġcover":2714,"reate":2715,"ks":2716,"Ġcalcul":2717,"uman":2718,"Ġapproach":2719,"dots":2720,"Ġlight":2721,"Read":2722,"Ġindu":2723,"verage":2724,"Ġgreat":2725,"Ġrecent":2726,"Ġtheory":2727,"Ġshort":2728,"Property":2729,"Ġoriginal":2730,"Ġperformance":2731,"cast":2732,"Ġbook":2733,"Ġservice":2734,"CC":2735,"Ġann":2736,"widetilde":2737,"Ġcorresponding":2738,"usic":2739,"aint":2740,"context":2741,"--------------------------------":2742,"bt":2743,"Ġvalid":2744,"Ġrequired":2745,"ĠJan":2746,"method":2747,"android":2748,"Ġfamily":2749,"base":2750,"ĠGr":2751,"Client":2752,"Ġmethods":2753,"Ġes":2754,"36":2755,"Ġla":2756,"ENT":2757,"ohn":2758,"ĠSo":2759,"Group":2760,"Ġsche":2761,"Pl":2762,"Ġsrc":2763,"lished":2764,"Ad":2765,"TH":2766,"mon":2767,"Ġorgan":2768,"\\!":2769,"ley":2770,"OD":2771,"Ġphys":2772,"resh":2773,"Ġtask":2774,"oop":2775,"Cell":2776,"now":2777,"ĠTe":2778,"Ġmatch":2779,"ĠThere":2780,"acc":2781,"Ġmight":2782,"une":2783,"Ġdesign":2784,"Ġapproxim":2785,"Ġbool":2786,"ves":2787,"Ġproperties":2788,"bra":2789,"Ġfurther":2790,"ories":2791,"Ġpair":2792,"ajor":2793,"2014":2794,"ably":2795,"Ġaccount":2796,"asing":2797,"Ġtable":2798,"{-":2799,"Ġresearch":2800,"alf":2801,"48":2802,"55":2803,"call":2804,"Ġsl":2805,"ury":2806,"sing":2807,"](":2808,"Response":2809,"================":2810,"ework":2811,"Ġabs":2812,"31":2813,"oken":2814,"Ġsom":2815,"epar":2816,"Ġsignificant":2817,"Ġconditions":2818,"java":2819,"Ġhapp":2820,"Ġstyle":2821,"Ġbusiness":2822,"ising":2823,"Ġcondition":2824,"Ġdiff":2825,"ĠIN":2826,"ĠBl":2827,"ĠSet":2828,"Ġhy":2829,"func":2830,"Ġperiod":2831,"Up":2832,"Color":2833,"PI":2834,"ai":2835,"foot":2836,"Call":2837,"erg":2838,"uk":2839,"Ġseries":2840,"Ġside":2841,"Ġ<<":2842,"prime":2843,"Ġsystems":2844,"Ġmeans":2845,"Ġnormal":2846,"Ġlower":2847,"my":2848,"hand":2849,"circ":2850,"Ġcases":2851,"Trans":2852,"Ġmonth":2853,"ensor":2854,";&":2855,"ĠBr":2856,"rior":2857,"Arg":2858,"wise":2859,"66":2860,"aff":2861,"event":2862,"xy":2863,"Ġcost":2864,"ĠMan":2865,"Ġrandom":2866,"ĉĉĉĉĉĉ":2867,"Ġeither":2868,"Ġseveral":2869,"TD":2870,"Ġhigher":2871,"}-":2872,"iam":2873,"Exp":2874,"urb":2875,"Ġmessage":2876,"=\"../../../../":2877,"Ġgoing":2878,"book":2879,"Ġhealth":2880,"anel":2881,"zeta":2882,"ĠEng":2883,"Ġcontribut":2884,"IR":2885,"Count":2886,"}+":2887,"ĠNo":2888,"leg":2889,"ns":2890,"0000":2891,"Ġgovern":2892,"iff":2893,"mult":2894,"Ġgl":2895,"agement":2896,"centering":2897,"Ġbelow":2898,"ĠÐ":2899,"Ġput":2900,"Ġcare":2901,"Ġphase":2902,"Ġschool":2903,"Ġvector":2904,"ply":2905,"Ġred":2906,"place":2907,"38":2908,"plied":2909,"])":2910,"Ġleg":2911,"core":2912,"static":2913,"IL":2914,"Method":2915,"Mod":2916,"Ġstd":2917,"((":2918,"spec":2919,"doc":2920,"package":2921,"Fact":2922,"option":2923,"options":2924,"ĠCent":2925,"39":2926,"small":2927,"Ġassociated":2928,"Fr":2929,"conn":2930,"ĠThese":2931,"gress":2932,"dom":2933,"mark":2934,"Ġrespectively":2935,"\\]":2936,">&":2937,"Override":2938,"Ġhard":2939,"ĠMay":2940,"Ġhome":2941,"Ġmot":2942,"ĠRep":2943,"Input":2944,"Stream":2945,"End":2946,"false":2947,"User":2948,"based":2949,"gt":2950,"\\{":2951,"Ġ&=":2952,"Ġdynam":2953,"Ġlinear":2954,"ĠEq":2955,"OS":2956,"ittle":2957,"eh":2958,"dec":2959,"Ġimplement":2960,"Ġdocument":2961,"ordin":2962,"print":2963,"image":2964,"Ġpur":2965,"Ġrest":2966,"wards":2967,"Ġdiag":2968,"Ġtemper":2969,"flow":2970,"ights":2971,"Ġgive":2972,"Wh":2973,"web":2974,"rist":2975,"pen":2976,"ological":2977,"tem":2978,"ĠWith":2979,"arr":2980,"prop":2981,"lt":2982,"2013":2983,"Ġarea":2984,"Ġparent":2985,"ours":2986,"Ġelements":2987,"atform":2988,"II":2989,"ently":2990,"Ġproof":2991,"hem":2992,";\\":2993,"init":2994,"Ġdefine":2995,"Ġglobal":2996,"Ġbig":2997,"Ġnum":2998,"plies":2999,"Ġfocus":3000,"HE":3001,"Ġcoll":3002,">(":3003,"Ġfeatures":3004,"dr":3005,"Ġsays":3006,"ober":3007,"uggest":3008,"Ġbehav":3009,")=\\":3010,"37":3011,"aring":3012,"element":3013,"tabular":3014,"Ġneg":3015,"Ġmoment":3016,"omic":3017,"Builder":3018,"current":3019,"How":3020,"ĠAp":3021,"Ġintegr":3022,"display":3023,"Sub":3024,"Ġeval":3025,"cy":3026,"verse":3027,"Ġcy":3028,"google":3029,"db":3030,"Ġeng":3031,",\"":3032,"No":3033,"lying":3034,"ithub":3035,"CE":3036,")]":3037,"Ġreally":3038,"skip":3039,"Ġstep":3040,"Ġlabel":3041,"Ġge":3042,"cos":3043,"ĠSup":3044,"Ġacross":3045,"Status":3046,"Ġseen":3047,"Ġlik":3048,"lex":3049,"Ġprom":3050,"Ġzero":3051,"aged":3052,")}\\":3053,"MS":3054,"omorph":3055,"44":3056,"thing":3057,"Ð°":3058,"TO":3059,"olutions":3060,"Ġfore":3061,"amed":3062,"Ġang":3063,"abase":3064,"Ġbu":3065,"do":3066,"aken":3067,"Ġseem":3068,"Image":3069,"de":3070,"ought":3071,"idence":3072,"actions":3073,"Ġwhether":3074,"}=\\":3075,"ĠTheorem":3076,"NA":3077,"emma":3078,"Ġspecial":3079,"Ġvia":3080,"Ġpay":3081,"uid":3082,"ony":3083,"ĠLe":3084,"ĠMed":3085,"Ġpo":3086,"Ġscale":3087,"Ġradi":3088,"Ġsuff":3089,"Ġant":3090,"chan":3091,"Ð¾":3092,"Ġcolumn":3093,"EE":3094,"thm":3095,"Ġdiv":3096,"ĠCar":3097,"Ġcustom":3098,"member":3099,"ĠSec":3100,"pect":3101,"Ġpositive":3102,"Ġsimple":3103,"css":3104,"SP":3105,"ĠIm":3106,"which":3107,"olved":3108,"Ġalgorithm":3109,"run":3110,"ecess":3111,"ategory":3112,"Ġsepar":3113,"pc":3114,"ĠCan":3115,"AG":3116,"most":3117,"Ġoperator":3118,"ocol":3119,"2012":3120,"2023":3121,"height":3122,"cell":3123,"active":3124,"aps":3125,"Ġlater":3126,"local":3127,"Ġfund":3128,"Ġpack":3129,"Ġevents":3130,"Ġfar":3131,"github":3132,"Ġconstruct":3133,"build":3134,"Ġsymmet":3135,"Ġund":3136,"Ġfields":3137,"ĠTest":3138,"Ġnever":3139,"Ġrelations":3140,")^{":3141,"gener":3142,"ERT":3143,"08":3144,"stit":3145,"plicit":3146,"ĠSection":3147,"Ġindiv":3148,"used":3149,"Gener":3150,"Ġcompany":3151,"{(":3152,"ĠPol":3153,"Ġpage":3154,"ĠMore":3155,"Ġfrequ":3156,"argin":3157,"Ġdone":3158,"Ġplan":3159,"cer":3160,"png":3161,"ball":3162,"enn":3163,"ĠDis":3164,"Ġcross":3165,"Ġfuture":3166,"EX":3167,"ering":3168,"Ġbi":3169,"alax":3170,"ĠWhen":3171,"mail":3172,"}]":3173,"client":3174,"Ġexists":3175,"Str":3176,"Ġgot":3177,"Ap":3178,"null":3179,"Ġfinite":3180,"$)":3181,"Ġtraining":3182,"nown":3183,"Ġloc":3184,"case":3185,"medi":3186,"Ġ()":3187,"Date":3188,"95":3189,"witch":3190,"ething":3191,"Ġtre":3192,"scale":3193,"Ġloss":3194,"Ġkeep":3195,"icense":3196,"Ġable":3197,"orage":3198,"Source":3199,"NS":3200,"Ġcommon":3201,"Ġcome":3202,"cho":3203,"pol":3204,"operator":3205,"ĠInt":3206,"Psi":3207,"Bar":3208,"Ġfac":3209,"Ġsample":3210,"Ġflow":3211,"otype":3212,"Ġconsist":3213,"Equal":3214,"({":3215,"Ġspecific":3216,"creen":3217,"onal":3218,"cdots":3219,"Ġclose":3220,"Ġrole":3221,"Ġuntil":3222,"ĠList":3223,"ĠComm":3224,"ĠĠĠĠĠĠĠĠĠĠĠĠĠĠĠĠĠ":3225,"Ġpract":3226,"ĠNULL":3227,"ONT":3228,"Null":3229,"Ġemploy":3230,"ynt":3231,"Ġlines":3232,"izer":3233,"Ġfeature":3234,"=\"../":3235,"ĠCo":3236,"izing":3237,"Ġprovided":3238,"Token":3239,"irtual":3240,"Ġboolean":3241,"server":3242,"=\"#":3243,"ĠAdd":3244,"dir":3245,"widehat":3246,"}|":3247,"65":3248,"ĠGe":3249,"tx":3250,"has":3251,"Block":3252,"ĠAmerican":3253,"ilities":3254,"Action":3255,"Ġtoget":3256,"Paramet":3257,"arams":3258,"ula":3259,"imensional":3260,"ring":3261,"Ġtogether":3262,"atural":3263,"Ġaverage":3264,"char":3265,"gen":3266,"Sc":3267,"ires":3268,"ries":3269,"Ġwrite":3270,"ls":3271,"lemma":3272,"Sec":3273,"04":3274,"Ġmajor":3275,"oke":3276,"oo":3277,"Ġsem":3278,"imate":3279,"Ðµ":3280,"Pos":3281,"Ġenough":3282,"Ġperm":3283,"Ġsuggest":3284,"page":3285,"Ġfactor":3286,"Ed":3287,"though":3288,"Ġrecord":3289,"}\\,":3290,"Off":3291,"}_\\":3292,"anch":3293,"Head":3294,",-":3295,"}^\\":3296,"ements":3297,"Ġtrack":3298,"ips":3299,"fe":3300,"Ġindividual":3301,"ĠĠĠĠĠĠĠĠĠĠĠĠĠĠĠĠĠĠĠĠĠĠĠĠĠĠĠĠĠĠĠ":3302,"gebra":3303,"apping":3304,"imary":3305,"Ġexact":3306,"Ġreason":3307,"Ġhttp":3308,"07":3309,"qquad":3310,"GL":3311,"Ġport":3312,";</":3313,"Sup":3314,"older":3315,"Ġ\"\"\"":3316,"ĠBe":3317,"Instance":3318,".~":3319,"App":3320,"ĠFe":3321,"Ġfit":3322,"ĠReg":3323,"OP":3324,"ze":3325,"astic":3326,"ĠDr":3327,"02":3328,"aging":3329,"Ġclear":3330,"2011":3331,"Ġhom":3332,"Ġben":3333,"Ġconsidered":3334,"ibrary":3335,"Ġcomponent":3336,"Ġmarket":3337,"Ġrow":3338,"2010":3339,"Ġunderstand":3340,"eline":3341,"IM":3342,"ional":3343,"netic":3344,"Ġamong":3345,"Ġcertain":3346,"YPE":3347,"request":3348,"query":3349,"Ġmultiple":3350,"Ġauthor":3351,"thers":3352,"Ġhost":3353,"ulations":3354,"ung":3355,"ATE":3356,"AM":3357,"Conn":3358,"Style":3359,"ĠMin":3360,"Ġins":3361,"count":3362,"Ġthus":3363,"Ġobserved":3364,"^+":3365,"Ġsurface":3366,"ĠJohn":3367,"ĠNov":3368,"Ġfa":3369,"bb":3370,"Ġfail":3371,")</":3372,"Ġsearch":3373,"CK":3374,"uly":3375,"{{\\":3376,"plac":3377,"alt":3378,"Ġbody":3379,"Ġfixed":3380,"Ġcannot":3381,"target":3382,"abor":3383,"UL":3384,"sg":3385,"Line":3386,"ĠÂ":3387,"&=":3388,"igen":3389,"})\\":3390,"Options":3391,"ached":3392,"args":3393,"Ġrelated":3394,"ino":3395,"Ġpress":3396,"Run":3397,"ĠĠĠĠĠĠĠĠĠĠĠĠĠĠ":3398,"Ġaddition":3399,"Ġexpress":3400,"module":3401,"select":3402,"ftware":3403,"Comp":3404,"Ġoffic":3405,"ĠCal":3406,"ĠQu":3407,"Ġsequence":3408,"HT":3409,"Ġwater":3410,"isk":3411,"Ġver":3412,"append":3413,"Ġequival":3414,"Attribute":3415,"Ġdirection":3416,"rum":3417,"Ġachi":3418,"Ġconver":3419,"indent":3420,"Ġload":3421,"adata":3422,"ĠNot":3423,"Base":3424,"Ġquantum":3425,"lib":3426,"Ġoften":3427,"ĠDef":3428,"({\\":3429,"ament":3430,"Ġbecome":3431,"Ġmove":3432,"ards":3433,"Resource":3434,"oding":3435,"Ġblack":3436,"avel":3437,"06":3438,"Ġindependent":3439,"child":3440,"change":3441,"ĠThat":3442,"ĠOne":3443,"Ġchanges":3444,"Sp":3445,"Ġtransform":3446,"Ġnecess":3447,"Ġmode":3448,"ales":3449,"ections":3450,"[\"":3451,"Content":3452,"Ġbeli":3453,"Ġrat":3454,"Ġdays":3455,"namespace":3456,"ilt":3457,"ensions":3458,"ĠUnited":3459,"Par":3460,"78":3461,"Ġreview":3462,"Ġlittle":3463,"Ġlearning":3464,"elete":3465,"Ġborder":3466,"pdf":3467,"Ġearly":3468,"ians":3469,"Act":3470,"Ġwin":3471,"Rep":3472,"igation":3473,"Ġnumer":3474,"ogn":3475,"Ġanaly":3476,"Dec":3477,"Ġpub":3478,"Comm":3479,"reed":3480,"Ġ]":3481,"struction":3482,"po":3483,"lease":3484,"Ġoffer":3485,"eral":3486,"Buffer":3487,"Ġseason":3488,"ones":3489,"ĠRec":3490,"button":3491,"ĠSer":3492,"ference":3493,"Ġdescribed":3494,"unk":3495,"Ġdisplay":3496,"long":3497,"(-":3498,"Ġunit":3499,"era":3500,"FI":3501,"ĠFigure":3502,"split":3503,"Ġmaking":3504,"Ġaccording":3505,"Ġret":3506,"Ġsomething":3507,"equiv":3508,"Ġchildren":3509,"UE":3510,"Ġmembers":3511,"Ġlim":3512,"Ġcontains":3513,"Handler":3514,"Ġproposed":3515,"Oper":3516,"49":3517,"Ġadditional":3518,"Ġconv":3519,"Ġra":3520,"inst":3521,"Ġvarious":3522,"parent":3523,"Ġbit":3524,"Ġjob":3525,"Ġ\\{":3526,"ĠSince":3527,"FA":3528,"Ġ+=":3529,"03":3530,"Be":3531,"ptr":3532,"ication":3533,"mathsf":3534,"appro":3535,"<!--":3536,"ids":3537,"ica":3538,"Ġkind":3539,"level":3540,"eger":3541,"ĠMe":3542,"Ġexperiment":3543,"sin":3544,"textwidth":3545,"Ġdistance":3546,"Function":3547,"tributes":3548,"iol":3549,"SC":3550,"Ġmaterial":3551,"Ġthings":3552,"Ġhuman":3553,"Component":3554,"Ġclaim":3555,"Ġcommunity":3556,"Ġinf":3557,"cup":3558,"ansport":3559,"ĠWorld":3560,"Ġenvironment":3561,"Ġprobability":3562,"write":3563,"Ġstre":3564,"ebug":3565,"Ġask":3566,"aves":3567,"Ġhaving":3568,"ises":3569,"*/":3570,"ĠState":3571,"ugin":3572,"Ġassume":3573,"Ġcontr":3574,"CD":3575,"OL":3576,"09":3577,"Ġtemperature":3578,"open":3579,"Window":3580,"host":3581,"first":3582,"ĠGo":3583,"ĠBo":3584,"ĠCor":3585,"Ġwindow":3586,"fill":3587,"Ġtreat":3588,"Ġoption":3589,"Ġ->":3590,"Ġstop":3591,"ĠJanuary":3592,"Ġapplic":3593,"Ġprof":3594,"comes":3595,"Ġconc":3596,"Ġonce":3597,"adding":3598,"Ġtypes":3599,"Lay":3600,"note":3601,"que":3602,"What":3603,"Ġrad":3604,"json":3605,"ping":3606,"Ġmakes":3607,"Start":3608,"mid":3609,"Ġheight":3610,"izes":3611,"ĠEd":3612,"Ġstory":3613,"ered":3614,"irm":3615,"acity":3616,"command":3617,"True":3618,"Ġsets":3619,"Ġthrows":3620,"68":3621,"ured":3622,"Factory":3623,"Ġaccur":3624,")-":3625,"rl":3626,"}^{(":3627,"ĠAg":3628,"like":3629,"raft":3630,"Ġtool":3631,"Ġgrad":3632,"Ġimprov":3633,"Ġgroups":3634,"undle":3635,"ĠReturn":3636,"Ġpast":3637,"ĠAb":3638,"ĠAug":3639,"}}(":3640,"Ġdevelopment":3641,"Default":3642,"ĠNational":3643,"Row":3644,"Ġinstead":3645,"Ġhttps":3646,"aries":3647,"2009":3648,"Ġaway":3649,"77":3650,"Ġ$(\\":3651,"Ġprotected":3652,"}:":3653,"Ġhowever":3654,"ighb":3655,"Version":3656,"}\\\\":3657,"Ġsocial":3658,"Ġupdate":3659,"Ġtaken":3660,"DO":3661,"Part":3662,"ĠObject":3663,"ceed":3664,"Ġspin":3665,"Ġgives":3666,"Ġlearn":3667,"ĠDes":3668,"src":3669,"Ġmusic":3670,"2008":3671,"Ġstar":3672,"urope":3673,"Ġ{@":3674,"Ġsite":3675,"Refer":3676,"na":3677,"dat":3678,"Ġclient":3679,"Ġapplication":3680,"clear":3681,"php":3682,"ooth":3683,"Ġweight":3684,"empt":3685,"Ġcompar":3686,"Ġgalax":3687,"xml":3688,"ĠCont":3689,"sel":3690,"Ġequal":3691,"Ġeffects":3692,"Ġdouble":3693,"semb":3694,"utes":3695,"Ð¸":3696,"Ġcomplete":3697,"ĠLemma":3698,"bound":3699,"}/":3700,"Ġcut":3701,"Ġandroid":3702,"Ġestab":3703,"Ġunique":3704,"Ġfri":3705,"Ġexperience":3706,"Ġsolutions":3707,"main":3708,"stream":3709,"ided":3710,"Ġnote":3711,"urg":3712,"\"]":3713,"Ġbegin":3714,"Ġgenerated":3715,"Ġiter":3716,"Ġdatas":3717,"rs":3718,"Ġregular":3719,"Ġfeel":3720,"hib":3721,"Ġlot":3722,"vis":3723,"Ġworking":3724,"Ġselect":3725,"There":3726,"idden":3727,"Spec":3728,"Ġgovernment":3729,"ining":3730,"ĠGener":3731,"aly":3732,"Ġhistory":3733,"ĠOct":3734,"abs":3735,"....":3736,"Ġarr":3737,"ĠArt":3738,"istics":3739,"Ġamount":3740,"Ġmedia":3741,"Ġedge":3742,"|^":3743,"header":3744,"lor":3745,"Ġland":3746,"Ġprec":3747,"Ġdetails":3748,"ialog":3749,"that":3750,"can":3751,"edge":3752,"///":3753,"Gr":3754,"star":3755,"Ġadded":3756,"ĠGu":3757,"Ġthird":3758,"Filter":3759,"Ġtrad":3760,"47":3761,"stract":3762,"Ġlarger":3763,"Ġstream":3764,"ĠComp":3765,"Ġdefinition":3766,"ĠYork":3767,"Ġsure":3768,"VER":3769,"ites":3770,"Ġsent":3771,"Ġill":3772,".$":3773,"len":3774,"Ġmillion":3775,"Ġ((":3776,"PC":3777,"oriz":3778,"Nav":3779,"Ġfig":3780,"empty":3781,"plus":3782,"You":3783,"iform":3784,"Point":3785,"apter":3786,"Number":3787,"Ġresource":3788,"One":3789,"riter":3790,"Ġcopy":3791,"Ġthough":3792,"ĠĠĠĠĠĠĠĠĊ":3793,"mar":3794,"ĠNone":3795,"Ġmodule":3796,"ramework":3797,"Equals":3798,"hspace":3799,"post":3800,"hood":3801,"property":3802,"Ġoptim":3803,"bottom":3804,"ĠRef":3805,"Pol":3806,"Prov":3807,"alle":3808,"ĠDo":3809,"&&":3810,"obj":3811,"}+\\":3812,"istry":3813,"Ġmechan":3814,"num":3815,"project":3816,"ledge":3817,"Ġchall":3818,"Ġspecified":3819,"ners":3820,"Ġ...":3821,"Ġwhy":3822,"Ġequations":3823,"mber":3824,"iddle":3825,"});":3826,"Ġ&\\":3827,"Ġstatus":3828,"gl":3829,"Ġmeet":3830,"strong":3831,"ĠPart":3832,"////////////////":3833,"find":3834,"LASS":3835,"icol":3836,"ategy":3837,"][":3838,"ĠThus":3839,"rypt":3840,"ney":3841,"${":3842,"Ġcountry":3843,"eloc":3844,"status":3845,"aches":3846,"Ġinternal":3847,"endif":3848,"88":3849,"Ġservices":3850,"udio":3851,"Pre":3852,"su":3853,"operatorname":3854,"Ġcourse":3855,"Ġimages":3856,"Ġground":3857,"Ġattack":3858,"Ġpolit":3859,"Ġcreated":3860,"jav":3861,"ĠMon":3862,"column":3863,"ration":3864,"process":3865,"icture":3866,"Ġboundary":3867,"Ġprovides":3868,"ued":3869,"ircle":3870,"ussian":3871,"Ġeffective":3872,"Ġexecut":3873,"INT":3874,"ĠAss":3875,"'$":3876,"ully":3877,"Ġ-\\":3878,"Ġrather":3879,"oman":3880,"ĠChrist":3881,"500":3882,"Load":3883,"Em":3884,"Ġcorrect":3885,"}}{\\":3886,"ocket":3887,"artment":3888,"ĠApr":3889,"cing":3890,"anced":3891,"Ġobjects":3892,"attr":3893,"ĠMark":3894,"umerate":3895,"Ġcity":3896,"Ab":3897,"oto":3898,"ln":3899,"Ġcompared":3900,"Next":3901,"67":3902,"42":3903,"Ġextends":3904,"Ġvideo":3905,"Ġhalf":3906,"Ġprint":3907,"citet":3908,"ÑĤ":3909,"ĠAct":3910,"Ġquestion":3911,"ĠPar":3912,"REF":3913,"unch":3914,"]$":3915,"ĠSch":3916,"Check":3917,"Ġfive":3918,"encies":3919,"Ġdate":3920,"Ġprior":3921,"known":3922,"First":3923,"Ġstudents":3924,"xspace":3925,"Ġyet":3926,"push":3927,"Link":3928,"Ġimpact":3929,"Ġprop":3930,"aints":3931,"Fl":3932,"ops":3933,"Ġmatter":3934,"Ġcomponents":3935,"dl":3936,"atory":3937,"rew":3938,"AA":3939,"olve":3940,"Ġsurv":3941,"Ġcoordin":3942,"Ġdifference":3943,"ĠSim":3944,"atal":3945,"elling":3946,"btn":3947,"FT":3948,"typ":3949,"Ġexpression":3950,"ana":3951,"finished":3952,"Ġair":3953,"Ġear":3954,"Ġcollection":3955,"Ġlanguage":3956,"prototype":3957,"Ġincrease":3958,"rest":3959,"unity":3960,"ĠSchool":3961,"py":3962,"ada":3963,"ĠOff":3964,"Ġrestr":3965,"Ġcontinue":3966,"SU":3967,"}-\\":3968,"Ġgas":3969,"Ġhold":3970,"IV":3971,"When":3972,"yles":3973,"Ġsens":3974,"ĠCount":3975,"Ġtw":3976,"Ġproduction":3977,"nce":3978,"Ġfilm":3979,"Child":3980,"Ġtherefore":3981,"\".":3982,"rowser":3983,"Ġrepresentation":3984,"ypes":3985,"Ġtransition":3986,"Ġband":3987,"noindent":3988,"font":3989,"erc":3990,"Task":3991,"dag":3992,"Ġyield":3993,"ĠStates":3994,"ught":3995,"igger":3996,"ills":3997,"buf":3998,"Ġneeds":3999,"EL":4000,"Ġcluster":4001,"ĠClass":4002,"scr":4003,"inally":4004,"more":4005,"normal":4006,"ĉĠĠĠ":4007,"std":4008,"Ġreference":4009,"Met":4010,"Create":4011,"ĠWhat":4012,"neq":4013,"Ġdest":4014,"Ġdenote":4015,"ĠNote":4016,"ĠCity":4017,"Ġrelation":4018,"signed":4019,"oved":4020,"MM":4021,"Ġworks":4022,"quare":4023,"Ġrot":4024,"Ġwhose":4025,"Ġmaximum":4026,"ĠEurope":4027,"ometry":4028,"Acc":4029,"2007":4030,"Ġwritten":4031,"icult":4032,"ilit":4033,"Ġvariables":4034,"ried":4035,"Ġyoung":4036,"Ġalmost":4037,"Ġnatural":4038,"Ġ~":4039,"ĠMc":4040,"Ġothers":4041,"img":4042,"ging":4043,"\\,\\":4044,"Hel":4045,"private":4046,"(&":4047,"ged":4048,"Ġfilter":4049,"Vert":4050,"Ġinfl":4051,"tex":4052,"46":4053,"_.":4054,"tic":4055,"Ġmiss":4056,"Ġcatch":4057,"RA":4058,"Ġsetting":4059,"Ġinterface":4060,"ND":4061,"Ext":4062,"stack":4063,"Ġneeded":4064,"refix":4065,"{}":4066,"Ġlat":4067,"values":4068,"amil":4069,"Ġdoesn":4070,"Label":4071,"SI":4072,"ds":4073,"number":4074,"ĠMarch":4075,"Ġformat":4076,"Ġir":4077,"Ġcult":4078,"mt":4079,"PRO":4080,"yl":4081,"description":4082,"BU":4083,"atively":4084,"Ġsubject":4085,"ĠTable":4086,"ĠIntern":4087,"Collection":4088,"ĉĉĉĉĉĉĉĉ":4089,")}{":4090,"Ġurl":4091,"Ġdraw":4092,"umb":4093,"ABLE":4094,"enumerate":4095,"ĠRev":4096,"NO":4097,"cr":4098,"Format":4099,"ying":4100,"theorem":4101,"ouch":4102,"Ġdig":4103,"FONT":4104,"Ġvirtual":4105,"$}":4106,"andid":4107,"Ġpattern":4108,"SON":4109,"Ġcenter":4110,"Ġtaking":4111,"CP":4112,"dimensional":4113,"unit":4114,"ectors":4115,"CL":4116,"itude":4117,"Ġlove":4118,"rows":4119,"Ġarch":4120,"Ġentire":4121,"Fe":4122,"ĠWill":4123,"Ġdirectly":4124,"Ġcirc":4125,"Ġveloc":4126,"year":4127,"oph":4128,"oted":4129,"last":4130,"ĠGL":4131,"efined":4132,"unfinished":4133,"DB":4134,"omial":4135,"ĠSouth":4136,"Ġevalu":4137,"Page":4138,"osp":4139,"Ġallows":4140,"Ġactiv":4141,"Ġreported":4142,"otes":4143,"Ġrelative":4144,"clusion":4145,"itemize":4146,"Ġcamp":4147,"Ġweak":4148,"Ġappear":4149,"ournal":4150,"Ġtakes":4151,"VID":4152,"Aut":4153,"ster":4154,"Ġprove":4155,"onstr":4156,"Output":4157,"Ġbasis":4158,"ĠData":4159,"cember":4160,"CON":4161,"format":4162,")}$":4163,"Ġlocation":4164,"Ġonline":4165,"onic":4166,"]\\":4167,"ci":4168,"Ġdomain":4169,"Ġage":4170,"chema":4171,"à¤":4172,"Ġep":4173,"Ġvariable":4174,"variant":4175,"Ġtalk":4176,"filter":4177,"lege":4178,"98":4179,"Ġconnection":4180,"icles":4181,"tri":4182,".)":4183,"Ġcoeff":4184,"anged":4185,"Ġthought":4186,"57":4187,"Ġwords":4188,"ĠInter":4189,"Ġwomen":4190,"soft":4191,"ĠApp":4192,"avor":4193,"Ġecon":4194,"Ġincluded":4195,"Ġimplies":4196,"Ġholds":4197,"sole":4198,"Since":4199,"ĠEX":4200,"ĠFrom":4201,"oms":4202,"mat":4203,"Ġpolicy":4204,"Rem":4205,"ĠPer":4206,"Ġtoday":4207,"Ġaccept":4208,"Ġoperation":4209,"linear":4210,"rule":4211,"Ð½":4212,"Ġcoupl":4213,"PS":4214,"Box":4215,"Ġusers":4216,"Ġapply":4217,"vant":4218,"Per":4219,"example":4220,"Ġgen":4221,"Ġvisit":4222,"heet":4223,"update":4224,"Ġ!==":4225,"Ġsignal":4226,"Ġdegree":4227,"remove":4228,"Ġbehavior":4229,"Ġnews":4230,"mem":4231,"Length":4232,"ĠNews":4233,"fs":4234,"ham":4235,"Return":4236,"ĠDev":4237,"Ġsw":4238,"Ġcompet":4239,"Char":4240,"Ġcallback":4241,"ha":4242,"press":4243,"58":4244,"Ġbar":4245,"IO":4246,"Ġbox":4247,"omorphism":4248,"ĠAfter":4249,"Ġlikely":4250,"Ġcomes":4251,"Ġface":4252,"params":4253,"Ġupd":4254,"ĠID":4255,"ĠĠĠĠĠĠĠĠĠĠĠĠĊ":4256,"Ġrespons":4257,"Ġphysical":4258,"2006":4259,"Ġsix":4260,"gg":4261,"Ġcommand":4262,"ship":4263,"bsite":4264,"Ġserver":4265,"Ġchannel":4266,"ptember":4267,"Ġquery":4268,"Ġax":4269,"dep":4270,"URL":4271,"Ġactually":4272,"Ġinit":4273,"Local":4274,"just":4275,"ĠOF":4276,"Pi":4277,"Ġ[]":4278,"only":4279,"Ġannoun":4280,"Ġcompos":4281,"idge":4282,"Ġfall":4283,"Ġpresented":4284,"vspace":4285,"Ġtree":4286,"Ut":4287,"Ġfoot":4288,"Web":4289,"Ġclosed":4290,"Ġnodes":4291,"Ġneighb":4292,"ube":4293,"}}_":4294,"Ġchoice":4295,"Ġgames":4296,"ulated":4297,"Then":4298,"Cache":4299,"Ġnu":4300,"inding":4301,"ĠTrans":4302,"ERR":4303,"PR":4304,"Address":4305,"ota":4306,"SO":4307,"UI":4308,"Ġss":4309,"Case":4310,"NN":4311,"emic":4312,"96":4313,")+":4314,"Ġproblems":4315,"Ġ;":4316,"ql":4317,"Ġ_{":4318,"ĠMy":4319,">>":4320,"\\\"":4321,"ĠNorth":4322,"Ġalgebra":4323,"ĠOur":4324,"hel":4325,"container":4326,"Command":4327,"ĠPres":4328,"entry":4329,"rief":4330,"Ġdifficult":4331,"multicol":4332,"Listener":4333,"acing":4334,"meta":4335,"response":4336,"'re":4337,"ores":4338,"sembly":4339,"ifact":4340,"Sim":4341,"arks":4342,"show":4343,"Ġfun":4344,"else":4345,"ĠAm":4346,"Ġdeb":4347,"rics":4348,"ĠJune":4349,"Ġcapt":4350,"atives":4351,"}}}":4352,"Ġeduc":4353,"instance":4354,"returns":4355,"cs":4356,"Valid":4357,"expected":4358,"43":4359,"Ġdimension":4360,"ĠTherefore":4361,"multicolumn":4362,"Ġwon":4363,"iation":4364,"ĠApril":4365,"istor":4366,"Ġwhole":4367,"ĠStr":4368,"ttp":4369,"Ġapplied":4370,"Ġautom":4371,"Ġconfiguration":4372,"ĠEl":4373,"Ġmagnetic":4374,"approx":4375,"That":4376,"even":4377,"board":4378,"Controller":4379,"DF":4380,"2000":4381,"Last":4382,"Ġleading":4383,"duc":4384,"Ġdemonstr":4385,"Ġroot":4386,"close":4387,"tag":4388,"norm":4389,"Ġunc":4390,"files":4391,"56":4392,"Ġliter":4393,"ects":4394,"Ġdeath":4395,"Ġplatform":4396,"ÑĢ":4397,"output":4398,"TYPE":4399,"Ġinvestig":4400,"Back":4401,"underline":4402,"Width":4403,"Ġformer":4404,"Ġtook":4405,"CR":4406,"Ġbenef":4407,"Column":4408,"itory":4409,"Ġuint":4410,"Ġargument":4411,"\"),":4412,"Ġhappen":4413,"Offset":4414,"Ġnumbers":4415,"Ġdeal":4416,"Ġsense":4417,"auge":4418,"ĠSee":4419,"oder":4420,"\").":4421,"Ġdeep":4422,"Ġreturns":4423,"achine":4424,"Ġ\\|":4425,"Ġpercent":4426,"Ġactive":4427,"Ġauto":4428,"Mode":4429,"Ġdevice":4430,"Ġevolution":4431,"Ġoffset":4432,"Ġshall":4433,"bedd":4434,"Ġcompan":4435,"Ġdidn":4436,"Ġpers":4437,"Dev":4438,"pher":4439,"oring":4440,"Ġlive":4441,"Select":4442,"Ġsound":4443,"bin":4444,"ĠVal":4445,"rown":4446,"ĠSub":4447,"Ġestimate":4448,"ĠDep":4449,"term":4450,"Ġselected":4451,"ĠType":4452,"Ġcame":4453,"ounter":4454,"clude":4455,"ĠFirst":4456,"oon":4457,"Ġmar":4458,"Ġstarted":4459,"Ġconsum":4460,"Ġuses":4461,"pass":4462,"ba":4463,"Dat":4464,"Note":4465,"$(":4466,"det":4467,"Ġregard":4468,"Ġitself":4469,"Ġscen":4470,"imation":4471,"iet":4472,"aul":4473,"Ġtim":4474,"Ġspectrum":4475,"\\}$":4476,"197":4477,"Ġframe":4478,"TP":4479,"59":4480,"allel":4481,"ĠJuly":4482,"^-":4483,"ĠCounty":4484,"Ġfiles":4485,"Ġfra":4486,"cel":4487,"Ġstars":4488,"otal":4489,"Ġdecre":4490,"41":4491,"Server":4492,"ĠHere":4493,"Ġupper":4494,"Ġdescription":4495,"Ġpopulation":4496,"atur":4497,"Ġeigen":4498,"++)":4499,"Ġ\\;":4500,"float":4501,"Ġrelease":4502,"service":4503,"ĠRem":4504,"iments":4505,"istration":4506,"SD":4507,"grad":4508,"istance":4509,"={":4510,"ĠDecember":4511,"Ġess":4512,"Ġincreasing":4513,"Ġincludes":4514,"scope":4515,"proto":4516,"Ġsuccessful":4517,"ĠSm":4518,"Ġsolid":4519,"Ġcritical":4520,"Ġgre":4521,"Ġpatients":4522,"Ġneut":4523,"Ġparticip":4524,"Ġrunning":4525,"navbar":4526,"Ġratio":4527,"([":4528,"mathscr":4529,"Ġstudies":4530,"Net":4531,"Ġrelationship":4532,"Ġrank":4533,"offset":4534,"ensive":4535,"ustral":4536,"ĠLicense":4537,"Ġmult":4538,"ympt":4539,"Ġprinc":4540,"Ġsources":4541,"zz":4542,"amily":4543,"aker":4544,"roy":4545,"Now":4546,"Top":4547,"Ġcomplet":4548,"aven":4549,"}'":4550,"Ġlen":4551,"Ġnecessary":4552,"Max":4553,"Ġsupported":4554,"Ġforward":4555,"PO":4556,"coming":4557,"Ġcommit":4558,"cd":4559,"pecially":4560,"fect":4561,"Ġbuffer":4562,"Update":4563,"Ġsimply":4564,"annot":4565,"So":4566,"task":4567,"Ġreceived":4568,"ascript":4569,"Ġbecomes":4570,"Dr":4571,"Ġplayers":4572,"very":4573,"essages":4574,"ously":4575,"Ġmember":4576,"ĠAcc":4577,"ĠOctober":4578,"ĠAugust":4579,"Ġquality":4580,"ici":4581,"Us":4582,"Ġconstruction":4583,"ĠUp":4584,"Ġbuilding":4585,"(_":4586,"Ġrisk":4587,"Ġthing":4588,"ategor":4589,"ĠNovember":4590,"stant":4591,"arily":4592,"urch":4593,"Ġcontact":4594,"Ġissue":4595,"require":4596,"ĠCLASS":4597,"trm":4598,"97":4599,"Ġmargin":4600,"Ent":4601,"ĠSeptember":4602,"Ġseg":4603,"Tem":4604,"ĠWar":4605,"Ġexplicit":4606,"********************************":4607,"evel":4608,"should":4609,"Ge":4610,"Ġsmaller":4611,"{$":4612,"Ġproced":4613,"uint":4614,"inner":4615,"iler":4616,"Ġeasy":4617,"tries":4618,"ĠHREF":4619,"tool":4620,"textrm":4621,"Ġforce":4622,"aid":4623,"Ġelectron":4624,"Tag":4625,"iles":4626,"Ġwalk":4627,"ĠHealth":4628,"obile":4629,"omy":4630,"usion":4631,"uit":4632,"Ġequivalent":4633,"CA":4634,"template":4635,"bruary":4636,"2005":4637,"Ġmemory":4638,"Ġhouse":4639,"\\'":4640,"Provider":4641,"ague":4642,"inated":4643,"Ġconduct":4644,"Ġfront":4645,"Ġmetric":4646,"Co":4647,"Ġissues":4648,"<?":4649,"stry":4650,"mission":4651,"ĠHigh":4652,"Ġproducts":4653,"After":4654,"Ġnight":4655,"Theta":4656,"Ġvelocity":4657,"menu":4658,"Ġcentral":4659,"Ġfrequency":4660,"lick":4661,"Ġmer":4662,"reference":4663,"ees":4664,"ille":4665,"Ġlayer":4666,"Ġbroad":4667,"BC":4668,"Ġentry":4669,"IF":4670,"ama":4671,"}^{-":4672,"Ġtechnology":4673,"ming":4674,"ĠWest":4675,"free":4676,"Ġfood":4677,"aur":4678,"Ġavoid":4679,"Ġconnected":4680,"Url":4681,"ias":4682,"ĠHT":4683,"{{":4684,"ocr":4685,"then":4686,"Ġremove":4687,"COL":4688,":\"":4689,"Ġlevels":4690,"Ġinside":4691,"But":4692,"Ġrob":4693,"Ġnone":4694,"Ġviol":4695,"########":4696,"NAME":4697,"Ġdetermined":4698,"Ġarticle":4699,"Ġshare":4700,"ĉĠ":4701,"ĠBar":4702,"anes":4703,"Ġsoftware":4704,"UM":4705,"Ġvolume":4706,"Ð¾Ð":4707,"ernel":4708,"Ġword":4709,"TI":4710,"Ġattempt":4711,"Min":4712,"eved":4713,"ĠNow":4714,"orts":4715,"den":4716,"Ġselection":4717,"Ġansw":4718,"Ġmonths":4719,"ansion":4720,"./":4721,"Ġopport":4722,"Ġparts":4723,"Ġspeed":4724,"Ġsecurity":4725,"olving":4726,"Ġarguments":4727,"Ġmention":4728,"break":4729,"ario":4730,"').":4731,"bum":4732,"nov":4733,"ĠNe":4734,"Ġtell":4735,"Ġrecogn":4736,"Button":4737,"uses":4738,"Ġgrowth":4739,"Ġlooking":4740,"Ġhandle":4741,"depend":4742,"<\\":4743,"avy":4744,"Ġobj":4745,"Ġoperators":4746,"layout":4747,"ATION":4748,"ares":4749,"itect":4750,"allet":4751,"parse":4752,"ĠEm":4753,"root":4754,"serve":4755,"Ġinflu":4756,")/":4757,"osen":4758,"ynomial":4759,"ĠDav":4760,"HO":4761,"otic":4762,"Ġwor":4763,"gn":4764,"ĠWork":4765,"Ġquick":4766,"witter":4767,"Ġindustry":4768,"}}_{":4769,"ĠGroup":4770,"Entry":4771,"Types":4772,"ĠArray":4773,"Ġdescribe":4774,"54":4775,"Ġ$|":4776,"```":4777,"Bo":4778,"ae":4779,"]);":4780,"criptor":4781,"Target":4782,"Ġlinks":4783,"match":4784,"52":4785,"Container":4786,"ĠRead":4787,"KE":4788,"edia":4789,"Ġespecially":4790,"Ġregister":4791,"Vis":4792,"Ġreplac":4793,"Work":4794,"Mem":4795,"Ġimmedi":4796,")|":4797,"Ġpick":4798,"Configuration":4799,"ancial":4800,"ili":4801,"ĠChar":4802,"~$":4803,"prod":4804,"mes":4805,"Ġnoise":4806,"RL":4807,"Ġengine":4808,"Ġperformed":4809,"Ġnegative":4810,"tree":4811,"Ġempty":4812,"AV":4813,"Ġsong":4814,"Frame":4815,"Ġwhite":4816,"dim":4817,"final":4818,"Ñģ":4819,"ĠĠĠĠĠĠĠĠĠĠĠĠĠĠĠĠĠĠĠĠĠĠĠĠĠĠĠĠĠĠĠĠĠĠĠ":4820,"Ġexcept":4821,"Ġlonger":4822,"Ġtax":4823,"bul":4824,"Ġwatch":4825,"Ġrule":4826,"Ġclasses":4827,"Ġargs":4828,"etch":4829,"Ġidea":4830,"EM":4831,"eli":4832,"ades":4833,"Ġfont":4834,"ctor":4835,"Ġarm":4836,"footnote":4837,"Ġerrors":4838,"ĠRed":4839,"attern":4840,"Ġwar":4841,"comple":4842,"*{":4843,"}},":4844,"Ġstatement":4845,"Ġensure":4846,"Ġagre":4847,"More":4848,"ĠAfr":4849,"Ġallowed":4850,"ãģ":4851,"Ġ**":4852,"kit":4853,"loor":4854,"och":4855,"^{-\\":4856,"phere":4857,"Ġoutside":4858,"Ġmen":4859,"Ġtransfer":4860,"Ġvers":4861,"dro":4862,"rapper":4863,"ifying":4864,"dagger":4865,"minus":4866,"_+":4867,"issions":4868,"){\\":4869,"Ġround":4870,"Ġmix":4871,"overy":4872,"Ġframework":4873,"ĠDec":4874,"ĠST":4875,"Pack":4876,"Ġderiv":4877,"resents":4878,"uel":4879,"Ġsmooth":4880,"maz":4881,"Ġwave":4882,"Ġcurrently":4883,"selves":4884,"vector":4885,"javascript":4886,"Ġinteresting":4887,"Ġ$\\{":4888,"PP":4889,"ĠĠĠĊ":4890,"amilton":4891,"ĠStud":4892,"ĠSk":4893,"Access":4894,"Ġcandid":4895,"iers":4896,"()->":4897,"Ġwait":4898,"Ġquite":4899,"images":4900,"tains":4901,"Ġtheorem":4902,"eft":4903,"ĠAPI":4904,"thern":4905,"hent":4906,"Ġey":4907,"Interface":4908,"QL":4909,"window":4910,"author":4911,"51":4912,"ĠOut":4913,"Ġexisting":4914,"Ġinc":4915,"Ġuncertain":4916,"sign":4917,"Ġknowledge":4918,"ĠPark":4919,"Ġstreng":4920,"Our":4921,"ĠAssert":4922,"ĠGa":4923,"Ġinsp":4924,"nes":4925,"Ġmoney":4926,"69":4927,"multi":4928,"Ġ<!--":4929,"crete":4930,"tical":4931,"Ġdoc":4932,"bitr":4933,"Ġinteraction":4934,"Ġbuilt":4935,"Header":4936,"Ġbring":4937,"ĠBro":4938,"bon":4939,"common":4940,"'),":4941,"Ġfix":4942,"Ġreach":4943,"buffer":4944,"=(":4945,"hing":4946,"Layout":4947,"ĠCoun":4948,"control":4949,"rupt":4950,"hest":4951,"87":4952,"Ġhyper":4953,"ĠAustral":4954,"lier":4955,"Ġshape":4956,"ein":4957,"lev":4958,"ios":4959,"anges":4960,"ĠResearch":4961,"ography":4962,"Ġdark":4963,"Ġchoose":4964,"frame":4965,"Ġaltern":4966,"Ġflux":4967,"ĠFile":4968,"Range":4969,"Ġminimum":4970,"Ġtreatment":4971,"Utils":4972,"bool":4973,"ART":4974,"Ġregions":4975,"Ġalign":4976,"Rel":4977,"Ġrequires":4978,"Ġdeveloped":4979,"Process":4980,"conf":4981,"ĠReturns":4982,"Ġdoing":4983,"De":4984,"pg":4985,"Ġsufficient":4986,"Ġtold":4987,"limits":4988,"olume":4989,"Ġ(-":4990,"Ġintern":4991,"Callback":4992,"53":4993,"Ġpersonal":4994,"Here":4995,"ellow":4996,"Ġgauge":4997,"Br":4998,"arp":4999,"Me":5000,"Parameter":5001,"Direct":5002,"Ġinfin":5003,"Ġsamples":5004,"CS":5005,"nap":5006,"Ġactual":5007,"gs":5008,"Ġloop":5009,"shift":5010,"Ġhours":5011,"prove":5012,"ZE":5013,"ĠCenter":5014,"anning":5015,"Ġslow":5016,"Ġign":5017,"ca":5018,"Ġrestrict":5019,"2004":5020,"ĠFebruary":5021,"system":5022,"wedge":5023,"Ġdim":5024,"equal":5025,"Ġnames":5026,"pri":5027,"Ġproper":5028,"sy":5029,"graph":5030,"adow":5031,"Ġbre":5032,"ĠBrit":5033,"acters":5034,"Unit":5035,"ULT":5036,"Ġaw":5037,"ington":5038,"ĠHis":5039,"Ġnov":5040,"utils":5041,"Ġplot":5042,"Ġreturned":5043,"Ġcharg":5044,"Ġmechanism":5045,"Ġ{}":5046,"olute":5047,"Ġcore":5048,"Ġareas":5049,"Ġotherwise":5050,"Bl":5051,"Ġtag":5052,"Ġintroduced":5053,"Ġformula":5054,"Ġcred":5055,"aign":5056,"gence":5057,"$_":5058,"\\}":5059,"Ġdetermine":5060,"Ġgoal":5061,"icrosoft":5062,"oplus":5063,"Tree":5064,"ĠPe":5065,"Ġcompanies":5066,"STR":5067,"Ġstage":5068,"ACK":5069,"Height":5070,"Ġreve":5071,"hom":5072,"iences":5073,"Ġbad":5074,"black":5075,"Ġwebsite":5076,"Ġdataset":5077,"isation":5078,"subseteq":5079,"oe":5080,"lood":5081,"aced":5082,"Ġuseful":5083,"NE":5084,"_{{\\":5085,"Ġago":5086,"Ġobservations":5087,"asc":5088,"MC":5089,"Ġwent":5090,"reshold":5091,"Ġmind":5092,"Ġimm":5093,"Ġvertex":5094,"Ġsymbol":5095,"ĠLog":5096,"Ġcharge":5097,"ecause":5098,"Ġdiscussed":5099,"ewidth":5100,"Ġbehind":5101,"itable":5102,"Ġupon":5103,"Ġque":5104,"ĉĉĊ":5105,"ecute":5106,"patch":5107,"MD":5108,":</":5109,"Copy":5110,"Ġrender":5111,"support":5112,"ctx":5113,"Ġextra":5114,"?:":5115,"Ġcurve":5116,"ulate":5117,"sets":5118,"PT":5119,"ĠRE":5120,"Ġhot":5121,"ĠGerm":5122,"Ġrecently":5123,"Ġteach":5124,"Ġ($\\":5125,"Ġpanel":5126,"Ġextension":5127,"izations":5128,"Ġoperations":5129,"texttt":5130,"abilities":5131,"eler":5132,"}%":5133,"Ġtra":5134,"clos":5135,"Ġrights":5136,"---":5137,"Ġke":5138,"85":5139,"SA":5140,"SH":5141,"ĠDE":5142,"ĠSpec":5143,"Ġapplications":5144,"idget":5145,"Ġcouple":5146,"ĠHouse":5147,"Post":5148,"layer":5149,"ĠWhile":5150,"attice":5151,"Ġinterpre":5152,"Ġ>=":5153,"Write":5154,"Ġrules":5155,"ĠAc":5156,"document":5157,"INE":5158,"cache":5159,"iday":5160,"ĠAmerica":5161,"Ġsplit":5162,"Ġuniform":5163,"Ġseems":5164,"Serial":5165,"Ġinstall":5166,"_{(":5167,"Ġcompact":5168,"Ġsymmetry":5169,"related":5170,"ĠCE":5171,"Ġmanagement":5172,"Ġcontinuous":5173,"Ġeasily":5174,"ĠĠĠĠĠĠĠĠĠĠĠĠĠĠĠĠĠĠĠĠĠ":5175,"reet":5176,"Ġvan":5177,"cil":5178,"Ġ$-":5179,"Ġfully":5180,"Ġstarting":5181,"MO":5182,"fn":5183,"300":5184,"amera":5185,"Ġgetting":5186,"Ġnav":5187,"ĠII":5188,"86":5189,"Ġresulting":5190,"cope":5191,"berg":5192,"Ġofficial":5193,"Ġstore":5194,"Ġwriting":5195,"Ġfeed":5196,"Ġhol":5197,"Ġscheme":5198,"Ġdiagram":5199,"Op":5200,"Open":5201,"1000":5202,"Ġhit":5203,"force":5204,"SL":5205,"Ġsus":5206,"ĉĉĉĉĉĉĉ":5207,"ctions":5208,"olar":5209,"ondon":5210,"ynch":5211,"iting":5212,"Ġchalleng":5213,"Ġhence":5214,"ĠCreate":5215,"API":5216,"rad":5217,"second":5218,"ociety":5219,"Ġmanif":5220,"umin":5221,"Ġpert":5222,"Ġextrem":5223,"Ġpeak":5224,"thon":5225,"BO":5226,"fort":5227,"aa":5228,"etails":5229,"Control":5230,"range":5231,"iny":5232,"DD":5233,"Ġscreen":5234,"Dir":5235,"resource":5236,"Thread":5237,"Ġresources":5238,"Ġprimary":5239,"Ġones":5240,"Ġparticle":5241,"_*":5242,"oz":5243,"CODE":5244,"car":5245,"gate":5246,"definition":5247,"Empty":5248,"ams":5249,"Ġpolynomial":5250,"ashed":5251,"ĠCOVID":5252,"Ġfloat":5253,"zero":5254,"Ġball":5255,"PA":5256,"ervices":5257,"Ġconcern":5258,"avity":5259,"Ġcontract":5260,"Ġweb":5261,"Ġpopular":5262,"ĠTHE":5263,"Ġexactly":5264,"Ġcomparison":5265,"oom":5266,"Ġtemplate":5267,"ĠCr":5268,"Ġdecision":5269,"Ġconcept":5270,"Ġauth":5271,"Ġgenerate":5272,"hy":5273,"Ġplayer":5274,"newcommand":5275,"Ã¡":5276,"Right":5277,"elt":5278,"fact":5279,"band":5280,"cf":5281,"isions":5282,"Ġconnect":5283,"BA":5284,"Ġgalaxies":5285,"Ġpresence":5286,"Ġfast":5287,"sd":5288,"Ġexception":5289,"xx":5290,"Ġaim":5291,"Ġbecame":5292,"iber":5293,"Ġtour":5294,"Ġcomment":5295,"Ġparticles":5296,"asic":5297,"Ġlate":5298,"etime":5299,"Ġswitch":5300,"Ġembedd":5301,"Ġpul":5302,"weight":5303,":\\":5304,"orizont":5305,"token":5306,"deg":5307,"ORT":5308,"setminus":5309,"Ġexpand":5310,"Ġfactors":5311,"ĠAir":5312,"stitute":5313,"cons":5314,"Ġprocesses":5315,"ĠBlack":5316,"ĠCheck":5317,"LI":5318,"iverse":5319,"Ġappropri":5320,"Ġpublished":5321,"pite":5322,"Ġitems":5323,"inct":5324,"ĠOf":5325,"Ġmaps":5326,"anks":5327,"construct":5328,"agment":5329,"Settings":5330,"PECT":5331,"Ġadmin":5332,"oded":5333,"Stat":5334,"Ġsaf":5335,"Ġtherm":5336,"Ġcoming":5337,"Ġreleased":5338,"ĠLa":5339,"cur":5340,"ellar":5341,"ĠIndia":5342,"Ġ$[":5343,"VAL":5344,"Ġâ":5345,"fa":5346,"ĠHar":5347,"ALL":5348,"gle":5349,"ĠMich":5350,"ĠDem":5351,"ĠSw":5352,"Ġdynamics":5353,"Position":5354,"Ġessential":5355,"linewidth":5356,"Module":5357,"ropy":5358,"ĠKing":5359,"ĠEnd":5360,"ĠFl":5361,"Ġheart":5362,"Ġremains":5363,"Ġmotion":5364,"ĠPre":5365,"Util":5366,"Ġemission":5367,"Ġhyp":5368,"Ġrates":5369,"None":5370,"Ġdecl":5371,"Ġevidence":5372,"Ġprofile":5373,"Ġillustr":5374,"Ġcollect":5375,"Entity":5376,"=-":5377,"Do":5378,"ivial":5379,"Ġleads":5380,"Ġbounded":5381,"Ġarbitr":5382,"cat":5383,"Ġnational":5384,"orig":5385,"Ġoverride":5386,"ĠAng":5387,"FO":5388,"Ġstrategy":5389,"Search":5390,"aligned":5391,"ĠErr":5392,"ĠInternational":5393,"oundation":5394,"'\\":5395,"Ġrepresents":5396,")\\,":5397,"Ġmomentum":5398,"Ġtowards":5399,"late":5400,"ĠSome":5401,"Ġcompute":5402,"Ġtransport":5403,"Ġsend":5404,"afe":5405,"entity":5406,"Ġapproximation":5407,"Hash":5408,"ĠGoogle":5409,"Ġfigure":5410,"rd":5411,"Ġheld":5412,"alysis":5413,"Ġrecomm":5414,"atial":5415,"),\\":5416,"vention":5417,"atically":5418,"Ġsteps":5419,"Ġcos":5420,"drop":5421,"Ġnothing":5422,"dx":5423,"Te":5424,"Ġord":5425,"illing":5426,"step":5427,"Ġnorm":5428,"ening":5429,"Ġetc":5430,"ishing":5431,"Ġrelevant":5432,"ĠÃ":5433,"See":5434,"yntax":5435,"Ġways":5436,"Ġradius":5437,"iding":5438,"Ġsort":5439,"Ġreduced":5440,"irth":5441,"Ġusually":5442,"ollary":5443,"\"))":5444,"Ġextract":5445,"ĠPresident":5446,"Ġattention":5447,"cp":5448,"Ġbelieve":5449,"ĠNS":5450,"Ġlimited":5451,"ĠDirect":5452,"Ġpressure":5453,"ara":5454,"Json":5455,"Params":5456,"62":5457,"eck":5458,"RI":5459,"rect":5460,"Ġ*)":5461,"Ġtoken":5462,"Ġmeasured":5463,"anger":5464,"Ġderived":5465,"Ġ}\\":5466,"ĠLaw":5467,"Ġ${":5468,"ĠException":5469,"sequence":5470,"ĠHer":5471,"Connection":5472,"Properties":5473,"Ġidentity":5474,"scal":5475,"Ġtensor":5476,"Ġscatter":5477,">,":5478,"mode":5479,"styles":5480,"ixel":5481,"icate":5482,"Ġparams":5483,"ford":5484,"foo":5485,"Level":5486,"Ġchain":5487,"ancy":5488,"Ġattribute":5489,"Ġoptimal":5490,"rees":5491,"Project":5492,"PL":5493,"My":5494,"attle":5495,"aml":5496,"2003":5497,"Ġclean":5498,"Ġcause":5499,"AND":5500,"Ġnet":5501,"Ġimprove":5502,"joy":5503,"Ġcounter":5504,"after":5505,"Ġexperiments":5506,"adr":5507,"Change":5508,"ka":5509,"63":5510,"Ġnetworks":5511,"IGN":5512,"rong":5513,"Ġconsistent":5514,"ĠWeb":5515,"omb":5516,"ĠName":5517,"oul":5518,"Prot":5519,"Ġmicro":5520,"orizontal":5521,"Ġcoupling":5522,"Ġmagn":5523,"_{-":5524,"EQ":5525,"Ġnature":5526,"ĠOpen":5527,"Ġblue":5528,"bind":5529,"unt":5530,"Ġbasic":5531,"icip":5532,"Ġinteger":5533,"Po":5534,"faces":5535,"Current":5536,"Ġexpon":5537,"stat":5538,"sv":5539,"Ġstrict":5540,"Ġdepends":5541,")}(":5542,"bigg":5543,"types":5544,"Ġconstraints":5545,"ĠEnglish":5546,"ĠVAL":5547,"Option":5548,"Ġundefined":5549,"Ġdise":5550,"Ġbottom":5551,"Ġcontribution":5552,"Ġlocated":5553,"Ġclassical":5554,"ution":5555,"ometric":5556,"%%":5557,":(":5558,"Ġcharacters":5559,"oice":5560,"Match":5561,"tim":5562,"Ġproduced":5563,"Ġveh":5564,"Ġche":5565,",\\,":5566,"enced":5567,"ĠInst":5568,"Cal":5569,"Âł":5570,"fit":5571,"Ġperfect":5572,"Ġbal":5573,"Ġprogress":5574,"Ġimplementation":5575,"high":5576,"Ġnumerical":5577,"bert":5578,"matrix":5579,"Ġsettings":5580,"Ġstation":5581,"Script":5582,"Ġcells":5583,"Ġroom":5584,"Ġplane":5585,"Ġpassed":5586,"copy":5587,"Ġpolar":5588,"Expression":5589,"'_":5590,"Ġaccuracy":5591,"DA":5592,"mas":5593,"Ġexamples":5594,"ifies":5595,"artifact":5596,"Ġnamed":5597,"TER":5598,"Ġ|\\":5599,"Location":5600,"ĠMod":5601,"ĠTime":5602,"ĠOR":5603,"ief":5604,"Http":5605,"Ġcontaining":5606,";->":5607,"DC":5608,"Ġquestions":5609,"ĠTV":5610,"ĠCour":5611,"Ġroad":5612,"tml":5613,"del":5614,"However":5615,"ãĥ":5616,"Ġactivity":5617,"Eq":5618,"lap":5619,"Ġcalculated":5620,"ĠSan":5621,"2001":5622,"ĠHamilton":5623,"ael":5624,"Mon":5625,"Ġminim":5626,"ĠService":5627,"89":5628,"Ġfire":5629,"Ġprice":5630,"Ġutil":5631,"classes":5632,"Ġtown":5633,"win":5634,"arant":5635,"Ġsimulations":5636,"Operation":5637,"Kind":5638,"eters":5639,"Ġexpansion":5640,"ĠPat":5641,"Ġremain":5642,"Ġcloud":5643,"~~~~":5644,"Ġaud":5645,"Ġsimpl":5646,"Ġcache":5647,"Can":5648,"Ġchosen":5649,"antic":5650,"Ġscope":5651,"ĠTechn":5652,"ĠJust":5653,"Ġded":5654,"Ġscalar":5655,"Ġ+\\":5656,"ursor":5657,"zer":5658,"vents":5659,"icients":5660,"Ġpain":5661,"equality":5662,"Ġexam":5663,"Ġhon":5664,"req":5665,"Font":5666,"ĠProposition":5667,"Ġrev":5668,"=\"_":5669,"Ġanything":5670,"Ġdistributed":5671,"Ġdesigned":5672,"Ġreduce":5673,"Ġtests":5674,"ĠScience":5675,"Document":5676,"subfigure":5677,"Ġvs":5678,"Ġfinally":5679,"iques":5680,"DI":5681,"Ġorigin":5682,"Ġfailed":5683,"Ġsession":5684,"Ġsituation":5685,"Ġsatisfies":5686,"Ġchanged":5687,"Ġcategory":5688,"Figure":5689,"background":5690,"had":5691,"Down":5692,"Ġamplit":5693,"Ġalbum":5694,"iciency":5695,"Ġsignificantly":5696,"ĠAssoci":5697,"Ġadapt":5698,"gorithms":5699,"uge":5700,"COLOR":5701,"Ġsubs":5702,"Ġleaders":5703,"debug":5704,"Ġprobably":5705,"ket":5706,"Ġspaces":5707,"etic":5708,"ĠPublic":5709,"Ġresolution":5710,"Ġpolitical":5711,"produ":5712,"hash":5713,"ynamic":5714,"ective":5715,"ĠLondon":5716,"Ġmeasurements":5717,"product":5718,"Ġvertices":5719,"Ġled":5720,"asons":5721,"GE":5722,"Ġrepe":5723,"ederal":5724,"vas":5725,"pop":5726,"Ġreli":5727,"ua":5728,"itch":5729,"Async":5730,"ĠHence":5731,"GB":5732,"72":5733,"Ġoverall":5734,"Ġmid":5735,"Port":5736,"neg":5737,"Ġthread":5738,"CTION":5739,"uple":5740,"Ġplayed":5741,"Ġnamespace":5742,"Ġdecay":5743,"Go":5744,"Iter":5745,"Ġfraction":5746,"Host":5747,"Ġprofession":5748,"ĠFurther":5749,"ĠEXPECT":5750,"ĠModel":5751,"global":5752,"Ġgreater":5753,"ros":5754,"Ġprocedure":5755,"join":5756,"Ġeverything":5757,"Ġincreased":5758,"ĠHol":5759,"direct":5760,"Ġ\\(":5761,"Store":5762,"make":5763,"bi":5764,"Ġhope":5765,"ĠJap":5766,"iforn":5767,"Ġfriend":5768,"ĠForm":5769,"Ġsex":5770,"}}(\\":5771,"before":5772,"Ġslight":5773,"Ġqual":5774,"():":5775,"aight":5776,"Integer":5777,"ĠUK":5778,"ĠDepartment":5779,"Handle":5780,"Ġshift":5781,"Ġmut":5782,"Sl":5783,"Ġtravel":5784,"ny":5785,"Sk":5786,"Ġinvolved":5787,"yond":5788,"lete":5789,"Ġdisk":5790,"ini":5791,"vest":5792,"real":5793,"Ġstrength":5794,"Ġdetection":5795,"nost":5796,"msg":5797,"\"));":5798,"Ġapi":5799,"Dom":5800,"ĠDay":5801,".;":5802,"Ġ&=&":5803,"92":5804,"61":5805,"Ġisn":5806,"ĠGod":5807,"Ġbeyond":5808,"ris":5809,"=\"-":5810,"Record":5811,"Ġinfo":5812,"Ġdecom":5813,"Ġforms":5814,"Impl":5815,"arter":5816,"transform":5817,"Ġcorresponds":5818,"Ġlock":5819,"cases":5820,"ĠIS":5821,"elebr":5822,"94":5823,"Ġthroughout":5824,"iffer":5825,"Ġcompare":5826,"Ġxml":5827,"ictionary":5828,"colon":5829,"aine":5830,"lines":5831,"Ġ$.":5832,"Ġcontainer":5833,"cribe":5834,"ĠBook":5835,"sect":5836,"Ġmeaning":5837,"ibly":5838,"LS":5839,"Ġtesting":5840,"Ġpractice":5841,"Ġexperimental":5842,"while":5843,"ĠMag":5844,"Ġdro":5845,"iring":5846,"Ġextended":5847,"Ġprep":5848,"Ġenh":5849,"inf":5850,"Parameters":5851,"ategories":5852,"forall":5853,"cles":5854,"illed":5855,"2002":5856,"ponents":5857,"Ġedges":5858,"ĠCollege":5859,"Ġspectral":5860,"Left":5861,"Reference":5862,"Ġfilename":5863,"Ġearlier":5864,"Ġshared":5865,"annels":5866,"but":5867,"ORD":5868,"render":5869,"Ġability":5870,"Ġperturb":5871,"defined":5872,"Description":5873,"Rev":5874,"Ġinner":5875,"Ġstudied":5876,"Order":5877,"Ġdatabase":5878,"sto":5879,"Ġcard":5880,"Ġlost":5881,"Ġangle":5882,"Ġlif":5883,"results":5884,"pers":5885,"ĠChina":5886,"XX":5887,"93":5888,"ĠPost":5889,"tog":5890,"hi":5891,"ĠOver":5892,"El":5893,"Ġproduce":5894,"estern":5895,"Enc":5896,"arth":5897,"ifornia":5898,"uations":5899,"Ġlatest":5900,"ĠMet":5901,"ĠPo":5902,"Ġgets":5903,"Ġhash":5904,"Ġjoin":5905,"Ġcorrelation":5906,"parameter":5907,"aser":5908,")_{":5909,"84":5910,"Ġasked":5911,"sur":5912,"ĠInc":5913,"Sign":5914,"asure":5915,"Ġlargest":5916,"Ġstructures":5917,"Ġdi":5918,"rices":5919,"Ġstay":5920,"================================":5921,"mitted":5922,"Vari":5923,"Ġcompletely":5924,"ĠRepublic":5925,"Non":5926,"=\"../../../../../":5927,"enge":5928,"gu":5929,"perp":5930,"roduction":5931,"allow":5932,"device":5933,"Ġarchitect":5934,"ĠBuild":5935,"ERROR":5936,"Ġacqu":5937,"Ġadopt":5938,")^{\\":5939,"virt":5940,"Ġbegan":5941,"erve":5942,"Ġalthough":5943,"internal":5944,"Ġda":5945,"Ġassess":5946,"Bundle":5947,"kr":5948,"Ġparty":5949,"radi":5950,"Ġappears":5951,"ĠMoreover":5952,"Ġdual":5953,"Helper":5954,"Ġ{};":5955,"ano":5956,"Long":5957,"}$-":5958,"Ġlattice":5959,"Ptr":5960,"Ġsoon":5961,"ĠProgram":5962,"greg":5963,"Ġstaff":5964,"ico":5965,"Ġbelong":5966,"imeq":5967,"Ġsil":5968,"Le":5969,")^{-":5970,"overed":5971,"\\!\\!":5972,"ãĤ":5973,"ĠĠĠĠĠĠĠĠĠĠĠĠĠĠĠĠĠĠĠĠ":5974,"Tim":5975,"simeq":5976,"Ġpreviously":5977,"Ġdepth":5978,"Comple":5979,"ĠDate":5980,"Ġintegral":5981,"Ġflat":5982,"Ġmor":5983,"Ġdigital":5984,"'}":5985,"Ġhighly":5986,"Ġthemselves":5987,"ĠCON":5988,"Ġannounced":5989,"Ġtheore":5990,"artifactId":5991,"delete":5992,"False":5993,"subsubsection":5994,"han":5995,"Ġhel":5996,"Ġappropriate":5997,"These":5998,"eval":5999,"ĠStreet":6000,"Session":6001,"ĠDO":6002,"border":6003,"ĠPhil":6004,"models":6005,"Ġexhib":6006,"ucture":6007,"apped":6008,"Ġparse":6009,"Names":6010,"Ġsimulation":6011,"400":6012,"Ġcountries":6013,"bes":6014,"aily":6015,"Render":6016,"ĠOther":6017,"ĠBen":6018,"mut":6019,"Ġdam":6020,"address":6021,"Ġtrying":6022,"Invalid":6023,"Ġreceive":6024,"Ġassumption":6025,"Ġbul":6026,"ĠAut":6027,"Ġexternal":6028,"Ġstraight":6029,"Ġincreases":6030,"ĠRun":6031,"inder":6032,"Xml":6033,"Ġaxis":6034,"Ġlack":6035,"Ġenjoy":6036,"inger":6037,"Ġminutes":6038,"card":6039,"ĠSen":6040,"strap":6041,"component":6042,"PRE":6043,"Assert":6044,"Ġemerg":6045,"urren":6046,"ometimes":6047,"tty":6048,"apid":6049,"Ġspecies":6050,"handle":6051,"Ġpadding":6052,"Ġeducation":6053,"Ġraise":6054,"vm":6055,"ĠBG":6056,"255":6057,"Ġcook":6058,"Ġstack":6059,"Ġ$$":6060,"Ġfinancial":6061,"wood":6062,"Ġinvariant":6063,"Ġcalc":6064,"%;":6065,"Ġformation":6066,"ida":6067,"Inst":6068,"hesis":6069,"Menu":6070,"Ġchem":6071,"Ġexc":6072,"UP":6073,"Ġshowed":6074,"Core":6075,"agraph":6076,"ynchron":6077,"Ġgoes":6078,"uler":6079,"alo":6080,"ighest":6081,"_;":6082,"sol":6083,"ogene":6084,"Ġcoefficients":6085,"GET":6086,"ĠTrump":6087,"ĠAlso":6088,"Ġvisual":6089,"onds":6090,"Ġcampaign":6091,"blue":6092,"ivacy":6093,"Ġcontrast":6094,"Ġidentified":6095,"Ġinequality":6096,"Ġgreen":6097,"equals":6098,"well":6099,"OK":6100,"shot":6101,"ao":6102,"env":6103,"Mark":6104,"Ġmis":6105,"dest":6106,"=\"../../../../../../":6107,"wner":6108,"prob":6109,"osing":6110,"ilitary":6111,"TC":6112,"Ġagreement":6113,"interface":6114,"Ġ++":6115,"Ġcop":6116,"Ġwide":6117,"Ġcompl":6118,"82":6119,"Ġcareer":6120,".~(\\":6121,"Ġestablished":6122,"SR":6123,"ĠSeries":6124,"Ġdiscussion":6125,"Ġworth":6126,"ĠUse":6127,"}^*":6128,"Ġbinary":6129,"Ġunits":6130,"Ag":6131,"Ġtrain":6132,"Ġlatter":6133,"auth":6134,"ĠDavid":6135,"ĠWilliam":6136,"Que":6137,"ĠGreen":6138,"Meta":6139,"hr":6140,"Ġgeneration":6141,"NG":6142,"76":6143,"ĠLO":6144,"Reader":6145,"EC":6146,"Ġ::":6147,"bullet":6148,"iral":6149,"groupId":6150,"(*":6151,"focus":6152,"Ġcomputed":6153,"ĠCons":6154,"Ġreveal":6155,"Ġleave":6156,"ĠMap":6157,"{$\\":6158,"Ġestimated":6159,"icker":6160,"ech":6161,"UB":6162,"ospital":6163,"Ġ(\"":6164,"Ġprotocol":6165,"Ġhistor":6166,"Ġinternational":6167,"Ġfavor":6168,"Ġidentify":6169,"Ġpackage":6170,"access":6171,"Ġfollowed":6172,"Ġsurvey":6173,"Ġprevent":6174,"ĠFil":6175,"ĠFin":6176,"fram":6177,"Ġarbitrary":6178,"Ġdeliver":6179,"byte":6180,"Pass":6181,"erry":6182,"rench":6183,"seud":6184,"ufact":6185,"estamp":6186,"Ġvariety":6187,"Ġconcent":6188,"ican":6189,"'m":6190,"ologies":6191,"ĠReview":6192,"uri":6193,"ingu":6194,"Ġefficient":6195,"URE":6196,"MB":6197,"NavBar":6198,"91":6199,"ĠKey":6200,"Ġvacc":6201,"Ġassign":6202,"(:":6203,"ĠGeneral":6204,"Ġdistributions":6205,"Ġmodes":6206,"Ġemail":6207,"Num":6208,"LP":6209,"Ġscore":6210,"ertific":6211,"$$\\":6212,"fields":6213,"Ġintroduce":6214,"bal":6215,"'],":6216,"tribution":6217,"irl":6218,"WE":6219,"ker":6220,"toString":6221,"Ġreading":6222,"Ġelectric":6223,"Ġtransformation":6224,"Ġmaintain":6225,"Ġpropag":6226,"$).":6227,"Each":6228,"ipeline":6229,"Ġradio":6230,"burg":6231,"Ġharm":6232,"hol":6233,"^{+":6234,"tee":6235,"bold":6236,"Ġconserv":6237,"Ġinterval":6238,"Ġpairs":6239,"cknow":6240,"ĠYour":6241,"Ass":6242,"ĠValue":6243,"docs":6244,"Ġmeasures":6245,"ĠĠĠĠĠĠĠĠĠĠĠĠĠĠĠĠĠĠ":6246,"Ġimmediately":6247,"boot":6248,"Ġdead":6249,"Ġsaw":6250,"rep":6251,"}}^":6252,"ampling":6253,"BR":6254,"double":6255,"External":6256,"Ġmole":6257,"Ġactions":6258,"FR":6259,"istent":6260,"Ġ('":6261,"ĠGovern":6262,"ples":6263,"'ve":6264,"alls":6265,"etail":6266,"endix":6267,"usters":6268,"ĠMath":6269,"ipped":6270,"onder":6271,"ĠProject":6272,"Ġ=\\":6273,"Ġdelete":6274,"lands":6275,"Ġgenerally":6276,"Ġliving":6277,"Ġoccur":6278,"ĠEqu":6279,"ĠAnt":6280,"Ġelection":6281,"Ġbeaut":6282,"ya":6283,"ĠDon":6284,"Ġelem":6285,"kind":6286,"Ġsegment":6287,"Argument":6288,")}{\\":6289,"Ġfair":6290,"Definition":6291,"Ġprinci":6292,"Ġresid":6293,"rot":6294,"van":6295,"Ġtasks":6296,"ivil":6297,"ror":6298,"rome":6299,"Ġ['":6300,"endar":6301,"Body":6302,"otion":6303,"Ġalgorithms":6304,"TS":6305,"widget":6306,"ria":6307,"media":6308,"Ġmask":6309,"Red":6310,"Ġcurves":6311,"INS":6312,"Ġfight":6313,"SSERT":6314,"Ġsomeone":6315,"Rect":6316,"Ver":6317,"Ġapproaches":6318,"ether":6319,"Ġinj":6320,"ĠCalifornia":6321,"Ġcombination":6322,"ĠAre":6323,"ĠPaul":6324,"atalog":6325,"Ġvict":6326,"Ġheader":6327,"ws":6328,"irus":6329,"Ġstable":6330,"ounds":6331,"Ġexistence":6332,"Database":6333,"orge":6334,"ifically":6335,"Mar":6336,"points":6337,"emy":6338,"ingle":6339,"Are":6340,"Parent":6341,"Application":6342,"full":6343,"ĠCap":6344,"white":6345,"pmatrix":6346,"ĠIr":6347,"ĠEuropean":6348,"Ġadvant":6349,"ĠCre":6350,"Cor":6351,"'ll":6352,"Vector":6353,"ĠRequ":6354,"ÃŃ":6355,"Ġnovel":6356,"exports":6357,"Tool":6358,"ilib":6359,"Ġmodern":6360,"Metadata":6361,")\\\\":6362,"Ġpartial":6363,")_":6364,"Ġimag":6365,"ulture":6366,"Values":6367,"Ġauthors":6368,"Var":6369,"PH":6370,"ani":6371,"Ġpurpose":6372,"Ã³":6373,"ressed":6374,"ĠTrue":6375,"Ġanti":6376,"BS":6377,"SET":6378,"Ġmeasurement":6379,"Ġoffers":6380,"rate":6381,"hs":6382,"callback":6383,"Ġoffice":6384,"Ġwanted":6385,"Ġsquare":6386,"Ġmiddle":6387,"Ġpolice":6388,"ĠUs":6389,"Ġdenotes":6390,"Schema":6391,"While":6392,"ĠInstitute":6393,"df":6394,"$^{-":6395,"Ġestablish":6396,"inant":6397,"loc":6398,"Ġinteractions":6399,")--":6400,"enum":6401,"ĠMat":6402,"Ġ^":6403,"Policy":6404,"icity":6405,"Ġprefer":6406,"click":6407,"ĠDevelop":6408,"trict":6409,"Ġmentioned":6410,"Section":6411,"ORM":6412,"Ġdetail":6413,"Ġparticularly":6414,"bing":6415,"Ġeveryone":6416,"73":6417,"oting":6418,"bits":6419,"?âĢĿ":6420,"Ġclearly":6421,"ĠPort":6422,"send":6423,"picture":6424,"ĠArm":6425,"ishes":6426,"Ġdependence":6427,"Ġplaying":6428,"Ġscript":6429,"leep":6430,"Thus":6431,"Ġbyte":6432,"textsc":6433,"alg":6434,"Eng":6435,"iece":6436,"Ġ),":6437,"romise":6438,"\\_":6439,"Ġspatial":6440,"hell":6441,"irit":6442,"framework":6443,"ATA":6444,"Device":6445,"Su":6446,"Ġincor":6447,"ĠEast":6448,"yr":6449,"Ġstrateg":6450,"Ġrock":6451,"Ġten":6452,"Ġremaining":6453,"ĠRuss":6454,"})$.":6455,"Use":6456,"acebook":6457,"Ġboard":6458,"ville":6459,"ĠCanada":6460,"eles":6461,"Track":6462,"79":6463,"Ġsingular":6464,"Ġestimates":6465,"session":6466,"za":6467,"ugins":6468,"Ġinvoke":6469,"Ġmachine":6470,"contin":6471,"Ġsymmetric":6472,"iant":6473,"\\|_{":6474,"74":6475,"Ġremoved":6476,"WS":6477,"displaystyle":6478,"Ġpure":6479,"sql":6480,"export":6481,"DS":6482,"cut":6483,"Ġaspect":6484,"Args":6485,"Ġcoordinates":6486,"Ġintr":6487,"Member":6488,"Ġcalls":6489,"disabled":6490,"ental":6491,"amental":6492,"Ġdrug":6493,"reedom":6494,"Ġepis":6495,">();":6496,"Bytes":6497,"mic":6498,"Template":6499,"`.":6500,"Ġconsists":6501,"83":6502,"Ġreflect":6503,"haps":6504,"Ġfem":6505,"Ġyields":6506,"airs":6507,"ĠError":6508,"eries":6509,"!!":6510,"rial":6511,"Ġunderstanding":6512,"Ġpartition":6513,"writ":6514,"spect":6515,"ĠassertEquals":6516,"Ġsurpr":6517,"itz":6518,"ĠMor":6519,"dependent":6520,"Ġexpos":6521,"Ġmock":6522,"Ġwrong":6523,"hover":6524,"Ġbytes":6525,"oration":6526,"ĠMethod":6527,"mc":6528,"DL":6529,"Ġhighest":6530,"ashington":6531,"Am":6532,"Ġanswer":6533,"Ġnor":6534,"Ġ\"\\":6535,"Ġmatrices":6536,"dist":6537,"aved":6538,"References":6539,"omorphic":6540,"Ġste":6541,"Ð»":6542,"Ġspectra":6543,")$-":6544,"Ġorient":6545,"remark":6546,"ĠBay":6547,"initial":6548,"dule":6549,"Ġtro":6550,"Results":6551,"Ġcast":6552,"Ġhimself":6553,"Ġhighlight":6554,"Ġattr":6555,"Ġabsolute":6556,"_-":6557,"ado":6558,"raz":6559,"icks":6560,"Ġdemand":6561,"war":6562,"ĠBGCOLOR":6563,"__(":6564,"Ġfriends":6565,"Ġnearly":6566,"hbar":6567,"Ġut":6568,"Ġbeginning":6569,"legal":6570,"Ġdetailed":6571,"Ġtechniques":6572,"ĠYear":6573,"ĠPy":6574,"1999":6575,"Only":6576,"ĠMem":6577,"icons":6578,"Ġtempor":6579,"Ġanalog":6580,"Ġdevices":6581,"boolean":6582,"webkit":6583,"NR":6584,"inv":6585,"Ġscient":6586,"Ġstorage":6587,"Dep":6588,"Ġunsigned":6589,"Ġsave":6590,"Ġtools":6591,"ITY":6592,"Mock":6593,"Ġproviding":6594,"Ġscience":6595,"olves":6596,"replace":6597,"Ġreserv":6598,"las":6599,"Ġlives":6600,"stylesheet":6601,"Ġmes":6602,"Windows":6603,"short":6604,"Ġwoman":6605,"Ġtransaction":6606,"Ġgrid":6607,"\",\"":6608,"Ġobvious":6609,"Ġsubset":6610,"Ġlegal":6611,"onical":6612,"Ġruns":6613,"Ġprojects":6614,"ĠMal":6615,"|_{":6616,"Ġbehavi":6617,"}\"":6618,"Doc":6619,"Ġpartners":6620,"hbox":6621,"ĠNOT":6622,"ifications":6623,"ĠMr":6624,"Ġcontributions":6625,"Ġmoving":6626,"ĠBritish":6627,"Ġworked":6628,"Ne":6629,"Ġclin":6630,"ĠEach":6631,"mos":6632,"81":6633,"ĠDel":6634,"Has":6635,"Ġjoint":6636,"ĠAR":6637,"custom":6638,"rium":6639,"Ġagent":6640,"exception":6641,"rip":6642,"aming":6643,"Ġodd":6644,"uate":6645,"Ġweeks":6646,"ATH":6647,"Enabled":6648,"ĠNO":6649,"Ġcapacity":6650,"ĠIO":6651,"GS":6652,"Ġthreshold":6653,"Ġexcit":6654,"Ġli":6655,"Ġonto":6656,"ampions":6657,"Ġguarant":6658,"Ġflag":6659,"Stack":6660,"dy":6661,"Ġdisease":6662,"}}^{":6663,"Ġring":6664,"Ġmedical":6665,"ĠIndian":6666,"Ġpen":6667,"Ġlibrary":6668,"TEST":6669,"angular":6670,"Ġdifferential":6671,"Ġsafety":6672,"Api":6673,"Ġasympt":6674,"FL":6675,"Ġcollabor":6676,"Ġdistinct":6677,"Ġhum":6678,"ested":6679,"Rule":6680,"Ġthreat":6681,"Ġinline":6682,"comput":6683,"SION":6684,"jo":6685,"modal":6686,"Ġeq":6687,"Boolean":6688,"Any":6689,"Ġ<=":6690,"illa":6691,"}&":6692,"Title":6693,"ĠOper":6694,"Ġupdated":6695,"ĠArch":6696,"Ġphen":6697,"Ġcelebr":6698,"ĠĠĠĠĠĠĠĠĠĠĠĠĠĠĠĠĠĠĠĠĠĠĠĠĠ":6699,"ĠGaussian":6700,"Ġnotice":6701,"Ġmissing":6702,"proposition":6703,"special":6704,"forward":6705,"wrap":6706,"orter":6707,"Parser":6708,"Ġ})":6709,"Ġcool":6710,"[(":6711,"joint":6712,"ustain":6713,"Ġtransp":6714,"ployment":6715,"virtual":6716,"Ġobserve":6717,"Ġheavy":6718,"Ġenter":6719,"Ġdirectory":6720,"\"\"\"":6721,"Delete":6722,"plugin":6723,"coin":6724,"FC":6725,"useum":6726,"Ġinject":6727,"Root":6728,"Ġconstraint":6729,"Ġson":6730,"ĠHel":6731,"ä¸":6732,"Ġmorph":6733,"HTML":6734,"axis":6735,"Ġdifferences":6736,"Hz":6737,"Ġspread":6738,"mapsto":6739,"Ġquas":6740,"MR":6741,"Ġalt":6742,"ĠNor":6743,"akers":6744,"inn":6745,"Pe":6746,"anned":6747,"posite":6748,"Ġindicates":6749,"Ġcycle":6750,"settings":6751,"inate":6752,"Ġquickly":6753,"Ġformal":6754,"ĠIP":6755,"Ġdrop":6756,"Ġmsg":6757,"enses":6758,"Ġstellar":6759,"Ġanim":6760,"hold":6761,"Ġwind":6762,"kg":6763,"Ġos":6764,"EXT":6765,"ĠJames":6766,"Ġvac":6767,"rote":6768,"gan":6769,"oving":6770,"ĠFoundation":6771,"Ġstudent":6772,"room":6773,"Ġgrant":6774,"store":6775,"comment":6776,"ĠBusiness":6777,"ĠUsing":6778,"riz":6779,"success":6780,"Using":6781,"register":6782,">.":6783,"Ġpurch":6784,"Ġthick":6785,"'(":6786,"poses":6787,"`,":6788,"mock":6789,"olic":6790,"Storage":6791,"odot":6792,"150":6793,"71":6794,"ilation":6795,"sequently":6796,"Execut":6797,"ĠJSON":6798,"ĠPal":6799,"Ġready":6800,"$;":6801,"]]":6802,"Theorem":6803,"Ġrout":6804,"Ġassumed":6805,"Ġfamil":6806,"ena":6807,"forms":6808,"Ġgiving":6809,"Ġmount":6810,"ĠMac":6811,"icated":6812,"Ġcomputation":6813,"Param":6814,"Writer":6815,"ester":6816,"fg":6817,"Ġslightly":6818,"ĠRel":6819,"ults":6820,"\\{\\":6821,"Ġcircle":6822,"&#":6823,"ĠCouncil":6824,"Ġpush":6825,"Ġsqu":6826,"shape":6827,"Ġsetup":6828,"ona":6829,"Ġdou":6830,"Byte":6831,"andemic":6832,"ĠFunction":6833,"rev":6834,"Ġbranch":6835,"urt":6836,"ĠTex":6837,"ĠNetwork":6838,"AGE":6839,"Ġkernel":6840,"ĠAnn":6841,"ĠJack":6842,"condition":6843,"Ġliterature":6844,"Ġreduction":6845,"plements":6846,")},":6847,"ĠHamiltonian":6848,"Cre":6849,"ĠEvent":6850,"amely":6851,"----------------------------------------------------------------":6852,"Ġculture":6853,"Obj":6854,"Click":6855,"istical":6856,"Ġvectors":6857,"super":6858,"Descriptor":6859,"ilibrium":6860,"pa":6861,"Ġachieve":6862,"ĠThom":6863,"Ġsector":6864,"Ġactivities":6865,"Ġprograms":6866,"Ġjud":6867,"Cons":6868,"Ġtraditional":6869,"Ġbuy":6870,"Sum":6871,"ĠMax":6872,"Ġer":6873,"Ġecho":6874,"Ġ'/":6875,"Ġ\"/":6876,"Ġhydro":6877,"Ġsold":6878,"Ġcriter":6879,"Ġ(*":6880,"clusive":6881,"FAULT":6882,"Ġhidden":6883,"connect":6884,"ĠSU":6885,"Ġbirth":6886,"icket":6887,"}({\\":6888,"pub":6889,"Ġjav":6890,"Ġgave":6891,"inem":6892,"Ġgap":6893,"Ġsafe":6894,"ih":6895,"Ġtrend":6896,"uns":6897,"iversal":6898,"Ġrelatively":6899,"Ġbur":6900,"diag":6901,"oute":6902,"Ġcreating":6903,"cloud":6904,"Ġbounds":6905,"Ġprocessing":6906,"notation":6907,"Ġpan":6908,"Ġsatisfy":6909,"ĠURL":6910,"Ġfine":6911,"ĠVer":6912,"Widget":6913,"Fields":6914,"'))":6915,"KEY":6916,"ailed":6917,"ĠĠĠĠĠĠĠĠĠĠĠĠĠĠĠĠĠĠĠĠĠĠĠĠĠĠĠĠĠĠĠĠĠĠĠĠĠĠĠ":6918,"ĠMart":6919,"admin":6920,"ĠAustralia":6921,"called":6922,"&=&":6923,"Ġaward":6924,"Ġvary":6925,"END":6926,"ky":6927,"Ġneighbor":6928,"ĠCopy":6929,"ĠBig":6930,")),":6931,"help":6932,"Ġaffect":6933,"tik":6934,"stop":6935,"ĠBest":6936,"avit":6937,"track":6938,"Ġdimensions":6939,"Ġplease":6940,"Job":6941,"ĠLeg":6942,"domain":6943,"Ġmasses":6944,"Ġtrust":6945,"||":6946,"mag":6947,"$~":6948,"CI":6949,"Ġfamilies":6950,"power":6951,"ĠPM":6952,"ĠSum":6953,"Prop":6954,"Ġrepresented":6955,",$":6956,"Ġlo":6957,"Ġsites":6958,"1998":6959,"Ġvertical":6960,"Ġopportunity":6961,"atible":6962,"Ġangular":6963,"Ġshowing":6964,"Ġtor":6965,"Ġclassification":6966,"ĠTop":6967,"Ġreports":6968,"Ġreson":6969,"Ġmassive":6970,"mass":6971,"Ġfunctional":6972,"attribute":6973,"Ġmodified":6974,"Ġabsor":6975,"AME":6976,"Ġbooks":6977,"Ġcosts":6978,"Queue":6979,"Ġtrade":6980,"Ġadjust":6981,"UES":6982,"Scope":6983,"Ġmeeting":6984,"sche":6985,"###":6986,"icies":6987,"ĠEduc":6988,"Ġcomments":6989,"Ġoptical":6990,"Decl":6991,"ĠSur":6992,"aws":6993,"TED":6994,"'>":6995,"Ġfather":6996,"Ġteams":6997,"Ġmapping":6998,"ipal":6999,"Ġtouch":7000,"enter":7001,"ture":7002,"ĠAL":7003,"Ġdelay":7004,"Custom":7005,"Ġideal":7006,"poss":7007,"ĠAND":7008,"Ġul":7009,"scill":7010,"circle":7011,"ierarch":7012,"insert":7013,"anging":7014,")).":7015,"hadoop":7016,"arc":7017,"padding":7018,"igration":7019,"ĠDan":7020,"GC":7021,"Ġcombined":7022,"Ġparallel":7023,"Ġconvergence":7024,"weet":7025,"ĠWhite":7026,"Ġprediction":7027,"Ġserial":7028,"Ġdefin":7029,"Ġheat":7030,"rf":7031,"Ġgalaxy":7032,"udes":7033,"Ġpoly":7034,"Home":7035,"Ġindicate":7036,"DIR":7037,"Ġexport":7038,"keys":7039,"ĠEngland":7040,"iller":7041,"two":7042,"123":7043,"Ġunknown":7044,"application":7045,"Ġcref":7046,"Classes":7047,"ĠConn":7048,"Ġadding":7049,"ollowing":7050,"desc":7051,"Ġcov":7052,"mann":7053,"Ġfootball":7054,"Ġlooks":7055,"ĠRich":7056,"Const":7057,"Ġinterview":7058,"Sm":7059,"ĠSO":7060,"Ġexchange":7061,"GR":7062,"Ġrapid":7063,"\"`":7064,"SM":7065,"ette":7066,"each":7067,"Ġminimal":7068,"ĠPress":7069,"Ġjson":7070,"itivity":7071,"OO":7072,"Multi":7073,"abil":7074,"email":7075,"Ġeconomic":7076,"Ġtrigger":7077,"exists":7078,"Cle":7079,"DT":7080,"going":7081,"Timeout":7082,"essor":7083,"look":7084,"256":7085,"ĠUser":7086,"Ġmovie":7087,"Ġstories":7088,"category":7089,"mma":7090,"Ġcomputer":7091,"Att":7092,"Ġexpressed":7093,"asy":7094,"loop":7095,"diff":7096,"agr":7097,"Ġscene":7098,"miss":7099,"'.":7100,"ĠCourt":7101,"~$\\":7102,"ellig":7103,"ancing":7104,"Ġrace":7105,")+\\":7106,"Initial":7107,"iders":7108,"DR":7109,"Ġpretty":7110,"Before":7111,"Ġbrief":7112,"Ġdynamic":7113,"Ġinform":7114,"auto":7115,"Ġinsert":7116,"Cond":7117,"profile":7118,"Ġclub":7119,"Icon":7120,"CF":7121,"Ġcarry":7122,"holder":7123,"Ġefficiency":7124,"Ġcapital":7125,"Ġinfluence":7126,"astr":7127,"Ġmother":7128,"Msg":7129,"ĠField":7130,"Ġinstit":7131,"Ġquadr":7132,"ĠWashington":7133,"cmd":7134,"Ġbrand":7135,"Ġmaster":7136,"care":7137,"Ġconsidering":7138,"ipe":7139,"Ġplant":7140,"obert":7141,"Changed":7142,"alloc":7143,"Ġkeys":7144,"Ġeditor":7145,"nel":7146,"ĠĠĠĠĠĠĠĠĠĠĠĠĠĠĠĠĠĠĠĠĠĠĠĠĠĠĠĠĠĠĠĠĠĠĠĠĠĠĠĠĠĠĠĠĠĠĠĠĠĠĠĠĠĠĠĠĠĠĠĠĠĠĠĠ":7147,"Ġattributes":7148,"Ġcommunication":7149,"fully":7150,"alled":7151,"Ġscattering":7152,"Ġoptimization":7153,"tn":7154,"security":7155,"Ġblocks":7156,"Ġmaterials":7157,"Ġclimate":7158,"Ġcourt":7159,"Ġcaused":7160,"aturday":7161,"Ġstrongly":7162,"Ġinduced":7163,"Ġcalculation":7164,"thread":7165,"Ġseparate":7166,"Ġcustomers":7167,"HS":7168,"parameters":7169,"Ġmanufact":7170,"ODO":7171,"plications":7172,"ĠCall":7173,"irmed":7174,"ston":7175,"Ġevaluation":7176,"})$,":7177,"Ġdrive":7178,"road":7179,"ymmetric":7180,"kin":7181,"Ðº":7182,"Ġplans":7183,"IB":7184,"Ġalloc":7185,"mazon":7186,"Ġunderlying":7187,"ĠFinally":7188,"Ġbank":7189,"Active":7190,"Display":7191,"ĠÎ":7192,"Ġrise":7193,"Ġenable":7194,"Ġgeometry":7195,"->_":7196,"rons":7197,"Ġrequirements":7198,"Ġtypically":7199,"Ġfailure":7200,"ander":7201,"sort":7202,"Art":7203,"ĠHTML":7204,"ĠFour":7205,"ĠMedia":7206,"pay":7207,"Ġextr":7208,"recated":7209,"ĠCP":7210,"Ġpod":7211,"Ġalternative":7212,"Network":7213,"ĠTH":7214,"tw":7215,"Ġsoft":7216,"dependency":7217,"ACE":7218,"tikz":7219,"Ġunless":7220,"Ġbutton":7221,"ĠMA":7222,"Ġmoved":7223,"Ġinnov":7224,"inations":7225,"ĠAfrica":7226,"rier":7227,"Ġnotation":7228,"ĠDemocr":7229,"Ġindividuals":7230,"network":7231,"inese":7232,"ĠFacebook":7233,"green":7234,"ĠRob":7235,"ĠBase":7236,"Ġsynt":7237,"items":7238,"ĠUnder":7239,"region":7240,"Ġtun":7241,"acro":7242,"ago":7243,"Ġinterested":7244,"oves":7245,"elegate":7246,"Ġcentury":7247,"Ġfill":7248,"apers":7249,"chain":7250,"iance":7251,"igr":7252,"}}$,":7253,"Ġhypot":7254,"elli":7255,"FILE":7256,"Ġrotation":7257,"osh":7258,"Ġinfr":7259,")-\\":7260,"JSON":7261,"Ġcalculate":7262,"ĠâĢ¦":7263,"abe":7264,"protobuf":7265,"))$":7266,"Ġsal":7267,"Ġmatching":7268,"CHE":7269,"grid":7270,"ĠSte":7271,"StyleID":7272,"Ġinterpret":7273,"ĠLong":7274,"Ident":7275,"=\"/":7276,"ogeneous":7277,"Ġconclude":7278,"Ġpiece":7279,"}}$.":7280,"modules":7281,"Ġmus":7282,"opes":7283,"Ġobservation":7284,"hetic":7285,"Ġeight":7286,"rames":7287,"Ġcompleted":7288,"radius":7289,"ocker":7290,"-->":7291,"Ġtypical":7292,"120":7293,"ĠTwitter":7294,"ĠAN":7295,"language":7296,"Draw":7297,"udget":7298,"Ġsn":7299,"Ġturned":7300,"Ġoscill":7301,"Ġlayers":7302,"Ġcalculations":7303,"Ġserious":7304,"ĠBel":7305,"Ġgradient":7306,"margin":7307,"Ġinstr":7308,"osis":7309,"urrency":7310,"ĠJournal":7311,"Ġamplitude":7312,"Ġregime":7313,"DM":7314,"_->":7315,"andard":7316,"ĠView":7317,"Ġnucle":7318,"TEX":7319,"connection":7320,"sey":7321,"Ġapproximately":7322,"gin":7323,"ius":7324,"unsigned":7325,"words":7326,"Ġtab":7327,"fix":7328,"Ġener":7329,"Ġcontained":7330,"Ġsubgroup":7331,"Ġmessages":7332,";<":7333,"panel":7334,"ipage":7335,"////////////////////////////////":7336,"Debug":7337,"LOG":7338,"Ġproport":7339,"Ġdepending":7340,"Ġseek":7341,"ga":7342,"Ġrecords":7343,"Ġhandler":7344,"Ġacceler":7345,"Symbol":7346,"ĠDi":7347,"Channel":7348,"Ġinstanceof":7349,"stable":7350,"IA":7351,"Ġproved":7352,"INSERT":7353,"Ġdirector":7354,"cular":7355,"amm":7356,"128":7357,"Ġreader":7358,"NotNull":7359,"Ġmanager":7360,"ĠAccording":7361,"Ġoccurs":7362,"ughter":7363,"Security":7364,"Ġforces":7365,"Ġshock":7366,"Ġmixed":7367,"Ġcoordinate":7368,"ader":7369,"ĠMost":7370,"mediate":7371,"ups":7372,"Introduction":7373,"ĠĠĠĠĠĠĠĠĠĠĠĠĠĠĠĠĠĠĠĠĠĠĠĠ":7374,"ĠĠĠĠĠĠĠĠĠĠĠĠĠĠĠĠĠĠĠĠĠĠ":7375,"Ġsaying":7376,"Ġbrought":7377,"Ġfundamental":7378,"inline":7379,"oday":7380,"Ġsections":7381,"ĠSund":7382,"}{|":7383,"DP":7384,"Ġstress":7385,"-$":7386,"Finally":7387,"BP":7388,":}":7389,"Ġworkers":7390,"ĠCle":7391,"Step":7392,"icial":7393,"Init":7394,"Ġextend":7395,")))":7396,"nergy":7397,"Ġcurv":7398,"Dialog":7399,"ett":7400,"Ġprote":7401,"lig":7402,"ĠFrench":7403,"Ret":7404,"Ġsometimes":7405,"unities":7406,"minipage":7407,"Ġreached":7408,"Ġrespond":7409,"agon":7410,"napshot":7411,"Ġmagnitude":7412,"ECT":7413,"Ġclick":7414,"uous":7415,"edit":7416,"Ġthermal":7417,"ĠMichael":7418,"Ġorganization":7419,"Send":7420,"Ġlimits":7421,"Ġpages":7422,"Ġwriter":7423,"Ġpoor":7424,"Ġfluct":7425,"ĠAssociation":7426,"ĠINTO":7427,"ĠDefault":7428,"bu":7429,"Main":7430,"Ġnoted":7431,"ucket":7432,"âĢĿ.":7433,"Ġicon":7434,"They":7435,"hentication":7436,"Ġinher":7437,"Ġchannels":7438,"ĠGold":7439,"assertEqual":7440,"Ġbeam":7441,"Ġintegration":7442,"reek":7443,"ĠLife":7444,"Show":7445,"Ġmilitary":7446,"ĠShow":7447,"ĠVis":7448,"cuss":7449,"channel":7450,"Support":7451,"Ġboost":7452,"}\\,\\":7453,"Ġpm":7454,"ĠAlthough":7455,"Ġscenario":7456,"Ġwrote":7457,"Ġuncertainty":7458,"Ġjo":7459,"Ġ[];":7460,"addr":7461,"IST":7462,"Ġencour":7463,"$),":7464,"ertificate":7465,"when":7466,"Ġpositions":7467,"properties":7468,"ĠTra":7469,"Ġlaunch":7470,"itation":7471,"cccc":7472,"eves":7473,"gest":7474,"Ġmonitor":7475,"such":7476,"ĠFriday":7477,"Ġcandidate":7478,"Ġscaling":7479,"Lock":7480,"WA":7481,"ĠLeague":7482,"Ġinfinite":7483,"Ġconstit":7484,"Ñĥ":7485,"olver":7486,"Ġtraff":7487,"Tab":7488,"Ġclusters":7489,"Ġanyone":7490,"Ġvisible":7491,"here":7492,"Ġ$|\\":7493,"fi":7494,"sat":7495,"ki":7496,"}$)":7497,"Ġchance":7498,"opic":7499,"cb":7500,"Ġusual":7501,"ĠWindow":7502,"Ġgrowing":7503,"Ã¼":7504,"arse":7505,"ĠAv":7506,"esian":7507,"iable":7508,"Ġ..":7509,"Ġsolve":7510,"riend":7511,"Ġbillion":7512,"Ġevaluate":7513,"Ġpicture":7514,"Ġexplain":7515,"ita":7516,"Ġpresident":7517,"ĠCA":7518,"Therefore":7519,"ĠTexas":7520,"numer":7521,"MT":7522,"iful":7523,"Ġentity":7524,")}_{":7525,"Ġgraphs":7526,"Ġparents":7527,"ĠAlex":7528,"ĠSun":7529,")}}":7530,"ivery":7531,"elines":7532,"\")]":7533,"Runtime":7534,"}{(":7535,"Ġbus":7536,"Ġfinding":7537,"bigl":7538,"IE":7539,"Ġwaves":7540,"Av":7541,"Ġalone":7542,"Ġverify":7543,"IX":7544,"jpg":7545,"Ġnative":7546,"ĠServices":7547,"Ġseven":7548,"cknowled":7549,"onday":7550,"ROM":7551,"bas":7552,"Ġplaces":7553,"Ġpull":7554,"undred":7555,"Package":7556,"ĠText":7557,"Ġpool":7558,"ĠVALUES":7559,"Ġtruth":7560,"Ġwasn":7561,"move":7562,"scroll":7563,"toggle":7564,"Ġprotect":7565,":=":7566,"Ġhor":7567,"Ġfans":7568,"cover":7569,"ened":7570,"Ġpandemic":7571,"Ġencoding":7572,">\\":7573,"ĠNode":7574,"Ġproceed":7575,"rb":7576,"ĠLie":7577,"Ġconstructed":7578,"ĠBi":7579,"Ġlib":7580,"since":7581,"ĠCong":7582,"acle":7583,"Ġbright":7584,"typed":7585,"brace":7586,"ĠFurthermore":7587,"Ġnation":7588,"Del":7589,"ĠCode":7590,"Compar":7591,"oyal":7592,"âĢĺ":7593,"Ġpointer":7594,"lat":7595,"actic":7596,"Ġple":7597,"Ġschools":7598,"Ġhole":7599,"Ġdriver":7600,"Ġtheoretical":7601,"ĠSu":7602,"tail":7603,"Ġthank":7604,"Ġphenomen":7605,"Ġreplace":7606,"Account":7607,"ĠCompany":7608,"ĠHall":7609,"Ġ[\\":7610,"none":7611,"Ġstock":7612,"Pattern":7613,"ĠId":7614,"Ġhar":7615,"verb":7616,"queue":7617,"icine":7618,"MENT":7619,"mathop":7620,"Ġdetect":7621,"oped":7622,"ĠTom":7623,"Ġpaths":7624,"Ġhands":7625,"istan":7626,"Ġ{$":7627,"ancel":7628,"bigr":7629,"Ġremember":7630,"rey":7631,"ĠInformation":7632,"cong":7633,"Ġvill":7634,"footer":7635,"ading":7636,"ĠEcon":7637,"Ġoccup":7638,"Ġcomplexity":7639,"RR":7640,"annotation":7641,"ĠEv":7642,"ĠQue":7643,"ĠMicrosoft":7644,"ARY":7645,"Ġsecret":7646,"house":7647,"Ġattract":7648,"1997":7649,".*":7650,"160":7651,"total":7652,"cpp":7653,"izable":7654,"othing":7655,"ĠWed":7656,"Ġblood":7657,"isted":7658,"front":7659,"Ġconstants":7660,"Ġconven":7661,"itors":7662,"Ġfunc":7663,"txt":7664,"Ġrobust":7665,"ĉĠĠĠĠĠĠĠ":7666,"Ġrect":7667,"Americ":7668,"gies":7669,"_,":7670,"lyph":7671,"Ġadvantage":7672,"sych":7673,"=\"../../../":7674,"TA":7675,"ĠChe":7676,"ipp":7677,"clusions":7678,"ĠFalse":7679,"Ġhous":7680,"ĠCup":7681,"Ġdesired":7682,"Pub":7683,"typeof":7684,"Ġsusp":7685,"Ġindeed":7686,"ĠPlay":7687,"Ġroute":7688,"1996":7689,"ilarly":7690,"Ġmill":7691,"plot":7692,"Ġdownload":7693,"Ġiniti":7694,"aren":7695,"limit":7696,"ĠSam":7697,"obs":7698,"Pool":7699,"peed":7700,"Ġsurround":7701,"Ġcamera":7702,"ĠAtt":7703,"Ġwild":7704,"aching":7705,"Ġisol":7706,"ĠSy":7707,"Ġreasons":7708,"Ġspot":7709,"ĠFore":7710,"Perm":7711,"osity":7712,"[:":7713,"Iterator":7714,"igital":7715,"Ġabstract":7716,"[$":7717,"Ġcontinued":7718,"Ġreplaced":7719,"PAR":7720,"rian":7721,",{\\":7722,"anner":7723,"Ġscales":7724,"ĠMus":7725,"Float":7726,"Ġmatches":7727,"vs":7728,"iden":7729,"enty":7730,"events":7731,"Ġachieved":7732,"cret":7733,"ĠWil":7734,"ĠEven":7735,"Ġion":7736,"Ġreject":7737,"iger":7738,"assertEquals":7739,"Feature":7740,"Ġeyes":7741,"Ġmovement":7742,"Extension":7743,"wik":7744,"FS":7745,"ĠProf":7746,"Ġflex":7747,"Ġcommunities":7748,"ĠMusic":7749,"selected":7750,"Ġshot":7751,"Ġdegrees":7752,"Ġfelt":7753,"Ġpark":7754,"Auth":7755,"names":7756,"]}":7757,"Ġcm":7758,"Ġtrace":7759,"ails":7760,"Ġprojection":7761,"Ġcoefficient":7762,"straint":7763,"odec":7764,"boost":7765,"Ġresponsible":7766,"ĠUpdate":7767,"Ljava":7768,"Ġbin":7769,"ĠUSA":7770,"phone":7771,"Ġlabels":7772,"Ġdir":7773,"Ġfreedom":7774,"Ġrecall":7775,"ĠSaturday":7776,"Ġexponential":7777,"Ġquarter":7778,"Ġroll":7779,"Graph":7780,"erved":7781,"ĠTO":7782,"Ġgain":7783,"lers":7784,"Ac":7785,"ashion":7786,"ogen":7787,"ĠEducation":7788,"Ġprofessional":7789,"Ġdetected":7790,"ĠAny":7791,"La":7792,"sume":7793,"ĠSuper":7794,"Ġexplained":7795,"Ġ^{":7796,"venue":7797,"rim":7798,"Ġhtml":7799,"Bit":7800,"ĠRoad":7801,"ĠOffice":7802,"outhern":7803,"Media":7804,"ĠHand":7805,"Ġconsole":7806,"CM":7807,"Ġphysics":7808,"spring":7809,"ifts":7810,"Ġimplemented":7811,"\\;":7812,"Ġmobile":7813,"ĠMo":7814,"\\)":7815,"ĠCH":7816,"impl":7817,"Ġstarts":7818,"Editor":7819,"Ġentries":7820,"apply":7821,"ĠHead":7822,"Some":7823,"ĠjQuery":7824,"Ġtraject":7825,"ĠDistr":7826,"Ġvoice":7827,"SIZE":7828,"ĠUN":7829,"uesday":7830,"Ġjournal":7831,"cref":7832,"ĠTwo":7833,"ĠEarth":7834,"Ġchallenge":7835,"ensed":7836,"Ġchallenges":7837,"ĠStart":7838,"ĠExp":7839,"LINE":7840,"ĠTim":7841,"ĠTask":7842,"unct":7843,"IMP":7844,"estival":7845,"ĠUkr":7846,"ĠStar":7847,"Ġrecommend":7848,"ĠDet":7849,"vc":7850,"Ġnuclear":7851,"ests":7852,"Ġprim":7853,"ĠSl":7854,"${\\":7855,"onym":7856,"ems":7857,"Ġprem":7858,"atio":7859,"Ġexplicitly":7860,"etween":7861,".__":7862,"formance":7863,"Book":7864,"Ġnorth":7865,"Ġdecided":7866,",\\\\":7867,"Ġweights":7868,"urations":7869,"lesssim":7870,"rical":7871,"bootstrap":7872,"amel":7873,"ĠLi":7874,"iggs":7875,"ĠGlobal":7876,"$_{":7877,"bp":7878,"Selector":7879,"ĠDistrict":7880,"Ġtechnique":7881,"urred":7882,"ĠProv":7883,"pool":7884,"blockList":7885,"nn":7886,"ski":7887,"ĠJul":7888,"Ġstated":7889,"Ġ\\(\\":7890,"VERSION":7891,"site":7892,"cape":7893,"Ġdistrict":7894,"Mat":7895,"Ġowner":7896,"ĠVersion":7897,"ĠRiver":7898,"conv":7899,"anese":7900,"Ġefforts":7901,"claim":7902,"Opt":7903,"Ġformed":7904,"ads":7905,"Ġborn":7906,"ango":7907,"awa":7908,"Ġpseud":7909,"Ġsen":7910,"Ġchemical":7911,"webpack":7912,"Full":7913,"Ġship":7914,"wait":7915,"MAX":7916,"GP":7917,"Ġpy":7918,"master":7919,"Ġsolar":7920,"Gu":7921,"ĠPub":7922,"primary":7923,"flags":7924,"istant":7925,"Ġlemma":7926,"relations":7927,"ĠVir":7928,"Ġinstant":7929,"bytes":7930,"ĠBer":7931,"ĠOp":7932,"Ġfirm":7933,"()).":7934,"Ġseed":7935,"Ġdied":7936,"Ġimportance":7937,"ĠImage":7938,"Ġng":7939,"Found":7940,".&":7941,"ĠSE":7942,"important":7943,"aration":7944,"Ġtrained":7945,"Ġgold":7946,"Ġpor":7947,"Ġ[[":7948,"ĠĠĠĠĠĠĊ":7949,"Ġarchitecture":7950,"ĠPhys":7951,"Ġpatterns":7952,"Ġsemi":7953,"Ġsummer":7954,"Ġdiscrete":7955,"Ġeffort":7956,"Ġinvalid":7957,"ĠIsra":7958,")[":7959,"Ġconj":7960,"large":7961,"$:":7962,"integ":7963,"ĠGen":7964,"Ġlumin":7965,"Ġagree":7966,"Directory":7967,"material":7968,"itiz":7969,"Ġsett":7970,"scriptstyle":7971,"Events":7972,"uum":7973,"Author":7974,"ographic":7975,"Ġpowerful":7976,"Ġther":7977,"Ġdb":7978,"chmark":7979,"Ġsatisfying":7980,"Ġconvex":7981,"Ġbundle":7982,"Ġphone":7983,"She":7984,"Ġspent":7985,"Ġstability":7986,"Ġrough":7987,"(!":7988,"Ġinstruction":7989,")\"":7990,"ĠDirector":7991,"STATE":7992,"ĠMarket":7993,"Ġpublish":7994,"km":7995,"Ġwrap":7996,"Ġsignature":7997,"Items":7998,"Ġdatasets":7999,"Attributes":8000,"Ġsupply":8001,"ĠLL":8002,"Ġimproved":8003,"Ġsales":8004,"Ġens":8005,"Ġpropos":8006,"hemat":8007,"IVE":8008,"Internal":8009,"how":8010,"Flags":8011,"Ġplanet":8012,"ĠSal":8013,"Ġenabled":8014,"structor":8015,"Ġneutr":8016,"Ġwhereas":8017,"Ġregarding":8018,"Ġentropy":8019,"Ġthous":8020,"Ġrequests":8021,"Ġlicense":8022,"Ġaccurate":8023,"UID":8024,"Ġminor":8025,"pir":8026,"ĠPlan":8027,"Proxy":8028,"Ġlisted":8029,"Det":8030,"porate":8031,"ĠChinese":8032,"BE":8033,"Ġseconds":8034,"Cap":8035,"bel":8036,"Ġcolumns":8037,"oles":8038,"ĠGets":8039,"Conf":8040,"iterator":8041,"tfrac":8042,"password":8043,"Ġleader":8044,"Pointer":8045,"Ġcarried":8046,"ĠEngine":8047,"ĠOnly":8048,"Ġearn":8049,"grade":8050,"record":8051,"Ġjavax":8052,"Ġmaxim":8053,"olf":8054,"ĠDiv":8055,"Ġraw":8056,"area":8057,"ĠTem":8058,"azz":8059,"Ġdespite":8060,"Ġplaced":8061,"ĠExt":8062,"Ġprinciple":8063,"periment":8064,")));":8065,"ications":8066,"Ġplus":8067,"Ġtraffic":8068,"Ġhuge":8069,"phys":8070,"Ġtoward":8071,"Tests":8072,"ancer":8073,"Ġideas":8074,"ĠSmith":8075,"Ġthr":8076,"ursday":8077,"FIG":8078,"RAN":8079,"ĠEvery":8080,"Ġsigned":8081,"Ġopening":8082,"ĠBank":8083,"Ġbrowser":8084,"aud":8085,"Ġcat":8086,"ĠCommit":8087,"ĠChild":8088,"ĠComput":8089,"brid":8090,"^*$":8091,"sample":8092,"Ġbenefits":8093,"Ġapplying":8094,"Transaction":8095,"install":8096,"ĠSunday":8097,".'":8098,"Ø§":8099,"Ġmajority":8100,"Global":8101,"fail":8102,"(){":8103,"uby":8104,"standing":8105,"Ġemployees":8106,"Ġdenoted":8107,"Ġrare":8108,"ĠHy":8109,"single":8110,"tip":8111,"____":8112,"ĠHistory":8113,"Ġirre":8114,"Ġviews":8115,"controller":8116,"isely":8117,"tributed":8118,"apes":8119,"random":8120,"Ġconvers":8121,"ĠTor":8122,"ady":8123,"jac":8124,"ICE":8125,"pat":8126,"ĠManagement":8127,"'d":8128,"ampionship":8129,"Ġcommerc":8130,"Ġfluid":8131,"Ġguid":8132,"ONE":8133,"Ġautomatically":8134,"++;":8135,"Ġchanging":8136,"1995":8137,"ĠBack":8138,"TABLE":8139,"()));":8140,"$};":8141,"Ġremark":8142,"apy":8143,"Ġvariation":8144,"Ġperspect":8145,"throws":8146,"ato":8147,"Other":8148,"utable":8149,"1990":8150,"Ġrelig":8151,"ĠFranc":8152,"110":8153,"ĠChurch":8154,"andra":8155,"Ġserve":8156,"Ġstatistical":8157,"ĠBecause":8158,"Ġgeneric":8159,"ĠMiss":8160,"Ġaware":8161,"))\\":8162,"çļ":8163,"Ġletter":8164,"Ġio":8165,"para":8166,"kl":8167,"algorithm":8168,"hens":8169,"STAT":8170,"Ġstatistics":8171,"Pod":8172,"save":8173,"LIC":8174,"ĠFlor":8175,"CHECK":8176,"HR":8177,"Sch":8178,"ĠRussia":8179,"vey":8180,"Ġpatient":8181,"ĠPolicy":8182,"ĠDevelopment":8183,"ĠJer":8184,"Ġinstances":8185,"scape":8186,"cluded":8187,"Protocol":8188,"Scale":8189,"Fail":8190,"Transform":8191,"çļĦ":8192,"ĠTechnology":8193,"printf":8194,"Ġwants":8195,"ĠReport":8196,"_(":8197,"Ġsummar":8198,"\\}$.":8199,"mb":8200,"Logger":8201,"Ġwid":8202,"[-":8203,"ĠLocal":8204,"Ġsmart":8205,"}[\\":8206,"ĠIR":8207,"ĠCR":8208,"ibration":8209,"plugins":8210,"Scroll":8211,"ĠCollection":8212,"Register":8213,"vee":8214,"uce":8215,"@\"":8216,"Ġhundred":8217,"Ġtechnical":8218,"aver":8219,"bor":8220,"Ġheard":8221,"Ġsampling":8222,"Ġbalance":8223,"Ġremote":8224,"Ġeth":8225,"ronic":8226,"eal":8227,"Ġestimation":8228,"ingly":8229,"ĠNumber":8230,"NT":8231,"family":8232,"]:":8233,"ĠBoard":8234,"Inv":8235,"Func":8236,"Memory":8237,"]$.":8238,"ura":8239,"Ġfn":8240,"ĠGood":8241,"Ġturns":8242,"Ġisomorphism":8243,"phas":8244,"ĉĉĉĊ":8245,"})}":8246,"Ġopened":8247,"Close":8248,"itative":8249,"Ġwall":8250,"READ":8251,"Ġbenefit":8252,"Ġcancer":8253,"Ġrepresentations":8254,"Ġretri":8255,"ourney":8256,"ITE":8257,"owers":8258,"ĠMary":8259,"dropdown":8260,"Ġ%}":8261,"ĠLandroid":8262,"ben":8263,"ĠDen":8264,"}}_{\\":8265,"ifferent":8266,"Ġsummary":8267,"ĠAward":8268,"Ġinverse":8269,"ĠJew":8270,"ĠRad":8271,"ĠArg":8272,"Auto":8273,"ova":8274,"Ġstrings":8275,"Ġmostly":8276,"}})":8277,"Ġlooked":8278,"stein":8279,"Ġdaily":8280,"################":8281,"Ġferm":8282,"ĠMonday":8283,"ĠSociety":8284,"Ġcontroller":8285,"Ġradiation":8286,"ĠTri":8287,"Ġconvert":8288,"ĠGeorge":8289,"Ġequilibrium":8290,"ivation":8291,"Rece":8292,"Named":8293,"Ð°Ð":8294,"ĠTODO":8295,"ĠPath":8296,"Ġmedium":8297,"ĠLou":8298,"Ġsomew":8299,"PM":8300,"Ġbuilder":8301,"Ġpredicted":8302,"ï¼":8303,"ĠGl":8304,"Ã¤":8305,"Ġsouth":8306,"kw":8307,"reset":8308,"Ġdram":8309,"Ġoil":8310,"IND":8311,"ĠLat":8312,"Elements":8313,"longrightarrow":8314,"SY":8315,"Ġsuggests":8316,"Ġvehicle":8317,"Plugin":8318,"Ġaudio":8319,"Ġtypeof":8320,"Ġcapture":8321,"Ġterr":8322,"relation":8323,"schema":8324,"Ġfilms":8325,"Ġ{{":8326,"Ġwat":8327,"Files":8328,"ĠColor":8329,"Ġexplore":8330,"Ġdecomposition":8331,"account":8332,"Ġbos":8333,"Ġlaun":8334,"Matrix":8335,"ĠLink":8336,"ĠCarol":8337,"erial":8338,"Ġobjective":8339,"Ġ(_":8340,"ceptions":8341,"depth":8342,"ĠFrance":8343,"screen":8344,"nesday":8345,"organ":8346,"ko":8347,"Ġgravit":8348,"PORT":8349,"HER":8350,"Ġ\"\"":8351,"ĠVol":8352,"Ġ×":8353,"Ġbias":8354,"uzz":8355,"handler":8356,"/(":8357,"typedef":8358,"Ġdog":8359,"Ġ{'":8360,"ĠCopyright":8361,"metadata":8362,"250":8363,"tools":8364,"ĠAcad":8365,"Print":8366,"Ġlocations":8367,"Ġimplements":8368,"(__":8369,"paragraph":8370,"Ġsizes":8371,"Ġreq":8372,"phant":8373,"fol":8374,"Ġabund":8375,"Activity":8376,")\">":8377,"Ġsell":8378,"Ġserved":8379,"Ġwife":8380,"Ġduration":8381,"arts":8382,"lower":8383,"ĠMer":8384,"Ġsuitable":8385,"Ġhappens":8386,"tests":8387,"ĠRussian":8388,"plicity":8389,"iling":8390,"Ġfeedback":8391,"contains":8392,"Ġlearned":8393,"Two":8394,"stitut":8395,"ixels":8396,"ĠSecond":8397,"Ġgrand":8398,"amer":8399,"Ġallowing":8400,"Ġdistingu":8401,"ĠRobert":8402,"ository":8403,"ĠStat":8404,"ĠOption":8405,"itar":8406,"hidden":8407,"Keys":8408,"Ġlocally":8409,"Term":8410,"yan":8411,"ĠĠĠĠĠĠĠĠĠĠĠĠĠĠĠĠĠĠĠĠĠĠĠĠĠĠĠĠĠ":8412,"Ġmodul":8413,"SQL":8414,"dfrac":8415,"ĠHill":8416,"........":8417,"Ġcovered":8418,"Loader":8419,"Desc":8420,"ĠGerman":8421,"iveness":8422,"fd":8423,"Ġmission":8424,"Ġwel":8425,"MOD":8426,"children":8427,"Abstract":8428,"ĠIsland":8429,",...":8430,"Ġshoot":8431,"Tra":8432,"Ġdust":8433,"Ġgoals":8434,"JECT":8435,"ĠIOException":8436,"Ġwallet":8437,"Ġsupports":8438,"cluster":8439,"anda":8440,"ties":8441,"plan":8442,"High":8443,"Layer":8444,"ĠTheir":8445,"Ġmetal":8446,"Ĥ¬":8447,"Ġ\\!":8448,"\"/":8449,"600":8450,"Ġknew":8451,"oment":8452,"Ġbill":8453,"})^":8454,"Ġquark":8455,"algebra":8456,"ãĢ":8457,"Ġtend":8458,"Ġsun":8459,"Tags":8460,"ĠStep":8461,"itness":8462,"home":8463,"Ġqueue":8464,"bot":8465,"pton":8466,"Ġhear":8467,"ĠSocial":8468,"Ġrelax":8469,"world":8470,"Ġapparent":8471,"erman":8472,"redu":8473,"orial":8474,"ĠNext":8475,"Ġwonder":8476,"flat":8477,"ĠCommission":8478,"ymmetry":8479,"})=":8480,"ifiers":8481,"Ġneighborhood":8482,"Ġpartner":8483,"Ġcontinues":8484,"VM":8485,"Ġorth":8486,"Ġinvestigate":8487,"ucial":8488,"ims":8489,"trigger":8490,"lik":8491,"Ġnamely":8492,"ULE":8493,"aylor":8494,"iota":8495,"ji":8496,"ĠCentral":8497,"ĠAmazon":8498,"ĠLand":8499,"Car":8500,"Ġbehaviour":8501,"ĠTimes":8502,"astructure":8503,"Ġeventually":8504,"Ġcharacteristic":8505,"oma":8506,"Ġmorning":8507,"Grid":8508,"ultane":8509,"Ġawait":8510,"ĠLine":8511,"tor":8512,"Ġplays":8513,"ĠHome":8514,"Ġindices":8515,"switch":8516,"ĠConfig":8517,"Ġcalling":8518,"Ġhour":8519,"idx":8520,"ja":8521,"components":8522,"$&":8523,"SER":8524,"ipment":8525,"Ġtypename":8526,"Attr":8527,"Ġfederal":8528,"rich":8529,"inher":8530,"zen":8531,"Ġsufficiently":8532,"ĠCamp":8533,"Ġsustain":8534,"Ġpolicies":8535,"Ġconsequence":8536,"Ġolder":8537,"ĠGreat":8538,"Ġaver":8539,"ĠSpr":8540,"Ġrecorded":8541,"Ġexplan":8542,"NULL":8543,"OF":8544,"uls":8545,"\">&":8546,"Ġ\\&":8547,"tics":8548,"pository":8549,"ĠTuesday":8550,"Ġrich":8551,"Ġblog":8552,"identifier":8553,"ĠBoth":8554,"Ġassumptions":8555,"ĠAppendix":8556,"Ġtransl":8557,"ĠApple":8558,"sym":8559,"Ġneural":8560,"WR":8561,"TT":8562,"elease":8563,"ĠĠĠĠĠĠĠĠĠĠĠĠĠĠĠĠĠĠĠĠĠĠĠĠĠĠ":8564,"Constants":8565,"Bound":8566,"chen":8567,"Ġexcell":8568,"ald":8569,"Ġanc":8570,"Ġouter":8571,"Ġopin":8572,"chor":8573,"Generic":8574,"MI":8575,"Ġcoinc":8576,"Ġnom":8577,"Ġcanonical":8578,"azine":8579,"ĠProt":8580,"Ġprovider":8581,"Ġprefix":8582,"]$,":8583,"eless":8584,"Further":8585,"ĠSD":8586,"Common":8587,"tiny":8588,"ĠPower":8589,"ĠMinister":8590,"stro":8591,"Ġdestroy":8592,"Ġcreation":8593,"Ġdie":8594,"Ġdriving":8595,"Ġ\\]":8596,"emptyset":8597,"Ġappeared":8598,"manager":8599,"Ġspac":8600,"sys":8601,"Ġcomputing":8602,"Ġclaims":8603,"Ġmanifold":8604,"iem":8605,"oses":8606,"ĠChristian":8607,"appe":8608,"Ġmetrics":8609,"ĠIndeed":8610,"ĠAction":8611,"Ġorbit":8612,"Ġaffected":8613,"Ġkept":8614,"Ġcovari":8615,"Ġkids":8616,"Ġspeak":8617,"Ġtrees":8618,"Ġepisode":8619,"SF":8620,"Space":8621,"Orig":8622,"ulator":8623,"edy":8624,"ĠGovernment":8625,"notes":8626,"PER":8627,"ĠJapan":8628,"slash":8629,"Ġkilled":8630,"leted":8631,"Ġok":8632,"Edit":8633,"ĠBrown":8634,"@{":8635,"iate":8636,"editor":8637,"Ġsuccessfully":8638,"fold":8639,"Ġexpert":8640,"tan":8641,"Ġupdates":8642,"ĠGame":8643,"ĠWeek":8644,"person":8645,"Fix":8646,"Namespace":8647,"odd":8648,"Ġpaid":8649,";\\;\\":8650,"','":8651,"attributes":8652,"'])":8653,"Ġemit":8654,"Double":8655,"Ã¶":8656,"va":8657,"According":8658,"ĠProperty":8659,"Ġowners":8660,"found":8661,"Ġcoverage":8662,"^{*":8663,"CRE":8664,"isis":8665,"brief":8666,"Ġcommercial":8667,"Ġmeta":8668,"Sw":8669,"upload":8670,"ðŁ":8671,"Ġdiagonal":8672,"Volume":8673,"complete":8674,"uing":8675,"Ġwish":8676,"}}.":8677,"Diag":8678,"eder":8679,"Parse":8680,"Ġorders":8681,"rypto":8682,"ToString":8683,"Enum":8684,"Ġwarm":8685,"Ġbulk":8686,"Ġconnections":8687,"Google":8688,"BB":8689,"Ġrecon":8690,"Gen":8691,"ĠFree":8692,"orizon":8693,"ĠPeople":8694,"lf":8695,"ĠSecurity":8696,"Ġpredictions":8697,"Socket":8698,"ĠMake":8699,"ensus":8700,"Ġfocused":8701,"UTF":8702,"Ġtranslation":8703,"Ġkm":8704,"elihood":8705,"Ġderivative":8706,"Remove":8707,"Ġidx":8708,"}</":8709,"dp":8710,"Cluster":8711,"Ġunion":8712,"mask":8713,"ĠRock":8714,"Ġaggreg":8715,"ĠInitial":8716,"Ġexecution":8717,"ĠIts":8718,"Ġtrial":8719,"Ġperhaps":8720,"Ġdiam":8721,"odies":8722,"Proof":8723,"ĠUnion":8724,"Ġsatisfied":8725,"generated":8726,"Ġplanning":8727,"Ġbusinesses":8728,"Ġpars":8729,"Ġmanner":8730,"Ġfarm":8731,"Med":8732,",\\,\\":8733,"Ġsubstant":8734,"Ġmaximal":8735,"itionally":8736,"Ġtopic":8737,"lectric":8738,"Ġstored":8739,"aby":8740,"Ġ}{":8741,"isting":8742,"anta":8743,"possible":8744,"Ġcontrols":8745,"WN":8746,"Ġoptional":8747,"onald":8748,"inator":8749,"Ġinvestment":8750,"simple":8751,"imitive":8752,"Ġinteract":8753,"âĢĿ,":8754,"Ġcategories":8755,"Ġelim":8756,"Ġstrugg":8757,"ien":8758,"mn":8759,"Ġoperating":8760,"1994":8761,"Ġmenu":8762,"ACT":8763,"eces":8764,"ĠLear":8765,"Ġ({\\":8766,"Ġapplicable":8767,"Ġconflic":8768,"|}{":8769,"Ġconfirm":8770,"ideos":8771,"*)":8772,"formal":8773,"Statement":8774,"Ġexpressions":8775,"USE":8776,"Ġfinished":8777,"001":8778,"Ġtrivial":8779,"icted":8780,"ĠTur":8781,"Single":8782,"Ġdescribes":8783,"Ġenergies":8784,"structure":8785,"article":8786,"ensities":8787,"entials":8788,"Ġ).":8789,"Ġcivil":8790,"Ġparam":8791,"Ġtal":8792,"Nodes":8793,"Ġintersection":8794,"Ġvalidation":8795,"Panel":8796,"ochastic":8797,"Ġvalign":8798,"Ġahead":8799,"ĠPoint":8800,"symbol":8801,"Ġpossibility":8802,"EST":8803,"ogram":8804,"Ġclinical":8805,"ĠPage":8806,"ubble":8807,"medskip":8808,"Ġsociety":8809,"quant":8810,"ĉĠĠĠĠĠ":8811,"Adapter":8812,"prev":8813,"Ġopportunities":8814,"ĠSM":8815,"Ġtreated":8816,"ala":8817,"ĠSuch":8818,"======":8819,"Ġagents":8820,"sumer":8821,"trivial":8822,"kens":8823,"180":8824,"Loc":8825,"ĠSing":8826,"Ġspan":8827,"Ġfourth":8828,"Ġdot":8829,"Ġlisten":8830,"ĠPen":8831,"expr":8832,"ĠTour":8833,"Ġatmos":8834,"tmp":8835,"estion":8836,"fx":8837,"git":8838,"Ġvote":8839,"Ġdx":8840,"aling":8841,"ĠBill":8842,"EV":8843,"general":8844,"ĠSil":8845,"ĠâĢ¢":8846,"Ġcredit":8847,"Profile":8848,"Ġpi":8849,"Wrapper":8850,"ĠGermany":8851,"uty":8852,"Ġmainly":8853,"ĠNet":8854,"Ġadvert":8855,"Ġforeign":8856,"Ġmur":8857,"Ġliqu":8858,"Sche":8859,"aus":8860,"Ġphoto":8861,"BI":8862,"Ġlies":8863,"}}}\\":8864,"collection":8865,"NOT":8866,"Ġglob":8867,"heta":8868,"GN":8869,"Ġrows":8870,"serial":8871,"ĠFund":8872,"pped":8873,"ĠThomas":8874,"Ġversions":8875,"ighter":8876,"Ġsea":8877,"ĠInteger":8878,"Ġreality":8879,"Ġjobs":8880,"ĠBlock":8881,"gb":8882,"anguages":8883,"Ġcandidates":8884,"Ġskills":8885,"ĠEnergy":8886,"Ġguide":8887,"iced":8888,"Ġdeform":8889,"there":8890,"ĠMil":8891,"Ġsequences":8892,"Ġstrategies":8893,"acket":8894,"Ġhappened":8895,"Ġspirit":8896,"NavBarCell":8897,"Ġshell":8898,"Ġsym":8899,"Ġdream":8900,"AU":8901,"ById":8902,"Headers":8903,"semble":8904,"Ġcollected":8905,"OUT":8906,"bras":8907,"have":8908,"IPT":8909,"Ġtheories":8910,"nostic":8911,"getName":8912,"Ġ],":8913,"XML":8914,"Ġrepresenting":8915,"allery":8916,"Ġannual":8917,"Ġthanks":8918,"Ġmetadata":8919,"ĠFlorida":8920,"Ġprime":8921,"adian":8922,"Ġhospital":8923,"Ġinvestigation":8924,"Ġconfidence":8925,"Ġfol":8926,"bc":8927,"Ġgirl":8928,"Ġcharged":8929,"Ġevaluated":8930,"Ġasync":8931,"ĠCare":8932,"ĠAM":8933,"Ġinputs":8934,"ĠMain":8935,"Ġmaybe":8936,"Given":8937,"Pop":8938,"Ġintensity":8939,"Mag":8940,"Java":8941,"Ġindust":8942,"ĠGiven":8943,"bmatrix":8944,"Ġdirected":8945,"Ġshop":8946,"Ġprecisely":8947,"Ġbeautiful":8948,"ved":8949,"Sync":8950,"functions":8951,"scriptsize":8952,"cean":8953,"subs":8954,"Ġsuggested":8955,"ĠTR":8956,"Ġappend":8957,"ĠDir":8958,"Product":8959,"}}^{\\":8960,"dem":8961,"unately":8962,"bad":8963,"irls":8964,"assets":8965,"resentation":8966,"ĠJava":8967,"Ġdesc":8968,"ĠThursday":8969,"ĠResource":8970,")--(":8971,"Ġbed":8972,"ĠScott":8973,"Ġ$,":8974,"pu":8975,"Comment":8976,"arity":8977,"aset":8978,"Engine":8979,"prefix":8980,"ĠReact":8981,"ĠWindows":8982,"Ġreprodu":8983,"Ġraised":8984,"ĠIndex":8985,"Ġconfirmed":8986,"zone":8987,"Ġderive":8988,"Failed":8989,"sequent":8990,"Ġradial":8991,"ĠDuring":8992,"icago":8993,"istence":8994,"Collections":8995,"Ġctx":8996,"Ġacts":8997,"Ġfaster":8998,"cline":8999,"Ġwire":9000,"NC":9001,"-(":9002,"tained":9003,"BUG":9004,"Ġzone":9005,"agrang":9006,"props":9007,"Ġcarbon":9008,"wp":9009,"Prefix":9010,"{%":9011,"ĠMex":9012,"Ġanalyz":9013,"Ġinfer":9014,"Ġadm":9015,"Props":9016,"Ġdocuments":9017,"Ġembedding":9018,"Ġcommut":9019,"Why":9020,"platform":9021,"Ġlic":9022,"plicated":9023,"ĠLead":9024,"PATH":9025,"vart":9026,"ĠLibrary":9027,"Ġjump":9028,"OB":9029,"Ñı":9030,"Ġsports":9031,"ĠPass":9032,"west":9033,"junit":9034,"mo":9035,"utf":9036,"Ġemphas":9037,"JS":9038,"ĠCommunity":9039,"Ġappoint":9040,"Registry":9041,"Region":9042,"âĢ¢":9043,"ĠBre":9044,"Ġmarked":9045,"etal":9046,"svg":9047,"Ġnonlinear":9048,"Ġreferences":9049,"800":9050,"Consider":9051,"ĠProcess":9052,"required":9053,"rase":9054,"Ġspher":9055,"Ġflags":9056,"born":9057,"configuration":9058,"Hence":9059,"vals":9060,"Ġcontrad":9061,"Ġdu":9062,"Ġbudget":9063,"ĠCEO":9064,"ĠBit":9065,"ĠFrancis":9066,"Ġintegrated":9067,"ĠParty":9068,"Ġextremely":9069,"Ġpurposes":9070,"]{\\":9071,"Ġ[],":9072,"Ġtried":9073,"Ġartist":9074,"ycle":9075,"Duration":9076,"arios":9077,"Ġappre":9078,"Ġhelps":9079,"|}":9080,"avour":9081,"Ġdoor":9082,"Ã§":9083,"Ġcold":9084,"CG":9085,"Find":9086,"fixed":9087,"Ġmoments":9088,"Ġcurvature":9089,"Ġfunding":9090,"clip":9091,"TEXT":9092,")}_":9093,"Ġgravity":9094,"parallel":9095,"ĠCommittee":9096,"}_{-":9097,"ilbert":9098,"Ġtransmission":9099,"ndef":9100,"shall":9101,"ito":9102,"ĠGal":9103,"plane":9104,"Ġjet":9105,"Lemma":9106,"History":9107,"Stats":9108,"ativ":9109,"ĠClub":9110,"ĠMass":9111,"Ġcertainly":9112,"protected":9113,"emon":9114,"echo":9115,"Ġgeneralized":9116,"Ġconstructor":9117,"Ġlayout":9118,"Pay":9119,"igan":9120,"oton":9121,"Ġassigned":9122,"gebras":9123,"agram":9124,"uplic":9125,"Ġ,\\":9126,"Ġquantity":9127,"kt":9128,"urable":9129,"Ġlaws":9130,"REG":9131,"engine":9132,"outer":9133,"ĠSoftware":9134,"OM":9135,"vol":9136,"Ġeconomy":9137,"ĠWednesday":9138,"Success":9139,"irror":9140,"Ġcustomer":9141,"ĠSign":9142,"101":9143,"Ġphoton":9144,"Ġpropose":9145,"Seg":9146,"shadow":9147,"logger":9148,"Ġrevealed":9149,"Ġenhance":9150,"life":9151,"Ġshut":9152,"will":9153,"etes":9154,"Ġincome":9155,"Ġtopological":9156,"Ġ\",":9157,"Ġasymptotic":9158,"month":9159,"Ġcollege":9160,"Ġleaves":9161,"ĠFrank":9162,"COMP":9163,"Ġorganizations":9164,"Ġcorner":9165,"Ġmorphism":9166,"Variable":9167,"Ġacad":9168,"done":9169,"Ġusage":9170,"}}=":9171,"Will":9172,"ding":9173,"SV":9174,"Ġpossibly":9175,"Ġvariance":9176,"ĠControl":9177,"yes":9178,"ĠGrand":9179,"elligence":9180,"}~":9181,"Ġexceed":9182,"ifdef":9183,"May":9184,"ropic":9185,"LECT":9186,"filename":9187,"URI":9188,"Ġfemale":9189,"bib":9190,"\\}\\":9191,"ĠAfrican":9192,"}|\\":9193,"Ġattacks":9194,"Math":9195,"square":9196,"negative":9197,"ĠLin":9198,"jquery":9199,"Ġwarn":9200,"TIME":9201,"Ġthinking":9202,"ĠJac":9203,"bd":9204,"Ġlabor":9205,"Expr":9206,"Ġenvironmental":9207,"Ġtit":9208,"Ġtail":9209,"Len":9210,"Ġcaref":9211,"ĠAP":9212,"nil":9213,"figures":9214,"Ġrepeated":9215,"Ġfear":9216,"Ġsignals":9217,"FE":9218,"Ġignore":9219,"Eff":9220,"Ġcomposition":9221,"law":9222,"RES":9223,"uan":9224,"eness":9225,"ĠKore":9226,"arden":9227,"LOCK":9228,"Ġclients":9229,"Phone":9230,"Rest":9231,"stone":9232,"ĠImm":9233,"Sequ":9234,"Ġexit":9235,"Ġencounter":9236,"Ġtemperatures":9237,"------------":9238,"hang":9239,"ĠRet":9240,"vartheta":9241,"Ġtrail":9242,"Ġdynamical":9243,"ora":9244,"Ġdiss":9245,"Ġindicated":9246,"Ġdimensional":9247,"Ġnecessarily":9248,"bre":9249,"ĠGeV":9250,"Ġorb":9251,"secut":9252,"Simple":9253,"Ġreaction":9254,"ĠLast":9255,"Domain":9256,"ĠKe":9257,">::":9258,"external":9259,"Ġequality":9260,"ĠPeter":9261,"ĠAuthor":9262,"Ġtested":9263,"Route":9264,"ictor":9265,"Py":9266,"orders":9267,"Ġexperi":9268,"Ġ---":9269,"Ġfresh":9270,"Ġmys":9271,"Ġmodules":9272,"role":9273,"Ġenv":9274,"CB":9275,"avelength":9276,"ĠPR":9277,"ignment":9278,"Ġdependent":9279,"Ġsch":9280,"Ax":9281,"Ġsizeof":9282,"Ġdiver":9283,"asion":9284,"Ġproxy":9285,"orney":9286,"Ġcomputational":9287,"Ġdemonstrate":9288,"Ġsimultane":9289,"tensor":9290,"Ġhelped":9291,"ella":9292,"125":9293,"Ġbrain":9294,"ĠVirgin":9295,"Ġquantities":9296,"ĠWestern":9297,"fire":9298,"progress":9299,"Second":9300,"ĠAdmin":9301,"ĠCase":9302,"ĠHuman":9303,"ĠWell":9304,"Ġconducted":9305,"Character":9306,"abit":9307,"ĠGP":9308,"1993":9309,"Syntax":9310,"ĠĠĠĠĠĠĠĠĠĠĠĠĠĠĠĠĠĠĠĠĠĠĠĠĠĠĠĠ":9311,"Ġfeet":9312,"Ġbits":9313,"aste":9314,"IZE":9315,"Ġoffered":9316,"Selection":9317,"Ġeye":9318,"ĠDat":9319,"coq":9320,"ĠDesign":9321,"Ġprepar":9322,"pan":9323,"keyword":9324,"Mapping":9325,"riority":9326,"Ġprecision":9327,"ĠSQL":9328,"World":9329,"prec":9330,"Ġult":9331,"=\"${":9332,"About":9333,"operation":9334,"ĠOh":9335,":=\\":9336,"American":9337,"ĠTeam":9338,"sn":9339,"Trace":9340,"uv":9341,"umes":9342,"testing":9343,"picker":9344,"Ġclock":9345,"Uri":9346,"ĠAccess":9347,"1992":9348,"Ġfactory":9349,"Dest":9350,"urance":9351,"changed":9352,"GO":9353,"headers":9354,"Ġcosm":9355,"ĠHash":9356,"ĠMany":9357,";/":9358,"Ġjoined":9359,"TV":9360,"Ġrestaur":9361,"extern":9362,"Sym":9363,"ĠExecut":9364,"Ġstatements":9365,"Ġprofiles":9366,"ĠMel":9367,"ĠRegister":9368,"Ġexcited":9369,"ĠDom":9370,"ĠMuseum":9371,"Ġagreed":9372,"Ġidentical":9373,"Ġcharacteristics":9374,"Ġil":9375,"Ġstuff":9376,"Ġaudience":9377,"agrangian":9378,"ITION":9379,"lie":9380,"parser":9381,"\\}$,":9382,"inity":9383,"hide":9384,"Ġcrow":9385,"Ġopposite":9386,"columnwidth":9387,"ĠJose":9388,"Previous":9389,"safe":9390,"heel":9391,"ĠCustom":9392,"Ġordered":9393,"Ġprotection":9394,"Ġdamage":9395,"GA":9396,"Ġheaders":9397,"ali":9398,"abeled":9399,"Ġleaving":9400,"bro":9401,"Look":9402,"Ġdeveloping":9403,"wa":9404,"Ġlegis":9405,"iii":9406,"ĠDown":9407,"ĠPet":9408,"Ġbatter":9409,"ookie":9410,"tikzpicture":9411,"pres":9412,"Ġresolve":9413,"Ġhappy":9414,"ĠSpecial":9415,"ĠMount":9416,"cheduler":9417,"ĠNon":9418,"Ġgather":9419,"expand":9420,"ALSE":9421,"Admin":9422,"Total":9423,"HC":9424,"Background":9425,"&=\\":9426,"lapse":9427,"pto":9428,"%)":9429,"Ġprivacy":9430,"Public":9431,"Ġexplo":9432,"Ġsides":9433,"volume":9434,"ĠTre":9435,"IGHT":9436,"ĠCongress":9437,"specific":9438,"ĠSupport":9439,"Ġcorrections":9440,"Ġrig":9441,"Ġprices":9442,"errors":9443,"porary":9444,"protocol":9445,"Browser":9446,"ello":9447,"fony":9448,"Ġtransparent":9449,"'));":9450,"manif":9451,"Ġxmlns":9452,"slant":9453,"+(":9454,"Ġ>>":9455,"Ġparticipants":9456,"ĠWhy":9457,"Ġdanger":9458,"Ġcryst":9459,"di":9460,"Ġbands":9461,"Ġends":9462,"Generator":9463,"ĠCa":9464,"Ġcompetition":9465,"}$}":9466,"phase":9467,"ogonal":9468,"Upd":9469,"iminal":9470,"Ġaspects":9471,"Ġcancel":9472,"\\%$":9473,"details":9474,"ivated":9475,"multirow":9476,"states":9477,"Ġpassword":9478,"Ġmanaged":9479,"decl":9480,"ĠCD":9481,"Ġdetector":9482,"Ġconvent":9483,"Ġdefines":9484,"sch":9485,"ĠFind":9486,"ĠWomen":9487,"wt":9488,"Ġcoher":9489,".\\\\":9490,"ifer":9491,"ĠHot":9492,"har":9493,"Ġofficials":9494,"Ġnormalized":9495,"Identifier":9496,"ĠĠĠĠĠĠĠĠĠĠĠĠĠĠĠĠĠĠĠĠĠĠĠĠĠĠĠĠĠĠĠĠĠĠĠĠĠĠĠĠĠĠĠ":9497,"=[":9498,"ĠConsider":9499,"abric":9500,"hu":9501,"Ġdaughter":9502,"Ġcorrection":9503,"Ġcircum":9504,"Ġbatch":9505,"Ġchoices":9506,")->":9507,"Under":9508,"atever":9509,"nodes":9510,"Fin":9511,"Ġreserved":9512,"Ġnarrow":9513,"ĠEnter":9514,")})":9515,"Repository":9516,"transition":9517,"Ġjourney":9518,"report":9519,"Ġpassing":9520,"%,":9521,"romag":9522,"Ġcitiz":9523,"Ġbroken":9524,"Example":9525,"ses":9526,"Ġice":9527,"Ġreferred":9528,"Report":9529,"ĠIll":9530,"Ġgenerator":9531,"Ġnice":9532,"Ġredshift":9533,"Ġdecrease":9534,"ĠLos":9535,"orrow":9536,"%%%%":9537,"develop":9538,"Ġcycl":9539,"ERS":9540,"Li":9541,"ĠLee":9542,"ĠReal":9543,"Scal":9544,"constant":9545,"TF":9546,"Ġeigenvalues":9547,"Ġparties":9548,"ĠAI":9549,"Ġtheme":9550,"TRUE":9551,"John":9552,"Ġincident":9553,"ĠMont":9554,"Ġgenerating":9555,"Ġsensitive":9556,"Ġassuming":9557,"Ġartists":9558,"ĠBob":9559,"Ġeasier":9560,"ĠHiggs":9561,"ĠNY":9562,"Ġpurs":9563,"ADD":9564,"ĠASSERT":9565,"ira":9566,"Ġrecover":9567,"Ġfan":9568,"Ġrational":9569,"ĠWAR":9570,"$/":9571,"Ġmale":9572,"Ġspecify":9573,"fast":9574,"!\\":9575,"Ġspecifically":9576,"ĠDu":9577,"][]{":9578,"Ġperspective":9579,"Ġcriteria":9580,"Details":9581,"duled":9582,"Ġfinish":9583,"night":9584,"Ġsynchron":9585,"Ġeffectively":9586,"uced":9587,"rout":9588,">:":9589,"Ġapproximate":9590,"Ġcouldn":9591,"enable":9592,"Ġdoll":9593,"ĠPRO":9594,"Ġtelev":9595,"ĠNE":9596,"ritical":9597,"ĠPlease":9598,"Import":9599,"Ġlowest":9600,"Ġspeech":9601,"ĠInvest":9602,"Ġfluctuations":9603,"observ":9604,"Ġimprovement":9605,"isson":9606,"Category":9607,"Ġquasi":9608,"Ġsongs":9609,".\",":9610,"extension":9611,"Ġ\"-":9612,"Ġinvolving":9613,"Ġdense":9614,"Ġalleg":9615,"subsec":9616,"ĠAbout":9617,"jar":9618,"hook":9619,"Video":9620,"achment":9621,"aturally":9622,"=.":9623,"LR":9624,"browser":9625,"some":9626,"1980":9627,"Ġdestination":9628,"Ġing":9629,"iser":9630,"ĠMessage":9631,"execut":9632,"^{(\\":9633,"Generated":9634,"closed":9635,"Ġtight":9636,"unique":9637,"Ġadvanced":9638,"ptic":9639,"Ġfavorite":9640,"uy":9641,"Ġip":9642,"Ġsuppose":9643,"Ġlaunched":9644,"Xi":9645,"hard":9646,"mi":9647,"Ġbiggest":9648,"Ġhypothesis":9649,"Ġdisp":9650,"ĠLake":9651,"seq":9652,"feature":9653,"Ġmeant":9654,"ĠLook":9655,"Ġconsult":9656,"ni":9657,"Ġdrink":9658,"Ġ\"<":9659,"iteral":9660,"Ġachiev":9661,"Ġbtn":9662,"DateTime":9663,"Ġwaiting":9664,"stood":9665,"FFFF":9666,"Ġinstitut":9667,"Ġinstalled":9668,"ĠBoolean":9669,"Ġequivalence":9670,"Ġmixing":9671,"Ġdashed":9672,"indexOf":9673,"QU":9674,"arith":9675,"Ġdirections":9676,"tabs":9677,"Ġkin":9678,"Ġstochastic":9679,"=\"\"":9680,"isot":9681,"fly":9682,"tion":9683,"ĠRichard":9684,"counter":9685,"gather":9686,"amps":9687,"Ġvision":9688,"Ġelectronic":9689,"ĠWho":9690,"åı":9691,"ENSE":9692,"Ġmagnet":9693,"PY":9694,"ĠLy":9695,"temp":9696,"Ġsecondary":9697,"ĠYoung":9698,"ĠAndroid":9699,"Ġexerc":9700,"à¥":9701,"ĠPA":9702,"ĠJoe":9703,"Ġadopted":9704,"Ġvacuum":9705,"Ġwood":9706,"=\"\">":9707,"pair":9708,"ierarchy":9709,"Suppose":9710,"equations":9711,"ĠSym":9712,"Ġlogger":9713,"!âĢĿ":9714,"Ġfashion":9715,"Ġextent":9716,"async":9717,"\\|\\":9718,"\\/":9719,"Ġtimeout":9720,"Ġcauses":9721,"Ġfinds":9722,"Ġsky":9723,"dash":9724,"eller":9725,"notag":9726,"inos":9727,"Ġlistener":9728,"Ġuniversal":9729,"Ġdialog":9730,"Ġregistered":9731,"original":9732,"Ġforest":9733,"ĠMur":9734,"ĠRequest":9735,"Ġexcellent":9736,"sheet":9737,"tags":9738,"Ġplas":9739,"Ġbreaking":9740,"Ġcentre":9741,"Ã¢":9742,"Ġcontribute":9743,"Ġessentially":9744,"gers":9745,"regular":9746,"Ġconference":9747,"Ġiteration":9748,"Ġdeleg":9749,"raise":9750,"jango":9751,"Ġfloor":9752,"ati":9753,"Email":9754,"avior":9755,"Ġforced":9756,"rank":9757,"tons":9758,"issues":9759,"ĠRoman":9760,"Ga":9761,"ILE":9762,"plates":9763,"Ġcloser":9764,"Ġcompatible":9765,"^*\\":9766,"triangle":9767,"Another":9768,"dialog":9769,"Ġskip":9770,"Ġpractical":9771,"Ġarticles":9772,"Ġyourself":9773,"Ġcoupled":9774,"ducible":9775,"Ġequipment":9776,"Ġcontrolled":9777,"Ġresidents":9778,"reland":9779,".\");":9780,"Ġscroll":9781,"ĠIsrael":9782,"Ġsecure":9783,"Moreover":9784,",'":9785,"zure":9786,"ffff":9787,"Ġprincipal":9788,"Ġsupers":9789,"connected":9790,"Ġproperly":9791,"Phys":9792,"$-$":9793,"ĠSearch":9794,"Ġdiscover":9795,"ĠOrig":9796,"iro":9797,"amin":9798,"ulner":9799,"Ġarc":9800,"ĠOld":9801,"ĠUI":9802,"Landroid":9803,"ĠFamily":9804,"Ġaren":9805,"Services":9806,"Ġgone":9807,"ĠIII":9808,"ĠEp":9809,"Ġui":9810,"Shape":9811,"Ġconfigurations":9812,"Ġcontents":9813,"ĠPop":9814,"ĠElement":9815,"Ġ'<":9816,"phantom":9817,"anish":9818,"insic":9819,"ĠUkraine":9820,"ĉĉĉĉĉĉĉĉĉ":9821,"ĠWay":9822,"library":9823,"tsd":9824,"builder":9825,"ĠBur":9826,"Ġcharges":9827,"kins":9828,"Cred":9829,"Ġtyped":9830,"ĠTown":9831,"ĠEV":9832,"Ġdelivery":9833,"actor":9834,"ĠPH":9835,"Ġguess":9836,"Ġappearance":9837,"FUN":9838,"Ġenum":9839,"ĠIE":9840,"Ġpromise":9841,"Ġ=========":9842,"Ġrac":9843,"cussion":9844,"Ġluminosity":9845,"plier":9846,"np":9847,"Ġanom":9848,"Ġfilled":9849,"prise":9850,"Ġdefinitions":9851,"provider":9852,"Ġoccurred":9853,"series":9854,"Ġbecoming":9855,"Ġdt":9856,"ucl":9857,"ctic":9858,"<!":9859,"ĠSpace":9860,"Ġversus":9861,"ĠPan":9862,"Ġdemonstrated":9863,"(-\\":9864,"SG":9865,"Lin":9866,"Depend":9867,"Ġmiles":9868,"ulating":9869,"resize":9870,"000000":9871,"Ġarrest":9872,"Ġvehicles":9873,"blem":9874,"Ġtalking":9875,"RT":9876,"Ġlie":9877,"llegal":9878,"ĠNAME":9879,"Ġconcerns":9880,"mathit":9881,"Ġwidely":9882,"Ġ$\\{\\":9883,"ĠJun":9884,"Ġmolecular":9885,"FP":9886,"Many":9887,"erior":9888,"atre":9889,"Ġreasonable":9890,"FN":9891,"Ġparser":9892,"ifndef":9893,"Ġgate":9894,"Ġadvance":9895,"Ġinstrument":9896,"Ġcrucial":9897,"Progress":9898,"plementation":9899,"expect":9900,"Ġbattle":9901,"ĠSource":9902,"Ġsharing":9903,"ĠSciences":9904,"Ġwhom":9905,"Ġconclusion":9906,"Delegate":9907,"Ġtelevision":9908,"separ":9909,"Although":9910,"Flow":9911,"apse":9912,"job":9913,"Ġseeing":9914,"&-":9915,"ĠLOG":9916,"ĠAT":9917,"storage":9918,"Ġsleep":9919,")^\\":9920,"ĠHen":9921,"Ġphotos":9922,"jection":9923,"boldmath":9924,"Join":9925,"game":9926,"icular":9927,"Ġnotion":9928,"atar":9929,"ĠValid":9930,"ĠDigital":9931,"ĠObserv":9932,"Ġnavigation":9933,"ĠInput":9934,">()":9935,"cn":9936,"ye":9937,"ĠCart":9938,"Ġdocumentation":9939,"Ġfragment":9940,"apl":9941,"Role":9942,"acks":9943,"Ġreduces":9944,"wrapper":9945,"Ġpixel":9946,"Ġcomfort":9947,"pattern":9948,"ĠassertThat":9949,"encing":9950,"Ġanimals":9951,"HTTP":9952,"Ġinitially":9953,"udd":9954,"Ġinvari":9955,"Ġdiscovered":9956,"VALUE":9957,"Ġperforming":9958,"initely":9959,"Ġnotes":9960,"enabled":9961,"ĠHTTP":9962,"ushed":9963,"UD":9964,"ĠInternet":9965,"pet":9966,"(@":9967,"ĠChicago":9968,"FLA":9969,"Ġacting":9970,"ĠMov":9971,"Ġboy":9972,"Ġplugin":9973,"}\\|":9974,"Ġkeeping":9975,"ĠSecret":9976,"ĠMartin":9977,"clean":9978,"Ġexecute":9979,"Ġexperiences":9980,"Limit":9981,"Ġpp":9982,"Ġreset":9983,"uality":9984,"essions":9985,"Ġdedicated":9986,"esh":9987,"imits":9988,"ÑĮ":9989,"Comput":9990,"corollary":9991,"basic":9992,"ĠMa":9993,"Ġdiscrim":9994,"omics":9995,"SN":9996,"instein":9997,"zy":9998,"Ġ}}":9999,"Ġdecades":10000,"PD":10001,"Ġmarg":10002,"asket":10003,"Ġ];":10004,"watch":10005,"Ġchurch":10006,"»¿":10007,"inating":10008,"ifted":10009,"Ġcodes":10010,"Ġleadership":10011,"Ġhorizontal":10012,"BL":10013,"atomic":10014,"Ġintermediate":10015,"stackrel":10016,"Ġflight":10017,"Children":10018,"tk":10019,"placement":10020,"Vertex":10021,"Ġphases":10022,"friend":10023,"Play":10024,"Ġearth":10025,"usband":10026,"textup":10027,"=\"@":10028,"retch":10029,"Struct":10030,"Ð´":10031,"icing":10032,"ï»¿":10033,"Ġsale":10034,"Ġpreserv":10035,"uer":10036,"Ġtx":10037,"Tx":10038,"Ġtemp":10039,"contain":10040,"Ġknows":10041,"ĠTerm":10042,"Ġsubsequent":10043,"alian":10044,"undefined":10045,"Ġdraft":10046,"Ġperturbation":10047,"endor":10048,"ĠJapanese":10049,"horizontal":10050,"Ġscores":10051,"Ġbaseline":10052,"jet":10053,"ĠAngeles":10054,"checked":10055,"hl":10056,"idential":10057,"Resources":10058,"Stop":10059,"~(\\":10060,"ĠCommun":10061,"Ġfaith":10062,"finite":10063,"ĠChief":10064,"ĠJim":10065,"stats":10066,"slice":10067,"seg":10068,"video":10069,"jQuery":10070,"Ġoriginally":10071,"resources":10072,"Ġtargets":10073,"Ġrail":10074,"Bind":10075,"uon":10076,"Ġdecisions":10077,"|-":10078,"Ġfmt":10079,"execute":10080,"moment":10081,"ola":10082,"Ign":10083,"ĠLouis":10084,"('.":10085,"Ġflo":10086,"Ġdefense":10087,";}":10088,"Ġintended":10089,"Ġisot":10090,"scriptscriptstyle":10091,"Ġattend":10092,"shared":10093,"osc":10094,"href":10095,"à¸":10096,"bg":10097,"Ġfigures":10098,"ĠMulti":10099,"Ġfish":10100,"comb":10101,"ĠEU":10102,"ORTED":10103,"estic":10104,"mk":10105,"Ġthin":10106,"Ġinterpretation":10107,"Ġinflation":10108,"Ġscenarios":10109,"ĠPerson":10110,"poch":10111,"reme":10112,"ĠLu":10113,"orient":10114,"detail":10115,"ummy":10116,"trace":10117,"Ġsensitivity":10118,"ĠCentre":10119,"Ġ''":10120,"trim":10121,"ervised":10122,"Ñĭ":10123,"extend":10124,"Ð¼":10125,"Ġbind":10126,"sig":10127,"Ġtrip":10128,"itely":10129,"VE":10130,"Ġrelationships":10131,"Ġcultural":10132,"!]":10133,"ĠAdv":10134,"about":10135,"proxy":10136,"Short":10137,"Ġcolors":10138,"Ġexcess":10139,"spin":10140,"SW":10141,"Ġpsych":10142,"Ġpolarization":10143,"Ġcities":10144,"Ġfindings":10145,"Ġfamous":10146,"ĠAssembly":10147,"Free":10148,"ynamics":10149,"compl":10150,"Ġpotentially":10151,"ĠExample":10152,"textcolor":10153,"Ġinclusion":10154,"Summary":10155,"Cho":10156,"Ġmerg":10157,"Hom":10158,"yg":10159,"mean":10160,"ĠSol":10161,"Once":10162,"Ġpractices":10163,"analy":10164,"ĠOnce":10165,"Ġgravitational":10166,"Ġfunds":10167,"Ġaccounts":10168,"Ġmarketing":10169,"Ġmoves":10170,"Ġselector":10171,"invariant":10172,"gba":10173,"Ġended":10174,"ĠANY":10175,"ĠJo":10176,"ĠInstead":10177,"ĠHttp":10178,"ĠJohnson":10179,"supported":10180,"users":10181,"Ġ[\"":10182,"Div":10183,"backslash":10184,"Endpoint":10185,"ĠWater":10186,"Ġtwice":10187,"isor":10188,"aton":10189,"Best":10190,"Selected":10191,"requency":10192,"ĠOrgan":10193,"ĠMad":10194,"lg":10195,"Where":10196,"ĠEnvironment":10197,"period":10198,"Ġcub":10199,"ĠÂ»":10200,"Ġanimation":10201,"Ġweap":10202,"ĉĠĠĠĠ":10203,"Ġbinding":10204,"timeout":10205,"argument":10206,"isc":10207,"acific":10208,"Ġburn":10209,"Dictionary":10210,"Ġtranslate":10211,"oked":10212,"Ġconsumer":10213,"REQ":10214,"ictures":10215,"riage":10216,"$.}":10217,"Ġvideos":10218,"Ġbuf":10219,"Ġfre":10220,"tc":10221,"Ġuniverse":10222,"ĠChristmas":10223,"elements":10224,"elem":10225,"astern":10226,"ĠFOR":10227,"Ġchief":10228,"Ġcars":10229,"Ġadministration":10230,"ailability":10231,"Ġadjac":10232,"Ġfif":10233,"ĠArab":10234,"hfill":10235,"ĠAustralian":10236,"stitution":10237,"Ġhistorical":10238,"Ġprotein":10239,"Ġtalent":10240,"invalid":10241,"^*(":10242,"Ġ_{\\":10243,"Ġgun":10244,"Ġentertain":10245,"Ġsupporting":10246,"Enter":10247,"Ġclosely":10248,"Ġoffering":10249,"Don":10250,"Ġcmd":10251,"scopic":10252,"Ġcatalog":10253,"etry":10254,"ione":10255,"Ġchecked":10256,"Ġdisabled":10257,"ĠJud":10258,"FORM":10259,"aka":10260,"Sur":10261,"wall":10262,"Ġdict":10263,"ima":10264,".$$":10265,"Begin":10266,"Ġassembly":10267,"moz":10268,"Ġmodify":10269,"Ġlogic":10270,"Ġabsence":10271,"ĠÂ£":10272,"ĠFort":10273,"1991":10274,"groups":10275,"Ġgeometric":10276,"Ġ{\"":10277,"Ġemot":10278,"cribed":10279,"Eval":10280,"iration":10281,"nostics":10282,"Î±":10283,"igate":10284,"Ġtechnologies":10285,"Ġsenior":10286,"Ġconfigure":10287,"Ġcomplement":10288,"Ġanalys":10289,"urban":10290,"ANT":10291,"Ġinfrastructure":10292,")>":10293,"ĠĠčĊ":10294,"Ġstandards":10295,"ĠParis":10296,"ibraries":10297,"Ġuncertainties":10298,"Ġchart":10299,"Password":10300,"oes":10301,"DEFAULT":10302,"Ġvalidate":10303,"Ġcoach":10304,"=>":10305,"Ġrestriction":10306,"ĠBiden":10307,"Ġsurfaces":10308,"REE":10309,"Ġweather":10310,"ĠCath":10311,"water":10312,"Ġorientation":10313,"Ġbeat":10314,"áĥ":10315,"Ð²":10316,"ĠTaylor":10317,"{\"":10318,"Ġtang":10319,"ĠPack":10320,"ĠGeorg":10321,"Ġcompre":10322,"Ġru":10323,"issue":10324,"Ġ\\,\\":10325,"Ġdrag":10326,"}{*":10327,"ĠAust":10328,"Ġstraightforward":10329,"MODULE":10330,"Watch":10331,"available":10332,"men":10333,"icode":10334,"Mask":10335,"lb":10336,"sa":10337,"Also":10338,"Ġtransitions":10339,"Ġnumerous":10340,"Normal":10341,"3333":10342,"ez":10343,"|^{":10344,"AE":10345,"Errorf":10346,"ĠON":10347,"Ġentirely":10348,"Agent":10349,"uries":10350,"vironments":10351,"Ġtruly":10352,"BM":10353,"Ġperiodic":10354,"gov":10355,"Ġconversion":10356,"Ġfib":10357,"strings":10358,"ĠEff":10359,"ĠCast":10360,"Ġpermit":10361,"icians":10362,"ĠLove":10363,"ĠFROM":10364,"ĠGR":10365,")}.":10366,"Ġpet":10367,"ĠJones":10368,"ĠAtl":10369,"onav":10370,"gradient":10371,"ĠCloud":10372,"ĠCard":10373,"Interval":10374,"Ġforeach":10375,"ĠLike":10376,"thick":10377,"osoph":10378,"wave":10379,"optional":10380,"onomy":10381,"INFO":10382,"Native":10383,"okes":10384,"Ġamaz":10385,"ĠMedical":10386,"yy":10387,"ANCE":10388,"Ġpred":10389,"awn":10390,"elect":10391,"Ġmarkets":10392,"Ġaddresses":10393,"Ġsuppress":10394,"ativity":10395,"Year":10396,"Ġapplies":10397,"repe":10398,"Ġglass":10399,"Sort":10400,"ĠCho":10401,"Ġdiagn":10402,"Ġfeeling":10403,"Ġturb":10404,"uling":10405,"imately":10406,"fortunately":10407,"unte":10408,"rick":10409,"umps":10410,"wer":10411,"services":10412,"ĠAff":10413,"Methods":10414,"Ġ'\\":10415,"Ġexplanation":10416,"Ġblow":10417,"Ġliquid":10418,"Subs":10419,"uated":10420,"ĠValley":10421,"Ġresearchers":10422,"\\!\\":10423,"Ġseparation":10424,"Ġcritic":10425,"Ġ_,":10426,"Ġdebut":10427,"Ang":10428,"Ġmanage":10429,"Ġprev":10430,"nam":10431,"Ġthousands":10432,"phy":10433,"Contact":10434,"Visible":10435,"Ġdegener":10436,"Ġcrisis":10437,"Ġtells":10438,"Ġschedule":10439,"flag":10440,"WORD":10441,"Ġlinked":10442,"Language":10443,")}(\\":10444,"Ġpresents":10445,"Ġtopology":10446,"ean":10447,"Ġmurder":10448,"Ġuniformly":10449,"edu":10450,"Members":10451,"PUT":10452,"ĠGuide":10453,"Ġunderstood":10454,"Ġà¤":10455,"Ġmal":10456,"_{+":10457,"ĠPak":10458,"ĠIreland":10459,"ĠColl":10460,"pot":10461,"Ġprecise":10462,"login":10463,"accept":10464,"Ġrequirement":10465,"pare":10466,"ĠWood":10467,"|$":10468,"Ġtmp":10469,"Ġmyself":10470,"Ġmodeling":10471,"Ġappreci":10472,"aug":10473,"Ġdebug":10474,"ipping":10475,"rated":10476,"Ġemployed":10477,"Ġemb":10478,"Ġscr":10479,"Ids":10480,"Ġaccepted":10481,"ultural":10482,"Ġoutcome":10483,"ĠĠĠĠĠĠĠĠĠĠĠĠĠĠĠĠĠĠĠĠĠĠĠĠĠĠĠĠĠĠ":10484,"Ġhop":10485,"Ġcreates":10486,"commit":10487,"Ġnp":10488,"Ġprops":10489,"&=&\\":10490,"Ġpieces":10491,"NV":10492,"ĠRights":10493,"ationToken":10494,"Conver":10495,"Ġquadratic":10496,"udden":10497,"Ġsql":10498,"Ġtracks":10499,"conduct":10500,"ĠMO":10501,"hd":10502,"oval":10503,"STRING":10504,"ĠSuppose":10505,"apol":10506,"ĠParamet":10507,"Cs":10508,"Ġhalo":10509,"theless":10510,"Ġvariations":10511,"conver":10512,"poration":10513,")(\\":10514,"batch":10515,"ajax":10516,"Ġfake":10517,"ĠWIT":10518,"ĠFre":10519,"Ġopacity":10520,"assembly":10521,"tbody":10522,"Ġmm":10523,"\"],":10524,"Ġfrequencies":10525,"iated":10526,"ĠAgain":10527,".<":10528,"lope":10529,"ĠCond":10530,"compare":10531,"Ġpixels":10532,"ĠZeal":10533,"Ġbrother":10534,"coll":10535,"Help":10536,"Ġwinning":10537,"Ġrecovery":10538,"ĠVirginia":10539,"ĠFoot":10540,"ĠDocument":10541,"Ġpri":10542,"elastic":10543,"ĠBlue":10544,"Cloud":10545,"ĠFood":10546,"Ġfuel":10547,"Ġexpectation":10548,"iations":10549,"sep":10550,"ĠWrite":10551,"Ġwitness":10552,"ĠArts":10553,"Ġbegins":10554,"Ġprepared":10555,"Ġescape":10556,"Ġdisplayed":10557,"Ġfacilities":10558,"sky":10559,"fc":10560,"Ġsolving":10561,"exec":10562,"Ġpartnership":10563,"Span":10564,"Ġcorrectly":10565,"ĠRam":10566,"Ġplatforms":10567,"Ġdeviation":10568,"Ġscientific":10569,"deep":10570,"Ġsyn":10571,"Ġhist":10572,"Ġindicating":10573,"ĠCy":10574,"ancell":10575,"()))":10576,"pkg":10577,"origin":10578,"collapse":10579,"iana":10580,"sen":10581,"Ġ([":10582,"ĠAcademy":10583,"ĠCla":10584,"Ġdeploy":10585,"Ġrestricted":10586,"Ġdivided":10587,"1970":10588,"}>":10589,"Ġskin":10590,"Enumer":10591,"usal":10592,"UST":10593,"ĠAnother":10594,"nol":10595,"ulty":10596,"Posted":10597,"Ġconjug":10598,"Ġwest":10599,"ĠPolice":10600,"Ġcompletion":10601,"Lower":10602,"ĠHas":10603,"ountry":10604,"{(\\":10605,"Ġformulation":10606,"thlet":10607,"Ġstreet":10608,"gi":10609,"intell":10610,"username":10611,"apos":10612,"Ġstead":10613,"Ġvillage":10614,"Ġwarning":10615,"policy":10616,"ĠRoyal":10617,"ĠCov":10618,"Mouse":10619,"aked":10620,"onom":10621,"MF":10622,"Ġsuc":10623,"Ġpipeline":10624,"Ġconcentration":10625,"vin":10626,"Ġmist":10627,"Ġrain":10628,"Ġempir":10629,"ĉĠĠĠĠĠĠĠĠĠĠĠ":10630,"Ġproto":10631,";)":10632,"Ġrequested":10633,"Ġannounce":10634,"Ġinvestigated":10635,"quote":10636,"ĠCanadian":10637,"Ġfant":10638,"through":10639,"\"><!--":10640,"Basic":10641,"Ġ$^{":10642,"mouse":10643,"aped":10644,"typename":10645,"Ġdefe":10646,"Ġreadonly":10647,"Ġtriple":10648,"Ġpayment":10649,"Just":10650,"player":10651,"Ġpoll":10652,"ĠZealand":10653,"shal":10654,"effect":10655,"ĠRefer":10656,"throw":10657,"Ġlimitations":10658,"also":10659,"Ġdrawn":10660,"Ġ@\"":10661,"Ġinterior":10662,"EP":10663,"&&\\":10664,"esides":10665,"Ġnarr":10666,"Day":10667,"Ġwavelength":10668,"ĠFourier":10669,"springframework":10670,"maven":10671,"Ġchallenging":10672,"Ġbrings":10673,"Ġreconstruction":10674,"AF":10675,"Ġanalyze":10676,"ĠOrder":10677,"ĠBet":10678,"Move":10679,"Jan":10680,"Ġsending":10681,"Ġderivatives":10682,"Real":10683,"METH":10684,"Ġseparated":10685,"Ġfitting":10686,"runtime":10687,"irms":10688,"Ġnine":10689,"Ġreads":10690,"intellij":10691,"EEEE":10692,"Fn":10693,"Ġsister":10694,"helper":10695,"utr":10696,"Ġmental":10697,"urrence":10698,"Ġdepartment":10699,"Ms":10700,"Ġintroduction":10701,"Ġdensities":10702,"slam":10703,"println":10704,"Â©":10705,"ĠComple":10706,"Ġcovering":10707,"Ġfails":10708,"wild":10709,"ĠIT":10710,"Ġstands":10711,"ĠAsia":10712,"onymous":10713,"checkbox":10714,"downarrow":10715,"ibilities":10716,"ĠAS":10717,"Ġsystematic":10718,"complex":10719,"arest":10720,"Ġkill":10721,"dc":10722,"forcement":10723,"Ġspend":10724,"cludes":10725,"selector":10726,"onavirus":10727,"Ġabsorption":10728,"Ġembedded":10729,"folio":10730,"ASSERT":10731,"Ġhorizon":10732,"objects":10733,"****************************************************************":10734,"DEF":10735,"sync":10736,"ĠVector":10737,"tz":10738,"ĠForce":10739,"ESS":10740,"Ġbenchmark":10741,"Sequence":10742,"density":10743,"ĠArrayList":10744,"Ġopinion":10745,"Ġbroadcast":10746,"GER":10747,"enger":10748,"Ġdomains":10749,"iner":10750,"Animation":10751,"lymp":10752,"Ġlab":10753,"cross":10754,"?\"":10755,"Ġscre":10756,",.":10757,"setup":10758,"Ġproportional":10759,"ĠRight":10760,"ĠNav":10761,"Ġcancell":10762,"blog":10763,"Ġmechanisms":10764,"Ġstronger":10765,"Ġmotor":10766,"Ġlanguages":10767,"?>":10768,"Ġwww":10769,"Based":10770,"$^":10771,"Program":10772,"Ġinvolves":10773,"INTER":10774,"lip":10775,"Ġimmediate":10776,"oned":10777,"ĠChange":10778,"memory":10779,"icious":10780,"Ġnaturally":10781,"bur":10782,"Texture":10783,"perm":10784,"Ġpowers":10785,"Ġatomic":10786,"variable":10787,"Ġsy":10788,"writer":10789,".&.&":10790,"Ġmerge":10791,"Ġhook":10792,"Ġhair":10793,"\\|_":10794,"Ġschema":10795,"GeV":10796,"ĠMP":10797,"rift":10798,"Serializer":10799,"cert":10800,"Ġclassic":10801,"ĠPO":10802,"Pair":10803,"constructor":10804,"RC":10805,"ĠXML":10806,"Ġsymbols":10807,"Ġreceiving":10808,"Ġsomewhat":10809,"ĠGames":10810,"Ġsucceed":10811,"TRY":10812,"Ġanalytic":10813,"ĠApplication":10814,"ÐµÐ½":10815,"Ġopts":10816,"usp":10817,"Ġdiffusion":10818,"twitter":10819,"Ġstrictly":10820,"ĠBOO":10821,"standard":10822,"ĠSpe":10823,"ryption":10824,"Ġelectrons":10825,"Ġdominant":10826,"Ġframes":10827,"#{":10828,"jecture":10829,"Ġhers":10830,"ĠÐ¿":10831,"700":10832,"Ġextreme":10833,"Ġvot":10834,"ĠGre":10835,"Framework":10836,"once":10837,"ĠOl":10838,"Condition":10839,"Ġmach":10840,"aneous":10841,"ucky":10842,"sb":10843,"iy":10844,"aled":10845,"multline":10846,"rine":10847,"Ġrecognition":10848,"Ġhomogeneous":10849,"Ġmarried":10850,"Ġsigns":10851,"cknowledg":10852,"Ġtick":10853,"Ġmathemat":10854,"romagnetic":10855,"pull":10856,"ĠCG":10857,"mf":10858,"ĠSaf":10859,"Ġtemporal":10860,"ordinate":10861,"POST":10862,"dig":10863,"resolve":10864,"tableblock":10865,"ĠResults":10866,"Ġreward":10867,"BAR":10868,"Ġrespective":10869,"Ġpapers":10870,"$^{":10871,"Ġcookies":10872,"ĠDC":10873,"Ġalgebraic":10874,"Ġdriven":10875,"ĠCarolina":10876,"cred":10877,"Ġshares":10878,"Ġresponses":10879,"ĠEnt":10880,"Ġatoms":10881,"Ġadvers":10882,"ĠStatus":10883,"Ġfrag":10884,"Ġvulner":10885,"dk":10886,"Ġnullptr":10887,"_);":10888,"aria":10889,"Ġ=======":10890,"direction":10891,"![":10892,"Ġcontinuum":10893,"Ġmouse":10894,"Ġneutral":10895,"ĠRest":10896,"Ġpanels":10897,"1989":10898,"Ġphil":10899,"hensive":10900,"Ġtransverse":10901,"agger":10902,"AI":10903,"asm":10904,"Ġquot":10905,"Ali":10906,"emit":10907,"'_{":10908,"ĠStandard":10909,"Ġhusband":10910,"sequences":10911,"BD":10912,"ĠLagrangian":10913,"Ġcomplicated":10914,"ese":10915,"Ġneutrino":10916,"Ġseemed":10917,"ĠFull":10918,"ORY":10919,"owner":10920,"textsf":10921,"ĠPay":10922,"ran":10923,"govern":10924,"ĠKingdom":10925,"Ġentered":10926,"Ġris":10927,"Ġissued":10928,"ĠMiddle":10929,"Ġsan":10930,"Ġinjury":10931,"Ġpriority":10932,"ĠArmy":10933,"ĠSche":10934,"âĤ¬":10935,"Ġ\\[":10936,"}$\\":10937,"Ġregression":10938,"Flag":10939,"Ġmetall":10940,"Ġviolence":10941,"ĠMedicine":10942,"IDTH":10943,"Notification":10944,"sharp":10945,"]^":10946,"Ġalter":10947,"ĠDM":10948,"Ġmyst":10949,"Ġcopies":10950,"Ġsatell":10951,"Ġdecreases":10952,"\"/></":10953,"NUM":10954,"ceil":10955,"ĠCELL":10956,"TestCase":10957,"Focus":10958,"Every":10959,"Ġcompr":10960,"Ġimplicit":10961,"Ġvarying":10962,"evin":10963,"Ġcommonly":10964,"}.}":10965,"iemann":10966,"Ġdepart":10967,"Ġorthogonal":10968,"ĠAmericans":10969,"elian":10970,"METHOD":10971,"$'":10972,"particle":10973,"Ġpurchase":10974,"Ġextracted":10975,"Ġconvenient":10976,"Ġentang":10977,"Returns":10978,"Ġful":10979,"ortion":10980,"trl":10981,"Ġhardware":10982,"upd":10983,"GLE":10984,"alty":10985,"Environment":10986,"Ġuniqu":10987,"ĠPut":10988,"Ġsphere":10989,"tp":10990,"Ġtransactions":10991,"including":10992,"Ġcoast":10993,"ipart":10994,"ĠAD":10995,"ĠMike":10996,"opts":10997,"ums":10998,"factory":10999,".\"\"\"":11000,"Ġcolour":11001,"ĠLo":11002,"127":11003,"icator":11004,"Make":11005,"wd":11006,"Ġeast":11007,"Ġoutcomes":11008,"socket":11009,"Ġweekend":11010,"ĠSports":11011,"Ġ\"\",":11012,"utch":11013,"lass":11014,"Ġ\\\"":11015,"ĠCurrent":11016,"Ġapart":11017,"ĠCharles":11018,"Ġheav":11019,"Mer":11020,"Ġroughly":11021,"Wait":11022,"Ġactor":11023,"III":11024,"Ġsurg":11025,"vertex":11026,"General":11027,"('#":11028,"dynamic":11029,"ĠSN":11030,"Sql":11031,"Ġ?>":11032,"aux":11033,"propto":11034,"ĠStudies":11035,"Ġrecurs":11036,"driver":11037,"Ġgender":11038,"Ġworst":11039,"ĠFeb":11040,"Ġproduces":11041,"Ġendpoint":11042,"Ġtags":11043,"ĠWal":11044,"Ġpermission":11045,"ĠKim":11046,"CV":11047,"Ġassets":11048,"('/":11049,"ĠClient":11050,"Ġloaded":11051,"merge":11052,"Ġspl":11053,"Ġprompt":11054,"ativistic":11055,"Ġhybrid":11056,"Ġidentification":11057,"aded":11058,"ĉčĊ":11059,"ami":11060,"Lat":11061,"ĠVictor":11062,"Allow":11063,"Arch":11064,"uparrow":11065,"zip":11066,"}/\\":11067,"straints":11068,"âĢī":11069,"problem":11070,"Ġcompliance":11071,"pb":11072,"Own":11073,"Cast":11074,"Ġcollision":11075,"ĠSand":11076,"Ġcorrelations":11077,"Pers":11078,"inet":11079,"Ġroots":11080,"Ġresidual":11081,"ĠConference":11082,"Cur":11083,"Ġadds":11084,"ĠSar":11085,"Photo":11086,"Ġvaccine":11087,"Ġfacility":11088,"examples":11089,"Ġfits":11090,"olutely":11091,"ĠDefinition":11092,"})^{":11093,"fall":11094,"Ġsentence":11095,"Ġworse":11096,"Ġfamili":11097,"Ġroles":11098,"route":11099,"Ġnewly":11100,"Required":11101,"Ġhelping":11102,"ĠMexico":11103,"Miss":11104,"Ġpermut":11105,"ircraft":11106,"{.":11107,"Validation":11108,"compiler":11109,"news":11110,"wan":11111,"Sample":11112,"ĠÂ·":11113,"Operator":11114,"ĠFederal":11115,"ĠAnalysis":11116,"shell":11117,"ĠChampionship":11118,"urer":11119,"Ġamb":11120,"Ġplate":11121,"Writ":11122,"ĠFire":11123,"Ġdiscussions":11124,"ĠCur":11125,"Ġpercentage":11126,"analysis":11127,"Ġprison":11128,"Proto":11129,"Ġwouldn":11130,"DATA":11131,"ĠChris":11132,"pag":11133,"Ġholding":11134,"Ġsympt":11135,"ĠFestival":11136,"Ġinspired":11137,"getValue":11138,"osed":11139,"Please":11140,"Library":11141,"parts":11142,"warn":11143,"than":11144,"goto":11145,"Ġirreducible":11146,"*}[":11147,"Ġruntime":11148,"methods":11149,"Ġmanip":11150,"ician":11151,"Ġincred":11152,"Ġalert":11153,"Ġcollaboration":11154,"Ġweighted":11155,"abc":11156,"theme":11157,"Ġpil":11158,"idal":11159,"exit":11160,"blank":11161,"nic":11162,"xs":11163,"ArgumentException":11164,"Plan":11165,"nm":11166,"EEEEFF":11167,"Ġschemes":11168,"Ġmel":11169,"arian":11170,"umul":11171,"facebook":11172,"Ġpresentation":11173,"Ġplants":11174,"Ġpal":11175,"Tube":11176,"Ġreflection":11177,"Ġwhenever":11178,"{|":11179,"Ġmo":11180,"ĠLord":11181,"Ġbird":11182,"Ġmacro":11183,"footnotes":11184,"ĠHom":11185,"ĠStream":11186,"release":11187,"ĠLight":11188,"letter":11189,"ĠBow":11190,"ĠCorollary":11191,"Ġelectro":11192,"ĠVari":11193,"Ġcart":11194,"Ġ(+":11195,"navList":11196,"paper":11197,"Ġaccomp":11198,"Ġposted":11199,"HD":11200,"assandra":11201,"loss":11202,"VALID":11203,"Ġassociation":11204,"Ġcas":11205,"shop":11206,"Ġsexual":11207,"ĠDivision":11208,"Ben":11209,"eros":11210,"aph":11211,"}{{\\":11212,"allclasses":11213,"Fragment":11214,"Ġcash":11215,"Binary":11216,"Ġguy":11217,"duration":11218,"uable":11219,"rece":11220,"illis":11221,"Ġspring":11222,"Ġexperienced":11223,"Ġexperts":11224,"Ġexposure":11225,";\">":11226,"Ġreaders":11227,"Ġbelongs":11228,"Ġisland":11229,"yer":11230,"athan":11231,"=$":11232,"Ġdistances":11233,"Ġpatch":11234,"selection":11235,"ATED":11236,"ĠAlgorithm":11237,"ĠMD":11238,"Ġreporting":11239,"beh":11240,"$\\\\":11241,"360":11242,"ĠJon":11243,"Ġdefining":11244,"ikes":11245,"Ġran":11246,"Ġfacilit":11247,"Ġcert":11248,"ĠML":11249,"Ġlargely":11250,"Ġanimal":11251,"Save":11252,"Ġclaimed":11253,"pointer":11254,"Ġreverse":11255,"ourse":11256,"destroy":11257,"Ġinterpol":11258,"tle":11259,"Ġfaces":11260,"ĠNever":11261,"ĠKar":11262,"Ġextensions":11263,"Ġsimilarly":11264,"Binding":11265,"ĠSH":11266,"ermi":11267,"ĠCross":11268,"ĠLoad":11269,"Ġpolynomials":11270,"ĠSets":11271,"Ġsupposed":11272,"console":11273,"Ġdiverse":11274,"oston":11275,"ĠSimilarly":11276,"Ġdelta":11277,"tenance":11278,"Ġcircuit":11279,"Ġepoch":11280,"ĠFact":11281,"ĠMot":11282,"ĠBol":11283,"Constant":11284,"sun":11285,"Ġfee":11286,"Ġprogramming":11287,"ugs":11288,"DIS":11289,"Driver":11290,"smallskip":11291,"Ġconvolution":11292,"got":11293,"MIN":11294,"Ġportion":11295,"ĠPDF":11296,"CONT":11297,"EventListener":11298,"ĠRo":11299,"ĠOk":11300,"notations":11301,"Ġratios":11302,"razil":11303,"Ġrandomly":11304,"Ġcharset":11305,"ĠWalk":11306,"isEmpty":11307,"inction":11308,"Ġmit":11309,"}^{+":11310,"CN":11311,"=\\{":11312,"bour":11313,"Ġswe":11314,"Ã³n":11315,"agers":11316,"Strategy":11317,"ONG":11318,"Ġexpanded":11319,"Ġtroub":11320,"stances":11321,"/{":11322,"you":11323,"Ġlaser":11324,"Ġsimultaneously":11325,":[":11326,"uda":11327,"Ġpriv":11328,"ĠSP":11329,"IOException":11330,",...,":11331,"%.":11332,"getElement":11333,"Ġlens":11334,"Ġconsisting":11335,"Ġbuildings":11336,"Ġlists":11337,"ĠEst":11338,"weak":11339,"inherit":11340,"Ġrepresentative":11341,"footnotesize":11342,"Ġtransformations":11343,"Db":11344,"130":11345,"Ġles":11346,"Bean":11347,"Download":11348,"Bbb":11349,"ĠBern":11350,"may":11351,"doi":11352,"catch":11353,"views":11354,"rink":11355,"ĠHard":11356,"amaz":11357,"Game":11358,"SELECT":11359,"Ġsaved":11360,"ĠEngineering":11361,"Ġsumm":11362,"ĠLuc":11363,"Ġincorpor":11364,"Ġ_.":11365,"Ġsurrounding":11366,"åĪ":11367,"ĠMaster":11368,"Ġorganized":11369,"ordan":11370,"Ġdoub":11371,"Ġsand":11372,"ĠSi":11373,"RS":11374,"Ġtracking":11375,"ãĢĤ":11376,"python":11377,"Ġcharacterized":11378,"ĠAndrew":11379,"DEBUG":11380,"Ġdiagrams":11381,"ĠWatch":11382,"Ġlikelihood":11383,"Ġwatching":11384,"Microsoft":11385,"Constructor":11386,"NavBarFont":11387,"Ġsimulated":11388,"Ġexports":11389,"Ġvent":11390,"Ġdominated":11391,"Ġ~\\":11392,"ĠSat":11393,"$\\,":11394,"Observ":11395,"Dem":11396,"leftarrow":11397,"Ġneither":11398,"eting":11399,"collect":11400,"??":11401,"Ġrevenue":11402,"Ġboundaries":11403,"expression":11404,"ĠLive":11405,"Ġ\"$":11406,"clone":11407,")_{\\":11408,"InputStream":11409,"Ġadvent":11410,"idents":11411,"mdc":11412,"Ġcriminal":11413,"ĠWilliams":11414,"Ġflows":11415,"Ġattached":11416,"Edge":11417,"ĠIran":11418,"ĠVideo":11419,"Nullable":11420,"TL":11421,"Ġagency":11422,"itage":11423,"Ġreviews":11424,"Ġwinter":11425,"validate":11426,"IAL":11427,"Capt":11428,"SCR":11429,"Private":11430,"ĠMcC":11431,"Ġconventional":11432,"Ġaug":11433,"*,":11434,"Material":11435,"Bal":11436,"Ġdispersion":11437,"MODE":11438,"Agg":11439,"Ġimpossible":11440,"ĠWilson":11441,"BY":11442,"lix":11443,"ruption":11444,"assertTrue":11445,"Most":11446,"correspond":11447,"Ġcitizens":11448,"unicip":11449,"ĠDB":11450,"ĠSIZE":11451,"ELD":11452,"ĠApache":11453,"ĠWall":11454,"tright":11455,"ĠWild":11456,"People":11457,"ĠAwards":11458,"Ġoutputs":11459,"Ġcreative":11460,"Ġadvice":11461,"CALL":11462,"ĠVan":11463,"Ġcomparing":11464,"Ġwhatever":11465,"ti":11466,"oster":11467,"Ġconcerned":11468,"Area":11469,"ĠCommon":11470,"contrib":11471,"Ġdivision":11472,"ĠRO":11473,"Ġdeaths":11474,"ĠFix":11475,"Ġlose":11476,"yd":11477,"ĠToday":11478,"Mapper":11479,"Ġcursor":11480,"ARD":11481,"Ġherself":11482,"LY":11483,"Ġstudio":11484,"Ġmedian":11485,"Ġconditional":11486,"MAP":11487,"ĠMajor":11488,"liament":11489,"']['":11490,"Ġofficer":11491,"was":11492,"Ġcommitted":11493,"Ġplasma":11494,"Ġaccessible":11495,"binom":11496,"Ġengineering":11497,"Ġsport":11498,"ĠFuture":11499,"Objects":11500,"Ġmand":11501,"Ġprimarily":11502,"Ġpacket":11503,"ĠCommand":11504,"Ġorbital":11505,"ĠContent":11506,"Pred":11507,"ĠFilm":11508,"ĠCore":11509,"Ġpointed":11510,"LOC":11511,"AK":11512,"onto":11513,"Ġupload":11514,"Ġenvironments":11515,"ĠBE":11516,"Ġmonitoring":11517,"Hub":11518,"Ġsensor":11519,"tre":11520,"Ġbond":11521,"Ġdefinitely":11522,"rupted":11523,"hal":11524,"signature":11525,"stud":11526,"Ġtables":11527,"Ġcovers":11528,"roke":11529,"RED":11530,"itan":11531,"Ġsubspace":11532,"ĠBOOST":11533,"atibility":11534,"Ġelli":11535,"Ġfoo":11536,"forming":11537,"\\},":11538,"jk":11539,"CTYPE":11540,"ĠHa":11541,"ĠOptional":11542,"111":11543,"DOM":11544,"Connect":11545,"Ġspeaking":11546,"ĠItaly":11547,"ospit":11548,"dark":11549,"iano":11550,"Ġenables":11551,"ĠÂ©":11552,"Ġnearby":11553,"Copyright":11554,"Ġrgba":11555,"ĠNa":11556,"contents":11557,"Ġtopics":11558,"ĠFar":11559,"ĠĠĠĠĠĠĠĠĠĠĠĠĠĠĠĠĠĠĠĠĠĠĠĠĠĠĠĠĠĠĠĠĠ":11560,"ĠProduct":11561,"integer":11562,"Ġtypedef":11563,"Ġrealized":11564,"Bigg":11565,"amber":11566,"Ġkid":11567,"Ġacademic":11568,"written":11569,"colLast":11570,"Execution":11571,"TY":11572,"ĠWhere":11573,"ĠHon":11574,"Ġphotograph":11575,"Est":11576,"Ġease":11577,"uclide":11578,"ĠRemove":11579,"ĠEND":11580,"ĠResponse":11581,"stage":11582,"Ġhandling":11583,"Ġinternet":11584,"Ġassessment":11585,"good":11586,"Ġafford":11587,"Ġyouth":11588,"brane":11589,"UND":11590,"NET":11591,"Ġignored":11592,"Ġkick":11593,"unders":11594,"ĠLore":11595,"Ġmoder":11596,"Ġfilters":11597,"Ġamazing":11598,"IDE":11599,"Ġvirus":11600,"Ġrecommended":11601,"During":11602,"Ġlived":11603,"ĠIL":11604,".âĢĻ":11605,"cher":11606,"ĠKen":11607,"Ġdependencies":11608,"$}}":11609,"perature":11610,"1987":11611,"(\"/":11612,"SSL":11613,"ensitive":11614,"Ġapps":11615,"trightarrow":11616,"]=":11617,"Ġcontem":11618,"forEach":11619,"ĠPC":11620,"warning":11621,"CHAR":11622,"Ġfat":11623,"Skip":11624,"'];":11625,"Ġconservation":11626,"1988":11627,"frag":11628,"ĠUV":11629,"Ġdiversity":11630,"Constraint":11631,"tage":11632,":`":11633,"Ġstopped":11634,"ificial":11635,"Ġfacts":11636,"ĠThrough":11637,"Ġongoing":11638,"anchor":11639,"UV":11640,"Dav":11641,"Ġce":11642,"Ġchiral":11643,"Tok":11644,"ounce":11645,"Axis":11646,"Ġcrime":11647,"Ġtele":11648,"ĠDaniel":11649,"Ġ'''":11650,"Ġaf":11651,"hab":11652,"Ġextensive":11653,"Ġtrajectory":11654,"Ġstabil":11655,"associ":11656,"ĠLab":11657,"Ġequals":11658,"Ġpitch":11659,"Ġidentifier":11660,"program":11661,"feed":11662,"glyph":11663,"\\}.":11664,")}$.":11665,"Ġexpensive":11666,"ä»":11667,"apsed":11668,"tok":11669,"Batch":11670,"Ġfermion":11671,"Ġsituations":11672,"Ġposts":11673,"Ġstages":11674,"ĠJeff":11675,"uclidean":11676,"upper":11677,"Ġrestrictions":11678,"ĠHilbert":11679,"colFirst":11680,"nc":11681,"ĠMC":11682,"CLASS":11683,"Ġreliable":11684,"Ġfle":11685,"autore":11686,"Ġna":11687,"Ġqueries":11688,"Ġimply":11689,"Theme":11690,"Remote":11691,"\"},":11692,"Ġ\"\";":11693,"Raw":11694,"ĠSW":11695,"Ġcolle":11696,"visible":11697,"Ġpermissions":11698,"ĠWrit":11699,"bus":11700,"ĠAbstract":11701,"Ġcompens":11702,"Ġ'';":11703,"ĠOnline":11704,"Ġguarantee":11705,"ĠRepublican":11706,"ĠJes":11707,"Ġcomposed":11708,"Ġtokens":11709,"Ġconflict":11710,"Ġaccret":11711,"determ":11712,"Ġdescribing":11713,"ĠHor":11714,"plays":11715,"Ġfamiliar":11716,"Ġrapidly":11717,"Ġexecuted":11718,"ĠExpl":11719,"mapping":11720,"Ġresolved":11721,"Ġbelief":11722,"Ġsudden":11723,"Ġpot":11724,"Warning":11725,"NSString":11726,"pload":11727,"Ġresonance":11728,"download":11729,"Ġhealthy":11730,"ĠPolit":11731,"omm":11732,"Ġaccum":11733,"Ġadjacent":11734,"Ġpreced":11735,"respect":11736,"ĠMid":11737,"BIT":11738,"Ġrobot":11739,"azy":11740,"highlight":11741,"Ã£":11742,"Ġsimplicity":11743,"Ġadvoc":11744,"ĠBas":11745,"ĠSC":11746,"lets":11747,"CONFIG":11748,"ĠElect":11749,"Â°":11750,"ĠHam":11751,"ĠðŁ":11752,"ĠMock":11753,"Annotation":11754,"assum":11755,"compar":11756,"Ġped":11757,"mix":11758,"Ġhousing":11759,"Ġcomparable":11760,"fake":11761,"Ġsolved":11762,"expl":11763,"Ġmil":11764,"ircles":11765,"ela":11766,"ĠWat":11767,"Ġofficers":11768,"Ġsubmit":11769,"Ġleague":11770,"Ġreducing":11771,"Ġedition":11772,"ĠJoseph":11773,"duction":11774,"Information":11775,"=\\\"":11776,"eties":11777,"Ġ>>>":11778,"ĠOlymp":11779,"independent":11780,"fmt":11781,"animation":11782,"(--":11783,"140":11784,"Ġdepos":11785,"pod":11786,"Ġnan":11787,"posing":11788,"closure":11789,"uma":11790,"Ġsync":11791,"News":11792,"lia":11793,"Ġ\"%":11794,"ĠKnow":11795,"ansas":11796,"varrho":11797,"Ġgirls":11798,"Ġinvent":11799,"ĠScholar":11800,"Ġdisorder":11801,"Ġcapable":11802,"pin":11803,"tun":11804,"ĠTw":11805,"Ġmess":11806,"Ġmort":11807,"ĠShould":11808,"USER":11809,"sidebar":11810,"Ġperiods":11811,"Ġintervals":11812,"ĠIslam":11813,"/.":11814,"Ġfiber":11815,"Ġpseudo":11816,"~~~~~~~~":11817,"Should":11818,"ĠNight":11819,"Rate":11820,"between":11821,"bean":11822,"Ġcollapse":11823,"Ġpopulations":11824,"Same":11825,"Ġfrequently":11826,"Usage":11827,"ĠFA":11828,"ĠAdam":11829,"inistic":11830,"ĠMen":11831,"Ġsin":11832,"Ġteacher":11833,"Ġbattery":11834,"Ġinduction":11835,"Spe":11836,"Ġdecide":11837,"Ġhumans":11838,"Ġcounts":11839,"ĠLabor":11840,"Ġillustrated":11841,"Ġloading":11842,"Ġgenerators":11843,"ependence":11844,"ĠPos":11845,"flex":11846,"distribution":11847,">$":11848,"DOCTYPE":11849,"Static":11850,"Ġbridge":11851,"cerning":11852,"Ġholes":11853,"activity":11854,"Ġpolitics":11855,"overview":11856,"OPT":11857,"disable":11858,"ĠSenate":11859,"ĠSimple":11860,"wing":11861,"ĠJustice":11862,"Player":11863,"XY":11864,"Ġchunk":11865,"Install":11866,"Tuple":11867,"Ġattempts":11868,"ARN":11869,"Person":11870,"HL":11871,"ĠCS":11872,"Ġconsumers":11873,"above":11874,"ĠĠĠĠĠĠĠĠĠĠĠĠĠĠĠĠĊ":11875,"ĠServer":11876,"Ġlang":11877,"formed":11878,"incre":11879,"Ġloved":11880,"iph":11881,"ea":11882,"database":11883,"Î¿":11884,"previous":11885,"compile":11886,"lined":11887,"Ġ\\{\\":11888,"Chain":11889,"Ġportr":11890,"Observer":11891,"Comparison":11892,"inds":11893,"Ġemployee":11894,"Ġdip":11895,"Failure":11896,"lm":11897,"Ġexecutive":11898,"estim":11899,"Throw":11900,"ĠSpanish":11901,"ĠBa":11902,"Ġfellow":11903,"ATCH":11904,"Ġreceiver":11905,"Ġchair":11906,"ĠEqs":11907,"radio":11908,"esis":11909,"chart":11910,"æľ":11911,"Locale":11912,"factor":11913,"Unknown":11914,"Ġwav":11915,"Ġwa":11916,"Ġinference":11917,"ĠTrust":11918,"character":11919,"ĠFrancisco":11920,"tb":11921,"Ġshadow":11922,"remarks":11923,"Ġcrowd":11924,"Ġatom":11925,"Ġdiscovery":11926,"Ġcouplings":11927,"ĠIV":11928,"BPACK":11929,"Ġaccident":11930,"nament":11931,"Ġstim":11932,"Ġsys":11933,"Yes":11934,"intro":11935,"fb":11936,"Ġiterations":11937,"Ġclim":11938,"TX":11939,"ĠRay":11940,"izz":11941,"NotFound":11942,"Proposition":11943,"Export":11944,"Ġhaven":11945,"Ġconsumption":11946,"Fore":11947,"ĠJacob":11948,"created":11949,"ĠCas":11950,"ĠHospital":11951,"newline":11952,"Ġprepare":11953,"ĠMichigan":11954,"Ġcaptured":11955,"isition":11956,"arguments":11957,"Ġera":11958,"Ġuniversity":11959,"Ġsounds":11960,"Ġvariant":11961,"ador":11962,"Ġking":11963,"ĠItalian":11964,"isa":11965,"ressive":11966,"\\,{\\":11967,"ĠOS":11968,"Complete":11969,"Ġreligious":11970,"Ġmovies":11971,"Ġcaught":11972,"Ġresistance":11973,"Ġacid":11974,"cules":11975,"Future":11976,"izers":11977,"Ġremained":11978,"']);":11979,"Ġproposal":11980,"Ġeat":11981,"avi":11982,"Ġmatched":11983,"bat":11984,"react":11985,"_{-\\":11986,"ÏĦ":11987,"Ġdropped":11988,"Ġconsideration":11989,"abeth":11990,"distance":11991,"Ġguard":11992,"Master":11993,"Ġlogarith":11994,"icer":11995,"Mult":11996,"king":11997,"Ġcapabilities":11998,"shire":11999,"ĠObama":12000,"Leg":12001,"cha":12002,"Ġbodies":12003,"^^":12004,"Ġstores":12005,"Ġtrunc":12006,".(\\":12007,"Ġutility":12008,"}^+":12009,"NamedCell":12010,"Ġregional":12011,"ĠEr":12012,"Ġspectro":12013,"Ġemergency":12014,"Ġcommands":12015,"Ġsocket":12016,"!\"":12017,"Ġrenew":12018,"illy":12019,"Ġment":12020,"Ġ'%":12021,"defn":12022,"present":12023,"Ġordinary":12024,"Ġclip":12025,"ASE":12026,"ĠInstagram":12027,"Ġrefers":12028,"ĠLcom":12029,"ivari":12030,"^+$":12031,"Processor":12032,"fp":12033,"Audio":12034,"pheric":12035,"...</":12036,"Ġprocedures":12037,"subject":12038,"oids":12039,"Ġrely":12040,";\\;":12041,">)":12042,"Ġaccretion":12043,"Ã¨":12044,"Ġmail":12045,"Ġmob":12046,"Folder":12047,"ĠConf":12048,"Your":12049,"elly":12050,"Resolver":12051,"Env":12052,"usform":12053,"Ġgiant":12054,"Ġ{},":12055,"adium":12056,"WH":12057,"numerusform":12058,"Ġfunctor":12059,"ATTR":12060,"Ġĉ":12061,"predict":12062,"GM":12063,"Ġ{$\\":12064,"perimental":12065,"aki":12066,"}[!":12067,"!<":12068,"ĠMean":12069,"Ġranges":12070,"105":12071,"Stud":12072,"Clear":12073,"Ġchapter":12074,"112":12075,"measure":12076,"itudes":12077,"lywood":12078,"PROC":12079,"iking":12080,"ĠEquation":12081,"Ġalgebras":12082,"Ġtech":12083,"agent":12084,"Ġsurprising":12085,"ymer":12086,"below":12087,"hot":12088,"esome":12089,"century":12090,"1986":12091,"Ġstructural":12092,"FilterDatabase":12093,"Ð°Ð½":12094,"Ġsemantic":12095,"Ġinstitutions":12096,"Ġsharp":12097,"ASK":12098,"ĠCNN":12099,"Ġvirt":12100,"need":12101,"gypt":12102,">;":12103,"Weight":12104,"VAR":12105,")}$,":12106,"Alloc":12107,"ĠJackson":12108,"ĠThree":12109,"Analysis":12110,"Ġexplains":12111,"Ġintegers":12112,"Ġinn":12113,"ĠWARRAN":12114,"Ġsevere":12115,"ego":12116,"Ġputting":12117,"Ġretail":12118,"Ġconverted":12119,"Ġamounts":12120,"orough":12121,"Ġpref":12122,"__)":12123,"Ġ(@":12124,"ĠSeason":12125,"party":12126,"Ñĩ":12127,"Ġfault":12128,"Ġgar":12129,"contact":12130,"relative":12131,"uent":12132,"Ġpayload":12133,"assign":12134,"Ġrecognized":12135,"Ġstyles":12136,"Ġapproved":12137,"Cmd":12138,"()),":12139,"Ġmusical":12140,"ĠSta":12141,"Ġdoubt":12142,"calendar":12143,"Ġdecade":12144,"Ġteaching":12145,"ï¼Į":12146,"ĠBefore":12147,"Ġig":12148,"ĠScot":12149,"Ġserves":12150,"ĠBY":12151,"Loop":12152,"Ġ\\}":12153,"%\"":12154,"Card":12155,"Ġfeas":12156,"Ġstations":12157,"ÑģÑĤ":12158,"Ġminute":12159,"Ġimplied":12160,"}{}":12161,"asketball":12162,"Ġproven":12163,"Ġeigenvalue":12164,"ĠPacific":12165,"Like":12166,"ĠMS":12167,"ĠResult":12168,"ĠPakistan":12169,"Ġ\\|\\":12170,"Ġfeels":12171,"Ġanalyzed":12172,"Ġarms":12173,"uniform":12174,"Serialization":12175,"Ġelev":12176,"midrule":12177,"Ġslot":12178,"1024":12179,"ĠPhot":12180,"subequations":12181,"ĠQCD":12182,"Because":12183,"})=\\":12184,"ĠCatholic":12185,"Ġcro":12186,"Ġhomes":12187,"Ġrepeat":12188,"Ġtack":12189,"ĠDEFAULT":12190,"Ġcosmological":12191,"Diff":12192,"Ġtotally":12193,"Furthermore":12194,"Ġunitary":12195,"Ġcontroll":12196,"Transport":12197,"ĠOutput":12198,"Ġvictory":12199,"cou":12200,"ĠHarr":12201,"ĠLay":12202,"Ġestimator":12203,"Ġdelivered":12204,"ĠEC":12205,"Ġindustrial":12206,"apis":12207,"iot":12208,"Ant":12209,"Ġunable":12210,"generate":12211,"ĠSem":12212,"osa":12213,"Ġpromote":12214,"ĠUnit":12215,"Ġsb":12216,"Ġinhib":12217,"Ġconversation":12218,"Ġ|=":12219,"Ġbringing":12220,"Fi":12221,"PG":12222,"Ġexamine":12223,"Ġtherapy":12224,"Ġfeat":12225,"isset":12226,"strict":12227,"Ġguys":12228,"Abs":12229,"Ġpartially":12230,"Ġelif":12231,"amazon":12232,"Ġimaging":12233,"bell":12234,"Ġisolated":12235,"Ġforecast":12236,"ĠFac":12237,"hole":12238,"Ġsegments":12239,"Labels":12240,"VD":12241,"ĠHaw":12242,"ĠProfessor":12243,"Ġbow":12244,"ĠSelect":12245,"ĠĠĠĠčĊ":12246,"PN":12247,"ĠCF":12248,"Ġexercise":12249,"ĠRadio":12250,"compute":12251,"middle":12252,"Ġenhanced":12253,"Ġclosure":12254,"named":12255,"jack":12256,"ĠFair":12257,"Ġphotons":12258,"mathtt":12259,"=-\\":12260,"ĠPrem":12261,"learning":12262,"Ġreconstruct":12263,"Wallet":12264,"hyper":12265,"Ġmd":12266,"ĠBell":12267,"ĠDeep":12268,"Ġauthority":12269,"native":12270,"Ġbelieved":12271,"ĠWin":12272,"extra":12273,"abbr":12274,")&":12275,"approxim":12276,"Shared":12277,"Ġ\".":12278,"LIST":12279,"eeper":12280,"ĠIllegal":12281,"Ġgreatest":12282,"]+":12283,"Ġslope":12284,"nolimits":12285,"Ġabsolutely":12286,"Ġsimilarity":12287,"ĠMah":12288,"Ġvort":12289,"Ġpassion":12290,"ĠAssum":12291,"owski":12292,"eld":12293,"ceptor":12294,"Ġneur":12295,"bigcup":12296,"ccc":12297,"\\[\\":12298,"Ġpreferred":12299,"Identity":12300,"given":12301,"Ġfeatured":12302,"spaces":12303,"Ġsmallest":12304,"bounded":12305,"uffers":12306,"Ġplanned":12307,"Contin":12308,"Ġchecks":12309,"holders":12310,"Ġempirical":12311,"Ġter":12312,"Ġconformal":12313,"ogy":12314,"vo":12315,"Errors":12316,"Health":12317,"ears":12318,"vertical":12319,"ORDER":12320,"Ġrom":12321,"Ġindependently":12322,"ĠRecords":12323,"Ġdecreasing":12324,"WEBPACK":12325,"Ġneutron":12326,"Ġpin":12327,"Screen":12328,"Ġhide":12329,"102":12330,"Ġinsurance":12331,"ĠChem":12332,"Ġheter":12333,"Ġexhibit":12334,"omatic":12335,"Beh":12336,"Ġangles":12337,"Ġbold":12338,"Ġur":12339,"ĠDA":12340,"Even":12341,"Cr":12342,"Ġisomorphic":12343,"ktop":12344,"çĶ":12345,"adel":12346,"Ġkinetic":12347,"chester":12348,"Ã£o":12349,"Ä±":12350,"iti":12351,"IZ":12352,"GroupName":12353,"Ġaircraft":12354,"Ġreturning":12355,"validation":12356,"Ġbigger":12357,"cfg":12358,"ubern":12359,"agg":12360,"Ġensemble":12361,"Ġevening":12362,"Ġrevers":12363,"Word":12364,"]))":12365,"ila":12366,"Ġassignment":12367,"Ġdistinguish":12368,"Ġrenormal":12369,"Ġadministr":12370,"ĠDescription":12371,"Ġsole":12372,"Ġturbul":12373,"ĠClin":12374,"Ġworker":12375,"ĠSA":12376,"Ġatmosphere":12377,"Ġsight":12378,"Ġterror":12379,"ĠALIGN":12380,"aired":12381,"Center":12382,"Ġbare":12383,"(.":12384,"Ġgenerates":12385,"Ġsubsection":12386,"bx":12387,"Ġven":12388,"Ġhelpful":12389,"Ġ'',":12390,"Ġmanifest":12391,"Groups":12392,"ĠIss":12393,"ĠPers":12394,"ĠChannel":12395,"sr":12396,"ĠMember":12397,"Ġanisot":12398,"Ġlabeled":12399,"ĠGrant":12400,"Ġinterests":12401,"Cref":12402,"spe":12403,"ĠCred":12404,"FOR":12405,"ctors":12406,"Ġincreasingly":12407,"Light":12408,"Ġseat":12409,"kern":12410,"Ġstationary":12411,"\\}_{":12412,"Renderer":12413,"Ġsteady":12414,"ĠLic":12415,"ĠLearning":12416,"Ġproviders":12417,"Ġster":12418,"Insert":12419,"covery":12420,"anches":12421,"Ġlosses":12422,"Messages":12423,"Black":12424,"ĠJewish":12425,"Ġguitar":12426,"Ġsparse":12427,"cohol":12428,"Ġdil":12429,"Nov":12430,"adv":12431,"rie":12432,"gets":12433,"bling":12434,"ĠAli":12435,"pur":12436,"1984":12437,"Ġtruck":12438,"Ġchoosing":12439,"Rad":12440,"agen":12441,"ipes":12442,"Ġaims":12443,"mutable":12444,"Ġpromin":12445,"Ġaid":12446,"Ġaccompl":12447,"ulas":12448,"Ġurban":12449,"Compiler":12450,"pling":12451,"uuid":12452,"toBe":12453,"reement":12454,"Ġcyl":12455,"leqslant":12456,"ulf":12457,"[]{":12458,"charge":12459,"WIN":12460,"Ġfell":12461,"Segment":12462,"lasg":12463,"uts":12464,"Ġsnow":12465,"ĠLib":12466,"POS":12467,"HERE":12468,"lab":12469,"ĠSea":12470,"ĠWhether":12471,"Ġrecording":12472,"Ġconcepts":12473,"oral":12474,"Ġactivation":12475,"Ġcircular":12476,"outs":12477,"Family":12478,"Ġinvestors":12479,"ĠRen":12480,"ĠBeach":12481,"erred":12482,"ĠBO":12483,"ACH":12484,"Ġcomprehensive":12485,"ï¿":12486,"Standard":12487,"Ġbid":12488,"ĠTele":12489,"Ġdry":12490,"ĠLanguage":12491,"Ġgeneralization":12492,"Ġconverges":12493,"VICE":12494,"ĠIter":12495,"Ġds":12496,"loom":12497,"1985":12498,"Ġpeace":12499,"Ġabundance":12500,"Well":12501,"_)":12502,"Ġletters":12503,"Ġbars":12504,"}))":12505,"Ġowned":12506,"matic":12507,"Ġamplitudes":12508,"iche":12509,"\"].":12510,"cue":12511,"bolic":12512,"citealt":12513,"ĠDar":12514,"Random":12515,"fetch":12516,"iline":12517,"iki":12518,"ĠColumb":12519,"Ġhal":12520,"Ra":12521,"ruby":12522,"merce":12523,"Ġancient":12524,"Ġaux":12525,"Ġyes":12526,"Ġcycles":12527,"Ġdance":12528,"ĠYes":12529,"dashed":12530,"Cross":12531,"Intern":12532,"Contains":12533,"RPC":12534,"ĠBal":12535,"Ġdisappe":12536,"alaxy":12537,"surface":12538,"Ġbary":12539,"Ġwealth":12540,"tically":12541,"Ġvolunte":12542,"commod":12543,"Ġcollisions":12544,"angles":12545,"ĠSouthern":12546,"Ġperman":12547,"Ġnormalization":12548,"Mo":12549,"Ġtriangle":12550,"Ġproposition":12551,"_{[":12552,"ridge":12553,"calcul":12554,"Ġpublication":12555,"Recall":12556,"Ġcopyright":12557,"Mc":12558,"xhtml":12559,"Ð¾Ð²":12560,"Nd":12561,"åĲ":12562,"ĠNAS":12563,"Ġspending":12564,"UC":12565,"oking":12566,"Zone":12567,"encode":12568,"Ġfounded":12569,"hpp":12570,"Ġscheduled":12571,"ĠEditor":12572,"}},\\":12573,"ĠLittle":12574,"Split":12575,"Ġtrends":12576,"three":12577,"ĠStory":12578,"AUT":12579,"ĠRiemann":12580,"Ġviewed":12581,"Expected":12582,"Ġstreaming":12583,"repre":12584,"Ġcommission":12585,"INST":12586,"ĠCost":12587,"Ġsubstantial":12588,"Ġvoc":12589,"Ġ'.":12590,"riers":12591,"commons":12592,"Ġarrived":12593,"rypted":12594,"Ġcuts":12595,"Ġaugment":12596,"Ġbath":12597,"Transition":12598,"Ġslowly":12599,"Ġhundreds":12600,"/\"":12601,"cluding":12602,"Ġlit":12603,"Ġpropagation":12604,"Ġgeodes":12605,"Ġdst":12606,"uli":12607,"uet":12608,"ĠTree":12609,"Ġserving":12610,"ĠPhoto":12611,"å®":12612,"ĠTool":12613,"velope":12614,"Ġstanding":12615,"ĠBrazil":12616,"valued":12617,"ĠTake":12618,"pf":12619,"}<":12620,"ffee":12621,"Rules":12622,"Ġfiction":12623,"izabeth":12624,"Ev":12625,"Ġscan":12626,"OC":12627,"Ġfold":12628,"ĠGeorgia":12629,"Ġauthorities":12630,"Bigl":12631,"ĠChildren":12632,"Ġordering":12633,"Ġdisable":12634,"CHAN":12635,"submit":12636,"ĠBoston":12637,"Ġasking":12638,"ĠPL":12639,"isms":12640,"Ġriver":12641,"ĠLim":12642,"ĠPrint":12643,"everal":12644,"DEX":12645,"Addr":12646,"Ġbriefly":12647,"Vol":12648,"Ġreplacement":12649,"ĠHistor":12650,"ycl":12651,"cdn":12652,"nob":12653,"ĠNiger":12654,"irement":12655,"ĠCreates":12656,"Contents":12657,"Ġclustering":12658,"Html":12659,"Ġgene":12660,"Den":12661,"******":12662,"Ġcounty":12663,"Ġpossess":12664,"Ġresponsibility":12665,"Upsilon":12666,"Ġcooling":12667,"Timer":12668,"Ġregistration":12669,"Ġhearing":12670,"ĠPoisson":12671,"Virtual":12672,"Ġlogging":12673,"Ġteachers":12674,"Bigr":12675,"online":12676,"displayName":12677,"Ġregardless":12678,"ĠOtherwise":12679,"cycle":12680,"iliary":12681,"ĠGar":12682,"iso":12683,"ifi":12684,"Ġpending":12685,"transaction":12686,"|_{\\":12687,"ĠQuery":12688,"inson":12689,"^*_":12690,"quality":12691,"Ġscored":12692,"Ġproud":12693,"metric":12694,"Ġjustice":12695,"Ġlegend":12696,"Timestamp":12697,"Ġrecru":12698,"overning":12699,"Ġanchor":12700,"Related":12701,"lef":12702,"Ġterminal":12703,"Ġprobe":12704,"Ġtum":12705,"ĠØ":12706,"ĉĠĠ":12707,"bounds":12708,"<<":12709,"acher":12710,"ĠAccount":12711,"ĠConfiguration":12712,"iat":12713,"ĠNAV":12714,"Ġsac":12715,"Ġstick":12716,"Ġdecays":12717,"Ġoperate":12718,"RAY":12719,"messages":12720,"HEAD":12721,"Ġdescript":12722,"æĸ":12723,"Cursor":12724,"|_":12725,"Metrics":12726,"Ġspherical":12727,"Ġrealistic":12728,"Ġslice":12729,"Ġdetermines":12730,"anna":12731,"ĠOpt":12732,"Design":12733,"half":12734,"ĠTurn":12735,"Ġfavour":12736,"ĠSpring":12737,"delay":12738,"IMPORTED":12739,"Listen":12740,"reprene":12741,"Ġdevelopers":12742,"Counter":12743,"Did":12744,"oust":12745,"Ġpulse":12746,"Ġrepository":12747,"ĠDim":12748,"Ġwear":12749,"ĠFinal":12750,"loader":12751,"Sem":12752,"ATOR":12753,"binary":12754,"ĠFermi":12755,"Rob":12756,"Ġhotel":12757,"Ġleaf":12758,"Ġseparately":12759,"swarm":12760,"512":12761,"Mr":12762,"Append":12763,"isy":12764,"pages":12765,"Ġconsistency":12766,"ĠHenry":12767,"Border":12768,"Ġdrugs":12769,"Ġdrivers":12770,"Ġinitialize":12771,"ongo":12772,"ĠCSS":12773,"oir":12774,"Ġhonest":12775,"Ġkinds":12776,"Ġta":12777,"Ġexposed":12778,"eyn":12779,"Ġmodal":12780,"ĠSystems":12781,"ubb":12782,"Rightarrow":12783,"Ġwilling":12784,"ĠVirtual":12785,"Ġinnovation":12786,"ĠAuto":12787,"Ġton":12788,"Ġrent":12789,"topic":12790,"Declaration":12791,"ĠMethods":12792,"asters":12793,"Ġintrinsic":12794,"uits":12795,"ĠDub":12796,"traction":12797,"Ġhun":12798,"Ġvast":12799,"Ġarise":12800,"Ġboot":12801,"Îµ":12802,"Ġprobabilities":12803,"Aggreg":12804,"Ġencoded":12805,"potential":12806,"door":12807,"ï¿½":12808,"mac":12809,"LOW":12810,"ntz":12811,"Ġforget":12812,"ĠArea":12813,"Ġdy":12814,"Ġmesh":12815,"Lib":12816,"Ġultimately":12817,"Ġrisks":12818,"Arguments":12819,"ĠLow":12820,"STATUS":12821,"Ġsplitting":12822,"ĪĴ":12823,"Ġcommittee":12824,"Ġinfection":12825,"Fixed":12826,"ĠBox":12827,".},":12828,"ĠDue":12829,"uj":12830,"ĠDelete":12831,"uz":12832,"Ġentities":12833,"Ġpasses":12834,"Idx":12835,"BT":12836,"Setting":12837,"Ġsubjects":12838,"theory":12839,"Ġplots":12840,"ĠNeed":12841,"solid":12842,"interpre":12843,"ĠRecord":12844,"Ġintelligence":12845,"Ġfly":12846,"Quant":12847,"ĠCovid":12848,"ĠOriginal":12849,"ned":12850,"ĠStan":12851,"Ġwelcome":12852,"Pat":12853,"Ġoverlap":12854,"ĠBased":12855,"Ġregul":12856,"eman":12857,"ĠFish":12858,"etary":12859,"Through":12860,"istically":12861,"binding":12862,"1960":12863,"Rows":12864,"}{*}{":12865,"Ġending":12866,"Inf":12867,"design":12868,"ste":12869,"ĠThread":12870,"kwargs":12871,"Ġcone":12872,"Ġproducer":12873,"Promise":12874,"ĠManager":12875,"Bel":12876,"tf":12877,"Power":12878,"ĠCC":12879,"ĠBad":12880,"Ġminister":12881,"alert":12882,"leading":12883,"ĠOP":12884,"itempty":12885,"itis":12886,"notin":12887,"ĠEmp":12888,"Ġban":12889,"alias":12890,"riteria":12891,"omitempty":12892,"gray":12893,"Ġconsequences":12894,"induced":12895,"Review":12896,"Ġintent":12897,"wildfly":12898,"Drop":12899,"Ġpeer":12900,"Ġsymptoms":12901,"Ġexciting":12902,"cov":12903,"ApJ":12904,"likely":12905,"ocaml":12906,"Ġproducing":12907,"className":12908,"FFER":12909,"ĠDOM":12910,"uity":12911,"ĠDouble":12912,"textnormal":12913,"Ġpump":12914,"Ġedit":12915,"Ġshooting":12916,"}\\;":12917,"Month":12918,"changes":12919,"ĠAdditionally":12920,"×ķ":12921,"Bounds":12922,">\"":12923,"Encoding":12924,"Release":12925,"ĠassertTrue":12926,"Ġencode":12927,"canvas":12928,"ĠAud":12929,"ĠLA":12930,"oidal":12931,"physical":12932,"ĠChen":12933,"ĠDirac":12934,"Ġsuit":12935,"Ġperturbations":12936,"nesota":12937,"Put":12938,"Ġposterior":12939,"spl":12940,"Ġabuse":12941,"ctrine":12942,"Ġanalytical":12943,"Ġmatters":12944,"directory":12945,"Oh":12946,"dual":12947,"Ġkit":12948,"Ġconcrete":12949,"aret":12950,"SCRIPT":12951,"Ġspons":12952,"Ġdiscret":12953,"mond":12954,"Ġvaluable":12955,"Ġseeking":12956,"Na":12957,"Ġhydrogen":12958,"idel":12959,"pping":12960,"Consumer":12961,"Bottom":12962,"stra":12963,"lu":12964,"Ġcer":12965,"ĠAsian":12966,"Ġobservable":12967,"ĠReference":12968,"Ġcontradiction":12969,"Î½":12970,"ori":12971,"ubernetes":12972,"cost":12973,"ĠContext":12974,"dz":12975,"Ġorbits":12976,"Ġexponent":12977,"Ġprocessed":12978,"Ġveg":12979,"reason":12980,"Ġstorm":12981,"ĠIrish":12982,"ĠNorthern":12983,"Ġadults":12984,"KS":12985,"ĠTro":12986,"Ġforth":12987,"cancel":12988,"Ġsoc":12989,")\",":12990,"ĠPython":12991,"asp":12992,"ĠRail":12993,"ratio":12994,"Ġdecor":12995,"FM":12996,"ĠSwed":12997,"'$.":12998,"Ġcrew":12999,"una":13000,"ylvan":13001,"Ġalignment":13002,"Ġneglig":13003,"rovers":13004,"1983":13005,"ĠLev":13006,"Ġfs":13007,"Ġmarginal":13008,"Ġturning":13009,"tar":13010,"arial":13011,"heast":13012,"\\,,":13013,"ĠBang":13014,":@\"":13015,"lr":13016,"ĠDNA":13017,"Spr":13018,"spacing":13019,"Ġcorporate":13020,"&$":13021,"Ġunivers":13022,"Ġiterator":13023,"Oct":13024,"ĠDoes":13025,"Ġstats":13026,"ership":13027,"Ġworldwide":13028,"ĠPrivacy":13029,"Mac":13030,"Numer":13031,"×Ļ":13032,"WI":13033,"vect":13034,"Ġbott":13035,"ĠYouTube":13036,"atern":13037,"convert":13038,"ĠJr":13039,"conditions":13040,"Ġacquired":13041,"ĠRow":13042,"Ġplain":13043,"iamond":13044,"bec":13045,"135":13046,"Ġfabric":13047,"ĠContin":13048,"ĠMonte":13049,"Signature":13050,"ĠKr":13051,"Ġstudying":13052,"Ġdangerous":13053,"columns":13054,"thrift":13055,"Ġbreath":13056,"Ġsustainable":13057,"Ġcod":13058,"Ġplotted":13059,"ĠFootball":13060,"week":13061,"BH":13062,"Ġinterpreted":13063,"touch":13064,"Ġtexture":13065,"oured":13066,"Ġdemocr":13067,"Ġarrang":13068,"both":13069,"ĠĠĠĠĠĠĠĠĠĠĠĠĠĠĠĠĠĠĠĠĠĠĠĠĠĠĠĠĠĠĠĠĠĠ":13070,"Ġperforms":13071,"rog":13072,"*\\":13073,"ĠBul":13074,"|=":13075,"ĠOhio":13076,"Ġwaste":13077,"mathbbm":13078,"eah":13079,"Ġspacetime":13080,"atile":13081,"aya":13082,"Ġourselves":13083,"Ġns":13084,"poly":13085,"Ġmultip":13086,"Ġcriterion":13087,"ĠBrook":13088,"}~\\":13089,"ĠCarl":13090,"deprecated":13091,"ĠBooks":13092,"Runner":13093,"loading":13094,"ĠSteve":13095,"ĠKorea":13096,"Ġfighting":13097,"Ġ}{\\":13098,"ĠLjava":13099,"secutive":13100,"ArrayList":13101,"Ġlandscape":13102,"Comb":13103,"ĉĉĠĠĠ":13104,"FIX":13105,"Ġ----------------------------------------------------------------":13106,"}}=\\":13107,"Ġdestr":13108,"Ġtoler":13109,"hou":13110,"imm":13111,"Ġdelegate":13112,"lan":13113,"pars":13114,"Ġcha":13115,"apore":13116,";\"":13117,"Ġreveals":13118,"ĠGi":13119,"Ġoverflow":13120,"docker":13121,"Ġinstructions":13122,"ĠMatt":13123,"blob":13124,"Ġquiet":13125,"Ġnegot":13126,"rame":13127,"ĠWIDTH":13128,"'}\\":13129,"Ġimprovements":13130,"ĠMatch":13131,"Ġsees":13132,"Ġtransmit":13133,"Ġtens":13134,"Ġsynthetic":13135,"Press":13136,"Ġveter":13137,"ADC":13138,"Ġthrown":13139,"ĠSom":13140,"best":13141,"Serv":13142,"Ð¿":13143,"ĠJS":13144,"Ġfewer":13145,"Ġhealthcare":13146,"ĠBroad":13147,"Ġcombine":13148,"Ġemissions":13149,"enda":13150,"Inner":13151,"Ġharmonic":13152,"ownt":13153,"Hook":13154,"Pres":13155,"wiki":13156,"ĠRa":13157,"}})$":13158,"Ġwrites":13159,"Ġpersons":13160,"days":13161,"ĠTag":13162,"reader":13163,"Ġdeclared":13164,"ĠMuslim":13165,"ĠHun":13166,"agma":13167,"Ġwalls":13168,"')$":13169,"substack":13170,"teen":13171,"getElementById":13172,"Ġconnecting":13173,"tributions":13174,"ĠAddress":13175,"speed":13176,"ĠCompar":13177,"ĠGraph":13178,"Platform":13179,"Ġimpl":13180,"usr":13181,"isons":13182,"ĠEgypt":13183,"Ġcovariance":13184,"ĠDeb":13185,"Ġassist":13186,"ocks":13187,"Ġargue":13188,"Accept":13189,"Coll":13190,"ĠJersey":13191,"ĠSpain":13192,"Ġcards":13193,"Ġanticip":13194,"Star":13195,"IME":13196,"Ġdefend":13197,"ĠAGN":13198,"ocom":13199,"ĠĠĠĠĠĠĠĠĠĠĠĠĠĠĠĠĠĠĠĠĠĠĠĠĠĠĠĠĠĠĠĠĠĠĠĠĠĠĠĠĠĠĠĠĠĠĠ":13200,"Bool":13201,"ĠStore":13202,"Ġasset":13203,">'":13204,"ĠSF":13205,"LIN":13206,"Ġ&$":13207,"Ġmigr":13208,"Ġtrajectories":13209,"\\|^":13210,"FIELD":13211,"ĠPrime":13212,"optim":13213,"ĠChair":13214,"/*!":13215,"keep":13216,"abolic":13217,"Ġride":13218,"xygen":13219,"governor":13220,"uplicate":13221,"ĠFox":13222,"Verify":13223,"NP":13224,"patcher":13225,"Ġ<-":13226,"Ġpeaks":13227,"Ġpun":13228,"Ġalpha":13229,"license":13230,"ĠBuilder":13231,"rob":13232,"mal":13233,"Ġcrypt":13234,"~(":13235,"Prev":13236,"runner":13237,"ĠExecutive":13238,"ampion":13239,"larg":13240,"ented":13241,"idi":13242,"Ġcolon":13243,")=(":13244,"Ġchecking":13245,"URCE":13246,"Ġingred":13247,"Validator":13248,"Exists":13249,"Ġlocalized":13250,"Users":13251,"Ġreplacing":13252,"Features":13253,"Ġcraft":13254,"Hy":13255,"gent":13256,"ignore":13257,"what":13258,"ĠÐ²":13259,"ĠShort":13260,"cod":13261,"disk":13262,"pson":13263,"ĠStudy":13264,"Ġalleged":13265,"Ġinsight":13266,")|\\":13267,"Ġanswers":13268,"Detail":13269,"train":13270,"Ġmechanical":13271,"Ġretain":13272,"Ġreplic":13273,"ĠTech":13274,"ĠSep":13275,"ifference":13276,"Ġobviously":13277,"Direction":13278,"Ġrestaurant":13279,"she":13280,"Ġsheet":13281,"Ġassistance":13282,"sale":13283,"homology":13284,"essel":13285,"Ġaffine":13286,"Zero":13287,"ĠEinstein":13288,"ĠZend":13289,"cv":13290,"camel":13291,"Ġplenty":13292,"ĠTy":13293,"Ġexplos":13294,"ipl":13295,"Overview":13296,"ĠCamb":13297,"Ġcompetitive":13298,"ĠAssume":13299,"Bits":13300,"Ġcommitment":13301,"ĠBu":13302,"âĢĻ,":13303,"Upload":13304,"inton":13305,",~":13306,"Ġvanishes":13307,"anim":13308,"Ġ$_":13309,"Ġensures":13310,"overs":13311,"Ġexpectations":13312,"ĠConnect":13313,"burgh":13314,"Ġrein":13315,"Ġadult":13316,"ĠLtd":13317,"Ġcenters":13318,"Ġadmits":13319,"aga":13320,"COMM":13321,"Ġsignificance":13322,"aron":13323,"ĠMarkov":13324,"YY":13325,"Ġiron":13326,"åħ":13327,"ĠPri":13328,"ĠNAVBAR":13329,"aks":13330,"imp":13331,"Ġ'./":13332,"Ġelected":13333,"Points":13334,"Wrap":13335,"plectic":13336,"Ġmath":13337,"ĠQueen":13338,"consistent":13339,"ĠHop":13340,"Ġkinem":13341,"Ġanalyses":13342,"TM":13343,"ĠBuffer":13344,"ĠMinistry":13345,"Ġexclusive":13346,"ĠAge":13347,"except":13348,"concat":13349,"asi":13350,"ĠADC":13351,"Ġdebate":13352,"Ġthoughts":13353,"âĢĻ.":13354,"Without":13355,"foreach":13356,"EEE":13357,"ĠEconomic":13358,"Ġclassified":13359,"}_{{\\":13360,"ENTRY":13361,"Ġcorrespondence":13362,"Ġimproving":13363,"getId":13364,"LICENSE":13365,"dm":13366,"Ġbaby":13367,"ĠNC":13368,"Ġ-=":13369,"Ġadvertising":13370,"Ġscenes":13371,"utter":13372,"actual":13373,"resolution":13374,"ockey":13375,"Ġdeleted":13376,"createElement":13377,"training":13378,"Ġgoverning":13379,"Ġfetch":13380,"Ġaccord":13381,"Ġprogramme":13382,"inject":13383,"ĠAsh":13384,"acer":13385,"Ġwinner":13386,"Ġlistening":13387,"Ġscientists":13388,"1982":13389,"005":13390,"rules":13391,"Ġprosp":13392,"Super":13393,"Ġgro":13394,"maps":13395,"ships":13396,"ĠallClasses":13397,"Acknowledg":13398,"Ġsouthern":13399,"ĠDemocratic":13400,"Ġcoherent":13401,"(\"%":13402,"Columns":13403,"Ġupcoming":13404,"()</":13405,"Ġflavor":13406,"Ġmagic":13407,"Ġdescriptor":13408,"Ġpuls":13409,"Ġalias":13410,"Millis":13411,"incipal":13412,"ĠFollowing":13413,"Ġcombinations":13414,"Ġvice":13415,"opens":13416,"gre":13417,"orb":13418,"Ġcorrelated":13419,"getInstance":13420,"ĠallClassesLink":13421,"Ġ^{\\":13422,"Ġvisibility":13423,"Ġwidget":13424,"}.\\":13425,"ĠColumn":13426,"ĠRom":13427,"Ġmillions":13428,"Ġhits":13429,"Ġmathematical":13430,"asis":13431,"prom":13432,"Ġalongside":13433,"Ġsupplied":13434,"ÙĦ":13435,"Ġwalking":13436,"Ġcampus":13437,"Ġtimestamp":13438,"satisf":13439,"ILITY":13440,"holds":13441,"Convert":13442,"ĠJob":13443,"Site":13444,"odge":13445,"ĠDark":13446,"Ġcircles":13447,"Ġmirror":13448,"Ġhabit":13449,"Ġremoving":13450,"={\\":13451,"lisher":13452,"mount":13453,"'$,":13454,"ĠResources":13455,"Ġwindows":13456,"information":13457,"RESS":13458,"Ġmarriage":13459,"ĠEP":13460,"Ġarrive":13461,"Ġcoal":13462,"Ġparsed":13463,"Ġsubscription":13464,"Ġsear":13465,"UNT":13466,"ĠSong":13467,"licenses":13468,"metic":13469,"Ġdiameter":13470,"104":13471,"Ġpregn":13472,"}\\!":13473,"Stub":13474,"NODE":13475,"ourn":13476,"Ġauthent":13477,"Bus":13478,"Ġmg":13479,")}_{\\":13480,"Ġgrew":13481,"ĠThose":13482,"Ġinterference":13483,"imer":13484,"Ġinvolve":13485,"pn":13486,"cassandra":13487,"Ġcollective":13488,"een":13489,"Ġcrossing":13490,"interval":13491,"engers":13492,"ĠSite":13493,"Â®":13494,"ĠUpd":13495,"ylvania":13496,"Ġast":13497,"Ġprojective":13498,".*;":13499,"ä½":13500,"Ġshel":13501,"eper":13502,"jax":13503,"BER":13504,"Assume":13505,"Ġsubsets":13506,"Ġpictures":13507,"ILD":13508,"ĠDisney":13509,"ĠDespite":13510,"ju":13511,"Available":13512,"Following":13513,"ĠSerial":13514,"Ġiget":13515,"Ġfiled":13516,"ĠTax":13517,"tot":13518,"icates":13519,"Ġrealize":13520,"Ġgranted":13521,"AVE":13522,"URN":13523,"Ġaccommod":13524,"ĠDa":13525,"=\"../../../../../../../":13526,"Typ":13527,"Ġdebt":13528,"lam":13529,"Ġcompression":13530,"ĠNFL":13531,"PROP":13532,"Î¹":13533,"$_{\\":13534,"rig":13535,"ĠCorporation":13536,"Ġdisjoint":13537,"ĠParse":13538,"overset":13539,"sz":13540,"Ġprojected":13541,".}\\":13542,"aware":13543,"Ġclone":13544,"Partition":13545,"LD":13546,"Ġfacing":13547,"repeat":13548,"Ġ$\\|":13549,"vskip":13550,"Ġnorthern":13551,"Ġphilosoph":13552,"LT":13553,"Ġsed":13554,"Who":13555,"Management":13556,"acement":13557,"flix":13558,"ĠDonald":13559,"City":13560,"115":13561,"Ignore":13562,"vdots":13563,"itud":13564,"ĠSV":13565,"Ġagric":13566,"ĠĠĠĠĠĠĠĠĠĠĠĠĠĠĠĠĠĠĠĠĠĠĠĠĠĠĠĠĠĠĠĠĠĠĠĠ":13567,"Have":13568,"Ġtransformed":13569,"iley":13570,"anted":13571,"Ġvisitors":13572,"acon":13573,"Ġnewsp":13574,"ĠGuard":13575,"Ġyellow":13576,"Ġchains":13577,"Ġanalogous":13578,"Ġbrands":13579,"Console":13580,"Cancel":13581,"ĠImp":13582,"Integ":13583,"ĠPromise":13584,"Ġsatellite":13585,"350":13586,"Ġconcerning":13587,"GG":13588,"worth":13589,"ĠCivil":13590,"Ġobserver":13591,"ermit":13592,"Final":13593,"Analy":13594,"rid":13595,"ĠJordan":13596,"(/":13597,"Ġcoq":13598,"(()":13599,"via":13600,"pression":13601,"ĠPred":13602,"Ġcircumstances":13603,"Touch":13604,"ĠDaily":13605,"Ġhospit":13606,"pred":13607,"pad":13608,"Ġestate":13609,"Ġguidance":13610,"Ġ$<":13611,"ureau":13612,"(['":13613,"Ġelementary":13614,"former":13615,"Ġequally":13616,"LETE":13617,"processing":13618,"tl":13619,"ĠByte":13620,"ĠCoast":13621,"Ġmodification":13622,"Ġtuple":13623,"remote":13624,"LAY":13625,"900":13626,"Ġlots":13627,"},{\\":13628,"haust":13629,"Ġacknowled":13630,"logo":13631,"inois":13632,"})-":13633,"ĠExper":13634,"Ġweakly":13635,"Self":13636,"Ġintersect":13637,"ĠProp":13638,"ĠAdministration":13639,"Ġappearing":13640,"ĠEuclidean":13641,"Cent":13642,"})(":13643,"Ġpackages":13644,"Ġfairly":13645,"ĠRod":13646,"Ġmanufacturing":13647,"Ġurg":13648,"Ġ{{\\":13649,"Drag":13650,"tm":13651,"Tasks":13652,"ĠContact":13653,"pie":13654,"Ġtough":13655,"Linear":13656,"Ġdomestic":13657,"=}":13658,"Ġadmit":13659,"Ġequipped":13660,"Ġsoil":13661,"Depth":13662,"because":13663,"ĠActive":13664,"repo":13665,"Ġcubic":13666,"Ġreaches":13667,"=\"$":13668,"}_{(":13669,"Ġlosing":13670,"Ġdoctor":13671,"frequency":13672,"Ġdwar":13673,"Ġvoltage":13674,"Ġoverview":13675,"ORK":13676,"Ġgoods":13677,"Ġprinciples":13678,"score":13679,"VO":13680,"Ġattorney":13681,"ĠRegion":13682,"Ġstreets":13683,"Green":13684,"Ġencoder":13685,"inates":13686,"Ġcab":13687,"Supported":13688,"ĠHo":13689,"Ġ'\"":13690,"Ġneighbour":13691,"ipedia":13692,"'',":13693,"TAG":13694,"Ġproves":13695,"Converter":13696,"different":13697,"rowth":13698,"Ġdeformation":13699,"ĠCat":13700,"Ġpray":13701,"built":13702,"compact":13703,"Ġpreserve":13704,"Ġmolecules":13705,"qual":13706,"Ġrid":13707,"Ġflu":13708,"ĠâĢĻ":13709,"Ġillustrate":13710,"BF":13711,"enberg":13712,"alink":13713,"ĠGro":13714,"103":13715,"ĠCapital":13716,"Ok":13717,"NdEx":13718,"yo":13719,"audio":13720,"Ġconstrained":13721,"Diagnostics":13722,"irk":13723,"rele":13724,"ĠSecretary":13725,"transport":13726,"Ġvo":13727,"Ġincorrect":13728,"opher":13729,"bow":13730,"Ġcombining":13731,"ennis":13732,"TIES":13733,"Ġbat":13734,"Lear":13735,"Ġcertificate":13736,"ĠSky":13737,"andy":13738,"Ġperformances":13739,"Ġphenomenon":13740,"Ġmouth":13741,"equival":13742,"Ġoccasion":13743,"ĠAirport":13744,"Ġgeomet":13745,"Ġfalls":13746,"ĠWord":13747,"cosystem":13748,"undles":13749,"Ġkeeps":13750,"flush":13751,"consider":13752,"Permission":13753,"Good":13754,"Symfony":13755,"ifting":13756,"UEST":13757,"identity":13758,"Ġperfectly":13759,"ĠCulture":13760,"Aug":13761,"orted":13762,"sis":13763,"ĠSend":13764,"ĠTransport":13765,"'+":13766,"Ġcompiler":13767,"Ġinfinity":13768,"Login":13769,"=(\\":13770,"Navigation":13771,"photon":13772,"Ġmissed":13773,"ĠSmall":13774,"Radi":13775,"MMARY":13776,"Holder":13777,"IES":13778,"Switch":13779,"UK":13780,"Rot":13781,"ilevel":13782,"Ġele":13783,"ĠBall":13784,"Ġwins":13785,"Ġhint":13786,"ĠEll":13787,"Ġdealing":13788,"ivities":13789,"=&":13790,"pend":13791,"ĠclassName":13792,"ugging":13793,"Warn":13794,"iac":13795,"Ġallocation":13796,"ĠĠĠĠĠĊ":13797,"Ġbeauty":13798,"Ġelig":13799,"Ġcrash":13800,"Ġlinearly":13801,"Both":13802,"Ġdifficulty":13803,"ntil":13804,"ĠNotice":13805,"fac":13806,"FALSE":13807,"Dynamic":13808,"Ġrising":13809,"ĠBon":13810,"Ġmic":13811,"ĠPrivate":13812,"Ġtemporary":13813,"jd":13814,"Ġquotient":13815,"Ġdeduce":13816,"Ġchose":13817,"Sol":13818,"Old":13819,"Executor":13820,"Ġburst":13821,"Ġclosing":13822,"ishop":13823,"Ġsweet":13824,"driven":13825,"without":13826,"offs":13827,"ustry":13828,"PHP":13829,"ĠGreek":13830,"antly":13831,"EXPORT":13832,"ĠLew":13833,"Ġ$$\\":13834,"Ġagencies":13835,"terms":13836,"Ġ```":13837,"Ġopens":13838,"Period":13839,"Ġsurgery":13840,"LC":13841,"Delay":13842,"OLD":13843,"enny":13844,"192":13845,"Ġcoronavirus":13846,"ounded":13847,"Reset":13848,"ĠPS":13849,"ells":13850,"Ġdrawing":13851,"OutputStream":13852,"clock":13853,"Ġtom":13854,"Ġnonzero":13855,"asts":13856,"Ġvisited":13857,"ĠMaterial":13858,"Ġresulted":13859,"hor":13860,"Ġtip":13861,"Ġbreaks":13862,"Ġemotional":13863,"pler":13864,"Ġha":13865,"Ġdictionary":13866,"ĠBan":13867,"Resp":13868,"Enable":13869,"Ġintroducing":13870,"earing":13871,"ENV":13872,"ĠMeV":13873,"Ġinduces":13874,"ACCE":13875,"Ġcausing":13876,"Ġbug":13877,"kernel":13878,"Ġdates":13879,"Ġdetermination":13880,"dst":13881,"eyl":13882,"Similarly":13883,"ĠEth":13884,"Ġsurprise":13885,"sure":13886,"walk":13887,"Ġtrading":13888,"ĠSir":13889,"RECT":13890,"Ġlifetime":13891,"Missing":13892,"strip":13893,"Ġplastic":13894,"fff":13895,"Snapshot":13896,"agues":13897,"ssl":13898,"ĠDiag":13899,"Series":13900,"itro":13901,"Der":13902,"106":13903,"extensions":13904,"Ġconcert":13905,"lyn":13906,"Ø±":13907,"Mut":13908,"secondary":13909,"ĠRog":13910,"Ġeffectiveness":13911,"Ġuri":13912,"Ġvm":13913,"Ġyounger":13914,"lfloor":13915,"Ġverified":13916,"DATE":13917,"Ġstake":13918,"encoding":13919,"ĠSon":13920,")|^":13921,"Ġox":13922,"Ġawarded":13923,"degree":13924,"Ġinsights":13925,"Ġyards":13926,"Ġfitted":13927,"protect":13928,"ĠMinnesota":13929,"ĠSize":13930,"Ġexpanding":13931,"Ġsegmentation":13932,"Ġcomposite":13933,"240":13934,"Tex":13935,"logging":13936,"respons":13937,"Ġbag":13938,"ĠTheatre":13939,"RET":13940,"correct":13941,"ĠKent":13942,"Ġdeployment":13943,"Win":13944,"ĠBeh":13945,"ĠTEST":13946,"Ġblank":13947,"Ġaddressed":13948,"ĠAC":13949,"Ġlob":13950,"chunk":13951,"Vec":13952,"Ġneuro":13953,"IMIT":13954,"ĠIC":13955,"iously":13956,"Ġ\"'":13957,"Ġeducational":13958,"Machine":13959,"Ġfeaturing":13960,"goog":13961,"David":13962,"1979":13963,"pixel":13964,"hour":13965,"gp":13966,"ĠVill":13967,"brand":13968,"Ġultr":13969,"213":13970,"itter":13971,"ĠPod":13972,"cursor":13973,"ĠÑģ":13974,"Ġspoke":13975,"Ġcalibration":13976,"ĠWARRANTIES":13977,"Ġwebs":13978,"ubs":13979,"je":13980,"yard":13981,"Ġmaintenance":13982,"Ġentr":13983,"Ġexploration":13984,"appoint":13985,"generator":13986,"Ġconsecutive":13987,"filled":13988,"away":13989,"Updated":13990,"AMP":13991,"=%":13992,"Ġ/*!<":13993,"RAME":13994,"pid":13995,"navigation":13996,"ĠAnth":13997,"Ġstrip":13998,"Ġcommunications":13999,"Ġjs":14000,"ĠStaff":14001,"squ":14002,"Har":14003,"ĠAgency":14004,"Ġboxes":14005,"Such":14006,"FNGL":14007,"/\">":14008,"Å¡":14009,"Pixel":14010,"nsylvania":14011,"Ġclouds":14012,"ĠMu":14013,"Ġunexpected":14014,"ioned":14015,"Ġdesigns":14016,"Ġdollars":14017,"Ġenumer":14018,"aska":14019,"Ġdissip":14020,"\":\"":14021,"KG":14022,"tainment":14023,"Ġthermod":14024,"Ġunstable":14025,"ĉĉĉĉĉĉĉĉĉĉ":14026,"ĠKong":14027,"proved":14028,"\">(":14029,"ĠĠĠĠĠĠĠĠĠĠĠĠĠĠĠĠĠĠĠĠĠĠĠĠĠĠĠĠĠĠĠĠĠĠĠĠĠ":14030,"Ġhonor":14031,"\\|_{\\":14032,"Ġsuspect":14033,"Ġhierarchy":14034,"Ġlogical":14035,"Ġlatent":14036,"pref":14037,"ĠSR":14038,"Bi":14039,"orry":14040,"Ġnearest":14041,"choice":14042,"Ïĥ":14043,"cu":14044,"bone":14045,"tures":14046,"ĠSupreme":14047,"etric":14048,"ĠTal":14049,"Ġneighbors":14050,"rfloor":14051,"rock":14052,"Ġconclusions":14053,"anz":14054,"Ġcanvas":14055,"EY":14056,"ĠImmutable":14057,"Ġvoters":14058,"Bad":14059,"appings":14060,"Ġsupplement":14061,"Ġactors":14062,"Ġdetermining":14063,"Ġtrials":14064,"ĠSaint":14065,"Ġvelocities":14066,"Ġparticipate":14067,"1981":14068,"Ġcrystal":14069,"UCT":14070,"bury":14071,"Ġcb":14072,"multip":14073,")!":14074,"Anim":14075,")*":14076,"ando":14077,"ĠDead":14078,"Ġanomal":14079,"Android":14080,"Mean":14081,"rell":14082,"Ġannotation":14083,"âĢĭ":14084,"ĠNick":14085,"rpc":14086,"Tile":14087,"ĠHandle":14088,"Ġreaching":14089,"ĠComponent":14090,"Ġconservative":14091,"Ġinnovative":14092,"Tri":14093,"eclip":14094,"ĠWis":14095,"Ġmigration":14096,"itecture":14097,"108":14098,"proc":14099,"Ġreact":14100,"ĠLatin":14101,"Geometry":14102,"Ġhomomorphism":14103,"references":14104,"fluid":14105,"elcome":14106,"fun":14107,"ĠDR":14108,"ĠRos":14109,"Ġentanglement":14110,"BUFFER":14111,"ĠFord":14112,"]^{":14113,"Primary":14114,"atom":14115,"Separ":14116,"Ġreply":14117,":'":14118,"Ġfunctionality":14119,"Ġpc":14120,"elle":14121,"Ġwriters":14122,"eto":14123,"Ġacceleration":14124,"ĠTry":14125,"fm":14126,"sex":14127,"ĠRyan":14128,"Christ":14129,"ĠWithout":14130,"ĠResp":14131,"eren":14132,"abstract":14133,"'}$":14134,"bigskip":14135,"Ġformalism":14136,"ĠElizabeth":14137,"ĉĉĉĉĊ":14138,"history":14139,"Ġgoto":14140,"GEN":14141,"Ġcentered":14142,"django":14143,"================================================================":14144,"Ġtalks":14145,"ĠNative":14146,"urities":14147,"links":14148,"Ġefficiently":14149,"Amount":14150,"Ġidentifying":14151,"TERN":14152,"referred":14153,"arters":14154,"noise":14155,"ĠDavis":14156,"Ġsurvival":14157,"(|":14158,"rint":14159,"Ġliteral":14160,"cls":14161,"Ġreform":14162,"ĠAmong":14163,"efficient":14164,"ClassName":14165,"Ġdestroyed":14166,"UAL":14167,"}|^":14168,"ĠKn":14169,"117":14170,"BOOL":14171,"ASS":14172,"OFF":14173,"Ġgrown":14174,"lot":14175,"License":14176,"ĠBC":14177,"ĠPa":14178,"elescope":14179,"0001":14180,"Ġacquisition":14181,"making":14182,"live":14183,"Ġdose":14184,"slot":14185,"outing":14186,"Ġlisting":14187,"}}}$":14188,"Ġpotentials":14189,"ĠHD":14190,"Reason":14191,"Ġ$-$":14192,"Ġreceives":14193,"Ġmembership":14194,"labels":14195,"ĠCountry":14196,"Ġinstability":14197,"ĠFinancial":14198,"ika":14199,"Ġages":14200,"Ġcarefully":14201,"eclipse":14202,"ĠBH":14203,"Ġtrav":14204,"ĠOx":14205,"imedia":14206,"Ġobtaining":14207,"ĠDefine":14208,"Ġselling":14209,"Ġaveraged":14210,"Ã±":14211,"Ġteen":14212,"Ġtrim":14213,"Packet":14214,"ĠLI":14215,"geometry":14216,"Ġrequiring":14217,"ternoon":14218,"represent":14219,"Ġelections":14220,"107":14221,"Expect":14222,"ĠCOL":14223,"Ġsuffices":14224,"Ġpenalty":14225,"ĠEastern":14226,"Ġocean":14227,"Ġfifth":14228,"âĸ":14229,"Ġasymptot":14230,"Ġmachines":14231,"Ġsubmitted":14232,"Ġads":14233,"Dependency":14234,"hh":14235,"estyle":14236,"Ġvir":14237,"Ġstrategic":14238,"Ġmixture":14239,"Ġexcitation":14240,"Changes":14241,"ĠSpecifically":14242,"same":14243,"ĠModule":14244,"Ġpurely":14245,"Gate":14246,"Ġlift":14247,"Ġrelaxation":14248,"reduce":14249,"Ġhistoric":14250,"ocy":14251,"atable":14252,"ASH":14253,"Ġ\"${":14254,"Ġepisodes":14255,"Associ":14256,"TRAN":14257,"addClass":14258,"}=(":14259,"four":14260,"defer":14261,")}=":14262,"Extensions":14263,"Ġcosmic":14264,"Ġnormally":14265,"ĠSurvey":14266,"ceived":14267,"Ġweapons":14268,"cpu":14269,"flu":14270,"ĠMI":14271,"ĠPublished":14272,"Ġ{%":14273,"Ð·":14274,"GIN":14275,"ĠPrince":14276,"ulum":14277,"Ġconvention":14278,"phia":14279,"Ġimagine":14280,"Ġshapes":14281,"being":14282,"}\",":14283,"ĠFall":14284,"ĠChapter":14285,"Ġboson":14286,"rient":14287,"raq":14288,"Ġencourage":14289,"ĠNewton":14290,"positive":14291,"Cart":14292,"ĠDam":14293,"geo":14294,"Ġposit":14295,"Ġputs":14296,"cers":14297,"into":14298,"Ġwine":14299,"Ġsampled":14300,"ĠCarlo":14301,"ĠBritain":14302,"Ġvoting":14303,"hskip":14304,"Ġsuperconduct":14305,"PROJECT":14306,"Ġintegrals":14307,"Ġtends":14308,"abling":14309,"letion":14310,"Ġtd":14311,"temperature":14312,"don":14313,"ĠSUMMARY":14314,"Ġintention":14315,"Special":14316,"'},":14317,"appy":14318,"Ġsink":14319,"repository":14320,"cmp":14321,"ennes":14322,"ĠJson":14323,"Ġtelling":14324,"\\,.":14325,"hus":14326,"Ġdependency":14327,"phrase":14328,"Ġavailability":14329,"Adv":14330,"144":14331,"Ġwonderful":14332,"phan":14333,"Ġtitles":14334,"Emit":14335,"heading":14336,"features":14337,"ĠEdition":14338,"supervised":14339,"Ġhomot":14340,"egas":14341,"ĠMust":14342,"esterday":14343,"Ġmarks":14344,"Ġgrap":14345,"orous":14346,"ĠHave":14347,"thin":14348,"ĠLE":14349,"ĠLorentz":14350,"Äģ":14351,"aco":14352,"Expl":14353,"})_{":14354,"ĠYet":14355,"Bs":14356,"$--":14357,"Ġentertainment":14358,"Ġtrick":14359,"maj":14360,"ĠHou":14361,"eyond":14362,"fragment":14363,"tuple":14364,"Ġcyber":14365,"Ġhouses":14366,"exact":14367,"multiple":14368,"Ġbanks":14369,")<":14370,".(":14371,"}&\\":14372,"Instruction":14373,"äº":14374,"teness":14375,"ÃĤ":14376,"Ġwestern":14377,"Been":14378,"Ġcoffee":14379,"Ġhappening":14380,"bundle":14381,"pmb":14382,"verify":14383,"annotations":14384,"iry":14385,"vi":14386,"Ġshifts":14387,"ĠSummer":14388,"Ġextraction":14389,"nl":14390,"************************************************************************":14391,"ĠClark":14392,"Ġreactions":14393,"Deep":14394,"getString":14395,"Ġsinger":14396,"Ġbear":14397,"ĠPsi":14398,"Ġparad":14399,"Ġincoming":14400,"Ġobservables":14401,"Ġcontrovers":14402,"glyphicon":14403,"Ġlimiting":14404,"meas":14405,"ĠExpression":14406,"transp":14407,"ĠDemocrats":14408,"AX":14409,"KL":14410,"Ġjudge":14411,"ĠBoy":14412,"ĠRh":14413,"ĠMiller":14414,"Ïģ":14415,"...)":14416,"ĠHAL":14417,"gression":14418,"ĠLP":14419,"ĠBrand":14420,"ĠConserv":14421,"ĠStation":14422,"Ġsyntax":14423,"Ġevident":14424,"ĠInteg":14425,"samples":14426,"adients":14427,"RESULT":14428,"Ġeverywhere":14429,"ĠVALIGN":14430,"Ġ'_":14431,"adelphia":14432,"Ġrecognize":14433,"}_+":14434,"Ġformulas":14435,"ĠMill":14436,"Ġpicked":14437,"Ġcontemporary":14438,"Ġregulations":14439,"rat":14440,"CCESS":14441,"Feed":14442,"ressions":14443,"Ġviolation":14444,"/_":14445,"FLAG":14446,"))$.":14447,"orer":14448,"Ġstrange":14449,"locale":14450,"Ġopposed":14451,"Ġhyperbolic":14452,"ashes":14453,"Metric":14454,"ĠIF":14455,"addle":14456,"Ġsad":14457,"etition":14458,"+|":14459,"ĠToronto":14460,"Optional":14461,"ĠEmer":14462,"hyp":14463,"Ġathlet":14464,"Ġoutper":14465,"cx":14466,"ĠCam":14467,"acl":14468,"Ġadapted":14469,"Ġfolder":14470,"HOUT":14471,"Ġmagazine":14472,"Ġnumerically":14473,"Grad":14474,"adoc":14475,"Mich":14476,"Disk":14477,"ĠIns":14478,"STM":14479,"GT":14480,"ĠFO":14481,"Ġfer":14482,"Ġproportion":14483,"Ġillegal":14484,"hist":14485,"Ġdress":14486,"Ġparagraph":14487,"Ġpayments":14488,"(\"#":14489,"DED":14490,"ipsch":14491,"ols":14492,"æķ":14493,"ellect":14494,"added":14495,"Ġincrement":14496,"Ġauthentication":14497,"Ġ(#":14498,"Ġsitting":14499,"Ġheavily":14500,"ĠImages":14501,"Ġimg":14502,"Ġlengths":14503,"Ġ//!":14504,"ĠNull":14505,"Ġfruit":14506,"ĠBand":14507,"Ġloops":14508,"Ġmuseum":14509,"Ġpulled":14510,"Kit":14511,"Ġheads":14512,"United":14513,"ĠAk":14514,"Assembly":14515,"Ġsuperv":14516,"Ġsep":14517,"Ġemerging":14518,"Ġsteel":14519,"Literal":14520,"Ġfinger":14521,"respectively":14522,"Ġcached":14523,"esting":14524,"ĠDer":14525,"dn":14526,"{[":14527,"SB":14528,"ĠOfficer":14529,"Ġdiseases":14530,"Ġprominent":14531,"ĠInf":14532,"Deprecated":14533,").}":14534,"astro":14535,"regon":14536,"het":14537,"relax":14538,"Ġarmy":14539,"Ġtsd":14540,"HH":14541,"adesh":14542,"ĠAvenue":14543,"timestamp":14544,"Ġconjecture":14545,"Present":14546,"ĠURI":14547,"Ġbon":14548,"Modified":14549,"ĠSingle":14550,"('<":14551,"Ġtiming":14552,"continue":14553,"similar":14554,"Ġinvariance":14555,"Ġmapped":14556,"ĠMaybe":14557,".[":14558,"scala":14559,"pal":14560,"Visual":14561,"ateral":14562,"Ġarises":14563,"works":14564,"finement":14565,"BASE":14566,"]_{":14567,"Contract":14568,"Ġguidelines":14569,"Ġtangent":14570,"ĠLevel":14571,"Ġgenerality":14572,"\\}}":14573,"Ġ$[\\":14574,"ĠMagazine":14575,"ugar":14576,"idity":14577,"centerline":14578,"220":14579,"Azure":14580,"React":14581,"ĠEN":14582,"Ġsav":14583,"ordon":14584,"ĠRelease":14585,"renewcommand":14586,"Ġstrike":14587,"leftrightarrow":14588,"arding":14589,"mr":14590,"ĠBasic":14591,"Ġhero":14592,"ethe":14593,"ĠOK":14594,"ĠImport":14595,"Algorithm":14596,"UBLIC":14597,
[...]
