#version: 0.2
Ġ Ġ
ĠĠ ĠĠ
Ġ t
i n
e r
Ġ a
o n
h e
r e
a t
e n
o r
s t
Ġt he
a n
i t
Ġ c
a l
Ġ s
a r
e s
e d
Ġ o
Ġ w
Ġ f
i s
in g
i on
ĠĠ Ġ
Ġ p
n d
l e
ĠĠĠĠ ĠĠĠĠ
o u
Ġ b
i c
Ġ in
Ġo f
a s
r o
Ġ m
Ġ d
Ġa nd
Ġt o
e t
en t
c t
Ġ h
e l
i l
a m
o m
Ġ re
Ġt h
Ġ n
Ġ S
i d
â Ģ
Ġ C
Ġ T
Ġ l
o l
u r
c e
Ġ A
u t
ĠĠĠĠ ĠĠĠ
Ġ e
at ion
a d
i m
Ġ (
o t
i v
i g
s e
c h
Ġ g
Ġ I
Ġ M
a y
Ġ =
u l
a g
o w
t h
o d
Ġf or
Ġ is
er s
i f
u n
ĉ ĉ
< /
Ġ st
Ġ P
Ġ on
l y
e m
u s
= "
Ġb e
Ġ v
) ;
Ġ B
i r
a c
at e
p e
it h
i st
u m
- -
a b
t er
Ġ {
o c
a v
Ġ D
Ġ R
Ġ <
u e
a p
2 0
Ġ H
Ġc on
v er
t r
ĠĠĠĠĠĠĠĠ ĠĠĠ
e w
Ġth at
Ġa s
Ġ F
Ġw ith
/ /
es s
an d
as s
Ġ L
o p
h t
Ġ *
Ġ N
Ġ W
ou r
Ġw h
re s
Ġa l
Ġa n
Ġ y
or t
am e
e x
âĢ Ļ
Ġ G
Ġ E
ct ion
Ġp ro
Ġ it
a in
u b
p t
Ġ "
e st
r i
il l
o s
ĠT he
č Ċ
en d
Ġd e
it y
Ġ r
k e
ro m
er e
Ġw as
ag e
Ġ }
m ent
o re
Ġc om
Ġc l
u p
Ġa t
ar t
" >
q u
Ġe x
Ġ or
Ġb y
e ct
p l
al l
i es
Ġ O
n t
Ġ J
in e
l d
Ġ he
o g
iv e
1 9
ac k
p ort
Ġa re
an t
Ġth is
ĠĠĠĠĠĠĠĠ ĠĠĠĠĠĠĠĠ
ur n
. .
( )
Ġf rom
ĠĠĠĠ Ġ
Ġs e
u d
Ġ âĢ
c l
* *
ig ht
an s
i z
i al
a st
u re
Ġt r
u st
ul t
c on
Ġ U
ar d
r ou
p er
Ġc h
0 0
an g
Ġ $
b er
o v
e f
ab le
a ct
t urn
i p
ou t
av e
s p
Ġs h
y pe
= =
Ġn ot
Ġ if
o st
or m
a re
g et
f f
ar y
Ġcl ass
-- --
i b
el l
in d
Ġ '
ex t
at ed
i a
c om
od e
a k
i re
Ġw e
o k
Ġ K
Ġ le
or d
' s
T he
i le
Ġp l
Ġy ou
ic e
as e
in t
at h
a ce
id e
e ar
on g
ion s
I n
or k
ub l
l i
ĠI n
ic h
ĠĠĠĠĠĠĠĠ ĠĠĠĠĠĠĠ
Ġ j
ou ld
im e
ig n
at a
Ġ V
Ġ -
Ġh ave
st r
ĠS t
ic al
e p
a il
Ġn ew
Ġh as
Ġin t
j ect
c c
er v
Ġre turn
an ce
20 1
Ġ us
Ġa d
Ġ //
Ġa b
Ġc an
g e
o b
en ce
on e
Ġcom p
âĢ Ŀ
ĠT h
Ġal l
e v
ubl ic
Ġ u
Ġ k
f orm
it e
Ġh is
p ro
e c
al ue
th er
il d
or y
Ġ &
- >
) ,
on t
en s
Ġcon t
res s
ou s
: :
Ġa r
Ġ </
Ġ un
it ion
ation s
Ġ im
ent s
oc k
Ġw ill
) .
s o
Ġ [
ĠC h
he n
u g
e g
er t
l l
a ch
ĉĉ ĉĉ
Ġre s
en c
.. /
re f
our ce
Ġa p
om e
d u
el f
Ġ @
ro w
i an
r a
Ġb ut
S t
r y
" ,
Ġo ut
ul l
Ġwh ich
un ction
o ok
Ġd o
Ġthe ir
Ġ up
ow n
in k
q ue
Ġg o
is h
c ri
g h
ar k
Ġ /
u al
ou nt
ou nd
ar am
i ew
a ke
or s
pt ion
t e
m er
ic k
Ġw ere
Ġp r
re e
o se
Ġ Y
ĠâĢ ľ
( "
1 0
d iv
( );
m l
Ġ |
Ġ en
Ġst r
s s
ir st
Ġon e
o ol
h er
Ġthe y
Ġm e
Ġm ore
c he
f er
ess age
iz e
n e
p le
E x
Ġd is
c k
ing s
Ġ \
ter n
Ġe v
Ġp er
s et
Ġal so
Ġg et
Ġ Ċ
Ġwh o
ic t
p s
cl ud
i el
r it
Ġm an
in al
f t
sp an
er y
tr ing
Ġp ublic
Ġ +
> </
---- ----
et h
' ,
Ġp art
p ut
Ġ .
Ġn ame
le ct
20 0
c re
ol l
at es
y st
Ġa g
p r
a w
p h
Ġit s
ay s
Ġs o
s h
ol d
el y
Ġt e
iel d
** **
Ġw ork
Ġh er
pe c
l o
Ġ* /
> <
Ġy ear
f ter
at er
n g
w e
en er
ĠI t
t y
Ġab out
E R
Ġo ver
Ġde f
1 8
a x
== ==
Ġs u
Ġh ad
Ġl i
i o
Ġp re
nd er
Ġ :
../ ../
Ġbe en
er r
Ġn e
is s
ĠâĢ ĵ
w o
ĠU n
u se
ĠH e
20 2
o id
Ġs p
Ġs et
ĠĠĠĠĠĠĠĠ ĠĠĠĠĠĠĠĠĠĠĠ
Ġv ar
pe ct
yst em
on s
Ġo ther
Ġ ro
Ġf unction
r am
que st
i e
Ġt ime
i x
y s
o int
l es
Ġf irst
c o
P ro
at ch
( '
ic s
ĠĠĠĠĠĠĠĠ Ġ
ou n
er m
ĉĉ ĉ
an c
Ġw hen
O N
ht ml
he d
I N
Ġy our
v el
Ġ #
th is
Ġof f
Ġcom m
n ame
ation al
ig h
Ġs a
T h
Ġd es
N ame
ad e
Ġp e
op le
1 2
Ġs up
em ber
on d
v e
Ġh ref
b ject
ap p
ov e
ar g
Ġas s
Ġan y
_ _
Ġad d
ang e
rou p
Ġint o
rou nd
ar ch
if ic
i ed
s ource
u ild
ĠA r
ke y
re at
Ġpl ay
Ġt ype
m essage
Ġs c
T ype
) )
R e
am es
al s
Ġth ere
Ġo ur
: //
Ġth an
Ġre c
tr ans
Ġin ter
e b
ĠC om
ur re
at ic
p aram
im port
Ġw ould
o y
n ing
Ġin clud
R E
i ous
f ig
Ġ end
en g
Ġthe m
Ġc ol
Ġ qu
S tring
r ay
at or
Ġa cc
ol og
t o
r ap
al se
Ġk n
I d
is e
Ġs ome
l ation
Ġv alue
Ġa ct
le ment
t d
od el
i ent
p os
Ġd ata
Ġt wo
am p
as ed
t t
re turn
Ġ= >
u ct
c ode
C on
# #
Ġo p
Ġn o
Ġs he
o ot
1 6
as h
ĠP ro
d d
l ock
it ies
ĠTh is
cri pt
at ive
n er
Ġ el
Ġf e
or ld
id ent
con t
Ġin d
u es
C ont
Ġb et
u nd
Ġc o
ĠN ew
Ġre g
Ġa fter
/ >
le t
it ed
Ġon ly
v ent
w ard
Ġs elf
al ly
S T
Ġpe ople
um ber
ut e
Ġtr ans
C h
eth od
at ing
ar s
1 1
re ad
Ġu nder
C om
A T
Ġli ke
Ġsa id
Ġa m
Ġa c
rou gh
l and
iv ers
Ġ !
Ġs ub
em ent
Ġb ack
l ine
Ġpro v
Ġe m
âĢ ĵ
Ġ| |
1 5
t on
an k
re d
ire ct
s on
c ol
Ġ i
erv ice
a ult
ad d
ur ing
" />
m s
Ġcon s
I D
Ġl ine
Ġst ud
R es
Ġin v
er n
ĠS e
o x
Ġf il
c ess
il ity
ac he
an n
e k
ver y
ul ar
ce ption
Ġc all
al e
it s
ut h
t ype
Ġu se
Ġs pec
a z
ic es
ow er
Ġm ay
ht t
Ġre m
r u
cl ass
Ġp os
y n
an y
urre nt
Ġwh at
d ef
t s
f o
le ction
L ist
Ġm y
C l
Ġ _
u res
Ġcon st
ĠT r
p on
it le
Ġj ust
O R
c a
Ġor g
in s
Ġh ow
oc ation
Ġre l
mer ic
l ed
Ġth rough
trans lation
ib le
ot h
Ġ= =
A R
con d
Ġm ost
w n
o od
Ġres ult
or g
ĠS h
ĠA l
ou gh
r ic
A r
.. .
Ġwh ere
as k
Ġ ent
um ent
ag es
ĠR e
i er
ers ion
il y
a h
Ġn ull
tr ib
Ġin st
L E
ut ion
Ġpro du
qu ire
3 0
b le
t ing
iv ate
ad er
Ġb r
a ir
f l
is hed
pl ic
re n
ment s
Ġv oid
c ed
w w
enc es
19 9
Ġd if
Ġp ol
if e
f ul
oll ow
v iew
f ore
Ġne ed
ch ool
1 7
m an
as on
) :
ĠA n
Ġp h
2 5
Ġh im
in es
Ġt est
ĠW e
res ent
1 4
Ġus ed
s elf
m in
b ack
Ġyear s
E N
ĠC l
Ġst art
at ure
A L
d er
Ġat t
s er
Ġf l
y m
"> <
ers on
Ġc re
id er
T r
d ay
rap h
ist s
Ġthe n
o f
or n
ĠE x
I t
y le
h ip
Ġthe se
âĢ ľ
Ġag ain
e y
Ġsh ow
oc al
v al
) );
Ġch ar
at t
Ġtr ue
we en
um m
is ion
od y
1 3
Ġ >
o le
in ce
. âĢĿ
str ing
Ġsh ould
Ġ `
ot her
Ġf alse
ab el
Ġfor m
ĠW h
c ent
Ġg r
Ġsu ch
in ed
p ress
iv er
Ġw ell
oc i
re am
Ġc ould
Ġf inal
Ġel se
00 0
ĠA meric
al th
**** ****
ĠĠĠĠĠĠĠĠĠĠĠĠĠĠĠĠ ĠĠĠĠĠĠĠ
Ġ Q
et s
iz ed
u ff
Ġl ong
" );
Ġd r
av a
-------- --------
Ġ err
b r
ou se
ar get
ĠC on
ĠĠĠĠĠĠĠĠ ĠĠĠĠĠ
eng th
it t
' t
p re
Ġv al
Ġf ollow
S e
ant s
form ation
b s
Ġs er
Ġl ist
T o
per ty
t ext
Ġn ow
o ver
w ay
i k
b e
Ġbet ween
Ġ )
ce pt
Ġ Z
t he
R ef
r r
Ġe ff
ivers ity
S S
o h
m a
d ata
i ence
ĠI nd
a ction
v ar
y p
ĠD e
Ġs ign
u ch
Ġm ake
tern al
iv es
g ram
ak ing
Ġhe l
V alue
Ġr ight
cc ess
D ata
Ġar t
Ġbe ing
Ġman y
are nt
Ġb l
c es
Ġsup port
Ġe very
ro l
Ġh igh
Ġ ed
Ġf ound
// //
ĠA nd
Ġm in
et er
olog y
Ġdif fer
Ġbe fore
Ġs ystem
Ġm on
Ġ id
Ġd ist
ĠA s
Ġwh ile
r al
Ġkn ow
Ġ --
A N
en se
n b
C ol
Ġs m
us s
ot t
Ġn umber
u le
a j
Ġm ed
or th
5 0
Ġte am
Ġs ur
==== ====
u c
Ġg ener
Ġd et
d ate
tr y
w ork
Ġc ase
b y
ro ll
I T
are d
" )
Ġd id
op t
3 2
Ġre ad
he ck
ĠF or
ĠL e
vel op
Ġre sp
Ġ/ **
at us
v alue
in ess
Ġl ast
Ġl ook
Ġde velop
Ġm ade
is m
id th
ch n
Ġr un
_ {
ot e
Ġe ar
if y
Ġstr ing
it al
ĠĠĠĠ ĠĠ
202 2
C T
E n
ĠS c
s c
Ġh and
r ight
im es
p x
Ġf am
ĠC ol
Ġev en
nb sp
ath er
Ġex per
Ġp oint
ain s
Ġs erv
S E
b ers
ca use
Ġdo es
Ex ception
ĠY ou
] ;
pl ay
Ġo per
Ġpr ivate
S et
Ġd uring
Ġw orld
n ew
ĠĠĠĠĠĠĠĠĠĠĠĠĠĠĠĠ ĠĠĠĠĠĠĠĠĠĠĠĠĠĠĠĠ
Ġ// /
t est
ist er
Ġse e
Ġbe cause
2 4
Ġc oun
g er
Ġde c
e le
ro ss
e ver
ĠI s
ro id
19 8
if ied
umm ary
Ġ& &
ess ion
Ġc ent
al k
l ob
f or
H e
f ile
ĠR es
p ar
t il
Ġex t
U n
O bject
B y
Ġw ay
Ġs im
ĠF r
enc y
Ġth ree
am ple
( $
W h
l er
rr or
Ġa v
Ġb el
, âĢĿ
. "
t en
Ġo wn
p p
Ġc urrent
ĠP h
Ġe ach
Ġst ate
iv ing
D E
Ġm od
Ġd own
iz ation
ap t
Ġhel p
ĠP l
Ġb o
re m
Ġst atic
m ed
ate g
Ġb oth
Ġ! =
us iness
Ġg u
} ,
Ġc or
Ġb uild
l og
Ġs ame
in a
Ġm em
Ġv ery
1 00
f ace
ĠS tring
A t
M E
Ġp ass
] ,
G et
() .
l ocation
ical ly
Ġre le
A n
Ġ %
ĠI f
us h
ou th
Ġm ark
Ġre port
ur y
com m
Ġim port
Ġse cond
Ġd irect
ar m
lo ad
Ġm ov
Ġth ose
ind ow
at s
b all
Ġcomm un
C O
Ġ x
Ġre quire
ag er
T est
Ġc ar
se arch
Ġus ing
uth or
re g
f r
Ġf ind
b ar
ual ly
ur al
Ġw rit
ĠâĢ Ķ
r on
Ġre p
Ġle ad
. ,
ĠUn iversity
I nd
Ġ key
ĠCom m
Ġch ild
Ġw ant
ĠP r
iss ion
' )
it em
oc ument
i ev
pt ions
t ime
ord er
n ot
() );
Ġcont in
re ak
um n
ĠM ar
2 2
Ġg ame
Ġo bject
O n
n ess
Ġap p
. _
S h
ĠO n
iv en
Ġs l
b ut
p ace
s ize
Ġp at
A s
I m
le ar
Ġin formation
Ġgo od
ak es
in ter
iv ed
Ġh ere
us ic
end s
as es
f ield
Ġm uch
Ġe st
Ġpro cess
ĠâĢ ĺ
r c
ain ing
com e
el s
l ink
u ck
R O
A C
Ġinclud ing
Ġop en
l ist
19 7
4 0
o ad
str uct
ur s
ist ory
ut il
Ġex pect
E rror
Ġm ethod
Ġd on
Ã ©
b o
Ġf r
an e
V iew
Ġv is
Ġagain st
Ref er
Th is
Ġdiffer ent
W e
ĠS he
et y
Cl ass
Ġper form
ĠA d
Ġs ol
htt p
ust om
Ġ X
i um
w h
it or
Ġbe g
g o
s ummary
Ġm ain
Ġt itle
ord s
cri ption
g r
Ġp erson
2 3
ect ed
ist r
p ublic
Ġl ife
Ġto p
Ġo b
al ity
ar n
oh n
[ '
f e
a it
s cript
Ġar g
f unction
op y
Ġprov id
Ġp op
Ġin cre
v en
Ġap pro
" :
Ġf ield
Ġf ile
Ġt ake
ĠAmeric an
Ġev ent
Ġin s
L L
. </
âĢ ¦
g ht
u ro
Ġl ink
Ġwe ek
' );
en n
] .
Ġc are
Ġs ing
Ġpro gram
Ġth ink
le y
n av
Ġm et
om en
j s
ind ex
r ite
Ġst ill
v ir
Ġp ost
o ber
Ġc our
ction s
K ey
ain ed
"> </
F or
Ġ ke
ent ial
Ġg roup
ĠJ an
Ġd el
ur l
6 4
Ġpart ic
w it
2 1
" ;
un e
ĠĠĠĠ Ċ
I ON
og le
ra w
g round
ĠO r
it ions
Ġa round
Ġc r
i or
Ġall ow
ĠE ng
Ġm ust
Ġre ce
I C
ĠB l
Ġm odel
m e
ĠB ut
Ġd ay
Ġdes ign
Ġh tt
ĉĉĉĉ ĉ
ir d
Ġs chool
htt ps
ĠM ay
ro p
Ġa ut
6 0
et work
202 1
le x
ail able
ĠA ll
Ġb ook
Ġgo ver
t op
Ġbe st
() ,
che d
Ġf act
os s
ĠH ow
Ġpl ace
pl oy
m p
id d
Ġhe ad
Ġt ri
Ġn ext
T E
ur ation
ĠB r
a i
l ess
20 20
Ġre f
p or
ill ion
m od
âĢ Ķ
and s
n ment
F ile
v ious
P E
Ġde p
Ġs om
port s
l ing
2 7
{ \
d is
3 3
Ġf in
Ġ/ >
uff er
lob al
Ġle vel
Ġth row
2 8
ĠUn ited
s ub
ĠM an
ect or
! --
m ath
p ath
og raph
ĠU S
Ġpro ject
Ġan n
o ff
Ġap pe
a u
ĠS p
oc ial
T ime
Ġpro t
Ġ ?
it ial
Ġs ince
en e
ack age
pon se
l ang
' ]
Ġeff ect
=" ../../
ast er
ĠA t
Ġc a
Ġl ocal
ig inal
Ġf our
ĠC ent
Ġre quest
ac es
M an
in ation
it er
tern ational
Ġte chn
ĠA ss
Ġ );
A P
Ġcont ent
Ġorg an
ail s
E vent
w are
et a
ac y
ĠB e
Ġad v
Ġe qu
ĠThe y
lect ed
W ith
Ġp res
A dd
av ing
2 6
ord ing
T R
r ist
Ġb usiness
Ġass ert
Ġse ason
Ġchar act
Ġis s
is ed
Ġo ld
um p
m y
Ġle ft
E lement
em pl
' :
ain er
Ġn on
us er
ĠC an
con st
Ġor der
f il
/ *
u ary
Re quest
ĠG r
trib ute
Ġex pl
Ġl aw
Ġtr y
ww w
a ff
ur ity
ul ation
plic ation
A l
m b
Refer ences
L A
P ath
Ġpos s
In fo
Ġs ize
Ġh ome
Ġfollow ing
un c
ĠC ar
our ces
Ġs k
2 9
um er
N ode
ab ility
tr act
u f
oc us
l ish
ĠT e
=" +
g y
T ext
Ġt arget
Ġp ower
F ield
/ **
Q u
ĠJ ohn
w ays
Ġre al
## ##
I nt
Ġmon th
Ġex p
ic y
Ġs ay
or ies
che s
t able
ĠE n
ol v
Con fig
ic le
Ġl a
ide o
Ġfam ily
U R
Ġv iew
ver t
um an
Ġinv est
ug g
em s
ĠN ov
ar i
Ġ z
ep end
ot s
Ġle g
Ġwith out
our n
m d
Ġ$ \
on y
g roup
ition al
st ance
ole an
Ġb ro
at ter
Ġp aram
P l
Ġd em
ard s
Ġhe alth
at ely
Ġan other
Ġp resent
Ġse ver
P aram
ĠT o
Ġe lement
ur ch
ul y
qu ot
Ind ex
Ġre t
ount y
Ġcall ed
E qu
Ġdis c
Ġacc ess
Ġch ang
du ct
N ot
le g
he ad
ut es
Ġsm all
Ġcomp any
in clud
le ft
l ength
vir on
A ll
Ġt ext
M ap
ĠW orld
ib r
iv ely
() )
` `
Ġcre ate
Ġt erm
aj or
ore d
Cont ext
ĠP ol
end ed
D es
Ġc ap
O ver
con om
H E
r ide
A D
Ġoff ic
Ġp ar
a ut
D ef
e qu
St ate
ear ch
if t
Ġstr uct
iv ity
ific ation
Ġst and
ar ge
O r
ĠM ed
ir c
I S
Ġfil m
col or
t a
Ġc heck
ag s
Ġav ailable
ens ion
Ġs ervice
ap i
i ents
Ġerr or
Ġ/ *
Ġm ult
Ġser ies
ĠTh ere
ag ement
v oid
Ġs pe
ic on
Ġwith in
Ġg iven
Ġen g
Ġw in
l abel
ĠC O
Ġ} );
en u
F orm
A S
Ġl og
Ġl ater
ne y
I s
d e
IN G
Ġsu ccess
s ide
t ies
Ġ( !
i am
ĠĠĠĠĠĠĠĠĠĠĠĠĠĠĠĠ ĠĠĠĠĠĠĠĠĠĠĠ
201 8
ok en
end ing
} }
Ġbe h
Ġcons ider
a im
con fig
ou ble
ay out
it ive
ames pace
Ġgo ing
d es
anc es
Ġb ased
Ġb u
u age
Ġf ew
Ġs ays
he s
ou ght
ĠN ational
ĠSt ates
ater ial
Ġkn own
Ġg row
Ġf ull
20 19
Ġg reat
b ed
ward s
al es
ar r
ent ly
ĠN o
ap ache
Ġdef ault
ĠS chool
Ġvar i
pt y
ĠM in
o in
ĠA ug
ass ert
Ġt yp
a f
S ervice
Ġ ident
N ew
c ast
ĠJan uary
Ġch ange
Ġde v
ĠA p
c er
Ġp ath
Ġinter est
end er
Ġus er
F F
m ber
ire d
Ġre search
Ġ et
ĠO ct
ev el
201 6
s w
ĠG u
Ġv ersion
itt le
ĠS ystem
i ans
ut ure
Ġf oot
Ġ-- >
8 0
" "
I G
ight s
st and
201 7
tr ue
A nd
Ar ray
Ġto o
am ed
Ġar ray
Ġo cc
b lock
Ġl oc
Ġh app
ĠW est
ĠY ork
um e
U T
u i
un g
C ode
err or
Ġan al
Ġt urn
Ġm usic
e e
Ġinclud e
iv al
ict ion
Ġb reak
Ġ} ,
Ġg re
ain t
******** ********
read y
Ġun til
Ġre fer
ĠC o
Ġrec ord
Ġle t
Ġn ear
b ody
' ;
a pe
Ġprodu ct
4 5
in c
L O
press ion
ĠSt ate
et ers
Ġre ally
Ġpol it
viron ment
E T
ul es
Ġplay ers
S c
is on
Ġb lock
ob ject
E D
t itle
m ap
ĠI m
ĠA m
ĠR eg
Ġpro m
pl ace
ĠE uro
u k
202 3
Ġpro f
ĠA b
et urn
Ġare a
Ġp ut
p en
yn c
w ord
Ġb ig
b um
d own
Ġst yle
th ing
our s
om an
19 6
ab led
cre ate
i od
Ġre st
Ġ Â
def ine
B uild
Ġs it
in put
//// ////
E S
is k
Ġ __
Ġp o
f rom
il t
ĠD r
ĠE d
er ing
pec ial
ĠA ust
co pe
ĠF l
com p
i que
pro t
" .
res ult
s k
201 5
y l
ĠA pr
S ize
ure d
ĠM arch
Ġa ff
b ox
le ase
re t
Ġgover nment
Ġf ac
Ġl im
Ġ es
Res ult
pon ent
id es
g ress
Ġc ell
Ġcon f
ert ain
e ad
empl ate
d t
ĠC al
H and
ir t
Ġal ong
Ġne ver
ag ue
= '
Ġc ode
O f
} ;
Ġb ase
m odel
at ures
U N
M P
w idth
ĠG et
al f
+ +
Ġcon d
ag n
S ystem
Ġcont rol
f in
Ġadd ress
Â ł
Ġsh ort
M essage
Ġg l
3 5
201 4
pt ember
Ġmem bers
ĠR ep
Ġf ore
ĠS o
p oint
Ġ quest
is ing
ce mber
n ode
Ġ enc
ne ction
od es
Ġpl an
ĠG e
i ke
eth ing
Ġl ess
Ġstud y
ĠS outh
on es
ail ed
It em
Ġw ater
[ ]
per ties
Ġchild ren
v ersion
Ġ= ==
le ge
ĠW ar
Ġ ,
u ed
ĠC ity
ip p
eg in
B ut
ĠC ounty
Ġor iginal
V al
Ġm ajor
Tr ans
st ate
ign ed
ap s
O T
ple ment
ic ro
th ers
Ġo ptions
ion al
b l
Ġear ly
pro v
ur ther
Ġp ay
Ġst ory
at ors
ra ft
Ġbet ter
Ġl ate
um ents
Ġde ath
def ault
Ġc ity
Ġsing le
j ava
b t
on se
n ext
Ġke ep
art ment
Ġj ava
lo at
F il
, "
9 9
Ġsever al
ĠCh rist
ĠC ont
ĠS up
le te
c al
Ġf ree
im ate
ag ed
ĠJ une
Ġm ight
Ġd i
="../../ ../../
li ent
U S
ab ly
S er
Ġresp onse
at form
Ġcom e
Ġw omen
Ġimport ant
ĠW ith
ot o
et ing
Com m
Ġcont ext
Ġcommun ity
Ġcon fig
b ook
ĠIn st
A B
Ġrep resent
Ġim p
ĠEuro pe
am b
U p
M L
ĠF eb
il it
ent ion
P h
c all
in fo
Ġpro ble
Ġof fer
I f
n ect
Ġst at
F rom
ac c
Ġal ways
Ġlink s
Ġd ays
ĠM c
ou d
Ġp ubl
includ e
t es
Ġc ustom
h old
Ġf ri
In ter
Ġpos ition
3 1
Ġse c
ay er
Ġas k
19 5
ĠP art
Ġal ready
ĠApr il
cont ent
Ġ: =
ĠW ill
Ġresult s
l t
201 3
Ġs ocial
A G
Ġcoun try
ref er
ith er
pl es
ib ility
Ġa uthor
Ġv ol
ĠA f
ĠJ uly
Ġdes cri
a ug
ad a
M odel
Ġac ross
Ġw he
ĠA g
O ut
L og
Ġh ard
tr a
Ġ} ;
n ow
Ġs ong
ĠP ar
; &
str u
A p
Ġto t
ĠSe ptember
Ġest ab
Ġind ust
Ġs rc
Ġw on
o ice
Ġc ost
ĠAug ust
ĠOct ober
U LL
Ġs ource
o ke
Ġstud ents
Ġe lect
ĠDe cember
t ings
ĠB o
> &
us ing
9 0
Ġm ar
Man ager
b ase
N A
ĠNov ember
re ate
cre en
F r
Ġex ample
Ġd ocument
ott om
Ġcharact er
ĠN orth
and roid
Ġd ue
il ar
EN T
---------------- ----------------
st art
Ġm illion
id ual
he l
ab or
Ġ ide
Ġs ide
Ġh istory
Ġan t
one y
st er
^ {
pr int
d o
ec ut
ĠB rit
Ġm atch
Ġsom ething
Ġinst ance
ir l
T D
Ġp arent
g t
ĠE l
Ġl ang
Ġspec ial
Ġf und
ol ution
R eg
s l
an a
ĠO ff
Ġth ings
d om
.. ..
op s
s m
201 0
ist or
} \
op h
P r
Ġa ction
op er
ur g
Ġb as
201 2
Ġal bum
ĠS er
ĠM e
Ġl arge
C E
roll er
c ss
Qu ery
3 6
orm al
u x
O D
he m
Ġl ittle
Ġro le
A A
Ġind ex
ĠR ev
C all
Ġcomp let
us ed
Ġfe el
pos ed
Ġm ax
======== ========
Ġpre vious
ru ary
Ġin put
am ent
3 4
Ġc amp
Ġpr act
val id
Ġt em
cont ext
Ġc lear
A d
Ġprov ide
ir th
T able
ed er
ap er
Ġf ar
Ġtr ack
Ġc rit
id s
Ġco ver
ar ing
Ġc ult
Ġcol or
Ġwork ing
ĠTh at
3 7
ab les
Ġe as
ĠD is
ĠG o
Ġt imes
Ġval ues
Ġass oci
201 1
ĠP res
Ġme an
ys is
Ġcl os
Ġyou ng
ad em
ann el
at ri
Ġdevelop ment
ip s
in o
id ence
um b
ĠL ist
Pro perty
Ġm aking
Col or
d oc
Ġh uman
n ers
Ġr ange
c ame
I L
ic ense
3 9
os p
Ġh ost
Ġg ames
Ġp ast
U ser
à ¤
ri or
} )
Ġp age
c y
I P
Ex ternal
Ġexper ience
b ol
Ġw ar
Ġg ot
Ġp ort
re et
Wh at
Ġann oun
Ġm essage
Ġre du
ĠA ct
Ġl ot
n o
D is
h am
0 1
Ġrequire d
Ġfor mer
Ġbe came
ill s
i ef
19 4
Ġmed ia
p ackage
z e
ourn al
y d
i ol
Ġed uc
Ġh ig
og n
Ġex ist
ĠR uss
f alse
un k
Ġr a
Ġam ong
Ġacc ount
ĉĉĉĉ ĉĉ
re l
ĠB y
Ġre view
e h
ĠG erm
se e
Ġem ploy
6 6
Ġp ot
C H
rou ps
ĠC or
ĠHow ever
Ġn il
C lient
Ġto ok
Ġt able
=" ../
ĠĠĠĠĠĠĠĠ ĠĠ
Ġs ite
Ar g
Ġpro perty
co ver
er a
Ġj ob
Ġf ocus
Ġn etwork
re c
Ġb ody
Ġof ten
ĠW hen
Ġserv ices
Ġn ode
Ġbe come
N o
Ġab le
v ers
} $
; </
Ġb ool
at ab
Ġa ir
Ġli k
ibr ary
Ġe p
ĠD es
ĠS et
Ġf ive
go ogle
se c
ip le
ĠĠĠĠĠĠĠĠ ĠĠĠĠ
3 8
ac hed
Ġ Ð
Ġl ove
M A
g ed
Ġle ast
Ġl and
p arent
if ier
Ġf re
er ed
Ġf uture
we b
d b
Ġh ouse
p ly
b uild
b egin
a e
m it
ĠI nt
Ġa way
Ġh old
c ell
T H
Ġd iv
ri ed
Ġin div
Ġ( )
in it
Ġcomp et
Ġto get
st atic
ĠN ot
Ġtoget her
Res ponse
Ġposs ible
ĠAr t
ak en
m ethod
Ġar r
r ation
Ġl arg
H ow
Ġin itial
=" #
ĠAust ral
Ġd om
ac ed
Ġme as
le v
ir m
ĠP er
D e
ith ub
Ġper iod
se mb
act ory
v es
S ub
5 5
Ġin c
Ġt reat
ĠFeb ruary
ig ation
o pe
C ount
un ity
7 0
un ch
Over ride
ĠCom p
Ġl ow
Ġd est
er o
u ation
che ck
Ġbel iev
Ġsign ific
ĠD ep
d ev
ri b
ĠB ar
l ight
Ġcon c
Ġe conom
ther n
cl us
Ġsp ace
ag ing
Ġtot al
R ec
n a
Ġcom b
ix ed
av el
Ġh aving
al t
Ġv ideo
Ġr ad
ĠO ne
ut ions
Ġfoot ball
ĠG ener
il le
( \
M ethod
Ġb order
Ġu nd
it ing
ĠP ark
arg in
Ġback ground
M od
Ġb en
> (
Ġoffic ial
m ax
Y ou
ĠD o
c le
re st
ĠSt ud
Build er
ound s
Ġst d
Ġcl aim
Ġtr ad
Ġsup er
P I
Ð °
ing ton
ĠNew s
Ġc ame
in ary
ĠA fter
m et
Ġm ember
a ul
ar ray
G roup
ĠR ec
n et
Ġindiv idual
Ġth ird
bs erv
ap an
re w
ĠI N
ev ent
opt ion
Ġst ep
s el
y ear
Ġev ents
Ġa ge
g ithub
Ġhtt ps
A M
Ġhtt p
Ġstr ong
E d
m ark
ro du
Ġmark et
Ġexpect ed
ĠD av
Ġwe bs
Ġc reat
itt ed
if f
Ġs ix
id ed
s up
ĠA dd
Ġpartic ular
ĠC oun
ĠAf ric
oc r
Ġc ount
en ame
p art
ill ed
ym bol
Ġl ight
Ġt alk
id ge
Ġk ind
Ġrele ased
Ġpoint s
m ost
V ID
or age
Ġm ove
A ss
stru ction
Ġcour se
ĠThe se
Ġcomm on
w ith
Ð ¾
em pt
7 5
olog ical
im ary
Ġto day
ĠH igh
F l
Ġd one
Ġon ce
ĠQ u
act ive
200 9
Ġme ans
Ġatt ack
im age
Ġn ational
B ar
O P
Ġc al
ĠS m
c il
Ġt re
) </
c ore
ĠS ch
pos ition
f unc
ĠI I
wit ch
Ġg ive
ĠH is
Ġm en
an el
S tr
h and
Ġcre ated
ograph y
ĠK ing
ĠM ark
Ġrece ived
Ġwh y
n amespace
i us
im al
Ġnew s
Ġl ive
ic ation
U til
eg er
se ction
th ough
o on
D ate
st yle
Ġinv olv
G ener
ĠTr ans
Ġstart ed
Ġact iv
Im age
il ities
St ream
Ġand roid
Ġwhe ther
al d
Ġo thers
< !--
im ent
I R
Ġth ough
ĠĠĠĠĠĠĠĠĠĠĠĠĠĠĠĠ ĠĠĠĠĠĠĠĠĠĠĠĠĠĠĠ
n ull
f ect
Ġg en
i res
Ġplay ed
S C
an ch
Ġp ress
ĠCh ar
opt ions
Ġb irth
ell ing
ĠE m
] )
In put
an ies
it es
Ġc oll
Ġs ent
Ġf urther
ĠH ouse
Ġbuild ing
Ġcl ose
ĠT est
Ġth ought
Ġsignific ant
ugg est
ĠM y
Ġse en
m ember
fl u
] (
ĠP e
re quest
a ur
Ġm iss
es e
at ory
b it
d ir
ĠWh at
ĠS tr
Ġs ure
Ġe ver
ft ware
amp ions
Ġbeg in
Ã ¡
Ġm aterial
4 4
ON T
Ġb it
200 8
ist ry
l ib
qu ery
ist ic
Ġab ove
h ib
i et
ĠV al
S P
im um
Ġe ither
ĠN ULL
ĠH ar
ig ital
Ġd ate
ĠU p
cl ient
atab ase
S ource
Ġg lobal
Ġl ength
E X
idd le
n own
Ġhe ld
Ġsim ilar
ĠĠĠĠĠĠĠĠĠĠĠĠĠĠĠĠ Ġ
x y
Ġst op
ad o
C C
is es
min istr
Ġo pt
C ell
Ġrel ations
ĠHe alth
ph p
Ġen vironment
n s
Ġunder stand
l in
St atus
q l
ĠB ro
Ġto wn
ad es
g ing
em ents
r un
o o
Ġdis play
k s
Ġa ud
Y PE
B e
at al
Ð µ
E m
Ġprovid ed
Ġr isk
Ġdoes n
Ġadd ed
Ġinst all
Ġm akes
Ġcontin ue
Ġgener al
ond on
c urrent
av es
Ġres pect
arg s
as ing
E nd
Ġm ap
Ġperform ance
ĠAmeric a
Ġfe ature
d a
Ġs w
Ġdet erm
Ġh alf
Ġen er
g en
ef ore
ĠS ec
row s
Ġen ough
Ġdisc uss
In stance
Ġn ight
F A
ou ch
irt ual
u el
A ct
U E
I M
h as
Ġ< <
oci ety
Ġc ur
Ġc ertain
Th ere
ĠPres ident
Ġpat ients
ĠA c
p ed
Ġmonth s
but ton
ĠĠ Ċ
ĠE ast
4 8
ĠM on
Ġim age
Ġcare er
Ġrele ase
ĠM ich
Ġo ption
0 5
um mer
Ġb i
Ġbo olean
en ed
Ġw ent
ĠCl ass
ec ess
ĠH er
Ġf ood
att le
ic a
p age
am a
O ff
Ġpr int
ĠN e
b ased
ud e
( (
P os
re en
Ġy et
ĠIn ternational
re ct
Ġm om
s y
Ġout put
res p
oc ol
ĠEng lish
T oken
i j
anc ial
Ġinclud ed
Ġpot ential
ĠA ng
Ġindust ry
p ose
e lement
Ġdid n
ĠInd ia
Ġpartic ip
fin ished
Ġch all
ĠIn ter
Ġval id
N ull
ic les
Ġfe atures
fer ence
S p
erv ices
Equ al
O S
E E
ĠJ apan
Ġst atus
Ġind ic
ser ver
Re ad
Ġresp ons
app end
a el
Ġchang es
Ġph ys
j av
Ġn um
Ġv ia
ri es
lo od
ch ild
R un
f ord
00 00
ĠBrit ish
lection s
med i
ateg ory
Ġwebs ite
Ġab s
row n
c ount
Ġm ot
am ples
A ction
Ġf all
Ġ( $
ver age
l im
Ġspec ific
ac ing
ar ter
il es
' re
Ġw idth
ĠCol lege
200 7
Ġ- >
ew ork
ov ed
y les
Ġpubl ished
Ġl o
Ġbeg an
ch ange
Ġop port
id get
t arget
Ġse arch
Ġbu ilt
ren ch
B lock
ak er
e ch
U L
Ġth ing
Ġs uggest
f ic
Ġ" ""
bo ard
ĠCent er
B ase
Ġprodu ction
Ġ+ =
g l
d l
Ġeng ine
iz er
Ġon line
At tribute
Ġwork s
a use
ĠR ed
Ġn amed
Ġt w
Ġreport ed
Ġvis it
Ġpro b
Ġvar ious
he ader
a id
che ma
Ġle arn
al y
ĠS an
v is
Ġcomm and
ar ning
ĠD ef
O per
ilit ary
RE F
ot ype
r ing
N av
Ġim plement
Ġimp act
Hand ler
O L
I V
N S
if orn
ĠS w
H T
Ġf av
L ine
add ing
al ign
A b
se qu
at ural
row ser
Ġm oney
pect ed
Ġcomp anies
yn am
Ġw indow
Ġprot ected
B uffer
eb ug
Cont ent
Ġar ch
pl it
Ġre ason
Com ponent
a ign
Ġl abel
Ġp ur
h ost
n es
0 8
Ġ ens
Ġl oad
t x
Ġshow s
Ġener gy
tr ies
lect or
ĠC our
un finished
O ptions
ce ed
com ing
r ad
ug in
Ġbel ow
Ġc ases
ĠA ir
20 00
Ġlang uage
ĠL ondon
and om
rit er
Ġit em
ry pt
d r
Ġpl atform
ial og
ram ework
6 5
( {
Com p
Ġto ol
Ġtechn ology
ar ies
Ġplay er
AT E
ro y
Ġac cept
iforn ia
ust er
he ight
Ġsub ject
Ġde cl
L ink
semb ly
i ation
ĠD em
Ġt ax
B C
Ġcl ient
200 6
sh ip
Ġin ternational
D O
Ġacc ording
Ġprof ession
P re
Ġadd ition
ĠL aw
ĠPh il
ars er
C K
A pp
Ð ¸
b or
it ute
Ġperson al
Ġc y
Ġcom es
atri x
j son
it te
r is
n ov
St art
Ġc opy
fl ow
ad ata
ĠĠĠĠĠĠĠĠ ĠĠĠĠĠĠ
Ġde al
ens ive
iz ing
k en
0 4
Ġto ld
pl ied
m on
Pro v
Ġneed s
ue st
id ay
ĠBl ack
om et
h ing
un t
Ġben ef
Ġper cent
ph a
Ġam ount
* /
ĠAss oci
st ream
el ine
[ "
Ġt aken
ĠĠĠĠĠĠĠĠ Ċ
ĠA cc
Ġro om
P art
ĠR eturn
ĠRep ublic
ar a
ank s
du c
ach ing
l ished
Ġ ...
ĠM ore
Ġm er
Ġreg ion
Ġcl ub
Ġc atch
ĠCO VID
ab s
Ġm at
ĠL a
F actory
trib utes
0 9
Ġint rodu
m ission
ĠD on
ĠWill iam
ĠG roup
Ġb ar
Ġfr ont
Ġpro te
Ġt ell
i ences
ap ter
Ġpop ulation
N D
Ġm ass
x ml
op en
ell ow
Se e
t ain
Ġiss ues
o e
wit ter
action s
ful ly
Ġres ource
Ġre d
} {
0 7
Ġright s
ĠLe ague
Ġag re
Ġt ask
F unction
pro perty
ĠT V
Ġf ail
Ġst ream
und le
s u
le m
4 9
Ġent ire
W hen
Ġg roups
Ġf ace
Ġo bserv
H el
. )
Tr ue
av en
Ġpolit ical
c ase
_{ \
Ġb and
N O
Ġare as
ĠO bject
Ġbr ing
Ġap plication
ain e
p m
P oint
anc ed
p tr
Ġappe ar
ob ile
G L
l ast
ic ip
Ġthrow s
le an
Ġhow ever
Ġcomp on
Ġlook ing
Ġcomp ut
ĠU K
st atus
Ġproble m
Ġph ot
Ġc red
Def ault
Ġw atch
r l
Ġin j
ĠW ork
Ġquest ion
pecial ly
V ER
h a
L abel
p ost
Ġstr ateg
ch iev
Ġact ually
Ġwrit ten
f ind
M S
i ber
Ġpre d
ampions hip
P ol
f irst
ĠS im
Ġro ad
ĠS en
al let
in ition
Ġf ire
V ersion
Ġin it
Ġr out
A fter
T ER
R A
Ġeff ort
Ġloc ated
Ġbl ack
bt n
or ge
Ġc apt
Ġatt empt
0 6
Ġannoun ced
el t
$ .
Ġsh are
ĠCh ina
W indow
Ġd ouble
i ers
ac ity
Ġm or
0 2
eder al
p ush
St yle
C heck
ĠCal ifornia
ĠG over
yp es
LA SS
am ily
) {
Ġim m
A cc
e q
Ġ Ã
ĠDep artment
Ġv er
ic o
Ġsystem s
Ġc ut
iv il
Res ource
Ġpol icy
Ġqu ick
Ġrec ogn
idd en
str ong
osp ital
ĠM r
T O
Ġe y
ub e
W eb
istr ict
S up
Ġh ours
Ġpop ular
nav bar
ock et
Ġc he
as c
N umber
p ack
app ing
in st
Ġup date
Ġn ov
ĠS k
Ġhig her
ĠO F
ĠO ut
T ask
Ġl ed
Ġinclud es
Ġinst ead
Ġap plic
Ñ Ĥ
5 00
Ġv iol
res h
L ast
and id
ish ing
ĠN one
ĠD irect
g ener
g es
P RO
7 8
ĠInd ian
Ġlead ers
ĠĠĠĠĠĠĠĠ ĠĠĠĠĊ
evel op
epend ent
Ġhe ight
Ġr ate
ele te
w rite
O ne
ĠG L
Ġn eg
Ġim prov
Ġg round
200 5
P age
ch ar
Ġbeh ind
Ġsec urity
Ġh it
Ġman agement
Ġlik ely
" ]
str act
Ġgr ad
Ġag o
at ur
U M
U s
Ġart icle
m eta
F I
pr ivate
ĠW eb
Ġc ou
Ġmult iple
Ġrelations hip
Ġs ex
led ge
Ġdo ing
Ġc irc
Ġpart y
ĠF rom
Ġcurrent ly
b orn
g le
at ives
us es
R ow
ĠI r
mod ule
ĠJ ust
Ġp rior
so ft
av y
// /
ĠD ay
sel ves
wh ere
un n
} .
9 5
Ġal most
c ial
ĠRes earch
Ġse par
Ġv ill
Ġt aking
in ated
Ġr ather
Ġw ords
c el
ĠC ons
s rc
ur b
re quire
im g
Ġsu ff
Ġrec ent
ĠP at
Ġanal ysis
F irst
Ġh om
Ġst aff
am s
b b
Ġan im
0 3
al a
Ġhe art
or ing
Ġ{ @
Ġproduct s
4 7
Ġreturn ed
Ġget ting
end if
p y
ĠN or
ang er
ĠD ata
ĠF irst
Equ als
Ġn ecess
ist ance
} );
ang ed
C reate
in n
Ġse ction
ĠDav id
Ġp ick
Ġp ers
Ġcol umn
$ {
d ated
Ġs ound
h ood
Ġassoci ated
E L
w ise
y nt
ĠH ol
ul ated
Ġeduc ation
Ġl ower
Ġv ot
e es
A meric
Ġs on
he et
ly ing
en ing
ist ics
em ic
Ġs old
ĠSt reet
Ġestab lished
Ġb re
Ġneed ed
Ġ ill
et t
AB LE
Ch ild
Ġf ight
cl ose
s ervice
b ottom
j oy
Ġh istor
st d
ĠS ub
Ġcan not
enc ies
aug h
P C
F ONT
l ayout
Comm and
Ġwh ite
Ã ³
ire ction
ele br
itte e
Ġspec ies
Ġwho le
Ġcomp lete
Ġb ad
s igned
ob j
Ġal ign
Ġint eg
Ġwrit ing
" ).
N ext
l or
Ġw rite
Ġl oss
ve y
f ort
Ġfil ms
Ġiss ue
land s
Ġcol lection
it ution
le vel
use um
Ġtyp es
Ġs at
s g
wo od
Ð ½
ĉ Ċ
Ġh on
r m
Ġtr aining
e ction
Fil ter
il i
Ġrun ning
e ed
ĠCan ada
b f
ch an
Ġ( (
Ġadd itional
Th at
ĠB ook
Ã Ń
cont ainer
form at
Ġm argin
Ġin flu
Ġa chiev
Ġex c
Ġc ross
Ġfor ward
ĠF rench
p c
ĉĉĉĉ ĉĉĉĉ
Ġterm s
ĠI D
Ġd am
v ille
8 8
G r
Ġm ind
R ep
if act
b on
Ġl ost
Ġa verage
Ġdist r
ig ger
Ġcon trib
Ġcont act
4 6
ĠA nt
Ġfri end
Ġl ocation
l en
Ġw alk
pro ject
Ġb ox
D r
Ġincre ase
as cript
id a
l a
ĠP ort
Ġse em
ol ar
B ack
Ġpres ident
Ġin ternal
Ġes pecially
200 4
o z
Ġconsider ed
Ġl iter
Ġch o
#### ####
Ġaut o
Ġcon tract
k nown
ud d
Ġf em
at tr
so le
air s
erv e
D et
Ġdescri bed
Ġform at
ĠD i
R eturn
Form at
om b
ĠEurope an
Ġus ers
Ġcent er
Ġprovid es
ot a
ĠC r
Ġsa f
m t
struct or
Ġup on
c an
Ġdev ice
M et
ĠO f
Ġf ig
Ġr ound
m enu
Ġme et
Ġs ens
Ġdis e
Ġ< !--
Ġs creen
4 2
Ġw ait
p ite
Ġrel ated
" ),
Ġcom ment
Ġelement s
Ġre v
ĠP ublic
Ġcond itions
7 7
Ġt akes
ri ef
se lect
Ġreg ard
P ost
li ke
Ġoff ice
Ġspec ified
Ġext ends
Ġact ive
Ex t
Ġcomp lex
i i
ra z
I O
ach ine
ĠM al
Ġcent ury
Ġstand ard
Ch ar
Ġf a
Ġdef ined
Ġcamp aign
ag o
ĠU s
ĠF il
a a
m em
ã ģ
\ \
it ect
Ġex ecut
d et
ĠE ar
d f
Ġv ict
T P
ĠGener al
( &
ĠJ ames
Ġqu ality
res ponse
S ON
y r
c ing
Ġ url
P er
Ġt our
Ġout side
ent ry
Ġcomp os
//////// ////////
k r
ash ington
enc ed
od ing
Ġcom ing
ed ia
ache s
Ġcoun tries
Ġs us
Ġm id
al ed
y a
Ġex press
as ons
ro om
ĠG od
ĠE X
Ġpol ice
ĠC E
ast ic
ĠP al
fil ter
ind ing
Ġep is
ĠCoun cil
ĠP re
Ġits elf
Ġtr avel
ro te
List ener
ca pe
Ġg irl
Ġser ver
des cription
Ġbeh av
Ġw r
p ng
m ar
B ox
c d
Ġun ique
p o
Ġde g
ĠS ervice
Ġl iving
> >
Ġb orn
i os
Ġa ward
Ġaut om
Ġf ather
Val id
it ch
ĠR em
ĠD istrict
S o
Ġp ack
ĠEng land
ĠAustral ia
Ġst ation
Ġfin ancial
T ag
Ġwork ed
Ġtreat ment
gr ad
m ing
tt p
Ġre ve
az on
ro s
Ġplay ing
ol ve
U I
ĠS ome
Ġn av
iss ions
ĠTe chn
Ġ ]
l ocal
Ġv eh
Cont roller
P e
Ġw oman
in ing
k a
com es
u ate
ĠD el
C L
Ġt im
A ut
Ġwe b
~ ~
uf act
Ġdet ails
ail y
Ġn one
Ġe mer
ĠRe ad
Ġconc ern
ĠP aul
Ġst ates
Ġv irtual
ĠM or
Ġst ri
resp ond
$ ,
Ġst re
i as
Ñ Ģ
Ġm ag
Ġso ftware
ĠC up
T YPE
| -
cre t
C ON
M em
Ġd raw
ref ix
Ġhim self
ec k
ĠP ost
ir it
Ġfil es
Ġh or
Ġoper ation
p ass
v est
Ġdif fic
g n
Ġso on
I Z
ĠH REF
Ġcon duct
o res
Ġb all
_ .
ĠB er
ri but
Ġdistr ict
Ġmethod s
Ġst age
Ġlead ing
Ġa w
Ġbeliev e
in ner
ou l
Ġteam s
u z
Ġh ot
Ġd ied
i qu
ĠR iver
Add ress
B U
fr ac
Ġn ames
ĠD an
B A
T op
jav ascript
cent er
ul ate
ã ĥ
Ġdiffic ult
Ġreturn s
Ġin f
o om
Ġcharact ers
Ġfl ow
rib ution
up date
ĠR ich
j ust
ĠM et
AT ION
Ġdevelop ed
Ġnot hing
Ġd oc
param s
u ge
Ġgo al
Ġst ay
M ode
f oot
ĠAr ch
Out put
ĠE v
Ġ â
Ġstruct ure
Ġs aw
Ġw or
ann ot
Ġgrow th
a res
Americ an
refer ence
Ġs qu
et ic
vent ion
Ġf ul
rem ove
in stance
Ġevery thing
ĠR ober
st on
dis play
Ġcall back
ef ined
But ton
L ength
ĠO pen
Ġen joy
sh ow
ĠTr ump
ĠIn c
ĠC LASS
Ġn ormal
Ġany thing
ĠL icense
ĠY ear
Ġbro ad
ĠB est
Ġserv ed
con s
Ġlong er
Ġdec ision
ĠRev iew
Ġent ry
oy al
ĠGo ogle
Ġlevel s
UR L
he t
Ġsh all
er c
ĠA re
ĠSc ience
Ġbu y
Ġro ck
w in
ĠTh om
V is
T S
Ġg e
ĠF ound
200 1
ĠR E
iz es
out put
id ents
ĠM art
ch o
ĠJ ack
Ġst e
C o
ru pt
u id
p ri
ĠS ing
Ġreg ister
Ġm ilitary
ĠCour t
ill ing
Ġc am
h an
li er
Ġappro ach
Ġpro gress
prot otype
Ġask ed
for ce
ir us
ess ages
R em
Ġmom ent
Ġex cept
H O
Ġde ep
ĠD iv
Ġsim ple
urre n
< ?
Prov ider
: </
ĠY our
Ġre comm
act er
i ant
Ġan sw
ra el
Ġinter face
ĠM od
B l
pr ing
Col umn
Ġst ore
ver se
Ġs n
on ly
p ol
c i
ens ions
8 5
200 3
Ġr ace
ent al
ot al
ĠT ex
Ġcons ist
Ġs il
I F
ĠI S
Ġis n
Ġmin utes
Ġthrough out
ĠT ime
ER R
Ġallow ed
Ġfor ce
Ġse qu
f inal
Ġstud ies
ig in
n umber
Ġs em
ul ations
D o
ĠAssoci ation
f ont
Ġ ir
sp ace
I I
6 7
ed s
Ġd er
ĠH T
Ġpro perties
r ated
U P
Ġreg ular
Ã ¼
ul a
ĠPro gram
Ġbo ard
k it
d el
K E
ĠW ashington
Ġd igital
rou ght
Ġlim it
Ġ! ==
Ġprodu ced
Ġp ain
Ġide a
ĠInst itute
C ache
E nt
erv ed
C A
Ġbook s
Ġad ministr
U rl
icro soft
Ġt en
ĠGerm an
ĠB el
L ayout
Ġres ources
s pec
Ġmov ed
% %
ĠWh ile
Ġcon nection
return s
cent ury
ĉ ĠĠĠ
Ġ[ ]
Ġw ord
Ġse lected
ĠF in
ĠSe e
ĠT HE
Ġprob ably
Ġdesign ed
Ġsome one
Ġinvolv ed
Ġmodel s
Ġte lev
Ġdirect or
ark s
S pec
Ġrefer ence
P O
d ep
Ġh ope
Ġd en
n um
M in
Ġdel iver
Ġmod ern
Ġ ess
off set
ic ate
Ġcour t
Ġread ing
he nt
ĠT ype
ri an
Ġmod ule
Ġf ont
ines e
Ġ row
ER T
Ġc ast
M y
Ġus es
++ )
Ġev al
app ed
ult ure
Ġn orth
Ġde b
Ġbe aut
ĠO ur
ĠAn n
Config uration
Ġs ort
el se
Ġtry ing
ĠM em
r d
p ing
`` `
ĠĠĠĠĠĠĠĠĠĠĠĠĠĠĠĠ ĠĠĠĠĠĠĠĠĠĠĠĠĠĠĠĠĠĠĠ
pro cess
Ġv acc
b a
ĠDem ocr
Ġlate st
Ġthem selves
Ġj o
ĠH all
id ing
Ġc andid
u int
ĠM usic
ĠN ow
Ġj ud
t ag
m m
Ġw rote
CO L
ad ow
Ġm atter
Up date
ex pected
Ġcom pl
Ġe lection
ber g
t ool
im ately
ĠL og
W ork
Ġwant ed
m itted
Ġev idence
' ).
Ġn atural
200 2
Ġwh ose
NA ME
Ġc elebr
Ġm other
Ġob j
Ġim medi
ĠV ol
**************** ****************
C an
Ġchall eng
ri al
old er
an o
tern et
Fr ame
ĠWh ite
ĠH am
5 9
T arget
Ġleg al
ter m
ĠA PI
A ccess
il ies
in ate
ĠQ ue
Ġprofession al
Ġfri ends
6 8
V AL
Ġsh own
il er
O pen
Ð¾ Ð
Ġde ad
ĠB en
D B
Ġrec ently
Ñ ģ
c ite
w ide
ĠS am
ĠM ag
Ġse ems
b and
Ġf un
B undle
A g
Ġchang ed
Ġpass ed
z er
ct or
it ar
Ġp urch
T ypes
Ġth reat
Ġte ach
sy ch
Ġsub s
Ġpat tern
Ġpr ice
ĠMich ael
st yles
mer cial
Ġstud ent
Ġp aper
P R
ĠS l
Ġqu ite
ĠC am
Ġevery one
Ġweek s
Ġcult ure
Ġs ense
Ġfre qu
ĠR ef
Ġ* *
a uthor
Ġs end
Ġw ays
Ġs che
Ġj oin
ĠP ress
en a
Ġca use
T I
Ser ver
i pe
ie ce
s cope
ĠPart y
Ġact ivity
Ġeffect s
ĠM ac
Ġf ailed
ĠG l
5 7
ched ul
ĠO ver
Ġins ide
ri a
Ġens ure
4 1
Ġcont ains
Ġpre t
he st
math cal
Ġcon nect
ĠA ward
h i
duc ation
Ġfav or
ĠJ er
ĠAfric a
S A
l ong
ol ic
Ġpart ners
am l
Ġl ives
Ġsol id
a ud
W idth
Ġcal c
4 3
Ġpart s
Ġc ook
augh ter
En try
g in
on a
it ory
al ing
Ġinter view
Ġs outh
ĠD ec
Param eter
m as
Ġp or
D ev
d at
iz ations
Ġw est
5 8
ĠL ou
ĠC ong
Ġmed ical
and er
Ġ$ (
Ġprot ect
Ġqu al
Ġpr imary
sup port
Ġprom ot
: "
Ġv ers
Ġm us
Cont ainer
Ġb ound
Ġro ot
ã Ĥ
L e
ĠL eg
' m
evelop ment
ĠE nd
ĠFr ance
Ġm ode
all s
Ġbirth s
ĠG reen
Ġquest ions
5 6
ec ute
Ġtelev ision
Ġdem on
ly mp
w est
() ->
( _
Ġpl ant
ĠR oad
Ġse lect
Ġrem ove
G e
ĠGe orge
ĠF orm
Ġoper ations
M ar
t emplate
M ax
Ġeas y
C D
ess or
util s
ĠCh urch
st ant
ist an
Ġpre p
b reak
ic ient
ĠCh ampionship
P ar
' ve
est ival
Ġoff ers
ag on
Ġg ave
Ġsur v
ĠComp any
Ġestab lish
ar ily
Ġparam eter
S ec
im s
c s
Ġl en
ĠAng el
Ġrece ive
ĠD E
m ore
Ġl ines
ad ian
col umn
n or
Ġhand le
D irect
en ge
ĠF ile
Ġu int
CO DE
comm on
c r
Ġincre ased
Ġav oid
ĠTex as
g or
ic ens
Ġcell s
] );
Ġpos itive
ir ing
="../../../../ ../
t ask
Ġpract ice
ed y
ĠM us
ond er
\ "
ou thern
and emic
is ions
Ġm is
Ġdr ug
l ate
Ġdirect ly
ĠK e
sh ould
ĠB uild
Ġproble ms
ak ers
Ġschool s
w indow
Ġparam eters
ur t
B o
ĠS und
Ġme eting
Ġle arning
A m
Ġcl in
Util s
Ġexp and
ĠB usiness
fil es
p es
co very
rap per
C ase
ar row
Ġcor rect
Ġf ast
Inter face
Ġarg s
Ġc ard
w ner
Ġit ems
Ġem ail
Ġnov el
Ġactiv ities
% ;
un it
ĠAr ray
Ġoff set
ĠT om
O b
u a
cript or
Ġtrans fer
Ġsc ient
Ġun it
Ġch arg
pon ents
ace book
N E
Ġfil ter
Ġmov ie
Ġh ous
Ġallow s
Ġs ession
ill er
G o
g an
ic ial
amb da
Ġin sp
ĠSer ies
Ġst ories
ĠA lex
Ġqu ery
Ġto wards
Ġman ufact
Ġb uffer
Ġtrans form
g reg
Ġf loat
par se
Q L
ĠS T
ef t
por ary
m ain
al le
art ifact
Ġfield s
9 7
s d
pro ve
t ab
R el
m atch
in i
om a
Ġstat ement
ant ic
ĠC heck
Ã ¤
se y
Ġcontin ued
c ache
ify ing
T ree
ig r
ick s
Ġre li
Ġdise ase
Ġproject s
Ġse ek
Off set
A V
Ġmeas ure
Ġr ules
ĠA pp
anc y
ro ot
if ul
9 8
P A
3 00
Ġpre vent
Ġsc ience
Ġb ank
IG N
Ġne igh
ĠN et
Ġsc ale
ynam ic
z a
Ġqu arter
b ool
ĠPro ject
ĠG old
Ġf lo
Ġle ave
AP I
ĠU kr
Ġl ack
ix t
ĠR ob
ast e
S D
Ġm ention
ĠIs rael
M O
et ch
ĠL ife
Ġh um
Ġdep end
ĠReturn s
) (
ĠR el
Ġc lean
Ġm ount
Ġnecess ary
ĠS ur
Ġcomplet ed
B O
opy right
Ġeconom ic
F L
Ġsim ply
ĠA ut
Ġknow ledge
Ġinvest ig
UL T
Ġcap ital
Ġw ife
ĠM ary
Ġmem ory
' ll
D el
Ġl ock
Ġme chan
Ġtrans port
Ġcomp ared
Ġbr and
Ġcol lect
Ã ¶
Pro cess
s i
Ġfollow ed
p at
Ġfinal ly
ĠJ ournal
S he
AC K
Ġsuccess ful
B r
Ġsh ared
E ng
b urg
Ġg raph
Ġe ast
ĠF ore
ĠUn ion
Ġex tra
Ġt ag
Ġs en
L ocation
L oad
an ia
Ġsaf ety
ust ain
a o
AR T
D ec
Ġst ar
Ġpl ans
Ġexist ing
Ġsupport ed
d ocument
class es
S earch
Ġex pression
ict ed
n ected
Ġ ;
ĠSh ow
ĠS ociety
Ġstart ing
f loat
Ġapp oint
im ation
Ġs ym
ĠM ont
Ġex act
Ġcon cept
Ġet c
cri be
9 6
ĠCh inese
ic ine
Ġ ign
p atch
Ġus ually
ĠRuss ian
. $
uct ure
Ġre pl
Ġopport unity
ar io
ĠM iss
ĠC ap
ĠPro f
que ue
ct x
ict ure
P S
ĠA v
Ġab ility
Ġset t
Ġlim ited
Ġass ess
it ude
al pha
ĠRober t
b uffer
m ut
Ġtem per
ous ly
ec ution
ĠD et
=" -
He ader
Ġv s
le ep
Th read
Ġ{ }
ang es
Cont rol
ree k
199 9
ĠO per
res ource
ĉĉĉĉ ĉĉĉ
ol f
ĠB ay
Ġe ight
ĠV ir
In st
Ġact ual
ig er
D A
it able
Ġn or
Ġdemon str
Ġre qu
ĠAc adem
ĠH el
ĠPro v
Ġb rought
S l
Ġm ale
Ġ ::
ĠGerm any
y th
ĠCl ub
quire d
ĠPl ay
( [
Ġt ree
epend ency
ens or
Ġorgan ization
8 6
ĠM ount
s a
Ġopen ed
Ġprogram s
Ġpro p
ĠĠĠĠĠĠĠĠĠĠĠĠĠĠĠĠ ĠĠĠĠĠ
; ->
ĠB ig
ĠIs land
sm all
ick et
am ing
Ġj ournal
U B
Ġget s
Ġvill age
ĠT op
Ġresp ond
Em pty
Ġnum bers
Ġperform ed
g u
H istory
L o
Ġper fect
S cript
Ġpr inc
Ġlarg est
Ġrel ig
] [
AL L
Ġsign ed
ĠSm ith
ĠO ther
Ent ity
Ġal tern
Ġear lier
R ange
IN E
Ġdes cription
Ġre nder
Ġcoll abor
ST R
h ouse
W rite
ĠFl or
eg a
ĠH istory
He ight
Ġsay ing
Ġex ception
ĠO R
Ġ( "
e al
Ġcon v
' ),
ĠB i
plic it
Ġwrit er
ĠC he
ĠR ad
Ġse ven
h at
ĠS al
ĠC reate
d rop
C R
Ġm icro
) $
Ġs ports
g ate
Ġem pty
r t
ĠComm ission
S H
ĠDirect or
Ġp ark
Ġs witch
w ell
d raw
ĠM ex
ĠH ere
Mod ule
ov ers
ĠCar ol
Ġw orth
199 0
Ġex am
Ġmult i
ic ated
Ġset ting
back ground
ĠFr iday
C urrent
, \
Ch ange
. /
Id ent
AN D
! !
Ġdis cover
" ))
an i
gor ith
Ġd ark
ro ad
âĢĿ .
M M
Ser ial
if est
J son
M on
f a
Call back
ĠBo ard
IZ E
Ġpl aces
5 1
Ġn umer
O p
artifact Id
Ġgo es
ĠM ad
Ġparent s
R ev
Ġf ans
T C
Ġre str
Ġdist ribut
Ġs ave
4 00
P ort
Ġsh ot
h r
Param s
t ree
Ġfam ilies
ĠF e
o ch
5 2
Ġn ature
Ġbegin ning
and a
Ġrem ain
ber t
Ġal though
ĠAss ert
Ġincre asing
ĠRuss ia
Ġd ro
Ġse lection
Ġde but
os is
P L
Ġin fo
d ec
' '
is ation
} _
Ġ ~
N one
L evel
ell ig
Ġcor respond
it ation
it iz
. ;
ĠâĢ ¦
Ġcon tr
F O
iv acy
ang le
ĠAr my
t ml
F e
ĠU R
ex p
Ġs ummer
anc is
Ġ Î
Ġb al
ut ed
Ġg as
Ġcons um
} (
ad ers
ĠPl an
=" _
l s
ĠT re
Ġsh oot
ĠL ong
rem e
ĠC D
IN T
Ġ* )
O ption
Des cription
ĠSt ar
ĠJ ew
Ġpre c
ĠB ank
ĠCent ral
M e
ic i
os h
ĠE ducation
az ine
Ġ q
Ġcent ral
Ġprevious ly
Pos ition
Ġjo ined
Ġp ull
b in
Ġreport s
Ġp andemic
Pro ject
Ġpre m
5 4
e in
ĠOff ice
H ttp
s ite
ill a
Ġm iddle
Ġser ious
t ained
Ġcond ition
Ġdem and
Ġin nov
ann ed
Ġra ise
c ap
Ġent er
t hen
Ġr ule
ĠThe n
p ers
t oken
Ġwork ers
ĠGover nment
Ġ čĊ
atur day
ple te
m es
Ġquick ly
Ġsur face
Ġmean ing
Ġn et
Ġch annel
Ġset s
Ġant i
ĠD ate
D own
fl ict
Ġtr ade
Ġwe ight
Ġfunction s
Ġt ouch
Ġw ide
cont rol
ĠM er
or ial
Un it
ĠP M
Ġsom et
f s
ĠW ed
Ġdeath s
un ities
ag ment
m at
k ind
Ġphys ical
ĠC amp
Ġp lease
ĠAfric an
ĠSup er
ur i
j o
os ing
Ġcustom ers
Ġcompon ent
Ġt er
> ,
Ġsol ution
Ġc ivil
Ġp m
od ay
H ash
h aps
ron ic
="../../../../ ../../
Ġapp ly
S L
ĠS ervices
5 3
group Id
S ession
ic ago
Ġsur pr
Ġs cope
? âĢĿ
Ġim prove
Ġsc ore
Ġear n
Ġf it
Ġwr ong
Rec ord
c ard
Ġass ist
PE CT
Ġclos ed
Ġother wise
ĉ Ġ
ib ly
Ġpret ty
urs or
at re
Ġh ar
Ġstre ng
L ocal
Ġspe ed
em pty
ĠChrist ian
Ġsong s
v ed
Ġsl ow
D ocument
Ġcon struction
c lear
Ġed itor
Ġdeg ree
ĠO lymp
Ġle ader
Ġb illion
I A
ĠT or
equ ation
Ġman ager
b oot
ond ay
m en
Ġ> =
at in
ĠSund ay
c are
COL OR
Ġal t
Ġdec ided
im er
iver se
ent y
Ġla unch
olog ies
Ġg old
Ġex hib
dev ice
ask et
I B
ĠC all
Ġarch itect
Ġs al
Ġv ert
ĠGr and
Ġm ut
Ġsc en
Ġtrad itional
we ight
Ġse cret
ag ram
u it
tr ack
Ġarg uments
ant a
k y
S im
iction ary
Ġnear ly
ĠB ill
8 7
ĠG en
oun ter
Ġcou ple
CT ION
m ail
ĠT witter
Ġd ram
Ġre ach
al ian
Ġfr ame
ain ts
ĠMin ister
av ed
H ome
F C
Ġcl imate
ĠM useum
D ep
ĠU nder
Pe ople
S ign
ĠF acebook
r or
AG E
ĠEx ception
we et
Set tings
co in
om s
Ġr ank
ĠMed ia
Ġturn ed
Ġh ol
end ar
Ġfe ed
ĠG reat
25 5
g ment
Ġful ly
Ġw ild
Ġg un
ĠThom as
pre t
u ing
Con nection
ĠW il
Ġover ride
Ġgre en
ĠM ost
Ġepis ode
is f
ms g
anc ing
Ġcall s
ĠSc ott
ĠU se
Ġhand s
Ġcommun ities
ug ins
at ively
Ġr ap
b ind
et te
Ġk illed
Ġeffect ive
ev e
ĠR oman
du le
ĠE conom
ĠT own
Ġobject s
ad y
ven ue
Ġatt ention
p op
Ġcom mercial
.... ....
ĠW omen
Ġparam s
u nder
Ġim ages
rom e
ef f
ĠT ur
Ġf air
Ġstud io
ĠFound ation
ĠM ap
OR T
Ġh y
om ic
Ġd im
r ics
Ġla un
ĠS ocial
c ar
Ġparticular ly
l am
ĠB re
================ ================
g est
Ġb lood
P o
Pro perties
Ġsp ent
clus ion
Ġb ur
ĠR un
" ));
M D
Ġgr ant
Ġany one
Ġt emplate
im ages
Ġmov ement
Ġd ed
ert ific
am m
Ġm ur
Ġp adding
p i
Col lection
Ġat tribute
ult i
h ash
y ing
Ġr at
b efore
Ġp le
Ġh ospital
od ed
ĠH ill
Ġindividual s
ĠFr ancis
St ore
ĠR ock
7 6
A re
Ġart ist
ĠD ev
Ġsa fe
oot h
As ync
I ST
s ign
() :
it a
styles heet
ur ance
yn ch
Oper ation
Ġv oice
Ġin form
ĠComm ittee
ty pes
St at
S O
v ant
str ap
ick er
av er
con f
ĠG ood
Ġf elt
Ġappe ared
D D
Ġconst ant
199 8
Refer ence
ri end
in ct
ĠDiv ision
K e
Ġcan cer
Ġsit uation
Hel per
F ont
d ebug
E l
Ġcol lege
urs day
Ġor d
G B
Ġanal y
Ġest im
ĠD evelopment
ĠF ield
model s
ĠAr g
Ġg ives
Ġarg ument
D ir
Ġenc our
ĠO b
ĠCong ress
it ors
mod al
Ġs cript
Ġbe y
ec ause
Ġrem ains
ĠWest ern
E v
Ġrecord ed
Ġr andom
Ġre pe
Ġac adem
Ġsc ene
Ġcreat ing
Ġn om
Ġf arm
ĠCh ild
K ind
Ġs ales
Ġd irection
ĠD uring
Ġx ml
Ġover all
ĠV er
Ġdr ive
rel ated
Ġcomp ar
ĠC ON
Ġd atabase
Ġtr ust
Ġrad io
h or
w s
Ġp en
leg al
ĠS E
an ish
ĠM o
Ġhigh ly
Or der
s im
Ġnot e
Ġbey ond
s um
P at
d est
Ġre place
ĠPe ople
ĠK ore
Ġmov ing
1 000
Pro t
a uth
il ed
ĠSt ep
Ġbehav ior
Ġth read
Ġdiffer ence
Ġro ll
val ues
b our
ĠUS A
D F
Ġtest ing
fo o
' ],
g raph
Ġth r
Ġequ al
ĠFlor ida
as y
und red
Ġrem ember
Ġcont ain
Ġb us
Ġmiss ing
Ġgre ater
Ġdist ribution
Ex pression
ens ity
Ġf ederal
re nder
b order
Ġph one
Ġfor ces
Ġtest s
ĠR oyal
Ġcost s
Ġfem ale
Ġsomet imes
ĠMan agement
Ġdef e
Ġc hem
C S
u ated
Ġ[ '
ud get
Ġabs ol
Ġto ken
M atch
Ġrec ords
d ates
Ġc op
Ġread y
Ġst ock
doc s
ĠVir gin
ĠN ame
ĠJ ul
198 0
ig ration
Ġprovid ing
ĠH en
h o
OR D
Ġfil ename
f ree
add ress
ĠA tt
ĠEng ine
ĠLou is
v as
ĠFr ank
Ġmar ried
Ġp oll
ĠT imes
ĠA ND
d elete
ict or
ues day
j oin
Ġs pect
ĠN S
Ġdest roy
ing er
ĠG ame
el er
ict ions
Ġgr and
Ġd aughter
H ost
Ġt it
Ġsp read
art s
yd ro
sc ale
am ma
c apt
Ġcrit ical
Ġg iving
Ġopen ing
âĢ ĺ
ĠAustral ian
ĠI d
ĠH ome
Ġap i
ĠG ames
in ternal
: (
ig an
ĠIn s
Ġlook s
Ġwas n
D on
Ġh op
Ġfin ished
ac cess
~ \
Ġch ance
Ġcomm it
fr ame
Ġf irm
ex ample
Ġind ependent
Ġpresent ed
) \
Ġart ists
W E
Int eger
Ġ eth
s end
Ġd at
Ġs ources
ip ment
re y
ind er
is l
Ġch urch
Ġelect ric
Ġappro x
f ound
ĠJapan ese
Tr ack
} ^
Ġn ation
s v
ĠN OT
h ol
az z
iz ont
Im pl
ĠD O
Ġun its
nes day
P tr
Ar t
P ass
6 9
M ore
ĠB ase
ĠG lobal
x x
8 9
Nav Bar
U se
ĠB G
Ġs ch
c m
if orm
{ {
ĠWe ek
Ġo il
ĠAcc ording
ĠN etwork
Ġlarg er
Ġshow ed
Ġch oice
Ġit er
og gle
Ġgrow ing
Ġrun s
k i
st ep
Ġhig hest
Ġth us
V ari
W S
Ġapplic ations
ic ies
B S
7 2
d en
ĠV is
Ġemploy ees
Ġm ission
th let
Ġl ibrary
ic ian
ĠS un
AT A
ir med
ĠL os
E M
O K
se cond
Ġr ail
Ġc ore
ĠL ake
n on
Ġad ult
lang uage
F T
Ġs ociety
TE D
Ġimmedi ately
al ysis
ĠS ol
ĠTr ue
En c
Ġs ymbol
ap y
ĠS il
em p
Ġset tings
Ġcont ainer
ish er
Ġbas is
Ġon es
Ġd og
Ġp ackage
param eter
Ġeffort s
Ġgo als
y an
Ġinit i
Ġco ach
Ġinterest ing
un icip
ig ma
et ime
r ate
C ons
im inal
X X
erv ation
M enu
ĠCan adian
Ġw ind
ĠM att
Ġa uth
cl ick
ĠS aturday
199 7
ĠAr ts
b i
G ET
pect ive
ri p
erm an
er ry
Ġconfig uration
or a
ĠJ ose
Ġappro pri
a fter
Ġvari ety
Ġpro per
p g
C I
ĠT wo
ERR OR
M ark
ĠM ass
clus ive
Ġpro posed
Ġhe ard
b es
ĠO p
Ġs s
Wh ile
ĠIn formation
Ġim ag
Ġund efined
Ġbeaut iful
Ġpur pose
C ar
ĠM el
aw s
cl os
Ġe cho
ĠP eter
c p
á ĥ
ĠEX PECT
or ter
Ġre ached
d irect
ĠPol icy
o es
ĠI ll
Ġtool s
Ġd ou
pect s
Ġcar ry
ĠCh icago
Ġhas h
( :
Ġey es
Ġvol ume
set s
199 6
P H
hen s
ap se
ĠRich ard
F alse
urren cy
Ġp ush
N ames
U RE
ĠW ell
Ġqu ant
C al
en v
"> &
Ġcon struct
Ġpo or
ĠT im
ab ilities
ĠAt l
Ġstr ugg
us ion
ĠU N
O ur
ab y
Ġth ous
med ia
Hand le
inter face
h over
ĠK ey
S k
Ġst orage
ult ural
L oc
ĠM ov
or ation
Ġcompet ition
Q ue
agn ost
f ocus
id en
Ġm ill
Ġmor ning
Ġcon vert
N on
197 0
T e
wh ile
L eft
c at
L ong
R ed
ĠM onday
Ġann ual
ĠF re
ph one
vir t
Ġintrodu ced
Ġaff ect
Ø §
R ender
li ament
iv ery
ing le
du ction
ploy ment
ateg ories
Ġess ential
b ur
ad ing
to String
Ġmaterial s
Ġn ative
ä ¸
os ph
ĠB ur
ĠTe am
Ġth er
Ġa ctions
Ġpor tr
Ġcomplet ely
Ġb ottom
Ġv ote
Ġsh ape
C ore
Ġcoun ter
l oc
T ool
equ al
ĠAcadem y
ash ion
pl ies
olv ed
ob s
od er
Ġpress ure
ð Ł
N ow
ev en
web kit
ĠW indow
Ġfore ign
R ight
ĠF oot
izont al
ĠS ince
Ġal leg
Ġp refer
Ġde lete
I ter
field s
ĠRe port
est er
org an
Ġcomput er
t n
Cl ick
ens us
Ġmax imum
Ġfl ag
ĠL et
V ector
ĠV iew
ate st
Ġn amespace
ĠN O
ic ations
Ġinv oke
ĠA L
7 9
Ġrem oved
Ġpart ner
l ook
Ġ er
Param eters
ell a
ĠA R
su ccess
hand le
roll ed
re land
Ġpr im
ĠA M
at ically
r ange
i ance
or por
ast r
T emplate
are n
Ġm aster
Ġw ood
Ġca used
? :
Ġtrans action
Ġhe ar
ĠO h
6 2
Ġold er
Ġclass es
T itle
Ġj av
ubl ished
ĠE very
in y
ĠSec ret
ol a
Ġb ill
Ġcom ments
Ġc ache
D L
Ġm agn
out e
Ġco ord
C P
ĠT our
Ġfor ms
Ġm achine
Ġsup ply
Ġstrateg y
Ġro t
F ound
j a
Ġcap acity
trans form
ur a
Ġro b
The y
as ic
ĠP et
Ġ" \
Ġrel ative
Ġan g
ĠS pe
8 4
Ġsit es
ixt ure
re place
n ap
Ġrout e
Ġsh ip
In valid
u ke
Ġexper iment
equ als
Ġ util
s ession
b al
OR M
8 2
d s
ĠC ath
Ġat tr
Ġredu ce
um s
Ġad apt
w rit
_ ;
Ġp iece
âĢĿ ,
ĠBG COLOR
6 3
u y
g lobal
ad s
ig en
Ġ icon
Ġprodu ce
ar ant
Ġsur round
w idget
A c
ĠE vent
i en
Ġdr iver
he ast
pp ed
ĠAp ple
stand ing
Ġsh op
ri z
ĠAngel es
ĠEar th
ĠTh ursday
ĠM ax
Ġc ru
Dev ice
dis abled
comm and
S chema
Ġfollow s
ipp ed
con nect
Ġrequ ires
ĠH ot
om y
Ġacc ur
Ex p
ult y
ĠGe org
Ġlet ter
Ġsk ills
Ġappe ars
c os
Ġbas ic
ic ons
Ġp ages
Ġw ants
ĠS u
Ġdist ance
Ġd aily
ĠTechn ology
ĠL O
Ġass um
Ġst ated
ab it
ĠP ower
Ġorgan izations
Ġt al
re al
Ġo wner
199 5
ĠC are
ar p
ĠJ im
I E
Ġbusiness es
Ġal one
et ry
ed om
Ġthe ory
ple t
Ġdes pite
ap ers
ĠKing dom
Ap plication
Ġcl ick
Ġ` `
ol ume
atal og
asket ball
Ġb attle
ynt ax
b eta
Ġin str
Ġw el
ĠM ath
Ġdev ices
Ġrespons ible
ĠAl so
fr ont
Ġhapp en
ex port
st ack
ik i
as ure
ay ers
m ode
Ġpl aced
ĠChar les
foot er
clud e
Ġown ers
ic ians
Ġs ell
ĠComm unity
re q
pl ugin
D om
anc er
## #
Ġr ates
Ġserv e
Ġp aid
act or
S u
f it
ĠM ur
E Q
ĠB ack
Ġrest aur
' .
ĠB et
Ġbl ue
Ġtr ain
ĠA N
ĠCh ief
all ery
Ġansw er
Ġpres ence
ang uage
ard en
ĠC A
Ġs ample
ĠL in
ĠC ode
( *
istr ation
6 1
Ġbut ton
b ig
ĠM ethod
v ector
` ,
hold er
ĠAm azon
our ney
est amp
ĠĠĠĠĠĠĠĠĠĠĠĠĠĠĠĠ ĠĠĠĠ
ĠT uesday
Ġbro ther
Ġinvest ment
Ġh uge
Ġd ream
omet ry
ĠF inal
Ġlaun ched
Ġref lect
Ġpat ient
Ġdam age
Ġopport unities
Ð »
ĠI P
est ed
ĉĉ Ċ
I X
Ġsol utions
Ġmajor ity
Ġhelp ed
Ġen h
qu is
Ġup dated
' >
> ();
D IR
Ap i
Ġchar ge
ĠO ld
ent er
Ġa head
Ġin line
Ġh undred
as ion
Ġk ids
Ġsus p
Ġa ware
ĠCE O
L iving
Ġkn ew
AT H
v m
Ġem ot
Arg s
sh ot
` .
Ġm obile
h s
Se lect
An y
Ġunderstand ing
em porary
ex ports
7 4
ĠPar is
ĠP an
ĠL ove
ĠL ibrary
em ail
P arent
Ġcho ose
ov es
ĠP o
ĠCol or
Val ues
Ġimplement ation
pro p
ĠM il
ang ing
Ġp sych
Ġun signed
Ġcontin ues
Ġfact ors
Ġin come
c opy
x is
ut y
In s
u ous
k er
f n
c ustom
Con st
Ġclaim s
g ency
Ġgener ated
199 2
p ower
Ġhe ader
Ġbl og
Arg ument
Ġbe comes
ĠD en
Ġ} )
ĠMart in
", "
Ġdown load
by te
ong s
st ore
ĠK n
ĠWed nesday
Ġeas ily
Ġw at
id ers
9 4
199 4
ĠV alue
V er
Ġs ustain
ĠLe e
ĠO l
Ġ( '
Ġmin or
ĠC ast
i able
Ġvari able
wh ich
Re ader
ĠĠĠĠĠĠĠĠĠĠĠĠĠĠĠĠ ĠĠĠĠĠĠĠĠĠĠĠĠĠĠĠĠĠĠĠĠĠĠĠ
Ġap plied
Ġpl ays
Ġrequire ments
pos es
V ert
virt ual
Ġpar se
ins ert
b ing
Ġst ra
Ġcred it
Ġar rest
ĠFor ce
urre d
SE T
Ġgener ally
Ġevent ually
ru it
ĠH and
all ow
) ]
ĠSec urity
ĠE p
E rr
gorith m
Ġp od
Ġra ised
p ool
St ack
Ġle ague
rom ise
Ġfour th
Ġlist ed
ĠF ree
ĠH uman
sk ip
Ġtrans ition
Ġsp ot
R ect
Ġofficial s
Ġform ed
ĠIt s
Ġeconom y
ud io
us band
Ġc itiz
Ġa im
ĠVal ley
Ġtri al
Ġw onder
it z
ic ed
D oc
-- -
Ġp aint
h igh
aug ht
Ġspe ak
ĠUkr aine
ĠF und
in line
T V
X ml
> .
ĠÂ £
D raw
Ġsp irit
ĠJ un
ĠSe cond
% )
IT Y
ĠL o
=" /
ob uf
Ġfig ure
N um
go ing
fr astr
ad min
Ġcon cent
s ort
Ġ ut
9 1
m issions
os oph
Ġoper ator
9 3
on ic
Ġthere fore
Ġgu id
or row
wh ite
ex ception
ĠSt and
f ol
ĠEn ter
Ġoffer ed
ĠB rown
9 2
E ach
Ġp air
Ġac id
Class es
O ther
-------------------------------- --------------------------------
7 1
B ody
Ġe lem
g s
H as
Ġmat ches
Ġocc up
c ient
ĠW ood
Ġch ain
De cl
ĠM odel
ourn ament
os en
Ġsen ior
A ME
Ġse a
irc raft
-- >
Ġd rop
Sh ow
ram es
Ġdirect ed
sec urity
Ġpro test
ĠF estival
ĠI reland
Ġveh icle
Ġsat isf
Ġfail ure
if ies
Bo olean
ĠFil m
ĠS pecial
EN D
Ã §
cl oud
Ġpro ced
J ohn
gr ade
b ound
Ġnot ed
ĠG ar
ĠZ eal
t im
Ġdeterm ine
ĠM A
f ramework
ĠP enn
ĠL and
in em
Ġbenef its
Ġgover n
ĠA uthor
Ġch ief
="../../ ../
m ake
ellig ence
Ġend ed
ff ect
m u
al i
Ġhapp ened
Ġclin ical
l ambda
ĠThe ir
Ġgener ation
ĠJ o
Ġwh om
ĠâĢ ¢
Ġg uest
Ġmur der
Ġident ified
M eta
E CT
Ĥ ¬
ook s
ĠCarol ina
Ġcont aining
Ġcor por
Ass ert
P arser
M ay
reg ister
Ġtr aff
es h
ĠVirgin ia
c oll
ĠA wards
d ependency
à ¥
Ġview s
Ġfe et
Ġo s
set tings
S ome
Met adata
ĠS pace
Ġm ask
ri age
Ġcrit ic
m aterial
arg ument
in ion
ĠE ven
ĠJ ud
ow ers
Ġf ear
p anel
} /
Ġadv ant
at o
Ġerr ors
math bb
Ġp an
ĠZeal and
ĠT O
Ġad vert
ro ph
} "
Ġnot ice
7 3
Ġdistribut ed
ĠIt alian
ĠC re
ĠH istor
ĠF ort
ke ys
Ġrecomm end
az ing
} _{
Ġsh ift
ner gy
ĠComm un
ĠM ot
S ION
Ġ\ \
ug ht
Ġn uc
8 1
i h
ut s
Ch anged
Ġstra ight
Ġr are
Ġcon vers
= \
Ġsm art
pro duct
ĠAs sembly
Ġext ension
ĠF ire
u an
Ġlook ed
er ies
Ġbuild ings
bo olean
ple ments
N et
Ġmon itor
it ness
f ony
Ġplan ning
Ġsepar ate
ĠMex ico
k in
st op
Des criptor
Ġsub sequ
raz il
Ġexact ly
Ġc at
il s
On ly
ĠDes ign
Ġchalleng es
P RE
ĠJohn son
Ġm iles
Result s
Ġpart ies
d im
Ġm ix
Ġpower ful
Ġdirect ory
Ġs ector
__ (
Ġres idents
ĠI O
199 3
ograph ic
com ponent
Ġinflu ence
c or
En abled
Ġdescri be
call back
l ife
ĠHT ML
ĠP ri
C ustom
Ġr ac
ynch ron
ĠS qu
Ġf resh
Ġwin ning
Ġtre nd
Ġexper t
ole c
Ġvis ual
Ġb oy
Ġw allet
S m
on ym
pl ugins
Ġleaders hip
ĠOr der
ce an
d ing
frastr ucture
ĠSt at
Ġc ool
ĠU ser
15 0
og en
n y
AC E
ĠD om
ĠW ater
annot ation
Ġcompon ents
block List
Ġre asons
Ġh arm
in ations
Ġp urs
Pol icy
b uf
Ġf ine
St orage
ip eline
ĠN ote
ĠM a
ĠH aw
ad ium
ĠV ictor
put e
Ġh our
Ġdef ine
Wh y
Ġto ward
Ġagre ement
ĠT H
Ġp ool
inst all
Ġph ase
ĠR et
R oot
Ġfund ing
ist ers
ym fony
i ro
r ick
Ġdr ink
ĠD own
Ġ' /
Ġide as
Ġhe avy
8 3
D S
Ġb rief
Ġbe coming
Ġj son
ĠYou ng
ic an
Ġpro file
Ġed ge
res ents
D ebug
oth ing
Ð º
ĠF amily
Ġf if
Ġaud ience
Ä ģ
Ġcon flict
ign ment
Ġa f
Ġchall enge
D I
ĠM at
l ers
Ġz ero
Ġequ ipment
St ep
ot ic
od ies
ĠP age
Ġfact or
Ġde cre
Ġfound ed
ĠP ac
Ġb g
ĠCent re
W riter
up s
r b
est ic
T A
Ġman aged
ol es
Ġby te
Ġun less
G E
P op
Ġopt im
Ġwe ap
ĠL ine
Ġdo or
ing u
ix el
ĠAs ia
ĠL im
ĠAb out
ut ch
Ġd ig
AA AA
ĠIn vest
p erson
Ġprote ction
Ġ" /
D elete
Def inition
Ġoper ating
Ġe lected
e an
Ġreve aled
s plit
Ġke pt
KE Y
Ġhapp y
i at
Ġcult ural
D C
ans ion
ian a
s ystem
ĠL ink
Ġdep artment
n ormal
ĠT ext
Ġappropri ate
Ġex cell
ĠL i
ub y
Ġcons ult
ific ations
ĠAr ab
el ess
Ġgu itar
Ġtri ed
M ed
ann els
; <
ĠRec ords
p adding
N G
li e
Ġpr ison
Ġsl ight
Ġenvironment al
ĠAl though
ĠG al
Ġ à¤
ec es
' d
Ġcr is
Ġd anger
ang o
r s
v ision
Ġuse ful
Ġar m
aut o
Ġrepl aced
ĠJ SON
Ġadministr ation
By tes
199 1
Ġatt end
Ġsex ual
Ġ+ +
Ġneg ative
ĠE lect
d ouble
Ġdom ain
Ġrespect ively
ide os
Ġst ack
Ġmost ly
ur ies
Ġd u
umn i
c f
boot strap
Ġser ial
up le
ĠS y
Ġl ayer
x i
Ġsmall er
Ġtemper ature
L ock
Ġthink ing
j ection
Ġregard ing
ĠUR L
= {
L java
Ġident ity
ĠM icrosoft
s ql
ĠC y
Ġre ality
ĠChrist mas
Ġh yp
Ġb ul
Ġob tained
P M
Ġsequ ence
ĠS ar
Ġobserv ed
Field s
Ġby tes
Ġext rem
Ġad just
Ġ< =
ĠJ oe
19 60
Ġneigh bor
ĠOr gan
ĠBl ue
Ġstr ict
Ġcl oud
ip al
ĠP ass
Ġex ists
ent ity
Ġt ab
C RE
ĠC ard
Ġc ities
Dis play
ĠL ast
D i
Ġcon ference
) }
Ġbenef it
Ġke ys
Ã³ n
ĠS and
Ġtr ail
ado op
C opy
en um
at tribute
Ġexper i
ĠMed ical
as er
Ġ ice
Ġfavor ite
Ġoffic er
Ġcall ing
n el
ĠM any
Ġmeas ures
Ġfor ced
ĠIr an
ell ed
Ġen able
ĠSp anish
ĠIt aly
Ġcon nected
ol ver
S end
Ġle aving
ĠPol ice
Ġh usband
ĠAn y
Ġl abor
cl aim
y e
ost on
Ġpe ace
S R
st one
ertific ate
Ġcam era
G raph
ar ian
n ames
F ig
k o
ĠS ports
Ġbig gest
urb an
k ins
yl v
Ġcon sole
ipp ing
Ġor igin
ĠF ig
Ġk m
ne ctions
__ __
Ġm sg
By te
A uthor
_ \
Ġjob s
Ġd oll
Ġoriginal ly
Ġl ands
ap plication
FA ULT
Ġl if
Ġun known
d ist
Ġagre ed
Ġco ast
ĠWindow s
ĠN Y
Ġrele vant
A tt
ĠWh y
ĠK ar
aw n
") ]
W idget
ĠJ ones
AR Y
l ines
Ġst ress
ĠS ummer
âĢ ¢
Ġph il
ĠP oint
item s
B R
her it
w rap
% ,
f ull
Ġfam ous
w an
Sup port
ĠD C
Ġbroad cast
f ill
Ġill ust
sk i
iqu es
Ġf lex
OD O
ans as
Ġat tract
Ob j
Ġstep s
ĠP op
sh all
un te
ĠH or
Ġbr ain
Ġup per
cl es
Ġflo or
ĠReg ister
} ^{
t oggle
Ġin fe
P T
S cope
d i
ri er
Ġw id
ir a
Ġap pre
Ġc ategory
d ed
Ġl icense
z en
h ere
D ialog
Ġfund s
Ġcover ed
Ġbe at
Ġinterest ed
as et
at i
Ġs un
() {
th at
ĠE rror
D R
Ġanim als
Acc ording
E ar
math bf
ĠĠĠĠĠĠĠĠĠĠĠĠĠĠĠĠ ĠĠ
Ġm atrix
Ġfeature d
W ill
in er
Ġrem aining
Ġstreng th
uck y
Ġdet ail
Ġdef inition
re es
B efore
Ġdeterm ined
' ))
ak istan
Act ive
Ġpol icies
EX T
Ġtr uth
ĠA ction
ph i
M ENT
em y
ĠA ff
Ġcustom er
Ġs chedul
Ġag ree
Ġsur vey
M ock
ĠOn ly
Ġrem ote
Ġmay be
âĢ ī
H S
ak a
ĠW ay
c md
Ġident ify
rec ord
Ġb udget
Ġsignificant ly
br idge
Ġf ra
Ġf uel
it utions
ĠE U
- \
Ġd raft
ĠInd ust
Ġv ector
Ġf ish
Ġmention ed
Ġex change
plic ations
k g
ĠCon ference
Ġp anel
Ġin tr
ĠSup port
Ã ¢
Ġocc ur
Ġf an
ĠK h
Ġassert Equals
Ġme ant
Ġsc ored
Ġed ition
v a
Ġc row
Ġper haps
Ab out
######## ########
ĠE ach
Ġp et
l n
T ags
Ext ension
Ġshow ing
uck et
Ġr ul
m iss
T ab
reg ion
Ġb rowser
ĠK en
ĠHe ad
P ackage
Ġcandid ate
s es
HE CK
Ġs plit
Acc ount
al id
th read
ar ia
Ġm essages
Ġprocess es
Ġgener ate
M ember
ro t
Ġcar bon
Ġstart s
HT ML
In it
se m
ĠL ord
Ġlist en
Ġ( *
FI LE
ĠB ow
sp ring
ĠM ain
il on
Sec urity
Ġhouse hold
ĠW ild
Ġp i
TE ST
if ically
r ich
Test s
Ġfocus ed
ĠM os
prot obuf
Ġc ars
u ilt
ac le
Ġg one
ĠSt e
Ġob tain
Ġm ys
se ct
ĠFoot ball
ce ived
is hes
ĠCor por
In itial
Ġ ult
ay lor
N e
in itial
c ategory
ĠWh o
Ġg ather
ĠCath olic
. '
capt ion
hent ication
& #
Ġc ref
] ]
ĠSc ot
RO M
ĠF ederal
Ġ ),
Ġiss ued
Ġey e
st at
ar ation
w ords
Ġprocess ing
198 9
D T
Ġyour self
s creen
ĠSc iences
Ġf ixed
M ain
M edia
assert Equal
Ġjav ax
=" "
ĠB ob
Ġcom fort
Ġpro s
ĠS ign
c hen
or ney
) "
ĠSt art
Ġag ent
Ġst uff
ĠW al
LO G
ĠUp date
ĠC ross
Ġsh ut
add r
ĠH ospital
Ġdoc uments
Time out
S w
Ġex ternal
on av
ĠĠĠĠĠĠĠĠĠĠĠĠĠĠĠĠ ĠĠĠĠĠĠĠĠĠ
Ġn ine
B I
ors hip
Ġappoint ed
Ġem b
gr id
Ġcould n
ĠAd ministr
Ġp ri
Ġfore st
H R
The se
Ġthem e
16 0
Ġw all
Ġh tml
g ers
ĠEn vironment
c ur
I con
ĠHen ry
ĠRe al
. *
co q
Ġall oc
ĠĠĠĠĠĠ Ċ
yth on
Ġun iversity
Ġdef ense
Ġsecond s
Ġveh icles
ind s
Ġf ol
ĠT ri
sh ire
Ġgu ide
Ġf ix
ĠS O
Ñ ĥ
Ġpartners hip
Ġpart ial
oc key
Ġj ourney
ĠÂ »
Ġapprox imately
Ġmus ical
L et
Ġa ircraft
Ġk ing
y es
T im
Ġst ars
m aster
Ġr ise
ĠV ersion
and on
ĠF ood
Ġins ert
ĠM ake
Ġon to
j i
Ġadd ing
Ġtal ent
ĠR ail
R ule
M C
Ġconf irmed
Ġacadem ic
Ġact or
Ġpro pos
f riend
Ġy ield
ĠCh ris
Ġmin imum
$ \
Ġb ed
ĠSen ate
m ock
Ġhistor ical
Ġdel ay
Ġbo ost
Ġob vious
Ġredu ced
Ġtalk ing
W A
Ġent ity
ĠC oll
Ġyou th
h adoop
pass word
in et
ollow ing
ĠL ive
Ġex erc
Ġprot ocol
ian o
S U
ess ions
à ¸
Ã ¨
Ġart icles
ak ed
Ġrem ained
it o
Ġstand ards
print f
Ġcomb ined
Post ed
1 20
Ġ{ \
Ġ il
ĠWilliam s
Ġm ock
ern el
Ġinj ury
Ġl ived
N etwork
Ġp p
c pp
ĠH y
ĠT R
ele gate
Ġear th
ici ency
w ait
H ere
Ġ que
ĠL ear
SS ERT
ov ing
ĠMed icine
Ġcre ation
ĠN E
Ġhand ler
Que ue
J ob
ĠJ on
Ġlaw s
Ġoffic ers
el ines
Ġw arm
com ponents
Ġcris is
is ms
Ġdevelop ing
c ut
Ġrap id
ov a
Ġviol ence
Ġim press
Ġst reet
Ch annel
P P
ĠMark et
s ymbol
Ġent ered
Ġrep resents
ĠIs lam
Ġfin ish
Go ogle
ĠT ele
Ġnumer ous
Ġexper iences
Ġmark eting
Ġis land
Ġcommun ication
P erm
Ġb an
ok es
L C
ĠN ight
Ġpl ants
O O
Ġ ul
Ġcar ried
Ġn odes
ock er
l ig
198 8
ad or
ĠMich igan
ĠDef ault
@ "
ĠG re
ov id
Ġded icated
igh ter
ĠSw ed
Ġext ended
Ġs umm
ĠEx t
Ġfac ilities
Ġdiv ision
Ġnot es
" `
y er
ĠH on
e z
^ {\
Ġr ich
k l
u ages
[ :
Ġst ations
s pe
25 6
ĠGu ide
Ġp il
assert Equals
Ġtraff ic
m argin
w atch
ĠP erson
W orld
ĠF alse
r id
ĠA ccess
Ġb atter
ĠM ike
Ġm ixed
all oc
pro file
D atabase
Ġn arr
Window s
Ġstruct ures
ly ph
em on
ĠP rem
Ġd ie
Ġtri p
Ġbg color
pos ite
com ment
Ġv an
Ġbal ance
n ote
Ġd b
ĠL ab
uz z
Se cond
Ġprote in
ĠL iber
Ġh idden
J ECT
ĠB razil
P ublic
Ġexecut ive
Ġoffer ing
ĠL ike
J an
ĠJose ph
F ull
p et
Ġcl ients
Ed itor
P AR
Ġpract ices
drop down
Ġhel ps
ĠM aster
Ġm enu
con nection
Ġre ject
Ġaltern ative
w ater
ĠEx per
ird s
Ġtechn ical
Ġj oint
it age
am in
Ġsee ing
TE X
ĠAnd roid
Ġrelig ious
d ict
Ġdep th
Ġ% }
A v
Ġs leep
un signed
ĠW all
ĠAmeric ans
Ġaward ed
ĠCon fig
ĠR ights
Ġn g
ĠL ocal
Ġp icture
m ond
point s
ate ver
Ġj Query
Ġvict ory
ĠJ eff
rec ated
Ġcon str
Ġw ish
ty ped
Ġcertain ly
Ġconduct ed
J SON
ĠR est
Y ear
w ar
im ents
Ġpl us
form ance
Ġcomm ission
T ube
Ġinstance of
ist ent
n am
ĠE mp
Ġalbum s
ĠE qu
f aces
Ġr ain
clud ed
Ġf le
B it
ï ¼
aw a
onav irus
ell er
anc el
Ġcent re
_ ->
s en
ell o
ĠR am
Ġwe ather
Ġaud io
Ġcr iminal
Ġtrans l
A uth
ict ures
ĠFrancis co
Ġloc ations
IV E
ĠDan iel
cre te
Ġare n
Ġpr ices
Ġch air
Ġr an
ple x
ĠJust ice
t imes
G S
ĠM en
t ip
rit ory
L S
Ġregister ed
h ow
ack s
Ġadv anced
ath an
er ial
Ġad opt
ĠAd v
ic er
m ove
Ġm ental
Ġf iction
; "
Ġcr ime
h ar
Act ivity
Ġd ir
Ġhigh light
ĠStud ies
ĠA S
ĠN umber
Ġb tn
ĠT able
P ool
ang ular
Ġtr igger
w p
Ġinvest igation
ĠC ustom
Ġr iver
Ġex port
sc roll
Ġs port
Ġallow ing
Ġoption al
VAL UE
form s
ĠM P
ph as
ĠCont rol
ĠE r
B ig
sh ort
P erson
Ġ[ ];
Ġb urn
ĠCol umb
let on
Ġsing er
tx t
Ġc rypt
Ev ents
import ant
ĠPol it
h ome
ĠK im
ĠS a
Ġse at
Ġpro ceed
ag ers
ĠRepublic an
Se lector
ĠM iddle
het ic
ĠT erm
ĠAnd rew
Ġ rom
ĠP ath
ord ers
_ ,
ur er
. __
Ġwrit ers
im pl
ĠDemocr atic
ĠG irl
Ġv oc
Det ails
Ġint ended
ĠE nergy
ĠIn ternet
R ad
t ers
Ġpl ot
Ġappear ance
m o
Ġh ers
Ġinstall ed
Ġf ellow
ĠF unction
Ġmot or
$ (
Ġc ounty
if er
f ly
Ġreg ional
f amily
enc ing
It ems
Ġret ail
am pl
Ġph oto
Not Null
Ġre b
=" @
at uring
ev ents
Ġag ency
Ġdr iving
r ine
A U
ul ator
r um
G en
il ation
Ġpre par
Ph one
e per
Pre vious
Ġmet al
pro to
ch ain
gy pt
%% %%
n umer
s ave
Ġdec ades
6 00
12 3
Ġrepresent ed
Ġw arn
Ġat tributes
type of
~~ ~~
ĠPh ys
Ġf ashion
ĠGeorg ia
H igh
Ġs ale
ival ent
sh ape
] :
Ġn orm
Ġk ill
Ġcitiz ens
Ġsupport s
ĠB oth
th rows
ĠV an
ĠP lease
Ġs y
Ġf ant
B est
ĠII I
G u
T ABLE
E C
st ats
Trans action
Ġocc urred
n one
Ġm ist
eng er
; /
Ġclear ly
)) )
il ing
Ġle tt
it an
ĠL ight
Ġcl uster
Ġadv ance
25 0
is er
Ġaw ait
Ġsign al
Ġ{ '
ateg y
res hold
Ġdel ivery
Ġfeel ing
ĠRes ult
* }
Log ger
Ġresult ing
ĠB oston
C or
IC E
ed it
ĠT er
p ay
ĠJack son
Pr int
ĠW in
ĠC a
av or
ĠS earch
Ġfl ight
ou ter
Ġm yst
ĠInd ex
ĠW he
con trib
ĠS af
ino is
M sg
ĠE th
f ire
Ġannoun ce
hel p
Ġprov ider
m ult
Ed it
( !
Mem bers
pr imary
198 7
Ġp al
ĠJ es
Ġrequest s
b ad
Run time
ick ets
b re
and ra
() ).
il ly
F loat
Ġrepresent ation
k m
Ġt ro
Ġtyp ically
Ġen abled
L IC
Ġsec ure
V ar
ĠB iden
Ġpolit ics
ĠT ask
Ġun ivers
Ġtell s
S ymbol
)) );
ĠRad io
ĠS outhern
eng ine
ĠN ode
j query
ĠPac ific
Ġf unc
V ideo
Ġcomb ination
Ġf ill
ĠP R
Cl ose
R est
Ġpos itions
Ġle aves
Ġh ydro
Ġbuild er
ĠH a
ef fect
M I
P anel
ĠIr ish
Ġadvant age
r im
Ġvis ible
pr ise
Ġv ision
ential s
Ġdep art
=" ">
st ar
Ġweek end
ress ion
Direct ory
//////////////// ////////////////
ĠF ar
Ġconcern s
Ġmys elf
p an
at ar
oun try
Ġknow s
Ġhous ing
198 6
Ġcor ner
==== ==
198 4
MA X
et her
ĠD igital
Ġhe at
! âĢĿ
Ġattack s
c am
Ġhold s
l ay
amp ion
irc le
ĠP akistan
Ġtre es
j ar
ĠW alk
Ġl ab
ON E
ĠThe atre
p a
ition ally
D uring
Ġaccept ed
Ġf ramework
ER S
Ġch art
init ely
Ġfind ing
us hed
L a
ĠB ecause
8 00
ĠM ah
ĠR h
Ġtr av
U ID
Ġthous ands
S ince
ra wn
ĠV AL
pos s
ĠS pring
alle l
ab eth
os a
ĠE s
oper ation
t ics
ĠP aram
pro perties
Ġachiev e
ĠNor thern
ĠH arr
Ġspe ech
ĠJ r
Ġh air
Ġreg ions
VER SION
Ġis ol
Ġpurch ase
Ġs amples
ĠSp ain
ĠO ption
P ORT
ev in
G lobal
Ġown ed
ist ant
ĠC opyright
n ic
Ġsom ew
ro ke
F ind
ĠL u
Ġprodu cer
M T
Ġs an
Ġlearn ed
Ġgirl s
M B
B ook
se lected
Ġun ion
um es
Ð° Ð
acc ount
() ));
ul f
Ġcon sequ
r ase
By Id
Ġj ump
rad ius
ĠC H
m ir
il a
198 5
ylv ania
Ġb asketball
Ġpost ed
Ġam b
Ġg ain
ic ing
Ġdiscuss ion
p resent
ĠF our
Ġpol y
Ġo k
ad el
Ġvari ables
Ġsuccess fully
{ }
Ġ{ };
ĠG i
in v
R et
ish op
sec ut
im a
id i
Ġvers ions
ĠEx ecut
ĠProf essor
Ġbeg ins
ĠJ ac
ĠT oday
Ġs pring
Ġsupport ing
Ġli ber
En um
Ġfac ility
F S
Ġinter pret
ĠJ ava
ĠE lement
cont roller
Ġwe ak
Â °
Ġtr a
ĠL android
ĠB ul
Iter ator
ĠCo ast
Ġr aw
Ġmark ets
? ?
Ġdiscover ed
os itory
Ġn ice
Ġapp arent
ry st
In ternal
ot ed
Ġad vent
Ġcover age
ĠG ets
Ġthan ks
Ġdet ect
ĠSe ction
l g
i ate
à ®
ĠBe ach
| |
ing ly
Ġauth ors
el ly
* )
ĠCon st
Ġchang ing
Ġex tract
Ġappro ved
ĠR o
Pat tern
in ator
ion e
w riter
Ġan imal
ap es
Ġgl ass
ĠCol lection
Ġhelp ing
Ġ[ [
19 50
Ġabsol ute
s chema
Lo ader
Fe ature
ĠTr ust
Ġup dates
Des c
": "
Ġaff ected
r an
Ġm unicip
att ers
unn y
ly wood
Ġsp end
Ġsu c
k w
os es
Ġmain tain
child ren
Ġlead s
Ġfact ory
Ġimport ance
is c
ĠM id
Ġclaim ed
ĠB as
ed ge
Ġt end
Ġdes c
Î ±
Ġt ournament
st ein
Ä ±
ĠL uc
In v
ĠCar l
pos itory
Ġdiffer ences
r ical
Ġv e
Ġv ent
J ust
cont in
ĠOh io
Ġs ister
Ġin frastructure
Ġw aves
Ġcreat ive
Ġhers elf
Ġnew sp
ĠSecret ary
Ġf n
M atrix
Ġreview s
des c
Pro xy
app ly
Ġvacc ine
Ġwait ing
ĠP C
) ">
ĠB it
ĠN iger
Ġw ww
-> _
++ ;
S QL
Ġv irus
T erm
ĠBro ok
iss ue
ĠT w
ĠR om
Ġk id
ĠAs ian
Ġcomm itted
it u
Ġc old
Ġsur g
Ġman age
ĠC ivil
Ġl icens
Ġv ideos
Gr id
Fil es
fl ags
g ame
Ġtr uly
Ġinv alid
not ation
Ġliter ature
'] )
Ġro les
Ġblock s
ot es
S IZE
del ta
Ġre cover
he ll
Ġ" "
Ġinst itutions
ack et
Ġre ader
T wo
b ury
ident ial
Ġprep ared
ĠQue en
Ġ( \
enn is
udd en
Fl ags
Ġp itch
Ġex amples
Ġestim ated
ĠSe ason
el a
n ight
g it
w orld
Ġl ib
ann a
Ġc as
ost er
at ible
Ġportr ait
Ġ io
Ġhom es
n etwork
or ph
ĠW atch
ep s
ĠV ideo
hand ler
Ġdist inct
Ġinc orpor
Ġtrack s
man ager
D Y
ĠS pec
Aut o
ER E
U LE
ts d
Ex pr
iven ess
Ġrec ording
sup er
ont o
Ġsqu are
g a
typed ef
Ġd ance
D P
Ġse asons
ch er
Ġparticip ants
mon th
Element s
Ġs cre
cre d
itution al
ĠJew ish
Gener ic
P ay
ĠI l
rou d
Ġc ash
ili ar
Ġmag azine
B E
s ylvania
F inal
Ġhapp ens
ĠMus lim
mod ules
Ġcorrespond ing
Ġse gment
c b
ç ļ
Ġadv oc
M OD
RE AD
ĠĠĠĠĠĠĠĠĠĠĠĠĠĠĠĠ ĠĠĠĠĠĠĠĠ
Ġm ac
Ġexcell ent
Pl ugin
ov iet
up load
ĠS aint
P ATH
Ġgu y
Back ground
Ġscient ific
Ġex pos
j pg
ĠM ic
un a
} </
Ġtop ic
Ġpur poses
Ġsever e
A F
Ġcandid ates
Ġincre d
Ġserv ing
are a
ĠN avy
ĠS ir
C ond
Ġk ick
N T
end or
D ouble
ĠS ource
Ġg ender
Ġextrem ely
ĠH as
Ġsuc ceed
ĠL ittle
ĠĠĠĠĠĠĠĠĠĠĠĠĠĠĠĠ ĠĠĠĠĠĠ
B rowser
S pace
Ġpred ict
çļ Ħ
et es
Ab stract
ĠIn itial
Ġp un
ear s
ck now
ĠI T
ĠSe a
ed u
S ER
in ating
ĠN av
Ġm and
ild e
ĠP RO
ĠD ou
Ġacc ident
Ġdi agn
ĠP ay
ook ie
Ġcons umer
ĠPar liament
e ach
fig ure
ĠT aylor
str a
erv ative
? "
12 8
Ġam azing
Ġfa ith
Ġcol lected
Ġel im
ĠT ODO
Ġso ft
Ġg lob
ap pe
ĠA I
Ġw inter
Ġinsp ired
Ġdec isions
w er
h ab
p df
ĠBro ad
Reg ister
ĠA P
nes ota
Ġ ðŁ
ĠSt an
res et
ut f
ĠP y
Ġcy cle
Ġhold ing
Ġadv ice
Ġseem ed
ĠW is
B P
g i
ĠN ick
web pack
Ġslight ly
NavBar Cell
Ġpay ment
Ġm ort
Ġc er
t witter
ly n
co res
Sc roll
b rowser
Ġb ond
an ner
che ster
Ġgu arant
Ġ[ -
Ġab stract
Re port
Ġpi eces
ĠW at
G O
Ġstud ied
ĠComm on
Ġrece iving
is a
com pl
Ġimprov ed
Ġe lections
s igma
! [
Ġsh ares
Ġwin ner
Ġindust rial
ow s
Ġl atter
ĠM S
Ġpl anned
Ġv en
Ġclass ic
Ġlo op
Ġte aching
m ann
t mp
Ġcl im
Ġsym pt
ĠB ang
& &
Ġconc ert
ĠOlymp ics
Ġsh aring
iv ation
ĠW ales
iter ator
ed itor
% .
Ġre tr
ĠN on
198 3
Ġm al
Ġf ell
Ġdram a
Ġexperi enced
g ov
Ġin ternet
Ġop inion
Ġin n
Ġline ar
Ar ch
Ġwatch ing
ĠE gypt
og y
( -
33 33
At tributes
Ġphot os
Ġcol on
Ġemer gency
Ġte le
Ġend s
R AN
ĠK now
J ava
Ġim plements
ĠBrit ain
Ġan cient
ĠS us
Trans form
Ġbr anch
IN D
Ġsol ar
Ġtype of
Ġconf irm
Ġsign ature
h idden
How ever
Ad apter
Ġ( _
ĠIll inois
V E
Ġwould n
ĠEngine ering
mer ce
S ymfony
L im
m i
ay a
Pro duct
Ġcre w
Ġp hen
il ton
ott en
act s
Ġas ync
j e
n amed
Pro p
ĠB lock
N ULL
c ert
Ġt error
Ġdet ailed
log ger
198 2
L ook
Ġs and
ĠYou Tube
Ġmov ies
er ia
ĠSt ory
Ġal umni
iz abeth
Ġtechn ologies
UT F
let ed
let s
Ġpre v
ĠJer sey
C ap
ĠIm age
Ġcomm ittee
Ġsche me
t abs
ĠN ext
ach ment
SC R
od d
br id
Ġrec ip
N C
N ov
ST AT
key word
( __
Ġpo inter
ex ternal
Ġres erved
Ġs outhern
ĠB ad
stru ctions
f ail
math rm
li x
fort un
Ke ys
ĠK ong
To String
ĠRe quest
Ġthan k
ĠW rit
Mem ory
as m
ent h
197 9
ch or
Ġv ul
ap ore
ĠTh ree
ĠSo ftware
ĠPr ime
Ġsk in
ĠChild ren
Ġautom atically
ech o
ĠPro cess
Ġpass word
ĠF ac
Ġre q
Ġcoun cil
Ġw itness
ĠCh air
Ġeff icient
ĠB ern
ĠK ent
bur gh
get Name
1 10
Ġcirc um
Ġtre ated
D est
Ġex plicit
Ġun c
ĠKore a
he w
ĠS om
ĠC R
ĠS her
S Y
ass ets
hes is
IG HT
Ġres olution
Ġl oved
ĠC apt
Ġmar riage
ĠF air
Del ta
Ġplatform s
met adata
st ances
Ġgu ard
Ġd ress
ĠOn line
Ġcamp us
ten ance
Ġatt ended
Ġar my
osoph y
Ġcontr ast
art ers
ident ifier
Ġfight ing
Ġmass ive
Ġturn s
Ġmin ute
Ã £
D em
ĠRes ource
ch annel
b ro
if fer
pe ople
Pl ay
N ational
IP T
al ar
ĠD ist
i y
Ġm ent
Ġarr ived
ir ation
an es
X ML
Ġre nt
mut able
Ġbel ong
Ġauthor ities
Ġinitial ly
Ġbr ings
Ġde leg
Ġz one
O UT
Ġ> >
Ġexpl ore
Ġdis s
Ġact ress
um a
Ġ era
Ġauthor ity
f ast
Ġjust ice
ĠMc C
fol io
Ġcan cell
D uration
ĠÂ ©
Ġnuc lear
Prot ocol
Ġ$ {
or ough
Ġst ored
in ity
Ġhot el
Ġsp aces
Ġex it
Ġfor t
Ġcook ies
Ġrel atively
Â ©
Ġest ate
ak s
Ġrefer red
iss ues
Ġas sets
Ġrelationship s
ĠF ull
Ġhe aring
Con str
out s
I MP
Ġgu ess
L ayer
ĠT em
or al
ro vers
ĠCh ange
RE S
ĠĠĠĠĠĠĠĠĠĠĠĠĠĠĠĠĠĠĠĠĠĠĠĠĠĠĠĠĠĠĠĠ ĠĠĠĠĠĠĠĠĠĠĠ
ĠF ox
ĠM ir
Ġchem ical
er al
det ails
av id
IT E
Ġbeliev ed
C are
ã Ģ
v in
Ġacc eler
Ġenc oding
ual ity
reg on
Ġsch olar
Ġnor thern
Ġexpl ained
ĠBook s
Ġassoci ation
Ġeas ier
tr igger
Ġfre edom
u ations
ĠA z
eg o
S pe
ĠO x
pre ne
Ġ( @
Ġin vent
ĠPenn sylvania
s witch
Ġpass ion
ĠE st
Con f
Ġexpress ed
Ġst orm
ul s
Ġbehav i
Se lected
ĠO N
Ġnav igation
ĠR ay
Se ction
F ail
[ $
Ġca uses
Ġengine ering
Ġe c
S ervices
ĠF I
h ide
Rem ove
G R
Ġ[ ],
ĠSt eve
Eng ine
A CT
ĠCl in
Ġvol unte
ĠPh ot
F IG
Ph oto
ĠC ur
Ġteach er
F unc
ĠAn th
Ġv ac
Ġc ert
Ġs ounds
un ting
Pro file
ĠV ill
Ġresearch ers
Ġb ow
Ġpro of
tool s
t otal
cont ains
Ġin ner
Ñ ı
Ġapplic able
> :
ĠM u
Ġa thlet
Ġaccount s
Ġreg ul
Ġ urban
Ġeven ing
ĠR od
w a
Ġhon or
Ġsp ons
M any
iz z
Ġspec ifically
ĠD ar
Ġca ught
Ġreport ing
ĠA li
_ (
Ġpr iv
N ote
her ited
Par se
Ġdeliver ed
Ġac comp
red it
f all
sh op
Ġarchitect ure
re prene
ri e
us et
Ġnetwork s
ra q
o ir
Ġdef end
198 1
dom ain
Wh ere
an th
T otal
Ġalong side
ĠK r
part ial
up l
Ġfe aturing
i ples
ĠInst agram
Ġsche dule
id x
ens es
Ġwar ning
ĠL abor
^ \
Ġtw ice
pl atform
ro le
+ \
Ġinc ident
ĠB oy
Î ¿
=" ${
ĠSt aff
ĠC ro
Stat ement
new s
prot ected
c uss
Ġem phas
ĠA sh
iz able
L INE
at tributes
Ġinstr ument
Com ment
ok ed
Ġass igned
Ġsuggest ed
ĠM ajor
Ġch ampionship
ĠL atin
Ġact ors
z one
Ġpass ing
Ġfe e
or iginal
force ment
U nder
am ber
ĠIO Exception
Ġshoot ing
ĠR en
) ).
Po inter
in ates
W N
ĠE nt
ĠS em
ug h
Ġaff ord
Ġ ing
ĠF OR
Ġs ummary
Ġe lev
Ġsp an
ut r
ĠSup reme
Ġ= ========
M ut
al o
Ġch osen
ĠB attle
Ġper man
Ġexper ts
Ġa wards
Se qu
Comm on
S eg
FF FF
ĠDis ney
Ġd ynamic
ĠH ash
Ġm olec
ĠCom put
= #
ĠN C
Ġgre w
Ġ" <
At tr
Ġsh ock
sub s
play er
Ġtechn iques
Ġfil ed
Ġs ynt
Ġfe els
Ġf illed
cl ip
j ango
Ġt on
Ġmain ly
y ard
Ġfind s
Ġev olution
. âĢĻ
in son
ĠOn ce
Ġset up
197 2
Ġread ers
ast ers
Const ants
Ġcons ists
hor izontal
ĠComm and
E very
ĠMin istry
ex tern
Ġint eger
Ġfig ures
Ġkeep ing
Ġre lation
Ġad min
f d
Ġfl ags
ĠC ost
ĠH ard
! "
Ġcon nections
W R
Ġdem ocr
s che
our se
Ġus age
Ident ifier
ĠK enn
LE CT
ĠF ind
Su ccess
) /
Ġd ialog
by tes
Ġsub stant
ĠA T
te en
Ġdest ination
Ġbring ing
Ġalleg ed
CE SS
Ġtr uck
Ġg ene
ĠT urn
ĠH ong
197 6
ĠAre a
Ã ±
ĠE V
Ġf at
Ġprom ote
RE E
Ġposs ibly
Ġrat io
ĠEmp ire
Ġmot ion
En ter
ĠD eb
= >
build er
Ġprof essor
ĠL td
config uration
Ġbr idge
Ġcompar ison
pro ps
Ġcont roller
Ġsecond ary
r ame
Ġsize of
t ons
ĠEast ern
Sub s
p refix
C am
F in
int on
z z
it i
Ġs ides
ĠR og
) ),
pl us
ĠĠĠĠĠĠĠĠĠĠĠĠĠĠĠĠ ĠĠĠĠĠĠĠĠĠĠĠĠĠ
P od
g amma
w all
Ġdef initely
Ġcollabor ation
Ġnew ly
AL SE
ĠR a
G A
Ġap art
Ġsup posed
Ġp y
Ġd uration
ur d
ant ly
ĠG reek
S ocket
ĠPr ince
Sc ale
Ġcont est
N N
olog ist
Ġdou bt
Ġxml ns
M apping
Ġearn ed
ĠOb ama
ĠF urther
lim it
Ġe g
Ġy ards
ĠGu ard
det ail
Ġp ed
p arser
Ġag ric
Ġrespons ibility
Ġins urance
197 8
Ġg ar
l ights
Ġm ach
Ġm useum
ĠN FL
p icker
Ġrecogn ized
Ġhealth y
Ġexp ansion
Ġmark ed
Ġequ ivalent
Ġhous es
the ta
ĠA k
Ġm el
New s
f old
Ġrestaur ant
Ġl ayout
y o
Ġcon structor
ĠExecut ive
ĠL ew
ect ors
g ba
^{ -
Ġhy per
Ġre venue
g reen
Ġd ensity
Ġpattern s
W rapper
ĠP ers
Ġd ict
F ailed
O B
ĠI E
Ġc tx
Ġwh atever
fil ename
ap h
ĠSt ock
Ġa id
Ġmod ified
AD D
ĠEx pl
ĠM essage
ĠMin nesota
ĠT y
] {
Ġvert ical
Ġther apy
W atch
ser ial
P lease
ars ed
O pt
ĠScot land
ic ious
ĠGover nor
Hel p
b rief
sa fe
as hed
10 1
Ġe at
ach uset
: #
Ġgu ys
Ġc art
ir ms
achuset ts
F ree
', '
ĠM ember
Ġentire ly
ag a
Ġcour ses
ou ston
Ã£ o
Ġdocument ation
ĠS ep
ps on
Ġd ry
Ġ urg
Ġf lood
ĠA ud
ĠR on
ĠB al
Ġexpl ain
Rep ository
ĉĉĉ Ċ
ĠCorpor ation
Ä ĩ
t ags
N OT
C re
ore m
result s
S ync
on ia
R oute
li k
D ay
Ù Ħ
ĠA D
ĠP H
ug s
Ġl ose
onym ous
og rap
ĠV iet
Å ¡
hem at
w ild
Ġprim arily
Ġar ts
Se lection
s ol
197 5
poss ible
Vari able
Ġneg ot
d em
Ġfav our
Ġas pects
Ġneighbor hood
W rit
Ġdif f
oc cer
ĠPhil ipp
ĠB ol
W est
Ġinterest s
ĉ ĠĠĠĠĠ
ĠF uture
Ġst ores
TI ME
art icle
Ġre new
Ġstop ped
196 8
Ġwest ern
Col lections
ord an
Ġapp end
U SE
Ġmed al
Ġl it
ĠD ocument
å ı
Ġ" ,
Ġschedul ed
Ġr ough
Ġse ed
ĠS at
adel ph
do or
Ġrepresent ing
Ġs now
Ġsp ending
ĠL ook
h u
Ġworld wide
l ow
Ġdr ag
ĠAn other
Ġcom edy
def ined
et ary
ĠW AR
Ġman ner
Ġlarg ely
197 4
Ġre action
ver ter
G ame
197 7
par a
Ġr ing
Ġo dd
Ġex tr
Ġcapt ure
nd ef
Ġfrequ ency
Ġint elligence
Ġent ertain
ex ecute
Ġa cknow
ĠN AME
Ġc ab
Ġwe alth
agnost ic
Ġh aven
Ġpers pective
Ġdro pped
call ed
do i
Ġhum ans
Ġw aste
ĠP ut
Ġdom estic
Ġconsum ers
ol is
Ġch annels
pre v
Ġsett lement
ĠA venue
Ġon going
l an
Ġprogram me
Ġgr id
li ance
Ġte ch
Sim ple
ĠF red
Ġord ers
ĠU t
Ġprom ise
ĠTh rough
n ce
Ġorder ed
iter al
Ġreturn ing
ru ption
Ġes cape
Ġsc r
ĠP en
Ġfl at
ax is
b en
Ġal gorithm
Ġact ing
Ġwid ely
Ġhistor ic
Ġcharg es
if iers
ĠAg ain
) ->
col lection
BU G
$ $
j unit
Ġbr ight
op ed
ĠE ll
adelph ia
Ġlink ed
Ġrecomm ended
Ġv eter
Eng lish
ĠPro duct
ĠPh oto
n u
C ast
Ġcomp re
Ġs udden
riz ona
C F
head ers
ĠF ord
Ġ ×
ĠB a
Ġinteg r
Reg ion
ar c
Ġ queue
in f
Ġstand ing
Ġrepe ated
Ġanim ation
Ġlang uages
C ategory
â Ĥ¬
ra ham
Ear ly
Ġmet adata
r ho
s ur
if def
m ask
ow nt
-------- ----
Ġv ir
Ġc e
ĠB on
Ġmed ium
Ġac quired
ail ing
Ġs we
Ġdec ade
am i
de cl
ĠHT TP
Ġc ards
Ġl ies
Ġinvest ors
He aders
197 3
Ġen v
ĠI ss
Ġrequest ed
ĠĠĠĠĠĠĠĠĠĠĠĠĠĠĠĠ ĠĠĠĠĠĠĠĠĠĠ
ĠRep resent
Ġtest ed
Tr ace
Ġex ecution
Ġres c
J oin
cept or
nap shot
b les
ĠO regon
ĠM O
Ġper mission
cons in
s ervices
ist ed
Ġ" -
ut ely
es ome
Ag ent
ibr aries
prov ider
Ġpost s
d p
Ġdecl ared
pre c
b log
Ġs um
Ġassess ment
st orage
ĠC at
Q U
ĠC reat
ĠOr iginal
ell s
enn es
Ġport ion
Ġtask s
re port
w hen
Ġw ins
Ġfam iliar
Un ited
it is
Ġindic ate
Vert ex
d ialog
Ġgre atest
Ġcorpor ate
ĠC ase
Ġ ip
Ġexpand ed
ow a
Ġretr iev
M ult
A ust
Ġs ac
og ether
E V
Ġdis abled
ĠSh ort
Ġcontrib ut
i pl
Ġr ural
Ġm ess
ĠDon ald
Ġinfe ction
ĠP ubl
Ġc le
press ed
ĠCon nect
M ost
Pro gress
Ġc ro
Ġc raft
ĠC hem
ug by
R ole
Ġp roud
Ġtrans parent
en ant
Ġform ation
ig ate
Gener al
ĠS oviet
Ġconsist ent
Ġfac ulty
Ġu i
are t
us ers
Ġbel ief
ĠCoun try
M ake
col Last
Ġwe ar
Ġcont emporary
let ter
Ġadult s
le q
Ġfootball ers
is lation
âĢĻ .
Ġfr ag
ĠColor ado
ĠEd ward
M iss
Ġco al
w orth
Ġl osing
Ġpro min
ĠE ric
ail ability
() </
Ġbro ken
N odes
O ct
Ġp arser
ĠDe ath
Ġp refix
ĠC reek
M er
Ġimplement ed
Ġsuggest s
Ġat m
al ty
Ġepis odes
Ġal ert
sh adow
HT TP
Ġpro ve
ĠC urrent
ub s
Ð ´
d eg
ĠW IT
Un iversity
Gener ator
rior ity
ĠSing apore
c raft
Ġvul ner
">< !--
Ġs yn
196 9
Ġin hib
Ġstat ements
Ġre covery
Ġsign s
hens ive
an z
ĠM ill
res ources
ru le
ĠUn ivers
t c
l aw
ĠD u
ĠD am
M icrosoft
; )
Ġ[ "
it led
Ġconvers ation
Ġdo ctor
Ġocc urs
ĠSt ation
prot ocol
Ġd iverse
y cl
con n
nav List
and y
out heast
Ġas sembly
Ġver ify
Ġhe av
ĠB all
Ġjud ge
er g
Ġserv es
Ġd a
Ġp ra
ĠEl izabeth
Ġfind ings
col First
ĠMan ager
Ġpublic ation
d one
D at
pro gress
U ri
aj ax
ag ues
Ġ[- ]
ĠT ra
ĠN ic
ĠSch olar
Ġredu ction
Ġindic ated
Ġw ave
Res ources
n i
ĠW el
IT ION
Ġl ay
ĠDav is
Ġap ps
op her
ik a
Ġcomp are
ĠU I
ĠTe ch
P refix
ĠD NA
P U
Ġsub mit
Ġres istance
Ġw a
ĠColumb ia
ĠTh us
ar on
s pecial
ct rine
ĠR ight
nt ario
Ġal ter
Ġpr ivacy
ater n
e en
sh ips
ĠC as
Ġt um
âĢĻ ,
Cl uster
ĠC ore
Ñ Į
Ġb ass
F R
UR I
Ġstrateg ies
se x
ĠPro perty
m aven
Ġre con
Ġint ent
ĠWil son
w rapper
Reg istry
19 40
ev al
Ġperson nel
Em ail
Ġun able
be an
Ġind epend
M at
ap ed
ĠR os
A ng
Y our
ĠE R
Ġdiscuss ed
Ġachiev ed
Ġgrant ed
Ġprom pt
Ġs aved
or i
TEX T
ul ating
Ġex ecute
Ġcompl iance
ĠB E
ĠRe act
P D
Ġt ail
Ġ ri
Ġpolit ician
M r
Ġcont rolled
erv es
197 1
ĠI raq
ĠPort ug
Ġclos er
Ġcon ven
Ġmin ister
k ing
Ġre ct
O M
anc ell
ĠC ru
Ġincre ases
ĠH om
Str uct
ĠS C
comp iler
ĠWh ere
Ġteach ers
Ġexc ited
Not es
n il
Ġs pr
ĠTor onto
Ġar ms
ĠJ ean
19 30
ist ing
Ġdrug s
V M
Ġweap ons
Ġdanger ous
l ayer
Ġtit les
ĠMass achusetts
Ġ' <
ĠG reg
Ġ= ======
ĠA ge
ĠStep hen
bo ost
Ġsympt oms
J S
ĠCon f
Ġsurround ing
Ġb att
> ::
O F
Ġher o
os ed
du ce
Ġseek ing
ĠC ovid
Ġpro xy
eng ers
7 00
ĠInt eger
Ġaddress es
Sh ort
sv g
ask a
Ġent r
Ex ecut
Ġnear by
Ġb odies
gener ated
ut ral
V D
u ce
ĠDe ad
Inst all
ch i
dep th
f x
Pass word
ĠAir port
ĠL ow
ĠPro t
Ġphot ograph
St ats
Ġr h
ĠS ant
ĠCh annel
Ġcont ained
Ġtarget s
Ġask ing
iam i
ĠHar ry
t body
ĠP A
pt on
Ġvoc als
L en
ul pt
SCR IPT
Ġf ly
Ġde ploy
user name
M ulti
ĠAdministr ation
Ġt x
Ġcharg ed
b ra
Ġexerc ise
Ġprior ity
ĠAp plication
Ġvisit ors
ou red
Ġk it
Ġw ire
Ġmount ain
en abled
Ġfif th
Ġcont rovers
U D
Ġend ing
ot ion
param eters
ak h
ĠCl oud
Ġass istance
N amespace
ĠT al
cept ions
i ated
Ġsold iers
B AR
w ing
se ason
index Of
it als
Ġyoung er
Ġp ure
ĠOff icial
Ġh abit
i ac
err ors
arch y
o or
Ġwill ing
Ġsp in
b at
TR Y
Ġst ret
ĠS anta
coll apse
P ER
s q
F ORM
ab ric
ĠOff icer
Ġs oul
Ġarrest ed
hold ers
Ġen um
(' .
un es
ĠReg ion
ĠF all
g re
ĠS QL
k es
Ġexpl an
Ġdr ivers
Ġm ir
p u
Ġ ],
Ġconf idence
o ices
Pro ps
Ġhead ers
Ġcomp r
Ġocc asion
h av
Ġstr ings
ce ive
" /
Ġcont ents
erv let
Ġbr ands
all classes
ĠF ROM
oc ity
on om
Ġb aby
ĠSt adium
. ");
tain ment
Ġattempt s
Ġdep ending
ĉĉĉĉ ĉĉĉĉĉ
B en
eder ation
ab out
ĠV en
Ġin fl
Y es
Ġ Ø
ĠAcc ount
ĠR yan
ĠB efore
comm od
m ic
Ġfound er
ĠD aily
Ġext ent
Ġdep ends
th on
ĠB ox
lo om
id ae
Ġwel come
sh ared
Ġli qu
ex pr
Ġac compl
ĠB BC
Ġco ff
Ġeduc ational
Ġ ).
Ġinnov ation
CO MP
y ou
ĠAd am
ivers ary
196 7
Ġcy cl
W ell
Ġf aster
Ġlog ger
umm y
| \
ff ff
in valid
az y
P res
Ġprep are
m ac
Ġexpos ure
Ġenc ounter
Ġag encies
ĠS on
Ġsustain able
Ġappre ci
ĠLO G
u ction
Ġunder st
Ġult imately
ĠPro te
ic ide
Ġsh ips
ile y
Ġlist ing
' ));
as sembly
St op
Ġhundred s
The n
y t
Ġfrequ ently
D elegate
Ġign ore
Ġput ting
Im port
Child ren
D ist
ĠTrans port
ĠCap ital
{ "
osph ere
ĠStud ents
L in
Ġex ceed
Ġcre ates
ĠT E
ar ity
ĠO S
igen ous
u able
ĠFin ancial
ynam ics
Ġmatch ing
Ġbatter y
Ġcor re
S che
in ch
Pl ayer
un ique
Ġfore ach
en able
ĠC hen
{ %
u v
S ur
Ġres olve
ĠT am
ag ger
L eg
C opyright
ĠH o
Ġel ig
view s
EN SE
fl ag
ĠEconom ic
th row
Ġconcern ed
ĠSh ould
ext ension
h ard
ĠW ars
ĠBr ad
Ġsubstant ial
l ibrary
? >
Sh ape
Ġcontrol s
ĠAlex ander
< !
1 30
s ys
Ġdec ide
includ ing
p red
co hol
Ġcommit ment
Ġtop ics
12 5
ĠC ulture
St ud
Ġtyp ical
t au
ĠEd itor
Ġcl ock
Ï Ħ
f lix
Ġelect ronic
B AG
Ġprogram ming
yd ney
ĠB ell
AT ED
ĠP ot
Ġent ries
Ġleg isl
e ah
ĠChampionship s
ag ent
ĠPr ivacy
Ġfund ament
ak i
Ġlist ener
ĠCont in
; }
Ġsuff icient
Char acter
Ġor ig
Ġsqu ad
ĠF A
Ġtem p
v ec
h ref
ĠB and
19 45
Ġvot es
Ġc overs
ĠVal id
Ġt ack
Ġw ine
ĠÂ ·
ĠRec ord
ĠB rian
Ġpolit icians
ĠThere fore
Ġst ands
ĠE mer
ĠM D
Pro gram
Ġwor se
M AC
quis ition
fe ature
b el
S ingle
Vis ible
r andom
ex ists
Ġgood s
Ġprov ince
Ġdestroy ed
(' /
ĠAr m
Ġperform ing
N amed
$ /
S yntax
ĠBer lin
LO CK
Ġcor onavirus
f lex
Ġass ign
ĠW H
ĠB u
ĠS H
Ġv ary
spring framework
19 20
Ġ ];
ĠB ru
ĠL y
Ġenh ance
ĠS D
Ġstri ke
Ġab use
Ġag ents
Ġunc ertain
Â ®
Ġad j
iam ond
v ideo
Ch rist
ir k
Ġsc roll
um in
du ced
ĠD utch
c ers
H is
fortun ately
St and
Ġtrans late
Ġdeb ate
ĠY es
ym ph
En vironment
Ġb inding
Ġleg end
Ġm atters
ent ed
V olume
cle an
} {\
bl ank
Gener ated
end a
and o
Ass oci
Ġb ought
Ġt ight
Ġact s
p ull
Bl ack
Ġro of
Ġc md
ĠR ose
$ -
aa aa
ĠWis consin
U ST
Ñ ĭ
ch a
Ġ? >
Ġno ise
av ity
ĠPl ace
ï »
Ġthought s
An other
ĠMag azine
ĠD ark
Ġmet a
F LA
Ġscient ists
ĠM iller
ĠR aj
if ts
ĠFore st
Cl oud
Ġr ide
Ð ¼
Ġm it
ĠBuild ing
ĠN a
AN T
TR UE
ĠArray List
ĠF C
Text ure
as ync
ĠS che
T x
Ġfl u
Ġparticip ate
Ġs ending
, '
Ġb anks
Ð ²
18 0
Ġrecogn ition
ĠL A
k top
Ġm ouse
ĠB at
Ġm o
Ġcolumn s
L android
ï» ¿
Con nect
ip her
L I
b ot
Ġde bt
log in
} (\
Ġs elling
ar ry
ĠRes p
her lands
AN G
ast s
Ġindic ates
f ix
Ġadd s
ĠAN Y
oc aml
Ġder ived
Ġproper ly
em an
Ġperform ances
ades h
F N
if ndef
Date Time
. ",
Ġcrit eria
Ġout comes
Ġadopt ed
Ġch apter
Com par
Ġdefe ated
Ġscen es
ĠUs ing
ĠT ok
Ġt ough
S ummary
ĠJ enn
Ġun iform
Ġfac ilit
app oint
ĠOx ford
Ġa xis
DY BAG
C apt
Ġcharacter istics
b m
Ġnull ptr
Ġexc iting
ĠN ations
f c
app y
ession al
ĠSystem s
n odes
Ġpre gn
eg as
Ġhealth care
ĠRef er
B ound
Ġt err
es is
Ġm outh
ĠRes ponse
S M
ug ar
iv ated
ĠA h
Ġn ob
ĠIs lands
lyph icon
En umer
ĠO s
Ġass ume
Ġsw im
Ġclub s
19 64
th ur
Ġt mp
i est
ĠSt ore
Ġfac ing
ro g
x s
j ob
x html
Ġv ess
Ġte en
Ġcap able
ĠP O
Ġlett ers
ĠS ong
Ġstat istics
Ġmov es
Ġtyp ename
Ġhon est
( @
ĠAg ency
Ġres et
Ġassert That
a ired
ĠMod ern
Ġben ch
Ġbo ys
L anguage
t emp
P ress
Ġfor g
az e
Ġext ensive
Ġhor se
(' #
Ġshe ll
Ġcommon ly
se ud
ĠH ttp
t w
ĠĠĠĠĠĠĠĠĠĠĠĠĠĠĠĠĠĠĠĠĠĠĠĠĠĠĠĠĠĠĠĠ ĠĠĠĠĠĠĠĠĠĠĠĠĠĠĠĠĠĠĠĠĠĠĠĠĠĠĠĠĠĠĠĠ
ĠA rizona
Ġtrans actions
Ġmom ents
ĠA C
Ġmanufact uring
Ġload ed
face book
ele m
lo ader
ag en
Ġadvert ising
ĠIn f
Ġwor st
re ll
Ġt or
ĠRes ources
Ġg ift
Ġst one
Ġf ake
ĠI V
ĠL ady
B ind
ĠL anguage
Ġprovid ers
Ġ{ {
B i
On ce
Ġm ile
Ġ{ "
ĠĠĠĠĠĠĠĠĠĠĠĠĠĠĠĠ ĠĠĠĠĠĠĠĠĠĠĠĠ
r uby
Ġspe aking
Ġd ates
Ġeff iciency
Ġclos ely
A pr
v olume
. <
Ġm m
Ġform al
sk y
ĠH ay
EE EE
S ave
Ġ$ .
ID TH
Ġtro ops
ĠCont ent
Ġext end
ĠAnt on
ok ing
M ich
Ġbase ball
ĠM ult
Ġplan et
tern oon
ĠT ake
196 5
Ġsol o
medi ate
ĠR eb
Ġsub st
ov al
empl ates
Ġup coming
own er
Wh o
Ġdeg rees
D avid
d x
Ġfeed back
Ġpl enty
ĠDes pite
Ġincreasing ly
g ar
Ġconsider ing
Ġeffect ively
T ok
Ġpers ons
ĠC ond
Ġsil ver
F ore
N V
H L
Con n
Ġtalk s
Ġ ..
op ts
Ġdiv ided
Ġd iversity
cd n
Ġcomb at
Ġrisk s
Ġentertain ment
Ġm igr
F E
ad ed
IN S
ĠPhil adelphia
O h
IN TER
ang ers
Ġn arrow
) -
Ġn p
Ġcop ies
ĠVictor ia
B B
ĠMount ain
pe at
I gn
ud a
check box
Ġsp oke
ĠC ount
ft y
om atic
ĠO ntario
ĠN AS
R S
A ug
Ġdescri bes
L ibrary
ĠĠĠĠĠĠĠĠĠĠĠĠĠĠĠĠ Ċ
Ġret ire
Ġpubl ish
aw ay
In formation
Ġestablish ments
Ġpercent age
Ġorgan ized
Ġaccess ible
ĠH ouston
Ġm ob
Ġleg islation
ĠProv ince
ĠP sych
Ä į
W ait
oper ator
ĠSt ream
ĠT ax
Ġli e
196 6
Ġide al
ĠT ag
In ternational
Ġexist ence
un ter
Ġr gba
Ġcan cel
j Query
Ġso il
Ġbeaut y
Sequ ence
ĠK at
Ġpl ugin
Ġofficial ly
Ġb ind
Ġval ign
ĠB C
t le
ĠHistor ic
r ift
ann y
ag raph
pat tern
L P
Down load
Ġret ired
Ġcapt ured
ĠS ab
ĠIn put
ĠStud y
Ġl ists
Ġse ctions
p ub
pro of
ĠInst ead
M ath
ĠG er
Ġ' \
agnost ics
Ġf estival
Î ¹
ĠSen ior
Ġassist ant
Ġtime out
Ġhost ed
Ġvis ited
com plete
Re al
ĠPr inc
ĠGold en
M ill
Ġus ual
Ġh its
Ġor ient
require d
F UN
a is
Ġoper ate
t aining
Inter val
Ġinst ances
T T
h y
Ġexpl ains
ap os
ĠDemocr ats
Ġoper ated
ĠAff airs
B rit
Ġs in
Ġse ats
d on
w arning
Ġst ick
cl uster
Ġc ategories
Ġsubsequ ent
ĠL at
ĠEd ition
Ġpl ane
Ġ ur
ĠK evin
Ġpotential ly
ĠStand ard
ĠQ uest
arr ing
Ġsu it
Ġreg istration
b ul
00 1
greg ate
Ġmill ions
L ike
Ġrespons es
f ixed
Ġab andon
or ient
ĠSt atus
Ġmeas ured
ed ing
R C
az a
Ġconstruct ed
PO ST
Ġexp ensive
ib ilities
am azon
Ġt aught
Ġv irt
Ġcrow d
m oz
print ln
Dom ain
t or
; ">
U K
AR D
Ġhand ling
ing ham
ĠUn it
Ġe le
d ot
ĠR ome
Ġdeb ug
Trans port
ĠHol lywood
ĠPr act
Ġso le
ĠPol and
ĠS ite
Ġlo an
R uss
ĠG ro
Ġwalk ing
ateg or
Ġg od
clos ed
pp ing
ĠCE LL
Ġemploy ee
qu ir
i Ã³n
DE FAULT
ort heast
ĠHe art
pl ier
por ter
Ġdec or
ĠT ai
us form
plic ated
numer usform
re ement
Ġdoll ars
} ),
c ountry
c it
Ġrefer ences
Ġmiss ed
Ġatt ached
Ġvict ims
Ġl ots
pro xy
"" "
ĠW inter
Ġinvolv ing
A nt
Ġshe l
Ġchar set
ind u
b ell
ific ial
ĠPro p
Ġst im
Ġcol le
b as
M ac
Ġb uf
ĠL es
Ġresult ed
OR Y
'] ['
MOD ULE
eq ref
Ġp owers
part y
P Y
C ard
Ġgr ade
Ġlist ening
Ġlands cape
Ġqu iet
ĠC lient
VAL ID
Ġmed icine
Ġind eed
st ers
ang a
Ġlim its
Ġsurg ery
support ed
the me
time out
Al though
qu ad
ef fic
s ince
o en
W allet
ĠM oh
Id s
el le
ĠM arg
Ġco q
ĠLew is
Ġm ine
Ġmonitor ing
b c
re qu
ĠHot el
. \
Ġh all
Ġ" $
Return s
Ġmechan ism
get Element
our i
ĠKore an
........ ........
Ġsup erv
S outh
Ġpurch ased
Ġl es
Ġsem i
ĠL ev
Ġfor get
ennes see
g ments
AN CE
r ations
Ġrem ark
ist ence
Cont act
Ġwrit es
Ġtw enty
down load
ĠM oon
pro fit
we ek
Ġread only
Ġappe al
Re quired
c atch
() ))
Ġtrans lation
ĠB h
Ad min
ĠG h
M IN
ĠL iter
Ġv el
Ġt elling
at ial
comm ons
Ġcompos ed
Ġinnov ative
Ġc ensus
Ġrelig ion
ain ian
Ġf asc
Ġy ellow
plement ation
ĠFr ont
Be an
ch ant
Ġk illing
check ed
He alth
Ġexhib ition
Ġs weet
con sole
Ġinter action
ur ers
ĠFore ign
ĠTr ail
el lect
Ġnewsp aper
ate way
test ing
" ],
Ġex posed
Ġpod cast
Rev iew
Ġsubject s
Ġprinc ipal
is ode
Ġmod er
CT YPE
Ġstre ets
Ser ies
Ġv ast
ĠL com
ĠT reat
py thon
re lease
Ġappro val
aly tics
M ask
Ġrail way
Ġeval uation
ach er
ĠK ansas
con structor
ay ed
il k
Ġadv is
sw arm
au x
Style ID
oun ce
Ġ( [
ĠH ave
un ct
IN FO
C lear
Ġp ictures
Ġemploy ment
ĠDo es
Ġdim ension
Co ord
S ort
Ġst yles
Ġop position
v an
Ġposs ibility
ĠD ream
St ar
ĠB log
hel per
RE D
spec ific
ver al
Ġth ick
Ġac commod
us al
Q UE
M usic
^ ^
i ology
an while
s f
Ġbo at
Ġ' '
ĠIm m
s ample
Method s
Ġst ake
P air
ĠEnter tainment
Ġtechn ique
A li
Ġr aces
ax y
Ġ_ .
Al so
Fr agment
EL D
ĠS ound
Ġrec all
L ight
Ġwin ners
Ġd rawn
pl ant
EEEE FF
h us
ĠPal est
Ġse lector
Ġinteg rated
ow ed
Ġm aps
Ġir on
iv als
v s
ĠCh all
B egin
side bar
Ġpresent ation
ch anged
ĠB Y
D ictionary
Are a
Ġcircum stances
r at
d ig
= \"
Ġcr ash
LO C
D iv
Ġcomplet ion
Ġp it
Ġimmedi ate
ĠD er
ik ip
an im
Ġvot ers
Ġaccur ate
ic ator
Ī Ĵ
... </
g oto
m ad
ĠGr ant
Ġle ct
Ġpr ime
Not ification
Ġs chema
ĠM iami
ĠI mp
ĠPr int
Ġemot ional
Ġpropos al
ast y
im ize
wild fly
F P
ry ption
U C
e a
Ġo x
Ġs cores
Ġab ort
Sk ip
Ġh a
l ot
Ġem bed
ĠG allery
Ġgrow n
om ega
as p
m al
a ire
ĠNet herlands
Ġtrad ition
Ġre form
Ġspec ify
em ony
Å į
ĠC ab
ĠS ydney
Ġste el
ĠJes us
ĠE ND
Ġappro aches
Ġm ail
F ocus
Ġsurpr ise
Ġmain tenance
ĠC ancer
Ġc os
RE G
Ġil legal
v o
m id
ĠAl b
ĠH u
N ET
Ġch ampion
ester day
or ry
Ġfunction al
ĠBr idge
ĠC orn
L Y
test s
ĠR oss
gh an
Ġdet ection
Ġsuff ered
Ġsm ooth
res olve
Ġst able
b its
Sh ould
sh al
å Ī
Ġcontrib utions
DO CTYPE
j u
m ouse
Ġw ed
Ġcopy right
Ġunder lying
Ġtrans mission
ass andra
on ce
ĠP ack
Ġo bs
: `
y ers
qu arters
ĠArg ent
Fl ag
ME TH
ĠSk y
ĠAn alysis
int end
ograp her
put ation
Ġacc used
ĠS IZE
= (
act ivity
Ġr u
Ġy es
all as
ac cept
End point
Ġcon vent
ĠV ice
g roups
Ġ rows
evel oper
Ġexperiment al
Ġ" ",
av ailable
Ġa st
Ġhol iday
rupt ed
Ġs av
j d
Ġbig ger
ĠAnd erson
Ġstream ing
Ġreg ulations
in itions
ĠJ ordan
Ġh ide
ĠV ari
i ot
Ġp ul
Ġup load
ĠA SSERT
Ġrev olution
æ ľ
ĠA mb
Ġde pos
A I
t ical
z o
Ġb on
Ðµ Ð½
Ġturn ing
Î ½
s ome
opt ional
Re lease
12 7
Î µ
Ġcol ors
196 3
H er
Ġop posite
Ġass ault
Ġb inary
(" /
Ġr id
ĠS av
F ramework
Ġstrateg ic
Ġb oot
Ġs ad
ĠTr ade
ĠT ool
ess ed
port ion
ĠL ind
ĠPri ze
Ġth erm
b g
Ġsit ting
Ġintrodu ction
NavBar Font
Ġprofession als
ĠE ffect
Ġter ritory
LE D
ag an
S I
Ġfor th
Ġpe ak
Ġrestr ictions
Ġdes ire
Ġbro ke
Ġfac ed
col n
ott ed
F urther
Ġproced ure
Ġc ursor
OR TED
ĠF arm
ĠH ung
Ġm d
Ġg ained
br and
ĠBel g
Ġr ating
ĠB ab
C G
ĠR ow
aps ed
w iki
ĠT ony
ĠMem orial
t ar
Ġg ap
ix els
ex ec
ĠPart ners
P G
Ġaf ternoon
off s
ownt own
rit ical
Ġpro ps
Jan uary
p ur
S V
ĠPrem ier
pl an
inem a
' ];
Ġf ruit
Ġenjoy ed
und efined
se lector
Ġarr ang
Ġ\ "
ĠDi ego
Ġsc oring
Ġpil ot
ĠR oll
Ġeng aged
Pl an
Ġtrad ing
Ġabsol utely
Oper ator
Ġfr agment
Ġent reprene
ty pen
D id
Ġst ats
h ire
Ġgrad uate
ikip edia
ĠS ix
Ġen emy
Ġout come
ĠB udd
Ar r
Ġeng agement
G ER
pre p
Ġv ice
ĠD og
bour ne
S ql
d y
Ġtem porary
Ġwork er
P UT
F older
g on
ĠAtl antic
Ġf mt
Ġdist ingu
ĠAb stract
nov ation
Ġwonder ful
ĠL as
Ġst ood
Ġsing les
âĢ ĭ
v ing
Ġ Å
Ġg ro
O C
Ġro y
METH OD
I AL
ĠU l
Ġdevelop ers
ĠN ative
Ġw alls
ĠAp ache
ĠS i
Ġlabel s
p air
Ġpract ical
ĠSm all
Ġperman ent
f i
Ġopt s
T F
m aking
Ġeast ern
B Y
ĠV ector
C ent
it ro
Ġtrans formation
MO DE
196 2
Ġwhe el
ure au
ap pro
Ġsn ap
f actory
Ġexecut ed
ĠP it
Ġin struction
Ġbe ar
cri bed
Ġm g
Ġfr anch
ĠTur key
Ġs oci
Ġfe es
M ouse
get Value
ad i
sl ice
Ġb ott
D im
ab il
Ġdocument ary
em it
Ġguid ance
N ative
Com plet
Ġe ase
ĠRev olution
D ATA
N orth
ĠZ h
Ġim possible
ĠTh ose
ĠD B
at omic
Ġinj ured
or ne
C oll
M ove
ĠE ver
Ġb acter
Ġex clusive
vis ible
. [
PRO C
An imation
el d
Ġre ar
Ġroom s
ĠP rom
ĠMr s
Ġmeet ings
ell ite
ĠÐ ¿
unn el
on omy
Object s
Ġpl ate
Event Listener
3 60
******************************** ********************************
F amily
typen ame
Ġar bit
re act
ol t
o a
F act
Ġcompet itive
Ġdise ases
ĠI L
ph ot
comp ile
ĠP ublished
ĠStud ent
SE LECT
cos ystem
Ġve get
ro it
n ab
Ġcompre hensive
C reat
Ġex ports
Ġca using
Ġr ising
Ġmag ic
b us
ĠP od
for ward
ĠX ML
Ġreli ef
Ġs pl
object s
Ġs ynchron
ĠC ook
Ġconvert ed
Ġ âĢĻ
j an
L ower
ĠK y
ĠLe on
Ġsub mitted
ct ors
ĠR oom
cl one
ĠW as
ze ch
Ġtyp ed
ist ical
rou te
ĠPat rick
AT CH
ell i
Ġwe aring
ol id
Ġinj uries
Ø ±
Ġph arm
line ar
B order
Ġpromin ent
Ġcap abilities
Ġcoff ee
c ow
ic ity
ĠReg ional
Ġkn ock
Ġsk ip
Ġst ages
st e
A Y
Ġdisplay ed
dest roy
ĠG il
Ġfact s
t k
Ġstrong ly
b led
is Empty
ext end
un ning
Ġtr ained
ob by
Ġproced ures
Ġb omb
Ġsc ulpt
ious ly
Ġant ib
d ays
ane ous
du cer
d c
Ġimprov ement
Ġbeliev es
t wo
Ġprodu cing
ĠAL IGN
n p
ĠF ellow
sh ift
ĠD im
Ġacc ord
ĠOlymp ic
Ġr acing
ĠSqu are
ĠP u
ĠScott ish
Ġcontrib ution
valid ate
Ġvers us
C r
Ġadministr ative
STR ING
Ġcon tribute
ĠI owa
sign ature
ist a
b ec
in herit
ĠO cean
op es
Ġse es
" },
}$ ,
Ġhapp ening
v ard
Ġfound ation
ag g
F eb
Ġne ither
ĠN AV
R T
ĠInd ones
Lim it
an imation
Ġcon ver
Ident ity
S ample
Ġf aces
ĠMal ays
clos ure
ĠD uke
Ġt ags
ĠSaf ety
ri ends
sem ble
Ġg iant
Ġs ought
Ġimpress ive
Ġrepresent ative
Ġw ing
ik es
Label s
UN D
Ġencour age
B inding
Ġpass es
olv ing
ĠW rite
th rough
ĠĠĠĠĠĠĠĠĠĠĠĠĠĠĠĠ ĠĠĠĠĠĠĠĠĠĠĠĠĠĠ
ĠSar ah
R I
ĠT ennessee
ol ly
ĠL oc
cond ition
ĠL ang
ord on
ĠC art
ĠTh er
S creen
Ġtransfer red
M aster
B L
Ġas pect
Ġair port
ĠK han
Ġphen omen
ä »
196 1
Ã º
W ORD
bl ack
Ġcomp ens
Ġb es
iv a
w ill
Ġdefe at
Ġbe ach
Pr ivate
ĠSil ver
ĠCor ps
cre ated
O wn
n ie
Ġabs or
sc ss
O ld
Ġan gle
Ġex cess
Ġthrow n
ol s
ul us
Ġdis covery
ĠH art
Valid ation
ĠP ed
_ );
on na
Ġpar allel
Ġaut hent
Ġant icip
Ed ge
H ub
Ġb its
og ram
Ġsubsequ ently
Ġwindow s
Ġhard ware
ri ers
ĠHarr is
tr l
Ã¡ n
arg o
it ivity
ĠF a
ĠMar c
Ġtri als
Ġl ift
F oot
Ġto m
Not Found
E uro
h l
# {
igh th
raz y
ĠCam bridge
R PC
Ġoff ices
> "
con struct
ĠK it
Ġnarr ative
ĠB urn
b old
Ġcontin uing
ap is
}$ .
rop ical
Ġvalid ate
ĠB ry
ĠBo olean
el i
Ġload ing
Ġm apping
t ilde
G ood
ah oma
Ġas set
ack ing
Ġf old
Ġdis appe
Argument Exception
run time
ĠH an
M arch
Ġinv ited
Ġqual ified
ep ing
S ports
ĠN ever
Ġgover nor
ĠL ater
Ġpe er
ĠT ree
> )
Ġsk y
ib li
Ġf ired
L ear
ĠIndian a
in cess
Ġbre ath
ir ty
Ġto x
Ġs ight
lo op
ĠTr aining
ĠRe lease
ĠMar ia
Ġfra ud
ĠH ig
Ġn urs
Ġh ockey
Ġ@ "
enn a
Ġ" %
S ep
olog ists
Ġp apers
Ġinform ed
ac on
um ps
ĠLe aders
Un known
ĠS pr
Ġd uty
Ġi Phone
ĠJ osh
ri ev
per ial
Ġhead s
Ġem issions
Ġcho ices
Ã© s
Ġen forcement
Ġag gress
ĠDef ense
Ġvot ing
ps ilon
ĠAll en
Ġcon version
us cript
n ed
ĠJ ay
raph ics
b atch
W arning
ĠP os
Ġregular ly
C ur
NS String
k t
Ġaware ness
nt il
Ġstrugg le
P ower
clud es
ĠCl ark
ĠIndust ry
Ġv on
in ar
s r
ĠAuthor ity
ĠV egas
ĠQue ens
ov en
p res
Ġh ate
Ġpay ments
Care er
equ iv
ink ing
Ġs ed
ĠRepublic ans
ĠM ilitary
ren ce
ĠS ets
Ġchalleng ing
Input Stream
osp itals
s ocket
ĠAnth ony
er as
Ġpath s
Ġcons c
c u
dr iver
ĠViet nam
Ġdis miss
h our
Ġre verse
AR N
m ega
ial s
ĠSer ver
Ġin h
ant e
Ġlimit ations
Ġdr iven
E ven
ag u
trans ition
Ġexplan ation
Ġcy ber
Ġinteg ration
Ġman agers
Ġb atch
ĠEx p
ic ode
Ġin structions
M s
Ġb irds
: @"
Ġguest s
ĉ ĠĠĠĠĠĠĠ
Ġcontrib uted
ĠN az
cuss ion
Ġguid elines
ac ent
kw args
ĠJ ane
Ġreplace ment
Ġb at
Ġaff ili
ble m
tr ace
Ġlaw yer
Ġdisc ipl
Ġall Classes
App end
ĠP a
Ñģ ÑĤ
Âł Âł
ĠG ree
che stra
Ġgr ass
in fty
d am
i ors
y cle
ĠG ab
ear ing
Ã© e
Ġcons ent
se a
ĠR oute
ĠallClasses Link
ĠEnvironment al
IO Exception
Ġt ables
Ġid x
dis able
ĠOption al
Ġprinc iples
Ġsomew hat
ĠR oy
E ffect
Ġw ond
ĠE P
Ġal ive
s ync
Ġch unk
ĠJew s
Ġmy th
ick en
ab ama
it ud
Ġjoin ing
Ġjournal ist
Ġhost s
Ġa x
ation Token
Ġl ux
am ps
ĠWhe ther
æ ĸ
comm it
f mt
ĠT en
Ġdi pl
d ers
Ġdemonstr ated
Ġconcent ration
Ġvalid ation
â Ħ
ĠSt one
ryst al
ig a
d atabase
ur is
B ased
Ġanaly z
Ġcover ing
ĠAut o
s ingle
Pl ace
ĠSim on
P ers
: [
Ex ecution
ĠR ound
R aw
= -
Ġsim pl
ĠL ie
C red
194 4
ĠNiger ia
T Y
ĠN orm
Ġs essions
Ġext reme
ter y
Ġleg acy
Ġt act
ou st
ĠMon th
ex it
Ġc atalog
Ġse vent
ĠMem bers
L ife
'] );
u et
Ù Ĩ
arr ant
ĠC irc
." ""
ac o
ps i
Ġpre ced
C B
Ġop ens
ĠAm ong
ol itan
ub a
ad r
lo or
Ġdog s
Man agement
int ell
viron ments
ĠSur vey
Ġiniti ative
ĠV irtual
l arge
ĠD or
mer ge
bl ue
end ment
Ġtrend s
Ġin tern
ORD ER
Ġdraw ing
} [
Ġmusic ians
d uration
Å Ĥ
Ġcol our
C enter
Ġdis appoint
ST ATE
Ġprov ed
sp ir
Apr il
is set
t f
wh o
Ġowners hip
Ġsurv ival
ol as
im m
ĠNe ed
ĠTr avel
Ġman ifest
Ġre in
Fig ure
Ġdis k
ĠD id
Ġmed ian
Ġcompos ition
Ġal cohol
pol icy
ĠTh anks
D b
Ġhas n
ĠC redit
Ġd ies
as hes
Ġpick ed
m akers
195 8
ĠSc ient
ĠJ am
ĠH old
ĠPr ivate
Ġhor ror
Aust ral
195 6
Ġne uro
Ġb old
ry ing
Ġliqu id
Ġ' ';
ub ble
greg ation
y y
ĠJ ason
ĠMo ore
Ġund ert
Ġpain ting
ON G
ĠL em
Ġatt orney
Ġweek ly
Ġprov ision
Ġsy nd
ĠCapt ain
H z
Ġb are
et ies
ro ck
Ġpresident ial
ĠM icro
Ġapparent ly
US ER
ĠIl legal
Ġl yr
SS L
s n
intell ij
ĠArt icle
=" $
ĠLim ited
Ġeng age
Ġwat ers
sub mit
Ġed it
Ġcalc ulated
ĠDes cription
ank a
" ].
Ġstreng then
ĠSt ill
Ġconsum ption
/ "
N UM
ĠG a
od ge
Ġcheck ed
195 9
Ġclass ical
h ot
Ġk il
st age
ĠS ri
ĠT alk
% "
P y
ĠYear s
Ġemploy ed
od a
ul um
Serial izer
Ġval uable
or er
Pl atform
re tt
t ok
ĠM ust
Ġsur ve
ĠTur k
Ġill ness
C M
Ġhousehold s
Ġpl astic
Ù ħ
st able
ĠSe lect
Ġelect ron
B et
Ġe q
ĠAg ric
pect or
ĠArch itect
Ð° Ð½
is ations
OR K
ol o
ĠP ur
Ġbre aking
Ġa ims
Ġgen es
B asic
Ġmembers hip
m ont
Ġs ql
ot hes
Ġ" ";
Ġany where
Ġpo etry
Ġs izes
ĠL java
ĠSim ple
Ġexpl o
Ġcru cial
Ġpull ed
A SE
Ġl at
Th row
Ġp up
( /
P resent
ĠPl us
ĠL oad
ri ble
ĠMan chester
Ġaccur acy
T oday
i Äĩ
in ant
Ġdet ected
ig ue
ĠLear ning
l u
st an
ĠO tt
ĠK elly
H ave
Ġtransport ation
v y
F i
ex pect
ĠNet flix
Ġexpl os
ĠO k
ĠSwed en
Ġvict im
ĠV i
Ġdesign s
Ġcon n
assert True
Ġ> >>
T ex
it ative
F uture
l icense
ĠIm ages
Ġsc an
ĠAr k
ock s
F n
Ġg aming
Ġun us
Ġfall s
Ġthe atre
ĠG ard
ĠIsrael i
A K
ul ous
wit zer
66 66
ap olis
UM M
Ġsl ot
es ian
Ġcontin uous
Ġpres ents
ĠM it
Ġsh adow
ang el
ĠAtl anta
Ġrestaur ants
R ob
ĠD oc
Ex ample
ĠO bserv
Con structor
Dr iver
194 8
A udio
Ġeval uate
ĠRem ove
ĠAdd ress
l at
M c
Ġinstall ation
Ġper missions
ĠC G
ĠD ise
ust ed
ĠF ollowing
Ġmod ify
rem arks
ĠM and
w ich
Ġprop ag
ĠS P
Ġput s
Ġrele ases
Ġb id
Ġ_ ,
An im
ĠH al
J une
ile vel
ĠHam ilton
met ric
or igin
Ġpay ing
Ġtr ouble
Ġparticip ation
Ġsent ence
Sp an
PRO JECT
ache lor
Ġexper iments
Ġsubs cription
Ġw ound
Ġelig ible
Ġg arden
CH AR
Ġf ails
end ers
ĠP ier
dep recated
ash board
EN TRY
Ġheav ily
ellect ual
AT TR
ĠN ev
Ġvot ed
DO M
S G
Fl ow
Ġg al
ĠAf ghan
eq n
19 39
Ġkeep s
Ġj s
over ty
Ġs ick
ig e
Ġt sd
s heet
ĠEar ly
ol ute
Ġwhere as
uck s
rypt o
ĠFin ance
Ġclos ing
Ġcommun ications
C ONT
GB T
ĠNAV BAR
pl ays
Map per
Ġp ref
ĠYou th
Ġto k
Ġop posed
Ġf lying
Ġtr ace
Ġappear ances
il st
Ġreject ed
witzer land
ï¼ Į
Ġlog ic
. }
En v
Ï ĥ
D IS
/ _
for Each
DE BUG
ĠE ag
ip h
getElement ById
v are
Ġour selves
ĠMay be
R ate
aud i
j ack
z y
Ġhe ll
Ġbehavi our
Ġpromot ed
sim ple
Ġrout es
Ġcomm ands
A E
Ġo cean
N ormal
ĠM un
ust ers
Ġchild hood
Ġt icket
Ġinter val
Ġs ys
âĦ ¢
ĠPr ice
ĠM obile
Ġla id
rodu ction
ur able
ĠAd vent
Ġrank ed
: \
Ġsit uations
ĠG arden
Ġfin ance
er os
Ġsu itable
Ġdisc rim
C ALL
195 7
Com plete
rest ling
Ġpark ing
Ġimag ine
ĠLin coln
ac er
Null able
Ġident ifier
n c
Ġb ands
Rem ote
ç Ķ
Con stant
Ġbeh alf
Ġâ Ĩ
Us ing
Ġw er
Ġroad s
C HECK
ct ic
Ġfarm ers
ag ic
ph ere
Ġt ickets
al ert
Ġgen etic
AAAA AAAA
Ġ' ',
Ġmer ge
Ġtit led
ĠN ature
ĠPl ant
Ġpl ain
Ġgovern ments
Cons umer
ĠO ak
w ick
ong o
ĠS n
ĠA thlet
Ġac quisition
ĠP ython
Comp iler
pro gram
u ating
Ġest imate
Ġredu cing
des ign
Ã ¸
Ġem p
ut her
Ġ{ },
Ġexpect ations
Ġfundament al
Ġper mit
ĠR O
PH P
Ġsh ots
Ġcent ers
est s
Ġatm osphere
ĠD est
Ġwebs ites
Ġman aging
Ġprof it
Ġfl ash
Ġoff ensive
ams ung
Ġrapid ly
ĠAust in
high light
ĠJ ob
Ġacknow led
ut ter
arg uments
ĠEx press
Ġadvent ure
at ibility
Us age
ï ¿
T ra
11 1
dim ension
Ġign ored
clip se
kl ahoma
cd ot
f g
ĠMiss ouri
Ġtem por
a us
Ġch ose
l icens
omet imes
D rop
ĠMary land
Ġvari ant
Fil ms
Cont in
Ġs ocket
ur ities
Ġmain tained
ĠUkr ainian
Ġvis iting
mem ory
B el
Ġref ers
ĠS uch
ĠPhilipp ines
Det ail
ĠSm art
ĠD ouble
ĠW ord
194 2
Us ers
å ®
form ed
z ip
P red
ĠIslam ic
Ġreason able
ĠB ush
="../../../../../../ ../
Ġd ire
p aper
an try
ot ing
secut ive
p ad
Mich ael
epend encies
ĠG row
Ġincred ible
Ġmet ab
xy gen
Pol it
Ġev il
Ġl ake
Ġend point
Ġref uge
Ġprefer red
w arn
Ġfriend ly
å Ĳ
Seg ment
ĠY et
195 5
V irtual
W ord
Ġfall ing
he alth
S a
Ġbound ary
Ġb le
en ess
Ġp ipeline
Ġtri es
1 16
Ġr ig
List en
Ġtown s
ĠK al
tes y
Ġag ed
B atch
Ġad mitted
Ġdes ired
Ð¾Ð ²
Process or
Ġw rap
top ic
ĠD ave
Ġsk ill
p aren
Valid ator
L D
Ġv ocal
Ġshe et
Ġe cosystem
14 0
ĠM aterial
log o
ĠProte ction
Ġcarry ing
ic he
Ġpoint ed
iz ers
ass ign
atri ate
Ġout standing
Ġoper ators
Ġnot able
Ġamount s
ĠM eg
Ġem br
P al
ĠOrgan ization
Ġbus y
Ġloss es
per or
un s
Ġcon crete
ĠBow l
Ġinter actions
Ġlog ging
ĠAd vis
un ior
S ch
ig ious
Or iginal
ĠS port
T ile
P ack
Brit ish
Ġcelebr ate
Ġth reshold
Ġp iano
z ero
M essages
Ġcomfort able
ĠN atural
Test Case
ick ing
w as
Ġre aching
b urn
al so
Ġsurpr ising
sp irit
ĠW IDTH
9 00
Ġf urn
ĠC op
Ġin ject
el son
con vert
ĠV in
Ġacc um
av al
ĠL LC
Ġan ce
T ele
UT H
Ġindic ating
Ġs b
Ġtot ally
/ .
Ġabs ence
el and
Ï ģ
ID E
Ġinter ior
ri ent
ĠResult s
ĠHow ard
ĠM ock
DE F
à¤ ¾
ĠC ell
ĠA st
Ph il
ĠMov ie
ĠM E
Ġref used
T HE
Pro f
set up
ier archy
ĠCh apter
() ),
B D
Ġreve als
1 12
Ġs ync
p kg
ĠCl imate
194 1
ĠTh ings
V ICE
Ġinst itution
it ure
ĠB alt
194 7
w eg
ess ment
ĠB arn
Ġel if
ĠRel ations
ib l
ain ers
room s
Ġal pha
Ġt issue
ĠWh it
Ġorgan ic
ra h
Ġf irms
l on
over view
ĠOper ation
ĠPl aces
R ich
Ġc m
aur a
ĠB ureau
ĠEconom ics
Ġimprov ing
h ill
itar ian
W I
Ġap ilevel
ĠHol y
Pre v
ag ination
ĠL ib
Ġh ook
Ġinst ant
Ġobject ive
Ġbro thers
ĠKent ucky
m aker
Ġro se
ĠK a
Ġcer emony
u er
z h
al g
ĠL E
Ġt all
rypt ed
Ġexpert ise
z ym
Ġme ets
195 2
d iff
f etch
Ġcom ic
Ġman ip
Ġslow ly
Ġshop ping
ys ical
Ġ ig
ph y
ĠPol ish
s qu
T AG
Ġv ital
Ġregard less
Ġent hus
Str ategy
Ġv ibr
ĠCast le
Ġp ic
Ġhy brid
ĠM L
Ġpop ulations
ĠT rib
Ġp ub
Ġparticip ated
cal endar
Ġsign ing
Ġmach ines
int eger
Ġre ward
ĠHer itage
Cond ition
Ġmark s
ut ies
B M
ĠF ive
Ġanal ys
Ġent itled
ĠB ah
Ġdesign ated
Ġdistrict s
c ircle
Ġdepend encies
Ġcheck s
ĠEv ents
Ġdef ensive
Ex port
Ġterm inal
C LASS
Ins ert
m its
fer red
D an
pl ot
ĠR ace
Ġnov els
Ġsol ve
Ġt ur
He ad
Ġnecess arily
ĠPh D
ĠN BA
o i
ox y
ĠVill age
Over view
ĠS M
ĠM as
W omen
oc a
Ġfore cast
194 6
**** **
n eg
ur ric
C md
Ġocc as
ĠPer formance
Ġch at
ĠDr ive
ĠCl inton
Ġkind s
ĠSchool s
ĠB uff
Ġinter act
Ġlaw su
Form s
ber ry
We ek
exp and
ĠAg reement
ĠB O
em et
Â ·
at ile
west ern
ĠR at
195 3
M aterial
grad ient
eth yl
grad uate
aw are
ĠC lear
gener ate
c op
ĠN ich
ok er
Ġal ias
Ġ' ./
Ġb in
get Id
ather ine
ĠWAR RAN
Ġme at
C ity
Ġpay load
b d
ache l
10 5
ar ma
Des ign
Ġdat aset
ĠS end
sub ject
Ñ ĩ
Ġdo se
ĠD allas
out ing
Ġcompet e
10 2
ur ches
S N
ill iant
P aul
sq rt
be ing
p id
var iable
che ll
St atic
Run ner
ĠS ex
roph y
i op
1 18
g lyphicon
Ġwat ched
ous es
Ġre pro
Ġreve al
ĠL am
Ġserious ly
Ġh am
work s
om as
im p
Row s
Ġ} }
om er
ĠE ss
pe ction
Ġrecogn ize
ĠD ick
ifest yle
ĠCh ap
ĠIn v
lo yd
i ations
J uly
Ġat trib
ĠSe attle
av is
Ġfeel ings
Ġmonth ly
S an
qu es
trans action
ĠB ull
ĠA uth
Ġmunicip al
M EN
iv idual
str ings
ĠRail way
T imer
B ro
Ġtrack ing
Ġun expected
Ġn ations
C ursor
Ġansw ers
pl oad
Ġconsequ ences
Ġpromot ion
ï¿ ½
ĠJ oh
ĠAl ber
Ġhop es
Ġcontin u
194 3
cer ning
ĠB an
pos ing
Ġs ampl
Ġde als
Ġsup plied
Ġc orn
ĠTh read
ĠMethod s
Ġattempt ed
Ġh at
Ġdecl ine
Ġindust ries
s is
Ġrun time
element s
Ġcut ting
ar o
ĠPh ill
The me
ĠCom ments
ĠK E
ĠHaw ai
Ġrep orter
Serial ization
P ublished
ĠN ob
in th
Ġreg ulation
le tt
Ġt ank
sub section
il ty
Ġconst itu
B inary
m ates
Ġcomp atible
are st
ĠHigh way
ol ph
on i
ĠF ederation
roll ing
Ġent ering
ĠT a
Ġrel ax
el ve
Ġcal endar
ĠC ow
ĠGr ad
Aug ust
}} \
ĠPl atform
ĠConfig uration
ol ars
A xis
Ġcorrect ly
rt l
iat ric
Con vert
ĠH ope
G roups
Ġfem ales
Ġengine er
Ġsepar ated
ĠB OO
Ġb ag
b ose
195 4
ĠDe an
ĠRefer ence
B IT
Ġint ention
Ġfranch ise
om ent
Ġreal ize
Ġpo et
Ġrac ial
ĠS in
rb an
ĠAnn ual
ĠAnd re
Ġrep ly
A f
IN ST
å ħ
Ġcl ip
e lect
IN K
Ġestim ates
ĠLa ure
Ġb rown
/ ">
} ).
m essages
t i
Ġpro hib
F ixture
Ġb io
Res olver
aud io
se q
ĠCont ext
resp ons
oper ative
ĠAr thur
t ail
Ġreli able
Ġeth nic
Ġannounce ment
uff ers
ĠMar ine
ĠL evel
ĠBr ig
ex pression
win ning
ĠTh ird
Am ount
T X
w d
Ġgrad uated
R a
De cember
ag ma
Ġ' .
er on
Ġob lig
Up dated
l ad
p in
patch er
RA Y
ĠD ub
ĠAl abama
Ġemer ging
app a
ath y
Ġdel ight
se par
Ġlik es
if i
ĠH ost
Ġdesign er
, âĢĻ
Ġform ula
ĠDo ctor
Ġinput s
V AR
Ġj oy
ĠCont act
ĠH IV
tr im
ĠSt op
Ġtax es
An notation
Ġgun s
ĠWalk er
B al
method s
j ax
Ġp ending
Ġnorm ally
Ġes cap
Sh are
CO MM
Stand ard
Ġ' %
rad io
ĠCom ment
Ġdo i
or ce
Ġgen re
ĠG all
riter ia
Ġf inger
b uilt
ĠK am
Group Name
m ount
l ive
eps ilon
ĠAv ailable
ĠM ort
ĠSing h
ard o
t p
ĠEx change
lik ely
t ouch
ol k
Oct ober
Ġassum ed
I ME
ĠAtt orney
Ġr um
Set ting
Ġsens itive
Ġrequire ment
vert ical
Ġthous and
cont ents
ert o
Ġbuy ing
ĠFinal ly
ĠC SS
Ġcol lections
an ches
S ite
iffer ent
olv es
G P
Ġsp okes
Err ors
r ating
B ottom
ol i
Ġad s
(" #
} _{\
Ġto ler
Ġgr ab
BP ACK
or se
d jango
Ġaim ed
Ġunivers ities
CON FIG
ĠAl liance
Ġprote ins
Ġf ault
g ood
Ġsh r
Ġsp ark
b ow
j et
= &
194 9
ĠFig ure
gl as
if ting
Ġinterview s
Render er
B eh
ĠMay or
ĠB or
Mon th
ĠTok yo
Cont ains
Ġfr ust
Ġask s
Ġinvestig ate
Ġstret ch
Ġl ayers
FF ER
S ongs
S pecial
create Element
over nment
chedul er
ĠRes erve
ĠPerson al
i ere
sh are
Ġann iversary
Add r
A X
Ġsuff ering
asc ular
Ġwith draw
ĠS witzerland
Ġout er
Nav igation
Don ald
AT OR
Ġweap on
Ġth in
Ġg ay
Ġc ertificate
Ġb ug
Ġst ead
Ġun iverse
ĠY an
ĠStud io
Ð ¿
direct ory
sp acing
f red
ĠW olf
not ations
Ġt aste
ĠPlan ning
Ġequ ity
ĠĠĠĠĠĠĠĠĠĠĠĠĠĠĠĠĠĠĠĠĠĠĠĠĠĠĠĠĠĠĠĠ Ġ
Ġs le
ĠB eng
Ġcolle agues
G C
ĠDE FAULT
Ġo vers
ren a
Ġport folio
ĠPhil ip
al ia
Ġdis able
Ġretire ment
Or gan
ĠDet roit
ĠWork ing
n ative
Ġb oss
put ed
AS K
om ot
m atrix
et ition
ĠMos cow
ĠMex ican
Ġre act
ĠAdd itionally
STAT US
out ube
Ġold est
leg es
sh a
re v
IL D
ĠInt eg
Ġc urrency
pl ed
Fail ure
Ġrecommend ations
Ġag es
Y Y
Ġoper ational
Ġmod al
Ġb ird
ĠHel p
qu ote
ap id
Ġpar liament
H tml
Ch ain
Ġknow ing
u j
fe ed
Ġperiod s
pol y
/ {
FI ELD
Sh ared
w x
ĠAn ne
s uch
ĠT arget
Ġsudden ly
ĠSh op
Ġdiagn osis
v c
ĠS elf
Ġunderst ood
g b
Ġy esterday
Ġ ----------------------------------------------------------------
Ġun f
Ġinvolv es
Cont ents
ĠL ess
Ġcon j
ic ut
T y
Ġtarget ed
Person al
iment al
emet ery
Ġmin ing
âĢ¦ ]
Ġfew er
ĠĠĠ Ċ
Ġb one
Ġt ou
ĠM ess
v ol
ush ing
oen ix
u uid
Ġrespect ive
Ġt ied
ĠJ S
S elf
in os
oun ced
Ġ" .
M AP
ram a
Will iam
ĠT el
ol y
Nov ember
B ad
ĠPe ace
ater al
Ġro ots
Ġf unny
ĠSwed ish
Ġelectric ity
nav igation
UN T
H ar
ĠDel hi
Ġp atch
ind ed
Ac cept
ĠTem ple
ĠR ick
ik ing
iv ia
re nt
ĠH ans
ĠD ur
enn y
Ġdeal ing
Ġn a
ĠN ik
Ġelect ro
Ġsim ult
Ġman uscript
Ġinf lation
er k
Ġg ang
v als
Ġl ights
3 50
he im
Point s
ĠB reak
Se ptember
ab etes
rop olitan
f ake
ĠSt ew
Ġstr ange
E st
ĠMic hel
Ġmod ules
W in
Ġcon secutive
ser ies
Ġc up
Ġrepe at
Ġpublic ations
S witch
b et
ri k
Ġspe aker
Draw ing
r as
Ġphil osophy
ĠJac ob
Ġb ath
ig o
com pute
T ax
ĠD un
HE AD
ĠL icens
Ġp airs
l as
Ġcollect ive
) [
b ian
l ined
ey ond
ĠB ron
Ġsix th
Ġresc ue
ru ction
P N
%%%% %%%%
Error f
ia h
ĠH op
p rom
195 1
refer red
g ence
Ġm arg
J ames
Ġpack ages
Ġspect rum
Ġp ushed
ĠC zech
Ġco ins
Ġstr uck
bar a
ĠBuild er
ĠB eck
Ġcon front
ĠN ation
Ġcompos er
Ġnav bar
igr ants
ĠM organ
E p
elf are
s he
. :
____ ____
ops is
Ġregul atory
sw ing
= [
B usiness
Ġk ne
ig s
ĠW y
ĠG ram
Q uest
S em
m obile
Ġprem ier
M ount
ul u
ĠM ission
ĠVol ume
Ġn eck
Ġscen ario
hip s
comp are
Ġcon cluded
ipp i
Ġwed ding
ĠJun ior
upl icate
Euro pe
p ages
y ll
w hel
per t
ff f
Ġgen us
Ġfair ly
ĠTai wan
ĠM ars
Ġsurv ive
Ob server
Ġclass Name
Ġd ating
Ġrece iver
class Name
Ġun s
Ġh ist
us r
Ġt ill
d ark
Ġup grade
ĠF ant
se lection
Ġpriv ile
C ounter
ch art
Sign ature
ĠTh ough
10 4
ĠD a
read er
Sup er
ĠM atch
G LE
Ġpri ze
ĠO pt
D ependency
w en
ĠDO M
in ian
gorith ms
M al
Ġclass ification
Ġm ales
ĠC C
u h
N Y
ĠBo ys
Ġmor al
Ġreal ized
19 00
Ġpublic ly
B ounds
head ing
irl ines
ĠMark eting
ĠGirl s
DE X
part s
Ġre putation
W IN
ĠBr and
Ġch ronic
ĠP S
Ġrep air
ĠLab our
ort s
Ġprob ability
Ġâ Ĥ¬
Ġcirc le
S en
S ame
UMM ARY
Ġs alt
iv o
Z one
ĠB att
Ġdemonstr ate
ĠO K
Ġco aches
g g
: '
ĠEx ample
ÃŃ a
> ;
Ġcon clusion
Ġmechan isms
ĠH D
Ġpubl ishing
W H
ig ator
OL D
ĠO klahoma
w alk
Ġcomp ute
ĠD ak
S ing
Ġpen alty
Ġam id
Ġover flow
enc er
S ources
ane ously
Ġop acity
ĠCre ates
Ġre pository
G IN
E val
Ġher itage
Ġdeep ly
Ġr ival
Ġgener ic
We ight
at ers
ĠWeb site
Ġde leted
k h
Ġcons ervative
ĠD J
19 17
ĠM ut
; |
ĠArch ives
A bs
J apan
Ġhead ing
ĠR ab
var iant
level and
Ġp ace
] ))
Arg uments
Ġt ip
Ġcons ervation
Ġ" '
mark s
Ġobvious ly
Ġencour aged
I ES
Ġdes cent
ĠN ap
ph rase
ĠPl ayer
Ġp in
ex tra
Ġen vironments
( ['
Ã¼ r
Ġs oph
Ġrec ru
Ġ( âĢľ
Ġing red
Ġsett led
T ouch
t re
Ġpass engers
or ous
) ",
Ġmin i
Ġimprov ements
be at
can vas
ou ver
L IST
Ġtr ick
Ġspirit ual
B N
Ġmov ements
Ġpart ition
b lob
Ġ{ %
cy cle
ubl in
Ġan chor
ex ecut
WE BPACK
ut enant
ĠP romise
text bf
ĠCommun ications
i per
erv ing
sc ala
ĠV ar
fl at
Ġtyped ef
ĠF O
UR CE
ch arge
K it
R ober
ul p
ixt ures
Ġconstant ly
ĠP as
Ġprodu cers
F ollowing
ãĢ Ĥ
Ġliter ary
fin ite
atur ally
Ù Ī
ĠUt ah
t ensor
ĠDe lete
ce iver
Ġprov en
Ġimm un
Ġsurpr ised
_ )
Ġentr ance
à ¦
A z
Ġfant asy
weg ian
Ġan th
ĠC ape
Ġav ailability
Res et
ĠY O
Ġchair man
Ġar med
Ġbre ast
ĠMot or
ĠGree ce
II I
ĠU r
min ute
ur se
Option al
Ġsupport ers
Ġarbit r
ĠMatt hew
Array List
Ġlow est
ĠS umm
M R
Ġap plies
p ubl
m ay
ĉ ĠĠ
ĠMc G
Ġf ishing
Ġw et
ag h
Ġgover ning
Ġpack et
Ġdem ands
re peat
ens itive
th rift
Ġcl one
Ġtemper atures
Ġassert True
Log in
ĠĠĠĠĠĠĠĠĠĠĠĠĠĠĠĠĠĠĠĠĠĠĠĠĠĠĠĠĠĠĠĠ ĠĠĠĠĠĠĠĠĠĠĠĠĠĠĠ
oid s
Ġarr ival
ge on
Ġathlet es
ĠOut put
spe ed
Ġsup plies
LA Y
Ġle af
Ġshould n
ĠWork s
Ġh int
Ġbi ological
Ġw idget
Ġdo ors
Ġn an
def er
S W
Wh ite
Ġrest ore
ĠChair man
Ġd ual
> ()
Ġins ights
hemat ics
AS H
19 18
T w
Ġreg ime
Ġt iny
Ġr ub
og a
19 36
Ġhead ed
Ġen ables
D ATE
licens es
m ulti
or able
Ã ¥
ĠB ishop
Ġconcept s
Ġcrypt o
iz on
Ġinstr uments
column s
ĠB us
Pro to
ĠP arent
L ive
Ġsing ing
Ġt d
Ġdecre ase
.* ;
n n
id ency
E s
or rect
Ġroy al
ĠSt ories
st ory
Ġintrodu ce
ĠAnton io
Ġaccomp an
ĠAct ive
__ )
F OR
Ġins ight
claim ed
( ()
ĠH E
Ġh ospitals
ĠE mb
Ġprepar ation
Ġf est
Ġres idential
Ġbl ank
in ction
place ment
Ġh urt
ors es
ĠL iving
Ġequ ation
d ependent
Ġc ogn
Ġf etch
Ġcour ts
Ġph osph
Ġres erve
Ġst ability
ĠG ib
con nected
ĠÐ ²
Lo op
Ġsign als
NO DE
f ish
rem ote
AC H
Associ ation
Ġinter vention
ab ling
ĠGu id
================================ ================================
ĠG ordon
Ġlyr ics
ĠO C
ĠCol on
Ġcoun sel
ä ½
ĉ čĊ
Ġstrong er
am er
ous ing
ĠD I
Ġbl ow
Ġorgan isation
Ġhigh lights
= %
ĠAl bert
ĠClass es
m apping
Ġcut s
g if
Û Į
Ġout door
f b
v endor
Ġf ib
ĠL ock
ĠBit coin
Task s
Ġd inner
. -
ĠBe at
Ġt ips
Ch art
view port
Ġfocus es
o is
A SSERT
Des pite
l ass
ĠNor way
ĠH ills
Enc oding
Ġconsider ation
b inding
ĠDe ep
to Be
ĠElect ric
Ġcent uries
Ġcur ve
ir ates
link s
Ġcapt ain
Ġrough ly
Th ree
r uct
Ġperson ality
Th rough
Ġdim ensions
Ġj u
em ed
he el
ĠSp irit
Dep recated
Ġ$ _
G reen
ĠH it
h ave
Ġ| =
Ġman ual
Ġe ating
Ġf ro
Ġtok ens
0000 00
ĠPh arm
Ġimpact s
ĠCO L
Ġaccord ance
ĠBOO ST
eqn array
U V
iss ippi
Ġvacc ines
O k
Â Ń
T om
Ġthem es
enc ode
r pc
Ġde cent
Ġmeasure ment
ail and
Ġvis its
ĠD VD
Ġd ial
Ġfootball er
el astic
ĠP atri
Dep th
po inter
ĠJ ess
Ġim plied
Tim estamp
b est
ish ment
/* !
as i
Ġlicens ed
Ġden ied
Ġwalk ed
ĠP red
st ock
im ore
Ġattack ed
ĠQu ery
ĠH O
b asic
Ġout break
ĠP aper
est ab
ĠJon athan
back s
Ġ< -
s ig
Res earch
ĠFor um
ĠAd ams
Miss ing
Ġcr imes
Ġcol span
ĠFr an
z i
Rel ated
Z ero
Ġwor ry
A ST
ĠVAL IGN
h istory
cf g
as ant
ĠL eb
âĢ¦ .
LO W
ĠF le
Ġdirect ors
Ġcon cerning
Ï Ģ
ĠTr ack
Ġtext ure
10 3
is cal
i ang
wh at
Ġbur ied
ĠM s
re pository
Ġf ought
ĠM agn
not es
Ign ore
ĠÂ §
M achine
Dr ag
C ross
Av ailable
Ġent ities
Ġrespond ed
ĠH ero
m ate
AR B
All oc
Ġconstr aints
ic ates
F ac
ĠA G
Ġperfect ly
ĠAl bum
ĠInd ependent
Ġbe er
c assandra
Ġrob ust
ĠMalays ia
uet ooth
Ġcrit ics
Ġdo ctors
Ġres ident
String Builder
ĠDown load
ver e
ĠIn ternal
ĠS W
Ġconvent ional
ĠBru ce
Con verter
M en
ill ery
ĠPolit ics
Ġinv asion
own ed
Ġcoll apse
\ ,
ĠH um
Ġnot iced
ĠI ter
Ġmet rics
ä º
ĠD al
Ġin clusion
Ġany way
;| &
Ġprinc iple
Ġobserv ations
ĠS UMMARY
Ġessential ly
Ġmin imal
G amma
old s
Ġbr on
li est
Con sole
inc ial
> '
A lex
Ġshort ly
B g
F ire
es c
S plit
and al
ĠMel bourne
e ast
Ġperson ally
get Instance
Ex pected
M ust
ĠO P
Met rics
Ġb ull
Ġmus cle
ĠAl an
ĠPro gress
Ġf older
Ġinvolv ement
ĠLeg isl
ul i
Ġeng ines
ĠSer ial
ĠMc K
ĠJud ge
ĠMar vel
Ġar c
Ġtr im
RE SS
oc c
Ġcred its
ĠL GBT
(" %
Ġvulner able
ĠP DF
Ġthink s
Ġcirc uit
Ġliter al
Ġig et
ĠAss istant
Ġf abric
ĠB uy
ĠâĨ Ĵ
ĠFurther more
An alysis
oc hem
19 38
cc a
Ġappoint ment
ah a
ĠP oll
op ens
Ġh ole
ĠBase ball
LE TE
ĠC ole
RE CT
Ġp ione
ĠM ind
ĠL eft
on ical
ub ern
ra id
um ed
Ġanim ated
Ġs ons
? )
UB LIC
O wner
Ġbas ically
ol en
row se
xi ety
Perm ission
ĠU til
Ġcontract s
Ġ uri
te am
Ġto wer
Ġsus pect
r ong
ĠS ac
Ġliter ally
IMP ORTED
11 5
[ \
writ ten
ĠD ays
uris d
EN V
ĠP ast
ĠCar ter
ĠAb b
Ġestablish ment
Ġpass enger
Ġlik ed
ene z
Ġa ria
ĠFac ulty
book s
F rames
ĠS ales
ĠN othing
Ġed ited
le ans
ĠS A
Ġpar a
Ġt one
Ġte a
Ġmunicip ality
Ġsens or
u is
Ġs id
Ġunus ual
< <
Ġrot ation
ĠĠĠĠĠĠĠĠĠĠ Ċ
Ġp overty
al ias
ĠBr un
U ES
Ġdeleg ate
Ġbreak s
s ch
act ic
Ġactiv ation
Ġarg ued
ĠCr ime
const ant
Ġprocess ed
ĠChrist opher
Ġflow ers
lib s
st ud
Ġc ir
R andom
Te am
, -
Constr aint
In ner
r ules
R ules
St ub
Ġfunction ality
C ancel
And roid
C U
ĠRuss ell
ack ed
l ia
E P
Ġfl ights
FN GL
ĠT ry
ĠThom pson
qu ality
ĠW ang
Ġabandon ed
Ġg ear
Ġw arrant
ĠIm port
Ġm igration
we alth
th y
ĠS el
Ġem it
Ġthreat s
ĠC S
ĠT ro
Control s
display Name
H older
ĠH ug
ĠK ings
l ab
p od
Ġin herit
Ġart ificial
Ġac qu
Ġinitial ize
con str
Ġap artment
Ġbr illiant
M AN
re po
Ġtr ains
Ġdel ta
Ad v
Ġb ars
form er
Ġcook ie
ard ing
c in
ra ig
Ġhelp ful
} ",
- (
LIC ENSE
o j
m n
19 37
Ġanal yst
V IE
s burg
h pp
qu al
it ol
col lect
att ed
v et
Ġfol ks
B ool
Ġtouch down
arch ive
on ed
ĠS ide
ĠA BC
ĠW oman
Ġab und
Ġre ly
ĠMore over
n ob
ĠHistor ical
omet ric
ĠPolit ical
Ġread s
iver pool
Ġviol ent
uk i
ĠFor ces
ĠComput er
Ð ·
c ross
ace ut
Ġmeasure ments
less ly
En able
anc ouver
ĠLeg al
c ourse
az el
ke e
Ġre ven
Ġg ent
im itive
Ġcomp act
Ġdepend ent
Ġst adium
Ġm ath
ch at
ĠN ash
clud ing
Ġground s
U CT
Ġ ^
ĠM oney
Ġprodu ces
iv ities
ĠM i
Ġnot ification
Ġleg it
Ġtem ple
ĠR ange
is ons
ĠD ue
log ging
Ġstruct ural
"> (
Ġoff ense
Ġsuper ior
st orm
ĠB os
ĠB ased
Ġagric ultural
es a
om ed
Ġhop ing
Ġplace holder
LE MENT
cript ions
ts burgh
load ing
d k
Ġl oyal
Ex ists
Ġgraph ics
Ġs ke
Ġr ational
ĠH oll
b one
ĠKE Y
Ex pect
vare psilon
ill ance
ĠP ear
AR S
iev al
n an
ah o
ĠLaw rence
Ġa ver
Ġimm une
S am
Ġaddress ed
Ġm ilk
ann on
Ġfle et
ĠS witch
ab a
Ġ" >
TI ES
Ġhead quarters
ĠF ight
ĠB ody
S napshot
ĠF al
s un
Column s
w allet
ap ple
ĠWith out
Ġrem oval
ip es
m k
ĉĉĉĉ ĉĉĉĉĉĉ
valid ation
Ġres idence
Ġas p
Ġinflu enced
Ġ( +
al ion
F ALSE
Ġex clus
run ner
Ġ( #
"/ ></
Ġconsc ious
Ġvis ibility
(' <
ĠM ulti
Ġdevelop er
Ġne utral
ĠHar vard
N P
ĠB lood
ape ut
le ased
Ġn ick
IL ITY
ĠC T
Ġs occer
ĠA le
P ub
ĠV iol
Ġmem ories
H A
ĠCent ury
sol r
Ġelse where
Ġprint ed
id ges
Ġcare fully
L icense
B ecause
ĠN um
alt Color
P ad
hed ral
Ġrom ance
Ġiniti atives
Ġprem ium
Ġgu ilty
b oy
ĠWh ich
Ġuser name
19 35
Ġindepend ence
V A
D ynamic
d ocker
Ġover l
W arn
Ġinsp iration
~~~~ ~~~~
Ġm oth
Ġra ising
Ġdemocr acy
Ġut ility
ch anges
Ġt ub
Ġc odes
RES ULT
å ¤
c ounter
ob e
ĠAr r
ond a
Ġ` ``
as is
TER N
ĠBrook lyn
od o
h al
F eed
Ġmay or
act ual
Ġh ired
an ing
E ast
is an
cri ber
j b
G ui
10 6
H C
ĠStud ios
utr ition
ĠInst all
ĠH ell
ĠSu ccess
Ġinvest ments
F rench
Ġisol ated
Ġvill ages
ograph ical
Sh ader
m ade
Ġlux ury
Ġc ached
ĠI F
r f
Ġtr ou
Ġfl uid
u ates
ĠAn na
inal s
F ollow
pre vious
Ġc able
################ ################
ĠIndones ia
Ġrece ives
Ġfore ver
Ġb ike
ĠConnect icut
ĠSing le
Ġg ram
d anger
ens ure
Ġcom plicated
Ex pl
Ġd owntown
Ġequ ally
J ack
cont act
ĠReview s
R UN
ĠJ os
ĠT YPE
Ġrul ing
Ġcl ar
el come
ĠS audi
ul ates
Ġp arsed
get Type
ĠL ane
Ġ- =
ĠD ance
Ġl ung
Ġun lock
Ġper mitted
rou s
TR AN
as a
in ions
Ġcan vas
ĠClass ic
Ġmar ine
N or
Ġdrink ing
Ġd ynamics
au ge
> `
Ġwer en
f ather
ĠSp ot
× ķ
ĠL P
Ġcritic ism
P ubl
Ġover se
19 33
ci pl
re ach
op ter
Res p
Ġmolec ular
Ġfra ction
Ġsac r
S chool
Ġkit chen
Ġreview ed
A ir
Ġrad ius
as ma
em ies
up id
Ġst roke
Ġas ide
R NA
Ġfocus ing
Ġd ust
ĠCons ult
urren ce
aceut ical
ĠT ab
ĠL anka
comm un
im b
Ġfund ed
Ġview ers
Ġfant astic
ĠPar se
in ject
Ġmet ric
st rip
Ġloc ally
Ġcheck ing
Ver ify
Ġeval uated
mem bers
Ġpar ish
D ig
C oin
âĢ ¯
Ġorgan isations
ĠF ast
Ġcompet ed
h ist
Ġj azz
10 7
OP T
ter ior
et o
Ġl oves
Ġg all
> \
ĠR ain
Ġover whel
ĠCom ponent
Form er
Ġstudy ing
ĠST ART
b id
Ġassoci ate
in x
ĠC L
ĠP erm
Ġh unt
Ġo xygen
Output Stream
AV E
rib ute
(" \
C LA
f are
Ġp ump
Ġrout ine
ĠD raw
Ġrot ate
ĠG un
Ġnom inated
Aut hentication
ĠI ron
Ġdi et
i pt
et he
ar se
ĠS now
è ¯
Execut or
As sembly
Ġbirth day
P romise
Ġtri b
ari os
Ġw ider
ĠO sc
Ġg olf
res ize
> %
F D
lot te
ĠSen ator
v i
Ġint ellectual
Ġtim estamp
le e
am ine
ĠCl ick
Ġarr ive
Ġsustain ability
SP AN
ars ing
Ġclass ified
ĠShe l
Ġguarant ee
ĠJ son
mark et
um ar
re ason
Di agnostics
Ġres olved
ĠAfghan istan
! )
Ġmat ched
R ot
ĠHand le
Ġde pression
pr agma
am an
P ut
Ġf s
Ġhand led
Feb ruary
Ġp s
cy cl
de ep
Ġcomp iler
tim estamp
Ġfem in
c ancel
c ity
ĠI R
bo ards
ĠR oc
Ġdis aster
Ġen umer
c ursor
ĠAnd y
L iteral
Ġpo em
ash i
IC ATION
Ġj unior
ĠR s
oc ese
ĠE T
Ã ł
Ġ' "
un lock
Ġgener ations
iz ard
cal c
iss a
Ġrel ating
ĠS ave
ord inary
ĠE N
l adesh
Ġmechan ical
ĠN eg
19 19
it r
Ġw ake
Ġrad iation
Ġg oto
ab ad
ĠFred er
ĠR ub
ic ular
Ġ[ âĢ¦]
em ph
sy nt
Table Row
B ER
Ġstart up
ĠRead ing
C he
ĠFe ature
Part ition
friend ly
At trib
Re ason
Ġbi as
ĠTele vision
Ġscreen ing
it utes
in formation
s pl
link ed
Ġin ches
ĠB io
og ue
other apy
v ia
ad oc
Ġreported ly
Ġident ification
Ġre vers
UR N
Ġspe akers
Ġrun ner
ĠAp pro
Ġel der
Ġappreci ate
ĠSw iss
ĠWARRAN TIES
Ġt y
Ġim g
ĠAl tern
A ctions
cre ens
Ġh ill
BU FFER
ar ance
Ġconnect ing
ĠM I
ĠF er
ĠF ix
ge bra
ĠBy te
iff s
d ale
ĉĉ ĠĠĠ
Ġvacc ination
ĠS olar
Ġpan els
ic it
Ġm ice
b n
ĠAp pe
an alysis
s ym
10 9
LO AD
__ _
id ays
ast ed
ĠR isk
ĠS ession
Ġg enu
ĠG ary
19 29
eg raphics
gener ator
ĠPal ace
includ egraphics
ĠN i
m g
int eg
ĠĠĠĠĠĠĠĠĠĠĠĠĠĠĠĠĠĠĠĠĠĠĠĠĠĠĠĠĠĠĠĠ ĠĠ
ĠPr imary
ik h
ĠClin ical
G EN
Ġmagn etic
Ġth orough
Ġeng aging
19 34
ra ke
Ġret ain
Ġ-- ></
ĠBe aut
ĠIm mutable
grad le
ĠConst itution
ĠImp act
Ġ Ñģ
ĠR ot
ĠU rban
Ġgener ator
ĠKen ya
Run ning
TH ER
Ġlog o
build ing
ĠU g
ĠUR I
ay ing
the less
ĠUs ed
Ġep id
ĠSt age
ĠWal ter
Ch anges
Ġthe ore
ĠT itle
Ġdiscuss ions
dat etime
ĠLin ux
Ġad equ
Ġsomew here
ĠSt orm
Ge ometry
ĠM achine
Ġbound aries
ĠBet ween
Id x
Ġamong st
Ġvol umes
ĠSub s
ĠC over
ĠS ustain
ĠB art
t l
D irection
ĠArgent ina
BA SE
ass oci
19 14
found ation
ĠSqu ad
Ġpr on
( .
ĠCol umn
ĠMar shall
ĠE D
ĠIt em
ĠIn novation
Ġc b
Ġrul ed
I ss
ĠH ub
ĠReg iment
l int
Ġl oud
IM IT
intend o
Ġconf ident
Ġ' #
Ġla ugh
ass ador
Ġexplicit ly
W ar
Ġt ort
om es
ĠKenn edy
ĠPol y
RA ME
IN VALID
ĠAb d
Ġl ip
ĠM yst
ate ur
ĠDou glas
ĠO wn
oc y
Ġcomp ound
Ġsu icide
g z
Ġmet ers
Ġtalk ed
Ġdialog ue
CD ATA
D en
Pl ot
Ġliber al
Ġqu ote
Ġmyst ery
Be en
p read
ph ones
Ġenh anced
Ġless ons
Ġw x
stand ard
ath ers
r ank
j amin
m ms
ĠĠĠĠĠĠĠĠĠĠĠĠĠĠĠĠĠĠĠĠĠĠĠĠĠĠĠĠĠĠĠĠ ĠĠĠĠĠ
Ġjournal ists
QUE ST
Ġto w
C ulture
aver se
oust ic
Ġenter prise
ĠD ictionary
ĠLe ave
å Ĭ
am ous
Ġst y
Ġoper ates
Ġd ump
Ġrom antic
get String
æ ķ
ut orial
ĠW orth
apt ers
Ġsat ellite
â Ĩ
Ġvari ation
Pr imary
Ġgo ogle
eli hood
Ġint ense
Ġiter ator
Loc ale
Ġrec ruit
is en
Ġt weet
... )
Ġh ip
Vis ual
paren cy
ass y
ĠW right
ĠM other
ĠMiss issippi
ĠS creen
Ġdisc ount
ri el
us p
ut o
Ġgreat ly
U pload
Ġcomp lement
cre ment
IN CRE
Å ¾
ĠF un
Ġmount ains
Ġafford able
Ġdis order
Ġinterpret ation
ĠS V
Ġh ang
Ġdream s
Ġrepresent atives
Ġequ ipped
enc oding
Rober t
ĠOper ations
H ello
ĠChall enge
Sec ret
O mega
Ġcelebr ated
ij ing
load ed
Ġre named
ĠH unter
Ġde eper
G erman
Ġde put
O bserv
ĠS ize
ĠF em
Ġident ical
Ġ ion
ise cond
Do es
Ä «
clus ions
ĠV ent
Ġsp ir
Ġsusp ended
oc om
>< !--
ĠT oy
Ġvolunte ers
ĠWar ren
Ġlaw yers
ĠAust ria
Ġv m
10 24
Ġst arring
Ġj ew
ĠW ind
Ġsh arp
DE D
Ġa str
ĠSim ilar
ter ed
Cre ated
Ġpromot ing
ĠC leveland
r in
function s
ĠT ogether
Ġrad ical
ĠLear n
Ġland ing
Ġmanufact urers
Ġfrequ ent
ĠRob inson
G rad
Ġsh ipping
l ower
ĠJ en
Fe atures
ĠN at
ra ction
anch or
Ġdevelop ments
ĠLink ed
ĠDep uty
n os
Ġview ed
ĠCal c
ĠFre edom
Ġdef ence
à ¯
Ġwh ilst
11 4
ĠN ag
ĠM IT
ĠF L
Ġc ited
ign ore
Ġnuc le
et ics
ou p
man agement
Cal c
Ġlif etime
b ie
Ù Ĭ
ĠTh ank
HO UT
Ġsucceed ed
Ġt ie
Ġpopular ity
Ġcampaign s
ĠA qu
h att
Ġin aug
ell ar
Ġpat ent
Us es
flu ence
\ /
ĠInt elligence
Ġprec ision
n of
Ġprotest s
Ġ' ''
ro tt
Ġi OS
ĠOper a
Ġmort ality
pr ice
) =
Ġoccup ied
è ¿
Ġv oices
ĠD atabase
ĠP ap
rel ative
t v
em bed
Ġaccompan ied
roll ers
ĠI M
Ġd iam
10 8
Comp at
ur u
Load ing
not ify
M art
19 32
Ġcount s
ues e
Ġserv ers
p b
ĠComm ons
ĠB uck
Ġtom orrow
M us
Line ar
Ġhe nce
prov ed
Decl aration
Ġmark er
AP P
ĠM unicip
A MP
St ation
ĠV eter
ĠDe cl
ĠVis it
19 10
ĠB ou
ir i
Sep ar
ĠF ern
Ġsold ier
ĠB uffer
Ġco operation
Ġart istic
ĠCo q
C MD
Ġexam ination
Ġch a
ĠB ond
Ġd uties
Ġdes ert
ĠTurk ish
Ø ¯
im edia
Ġre ceptor
â ĪĴ
ap ing
Ġgl ad
Ġfin ishing
Ġintegr ity
Q t
ĠRun time
g un
ĠLouis iana
< >();
ĠPe ak
Ġsynd rome
Ġter rit
Ġadj acent
H on
Ġdest ruction
ĠKe ep
ĠLeaders hip
or us
ĠW ard
Ġse gments
Ġelect rical
Ġc ock
ĠMag ic
ĠOr leans
Ġrh yth
Ġautom atic
Ġf o
ides pread
ĠIns urance
Ġed ges
on al
Ġsup plement
ĠGu y
ink s
ĠO il
Ġarg ue
d irection
p iece
Ġdes per
ann ah
Ġlog in
ĠW ait
Re act
ĠSe pt
Ġsecret ary
ĠO ptions
tool tip
ĠG iven
Ġn ortheast
" ];
Ðµ ÑĢ
sc al
m outh
Ġm art
Ġun likely
Ġm oon
n l
op les
ĠIn valid
ĠI gn
ĠN ep
Ġv it
sd k
Ġthe ater
b ors
pr iv
Ġs aving
Ġl iv
U AL
ĠB aker
CRE ATE
Ext ensions
Th anks
ĠT otal
Ġmer ely
× Ļ
Ġen zym
second ary
Ġpre val
unk nown
Ġde ck
ĠO t
ĠN elson
V ol
Ġl ibraries
ĠĠĠĠĠĠĠĠĠĠĠĠĠĠĠĠĠĠĠĠĠĠĠĠĠĠĠĠĠĠĠĠ ĠĠĠĠ
Ġlock ed
F M
item pty
ĠI ce
Ġde ployment
Ġtransl ated
ĠW i
Ġwe ird
24 0
F ixed
ud son
19 28
ĠEx pression
ĠO d
H or
Ch ina
id ad
Ġem power
c irc
ĠPortug al
append Child
Ġm ilit
ĠF ALSE
dimension al
om itempty
Ġb read
ĠSpe ed
Ġch arts
ĠSam uel
ĠA V
Ġlawsu it
Ġrare ly
our t
] +
be ans
ĠB asic
Ġre plic
ĠThe ater
Ġdam aged
Ġst em
Ð° ÑĤ
ĠNAS A
ĠJust in
Con tract
ĠChar lie
ist ol
Ġstay ed
Ġquant um
T uple
ĠT OP
Ġj urisd
phot on
ĠS ym
ĠT ABLE
rou ter
H D
ĠG T
ad v
ind ent
Ġadmin ister
Ġun w
Ġfound ing
end point
ĠSh ah
Ġpred icted
Ġfil ters
Ġc razy
annot ations
Ġmod es
ĠTh ailand
Ġposs ession
Ġadapt ed
ĠS ud
M ass
Sub ject
Ġre cre
Ġex ha
Ġveter an
ĠStew art
Ġb orrow
Î ·
ĠD ublin
m ill
Ġwhen ever
Ġmain taining
Ġmanufact urer
te ch
ric ulum
Ġsignific ance
ĠCon vert
MAC RO
O FF
Ġst ops
Ġag enda
Ġp seud
rop y
Ä ĥ
table block
Ø§ ÙĦ
Ġcomp ilation
Trans ition
Ġmer ged
ĠPro file
Ġmor ph
Ġche ap
id al
Dec imal
Ġord inary
L ib
av i
list ener
Ġb ucket
ĠF alls
Ġlabor atory
s in
com b
LE S
c n
S ocial
S ide
un ion
ĠG as
Ġjud ges
ĠProf essional
* ,
Ġconsist ing
cl s
sequ ence
ĠCamp aign
ĠC P
Ġin herited
an ne
Ġge ometry
c ord
N eed
c ached
ĠB ed
ourn als
ĠA LL
PRO P
Ġens uring
Ġred irect
Ġb ot
ĠId ent
Support ed
Ġac ute
Ġint ensity
b inary
Ġinfe ctions
Ġc ow
Ġt ale
Ġfol k
Ġb ounds
C ould
in ces
Ex tra
Ġ( %
f older
ĠCh ampions
Ġpurs ue
ĠM aine
form ing
ĠZ one
ĠTown ship
s elling
Ġevery where
ĠB ible
-------- --
SO URCE
Ġch ances
i ov
ĠK er
ch arg
Ġwr apped
c ure
r ons
ph ony
Ġapp lying
lin ux
\ |
File Name
EX PORT
script ions
Ġinvestig ated
ct ree
c amp
Ġs urre
Ġformer ly
J o
Ġb undle
ĠSt ars
he art
D iff
Enumer able
get Message
S al
con current
ut t
Ġflow s
Ġinc orrect
Ġimm igration
Ġ# {
Ġinh abit
B T
ver ify
Ġsp ots
Ġleg s
ill o
Ġposs ess
ab stract
trans port
Ġpartic les
Ġmem br
ĠAg ent
ab c
ĠJ u
Ġfavour ite
Ġ" :
Ġd ictionary
c mp
Ġbl ind
Ġany more
Ġrob ot
Bl ue
Ġmusic ian
ĠDise ase
Ġs ust
iv an
U nd
Ġcred entials
ĠC os
ĠRepresent atives
id o
am ount
ĠPH P
uff ix
Ġsl ide
ĠLog ger
ĠH ockey
ow ski
Ġ& #
te le
SU C
ĠPubl ishing
amazon aws
Ġcl othing
ĠP un
ĠPort land
Ġext ensions
ĠE C
Ġt ensor
Ġun like
Ġas semb
ĠF ame
Ġstri p
Ġ æ
M ajor
Part icip
refer ences
ĠWrit ing
ut down
ĠK ids
Ġtum or
Ġw orship
m iddle
Ġover view
ugg ing
ĠEm ploy
eb r
C trl
ĠT ar
Ġpost er
pe g
ĠTerm s
L aw
Ġcelebr ation
look ing
Ġvel ocity
> ${
Ġphotograph s
ĠLe ader
ĠOr th
Ġcompens ation
ĠN am
ĠMet ro
Ġor al
Ġass ignment
ss l
Ġparticip ating
Ñ ĸ
em a
Ġicon ic
ĠInter est
Ġn od
w i
ĠG ov
40 4
chn ology
( --
n est
Ġemer ged
P ixel
ĠPro perties
ĠNC AA
Ġd st
ĠEp isode
og s
Ġr anging
ĠMor ris
N a
ĠA ws
Ġb rows
Ġsequ ences
Ġcalc ulate
B oth
os l
Ġ" ${
Ġkey board
d st
n ik
Ġcas ual
ev a
_ [
Ġdram atic
ĠL I
Ġsp oken
4 50
Ġexpand ing
t own
Ġsc atter
Ġevery day
Ġn ic
Re quire
B uf
mit ter
C ategories
ĠF err
str ument
og ene
Ġaut hentication
le ases
L ambda
Î »
Ġsu ite
Ġ' _
19 22
ĠFrank lin
ĠS ummary
AR K
Ġdecl are
Sc ore
Ġentreprene ur
Ġback ing
Ġg ate
s b
sc ore
Ġab road
Ġcomplex ity
c urrency
eg an
De ath
Ġst uck
ĠBroad way
Pol y
ĠR ule
ĠP ope
Ġdecl aration
MEN TED
ĠC elebr
oth y
SS ION
M ov
Ġhyp ot
ĠW E
ĠCol omb
local host
INS ERT
ellig ent
Ġ' @
con cat
T ri
ĠPr incess
Ġsearch ing
add Class
Cam era
ĠB M
ex amples
az ard
Mon itor
ss on
ĠB loom
AR G
ĠT s
c ia
ĠC I
C UR
ĠÃ ¢
Ġphot ography
Ġobserv ation
th a
S n
str y
in ance
Ġs ectors
Ġde prec
Ġhigh way
Sup press
Ġle ts
Ġr anges
pl ing
ĠA udio
ĠP resent
Ġinter active
up dated
ĠJ e
ĠC ultural
ĠMed al
Ġcam eras
c x
Ġdis ag
ĠC lean
ĠG on
In f
ĠT ower
ym n
ch unk
ĠO cc
Ġd yn
ĠT ob
ur ations
Ġorient ation
Ġs ugar
Ġse ar
Ġla ug
Ġple ased
ef e
ĠL anc
Name Link
ĠMe eting
ĠF M
ĠGal axy
Ġqu eries
ĠCon stant
ĠG raham
ps hire
ĠI an
writ ing
Ġan ime
Ġdes criptor
Ġh al
ĠCo oper
spir acy
get Class
Ġconsider able
Ġmist ake
ĠSt re
ĠThe ory
th al
>( <
Ġrec ycl
ĠCom par
f ac
ĠBe ing
Ġaff airs
Ġexpl oration
sp ot
Ġpre vention
11 7
ĠIN TO
st ates
Ġent ert
ĠC er
ĠOr ange
Ġg est
ĠSe veral
Ġstrugg ling
Ġregard ed
b ling
Ġcomput ed
hav ior
ĠUS B
ĠL ag
Ġprepar ing
ĠCh amber
ĠBelg ium
Ġres ort
V C
SP ACE
ĠV ancouver
Ġagric ulture
Ġsome how
19 31
P rom
Ġact ively
Å Ł
ĠF el
ĠT an
ĠG ulf
ast ing
Ġdelay ed
ĠJim my
ex cept
19 24
0000 0000
ad ies
ext ensions
ĠP L
ex per
ĠK az
Ġn ut
d istance
et al
ĠKn ight
SL S
Ġven ue
') ->
includ es
Ġb om
ĠÃ ł
An n
Ġthreat ened
Ġgr ants
" |
Ġincred ibly
Ġrestr icted
ĠArk ansas
dd ie
ĠSh are
With out
code c
}^ {\
ĠNor wegian
Ġbon us
ul ative
jack son
ick ed
EN ABLE
Ġsurround ed
Ġexam ine
ut ers
Ġf oss
ĠWIT H
Ġ å
ge q
quir y
Ġphys ics
ĠF ather
T ake
Ġflex ible
Ġre ign
(' ./
Ġdecre ased
Ġeduc ated
Ġton ight
ibli ography
Ġf er
ĠK ir
ex ecution
Ġad mit
jav ax
ĠF iction
Ġprint f
Ġprov isions
Ġpush ing
iss ance
s ocial
fr agment
ac les
ĠÐ ½
ĠSt ev
ĠPro duction
Ġch ip
ing ers
Ġconfig ured
Ġin sect
Ġdoll ar
Ġtw elve
met ry
Ġult imate
Ġt we
Ġfl av
Ġstream s
B ACK
Ġ' -
th ere
Ġexpl oring
ĠNot es
Ġagre ements
Ġn s
Ġpres erve
ĠDak ota
Ġhar vest
Ġr ounds
ĠSy ria
Ġinfl amm
Ġmain stream
ĠT es
h ai
pos al
â Ķ
pro c
Ġflo ating
() ">
Ġw idespread
ĠĠĠĠĠĠĠĠĠĠĠĠĠĠĠĠ ĠĠĠĠĊ
Ġadapt ation
Ġr anks
ĠCreat ive
aught ers
ĠH ad
ĠE lection
ĠC ould
Ġl unch
Re ceived
Ġneigh bour
ot ton
h alf
Ġpaint ings
ĠF BI
Ġcl othes
per cent
Ġaud iences
mar shall
Ġgather ed
in burgh
Can adian
Ġadvert is
% "><
Ġcommun icate
t imer
Th ank
Ġche st
Ġtrail er
Ph ot
en o
adem ark
Ġs outheast
Ġp ounds
ate ful
ĠP in
ĠPh oenix
Ġembed ded
} ]
vent ions
Ġactiv ists
19 27
ĠCamp bell
Ġch rom
Ġvent ure
om ing
o ose
P ane
ĠUn less
/ )
n ate
Ġen emies
Mut able
Ġn am
ĠJ oy
B reak
d n
p icture
Ġoper a
ben ch
Look up
Ġr ugby
) $.
55 5
Ġback up
av ers
ib bean
Ch unk
T yp
Ġcontrovers ial
Ġn aturally
' ].
Ġs yntax
S ets
ĠL iverpool
Ġin cent
urs ive
ĠA aron
P riority
ix in
contin ue
Ġch urches
^ *
ul in
== =
Ġk in
a ac
ĠK ind
ĠAdv anced
Ġop ponent
TO M
Part y
Ġhydro gen
Hash Map
B its
am ents
VIE W
ĠH end
run ning
Top ic
Ġunivers al
Ġcomp iled
ĠB rew
Read y
Ġh o
Code c
n ia
ĠS ony
Ġincorpor ated
ĠG raph
step s
Ġsuggest ing
Ġtreat ments
Ex ecute
ĠH im
ĠCl ose
em en
ĠOther wise
ĠSte el
av an
ĠRog er
HO ME
ĠB es
14 4
Ġarbitr ary
ĠM ail
T ry
at on
Y P
ĠP il
ĠF inn
Ġdef ines
met ic
ĠL abel
Ġmac ro
stats models
qu er
ĠMA X
Ġbr anches
ĠR y
Ġsch olars
In struction
ĠI de
Ġdifficult y
Ġdis plays
Ġspeak s
is o
Ġp a
ĠS cript
ĠMin or
Ġsurv iv
. ',
Ġg host
co ord
ĠC F
ĠBang ladesh
Ġdecl ined
Ġf uck
M obile
__ ,
S K
tra its
Per iod
Ġis lands
Ġsimult aneously
Ġres on
el ing
Ġclaim ing
a que
ĠC hel
ĠMar ie
as ets
Ø ª
Ġed iting
ing e
ul k
D TD
Ġsil ent
ĠCor p
CO M
p al
Ġp ert
ĠAgain st
ĠBalt imore
Ġdescri bing
S ervlet
ĠQueens land
Ġsp atial
h ook
Ġd il
N I
B us
Ġexp enses
ĠY u
g mail
ubern etes
ib ling
ĠDr agon
ath on
Ġtour ism
cl ock
Ġcult ures
Ġp arks
Ġcharg ing
st reet
l oss
Ġim aging
! </
Ġb ills
ĠG P
âĢĿ )
ĠAlber ta
Ġste am
urric ane
Ġple asure
Ġg allery
Ġadd r
ĠL L
Ġcor ruption
C ost
Ġo w
Ġim pl
ĠCommission er
ir ts
med ium
ĠR ank
Ġsal ary
Ġpubl isher
gu ide
e conom
ĠIss ue
^{ (
Ġan xiety
Ġbrief ly
Ġt orn
Ġshould er
Ġbeg un
ĠH R
Ġt rem
P an
Ġm ood
ĠS R
late st
Ġrestr ict
def inition
rol og
on ing
; \
Ġt un
dis patch
Ġs wit
ĠP ick
Ġl iver
Q ual
Ġmin im
label s
w t
Pres ident
19 25
ĠPit tsburgh
ĠCro at
g lob
ĠP eters
Ġscre ens
pan ic
Ï Ĥ
to ctree
Int eg
ĠCon vention
ens on
Ġpro to
e i
19 12
Ġcap s
Fil m
lim ited
Ġres ign
ĠRef orm
Ġsymbol s
ĠWIT HOUT
ac ular
Ġcom ics
Ġdead line
T M
ĠSt even
Ġclos ure
ĠSt orage
Ġrem oving
Ġbank ing
I l
f p
ĠM uch
ĠB egin
T ech
ĠE val
ash ing
P si
s ure
ĠR and
Ġsuff er
ĠDom in
Ind ian
Ġmeaning ful
**************************************************************** ********
av ery
p ref
Ã© t
C amp
Ġt urb
2 20
Ġexp ed
Ġsim ulation
Ġcorre lation
Tr igger
Ġre actions
:: $
ĠP ad
Ġco aching
irm ingham
au i
Ġprocess or
Ġatt ending
Ġanalys es
Ġlisten ers
put er
BO OL
ĠCon tract
att ach
ĠT ed
ĠP i
ĠG round
19 2
P REF
ĠN ull
ID S
ĠEd ge
cel ona
Ġcommand er
Ġsit uated
P DF
us age
ĠCons ider
Ġim plications
ĠP el
Ġf ert
L ines
ge o
Ġt ennis
19 21
Ġph rase
AC HE
N R
ke ep
V O
ok u
Ġhuman ity
ĠMem ory
Ġl ifestyle
TableRow Color
Ġcell padding
Z oom
Ġrequ iring
ĠS ay
ĠL ot
Ġinn oc
Ġr iding
ĠCustom er
ro se
Ġh unting
ĠR ole
ĠS urg
Br idge
v ars
Ġvert ex
en z
Ġinter section
loc ale
17 0
Ġstat istical
cam el
Ġexclus ively
ĠDen mark
ĠU SS
ĠG ill
Ġcare ful
ĠPu erto
ĠDen ver
ĠMur ray
Ġb unch
ĠM aj
p ipe
iz za
Ġemot ion
ĠN ear
ĠDr ug
ĠCh ile
Ass et
ĠM ach
ĠS amsung
Ġp ixel
Ġhost ing
Ġexcept ions
Ġh yd
Ġf atal
ĠF ed
Ġinv olve
Ġbel ongs
Form atter
Ġ$ {\
IC K
enn ial
H AND
ĠIn iti
S PE
ĠR ing
ĠMov ement
ĠG ot
C annot
L at
squ are
Ġf rames
ĉĉĉĉ Ċ
Ġpol ar
Ġop inions
d elegate
ĠMuslim s
er ious
Ġg ard
M att
ĠE li
ĠM aur
ant ed
Ġchar ity
F our
is ely
sen al
ĠCh ron
mat ches
ĠMit chell
Ġm ild
ĠS eg
45 6
Ex per
19 26
ĠE state
he x
Se q
ĠF ish
f rames
Ġ( -
D ITION
ĠC ome
AT O
Ġretriev e
in ery
andid ate
ĠT i
im ated
H istor
Ġhard er
Ð ¹
Ġdeliver ing
fe atures
Ġdefault s
SP AC
list en
Ġc rown
Ġm ad
Ġcomp eting
ĠNev ada
Ġbron ze
ĠA B
Ġlight ing
ĠRes erved
Ġcre am
it ations
Ġnot ify
ump y
ĠPod cast
Ġad mission
Ġk ernel
list ed
Function s
}, \
Pr ice
Ġmoment um
Ġexpress ions
pect ives
Ġind ices
SS AGE
po i
effic ient
j or
ĠLicens ed
G RO
Ġh ack
Ġval ley
her ent
Ġt ies
ob i
000 1
Ġpar ad
re ck
Ġp ixels
Rep ly
f ox
Ġd ad
Ġh ub
Ġsens itivity
Ġquant ity
ĠS Y
ab e
ĠU P
ĠStr ateg
ac co
t m
ens is
pt ic
ĠMod ule
Cal endar
ĠJ uan
Ġdom inant
ĠQ ual
ãģ ®
ĠT ig
. ),
L R
ĠB SLS
L IB
Ġis instance
map s
Ġover come
n orm
re view
Ġcr icket
Ġdi agnostic
j ournal
Ġm eth
Rad io
Ġann ually
ĠK rist
ĠExper ience
ool s
ex pl
() [
19 23
Ġad option
Ġemphas is
} '
Ġbox es
Or igin
Ġex ec
set ting
ĠElement ary
Ġprogress ive
ãĥ ¼
Ġarr anged
Ġcharacter ized
Ġl uck
ol ine
le ading
OR S
ĠA y
b ug
Ġcount ies
ĠUS D
202 4
Del ay
ĠIS O
Do ctrine
ADD ING
Int ent
Ġconsist ently
Enc oded
Ġun ve
FLA G
Ġdr ums
Ġeg gs
Ġdis orders
] ->
Ġcell spacing
ĠC row
project s
ĠWH ERE
Al pha
uc lear
Model s
Ġj e
Ġcoord inates
à¤ °
Ġc ub
w ind
az ines
ri ors
Ġrender ed
Ġuncertain ty
get Attribute
ĠWay ne
Ġvir al
Ġpartial ly
Ġgraph ic
ĠP ow
var i
ĠN BC
Ġcompl aint
XX XX
Ġexam ined
ĉ ĠĠĠĠ
Match er
ph ase
h uman
T ip
Ġpro portion
ĠLiter ature
` :
l it
A ud
Ġ" [
at able
sl ide
Ġcon vention
EN CE
ĠSt yle
fe ction
Ali as
Ġrecover ed
Ġd rew
ĠEvery thing
Ġd ated
ac re
ore n
Ġpro x
ĠK ate
at io
ĠG OP
Ġseek s
H ot
Ġc ul
=" {{
ĠL aura
Ġfl ower
Ind ia
enez uel
Ġpoll ution
ecess ary
google apis
Ġmoder ate
Comm it
Ã ª
cover ed
ĠAnt i
P acket
elastic search
ĠEn c
us c
Ġop ponents
tim eline
V I
itud es
ĠCol lections
ĠH ind
S at
ribut ed
prep are
, .
sw er
str ict
ĠTR UE
ĠArg ument
Ġrecord ings
Ġsl ice
Ġpartic le
Ġ* ,
ĠBe ijing
sc r
Ġcomp ounds
ĠSe an
k ernel
ĠD ie
Ġarch ive
Ġst ating
Ġph ones
Ġpower ed
ĠBar bara
hatt an
Ġattempt ing
del ay
J ul
f ailed
ĠCon nection
Ġm ph
Ġsurv ived
Ġsub stance
E ducation
ĠH AL
Ġthe ories
Ġt f
ĠE c
ĠD ig
AR RAY
ĠS oul
çĶ ¨
Ġr ally
is or
Ġa est
Ã ´
it ime
Ġfollow ers
Ġeffect iveness
Ġconven ient
ud ge
Sc an
L ow
d ots
Ġenthus i
ĠAl aska
io x
ĠHash Map
Ġbr ut
Ġs el
Ġt ape
EV ENT
e clipse
Ġl ov
Ġder iv
Ġbul k
Ġs ender
U A
W ater
ĠEv ans
at om
ĠK ash
t ax
set Attribute
ĠChar lotte
Ġtack le
b ank
Ġbet a
ĠAdd itional
Ġal gorithms
E lect
ĠD R
os er
Ġanalyz ed
Lear n
ĠTre as
m atic
Ġsh ops
ĠG ray
ne ed
Ġtim ing
10 16
l iving
Ġrest ored
Ġaf raid
Track er
Ġvess el
com plet
Ġoccasion ally
ĠER R
Ġactiv ist
Ġsort ed
trans late
var phi
Ġc ust
Ġaccomp any
Ġsaf ely
ĠF riends
ys ics
Ġrad i
{ $
Ġdeploy ed
p ot
Ġcoast al
2 13
ĠIllegal ArgumentException
å Ń
c ost
sh ops
Un iform
con v
ĠEm peror
S F
Ġtravel ing
ant on
Sm all
19 16
dr iven
ĠJenn ifer
ĠJ azz
Ġse cre
if le
Ġatt itude
Ġcap ability
uck er
Ġrecip ient
W ed
+ "
P ADDING
Ġwork place
Sh adow
Ġglob ally
ĠJava Script
Ġend if
IT LE
Ġpar agraph
á ¹
ĠT oken
Ġappe aring
Ġequ ality
U G
ĠStan ley
ar us
Ġform ats
ect ure
Ġsur f
ĠFin land
A SS
H y
ĠT ak
Ġess ay
ĠF ried
e u
Ġremark able
ĠE SP
Ge orge
Ġm i
Ġevery body
fo od
ĠPark er
Ġcross ing
ous el
ĠCommon wealth
W ORK
Ġengine ers
ĠInvest ment
the y
Ġk w
ant i
Ġhel per
inter val
Ġcomput ing
( `
F actor
Ġquarter back
struct ure
ĠColl ins
C lean
se cret
Ġw rapper
ĠM ade
Â »
ĠU lt
ĠL ost
ĠUp dated
f our
re duce
. ~\
if iable
Ġcomb ine
ĠNe uro
Ġas c
ir atory
ĠAr men
atab ases
Ġs urn
Ġwild life
Ġear liest
ĠSpr ings
nof rame
not ification
Ġp ill
al ph
fl ush
ME M
ĠEm ail
Ġep ic
Ġdepart ments
ĠM oz
ĠK IND
st or
umb n
Ġemploy ers
Ġscholar ship
ĠA WS
ĠM all
Ġref resh
Ġab ilities
ik o
Ġsevent h
ref resh
Ġprom ising
Ġvess els
ĠPut in
text ure
ĠSol utions
Ï ħ
Pe er
ĠG O
ed ly
ug u
allow ed
Ġopt ical
Å «
19 15
Ġfit ness
M IT
Ġcl s
Ġmask s
Ġco h
bre aking
Ġ" _
Ġcomput ers
an ion
ST ART
ĠTh or
bor ne
Ġcomp ress
ĠUnivers al
Ġpro l
P OS
ene ath
Ġattract ive
Ġdire ctions
ĠSus an
Ġdel iber
ĠH unt
ĠChrist ians
add ed
ĠGr id
Ġ" )
g age
Ġ( ;
Ġmid field
h is
Ġdig it
Ġg ross
I ll
Rad ius
N eg
ĠGener ated
Ġfail ing
u pt
om ething
SH A
Ġalloc ated
Ġp uzz
red irect
Sa fe
ĠC NN
ĠB ORDER
z ens
ĠC opy
Ġcom ed
ane an
Ġcrypt oc
12 4
ĠBet ter
ĠEnt ity
ut or
11 3
ĠV erm
ĠM is
ĠF ollow
ĠAn imal
13 5
Ġfacilit ate
50 9
Ġdis patch
Class Name
Ġt ick
inn ed
V P
MACRO INCRE
an on
ĠIndust rial
Ġ" #
t ex
Ù ĩ
ĠB illy
ĠOr chestra
MACROINCRE MENTED
Ġne ur
ĠC rown
ĠN intendo
N ONE
ĠPract ice
Ġst unning
pop up
amb ig
it ual
Ġr c
Ġconvers ations
Ġro ster
f av
ĠS ad
Ġst upid
Ġhor izontal
Ġlock down
Ġswim ming
t oc
ĠTE ST
ĠH orn
ĠH aving
Ġtim er
On line
ĠTechn ical
Ġt ons
ĠG lob
Com ponents
ĠT X
Ġcond em
Ġth irty
right arrow
Ġpet ition
Ġim plicit
! \
ĠG it
G F
st ri
Ġprom ised
Ġopt imal
Vis it
ĠBul g
Ġaggress ive
ĠN ord
ĠL yn
Ġpe ers
ĠĠĠĠĠĠĠĠĠĠĠĠĠĠĠĠĠĠĠĠĠĠĠĠĠĠĠĠĠĠĠĠ ĠĠĠĠĠĠ
Ġs ail
ĠC M
Mod ified
ep age
he ther
ĠJ oin
ĠMus k
Ġcommission ed
Ġport s
bor ough
erial ize
Ġb orders
ĠE ST
ĠA rena
ĠD at
3 20
ĠL ower
Ġexhib it
Î ¼
ĠBuff alo
SUC CESS
onom ous
ĠA F
ĠDate Time
I p
Ġpsych ological
Ġpri est
ort ed
av ia
** *
Ġl ens
Ġc atal
over line
pr ises
ĠMe anwhile
L ang
Ġt ar
Ġre ception
Ġtalent ed
Ġcoord inate
Ġforest s
Ġcancell ed
com plex
fer ences
æ ĺ
ĠT it
d ynamic
Ġang ular
ĠB AS
Ġlo ans
Ġingred ients
m ers
inter pret
Ġpass age
WA RE
Ġh orses
Ġglob e
subs cribe
. ]
ed a
Ġident ifying
w ik
O lymp
Ġf i
Ġwarn ed
cp u
Ġemot ions
ĠDel ta
ĠHon or
vent ory
ah n
gener al
ĠT ru
od ox
ĠPre vious
RE T
S il
ĠMarg aret
erv ers
S pring
5 12
ĠE rr
upload s
Ġatt ach
ĠM erc
ĠEd inburgh
U ntil
Ġf ur
ocol ate
Ġ} ).
View Controller
b ucket
Add itional
b p
Ġharm ony
B ur
Ġsm ile
Sc ene
IT H
MP L
Russ ian
ĠC ou
ĠC raig
Ġbut tons
RE QUEST
Ġdi abetes
ov ak
ĠA my
Ġz oom
Ġfoot age
th ree
en vironment
db c
alle st
ĠBro thers
File Path
og g
h line
g ender
Ġ' ,
Ġdev ast
ĠCar ibbean
ĠY ang
ĠMad rid
Menu Item
Al ert
Ġcompet itions
Ġdepend ency
= $
Ġbacter ia
Ġm es
ab et
ĠK l
ect ive
Ġob st
à¥ ĩ
b undle
m ov
US A
ĠR io
Sc ott
Ġroll ing
amp a
Ġexp atriate
Ġthread s
e ing
f aster
graph ics
hab ilit
Ġgovern ance
d ating
it ting
I LL
Ġc ous
Ġhit ting
r h
St age
Ġlab our
ĠSh adow
Ġart ifact
ĠC ris
ĠBar on
Ġprotect ing
Ġsnap shot
Ġfr act
e or
ĠN an
Ġrank ing
P ush
AR CH
Ġt uple
ĠC arn
tr ain
fore ach
Subs cription
Ġdesc end
} -
IN IT
Off icial
dec ode
Det ector
ĠP rior
value Of
ĠG host
Ã «
Ġm ic
et ed
ĠR T
G old
ĠM B
Ġsec ured
O cc
m und
Ġre aches
ĠCour se
car bon
12 2
ĠM C
k ov
Al t
s chool
Ġm s
p oll
ĠCy ber
re lation
Ġch amber
r apped
Lin q
Ġst er
Ġl l
19 11
ok a
osp her
Ġ======= =
ĠR ules
Ġaw esome
Ass ign
ĠBrazil ian
ĠL isa
Ġbut ter
ĠV A
Ġauthor ized
ĠArt ist
Ġdr ives
G reat
ard ed
Qu ant
pay load
Ġcol leges
F etch
ĠF ine
Ġwork force
__ .
Oper ations
ĠEx hib
ĠP ackage
/** */
w br
ĠP E
usal em
ĠHawai i
Ġr ab
T ON
Ġe uro
Ġpro files
r ass
ut ing
ident ity
ĠF riend
inc inn
ĠM atrix
G T
ĠArab ia
ĠTurn er
ist le
ĠPhil osophy
Ġj ail
Ð¾Ð »
or ious
Met ric
i u
Ġres erv
am ilies
ĠGr ace
ĠPortug uese
Ġrest art
ĠT ol
fin ity
Ġpregn ancy
Ñ Ĩ
m other
` )
Ġcon gress
__ ["
ĠB oot
ĠR acing
Ġblock chain
Ġt ropical
Ġvari ants
PAR AM
fil ters
c ases
Mark er
u art
Ġj et
m illion
Ġcar ries
ĠStr ategy
Work er
ĠRod r
D istance
Ġearn ings
for ced
NE W
ategor ized
ĠEar l
Ġde emed
CO UNT
ĠCom ics
ph an
Lower Case
ĠHam pshire
p ending
Am azon
l ic
draw able
D one
Ġref lected
Ġabort ion
g ui
ĠE DT
Ġco in
Ġdeterm ination
Ġb rew
isecond s
Ġnews letter
Ġdep ict
ĠUn fortunately
ĠB aby
Wh ich
D isk
li ed
Ġhe ter
Ġtext s
t ains
ĠCo al
Ġstock s
Ġm os
Ġenc oded
ey er
Ġter rible
sh ore
ĠD ebug
Ġsub str
C SS
ĠF ro
ine a
ĠCo ach
Ġdef initions
Ġpo ems
æ Ī
Ġl ap
Ġcert ified
Ġ// !
che m
Ġsubs idi
ĠCo ord
ĠEmer gency
SPAC ING
ĠM om
Ġind irect
Ġst ere
19 13
ĠU TC
ĠMont real
b ia
Ġrepl acing
Ġunder ground
Ġ" );
incinn ati
ĠBen jamin
ĠLiber al
Ġminor ity
Ġprom ises
ĠInd igenous
Trans lation
ĠPhys ics
ar ms
Ġf oo
Ġdo zen
man ifest
ĠX box
Ġg onna
ertific ates
Ġor ange
se ed
] </
Ġbas eline
parent Node
C ountry
ĠC ass
N U
Ġin struct
ĠTechn ologies
Ġobject ives
Ġc rop
. ")
Ġh ur
ĠS F
} =
m ys
ar ound
ĠMor ning
Ġconstr aint
back end
inv oke
Ġrem oves
reg ular
) ^
ĠR achel
99 99
3 000
Set up
ĠCommun ication
ĠF DA
pro duction
l arg
ĠUp per
Ġd ish
Ġsub mission
Test ing
ĠF isher
Ġview ing
Ġl apt
ĠLabor atory
Austral ian
ĠK u
ĠC old
c ies
s ong
ĠCon struction
" ?>
Ġb anned
se gment
Ġemploy er
OT TOM
Un ique
ĠN ar
Ġres il
Ġv ec
Ġac quire
IC AL
ĠParam eters
ĠCh rome
attr s
ay an
yn opsis
Ġim pr
ĠGi ants
z oom
ĠB row
ĠD IS
Ġpaint ed
ĠN FT
T imes
Dest roy
Ġtarget ing
arg v
ĠJ a
Ex press
Art icle
ĠOC aml
ĠNS String
c ookie
Ġst ub
Ġa qu
en ue
hemat ical
" }
Mod ifier
Ġsusp ension
Ġte eth
ĠVis ual
Ġp ow
ĠB R
Su ite
) $,
R ound
ĠP UBLIC
if ference
D ao
Dep artment
Ġvolunte er
Pl us
ĠDis play
requ ency
5 000
Ġalleged ly
ot er
ens ively
air y
D ict
pl ane
Ġme al
ic acy
2 30
B re
Ġsm oke
tool bar
ced es
l p
set Text
Ġreg istry
ĠAgric ulture
M o
ĠL ocation
Ġform ing
task s
ĠĠĠĠĠĠĠĠ čĊ
ĠProduct s
us k
process or
: /
" ])
pro f
ĠRe ports
ĠPer haps
Ġn ose
ĠV oice
Ġlog ical
ĠS even
Ġvirt ually
et e
ist ically
Ġhighlight ed
ĠCamp us
ĠR u
ov o
Ġd eter
Ġbl ame
Ġrat ings
Ġhabit at
indu ced
Ġmetab ol
Ġalleg ations
Re place
Le ave
=- =-
ps y
ĠI C
Ġch ampions
ilt ers
ĠL uke
iev e
ĠNav al
ĠRob in
ĠA ld
à¥ į
ogen ic
Ġco inc
\ '
ĠIn n
Ġun n
Spe ed
Ġfin ite
ĠP apers
G l
vis it
Ġextra ordinary
Ġtransform ed
ĠF ab
om i
CO VID
qu arter
ĠPri x
ĠR andom
ĠM asters
ĠSc i
ip art
Ġmet res
Ġrepeated ly
ĠS K
Ġlong est
Ġsp o
Ġbelief s
ell ers
Ġreflect s
Tag ged
Ġmiss ions
L ite
ĠCom plex
è ®
ĠV acc
over ride
re present
ĠK ath
ĠDet erm
Ġcolon ial
al one
ĠK ap
p agination
ot ypes
ĠPh one
ĠK o
ĠM eta
fr ag
chedul ed
C over
Ġ um
ĠChar acter
it err
Ġ ere
D M
Ðµ ÑĤ
Link ed
S ent
P ending
Ġsav ings
ĠRober ts
ĠCELL PADDING
ĠCELL SPACING
Ġchem istry
> [
Tool s
he ld
Ġven ues
ĉĉĉĉĉĉĉĉ ĉĉĉ
Ġin clusive
Ġblock ed
mut ex
Ġre n
tr as
Ġl ady
trans l
Ġpregn ant
Ġinc idents
Af ric
Ġclose st
Ġfood s
Ex it
á »
ĠL uther
ĠAb u
FA IL
ĠVAL UES
Ġodd s
ĠBar ry
Ġjo ins
om orph
f w
Ġde let
×ķ ×
Ġwork shop
b age
aw esome
Ġj ury
Ġdiscrim ination
Ġwe igh
Ġ$ ('#
Ġen orm
pl aced
ĠQ uality
ĠArch ive
ĠB right
Ġinf ected
ĠDr ag
Ġcook ing
Ġf ut
ĠP si
ĠN ad
! =
faster xml
Ġpack ed
act ed
Ġw elfare
oc o
ĠP FNGL
ĠDC HECK
Ġ\ ,
ĠA ve
sub string
hell o
W alk
ĠD raft
ect s
ĠAl ice
Ġg otten
ot he
ĠC BS
met rics
p aces
Ġex pr
Ġcogn itive
Ġc inema
Ġ/* !
ĠAr n
ĠT ik
h aw
H P
T emp
d td
ĠTransport ation
Ġp ipe
ĠMur phy
Ġm ixture
12 1
Ġnav igate
ĠS outheast
Ġprot otype
Ġind igenous
Status Code
ab ul
ĠCl ar
Ġf iscal
ĠG olf
cast le
enc il
r angle
Ġsh orter
Ġdis pute
ĠS S
ĠStr ucture
Ġim plies
J im
ĠMad ison
b rew
Arch ive
ĠU pon
ĠD iamond
fil er
ĠSe qu
Ġgrad ually
sc an
Ġdepart ure
ad itional
ĠW u
Final ly
ing ing
ĠR ender
ĠQue bec
L com
sche mas
G M
Ġ< ?
ul ly
Ġsole ly
Ġgather ing
Ġprint ing
ĠS ale
epend ence
Ġfall en
or o
Ġan notation
Ġen abling
Ġaccess ed
. ).
w id
L ou
pos er
' }
Ġconcent rations
Ġt ap
ĠO UT
App ly
Ġcast le
Ġr ivers
Ġ Ä
oc on
ĠCon struct
Mult iple
Ġel ite
Access or
Po jo
ĠFant asy
ĠTh row
ach t
Ġt anks
ĠExt ension
ĠG ET
om on
Ġinhabit ants
Ġobserv e
Ġcomplet ing
ĠBl ues
Ġl aser
Ġking dom
Ġconsist ed
am ination
Ġvol t
Ġd ys
Ġch ains
Ġactiv ated
l b
ĠInt el
Ġconfig ure
uk a
ĠW W
to o
Ġmind s
ĠÎ ¼
per iod
AT URE
Ġob l
E r
Ġcontribut ing
Ã Ĺ
ia z
f illed
ING S
Ġd ub
Named Cell
c od
Ġpropos als
Ġd ivers
Ġl ucky
P eter
ier ra
ent o
ĠBern ard
18 90
grad ed
Sche dule
Ġsurve illance
ĠK ay
16 8
ars on
ĠQu arter
Ġ} ),
Ġdeput y
Ġper pet
ĠM illion
id el
ĠB irmingham
Ġbare ly
X Y
() ]
ob a
found er
LA B
im ony
R ay
Ġse eds
ic ol
ĠF E
Ġh ung
Ġpo ison
ĠR ap
Ġt ours
ĠResp ond
atter y
Ġaffect s
ĠV el
W elcome
Ġsp ell
ĠAug sburg
Ġdist urb
ĠTest s
ĠS TR
Ġinn ings
K ernel
ĠB irth
Ġsh ore
Ġwood en
ĠH ousing
ĠInd ians
t ile
uss ian
Ġover r
ĠSal v
FORM AT
ĠB enn
Path s
All ow
Ġcreat or
Fore ign
com ments
ab i
Ġm amm
0 10
Ġtherm al
J O
{ -
A wards
N ON
RO OT
Ġcharacter istic
initial ize
iber nate
ĠBar celona
Ġl ying
uff le
ĠC itiz
Ġg it
Ġgold en
os ity
ke eper
Ġr ice
Ġillust rated
sub Nav
M ail
Ġspecial ist
ĠMan hattan
) ?
ĠRe quired
e lection
Ġ" ;
ri en
Ġev ident
Ġdis p
ĠPre p
Ġdom inated
iv ic
> .</
Ġassess ed
M or
ĠBr anch
Ġsatisf ied
p ic
Pay ment
Ġseem ingly
Ġdiam eter
id y
Ġem ails
S UB
] ).
Ġpre st
Ġstay ing
in us
Ġcomp ile
Bit map
em ption
Ph i
ĠÂ ±
Ġhar ass
Data Type
RE NT
19 0
end ors
f ers
ph ant
Ġk iss
ĠR ud
Ġcar rier
atern al
equ ality
over flow
ĠAd ult
9 78
ur ring
dr ag
Ġmin istry
em ployment
Reg istration
om eter
Ġbo ards
Ġa ired
Ġm ature
Ġf iber
Ġinteg ral
Ġcons ensus
Ġwant ing
ĠC rit
g row
B ill
W ARN
char acter
ĠM ove
ĠK an
Europe an
Ġburn ing
Ġs orry
For ce
="../ _
Ġalign ment
Ġdocument ed
Ġguarant eed
Ġk iller
ĠZh ang
ĠM ason
Filter Database
7 50
sp i
ĠS oc
g ow
ĠP ictures
Ġcour tesy
Ġ. =
C ertificate
Ã Ĥ
is i
Sc alar
M ont
Ġhistor ian
ĠDe al
pack ages
Ġcho osing
Ġimplement ing
Ġh ire
Ġaccompl ish
19 08
fr ak
ĠCom edy
land o
t em
ĠDev ice
Ġinter rupt
au kee
Ġpain ter
T ensor
Ġgener ating
des cribe
Ġcitiz en
T ur
ĠL ux
Ġcr ack
respons ive
ĠDet ails
duc ational
SER VER
ĠP or
ip per
ĠB ird
Ġtox ic
Ġsepar ation
Ġref lection
ĠC ut
f iction
Ġg ains
Ġst olen
Sl ot
ĠF actory
Ġal ien
ĠEag les
ĠStat ement
Ġbatt les
Own Property
Ġanaly ze
and ed
ĠV ision
Ġg ig
IC S
Ġrefer ring
ke ley
Ġloc ale
ĠP ic
con sc
Ġstri king
apeut ic
H int
em ia
Ġp our
] ['
ĠJohn ny
Ġinst itutional
op am
Ġscient ist
ash a
u its
ĠMod al
ĠJ oint
ĠS ET
ĠS uz
us hes
b oth
S un
Ġexception al
ĠBi ology
th ird
stream ing
Ġag gregate
Ġvis itor
Ġsing ers
Ġes c
ĠT u
ic ating
Ġvari ations
F acebook
ĠY e
Ġtri ps
eg u
Bi ography
Mill is
Ġline up
af ka
aw t
ĠCon cert
path s
Ġa uction
Ġin fect
es cape
ĠMount ains
Valid ate
ok ia
Ġsmart phone
ĠL ith
ĠStat istics
ĠLi u
Pop up
Ġmyst erious
H ouse
ai ro
cont ainers
Ġpath way
m el
Ġim pression
ĠOsc ar
Ġd ining
Ġanaly tics
et on
Ġaltern ate
Ġsk i
Ġstr ain
to Equal
Has Been
] ),
s hell
ĠIm perial
ĠDemocr at
æķ °
ĠGh ana
Ġpl asma
ĠTh an
M ad
ME SSAGE
ugg ed
Ġaccount ing
ĠInter view
ĠInitial ize
Ġhand les
ro at
Ġart work
Arr ays
Ġlegisl ative
ĠRet riev
Ġarch ae
L ead
Ġbuild s
Ġrac ism
Ġarrang ement
ĠP ra
em or
Ġm arch
path y
gener ation
ĠS pect
ins ula
Ġrel oc
Ã ĥ
ĠJer ry
ĠCost a
Vari ant
ĠR ic
ĠS ER
ĠSumm it
: %
int o
Ġ! !
ĠU SE
pro b
Ġsystem atic
ĠGre ater
cit ep
Ġs hed
ancell ationToken
- ">
ĠRE AD
iterr anean
Â ±
ĠB apt
****** /
R GB
ĠC emetery
Ġan ger
Ġwire less
ĠB ear
G re
m ine
it uted
op ic
Par cel
H ard
Ġdis ability
-------------------------------- ----------------
Ġcr ick
m c
M iddle
Des cribe
ĠForm at
ĠR aw
az ure
ĠWeek ly
ĠPer ry
H ook
ah l
ĠĠĠĠĠĠĠĠĠĠĠĠĠĠĠĠĠĠĠĠĠĠĠĠĠĠĠĠĠĠĠĠ ĠĠĠĠĠĠĠĠĠĠĠĠĠĠĠĠĠĠĠ
LO B
, $
Ġattr s
Ġcon vey
OB JECT
ĠAll ah
max cdn
: -
ĠCru z
L ove
R L
ION S
Ġret ained
ĠM ack
V EL
ĠCons umer
Ġarrang ements
Ġhel ic
ĠIran ian
ĠD oll
Ġd ying
Ġhad n
ĠWork ers
K ing
n io
Ġor th
W rap
ĠMaterial s
Ġad verse
Ġn ested
ĠW onder
AN N
Ġmer ch
ĠEx cell
ĠWith in
Ġt s
Fr ank
Ġshel ter
Y S
E LEMENT
o very
ham mad
Ġplace ment
Ac adem
ĠC atal
Java Script
y outube
Can vas
Ġnob ody
="@ +
Ġnom ination
ex tract
ĠE ld
Ġexist ed
ĠJer usalem
f ight
ĠC arm
ol ia
rol ogy
work er
ĠCol lect
roll ment
il ia
ĠCh ampion
F ix
it ter
Ap pe
ĠB eyond
Ġarr ays
nob r
Ģ Â
ĠL ex
ĠCre ated
ĠP ain
Ġbe am
ĠB asketball
---- ---
ent ries
cel and
Ġdro ve
En tries
Ġev olved
ĠÐ ¸
ĠAdd ed
ĠProt ocol
ĠJ O
Ġgrow s
S UP
ĠK on
Ġbelong ing
F ar
Ġmir ror
Ġcou ples
o ys
Ġlook up
w aukee
Ġre fr
pr ime
Ġn erv
Ġsl ave
ĠV ik
Ġtrad itions
if ice
C art
w ear
Ġox id
b ai
Ġrev ised
ĠCon sole
Conf irm
ĠL en
Ġaddress ing
r ates
Ġpick s
ĠVer ify
add er
ĠZ end
Ġwalk s
EN C
Ñ ħ
'] ))
ĠM ak
add y
vel ope
Sh arp
In ject
t one
ĠY am
Ġl ic
A ff
ĠCarl os
ĠK id
Us ed
Ġfor um
Ġout line
row Color
Ġsampl ing
ĠEd wards
ĠAssoci ate
Ġencounter ed
ĠĠĠĠĠĠĠĠĠĠĠĠĠĠĠĠĠĠĠĠĠĠĠĠĠĠĠĠĠĠĠĠ ĠĠĠĠĠĠĠĠ
Ġinvent ory
C ookie
Ġwound ed
Ġinvest ing
k appa
(" .
B orn
ĠCap itol
ĠG M
Ġadjust ed
Ġin duced
g ent
tr ait
Ġcan nab
ĠSh a
/ #
Ġass ass
ec ycle
u els
to LowerCase
ĠD evelop
ar an
Ġnam ely
ĠAz ure
Ġflex ibility
com fort
ĠTam il
im o
Ġbr ick
Ref lection
ĠOl iver
Ġphil osoph
Ex cel
B ucket
M ag
Ġd aughters
Me anwhile
Ġin ev
ĠV ery
sub set
Ġrock s
ĠCh art
Ġhe m
plement ed
cipl inary
iz a
> {
Ġt el
Ġinj ection
ig ion
Az ure
ĠTH IS
f loor
Ġwor ried
Ġclass room
Ġprec ise
D ry
Ap ple
Ġstri kes
Ġnegot iations
ĠVi enna
ap ps
I r
Ġequ als
c as
Ġth rew
Ġown s
cs v
Sur face
ĠG ay
all ing
ĠâĢ Ŀ
Ġhand ed
Ġinflu ential
ul se
An chor
Ġlegend ary
ĠM ol
s ing
ĠGover n
ĠTh r
Ġback ed
Ġphenomen on
agon ist
Rich ard
us ive
ĠGr an
ĠKar l
s ized
Th omas
cl i
ĠHig her
HasBeen Set
ĠQu ant
G ateway
ch rome
æ Ĺ
f und
Ġenc ryption
ĠForm er
ĠEn try
ĠA w
ers hip
ĠPer iod
look up
ann es
Event Args
ĠHarr ison
ĠS SL
G it
nd s
Warn ings
ĠCom plete
Ġac res
cer pt
R ock
w ire
ebr aska
B ank
T or
Ġviol ation
Ġtrust ed
akes pe
m ust
sp ired
as ia
Ġs ends
M el
quest ion
V ec
Ġoccas ions
O s
ĠG ive
Ġb ases
Ġext ending
ĠB ud
ĠAt tribute
Ġpred iction
Ġin fr
Al ignment
ĠBroad cast
ĠZ ero
D er
Ġestablish ing
Ġadv ised
r and
Graph ics
Ġnot ion
ĠWel sh
âĶ Ģ
Ġs its
d ependencies
TE S
Ġn ights
Ġch icken
Ġspec im
2 10
Â ĢÂ
Ġscen arios
Ġang ry
ub er
act ers
\ ":
ĠF ixed
ĠPh ase
x sd
Beh av
ĠF if
Ġtrans it
ites pace
Ġcompet itors
ĠV enezuel
ĠW a
Ġr hs
h om
++ ++
ĠV eh
Ġtrigger ed
Str ucture
Ġpred ictions
Ġdu o
ours es
as ures
ĠCons ervative
w oman
Ġfast est
Ġsh oes
ĠKe ith
Ġsynchron ized
May be
> ../
AR GET
Ġbe ating
A W
dir name
S ig
am med
Ġjud gment
vert ex
Ġres id
ĠSh ang
ĠAut om
Ġcontrovers y
Ch ris
ep per
Ġbar rel
C AR
Mod al
y our
IN DEX
Ġap pl
ish a
ĠMP s
S rc
ĠTes la
Ġh ab
Ġl obby
Ġthere by
17 5
ĠArchitect ure
' =>
Ġcal m
S heet
Ġrest oration
Ġtheore tical
ĠVin cent
Ġw is
l ists
h op
z yn
ĠL arry
ET H
ĠSet tings
Ġe leg
iz ar
Ġl in
ĠÐ ´
Re ceive
Dest ination
ĠUn iverse
Ġattract ed
orient ed
Ġmount ed
ĠEnter prise
ĠGrow th
script s
ĠC ategory
AB ILITY
Is rael
ĠC ache
ac ial
ĠCom merce
S ound
Ġt unnel
WR ITE
Ġansw ered
Ġelev ated
al ink
Ġnot ably
Ġscr atch
Check ed
Ġhard ly
Ġcons olid
Ġinflu ences
t z
gr pc
Ġbur den
Ġsh it
H AL
ĠN om
Ġwind s
ent ine
sec ution
ac ies
Ġphys ician
ĠB achelor
Ġbro ader
ore st
Ġam pl
Ġver ification
Ġachiev ement
ĠCr iminal
ĠS oph
RO W
in ely
Ġloc als
P ref
Ġmand atory
ĠGl ass
ĠĠĠĠ čĊ
ge ometry
ac ion
}} $
Ġstake holders
Ġwarm ing
ĠT ournament
ex isting
S igma
default s
Ġac oustic
Ġtrib ute
b ird
pre ced
Ġb eneath
Ġthrow ing
Second s
% ),
ospher ic
Ġf ires
ĠF ont
Ġpart ly
Ġmem orial
d ump
ĠT erry
ĠV ert
ĠString Builder
ĠS ent
s amples
Ġconflict s
au er
Ġsus pected
For ward
int age
ĠTy ler
Mer ge
P aint
Trans fer
ĠS ymbol
Ġn est
Ġprogram mes
b ach
f uture
1 19
ty p
Ġpre view
Ġqual ify
od ium
ĠSh aw
Ġprotocol s
ĠC ensus
Ġb ab
Ġnation wide
ĠD eg
Ð¸ ÑĤ
Load ed
ĠAl t
in ced
Ġdifferent ly
Ġpen al
Ġfriend ship
Ġnom ine
Ġd ense
sl ot
math frak
Ġsound track
s ervlet
: &
Ġaccept able
separ ator
ley ball
. (
ĠS old
H uman
ster dam
ĠMov ies
Ġassoci ations
et c
ch t
Sche me
ĠInf antry
Ġfasc inating
ol ished
r age
ĠB ass
ĠR ivers
ĠCON DITION
P adding
Ġimpact ed
ĠWat son
Ġbel oved
Ġd ot
ĠF an
O W
Text View
="# ">
RE Q
Ġcompl aints
Ġfarm ing
Ġsh ield
m ime
Ġg am
ass ion
19 05
Ġtw in
B road
Ġhum or
Ġsil ence
ĠEth iop
urch ase
Al bum
ĠSquad ron
am ic
Ġdifficult ies
Ġr ated
cept ors
Ġrender ing
L ondon
Ġall ies
Ġoccup ation
text it
Ã¶ r
b an
Ġaccept ance
Ġinv oked
block s
im mer
ĠFil ter
Ġli ability
in herited
Custom er
ĠPalest inian
e enth
Ã© n
ĠS ometimes
ĠCons ervation
ĠPlay ers
ew ay
ern ess
Oper and
umer ic
!! !
in fl
Ġattrib uted
ĠW R
o ons
om al
t ic
ĠComm ander
av it
è ¡
Ġc ov
ĠT on
Ġprem iere
Comp are
Ġdec ides
um ing
F ast
ĠCar r
ĠÐ º
Ġoverse as
Ġim per
ah oo
Ġgr ace
FFFF FF
B ooks
Ġall ocation
Ġjournal ism
J ournal
sc ience
sm art
Ġpros pect
ĠBrig ade
s ent
akespe are
ĠSE C
Ġkne e
it us
ĠWar ner
Ġsh apes
Ġphys ically
ĠComp anies
ĠĠĠĠĠĠĠĠĠĠĠĠĠĠĠĠĠĠĠĠĠĠĠĠĠĠĠĠĠĠĠĠ ĠĠĠĠĠĠĠĠĠ
ĠC atalog
Ġeconom ics
orne ys
C AP
c py
p ine
he ets
ĠF itz
Ġad m
Ġ ì
ĠR oot
Ġanticip ated
b ial
che str
Ġnewsp apers
12 6
ĠAcadem ic
ĠP ent
B lob
Ġball ot
} "/>
ĠSo on
ĠAr c
R ail
ast ery
Ġexperi encing
Dan iel
Ġem ission
ett ers
BU ILD
s ources
P ipeline
ĠEm ily
ind a
Ġt ension
Ġhe aling
Ġt ear
umb ai
* >(
L INK
ĠK irk
p k
Ġcon spiracy
k ar
ĠB ot
Ġexp ense
Ġindepend ently
ĠCh arg
pre view
Capt ure
Ġto String
Ġpres erved
ĠC ob
R oll
ograph ics
Ġf t
Ġr amp
Ġaffect ing
Ġsur faces
ĠN urs
the ad
un i
Ġg ast
Ġas h
Ġport al
igh bor
en umer
Ġf ru
Ġy ard
Ġprefer ences
o ft
Ġvar ied
ari ans
Ġdel ivers
Dis abled
P icker
sur face
Complet ed
ĠI o
app ings
Ġan onymous
Ġre semb
Ð¾ ÑĢ
Ġeditor ial
N AS
ĠFreder ick
Ġc c
Ġdr ain
19 09
STR UCT
ĠZ e
? </
Ġprison ers
Ġstep ped
g ie
ĠL ate
ĠK ill
synt ax
Bet ween
ĠGl as
Ġper ceived
U UID
Ġd iamond
Olymp ic
up per
Ġel abor
Ġpro secut
Ġcross ed
14 5
stat ement
ĠW alt
Ġass ists
Ġscript s
Ġc argo
ĠFe atures
Ġpra ised
ĠDan ish
ĠP D
ential ly
Ġtra uma
; %
Ġbur st
ĠP anel
ĠW ould
ĠBatt alion
re p
cond itions
FT WARE
ĠTh ink
Ġmembr ane
Ġpos it
Dec oder
Ġsequ el
Ġattend ance
Ġcomment ary
ĠComp etition
ĠIn fo
Ġt ile
Ġcomment ed
ĠFI FA
Ġf ate
ĠLet ter
im ir
Ġf iring
Ġcontain ers
ĠB A
Ġconf used
Ġac ids
B log
Complet ion
16 9
w heel
Ġa ug
Ġc um
ĠS alt
Ġ& =
Fr ont
ĠA round
ld ots
Ġimm igrants
k le
ipher al
ĠH at
Ġch ap
ĠK le
Ġphot ographer
her o
aaaa aaaa
t uple
Ġ' ')
ag i
Ġconv inced
ĠT yp
Ġal arm
33 3
Ġhold er
Ge ography
Ã ½
Ġpre dom
ĠL ed
Ġinvestig ations
anc ers
Ġwarn ings
V R
h d
Ġenc ode
T OP
Ġal i
Ġman ages
ĠEx amples
ol utions
ĠGon z
Ġmix ing
g em
reg istry
ĠCont ainer
ĠRest aur
ç »
ĠS occer
Ġres ume
r x
j ud
act iv
Ġearth qu
hel pers
ĠC PU
ĠUg anda
Ġsumm ar
zer bai
19 07
ast ore
ĠPark s
ĠGuard ian
Ġhe x
' },
Writ ten
Ġf ixture
ock ets
post s
Pr inc
m os
Ġir re
Ġgr ateful
p ublished
mark er
um ble
Ġconv icted
Ġlo ose
Ġgre y
ull ivan
H idden
ĠSh ar
ĠHung ary
om o
ĠS eb
Ġdev oted
Ġc ss
Ġdat etime
b ounds
ĠL ion
ĠH alf
: @
h base
uff icient
Ġincre ment
Ġstead y
Ġdi agram
ĠUs ers
Ġadvoc ate
ĠCurrent ly
sp ark
Ġfoss il
p ipeline
Ġr itual
Ġmagn itude
Ġadvant ages
Ġjurisd iction
D eb
M esh
br anch
x e
h ind
é Ģ
le af
Ġlaun ches
we bs
Ġisol ation
ĠNash ville
Ġdraw s
ĠRem arks
ĠS yntax
ĠM enu
ĠH udson
Up per
Ġdom ains
Ġp ad
ĠR ico
sl f
Ġ( <
ĠDef ence
Ġ" +
Ġd ancing
ĠPre vention
ĠH erm
sc ene
ĠCam eron
Ġrid ic
Ġcollect ing
Back end
ĠScholar ship
Ġt ent
ir s
ĠB arr
ĠCon n
ĠA bs
op acity
} :
Ġc ele
Direct or
u ity
Ġnurs ing
Ġmod ification
Quest ion
ĠCom b
Ġdon ated
Ġrail road
ĠS aints
ĠE mber
p n
Ġl os
Ġspons ored
ĠChem ical
st mt
Ġsh a
ĠNorm an
art icles
Ġbreak fast
get s
Ġe ager
d al
c ence
cript ors
umbn ail
Ġok ay
) *
Block s
Ġhot els
A UTH
R oom
per mission
ĠFl ight
Ġemb od
Ġp ython
Ġinv ari
bo ys
il ib
ĠDub ai
d eveloper
Ġgr an
qu o
text area
Ġcomp ly
olec ular
um per
ĠSw ift
Ġb lo
ĠN HL
ac iÃ³n
Ġhon our
Ġorig ins
ĠC ub
ĠAl ong
M ike
ĠF ocus
Ġind ent
Cred entials
Ġredu ces
ĠT un
d og
Ġwith d
An aly
ĠM end
V T
ĠW riter
Stat istics
mod ifier
Ġh iring
Separ ator
Â «
Ġhom eless
Ġclean ing
ĠScient ific
b rit
ĠMont ana
W ire
ĠTo o
render er
Ġsur ge
M ary
th lete
ĠProgram s
ĠC incinnati
19 06
ĠM ans
Constr aints
ĠB ound
(" <
ĠW ikipedia
ĠInd eed
with out
ĠCONDITION S
R outer
L and
ow ing
Ø§ Ø
m oment
ul o
Ġhol es
Vis itor
sl ider
Ġland ed
Ġcirc ular
con duct
ĠL is
Stack Trace
ĠA irlines
ĠDis covery
Ġdeprec ated
Ġ ĉ
ĠNe il
ĠCh oice
x l
---- -
comp ass
36 5
th an
nos cript
Ġspe eds
99 9
m art
ĠAl fred
ĠEl se
ĠSur v
ĠIniti ative
Ġcare ers
Compar ison
Ġabs ent
c ott
I ENT
ĠN J
Ġin coming
UT O
Ġr outer
ĠCon trib
Ġposs ibilities
itt ers
ĠB OTTOM
J on
RE L
Tr ump
( []
ĠK yle
c ale
Ġpost ing
ĠCl ay
Ġadequ ate
att en
sh aped
12 9
Ġdesign ers
Ġdef ending
Ġfl our
ĠC ad
Ġfl avor
Ġmist akes
Ġs isters
op l
16 5
Ã© r
M ir
Ð ±
ĠMon itor
ud o
Ġcreat ivity
Ġg ray
c ill
11 11
qu ick
Ġwe ights
Ġstrugg les
Ġpassion ate
Ġsecre ts
Ġspecial ized
An notations
ĠTre k
ĠM aking
Ä Ł
External Task
Ġpract ition
Ġtele phone
sp in
ort ion
Ġp c
ĠP oss
ac a
Ġinter mediate
Ġannoun ces
ĠB ak
ĠAm endment
Ġpre lim
Ġre lying
olog ically
ĠTreat ment
Def ined
T witter
c art
Ġt une
Ġle ase
ĠPlan et
Ġcl ause
Ġmag azines
Ġp ip
Ġpoint ing
osp el
F ill
Ġcour age
3 30
Ġsust ained
Ġfund ra
Ġexc it
Ġeg g
Key word
In clude
Ġelim inate
Ù İ
ĠS ongs
ĠY ellow
Ġcam ps
âĢ¦ âĢ¦
st roke
Ġst om
Ġto ll
Ġdiv isions
ĠFl ore
Ġbond s
ic ia
Ġlov ely
ix on
ĠE le
St yles
i ating
Ġst abil
ĠF ashion
p ixel
ĠUn like
Ġproduct ivity
13 2
Data Source
Ġvol can
Ã§ Ã£o
M ilitary
me an
Ġencour aging
ĠIn side
cri bers
}) $
Ġoblig ations
ĠM ine
Ex ec
Ġ rib
100 00
ra f
ExternalTask Pojo
ĠCirc uit
ĠGL int
Im ages
Ġperform s
N ING
ĠNY C
ĠB eth
Ġcall er
Ġed itors
> ()</
Ġiniti ated
L ab
olog ic
F RAME
ĠHor se
ĠRich mond
ĠBill board
Ġprec isely
ĠTr uth
il ateral
ĠMe et
ĠPhys ical
ĠB rowser
bre v
s it
Ġre nown
ott a
igr ant
ymph ony
d eb
Ġinstrument al
ĠN ames
ret val
ĠLeg end
Ġcl usters
Rel ative
Ġdeterm ining
Ġc p
ĠN ATO
Ġbott le
ag ar
s creens
]( #
ĠP le
ĠMet al
ĠBen ef
ĠEconom y
if rame
Ġch ron
Ġw age
ĠG R
Ġw ings
Ġne arest
ib e
ach ers
Ġproceed ings
Vis ibility
Listen ers
u um
ĠW ing
ĠG A
Ġspec ifies
Ġform ally
Ġc ry
ĠV o
Ġdef in
Ġs ne
Rec ords
Ġenorm ous
ĠPos ition
D igital
Ġfor cing
Ġoutput s
Ġr ape
Ġoptim ization
Ġmedal ists
Ġcollabor ative
cam era
or ia
Ġiter ation
ir ical
^^ ^^
Ġexpl ores
Rep resent
ĠS id
pl ain
ia o
B ibliography
g p
Ġappro ached
W D
ch ing
ĠCont emporary
R oman
St d
Ġdist ribute
ĠPat tern
Ch at
hash Code
ĠUn c
ĠFil ms
Ġexecut ives
×Ļ ×
==== =
G uid
ĠB L
Ġbar riers
Work s
ĠBro ther
ĠTh under
ĠRem ember
? (
ur st
ĠR NA
Ġpr ide
Ġcoal ition
A h
L atest
ĠEgypt ian
Ġj ournals
ĠCh anges
ERT Y
Ġher oes
... "
N F
Ġmut ual
L uc
ĠResp ons
as ive
Inst ances
Ke ep
ĠMe chan
re z
ens en
Ġth under
F ake
size of
ĠBAS IS
Ġcert ification
Ġdo zens
Ġrad ar
Ġtechn ological
ĠJ obs
member NameLink
g ly
ĠNew ton
Ġremain der
Ġw rest
Ġsure ly
Ġther ap
ĠNE W
habilit ation
Ġsc ales
Call ed
ad apter
18 00
U t
R IGHT
m usic
ĠF ly
ĠAct ivity
ĠEl li
Ġcru ise
H am
ĠW ire
ol er
ĠH app
l ies
ich i
Ġdead ly
iz ational
om ial
Ġprof its
Ġautom ated
ĠRog ers
ĉĉ čĊ
Ġz ones
. ');
f ive
Ġv o
iv ial
NG TH
ĠColomb ia
ĠBut ler
on line
å ľ
i ator
ĠQu ick
Ġconven ience
fav icon
CL U
ĠVal ues
ĠS r
ĠC u
ÑĢ Ðµ
en za
k n
ĠN athan
Ġp reference
FUN CTION
H ide
NotFound Exception
ĠNaz i
Ġs i
ot imes
Ġless on
Ġal umin
LE N
ort on
Ġrev ision
ĠG rey
Ġnot ing
des criptor
ĠCommun ist
Ġgent le
Com b
ĠCom mercial
Ġinternational ly
C ert
pe ated
first row
Ġc ort
ew ise
Error Code
Ġveter ans
14 7
Ġre plied
Foot ball
Ġaud it
Per cent
ĠR ugby
Ġpr icing
Ġpred ecess
ĠCare er
Ġ// -->
Ġres igned
... ]
Ġimpr ison
C op
m un
ĠK in
ÃŃ n
Ġc url
il o
ĠR ES
ĠAss essment
H ol
h im
ĠCh and
ĠFl ag
Ġcur riculum
Ġsens ors
Î ³
PA SS
mult iple
Ġl ymph
re verse
19 04
comp iled
Ġthe at
ĠMil an
st own
Ġint elligent
non atomic
ĠL ov
Ġtri ple
Ġund ers
op ol
ess a
ĠIn it
ĠG C
cl ine
ĠProgram me
ĠO THER
Ġt ens
Ġqu oted
ĠT odd
]] ></
Ġcro ps
Ġin comp
F ort
Ġwork shops
ĠMed iterranean
ĠMet ropolitan
U int
Ġp ig
ĠC ircle
Un ivers
Ġmed ieval
Ġvary ing
Ġconf usion
l iteral
ĠB order
Behav ior
g om
aged y
w right
ĠR ural
ĠSt ein
18 80
ĠOver all
<? >
ĠForm ula
N ested
ach i
Equal To
ĠO m
ĠF u
add EventListener
Ex tract
Ġdistingu ished
Ġact ed
ĠV R
Gener ate
ĠM ode
Ġexha ust
ĠH em
HO ST
/ '
ĠR ah
In jection
Ġfin ancing
Ġpers u
m icrosoft
De ployment
ĠV lad
ĠEm ma
ĠH ence
ul ent
over lay
Att empt
2 25
In vest
ĠMan ufact
Sub mit
end region
ne apolis
RE AM
Ġim posed
Ġ/ ><
care t
Ġcomp aring
istic ated
ĠI MP
ig gers
ĠDist ribution
He ap
Ġreport ers
Ġf ighter
Ġprevent ing
Ġqual ifying
ĠK umar
Ġper ception
qu et
ĠEx pect
ĠStand ards
Ġh anging
ĠF ramework
ĠAct or
F IN
15 5
ĠT ypes
Ġ( ),
Ġp orn
Ġdon ations
Ġsche mes
å Ľ
Sl ice
Ref resh
P s
ĠL ions
Ġre try
Ġsc alar
R etry
ĠF ace
E O
ed e
ĠIn cre
ĠC ert
ĠRoman ia
ĠC amb
L ater
aj a
Ġnerv ous
V ill
Ġsc iences
bold symbol
or p
gener ic
De ep
gu ard
Ġat om
ĠV ict
Ġcle ared
ha us
Ġfeed ing
ĠR idge
Ġ' $
">& #
Ġanal og
Ind icator
s an
Ġra ises
W C
ĠBr ain
Ġco at
Request s
Ġlett ing
Ġattack ing
Ġoverwhel ming
config ure
Ġdiagn osed
2 60
as se
oth s
Ġvacc inated
' "
Ġimport ed
ĠG ene
Ġut ter
fol k
ith metic
Ġo ct
Ġun clear
Ġ[ {
MA IN
qu ant
ĠI celand
ĠM T
Ġmodel ing
ĠR C
U kr
t ake
lo pe
ĠPart icip
Ġaccompl ished
ĠCr icket
oot ing
flu id
ĠAdvent ure
ĠB ra
om at
ĠChem istry
Ġex cluded
ĠD od
Ġd oses
Ġpl ug
omot ive
Ġpro pri
ĠV AR
Ġproject ed
ĠN A
ah an
ent e
amb ling
Ġse aled
Ġmag ical
Ġcop per
FLA GS
P i
Ġmarg inal
Ġbar rier
go og
Thread ing
Ġc ere
per m
iv ot
Ġev ac
Ġeth ical
r ain
Ġsurg ical
Ġ"- //
k ed
Ġv ig
s izing
as ide
ER Y
Sm art
g al
Pop ulated
ĠMor oc
Ġsumm it
Ġpe oples
Reg ular
Ġtempor arily
ĠAn im
ĠHealth care
ĠV e
ĠNich olas
Ġle an
ĠT ell
Ġdiscuss ing
Th ose
Ġlaunch ing
Ġche ese
Ġplay off
Ġdemocr atic
Ġachiev ing
Ġimpress ed
Ġ ../
Ġbo ats
ĠMu hammad
Ġsuccess or
Ġvol unt
un ger
Ġneigh bors
ick y
F re
Ġh orn
preced ented
Ġf ed
Ġgl uc
S uch
ĠCh i
Ġere ct
ĠBat man
M a
Ġsu ck
Ġdismiss ed
ĠChel sea
UT C
dest ination
ĠGrad uate
Ġprov incial
Ġcompar able
Ġas ym
lo ating
place holder
Ġtrans parency
ĠW ant
ph oto
ĠD ATA
= </
Ġwork flow
Ñ Ī
ĠP ref
ĠStr uct
ĠKash mir
Ġv i
Ġsepar ately
Ġpro jection
19 01
ĠT IM
---- --
Ġarr ives
ĠPr adesh
h int
ĠJeff erson
Ġcy cles
x it
ĠC B
Ġpresent ing
ent i
Ġvolt age
Ġcontr ad
Ġsub div
Ġg rap
az i
Ġimportant ly
pe er
urren cies
oun ces
15 00
Ġequ ations
ĠH indu
Author ization
13 6
Î º
B LOCK
ĠAl ert
ĠLiber ty
end um
Ġreal m
ĠFa ith
Japan ese
Ġconduct ing
T IM
reg ex
ot or
Ġ/ ></
Ġe ighth
ref lect
Ġrespons ibilities
Ġt ang
Car thy
ĠAc cept
ex clude
ĠC atherine
pl iers
Ġenjoy ing
Ġexpect s
T oggle
ĠN ancy
Ġmed ic
Ġsimilar ly
conf irm
' ):
ĠESP N
Ġc attle
Ġsynt hesis
umb ent
Pay load
rient ation
v or
Ġcont rolling
Ġfiction al
am ation
EE E
c ue
Ġret reat
ĠÐ ¾
> -
ĠTig ers
du ctions
ĠAthlet ic
Ã ¦
Ġbi ology
Ġsan ctions
ipp et
ĠSpe aker
un ts
Back up
Ġrecip ients
ert on
ambig uation
op ing
ĠGener ation
loc als
Ġs v
ĠN ebraska
ĠW ag
ĠOr lando
Ġpartnership s
Ġt u
ĠD rama
Th an
ĠW ol
Ġheart s
Ġcor rupt
ĠR angers
Ġ. /
ynchron ous
inter est
Ġgr ain
b x
subs cription
Ġpl acing
Ġpro be
Ġtour ist
//////////////////////////////// ////////////////////////////////
ĠW A
Ġfil ing
Ġdig est
G iven
b usiness
window s
ĠAssoci ated
Ġmob ility
Ġadminister ed
ĠAdvis ory
IT ER
V IS
* .
Ġful fill
Ġinvestig ating
Ġmult ip
pre vent
Ã¨ re
al is
ĠP ok
Part ial
Ġm a
ĠM ix
em ploy
ĠCh at
rel ations
ack er
er gy
ocr atic
i ological
Ġt ired
ĠL ands
Ġcomp elling
Ġoffer ings
Ġsuggest ions
Ġprior ities
ĠFle et
Ġdis rupt
G od
av ier
Ġens ures
Ġrefuge es
Ġdef ining
Ġgr ave
work ing
She ll
Ġassum ption
ĠS ays
ĠM ob
bar rass
sequ ently
Un its
pack et
Ġconnect ivity
Ġreal istic
Link s
Ġcritic ized
ĠId aho
ĠWe ather
User name
m x
se ek
L ess
Ġburn ed
ĠV I
ĠNO TE
B ob
C redit
com merce
ĠS L
S cheduler
Ġc ave
Ġpar as
G overnment
Ġres erves
Ġcannab is
A IN
\ [
30 1
13 3
dis k
T urn
um i
K G
ĠStan ford
ĠFr ances
ĠSche dule
ĠD A
ĠTrans action
ĠP AR
ĠF eed
Ġassert ion
Conn ector
19 03
Ġ# #
art z
Ġprogress ion
ibl ings
$ _
sec ure
ancell or
Ġstop ping
sc apes
Ġremember ed
Ġs ink
Ġst reak
Ġw ishes
ĠS ymfony
Ġqu it
Ġblock ing
H en
k ers
Se ason
Ġcontact s
c z
et ta
trans fer
Ġf ool
ro d
N ever
um bs
ĠNot ice
Ġpr ayer
Ġsatisf y
r ans
Ġqu otes
ĠSh akespeare
------------ -
Tele vision
ĠPro s
Ġexpect ing
P oll
Sh ift
="# "
udd y
Ġ( `
ĠEvery one
] *
Ġconst ants
ĠC le
Pro duction
AME TER
Ġbel t
Ġtravel ed
Ġear ning
ĠQuest ion
g iving
Ġs ig
Ġmon ument
ĠK itt
Ġf its
enc ia
um at
ĠOp port
Ġforg otten
P ages
MS G
Ġnon profit
ĠMar io
t ables
ĠIss ues
Ġescap ed
Ġg auge
Ġcur ious
ĠR PC
I AN
ĠS or
Ġreg ression
F ROM
ĠJess ica
ĠAm sterdam
Con version
LO AT
c atalog
Ġpl ates
Ġme als
d evelop
ĠGr ade
D MA
J ose
dat aset
Ġg ifts
Ġrep o
Ġresp iratory
Ġdifferent ial
Ġm aj
ĠO bl
Ġnew est
Ġup set
Ġbenef icial
E mb
Ġelder ly
O gre
Ġplay offs
f actor
Comp any
Ġw are
gle w
Ġdro ps
os hi
27 0
ĠFl ash
Off ice
Char les
Ġgenu ine
ĠRem ote
ĠE L
ĠYO U
ĠS ter
Ġc ig
Ġret ro
ĠK aren
Ġinvest ed
Ġaff air
estab lished
Ġadv ers
UP DATE
Contin ue
Ġd w
el ia
ĠMed ic
ĠO w
ext ype
lang le
Ġarchitect ural
orpor ated
Ġrenew able
Ġw ars
ĠSa fe
Ġ(! (
Sm ith
Ġp ink
Str ip
ĠUp dates
Ġdem o
Ġelim inated
Ġtruck s
Ġgr pc
Ġse am
ĠCons erv
, </
ĠCh an
S IGN
ĠD M
St e
ĠSand ers
Ġrenown ed
qu in
Ġacknow ledge
m any
File System
date picker
se ctions
Work ing
Ġinter ventions
, ...
Ġpers istent
am o
ĠD h
itte es
second s
Ġspec ification
Ġs our
Ġwis dom
Ġ( ,
ĠCD C
Ġch lor
." ;
ĠS hen
Ġfun eral
Ġal ike
Ġshut down
Ġste ep
Ġnorth west
st ub
se en
** :
ĠMil waukee
Ġbul let
Ġob server
S B
ff ic
ose x
St ates
ĠPro test
ert y
ĠWild life
off icial
Ġhol idays
ĠJ ar
ĠâĢ º
Ġdrink s
M icro
av atar
ĠH P
Ġsurre nder
[ <
Ġob taining
bad ge
ĠRe yn
ĠTest ing
un its
Dim ension
Ġelement ary
Mar shall
ĠLa unch
P ac
power ed
Ġdemand ing
s z
Ġconsequ ence
std err
Ġtrans cript
ĠInter face
s With
API ENTRY
Perm issions
ĠGlas gow
Ġdes ktop
19 02
am bers
ĠO thers
Ġgener ates
Ġcent res
Ġsh ame
ĠÃ ī
TEXT URE
pre ter
TE GER
Ġterrit ories
Ġo c
ĠG em
Ġmolec ules
appro x
Ġcell ular
o ard
ĠL an
ind ices
Ġr s
ĠCh a
ĠPier re
Ġn ep
ac ious
at ype
xx xx
ä¸ Ń
Ġacknowled ged
E conom
Ġfl ux
ĠBer keley
s ender
en ium
en berg
part ition
B oot
AC CE
decl are
ĠAn alytics
S ar
40 1
Ġmanufact ured
Ġbl end
b idden
im ag
ĠLe ad
ĠAt omic
ph abet
Ġsh aped
N ick
h p
Ġterror ist
ĠPet e
ĠQ String
s leep
Ġm esh
Ġmeas uring
PREF IX
ĠC uba
Dis patcher
R ank
ĠK el
ĠC urt
Ġman ually
Ġbi om
He ading
Ġair line
p riority
dem o
Ph ase
s ame
ĠIP v
Ġrecommend ation
ins ic
ĠE ug
ri um
ra pe
Ġeff icacy
E lem
g ies
om eters
ond e
Ġind oor
Ġsem antic
ĠCON FIG
Ġprelim inary
) +
ĠMichel le
ĠChristian ity
ĠK i
Ġchalleng ed
Ġindic ator
Ġwealth y
Ġf ung
Ġbro ker
Ġcorrespond s
plic ity
Ġconsult ation
ĠF ail
Ġm ere
Sports people
">( </
ĠN I
ĠMin i
avor ite
ol ate
Ġsubst itute
Ġhop ed
Ġdir ty
app ers
Ġt ube
ced ure
Ġsynt hetic
AT T
Ġrele asing
H ER
ĠStr ong
an che
EN S
Ġb ay
Ġelect oral
Dat aset
ĠWood s
ĠW es
Ġsc al
S und
Found ation
g c
P ing
hol m
Ġsurn ame
Ġe a
ĠR av
ess ing
custom er
Ġmurder ed
b ars
ĠB our
input s
Ġconst itution
Ġdist inction
ĠHel en
ĠD rop
Pre p
ĠSO FTWARE
) |
ĠJ ama
ĠLie utenant
Ġtra its
ĠSt ef
ĠPhill ips
Ġgame play
Ġsp y
pay ment
t bl
st o
Ġhand ful
Ġw orn
s napshot
ĠE ff
Ġap olog
Ġle ather
Th reshold
La unch
V ote
Ġdistinct ive
> ');
ĠD aw
ĠTik Tok
ĠB ath
ĠCl aim
ber y
Ġhypot hesis
ĠE ve
C y
ĠBeng al
DI RECT
T ick
ĠCh ang
mb ox
Ġconj unction
b read
Ġrefer enced
ass et
bit coin
Ġen rolled
Ġsett le
ĠSu ite
ĠInt o
Ġin finite
ro c
Ġu pt
Ġx si
ĠD ol
Ġadv ances
Ġm anga
Not able
Ġtour ists
miss ing
ĠM ong
remove Class
{ },
Fil ename
ĠTrans itional
U Int
m achine
ĠL loyd
h all
All owed
Ġsc ar
Ġcon ce
ĠCall ed
Ġbank rupt
Ġspect acular
V S
Ġfurn iture
Ġexpl ored
ĠM ann
m ans
e ur
Ġb reat
Part s
Art ifact
Ñ İ
ĠAust rian
Ġke en
ĠM es
Ġlegit imate
al ter
any on
Ġr iders
t elling
Ġdirect ive
Ġo l
00 5
ĠRe ed
E U
prec ision
et ric
Ġsome body
ah u
Ġlog s
ĠCo hen
tele phony
ĠA CT
Ġcomp atibility
ĠRail road
Ġf illing
ph is
Un able
ĠJer emy
Ġconscious ness
ri x
Ġout s
agon al
Ġprior it
US D
Ġmin eral
Cent ral
Ġtrem end
] <
ul atory
ere k
CON ST
Ġm eg
p her
Ġmon ster
d ro
Ġpick ing
Ġor bit
Ġinsert ed
ĠG uest
ĠPart ner
Ġcou pled
ĠÎ ±
Ġc yl
ĠRe quire
ĠGu inea
Pro c
ĠCar bon
ĉĉ Ġ
Ġr m
ĠCO MM
std lib
ĠBapt ist
Ġimag ination
Ġentert aining
Dist ribution
g irl
Ġsm oking
n ut
20 3
Ġgr avity
Ġ Ø§ÙĦ
bor o
Qu ick
MA KE
14 6
go al
AS C
cent ering
ĠP icture
unt ed
F at
consc ious
ĠF iles
Ġinter faces
Ġgu ided
Ġsup press
Ġsub set
ĠPsych ology
r ant
Ang le
M ASK
Ġf led
Ġport ions
final s
Ġcous in
Ġl azy
Ġworld s
20 4
Ġtrad ed
Ġfear s
ĠCris is
Ġent ers
sub str
J oe
ĠR osen
vert ed
Ġfar ms
Ġc inem
13 4
Ġbuy ers
cret ion
ĠSh ip
TO OL
focus ed
Al ign
ĠE M
ro b
effect ive
r ise
ĠQ t
Ġaccept ing
Ġoccur ring
r ink
fe e
S ex
m ag
ĠJ ake
Ġcom plications
ĠTr ain
ĠAb raham
ĠRepresent ative
Ġcreat ures
Ġembr ace
Ġpat ri
F all
ke es
mac ro
mar ine
ĠK os
Ġdiv orce
Str ings
lock ed
T ITLE
F und
Ġf ingers
Ġtr ademark
ĠF at
Ġdon ation
w m
ENT S
Ġp ocket
Ġend orse
Ġinitial ized
Ġrecogn ised
Ġd jango
ĠS chema
Aut om
f re
Ġal igned
get Property
com ed
ĠW allet
ĠHar per
ion ic
ĠC off
B er
ĠCat hedral
Ġyield s
Ġvac ation
act ors
Can ada
m ile
the mes
ĠST AT
ĠC HECK
econom ic
ĠCal endar
Ġsub tle
Christ ian
Ġafter wards
Ġsent enced
ĠHar vey
ĠInd ividual
Fr iday
Ġmark ers
ap or
Ġdiscipl ine
LE VEL
J ew
Ġaltern atives
ĉĉĉĉĉ Ċ
Ġcab in
r v
L ittle
Ġg ly
ĠJul ian
order ed
> /
is se
ĠTr igger
am y
ĠW restling
Ġare na
Ġsever ity
Ġint im
product s
Ġmand ate
c ov
ĠWell s
get Key
N d
ĠL ives
Ġep it
Tr ade
ĠFl ow
sh ots
13 8
ĠParam eter
brit ies
Ġsc andal
for um
c up
er ie
Ġl oving
Ġal liance
ĠCorpor ate
Ġsuff ix
um ph
ong ue
14 3
R atio
W T
Ġj ack
Ġatt achment
h n
Ġt ears
Ġex clude
Ġar row
Ġweak ness
Ġstrugg led
ĠB omb
Ġroll ed
eng u
15 2
Ġdes k
Ġun ions
A CTION
Ġc ats
ion ed
ĠM umbai
20 8
Ġconst itutional
Ġpers pectives
ma jor
Ġb ags
00 2
Ġcelebr ating
ĠIn j
Ġathlet ic
In c
Ġad apter
DO WN
c v
Ġthr iller
Ġtax p
ĠD ennis
Ġw restling
Ġj oke
Ġpreval ence
ĠCh ase
Ġs ulf
Ġcalc ulation
ĠAlex and
ĠC elt
ĠT ib
Ð¾Ð ´
C atalog
N BC
ĠG len
ĠQ atar
Ġrhyth m
Ġr ush
FO RE
Ġpack aging
Ġprof ound
ĠPar ad
ĠDocument ation
R M
Ġ-- -
f ar
ĠSo ft
or acle
( @"
ethe less
Ġc ad
Ġcred ited
Ġp ole
uc r
CA SE
W ild
Ġresearch er
Ġaccommod ate
y arn
m ons
in ja
ĠLegisl ative
o ct
op edia
DE LETE
Build ing
DE P
Ġgrad ient
ĠR ams
INST ANCE
ĠNov a
Add ed
ĠSte am
M ur
C a
Cl ub
H ex
- $
D ou
el o
ish ops
Ġm akers
Ġj unction
ĠSer ge
ĠSher iff
Ġle ver
ĠAv iation
13 7
ĠNep al
ĠAr ctic
In line
Ġinv ite
Ġkw args
ĠAl pha
18 98
ad os
H ey
tensor flow
Ġtest imony
Ġpass phrase
ĠEn able
y aml
g uid
ĠArab ic
ĠToy ota
c ook
Ġpsych ology
Ġextract ed
Ġu h
Ġf itted
Ġp H
Ġintrodu cing
Ġ= ================================================================
d id
ĠF loat
13 1
Ġautom ation
or ic
ĠPer u
[ -
Ð ³
Ġtable t
vis ibility
ĠAr senal
ĠÃ Ĺ
ĠV M
dis ambiguation
Ġten ure
Ġurg ed
Ġb other
Ġo d
ĠIm prov
Ġsoph isticated
is ure
Ġst amp
get Text
bro ok
U TE
ĠS N
Ġdes erve
AG ES
is Array
/ ?
ĠC ertificate
k an
rou t
ĠRes et
sc opy
Ġcab inet
Ġtr ails
st ors
p referred
ri o
ĠSc ar
18 99
Ġbre ach
rit is
Â ½
ĠL ED
Ġann oy
Ġdist ant
Component Model
r ator
av in
mod ified
und ers
C at
! (
F ive
ĠK il
20 30
Ġcons iders
Ġver ified
Ġc rystal
wid et
gom ery
ĠField s
ct rl
ĠH ob
h um
ab we
Br anch
Ġauthent ic
ĠBl ake
ure a
D a
Ġm apped
Ġrac ist
ĠA str
J eff
Ġcorpor ations
ĠHol iday
Ġd atabases
comm ands
ĠB ald
!! !!
or ange
ĠBr istol
ĠH az
Ġsouth west
Ġin fer
azel cast
re str
ĠAn al
Ġcomp ression
gr ades
Ġsing ular
I CT
Ġbe ings
// ----------------------------------------------------------------
Ġw ard
20 5
Read Only
ĠS oci
Ġ' ../
ut ton
Ġam bit
Im mutable
Ġcop ied
H aving
ensure math
ek s
yl an
ĠMer cedes
Type Def
M X
Ġb uses
ĠS ax
Ch inese
success ful
Ex amples
Ġfil med
Ġa pt
Ġl un
ab br
Ġwhe els
Ġa ux
ĠT emplate
ĠY eah
Ġn urse
ch arts
" </
Ġunder graduate
C ong
Ġbehavi ors
Ġh ooks
Ġ' </
Pr imitive
z ing
Ġback end
ĠDirect ors
S qu
Ġorgan ised
ĠGL enum
Ġclin ic
en es
Ġb uck
ĠCom ing
Ġh alt
Ġconnect s
Al gorithm
ov y
Ass ignment
r isk
ĠĠ čĊ
thread s
Ġinvest or
Ġg em
ĠB ir
Ġball s
W hether
ĠI g
he imer
f ef
Ġpen et
p el
D X
ĠArt icles
B uilt
ĠĠĠĠĠĠĠĠĠĠĠĠĠĠĠĠĠĠĠĠĠĠĠĠĠĠĠĠĠĠĠĠ ĠĠĠĠĠĠĠĠĠĠ
S printf
Un expected
Ġpath ways
Ġun precedented
Ġprotect ive
d in
Ġbet ting
30 4
over nor
) '
per ature
Ġsurviv ors
Ġorder ing
Are Equal
ĠM R
ĠCon vers
ij i
Polit ical
ĠMus ical
Ġz ip
g gle
or um
CC CC
'' '
ĠN HS
ĠS weet
ot yp
Rec ogn
Th ough
Log ging
ĠGet ty
d m
Ġwond ering
ĠA id
ili ary
=" //
ĠHoll and
min us
Ġcelebr ity
ĠPat ients
ĠRom ance
tok ens
Ġl ig
Ġviol ations
imb abwe
Ġtim eline
Ġs word
zyn ski
w y
Ġfinal s
Ġdemonstr ates
uss els
ĠI con
ĠR ou
">< ![
is ch
ĠM atter
ĠB udget
Ġp ond
ĠS ure
ĠDer by
Prot otype
Vari ables
ĠDirect ory
Ġem barrass
Ġther apeutic
Ġc fg
Ġrem arks
Ġh iding
18 70
m ass
ĠT ags
ĠP av
ĠN ormal
ĠL IC
c aster
ĠL if
Ġw ore
all ed
ĠId entity
Ġhistor ically
T our
sign al
Ġmod ifications
28 0
Ġmake up
Ġso vere
j ab
Ġcompos ite
Ġcivil ian
Ġ$ $
Ġd t
Ġsign aling
Ġdiscuss es
Rep ublic
ĠLuc as
F IL
Mod ules
ĠU ntil
er ver
OP ER
ĠHol mes
ĠInt roduction
appro pri
process ing
ĠB uch
Ġfest ivals
ĠH appy
Ġint ens
Ġbatter ies
ĠContin ue
ĠE asy
ard i
CON NE
S ol
Ġc ryst
> ';
ob ic
up iter
Ġ/ .
ĠC ox
UN K
an ese
Re q
ĠS ymphony
Un ion
h ydro
Ġll vm
ad vant
ĠSp encer
Ġalter ed
j obs
Ġcool ing
} `
Ġcomm emor
M argin
() `
f m
ĠBrook s
im eter
ator ies
ĠC IA
Ġl od
Ġl ambda
ad en
Ġaccept s
Ġ/*! <
Ġcoh ort
Ġgr ades
Ġg aining
Ġ" (
ĠProject s
Ġam ino
Iss ue
A ge
Ġcomm od
Sign al
ĠSaf ari
add le
ĠBut ton
/ %
Ġretail ers
ĠS leep
ĠMin neapolis
B ay
Particip ant
st ones
ĠGener ic
Ġsort s
Ġ Ã©
Ġs oc
Ġhand lers
Ġtact ics
ĠT ouch
Ġhon ored
Ġdis hes
18 65
ju ana
F ilters
Ġexcell ence
ĠHug hes
Ġfail ures
B ul
T em
ĠS ierra
\ %
Ġjust ify
S pr
ĠG MT
Ġtri be
Ġrent al
do es
Ġque en
ĠU nd
Ġmin isters
Ġdepos it
ark er
ĠLe o
ĠM ental
ari juana
Act or
H I
t emplates
inner HTML
Ġsoci eties
ĠVictor ian
ĠD anny
Ġcontinu ously
H i
ale y
ĠNorth west
Elements By
F ood
ĠGener ate
ĠKnow ledge
LE NGTH
Ġarr iving
ĠVerm ont
Ġdam ages
Ġ ï
ig ating
Ġsup pose
ĠS TE
ĠP ont
u ant
ĠP T
Ġachiev ements
GRO UP
ie ge
Ġsubsidi ary
Ġde com
Debug ger
/ ******/
ENT ER
vari ables
ĠE sp
an ol
Ġeth ics
OD Y
Ġpurch asing
ĠC ov
ĠP ink
Ġle ak
Rec ip
Any Ref
ĠS ak
ĠFil ip
Ġclim b
widet ilde
M id
ro v
Rev ision
ĠMot ors
Ġshift ed
14 9
Ġgard ens
or ig
Ġfro zen
Ġprec ip
D ead
op a
Ġsatisf action
ĠGro ve
Ġnew er
16 6
th ink
Me asure
z b
Ġon click
ibr ation
at um
ĠP ool
ĠAh med
Th rows
Ġrock et
dec oration
nab la
ĠC ant
F X
æ ī
lim its
Ġh orm
Ġattr actions
Ġelev ation
ĠP and
13 9
: **
v d
ĠHe avy
Ġch apters
les h
It alian
ĠA zerbai
ĠM ask
ĠBob by
h ou
icy cle
Ġre vel
co ins
im an
writ ers
Ġguitar ist
ener gy
Ġsh irt
Ġexcit ement
Ġad oles
Ġdro pping
on er
Ġpros per
ne um
re ply
ĠL it
Ġ" ./
Ġmuseum s
im plementation
ĠT rophy
ME D
& \
ĠS ox
en ario
ĠCon structor
aval ry
st ad
Ġo sc
ĠG ate
Ġin equality
ĠMc Donald
Ġyoung est
å ¯
Ġcha os
Ġ( );
tr i
Ġkey word
ĠT ang
Ġout lets
20 6
M ah
n ick
ad just
h h
T own
Ġd ynam
Ġhon ors
ĠJos Ã©
col ors
Meta Data
ĠD S
Ġsw ift
ĠE ye
Ġbrows ers
on ian
Tr ust
c opyright
Ġtrad itionally
J P
w so
Ġaccess key
Ġcreat ors
ĠQuest ions
RE C
type param
Ġh ills
ĠC ONT
Ġ" --
Ġpl ugins
Ġdress ed
ĠTool s
ĠShang hai
Man ifest
Ġchemical s
re ts
50 1
ĠAn cient
ä¸ Ģ
Ġprivile ge
] \
å ¼
Ġnom inations
Ġe ars
Ġparticip ant
Ġpull ing
Ġload s
Ġshow case
Ġdr unk
G N
ut a
ĠB ears
Ġlo ader
ch annels
ĠE q
ĠJ ung
Ġfe ver
ĠU C
Ġcorre ction
Ġw ages
ãĥ ³
Ġl ane
Ġmiss ile
ĠC anyon
Ġcust ody
ĠM OD
Ġagre es
w al
18 95
4 80
ic ers
cont rolled
L ev
Ġat omic
Ġp sy
ĠApp ly
' }),
l ar
Ġto ggle
Ġspread ing
G erm
ĠArt ists
Ġexplos ion
ast ics
Ġam end
ov an
Ġexpl aining
Hor izontal
Ġambit ious
re ject
Ġwh is
Ġs ew
âĢ¦ âĢĿ
Ġapplic ants
ĠR uth
ĠLu is
Over lay
IF T
Ġcancell ationToken
Ġshall ow
ii i
Ġacc idents
Ġbr idges
Ġp ale
St ill
R en
Ġdel icious
Gr and
Ġmut ations
ĠBr andon
L T
eb ook
Ġpra ise
atin um
Ar n
Ġbal anced
ĠMult iple
Ġassist ed
ĠT ampa
Ġsw ing
Ġp tr
à¤ ¿
ĠSp ider
à ¹
Te chn
v ation
w ikipedia
Ġ utils
ĠTrans fer
Tag Name
Ġen force
Ġover night
Ġrec ipe
ĠB urg
ĠAl ways
ment ed
h ad
has OwnProperty
Ġactress es
ap on
Ġcomb ines
Ġa z
but tons
sh ine
Ġinnoc ent
Ġde ar
spec ies
Ġconsist ency
Ġd ive
Ġ" ")
Ġro ok
Ġgr at
ĠPlay Station
B ag
ĠPrinc ipal
Ġenc rypted
Ġcoll ision
ing o
ism iss
ĠMc Carthy
Ġstat ue
b ower
Ġthe sis
ĠLe eds
Subs cribe
itro gen
ro e
Ġ(! $
Ġref und
Ġprest igious
Ġassum ing
Ġde ferred
ĠMot ion
re a
orient ation
Ġentreprene urs
ĠT ips
EN UM
ud s
Cl ip
ï ¸
ID ENT
serial ize
Ġfl ush
ĠTh ai
ĠSer bia
ĠF ri
ĠTour ism
Ġdyn asty
ĠDoc uments
BO O
Ġmut ation
Ġnav al
O ps
ĠAd vert
C tx
Rec ent
ĠAnt ar
T l
int ent
yt ic
ish i
TR A
W P
Ġâ ĪĴ
Ġgrand father
ret ty
Ġs q
F oo
op ath
Ġ* **
Ġ{ })
ĠS ah
Ġdis closure
ph al
Ġpro port
Ġins pect
g ems
h it
Ġm asc
Red irect
Ġconsult ant
am ar
Ġqu adr
ĠOrth odox
ĠO DI
ĠW HO
ĠN ak
Ġarg ues
ew ard
Ġhapp iness
Ġinterpret ed
Ġconfirm ation
Ġp ension
ĠGard ens
Ġtoler ance
ĠF oster
w ave
ĠJ in
n ational
Ġp ose
Ġcomb ining
High light
ext ends
um ption
Ġbad ly
aint ed
numer ic
And rew
Cl one
ĠC ities
ĠColl abor
Vert ical
Ġh azard
ĠG and
ĠK un
Ġre nd
re nd
iod iversity
Ġinc idence
ĠMun ich
ĠM ul
ĠFI LE
k u
Ġrem ind
ĠDes cribe
Ġstrict ly
f v
Ġun iqu
Ġclick ing
ĠM ills
An swer
Ġlog ged
Ġleg ally
Ġcon clude
ast ian
Ġvol atile
Pre view
ok o
Ġsh ar
>: ]<
S um
Ġreli ability
Ġdistingu ish
SD L
ĠL akes
Trans l
ĠPar ish
Ġsurv iving
ĠHe at
M LE
Ġlapt op
ic ht
je ctions
D ot
Pol ice
Ġconcert s
Ġdes criptions
Ġpress ed
2 15
2 11
S hip
J s
Ġse q
i eg
r ices
ĠS erv
; ]
ĠP ART
ĠL ud
ĠL arge
ĠDel aware
Operation Exception
Ġlast ed
Î ²
und les
Ġf ram
ĠG B
ĠAp plications
Ġsw ap
font s
P rem
Ġfe as
Ġrestr iction
Ġtrav els
Ġgu ides
Ġadvoc acy
ĠAn a
neg ative
L ONG
T reat
n pm
(" -
ĠValue Error
Ġhash Code
Fr ag
ST EM
Ġintr ig
Ġy eah
Ġph ases
Ġlicens es
Ġtreat ing
Ġanth rop
Ġm p
Ġlift ed
te chn
Sh op
Ġn it
Ġnumer ical
ĠP itt
Ġsh ifts
Ġaccompany ing
> )</
St mt
ĠĠĠĠĠĠĠĠĠĠĠĠĠĠĠĠĠĠĠĠĠĠĠĠĠĠĠĠĠĠĠĠ ĠĠĠĠĠĠĠĠĠĠĠĠ
Ġt emplates
Ġne ural
oxy gen
Ġf ame
ĠYork shire
Ġaccess ibility
bour g
Ġdebut ed
ĠSub ject
in verse
ĠN as
Ġaw s
AAAAAAAA AAAAAAAA
Ġb ones
Ġhe aven
anc ies
Am ong
Se veral
Key board
} %
I LED
18 97
Ġsk illed
Ġun set
in yl
ch air
read only
or f
pr ising
Ġmethod ology
Ġins pection
Ġce iling
ĠV ers
Ġre forms
NAME SPACE
Ġassum ptions
h ibernate
NO SCRIPT
ĠO z
ult an
Ġwel comed
x ref
ĠB B
ĠSt ack
SD K
cor rect
Ġmo ist
PL ICATION
oll o
Ġpow der
Ġinsp ire
Ġmar ry
ĠFor ward
Ġserial ized
ĠI van
lem ma
S y
pl aces
ring tone
Ġsurve ys
Ġmod est
ĠLo an
inst ein
Co V
log ue
Tok ens
W M
' +
ĠC ash
un iform
ĠBenn ett
n om
re ports
W ashington
ĠS ens
Ġr ings
Ġpros pective
ĠB ag
Comm un
Ġpeace ful
ĠSustain able
; -
Ġbe ars
pat ient
V ir
im ity
Ġg aps
Ġmass es
Ġcart oon
Ġbench mark
Ġs ake
Ġmain tains
Ġref use
ĠGreg ory
ogen esis
Ġfif ty
I BU
b ishop
c ery
iv id
R out
ĠB uilt
pol it
Ġm k
Ġtag ged
Ġprim itive
Ġdecor ated
r ab
Cre ation
K EN
g res
View Model
ĠSec urities
Ġde ce
ĠLeb anon
ĠS ARS
ĠB rief
ĠRes ort
pro d
Ġill um
ĠCO MP
Ġt ender
Ġid s
ĠL oss
s at
ĠT F
ĠPr im
ĠAn imation
Co ins
Ġfrag ments
K A
ĠT iger
ĠG oth
ĠIn tern
Ġd ock
Ex change
Ġconsum ed
D ER
tab ular
ĠB og
G UI
áĥ Ĳ
Î ¯
control s
HAND LE
Ġdest inations
ĠL ayout
Ġattr action
ĠK re
ĠOtt awa
an imate
for ge
Ġcontr ary
Ġto b
Ġb ell
ĠPhot os
m f
q a
Ġv ectors
uis ine
Cal ifornia
Ġend e
IT S
âĶĢ âĶĢ
mir al
Ġre open
Ġcon ferences
ĠAs ync
ex ceptions
r int
en os
14 2
Ġin cl
% ).
M AT
ound ing
Com plex
ĠThe me
ĠO ri
Ġnetwork ing
Json Property
Ġp ause
Ġv endors
ver ts
Ġdiv ide
ĠEth ics
own ers
op al
Ġhe ating
Ġdist ress
conf irmed
Con trib
Event Handler
ĠPal m
T alk
ĠSp ark
Ġchar ter
Initial ize
Cl osed
ĠBry an
\ ]
Al tern
Ġcle ver
Ġc ord
Ġtw ist
Ġsubs cribe
Ġdark ness
ffff ff
Ġcontribut or
b u
id ity
Ġbe aring
ĠW ine
ĠG ang
ie u
Ġmem orable
k now
ĠD ocker
Ġpat rol
Ġal gebra
ĠR alph
Write Line
Block ly
Ġterr ain
ĠL odge
Ġen compass
Ġexhib ited
F ace
ĠH ERE
ĠValid ate
S and
ĠMc L
ĠSch w
Ġvert ices
ell ular
Americ a
à¯ į
ĠT err
im on
ĠColon el
IF Y
ĠLeon ard
Ġdr um
ĠE ston
h ole
comm end
Ġ ib
Ġl ingu
ĠR ate
2 64
e very
ĠLem mon
ĠFr ame
ling ton
Ġauthor ization
Ġun fold
are l
B as
Fr ance
C ached
I FI
Ġlimit ation
Rel ation
ĠTreas ury
Ġreven ues
pos able
ĉĉĉĉĉĉĉĉ ĉĉĉĉ
à¥ Ģ
ĠC inema
ĠCond itions
ĠBer g
ĠCO M
C lock
å º
ĠM az
Comm ands
ol ation
ĠH arm
Ch apter
NO TE
By Name
ĠNiger ian
ĠLink s
Record ed
andid ates
ĠShow s
Ġn u
Ġd y
ĠM idd
ĠR aid
18 96
Ġaccommod ation
Ġreg ener
PRO TO
Th ird
Col lector
p arsed
h ub
u ator
per formance
ĠAp plied
Ġa apt
field set
Ġhor r
ĠN g
Ġres ist
ĠSt uart
Ġin duct
ĠDou g
ĠE t
Ġf d
Ġtrans cription
hen g
Ġrecruit ment
z el
Ġv endor
Ġdim in
ĠJul ia
ID s
ĠE ight
Ġ} ));
ĠV as
ĠCh uck
ĠEffect s
ĠPr ison
Ġw it
Ġstar red
App Compat
Not ify
View s
ĠCOL SPAN
Ch oice
Ġadvis or
T ODO
List s
Ġproduct ive
0000 000
Ġche er
c ern
Is Null
k ubernetes
act ivate
( ",
ÑĢ Ð°Ð
Ġswitch ing
Ġg orge
Y eah
Ġ} .
ĠCont roller
Ġcryptoc urrency
Ġinteg rate
ĠRetriev ed
ĠThe orem
Ġch ocolate
Ð¾Ð ¼
ĠP ush
ĠEqu ity
Suppress Warnings
ra ise
W ords
ĠP att
ol ition
ĠLGBT Q
ator ial
Me et
g ary
Ġv ine
DO CK
ĠR an
Type Name
Ġele ven
37 5
Ġst ones
Ġkick ed
Ġf oster
=" ./
ri eve
ÐµÐ½ Ð¸
Ġc od
es ium
Ġdel ays
Ġcount ing
ant is
ER O
/ \
st ation
Ã Ł
Ġrel ate
Ġste al
ĠPop ular
ĠColumb us
lear ning
ĠReg ulation
[ (
m and
Ġcoord inator
ĠM M
Ġcomp anion
c end
DE VICE
is y
Ġmer ger
pos itive
Get ty
Max imum
Rel ations
amp ire
ov ic
ĠMarc us
Ġh i
Ġtr ap
Ġcorn ers
Ġl on
Ġsem ester
2 24
Serial izable
ge om
Ġviol in
Ġun e
ĠM IN
Ġprevent ed
ĠYan kees
Ġf are
oca ust
Ġg a
Con struct
iov ascular
Ġde code
A WS
× Ķ
k ill
Ġan ten
Ġsec urities
S ender
Ġpro pose
g ement
OP EN
in is
Ġle verage
comp any
ynt hesis
ĠR ice
Ġmess aging
Ġun employment
n r
Ġlocal ized
Ġtim ely
å į
ĠL INE
ĠExcell ence
ĠM aps
mal ink
] -->
W ay
ĠT IME
ĠB U
Ġser um
Ġhar sh
Ġcalc ulations
dim en
p ick
ĠHis panic
bal ena
Un lock
Ġdeterm ines
Ġgod s
Ġb ail
In side
Ġcur ves
ĠEv idence
ĠAuth ors
Ġpro st
Ġsub t
Ġint imate
an ian
Ð Ł
Ġc iting
ĠSy rian
ĠB orn
Com posite
b ay
Ġadvoc ates
Ġdis contin
ĠSom ething
Ġper mits
Ġfre ely
PAR AMETER
ĠC red
w ent
Inv oke
c ategories
ant ics
Ġportr ayed
Ġpoor ly
Ġm arijuana
Ġam endment
Ind ices
D ue
Ġav iation
ĠY ES
Ġlaw makers
he nd
14 1
ĠSimilar ly
K W
Ġfilter ed
ĠHung arian
Ġd ign
You ng
Ġgirl friend
18 60
Å Ħ
put es
Ext ended
Ġthreat ening
N il
Ġp arsing
ĠC ool
ĠEag le
ĠRoc he
Ġd ent
IR ST
std out
T ARGET
Ġcons erv
yl um
abul ary
ĠX ml
man uel
Ġd os
og o
ĠAtt ack
h istor
LE ASE
print s
H it
S ink
{ (
15 1
Ġpop ulated
ĠB und
car ousel
Russ ia
ĠB ach
Ġwitness ed
2 12
IM AGE
Cap acity
ĠS ullivan
Ġabund ance
og an
Ġp ian
Ġgrad uation
ak u
Com ments
Ġun cle
os ure
Ġunn ecessary
Ġtr ump
assert False
ĠR ather
us a
Ġbow l
ĠFlore nce
Publ isher
pe st
Ġmot ivated
c id
(" [
ĠDr iver
ĠE ddie
Enc oder
ĠCl uster
ĠLeg acy
E ST
Ġhope fully
Ġrenew ed
ĠJam ie
So ftware
Perm alink
ut er
16 7
Ġcycl ing
U X
ĠA ub
ĠD ame
Ġinsp iring
ĠPatri ots
Ġcar b
ĠS UV
ĠG ender
ĠM ik
Ġcount ed
cr im
im iter
k al
Ġb er
ĠA ber
ĠB ent
ĠL atest
idd ing
short cut
Ġd in
ĠCol in
MP TY
NE SS
Ġm eter
ĠCom pl
Ġtri bes
Ã¡ s
Ġadvent ures
+ -
ilib rium
15 7
D ark
ut ron
key words
ĠAdd s
m are
ĠD ialog
] >
Ġworth y
author ized
ãĤ Ĵ
rec ogn
oper ating
res olved
oun ge
mod ern
ĠN amed
Ġs que
Comm unity
IS O
ĠArn old
Pred icate
ĠC raw
man aged
Ġin cons
uc le
[ ],
ex c
Ġrece ipt
sh iv
Ġfle w
Ġmart ial
18 5
Ġexped ition
Ġobl igation
constr aint
ic z
op ard
is co
J ac
t ec
ĠSh ared
Ġb uff
ne utral
Ch ief
be it
t ick
let te
P ipe
Ġacc red
Ġreg ulated
rott le
B and
;" |
Ġextr action
ĠC AN
ĠIs aac
ĉĉĉĉĉĉ Ċ
am pton
ĠL ET
ĠR out
AN GE
Ġmer chant
Ġnurs es
Ġam ateur
fef efe
ĠTh ought
Ġag greg
S aturday
const ants
Ġinst antly
Ġt ends
p it
Ġimport s
Throw able
ape st
ĠK B
Ġk g
Ġi Pad
Ġag ing
Ġpal ace
Ġbusiness man
N ear
df s
non umber
Ġn inth
Ġsc aling
size i
Ġsport ing
Ġa thlete
Ġpoly mer
w ig
ç ½
Ġdisappe ared
M ic
Ġs ang
Ġpo ets
Ġconc urrent
T L
Ġshe ep
Ġb ishop
Ġper f
ĠApp end
N orm
Ġdistribut ions
Ġend less
G reg
/ ,
C LO
lev ant
ak t
ific ant
Start ing
ĠT rial
Fil ed
Ġlit igation
d w
att ice
Ġaccur ately
do ors
K nown
m ix
Ġident ifies
Check er
Re ceiver
Ġpurch ases
bal ance
Ù ģ
Ġp unch
F un
g overnment
CON F
le en
ch anging
ĠPo etry
ĠPro b
Ġexp end
Ġsc oped
P rior
uck land
Ġfre ed
Ġmem oir
Ġconstitu ency
18 50
Ġden y
Austral ia
Ġsubstantial ly
ĠÂ «
Ġm ines
Ġcancell ation
Ġdat asets
Ġdies el
Ġpoll s
t ot
get ElementsBy
ĠHar bor
New ton
Ġbe an
ĠR af
ex press
Ġdoc s
Ġir r
Ġdesper ate
ĠM ull
ĠWall ace
ĠAthlet ics
Ġshort age
add on
Int o
Reg ex
Be ing
ĠI BM
Ġdis abilities
Ġany body
14 8
f un
al bum
che z
Ġqual ities
O l
ĠP ub
Ġgen ome
ev ille
plic a
fil m
od ia
Ġnob le
Ġlik elihood
mon itor
K ar
Ġenzym e
Ġefficient ly
ĠGab riel
Man aged
G est
W O
LOB AL
am as
Ġre ceptors
ĠT rip
ĠCor onavirus
con cept
ER N
Stud ent
Ġfru its
Ġaffili ated
Ġl akes
ourn aments
ĠChief s
ne ys
an alytics
unc an
Ġca ution
op ened
Ġval ued
First Name
Ġcontribut ors
Ġpremier ed
Ġsac red
qu ires
ĠG or
Ġdec imal
ĠFinn ish
ĠP f
by e
Ġw ise
Ġd s
ĠG az
[ _
Ġin structor
Ġd rought
ĠCoun ter
V oid
ĠA A
ĠM ig
Ġtr agedy
T i
Ġemp ire
At l
Ġjump ed
18 64
// !
Ġfit ting
art a
Ġcol ony
GL enum
ĠZ oom
leg end
Ġped est
Ġt issues
deg ree
ĠPot ter
arant ine
ĠT D
Ġmed ication
Ġpun ishment
T ables
Ġc ater
12 34
tab End
Ġtou ched
Ġsacr ifice
ĠBre nt
itor ies
Ġes cal
Ġdram atically
ĠP ul
Ġl t
oc ate
ĠBr ady
ĠDec ision
V ars
Ġpl ural
Ġn erve
ĠW inn
ĠG aming
abs olute
22 2
play ing
Ġfight ers
ĠV a
text width
ĠOak land
P ACK
ĠB anks
ĠCent ers
ĠJo an
ĠC rystal
ser if
Ġcancel ed
Ġr ats
Ġul tra
ĠReg istration
ĠSD K
reate st
ĠCoun sel
parent s
ari us
ĠBro s
Direct ive
al am
â ĸ
ĠC ort
load s
oph one
Ġoccas ional
Ġtob acco
Ġsm ell
ĠHall ow
Ġbed room
ĠM iles
Ġint ake
Prov ince
Ġdepos its
Ġcon form
Ġfilm ing
Ġp ays
ĠSc ore
capt ure
ĠIn stance
Res olution
Ġp el
ĠHill ary
he ws
Ġcomp assion
ĠTom my
] ];
Ġnormal ized
Look ing
Ġinaug ural
ell ion
ĠR A
comm ended
Ġosc ill
ĠBeaut y
aw i
ib us
($ _
Ġsleep ing
B AD
Å Ļ
Ġch ore
ĠModel s
port folio
Ġfl aw
ess aging
ĠVeter ans
ĠD ifferent
s ock
ac l
ĠH av
Ġlast ing
ĠCan al
vers ions
L u
Ġar ise
Ġcompr ises
../../ ../
Ġpros pects
ĠML B
N ER
Ġfin est
ĠPublic ations
Get String
Ġmot ivation
ĠSet ting
unt u
Ġnot ified
ĠMar x
Ġd upl
Ġh ierarchy
Ġa u
on aut
ĠBes ides
as List
la unch
ter min
S ys
Im g
ĠBul let
s il
Ġintrodu ces
ĠL IMIT
ron ics
ag le
Start ed
Ġtreat y
Ġrecall ed
ĠCroat ia
ĠLIC ENSE
ĠH aven
ĠEm ployment
Appe arance
Ġl as
Ġcons ume
ĠPartners hip
Ġperform ers
Ġb ol
ĠK as
ath i
Ġdisappoint ed
Ġcub ic
Ġkid n
Ġaest hetic
Ġd Ã©
per form
jav ase
ĠEll is
Ġswit ched
e ctions
t cp
Ġf el
Ġpurs uit
ill es
R oyal
ĠN y
am bo
Ġfor ty
Ġexcess ive
Ġc ens
Ġperman ently
ĠCh er
Ġtrans fers
CK ET
ov ich
ĠStep han
Ġf ab
ĠP rest
ĠH ur
in come
Ġor chestra
Ġcomp rom
Ġgu ards
p romise
Ġcar cin
al igned
ĠEn sure
ett i
Ġconsult ing
ag ine
effic ients
RET URN
F LOAT
ĠZ el
Last Name
Lou is
15 9
Ġver se
ĠAnn iversary
Ġsculpt ure
Ġmoth ers
ĠS ame
ver bose
Ġarg v
M onday
Ġsim ulations
Ġul tr
ĠBelg ian
Ġfif teen
ĠPow ell
Ġign or
r ison
Ġrel atives
Ġretriev ed
Ġcir cles
sh arp
Ġcas ino
Ġo h
i ary
å °
Ġsm allest
Ġreb ounds
Ġreve aling
Ġpharm aceutical
Ġgluc ose
St eve
Ġterror ism
ar ations
ĠP I
ev es
ĠVenezuel a
i q
open api
Ġpropag anda
ĠN uclear
Sc ience
Ġpoll ing
UL AR
ï¸ ı
Exp and
ud es
ĠPro ductions
6 50
Ġind ication
ocom plete
U i
ĠT ul
/ -
ct uary
rop ic
ĠMan aging
ĠD eveloper
Ġreg ards
ĠR ise
Ġ" ");
18 89
is ers
HO W
rec ords
ĠIN T
Ġcompos ers
ĠS aw
ĠN R
P ython
' \
if fin
Ġharm on
ĠEmb assy
Ġl y
Ġpan ic
Ġrespond ents
ĠFour th
18 93
mar shal
string ify
Ġaut onomous
ĠGil bert
} },
z ier
ĠMont gomery
enc oded
Ġst ays
anc a
Ġcallback s
CE PT
er als
Ġposition ed
PI O
l uc
Ġo ught
Ġex terior
ĠEv olution
l ane
Ġre nov
W as
Cl ause
Ġtrav elling
2 32
M ex
ĠJul ie
Ġ' {
WARN ING
ĠVen ice
v id
ai res
ĠSc ale
Ġmechan ics
Abs olute
u cc
agn etic
Sp anish
Ġincorpor ate
Ġstom ach
ĠC ord
Ġmat hematics
ĠS TD
ĠL ac
ãģ Ļ
ĠTer ritory
get Logger
Ġstruct ured
Ġche f
Ġc s
ĠInd ependence
âĢĿ :
ĠP om
na ire
Mat ches
Ġbe ef
it les
om ore
g ue
Ġdis par
ĠPresident ial
Ġdemand ed
ĠA ri
Ġtremend ous
os i
Ġjew el
com par
{ })
res olution
Ġver b
ĠSpace watch
Ġutil ized
p us
Ġinterview ed
Ġdemonstr ation
Ġde grad
Ġcent ered
ĠBe havior
F B
[] )
Ġb ubble
th ritis
Ġsent ences
=" <?
ĠObserv able
Ġ nd
ĠCh ad
request s
acc ur
Ġproceed s
\ {
Ġcol ours
styles heets
Ġprompt ed
Ġ! (
Ġa er
ĠH onda
ĠIndust ries
ĠTreat y
Ġint ensive
Ġprotest ers
uch i
S el
et r
Input s
ĠY ale
Ġp riz
18 92
M igration
Ġvot er
Ġvari eties
ĠVol unte
fail ure
P K
Ġcontext s
ber ger
ĠAt hens
h w
ct l
ĠP ere
ble ms
Ġkid ney
I SE
ed uc
list ing
av ern
Ġà¤ ķ
t alk
G allery
ĠAr med
te enth
Per formance
R outing
Ġre build
ĠR anch
Creat or
%%%%%%%% %%%%%%%%
S port
Ġm im
ĠL amb
ĠEx pr
ĠAll ow
role um
H a
ĠEngine er
Ġex tern
æĸ ĩ
Ġt ier
ang ered
h art
Ġre ass
Ġg ut
Ġper ipheral
s ap
Ġatt orneys
Ġfound ers
Ġrep ublic
B tn
get Default
m icro
Ġor chestr
Ġne u
Ġvibr ant
ĠHe aven
ĠCoal ition
ĠV ic
ĠRe ader
Ġdist ances
uls ion
Ġwas h
Ġphys icians
ĠH AVE
Ġview er
18 88
; ,
Ġoper and
Rep o
ĠUlt imate
n ell
Ġf usion
15 3
C V
ĠB UT
Ġbre eding
Ġtour ing
Nd Ex
ĠShe ll
Ġflood ing
O rientation
To o
Ġearthqu ake
Ġbeat en
Ø ³
ĠZ imbabwe
Ġsol ving
asc ade
es ity
ag ne
in ology
ĠS yn
node Type
ht m
Ġclean up
Ġc otton
Ġappro aching
h yd
Ġocc urrence
ĠA chiev
ĠHe brew
r ases
ĠD MA
Ġprec ious
pers istence
ĠS B
ĠH ass
Ġcoll apsed
Ġqu ot
Ġsp otted
Ġf et
Ġ' [
ĠD iversity
x f
ĠK ur
Project s
ĠLind a
Byte Array
Ñ Ħ
um atic
d ied
Ġgen res
in ical
ĠCh ain
Ġexp ose
Ġun t
Ġdelight ed
ut ory
Ã± a
ĠMunicip al
il ers
ir able
Ġin quiry
Ġimm ers
product ive
oy le
Ġconv ince
valid ator
Ġd iver
Ð° Ð»
Ġunve iled
ĠAbb ey
Ġgener ous
Ġbrut al
18 8
TR ACT
ĠR M
ad vert
Ġdou bles
ĠT S
ask at
L arge
v p
Ġemer ge
n m
Ø ¨
Ġup dating
Ġtra ject
m eter
Ġs ax
l iter
Ġf ights
Ġdec ay
Ġselect ing
ĠPO ST
C AN
18 85
Il legal
ĠF UN
Ġto ile
Over flow
omet own
× ª
Ġc oding
Ġcloud s
Col lege
C ritical
Pro ducer
ĠZ ach
Ġspons or
V ers
get Data
Ġend emic
Ġse al
Ġconcept ual
Ġtri o
Ġsports people
ĠTher apy
sw ap
pred ict
char set
J er
Ġ( ((
æ ł
ĠAnd r
ĠT error
Ġprot agonist
Ġs phere
Ġun fortunately
ĠEx ternal
wall paper
Ġsoc io
ort ium
ĠS ed
ĠK w
; =
Ġprodu ctions
Ġen semble
] $
Ġf ade
it el
ĠC ritical
30 2
claim er
Im p
Ġw ast
ou x
Ġcap ac
18 94
Ġclos es
Ġdr one
K now
[ [
Ġ$ ("#
d atab
Ġsup ern
Ġst ellar
Ġexerc ises
å Į
Red uce
NO WN
Ġo ps
ĠS ample
ĠAR M
R ing
f eld
ier ce
su ite
Ġkn ife
ĠB ug
P in
ĠJo el
Ġhab its
ĠSe lection
ĠSurg ery
3 40
ĠTr inity
K im
ĠH ours
sh ake
Sund ay
Ġacc us
Ġd type
ĠA ur
wide hat
Ġhol y
ĠNever theless
ig g
Ġsc rap
Ġsettlement s
Lear ning
ĠBM W
Ġconf idential
Ġanalyst s
Ġb out
jb oss
| }
Ġdis charge
Ġdep icted
Ġl adies
ĠF IX
................ ................
tr on
ng th
ela ide
Ġre un
Ġrespect ed
b ecause
Ġm aker
ĠB ever
Ġ[ #
ĠConf eder
Ġwithdraw al
Dis c
Ã µ
HE D
V el
ĠL ik
á º
att a
é ĩ
W all
Ġl over
E mitter
He art
Ġresil ience
Ġthe orem
ĠNov el
Sim ilar
P a
DA Y
art en
cred it
b uck
ĠL etters
Ġcast ing
ĠPalest ine
Ġcivil ians
l is
ĠD ow
15 6
ĠM ouse
Ġreason ably
Ġpublish ers
ĠLat ino
ĠU E
Ã ī
Ġnational ly
Em ploy
ĠT all
Ġang les
C AL
Ġcount less
Ġsp are
ĠWar riors
Ġd ol
SE C
Bo ard
Ġrel uct
UM N
itu ency
ĠF R
ry s
ĠS ang
Ġsup pliers
Ġp ap
ĠF ake
Ġ iv
Ġinter im
Ġim perial
IN PUT
Ġcorrespond ence
Ġtrans plant
year s
Ch icago
de ploy
ĠAnn ounces
um ably
ant om
ĠElect ronic
ter ritory
Ġrun ners
ĠGL uint
1 200
Ġp t
or ro
ĠMe asure
Sh ard
Ġjud icial
ĠF ut
Ġfinal e
ĠIns ert
Ġcru el
c nt
d type
ev t
Ġinitial ization
18 91
Ġs iblings
Ġseason al
Ġliv est
Instance Of
rid or
i em
Ġto ss
Ġl overs
18 62
Ġless er
ĠSh im
Ġv iable
ĠR ena
The ir
ĠBel arus
ĠDom ain
ĠFellow ship
Ġbe aches
Ġw ines
ent ities
ĠChap el
ĠSol id
s ix
38 8
ĠG ir
Ġrem inded
IG H
Ġpharm ac
EX P
ĠBa iley
" +
Ġsl ots
l ater
Ġpul se
ĠAmb assador
Ġst ir
Ġmet als
I ts
A RE
Ġgrad uating
Ġcorpor ation
ĠReyn olds
ew ater
Ġtrans mitted
query Selector
Ġab oard
ĠAp art
L F
ew s
ĠF est
? .
-- ;
prevent Default
Ġadministr ator
Ä Ļ
at ility
ĠR uby
igue z
Ġk ills
ĠEd it
ĠTrans form
bet ween
Ġnot ifications
organ ization
pro portion
Ġsus cept
AB C
Ġlack ing
ĠD ynamic
Ġen jo
Ġsynt hes
ch r
Typ ed
Ġs ock
Ġrender er
ĠBi ography
ĠIter ator
Ġmob il
play back
Ġclim bing
Pers istent
Ġdest ruct
Ge org
ĠHop kins
Dis able
sk a
Ġsuggest ion
fin ish
ĠW on
[ ];
Ġin vention
Ġed itions
ĠStrateg ic
F it
ĠA DD
get Time
Ã³ w
an mar
Ġparse Int
Ġad her
Ġd uplicate
st ed
Ġtorn ado
ĠDi pl
sk in
d an
ond o
Ġt v
it ives
PROP ERTY
Ġharass ment
ll a
Ġpenal ties
gl ass
Ġspokes person
is ive
Ġ/** <
ens ed
Ġc ake
av o
En code
Ġche aper
ur ious
ĠPen insula
Ġt ongue
erg us
le ave
ĠMem phis
Ġplay list
om ics
Ġhelic opter
Ġgrad uates
ibl ical
an aly
ĠR ush
Ġam ended
et itive
od s
Ġun safe
RO P
Inter op
P reference
ic ism
ĠBudd hist
5 50
min a
ec a
Ġg ateway
ĠHor ror
Ġutil ize
ian e
Ġgovern ed
? !
18 61
Ġmax im
Ġpat ron
roph ic
ĠDi agnostic
ill on
ĠN ine
Ġwitness es
ĠC rist
ĠMyst ery
is ible
ĠJ ourney
Ġcl arity
ĠTe aching
define Property
16 3
Ġext ensively
ĠBO OL
Ġfl ip
Ġv ic
ĠS tra
Ġsatisf ying
Ġreven ge
Ġcrit ically
find er
ĠMat hematics
S ix
} +
Ġpil ots
P B
charg ed
F K
Ġvar ies
in ent
ĠGet ting
ĠR us
Ġact ivate
Ġsystem ic
sche dule
$ )
al tern
Re ception
. &
Ã ¯
GR AM
v ik
Ġelectron ics
set Value
Initial ized
Ġset Up
Ġappreci ated
ĠIn frastructure
inter faces
æĺ ¯
ĠReg ulations
ĠRE G
ig rated
Ġpurs uing
Ġrecon struction
ĠG ates
-------- -
Ġunder way
Ġplan es
ys ide
Ġp unk
ĠM ile
GL uint
DE V
ĠDes ert
mat ched
Ġprol ifer
Linear Layout
s ites
Ġp index
ĠD ES
ĠW ake
inherit Doc
F ee
ĠHe ader
mys ql
p ent
Ġb arg
N othing
D AT
d ue
we ather
M ixin
âĨ Ĳ
âĢ ²
ĠChe v
m ma
15 4
th m
i ya
Ġindic ators
Ġrespond ing
C odes
Ġvalid ity
in as
Ġconsider ably
Ġsever ely
ĠOtt oman
18 63
Ä ħ
Stud ents
W il
ĠHallow een
R R
ĠEval uation
Ġ ÏĦ
ĠF resh
ull ah
ĠTag ged
Ġrevolution ary
it ored
ĠL uck
Ġre ck
ĠZ oo
ĠR ect
el n
Ġcontact ed
Ġ ):
âĢ ³
os ome
Col lect
ĠCard inals
}} {
Ġharm ful
E G
com press
Ġthick ness
Ġbl ues
ĠPear l
ros pective
Ġc and
und a
Ġ" </
Ġpol yn
Ġcou p
Ġso ap
Ġlabel ed
n it
Out come
ĠDef ine
nav Bar
ÂłÂł ÂłÂł
re leased
ĠL iv
Ġschedul er
at em
< >(
Ġinter vals
Ġten ant
ĠMah ar
ĠC ategories
ĠR AM
Ġneighborhood s
Ġparliament ary
ĠBrad ley
Ġmat hematical
ĠFound er
ĠE S
Ġpress ing
Draw able
ĠNurs ing
Ġh over
Ġlink ing
d h
Ġby pass
Ġmunicipal ities
c iation
ĠLook ing
Ġref res
und ef
ib an
lev ard
ĠPal mer
ir ie
ĠRuntime Exception
Ġop posing
Ġbeautiful ly
Ġdesign ing
Sp ot
Ġinter ference
ĠIndian apolis
E ric
Ġsurprising ly
Afric an
Ġs aves
ch rom
Http Request
ĠG uild
Ġbes ides
ĠFem ale
any a
30 3
ĠCheck s
Dem o
s and
Ġover look
ĠAgric ultural
Ġc oc
el ong
17 7
ĠAb original
l ua
Ġret ention
ĠP rec
Ġprohib ited
g ro
Ġr ivals
lin ing
Ġbreak down
Open Tl
ĠValid ation
Web site
ĠH i
ĠÐ ·
ĠGl enn
Loc ator
Ġ ))
00 000
ob ar
con tract
}\ \
ĠPhot ography
vis ual
ĠW end
ĠJosh ua
ans om
ĠCy cl
ĠJes se
publ ish
cu ador
ĠClar ke
ĠM ead
4 20
Ġgo og
umb led
Mart in
Th ursday
Ã¼ n
spec ified
Ġdevelop s
Ġdefe ating
T d
ĺ ħ
AD DR
ĠPhilipp ine
I o
ĠK end
Ġliter acy
So ft
ĠB orough
Res olve
ĠCl aire
Ġtown ship
ĠAdministr ative
at ics
mon ary
Ġess ence
Ġcelebr ates
min ster
* >
Ġlength s
l if
is Valid
Ġread ily
ĠBl uetooth
pret ty
C s
L i
S ong
h in
ĠViol ence
Ġn ost
ĠJ et
ĠMur der
get Current
Ġdef ender
Spe aking
D ays
ĠA way
ĠSh in
ĠSh ield
Ġh oney
Ġinnov ations
ft en
St udio
Ġindiv id
ici ary
ĠImm un
A H
arm ing
Ġstraight forward
XML Schema
P TED
Ġthe ft
P icture
Pac ific
ram ento
ox ic
Ġlog istics
Ġloc ate
Ġfar mer
Hel pers
Ġsubs cribers
il iation
ĠM ETH
)) :
Config ure
ĠS IGN
c ology
à¤ ¨
ĠIS BN
B uy
K O
ĠD NS
D am
Ġst arter
Ġinv itation
Ġc ement
') ).
Ġrank ings
az ed
ĠExper t
ik er
ch oice
ĠWe ight
d ummy
St ock
url s
Ġart ic
Mod ern
r idge
art et
k el
Ġveget ables
Ġ ÑĤ
ĠI v
Ġtal ents
ĠReb e
P atch
Ġexc av
CL IENT
ogene ous
"> "
Ġden ote
j p
b ane
Ġn utrition
AC CESS
ĠBo eing
names e
Ġemb ark
Ġl ith
r ice
ĠC raft
ON LY
ĠRec ent
c ock
Sl ide
ĠDis cussion
ann i
Ġmarket place
Im plementation
Ġins ult
C ut
kin son
Ġt body
Jose ph
Ġavoid ing
Ġinter pol
Qu ote
Default s
quis ite
Ġcompr ised
ĠMoroc co
ĠPro blem
Ñģ Ðº
ST REAM
atern ity
c rypto
Ġappre ciation
ĠK oh
Ġfl uct
inc orporated
ĠIll ust
Ġexhib itions
Ġun ity
Ar c
m itt
Cl aim
ĠCart esian
Tra its
E q
Ġbe ats
ĠG aza
ĠGar cia
ochem ical
pos ium
EQ UAL
CP U
Ġaccess ing
Ġchampionship s
ĠOcc up
.. ...
Ġpol ic
epend ing
L if
ĠTre nds
Ġbab ies
ĠA x
Ġcomput ational
we ak
ĠHe ights
+ '
it ic
Ġorig inated
Ġsear ches
associ ated
ĠW ords
Ġr ifle
Ġmot iv
Ġcompr ising
Ġcreat ure
K S
t lement
Ġout lined
it ary
ĠH ait
ĠVlad imir
Ġsub group
Ġhistor ians
Ġvulner ability
iner gi
o auth
ĠH ir
ment ioned
Ġsl avery
document ation
Ġsl aves
Browser Detector
Ġmin imize
=" {
Ġinflamm ation
Ġn ons
dr ive
ar ium
Ġurg ent
ĠH ip
Att ach
A verage
ET A
K n
ag ation
202 5
call s
? âĢĻ
Ġcol lector
Ġde alt
ĠĠĠĠĠ Ċ
Ġbehavior al
C riteria
ĠL ar
F s
M ON
?? ??
Ġpain ful
ed ar
ĠSt ay
Ġthere of
ä ¿
Ġun ited
Ġdes erves
Ġcontin ent
cur r
ĠĠĠĠĠĠĠĠĠĠĠĠĠĠĠĠĠĠĠĠĠĠĠĠĠĠĠĠĠĠĠĠ ĠĠĠĠĠĠĠĠĠĠĠĠĠ
x ff
Ġsu cc
ĠLo op
ĠRebe cca
ug osl
ĠIm Gui
Ġrepresent ations
Princ ipal
p ark
Ã© d
Ġfunction ing
ĠLyn n
ab lo
ĠN H
h azelcast
Ġopen ly
}_ \
ĠT ow
os ion
Ġrem ed
Ġet ern
Ġg fx
Ġspokes man
ovak ia
s uffix
ĠExhib ition
ĠN ortheast
Ġbi ography
ĠRel igion
Ġunder go
P et
ver b
Ġsh ifting
oper ations
Ġoptim ize
ĠClin ic
Ġadvis ory
Ġcomp romise
Ġenter prises
P en
MS earch
16 1
ĠG roups
ĠDev il
ĠRestaur ant
Ġbre ed
ĠH ood
Ġre wards
Ġtrail ing
Ġdipl omatic
ĠS nap
Ġbl ob
Ġrele g
Ġmetab olic
ĠLinked In
S pl
Ġtr apped
ok i
Ġpromot es
áĥ ĺ
17 6
ĠO wen
ĠF T
Ġprov inces
ĠSouth west
LE FT
ĠS IL
if a
ĠHit ler
LE T
l ord
ust s
head s
Ġaffili ate
se min
Ġarg c
Ġd irt
17 8
Ġl ar
S aint
ann ers
Ġbroadcast ing
Ġs co
Ġyour s
Ġrel ies
ĠRe id
C ACHE
in el
ĠLET TER
Ġbr ig
Ġwood s
È Ļ
Ġthorough ly
Ġdefault Value
16 4
Non Null
Ġpitch er
Ġle x
ĠH our
Ġcard iac
z eta
ĠC V
Ġalumin um
? ,
ot ive
ĠP ER
Tex as
Ï ī
Ġrem ot
Text Field
dis ciplinary
pe x
(' ../
Ġvir uses
TH READ
ant ine
Academ ic
Ġdis cretion
ĠMO RE
Dis cover
ĠTru ck
Util ities
Ġdiv id
Every thing
West ern
io let
ĠTe en
ĠAdv ance
ĠUnc ategorized
as per
Ġmed als
Ġhead line
Ġnow here
Ġref ere
ĠEm pty
ĠA uckland
Ġcirc ulation
IS H
Ġcomput ation
ĠBe hind
ou bt
ĠH BO
duc ing
itect ure
Inv ocation
red is
Ġmark ing
Ġpred icate
pl er
rest ore
ar u
AT IVE
B ODY
om p
15 8
ĠP am
16 2
ĠEthiop ia
ier arch
Ġev olving
Ġround ed
ĠNE WS
TIME OUT
en h
Ġlim iting
ĠNe u
ĠS PE
Ġstr ains
Ġrandom ly
Ġqu arters
S ir
Ġcon clusions
lect ric
âĤ¬ âĦ¢
Ġtr ait
aur us
C urrency
Ġb eds
and ro
Ġlegisl ature
ĠBl u
) ](
empl ating
Ġgrand mother
ĠG D
ĠĠĠĠĠĠĠĠĠĠĠĠĠĠĠĠĠĠĠĠĠĠĠĠĠĠĠĠĠĠĠĠ ĠĠĠĠĠĠĠĠĠĠĠĠĠĠĠĠĠĠĠĠĠĠĠ
ir ate
} =\
ĠLa un
ĠA ce
Dis covery
Cons ider
im i
Ġrecycl ing
ĠSecond ary
Ġavoid ed
/ $
Ġreserv oir
Ġdevast ating
Ġportr ay
ĠF loyd
F inder
Col ors
Process ing
Ġdefend ers
Ġpres ervation
Ph ysical
rolog ical
ĠB lo
ĠEv il
o ak
Ġmer c
Ġbott les
o qu
ount ers
USE D
> ";
ed ges
Ġun used
he ap
I LE
Ġt a
18 87
ograph s
n ested
Ap is
ĠWork shop
Ġl ob
ric ia
Ge o
cred ited
Ġin ch
Ġth y
ĠGlob e
ĠS z
ĠO NE
bo at
PO INT
Ġport able
Ġscr ut
sche me
ĠS ara
ched ules
erc ise
Ġenjo ys
ĠAp i
Ġj er
art ist
] ",
ur ally
Ġlicens ing
p aid
ĠD ad
Ġstud ios
Ġacceler ate
ER IC
Ġhead lines
Doc s
t ol
ĠLog an
B on
Des erial
Ġbackground s
O H
ĠW inds
Ġhe sit
duct or
ĠPre view
widget s
f requency
Ġbl ast
R oad
ĠHy per
ĠH ugh
Ġwhere ver
Dis patch
ĠCam era
col s
Ag ain
m or
access or
] ));
Ġf uels
il io
av our
H ist
c odes
ur an
ex ist
Ġencour ages
ĠÐ ±
Ġinvent ed
ACCE PTED
Ġre plication
+ ,
D evelopment
raw l
Z end
ĠRe uters
ãĤ ¹
Ġc uisine
Int roduction
IN LINE
itt est
et ype
ĠR F
22 1
rec v
Ġcomb inations
d ater
ol in
P AGE
izar re
ĠG PU
Opt s
Ġpass ive
Ġprev ents
Ġl oses
Ġ ----------------
al gorithm
4 000
b az
Con flict
Ġstrong est
in ars
n is
ĠPubl ish
å® ļ
Tw ig
ĠRec ogn
Ġd ental
ow l
Ġdis advant
Rem ember
) ',
L M
m ology
ĠR iv
Ġt ales
Ġor b
Ġmotor cycle
tr action
ĠLouis ville
Ġwe aken
ĠCh in
d ashboard
Ġlect ure
Ġtempor al
Ġd ocker
Ġto y
oy a
ĠAzerbai jan
ĠBr ussels
Ġh align
ĠS ans
Res ize
and ez
ĠR d
Ġart illery
Ġmanufact ure
Ġflag ship
Ġon set
ĠD iet
Ġpredecess or
C LE
Dependency Injection
Ġpredom in
screens aver
Ġhold ers
Ġn aming
ocy tes
æ İ
Ġconcent rated
Ġ$ ('.
ĠP orter
Ġsupport ive
20 9
Ġf ond
Wed nesday
ĠHer bert
T uesday
pos itions
ĠĠĠĠĠĠĠĠĠĠĠĠĠĠ Ċ
fl ash
ĠWeek end
Ġinsect s
Ġd ummy
Ġdef ended
Ġt utorial
Ġment ions
ĠHer ald
ĠEn cycl
ĠPay ment
Ġh ike
sup ports
ĠC rypto
Comp ilation
resource GroupName
Ġb uffers
Ġch ips
Ġloyal ty
3 10
ra ud
Ġtrans itions
DE CL
Ġs odium
ĠS um
Ġdepend ence
re ne
ĠArg s
ur as
Ġc ant
Aut hent
s al
ch ief
Ġpro c
ĠPoint s
ĠStev ens
ins ky
ĠRe ally
ĠTe ams
ic ion
iss on
leg iate
ĠDemocr acy
Ġfrequ encies
Ġup graded
"> ,</
ĠJeff rey
-------- ---
pr us
æ ³
Ġaw k
Ġthunder storm
Ġcur r
ĠT anz
Ġcoord ination
Com pute
Ġab normal
Leg acy
ÑĢ Ð¸
C ss
p ow
ĠD iana
Ġpro long
ĠRep ly
ĠHar old
Spr ite
ol and
ĠK or
Build ings
b ag
Ġdraw ings
ĠCab inet
ĠRe leases
Ġillust rations
ĠDis c
Ġadjust ment
L ee
s aved
ST O
G uest
Ġrook ie
Ġinit With
Ra ises
Ġass ured
ĠSet up
ĠCitiz ens
ter ms
Ġmagn et
s ensitive
t ap
æľ ī
Ġth ir
ĠCont est
Ġcer emon
h dr
C ook
ĠS urre
OFF SET
17 2
sl ug
oy age
PO SE
ĠRat ings
Ġec ological
ĠAndre a
HEAD ER
S ym
With in
Ġrem inder
appropri ate
d v
ĠT itan
ress es
Ġpe pt
yl on
Ġflo ors
ĠG am
div ider
ĠType Error
Ġcele brities
Ġs ung
Ġvit amin
aut hent
ĠInt ent
j q
Ġcar riers
18 86
ĠRec re
h arm
ĠĠĠĠ ĉ
Get ting
Ġthr one
ĠR B
Ġspir its
Ġden om
Ġin complete
Ġtr unc
Le ague
cl er
CO RE
Med ical
Q R
ax ies
c ats
auth ors
------------ --
Ġenc ounters
ov iÄĩ
ĠG ust
Ġ) {
ĠLuc y
M Y
ĠH urricane
le ston
last ic
ĠSh ir
Ġlater al
m aml
class path
ĠMan ual
ĠEnt reprene
Ġt ournaments
Ġintern ally
Ġexecut or
navBar Cell
ĠD awn
ĠG y
ould er
Ġtem pt
Fl or
it ars
Al ready
Ġc v
ĠEx port
ĠÐ ¼
ĠPers ian
Ġcul min
C N
Ð½ Ñĭ
Ġl ag
est y
ĠB P
Ġsa fer
F atal
Ġsur pass
STAT IC
ĠWrit ers
ĠKr ish
W ITH
Y et
Ġquestion ed
ĠSh ore
trans parent
Sup plier
20 7
ful ness
Ġbit ter
Get ter
ĠKn ights
ĠV P
Ġw reck
h orn
Observ able
Ġconst itute
Ġpolit ically
Ġmem o
Spec ific
ĠAsh ley
ut able
ele g
ĠE g
ĠGo ing
ĠRec overy
Ġinfect ious
file Name
Ġshock ed
ĠTib et
if s
ĠOr d
Tool bar
D ependencies
Ġorgan izational
ĠT as
ĠH off
Ġconsider ations
ĠMor rison
ĠH ydro
Or d
ĠHold ings
tt ify
Ġinc ub
ĠGib son
ĠĠĠĠĠĠĠĠĠĠĠĠĠĠĠĠĠĠĠĠĠĠĠĠĠĠĠĠĠĠĠĠ ĠĠĠĠĠĠĠĠĠĠĠĠĠĠ
ĠCong o
) ];
y led
th s
ĠAm anda
s id
P ur
( <
B ot
al ways
Ġat oms
ope z
sp ons
[] {
W ood
ist on
18 7
ĠEx tra
at omy
Ġsl ower
arr ison
K en
} |
br ains
Ġ* */
Ġfre ight
9 11
ĠM aced
Ġneg lig
Ġin verse
ha o
Ġ ].
Att achment
ĠN atal
ĠPer fect
ort ic
ĠSup erv
Ġtri angle
mem Item
O VER
Ġcl ine
start ed
DE C
Block Index
ĠRh odes
il ogy
ĠE ducational
ace ae
ĠRet ail
r ides
Ġboy friend
en i
ĠL un
CH O
Ġinvestig ators
ĠS U
Ġimm unity
at ched
aw k
ĠH ack
Ġm ud
Ġsent iment
ĠH us
ĠPl ugin
opt im
l ag
ĠB inary
G a
Ġprov es
col on
Cl imate
ĠSw an
l c
ĠB eg
Ġhe ap
NUM BER
ĠUn known
Ġback s
ĠAd elaide
mont on
Ġded ication
ĠD ylan
ace y
Ġbreath ing
ĠStart ing
Ġout let
Ġbes ide
ĠG ent
Ġconfig urations
ĠT ickets
ib a
Ġsp her
Ð½ Ð¸
ĠG ra
Pos itive
Ġr ises
Ġexpect ation
à¤ Ĥ
Ġp ine
e lected
Ġgorge ous
Ġil leg
æ į
ot ics
re try
ro les
ĠNor folk
æ Ŀ
le ys
ä¸ ª
Ġassemb led
Na N
sp aces
map per
R X
ĠC ult
ĠPr ide
PRE SS
sw ift
A mb
l ap
ul er
AN Y
cent ral
B razil
ĠB ert
ĠJ D
Ġdisc overs
ĠRel ated
Ġpractition ers
St ory
ĠNetwork s
Ġv intage
Ġdeb ugging
v ier
E nergy
ĠC WE
(( (
em b
ias m
Ġoverl ap
I ran
ĠC oin
ĠW er
Ġ@ @
w b
ĠV illa
Ġhor izon
ĠChe f
Ġhuman itarian
Ġan ch
Ġstart ups
Ġshe ets
Ġneighbor ing
ĠAd min
60 1
Ġartifact s
ĠPro ceed
Ġcat ast
e er
h ouses
Ġoff line
fil tr
ĠRh ode
ĠGrand e
Ġc ure
Ġaut umn
Ġkil ometers
ĠObject s
Ġn ec
Ġmult ic
ĠArm strong
f ixture
Ġca f
un stable
Ġmort gage
ĠD uncan
Ġgal axy
node Name
________ ________
ĠSche me
Ġprox imity
W rong
ĠK ick
Ġeduc ators
cit et
) _
Ġpreced ing
Ġ- &
im ming
tr aining
ç Ľ
ĠT at
Fl ush
19 3
ĠV ern
Ġro d
Ġrob ots
ORM AL
Ġreg ex
ĠA SC
ĠG E
ĠJ ak
ĠInd ies
123 456
ad ic
ĠK ol
host name
Ġrain fall
F riend
ĠL il
ĠCas ino
est inal
he y
et erm
ir y
ĠAl leg
Ġsign atures
B rian
Ġpl ots
Ġsuperv ision
Ġvar s
Ġgar age
ä» ¶
Ġbo om
AP PLICATION
Ġrout ing
ĠO H
L iber
Ġtr agic
17 3
Ġt abs
ĠW ave
Ġse ized
C ES
iox ide
Ġneur ons
ĠCoff ee
sm ith
M IC
ĠM BA
ĠCon cept
Target s
C our
DOCK ED
he e
ĠP K
Ġacceler ation
Ġsl ides
em ale
cl osing
m ong
j oint
][ <
ĠA K
Ġrel ay
> ',
empl es
Prof essional
Å Ľ
Ġn as
CI AL
G al
ç ±
th reshold
Ġtrans mit
^ (
Ġh ilar
ĠA DC
Ġpurs uant
ats u
Inter est
vious ly
BU IL
Ġwat ches
ĠPl aza
Hand lers
ĠDE BUG
Ġhighlight ing
Ġpur ple
Ġgreen house
Ġspect ral
} ")
Ġset Timeout
ĠF ul
Ġback ward
-> {
ĠWat ers
act ivated
de leted
ĠDef inition
N ay
ĠLaure n
ĠA ST
Pl ayers
G G
n x
ĠE sc
Ġgl ory
Comp ile
ĠEV ENT
Ġtr acing
BE GIN
ĠRon ald
Ġorgan isms
Ġcon tributes
Ġap ple
ĠL ak
Ġequ ival
ĠW I
so lete
Ar row
Ġr het
Ġmon etary
Ġdesign ation
Ġdig its
Neg ative
ĠW ere
ĠRe con
å ĩ
Up dates
A ws
se ar
Ġdraft ed
ĠBre xit
sr v
ĠChar ter
ĠDe uts
ĠAs k
Ġge ographic
ĠFund ing
estab lish
ĠD yn
Ġper cussion
23 4
ne z
Emb ed
ADD RESS
intend ent
ĠS ue
Ch oose
ĠMerc ury
ĠG PS
) =\
Ġdownload ed
Ġint u
Exp atriate
P aper
ĠR ut
press ive
ĠAng els
os c
Ġlong time
ĠHol ocaust
S amples
Ġatt itudes
Ġ ub
C Y
od ore
Ġmet all
Ġeval uating
Ġt ire
ven ile
ĠSc ene
publ isher
c ro
ĠMan uel
ig m
FIL TER
ĠO g
ol an
ĠPro ducer
vis ions
ĠBel ow
cure ment
T en
Ġover head
Ġac claimed
m ob
× ¨
ur bs
ĠVeh icle
Ġwar fare
D istrict
}} </
User Agent
B rien
ĠA RE
Ġr ider
aw ait
P LAY
ĠW ays
former ly
Ġreg isters
Ġplant ed
Gu ard
> #
F ACE
Fin ished
Ġn inet
Ġnot ation
0 100
ĠCom pute
Ġundert aken
ĠS ugar
ific ent
FUN C
Ġpione er
od i
un ge
ĠRay mond
Ġindivid ually
Ġch rome
Ġrecru iting
ĠPop ulation
Ġridic ulous
s ens
l ift
re search
act ing
"> {
Ġju ice
Ġlic ence
ĠS ources
avel ength
eng es
ĠRichard son
b ill
ĠUn ity
Ġb ump
Ġimag ery
Ġinvari ant
lo ose
Ġbacter ial
g ene
Rest r
al og
ain es
it as
ĠH il
dec or
ap a
Ġbu zz
Ġlearn s
ĠAndrew s
Ġasp ir
S af
Ġarg uing
T er
Ġp neum
Ġrub ber
) }\
ĠRun ning
Ġad res
AN S
Ġsubs id
Ġlocal ity
- %
ĠH err
ĠW iki
Ġexhib its
H op
n able
con fluence
Ġstory telling
ĠRen ew
")) );
Ġequal To
person al
N AL
âĢĻ :
BU F
ff e
Ġwrit ings
Ġsufficient ly
y en
ĠHe in
Ġsaf egu
ĠMunicip ality
æ ŀ
Ad am
ĠTw enty
Ġm ast
um inate
Ġconv iction
* \
un ately
ĠBeaut iful
ent ric
ĠMark ets
Dec ode
ĠBulg aria
C ircle
Â ²
Ġland mark
Ġbet ray
Ġsub stances
Ġassum es
Ġte ens
Ġwork space
(" ")]
Ġaccording ly
Ġthere after
ĠAss et
w ed
ĠH S
Ġint act
ĠOver view
il ion
Ġalloc ate
built in
Ġrespond s
Null Exception
V ictor
Ġlist ings
Ġn m
Sh utdown
EN SION
Ġsk etch
ĠWag ner
an ical
Ġatm ospheric
Ġis set
18 81
Ġtim ber
> ("
h space
urs ion
Ġunf air
Content Type
x c
ĠIn g
sw ick
ĠSy nd
ĠR id
Ġsacr ific
ud er
Ġwhe at
ĠSh ape
ĠM N
ĠIns pector
Vertex Attrib
R G
g ulp
ĠM ale
Ġde er
Ġinf ant
Rot ation
CL UD
ĠHash Set
ĠNic ole
M gr
es ar
ĠA sp
Ġtable ts
Ġmetabol ism
18 56
amb ia
G row
Ġgener a
Ġn itrogen
Ġadv ancing
ĠExpl orer
Pr act
F iction
C AT
en burg
L atin
ĠL or
Ġcan al
ĠSud an
ag ain
ĠIn come
ĉ ĠĠĠĠĠĠĠĠĠĠĠ
aj i
ĠE aster
Ġun anim
24 5
Min imum
cap acity
print StackTrace
ant o
ĠP OL
>> >
V an
CLUD ING
Ġnomine e
Ġto ys
Ġr am
out ed
Ġte aches
ĠRev enue
Lin ux
Ġp aired
um en
ĠH annah
head ed
Ġshare holders
v iol
17 4
P TR
Ġst ance
Ġfavor ites
ĠK erry
Ġend ors
B attle
ĠGL sizei
Ġst raw
ĠGen eva
ĠB in
Ġad mir
Mov ie
hel ial
ĠMont e
CONT RO
ĠT ensor
Ġg rip
Ġjump ing
ĠQu inn
ĠChe ster
b is
Ġcompar isons
Ġinter cept
N EXT
ĠG ift
ism atch
Ġ\ {
Stud y
LOC AL
N umeric
an ium
Ġd f
Ġle agues
Ġchar ming
Ġrem inds
ĠWel come
i otic
) ";
Ġam big
ios ity
Ġnormal ize
ĠRena issance
D NA
ĠBarn es
Ġth roat
the m
El se
Ġcrick eters
ĠM UST
Sl ider
r ina
ch ard
ĠH unting
Ġhonest ly
ol ith
ak y
pro te
Ġun comfort
Ġsup erm
I SS
X T
ĠB ills
Ġappro ve
Germ any
) ^{
pt a
Im plemented
Call able
Ġpresent ations
root Scope
ĠPed ro
P ot
Dec or
ĠVari able
ĠNew castle
}) \
3 80
olph ins
ig i
Adv anced
Ġnull able
ff ield
ib les
Ex ist
CO PY
des cr
cons ider
ĠInvest ig
Ġj am
10 80
Ġimp air
Ġen rollment
Rail way
D U
ĠW IN
S on
ĠH amb
Ġfre el
] "
Ġarch ives
Ġrecru ited
h agen
ĠS olution
ĠTrans it
riter ion
ĠN ano
Ġimprov es
ãĥ Ī
mid t
Ġdon ors
Ġbankrupt cy
Ġbound ed
Ġout look
Ġautom otive
Ġfoot print
Ins pector
ĠS askat
Ġrecre ational
Ġtransport ed
Ġdef icit
L os
n ets
ĠD in
P ART
Ġs lope
Ġg ym
Ġim pe
18 2
Ġoptim ized
ĠSant os
Ġgen ius
Ġbelong ed
m us
ĠA CC
Ġfor k
Ġr ides
Ġar ithmetic
inst on
iv ari
Ġdys function
ĠE PA
() "
J ean
ĠLe af
Ġ] );
direct ive
ĠD j
Pr iv
ĠP G
Ġsh ower
user Id
aut hentication
Ġprint s
ĠCarol ine
Ġsup plier
Ġcriminal s
S ibling
ĠG DP
Ġin con
ĠTop ics
Mark et
ĠTun is
Ġsl ip
Ġorgan ize
umb ling
Ġc ertificates
Ġterm inated
Ġquant ities
Ġgram mar
ĠTr avis
Hen ry
qu it
ĠC atch
Ġpost pon
ers et
par agraph
ĠX XX
Ġback wards
Mac ro
EX TERN
ĠIN TER
Ġpure ly
") ).
IS A
assert Raises
Ad ministr
ux er
ĠS of
Ġspecific ations
ĠB orrow
Ġsa uce
ãģ Ĺ
Current ly
ĠBou levard
ĠMETH OD
Ġd ens
Ġde pr
Ġess ays
St amp
Th us
Ġcalc ium
Ch rome
30 8
Ġsatisf ies
Ġv inyl
18 84
Ġcar ing
ĠZ en
ĠSim pson
Ġple asant
ĠPl ans
ĠC ars
)) {
Ġquiet ly
ine z
log ic
Ġex empl
um bo
17 1
Ġexc use
Ġspecim ens
Ġl ips
sub title
ĠP P
18 83
ĠSpe ech
Ġcl ay
Ġo v
ĠFran co
ĠÂ °
Ġquant itative
p f
Ġg lyphicon
ĠF ergus
Ġdisag ree
ĠEn h
Ġmill iseconds
Ġamb assador
b ash
w yn
oc ene
Ġi i
ĠDe leg
ctx t
ar ag
Serial ize
ĠHend erson
Ġv itro
ĠO FF
Ð½ Ð¾
Ġtr aces
S ens
A sh
E th
ĠWy oming
ne ath
Con v
Ġorgan izing
Mar shal
B IN
ĠF lying
K evin
Ġsol ved
me asure
V ED
Ġadd iction
qual ified
ĠF ans
stan bul
18 3
ĠIo T
Sw ed
integ ration
ĠHer z
Ġapplic ant
Render ing
Ġd airy
Ġex changes
lo ver
key board
Ġphil anth
Sw ift
> @
plit ude
dig it
Ġr ushing
b ins
pr im
Ġunder went
r gb
Ġdis putes
anth a
Ä Ľ
ĠP ages
us ions
FA ILED
In ternet
Ġdeter ior
ĠGerm ans
Ġl ighter
cred entials
rell a
ç± »
Ġcheck sum
ð Ŀ
Con nected
Ġinst itute
Ġvill ain
Ġg el
00 3
ros so
Ġthr illed
Ġa erial
ĠM ang
Ġprem ises
ĠAmeric as
SQL ite
j dbc
ĠH ern
ĠHe y
Ġb ust
ĠM Y
Prof essor
D J
ĠK urt
Image View
ï¼ ļ
Ġvac uum
ĠH H
(' \
Ġrandom ized
jet brains
c ourt
ĠCow boys
ĠPeters burg
get Context
ĠRodr iguez
ĠD rew
Ġscatter ed
Ġin ning
Ġg ambling
Ġg ates
cc cc
ĠBre nd
ĠS PI
Ġ\ (
Ġdec iding
Ġpre y
23 5
f urt
ĠUtil s
L es
Ġb ite
ch in
Ġrecip es
Ġpredomin antly
18 82
Ġexp ired
Ġc ute
ĠU V
Ġtr illion
Ġnumer ic
C ome
ì Ŀ
ĠCl a
has Next
du ces
Ġdam n
Î ®
ĠR ac
Ġex pon
n ings
Ġfert il
Ġver bose
ĠP ars
Ind ividual
! ");
Ġto oth
ĠM ight
Ġtri bal
Ġpuzz le
ĠAP Is
Ġst ab
rot ate
18 4
Ġperform er
getElementsBy TagName
inst ances
Callback s
c out
ĠJ ets
OR TS
ĠU FC
ĠLou ise
Ġrap per
Ġcitizens hip
Ġreflect ing
27 5
Ġf lesh
ass is
ĠC yr
ĠW inner
Ġcontin uation
Ep isode
ĠD one
F ederal
at z
Ġres idual
Med al
P ull
l ayers
ĠHero es
ed o
Ġb ugs
Ġre habilitation
Ġim plant
ron es
× ľ
Ġm RNA
Ġdr ummer
ke eping
Ġhe d
Com position
ĠOr acle
enz ie
ĠR ising
Ġ' )
Gr ant
Ġaver aged
Jew ish
Y ea
min or
cover age
ĠÎ ²
que z
en ities
Ġdegrad ation
Ġcont ested
comm unity
ĠLaw s
ĠEn um
P aired
id is
Ġco efficients
E OF
ĠR he
ĠU ri
ĠP irates
State Exception
Ġknock ed
Ġvolunt ary
() }
G irl
Ġrele v
em at
Dir ty
ke leton
Ġfort une
Ġh aul
Ġtri but
ĠV ER
ĠTe a
Q T
Ġcustom s
ĠST ATE
Ġantib ody
**************** ********
ade qu
ĠAdvent ures
Ġeleg ant
ro ots
ess ors
ATTR IBU
ĠPer form
Ġpaint ers
ĠRes olution
act ly
ath a
TO KEN
Ġremot ely
C oun
Ġgar bage
ĠCurt is
ĠSt atic
Ad just
Ġinev itable
gr and
SER VICE
Ï Į
ĠM AC
ĠG ren
Ġenjoy able
Ġsp ite
ĠDav ies
P references
18 9
ĠC av
ĠU AE
Ġch ase
de ad
ĠRoman ian
Alloc ator
Ġdeterm in
d evelopment
Ġtravel ers
Ġhous ed
ĠProv ider
ĠEll en
ĠH yp
DEF IN
border ed
ĠKenn eth
hand ed
Ġspec ifying
S ampl
Ġt ast
ij a
block quote
Ġcan onical
ĠE ither
17 9
ting ham
PE G
Ġ ell
Ġinter ven
Ġeconom ies
Ġ è
orm s
SE SSION
Ġcompos itions
ĠTri ple
x r
bread cr
Ġmat rices
/ ************************************************************************
Ġste ering
P OL
Ġlect ures
F W
J obs
ĠL ynch
ĠB ened
Ġ\ |
LA S
ĠTe acher
ĠF acts
ĠB S
Ðµ Ð»
/ @
Ġin her
ĠCond ition
Ġdou b
Id le
Ġincent ives
="../../../../../../ ../../
vet ica
ĠMan it
ĠT aking
http Request
ĠE arn
ĠSl oven
ov sky
ĠCal gary
M oney
ĠM ER
Ġaccess ories
ap hor
Ġrec ession
Ġdem ographic
Newton soft
y g
all i
Work space
Ġiter ate
ĠDur ham
å Ĩ
Ġtrav elled
s omething
per missions
Ġco efficient
Ġpar ade
Ġroof s
ĠH ear
ĠAct iv
Ġobst acles
Com bo
ĠUs age
Access ibility
p d
ide a
ak o
ĉĉĉ ĠĠĠ
Es cape
at ra
mk dir
oc ide
ĠTh ing
ĠBr is
em i
Ġcrow ds
ĠFunction s
f ade
ĠCO PY
Ġv a
ĠV iv
Ġbath room
ĠB SD
cons umer
M u
Ġint ro
Ġneighbour hood
uc us
ĠD ent
ĠI SS
Vill ages
ĠWell ington
Ġtum ors
N ic
Ġ{ $
ĠM akes
es p
Com puter
[...]
