{
  "version": "1.0",
  "truncation": null,
  "padding": null,
  "added_tokens": [
    {
      "id": 0,
      "content": "[UNK]",
      "single_word": false,
      "lstrip": false,
      "rstrip": false,
      "normalized": false,
      "special": true
    }
  ],
  "normalizer": null,
  "pre_tokenizer": {
    "type": "Sequence",
    "pretokenizers": [
      {
        "type": "Digits",
        "individual_digits": false
      },
      {
        "type": "ByteLevel",
        "add_prefix_space": false,
        "trim_offsets": true,
        "use_regex": true
      }
    ]
  },
  "post_processor": null,
  "decoder": null,
  "model": {
    "type": "BPE",
    "dropout": null,
    "unk_token": "[UNK]",
    "continuing_subword_prefix": null,
    "end_of_word_suffix": null,
    "fuse_unk": false,
    "byte_fallback": false,
    "vocab": {
      "[UNK]": 0,
      "!": 1,
      "\"": 2,
      "#": 3,
      "$": 4,
      "%": 5,
      "&": 6,
      "'": 7,
      "(": 8,
      ")": 9,
      "*": 10,
      "+": 11,
      ",": 12,
      "-": 13,
      ".": 14,
      "/": 15,
      "0": 16,
      "1": 17,
      "2": 18,
      "3": 19,
      "4": 20,
      "5": 21,
      "6": 22,
      "7": 23,
      "8": 24,
      "9": 25,
      ":": 26,
      ";": 27,
      "<": 28,
      "=": 29,
      ">": 30,
      "?": 31,
      "@": 32,
      "A": 33,
      "B": 34,
      "C": 35,
      "D": 36,
      "E": 37,
      "F": 38,
      "G": 39,
      "H": 40,
      "I": 41,
      "J": 42,
      "K": 43,
      "L": 44,
      "M": 45,
      "N": 46,
      "O": 47,
      "P": 48,
      "Q": 49,
      "R": 50,
      "S": 51,
      "T": 52,
      "U": 53,
      "V": 54,
      "W": 55,
      "X": 56,
      "Y": 57,
      "Z": 58,
      "[": 59,
      "\\": 60,
      "]": 61,
      "^": 62,
      "_": 63,
      "`": 64,
      "a": 65,
      "b": 66,
      "c": 67,
      "d": 68,
      "e": 69,
      "f": 70,
      "g": 71,
      "h": 72,
      "i": 73,
      "j": 74,
      "k": 75,
      "l": 76,
      "m": 77,
      "n": 78,
      "o": 79,
      "p": 80,
      "q": 81,
      "r": 82,
      "s": 83,
      "t": 84,
      "u": 85,
      "v": 86,
      "w": 87,
      "x": 88,
      "y": 89,
      "z": 90,
      "{": 91,
      "|": 92,
      "}": 93,
      "~": 94,
      "¡": 95,
      "¢": 96,
      "£": 97,
      "¤": 98,
      "¥": 99,
      "¦": 100,
      "§": 101,
      "¨": 102,
      "©": 103,
      "ª": 104,
      "«": 105,
      "¬": 106,
      "®": 107,
      "¯": 108,
      "°": 109,
      "±": 110,
      "²": 111,
      "³": 112,
      "´": 113,
      "µ": 114,
      "¶": 115,
      "·": 116,
      "¸": 117,
      "¹": 118,
      "º": 119,
      "»": 120,
      "¼": 121,
      "½": 122,
      "¾": 123,
      "¿": 124,
      "Â": 125,
      "Ã": 126,
      "Ä": 127,
      "Å": 128,
      "Æ": 129,
      "Ç": 130,
      "È": 131,
      "É": 132,
      "Ê": 133,
      "Ë": 134,
      "Ì": 135,
      "Í": 136,
      "Î": 137,
      "Ï": 138,
      "Ð": 139,
      "Ñ": 140,
      "Ò": 141,
      "Ó": 142,
      "Ô": 143,
      "Õ": 144,
      "Ö": 145,
      "×": 146,
      "Ø": 147,
      "Ù": 148,
      "Ú": 149,
      "Û": 150,
      "Ü": 151,
      "Ý": 152,
      "Þ": 153,
      "ß": 154,
      "à": 155,
      "á": 156,
      "â": 157,
      "ã": 158,
      "ä": 159,
      "å": 160,
      "æ": 161,
      "ç": 162,
      "è": 163,
      "é": 164,
      "ê": 165,
      "ë": 166,
      "ì": 167,
      "í": 168,
      "î": 169,
      "ï": 170,
      "ð": 171,
      "ñ": 172,
      "ó": 173,
      "ô": 174,
      "Ā": 175,
      "ā": 176,
      "Ă": 177,
      "ă": 178,
      "Ą": 179,
      "ą": 180,
      "Ć": 181,
      "ć": 182,
      "Ĉ": 183,
      "ĉ": 184,
      "Ċ": 185,
      "ċ": 186,
      "Č": 187,
      "č": 188,
      "Ď": 189,
      "Đ": 190,
      "Ē": 191,
      "ē": 192,
      "Ĕ": 193,
      "Ė": 194,
      "ė": 195,
      "Ę": 196,
      "ę": 197,
      "Ě": 198,
      "ě": 199,
      "Ĝ": 200,
      "ĝ": 201,
      "ğ": 202,
      "Ġ": 203,
      "ġ": 204,
      "Ģ": 205,
      "ģ": 206,
      "Ĥ": 207,
      "ĥ": 208,
      "Ħ": 209,
      "ħ": 210,
      "Ĩ": 211,
      "ĩ": 212,
      "Ī": 213,
      "ī": 214,
      "Ĭ": 215,
      "ĭ": 216,
      "Į": 217,
      "į": 218,
      "İ": 219,
      "ı": 220,
      "Ĳ": 221,
      "ĳ": 222,
      "Ĵ": 223,
      "ĵ": 224,
      "Ķ": 225,
      "ķ": 226,
      "ĸ": 227,
      "Ĺ": 228,
      "ĺ": 229,
      "Ļ": 230,
      "ļ": 231,
      "Ľ": 232,
      "ľ": 233,
      "Ŀ": 234,
      "ŀ": 235,
      "Ł": 236,
      "ł": 237,
      "Ń": 238,
      "ĠĠ": 239,
      "ĠĠĠĠ": 240,
      "Ġt": 241,
      "in": 242,
      "er": 243,
      "Ġa": 244,
      "on": 245,
      "he": 246,
      "re": 247,
      "at": 248,
      "en": 249,
      "or": 250,
      "st": 251,
      "Ġthe": 252,
      "an": 253,
      "it": 254,
      "Ġc": 255,
      "al": 256,
      "Ġs": 257,
      "ar": 258,
      "es": 259,
      "ed": 260,
      "Ġo": 261,
      "Ġw": 262,
      "Ġf": 263,
      "is": 264,
      "ing": 265,
      "ion": 266,
      "ĠĠĠ": 267,
      "Ġp": 268,
      "nd": 269,
      "le": 270,
      "ĠĠĠĠĠĠĠĠ": 271,
      "ou": 272,
      "Ġb": 273,
      "ic": 274,
      "Ġin": 275,
      "Ġof": 276,
      "as": 277,
      "ro": 278,
      "Ġm": 279,
      "Ġd": 280,
      "Ġand": 281,
      "Ġto": 282,
      "et": 283,
      "ent": 284,
      "ct": 285,
      "Ġh": 286,
      "el": 287,
      "il": 288,
      "am": 289,
      "om": 290,
      "Ġre": 291,
      "Ġth": 292,
      "Ġn": 293,
      "ĠS": 294,
      "id": 295,
      "âĢ": 296,
      "ĠC": 297,
      "ĠT": 298,
      "Ġl": 299,
      "ol": 300,
      "ur": 301,
      "ce": 302,
      "ĠA": 303,
      "ut": 304,
      "ĠĠĠĠĠĠĠ": 305,
      "Ġe": 306,
      "ation": 307,
      "ad": 308,
      "im": 309,
      "Ġ(": 310,
      "ot": 311,
      "iv": 312,
      "ig": 313,
      "se": 314,
      "ch": 315,
      "Ġg": 316,
      "ĠI": 317,
      "ĠM": 318,
      "ay": 319,
      "Ġ=": 320,
      "ul": 321,
      "ag": 322,
      "ow": 323,
      "th": 324,
      "od": 325,
      "Ġfor": 326,
      "Ġis": 327,
      "ers": 328,
      "if": 329,
      "un": 330,
      "ĉĉ": 331,
      "</": 332,
      "Ġst": 333,
      "ĠP": 334,
      "Ġon": 335,
      "ly": 336,
      "em": 337,
      "us": 338,
      "=\"": 339,
      "Ġbe": 340,
      "Ġv": 341,
      ");": 342,
      "ĠB": 343,
      "ir": 344,
      "ac": 345,
      "ate": 346,
      "pe": 347,
      "ith": 348,
      "ist": 349,
      "um": 350,
      "--": 351,
      "ab": 352,
      "ter": 353,
      "Ġ{": 354,
      "oc": 355,
      "av": 356,
      "ĠD": 357,
      "ĠR": 358,
      "Ġ<": 359,
      "ue": 360,
      "ap": 361,
      "20": 362,
      "ĠH": 363,
      "Ġcon": 364,
      "ver": 365,
      "tr": 366,
      "ĠĠĠĠĠĠĠĠĠĠĠ": 367,
      "ew": 368,
      "Ġthat": 369,
      "Ġas": 370,
      "ĠF": 371,
      "Ġwith": 372,
      "//": 373,
      "ess": 374,
      "and": 375,
      "ass": 376,
      "ĠL": 377,
      "op": 378,
      "ht": 379,
      "Ġ*": 380,
      "ĠN": 381,
      "ĠW": 382,
      "our": 383,
      "Ġwh": 384,
      "res": 385,
      "Ġal": 386,
      "Ġan": 387,
      "Ġy": 388,
      "ort": 389,
      "ame": 390,
      "ex": 391,
      "âĢĻ": 392,
      "ĠG": 393,
      "ĠE": 394,
      "ction": 395,
      "Ġpro": 396,
      "Ġit": 397,
      "ain": 398,
      "ub": 399,
      "pt": 400,
      "Ġ\"": 401,
      "est": 402,
      "ri": 403,
      "ill": 404,
      "os": 405,
      "ĠThe": 406,
      "čĊ": 407,
      "end": 408,
      "Ġde": 409,
      "ity": 410,
      "Ġr": 411,
      "ke": 412,
      "rom": 413,
      "ere": 414,
      "Ġwas": 415,
      "age": 416,
      "Ġ}": 417,
      "ment": 418,
      "ore": 419,
      "Ġcom": 420,
      "Ġcl": 421,
      "up": 422,
      "Ġat": 423,
      "art": 424,
      "\">": 425,
      "qu": 426,
      "Ġex": 427,
      "Ġor": 428,
      "Ġby": 429,
      "ect": 430,
      "pl": 431,
      "all": 432,
      "ies": 433,
      "ĠO": 434,
      "nt": 435,
      "ĠJ": 436,
      "ine": 437,
      "ld": 438,
      "Ġhe": 439,
      "og": 440,
      "ive": 441,
      "19": 442,
      "ack": 443,
      "port": 444,
      "Ġare": 445,
      "ant": 446,
      "Ġthis": 447,
      "ĠĠĠĠĠĠĠĠĠĠĠĠĠĠĠĠ": 448,
      "urn": 449,
      "..": 450,
      "()": 451,
      "Ġfrom": 452,
      "ĠĠĠĠĠ": 453,
      "Ġse": 454,
      "ud": 455,
      "ĠâĢ": 456,
      "cl": 457,
      "**": 458,
      "ight": 459,
      "ans": 460,
      "iz": 461,
      "ial": 462,
      "ast": 463,
      "ure": 464,
      "Ġtr": 465,
      "ust": 466,
      "ult": 467,
      "con": 468,
      "ĠU": 469,
      "ard": 470,
      "rou": 471,
      "per": 472,
      "Ġch": 473,
      "00": 474,
      "ang": 475,
      "Ġ$": 476,
      "ber": 477,
      "ov": 478,
      "ef": 479,
      "able": 480,
      "act": 481,
      "turn": 482,
      "ip": 483,
      "out": 484,
      "ave": 485,
      "sp": 486,
      "Ġsh": 487,
      "ype": 488,
      "==": 489,
      "Ġnot": 490,
      "Ġif": 491,
      "ost": 492,
      "orm": 493,
      "are": 494,
      "get": 495,
      "ff": 496,
      "ary": 497,
      "Ġclass": 498,
      "----": 499,
      "ib": 500,
      "ell": 501,
      "ind": 502,
      "Ġ'": 503,
      "ext": 504,
      "ated": 505,
      "ia": 506,
      "com": 507,
      "ode": 508,
      "ak": 509,
      "ire": 510,
      "Ġwe": 511,
      "ok": 512,
      "ĠK": 513,
      "Ġle": 514,
      "ord": 515,
      "'s": 516,
      "The": 517,
      "ile": 518,
      "Ġpl": 519,
      "Ġyou": 520,
      "ice": 521,
      "ase": 522,
      "int": 523,
      "ath": 524,
      "ace": 525,
      "ide": 526,
      "ear": 527,
      "ong": 528,
      "ions": 529,
      "In": 530,
      "ork": 531,
      "ubl": 532,
      "li": 533,
      "ĠIn": 534,
      "ich": 535,
      "ĠĠĠĠĠĠĠĠĠĠĠĠĠĠĠ": 536,
      "Ġj": 537,
      "ould": 538,
      "ime": 539,
      "ign": 540,
      "ata": 541,
      "ĠV": 542,
      "Ġ-": 543,
      "Ġhave": 544,
      "str": 545,
      "ĠSt": 546,
      "ical": 547,
      "ep": 548,
      "ail": 549,
      "Ġnew": 550,
      "Ġhas": 551,
      "Ġint": 552,
      "ject": 553,
      "cc": 554,
      "erv": 555,
      "Ġreturn": 556,
      "ance": 557,
      "201": 558,
      "Ġus": 559,
      "Ġad": 560,
      "Ġ//": 561,
      "Ġab": 562,
      "Ġcan": 563,
      "ge": 564,
      "ob": 565,
      "ence": 566,
      "one": 567,
      "Ġcomp": 568,
      "âĢĿ": 569,
      "ĠTh": 570,
      "Ġall": 571,
      "ev": 572,
      "ublic": 573,
      "Ġu": 574,
      "Ġk": 575,
      "form": 576,
      "ite": 577,
      "Ġhis": 578,
      "pro": 579,
      "ec": 580,
      "alue": 581,
      "ther": 582,
      "ild": 583,
      "ory": 584,
      "Ġ&": 585,
      "->": 586,
      "),": 587,
      "ont": 588,
      "ens": 589,
      "Ġcont": 590,
      "ress": 591,
      "ous": 592,
      "::": 593,
      "Ġar": 594,
      "Ġ</": 595,
      "Ġun": 596,
      "ition": 597,
      "ations": 598,
      "Ġim": 599,
      "ents": 600,
      "ock": 601,
      "Ġwill": 602,
      ").": 603,
      "so": 604,
      "Ġ[": 605,
      "ĠCh": 606,
      "hen": 607,
      "ug": 608,
      "eg": 609,
      "ert": 610,
      "ll": 611,
      "ach": 612,
      "ĉĉĉĉ": 613,
      "Ġres": 614,
      "enc": 615,
      "../": 616,
      "ref": 617,
      "ource": 618,
      "Ġap": 619,
      "ome": 620,
      "du": 621,
      "elf": 622,
      "Ġ@": 623,
      "row": 624,
      "ian": 625,
      "ra": 626,
      "Ġbut": 627,
      "St": 628,
      "ry": 629,
      "\",": 630,
      "Ġout": 631,
      "ull": 632,
      "Ġwhich": 633,
      "unction": 634,
      "ook": 635,
      "Ġdo": 636,
      "Ġtheir": 637,
      "Ġup": 638,
      "own": 639,
      "ink": 640,
      "que": 641,
      "Ġgo": 642,
      "ish": 643,
      "cri": 644,
      "gh": 645,
      "ark": 646,
      "Ġ/": 647,
      "ual": 648,
      "ount": 649,
      "ound": 650,
      "aram": 651,
      "iew": 652,
      "ake": 653,
      "ors": 654,
      "ption": 655,
      "te": 656,
      "mer": 657,
      "ick": 658,
      "Ġwere": 659,
      "Ġpr": 660,
      "ree": 661,
      "ose": 662,
      "ĠY": 663,
      "ĠâĢľ": 664,
      "(\"": 665,
      "10": 666,
      "div": 667,
      "();": 668,
      "ml": 669,
      "Ġ|": 670,
      "Ġen": 671,
      "Ġstr": 672,
      "ss": 673,
      "irst": 674,
      "Ġone": 675,
      "ool": 676,
      "her": 677,
      "Ġthey": 678,
      "Ġme": 679,
      "Ġmore": 680,
      "che": 681,
      "fer": 682,
      "essage": 683,
      "ize": 684,
      "ne": 685,
      "ple": 686,
      "Ex": 687,
      "Ġdis": 688,
      "ck": 689,
      "ings": 690,
      "Ġ\\": 691,
      "tern": 692,
      "Ġev": 693,
      "Ġper": 694,
      "set": 695,
      "Ġalso": 696,
      "Ġget": 697,
      "ĠĊ": 698,
      "Ġwho": 699,
      "ict": 700,
      "ps": 701,
      "clud": 702,
      "iel": 703,
      "rit": 704,
      "Ġman": 705,
      "inal": 706,
      "ft": 707,
      "span": 708,
      "ery": 709,
      "tring": 710,
      "Ġpublic": 711,
      "Ġ+": 712,
      "></": 713,
      "--------": 714,
      "eth": 715,
      "',": 716,
      "Ġpart": 717,
      "put": 718,
      "Ġ.": 719,
      "Ġname": 720,
      "lect": 721,
      "200": 722,
      "cre": 723,
      "oll": 724,
      "ates": 725,
      "yst": 726,
      "Ġag": 727,
      "pr": 728,
      "aw": 729,
      "ph": 730,
      "Ġits": 731,
      "ays": 732,
      "Ġso": 733,
      "sh": 734,
      "old": 735,
      "ely": 736,
      "Ġte": 737,
      "ield": 738,
      "****": 739,
      "Ġwork": 740,
      "Ġher": 741,
      "pec": 742,
      "lo": 743,
      "Ġ*/": 744,
      "><": 745,
      "Ġyear": 746,
      "fter": 747,
      "ater": 748,
      "ng": 749,
      "we": 750,
      "ener": 751,
      "ĠIt": 752,
      "ty": 753,
      "Ġabout": 754,
      "ER": 755,
      "Ġover": 756,
      "Ġdef": 757,
      "18": 758,
      "ax": 759,
      "====": 760,
      "Ġsu": 761,
      "Ġhad": 762,
      "Ġli": 763,
      "io": 764,
      "Ġpre": 765,
      "nder": 766,
      "Ġ:": 767,
      "../../": 768,
      "Ġbeen": 769,
      "err": 770,
      "Ġne": 771,
      "iss": 772,
      "ĠâĢĵ": 773,
      "wo": 774,
      "ĠUn": 775,
      "use": 776,
      "ĠHe": 777,
      "202": 778,
      "oid": 779,
      "Ġsp": 780,
      "Ġset": 781,
      "ĠĠĠĠĠĠĠĠĠĠĠĠĠĠĠĠĠĠĠ": 782,
      "Ġvar": 783,
      "pect": 784,
      "ystem": 785,
      "ons": 786,
      "Ġother": 787,
      "Ġro": 788,
      "Ġfunction": 789,
      "ram": 790,
      "quest": 791,
      "ie": 792,
      "Ġtime": 793,
      "ix": 794,
      "ys": 795,
      "oint": 796,
      "les": 797,
      "Ġfirst": 798,
      "co": 799,
      "Pro": 800,
      "atch": 801,
      "('": 802,
      "ics": 803,
      "ĠĠĠĠĠĠĠĠĠ": 804,
      "oun": 805,
      "erm": 806,
      "ĉĉĉ": 807,
      "anc": 808,
      "Ġwhen": 809,
      "ON": 810,
      "html": 811,
      "hed": 812,
      "IN": 813,
      "Ġyour": 814,
      "vel": 815,
      "Ġ#": 816,
      "this": 817,
      "Ġoff": 818,
      "Ġcomm": 819,
      "name": 820,
      "ational": 821,
      "igh": 822,
      "Ġsa": 823,
      "Th": 824,
      "Ġdes": 825,
      "Name": 826,
      "ade": 827,
      "Ġpe": 828,
      "ople": 829,
      "12": 830,
      "Ġsup": 831,
      "ember": 832,
      "ond": 833,
      "ve": 834,
      "Ġhref": 835,
      "bject": 836,
      "app": 837,
      "ove": 838,
      "arg": 839,
      "Ġass": 840,
      "Ġany": 841,
      "__": 842,
      "Ġadd": 843,
      "ange": 844,
      "roup": 845,
      "Ġinto": 846,
      "round": 847,
      "arch": 848,
      "ific": 849,
      "ied": 850,
      "source": 851,
      "uild": 852,
      "ĠAr": 853,
      "key": 854,
      "reat": 855,
      "Ġplay": 856,
      "Ġtype": 857,
      "message": 858,
      "Ġsc": 859,
      "Type": 860,
      "))": 861,
      "Re": 862,
      "ames": 863,
      "als": 864,
      "Ġthere": 865,
      "Ġour": 866,
      "://": 867,
      "Ġthan": 868,
      "Ġrec": 869,
      "trans": 870,
      "Ġinter": 871,
      "eb": 872,
      "ĠCom": 873,
      "urre": 874,
      "atic": 875,
      "param": 876,
      "import": 877,
      "Ġwould": 878,
      "oy": 879,
      "ning": 880,
      "Ġinclud": 881,
      "RE": 882,
      "ious": 883,
      "fig": 884,
      "Ġend": 885,
      "eng": 886,
      "Ġthem": 887,
      "Ġcol": 888,
      "Ġqu": 889,
      "String": 890,
      "ray": 891,
      "ator": 892,
      "Ġacc": 893,
      "olog": 894,
      "to": 895,
      "rap": 896,
      "alse": 897,
      "Ġkn": 898,
      "Id": 899,
      "ise": 900,
      "Ġsome": 901,
      "lation": 902,
      "Ġvalue": 903,
      "Ġact": 904,
      "lement": 905,
      "td": 906,
      "odel": 907,
      "ient": 908,
      "pos": 909,
      "Ġdata": 910,
      "Ġtwo": 911,
      "amp": 912,
      "ased": 913,
      "tt": 914,
      "return": 915,
      "Ġ=>": 916,
      "uct": 917,
      "code": 918,
      "Con": 919,
      "##": 920,
      "Ġop": 921,
      "Ġno": 922,
      "Ġshe": 923,
      "oot": 924,
      "16": 925,
      "ash": 926,
      "ĠPro": 927,
      "dd": 928,
      "lock": 929,
      "ities": 930,
      "ĠThis": 931,
      "cript": 932,
      "ative": 933,
      "ner": 934,
      "Ġel": 935,
      "Ġfe": 936,
      "orld": 937,
      "ident": 938,
      "cont": 939,
      "Ġind": 940,
      "ues": 941,
      "Cont": 942,
      "Ġbet": 943,
      "und": 944,
      "Ġco": 945,
      "ĠNew": 946,
      "Ġreg": 947,
      "Ġafter": 948,
      "/>": 949,
      "let": 950,
      "ited": 951,
      "Ġonly": 952,
      "vent": 953,
      "ward": 954,
      "Ġself": 955,
      "ally": 956,
      "ST": 957,
      "Ġpeople": 958,
      "umber": 959,
      "ute": 960,
      "Ġtrans": 961,
      "Ch": 962,
      "ethod": 963,
      "ating": 964,
      "ars": 965,
      "11": 966,
      "read": 967,
      "Ġunder": 968,
      "Com": 969,
      "AT": 970,
      "Ġlike": 971,
      "Ġsaid": 972,
      "Ġam": 973,
      "Ġac": 974,
      "rough": 975,
      "land": 976,
      "ivers": 977,
      "Ġ!": 978,
      "Ġsub": 979,
      "ement": 980,
      "Ġback": 981,
      "line": 982,
      "Ġprov": 983,
      "Ġem": 984,
      "âĢĵ": 985,
      "Ġ||": 986,
      "15": 987,
      "ton": 988,
      "ank": 989,
      "red": 990,
      "irect": 991,
      "son": 992,
      "col": 993,
      "Ġi": 994,
      "ervice": 995,
      "ault": 996,
      "add": 997,
      "uring": 998,
      "\"/>": 999,
      "ms": 1000,
      "Ġcons": 1001,
      "ID": 1002,
      "Ġline": 1003,
      "Ġstud": 1004,
      "Res": 1005,
      "Ġinv": 1006,
      "ern": 1007,
      "ĠSe": 1008,
      "ox": 1009,
      "Ġfil": 1010,
      "cess": 1011,
      "ility": 1012,
      "ache": 1013,
      "ann": 1014,
      "ek": 1015,
      "very": 1016,
      "ular": 1017,
      "ception": 1018,
      "Ġcall": 1019,
      "ale": 1020,
      "its": 1021,
      "uth": 1022,
      "type": 1023,
      "Ġuse": 1024,
      "Ġspec": 1025,
      "az": 1026,
      "ices": 1027,
      "ower": 1028,
      "Ġmay": 1029,
      "htt": 1030,
      "Ġrem": 1031,
      "ru": 1032,
      "class": 1033,
      "Ġpos": 1034,
      "yn": 1035,
      "any": 1036,
      "urrent": 1037,
      "Ġwhat": 1038,
      "def": 1039,
      "ts": 1040,
      "fo": 1041,
      "lection": 1042,
      "List": 1043,
      "Ġmy": 1044,
      "Cl": 1045,
      "Ġ_": 1046,
      "ures": 1047,
      "Ġconst": 1048,
      "ĠTr": 1049,
      "pon": 1050,
      "itle": 1051,
      "Ġjust": 1052,
      "OR": 1053,
      "ca": 1054,
      "Ġorg": 1055,
      "ins": 1056,
      "Ġhow": 1057,
      "ocation": 1058,
      "Ġrel": 1059,
      "meric": 1060,
      "led": 1061,
      "Ġthrough": 1062,
      "translation": 1063,
      "ible": 1064,
      "oth": 1065,
      "Ġ==": 1066,
      "AR": 1067,
      "cond": 1068,
      "Ġmost": 1069,
      "wn": 1070,
      "ood": 1071,
      "Ġresult": 1072,
      "org": 1073,
      "ĠSh": 1074,
      "ĠAl": 1075,
      "ough": 1076,
      "ric": 1077,
      "Ar": 1078,
      "...": 1079,
      "Ġwhere": 1080,
      "ask": 1081,
      "Ġent": 1082,
      "ument": 1083,
      "ages": 1084,
      "ĠRe": 1085,
      "ier": 1086,
      "ersion": 1087,
      "ily": 1088,
      "ah": 1089,
      "Ġnull": 1090,
      "trib": 1091,
      "Ġinst": 1092,
      "LE": 1093,
      "ution": 1094,
      "Ġprodu": 1095,
      "quire": 1096,
      "30": 1097,
      "ble": 1098,
      "ting": 1099,
      "ivate": 1100,
      "ader": 1101,
      "Ġbr": 1102,
      "air": 1103,
      "fl": 1104,
      "ished": 1105,
      "plic": 1106,
      "ren": 1107,
      "ments": 1108,
      "Ġvoid": 1109,
      "ced": 1110,
      "ww": 1111,
      "ences": 1112,
      "199": 1113,
      "Ġdif": 1114,
      "Ġpol": 1115,
      "ife": 1116,
      "ful": 1117,
      "ollow": 1118,
      "view": 1119,
      "fore": 1120,
      "Ġneed": 1121,
      "chool": 1122,
      "17": 1123,
      "man": 1124,
      "ason": 1125,
      "):": 1126,
      "ĠAn": 1127,
      "Ġph": 1128,
      "25": 1129,
      "Ġhim": 1130,
      "ines": 1131,
      "Ġtest": 1132,
      "ĠWe": 1133,
      "resent": 1134,
      "14": 1135,
      "Ġused": 1136,
      "self": 1137,
      "min": 1138,
      "back": 1139,
      "Ġyears": 1140,
      "EN": 1141,
      "ĠCl": 1142,
      "Ġstart": 1143,
      "ature": 1144,
      "AL": 1145,
      "der": 1146,
      "Ġatt": 1147,
      "ser": 1148,
      "Ġfl": 1149,
      "ym": 1150,
      "\"><": 1151,
      "erson": 1152,
      "Ġcre": 1153,
      "ider": 1154,
      "Tr": 1155,
      "day": 1156,
      "raph": 1157,
      "ists": 1158,
      "Ġthen": 1159,
      "of": 1160,
      "orn": 1161,
      "ĠEx": 1162,
      "It": 1163,
      "yle": 1164,
      "hip": 1165,
      "Ġthese": 1166,
      "âĢľ": 1167,
      "Ġagain": 1168,
      "ey": 1169,
      "Ġshow": 1170,
      "ocal": 1171,
      "val": 1172,
      "));": 1173,
      "Ġchar": 1174,
      "att": 1175,
      "Ġtrue": 1176,
      "ween": 1177,
      "umm": 1178,
      "ision": 1179,
      "ody": 1180,
      "13": 1181,
      "Ġ>": 1182,
      "ole": 1183,
      "ince": 1184,
      ".âĢĿ": 1185,
      "string": 1186,
      "Ġshould": 1187,
      "Ġ`": 1188,
      "other": 1189,
      "Ġfalse": 1190,
      "abel": 1191,
      "Ġform": 1192,
      "ĠWh": 1193,
      "cent": 1194,
      "Ġgr": 1195,
      "Ġsuch": 1196,
      "ined": 1197,
      "press": 1198,
      "iver": 1199,
      "Ġwell": 1200,
      "oci": 1201,
      "ream": 1202,
      "Ġcould": 1203,
      "Ġfinal": 1204,
      "Ġelse": 1205,
      "000": 1206,
      "ĠAmeric": 1207,
      "alth": 1208,
      "********": 1209,
      "ĠĠĠĠĠĠĠĠĠĠĠĠĠĠĠĠĠĠĠĠĠĠĠ": 1210,
      "ĠQ": 1211,
      "ets": 1212,
      "ized": 1213,
      "uff": 1214,
      "Ġlong": 1215,
      "\");": 1216,
      "Ġdr": 1217,
      "ava": 1218,
      "----------------": 1219,
      "Ġerr": 1220,
      "br": 1221,
      "ouse": 1222,
      "arget": 1223,
      "ĠCon": 1224,
      "ĠĠĠĠĠĠĠĠĠĠĠĠĠ": 1225,
      "ength": 1226,
      "itt": 1227,
      "'t": 1228,
      "pre": 1229,
      "Ġval": 1230,
      "Ġfollow": 1231,
      "Se": 1232,
      "ants": 1233,
      "formation": 1234,
      "bs": 1235,
      "Ġser": 1236,
      "Ġlist": 1237,
      "To": 1238,
      "perty": 1239,
      "text": 1240,
      "Ġnow": 1241,
      "over": 1242,
      "way": 1243,
      "ik": 1244,
      "be": 1245,
      "Ġbetween": 1246,
      "Ġ)": 1247,
      "cept": 1248,
      "ĠZ": 1249,
      "the": 1250,
      "Ref": 1251,
      "rr": 1252,
      "Ġeff": 1253,
      "iversity": 1254,
      "SS": 1255,
      "oh": 1256,
      "ma": 1257,
      "data": 1258,
      "ience": 1259,
      "ĠInd": 1260,
      "action": 1261,
      "var": 1262,
      "yp": 1263,
      "ĠDe": 1264,
      "Ġsign": 1265,
      "uch": 1266,
      "Ġmake": 1267,
      "ternal": 1268,
      "ives": 1269,
      "gram": 1270,
      "aking": 1271,
      "Ġhel": 1272,
      "Value": 1273,
      "Ġright": 1274,
      "ccess": 1275,
      "Data": 1276,
      "Ġart": 1277,
      "Ġbeing": 1278,
      "Ġmany": 1279,
      "arent": 1280,
      "Ġbl": 1281,
      "ces": 1282,
      "Ġsupport": 1283,
      "Ġevery": 1284,
      "rol": 1285,
      "Ġhigh": 1286,
      "Ġed": 1287,
      "Ġfound": 1288,
      "////": 1289,
      "ĠAnd": 1290,
      "Ġmin": 1291,
      "eter": 1292,
      "ology": 1293,
      "Ġdiffer": 1294,
      "Ġbefore": 1295,
      "Ġsystem": 1296,
      "Ġmon": 1297,
      "Ġid": 1298,
      "Ġdist": 1299,
      "ĠAs": 1300,
      "Ġwhile": 1301,
      "ral": 1302,
      "Ġknow": 1303,
      "Ġ--": 1304,
      "AN": 1305,
      "ense": 1306,
      "nb": 1307,
      "Col": 1308,
      "Ġsm": 1309,
      "uss": 1310,
      "ott": 1311,
      "Ġnumber": 1312,
      "ule": 1313,
      "aj": 1314,
      "Ġmed": 1315,
      "orth": 1316,
      "50": 1317,
      "Ġteam": 1318,
      "Ġsur": 1319,
      "========": 1320,
      "uc": 1321,
      "Ġgener": 1322,
      "Ġdet": 1323,
      "date": 1324,
      "try": 1325,
      "work": 1326,
      "Ġcase": 1327,
      "by": 1328,
      "roll": 1329,
      "IT": 1330,
      "ared": 1331,
      "\")": 1332,
      "Ġdid": 1333,
      "opt": 1334,
      "32": 1335,
      "Ġread": 1336,
      "heck": 1337,
      "ĠFor": 1338,
      "ĠLe": 1339,
      "velop": 1340,
      "Ġresp": 1341,
      "Ġ/**": 1342,
      "atus": 1343,
      "value": 1344,
      "iness": 1345,
      "Ġlast": 1346,
      "Ġlook": 1347,
      "Ġdevelop": 1348,
      "Ġmade": 1349,
      "ism": 1350,
      "idth": 1351,
      "chn": 1352,
      "Ġrun": 1353,
      "_{": 1354,
      "ote": 1355,
      "Ġear": 1356,
      "ify": 1357,
      "Ġstring": 1358,
      "ital": 1359,
      "ĠĠĠĠĠĠ": 1360,
      "2022": 1361,
      "CT": 1362,
      "En": 1363,
      "ĠSc": 1364,
      "sc": 1365,
      "Ġhand": 1366,
      "right": 1367,
      "imes": 1368,
      "px": 1369,
      "Ġfam": 1370,
      "ĠCol": 1371,
      "Ġeven": 1372,
      "nbsp": 1373,
      "ather": 1374,
      "Ġexper": 1375,
      "Ġpoint": 1376,
      "ains": 1377,
      "Ġserv": 1378,
      "SE": 1379,
      "bers": 1380,
      "cause": 1381,
      "Ġdoes": 1382,
      "Exception": 1383,
      "ĠYou": 1384,
      "];": 1385,
      "play": 1386,
      "Ġoper": 1387,
      "Ġprivate": 1388,
      "Set": 1389,
      "Ġduring": 1390,
      "Ġworld": 1391,
      "new": 1392,
      "ĠĠĠĠĠĠĠĠĠĠĠĠĠĠĠĠĠĠĠĠĠĠĠĠĠĠĠĠĠĠĠĠ": 1393,
      "Ġ///": 1394,
      "test": 1395,
      "ister": 1396,
      "Ġsee": 1397,
      "Ġbecause": 1398,
      "24": 1399,
      "Ġcoun": 1400,
      "ger": 1401,
      "Ġdec": 1402,
      "ele": 1403,
      "ross": 1404,
      "ever": 1405,
      "ĠIs": 1406,
      "roid": 1407,
      "198": 1408,
      "ified": 1409,
      "ummary": 1410,
      "Ġ&&": 1411,
      "ession": 1412,
      "Ġcent": 1413,
      "alk": 1414,
      "lob": 1415,
      "for": 1416,
      "He": 1417,
      "file": 1418,
      "ĠRes": 1419,
      "par": 1420,
      "til": 1421,
      "Ġext": 1422,
      "Un": 1423,
      "Object": 1424,
      "By": 1425,
      "Ġway": 1426,
      "Ġsim": 1427,
      "ĠFr": 1428,
      "ency": 1429,
      "Ġthree": 1430,
      "ample": 1431,
      "($": 1432,
      "Wh": 1433,
      "ler": 1434,
      "rror": 1435,
      "Ġav": 1436,
      "Ġbel": 1437,
      ",âĢĿ": 1438,
      ".\"": 1439,
      "ten": 1440,
      "Ġown": 1441,
      "pp": 1442,
      "Ġcurrent": 1443,
      "ĠPh": 1444,
      "Ġeach": 1445,
      "Ġstate": 1446,
      "iving": 1447,
      "DE": 1448,
      "Ġmod": 1449,
      "Ġdown": 1450,
      "ization": 1451,
      "apt": 1452,
      "Ġhelp": 1453,
      "ĠPl": 1454,
      "Ġbo": 1455,
      "rem": 1456,
      "Ġstatic": 1457,
      "med": 1458,
      "ateg": 1459,
      "Ġboth": 1460,
      "Ġ!=": 1461,
      "usiness": 1462,
      "Ġgu": 1463,
      "},": 1464,
      "Ġcor": 1465,
      "Ġbuild": 1466,
      "log": 1467,
      "Ġsame": 1468,
      "ina": 1469,
      "Ġmem": 1470,
      "Ġvery": 1471,
      "100": 1472,
      "face": 1473,
      "ĠString": 1474,
      "At": 1475,
      "ME": 1476,
      "Ġpass": 1477,
      "],": 1478,
      "Get": 1479,
      "().": 1480,
      "location": 1481,
      "ically": 1482,
      "Ġrele": 1483,
      "An": 1484,
      "Ġ%": 1485,
      "ĠIf": 1486,
      "ush": 1487,
      "outh": 1488,
      "Ġmark": 1489,
      "Ġreport": 1490,
      "ury": 1491,
      "comm": 1492,
      "Ġimport": 1493,
      "Ġsecond": 1494,
      "Ġdirect": 1495,
      "arm": 1496,
      "load": 1497,
      "Ġmov": 1498,
      "Ġthose": 1499,
      "indow": 1500,
      "ats": 1501,
      "ball": 1502,
      "Ġcommun": 1503,
      "CO": 1504,
      "Ġx": 1505,
      "Ġrequire": 1506,
      "ager": 1507,
      "Test": 1508,
      "Ġcar": 1509,
      "search": 1510,
      "Ġusing": 1511,
      "uthor": 1512,
      "reg": 1513,
      "fr": 1514,
      "Ġfind": 1515,
      "bar": 1516,
      "ually": 1517,
      "ural": 1518,
      "Ġwrit": 1519,
      "ĠâĢĶ": 1520,
      "ron": 1521,
      "Ġrep": 1522,
      "Ġlead": 1523,
      ".,": 1524,
      "ĠUniversity": 1525,
      "Ind": 1526,
      "Ġkey": 1527,
      "ĠComm": 1528,
      "Ġchild": 1529,
      "Ġwant": 1530,
      "ĠPr": 1531,
      "ission": 1532,
      "')": 1533,
      "item": 1534,
      "ocument": 1535,
      "iev": 1536,
      "ptions": 1537,
      "time": 1538,
      "order": 1539,
      "not": 1540,
      "());": 1541,
      "Ġcontin": 1542,
      "reak": 1543,
      "umn": 1544,
      "ĠMar": 1545,
      "22": 1546,
      "Ġgame": 1547,
      "Ġobject": 1548,
      "On": 1549,
      "ness": 1550,
      "Ġapp": 1551,
      "._": 1552,
      "Sh": 1553,
      "ĠOn": 1554,
      "iven": 1555,
      "Ġsl": 1556,
      "but": 1557,
      "pace": 1558,
      "size": 1559,
      "Ġpat": 1560,
      "As": 1561,
      "Im": 1562,
      "lear": 1563,
      "Ġinformation": 1564,
      "Ġgood": 1565,
      "akes": 1566,
      "inter": 1567,
      "ived": 1568,
      "Ġhere": 1569,
      "usic": 1570,
      "ends": 1571,
      "ases": 1572,
      "field": 1573,
      "Ġmuch": 1574,
      "Ġest": 1575,
      "Ġprocess": 1576,
      "ĠâĢĺ": 1577,
      "rc": 1578,
      "aining": 1579,
      "come": 1580,
      "els": 1581,
      "link": 1582,
      "uck": 1583,
      "RO": 1584,
      "AC": 1585,
      "Ġincluding": 1586,
      "Ġopen": 1587,
      "list": 1588,
      "197": 1589,
      "40": 1590,
      "oad": 1591,
      "struct": 1592,
      "urs": 1593,
      "istory": 1594,
      "util": 1595,
      "Ġexpect": 1596,
      "Error": 1597,
      "Ġmethod": 1598,
      "Ġdon": 1599,
      "Ã©": 1600,
      "bo": 1601,
      "Ġfr": 1602,
      "ane": 1603,
      "View": 1604,
      "Ġvis": 1605,
      "Ġagainst": 1606,
      "Refer": 1607,
      "This": 1608,
      "Ġdifferent": 1609,
      "We": 1610,
      "ĠShe": 1611,
      "ety": 1612,
      "Class": 1613,
      "Ġperform": 1614,
      "ĠAd": 1615,
      "Ġsol": 1616,
      "http": 1617,
      "ustom": 1618,
      "ĠX": 1619,
      "ium": 1620,
      "wh": 1621,
      "itor": 1622,
      "Ġbeg": 1623,
      "go": 1624,
      "summary": 1625,
      "Ġmain": 1626,
      "Ġtitle": 1627,
      "ords": 1628,
      "cription": 1629,
      "gr": 1630,
      "Ġperson": 1631,
      "23": 1632,
      "ected": 1633,
      "istr": 1634,
      "public": 1635,
      "Ġlife": 1636,
      "Ġtop": 1637,
      "Ġob": 1638,
      "ality": 1639,
      "arn": 1640,
      "ohn": 1641,
      "['": 1642,
      "fe": 1643,
      "ait": 1644,
      "script": 1645,
      "Ġarg": 1646,
      "function": 1647,
      "opy": 1648,
      "Ġprovid": 1649,
      "Ġpop": 1650,
      "Ġincre": 1651,
      "ven": 1652,
      "Ġappro": 1653,
      "\":": 1654,
      "Ġfield": 1655,
      "Ġfile": 1656,
      "Ġtake": 1657,
      "ĠAmerican": 1658,
      "Ġevent": 1659,
      "Ġins": 1660,
      "LL": 1661,
      ".</": 1662,
      "âĢ¦": 1663,
      "ght": 1664,
      "uro": 1665,
      "Ġlink": 1666,
      "Ġweek": 1667,
      "');": 1668,
      "enn": 1669,
      "].": 1670,
      "Ġcare": 1671,
      "Ġsing": 1672,
      "Ġprogram": 1673,
      "Ġthink": 1674,
      "ley": 1675,
      "nav": 1676,
      "Ġmet": 1677,
      "omen": 1678,
      "js": 1679,
      "index": 1680,
      "rite": 1681,
      "Ġstill": 1682,
      "vir": 1683,
      "Ġpost": 1684,
      "ober": 1685,
      "Ġcour": 1686,
      "ctions": 1687,
      "Key": 1688,
      "ained": 1689,
      "\"></": 1690,
      "For": 1691,
      "Ġke": 1692,
      "ential": 1693,
      "Ġgroup": 1694,
      "ĠJan": 1695,
      "Ġdel": 1696,
      "url": 1697,
      "64": 1698,
      "Ġpartic": 1699,
      "wit": 1700,
      "21": 1701,
      "\";": 1702,
      "une": 1703,
      "ĠĠĠĠĊ": 1704,
      "ION": 1705,
      "ogle": 1706,
      "raw": 1707,
      "ground": 1708,
      "ĠOr": 1709,
      "itions": 1710,
      "Ġaround": 1711,
      "Ġcr": 1712,
      "ior": 1713,
      "Ġallow": 1714,
      "ĠEng": 1715,
      "Ġmust": 1716,
      "Ġrece": 1717,
      "IC": 1718,
      "ĠBl": 1719,
      "Ġmodel": 1720,
      "me": 1721,
      "ĠBut": 1722,
      "Ġday": 1723,
      "Ġdesign": 1724,
      "Ġhtt": 1725,
      "ĉĉĉĉĉ": 1726,
      "ird": 1727,
      "Ġschool": 1728,
      "https": 1729,
      "ĠMay": 1730,
      "rop": 1731,
      "Ġaut": 1732,
      "60": 1733,
      "etwork": 1734,
      "2021": 1735,
      "lex": 1736,
      "ailable": 1737,
      "ĠAll": 1738,
      "Ġbook": 1739,
      "Ġgover": 1740,
      "top": 1741,
      "Ġbest": 1742,
      "(),": 1743,
      "ched": 1744,
      "Ġfact": 1745,
      "oss": 1746,
      "ĠHow": 1747,
      "Ġplace": 1748,
      "ploy": 1749,
      "mp": 1750,
      "idd": 1751,
      "Ġhead": 1752,
      "Ġtri": 1753,
      "Ġnext": 1754,
      "TE": 1755,
      "uration": 1756,
      "ĠBr": 1757,
      "ai": 1758,
      "less": 1759,
      "2020": 1760,
      "Ġref": 1761,
      "por": 1762,
      "illion": 1763,
      "mod": 1764,
      "âĢĶ": 1765,
      "ands": 1766,
      "nment": 1767,
      "File": 1768,
      "vious": 1769,
      "PE": 1770,
      "Ġdep": 1771,
      "Ġsom": 1772,
      "ports": 1773,
      "ling": 1774,
      "27": 1775,
      "{\\": 1776,
      "dis": 1777,
      "33": 1778,
      "Ġfin": 1779,
      "Ġ/>": 1780,
      "uffer": 1781,
      "lobal": 1782,
      "Ġlevel": 1783,
      "Ġthrow": 1784,
      "28": 1785,
      "ĠUnited": 1786,
      "sub": 1787,
      "ĠMan": 1788,
      "ector": 1789,
      "!--": 1790,
      "math": 1791,
      "path": 1792,
      "ograph": 1793,
      "ĠUS": 1794,
      "Ġproject": 1795,
      "Ġann": 1796,
      "off": 1797,
      "Ġappe": 1798,
      "au": 1799,
      "ĠSp": 1800,
      "ocial": 1801,
      "Time": 1802,
      "Ġprot": 1803,
      "Ġ?": 1804,
      "itial": 1805,
      "Ġsince": 1806,
      "ene": 1807,
      "ackage": 1808,
      "ponse": 1809,
      "lang": 1810,
      "']": 1811,
      "Ġeffect": 1812,
      "=\"../../": 1813,
      "aster": 1814,
      "ĠAt": 1815,
      "Ġca": 1816,
      "Ġlocal": 1817,
      "iginal": 1818,
      "Ġfour": 1819,
      "ĠCent": 1820,
      "Ġrequest": 1821,
      "aces": 1822,
      "Man": 1823,
      "ination": 1824,
      "iter": 1825,
      "ternational": 1826,
      "Ġtechn": 1827,
      "ĠAss": 1828,
      "Ġ);": 1829,
      "AP": 1830,
      "Ġcontent": 1831,
      "Ġorgan": 1832,
      "ails": 1833,
      "Event": 1834,
      "ware": 1835,
      "eta": 1836,
      "acy": 1837,
      "ĠBe": 1838,
      "Ġadv": 1839,
      "Ġequ": 1840,
      "ĠThey": 1841,
      "lected": 1842,
      "With": 1843,
      "Ġpres": 1844,
      "Add": 1845,
      "aving": 1846,
      "26": 1847,
      "ording": 1848,
      "TR": 1849,
      "rist": 1850,
      "Ġbusiness": 1851,
      "Ġassert": 1852,
      "Ġseason": 1853,
      "Ġcharact": 1854,
      "Ġiss": 1855,
      "ised": 1856,
      "Ġold": 1857,
      "ump": 1858,
      "my": 1859,
      "Ġleft": 1860,
      "Element": 1861,
      "empl": 1862,
      "':": 1863,
      "ainer": 1864,
      "Ġnon": 1865,
      "user": 1866,
      "ĠCan": 1867,
      "const": 1868,
      "Ġorder": 1869,
      "fil": 1870,
      "/*": 1871,
      "uary": 1872,
      "Request": 1873,
      "ĠGr": 1874,
      "tribute": 1875,
      "Ġexpl": 1876,
      "Ġlaw": 1877,
      "Ġtry": 1878,
      "www": 1879,
      "aff": 1880,
      "urity": 1881,
      "ulation": 1882,
      "plication": 1883,
      "Al": 1884,
      "mb": 1885,
      "References": 1886,
      "LA": 1887,
      "Path": 1888,
      "Ġposs": 1889,
      "Info": 1890,
      "Ġsize": 1891,
      "Ġhome": 1892,
      "Ġfollowing": 1893,
      "unc": 1894,
      "ĠCar": 1895,
      "ources": 1896,
      "Ġsk": 1897,
      "29": 1898,
      "umer": 1899,
      "Node": 1900,
      "ability": 1901,
      "tract": 1902,
      "uf": 1903,
      "ocus": 1904,
      "lish": 1905,
      "ĠTe": 1906,
      "=\"+": 1907,
      "gy": 1908,
      "Text": 1909,
      "Ġtarget": 1910,
      "Ġpower": 1911,
      "Field": 1912,
      "/**": 1913,
      "Qu": 1914,
      "ĠJohn": 1915,
      "ways": 1916,
      "Ġreal": 1917,
      "####": 1918,
      "Int": 1919,
      "Ġmonth": 1920,
      "Ġexp": 1921,
      "icy": 1922,
      "Ġsay": 1923,
      "ories": 1924,
      "ches": 1925,
      "table": 1926,
      "ĠEn": 1927,
      "olv": 1928,
      "Config": 1929,
      "icle": 1930,
      "Ġla": 1931,
      "ideo": 1932,
      "Ġfamily": 1933,
      "UR": 1934,
      "Ġview": 1935,
      "vert": 1936,
      "uman": 1937,
      "Ġinvest": 1938,
      "ugg": 1939,
      "ems": 1940,
      "ĠNov": 1941,
      "ari": 1942,
      "Ġz": 1943,
      "epend": 1944,
      "ots": 1945,
      "Ġleg": 1946,
      "Ġwithout": 1947,
      "ourn": 1948,
      "md": 1949,
      "Ġ$\\": 1950,
      "ony": 1951,
      "group": 1952,
      "itional": 1953,
      "stance": 1954,
      "olean": 1955,
      "Ġbro": 1956,
      "atter": 1957,
      "Ġparam": 1958,
      "Pl": 1959,
      "Ġdem": 1960,
      "ards": 1961,
      "Ġhealth": 1962,
      "ately": 1963,
      "Ġanother": 1964,
      "Ġpresent": 1965,
      "Ġsever": 1966,
      "Param": 1967,
      "ĠTo": 1968,
      "Ġelement": 1969,
      "urch": 1970,
      "uly": 1971,
      "quot": 1972,
      "Index": 1973,
      "Ġret": 1974,
      "ounty": 1975,
      "Ġcalled": 1976,
      "Equ": 1977,
      "Ġdisc": 1978,
      "Ġaccess": 1979,
      "Ġchang": 1980,
      "duct": 1981,
      "Not": 1982,
      "leg": 1983,
      "head": 1984,
      "utes": 1985,
      "Ġsmall": 1986,
      "Ġcompany": 1987,
      "includ": 1988,
      "left": 1989,
      "length": 1990,
      "viron": 1991,
      "All": 1992,
      "Ġtext": 1993,
      "Map": 1994,
      "ĠWorld": 1995,
      "ibr": 1996,
      "ively": 1997,
      "())": 1998,
      "``": 1999,
      "Ġcreate": 2000,
      "Ġterm": 2001,
      "ajor": 2002,
      "ored": 2003,
      "Context": 2004,
      "ĠPol": 2005,
      "ended": 2006,
      "Des": 2007,
      "Ġcap": 2008,
      "Over": 2009,
      "conom": 2010,
      "HE": 2011,
      "ride": 2012,
      "AD": 2013,
      "Ġoffic": 2014,
      "Ġpar": 2015,
      "aut": 2016,
      "Def": 2017,
      "equ": 2018,
      "State": 2019,
      "earch": 2020,
      "ift": 2021,
      "Ġstruct": 2022,
      "ivity": 2023,
      "ification": 2024,
      "Ġstand": 2025,
      "arge": 2026,
      "Or": 2027,
      "ĠMed": 2028,
      "irc": 2029,
      "IS": 2030,
      "Ġfilm": 2031,
      "color": 2032,
      "ta": 2033,
      "Ġcheck": 2034,
      "ags": 2035,
      "Ġavailable": 2036,
      "ension": 2037,
      "Ġservice": 2038,
      "api": 2039,
      "ients": 2040,
      "Ġerror": 2041,
      "Ġ/*": 2042,
      "Ġmult": 2043,
      "Ġseries": 2044,
      "ĠThere": 2045,
      "agement": 2046,
      "void": 2047,
      "Ġspe": 2048,
      "icon": 2049,
      "Ġwithin": 2050,
      "Ġgiven": 2051,
      "Ġeng": 2052,
      "Ġwin": 2053,
      "label": 2054,
      "ĠCO": 2055,
      "Ġ});": 2056,
      "enu": 2057,
      "Form": 2058,
      "AS": 2059,
      "Ġlog": 2060,
      "Ġlater": 2061,
      "ney": 2062,
      "Is": 2063,
      "de": 2064,
      "ING": 2065,
      "Ġsuccess": 2066,
      "side": 2067,
      "ties": 2068,
      "Ġ(!": 2069,
      "iam": 2070,
      "ĠĠĠĠĠĠĠĠĠĠĠĠĠĠĠĠĠĠĠĠĠĠĠĠĠĠĠ": 2071,
      "2018": 2072,
      "oken": 2073,
      "ending": 2074,
      "}}": 2075,
      "Ġbeh": 2076,
      "Ġconsider": 2077,
      "aim": 2078,
      "config": 2079,
      "ouble": 2080,
      "ayout": 2081,
      "itive": 2082,
      "amespace": 2083,
      "Ġgoing": 2084,
      "des": 2085,
      "ances": 2086,
      "Ġbased": 2087,
      "Ġbu": 2088,
      "uage": 2089,
      "Ġfew": 2090,
      "Ġsays": 2091,
      "hes": 2092,
      "ought": 2093,
      "ĠNational": 2094,
      "ĠStates": 2095,
      "aterial": 2096,
      "Ġknown": 2097,
      "Ġgrow": 2098,
      "Ġfull": 2099,
      "2019": 2100,
      "Ġgreat": 2101,
      "bed": 2102,
      "wards": 2103,
      "ales": 2104,
      "arr": 2105,
      "ently": 2106,
      "ĠNo": 2107,
      "apache": 2108,
      "Ġdefault": 2109,
      "ĠSchool": 2110,
      "Ġvari": 2111,
      "pty": 2112,
      "ĠMin": 2113,
      "oin": 2114,
      "ĠAug": 2115,
      "assert": 2116,
      "Ġtyp": 2117,
      "af": 2118,
      "Service": 2119,
      "Ġident": 2120,
      "New": 2121,
      "cast": 2122,
      "ĠJanuary": 2123,
      "Ġchange": 2124,
      "Ġdev": 2125,
      "ĠAp": 2126,
      "cer": 2127,
      "Ġpath": 2128,
      "Ġinterest": 2129,
      "ender": 2130,
      "Ġuser": 2131,
      "FF": 2132,
      "mber": 2133,
      "ired": 2134,
      "Ġresearch": 2135,
      "Ġet": 2136,
      "ĠOct": 2137,
      "evel": 2138,
      "2016": 2139,
      "sw": 2140,
      "ĠGu": 2141,
      "Ġversion": 2142,
      "ittle": 2143,
      "ĠSystem": 2144,
      "ians": 2145,
      "uture": 2146,
      "Ġfoot": 2147,
      "Ġ-->": 2148,
      "80": 2149,
      "\"\"": 2150,
      "IG": 2151,
      "ights": 2152,
      "stand": 2153,
      "2017": 2154,
      "true": 2155,
      "And": 2156,
      "Array": 2157,
      "Ġtoo": 2158,
      "amed": 2159,
      "Ġarray": 2160,
      "Ġocc": 2161,
      "block": 2162,
      "Ġloc": 2163,
      "Ġhapp": 2164,
      "ĠWest": 2165,
      "ĠYork": 2166,
      "ume": 2167,
      "UT": 2168,
      "ui": 2169,
      "ung": 2170,
      "Code": 2171,
      "error": 2172,
      "Ġanal": 2173,
      "Ġturn": 2174,
      "Ġmusic": 2175,
      "ee": 2176,
      "Ġinclude": 2177,
      "ival": 2178,
      "iction": 2179,
      "Ġbreak": 2180,
      "Ġ},": 2181,
      "Ġgre": 2182,
      "aint": 2183,
      "****************": 2184,
      "ready": 2185,
      "Ġuntil": 2186,
      "Ġrefer": 2187,
      "ĠCo": 2188,
      "Ġrecord": 2189,
      "Ġlet": 2190,
      "Ġnear": 2191,
      "body": 2192,
      "';": 2193,
      "ape": 2194,
      "Ġproduct": 2195,
      "45": 2196,
      "inc": 2197,
      "LO": 2198,
      "pression": 2199,
      "ĠState": 2200,
      "eters": 2201,
      "Ġreally": 2202,
      "Ġpolit": 2203,
      "vironment": 2204,
      "ET": 2205,
      "ules": 2206,
      "Ġplayers": 2207,
      "Sc": 2208,
      "ison": 2209,
      "Ġblock": 2210,
      "object": 2211,
      "ED": 2212,
      "title": 2213,
      "map": 2214,
      "ĠIm": 2215,
      "ĠAm": 2216,
      "ĠReg": 2217,
      "Ġprom": 2218,
      "place": 2219,
      "ĠEuro": 2220,
      "uk": 2221,
      "2023": 2222,
      "Ġprof": 2223,
      "ĠAb": 2224,
      "eturn": 2225,
      "Ġarea": 2226,
      "Ġput": 2227,
      "pen": 2228,
      "ync": 2229,
      "word": 2230,
      "Ġbig": 2231,
      "bum": 2232,
      "down": 2233,
      "Ġstyle": 2234,
      "thing": 2235,
      "ours": 2236,
      "oman": 2237,
      "196": 2238,
      "abled": 2239,
      "create": 2240,
      "iod": 2241,
      "Ġrest": 2242,
      "ĠÂ": 2243,
      "define": 2244,
      "Build": 2245,
      "Ġsit": 2246,
      "input": 2247,
      "////////": 2248,
      "ES": 2249,
      "isk": 2250,
      "Ġ__": 2251,
      "Ġpo": 2252,
      "from": 2253,
      "ilt": 2254,
      "ĠDr": 2255,
      "ĠEd": 2256,
      "ering": 2257,
      "pecial": 2258,
      "ĠAust": 2259,
      "cope": 2260,
      "ĠFl": 2261,
      "comp": 2262,
      "ique": 2263,
      "prot": 2264,
      "\".": 2265,
      "result": 2266,
      "sk": 2267,
      "2015": 2268,
      "yl": 2269,
      "ĠApr": 2270,
      "Size": 2271,
      "ured": 2272,
      "ĠMarch": 2273,
      "Ġaff": 2274,
      "box": 2275,
      "lease": 2276,
      "ret": 2277,
      "Ġgovernment": 2278,
      "Ġfac": 2279,
      "Ġlim": 2280,
      "Ġes": 2281,
      "Result": 2282,
      "ponent": 2283,
      "ides": 2284,
      "gress": 2285,
      "Ġcell": 2286,
      "Ġconf": 2287,
      "ertain": 2288,
      "ead": 2289,
      "emplate": 2290,
      "dt": 2291,
      "ĠCal": 2292,
      "Hand": 2293,
      "irt": 2294,
      "Ġalong": 2295,
      "Ġnever": 2296,
      "ague": 2297,
      "='": 2298,
      "Ġcode": 2299,
      "Of": 2300,
      "};": 2301,
      "Ġbase": 2302,
      "model": 2303,
      "atures": 2304,
      "UN": 2305,
      "MP": 2306,
      "width": 2307,
      "ĠGet": 2308,
      "alf": 2309,
      "++": 2310,
      "Ġcond": 2311,
      "agn": 2312,
      "System": 2313,
      "Ġcontrol": 2314,
      "fin": 2315,
      "Ġaddress": 2316,
      "Âł": 2317,
      "Ġshort": 2318,
      "Message": 2319,
      "Ġgl": 2320,
      "35": 2321,
      "2014": 2322,
      "ptember": 2323,
      "Ġmembers": 2324,
      "ĠRep": 2325,
      "Ġfore": 2326,
      "ĠSo": 2327,
      "point": 2328,
      "Ġquest": 2329,
      "ising": 2330,
      "cember": 2331,
      "node": 2332,
      "Ġenc": 2333,
      "nection": 2334,
      "odes": 2335,
      "Ġplan": 2336,
      "ĠGe": 2337,
      "ike": 2338,
      "ething": 2339,
      "Ġless": 2340,
      "Ġstudy": 2341,
      "ĠSouth": 2342,
      "ones": 2343,
      "ailed": 2344,
      "Item": 2345,
      "Ġwater": 2346,
      "[]": 2347,
      "perties": 2348,
      "Ġchildren": 2349,
      "version": 2350,
      "Ġ===": 2351,
      "lege": 2352,
      "ĠWar": 2353,
      "Ġ,": 2354,
      "ued": 2355,
      "ĠCity": 2356,
      "ipp": 2357,
      "egin": 2358,
      "But": 2359,
      "ĠCounty": 2360,
      "Ġoriginal": 2361,
      "Val": 2362,
      "Ġmajor": 2363,
      "Trans": 2364,
      "state": 2365,
      "igned": 2366,
      "aps": 2367,
      "OT": 2368,
      "plement": 2369,
      "icro": 2370,
      "thers": 2371,
      "Ġoptions": 2372,
      "ional": 2373,
      "bl": 2374,
      "Ġearly": 2375,
      "prov": 2376,
      "urther": 2377,
      "Ġpay": 2378,
      "Ġstory": 2379,
      "ators": 2380,
      "raft": 2381,
      "Ġbetter": 2382,
      "Ġlate": 2383,
      "uments": 2384,
      "Ġdeath": 2385,
      "default": 2386,
      "Ġcity": 2387,
      "Ġsingle": 2388,
      "java": 2389,
      "bt": 2390,
      "onse": 2391,
      "next": 2392,
      "Ġkeep": 2393,
      "artment": 2394,
      "Ġjava": 2395,
      "loat": 2396,
      "Fil": 2397,
      ",\"": 2398,
      "99": 2399,
      "Ġseveral": 2400,
      "ĠChrist": 2401,
      "ĠCont": 2402,
      "ĠSup": 2403,
      "lete": 2404,
      "cal": 2405,
      "Ġfree": 2406,
      "imate": 2407,
      "aged": 2408,
      "ĠJune": 2409,
      "Ġmight": 2410,
      "Ġdi": 2411,
      "=\"../../../../": 2412,
      "lient": 2413,
      "US": 2414,
      "ably": 2415,
      "Ser": 2416,
      "Ġresponse": 2417,
      "atform": 2418,
      "Ġcome": 2419,
      "Ġwomen": 2420,
      "Ġimportant": 2421,
      "ĠWith": 2422,
      "oto": 2423,
      "eting": 2424,
      "Comm": 2425,
      "Ġcontext": 2426,
      "Ġcommunity": 2427,
      "Ġconfig": 2428,
      "book": 2429,
      "ĠInst": 2430,
      "AB": 2431,
      "Ġrepresent": 2432,
      "Ġimp": 2433,
      "ĠEurope": 2434,
      "amb": 2435,
      "Up": 2436,
      "ML": 2437,
      "ĠFeb": 2438,
      "ilit": 2439,
      "ention": 2440,
      "Ph": 2441,
      "call": 2442,
      "info": 2443,
      "Ġproble": 2444,
      "Ġoffer": 2445,
      "If": 2446,
      "nect": 2447,
      "Ġstat": 2448,
      "From": 2449,
      "acc": 2450,
      "Ġalways": 2451,
      "Ġlinks": 2452,
      "Ġdays": 2453,
      "ĠMc": 2454,
      "oud": 2455,
      "Ġpubl": 2456,
      "include": 2457,
      "tes": 2458,
      "Ġcustom": 2459,
      "hold": 2460,
      "Ġfri": 2461,
      "Inter": 2462,
      "Ġposition": 2463,
      "31": 2464,
      "Ġsec": 2465,
      "ayer": 2466,
      "Ġask": 2467,
      "195": 2468,
      "ĠPart": 2469,
      "Ġalready": 2470,
      "ĠApril": 2471,
      "content": 2472,
      "Ġ:=": 2473,
      "ĠWill": 2474,
      "Ġresults": 2475,
      "lt": 2476,
      "2013": 2477,
      "Ġsocial": 2478,
      "AG": 2479,
      "Ġcountry": 2480,
      "refer": 2481,
      "ither": 2482,
      "ples": 2483,
      "ibility": 2484,
      "Ġauthor": 2485,
      "Ġvol": 2486,
      "ĠAf": 2487,
      "ĠJuly": 2488,
      "Ġdescri": 2489,
      "aug": 2490,
      "ada": 2491,
      "Model": 2492,
      "Ġacross": 2493,
      "Ġwhe": 2494,
      "ĠAg": 2495,
      "Out": 2496,
      "Log": 2497,
      "Ġhard": 2498,
      "tra": 2499,
      "Ġ};": 2500,
      "now": 2501,
      "Ġsong": 2502,
      "ĠPar": 2503,
      ";&": 2504,
      "stru": 2505,
      "Ap": 2506,
      "Ġtot": 2507,
      "ĠSeptember": 2508,
      "Ġestab": 2509,
      "Ġindust": 2510,
      "Ġsrc": 2511,
      "Ġwon": 2512,
      "oice": 2513,
      "Ġcost": 2514,
      "ĠAugust": 2515,
      "ĠOctober": 2516,
      "ULL": 2517,
      "Ġsource": 2518,
      "oke": 2519,
      "Ġstudents": 2520,
      "Ġelect": 2521,
      "ĠDecember": 2522,
      "tings": 2523,
      "ĠBo": 2524,
      ">&": 2525,
      "using": 2526,
      "90": 2527,
      "Ġmar": 2528,
      "Manager": 2529,
      "base": 2530,
      "NA": 2531,
      "ĠNovember": 2532,
      "reate": 2533,
      "creen": 2534,
      "Fr": 2535,
      "Ġexample": 2536,
      "Ġdocument": 2537,
      "ottom": 2538,
      "Ġcharacter": 2539,
      "ĠNorth": 2540,
      "android": 2541,
      "Ġdue": 2542,
      "ilar": 2543,
      "ENT": 2544,
      "--------------------------------": 2545,
      "start": 2546,
      "Ġmillion": 2547,
      "idual": 2548,
      "hel": 2549,
      "abor": 2550,
      "Ġide": 2551,
      "Ġside": 2552,
      "Ġhistory": 2553,
      "Ġant": 2554,
      "oney": 2555,
      "ster": 2556,
      "^{": 2557,
      "print": 2558,
      "do": 2559,
      "ecut": 2560,
      "ĠBrit": 2561,
      "Ġmatch": 2562,
      "Ġsomething": 2563,
      "Ġinstance": 2564,
      "irl": 2565,
      "TD": 2566,
      "Ġparent": 2567,
      "gt": 2568,
      "ĠEl": 2569,
      "Ġlang": 2570,
      "Ġspecial": 2571,
      "Ġfund": 2572,
      "olution": 2573,
      "Reg": 2574,
      "sl": 2575,
      "ana": 2576,
      "ĠOff": 2577,
      "Ġthings": 2578,
      "dom": 2579,
      "....": 2580,
      "ops": 2581,
      "sm": 2582,
      "2010": 2583,
      "istor": 2584,
      "}\\": 2585,
      "oph": 2586,
      "Pr": 2587,
      "Ġaction": 2588,
      "oper": 2589,
      "urg": 2590,
      "Ġbas": 2591,
      "2012": 2592,
      "Ġalbum": 2593,
      "ĠSer": 2594,
      "ĠMe": 2595,
      "Ġlarge": 2596,
      "CE": 2597,
      "roller": 2598,
      "css": 2599,
      "Query": 2600,
      "36": 2601,
      "ormal": 2602,
      "ux": 2603,
      "OD": 2604,
      "hem": 2605,
      "Ġlittle": 2606,
      "Ġrole": 2607,
      "AA": 2608,
      "Ġindex": 2609,
      "ĠRev": 2610,
      "Call": 2611,
      "Ġcomplet": 2612,
      "used": 2613,
      "Ġfeel": 2614,
      "posed": 2615,
      "Ġmax": 2616,
      "================": 2617,
      "Ġprevious": 2618,
      "ruary": 2619,
      "Ġinput": 2620,
      "ament": 2621,
      "34": 2622,
      "Ġcamp": 2623,
      "Ġpract": 2624,
      "valid": 2625,
      "Ġtem": 2626,
      "context": 2627,
      "Ġclear": 2628,
      "Ad": 2629,
      "Ġprovide": 2630,
      "irth": 2631,
      "Table": 2632,
      "eder": 2633,
      "aper": 2634,
      "Ġfar": 2635,
      "Ġtrack": 2636,
      "Ġcrit": 2637,
      "ids": 2638,
      "Ġcover": 2639,
      "aring": 2640,
      "Ġcult": 2641,
      "Ġcolor": 2642,
      "Ġworking": 2643,
      "ĠThat": 2644,
      "37": 2645,
      "ables": 2646,
      "Ġeas": 2647,
      "ĠDis": 2648,
      "ĠGo": 2649,
      "Ġtimes": 2650,
      "Ġvalues": 2651,
      "Ġassoci": 2652,
      "2011": 2653,
      "ĠPres": 2654,
      "Ġmean": 2655,
      "ysis": 2656,
      "Ġclos": 2657,
      "Ġyoung": 2658,
      "adem": 2659,
      "annel": 2660,
      "atri": 2661,
      "Ġdevelopment": 2662,
      "ips": 2663,
      "ino": 2664,
      "idence": 2665,
      "umb": 2666,
      "ĠList": 2667,
      "Property": 2668,
      "Ġmaking": 2669,
      "Color": 2670,
      "doc": 2671,
      "Ġhuman": 2672,
      "ners": 2673,
      "Ġrange": 2674,
      "came": 2675,
      "IL": 2676,
      "icense": 2677,
      "39": 2678,
      "osp": 2679,
      "Ġhost": 2680,
      "Ġgames": 2681,
      "Ġpast": 2682,
      "User": 2683,
      "à¤": 2684,
      "rior": 2685,
      "})": 2686,
      "Ġpage": 2687,
      "cy": 2688,
      "IP": 2689,
      "External": 2690,
      "Ġexperience": 2691,
      "bol": 2692,
      "Ġwar": 2693,
      "Ġgot": 2694,
      "Ġport": 2695,
      "reet": 2696,
      "What": 2697,
      "Ġannoun": 2698,
      "Ġmessage": 2699,
      "Ġredu": 2700,
      "ĠAct": 2701,
      "Ġlot": 2702,
      "no": 2703,
      "Dis": 2704,
      "ham": 2705,
      "01": 2706,
      "Ġrequired": 2707,
      "Ġformer": 2708,
      "Ġbecame": 2709,
      "ills": 2710,
      "ief": 2711,
      "194": 2712,
      "Ġmedia": 2713,
      "package": 2714,
      "ze": 2715,
      "ournal": 2716,
      "yd": 2717,
      "iol": 2718,
      "Ġeduc": 2719,
      "Ġhig": 2720,
      "ogn": 2721,
      "Ġexist": 2722,
      "ĠRuss": 2723,
      "false": 2724,
      "unk": 2725,
      "Ġra": 2726,
      "Ġamong": 2727,
      "Ġaccount": 2728,
      "ĉĉĉĉĉĉ": 2729,
      "rel": 2730,
      "ĠBy": 2731,
      "Ġreview": 2732,
      "eh": 2733,
      "ĠGerm": 2734,
      "see": 2735,
      "Ġemploy": 2736,
      "66": 2737,
      "Ġpot": 2738,
      "CH": 2739,
      "roups": 2740,
      "ĠCor": 2741,
      "ĠHowever": 2742,
      "Ġnil": 2743,
      "Client": 2744,
      "Ġtook": 2745,
      "Ġtable": 2746,
      "=\"../": 2747,
      "ĠĠĠĠĠĠĠĠĠĠ": 2748,
      "Ġsite": 2749,
      "Arg": 2750,
      "Ġproperty": 2751,
      "cover": 2752,
      "era": 2753,
      "Ġjob": 2754,
      "Ġfocus": 2755,
      "Ġnetwork": 2756,
      "rec": 2757,
      "Ġbody": 2758,
      "Ġoften": 2759,
      "ĠWhen": 2760,
      "Ġservices": 2761,
      "Ġnode": 2762,
      "Ġbecome": 2763,
      "No": 2764,
      "Ġable": 2765,
      "vers": 2766,
      "}$": 2767,
      ";</": 2768,
      "Ġbool": 2769,
      "atab": 2770,
      "Ġair": 2771,
      "Ġlik": 2772,
      "ibrary": 2773,
      "Ġep": 2774,
      "ĠDes": 2775,
      "ĠSet": 2776,
      "Ġfive": 2777,
      "google": 2778,
      "sec": 2779,
      "iple": 2780,
      "ĠĠĠĠĠĠĠĠĠĠĠĠ": 2781,
      "38": 2782,
      "ached": 2783,
      "ĠÐ": 2784,
      "Ġlove": 2785,
      "MA": 2786,
      "ged": 2787,
      "Ġleast": 2788,
      "Ġland": 2789,
      "parent": 2790,
      "ifier": 2791,
      "Ġfre": 2792,
      "ered": 2793,
      "Ġfuture": 2794,
      "web": 2795,
      "db": 2796,
      "Ġhouse": 2797,
      "ply": 2798,
      "build": 2799,
      "begin": 2800,
      "ae": 2801,
      "mit": 2802,
      "ĠInt": 2803,
      "Ġaway": 2804,
      "Ġhold": 2805,
      "cell": 2806,
      "TH": 2807,
      "Ġdiv": 2808,
      "ried": 2809,
      "Ġindiv": 2810,
      "Ġ()": 2811,
      "init": 2812,
      "Ġcompet": 2813,
      "Ġtoget": 2814,
      "static": 2815,
      "ĠNot": 2816,
      "Ġtogether": 2817,
      "Response": 2818,
      "Ġpossible": 2819,
      "ĠArt": 2820,
      "aken": 2821,
      "method": 2822,
      "Ġarr": 2823,
      "ration": 2824,
      "Ġlarg": 2825,
      "How": 2826,
      "Ġinitial": 2827,
      "=\"#": 2828,
      "ĠAustral": 2829,
      "Ġdom": 2830,
      "aced": 2831,
      "Ġmeas": 2832,
      "lev": 2833,
      "irm": 2834,
      "ĠPer": 2835,
      "De": 2836,
      "ithub": 2837,
      "Ġperiod": 2838,
      "semb": 2839,
      "actory": 2840,
      "ves": 2841,
      "Sub": 2842,
      "55": 2843,
      "Ġinc": 2844,
      "Ġtreat": 2845,
      "ĠFebruary": 2846,
      "igation": 2847,
      "ope": 2848,
      "Count": 2849,
      "unity": 2850,
      "70": 2851,
      "unch": 2852,
      "Override": 2853,
      "ĠComp": 2854,
      "Ġlow": 2855,
      "Ġdest": 2856,
      "ero": 2857,
      "uation": 2858,
      "check": 2859,
      "Ġbeliev": 2860,
      "Ġsignific": 2861,
      "ĠDep": 2862,
      "dev": 2863,
      "rib": 2864,
      "ĠBar": 2865,
      "light": 2866,
      "Ġconc": 2867,
      "Ġeconom": 2868,
      "thern": 2869,
      "clus": 2870,
      "Ġspace": 2871,
      "aging": 2872,
      "Ġtotal": 2873,
      "Rec": 2874,
      "na": 2875,
      "Ġcomb": 2876,
      "ixed": 2877,
      "avel": 2878,
      "Ġhaving": 2879,
      "alt": 2880,
      "Ġvideo": 2881,
      "Ġrad": 2882,
      "ĠOne": 2883,
      "utions": 2884,
      "Ġfootball": 2885,
      "ĠGener": 2886,
      "ille": 2887,
      "(\\": 2888,
      "Method": 2889,
      "Ġborder": 2890,
      "Ġund": 2891,
      "iting": 2892,
      "ĠPark": 2893,
      "argin": 2894,
      "Ġbackground": 2895,
      "Mod": 2896,
      "Ġben": 2897,
      ">(": 2898,
      "Ġofficial": 2899,
      "max": 2900,
      "You": 2901,
      "ĠDo": 2902,
      "cle": 2903,
      "rest": 2904,
      "ĠStud": 2905,
      "Builder": 2906,
      "ounds": 2907,
      "Ġstd": 2908,
      "Ġclaim": 2909,
      "Ġtrad": 2910,
      "Ġsuper": 2911,
      "PI": 2912,
      "Ð°": 2913,
      "ington": 2914,
      "ĠNews": 2915,
      "Ġcame": 2916,
      "inary": 2917,
      "ĠAfter": 2918,
      "met": 2919,
      "Ġmember": 2920,
      "aul": 2921,
      "array": 2922,
      "Group": 2923,
      "ĠRec": 2924,
      "net": 2925,
      "Ġindividual": 2926,
      "Ġthird": 2927,
      "bserv": 2928,
      "apan": 2929,
      "rew": 2930,
      "ĠIN": 2931,
      "event": 2932,
      "option": 2933,
      "Ġstep": 2934,
      "sel": 2935,
      "year": 2936,
      "Ġevents": 2937,
      "Ġage": 2938,
      "github": 2939,
      "Ġhttps": 2940,
      "AM": 2941,
      "Ġhttp": 2942,
      "Ġstrong": 2943,
      "Ed": 2944,
      "mark": 2945,
      "rodu": 2946,
      "Ġmarket": 2947,
      "Ġexpected": 2948,
      "ĠDav": 2949,
      "Ġwebs": 2950,
      "Ġcreat": 2951,
      "itted": 2952,
      "iff": 2953,
      "Ġsix": 2954,
      "ided": 2955,
      "sup": 2956,
      "ĠAdd": 2957,
      "Ġparticular": 2958,
      "ĠCoun": 2959,
      "ĠAfric": 2960,
      "ocr": 2961,
      "Ġcount": 2962,
      "ename": 2963,
      "part": 2964,
      "illed": 2965,
      "ymbol": 2966,
      "Ġlight": 2967,
      "Ġtalk": 2968,
      "idge": 2969,
      "Ġkind": 2970,
      "Ġreleased": 2971,
      "Ġpoints": 2972,
      "most": 2973,
      "VID": 2974,
      "orage": 2975,
      "Ġmove": 2976,
      "Ass": 2977,
      "struction": 2978,
      "Ġcourse": 2979,
      "ĠThese": 2980,
      "Ġcommon": 2981,
      "with": 2982,
      "Ð¾": 2983,
      "empt": 2984,
      "75": 2985,
      "ological": 2986,
      "imary": 2987,
      "Ġtoday": 2988,
      "ĠHigh": 2989,
      "Fl": 2990,
      "Ġdone": 2991,
      "Ġonce": 2992,
      "ĠQu": 2993,
      "active": 2994,
      "2009": 2995,
      "Ġmeans": 2996,
      "Ġattack": 2997,
      "image": 2998,
      "Ġnational": 2999,
      "Bar": 3000,
      "OP": 3001,
      "Ġcal": 3002,
      "ĠSm": 3003,
      "cil": 3004,
      "Ġtre": 3005,
      ")</": 3006,
      "core": 3007,
      "ĠSch": 3008,
      "position": 3009,
      "func": 3010,
      "ĠII": 3011,
      "witch": 3012,
      "Ġgive": 3013,
      "ĠHis": 3014,
      "Ġmen": 3015,
      "anel": 3016,
      "Str": 3017,
      "hand": 3018,
      "Ġcreated": 3019,
      "ography": 3020,
      "ĠKing": 3021,
      "ĠMark": 3022,
      "Ġreceived": 3023,
      "Ġwhy": 3024,
      "namespace": 3025,
      "ius": 3026,
      "imal": 3027,
      "Ġnews": 3028,
      "Ġlive": 3029,
      "ication": 3030,
      "Util": 3031,
      "eger": 3032,
      "section": 3033,
      "though": 3034,
      "oon": 3035,
      "Date": 3036,
      "style": 3037,
      "Ġinvolv": 3038,
      "Gener": 3039,
      "ĠTrans": 3040,
      "Ġstarted": 3041,
      "Ġactiv": 3042,
      "Image": 3043,
      "ilities": 3044,
      "Stream": 3045,
      "Ġandroid": 3046,
      "Ġwhether": 3047,
      "ald": 3048,
      "Ġothers": 3049,
      "<!--": 3050,
      "iment": 3051,
      "IR": 3052,
      "Ġthough": 3053,
      "ĠĠĠĠĠĠĠĠĠĠĠĠĠĠĠĠĠĠĠĠĠĠĠĠĠĠĠĠĠĠĠ": 3054,
      "null": 3055,
      "fect": 3056,
      "Ġgen": 3057,
      "ires": 3058,
      "Ġplayed": 3059,
      "SC": 3060,
      "anch": 3061,
      "Ġpress": 3062,
      "ĠChar": 3063,
      "options": 3064,
      "Ġbirth": 3065,
      "elling": 3066,
      "ĠEm": 3067,
      "])": 3068,
      "Input": 3069,
      "anies": 3070,
      "ites": 3071,
      "Ġcoll": 3072,
      "Ġsent": 3073,
      "Ġfurther": 3074,
      "ĠHouse": 3075,
      "Ġbuilding": 3076,
      "Ġclose": 3077,
      "ĠTest": 3078,
      "Ġthought": 3079,
      "Ġsignificant": 3080,
      "uggest": 3081,
      "ĠMy": 3082,
      "Ġseen": 3083,
      "member": 3084,
      "flu": 3085,
      "](": 3086,
      "ĠPe": 3087,
      "request": 3088,
      "aur": 3089,
      "Ġmiss": 3090,
      "ese": 3091,
      "atory": 3092,
      "bit": 3093,
      "dir": 3094,
      "ĠWhat": 3095,
      "ĠStr": 3096,
      "Ġsure": 3097,
      "Ġever": 3098,
      "ftware": 3099,
      "ampions": 3100,
      "Ġbegin": 3101,
      "Ã¡": 3102,
      "Ġmaterial": 3103,
      "44": 3104,
      "ONT": 3105,
      "Ġbit": 3106,
      "2008": 3107,
      "istry": 3108,
      "lib": 3109,
      "query": 3110,
      "istic": 3111,
      "Ġabove": 3112,
      "hib": 3113,
      "iet": 3114,
      "ĠVal": 3115,
      "SP": 3116,
      "imum": 3117,
      "Ġeither": 3118,
      "ĠNULL": 3119,
      "ĠHar": 3120,
      "igital": 3121,
      "Ġdate": 3122,
      "ĠUp": 3123,
      "client": 3124,
      "atabase": 3125,
      "Source": 3126,
      "Ġglobal": 3127,
      "Ġlength": 3128,
      "EX": 3129,
      "iddle": 3130,
      "nown": 3131,
      "Ġheld": 3132,
      "Ġsimilar": 3133,
      "ĠĠĠĠĠĠĠĠĠĠĠĠĠĠĠĠĠ": 3134,
      "xy": 3135,
      "Ġstop": 3136,
      "ado": 3137,
      "CC": 3138,
      "ises": 3139,
      "ministr": 3140,
      "Ġopt": 3141,
      "Cell": 3142,
      "Ġrelations": 3143,
      "ĠHealth": 3144,
      "php": 3145,
      "Ġenvironment": 3146,
      "ns": 3147,
      "Ġunderstand": 3148,
      "lin": 3149,
      "Status": 3150,
      "ql": 3151,
      "ĠBro": 3152,
      "Ġtown": 3153,
      "ades": 3154,
      "ging": 3155,
      "ements": 3156,
      "run": 3157,
      "oo": 3158,
      "Ġdisplay": 3159,
      "ks": 3160,
      "Ġaud": 3161,
      "YPE": 3162,
      "Be": 3163,
      "atal": 3164,
      "Ðµ": 3165,
      "Em": 3166,
      "Ġprovided": 3167,
      "Ġrisk": 3168,
      "Ġdoesn": 3169,
      "Ġadded": 3170,
      "Ġinstall": 3171,
      "Ġmakes": 3172,
      "Ġcontinue": 3173,
      "Ġgeneral": 3174,
      "ondon": 3175,
      "current": 3176,
      "aves": 3177,
      "Ġrespect": 3178,
      "args": 3179,
      "asing": 3180,
      "End": 3181,
      "Ġmap": 3182,
      "Ġperformance": 3183,
      "ĠAmerica": 3184,
      "Ġfeature": 3185,
      "da": 3186,
      "Ġsw": 3187,
      "Ġdeterm": 3188,
      "Ġhalf": 3189,
      "Ġener": 3190,
      "gen": 3191,
      "efore": 3192,
      "ĠSec": 3193,
      "rows": 3194,
      "Ġenough": 3195,
      "Ġdiscuss": 3196,
      "Instance": 3197,
      "Ġnight": 3198,
      "FA": 3199,
      "ouch": 3200,
      "irtual": 3201,
      "uel": 3202,
      "Act": 3203,
      "UE": 3204,
      "IM": 3205,
      "has": 3206,
      "Ġ<<": 3207,
      "ociety": 3208,
      "Ġcur": 3209,
      "Ġcertain": 3210,
      "There": 3211,
      "ĠPresident": 3212,
      "Ġpatients": 3213,
      "ĠAc": 3214,
      "ped": 3215,
      "Ġmonths": 3216,
      "button": 3217,
      "ĠĠĊ": 3218,
      "ĠEast": 3219,
      "48": 3220,
      "ĠMon": 3221,
      "Ġimage": 3222,
      "Ġcareer": 3223,
      "Ġrelease": 3224,
      "ĠMich": 3225,
      "Ġoption": 3226,
      "05": 3227,
      "ummer": 3228,
      "Ġbi": 3229,
      "Ġboolean": 3230,
      "ened": 3231,
      "Ġwent": 3232,
      "ĠClass": 3233,
      "ecess": 3234,
      "ĠHer": 3235,
      "Ġfood": 3236,
      "attle": 3237,
      "ica": 3238,
      "page": 3239,
      "ama": 3240,
      "Off": 3241,
      "Ġprint": 3242,
      "ĠNe": 3243,
      "based": 3244,
      "ude": 3245,
      "((": 3246,
      "Pos": 3247,
      "reen": 3248,
      "Ġyet": 3249,
      "ĠInternational": 3250,
      "rect": 3251,
      "Ġmom": 3252,
      "sy": 3253,
      "Ġoutput": 3254,
      "resp": 3255,
      "ocol": 3256,
      "ĠEnglish": 3257,
      "Token": 3258,
      "ij": 3259,
      "ancial": 3260,
      "Ġincluded": 3261,
      "Ġpotential": 3262,
      "ĠAng": 3263,
      "Ġindustry": 3264,
      "pose": 3265,
      "element": 3266,
      "Ġdidn": 3267,
      "ĠIndia": 3268,
      "Ġparticip": 3269,
      "finished": 3270,
      "Ġchall": 3271,
      "ĠInter": 3272,
      "Ġvalid": 3273,
      "Null": 3274,
      "icles": 3275,
      "Ġfeatures": 3276,
      "ference": 3277,
      "Sp": 3278,
      "ervices": 3279,
      "Equal": 3280,
      "OS": 3281,
      "EE": 3282,
      "ĠJapan": 3283,
      "Ġstatus": 3284,
      "Ġindic": 3285,
      "server": 3286,
      "Read": 3287,
      "Ġrespons": 3288,
      "append": 3289,
      "ael": 3290,
      "Ġchanges": 3291,
      "Ġphys": 3292,
      "jav": 3293,
      "Ġnum": 3294,
      "Ġvia": 3295,
      "ries": 3296,
      "lood": 3297,
      "child": 3298,
      "Run": 3299,
      "ford": 3300,
      "0000": 3301,
      "ĠBritish": 3302,
      "lections": 3303,
      "medi": 3304,
      "ategory": 3305,
      "Ġwebsite": 3306,
      "Ġabs": 3307,
      "rown": 3308,
      "count": 3309,
      "Ġmot": 3310,
      "amples": 3311,
      "Action": 3312,
      "Ġfall": 3313,
      "Ġ($": 3314,
      "verage": 3315,
      "lim": 3316,
      "Ġspecific": 3317,
      "acing": 3318,
      "arter": 3319,
      "iles": 3320,
      "'re": 3321,
      "Ġwidth": 3322,
      "ĠCollege": 3323,
      "2007": 3324,
      "Ġ->": 3325,
      "ework": 3326,
      "oved": 3327,
      "yles": 3328,
      "Ġpublished": 3329,
      "Ġlo": 3330,
      "Ġbegan": 3331,
      "change": 3332,
      "Ġopport": 3333,
      "idget": 3334,
      "target": 3335,
      "Ġsearch": 3336,
      "Ġbuilt": 3337,
      "rench": 3338,
      "Block": 3339,
      "aker": 3340,
      "ech": 3341,
      "UL": 3342,
      "Ġthing": 3343,
      "Ġsuggest": 3344,
      "fic": 3345,
      "Ġ\"\"\"": 3346,
      "board": 3347,
      "ĠCenter": 3348,
      "Base": 3349,
      "Ġproduction": 3350,
      "Ġ+=": 3351,
      "gl": 3352,
      "dl": 3353,
      "Ġengine": 3354,
      "izer": 3355,
      "Ġonline": 3356,
      "Attribute": 3357,
      "Ġworks": 3358,
      "ause": 3359,
      "ĠRed": 3360,
      "Ġnamed": 3361,
      "Ġtw": 3362,
      "Ġreported": 3363,
      "Ġvisit": 3364,
      "Ġprob": 3365,
      "Ġvarious": 3366,
      "header": 3367,
      "aid": 3368,
      "chema": 3369,
      "Ġlearn": 3370,
      "aly": 3371,
      "ĠSan": 3372,
      "vis": 3373,
      "Ġcommand": 3374,
      "arning": 3375,
      "ĠDef": 3376,
      "Oper": 3377,
      "ilitary": 3378,
      "REF": 3379,
      "otype": 3380,
      "ring": 3381,
      "Nav": 3382,
      "Ġimplement": 3383,
      "Ġimpact": 3384,
      "Handler": 3385,
      "OL": 3386,
      "IV": 3387,
      "NS": 3388,
      "iforn": 3389,
      "ĠSw": 3390,
      "HT": 3391,
      "Ġfav": 3392,
      "Line": 3393,
      "adding": 3394,
      "align": 3395,
      "Ab": 3396,
      "sequ": 3397,
      "atural": 3398,
      "rowser": 3399,
      "Ġmoney": 3400,
      "pected": 3401,
      "Ġcompanies": 3402,
      "ynam": 3403,
      "Ġwindow": 3404,
      "Ġprotected": 3405,
      "Buffer": 3406,
      "ebug": 3407,
      "Content": 3408,
      "Ġarch": 3409,
      "plit": 3410,
      "Ġreason": 3411,
      "Component": 3412,
      "aign": 3413,
      "Ġlabel": 3414,
      "Ġpur": 3415,
      "host": 3416,
      "nes": 3417,
      "08": 3418,
      "Ġens": 3419,
      "Ġload": 3420,
      "tx": 3421,
      "Ġshows": 3422,
      "Ġenergy": 3423,
      "tries": 3424,
      "lector": 3425,
      "ĠCour": 3426,
      "unfinished": 3427,
      "Options": 3428,
      "ceed": 3429,
      "coming": 3430,
      "rad": 3431,
      "ugin": 3432,
      "Ġbelow": 3433,
      "Ġcases": 3434,
      "ĠAir": 3435,
      "2000": 3436,
      "Ġlanguage": 3437,
      "ĠLondon": 3438,
      "andom": 3439,
      "riter": 3440,
      "Ġitem": 3441,
      "rypt": 3442,
      "dr": 3443,
      "Ġplatform": 3444,
      "ialog": 3445,
      "ramework": 3446,
      "65": 3447,
      "({": 3448,
      "Comp": 3449,
      "Ġtool": 3450,
      "Ġtechnology": 3451,
      "aries": 3452,
      "Ġplayer": 3453,
      "ATE": 3454,
      "roy": 3455,
      "Ġaccept": 3456,
      "ifornia": 3457,
      "uster": 3458,
      "height": 3459,
      "Ġsubject": 3460,
      "Ġdecl": 3461,
      "Link": 3462,
      "sembly": 3463,
      "iation": 3464,
      "ĠDem": 3465,
      "Ġtax": 3466,
      "BC": 3467,
      "Ġclient": 3468,
      "2006": 3469,
      "ship": 3470,
      "Ġinternational": 3471,
      "DO": 3472,
      "Ġaccording": 3473,
      "Ġprofession": 3474,
      "Pre": 3475,
      "Ġaddition": 3476,
      "ĠLaw": 3477,
      "ĠPhil": 3478,
      "arser": 3479,
      "CK": 3480,
      "App": 3481,
      "Ð¸": 3482,
      "bor": 3483,
      "itute": 3484,
      "Ġpersonal": 3485,
      "Ġcy": 3486,
      "Ġcomes": 3487,
      "atrix": 3488,
      "json": 3489,
      "itte": 3490,
      "ris": 3491,
      "nov": 3492,
      "Start": 3493,
      "Ġcopy": 3494,
      "flow": 3495,
      "adata": 3496,
      "ĠĠĠĠĠĠĠĠĠĠĠĠĠĠ": 3497,
      "Ġdeal": 3498,
      "ensive": 3499,
      "izing": 3500,
      "ken": 3501,
      "04": 3502,
      "Ġtold": 3503,
      "plied": 3504,
      "mon": 3505,
      "Prov": 3506,
      "Ġneeds": 3507,
      "uest": 3508,
      "iday": 3509,
      "ĠBlack": 3510,
      "omet": 3511,
      "hing": 3512,
      "unt": 3513,
      "Ġbenef": 3514,
      "Ġpercent": 3515,
      "pha": 3516,
      "Ġamount": 3517,
      "*/": 3518,
      "ĠAssoci": 3519,
      "stream": 3520,
      "eline": 3521,
      "[\"": 3522,
      "Ġtaken": 3523,
      "ĠĠĠĠĠĠĠĠĊ": 3524,
      "ĠAcc": 3525,
      "Ġroom": 3526,
      "Part": 3527,
      "ĠReturn": 3528,
      "ĠRepublic": 3529,
      "ara": 3530,
      "anks": 3531,
      "duc": 3532,
      "aching": 3533,
      "lished": 3534,
      "Ġ...": 3535,
      "ĠMore": 3536,
      "Ġmer": 3537,
      "Ġregion": 3538,
      "Ġclub": 3539,
      "Ġcatch": 3540,
      "ĠCOVID": 3541,
      "abs": 3542,
      "Ġmat": 3543,
      "ĠLa": 3544,
      "Factory": 3545,
      "tributes": 3546,
      "09": 3547,
      "Ġintrodu": 3548,
      "mission": 3549,
      "ĠDon": 3550,
      "ĠWilliam": 3551,
      "ĠGroup": 3552,
      "Ġbar": 3553,
      "Ġfront": 3554,
      "Ġprote": 3555,
      "Ġtell": 3556,
      "iences": 3557,
      "apter": 3558,
      "Ġpopulation": 3559,
      "ND": 3560,
      "Ġmass": 3561,
      "xml": 3562,
      "open": 3563,
      "ellow": 3564,
      "See": 3565,
      "tain": 3566,
      "Ġissues": 3567,
      "oe": 3568,
      "witter": 3569,
      "actions": 3570,
      "fully": 3571,
      "Ġresource": 3572,
      "Ġred": 3573,
      "}{": 3574,
      "07": 3575,
      "Ġrights": 3576,
      "ĠLeague": 3577,
      "Ġagre": 3578,
      "Ġtask": 3579,
      "Function": 3580,
      "property": 3581,
      "ĠTV": 3582,
      "Ġfail": 3583,
      "Ġstream": 3584,
      "undle": 3585,
      "su": 3586,
      "lem": 3587,
      "49": 3588,
      "Ġentire": 3589,
      "When": 3590,
      "Ġgroups": 3591,
      "Ġface": 3592,
      "Ġobserv": 3593,
      "Hel": 3594,
      ".)": 3595,
      "True": 3596,
      "aven": 3597,
      "Ġpolitical": 3598,
      "case": 3599,
      "_{\\": 3600,
      "Ġband": 3601,
      "NO": 3602,
      "Ġareas": 3603,
      "ĠObject": 3604,
      "Ġbring": 3605,
      "Ġapplication": 3606,
      "aine": 3607,
      "pm": 3608,
      "Point": 3609,
      "anced": 3610,
      "ptr": 3611,
      "Ġappear": 3612,
      "obile": 3613,
      "GL": 3614,
      "last": 3615,
      "icip": 3616,
      "Ġthrows": 3617,
      "lean": 3618,
      "Ġhowever": 3619,
      "Ġcompon": 3620,
      "Ġlooking": 3621,
      "Ġcomput": 3622,
      "ĠUK": 3623,
      "status": 3624,
      "Ġproblem": 3625,
      "Ġphot": 3626,
      "Ġcred": 3627,
      "Default": 3628,
      "Ġwatch": 3629,
      "rl": 3630,
      "Ġinj": 3631,
      "ĠWork": 3632,
      "Ġquestion": 3633,
      "pecially": 3634,
      "VER": 3635,
      "ha": 3636,
      "Label": 3637,
      "post": 3638,
      "Ġstrateg": 3639,
      "chiev": 3640,
      "Ġactually": 3641,
      "Ġwritten": 3642,
      "find": 3643,
      "MS": 3644,
      "iber": 3645,
      "Ġpred": 3646,
      "ampionship": 3647,
      "Pol": 3648,
      "first": 3649,
      "ĠSim": 3650,
      "Ġroad": 3651,
      "ĠSen": 3652,
      "allet": 3653,
      "inition": 3654,
      "Ġfire": 3655,
      "Version": 3656,
      "Ġinit": 3657,
      "Ġrout": 3658,
      "After": 3659,
      "TER": 3660,
      "RA": 3661,
      "Ġeffort": 3662,
      "Ġlocated": 3663,
      "Ġblack": 3664,
      "btn": 3665,
      "orge": 3666,
      "Ġcapt": 3667,
      "Ġattempt": 3668,
      "06": 3669,
      "Ġannounced": 3670,
      "elt": 3671,
      "$.": 3672,
      "Ġshare": 3673,
      "ĠChina": 3674,
      "Window": 3675,
      "Ġdouble": 3676,
      "iers": 3677,
      "acity": 3678,
      "Ġmor": 3679,
      "02": 3680,
      "ederal": 3681,
      "push": 3682,
      "Style": 3683,
      "Check": 3684,
      "ĠCalifornia": 3685,
      "ĠGover": 3686,
      "ypes": 3687,
      "LASS": 3688,
      "amily": 3689,
      "){": 3690,
      "Ġimm": 3691,
      "Acc": 3692,
      "eq": 3693,
      "ĠÃ": 3694,
      "ĠDepartment": 3695,
      "Ġver": 3696,
      "ico": 3697,
      "Ġsystems": 3698,
      "Ġcut": 3699,
      "ivil": 3700,
      "Resource": 3701,
      "Ġpolicy": 3702,
      "Ġquick": 3703,
      "Ġrecogn": 3704,
      "idden": 3705,
      "strong": 3706,
      "ospital": 3707,
      "ĠMr": 3708,
      "TO": 3709,
      "Ġey": 3710,
      "ube": 3711,
      "Web": 3712,
      "istrict": 3713,
      "Sup": 3714,
      "Ġhours": 3715,
      "Ġpopular": 3716,
      "navbar": 3717,
      "ocket": 3718,
      "Ġche": 3719,
      "asc": 3720,
      "Number": 3721,
      "pack": 3722,
      "apping": 3723,
      "inst": 3724,
      "Ġupdate": 3725,
      "Ġnov": 3726,
      "ĠSk": 3727,
      "Ġhigher": 3728,
      "ĠOF": 3729,
      "ĠOut": 3730,
      "Task": 3731,
      "Ġled": 3732,
      "Ġincludes": 3733,
      "Ġinstead": 3734,
      "Ġapplic": 3735,
      "ÑĤ": 3736,
      "500": 3737,
      "Ġviol": 3738,
      "resh": 3739,
      "Last": 3740,
      "andid": 3741,
      "ishing": 3742,
      "ĠNone": 3743,
      "ĠDirect": 3744,
      "gener": 3745,
      "ges": 3746,
      "PRO": 3747,
      "78": 3748,
      "ĠIndian": 3749,
      "Ġleaders": 3750,
      "ĠĠĠĠĠĠĠĠĠĠĠĠĊ": 3751,
      "evelop": 3752,
      "ependent": 3753,
      "Ġheight": 3754,
      "Ġrate": 3755,
      "elete": 3756,
      "write": 3757,
      "One": 3758,
      "ĠGL": 3759,
      "Ġneg": 3760,
      "Ġimprov": 3761,
      "Ġground": 3762,
      "2005": 3763,
      "Page": 3764,
      "char": 3765,
      "Ġbehind": 3766,
      "Ġsecurity": 3767,
      "Ġhit": 3768,
      "Ġmanagement": 3769,
      "Ġlikely": 3770,
      "\"]": 3771,
      "stract": 3772,
      "Ġgrad": 3773,
      "Ġago": 3774,
      "atur": 3775,
      "UM": 3776,
      "Us": 3777,
      "Ġarticle": 3778,
      "meta": 3779,
      "FI": 3780,
      "private": 3781,
      "ĠWeb": 3782,
      "Ġcou": 3783,
      "Ġmultiple": 3784,
      "Ġrelationship": 3785,
      "Ġsex": 3786,
      "ledge": 3787,
      "Ġdoing": 3788,
      "Ġcirc": 3789,
      "Ġparty": 3790,
      "ĠFrom": 3791,
      "Ġcurrently": 3792,
      "born": 3793,
      "gle": 3794,
      "atives": 3795,
      "uses": 3796,
      "Row": 3797,
      "ĠIr": 3798,
      "module": 3799,
      "ĠJust": 3800,
      "Ġprior": 3801,
      "soft": 3802,
      "avy": 3803,
      "///": 3804,
      "ĠDay": 3805,
      "selves": 3806,
      "where": 3807,
      "unn": 3808,
      "}.": 3809,
      "95": 3810,
      "Ġalmost": 3811,
      "cial": 3812,
      "ĠResearch": 3813,
      "Ġsepar": 3814,
      "Ġvill": 3815,
      "Ġtaking": 3816,
      "inated": 3817,
      "Ġrather": 3818,
      "Ġwords": 3819,
      "cel": 3820,
      "ĠCons": 3821,
      "src": 3822,
      "urb": 3823,
      "require": 3824,
      "img": 3825,
      "Ġsuff": 3826,
      "Ġrecent": 3827,
      "ĠPat": 3828,
      "Ġanalysis": 3829,
      "First": 3830,
      "Ġhom": 3831,
      "Ġstaff": 3832,
      "ams": 3833,
      "bb": 3834,
      "Ġanim": 3835,
      "03": 3836,
      "ala": 3837,
      "Ġheart": 3838,
      "oring": 3839,
      "Ġ{@": 3840,
      "Ġproducts": 3841,
      "47": 3842,
      "Ġreturned": 3843,
      "Ġgetting": 3844,
      "endif": 3845,
      "py": 3846,
      "ĠNor": 3847,
      "anger": 3848,
      "ĠData": 3849,
      "ĠFirst": 3850,
      "Equals": 3851,
      "Ġnecess": 3852,
      "istance": 3853,
      "});": 3854,
      "anged": 3855,
      "Create": 3856,
      "inn": 3857,
      "Ġsection": 3858,
      "ĠDavid": 3859,
      "Ġpick": 3860,
      "Ġpers": 3861,
      "Ġcolumn": 3862,
      "${": 3863,
      "dated": 3864,
      "Ġsound": 3865,
      "hood": 3866,
      "Ġassociated": 3867,
      "EL": 3868,
      "wise": 3869,
      "ynt": 3870,
      "ĠHol": 3871,
      "ulated": 3872,
      "Ġeducation": 3873,
      "Ġlower": 3874,
      "Ġvot": 3875,
      "ees": 3876,
      "Americ": 3877,
      "Ġson": 3878,
      "heet": 3879,
      "lying": 3880,
      "ening": 3881,
      "istics": 3882,
      "emic": 3883,
      "Ġsold": 3884,
      "ĠStreet": 3885,
      "Ġestablished": 3886,
      "Ġbre": 3887,
      "Ġneeded": 3888,
      "Ġill": 3889,
      "ett": 3890,
      "ABLE": 3891,
      "Child": 3892,
      "Ġfight": 3893,
      "close": 3894,
      "service": 3895,
      "bottom": 3896,
      "joy": 3897,
      "Ġhistor": 3898,
      "std": 3899,
      "ĠSub": 3900,
      "Ġcannot": 3901,
      "encies": 3902,
      "augh": 3903,
      "PC": 3904,
      "FONT": 3905,
      "layout": 3906,
      "Command": 3907,
      "Ġwhite": 3908,
      "Ã³": 3909,
      "irection": 3910,
      "elebr": 3911,
      "ittee": 3912,
      "Ġspecies": 3913,
      "Ġwhole": 3914,
      "Ġcomplete": 3915,
      "Ġbad": 3916,
      "signed": 3917,
      "obj": 3918,
      "Ġalign": 3919,
      "Ġinteg": 3920,
      "Ġwriting": 3921,
      "\").": 3922,
      "Next": 3923,
      "lor": 3924,
      "Ġwrite": 3925,
      "Ġloss": 3926,
      "vey": 3927,
      "fort": 3928,
      "Ġfilms": 3929,
      "Ġissue": 3930,
      "lands": 3931,
      "Ġcollection": 3932,
      "itution": 3933,
      "level": 3934,
      "useum": 3935,
      "Ġtypes": 3936,
      "Ġsat": 3937,
      "sg": 3938,
      "wood": 3939,
      "Ð½": 3940,
      "ĉĊ": 3941,
      "Ġhon": 3942,
      "rm": 3943,
      "Ġtraining": 3944,
      "ection": 3945,
      "Filter": 3946,
      "ili": 3947,
      "Ġrunning": 3948,
      "eed": 3949,
      "ĠCanada": 3950,
      "bf": 3951,
      "chan": 3952,
      "Ġ((": 3953,
      "Ġadditional": 3954,
      "That": 3955,
      "ĠBook": 3956,
      "ÃŃ": 3957,
      "container": 3958,
      "format": 3959,
      "Ġmargin": 3960,
      "Ġinflu": 3961,
      "Ġachiev": 3962,
      "Ġexc": 3963,
      "Ġcross": 3964,
      "Ġforward": 3965,
      "ĠFrench": 3966,
      "pc": 3967,
      "ĉĉĉĉĉĉĉĉ": 3968,
      "Ġterms": 3969,
      "ĠID": 3970,
      "Ġdam": 3971,
      "ville": 3972,
      "88": 3973,
      "Gr": 3974,
      "Ġmind": 3975,
      "Rep": 3976,
      "ifact": 3977,
      "bon": 3978,
      "Ġlost": 3979,
      "Ġaverage": 3980,
      "Ġdistr": 3981,
      "igger": 3982,
      "Ġcontrib": 3983,
      "Ġcontact": 3984,
      "46": 3985,
      "ĠAnt": 3986,
      "Ġfriend": 3987,
      "Ġlocation": 3988,
      "len": 3989,
      "Ġwalk": 3990,
      "project": 3991,
      "Ġbox": 3992,
      "Dr": 3993,
      "Ġincrease": 3994,
      "ascript": 3995,
      "ida": 3996,
      "la": 3997,
      "ĠPort": 3998,
      "Ġseem": 3999,
      "olar": 4000,
      "Back": 4001,
      "Ġpresident": 4002,
      "Ġinternal": 4003,
      "Ġespecially": 4004,
      "2004": 4005,
      "oz": 4006,
      "Ġconsidered": 4007,
      "Ġliter": 4008,
      "Ġcho": 4009,
      "########": 4010,
      "Ġauto": 4011,
      "Ġcontract": 4012,
      "known": 4013,
      "udd": 4014,
      "Ġfem": 4015,
      "attr": 4016,
      "sole": 4017,
      "airs": 4018,
      "erve": 4019,
      "Det": 4020,
      "Ġdescribed": 4021,
      "Ġformat": 4022,
      "ĠDi": 4023,
      "Return": 4024,
      "Format": 4025,
      "omb": 4026,
      "ĠEuropean": 4027,
      "Ġusers": 4028,
      "Ġcenter": 4029,
      "Ġprovides": 4030,
      "ota": 4031,
      "ĠCr": 4032,
      "Ġsaf": 4033,
      "mt": 4034,
      "structor": 4035,
      "Ġupon": 4036,
      "can": 4037,
      "Ġdevice": 4038,
      "Met": 4039,
      "ĠOf": 4040,
      "Ġfig": 4041,
      "Ġround": 4042,
      "menu": 4043,
      "Ġmeet": 4044,
      "Ġsens": 4045,
      "Ġdise": 4046,
      "Ġ<!--": 4047,
      "Ġscreen": 4048,
      "42": 4049,
      "Ġwait": 4050,
      "pite": 4051,
      "Ġrelated": 4052,
      "\"),": 4053,
      "Ġcomment": 4054,
      "Ġelements": 4055,
      "Ġrev": 4056,
      "ĠPublic": 4057,
      "Ġconditions": 4058,
      "77": 4059,
      "Ġtakes": 4060,
      "rief": 4061,
      "select": 4062,
      "Ġregard": 4063,
      "Post": 4064,
      "like": 4065,
      "Ġoffice": 4066,
      "Ġspecified": 4067,
      "Ġextends": 4068,
      "Ġactive": 4069,
      "Ext": 4070,
      "Ġcomplex": 4071,
      "ii": 4072,
      "raz": 4073,
      "IO": 4074,
      "achine": 4075,
      "ĠMal": 4076,
      "Ġcentury": 4077,
      "Ġstandard": 4078,
      "Char": 4079,
      "Ġfa": 4080,
      "Ġdefined": 4081,
      "Ġcampaign": 4082,
      "ago": 4083,
      "ĠUs": 4084,
      "ĠFil": 4085,
      "aa": 4086,
      "mem": 4087,
      "ãģ": 4088,
      "\\\\": 4089,
      "itect": 4090,
      "Ġexecut": 4091,
      "det": 4092,
      "ĠEar": 4093,
      "df": 4094,
      "Ġvict": 4095,
      "TP": 4096,
      "ĠGeneral": 4097,
      "(&": 4098,
      "ĠJames": 4099,
      "Ġquality": 4100,
      "response": 4101,
      "SON": 4102,
      "yr": 4103,
      "cing": 4104,
      "Ġurl": 4105,
      "Per": 4106,
      "Ġtour": 4107,
      "Ġoutside": 4108,
      "entry": 4109,
      "Ġcompos": 4110,
      "////////////////": 4111,
      "kr": 4112,
      "ashington": 4113,
      "enced": 4114,
      "oding": 4115,
      "Ġcoming": 4116,
      "edia": 4117,
      "aches": 4118,
      "Ġcountries": 4119,
      "Ġsus": 4120,
      "Ġmid": 4121,
      "aled": 4122,
      "ya": 4123,
      "Ġexpress": 4124,
      "asons": 4125,
      "room": 4126,
      "ĠGod": 4127,
      "ĠEX": 4128,
      "Ġpolice": 4129,
      "ĠCE": 4130,
      "astic": 4131,
      "ĠPal": 4132,
      "filter": 4133,
      "inding": 4134,
      "Ġepis": 4135,
      "ĠCouncil": 4136,
      "ĠPre": 4137,
      "Ġitself": 4138,
      "Ġtravel": 4139,
      "rote": 4140,
      "Listener": 4141,
      "cape": 4142,
      "Ġgirl": 4143,
      "Ġserver": 4144,
      "description": 4145,
      "Ġbehav": 4146,
      "Ġwr": 4147,
      "png": 4148,
      "mar": 4149,
      "Box": 4150,
      "cd": 4151,
      "Ġunique": 4152,
      "po": 4153,
      "Ġdeg": 4154,
      "ĠService": 4155,
      "Ġliving": 4156,
      ">>": 4157,
      "Ġborn": 4158,
      "ios": 4159,
      "Ġaward": 4160,
      "Ġautom": 4161,
      "Ġfather": 4162,
      "Valid": 4163,
      "itch": 4164,
      "ĠRem": 4165,
      "ĠDistrict": 4166,
      "So": 4167,
      "Ġpack": 4168,
      "ĠEngland": 4169,
      "ĠAustralia": 4170,
      "Ġstation": 4171,
      "Ġfinancial": 4172,
      "Tag": 4173,
      "Ġworked": 4174,
      "Ġtreatment": 4175,
      "grad": 4176,
      "ming": 4177,
      "ttp": 4178,
      "Ġreve": 4179,
      "azon": 4180,
      "ros": 4181,
      "Ġplaying": 4182,
      "olve": 4183,
      "UI": 4184,
      "ĠSome": 4185,
      "Ġnav": 4186,
      "issions": 4187,
      "ĠTechn": 4188,
      "Ġ]": 4189,
      "local": 4190,
      "Ġveh": 4191,
      "Controller": 4192,
      "Pe": 4193,
      "Ġwoman": 4194,
      "ining": 4195,
      "ka": 4196,
      "comes": 4197,
      "uate": 4198,
      "ĠDel": 4199,
      "CL": 4200,
      "Ġtim": 4201,
      "Aut": 4202,
      "Ġweb": 4203,
      "~~": 4204,
      "ufact": 4205,
      "Ġdetails": 4206,
      "aily": 4207,
      "Ġnone": 4208,
      "Ġemer": 4209,
      "ĠRead": 4210,
      "Ġconcern": 4211,
      "ĠPaul": 4212,
      "Ġstates": 4213,
      "Ġvirtual": 4214,
      "ĠMor": 4215,
      "Ġstri": 4216,
      "respond": 4217,
      "$,": 4218,
      "Ġstre": 4219,
      "ias": 4220,
      "ÑĢ": 4221,
      "Ġmag": 4222,
      "Ġsoftware": 4223,
      "ĠCup": 4224,
      "TYPE": 4225,
      "|-": 4226,
      "cret": 4227,
      "CON": 4228,
      "Mem": 4229,
      "Ġdraw": 4230,
      "refix": 4231,
      "Ġhimself": 4232,
      "eck": 4233,
      "ĠPost": 4234,
      "irit": 4235,
      "Ġfiles": 4236,
      "Ġhor": 4237,
      "Ġoperation": 4238,
      "pass": 4239,
      "vest": 4240,
      "Ġdiffic": 4241,
      "gn": 4242,
      "Ġsoon": 4243,
      "IZ": 4244,
      "ĠHREF": 4245,
      "Ġconduct": 4246,
      "ores": 4247,
      "Ġball": 4248,
      "_.": 4249,
      "ĠBer": 4250,
      "ribut": 4251,
      "Ġdistrict": 4252,
      "Ġmethods": 4253,
      "Ġstage": 4254,
      "Ġleading": 4255,
      "Ġaw": 4256,
      "Ġbelieve": 4257,
      "inner": 4258,
      "oul": 4259,
      "Ġteams": 4260,
      "uz": 4261,
      "Ġhot": 4262,
      "Ġdied": 4263,
      "iqu": 4264,
      "ĠRiver": 4265,
      "Address": 4266,
      "BU": 4267,
      "frac": 4268,
      "Ġnames": 4269,
      "ĠDan": 4270,
      "BA": 4271,
      "Top": 4272,
      "javascript": 4273,
      "center": 4274,
      "ulate": 4275,
      "ãĥ": 4276,
      "Ġdifficult": 4277,
      "Ġreturns": 4278,
      "Ġinf": 4279,
      "oom": 4280,
      "Ġcharacters": 4281,
      "Ġflow": 4282,
      "ribution": 4283,
      "update": 4284,
      "ĠRich": 4285,
      "just": 4286,
      "ĠMet": 4287,
      "ATION": 4288,
      "Ġdeveloped": 4289,
      "Ġnothing": 4290,
      "Ġdoc": 4291,
      "params": 4292,
      "uge": 4293,
      "Ġgoal": 4294,
      "Ġstay": 4295,
      "Mode": 4296,
      "foot": 4297,
      "ĠArch": 4298,
      "Output": 4299,
      "ĠEv": 4300,
      "Ġâ": 4301,
      "Ġstructure": 4302,
      "Ġsaw": 4303,
      "Ġwor": 4304,
      "annot": 4305,
      "Ġgrowth": 4306,
      "ares": 4307,
      "American": 4308,
      "reference": 4309,
      "Ġsqu": 4310,
      "etic": 4311,
      "vention": 4312,
      "Ġful": 4313,
      "remove": 4314,
      "instance": 4315,
      "Ġeverything": 4316,
      "ĠRober": 4317,
      "ston": 4318,
      "display": 4319,
      "Ġcallback": 4320,
      "efined": 4321,
      "Button": 4322,
      "Length": 4323,
      "ĠOpen": 4324,
      "Ġenjoy": 4325,
      "show": 4326,
      "ĠTrump": 4327,
      "ĠInc": 4328,
      "ĠCLASS": 4329,
      "Ġnormal": 4330,
      "Ġanything": 4331,
      "ĠLicense": 4332,
      "ĠYear": 4333,
      "Ġbroad": 4334,
      "ĠBest": 4335,
      "Ġserved": 4336,
      "cons": 4337,
      "Ġlonger": 4338,
      "Ġdecision": 4339,
      "ĠReview": 4340,
      "Ġentry": 4341,
      "oyal": 4342,
      "ĠGoogle": 4343,
      "Ġlevels": 4344,
      "URL": 4345,
      "het": 4346,
      "Ġshall": 4347,
      "erc": 4348,
      "ĠAre": 4349,
      "ĠScience": 4350,
      "Ġbuy": 4351,
      "Ġrock": 4352,
      "win": 4353,
      "ĠThom": 4354,
      "Vis": 4355,
      "TS": 4356,
      "Ġge": 4357,
      "ĠFound": 4358,
      "2001": 4359,
      "ĠRE": 4360,
      "izes": 4361,
      "output": 4362,
      "idents": 4363,
      "ĠMart": 4364,
      "cho": 4365,
      "ĠJack": 4366,
      "Ġste": 4367,
      "Co": 4368,
      "rupt": 4369,
      "uid": 4370,
      "pri": 4371,
      "ĠSing": 4372,
      "Ġregister": 4373,
      "Ġmilitary": 4374,
      "ĠCourt": 4375,
      "illing": 4376,
      "Ġcam": 4377,
      "han": 4378,
      "lier": 4379,
      "Ġapproach": 4380,
      "Ġprogress": 4381,
      "prototype": 4382,
      "Ġasked": 4383,
      "force": 4384,
      "irus": 4385,
      "essages": 4386,
      "Rem": 4387,
      "Ġmoment": 4388,
      "Ġexcept": 4389,
      "HO": 4390,
      "Ġdeep": 4391,
      "ĠDiv": 4392,
      "Ġsimple": 4393,
      "urren": 4394,
      "<?": 4395,
      "Provider": 4396,
      ":</": 4397,
      "ĠYour": 4398,
      "Ġrecomm": 4399,
      "acter": 4400,
      "iant": 4401,
      "Ġansw": 4402,
      "rael": 4403,
      "Ġinterface": 4404,
      "ĠMod": 4405,
      "Bl": 4406,
      "pring": 4407,
      "Column": 4408,
      "Ġstore": 4409,
      "verse": 4410,
      "Ġsn": 4411,
      "only": 4412,
      "pol": 4413,
      "ci": 4414,
      "ensions": 4415,
      "85": 4416,
      "2003": 4417,
      "Ġrace": 4418,
      "ental": 4419,
      "otal": 4420,
      "ĠTex": 4421,
      "Ġconsist": 4422,
      "Ġsil": 4423,
      "IF": 4424,
      "ĠIS": 4425,
      "Ġisn": 4426,
      "Ġminutes": 4427,
      "Ġthroughout": 4428,
      "ĠTime": 4429,
      "ERR": 4430,
      "Ġallowed": 4431,
      "Ġforce": 4432,
      "Ġsequ": 4433,
      "final": 4434,
      "Ġstudies": 4435,
      "igin": 4436,
      "number": 4437,
      "Ġsem": 4438,
      "ulations": 4439,
      "Do": 4440,
      "ĠAssociation": 4441,
      "font": 4442,
      "Ġir": 4443,
      "space": 4444,
      "II": 4445,
      "67": 4446,
      "eds": 4447,
      "Ġder": 4448,
      "ĠHT": 4449,
      "Ġproperties": 4450,
      "rated": 4451,
      "UP": 4452,
      "Ġregular": 4453,
      "Ã¼": 4454,
      "ula": 4455,
      "ĠProgram": 4456,
      "Ġboard": 4457,
      "kit": 4458,
      "del": 4459,
      "KE": 4460,
      "ĠWashington": 4461,
      "Ġdigital": 4462,
      "rought": 4463,
      "Ġlimit": 4464,
      "Ġ!==": 4465,
      "Ġproduced": 4466,
      "Ġpain": 4467,
      "Ġidea": 4468,
      "ĠInstitute": 4469,
      "Cache": 4470,
      "Ent": 4471,
      "erved": 4472,
      "CA": 4473,
      "Ġbooks": 4474,
      "Ġadministr": 4475,
      "Url": 4476,
      "icrosoft": 4477,
      "Ġten": 4478,
      "ĠGerman": 4479,
      "ĠBel": 4480,
      "Layout": 4481,
      "Ġresources": 4482,
      "spec": 4483,
      "Ġmoved": 4484,
      "%%": 4485,
      "ĠWhile": 4486,
      "Ġconnection": 4487,
      "returns": 4488,
      "century": 4489,
      "ĉĠĠĠ": 4490,
      "Ġ[]": 4491,
      "Ġword": 4492,
      "Ġselected": 4493,
      "ĠFin": 4494,
      "ĠSee": 4495,
      "ĠTHE": 4496,
      "Ġprobably": 4497,
      "Ġdesigned": 4498,
      "Ġsomeone": 4499,
      "Ġinvolved": 4500,
      "Ġmodels": 4501,
      "Ġtelev": 4502,
      "Ġdirector": 4503,
      "arks": 4504,
      "Spec": 4505,
      "Ġreference": 4506,
      "PO": 4507,
      "dep": 4508,
      "Ġhope": 4509,
      "Ġden": 4510,
      "num": 4511,
      "Min": 4512,
      "Ġdeliver": 4513,
      "Ġmodern": 4514,
      "Ġess": 4515,
      "offset": 4516,
      "icate": 4517,
      "Ġcourt": 4518,
      "Ġreading": 4519,
      "hent": 4520,
      "ĠType": 4521,
      "rian": 4522,
      "Ġmodule": 4523,
      "Ġfont": 4524,
      "inese": 4525,
      "Ġrow": 4526,
      "ERT": 4527,
      "Ġcast": 4528,
      "My": 4529,
      "Ġuses": 4530,
      "++)": 4531,
      "Ġeval": 4532,
      "apped": 4533,
      "ulture": 4534,
      "Ġnorth": 4535,
      "Ġdeb": 4536,
      "Ġbeaut": 4537,
      "ĠOur": 4538,
      "ĠAnn": 4539,
      "Configuration": 4540,
      "Ġsort": 4541,
      "else": 4542,
      "Ġtrying": 4543,
      "ĠMem": 4544,
      "rd": 4545,
      "ping": 4546,
      "```": 4547,
      "ĠĠĠĠĠĠĠĠĠĠĠĠĠĠĠĠĠĠĠĠĠĠĠĠĠĠĠĠĠĠĠĠĠĠĠ": 4548,
      "process": 4549,
      "Ġvacc": 4550,
      "ba": 4551,
      "ĠDemocr": 4552,
      "Ġlatest": 4553,
      "Ġthemselves": 4554,
      "Ġjo": 4555,
      "ĠHall": 4556,
      "iding": 4557,
      "Ġcandid": 4558,
      "uint": 4559,
      "ĠMusic": 4560,
      "ĠNow": 4561,
      "Ġjud": 4562,
      "tag": 4563,
      "mm": 4564,
      "Ġwrote": 4565,
      "COL": 4566,
      "adow": 4567,
      "Ġmatter": 4568,
      "Update": 4569,
      "expected": 4570,
      "Ġcompl": 4571,
      "Ġelection": 4572,
      "berg": 4573,
      "tool": 4574,
      "imately": 4575,
      "ĠLog": 4576,
      "Work": 4577,
      "Ġwanted": 4578,
      "mitted": 4579,
      "Ġevidence": 4580,
      "').": 4581,
      "Ġnatural": 4582,
      "2002": 4583,
      "Ġwhose": 4584,
      "NAME": 4585,
      "Ġcelebr": 4586,
      "Ġmother": 4587,
      "Ġobj": 4588,
      "Ġimmedi": 4589,
      "ĠVol": 4590,
      "********************************": 4591,
      "Can": 4592,
      "Ġchalleng": 4593,
      "rial": 4594,
      "older": 4595,
      "ano": 4596,
      "ternet": 4597,
      "Frame": 4598,
      "ĠWhite": 4599,
      "ĠHam": 4600,
      "59": 4601,
      "Target": 4602,
      "Ġlegal": 4603,
      "term": 4604,
      "ĠAPI": 4605,
      "Access": 4606,
      "ilies": 4607,
      "inate": 4608,
      "ĠQue": 4609,
      "Ġprofessional": 4610,
      "Ġfriends": 4611,
      "68": 4612,
      "VAL": 4613,
      "Ġshown": 4614,
      "iler": 4615,
      "Open": 4616,
      "Ð¾Ð": 4617,
      "Ġdead": 4618,
      "ĠBen": 4619,
      "DB": 4620,
      "Ġrecently": 4621,
      "Ñģ": 4622,
      "cite": 4623,
      "wide": 4624,
      "ĠSam": 4625,
      "ĠMag": 4626,
      "Ġseems": 4627,
      "band": 4628,
      "Ġfun": 4629,
      "Bundle": 4630,
      "Ag": 4631,
      "Ġchanged": 4632,
      "Ġpassed": 4633,
      "zer": 4634,
      "ctor": 4635,
      "itar": 4636,
      "Ġpurch": 4637,
      "Types": 4638,
      "Ġthreat": 4639,
      "Ġteach": 4640,
      "sych": 4641,
      "Ġsubs": 4642,
      "Ġpattern": 4643,
      "Ġprice": 4644,
      "ĠMichael": 4645,
      "styles": 4646,
      "mercial": 4647,
      "Ġstudent": 4648,
      "Ġpaper": 4649,
      "PR": 4650,
      "ĠSl": 4651,
      "Ġquite": 4652,
      "ĠCam": 4653,
      "Ġeveryone": 4654,
      "Ġweeks": 4655,
      "Ġculture": 4656,
      "Ġsense": 4657,
      "Ġfrequ": 4658,
      "ĠRef": 4659,
      "Ġ**": 4660,
      "author": 4661,
      "Ġsend": 4662,
      "Ġways": 4663,
      "Ġsche": 4664,
      "Ġjoin": 4665,
      "ĠPress": 4666,
      "ena": 4667,
      "Ġcause": 4668,
      "TI": 4669,
      "Server": 4670,
      "ipe": 4671,
      "iece": 4672,
      "scope": 4673,
      "ĠParty": 4674,
      "Ġactivity": 4675,
      "Ġeffects": 4676,
      "ĠMac": 4677,
      "Ġfailed": 4678,
      "ĠGl": 4679,
      "57": 4680,
      "chedul": 4681,
      "ĠOver": 4682,
      "Ġinside": 4683,
      "ria": 4684,
      "Ġensure": 4685,
      "41": 4686,
      "Ġcontains": 4687,
      "Ġpret": 4688,
      "hest": 4689,
      "mathcal": 4690,
      "Ġconnect": 4691,
      "ĠAward": 4692,
      "hi": 4693,
      "ducation": 4694,
      "Ġfavor": 4695,
      "ĠJer": 4696,
      "ĠAfrica": 4697,
      "SA": 4698,
      "long": 4699,
      "olic": 4700,
      "Ġpartners": 4701,
      "aml": 4702,
      "Ġlives": 4703,
      "Ġsolid": 4704,
      "aud": 4705,
      "Width": 4706,
      "Ġcalc": 4707,
      "43": 4708,
      "Ġparts": 4709,
      "Ġcook": 4710,
      "aughter": 4711,
      "Entry": 4712,
      "gin": 4713,
      "ona": 4714,
      "itory": 4715,
      "aling": 4716,
      "Ġinterview": 4717,
      "Ġsouth": 4718,
      "ĠDec": 4719,
      "Parameter": 4720,
      "mas": 4721,
      "Ġpor": 4722,
      "Dev": 4723,
      "dat": 4724,
      "izations": 4725,
      "Ġwest": 4726,
      "58": 4727,
      "ĠLou": 4728,
      "ĠCong": 4729,
      "Ġmedical": 4730,
      "ander": 4731,
      "Ġ$(": 4732,
      "Ġprotect": 4733,
      "Ġqual": 4734,
      "Ġprimary": 4735,
      "support": 4736,
      "Ġpromot": 4737,
      ":\"": 4738,
      "Ġvers": 4739,
      "Ġmus": 4740,
      "Container": 4741,
      "Ġbound": 4742,
      "Ġroot": 4743,
      "ãĤ": 4744,
      "Le": 4745,
      "ĠLeg": 4746,
      "'m": 4747,
      "evelopment": 4748,
      "ĠEnd": 4749,
      "ĠFrance": 4750,
      "Ġmode": 4751,
      "alls": 4752,
      "Ġbirths": 4753,
      "ĠGreen": 4754,
      "Ġquestions": 4755,
      "56": 4756,
      "ecute": 4757,
      "Ġtelevision": 4758,
      "Ġdemon": 4759,
      "lymp": 4760,
      "west": 4761,
      "()->": 4762,
      "(_": 4763,
      "Ġplant": 4764,
      "ĠRoad": 4765,
      "Ġselect": 4766,
      "Ġremove": 4767,
      "Ge": 4768,
      "ĠGeorge": 4769,
      "ĠForm": 4770,
      "Ġoperations": 4771,
      "Mar": 4772,
      "template": 4773,
      "Max": 4774,
      "Ġeasy": 4775,
      "CD": 4776,
      "essor": 4777,
      "utils": 4778,
      "ĠChurch": 4779,
      "stant": 4780,
      "istan": 4781,
      "Ġprep": 4782,
      "break": 4783,
      "icient": 4784,
      "ĠChampionship": 4785,
      "Par": 4786,
      "'ve": 4787,
      "estival": 4788,
      "Ġoffers": 4789,
      "agon": 4790,
      "Ġgave": 4791,
      "Ġsurv": 4792,
      "ĠCompany": 4793,
      "Ġestablish": 4794,
      "arily": 4795,
      "Ġparameter": 4796,
      "Sec": 4797,
      "ims": 4798,
      "cs": 4799,
      "Ġlen": 4800,
      "ĠAngel": 4801,
      "Ġreceive": 4802,
      "ĠDE": 4803,
      "more": 4804,
      "Ġlines": 4805,
      "adian": 4806,
      "column": 4807,
      "nor": 4808,
      "Ġhandle": 4809,
      "Direct": 4810,
      "enge": 4811,
      "ĠFile": 4812,
      "Ġuint": 4813,
      "CODE": 4814,
      "common": 4815,
      "cr": 4816,
      "Ġincreased": 4817,
      "Ġavoid": 4818,
      "ĠTexas": 4819,
      "gor": 4820,
      "icens": 4821,
      "Ġcells": 4822,
      "]);": 4823,
      "Ġpositive": 4824,
      "iring": 4825,
      "=\"../../../../../": 4826,
      "task": 4827,
      "Ġpractice": 4828,
      "edy": 4829,
      "ĠMus": 4830,
      "onder": 4831,
      "\\\"": 4832,
      "outhern": 4833,
      "andemic": 4834,
      "isions": 4835,
      "Ġmis": 4836,
      "Ġdrug": 4837,
      "late": 4838,
      "Ġdirectly": 4839,
      "ĠKe": 4840,
      "should": 4841,
      "ĠBuild": 4842,
      "Ġproblems": 4843,
      "akers": 4844,
      "Ġschools": 4845,
      "window": 4846,
      "Ġparameters": 4847,
      "urt": 4848,
      "Bo": 4849,
      "ĠSund": 4850,
      "Ġmeeting": 4851,
      "Ġlearning": 4852,
      "Am": 4853,
      "Ġclin": 4854,
      "Utils": 4855,
      "Ġexpand": 4856,
      "ĠBusiness": 4857,
      "files": 4858,
      "pes": 4859,
      "covery": 4860,
      "rapper": 4861,
      "Case": 4862,
      "arrow": 4863,
      "Ġcorrect": 4864,
      "Ġfast": 4865,
      "Interface": 4866,
      "Ġargs": 4867,
      "Ġcard": 4868,
      "wner": 4869,
      "Ġitems": 4870,
      "Ġemail": 4871,
      "Ġnovel": 4872,
      "Ġactivities": 4873,
      "%;": 4874,
      "unit": 4875,
      "ĠArray": 4876,
      "Ġoffset": 4877,
      "ĠTom": 4878,
      "Ob": 4879,
      "ua": 4880,
      "criptor": 4881,
      "Ġtransfer": 4882,
      "Ġscient": 4883,
      "Ġunit": 4884,
      "Ġcharg": 4885,
      "ponents": 4886,
      "acebook": 4887,
      "NE": 4888,
      "Ġfilter": 4889,
      "Ġmovie": 4890,
      "Ġhous": 4891,
      "Ġallows": 4892,
      "Ġsession": 4893,
      "iller": 4894,
      "Go": 4895,
      "gan": 4896,
      "icial": 4897,
      "ambda": 4898,
      "Ġinsp": 4899,
      "ĠSeries": 4900,
      "Ġstories": 4901,
      "ĠAlex": 4902,
      "Ġquery": 4903,
      "Ġtowards": 4904,
      "Ġmanufact": 4905,
      "Ġbuffer": 4906,
      "Ġtransform": 4907,
      "greg": 4908,
      "Ġfloat": 4909,
      "parse": 4910,
      "QL": 4911,
      "ĠST": 4912,
      "eft": 4913,
      "porary": 4914,
      "main": 4915,
      "alle": 4916,
      "artifact": 4917,
      "Ġfields": 4918,
      "97": 4919,
      "sd": 4920,
      "prove": 4921,
      "tab": 4922,
      "Rel": 4923,
      "match": 4924,
      "ini": 4925,
      "oma": 4926,
      "Ġstatement": 4927,
      "antic": 4928,
      "ĠCheck": 4929,
      "Ã¤": 4930,
      "sey": 4931,
      "Ġcontinued": 4932,
      "cache": 4933,
      "ifying": 4934,
      "Tree": 4935,
      "igr": 4936,
      "icks": 4937,
      "Ġreli": 4938,
      "Ġdisease": 4939,
      "Ġprojects": 4940,
      "Ġseek": 4941,
      "Offset": 4942,
      "AV": 4943,
      "Ġmeasure": 4944,
      "Ġrules": 4945,
      "ĠApp": 4946,
      "ancy": 4947,
      "root": 4948,
      "iful": 4949,
      "98": 4950,
      "PA": 4951,
      "300": 4952,
      "Ġprevent": 4953,
      "Ġscience": 4954,
      "Ġbank": 4955,
      "IGN": 4956,
      "Ġneigh": 4957,
      "ĠNet": 4958,
      "Ġscale": 4959,
      "ynamic": 4960,
      "za": 4961,
      "Ġquarter": 4962,
      "bool": 4963,
      "ĠProject": 4964,
      "ĠGold": 4965,
      "Ġflo": 4966,
      "Ġleave": 4967,
      "API": 4968,
      "ĠUkr": 4969,
      "Ġlack": 4970,
      "ixt": 4971,
      "ĠRob": 4972,
      "aste": 4973,
      "SD": 4974,
      "Ġmention": 4975,
      "ĠIsrael": 4976,
      "MO": 4977,
      "etch": 4978,
      "ĠLife": 4979,
      "Ġhum": 4980,
      "Ġdepend": 4981,
      "ĠReturns": 4982,
      ")(": 4983,
      "ĠRel": 4984,
      "Ġclean": 4985,
      "Ġmount": 4986,
      "Ġnecessary": 4987,
      "ĠSur": 4988,
      "Ġcompleted": 4989,
      "BO": 4990,
      "opyright": 4991,
      "Ġeconomic": 4992,
      "FL": 4993,
      "Ġsimply": 4994,
      "ĠAut": 4995,
      "Ġknowledge": 4996,
      "Ġinvestig": 4997,
      "ULT": 4998,
      "Ġcapital": 4999,
      "Ġwife": 5000,
      "ĠMary": 5001,
      "Ġmemory": 5002,
      "'ll": 5003,
      "Del": 5004,
      "Ġlock": 5005,
      "Ġmechan": 5006,
      "Ġtransport": 5007,
      "Ġcompared": 5008,
      "Ġbrand": 5009,
      "Ġcollect": 5010,
      "Ã¶": 5011,
      "Process": 5012,
      "si": 5013,
      "Ġfollowed": 5014,
      "pat": 5015,
      "Ġfinally": 5016,
      "ĠJournal": 5017,
      "She": 5018,
      "ACK": 5019,
      "Ġsuccessful": 5020,
      "Br": 5021,
      "Ġshared": 5022,
      "Eng": 5023,
      "burg": 5024,
      "Ġgraph": 5025,
      "Ġeast": 5026,
      "ĠFore": 5027,
      "ĠUnion": 5028,
      "Ġextra": 5029,
      "Ġtag": 5030,
      "Ġsen": 5031,
      "Location": 5032,
      "Load": 5033,
      "ania": 5034,
      "Ġsafety": 5035,
      "ustain": 5036,
      "ao": 5037,
      "ART": 5038,
      "Dec": 5039,
      "Ġstar": 5040,
      "Ġplans": 5041,
      "Ġexisting": 5042,
      "Ġsupported": 5043,
      "document": 5044,
      "classes": 5045,
      "Search": 5046,
      "Ġexpression": 5047,
      "icted": 5048,
      "nected": 5049,
      "Ġ;": 5050,
      "ĠShow": 5051,
      "ĠSociety": 5052,
      "Ġstarting": 5053,
      "float": 5054,
      "Ġappoint": 5055,
      "imation": 5056,
      "Ġsym": 5057,
      "ĠMont": 5058,
      "Ġexact": 5059,
      "Ġconcept": 5060,
      "Ġetc": 5061,
      "cribe": 5062,
      "96": 5063,
      "ĠChinese": 5064,
      "icine": 5065,
      "Ġign": 5066,
      "patch": 5067,
      "Ġusually": 5068,
      "ĠRussian": 5069,
      ".$": 5070,
      "ucture": 5071,
      "Ġrepl": 5072,
      "Ġopportunity": 5073,
      "ario": 5074,
      "ĠMiss": 5075,
      "ĠCap": 5076,
      "ĠProf": 5077,
      "queue": 5078,
      "ctx": 5079,
      "icture": 5080,
      "PS": 5081,
      "ĠAv": 5082,
      "Ġability": 5083,
      "Ġsett": 5084,
      "Ġlimited": 5085,
      "Ġassess": 5086,
      "itude": 5087,
      "alpha": 5088,
      "ĠRobert": 5089,
      "buffer": 5090,
      "mut": 5091,
      "Ġtemper": 5092,
      "ously": 5093,
      "ecution": 5094,
      "ĠDet": 5095,
      "=\"-": 5096,
      "Header": 5097,
      "Ġvs": 5098,
      "leep": 5099,
      "Thread": 5100,
      "Ġ{}": 5101,
      "anges": 5102,
      "Control": 5103,
      "reek": 5104,
      "1999": 5105,
      "ĠOper": 5106,
      "resource": 5107,
      "ĉĉĉĉĉĉĉ": 5108,
      "olf": 5109,
      "ĠBay": 5110,
      "Ġeight": 5111,
      "ĠVir": 5112,
      "Inst": 5113,
      "Ġactual": 5114,
      "iger": 5115,
      "DA": 5116,
      "itable": 5117,
      "Ġnor": 5118,
      "Ġdemonstr": 5119,
      "Ġrequ": 5120,
      "ĠAcadem": 5121,
      "ĠHel": 5122,
      "ĠProv": 5123,
      "Ġbrought": 5124,
      "Sl": 5125,
      "Ġmale": 5126,
      "Ġ::": 5127,
      "ĠGermany": 5128,
      "yth": 5129,
      "ĠClub": 5130,
      "quired": 5131,
      "ĠPlay": 5132,
      "([": 5133,
      "Ġtree": 5134,
      "ependency": 5135,
      "ensor": 5136,
      "Ġorganization": 5137,
      "86": 5138,
      "ĠMount": 5139,
      "sa": 5140,
      "Ġopened": 5141,
      "Ġprograms": 5142,
      "Ġprop": 5143,
      "ĠĠĠĠĠĠĠĠĠĠĠĠĠĠĠĠĠĠĠĠĠ": 5144,
      ";->": 5145,
      "ĠBig": 5146,
      "ĠIsland": 5147,
      "small": 5148,
      "icket": 5149,
      "aming": 5150,
      "Ġjournal": 5151,
      "UB": 5152,
      "Ġgets": 5153,
      "Ġvillage": 5154,
      "ĠTop": 5155,
      "Ġrespond": 5156,
      "Empty": 5157,
      "Ġnumbers": 5158,
      "Ġperformed": 5159,
      "gu": 5160,
      "History": 5161,
      "Lo": 5162,
      "Ġperfect": 5163,
      "Script": 5164,
      "Ġprinc": 5165,
      "Ġlargest": 5166,
      "Ġrelig": 5167,
      "][": 5168,
      "ALL": 5169,
      "Ġsigned": 5170,
      "ĠSmith": 5171,
      "ĠOther": 5172,
      "Entity": 5173,
      "Ġaltern": 5174,
      "Ġearlier": 5175,
      "Range": 5176,
      "INE": 5177,
      "Ġdescription": 5178,
      "Ġrender": 5179,
      "Ġcollabor": 5180,
      "STR": 5181,
      "house": 5182,
      "Write": 5183,
      "ĠFlor": 5184,
      "ega": 5185,
      "ĠHistory": 5186,
      "Height": 5187,
      "Ġsaying": 5188,
      "Ġexception": 5189,
      "ĠOR": 5190,
      "Ġ(\"": 5191,
      "eal": 5192,
      "Ġconv": 5193,
      "'),": 5194,
      "ĠBi": 5195,
      "plicit": 5196,
      "Ġwriter": 5197,
      "ĠChe": 5198,
      "ĠRad": 5199,
      "Ġseven": 5200,
      "hat": 5201,
      "ĠSal": 5202,
      "ĠCreate": 5203,
      "drop": 5204,
      "CR": 5205,
      "Ġmicro": 5206,
      ")$": 5207,
      "Ġsports": 5208,
      "gate": 5209,
      "Ġempty": 5210,
      "rt": 5211,
      "ĠCommission": 5212,
      "SH": 5213,
      "ĠDirector": 5214,
      "Ġpark": 5215,
      "Ġswitch": 5216,
      "well": 5217,
      "draw": 5218,
      "ĠMex": 5219,
      "ĠHere": 5220,
      "Module": 5221,
      "overs": 5222,
      "ĠCarol": 5223,
      "Ġworth": 5224,
      "1990": 5225,
      "Ġexam": 5226,
      "Ġmulti": 5227,
      "icated": 5228,
      "Ġsetting": 5229,
      "background": 5230,
      "ĠFriday": 5231,
      "Current": 5232,
      ",\\": 5233,
      "Change": 5234,
      "./": 5235,
      "Ident": 5236,
      "AND": 5237,
      "!!": 5238,
      "Ġdiscover": 5239,
      "\"))": 5240,
      "ani": 5241,
      "gorith": 5242,
      "Ġdark": 5243,
      "road": 5244,
      "âĢĿ.": 5245,
      "MM": 5246,
      "Serial": 5247,
      "ifest": 5248,
      "Json": 5249,
      "Mon": 5250,
      "fa": 5251,
      "Callback": 5252,
      "ĠBoard": 5253,
      "IZE": 5254,
      "Ġplaces": 5255,
      "51": 5256,
      "Ġnumer": 5257,
      "Op": 5258,
      "artifactId": 5259,
      "Ġgoes": 5260,
      "ĠMad": 5261,
      "Ġparents": 5262,
      "Rev": 5263,
      "Ġfans": 5264,
      "TC": 5265,
      "Ġrestr": 5266,
      "Ġdistribut": 5267,
      "Ġsave": 5268,
      "400": 5269,
      "Port": 5270,
      "Ġshot": 5271,
      "hr": 5272,
      "Params": 5273,
      "tree": 5274,
      "Ġfamilies": 5275,
      "ĠFe": 5276,
      "och": 5277,
      "52": 5278,
      "Ġnature": 5279,
      "Ġbeginning": 5280,
      "anda": 5281,
      "Ġremain": 5282,
      "bert": 5283,
      "Ġalthough": 5284,
      "ĠAssert": 5285,
      "Ġincreasing": 5286,
      "ĠRussia": 5287,
      "Ġdro": 5288,
      "Ġselection": 5289,
      "Ġdebut": 5290,
      "osis": 5291,
      "PL": 5292,
      "Ġinfo": 5293,
      "dec": 5294,
      "''": 5295,
      "isation": 5296,
      "}_": 5297,
      "Ġ~": 5298,
      "None": 5299,
      "Level": 5300,
      "ellig": 5301,
      "Ġcorrespond": 5302,
      "itation": 5303,
      "itiz": 5304,
      ".;": 5305,
      "ĠâĢ¦": 5306,
      "Ġcontr": 5307,
      "FO": 5308,
      "ivacy": 5309,
      "angle": 5310,
      "ĠArmy": 5311,
      "tml": 5312,
      "Fe": 5313,
      "ĠUR": 5314,
      "exp": 5315,
      "Ġsummer": 5316,
      "ancis": 5317,
      "ĠÎ": 5318,
      "Ġbal": 5319,
      "uted": 5320,
      "Ġgas": 5321,
      "Ġconsum": 5322,
      "}(": 5323,
      "aders": 5324,
      "ĠPlan": 5325,
      "=\"_": 5326,
      "ls": 5327,
      "ĠTre": 5328,
      "Ġshoot": 5329,
      "ĠLong": 5330,
      "reme": 5331,
      "ĠCD": 5332,
      "INT": 5333,
      "Ġ*)": 5334,
      "Option": 5335,
      "Description": 5336,
      "ĠStar": 5337,
      "ĠJew": 5338,
      "Ġprec": 5339,
      "ĠBank": 5340,
      "ĠCentral": 5341,
      "Me": 5342,
      "ici": 5343,
      "osh": 5344,
      "ĠEducation": 5345,
      "azine": 5346,
      "Ġq": 5347,
      "Ġcentral": 5348,
      "Ġpreviously": 5349,
      "Position": 5350,
      "Ġjoined": 5351,
      "Ġpull": 5352,
      "bin": 5353,
      "Ġreports": 5354,
      "Ġpandemic": 5355,
      "Project": 5356,
      "Ġprem": 5357,
      "54": 5358,
      "ein": 5359,
      "ĠOffice": 5360,
      "Http": 5361,
      "site": 5362,
      "illa": 5363,
      "Ġmiddle": 5364,
      "Ġserious": 5365,
      "tained": 5366,
      "Ġcondition": 5367,
      "Ġdemand": 5368,
      "Ġinnov": 5369,
      "anned": 5370,
      "Ġraise": 5371,
      "cap": 5372,
      "Ġenter": 5373,
      "then": 5374,
      "Ġrule": 5375,
      "ĠThen": 5376,
      "pers": 5377,
      "token": 5378,
      "Ġworkers": 5379,
      "ĠGovernment": 5380,
      "ĠčĊ": 5381,
      "aturday": 5382,
      "plete": 5383,
      "mes": 5384,
      "Ġquickly": 5385,
      "Ġsurface": 5386,
      "Ġmeaning": 5387,
      "Ġnet": 5388,
      "Ġchannel": 5389,
      "Ġsets": 5390,
      "Ġanti": 5391,
      "ĠDate": 5392,
      "Down": 5393,
      "flict": 5394,
      "Ġtrade": 5395,
      "Ġweight": 5396,
      "Ġfunctions": 5397,
      "Ġtouch": 5398,
      "Ġwide": 5399,
      "control": 5400,
      "ĠMer": 5401,
      "orial": 5402,
      "Unit": 5403,
      "ĠPM": 5404,
      "Ġsomet": 5405,
      "fs": 5406,
      "ĠWed": 5407,
      "Ġdeaths": 5408,
      "unities": 5409,
      "agment": 5410,
      "mat": 5411,
      "kind": 5412,
      "Ġphysical": 5413,
      "ĠCamp": 5414,
      "Ġplease": 5415,
      "ĠAfrican": 5416,
      "ĠSuper": 5417,
      "uri": 5418,
      "jo": 5419,
      "osing": 5420,
      "Ġcustomers": 5421,
      "Ġcomponent": 5422,
      "Ġter": 5423,
      ">,": 5424,
      "Ġsolution": 5425,
      "Ġcivil": 5426,
      "Ġpm": 5427,
      "oday": 5428,
      "Hash": 5429,
      "haps": 5430,
      "ronic": 5431,
      "=\"../../../../../../": 5432,
      "Ġapply": 5433,
      "SL": 5434,
      "ĠServices": 5435,
      "53": 5436,
      "groupId": 5437,
      "Session": 5438,
      "icago": 5439,
      "Ġsurpr": 5440,
      "Ġscope": 5441,
      "?âĢĿ": 5442,
      "Ġimprove": 5443,
      "Ġscore": 5444,
      "Ġearn": 5445,
      "Ġfit": 5446,
      "Ġwrong": 5447,
      "Record": 5448,
      "card": 5449,
      "Ġassist": 5450,
      "PECT": 5451,
      "Ġclosed": 5452,
      "Ġotherwise": 5453,
      "ĉĠ": 5454,
      "ibly": 5455,
      "Ġpretty": 5456,
      "ursor": 5457,
      "atre": 5458,
      "Ġhar": 5459,
      "Ġstreng": 5460,
      "Local": 5461,
      "Ġspeed": 5462,
      "empty": 5463,
      "ĠChristian": 5464,
      "Ġsongs": 5465,
      "ved": 5466,
      "Ġslow": 5467,
      "Document": 5468,
      "Ġconstruction": 5469,
      "clear": 5470,
      "Ġeditor": 5471,
      "Ġdegree": 5472,
      "ĠOlymp": 5473,
      "Ġleader": 5474,
      "Ġbillion": 5475,
      "IA": 5476,
      "ĠTor": 5477,
      "equation": 5478,
      "Ġmanager": 5479,
      "boot": 5480,
      "onday": 5481,
      "men": 5482,
      "Ġ>=": 5483,
      "atin": 5484,
      "ĠSunday": 5485,
      "care": 5486,
      "COLOR": 5487,
      "Ġalt": 5488,
      "Ġdecided": 5489,
      "imer": 5490,
      "iverse": 5491,
      "enty": 5492,
      "Ġlaunch": 5493,
      "ologies": 5494,
      "Ġgold": 5495,
      "Ġexhib": 5496,
      "device": 5497,
      "asket": 5498,
      "IB": 5499,
      "ĠCall": 5500,
      "Ġarchitect": 5501,
      "Ġsal": 5502,
      "Ġvert": 5503,
      "ĠGrand": 5504,
      "Ġmut": 5505,
      "Ġscen": 5506,
      "Ġtraditional": 5507,
      "weight": 5508,
      "Ġsecret": 5509,
      "agram": 5510,
      "uit": 5511,
      "track": 5512,
      "Ġarguments": 5513,
      "anta": 5514,
      "ky": 5515,
      "Sim": 5516,
      "ictionary": 5517,
      "Ġnearly": 5518,
      "ĠBill": 5519,
      "87": 5520,
      "ĠGen": 5521,
      "ounter": 5522,
      "Ġcouple": 5523,
      "CTION": 5524,
      "mail": 5525,
      "ĠTwitter": 5526,
      "Ġdram": 5527,
      "Ġreach": 5528,
      "alian": 5529,
      "Ġframe": 5530,
      "aints": 5531,
      "ĠMinister": 5532,
      "aved": 5533,
      "Home": 5534,
      "FC": 5535,
      "Ġclimate": 5536,
      "ĠMuseum": 5537,
      "Dep": 5538,
      "ĠUnder": 5539,
      "People": 5540,
      "Sign": 5541,
      "ĠFacebook": 5542,
      "ror": 5543,
      "AGE": 5544,
      "ĠException": 5545,
      "weet": 5546,
      "Settings": 5547,
      "coin": 5548,
      "oms": 5549,
      "Ġrank": 5550,
      "ĠMedia": 5551,
      "Ġturned": 5552,
      "Ġhol": 5553,
      "endar": 5554,
      "Ġfeed": 5555,
      "ĠGreat": 5556,
      "255": 5557,
      "gment": 5558,
      "Ġfully": 5559,
      "Ġwild": 5560,
      "Ġgun": 5561,
      "ĠThomas": 5562,
      "pret": 5563,
      "uing": 5564,
      "Connection": 5565,
      "ĠWil": 5566,
      "Ġoverride": 5567,
      "Ġgreen": 5568,
      "ĠMost": 5569,
      "Ġepisode": 5570,
      "isf": 5571,
      "msg": 5572,
      "ancing": 5573,
      "Ġcalls": 5574,
      "ĠScott": 5575,
      "ĠUse": 5576,
      "Ġhands": 5577,
      "Ġcommunities": 5578,
      "ugins": 5579,
      "atively": 5580,
      "Ġrap": 5581,
      "bind": 5582,
      "ette": 5583,
      "Ġkilled": 5584,
      "Ġeffective": 5585,
      "eve": 5586,
      "ĠRoman": 5587,
      "dule": 5588,
      "ĠEconom": 5589,
      "ĠTown": 5590,
      "Ġobjects": 5591,
      "ady": 5592,
      "venue": 5593,
      "Ġattention": 5594,
      "pop": 5595,
      "Ġcommercial": 5596,
      "........": 5597,
      "ĠWomen": 5598,
      "Ġparams": 5599,
      "under": 5600,
      "Ġimages": 5601,
      "rome": 5602,
      "eff": 5603,
      "ĠTur": 5604,
      "Ġfair": 5605,
      "Ġstudio": 5606,
      "ĠFoundation": 5607,
      "ĠMap": 5608,
      "ORT": 5609,
      "Ġhy": 5610,
      "omic": 5611,
      "Ġdim": 5612,
      "rics": 5613,
      "Ġlaun": 5614,
      "ĠSocial": 5615,
      "car": 5616,
      "Ġparticularly": 5617,
      "lam": 5618,
      "ĠBre": 5619,
      "================================": 5620,
      "gest": 5621,
      "Ġblood": 5622,
      "Po": 5623,
      "Properties": 5624,
      "Ġspent": 5625,
      "clusion": 5626,
      "Ġbur": 5627,
      "ĠRun": 5628,
      "\"));": 5629,
      "MD": 5630,
      "Ġgrant": 5631,
      "Ġanyone": 5632,
      "Ġtemplate": 5633,
      "images": 5634,
      "Ġmovement": 5635,
      "Ġded": 5636,
      "ertific": 5637,
      "amm": 5638,
      "Ġmur": 5639,
      "Ġpadding": 5640,
      "pi": 5641,
      "Collection": 5642,
      "Ġattribute": 5643,
      "ulti": 5644,
      "hash": 5645,
      "ying": 5646,
      "Ġrat": 5647,
      "before": 5648,
      "Ġple": 5649,
      "Ġhospital": 5650,
      "oded": 5651,
      "ĠHill": 5652,
      "Ġindividuals": 5653,
      "ĠFrancis": 5654,
      "Store": 5655,
      "ĠRock": 5656,
      "76": 5657,
      "Are": 5658,
      "Ġartist": 5659,
      "ĠDev": 5660,
      "Ġsafe": 5661,
      "ooth": 5662,
      "Async": 5663,
      "IST": 5664,
      "sign": 5665,
      "():": 5666,
      "ita": 5667,
      "stylesheet": 5668,
      "urance": 5669,
      "ynch": 5670,
      "Operation": 5671,
      "Ġvoice": 5672,
      "Ġinform": 5673,
      "ĠCommittee": 5674,
      "types": 5675,
      "Stat": 5676,
      "SO": 5677,
      "vant": 5678,
      "strap": 5679,
      "icker": 5680,
      "aver": 5681,
      "conf": 5682,
      "ĠGood": 5683,
      "Ġfelt": 5684,
      "Ġappeared": 5685,
      "DD": 5686,
      "Ġconstant": 5687,
      "1998": 5688,
      "Reference": 5689,
      "riend": 5690,
      "inct": 5691,
      "ĠDivision": 5692,
      "Ke": 5693,
      "Ġcancer": 5694,
      "Ġsituation": 5695,
      "Helper": 5696,
      "Font": 5697,
      "debug": 5698,
      "El": 5699,
      "Ġcollege": 5700,
      "ursday": 5701,
      "Ġord": 5702,
      "GB": 5703,
      "Ġanaly": 5704,
      "Ġestim": 5705,
      "ĠDevelopment": 5706,
      "ĠField": 5707,
      "models": 5708,
      "ĠArg": 5709,
      "Ġgives": 5710,
      "Ġargument": 5711,
      "Dir": 5712,
      "Ġencour": 5713,
      "ĠOb": 5714,
      "ĠCongress": 5715,
      "itors": 5716,
      "modal": 5717,
      "Ġscript": 5718,
      "Ġbey": 5719,
      "ecause": 5720,
      "Ġremains": 5721,
      "ĠWestern": 5722,
      "Ev": 5723,
      "Ġrecorded": 5724,
      "Ġrandom": 5725,
      "Ġrepe": 5726,
      "Ġacadem": 5727,
      "Ġscene": 5728,
      "Ġcreating": 5729,
      "Ġnom": 5730,
      "Ġfarm": 5731,
      "ĠChild": 5732,
      "Kind": 5733,
      "Ġsales": 5734,
      "Ġdirection": 5735,
      "ĠDuring": 5736,
      "Ġxml": 5737,
      "Ġoverall": 5738,
      "ĠVer": 5739,
      "Ġdrive": 5740,
      "related": 5741,
      "Ġcompar": 5742,
      "ĠCON": 5743,
      "Ġdatabase": 5744,
      "Ġtrust": 5745,
      "Ġradio": 5746,
      "hor": 5747,
      "ws": 5748,
      "Ġpen": 5749,
      "legal": 5750,
      "ĠSE": 5751,
      "anish": 5752,
      "ĠMo": 5753,
      "Ġhighly": 5754,
      "Order": 5755,
      "sim": 5756,
      "Ġnote": 5757,
      "Ġbeyond": 5758,
      "sum": 5759,
      "Pat": 5760,
      "dest": 5761,
      "Ġreplace": 5762,
      "ĠPeople": 5763,
      "ĠKore": 5764,
      "Ġmoving": 5765,
      "1000": 5766,
      "Prot": 5767,
      "auth": 5768,
      "iled": 5769,
      "ĠStep": 5770,
      "Ġbehavior": 5771,
      "Ġthread": 5772,
      "Ġdifference": 5773,
      "Ġroll": 5774,
      "values": 5775,
      "bour": 5776,
      "ĠUSA": 5777,
      "DF": 5778,
      "Ġtesting": 5779,
      "foo": 5780,
      "'],": 5781,
      "graph": 5782,
      "Ġthr": 5783,
      "Ġequal": 5784,
      "ĠFlorida": 5785,
      "asy": 5786,
      "undred": 5787,
      "Ġremember": 5788,
      "Ġcontain": 5789,
      "Ġbus": 5790,
      "Ġmissing": 5791,
      "Ġgreater": 5792,
      "Ġdistribution": 5793,
      "Expression": 5794,
      "ensity": 5795,
      "Ġfederal": 5796,
      "render": 5797,
      "border": 5798,
      "Ġphone": 5799,
      "Ġforces": 5800,
      "Ġtests": 5801,
      "ĠRoyal": 5802,
      "Ġcosts": 5803,
      "Ġfemale": 5804,
      "Ġsometimes": 5805,
      "ĠManagement": 5806,
      "Ġdefe": 5807,
      "Ġchem": 5808,
      "CS": 5809,
      "uated": 5810,
      "Ġ['": 5811,
      "udget": 5812,
      "Ġabsol": 5813,
      "Ġtoken": 5814,
      "Match": 5815,
      "Ġrecords": 5816,
      "dates": 5817,
      "Ġcop": 5818,
      "Ġready": 5819,
      "Ġstock": 5820,
      "docs": 5821,
      "ĠVirgin": 5822,
      "ĠName": 5823,
      "ĠJul": 5824,
      "1980": 5825,
      "igration": 5826,
      "Ġproviding": 5827,
      "ĠHen": 5828,
      "ho": 5829,
      "ORD": 5830,
      "Ġfilename": 5831,
      "free": 5832,
      "address": 5833,
      "ĠAtt": 5834,
      "ĠEngine": 5835,
      "ĠLouis": 5836,
      "vas": 5837,
      "ĠFrank": 5838,
      "Ġmarried": 5839,
      "Ġpoll": 5840,
      "ĠTimes": 5841,
      "ĠAND": 5842,
      "delete": 5843,
      "ictor": 5844,
      "uesday": 5845,
      "join": 5846,
      "Ġspect": 5847,
      "ĠNS": 5848,
      "Ġdestroy": 5849,
      "inger": 5850,
      "ĠGame": 5851,
      "eler": 5852,
      "ictions": 5853,
      "Ġgrand": 5854,
      "Ġdaughter": 5855,
      "Host": 5856,
      "Ġtit": 5857,
      "Ġspread": 5858,
      "arts": 5859,
      "ydro": 5860,
      "scale": 5861,
      "amma": 5862,
      "capt": 5863,
      "Ġcritical": 5864,
      "Ġgiving": 5865,
      "Ġopening": 5866,
      "âĢĺ": 5867,
      "ĠAustralian": 5868,
      "ĠId": 5869,
      "ĠHome": 5870,
      "Ġapi": 5871,
      "ĠGames": 5872,
      "internal": 5873,
      ":(": 5874,
      "igan": 5875,
      "ĠIns": 5876,
      "Ġlooks": 5877,
      "Ġwasn": 5878,
      "Don": 5879,
      "Ġhop": 5880,
      "Ġfinished": 5881,
      "access": 5882,
      "~\\": 5883,
      "Ġchance": 5884,
      "Ġcommit": 5885,
      "frame": 5886,
      "Ġfirm": 5887,
      "example": 5888,
      "Ġindependent": 5889,
      "Ġpresented": 5890,
      ")\\": 5891,
      "Ġartists": 5892,
      "WE": 5893,
      "Integer": 5894,
      "Ġeth": 5895,
      "send": 5896,
      "Ġdat": 5897,
      "Ġsources": 5898,
      "ipment": 5899,
      "rey": 5900,
      "inder": 5901,
      "isl": 5902,
      "Ġchurch": 5903,
      "Ġelectric": 5904,
      "Ġapprox": 5905,
      "found": 5906,
      "ĠJapanese": 5907,
      "Track": 5908,
      "}^": 5909,
      "Ġnation": 5910,
      "sv": 5911,
      "ĠNOT": 5912,
      "hol": 5913,
      "azz": 5914,
      "izont": 5915,
      "Impl": 5916,
      "ĠDO": 5917,
      "Ġunits": 5918,
      "nesday": 5919,
      "Ptr": 5920,
      "Art": 5921,
      "Pass": 5922,
      "69": 5923,
      "More": 5924,
      "ĠBase": 5925,
      "ĠGlobal": 5926,
      "xx": 5927,
      "89": 5928,
      "NavBar": 5929,
      "Use": 5930,
      "ĠBG": 5931,
      "Ġsch": 5932,
      "cm": 5933,
      "iform": 5934,
      "{{": 5935,
      "ĠWeek": 5936,
      "Ġoil": 5937,
      "ĠAccording": 5938,
      "ĠNetwork": 5939,
      "Ġlarger": 5940,
      "Ġshowed": 5941,
      "Ġchoice": 5942,
      "Ġiter": 5943,
      "oggle": 5944,
      "Ġgrowing": 5945,
      "Ġruns": 5946,
      "ki": 5947,
      "step": 5948,
      "Ġhighest": 5949,
      "Ġthus": 5950,
      "Vari": 5951,
      "WS": 5952,
      "Ġapplications": 5953,
      "icies": 5954,
      "BS": 5955,
      "72": 5956,
      "den": 5957,
      "ĠVis": 5958,
      "Ġemployees": 5959,
      "Ġmission": 5960,
      "thlet": 5961,
      "Ġlibrary": 5962,
      "ician": 5963,
      "ĠSun": 5964,
      "ATA": 5965,
      "irmed": 5966,
      "ĠLos": 5967,
      "EM": 5968,
      "OK": 5969,
      "second": 5970,
      "Ġrail": 5971,
      "Ġcore": 5972,
      "ĠLake": 5973,
      "non": 5974,
      "Ġadult": 5975,
      "language": 5976,
      "FT": 5977,
      "Ġsociety": 5978,
      "TED": 5979,
      "Ġimmediately": 5980,
      "alysis": 5981,
      "ĠSol": 5982,
      "ĠTrue": 5983,
      "Enc": 5984,
      "Ġsymbol": 5985,
      "apy": 5986,
      "ĠSil": 5987,
      "emp": 5988,
      "Ġsettings": 5989,
      "Ġcontainer": 5990,
      "isher": 5991,
      "Ġbasis": 5992,
      "Ġones": 5993,
      "Ġdog": 5994,
      "Ġpackage": 5995,
      "parameter": 5996,
      "Ġefforts": 5997,
      "Ġgoals": 5998,
      "yan": 5999,
      "Ġiniti": 6000,
      "Ġcoach": 6001,
      "Ġinteresting": 6002,
      "unicip": 6003,
      "igma": 6004,
      "etime": 6005,
      "rate": 6006,
      "Cons": 6007,
      "iminal": 6008,
      "XX": 6009,
      "ervation": 6010,
      "Menu": 6011,
      "ĠCanadian": 6012,
      "Ġwind": 6013,
      "ĠMatt": 6014,
      "Ġauth": 6015,
      "click": 6016,
      "ĠSaturday": 6017,
      "1997": 6018,
      "ĠArts": 6019,
      "bi": 6020,
      "GET": 6021,
      "pective": 6022,
      "rip": 6023,
      "erman": 6024,
      "erry": 6025,
      "Ġconfiguration": 6026,
      "ora": 6027,
      "ĠJose": 6028,
      "Ġappropri": 6029,
      "after": 6030,
      "Ġvariety": 6031,
      "Ġproper": 6032,
      "pg": 6033,
      "CI": 6034,
      "ĠTwo": 6035,
      "ERROR": 6036,
      "Mark": 6037,
      "ĠMass": 6038,
      "clusive": 6039,
      "Ġproposed": 6040,
      "Ġheard": 6041,
      "bes": 6042,
      "ĠOp": 6043,
      "Ġss": 6044,
      "While": 6045,
      "ĠInformation": 6046,
      "Ġimag": 6047,
      "Ġundefined": 6048,
      "Ġbeautiful": 6049,
      "Ġpurpose": 6050,
      "Car": 6051,
      "ĠMel": 6052,
      "aws": 6053,
      "clos": 6054,
      "Ġecho": 6055,
      "ĠPeter": 6056,
      "cp": 6057,
      "áĥ": 6058,
      "ĠEXPECT": 6059,
      "orter": 6060,
      "Ġreached": 6061,
      "direct": 6062,
      "ĠPolicy": 6063,
      "oes": 6064,
      "ĠIll": 6065,
      "Ġtools": 6066,
      "Ġdou": 6067,
      "pects": 6068,
      "Ġcarry": 6069,
      "ĠChicago": 6070,
      "Ġhash": 6071,
      "(:": 6072,
      "Ġeyes": 6073,
      "Ġvolume": 6074,
      "sets": 6075,
      "1996": 6076,
      "PH": 6077,
      "hens": 6078,
      "apse": 6079,
      "ĠRichard": 6080,
      "False": 6081,
      "urrency": 6082,
      "Ġpush": 6083,
      "Names": 6084,
      "URE": 6085,
      "ĠWell": 6086,
      "Ġquant": 6087,
      "Cal": 6088,
      "env": 6089,
      "\">&": 6090,
      "Ġconstruct": 6091,
      "Ġpoor": 6092,
      "ĠTim": 6093,
      "abilities": 6094,
      "ĠAtl": 6095,
      "Ġstrugg": 6096,
      "usion": 6097,
      "ĠUN": 6098,
      "Our": 6099,
      "aby": 6100,
      "Ġthous": 6101,
      "media": 6102,
      "Handle": 6103,
      "interface": 6104,
      "hover": 6105,
      "ĠKey": 6106,
      "Sk": 6107,
      "Ġstorage": 6108,
      "ultural": 6109,
      "Loc": 6110,
      "ĠMov": 6111,
      "oration": 6112,
      "Ġcompetition": 6113,
      "Que": 6114,
      "agnost": 6115,
      "focus": 6116,
      "iden": 6117,
      "Ġmill": 6118,
      "Ġmorning": 6119,
      "Ġconvert": 6120,
      "Non": 6121,
      "1970": 6122,
      "Te": 6123,
      "while": 6124,
      "Left": 6125,
      "cat": 6126,
      "Long": 6127,
      "Red": 6128,
      "ĠMonday": 6129,
      "Ġannual": 6130,
      "ĠFre": 6131,
      "phone": 6132,
      "virt": 6133,
      "Ġintroduced": 6134,
      "Ġaffect": 6135,
      "Ø§": 6136,
      "Render": 6137,
      "liament": 6138,
      "ivery": 6139,
      "ingle": 6140,
      "duction": 6141,
      "ployment": 6142,
      "ategories": 6143,
      "Ġessential": 6144,
      "bur": 6145,
      "ading": 6146,
      "toString": 6147,
      "Ġmaterials": 6148,
      "Ġnative": 6149,
      "ä¸": 6150,
      "osph": 6151,
      "ĠBur": 6152,
      "ĠTeam": 6153,
      "Ġther": 6154,
      "Ġactions": 6155,
      "Ġportr": 6156,
      "Ġcompletely": 6157,
      "Ġbottom": 6158,
      "Ġvote": 6159,
      "Ġshape": 6160,
      "Core": 6161,
      "Ġcounter": 6162,
      "loc": 6163,
      "Tool": 6164,
      "equal": 6165,
      "ĠAcademy": 6166,
      "ashion": 6167,
      "plies": 6168,
      "olved": 6169,
      "obs": 6170,
      "oder": 6171,
      "Ġpressure": 6172,
      "ðŁ": 6173,
      "Now": 6174,
      "even": 6175,
      "webkit": 6176,
      "ĠWindow": 6177,
      "Ġforeign": 6178,
      "Right": 6179,
      "ĠFoot": 6180,
      "izontal": 6181,
      "ĠSince": 6182,
      "Ġalleg": 6183,
      "Ġprefer": 6184,
      "Ġdelete": 6185,
      "Iter": 6186,
      "fields": 6187,
      "ĠReport": 6188,
      "ester": 6189,
      "organ": 6190,
      "Ġcomputer": 6191,
      "tn": 6192,
      "Click": 6193,
      "ensus": 6194,
      "Ġmaximum": 6195,
      "Ġflag": 6196,
      "ĠLet": 6197,
      "Vector": 6198,
      "ĠView": 6199,
      "atest": 6200,
      "Ġnamespace": 6201,
      "ĠNO": 6202,
      "ications": 6203,
      "Ġinvoke": 6204,
      "ĠAL": 6205,
      "79": 6206,
      "Ġremoved": 6207,
      "Ġpartner": 6208,
      "look": 6209,
      "Ġer": 6210,
      "Parameters": 6211,
      "ella": 6212,
      "ĠAR": 6213,
      "success": 6214,
      "handle": 6215,
      "rolled": 6216,
      "reland": 6217,
      "Ġprim": 6218,
      "ĠAM": 6219,
      "atically": 6220,
      "range": 6221,
      "iance": 6222,
      "orpor": 6223,
      "astr": 6224,
      "Template": 6225,
      "aren": 6226,
      "Ġmaster": 6227,
      "Ġwood": 6228,
      "Ġcaused": 6229,
      "?:": 6230,
      "Ġtransaction": 6231,
      "Ġhear": 6232,
      "ĠOh": 6233,
      "62": 6234,
      "Ġolder": 6235,
      "Ġclasses": 6236,
      "Title": 6237,
      "Ġjav": 6238,
      "ublished": 6239,
      "ĠEvery": 6240,
      "iny": 6241,
      "ĠSecret": 6242,
      "ola": 6243,
      "Ġbill": 6244,
      "Ġcomments": 6245,
      "Ġcache": 6246,
      "DL": 6247,
      "Ġmagn": 6248,
      "oute": 6249,
      "Ġcoord": 6250,
      "CP": 6251,
      "ĠTour": 6252,
      "Ġforms": 6253,
      "Ġmachine": 6254,
      "Ġsupply": 6255,
      "Ġstrategy": 6256,
      "Ġrot": 6257,
      "Found": 6258,
      "ja": 6259,
      "Ġcapacity": 6260,
      "transform": 6261,
      "ura": 6262,
      "Ġrob": 6263,
      "They": 6264,
      "asic": 6265,
      "ĠPet": 6266,
      "Ġ\"\\": 6267,
      "Ġrelative": 6268,
      "Ġang": 6269,
      "ĠSpe": 6270,
      "84": 6271,
      "Ġsites": 6272,
      "ixture": 6273,
      "replace": 6274,
      "nap": 6275,
      "Ġroute": 6276,
      "Ġship": 6277,
      "Invalid": 6278,
      "uke": 6279,
      "Ġexperiment": 6280,
      "equals": 6281,
      "Ġutil": 6282,
      "session": 6283,
      "bal": 6284,
      "ORM": 6285,
      "82": 6286,
      "ds": 6287,
      "ĠCath": 6288,
      "Ġattr": 6289,
      "Ġreduce": 6290,
      "ums": 6291,
      "Ġadapt": 6292,
      "writ": 6293,
      "_;": 6294,
      "Ġpiece": 6295,
      "âĢĿ,": 6296,
      "ĠBGCOLOR": 6297,
      "63": 6298,
      "uy": 6299,
      "global": 6300,
      "ads": 6301,
      "igen": 6302,
      "Ġicon": 6303,
      "Ġproduce": 6304,
      "arant": 6305,
      "Ġsurround": 6306,
      "widget": 6307,
      "Ac": 6308,
      "ĠEvent": 6309,
      "ien": 6310,
      "Ġdriver": 6311,
      "heast": 6312,
      "pped": 6313,
      "ĠApple": 6314,
      "standing": 6315,
      "Ġshop": 6316,
      "riz": 6317,
      "ĠAngeles": 6318,
      "ĠEarth": 6319,
      "ĠThursday": 6320,
      "ĠMax": 6321,
      "Ġcru": 6322,
      "Device": 6323,
      "disabled": 6324,
      "command": 6325,
      "Schema": 6326,
      "Ġfollows": 6327,
      "ipped": 6328,
      "connect": 6329,
      "Ġrequires": 6330,
      "ĠHot": 6331,
      "omy": 6332,
      "Ġaccur": 6333,
      "Exp": 6334,
      "ulty": 6335,
      "ĠGeorg": 6336,
      "Ġletter": 6337,
      "Ġskills": 6338,
      "Ġappears": 6339,
      "cos": 6340,
      "Ġbasic": 6341,
      "icons": 6342,
      "Ġpages": 6343,
      "Ġwants": 6344,
      "ĠSu": 6345,
      "Ġdistance": 6346,
      "Ġdaily": 6347,
      "ĠTechnology": 6348,
      "ĠLO": 6349,
      "Ġassum": 6350,
      "Ġstated": 6351,
      "abit": 6352,
      "ĠPower": 6353,
      "Ġorganizations": 6354,
      "Ġtal": 6355,
      "real": 6356,
      "Ġowner": 6357,
      "1995": 6358,
      "ĠCare": 6359,
      "arp": 6360,
      "ĠJim": 6361,
      "IE": 6362,
      "Ġbusinesses": 6363,
      "Ġalone": 6364,
      "etry": 6365,
      "edom": 6366,
      "Ġtheory": 6367,
      "plet": 6368,
      "Ġdespite": 6369,
      "apers": 6370,
      "ĠKingdom": 6371,
      "Application": 6372,
      "Ġclick": 6373,
      "Ġ``": 6374,
      "olume": 6375,
      "atalog": 6376,
      "asketball": 6377,
      "Ġbattle": 6378,
      "yntax": 6379,
      "beta": 6380,
      "Ġinstr": 6381,
      "Ġwel": 6382,
      "ĠMath": 6383,
      "Ġdevices": 6384,
      "Ġresponsible": 6385,
      "ĠAlso": 6386,
      "front": 6387,
      "Ġhappen": 6388,
      "export": 6389,
      "stack": 6390,
      "iki": 6391,
      "asure": 6392,
      "ayers": 6393,
      "mode": 6394,
      "Ġplaced": 6395,
      "ĠCharles": 6396,
      "footer": 6397,
      "clude": 6398,
      "Ġowners": 6399,
      "icians": 6400,
      "Ġsell": 6401,
      "ĠCommunity": 6402,
      "req": 6403,
      "plugin": 6404,
      "Dom": 6405,
      "ancer": 6406,
      "###": 6407,
      "Ġrates": 6408,
      "Ġserve": 6409,
      "Ġpaid": 6410,
      "actor": 6411,
      "Su": 6412,
      "fit": 6413,
      "ĠMur": 6414,
      "EQ": 6415,
      "ĠBack": 6416,
      "Ġrestaur": 6417,
      "'.": 6418,
      "ĠBet": 6419,
      "Ġblue": 6420,
      "Ġtrain": 6421,
      "ĠAN": 6422,
      "ĠChief": 6423,
      "allery": 6424,
      "Ġanswer": 6425,
      "Ġpresence": 6426,
      "anguage": 6427,
      "arden": 6428,
      "ĠCA": 6429,
      "Ġsample": 6430,
      "ĠLin": 6431,
      "ĠCode": 6432,
      "(*": 6433,
      "istration": 6434,
      "61": 6435,
      "Ġbutton": 6436,
      "big": 6437,
      "ĠMethod": 6438,
      "vector": 6439,
      "`,": 6440,
      "holder": 6441,
      "ĠAmazon": 6442,
      "ourney": 6443,
      "estamp": 6444,
      "ĠĠĠĠĠĠĠĠĠĠĠĠĠĠĠĠĠĠĠĠ": 6445,
      "ĠTuesday": 6446,
      "Ġbrother": 6447,
      "Ġinvestment": 6448,
      "Ġhuge": 6449,
      "Ġdream": 6450,
      "ometry": 6451,
      "ĠFinal": 6452,
      "Ġlaunched": 6453,
      "Ġreflect": 6454,
      "Ġpatient": 6455,
      "Ġdamage": 6456,
      "Ġopportunities": 6457,
      "Ð»": 6458,
      "ĠIP": 6459,
      "ested": 6460,
      "ĉĉĊ": 6461,
      "IX": 6462,
      "Ġsolutions": 6463,
      "Ġmajority": 6464,
      "Ġhelped": 6465,
      "Ġenh": 6466,
      "quis": 6467,
      "Ġupdated": 6468,
      "'>": 6469,
      ">();": 6470,
      "DIR": 6471,
      "Api": 6472,
      "Ġcharge": 6473,
      "ĠOld": 6474,
      "enter": 6475,
      "Ġahead": 6476,
      "Ġinline": 6477,
      "Ġhundred": 6478,
      "asion": 6479,
      "Ġkids": 6480,
      "Ġsusp": 6481,
      "Ġaware": 6482,
      "ĠCEO": 6483,
      "Living": 6484,
      "Ġknew": 6485,
      "ATH": 6486,
      "vm": 6487,
      "Ġemot": 6488,
      "Args": 6489,
      "shot": 6490,
      "`.": 6491,
      "Ġmobile": 6492,
      "hs": 6493,
      "Select": 6494,
      "Any": 6495,
      "Ġunderstanding": 6496,
      "emporary": 6497,
      "exports": 6498,
      "74": 6499,
      "ĠParis": 6500,
      "ĠPan": 6501,
      "ĠLove": 6502,
      "ĠLibrary": 6503,
      "email": 6504,
      "Parent": 6505,
      "Ġchoose": 6506,
      "oves": 6507,
      "ĠPo": 6508,
      "ĠColor": 6509,
      "Values": 6510,
      "Ġimplementation": 6511,
      "prop": 6512,
      "ĠMil": 6513,
      "anging": 6514,
      "Ġpsych": 6515,
      "Ġunsigned": 6516,
      "Ġcontinues": 6517,
      "Ġfactors": 6518,
      "Ġincome": 6519,
      "copy": 6520,
      "xis": 6521,
      "uty": 6522,
      "Ins": 6523,
      "uous": 6524,
      "ker": 6525,
      "fn": 6526,
      "custom": 6527,
      "Const": 6528,
      "Ġclaims": 6529,
      "gency": 6530,
      "Ġgenerated": 6531,
      "1992": 6532,
      "power": 6533,
      "Ġheader": 6534,
      "Ġblog": 6535,
      "Argument": 6536,
      "Ġbecomes": 6537,
      "ĠDen": 6538,
      "Ġ})": 6539,
      "ĠMartin": 6540,
      "\",\"": 6541,
      "Ġdownload": 6542,
      "byte": 6543,
      "ongs": 6544,
      "store": 6545,
      "ĠKn": 6546,
      "ĠWednesday": 6547,
      "Ġeasily": 6548,
      "Ġwat": 6549,
      "iders": 6550,
      "94": 6551,
      "1994": 6552,
      "ĠValue": 6553,
      "Ver": 6554,
      "Ġsustain": 6555,
      "ĠLee": 6556,
      "ĠOl": 6557,
      "Ġ('": 6558,
      "Ġminor": 6559,
      "ĠCast": 6560,
      "iable": 6561,
      "Ġvariable": 6562,
      "which": 6563,
      "Reader": 6564,
      "ĠĠĠĠĠĠĠĠĠĠĠĠĠĠĠĠĠĠĠĠĠĠĠĠĠĠĠĠĠĠĠĠĠĠĠĠĠĠĠ": 6565,
      "Ġapplied": 6566,
      "Ġplays": 6567,
      "Ġrequirements": 6568,
      "poses": 6569,
      "Vert": 6570,
      "virtual": 6571,
      "Ġparse": 6572,
      "insert": 6573,
      "bing": 6574,
      "Ġstra": 6575,
      "Ġcredit": 6576,
      "Ġarrest": 6577,
      "ĠForce": 6578,
      "urred": 6579,
      "SET": 6580,
      "Ġgenerally": 6581,
      "Ġeventually": 6582,
      "ruit": 6583,
      "ĠHand": 6584,
      "allow": 6585,
      ")]": 6586,
      "ĠSecurity": 6587,
      "ĠEp": 6588,
      "Err": 6589,
      "gorithm": 6590,
      "Ġpod": 6591,
      "Ġraised": 6592,
      "pool": 6593,
      "Stack": 6594,
      "Ġleague": 6595,
      "romise": 6596,
      "Ġfourth": 6597,
      "Ġlisted": 6598,
      "ĠFree": 6599,
      "ĠHuman": 6600,
      "skip": 6601,
      "Ġtransition": 6602,
      "Ġspot": 6603,
      "Rect": 6604,
      "Ġofficials": 6605,
      "Ġformed": 6606,
      "ĠIts": 6607,
      "Ġeconomy": 6608,
      "udio": 6609,
      "usband": 6610,
      "Ġcitiz": 6611,
      "Ġaim": 6612,
      "ĠValley": 6613,
      "Ġtrial": 6614,
      "Ġwonder": 6615,
      "itz": 6616,
      "iced": 6617,
      "Doc": 6618,
      "---": 6619,
      "Ġpaint": 6620,
      "high": 6621,
      "aught": 6622,
      "Ġspeak": 6623,
      "ĠUkraine": 6624,
      "ĠFund": 6625,
      "inline": 6626,
      "TV": 6627,
      "Xml": 6628,
      ">.": 6629,
      "ĠÂ£": 6630,
      "Draw": 6631,
      "Ġspirit": 6632,
      "ĠJun": 6633,
      "ĠSecond": 6634,
      "%)": 6635,
      "ITY": 6636,
      "ĠLo": 6637,
      "=\"/": 6638,
      "obuf": 6639,
      "Ġfigure": 6640,
      "Num": 6641,
      "going": 6642,
      "frastr": 6643,
      "admin": 6644,
      "Ġconcent": 6645,
      "sort": 6646,
      "Ġut": 6647,
      "91": 6648,
      "missions": 6649,
      "osoph": 6650,
      "Ġoperator": 6651,
      "93": 6652,
      "onic": 6653,
      "Ġtherefore": 6654,
      "Ġguid": 6655,
      "orrow": 6656,
      "white": 6657,
      "exception": 6658,
      "ĠStand": 6659,
      "fol": 6660,
      "ĠEnter": 6661,
      "Ġoffered": 6662,
      "ĠBrown": 6663,
      "92": 6664,
      "Each": 6665,
      "Ġpair": 6666,
      "Ġacid": 6667,
      "Classes": 6668,
      "Other": 6669,
      "----------------------------------------------------------------": 6670,
      "71": 6671,
      "Body": 6672,
      "Ġelem": 6673,
      "gs": 6674,
      "Has": 6675,
      "Ġmatches": 6676,
      "Ġoccup": 6677,
      "cient": 6678,
      "ĠWood": 6679,
      "Ġchain": 6680,
      "Decl": 6681,
      "ĠModel": 6682,
      "ournament": 6683,
      "osen": 6684,
      "Ġsenior": 6685,
      "AME": 6686,
      "Ġsea": 6687,
      "ircraft": 6688,
      "-->": 6689,
      "Ġdrop": 6690,
      "Show": 6691,
      "rames": 6692,
      "Ġdirected": 6693,
      "security": 6694,
      "Ġprotest": 6695,
      "ĠFestival": 6696,
      "ĠIreland": 6697,
      "Ġvehicle": 6698,
      "Ġsatisf": 6699,
      "Ġfailure": 6700,
      "ifies": 6701,
      "Boolean": 6702,
      "ĠFilm": 6703,
      "ĠSpecial": 6704,
      "END": 6705,
      "Ã§": 6706,
      "cloud": 6707,
      "Ġproced": 6708,
      "John": 6709,
      "grade": 6710,
      "bound": 6711,
      "Ġnoted": 6712,
      "ĠGar": 6713,
      "ĠZeal": 6714,
      "tim": 6715,
      "Ġdetermine": 6716,
      "ĠMA": 6717,
      "framework": 6718,
      "ĠPenn": 6719,
      "ĠLand": 6720,
      "inem": 6721,
      "Ġbenefits": 6722,
      "Ġgovern": 6723,
      "ĠAuthor": 6724,
      "Ġchief": 6725,
      "=\"../../../": 6726,
      "make": 6727,
      "elligence": 6728,
      "Ġended": 6729,
      "ffect": 6730,
      "mu": 6731,
      "ali": 6732,
      "Ġhappened": 6733,
      "Ġclinical": 6734,
      "lambda": 6735,
      "ĠTheir": 6736,
      "Ġgeneration": 6737,
      "ĠJo": 6738,
      "Ġwhom": 6739,
      "ĠâĢ¢": 6740,
      "Ġguest": 6741,
      "Ġmurder": 6742,
      "Ġidentified": 6743,
      "Meta": 6744,
      "ECT": 6745,
      "Ĥ¬": 6746,
      "ooks": 6747,
      "ĠCarolina": 6748,
      "Ġcontaining": 6749,
      "Ġcorpor": 6750,
      "Assert": 6751,
      "Parser": 6752,
      "May": 6753,
      "register": 6754,
      "Ġtraff": 6755,
      "esh": 6756,
      "ĠVirginia": 6757,
      "coll": 6758,
      "ĠAwards": 6759,
      "dependency": 6760,
      "à¥": 6761,
      "Ġviews": 6762,
      "Ġfeet": 6763,
      "Ġos": 6764,
      "settings": 6765,
      "Some": 6766,
      "Metadata": 6767,
      "ĠSpace": 6768,
      "Ġmask": 6769,
      "riage": 6770,
      "Ġcritic": 6771,
      "material": 6772,
      "argument": 6773,
      "inion": 6774,
      "ĠEven": 6775,
      "ĠJud": 6776,
      "owers": 6777,
      "Ġfear": 6778,
      "panel": 6779,
      "}/": 6780,
      "Ġadvant": 6781,
      "ato": 6782,
      "Ġerrors": 6783,
      "mathbb": 6784,
      "Ġpan": 6785,
      "ĠZealand": 6786,
      "ĠTO": 6787,
      "Ġadvert": 6788,
      "roph": 6789,
      "}\"": 6790,
      "Ġnotice": 6791,
      "73": 6792,
      "Ġdistributed": 6793,
      "ĠItalian": 6794,
      "ĠCre": 6795,
      "ĠHistor": 6796,
      "ĠFort": 6797,
      "keys": 6798,
      "Ġrecommend": 6799,
      "azing": 6800,
      "}_{": 6801,
      "Ġshift": 6802,
      "nergy": 6803,
      "ĠCommun": 6804,
      "ĠMot": 6805,
      "SION": 6806,
      "Ġ\\\\": 6807,
      "ught": 6808,
      "Ġnuc": 6809,
      "81": 6810,
      "ih": 6811,
      "uts": 6812,
      "Changed": 6813,
      "Ġstraight": 6814,
      "Ġrare": 6815,
      "Ġconvers": 6816,
      "=\\": 6817,
      "Ġsmart": 6818,
      "product": 6819,
      "ĠAssembly": 6820,
      "Ġextension": 6821,
      "ĠFire": 6822,
      "uan": 6823,
      "Ġlooked": 6824,
      "eries": 6825,
      "Ġbuildings": 6826,
      "boolean": 6827,
      "plements": 6828,
      "Net": 6829,
      "Ġmonitor": 6830,
      "itness": 6831,
      "fony": 6832,
      "Ġplanning": 6833,
      "Ġseparate": 6834,
      "ĠMexico": 6835,
      "kin": 6836,
      "stop": 6837,
      "Descriptor": 6838,
      "Ġsubsequ": 6839,
      "razil": 6840,
      "Ġexactly": 6841,
      "Ġcat": 6842,
      "ils": 6843,
      "Only": 6844,
      "ĠDesign": 6845,
      "Ġchallenges": 6846,
      "PRE": 6847,
      "ĠJohnson": 6848,
      "Ġmiles": 6849,
      "Results": 6850,
      "Ġparties": 6851,
      "dim": 6852,
      "Ġmix": 6853,
      "Ġpowerful": 6854,
      "Ġdirectory": 6855,
      "Ġsector": 6856,
      "__(": 6857,
      "Ġresidents": 6858,
      "ĠIO": 6859,
      "1993": 6860,
      "ographic": 6861,
      "component": 6862,
      "Ġinfluence": 6863,
      "cor": 6864,
      "Enabled": 6865,
      "Ġdescribe": 6866,
      "callback": 6867,
      "life": 6868,
      "ĠHTML": 6869,
      "ĠPri": 6870,
      "Custom": 6871,
      "Ġrac": 6872,
      "ynchron": 6873,
      "ĠSqu": 6874,
      "Ġfresh": 6875,
      "Ġwinning": 6876,
      "Ġtrend": 6877,
      "Ġexpert": 6878,
      "olec": 6879,
      "Ġvisual": 6880,
      "Ġboy": 6881,
      "Ġwallet": 6882,
      "Sm": 6883,
      "onym": 6884,
      "plugins": 6885,
      "Ġleadership": 6886,
      "ĠOrder": 6887,
      "cean": 6888,
      "ding": 6889,
      "frastructure": 6890,
      "ĠStat": 6891,
      "Ġcool": 6892,
      "ĠUser": 6893,
      "150": 6894,
      "ogen": 6895,
      "ny": 6896,
      "ACE": 6897,
      "ĠDom": 6898,
      "ĠWater": 6899,
      "annotation": 6900,
      "Ġcomponents": 6901,
      "blockList": 6902,
      "Ġreasons": 6903,
      "Ġharm": 6904,
      "inations": 6905,
      "Ġpurs": 6906,
      "Policy": 6907,
      "buf": 6908,
      "Ġfine": 6909,
      "Storage": 6910,
      "ipeline": 6911,
      "ĠNote": 6912,
      "ĠMa": 6913,
      "ĠHaw": 6914,
      "adium": 6915,
      "ĠVictor": 6916,
      "pute": 6917,
      "Ġhour": 6918,
      "Ġdefine": 6919,
      "Why": 6920,
      "Ġtoward": 6921,
      "Ġagreement": 6922,
      "ĠTH": 6923,
      "Ġpool": 6924,
      "install": 6925,
      "Ġphase": 6926,
      "ĠRet": 6927,
      "Root": 6928,
      "Ġfunding": 6929,
      "isters": 6930,
      "ymfony": 6931,
      "iro": 6932,
      "rick": 6933,
      "Ġdrink": 6934,
      "ĠDown": 6935,
      "Ġ'/": 6936,
      "Ġideas": 6937,
      "Ġheavy": 6938,
      "83": 6939,
      "DS": 6940,
      "Ġbrief": 6941,
      "Ġbecoming": 6942,
      "Ġjson": 6943,
      "ĠYoung": 6944,
      "ican": 6945,
      "Ġprofile": 6946,
      "Ġedge": 6947,
      "resents": 6948,
      "Debug": 6949,
      "othing": 6950,
      "Ðº": 6951,
      "ĠFamily": 6952,
      "Ġfif": 6953,
      "Ġaudience": 6954,
      "Äģ": 6955,
      "Ġconflict": 6956,
      "ignment": 6957,
      "Ġaf": 6958,
      "Ġchallenge": 6959,
      "DI": 6960,
      "ĠMat": 6961,
      "lers": 6962,
      "Ġzero": 6963,
      "Ġequipment": 6964,
      "Step": 6965,
      "otic": 6966,
      "odies": 6967,
      "ĠPage": 6968,
      "Ġfactor": 6969,
      "Ġdecre": 6970,
      "Ġfounded": 6971,
      "ĠPac": 6972,
      "Ġbg": 6973,
      "ĠCentre": 6974,
      "Writer": 6975,
      "ups": 6976,
      "rb": 6977,
      "estic": 6978,
      "TA": 6979,
      "Ġmanaged": 6980,
      "oles": 6981,
      "Ġbyte": 6982,
      "Ġunless": 6983,
      "GE": 6984,
      "Pop": 6985,
      "Ġoptim": 6986,
      "Ġweap": 6987,
      "ĠLine": 6988,
      "Ġdoor": 6989,
      "ingu": 6990,
      "ixel": 6991,
      "ĠAsia": 6992,
      "ĠLim": 6993,
      "ĠAbout": 6994,
      "utch": 6995,
      "Ġdig": 6996,
      "AAAA": 6997,
      "ĠInvest": 6998,
      "person": 6999,
      "Ġprotection": 7000,
      "Ġ\"/": 7001,
      "Delete": 7002,
      "Definition": 7003,
      "Ġoperating": 7004,
      "Ġelected": 7005,
      "ean": 7006,
      "Ġrevealed": 7007,
      "split": 7008,
      "Ġkept": 7009,
      "KEY": 7010,
      "Ġhappy": 7011,
      "iat": 7012,
      "Ġcultural": 7013,
      "DC": 7014,
      "ansion": 7015,
      "iana": 7016,
      "system": 7017,
      "ĠLink": 7018,
      "Ġdepartment": 7019,
      "normal": 7020,
      "ĠText": 7021,
      "Ġappropriate": 7022,
      "Ġexcell": 7023,
      "ĠLi": 7024,
      "uby": 7025,
      "Ġconsult": 7026,
      "ifications": 7027,
      "ĠArab": 7028,
      "eless": 7029,
      "Ġguitar": 7030,
      "Ġtried": 7031,
      "Med": 7032,
      "annels": 7033,
      ";<": 7034,
      "ĠRecords": 7035,
      "padding": 7036,
      "NG": 7037,
      "lie": 7038,
      "Ġprison": 7039,
      "Ġslight": 7040,
      "Ġenvironmental": 7041,
      "ĠAlthough": 7042,
      "ĠGal": 7043,
      "Ġà¤": 7044,
      "eces": 7045,
      "'d": 7046,
      "Ġcris": 7047,
      "Ġdanger": 7048,
      "ango": 7049,
      "rs": 7050,
      "vision": 7051,
      "Ġuseful": 7052,
      "Ġarm": 7053,
      "auto": 7054,
      "Ġreplaced": 7055,
      "ĠJSON": 7056,
      "Ġadministration": 7057,
      "Bytes": 7058,
      "1991": 7059,
      "Ġattend": 7060,
      "Ġsexual": 7061,
      "Ġ++": 7062,
      "Ġnegative": 7063,
      "ĠElect": 7064,
      "double": 7065,
      "Ġdomain": 7066,
      "Ġrespectively": 7067,
      "ideos": 7068,
      "Ġstack": 7069,
      "Ġmostly": 7070,
      "uries": 7071,
      "Ġdu": 7072,
      "umni": 7073,
      "cf": 7074,
      "bootstrap": 7075,
      "Ġserial": 7076,
      "uple": 7077,
      "ĠSy": 7078,
      "Ġlayer": 7079,
      "xi": 7080,
      "Ġsmaller": 7081,
      "Ġtemperature": 7082,
      "Lock": 7083,
      "Ġthinking": 7084,
      "jection": 7085,
      "Ġregarding": 7086,
      "ĠURL": 7087,
      "={": 7088,
      "Ljava": 7089,
      "Ġidentity": 7090,
      "ĠMicrosoft": 7091,
      "sql": 7092,
      "ĠCy": 7093,
      "Ġreality": 7094,
      "ĠChristmas": 7095,
      "Ġhyp": 7096,
      "Ġbul": 7097,
      "Ġobtained": 7098,
      "PM": 7099,
      "Ġsequence": 7100,
      "ĠSar": 7101,
      "Ġobserved": 7102,
      "Fields": 7103,
      "Ġbytes": 7104,
      "Ġextrem": 7105,
      "Ġadjust": 7106,
      "Ġ<=": 7107,
      "ĠJoe": 7108,
      "1960": 7109,
      "Ġneighbor": 7110,
      "ĠOrgan": 7111,
      "ĠBlue": 7112,
      "Ġstrict": 7113,
      "Ġcloud": 7114,
      "ipal": 7115,
      "ĠPass": 7116,
      "Ġexists": 7117,
      "entity": 7118,
      "Ġtab": 7119,
      "CRE": 7120,
      "ĠCard": 7121,
      "Ġcities": 7122,
      "Display": 7123,
      "ĠLast": 7124,
      "Di": 7125,
      "Ġconference": 7126,
      ")}": 7127,
      "Ġbenefit": 7128,
      "Ġkeys": 7129,
      "Ã³n": 7130,
      "ĠSand": 7131,
      "Ġtrail": 7132,
      "adoop": 7133,
      "Copy": 7134,
      "enum": 7135,
      "attribute": 7136,
      "Ġexperi": 7137,
      "ĠMedical": 7138,
      "aser": 7139,
      "Ġice": 7140,
      "Ġfavorite": 7141,
      "Ġofficer": 7142,
      "Ġcalling": 7143,
      "nel": 7144,
      "ĠMany": 7145,
      "Ġmeasures": 7146,
      "Ġforced": 7147,
      "ĠIran": 7148,
      "elled": 7149,
      "Ġenable": 7150,
      "ĠSpanish": 7151,
      "ĠItaly": 7152,
      "Ġconnected": 7153,
      "olver": 7154,
      "Send": 7155,
      "Ġleaving": 7156,
      "ĠPolice": 7157,
      "Ġhusband": 7158,
      "ĠAny": 7159,
      "Ġlabor": 7160,
      "claim": 7161,
      "ye": 7162,
      "oston": 7163,
      "Ġpeace": 7164,
      "SR": 7165,
      "stone": 7166,
      "ertificate": 7167,
      "Ġcamera": 7168,
      "Graph": 7169,
      "arian": 7170,
      "names": 7171,
      "Fig": 7172,
      "ko": 7173,
      "ĠSports": 7174,
      "Ġbiggest": 7175,
      "urban": 7176,
      "kins": 7177,
      "ylv": 7178,
      "Ġconsole": 7179,
      "ipping": 7180,
      "Ġorigin": 7181,
      "ĠFig": 7182,
      "Ġkm": 7183,
      "nections": 7184,
      "____": 7185,
      "Ġmsg": 7186,
      "Byte": 7187,
      "Author": 7188,
      "_\\": 7189,
      "Ġjobs": 7190,
      "Ġdoll": 7191,
      "Ġoriginally": 7192,
      "Ġlands": 7193,
      "application": 7194,
      "FAULT": 7195,
      "Ġlif": 7196,
      "Ġunknown": 7197,
      "dist": 7198,
      "Ġagreed": 7199,
      "Ġcoast": 7200,
      "ĠWindows": 7201,
      "ĠNY": 7202,
      "Ġrelevant": 7203,
      "Att": 7204,
      "ĠWhy": 7205,
      "ĠKar": 7206,
      "awn": 7207,
      "\")]": 7208,
      "Widget": 7209,
      "ĠJones": 7210,
      "ARY": 7211,
      "lines": 7212,
      "Ġstress": 7213,
      "ĠSummer": 7214,
      "âĢ¢": 7215,
      "Ġphil": 7216,
      "ĠPoint": 7217,
      "items": 7218,
      "BR": 7219,
      "herit": 7220,
      "wrap": 7221,
      "%,": 7222,
      "full": 7223,
      "Ġfamous": 7224,
      "wan": 7225,
      "Support": 7226,
      "ĠDC": 7227,
      "Ġbroadcast": 7228,
      "fill": 7229,
      "Ġillust": 7230,
      "ski": 7231,
      "iques": 7232,
      "Ġflex": 7233,
      "ODO": 7234,
      "ansas": 7235,
      "Ġattract": 7236,
      "Obj": 7237,
      "Ġsteps": 7238,
      "ĠPop": 7239,
      "shall": 7240,
      "unte": 7241,
      "ĠHor": 7242,
      "Ġbrain": 7243,
      "Ġupper": 7244,
      "cles": 7245,
      "Ġfloor": 7246,
      "ĠRegister": 7247,
      "}^{": 7248,
      "toggle": 7249,
      "Ġinfe": 7250,
      "PT": 7251,
      "Scope": 7252,
      "di": 7253,
      "rier": 7254,
      "Ġwid": 7255,
      "ira": 7256,
      "Ġappre": 7257,
      "Ġcategory": 7258,
      "ded": 7259,
      "Ġlicense": 7260,
      "zen": 7261,
      "here": 7262,
      "Dialog": 7263,
      "Ġfunds": 7264,
      "Ġcovered": 7265,
      "Ġbeat": 7266,
      "Ġinterested": 7267,
      "aset": 7268,
      "ati": 7269,
      "Ġsun": 7270,
      "(){": 7271,
      "that": 7272,
      "ĠError": 7273,
      "DR": 7274,
      "Ġanimals": 7275,
      "According": 7276,
      "Ear": 7277,
      "mathbf": 7278,
      "ĠĠĠĠĠĠĠĠĠĠĠĠĠĠĠĠĠĠ": 7279,
      "Ġmatrix": 7280,
      "Ġfeatured": 7281,
      "Will": 7282,
      "iner": 7283,
      "Ġremaining": 7284,
      "Ġstrength": 7285,
      "ucky": 7286,
      "Ġdetail": 7287,
      "Ġdefinition": 7288,
      "rees": 7289,
      "Before": 7290,
      "Ġdetermined": 7291,
      "'))": 7292,
      "akistan": 7293,
      "Active": 7294,
      "Ġpolicies": 7295,
      "EXT": 7296,
      "Ġtruth": 7297,
      "ĠAction": 7298,
      "phi": 7299,
      "MENT": 7300,
      "emy": 7301,
      "ĠAff": 7302,
      "Ġcustomer": 7303,
      "Ġschedul": 7304,
      "Ġagree": 7305,
      "Ġsurvey": 7306,
      "Mock": 7307,
      "ĠOnly": 7308,
      "Ġremote": 7309,
      "Ġmaybe": 7310,
      "âĢī": 7311,
      "HS": 7312,
      "aka": 7313,
      "ĠWay": 7314,
      "cmd": 7315,
      "Ġidentify": 7316,
      "record": 7317,
      "Ġbudget": 7318,
      "Ġsignificantly": 7319,
      "bridge": 7320,
      "Ġfra": 7321,
      "Ġfuel": 7322,
      "itutions": 7323,
      "ĠEU": 7324,
      "-\\": 7325,
      "Ġdraft": 7326,
      "ĠIndust": 7327,
      "Ġvector": 7328,
      "Ġfish": 7329,
      "Ġmentioned": 7330,
      "Ġexchange": 7331,
      "plications": 7332,
      "kg": 7333,
      "ĠConference": 7334,
      "Ġpanel": 7335,
      "Ġintr": 7336,
      "ĠSupport": 7337,
      "Ã¢": 7338,
      "Ġoccur": 7339,
      "Ġfan": 7340,
      "ĠKh": 7341,
      "ĠassertEquals": 7342,
      "Ġmeant": 7343,
      "Ġscored": 7344,
      "Ġedition": 7345,
      "va": 7346,
      "Ġcrow": 7347,
      "Ġperhaps": 7348,
      "About": 7349,
      "################": 7350,
      "ĠEach": 7351,
      "Ġpet": 7352,
      "ln": 7353,
      "Tags": 7354,
      "Extension": 7355,
      "Ġshowing": 7356,
      "ucket": 7357,
      "Ġrul": 7358,
      "miss": 7359,
      "Tab": 7360,
      "region": 7361,
      "Ġbrowser": 7362,
      "ĠKen": 7363,
      "ĠHead": 7364,
      "Package": 7365,
      "Ġcandidate": 7366,
      "ses": 7367,
      "HECK": 7368,
      "Ġsplit": 7369,
      "Account": 7370,
      "alid": 7371,
      "thread": 7372,
      "aria": 7373,
      "Ġmessages": 7374,
      "Ġprocesses": 7375,
      "Ġgenerate": 7376,
      "Member": 7377,
      "rot": 7378,
      "Ġcarbon": 7379,
      "Ġstarts": 7380,
      "HTML": 7381,
      "Init": 7382,
      "sem": 7383,
      "ĠLord": 7384,
      "Ġlisten": 7385,
      "Ġ(*": 7386,
      "FILE": 7387,
      "ĠBow": 7388,
      "spring": 7389,
      "ĠMain": 7390,
      "ilon": 7391,
      "Security": 7392,
      "Ġhousehold": 7393,
      "ĠWild": 7394,
      "Ġpi": 7395,
      "TEST": 7396,
      "ifically": 7397,
      "rich": 7398,
      "Tests": 7399,
      "Ġfocused": 7400,
      "ĠMos": 7401,
      "protobuf": 7402,
      "Ġcars": 7403,
      "uilt": 7404,
      "acle": 7405,
      "Ġgone": 7406,
      "ĠSte": 7407,
      "Ġobtain": 7408,
      "Ġmys": 7409,
      "sect": 7410,
      "ĠFootball": 7411,
      "ceived": 7412,
      "ishes": 7413,
      "ĠCorpor": 7414,
      "Initial": 7415,
      "Ġult": 7416,
      "aylor": 7417,
      "Ne": 7418,
      "initial": 7419,
      "category": 7420,
      "ĠWho": 7421,
      "Ġgather": 7422,
      "ĠCatholic": 7423,
      ".'": 7424,
      "caption": 7425,
      "hentication": 7426,
      "&#": 7427,
      "Ġcref": 7428,
      "]]": 7429,
      "ĠScot": 7430,
      "ROM": 7431,
      "ĠFederal": 7432,
      "Ġ),": 7433,
      "Ġissued": 7434,
      "Ġeye": 7435,
      "stat": 7436,
      "aration": 7437,
      "words": 7438,
      "Ġprocessing": 7439,
      "1989": 7440,
      "DT": 7441,
      "Ġyourself": 7442,
      "screen": 7443,
      "ĠSciences": 7444,
      "Ġfixed": 7445,
      "Main": 7446,
      "Media": 7447,
      "assertEqual": 7448,
      "Ġjavax": 7449,
      "=\"\"": 7450,
      "ĠBob": 7451,
      "Ġcomfort": 7452,
      "Ġpros": 7453,
      "ĠSign": 7454,
      "chen": 7455,
      "orney": 7456,
      ")\"": 7457,
      "ĠStart": 7458,
      "Ġagent": 7459,
      "Ġstuff": 7460,
      "ĠWal": 7461,
      "LOG": 7462,
      "ĠUpdate": 7463,
      "ĠCross": 7464,
      "Ġshut": 7465,
      "addr": 7466,
      "ĠHospital": 7467,
      "Ġdocuments": 7468,
      "Timeout": 7469,
      "Sw": 7470,
      "Ġexternal": 7471,
      "onav": 7472,
      "ĠĠĠĠĠĠĠĠĠĠĠĠĠĠĠĠĠĠĠĠĠĠĠĠĠ": 7473,
      "Ġnine": 7474,
      "BI": 7475,
      "orship": 7476,
      "Ġappointed": 7477,
      "Ġemb": 7478,
      "grid": 7479,
      "Ġcouldn": 7480,
      "ĠAdministr": 7481,
      "Ġpri": 7482,
      "Ġforest": 7483,
      "HR": 7484,
      "These": 7485,
      "Ġtheme": 7486,
      "160": 7487,
      "Ġwall": 7488,
      "Ġhtml": 7489,
      "gers": 7490,
      "ĠEnvironment": 7491,
      "cur": 7492,
      "Icon": 7493,
      "ĠHenry": 7494,
      "ĠReal": 7495,
      ".*": 7496,
      "coq": 7497,
      "Ġalloc": 7498,
      "ĠĠĠĠĠĠĊ": 7499,
      "ython": 7500,
      "Ġuniversity": 7501,
      "Ġdefense": 7502,
      "Ġseconds": 7503,
      "Ġvehicles": 7504,
      "inds": 7505,
      "Ġfol": 7506,
      "ĠTri": 7507,
      "shire": 7508,
      "Ġguide": 7509,
      "Ġfix": 7510,
      "ĠSO": 7511,
      "Ñĥ": 7512,
      "Ġpartnership": 7513,
      "Ġpartial": 7514,
      "ockey": 7515,
      "Ġjourney": 7516,
      "ĠÂ»": 7517,
      "Ġapproximately": 7518,
      "Ġmusical": 7519,
      "Let": 7520,
      "Ġaircraft": 7521,
      "Ġking": 7522,
      "yes": 7523,
      "Tim": 7524,
      "Ġstars": 7525,
      "master": 7526,
      "Ġrise": 7527,
      "ĠVersion": 7528,
      "andon": 7529,
      "ĠFood": 7530,
      "Ġinsert": 7531,
      "ĠMake": 7532,
      "Ġonto": 7533,
      "ji": 7534,
      "Ġadding": 7535,
      "Ġtalent": 7536,
      "ĠRail": 7537,
      "Rule": 7538,
      "MC": 7539,
      "Ġconfirmed": 7540,
      "Ġacademic": 7541,
      "Ġactor": 7542,
      "Ġpropos": 7543,
      "friend": 7544,
      "Ġyield": 7545,
      "ĠChris": 7546,
      "Ġminimum": 7547,
      "$\\": 7548,
      "Ġbed": 7549,
      "ĠSenate": 7550,
      "mock": 7551,
      "Ġhistorical": 7552,
      "Ġdelay": 7553,
      "Ġboost": 7554,
      "Ġobvious": 7555,
      "Ġreduced": 7556,
      "Ġtalking": 7557,
      "WA": 7558,
      "Ġentity": 7559,
      "ĠColl": 7560,
      "Ġyouth": 7561,
      "hadoop": 7562,
      "password": 7563,
      "inet": 7564,
      "ollowing": 7565,
      "ĠLive": 7566,
      "Ġexerc": 7567,
      "Ġprotocol": 7568,
      "iano": 7569,
      "SU": 7570,
      "essions": 7571,
      "à¸": 7572,
      "Ã¨": 7573,
      "Ġarticles": 7574,
      "aked": 7575,
      "Ġremained": 7576,
      "ito": 7577,
      "Ġstandards": 7578,
      "printf": 7579,
      "Ġcombined": 7580,
      "Posted": 7581,
      "120": 7582,
      "Ġ{\\": 7583,
      "Ġil": 7584,
      "ĠWilliams": 7585,
      "Ġmock": 7586,
      "ernel": 7587,
      "Ġinjury": 7588,
      "Ġlived": 7589,
      "Network": 7590,
      "Ġpp": 7591,
      "cpp": 7592,
      "ĠHy": 7593,
      "ĠTR": 7594,
      "elegate": 7595,
      "Ġearth": 7596,
      "iciency": 7597,
      "wait": 7598,
      "Here": 7599,
      "Ġque": 7600,
      "ĠLear": 7601,
      "SSERT": 7602,
      "oving": 7603,
      "ĠMedicine": 7604,
      "Ġcreation": 7605,
      "ĠNE": 7606,
      "Ġhandler": 7607,
      "Queue": 7608,
      "Job": 7609,
      "ĠJon": 7610,
      "Ġlaws": 7611,
      "Ġofficers": 7612,
      "elines": 7613,
      "Ġwarm": 7614,
      "components": 7615,
      "Ġcrisis": 7616,
      "isms": 7617,
      "Ġdeveloping": 7618,
      "cut": 7619,
      "Ġrapid": 7620,
      "ova": 7621,
      "Ġviolence": 7622,
      "Ġimpress": 7623,
      "Ġstreet": 7624,
      "Channel": 7625,
      "PP": 7626,
      "ĠMarket": 7627,
      "symbol": 7628,
      "Ġentered": 7629,
      "Ġrepresents": 7630,
      "ĠIslam": 7631,
      "Ġfinish": 7632,
      "Google": 7633,
      "ĠTele": 7634,
      "Ġnumerous": 7635,
      "Ġexperiences": 7636,
      "Ġmarketing": 7637,
      "Ġisland": 7638,
      "Ġcommunication": 7639,
      "Perm": 7640,
      "Ġban": 7641,
      "okes": 7642,
      "LC": 7643,
      "ĠNight": 7644,
      "Ġplants": 7645,
      "OO": 7646,
      "Ġul": 7647,
      "Ġcarried": 7648,
      "Ġnodes": 7649,
      "ocker": 7650,
      "lig": 7651,
      "1988": 7652,
      "ador": 7653,
      "ĠMichigan": 7654,
      "ĠDefault": 7655,
      "@\"": 7656,
      "ĠGre": 7657,
      "ovid": 7658,
      "Ġdedicated": 7659,
      "ighter": 7660,
      "ĠSwed": 7661,
      "Ġextended": 7662,
      "Ġsumm": 7663,
      "ĠExt": 7664,
      "Ġfacilities": 7665,
      "Ġdivision": 7666,
      "Ġnotes": 7667,
      "\"`": 7668,
      "yer": 7669,
      "ĠHon": 7670,
      "ez": 7671,
      "^{\\": 7672,
      "Ġrich": 7673,
      "kl": 7674,
      "uages": 7675,
      "[:": 7676,
      "Ġstations": 7677,
      "spe": 7678,
      "256": 7679,
      "ĠGuide": 7680,
      "Ġpil": 7681,
      "assertEquals": 7682,
      "Ġtraffic": 7683,
      "margin": 7684,
      "watch": 7685,
      "ĠPerson": 7686,
      "World": 7687,
      "ĠFalse": 7688,
      "rid": 7689,
      "ĠAccess": 7690,
      "Ġbatter": 7691,
      "ĠMike": 7692,
      "Ġmixed": 7693,
      "alloc": 7694,
      "profile": 7695,
      "Database": 7696,
      "Ġnarr": 7697,
      "Windows": 7698,
      "Ġstructures": 7699,
      "lyph": 7700,
      "emon": 7701,
      "ĠPrem": 7702,
      "Ġdie": 7703,
      "Ġtrip": 7704,
      "Ġbgcolor": 7705,
      "posite": 7706,
      "comment": 7707,
      "Ġvan": 7708,
      "Ġbalance": 7709,
      "note": 7710,
      "Ġdb": 7711,
      "ĠLab": 7712,
      "uzz": 7713,
      "Second": 7714,
      "Ġprotein": 7715,
      "ĠLiber": 7716,
      "Ġhidden": 7717,
      "JECT": 7718,
      "ĠBrazil": 7719,
      "Public": 7720,
      "Ġexecutive": 7721,
      "Ġoffering": 7722,
      "ĠLike": 7723,
      "Jan": 7724,
      "ĠJoseph": 7725,
      "Full": 7726,
      "pet": 7727,
      "Ġclients": 7728,
      "Editor": 7729,
      "PAR": 7730,
      "Ġpractices": 7731,
      "dropdown": 7732,
      "Ġhelps": 7733,
      "ĠMaster": 7734,
      "Ġmenu": 7735,
      "connection": 7736,
      "Ġreject": 7737,
      "Ġalternative": 7738,
      "water": 7739,
      "ĠExper": 7740,
      "irds": 7741,
      "Ġtechnical": 7742,
      "Ġjoint": 7743,
      "itage": 7744,
      "amin": 7745,
      "Ġseeing": 7746,
      "TEX": 7747,
      "ĠAndroid": 7748,
      "Ġreligious": 7749,
      "dict": 7750,
      "Ġdepth": 7751,
      "Ġ%}": 7752,
      "Av": 7753,
      "Ġsleep": 7754,
      "unsigned": 7755,
      "ĠWall": 7756,
      "ĠAmericans": 7757,
      "Ġawarded": 7758,
      "ĠConfig": 7759,
      "ĠRights": 7760,
      "Ġng": 7761,
      "ĠLocal": 7762,
      "Ġpicture": 7763,
      "mond": 7764,
      "points": 7765,
      "atever": 7766,
      "ĠjQuery": 7767,
      "Ġvictory": 7768,
      "ĠJeff": 7769,
      "recated": 7770,
      "Ġconstr": 7771,
      "Ġwish": 7772,
      "typed": 7773,
      "Ġcertainly": 7774,
      "Ġconducted": 7775,
      "JSON": 7776,
      "ĠRest": 7777,
      "Year": 7778,
      "war": 7779,
      "iments": 7780,
      "Ġplus": 7781,
      "formance": 7782,
      "Ġcommission": 7783,
      "Tube": 7784,
      "Ġinstanceof": 7785,
      "istent": 7786,
      "nam": 7787,
      "ĠEmp": 7788,
      "Ġalbums": 7789,
      "ĠEqu": 7790,
      "faces": 7791,
      "Ġrain": 7792,
      "cluded": 7793,
      "Ġfle": 7794,
      "Bit": 7795,
      "ï¼": 7796,
      "awa": 7797,
      "onavirus": 7798,
      "eller": 7799,
      "ancel": 7800,
      "Ġcentre": 7801,
      "_->": 7802,
      "sen": 7803,
      "ello": 7804,
      "ĠRam": 7805,
      "Ġweather": 7806,
      "Ġaudio": 7807,
      "Ġcriminal": 7808,
      "Ġtransl": 7809,
      "Auth": 7810,
      "ictures": 7811,
      "ĠFrancisco": 7812,
      "Ġlocations": 7813,
      "IVE": 7814,
      "ĠDaniel": 7815,
      "crete": 7816,
      "Ġaren": 7817,
      "Ġprices": 7818,
      "Ġchair": 7819,
      "Ġran": 7820,
      "plex": 7821,
      "ĠJustice": 7822,
      "times": 7823,
      "GS": 7824,
      "ĠMen": 7825,
      "tip": 7826,
      "ritory": 7827,
      "LS": 7828,
      "Ġregistered": 7829,
      "how": 7830,
      "acks": 7831,
      "Ġadvanced": 7832,
      "athan": 7833,
      "erial": 7834,
      "Ġadopt": 7835,
      "ĠAdv": 7836,
      "icer": 7837,
      "move": 7838,
      "Ġmental": 7839,
      "Ġfiction": 7840,
      ";\"": 7841,
      "Ġcrime": 7842,
      "har": 7843,
      "Activity": 7844,
      "Ġdir": 7845,
      "Ġhighlight": 7846,
      "ĠStudies": 7847,
      "ĠAS": 7848,
      "ĠNumber": 7849,
      "Ġbtn": 7850,
      "ĠTable": 7851,
      "Pool": 7852,
      "angular": 7853,
      "Ġtrigger": 7854,
      "wp": 7855,
      "Ġinvestigation": 7856,
      "ĠCustom": 7857,
      "Ġriver": 7858,
      "Ġexport": 7859,
      "scroll": 7860,
      "Ġsport": 7861,
      "Ġallowing": 7862,
      "Ġoptional": 7863,
      "VALUE": 7864,
      "forms": 7865,
      "ĠMP": 7866,
      "phas": 7867,
      "ĠControl": 7868,
      "ĠEr": 7869,
      "Big": 7870,
      "short": 7871,
      "Person": 7872,
      "Ġ[];": 7873,
      "Ġburn": 7874,
      "ĠColumb": 7875,
      "leton": 7876,
      "Ġsinger": 7877,
      "txt": 7878,
      "Ġcrypt": 7879,
      "Events": 7880,
      "important": 7881,
      "ĠPolit": 7882,
      "home": 7883,
      "ĠKim": 7884,
      "ĠSa": 7885,
      "Ġseat": 7886,
      "Ġproceed": 7887,
      "agers": 7888,
      "ĠRepublican": 7889,
      "Selector": 7890,
      "ĠMiddle": 7891,
      "hetic": 7892,
      "ĠTerm": 7893,
      "ĠAndrew": 7894,
      "Ġrom": 7895,
      "ĠPath": 7896,
      "orders": 7897,
      "_,": 7898,
      "urer": 7899,
      ".__": 7900,
      "Ġwriters": 7901,
      "impl": 7902,
      "ĠDemocratic": 7903,
      "ĠGirl": 7904,
      "Ġvoc": 7905,
      "Details": 7906,
      "Ġintended": 7907,
      "ĠEnergy": 7908,
      "ĠInternet": 7909,
      "Rad": 7910,
      "ters": 7911,
      "Ġplot": 7912,
      "Ġappearance": 7913,
      "mo": 7914,
      "Ġhers": 7915,
      "Ġinstalled": 7916,
      "Ġfellow": 7917,
      "ĠFunction": 7918,
      "Ġmotor": 7919,
      "$(": 7920,
      "Ġcounty": 7921,
      "ifer": 7922,
      "fly": 7923,
      "Ġregional": 7924,
      "family": 7925,
      "encing": 7926,
      "Items": 7927,
      "Ġretail": 7928,
      "ampl": 7929,
      "Ġphoto": 7930,
      "NotNull": 7931,
      "Ġreb": 7932,
      "=\"@": 7933,
      "aturing": 7934,
      "events": 7935,
      "Ġagency": 7936,
      "Ġdriving": 7937,
      "rine": 7938,
      "AU": 7939,
      "ulator": 7940,
      "rum": 7941,
      "Gen": 7942,
      "ilation": 7943,
      "Ġprepar": 7944,
      "Phone": 7945,
      "eper": 7946,
      "Previous": 7947,
      "Ġmetal": 7948,
      "proto": 7949,
      "chain": 7950,
      "gypt": 7951,
      "%%%%": 7952,
      "numer": 7953,
      "save": 7954,
      "Ġdecades": 7955,
      "600": 7956,
      "123": 7957,
      "Ġrepresented": 7958,
      "Ġwarn": 7959,
      "Ġattributes": 7960,
      "typeof": 7961,
      "~~~~": 7962,
      "ĠPhys": 7963,
      "Ġfashion": 7964,
      "ĠGeorgia": 7965,
      "High": 7966,
      "Ġsale": 7967,
      "ivalent": 7968,
      "shape": 7969,
      "]:": 7970,
      "Ġnorm": 7971,
      "Ġkill": 7972,
      "Ġcitizens": 7973,
      "Ġsupports": 7974,
      "ĠBoth": 7975,
      "throws": 7976,
      "ĠVan": 7977,
      "ĠPlease": 7978,
      "Ġsy": 7979,
      "Ġfant": 7980,
      "Best": 7981,
      "ĠIII": 7982,
      "Gu": 7983,
      "TABLE": 7984,
      "EC": 7985,
      "stats": 7986,
      "Transaction": 7987,
      "Ġoccurred": 7988,
      "none": 7989,
      "Ġmist": 7990,
      "enger": 7991,
      ";/": 7992,
      "Ġclearly": 7993,
      ")))": 7994,
      "iling": 7995,
      "Ġlett": 7996,
      "itan": 7997,
      "ĠLight": 7998,
      "Ġcluster": 7999,
      "Ġadvance": 8000,
      "250": 8001,
      "iser": 8002,
      "Ġawait": 8003,
      "Ġsignal": 8004,
      "Ġ{'": 8005,
      "ategy": 8006,
      "reshold": 8007,
      "Ġdelivery": 8008,
      "Ġfeeling": 8009,
      "ĠResult": 8010,
      "*}": 8011,
      "Logger": 8012,
      "Ġresulting": 8013,
      "ĠBoston": 8014,
      "Cor": 8015,
      "ICE": 8016,
      "edit": 8017,
      "ĠTer": 8018,
      "pay": 8019,
      "ĠJackson": 8020,
      "Print": 8021,
      "ĠWin": 8022,
      "ĠCa": 8023,
      "avor": 8024,
      "ĠSearch": 8025,
      "Ġflight": 8026,
      "outer": 8027,
      "Ġmyst": 8028,
      "ĠIndex": 8029,
      "ĠWhe": 8030,
      "contrib": 8031,
      "ĠSaf": 8032,
      "inois": 8033,
      "Msg": 8034,
      "ĠEth": 8035,
      "fire": 8036,
      "Ġannounce": 8037,
      "help": 8038,
      "Ġprovider": 8039,
      "mult": 8040,
      "Edit": 8041,
      "(!": 8042,
      "Members": 8043,
      "primary": 8044,
      "1987": 8045,
      "Ġpal": 8046,
      "ĠJes": 8047,
      "Ġrequests": 8048,
      "bad": 8049,
      "Runtime": 8050,
      "ickets": 8051,
      "bre": 8052,
      "andra": 8053,
      "()).": 8054,
      "illy": 8055,
      "Float": 8056,
      "Ġrepresentation": 8057,
      "km": 8058,
      "Ġtro": 8059,
      "Ġtypically": 8060,
      "Ġenabled": 8061,
      "LIC": 8062,
      "Ġsecure": 8063,
      "Var": 8064,
      "ĠBiden": 8065,
      "Ġpolitics": 8066,
      "ĠTask": 8067,
      "Ġunivers": 8068,
      "Ġtells": 8069,
      "Symbol": 8070,
      ")));": 8071,
      "ĠRadio": 8072,
      "ĠSouthern": 8073,
      "engine": 8074,
      "ĠNode": 8075,
      "jquery": 8076,
      "ĠPacific": 8077,
      "Ġfunc": 8078,
      "Video": 8079,
      "Ġcombination": 8080,
      "Ġfill": 8081,
      "ĠPR": 8082,
      "Close": 8083,
      "Rest": 8084,
      "Ġpositions": 8085,
      "Ġleaves": 8086,
      "Ġhydro": 8087,
      "Ġbuilder": 8088,
      "ĠHa": 8089,
      "effect": 8090,
      "MI": 8091,
      "Panel": 8092,
      "ĠIrish": 8093,
      "Ġadvantage": 8094,
      "rim": 8095,
      "Ġvisible": 8096,
      "prise": 8097,
      "Ġvision": 8098,
      "entials": 8099,
      "Ġdepart": 8100,
      "=\"\">": 8101,
      "star": 8102,
      "Ġweekend": 8103,
      "ression": 8104,
      "Directory": 8105,
      "////////////////////////////////": 8106,
      "ĠFar": 8107,
      "Ġconcerns": 8108,
      "Ġmyself": 8109,
      "pan": 8110,
      "atar": 8111,
      "ountry": 8112,
      "Ġknows": 8113,
      "Ġhousing": 8114,
      "1986": 8115,
      "Ġcorner": 8116,
      "======": 8117,
      "1984": 8118,
      "MAX": 8119,
      "ether": 8120,
      "ĠDigital": 8121,
      "Ġheat": 8122,
      "!âĢĿ": 8123,
      "Ġattacks": 8124,
      "cam": 8125,
      "Ġholds": 8126,
      "lay": 8127,
      "ampion": 8128,
      "ircle": 8129,
      "ĠPakistan": 8130,
      "Ġtrees": 8131,
      "jar": 8132,
      "ĠWalk": 8133,
      "Ġlab": 8134,
      "ONE": 8135,
      "ĠTheatre": 8136,
      "pa": 8137,
      "itionally": 8138,
      "During": 8139,
      "Ġaccepted": 8140,
      "Ġframework": 8141,
      "ERS": 8142,
      "Ġchart": 8143,
      "initely": 8144,
      "Ġfinding": 8145,
      "ushed": 8146,
      "La": 8147,
      "ĠBecause": 8148,
      "800": 8149,
      "ĠMah": 8150,
      "ĠRh": 8151,
      "Ġtrav": 8152,
      "UID": 8153,
      "Ġthousands": 8154,
      "Since": 8155,
      "rawn": 8156,
      "ĠVAL": 8157,
      "poss": 8158,
      "ĠSpring": 8159,
      "allel": 8160,
      "abeth": 8161,
      "osa": 8162,
      "ĠEs": 8163,
      "operation": 8164,
      "tics": 8165,
      "ĠParam": 8166,
      "properties": 8167,
      "Ġachieve": 8168,
      "ĠNorthern": 8169,
      "ĠHarr": 8170,
      "Ġspeech": 8171,
      "ĠJr": 8172,
      "Ġhair": 8173,
      "Ġregions": 8174,
      "VERSION": 8175,
      "Ġisol": 8176,
      "Ġpurchase": 8177,
      "Ġsamples": 8178,
      "ĠSpain": 8179,
      "ĠOption": 8180,
      "PORT": 8181,
      "evin": 8182,
      "Global": 8183,
      "Ġowned": 8184,
      "istant": 8185,
      "ĠCopyright": 8186,
      "nic": 8187,
      "Ġsomew": 8188,
      "roke": 8189,
      "Find": 8190,
      "ĠLu": 8191,
      "Ġproducer": 8192,
      "MT": 8193,
      "Ġsan": 8194,
      "Ġlearned": 8195,
      "Ġgirls": 8196,
      "MB": 8197,
      "Book": 8198,
      "selected": 8199,
      "Ġunion": 8200,
      "umes": 8201,
      "Ð°Ð": 8202,
      "account": 8203,
      "()));": 8204,
      "ulf": 8205,
      "Ġconsequ": 8206,
      "rase": 8207,
      "ById": 8208,
      "Ġjump": 8209,
      "radius": 8210,
      "ĠCH": 8211,
      "mir": 8212,
      "ila": 8213,
      "1985": 8214,
      "ylvania": 8215,
      "Ġbasketball": 8216,
      "Ġposted": 8217,
      "Ġamb": 8218,
      "Ġgain": 8219,
      "icing": 8220,
      "Ġdiscussion": 8221,
      "present": 8222,
      "ĠFour": 8223,
      "Ġpoly": 8224,
      "Ġok": 8225,
      "adel": 8226,
      "Ġvariables": 8227,
      "Ġsuccessfully": 8228,
      "{}": 8229,
      "Ġ{};": 8230,
      "ĠGi": 8231,
      "inv": 8232,
      "Ret": 8233,
      "ishop": 8234,
      "secut": 8235,
      "ima": 8236,
      "idi": 8237,
      "Ġversions": 8238,
      "ĠExecut": 8239,
      "ĠProfessor": 8240,
      "Ġbegins": 8241,
      "ĠJac": 8242,
      "ĠToday": 8243,
      "Ġspring": 8244,
      "Ġsupporting": 8245,
      "Ġliber": 8246,
      "Enum": 8247,
      "Ġfacility": 8248,
      "FS": 8249,
      "Ġinterpret": 8250,
      "ĠJava": 8251,
      "ĠElement": 8252,
      "controller": 8253,
      "Ġweak": 8254,
      "Â°": 8255,
      "Ġtra": 8256,
      "ĠLandroid": 8257,
      "ĠBul": 8258,
      "Iterator": 8259,
      "ĠCoast": 8260,
      "Ġraw": 8261,
      "Ġmarkets": 8262,
      "??": 8263,
      "Ġdiscovered": 8264,
      "ository": 8265,
      "Ġnice": 8266,
      "Ġapparent": 8267,
      "ryst": 8268,
      "Internal": 8269,
      "oted": 8270,
      "Ġadvent": 8271,
      "Ġcoverage": 8272,
      "ĠGets": 8273,
      "Ġthanks": 8274,
      "Ġdetect": 8275,
      "ĠSection": 8276,
      "lg": 8277,
      "iate": 8278,
      "à®": 8279,
      "ĠBeach": 8280,
      "||": 8281,
      "ingly": 8282,
      "Ġauthors": 8283,
      "elly": 8284,
      "*)": 8285,
      "ĠConst": 8286,
      "Ġchanging": 8287,
      "Ġextract": 8288,
      "Ġapproved": 8289,
      "ĠRo": 8290,
      "Pattern": 8291,
      "inator": 8292,
      "ione": 8293,
      "writer": 8294,
      "Ġanimal": 8295,
      "apes": 8296,
      "Ġglass": 8297,
      "ĠCollection": 8298,
      "Ġhelping": 8299,
      "Ġ[[": 8300,
      "1950": 8301,
      "Ġabsolute": 8302,
      "schema": 8303,
      "Loader": 8304,
      "Feature": 8305,
      "ĠTrust": 8306,
      "Ġupdates": 8307,
      "Desc": 8308,
      "\":\"": 8309,
      "Ġaffected": 8310,
      "ran": 8311,
      "Ġmunicip": 8312,
      "atters": 8313,
      "unny": 8314,
      "lywood": 8315,
      "Ġspend": 8316,
      "Ġsuc": 8317,
      "kw": 8318,
      "oses": 8319,
      "Ġmaintain": 8320,
      "children": 8321,
      "Ġleads": 8322,
      "Ġfactory": 8323,
      "Ġimportance": 8324,
      "isc": 8325,
      "ĠMid": 8326,
      "Ġclaimed": 8327,
      "ĠBas": 8328,
      "edge": 8329,
      "Ġtend": 8330,
      "Ġdesc": 8331,
      "Î±": 8332,
      "Ġtournament": 8333,
      "stein": 8334,
      "Ä±": 8335,
      "ĠLuc": 8336,
      "Inv": 8337,
      "ĠCarl": 8338,
      "pository": 8339,
      "Ġdifferences": 8340,
      "rical": 8341,
      "Ġve": 8342,
      "Ġvent": 8343,
      "Just": 8344,
      "contin": 8345,
      "ĠOhio": 8346,
      "Ġsister": 8347,
      "Ġinfrastructure": 8348,
      "Ġwaves": 8349,
      "Ġcreative": 8350,
      "Ġherself": 8351,
      "Ġnewsp": 8352,
      "ĠSecretary": 8353,
      "Ġfn": 8354,
      "Matrix": 8355,
      "Ġreviews": 8356,
      "desc": 8357,
      "Proxy": 8358,
      "apply": 8359,
      "Ġvaccine": 8360,
      "Ġwaiting": 8361,
      "ĠPC": 8362,
      ")\">": 8363,
      "ĠBit": 8364,
      "ĠNiger": 8365,
      "Ġwww": 8366,
      "->_": 8367,
      "++;": 8368,
      "SQL": 8369,
      "Ġvirus": 8370,
      "Term": 8371,
      "ĠBrook": 8372,
      "issue": 8373,
      "ĠTw": 8374,
      "ĠRom": 8375,
      "Ġkid": 8376,
      "ĠAsian": 8377,
      "Ġcommitted": 8378,
      "itu": 8379,
      "Ġcold": 8380,
      "Ġsurg": 8381,
      "Ġmanage": 8382,
      "ĠCivil": 8383,
      "Ġlicens": 8384,
      "Ġvideos": 8385,
      "Grid": 8386,
      "Files": 8387,
      "flags": 8388,
      "game": 8389,
      "Ġtruly": 8390,
      "Ġinvalid": 8391,
      "notation": 8392,
      "Ġliterature": 8393,
      "'])": 8394,
      "Ġroles": 8395,
      "Ġblocks": 8396,
      "otes": 8397,
      "SIZE": 8398,
      "delta": 8399,
      "Ġrecover": 8400,
      "hell": 8401,
      "Ġ\"\"": 8402,
      "Ġinstitutions": 8403,
      "acket": 8404,
      "Ġreader": 8405,
      "Two": 8406,
      "bury": 8407,
      "idential": 8408,
      "Ġprepared": 8409,
      "ĠQueen": 8410,
      "Ġ(\\": 8411,
      "ennis": 8412,
      "udden": 8413,
      "Flags": 8414,
      "Ġpitch": 8415,
      "Ġexamples": 8416,
      "Ġestimated": 8417,
      "ĠSeason": 8418,
      "ela": 8419,
      "night": 8420,
      "git": 8421,
      "world": 8422,
      "Ġlib": 8423,
      "anna": 8424,
      "Ġcas": 8425,
      "oster": 8426,
      "atible": 8427,
      "Ġportrait": 8428,
      "Ġio": 8429,
      "Ġhomes": 8430,
      "network": 8431,
      "orph": 8432,
      "ĠWatch": 8433,
      "eps": 8434,
      "ĠVideo": 8435,
      "handler": 8436,
      "Ġdistinct": 8437,
      "Ġincorpor": 8438,
      "Ġtracks": 8439,
      "manager": 8440,
      "DY": 8441,
      "ĠSpec": 8442,
      "Auto": 8443,
      "ERE": 8444,
      "ULE": 8445,
      "tsd": 8446,
      "Expr": 8447,
      "iveness": 8448,
      "Ġrecording": 8449,
      "super": 8450,
      "onto": 8451,
      "Ġsquare": 8452,
      "ga": 8453,
      "typedef": 8454,
      "Ġdance": 8455,
      "DP": 8456,
      "Ġseasons": 8457,
      "cher": 8458,
      "Ġparticipants": 8459,
      "month": 8460,
      "Elements": 8461,
      "Ġscre": 8462,
      "cred": 8463,
      "itutional": 8464,
      "ĠJewish": 8465,
      "Generic": 8466,
      "Pay": 8467,
      "ĠIl": 8468,
      "roud": 8469,
      "Ġcash": 8470,
      "iliar": 8471,
      "Ġmagazine": 8472,
      "BE": 8473,
      "sylvania": 8474,
      "Final": 8475,
      "Ġhappens": 8476,
      "ĠMuslim": 8477,
      "modules": 8478,
      "Ġcorresponding": 8479,
      "Ġsegment": 8480,
      "cb": 8481,
      "çļ": 8482,
      "Ġadvoc": 8483,
      "MOD": 8484,
      "READ": 8485,
      "ĠĠĠĠĠĠĠĠĠĠĠĠĠĠĠĠĠĠĠĠĠĠĠĠ": 8486,
      "Ġmac": 8487,
      "Ġexcellent": 8488,
      "Plugin": 8489,
      "oviet": 8490,
      "upload": 8491,
      "ĠSaint": 8492,
      "PATH": 8493,
      "Ġguy": 8494,
      "Background": 8495,
      "Ġscientific": 8496,
      "Ġexpos": 8497,
      "jpg": 8498,
      "ĠMic": 8499,
      "una": 8500,
      "}</": 8501,
      "Ġtopic": 8502,
      "Ġpurposes": 8503,
      "Ġsevere": 8504,
      "AF": 8505,
      "Ġcandidates": 8506,
      "Ġincred": 8507,
      "Ġserving": 8508,
      "area": 8509,
      "ĠNavy": 8510,
      "ĠSir": 8511,
      "Cond": 8512,
      "Ġkick": 8513,
      "NT": 8514,
      "endor": 8515,
      "Double": 8516,
      "ĠSource": 8517,
      "Ġgender": 8518,
      "Ġextremely": 8519,
      "ĠHas": 8520,
      "Ġsucceed": 8521,
      "ĠLittle": 8522,
      "ĠĠĠĠĠĠĠĠĠĠĠĠĠĠĠĠĠĠĠĠĠĠ": 8523,
      "Browser": 8524,
      "Space": 8525,
      "Ġpredict": 8526,
      "çļĦ": 8527,
      "etes": 8528,
      "Abstract": 8529,
      "ĠInitial": 8530,
      "Ġpun": 8531,
      "ears": 8532,
      "cknow": 8533,
      "ĠIT": 8534,
      "ĠSea": 8535,
      "edu": 8536,
      "SER": 8537,
      "inating": 8538,
      "ĠNav": 8539,
      "Ġmand": 8540,
      "ilde": 8541,
      "ĠPRO": 8542,
      "ĠDou": 8543,
      "Ġaccident": 8544,
      "Ġdiagn": 8545,
      "ĠPay": 8546,
      "ookie": 8547,
      "Ġconsumer": 8548,
      "ĠParliament": 8549,
      "each": 8550,
      "figure": 8551,
      "ĠTaylor": 8552,
      "stra": 8553,
      "ervative": 8554,
      "?\"": 8555,
      "128": 8556,
      "Ġamazing": 8557,
      "Ġfaith": 8558,
      "Ġcollected": 8559,
      "Ġelim": 8560,
      "ĠTODO": 8561,
      "Ġsoft": 8562,
      "Ġglob": 8563,
      "appe": 8564,
      "ĠAI": 8565,
      "Ġwinter": 8566,
      "Ġinspired": 8567,
      "Ġdecisions": 8568,
      "wer": 8569,
      "hab": 8570,
      "pdf": 8571,
      "ĠBroad": 8572,
      "Register": 8573,
      "ĠAP": 8574,
      "nesota": 8575,
      "ĠðŁ": 8576,
      "ĠStan": 8577,
      "reset": 8578,
      "utf": 8579,
      "ĠPy": 8580,
      "Ġcycle": 8581,
      "Ġholding": 8582,
      "Ġadvice": 8583,
      "Ġseemed": 8584,
      "ĠWis": 8585,
      "BP": 8586,
      "gi": 8587,
      "ĠNick": 8588,
      "webpack": 8589,
      "Ġslightly": 8590,
      "NavBarCell": 8591,
      "Ġpayment": 8592,
      "Ġmort": 8593,
      "Ġcer": 8594,
      "twitter": 8595,
      "lyn": 8596,
      "cores": 8597,
      "Scroll": 8598,
      "browser": 8599,
      "Ġbond": 8600,
      "anner": 8601,
      "chester": 8602,
      "Ġguarant": 8603,
      "Ġ[-": 8604,
      "Ġabstract": 8605,
      "Report": 8606,
      "Ġpieces": 8607,
      "ĠWat": 8608,
      "GO": 8609,
      "Ġstudied": 8610,
      "ĠCommon": 8611,
      "Ġreceiving": 8612,
      "isa": 8613,
      "compl": 8614,
      "Ġimproved": 8615,
      "Ġelections": 8616,
      "sigma": 8617,
      "![": 8618,
      "Ġshares": 8619,
      "Ġwinner": 8620,
      "Ġindustrial": 8621,
      "ows": 8622,
      "Ġlatter": 8623,
      "ĠMS": 8624,
      "Ġplanned": 8625,
      "Ġven": 8626,
      "Ġclassic": 8627,
      "Ġloop": 8628,
      "Ġteaching": 8629,
      "mann": 8630,
      "tmp": 8631,
      "Ġclim": 8632,
      "Ġsympt": 8633,
      "ĠBang": 8634,
      "&&": 8635,
      "Ġconcert": 8636,
      "ĠOlympics": 8637,
      "Ġsharing": 8638,
      "ivation": 8639,
      "ĠWales": 8640,
      "iterator": 8641,
      "editor": 8642,
      "%.": 8643,
      "Ġretr": 8644,
      "ĠNon": 8645,
      "1983": 8646,
      "Ġmal": 8647,
      "Ġfell": 8648,
      "Ġdrama": 8649,
      "Ġexperienced": 8650,
      "gov": 8651,
      "Ġinternet": 8652,
      "Ġopinion": 8653,
      "Ġinn": 8654,
      "Ġlinear": 8655,
      "Arch": 8656,
      "Ġwatching": 8657,
      "ĠEgypt": 8658,
      "ogy": 8659,
      "(-": 8660,
      "3333": 8661,
      "Attributes": 8662,
      "Ġphotos": 8663,
      "Ġcolon": 8664,
      "Ġemergency": 8665,
      "Ġtele": 8666,
      "Ġends": 8667,
      "RAN": 8668,
      "ĠKnow": 8669,
      "Java": 8670,
      "Ġimplements": 8671,
      "ĠBritain": 8672,
      "Ġancient": 8673,
      "ĠSus": 8674,
      "Transform": 8675,
      "Ġbranch": 8676,
      "IND": 8677,
      "Ġsolar": 8678,
      "Ġtypeof": 8679,
      "Ġconfirm": 8680,
      "Ġsignature": 8681,
      "hidden": 8682,
      "However": 8683,
      "Adapter": 8684,
      "Ġ(_": 8685,
      "ĠIllinois": 8686,
      "VE": 8687,
      "Ġwouldn": 8688,
      "ĠEngineering": 8689,
      "merce": 8690,
      "Symfony": 8691,
      "Lim": 8692,
      "mi": 8693,
      "aya": 8694,
      "Product": 8695,
      "Ġcrew": 8696,
      "Ġphen": 8697,
      "ilton": 8698,
      "otten": 8699,
      "acts": 8700,
      "Ġasync": 8701,
      "je": 8702,
      "named": 8703,
      "Prop": 8704,
      "ĠBlock": 8705,
      "NULL": 8706,
      "cert": 8707,
      "Ġterror": 8708,
      "Ġdetailed": 8709,
      "logger": 8710,
      "1982": 8711,
      "Look": 8712,
      "Ġsand": 8713,
      "ĠYouTube": 8714,
      "Ġmovies": 8715,
      "eria": 8716,
      "ĠStory": 8717,
      "Ġalumni": 8718,
      "izabeth": 8719,
      "Ġtechnologies": 8720,
      "UTF": 8721,
      "leted": 8722,
      "lets": 8723,
      "Ġprev": 8724,
      "ĠJersey": 8725,
      "Cap": 8726,
      "ĠImage": 8727,
      "Ġcommittee": 8728,
      "Ġscheme": 8729,
      "tabs": 8730,
      "ĠNext": 8731,
      "achment": 8732,
      "SCR": 8733,
      "odd": 8734,
      "brid": 8735,
      "Ġrecip": 8736,
      "NC": 8737,
      "Nov": 8738,
      "STAT": 8739,
      "keyword": 8740,
      "(__": 8741,
      "Ġpointer": 8742,
      "external": 8743,
      "Ġreserved": 8744,
      "Ġsouthern": 8745,
      "ĠBad": 8746,
      "structions": 8747,
      "fail": 8748,
      "mathrm": 8749,
      "lix": 8750,
      "fortun": 8751,
      "Keys": 8752,
      "ĠKong": 8753,
      "ToString": 8754,
      "ĠRequest": 8755,
      "Ġthank": 8756,
      "ĠWrit": 8757,
      "Memory": 8758,
      "asm": 8759,
      "enth": 8760,
      "1979": 8761,
      "chor": 8762,
      "Ġvul": 8763,
      "apore": 8764,
      "ĠThree": 8765,
      "ĠSoftware": 8766,
      "ĠPrime": 8767,
      "Ġskin": 8768,
      "ĠChildren": 8769,
      "Ġautomatically": 8770,
      "echo": 8771,
      "ĠProcess": 8772,
      "Ġpassword": 8773,
      "ĠFac": 8774,
      "Ġreq": 8775,
      "Ġcouncil": 8776,
      "Ġwitness": 8777,
      "ĠChair": 8778,
      "Ġefficient": 8779,
      "ĠBern": 8780,
      "ĠKent": 8781,
      "burgh": 8782,
      "getName": 8783,
      "110": 8784,
      "Ġcircum": 8785,
      "Ġtreated": 8786,
      "Dest": 8787,
      "Ġexplicit": 8788,
      "Ġunc": 8789,
      "ĠKorea": 8790,
      "hew": 8791,
      "ĠSom": 8792,
      "ĠCR": 8793,
      "ĠSher": 8794,
      "SY": 8795,
      "assets": 8796,
      "hesis": 8797,
      "IGHT": 8798,
      "Ġresolution": 8799,
      "Ġloved": 8800,
      "ĠCapt": 8801,
      "Ġmarriage": 8802,
      "ĠFair": 8803,
      "Delta": 8804,
      "Ġplatforms": 8805,
      "metadata": 8806,
      "stances": 8807,
      "Ġguard": 8808,
      "Ġdress": 8809,
      "ĠOnline": 8810,
      "Ġcampus": 8811,
      "tenance": 8812,
      "Ġattended": 8813,
      "Ġarmy": 8814,
      "osophy": 8815,
      "Ġcontrast": 8816,
      "arters": 8817,
      "identifier": 8818,
      "Ġfighting": 8819,
      "Ġmassive": 8820,
      "Ġturns": 8821,
      "Ġminute": 8822,
      "Ã£": 8823,
      "Dem": 8824,
      "ĠResource": 8825,
      "channel": 8826,
      "bro": 8827,
      "iffer": 8828,
      "people": 8829,
      "Play": 8830,
      "National": 8831,
      "IPT": 8832,
      "alar": 8833,
      "ĠDist": 8834,
      "iy": 8835,
      "Ġment": 8836,
      "Ġarrived": 8837,
      "iration": 8838,
      "anes": 8839,
      "XML": 8840,
      "Ġrent": 8841,
      "mutable": 8842,
      "Ġbelong": 8843,
      "Ġauthorities": 8844,
      "Ġinitially": 8845,
      "Ġbrings": 8846,
      "Ġdeleg": 8847,
      "Ġzone": 8848,
      "OUT": 8849,
      "Ġ>>": 8850,
      "Ġexplore": 8851,
      "Ġdiss": 8852,
      "Ġactress": 8853,
      "uma": 8854,
      "Ġera": 8855,
      "Ġauthority": 8856,
      "fast": 8857,
      "Ġjustice": 8858,
      "ĠMcC": 8859,
      "folio": 8860,
      "Ġcancell": 8861,
      "Duration": 8862,
      "ĠÂ©": 8863,
      "Ġnuclear": 8864,
      "Protocol": 8865,
      "Ġ${": 8866,
      "orough": 8867,
      "Ġstored": 8868,
      "inity": 8869,
      "Ġhotel": 8870,
      "Ġspaces": 8871,
      "Ġexit": 8872,
      "Ġfort": 8873,
      "Ġcookies": 8874,
      "Ġrelatively": 8875,
      "Â©": 8876,
      "Ġestate": 8877,
      "aks": 8878,
      "Ġreferred": 8879,
      "issues": 8880,
      "Ġassets": 8881,
      "Ġrelationships": 8882,
      "ĠFull": 8883,
      "Ġhearing": 8884,
      "Constr": 8885,
      "outs": 8886,
      "IMP": 8887,
      "Ġguess": 8888,
      "Layer": 8889,
      "ĠTem": 8890,
      "oral": 8891,
      "rovers": 8892,
      "ĠChange": 8893,
      "RES": 8894,
      "ĠĠĠĠĠĠĠĠĠĠĠĠĠĠĠĠĠĠĠĠĠĠĠĠĠĠĠĠĠĠĠĠĠĠĠĠĠĠĠĠĠĠĠ": 8895,
      "ĠFox": 8896,
      "ĠMir": 8897,
      "Ġchemical": 8898,
      "eral": 8899,
      "details": 8900,
      "avid": 8901,
      "ITE": 8902,
      "Ġbelieved": 8903,
      "Care": 8904,
      "ãĢ": 8905,
      "vin": 8906,
      "Ġacceler": 8907,
      "Ġencoding": 8908,
      "uality": 8909,
      "regon": 8910,
      "Ġscholar": 8911,
      "Ġnorthern": 8912,
      "Ġexplained": 8913,
      "ĠBooks": 8914,
      "Ġassociation": 8915,
      "Ġeasier": 8916,
      "trigger": 8917,
      "Ġfreedom": 8918,
      "uations": 8919,
      "ĠAz": 8920,
      "ego": 8921,
      "Spe": 8922,
      "ĠOx": 8923,
      "prene": 8924,
      "Ġ(@": 8925,
      "Ġinvent": 8926,
      "ĠPennsylvania": 8927,
      "switch": 8928,
      "Ġpassion": 8929,
      "ĠEst": 8930,
      "Conf": 8931,
      "Ġexpressed": 8932,
      "Ġstorm": 8933,
      "uls": 8934,
      "Ġbehavi": 8935,
      "Selected": 8936,
      "ĠON": 8937,
      "Ġnavigation": 8938,
      "ĠRay": 8939,
      "Section": 8940,
      "Fail": 8941,
      "[$": 8942,
      "Ġcauses": 8943,
      "Ġengineering": 8944,
      "Ġec": 8945,
      "Services": 8946,
      "ĠFI": 8947,
      "hide": 8948,
      "Remove": 8949,
      "GR": 8950,
      "Ġ[],": 8951,
      "ĠSteve": 8952,
      "Engine": 8953,
      "ACT": 8954,
      "ĠClin": 8955,
      "Ġvolunte": 8956,
      "ĠPhot": 8957,
      "FIG": 8958,
      "Photo": 8959,
      "ĠCur": 8960,
      "Ġteacher": 8961,
      "Func": 8962,
      "ĠAnth": 8963,
      "Ġvac": 8964,
      "Ġcert": 8965,
      "Ġsounds": 8966,
      "unting": 8967,
      "Profile": 8968,
      "ĠVill": 8969,
      "Ġresearchers": 8970,
      "Ġbow": 8971,
      "Ġproof": 8972,
      "tools": 8973,
      "total": 8974,
      "contains": 8975,
      "Ġinner": 8976,
      "Ñı": 8977,
      "Ġapplicable": 8978,
      ">:": 8979,
      "ĠMu": 8980,
      "Ġathlet": 8981,
      "Ġaccounts": 8982,
      "Ġregul": 8983,
      "Ġurban": 8984,
      "Ġevening": 8985,
      "ĠRod": 8986,
      "wa": 8987,
      "Ġhonor": 8988,
      "Ġspons": 8989,
      "Many": 8990,
      "izz": 8991,
      "Ġspecifically": 8992,
      "ĠDar": 8993,
      "Ġcaught": 8994,
      "Ġreporting": 8995,
      "ĠAli": 8996,
      "_(": 8997,
      "Ġpriv": 8998,
      "Note": 8999,
      "herited": 9000,
      "Parse": 9001,
      "Ġdelivered": 9002,
      "Ġaccomp": 9003,
      "redit": 9004,
      "fall": 9005,
      "shop": 9006,
      "Ġarchitecture": 9007,
      "reprene": 9008,
      "rie": 9009,
      "uset": 9010,
      "Ġnetworks": 9011,
      "raq": 9012,
      "oir": 9013,
      "Ġdefend": 9014,
      "1981": 9015,
      "domain": 9016,
      "Where": 9017,
      "anth": 9018,
      "Total": 9019,
      "Ġalongside": 9020,
      "ĠKr": 9021,
      "partial": 9022,
      "upl": 9023,
      "Ġfeaturing": 9024,
      "iples": 9025,
      "ĠInstagram": 9026,
      "Ġschedule": 9027,
      "idx": 9028,
      "enses": 9029,
      "Ġwarning": 9030,
      "ĠLabor": 9031,
      "^\\": 9032,
      "Ġtwice": 9033,
      "platform": 9034,
      "role": 9035,
      "+\\": 9036,
      "Ġincident": 9037,
      "ĠBoy": 9038,
      "Î¿": 9039,
      "=\"${": 9040,
      "ĠStaff": 9041,
      "ĠCro": 9042,
      "Statement": 9043,
      "news": 9044,
      "protected": 9045,
      "cuss": 9046,
      "Ġemphas": 9047,
      "ĠAsh": 9048,
      "izable": 9049,
      "LINE": 9050,
      "attributes": 9051,
      "Ġinstrument": 9052,
      "Comment": 9053,
      "oked": 9054,
      "Ġassigned": 9055,
      "Ġsuggested": 9056,
      "ĠMajor": 9057,
      "Ġchampionship": 9058,
      "ĠLatin": 9059,
      "Ġactors": 9060,
      "zone": 9061,
      "Ġpassing": 9062,
      "Ġfee": 9063,
      "original": 9064,
      "forcement": 9065,
      "Under": 9066,
      "amber": 9067,
      "ĠIOException": 9068,
      "Ġshooting": 9069,
      "ĠRen": 9070,
      ")).": 9071,
      "Pointer": 9072,
      "inates": 9073,
      "WN": 9074,
      "ĠEnt": 9075,
      "ĠSem": 9076,
      "ugh": 9077,
      "Ġafford": 9078,
      "Ġing": 9079,
      "ĠFOR": 9080,
      "Ġsummary": 9081,
      "Ġelev": 9082,
      "Ġspan": 9083,
      "utr": 9084,
      "ĠSupreme": 9085,
      "Ġ=========": 9086,
      "Mut": 9087,
      "alo": 9088,
      "Ġchosen": 9089,
      "ĠBattle": 9090,
      "Ġperman": 9091,
      "Ġexperts": 9092,
      "Ġawards": 9093,
      "Sequ": 9094,
      "Common": 9095,
      "Seg": 9096,
      "FFFF": 9097,
      "ĠDisney": 9098,
      "Ġdynamic": 9099,
      "ĠHash": 9100,
      "Ġmolec": 9101,
      "ĠComput": 9102,
      "=#": 9103,
      "ĠNC": 9104,
      "Ġgrew": 9105,
      "Ġ\"<": 9106,
      "Attr": 9107,
      "Ġshock": 9108,
      "subs": 9109,
      "player": 9110,
      "Ġtechniques": 9111,
      "Ġfiled": 9112,
      "Ġsynt": 9113,
      "Ġfeels": 9114,
      "Ġfilled": 9115,
      "clip": 9116,
      "jango": 9117,
      "Ġton": 9118,
      "Ġmainly": 9119,
      "yard": 9120,
      "Ġfinds": 9121,
      "Ġevolution": 9122,
      ".âĢĻ": 9123,
      "inson": 9124,
      "ĠOnce": 9125,
      "Ġsetup": 9126,
      "1972": 9127,
      "Ġreaders": 9128,
      "asters": 9129,
      "Constants": 9130,
      "Ġconsists": 9131,
      "horizontal": 9132,
      "ĠCommand": 9133,
      "Every": 9134,
      "ĠMinistry": 9135,
      "extern": 9136,
      "Ġinteger": 9137,
      "Ġfigures": 9138,
      "Ġkeeping": 9139,
      "Ġrelation": 9140,
      "Ġadmin": 9141,
      "fd": 9142,
      "Ġflags": 9143,
      "ĠCost": 9144,
      "ĠHard": 9145,
      "!\"": 9146,
      "Ġconnections": 9147,
      "WR": 9148,
      "Ġdemocr": 9149,
      "sche": 9150,
      "ourse": 9151,
      "Ġusage": 9152,
      "Identifier": 9153,
      "ĠKenn": 9154,
      "LECT": 9155,
      "ĠFind": 9156,
      "Success": 9157,
      ")/": 9158,
      "Ġdialog": 9159,
      "bytes": 9160,
      "Ġsubstant": 9161,
      "ĠAT": 9162,
      "teen": 9163,
      "Ġdestination": 9164,
      "Ġbringing": 9165,
      "Ġalleged": 9166,
      "CESS": 9167,
      "Ġtruck": 9168,
      "Ġgene": 9169,
      "ĠTurn": 9170,
      "ĠHong": 9171,
      "1976": 9172,
      "ĠArea": 9173,
      "Ã±": 9174,
      "ĠEV": 9175,
      "Ġfat": 9176,
      "Ġpromote": 9177,
      "REE": 9178,
      "Ġpossibly": 9179,
      "Ġratio": 9180,
      "ĠEmpire": 9181,
      "Ġmotion": 9182,
      "Enter": 9183,
      "ĠDeb": 9184,
      "=>": 9185,
      "builder": 9186,
      "Ġprofessor": 9187,
      "ĠLtd": 9188,
      "configuration": 9189,
      "Ġbridge": 9190,
      "Ġcomparison": 9191,
      "props": 9192,
      "Ġcontroller": 9193,
      "Ġsecondary": 9194,
      "rame": 9195,
      "Ġsizeof": 9196,
      "tons": 9197,
      "ĠEastern": 9198,
      "Subs": 9199,
      "prefix": 9200,
      "Cam": 9201,
      "Fin": 9202,
      "inton": 9203,
      "zz": 9204,
      "iti": 9205,
      "Ġsides": 9206,
      "ĠRog": 9207,
      ")),": 9208,
      "plus": 9209,
      "ĠĠĠĠĠĠĠĠĠĠĠĠĠĠĠĠĠĠĠĠĠĠĠĠĠĠĠĠĠ": 9210,
      "Pod": 9211,
      "gamma": 9212,
      "wall": 9213,
      "Ġdefinitely": 9214,
      "Ġcollaboration": 9215,
      "Ġnewly": 9216,
      "ALSE": 9217,
      "ĠRa": 9218,
      "GA": 9219,
      "Ġapart": 9220,
      "Ġsupposed": 9221,
      "Ġpy": 9222,
      "Ġduration": 9223,
      "urd": 9224,
      "antly": 9225,
      "ĠGreek": 9226,
      "Socket": 9227,
      "ĠPrince": 9228,
      "Scale": 9229,
      "Ġcontest": 9230,
      "NN": 9231,
      "ologist": 9232,
      "Ġdoubt": 9233,
      "Ġxmlns": 9234,
      "Mapping": 9235,
      "Ġearned": 9236,
      "ĠObama": 9237,
      "ĠFurther": 9238,
      "limit": 9239,
      "Ġeg": 9240,
      "Ġyards": 9241,
      "ĠGuard": 9242,
      "detail": 9243,
      "Ġped": 9244,
      "parser": 9245,
      "Ġagric": 9246,
      "Ġresponsibility": 9247,
      "Ġinsurance": 9248,
      "1978": 9249,
      "Ġgar": 9250,
      "lights": 9251,
      "Ġmach": 9252,
      "Ġmuseum": 9253,
      "ĠNFL": 9254,
      "picker": 9255,
      "Ġrecognized": 9256,
      "Ġhealthy": 9257,
      "Ġexpansion": 9258,
      "Ġmarked": 9259,
      "Ġequivalent": 9260,
      "Ġhouses": 9261,
      "theta": 9262,
      "ĠAk": 9263,
      "Ġmel": 9264,
      "News": 9265,
      "fold": 9266,
      "Ġrestaurant": 9267,
      "Ġlayout": 9268,
      "yo": 9269,
      "Ġconstructor": 9270,
      "ĠExecutive": 9271,
      "ĠLew": 9272,
      "ectors": 9273,
      "gba": 9274,
      "^{-": 9275,
      "Ġhyper": 9276,
      "Ġrevenue": 9277,
      "green": 9278,
      "Ġdensity": 9279,
      "Ġpatterns": 9280,
      "Wrapper": 9281,
      "ĠPers": 9282,
      "Ġdict": 9283,
      "Failed": 9284,
      "OB": 9285,
      "ĠIE": 9286,
      "Ġctx": 9287,
      "Ġwhatever": 9288,
      "filename": 9289,
      "aph": 9290,
      "ĠStock": 9291,
      "Ġaid": 9292,
      "Ġmodified": 9293,
      "ADD": 9294,
      "ĠExpl": 9295,
      "ĠMessage": 9296,
      "ĠMinnesota": 9297,
      "ĠTy": 9298,
      "]{": 9299,
      "Ġvertical": 9300,
      "Ġtherapy": 9301,
      "Watch": 9302,
      "serial": 9303,
      "Please": 9304,
      "arsed": 9305,
      "Opt": 9306,
      "ĠScotland": 9307,
      "icious": 9308,
      "ĠGovernor": 9309,
      "Help": 9310,
      "brief": 9311,
      "safe": 9312,
      "ashed": 9313,
      "101": 9314,
      "Ġeat": 9315,
      "achuset": 9316,
      ":#": 9317,
      "Ġguys": 9318,
      "Ġcart": 9319,
      "irms": 9320,
      "achusetts": 9321,
      "Free": 9322,
      "','": 9323,
      "ĠMember": 9324,
      "Ġentirely": 9325,
      "aga": 9326,
      "Ġcourses": 9327,
      "ouston": 9328,
      "Ã£o": 9329,
      "Ġdocumentation": 9330,
      "ĠSep": 9331,
      "pson": 9332,
      "Ġdry": 9333,
      "Ġurg": 9334,
      "Ġflood": 9335,
      "ĠAud": 9336,
      "ĠRon": 9337,
      "ĠBal": 9338,
      "Ġexplain": 9339,
      "Repository": 9340,
      "ĉĉĉĊ": 9341,
      "ĠCorporation": 9342,
      "Äĩ": 9343,
      "tags": 9344,
      "NOT": 9345,
      "Cre": 9346,
      "orem": 9347,
      "results": 9348,
      "Sync": 9349,
      "onia": 9350,
      "Route": 9351,
      "lik": 9352,
      "Day": 9353,
      "ÙĦ": 9354,
      "ĠAD": 9355,
      "ĠPH": 9356,
      "ugs": 9357,
      "Ġlose": 9358,
      "onymous": 9359,
      "ograp": 9360,
      "ĠViet": 9361,
      "Å¡": 9362,
      "hemat": 9363,
      "wild": 9364,
      "Ġprimarily": 9365,
      "Ġarts": 9366,
      "Selection": 9367,
      "sol": 9368,
      "1975": 9369,
      "possible": 9370,
      "Variable": 9371,
      "Ġnegot": 9372,
      "dem": 9373,
      "Ġfavour": 9374,
      "Ġaspects": 9375,
      "Ġneighborhood": 9376,
      "Writ": 9377,
      "Ġdiff": 9378,
      "occer": 9379,
      "ĠPhilipp": 9380,
      "ĠBol": 9381,
      "West": 9382,
      "Ġinterests": 9383,
      "ĉĠĠĠĠĠ": 9384,
      "ĠFuture": 9385,
      "Ġstores": 9386,
      "TIME": 9387,
      "article": 9388,
      "Ġrenew": 9389,
      "Ġstopped": 9390,
      "1968": 9391,
      "Ġwestern": 9392,
      "Collections": 9393,
      "ordan": 9394,
      "Ġappend": 9395,
      "USE": 9396,
      "Ġmedal": 9397,
      "Ġlit": 9398,
      "ĠDocument": 9399,
      "åı": 9400,
      "Ġ\",": 9401,
      "Ġscheduled": 9402,
      "Ġrough": 9403,
      "Ġseed": 9404,
      "ĠSat": 9405,
      "adelph": 9406,
      "door": 9407,
      "Ġrepresenting": 9408,
      "Ġsnow": 9409,
      "Ġspending": 9410,
      "ĠLook": 9411,
      "hu": 9412,
      "Ġworldwide": 9413,
      "low": 9414,
      "Ġdrag": 9415,
      "ĠAnother": 9416,
      "Ġcomedy": 9417,
      "defined": 9418,
      "etary": 9419,
      "ĠWAR": 9420,
      "Ġmanner": 9421,
      "Ġlargely": 9422,
      "1974": 9423,
      "Ġreaction": 9424,
      "verter": 9425,
      "Game": 9426,
      "1977": 9427,
      "para": 9428,
      "Ġring": 9429,
      "Ġodd": 9430,
      "Ġextr": 9431,
      "Ġcapture": 9432,
      "ndef": 9433,
      "Ġfrequency": 9434,
      "Ġintelligence": 9435,
      "Ġentertain": 9436,
      "execute": 9437,
      "Ġacknow": 9438,
      "ĠNAME": 9439,
      "Ġcab": 9440,
      "Ġwealth": 9441,
      "agnostic": 9442,
      "Ġhaven": 9443,
      "Ġperspective": 9444,
      "Ġdropped": 9445,
      "called": 9446,
      "doi": 9447,
      "Ġhumans": 9448,
      "Ġwaste": 9449,
      "ĠPut": 9450,
      "Ġdomestic": 9451,
      "Ġconsumers": 9452,
      "olis": 9453,
      "Ġchannels": 9454,
      "prev": 9455,
      "Ġsettlement": 9456,
      "ĠAvenue": 9457,
      "Ġongoing": 9458,
      "lan": 9459,
      "Ġprogramme": 9460,
      "Ġgrid": 9461,
      "liance": 9462,
      "Ġtech": 9463,
      "Simple": 9464,
      "ĠFred": 9465,
      "Ġorders": 9466,
      "ĠUt": 9467,
      "Ġpromise": 9468,
      "ĠThrough": 9469,
      "nce": 9470,
      "Ġordered": 9471,
      "iteral": 9472,
      "Ġreturning": 9473,
      "ruption": 9474,
      "Ġescape": 9475,
      "Ġscr": 9476,
      "ĠPen": 9477,
      "Ġflat": 9478,
      "axis": 9479,
      "ben": 9480,
      "Ġalgorithm": 9481,
      "Ġacting": 9482,
      "Ġwidely": 9483,
      "Ġhistoric": 9484,
      "Ġcharges": 9485,
      "ifiers": 9486,
      "ĠAgain": 9487,
      ")->": 9488,
      "collection": 9489,
      "BUG": 9490,
      "$$": 9491,
      "junit": 9492,
      "Ġbright": 9493,
      "oped": 9494,
      "ĠEll": 9495,
      "adelphia": 9496,
      "Ġlinked": 9497,
      "Ġrecommended": 9498,
      "Ġveter": 9499,
      "English": 9500,
      "ĠProduct": 9501,
      "ĠPhoto": 9502,
      "nu": 9503,
      "Cast": 9504,
[...]
