#version: 0.2
Ġ Ġ
ĠĠ ĠĠ
Ġ t
i n
e r
Ġ a
o n
h e
r e
a t
e n
o r
Ġt he
s t
a n
i t
a l
Ġ c
Ġ s
a r
e s
Ġ o
Ġ w
e d
i s
i on
Ġ f
ĠĠ Ġ
in g
Ġ p
l e
ĠĠĠĠ ĠĠĠĠ
Ġ b
n d
o u
i c
Ġ in
Ġo f
a s
r o
Ġ m
Ġ d
e t
Ġt o
c t
Ġa nd
en t
Ġ h
e l
Ġt h
i l
a m
o m
Ġ n
Ġ re
i d
Ġ S
Ġ l
o l
i g
c e
u t
i m
Ġ T
at ion
ĠĠĠĠ ĠĠĠ
Ġ e
o t
u r
Ġ (
â Ģ
Ġ C
a d
Ġ A
s e
i v
c h
Ġ =
Ġ g
Ġ is
Ġ I
u l
r a
o d
o w
ĉ ĉ
< /
i f
Ġf or
a g
t h
Ġ M
l y
u n
Ġ st
= "
Ġ on
a y
Ġb e
e m
er s
u s
Ġ v
) ;
Ġ $
Ġ P
p e
it h
at e
a b
u m
- -
Ġ {
i r
Ġ B
c k
Ġ \
Ġ <
q u
i st
t er
Ġth at
Ġc on
h t
a v
v er
p t
č Ċ
ĠĠĠĠĠĠĠĠ ĠĠĠ
Ġ D
Ġ R
/ /
as s
e x
Ġa s
e w
Ġw ith
r i
e st
es s
2 0
Ġ H
an d
ct ion
Ġ F
Ġ *
l o
Ġw h
re s
en d
Ġa n
Ġa l
Ġ L
p p
am e
Ġ it
Ġ y
Ġ N
Ġ W
ou r
Ġp ro
or t
u b
âĢ Ļ
er e
o p
Ġ G
Ġ E
Ġ "
Ġ }
u e
it y
Ġd e
il l
ĠT he
k e
" >
ag e
ro m
o re
n t
Ġe x
o s
Ġc om
l ass
ar t
Ġa t
e ct
m ent
a in
. .
Ġ or
in e
Ġb y
ig ht
l d
Ġth is
t r
Ġ r
al l
ĠĠĠĠĠĠĠĠ ĠĠĠĠĠĠĠĠ
Ġa re
Ġw as
o c
at h
l i
a p
Ġ O
ĠĠĠĠ Ġ
iv e
u re
an t
Ġ u
Ġ he
( )
ur n
i es
Ġs e
s p
Ġ J
Ġf rom
* *
i z
i al
c on
a ck
ul t
u d
a c
ex t
p er
g e
Ġw e
_ {
l ic
Ġ âĢ
u st
o g
an s
r ou
a st
0 0
Ġn ot
av e
ab le
Ġ if
1 9
Ġc h
Ġc lass
Ġs h
e g
f f
ou t
or m
y pe
Ġ &
in t
ar d
t urn
in d
Ġ U
b er
p h
-- --
o v
g et
od e
a re
c om
e f
Ġ '
el l
p l
o st
Ġ -
= =
ar y
p ort
re f
as e
Ġ le
T he
Ġy ou
it e
o k
at ed
i le
pt ion
a k
or d
i re
20 1
id e
Ġt r
' s
Ġh ave
ou ld
a ct
im e
ic e
ĠĠĠĠĠĠĠĠ ĠĠĠĠĠĠĠ
a ce
ic h
e p
I n
ig n
Ġ j
Ġs u
at a
i a
i p
Ġ K
on g
it ion
ic al
t o
{ \
or k
c l
Ġp l
Ġc an
an g
Ġ us
j ect
e ar
ĠI n
Ġcon t
Ġa b
s er
Ġcom p
en ce
Ġ V
Ġ k
c c
il d
on e
Ġh as
Ġ //
Ġal l
Ġre turn
Ġn ew
an ce
ĠT h
en s
Ġ Ċ
st r
) ,
al ue
m a
f orm
e v
) .
Ġ$ \
ĉĉ ĉĉ
- >
r y
Ġa d
: :
i b
ub lic
ĠS t
e c
on t
ation s
or y
Ġ </
Ġ im
th er
Ġ un
Ġ [
f t
âĢ Ŀ
he n
res s
ou s
our ce
Ġw ill
.. /
Ġa r
ro w
ou nt
Ġd o
un ction
Ġre s
Ġh is
s o
el f
a ch
om e
Ġb ut
p ro
Ġwh ich
m ath
a il
Ġo ut
ent s
S t
l l
d u
Ġ @
Ġ en
g h
" ,
c ri
ul l
ar am
in k
1 0
o ok
Ġ /
ow n
Ġ +
a u
p s
Ġm e
Ġg o
m l
s et
ou nd
ĠC h
u al
i ew
Ġon e
( "
Ġu p
d iv
iz e
ar k
o b
Ġthe ir
re e
( );
Ġst r
f er
Ġthe y
t e
ess age
et h
or s
sp an
p le
i an
Ġd is
} \
Ġe v
a ke
Ġg et
Ġs c
i el
ion s
Ġm ore
p ut
n e
ot h
> </
er v
ir st
Ġs o
ĠâĢ ľ
} $
^ {
Ġp er
en c
is h
Ġwh o
Ġ Y
Ġ .
tr ing
Ġ |
er y
E x
he d
ol l
Ġ qu
e qu
---- ----
' ,
en er
ol d
el y
> <
Ġw ere
ing s
iel d
Ġin t
Ġp ublic
Ġp art
in al
cl ud
f ig
Ġin ter
y st
u g
s s
Ġs p
Ġde f
pe ct
w e
Ġm an
t t
le ct
20 0
ra y
s h
Ġa pp
r it
** **
ic t
m er
at es
b ut
E R
Ġ :
a pp
o ol
Ġp r
Ġal so
Ġl i
Ġs et
Ġn e
Ġab out
Ġn ame
Ġa g
Ġf unction
Ġ* /
c al
er t
../ ../
t ext
ic k
o int
er r
p r
pe c
ay s
Ġh er
Ġo ver
w o
u p
Ġp re
nd er
Ġit s
v el
o id
Ġo b
v e
ĉĉ ĉ
er m
o ver
Ġw ork
c re
yst em
ĠĠĠĠĠĠĠĠ ĠĠĠĠĠĠĠĠĠĠĠ
i x
Ġt ime
ht ml
a w
Ġbe en
T h
ic s
} }
o se
Ġ #
P ro
y s
== ==
ig h
n g
ab el
ĠI t
Ġo ther
Ġan y
Ġw hen
O N
1 2
Ġh ad
Ġv ar
ĠĠĠĠĠĠĠĠ Ġ
f ter
n ame
Ġth ere
( '
I N
Ġh ref
i o
( \
) )
i e
t y
od el
l es
is s
a x
ra c
on d
at er
Ġy ear
at ch
Ġ ro
th is
ov e
r am
N ame
on s
eg in
an c
r ight
Ġt e
s ource
Ġo ur
at or
l ine
Ġy our
Ġw ould
1 8
Ġd es
m essage
Ġf irst
: //
} ,
an ge
b egin
T ype
ĠU n
Ġth an
ar g
rou p
Ġs ome
rou nd
_ _
Ġin to
t he
u ild
ĠH e
ter n
if ic
Ġt ype
im port
at ic
ri but
ĠâĢ ĵ
Ġad d
l ation
um ber
Ġs a
Ġof f
tr ans
t d
Ġp e
lo ck
Ġd ata
le ment
I d
Ġk n
Ġthe m
is e
S tring
Ġn o
u ct
R E
Ġre c
Ġv alue
al se
at ive
Ġon ly
p aram
s um
Ġcom m
an n
ad e
d d
c ode
Ġt wo
op le
i ous
ation al
1 1
ke y
ur re
_{ \
Ġ= >
Ġ end
ar ch
m b
eth od
f o
at ing
Ġcon st
ĠW e
Ġl ine
c he
en g
Ġc ol
ĠTh is
Ġa cc
al ly
Ġb et
am es
cri pt
c ol
al s
C ont
) $
S T
C on
Ġc l
t a
1 6
Ġli ke
u es
re turn
Ġ el
Ġs he
.. .
ul ar
Ġin d
em ber
o f
o x
Ġs ub
/ >
Ġ i
Ġs elf
Ġc re
# #
Ġ id
re ad
as h
Ġa ct
le t
ĠC om
Ġre g
e ad
p os
o ck
Ġt ra
pp ort
C om
A T
Ġm y
Ġre qu
n c
Ġf e
Ġb ack
C h
ol og
ad d
} {
Ġres ult
am p
d ef
ce ption
Ġwh at
1 5
u nd
i ed
ĠP ro
Ġat t
Ġu nder
v ent
R es
" />
Ġin clud
c ess
Ġ !
Ġj ust
ht t
Ġu se
Ġp os
Ġwh ere
l abel
it ies
Ġsa id
ĠA r
m s
n ing
a ult
as ed
b le
il ity
Ġpl ay
Ġd if
au se
e b
Ġa fter
t ype
ut h
it s
t on
Ġm ay
ib le
oll ow
or ld
O R
ra ph
c lass
n er
em ent
e q
f rac
con t
Ġpe ople
L ist
Ġ _
ow er
Ġpro v
ac he
s on
Ġc all
w ard
an k
et a
w w
rou gh
Ġin v
ire ct
trans lation
Ġthe n
Ġe ver
Ġ= =
urre nt
Ġh ow
r ic
u res
ou gh
ĠN ew
in ed
le ft
Ġre l
con d
Ġp h
it le
it ed
l ed
ers ion
p on
Ġre m
A R
Ġtr ans
im es
t ing
Ġa m
ĠS e
res ent
1 3
L E
lo c
er n
l and
f ore
Ġs pec
iv ers
d er
s c
Ġn ull
ra ct
id er
Ġsh ow
or g
' t
ag es
um ent
h at
v ar
at ure
m in
ic es
iv ate
r u
le ction
Ġsu ch
c ite
re at
1 4
Ġ ent
Ġv oid
) :
Ġl oc
Ġin st
Ġf il
a ir
e k
Ġa c
Ġfor m
id th
Ġ >
e y
A r
Ġm ost
Ġh im
2 5
Ġthe se
in s
Ġex p
f ul
ĠS h
as k
I t
o od
Ġne ed
Ġp ol
s elf
v iew
Ġor g
il y
Ġc o
Ġ `
Ġbe c
lo g
"> <
Ġch ar
v al
Ġth rough
w n
A L
Ġf ollow
Ġus ed
m an
p en
Ġf l
Ġs erv
b ack
E N
y le
re d
Ġex t
ar s
we en
Ġv al
o le
Ġtr ue
Ġ --
1 7
Ġsh ould
b e
in ce
I D
c ent
ment s
3 0
Ġh igh
od y
ur ing
t s
ption s
Ġt est
ser v
math b
ĠA l
Ġc ase
Ġc ould
) );
m p
Ġf alse
Ġst ud
am b
Ġg ener
i ent
Ġcon s
$ .
r m
Ġ err
re am
b ject
Ġdif fer
in es
i er
Ġ ra
ut ion
" );
re n
ist s
Ġd et
Ġw ell
u ff
Ġpro du
at t
s ub
ĠĠĠĠĠĠĠĠ ĠĠĠĠĠ
is hed
b ar
oth er
$ ,
Ġel se
} )
Ġst art
Ġs im
an y
ĠĠĠĠĠĠĠĠĠĠĠĠĠĠĠĠ ĠĠĠĠĠĠĠ
ser t
u ch
str ing
r r
T o
a h
o ot
if e
**** ****
Ġbet ween
iz ed
-------- --------
Ġd ist
Ġn ow
ot e
ar get
Ġ x
, \
ĠA n
Ġs m
Ġc or
S S
eng th
as on
form ation
Ġf inal
Ġp oint
Ġs ystem
av a
ĠE x
f l
Ġag ain
ff ect
d ay
Ġkn ow
Ġre ad
Ġyear s
Ġ Q
ĠA s
Ġr ight
} .
ers on
et s
00 0
Ġn umber
equ ation
Ġever y
Ġ )
per ty
it em
it t
Ġ| |
p ar
ĠC on
c o
Ġl ong
Ġse e
19 9
âĢ ľ
a z
mer ic
li ent
f or
d ata
Ġas s
D ata
al e
n b
id ent
iv er
p re
u le
V alue
Ġm ake
am ple
math cal
Ġs ign
ĠF or
// //
r al
Ġd id
Ġdo es
. âĢĿ
w ork
ire d
3 2
Ġe ach
Ġg iv
are nt
oc i
Ġbe ing
Ġm odel
e le
y p
a ction
et er
Ġl ist
A N
d a
r id
b y
Ġev en
C ol
is ion
p x
ch ool
ĠT r
w h
Ġs er
d ate
e ver
n ew
ak ing
o y
ĠĠĠĠĠĠĠĠĠĠĠĠĠĠĠĠ ĠĠĠĠĠĠĠĠĠĠĠĠĠĠĠĠ
us s
I T
ot t
v alue
Ġm in
Ġbec ause
is m
Ġl ook
c ed
ro ll
cc ess
ph a
w ay
Ġ Z
pl ay
5 0
S et
Ġman y
i k
Ġs ur
f ile
loc ation
ant s
ro id
nb sp
en se
ĠĠĠĠ ĠĠ
ou se
he ck
W e
Ġa p
" )
enc es
g er
Ġc ount
} (
Ġw ay
Ġre p
ĠA nd
C T
Ġstr ing
ce pt
at us
Ġbe fore
n ot
Ġs ame
l p
Ġ/ **
Ġh and
lo ad
B y
S E
Ġ ed
Ġwh ile
if y
Ex ception
Ġv ery
r ad
o h
h ip
m e
Ġb l
i ence
Ġm od
} ^
A s
Ġg u
2 4
ro l
Ġf ound
y n
Ġus ing
Ġo per
al k
Ġb el
c es
( $
ath er
ut e
iz ation
t est
ical ly
f ace
Ġsu pport
g ram
ĠI f
Ġl ast
O bject
Ġd r
ivers ity
Ġ// /
rr or
Ġar t
ot s
Ġ& &
enc y
Ġpr ivate
âĢ ĵ
Ġr un
g y
] ;
~ \
} _
ro p
Ġe qu
str uct
T r
b r
y m
Ġde c
D E
g ht
Ġf ind
==== ====
Ġst atic
are d
al pha
ĠI nd
Ġm on
ĠA meric
olog y
Ġb oth
Ġs ol
if ied
Ġre sp
. ,
or n
Ġst ate
Ġd own
2 2
Ġm ethod
Ġdis c
20 19
Ġdiffer ent
S e
Ġh ere
he ad
l er
U n
Ġf ield
' )
1 00
al th
Ġde p
Ġm ade
el ta
âĢ ¦
um n
Ġth ink
Ġex per
Ġ X
ĠS tring
M E
lo b
r on
h er
Ġw orld
Ġ! =
ar n
Ġle ad
ch n
G et
re qu
ĠY ou
Ġm ed
Ġd on
m ed
Ġgo od
Ġ %
Ġc ent
ro ss
com m
a j
T est
ord er
s ize
Ġm uch
or th
r c
amb da
in ter
m ary
u c
A n
Ġth ose
Ġo wn
Ġob ject
Ġc urrent
ual ly
ĠS c
vel op
Ġw ant
t il
htt p
() .
t en
] ,
ĠI s
Th is
ind ow
ĠR es
Ġde velop
iv es
le ar
s u
o ad
ist er
Ġf act
qu e
. "
Ġa v
us h
u se
Ġb r
Ġf am
r ite
Ġim port
p i
ain s
F or
s cript
Ġse cond
l ink
() );
b ers
re g
Ġin formation
2 1
Ġb o
an e
ess ion
al ity
V iew
ag er
R ef
Ġpro cess
end s
Ġth ree
in ess
C O
Ġex pect
t ime
E rror
Ġp ass
ĠW h
ra w
. _
re ak
p ace
ar m
I nd
l ay
) \
ent ial
n ess
as es
Ġ key
cri ption
Ġpart ic
uth or
S h
oc ument
ĠD e
Ġp aram
l ist
l ang
ction s
Ġhe lp
b s
R O
ĠC ol
Ġm ov
p ublic
4 0
Ġd irect
ĠP h
Ġe st
ĠĠĠĠ Ċ
I m
ak es
ut il
ra g
Ġw rit
op y
Ġn on
C lass
f ield
d is
L L
2 3
it al
f unction
n et
Ġhe ad
Ġm em
ĠR e
Ġar g
$ \
Ġb uild
"> </
Ġper form
Ġte am
n av
se arch
am ma
ind ex
m od
iss ion
l ess
ect or
u ck
j s
Ġor der
i ev
ur al
t ain
Ġst ill
l ish
ĠâĢ ĺ
[ '
Ġcont in
Ġd uring
Ġf ile
" ;
Ġc lo
= \
ĉĉĉĉ ĉ
Ġch ild
Ġv is
Ġc ar
ition s
m u
O n
] .
g o
A C
se ction
t op
Ġto p
Ġ z
Ġim p
ur l
I C
I ON
6 4
in clud
' );
w idth
o pe
. </
R equ
Ġs om
erv ice
Ġh tt
g round
ĠUn iversity
Ġm ark
Ġgiv en
re m
at s
ig ma
Ġt ake
K ey
el s
it or
ĠH ow
_ \
eg a
Ġre port
ar ray
ĠB ut
ou th
p art
Ġ ke
com e
tern al
ĠM ar
Ġm ust
Ġm ain
Ġt itle
Ġm at
un c
Ġo pen
, âĢĿ
ĠO n
us iness
ord s
ĠC l
iv ed
le x
T E
Ġt erm
Ġg roup
Ġe ar
ens ion
Ġs ing
it ial
in a
us ic
Ġp ost
v en
3 3
! --
Ġe ffect
s ide
Ġa round
f e
uff er
Ġs l
Ġre le
Ġcomm un
Ġre al
s y
ribut e
ur ation
ff ic
ir c
6 0
Ġapp ro
201 8
ust om
Ġprov id
Ġp erson
a pt
mathb b
a pe
og le
ĠL e
Ġs ay
() ,
con st
Ġ/ >
Ġall ow
Ġin cre
Ġev ent
ack age
19 8
Ġb ook
Ġn ext
F ile
I nt
Ġfollow ing
" :
b o
ĠCom m
Ġa ut
htt ps
ww w
v ir
ĠâĢ Ķ
ep end
Ġg ame
v ious
Ġm et
ver t
qu ot
Ġp at
it er
Ġre f
w it
2 7
ab ility
Ġs ince
Ġ\ \
Ġpos s
ist ory
ect ed
Ġchar act
ĠS he
t able
Ġp ar
Ġle vel
=" ../../
T ime
et work
A P
um p
' ]
ress ion
Ġs ize
r ation
pon se
id d
sum mary
=" +
Ġl ife
ate g
ep s
201 7
p ath
Ġagain st
ur y
Ġth row
} _{
Ġbe st
} ^{
2 8
Ġcons ider
- \
Ġf in
Ġle ft
iv ely
in ing
Ġtr y
re en
Ġd ay
ĠT o
i or
al ign
f il
ar i
ĠA d
et y
A l
oh n
Ġloc al
ar ge
Ġsm all
Ġe lement
^ {\
Ġrequ est
us er
Ġbe g
P E
le y
201 6
ph i
iv ing
en e
l ambda
Ġ ?
Ġinclud ing
ur s
Ġc our
A dd
Ġp resent
Ġwe ek
Ġe m
lo y
g roup
ail able
l ing
ul ation
Ġas sert
lob al
L A
Ġt ri
Ġpl ace
Requ est
Ġstr uct
E vent
Ġcont ent
P ath
T ext
em pl
ĠM ay
Ġst and
if t
om en
um er
2 6
ir d
Ġpro gram
Ġp op
W ith
Ã ©
m y
w ays
R e
Ġle t
Ġvar i
Ġp ower
u ro
Ġap pe
i um
o ff
M an
in ation
à ¤
m d
Ġd el
lic ation
Ġerr or
ĠO r
T R
av ing
` `
n al
U R
b f
Ġv iew
Ġp res
Q u
o ber
r ame
per t
em s
Ġt arget
Ġpro ject
Ġpro t
E lement
r is
c d
or ies
ig inal
r ist
2 9
In fo
H E
h o
Ġwith out
201 5
Ġcon f
Ġdes ign
Ġre ce
w are
et ers
Ġ{ \
F ield
ĠThe y
ĠU S
Ġc ou
ĠB e
com p
/ *
Ġo ld
ĠA ll
v ed
our ces
E n
N ode
Ġan al
ĠJ an
ĠE ng
Ġ );
en n
Ġc are
Ġl ink
ĠTh ere
er ing
ific ation
a ut
ic on
ic y
a it
P aram
un e
Ġan other
n ment
Ġre ally
Ġm ult
Ġgo ver
' :
} ;
Ġg r
() )
H e
Ġ-- >
Ġcon d
ole an
Con fig
os s
Ġto o
ap s
ĠP l
/ **
st ance
he s
a i
og raph
d es
ast er
d t
ic le
Ġt ext
p or
Ġl og
Ind ex
r ide
con fig
St ate
col or
Ġgo ing
Ġpro ble
Ġs ays
\ \
ĠB l
is ed
Ġc heck
I S
Ġte chn
D ef
lect ed
it ive
se c
oc us
u f
E qu
s w
at ely
v oid
n ext
N ot
Ġl aw
f in
en u
Ġs k
ag s
Ġinter est
âĢ Ķ
pt y
ail s
Cont ext
ĠF r
ur ity
201 4
Ġf our
ain er
ames pace
IN G
l ength
P h
Ġbe h
O ver
ĠS p
Ġs chool
b all
il on
Ġus er
19 7
= '
Ġde v
pp er
A D
ord ing
ert ain
20 20
Ġid ent
ac es
I G
Ġad v
Ġs pe
F orm
I s
Ġresult s
v es
Ġh app
iv ity
ition al
Ġ/ *
du ct
b ox
A S
Ġar ray
b t
C ode
ĠP r
ap i
Ġcall ed
ĠC ent
ide o
Ġf ew
l ished
ok en
um an
ou ght
ĠĠĠĠĠĠĠĠĠĠĠĠĠĠĠĠ ĠĠĠĠĠĠĠĠĠĠĠ
s igma
on y
Ar ray
Ġl im
err or
Ġch ang
b lock
Ġg reat
a im
Ġd em
" "
O r
iv al
ap ache
A nd
## ##
Ġ( !
st and
n o
ĠM an
b eta
ill ion
b ody
res ult
ri es
itt le
oc ial
U T
w ord
n ode
Ġwith in
le g
S ervice
Ġp ath
E D
ĠAmeric an
p m
mathb f
f rom
Ġt urn
D es
in c
Ġcre ate
mb ol
E S
0 1
read y
ent ly
ĠT e
Ġan n
Ġ ,
tr ue
' ;
Ġch ange
Ġ et
Ġre fer
ĠC ar
ear ch
ict ion
ul es
end ing
m odel
th ing
Ġ Â
Ġb ased
vir on
L O
Ġ( \
Ġb ro
Ġdef ault
Ġd i
Ġ} );
t itle
ĠN o
^{ -
end ed
Ġb lock
A pp
in put
b l
8 0
Ġorg an
Ġfam ily
4 5
Ġle g
[ ]
eth ing
ob ject
Ġre t
******** ********
Ġh ome
ater ial
il ar
a f
ĠA t
g g
ra p
ĠJ ohn
d e
Ġv ersion
port s
ĠC an
Ġp ut
ab led
anc es
lic k
A ll
Ġne ver
M ap
Ġacc ess
Ġb reak
ĠUn ited
Ġinv est
ev el
pert ies
Ġrep resent
ĠJ ul
che s
F F
s k
Ġav ailable
orm al
Ġmon th
A tt
od es
ol ution
b ed
ĠN ov
ĠS u
ou ble
Ġb usiness
Ġ} ,
//// ////
ou nc
ight s
Ġb ig
m et
ĠS ystem
Ġf ull
Ġqu est
an sp
B uild
ri x
Ġex ample
S ize
201 3
ac y
at ors
Ġval ues
ure d
Ġo cc
p oint
re c
s m
u age
N ew
It em
et urn
Ġserv ice
O f
Ġc ode
m ap
I f
e e
and s
Ġdes cri
} {\
ild e
M P
res p
v ersion
at ures
ĠĠ Ċ
ard s
ne ction
re ate
ur ther
Ġp ur
ra ck
3 5
u i
9 9
Ġis s
ith er
E T
Res ult
yp es
+ +
Ġsu per
am pl
Ġc r
ĠM ed
Ġsu ccess
ĠC ont
ĠP ol
Ġse ver
ab ly
ut ure
l t
cre ate
Ġm ight
re t
Ġme as
Ġcon fig
Ġser ies
ĠG u
pp ed
ĠC o
d own
Ġp o
m it
B ut
Ġsp ace
aj or
Ref er
im ate
ent ion
ĠA pp
g amma
H and
empl ate
ass ert
Ġbet ter
pon ent
math rm
Ġg ot
end er
O T
pl ace
ĠG et
ne y
Ġl ess
i que
Ġg row
U S
M essage
st ate
Ġal ways
u ary
Ġl arge
Ġadd ress
ĠS o
Ġen g
t ings
Ġs it
i od
Ġn ear
Ġprodu ct
Ġb u
r ing
ore d
ar row
Ġs rc
c ount
+ \
* }
Ġm ax
Ġre st
F rom
201 2
ma il
Ġf ree
F il
cont ent
and roid
ĠO ct
Ġc ap
Ġ ide
U N
A B
U p
ward s
d elta
Ġc ell
c ast
Ġal ong
lo at
L oc
se e
Ġin put
Ġkn own
Ġsom ething
Ġst ory
ĠI m
pec ial
="../../ ../../
Ġ es
Ġcont rol
viron ment
Ġm usic
Ġcharact er
al es
Ġs ource
op er
in fo
def ault
ott om
wh ere
g t
ap er
Ġj ava
> &
Ġb ase
c a
Ġme an
Ġal ready
Ġ: =
6 6
ĠW orld
t es
str u
ma x
Ġ __
c er
ag ement
l im
Ġsing le
Ġinclud e
Ġcom e
; &
um e
al f
Ġen c
Ġl ater
ĠW ith
ail ed
j ava
y nc
w ith
) }
Ġw in
c all
Ġb as
Ġas k
Ġfil m
Ġpol it
Ġst at
u x
, "
Ġse ason
i ans
Ġto t
u k
Ġs um
M L
Ġhtt p
con om
us ing
Ġst yle
Ġa ction
our s
Ġc al
Ġoff ic
o ice
V al
Ġcont ext
A t
b ook
ab les
Ġab ove
Ġm ag
st it
Ġh ard
un g
Ġare a
er o
Ġun til
Ġsh ort
Ġc lear
201 1
Ġth ings
ĠA ug
EN T
Ġf ore
Ġw he
ou d
b ig
ĠE n
ĠA ust
r s
r ho
Ġrequ ire
on se
Ġr ad
id es
Ġsu pp
Ġpos ition
ĠW est
Ġen er
U LL
L og
ir t
b ase
roll er
In ter
ĠC ount
ref er
g ed
Ġcomp any
Ġe lect
Ġn etwork
sp ace
ĠE d
Ġres pect
Ġresp onse
Ġimport ant
Ġl a
Ġt em
uro pe
M A
ĠN ational
i am
Ġpro m
Ġex pl
^ \
S c
O ut
Ġl ittle
Ġin s
W h
he m
Ġstud y
5 5
Ġn ode
3 4
Ġind ex
S er
um ents
ix ed
ĠSt ate
o in
ib r
ĠA b
c ss
M odel
3 1
Ġ= ==
Ġex ist
Ġs ide
Ġre search
201 0
Ġor iginal
includ e
st art
Ġp ort
th ers
Ġle ast
Ġ$ (
ĠG e
Ġp ay
3 7
is on
Ġrec ord
ign ed
E nt
o ption
val id
Ġhe alth
re l
ribut ion
---------------- ----------------
ĠA pr
3 9
con text
Ġf r
Ġinst ance
n ow
Ġe as
is ing
ys is
on es
Ġposs ible
Man ager
Ġp ub
Ġpartic ular
C E
im al
S ystem
ic ro
t ab
Ġm ass
P l
s l
R eg
Ġe mp
U ser
R ead
n ect
Ġf ri
Ġr ange
am ed
Ġo ptions
D is
st yle
Ġf ar
I P
Ġin itial
ĠY ork
ib ility
def ine
ĠTh at
Ġgover nment
at ter
ĠA ss
Ġchild ren
ĠP ar
Com m
T able
C ount
ro du
Col or
Ġb ound
$ -
I R
le q
Ġh old
ĠCh rist
h old
om an
ĉĉĉĉ ĉĉ
t au
p ackage
v ers
t imes
Ġt imes
I L
Ġv ol
O D
; </
ĠM in
i ke
Ġo pt
0 5
pro t
Ġgener al
Ġint eg
g ress
l a
Ġpro b
fig ure
Ġre du
ĠC al
s q
the ta
ĠR eg
Ġp ot
il t
le te
C all
ĠB y
ple ment
Ġass oci
A d
Ġd ue
ra ft
ann el
T D
ĠSt ates
Ġ} ;
Ġob tain
o ke
Ġt able
ra in
ĠR ep
Ġcol or
one y
Ġph ot
Ġl ate
C lient
S u
a ff
Ġke ep
n s
3 6
re w
ĠS chool
Ġd ocument
m ethod
m ber
Ġfe el
Ġp age
}$ .
ĠJan uary
l ight
se mb
Ġpro f
}$ ,
un k
Ġw ater
Ġpre vious
Ġw ar
we b
le m
N o
Ġl ow
9 0
qu ad
pos ition
Ġsever al
n u
le ase
Ġp arent
Ġf ac
Ġcount ry
l in
Ġa uthor
r ang
Ġl ove
=" ../
Ġd ays
Ġm ajor
N A
} (\
P r
id ual
pr int
Ġ Ð
b it
et ing
ĠC ity
] {
che ck
resp ond
ĠĠĠĠĠĠĠĠ ĠĠĠĠ
Ġm essage
d om
Ġl ang
st er
Ġl ot
3 8
r t
Ġc over
Ġback ground
st atic
" .
am ent
Ġc ost
Ġspec ial
Ġpro perty
4 4
us ed
Ġener gy
id ence
Ġm atch
.. ..
in it
ĠS outh
part ial
i ents
C H
Ġdisc uss
Ġstr ong
ar ing
ith ub
ĠE urope
rou ps
0 8
d oc
f alse
ĠP art
ĠW ar
Ġn il
Ġcomp let
Ġbel iev
Ġse c
Tr ans
Ġa way
=" #
Ġg ive
ĠĠĠĠĠĠĠĠ ĠĠ
Ġli k
Ġc ity
Pro perty
0 7
Ġim age
Ġprov ide
ain ed
Ġmem bers
Res ponse
Ġim pro
ĠM arch
d o
Ġl and
Ġsim ilar
Ġd om
ec ut
Ġwh y
> (
f ra
Ġob serv
om ega
B e
im um
Ġc rit
b uild
Ġc ur
cl us
Ġear ly
Ġproble m
ĠM c
Ġb ool
Ġdet erm
Ġl ight
in ary
) </
Ġd one
ĠI N
if ier
ĠD o
Ġacc ount
pt ember
T H
g ing
ĠHow ever
Ġl arg
Ġcomp ut
Ġst d
ĠN ot
ĠIn tern
ĠB o
Ġk ind
Ġw omen
Ġpoint s
d b
go ogle
ĠF eb
Ġme ans
Ġh istory
Ġof fer
Ð °
ak en
ist ic
ĠS et
um b
Y ou
ĠW hen
ĠL ist
Qu ery
ĠW ill
arg in
Ġcom b
< !--
Ġh uman
Ġs y
ig ation
Ġ čĊ
Over ride
m ost
Ġf und
Ġac ross
al t
Ġrequ ired
pp ing
d ev
g ithub
ip le
ft y
Ġan t
is k
Ġf oot
Ġt alk
Ġc ustom
Ġp ast
ĠG r
eq ref
at ab
7 5
and om
lo se
Ġtot al
B ar
v is
Ġro le
ce mber
Ġm ap
c ell
er ed
Ar g
ĠD r
l or
4 8
St ream
Ġm aking
S ub
ĠI nt
ri or
if f
op s
Ġh aving
ĠR ev
ĠG o
ĠS er
Ġab le
Ġth ought
Ġcl aim
stru ction
Ġs at
an el
im ent
Ġb it
act ory
ĠQ u
Ġe ither
R ec
r un
======== ========
ir l
Ġj ob
Ġs ure
M od
ud e
Ġen ough
Build er
i ol
il it
Ġp ract
ĠJul y
ou n
ĠM e
Ġinv ol
er a
Ġexpect ed
at form
in fty
Ġth ough
i us
Ġreg ion
Ġm om
O S
ĠJ une
n amespace
ain ing
u ation
Ġw on
Ġre view
Ġto get
Ġo p
Ġb ody
ĠA f
Ġb order
le ge
b um
in ition
Ġse en
O P
Ð ¾
Ġtoget her
m ark
Ġt ell
s im
] (
Ġc amp
ĠN orth
M ethod
Ġtra ck
Ġyou ng
Ġdid n
id s
ĠApr il
c urrent
Ġs ite
ĠH ar
h am
D elta
Ġcommun ity
Ġas sum
ad a
Ġ( $
re ct
re et
Ġdoes n
Ġbe come
200 9
Ġs ocial
e ed
h and
0 9
Ġd iv
Ġwork ing
ĠOct ober
Ġper iod
E d
r ict
an a
eq n
z e
Ġand roid
Ġmed ia
Ġf uture
ampl es
ag ed
in o
Ġshow s
Ġh ost
ĠO ne
Ġwhe ther
ir m
Ġt re
art ment
Ġof ten
Ġd est
og n
ĠW hat
ĠP res
Ġc a
o pt
ĠD is
c le
ĠA ct
| \
bt n
Ġm ar
W hat
S P
Im age
G roup
d ir
Ġc ult
Ġm ove
0 4
Ġunder stand
er al
ĠB rit
D ate
cal e
Ġf urther
re ed
O L
ĠAust ral
ĠD es
Ġw idth
ev ent
Ġsign ific
im age
Ġon ce
li ed
ĠA g
qu ery
ac hed
c ore
Ġf ocus
n ull
Ġa ir
Ġout put
Ġab s
n a
Ġclo se
ab or
ĠAug ust
Ġcomp on
x i
Ġin div
an ch
t ilde
D e
wit ch
c lient
Ġdevelop ment
A ction
act ive
Ġs ong
yn am
ĠSe ptember
itt ed
0 6
Ġplay ers
lo s
Ġc ertain
ig ure
Ġth ing
ĠC or
U til
or age
E nd
' re
op h
o ptions
ph p
Ġdef ined
Ġexper ience
Ġg l
Th ere
ĠĠĠĠĠĠĠĠĠĠĠĠĠĠĠĠ ĠĠĠĠĠĠĠĠĠĠĠĠĠĠĠ
Ġm illion
Ġin c
$ $
In put
Ġcour se
ĠB ar
a ul
Ġind ic
Ġu nd
Ġde ath
ens ure
] )
ĠNov ember
ĠG ener
A ct
ag ue
Ġre ason
St atus
Ġpl an
A M
fin ished
Ġto ok
Ġ( )
Ġse ction
x y
Ġe p
H ow
om et
P I
requ est
ot ion
ĠN ULL
ex p
ĠP e
Ġpot ential
Ġc ame
ic ense
ill s
ist or
Ġdis play
ĠA ir
Ġam ong
Ð µ
oc ol
ur ch
ĠA dd
ĠĠĠĠĠĠĠĠĠĠĠĠĠĠĠĠ Ġ
ĠDe cember
0 2
un ch
it ing
200 8
ill ed
Ġest ab
c ul
em pt
ĠM y
Ġserv ices
I I
i j
Ġev ents
i ef
Ġm akes
Ġb en
p age
Ġtr ad
ateg ory
G ener
Ġind ust
Ġto day
n ers
li b
C C
ĠCom p
c hed
arg s
Ġ< <
B lock
Ġval id
Refer ences
Ġcon c
6 5
ser ver
id ed
ĠThe se
f unc
th ough
g r
Ġcontin u
re st
as ing
C l
Ġindiv idual
but ton
Ġd en
i res
our nal
ĠP er
il i
ri ed
ec ess
im ary
\ ,
d f
Ġclo s
y l
ain t
g le
Ġv ideo
Ġl ay
Ġph ys
en ed
ĠNew s
ĠD av
( (
A G
Ġy et
ore m
d l
Ġo thers
Com p
Ġf ive
n own
Ġterm s
add ing
Ġl ength
Ġcomm on
ĠCount y
raph ics
C ell
Ġcor respond
Ġperform ance
m at
o o
ĠAr t
it es
atab ase
Ġc oll
S ource
F l
olog ical
U L
ON T
Ex p
Ġl oad
G L
Ġs ound
Ġpre d
g ener
' '
ru ary
L ay
Ġnew s
un finished
he ight
P ar
epend ent
E E
se qu
Y PE
Ġbel ow
Ġs w
un ity
ch o
ef ore
ew ork
4 7
ĠT est
head er
P os
6 7
Ġ- >
n on
Ġsh own
li es
O M
row s
0 3
idd le
ra ce
ansp ort
S C
il ities
Ġrel ations
ft ware
Ġh ouse
Ġn um
j av
Ġth ird
y d
Ġemp loy
Ġm iss
eb ug
ĠR ec
E X
pos ed
Ġg lobal
O ptions
k s
Ġn ight
Ġatt ack
am a
ĠS m
T oken
Ġsignific ant
Ġs ent
Ġre d
ver age
Ġl abel
Ġ ...
4 9
im ation
In stance
Ġp ress
H ead
ond on
il le
ic ation
Ġ" ""
Ġm en
ĠP ark
L ine
Ġprovid ed
00 00
Ġinst all
Ġbo olean
Ġbl ack
Ġstud ents
bs ite
g es
ĉ Ċ
Ġm aterial
os p
s el
Ġact ually
Ġg ames
Ġse arch
N S
em ents
o op
cd ot
O m
Ġpr int
Ġl ive
Ex t
y les
ot o
g or
ud io
Ġsu gg
Ġh alf
Ġsugg est
N av
Ġfor mer
F A
Ġint rodu
fer ence
AT E
N ull
Ġbeg in
Ġmodel s
B ase
H T
t x
ĠD ep
ĠS ec
Ġg en
Ġa ge
und le
Ġdif f
Ġed uc
ĠCh ar
id get
ial og
Ġe conom
U E
ram ework
med i
ĠM ark
Ġt reat
Ġquest ion
el ine
ĉĉĉĉ ĉĉĉĉ
cent er
c m
ou ch
Ġv ia
h as
c ase
ĠG erm
ac ed
ĠC lass
g en
B uffer
A b
ag ing
O per
ar ning
app end
y ear
ip s
Com ponent
[ "
ele te
O ff
Ġlink s
Ġfe ature
F I
Ġcre ated
} }\
e ction
Ġit em
Ġim plement
al y
a e
ĠA fter
ad ata
i i
ĠA m
ug in
Ġ+ =
S p
Ġstart ed
ĠĠĠĠĠĠĠĠ Ċ
V ER
ĠD ef
ut ions
t arget
e h
( {
at ural
H el
I M
ĠR uss
ĠH ouse
av es
im ension
e lement
200 7
) {
ĠAf ric
x ml
Ġres ource
fl ow
w ise
Ġc irc
C K
Ġd ate
eps ilon
st ream
ibr ary
Ġhtt ps
ly ing
ir th
Ġs ix
ps i
Ġal bum
ĠAmeric a
g l
ĠK ing
ĠA N
Ġcomp et
Ð ¸
Ġen vironment
Ġw ent
St art
p ost
v ision
Ġo ption
p arent
Ġw rite
Hand ler
pt r
Ġc opy
h ost
iv en
Ġspec ific
ust er
ch ild
ĠH igh
Ġfe atures
ap ter
Equ al
S tr
Ġde al
ĠFeb ruary
ing ton
Ġchang es
Ġt w
ist ry
Ġd er
eqn array
he l
Ġc lient
str ong
ĠU p
h ib
Ġe mb
ap an
ov ed
gor ith
Ġt ask
w rite
en ame
Om ega
Ġoffic ial
) (
Res ource
ĠM ore
Ġm ember
ther n
)$ .
ribut es
Ġr ate
iz er
6 8
Ġt aken
j son
Ġs pect
Att ribute
dis play
il es
im g
Cont ent
ĠV al
M S
is es
s i
Ġadd ed
R un
ut es
ur b
ch ange
Ġparam eters
lo cal
Ġm oney
fl u
} [
i et
Ġle arn
Ġw indow
ty p
Ġbuild ing
L ink
Ġprot ected
ca ption
Ġam ount
at al
rit er
Ġr ather
pect ed
m on
fo ot
pro perty
Ġb i
Ġact iv
Ġbec ame
h ing
. )
ce ed
Ġn eg
Ġm or
ag n
ĠH is
Ġst atus
ch ar
ĠM on
Ġf all
row ser
b ased
v ider
Ġanal ysis
Ġwork s
^ *
ĠPres ident
P art
ak er
7 0
irt ual
ĠB ro
Ġn ational
ire ction
Ġcomp lex
f ind
lo od
Ġb ar
se lect
ic les
a ign
Ġvar ious
iz ing
ĠĠĠĠĠĠĠĠ ĠĠĠĠĠĠ
Ġsystem s
au gh
ĠO F
ĠĠĠĠĠĠĠĠ ĠĠĠĠĊ
ens ity
ps ilon
} _{\
Ġcan not
ad em
ĠN one
p ol
Ġf av
row n
r l
Ġmark et
ch i
Ġstruct ure
k en
re p
Ġac cept
st atus
Ġm er
200 6
Ġsub ject
ĠE ast
4 2
s g
F actory
b or
Ġf ace
Ġl ower
ĠB r
rid ge
oci ety
ful ly
Ġse qu
Ġto ld
L ast
Ġar ch
a el
ĠIn ter
Ġcontin ue
I V
ot ype
Ġc atch
ar ies
L abel
in st
F irst
Ġresp ons
ĠT ra
l ast
lection s
Ġse par
m m
al d
F unction
nav bar
a ur
p ng
Ġde g
Ġc ut
Ġo pp
Ġneed s
ĠA ng
is f
Ġb ad
Ġappro ach
b ottom
ĠL ondon
Ġag o
Ġ q
Ġv er
ĠU K
Ġent ire
Tr ue
Ġlim it
Ġse em
R A
P oint
ro y
Ġal most
d et
Def ault
ĠIntern ational
ma z
Ġmeas ure
Ġassoci ated
Ġe y
Ġrece ived
Ġparam eter
f irst
Ġd ouble
Ġcol umn
Ġdo ing
Ġvis it
T ask
Ġf ail
Ġc ases
Ġhigh er
Ġacc ording
sy mbol
ĠO bject
Ġinst ead
Ġst ates
ow s
a id
pr ivate
Ġro om
Ġch o
Ġf un
li p
ĠThe n
Ġlook ing
Ġlang uage
Ġh om
ĠS ch
mod ule
i ation
Ġcomm and
en ing
Ġr isk
B C
Ġb and
eg er
Ġc ross
Ġc y
Ñ Ĥ
Ġqu ant
li er
U s
Ġcom es
St yle
19 5
r an
ĠS im
Ġwho le
ch iev
W hen
att le
Ġhe ight
sq rt
Ġcond itions
R ep
Ġsim ple
Ġhow ever
Ġp aper
Ġch all
p c
vent ion
Ġt our
LA SS
ur g
i ber
es e
ress ed
ograph y
B U
idd en
V ersion
ch an
Ex ternal
ĠM ich
u el
L oad
ĠG L
Ġn ecess
Â ł
Ġmom ent
Ġelement s
W indow
4 6
ra b
ĠR eturn
ell ing
Ġthrow s
ĠR ed
O ne
ob ile
f ord
av en
RE F
" ]
20 00
ĠEng lish
Ġstand ard
Ġhe ld
Ġinter n
Ġup date
bo ard
Ġper cent
Ġto wn
Ġwrit ten
Ġg round
Ġn ormal
Ġw atch
Ġm ind
P age
Ġg roups
G amma
Ġmonth s
Ġc he
Ġ{ @
ĠL aw
E L
m ission
Ġfr ont
s rc
P RO
> >
C heck
pro ject
N umber
9 5
ĠB uild
al let
at ory
Ġappe ar
un t
m eta
P ol
Ġinclud ed
ĠD on
* /
min ist
m ar
an ies
Ġwe bsite
Ġto ol
le vel
Ġrele ased
com ing
ĠT V
Th at
ĠA c
sel ves
Ġapp lication
v are
Ã ¡
ĠHe alth
p ush
h a
ĠE l
d raw
Ġf ood
P C
Ġ ill
ank s
li ke
Ġw alk
ĠS w
pecial ly
Ġst ep
Ġperson al
! !
Ġplay ed
S o
Comm and
semb ly
if act
st d
des cription
Ġa ff
Ġt yp
8 8
IN T
il er
Ġadd ition
action s
Ġiss ues
} );
Ġget ting
Ġt ax
ub e
Ġmethod s
st ract
led ge
od ing
Ġex c
du c
h ood
Ġt aking
)$ ,
Ġst ream
L et
Ġg rad
lay out
~ ~
Ġpolit ical
end if
el t
le an
he et
p ack
Ġ$ {\
Ġright s
ĠP at
anc ed
Ġbeh av
w ide
Ð ½
B ig
P ost
ic a
Ġbr ing
d en
Ġeng ine
Ġg e
Ġcom ment
Ġinter nal
che ma
ac ity
Ch ar
as cript
enc ies
Ġrele ase
T O
Ġde cl
p ose
ĠInd ia
N O
b old
sub section
Ġw ords
Ġdescri bed
so le
Ġbeliev e
Ch ild
Ġdev ice
Ġe ff
Ġfollow s
f ont
$ {
Ġiss ue
m em
Equ als
ig ital
P re
ffic ient
Ġbeh ind
vare psilon
Ġwh ite
s igned
c an
ra int
m ember
v ing
op en
Ġpro perties
Ġben ef
ord in
R eturn
ĠCent er
ver se
o e
ĠO ff
Ġprodu ction
c ap
Ġpart y
} =
ent ry
Ġcomp lete
Ġs ens
Ġdet ails
Ġnot hing
Ġany thing
ĠS k
U M
Fil ter
ĠJ apan
ig ger
ĠL et
Ġconsider ed
ĠSt ud
Ġv iol
it ude
C reate
Ġtra ining
f ect
Ġhe art
Ġbu ilt
Ġb ox
Ġfunction s
am ily
D O
serv ice
AB LE
Ġa chiev
ĠD em
Ġatt empt
Ġ( (
res h
Ġpol icy
' m
Ġo pport
ĠO b
Ġlik ely
ĠF rom
ĠC our
form at
ĠI D
ĠJ ust
Ġneed ed
Ġon line
Ġl oss
and id
( &
Ġin it
n es
ĠTr ans
or ing
Ġa verage
c el
Ġmat ter
200 5
out e
Ġt akes
M et
tt y
j oy
A cc
ĠA cc
ĠH er
ens ive
S ON
P er
ĠG roup
m enu
anc ial
Ġt ypes
Ġext ends
Ġdep end
Ġrec ent
b m
Ġm argin
Ġr ound
d ep
W eb
ĠG od
ast ic
Ġapp lic
5 00
ic ult
Ġaut o
m ult
Ġplay er
Ġst ar
Ġs ex
ĠN e
ĠD ist
ĠB ook
Ġcon struct
Ġp ick
Ġpub lished
Ġh or
ar a
param s
}^ {\
Ġmult iple
Ġdist ribution
Ġrun ning
Ġsol ution
oc r
Ġv ert
Ġex act
l en
ry pt
air s
p ly
Ġp ers
Ġindust ry
v ec
Ġ ]
cont ainer
Ġn one
Ġits elf
ĠS an
Ġrel ated
ĠBrit ish
Ġpartic ip
^{ (
7 7
ig in
at ur
Ġwrit ing
Ġ url
c lose
Ġst e
Ġide a
wit ter
it te
ribut ed
ĠD ata
A A
Ġan sw
Form at
Ġl ines
ist ics
Ġsh are
sm all
Ġar r
Ġse ems
Cont roller
z z
ren ch
d r
em ph
Ġte ach
Ġconst ant
k nown
ĠF l
Ġse lect
U I
Ġqu ick
Ġ\ ,
res ponse
ER R
Ġrec ogn
Col umn
ĠCol lege
Ġst op
D et
Ġtechn ology
O b
evel op
ed ia
m ain
ĠO ut
) =
Ġsc he
ĠT HE
r ong
ob j
4 3
Ġcent er
//////// ////////
B ack
ir it
Ġreport ed
ilit ary
n ov
ĠU s
Ġp rior
ver y
ĠTr ump
Ġw ait
Ġser ver
Ġn ov
y ing
tt p
' ve
Ġ< !--
Ġart icle
Ġloc ation
var phi
rang le
ens ions
q l
Ġro ad
Ġf a
at ives
Ġprob ably
Ġh it
6 9
Ġcont act
Ñ Ģ
ĠDav id
Ġqu ite
Ġf ire
Ġ` `
Ġfor ward
us es
com es
I O
Ġp ack
i qu
Ġsec urity
Ġs ense
Ġfoot ball
Ġsh all
Ġcons ist
ar r
4 1
ĠD ay
Ġl iter
Ġa w
Ġimp act
A fter
ĠO f
Ġpop ulation
jav ascript
ĠF irst
stit ute
ann ot
ĠWill iam
Ġpat ients
T P
Ġf requ
Ġw or
B ox
Ġrelations hip
Ġinclud es
// /
_ .
Ġfri end
ĠW ork
Ġcon sum
ref ix
fil ter
Ġform at
F ONT
n um
iv il
Ġadd itional
Ġsome one
so ft
Ġare as
p ass
Ġh ours
amp ions
or ge
ER T
if orn
Ġfield s
m iss
ĠS en
Ġb irth
Ġintern ational
ang er
Ġreg ard
Ġsat isf
ache s
at tr
ĠS tr
o on
p y
Ġspec ified
Ġprovid es
Ġw ord
ounc ed
Ġun it
om b
up date
But ton
Ġcond ition
Con st
Ġf ight
Ġ ir
b uf
List ener
Ġeff ort
ĠBl ack
ind ing
ĠL a
ĠR ef
Ġis n
j ust
Ġg raph
f ort
m ore
ĠD irect
Ġim m
Ġun ique
Ġcre d
Ġfil es
Ġc apt
d ated
Ġup on
ra v
in ner
as c
AT ION
Ġs us
Ġev al
Ġm ot
Ġn amed
Ġn av
" ).
n umber
Ġbeg an
c or
ic o
gorith m
ĠR ead
m ing
ĠR em
eg raphics
includ egraphics
os ed
ĠH ol
ri ef
M y
ill ing
ĠH T
n y
8 5
Ġcor rect
ĠR E
iforn ia
A ut
Add ress
ĠS ub
su pport
cre t
pro cess
Ġcom ing
Ġcol lection
Lay out
E m
Ġes pecially
Ġtem per
ĠAss oci
text bf
Ġh ope
N ext
Ġs em
ri p
c ial
Ġout side
Ġcomp anies
< ?
Ġrefer ence
Ġprof ession
ate gy
to ol
ul a
Se lect
Ġsc ale
lic it
Ġtry ing
m t
Ġs ort
ĠCh ina
R em
Ġoper ation
Ġt im
Ġqu ality
l ong
Ġaut om
ell ow
Ġcharact ers
iz es
u id
Ġcamp aign
L ength
ĠG over
" ),
Ġcont ains
Ġmod ule
i ences
200 4
Ġcare er
Ġhim self
Val id
pro of
Ġst re
ĠRes earch
ĠAustral ia
ĠE X
% %
it ect
Ġthe ory
Ġcurrent ly
o res
Ġevery thing
app ing
Ġreg ular
Out put
`` `
Ġbro ad
ict ure
ul ations
ĠM r
Ġd am
. ~\
ve y
Ġwho se
Ġact ive
Ġh on
S pec
el se
t ag
rem ove
ã ģ
ad es
} ).
Ġr andom
Ġl ost
Ġm ode
: </
on ly
in stance
ĠD i
wo od
ann ing
Ġpro te
Ġe mail
ar ter
M ode
erv ices
UR L
ĠC LASS
Ġv ot
Ġh ot
ess ages
' ).
Ġinter face
st yles
right arrow
5 7
u ge
Ġsc reen
ĠSt reet
old er
ĠF il
T YPE
Ġman agement
ĠS ome
Ġask ed
Ġin j
Ġcal cul
I Z
D o
ef ined
T op
Ġen joy
Ġpol ice
V is
b a
refer ence
Ġcont ract
Ġf ont
Ġappro x
ĠSe e
sh ow
Ġd raw
H O
Ġb re
T ag
g rad
ul ly
C ON
Ġpos itive
ĠT ype
Ġdiff icult
Ġcon nection
Ġincre ase
ĠI I
T arget
ro om
at as
ĠN ow
F O
U rl
Ġte le
Ġent ry
it ch
B undle
i ant
ĠL icense
o z
ou l
c irc
ist ance
b b
al le
ail y
Ġa ud
ĠH REF
ĠO ur
C L
ot al
S ec
Ġsur face
ele br
k it
ĠN or
Ġev idence
Ġtrans form
Ġproduct s
Ġs ym
un it
o om
Ġus ers
D ev
land s
Ġg irl
ond er
Ġin flu
Ġpop ular
Ġa ffect
M in
sh ip
Ġde b
over line
l it
Ġfor ce
[ \
T S
ĠP ort
off set
Ġcon v
ĠE ar
Ġpro p
ge q
C ache
ed eral
Ġn ames
col umn
ĉ ĠĠĠ
Ġreturn ed
i os
Ser ver
fil es
9 7
Ġn atural
ra z
Off set
Ġf it
Ġtra vel
ot a
ĠĠĠĠĠĠĠĠĠĠĠĠĠĠĠĠ ĠĠĠĠĠĠĠĠĠĠĠĠĠĠĠĠĠĠĠ
Ġs n
A V
Ġex ecut
F rame
i as
ĠE v
u a
em p
ĠN ame
Ġc am
Ġp ain
' ll
out put
c y
Ġwant ed
Ġsim ply
Ġfl ow
ĠDep artment
Up date
ĠTe chn
Ġreturn s
Ġfil ter
Ġdisc over
Ġde ep
Ġproble ms
av y
u nder
he t
Ġloc ated
A ccess
ounc il
Ġd ynam
ĠP al
Ġconc ern
U P
he nt
Ġlong er
Ġlead ing
Ġro ot
Ġs aw
Ġlead ers
ic ip
Ñ ģ
Ġm ention
use um
M em
ĠH am
y a
Ġcompon ent
n ected
Ġpres ident
Ġcall back
Ġ row
Ġv ict
ĠRep ublic
i ers
}, \
a res
Ġeffect s
ĠP aul
) ]
Ġspe ed
Ð¾ Ð
Ġh istor
v ille
ĠGener al
ĠJ ames
ĠI S
act er
Ġst age
Ġso ftware
Ġmat rix
#### ####
Ġpl atform
ru pt
p ite
c s
Ġet c
Ġsol id
Ġre ve
ĠP ost
ct or
ĠCal ifornia
itte e
. }
Ġme et
ĠS y
l ate
u int
ĠRev iew
ĠGo ogle
s pec
ĠM al
Ġin side
ĠEurope an
Ġthem selves
fra k
R I
ie ce
Ġ[ ]
Ġl ed
**************** ****************
Ġl iving
CO L
Ġ* *
ac ing
5 8
Ġd oc
Ġin f
ri a
L ambda
M ax
qu are
Ġf em
ro te
wh ich
Ġ ess
as ons
ĠP ublic
ark s
ĠM ag
Ġ rac
Ġobtain ed
W idth
Ġwe b
all s
++ )
f inal
K E
5 9
P O
Ġplay ing
Se e
pl it
Ġmin utes
Ġus es
Ġs on
am s
ang ed
s cri
r ated
D B
ab s
Ġv ill
T ypes
Ġu int
m ut
b ra
Ġread ing
& \
s d
Ġso on
Ġn umer
ĠL og
Ġex ception
ĠInd ian
R ow
NA ME
enc ed
ound s
Ġallow ed
ĠD E
ĠS ervice
Ġoff ice
ed d
B l
Ġcl ub
ĠY our
Ġevery one
ĠM at
Ġqu ery
k a
ĠA nt
. \
C A
c ing
ĠD ec
util s
I F
am l
Ġ! ==
Ġext ra
Ġdirect ly
Ġeas y
Ġj o
Ġs il
Ġlevel s
Ġg re
Ġse lected
ĠE m
ex pected
or ph
s f
ĠAr ch
Pro vider
) ^
Ġest im
e es
ĠB en
( _
Ġmov ie
Ġbe aut
Ġpre c
Ġpat tern
ĠA PI
ĠC ouncil
Ġs end
200 3
ol ve
Ġth us
Ġbook s
in n
Ġv irtual
Ġdem on
Ġal ign
g n
ach ine
Ġw oman
Ġnot e
Ġgiv es
Ġcon duct
ĠS T
Ġ ign
au ght
Ġreg ister
ens or
Ġexp ression
prot otype
Ġim ages
d ec
sc ope
ĠH ere
ĠAr ray
Ġst aff
ĠF ound
ro s
Ġdec ision
Ġim medi
w indow
g u
ĠT ime
a uthor
v est
Ġob j
r ics
Ġ â
ĠO pen
ra pper
it ory
Ġst ay
ash ington
ĠS ing
Ã Ń
Ġm id
ĠG reen
S A
m itted
r ate
e ch
ĠCan ada
u ate
osp ital
Ġfri ends
Ġrec ently
pro p
bold symbol
ev e
Ġle arning
art ifact
Ġtreat ment
Ġwe ight
} ),
Ã ³
ĠEng land
Ġr at
Ġc andid
ã ĥ
is ode
w in
Ġinvol ved
Ġpre tty
icro soft
Ġf ather
Ġst ore
ro ot
ul ated
id a
Ġne igh
al ed
em pty
c over
Ġw rong
="../../../../ ../
C D
6 3
Ġrem ove
ra el
Ġeduc ation
T ree
Ġoff set
B o
O pen
Ġc ause
ĠF ig
ber g
math frak
S D
UL T
Ġann ounced
t emplate
opy right
Ġgrow th
Ġj ud
ĠLe ague
W ork
ĠIn stitute
S earch
Ġpred ict
ĠA tt
n ab
Ġme chan
ĠM od
ĠR ich
Ġro ck
Ġs old
200 1
Ġoper ator
Ġget s
C o
ar ily
Ġst ation
ĠJ ack
b uffer
ac c
t ask
ĠP re
for ce
Ġsa f
con s
] [
Ġarg s
ĠC E
rou ght
ef t
Ġmem ory
ĠM et
ri an
B A
m as
Ġde ad
ĠC O
comm on
ol ic
Ġquest ions
. /
Ġv eh
Ġph ase
ĠB er
ĠA re
Ġset ting
Ġ Ã
c os
cre en
Ġc ook
ad ow
A ss
sk ip
v ant
Ġsu ff
Ġcour t
Ġdef ine
Ġ ;
Config uration
b reak
par se
Ġex cept
b and
Ġb uffer
Ġcorrespond ing
; ->
Ġwork ed
ĠM art
Ġpart s
ĠR ober
ĠIn c
al ing
Ġd ark
6 1
ĠCour t
? âĢĿ
ĠF rench
lay er
Ent ity
ĠM or
C ase
AR T
ri al
6 2
G e
r um
Ġinterest ing
lic e
Ġre ach
st on
L e
Ġav oid
Ġdevelop ed
Ġset s
o ch
ec ute
uf act
et ch
Ġdiffer ence
Ġre v
ĠD an
Ġdes cription
D irect
N E
ĠF ile
Ġcent ury
Ġ ~
Ġre comm
g est
} }$
Ġmod ern
ri b
9 8
sh ould
Ġcount ries
D ec
Loc ation
epend ency
AP I
Ġf ailed
Ġw ays
} /
ous ly
s cale
h aps
Ġact ual
Ġnum bers
Ġgo al
Ġallow s
ĠTh om
Ġl en
Head er
app a
Ġnecess ary
Un it
Ġhand le
] );
Ġex ists
ĠSu per
rop ri
id ing
Ġv ers
Ġlate st
ĠWh ile
Ġinvest ig
class es
Ent ry
Ġspec ies
M O
Ġt ree
Ġr ule
ĉĉĉĉ ĉĉĉ
Ġline ar
ĠM usic
Ġe mer
ĠSc ience
Util s
ag o
Ġestab lished
D F
C P
d rop
ur t
Pro cess
Param eter
Ġp m
ag ram
S y
Ġf loat
Ġcomp ar
b on
im ately
f loat
ĠPh il
Ġstud ies
lang le
: "
M e
Ġcon nect
() ->
en a
oc al
Ġw rote
Ġanal y
ĠPro gram
Ġt ag
h line
' >
b ool
=" -
oy al
% ;
Ġfinal ly
Ġd ensity
Ġdist ance
ify ing
Ġobject s
U B
Ġs ample
pro to
h i
oun ter
tr y
Ġle ave
m atch
ĠP ress
ĠIn st
Ġarg ument
Ġchang ed
r d
od ed
Ġto wards
' ),
S im
E nc
s ign
Ġany one
ampions hip
k ind
ĠB el
Ġexp lo
con f
W rite
t ree
Cont ainer
CO DE
F e
Ġf ast
Ġcomp ared
Ġg as
ld ots
d ocument
C R
Ġstat ement
e in
Ġl o
. $
Ġf rame
Ġv ector
Ġsc en
Ġ à¤
ĠJ er
Cont rol
Ġdis e
Ġz ero
{ {
200 2
Ġs ession
Ġper fect
b oot
R el
ace book
Ġgo es
t ra
à ¥
Ġch arg
S H
ĠY ear
ĠJ e
M ar
f r
IG N
at ively
Ġthrough out
Ġm is
Ġsay ing
Ġcol lect
b in
comm and
ĠS ince
Ġcell s
requ ire
Ġrespect ively
Ġm other
en ge
Ġd irection
Ġequ al
ĠH all
lo or
t hen
Ġpr inc
Ġc ast
G o
Ġr ules
p atch
Ġphys ical
Ġres ources
hed ul
th at
Ġl ives
Ġpro gress
7 8
th on
ĠEx p
Ġin fo
Ġknow ledge
ĠH el
Ġdesign ed
Ġp ull
Ġ ensure
Ġg ave
Ġlarg er
ult ure
L evel
cript or
ĠWh ite
Ġth reat
return s
Ġpass ed
est ival
Ġra ce
Ġfin ancial
Ġbo ard
ec ution
Ġt en
3 00
ĠV ol
AN D
D ep
AC K
u ed
Ġb al
Ġem pty
C an
Ġind ependent
5 2
Ġv s
Ġleg al
I ST
ĠMich ael
He ight
Inter face
i pl
artifact Id
ĠP M
Ġfe ed
T ER
il s
ĠC reate
Ġx ml
Ġse lection
5 1
S O
Ġh um
P ort
Ġfav or
im ages
val ues
in ated
AL L
Ġabs ol
Ġa ward
Ġch annel
Ġinter view
Ġdemon str
Ġit ems
ĠE nd
Ġwas n
N one
Ġapp ly
Pro ject
Ġdeg ree
ĠC ons
ar io
V AL
a a
if orm
A meric
ang le
ist an
Ġcult ure
Ġpro of
5 6
ĠĠĠĠĠĠĠĠĠĠĠĠĠĠĠĠ ĠĠĠĠĠ
at tern
P e
ĠO ver
ter m
Ġqu e
anc y
Ġre nder
ol id
Ph i
ĠAn n
augh ter
ĠWe b
Call back
st rap
Ġgener ated
D r
Th read
he st
5 4
( [
Ġsupport ed
ĠReturn s
M ore
Em pty
o oth
l s
ĠC ong
ĠN S
ad o
P o
er c
Ġtrans fer
R ange
ĠR el
f a
Ġsur pr
D D
Ġc elebr
clus ion
Ġdel iver
Ġm ilitary
Ġit er
ĠC heck
j o
str ict
Ġfact or
rag ment
Ġ{ }
Param s
im s
evelop ment
id ents
ĠK e
B O
Ġqu al
ĠS um
t og
Ġl ack
Ġus ually
Ġfil ms
> ,
ĠS am
is ions
Ġt er
Ġs witch
cont rol
t im
Ġ ::
R ev
Ġrel ative
l am
N ow
Ġag re
t ml
Ġcent ral
ig en
Ġpr imary
Ġch oice
P R
ã Ĥ
Mod ule
end ar
Ġpro posed
Ġeffect ive
Ġsequ ence
Ġprodu ced
f s
Ġsur v
group Id
il ies
iv acy
ĠO R
\ |
V ert
ĠW ashington
Ġexist ing
ä ¸
ol ar
ent al
ĠM ac
iz ont
C S
r or
t oken
g ment
Ġtr ansport
Ġc lean
Ġclos ed
C urrent
Ġdr ug
Ġother wise
ĠPe ople
P A
Ġan g
Ġact ivity
sp lit
ĠL eg
ill er
Ġpract ice
w ner
ĠAs sert
cite p
c ache
c r
P S
Ġal tern
âĢĿ .
H ash
Ġc ard
ent ity
M on
Ġacc ur
Ġn ature
Ġhe l
Ġb orn
it able
ĠAfric a
In st
Pos ition
is ation
Ġp air
Ġcomp os
Ġexper iment
ĠR ob
H ttp
Ġst ra
Ġst ories
ĠC r
Ġrece ive
ĠB ig
Ġexp ress
Ġstart ing
es h
Des cription
Ġcon cept
ĠT ex
ar p
g ate
ec ause
X X
ĠF in
d s
Ġme eting
Ġbas is
5 3
os ph
sub set
rid ay
z er
Set tings
Ġf ixed
dev ice
Ġm ix
ĠQ ue
ĠR oad
and er
Ġh y
on a
h ash
ĠDist rict
T I
Ġmov ed
in y
Ġp lease
ĠD el
Ġw orth
Ġse ek
="../../../../ ../../
ish ing
=" _
ĠSe ction
ex ample
S cript
Ġoper ations
S he
ib ly
mer cial
ĠM em
Ġpr ice
Ġsc ience
O ption
Ġ* )
Ġst ri
Ġpresent ed
Ġf air
ma ke
Ġac qu
Ġnov el
Ġsc ient
R L
S igma
Ġser ious
ir ing
ct x
ĠB est
" ))
Ġthere fore
Ġro t
n or
Ġpre p
ĠAir port
Ġobserv ed
Ġarg uments
Loc al
Ġincre asing
st ack
Ġchall eng
ĠA ut
M at
k appa
Ġrem ember
ple te
Q L
if est
D A
ĠPro ject
Ch ange
p g
ber t
us ion
Ġparam s
ant ic
Ġconfig uration
styles heet
s a
res ource
Ġperform ed
Ġexp and
ĠT om
w ell
od er
ĠAng el
Ġmax imum
b efore
IZ E
Ġweek s
Ġb all
b order
Ġm ut
ick er
mb ox
pre t
et ime
ĠF orm
li ance
om ic
W E
Ġed ge
8 7
Ġear lier
Ġin sp
Ġrel ig
erv e
urs or
E M
Ġd ied
ick et
nab la
1 000
Ġon es
Con nection
p df
iver se
ron ic
ĠB ay
ĠSer ies
al ax
: (
Pro t
d at
} )$
E ng
P L
ov ers
Ġp adding
as y
ot imes
ines e
Ġ> =
in i
Ġteam s
ind er
yn ch
Ġatt ention
Ġs ources
ĠPart y
ĠR iver
Ġb log
Ġsc ope
izont al
ĠD et
se y
ĠS und
Ġstre ng
b al
Ġth read
ul ate
Ġn or
ĠGe orge
Ġm ount
ĠR un
Ġm iddle
Ġbehav ior
Ġal though
back ground
Pro perties
" ));
ĠCh urch
iz ations
it ation
ĠO ther
ĠB usiness
ĠIs rael
h ad
Ġbu y
ed u
ĠAssoci ation
d ot
ĠUS A
Ġatt ribute
9 6
Ġdirect or
ic ate
Ġb rought
Ġad minist
f ree
le ep
on ic
Ġcon struction
nc y
por ary
Ġs ave
Ġra ise
Ġequ ation
Ġd ro
Ġpro per
COL OR
ĠO per
or ter
Ġim ag
Ġab ility
model s
Ġsl ow
ĠJ ew
Ġpur ch
Ġprot ect
OR D
D own
duc ation
Ġlim ited
Ġfollow ed
Ġturn ed
Ġoff ers
Ġcou ple
n ote
et t
ell ig
ĠÂ £
d ebug
ĠâĢ ¢
O p
b orn
as ic
Ġsy mbol
g an
Ġm us
ĠA M
Ġdef inition
Ġcom ments
Ġspe ak
A re
ĠG old
z a
ess or
ast e
Ġsuccess ful
in ct
it ar
Ġtemper ature
ĠC re
g in
CT ION
I A
ensure math
non umber
' d
St at
ĠA lex
c ard
Ġlook s
c at
a o
= >
ĠD iv
mod al
ms g
ĠM ary
c lear
ra ction
199 9
Ã ¼
( -
Rec ord
om a
Ġmean ing
S ession
ul y
Ġan im
ĠN ote
ĠGerm an
Ġre pe
ð Ł
Ġf ix
ang es
D ocument
ol f
Ġcont ain
M atch
if ul
w id
J son
Ġn orth
p op
Ġr ank
ert ific
IN E
ug ins
S k
ĠPro f
Ġbe comes
ol es
ĠF e
w idget
iction ary
p o
Ġequ ival
ri er
ribut ions
l n
S ign
Ġmed ical
Ġb ank
Ġvari able
i ra
ĠH istory
P ass
Refer ence
Ġcomplet ely
Col lection
4 00
Ġe lection
ĠDem ocr
Ġdist rict
Ġw est
Ġant i
ĠL ife
Ġn et
d ist
O ur
Ġf ully
& #
Ġd ou
ur i
inter face
M enu
Ġor d
ĠM ont
Ġ( "
set s
ĠR ad
O K
Ġexact ly
it iz
n ormal
a uth
Ġro b
Ġbe y
Ġapp ropri
I B
Ġcompon ents
sy ch
ĉĉ Ċ
h or
ap se
t ers
8 6
Ġlarg est
ĠMed ia
Ser ial
h r
Ġg un
Ġparent s
a fter
Ġtr ade
ĠIs land
ĠN OT
text it
Ġestab lish
Ġ" \
Ġtrans ition
Ġrem ain
ill a
Ġpre vent
r ange
Ġ Î
Ġproject s
Ġt emplate
Ġsit uation
Ġbey ond
b ind
OR T
Ġover ride
i pp
ĠFr anc
ĠRober t
f ill
Ġhe ard
ĠEx ception
ĠM iss
Ġm icro
ad er
add ress
ĠF acebook
Ġhand s
Ġt ouch
ĠC all
we ight
Ġass ess
Oper ation
8 9
G E
ERR OR
M M
se cond
Ġvol ume
leg al
Ġre pl
Ġwrit er
il ed
n ter
b our
Ġa uth
med ia
Ġsc ene
Im pl
Ġcomput er
b ound
ĠM us
F ont
Ġb ur
Ġf elt
Ġey es
ĠM ap
ing er
p id
Ġincre ased
Ġc ore
Ġprofession al
Ġcrit ical
Ġsh ared
ĠR ock
Ġansw er
D ir
pr ime
Ġmain tain
Ġb us
clud e
ĠFr ance
\ %
Ġstud ent
T im
P H
Ġopport unity
Ġserv ed
Ġsol utions
Ġw ide
g ent
Ġp ark
ĠAN D
et ic
ĠSt ar
ot es
struct or
s pect
Ġbegin ning
omet ry
Ġw ife
& &
Ġcap ital
Ġsh ot
maz on
St ore
typ es
ĠU se
ĠT op
E v
Ġf ans
net ic
Ġh ous
ot ed
K e
Ġre serv
trans form
fo o
Ġw onder
ou thern
ĠC ON
h an
ĠS ervices
Ġinst it
Ø §
Ġhe ar
ĠS ur
Ġp le
et imes
ĠF ore
-- -
{ }
th m
ed ef
7 2
e al
at ically
Ġv oice
h ouse
f rame
ĠTex as
ent y
Int eger
Ġschool s
ĠSm ith
ĠG ood
ĠL ou
Ġarch itect
R ight
equ al
rom e
ing le
ed y
U RE
As ync
ĠS E
atur day
Ġcall s
Ġs outh
re al
P tr
Ġpl aces
ĠS ociety
ĉ Ġ
/ \
ĠS al
ĠComp any
Ġb ottom
Ġcou nter
Ġsh ape
Ġfil ename
Ġse cret
f ocus
Ġch ance
ĠB re
Ġsh oot
v ol
Ġactiv ities
ick s
PE CT
Ġs cript
Ġrad io
Ġeas ily
N on
Ġrem ains
Ġhas h
Ġmult i
ST R
T rack
wid et
d elete
M ult
Ġkn ew
Ġex hib
\ [
Ġpart ners
ĠJ ournal
C lick
st ar
Ġl ock
Ġchar ge
Ġapp lied
ĠA ward
Ã ¤
Ġparticular ly
ĠC he
d est
Ġm ur
Ġre place
Ġdec ided
ann ed
m en
v an
H ost
w est
ĠĠĠĠĠĠĠĠĠĠĠĠĠĠĠĠ ĠĠĠĠ
$ (
G B
Ġex am
ĠD ate
Ġto ken
ĠL ong
av ed
w s
ĠFound ation
in ternal
j ection
s ystem
Ġgiv ing
Ġresp ond
ĠP lay
ac cess
Ġb lood
ĠT re
Ġd igital
ro ad
F T
Ġeconom ic
web kit
Ġopt im
Ġnear ly
re nder
Ġgre ater
M ark
Ġro ll
Ġhigh ly
Ġquick ly
i pe
ĠGover nment
ĠR equ
Ġal gorithm
L eft
Nav Bar
Ġn uc
Ġsp ent
ĠF riday
we et
Ġd atabase
Ġe ight
s v
c lick
Ġimpro ve
ĠA v
Ġclass es
ateg ories
Ġw ild
() :
Ġp ackage
ĠSc ott
d irect
ĠC amp
Ġopp os
er ry
Ġst ars
A pi
Ġent er
co pe
x x
Ġman ufact
ic ated
Ġco ordin
re q
ĠAl so
Ġassum e
od ay
ĠH ill
n ce
F L
Ġpl ant
E l
ĠOff ice
ĠC up
Ġset tings
s ession
Ġj av
et te
Dev ice
ed ge
ĠS un
Ġg reen
ĠB G
p ub
d ots
li ament
widet ilde
ĠP ub
Ġa x
c ar
du ction
ĠSh ow
doc s
ud d
ĠG reat
D IR
\ !
Ġinv oke
U se
h over
ĠD ev
Ġbas ic
Ġcho ose
Ġc ivil
Ġdom ain
Ġman ager
âĢ ĺ
Ġpro ced
an o
ĠV iew
## #
s end
ern el
Hel per
Ġf igure
h igh
} -
Ġhapp en
Americ an
os en
Ġph one
Ġreport s
Ġs en
aw s
Ġpl ans
Ġsign al
Ġread y
C ons
}} {
V ari
OR M
ph one
en um
L ong
ig ration
Ġpo or
Ġtr ansp
j oin
n el
al a
param eter
ĠTr ue
ot ic
Ġapplic ations
ĠSund ay
Ġy ield
Ġprevious ly
Ġsom etimes
Param eters
Ġ er
Ġe cho
T itle
olog ies
I E
to String
ig hest
ĠCl ub
R ect
and a
Ġj ournal
ĠN O
ĠM ad
Ġpress ure
Ġin form
N et
wh ile
ĠP o
Ġ( '
v ector
ad ian
Ġed itor
D S
om s
Ġprogram s
Ġset t
De cl
az ine
c ustom
ag on
Ġag ree
Ġtest s
AT H
ĠL O
vir t
ĠI d
pon ents
ĠV er
i en
Ġfam ilies
rel ated
n am
as ure
Ġal t
Ġp iece
ram es
ond ay
P RE
und red
W S
Ġpres ence
st ep
Ġl ibrary
V ector
ĠComm ission
ĠA L
F C
r ant
Ġcomplet ed
Ġsaf ety
Ġtra in
Ġmov ing
re me
ck et
C al
Ġrequ ires
Ġk illed
or ation
T ool
Hand le
ĠM ost
Ġpur pose
ĠChrist ian
The y
Ġu pper
ock et
Ġc lick
Ġd ram
Ġtr ust
ĠG en
imension al
ed s
Ġbl ue
ĠCh ild
ĠT able
c p
Ġp refer
Ġappe ars
ĠT ur
ĠUn ion
D on
Ġuse ful
( :
S chema
ĠC ap
ĠM ex
K ind
ĠN etwork
ev en
Ġerr ors
eth er
ud get
al ysis
ĠU nder
i ate
ans ion
C ore
C M
Ġpre m
dis abled
p ers
m ode
Ġintrodu ced
F alse
struct ure
ri end
Ġdescri be
s cal
Ġund efined
{ -
' ],
ĠV ir
ĠU N
as ion
oper ator
Ġover all
ĠDirect or
Ġcou pl
c f
N ames
25 5
ĠP y
Ġdise ase
ĠCh inese
ĠGerm any
Ġcontinu ed
ĠW ell
Ġre li
Ġco ach
Ġrepresent ation
In valid
oun ce
Ġsmall er
Ġp ush
foot er
ĠW il
Ġsp in
Ã ¶
ĠM er
Ġn amespace
Ġa ctions
du le
7 9
ens es
it a
c oll
os h
s ur
ple t
ree k
Ġmiss ing
ĠB ill
pl ugin
or ial
Ġrec over
nt ax
=" /
Ġs s
Ġcont ainer
ab y
Ġpro file
Ġdr ive
m id
Ġe ast
Exp ression
Ġmor ning
Ġor igin
Ġsc ore
Ġwe ak
ĠB ank
Ġimmedi ately
Ġde lete
Ġ[ '
est amp
ab ilities
Ġgr ant
c are
Ġse ven
en v
8 4
i able
Ġw ants
Or der
Ġc hem
I ter
An y
t rack
hand le
Ġw ind
Par ser
Ġcon nected
Ġlead er
G ET
Ġstra ight
================ ================
boot strap
g raph
Ġv ote
Ġfor ms
Ġp en
ĠV is
Ġob vious
ĠT im
ex port
Ġhold s
H ere
d el
ĠE ducation
Ġdeterm ined
az z
7 6
Ġpr im
Ġlook ed
equ als
P arent
Ġsum mer
g lobal
Ġorgan ization
Ġdest roy
8 2
Ġg old
ra st
Ġsong s
v m
Q ue
ĠI P
u it
ĠF ield
ĠC D
Ġdem and
Ġf ine
h y
Ġp ages
\ "
f it
er ies
ex ception
ol ved
H as
d ates
Ġopen ed
ĠG l
h ere
Ġmov ement
equ iv
an i
Ġdeterm ine
Ġgr and
Ġ& =
T emplate
Ġre lation
t n
ĠB i
yd ro
it ors
ĠL em
su ccess
w rit
Ġill ust
ĠBo ard
T e
Ġtrans action
p adding
ĠAc adem
ĠE q
Ġhapp ened
ĠâĢ ¦
Ġcar ry
Ġrec ords
Ġbr and
E CT
Ġess ential
o es
ĠN umber
V er
Ġs al
atas et
Ġshow ed
E rr
z eta
con nect
D om
Ġpar se
= {
( *
Ġprovid ing
Ġad apt
ĠA R
Ar t
Ġcor re
Ġlay er
ic ons
pen ame
199 8
ĠW indow
S l
b ing
Ġhead er
Ġb ul
Ġtrad itional
il ton
A m
ĠM el
Ġj oin
Ġcan cer
Ð° Ð
ĠCar ol
ĠF inal
b es
ĠM ount
re y
ĠCent ral
Ġpro ve
M ember
Ġpub lish
c opy
' .
IT Y
Ġal one
ĠA p
rac y
k y
Ġun its
u ated
Ġh op
20 21
ĠM o
ĠM ov
ĠThom as
Ġh uge
v as
Ġcre ating
H S
ig er
> ();
d ependency
oc ity
in ate
Ġcoll abor
agn ost
im inal
_ ;
ĠM useum
Ġas pect
Ġp anel
Ġth ous
reed om
ĠI r
Ġc ache
Ġrun s
ĠPol icy
Ġsign ed
\ ]
D I
Ġopen ing
cl es
ĠH ome
ĠComm ittee
Ġh ar
P si
Ġstr ategy
Ġsl ight
Ġprodu ce
d i
Ġneg ative
Ġ ut
est er
k er
ĠT or
B S
a ud
Ġtr uth
ĠW ed
at re
? :
Ġep isode
S ince
im ents
L S
ĠBG COLOR
Ġde cre
c ut
ĠMan agement
com ponent
Ġp oll
N um
tog gle
I con
Ġ} )
ĠMin ister
Ġrem oved
Ġs ociety
Ġvari ables
ĠM ethod
Ġr out
Ġext ension
res ents
ĠF lor
Ġun less
> .
ĠFranc is
Ġc li
Ġcl in
Ġcont aining
Read er
Ġv an
ĠD evelopment
act or
ro t
ĠP eter
Ġimplement ation
Ġvari ety
Ġtele vision
p ool
re place
ĠB ase
} +
ĠTh us
ĠT wo
atal og
ĠE N
n ap
ĠEX PECT
Ġsa fe
art s
p anel
ĠT our
ip eline
ĠFr ank
ĠS aturday
if ies
os is
, -
ues day
he lp
Ġcomm it
App lication
ign ment
Met adata
co in
f ull
Ġcon vert
199 0
Ġf irm
est s
Ġth r
Ġn odes
AT A
virt ual
set tings
ĠRuss ia
D ebug
h ol
roll ed
Ġst orage
Ġ ult
Class es
el er
field s
M ENT
ĠF igure
Ġdev ices
k i
Ġfl ag
Ġby te
Ġc ool
att ribute
Ġenc ou
Ġ icon
app ro
ic ago
Ġconst raint
\ {
anc er
Ġmay be
C re
T ra
Ġc ru
Ġcost s
Ġh yp
Ġconst it
Ġunderstand ing
Ġcl imate
rom ise
ly mp
Ġla unch
ĠT imes
annot ation
ra ge
ult s
} =\
ĠE vent
lo ok
16 0
p ay
Ġgener ally
Ġ eth
Ġappropri ate
ĠT own
AC E
Val ues
g s
ĠAustral ian
cent ering
Ġr ates
Ġapp oint
f ony
ĠC am
ĠĠĠĠĠĠĠĠĠĠĠĠĠĠĠĠ ĠĠĠĠĠĠĠĠĠĠĠĠĠĠĠĠĠĠĠĠĠĠĠ
wh ite
Ġcom mercial
ĠV ict
ĠK ey
Ġwork ers
g reg
Pol icy
ĠThe orem
ĠEar th
Ġe arn
Ġpart ial
it z
Ġin nov
Ġv el
Ġk ids
ĠS ocial
} ]
SE T
Ġa mb
ĠU ser
S U
St ack
-- >
ĠIn formation
ĠE ven
re es
âĢĿ ,
Ġthink ing
ĠSec ret
ĠT witter
| -
Ġop in
) =\
N ote
Ġst uff
ĠAfric an
Ġin line
ow ers
Ġfor ces
ĠE mp
by te
ic ations
Ġgener ation
ash ion
hen s
Ġw at
` ,
ĠE very
Ġgrow ing
clus ive
Ġn om
ĠC A
ĠWe ek
ang uage
ic ine
m aterial
Arg ument
R ender
cre te
ad min
r b
Ġcon ver
lang uage
ĠM odel
am ing
block List
P T
Ġart ist
el come
Ġfin ite
Ġb illion
ĠF ree
ip ment
Ġt y
R oot
Ġref lect
at in
9 3
ĠGr and
Ġqu arter
Ġst ack
Ġident ity
it ness
; \
pro duct
Ġm ale
all ow
Arg s
Ġbut ton
Ġnot ice
Ġc op
Ġdist ributed
Ġfact ors
ym fony
f n
ge bra
Ġh ighest
s ite
ĠT H
` .
Ġtest ing
un ities
Ġsh ift
in em
st ore
9 4
Ġun signed
Ġsur round
="../../ ../
S ION
ĠJ un
Ġf ig
hold er
le v
7 1
C ar
ant a
ĠC are
Ġs ales
ak ers
c ategory
Ġa ware
ard en
d x
Ġsit es
Ġfem ale
ĠCh ampionship
ole c
9 1
F ound
Ġass ist
Wh ile
res hold
ĠWest ern
urs day
ann er
em ail
ĠH en
il ing
b i
ĠV alue
Ġd og
ynch ron
-------------------------------- --------------------------------
b ur
ĠCong ress
st ant
A ME
Ġd im
En abled
ĠRich ard
Ġdirect ory
The n
Ġsym met
Ġby tes
C I
c ur
c it
ĠHT ML
ic ies
Ġrele vant
Ġclear ly
y an
ven ue
ĠR oyal
9 2
Ġo il
W riter
R ule
Ġal leg
E Q
ĠP ower
sh ot
.... ....
AG E
Ġm ys
Ġst eps
D oc
bo olean
Ġfore ign
Ġvis ual
ĠM A
Ġdown load
H ome
R et
Ġn ation
B ody
ĠTechn ology
N N
Ġm aster
D raw
Ġs plit
Ġdo or
lic t
Ġ util
ik i
Ġgener ate
Ġin str
) -
Ġvill age
ann els
E ach
Ġlet ter
Ġd rop
Ġcom pl
A uthor
ĠM ath
Ġindividual s
Ġm achine
Ġd ream
Ġs ports
ag ger
? ?
tab ular
ĠSt at
Ġf arm
7 4
cl oud
ĠW omen
os ing
Ġper haps
su per
ĠJ SON
reg ister
pos es
Ġredu ce
) }\
anc ing
S um
Ġm obile
Ġsp irit
Ġcustom ers
ĠM ax
Ġw ave
erm an
Ġmin imum
Ġh undred
ĠRuss ian
Ġfin ished
Ġev olution
ĠH ot
Bo olean
7 3
FA ULT
ĠAcc ording
g ar
ĠG ame
ĠJ ose
Ġsp read
Ġr oute
ĠC ode
ĠS il
ĠT O
Ġelect ric
Ġo s
ir med
Ġj son
Ġst ock
ol a
ertific ate
Ġcon serv
) ^{
ĠRe port
Ġview s
Ġf ear
Ġm ill
ĠĠĠĠĠĠ Ċ
as er
ĠAn y
By tes
ol k
ĠM onday
D ialog
Ġquant um
ĠSt e
ar ant
ser ve
ĠB u
Ġbeaut iful
ĉĉĉ Ċ
Ġagre ement
c b
As sert
Ġhapp y
all ery
Ġdet ail
ĠS pe
ug g
Ġclaim s
est ed
ĠM ain
ed er
% )
Ġbel ong
F ig
X ml
nes day
Ġmention ed
ific ations
ĠP et
Ġch ain
uck et
Ġa im
Ġdep th
Ġtri ed
Ġprob ability
Ġd aughter
Ġstr ict
ust ain
Ġca used
Ġcould n
f aces
f ramework
call back
org an
Ġs ell
alle l
H istory
ĠĠĠĠĠĠĠĠĠĠĠĠĠĠĠĠ ĠĠ
Ġen h
Ġre ached
$ )
Field s
ex ports
Ġjo ined
TE D
om orph
S m
ap y
Ġre asons
l ines
oth ing
Ġre strict
ĠS O
miss ions
Ġdes pite
cent ury
Ġappe ared
ĠEng ine
Ġstreng th
Ġs un
por ate
al ian
ix el
ĠO ffic
j a
loy ment
inst all
Ġtool s
", "
ĠÂ »
ĠR oman
Ġart ists
Ġc ategory
Ġtri al
Ġfail ure
Ġext rem
199 7
app lication
Ġide as
D L
Ġcl oud
Ġinc or
M ock
} "
ap ers
D elete
A c
ect ors
s pe
Ġinterest ed
ell a
Ġn orm
Ġm ission
el ess
Ġt al
T C
ov es
w ar
F R
By te
Ġh arm
' ))
k in
pl ugins
Ġcon cent
EX T
s ort
G u
st at
se ct
put e
Ġneigh bor
Ġrespons ible
Ġp aid
ĠL and
lem ma
ĠG lobal
] ]
ad y
J ob
id ers
Ġpl ot
) /
d ouble
w rap
ĠMart in
S L
ro ph
in sert
Ġj our
Ġexp licit
B ook
aut o
ĠB ack
8 3
; <
RO M
Ġse a
Ġd ed
ĠM ur
li e
Ġadv ant
Ġt it
Su pport
Ġon to
arg ument
ĠI ran
Ġmur der
Ġb ill
u ple
ol ver
Test s
Ġstr ateg
ist ration
Ġo wner
reg ion
Ġ+ +
ĠI O
ĠK ore
ĠJ ud
Ġshow ing
Ġsp ot
M ay
ĠM ass
Ġ< =
ing u
c up
Ġcl uster
Sh ow
ĠS pr
Ġtalk ing
Ġn ative
as hed
i ency
Ġcon sequ
wide hat
ent er
Ġh idden
Ġh our
Ġdr iver
d ict
Ġident ified
Def inition
co q
an ish
in line
Ġrecord ed
__ (
sh ort
Ġprocess es
iv ery
Ġdiscuss ion
u ke
Ġcertain ly
ig an
M ain
ĠA mazon
Ġc at
is hes
ĠR et
drop down
8 1
On ly
ĠS l
ĠC H
is ms
b urg
stand ing
ĠWh y
ĠO h
m es
Ġde but
Ġw all
Ġch urch
ĠE rror
m ock
199 6
Ġinter pret
Result s
Ġmajor ity
Ġpower ful
TE ST
15 0
sq l
Ġ ðŁ
Ġm sg
Ġke pt
ĠC ath
ri ev
Ġp y
D i
ĠCent re
Ġp ool
S ome
ur a
s cription
ner gy
Ġin her
Wh y
Ġsh ip
ĠAr my
ĠH and
St orage
iqu es
ate ver
pect ive
Ġassert Equals
Ġredu ced
Ġar m
Ġad opt
unc hed
Ġun c
Ġst o
em porary
C or
ind ent
Ġw ood
Ġcol lege
Ġb rief
ĠFil m
n ight
ic ed
Ġup dated
erv ed
Ġpl aced
C ustom
ĠW ood
ĠU RL
t ure
N e
P ackage
Ġreg ions
av er
ĠD en
ri z
ad s
Ġrep resents
ĠL ove
Ġhe avy
Ġcam era
ĠFlor ida
ĠJapan ese
C opy
Ġap i
Ġeffort s
Ġc itiz
i ated
h s
ĠL im
ce an
ru le
M eta
Ġp icture
and ra
Ġg alax
com ment
re land
Ġann ual
Ġsm art
J ECT
Ġex ternal
Ġgu y
Ġfe et
ĠC y
Ġre ality
Ġbound ary
Ġmin or
Ġmaterial s
ts d
Ġrat io
Ġfrequ ency
Ġf an
ĠL os
sc ape
ĠTe am
Ġm ock
h ow
Ġd aily
Ġsepar ate
ĠSt and
ĠB rown
Ġ' /
ĠE conom
Ġlead s
ke ys
KE Y
Ġjav ax
Ġequival ent
if ically
Ab out
Ġcap acity
m argin
ĠEx t
25 6
ens us
Post ed
ĠF estival
ĠVir gin
} |
ne ctions
Ġs amples
Ġb oy
h ab
ĠĠĠĠĠĠĠĠĠĠĠĠĠĠĠĠ ĠĠĠĠĠĠĠĠĠ
Ġcommun ities
pass word
Ġra re
urre d
ĠE qu
ellig ence
Ġown ers
cd ots
om y
Ġg one
P ub
Ð »
Ġcon sole
ar ation
M edia
sec urity
ĠH uman
ĠO ld
had oop
The se
b ul
ĠT uesday
h ome
ask et
urre ncy
ĠL ibrary
Ġex amples
ĠL in
Ġb attle
G S
Ġsche me
Ġf ramework
ï ¼
cl aim
Ġa head
Ñ ĥ
ĠB ur
Ġcon vers
hent ication
ell ed
Ġf ederal
go ing
ec es
Ġp an
ĠSt ep
Ġprocess ing
Ġresult ing
Ġw allet
Ext ension
. ~
Ġent ity
EN D
con nection
B R
Acc ount
ĠSe cond
ri age
Ġd anger
Ġinflu ence
Ġw ish
Ġth er
Id ent
ĠA rab
}_ \
A p
ĠS ol
ĠSec urity
Ġdr ink
Ġd ie
ang ing
ĠA ction
os oph
}) \
Ġcall ing
F r
P P
T V
j pg
OD O
el li
Act ive
Ġex cell
ist ent
ĠT ext
n one
ip al
Ġevent ually
Ġocc up
Ġserv e
ĠI ll
Ġmar ried
AR Y
Ġne ut
ĠComm unity
Ġveh icle
Ġd ig
. '
Ġac adem
ĠJ im
N etwork
P attern
ĠThere fore
Ġcompet ition
c pp
ple x
198 0
ĠEn ter
mat rix
ĠCh icago
item s
Ġun known
199 5
Ġchall enge
c md
Ġ\ {
Ġmys elf
Ġs ch
Ġpl ays
ĠJ o
V ol
Ġm iles
=" "
Ġold er
ĠL ake
Ġpo inter
FI LE
in ations
s in
Ġar rest
pos s
}^ \
ar c
Ġ{ };
in itial
line ar
LO G
Ġocc ur
Ġra ised
ĠO lymp
Ġhelp ed
sp ring
Dis play
Ġcommun ication
Ġsk ills
Ġaud ience
Ġc row
Ġabsol ute
Ġm otion
* )
Ġ" /
og en
ĠCol or
Ġn ice
ĠLou is
l ife
Ed itor
ĠC ast
up load
Ġform ed
q quad
ĠE ach
Ġm essages
al id
ĠD own
__ __
mod ules
gr ade
r ick
Ġsom ew
ĠL ink
^ +
ou ter
ut y
ĠE nt
maz ing
ĠS pecial
Ġme ant
ĠG ames
A uth
Ġ$ {
Ġag ent
P ool
on ym
th read
& =
D C
W A
HT ML
ĠDes ign
âĢ ¢
Ġst ated
Ġsus p
Ġh tml
Ġknow s
Ch anged
J ohn
ĠB et
Ġsub sequ
rad ius
O ther
1 20
ĠV AL
Ġbro ther
in f
d im
oc ation
v ement
ĠTh ursday
Ġser ial
Ġpart ies
Ġwe ap
Ġext ract
c ape
is l
Ġident ify
un signed
g rid
ĠL ead
Ġrem aining
Ġp i
In itial
ĠE lect
Ġear th
Ġpart ner
ele ase
Ġregard ing
ĠP an
Ġb rain
Ġis su
ic ol
ĠD uring
P op
)) )
ĠA uthor
Ġke ys
Sec urity
y er
B efore
rec ord
ĠH or
T ab
S end
Ġrecomm end
Ġres olution
Ġad just
ĠPar is
u ps
L ock
add r
Ġt rou
k g
ĠAr ts
ub y
Ġ[ [
Ġnot ed
Ġext ended
Ġcontin ues
A v
ç ļ
Ġw arm
ĠAb out
Ġstart s
Ġmost ly
") ]
Ġlist en
ĠD C
ĠCan adian
Ġread er
ĠAt l
Ġdef e
Ġd imension
_ ,
Ġs ector
u an
Ġh ospital
Ġwh om
point s
Ġwould n
ic ians
ĠOn ly
irc raft
Ġcompar ison
ĠThe ir
Ob j
ag raph
ĠWindow s
Ġmat ches
Ġtre nd
Ġatt ract
ĠUp date
P erm
Ġpe ak
Ġspect rum
ĠZ eal
ĠAs ia
Ġrequire ments
Ġbenef it
Ġman aged
not ation
ĠChar les
X T
ed it
ple ments
Ġto ward
HE CK
Ġcandid ate
Ġsignificant ly
çļ Ħ
form s
Ġpat ient
stit ution
ĠChrist mas
Ġgu ess
Ġlist ed
k w
ĠVict or
Ġstruct ures
ĠAcadem y
Ġad vert
ĠP age
ĠM icrosoft
Ġb rowser
ĠHe ad
Ã §
ĠWed nesday
ĠB ob
Ġno ise
Ġl if
ĠLe e
Ġdam age
sc roll
od ies
sh all
or a
ide os
ass ets
Ġ> >
im pl
us band
ĠPl an
j ob
st ats
Ġfl at
ĠIs lam
"> &
ang o
Ġd b
ĠAngel es
ĠDef ault
sh ape
w ords
Su pp
Ġf ant
Ġpe ace
{ (
Time out
T ags
R ed
Ġcomb ination
at o
} :
ĠAl though
) "
Ð º
Ġa udio
Ġr ich
Ġoffer ed
ĠL android
ok es
ĠApp le
n umer
ic ian
Ġdiscuss ed
ru it
F inal
Ġprot ocol
l ig
199 4
c i
Ġsecond s
Ġapp arent
ĠZeal and
Ġal loc
ĠE p
Que ue
ion al
Ġeconom y
Fil es
Ġpl anning
ĠPro v
ĠIntern et
cont in
}} (
=" ">
Ġyour self
t ex
b u
Ġk ill
Ġinteg er
Ġ( *
Ġtra ffic
ĠF re
od d
ĠF amily
s che
ĠSu pport
S R
ĠP oint
%% %%
or row
ul s
M I
ĠJohn son
f ound
Ġauth ors
Ġbenef its
um in
ĠWh o
Ġ ),
h av
Ġl oop
Ġbe at
J SON
ĠMed ical
Ġpro test
ĠIt s
Ġra il
L java
u ations
Ġcred it
ĠI reland
m aster
Ġle aving
Ġgo als
f ly
Ġf resh
P AR
Ġ il
W idget
Ġcon ference
Ġey e
ĠKing dom
Ġphot o
Ġmon itor
Ġen able
Se cond
ĠA ge
st one
ĠF oot
am in
? "
Ġch osen
ĠYou ng
text width
Ġf loor
ay lor
ĠW ater
Ġsm ooth
Ġk m
SS ERT
. *
Ġph il
Ġare n
Ġin ner
Ġpl us
Ġbirth s
D R
ĠN Y
G rid
i h
y e
ĠDiv ision
ĠF und
ĠV ersion
Ġexper t
Ch annel
Ġl ic
Des criptor
ĠSc ot
l g
ov ing
Ġsex ual
Ġfour th
ĠGe org
en umer
}\ ,
Ġgover n
cit et
st op
result s
[ :
p icker
ential s
ul f
Ġvis ible
new s
ĠR ights
! âĢĿ
Ġr ise
M ed
Ġsu fficient
ĠCh ief
Ġj oint
W N
k o
ĠD om
How ever
}^{ (
S cope
| |
m ove
que ue
d eg
i pped
Ġcover ed
Ġcrit ic
Trans action
s creen
app ed
Ġmag netic
r ase
ph er
T A
f ix
ograph ic
ĠPar liament
ĠE li
Ġpol y
ĠAs sembly
ĠOb ama
G R
ly ph
Ġb ed
Fl ags
Ġadd ing
P M
em y
Ġfind ing
Ġpr ison
Pe ople
pro file
ĠVal ley
D atabase
e ffect
ĠP ass
ce ived
Ġmult ip
ele gate
F loat
Ġbig gest
Ġpro pos
cont roller
ON E
Ġf lex
ist ers
al i
lic ations
pr imary
l ers
D el
197 0
=" @
anc el
Ġinstance of
ĠE U
Ġrest aur
Ġpl ane
Ġsh ut
z en
ell er
Ġdel ay
Ġo k
d imensional
ER S
ur ance
at ial
Ġpro ceed
n ames
Ġp et
; /
Ġofficial s
ot hes
w ait
Ġinvest ment
Ġthem e
ĠL ine
ĠD O
Ġest imate
Ġrepl aced
ĠComm un
Ġdist inct
b el
j query
Ġmet al
M sg
ak istan
Ġend ed
Str uct
ict ures
ĠF alse
C ond
Ġequ ations
20 22
ĠJ ones
ck now
Ġfavor ite
Ġh ers
Ġaltern ative
Ġhapp ens
Ġ$ (\
Ġsp aces
Ġm ixed
ĠM P
} +\
Ġd ir
S w
att ers
Ġ ×
Ġthan k
C RE
ach ment
init ely
VER SION
Ġmeas ures
Ġfor ced
ĠM ult
ult ural
Prot ocol
g ers
IV E
r im
th let
V ar
ac count
ĠP lease
Ġs quare
ĠFor ce
aw n
Ġag reed
g ence
12 3
Ġst reet
s ave
Ġm ist
Ġat tr
Ġinter action
Ġw aves
Ġexp ansion
Ġcomb ined
ĠA ccess
um s
ĠMex ico
if fer
Ġslight ly
ens ed
Ġjob s
Ġaw ait
ĠN E
b ad
12 8
Ġf ill
Ġex change
s he
y es
ev ents
Ġcont rast
}\ \
Ġd u
ĠĠĠĠĠĠĠĠĠĠĠĠĠĠĠĠ ĠĠĠĠĠĠĠĠ
Ġart icles
ĠS pace
( !
tx t
ĠA wards
Ġcons ult
IC E
ĠS ar
Ġb udget
@ "
ĠLem ma
ĠCh ris
W ill
Con f
ĠT ri
at ible
==== ==
est ic
Ġd oll
ur ies
ĠL ast
Ġconsist ent
ĠT R
{ {\
Ġl atter
het ic
Ġmag n
Ġw id
ĠSt art
Act ivity
Ġin come
Ġwin ning
Ġun iform
St ep
Ġ ens
ĠM a
Ġb tn
ĠF ort
m o
v a
ĠB O
Ġsee ing
ĠS hed
ing ly
Ġf ish
Ġcult ural
ĠO ption
Ġfam ous
t ip
199 3
ind s
ĠW ay
sh ift
ak a
Ġar bit
() {
Ġcar ried
Ġblock s
f amily
Ġrequest s
Ġequ ipment
M B
Ġch ief
Ġemploy ees
it o
IN FO
r ich
j i
Ġv ir
k ins
Not Null
Ġthan ks
j ar
Ġatt ributes
let on
ĠM il
G lobal
~~ ~~
Ġt ab
id el
Ġse gment
g ency
Ġbr anch
Ġco e
bl ack
Ġlaw s
fl ags
By Id
Ġp il
z one
ĠO l
appro x
og y
Ġtr igger
ER E
Ġar rang
Ġfund ing
Ġm yst
r ine
N G
ĠM ake
Ġp sych
Ġp hen
199 2
In it
r ical
iter al
Ġle tt
G en
ĠIn vest
Ġo dd
u ages
L C
Ġp od
ĠB ecause
ang ular
ĠP ath
ĠL ook
g a
MA X
ĠJ on
6 00
net work
Ġapprox imately
Go ogle
om ial
ĠReg ister
rec ated
Ġsen ior
)) );
Ġoper ating
un te
Ġg ather
ris is
() ).
ollow ing
Ġstud ied
Log ger
ĠS to
Ġt un
Ġdr iving
Ġgu ide
Ġbehav i
Ġdef ense
Ġopport unities
Ġnetwork s
} </
T ABLE
Ġhe at
Ġun ivers
c am
art icle
Ġd rag
B I
p erson
Ġf if
J ust
Ġl icense
D T
Ġc ars
Reg ister
iv ation
Ġh usband
Ġreve aled
ĠM any
typ edef
ĠM O
w atch
Ġunc ertain
por ation
Ġt end
R est
Ev ents
() ));
Ġcomp are
Ġbe coming
ĠL ord
Ġcent re
is c
Ġla unched
//////////////// ////////////////
ĠP ac
Ġrepresent ed
ĠP op
L a
Ġseem ed
import ant
ĠS ports
at i
L IC
th rows
F S
Ġdes c
Ġdep ends
Ġtell s
Ġcre ation
dom ain
B it
ĠM ike
b re
Ġinvest igation
Ġlearn ed
ov a
Ġbal ance
def ined
m osph
Ġcr iminal
Ġco ast
Ġder ived
D P
am m
pro perties
B r
man ager
Ġgu arant
Ġatt end
Ġtri p
f riend
Ġp ure
al loc
F ull
as is
Ġr ul
Select or
Ġ ip
sh ire
Ġdirect ed
se lected
raz il
Ġ ice
ĠA S
Ġdoc uments
> :
log ger
Ġj ump
ach ing
Ġexpl ain
Ġm enu
n ament
ĠF unction
Ġestim ated
) +
Ġfeel ing
ĠPol it
Ġimp lies
ĠH aw
or ney
Ġhand ler
ĠF urther
e z
Ġe ffic
Ġre ject
Ġtal ent
Ġcom fort
Ġdet ect
Ġent ertain
ĠL ike
Ġn g
25 0
Ġcr ime
) ),
ed itor
Ġprote ction
au ge
ĠSen ate
f ire
Ġdet ailed
U ID
F ind
assert Equals
uss ian
Ġhy per
Ed it
Direct ory
ĠJe ff
M C
Ġviol ence
Ġso ft
ĠN ight
Ġbuild ings
ĠAnd roid
g it
he ast
ĠB ow
Ġin tr
igh ter
_ ->
Sy mbol
ĠĠĠ Ċ
Ġtechn ical
ynam ic
ĠGu ide
Fe ature
w orld
Ġg rid
ĠL ab
Ġpost ed
ĠRe al
ry st
fra structure
Ġex port
scri be
] :
. __
Ġen abled
er ial
', '
ig r
est ion
Ġc os
Des c
Ġr ing
Ġinstall ed
ĠS and
Ġsc hedul
Ġmass ive
type of
Ġcy cle
tr igger
Ġadvant age
proto buf
ĠBl ue
op l
t ical
= (
os itory
Ġorgan izations
Ġtrans l
Ġanim als
Pr int
Ġra pid
s chema
ut ch
P ATH
LE CT
ĠP enn
Ġh air
Ġp p
ĠP R
uck y
ĠPol ice
Ġpol icies
S IZE
ĠCE O
It ems
ĠW he
ĠIt aly
ĠC ard
Ġstand ards
ook ie
P ack
urb an
los ed
Ġc ities
ap pe
Ġle ague
g i
Ġopin ion
Ġm aps
Ġturn s
Ġ% }
Ġpolit ics
ĠC opyright
av or
Ġmeas ured
) ).
Ġrem ote
ĠInd ex
Ġchang ing
Ġtr uly
ĠOr der
e ach
ĠÂ ©
Ġdiffer ences
Ġwait ing
ne q
Ġgu ys
P lay
sc r
Ġfin ish
Ġd raft
Ġpar ser
Ġachiev e
ĠJ oe
Ġres idents
st ra
by tes
ĠS ep
Ġexper i
Ġvel ocity
Ġa mazing
Ġliter ature
pos itory
eng ine
in v
hor izontal
Ġw ww
Â ©
clud ed
end or
ĠPh ys
Ġhistor ical
Ġe fficient
Ġenvironment al
print f
anc he
ĠS ign
Ġin sert
p at
n orm
ad ing
Pro xy
ath an
ri ze
du ced
H igh
Ġra w
ĠK ar
Ġre con
Ġed ition
Ġhigh light
C lose
| ^
key word
ĠW ild
ro ke
iter ator
######## ########
B E
Ġoffic er
Ġappear ance
u zz
Se ction
reate st
Ġsur vey
T erm
ian a
Ġb urn
li k
Ġoper ators
if er
Ġem otion
in et
un ately
ĠOr gan
Ph one
ĠP RO
Ġleaders hip
Ġvert ical
( {\
us hed
Ġt error
ĠIn itial
Ġpos itions
Ġwe ather
Ġhers elf
Ġsh ock
-> _
ĠIt alian
and on
an es
] $
al o
Ad apter
Ġex erc
Ġdou bt
em on
g ame
Ġrel atively
F IG
hand ler
h idden
' $
Ġfa ith
Ġbroad cast
ĠL ocal
ĠE nergy
H R
edd ing
des c
Ġchalleng es
J ava
Ġrelig ious
f ast
ĠB oth
e cho
are a
Ġa ircraft
h ar
In ternal
Ġs leep
Ġtop ic
h space
in er
ur er
os es
ĠW all
8 00
ĠJ es
ĠĠĠĠĠĠĠĠĠĠĠĠĠĠĠĠ ĠĠĠĠĠĠ
} -\
Ġbuild er
_ (
Ġsc al
Ġinv alid
s witch
res et
Ġc old
ĠVirgin ia
un icip
ĠCon ference
Ġv ac
Ġwatch ing
ut f
Iter ator
ĠCath olic
is er
im a
Ġregister ed
Ġ& \
Ġ[ ];
Ġfore st
" `
$ /
Ġnot es
ĠW al
hem at
Ġgu itar
il ly
ĠCarol ina
" =>
'] )
form ance
F igure
Ġcustom er
tab s
I MP
p a
ĠR am
199 1
ĠHen ry
j e
p ower
ĠK en
lim it
Ġenc oding
ĠAnd rew
T wo
w ild
Ġm ask
tool s
Ġwh atever
Ġl abor
Ġw arn
t otal
ã Ģ
U SE
Ġnuc lear
Ġdevelop ing
Ġ io
L ook
il ation
G r
Ġcli ents
ic ity
Ġ> >>
ĠS pec
ĠC ustom
es ome
Ġden ote
in her
Ġoption al
IG HT
Ġl ived
Eng ine
ĠN ode
Aut o
ĠN et
P ay
Ġbusiness es
Ġapp rec
ian o
ĠEn vironment
å ı
oper ation
++ ;
Ġg ain
Ġsupp osed
! "
Ġform ation
Ġyou th
Ġadminist ration
Ġ rom
ess ions
R ad
ost on
let ed
Ġ( -
Ġsupp ly
Pro p
Ġexist ence
Ġcor ner
c hen
Ġspe ech
st ein
Ġind eed
Att ributes
Ġpur poses
Ġw itness
ra wn
ĠInd ust
Pl ugin
im it
ĠCon fig
M T
Ġfocus ed
S ymfony
Ġf reedom
ĠJ ava
Ġcont ribution
G O
ud den
33 33
Ġt or
Ġ _{
U D
Ġhel ps
sec ut
Window s
S cale
ĠWilliam s
u ous
Ġoriginal ly
ĠH y
Ġtre es
aw a
RE AD
ĠC oll
ĠP erson
m ann
Trans form
Ġweek end
ĠSp anish
] \
% ,
Ab stract
Ġk id
ĠL iber
Ġallow ing
Ġf ashion
Ġg rav
ĠRes ource
e per
m ond
I X
Ġextrem ely
ĠL uc
Ġphot ograph
D ouble
BU G
met adata
Ġ{ '
ĠT er
ĠF ire
C G
ĠM ot
ĠF ar
m i
10 1
ĠA ff
Lay er
Ġst ress
c uss
ĠIm age
Ġg ra
Ġm olec
s ol
[ $
ac ro
Ġ$ .
= -
Ġset up
ott en
ĠO N
Ġattack s
Ġautom atically
Ġfund s
ĠI T
Ġjour ney
ĠM iddle
Ġexcell ent
Load er
P ublic
P i
ĠT ask
ap es
ual ity
F unc
Ġdeath s
os a
Ġmot or
¿ ½
Ġthous ands
D ist
r ift
config uration
G raph
ĠP aram
Ġint ended
asket ball
Ġconf irm
ili ar
Ġim plements
ott ed
stru ctions
ĠJ ac
ĠI II
ord ers
Ġab stract
Ġtyp ically
ĠĠĠĠĠĠĠĠĠĠĠĠĠĠĠĠĠĠĠĠĠĠĠĠĠĠĠĠĠĠĠĠ ĠĠĠĠĠĠĠĠĠĠĠ
ĠR o
B P
IN D
Ġan c
Ġdynam ic
UT F
U LE
pr ise
}} {\
poss ible
Ġf unc
To String
Ġ ur
Ġsound s
Ġh ydro
w ater
cri be
ĠRad io
Ġocc asion
P anel
ĠP akistan
ĠV ideo
ĠW alk
ick ets
Ġobserv ations
Ġinteg r
Ġfl ight
IN S
NavBar Cell
Ġk ing
Su ccess
ax is
ĠT erm
Ġcitiz ens
ĠF ederal
Sc roll
call ed
D est
v s
Ġtechn iques
Ġreserv ed
Ġcontinu ous
l ow
Ġfund ament
Ġf le
ĠDan iel
math sf
Ġin fin
Ġsp end
Ġe lem
Ġpass word
Ġc ref
ĠH istor
the orem
Ġv ision
it an
Ġmet ric
in ant
Ġh aven
get Element
li br
com ponents
Ġtre ated
assert Equal
Ġcover age
ym met
Ġarbit r
Ġend s
Ġle aves
Ġg lass
ch annel
ĠL ear
Ġre q
In v
Ġdec ades
k ing
ĠM en
Ġexpl ained
ad ium
rit ory
ot ing
Det ails
Ġf n
ĠMus lim
ĠRec ords
Ġf iction
it age
ĠF ood
k m
Ġsuccess fully
V E
M OD
r at
ĠSecret ary
ï ¿½
\ '
ĠL ight
Ġincre ases
ĠO p
mut able
ĠL i
S Y
t mp
ch or
ĠJust ice
Ġmus ical
S pace
Ġdis k
Ġis land
Ġcons ists
Ġclass ical
as m
Ġ" <
Ġbo ost
Ġ" "
d p
Run time
bl ue
ĠBook s
Ġ- \
gener ated
Ġvers ions
ĠL ive
Ġexp ressed
sk i
ĠA T
enumer ate
ĠM u
W ell
int on
Ġp al
D uration
Ġphot os
W orld
ĠF OR
Ġposs ibly
iss ions
ari ant
Ġprov ider
ĠT ODO
Ġad vent
Ġsupport s
Î ±
Ġst ored
Ġr an
Ġh ab
Stat ement
i ro
ult y
C F
cont ains
f old
Ġb right
Ġis ol
Ġproced ure
á ĥ
ĠG a
Ġimport ance
Ġsign ature
Ġs port
Ġpre par
Ġent ered
app er
t ics
g reen
N T
ĠFrancis co
ĠI l
Ġclin ical
fr ont
ock er
ĠHam ilton
Ġp un
ex ternal
b en
ear s
Ġdiscover ed
Ġth erm
Ġloc ations
Ġcook ies
A F
Ġcont roller
rou d
ir ation
Gener ic
Ġdep artment
Acc ording
Ġs ale
ch er
\ ,\
ev in
Ġpre v
ĠBrit ain
ĠG ets
i ative
ex ists
Ġan gle
Ġn ine
ĠH ospital
A CT
col Last
Ġnav igation
Ġcomp act
Ġf uel
ĠO k
Y es
C ap
P ORT
Ġdef initely
s en
Ġb ird
Ġk ick
Ġl oved
prot ocol
V M
Ġfact ory
ĠR est
Ġcal c
z ero
Const ants
il a
f ol
ĠAd v
app ly
Ġman ner
ĠS at
Ġdeb ug
Ġl ies
Ġocc urred
Ġded icated
Ġn arr
ĠAmeric ans
ĠT w
um es
w rapper
Ġsum mary
ĠC ross
S ync
ic an
w hen
B rowser
Ġpi eces
Ġch air
Ġb inary
P lease
Ġissu ed
R oute
Ġcur ve
Po inter
Ġl ab
Ġoffer ing
IT E
Ġcon tr
prot ected
ro le
child ren
Ã³ n
ĠJew ish
ĠT aylor
ĠG ra
Mem ory
Mem bers
ĠG ar
ĉĉĉĉ ĉĉĉĉĉ
i pping
Ñ ı
Ġ ri
Ġ= ========
X ML
b log
RE S
Ġapp end
J an
col First
ili pp
Ġat mosph
: \
Ġcomp ute
Ġconf irmed
Ġexpl an
Ġtask s
ĠEx ecut
Ġcrit er
V ideo
N ULL
ut ely
d em
ST AT
Ġgirl s
Ġun ion
st able
ĠN on
item ize
let s
m ask
ad or
ĠM id
Ġfac ilities
ar ian
M apping
ĠT ele
ĠG al
Ġbeg ins
ĠPh ot
à ¸
Ġchem ical
ĠM S
ĠBe ach
Comm on
Ġs ustain
ĠA P
gy pt
a fe
f ail
198 9
ĠCont rol
par ser
Ġmod ified
x space
Ġaffect ed
get Name
t w
b rowser
as p
Ġax is
Ġmov ies
ĠJose ph
ab eth
ĠN ext
Ġindic ate
ist ed
Ġl ib
ĠH on
Ġ Ø
Ġnumer ous
B est
" /
Ġcirc um
Ġadv ice
ĠB E
param eters
ak ed
Ġ( _
el a
y ou
eng er
Ġc aught
Ġreview s
Char acter
Ġaccept ed
Re port
) }{
S pe
ĠG irl
ĠP C
Ġex it
ĠPro cess
p refix
M ake
} '
1 10
Ġas ync
IP T
Ġt x
Ġencou rag
Ġincre d
av id
ĠSo ftware
Ġinj ury
out s
ell ar
Ġdet ection
Ġplan et
ĠU k
AN T
Ġb ra
Rem ove
{ $
C opyright
ĠR ail
v in
are n
Mat rix
Ġcont ained
par a
k es
Ġmark eting
Ġclass ic
at ar
w an
Ke ys
Ġus ual
sh adow
ans as
Ġal gebra
Ġpol ar
ly wood
; }
ch ain
ĠSw ed
Back ground
O UT
ag ers
Ġmed ium
Ġcandid ates
Ġe lected
F ix
Ex pr
con n
pt on
ĠSe a
r andom
Ġvert ex
d ialog
operator name
F ailed
pl us
pl atform
Ġse at
Ġentire ly
L P
Ġex ecution
Ġag ency
ĠTr ust
ĠI E
Par se
Ġf re
ĠS af
for ward
ĠAd minist
ĠV an
ĠProf essor
Wh ere
Ġeven ing
Ġsy nt
s ys
in ity
Ġin n
Ġhe nce
ĠIO Exception
ĠP rem
L android
n il
Ġem ph
ĠS earch
iz able
Ġsk in
Ġsize of
Ġs an
z y
Ġcou nc
Ġup dates
ĠM ah
sa fe
Ġread ers
h ide
Ġfeature d
19 60
w all
ĠStud ies
E mail
Ġide al
mon th
ĠJack son
Ġimpro ved
et ry
Ġli ber
lo ss
CE SS
Pass word
Ġcl im
Ġexper iences
ier arch
Ġadv anced
det ails
p an
Ġrad ius
Ġform al
Ġp aint
ĠL y
ĠW at
de cl
Ġconduct ed
iss ue
Ġhold ing
Ġtyp ical
ĠÂ ·
Ġcon vention
Ġt ro
Pro file
Ġanc ient
ra q
Ġdep art
M ut
N OT
Ġfind s
At tr
head ers
so cket
ĠSe ason
ĠB ul
ĠCo ast
ĠC R
Ġann ounce
Ġcon nections
Ġprop ag
Ġveh icles
Ġeas ier
Ġc art
< !
or iginal
Ġcalcul ated
Ġe igen
Ġd ict
à¤ ¾
ĠB razil
) }$
Ġhe aring
w p
Ġoffic ers
Ġr iver
t ons
n i
V D
the me
Ġtrack s
Ġs and
s id
C red
Ġex pos
ars ed
Ġadv ance
Ġxml ns
Ġz one
Ġexper iments
Ġkeep ing
ĠH a
no indent
=" ${
Ġinst ant
Ġarchitect ure
ĠR om
serv ices
E ar
t ags
ĠE r
Ġb ond
Ġpract ices
n eg
Hel p
play er
Ġform ula
Ġv ary
ĠH ash
Ã ¨
h om
Ġad j
Ġconsider ing
Ġdynam ics
Ġty pename
iven ess
ĠCol lection
view s
se ud
Ġr g
b ury
En um
pro v
ĠSt eve
ĠW in
ĠS ource
Ġst able
Ġch annels
G A
Ġsc atter
ĠSt ory
Ġfl ux
ĠĠĠĠĠĠĠĠĠĠĠĠĠĠĠĠĠĠĠĠĠĠĠĠĠĠĠĠĠĠĠĠ ĠĠĠĠĠĠĠĠĠĠĠĠĠĠĠĠĠĠĠĠĠĠĠĠĠĠĠĠĠĠĠĠ
Ġcon ven
v o
Ġhelp ing
ident ifier
Ġf ell
ut s
O pt
iv ial
ĠK n
ĠSc iences
Ġr ough
ris on
Ġpr iv
rodu ction
Ġf rag
ĠSp ain
Ġsec ure
t body
Ġpurch ase
build er
el ly
Ġcrow d
Ġconcern s
Ġocc urs
Ġ\ |
O B
ĠU I
Q U
Ar ch
are t
b ro
Ġvict ory
Ġmatch ing
F ail
Ġsupport ing
Rep ository
or ry
ĠW atch
ĠF ROM
ĠL ittle
Ġs ides
act s
Ph oto
Ġelect ron
Ġindic ates
Ġw ire
Ġrec all
Ġact or
coll apse
Ġpartic le
Ġscient ific
Ġtype of
$ }
Ġsuggest ed
t wo
e ah
Ġun iversity
ĠF ind
Ġd ialog
ĠW AR
nav List
-------- ----
Ġap art
P y
enc ing
Ġan imal
Ġpers pective
Ġexplo re
Ġredu ction
r ative
Ġexecut ive
du ce
ug s
Ġexperiment al
ress ive
Ġbr ings
Ġwrit ers
Ġs ister
S ER
ĠCol umb
Ġel im
Ġfe at
Ġf illed
Ġs oul
Ġl ose
Ġdel ivery
Ġspec ifically
TE XT
Ġdec isions
Ġent ries
ĠM ic
Ġsub stant
Ġfound ed
w riter
Ġrece iving
pre c
Ġmet adata
Ġneighbor hood
ĠRequ est
ĠD ar
ĠSum mer
Ġord ers
C ategory
AD D
ist ant
rop y
Ġsto pped
att ributes
ĠSu pp
ors hip
S ocket
P erson
cre d
Com par
Ġclaim ed
ĠH ard
ĠJ r
Ġ" ,
ĠM essage
ĠAg ain
^ -
Ġcomm itted
O ST
Ġg ender
en abled
Ġth ick
P refix
ok ed
ĠChild ren
Ġprep ared
Ġsu c
ĠT oday
epend ence
F ree
Ġdi agram
if ts
Y ear
Ġf lo
ĠN av
w er
ir ror
pro ps
Ġd at
Ġcharg es
Ġcre ative
D ay
Ġbro ken
ĠIr ish
Ġhot el
Ġaccur acy
Ġor ient
ser ial
Ġv ideos
Vari able
S QL
}} }
Ġd ance
. âĢĻ
Ġret ail
S equ
W R
pro d
def inition
Ġrefer red
Ġrepe ated
ĠS us
Ġman age
d ependent
c ert
Ġy es
ĠThe atre
ĠNor thern
) ">
ĠS up
ĠUs ing
ipl es
ĠScot land
Ġtw ice
fil ename
AL SE
Ġown ed
ex tern
Ġinstr ument
Ġf ellow
Î ¿
or al
ĠT y
ĠĠĠĠĠĠĠĠĠĠĠĠĠĠĠĠ ĠĠĠĠĠĠĠĠĠĠĠĠĠ
T otal
Ġac comp
ĠOn ce
Ġfig ures
ĠPac ific
st o
R ole
pro vider
ĠW rit
ĠC ase
Ġfl ags
Ġ ul
âĢĻ .
Ġdef end
O F
ĠK h
Ġg ap
ĠM ember
ĠB ern
Ġt on
Ġde leg
det ail
as i
Ġsp ring
Ġwor se
Ġnew sp
Ġpartners hip
Ġm ental
Ġrem ained
Ġdest ination
Ġinter net
ĠB as
198 8
ĠDemocr atic
O h
b rid
res ources
ĠB rad
omet ric
ĠC ost
Ġque ue
ĠQue en
Ġus age
Ġfac ility
Ġpl ants
x s
ĠHT TP
Ġm el
Ġcapt ure
ex pr
ion e
et es
Ġconf lict
Ġver ify
Ġpr ices
Ġacc ident
sh op
ic ing
Ġact s
Ä ģ
col lection
Ġabs or
sc ious
Ident ifier
v space
Ġcharg ed
ann a
F in
Ġelect ronic
Ġmin ute
ĠMich igan
ĠW H
yn omial
ĠE lement
Y our
Ġr id
{ "
( __
Ġse ctions
is a
Ġpass ing
M D
ĠR ay
ĠL u
ident ial
Ġapplic able
st ances
ĠS om
ict ed
ic ious
ap os
Ġdiv ision
Se lected
J S
S eg
Ġa cknow
Ġs qu
d one
Ġsol ar
ri e
ĠS outhern
ition ally
Ġtrans late
Ġmin im
j unit
Ġachiev ed
under line
Ġconstraint s
Ġhon est
ĠC amb
ap h
ĠF our
Ġp itch
Ġhouse hold
Ġsuggest s
Ġcol lected
G ame
u er
Ġcar bon
d y
Ġca uses
ĠM aster
ĠB oston
Ġre action
Pro duct
Ġinc ident
> ::
Ġ{ "
Ġimplement ed
ĠP H
ĠB lock
Ġdef in
ĠI R
Ġth reshold
Ġconsum er
ad el
Col lections
ĠY es
r f
ct rine
los ure
A Y
b its
ly n
Ġc le
. ;
Reg ion
Se lection
Ġmechan ism
E very
Ġ= ======
Ġjust ice
Ġcomm ission
Ġport ion
ĠCh ange
medi ate
B AR
M r
Ġg ar
ĠG i
Ġaspect s
Ġact ing
Ġprote in
. ");
Ġh olid
Ġpartic les
id x
Ġre ct
pre v
Ġdep ending
Ġs udden
l aw
Ġsuc ceed
ĠC ivil
M any
s ince
En ter
oc aml
v ideo
Ġhous ing
In tern
aj ax
Ġpro xy
T race
Ġconstruct or
ud es
Sim ple
os c
s up
Ġu i
New s
lic ated
Ġarr ived
UR I
atter y
ĠRe act
ĠK im
() </
ĠL td
Ġ[ "
Ġpattern s
ĠĠĠĠĠĠĠĠĠĠĠĠĠĠĠĠ ĠĠĠĠĠĠĠĠĠĠĠĠ
amp ion
Ġmark ed
Ġv ent
f d
Ġpost s
Ġdeg rees
Ġrec ording
t k
Ġmark ets
Ġclo ser
ĠB log
ĠS ong
Ġinter val
log in
Ġpay ment
t le
Ġbel ief
ĠR ight
Ġstud io
ĠB ad
2 13
Ġs we
Ġsim pl
Ġes cape
pro gress
Ġsur g
Ġlim its
ĠĠĠĠĠĠĠĠĠĠĠĠĠĠĠĠ ĠĠĠĠĠĠĠĠĠĠ
Ġign ore
S M
re nt
âĢ¦ .
Pro ps
ĠE th
iss ues
Ġfight ing
F ORM
ĠA sh
ex ecute
f lex
Ġass igned
fe ature
Ġregion al
f i
min us
Ġd ataset
Ġconc ert
ĠG re
(' .
Ġappro aches
Ġfav our
ĠH as
ĠL o
ĠD aily
in ating
Ġcan cell
Ġ" -
Ġacc eler
t witter
ĠTh ree
Ġst ations
ĠN AME
Ġmain ly
Ġmar riage
ĠE st
nd ef
Reg istry
Ġstr ings
Ġfe els
Ð ´
all classes
ab out
comp iler
. [
âĢĻ ,
Ġcont ributions
Ġw a
N C
Ġdis abled
Ġc m
ĠT E
Ġem ission
Ġe q
ĠP ay
\ }$
Ġpass ion
b at
Ġ ing
Com ment
">< !--
sv g
ĠFoot ball
Ġmeasure ments
ĠAre a
fort unately
Ġstrong ly
ĠWh ere
Ġv en
requ ired
ĠF air
ust ers
ĠD ocument
ist ing
sh ared
Ġcolumn s
Ġ ..
Ġb g
Ġs ampl
Ġli e
Ġ{ {
enn is
W rapper
Res ources
}} _
Ġnull ptr
Ġm al
Ġc ash
Ġp refix
12 5
am az
tr m
Ġfeed back
m ic
Ġd uration
ru ption
w a
Ġch art
Child ren
z abeth
let ter
Ġrem ark
Ġp owers
Ġacadem ic
Ġstand ing
ab il
Ġserv ing
< \
Ġauthor ity
ĠD ou
on to
if iers
ce ive
Ġphil osoph
ĠR og
re port
ĠW IT
Ġbeliev ed
s n
Ġv oc
in son
; )
ĠB al
ul ator
f ixed
Ġc risis
TI ME
Ġf raction
Ġfe e
å Ī
198 7
ĠGeorg ia
B ound
Ġtransp arent
ast ers
Gener ator
ĠComm on
ĠD igital
g ments
sp irit
U nder
tex trm
Ġext end
Ġal ert
ĠC ur
az y
Ġphen omen
P U
T T
Ġm ent
U ST
Ġf ra
if old
ĠK ong
cd n
b les
Ġinsp ired
Ġco q
Ġrepresent ing
ĠF ull
h l
Dom ain
ĠAr g
j ango
s pecial
Ġdocument ation
Ġpr ivacy
Ġfam iliar
The ta
m aven
M er
ĠMc C
Ġb ow
ĠD ub
ol y
ĠE gypt
Ġwar ning
Ñ ĭ
Ġdeb ate
=" $
d c
Ġgu ard
ĠA li
R R
Ġam pl
am i
ph ot
}} ,
Sum mary
b ot
Ġaward ed
FF FF
Ġm apping
fl ag
ĠS aint
Ġper mission
HT TP
Ġorder ed
Ġrelationship s
lim its
p u
Ġcont ents
ĠEx per
Â °
$ _
Ġtrans formation
L Y
Ġre tain
in valid
ĠCom put
Ġarbitr ary
p red
rior ity
Ġcre w
ĠAs ian
Ġaccount s
Ġload ed
Ġhom es
Ġt ail
Ġdi agn
ĠPh ilipp
p et
dep th
» ¿
ĠF ox
ck s
Ġmom ents
Ġj Query
Ġrec ip
Ġstat ements
S ingle
ok ing
Ġsche dule
ĠCon f
N odes
W rit
Ġexperi enced
Ġprom ise
el i
err ors
Label s
Ġe at
Ġt ensor
ex pect
Ġhead ers
Pro gress
Ã £
ï »¿
st orage
T x
Ġag ents
o pping
Ġ ).
Ġf ol
n ic
Ġc tx
y o
Ġsecond ary
ost er
Ġthe ore
IT ION
ĠH om
ĠCon serv
u ing
if def
or ough
ac cept
Ġadv oc
am ber
Ġlay out
Inst all
Ġm ort
att ice
198 6
user name
ay a
ĠCh air
Ġappoint ed
ĠSt an
ĠDon ald
A gent
g ov
Ġl it
ĠL com
oc racy
ĠOn line
Ġaddress es
Ġthe orem
ĠOr iginal
Ġb its
Ñ Į
us ers
A g
S I
p ress
Ä ±
Ġid x
F E
Ġsh aring
Ġinterest s
Ġlog ger
Ġalleg ed
cal endar
and y
Ġproper ly
N amespace
gorith ms
L iving
Ġexc ited
is odes
ĠJer sey
o ir
Ġad m
Us ing
Ġp airs
onym ous
Ġconstruct ed
el d
ĠI raq
Ġsc ored
Ġs aved
b rief
ĠRepublic an
Ġwin ner
ID E
ble m
Head ers
Ġfunction al
Ġprov ed
Ġvol unte
N ov
Ġfor t
ĠGu ard
ĠBro ad
ĠPro duct
Ġmoment um
Ġc er
ist ical
Ġ? >
ĠPr ivacy
Ġ era
Ġ ],
web pack
R PC
M iss
Ġdram a
m oz
Ġass ign
L INE
Ġm ess
Ġconcern ed
Ġstr ugg
ev al
A ng
; "
Ġc e
Ġs ac
Ġro les
18 0
sw arm
ĠI ss
Ġhum ans
Ġper t
Ġex ceed
Ġwill ing
ul ating
T ube
Ġab use
ĠC irc
Ġdec ade
ĠI mp
Ġcont rolled
l arge
Ġput ting
fol io
Ġsem i
ĠPro perty
P ER
J oin
Ġreg ime
Ġv ul
M R
Ġmag azine
Ġunder lying
} %
Ð ¼
Ex ecut
Ġposs ibility
Const raint
wild fly
Ġalbum s
ĠB ang
ĠK now
Ġed ges
ĠBro ok
Ġfundament al
ix els
lo op
à ¦
Ġsp ons
Ġpl anned
cle an
Ġfor get
) ->
L en
Ġteach er
Ġwe alth
Ġext ent
bur gh
Ġlink ed
st e
Ġg reatest
Ġin vent
Ġdro pped
m ag
u ency
Ġcount y
t ri
Vis ible
Al so
Ġin frastructure
ist ence
Sh ort
W atch
cond ition
U ri
ĠD NA
Ġder iv
ĠF I
Ġan imation
Ġm ach
ra ine
van ia
âĢ ī
ch a
Ġaccur ate
ent h
t emp
on al
D em
p ull
Ġf at
ĠS D
ĠR en
ĠSpr ing
ĠB a
Ġeval uation
PO ST
ĠAn other
ĠP ack
Ġp roud
. <
ester day
Ġwor st
en able
our se
ĠJ ob
? >
S ervices
Ã ¢
Ġher o
Ġn arrow
Ġrespons ibility
Ġsh ares
Ġre nt
Ġask ing
Ġshoot ing
un ique
Ġcomp re
Ġsp an
ĠMed icine
Ġ[ ],
Ġpar allel
ric es
Ġteach ing
An other
ĠS C
Ġthought s
Ġintrodu ce
(' #
Be an
Ġsp atial
Ġassoci ation
ĠĠĠĠĠĠĠĠĠĠĠĠĠĠĠĠ Ċ
Ġ' '
TR UE
force ment
Ġch apter
Ġli qu
{ %
ra pped
Ġsc roll
ĠS ir
Ġspe aking
" ],
Ġaff ord
g roups
Ġappro ved
Ġf aster
ĠC ond
Ġfore ach
Ġc lock
Vert ex
, '
}^{ -
P od
Ġf ake
Ġad min
Ġstat istics
L I
Cl oud
mer ce
l ights
resent ation
as ync
LO CK
Ġestim ates
ĠLO G
yd ney
Ġben ch
un ting
Ġbring ing
fe ction
Ġh ole
Ġdis s
! [
M ost
ir al
ino is
ĠV ill
Ġassum ed
Ġac id
Ġen v
S ql
equ ality
Ġtrans lation
D uring
ass andra
aw ay
Ġpr ime
t ic
AN CE
ĠC at
On ce
H z
l an
bl ank
Ġconvers ation
Ġrequest ed
Ġb aby
Ġt ight
opl us
SE LECT
n amed
Ġfor g
Ġs ending
rou te
th row
ĠUn ivers
Ġw inter
ac le
c raft
ĠCor poration
ak s
Ġcol on
Are a
ff ff
F ragment
C am
Ġinter actions
ĠPh oto
ap ore
Ġcirc le
Ġeffic iency
æ ľ
ĠT urn
ĠT em
ĠMore over
ro vers
Ġ ^
Ġdec ide
ten ance
W est
au g
Ġpro port
7 00
te en
ĠJ am
Ġcontrol s
ren ce
ĉ ĠĠĠĠĠ
ĠInt eger
ĠWil son
CT YPE
Ġprodu cer
Ġinitial ly
ord an
ĠA z
ĠT ag
n ed
ĠAN Y
198 4
Ġtalk s
Ġint elligence
Ġoppos ite
libr ary
circ le
Ġdescri bes
ĠC apt
Ġsign s
text tt
Ø ±
Ġm m
com plete
Ġm o
load er
t c
n odes
Ġres olve
Ġf ly
em it
Ġtechn ologies
Ġdeliver ed
al g
r ations
Ġbehavi our
empl ates
Ġw elcome
Ġb ridge
ĠA ud
v c
Ġb uf
Ġsubstant ial
Ġconf idence
ps on
um a
ĠD ead
Ġnew ly
ĠMark et
ĠSh ort
CO MP
ĠC urrent
ĠB ell
h ard
RE E
ish op
ĠL ew
Ġtell ing
VAL UE
ĠH ttp
Ġ urban
ĠA D
St and
Ġparticip ants
Ġpart ition
be an
ĠN ick
a us
ĠPr ime
b ell
nap shot
Ġhe av
ĠB it
ĠKore a
EE EE
Im port
Ġdanger ous
index Of
Ġar ms
ĠO x
ĉ ĠĠĠĠ
ĠW ales
s ample
Ġex ecute
Con n
t or
ĠB ol
Ġe lections
EN SE
Mult i
Ġneg ot
iam i
s ome
Ġst orm
Ġqu iet
Ġins urance
p ag
Ġauthor ities
EL D
ĠRef er
Ġg auge
Ġsk y
Ġprogram me
Ġabsol utely
OR Y
Ġd ry
ĠL abor
ĠD ark
im p
ĠAd am
sp i
spring framework
PRO JECT
ĠM att
RE G
ĠAn th
sign ature
Ġg ene
ĠB oy
ĠOh io
Ġs now
um my
Ġrefer ences
Ġsing er
Ġmag ic
Â ®
Ġshe ll
Ġc ert
Ġh ook
ĠP A
ĠC ro
ut r
Ġs ad
foot note
Ġmod es
ir ms
pol icy
Ġpath s
Date Time
Ġcomm ittee
im ated
ĠMay be
ock ey
Ġg rew
_ +
M ask
Ġco ff
vol ume
N amed
Ġst ret
th rift
Ġwonder ful
Ġm atters
Ġreport ing
Ĥ ¬
198 5
ap ed
Ġp ed
eg o
en ess
Ġinst ances
Ġb in
Ġcorre lation
S che
Ġindust rial
lo p
Gener al
TR Y
^{ -\
agnost ics
Ġb an
Ġmeasure ment
lip se
Ġ' <
ĠCl in
ext ension
Ġad ult
Gener ated
Pro gram
Ġl ots
Ġindic ated
Ġk it
agnost ic
ic ial
subset eq
() ))
e a
ĠInst ead
F LA
Ġresearch ers
Ġst ick
En vironment
Ġprom ote
Ġas sembly
Ġsh op
Ð ²
h ref
U ES
Ù Ħ
ĠP en
Ġinstit utions
S ur
qu ir
py thon
Ġsub mit
ĠComm and
ĠCl oud
Ġlang uages
Ġc ab
op her
Ġlabel s
t ar
ry ption
Ġre pro
Ġc raft
ĠR h
st ood
Ã£ o
as sembly
ĠMan ager
i per
Ġr ig
ĠS on
us form
Ġra in
Ġfact s
P G
B L
numer usform
' ));
Ġjud ge
i y
Ġmov es
ĠF uture
Ġr ide
Ġal ter
Ġper man
Ġperform ing
Ġinteg ration
Con nect
E C
ĠM ajor
ĠExecut ive
umn i
Ġc as
ĠD eb
Cont act
Ġengine ering
Ġval ign
pl ot
P D
3 60
ro g
Text ure
Ġexplan ation
s uch
ĠSh ar
ĠK ent
p attern
Ġstand s
Ġt um
. ",
Ġd a
ĠArray List
Ġc ategories
ĠV ector
Ï Ħ
Ġdi am
Ġg ate
B egin
com pl
Ġenc ounter
Ġlarg ely
ĠW ars
Pr ivate
M icrosoft
p icture
Ġcor porate
ĠPro t
L iteral
Ġrecomm ended
ow nt
Ġrg ba
un a
Ġar my
ĠOb serv
19 50
ĠK enn
c ases
ĠEast ern
ĠG reek
ĠEngine ering
r uby
er g
O W
(' /
00 1
Ġassess ment
ĠPr ince
Ġsurround ing
check ed
ST ATE
Ġcomp ris
Ġexpand ed
ĠS ite
x html
B en
P layer
Ġ rows
I gn
op ed
' \
Ġs outhern
ĠB BC
Ġcorrespond s
Ġte en
Ġgalax ies
Ġwid ely
Ġopt imal
) |
amaz on
Ġlist ener
ĠSt ation
Ġchar set
app oint
Ġtarget s
U AL
~ $
it ivity
Ġtr uck
ane ous
Ġb odies
Ġprom pt
er ic
Ġend ing
E V
Ġm eta
ain e
% .
W ORD
Ġseek ing
Ġdes ired
Cl uster
ĠW is
mult icol
Ġtechn ique
Ġin struction
print ln
ĠR od
on ical
ĠSt atus
og ene
Return s
art ers
Ġcap able
test s
ĠH o
con sole
Ġc ro
Ġn ob
Ġtra ined
N R
AR D
( @
Ġdet ected
ĠB ra
Ġres c
Ġpol ynomial
w orth
ĠVal id
ĠB on
Ġpl enty
Ġse ed
ĠP ers
DE BUG
Ġnear by
ĠH ence
sy l
Ġtra ce
em an
D elegate
se x
face book
Ġscen ario
Ġinvol ving
display Name
ĠB ox
_{ {\
Ġest ate
sk y
Ġ( $\
comm od
Ġspec ify
Ġcont emporary
ĠH ong
Ġun able
Not ification
hens ive
Ġm outh
Ġtot ally
ĠSh ould
Ġprior ity
Ġim possible
Ġ$\ {
ĠRes p
og ram
Pre vious
Ġpl ugin
ail ability
Ġhous es
r ons
B B
App end
ĠPub lish
end a
Ġcre ates
Vol ume
ĠO S
... </
Ġdrug s
align ed
O ct
ind u
Inter val
Ġcont ribut
Ġ( +
check box
Ġm ail
' }
- $
Ġinteg ral
pe at
ĠD am
fl at
Ġp ray
ĠF ac
sy nc
bo ost
f c
Ġt sd
L in
Ġtime out
Ġhundred s
ath y
Ġdist ingu
az e
Ġ\ ;
if ndef
En umer
Ġbound ed
Ġhon or
multicol umn
ou red
su it
Ġweap ons
N ational
ain ts
y ers
ĠStep hen
DO CTYPE
ch anged
Ġc md
eng ers
Ġrel ax
ĠC ru
Re al
ĠP ut
å ®
D avid
C lear
Element s
Ġcopy right
w ill
ĠA k
ĠB Y
AN G
Ġen um
Ġas sets
Ġd ual
C ast
Ġcomp liance
ĠB at
St ats
Ġw ins
ĠI V
B ind
ç Ķ
ĠD rag
Ġclos ely
s es
Ġ$ |
ä »
Ġscen es
"" "
an th
Ġh ide
ĠSe lect
ĠRec ord
math scr
Ġm useum
h u
ĠS H
s ingle
Ġfeat uring
Ġb ands
Å ¡
ĠA SSERT
Ġcomput ed
semb le
trans ition
Ġhealth y
ar ity
Ġev il
Ġsp ending
Ch rist
S ort
L anguage
ĠAcc ount
Fl ag
Ġmin imal
Ġsim ulation
Ġn p
Ġd ust
st ers
includ ing
W allet
ĠL anguage
ur d
d iff
no on
uff ers
d agger
Q UE
Ġgener ic
ĠApp lication
g oto
ĠCh annel
time out
H ub
Id s
ĠT rack
Ġg od
ĠC lient
Ġl at
om ent
Ġs izes
Rev iew
Û Į
Ġe lev
Ġlist ening
b asic
ĠSup reme
Ġspect ral
ig ate
ĠC ou
S ave
Su per
Ġnor thern
D id
ar se
ask a
ĠRes ponse
ĠS QL
ffic ients
ĠS uch
Ġassum ption
on ce
min ent
R T
ĠC ulture
ĠTh rough
lo om
Ġnumer ical
con struct
u v
Ġhistor ic
e ff
i ary
An imation
ĠFinal ly
ure au
y r
a ired
Ġatt ended
z ip
Ġwalk ing
Ġp ictures
ĠN eed
ĠEd itor
Ġf lood
ĠL ow
Ġexper ts
n p
ag ent
ĠR a
Ġtem p
Ġag greg
pro xy
Ġd rawn
Ġsol ve
P res
Ġm and
Sequ ence
D iv
ĠC ore
Ġrecogn ized
r ink
ri eve
Ġco al
Ġeffect ively
ĠR yan
ĠEli zabeth
Ġu ps
ĠL atin
ĠCE LL
Ġk illing
Ġst ores
syl vania
Ġpro spect
re lease
Ġne ither
Ġinstit ution
St ar
Ġtest ed
DE FAULT
Ġrelig ion
Ad min
Ġlay ers
ĠHot el
ĠM ill
Ġdr ivers
or ient
INT ER
ĠCount ry
it led
do or
Ã ±
Ġcop ies
e en
ri ble
i ph
M ath
at omic
und efined
ĠS em
Ġvert ices
ann y
Ġcol our
Ġc overs
ĠF A
ĠSystem s
Ġlett ers
anc ell
Ġt ags
Ġfind ings
ĠPro te
down load
Ġsus pect
Ġdim ensions
Ġh ate
ir k
G C
Ġl osing
al ty
ym pt
Ġb inding
Ġattempt s
b g
Ġf ragment
Ġprim arily
Ġt ough
at rix
Ġs ynchron
ĠE ric
Ġsomew hat
j d
ĠN iger
Ġv o
Ġvisit ors
Ġmiss ed
ire ment
k top
ib ilities
ĠF all
int eg
ĠCon nect
Ġcounc il
ĠDav is
act ic
y cle
ĠDo es
ME TH
EEEE FF
ab ric
Ġstrateg ies
ov al
MOD ULE
Ġnecess arily
ON G
el lect
Ġrestaur ant
F ocus
Ġther apy
ph ia
ag a
ar ry
u able
A ust
lic ate
Ġdo ctor
iv ated
198 3
Ġread only
rit ical
Ġa st
m ouse
P UT
ĠB and
W ait
ĠEd ward
Ġopt ical
ĠSk y
or i
Comp at
ar ia
ĠÐ ¿
Ġassert That
Ġres et
Ġt ack
ate st
Ġv eg
Ġadd s
C oll
b as
Ġpublic ation
Ġbig ger
ĠMag azine
\ }
ĠCont ent
Ġ ];
Form s
; ">
End point
Ġexerc ise
on om
ĠR ose
f x
Ġb ought
ell s
Ġb ind
æ ĸ
k et
Ġenh ance
Ġbo ys
Requ ired
Ġf asc
Ġsurpr ise
Ġatt ached
Ġsche ma
var iant
Ġsp oke
Sh ape
hel per
Ġexc iting
ĠC hem
Ġlog ic
Ġb oot
Pro v
Ġdep loy
S erv
vis ible
ik ip
ĠEN D
/ "
Ġcon j
ĠF ish
ĠN C
ï¼ Į
L ike
Ġpro ps
Ġadopt ed
Ġv ast
qu ote
St op
ic ide
ĠJes us
ĠH ou
ĠIs lands
Ġsu itable
R AN
Ġwrit es
Bl ack
Ġsu it
AT ED
Ġpresent ation
adel phia
F P
RE D
" ].
option al
ad ed
Ġreason able
ang ers
******************************** ********************************
Ġw ond
Ġpract ical
Ġenjoy ed
Ġa id
Ġcriter ia
Ġsim ulations
ĠB all
Ġw aste
spec ific
pre ne
il k
test ing
Ġapprox imation
Ġun iverse
side bar
Ġc ards
Ġbound s
Ġcho ices
um ps
B Y
ID TH
ĠIn put
Ġf aces
Ġtra il
osp it
Sk ip
Ġ ig
D ictionary
ĠS ab
m c
ĠE ll
Ġapparent ly
cl one
raz y
ivers ary
edu ce
M ouse
support ed
Ġv eter
ĠB efore
ym ph
and o
rypt o
Ġqu ad
ys ical
Ġa wards
ĠIll inois
ĠPr int
co hol
Ġsubsequ ent
ryst al
Ġsatisf ies
P at
Ġtour nament
li x
c atch
ĠL oad
av ailable
Ġinteg rated
Ġgrant ed
VAL ID
Ġsymmet ry
ĠHar ry
Ġfor th
in ator
F ramework
Ġprinc ipal
ĠJ enn
Ġt mp
Ġemer gency
197 9
Ġrecogn ition
Ġint ent
Ġcollabor ation
Î ¹
av el
us al
Oper ator
Ġd ire
198 2
S ep
oc cer
w arning
) [
U C
Ġcr ash
Ġtrans actions
Ġre ar
I AL
fe ed
}} _{
ct ic
Ġserv es
Ġdisplay ed
Ġvalid ate
ik a
Ġdom estic
an imation
ile y
res olve
ak i
Ġreturn ing
w edge
ĠJac ob
Ġ( [
Ġk ernel
ow ed
P air
anche ster
clus ions
Ðµ Ð½
ĠStand ard
Ġl ists
S ample
bul let
å Ĳ
lyph icon
ĠL A
Method s
Ġeval uate
Ġm d
ck er
k t
Ġdis appe
Ġturn ing
Al though
re prene
Ġimmedi ate
Com plet
Ġexpos ure
u pp
Ġb asketball
if i
Ġappe al
Ġcompos ition
Ġhand ling
ĠSt aff
act ivity
ĠC G
app y
ĠH ay
et ary
aps ed
gener ate
St ud
ĠA venue
Ġl y
F ore
M s
Ġdec ay
The me
Ġwhere as
G ood
Ġobject ive
Ġmount ain
Ġch unk
# {
Ġon going
z o
Ġimag ine
Ġ' \
ĠL ie
ĠC as
a is
ĠN avy
En v
Ġg ift
12 7
S cal
enn es
p air
ĠV iet
pl an
ĠM iller
own er
ĠS che
M ill
ĠEmp ire
ast s
Ġcheck ed
Ġleg end
ul se
Ġvict ims
Ġcharacter istics
ph ere
=\ "
ĠF ord
ĠC red
Ġalong side
ĠDe ath
Style ID
ateg or
cl uster
i at
ow a
olog ist
on ia
Ġscal ar
,\ ,
NavBar Font
is lation
ĠN AV
ĠG reg
ĠVictor ia
Ġwe ar
t ies
Ġbre aking
SC R
Ġs elling
W ho
Sh ould
LE D
riev ed
Ġpercent age
A udio
ikip edia
tain ment
Ġtrans mission
hav ior
not es
ĠCl inton
Ġh all
ĠYou Tube
Ġse asons
comp ile
Ġl es
ns el
S ch
Ġep isodes
Un iversity
ĠTr ansport
ĠRes ources
ĠR on
S V
re le
Ġin equality
ap is
anch ise
Ġs ight
A li
Ġpotential ly
ĠR eb
Ġdecl ared
run time
ĠR aj
Ġteach ers
w t
Ġs yn
l at
ov iet
Ġtit les
F urther
Ġcon version
Ġb es
ĠB ru
ver ter
Ġf estival
Ġclass ification
ug gle
Ġt rac
ĠD u
F UN
ĠB attle
^ ^
Ġc ursor
se m
Ġad ults
il ib
put ation
Ġwest ern
iffer ent
Ġrespons es
Ġl augh
ĠBo olean
Ġr ational
Ġr u
ub ble
Ġman ifest
Ġout er
Ġ" $
Ġsign als
Ġext ensive
Ġult imately
ĠTra vel
ct ors
ĠT ool
ĠR os
Ġhab it
/ .
Ġpers ons
Ġsit ting
Ġcoordin ates
M ich
ĠPl ace
Ġschedul ed
kw args
i ac
Ġmor ph
M IN
Set ting
' ];
Ġm ine
ĠB rian
idel ines
Ġintrodu ction
ĠK at
METH OD
mult i
Ġall Classes
D ATA
Ġm ob
ement ia
Ġw er
L eg
N ET
ĠD id
Ġexpl ains
Ġarrest ed
Ġcol ors
load ing
ĠallClasses Link
Ġres istance
Ġact ors
Ġscient ists
Ġh its
it ative
set minus
Ġrot ation
Ġapp s
Ġsym pt
ĠCont in
Ġvul ner
ers hip
Ġcom edy
Ġm ouse
ew idth
ĠC ancer
Ġworld wide
Ù Ĩ
Ġopt s
ac ent
Ġinvestig ate
b et
Ġd ress
sim ple
Ġs in
ĠDes cription
Ġar ts
OR TED
" },
r ating
form ed
âĢ ĭ
B al
ĠUn it
ĠP ot
Ġv acc
er on
nes ota
Ġb are
D b
Ġre new
W arning
Ġst one
Ġcont rovers
iz on
Ġout come
ĠDE FAULT
Ġexp ensive
ĠPub lished
Ġac compl
Ġil legal
Ġcoupl ing
Ġd iverse
A ug
Ġprogram ming
select or
load ed
f actory
Ġbeaut y
ol is
h ave
Ġbg color
Ġv irt
ĠL ev
'] ['
au x
Ġsc r
Ġsub set
ĠE V
se par
aly tics
cre ated
Ġstri ke
Ġfrequ ently
Ġvis ited
Ġgu est
å ħ
ri um
Î µ
dest roy
UN D
ĠT ax
N ative
C ard
ĠW rite
Ġfil ed
Ġ} \
ĠSing apore
E q
pol y
y y
Ġres on
Input Stream
C B
ĠM D
f g
Ġcont ribute
Ġb atch
w ing
es is
Ġcamp us
Enc oded
Ġthrow n
B u
Ġf ails
- (
Ġpl ate
Ġcon n
in ch
(" /
out ube
cuss ion
Ġag ric
Ġobserv ation
Ġp ra
In formation
op ic
ĠTh ank
ur able
Ġre venue
Ġg iant
Ġv it
Ġhe ll
Ġag encies
Ġgood s
g ood
Ġh a
ĠT ake
Ġbre ath
Ġprep are
Ġprinc iple
M ove
Event Listener
b d
Ġstre ets
re v
do i
b c
ĠSer ver
ĠN FL
ag ues
r ator
ĠSt ore
get Value
clud es
Ġsn ap
Ġs weet
ĠA G
Ġdestroy ed
al ink
se q
ul ous
Ġsc ores
n n
ul atory
us et
edd ed
Ġyoung er
Fl ow
un ct
bour ne
ãĢ Ĥ
ell ite
ĠHol lywood
up id
A nt
Ġdiv ided
' _
ĠO s
Ġsubject s
U K
Ġm unicip
th ur
ach er
ch ant
Ġsing ular
Ġnuc le
ĠS IZE
Ġcalcul ate
Ġvers us
t an
ĠS anta
Ġpropos al
ex ec
Ġhor se
g over
G ER
re act
F older
S creen
Ġb anks
Ġorgan ized
R elease
ĠTh ose
Ġign ored
Ġb ass
plement ation
Ġsever e
C ity
Ġal gorithms
is set
F N
c li
Object s
ĠC OM
ĠS ound
un ter
Cond ition
198 1
cont rib
ĠPenn sylvania
Ġde bt
Ġvalid ation
MO DE
e lect
az a
en ant
Ġpoint ed
Ġrecover y
ĠSt ream
Ġwhe el
13 0
> \
Ġth in
Ġs pl
J P
Ġex cess
p aper
he im
B asic
Ġe ase
Ġa thlet
ĠS i
Ġang ular
Ġch ampionship
t race
Ġcan cel
, $
Ġearn ed
d on
Ġw alls
ĠPro position
Ġst ats
ĠD ream
ific ial
ĠOption al
ĠM arg
Ġt aught
Ġst im
m ad
Cons umer
Ġobvious ly
or igin
ĠM and
exp and
Ġunder stood
_{ -
Ġcomplet ion
F act
ul pt
riz ona
y cl
omorph ism
Ġemotion al
Ġext reme
L imit
ra ined
ĠAL IGN
rupt ed
Ġm it
N ormal
oll ary
ĠS ydney
ĠK evin
Ġrep ly
er as
Ġcon clusion
Ġfac ilit
Ġs av
B inding
big g
ĠC a
evel oper
Ġcirc uit
N V
Ġal ive
l ot
ĠC ook
ĠM ock
Ġhapp ening
Ġpil ot
Ġl ift
Ġtrou ble
ĠX ML
_ *
ĠT ony
Ġterm inal
US ER
AR N
b us
ort ion
Ġland scape
ul i
Ġ\ "
Ġdr iven
d ig
: `
h us
Pl atform
ĠAp ache
ĠHe art
ĠBuild ing
Ġmill ions
v als
al ert
ep ing
Ġs ys
ĠL ay
im m
inher it
Ġso le
ĠMin istry
Ġ$ [
S outh
A bs
ĠDis ney
P ress
Ġgu id
E ffect
Ġwork er
log o
Ġconsum ers
r g
Ġlist ing
Argument Exception
Ġcapt ured
ĠJe an
ul p
Ġprof essor
Ġincreasing ly
per p
Ġ| \
ĠCom ments
p res
set up
Ġatmosph ere
ĠColumb ia
R ob
valid ate
ĉ ĠĠĠĠĠĠĠ
ph ant
Ġafter noon
pe ople
Ġpres ents
Ġacqu ired
ĠT ok
S N
197 5
Tr ansport
ĠA C
Valid ation
Ġse es
Ġy ards
ty pename
Ġ$ $
Ġcircum stances
Ġr ural
s lice
Ġperform ances
Ġsch olar
Ġm g
Ġc atalog
Ġpull ed
ĠGr ant
Ġst ood
Ġacc ord
ĠH ave
h ook
Ġac commod
Final ly
STR ING
ĠS ets
Ġimpro vement
S W
ri ends
ĠN ever
pre p
ĠStr uct
ation Token
Ġex posed
Y Y
Ġtem por
Ġ@ "
var i
Ġte ch
r in
ibr aries
Ġsett lement
* {
Ġsurpr ising
Ð° Ð½
r ig
r ank
h ot
66 66
: [
IO Exception
ĠG ro
ĠE s
i ot
os ity
Ġs ync
ierarch y
Ġinvest ors
: #
H is
Ġcommon ly
à¤ °
() ),
sh al
OR K
Ġrad iation
Ġcoe fficients
Ġcont est
Ġv ess
j u
P ers
Ġab andon
ess ed
ag en
Ġb att
Ġst ability
iv als
Ġgrow n
ĠTor onto
Ġy esterday
ry ing
197 6
Ġfac ing
Ġhas n
Ġfif th
ĠV en
h ire
Ġadvert ising
du cer
ĠAb stract
ĠOffic ial
Ġin ject
Ù ħ
Ġanal og
Ġcomp atible
ĠColor ado
d uration
Ġman ip
Ġany way
ĠDemocr ats
con structor
197 8
ĠĠĠĠĠĠĠĠĠĠĠĠĠĠĠĠ ĠĠĠĠĠĠĠĠĠĠĠĠĠĠ
Ġsc hem
UT H
Ġinv ariant
Us age
Ġw ine
is ely
Ġeduc ational
is ition
ĠN a
Ġ" %
Ġmin ister
Ġfun ny
Ġ} }
Ġloc ally
R C
Ġentertain ment
ĠT ree
b atch
el le
Ġdepend encies
ĠA I
ĠSim ple
A SE
mer ge
Ġair port
Ġcur ves
ol ute
w d
Ġexplicit ly
Ġge ometry
Ġtw enty
Ġre verse
R aw
ĠNAV BAR
H C
f all
un es
part y
C ur
comp are
Ġm ile
Ġst yles
Ġb ag
Ġcommit ment
L ower
ĠC art
ĠL ic
ĠG allery
A x
Ġinput s
ĠAn alysis
is Empty
c us
Ġt ables
Ġsent ence
ĠIN TO
ĠFore st
Ġan ce
Ġexecut ed
ĠRem ove
Ġour selves
Ġmass es
Ġopp on
Ñģ ÑĤ
tr l
Ġs b
Ġob serve
Un known
Ġe le
Ġhead s
atur ally
Ġplatform s
Ġaccess ible
Add r
ĠL iter
Ġb old
ĠFurther more
ic ator
p ages
Ġdoll ars
Ġf ib
hold ers
Ġpick ed
apt ure
Ġsold iers
epend encies
t f
cons in
Ġoper ate
Ġed it
b led
Ġhyp othes
ph an
O k
Ġass istance
Ġent r
Ġdiscover y
read er
Sy ntax
Ġfl u
O C
Ġb omb
Ġcoff ee
O wn
SS L
197 7
) }(
Î ½
p resent
Ġmod ify
th rough
ĠE ffect
Ġtop ics
ĠAdminist ration
ent ed
ĠO cean
ach uset
Ġse ats
Ġl attice
Ġdes ire
ĠN AS
ĠT al
II I
getElement ById
Ġrev olution
ĠS A
cover y
Ġdis appoint
D rag
10 5
achuset ts
ĠW ord
mem ory
Ġp ri
E ven
ic ode
ĠP os
re ll
Ġlimit ations
Con structor
Ġmod er
Det ail
Th row
Ġanaly z
Ġb undle
ĠSm all
> "
Ġ" ";
Ġinter act
Ġ" ",
Ġcover ing
ĠP ract
Ġvari ation
IN ST
over view
ession al
ener gy
T F
ĠM rs
Ġab und
ur ations
t i
Ġf mt
Dr iver
ĠTur key
ĠLim ited
ver b
Ġdisc rim
T HE
Ġessential ly
th ere
1 12
NS String
ord on
Ġsk ip
Ġtrad ition
Ġrepresent ative
Ġany where
An notation
ri ers
con vert
10 2
Ġincor por
ĠFin ancial
Ġpolit icians
ĠIl legal
i est
Ġn a
ĠD B
ĠSar ah
L ight
Ñ ĩ
ĠM E
Ġshe l
Pl an
ĠC ub
Ġvot es
ing ham
Ġf ault
Ġpre gn
Ġsatisf y
rad io
Const ant
Ġacc used
ĠScott ish
FI ELD
Ġload ing
Ass oci
Ġsh ips
_ );
ĠH u
P Y
ĠM oh
Ġvict im
Ġin hib
cept or
Ġup coming
gg reg
Ġp ipeline
se ason
Ġsur ve
ĠT am
c u
Ġf old
Ġ_ .
Ġmonitor ing
c ers
Ġcorrect ly
Ġvot ers
Ex ample
m essages
Ġdifferent ial
ĠJew s
ĠPro p
dr iver
), \
Ġreal ize
ĠB ush
anc hes
br and
pro gram
AV E
ĠIm m
Ġoppos ition
vert ical
Ġcomplex ity
ex it
Ġg ro
ob by
ious ly
> )
ort s
ĠL ady
ĠAg ency
on na
sc ss
Ġex clusive
const ant
un ning
p ot
ĠWhe ther
Ġdist ributions
ĠTe ch
ĠG arden
w hat
ĠJ ordan
Ġphys ics
Ġp apers
Ġ( @
Ġinnov ation
× ķ
ĠL E
Down load
Ġcomb at
ĠLab our
ĠV eg
eder ation
ser ies
we ek
Ex ecution
Ġdec or
z h
Ġsol o
Ġsim ult
ĠAut o
ĠAlex ander
He alth
iz z
Ġ' ';
lic ense
ĠCap ital
high light
gh an
Pro to
197 4
Comp iler
Ġwat ched
t ok
F i
aud i
ĠStud y
y ard
m ay
Ġwindow s
Ġd ates
Ġ_ ,
Ġ\ (
ĠLew is
comm ons
Serial izer
opt s
Ġel if
Ġke eps
Ġbeliev es
A pr
ast y
S ite
are st
Ġc rack
ORD ER
Ġbo at
Ġdepend ence
Ġb on
ou ri
ĠR oom
ĠEd ition
Ġfl uid
}} (\
Ġholid ay
Pl ace
w iki
Ġcomp osed
Ġro of
ĠA h
Ġsurg ery
ens ation
ĠReg ion
Ġint ention
pl ays
I mp
INS ERT
ĠSing h
method s
inem a
ĠC hen
ĠL es
ĠR ow
CH AR
sub mit
ĠGold en
ill iant
ĠGover nor
Ġstr ange
Ġir on
ack s
ĠOffic er
ĠT en
Ġident ifier
L ibrary
ĠBer lin
ĠA mb
Ġinter ior
wh o
rypt ed
N orth
viron ments
Ġslow ly
ĠM iami
Ġbi as
Ġe gg
LO C
ĠAr m
lin ewidth
ĠPort ug
agon al
W H
Ġre form
197 2
Ġyield s
ĠSim on
Ġnav bar
g if
Nav igation
Ġdemonstr ated
Ġy ellow
Ġass ault
et ies
Ġmod ules
S em
Ġbe ar
197 3
il st
% "
sc ore
ĠOx ford
ĠS ant
Ġansw ers
Ġabs ence
D rop
ĠEx ample
Com plete
ĠL ind
ĠL ib
M ag
Eng lish
ĠPal est
ä ½
dis able
Ġin structions
Ġact ress
nav igation
Th us
am ely
R ate
ĠC lear
Ġexp los
om atic
Ġst ellar
Ġin duced
19 68
object s
m obile
W IN
the w
an while
RA Y
ĠS P
Test Case
Ġserious ly
ĠD or
ether lands
14 0
ĠP DF
ĠFore ign
( .
Ġpert urb
ĠR ome
Ġdevelop ers
Ġreg istration
Ġimp ressive
con v
Ġst ages
ĠB ridge
Ġsil ver
Ġcru cial
Ġp it
Ġput s
Not Found
Ġcompre hensive
Ġdis miss
Ġsens itive
sh are
Ġpe er
F ollow
er os
Ġselect or
/ {
F amily
ĠSh er
Ġpre ced
Ġbus y
ear ing
W ord
ĠSto ck
C ent
Ġgr ade
Ġroom s
se a
stit uency
omet imes
Un ited
reg on
Ġs ql
int elli
s ig
Ġkn ock
Ġspect ra
ĠEnter tainment
Ġtemper atures
Ġca using
Ġper missions
M AP
Ġb ott
Ġprovid ers
C ONT
ĠW as
s un
Ġto m
Ġg lob
ext end
ownt own
'] );
o en
ä º
ang el
n ie
B IT
ĠM oon
Ġapp lying
Str ategy
B i
ĠP rom
Ġst ead
ol ly
Ġen emy
Ġhard ware
ĠPr inc
B inary
ĠDes pite
Ġliqu id
Ġleg islation
ĠCamb ridge
Ġexhib ition
intelli j
ĠHou ston
St atic
ĠSt ill
Ġreal ized
Ġmy th
Ġh at
ĠMount ain
ail ing
B ased
." ""
Ġleg isl
A K
d atabase
pon ential
ane ously
or ne
ĠY O
bs ites
Ġproced ures
it ter
ag an
R ows
Ġp seud
bu ilt
ĠJ ane
res ize
H L
l ower
a udio
a ire
lic ity
) _
B atch
.~ (\
place ment
m n
Ġsepar ated
ĠSim ilar
ĠPhil adelphia
â Ĩ
lik ely
Ġrob ust
Ġcommun ications
="../../../../../../ ../
T ile
ĠI L
H er
Ġd iversity
ĠT reat
Intern ational
t p
em ony
n ative
count ry
i ations
tr im
Ġemploy ed
Ġnewsp aper
gener al
function s
ĠD utch
ĠTh er
Ġ' ',
ĠD er
E st
ĠS a
Ġs quad
as hes
Ġbl ow
DE F
Ġop acity
Ġpay load
un n
b lob
g ression
Ġconcent ration
j et
Ġf uck
Ġf ired
P ower
ĠC ab
Ġpl astic
Ġpass es
A I
st age
ĠCh all
var iable
Ġdemonstr ate
Ġpay ing
ĠB udd
E val
eli hood
j ack
cer ning
Ġs oci
ĠMin nesota
Ġlog ging
ĠY et
ĠG iven
Ġgu ests
UM M
Ġbe am
B M
G P
Ġbro ke
ĠO nt
al so
Ġknow ing
A ST
H ave
Ġsub mitted
Ġmer ge
Ġn ic
Ġnarr ative
}$ -
_{ (
ĠCont act
Ġaff ili
ellect ual
Ġpredict ed
Ġmagn itude
= [
Valid ator
/ _
ĠPr ivate
Ġcomm ands
Ġfair ly
Ġm arg
an z
ĠEv ents
Ġcoordin ate
ĠH D
out heast
ĠW inter
i Ã³n
Ġh ist
Pre v
s r
Ġconvert ed
Ġaut hent
O ld
ak h
Ġa ver
Ġtheore tical
m aking
Ġs ick
ĠP ur
PH P
pp ers
ĠAff airs
Ġpack et
ĠĠĠĠĠĠĠĠĠĠĠĠĠĠĠĠĠĠĠĠĠĠĠĠĠĠĠĠĠĠĠĠ ĠĠĠĠĠĠĠĠĠĠĠĠĠĠĠ
d ays
ĠAdd ress
Null able
19 69
igr ants
ĠOlymp ics
ĠMod ern
Ġprefer red
s heet
Ġemploy ment
Ġlow est
ĠS av
M apper
11 1
p ur
em ic
l ab
C ALL
il ty
Th anks
Ġprodu cing
st rip
t ouch
ra it
ĠB ab
Ġc lip
ĠD est
am ps
C LASS
Ġparticip ate
ĠR oll
× Ļ
erv es
Ġin fer
des ign
for Each
Rem ote
ĠR oss
T ex
col on
AT CH
ĠJ ason
ĠS M
ĠC reek
Ġinterpret ation
Ġb ug
Ġreg ulations
Ġco inc
to Be
Ġ+ \
E p
[] {
Log in
ĠB C
ffic ial
Ġinform ed
Ġre ward
ud a
ĠL oc
Ġg rab
D ER
ĠM aterial
Ġsurpr ised
\ _
10 4
l u
Ġfl ash
ĠM anchester
w arn
ĠM ust
not ations
nt il
I LL
Ġig et
f mt
ĠS ix
Ġc odes
Ġsub scri
Ġg arden
m ass
Ġlik ed
g on
trans action
Ġdepend ent
Res olver
ĠE ver
Ġconsum ption
B ad
sub ject
Ġf lying
ĠMov ie
Am ount
Ġrisk s
Ġchalleng ing
Ġindic ating
Seg ment
ong o
Ġdraw ing
C ursor
link ed
r ont
ĠUk raine
ĠH al
Ġste el
k h
r as
u ction
ut ter
Over view
Ġtra v
Ġcol le
m ac
ĠD ouble
Stand ard
ĠHel p
it is
ĠMem bers
Ġun us
: @"
ĠIn it
ou st
sp acing
Ġi Phone
ĠSc ient
Ġresult ed
ĠIslam ic
c ity
el astic
hemat ics
n ob
rt l
ĠT alk
Ġreplace ment
riter ia
b ow
Id entity
Ġstrong er
at ivity
ĠR elease
direct ory
Ġimpro v
ilib rium
ĠH E
w as
ĠSt adium
ĠF arm
po inter
s at
Ġprinc iples
ĠEconom ic
Ġ' %
ĠL ang
Ġuncertain ty
Ġbe ach
/ ">
)\ ,
197 1
ĠN ative
ĠS oviet
pro fit
ĠS quare
ĠL at
Ġgalax y
Ġop ens
ĠInst agram
Ġthink s
v y
ĠPat rick
Ġprom otion
re ement
Ġle ct
Ġover l
Ġim pl
Ġvot ing
Ġr ating
leg es
ĠMass achusetts
Ġhost ed
ĠO K
Ġb le
Ġ' .
Ġoper ated
ĠCom ment
ĠPl us
Ġar c
ĠN ations
w ick
Ġsw im
Ä į
Ġcontinu ing
Ġconsequ ences
Ġp ref
Ġso cket
ĠB urn
Ġreve al
T oday
ĉ čĊ
ce iver
f etch
Ġb id
Ed ge
or er
Ġfall s
Ġin fl
sub figure
Ġbul k
Ġs le
Ġsit uations
d am
M c
ĠF O
Ġfound er
I ES
ib li
Ġtro ops
in ction
Ġwe aring
Ġfra ud
ug by
ĠTra ining
ĠG il
Ġinfin ite
ur ers
over ty
p kg
Ġv ectors
ĠO C
m ont
arg o
Con sole
ĠTr ade
ĠTh read
Ġ= \
b x
ĠL ag
ĠV irtual
ist a
ar on
Ġch ose
è ¯
Ġamount s
Ġc ov
Ġv ice
sc ill
Ġ å
ol t
ĠD ave
ĠRep resent
hedul er
b an
d ark
Ġacc um
Ġbas ically
resp ons
Ġtr ick
Ġw ing
Process or
Ġstr uggle
Ġend point
stand ard
x it
ĠAnt on
ĠA rizona
ĠG ree
ot ions
Ġtri es
Ġapp lies
Ġp atch
%%%% %%%%
ĠS N
D OM
Ġint ensity
Ġind ices
Ġmain tenance
H tml
b inding
) ",
ĠSen ior
requ ency
rel ative
M aster
) ^{-
ĠT ai
List en
Ġinvol ves
Ex port
Ġb ath
r int
Ä ĩ
M ac
Ġkind s
Ġcalc ulation
Ġex ports
[ (
Ġd uty
h d
Ġacknow led
ĠDi ego
Ġe c
hes is
Ġsatisf ied
F uture
Ġperfect ly
con nected
M essages
ĠMem orial
ru ction
ass ign
ust ed
Ġb attery
Ġdel ight
Ð¾Ð ²
) ^{\
Ï ĥ
D IS
i ors
ĠRes ults
j Query
Ġshould n
Ġtherm al
Ġpar agraph
Ġrepe at
Ġinnov ative
Ġtyp edef
Ġfant asy
c assandra
Ġperson nel
C are
Ġthe ories
Ġrun time
Ġas set
pt ic
Ġmed ian
od ge
col lect
UN T
ĠH art
g p
s ime
Ġout comes
ĠFr ont
ĠM obile
$ ).
G roups
Ġs ed
B rit
Ġappro val
Err ors
u ating
Ġh ack
Ġb at
sh ips
Ġprofession als
ĠPart ners
Ġh urt
ĠJ osh
Ġt iny
ĉĉĉĉ ĉĉĉĉĉĉ
æ ķ
Ġofficial ly
Ġfall ing
o a
Ġro y
Ġr ub
d rag
Ġw el
Ù Ī
ĠD ementia
t re
Ġopp osed
assert True
Render er
ir ty
ĠDo ctor
arg uments
new command
Ġaware ness
sime q
Ġpred iction
}^ *
rel ations
ĠRev olution
enn a
) {\
D en
HE AD
k ernel
FF ER
ĠĠĠĠĠĠĠĠĠĠĠĠĠĠĠĠĠĠĠĠĠĠĠĠĠĠĠĠĠĠĠĠ Ġ
ennes see
Ġrespect ive
Ġde com
exp ression
ĠC orn
Ġtem porary
Ġmet rics
Ġanal ys
grad le
Ġstat istical
igh th
Ġa apt
19 30
is ations
Ġlik es
........ ........
ĠEx pl
Ġ' ./
Ġm es
C enter
ĠO ak
Ġident ical
Ġ ion
for all
she ll
comm it
Con vert
all as
Ġcon clude
ĠR oy
Ġcompet itive
cont ents
Ġsupp lied
h our
ĠV ice
R ich
ĠArch itect
Ġmat rices
Ġencou rage
SCR IPT
o or
à¥ į
V ICE
dep recated
Ġconserv ation
Ġmanufact uring
Ġmod al
Ġsurv ival
ĠB ry
Ġsuff ered
Mon th
Ġinv ited
Ġread s
c ross
on omy
9 00
Ġvot ed
ĠBel g
Ġâ Ĩ
Ġmed icine
BU IL
ĠOut put
EN TRY
Ġrece iver
ele m
sub subsection
r uct
Ġnot iced
P red
re lation
ĠCon stitution
Or iginal
enc ode
link s
ar ance
ĠN orm
Ġpop ulations
Ġeng aged
spe ed
ĠP S
Ġt icket
ĠTh anks
ĠLe on
iv a
g re
Ġhor ror
ĠAnth ony
Ġfriend ly
ĠL java
ĠAtl antic
Ġgen etic
f b
Ġ âĢĻ
Ġf i
Ġre in
H ar
Ġt ickets
Ġj et
Ġinj uries
ĠC SS
end ers
19 40
ĠS n
Ġcon scious
Ġcarry ing
Ġf ruit
? )
f ake
ĠVAL UES
ĠG rad
Ġclub s
u um
cf g
Ġde leted
Enc oding
ĠJ ay
Ġf older
ĠMethod s
Z one
AT TR
Ġpro minent
B el
ĠReview s
ĠMot or
ĠN ature
ĠAnd erson
P al
Ġne uro
Ġrequire ment
ĠO pt
ic ular
ĠAd vent
w ant
Ġgener ator
Ġbeh alf
Tim er
V AR
off s
ĠIn f
Ġprov ision
Ġval uable
Us ers
Ġbre ast
Ġemploy ee
ĠWis consin
n of
Ġden otes
F n
Ġsympt oms
ĠP romise
az i
Ch ain
Ġ&= &
Ġgr ass
ĠC OL
Ġpro jection
u uid
19 67
atas ets
grad ient
Ġref ers
Ġad mit
Ġcheck s
ĠR at
Ġshe et
ĠE P
Decl aration
Ġro ots
Ġcalcul ations
t ail
Ġrac es
m ma
ĠR ound
p in
per ial
( --
ile vel
ĠArt icle
Ġo cean
ch art
Ġinj ured
in cess
c ounter
ab c
Ġdef ines
Ġregard less
Ġ$ _
ĠTh ings
ĠS W
ri k
\! \!
Ġsomew here
Ġcomput ing
Ġc ertificate
text sc
D ependency
ĠSt one
ig e
ĠZ im
F eb
f lix
Ġpurch ased
int eger
ant e
And roid
Ġcap abilities
Ġcoll apse
) _{
ext ra
ĠCh apter
ĠSaf ety
ĠK ansas
nov ation
19 20
ĠN etherlands
A E
Ġsk ill
iment al
Ġsequ ences
work s
alt Color
Ġsudden ly
; |
l ive
Ġpl ain
Ġrapid ly
âĢ¦ âĢ¦
Ġsc ales
Ġfe es
ĠMo ore
$ ^{-
w ich
Ġl ux
ol o
Ġlo an
Ġprov en
Ġpark ing
Ġal umni
pl ane
ph rase
Ġmeet ings
ĠCont ext
Ġcharacter istic
Ġt ou
In sert
P ut
Ġpost er
ari os
scal a
ĠS ex
cri bed
Ġg ay
Ġassert True
Ġperman ent
com pute
Ġclos ing
Ġme ets
ĠSy ria
out ing
B ottom
Ġeval uated
Ġlaw yer
Ġdocument ary
st an
Ġnorm ally
S pecial
ĠD elete
Ġfac ulty
Ġso il
m k
Ġtrack ing
Ġpresident ial
s quare
i ology
S pr
l ah
g ies
Ġter ritory
Ġdeal ing
Ġto ler
, ...
Ġveg et
L oop
ĠTra il
Ġheav ily
iz ers
Ġant icip
ick en
Ġde pos
ĠTur k
Ġw ound
end ment
Sh ared
Ġfound ation
Ġwalk ed
Ġgrad ient
Ġfac ed
lo be
Ġs ought
aw are
Ï ģ
as ma
ĠP od
Ġst upid
à¥ ĩ
Ġvis iting
IC ATION
Ġcon crete
Ġor th
rem ark
H A
roll ing
1 18
re tt
ĠExp ress
Ġemb od
Ġag es
ĠL evel
ĠPhilipp ines
st ory
Ġd up
Ġadv is
me an
ĠP rize
ĠInd eed
M AN
ĠDef ense
ĠN ob
Ġ{ },
Ġregular ly
M usic
Fail ure
ordin ate
Ġcut s
lic enses
ĠĠĠĠĠĠĠĠ ĠĠĊ
Ġal cohol
ather ine
ĠYou th
ge o
Ġconsider ation
ĠE mer
Ġr ising
Mich ael
Ġincred ible
Ear ly
in x
ex per
Th ank
or ous
C md
C HECK
IN K
Ġexpress ions
valid ation
ĠAuthor ity
et al
ick ing
Ġadvent ure
ĠD og
tes y
head ing
ĠSil ver
v endor
Ġconst ants
s b
Cont ains
rem arks
Ġcomp licated
vis or
Ġcomp lement
Dep th
ĠPy thon
ĠDr ive
ĠRefer ence
Ġleg acy
om as
Ġreve als
Ġf urn
Ġfol ks
ĠM atch
ink ing
w alk
Ġsymmet ric
ĠOper ation
Ġatt orney
ox y
AS K
ĠF ix
LA Y
str iction
Ġjo ining
Ġto x
ĠCl ark
ff f
Ġthous and
Av ailable
pm atrix
t ures
Ġun expected
d ers
writ ten
st ates
ĠLear ning
Ġequ ality
ams ung
ĠK E
Ġemph as
Ġsub scription
ĠMar ia
Ġprec ision
ĠC ell
Ġm i
Cont in
P aul
Ġfl uct
Ġcontr ad
Ġj s
Ġbl ank
!! !
ĠG ard
Ð ¿
ro it
Ġst rip
ĠS port
ind ed
d n
Po jo
S plit
U G
Ġto k
Ġimp lied
Ġm ac
ĠW IDTH
d irection
Ġcons ent
Ġret ired
R andom
Ġel ig
w allet
AT OR
part s
U V
Ġd ies
Ġprec isely
Ġmembers hip
s is
get Id
lin ux
Ġrecogn ize
$ $\
AC H
W in
Ġexpect ations
an im
Ġch ampion
ĠR O
Ġk il
3 50
Ġmark s
Ġdecre ase
Ġsupp ose
ad i
ĠV ari
B et
Ġrele ases
ĠP it
(" #
B ecause
Ġcom ic
Ġask s
Ġperson ally
Ġa ims
j an
che stra
Ġst ake
H D
Ġo scill
Ġre b
Ġal ias
ĠInd ones
dis patch
B order
erv ation
Ġoptim ization
ĠK it
v ia
Ġo x
Ġassist ant
Ġins ight
Ġover flow
Ġhy brid
Ġ" .
ug gest
od a
B ounds
Ġh ur
> ;
phot on
Ġtrad ing
Ġfr ust
se lection
19 65
Not es
Ġeng age
ĠConfig uration
Ġnot ation
col n
Ġh am
.* ;
L ife
ich ol
Sp an
j ax
Ġbr illiant
Ġcl usters
Ġfew er
s ch
m ount
] ))
sequ ence
el son
_ )
ĠC ole
iver pool
v i
Jan uary
Ġent hus
ogene ous
ĠAf ghan
el and
Ġhealth care
ĠSe attle
Ġdisc ipl
od ot
ĠHar ris
Aust ral
Group Name
RE SS
ĠM it
ig ious
Ġun f
Ġre pository
ĠHol y
ut ed
Ġ" '
Ġsupp lement
Ġrac ing
ĠD VD
We ight
) --
d k
Ġwer en
Ġwe bsites
ol i
J une
ik es
Ġb ars
L D
Ġref uge
Ġqual ified
ĠQu ery
ĠN HS
Ġla id
Ġhor izontal
Tim estamp
ens ing
Ġinstall ation
N UM
ĠG ab
ymmet ric
Ġmed al
Ġwhen ever
ĠCapt ain
= %
Ġneut ral
us cript
"=> "
Ġg ained
ĠF C
Ġwe ights
CON FIG
Ġde als
Ġhost s
S ame
M F
D an
D ATE
p rom
re pository
Ġmax im
ĠO P
ĠH ope
Option al
ĠCons ider
ĠB arn
C r
Ġh int
ul um
Point s
H older
ub er
} &
ĠP ed
f rag
ĠAr gent
ĠO regon
ĠC C
sd k
Ġunivers al
Ġperiod s
ĠPrem ier
M aterial
u z
10 3
A z
ĠG h
Ġ$ -
ma pping
Sign ature
ocr atic
L ib
ĠJ son
Ġroad s
Ġvoc als
Ġbr ands
g z
Ġc ub
de ep
ĠK elly
if ting
rop ical
____ ____
Ġan chor
ĠT arget
ur is
ĠE ss
19 64
Array List
Ġgover ning
L IST
ĠH an
h istory
Ob server
ĠF un
;| &
ĠI owa
ĠM I
Ġowners hip
Ġconver gence
Ġt d
\| _{
tr ansport
Ġwin ners
ĠQue ens
an alysis
ĠCar l
rem ote
T w
Ġes cap
b ec
omorph ic
Ġmor al
Ġrout es
Ġsh adow
ĠGa ussian
Ġg ang
Ġredu cing
Ġweap on
ĠKore an
ĠÐ ²
Ġsampl ing
Be en
room s
ĠYear s
ĠM eg
li bs
ĠN atural
ĠAll en
T AG
Ġc ached
Run ner
Int roduction
ĠMon th
ol ves
ĠApp end
Miss ing
Ġ ----------------------------------------------------------------
) },
par agraph
Ġsum mar
op es
Ġen forcement
or se
Ġbase ball
Ġconvention al
ĠSm art
ĠClass es
Ġprof it
le tt
ter y
C ounter
m g
Ġstret ch
Ġpur su
Ġdis able
Ġcour ses
Ġsc ulpt
Ac cept
Ġsl ot
M ust
Ġreject ed
0000 00
ĠCast le
ĠPh ill
Sec ret
elf are
Ġdire ctions
Ġphilosoph y
gress ive
ĠIsrael i
Ġqu ote
Met rics
Ġequ ally
Ġman ifold
Ġmach ines
end o
Ġdiscuss ions
p ed
p oll
ĠC S
qu ant
Ġcut ting
HO ME
Ġreli able
Perm ission
B D
com b
Ġprodu ces
element s
Ã º
column s
NO DE
lo v
Ġp ixels
L ear
EN V
Ġcomfort able
Ġper mit
top ic
w en
M arch
! )
Ġwor ry
p b
) }{\
n it
ĠB an
Ġord inary
qu arters
Ġpolit ician
ĠWh ich
ĠA LL
Ġsens or
Ġas ympt
{ $\
Ġt ur
Ġnot ion
Ġcon cerning
ĠA st
Ġconsequ ence
F rames
UMM ARY
Ġguid ance
ĠIn s
can vas
ĠMal ays
Ġpain ting
act ual
Ġstrateg ic
LO W
tim eline
ob e
OP T
Ġmechan isms
ĠCo q
cont act
u et
Error f
** *
ĠF L
Ġap ilevel
at ile
Ġ Å
ĠProte ction
st ud
Ø ¯
Ġstreng then
10 24
iv ities
F OR
Ġdesign s
log ging
Pro f
Ġp ending
19 45
ph y
Ġent itled
ĠP L
ĠN ic
: '
ors es
Ġsustain able
Ġem issions
ib ration
ĠF a
r ates
Ser ies
ĠM icro
âĢ¦ ]
F eed
P N
Ġchild hood
ol itan
Ġre act
ĠH ung
Al loc
l as
Ġquant ity
alax y
Ob serv
Ġv on
Ġpack ages
Ġp in
view port
Ġf rames
BP ACK
ĉĉ ĠĠĠ
l ined
STAT US
S an
T ouch
ank a
m akers
Ġl ights
Ġor ig
and al
B its
Ġgl ad
Ġreach ing
ĠOnt ario
Ġguarant ee
G reen
ĠS end
ĠPolit ics
Ġbird s
put ed
Wh ite
Ġdefe at
ĠU RI
Ġdog s
Ġmer ely
reg ular
Ġliter ally
Ġs essions
Ġr um
Ġtrend s
Ġscatter ing
ĠE nc
refer red
Ġhead ing
Ġtransfer red
Ġd inner
10 7
Ġarg ue
ĠL as
Ġmolec ular
R a
å ¤
ĠL eft
Ġn aturally
h al
Ġpredict ions
Ġl umin
Ġident ification
Ġsome how
arch ive
it ure
H ook
Ġhop es
ĠM s
Ġn amely
ĉ ĠĠ
Ġb oss
UB LIC
ort heast
ĠL ock
< <
Ġoff ices
Ġsh opping
Up dated
Ġcook ie
ĠDe ep
im itive
g lyphicon
ĠAnn ual
Column s
Ġtri als
o i
Ġrough ly
Ġeast ern
t l
Ġwat ers
Ġtext ure
Ġsatisf ying
Ġt all
or ce
CO MM
ĠL iving
ĠWith out
ĠR ey
b p
Ġliter al
ĠLa ure
re ason
10 8
V irtual
qu es
pre vious
} )$.
ĠEar ly
Ġinitial ize
b urn
re peat
B ro
v et
b est
A U
Ġad mitted
}{ (
Ġj oy
Ġal pha
urre nce
Ġg enu
r pc
Ġsub sid
ĠPerson al
ache l
Ġcol span
Ġsurv ive
UR CE
ex amples
ang a
ĠSe ver
sh a
": "
R UN
Ġt urb
v ard
ab ama
ĠH ost
Ġprov ince
Ġp ushed
t ensor
Ġ| =
10 6
es ian
ĠRel ations
In ner
(" %
Ġaccord ance
Cont ents
Ġb rown
}} ^
mark et
ĠRes ult
Ġcare fully
Ġbreak s
Ġloss es
L ive
G ui
}} ^{
ar o
ĠP ier
Ġmaintain ed
ri ent
Ex pected
è ¿
G iven
ĠK r
Ġt aste
ĠN ev
Ġcelebr ate
Ġse vent
Ġcomput ation
Ġt issue
rep o
cl ine
g rav
"> (
Ġ< -
ĠF ant
ens itive
vent ions
ra ig
Ex ists
ĠSwed en
ĠWe bsite
Ġgen re
ĠR oute
Ġfant astic
Ġpro files
ort ed
C ertificate
W I
it ting
Ġt ip
è ®
Ġreli ef
Ã© s
ĠF ive
Ġf etch
Ġpriv ile
uth er
Ġrob ot
M al
t ol
ĠIndust ry
UR N
Ġdo ors
The orem
J uly
Ġconcept s
Ġdis order
the less
Ġtim estamp
ĠM L
ĠBuild er
igen ous
iam ond
ĠH ad
m aker
B ER
Ð ·
Ġsuff ering
Ġman aging
Ġprocess ed
Ġj ack
Ġcount s
Ġbe er
map sto
11 5
Ġbu ying
ĠPl ant
Ġ{ %
Ġelect ro
ĠTh ough
Ġk ne
rb an
r ules
( ['
Ġc razy
Ġsh arp
LE TE
Con verter
> ()
as ant
ul us
Dep recated
old s
Ġsy nd
19 66
Ġdefe ated
at on
ĠM uch
Ġsign ing
ĠH ur
ia h
ok er
ĠTh ird
Ġnot ification
ĠK y
ĠK al
t v
ĠAl an
us r
ĠD ick
Ġf ro
Ġro se
Ġent ities
Ġconstit ution
Ġhelp ful
ey ond
ĠReg ional
Dec imal
ĠPr ice
ĠN othing
P OS
sur face
Ġqu eries
ig gs
al ias
ĠHow ard
Ġdis ag
Ġemb edded
Ġgot o
Ġdef ic
)\ \
Ġpo etry
Ġne ck
ĠAtt orney
Ġde cent
> '
ex ecut
ĠS elf
row se
Or gan
Ġb reed
create Element
ch unk
Ġcont ributed
Ġfore cast
Ġp ixel
Ġsc aling
ĠA qu
ĠM ilitary
iv idual
Ġdeleg ate
Ġpro to
> %
i ere
' (
Ġfarm ers
es c
ag u
ĠOlymp ic
Ġmusic ians
Ġund ert
D at
Ġoff ensive
Ġgun s
ĠT ennessee
ĠViet nam
Ġf inger
ĠInt eg
ĠChampionship s
su pp
Ġcl one
Ġcheck ing
ĠV in
uck s
Ġp iano
ĠF ollowing
Ġconf ront
External Task
Ġsymbol s
id ae
Ġdis patch
Ġ Ñģ
Ġevery where
)$ -
Ġle af
ars ing
un s
Ġweek ly
Ġeng agement
anch or
m oment
ing ers
Ġimpro ving
R educe
ĠFor um
ĠPol and
WE BPACK
Ġh ospit
ĠS audi
ĠIm ages
S to
rag ma
ĠB reak
f ac
ph ase
Draw ing
Ġen ables
ĠR ick
Ġmat ched
Ġinher it
Ġch at
Ġa ria
Ġen vironments
Ġdis p
P ad
( ()
F oot
Arg uments
ĠRes erved
Ġfeel ings
Ġhop ing
ĠAct ive
T om
Ġgener ating
E urope
mit ter
ĠP sych
J ames
ĠJ oh
Di agnostics
S witch
Ġdeep ly
Le ave
ĠS ri
ops is
AS H
Ġdefin itions
ExternalTask Pojo
Re act
Ġl ands
Ġgraph s
ĠK han
ĠAust in
et ition
Ġas ide
ĠL ess
Ġout standing
>< !--
ĠIn v
Ġdise ases
Ġjournal ist
oc om
Ġm ad
che ll
Ġadj acent
V IE
Ġpre t
tim estamp
ĠEnvironment al
ĠInst all
Ġampl itude
Ġres olved
ĠHamilton ian
ĠE mb
Ġmin i
Ign ore
ĠStud ent
Aut hentication
Ġbro thers
ram a
ĠL LC
c ursor
Ġfavour ite
ĠM as
R S
ĠE ag
Ġgovern ments
Ġport ray
Ġexpl oration
s ure
B ool
Ġplace holder
tool tip
C oin
Ġsubsequ ently
Ġany more
Ġin fection
book s
Ġtra ject
wit zer
Ġfore ver
Res et
Ġv ocal
ol ving
ĠC lick
Ġbound aries
ĠBow l
Ġcent ers
Ġsp okes
Support ed
Sep ar
be at
99 99
M achine
olog ists
xy gen
ĠT el
ĠEp isode
T y
Ã ¥
Ġp ump
Ġspirit ual
Ġman ual
ĠST ART
j b
L icense
ĠD OM
Ġsc oring
Ġpublish ing
TH ER
u h
IMP ORTED
â Ħ
ĠH um
per iod
R ober
Ġcol lections
ĠAm ong
rou ter
ĠP a
Ġm ath
Don ald
Ġph arm
ĠCon vert
display style
Ġrank ed
e an
f ish
Ġref used
Ġorient ation
f p
rop ic
Ġent reprene
ĠS UMMARY
Ġconstant ly
Ġwe ird
u j
P resent
Ġtr ivial
/* !
att ed
R ot
iz ard
Ġre putation
D M
Ġin clusion
ĠMed ic
Ġassum ptions
Th ree
Ġconserv ative
at ibility
Ġ" >
ĠIm port
ĠC T
Ġview ed
ĠFin ance
C ancel
Ġinit i
at ri
Ġ æ
on i
Ġb ike
ĠMel bourne
We ek
cc a
Ġte a
Ġn ations
Ġm ilk
LE S
ĠD A
w x
ĠDe an
Aug ust
ou ver
Ġfil ters
del ay
Dis patch
Cre ated
AR B
DE X
Ġcollect ive
oen ix
Ġimprov ements
ĠAl liance
id en
A ggreg
ĠCol umn
Apr il
b ug
= &
get Instance
aur a
Ġlog in
ta h
S elf
RE CT
â Ķ
ĠI ter
d ash
le e
ĠB or
Des ign
LE MENT
ush ing
Ġdom inant
ĠU lt
S G
×ķ ×
Ġparticip ation
Ġclass Name
Ġelse where
ĠCre ates
Ġgu ilty
Ġf s
Ġthe atre
Ġhead ed
ĠN ation
Ġsc an
ĠHistor ic
am ount
clud ing
>( <
h ill
add ed
ol ph
Ġc ensus
ber ry
ĠC ape
Y S
ch arge
Ġaddress ed
US A
it udes
ĠD uke
Ġpay ments
K it
Ġb lo
i em
Ġt ank
b ors
ĠPe ace
$ ~
sp in
Rel ated
Ġpro hib
ĠSur vey
Ġfin ance
PRO C
Ġdi pl
Line ar
Ġd elta
ĠB ureau
Ġgrav ity
ĠR ic
Output Stream
Ġisol ated
m iddle
Ġim g
ĠF lo
app le
ĠPer formance
ĠL ater
or able
oc y
w hel
Ġn an
Ġinter section
ĠSt orage
l b
ĠSer ial
Ġch rom
Ġsing ing
LIC ENSE
ĠMiss ouri
B N
Ġstream ing
s ing
Ġme at
ĠAr thur
Name Link
Ġtransport ation
C ulture
Ġb one
ĠAg ric
(' <
Ġant ib
ĠV ar
Ġass ignment
ig s
ĠMay or
Ġnov els
Ġre ly
Ġconven ient
Ġ` ``
is en
id al
40 4
ĠD oc
çĶ ¨
Ġsh it
ĠĠĠĠĠĠĠĠĠĠĠĠĠĠĠĠ ĠĠĠĠĊ
ĠMc G
G EN
Ġinterview s
lah oma
mark s
A f
Ġs oph
Ġt ied
ĠSp irit
f loor
f older
l on
pro b
Ġo vers
itar ian
BU FFER
gener ator
Ġtax es
witzer land
lo pe
Ġann iversary
ĠL eb
ĠB alt
Ġgen es
n os
Ġapprec iate
Ġind ependence
Ġf olk
Ġut ility
Re ason
secut ive
File Name
] +
b oy
em et
Ġcl ar
class Name
the y
Ġent ering
Ġmem ories
Ġleg it
ĠB ible
ĠP O
10 9
ĠMary land
cre ens
Ġ uri
l int
T ok
ĠG ib
Ġimp licit
Ġb unch
Ġcomp iler
li a
l ad
SS ION
ĠE uro
ĠM organ
cl s
oid s
Ġinstr uments
ĠM ission
Ġen umer
og a
o ose
om er
Ġpar a
ĠM i
ĠR ule
There fore
oc ent
t em
$ ;
Execut or
å Ĭ
ĠS V
Res p
Man agement
un lock
Ġor bit
W arn
ĠCommun ications
IL ITY
Ġaw esome
P romise
Ġl oud
Ġun likely
Pack et
ĠFe ature
E P
Ġs alt
FI X
As set
Ġunus ual
Ġrep orter
Ġsupport ers
ifest yle
ben ch
form er
con g
Ðµ ÑĢ
Ġvir us
Ġt one
} ))
ĠStud ents
ad oc
Ġed ited
Ġuser name
Ġgrad uate
Ġinit iative
Ġattempt ed
ĠG row
Ġag ed
Ġresc ue
ĠVeg as
En able
U CT
Ġs ke
X Y
Ġcer emony
Th rough
te am
ab etes
ish ment
b n
ign ore
ĠH ell
Ġg ent
ĠVill age
Ġw et
ate way
Ġsh ots
Del ay
w he
p ad
h bar
cy cle
Ġc av
Ġing red
str y
Ġman agers
pub lish
od o
Ġdes per
form ing
Ġw x
ik ing
ĠCh ap
ĠZ h
sp ot
ĠJud ge
IM IT
] }
ch at
QUE ST
b ridge
... )
Ġc ock
Ġp sy
Ġhypothes is
Ġ& #
ss l
enc oding
ĠN um
RA ME
ĠBy te
\ {\
MP L
Ġmov ements
ĠCred it
p al
Ġarr ive
ĠPhil ip
Ġpan els
Ġarr ival
F D
Ġdest ruction
Control s
I ME
Ġbelong s
Ġp ace
__ )
Ver ify
Ġpod cast
Ï Ģ
Ġassum ing
F ixed
ĠMar ine
Sh ader
ĠDown load
ĠD al
, âĢĻ
Ġ-- -
( /
Ġorgan isation
ex cept
H or
ĠB uffer
ĠSchool s
roph y
ess ment
Ġex ponential
f red
Ġre vers
o il
TI ES
Task s
Ġhand led
St ub
11 4
Ġtarget ed
Ã ¸
R ules
m ov
est ing
Ġmyst ery
Ġbl ind
Ġf iber
_ -
ĠP aper
Will iam
Ġche ap
ĠLin ux
19 63
c as
et ics
iff s
Å į
Ġsat ellite
ass oci
Ġext ensions
ounc es
Ġincor rect
com plex
Ġdescri bing
Ġc urrency
l ings
Ġpen alty
ĠD a
ĠD un
Ġemer ging
Ġdr um
n an
Ġrece ives
Ġrestrict ed
ĠĠĠĠĠĠĠĠĠĠĠĠĠĠĠĠĠĠĠĠĠĠĠĠĠĠĠĠĠĠĠĠ ĠĠ
Ġaccomp an
ĠWalk er
Ġh ang
SP ACE
Ġill ness
Ġad s
Ġfl ows
ĠD atabase
roll ers
Ġfunction ality
ĠParliament ary
N Y
Ġsac r
Ġth orough
Ġk in
ĠBru ce
Ġinter vention
ĉĉĉĉĉĉĉĉ ĉĉĉ
Ġw idget
Sh are
ĠIm mutable
gl as
Ġb ucket
Â ·
est ions
ze ch
Pr imary
w ind
ĠIn ternal
F ALSE
B T
Ġcy cl
cre ment
Ã© e
met ic
ĠR u
ĠJ S
Res earch
ĠĠĠĠĠĠĠĠĠĠĠĠĠĠĠĠĠĠĠĠĠĠĠĠĠĠĠĠĠĠĠĠ ĠĠĠĠĠ
ver ify
Ġrail way
ĠN ik
Ġtr im
asc ular
EN ABLE
Ġob lig
Ġc ir
Ġexpert ise
F M
Ġwire less
ĠCon st
em bed
Ġe ating
ĠSt ories
Ġmix ing
Ġsimult aneously
get String
Å Ĥ
per m
ĠOther wise
pro position
ĠO ptions
ard o
rest ling
= $
el ve
str ings
ĠP ast
ĠVol ume
ĠU til
DE D
ĠG er
Ġconfig ured
RAN TIES
p iece
ous es
ĠPl atform
ĠCo oper
ig ator
Ġacqu isition
un ches
ĠHer itage
i op
Ġt act
Ġstr uck
ĠRep ly
F ollowing
ĠP layer
ĠTerm s
Ġlog ical
em ies
ĠLeg al
ĠGree ce
Ġdesign er
ĠB h
Ġtalk ed
Ġaim ed
Ġl ake
ĠB ased
anc ouver
Ġch a
ĉĉĉĉ Ċ
ĠE C
Ġstudy ing
d anger
b one
ĠM ess
ĠG ordon
ĠM ir
f rames
Pub lished
Ġsuper ior
Ġp arsed
Ġ( âĢľ
c ancel
ge on
A lex
Oct ober
w br
ĠA V
Ġsepar ation
Ġdecl ine
Ġ[ \
Ġpublic ly
Ġd ial
Ġgu idelines
def er
Ġcorre ction
Ġc up
Com mit
ĠH ero
ĠWAR RANTIES
ig a
ĠAn ne
el lo
Ġcr imes
ĠCl imate
Col lect
Ġcal endar
j oint
iss a
Z ero
Ġh oles
ĠVAL IGN
Ġcomput ational
Ġ-- ></
= #
Ġh ol
ĠH op
!! !!
am er
Ġadminist rative
Ġh o
I ss
ĠLin coln
ast ed
Ġdem ands
Ġequ ipped
osc ow
Ġkit chen
Ġf its
fra id
ĠC row
ĠG O
Ġup grade
Ġcour ts
get Type
ĠSch olar
ĠT OP
ĠM un
ac o
BO OL
T L
m ms
2 20
Ġsp ark
Ext ensions
Ġvari ant
ĠAnd re
vert ex
annot ations
ĠV i
ĠSt udio
Ġmonth ly
24 0
mem bers
A SSERT
ĠR ab
Fe atures
Ġconsist ing
Ġstruct ural
claim ed
Ġg ear
ir rep
S en
ĠNor way
Ġh al
ĠM ars
Ġst roke
comm un
ĠI F
ab ling
ĠWh it
Ax is
qu al
Ġ{ $
Ġb acter
ĠJon athan
ĠH IV
ĠT og
Serv let
XX XX
B usiness
Se ptember
" ];
Ġl ov
ĠP arent
Ġt ill
pl ain
Ġrep air
Ġschem es
ren a
. ]
Ġm igration
In s
Ġf irms
Ġiter ator
Ġcoe fficient
Ext ra
ob serv
Ġc b
Ġ( %
sol r
be ing
Nov ember
ĠHaw ai
Ġs orry
sw ing
} ",
Ġdem ocracy
Ġg ram
Ġin verse
med ium
hemat ical
G rad
LO AD
ĠD raw
ĠIndian a
Ġdef ensive
Ġwh ilst
ĠSing le
ĠSt ew
ur ities
pr iv
âĦ ¢
Hel lo
Ġ' "
Ġinvestig ated
Ġf est
ad v
Ġconnect ing
ĠH ans
Ġcoupl ed
ĠN ap
Ī Ĵ
ĠG R
Ġreg ulation
. -
Ġdis crete
Ġint ellectual
ĠH it
m ates
ĠT ry
Ġsignific ance
S ide
Ġdes criptor
(" \
Ġperson ality
Ġd x
Ġin vention
ul k
Ġde eper
Ġinher ited
ĠC L
ĠW y
ĠTok yo
Ġse gments
Ġred irect
ĠChair man
ĠM ut
Ø ª
ĠA udio
oc a
not ification
ĠRepublic ans
in ian
ĠAnd y
O wner
m ix
S ing
ter ed
ĠI ron
Ġd ump
&= &
t age
Ġvari ations
Ġconv ex
ĠMA X
Ġv m
M art
GB T
d jango
Ġprec ise
ĠP red
Ġd ense
gu ide
Loc ale
get Message
second ary
Ġmag net
Ġart ificial
ene z
[ -
iv o
b ie
neg ative
Ġviol ent
qu is
Qu ant
th ird
ii i
Ġher itage
De cember
Ġ' _
Ġenh anced
Ġlif etime
ĠMark eting
Count ry
ĠArch ives
w ave
d ocker
an ne
Ġt ar
Ġp ic
refer ences
google apis
SU C
ĠP erm
op ens
bar a
end point
ĠB us
ut ies
ke e
Ġp or
Ġw ake
ater al
ĠA ws
Ġsufficient ly
^{ +
AP P
à ®
ĠRun time
ĠCom par
D iff
ĠEx change
V ID
cc cc
T Y
Ġw edding
Ch anges
Ġquad r
IC K
emet ery
b id
ĠW olf
Ġrad ical
Ad v
Ġc able
Ġl aser
ĠR ace
Ġelectric ity
Ġden ied
Ġcon cluded
Ġpar liament
Ġrepresent ations
Ġmin ing
ĠB ird
ap ing
m ate
19 62
Ġsens itivity
Ġcare ful
C ould
Ġst y
Ġspe aker
sl ide
Ġap artment
b inary
Ġw ider
Ġph rase
ĠApp ro
rou s
< >();
e ast
am ar
Ġne ural
Ġcompet e
Ġdialog ue
Ġautom atic
ec lipse
TR AN
W he
Ã¡ n
ĠS ac
Ġmechan ical
ĠB lood
per or
BA SE
Ġm oon
ĠV R
ĠB ah
ĠMat thew
ĠL P
Ġbas eline
} }$.
Ġm eth
ĠC ow
AR K
ĠAl abama
dis c
h pp
Ġun like
Code c
sur ance
Ġorgan ic
Ġprepar ation
V O
Ġp overty
ĠL iverpool
ĠWork s
ord inary
55 5
11 7
ater n
if ference
ache lor
irl ines
ĠLog ger
ĠTem ple
Class Name
Ġpass engers
Ġw rap
Ġin hab
st eps
Ġserv ers
Do ctrine
RES ULT
as a
Ġd ictionary
et he
ĠD allas
ĠAp pe
Ġold est
ĠSt op
Ġgo ogle
Ġrest ore
Ġrecommend ations
Ġrestaur ants
le ans
Ġwar rant
ĠâĨ Ĵ
enn ial
HO UT
fl ush
Ġt ang
y outube
Ġprint ed
rid ges
w eg
Ġcontract s
An alysis
CRE ATE
Ð° ÑĤ
Us es
ĠE D
lic a
}( {\
Ġl oves
win ning
ĠD ur
al gorithm
Ġfr anchise
ĠCr ime
Ġcou nsel
Ġb io
ĠS in
D irection
es a
alle st
con sum
d istance
ĠH old
lo re
ic ient
ĠBO OST
An im
ĠChrist opher
Ġl ying
Ġaut hentication
Ġannounce ment
d ynamic
con duct
Ġactiv ation
not ify
Ġequ als
W ar
Ġt ort
erv ing
æķ °
-------- --
L em
ot ive
Ġ' -
rac le
ĠBe at
Ġcl s
Ġup load
ĠF ellow
m ill
ĠF IG
Ġrot ate
ĠW E
m aps
Ġinter mediate
! </
equ ate
J o
Ġv ital
Ġ- =
ĠRail way
String Builder
unk nown
ĠIn valid
ĠC NN
Ġ Ø§
uc lear
ĠS now
Ġton ight
Ġc ogn
avel ength
ĠUs ed
J ack
Ġj u
pos ite
Ġwith draw
ĠG raph
Ġrec ru
Ġfem in
14 4
quir y
e u
Ġd iver
Ġgener ations
Ġcent uries
Ġhad n
B uf
ĠÐ ½
ĠKE Y
ath ers
ĠB asic
im ore
Ġgreat ly
Ġj azz
Or igin
ĠPolit ical
Ġm ic
Sc ore
T ele
less sim
F ac
ot he
Ġse ar
Ex per
project s
ut ral
c lip
ĠP ear
man agement
Ġmist ake
* ,
ys ics
ch anges
fe atures
Cont ract
const raint
AR RAY
r us
} }$,
Ġarg ued
ĠJ ess
Ġ' ''
Ġequ ilibrium
ĠPer haps
T ri
O FF
ĠĠĠĠĠĠĠĠĠĠĠĠĠĠĠĠĠĠĠĠĠĠĠĠĠĠĠĠĠĠĠĠ ĠĠĠĠ
hip s
Ġillust rated
~~~~ ~~~~
A ctions
Ġleg s
n atural
Ġl unch
Ġvis its
Ġpartial ly
V R
cos ystem
Ġentr ance
char acter
Ġtit led
Run ning
Bl ue
Per iod
ĠL I
c ookie
ins ic
E mp
re view
Ġf ul
ĠF ederation
$ ),
Ġex ha
ĠF ALSE
Ġcon secutive
c od
run ner
Ġav ailability
Ġpro pose
ĠL L
Ġneigh bour
Ġhigh lights
Ġfootball ers
ĠW ard
ĠW el
ĠAr k
apt ers
m ers
ow ski
ĠO tt
ĠAss istant
ĠM other
Ġper m
rop olitan
ĠM ind
Ġthem es
qu ality
less ly
ĠB ron
ĠP as
AR G
C he
Ġattack ed
A ir
pos al
min ute
ic ates
Load ing
Ġl uck
ĠId ent
A SS
ĠD M
Â »
uff ix
ĠSum mary
================================ ================================
ĠComput er
D TD
hy thm
ĠC P
Ġst uck
Ġbi ological
us p
ĠArg ument
Ġinsp iration
Ġadd r
Ġbox es
ard ing
/ )
Ġrem oval
ter ior
Ġcam eras
um ul
æ ĺ
ĠNiger ia
ĠD I
Ġth ro
/ (
T ake
M en
T yp
Ġdo ctors
Ġcor ruption
ĠDel hi
Ġsett led
~ $\
list en
ellig ent
IN VALID
ur ches
M ount
Ġoff ense
Ġrom ance
ant ly
t ains
P ane
ĠW i
ĠProv ince
Ġr anges
S n
Ġw rapped
Ġent ropy
Ġf abric
A X
p ragma
Ġper ception
Ġdecl are
Ġr ival
Ġc ow
h ist
Ġh ub
Ġrac ial
Ġman uscript
te ch
Ġtom orrow
Ġp rize
ĠC M
m ir
it ational
Ġsm ile
Ġ ray
Ġdes cent
Trans ition
å Ń
Ġrestrict ions
op am
utr ition
eral d
s z
Table Row
oust ic
Ġto w
Ġdesign ated
inst ein
Ġrad ial
T ax
Ġdrink ing
urs ive
i w
ĠT a
li ers
Ġexam ine
f are
Ġar med
dec ode
Ġredu ces
Ù ĩ
Ġnot able
Ġd ad
19 2
Ġposs ess
iv ia
p od
19 61
p ing
t ik
U nd
ĠS ize
ĠPublish ing
ĠM C
ĠT ab
Part ition
Ġground s
EN CE
Mon itor
Ġsuff er
d m
S napshot
ĠUn less
ĠCent ury
ĠD ays
ĠN ull
ĠAl tern
sc ience
Up load
ĠR ain
jav ax
Ġthreat s
Ġlock ed
Ġimm igration
C ross
Compar ison
be ans
ĠS ide
Ġa fraid
ĠG all
inn ed
N eed
Ġref lection
} )$,
Ġdom inated
ĠHand le
is ons
ĠE u
C UR
Ġcolle agues
Ġg est
ĠCons ult
ĠF ast
ous ing
Ġco ins
RE T
æ Ī
Ġtok ens
Pub lish
ĠĠĠĠ čĊ
at ers
Ġpar ad
enn y
un ior
Ġscreen ing
Enumer able
Ġvary ing
Ġrout ine
he art
Ġbrief ly
Ġs aving
: }
D ynamic
Ġple ased
Ġattr s
Ġsur faces
RO W
Ġcos m
f av
Pol y
OT T
| _{
Ġinvol ve
om al
ĠĠ čĊ
Ġfocus es
E ast
ĠP il
Ġprocess or
mult ip
Cons ider
S am
th ree
un ion
Ġdiagn osis
Ġ' #
> ${
ĠI C
ĠS ales
ĠThom pson
ĠMult i
ĠPh D
Ġfit ting
ele g
inter pret
Ġcan vas
Ġexhib it
n l
Ġra ising
ress ions
ĠT ABLE
Ġd ating
Ġt ips
ĠT rib
Ġgover nor
Ġdream s
Ġamong st
a con
pag ination
Ġiter ation
Ġderiv ative
Ġt ale
iev al
) +\
i pt
ir ical
Ġm acro
ĠB ody
Ġm s
b ird
ĠE mail
Ġag enda
Ġsing les
19 44
inter val
c in
th umb
Ġver b
Ġrare ly
Ġs lice
Ġsub t
b ucket
Ġeng ines
P ush
tr as
ol ars
Ġdo se
ĠL ore
ĠRead ing
Sub ject
Brit ish
c mp
Ġre ven
Dis k
Ġliter ary
V A
ap olis
ol en
Ġd il
ĠC over
col ogy
ĠH app
at io
Ġchar ity
Int eg
ĠMar vel
ĠV iol
ĠD ise
ĠAl ber
ĠA lice
Ġsl ide
M IT
Ġassoci ate
gener ic
> [
ĠDet roit
Ġs pher
Ġst ops
Mut able
ĠPar se
m ade
N D
contin ue
Ġdevelop er
ĠRog er
ĠChar lie
Ġsearch ing
ra ise
Ġb rows
ĠO il
Sh arp
d ale
Ġdram atic
u is
ĠS witzerland
Ġover whel
Ġbr anches
Ġcy ber
Ġscen arios
PRO P
OR S
dat etime
amazon aws
vel ope
level and
f ragment
ĠOrgan ization
Ġover view
urs ing
ĠN BA
B oth
ĠS ave
ĠD ue
NE W
Ġter rible
L ang
Ġf ishing
includ es
**************************************************************** ********
Ġd owntown
c urrency
local host
ise cond
Ġdis aster
Ġcritic ism
ident ity
ĠGirl s
ĠNAS A
Ġshort ly
3 20
in os
12 4
N a
Ġbirth day
Ġliber al
it ations
Model s
Ġanaly ze
ĠSu ccess
ĠMic hel
Ġrul ing
Ġinvol vement
c ost
ĠD ak
Ġult imate
am an
ĠC os
is cal
Ġcon form
ĠH ug
ann on
ĠC ome
Ġind epend
U A
** /
Î ·
rac ing
Ġp ip
los ing
ĠSt ars
ĠCamp aign
ĠCar ter
ĠW oman
Match er
Ġoper ational
ĠB ull
ecess ary
f un
Pol it
Ġg host
Ġthread s
ĠA BC
ĠT itle
B ACK
Ġto wer
Ġcomm ut
. ',
Ġcell padding
Ġlaw yers
Ġcharacter ized
Ġf ought
Ġt we
ĠG P
ĠT ro
11 6
×Ļ ×
Ġ$ |\
ĠSh are
ĠW ait
ick ed
CO M
ĠBre xit
Ġfem ales
li est
ĠBr and
Do es
em ed
Ex ecute
ail and
ĠHigh way
aw esome
Ġpr on
re ach
ĠAn na
Ġtown s
Ġrel ating
Rober t
ĠIt em
id o
With out
ĠKe ep
B ucket
Ph ot
ĠP E
ĠH ills
T og
ĠB uff
Ġatt itude
ĠSe pt
str ument
in ar
Id x
l ades
ub ern
west ern
V C
ĠB M
tim er
Ġpro be
ĠMex ican
hed ral
ĠBe aut
ĠOC aml
ic ut
Ġcan onical
Ġpublic ations
Ġhard er
S UB
Ġdis plays
}$ )
Ġan th
ĠH O
Ġpres erve
back s
Ġcross ing
Ġappear ances
Sc ene
Ap pe
Ġ' @
ĠMc K
ĠS ession
ir ates
ig g
f ather
.. ...
Cam era
ĠVis ual
Ġm irror
ĠM achine
TER N
ĠWH ERE
ĠG ram
Data Type
ĠG alaxy
z i
Cal endar
Ġengine er
Ġbur ied
4 50
In f
Ġmark er
writ ing
ĠCor ps
Ġintegr ity
S F
Ġest imation
Ġenc oded
ph ones
V ec
ĠG T
Ġdef ect
Ġcompos er
Ġcomp an
F ire
ĠM IT
T imes
Ġco her
Ġim aging
Ġsystem atic
Ġre striction
ut down
ut orial
Ġprodu cers
Ġly rics
Part icip
ĠD R
ĠMar shall
An n
Ġsu icide
S ports
h w
Ġdisc ount
ĠRuss ell
IR T
Ġne ur
Ġestablish ment
s ocial
ĠM B
ĠD ebug
Ġinflu enced
ĠE T
ĠC F
lot te
T uple
Ġle mma
Ġn ut
Ġch ronic
Ġdel iber
(' ./
c v
se cret
sc ar
ĠAtl anta
sl ash
ĠN ichol
ac ular
Ġis instance
run ning
) -\
ĠK ings
Block s
ĠSwed ish
Ġprint f
ch arg
Ġabandon ed
ĠAfghan istan
en vironment
au i
Ġst ub
Ġdifficult y
> {
ĠF ight
ĠH ub
Ġpo et
con current
um ar
Ġappe aring
Ġle ts
Ġper mitted
Ġint ense
Ġfocus ing
ĠT otal
g raphics
br ane
ul ates
h alf
al ph
Ġstrict ly
ĠL abel
Ġins ights
Ġgen us
Ġpack ed
Ġche st
N eg
Ġd t
== =
13 5
pl es
ĠShe l
az el
Ġt ie
Ġremark able
c lo
Ph il
Ġcomb ine
D istance
ĠAdd itionally
Ġdef ining
ĠD J
As sembly
C LA
Ġf ool
ab stract
Ġ/* !
ĠGra ham
nob r
Des pite
ĠA uth
Ġsu gar
enc er
5 12
Ġan notation
Ġn s
Ġl oyal
ĠDom in
Ġcred entials
t oc
Ġopin ions
Ġpro x
Ġrem oving
195 9
ĠD ance
ĠY an
ĠElect ric
Work er
ist ically
ĠLe ave
Al ert
ĠOk lahoma
Ġcell spacing
im edia
k l
Ġtransl ated
ĠB run
j amin
ĠCom ponent
Ġlic ensed
à¤ ¿
ke ep
Ġd st
SO URCE
Tr ump
Ge ometry
Ġprote ins
Ġoutput s
ĠB uck
ĠRob inson
friend ly
Ġelig ible
allow ed
C annot
Ġ[ âĢ¦]
Ġb ull
ĠDrag on
v on
Ġencourag ed
ĠCon stituency
Ġim pe
. :
Ġco aches
ĠHash Map
D ig
Ġelect rical
ĠS witch
M ov
ast ing
late st
Å ¾
am ous
Ġorgan isations
ĠL ane
ï¿½ ï¿½
ĠInd ependent
Ġd atasets
Ġpass enger
Ġconf ident
up dated
Ġm ales
loy d
Ġ# {
W ORK
ĠM oney
Sim ilar
ĠM ort
ict ions
st ock
Part y
pop up
ĠR ele
Ġhel per
Ġas semb
aa aa
st ation
Track er
Ġchair man
S al
Ġflo ating
ĠPh oenix
P DF
ump y
ĠGener ated
ĠA thlet
Ġre serve
he alth
B lob
et ric
u pper
Ġport folio
Vis ual
Ġm ice
ĠB ond
C a
h uman
Ġl ung
ĠB es
add Class
ĠG ill
Ġprom oted
ĠT i
con cat
Ġshould er
Ġp a
Ġdecl aration
ink s
ig o
ĠPH P
ĠM yst
ill ance
Ġà¤ ķ
Ġfl av
ĠTR UE
æ Ĺ
Det ector
Ġh unt
Ġreg ulatory
ĠExp ression
ĠVis it
I p
re ens
ur u
Has Been
Ġclass ified
Ġbl ame
ĠPl anning
Ex pect
Oper and
Ġquant ities
h h
T ON
Ġi OS
L ead
Ġprem ier
ĠEnt ity
Ġx si
ĠI gn
Ġre aches
19 39
ipp i
ĠU rban
Ġaccompan ied
Ġk w
ĠK ate
ĠIss ue
Ġres ident
le ading
ĠO wn
)-- (
Ġdes ert
ĠT ob
Sm all
Ġas c
ĠD ictionary
ip age
in formation
ĠG ary
Ġanal yst
Ġs ender
ĠF ather
Te am
J apan
ne ed
are ncy
tool bar
h box
spi racy
v art
ra ctions
Ġpl asma
get Class
Supp ress
ĠPol y
OL D
ari ance
Ġ" ${
d st
ĠKent ucky
ĠE RR
fore ach
Ġl ens
Ġener gies
Ġanim ated
il lo
C ategories
' ].
Ġa ug
Ġl ibraries
19 00
Hash Map
ĠN ash
App Compat
ĠK a
Ġsix th
list ener
Ġsuggest ing
S eq
in th
Ġhousehold s
Q ual
ĠE val
Ġover se
Ġres id
Ġclos ure
ĠA B
Ġv ibr
Ġdeterm ination
Ġen emies
Ġtim ing
Ġex clus
! (
ĠB os
Ġh ockey
L i
Ġenter prise
j or
ur se
Ġsub stance
Ġup grad
ĠLaw rence
Ġev ident
Ġregard ed
Ali as
it i
Ġret irement
ou rier
C trl
ĠN eg
Ġg olf
195 8
ĠOper a
Ġl os
ĠV M
Re ceived
Ġalign ment
Ġadapt ed
set ting
ĠH im
Ġrul ed
() ">
å ľ
Ġcoll ision
oth ers
Ġsc ream
ĠS ay
Ġless ons
Ġf er
Ġphot on
Ġple asure
Ġrom antic
ĠA le
Ġ ^{
W rap
ĠC ould
] </
Ġcho osing
Ġh ill
nof rame
N or
ant i
S afe
Ġal ien
pe ction
Ġvo ices
sub scribe
SP AN
Ġparticip ated
Ġfor um
Ġunivers ities
Ð¾Ð »
stats models
at able
p ref
id ge
c n
or ia
value Of
ĠB art
it Hub
ĠS cript
G reat
iss on
Pro of
Ġsp ac
Ġg aming
Menu Item
j ud
ĠUn fortunately
. ")
Ġsu ite
LA B
ĠE rr
19 48
VIE W
Ġpush ing
Ġstead y
SUC CESS
ĠBe ing
ĠÃ ł
g lob
lo cale
ĠMalays ia
id ad
ĠI an
ĠP ackage
Ġart ifact
ĠR ange
T emp
grad uate
Ġh ip
on ed
Ġb read
h ind
Ġde fer
c lock
ĠMO RE
ĠThe ory
Ġfund ed
S at
an try
N ONE
he ets
Ġlux ury
ĠM oscow
Ġnormal ized
cel ona
Ġdo i
ĠWIT HOUT
Ġpro c
Ġret rieve
Ġb om
des criptor
ĠInt elligence
ĠAd ams
ĠC lose
M ix
em en
ĠCon stant
Ġestablish ments
ens ities
W omen
Ġun lock
mat ches
om ething
m x
S ources
Ġin ches
us age
Ġrepresent atives
Ð ¹
path s
Ġrem oves
Ġed iting
195 6
L ow
Ġor b
M obile
ĠAg reement
qu estion
Ġdep loyment
ĠBe ck
f ar
Ġimp lications
__ ,
Ġsim p
Ġrespond ed
row Color
min ipage
ĠZ e
Ġ" )
ĠF red
code c
T ry
p d
ed ition
Ġcl othes
f actor
S ol
Ġder ive
Ġsimilar ly
Text View
in ject
item pty
P riority
ĠĠĠĠĠĠĠĠĠĠĠĠĠĠĠĠĠĠĠĠĠĠĠĠĠĠĠĠĠĠĠĠ ĠĠĠĠĠĠĠĠĠĠĠĠĠĠĠĠĠĠĠ
ĠJava Script
Ġhuman ity
Ch art
Ġexception s
Ġsure ly
um ption
fin ite
12 1
om itempty
Ġres idential
ĠS el
ĠB R
Ġ' ,
Ġm art
ĠF BI
ĠPal ace
Ġstay ed
erial ize
c ord
ĠM os
Ġcapt ain
HasBeen Set
Ġlog o
oc he
ĠF iction
Ġpat ent
ard ed
G over
Ġp urs
et o
ĠV ancouver
Ġvulner able
TE S
Ġs occer
Ġs wit
Ġindust ries
Ġess ay
ĠMag ic
F etch
n ik
Ġg raphics
L ondon
ap l
ĠGu y
Ġsp ots
Ġse cre
è ¡
Ġconf lic
2 30
H AND
Ġgather ed
Ġbur st
ext ensions
Ġrid ic
al gebra
Ġg onna
ro ck
lim ited
ĉĉĉĉĉĉĉĉ ĉĉĉĉ
Met ric
pay load
Ġmarg inal
! \
000 1
a ac
Rel ative
m atic
Ġdevelop ments
m ys
ĠE lection
Ġround s
vious ly
Pr ice
Ġr outer
ĠAl bum
ĠIn surance
st or
, .
ir i
get Attribute
Ġnob ody
ab a
Ġeng aging
Ġincred ibly
en o
Ġcomp aring
r ise
D one
ĠV o
Ġt uple
is o
ĠN elson
A MP
00 5
Ġp uzz
ol s
s ent
ĠLink ed
max cdn
chi at
u ates
Ġevery body
Ġdistrict s
lim inary
Ġvol umes
sp er
ĠU P
Ġsp oken
ĠN at
195 7
ĠK ind
ĠS pect
qu er
1 19
ous el
Tr igger
Ã ł
ĠF i
Ġsort ed
Ġphenomen on
cul ate
ĠSen ator
ĠB ou
if iable
ĠW right
ma ch
) *
Ġden oted
Ġmain stream
ĠO UT
lect ric
ĠPro duction
Ġclose st
RE NT
cast le
C ost
ĠAb b
" ])
Tool s
L at
ĠW W
11 3
Ġir re
er ious
Ġr anging
Ġattract ive
eb ook
19 55
$ :
ĠCol on
Ġcomput ers
s ources
he x
ate ful
ĠWork ing
P ixel
OTT OM
vent ory
ĠLic ensed
ah a
rid es
Ġexpand ing
t ility
Ġspeak s
pi pe
Ġven ue
################ ################
AC HE
ĠWar ren
ik h
ĠPl aces
ab e
b oth
ĠW ind
ra ham
ĠO d
Ġmount ains
ash ing
l ant
stat ement
ĠJust in
pr ice
a que
andid ate
b undle
Ġle an
` )
ĠCon nection
db c
SP AC
ĠB ed
D er
Look up
Ġspeak ers
Ġ======= =
Ġat omic
ĠS cal
ç »
d ating
ĠV ery
Ġde let
ĠAl bert
ĠR T
ĠCor p
ir ts
build ing
=" {{
elastic search
Ġst em
ro se
Ġl ip
pe g
per ature
ĠAnton io
FLA G
an ia
des cribe
ĠL uke
Spe ed
jack son
Ġdirect ors
Ġinter active
sequ ently
ĠJun ior
L com
Ðµ ÑĤ
Ġj ew
ĠP oll
Ġvolunte ers
Ġfrequ ent
Ġout line
f our
å Ľ
ĠKenn edy
EV ENT
Ġhe ter
v ature
Form er
h is
Ġ" [
ĠIndones ia
ĠF al
own ed
ĠP UBLIC
Ġas p
') ->
Ġimm un
Ġcrit ics
label s
om es
)) $
FA IL
ĠRes erve
ĠVer ify
is an
t iny
f w
ĠD im
per cent
n als
ond a
ĠBrook lyn
s ame
er k
RO UP
cam el
ĠT ar
ĠPol ish
Ġdi et
}{ |
Ġmet ab
Ġcar rier
ĠPro perties
Int ent
at om
iss ippi
put er
Ġâ Ĥ¬
: =
ĠPh arm
) }}
Ġre ception
IT LE
ĠResp ond
Ġproport ion
Ġrender ed
ĠOr leans
ain ers
Ġst abil
Ġback up
ĠA F
Al pha
D ITION
G a
em ale
enc il
Ġreview ed
ĠR ot
Ġconfig urations
Ġw rapper
5 000
ĠIllegal ArgumentException
ĠDr ug
Ġtransform ed
ĠAppend ix
Ġfle et
tik z
uet ooth
v ised
ad ies
ĠÐ ¸
f ailed
ĠDe cl
ĠS Y
Ġel der
: -
Ġpet ition
ĠU r
' },
ĠCont ract
ĠLead er
Ġph ases
ĠClass ic
ĠJim my
set Text
T or
fil ters
Ġflex ible
WA RE
ĠB egin
ĠN ag
Ġvari ance
V I
Ġb orrow
ĠTai wan
Ġfrequ encies
Ġh ung
Ġarch ive
Ġa str
ĠMur ray
\ /
Ġmeaning ful
Ġj ail
Ġre actions
ass ador
ash i
ĠB ishop
19 42
dd ie
I l
ĠNS String
Ġm esh
Ġp ione
Ġc oc
el ines
ADD ING
ĠG as
Ġbare ly
H y
12 2
Ġoccup ied
int o
on line
ĠCon sole
Ġident ifying
ĠI ce
Ġd ot
ĠI de
ĠS R
Ġl ucky
Ġrepl acing
gover nor
Ġmunicip al
ĠChall enge
ĠIn n
17 0
Ġmax imal
Vis it
ĠSt age
weg ian
Ġdecom position
ĠZ one
ĠBo ys
Ġcelebr ated
Ġnot ify
Ġkey board
Pe er
r and
Ġm ilit
Ġh ired
Ġlight ing
et c
Ġland ing
stream ing
Ġvis ibility
May be
Ġanalyz ed
com plet
ace ut
Ġover come
st ub
ĠD IS
ĠWal ter
Ġconsider able
ĠT X
19 17
p n
3 000
da pt
ref resh
Ġviol ation
^* $
flu id
ĠAgain st
b ling
Ġphotograph s
MA GE
Mod ified
rack et
N ON
B us
ST ART
Ġut ter
Ġmind s
Ġanalys es
Ġf o
Ġsurround ed
ĠF er
Set up
ĠC opy
Ġclaim ing
ĠIn fo
Ġhard ly
+ (
ĠSt even
igh bor
ĠOr th
ab ad
Mark er
s amples
Ġg otten
Ġconsist ently
ct ree
ĠSp ot
ĠW ould
t m
pro c
Ġo xygen
ĠCon vention
g mail
S K
Ġvac uum
Ġreal istic
Ġg it
ĠCol lect
Î »
C irc
az ard
Ñ Ĩ
t own
ĠR s
ĠMem ory
ĠF reedom
Ġdist urb
Read y
"/ ></
B ridge
Ġsub str
Ġl in
process or
M ail
c amp
T ip
red irect
Ġcommun icate
P rom
P ipeline
c ourse
el ing
ĠG ulf
ĠDub lin
) }_{
Ġindepend ently
oth y
l arg
ĠHistor ical
ĠF el
ĠK IND
Ch ina
i ance
Ġen code
Ġactiv ists
ĠM ail
ĠK ir
Oper ations
sub Nav
ĠJ O
ĠK am
ĠK night
ĠAd vis
F our
% "><
ape ut
AR CH
var s
ĠJ en
ĠG ray
ĠR ub
u ity
S un
Ġst ere
On line
Ġv e
Ġat om
in burgh
Ġtra ins
b ian
Test ing
Ġdep ression
N umer
Ġqu asi
RE QUEST
Ġsil ent
19 47
ĠWrit ing
vis it
P ADDING
ĠF le
Ġpoint ing
ri el
Feb ruary
n ate
man ifest
O cc
Ġphot ography
}\ ,\
Ġcl othing
Ġmet ers
\ ;
ex ecution
] ->
Form atter
irm ingham
ĠU tah
++ ++
F actor
ĠCamp bell
ĠC av
Ġsupp lies
ĠArab ia
D ry
Ġt err
ĠS ony
Ġun iqu
á »
f act
TableRow Color
S ocial
b ab
t ax
B reak
ut o
ĠPro file
Ġdesc end
N U
ĠNet flix
N I
ĠG un
end um
tr ivial
Ã ª
ĠS L
> .</
Ġcompar able
us ive
Ġcompl aint
at iv
Ġs ends
Ġpublish er
Ġk iss
ar ith
Ġpass age
Ġperform s
om ed
] ).
ĠT ower
ag netic
Ġsy ntax
ĠâĢ Ŀ
Ġoper ates
Ġcomp ensation
ĠC raig
Top ic
}} )
50 9
In struction
Ġb os
Ġs ons
ĠĠĠĠĠĠĠĠĠĠĠĠĠĠĠĠĠĠĠĠĠĠĠĠĠĠĠĠĠĠĠĠ ĠĠĠĠĠĠ
Ġne arest
S chool
19 41
ĠMe eting
ĠTechn ical
mut ex
ĠUn iverse
Sc an
G T
oc hem
ene ath
Ġep ic
t z
> `
__ ["
195 4
Ġreg ression
al ia
ĠH oll
ĠStew art
ĠDate Time
Ġc ust
Ã¼ r
Ġsp ell
Ġprom oting
Ġin comp
Ġtem ple
Ġextract ed
ric ane
n m
ĠG rid
d og
Ġsc reens
Ġexpl oring
> !
Pres ident
ĠEconom ics
pt o
Ġdoll ar
C lean
0000 0000
ath on
Ġn it
ĠS ym
G M
Ġadapt ation
ĠMuslim s
ĠB eng
ÃŃ a
Ġtum or
H ard
D im
ĠR A
Serial ization
Sh ift
m al
Fix ture
com par
op ter
u y
qu et
Ġrequ iring
Mod ifier
e or
Ġmay or
St age
Ġart istic
Sche me
Ġt ape
ĠDou glas
Ġt el
Ġsm oke
pro duction
ĠAv ailable
Reduce Action
ad ows
ĠR ap
Ġbet a
Ġdepend ency
Ġw elfare
A mazon
d ependencies
ĠT YPE
Un iform
Ļ Ĥ
se ctions
ud son
ĠR ender
In jection
m acro
ĠCre ative
Ġjud ges
100 00
ĠMod ule
P ing
mar shall
Pop up
" </
ĠB io
uer to
Ġch amber
i ating
ĠS ent
D ict
ob s
ĠBet ween
ĠC hel
Ġl ady
" ?>
chn ology
Access or
Ġmix ture
d ing
L ines
Ġe cosystem
trans late
Ġmanufact urer
cond itions
M o
ĠL GBT
Ġj uris
ĠS ud
Ġc aps
Ch unk
st orm
Ġins pect
m outh
ĠNot es
look ing
G F
ĠL anka
Dest roy
h base
g age
Ġprem ium
Ġcult ures
ĠS oul
Ġang ry
ograph ical
ĠS yn
Ġconv in
L ite
Ġjournal ists
CR IPT
Ġtim er
Ġres ort
t rain
ĠW ang
op les
th an
d td
other apy
Ġsnap shot
... "
Ġmar ine
19 46
ĠH unter
ĠStud ios
ts burgh
Ġdi agonal
Ġqu ot
L uc
ĠC zech
ĠRef orm
H am
Ġlocal ized
ĠB loom
Ġ} ).
AT URE
upload s
g un
ĠClin ical
draw able
Ġcampaign s
ĠB ag
ong s
on ing
Ġrun ner
Ġc ited
Ġmaintain ing
Ġf oo
struct ed
Ġfl ights
ĠK ids
Ġgrad uated
Ġp uls
sw er
Ġb ot
Ġnon linear
| }
get s
Ġdiam eter
Ġarrang ed
Ġform ing
script s
Ġst unning
trans l
Ġmod ification
sect s
Ġc yl
ĠS ET
ĠÐ º
+ -
Com ponents
Ġ" );
ep age
Ġevery day
ĠProf essional
ĠWIT H
Ġt ension
ĠPr imary
ij ing
FORM AT
ĠB AS
Com b
ĠWeek ly
Ġin ev
B re
C amp
ĠSt orm
Ġt weet
../../ ../
ocol ate
ĠCh ron
Ġprogress ive
Ġj e
bet ween
ID S
Ġwarm ing
ĠTurk ish
ĠH il
ĠE ST
ĠSE C
ĠTE ST
ĠB ORDER
Ġb other
ĠSpe ed
ĠR isk
âĢĿ )
Ġpe ers
Ġz oom
em ark
ĠO cc
Ġ$ ('#
aceut ical
ĠPat ri
n ail
ĠNe uro
lades h
ra ble
SH A
ĠLeg isl
é Ģ
Ġlov ely
ĠK az
Ġreg istry
p f
Ġmodel ing
ev a
Ġtra iler
ĠT oken
with out
sl ider
Ġguarant eed
Ġsol ving
i ov
ĠG ot
Ġdefault s
à¤ Ĥ
Ġabsor ption
G IN
bre aking
]( #
Ġact ively
re duce
ĠR and
Ġposs ession
] $.
ĠB L
k n
Ġo w
c lic
G old
Ġcap ability
to o
Ġdom ains
Ġf atal
decl are
ĠC elebr
ric ulum
ĠU g
Ġm ood
Ġdet ector
: /
Ġthreat ened
Ġrec ruit
ĠĠĠĠĠ Ċ
im ony
ĠTest s
enez uel
,\ \
Ġflow ers
iv an
H i
g ray
Ġphys ically
Ġrefer ring
or us
[ [
ass et
Ġimp ression
L aw
ĠAb d
Ġ ĉ
Ex it
Ġok ay
SS AGE
Ġview ing
M us
Ġcomp ound
W elcome
Ġpo em
: &
ann ah
19 43
our t
L IB
ĠB illy
ĠN i
Separ ator
ĠE state
Ġpl ug
ĠComm ons
P an
A ud
Ġcas ual
Ġs ust
ĠH unt
Ġch ances
Ġreflect s
est ab
Ġg allery
pt a
Ġ. =
Ġg all
pack et
ĠV eter
th a
}[ \
Ġprepar ing
ĠTh ailand
Ġmet all
Ġstraight forward
c x
se gment
File Path
Ġcelebr ation
Ġm ig
ĠC lean
Wh ich
Ġbr ut
] ),
b age
ĠInter view
ING S
gu ard
ubern etes
Ġn ick
Ġph ones
Ġat oms
W ARN
f uture
so ck
Ġ" #
ĠCh i
prep are
ME M
Ġd imensional
oper ative
it ely
d eveloper
met ric
ĠMat rix
ĠAdv anced
Ġdeterm ines
Ġcontrovers ial
block s
az ure
ate ur
Ġdeterm ining
Ġsurv iv
Ġmus cle
s ass
Ġf ur
Ï Ĥ
Ġlett ing
ĠF ollow
ah o
Ġtext s
Ġattempt ing
. (
Ġco operation
m f
Ġpro secut
Ġg ard
ĠEd ge
ĠMov ies
look up
ĠN ear
text ure
ĠCre ated
Ġathlet es
od ox
Bit map
N P
ĠP ap
Person al
] ['
og ue
2 10
c ref
195 2
ut t
[ <
sche mas
Ġ" ;
serv let
Ġstart up
FN GL
task s
Re place
Ġcy cles
Ġcomp ression
PAR AM
ab et
b ank
ĠM oz
arg v
Ġagric ultural
Ġdr ives
Ġwalk s
ĠG M
long rightarrow
E ST
Rad io
View Controller
Ass ignment
Ñ ĸ
Ġr anks
dis k
separ ator
Ġfasc inating
Ġp ow
Ġcomp iled
ss on
ĠM ach
SPAC ING
t ile
Ġas h
ract ed
Ġbut tons
ar ound
pack ages
th y
Ġh orses
Ġens uring
ĠHar vard
Ġappoint ment
Ġd y
ĠC ache
Pl us
Function s
Ġr ally
S uch
r ans
ĠS ER
" }
P ending
ac er
ĠH aving
ĠTele vision
ĠJ u
Ġre cre
Ġl l
ed a
Ġemail s
Ġs urre
IT H
se ed
opt im
Ġpre val
sh ops
ody nam
ãģ ®
l ua
en z
Ġt ens
Ġref lected
ĠOper ations
Ġequ ity
Ġ# >!
ĠR ules
ĠMor ris
t one
work ing
ĠSimilar ly
Ġthere by
Ġprot otype
du ces
ĠNot ice
Ġrecover ed
log ical
RO OT
ĠDev ice
ĠP ra
d ed
> ../
sc an
Ġr c
ĠHill ary
C AP
ĠSw iss
à¥ Ģ
Ġprom ising
Y eah
Ġaccept able
ĠArch ive
ĠMet ro
ĠStruct ure
W alk
Ġlisten ers
inc ial
} ~
Ġimpact s
Ġlik elihood
H ot
IRT UAL
ĠOr ange
xi ety
ou p
net t
attr s
Pay ment
ĠÎ ¼
ĠðŁ ĺ
Named Cell
Ġg ray
ĠP ope
uk i
Ġher oes
ĠDis play
Ġn ose
Ġemb edding
Ï ħ
Ġexpect ation
âĶ Ģ
Ġprov isions
Ġj ury
ĠR andom
Ġlook up
pp y
Ġorder ing
vis ibility
ĠM ET
Ġtalent ed
bo ards
Par cel
ĠC leveland
ib ling
195 3
\ }$.
Ġprom ised
g ather
Ġsecret ary
Ġsynd rome
is ot
Ġstream s
ĠB JP
ĠCh rome
y ll
Ġc rystal
19 49
An chor
ug ht
Rep ly
IC S
ĠYO U
Ġob st
Ġsepar ately
ĠWay ne
usal em
over y
ĠAtt ribute
Â «
Ġob server
cer pt
ĠColl ins
Ġel ite
ĠChrist ians
p ending
â Ĥ¬
j ournal
og ical
Trans lation
um ing
Ġ ì
o is
on z
Ġmanufact urers
Ġs phere
Ġsh orter
Ġc p
Ġhead quarters
ĠTH IS
Ġvis itor
ĠF riends
x sd
atab ases
H om
ĠK rist
indu ced
ĠIn novation
member NameLink
sub string
Ġfail ing
F rench
ĠP si
Ent ries
ĠSt re
V EL
Un ique
ĠH R
Ġexam ined
sec ution
ĠA my
Complet ion
ĠU SE
Ġrepeated ly
S rc
Ġgener ates
Ġhar vest
Ġd uties
ĠTh row
ĠÐ ´
Cred entials
Ġprom ises
hel lo
over flow
we alth
Ġview ers
ĠM is
Ġwant ing
ĉĉ čĊ
ĠO DI
(" .
ĠIm pro
cor rect
ri bs
set Attribute
Tr ust
ĠJ oy
Ġmer ged
phant om
append Child
ĠN eb
ro gen
ĠĠĠĠĠĠĠĠĠĠĠĠĠĠĠĠĠĠĠĠĠĠĠĠĠĠĠĠĠĠĠĠ ĠĠĠĠĠĠĠĠ
ĠArgent ina
Ġapprox imate
C SS
Ġdist ances
Ġsusp ended
ĠConnect icut
d ag
Ġburn ing
aw t
ĠMar c
) ?
ymmet ry
ĠR ole
}) }
empty set
g ow
ĠPort land
ĠLiter ature
ĠTh or
ĠB aker
ab ul
Ġveter an
ĠJenn ifer
ĠG ive
Ġhit ting
Ġroy al
aught ers
ĠMod al
Ġb ron
ĠC er
Ġaffect s
ĠSte el
ĠProt ocol
Ġsh ops
ĠR achel
ĠChar acter
ec ycle
Ġconfig ure
ch rome
ancell ationToken
Filter Database
I ll
Ġemer ged
12 9
ĠInitial ize
Ġin coming
Ġseek s
( `
ĠDep uty
S il
p ipeline
Ġt ies
ent ries
D a
Ġincorpor ated
Ġw avelength
Ġoccasion ally
Ġcir cles
; %
Ġl ifestyle
Ġcor por
sc opic
ĠS F
ĠAnt i
Ġs id
Ġc rypt
it ual
Ġtrans itions
car bon
E LEMENT
Ġeth nic
Ġcar ries
ĠSt ev
Array s
G LE
Ġexclus ively
J ul
ud ge
Ġvill ages
ĠFant asy
}} .
Data Source
Ġwild life
Ġ< ?
Ġalloc ated
Ġcirc ular
ĠL ocation
plement ed
ĠOl iver
Ġintr ig
Ù Ĭ
ĠC ov
Ġsub group
P eter
ĠCELL PADDING
] <
d elegate
ĠCELL SPACING
Associ ation
V P
um ed
Ġinter vals
R ound
C over
All ow
ad apter
l av
Ġdef ence
af ka
Ġsy mp
Ġemph asis
tog ether
U ntil
Ġbeg un
Ġr iding
script style
Z oom
Ġs ig
T M
17 5
Ġal arm
ĠFor ces
ĠJ azz
Ġhospit als
b rew
Ġ// !
Ġp ipe
Ġarrang ement
man y
respons ive
ĠM om
Ġaff airs
Ġroll ing
/ #
Ġstri king
om eter
Ġincre ment
Conf irm
Ġreported ly
Ġadvert is
ĠSever al
ĠW ant
RE Q
ed ly
Ġres idence
Az ure
ĠObserv able
ĠS quad
pl aced
` :
ĠRem arks
Ġm ild
Ġthe ater
reg istry
ĠB ound
Ġis ot
ĠDC HECK
i ota
Ø ³
Ġd ashed
Im ages
W ords
z ens
tr ansp
ĠF ern
Ġ" +
B log
z oom
ĠRE AD
Ġt ub
r h
om i
Ġaud iences
f und
ul u
Ġfall en
Ġlabor atory
Ġf itted
process ing
if ice
ey er
Ġeffect iveness
care t
ĠStat istics
Ġt ick
Ġscr atch
ri ors
Ġab road
Ġan ger
: %
sh ore
work er
- ">
Ġte eth
Ġfluct uations
in itions
ĠK o
w ik
Ġde ck
Ġen orm
ĠP el
ĠR acing
ĠL ot
al one
C N
Care er
th al
ãĥ ¼
ĠJ os
Ġgre y
\ )
Ġs el
Ass ign
="@ +
Ġansw ered
ro b
Ġ/ ><
sm art
b ecause
ens on
Status Code
Ġseem ingly
ĠG round
Ġsil ence
Ġenthus i
job s
Ġicon ic
Ġhe x
D ao
S ig
d ensity
L and
ĠT oy
Ġcor rupt
Ġperiod ic
Java Script
un ate
p k
H int
Ġaccomp any
Ġcomp ilation
Ġsh apes
Ġdistingu ish
Ġgrow s
f aster
Ġred shift
ĠBelg ium
n est
ĠFre der
Dest ination
Ġbelief s
te le
Ġj unior
Ġl iv
Ġis lands
Ġcond em
Al t
to ctree
Ġcomp ile
H P
Ġd ip
Icon Error
Ġiniti atives
Ġor ange
cover ed
inal s
Ġde prec
Ġform ats
par allel
Ġenc ryption
ĠP eters
inc ipal
Ġneigh bors
, {\
C ookie
}} _{\
Ġlo ose
order ed
Ġem otions
c losed
ĠS olar
ĠNew ton
ĠPhys ics
ĠC itiz
ĠFrank lin
ĠL am
Ġtack le
Ġb ases
Ġatt ach
Sur face
q q
Ġn ested
Ġrandom ly
Ġpost ing
Ġbon us
Ġhor izon
Ġch ip
cs v
Ġ( #
math op
ĠEvery thing
Ġhand les
="../ _
ĠR y
ĠSol utions
Â Ģ
Ġs ectors
00 2
Ġexam ination
ynam ics
ĠSy ntax
M ajor
go og
ĠRob in
Ġvess el
ĠQu ant
ph oto
ĠMarg aret
u pt
ĠUnivers al
e ing
Ġsp ir
ex clude
all ing
p aces
Ġob l
J O
h ai
Ġrest art
ac co
ĠBet ter
Ġemp ower
Ġob sc
re ck
ĠMiss issippi
ĠS ometimes
ĠMar ie
Ġnom inated
Ġcool ing
ĠB oot
ĠV ent
Ġtri ple
ĠDak ota
ĠH end
Ġgr ants
Ġdep ict
Ġsh ipping
ĠUS B
ĠPr incess
ĠL anc
Ġextra ordinary
uff icient
ĠDet ails
Ġe leg
Ġtop ological
Lower Case
R ay
Comp are
Ġsucceed ed
og onal
the ad
back end
Ġpurs ue
Ġp our
dr iven
Ġ um
Ġback ing
Ġcl ause
à¤ ¨
ĠBar celona
ĠSam uel
ĠC ultural
Å Ł
Ġmyst erious
13 4
Ġvol tage
Ġfoot age
ul ent
Ġsl ave
Reg istration
Ġafford able
Sh adow
pos ing
Ġspec ification
20 2
Ġdifferent ly
ĠAut om
in ery
ĠF ixed
big l
C V
u art
Ġes c
Per cent
Ġjud gment
ĠT an
,\ ,\
Art icle
Second s
br as
ĠK ath
Ġab ilities
Ġp ole
Ġ$ ,
Ġph osph
ĠBr ig
Ġhydro gen
Ġcred its
V IRTUAL
ers et
Struct ure
ĠL ost
Ġexception al
IconError Encoded
Act ual
Ġstrugg ling
CO UNT
Ref resh
ĠP ictures
ĠA WS
ĠCol lections
Trans fer
initial ize
Ġrender ing
att ach
å ¼
o ft
ĠC ategory
ĠS eg
ĠN an
v ation
Ġun ve
ĠF ro
S ets
Ġatt ending
âĢ¦ âĢĿ
N ING
19 0
em a
com ments
ĠChar lotte
ps y
ĠRequ ired
12 6
Ġar row
Ġdam aged
M AC
ĠC ass
spect or
Ġsum m
Ġpy thon
ĠLear n
ĠCamp us
Ġout door
ĠA verage
ĠAust ria
Ġend if
ĠG ET
ĠBalt imore
ĠD ie
195 1
Ġw is
Ġsh ame
Sub scription
ĠCustom er
Ġmoder ate
Ġdo zen
EX PORT
] $,
ĠCl ar
' =>
H I
he ld
Ġvent ure
sh arp
Ġpopular ity
ĠV A
ĠB rew
Ġinf lation
Ġbreak fast
Ġgeneral ized
14 7
H ence
Ġf erm
Ġdi agnostic
ĠP i
A UTH
ĠS S
ĠHol id
b uffers
or ange
Ġconf used
ra h
s chool
ĠS amsung
iz za
ĠMit chell
Ñ ħ
ib bean
Ġarray s
ĠThe ater
U Int
ve e
ĠCam eron
iz ar
Ġharm ony
w ire
Ġste am
Ġrat ings
Ġp ounds
ĠT it
int endo
Ġcre am
ĠParam eters
Ġde put
cam era
k ar
For ce
ĠFil ter
}} ^{\
14 5
) &
F ill
ĠC le
Act or
Ġp ill
Ġch arts
16 8
ĠR ank
S ent
Î ¼
Path s
Ġlab our
Mult iple
ĠA y
ĠMin or
ĠUp dated
Ġal location
br anch
Ġgraph ic
cp u
Vis itor
ĠU TC
iss ance
U int
Ġk iller
ĠDef inition
Ġa ux
LO B
] {\
n able
ĠAl aska
ĠPark er
Ġ( `
ass ment
over lay
Ġproject ed
hat tan
Ġd ying
Ġb rew
Ġ* ,
ĠSh op
Ġposs ibilities
Ġth irty
ĠM ade
cript ors
Re ceive
Ġref resh
Mill is
27 0
act ers
se p
ĠP ick
t ot
Ġpos it
ĠT un
Ġimm une
ĠVal ues
Ġd ub
ĠSy mbol
och astic
ĠBro thers
m ust
ĠSus an
Ġwind s
g ender
ul er
ä¸ Ń
m ime
res olution
ĠSt yle
Ġp ulse
Ġwork shop
ĠSh ah
H ex
ĠKen ya
Ġencounter ed
F acebook
pect ives
Ġst adium
MS G
CM D
c art
Ġrac ist
M ass
O s
res pect
ĠPhil osoph
Ġc od
Ġg ains
IN IT
St e
Ġinterpret ed
Ġre lying
Warn ings
$ &
ut enant
Ġs lope
ĠB att
in ance
Ġtw elve
ĠIran ian
Direct or
OB JECT
; ,
Ġrecon struction
FUN CTION
g row
ar ms
lo on
19 18
An notations
ĠImp act
P adding
Ġz ip
big r
Ġen semble
ĠEv ans
) }_
Ġcomp eting
Ġpain tings
TR A
Ġwor ried
Ġdev iation
fav icon
ĠT ru
Ġsusp ension
B ill
Ġr hs
Ġwhere in
Ġagre ements
h p
ĠP ri
isecond s
T l
mod ifier
ĠAdd ed
to Equal
Ġdis cret
Ġc url
trans fer
Ġplace ment
* >(
ĠR ing
Ġt ap
L ove
Ġel li
Ġf oss
ÂĢ Â
$ };
ĠString Builder
Ġfin ishing
× Ķ
Ġrank ing
ĠF M
Ġtravel ing
19 38
p read
Ġtun nel
as ures
More over
Ġalleg ations
Ġex pr
for ced
Ġabund ance
Ġb ab
ens ively
ĠPh one
99 9
STR UCT
Ġrep lied
bor ough
we ak
ig ion
Ġparticip ating
Ġoper a
ĠProduct s
Ġconvin ced
con scious
nos cript
$ _{
f requency
ĠU l
ane an
ĠForm at
7 50
ĠP un
ol utions
Ġt ile
() [
u ent
Ġco in
ab i
m ine
Ġinter ference
fo od
y our
Ġn ights
Ġcon fer
und les
="# "
M a
Ġag gressive
Ġch ains
sub scription
ĠC I
15 5
Ġmet res
default s
Ġs li
ĠFl ash
Ġor al
add er
Ġsw ing
ĠPract ice
W P
ĠU V
Ġsol ved
Co ord
Ġaccess ed
ĠG ov
ĠB OTTOM
Ġre vision
ĠBar bara
r ust
Ġconven ience
ĠR aw
Ġpower ed
Ġt ons
'] ))
gener ation
ot ton
Ġconsist ency
che m
ĠG host
dir name
Ġlaw suit
Att empt
ĠBen jamin
ĉĉ Ġ
Ġex ec
Ġgenu ine
33 3
St rip
ĠC arn
am ination
Ġtag ged
m other
ĠA ve
Ġpre view
ion ic
Ġd s
ist le
Ġcloud s
Ġdev ast
ĠDet erm
Ġc ul
fil er
Ġem it
Ð¾ ÑĢ
$ {\
=- =-
Fr ank
d ataset
Ä «
Rich ard
Ġ\ &
Ġun n
Ġblock ed
ĠEd inburgh
S ever
Ġt ube
amp ed
ĠN BC
ĠFac ulty
Ġin aug
g ui
Ġtouch down
s creens
EN C
ĠDe al
Ġcitiz en
Ġhand ed
an on
() ]
Ġf ingers
ĠG race
Ġrecip ient
Ġsub mission
ĠF ed
Ġ" _
ĠW R
Ġmolec ules
Ġinter pol
Ġb lob
Ġc ous
Ġens ures
Ġsole ly
AR GET
ell ers
ĠH erm
Load ed
ĠQueens land
ER Y
ps hire
ĠSc i
Ġdev oted
ern ess
ĠN A
f ers
C apture
Ġpropos als
app s
ribut or
Ġdis pute
Ġbuild s
AB ILITY
K ernel
onom ous
Ġgr an
TE X
16 9
Ġind irect
Ġ Ã©
Ġf ate
b ounds
h ole
Ġs ake
ith metic
Ġto String
Ġsynt hetic
am ilies
Ġinter rupt
Ġlumin osity
s it
ĠM all
Us ed
ĠW onder
Ġgold en
Ġprotest s
ue z
ĠCh ile
Ġd war
Ġpo ison
ĠF inn
Ġobtain ing
ĠCom plex
ver e
es cape
Ġs hed
Ġtour ism
Dec oder
ĠL aura
Ġdat etime
ĠR ES
pro f
ann es
ĠC atalog
19 36
-------------------------------- ----------------
Ġprim itive
eth yl
WR ITE
å ¯
Ġ} {
ĠCh ampions
. ),
Ġar ise
M or
p ic
ĠCo al
M esh
pre view
ĠBar ry
] =
Ġsit uated
Ġgather ing
met rics
ĠDen ver
nc ient
iber nate
Ġearth qu
Ġreal m
Ġminor ity
Off ice
Ġfacilit ate
ĠHe at
me asure
Ġst rain
un iform
CH AN
ĠExper ience
amp a
Fil m
S PE
Ġext ending
ĠDirect ory
X i
ex act
ĠG olf
Ġs ail
G erman
Ġt u
Ġf ut
ĠCon struction
Ġam id
Ġd rew
ategor ized
gr pc
ĠR PC
Ġp up
__ .
pub lished
int age
Ġtempor al
19 19
ĠV oice
Ġper pet
last ic
h on
__ _
Ġcons ensus
ĠFil ms
ect ive
ipp et
ION S
T ech
d iction
Ġfor cing
rain ian
? </
ĠM aur
ever y
ĠPortug al
Ġcorre ctions
, </
ĠTo o
Ġups et
ĠF alls
Ge orge
Ġg race
non atomic
Ġt rem
Ġsynchron ized
Ġpaint ed
ĠM erc
Ġelect rons
ĠCh amber
m art
Ġcur vature
ĠStat ement
L im
ĠF riend
Ġimplement ing
in ely
Ġc ry
Ġsu pers
Ġsaf ely
Ġqu oted
du p
Ġbar rier
Ġbut ter
13 6
ĠMor ning
Ġaccept ance
ort ex
urch ase
Ġd yn
] *
Al gorithm
} "/>
Ġfit ness
Ġoppon ent
hash Code
ĠQ ual
ĠTh ink
L T
ion ed
Ġdeliver ing
NG TH
Ġadmin ister
ĠLouis iana
B road
ĠP ad
/ '
Ġprov es
ĠC rown
ĠL yn
ĠQ uality
add le
ch t
ĠAl b
ĠGL int
= .
bre v
SER VER
Stat istics
Ġloc ale
Ġ/*! <
Ch ris
}) =
Ġ\ ]
! =
Ġdecre ased
ĠE R
ĠF ine
Ġang les
ot ypes
Ġb ills
ĠMe anwhile
SD K
ides pread
r v
ĠL arry
Ġthrow ing
Ġ} ),
) >
Ġmeas uring
ertific ates
ĠBase ball
Vis ibility
Ġl iver
Ġintrodu cing
Ġderiv atives
aut ore
k ed
De ath
0 100
av ery
Ġb eneath
ĠC OP
Ġpolar ization
he ta
ind a
vert ed
ĠIndust rial
K ing
Ġaltern ate
Ġmut ual
ĠN ar
Ġan onymous
30 4
Ġdi abetes
first row
Ġc rown
ĠS equ
ĠM enu
op acity
Ġelement ary
Ġcur ious
Ġac ute
C y
ĠB irmingham
se en
s al
Ġfe as
K G
ĠA x
Ġal i
+ "
ig uous
ĠF ried
ref lect
Ġadv ers
s ym
ĠMov ement
ind ices
ug ar
INST ANCE
19 14
ne utral
ĠDen mark
ĠCON DITION
Ġconvers ations
Ġexp enses
Check ed
} >
pan ic
styles heets
ĠL ower
art icles
ĠBat man
ĠF ame
sign al
@ {
Ġh unting
ĠBl ues
ant on
R IGHT
Ġpri est
cons ider
Ġhe lic
>: ]<
Ð¸ ÑĤ
ĠEnter prise
if le
ĠInvest ment
as ide
Ġre ign
ex isting
olog ically
Ġunder ground
c ategories
Ġth rew
FT WARE
ĠEmp loy
em ption
Ġuncertain ties
ĠV el
Ġwarn ed
Own Property
Ġless on
ĠS ad
ret val
Ġsub tle
Exp and
R outer
N orm
itt ers
Ġsoph istic
Ġign or
ĠM aj
Back end
Ġint elligent
ĠRe ports
Ġann oy
N ER
Ġrest ored
U pper
Ð ±
R oom
ĠC ut
ĠJer usalem
EE E
UT C
s yn
Ġpre vention
Ġin cl
ge ometry
19 37
ĠK ash
Constraint s
k ov
Ġg ross
ĠCol omb
Ġh ire
ĠCom ics
ĠSe an
ĠP rep
Ġn erv
Ġasympt otic
App ly
ĠB aby
Part ial
Ġ( <
hy per
ĠL isa
Ġ// -->
Int Literal
Ġlabel ed
p riority
sp ark
S UP
ul o
:: $
ĠC PU
ĠGl as
av an
if rame
us c
ĠRE G
Ġp ad
ĠA w
Scal ar
F ar
ick y
G raphics
P icker
ĠBang ladesh
us hes
ues e
Ġcall er
ĠTr uth
ĠOr chestra
Ġcal m
? (
ak u
local s
it ious
Ġhigh way
F un
Ġres ign
ĠC old
Ġbelong ing
ah oo
g ie
IN DEX
Ġdelay ed
For ward
Ġsurv ived
TEXT URE
F ake
d frac
Ġrecord ings
ĠF E
' ):
Ġim per
Ġspecial ist
ĠS K
list ed
c ached
Pro c
ĠStr ategy
Ġt s
Ġme al
Ġsm allest
d ump
Ġre semb
}) ^
Ġso ck
H ER
Mer ge
n x
ĠS SL
ĠC atal
ĠJ oin
Ġin cent
ĠW ikipedia
faster xml
ĠB irth
Ġtrans it
---- ---
ĠRem ember
Ġhost ing
it ol
ract or
Ġrec ycl
Ġtw ist
ĠD ra
PL ICATION
F ast
in ion
air y
^* \
ĠH at
Ġwh ites
ah n
'' '
}} }\
F ROM
ĠL ux
ant ics
c py
cons istent
Ġsto pping
L R
e conom
em in
ĠA rena
ĠM ack
ĠF R
Complet ed
Ġst olen
Ġswim ming
Ġcoach ing
do es
Ġvar ied
ĠS ymfony
ĠJ our
Ġfl avor
ĠAz ure
ĠG A
Ġr m
ĠKe ith
Ġev olved
Ġsp arse
iph eral
Ġprotect ing
Ġass ass
Ġinn ocent
g iven
Ġarrang ements
ĠP rad
ud o
U UID
Ġt ired
Ġep id
pe er
Ġinv asion
ENT S
Meta Data
S ound
per mission
ĠC rit
Ġscript s
v ect
or o
Ġdecre ases
Ġac oustic
Ġf ert
Ġf ract
ĠD at
pre ter
FFFF FF
ĠArt ist
t b
Ġm ature
Ġbench mark
om on
parent Node
Ġsch olars
Ġt ent
ĠN am
Ġmusic ian
F RAME
ĠS even
Back up
ĠLead ership
Ġingred ients
mod ified
Ġep och
ĠR io
iv ic
Ġv ec
Ġinter faces
Sc ott
Ġl on
Ġl ap
ool s
as ions
ĠD evelop
ĠE SP
Ġneg lig
Ġt f
id i
ol ine
Ġm ere
Ġpro l
ĠF err
ĠWith in
ĠP D
S B
hab ilit
pro blem
Ġconscious ness
Ġcom ics
Ġcontribut ing
Ġt une
ĠC HECK
Can vas
Ġdis orders
uff le
Rad ius
Ġa qu
ĠF actory
Ġvol can
AA AA
Ġver ification
Ġres idual
="# ">
Ġcour tesy
Ġrock s
Ġc inema
ĠK ay
ic he
ĠAr men
Ġb orders
Ġengine ers
2 25
u its
Ġear liest
Listen ers
Ġg ig
Ġport s
Ġp arks
ass y
Ġpsych ological
ĠMaterial s
Ġaggreg ate
Ġun s
t ake
TO OL
ch ing
M el
Ġcorrespond ence
Ġcompos ite
ĠĠĠĠĠĠĠĠ čĊ
rep resent
ĠA aron
t frac
Ġa z
Ġacknow ledge
ĠF light
ĠH AL
ĠMur phy
}_{ -
Ġgrav itational
ĠCons umer
ĠY u
2 60
size of
Ġlong est
ĠJ uan
Ġind ent
N ever
---- -
Ġtr unc
ai ro
Âł Âł
Ġm ast
Ġdiv is
Ġt ear
ÑĢ Ðµ
ow ing
Pay load
Ġactiv ist
fig ures
ĠMad rid
Ġcou rage
B ur
ĠÐ ¾
ĠStr ateg
ĠMont real
Ġembod iment
Ġgrad ually
ĠN ep
B LOCK
Ġnews letter
Ġn od
det erm
Author ization
act iv
ob i
pos er
ang les
Ġoppon ents
}} =
ĠĠĠĠĠĠĠĠĠĠĠĠĠĠĠĠĠĠĠĠĠĠĠĠĠĠĠĠĠĠĠĠ ĠĠĠĠĠĠĠĠĠ
Ġimportant ly
rom agnetic
Ġex cluded
Ġtrigger ed
Ġf iring
ĠC op
ĠP uerto
ĠLink s
ĠTog ether
Ġj oke
miss ing
Ġinvest ments
13 2
rep ly
H on
Mod al
Ġto gg
Ġval ley
)) \
N OS
Ġaddress ing
ĠV ision
Ġgr ateful
Writ ten
Ġwond ering
in ates
Ġg al
Ġstar ring
ge bras
Ġdeploy ed
ĠP ain
ĠAdd itional
en ue
Ġvirt ually
Ref lection
Ġsh oes
in verse
or ate
16 5
G l
ass ing
ili ary
Ġo ct
Ġsu pre
r x
part ition
M ad
Ġcond itional
; ]
Ġforg otten
i q
Ġl obby
Ġexist ed
duc ible
//////////////////////////////// ////////////////////////////////
36 5
ĠNor wegian
ĠK el
Fil ms
Ġmag ical
Ġcon clusions
ag g
ĠG C
Ġstay ing
Ġegg s
L arge
Ex cel
Ġrat ios
ĠGi ants
window s
Call ed
_ [
ĠS ure
au er
land o
osp el
2 11
Ġcom ed
akes pe
rist ol
ĠCONDITION S
ĠF ont
Ġdiff usion
ĠTurn er
Ġinj ection
Ġinvestig ations
po i
Ġdir ty
Ġglob ally
Ġmort ality
( []
Ã ´
Ġcross ed
ĠExt ension
Ind ia
Ġt ends
Ġbank ing
post s
CL U
ĠTechn ologies
ĠU nd
t uple
ac re
Ġhighlight ed
ĠPos ition
Ġscient ist
Ġsecre ts
ĠGL enum
ĠMet al
l ists
Ġm arch
Ġprint ing
Valid ate
an aly
ac les
ograph er
Fr ont
F oo
Ġ"- //
ĠHawai i
Ġc rop
Request s
valid ator
ef e
Ġwarn ings
ĠP in
× ª
ĠTr ad
ĠLiber al
Ġb alls
ĠB right
ut ers
ĠðŁ ĻĤ
custom er
Ġf t
R ank
Europe an
æ ī
Ġs que
Ġqu otes
Ġste pped
Ġpure ly
ew ise
Sl ot
Lem ma
13 7
ĠPit tsburgh
Ġm as
ac l
ĠCom b
ira ble
L INK
sh ots
A h
Ġapp ar
Ġent ang
Ġqu ark
C ert
Ġsm oking
Ġdepart ure
ĠS ustain
Ġeduc ated
Equal To
Ġdiscrim ination
"> &#
Mar shall
Stack Trace
art z
ĠO THER
\! \
ĠMain e
y aml
ĠS TR
20 4
D imension
H ey
med skip
ĠBe ijing
io x
vari ables
T ur
Ġl azy
to LowerCase
Ġinitial ized
ĠGuard ian
Ġ' $
ĠG ay
c op
Ġm amm
et e
Ġpl ots
Def ined
ill ery
ond s
Ġge ometric
bor ne
Ġpoll ution
G uid
sp ired
==== =
Ġhum or
Ġinhab it
t bl
ĠD ig
Ġdet er
Add itional
Ġdiscuss ing
ĠM unicip
Ġen abling
Su ite
az ines
Ġcoupl es
ĠEx hib
ĠJ i
Ġs ink
I FI
15 2
Ġdro ve
Ġm os
Ġhe m
Ġch urches
ine a
M ont
ut ing
dem o
Ġpart ly
Ġra pe
H idden
Ġh ierarchy
\ ":
Ġw orship
ĠP anel
m icrosoft
ĠInter est
block quote
Ġsh r
ĠP ow
Ġvolunte er
ĠT yp
is i
V S
------------ -
ĠF ab
Ġcoast al
Ġvari ants
Ġsequ el
19 10
ĠO scar
Ġtele phone
sp l
Ġimp ly
ĠM ove
Ġexc it
P ages
G ateway
Ġd ated
olec ular
Lin q
Ġsome body
ĠC ensus
ĠSt ra
ĠL ED
Ġche ese
ĠC BS
ma jor
Ġcomb ining
prec ision
Ñ Ī
P rep
ME SSAGE
emp loy
en ario
Ġtop ology
Ġconj ug
ĠRober ts
s and
ĠP ART
MA G
M iddle
res olved
ĠY am
ik o
ä¸ Ģ
fl ux
urre nc
ĠZ end
> )</
Ġjust ify
uck er
Ġalleged ly
ĠJer ry
{ },
Dis abled
Ġp c
ĠM asters
Ġ _{\
RE AM
CE PT
we ather
B ob
Ġse eds
fe ctions
ĠAlber ta
ĠU pon
(" -
Ġcon spiracy
Ġsh a
Ġconf usion
Pr imitive
UT O
ĠBAS IS
st roke
Ġcompl aints
ress ing
ri en
sl ot
ĠNE W
Ġp ose
Ġc c
ind ependent
h int
Sc heduler
Fore ign
ĠDemocr at
L o
ĠCl aim
Ġagric ulture
Ġobject ives
oc o
St ation
Al ignment
uss ia
ĠD eg
Ġbul let
Ġforest s
ĠT ig
Ġim posed
ĠU pper
atri ate
h arm
Ġequival ence
Appe arance
NotFound Exception
Th omas
Ch apter
ĠCon struct
Ġver ified
Ġob s
Ġcr icket
å Į
Ġt ropical
Ġst ating
ot er
Sub scribe
Ġm apped
ext ype
help ers
Ġa est
Ġodd s
L ab
over ride
ĠN ad
g al
ac ion
... ]
ĠI MP
Ġcount ing
Ġf ed
ro d
Ġindic ator
W ed
n ia
Ret ry
Ġfound ing
Ġd w
Ġsens ors
Ġremain der
19 35
Ġbo ards
ĠLabor atory
ĠCr iminal
ĠShar ma
ou pl
Ġf usion
k le
ĠF eed
Ġadjust ed
Af ric
d v
ĠP AR
H ouse
ĠB our
Ġdynam ical
ĠAg ent
ĠK u
equ ations
Ġpseud o
ĠE L
Ġform ulation
E mb
Ġw idespread
o j
Ġsav ings
down arrow
akespe are
Ġ(! (
con c
Ġdifficult ies
Ġback ed
config ure
je ctions
ĠCont ainer
Ph ase
z b
ect ure
Ġvess els
Ġsuggest ions
Ġis omorphism
Ġd ancing
Ġh anging
ç ½
ĠA bs
Fil ed
Ġproport ional
IC AL
Ġstri kes
ĠT rain
Ġap olog
ĠJ oint
Ġsh ield
am med
Ġloc als
Ġfollow ers
dist ribution
F rag
Ġan ten
ĠSet tings
Ġspect acular
Be havior
Ġaccount ing
Ġtreat ments
L ess
Ġdig it
ew ay
as ia
Ġpres erved
Ġenjoy ing
Ġoverl ap
Ġp reference
ov en
ĠDis c
ĠV enezuel
ĠTransport ation
d evelop
ĠLet ter
Ġacqu ire
k now
ĠP ic
unit Pattern
Ġexplo red
Ġking dom
Ġinflu ences
?? ??
ĠS oph
Ġexha ust
13 1
H ide
Ġdes ktop
ol ate
MA IN
Ġinteg ers
un stable
Ġpick s
> /
Lear n
serial ize
å º
Th reshold
ĠF at
ĠUS D
Ġsh ore
Ġchem istry
De ep
Ġsim ulated
Ġlegend ary
Ġsmart phone
PRE FIX
Ġwe igh
ĠAssoci ate
end region
ĠReg iment
Ġspec ifies
Ġre named
D igital
ogen ic
s ender
ĠA ld
Ġg lobe
Ġformer ly
ĠMat hematics
Ġatt ributed
La unch
Ġst om
Ġbe ings
ĠCru z
Ġaug ment
it ime
S IGN
dest ination
Ġdro ps
Ġs its
User name
nit method
Ġnom ination
Ġmiss ions
<? >
che str
g ly
Ġconcent rations
Ġexpect ing
Gener ate
R ock
oth s
app ropri
ĠY ang
Ã§ Ã£o
19 33
Ġentreprene ur
add y
Ġw ra
E r
Ġc ig
14 3
Ġ urg
ial s
Ġdec ides
ĠR oot
LE N
conf irm
T X
ĠO t
Ġdis g
place holder
Ġrac ism
n io
W O
ĠSpr ings
Ġsp rint
m el
NAME SPACE
Pre view
r aska
Ġcogn itive
Ġnot ing
com fort
Ġrel ate
b matrix
im ag
orient ed
Ġdecl ined
ĠProgram s
m usic
Ġmist akes
L ONG
W D
Ġter rit
dec oration
ust ering
mark er
Tag ged
ĠBr anch
Ġsurve illance
\ }\
ĠM ason
Ġtox ic
at ype
Ġimp ressed
ĠCommission er
Ġpregn ancy
ĠC ONT
P ref
ĠS creen
ok u
ĠP oss
sl f
w oman
ke ley
Ġ' ')
AT O
Ġexp ense
Art ifact
ig gers
Ġin duction
Ġjo ins
ĠInd ians
Ġf ires
qu ire
ul in
MA KE
Ġg ym
inv oke
Add ed
. ');
ir s
Ġy eah
Ġcor on
ĠM ix
Ġsh ifts
Ġt ennis
ĠPe ak
Ġcub ic
Ġ( {\
Ġweight ed
Ġr hythm
Ġtrad itions
Ġcancell ed
ĠStan ley
ĠC au
ĠNe il
// ----------------------------------------------------------------
n pm
Ġsimp licity
Ġauthor ized
s olid
^^ ^^
Ġterror ist
s izing
Ġcontr ary
std err
ĠP icture
19 32
ĠÂ ±
m icro
P s
Ġmount ed
ced es
ine e
Ġw ishes
Ġt orn
Ġsort s
ĠB eyond
ĠCom plete
ĠEx cell
FLA GS
S lice
Ġcont rolling
Ġdocument ed
> ()</
In ject
Â Ń
math it
Ġsk i
ĠB ear
Ġ\ (\
urs es
Ġfood s
Ġqu it
ent o
err anean
ĠIN T
m und
i ator
b idden
le ad
ĠTown ship
um ble
Ġpre st
Ġel abor
Ġreson ance
Ġpar ish
v or
Ġad option
effect ive
123 45
ĠWe ather
ĠCar ibbean
sen al
ĠConserv ative
FO RE
f olk
ĠI M
Ġoverse as
sc ene
\ |\
Ġth umb
Ġform ally
Ġcook ing
ĠPer ry
em ia
2 64
ential ly
ĠLeg end
ĠV ert
ĠFe atures
ĠCon n
ĠUn c
pos itive
PA SS
ĠS urg
iv ot
get Text
ĠDise ase
Ġsc rew
comp act
alt ies
Conn ector
Requ ire
ĠK irk
ĠK id
Ġpregn ant
Ġ\ !
J im
Ġcomb inations
H uman
Ġelim inate
R GB
Ġun ity
ĠSu ite
ĠArchitect ure
ĠC atherine
19 34
ĠEvery one
Ġs v
mult iple
Ġpick ing
T i
} |\
">( </
ĠInter face
Ġgent le
19 29
Ġsum mit
Ġs i
rat io
Ġw ars
ĠAn imal
Link ed
Sub mit
Ġhold er
Ġman ually
ĠD iamond
Is rael
Ġbe ating
Ġper ceived
date picker
ĠNev ada
ag i
In her
Ġro ster
ĠPod cast
) }.
Ġf iscal
. --
sp aces
Ġshift ed
ĠF ramework
ampl ing
ordin ates
15 00
Ġbatt les
Ġcomment ed
ĠGover n
i pher
ĠFin land
ynchron ous
Ġestablish ing
Ġwood en
// !
end ors
Ġcomp elling
Ġpers istent
' _{
log y
Ġinv oked
ul ators
s ong
Ġsc andal
L atest
B F
ID ENT
her o
ĠL uther
Ar r
Ġd ash
ĠSh adow
ĠD rama
." ;
;& #
Ġsevent h
C at
Un able
ĠPhot os
M ASK
ĠJohn ny
Ġde emed
ĠConserv ation
hl js
Ġdemonstr ates
ĠW ag
ĠAb u
ĠRepresent atives
Ġdepart ments
second s
pr ison
ĠAl ert
Ġs ne
Ġsc ar
Ġan xiety
pr ises
. $$
| }{
Util ities
Spr ing
ĠSt ein
Ġappro ached
(" <
Ð ³
Q t
Ġbar rel
Ġproceed ings
T ensor
ĠJ a
comp iled
Ġp tr
x l
=" //
Ġadm its
R atio
am ine
; -
H istor
Im mutable
ag greg
Ġcollect ing
le af
List View
Dep artment
13 8
Ġmon ster
Ñ İ
ordin ator
ĠBern ard
ĠS chema
ĠMan hattan
ĠI o
ĠUn like
Ġman ages
Ġpr ide
F ace
sche me
re verse
Ġcru ise
B ag
W ater
Ġb il
orne ys
reg ex
Ġc fg
J ournal
st ors
\ }$,
ĠF ocus
ĠCh ampion
ĠS ale
C art
V T
m ot
Ġworld s
BUIL D
Ġret riev
Ġ. /
Ġtraject ory
input s
d al
G G
se ek
ĠE ve
ĠAss essment
Ġimm igrants
Ġbroad er
ĠIP v
Ġeigen values
Ġt ours
ĠSt ri
St d
Re ceiver
ĠC emetery
J s
Ġr ated
ĠBroad way
Key word
ĠBi ology
Pl ot
Ġcle ver
Ġheart s
Ġrem arks
inter action
vart heta
s With
Ke ep
Ġsus pected
Ġb atter
Ġpull ing
Ġad apter
um per
ĠEm peror
ĠP resent
Ġann ually
ĠTrans itional
bad ge
Ġde ar
Ġfl ower
Ġtarget ing
inher ited
ch y
ĠW ire
Ġinsert ed
Ġwis dom
itte es
Ġhom eless
Ġdraw s
An aly
hedul ed
V ote
ĠR av
ĠG lass
ĠF ourier
part icle
ĠN ames
ĠDef ine
Th ose
ĠSO FTWARE
Ġdes erve
ĠS lo
ĠEn able
Ġli ability
Ġ/ .
13 3
Ġuniform ly
ham mad
Z Z
sec ure
ĠEm ma
Ġcons iders
File System
ĠL arge
att en
14 9
Ġemploy er
ĠFl ag
Ġenorm ous
UP DATE
Th an
ĠM agn
N L
"/ ><
Ġprogram mes
r ators
id ency
ĠM ak
Br anch
d id
Ġp s
ĠHam pshire
Ġdr ums
LE NGTH
Ġvacc ine
Ġgovern ance
Ġf ulf
Ġd ining
19 16
ĠMar io
qu o
Ġconflic ts
Ġsec ured
Ġcontinu um
20 3
S i
amp ire
Ġcomp ass
Event Args
Ġown s
Ġf illing
fe e
ip art
Ġtri angle
ĠE asy
A ff
Qu estion
^{ *
Supp ose
Thread ing
ĠM R
Ġres ist
ĠHor se
Ġemp irical
ĠCro at
ĠF an
Ġemb arr
Ġal igned
pen se
scri ber
g ement
it ud
Ġachiev ement
Ġtrust ed
T witter
app ings
Â £
Ġcent ered
f ollow
B ay
ĠAct ivity
H H
Ġdem ocratic
ĠJer emy
Ġmat hematical
Ġaccompl ished
Ġult ra
les h
ĠIss ues
Vari ant
ĠB rowser
Tog gle
ĠG rey
short cut
ĠAr c
Ġlo ans
f iction
im plementation
ÑĢ Ð°Ð
mem Item
ĠH ousing
m r
w ikipedia
Ġs word
G od
Ġw ings
r ish
ĠG MT
Ġex clude
Ġp ocket
qu arter
ĠK le
Ġinvestig ating
EN S
Ch at
Ġbott le
Ġt ears
AS C
ĠN az
Ġk g
Ġdead line
ch oice
ĠA ST
O fficial
Ġblock ing
Ġagre es
DO WN
ced ure
Ġtrans mit
3 30
ol er
ĠD ATA
Ġn ons
ĠHar vey
In line
Ġcharg ing
ĠUs ers
> $
l r
ĠW riter
al tern
Ġcle ared
it he
Ġmod ifications
acc ur
Ġm a
ĠPro gress
ject ure
ug u
C apt
Ġp index
ĠB row
or b
Î º
p ixel
Å «
Ġdist ant
Ġt ong
ct rl
ĠB ot
Ġcolon ial
Ġoverwhel ming
T IM
ĠBroad cast
Ġst ochastic
13 9
ounc ing
Ġinc idents
Co ins
ĠSum mit
Ġbur den
ĠH ind
Ġcommand er
Ġ[ {
ĠResp ons
ĠP FNGL
Qu ick
Ġabs ent
Ġtest imony
ĠBro ther
CL I
Ġch icken
Ġnewsp apers
remove Class
2 24
sub sec
ĠSy rian
Ġanaly tics
S heet
g ems
ĠGlas gow
Rec ent
Ġhot els
ĠG OP
ĠT u
E ducation
size i
cri ptions
ĠEm ily
t alk
ĠF ail
Ġb anned
ĠH AVE
Ġassess ed
2 12
F IN
Ġdep icted
cel and
we i
Ġac res
Ġcomment ary
ĠNO TE
deg ree
Ġ' ../
Ġtra ged
Ġr itual
Ġa uction
im er
St yles
( ",
z ier
ĠCommun ication
ĠMe an
ĠM ol
Ġprison ers
4 000
15 7
Ġste ep
Ġout s
ater nal
Ġbel oved
O ps
un ger
Ġ( );
t ables
s leep
ĠParam eter
ĠWar ner
. \\
ĠQ String
Ġ/** <
PRO TO
emp loyment
Ġcontain ers
l c
Over lay
K S
ĠCal endar
ok ia
for ge
Ġmem brane
Ġkw args
Ġcon ce
ash a
Ġal lies
: @
ĠK ap
LE VEL
ph abet
ĠF itz
Ġadvant ages
Ġarr ives
] >
Ġ/ ></
BU FR
14 6
Ġfix ture
ha us
lear ning
Ġinit iated
ĠAr n
ĠAgric ulture
k k
Ġn ortheast
rient ation
e ur
Ġfriend ship
bal ena
ĠBit coin
lock ed
ĠV I
^{ (\
ins ula
Ġra ises
pre vent
ĠEx amples
Ġst er
Ġcert ified
Ġpass phrase
ĠCost a
ri o
in ces
Ġhabit at
ing e
Î ³
ĠTreat ment
ĠN J
ĠB A
but tons
W ild
Ġl oving
ose x
Ġhe ating
Ġr ings
Ġaccur ately
ĠMont e
Ġdel ivers
) })
ed ing
ĠH alf
ĠF rame
Ġcor relations
c ook
ĠW a
ĠTh an
Dan iel
i Äĩ
o fficial
Ġb uck
Ġdeg rad
Ġfl ush
ĠNC AA
ov o
rac es
o ct
en berg
sub str
M argin
. ).
render er
un ing
Ġbal anced
ĠNY C
Ġcomp ounds
Ġattract ed
Ġdr unk
ĠInt el
ĠSand ers
ĠWat son
N F
at ics
ĠL ex
ĠN ancy
C odes
C tx
re ports
ĠĠĠĠĠĠĠĠĠĠĠĠĠĠĠĠĠĠĠĠĠĠĠĠĠĠĠĠĠĠĠĠ ĠĠĠĠĠĠĠĠĠĠĠĠĠĠĠĠĠĠĠĠĠĠĠ
Ġlegit imate
b read
ĠT ed
ĠE duc
Ġdescri ptions
T alk
Ġemploy ers
Ġbond s
Ġacceler ation
Me anwhile
/ $
h all
oc ese
ay an
go al
Ġprefer ences
Rev ision
Ġg em
m ne
Ġhom ogeneous
r ino
15 1
| _
anc ers
Ġdark ness
Ã «
Fil ters
ĠA irlines
R eb
Ġport ions
Draw able
Ġweak ness
ĠCond itions
ĠMan ufact
ĠHigh er
ĠL ion
ĠCom edy
CE P
Ġaccompl ish
ier ra
DO CK
Con version
Ġefficient ly
ch annels
ĠAdvent ure
ĠCour se
Ð¾Ð ´
c ence
40 1
ol ia
add EventListener
B er
ĠF if
H aving
Com ments
io let
HO ST
M ike
u ator
NO TE
Ġpers u
ord ination
ERT Y
Ä ĥ
as ive
W T
B ank
Ġde code
â ĪĴ
int ro
g om
Error Code
Ġconv icted
St ates
Ġe ager
ĠGener ation
ĠE S
Ġo l
ĠTr igger
ĠB B
ra k
Ġs q
ĠR ud
Ġcomp atibility
Ġtw in
Ġd aughters
il ia
ival ent
Ġp ig
in variant
tok ens
Ġremember ed
ĠCON FIG
ere k
ĠC arm
Ġimpe achment
Ġsh aped
Ġc ave
in us
Ġh yd
not ag
Book s
I LED
Ġpresent ing
Ġ(! $
N ested
Ġ" ./
back slash
Ġt ribute
ĠIm perial
ĠP le
Ġke en
AME TER
37 5
d eb
ĠSh a
T ODO
; ;
id ity
ĠM illion
Ġcompris es
F B
v p
ĠSw ift
ĠH iggs
b usiness
R eq
Ġsp y
ĠPalest inian
y arn
Ġsurve ys
DE P
=" {
ĠS erv
ĠMed it
Ġpassion ate
ĠC u
R oll
Ġ Ä
Ġh iding
Ġaffect ing
Ġkne e
Ġdist ribute
/** */
å® ļ
f m
ĠAt omic
Ġarch ae
Ġorb ital
Ġdistingu ished
> ');
Ġa pt
th ick
ĠB order
Ġillust rate
W C
Ex ec
ĠZ ero
Ġland ed
df s
ur ring
A ge
Ġd ensities
Ġcre atures
Ġbel t
Ġl ymph
Ġad equate
Ġrep o
ĠS U
sh iv
T ables
T ITLE
rele vant
S amples
ĠE c
Ġpract ition
Ġtra p
v d
apeut ic
18 00
ĠDis covery
Ġimag ination
* .
20 5
Ġcre ator
ĠM aking
rou t
He ap
t emplates
Ġnerv ous
ĠPro b
ref ox
Ġpray er
ĠM ans
min imum
19 15
ĠTre k
inem atic
Ġfrag ments
Ġappar atus
G UI
ĠT IME
Ġtri ps
ic ating
ĠEd it
Ġhash Code
ra ising
ĠCom merce
Found ation
Ġfootball er
ph ony
Ġtrans mitted
h aw
Ġthick ness
b rit
ĠTre as
Ġnegot iations
C ong
Ġfeed ing
Ġdisp ersion
Ġun set
pay ment
ĠFa ith
re nd
Ġdeterm in
Ġspect ro
Ġm k
ĠArt icles
rang ian
20 8
ess ing
bel ow
Ġmunicip ality
ĠF ashion
Ġ! !
LO AT
ĠT emplate
Ġr ice
Ġdemand ing
Ġconj unction
ymph ony
Ġcoal ition
Link s
Ġbad ly
ĠW alt
ĠMed al
Ġdiv ide
ĠThe me
column width
Ġcam ps
Ġlength s
im o
ĠCar los
L ou
ĠK ill
K now
ĠC IA
TE GER
x ref
ge om
ĠT es
n ick
ENT ER
Americ a
Ġdisag ree
Arch ive
ĠCon structor
à¤ ¤
udd y
Ġcompris ing
Ġre vel
Ġdef ending
thread s
Ġhe aven
Ġo c
| $
Ġo h
col ors
Get String
Ġle ak
ĠElement ary
s elling
Ġc ele
Ġg rain
Tok ens
e lection
Ġsub section
Ġdam n
uc le
Ġmot ivated
ĠAm endment
Ġsustain ability
m os
ĠAr ctic
ĠT erry
Ġdist inction
er ie
UN K
M ary
Event Handler
Ġexpl aining
Des cribe
iat ric
Ġon click
Me asure
Ġp orn
ĠY ES
Ġs isters
text area
Ġexpect s
Ġwitness es
B and
ĠP ent
All owed
Ġspons ored
ĠGre ater
AT T
Ġprotocol s
umb ai
ĠIn stance
Ġcast le
ess a
Ġpre liminary
Ġprem iere
whe el
Ġcon vey
ens en
ster dam
10 16
IR ST
ĠTrans action
P oll
ari ans
ĠMon itor
et erm
ter ritory
ed ges
ad just
end ering
Al tern
Ġc ss
Ġperturb ation
Ġd jango
å į
lic es
Ġcomp ly
Ġrecogn ised
! ]
in el
J on
grav ity
ĠMad ison
Ġre try
ĠD ocker
M ot
Ġgener ators
Th rows
ĠB eth
M ON
Ġb ay
Ġ$\ {\
Ġnav igate
CD ATA
bound ed
;\ ;\
s ized
ili ation
Any Ref
* >
Ġmechan ics
' +
m ess
App le
Ġeconom ics
Ġassoci ations
m illion
Ġoccup ation
Ġcontact s
Part s
c ott
Ġch apters
ĠZim mer
c ov
Ġtable t
Ġsold ier
ke eper
ĠRead er
ĠVin cent
ĠP rior
c odes
Perm issions
Perm alink
d ead
e cca
IS H
Ġcell ular
ix on
Ġe ars
ĠCommon wealth
Ġsuff ix
28 0
ĠGe V
ĠProgram me
Un ion
font s
Ġb reat
Ø ¨
ĠArk ansas
Ġz ones
Head ing
ĠCurrent ly
Ġsub stit
Are Equal
Ġcop ied
ĠDocument ation
Ġv ig
Ġdesign ers
Ġcommission ed
ĠT ak
ĠBu y
ĠHon or
us k
ĠF iles
ĠW orth
ah l
**** **/
tra ining
ibli ography
AP PLICATION
Write Line
Ġven ues
get Key
e enth
Ġsur f
Sm art
amb ers
A CTION
ĠB rain
ĠR angers
ĠSh aw
p arsed
? !
s il
Ġfast est
Ġwhe els
ĠM otion
Ġrefer enced
PO INT
ĠK an
ĠCall ed
Ġretain ed
s By
qu est
ĠV ik
Ġdes k
Rec ords
OD Y
ĠT on
Ġhe aling
at en
Ġanaly tical
h um
Ġad mission
ĠApp lied
ĠX box
ĠF ace
Ġle ase
B as
te chn
Ġprof ound
String s
Ġform ul
Ġcontinu ously
}$ }
p se
Ġtax pay
Ġsophistic ated
b ach
ĠL ate
Ġback end
ĠCom mercial
Ġtra its
ĠPh ase
Z ip
ment ioned
ht m
Ġr ivers
Ġany body
iev e
Ġwh is
Ġenc rypted
d ro
Ġsh irt
oxy gen
ĠCont emporary
? .
Ġ# #
Ġautom ated
Can adian
ĠSupp ose
ĠF ri
Ġd ys
Ġinitial ization
Ġaccept s
F ort
Ġy ard
Ġmob ility
dom inant
ĠScient ific
Ġspeed s
d w
ĠSur v
ĠH em
St mt
* (
Ch oice
cont rolled
ĠRest aur
Cred it
Ġimport ed
Ġre ceptor
ĠJ ake
Ġpeak s
ĠC ox
Cent ral
f ive
bab we
ĠCo hen
ĠHar rison
Ġrev ised
( -\
Ġ ere
Ġspec im
Ġencourag ing
ĠG ene
Ġqu as
Ġphotograph er
unt ed
Ġun w
log ue
asc ade
N EL
inter est
Ġf ighter
ĠAd vert
Ã Ĺ
Ġin clusive
Ġrem ind
ug ged
c opyright
ĠCirc le
al og
ĠP P
DI RECT
c rypto
eg u
Input s
if ully
Hor izontal
Ġswitch ing
Ġsynt hesis
API ENTRY
Ġvalid ity
Ġposter ior
T urn
] -->
---- --
Ġshut down
k ill
ter ms
: =\
Ġorig ins
G re
im ir
ag ar
ĠChel sea
ĠN ord
Ġconsult ation
Ġpress ed
ĠMe chan
Ġfilter ed
vers al
ĠW A
Ġsw iper
T rad
p referred
T em
ĠG arc
ĠMe et
Bet ween
Ġb ol
f v
ĠHar per
Ġcompan ion
ĠH indu
Mod ules
Debug ger
T ick
' "
Ġdou b
Ġacc ret
pe ated
Ġmark ers
ĠX ml
Ġadv ised
ĠN athan
man aged
s ound
ĠV eh
Ġeditor ial
n od
ĠComp anies
un its
amp ing
ĠQu estion
Ġret rieved
ĠS outheast
ĠB U
ĠN intendo
ĠD rop
V IS
ex pl
Ġtrem end
ĠEar l
ĠD aw
; =
Ġin fra
Ġconnect ivity
S ar
App ro
Ġm p
Ġdo zens
Ġsal ary
Ġflex ibility
ffff ff
Ġart work
ĠChristian ity
Ġpl acing
Ġdis contin
Ġdr ift
Ġmed ieval
[ ],
Ġlog s
ĠC lay
tr on
Ġbes ides
Ġdr illing
ĠAc cept
Ġ" (
Ġc s
ĠQu arter
o ard
Ġp ink
ish a
DE LETE
Ġinflu ential
Ġd ressed
ĠH P
uss els
Block ly
"> {
r ors
or ic
Ġcha os
ct l
Dispatch er
h ub
l iteral
ĠB ristol
all ed
orient ation
Ġrad ar
Ġsh ar
ĠSh akespeare
lov ak
Ġroll ed
Ġt emplates
Log ging
ĠCO MP
Ind ian
an alytics
Ġfail ures
ĠT ell
Fil ename
var rho
ĠStand ards
ray von
14 8
Ġtour ist
) '
ĠT odd
Ġfuck ing
19 22
Particip ant
ĠW ol
ĠHel en
ĠUk rainian
^* (
om o
re strict
sh aped
Ġch ron
Ġed itors
list ing
20 23
w y
CC CC
pos able
Ġdrink s
he ll
Ġhope fully
Ġw age
D ataset
Ġescap ed
D ark
St ill
ific ant
ME D
Ġsett le
Ġmer ger
Ġr ush
Ġcompet ed
mys ql
Ġdecre asing
Ġan ime
ĠGener ate
oll ar
19 28
Ġrest oration
n om
11 11
Ġins pection
Ġearn ings
ĠBu ilt
abs olute
z ing
ĠCirc uit
Ġ utils
ĠCy ber
Sche dule
in tern
Ġl t
ĠE ld
E mitter
et ta
g ic
ĠIn stit
ĠForm er
Ġper mut
CON NE
"> /
ĠL atest
ia o
Ġinstitution al
Ġinstrument al
Ag ain
Ġ" ")
19 26
ĠValid ate
g uid
Ġl ambda
Ġachiev ing
Ġent ers
ĠPat tern
ic i
ib e
Com plex
Ġload er
18 90
ĠMedit erranean
h n
ĠRet rieved
ĠB udget
ST EM
ĠSpe aker
ĠEnt ry
w ear
ĠApp ly
Ġwork shops
Ġsimilar ity
à¤ ķ
ĠEl li
Ġcons olid
E U
ĠCor porate
âĶĢ âĶĢ
ĠPhys ical
Ġdead ly
Operation Exception
oc on
Ġentertain ing
ĠPortug uese
Ġattack ing
Ġcontrovers y
Ġocc asions
oot ing
Ġclim b
Ġexplos ion
s napshot
p us
ĠB UT
ro c
ĠHall ow
Vert ical
Ġhop ed
w i
Ã ½
Ġun e
ĠL ov
ĠE M
Ġsu ck
P aint
av atar
ĠEmer gency
ĠPlan et
Character Offset
ĠW es
Ġafter wards
Ġw ise
D eb
ĠB apt
Al ign
Ġsubstantial ly
eng u
Ġrecon c
ĠFl ow
g c
Ġcancell ationToken
sc opy
Ġorth ogonal
16 6
comp ress
Dist ribution
Ġmid field
To o
Ġre nd
ab ove
Ġdem o
Ā Ā
Dec ode
um ably
Ġread ily
Ġhand ful
g ary
agon ist
ĠF loat
Ġridic ulous
ers ions
Enc oder
C atalog
fin ity
c lop
MPL ATE
Ġvari ability
Ġintrodu ces
Ġover head
ĠGu id
Ġl apt
Ġid s
ĠTh r
ĠSet ting
pol it
erm ont
ĠEd wards
Ġmot ivation
ur ved
pre tty
ĠPro blem
ĠS old
Ġse aled
Ġatt achment
G ROUP
th ink
/ %
(" [
Ġintr insic
Ġthe sis
ĠK aren
Ġload s
ĠEag les
ĠGrow th
ĠMount ains
ĠNav al
ĠSong s
d ue
14 1
ĠBen ef
ĠCl are
ĠBut ton
Ð¾Ð ¼
G s
Ġreport ers
Read Only
Ġvol unt
por al
ĠNichol as
t cp
é ĩ
ĠA CT
ĠGener ic
å ĩ
log ic
Ġtr ump
ĠPet e
ĠSt ack
ffect ed
st ri
ond e
Ġcre ativity
Ġplan es
B s
ver ts
ĠV AR
Ġint u
mon itor
Y P
f re
Ġl ane
ĠN azi
ĠJob s
Ġmer ch
Cre ation
W ashington
Ġiter ations
Man ifest
ĠMar x
ĠCont roller
à¥ ĭ
control s
Ġtransp arency
ac a
ĠFish er
Ġsw ap
ĠCh and
Ang le
Ġadvoc ate
Iss ue
ĠS r
ĠM ul
ĠCh art
19 31
Ġpe oples
P ACK
Ġal ike
Ġindic ation
Ġwound ed
Ġfre ely
Ġlim iting
ĠE sp
Ġactiv ated
Ġtransform ations
st mt
ud s
Pol ice
ĠChem ical
Ã¶ r
ĠPhilosoph y
anc ies
ĠHor ror
IT S
Ġeth ical
LE ASE
Ġfun eral
ĠM aps
å °
Ġjournal ism
Ġad verse
ĠM ode
}{ {\
ĠPhill ips
ON LY
Ġp upp
Ġwork flow
ig rant
, ,
Ġchalleng ed
W as
Ġ' </
ĠCh oice
el ia
ĠH orn
ĠH udson
tab End
Ġp unch
Ġtim eline
R M
ek s
) ^\
D ot
Ġh alo
ĠGu pta
ĠAl fred
Ġclean ing
R ussian
Ġatmosph eric
m un
Vari ables
um m
Ġquadr atic
Ġanaly tic
Ġdon ations
Ġsust ained
D J
ach t
~ (\
Ġdon ation
ĠK on
Ġrel ay
im on
j p
ull ivan
Ġprof its
et on
Ġr ugby
External Project
I BU
ĠPart icip
ĠE le
ĠC WE
Ġs outheast
Ġbi ology
du ctions
Ġoccur ring
× ¨
Ġact ed
L ittle
ĠJ ar
ph ysical
W ay
ĠPer iod
Ġanticip ated
be it
Man aged
Ġcomplet ing
ĠPlay ers
19 25
IF Y
ĠH ob
RE N
Ġref use
() `
h op
w al
ĠBul gar
( @"
ĠÎ ±
put es
Ġmand atory
rg b
sc apes
Ġab ortion
n ational
Ġquarter back
Observ able
Ġcorpor ations
Ġb ags
lic h
ring tone
l ishes
Ġp arsing
Ġden y
ĠLuc as
Ġdismiss ed
Ġcor related
Ġjuris diction
æ ł
Ġbar riers
Ġfl aw
Ġcount ies
st ead
ĠB S
Ġaccept ing
14 2
ĉĉĉĉĉĉ Ċ
ĠD S
ĠN ormal
ĠMet ropolitan
Custom er
Ġpo ems
sl ant
Ġg am
E lect
ĠK umar
ach ers
c z
Ġ- &
Ġaud it
Austral ian
ce il
Comp any
ext ract
Ġrefuge es
W M
ib lings
($ _
unt u
et ype
ub a
Ġbo ats
Ġbron ze
n r
Ġg a
pre ced
C lip
b ars
19 27
q a
power ed
Ġextra ction
D AT
| ^{
ĠL en
B ot
Ġholid ays
ĠGr an
Ġla unches
Ġstrugg les
ĠMichel le
Ġ ,\
im eter
Ġmem orial
Ġassum es
abul ary
ĠS eb
Ġsound track
ä¸ Ĭ
ĠSo on
un ts
Red irect
G N
$. }
Ind icator
Att rib
Ġle ather
c atalog
Ġre nown
im ity
Ġphys ician
ĠStr ong
bal ance
Ġg ifts
bour g
ĠCh anges
)} (\
Ġdro pping
product s
æĸ ĩ
ĠN om
mach ine
mat htt
ĠId entity
ar us
oc co
D ead
M id
Ġun clear
Ġdisappoint ed
. &
2 32
ĠCon vers
Ġw it
Ġorgan ised
Ġbacter ia
ĠEgypt ian
Ġexplo res
Ġdu o
um inate
ĠSche dule
E s
Ġkey word
tikz picture
ĠC off
âĢ¦ ..
is co
ĠB ath
4 80
ĠS id
ĠUg anda
æľ ī
Ġpen et
sh ine
Ġneut ron
H en
ĠOr lando
ĠBrazil ian
hol m
J ac
Ġlimit ation
O O
T OP
Look ing
Ġdeput y
19 24
"> "
ĠAl ong
P K
Check er
ĠKash mir
M ur
che ster
G rant
t elling
ok a
Ġhar sh
Ac adem
HO W
ap or
per formance
Th ough
Ġtoler ance
ethe less
Ġmer c
ĠLay out
Sm ith
ĠSom ething
Ġsus cept
ou x
T LS
Ġd rain
ĠS afe
Ġdesper ate
Ġ} .
ĠCub a
t u
ĠR ivers
Ġconst expr
ĠEth iop
Ġdem ol
And rew
N d
g em
Ú ©
ĠH ockey
uk a
ast ore
Ġlegisl ative
Ġcan nab
Ġsent ences
s an
Ġcollabor ative
ĠSD K
Ġpoor ly
ipl inary
Ġshel ter
ĠVictor ian
qu ick
f lo
ĠNorm an
ad os
os er
cknow led
Ġa f
ĠBob by
car ousel
æ ³
ĠTrans fer
Ġmurder ed
es cope
É Ļ
ĠQu ick
Ġdiagram s
=" <?
ĠIn side
lo ver
per form
50 1
Ġband width
pred ict
Further more
t ick
Ġt witter
ĠRich mond
L ev
conf irmed
ĠWell s
Ġch ampions
sim ilar
ĠPark s
ĠEconom y
mult line
is ure
19 21
Ġc oding
ĠL IC
por ter
In clude
K ar
ex ist
Ġcur riculum
ĠDub ai
inner HTML
au kee
ĠTre nd
ju ana
][ <
ĠKar l
NOS CRIPT
Prot otype
Ġra p
Ġcor ners
Ġnot ably
15 6
Ġ" --
View s
ĠH ab
get Property
Ġtour ists
ĠLiber ty
N EXT
J ose
× ľ
om ing
19 11
add on
re ts
Ġe u
cl ide
R pc
ĠSh ip
Ġbl end
ari juana
Ġm eg
19 12
ĠĠĠĠĠĠĠĠĠĠĠĠĠĠĠĠĠĠĠĠĠĠĠĠĠĠĠĠĠĠĠĠ ĠĠĠĠĠĠĠĠĠĠ
el ian
ĠNeb raska
l m
\% $
Ġburn ed
ĠR ico
Ġn u
Ġun stable
og s
Ġmon ot
Ġb uses
Ġtrans verse
ĠOak land
ĠRog ers
ativ istic
ĠEv il
ĠS ter
Ġinvent ory
ĠTool s
Ġclass room
Int o
p ent
ĠC B
ĠA round
Ġbr ick
Ġworth y
heim er
Ġlog ged
Ġcust ody
Ġstock s
ĠNever theless
Ġarg v
I MAGE
Ġv ic
u u
HAND LE
ĠT ypes
en ium
Ġv in
Ġassert ion
ĠC OR
or ig
Ġdis ability
GL enum
numer ic
ä ¿
Exp ress
ç ±
Ġtechn ological
ĠHe ader
C lock
Ġaver aged
ĠEx pert
Ġselect ing
exception s
Inst ances
Ġtogg le
V el
ĠS alt
{ |
in ement
Ġfl our
ĠWork ers
+- +-
en es
Ġreg ards
ĠAll ah
Ġb ubble
ĠJeff erson
Cl one
First Name
avor ite
ĠSh ang
md c
w so
ĠD anny
fail ure
habilit ation
am y
og an
HE D
ĠPut in
Ġgr pc
Ġf ram
ĠD raft
load s
Ġse q
Ġped est
d or
Ġnow here
ĠC ad
Ġvar ies
J eff
j q
Record ed
lo ve
Ġpro position
F at
ip es
A IN
Ġret ro
Ġh i
d imension
ĠY e
15 9
Block Index
ĠC ord
Ġeth ics
ens is
Py thon
E lem
std lib
p ine
Ġpl ates
Ġin ference
18 5
comm end
Tag Name
Ġm igr
ĠComp etition
Ġkick ed
Ġpred ecess
Build ing
ĠVi enna
T ARGET
19 23
ber y
Ġport al
ol ation
b ia
S ink
ĠMont ana
ĠE ye
ĠFI LE
Ġwork place
GL uint
ĠTh under
call s
Ġbehavi ors
Ġcoher ent
re ject
ff icking
comm ended
Ġend orse
ĠArt ists
Ġfear s
rupt cy
tr ad
ĠCon cert
ĠH ack
Ġshall ow
Ġatt raction
Ar n
Ġf ru
lo ys
K EN
9 11
Ġelder ly
Mat ches
j k
comm ands
Ġdiscuss es
ac iÃ³n
qu in
Ġin quiry
al ion
am o
ĠField s
An swer
ĠBar on
text color
i ological
ĠS or
Ġful fill
F lor
Cap acity
C s
Ġm ir
Ġpl ugins
Ġconfirm ation
r ar
Ġsp o
Ġun a
Ġco at
Ġbrows ers
pos itions
ĠC AN
erm al
e ctions
ĠWood s
F ive
act ivate
Ġcompet itors
Ġund ers
Th ird
S printf
urs ion
multi row
Ġf d
ĠBes ides
ĠM M
ĠD ES
ĠPal m
Ġm u
ĉĉĉĉĉ Ċ
Ġalgebra ic
ĠF erm
an imate
Ġc argo
Ġsc iences
x e
S und
æĺ ¯
H it
ĠD ennis
Ġpop ulated
0 10
Ġl as
Ġr s
Ġar ising
c ue
Ġmin istry
Suppress Warnings
Ġle x
P a
u els
Ġout break
inc inn
ĠQue bec
V ict
Ġyour s
0000 000
Ġso ap
} `
Ġrecommend ation
ĠWild life
Ġport rait
ic iary
Ġarchitect ural
Ġgra ve
ĠP sy
Ġneut rino
ĠG B
Ġun safe
[ _
am ation
Ġcre ature
F ee
or acle
Ġadv ances
Res olution
Ġdim in
ĠM eta
Ġphenomen a
Ġinn ings
Ġcol leges
Ġvill ain
ampl er
I SE
ron es
C losed
Ġb ail
im iter
ĠL IMIT
Ġline up
su ite
std out
Ġinteg rate
ĠT error
ĠO pp
ob a
am ic
cor ollary
%%%%%%%% %%%%%%%%
ter min
ä¸ ª
ĠCo ach
am pton
Ġre lies
im ize
Ġrefer endum
Ġint im
Ġreason ing
Ġscholar ship
Ġn m
Ġpropag ation
p romise
Ġg ast
ĠD elta
ĠY eah
F it
ia z
ÐµÐ½ Ð¸
Ġaccommod ation
$- $
Cl aim
C ached
M LE
arent ly
Abs olute
ĠHallow een
ress es
ons or
Ġveter ans
In vest
U TE
ol ith
port folio
Ġlo ops
ĠAcadem ic
ĠC urt
ad apt
Ġgu ided
ert on
D ou
ĠT D
ON Y
Ġclick ing
cr im
RET URN
Bo ard
Ġar ithmetic
Ġnetwork ing
Ġd Ã©
iem ann
L if
Ù ģ
ĠGL uint
ĠTy ler
ĠCond ition
itud inal
ass ed
Gover nment
sw ap
Ġp ul
op ing
Ġll vm
jb oss
ogn ition
ĠValue Error
Ġsplit ting
ĠRem ote
Ġbre ach
Ġspecial ized
gom ery
Ġco pper
Ġreason ably
Ġinternational ly
ag ain
read only
Ch o
WARN ING
R outing
pro port
idd ing
MS earch
ro v
ĠK er
Ġfoss il
Tool bar
æ İ
ĠMP s
SE C
20 6
19 13
F IL
ĠM ann
Ġcol ours
count ers
Ġg aps
w aukee
is y
Ġcriter ion
M icro
ĠMult iple
ĠGard ens
pe st
Ġres ume
ĠAl ways
ĠC V
P ac
W W
od ium
oper ations
Ġwealth y
ĠRe ed
ãĢĤ </
ĠMil an
Austral ia
ch air
Serial izable
ra f
IS O
ĠIm ag
ĠArab ic
ĠA part
ĠG em
Ġind igenous
ad vant
ĠH ERE
6 50
F und
ah u
S yn
Ġm ph
Ġmethod ology
Ġup dating
Open Tl
Prov ince
Last Name
h ydro
Ġ} ));
Ġtre ating
h ort
incinn ati
Ġ ÑĤ
H a
p ark
Ġdiv orce
Ġp t
ur ious
-> {
Ġtra pped
Ġaff air
Ġm akers
const ants
ĠRod rig
linked ExternalProject
Ġacknowled ged
D am
Ġminim ize
m are
ID s
le w
right s
Ġs our
div ider
ex c
ĠG E
Ġvari eties
Ġbet ray
ur st
F s
Ġattend ance
B oot
ur bed
æ į
h yp
Ġb uff
cc c
edd ings
Ñ Ħ
um ph
ĠIS O
Ġmut ation
ĠJess ica
d h
ĠD ialog
Ġqual ify
Pers istent
ĠAl t
inter faces
Ġpath way
ext ends
Ġim prison
ĠSh im
umb led
au nd
R G
ĠL ar
Ġint ra
Ġconstitution al
Ġel astic
Ġsub stitute
Ġinv ite
Ġterror ism
R NA
ĠA ncient
Ġun fold
ĠM T
d ifferent
ĠL it
) (\
ĠS ample
yst er
Ġconduct ing
cal c
Ġrele asing
v ance
sh ake
ĠInt o
Ex amples
ĠVal ent
Ġc ryst
ĠDef ence
/ ?
ĠR ather
Ġpat ri
Ġstruct ured
Ġtraged y
Ġtrav elling
linkedExternalProject Path
Ġcare ers
NO WN
Ġdiagn osed
P en
Ġmod est
Ġch ocolate
Ġpain ter
ie u
ĠEx pect
ĠO thers
ç± »
l uc
Ġun fortunately
15 8
ĠAl gorithm
l iving
ĠM es
Ġinf ected
ĠAlex and
ir us
Ġd atabases
ĠJam ie
Ġgod s
Ġw orn
ER O
She ll
Ġelev ated
ĠTrans form
c apture
d ater
arch y
Ġi i
30 1
parent s
Ġtou ched
Ġprivile ge
Ġf are
focus ed
ine ar
Is Null
Ġproduct ivity
Ġf ade
Un expected
D ue
Ġex tern
Ġtact ics
> ("
ĠAn im
B G
Ġcon e
op ol
Ġs urn
Ġconsist ed
Dependency Injection
B orn
K nown
ism iss
Ġhon our
Ver b
ĠF act
Ġf ab
mid t
ĠMin i
PI O
Ġpolynomial s
n ut
Ġpro gression
co res
Ġair line
N othing
urved ic
Ġcompet itions
d yn
Ping back
Ġsl aves
Ġreserv oir
ĠW ing
ert y
rac ed
Ġdec imal
Ġvir al
Ġunn ecessary
Ġaccess key
Ġplan ets
ĠMET H
ĠI celand
spec ified
ĠM IN
t ically
Ġc attle
Pro b
cont ract
el o
Ġen force
M ah
c ritical
ser ts
15 4
Ġv i
Ġmag azines
Ġrem inded
Ġreserv es
claim er
Max imum
w b
ĠC ert
ĠH appy
uls ion
16 7
Ġuniqu ely
Ġev ac
Ġet ern
ĠT s
com ed
pro pto
Rel ations
ĠTest ing
ĠProject s
ĠInit iative
Ġcal ibration
Ġmetab ol
ĠL ith
Ġtw isted
ĠLa unch
Ġfro zen
ĠC ob
ĠB ud
Ġcab in
22 2
æ ŀ
Ġo ught
ĠPar ad
Ġsurprising ly
ĠOver all
ĠBer keley
ic ion
Ġpoll s
ed e
ĠT ouch
ĠPop ular
ĠE E
UL AR
Ġstation ary
Ġw ore
op ath
ser ting
ĠHolid ay
lay ers
CON ST
15 3
Ġprevent ing
Ġlic ence
ĠJul ian
ĠT rial
PAR AMETER
ĠMu hammad
ĠAn alytics
R oman
ĠK os
7 20
is Array
Ġinhabit ants
L F
are l
Ġj unction
ĠModel s
e fficient
Ġbe aring
ĠFl at
> ",
Ġs au
y ellow
M X
Ġr h
ĠFil ip
Image View
Ġdisc losure
Not ify
IG H
up arrow
pers istence
ĠPrad esh
NE SS
ĠM ob
comp any
ch arts
Ġident ifies
Ġharm on
"> #
Ġpropag anda
n f
ĠS ame
aver age
R o
ear ly
ĠÂ «
pr ising
has OwnProperty
Ġdiscipl ine
c g
Ġdisappe ared
vers ions
m or
ble ms
enc ia
ĠBl ake
m and
Ġin ad
AT IVE
}/ \
ĠLook s
ort on
Ġnew est
Un its
Ġhapp iness
itt est
Ġlaunch ing
Î ¯
F riday
Ġcos mic
> ";
ĠB achelor
ĠB T
ĠM end
ĠF est
Ġvac ation
amb ig
Ġhistor ian
Ġapprec iated
ator ial
Dep loyment
Ġ( ;
Ġal umin
Ġsuggest ion
ot yp
ĠB asketball
Ġcomp ens
wall paper
R en
p ick
ĠS ql
Ġp ension
P OR
h it
Ġshe ep
Work ing
Ġcomb ines
ĠN ine
duc ing
I AN
Ġsc oped
Ġp and
= /
ĠChem istry
ĠPro test
Ġcomplet es
ĠDan ish
Ġdes erves
Ġde ce
ĠSc ar
Ġexc use
ĠC ertificate
Pred icate
Ġalter ed
Ġrenown ed
Ġg orge
od ash
Ġc ord
Ġphot ons
Ġsh ower
Ġso vere
ĠLook ing
}) (
Ġbenef icial
Ġemb race
J oe
ĠTag ged
U X
ĠG and
Y M
ĠQ t
ĠTig ers
Ġto ll
Ar row
Ġsacr ifice
t om
m ile
ĠIn cre
C riteria
I ran
ĠAv iation
Ġ$ ("#
Ġpr icing
Ġbro ker
Ġg lim
ĠIn j
Ð°Ð »
as se
Ġcous in
pp le
vel ocity
ĠQu estions
N ick
Ġ$ ^{
Ġple asant
ï¼ ļ
ĠS ymphony
Â ½
ĠĠĠĠĠĠĠĠĠĠĠĠĠĠĠĠĠĠĠĠĠĠĠĠĠĠĠĠĠĠĠĠ ĠĠĠĠĠĠĠĠĠĠĠĠ
Bu ilt
P ull
b ane
ĠC inema
itect ure
< >(
Ã© t
Ġconnect s
Ġviol ations
Ġpun ishment
ĠDou g
Ġex terior
the mes
ĠZh ang
ĠAuth ors
v ine
Ġp b
Ġredu nd
Ġlift ed
T our
Ġr iders
Ġcontinu ity
O rientation
umul ative
organ ization
Ã ¦
ĠSu z
á º
od b
ĠR ate
ĠSub ject
R out
ris k
1 200
g ap
it us
ĠC ant
ĠC ool
ĠCh arg
U INT
Ġdis rupt
= </
in is
Ġend less
co ins
ov ich
ĠRes et
J ew
K L
Ġsk illed
ĠIm Gui
Sign al
CEP TED
{ .
Ġt v
Ġg ates
get Time
iz ational
ĠS TE
ex e
Ġplay off
appropri ate
Ġh orn
Ġfle w
Ġmed ic
Ġinvest ed
Ġgard ens
il o
Ġther ap
ĠS ays
ĠG len
prot ect
ĠBut ler
ocom plete
clide an
St eve
cept ors
Ġexhib its
D up
IDE O
MP TY
ĠColomb ia
ĠI SS
cor respond
Ġquant itative
Ġrail road
ĠP OST
ĠRat ings
Ġad res
Initial ize
(' \
Un lock
el n
Ġconv olution
oper ating
ĠF ly
Ġf lip
ĠCol in
Ġess ence
Ġcro ps
] ",
IN PUT
ST ER
he nd
get Default
Ġl ingu
Ġf et
Christ ian
ĠWel sh
Ġi Pad
ĠEx tra
ĠCar lo
Ġfurn iture
T er
w m
$ '
ic ism
ij i
&= &\
Ġp ale
ĠCar bon
ĠCam era
> ';
ar ations
ĠCr icket
sche dule
ĠC li
ĠG onz
D X
ĠL is
ER IC
DOCK ED
ard i
ĠP T
ar an
sub title
Ġr amp
Ġpsych ology
g res
in ology
Publish er
spec ies
=\ {
ĠK yle
ĠStan ford
DE VICE
ĠM OD
g irl
Ġb ugs
Ġm im
text up
C li
Ġachiev ements
Ġca ption
Cre ator
ari ate
Ġd ign
I SS
d z
Ġaltern atives
field set
Ġto ss
ĠA pi
ĠOrth odox
F ACE
Ġreli ability
ĠAm sterdam
ĠKnow ledge
re search
F X
Ġst ays
à¤ ¯
Ġconsider ably
Ġbed room
Ġo mitted
Ġdefer red
Ġin duct
script size
ĠB orn
Ġgr at
ĠJul ia
ĠGr ade
Ġbe ars
bit coin
F all
] ];
-------- -
Ġrec ipe
Ġste al
ĠG roups
ĠM ig
Ġbu zz
Ġprob abilities
Ġfarm ing
Ġpra ise
x ff
Ġnot ifications
Collect or
ĠV otes
ĠAnt ar
Ġex empl
Ġb ones
rit is
ograph ics
Ġdam ages
f illed
vis ions
ĠS occer
Ġare na
support s
Ġa ired
Att achment
ĠT S
-- ;
Ġpass ive
Ġobserv able
[] )
Whe ther
Ġ" ");
Ġ ):
Ġab ort
cred entials
ent ities
Ġpred icate
ĠSc ene
Ġsoci eties
Ġcomm em
OP EN
Ġexcit ement
Ġkin etic
ĠBO OL
Ġfest ivals
bo ys
ĠA id
Ġocc urrence
ĠAdvis ory
Ġdeprec ated
Ġre loc
ĠU ntil
tri angle
play back
Ġmot iv
Ġthe at
Ġsan ctions
Ġsear ches
L y
om eters
ĠN uclear
Ġsh rink
Ġnew er
ĠAs ync
Ġrepro duce
izar re
Ġhonest ly
ĠM iles
ĠCOL SPAN
ĠE PA
p it
nav Bar
Ġdiv isions
Ġkn ife
Ġdistinct ive
ach i
h fill
ĠU C
od ic
ĠL if
sk in
Ġserial ized
ĠSaf ari
ĠO w
Ġgr asp
t ap
Ġm arijuana
ar ma
Ġin fect
ret ch
Ġconv ince
$ ^
b uck
17 6
W rong
oun ge
Ġpil ots
her bal
â ĸ
=" ./
mod ern
GR AM
Ġaccret ion
el ist
M ic
Pro ducer
ĠS weet
x f
Ġs ew
min ster
Ġse am
ĠM idd
p ane
is se
em b
Ġisol ation
Ġsub scribe
ĠRe ally
Ġsleep ing
ĠRom ance
N AS
Ġun t
Al bum
Inv ocation
Ġproceed s
% ),
H ist
Ġ' {
ĠP rison
con struction
get Logger
M AT
ĠInt roduction
ĠÐ ±
ĠZim babwe
k an
Ġcelebr ating
h ours
or um
C LO
in cre
00 3
ch anging
ĠO m
av ier
LE T
P et
RE L
Ġinit With
D ash
Ġcart oon
Ġper f
id y
Ġleg ally
Qu ote
ĠY ellow
Ġsing ers
ĠTour nament
ç Ľ
v iol
ĠEffect s
am mat
ĠJ ama
n ol
Ġdrag on
poly mer
19 08
ĠGL sizei
ĠD ol
Ġball ot
Ġpoly mer
Ġval ued
Ġapproach ing
Ġmain tains
ĠN HL
In side
> @
Ä Ł
Ġ* _
ke es
Component Model
TR ACT
yl an
th s
Ġenc oder
ĠST AT
Ex act
epend ing
verb ose
Ġaccommod ate
b ag
Ġ" :
ĠSpec ifically
Ġmiss ile
unc an
ĠRoman ia
Ġoblig ations
Ġspher ical
Mart in
n olds
ĠAl pha
Ġdiss ip
fin ish
ul ence
ĠUp dates
Ġcru el
Ġann ounces
Ġirre ducible
Ġp ause
Il legal
ĠT rayvon
ĠDr iver
> -
sl ug
os hi
Ġspread ing
Ġpl otted
ut ton
fl ash
ĠV ic
Me et
à §
Ġtrans cript
ĠAb raham
" <
Aut om
y g
Ð Ł
ac ies
Ġgen ius
Ġcorrect ed
Ġdelight ed
Ġthorough ly
in ja
Ġ& $
ĠR C
AC CEPTED
Tra its
b ai
ĠEv olution
Ġtong ue
Ġv endor
b ower
ĠPart ner
Ġtempor arily
g allery
Ġam end
Ġrespons ibilities
ĠAssoci ated
ĠLIC ENSE
Un ivers
vis ual
ĠGu inea
Ġche er
Ġpeace ful
Ġaccompany ing
pr us
Ġdo ck
List s
ĠFr an
s qu
Ġn est
ĠGrad uate
Ġb icy
ĠComm ander
: **
ĠFr ances
Ð½ Ñĭ
Ġlink ing
Ġrob ots
sp ort
ĠR uth
Ġfin est
Ġelim inated
************************************************************************ ****
Can ada
"> ,</
Ġsatisf action
Ġgirl friend
Ġident ities
ĠHung ary
ST O
Ġpers pectives
author ized
Ge V
Prot os
P reference
Ġauthor ization
tr an
ĠO pport
Ġdon ated
Ġl ips
iv id
ĠK il
Ġend e
âĨ ĳ
Ġreg ener
Ġh orm
Ġh ills
Ġprov ing
Rem ember
Ġtravel ed
ĠT ib
G al
So ftware
Ġadvent ures
le en
Ġpres cription
Ġsp are
raw l
ĠP av
Ġgate way
ĠK urt
Ġhand lers
Ġsk etch
u ce
Ġc f
olog ic
ĠĠĠĠ ĉ
Ġl ig
ur as
Ġ\ ,\
Ġexecut ives
Ġsurviv ors
Or g
, (
request s
Ġun ions
Instance Of
ro tt
Ġal liance
Ġjump ed
th reshold
Ġperm its
æ Ŀ
k ers
Ġfil ing
ĠD ad
ĠÐ ·
C ut
ĠIn stitution
CO PY
Ġtrac es
ĠW u
ung le
ĠS aints
ĠSer ge
Ġqual ities
d in
ĠV lad
ay urvedic
Ġthreat ening
m ans
Ġsl ides
Ġm others
Ġcent res
Ġstom ach
Ġprop ri
Ġaw ful
ield s
m esh
ĠE ither
rec ords
Comm unity
get Current
CK ET
ĠH arm
osph ere
p end
ĠMus ical
fil m
Ġp ag
20 7
ĠHe aven
h im
ĠColl abor
Ġh oly
Ġoccasion al
Ġearthqu ake
ĠC ounter
Ġsil ly
XML Schema
C OR
Ġcontrad ict
Ġcoll isions
Ġin fections
A ws
re z
ãĥ ³
L ater
ĠA RE
Com posite
ĠR idge
You ng
Web site
Ġ{ })
ammat ory
I o
Ġrel ates
ĠMar cus
ĠAP Is
t ed
Ġe uro
W ire
Ġc ant
for um
Ġm eter
Initial ized
Contin ue
Emp loy
> #
Ġc ere
Ġcon current
Ġsurg ical
Ġfif ty
pat ient
th lete
ĠR ect
il ogy
18 8
Comm ands
Inv oke
Ġinstant ly
t ec
le ave
G D
la unch
ĠAct or
Ġstake holders
ĠW allet
Ġamb itious
Stud ent
ĠPier re
ĠD ifferent
Cl ause
Ġoptim ized
$ ^{
Ġmem orable
Ġlit igation
Ġauthent ic
ĠP ink
ĠCl aire
ĠSh ows
Ġlack ing
Ġo prot
ĠTam il
bor o
ĠNep al
M Y
18 7
A H
flu ence
Ġoper and
Ġtem pt
ich i
char set
u cc
ĠForm ula
Ġwitness ed
Sc ience
g ot
Ġless er
Ġlog arith
Char les
Ġtravel s
19 3
Ġinc idence
Ġbl ast
b ash
Process ing
ĠFreder ick
ĠM ine
ĠB rief
Ġk ills
Ex change
Ġsac red
l if
Ġarr iving
F re
V ars
\| _
N s
S ender
G reg
Ġd ol
ra ve
Ġdram atically
om p
U i
Con struct
5 50
Ġreve aling
Ġexperi encing
& &\
Ġ ))
ĠS oc
Ġan omal
Ġjour nals
Ġthere of
ing o
sy ntax
Ġis set
Ind eed
M igration
o pp
Î ²
t icket
col ogical
ĠW ine
string ify
open api
ĠE ug
ap hor
scri ptions
ĠR F
Z end
leg end
Ġinsp iring
K K
DA Y
ath i
m eter
Ġden om
B tn
V ery
Ġdest ruct
Start ed
D ays
Ġtra ils
he w
Ġprec ious
() "
Ġdipl om
ĠM AN
y t
ĠF oster
S and
17 7
ĠCl uster
c nt
ĠD eleg
Ġdis cre
val ued
H AL
Q R
w ifi
Ġemer ge
Ġc ats
ĠS TD
ĠM umbai
C ss
ad en
{ (\
Default s
ĠT ags
Ġret reat
Ġspec ifying
Ġexp ose
B AD
ĠEn sure
ĠHealth care
Ġeval uating
c ock
cho ose
as per
ĠP rec
By Name
( %
Ġcancell ation
navBar Cell
l ag
ĠU SS
ig m
ĠM ills
Ġinst ability
ä» ¶
RO P
tain ed
N il
b ay
ap on
ĠK in
Ġcapt ures
Ġc d
Ġre ck
Ġfin ancing
Json Property
ov ic
ĠCh uck
Ġconsum ed
è ¦
ĠHug hes
r ings
Ġp ound
ĠE ddie
aut hent
NUM BER
bro ok
integ ration
Ġcontext s
Ġh ug
ser if
Ġsl ower
dim en
ĠL an
2 16
}{ *
Ġdel icious
ours es
ĠDist ribution
ĠSo ft
High light
Ġd in
Linear Layout
Type Def
ĠLag rangian
}. }
Ġw are
Ġcoll apsed
Ġp unk
ag le
ĠB ass
ĠL amb
Ġint imate
F ood
Ġf led
ĠP ok
ĠS ah
Con v
ĠS aw
by e
CRE X
ip ient
ett i
ĠIn struction
Ġsc aled
j sp
ĠĠĠĠĠĠĠĠĠĠĠĠĠĠ Ċ
Ġvit amin
rest ore
Pr incipal
ĠBM W
ĠNash ville
L ex
S ix
ĠG ate
ĠAr gs
am as
Ġn aked
Ġincor porate
Ġdup licate
is ch
ant om
Ġ\ [
get Context
ĠE instein
ĠB lo
Ġacc us
om aly
Ġass ists
Ġf ame
Ġbab ies
A WS
Ġgu ides
HEAD ER
associ ated
V oid
Ġh ilar
ill ary
stack rel
Ġcontrad iction
Ġtri o
l iter
is ible
Ġh azard
ack ed
ular ity
v r
Ġrespect ed
Ġtransp lant
ĠP rix
Not ice
Ġrent al
Ġin ch
est ure
Ġex ponent
ĠRel ated
Tw ig
iner gi
Be ing
ĠHil bert
ä ¼
Ġd os
Browser Detector
Ġvol atile
foot notes
Rel ation
ĠDom ain
al ways
ĠL iz
Ġscatter ed
ĠB iden
Ġsem antic
ut er
Ġam endment
Ġarg ues
ĠBl u
Ġback ward
Gr and
res olver
Supp lier
preced ented
cal cul
G I
ORM AL
c out
s aved
Ġtri be
Ġst reak
(' ../
omb ie
Ġb is
Ġres il
Ge o
Ġadjust ment
g able
ĠA str
Ġdest inations
emph is
ĠR M
success ful
En code
ä¸ į
Ġ= ================================================================
ĠRes ort
d evelopment
Ġ( ((
ĠNov a
ĠESP N
ĠP I
Work s
Ġprior ities
Byte Array
role um
B ODY
set Value
Ġrelax ation
/ ******/
IT ER
ĠBry an
ann ers
Ġgener ous
ĠRel igion
ig ue
Ġj ets
ĠVenezuel a
ĠDec ision
ĠB ris
pos itor
Ġport able
alth ough
Ġcivil ian
Ġclean up
ĠBuff alo
Ġg lor
Per haps
print s
h ou
ĠR S
bold math
RE C
Ġresearch er
ator ies
Ġimpro ves
ĠM ental
Ġindiv id
E nergy
oc ities
Ġcelebr ity
Ġshock ed
ĠI BM
Ġcannab is
00 7
re ceive
Ġper ipheral
zy me
Ġchemical s
R F
Ġde alt
Ġgovern ed
Type Name
Ġpack ets
Bu y
Ġswit ched
n as
Ġpreval ence
Track ing
ĠR alph
>{ @
ĠCor ollary
8 000
23 5
Ġx cb
cur r
Ġ) {
scal ar
any on
Ġsm ell
Ġstrugg led
$ }}
Ġcab inet
ĠB ald
out ed
ĠMc Donald
script scriptstyle
J er
ĠA sp
ĠR uby
Ġsl avery
ĠP ont
Ġtruck s
_{ +
ĠLu is
ĠSt uart
ism atch
ĠS olid
de leted
ĠP ER
Ġthr iller
\ },
Ġconsider ations
ĠW WE
ot ics
Ġb ump
el in
ĠØ§ ÙĦ
Ġwas h
Ġaw k
ĠU FC
ad ic
i our
ĠS leep
ĠO H
Comm un
act ed
Ġbe an
Bal ancer
Ġpow der
Ġb ust
Ġcor n
Ġdirect ive
Ġbeat en
ĠAn imation
* \
Ġp ist
ĠAl ban
ĠF LA
30 2
c id
ĠBro s
Ġcert ification
Ġpreced ing
Ġ! (
Ġdoc s
is Valid
Ġtremend ous
ĠTh ought
Ġcast ing
ĠCap itol
al ter
ĠT at
Ġneur ons
ĠIter ator
Ġdis hes
sat isf
yl um
Ġcl arity
Ġd ont
ĠF T
Ind ices
Ġ ub
Ġe ighth
it les
Ġillust rates
âĢ ħ
Ġoffer ings
S uggest
Ġen comp
Ġexp end
Ġref res
ĠB ak
ĠS ox
Ġimplement ations
Ġshow case
ĠT rip
Ġconst rained
r ases
å Ĩ
ĠR ural
ĠL ions
ĠNetwork s
P ur
Rep o
Ġfight ers
Ġinsp ire
Ġrece ipt
Ġp ays
ĠR ugby
M Q
é Ļ
Ġf li
ĠR ou
sm ooth
Ġm aker
ĠCom ing
Ġb ureau
ĠLeb anon
Ġcar riers
*} [
S aturday
ov y
cent ral
Dis c
Ġcor rel
Ġbackground s
Ġprest igious
Ġm aj
ĠC ategories
ev t
Se ason
brit ies
æĹ ¶
ĠL loyd
Ġf lesh
up iter
Ġle ver
Ġtra ct
Ent ities
d ie
ĠAll ow
itt en
Attr s
Ġg reed
ĠW IN
Start ing
ĠLe o
Ġs lip
Ġwith d
Ã© n
Ġhor rible
ĠMe asure
Ġto ile
ĠC risis
Ġmin eral
Ġunit ary
tem perature
Ġbi om
Sl ide
Key board
Up dates
Ġbrut al
Ġpre dominant
the ory
ent ric
Ġwel comed
ATTR IBU
ĠGh ana
R endering
ĠTour ism
z el
ĠNav igation
n P
Ġsw ift
Ġtra uma
ĠS B
ĠC ities
ĠT rophy
c aster
ĠM ong
Over flow
ãĤ Ĵ
rodu ced
loc ations
i u
Ġl oses
[ ];
Ġ( {
Ġad oles
Ġemp ire
Ġrecip ients
Ġapprox im
ĠS eth
ĠA DD
ĠAdd s
Ġd ivers
l ap
19 1
] ));
Ñģ Ðº
Ġnation wide
Ġdefend ant
Loc ator
ĠHoll and
ens ors
ĠSp encer
Ġimag inary
Ġguarant ees
ĠDirect ors
getElement sBy
m ons
S a
Ġv iable
Ġdig est
Ġover night
Ġsub space
M gr
' }),
o auth
Ġar ises
ĠFle et
Reg ular
ĠPo etry
ĠP ool
Ġorient ed
r p
Ġbl ues
Throw able
Ġspokes man
read s
ĠPre vention
enc oded
Ġ* **
Ġj er
Ġimp ose
ĠF ake
18 80
Ġtrad emark
Ġfiction al
Ġext ensively
ct uary
Ġcallback s
à ¹
ĠB uch
$\ \
Ġpun ct
ĠPhilipp ine
Ġdemonstr ation
Im plemented
Ġn erve
ĠAd min
ĠP ush
Ph ysical
o ons
auth ors
roll ment
Ġsurre nder
P icture
ĠT aking
pro j
Ġt ales
fra ction
ent i
Dis able
Ġd otted
Lin ux
ĠP att
text sf
Ġph on
Doc s
aj a
BU F
Ġhon ored
F LOAT
ph al
Ġgo og
Ġh over
ĠD NS
vet ica
gover nment
ling ton
ĠSc ore
ĠCom pute
N BC
Ġdel ays
cat Desc
] ^
Ġprov incial
30 3
Ġreven ge
LE FT
Ġsign aling
Ġcollect or
r il
Ġdebug ging
hen g
Ġparse Int
ĠHe brew
AB C
Ġnormal ization
Sw ift
/ -
ĠN ATO
19 05
ĠDE BUG
Ġstrong est
st ones
ever se
Ġgu ards
P in
? âĢĻ
(" ")]
ĠYork shire
23 1
Ġsp otted
Ġmut ations
Ġhe ap
K im
ens ely
arm ing
Ġes cal
Ġmar ry
Ġbes ide
Ġc ad
est imate
}) ^{
Ġsp ray
ĠB omb
Ġinter fer
Ġcharacter ization
Ġestim ator
Serial ize
,... ,
Ġplay offs
ĠMark ov
& =\
str ategy
? ,
ro e
ĠLi u
duct or
( <
ĠF DA
åı ĸ
Ġbe ef
ĠGu est
Ġt ender
un i
ĠHar bor
Ġunf air
Ġmon ument
H ol
dep loy
Config ure
ĠN amed
Ġinteract ing
Ġl adies
Ġst ir
ĠG ang
W all
on er
en h
end ent
Ġrem inds
Ġbuy ers
W il
Ġg ri
Ġen jo
-------- ---
Ġinvest ing
Ġinterview ed
7 68
Ġpract ically
B ul
ĠTh u
AL S
ĠP apers
ĠR ice
19 6
The ir
ĠC rystal
Ġexceed s
p es
cl ub
le arn
ĠF oo
Ġh iring
du al
Ġop am
LE AN
AC CESS
ĠF ra
Ġc line
Ch oose
Ġle verage
Ġadapt ive
Ġsimpl er
Ġsubstr ate
F W
In c
Ġsp ont
ĠPar ish
ĠSh ared
play ing
"> @
C ook
M att
Per formance
host name
| _{\
Ġm ud
ĠF resh
ĠH H
17 2
Ġg aining
Ġb arg
pt s
}^{ +
Ġ ].
ĠValid ation
ĠContin ue
Ġ ÏĦ
Ġre forms
ĠCh a
Ġw ard
Ġin complete
ĠM ead
FA ILED
ĠC elt
). </
Ġf reed
Ġavoid ed
Ã¡ s
Ġbeaut ifully
Http Request
ĠDer by
ĠG D
ĠD ynamic
ĠO z
ud ed
screens aver
ĠF u
ĠElect ronic
Ġpress ing
Ext ended
ĠM az
g b
ĠG Z
col m
ĠLind a
ĠMETH OD
Ġback wards
UM ENT
Ġparticip ant
ĠB ir
Ġgrand father
ĠHapp ened
Ph ys
SD L
get Data
ĠERR OR
A W
It s
Te chn
mu x
ST REAM
Å Ļ
us a
ĠCat hedral
ĠM Y
Ġitem Members
USE D
ĠG oth
Ġatt ractions
28 8
Ġneighborhood s
Ġout lined
Ġcre ep
Aut hent
Ġf ights
Ġse al
ĠÐ ¼
å ½
Ġa u
E u
ĠA ub
ch rom
ĠN ak
H o
ĠNew castle
Ġf lick
ĠLeg acy
ok o
as List
Ġ* */
D NA
Ġthe ft
ĠW restling
ĠPresident ial
Ġproduct ive
Ġevolution ary
Ġpan ic
k u
ĠB in
Ġcosm ological
cont ainers
ĠInd ividual
Ġd f
ĠT ips
PO SE
ĠSud an
00 4
reg istration
Ġview er
P references
em e
ĠĠĠĠĠĠĠĠĠĠĠĠĠĠĠĠĠĠĠĠĠĠĠĠĠĠĠĠĠĠĠĠ ĠĠĠĠĠĠĠĠĠĠĠĠĠ
Ġsuccess or
ĠR af
div ision
Pro blem
aut hentication
ĠBr andon
Ġfilter ing
C AR
ag h
Ġchar ter
Ġcap ac
Ġconcept ual
ah an
19 4
ela ide
ĠZimmer man
um i
Res ize
Ġcount ed
Ġs oc
12 34
CON F
Ġrel atives
ĠAd ult
ĠEqu ation
ans wer
h ls
Ġwork force
C AT
.. ">
------------ --
T K
Ġâ ī
Ap is
UM N
TE MPLATE
Ã¨ re
Ġw rest
ĠApp lications
B a
g ue
Ġpur suit
pl aces
Ġpain ful
j dbc
ĠSt ef
st ad
Ġaccording ly
P AGE
Ġten ant
ĠB og
2 15
19 06
Ġab ol
l is
ed uc
ĠL ud
Null Exception
23 4
A RE
ĠR oche
ĠJam mu
h istor
Ġin struct
ir atory
year s
ĠCou nsel
Ġere ct
ma pper
Y et
Ad s
it ize
Ġoptim ize
Ã µ
ov an
ĠPat ients
Ġpublish ers
Ġbreak down
ĠEag le
Ġadminister ed
ĠCommun ist
ĠTher apy
- "
19 09
in as
os i
ian e
b ard
Ġ[ -
Inter op
k el
ĠF REE
ĠPl ugin
econom ic
Ġus eless
' ',
Ġqual ifying
3 40
ĠBer g
Ġexcell ence
ĠReb ecca
E conom
Ġd ots
ĠO NE
Ġclim bing
3 10
Res olve
prevent Default
æ Ķ
17 9
ron ics
ig ating
Inter view
ĠSquad ron
Ġor chestr
nt hetic
ãģ Ļ
Ġrock et
Ġf el
Ġsurv iving
Ġcav ity
d atab
ĠD awn
18 2
Ġass ured
Ġr ats
DE V
b olic
So ft
lo ose
Ġconcent rated
Ġcomp rom
oca ust
C op
read able
ĠPsych ology
Ġsign atures
ĠI van
ĠEval uation
ĠF IX
ĠMer cedes
Ġrect angle
Neg ative
S orry
ĠAngel a
h m
ĠT M
ĠR d
ĠSp ark
andid ates
ĠSuper man
Ġcontribut ors
ĠClar ke
P TS
ĠCoal ition
k ubernetes
d type
Ġ ~\
Ġconstit ute
3 80
Ġset Up
Ġconsult ant
E li
ĠPar ser
Sto ck
ch r
re a
Ġcatalog ue
er als
16 1
Ġcompass ion
k al
Ġsp ite
ĠIs aac
ĠLog in
Ġlic enses
Ġto b
ĠInd ependence
rec v
Ġinev itable
ĠS ans
li al
Ġrout ing
ĠShe ll
Ġt anks
D TO
then Return
Or d
ĠPot ter
17 8
à¤ ²
os ition
Ġdo cker
Ġce iling
ĠRuntime Exception
17 4
Ġ ----------------
Ġr am
ĠAt hens
Ġb ub
ĠE ight
ĠCare er
Fin ished
he y
ĠH ook
no ise
the ir
Ġanth rop
ĠR osen
ĠPhot ography
Ġmorph ism
Ġc ris
widget s
Am ong
é Ĺ
ĠM ull
Pro position
N ay
ĠR NA
erg us
feed back
Ġb oring
access or
ĠBo eing
ĠRele ases
Ġst ones
Ġwond ered
ä ¹
Ġspeed test
OP ER
ĠT race
20 9
ĠRe id
Ġge odes
Ġprev ents
ĠD h
Ġnob le
ĠM UST
ew ard
Pr iv
Con nected
int ent
Ġ\ |\
vision ing
Ġfig ured
Ġc and
Pos itive
BY TE
Ġpro sper
') ).
Ġthro at
C ome
umb ling
Dist rict
Ġdial ect
Ġconsum e
b ib
ĠY A
Ġrele vance
ific ent
ribut ing
With in
}$ \
Ġhead line
writ ers
Cal ifornia
Im g
or ious
ĠR ah
ond o
Ġca ution
ĠHy per
Ġ" </
Ġbow l
Ġhar assment
Ġdec oder
F inder
ĠB rid
Ġcor poration
bin om
Ġdevelop s
Cl ub
ĠTom my
27 5
A verage
Ġb ridges
Rot ation
ĠSal v
ĠR ush
Ġinter ventions
Ġpack aging
Ġemb ry
16 4
ĠCar r
\ -
P ark
å Ģ
sm ith
OFF SET
Sever al
d ashed
dr ive
ĠFor ward
Ġem itted
Ġcompar isons
bur st
z ed
Ġc ater
Get ting
print StackTrace
Ġexplo it
Ġimport s
ĠBrad ley
ĠA A
ĠGro ve
16 2
Ġge omet
ĠSher iff
PROP ERTY
ï ¬
Ġ ));
ĠG PU
st y
Ġmanufact ured
Ġlect ure
Ġd irt
T unes
ĠCheck s
ĠRepresent ative
ad ers
ob ic
Th umb
Ġre ass
Ġ$ ('.
(( (
Ġavoid ing
resource GroupName
Ġcompl ain
ĠP and
Ġear ning
ĠSe lection
ĠHit ler
ĠS oci
ĠD iet
l ord
AR S
' -
ĠBar ack
ADD RESS
Ġen velope
Ġsol ic
ĠLeon ard
Ġ è
Ġg rap
rot ate
Ġb ins
Ġpsy chiat
ĠUnc ategorized
Ġartifact s
r ically
get User
Ġreg ex
Ġox id
B in
Ġin duces
ĠS PE
ĠCl iff
Ġeleg ant
M oney
Ġter rain
Ġther apeutic
+ $
ĠH our
S el
ĠA SC
Ġutil ize
Ġh oney
oid al
P LAY
æ µ
Ġment ions
ĠAtt ack
er gy
ig i
Ġpartnership s
ra ins
ĠG PS
G erm
O l
we ets
Ġs inc
C U
Ġreg isters
uck land
C ACHE
sub equations
assert False
Ġth under
LOC AL
ill es
s ix
Ġw restling
Ġ< ![
Ġsampl ed
Com pute
CP U
Opt s
ĠPre vious
ĠMyst ery
Ġb out
ĠPartners hip
Ġobl igation
ST M
Ġp g
ĠDes cribe
97 8
Ġg i
17 1
Ġsupposed ly
DEF IN
ĠBr ussels
Ġgar bage
Ġbreed ing
Ġcomm od
Ġl un
ĠO wen
Ġrep ublic
ĠI con
zer bai
be am
Ġarg uing
) ";
W ITH
ĠU INT
ĠÃ ¢
Ġindivid ually
Ġgl ory
oc c
st own
ĠMont gomery
Dis covery
Ġl over
ĠG uild
Ġkid n
ar ial
Ġcur r
Ġtrad ed
S ys
ier ce
Ġgen ome
ĠP om
ĠC incinnati
ĠCh ase
ĠW ords
footnotes ize
c ro
D evelopment
Ġdraw ings
Ġblog s
}} </
Ġsent enced
IF T
b az
Ġint ake
et itive
ĠWork shop
Ġn urse
found er
Ġunder go
19 01
% );
Ġstrength s
ĠObject s
ĠBen nett
Ġab oard
Def ine
Ġsl ots
Ġu gly
Ġo ps
ent e
âĢ ²
LO T
nam ents
Ġconf idential
Ġaff ine
ĠWag ner
N an
cite alt
Reg ex
ĠSet up
B g
40 5
Ġconcert s
is ers
ĠHol mes
B H
ros so
ĠInf antry
Ġ iv
ft en
Ġassist ed
Ġharm onic
L ee
w ig
ĠL ik
Ġfor ty
24 5
R ail
ĠS ak
Ð½ Ð¾
ĠWall ace
Ġab c
Ġtrans cription
j ab
ev ille
ĠEth ics
Ġneighbour hood
> =
B IN
ĠNorth west
j ay
Ġutil ized
Ġf oster
Ġl ag
r w
Ġmat hematics
Ġpro secution
Ġc ake
PE G
Ġfar ms
Ġover look
Ġround ed
amb ling
it as
man uel
Y ea
Ġw ages
Ġloc ate
Ġcoordin ator
) ];
ib us
ors che
ĠUn known
Ġcol ored
Ġcontact ed
ne ys
g ulp
t ier
Ġir r
Ġpra ised
ĠW end
)) {
plit udes
Ġgrad es
Ġdemand ed
ur ated
ape st
o ji
< '
Ġro ok
Ġshould ers
B attle
type param
Ġcomp ressed
Ġu k
class path
ĠO ri
ĠLay er
transp arent
ĠB inary
ĠWrit ers
key frames
Sund ay
Ġext inction
ÑĢ Ð¸
Ġsub sets
^* _
O G
Ġcomp lications
ish i
CO RE
Ġanalog ous
ĠBapt ist
Ġdesign ing
ĠS yl
Let ter
Ġelect oral
Ġquiet ly
re try
h ang
small skip
v t
IP S
clop edia
Ġobserv ing
Ġpolit ically
ĠN y
Project s
c ery
ĠT IM
Ġev olve
Ġwood s
Ġdwar f
ĠH i
op ard
D ependencies
ĠRey nolds
Ġconfer ences
ĠBeaut y
) <
Ġth y
Ġby pass
ir on
end ant
")) );
us b
60 1
Ġsport ing
Ġelev ation
an mar
ĠAnn iversary
T en
og g
ĠWord Press
ev es
start ed
30 8
Ġh alt
Ġ/// <
n ai
Ġshe ar
ä¸ º
ĠZ ion
Ġav iation
Ġover rid
STAT IC
Im plementation
ĠBeng al
def n
Ġsu cc
Ġque en
Ġbath room
Ġlist ened
Non Null
Ġclin ic
æ Ģ
Ġcont ributes
url s
Ġeigen value
Ġmuseum s
Ġsupp ress
d ummy
Ġhook s
Ġd ummy
Ch inese
ĠP ere
ancell or
ng th
Ġart ic
and ez
col s
Ġbe ats
Å ¿
ĠH erald
ĠJ et
iov ascular
ĠCh ang
18 4
Ġbit ter
å ī
charg ed
ro ots
>. <
s nap
Ġn ursing
sh ader
30 5
s outh
19 07
Ex pl
S nap
213 07
lic al
Ġm ate
Ġl ob
Ġlast ed
Ġeffic acy
Ġser um
ĠĠĠĠĠĠĠ Ċ
ĠBel ow
ĠExcell ence
A IL
B on
d an
16 3
ĠReg ulation
f ade
Ġsh ifting
l ane
Similar ly
Ġsimpl ified
Ġenjo ys
k ern
Ġc ategor
P aired
Ġun cle
Ġprospect s
Ġf right
19 04
add itional
ish ops
ist ency
op oly
Ġto y
rid or
\, {\
ĠTe en
ĠColumb us
Ä ħ
l ene
ĠSp ider
Sp ot
åľ ¨
O lymp
Ġfeas ible
Sc anner
ĠRec ent
Ġprevent ed
key words
Trans l
Ġspons or
ĠM ouse
Ġr het
ĠS ierra
ĠB ug
ĠPer u
Min imum
) _{\
A sh
ĠH av
ĠLe eds
Ġindic ators
ĠHur ricane
V ill
Ġun precedented
Ð½ Ð¸
ĠU T
ĠK ol
Ġpat rol
Ġprec ip
' })
Ġretail ers
if fin
________ ________
ĠSc oring
Ġste ering
ast ics
Ġhist ogram
Ġsc ary
Ġrenew able
DE C
Spe aking
ĠSt ay
ĠI g
Japan ese
="../ ..">
read ing
ENABLE D
View ById
F K
it ary
Ġfe ver
ĠV e
do ors
Ġprompt ed
Ġsuper b
ĠNo ah
miss ible
Cal c
å ·
ĠT ol
av in
the se
' </
) }$.
Ġout lets
expand ed
Ġyoung est
Ġn ost
n ell
Ġcontin uation
Ġcontribut or
ĠCOP Y
autore f
v ik
al bum
Ġneighbor ing
ĠMil waukee
it on
Ġ: )
M ilitary
ĠJo el
document ation
and ed
ĠTH AT
AD DR
Ġmo ist
ĠC ash
\ }.
p ow
fil tr
Ġadvoc ates
ll a
Ġneg lect
Ġhor r
s olution
left arrow
Ġtrad itionally
Fl ush
Ġcheck sum
cover age
Ġprox imity
ĠLuc y
Ġschedul er
Ġbreath ing
Ġam plitudes
G H
é ¡
Ġd umb
Ġance stors
Ġposition ed
Ġhistor ically
Ġjud icial
{ })
ĠS cre
Ġcount less
ĠB anks
Numer ic
n ested
Ġv endors
atter ing
ĠP ref
Ġan isot
ĠPublic ations
ĠS ources
ĠM ile
ĠP RE
ÃŃ n
P atch
Ġcontin ent
m v
Ġalloc ate
inherit Doc
Ġbe aches
Ġnot ified
Ep isode
Â ¶
we ights
Ġte ens
ĠG aza
Ġsubsid iary
odynam ic
V an
Ġmake up
æ Ń
ĠT ours
ĠCh at
Ġapp le
Ġfun ctor
ĠType Error
Un ity
Ġpoll ing
B rian
ĠDi agnostic
K n
Ġs ans
=' #
Ġun changed
ĠR ac
IL D
Ġan ch
8 50
ĠJes se
estab lished
Ġb er
riz es
Ġche aper
Ġtransl ations
Ġint ro
Ġnon profit
Typ ed
file Name
ym es
Text Field
ring ton
ĠAss ume
Ġdownload ed
um ann
Ġgeneral ization
Ġcompris ed
Ġapprec iation
ĠSt atic
art et
ĠT ue
own ers
aut om
err ing
ĠB ach
Ġim perial
Ġgame play
ĠS cale
ĠK i
big cup
Ġur ged
C ES
un til
ĠPrinc ipal
UB LE
s uggest
Ġ\ }
! ");
Ġpath ways
Hand lers
ĠP ages
Ġviol in
K A
ĠGet ting
current Time
consum er
V ED
Ġrespond ing
ĠLe af
Ġlast ing
Ġshe ets
Ġgl uc
Thread s
ĠEm pty
Ġp ile
18 9
EX P
Ġout rage
Ðµ Ð»
Ġfaith ful
Ġip rot
not ated
Ġrel uct
ĠK ur
Ġp ec
ast ian
ĠCitiz ens
rele ased
li ant
Ġsqu ares
Ġelectron ics
le f
ĠD ame
ribut ors
Ġatt orneys
Ad am
eg an
arn ess
è¡ ¨
Ġres igned
ĠNor folk
ĠShang hai
Ġgorge ous
\ }_{
Ġb ell
Ġloc om
40 3
Ad just
en os
Ġme als
Ġspir its
P ART
Ġw and
ĠSch w
ĠW elcome
ĠRE ST
ĠW ave
ĠEx ternal
Ġrad i
Ġdis par
ĠChe f
ĠC raft
ĠR ut
S uffix
n is
Ġch rome
Pro duction
Ġacc ent
Ġd type
Ġcou p
mon ary
19 03
ĠDel aware
ĠT F
ĠFerm i
Hel pers
ĠSte am
ĉĉĉĉĉĉĉĉ ĉĉĉĉĉ
ĠInd igenous
Ġtrans fers
Ġjew el
" |
Ġign oring
eg en
Prop ag
Ġperman ently
ĠT iger
ĠF uel
}{ }
mar ine
ĠPro ductions
Ġblock chain
ĠPost s
aint ed
Spr ite
ĠM N
Ġind oor
Ġmem o
Ġawk ward
ĠL uck
ĠK oh
s uffix
ĠHel per
Ġopen ly
om ics
ĠL akes
17 3
TH READ
Ap J
Ġin set
ĠV O
D U
ĠR ise
back up
Ġchar m
User Agent
erial izer
ĠM ER
h art
ĠExpl orer
Ġs aves
on ian
Ġre build
ĠT ul
Ġst iff
38 4
Ġpuzz le
w ang
Ġb ush
Get ter
ĠDem ocracy
ĠRun ning
Ġo m
Ġentang lement
ĠNS W
m ong
it ored
x c
Ġtrans ient
ĠE DT
Ġch lor
Tra vel
Ġtend ency
ĠS eq
ĠRes olution
T CP
Ġnumer ic
min or
greg ation
idel ity
ĠS I
R oyal
ĠK end
ĠAthlet ic
Ġfil med
ĠOr d
Ġinvest or
define Property
Cred ential
ĠW iki
ĠPo isson
mk dir
ĠV ermont
ĠC ritical
ĠHe avy
Ġdecor ated
Organ ization
Ġverb ose
Ġd ive
Ġstr at
M ex
Ra ises
re ction
Ġfr ank
Ġpar as
V ir
in vest
Ġcl ustering
di ag
D MA
Ġver se
23 7
ĠEV ENT
g ro
Ġal gebras
Ġtra gic
D N
Ġreg ret
Ġjav adoc
Ġst ab
b ill
ĠK l
Ġconstit u
M N
Com bo
ĠPro ceed
co ordinate
Ġrender er
Ġsu its
tain ing
Ġvis a
Ġexcess ive
ost ream
ob ar
Ġc ure
Ġg ut
ĠT ang
CI AL
UD ING
st ed
ĠP G
Ġwhere ver
azel cast
Nd Ex
Ġpres cribed
ĠTes la
os lav
aw ait
S ir
ur an
Ġrot ating
Ġdig its
ierarch ical
T s
h orn
ĠC raw
des cr
ĠMc L
hen e
Ġpres umably
Ġstat ue
Ġparam et
Ġil leg
S us
SY S
= }
Â ´
St ory
Ġlearn s
Ġsu ited
Ġquestion ed
ĠYan kees
c ards
ĠUs age
Ġs ang
ĉ ĠĠĠĠĠĠĠĠĠĠĠ
com merce
Ġun ited
ĠÃ Ĺ
ĠJo an
) !
pt ical
man ifold
ĠJul ie
ĠCon sequently
ley ball
ort ium
_{ -\
CLI ENT
ĠH ass
es pecially
gle w
i otic
ĠC anyon
Ġsupp liers
Ġfoot er
Big l
CL UDING
Term s
18 3
Ġassert False
Ġfif teen
Bal ance
Mar shal
ĠAdv oc
Ġvibr ant
Ġwa ited
se ver
Ġcriminal s
Ġgest ure
Ġpur ple
im an
Ġanten na
ATION S
Ignore Case
man ual
Ġpat ches
ur istic
Ar c
W ould
Ñ ī
st arter
ĠVeter ans
Opt im
g ae
Ġg amma
ĠR AM
On Search
poll ing
n orth
ĠN Z
Ġabs urd
prov ided
Ġprem ises
ĠO FF
sw ift
ĠR iemann
ock ets
th ritis
Ġpl aint
Ġdis advant
ĠInd ies
He art
riter ion
ĠIndust ries
ĠToy ota
Ġtob acco
ĠR ol
ĠH onda
ap k
Ġwe aker
ĠAn a
S on
ĠJour ney
s omething
Ġcomp romise
Ġdis placement
Ġprotest ers
M aps
Ġdiv ine
nt z
ĠCh an
A mb
Ġl overs
ĠV it
por ated
query Selector
Ġsur ge
> ',
ĠV ER
}[ !
h dr
tr ight
Un fortunately
Ġoff line
ias m
ĠHero es
Ġp id
m itt
ĠG az
ast ery
Ġaut onomous
6 55
Ġ" {
> ")
Ġadvoc acy
c url
ĠReg istration
Ġphys icians
ĠÃ ī
ra ining
Ġcyl inder
Ġexhib ited
Ġsever ity
ag ne
est im
ĠG itHub
ast es
Ġinher ent
with in
Ġacc idents
Ġperform ers
ap a
Ġset Timeout
mar shal
Ġinfin ity
ĠK re
Ġreg ulated
P rec
iv ariate
A wards
or ian
comm unity
Ġins ult
Ġg fx
Ġ' --
Ġfunction ing
Ġsupp lier
form al
Ġb izarre
ĠEq s
Ġb ary
pr ivacy
Ġdiff ers
ĠO wner
ĠId aho
" +
E ric
} ")
Ġ ../
ĠV as
ĠViol ence
A cknowled
Ġche f
ĠT ickets
2 14
U tility
ĠDes ert
Ġf ung
Ġp ian
Ġn aming
Ġan notations
Ġpotential s
ĠWAR NING
Ġmanip ulation
ari um
ĠSw an
Ġprospect ive
ĠPal mer
M u
it zer
O VER
Ġre use
Con stituency
Click Listener
c rit
head s
$\ ,
Ġpro jections
ĠCh o
ĠØ ¨
Ġt abs
ĠP rest
ĠL oss
>> >
ĠBe hind
OD AY
cc entric
ĠA way
Ã© r
ĠMedic are
Ġchrom os
ĠIll ust
Ġblo ody
ĠJosh ua
Na N
Ġscr ut
Ġg ly
ĠM ask
Ġse p
State Exception
ĠA ri
ĠAr senal
ĠFour th
Ġcomp ress
IN LINE
jav ase
process ed
Ġcivil ians
ik er
ĠLet ters
av our
ber ger
Ġ\ {\
ĠPro of
}) =\
ĠG ent
Ġanalyst s
ob server
cont aining
Ġsc ared
Ġch iral
DE SC
Fr ance
ĠBul let
n z
å Ŀ
system s
C AN
ĠAmb assador
Icon Success
6 40
un used
67 8
ĠMur der
im its
ĠAust rian
k b
ĠBrook s
Ġinvent ed
Ġtim ely
P ot
cont ribs
Ġt at
Ġb uffers
Gu ard
Ġis omorphic
Ġautom ation
Ġact ivate
Ġcelebr ates
M onday
Fl at
layout s
'] [
ĠLine ar
ĠK B
Ġun used
ogen esis
Ġsacr ific
n ear
Ġtri bes
37 0
Ġoppos ing
ĠCH AR
j er
âĢ ³
Ġwork space
Ġele ven
H F
Ġy a
per ed
] /
ĠA ber
ĠEl se
- %
Ġadd iction
Ġsupp ressed
Callback s
P rior
ĠH S
ĠMan aging
ĠDev il
ĠInt ent
gr and
Ġguitar ist
Ġdefic it
ĠEmp loyment
min i
Ġchar ming
Ġtun ed
ĠUtil s
C ritical
Ġl b
ult an
ĠAd m
ĠVol unte
) ',
op al
M IC
ĠPow ell
Ġshe er
18 1
Ġmet ast
Alloc ator
B UT
ĠB urg
Ġin k
Ġrep lication
Ġre write
ighbor hood
æį ®
orph ism
O H
Ġ{ $\
Ä Ļ
ic z
Ġimag ery
in crement
ĠTr ansp
h ibernate
Ġtraject ories
TO KEN
Ġs lop
pro logue
ow l
Ġfinal e
Ind ent
Intern et
LA S
ĠWar riors
ĠDis cussion
Ge org
Ġa fore
Ġcritic ized
Ġrelax ed
Ġsh ake
Ġbright ness
Ġco res
perm alink
Ġprotect ive
^+ $
ĠTe a
; :
Ġ{ :
Ġde formation
Ġexp ans
Ġenjoy able
ak y
he ap
Ġg ov
ĠP ul
pos ium
Ġreven ues
ang ered
Spec ific
at em
S pl
Ġag ing
Ï Į
Id le
be havior
ĠGl enn
b ishop
al in
W ant
Ġconv iction
ĠCom ic
ĠPost ed
Ġfar mer
Ġsound ed
w ent
Ġcat ast
Ġboy friend
à¤ ®
Mov ie
ĠEx port
Content Type
Ġfinal s
Ã ī
ab br
Ġc rap
ir y
ios ity
Adv anced
B IND
ĠK or
Ä Ľ
an ol
the m
ĠPl ans
Ġsum s
Ġaffili ated
un ix
SE D
Ġrevolution ary
ĠMan ual
"> )</
Ġr ises
() }
ant o
ins ky
32 1
word press
Ġn odd
ĠCy prus
Ġc ute
Ġconf irms
ĠOcc up
ĠO VER
PHP Excel
hed ules
ne um
Ġconv inc
Sl ider
mat ched
WIN DO
Number Of
F ly
empl ating
ĠBe havior
reat ment
24 7
ĠD od
ĠTreas ury
ic iency
Ġam ateur
Inst ead
Ġham mer
ĠPoint s
ĠArn old
Ġp ants
Ġobserv ational
Ġback s
AN S
ĠOtt awa
45 6
ĠM atter
ĠD WORD
ss h
18 70
We ak
Ġgen res
Ġweak ly
Ġdiam ond
l ar
"> '
Ġad her
Ġterror ists
Att ach
IconSuccess Encoded
Ġsynt hes
x t
Â ±
Ġdr one
render ing
product ive
Ġjump ing
Resp ons
Mix in
w char
rack ets
M EN
Or Empty
ĠAng els
d g
ĠD uncan
6666 66
"> :
ch ip
ĠR us
Ġwe aken
Ġpurch asing
ĠArray s
Ġsear ched
Ġt a
Ġgrand mother
cl er
roph ic
$ --
Ġl anes
Ġal phabet
Ġfile Name
Ġexerc ises
ou bt
Ġarch ives
Ġvin yl
ĠĠĠĠĠĠĠĠĠĠĠĠĠĠĠĠĠĠĠĠĠĠĠĠĠĠĠĠĠĠĠĠ ĠĠĠĠĠĠĠĠĠĠĠĠĠĠ
æ Į
re ceived
comp ose
Ġ] );
Ġor chestra
26 5
ĠN icol
ĠTr inity
=" '
Ġaux iliary
ĠN L
Ġ ib
act ivation
F old
ç ī
ĠG NU
Byte String
ĠRestaur ant
C AL
in fl
Ġt et
at ility
Ġun employment
comp atible
Ġtechn ically
ĠJeff rey
4 20
Ġ$ <
Se ek
A dapt
Com puter
ĠH aven
Ġillust ration
Ġdeliber ately
T own
ĠAs k
Ġv intage
Ġconver ges
R oles
Ġs iblings
Ġev olving
SER VICE
ĠNews letter
à¤ ¸
aug hed
Ġlocal ization
Ġnormal ize
") ).
r ina
se ys
Bi ography
ç½ ®
Ġvel ocities
Ġreflect ing
Ġal together
El se
Ġdefin ite
Ġ[ #
Ġ( .
Ġunve iled
c ould
Ex ist
source forge
aff e
ĠG ender
ĠPop ulation
Ġtra iling
ar u
Work flow
\ .
f ork
ro les
ĠS ullivan
ALL Y
ĠLegisl ative
S af
S ong
w ould
:// $
FAIL URE
op us
ĠM ik
ĠW inds
Ġre interpret
m ob
Ġ< >
Ġcov ariance
g as
Ġ[ (
ç ¤
Ġbra ve
at z
tra ined
ĠL ynch
publish er
Ġmin isters
ĠSurg ery
G itHub
× Ĳ
E OF
Ġ nd
Ġtransform s
Ġtou ches
ed i
ĠHe ath
Ġâ Ķ
18 6
Ġiter ate
atin um
ĠStart ing
Ġcycl ing
Ġg rip
ĠW ake
Ġtra it
Ġch ips
Ġterrit ories
ĠL ists
EM ENT
nt hesis
u ably
Ġst raw
H u
ĠM AC
Ġexp atriate
Circ le
Ġvulner ability
Request ed
ĠD erek
av g
Ġtouch ing
Ġt body
) }$,
olith ic
TIME OUT
ĠEv idence
ĠRail road
ĠB H
Ġn utrition
Ġab brev
OUT PUT
ĠB ever
ĠInitial ized
N ORMAL
Ġj ar
SH OT
SN AP
f air
** :
K O
Ġnull able
ĠB ark
Ġcivil ization
v id
Call ing
Ġtable ts
Ġrandom ized
ĠF emale
ĠN I
B inder
ï ¸
en i
ent on
Ġarg c
person al
ut a
F atal
] ],
tw ig
cred it
Ġinter cept
âĨ Ĳ
vel t
tol ua
ĠGab riel
) ");
B bb
re vision
aw i
Dem o
Ġen counters
ĠPear l
are tt
ĠCon cept
ĠNov el
Direct ive
h yd
ĠUn ity
ĠSh ape
ĠAh med
W F
Ġon set
An onymous
Polit ical
H alf
Ġl bs
Ġpron ounced
Recorded Vote
P OL
s ap
F lo
Ġdis joint
De leted
ĠHash Set
ĠHu gh
Ï ī
Ġintern ally
ĠS ax
hand ed
Ġdepos it
ok i
Ġjust ified
ĠD y
det ect
p ure
Ġschedul ing
ĠCatalog ue
Ġaest hetic
Ġend points
mem item
c orn
und ef
Ġt ier
ì Ŀ
param ref
Ġind ie
omet own
table block
real m
ĠR ena
lic ates
st re
[...]
