{"[UNK]":0,"!":1,"\"":2,"#":3,"$":4,"%":5,"&":6,"'":7,"(":8,")":9,"*":10,"+":11,",":12,"-":13,".":14,"/":15,"0":16,"1":17,"2":18,"3":19,"4":20,"5":21,"6":22,"7":23,"8":24,"9":25,":":26,";":27,"<":28,"=":29,">":30,"?":31,"@":32,"A":33,"B":34,"C":35,"D":36,"E":37,"F":38,"G":39,"H":40,"I":41,"J":42,"K":43,"L":44,"M":45,"N":46,"O":47,"P":48,"Q":49,"R":50,"S":51,"T":52,"U":53,"V":54,"W":55,"X":56,"Y":57,"Z":58,"[":59,"\\":60,"]":61,"^":62,"_":63,"`":64,"a":65,"b":66,"c":67,"d":68,"e":69,"f":70,"g":71,"h":72,"i":73,"j":74,"k":75,"l":76,"m":77,"n":78,"o":79,"p":80,"q":81,"r":82,"s":83,"t":84,"u":85,"v":86,"w":87,"x":88,"y":89,"z":90,"{":91,"|":92,"}":93,"~":94,"¡":95,"¢":96,"£":97,"¤":98,"¥":99,"¦":100,"§":101,"¨":102,"©":103,"ª":104,"«":105,"¬":106,"®":107,"¯":108,"°":109,"±":110,"²":111,"³":112,"´":113,"µ":114,"¶":115,"·":116,"¸":117,"¹":118,"º":119,"»":120,"¼":121,"½":122,"¾":123,"¿":124,"Â":125,"Ã":126,"Ä":127,"Å":128,"Æ":129,"Ç":130,"È":131,"É":132,"Ê":133,"Ë":134,"Ì":135,"Í":136,"Î":137,"Ï":138,"Ð":139,"Ñ":140,"Ò":141,"Ó":142,"Ô":143,"Õ":144,"Ö":145,"×":146,"Ø":147,"Ù":148,"Ú":149,"Û":150,"Ü":151,"Ý":152,"Þ":153,"ß":154,"à":155,"á":156,"â":157,"ã":158,"ä":159,"å":160,"æ":161,"ç":162,"è":163,"é":164,"ê":165,"ë":166,"ì":167,"í":168,"î":169,"ï":170,"ð":171,"ñ":172,"ò":173,"ó":174,"ô":175,"Ā":176,"ā":177,"Ă":178,"ă":179,"Ą":180,"ą":181,"Ć":182,"ć":183,"Ĉ":184,"ĉ":185,"Ċ":186,"ċ":187,"Č":188,"č":189,"Ď":190,"ď":191,"Đ":192,"đ":193,"Ē":194,"ē":195,"Ĕ":196,"ĕ":197,"Ė":198,"ė":199,"Ę":200,"ę":201,"Ě":202,"ě":203,"Ĝ":204,"ĝ":205,"Ğ":206,"ğ":207,"Ġ":208,"ġ":209,"Ģ":210,"ģ":211,"Ĥ":212,"ĥ":213,"Ħ":214,"ħ":215,"Ĩ":216,"ĩ":217,"Ī":218,"ī":219,"Ĭ":220,"ĭ":221,"Į":222,"į":223,"İ":224,"ı":225,"Ĳ":226,"ĳ":227,"Ĵ":228,"ĵ":229,"Ķ":230,"ķ":231,"ĸ":232,"Ĺ":233,"ĺ":234,"Ļ":235,"ļ":236,"Ľ":237,"ľ":238,"Ŀ":239,"ŀ":240,"Ł":241,"ł":242,"Ń":243,"ĠĠ":244,"ĠĠĠĠ":245,"Ġt":246,"in":247,"er":248,"Ġa":249,"on":250,"he":251,"re":252,"at":253,"en":254,"or":255,"Ġthe":256,"st":257,"an":258,"it":259,"al":260,"Ġc":261,"Ġs":262,"ar":263,"es":264,"Ġo":265,"Ġw":266,"ed":267,"is":268,"ion":269,"Ġf":270,"ĠĠĠ":271,"ing":272,"Ġp":273,"le":274,"ĠĠĠĠĠĠĠĠ":275,"Ġb":276,"nd":277,"ou":278,"ic":279,"Ġin":280,"Ġof":281,"as":282,"ro":283,"Ġm":284,"Ġd":285,"et":286,"Ġto":287,"ct":288,"Ġand":289,"ent":290,"Ġh":291,"el":292,"Ġth":293,"il":294,"am":295,"om":296,"Ġn":297,"Ġre":298,"id":299,"ĠS":300,"Ġl":301,"ol":302,"ig":303,"ce":304,"ut":305,"im":306,"ĠT":307,"ation":308,"ĠĠĠĠĠĠĠ":309,"Ġe":310,"ot":311,"ur":312,"Ġ(":313,"âĢ":314,"ĠC":315,"ad":316,"ĠA":317,"se":318,"iv":319,"ch":320,"Ġ=":321,"Ġg":322,"Ġis":323,"ĠI":324,"ul":325,"ra":326,"od":327,"ow":328,"ĉĉ":329,"</":330,"if":331,"Ġfor":332,"ag":333,"th":334,"ĠM":335,"ly":336,"un":337,"Ġst":338,"=\"":339,"Ġon":340,"ay":341,"Ġbe":342,"em":343,"ers":344,"us":345,"Ġv":346,");":347,"Ġ$":348,"ĠP":349,"pe":350,"ith":351,"ate":352,"ab":353,"um":354,"--":355,"Ġ{":356,"ir":357,"ĠB":358,"ck":359,"Ġ\\":360,"Ġ<":361,"qu":362,"ist":363,"ter":364,"Ġthat":365,"Ġcon":366,"ht":367,"av":368,"ver":369,"pt":370,"čĊ":371,"ĠĠĠĠĠĠĠĠĠĠĠ":372,"ĠD":373,"ĠR":374,"//":375,"ass":376,"ex":377,"Ġas":378,"ew":379,"Ġwith":380,"ri":381,"est":382,"ess":383,"20":384,"ĠH":385,"and":386,"ction":387,"ĠF":388,"Ġ*":389,"lo":390,"Ġwh":391,"res":392,"end":393,"Ġan":394,"Ġal":395,"ĠL":396,"pp":397,"ame":398,"Ġit":399,"Ġy":400,"ĠN":401,"ĠW":402,"our":403,"Ġpro":404,"ort":405,"ub":406,"âĢĻ":407,"ere":408,"op":409,"ĠG":410,"ĠE":411,"Ġ\"":412,"Ġ}":413,"ue":414,"ity":415,"Ġde":416,"ill":417,"ĠThe":418,"ke":419,"\">":420,"age":421,"rom":422,"ore":423,"nt":424,"Ġex":425,"os":426,"Ġcom":427,"lass":428,"art":429,"Ġat":430,"ect":431,"ment":432,"ain":433,"..":434,"Ġor":435,"ine":436,"Ġby":437,"ight":438,"ld":439,"Ġthis":440,"tr":441,"Ġr":442,"all":443,"ĠĠĠĠĠĠĠĠĠĠĠĠĠĠĠĠ":444,"Ġare":445,"Ġwas":446,"oc":447,"ath":448,"li":449,"ap":450,"ĠO":451,"ĠĠĠĠĠ":452,"ive":453,"ure":454,"ant":455,"Ġu":456,"Ġhe":457,"()":458,"urn":459,"ies":460,"Ġse":461,"sp":462,"ĠJ":463,"Ġfrom":464,"**":465,"iz":466,"ial":467,"con":468,"ack":469,"ult":470,"ud":471,"ac":472,"ext":473,"per":474,"ge":475,"Ġwe":476,"_{":477,"lic":478,"ĠâĢ":479,"ust":480,"og":481,"ans":482,"rou":483,"ast":484,"00":485,"Ġnot":486,"ave":487,"able":488,"Ġif":489,"19":490,"Ġch":491,"Ġclass":492,"Ġsh":493,"eg":494,"ff":495,"out":496,"orm":497,"ype":498,"Ġ&":499,"int":500,"ard":501,"turn":502,"ind":503,"ĠU":504,"ber":505,"ph":506,"----":507,"ov":508,"get":509,"ode":510,"are":511,"com":512,"ef":513,"Ġ'":514,"ell":515,"pl":516,"ost":517,"Ġ-":518,"==":519,"ary":520,"port":521,"ref":522,"ase":523,"Ġle":524,"The":525,"Ġyou":526,"ite":527,"ok":528,"ated":529,"ile":530,"ption":531,"ak":532,"ord":533,"ire":534,"201":535,"ide":536,"Ġtr":537,"'s":538,"Ġhave":539,"ould":540,"act":541,"ime":542,"ice":543,"ĠĠĠĠĠĠĠĠĠĠĠĠĠĠĠ":544,"ace":545,"ich":546,"ep":547,"In":548,"ign":549,"Ġj":550,"Ġsu":551,"ata":552,"ia":553,"ip":554,"ĠK":555,"ong":556,"ition":557,"ical":558,"to":559,"{\\":560,"ork":561,"cl":562,"Ġpl":563,"Ġcan":564,"ang":565,"Ġus":566,"ject":567,"ear":568,"ĠIn":569,"Ġcont":570,"Ġab":571,"ser":572,"Ġcomp":573,"ence":574,"ĠV":575,"Ġk":576,"cc":577,"ild":578,"one":579,"Ġhas":580,"Ġ//":581,"Ġall":582,"Ġreturn":583,"Ġnew":584,"ance":585,"ĠTh":586,"ens":587,"ĠĊ":588,"str":589,"),":590,"alue":591,"ma":592,"form":593,"ev":594,").":595,"Ġ$\\":596,"ĉĉĉĉ":597,"->":598,"ry":599,"Ġad":600,"::":601,"ib":602,"ublic":603,"ĠSt":604,"ec":605,"ont":606,"ations":607,"ory":608,"Ġ</":609,"Ġim":610,"ther":611,"Ġun":612,"Ġ[":613,"ft":614,"âĢĿ":615,"hen":616,"ress":617,"ous":618,"ource":619,"Ġwill":620,"../":621,"Ġar":622,"row":623,"ount":624,"Ġdo":625,"unction":626,"Ġres":627,"Ġhis":628,"so":629,"elf":630,"ach":631,"ome":632,"Ġbut":633,"pro":634,"Ġwhich":635,"math":636,"ail":637,"Ġout":638,"ents":639,"St":640,"ll":641,"du":642,"Ġ@":643,"Ġen":644,"gh":645,"\",":646,"cri":647,"ull":648,"aram":649,"ink":650,"10":651,"ook":652,"Ġ/":653,"own":654,"Ġ+":655,"au":656,"ps":657,"Ġme":658,"Ġgo":659,"ml":660,"set":661,"ound":662,"ĠCh":663,"ual":664,"iew":665,"Ġone":666,"(\"":667,"Ġup":668,"div":669,"ize":670,"ark":671,"ob":672,"Ġtheir":673,"ree":674,"();":675,"Ġstr":676,"fer":677,"Ġthey":678,"te":679,"essage":680,"eth":681,"ors":682,"span":683,"ple":684,"ian":685,"Ġdis":686,"}\\":687,"Ġev":688,"ake":689,"Ġget":690,"Ġsc":691,"iel":692,"ions":693,"Ġmore":694,"put":695,"ne":696,"oth":697,"></":698,"erv":699,"irst":700,"Ġso":701,"ĠâĢľ":702,"}$":703,"^{":704,"Ġper":705,"enc":706,"ish":707,"Ġwho":708,"ĠY":709,"Ġ.":710,"tring":711,"Ġ|":712,"ery":713,"Ex":714,"hed":715,"oll":716,"Ġqu":717,"equ":718,"--------":719,"',":720,"ener":721,"old":722,"ely":723,"><":724,"Ġwere":725,"ings":726,"ield":727,"Ġint":728,"Ġpublic":729,"Ġpart":730,"inal":731,"clud":732,"fig":733,"Ġinter":734,"yst":735,"ug":736,"ss":737,"Ġsp":738,"Ġdef":739,"pect":740,"we":741,"Ġman":742,"tt":743,"lect":744,"200":745,"ray":746,"sh":747,"Ġapp":748,"rit":749,"****":750,"ict":751,"mer":752,"ates":753,"but":754,"ER":755,"Ġ:":756,"app":757,"ool":758,"Ġpr":759,"Ġalso":760,"Ġli":761,"Ġset":762,"Ġne":763,"Ġabout":764,"Ġname":765,"Ġag":766,"Ġfunction":767,"Ġ*/":768,"cal":769,"ert":770,"../../":771,"text":772,"ick":773,"oint":774,"err":775,"pr":776,"pec":777,"ays":778,"Ġher":779,"Ġover":780,"wo":781,"up":782,"Ġpre":783,"nder":784,"Ġits":785,"vel":786,"oid":787,"Ġob":788,"ve":789,"ĉĉĉ":790,"erm":791,"over":792,"Ġwork":793,"cre":794,"ystem":795,"ĠĠĠĠĠĠĠĠĠĠĠĠĠĠĠĠĠĠĠ":796,"ix":797,"Ġtime":798,"html":799,"aw":800,"Ġbeen":801,"Th":802,"ics":803,"}}":804,"ose":805,"Ġ#":806,"Pro":807,"ys":808,"====":809,"igh":810,"ng":811,"abel":812,"ĠIt":813,"Ġother":814,"Ġany":815,"Ġwhen":816,"ON":817,"12":818,"Ġhad":819,"Ġvar":820,"ĠĠĠĠĠĠĠĠĠ":821,"fter":822,"name":823,"Ġthere":824,"('":825,"IN":826,"Ġhref":827,"io":828,"(\\":829,"))":830,"ie":831,"ty":832,"odel":833,"les":834,"iss":835,"ax":836,"rac":837,"ond":838,"ater":839,"Ġyear":840,"atch":841,"Ġro":842,"this":843,"ove":844,"ram":845,"Name":846,"ons":847,"egin":848,"anc":849,"right":850,"Ġte":851,"source":852,"Ġour":853,"ator":854,"line":855,"Ġyour":856,"Ġwould":857,"18":858,"Ġdes":859,"message":860,"Ġfirst":861,"://":862,"},":863,"ange":864,"begin":865,"Type":866,"ĠUn":867,"Ġthan":868,"arg":869,"roup":870,"Ġsome":871,"round":872,"__":873,"Ġinto":874,"the":875,"uild":876,"ĠHe":877,"tern":878,"ific":879,"Ġtype":880,"import":881,"atic":882,"ribut":883,"ĠâĢĵ":884,"Ġadd":885,"lation":886,"umber":887,"Ġsa":888,"Ġoff":889,"trans":890,"td":891,"Ġpe":892,"lock":893,"Ġdata":894,"lement":895,"Id":896,"Ġkn":897,"Ġthem":898,"ise":899,"String":900,"Ġno":901,"uct":902,"RE":903,"Ġrec":904,"Ġvalue":905,"alse":906,"ative":907,"Ġonly":908,"param":909,"sum":910,"Ġcomm":911,"ann":912,"ade":913,"dd":914,"code":915,"Ġtwo":916,"ople":917,"ious":918,"ational":919,"11":920,"key":921,"urre":922,"_{\\":923,"Ġ=>":924,"Ġend":925,"arch":926,"mb":927,"ethod":928,"fo":929,"ating":930,"Ġconst":931,"ĠWe":932,"Ġline":933,"che":934,"eng":935,"Ġcol":936,"ĠThis":937,"Ġacc":938,"ally":939,"Ġbet":940,"ames":941,"cript":942,"col":943,"als":944,"Cont":945,")$":946,"ST":947,"Con":948,"Ġcl":949,"ta":950,"16":951,"Ġlike":952,"ues":953,"return":954,"Ġel":955,"Ġshe":956,"...":957,"ular":958,"Ġind":959,"ember":960,"of":961,"ox":962,"Ġsub":963,"/>":964,"Ġi":965,"Ġself":966,"Ġcre":967,"##":968,"Ġid":969,"read":970,"ash":971,"Ġact":972,"let":973,"ĠCom":974,"Ġreg":975,"ead":976,"pos":977,"ock":978,"Ġtra":979,"pport":980,"Com":981,"AT":982,"Ġmy":983,"Ġrequ":984,"nc":985,"Ġfe":986,"Ġback":987,"Ch":988,"olog":989,"add":990,"}{":991,"Ġresult":992,"amp":993,"def":994,"ception":995,"Ġwhat":996,"15":997,"und":998,"ied":999,"ĠPro":1000,"Ġatt":1001,"Ġunder":1002,"vent":1003,"Res":1004,"\"/>":1005,"Ġinclud":1006,"cess":1007,"Ġ!":1008,"Ġjust":1009,"htt":1010,"Ġuse":1011,"Ġpos":1012,"Ġwhere":1013,"label":1014,"ities":1015,"Ġsaid":1016,"ĠAr":1017,"ms":1018,"ning":1019,"ault":1020,"ased":1021,"ble":1022,"ility":1023,"Ġplay":1024,"Ġdif":1025,"ause":1026,"eb":1027,"Ġafter":1028,"type":1029,"uth":1030,"its":1031,"ton":1032,"Ġmay":1033,"ible":1034,"ollow":1035,"orld":1036,"OR":1037,"raph":1038,"class":1039,"ner":1040,"ement":1041,"eq":1042,"frac":1043,"cont":1044,"Ġpeople":1045,"List":1046,"Ġ_":1047,"ower":1048,"Ġprov":1049,"ache":1050,"son":1051,"Ġcall":1052,"ward":1053,"ank":1054,"eta":1055,"ww":1056,"rough":1057,"Ġinv":1058,"irect":1059,"translation":1060,"Ġthen":1061,"Ġever":1062,"Ġ==":1063,"urrent":1064,"Ġhow":1065,"ric":1066,"ures":1067,"ough":1068,"ĠNew":1069,"ined":1070,"left":1071,"Ġrel":1072,"cond":1073,"Ġph":1074,"itle":1075,"ited":1076,"led":1077,"ersion":1078,"pon":1079,"Ġrem":1080,"AR":1081,"Ġtrans":1082,"imes":1083,"ting":1084,"Ġam":1085,"ĠSe":1086,"resent":1087,"13":1088,"LE":1089,"loc":1090,"ern":1091,"land":1092,"fore":1093,"Ġspec":1094,"ivers":1095,"der":1096,"sc":1097,"Ġnull":1098,"ract":1099,"ider":1100,"Ġshow":1101,"org":1102,"'t":1103,"ages":1104,"ument":1105,"hat":1106,"var":1107,"ature":1108,"min":1109,"ices":1110,"ivate":1111,"ru":1112,"lection":1113,"Ġsuch":1114,"cite":1115,"reat":1116,"14":1117,"Ġent":1118,"Ġvoid":1119,"):":1120,"Ġloc":1121,"Ġinst":1122,"Ġfil":1123,"air":1124,"ek":1125,"Ġac":1126,"Ġform":1127,"idth":1128,"Ġ>":1129,"ey":1130,"Ar":1131,"Ġmost":1132,"Ġhim":1133,"25":1134,"Ġthese":1135,"ins":1136,"Ġexp":1137,"ful":1138,"ĠSh":1139,"ask":1140,"It":1141,"ood":1142,"Ġneed":1143,"Ġpol":1144,"self":1145,"view":1146,"Ġorg":1147,"ily":1148,"Ġco":1149,"Ġ`":1150,"Ġbec":1151,"log":1152,"\"><":1153,"Ġchar":1154,"val":1155,"Ġthrough":1156,"wn":1157,"AL":1158,"Ġfollow":1159,"Ġused":1160,"man":1161,"pen":1162,"Ġfl":1163,"Ġserv":1164,"back":1165,"EN":1166,"yle":1167,"red":1168,"Ġext":1169,"ars":1170,"ween":1171,"Ġval":1172,"ole":1173,"Ġtrue":1174,"Ġ--":1175,"17":1176,"Ġshould":1177,"be":1178,"ince":1179,"ID":1180,"cent":1181,"ments":1182,"30":1183,"Ġhigh":1184,"ody":1185,"uring":1186,"ts":1187,"ptions":1188,"Ġtest":1189,"serv":1190,"mathb":1191,"ĠAl":1192,"Ġcase":1193,"Ġcould":1194,"));":1195,"mp":1196,"Ġfalse":1197,"Ġstud":1198,"amb":1199,"Ġgener":1200,"ient":1201,"Ġcons":1202,"$.":1203,"rm":1204,"Ġerr":1205,"ream":1206,"bject":1207,"Ġdiffer":1208,"ines":1209,"ier":1210,"Ġra":1211,"ution":1212,"\");":1213,"ren":1214,"ists":1215,"Ġdet":1216,"Ġwell":1217,"uff":1218,"Ġprodu":1219,"att":1220,"sub":1221,"ĠĠĠĠĠĠĠĠĠĠĠĠĠ":1222,"ished":1223,"bar":1224,"other":1225,"$,":1226,"Ġelse":1227,"})":1228,"Ġstart":1229,"Ġsim":1230,"any":1231,"ĠĠĠĠĠĠĠĠĠĠĠĠĠĠĠĠĠĠĠĠĠĠĠ":1232,"sert":1233,"uch":1234,"string":1235,"rr":1236,"To":1237,"ah":1238,"oot":1239,"ife":1240,"********":1241,"Ġbetween":1242,"ized":1243,"----------------":1244,"Ġdist":1245,"Ġnow":1246,"ote":1247,"arget":1248,"Ġx":1249,",\\":1250,"ĠAn":1251,"Ġsm":1252,"Ġcor":1253,"SS":1254,"ength":1255,"ason":1256,"formation":1257,"Ġfinal":1258,"Ġpoint":1259,"Ġsystem":1260,"ava":1261,"ĠEx":1262,"fl":1263,"Ġagain":1264,"ffect":1265,"day":1266,"Ġknow":1267,"Ġread":1268,"Ġyears":1269,"ĠQ":1270,"ĠAs":1271,"Ġright":1272,"}.":1273,"erson":1274,"ets":1275,"000":1276,"Ġnumber":1277,"equation":1278,"Ġevery":1279,"Ġ)":1280,"perty":1281,"item":1282,"itt":1283,"Ġ||":1284,"par":1285,"ĠCon":1286,"co":1287,"Ġlong":1288,"Ġsee":1289,"199":1290,"âĢľ":1291,"az":1292,"meric":1293,"lient":1294,"for":1295,"data":1296,"Ġass":1297,"Data":1298,"ale":1299,"nb":1300,"ident":1301,"iver":1302,"pre":1303,"ule":1304,"Value":1305,"Ġmake":1306,"ample":1307,"mathcal":1308,"Ġsign":1309,"ĠFor":1310,"////":1311,"ral":1312,"Ġdid":1313,"Ġdoes":1314,".âĢĿ":1315,"work":1316,"ired":1317,"32":1318,"Ġeach":1319,"Ġgiv":1320,"arent":1321,"oci":1322,"Ġbeing":1323,"Ġmodel":1324,"ele":1325,"yp":1326,"action":1327,"eter":1328,"Ġlist":1329,"AN":1330,"da":1331,"rid":1332,"by":1333,"Ġeven":1334,"Col":1335,"ision":1336,"px":1337,"chool":1338,"ĠTr":1339,"wh":1340,"Ġser":1341,"date":1342,"ever":1343,"new":1344,"aking":1345,"oy":1346,"ĠĠĠĠĠĠĠĠĠĠĠĠĠĠĠĠĠĠĠĠĠĠĠĠĠĠĠĠĠĠĠĠ":1347,"uss":1348,"IT":1349,"ott":1350,"value":1351,"Ġmin":1352,"Ġbecause":1353,"ism":1354,"Ġlook":1355,"ced":1356,"roll":1357,"ccess":1358,"pha":1359,"way":1360,"ĠZ":1361,"play":1362,"50":1363,"Set":1364,"Ġmany":1365,"ik":1366,"Ġsur":1367,"file":1368,"location":1369,"ants":1370,"roid":1371,"nbsp":1372,"ense":1373,"ĠĠĠĠĠĠ":1374,"ouse":1375,"heck":1376,"We":1377,"Ġap":1378,"\")":1379,"ences":1380,"ger":1381,"Ġcount":1382,"}(":1383,"Ġway":1384,"Ġrep":1385,"ĠAnd":1386,"CT":1387,"Ġstring":1388,"cept":1389,"atus":1390,"Ġbefore":1391,"not":1392,"Ġsame":1393,"lp":1394,"Ġ/**":1395,"Ġhand":1396,"load":1397,"By":1398,"SE":1399,"Ġed":1400,"Ġwhile":1401,"ify":1402,"Exception":1403,"Ġvery":1404,"rad":1405,"oh":1406,"hip":1407,"me":1408,"Ġbl":1409,"ience":1410,"Ġmod":1411,"}^":1412,"As":1413,"Ġgu":1414,"24":1415,"rol":1416,"Ġfound":1417,"yn":1418,"Ġusing":1419,"Ġoper":1420,"alk":1421,"Ġbel":1422,"ces":1423,"($":1424,"ather":1425,"ute":1426,"ization":1427,"test":1428,"ically":1429,"face":1430,"Ġsupport":1431,"gram":1432,"ĠIf":1433,"Ġlast":1434,"Object":1435,"Ġdr":1436,"iversity":1437,"Ġ///":1438,"rror":1439,"Ġart":1440,"ots":1441,"Ġ&&":1442,"ency":1443,"Ġprivate":1444,"âĢĵ":1445,"Ġrun":1446,"gy":1447,"];":1448,"~\\":1449,"}_":1450,"rop":1451,"Ġequ":1452,"struct":1453,"Tr":1454,"br":1455,"ym":1456,"Ġdec":1457,"DE":1458,"ght":1459,"Ġfind":1460,"========":1461,"Ġstatic":1462,"ared":1463,"alpha":1464,"ĠInd":1465,"Ġmon":1466,"ĠAmeric":1467,"ology":1468,"Ġboth":1469,"Ġsol":1470,"ified":1471,"Ġresp":1472,".,":1473,"orn":1474,"Ġstate":1475,"Ġdown":1476,"22":1477,"Ġmethod":1478,"Ġdisc":1479,"2019":1480,"Ġdifferent":1481,"Se":1482,"Ġhere":1483,"head":1484,"ler":1485,"Un":1486,"Ġfield":1487,"')":1488,"100":1489,"alth":1490,"Ġdep":1491,"Ġmade":1492,"elta":1493,"âĢ¦":1494,"umn":1495,"Ġthink":1496,"Ġexper":1497,"ĠX":1498,"ĠString":1499,"ME":1500,"lob":1501,"ron":1502,"her":1503,"Ġworld":1504,"Ġ!=":1505,"arn":1506,"Ġlead":1507,"chn":1508,"Get":1509,"requ":1510,"ĠYou":1511,"Ġmed":1512,"Ġdon":1513,"med":1514,"Ġgood":1515,"Ġ%":1516,"Ġcent":1517,"ross":1518,"comm":1519,"aj":1520,"Test":1521,"order":1522,"size":1523,"Ġmuch":1524,"orth":1525,"rc":1526,"ambda":1527,"inter":1528,"mary":1529,"uc":1530,"An":1531,"Ġthose":1532,"Ġown":1533,"Ġobject":1534,"Ġcurrent":1535,"ually":1536,"ĠSc":1537,"velop":1538,"Ġwant":1539,"til":1540,"http":1541,"().":1542,"ten":1543,"],":1544,"ĠIs":1545,"This":1546,"indow":1547,"ĠRes":1548,"Ġdevelop":1549,"ives":1550,"lear":1551,"su":1552,"oad":1553,"ister":1554,"Ġfact":1555,"que":1556,".\"":1557,"Ġav":1558,"ush":1559,"use":1560,"Ġbr":1561,"Ġfam":1562,"rite":1563,"Ġimport":1564,"pi":1565,"ains":1566,"For":1567,"script":1568,"Ġsecond":1569,"link":1570,"());":1571,"bers":1572,"reg":1573,"Ġinformation":1574,"21":1575,"Ġbo":1576,"ane":1577,"ession":1578,"ality":1579,"View":1580,"ager":1581,"Ref":1582,"Ġprocess":1583,"ends":1584,"Ġthree":1585,"iness":1586,"CO":1587,"Ġexpect":1588,"time":1589,"Error":1590,"Ġpass":1591,"ĠWh":1592,"raw":1593,"._":1594,"reak":1595,"pace":1596,"arm":1597,"Ind":1598,"lay":1599,")\\":1600,"ential":1601,"ness":1602,"ases":1603,"Ġkey":1604,"cription":1605,"Ġpartic":1606,"uthor":1607,"Sh":1608,"ocument":1609,"ĠDe":1610,"Ġparam":1611,"list":1612,"lang":1613,"ctions":1614,"Ġhelp":1615,"bs":1616,"RO":1617,"ĠCol":1618,"Ġmov":1619,"public":1620,"40":1621,"Ġdirect":1622,"ĠPh":1623,"Ġest":1624,"ĠĠĠĠĊ":1625,"Im":1626,"akes":1627,"util":1628,"rag":1629,"Ġwrit":1630,"opy":1631,"Ġnon":1632,"Class":1633,"field":1634,"dis":1635,"LL":1636,"23":1637,"ital":1638,"function":1639,"net":1640,"Ġhead":1641,"Ġmem":1642,"ĠRe":1643,"Ġarg":1644,"$\\":1645,"Ġbuild":1646,"\"></":1647,"Ġperform":1648,"Ġteam":1649,"nav":1650,"search":1651,"amma":1652,"index":1653,"mod":1654,"ission":1655,"less":1656,"ector":1657,"uck":1658,"js":1659,"Ġorder":1660,"iev":1661,"ural":1662,"tain":1663,"Ġstill":1664,"lish":1665,"ĠâĢĺ":1666,"['":1667,"Ġcontin":1668,"Ġduring":1669,"Ġfile":1670,"\";":1671,"Ġclo":1672,"=\\":1673,"ĉĉĉĉĉ":1674,"Ġchild":1675,"Ġvis":1676,"Ġcar":1677,"itions":1678,"mu":1679,"On":1680,"].":1681,"go":1682,"AC":1683,"section":1684,"top":1685,"Ġtop":1686,"Ġz":1687,"Ġimp":1688,"url":1689,"IC":1690,"ION":1691,"64":1692,"includ":1693,"');":1694,"width":1695,"ope":1696,".</":1697,"Requ":1698,"Ġsom":1699,"ervice":1700,"Ġhtt":1701,"ground":1702,"ĠUniversity":1703,"Ġmark":1704,"Ġgiven":1705,"rem":1706,"ats":1707,"igma":1708,"Ġtake":1709,"Key":1710,"els":1711,"itor":1712,"ĠHow":1713,"_\\":1714,"ega":1715,"Ġreport":1716,"array":1717,"ĠBut":1718,"outh":1719,"part":1720,"Ġke":1721,"come":1722,"ternal":1723,"ĠMar":1724,"Ġmust":1725,"Ġmain":1726,"Ġtitle":1727,"Ġmat":1728,"unc":1729,"Ġopen":1730,",âĢĿ":1731,"ĠOn":1732,"usiness":1733,"ords":1734,"ĠCl":1735,"ived":1736,"lex":1737,"TE":1738,"Ġterm":1739,"Ġgroup":1740,"Ġear":1741,"ension":1742,"Ġsing":1743,"itial":1744,"ina":1745,"usic":1746,"Ġpost":1747,"ven":1748,"33":1749,"!--":1750,"Ġeffect":1751,"side":1752,"Ġaround":1753,"fe":1754,"uffer":1755,"Ġsl":1756,"Ġrele":1757,"Ġcommun":1758,"Ġreal":1759,"sy":1760,"ribute":1761,"uration":1762,"ffic":1763,"irc":1764,"60":1765,"Ġappro":1766,"2018":1767,"ustom":1768,"Ġprovid":1769,"Ġperson":1770,"apt":1771,"mathbb":1772,"ape":1773,"ogle":1774,"ĠLe":1775,"Ġsay":1776,"(),":1777,"const":1778,"Ġ/>":1779,"Ġallow":1780,"Ġincre":1781,"Ġevent":1782,"ackage":1783,"198":1784,"Ġbook":1785,"Ġnext":1786,"File":1787,"Int":1788,"Ġfollowing":1789,"\":":1790,"bo":1791,"ĠComm":1792,"Ġaut":1793,"https":1794,"www":1795,"vir":1796,"ĠâĢĶ":1797,"epend":1798,"Ġgame":1799,"vious":1800,"Ġmet":1801,"vert":1802,"quot":1803,"Ġpat":1804,"iter":1805,"Ġref":1806,"wit":1807,"27":1808,"ability":1809,"Ġsince":1810,"Ġ\\\\":1811,"Ġposs":1812,"istory":1813,"ected":1814,"Ġcharact":1815,"ĠShe":1816,"table":1817,"Ġpar":1818,"Ġlevel":1819,"=\"../../":1820,"Time":1821,"etwork":1822,"AP":1823,"ump":1824,"']":1825,"ression":1826,"Ġsize":1827,"ration":1828,"ponse":1829,"idd":1830,"summary":1831,"=\"+":1832,"Ġlife":1833,"ateg":1834,"eps":1835,"2017":1836,"path":1837,"Ġagainst":1838,"ury":1839,"Ġthrow":1840,"}_{":1841,"Ġbest":1842,"}^{":1843,"28":1844,"Ġconsider":1845,"-\\":1846,"Ġfin":1847,"Ġleft":1848,"ively":1849,"ining":1850,"Ġtry":1851,"reen":1852,"Ġday":1853,"ĠTo":1854,"ior":1855,"align":1856,"fil":1857,"ari":1858,"ĠAd":1859,"ety":1860,"Al":1861,"ohn":1862,"Ġlocal":1863,"arge":1864,"Ġsmall":1865,"Ġelement":1866,"^{\\":1867,"Ġrequest":1868,"user":1869,"Ġbeg":1870,"PE":1871,"ley":1872,"2016":1873,"phi":1874,"iving":1875,"ene":1876,"lambda":1877,"Ġ?":1878,"Ġincluding":1879,"urs":1880,"Ġcour":1881,"Add":1882,"Ġpresent":1883,"Ġweek":1884,"Ġem":1885,"loy":1886,"group":1887,"ailable":1888,"ling":1889,"ulation":1890,"Ġassert":1891,"lobal":1892,"LA":1893,"Ġtri":1894,"Ġplace":1895,"Request":1896,"Ġstruct":1897,"Event":1898,"Ġcontent":1899,"Path":1900,"Text":1901,"empl":1902,"ĠMay":1903,"Ġstand":1904,"ift":1905,"omen":1906,"umer":1907,"26":1908,"ird":1909,"Ġprogram":1910,"Ġpop":1911,"With":1912,"Ã©":1913,"my":1914,"ways":1915,"Re":1916,"Ġlet":1917,"Ġvari":1918,"Ġpower":1919,"uro":1920,"Ġappe":1921,"ium":1922,"off":1923,"Man":1924,"ination":1925,"à¤":1926,"md":1927,"Ġdel":1928,"lication":1929,"Ġerror":1930,"ĠOr":1931,"TR":1932,"aving":1933,"``":1934,"nal":1935,"UR":1936,"bf":1937,"Ġview":1938,"Ġpres":1939,"Qu":1940,"ober":1941,"rame":1942,"pert":1943,"ems":1944,"Ġtarget":1945,"Ġproject":1946,"Ġprot":1947,"Element":1948,"ris":1949,"cd":1950,"ories":1951,"iginal":1952,"rist":1953,"29":1954,"Info":1955,"HE":1956,"ho":1957,"Ġwithout":1958,"2015":1959,"Ġconf":1960,"Ġdesign":1961,"Ġrece":1962,"ware":1963,"eters":1964,"Ġ{\\":1965,"Field":1966,"ĠThey":1967,"ĠUS":1968,"Ġcou":1969,"ĠBe":1970,"comp":1971,"/*":1972,"Ġold":1973,"ĠAll":1974,"ved":1975,"ources":1976,"En":1977,"Node":1978,"Ġanal":1979,"ĠJan":1980,"ĠEng":1981,"Ġ);":1982,"enn":1983,"Ġcare":1984,"Ġlink":1985,"ĠThere":1986,"ering":1987,"ification":1988,"aut":1989,"icon":1990,"icy":1991,"ait":1992,"Param":1993,"une":1994,"Ġanother":1995,"nment":1996,"Ġreally":1997,"Ġmult":1998,"Ġgover":1999,"':":2000,"};":2001,"Ġgr":2002,"())":2003,"He":2004,"Ġ-->":2005,"Ġcond":2006,"olean":2007,"Config":2008,"oss":2009,"Ġtoo":2010,"aps":2011,"ĠPl":2012,"/**":2013,"stance":2014,"hes":2015,"ai":2016,"ograph":2017,"des":2018,"aster":2019,"dt":2020,"icle":2021,"Ġtext":2022,"por":2023,"Ġlog":2024,"Index":2025,"ride":2026,"config":2027,"State":2028,"color":2029,"Ġgoing":2030,"Ġproble":2031,"Ġsays":2032,"\\\\":2033,"ĠBl":2034,"ised":2035,"Ġcheck":2036,"IS":2037,"Ġtechn":2038,"Def":2039,"lected":2040,"itive":2041,"sec":2042,"ocus":2043,"uf":2044,"Equ":2045,"sw":2046,"ately":2047,"void":2048,"next":2049,"Not":2050,"Ġlaw":2051,"fin":2052,"enu":2053,"Ġsk":2054,"ags":2055,"Ġinterest":2056,"âĢĶ":2057,"pty":2058,"ails":2059,"Context":2060,"ĠFr":2061,"urity":2062,"2014":2063,"Ġfour":2064,"ainer":2065,"amespace":2066,"ING":2067,"length":2068,"Ph":2069,"Ġbeh":2070,"Over":2071,"ĠSp":2072,"Ġschool":2073,"ball":2074,"ilon":2075,"Ġuser":2076,"197":2077,"='":2078,"Ġdev":2079,"pper":2080,"AD":2081,"ording":2082,"ertain":2083,"2020":2084,"Ġident":2085,"aces":2086,"IG":2087,"Ġadv":2088,"Ġspe":2089,"Form":2090,"Is":2091,"Ġresults":2092,"ves":2093,"Ġhapp":2094,"ivity":2095,"itional":2096,"Ġ/*":2097,"duct":2098,"box":2099,"AS":2100,"Ġarray":2101,"bt":2102,"Code":2103,"ĠPr":2104,"api":2105,"Ġcalled":2106,"ĠCent":2107,"ideo":2108,"Ġfew":2109,"lished":2110,"oken":2111,"uman":2112,"ought":2113,"ĠĠĠĠĠĠĠĠĠĠĠĠĠĠĠĠĠĠĠĠĠĠĠĠĠĠĠ":2114,"sigma":2115,"ony":2116,"Array":2117,"Ġlim":2118,"error":2119,"Ġchang":2120,"block":2121,"Ġgreat":2122,"aim":2123,"Ġdem":2124,"\"\"":2125,"Or":2126,"ival":2127,"apache":2128,"And":2129,"####":2130,"Ġ(!":2131,"stand":2132,"no":2133,"ĠMan":2134,"beta":2135,"illion":2136,"body":2137,"result":2138,"ries":2139,"ittle":2140,"ocial":2141,"UT":2142,"word":2143,"node":2144,"Ġwithin":2145,"leg":2146,"Service":2147,"Ġpath":2148,"ED":2149,"ĠAmerican":2150,"pm":2151,"mathbf":2152,"from":2153,"Ġturn":2154,"Des":2155,"inc":2156,"Ġcreate":2157,"mbol":2158,"ES":2159,"01":2160,"ready":2161,"ently":2162,"ĠTe":2163,"Ġann":2164,"Ġ,":2165,"true":2166,"';":2167,"Ġchange":2168,"Ġet":2169,"Ġrefer":2170,"ĠCar":2171,"earch":2172,"iction":2173,"ules":2174,"ending":2175,"model":2176,"thing":2177,"ĠÂ":2178,"Ġbased":2179,"viron":2180,"LO":2181,"Ġ(\\":2182,"Ġbro":2183,"Ġdefault":2184,"Ġdi":2185,"Ġ});":2186,"title":2187,"ĠNo":2188,"^{-":2189,"ended":2190,"Ġblock":2191,"App":2192,"input":2193,"bl":2194,"80":2195,"Ġorgan":2196,"Ġfamily":2197,"45":2198,"Ġleg":2199,"[]":2200,"ething":2201,"object":2202,"Ġret":2203,"****************":2204,"Ġhome":2205,"aterial":2206,"ilar":2207,"af":2208,"ĠAt":2209,"gg":2210,"rap":2211,"ĠJohn":2212,"de":2213,"Ġversion":2214,"ports":2215,"ĠCan":2216,"Ġput":2217,"abled":2218,"ances":2219,"lick":2220,"All":2221,"Ġnever":2222,"Map":2223,"Ġaccess":2224,"Ġbreak":2225,"ĠUnited":2226,"Ġinvest":2227,"evel":2228,"perties":2229,"Ġrepresent":2230,"ĠJul":2231,"ches":2232,"FF":2233,"sk":2234,"Ġavailable":2235,"ormal":2236,"Ġmonth":2237,"Att":2238,"odes":2239,"olution":2240,"bed":2241,"ĠNov":2242,"ĠSu":2243,"ouble":2244,"Ġbusiness":2245,"Ġ},":2246,"////////":2247,"ounc":2248,"ights":2249,"Ġbig":2250,"met":2251,"ĠSystem":2252,"Ġfull":2253,"Ġquest":2254,"ansp":2255,"Build":2256,"rix":2257,"Ġexample":2258,"Size":2259,"2013":2260,"acy":2261,"ators":2262,"Ġvalues":2263,"ured":2264,"Ġocc":2265,"point":2266,"rec":2267,"sm":2268,"uage":2269,"New":2270,"Item":2271,"eturn":2272,"Ġservice":2273,"Of":2274,"Ġcode":2275,"map":2276,"If":2277,"ee":2278,"ands":2279,"Ġdescri":2280,"}{\\":2281,"ilde":2282,"MP":2283,"resp":2284,"version":2285,"atures":2286,"ĠĠĊ":2287,"ards":2288,"nection":2289,"reate":2290,"urther":2291,"Ġpur":2292,"rack":2293,"35":2294,"ui":2295,"99":2296,"Ġiss":2297,"ither":2298,"ET":2299,"Result":2300,"ypes":2301,"++":2302,"Ġsuper":2303,"ampl":2304,"Ġcr":2305,"ĠMed":2306,"Ġsuccess":2307,"ĠCont":2308,"ĠPol":2309,"Ġsever":2310,"ably":2311,"uture":2312,"lt":2313,"create":2314,"Ġmight":2315,"ret":2316,"Ġmeas":2317,"Ġconfig":2318,"Ġseries":2319,"ĠGu":2320,"pped":2321,"ĠCo":2322,"down":2323,"Ġpo":2324,"mit":2325,"But":2326,"Ġspace":2327,"ajor":2328,"Refer":2329,"imate":2330,"ention":2331,"ĠApp":2332,"gamma":2333,"Hand":2334,"emplate":2335,"assert":2336,"Ġbetter":2337,"ponent":2338,"mathrm":2339,"Ġgot":2340,"ender":2341,"OT":2342,"place":2343,"ĠGet":2344,"ney":2345,"Ġless":2346,"ique":2347,"Ġgrow":2348,"US":2349,"Message":2350,"state":2351,"Ġalways":2352,"uary":2353,"Ġlarge":2354,"Ġaddress":2355,"ĠSo":2356,"Ġeng":2357,"tings":2358,"Ġsit":2359,"iod":2360,"Ġnear":2361,"Ġproduct":2362,"Ġbu":2363,"ring":2364,"ored":2365,"arrow":2366,"Ġsrc":2367,"count":2368,"+\\":2369,"*}":2370,"Ġmax":2371,"Ġrest":2372,"From":2373,"2012":2374,"mail":2375,"Ġfree":2376,"Fil":2377,"content":2378,"android":2379,"ĠOct":2380,"Ġcap":2381,"Ġide":2382,"UN":2383,"AB":2384,"Up":2385,"wards":2386,"delta":2387,"Ġcell":2388,"cast":2389,"Ġalong":2390,"loat":2391,"Loc":2392,"see":2393,"Ġinput":2394,"Ġknown":2395,"Ġsomething":2396,"Ġstory":2397,"ĠIm":2398,"pecial":2399,"=\"../../../../":2400,"Ġes":2401,"Ġcontrol":2402,"vironment":2403,"Ġmusic":2404,"Ġcharacter":2405,"ales":2406,"Ġsource":2407,"oper":2408,"info":2409,"default":2410,"ottom":2411,"where":2412,"gt":2413,"aper":2414,"Ġjava":2415,">&":2416,"Ġbase":2417,"ca":2418,"Ġmean":2419,"Ġalready":2420,"Ġ:=":2421,"66":2422,"ĠWorld":2423,"tes":2424,"stru":2425,"max":2426,"Ġ__":2427,"cer":2428,"agement":2429,"lim":2430,"Ġsingle":2431,"Ġinclude":2432,"Ġcome":2433,";&":2434,"ume":2435,"alf":2436,"Ġenc":2437,"Ġlater":2438,"ĠWith":2439,"ailed":2440,"java":2441,"ync":2442,"with":2443,")}":2444,"Ġwin":2445,"call":2446,"Ġbas":2447,"Ġask":2448,"Ġfilm":2449,"Ġpolit":2450,"Ġstat":2451,"ux":2452,",\"":2453,"Ġseason":2454,"ians":2455,"Ġtot":2456,"uk":2457,"Ġsum":2458,"ML":2459,"Ġhttp":2460,"conom":2461,"using":2462,"Ġstyle":2463,"Ġaction":2464,"ours":2465,"Ġcal":2466,"Ġoffic":2467,"oice":2468,"Val":2469,"Ġcontext":2470,"At":2471,"book":2472,"ables":2473,"Ġabove":2474,"Ġmag":2475,"stit":2476,"Ġhard":2477,"ung":2478,"Ġarea":2479,"ero":2480,"Ġuntil":2481,"Ġshort":2482,"Ġclear":2483,"2011":2484,"Ġthings":2485,"ĠAug":2486,"ENT":2487,"Ġfore":2488,"Ġwhe":2489,"oud":2490,"big":2491,"ĠEn":2492,"ĠAust":2493,"rs":2494,"rho":2495,"Ġrequire":2496,"onse":2497,"Ġrad":2498,"ides":2499,"Ġsupp":2500,"Ġposition":2501,"ĠWest":2502,"Ġener":2503,"ULL":2504,"Log":2505,"irt":2506,"base":2507,"roller":2508,"Inter":2509,"ĠCount":2510,"refer":2511,"ged":2512,"Ġcompany":2513,"Ġelect":2514,"Ġnetwork":2515,"space":2516,"ĠEd":2517,"Ġrespect":2518,"Ġresponse":2519,"Ġimportant":2520,"Ġla":2521,"Ġtem":2522,"urope":2523,"MA":2524,"ĠNational":2525,"iam":2526,"Ġprom":2527,"Ġexpl":2528,"^\\":2529,"Sc":2530,"Out":2531,"Ġlittle":2532,"Ġins":2533,"Wh":2534,"hem":2535,"Ġstudy":2536,"55":2537,"Ġnode":2538,"34":2539,"Ġindex":2540,"Ser":2541,"uments":2542,"ixed":2543,"ĠState":2544,"oin":2545,"ibr":2546,"ĠAb":2547,"css":2548,"Model":2549,"31":2550,"Ġ===":2551,"Ġexist":2552,"Ġside":2553,"Ġresearch":2554,"2010":2555,"Ġoriginal":2556,"include":2557,"start":2558,"Ġport":2559,"thers":2560,"Ġleast":2561,"Ġ$(":2562,"ĠGe":2563,"Ġpay":2564,"37":2565,"ison":2566,"Ġrecord":2567,"igned":2568,"Ent":2569,"option":2570,"valid":2571,"Ġhealth":2572,"rel":2573,"ribution":2574,"--------------------------------":2575,"ĠApr":2576,"39":2577,"context":2578,"Ġfr":2579,"Ġinstance":2580,"now":2581,"Ġeas":2582,"ising":2583,"ysis":2584,"ones":2585,"Ġpossible":2586,"Manager":2587,"Ġpub":2588,"Ġparticular":2589,"CE":2590,"imal":2591,"System":2592,"icro":2593,"tab":2594,"Ġmass":2595,"Pl":2596,"sl":2597,"Reg":2598,"Ġemp":2599,"User":2600,"Read":2601,"nect":2602,"Ġfri":2603,"Ġrange":2604,"amed":2605,"Ġoptions":2606,"Dis":2607,"style":2608,"Ġfar":2609,"IP":2610,"Ġinitial":2611,"ĠYork":2612,"ibility":2613,"define":2614,"ĠThat":2615,"Ġgovernment":2616,"atter":2617,"ĠAss":2618,"Ġchildren":2619,"ĠPar":2620,"Comm":2621,"Table":2622,"Count":2623,"rodu":2624,"Color":2625,"Ġbound":2626,"$-":2627,"IR":2628,"leq":2629,"Ġhold":2630,"ĠChrist":2631,"hold":2632,"oman":2633,"ĉĉĉĉĉĉ":2634,"tau":2635,"package":2636,"vers":2637,"times":2638,"Ġtimes":2639,"IL":2640,"Ġvol":2641,"OD":2642,";</":2643,"ĠMin":2644,"ike":2645,"Ġopt":2646,"05":2647,"prot":2648,"Ġgeneral":2649,"Ġinteg":2650,"gress":2651,"la":2652,"Ġprob":2653,"figure":2654,"Ġredu":2655,"ĠCal":2656,"sq":2657,"theta":2658,"ĠReg":2659,"Ġpot":2660,"ilt":2661,"lete":2662,"Call":2663,"ĠBy":2664,"plement":2665,"Ġassoci":2666,"Ad":2667,"Ġdue":2668,"raft":2669,"annel":2670,"TD":2671,"ĠStates":2672,"Ġ};":2673,"Ġobtain":2674,"oke":2675,"Ġtable":2676,"rain":2677,"ĠRep":2678,"Ġcolor":2679,"oney":2680,"Ġphot":2681,"Ġlate":2682,"Client":2683,"Su":2684,"aff":2685,"Ġkeep":2686,"ns":2687,"36":2688,"rew":2689,"ĠSchool":2690,"Ġdocument":2691,"method":2692,"mber":2693,"Ġfeel":2694,"Ġpage":2695,"}$.":2696,"ĠJanuary":2697,"light":2698,"semb":2699,"Ġprof":2700,"}$,":2701,"unk":2702,"Ġwater":2703,"Ġprevious":2704,"Ġwar":2705,"web":2706,"lem":2707,"No":2708,"Ġlow":2709,"90":2710,"quad":2711,"position":2712,"Ġseveral":2713,"nu":2714,"lease":2715,"Ġparent":2716,"Ġfac":2717,"Ġcountry":2718,"lin":2719,"Ġauthor":2720,"rang":2721,"Ġlove":2722,"=\"../":2723,"Ġdays":2724,"Ġmajor":2725,"NA":2726,"}(\\":2727,"Pr":2728,"idual":2729,"print":2730,"ĠÐ":2731,"bit":2732,"eting":2733,"ĠCity":2734,"]{":2735,"check":2736,"respond":2737,"ĠĠĠĠĠĠĠĠĠĠĠĠ":2738,"Ġmessage":2739,"dom":2740,"Ġlang":2741,"ster":2742,"Ġlot":2743,"38":2744,"rt":2745,"Ġcover":2746,"Ġbackground":2747,"static":2748,"\".":2749,"ament":2750,"Ġcost":2751,"Ġspecial":2752,"Ġproperty":2753,"44":2754,"used":2755,"Ġenergy":2756,"idence":2757,"Ġmatch":2758,"....":2759,"init":2760,"ĠSouth":2761,"partial":2762,"ients":2763,"CH":2764,"Ġdiscuss":2765,"Ġstrong":2766,"aring":2767,"ithub":2768,"ĠEurope":2769,"roups":2770,"08":2771,"doc":2772,"false":2773,"ĠPart":2774,"ĠWar":2775,"Ġnil":2776,"Ġcomplet":2777,"Ġbeliev":2778,"Ġsec":2779,"Trans":2780,"Ġaway":2781,"=\"#":2782,"Ġgive":2783,"ĠĠĠĠĠĠĠĠĠĠ":2784,"Ġlik":2785,"Ġcity":2786,"Property":2787,"07":2788,"Ġimage":2789,"Ġprovide":2790,"ained":2791,"Ġmembers":2792,"Response":2793,"Ġimpro":2794,"ĠMarch":2795,"do":2796,"Ġland":2797,"Ġsimilar":2798,"Ġdom":2799,"ecut":2800,"Ġwhy":2801,">(":2802,"fra":2803,"Ġobserv":2804,"omega":2805,"Be":2806,"imum":2807,"Ġcrit":2808,"build":2809,"Ġcur":2810,"clus":2811,"Ġearly":2812,"Ġproblem":2813,"ĠMc":2814,"Ġbool":2815,"Ġdeterm":2816,"Ġlight":2817,"inary":2818,")</":2819,"Ġdone":2820,"ĠIN":2821,"ifier":2822,"ĠDo":2823,"Ġaccount":2824,"ptember":2825,"TH":2826,"ging":2827,"ĠHowever":2828,"Ġlarg":2829,"Ġcomput":2830,"Ġstd":2831,"ĠNot":2832,"ĠIntern":2833,"ĠBo":2834,"Ġkind":2835,"Ġwomen":2836,"Ġpoints":2837,"db":2838,"google":2839,"ĠFeb":2840,"Ġmeans":2841,"Ġhistory":2842,"Ġoffer":2843,"Ð°":2844,"aken":2845,"istic":2846,"ĠSet":2847,"umb":2848,"You":2849,"ĠWhen":2850,"ĠList":2851,"Query":2852,"ĠWill":2853,"argin":2854,"Ġcomb":2855,"<!--":2856,"Ġhuman":2857,"Ġsy":2858,"igation":2859,"ĠčĊ":2860,"Override":2861,"most":2862,"Ġfund":2863,"Ġacross":2864,"alt":2865,"Ġrequired":2866,"pping":2867,"dev":2868,"github":2869,"iple":2870,"fty":2871,"Ġant":2872,"isk":2873,"Ġfoot":2874,"Ġtalk":2875,"Ġcustom":2876,"Ġpast":2877,"ĠGr":2878,"eqref":2879,"atab":2880,"75":2881,"andom":2882,"lose":2883,"Ġtotal":2884,"Bar":2885,"vis":2886,"Ġrole":2887,"cember":2888,"Ġmap":2889,"cell":2890,"ered":2891,"Arg":2892,"ĠDr":2893,"lor":2894,"48":2895,"Stream":2896,"Ġmaking":2897,"Sub":2898,"ĠInt":2899,"rior":2900,"iff":2901,"ops":2902,"Ġhaving":2903,"ĠRev":2904,"ĠGo":2905,"ĠSer":2906,"Ġable":2907,"Ġthought":2908,"Ġclaim":2909,"struction":2910,"Ġsat":2911,"anel":2912,"iment":2913,"Ġbit":2914,"actory":2915,"ĠQu":2916,"Ġeither":2917,"Rec":2918,"run":2919,"================":2920,"irl":2921,"Ġjob":2922,"Ġsure":2923,"Mod":2924,"ude":2925,"Ġenough":2926,"Builder":2927,"iol":2928,"ilit":2929,"Ġpract":2930,"ĠJuly":2931,"oun":2932,"ĠMe":2933,"Ġinvol":2934,"era":2935,"Ġexpected":2936,"atform":2937,"infty":2938,"Ġthough":2939,"ius":2940,"Ġregion":2941,"Ġmom":2942,"OS":2943,"ĠJune":2944,"namespace":2945,"aining":2946,"uation":2947,"Ġwon":2948,"Ġreview":2949,"Ġtoget":2950,"Ġop":2951,"Ġbody":2952,"ĠAf":2953,"Ġborder":2954,"lege":2955,"bum":2956,"inition":2957,"Ġseen":2958,"OP":2959,"Ð¾":2960,"Ġtogether":2961,"mark":2962,"Ġtell":2963,"sim":2964,"](":2965,"Ġcamp":2966,"ĠNorth":2967,"Method":2968,"Ġtrack":2969,"Ġyoung":2970,"Ġdidn":2971,"ids":2972,"ĠApril":2973,"current":2974,"Ġsite":2975,"ĠHar":2976,"ham":2977,"Delta":2978,"Ġcommunity":2979,"Ġassum":2980,"ada":2981,"Ġ($":2982,"rect":2983,"reet":2984,"Ġdoesn":2985,"Ġbecome":2986,"2009":2987,"Ġsocial":2988,"eed":2989,"hand":2990,"09":2991,"Ġdiv":2992,"Ġworking":2993,"ĠOctober":2994,"Ġperiod":2995,"Ed":2996,"rict":2997,"ana":2998,"eqn":2999,"ze":3000,"Ġandroid":3001,"Ġmedia":3002,"Ġfuture":3003,"amples":3004,"aged":3005,"ino":3006,"Ġshows":3007,"Ġhost":3008,"ĠOne":3009,"Ġwhether":3010,"irm":3011,"Ġtre":3012,"artment":3013,"Ġoften":3014,"Ġdest":3015,"ogn":3016,"ĠWhat":3017,"ĠPres":3018,"Ġca":3019,"opt":3020,"ĠDis":3021,"cle":3022,"ĠAct":3023,"|\\":3024,"btn":3025,"Ġmar":3026,"What":3027,"SP":3028,"Image":3029,"Group":3030,"dir":3031,"Ġcult":3032,"Ġmove":3033,"04":3034,"Ġunderstand":3035,"eral":3036,"ĠBrit":3037,"Date":3038,"cale":3039,"Ġfurther":3040,"reed":3041,"OL":3042,"ĠAustral":3043,"ĠDes":3044,"Ġwidth":3045,"event":3046,"Ġsignific":3047,"image":3048,"Ġonce":3049,"lied":3050,"ĠAg":3051,"query":3052,"ached":3053,"core":3054,"Ġfocus":3055,"null":3056,"Ġair":3057,"Ġoutput":3058,"Ġabs":3059,"na":3060,"Ġclose":3061,"abor":3062,"ĠAugust":3063,"Ġcompon":3064,"xi":3065,"Ġindiv":3066,"anch":3067,"tilde":3068,"De":3069,"witch":3070,"client":3071,"Ġdevelopment":3072,"Action":3073,"active":3074,"Ġsong":3075,"ynam":3076,"ĠSeptember":3077,"itted":3078,"06":3079,"Ġplayers":3080,"los":3081,"Ġcertain":3082,"igure":3083,"Ġthing":3084,"ĠCor":3085,"Util":3086,"orage":3087,"End":3088,"'re":3089,"oph":3090,"options":3091,"php":3092,"Ġdefined":3093,"Ġexperience":3094,"Ġgl":3095,"There":3096,"ĠĠĠĠĠĠĠĠĠĠĠĠĠĠĠĠĠĠĠĠĠĠĠĠĠĠĠĠĠĠĠ":3097,"Ġmillion":3098,"Ġinc":3099,"$$":3100,"Input":3101,"Ġcourse":3102,"ĠBar":3103,"aul":3104,"Ġindic":3105,"Ġund":3106,"Ġdeath":3107,"ensure":3108,"])":3109,"ĠNovember":3110,"ĠGener":3111,"Act":3112,"ague":3113,"Ġreason":3114,"Status":3115,"Ġplan":3116,"AM":3117,"finished":3118,"Ġtook":3119,"Ġ()":3120,"Ġsection":3121,"xy":3122,"Ġep":3123,"How":3124,"omet":3125,"PI":3126,"request":3127,"otion":3128,"ĠNULL":3129,"exp":3130,"ĠPe":3131,"Ġpotential":3132,"Ġcame":3133,"icense":3134,"ills":3135,"istor":3136,"Ġdisplay":3137,"ĠAir":3138,"Ġamong":3139,"Ðµ":3140,"ocol":3141,"urch":3142,"ĠAdd":3143,"ĠĠĠĠĠĠĠĠĠĠĠĠĠĠĠĠĠ":3144,"ĠDecember":3145,"02":3146,"unch":3147,"iting":3148,"2008":3149,"illed":3150,"Ġestab":3151,"cul":3152,"empt":3153,"ĠMy":3154,"Ġservices":3155,"II":3156,"ij":3157,"Ġevents":3158,"ief":3159,"Ġmakes":3160,"Ġben":3161,"page":3162,"Ġtrad":3163,"ategory":3164,"Gener":3165,"Ġindust":3166,"Ġtoday":3167,"ners":3168,"lib":3169,"CC":3170,"ĠComp":3171,"ched":3172,"args":3173,"Ġ<<":3174,"Block":3175,"Ġvalid":3176,"References":3177,"Ġconc":3178,"65":3179,"server":3180,"ided":3181,"ĠThese":3182,"func":3183,"though":3184,"gr":3185,"Ġcontinu":3186,"rest":3187,"asing":3188,"Cl":3189,"Ġindividual":3190,"button":3191,"Ġden":3192,"ires":3193,"ournal":3194,"ĠPer":3195,"ili":3196,"ried":3197,"ecess":3198,"imary":3199,"\\,":3200,"df":3201,"Ġclos":3202,"yl":3203,"aint":3204,"gle":3205,"Ġvideo":3206,"Ġlay":3207,"Ġphys":3208,"ened":3209,"ĠNews":3210,"ĠDav":3211,"((":3212,"AG":3213,"Ġyet":3214,"orem":3215,"dl":3216,"Ġothers":3217,"Comp":3218,"Ġfive":3219,"nown":3220,"Ġterms":3221,"adding":3222,"Ġlength":3223,"Ġcommon":3224,"ĠCounty":3225,"raphics":3226,"Cell":3227,"Ġcorrespond":3228,"Ġperformance":3229,"mat":3230,"oo":3231,"ĠArt":3232,"ites":3233,"atabase":3234,"Ġcoll":3235,"Source":3236,"Fl":3237,"ological":3238,"UL":3239,"ONT":3240,"Exp":3241,"Ġload":3242,"GL":3243,"Ġsound":3244,"Ġpred":3245,"gener":3246,"''":3247,"ruary":3248,"Lay":3249,"Ġnews":3250,"unfinished":3251,"height":3252,"Par":3253,"ependent":3254,"EE":3255,"sequ":3256,"YPE":3257,"Ġbelow":3258,"Ġsw":3259,"unity":3260,"cho":3261,"efore":3262,"ework":3263,"47":3264,"ĠTest":3265,"header":3266,"Pos":3267,"67":3268,"Ġ->":3269,"non":3270,"Ġshown":3271,"lies":3272,"OM":3273,"rows":3274,"03":3275,"iddle":3276,"race":3277,"ansport":3278,"SC":3279,"ilities":3280,"Ġrelations":3281,"ftware":3282,"Ġhouse":3283,"Ġnum":3284,"jav":3285,"Ġthird":3286,"yd":3287,"Ġemploy":3288,"Ġmiss":3289,"ebug":3290,"ĠRec":3291,"EX":3292,"posed":3293,"Ġglobal":3294,"Options":3295,"ks":3296,"Ġnight":3297,"Ġattack":3298,"ama":3299,"ĠSm":3300,"Token":3301,"Ġsignificant":3302,"Ġsent":3303,"Ġred":3304,"verage":3305,"Ġlabel":3306,"Ġ...":3307,"49":3308,"imation":3309,"Instance":3310,"Ġpress":3311,"Head":3312,"ondon":3313,"ille":3314,"ication":3315,"Ġ\"\"\"":3316,"Ġmen":3317,"ĠPark":3318,"Line":3319,"Ġprovided":3320,"0000":3321,"Ġinstall":3322,"Ġboolean":3323,"Ġblack":3324,"Ġstudents":3325,"bsite":3326,"ges":3327,"ĉĊ":3328,"Ġmaterial":3329,"osp":3330,"sel":3331,"Ġactually":3332,"Ġgames":3333,"Ġsearch":3334,"NS":3335,"ements":3336,"oop":3337,"cdot":3338,"Om":3339,"Ġprint":3340,"Ġlive":3341,"Ext":3342,"yles":3343,"oto":3344,"gor":3345,"udio":3346,"Ġsugg":3347,"Ġhalf":3348,"Ġsuggest":3349,"Nav":3350,"Ġformer":3351,"FA":3352,"Ġintrodu":3353,"ference":3354,"ATE":3355,"Null":3356,"Ġbegin":3357,"Ġmodels":3358,"Base":3359,"HT":3360,"tx":3361,"ĠDep":3362,"ĠSec":3363,"Ġgen":3364,"Ġage":3365,"undle":3366,"Ġdiff":3367,"Ġeduc":3368,"ĠChar":3369,"idget":3370,"ialog":3371,"Ġeconom":3372,"UE":3373,"ramework":3374,"medi":3375,"ĠMark":3376,"Ġtreat":3377,"Ġquestion":3378,"eline":3379,"ĉĉĉĉĉĉĉĉ":3380,"center":3381,"cm":3382,"ouch":3383,"Ġvia":3384,"has":3385,"case":3386,"ĠGerm":3387,"aced":3388,"ĠClass":3389,"gen":3390,"Buffer":3391,"Ab":3392,"aging":3393,"Oper":3394,"arning":3395,"append":3396,"year":3397,"ips":3398,"Component":3399,"[\"":3400,"elete":3401,"Off":3402,"Ġlinks":3403,"Ġfeature":3404,"FI":3405,"Ġcreated":3406,"}}\\":3407,"ection":3408,"Ġitem":3409,"Ġimplement":3410,"aly":3411,"ae":3412,"ĠAfter":3413,"adata":3414,"ii":3415,"ĠAm":3416,"ugin":3417,"Ġ+=":3418,"Sp":3419,"Ġstarted":3420,"ĠĠĠĠĠĠĠĠĊ":3421,"VER":3422,"ĠDef":3423,"utions":3424,"target":3425,"eh":3426,"({":3427,"atural":3428,"Hel":3429,"IM":3430,"ĠRuss":3431,"ĠHouse":3432,"aves":3433,"imension":3434,"element":3435,"2007":3436,"){":3437,"ĠAfric":3438,"xml":3439,"Ġresource":3440,"flow":3441,"wise":3442,"Ġcirc":3443,"CK":3444,"Ġdate":3445,"epsilon":3446,"stream":3447,"ibrary":3448,"Ġhttps":3449,"lying":3450,"irth":3451,"Ġsix":3452,"psi":3453,"Ġalbum":3454,"ĠAmerica":3455,"gl":3456,"ĠKing":3457,"ĠAN":3458,"Ġcompet":3459,"Ð¸":3460,"Ġenvironment":3461,"Ġwent":3462,"Start":3463,"post":3464,"vision":3465,"Ġoption":3466,"parent":3467,"Ġwrite":3468,"Handler":3469,"ptr":3470,"Ġcopy":3471,"host":3472,"iven":3473,"Ġspecific":3474,"uster":3475,"child":3476,"ĠHigh":3477,"Ġfeatures":3478,"apter":3479,"Equal":3480,"Str":3481,"Ġdeal":3482,"ĠFebruary":3483,"ington":3484,"Ġchanges":3485,"Ġtw":3486,"istry":3487,"Ġder":3488,"eqnarray":3489,"hel":3490,"Ġclient":3491,"strong":3492,"ĠUp":3493,"hib":3494,"Ġemb":3495,"apan":3496,"oved":3497,"gorith":3498,"Ġtask":3499,"write":3500,"ename":3501,"Omega":3502,"Ġofficial":3503,")(":3504,"Resource":3505,"ĠMore":3506,"Ġmember":3507,"thern":3508,")$.":3509,"ributes":3510,"Ġrate":3511,"izer":3512,"68":3513,"Ġtaken":3514,"json":3515,"Ġspect":3516,"Attribute":3517,"display":3518,"iles":3519,"img":3520,"Content":3521,"ĠVal":3522,"MS":3523,"ises":3524,"si":3525,"Ġadded":3526,"Run":3527,"utes":3528,"urb":3529,"change":3530,"Ġparameters":3531,"local":3532,"Ġmoney":3533,"flu":3534,"}[":3535,"iet":3536,"Ġlearn":3537,"Ġwindow":3538,"typ":3539,"Ġbuilding":3540,"Link":3541,"Ġprotected":3542,"caption":3543,"Ġamount":3544,"atal":3545,"riter":3546,"Ġrather":3547,"pected":3548,"mon":3549,"foot":3550,"property":3551,"Ġbi":3552,"Ġactiv":3553,"Ġbecame":3554,"hing":3555,".)":3556,"ceed":3557,"Ġneg":3558,"Ġmor":3559,"agn":3560,"ĠHis":3561,"Ġstatus":3562,"char":3563,"ĠMon":3564,"Ġfall":3565,"rowser":3566,"based":3567,"vider":3568,"Ġanalysis":3569,"Ġworks":3570,"^*":3571,"ĠPresident":3572,"Part":3573,"aker":3574,"70":3575,"irtual":3576,"ĠBro":3577,"Ġnational":3578,"irection":3579,"Ġcomplex":3580,"find":3581,"lood":3582,"Ġbar":3583,"select":3584,"icles":3585,"aign":3586,"Ġvarious":3587,"izing":3588,"ĠĠĠĠĠĠĠĠĠĠĠĠĠĠ":3589,"Ġsystems":3590,"augh":3591,"ĠOF":3592,"ĠĠĠĠĠĠĠĠĠĠĠĠĊ":3593,"ensity":3594,"psilon":3595,"}_{\\":3596,"Ġcannot":3597,"adem":3598,"ĠNone":3599,"pol":3600,"Ġfav":3601,"rown":3602,"rl":3603,"Ġmarket":3604,"chi":3605,"Ġstructure":3606,"ken":3607,"rep":3608,"Ġaccept":3609,"status":3610,"Ġmer":3611,"2006":3612,"Ġsubject":3613,"ĠEast":3614,"42":3615,"sg":3616,"Factory":3617,"bor":3618,"Ġface":3619,"Ġlower":3620,"ĠBr":3621,"ridge":3622,"ociety":3623,"fully":3624,"Ġsequ":3625,"Ġtold":3626,"Last":3627,"Ġarch":3628,"ael":3629,"ĠInter":3630,"Ġcontinue":3631,"IV":3632,"otype":3633,"Ġcatch":3634,"aries":3635,"Label":3636,"inst":3637,"First":3638,"Ġrespons":3639,"ĠTra":3640,"last":3641,"lections":3642,"Ġsepar":3643,"mm":3644,"ald":3645,"Function":3646,"navbar":3647,"aur":3648,"png":3649,"Ġdeg":3650,"Ġcut":3651,"Ġopp":3652,"Ġneeds":3653,"ĠAng":3654,"isf":3655,"Ġbad":3656,"Ġapproach":3657,"bottom":3658,"ĠLondon":3659,"Ġago":3660,"Ġq":3661,"Ġver":3662,"ĠUK":3663,"Ġentire":3664,"True":3665,"Ġlimit":3666,"Ġseem":3667,"RA":3668,"Point":3669,"roy":3670,"Ġalmost":3671,"det":3672,"Default":3673,"ĠInternational":3674,"maz":3675,"Ġmeasure":3676,"Ġassociated":3677,"Ġey":3678,"Ġreceived":3679,"Ġparameter":3680,"first":3681,"Ġdouble":3682,"Ġcolumn":3683,"Ġdoing":3684,"Ġvisit":3685,"Task":3686,"Ġfail":3687,"Ġcases":3688,"Ġhigher":3689,"Ġaccording":3690,"symbol":3691,"ĠObject":3692,"Ġinstead":3693,"Ġstates":3694,"ows":3695,"aid":3696,"private":3697,"Ġroom":3698,"Ġcho":3699,"Ġfun":3700,"lip":3701,"ĠThen":3702,"Ġlooking":3703,"Ġlanguage":3704,"Ġhom":3705,"ĠSch":3706,"module":3707,"iation":3708,"Ġcommand":3709,"ening":3710,"Ġrisk":3711,"BC":3712,"Ġband":3713,"eger":3714,"Ġcross":3715,"Ġcy":3716,"ÑĤ":3717,"Ġquant":3718,"lier":3719,"Us":3720,"Ġcomes":3721,"Style":3722,"195":3723,"ran":3724,"ĠSim":3725,"Ġwhole":3726,"chiev":3727,"When":3728,"attle":3729,"Ġheight":3730,"sqrt":3731,"Ġconditions":3732,"Rep":3733,"Ġsimple":3734,"Ġhowever":3735,"Ġpaper":3736,"Ġchall":3737,"pc":3738,"vention":3739,"Ġtour":3740,"LASS":3741,"urg":3742,"iber":3743,"ese":3744,"ressed":3745,"ography":3746,"BU":3747,"idden":3748,"Version":3749,"chan":3750,"External":3751,"ĠMich":3752,"uel":3753,"Load":3754,"ĠGL":3755,"Ġnecess":3756,"Âł":3757,"Ġmoment":3758,"Ġelements":3759,"Window":3760,"46":3761,"rab":3762,"ĠReturn":3763,"elling":3764,"Ġthrows":3765,"ĠRed":3766,"One":3767,"obile":3768,"ford":3769,"aven":3770,"REF":3771,"\"]":3772,"2000":3773,"ĠEnglish":3774,"Ġstandard":3775,"Ġheld":3776,"Ġintern":3777,"Ġupdate":3778,"board":3779,"Ġpercent":3780,"Ġtown":3781,"Ġwritten":3782,"Ġground":3783,"Ġnormal":3784,"Ġwatch":3785,"Ġmind":3786,"Page":3787,"Ġgroups":3788,"Gamma":3789,"Ġmonths":3790,"Ġche":3791,"Ġ{@":3792,"ĠLaw":3793,"EL":3794,"mission":3795,"Ġfront":3796,"src":3797,"PRO":3798,">>":3799,"Check":3800,"project":3801,"Number":3802,"95":3803,"ĠBuild":3804,"allet":3805,"atory":3806,"Ġappear":3807,"unt":3808,"meta":3809,"Pol":3810,"Ġincluded":3811,"ĠDon":3812,"*/":3813,"minist":3814,"mar":3815,"anies":3816,"Ġwebsite":3817,"Ġtool":3818,"level":3819,"Ġreleased":3820,"coming":3821,"ĠTV":3822,"That":3823,"ĠAc":3824,"selves":3825,"Ġapplication":3826,"vare":3827,"Ã¡":3828,"ĠHealth":3829,"push":3830,"ha":3831,"ĠEl":3832,"draw":3833,"Ġfood":3834,"PC":3835,"Ġill":3836,"anks":3837,"like":3838,"Ġwalk":3839,"ĠSw":3840,"pecially":3841,"Ġstep":3842,"Ġpersonal":3843,"!!":3844,"Ġplayed":3845,"So":3846,"Command":3847,"sembly":3848,"ifact":3849,"std":3850,"description":3851,"Ġaff":3852,"Ġtyp":3853,"88":3854,"INT":3855,"iler":3856,"Ġaddition":3857,"actions":3858,"Ġissues":3859,"});":3860,"Ġgetting":3861,"Ġtax":3862,"ube":3863,"Ġmethods":3864,"stract":3865,"ledge":3866,"oding":3867,"Ġexc":3868,"duc":3869,"hood":3870,"Ġtaking":3871,")$,":3872,"Ġstream":3873,"Let":3874,"Ġgrad":3875,"layout":3876,"~~":3877,"Ġpolitical":3878,"endif":3879,"elt":3880,"lean":3881,"heet":3882,"pack":3883,"Ġ${\\":3884,"Ġrights":3885,"ĠPat":3886,"anced":3887,"Ġbehav":3888,"wide":3889,"Ð½":3890,"Big":3891,"Post":3892,"ica":3893,"Ġbring":3894,"den":3895,"Ġengine":3896,"Ġge":3897,"Ġcomment":3898,"Ġinternal":3899,"chema":3900,"acity":3901,"Char":3902,"ascript":3903,"encies":3904,"Ġrelease":3905,"TO":3906,"Ġdecl":3907,"pose":3908,"ĠIndia":3909,"NO":3910,"bold":3911,"subsection":3912,"Ġwords":3913,"Ġdescribed":3914,"sole":3915,"Ġbelieve":3916,"Child":3917,"Ġdevice":3918,"Ġeff":3919,"Ġfollows":3920,"font":3921,"${":3922,"Ġissue":3923,"mem":3924,"Equals":3925,"igital":3926,"Pre":3927,"fficient":3928,"Ġbehind":3929,"varepsilon":3930,"Ġwhite":3931,"signed":3932,"can":3933,"raint":3934,"member":3935,"ving":3936,"open":3937,"Ġproperties":3938,"Ġbenef":3939,"ordin":3940,"Return":3941,"ĠCenter":3942,"verse":3943,"oe":3944,"ĠOff":3945,"Ġproduction":3946,"cap":3947,"Ġparty":3948,"}=":3949,"entry":3950,"Ġcomplete":3951,"Ġsens":3952,"Ġdetails":3953,"Ġnothing":3954,"Ġanything":3955,"ĠSk":3956,"UM":3957,"Filter":3958,"ĠJapan":3959,"igger":3960,"ĠLet":3961,"Ġconsidered":3962,"ĠStud":3963,"Ġviol":3964,"itude":3965,"Create":3966,"Ġtraining":3967,"fect":3968,"Ġheart":3969,"Ġbuilt":3970,"Ġbox":3971,"Ġfunctions":3972,"amily":3973,"DO":3974,"service":3975,"ABLE":3976,"Ġachiev":3977,"ĠDem":3978,"Ġattempt":3979,"Ġ((":3980,"resh":3981,"Ġpolicy":3982,"'m":3983,"Ġopport":3984,"ĠOb":3985,"Ġlikely":3986,"ĠFrom":3987,"ĠCour":3988,"format":3989,"ĠID":3990,"ĠJust":3991,"Ġneeded":3992,"Ġonline":3993,"Ġloss":3994,"andid":3995,"(&":3996,"Ġinit":3997,"nes":3998,"ĠTrans":3999,"oring":4000,"Ġaverage":4001,"cel":4002,"Ġmatter":4003,"2005":4004,"oute":4005,"Ġtakes":4006,"Met":4007,"tty":4008,"joy":4009,"Acc":4010,"ĠAcc":4011,"ĠHer":4012,"ensive":4013,"SON":4014,"Per":4015,"ĠGroup":4016,"menu":4017,"ancial":4018,"Ġtypes":4019,"Ġextends":4020,"Ġdepend":4021,"Ġrecent":4022,"bm":4023,"Ġmargin":4024,"Ġround":4025,"dep":4026,"Web":4027,"ĠGod":4028,"astic":4029,"Ġapplic":4030,"500":4031,"icult":4032,"Ġauto":4033,"mult":4034,"Ġplayer":4035,"Ġstar":4036,"Ġsex":4037,"ĠNe":4038,"ĠDist":4039,"ĠBook":4040,"Ġconstruct":4041,"Ġpick":4042,"Ġpublished":4043,"Ġhor":4044,"ara":4045,"params":4046,"}^{\\":4047,"Ġmultiple":4048,"Ġdistribution":4049,"Ġrunning":4050,"Ġsolution":4051,"ocr":4052,"Ġvert":4053,"Ġexact":4054,"len":4055,"rypt":4056,"airs":4057,"ply":4058,"Ġpers":4059,"Ġindustry":4060,"vec":4061,"Ġ]":4062,"container":4063,"Ġnone":4064,"Ġitself":4065,"ĠSan":4066,"Ġrelated":4067,"ĠBritish":4068,"Ġparticip":4069,"^{(":4070,"77":4071,"igin":4072,"atur":4073,"Ġwriting":4074,"Ġurl":4075,"close":4076,"Ġste":4077,"Ġidea":4078,"witter":4079,"itte":4080,"ributed":4081,"ĠData":4082,"AA":4083,"Ġansw":4084,"Format":4085,"Ġlines":4086,"istics":4087,"Ġshare":4088,"small":4089,"Ġarr":4090,"Ġseems":4091,"Controller":4092,"zz":4093,"rench":4094,"dr":4095,"emph":4096,"Ġteach":4097,"Ġconstant":4098,"known":4099,"ĠFl":4100,"Ġselect":4101,"UI":4102,"Ġquick":4103,"Ġ\\,":4104,"response":4105,"ERR":4106,"Ġrecogn":4107,"Column":4108,"ĠCollege":4109,"Ġstop":4110,"Det":4111,"Ġtechnology":4112,"Ob":4113,"evelop":4114,"edia":4115,"main":4116,"ĠOut":4117,")=":4118,"Ġsche":4119,"ĠTHE":4120,"rong":4121,"obj":4122,"43":4123,"Ġcenter":4124,"////////////////":4125,"Back":4126,"irit":4127,"Ġreported":4128,"ilitary":4129,"nov":4130,"ĠUs":4131,"Ġprior":4132,"very":4133,"ĠTrump":4134,"Ġwait":4135,"Ġserver":4136,"Ġnov":4137,"ying":4138,"ttp":4139,"'ve":4140,"Ġ<!--":4141,"Ġarticle":4142,"Ġlocation":4143,"varphi":4144,"rangle":4145,"ensions":4146,"ql":4147,"Ġroad":4148,"Ġfa":4149,"atives":4150,"Ġprobably":4151,"Ġhit":4152,"69":4153,"Ġcontact":4154,"ÑĢ":4155,"ĠDavid":4156,"Ġquite":4157,"Ġfire":4158,"Ġ``":4159,"Ġforward":4160,"uses":4161,"comes":4162,"IO":4163,"Ġpack":4164,"iqu":4165,"Ġsecurity":4166,"Ġsense":4167,"Ġfootball":4168,"Ġshall":4169,"Ġconsist":4170,"arr":4171,"41":4172,"ĠDay":4173,"Ġliter":4174,"Ġaw":4175,"Ġimpact":4176,"After":4177,"ĠOf":4178,"Ġpopulation":4179,"javascript":4180,"ĠFirst":4181,"stitute":4182,"annot":4183,"ĠWilliam":4184,"Ġpatients":4185,"TP":4186,"Ġfrequ":4187,"Ġwor":4188,"Box":4189,"Ġrelationship":4190,"Ġincludes":4191,"///":4192,"_.":4193,"Ġfriend":4194,"ĠWork":4195,"Ġconsum":4196,"refix":4197,"filter":4198,"Ġformat":4199,"FONT":4200,"num":4201,"ivil":4202,"Ġadditional":4203,"Ġsomeone":4204,"soft":4205,"Ġareas":4206,"pass":4207,"Ġhours":4208,"ampions":4209,"orge":4210,"ERT":4211,"iforn":4212,"Ġfields":4213,"miss":4214,"ĠSen":4215,"Ġbirth":4216,"Ġinternational":4217,"anger":4218,"Ġregard":4219,"Ġsatisf":4220,"aches":4221,"attr":4222,"ĠStr":4223,"oon":4224,"py":4225,"Ġspecified":4226,"Ġprovides":4227,"Ġword":4228,"ounced":4229,"Ġunit":4230,"omb":4231,"update":4232,"Button":4233,"Ġcondition":4234,"Const":4235,"Ġfight":4236,"Ġir":4237,"buf":4238,"Listener":4239,"Ġeffort":4240,"ĠBlack":4241,"inding":4242,"ĠLa":4243,"ĠRef":4244,"Ġisn":4245,"just":4246,"Ġgraph":4247,"fort":4248,"more":4249,"ĠDirect":4250,"Ġimm":4251,"Ġunique":4252,"Ġcred":4253,"Ġfiles":4254,"Ġcapt":4255,"dated":4256,"Ġupon":4257,"rav":4258,"inner":4259,"asc":4260,"ATION":4261,"Ġsus":4262,"Ġeval":4263,"Ġmot":4264,"Ġnamed":4265,"Ġnav":4266,"\").":4267,"number":4268,"Ġbegan":4269,"cor":4270,"ico":4271,"gorithm":4272,"ĠRead":4273,"ming":4274,"ĠRem":4275,"egraphics":4276,"includegraphics":4277,"osed":4278,"ĠHol":4279,"rief":4280,"My":4281,"illing":4282,"ĠHT":4283,"ny":4284,"85":4285,"Ġcorrect":4286,"ĠRE":4287,"ifornia":4288,"Aut":4289,"Address":4290,"ĠSub":4291,"support":4292,"cret":4293,"process":4294,"Ġcoming":4295,"Ġcollection":4296,"Layout":4297,"Em":4298,"Ġespecially":4299,"Ġtemper":4300,"ĠAssoci":4301,"textbf":4302,"Ġhope":4303,"Next":4304,"Ġsem":4305,"rip":4306,"cial":4307,"Ġoutside":4308,"Ġcompanies":4309,"<?":4310,"Ġreference":4311,"Ġprofession":4312,"ategy":4313,"tool":4314,"ula":4315,"Select":4316,"Ġscale":4317,"licit":4318,"Ġtrying":4319,"mt":4320,"Ġsort":4321,"ĠChina":4322,"Rem":4323,"Ġoperation":4324,"Ġtim":4325,"Ġquality":4326,"long":4327,"Ġautom":4328,"ellow":4329,"Ġcharacters":4330,"izes":4331,"uid":4332,"Ġcampaign":4333,"Length":4334,"ĠGover":4335,"\"),":4336,"Ġcontains":4337,"Ġmodule":4338,"iences":4339,"2004":4340,"Ġcareer":4341,"Ġhimself":4342,"Valid":4343,"proof":4344,"Ġstre":4345,"ĠResearch":4346,"ĠAustralia":4347,"ĠEX":4348,"%%":4349,"itect":4350,"Ġtheory":4351,"Ġcurrently":4352,"ores":4353,"Ġeverything":4354,"apping":4355,"Ġregular":4356,"Output":4357,"```":4358,"Ġbroad":4359,"icture":4360,"ulations":4361,"ĠMr":4362,"Ġdam":4363,".~\\":4364,"vey":4365,"Ġwhose":4366,"Ġactive":4367,"Ġhon":4368,"Spec":4369,"else":4370,"tag":4371,"remove":4372,"ãģ":4373,"ades":4374,"}).":4375,"Ġrandom":4376,"Ġlost":4377,"Ġmode":4378,":</":4379,"only":4380,"instance":4381,"ĠDi":4382,"wood":4383,"anning":4384,"Ġprote":4385,"Ġemail":4386,"arter":4387,"Mode":4388,"ervices":4389,"URL":4390,"ĠCLASS":4391,"Ġvot":4392,"Ġhot":4393,"essages":4394,"').":4395,"Ġinterface":4396,"styles":4397,"rightarrow":4398,"57":4399,"uge":4400,"Ġscreen":4401,"ĠStreet":4402,"older":4403,"ĠFil":4404,"TYPE":4405,"Ġmanagement":4406,"ĠSome":4407,"Ġasked":4408,"Ġinj":4409,"Ġcalcul":4410,"IZ":4411,"Do":4412,"efined":4413,"Top":4414,"Ġenjoy":4415,"Ġpolice":4416,"Vis":4417,"ba":4418,"reference":4419,"Ġcontract":4420,"Ġfont":4421,"Ġapprox":4422,"ĠSee":4423,"show":4424,"Ġdraw":4425,"HO":4426,"Ġbre":4427,"Tag":4428,"grad":4429,"ully":4430,"CON":4431,"Ġpositive":4432,"ĠType":4433,"Ġdifficult":4434,"Ġconnection":4435,"Ġincrease":4436,"ĠII":4437,"Target":4438,"room":4439,"atas":4440,"ĠNow":4441,"FO":4442,"Url":4443,"Ġtele":4444,"Ġentry":4445,"itch":4446,"Bundle":4447,"iant":4448,"ĠLicense":4449,"oz":4450,"oul":4451,"circ":4452,"istance":4453,"bb":4454,"alle":4455,"aily":4456,"Ġaud":4457,"ĠHREF":4458,"ĠOur":4459,"CL":4460,"otal":4461,"Sec":4462,"Ġsurface":4463,"elebr":4464,"kit":4465,"ĠNor":4466,"Ġevidence":4467,"Ġtransform":4468,"Ġproducts":4469,"Ġsym":4470,"unit":4471,"oom":4472,"Ġusers":4473,"Dev":4474,"lands":4475,"Ġgirl":4476,"onder":4477,"Ġinflu":4478,"Ġpopular":4479,"Ġaffect":4480,"Min":4481,"ship":4482,"Ġdeb":4483,"overline":4484,"lit":4485,"Ġforce":4486,"[\\":4487,"TS":4488,"ĠPort":4489,"offset":4490,"Ġconv":4491,"ĠEar":4492,"Ġprop":4493,"geq":4494,"Cache":4495,"ederal":4496,"Ġnames":4497,"column":4498,"ĉĠĠĠ":4499,"Ġreturned":4500,"ios":4501,"Server":4502,"files":4503,"97":4504,"Ġnatural":4505,"raz":4506,"Offset":4507,"Ġfit":4508,"Ġtravel":4509,"ota":4510,"ĠĠĠĠĠĠĠĠĠĠĠĠĠĠĠĠĠĠĠĠĠĠĠĠĠĠĠĠĠĠĠĠĠĠĠ":4511,"Ġsn":4512,"AV":4513,"Ġexecut":4514,"Frame":4515,"ias":4516,"ĠEv":4517,"ua":4518,"emp":4519,"ĠName":4520,"Ġcam":4521,"Ġpain":4522,"'ll":4523,"output":4524,"cy":4525,"Ġwanted":4526,"Ġsimply":4527,"Ġflow":4528,"ĠDepartment":4529,"Update":4530,"ĠTechn":4531,"Ġreturns":4532,"Ġfilter":4533,"Ġdiscover":4534,"Ġdeep":4535,"Ġproblems":4536,"avy":4537,"under":4538,"het":4539,"Ġlocated":4540,"Access":4541,"ouncil":4542,"Ġdynam":4543,"ĠPal":4544,"Ġconcern":4545,"UP":4546,"hent":4547,"Ġlonger":4548,"Ġleading":4549,"Ġroot":4550,"Ġsaw":4551,"Ġleaders":4552,"icip":4553,"Ñģ":4554,"Ġmention":4555,"useum":4556,"Mem":4557,"ĠHam":4558,"ya":4559,"Ġcomponent":4560,"nected":4561,"Ġpresident":4562,"Ġcallback":4563,"Ġrow":4564,"Ġvict":4565,"ĠRepublic":4566,"iers":4567,"},\\":4568,"ares":4569,"Ġeffects":4570,"ĠPaul":4571,")]":4572,"Ġspeed":4573,"Ð¾Ð":4574,"Ġhistor":4575,"ville":4576,"ĠGeneral":4577,"ĠJames":4578,"ĠIS":4579,"acter":4580,"Ġstage":4581,"Ġsoftware":4582,"Ġmatrix":4583,"########":4584,"Ġplatform":4585,"rupt":4586,"pite":4587,"cs":4588,"Ġetc":4589,"Ġsolid":4590,"Ġreve":4591,"ĠPost":4592,"ctor":4593,"ĠCalifornia":4594,"ittee":4595,".}":4596,"Ġmeet":4597,"ĠSy":4598,"late":4599,"uint":4600,"ĠReview":4601,"ĠGoogle":4602,"spec":4603,"ĠMal":4604,"Ġinside":4605,"ĠEuropean":4606,"Ġthemselves":4607,"frak":4608,"RI":4609,"iece":4610,"Ġ[]":4611,"Ġled":4612,"********************************":4613,"Ġliving":4614,"COL":4615,"Ġ**":4616,"acing":4617,"58":4618,"Ġdoc":4619,"Ġinf":4620,"ria":4621,"Lambda":4622,"Max":4623,"quare":4624,"Ġfem":4625,"rote":4626,"which":4627,"Ġess":4628,"asons":4629,"ĠPublic":4630,"arks":4631,"ĠMag":4632,"Ġrac":4633,"Ġobtained":4634,"Width":4635,"Ġweb":4636,"alls":4637,"++)":4638,"final":4639,"KE":4640,"59":4641,"PO":4642,"Ġplaying":4643,"See":4644,"plit":4645,"Ġminutes":4646,"Ġuses":4647,"Ġson":4648,"ams":4649,"anged":4650,"scri":4651,"rated":4652,"DB":4653,"abs":4654,"Ġvill":4655,"Types":4656,"Ġuint":4657,"mut":4658,"bra":4659,"Ġreading":4660,"&\\":4661,"sd":4662,"Ġsoon":4663,"Ġnumer":4664,"ĠLog":4665,"Ġexception":4666,"ĠIndian":4667,"Row":4668,"NAME":4669,"enced":4670,"ounds":4671,"Ġallowed":4672,"ĠDE":4673,"ĠService":4674,"Ġoffice":4675,"edd":4676,"Bl":4677,"Ġclub":4678,"ĠYour":4679,"Ġeveryone":4680,"ĠMat":4681,"Ġquery":4682,"ka":4683,"ĠAnt":4684,".\\":4685,"CA":4686,"cing":4687,"ĠDec":4688,"utils":4689,"IF":4690,"aml":4691,"Ġ!==":4692,"Ġextra":4693,"Ġdirectly":4694,"Ġeasy":4695,"Ġjo":4696,"Ġsil":4697,"Ġlevels":4698,"Ġgre":4699,"Ġselected":4700,"ĠEm":4701,"expected":4702,"orph":4703,"sf":4704,"ĠArch":4705,"Provider":4706,")^":4707,"Ġestim":4708,"ees":4709,"ĠBen":4710,"(_":4711,"Ġmovie":4712,"Ġbeaut":4713,"Ġprec":4714,"Ġpattern":4715,"ĠAPI":4716,"ĠCouncil":4717,"Ġsend":4718,"2003":4719,"olve":4720,"Ġthus":4721,"Ġbooks":4722,"inn":4723,"Ġvirtual":4724,"Ġdemon":4725,"Ġalign":4726,"gn":4727,"achine":4728,"Ġwoman":4729,"Ġnote":4730,"Ġgives":4731,"Ġconduct":4732,"ĠST":4733,"Ġign":4734,"aught":4735,"Ġregister":4736,"ensor":4737,"Ġexpression":4738,"prototype":4739,"Ġimages":4740,"dec":4741,"scope":4742,"ĠHere":4743,"ĠArray":4744,"Ġstaff":4745,"ĠFound":4746,"ros":4747,"Ġdecision":4748,"Ġimmedi":4749,"window":4750,"gu":4751,"ĠTime":4752,"author":4753,"vest":4754,"Ġobj":4755,"rics":4756,"Ġâ":4757,"ĠOpen":4758,"rapper":4759,"itory":4760,"Ġstay":4761,"ashington":4762,"ĠSing":4763,"ÃŃ":4764,"Ġmid":4765,"ĠGreen":4766,"SA":4767,"mitted":4768,"rate":4769,"ech":4770,"ĠCanada":4771,"uate":4772,"ospital":4773,"Ġfriends":4774,"Ġrecently":4775,"prop":4776,"boldsymbol":4777,"eve":4778,"Ġlearning":4779,"artifact":4780,"Ġtreatment":4781,"Ġweight":4782,"}),":4783,"Ã³":4784,"ĠEngland":4785,"Ġrat":4786,"Ġcandid":4787,"ãĥ":4788,"isode":4789,"win":4790,"Ġinvolved":4791,"Ġpretty":4792,"icrosoft":4793,"Ġfather":4794,"Ġstore":4795,"root":4796,"ulated":4797,"ida":4798,"Ġneigh":4799,"aled":4800,"empty":4801,"cover":4802,"Ġwrong":4803,"=\"../../../../../":4804,"CD":4805,"63":4806,"Ġremove":4807,"rael":4808,"Ġeducation":4809,"Tree":4810,"Ġoffset":4811,"Bo":4812,"Open":4813,"Ġcause":4814,"ĠFig":4815,"berg":4816,"mathfrak":4817,"SD":4818,"ULT":4819,"Ġannounced":4820,"template":4821,"opyright":4822,"Ġgrowth":4823,"Ġjud":4824,"ĠLeague":4825,"Work":4826,"ĠInstitute":4827,"Search":4828,"Ġpredict":4829,"ĠAtt":4830,"nab":4831,"Ġmechan":4832,"ĠMod":4833,"ĠRich":4834,"Ġrock":4835,"Ġsold":4836,"2001":4837,"Ġoperator":4838,"Ġgets":4839,"Co":4840,"arily":4841,"Ġstation":4842,"ĠJack":4843,"buffer":4844,"acc":4845,"task":4846,"ĠPre":4847,"force":4848,"Ġsaf":4849,"cons":4850,"][":4851,"Ġargs":4852,"ĠCE":4853,"rought":4854,"eft":4855,"Ġmemory":4856,"ĠMet":4857,"rian":4858,"BA":4859,"mas":4860,"Ġdead":4861,"ĠCO":4862,"common":4863,"olic":4864,"Ġquestions":4865,"./":4866,"Ġveh":4867,"Ġphase":4868,"ĠBer":4869,"ĠAre":4870,"Ġsetting":4871,"ĠÃ":4872,"cos":4873,"creen":4874,"Ġcook":4875,"adow":4876,"Ass":4877,"skip":4878,"vant":4879,"Ġsuff":4880,"Ġcourt":4881,"Ġdefine":4882,"Ġ;":4883,"Configuration":4884,"break":4885,"parse":4886,"Ġexcept":4887,"band":4888,"Ġbuffer":4889,"Ġcorresponding":4890,";->":4891,"Ġworked":4892,"ĠMart":4893,"Ġparts":4894,"ĠRober":4895,"ĠInc":4896,"aling":4897,"Ġdark":4898,"61":4899,"ĠCourt":4900,"?âĢĿ":4901,"ĠFrench":4902,"layer":4903,"Entity":4904,"ĠMor":4905,"Case":4906,"ART":4907,"rial":4908,"62":4909,"Ge":4910,"rum":4911,"Ġinteresting":4912,"lice":4913,"Ġreach":4914,"ston":4915,"Le":4916,"Ġavoid":4917,"Ġdeveloped":4918,"Ġsets":4919,"och":4920,"ecute":4921,"ufact":4922,"etch":4923,"Ġdifference":4924,"Ġrev":4925,"ĠDan":4926,"Ġdescription":4927,"Direct":4928,"NE":4929,"ĠFile":4930,"Ġcentury":4931,"Ġ~":4932,"Ġrecomm":4933,"gest":4934,"}}$":4935,"Ġmodern":4936,"rib":4937,"98":4938,"should":4939,"Ġcountries":4940,"Dec":4941,"Location":4942,"ependency":4943,"API":4944,"Ġfailed":4945,"Ġways":4946,"}/":4947,"ously":4948,"scale":4949,"haps":4950,"Ġactual":4951,"Ġnumbers":4952,"Ġgoal":4953,"Ġallows":4954,"ĠThom":4955,"Ġlen":4956,"Header":4957,"appa":4958,"Ġnecessary":4959,"Unit":4960,"Ġhandle":4961,"]);":4962,"Ġexists":4963,"ĠSuper":4964,"ropri":4965,"iding":4966,"Ġvers":4967,"Ġlatest":4968,"ĠWhile":4969,"Ġinvestig":4970,"classes":4971,"Entry":4972,"Ġspecies":4973,"MO":4974,"Ġtree":4975,"Ġrule":4976,"ĉĉĉĉĉĉĉ":4977,"Ġlinear":4978,"ĠMusic":4979,"Ġemer":4980,"ĠScience":4981,"Utils":4982,"ago":4983,"Ġestablished":4984,"DF":4985,"CP":4986,"drop":4987,"urt":4988,"Process":4989,"Parameter":4990,"Ġpm":4991,"agram":4992,"Sy":4993,"Ġfloat":4994,"Ġcompar":4995,"bon":4996,"imately":4997,"float":4998,"ĠPhil":4999,"Ġstudies":5000,"langle":5001,":\"":5002,"Me":5003,"Ġconnect":5004,"()->":5005,"ena":5006,"ocal":5007,"Ġwrote":5008,"Ġanaly":5009,"ĠProgram":5010,"Ġtag":5011,"hline":5012,"'>":5013,"bool":5014,"=\"-":5015,"oyal":5016,"%;":5017,"Ġfinally":5018,"Ġdensity":5019,"Ġdistance":5020,"ifying":5021,"Ġobjects":5022,"UB":5023,"Ġsample":5024,"proto":5025,"hi":5026,"ounter":5027,"try":5028,"Ġleave":5029,"match":5030,"ĠPress":5031,"ĠInst":5032,"Ġargument":5033,"Ġchanged":5034,"rd":5035,"oded":5036,"Ġtowards":5037,"'),":5038,"Sim":5039,"Enc":5040,"sign":5041,"Ġanyone":5042,"ampionship":5043,"kind":5044,"ĠBel":5045,"Ġexplo":5046,"conf":5047,"Write":5048,"tree":5049,"Container":5050,"CODE":5051,"Fe":5052,"Ġfast":5053,"Ġcompared":5054,"Ġgas":5055,"ldots":5056,"document":5057,"CR":5058,"Ġstatement":5059,"ein":5060,"Ġlo":5061,".$":5062,"Ġframe":5063,"Ġvector":5064,"Ġscen":5065,"Ġà¤":5066,"ĠJer":5067,"Control":5068,"Ġdise":5069,"Ġzero":5070,"{{":5071,"2002":5072,"Ġsession":5073,"Ġperfect":5074,"boot":5075,"Rel":5076,"acebook":5077,"Ġgoes":5078,"tra":5079,"à¥":5080,"Ġcharg":5081,"SH":5082,"ĠYear":5083,"ĠJe":5084,"Mar":5085,"fr":5086,"IGN":5087,"atively":5088,"Ġthroughout":5089,"Ġmis":5090,"Ġsaying":5091,"Ġcollect":5092,"bin":5093,"command":5094,"ĠSince":5095,"Ġcells":5096,"require":5097,"Ġrespectively":5098,"Ġmother":5099,"enge":5100,"Ġdirection":5101,"Ġequal":5102,"ĠHall":5103,"loor":5104,"then":5105,"Ġprinc":5106,"Ġcast":5107,"Go":5108,"Ġrules":5109,"patch":5110,"Ġphysical":5111,"Ġresources":5112,"hedul":5113,"that":5114,"Ġlives":5115,"Ġprogress":5116,"78":5117,"thon":5118,"ĠExp":5119,"Ġinfo":5120,"Ġknowledge":5121,"ĠHel":5122,"Ġdesigned":5123,"Ġpull":5124,"Ġensure":5125,"Ġgave":5126,"Ġlarger":5127,"ulture":5128,"Level":5129,"criptor":5130,"ĠWhite":5131,"Ġthreat":5132,"returns":5133,"Ġpassed":5134,"estival":5135,"Ġrace":5136,"Ġfinancial":5137,"Ġboard":5138,"ecution":5139,"Ġten":5140,"300":5141,"ĠVol":5142,"AND":5143,"Dep":5144,"ACK":5145,"ued":5146,"Ġbal":5147,"Ġempty":5148,"Can":5149,"Ġindependent":5150,"52":5151,"Ġvs":5152,"Ġlegal":5153,"IST":5154,"ĠMichael":5155,"Height":5156,"Interface":5157,"ipl":5158,"artifactId":5159,"ĠPM":5160,"Ġfeed":5161,"TER":5162,"ils":5163,"ĠCreate":5164,"Ġxml":5165,"Ġselection":5166,"51":5167,"SO":5168,"Ġhum":5169,"Port":5170,"Ġfavor":5171,"images":5172,"values":5173,"inated":5174,"ALL":5175,"Ġabsol":5176,"Ġaward":5177,"Ġchannel":5178,"Ġinterview":5179,"Ġdemonstr":5180,"Ġitems":5181,"ĠEnd":5182,"Ġwasn":5183,"None":5184,"Ġapply":5185,"Project":5186,"Ġdegree":5187,"ĠCons":5188,"ario":5189,"VAL":5190,"aa":5191,"iform":5192,"Americ":5193,"angle":5194,"istan":5195,"Ġculture":5196,"Ġproof":5197,"56":5198,"ĠĠĠĠĠĠĠĠĠĠĠĠĠĠĠĠĠĠĠĠĠ":5199,"attern":5200,"Pe":5201,"ĠOver":5202,"term":5203,"Ġque":5204,"ancy":5205,"Ġrender":5206,"olid":5207,"Phi":5208,"ĠAnn":5209,"aughter":5210,"ĠWeb":5211,"Callback":5212,"strap":5213,"Ġgenerated":5214,"Dr":5215,"Thread":5216,"hest":5217,"54":5218,"([":5219,"Ġsupported":5220,"ĠReturns":5221,"More":5222,"Empty":5223,"ooth":5224,"ls":5225,"ĠCong":5226,"ĠNS":5227,"ado":5228,"Po":5229,"erc":5230,"Ġtransfer":5231,"Range":5232,"ĠRel":5233,"fa":5234,"Ġsurpr":5235,"DD":5236,"Ġcelebr":5237,"clusion":5238,"Ġdeliver":5239,"Ġmilitary":5240,"Ġiter":5241,"ĠCheck":5242,"jo":5243,"strict":5244,"Ġfactor":5245,"ragment":5246,"Ġ{}":5247,"Params":5248,"ims":5249,"evelopment":5250,"idents":5251,"ĠKe":5252,"BO":5253,"Ġqual":5254,"ĠSum":5255,"tog":5256,"Ġlack":5257,"Ġusually":5258,"Ġfilms":5259,">,":5260,"ĠSam":5261,"isions":5262,"Ġter":5263,"Ġswitch":5264,"control":5265,"tim":5266,"Ġ::":5267,"Rev":5268,"Ġrelative":5269,"lam":5270,"Now":5271,"Ġagre":5272,"tml":5273,"Ġcentral":5274,"igen":5275,"Ġprimary":5276,"Ġchoice":5277,"PR":5278,"ãĤ":5279,"Module":5280,"endar":5281,"Ġproposed":5282,"Ġeffective":5283,"Ġsequence":5284,"Ġproduced":5285,"fs":5286,"Ġsurv":5287,"groupId":5288,"ilies":5289,"ivacy":5290,"ĠOR":5291,"\\|":5292,"Vert":5293,"ĠWashington":5294,"Ġexisting":5295,"ä¸":5296,"olar":5297,"ental":5298,"ĠMac":5299,"izont":5300,"CS":5301,"ror":5302,"token":5303,"gment":5304,"Ġtransport":5305,"Ġclean":5306,"Ġclosed":5307,"Current":5308,"Ġdrug":5309,"Ġotherwise":5310,"ĠPeople":5311,"PA":5312,"Ġang":5313,"Ġactivity":5314,"split":5315,"ĠLeg":5316,"iller":5317,"Ġpractice":5318,"wner":5319,"ĠAssert":5320,"citep":5321,"cache":5322,"cr":5323,"PS":5324,"Ġaltern":5325,"âĢĿ.":5326,"Hash":5327,"Ġcard":5328,"entity":5329,"Mon":5330,"Ġaccur":5331,"Ġnature":5332,"Ġhel":5333,"Ġborn":5334,"itable":5335,"ĠAfrica":5336,"Inst":5337,"Position":5338,"isation":5339,"Ġpair":5340,"Ġcompos":5341,"Ġexperiment":5342,"ĠRob":5343,"Http":5344,"Ġstra":5345,"Ġstories":5346,"ĠCr":5347,"Ġreceive":5348,"ĠBig":5349,"Ġexpress":5350,"Ġstarting":5351,"esh":5352,"Description":5353,"Ġconcept":5354,"ĠTex":5355,"arp":5356,"gate":5357,"ecause":5358,"XX":5359,"ĠFin":5360,"ds":5361,"Ġmeeting":5362,"Ġbasis":5363,"53":5364,"osph":5365,"subset":5366,"riday":5367,"zer":5368,"Settings":5369,"Ġfixed":5370,"device":5371,"Ġmix":5372,"ĠQue":5373,"ĠRoad":5374,"ander":5375,"Ġhy":5376,"ona":5377,"hash":5378,"ĠDistrict":5379,"TI":5380,"Ġmoved":5381,"iny":5382,"Ġplease":5383,"ĠDel":5384,"Ġworth":5385,"Ġseek":5386,"=\"../../../../../../":5387,"ishing":5388,"=\"_":5389,"ĠSection":5390,"example":5391,"Script":5392,"Ġoperations":5393,"She":5394,"ibly":5395,"mercial":5396,"ĠMem":5397,"Ġprice":5398,"Ġscience":5399,"Option":5400,"Ġ*)":5401,"Ġstri":5402,"Ġpresented":5403,"Ġfair":5404,"make":5405,"Ġacqu":5406,"Ġnovel":5407,"Ġscient":5408,"RL":5409,"Sigma":5410,"Ġserious":5411,"iring":5412,"ctx":5413,"ĠBest":5414,"\"))":5415,"Ġtherefore":5416,"Ġrot":5417,"nor":5418,"Ġprep":5419,"ĠAirport":5420,"Ġobserved":5421,"Ġarguments":5422,"Local":5423,"Ġincreasing":5424,"stack":5425,"Ġchalleng":5426,"ĠAut":5427,"Mat":5428,"kappa":5429,"Ġremember":5430,"plete":5431,"QL":5432,"ifest":5433,"DA":5434,"ĠProject":5435,"Change":5436,"pg":5437,"bert":5438,"usion":5439,"Ġparams":5440,"antic":5441,"Ġconfiguration":5442,"stylesheet":5443,"sa":5444,"resource":5445,"Ġperformed":5446,"Ġexpand":5447,"ĠTom":5448,"well":5449,"oder":5450,"ĠAngel":5451,"Ġmaximum":5452,"before":5453,"IZE":5454,"Ġweeks":5455,"Ġball":5456,"border":5457,"Ġmut":5458,"icker":5459,"mbox":5460,"pret":5461,"etime":5462,"ĠForm":5463,"liance":5464,"omic":5465,"WE":5466,"Ġedge":5467,"87":5468,"Ġearlier":5469,"Ġinsp":5470,"Ġrelig":5471,"erve":5472,"ursor":5473,"EM":5474,"Ġdied":5475,"icket":5476,"nabla":5477,"1000":5478,"Ġones":5479,"Connection":5480,"pdf":5481,"iverse":5482,"ronic":5483,"ĠBay":5484,"ĠSeries":5485,"alax":5486,":(":5487,"Prot":5488,"dat":5489,"})$":5490,"Eng":5491,"PL":5492,"overs":5493,"Ġpadding":5494,"asy":5495,"otimes":5496,"inese":5497,"Ġ>=":5498,"ini":5499,"Ġteams":5500,"inder":5501,"ynch":5502,"Ġattention":5503,"Ġsources":5504,"ĠParty":5505,"ĠRiver":5506,"Ġblog":5507,"Ġscope":5508,"izontal":5509,"ĠDet":5510,"sey":5511,"ĠSund":5512,"Ġstreng":5513,"bal":5514,"Ġthread":5515,"ulate":5516,"Ġnor":5517,"ĠGeorge":5518,"Ġmount":5519,"ĠRun":5520,"Ġmiddle":5521,"Ġbehavior":5522,"Ġalthough":5523,"background":5524,"Properties":5525,"\"));":5526,"ĠChurch":5527,"izations":5528,"itation":5529,"ĠOther":5530,"ĠBusiness":5531,"ĠIsrael":5532,"had":5533,"Ġbuy":5534,"edu":5535,"ĠAssociation":5536,"dot":5537,"ĠUSA":5538,"Ġattribute":5539,"96":5540,"Ġdirector":5541,"icate":5542,"Ġbrought":5543,"Ġadminist":5544,"free":5545,"leep":5546,"onic":5547,"Ġconstruction":5548,"ncy":5549,"porary":5550,"Ġsave":5551,"Ġraise":5552,"Ġequation":5553,"Ġdro":5554,"Ġproper":5555,"COLOR":5556,"ĠOper":5557,"orter":5558,"Ġimag":5559,"Ġability":5560,"models":5561,"Ġslow":5562,"ĠJew":5563,"Ġpurch":5564,"Ġprotect":5565,"ORD":5566,"Down":5567,"ducation":5568,"Ġlimited":5569,"Ġfollowed":5570,"Ġturned":5571,"Ġoffers":5572,"Ġcouple":5573,"note":5574,"ett":5575,"ellig":5576,"ĠÂ£":5577,"debug":5578,"ĠâĢ¢":5579,"Op":5580,"born":5581,"asic":5582,"Ġsymbol":5583,"gan":5584,"Ġmus":5585,"ĠAM":5586,"Ġdefinition":5587,"Ġcomments":5588,"Ġspeak":5589,"Are":5590,"ĠGold":5591,"za":5592,"essor":5593,"aste":5594,"Ġsuccessful":5595,"inct":5596,"itar":5597,"Ġtemperature":5598,"ĠCre":5599,"gin":5600,"CTION":5601,"IA":5602,"ensuremath":5603,"nonumber":5604,"'d":5605,"Stat":5606,"ĠAlex":5607,"card":5608,"Ġlooks":5609,"cat":5610,"ao":5611,"=>":5612,"ĠDiv":5613,"modal":5614,"msg":5615,"ĠMary":5616,"clear":5617,"raction":5618,"1999":5619,"Ã¼":5620,"(-":5621,"Record":5622,"oma":5623,"Ġmeaning":5624,"Session":5625,"uly":5626,"Ġanim":5627,"ĠNote":5628,"ĠGerman":5629,"Ġrepe":5630,"ðŁ":5631,"Ġfix":5632,"anges":5633,"Document":5634,"olf":5635,"Ġcontain":5636,"Match":5637,"iful":5638,"wid":5639,"Json":5640,"Ġnorth":5641,"pop":5642,"Ġrank":5643,"ertific":5644,"INE":5645,"ugins":5646,"Sk":5647,"ĠProf":5648,"Ġbecomes":5649,"oles":5650,"ĠFe":5651,"widget":5652,"ictionary":5653,"po":5654,"Ġequival":5655,"rier":5656,"ributions":5657,"ln":5658,"Sign":5659,"Ġmedical":5660,"Ġbank":5661,"Ġvariable":5662,"ira":5663,"ĠHistory":5664,"Pass":5665,"Reference":5666,"Ġcompletely":5667,"Collection":5668,"400":5669,"Ġelection":5670,"ĠDemocr":5671,"Ġdistrict":5672,"Ġwest":5673,"Ġanti":5674,"ĠLife":5675,"Ġnet":5676,"dist":5677,"Our":5678,"Ġfully":5679,"&#":5680,"Ġdou":5681,"uri":5682,"interface":5683,"Menu":5684,"Ġord":5685,"ĠMont":5686,"Ġ(\"":5687,"sets":5688,"ĠRad":5689,"OK":5690,"Ġexactly":5691,"itiz":5692,"normal":5693,"auth":5694,"Ġrob":5695,"Ġbey":5696,"Ġappropri":5697,"IB":5698,"Ġcomponents":5699,"sych":5700,"ĉĉĊ":5701,"hor":5702,"apse":5703,"ters":5704,"86":5705,"Ġlargest":5706,"ĠMedia":5707,"Serial":5708,"hr":5709,"Ġgun":5710,"Ġparents":5711,"after":5712,"Ġtrade":5713,"ĠIsland":5714,"ĠNOT":5715,"textit":5716,"Ġestablish":5717,"Ġ\"\\":5718,"Ġtransition":5719,"Ġremain":5720,"illa":5721,"Ġprevent":5722,"range":5723,"ĠÎ":5724,"Ġprojects":5725,"Ġtemplate":5726,"Ġsituation":5727,"Ġbeyond":5728,"bind":5729,"ORT":5730,"Ġoverride":5731,"ipp":5732,"ĠFranc":5733,"ĠRobert":5734,"fill":5735,"Ġheard":5736,"ĠException":5737,"ĠMiss":5738,"Ġmicro":5739,"ader":5740,"address":5741,"ĠFacebook":5742,"Ġhands":5743,"Ġtouch":5744,"ĠCall":5745,"weight":5746,"Ġassess":5747,"Operation":5748,"89":5749,"GE":5750,"ERROR":5751,"MM":5752,"second":5753,"Ġvolume":5754,"legal":5755,"Ġrepl":5756,"Ġwriter":5757,"iled":5758,"nter":5759,"bour":5760,"Ġauth":5761,"media":5762,"Ġscene":5763,"Impl":5764,"Ġcomputer":5765,"bound":5766,"ĠMus":5767,"Font":5768,"Ġbur":5769,"Ġfelt":5770,"Ġeyes":5771,"ĠMap":5772,"inger":5773,"pid":5774,"Ġincreased":5775,"Ġcore":5776,"Ġprofessional":5777,"Ġcritical":5778,"Ġshared":5779,"ĠRock":5780,"Ġanswer":5781,"Dir":5782,"prime":5783,"Ġmaintain":5784,"Ġbus":5785,"clude":5786,"ĠFrance":5787,"\\%":5788,"Ġstudent":5789,"Tim":5790,"PH":5791,"Ġopportunity":5792,"Ġserved":5793,"Ġsolutions":5794,"Ġwide":5795,"gent":5796,"Ġpark":5797,"ĠAND":5798,"etic":5799,"ĠStar":5800,"otes":5801,"structor":5802,"spect":5803,"Ġbeginning":5804,"ometry":5805,"Ġwife":5806,"&&":5807,"Ġcapital":5808,"Ġshot":5809,"mazon":5810,"Store":5811,"types":5812,"ĠUse":5813,"ĠTop":5814,"Ev":5815,"Ġfans":5816,"netic":5817,"Ġhous":5818,"oted":5819,"Ke":5820,"Ġreserv":5821,"transform":5822,"foo":5823,"Ġwonder":5824,"outhern":5825,"ĠCON":5826,"han":5827,"ĠServices":5828,"Ġinstit":5829,"Ø§":5830,"Ġhear":5831,"ĠSur":5832,"Ġple":5833,"etimes":5834,"ĠFore":5835,"---":5836,"{}":5837,"thm":5838,"edef":5839,"72":5840,"eal":5841,"atically":5842,"Ġvoice":5843,"house":5844,"frame":5845,"ĠTexas":5846,"enty":5847,"Integer":5848,"Ġschools":5849,"ĠSmith":5850,"ĠGood":5851,"ĠLou":5852,"Ġarchitect":5853,"Right":5854,"equal":5855,"rome":5856,"ingle":5857,"edy":5858,"URE":5859,"Async":5860,"ĠSE":5861,"aturday":5862,"Ġcalls":5863,"Ġsouth":5864,"real":5865,"Ptr":5866,"Ġplaces":5867,"ĠSociety":5868,"ĉĠ":5869,"/\\":5870,"ĠSal":5871,"ĠCompany":5872,"Ġbottom":5873,"Ġcounter":5874,"Ġshape":5875,"Ġfilename":5876,"Ġsecret":5877,"focus":5878,"Ġchance":5879,"ĠBre":5880,"Ġshoot":5881,"vol":5882,"Ġactivities":5883,"icks":5884,"PECT":5885,"Ġscript":5886,"Ġradio":5887,"Ġeasily":5888,"Non":5889,"Ġremains":5890,"Ġhash":5891,"Ġmulti":5892,"STR":5893,"Track":5894,"widet":5895,"delete":5896,"Mult":5897,"Ġknew":5898,"Ġexhib":5899,"\\[":5900,"Ġpartners":5901,"ĠJournal":5902,"Click":5903,"star":5904,"Ġlock":5905,"Ġcharge":5906,"Ġapplied":5907,"ĠAward":5908,"Ã¤":5909,"Ġparticularly":5910,"ĠChe":5911,"dest":5912,"Ġmur":5913,"Ġreplace":5914,"Ġdecided":5915,"anned":5916,"men":5917,"van":5918,"Host":5919,"west":5920,"ĠĠĠĠĠĠĠĠĠĠĠĠĠĠĠĠĠĠĠĠ":5921,"$(":5922,"GB":5923,"Ġexam":5924,"ĠDate":5925,"Ġtoken":5926,"ĠLong":5927,"aved":5928,"ws":5929,"ĠFoundation":5930,"internal":5931,"jection":5932,"system":5933,"Ġgiving":5934,"Ġrespond":5935,"ĠPlay":5936,"access":5937,"Ġblood":5938,"ĠTre":5939,"Ġdigital":5940,"road":5941,"FT":5942,"Ġeconomic":5943,"webkit":5944,"Ġoptim":5945,"Ġnearly":5946,"render":5947,"Ġgreater":5948,"Mark":5949,"Ġroll":5950,"Ġhighly":5951,"Ġquickly":5952,"ipe":5953,"ĠGovernment":5954,"ĠRequ":5955,"Ġalgorithm":5956,"Left":5957,"NavBar":5958,"Ġnuc":5959,"Ġspent":5960,"ĠFriday":5961,"weet":5962,"Ġdatabase":5963,"Ġeight":5964,"sv":5965,"click":5966,"Ġimprove":5967,"ĠAv":5968,"Ġclasses":5969,"ategories":5970,"Ġwild":5971,"():":5972,"Ġpackage":5973,"ĠScott":5974,"direct":5975,"ĠCamp":5976,"Ġoppos":5977,"erry":5978,"Ġstars":5979,"Api":5980,"Ġenter":5981,"cope":5982,"xx":5983,"Ġmanufact":5984,"icated":5985,"Ġcoordin":5986,"req":5987,"ĠAlso":5988,"Ġassume":5989,"oday":5990,"ĠHill":5991,"nce":5992,"FL":5993,"Ġplant":5994,"El":5995,"ĠOffice":5996,"ĠCup":5997,"Ġsettings":5998,"session":5999,"Ġjav":6000,"ette":6001,"Device":6002,"edge":6003,"ĠSun":6004,"Ġgreen":6005,"ĠBG":6006,"pub":6007,"dots":6008,"liament":6009,"widetilde":6010,"ĠPub":6011,"Ġax":6012,"car":6013,"duction":6014,"ĠShow":6015,"docs":6016,"udd":6017,"ĠGreat":6018,"DIR":6019,"\\!":6020,"Ġinvoke":6021,"Use":6022,"hover":6023,"ĠDev":6024,"Ġbasic":6025,"Ġchoose":6026,"Ġcivil":6027,"Ġdomain":6028,"Ġmanager":6029,"âĢĺ":6030,"Ġproced":6031,"ano":6032,"ĠView":6033,"###":6034,"send":6035,"ernel":6036,"Helper":6037,"Ġfigure":6038,"high":6039,"}-":6040,"Ġhappen":6041,"American":6042,"osen":6043,"Ġphone":6044,"Ġreports":6045,"Ġsen":6046,"aws":6047,"Ġplans":6048,"Ġsignal":6049,"Ġready":6050,"Cons":6051,"}}{":6052,"Vari":6053,"ORM":6054,"phone":6055,"enum":6056,"Long":6057,"igration":6058,"Ġpoor":6059,"Ġtransp":6060,"join":6061,"nel":6062,"ala":6063,"parameter":6064,"ĠTrue":6065,"otic":6066,"Ġapplications":6067,"ĠSunday":6068,"Ġyield":6069,"Ġpreviously":6070,"Ġsometimes":6071,"Parameters":6072,"Ġer":6073,"Ġecho":6074,"Title":6075,"ologies":6076,"IE":6077,"toString":6078,"ighest":6079,"ĠClub":6080,"Rect":6081,"anda":6082,"Ġjournal":6083,"ĠNO":6084,"ĠMad":6085,"Ġpressure":6086,"Ġinform":6087,"Net":6088,"while":6089,"ĠPo":6090,"Ġ('":6091,"vector":6092,"adian":6093,"Ġeditor":6094,"DS":6095,"oms":6096,"Ġprograms":6097,"Ġsett":6098,"Decl":6099,"azine":6100,"custom":6101,"agon":6102,"Ġagree":6103,"Ġtests":6104,"ATH":6105,"ĠLO":6106,"virt":6107,"ĠId":6108,"ponents":6109,"ĠVer":6110,"ien":6111,"Ġfamilies":6112,"related":6113,"nam":6114,"asure":6115,"Ġalt":6116,"Ġpiece":6117,"rames":6118,"onday":6119,"PRE":6120,"undred":6121,"WS":6122,"Ġpresence":6123,"step":6124,"Ġlibrary":6125,"Vector":6126,"ĠCommission":6127,"ĠAL":6128,"FC":6129,"rant":6130,"Ġcompleted":6131,"Ġsafety":6132,"Ġtrain":6133,"Ġmoving":6134,"reme":6135,"cket":6136,"Cal":6137,"Ġrequires":6138,"Ġkilled":6139,"oration":6140,"Tool":6141,"Handle":6142,"ĠMost":6143,"Ġpurpose":6144,"ĠChristian":6145,"They":6146,"Ġupper":6147,"ocket":6148,"Ġclick":6149,"Ġdram":6150,"Ġtrust":6151,"ĠGen":6152,"imensional":6153,"eds":6154,"Ġblue":6155,"ĠChild":6156,"ĠTable":6157,"cp":6158,"Ġprefer":6159,"Ġappears":6160,"ĠTur":6161,"ĠUnion":6162,"Don":6163,"Ġuseful":6164,"(:":6165,"Schema":6166,"ĠCap":6167,"ĠMex":6168,"Kind":6169,"ĠNetwork":6170,"even":6171,"Ġerrors":6172,"ether":6173,"udget":6174,"alysis":6175,"ĠUnder":6176,"iate":6177,"ansion":6178,"Core":6179,"CM":6180,"Ġprem":6181,"disabled":6182,"pers":6183,"mode":6184,"Ġintroduced":6185,"False":6186,"structure":6187,"riend":6188,"Ġdescribe":6189,"scal":6190,"Ġundefined":6191,"{-":6192,"'],":6193,"ĠVir":6194,"ĠUN":6195,"asion":6196,"operator":6197,"Ġoverall":6198,"ĠDirector":6199,"Ġcoupl":6200,"cf":6201,"Names":6202,"255":6203,"ĠPy":6204,"Ġdisease":6205,"ĠChinese":6206,"ĠGermany":6207,"Ġcontinued":6208,"ĠWell":6209,"Ġreli":6210,"Ġcoach":6211,"Ġrepresentation":6212,"Invalid":6213,"ounce":6214,"Ġsmaller":6215,"Ġpush":6216,"footer":6217,"ĠWil":6218,"Ġspin":6219,"Ã¶":6220,"ĠMer":6221,"Ġnamespace":6222,"Ġactions":6223,"dule":6224,"79":6225,"enses":6226,"ita":6227,"coll":6228,"osh":6229,"sur":6230,"plet":6231,"reek":6232,"Ġmissing":6233,"ĠBill":6234,"plugin":6235,"orial":6236,"Ġrecover":6237,"ntax":6238,"=\"/":6239,"Ġss":6240,"Ġcontainer":6241,"aby":6242,"Ġprofile":6243,"Ġdrive":6244,"mid":6245,"Ġeast":6246,"Expression":6247,"Ġmorning":6248,"Ġorigin":6249,"Ġscore":6250,"Ġweak":6251,"ĠBank":6252,"Ġimmediately":6253,"Ġdelete":6254,"Ġ['":6255,"estamp":6256,"abilities":6257,"Ġgrant":6258,"care":6259,"Ġseven":6260,"env":6261,"84":6262,"iable":6263,"Ġwants":6264,"Order":6265,"Ġchem":6266,"Iter":6267,"Any":6268,"track":6269,"handle":6270,"Ġwind":6271,"Parser":6272,"Ġconnected":6273,"Ġleader":6274,"GET":6275,"Ġstraight":6276,"================================":6277,"bootstrap":6278,"graph":6279,"Ġvote":6280,"Ġforms":6281,"Ġpen":6282,"ĠVis":6283,"Ġobvious":6284,"ĠTim":6285,"export":6286,"Ġholds":6287,"Here":6288,"del":6289,"ĠEducation":6290,"Ġdetermined":6291,"azz":6292,"76":6293,"Ġprim":6294,"Ġlooked":6295,"equals":6296,"Parent":6297,"Ġsummer":6298,"global":6299,"Ġorganization":6300,"Ġdestroy":6301,"82":6302,"Ġgold":6303,"rast":6304,"Ġsongs":6305,"vm":6306,"Que":6307,"ĠIP":6308,"uit":6309,"ĠField":6310,"ĠCD":6311,"Ġdemand":6312,"Ġfine":6313,"hy":6314,"Ġpages":6315,"\\\"":6316,"fit":6317,"eries":6318,"exception":6319,"olved":6320,"Has":6321,"dates":6322,"Ġopened":6323,"ĠGl":6324,"here":6325,"Ġmovement":6326,"equiv":6327,"ani":6328,"Ġdetermine":6329,"Ġgrand":6330,"Ġ&=":6331,"Template":6332,"Ġrelation":6333,"tn":6334,"ĠBi":6335,"ydro":6336,"itors":6337,"ĠLem":6338,"success":6339,"writ":6340,"Ġillust":6341,"ĠBoard":6342,"Te":6343,"Ġtransaction":6344,"padding":6345,"ĠAcadem":6346,"ĠEq":6347,"Ġhappened":6348,"ĠâĢ¦":6349,"Ġcarry":6350,"Ġrecords":6351,"Ġbrand":6352,"ECT":6353,"Ġessential":6354,"oes":6355,"ĠNumber":6356,"Ver":6357,"Ġsal":6358,"ataset":6359,"Ġshowed":6360,"Err":6361,"zeta":6362,"connect":6363,"Dom":6364,"Ġparse":6365,"={":6366,"(*":6367,"Ġproviding":6368,"Ġadapt":6369,"ĠAR":6370,"Art":6371,"Ġcorre":6372,"Ġlayer":6373,"icons":6374,"pename":6375,"1998":6376,"ĠWindow":6377,"Sl":6378,"bing":6379,"Ġheader":6380,"Ġbul":6381,"Ġtraditional":6382,"ilton":6383,"Am":6384,"ĠMel":6385,"Ġjoin":6386,"Ġcancer":6387,"Ð°Ð":6388,"ĠCarol":6389,"ĠFinal":6390,"bes":6391,"ĠMount":6392,"rey":6393,"ĠCentral":6394,"Ġprove":6395,"Member":6396,"Ġpublish":6397,"copy":6398,"'.":6399,"ITY":6400,"Ġalone":6401,"ĠAp":6402,"racy":6403,"ky":6404,"Ġunits":6405,"uated":6406,"Ġhop":6407,"2021":6408,"ĠMo":6409,"ĠMov":6410,"ĠThomas":6411,"Ġhuge":6412,"vas":6413,"Ġcreating":6414,"HS":6415,"iger":6416,">();":6417,"dependency":6418,"ocity":6419,"inate":6420,"Ġcollabor":6421,"agnost":6422,"iminal":6423,"_;":6424,"ĠMuseum":6425,"Ġaspect":6426,"Ġpanel":6427,"Ġthous":6428,"reedom":6429,"ĠIr":6430,"Ġcache":6431,"Ġruns":6432,"ĠPolicy":6433,"Ġsigned":6434,"\\]":6435,"DI":6436,"Ġopening":6437,"cles":6438,"ĠHome":6439,"ĠCommittee":6440,"Ġhar":6441,"Psi":6442,"Ġstrategy":6443,"Ġslight":6444,"Ġproduce":6445,"di":6446,"Ġnegative":6447,"Ġut":6448,"ester":6449,"ker":6450,"ĠTor":6451,"BS":6452,"aud":6453,"Ġtruth":6454,"ĠWed":6455,"atre":6456,"?:":6457,"Ġepisode":6458,"Since":6459,"iments":6460,"LS":6461,"ĠBGCOLOR":6462,"Ġdecre":6463,"cut":6464,"ĠManagement":6465,"component":6466,"Ġpoll":6467,"Num":6468,"toggle":6469,"Icon":6470,"Ġ})":6471,"ĠMinister":6472,"Ġremoved":6473,"Ġsociety":6474,"Ġvariables":6475,"ĠMethod":6476,"Ġrout":6477,"Ġextension":6478,"resents":6479,"ĠFlor":6480,"Ġunless":6481,">.":6482,"ĠFrancis":6483,"Ġcli":6484,"Ġclin":6485,"Ġcontaining":6486,"Reader":6487,"Ġvan":6488,"ĠDevelopment":6489,"actor":6490,"rot":6491,"ĠPeter":6492,"Ġimplementation":6493,"Ġvariety":6494,"Ġtelevision":6495,"pool":6496,"replace":6497,"ĠBase":6498,"}+":6499,"ĠThus":6500,"ĠTwo":6501,"atalog":6502,"ĠEN":6503,"nap":6504,"ĠEXPECT":6505,"Ġsafe":6506,"arts":6507,"panel":6508,"ĠTour":6509,"ipeline":6510,"ĠFrank":6511,"ĠSaturday":6512,"ifies":6513,"osis":6514,",-":6515,"uesday":6516,"help":6517,"Ġcommit":6518,"Application":6519,"ignment":6520,"Metadata":6521,"coin":6522,"full":6523,"Ġconvert":6524,"1990":6525,"Ġfirm":6526,"ests":6527,"Ġthr":6528,"Ġnodes":6529,"ATA":6530,"virtual":6531,"settings":6532,"ĠRussia":6533,"Debug":6534,"hol":6535,"rolled":6536,"Ġstorage":6537,"Ġult":6538,"Classes":6539,"eler":6540,"fields":6541,"MENT":6542,"ĠFigure":6543,"Ġdevices":6544,"ki":6545,"Ġflag":6546,"Ġbyte":6547,"Ġcool":6548,"attribute":6549,"Ġencou":6550,"Ġicon":6551,"appro":6552,"icago":6553,"Ġconstraint":6554,"\\{":6555,"ancer":6556,"Ġmaybe":6557,"Cre":6558,"Tra":6559,"Ġcru":6560,"Ġcosts":6561,"Ġhyp":6562,"Ġconstit":6563,"Ġunderstanding":6564,"Ġclimate":6565,"romise":6566,"lymp":6567,"Ġlaunch":6568,"ĠTimes":6569,"annotation":6570,"rage":6571,"ults":6572,"}=\\":6573,"ĠEvent":6574,"look":6575,"160":6576,"pay":6577,"Ġgenerally":6578,"Ġeth":6579,"Ġappropriate":6580,"ĠTown":6581,"ACE":6582,"Values":6583,"gs":6584,"ĠAustralian":6585,"centering":6586,"Ġrates":6587,"Ġappoint":6588,"fony":6589,"ĠCam":6590,"ĠĠĠĠĠĠĠĠĠĠĠĠĠĠĠĠĠĠĠĠĠĠĠĠĠĠĠĠĠĠĠĠĠĠĠĠĠĠĠ":6591,"white":6592,"Ġcommercial":6593,"ĠVict":6594,"ĠKey":6595,"Ġworkers":6596,"greg":6597,"Policy":6598,"ĠTheorem":6599,"ĠEarth":6600,"Ġearn":6601,"Ġpartial":6602,"itz":6603,"Ġinnov":6604,"Ġvel":6605,"Ġkids":6606,"ĠSocial":6607,"}]":6608,"SET":6609,"Ġamb":6610,"ĠUser":6611,"SU":6612,"Stack":6613,"-->":6614,"ĠInformation":6615,"ĠEven":6616,"rees":6617,"âĢĿ,":6618,"Ġthinking":6619,"ĠSecret":6620,"ĠTwitter":6621,"|-":6622,"Ġopin":6623,")=\\":6624,"Note":6625,"Ġstuff":6626,"ĠAfrican":6627,"Ġinline":6628,"owers":6629,"Ġforces":6630,"ĠEmp":6631,"byte":6632,"ications":6633,"Ġgeneration":6634,"ashion":6635,"hens":6636,"Ġwat":6637,"`,":6638,"ĠEvery":6639,"Ġgrowing":6640,"clusive":6641,"Ġnom":6642,"ĠCA":6643,"ĠWeek":6644,"anguage":6645,"icine":6646,"material":6647,"Argument":6648,"Render":6649,"crete":6650,"admin":6651,"rb":6652,"Ġconver":6653,"language":6654,"ĠModel":6655,"aming":6656,"blockList":6657,"PT":6658,"Ġartist":6659,"elcome":6660,"Ġfinite":6661,"Ġbillion":6662,"ĠFree":6663,"ipment":6664,"Ġty":6665,"Root":6666,"Ġreflect":6667,"atin":6668,"93":6669,"ĠGrand":6670,"Ġquarter":6671,"Ġstack":6672,"Ġidentity":6673,"itness":6674,";\\":6675,"product":6676,"Ġmale":6677,"allow":6678,"Args":6679,"Ġbutton":6680,"Ġnotice":6681,"Ġcop":6682,"Ġdistributed":6683,"Ġfactors":6684,"ymfony":6685,"fn":6686,"gebra":6687,"Ġhighest":6688,"site":6689,"ĠTH":6690,"`.":6691,"Ġtesting":6692,"unities":6693,"Ġshift":6694,"inem":6695,"store":6696,"94":6697,"Ġunsigned":6698,"Ġsurround":6699,"=\"../../../":6700,"SION":6701,"ĠJun":6702,"Ġfig":6703,"holder":6704,"lev":6705,"71":6706,"Car":6707,"anta":6708,"ĠCare":6709,"Ġsales":6710,"akers":6711,"category":6712,"Ġaware":6713,"arden":6714,"dx":6715,"Ġsites":6716,"Ġfemale":6717,"ĠChampionship":6718,"olec":6719,"91":6720,"Found":6721,"Ġassist":6722,"While":6723,"reshold":6724,"ĠWestern":6725,"ursday":6726,"anner":6727,"email":6728,"ĠHen":6729,"iling":6730,"bi":6731,"ĠValue":6732,"Ġdog":6733,"ynchron":6734,"----------------------------------------------------------------":6735,"bur":6736,"ĠCongress":6737,"stant":6738,"AME":6739,"Ġdim":6740,"Enabled":6741,"ĠRichard":6742,"Ġdirectory":6743,"Then":6744,"Ġsymmet":6745,"Ġbytes":6746,"CI":6747,"cur":6748,"cit":6749,"ĠHTML":6750,"icies":6751,"Ġrelevant":6752,"Ġclearly":6753,"yan":6754,"venue":6755,"ĠRoyal":6756,"92":6757,"Ġoil":6758,"Writer":6759,"Rule":6760,"Ġalleg":6761,"EQ":6762,"ĠPower":6763,"shot":6764,"........":6765,"AGE":6766,"Ġmys":6767,"Ġsteps":6768,"Doc":6769,"boolean":6770,"Ġforeign":6771,"Ġvisual":6772,"ĠMA":6773,"Ġdownload":6774,"Home":6775,"Ret":6776,"Ġnation":6777,"Body":6778,"ĠTechnology":6779,"NN":6780,"Ġmaster":6781,"Draw":6782,"Ġsplit":6783,"Ġdoor":6784,"lict":6785,"Ġutil":6786,"iki":6787,"Ġgenerate":6788,"Ġinstr":6789,")-":6790,"Ġvillage":6791,"annels":6792,"Each":6793,"Ġletter":6794,"Ġdrop":6795,"Ġcompl":6796,"Author":6797,"ĠMath":6798,"Ġindividuals":6799,"Ġmachine":6800,"Ġdream":6801,"Ġsports":6802,"agger":6803,"??":6804,"tabular":6805,"ĠStat":6806,"Ġfarm":6807,"74":6808,"cloud":6809,"ĠWomen":6810,"osing":6811,"Ġperhaps":6812,"super":6813,"ĠJSON":6814,"register":6815,"poses":6816,"Ġreduce":6817,")}\\":6818,"ancing":6819,"Sum":6820,"Ġmobile":6821,"Ġspirit":6822,"Ġcustomers":6823,"ĠMax":6824,"Ġwave":6825,"erman":6826,"Ġminimum":6827,"Ġhundred":6828,"ĠRussian":6829,"Ġfinished":6830,"Ġevolution":6831,"ĠHot":6832,"Boolean":6833,"73":6834,"FAULT":6835,"ĠAccording":6836,"gar":6837,"ĠGame":6838,"ĠJose":6839,"Ġspread":6840,"Ġroute":6841,"ĠCode":6842,"ĠSil":6843,"ĠTO":6844,"Ġelectric":6845,"Ġos":6846,"irmed":6847,"Ġjson":6848,"Ġstock":6849,"ola":6850,"ertificate":6851,"Ġconserv":6852,")^{":6853,"ĠReport":6854,"Ġviews":6855,"Ġfear":6856,"Ġmill":6857,"ĠĠĠĠĠĠĊ":6858,"aser":6859,"ĠAny":6860,"Bytes":6861,"olk":6862,"ĠMonday":6863,"Dialog":6864,"Ġquantum":6865,"ĠSte":6866,"arant":6867,"serve":6868,"ĠBu":6869,"Ġbeautiful":6870,"ĉĉĉĊ":6871,"Ġagreement":6872,"cb":6873,"Assert":6874,"Ġhappy":6875,"allery":6876,"Ġdetail":6877,"ĠSpe":6878,"ugg":6879,"Ġclaims":6880,"ested":6881,"ĠMain":6882,"eder":6883,"%)":6884,"Ġbelong":6885,"Fig":6886,"Xml":6887,"nesday":6888,"Ġmentioned":6889,"ifications":6890,"ĠPet":6891,"Ġchain":6892,"ucket":6893,"Ġaim":6894,"Ġdepth":6895,"Ġtried":6896,"Ġprobability":6897,"Ġdaughter":6898,"Ġstrict":6899,"ustain":6900,"Ġcaused":6901,"Ġcouldn":6902,"faces":6903,"framework":6904,"callback":6905,"organ":6906,"Ġsell":6907,"allel":6908,"History":6909,"ĠĠĠĠĠĠĠĠĠĠĠĠĠĠĠĠĠĠ":6910,"Ġenh":6911,"Ġreached":6912,"$)":6913,"Fields":6914,"exports":6915,"Ġjoined":6916,"TED":6917,"omorph":6918,"Sm":6919,"apy":6920,"Ġreasons":6921,"lines":6922,"othing":6923,"Ġrestrict":6924,"ĠSO":6925,"missions":6926,"Ġdespite":6927,"century":6928,"Ġappeared":6929,"ĠEngine":6930,"Ġstrength":6931,"Ġsun":6932,"porate":6933,"alian":6934,"ixel":6935,"ĠOffic":6936,"ja":6937,"loyment":6938,"install":6939,"Ġtools":6940,"\",\"":6941,"ĠÂ»":6942,"ĠRoman":6943,"Ġartists":6944,"Ġcategory":6945,"Ġtrial":6946,"Ġfailure":6947,"Ġextrem":6948,"1997":6949,"application":6950,"Ġideas":6951,"DL":6952,"Ġcloud":6953,"Ġincor":6954,"Mock":6955,"}\"":6956,"apers":6957,"Delete":6958,"Ac":6959,"ectors":6960,"spe":6961,"Ġinterested":6962,"ella":6963,"Ġnorm":6964,"Ġmission":6965,"eless":6966,"Ġtal":6967,"TC":6968,"oves":6969,"war":6970,"FR":6971,"Byte":6972,"Ġharm":6973,"'))":6974,"kin":6975,"plugins":6976,"Ġconcent":6977,"EXT":6978,"sort":6979,"Gu":6980,"stat":6981,"sect":6982,"pute":6983,"Ġneighbor":6984,"Ġresponsible":6985,"Ġpaid":6986,"ĠLand":6987,"lemma":6988,"ĠGlobal":6989,"]]":6990,"ady":6991,"Job":6992,"iders":6993,"Ġplot":6994,")/":6995,"double":6996,"wrap":6997,"ĠMartin":6998,"SL":6999,"roph":7000,"insert":7001,"Ġjour":7002,"Ġexplicit":7003,"Book":7004,"auto":7005,"ĠBack":7006,"83":7007,";<":7008,"ROM":7009,"Ġsea":7010,"Ġded":7011,"ĠMur":7012,"lie":7013,"Ġadvant":7014,"Ġtit":7015,"Support":7016,"Ġonto":7017,"argument":7018,"ĠIran":7019,"Ġmurder":7020,"Ġbill":7021,"uple":7022,"olver":7023,"Tests":7024,"Ġstrateg":7025,"istration":7026,"Ġowner":7027,"region":7028,"Ġ++":7029,"ĠIO":7030,"ĠKore":7031,"ĠJud":7032,"Ġshowing":7033,"Ġspot":7034,"May":7035,"ĠMass":7036,"Ġ<=":7037,"ingu":7038,"cup":7039,"Ġcluster":7040,"Show":7041,"ĠSpr":7042,"Ġtalking":7043,"Ġnative":7044,"ashed":7045,"iency":7046,"Ġconsequ":7047,"widehat":7048,"enter":7049,"Ġhidden":7050,"Ġhour":7051,"Ġdriver":7052,"dict":7053,"Ġidentified":7054,"Definition":7055,"coq":7056,"anish":7057,"inline":7058,"Ġrecorded":7059,"__(":7060,"short":7061,"Ġprocesses":7062,"ivery":7063,"Ġdiscussion":7064,"uke":7065,"Ġcertainly":7066,"igan":7067,"Main":7068,"ĠAmazon":7069,"Ġcat":7070,"ishes":7071,"ĠRet":7072,"dropdown":7073,"81":7074,"Only":7075,"ĠSl":7076,"ĠCH":7077,"isms":7078,"burg":7079,"standing":7080,"ĠWhy":7081,"ĠOh":7082,"mes":7083,"Ġdebut":7084,"Ġwall":7085,"Ġchurch":7086,"ĠError":7087,"mock":7088,"1996":7089,"Ġinterpret":7090,"Results":7091,"Ġmajority":7092,"Ġpowerful":7093,"TEST":7094,"150":7095,"sql":7096,"ĠðŁ":7097,"Ġmsg":7098,"Ġkept":7099,"ĠCath":7100,"riev":7101,"Ġpy":7102,"Di":7103,"ĠCentre":7104,"Ġpool":7105,"Some":7106,"ura":7107,"scription":7108,"nergy":7109,"Ġinher":7110,"Why":7111,"Ġship":7112,"ĠArmy":7113,"ĠHand":7114,"Storage":7115,"iques":7116,"atever":7117,"pective":7118,"ĠassertEquals":7119,"Ġreduced":7120,"Ġarm":7121,"Ġadopt":7122,"unched":7123,"Ġunc":7124,"Ġsto":7125,"emporary":7126,"Cor":7127,"indent":7128,"Ġwood":7129,"Ġcollege":7130,"Ġbrief":7131,"ĠFilm":7132,"night":7133,"iced":7134,"Ġupdated":7135,"erved":7136,"Ġplaced":7137,"Custom":7138,"ĠWood":7139,"ĠURL":7140,"ture":7141,"Ne":7142,"Package":7143,"Ġregions":7144,"aver":7145,"ĠDen":7146,"riz":7147,"ads":7148,"Ġrepresents":7149,"ĠLove":7150,"Ġheavy":7151,"Ġcamera":7152,"ĠFlorida":7153,"ĠJapanese":7154,"Copy":7155,"Ġapi":7156,"Ġefforts":7157,"Ġcitiz":7158,"iated":7159,"hs":7160,"ĠLim":7161,"cean":7162,"rule":7163,"Meta":7164,"Ġpicture":7165,"andra":7166,"Ġgalax":7167,"comment":7168,"reland":7169,"Ġannual":7170,"Ġsmart":7171,"JECT":7172,"Ġexternal":7173,"Ġguy":7174,"Ġfeet":7175,"ĠCy":7176,"Ġreality":7177,"Ġboundary":7178,"Ġminor":7179,"Ġmaterials":7180,"tsd":7181,"Ġratio":7182,"Ġfrequency":7183,"Ġfan":7184,"ĠLos":7185,"scape":7186,"ĠTeam":7187,"Ġmock":7188,"how":7189,"Ġdaily":7190,"Ġseparate":7191,"ĠStand":7192,"ĠBrown":7193,"Ġ'/":7194,"ĠEconom":7195,"Ġleads":7196,"keys":7197,"KEY":7198,"Ġjavax":7199,"Ġequivalent":7200,"ifically":7201,"About":7202,"Ġcapacity":7203,"margin":7204,"ĠExt":7205,"256":7206,"ensus":7207,"Posted":7208,"ĠFestival":7209,"ĠVirgin":7210,"}|":7211,"nections":7212,"Ġsamples":7213,"Ġboy":7214,"hab":7215,"ĠĠĠĠĠĠĠĠĠĠĠĠĠĠĠĠĠĠĠĠĠĠĠĠĠ":7216,"Ġcommunities":7217,"password":7218,"Ġrare":7219,"urred":7220,"ĠEqu":7221,"elligence":7222,"Ġowners":7223,"cdots":7224,"omy":7225,"Ġgone":7226,"Pub":7227,"Ð»":7228,"Ġconsole":7229,"aration":7230,"Media":7231,"security":7232,"ĠHuman":7233,"ĠOld":7234,"hadoop":7235,"These":7236,"bul":7237,"ĠTuesday":7238,"home":7239,"asket":7240,"urrency":7241,"ĠLibrary":7242,"Ġexamples":7243,"ĠLin":7244,"Ġbattle":7245,"GS":7246,"Ġscheme":7247,"Ġframework":7248,"ï¼":7249,"claim":7250,"Ġahead":7251,"Ñĥ":7252,"ĠBur":7253,"Ġconvers":7254,"hentication":7255,"elled":7256,"Ġfederal":7257,"going":7258,"eces":7259,"Ġpan":7260,"ĠStep":7261,"Ġprocessing":7262,"Ġresulting":7263,"Ġwallet":7264,"Extension":7265,".~":7266,"Ġentity":7267,"END":7268,"connection":7269,"BR":7270,"Account":7271,"ĠSecond":7272,"riage":7273,"Ġdanger":7274,"Ġinfluence":7275,"Ġwish":7276,"Ġther":7277,"Ident":7278,"ĠArab":7279,"}_\\":7280,"Ap":7281,"ĠSol":7282,"ĠSecurity":7283,"Ġdrink":7284,"Ġdie":7285,"anging":7286,"ĠAction":7287,"osoph":7288,"})\\":7289,"Ġcalling":7290,"Fr":7291,"PP":7292,"TV":7293,"jpg":7294,"ODO":7295,"elli":7296,"Active":7297,"Ġexcell":7298,"istent":7299,"ĠText":7300,"none":7301,"ipal":7302,"Ġeventually":7303,"Ġoccup":7304,"Ġserve":7305,"ĠIll":7306,"Ġmarried":7307,"ARY":7308,"Ġneut":7309,"ĠCommunity":7310,"Ġvehicle":7311,"Ġdig":7312,".'":7313,"Ġacadem":7314,"ĠJim":7315,"Network":7316,"Pattern":7317,"ĠTherefore":7318,"Ġcompetition":7319,"cpp":7320,"plex":7321,"1980":7322,"ĠEnter":7323,"matrix":7324,"ĠChicago":7325,"items":7326,"Ġunknown":7327,"1995":7328,"Ġchallenge":7329,"cmd":7330,"Ġ\\{":7331,"Ġmyself":7332,"Ġsch":7333,"Ġplays":7334,"ĠJo":7335,"Vol":7336,"Ġmiles":7337,"=\"\"":7338,"Ġolder":7339,"ĠLake":7340,"Ġpointer":7341,"FILE":7342,"inations":7343,"sin":7344,"Ġarrest":7345,"poss":7346,"}^\\":7347,"arc":7348,"Ġ{};":7349,"initial":7350,"linear":7351,"LOG":7352,"Ġoccur":7353,"Ġraised":7354,"ĠOlymp":7355,"Ġhelped":7356,"spring":7357,"Display":7358,"Ġcommunication":7359,"Ġskills":7360,"Ġaudience":7361,"Ġcrow":7362,"Ġabsolute":7363,"Ġmotion":7364,"*)":7365,"Ġ\"/":7366,"ogen":7367,"ĠColor":7368,"Ġnice":7369,"ĠLouis":7370,"life":7371,"Editor":7372,"ĠCast":7373,"upload":7374,"Ġformed":7375,"qquad":7376,"ĠEach":7377,"Ġmessages":7378,"alid":7379,"ĠDown":7380,"____":7381,"modules":7382,"grade":7383,"rick":7384,"Ġsomew":7385,"ĠLink":7386,"^+":7387,"outer":7388,"uty":7389,"ĠEnt":7390,"mazing":7391,"ĠSpecial":7392,"Ġmeant":7393,"ĠGames":7394,"Auth":7395,"Ġ${":7396,"Ġagent":7397,"Pool":7398,"onym":7399,"thread":7400,"&=":7401,"DC":7402,"WA":7403,"HTML":7404,"ĠDesign":7405,"âĢ¢":7406,"Ġstated":7407,"Ġsusp":7408,"Ġhtml":7409,"Ġknows":7410,"Changed":7411,"John":7412,"ĠBet":7413,"Ġsubsequ":7414,"radius":7415,"Other":7416,"120":7417,"ĠVAL":7418,"Ġbrother":7419,"inf":7420,"dim":7421,"ocation":7422,"vement":7423,"ĠThursday":7424,"Ġserial":7425,"Ġparties":7426,"Ġweap":7427,"Ġextract":7428,"cape":7429,"isl":7430,"Ġidentify":7431,"unsigned":7432,"grid":7433,"ĠLead":7434,"Ġremaining":7435,"Ġpi":7436,"Initial":7437,"ĠElect":7438,"Ġearth":7439,"Ġpartner":7440,"elease":7441,"Ġregarding":7442,"ĠPan":7443,"Ġbrain":7444,"Ġissu":7445,"icol":7446,"ĠDuring":7447,"Pop":7448,")))":7449,"ĠAuthor":7450,"Ġkeys":7451,"Security":7452,"yer":7453,"Before":7454,"record":7455,"ĠHor":7456,"Tab":7457,"Send":7458,"Ġrecommend":7459,"Ġresolution":7460,"Ġadjust":7461,"ĠParis":7462,"ups":7463,"Lock":7464,"addr":7465,"Ġtrou":7466,"kg":7467,"ĠArts":7468,"uby":7469,"Ġ[[":7470,"Ġnoted":7471,"Ġextended":7472,"Ġcontinues":7473,"Av":7474,"çļ":7475,"Ġwarm":7476,"ĠAbout":7477,"Ġstarts":7478,"Ġmostly":7479,"\")]":7480,"Ġlisten":7481,"ĠDC":7482,"ĠCanadian":7483,"Ġreader":7484,"ĠAtl":7485,"Ġdefe":7486,"Ġdimension":7487,"_,":7488,"Ġsector":7489,"uan":7490,"Ġhospital":7491,"Ġwhom":7492,"points":7493,"Ġwouldn":7494,"icians":7495,"ĠOnly":7496,"ircraft":7497,"Ġcomparison":7498,"ĠTheir":7499,"Obj":7500,"agraph":7501,"ĠWindows":7502,"Ġmatches":7503,"Ġtrend":7504,"Ġattract":7505,"ĠUpdate":7506,"Perm":7507,"Ġpeak":7508,"Ġspectrum":7509,"ĠZeal":7510,"ĠAsia":7511,"Ġrequirements":7512,"Ġbenefit":7513,"Ġmanaged":7514,"notation":7515,"ĠCharles":7516,"XT":7517,"edit":7518,"plements":7519,"Ġtoward":7520,"HECK":7521,"Ġcandidate":7522,"Ġsignificantly":7523,"çļĦ":7524,"forms":7525,"Ġpatient":7526,"stitution":7527,"ĠChristmas":7528,"Ġguess":7529,"Ġlisted":7530,"kw":7531,"ĠVictor":7532,"Ġstructures":7533,"ĠAcademy":7534,"Ġadvert":7535,"ĠPage":7536,"ĠMicrosoft":7537,"Ġbrowser":7538,"ĠHead":7539,"Ã§":7540,"ĠWednesday":7541,"ĠBob":7542,"Ġnoise":7543,"Ġlif":7544,"ĠLee":7545,"Ġdamage":7546,"scroll":7547,"odies":7548,"shall":7549,"ora":7550,"ideos":7551,"assets":7552,"Ġ>>":7553,"impl":7554,"usband":7555,"ĠPlan":7556,"job":7557,"stats":7558,"Ġflat":7559,"ĠIslam":7560,"\">&":7561,"ango":7562,"Ġdb":7563,"ĠAngeles":7564,"ĠDefault":7565,"shape":7566,"words":7567,"Supp":7568,"Ġfant":7569,"Ġpeace":7570,"{(":7571,"Timeout":7572,"Tags":7573,"Red":7574,"Ġcombination":7575,"ato":7576,"}:":7577,"ĠAlthough":7578,")\"":7579,"Ðº":7580,"Ġaudio":7581,"Ġrich":7582,"Ġoffered":7583,"ĠLandroid":7584,"okes":7585,"ĠApple":7586,"numer":7587,"ician":7588,"Ġdiscussed":7589,"ruit":7590,"Final":7591,"Ġprotocol":7592,"lig":7593,"1994":7594,"ci":7595,"Ġseconds":7596,"Ġapparent":7597,"ĠZealand":7598,"Ġalloc":7599,"ĠEp":7600,"Queue":7601,"ional":7602,"Ġeconomy":7603,"Files":7604,"Ġplanning":7605,"ĠProv":7606,"ĠInternet":7607,"contin":7608,"}}(":7609,"=\"\">":7610,"Ġyourself":7611,"tex":7612,"bu":7613,"Ġkill":7614,"Ġinteger":7615,"Ġ(*":7616,"Ġtraffic":7617,"ĠFre":7618,"odd":7619,"ĠFamily":7620,"sche":7621,"ĠSupport":7622,"SR":7623,"ĠPoint":7624,"%%%%":7625,"orrow":7626,"uls":7627,"MI":7628,"ĠJohnson":7629,"found":7630,"Ġauthors":7631,"Ġbenefits":7632,"umin":7633,"ĠWho":7634,"Ġ),":7635,"hav":7636,"Ġloop":7637,"Ġbeat":7638,"JSON":7639,"ĠMedical":7640,"Ġprotest":7641,"ĠIts":7642,"Ġrail":7643,"Ljava":7644,"uations":7645,"Ġcredit":7646,"ĠIreland":7647,"master":7648,"Ġleaving":7649,"Ġgoals":7650,"fly":7651,"Ġfresh":7652,"PAR":7653,"Ġil":7654,"Widget":7655,"Ġconference":7656,"Ġeye":7657,"ĠKingdom":7658,"Ġphoto":7659,"Ġmonitor":7660,"Ġenable":7661,"Second":7662,"ĠAge":7663,"stone":7664,"ĠFoot":7665,"amin":7666,"?\"":7667,"Ġchosen":7668,"ĠYoung":7669,"textwidth":7670,"Ġfloor":7671,"aylor":7672,"ĠWater":7673,"Ġsmooth":7674,"Ġkm":7675,"SSERT":7676,".*":7677,"Ġphil":7678,"Ġaren":7679,"Ġinner":7680,"Ġplus":7681,"Ġbirths":7682,"DR":7683,"ĠNY":7684,"Grid":7685,"ih":7686,"ye":7687,"ĠDivision":7688,"ĠFund":7689,"ĠVersion":7690,"Ġexpert":7691,"Channel":7692,"Ġlic":7693,"Descriptor":7694,"ĠScot":7695,"lg":7696,"oving":7697,"Ġsexual":7698,"Ġfourth":7699,"ĠGeorg":7700,"enumer":7701,"}\\,":7702,"Ġgovern":7703,"citet":7704,"stop":7705,"results":7706,"[:":7707,"picker":7708,"entials":7709,"ulf":7710,"Ġvisible":7711,"news":7712,"ĠRights":7713,"!âĢĿ":7714,"Ġrise":7715,"Med":7716,"Ġsufficient":7717,"ĠChief":7718,"Ġjoint":7719,"WN":7720,"ko":7721,"ĠDom":7722,"However":7723,"}^{(":7724,"Scope":7725,"||":7726,"move":7727,"queue":7728,"deg":7729,"ipped":7730,"Ġcovered":7731,"Ġcritic":7732,"Transaction":7733,"screen":7734,"apped":7735,"Ġmagnetic":7736,"rase":7737,"pher":7738,"TA":7739,"fix":7740,"ographic":7741,"ĠParliament":7742,"ĠEli":7743,"Ġpoly":7744,"ĠAssembly":7745,"ĠObama":7746,"GR":7747,"lyph":7748,"Ġbed":7749,"Flags":7750,"Ġadding":7751,"PM":7752,"emy":7753,"Ġfinding":7754,"Ġprison":7755,"People":7756,"profile":7757,"ĠValley":7758,"Database":7759,"effect":7760,"ĠPass":7761,"ceived":7762,"Ġmultip":7763,"elegate":7764,"Float":7765,"Ġbiggest":7766,"Ġpropos":7767,"controller":7768,"ONE":7769,"Ġflex":7770,"isters":7771,"ali":7772,"lications":7773,"primary":7774,"lers":7775,"Del":7776,"1970":7777,"=\"@":7778,"ancel":7779,"Ġinstanceof":7780,"ĠEU":7781,"Ġrestaur":7782,"Ġplane":7783,"Ġshut":7784,"zen":7785,"eller":7786,"Ġdelay":7787,"Ġok":7788,"dimensional":7789,"ERS":7790,"urance":7791,"atial":7792,"Ġproceed":7793,"names":7794,"Ġpet":7795,";/":7796,"Ġofficials":7797,"othes":7798,"wait":7799,"Ġinvestment":7800,"Ġtheme":7801,"ĠLine":7802,"ĠDO":7803,"Ġestimate":7804,"Ġreplaced":7805,"ĠCommun":7806,"Ġdistinct":7807,"bel":7808,"jquery":7809,"Ġmetal":7810,"Msg":7811,"akistan":7812,"Ġended":7813,"Struct":7814,"ictures":7815,"ĠFalse":7816,"Cond":7817,"Ġequations":7818,"2022":7819,"ĠJones":7820,"cknow":7821,"Ġfavorite":7822,"Ġhers":7823,"Ġalternative":7824,"Ġhappens":7825,"Ġ$(\\":7826,"Ġspaces":7827,"Ġmixed":7828,"ĠMP":7829,"}+\\":7830,"Ġdir":7831,"Sw":7832,"atters":7833,"Ġ×":7834,"Ġthank":7835,"CRE":7836,"achment":7837,"initely":7838,"VERSION":7839,"Ġmeasures":7840,"Ġforced":7841,"ĠMult":7842,"ultural":7843,"Protocol":7844,"gers":7845,"IVE":7846,"rim":7847,"thlet":7848,"Var":7849,"account":7850,"ĠPlease":7851,"Ġsquare":7852,"ĠForce":7853,"awn":7854,"Ġagreed":7855,"gence":7856,"123":7857,"Ġstreet":7858,"save":7859,"Ġmist":7860,"Ġattr":7861,"Ġinteraction":7862,"Ġwaves":7863,"Ġexpansion":7864,"Ġcombined":7865,"ĠAccess":7866,"ums":7867,"ĠMexico":7868,"iffer":7869,"Ġslightly":7870,"ensed":7871,"Ġjobs":7872,"Ġawait":7873,"ĠNE":7874,"bad":7875,"128":7876,"Ġfill":7877,"Ġexchange":7878,"she":7879,"yes":7880,"events":7881,"Ġcontrast":7882,"}\\\\":7883,"Ġdu":7884,"ĠĠĠĠĠĠĠĠĠĠĠĠĠĠĠĠĠĠĠĠĠĠĠĠ":7885,"Ġarticles":7886,"ĠSpace":7887,"(!":7888,"txt":7889,"ĠAwards":7890,"Ġconsult":7891,"ICE":7892,"ĠSar":7893,"Ġbudget":7894,"@\"":7895,"ĠLemma":7896,"ĠChris":7897,"Will":7898,"Conf":7899,"ĠTri":7900,"atible":7901,"======":7902,"estic":7903,"Ġdoll":7904,"uries":7905,"ĠLast":7906,"Ġconsistent":7907,"ĠTR":7908,"{{\\":7909,"Ġlatter":7910,"hetic":7911,"Ġmagn":7912,"Ġwid":7913,"ĠStart":7914,"Activity":7915,"Ġincome":7916,"Ġwinning":7917,"Ġuniform":7918,"Step":7919,"Ġens":7920,"ĠMa":7921,"Ġbtn":7922,"ĠFort":7923,"mo":7924,"va":7925,"ĠBO":7926,"Ġseeing":7927,"ĠShed":7928,"ingly":7929,"Ġfish":7930,"Ġcultural":7931,"ĠOption":7932,"Ġfamous":7933,"tip":7934,"1993":7935,"inds":7936,"ĠWay":7937,"shift":7938,"aka":7939,"Ġarbit":7940,"(){":7941,"Ġcarried":7942,"Ġblocks":7943,"family":7944,"Ġrequests":7945,"Ġequipment":7946,"MB":7947,"Ġchief":7948,"Ġemployees":7949,"ito":7950,"INFO":7951,"rich":7952,"ji":7953,"Ġvir":7954,"kins":7955,"NotNull":7956,"Ġthanks":7957,"jar":7958,"Ġattributes":7959,"leton":7960,"ĠMil":7961,"Global":7962,"~~~~":7963,"Ġtab":7964,"idel":7965,"Ġsegment":7966,"gency":7967,"Ġbranch":7968,"Ġcoe":7969,"black":7970,"Ġlaws":7971,"flags":7972,"ById":7973,"Ġpil":7974,"zone":7975,"ĠOl":7976,"approx":7977,"ogy":7978,"Ġtrigger":7979,"ERE":7980,"Ġarrang":7981,"Ġfunding":7982,"Ġmyst":7983,"rine":7984,"NG":7985,"ĠMake":7986,"Ġpsych":7987,"Ġphen":7988,"1992":7989,"Init":7990,"rical":7991,"iteral":7992,"Ġlett":7993,"Gen":7994,"ĠInvest":7995,"Ġodd":7996,"uages":7997,"LC":7998,"Ġpod":7999,"ĠBecause":8000,"angular":8001,"ĠPath":8002,"ĠLook":8003,"ga":8004,"MAX":8005,"ĠJon":8006,"600":8007,"network":8008,"Ġapproximately":8009,"Google":8010,"omial":8011,"ĠRegister":8012,"recated":8013,"Ġsenior":8014,")));":8015,"Ġoperating":8016,"unte":8017,"Ġgather":8018,"risis":8019,"()).":8020,"ollowing":8021,"Ġstudied":8022,"Logger":8023,"ĠSto":8024,"Ġtun":8025,"Ġdriving":8026,"Ġguide":8027,"Ġbehavi":8028,"Ġdefense":8029,"Ġopportunities":8030,"Ġnetworks":8031,"}</":8032,"TABLE":8033,"Ġheat":8034,"Ġunivers":8035,"cam":8036,"article":8037,"Ġdrag":8038,"BI":8039,"person":8040,"Ġfif":8041,"Just":8042,"Ġlicense":8043,"DT":8044,"Ġcars":8045,"Register":8046,"ivation":8047,"Ġhusband":8048,"Ġrevealed":8049,"ĠMany":8050,"typedef":8051,"ĠMO":8052,"watch":8053,"Ġuncertain":8054,"poration":8055,"Ġtend":8056,"Rest":8057,"Events":8058,"()));":8059,"Ġcompare":8060,"Ġbecoming":8061,"ĠLord":8062,"Ġcentre":8063,"isc":8064,"Ġlaunched":8065,"////////////////////////////////":8066,"ĠPac":8067,"Ġrepresented":8068,"ĠPop":8069,"La":8070,"Ġseemed":8071,"important":8072,"ĠSports":8073,"ati":8074,"LIC":8075,"throws":8076,"FS":8077,"Ġdesc":8078,"Ġdepends":8079,"Ġtells":8080,"Ġcreation":8081,"domain":8082,"Bit":8083,"ĠMike":8084,"bre":8085,"Ġinvestigation":8086,"Ġlearned":8087,"ova":8088,"Ġbalance":8089,"defined":8090,"mosph":8091,"Ġcriminal":8092,"Ġcoast":8093,"Ġderived":8094,"DP":8095,"amm":8096,"properties":8097,"Br":8098,"manager":8099,"Ġguarant":8100,"Ġattend":8101,"Ġtrip":8102,"friend":8103,"Ġpure":8104,"alloc":8105,"Full":8106,"asis":8107,"Ġrul":8108,"Selector":8109,"Ġip":8110,"shire":8111,"Ġdirected":8112,"selected":8113,"razil":8114,"Ġice":8115,"ĠAS":8116,"Ġdocuments":8117,">:":8118,"logger":8119,"Ġjump":8120,"aching":8121,"Ġexplain":8122,"Ġmenu":8123,"nament":8124,"ĠFunction":8125,"Ġestimated":8126,")+":8127,"Ġfeeling":8128,"ĠPolit":8129,"Ġimplies":8130,"ĠHaw":8131,"orney":8132,"Ġhandler":8133,"ĠFurther":8134,"ez":8135,"Ġeffic":8136,"Ġreject":8137,"Ġtalent":8138,"Ġcomfort":8139,"Ġdetect":8140,"Ġentertain":8141,"ĠLike":8142,"Ġng":8143,"250":8144,"Ġcrime":8145,")),":8146,"editor":8147,"Ġprotection":8148,"auge":8149,"ĠSenate":8150,"fire":8151,"Ġdetailed":8152,"UID":8153,"Find":8154,"assertEquals":8155,"ussian":8156,"Ġhyper":8157,"Edit":8158,"Directory":8159,"ĠJeff":8160,"MC":8161,"Ġviolence":8162,"Ġsoft":8163,"ĠNight":8164,"Ġbuildings":8165,"ĠAndroid":8166,"git":8167,"heast":8168,"ĠBow":8169,"Ġintr":8170,"ighter":8171,"_->":8172,"Symbol":8173,"ĠĠĠĊ":8174,"Ġtechnical":8175,"ynamic":8176,"ĠGuide":8177,"Feature":8178,"world":8179,"Ġgrid":8180,"ĠLab":8181,"Ġposted":8182,"ĠReal":8183,"ryst":8184,"frastructure":8185,"Ġexport":8186,"scribe":8187,"]:":8188,".__":8189,"Ġenabled":8190,"erial":8191,"','":8192,"igr":8193,"estion":8194,"Ġcos":8195,"Desc":8196,"Ġring":8197,"Ġinstalled":8198,"ĠSand":8199,"Ġschedul":8200,"Ġmassive":8201,"typeof":8202,"Ġcycle":8203,"trigger":8204,"Ġadvantage":8205,"protobuf":8206,"ĠBlue":8207,"opl":8208,"tical":8209,"=(":8210,"ository":8211,"Ġorganizations":8212,"Ġtransl":8213,"Ġanimals":8214,"Print":8215,"Ġrapid":8216,"schema":8217,"utch":8218,"PATH":8219,"LECT":8220,"ĠPenn":8221,"Ġhair":8222,"Ġpp":8223,"ĠPR":8224,"ucky":8225,"ĠPolice":8226,"Ġpolicies":8227,"SIZE":8228,"ĠCEO":8229,"Items":8230,"ĠWhe":8231,"ĠItaly":8232,"ĠCard":8233,"Ġstandards":8234,"ookie":8235,"Pack":8236,"urban":8237,"losed":8238,"Ġcities":8239,"appe":8240,"Ġleague":8241,"gi":8242,"Ġopinion":8243,"Ġmaps":8244,"Ġturns":8245,"Ġ%}":8246,"Ġpolitics":8247,"ĠCopyright":8248,"avor":8249,"Ġmeasured":8250,")).":8251,"Ġremote":8252,"ĠIndex":8253,"Ġchanging":8254,"Ġtruly":8255,"ĠOrder":8256,"each":8257,"ĠÂ©":8258,"Ġdifferences":8259,"Ġwaiting":8260,"neq":8261,"Ġguys":8262,"Play":8263,"scr":8264,"Ġfinish":8265,"Ġdraft":8266,"Ġparser":8267,"Ġachieve":8268,"ĠJoe":8269,"Ġresidents":8270,"stra":8271,"bytes":8272,"ĠSep":8273,"Ġexperi":8274,"Ġvelocity":8275,"Ġamazing":8276,"Ġliterature":8277,"pository":8278,"engine":8279,"inv":8280,"horizontal":8281,"Ġwww":8282,"Â©":8283,"cluded":8284,"endor":8285,"ĠPhys":8286,"Ġhistorical":8287,"Ġefficient":8288,"Ġenvironmental":8289,"printf":8290,"anche":8291,"ĠSign":8292,"Ġinsert":8293,"pat":8294,"norm":8295,"ading":8296,"Proxy":8297,"athan":8298,"rize":8299,"duced":8300,"High":8301,"Ġraw":8302,"ĠKar":8303,"Ġrecon":8304,"Ġedition":8305,"Ġhighlight":8306,"Close":8307,"|^":8308,"keyword":8309,"ĠWild":8310,"roke":8311,"iterator":8312,"################":8313,"BE":8314,"Ġofficer":8315,"Ġappearance":8316,"uzz":8317,"Section":8318,"reatest":8319,"Ġsurvey":8320,"Term":8321,"iana":8322,"Ġburn":8323,"lik":8324,"Ġoperators":8325,"ifer":8326,"Ġemotion":8327,"inet":8328,"unately":8329,"ĠOrgan":8330,"Phone":8331,"ĠPRO":8332,"Ġleadership":8333,"Ġvertical":8334,"({\\":8335,"ushed":8336,"Ġterror":8337,"ĠInitial":8338,"Ġpositions":8339,"Ġweather":8340,"Ġherself":8341,"Ġshock":8342,"->_":8343,"ĠItalian":8344,"andon":8345,"anes":8346,"]$":8347,"alo":8348,"Adapter":8349,"Ġexerc":8350,"Ġdoubt":8351,"emon":8352,"game":8353,"Ġrelatively":8354,"FIG":8355,"handler":8356,"hidden":8357,"'$":8358,"Ġfaith":8359,"Ġbroadcast":8360,"ĠLocal":8361,"ĠEnergy":8362,"HR":8363,"edding":8364,"desc":8365,"Ġchallenges":8366,"Java":8367,"Ġreligious":8368,"fast":8369,"ĠBoth":8370,"echo":8371,"area":8372,"Ġaircraft":8373,"har":8374,"Internal":8375,"Ġsleep":8376,"Ġtopic":8377,"hspace":8378,"iner":8379,"urer":8380,"oses":8381,"ĠWall":8382,"800":8383,"ĠJes":8384,"ĠĠĠĠĠĠĠĠĠĠĠĠĠĠĠĠĠĠĠĠĠĠ":8385,"}-\\":8386,"Ġbuilder":8387,"_(":8388,"Ġscal":8389,"Ġinvalid":8390,"switch":8391,"reset":8392,"Ġcold":8393,"ĠVirginia":8394,"unicip":8395,"ĠConference":8396,"Ġvac":8397,"Ġwatching":8398,"utf":8399,"Iterator":8400,"ĠCatholic":8401,"iser":8402,"ima":8403,"Ġregistered":8404,"Ġ&\\":8405,"Ġ[];":8406,"Ġforest":8407,"\"`":8408,"$/":8409,"Ġnotes":8410,"ĠWal":8411,"hemat":8412,"Ġguitar":8413,"illy":8414,"ĠCarolina":8415,"\"=>":8416,"'])":8417,"formance":8418,"Figure":8419,"Ġcustomer":8420,"tabs":8421,"IMP":8422,"pa":8423,"ĠRam":8424,"1991":8425,"ĠHenry":8426,"je":8427,"power":8428,"ĠKen":8429,"limit":8430,"Ġencoding":8431,"ĠAndrew":8432,"Two":8433,"wild":8434,"Ġmask":8435,"tools":8436,"Ġwhatever":8437,"Ġlabor":8438,"Ġwarn":8439,"total":8440,"ãĢ":8441,"USE":8442,"Ġnuclear":8443,"Ġdeveloping":8444,"Ġio":8445,"Look":8446,"ilation":8447,"Gr":8448,"Ġclients":8449,"icity":8450,"Ġ>>>":8451,"ĠSpec":8452,"ĠCustom":8453,"esome":8454,"Ġdenote":8455,"inher":8456,"Ġoptional":8457,"IGHT":8458,"Ġlived":8459,"Engine":8460,"ĠNode":8461,"Auto":8462,"ĠNet":8463,"Pay":8464,"Ġbusinesses":8465,"Ġapprec":8466,"iano":8467,"ĠEnvironment":8468,"åı":8469,"operation":8470,"++;":8471,"Ġgain":8472,"Ġsupposed":8473,"!\"":8474,"Ġformation":8475,"Ġyouth":8476,"Ġadministration":8477,"Ġrom":8478,"essions":8479,"Rad":8480,"oston":8481,"leted":8482,"Ġ(-":8483,"Ġsupply":8484,"Prop":8485,"Ġexistence":8486,"Ġcorner":8487,"chen":8488,"Ġspeech":8489,"stein":8490,"Ġindeed":8491,"Attributes":8492,"Ġpurposes":8493,"Ġwitness":8494,"rawn":8495,"ĠIndust":8496,"Plugin":8497,"imit":8498,"ĠConfig":8499,"MT":8500,"Ġfocused":8501,"Symfony":8502,"Ġfreedom":8503,"ĠJava":8504,"Ġcontribution":8505,"GO":8506,"udden":8507,"3333":8508,"Ġtor":8509,"Ġ_{":8510,"UD":8511,"Ġhelps":8512,"secut":8513,"Windows":8514,"Scale":8515,"ĠWilliams":8516,"uous":8517,"Ġoriginally":8518,"ĠHy":8519,"Ġtrees":8520,"awa":8521,"READ":8522,"ĠColl":8523,"ĠPerson":8524,"mann":8525,"Transform":8526,"Ġweekend":8527,"ĠSpanish":8528,"]\\":8529,"%,":8530,"Abstract":8531,"Ġkid":8532,"ĠLiber":8533,"Ġallowing":8534,"Ġfashion":8535,"Ġgrav":8536,"ĠResource":8537,"eper":8538,"mond":8539,"IX":8540,"Ġextremely":8541,"ĠLuc":8542,"Ġphotograph":8543,"Double":8544,"BUG":8545,"metadata":8546,"Ġ{'":8547,"ĠTer":8548,"ĠFire":8549,"CG":8550,"ĠMot":8551,"ĠFar":8552,"mi":8553,"101":8554,"ĠAff":8555,"Layer":8556,"Ġstress":8557,"cuss":8558,"ĠImage":8559,"Ġgra":8560,"Ġmolec":8561,"sol":8562,"[$":8563,"acro":8564,"Ġ$.":8565,"=-":8566,"Ġsetup":8567,"otten":8568,"ĠON":8569,"Ġattacks":8570,"Ġautomatically":8571,"Ġfunds":8572,"ĠIT":8573,"Ġjourney":8574,"ĠMiddle":8575,"Ġexcellent":8576,"Loader":8577,"Public":8578,"Pi":8579,"ĠTask":8580,"apes":8581,"uality":8582,"Func":8583,"Ġdeaths":8584,"osa":8585,"Ġmotor":8586,"¿½":8587,"Ġthousands":8588,"Dist":8589,"rift":8590,"configuration":8591,"Graph":8592,"ĠParam":8593,"Ġintended":8594,"asketball":8595,"Ġconfirm":8596,"iliar":8597,"Ġimplements":8598,"otted":8599,"structions":8600,"ĠJac":8601,"ĠIII":8602,"orders":8603,"Ġabstract":8604,"Ġtypically":8605,"ĠĠĠĠĠĠĠĠĠĠĠĠĠĠĠĠĠĠĠĠĠĠĠĠĠĠĠĠĠĠĠĠĠĠĠĠĠĠĠĠĠĠĠ":8606,"ĠRo":8607,"BP":8608,"IND":8609,"Ġanc":8610,"Ġdynamic":8611,"UTF":8612,"ULE":8613,"prise":8614,"}}{\\":8615,"possible":8616,"Ġfunc":8617,"ToString":8618,"Ġur":8619,"Ġsounds":8620,"Ġhydro":8621,"water":8622,"cribe":8623,"ĠRadio":8624,"Ġoccasion":8625,"Panel":8626,"ĠPakistan":8627,"ĠVideo":8628,"ĠWalk":8629,"ickets":8630,"Ġobservations":8631,"Ġintegr":8632,"Ġflight":8633,"INS":8634,"NavBarCell":8635,"Ġking":8636,"Success":8637,"axis":8638,"ĠTerm":8639,"Ġcitizens":8640,"ĠFederal":8641,"Scroll":8642,"called":8643,"Dest":8644,"vs":8645,"Ġtechniques":8646,"Ġreserved":8647,"Ġcontinuous":8648,"low":8649,"Ġfundament":8650,"Ġfle":8651,"ĠDaniel":8652,"mathsf":8653,"Ġinfin":8654,"Ġspend":8655,"Ġelem":8656,"Ġpassword":8657,"Ġcref":8658,"ĠHistor":8659,"theorem":8660,"Ġvision":8661,"itan":8662,"Ġmetric":8663,"inant":8664,"Ġhaven":8665,"getElement":8666,"libr":8667,"components":8668,"Ġtreated":8669,"assertEqual":8670,"Ġcoverage":8671,"ymmet":8672,"Ġarbitr":8673,"Ġends":8674,"Ġleaves":8675,"Ġglass":8676,"channel":8677,"ĠLear":8678,"Ġreq":8679,"Inv":8680,"Ġdecades":8681,"king":8682,"ĠMen":8683,"Ġexplained":8684,"adium":8685,"ritory":8686,"oting":8687,"Details":8688,"Ġfn":8689,"ĠMuslim":8690,"ĠRecords":8691,"Ġfiction":8692,"itage":8693,"ĠFood":8694,"km":8695,"Ġsuccessfully":8696,"VE":8697,"MOD":8698,"rat":8699,"ĠSecretary":8700,"ï¿½":8701,"\\'":8702,"ĠLight":8703,"Ġincreases":8704,"ĠOp":8705,"mutable":8706,"ĠLi":8707,"SY":8708,"tmp":8709,"chor":8710,"ĠJustice":8711,"Ġmusical":8712,"Space":8713,"Ġdisk":8714,"Ġisland":8715,"Ġconsists":8716,"Ġclassical":8717,"asm":8718,"Ġ\"<":8719,"Ġboost":8720,"Ġ\"\"":8721,"dp":8722,"Runtime":8723,"blue":8724,"ĠBooks":8725,"Ġ-\\":8726,"generated":8727,"Ġversions":8728,"ĠLive":8729,"Ġexpressed":8730,"ski":8731,"ĠAT":8732,"enumerate":8733,"ĠMu":8734,"Well":8735,"inton":8736,"Ġpal":8737,"Duration":8738,"Ġphotos":8739,"World":8740,"ĠFOR":8741,"Ġpossibly":8742,"issions":8743,"ariant":8744,"Ġprovider":8745,"ĠTODO":8746,"Ġadvent":8747,"Ġsupports":8748,"Î±":8749,"Ġstored":8750,"Ġran":8751,"Ġhab":8752,"Statement":8753,"iro":8754,"ulty":8755,"CF":8756,"contains":8757,"fold":8758,"Ġbright":8759,"Ġisol":8760,"Ġprocedure":8761,"áĥ":8762,"ĠGa":8763,"Ġimportance":8764,"Ġsignature":8765,"Ġsport":8766,"Ġprepar":8767,"Ġentered":8768,"apper":8769,"tics":8770,"green":8771,"NT":8772,"ĠFrancisco":8773,"ĠIl":8774,"Ġclinical":8775,"front":8776,"ocker":8777,"ĠHamilton":8778,"Ġpun":8779,"external":8780,"ben":8781,"ears":8782,"Ġdiscovered":8783,"Ġtherm":8784,"Ġlocations":8785,"Ġcookies":8786,"AF":8787,"Ġcontroller":8788,"roud":8789,"iration":8790,"Generic":8791,"Ġdepartment":8792,"According":8793,"Ġsale":8794,"cher":8795,"\\,\\":8796,"evin":8797,"Ġprev":8798,"ĠBritain":8799,"ĠGets":8800,"iative":8801,"exists":8802,"Ġangle":8803,"Ġnine":8804,"ĠHospital":8805,"ACT":8806,"colLast":8807,"Ġnavigation":8808,"Ġcompact":8809,"Ġfuel":8810,"ĠOk":8811,"Yes":8812,"Cap":8813,"PORT":8814,"Ġdefinitely":8815,"sen":8816,"Ġbird":8817,"Ġkick":8818,"Ġloved":8819,"protocol":8820,"VM":8821,"Ġfactory":8822,"ĠRest":8823,"Ġcalc":8824,"zero":8825,"Constants":8826,"ila":8827,"fol":8828,"ĠAdv":8829,"apply":8830,"Ġmanner":8831,"ĠSat":8832,"Ġdebug":8833,"Ġlies":8834,"Ġoccurred":8835,"Ġdedicated":8836,"Ġnarr":8837,"ĠAmericans":8838,"ĠTw":8839,"umes":8840,"wrapper":8841,"Ġsummary":8842,"ĠCross":8843,"Sync":8844,"ican":8845,"when":8846,"Browser":8847,"Ġpieces":8848,"Ġchair":8849,"Ġbinary":8850,"Please":8851,"Ġissued":8852,"Route":8853,"Ġcurve":8854,"Pointer":8855,"Ġlab":8856,"Ġoffering":8857,"ITE":8858,"Ġcontr":8859,"protected":8860,"role":8861,"children":8862,"Ã³n":8863,"ĠJewish":8864,"ĠTaylor":8865,"ĠGra":8866,"Memory":8867,"Members":8868,"ĠGar":8869,"ĉĉĉĉĉĉĉĉĉ":8870,"ipping":8871,"Ñı":8872,"Ġri":8873,"Ġ=========":8874,"XML":8875,"blog":8876,"RES":8877,"Ġappend":8878,"Jan":8879,"colFirst":8880,"ilipp":8881,"Ġatmosph":8882,":\\":8883,"Ġcompute":8884,"Ġconfirmed":8885,"Ġexplan":8886,"Ġtasks":8887,"ĠExecut":8888,"Ġcriter":8889,"Video":8890,"NULL":8891,"utely":8892,"dem":8893,"STAT":8894,"Ġgirls":8895,"Ġunion":8896,"stable":8897,"ĠNon":8898,"itemize":8899,"lets":8900,"mask":8901,"ador":8902,"ĠMid":8903,"Ġfacilities":8904,"arian":8905,"Mapping":8906,"ĠTele":8907,"ĠGal":8908,"Ġbegins":8909,"ĠPhot":8910,"à¸":8911,"Ġchemical":8912,"ĠMS":8913,"ĠBeach":8914,"Common":8915,"Ġsustain":8916,"ĠAP":8917,"gypt":8918,"afe":8919,"fail":8920,"1989":8921,"ĠControl":8922,"parser":8923,"Ġmodified":8924,"xspace":8925,"Ġaffected":8926,"getName":8927,"tw":8928,"browser":8929,"asp":8930,"Ġaxis":8931,"Ġmovies":8932,"ĠJoseph":8933,"abeth":8934,"ĠNext":8935,"Ġindicate":8936,"isted":8937,"Ġlib":8938,"ĠHon":8939,"ĠØ":8940,"Ġnumerous":8941,"Best":8942,"\"/":8943,"Ġcircum":8944,"Ġadvice":8945,"ĠBE":8946,"parameters":8947,"aked":8948,"Ġ(_":8949,"ela":8950,"you":8951,"enger":8952,"Ġcaught":8953,"Ġreviews":8954,"Character":8955,"Ġaccepted":8956,"Report":8957,")}{":8958,"Spe":8959,"ĠGirl":8960,"ĠPC":8961,"Ġexit":8962,"ĠProcess":8963,"prefix":8964,"Make":8965,"}'":8966,"110":8967,"Ġasync":8968,"IPT":8969,"Ġtx":8970,"Ġencourag":8971,"Ġincred":8972,"avid":8973,"ĠSoftware":8974,"Ġinjury":8975,"outs":8976,"ellar":8977,"Ġdetection":8978,"Ġplanet":8979,"ĠUk":8980,"ANT":8981,"Ġbra":8982,"Remove":8983,"{$":8984,"Copyright":8985,"ĠRail":8986,"vin":8987,"aren":8988,"Matrix":8989,"Ġcontained":8990,"para":8991,"kes":8992,"Ġmarketing":8993,"Ġclassic":8994,"atar":8995,"wan":8996,"Keys":8997,"Ġusual":8998,"shadow":8999,"ansas":9000,"Ġalgebra":9001,"Ġpolar":9002,"lywood":9003,";}":9004,"chain":9005,"ĠSwed":9006,"Background":9007,"OUT":9008,"agers":9009,"Ġmedium":9010,"Ġcandidates":9011,"Ġelected":9012,"Fix":9013,"Expr":9014,"conn":9015,"pton":9016,"ĠSea":9017,"random":9018,"Ġvertex":9019,"dialog":9020,"operatorname":9021,"Failed":9022,"plus":9023,"platform":9024,"Ġseat":9025,"Ġentirely":9026,"LP":9027,"Ġexecution":9028,"Ġagency":9029,"ĠTrust":9030,"ĠIE":9031,"Parse":9032,"Ġfre":9033,"ĠSaf":9034,"forward":9035,"ĠAdminist":9036,"ĠVan":9037,"ĠProfessor":9038,"Where":9039,"Ġevening":9040,"Ġsynt":9041,"sys":9042,"inity":9043,"Ġinn":9044,"Ġhence":9045,"ĠIOException":9046,"ĠPrem":9047,"Landroid":9048,"nil":9049,"Ġemph":9050,"ĠSearch":9051,"izable":9052,"Ġskin":9053,"Ġsizeof":9054,"Ġsan":9055,"zy":9056,"Ġcounc":9057,"Ġupdates":9058,"ĠMah":9059,"safe":9060,"Ġreaders":9061,"hide":9062,"Ġfeatured":9063,"1960":9064,"wall":9065,"ĠStudies":9066,"Email":9067,"Ġideal":9068,"month":9069,"ĠJackson":9070,"Ġimproved":9071,"etry":9072,"Ġliber":9073,"loss":9074,"CESS":9075,"Password":9076,"Ġclim":9077,"Ġexperiences":9078,"ierarch":9079,"Ġadvanced":9080,"details":9081,"pan":9082,"Ġradius":9083,"Ġformal":9084,"Ġpaint":9085,"ĠLy":9086,"ĠWat":9087,"decl":9088,"Ġconducted":9089,"issue":9090,"Ġholding":9091,"Ġtypical":9092,"ĠÂ·":9093,"Ġconvention":9094,"Ġtro":9095,"Profile":9096,"Ġancient":9097,"raq":9098,"Ġdepart":9099,"Mut":9100,"NOT":9101,"Ġfinds":9102,"Attr":9103,"headers":9104,"socket":9105,"ĠSeason":9106,"ĠBul":9107,"ĠCoast":9108,"ĠCR":9109,"Ġannounce":9110,"Ġconnections":9111,"Ġpropag":9112,"Ġvehicles":9113,"Ġeasier":9114,"Ġcart":9115,"<!":9116,"original":9117,"Ġcalculated":9118,"Ġeigen":9119,"Ġdict":9120,"à¤¾":9121,"ĠBrazil":9122,")}$":9123,"Ġhearing":9124,"wp":9125,"Ġofficers":9126,"Ġriver":9127,"tons":9128,"ni":9129,"VD":9130,"theme":9131,"Ġtracks":9132,"Ġsand":9133,"sid":9134,"Cred":9135,"Ġexpos":9136,"arsed":9137,"Ġadvance":9138,"Ġxmlns":9139,"Ġzone":9140,"Ġexperiments":9141,"Ġkeeping":9142,"ĠHa":9143,"noindent":9144,"=\"${":9145,"Ġinstant":9146,"Ġarchitecture":9147,"ĠRom":9148,"services":9149,"Ear":9150,"tags":9151,"ĠEr":9152,"Ġbond":9153,"Ġpractices":9154,"neg":9155,"Help":9156,"player":9157,"Ġformula":9158,"Ġvary":9159,"ĠHash":9160,"Ã¨":9161,"hom":9162,"Ġadj":9163,"Ġconsidering":9164,"Ġdynamics":9165,"Ġtypename":9166,"iveness":9167,"ĠCollection":9168,"views":9169,"seud":9170,"Ġrg":9171,"bury":9172,"Enum":9173,"prov":9174,"ĠSteve":9175,"ĠWin":9176,"ĠSource":9177,"Ġstable":9178,"Ġchannels":9179,"GA":9180,"Ġscatter":9181,"ĠStory":9182,"Ġflux":9183,"ĠĠĠĠĠĠĠĠĠĠĠĠĠĠĠĠĠĠĠĠĠĠĠĠĠĠĠĠĠĠĠĠĠĠĠĠĠĠĠĠĠĠĠĠĠĠĠĠĠĠĠĠĠĠĠĠĠĠĠĠĠĠĠĠ":9184,"Ġconven":9185,"vo":9186,"Ġhelping":9187,"identifier":9188,"Ġfell":9189,"uts":9190,"Opt":9191,"ivial":9192,"ĠKn":9193,"ĠSciences":9194,"Ġrough":9195,"rison":9196,"Ġpriv":9197,"roduction":9198,"Ġfrag":9199,"ĠSpain":9200,"Ġsecure":9201,"tbody":9202,"Ġpurchase":9203,"builder":9204,"elly":9205,"Ġcrowd":9206,"Ġconcerns":9207,"Ġoccurs":9208,"Ġ\\|":9209,"OB":9210,"ĠUI":9211,"QU":9212,"Arch":9213,"aret":9214,"bro":9215,"Ġvictory":9216,"Ġmatching":9217,"Fail":9218,"Ġsupporting":9219,"Repository":9220,"orry":9221,"ĠWatch":9222,"ĠFROM":9223,"ĠLittle":9224,"Ġsides":9225,"acts":9226,"Photo":9227,"Ġelectron":9228,"Ġindicates":9229,"Ġwire":9230,"Ġrecall":9231,"Ġactor":9232,"collapse":9233,"Ġparticle":9234,"Ġscientific":9235,"Ġtypeof":9236,"$}":9237,"Ġsuggested":9238,"two":9239,"eah":9240,"Ġuniversity":9241,"ĠFind":9242,"Ġdialog":9243,"ĠWAR":9244,"navList":9245,"------------":9246,"Ġapart":9247,"Py":9248,"encing":9249,"Ġanimal":9250,"Ġperspective":9251,"Ġexplore":9252,"Ġreduction":9253,"rative":9254,"Ġexecutive":9255,"duce":9256,"ugs":9257,"Ġexperimental":9258,"ressive":9259,"Ġbrings":9260,"Ġwriters":9261,"Ġsister":9262,"SER":9263,"ĠColumb":9264,"Ġelim":9265,"Ġfeat":9266,"Ġfilled":9267,"Ġsoul":9268,"Ġlose":9269,"Ġdelivery":9270,"Ġspecifically":9271,"TEXT":9272,"Ġdecisions":9273,"Ġentries":9274,"ĠMic":9275,"Ġsubstant":9276,"Ġfounded":9277,"writer":9278,"Ġreceiving":9279,"prec":9280,"Ġmetadata":9281,"Ġneighborhood":9282,"ĠRequest":9283,"ĠDar":9284,"ĠSummer":9285,"Ġorders":9286,"Category":9287,"ADD":9288,"istant":9289,"ropy":9290,"Ġstopped":9291,"attributes":9292,"ĠSupp":9293,"orship":9294,"Socket":9295,"Person":9296,"cred":9297,"Compar":9298,"Ġclaimed":9299,"ĠHard":9300,"ĠJr":9301,"Ġ\",":9302,"ĠMessage":9303,"ĠAgain":9304,"^-":9305,"Ġcommitted":9306,"OST":9307,"Ġgender":9308,"enabled":9309,"Ġthick":9310,"Prefix":9311,"oked":9312,"ĠChildren":9313,"Ġprepared":9314,"Ġsuc":9315,"ĠToday":9316,"ependence":9317,"Free":9318,"Ġdiagram":9319,"ifts":9320,"Year":9321,"Ġflo":9322,"ĠNav":9323,"wer":9324,"irror":9325,"props":9326,"Ġdat":9327,"Ġcharges":9328,"Ġcreative":9329,"Day":9330,"Ġbroken":9331,"ĠIrish":9332,"Ġhotel":9333,"Ġaccuracy":9334,"Ġorient":9335,"serial":9336,"Ġvideos":9337,"Variable":9338,"SQL":9339,"}}}":9340,"Ġdance":9341,".âĢĻ":9342,"Ġretail":9343,"Sequ":9344,"WR":9345,"prod":9346,"definition":9347,"Ġreferred":9348,"Ġrepeated":9349,"ĠSus":9350,"Ġmanage":9351,"dependent":9352,"cert":9353,"Ġyes":9354,"ĠTheatre":9355,"ĠNorthern":9356,")\">":9357,"ĠSup":9358,"ĠUsing":9359,"iples":9360,"ĠScotland":9361,"Ġtwice":9362,"filename":9363,"ALSE":9364,"Ġowned":9365,"extern":9366,"Ġinstrument":9367,"Ġfellow":9368,"Î¿":9369,"oral":9370,"ĠTy":9371,"ĠĠĠĠĠĠĠĠĠĠĠĠĠĠĠĠĠĠĠĠĠĠĠĠĠĠĠĠĠ":9372,"Total":9373,"Ġaccomp":9374,"ĠOnce":9375,"Ġfigures":9376,"ĠPacific":9377,"sto":9378,"Role":9379,"provider":9380,"ĠWrit":9381,"ĠCase":9382,"Ġflags":9383,"Ġul":9384,"âĢĻ.":9385,"Ġdefend":9386,"OF":9387,"ĠKh":9388,"Ġgap":9389,"ĠMember":9390,"ĠBern":9391,"Ġton":9392,"Ġdeleg":9393,"detail":9394,"asi":9395,"Ġspring":9396,"Ġworse":9397,"Ġnewsp":9398,"Ġpartnership":9399,"Ġmental":9400,"Ġremained":9401,"Ġdestination":9402,"Ġinternet":9403,"ĠBas":9404,"1988":9405,"ĠDemocratic":9406,"Oh":9407,"brid":9408,"resources":9409,"ĠBrad":9410,"ometric":9411,"ĠCost":9412,"Ġqueue":9413,"ĠQueen":9414,"Ġusage":9415,"Ġfacility":9416,"Ġplants":9417,"xs":9418,"ĠHTTP":9419,"Ġmel":9420,"Ġcapture":9421,"expr":9422,"ione":9423,"etes":9424,"Ġconflict":9425,"Ġverify":9426,"Ġprices":9427,"Ġaccident":9428,"shop":9429,"icing":9430,"Ġacts":9431,"Äģ":9432,"collection":9433,"Ġabsor":9434,"scious":9435,"Identifier":9436,"vspace":9437,"Ġcharged":9438,"anna":9439,"Fin":9440,"Ġelectronic":9441,"Ġminute":9442,"ĠMichigan":9443,"ĠWH":9444,"ynomial":9445,"ĠElement":9446,"Your":9447,"Ġrid":9448,"{\"":9449,"(__":9450,"Ġsections":9451,"isa":9452,"Ġpassing":9453,"MD":9454,"ĠRay":9455,"ĠLu":9456,"idential":9457,"Ġapplicable":9458,"stances":9459,"ĠSom":9460,"icted":9461,"icious":9462,"apos":9463,"Ġdivision":9464,"Selected":9465,"JS":9466,"Seg":9467,"Ġacknow":9468,"Ġsqu":9469,"done":9470,"Ġsolar":9471,"rie":9472,"ĠSouthern":9473,"itionally":9474,"Ġtranslate":9475,"Ġminim":9476,"junit":9477,"Ġachieved":9478,"underline":9479,"Ġconstraints":9480,"Ġhonest":9481,"ĠCamb":9482,"aph":9483,"ĠFour":9484,"Ġpitch":9485,"Ġhousehold":9486,"Ġsuggests":9487,"Ġcollected":9488,"Game":9489,"uer":9490,"Ġcarbon":9491,"dy":9492,"Ġcauses":9493,"ĠMaster":9494,"ĠBoston":9495,"Ġreaction":9496,"Product":9497,"Ġincident":9498,">::":9499,"Ġ{\"":9500,"Ġimplemented":9501,"ĠPH":9502,"ĠBlock":9503,"Ġdefin":9504,"ĠIR":9505,"Ġthreshold":9506,"Ġconsumer":9507,"adel":9508,"Collections":9509,"ĠYes":9510,"rf":9511,"ctrine":9512,"losure":9513,"AY":9514,"bits":9515,"lyn":9516,"Ġcle":9517,".;":9518,"Region":9519,"Selection":9520,"Ġmechanism":9521,"Every":9522,"Ġ=======":9523,"Ġjustice":9524,"Ġcommission":9525,"Ġportion":9526,"ĠChange":9527,"mediate":9528,"BAR":9529,"Mr":9530,"Ġgar":9531,"ĠGi":9532,"Ġaspects":9533,"Ġacting":9534,"Ġprotein":9535,".\");":9536,"Ġholid":9537,"Ġparticles":9538,"idx":9539,"Ġrect":9540,"prev":9541,"Ġdepending":9542,"Ġsudden":9543,"law":9544,"Ġsucceed":9545,"ĠCivil":9546,"Many":9547,"since":9548,"Enter":9549,"ocaml":9550,"video":9551,"Ġhousing":9552,"Intern":9553,"ajax":9554,"Ġproxy":9555,"Trace":9556,"Ġconstructor":9557,"udes":9558,"Simple":9559,"osc":9560,"sup":9561,"Ġui":9562,"News":9563,"licated":9564,"Ġarrived":9565,"URI":9566,"attery":9567,"ĠReact":9568,"ĠKim":9569,"()</":9570,"ĠLtd":9571,"Ġ[\"":9572,"Ġpatterns":9573,"ĠĠĠĠĠĠĠĠĠĠĠĠĠĠĠĠĠĠĠĠĠĠĠĠĠĠĠĠ":9574,"ampion":9575,"Ġmarked":9576,"Ġvent":9577,"fd":9578,"Ġposts":9579,"Ġdegrees":9580,"Ġrecording":9581,"tk":9582,"Ġmarkets":9583,"Ġcloser":9584,"ĠBlog":9585,"ĠSong":9586,"Ġinterval":9587,"login":9588,"Ġpayment":9589,"tle":9590,"Ġbelief":9591,"ĠRight":9592,"Ġstudio":9593,"ĠBad":9594,"213":9595,"Ġswe":9596,"Ġsimpl":9597,"Ġescape":9598,"progress":9599,"Ġsurg":9600,"Ġlimits":9601,"ĠĠĠĠĠĠĠĠĠĠĠĠĠĠĠĠĠĠĠĠĠĠĠĠĠĠ":9602,"Ġignore":9603,"SM":9604,"rent":9605,"âĢ¦.":9606,"Props":9607,"ĠEth":9608,"issues":9609,"Ġfighting":9610,"FORM":9611,"ĠAsh":9612,"execute":9613,"flex":9614,"Ġassigned":9615,"feature":9616,"Ġregional":9617,"fi":9618,"minus":9619,"Ġdataset":9620,"Ġconcert":9621,"ĠGre":9622,"('.":9623,"Ġapproaches":9624,"Ġfavour":9625,"ĠHas":9626,"ĠLo":9627,"ĠDaily":9628,"inating":9629,"Ġcancell":9630,"Ġ\"-":9631,"Ġacceler":9632,"twitter":9633,"ĠThree":9634,"Ġstations":9635,"ĠNAME":9636,"Ġmainly":9637,"Ġmarriage":9638,"ĠEst":9639,"ndef":9640,"Registry":9641,"Ġstrings":9642,"Ġfeels":9643,"Ð´":9644,"allclasses":9645,"about":9646,"compiler":9647,".[":9648,"âĢĻ,":9649,"Ġcontributions":9650,"Ġwa":9651,"NC":9652,"Ġdisabled":9653,"Ġcm":9654,"ĠTE":9655,"Ġemission":9656,"Ġeq":9657,"ĠPay":9658,"\\}$":9659,"Ġpassion":9660,"bat":9661,"Ġing":9662,"Comment":9663,"\"><!--":9664,"svg":9665,"ĠFootball":9666,"Ġmeasurements":9667,"ĠArea":9668,"fortunately":9669,"Ġstrongly":9670,"ĠWhere":9671,"Ġven":9672,"required":9673,"ĠFair":9674,"usters":9675,"ĠDocument":9676,"isting":9677,"shared":9678,"Ġcolumns":9679,"Ġ..":9680,"Ġbg":9681,"Ġsampl":9682,"Ġlie":9683,"Ġ{{":9684,"ennis":9685,"Wrapper":9686,"Resources":9687,"}}_":9688,"Ġnullptr":9689,"Ġmal":9690,"Ġcash":9691,"Ġprefix":9692,"125":9693,"amaz":9694,"trm":9695,"Ġfeedback":9696,"mic":9697,"Ġduration":9698,"ruption":9699,"wa":9700,"Ġchart":9701,"Children":9702,"zabeth":9703,"letter":9704,"Ġremark":9705,"Ġpowers":9706,"Ġacademic":9707,"Ġstanding":9708,"abil":9709,"Ġserving":9710,"<\\":9711,"Ġauthority":9712,"ĠDou":9713,"onto":9714,"ifiers":9715,"ceive":9716,"Ġphilosoph":9717,"ĠRog":9718,"report":9719,"ĠWIT":9720,"Ġbelieved":9721,"sn":9722,"Ġvoc":9723,"inson":9724,";)":9725,"ĠBal":9726,"ulator":9727,"fixed":9728,"Ġcrisis":9729,"TIME":9730,"Ġfraction":9731,"Ġfee":9732,"åĪ":9733,"1987":9734,"ĠGeorgia":9735,"Bound":9736,"Ġtransparent":9737,"asters":9738,"Generator":9739,"ĠCommon":9740,"ĠDigital":9741,"gments":9742,"spirit":9743,"Under":9744,"textrm":9745,"Ġextend":9746,"Ġalert":9747,"ĠCur":9748,"azy":9749,"Ġphenomen":9750,"PU":9751,"TT":9752,"Ġment":9753,"UST":9754,"Ġfra":9755,"ifold":9756,"ĠKong":9757,"cdn":9758,"bles":9759,"Ġinspired":9760,"Ġcoq":9761,"Ġrepresenting":9762,"ĠFull":9763,"hl":9764,"Domain":9765,"ĠArg":9766,"jango":9767,"special":9768,"Ġdocumentation":9769,"Ġprivacy":9770,"Ġfamiliar":9771,"Theta":9772,"maven":9773,"Mer":9774,"ĠMcC":9775,"Ġbow":9776,"ĠDub":9777,"oly":9778,"ĠEgypt":9779,"Ġwarning":9780,"Ñĭ":9781,"Ġdebate":9782,"=\"$":9783,"dc":9784,"Ġguard":9785,"ĠAli":9786,"RR":9787,"Ġampl":9788,"ami":9789,"phot":9790,"}},":9791,"Summary":9792,"bot":9793,"Ġawarded":9794,"FFFF":9795,"Ġmapping":9796,"flag":9797,"ĠSaint":9798,"Ġpermission":9799,"HTTP":9800,"Ġordered":9801,"Ġrelationships":9802,"limits":9803,"pu":9804,"Ġcontents":9805,"ĠExper":9806,"Â°":9807,"$_":9808,"Ġtransformation":9809,"LY":9810,"Ġretain":9811,"invalid":9812,"ĠComput":9813,"Ġarbitrary":9814,"pred":9815,"riority":9816,"Ġcrew":9817,"ĠAsian":9818,"Ġaccounts":9819,"Ġloaded":9820,"Ġhomes":9821,"Ġtail":9822,"Ġdiagn":9823,"ĠPhilipp":9824,"pet":9825,"depth":9826,"»¿":9827,"ĠFox":9828,"cks":9829,"Ġmoments":9830,"ĠjQuery":9831,"Ġrecip":9832,"Ġstatements":9833,"Single":9834,"oking":9835,"Ġschedule":9836,"ĠConf":9837,"Nodes":9838,"Writ":9839,"Ġexperienced":9840,"Ġpromise":9841,"eli":9842,"errors":9843,"Labels":9844,"Ġeat":9845,"Ġtensor":9846,"expect":9847,"Ġheaders":9848,"Progress":9849,"Ã£":9850,"ï»¿":9851,"storage":9852,"Tx":9853,"Ġagents":9854,"opping":9855,"Ġ).":9856,"Ġfol":9857,"nic":9858,"Ġctx":9859,"yo":9860,"Ġsecondary":9861,"oster":9862,"Ġtheore":9863,"ITION":9864,"ĠHom":9865,"ĠConserv":9866,"uing":9867,"ifdef":9868,"orough":9869,"accept":9870,"Ġadvoc":9871,"amber":9872,"Ġlayout":9873,"Install":9874,"Ġmort":9875,"attice":9876,"1986":9877,"username":9878,"aya":9879,"ĠChair":9880,"Ġappointed":9881,"ĠStan":9882,"ĠDonald":9883,"Agent":9884,"gov":9885,"Ġlit":9886,"ĠLcom":9887,"ocracy":9888,"ĠOnline":9889,"Ġaddresses":9890,"Ġtheorem":9891,"ĠOriginal":9892,"Ġbits":9893,"ÑĮ":9894,"users":9895,"Ag":9896,"SI":9897,"press":9898,"Ä±":9899,"Ġidx":9900,"FE":9901,"Ġsharing":9902,"Ġinterests":9903,"Ġlogger":9904,"Ġalleged":9905,"calendar":9906,"andy":9907,"Ġproperly":9908,"Namespace":9909,"gorithms":9910,"Living":9911,"Ġexcited":9912,"isodes":9913,"ĠJersey":9914,"oir":9915,"Ġadm":9916,"Using":9917,"Ġpairs":9918,"onymous":9919,"Ġconstructed":9920,"eld":9921,"ĠIraq":9922,"Ġscored":9923,"Ġsaved":9924,"brief":9925,"ĠRepublican":9926,"Ġwinner":9927,"IDE":9928,"blem":9929,"Headers":9930,"Ġfunctional":9931,"Ġproved":9932,"Ġvolunte":9933,"Nov":9934,"Ġfort":9935,"ĠGuard":9936,"ĠBroad":9937,"ĠProduct":9938,"Ġmomentum":9939,"Ġcer":9940,"istical":9941,"Ġ?>":9942,"ĠPrivacy":9943,"Ġera":9944,"Ġ],":9945,"webpack":9946,"RPC":9947,"Miss":9948,"Ġdrama":9949,"moz":9950,"Ġassign":9951,"LINE":9952,"Ġmess":9953,"Ġconcerned":9954,"Ġstrugg":9955,"eval":9956,"Ang":9957,";\"":9958,"Ġce":9959,"Ġsac":9960,"Ġroles":9961,"180":9962,"swarm":9963,"ĠIss":9964,"Ġhumans":9965,"Ġpert":9966,"Ġexceed":9967,"Ġwilling":9968,"ulating":9969,"Tube":9970,"Ġabuse":9971,"ĠCirc":9972,"Ġdecade":9973,"ĠImp":9974,"Ġcontrolled":9975,"large":9976,"Ġputting":9977,"folio":9978,"Ġsemi":9979,"ĠProperty":9980,"PER":9981,"Join":9982,"Ġregime":9983,"Ġvul":9984,"MR":9985,"Ġmagazine":9986,"Ġunderlying":9987,"}%":9988,"Ð¼":9989,"Execut":9990,"Ġpossibility":9991,"Constraint":9992,"wildfly":9993,"Ġalbums":9994,"ĠBang":9995,"ĠKnow":9996,"Ġedges":9997,"ĠBrook":9998,"Ġfundamental":9999,"ixels":10000,"loop":10001,"à¦":10002,"Ġspons":10003,"Ġplanned":10004,"clean":10005,"Ġforget":10006,")->":10007,"Len":10008,"Ġteacher":10009,"Ġwealth":10010,"Ġextent":10011,"burgh":10012,"Ġlinked":10013,"ste":10014,"Ġgreatest":10015,"Ġinvent":10016,"Ġdropped":10017,"mag":10018,"uency":10019,"Ġcounty":10020,"tri":10021,"Visible":10022,"Also":10023,"Ġinfrastructure":10024,"istence":10025,"Short":10026,"Watch":10027,"condition":10028,"Uri":10029,"ĠDNA":10030,"Ġderiv":10031,"ĠFI":10032,"Ġanimation":10033,"Ġmach":10034,"raine":10035,"vania":10036,"âĢī":10037,"cha":10038,"Ġaccurate":10039,"enth":10040,"temp":10041,"onal":10042,"Dem":10043,"pull":10044,"Ġfat":10045,"ĠSD":10046,"ĠRen":10047,"ĠSpring":10048,"ĠBa":10049,"Ġevaluation":10050,"POST":10051,"ĠAnother":10052,"ĠPack":10053,"Ġproud":10054,".<":10055,"esterday":10056,"Ġworst":10057,"enable":10058,"ourse":10059,"ĠJob":10060,"?>":10061,"Services":10062,"Ã¢":10063,"Ġhero":10064,"Ġnarrow":10065,"Ġresponsibility":10066,"Ġshares":10067,"Ġrent":10068,"Ġasking":10069,"Ġshooting":10070,"unique":10071,"Ġcompre":10072,"Ġspan":10073,"ĠMedicine":10074,"Ġ[],":10075,"Ġparallel":10076,"rices":10077,"Ġteaching":10078,"Another":10079,"ĠSC":10080,"Ġthoughts":10081,"Ġintroduce":10082,"('#":10083,"Bean":10084,"Ġspatial":10085,"Ġassociation":10086,"ĠĠĠĠĠĠĠĠĠĠĠĠĠĠĠĠĊ":10087,"Ġ''":10088,"TRUE":10089,"forcement":10090,"Ġchapter":10091,"Ġliqu":10092,"{%":10093,"rapped":10094,"Ġscroll":10095,"ĠSir":10096,"Ġspeaking":10097,"\"],":10098,"Ġafford":10099,"groups":10100,"Ġapproved":10101,"Ġfaster":10102,"ĠCond":10103,"Ġforeach":10104,"Ġclock":10105,"Vertex":10106,",'":10107,"}^{-":10108,"Pod":10109,"Ġfake":10110,"Ġadmin":10111,"Ġstatistics":10112,"LI":10113,"Cloud":10114,"merce":10115,"lights":10116,"resentation":10117,"async":10118,"LOCK":10119,"Ġestimates":10120,"ĠLOG":10121,"ydney":10122,"Ġbench":10123,"unting":10124,"Ġbringing":10125,"fection":10126,"Ġhole":10127,"Ġdiss":10128,"![":10129,"Most":10130,"iral":10131,"inois":10132,"ĠVill":10133,"Ġassumed":10134,"Ġacid":10135,"Ġenv":10136,"Sql":10137,"equality":10138,"Ġtranslation":10139,"During":10140,"assandra":10141,"away":10142,"Ġprime":10143,"tic":10144,"ANCE":10145,"ĠCat":10146,"Once":10147,"Hz":10148,"lan":10149,"blank":10150,"Ġconversation":10151,"Ġrequested":10152,"Ġbaby":10153,"Ġtight":10154,"oplus":10155,"SELECT":10156,"named":10157,"Ġforg":10158,"Ġsending":10159,"route":10160,"throw":10161,"ĠUnivers":10162,"Ġwinter":10163,"acle":10164,"craft":10165,"ĠCorporation":10166,"aks":10167,"Ġcolon":10168,"Area":10169,"ffff":10170,"Fragment":10171,"Cam":10172,"Ġinteractions":10173,"ĠPhoto":10174,"apore":10175,"Ġcircle":10176,"Ġefficiency":10177,"æľ":10178,"ĠTurn":10179,"ĠTem":10180,"ĠMoreover":10181,"rovers":10182,"Ġ^":10183,"Ġdecide":10184,"tenance":10185,"West":10186,"aug":10187,"Ġproport":10188,"700":10189,"teen":10190,"ĠJam":10191,"Ġcontrols":10192,"rence":10193,"ĉĠĠĠĠĠ":10194,"ĠInteger":10195,"ĠWilson":10196,"CTYPE":10197,"Ġproducer":10198,"Ġinitially":10199,"ordan":10200,"ĠAz":10201,"ĠTag":10202,"ned":10203,"ĠANY":10204,"1984":10205,"Ġtalks":10206,"Ġintelligence":10207,"Ġopposite":10208,"library":10209,"circle":10210,"Ġdescribes":10211,"ĠCapt":10212,"Ġsigns":10213,"texttt":10214,"Ø±":10215,"Ġmm":10216,"complete":10217,"Ġmo":10218,"loader":10219,"tc":10220,"nodes":10221,"Ġresolve":10222,"Ġfly":10223,"emit":10224,"Ġtechnologies":10225,"Ġdelivered":10226,"alg":10227,"rations":10228,"Ġbehaviour":10229,"emplates":10230,"Ġwelcome":10231,"Ġbridge":10232,"ĠAud":10233,"vc":10234,"Ġbuf":10235,"Ġsubstantial":10236,"Ġconfidence":10237,"pson":10238,"uma":10239,"ĠDead":10240,"Ġnewly":10241,"ĠMarket":10242,"ĠShort":10243,"COMP":10244,"ĠCurrent":10245,"ĠBell":10246,"hard":10247,"REE":10248,"ishop":10249,"ĠLew":10250,"Ġtelling":10251,"VALUE":10252,"ĠHttp":10253,"Ġurban":10254,"ĠAD":10255,"Stand":10256,"Ġparticipants":10257,"Ġpartition":10258,"bean":10259,"ĠNick":10260,"aus":10261,"ĠPrime":10262,"bell":10263,"napshot":10264,"Ġheav":10265,"ĠBit":10266,"ĠKorea":10267,"EEEE":10268,"Import":10269,"Ġdangerous":10270,"indexOf":10271,"Ġarms":10272,"ĠOx":10273,"ĉĠĠĠĠ":10274,"ĠWales":10275,"sample":10276,"Ġexecute":10277,"Conn":10278,"tor":10279,"ĠBol":10280,"Ġelections":10281,"ENSE":10282,"Multi":10283,"Ġnegot":10284,"iami":10285,"some":10286,"Ġstorm":10287,"Ġquiet":10288,"Ġinsurance":10289,"pag":10290,"Ġauthorities":10291,"ELD":10292,"ĠRefer":10293,"Ġgauge":10294,"Ġsky":10295,"Ġprogramme":10296,"Ġabsolutely":10297,"ORY":10298,"Ġdry":10299,"ĠLabor":10300,"ĠDark":10301,"imp":10302,"ĠAdam":10303,"spi":10304,"springframework":10305,"PROJECT":10306,"ĠMatt":10307,"REG":10308,"ĠAnth":10309,"signature":10310,"Ġgene":10311,"ĠBoy":10312,"ĠOhio":10313,"Ġsnow":10314,"ummy":10315,"Ġreferences":10316,"Ġsinger":10317,"Ġmagic":10318,"Â®":10319,"Ġshell":10320,"Ġcert":10321,"Ġhook":10322,"ĠPA":10323,"ĠCro":10324,"utr":10325,"Ġsad":10326,"footnote":10327,"Ġmodes":10328,"irms":10329,"policy":10330,"Ġpaths":10331,"DateTime":10332,"Ġcommittee":10333,"imated":10334,"ĠMaybe":10335,"ockey":10336,"Ġgrew":10337,"_+":10338,"Mask":10339,"Ġcoff":10340,"volume":10341,"Named":10342,"Ġstret":10343,"thrift":10344,"Ġwonderful":10345,"Ġmatters":10346,"Ġreporting":10347,"Ĥ¬":10348,"1985":10349,"aped":10350,"Ġped":10351,"ego":10352,"eness":10353,"Ġinstances":10354,"Ġbin":10355,"Ġcorrelation":10356,"Sche":10357,"Ġindustrial":10358,"lop":10359,"General":10360,"TRY":10361,"^{-\\":10362,"agnostics":10363,"Ġban":10364,"Ġmeasurement":10365,"lipse":10366,"Ġ'<":10367,"ĠClin":10368,"extension":10369,"Ġadult":10370,"Generated":10371,"Program":10372,"Ġlots":10373,"Ġindicated":10374,"Ġkit":10375,"agnostic":10376,"icial":10377,"subseteq":10378,"()))":10379,"ea":10380,"ĠInstead":10381,"FLA":10382,"Ġresearchers":10383,"Ġstick":10384,"Environment":10385,"Ġpromote":10386,"Ġassembly":10387,"Ġshop":10388,"Ð²":10389,"href":10390,"UES":10391,"ÙĦ":10392,"ĠPen":10393,"Ġinstitutions":10394,"Sur":10395,"quir":10396,"python":10397,"Ġsubmit":10398,"ĠCommand":10399,"ĠCloud":10400,"Ġlanguages":10401,"Ġcab":10402,"opher":10403,"Ġlabels":10404,"tar":10405,"ryption":10406,"Ġrepro":10407,"Ġcraft":10408,"ĠRh":10409,"stood":10410,"Ã£o":10411,"assembly":10412,"ĠManager":10413,"iper":10414,"Ġrig":10415,"ĠSon":10416,"usform":10417,"Ġrain":10418,"Ġfacts":10419,"PG":10420,"BL":10421,"numerusform":10422,"'));":10423,"Ġjudge":10424,"iy":10425,"Ġmoves":10426,"ĠFuture":10427,"Ġride":10428,"Ġalter":10429,"Ġperman":10430,"Ġperforming":10431,"Ġintegration":10432,"Connect":10433,"EC":10434,"ĠMajor":10435,"ĠExecutive":10436,"umni":10437,"Ġcas":10438,"ĠDeb":10439,"Contact":10440,"Ġengineering":10441,"Ġvalign":10442,"plot":10443,"PD":10444,"360":10445,"rog":10446,"Texture":10447,"Ġexplanation":10448,"such":10449,"ĠShar":10450,"ĠKent":10451,"pattern":10452,"Ġstands":10453,"Ġtum":10454,".\",":10455,"Ġda":10456,"ĠArrayList":10457,"Ġcategories":10458,"ĠVector":10459,"ÏĦ":10460,"Ġdiam":10461,"Ġgate":10462,"Begin":10463,"compl":10464,"Ġencounter":10465,"Ġlargely":10466,"ĠWars":10467,"Private":10468,"Microsoft":10469,"picture":10470,"Ġcorporate":10471,"ĠProt":10472,"Literal":10473,"Ġrecommended":10474,"ownt":10475,"Ġrgba":10476,"una":10477,"Ġarmy":10478,"ĠObserv":10479,"1950":10480,"ĠKenn":10481,"cases":10482,"ĠEastern":10483,"ĠGreek":10484,"ĠEngineering":10485,"ruby":10486,"erg":10487,"OW":10488,"('/":10489,"001":10490,"Ġassessment":10491,"ĠPrince":10492,"Ġsurrounding":10493,"checked":10494,"STATE":10495,"Ġcompris":10496,"Ġexpanded":10497,"ĠSite":10498,"xhtml":10499,"Ben":10500,"Player":10501,"Ġrows":10502,"Ign":10503,"oped":10504,"'\\":10505,"Ġsouthern":10506,"ĠBBC":10507,"Ġcorresponds":10508,"Ġteen":10509,"Ġgalaxies":10510,"Ġwidely":10511,"Ġoptimal":10512,")|":10513,"amazon":10514,"Ġlistener":10515,"ĠStation":10516,"Ġcharset":10517,"appoint":10518,"Ġtargets":10519,"UAL":10520,"~$":10521,"itivity":10522,"Ġtruck":10523,"aneous":10524,"Ġbodies":10525,"Ġprompt":10526,"eric":10527,"Ġending":10528,"EV":10529,"Ġmeta":10530,"aine":10531,"%.":10532,"WORD":10533,"Ġseeking":10534,"Ġdesired":10535,"Cluster":10536,"ĠWis":10537,"multicol":10538,"Ġtechnique":10539,"Ġinstruction":10540,"println":10541,"ĠRod":10542,"onical":10543,"ĠStatus":10544,"ogene":10545,"Returns":10546,"arters":10547,"Ġcapable":10548,"tests":10549,"ĠHo":10550,"console":10551,"Ġcro":10552,"Ġnob":10553,"Ġtrained":10554,"NR":10555,"ARD":10556,"(@":10557,"Ġdetected":10558,"ĠBra":10559,"Ġresc":10560,"Ġpolynomial":10561,"worth":10562,"ĠValid":10563,"ĠBon":10564,"Ġplenty":10565,"Ġseed":10566,"ĠPers":10567,"DEBUG":10568,"Ġnearby":10569,"ĠHence":10570,"syl":10571,"Ġtrace":10572,"eman":10573,"Delegate":10574,"sex":10575,"facebook":10576,"Ġscenario":10577,"Ġinvolving":10578,"displayName":10579,"ĠBox":10580,"_{{\\":10581,"Ġestate":10582,"sky":10583,"Ġ($\\":10584,"commod":10585,"Ġspecify":10586,"Ġcontemporary":10587,"ĠHong":10588,"Ġunable":10589,"Notification":10590,"hensive":10591,"Ġmouth":10592,"Ġtotally":10593,"ĠShould":10594,"Ġpriority":10595,"Ġimpossible":10596,"Ġ$\\{":10597,"ĠResp":10598,"ogram":10599,"Previous":10600,"Ġplugin":10601,"ailability":10602,"Ġhouses":10603,"rons":10604,"BB":10605,"Append":10606,"ĠPublish":10607,"enda":10608,"Ġcreates":10609,"Volume":10610,"ĠOS":10611,"...</":10612,"Ġdrugs":10613,"aligned":10614,"Oct":10615,"indu":10616,"Interval":10617,"Ġcontribut":10618,"Ġ(+":10619,"checkbox":10620,"Ġmail":10621,"'}":10622,"-$":10623,"Ġintegral":10624,"peat":10625,"ĠDam":10626,"flat":10627,"Ġpray":10628,"ĠFac":10629,"sync":10630,"boost":10631,"fc":10632,"Ġtsd":10633,"Lin":10634,"Ġtimeout":10635,"Ġhundreds":10636,"athy":10637,"Ġdistingu":10638,"aze":10639,"Ġ\\;":10640,"ifndef":10641,"Enumer":10642,"Ġbounded":10643,"Ġhonor":10644,"multicolumn":10645,"oured":10646,"suit":10647,"Ġweapons":10648,"National":10649,"aints":10650,"yers":10651,"ĠStephen":10652,"DOCTYPE":10653,"changed":10654,"Ġcmd":10655,"engers":10656,"Ġrelax":10657,"ĠCru":10658,"Real":10659,"ĠPut":10660,"å®":10661,"David":10662,"Clear":10663,"Elements":10664,"Ġcopyright":10665,"will":10666,"ĠAk":10667,"ĠBY":10668,"ANG":10669,"Ġenum":10670,"Ġassets":10671,"Ġdual":10672,"Cast":10673,"Ġcompliance":10674,"ĠBat":10675,"Stats":10676,"Ġwins":10677,"ĠIV":10678,"Bind":10679,"çĶ":10680,"ĠDrag":10681,"Ġclosely":10682,"ses":10683,"Ġ$|":10684,"ä»":10685,"Ġscenes":10686,"\"\"\"":10687,"anth":10688,"Ġhide":10689,"ĠSelect":10690,"ĠRecord":10691,"mathscr":10692,"Ġmuseum":10693,"hu":10694,"ĠSH":10695,"single":10696,"Ġfeaturing":10697,"Ġbands":10698,"Å¡":10699,"ĠASSERT":10700,"Ġcomputed":10701,"semble":10702,"transition":10703,"Ġhealthy":10704,"arity":10705,"Ġevil":10706,"Ġspending":10707,"Christ":10708,"Sort":10709,"Language":10710,"ĠAccount":10711,"Flag":10712,"Ġminimal":10713,"Ġsimulation":10714,"Ġnp":10715,"Ġdust":10716,"sters":10717,"including":10718,"Wallet":10719,"ĠLanguage":10720,"urd":10721,"diff":10722,"noon":10723,"uffers":10724,"dagger":10725,"QUE":10726,"Ġgeneric":10727,"ĠApplication":10728,"goto":10729,"ĠChannel":10730,"timeout":10731,"Hub":10732,"Ids":10733,"ĠTrack":10734,"Ġgod":10735,"ĠClient":10736,"Ġlat":10737,"oment":10738,"Ġsizes":10739,"Review":10740,"ÛĮ":10741,"Ġelev":10742,"Ġlistening":10743,"basic":10744,"ĠSupreme":10745,"Ġspectral":10746,"igate":10747,"ĠCou":10748,"Save":10749,"Super":10750,"Ġnorthern":10751,"Did":10752,"arse":10753,"aska":10754,"ĠResponse":10755,"ĠSQL":10756,"fficients":10757,"ĠSuch":10758,"Ġassumption":10759,"once":10760,"minent":10761,"RT":10762,"ĠCulture":10763,"ĠThrough":10764,"loom":10765,"Ġnumerical":10766,"construct":10767,"uv":10768,"Ġhistoric":10769,"eff":10770,"iary":10771,"Animation":10772,"ĠFinally":10773,"ureau":10774,"yr":10775,"aired":10776,"Ġattended":10777,"zip":10778,"Ġwalking":10779,"Ġpictures":10780,"ĠNeed":10781,"ĠEditor":10782,"Ġflood":10783,"ĠLow":10784,"Ġexperts":10785,"np":10786,"agent":10787,"ĠRa":10788,"Ġtemp":10789,"Ġaggreg":10790,"proxy":10791,"Ġdrawn":10792,"Ġsolve":10793,"Pres":10794,"Ġmand":10795,"Sequence":10796,"Div":10797,"ĠCore":10798,"Ġrecognized":10799,"rink":10800,"rieve":10801,"Ġcoal":10802,"Ġeffectively":10803,"ĠRyan":10804,"ĠElizabeth":10805,"Ġups":10806,"ĠLatin":10807,"ĠCELL":10808,"Ġkilling":10809,"Ġstores":10810,"sylvania":10811,"Ġprospect":10812,"release":10813,"Ġneither":10814,"Ġinstitution":10815,"Star":10816,"Ġtested":10817,"DEFAULT":10818,"Ġreligion":10819,"Admin":10820,"Ġlayers":10821,"ĠHotel":10822,"ĠMill":10823,"Ġdrivers":10824,"orient":10825,"INTER":10826,"ĠCountry":10827,"itled":10828,"door":10829,"Ã±":10830,"Ġcopies":10831,"een":10832,"rible":10833,"iph":10834,"Math":10835,"atomic":10836,"undefined":10837,"ĠSem":10838,"Ġvertices":10839,"anny":10840,"Ġcolour":10841,"Ġcovers":10842,"ĠFA":10843,"ĠSystems":10844,"Ġletters":10845,"ancell":10846,"Ġtags":10847,"Ġfindings":10848,"ĠProte":10849,"download":10850,"Ġsuspect":10851,"Ġdimensions":10852,"Ġhate":10853,"irk":10854,"GC":10855,"Ġlosing":10856,"alty":10857,"ympt":10858,"Ġbinding":10859,"Ġattempts":10860,"bg":10861,"Ġfragment":10862,"Ġprimarily":10863,"Ġtough":10864,"atrix":10865,"Ġsynchron":10866,"ĠEric":10867,"Ġsomewhat":10868,"jd":10869,"ĠNiger":10870,"Ġvo":10871,"Ġvisitors":10872,"Ġmissed":10873,"irement":10874,"ktop":10875,"ibilities":10876,"ĠFall":10877,"integ":10878,"ĠConnect":10879,"Ġcouncil":10880,"ĠDavis":10881,"actic":10882,"ycle":10883,"ĠDoes":10884,"METH":10885,"EEEEFF":10886,"abric":10887,"Ġstrategies":10888,"oval":10889,"MODULE":10890,"Ġnecessarily":10891,"ONG":10892,"ellect":10893,"Ġrestaurant":10894,"Focus":10895,"Ġtherapy":10896,"phia":10897,"aga":10898,"arry":10899,"uable":10900,"Aust":10901,"licate":10902,"Ġdoctor":10903,"ivated":10904,"1983":10905,"Ġreadonly":10906,"ritical":10907,"Ġast":10908,"mouse":10909,"PUT":10910,"ĠBand":10911,"Wait":10912,"ĠEdward":10913,"Ġoptical":10914,"ĠSky":10915,"ori":10916,"Compat":10917,"aria":10918,"ĠÐ¿":10919,"ĠassertThat":10920,"Ġreset":10921,"Ġtack":10922,"atest":10923,"Ġveg":10924,"Ġadds":10925,"Coll":10926,"bas":10927,"Ġpublication":10928,"Ġbigger":10929,"ĠMagazine":10930,"\\}":10931,"ĠContent":10932,"Ġ];":10933,"Forms":10934,";\">":10935,"Endpoint":10936,"Ġexercise":10937,"onom":10938,"ĠRose":10939,"fx":10940,"Ġbought":10941,"ells":10942,"Ġbind":10943,"æĸ":10944,"ket":10945,"Ġenhance":10946,"Ġboys":10947,"Required":10948,"Ġfasc":10949,"Ġsurprise":10950,"Ġattached":10951,"Ġschema":10952,"variant":10953,"Ġspoke":10954,"Shape":10955,"helper":10956,"Ġexciting":10957,"ĠChem":10958,"Ġlogic":10959,"Ġboot":10960,"Prov":10961,"Ġdeploy":10962,"Serv":10963,"visible":10964,"ikip":10965,"ĠEND":10966,"/\"":10967,"Ġconj":10968,"ĠFish":10969,"ĠNC":10970,"ï¼Į":10971,"Like":10972,"Ġprops":10973,"Ġadopted":10974,"Ġvast":10975,"quote":10976,"Stop":10977,"icide":10978,"ĠJesus":10979,"ĠHou":10980,"ĠIslands":10981,"Ġsuitable":10982,"RAN":10983,"Ġwrites":10984,"Black":10985,"Ġsuit":10986,"ATED":10987,"Ġpresentation":10988,"adelphia":10989,"FP":10990,"RED":10991,"\"].":10992,"optional":10993,"aded":10994,"Ġreasonable":10995,"angers":10996,"****************************************************************":10997,"Ġwond":10998,"Ġpractical":10999,"Ġenjoyed":11000,"Ġaid":11001,"Ġcriteria":11002,"Ġsimulations":11003,"ĠBall":11004,"Ġwaste":11005,"specific":11006,"prene":11007,"ilk":11008,"testing":11009,"Ġapproximation":11010,"Ġuniverse":11011,"sidebar":11012,"Ġcards":11013,"Ġbounds":11014,"Ġchoices":11015,"umps":11016,"BY":11017,"IDTH":11018,"ĠInput":11019,"Ġfaces":11020,"Ġtrail":11021,"ospit":11022,"Skip":11023,"Ġig":11024,"Dictionary":11025,"ĠSab":11026,"mc":11027,"ĠEll":11028,"Ġapparently":11029,"clone":11030,"razy":11031,"iversary":11032,"educe":11033,"Mouse":11034,"supported":11035,"Ġveter":11036,"ĠBefore":11037,"ymph":11038,"ando":11039,"rypto":11040,"Ġquad":11041,"ysical":11042,"Ġawards":11043,"ĠIllinois":11044,"ĠPrint":11045,"cohol":11046,"Ġsubsequent":11047,"rystal":11048,"Ġsatisfies":11049,"Pat":11050,"Ġtournament":11051,"lix":11052,"catch":11053,"ĠLoad":11054,"available":11055,"Ġintegrated":11056,"Ġgranted":11057,"VALID":11058,"Ġsymmetry":11059,"ĠHarry":11060,"Ġforth":11061,"inator":11062,"Framework":11063,"Ġprincipal":11064,"ĠJenn":11065,"Ġtmp":11066,"Ġemergency":11067,"1979":11068,"Ġrecognition":11069,"Ġintent":11070,"Ġcollaboration":11071,"Î¹":11072,"avel":11073,"usal":11074,"Operator":11075,"Ġdire":11076,"1982":11077,"Sep":11078,"occer":11079,"warning":11080,")[":11081,"UC":11082,"Ġcrash":11083,"Ġtransactions":11084,"Ġrear":11085,"IAL":11086,"feed":11087,"}}_{":11088,"ctic":11089,"Ġserves":11090,"Ġdisplayed":11091,"Ġvalidate":11092,"ika":11093,"Ġdomestic":11094,"animation":11095,"iley":11096,"resolve":11097,"aki":11098,"Ġreturning":11099,"wedge":11100,"ĠJacob":11101,"Ġ([":11102,"Ġkernel":11103,"owed":11104,"Pair":11105,"anchester":11106,"clusions":11107,"ÐµÐ½":11108,"ĠStandard":11109,"Ġlists":11110,"Sample":11111,"bullet":11112,"åĲ":11113,"lyphicon":11114,"ĠLA":11115,"Methods":11116,"Ġevaluate":11117,"Ġmd":11118,"cker":11119,"kt":11120,"Ġdisappe":11121,"Ġturning":11122,"Although":11123,"reprene":11124,"Ġimmediate":11125,"Complet":11126,"Ġexposure":11127,"upp":11128,"Ġbasketball":11129,"ifi":11130,"Ġappeal":11131,"Ġcomposition":11132,"Ġhandling":11133,"ĠStaff":11134,"activity":11135,"ĠCG":11136,"appy":11137,"ĠHay":11138,"etary":11139,"apsed":11140,"generate":11141,"Stud":11142,"ĠAvenue":11143,"Ġly":11144,"Fore":11145,"Ms":11146,"Ġdecay":11147,"Theme":11148,"Ġwhereas":11149,"Good":11150,"Ġobjective":11151,"Ġmountain":11152,"Ġchunk":11153,"#{":11154,"Ġongoing":11155,"zo":11156,"Ġimagine":11157,"Ġ'\\":11158,"ĠLie":11159,"ĠCas":11160,"ais":11161,"ĠNavy":11162,"Env":11163,"Ġgift":11164,"127":11165,"Scal":11166,"ennes":11167,"pair":11168,"ĠViet":11169,"plan":11170,"ĠMiller":11171,"owner":11172,"ĠSche":11173,"Mill":11174,"ĠEmpire":11175,"asts":11176,"Ġchecked":11177,"Ġlegend":11178,"ulse":11179,"Ġvictims":11180,"Ġcharacteristics":11181,"phere":11182,"=\\\"":11183,"ĠFord":11184,"ĠCred":11185,"Ġalongside":11186,"ĠDeath":11187,"StyleID":11188,"ategor":11189,"cluster":11190,"iat":11191,"owa":11192,"ologist":11193,"onia":11194,"Ġscalar":11195,",\\,":11196,"NavBarFont":11197,"islation":11198,"ĠNAV":11199,"ĠGreg":11200,"ĠVictoria":11201,"Ġwear":11202,"ties":11203,"Ġbreaking":11204,"SCR":11205,"Ġselling":11206,"Who":11207,"Should":11208,"LED":11209,"rieved":11210,"Ġpercentage":11211,"Audio":11212,"ikipedia":11213,"tainment":11214,"Ġtransmission":11215,"havior":11216,"notes":11217,"ĠClinton":11218,"Ġhall":11219,"ĠYouTube":11220,"Ġseasons":11221,"compile":11222,"Ġles":11223,"nsel":11224,"Sch":11225,"Ġepisodes":11226,"University":11227,"ĠTransport":11228,"ĠResources":11229,"ĠRon":11230,"SV":11231,"rele":11232,"Ġinequality":11233,"apis":11234,"anchise":11235,"Ġsight":11236,"Ali":11237,"Ġpotentially":11238,"ĠReb":11239,"Ġdeclared":11240,"runtime":11241,"ĠRaj":11242,"Ġteachers":11243,"wt":11244,"Ġsyn":11245,"lat":11246,"oviet":11247,"Ġtitles":11248,"Further":11249,"Ġconversion":11250,"Ġbes":11251,"ĠBru":11252,"verter":11253,"Ġfestival":11254,"Ġclassification":11255,"uggle":11256,"Ġtrac":11257,"ĠDu":11258,"FUN":11259,"ĠBattle":11260,"^^":11261,"Ġcursor":11262,"sem":11263,"Ġadults":11264,"ilib":11265,"putation":11266,"Ġwestern":11267,"ifferent":11268,"Ġresponses":11269,"Ġlaugh":11270,"ĠBoolean":11271,"Ġrational":11272,"Ġru":11273,"ubble":11274,"Ġmanifest":11275,"Ġouter":11276,"Ġ\"$":11277,"Ġsignals":11278,"Ġextensive":11279,"Ġultimately":11280,"ĠTravel":11281,"ctors":11282,"ĠTool":11283,"ĠRos":11284,"Ġhabit":11285,"/.":11286,"Ġpersons":11287,"Ġsitting":11288,"Ġcoordinates":11289,"Mich":11290,"ĠPlace":11291,"Ġscheduled":11292,"kwargs":11293,"iac":11294,"Ġmorph":11295,"MIN":11296,"Setting":11297,"'];":11298,"Ġmine":11299,"ĠBrian":11300,"idelines":11301,"Ġintroduction":11302,"ĠKat":11303,"METHOD":11304,"multi":11305,"ĠallClasses":11306,"DATA":11307,"Ġmob":11308,"ementia":11309,"Ġwer":11310,"Leg":11311,"NET":11312,"ĠDid":11313,"Ġexplains":11314,"Ġarrested":11315,"Ġcolors":11316,"loading":11317,"ĠallClassesLink":11318,"Ġresistance":11319,"Ġactors":11320,"Ġscientists":11321,"Ġhits":11322,"itative":11323,"setminus":11324,"Ġrotation":11325,"Ġapps":11326,"Ġsympt":11327,"ĠContin":11328,"Ġvulner":11329,"ership":11330,"Ġcomedy":11331,"Ġmouse":11332,"ewidth":11333,"ĠCancer":11334,"Ġworldwide":11335,"ÙĨ":11336,"Ġopts":11337,"acent":11338,"Ġinvestigate":11339,"bet":11340,"Ġdress":11341,"simple":11342,"Ġsin":11343,"ĠDescription":11344,"Ġarts":11345,"ORTED":11346,"\"},":11347,"rating":11348,"formed":11349,"âĢĭ":11350,"Bal":11351,"ĠUnit":11352,"ĠPot":11353,"Ġvacc":11354,"eron":11355,"nesota":11356,"Ġbare":11357,"Db":11358,"Ġrenew":11359,"Warning":11360,"Ġstone":11361,"Ġcontrovers":11362,"izon":11363,"Ġoutcome":11364,"ĠDEFAULT":11365,"Ġexpensive":11366,"ĠPublished":11367,"Ġaccompl":11368,"Ġillegal":11369,"Ġcoupling":11370,"Ġdiverse":11371,"Aug":11372,"Ġprogramming":11373,"selector":11374,"loaded":11375,"factory":11376,"Ġbeauty":11377,"olis":11378,"have":11379,"Ġbgcolor":11380,"Ġvirt":11381,"ĠLev":11382,"']['":11383,"aux":11384,"Ġscr":11385,"Ġsubset":11386,"ĠEV":11387,"separ":11388,"alytics":11389,"created":11390,"Ġstrike":11391,"Ġfrequently":11392,"Ġvisited":11393,"Ġguest":11394,"åħ":11395,"rium":11396,"Îµ":11397,"destroy":11398,"UND":11399,"ĠTax":11400,"Native":11401,"Card":11402,"ĠWrite":11403,"Ġfiled":11404,"Ġ}\\":11405,"ĠSingapore":11406,"Eq":11407,"poly":11408,"yy":11409,"Ġreson":11410,"InputStream":11411,"CB":11412,"ĠMD":11413,"fg":11414,"Ġcontribute":11415,"Ġbatch":11416,"wing":11417,"esis":11418,"Ġcampus":11419,"Encoded":11420,"Ġthrown":11421,"Bu":11422,"Ġfails":11423,"-(":11424,"Ġplate":11425,"Ġconn":11426,"inch":11427,"(\"/":11428,"outube":11429,"cussion":11430,"Ġagric":11431,"Ġobservation":11432,"Ġpra":11433,"Information":11434,"opic":11435,"ĠThank":11436,"urable":11437,"Ġrevenue":11438,"Ġgiant":11439,"Ġvit":11440,"Ġhell":11441,"Ġagencies":11442,"Ġgoods":11443,"good":11444,"Ġha":11445,"ĠTake":11446,"Ġbreath":11447,"Ġprepare":11448,"Ġprinciple":11449,"Move":11450,"EventListener":11451,"bd":11452,"Ġstreets":11453,"rev":11454,"doi":11455,"bc":11456,"ĠServer":11457,"ĠNFL":11458,"agues":11459,"rator":11460,"ĠStore":11461,"getValue":11462,"cludes":11463,"Ġsnap":11464,"Ġsweet":11465,"ĠAG":11466,"Ġdestroyed":11467,"alink":11468,"seq":11469,"ulous":11470,"Ġscores":11471,"nn":11472,"ulatory":11473,"uset":11474,"edded":11475,"Ġyounger":11476,"Flow":11477,"unct":11478,"bourne":11479,"ãĢĤ":11480,"ellite":11481,"ĠHollywood":11482,"upid":11483,"Ant":11484,"Ġdivided":11485,"'_":11486,"ĠOs":11487,"Ġsubjects":11488,"UK":11489,"Ġmunicip":11490,"thur":11491,"acher":11492,"chant":11493,"Ġsingular":11494,"Ġnucle":11495,"ĠSIZE":11496,"Ġcalculate":11497,"Ġversus":11498,"tan":11499,"ĠSanta":11500,"Ġproposal":11501,"exec":11502,"Ġhorse":11503,"gover":11504,"GER":11505,"react":11506,"Folder":11507,"Screen":11508,"Ġbanks":11509,"Ġorganized":11510,"Release":11511,"ĠThose":11512,"Ġignored":11513,"Ġbass":11514,"plementation":11515,"Ġsevere":11516,"City":11517,"Ġalgorithms":11518,"isset":11519,"FN":11520,"cli":11521,"Objects":11522,"ĠCOM":11523,"ĠSound":11524,"unter":11525,"Condition":11526,"1981":11527,"contrib":11528,"ĠPennsylvania":11529,"Ġdebt":11530,"Ġvalidation":11531,"MODE":11532,"elect":11533,"aza":11534,"enant":11535,"Ġpointed":11536,"Ġrecovery":11537,"ĠStream":11538,"Ġwheel":11539,"130":11540,">\\":11541,"Ġthin":11542,"Ġspl":11543,"JP":11544,"Ġexcess":11545,"paper":11546,"heim":11547,"Basic":11548,"Ġease":11549,"Ġathlet":11550,"ĠSi":11551,"Ġangular":11552,"Ġchampionship":11553,"trace":11554,"Ġcancel":11555,",$":11556,"Ġearned":11557,"don":11558,"Ġwalls":11559,"ĠProposition":11560,"Ġstats":11561,"ĠDream":11562,"ificial":11563,"ĠOptional":11564,"ĠMarg":11565,"Ġtaught":11566,"Ġstim":11567,"mad":11568,"Consumer":11569,"Ġobviously":11570,"origin":11571,"ĠMand":11572,"expand":11573,"Ġunderstood":11574,"_{-":11575,"Ġcompletion":11576,"Fact":11577,"ulpt":11578,"rizona":11579,"ycl":11580,"omorphism":11581,"Ġemotional":11582,"Ġextreme":11583,"Limit":11584,"rained":11585,"ĠALIGN":11586,"rupted":11587,"Ġmit":11588,"Normal":11589,"ollary":11590,"ĠSydney":11591,"ĠKevin":11592,"Ġreply":11593,"eras":11594,"Ġconclusion":11595,"Ġfacilit":11596,"Ġsav":11597,"Binding":11598,"bigg":11599,"ĠCa":11600,"eveloper":11601,"Ġcircuit":11602,"NV":11603,"Ġalive":11604,"lot":11605,"ĠCook":11606,"ĠMock":11607,"Ġhappening":11608,"Ġpilot":11609,"Ġlift":11610,"Ġtrouble":11611,"ĠXML":11612,"_*":11613,"ĠTony":11614,"Ġterminal":11615,"USER":11616,"ARN":11617,"bus":11618,"ortion":11619,"Ġlandscape":11620,"uli":11621,"Ġ\\\"":11622,"Ġdriven":11623,"dig":11624,":`":11625,"hus":11626,"Platform":11627,"ĠApache":11628,"ĠHeart":11629,"ĠBuilding":11630,"Ġmillions":11631,"vals":11632,"alert":11633,"eping":11634,"Ġsys":11635,"ĠLay":11636,"imm":11637,"inherit":11638,"Ġsole":11639,"ĠMinistry":11640,"Ġ$[":11641,"South":11642,"Abs":11643,"ĠDisney":11644,"Press":11645,"Ġguid":11646,"Effect":11647,"Ġworker":11648,"logo":11649,"Ġconsumers":11650,"rg":11651,"Ġlisting":11652,"ArgumentException":11653,"Ġcaptured":11654,"ĠJean":11655,"ulp":11656,"Ġprofessor":11657,"Ġincreasingly":11658,"perp":11659,"Ġ|\\":11660,"ĠComments":11661,"pres":11662,"setup":11663,"Ġatmosphere":11664,"ĠColumbia":11665,"Rob":11666,"validate":11667,"ĉĠĠĠĠĠĠĠ":11668,"phant":11669,"Ġafternoon":11670,"people":11671,"Ġpresents":11672,"Ġacquired":11673,"ĠTok":11674,"SN":11675,"1975":11676,"Transport":11677,"ĠAC":11678,"Validation":11679,"Ġsees":11680,"Ġyards":11681,"typename":11682,"Ġ$$":11683,"Ġcircumstances":11684,"Ġrural":11685,"slice":11686,"Ġperformances":11687,"Ġscholar":11688,"Ġmg":11689,"Ġcatalog":11690,"Ġpulled":11691,"ĠGrant":11692,"Ġstood":11693,"Ġaccord":11694,"ĠHave":11695,"hook":11696,"Ġaccommod":11697,"Finally":11698,"STRING":11699,"ĠSets":11700,"Ġimprovement":11701,"SW":11702,"riends":11703,"ĠNever":11704,"prep":11705,"ĠStruct":11706,"ationToken":11707,"Ġexposed":11708,"YY":11709,"Ġtempor":11710,"Ġ@\"":11711,"vari":11712,"Ġtech":11713,"rin":11714,"ibraries":11715,"Ġsettlement":11716,"*{":11717,"Ġsurprising":11718,"Ð°Ð½":11719,"rig":11720,"rank":11721,"hot":11722,"6666":11723,":[":11724,"IOException":11725,"ĠGro":11726,"ĠEs":11727,"iot":11728,"osity":11729,"Ġsync":11730,"ierarchy":11731,"Ġinvestors":11732,":#":11733,"His":11734,"Ġcommonly":11735,"à¤°":11736,"()),":11737,"shal":11738,"ORK":11739,"Ġradiation":11740,"Ġcoefficients":11741,"Ġcontest":11742,"Ġvess":11743,"ju":11744,"Pers":11745,"Ġabandon":11746,"essed":11747,"agen":11748,"Ġbatt":11749,"Ġstability":11750,"ivals":11751,"Ġgrown":11752,"ĠToronto":11753,"Ġyesterday":11754,"rying":11755,"1976":11756,"Ġfacing":11757,"Ġhasn":11758,"Ġfifth":11759,"ĠVen":11760,"hire":11761,"Ġadvertising":11762,"ducer":11763,"ĠAbstract":11764,"ĠOfficial":11765,"Ġinject":11766,"Ùħ":11767,"Ġanalog":11768,"Ġcompatible":11769,"ĠColorado":11770,"duration":11771,"Ġmanip":11772,"Ġanyway":11773,"ĠDemocrats":11774,"constructor":11775,"1978":11776,"ĠĠĠĠĠĠĠĠĠĠĠĠĠĠĠĠĠĠĠĠĠĠĠĠĠĠĠĠĠĠ":11777,"Ġschem":11778,"UTH":11779,"Ġinvariant":11780,"Usage":11781,"Ġwine":11782,"isely":11783,"Ġeducational":11784,"isition":11785,"ĠNa":11786,"Ġ\"%":11787,"Ġminister":11788,"Ġfunny":11789,"Ġ}}":11790,"Ġlocally":11791,"RC":11792,"Ġentertainment":11793,"ĠTree":11794,"batch":11795,"elle":11796,"Ġdependencies":11797,"ĠAI":11798,"ĠSimple":11799,"ASE":11800,"merge":11801,"Ġairport":11802,"Ġcurves":11803,"olute":11804,"wd":11805,"Ġexplicitly":11806,"Ġgeometry":11807,"Ġtwenty":11808,"Ġreverse":11809,"Raw":11810,"ĠNAVBAR":11811,"HC":11812,"fall":11813,"unes":11814,"party":11815,"Cur":11816,"compare":11817,"Ġmile":11818,"Ġstyles":11819,"Ġbag":11820,"Ġcommitment":11821,"Lower":11822,"ĠCart":11823,"ĠLic":11824,"ĠGallery":11825,"Ax":11826,"Ġinputs":11827,"ĠAnalysis":11828,"isEmpty":11829,"cus":11830,"Ġtables":11831,"Ġsentence":11832,"ĠINTO":11833,"ĠForest":11834,"Ġance":11835,"Ġexecuted":11836,"ĠRemove":11837,"Ġourselves":11838,"Ġmasses":11839,"Ġoppon":11840,"ÑģÑĤ":11841,"trl":11842,"Ġsb":11843,"Ġobserve":11844,"Unknown":11845,"Ġele":11846,"Ġheads":11847,"aturally":11848,"Ġplatforms":11849,"Ġaccessible":11850,"Addr":11851,"ĠLiter":11852,"Ġbold":11853,"ĠFurthermore":11854,"icator":11855,"pages":11856,"Ġdollars":11857,"Ġfib":11858,"holders":11859,"Ġpicked":11860,"apture":11861,"Ġsoldiers":11862,"ependencies":11863,"tf":11864,"consin":11865,"Ġoperate":11866,"Ġedit":11867,"bled":11868,"Ġhypothes":11869,"phan":11870,"Ok":11871,"Ġassistance":11872,"Ġentr":11873,"Ġdiscovery":11874,"reader":11875,"Syntax":11876,"Ġflu":11877,"OC":11878,"Ġbomb":11879,"Ġcoffee":11880,"Own":11881,"SSL":11882,"1977":11883,")}(":11884,"Î½":11885,"present":11886,"Ġmodify":11887,"through":11888,"ĠEffect":11889,"Ġtopics":11890,"ĠAdministration":11891,"ented":11892,"ĠOcean":11893,"achuset":11894,"Ġseats":11895,"Ġlattice":11896,"Ġdesire":11897,"ĠNAS":11898,"ĠTal":11899,"III":11900,"getElementById":11901,"Ġrevolution":11902,"ĠSA":11903,"covery":11904,"Ġdisappoint":11905,"Drag":11906,"105":11907,"achusetts":11908,"ĠWord":11909,"memory":11910,"Ġpri":11911,"Even":11912,"icode":11913,"ĠPos":11914,"rell":11915,"Ġlimitations":11916,"Constructor":11917,"Ġmoder":11918,"Detail":11919,"Throw":11920,"Ġanalyz":11921,"Ġbundle":11922,"ĠSmall":11923,">\"":11924,"Ġ\"\";":11925,"Ġinteract":11926,"Ġ\"\",":11927,"Ġcovering":11928,"ĠPract":11929,"Ġvariation":11930,"INST":11931,"overview":11932,"essional":11933,"energy":11934,"TF":11935,"ĠMrs":11936,"Ġabund":11937,"urations":11938,"ti":11939,"Ġfmt":11940,"Driver":11941,"ĠTurkey":11942,"ĠLimited":11943,"verb":11944,"Ġdiscrim":11945,"THE":11946,"Ġessentially":11947,"there":11948,"112":11949,"NSString":11950,"ordon":11951,"Ġskip":11952,"Ġtradition":11953,"Ġrepresentative":11954,"Ġanywhere":11955,"Annotation":11956,"riers":11957,"convert":11958,"102":11959,"Ġincorpor":11960,"ĠFinancial":11961,"Ġpoliticians":11962,"ĠIllegal":11963,"iest":11964,"Ġna":11965,"ĠDB":11966,"ĠSarah":11967,"Light":11968,"Ñĩ":11969,"ĠME":11970,"Ġshel":11971,"Plan":11972,"ĠCub":11973,"Ġvotes":11974,"ingham":11975,"Ġfault":11976,"Ġpregn":11977,"Ġsatisfy":11978,"radio":11979,"Constant":11980,"Ġaccused":11981,"ĠScottish":11982,"FIELD":11983,"Ġloading":11984,"Associ":11985,"Ġships":11986,"_);":11987,"ĠHu":11988,"PY":11989,"ĠMoh":11990,"Ġvictim":11991,"Ġinhib":11992,"ceptor":11993,"Ġupcoming":11994,"ggreg":11995,"Ġpipeline":11996,"season":11997,"Ġsurve":11998,"ĠTam":11999,"cu":12000,"Ġfold":12001,"Ġ_.":12002,"Ġmonitoring":12003,"cers":12004,"Ġcorrectly":12005,"Ġvoters":12006,"Example":12007,"messages":12008,"Ġdifferential":12009,"ĠJews":12010,"ĠProp":12011,"driver":12012,"),\\":12013,"Ġrealize":12014,"ĠBush":12015,"anches":12016,"brand":12017,"program":12018,"AVE":12019,"ĠImm":12020,"Ġopposition":12021,"vertical":12022,"Ġcomplexity":12023,"exit":12024,"Ġgro":12025,"obby":12026,"iously":12027,">)":12028,"orts":12029,"ĠLady":12030,"ĠAgency":12031,"onna":12032,"scss":12033,"Ġexclusive":12034,"constant":12035,"unning":12036,"pot":12037,"ĠWhether":12038,"Ġdistributions":12039,"ĠTech":12040,"ĠGarden":12041,"what":12042,"ĠJordan":12043,"Ġphysics":12044,"Ġpapers":12045,"Ġ(@":12046,"Ġinnovation":12047,"×ķ":12048,"ĠLE":12049,"Download":12050,"Ġcombat":12051,"ĠLabour":12052,"ĠVeg":12053,"ederation":12054,"series":12055,"week":12056,"Execution":12057,"Ġdecor":12058,"zh":12059,"Ġsolo":12060,"Ġsimult":12061,"ĠAuto":12062,"ĠAlexander":12063,"Health":12064,"izz":12065,"Ġ'';":12066,"license":12067,"ĠCapital":12068,"highlight":12069,"ghan":12070,"Proto":12071,"1974":12072,"Compiler":12073,"Ġwatched":12074,"tok":12075,"Fi":12076,"audi":12077,"ĠStudy":12078,"yard":12079,"may":12080,"Ġwindows":12081,"Ġdates":12082,"Ġ_,":12083,"Ġ\\(":12084,"ĠLewis":12085,"commons":12086,"Serializer":12087,"opts":12088,"Ġelif":12089,"Ġkeeps":12090,"Ġbelieves":12091,"Apr":12092,"asty":12093,"Site":12094,"arest":12095,"Ġcrack":12096,"ORDER":12097,"Ġboat":12098,"Ġdependence":12099,"Ġbon":12100,"ouri":12101,"ĠRoom":12102,"ĠEdition":12103,"Ġfluid":12104,"}}(\\":12105,"Ġholiday":12106,"Place":12107,"wiki":12108,"Ġcomposed":12109,"Ġroof":12110,"ĠAh":12111,"Ġsurgery":12112,"ensation":12113,"ĠRegion":12114,"Ġintention":12115,"plays":12116,"Imp":12117,"INSERT":12118,"ĠSingh":12119,"methods":12120,"inema":12121,"ĠChen":12122,"ĠLes":12123,"ĠRow":12124,"CHAR":12125,"submit":12126,"ĠGolden":12127,"illiant":12128,"ĠGovernor":12129,"Ġstrange":12130,"Ġiron":12131,"acks":12132,"ĠOfficer":12133,"ĠTen":12134,"Ġidentifier":12135,"Library":12136,"ĠBerlin":12137,"ĠAmb":12138,"Ġinterior":12139,"who":12140,"rypted":12141,"North":12142,"vironments":12143,"Ġslowly":12144,"ĠMiami":12145,"Ġbias":12146,"Ġegg":12147,"LOC":12148,"ĠArm":12149,"linewidth":12150,"ĠPortug":12151,"agonal":12152,"WH":12153,"Ġreform":12154,"1972":12155,"Ġyields":12156,"ĠSimon":12157,"Ġnavbar":12158,"gif":12159,"Navigation":12160,"Ġdemonstrated":12161,"Ġyellow":12162,"Ġassault":12163,"eties":12164,"Ġmodules":12165,"Sem":12166,"Ġbear":12167,"1973":12168,"ilst":12169,"%\"":12170,"score":12171,"ĠOxford":12172,"ĠSant":12173,"Ġanswers":12174,"Ġabsence":12175,"Drop":12176,"ĠExample":12177,"Complete":12178,"ĠLind":12179,"ĠLib":12180,"Mag":12181,"English":12182,"ĠPalest":12183,"ä½":12184,"disable":12185,"Ġinstructions":12186,"Ġactress":12187,"navigation":12188,"Thus":12189,"amely":12190,"Rate":12191,"ĠClear":12192,"Ġexplos":12193,"omatic":12194,"Ġstellar":12195,"Ġinduced":12196,"1968":12197,"objects":12198,"mobile":12199,"WIN":12200,"thew":12201,"anwhile":12202,"RAY":12203,"ĠSP":12204,"TestCase":12205,"Ġseriously":12206,"ĠDor":12207,"etherlands":12208,"140":12209,"ĠPDF":12210,"ĠForeign":12211,"(.":12212,"Ġperturb":12213,"ĠRome":12214,"Ġdevelopers":12215,"Ġregistration":12216,"Ġimpressive":12217,"conv":12218,"Ġstages":12219,"ĠBridge":12220,"Ġsilver":12221,"Ġcrucial":12222,"Ġpit":12223,"Ġputs":12224,"NotFound":12225,"Ġcomprehensive":12226,"Ġdismiss":12227,"Ġsensitive":12228,"share":12229,"Ġpeer":12230,"Follow":12231,"eros":12232,"Ġselector":12233,"/{":12234,"Family":12235,"ĠSher":12236,"Ġpreced":12237,"Ġbusy":12238,"earing":12239,"Word":12240,"ĠStock":12241,"Cent":12242,"Ġgrade":12243,"Ġrooms":12244,"sea":12245,"stituency":12246,"ometimes":12247,"United":12248,"regon":12249,"Ġsql":12250,"intelli":12251,"sig":12252,"Ġknock":12253,"Ġspectra":12254,"ĠEntertainment":12255,"Ġtemperatures":12256,"Ġcausing":12257,"Ġpermissions":12258,"MAP":12259,"Ġbott":12260,"Ġproviders":12261,"CONT":12262,"ĠWas":12263,"sun":12264,"Ġtom":12265,"Ġglob":12266,"extend":12267,"owntown":12268,"']);":12269,"oen":12270,"äº":12271,"angel":12272,"nie":12273,"BIT":12274,"ĠMoon":12275,"Ġapplying":12276,"Strategy":12277,"Bi":12278,"ĠProm":12279,"Ġstead":12280,"olly":12281,"Ġenemy":12282,"Ġhardware":12283,"ĠPrinc":12284,"Binary":12285,"ĠDespite":12286,"Ġliquid":12287,"Ġlegislation":12288,"ĠCambridge":12289,"Ġexhibition":12290,"intellij":12291,"ĠHouston":12292,"Static":12293,"ĠStill":12294,"Ġrealized":12295,"Ġmyth":12296,"Ġhat":12297,"ĠMountain":12298,"ailing":12299,"Based":12300,".\"\"\"":12301,"Ġlegisl":12302,"AK":12303,"database":12304,"ponential":12305,"aneously":12306,"orne":12307,"ĠYO":12308,"bsites":12309,"Ġprocedures":12310,"itter":12311,"agan":12312,"Rows":12313,"Ġpseud":12314,"built":12315,"ĠJane":12316,"resize":12317,"HL":12318,"lower":12319,"audio":12320,"aire":12321,"licity":12322,")_":12323,"Batch":12324,".~(\\":12325,"placement":12326,"mn":12327,"Ġseparated":12328,"ĠSimilar":12329,"ĠPhiladelphia":12330,"âĨ":12331,"likely":12332,"Ġrobust":12333,"Ġcommunications":12334,"=\"../../../../../../../":12335,"Tile":12336,"ĠIL":12337,"Her":12338,"Ġdiversity":12339,"ĠTreat":12340,"International":12341,"tp":12342,"emony":12343,"native":12344,"country":12345,"iations":12346,"trim":12347,"Ġemployed":12348,"Ġnewspaper":12349,"general":12350,"functions":12351,"ĠDutch":12352,"ĠTher":12353,"Ġ'',":12354,"ĠDer":12355,"Est":12356,"ĠSa":12357,"Ġsquad":12358,"ashes":12359,"Ġblow":12360,"DEF":12361,"Ġopacity":12362,"Ġpayload":12363,"unn":12364,"blob":12365,"gression":12366,"Ġconcentration":12367,"jet":12368,"Ġfuck":12369,"Ġfired":12370,"Power":12371,"ĠCab":12372,"Ġplastic":12373,"Ġpasses":12374,"AI":12375,"stage":12376,"ĠChall":12377,"variable":12378,"Ġdemonstrate":12379,"Ġpaying":12380,"ĠBudd":12381,"Eval":12382,"elihood":12383,"jack":12384,"cerning":12385,"Ġsoci":12386,"ĠMinnesota":12387,"Ġlogging":12388,"ĠYet":12389,"ĠGiven":12390,"Ġguests":12391,"UMM":12392,"Ġbeam":12393,"BM":12394,"GP":12395,"Ġbroke":12396,"ĠOnt":12397,"also":12398,"Ġknowing":12399,"AST":12400,"Have":12401,"Ġsubmitted":12402,"Ġmerge":12403,"Ġnic":12404,"Ġnarrative":12405,"}$-":12406,"_{(":12407,"ĠContact":12408,"Ġaffili":12409,"ellectual":12410,"Ġpredicted":12411,"Ġmagnitude":12412,"=[":12413,"Validator":12414,"/_":12415,"ĠPrivate":12416,"Ġcommands":12417,"Ġfairly":12418,"Ġmarg":12419,"anz":12420,"ĠEvents":12421,"Ġcoordinate":12422,"ĠHD":12423,"outheast":12424,"ĠWinter":12425,"iÃ³n":12426,"Ġhist":12427,"Prev":12428,"sr":12429,"Ġconverted":12430,"Ġauthent":12431,"Old":12432,"akh":12433,"Ġaver":12434,"Ġtheoretical":12435,"making":12436,"Ġsick":12437,"ĠPur":12438,"PHP":12439,"ppers":12440,"ĠAffairs":12441,"Ġpacket":12442,"ĠĠĠĠĠĠĠĠĠĠĠĠĠĠĠĠĠĠĠĠĠĠĠĠĠĠĠĠĠĠĠĠĠĠĠĠĠĠĠĠĠĠĠĠĠĠĠ":12443,"days":12444,"ĠAddress":12445,"Nullable":12446,"1969":12447,"igrants":12448,"ĠOlympics":12449,"ĠModern":12450,"Ġpreferred":12451,"sheet":12452,"Ġemployment":12453,"Ġlowest":12454,"ĠSav":12455,"Mapper":12456,"111":12457,"pur":12458,"emic":12459,"lab":12460,"CALL":12461,"ilty":12462,"Thanks":12463,"Ġproducing":12464,"strip":12465,"touch":12466,"rait":12467,"ĠBab":12468,"Ġclip":12469,"ĠDest":12470,"amps":12471,"CLASS":12472,"Ġparticipate":12473,"ĠRoll":12474,"×Ļ":12475,"erves":12476,"Ġinfer":12477,"design":12478,"forEach":12479,"Remote":12480,"ĠRoss":12481,"Tex":12482,"colon":12483,"ATCH":12484,"ĠJason":12485,"ĠSM":12486,"ĠCreek":12487,"Ġinterpretation":12488,"Ġbug":12489,"Ġregulations":12490,"Ġcoinc":12491,"toBe":12492,"Ġ+\\":12493,"Ep":12494,"[]{":12495,"Login":12496,"ĠBC":12497,"fficial":12498,"Ġinformed":12499,"Ġreward":12500,"uda":12501,"ĠLoc":12502,"Ġgrab":12503,"DER":12504,"ĠMaterial":12505,"Ġsurprised":12506,"\\_":12507,"104":12508,"lu":12509,"Ġflash":12510,"ĠManchester":12511,"warn":12512,"ĠMust":12513,"notations":12514,"ntil":12515,"ILL":12516,"Ġiget":12517,"fmt":12518,"ĠSix":12519,"Ġcodes":12520,"Ġsubscri":12521,"Ġgarden":12522,"mass":12523,"Ġliked":12524,"gon":12525,"transaction":12526,"Ġdependent":12527,"Resolver":12528,"ĠEver":12529,"Ġconsumption":12530,"Bad":12531,"subject":12532,"Ġflying":12533,"ĠMovie":12534,"Amount":12535,"Ġrisks":12536,"Ġchallenging":12537,"Ġindicating":12538,"Segment":12539,"ongo":12540,"Ġdrawing":12541,"Cursor":12542,"linked":12543,"ront":12544,"ĠUkraine":12545,"ĠHal":12546,"Ġsteel":12547,"kh":12548,"ras":12549,"uction":12550,"utter":12551,"Overview":12552,"Ġtrav":12553,"Ġcolle":12554,"mac":12555,"ĠDouble":12556,"Standard":12557,"ĠHelp":12558,"itis":12559,"ĠMembers":12560,"Ġunus":12561,":@\"":12562,"ĠInit":12563,"oust":12564,"spacing":12565,"ĠiPhone":12566,"ĠScient":12567,"Ġresulted":12568,"ĠIslamic":12569,"city":12570,"elastic":12571,"hematics":12572,"nob":12573,"rtl":12574,"ĠTalk":12575,"Ġreplacement":12576,"riteria":12577,"bow":12578,"Identity":12579,"Ġstronger":12580,"ativity":12581,"ĠRelease":12582,"directory":12583,"Ġimprov":12584,"ilibrium":12585,"ĠHE":12586,"was":12587,"ĠStadium":12588,"ĠFarm":12589,"pointer":12590,"sat":12591,"Ġprinciples":12592,"ĠEconomic":12593,"Ġ'%":12594,"ĠLang":12595,"Ġuncertainty":12596,"Ġbeach":12597,"/\">":12598,")\\,":12599,"1971":12600,"ĠNative":12601,"ĠSoviet":12602,"profit":12603,"ĠSquare":12604,"ĠLat":12605,"Ġgalaxy":12606,"Ġopens":12607,"ĠInstagram":12608,"Ġthinks":12609,"vy":12610,"ĠPatrick":12611,"Ġpromotion":12612,"reement":12613,"Ġlect":12614,"Ġoverl":12615,"Ġimpl":12616,"Ġvoting":12617,"Ġrating":12618,"leges":12619,"ĠMassachusetts":12620,"Ġhosted":12621,"ĠOK":12622,"Ġble":12623,"Ġ'.":12624,"Ġoperated":12625,"ĠComment":12626,"ĠPlus":12627,"Ġarc":12628,"ĠNations":12629,"wick":12630,"Ġswim":12631,"Äį":12632,"Ġcontinuing":12633,"Ġconsequences":12634,"Ġpref":12635,"Ġsocket":12636,"ĠBurn":12637,"Ġreveal":12638,"Today":12639,"ĉčĊ":12640,"ceiver":12641,"fetch":12642,"Ġbid":12643,"Edge":12644,"orer":12645,"Ġfalls":12646,"Ġinfl":12647,"subfigure":12648,"Ġbulk":12649,"Ġsle":12650,"Ġsituations":12651,"dam":12652,"Mc":12653,"ĠFO":12654,"Ġfounder":12655,"IES":12656,"ibli":12657,"Ġtroops":12658,"inction":12659,"Ġwearing":12660,"Ġfraud":12661,"ugby":12662,"ĠTraining":12663,"ĠGil":12664,"Ġinfinite":12665,"urers":12666,"overty":12667,"pkg":12668,"Ġvectors":12669,"ĠOC":12670,"mont":12671,"argo":12672,"Console":12673,"ĠTrade":12674,"ĠThread":12675,"Ġ=\\":12676,"bx":12677,"ĠLag":12678,"ĠVirtual":12679,"ista":12680,"aron":12681,"Ġchose":12682,"è¯":12683,"Ġamounts":12684,"Ġcov":12685,"Ġvice":12686,"scill":12687,"Ġå":12688,"olt":12689,"ĠDave":12690,"ĠRepresent":12691,"heduler":12692,"ban":12693,"dark":12694,"Ġaccum":12695,"Ġbasically":12696,"respons":12697,"Ġtrick":12698,"Ġwing":12699,"Processor":12700,"Ġstruggle":12701,"Ġendpoint":12702,"standard":12703,"xit":12704,"ĠAnton":12705,"ĠArizona":12706,"ĠGree":12707,"otions":12708,"Ġtries":12709,"Ġapplies":12710,"Ġpatch":12711,"%%%%%%%%":12712,"ĠSN":12713,"DOM":12714,"Ġintensity":12715,"Ġindices":12716,"Ġmaintenance":12717,"Html":12718,"binding":12719,")\",":12720,"ĠSenior":12721,"requency":12722,"relative":12723,"Master":12724,")^{-":12725,"ĠTai":12726,"Listen":12727,"Ġinvolves":12728,"Export":12729,"Ġbath":12730,"rint":12731,"Äĩ":12732,"Mac":12733,"Ġkinds":12734,"Ġcalculation":12735,"Ġexports":12736,"[(":12737,"Ġduty":12738,"hd":12739,"Ġacknowled":12740,"ĠDiego":12741,"Ġec":12742,"hesis":12743,"Ġsatisfied":12744,"Future":12745,"Ġperfectly":12746,"connected":12747,"Messages":12748,"ĠMemorial":12749,"ruction":12750,"assign":12751,"usted":12752,"Ġbattery":12753,"Ġdelight":12754,"Ð¾Ð²":12755,")^{\\":12756,"Ïĥ":12757,"DIS":12758,"iors":12759,"ĠResults":12760,"jQuery":12761,"Ġshouldn":12762,"Ġthermal":12763,"Ġparagraph":12764,"Ġrepeat":12765,"Ġinnovative":12766,"Ġtypedef":12767,"Ġfantasy":12768,"cassandra":12769,"Ġpersonnel":12770,"Care":12771,"Ġtheories":12772,"Ġruntime":12773,"Ġasset":12774,"ptic":12775,"Ġmedian":12776,"odge":12777,"collect":12778,"UNT":12779,"ĠHart":12780,"gp":12781,"sime":12782,"Ġoutcomes":12783,"ĠFront":12784,"ĠMobile":12785,"$).":12786,"Groups":12787,"Ġsed":12788,"Brit":12789,"Ġapproval":12790,"Errors":12791,"uating":12792,"Ġhack":12793,"Ġbat":12794,"ships":12795,"Ġprofessionals":12796,"ĠPartners":12797,"Ġhurt":12798,"ĠJosh":12799,"Ġtiny":12800,"ĉĉĉĉĉĉĉĉĉĉ":12801,"æķ":12802,"Ġofficially":12803,"Ġfalling":12804,"oa":12805,"Ġroy":12806,"Ġrub":12807,"drag":12808,"Ġwel":12809,"ÙĪ":12810,"ĠDementia":12811,"tre":12812,"Ġopposed":12813,"assertTrue":12814,"Renderer":12815,"irty":12816,"ĠDoctor":12817,"arguments":12818,"newcommand":12819,"Ġawareness":12820,"simeq":12821,"Ġprediction":12822,"}^*":12823,"relations":12824,"ĠRevolution":12825,"enna":12826,"){\\":12827,"Den":12828,"HEAD":12829,"kernel":12830,"FFER":12831,"ĠĠĠĠĠĠĠĠĠĠĠĠĠĠĠĠĠĠĠĠĠĠĠĠĠĠĠĠĠĠĠĠĠ":12832,"ennessee":12833,"Ġrespective":12834,"Ġdecom":12835,"expression":12836,"ĠCorn":12837,"Ġtemporary":12838,"Ġmetrics":12839,"Ġanalys":12840,"gradle":12841,"Ġstatistical":12842,"ighth":12843,"Ġaapt":12844,"1930":12845,"isations":12846,"Ġlikes":12847,"................":12848,"ĠExpl":12849,"Ġ'./":12850,"Ġmes":12851,"Center":12852,"ĠOak":12853,"Ġidentical":12854,"Ġion":12855,"forall":12856,"shell":12857,"commit":12858,"Convert":12859,"allas":12860,"Ġconclude":12861,"ĠRoy":12862,"Ġcompetitive":12863,"contents":12864,"Ġsupplied":12865,"hour":12866,"ĠVice":12867,"Rich":12868,"ĠArchitect":12869,"Ġmatrices":12870,"Ġencourage":12871,"SCRIPT":12872,"oor":12873,"à¥į":12874,"VICE":12875,"deprecated":12876,"Ġconservation":12877,"Ġmanufacturing":12878,"Ġmodal":12879,"Ġsurvival":12880,"ĠBry":12881,"Ġsuffered":12882,"Month":12883,"Ġinvited":12884,"Ġreads":12885,"cross":12886,"onomy":12887,"900":12888,"Ġvoted":12889,"ĠBelg":12890,"ĠâĨ":12891,"Ġmedicine":12892,"BUIL":12893,"ĠOutput":12894,"ENTRY":12895,"Ġreceiver":12896,"elem":12897,"subsubsection":12898,"ruct":12899,"Ġnoticed":12900,"Pred":12901,"relation":12902,"ĠConstitution":12903,"Original":12904,"encode":12905,"links":12906,"arance":12907,"ĠNorm":12908,"Ġpopulations":12909,"Ġengaged":12910,"speed":12911,"ĠPS":12912,"Ġticket":12913,"ĠThanks":12914,"ĠLeon":12915,"iva":12916,"gre":12917,"Ġhorror":12918,"ĠAnthony":12919,"Ġfriendly":12920,"ĠLjava":12921,"ĠAtlantic":12922,"Ġgenetic":12923,"fb":12924,"ĠâĢĻ":12925,"Ġfi":12926,"Ġrein":12927,"Har":12928,"Ġtickets":12929,"Ġjet":12930,"Ġinjuries":12931,"ĠCSS":12932,"enders":12933,"1940":12934,"ĠSn":12935,"Ġconscious":12936,"Ġcarrying":12937,"Ġfruit":12938,"?)":12939,"fake":12940,"ĠVALUES":12941,"ĠGrad":12942,"Ġclubs":12943,"uum":12944,"cfg":12945,"Ġdeleted":12946,"Encoding":12947,"ĠJay":12948,"Ġfolder":12949,"ĠMethods":12950,"Zone":12951,"ATTR":12952,"Ġprominent":12953,"Bel":12954,"ĠReviews":12955,"ĠMotor":12956,"ĠNature":12957,"ĠAnderson":12958,"Pal":12959,"Ġneuro":12960,"Ġrequirement":12961,"ĠOpt":12962,"icular":12963,"ĠAdvent":12964,"want":12965,"Ġgenerator":12966,"Ġbehalf":12967,"Timer":12968,"VAR":12969,"offs":12970,"ĠInf":12971,"Ġprovision":12972,"Ġvaluable":12973,"Users":12974,"Ġbreast":12975,"Ġemployee":12976,"ĠWisconsin":12977,"nof":12978,"Ġdenotes":12979,"Fn":12980,"Ġsymptoms":12981,"ĠPromise":12982,"azi":12983,"Chain":12984,"Ġ&=&":12985,"Ġgrass":12986,"ĠCOL":12987,"Ġprojection":12988,"uuid":12989,"1967":12990,"atasets":12991,"gradient":12992,"Ġrefers":12993,"Ġadmit":12994,"Ġchecks":12995,"ĠRat":12996,"Ġsheet":12997,"ĠEP":12998,"Declaration":12999,"Ġroots":13000,"Ġcalculations":13001,"tail":13002,"Ġraces":13003,"mma":13004,"ĠRound":13005,"pin":13006,"perial":13007,"(--":13008,"ilevel":13009,"ĠArticle":13010,"Ġocean":13011,"chart":13012,"Ġinjured":13013,"incess":13014,"counter":13015,"abc":13016,"Ġdefines":13017,"Ġregardless":13018,"Ġ$_":13019,"ĠThings":13020,"ĠSW":13021,"rik":13022,"\\!\\!":13023,"Ġsomewhere":13024,"Ġcomputing":13025,"Ġcertificate":13026,"textsc":13027,"Dependency":13028,"ĠStone":13029,"ige":13030,"ĠZim":13031,"Feb":13032,"flix":13033,"Ġpurchased":13034,"integer":13035,"ante":13036,"Android":13037,"Ġcapabilities":13038,"Ġcollapse":13039,")_{":13040,"extra":13041,"ĠChapter":13042,"ĠSafety":13043,"ĠKansas":13044,"novation":13045,"1920":13046,"ĠNetherlands":13047,"AE":13048,"Ġskill":13049,"imental":13050,"Ġsequences":13051,"works":13052,"altColor":13053,"Ġsuddenly":13054,";|":13055,"live":13056,"Ġplain":13057,"Ġrapidly":13058,"âĢ¦âĢ¦":13059,"Ġscales":13060,"Ġfees":13061,"ĠMoore":13062,"$^{-":13063,"wich":13064,"Ġlux":13065,"olo":13066,"Ġloan":13067,"Ġproven":13068,"Ġparking":13069,"Ġalumni":13070,"plane":13071,"phrase":13072,"Ġmeetings":13073,"ĠContext":13074,"Ġcharacteristic":13075,"Ġtou":13076,"Insert":13077,"Put":13078,"Ġposter":13079,"arios":13080,"scala":13081,"ĠSex":13082,"cribed":13083,"Ġgay":13084,"ĠassertTrue":13085,"Ġpermanent":13086,"compute":13087,"Ġclosing":13088,"Ġmeets":13089,"ĠSyria":13090,"outing":13091,"Bottom":13092,"Ġevaluated":13093,"Ġlawyer":13094,"Ġdocumentary":13095,"stan":13096,"Ġnormally":13097,"Special":13098,"ĠDelete":13099,"Ġfaculty":13100,"Ġsoil":13101,"mk":13102,"Ġtracking":13103,"Ġpresidential":13104,"square":13105,"iology":13106,"Spr":13107,"lah":13108,"gies":13109,"Ġterritory":13110,"Ġdealing":13111,"Ġtoler":13112,",...":13113,"Ġveget":13114,"Loop":13115,"ĠTrail":13116,"Ġheavily":13117,"izers":13118,"Ġanticip":13119,"icken":13120,"Ġdepos":13121,"ĠTurk":13122,"Ġwound":13123,"endment":13124,"Shared":13125,"Ġfoundation":13126,"Ġwalked":13127,"Ġgradient":13128,"Ġfaced":13129,"lobe":13130,"Ġsought":13131,"aware":13132,"Ïģ":13133,"asma":13134,"ĠPod":13135,"Ġstupid":13136,"à¥ĩ":13137,"Ġvisiting":13138,"ICATION":13139,"Ġconcrete":13140,"Ġorth":13141,"remark":13142,"HA":13143,"rolling":13144,"118":13145,"rett":13146,"ĠExpress":13147,"Ġembod":13148,"Ġages":13149,"ĠLevel":13150,"ĠPhilippines":13151,"story":13152,"Ġdup":13153,"Ġadvis":13154,"mean":13155,"ĠPrize":13156,"ĠIndeed":13157,"MAN":13158,"ĠDefense":13159,"ĠNob":13160,"Ġ{},":13161,"Ġregularly":13162,"Music":13163,"Failure":13164,"ordinate":13165,"Ġcuts":13166,"licenses":13167,"ĠĠĠĠĠĠĠĠĠĠĊ":13168,"Ġalcohol":13169,"atherine":13170,"ĠYouth":13171,"geo":13172,"Ġconsideration":13173,"ĠEmer":13174,"Ġrising":13175,"Michael":13176,"Ġincredible":13177,"Early":13178,"inx":13179,"exper":13180,"Thank":13181,"orous":13182,"Cmd":13183,"CHECK":13184,"INK":13185,"Ġexpressions":13186,"validation":13187,"ĠAuthority":13188,"etal":13189,"icking":13190,"Ġadventure":13191,"ĠDog":13192,"tesy":13193,"heading":13194,"ĠSilver":13195,"vendor":13196,"Ġconstants":13197,"sb":13198,"Contains":13199,"remarks":13200,"Ġcomplicated":13201,"visor":13202,"Ġcomplement":13203,"Depth":13204,"ĠPython":13205,"ĠDrive":13206,"ĠReference":13207,"Ġlegacy":13208,"omas":13209,"Ġreveals":13210,"Ġfurn":13211,"Ġfolks":13212,"ĠMatch":13213,"inking":13214,"walk":13215,"Ġsymmetric":13216,"ĠOperation":13217,"Ġattorney":13218,"oxy":13219,"ASK":13220,"ĠFix":13221,"LAY":13222,"striction":13223,"Ġjoining":13224,"Ġtox":13225,"ĠClark":13226,"fff":13227,"Ġthousand":13228,"Available":13229,"pmatrix":13230,"tures":13231,"Ġunexpected":13232,"ders":13233,"written":13234,"states":13235,"ĠLearning":13236,"Ġequality":13237,"amsung":13238,"ĠKE":13239,"Ġemphas":13240,"Ġsubscription":13241,"ĠMaria":13242,"Ġprecision":13243,"ĠCell":13244,"Ġmi":13245,"Contin":13246,"Paul":13247,"Ġfluct":13248,"Ġcontrad":13249,"Ġjs":13250,"Ġblank":13251,"!!!":13252,"ĠGard":13253,"Ð¿":13254,"roit":13255,"Ġstrip":13256,"ĠSport":13257,"inded":13258,"dn":13259,"Pojo":13260,"Split":13261,"UG":13262,"Ġtok":13263,"Ġimplied":13264,"Ġmac":13265,"ĠWIDTH":13266,"direction":13267,"Ġconsent":13268,"Ġretired":13269,"Random":13270,"Ġelig":13271,"wallet":13272,"ATOR":13273,"parts":13274,"UV":13275,"Ġdies":13276,"Ġprecisely":13277,"Ġmembership":13278,"sis":13279,"getId":13280,"linux":13281,"Ġrecognize":13282,"$$\\":13283,"ACH":13284,"Win":13285,"Ġexpectations":13286,"anim":13287,"Ġchampion":13288,"ĠRO":13289,"Ġkil":13290,"350":13291,"Ġmarks":13292,"Ġdecrease":13293,"Ġsuppose":13294,"adi":13295,"ĠVari":13296,"Bet":13297,"Ġreleases":13298,"ĠPit":13299,"(\"#":13300,"Because":13301,"Ġcomic":13302,"Ġasks":13303,"Ġpersonally":13304,"Ġaims":13305,"jan":13306,"chestra":13307,"Ġstake":13308,"HD":13309,"Ġoscill":13310,"Ġreb":13311,"Ġalias":13312,"ĠIndones":13313,"dispatch":13314,"Border":13315,"ervation":13316,"Ġoptimization":13317,"ĠKit":13318,"via":13319,"Ġox":13320,"Ġassistant":13321,"Ġinsight":13322,"Ġoverflow":13323,"Ġhybrid":13324,"Ġ\".":13325,"uggest":13326,"oda":13327,"Bounds":13328,"Ġhur":13329,">;":13330,"photon":13331,"Ġtrading":13332,"Ġfrust":13333,"selection":13334,"1965":13335,"Notes":13336,"Ġengage":13337,"ĠConfiguration":13338,"Ġnotation":13339,"coln":13340,"Ġham":13341,".*;":13342,"Life":13343,"ichol":13344,"Span":13345,"jax":13346,"Ġbrilliant":13347,"Ġclusters":13348,"Ġfewer":13349,"sch":13350,"mount":13351,"]))":13352,"sequence":13353,"elson":13354,"_)":13355,"ĠCole":13356,"iverpool":13357,"vi":13358,"January":13359,"Ġenthus":13360,"ogeneous":13361,"ĠAfghan":13362,"eland":13363,"Ġhealthcare":13364,"ĠSeattle":13365,"Ġdiscipl":13366,"odot":13367,"ĠHarris":13368,"Austral":13369,"GroupName":13370,"RESS":13371,"ĠMit":13372,"igious":13373,"Ġunf":13374,"Ġrepository":13375,"ĠHoly":13376,"uted":13377,"Ġ\"'":13378,"Ġsupplement":13379,"Ġracing":13380,"ĠDVD":13381,"Weight":13382,")--":13383,"dk":13384,"Ġweren":13385,"Ġwebsites":13386,"oli":13387,"June":13388,"ikes":13389,"Ġbars":13390,"LD":13391,"Ġrefuge":13392,"Ġqualified":13393,"ĠQuery":13394,"ĠNHS":13395,"Ġlaid":13396,"Ġhorizontal":13397,"Timestamp":13398,"ensing":13399,"Ġinstallation":13400,"NUM":13401,"ĠGab":13402,"ymmetric":13403,"Ġmedal":13404,"Ġwhenever":13405,"ĠCaptain":13406,"=%":13407,"Ġneutral":13408,"uscript":13409,"\"=>\"":13410,"Ġgained":13411,"ĠFC":13412,"Ġweights":13413,"CONFIG":13414,"Ġdeals":13415,"Ġhosts":13416,"Same":13417,"MF":13418,"Dan":13419,"DATE":13420,"prom":13421,"repository":13422,"Ġmaxim":13423,"ĠOP":13424,"ĠHope":13425,"Optional":13426,"ĠConsider":13427,"ĠBarn":13428,"Cr":13429,"Ġhint":13430,"ulum":13431,"Points":13432,"Holder":13433,"uber":13434,"}&":13435,"ĠPed":13436,"frag":13437,"ĠArgent":13438,"ĠOregon":13439,"ĠCC":13440,"sdk":13441,"Ġuniversal":13442,"Ġperiods":13443,"ĠPremier":13444,"Material":13445,"uz":13446,"103":13447,"Az":13448,"ĠGh":13449,"Ġ$-":13450,"mapping":13451,"Signature":13452,"ocratic":13453,"Lib":13454,"ĠJson":13455,"Ġroads":13456,"Ġvocals":13457,"Ġbrands":13458,"gz":13459,"Ġcub":13460,"deep":13461,"ĠKelly":13462,"ifting":13463,"ropical":13464,"________":13465,"Ġanchor":13466,"ĠTarget":13467,"uris":13468,"ĠEss":13469,"1964":13470,"ArrayList":13471,"Ġgoverning":13472,"LIST":13473,"ĠHan":13474,"history":13475,"Observer":13476,"ĠFun":13477,";|&":13478,"ĠIowa":13479,"ĠMI":13480,"Ġownership":13481,"Ġconvergence":13482,"Ġtd":13483,"\\|_{":13484,"transport":13485,"Ġwinners":13486,"ĠQueens":13487,"analysis":13488,"ĠCarl":13489,"remote":13490,"Tw":13491,"Ġescap":13492,"bec":13493,"omorphic":13494,"Ġmoral":13495,"Ġroutes":13496,"Ġshadow":13497,"ĠGaussian":13498,"Ġgang":13499,"Ġreducing":13500,"Ġweapon":13501,"ĠKorean":13502,"ĠÐ²":13503,"Ġsampling":13504,"Been":13505,"rooms":13506,"ĠYears":13507,"ĠMeg":13508,"libs":13509,"ĠNatural":13510,"ĠAllen":13511,"TAG":13512,"Ġcached":13513,"Runner":13514,"Introduction":13515,"ĠMonth":13516,"olves":13517,"ĠAppend":13518,"Missing":13519,"Ġ----------------------------------------------------------------":13520,")},":13521,"paragraph":13522,"Ġsummar":13523,"opes":13524,"Ġenforcement":13525,"orse":13526,"Ġbaseball":13527,"Ġconventional":13528,"ĠSmart":13529,"ĠClasses":13530,"Ġprofit":13531,"lett":13532,"tery":13533,"Counter":13534,"mg":13535,"Ġstretch":13536,"Ġpursu":13537,"Ġdisable":13538,"Ġcourses":13539,"Ġsculpt":13540,"Accept":13541,"Ġslot":13542,"Must":13543,"Ġrejected":13544,"000000":13545,"ĠCastle":13546,"ĠPhill":13547,"Secret":13548,"elfare":13549,"Ġdirections":13550,"Ġphilosophy":13551,"gressive":13552,"ĠIsraeli":13553,"Ġquote":13554,"Metrics":13555,"Ġequally":13556,"Ġmanifold":13557,"Ġmachines":13558,"endo":13559,"Ġdiscussions":13560,"ped":13561,"poll":13562,"ĠCS":13563,"quant":13564,"Ġcutting":13565,"HOME":13566,"Ġreliable":13567,"Permission":13568,"BD":13569,"comb":13570,"Ġproduces":13571,"elements":13572,"Ãº":13573,"columns":13574,"NODE":13575,"lov":13576,"Ġpixels":13577,"Lear":13578,"ENV":13579,"Ġcomfortable":13580,"Ġpermit":13581,"topic":13582,"wen":13583,"March":13584,"!)":13585,"Ġworry":13586,"pb":13587,")}{\\":13588,"nit":13589,"ĠBan":13590,"Ġordinary":13591,"quarters":13592,"Ġpolitician":13593,"ĠWhich":13594,"ĠALL":13595,"Ġsensor":13596,"Ġasympt":13597,"{$\\":13598,"Ġtur":13599,"Ġnotion":13600,"Ġconcerning":13601,"ĠAst":13602,"Ġconsequence":13603,"Frames":13604,"UMMARY":13605,"Ġguidance":13606,"ĠIns":13607,"canvas":13608,"ĠMalays":13609,"Ġpainting":13610,"actual":13611,"Ġstrategic":13612,"LOW":13613,"timeline":13614,"obe":13615,"OPT":13616,"Ġmechanisms":13617,"ĠCoq":13618,"contact":13619,"uet":13620,"Errorf":13621,"***":13622,"ĠFL":13623,"Ġapilevel":13624,"atile":13625,"ĠÅ":13626,"ĠProtection":13627,"stud":13628,"Ø¯":13629,"Ġstrengthen":13630,"1024":13631,"ivities":13632,"FOR":13633,"Ġdesigns":13634,"logging":13635,"Prof":13636,"Ġpending":13637,"1945":13638,"phy":13639,"Ġentitled":13640,"ĠPL":13641,"ĠNic":13642,":'":13643,"orses":13644,"Ġsustainable":13645,"Ġemissions":13646,"ibration":13647,"ĠFa":13648,"rates":13649,"Series":13650,"ĠMicro":13651,"âĢ¦]":13652,"Feed":13653,"PN":13654,"Ġchildhood":13655,"olitan":13656,"Ġreact":13657,"ĠHung":13658,"Alloc":13659,"las":13660,"Ġquantity":13661,"alaxy":13662,"Observ":13663,"Ġvon":13664,"Ġpackages":13665,"Ġpin":13666,"viewport":13667,"Ġframes":13668,"BPACK":13669,"ĉĉĠĠĠ":13670,"lined":13671,"STATUS":13672,"San":13673,"Touch":13674,"anka":13675,"makers":13676,"Ġlights":13677,"Ġorig":13678,"andal":13679,"Bits":13680,"Ġglad":13681,"Ġreaching":13682,"ĠOntario":13683,"Ġguarantee":13684,"Green":13685,"ĠSend":13686,"ĠPolitics":13687,"Ġbirds":13688,"puted":13689,"White":13690,"Ġdefeat":13691,"ĠURI":13692,"Ġdogs":13693,"Ġmerely":13694,"regular":13695,"Ġliterally":13696,"Ġsessions":13697,"Ġrum":13698,"Ġtrends":13699,"Ġscattering":13700,"ĠEnc":13701,"referred":13702,"Ġheading":13703,"Ġtransferred":13704,"Ġdinner":13705,"107":13706,"Ġargue":13707,"ĠLas":13708,"Ġmolecular":13709,"Ra":13710,"å¤":13711,"ĠLeft":13712,"Ġnaturally":13713,"hal":13714,"Ġpredictions":13715,"Ġlumin":13716,"Ġidentification":13717,"Ġsomehow":13718,"archive":13719,"iture":13720,"Hook":13721,"Ġhopes":13722,"ĠMs":13723,"Ġnamely":13724,"ĉĠĠ":13725,"Ġboss":13726,"UBLIC":13727,"ortheast":13728,"ĠLock":13729,"<<":13730,"Ġoffices":13731,"Ġshopping":13732,"Updated":13733,"Ġcookie":13734,"ĠDeep":13735,"imitive":13736,"glyphicon":13737,"ĠAnnual":13738,"Columns":13739,"Ġtrials":13740,"oi":13741,"Ġroughly":13742,"Ġeastern":13743,"tl":13744,"Ġwaters":13745,"Ġtexture":13746,"Ġsatisfying":13747,"Ġtall":13748,"orce":13749,"COMM":13750,"ĠLiving":13751,"ĠWithout":13752,"ĠRey":13753,"bp":13754,"Ġliteral":13755,"ĠLaure":13756,"reason":13757,"108":13758,"Virtual":13759,"ques":13760,"previous":13761,"})$.":13762,"ĠEarly":13763,"Ġinitialize":13764,"burn":13765,"repeat":13766,"Bro":13767,"vet":13768,"best":13769,"AU":13770,"Ġadmitted":13771,"}{(":13772,"Ġjoy":13773,"Ġalpha":13774,"urrence":13775,"Ġgenu":13776,"rpc":13777,"Ġsubsid":13778,"ĠPersonal":13779,"achel":13780,"Ġcolspan":13781,"Ġsurvive":13782,"URCE":13783,"examples":13784,"anga":13785,"ĠSever":13786,"sha":13787,"\":\"":13788,"RUN":13789,"Ġturb":13790,"vard":13791,"abama":13792,"ĠHost":13793,"Ġprovince":13794,"Ġpushed":13795,"tensor":13796,"Ġ|=":13797,"106":13798,"esian":13799,"ĠRelations":13800,"Inner":13801,"(\"%":13802,"Ġaccordance":13803,"Contents":13804,"Ġbrown":13805,"}}^":13806,"market":13807,"ĠResult":13808,"Ġcarefully":13809,"Ġbreaks":13810,"Ġlosses":13811,"Live":13812,"Gui":13813,"}}^{":13814,"aro":13815,"ĠPier":13816,"Ġmaintained":13817,"rient":13818,"Expected":13819,"è¿":13820,"Given":13821,"ĠKr":13822,"Ġtaste":13823,"ĠNev":13824,"Ġcelebrate":13825,"Ġsevent":13826,"Ġcomputation":13827,"Ġtissue":13828,"repo":13829,"cline":13830,"grav":13831,"\">(":13832,"Ġ<-":13833,"ĠFant":13834,"ensitive":13835,"ventions":13836,"raig":13837,"Exists":13838,"ĠSweden":13839,"ĠWebsite":13840,"Ġgenre":13841,"ĠRoute":13842,"Ġfantastic":13843,"Ġprofiles":13844,"orted":13845,"Certificate":13846,"WI":13847,"itting":13848,"Ġtip":13849,"è®":13850,"Ġrelief":13851,"Ã©s":13852,"ĠFive":13853,"Ġfetch":13854,"Ġprivile":13855,"uther":13856,"Ġrobot":13857,"Mal":13858,"tol":13859,"ĠIndustry":13860,"URN":13861,"Ġdoors":13862,"Theorem":13863,"July":13864,"Ġconcepts":13865,"Ġdisorder":13866,"theless":13867,"Ġtimestamp":13868,"ĠML":13869,"ĠBuilder":13870,"igenous":13871,"iamond":13872,"ĠHad":13873,"maker":13874,"BER":13875,"Ð·":13876,"Ġsuffering":13877,"Ġmanaging":13878,"Ġprocessed":13879,"Ġjack":13880,"Ġcounts":13881,"Ġbeer":13882,"mapsto":13883,"115":13884,"Ġbuying":13885,"ĠPlant":13886,"Ġ{%":13887,"Ġelectro":13888,"ĠThough":13889,"Ġkne":13890,"rban":13891,"rules":13892,"(['":13893,"Ġcrazy":13894,"Ġsharp":13895,"LETE":13896,"Converter":13897,">()":13898,"asant":13899,"ulus":13900,"Deprecated":13901,"olds":13902,"Ġsynd":13903,"1966":13904,"Ġdefeated":13905,"aton":13906,"ĠMuch":13907,"Ġsigning":13908,"ĠHur":13909,"iah":13910,"oker":13911,"ĠThird":13912,"Ġnotification":13913,"ĠKy":13914,"ĠKal":13915,"tv":13916,"ĠAlan":13917,"usr":13918,"ĠDick":13919,"Ġfro":13920,"Ġrose":13921,"Ġentities":13922,"Ġconstitution":13923,"Ġhelpful":13924,"eyond":13925,"ĠRegional":13926,"Decimal":13927,"ĠPrice":13928,"ĠNothing":13929,"POS":13930,"surface":13931,"Ġqueries":13932,"iggs":13933,"alias":13934,"ĠHoward":13935,"Ġdisag":13936,"Ġembedded":13937,"Ġgoto":13938,"Ġdefic":13939,")\\\\":13940,"Ġpoetry":13941,"Ġneck":13942,"ĠAttorney":13943,"Ġdecent":13944,">'":13945,"execut":13946,"ĠSelf":13947,"rowse":13948,"Organ":13949,"Ġbreed":13950,"createElement":13951,"chunk":13952,"Ġcontributed":13953,"Ġforecast":13954,"Ġpixel":13955,"Ġscaling":13956,"ĠAqu":13957,"ĠMilitary":13958,"ividual":13959,"Ġdelegate":13960,"Ġproto":13961,">%":13962,"iere":13963,"'(":13964,"Ġfarmers":13965,"esc":13966,"agu":13967,"ĠOlympic":13968,"Ġmusicians":13969,"Ġundert":13970,"Dat":13971,"Ġoffensive":13972,"Ġguns":13973,"ĠTennessee":13974,"ĠVietnam":13975,"Ġfinger":13976,"ĠInteg":13977,"ĠChampionships":13978,"supp":13979,"Ġclone":13980,"Ġchecking":13981,"ĠVin":13982,"ucks":13983,"Ġpiano":13984,"ĠFollowing":13985,"Ġconfront":13986,"ExternalTask":13987,"Ġsymbols":13988,"idae":13989,"Ġdispatch":13990,"ĠÑģ":13991,"Ġeverywhere":13992,")$-":13993,"Ġleaf":13994,"arsing":13995,"uns":13996,"Ġweekly":13997,"Ġengagement":13998,"anchor":13999,"moment":14000,"ingers":14001,"Ġimproving":14002,"Reduce":14003,"ĠForum":14004,"ĠPoland":14005,"WEBPACK":14006,"Ġhospit":14007,"ĠSaudi":14008,"ĠImages":14009,"Sto":14010,"ragma":14011,"ĠBreak":14012,"fac":14013,"phase":14014,"Drawing":14015,"Ġenables":14016,"ĠRick":14017,"Ġmatched":14018,"Ġinherit":14019,"Ġchat":14020,"Ġaria":14021,"Ġenvironments":14022,"Ġdisp":14023,"Pad":14024,"(()":14025,"Foot":14026,"Arguments":14027,"ĠReserved":14028,"Ġfeelings":14029,"Ġhoping":14030,"ĠActive":14031,"Tom":14032,"Ġgenerating":14033,"Europe":14034,"mitter":14035,"ĠPsych":14036,"James":14037,"ĠJoh":14038,"Diagnostics":14039,"Switch":14040,"Ġdeeply":14041,"Leave":14042,"ĠSri":14043,"opsis":14044,"ASH":14045,"Ġdefinitions":14046,"ExternalTaskPojo":14047,"React":14048,"Ġlands":14049,"Ġgraphs":14050,"ĠKhan":14051,"ĠAustin":14052,"etition":14053,"Ġaside":14054,"ĠLess":14055,"Ġoutstanding":14056,"><!--":14057,"ĠInv":14058,"Ġdiseases":14059,"Ġjournalist":14060,"ocom":14061,"Ġmad":14062,"chell":14063,"Ġadjacent":14064,"VIE":14065,"Ġpret":14066,"timestamp":14067,"ĠEnvironmental":14068,"ĠInstall":14069,"Ġamplitude":14070,"Ġresolved":14071,"ĠHamiltonian":14072,"ĠEmb":14073,"Ġmini":14074,"Ignore":14075,"ĠStudent":14076,"Authentication":14077,"Ġbrothers":14078,"rama":14079,"ĠLLC":14080,"cursor":14081,"Ġfavourite":14082,"ĠMas":14083,"RS":14084,"ĠEag":14085,"Ġgovernments":14086,"Ġportray":14087,"Ġexploration":14088,"sure":14089,"Bool":14090,"Ġplaceholder":14091,"tooltip":14092,"Coin":14093,"Ġsubsequently":14094,"Ġanymore":14095,"Ġinfection":14096,"books":14097,"Ġtraject":14098,"witzer":14099,"Ġforever":14100,"Reset":14101,"Ġvocal":14102,"olving":14103,"ĠClick":14104,"Ġboundaries":14105,"ĠBowl":14106,"Ġcenters":14107,"Ġspokes":14108,"Supported":14109,"Separ":14110,"beat":14111,"9999":14112,"Machine":14113,"ologists":14114,"xygen":14115,"ĠTel":14116,"ĠEpisode":14117,"Ty":14118,"Ã¥":14119,"Ġpump":14120,"Ġspiritual":14121,"Ġmanual":14122,"ĠSTART":14123,"jb":14124,"License":14125,"ĠDOM":14126,"Ġscoring":14127,"Ġpublishing":14128,"THER":14129,"uh":14130,"IMPORTED":14131,"âĦ":14132,"ĠHum":14133,"period":14134,"Rober":14135,"Ġcollections":14136,"ĠAmong":14137,"router":14138,"ĠPa":14139,"Ġmath":14140,"Donald":14141,"Ġpharm":14142,"ĠConvert":14143,"displaystyle":14144,"Ġranked":14145,"ean":14146,"fish":14147,"Ġrefused":14148,"Ġorientation":14149,"fp":14150,"ropic":14151,"Ġentreprene":14152,"ĠSUMMARY":14153,"Ġconstantly":14154,"Ġweird":14155,"uj":14156,"Present":14157,"Ġtrivial":14158,"/*!":14159,"atted":14160,"Rot":14161,"izard":14162,"Ġreputation":14163,"DM":14164,"Ġinclusion":14165,"ĠMedic":14166,"Ġassumptions":14167,"Three":14168,"Ġconservative":14169,"atibility":14170,"Ġ\">":14171,"ĠImport":14172,"ĠCT":14173,"Ġviewed":14174,"ĠFinance":14175,"Cancel":14176,"Ġiniti":14177,"atri":14178,"Ġæ":14179,"oni":14180,"Ġbike":14181,"ĠMelbourne":14182,"Week":14183,"cca":14184,"Ġtea":14185,"Ġnations":14186,"Ġmilk":14187,"LES":14188,"ĠDA":14189,"wx":14190,"ĠDean":14191,"August":14192,"ouver":14193,"Ġfilters":14194,"delay":14195,"Dispatch":14196,"Created":14197,"ARB":14198,"DEX":14199,"Ġcollective":14200,"oenix":14201,"Ġimprovements":14202,"ĠAlliance":14203,"iden":14204,"Aggreg":14205,"ĠColumn":14206,"April":14207,"bug":14208,"=&":14209,"getInstance":14210,"aura":14211,"Ġlogin":14212,"tah":14213,"Self":14214,"RECT":14215,"âĶ":14216,"ĠIter":14217,"dash":14218,"lee":14219,"ĠBor":14220,"Design":14221,"LEMENT":14222,"ushing":14223,"Ġdominant":14224,"ĠUlt":14225,"SG":14226,"×ķ×":14227,"Ġparticipation":14228,"ĠclassName":14229,"Ġelsewhere":14230,"ĠCreates":14231,"Ġguilty":14232,"Ġfs":14233,"Ġtheatre":14234,"Ġheaded":14235,"ĠNation":14236,"Ġscan":14237,"ĠHistoric":14238,"amount":14239,"cluding":14240,">(<":14241,"hill":14242,"added":14243,"olph":14244,"Ġcensus":14245,"berry":14246,"ĠCape":14247,"YS":14248,"charge":14249,"Ġaddressed":14250,"USA":14251,"itudes":14252,"ĠDuke":14253,"Ġpayments":14254,"Kit":14255,"Ġblo":14256,"iem":14257,"Ġtank":14258,"bors":14259,"ĠPeace":14260,"$~":14261,"spin":14262,"Related":14263,"Ġprohib":14264,"ĠSurvey":14265,"Ġfinance":14266,"PROC":14267,"Ġdipl":14268,"Linear":14269,"Ġdelta":14270,"ĠBureau":14271,"Ġgravity":14272,"ĠRic":14273,"OutputStream":14274,"Ġisolated":14275,"middle":14276,"Ġimg":14277,"ĠFlo":14278,"apple":14279,"ĠPerformance":14280,"ĠLater":14281,"orable":14282,"ocy":14283,"whel":14284,"Ġnan":14285,"Ġintersection":14286,"ĠStorage":14287,"lb":14288,"ĠSerial":14289,"Ġchrom":14290,"Ġsinging":14291,"LICENSE":14292,"ĠMissouri":14293,"BN":14294,"Ġstreaming":14295,"sing":14296,"Ġmeat":14297,"ĠArthur":14298,"NameLink":14299,"Ġtransportation":14300,"Culture":14301,"Ġbone":14302,"ĠAgric":14303,"('<":14304,"Ġantib":14305,"ĠVar":14306,"Ġassignment":14307,"igs":14308,"ĠMayor":14309,"Ġnovels":14310,"Ġrely":14311,"Ġconvenient":14312,"Ġ```":14313,"isen":14314,"idal":14315,"404":14316,"ĠDoc":14317,"çĶ¨":14318,"Ġshit":14319,"ĠĠĠĠĠĠĠĠĠĠĠĠĠĠĠĠĠĠĠĠĊ":14320,"ĠMcG":14321,"GEN":14322,"Ġinterviews":14323,"lahoma":14324,"marks":14325,"Af":14326,"Ġsoph":14327,"Ġtied":14328,"ĠSpirit":14329,"floor":14330,"folder":14331,"lon":14332,"prob":14333,"Ġovers":14334,"itarian":14335,"BUFFER":14336,"generator":14337,"Ġtaxes":14338,"witzerland":14339,"lope":14340,"Ġanniversary":14341,"ĠLeb":14342,"ĠBalt":14343,"Ġgenes":14344,"nos":14345,"Ġappreciate":14346,"Ġindependence":14347,"Ġfolk":14348,"Ġutility":14349,"Reason":14350,"secutive":14351,"FileName":14352,"]+":14353,"boy":14354,"emet":14355,"Ġclar":14356,"className":14357,"they":14358,"Ġentering":14359,"Ġmemories":14360,"Ġlegit":14361,"ĠBible":14362,"ĠPO":14363,"109":14364,"ĠMaryland":14365,"creens":14366,"Ġuri":14367,"lint":14368,"Tok":14369,"ĠGib":14370,"Ġimplicit":14371,"Ġbunch":14372,"Ġcompiler":14373,"lia":14374,"lad":14375,"SSION":14376,"ĠEuro":14377,"ĠMorgan":14378,"cls":14379,"oids":14380,"Ġinstruments":14381,"ĠMission":14382,"Ġenumer":14383,"oga":14384,"oose":14385,"omer":14386,"Ġpara":14387,"ĠMi":14388,"ĠRule":14389,"Therefore":14390,"ocent":14391,"tem":14392,"$;":14393,"Executor":14394,"åĬ":14395,"ĠSV":14396,"Resp":14397,"Management":14398,"unlock":14399,"Ġorbit":14400,"Warn":14401,"ĠCommunications":14402,"ILITY":14403,"Ġawesome":14404,"Promise":14405,"Ġloud":14406,"Ġunlikely":14407,"Packet":14408,"ĠFeature":14409,"EP":14410,"Ġsalt":14411,"FIX":14412,"Asset":14413,"Ġunusual":14414,"Ġreporter":14415,"Ġsupporters":14416,"ifestyle":14417,"bench":14418,"former":14419,"cong":14420,"ÐµÑĢ":14421,"Ġvirus":14422,"Ġtone":14423,"}))":14424,"ĠStudents":14425,"adoc":14426,"Ġedited":14427,"Ġusername":14428,"Ġgraduate":14429,"Ġinitiative":14430,"Ġattempted":14431,"ĠGrow":14432,"Ġaged":14433,"Ġrescue":14434,"ĠVegas":14435,"Enable":14436,"UCT":14437,"Ġske":14438,"XY":14439,"Ġceremony":14440,"Through":14441,"team":14442,"abetes":14443,"ishment":14444,"bn":14445,"ignore":14446,"ĠHell":14447,"Ġgent":14448,"ĠVillage":14449,"Ġwet":14450,"ateway":14451,"Ġshots":14452,"Delay":14453,"whe":14454,"pad":14455,"hbar":14456,"cycle":14457,"Ġcav":14458,"Ġingred":14459,"stry":14460,"Ġmanagers":14461,"publish":14462,"odo":14463,"Ġdesper":14464,"forming":14465,"Ġwx":14466,"iking":14467,"ĠChap":14468,"ĠZh":14469,"spot":14470,"ĠJudge":14471,"IMIT":14472,"]}":14473,"chat":14474,"QUEST":14475,"bridge":14476,"...)":14477,"Ġcock":14478,"Ġpsy":14479,"Ġhypothesis":14480,"Ġ&#":14481,"ssl":14482,"encoding":14483,"ĠNum":14484,"RAME":14485,"ĠByte":14486,"\\{\\":14487,"MPL":14488,"Ġmovements":14489,"ĠCredit":14490,"pal":14491,"Ġarrive":14492,"ĠPhilip":14493,"Ġpanels":14494,"Ġarrival":14495,"FD":14496,"Ġdestruction":14497,"Controls":14498,"IME":14499,"Ġbelongs":14500,"Ġpace":14501,"__)":14502,"Verify":14503,"Ġpodcast":14504,"ÏĢ":14505,"Ġassuming":14506,"Fixed":14507,"ĠMarine":14508,"Shader":14509,"ĠDownload":14510,"ĠDal":14511,",âĢĻ":14512,"Ġ---":14513,"(/":14514,"Ġorganisation":14515,"except":14516,"Hor":14517,"ĠBuffer":14518,"ĠSchools":14519,"rophy":14520,"essment":14521,"Ġexponential":14522,"fred":14523,"Ġrevers":14524,"oil":14525,"TIES":14526,"Tasks":14527,"Ġhandled":14528,"Stub":14529,"114":14530,"Ġtargeted":14531,"Ã¸":14532,"Rules":14533,"mov":14534,"esting":14535,"Ġmystery":14536,"Ġblind":14537,"Ġfiber":14538,"_-":14539,"ĠPaper":14540,"William":14541,"Ġcheap":14542,"ĠLinux":14543,"1963":14544,"cas":14545,"etics":14546,"iffs":14547,"Åį":14548,"Ġsatellite":14549,"associ":14550,"Ġextensions":14551,"ounces":14552,"Ġincorrect":14553,"complex":14554,"Ġdescribing":14555,"Ġcurrency":14556,"lings":14557,"Ġpenalty":14558,"ĠDa":14559,"ĠDun":14560,"Ġemerging":14561,"Ġdrum":14562,"nan":14563,"Ġreceives":14564,"Ġrestricted":14565,"ĠĠĠĠĠĠĠĠĠĠĠĠĠĠĠĠĠĠĠĠĠĠĠĠĠĠĠĠĠĠĠĠĠĠ":14566,"Ġaccompan":14567,"ĠWalker":14568,"Ġhang":14569,"SPACE":14570,"Ġillness":14571,"Ġads":14572,"Ġflows":14573,"ĠDatabase":14574,"rollers":14575,"Ġfunctionality":14576,"ĠParliamentary":14577,"NY":14578,"Ġsacr":14579,"Ġthorough":14580,"Ġkin":14581,"ĠBruce":14582,"Ġintervention":14583,"ĉĉĉĉĉĉĉĉĉĉĉ":14584,"Ġwidget":14585,"Share":14586,"ĠImmutable":14587,"glas":14588,"Ġbucket":14589,"Â·":14590,"estions":14591,"zech":14592,"Primary":14593,"wind":14594,"ĠInternal":14595,"FALSE":14596,"BT":14597,"Ġcycl":14598,"crement":14599,"Ã©e":14600,"metic":14601,"ĠRu":14602,"ĠJS":14603,"Research":14604,"ĠĠĠĠĠĠĠĠĠĠĠĠĠĠĠĠĠĠĠĠĠĠĠĠĠĠĠĠĠĠĠĠĠĠĠĠĠ":14605,"verify":14606,"Ġrailway":14607,"ĠNik":14608,"Ġtrim":14609,"ascular":14610,"ENABLE":14611,"Ġoblig":14612,"Ġcir":14613,"Ġexpertise":14614,"FM":14615,"Ġwireless":14616,"ĠConst":14617,"embed":14618,"Ġeating":14619,"ĠStories":14620,"Ġmixing":14621,"Ġsimultaneously":14622,"getString":14623,"ÅĤ":14624,"perm":14625,"ĠOtherwise":14626,"proposition":14627,"ĠOptions":14628,"ardo":14629,"restling":14630,"=$":14631,"elve":14632,"strings":14633,"ĠPast":14634,"ĠVolume":14635,"ĠUtil":14636,"DED":14637,"ĠGer":14638,"Ġconfigured":14639,"RANTIES":14640,"piece":14641,"ouses":14642,"ĠPlatform":14643,"ĠCooper":14644,"igator":14645,"Ġacquisition":14646,"unches":14647,"ĠHeritage":14648,"iop":14649,"Ġtact":14650,
[...]
