#version: 0.2
Ġ Ġ
ĠĠ ĠĠ
t h
i n
o n
e r
Ġ a
r e
Ġ th
t i
e n
Ġth e
o r
a l
Ġ s
t e
Ġ c
i s
l e
ĠĠ Ġ
a r
ti on
a n
ĠĠĠĠ ĠĠĠĠ
e s
Ġ o
Ġ \
Ġ f
Ġ t
Ġ p
Ġ w
Ġ $
r o
in g
d e
a t
a s
Ġ in
Ġ b
Ġo f
n d
e t
m a
i c
a c
e d
i g
a m
i t
e l
en t
s t
Ġa nd
Ġt o
o u
Ġ m
e c
Ġ re
Ġ d
Ġ n
a tion
o m
Ġ h
ĠĠĠĠ ĠĠĠ
{ \
Ġ =
Ġ (
o l
Ġ e
a te
i l
Ġ is
u r
č Ċ
l o
t r
ĉ ĉ
i d
q u
< /
u l
a b
c e
s e
i m
T h
_ {
= "
u m
g e
Ġf or
o t
v e
r a
v er
) ;
i f
c h
s i
Ġ g
- -
Ġ S
Ġ$ \
u n
l y
Ġ <
Ġ l
Ġ {
en d
Ġc on
t er
Ġ v
a d
u s
h t
i th
ma th
Ġth at
ĠĠĠĠĠĠĠĠ ĠĠĠ
Ġ &
Ġ C
u t
Ġ on
Ġ A
r i
as s
e g
p h
/ /
t a
Ġ I
Ġ de
i te
o w
Ġ *
re s
} \
Th e
Ġb e
x t
Ġa s
p p
c al
re f
u b
Ġw h
} $
Ġp ro
Ġ }
i r
am e
^ {
Ġw ith
o de
o d
Ġ Ċ
in e
s p
" >
Ġa l
l ass
t s
Ġa n
ig ht
o p
u re
c tion
2 0
u e
an d
Ġ M
l i
Ġw e
ĠĠĠĠĠĠĠĠ ĠĠĠĠĠĠĠĠ
er e
e w
a y
p er
te d
Ġe x
m ent
} }
Ġs t
it y
p e
Ġ P
es s
d i
Ġb y
( \
Ġ F
o re
ĠĠĠĠ Ġ
â Ģ
r ac
Ġc om
eg in
Ġa re
Ġ "
c t
ti c
Ġth is
Ġ B
ab le
ro m
b egin
( )
t y
ec t
ou r
Ġ R
u p
e m
Ġ L
te xt
a ge
is t
Ġ The
Ġ or
er s
ti m
Ġ D
Ġ T
. .
* *
Ġ it
Ġ H
ur n
Ġc lass
_ {\
) $
a p
e qu
i z
I n
Ġ N
si on
o c
Ġa t
f or
Ġ if
} {
Ġ E
Ġ W
et a
p ar
= =
l ic
Ġ ma
or t
o s
c on
Ġ -
} ,
in t
im p
r ight
r an
es t
k e
f rac
Ġf rom
-- --
l u
Ġs h
t urn
0 0
f t
c ite
ac k
ab el
e q
t o
Ġ G
as e
ig n
a v
Ġc h
f f
g et
ac e
} )
a g
i le
Ġ '
al l
f ig
at a
lo w
Ġ +
ĠĠĠĠĠĠĠĠ ĠĠĠĠĠĠĠ
ac h
l d
i b
p s
a ve
Ġ le
a re
i v
un ction
l abel
Ġs u
math b
y s
th er
, \
Ġp ar
ic h
p le
s er
st r
ate d
Ġc an
te m
ti ve
p ro
ar y
en ce
Ġ u
Ġ us
p l
ec tion
c om
Ġ y
y pe
al ue
$ ,
r m
b er
n t
$ .
Ġ O
Ġs p
Ġn ot
il l
d s
an t
ation s
o g
ul t
math cal
Ġ [
en er
) .
Ġ Th
Ġ r
Ġ //
le ft
equ ation
} .
) ,
ti al
.. /
c c
Ġ </
tion s
d u
ĉĉ ĉĉ
20 1
el l
Ġre turn
ro w
- >
s s
an g
p t
s et
ti l
our ce
in d
: :
lo c
Ġh ave
Ġre s
tr ing
c ri
} (
Ġs e
i de
Ġwh ich
C on
ode l
Ġw as
ac t
l ine
ĠI n
Ġm e
ou t
f er
~ \
} _
} ^
Ġd is
Ġ un
an ce
or k
i es
Ġo b
Ġ U
s um
Ġf unction
i re
j ect
d er
ta in
p ut
b o
on g
ph a
1 9
o st
c lu
m l
ra y
Ġ i
e x
al pha
i al
Ġa pp
ub lic
an s
1 0
Ġ @
v el
di v
âĢ Ļ
Ġ lo
f in
as t
p on
) \
o ver
at or
b le
en s
d a
ic al
Ġ j
i el
Ġ k
Ġa d
( "
u nd
for m
Ġs et
Ġn ew
> </
am b
el f
i on
p tion
ess age
Ġh as
tim e
Ġ J
Ġ /
( );
s o
s ub
sp an
ou ld
" ,
ul l
ar d
or y
ar i
Ġal l
> <
amb da
a k
en c
e ar
Ġa r
re e
o f
ent s
ou s
$ \
' ,
Ġ qu
p o
am ma
Ġp o
ic e
om e
eg a
Ġ V
a th
a pp
_ \
w e
../ ../
y m
m u
s h
imp ort
Ġ\ \
= \
Ġin ter
ow n
---- ----
l l
on e
Ġp er
i p
tr ib
mathb b
d ot
h o
r or
um ber
u st
d ing
S t
id th
Ġ :
a u
} _{
ite m
Ġd o
ou nd
ti t
Ġ .
} ^{
Ġon e
ig ma
Ġex p
ĉĉ ĉ
iz e
de d
tim es
Ġw ill
) )
n ame
o k
ht ml
- \
u al
ra ph
ys tem
le ment
== ==
Ġs tr
i ew
u tion
Ġ te
Ġh e
Ġ K
Ġh ref
Ġn o
Ġn e
or m
Ġe v
Ġm odel
w o
m in
ir st
ĠĠĠĠĠĠĠĠ ĠĠĠĠĠĠĠĠĠĠĠ
l ation
r y
ph i
p i
th e
ul ar
ate s
Ġd ata
ti es
Ġb o
c re
^ {\
u g
Ġ |
** **
Ġ* /
E x
th od
P ro
ĠĠĠĠĠĠĠĠ Ġ
l a
b ar
b f
u te
ro up
' s
c ol
ig h
Ġp ublic
( '
iel d
n e
l ambda
o id
s ection
in k
Ġ {\
s ource
1 2
m s
Ġn ame
Ġp re
Ġl ine
is h
Ġp l
o b
th is
Ġcom p
mathb f
u le
i x
ol low
Ġv alue
y n
b ol
Ġ en
Ġ âĢ
m essage
am ple
al ign
ar k
a in
Ġo ut
Ġal so
ou n
Ġcon st
ar t
h at
res s
Ġd if
Ġcon t
e f
N ame
E R
Ġg et
Ġ ver
il on
c ent
in al
Ġt ype
v ar
o te
ps ilon
tr ans
ĠW e
Ġa b
in f
am et
Ġ _
i a
de x
Ġt wo
Ġ= >
t d
at ch
Ġt ran
Ġ time
Ġ x
Ġf ollow
Ġs ub
or d
Ġin t
c ode
20 0
s igma
w idth
ar g
ic s
si tion
Ġth ere
s c
de f
v al
O N
Ġc ol
u ct
le d
} {\
al se
T ype
Ġ( \
loc k
clu de
w h
Ġo ver
Ġ ro
b eta
cri pt
Ġg ener
Ġsu ch
Ġb ut
S tring
^{ -
en g
I d
Ġcon s
Ġo ur
de l
Ġ imp
Ġe qu
Ġ #
Ġfor m
Ġde f
W e
h e
math rm
til de
Ġc or
Ġwh ere
Ġt r
ĠTh is
e p
Ġo p
ma tion
\ \
Ġd es
I N
u es
nd er
ar ray
Ġm ore
* }
il d
# #
Ġc ase
id er
Ġon ly
o v
ou nt
p r
e v
/ >
+ \
g amma
Ġ `
Ġo ther
ti cal
Ġan y
th eta
ti f
Ġ id
] {
Ġb et
Ġs o
g r
Ġsp ec
Ġit s
ri v
u d
re turn
Ġ ra
Ġ up
ter n
Ġdif fer
Ġre g
ke y
x i
" />
^ \
Ġwh en
Ġre p
Ġth en
) }
1 1
r ho
fig ure
c lass
C om
or s
del ta
le q
Ġv al
du c
ur re
im e
Ġf irst
er v
Ġs ome
ty pe
Ġs elf
t ing
il ity
Ġre qu
d d
an n
S T
o se
Ġthe ir
par am
is e
ser v
trans lation
Ġa cc
ta u
R es
c ess
: //
p end
Ġp h
Ġu se
R E
Ġe ach
t t
c dot
Ġg iv
Ġsh ow
w ork
C h
Ġw ork
Ġ el
Ġth an
er ror
z e
$ -
Ġc o
c ap
Ġs ta
1 6
}$ ,
ul ts
Ġs ol
Ġ !
}$ .
b ig
it s
g er
Ġ --
r ic
Ġre sp
on d
eq ref
Ġy ou
we en
lo g
} (\
di tion
ec k
ro und
at ing
_ _
u res
at ure
ti v
t on
Ġn umber
Ġbe en
L ist
Ġm an
in ce
Ġs a
s ec
Ġa c
ĠC h
T o
1 5
en sion
m p
Ġ >
te x
ar ch
Ġ= =
Ġa g
A T
bo x
f o
eng th
res ent
Ġus ed
âĢ Ŀ
Ġbet ween
as h
sp ace
Ġn ull
le s
am es
le c
as ed
Ġst ate
par tial
Ġw ere
e xt
Ġthe y
Ġme thod
a ult
Ġtran s
i an
Ġthe se
ar row
Ġs ystem
inf ty
ce ption
on t
Ġcom m
ht t
p re
a x
d ic
| \
Ġ end
"> <
D el
p m
1 8
om ega
urre nt
a il
Ġus ing
if ic
Ġv ari
n u
m all
Ġt ra
Ġs c
ma ge
Ġu nder
Ġin to
Ġres ult
ĠĠĠĠĠĠĠĠĠĠĠĠĠĠĠĠ ĠĠĠĠĠĠĠĠĠĠĠĠĠĠĠĠ
Ġpro v
g es
f ore
Ġ Y
Ġl i
E n
on s
Ġv ar
as k
at er
in clude
Ġh igh
ĠS t
re ad
ma in
n ing
Ġn on
Ġb ec
an c
Ġv oid
um ent
1 3
loc ation
ĠĠĠĠ ĠĠ
Ġde fin
ĠĠĠĠĠĠĠĠ ĠĠĠĠĠ
er m
Ġ )
Ġf alse
iz ation
Ġh is
f ter
Ġapp ro
O R
ul ti
Del ta
I D
o ve
u c
2 5
i ed
en tial
Ġpar amet
l ang
Ġtr ue
A R
oc k
n ew
s f
) :
y le
b ack
m e
Ġ$ (
g y
Ġgiv en
tit le
str ing
iz ed
g le
al s
eq n
um n
L E
res pon
qu ad
1 4
ĠF or
Ġe ff
per ty
si ze
Ġin v
ment s
ad er
f ile
an ge
ec ted
ation al
Ġp a
A r
at ri
" );
) );
Ġma y
e ver
ĠI t
} [
Ġg o
s on
d ata
Ġ z
er y
riv ate
le ct
g raph
a tive
Ġc al
i e
ar get
ol og
F or
Ġ X
Ġm od
r t
s q
atri x
cent er
ay s
ad d
} }\
d is
ir c
ym bol
R e
Ġte st
S S
O b
b e
-------- --------
Ġp ol
Ġs im
Ġs ame
ore m
Ġo per
\ ,
r it
n i
Ġor der
)$ .
Ġch ar
le m
ach e
a w
P ar
le ction
Ġ Q
s elf
al ly
// //
ĠâĢ ľ
s im
Ġdiffer ent
C ol
or g
V alue
Ġf e
Ġab out
av a
au se
ĠĠĠĠĠĠĠĠĠĠĠĠĠĠĠĠ ĠĠĠĠĠĠĠ
Ġpar tic
v alue
n b
**** ****
t able
ac tion
o le
ug h
Ġe xt
D ata
Ġs tring
' )
e psilon
ex p
Ġs ign
Ġel se
n ot
E N
ra w
n g
Ġcons ider
st ance
Ġfollow ing
A L
es ti
as es
r ame
g or
Ġcom ple
con t
ver s
d ate
t ab
O m
$ $
i ve
Ġw ould
Ġres ults
ol d
s u
3 2
Ġob tain
Ġsu pp
wh ere
for mation
Ġ& &
g h
} _{\
ec ts
S et
re qu
Ġp r
Ġc re
Ġs ec
u il
f ace
ect or
ĠP ro
Ġd ire
n o
Ġ čĊ
m od
Om ega
ab ility
Ġde c
Ġf act
te st
cal e
Ġre l
ĠĠ Ċ
p si
==== ====
. ,
ic k
text bf
s cript
p os
" )
er t
nb sp
vel y
Ġf ield
e y
b m
Ġa m
Ġor g
1 00
n er
1 7
Ġb ack
Ġk n
ro id
in ts
v i
pl ay
li ent
] ;
Ġf inal
b r
ĠF ig
Ġm in
enc y
Ġ/ **
p x
r ror
( $
v iew
Ġ error
D E
)$ ,
^ *
c m
is ts
od y
t en
t op
ic i
eqn array
sq rt
v ent
trib ute
ro ugh
et work
ri te
is ion
3 0
ĠĠĠĠ Ċ
um er
sub section
m er
w ide
Ġg roup
Ġse e
} ;
G amma
ver y
2 1
Ġbo th
cap tion
Ġm ost
ma te
u th
Ġw ell
r c
in s
Ġas s
or der
P h
Ex ception
Ġme as
S E
Ġp e
y p
Ġf ile
Ġdis c
Ġan al
ot s
B y
] ,
ser t
graph ics
d es
il y
ch i
Ġre c
i tial
Ġsta tic
ar ge
v are
re am
erv ice
Ġsh ould
Ġ %
w w
c o
ro l
Ġpro cess
vare psilon
Ġdis trib
f unction
2 2
ing s
i tion
f ra
Ġy ear
5 0
po sition
\ !
pon ent
Ġper form
Ġval ues
ti vely
Ġstr uct
C T
Ġ// /
ow ever
A s
Ġh ad
m ary
m et
am p
Ġ low
include graphics
m on
a ke
et s
Ġe lement
Ġp os
Ġsp ace
ic t
Ġof f
ĠC om
l er
Ġwh o
i ties
Ġdes cri
Ġpo int
() .
u ff
ĠS tring
Ġ ed
l ink
^{ (
} =
ĠI f
al ity
}^ {\
in es
ener gy
el y
le ar
in ter
ire d
Ġpro ble
il ter
ĠC on
gor ith
Ġ$ {\
Ġb ound
Con t
im ension
re d
j s
at us
A N
19 9
Ġd en
Th is
) =
st yle
si ble
ish ed
orm al
m is
ran gle
ro ll
Ġ! =
Ġs ize
E rror
lo b
ĉĉĉĉ ĉ
i er
Ob ject
Ġcon tain
Ġp rivate
Ġas sum
em ph
() );
I T
Ġob serv
m an
Ġcor respon
Ġad d
n av
le t
in dex
Ġth rough
Ġin clu
ou gh
g o
p ublic
is m
Ġin te
n on
Ġa fter
ma x
ti ty
Ġar g
m and
"> </
ens ure
. _
Ġlo cal
str uct
Ġex ample
Ġs ur
M E
res sion
right arrow
b ed
ur ation
V iew
G et
Ġs mall
Ġwh ile
ul ation
Ġ ran
ge q
2 4
b y
qu ot
Ġf in
. </
Ġ\ ,
Ġw or
ĠA s
Ġdo es
. ~\
at ter
tr y
l ay
c es
. }
ow er
C lass
Ġ| |
er r
il ar
Ġ right
C O
Ġs te
var phi
iel ds
are nt
ur l
g roup
Ġex per
n ode
qu e
oc i
col or
Ġ Z
l im
6 4
pro of
re m
Ġd i
f ul
Ġt er
ur ing
b l
! --
Ġl im
de pend
re g
Ġl ong
ut o
ro ss
A t
Ġc urrent
" ;
Ġs ing
F ile
vel op
s ing
are d
er n
D e
[ '
s ed
Ġthe m
Ġs er
v ec
Ġ import
Ġs imp
cc ess
ind ow
con st
ac ter
ĠH e
Ġe very
B ig
er o
bol ds
v en
K ey
Ġc lo
Ġp res
ro p
bolds ymbol
Ġne ed
fra k
le ss
../../ ../../
l ist
Ġmeas ure
Ġ key
lo ad
g round
' '
ite d
Ġpar t
c or
Ġle t
T est
m it
Ġ tem
se e
P o
d t
Ġd ist
] .
htt p
m ed
Ġs ch
p ace
Ġ energy
over line
Ġh and
u tions
Ġn ow
p ath
}, \
u ch
[ \
re ak
Ġf ind
e e
U n
S h
& \
am s
ol ution
=" +
Ġm ulti
R equ
Ġm ass
Ġb el
com p
' );
en se
h line
3 3
Ġ ent
m odel
m o
b in
Ġde pend
Ġf ound
s k
oc ument
Ġc ent
}) .
ec tive
w ith
Ġs ection
em ber
Ġdefin ed
Ġin cre
Ġma x
ack age
.. .
enc es
Ġl ist
Ġgener al
` `
if ied
Ġbec ause
ĠA l
math frak
St ate
) ^
Ġ ,
Ġth ree
Ġst ar
per ties
en ted
Ġcor re
Ġc all
() ,
bo ve
v oid
} }$
Ġli ke
O p
ĠE x
vi ous
4 0
00 0
Ġst ud
Ġcont in
en tif
Ġrep resent
sum mary
' ]
Ġcon n
duc ed
Ġ/ >
i o
Ġs ince
Ġin formation
Ġl arge
op le
Ġa bove
us er
op y
Ġob ject
Ġr un
ma p
du ction
Ġ title
ic es
gorith m
Ġto p
L L
un c
ens ity
Ġc ould
ag er
Ġn etwork
Ġsec ond
yn am
H e
Ġm et
ical ly
w ard
ld ots
fer ence
Ġre al
L et
lang le
ĠA r
n ess
Ġmodel s
ot t
A C
T ime
p or
s l
op e
Ġin put
b it
c i
si ve
tic s
T ext
od es
se arch
k s
I ON
lic ation
ensure math
u di
u ild
Ġ esti
uff er
L ambda
P E
E vent
Ġwh at
Ġfollow s
Ġver y
Ġman y
R O
2 3
Ġre m
w ar
Ġn ode
ur al
if y
p ec
Ġh el
s te
tr a
Ġ ?
A n
Ġal low
A l
te s
d f
Ġsh own
us h
Ġma in
Ġh er
" :
l ength
tex tit
de fin
u til
Ġh ow
ce pt
u se
M an
and om
c irc
Ph i
L A
n ab
m m
Ġproble m
ix ed
Ġprov ide
Ġt arget
du ct
tern al
Ġev en
T E
Ġc ur
an e
I C
ut ton
Ġparamet ers
6 0
htt ps
O n
Ġm ust
cite p
ĠU n
Ġre ad
Ġp ath
Ġdire ct
Ġin itial
Ġreg ion
re n
ĠA n
B o
e ff
. \
app a
ym met
) (
o ther
ur ther
ti ce
if t
pp er
N ode
Ġ-- >
lob al
nab la
es sion
Ġst art
Ġma ke
Ġ( $
it er
ag es
8 0
' :
e ma
Ġle ad
I tem
Ġle vel
k ing
Ġa ction
E lement
or ph
ames pace
b ers
Ġc oun
Ġy our
Ġg ra
an ts
## ##
\ |
c l
Ġt ak
Ġlo g
k appa
Ġsu per
P ath
Ġb ased
Ġappro ach
Ġpl ay
ti sf
Ġma g
op er
olog y
con fig
or ted
L o
mis sion
f rom
Ġpro b
c ted
Ġbe ing
W ith
Ġtra in
In fo
ĠR e
m box
i j
In dex
st er
cri ption
ĠD e
/ *
\ %
Requ est
Ġde ter
T R
ator s
/ **
Ġg raph
Ġsa id
ole an
Ġcal c
ta il
Ġpe ople
Ġ q
Ġs um
Ġm on
able s
Ġdistrib ution
ann el
} )$
ĠĠĠĠĠĠĠĠĠĠĠĠĠĠĠĠ ĠĠĠĠĠĠĠĠĠĠĠ
ĠN ew
Ġra di
ĠW h
ys is
P I
tr ue
Ġw ay
= '
row s
Ġ );
}) ,
a us
Con text
es e
Ġs ample
ri de
() )
Ġsim ilar
ec h
Ġag ain
as on
Ġl ast
b ody
" "
og le
id es
tiv ity
ver sion
Ġter ms
Ġj ust
Ġ` `
Ġth ose
a ir
Ġpartic ular
Ġbe fore
f ield
d raw
i or
th ing
Q u
E qu
v ir
Ġparamet er
ver t
Ġc ode
Ġh ere
a pe
si tive
Ġle ar
is ter
Ġev ent
Ġd at
Ġle ft
Con fig
in put
j ects
o times
im um
Ġchar acter
re at
F orm
Ġm y
A pp
ual ly
du ce
Ġma p
Ġus er
2 7
' t
si de
t al
dot s
Ġm atrix
Ġkn ow
Ġ: =
u ted
om et
b lock
Ġc ap
Ġsa tisf
Ġt yp
ĠR es
4 5
st ate
ĠâĢ ĵ
Ġde velop
Ġor ig
u ction
ent ly
9 9
ic on
Ġ} );
M e
O ver
}} {
Ġre f
Ġa ct
Ġb l
non umber
ac es
er tain
our ces
at ures
an y
Ġcon fig
ĠTh ere
ou ble
en e
Ġ text
Ġsing le
' ;
Ġd er
ap i
Ġ( !
lec ted
Ġad dition
Ġresp on
In t
uil der
A dd
ĠTh en
\ [
Ġb lock
M ap
Ġst and
Ġcon text
center ing
Ġver sion
ule s
lu g
S igma
Ġar ray
Ġb as
r id
w n
Ġfunction s
Ġ} ,
[ ]
ĠT o
ott om
U R
7 5
Ġv is
Ġch eck
ĠS h
~ ~
S ervice
ap ache
//// ////
tt p
ib le
Ġdisc us
Ġin dex
R ec
Ġas sert
{ -
C ode
=" ../../../../
Ġs ource
Ġe mp
Ġex ist
ot ential
ĉ Ċ
/ \
iv ed
val id
Ġpre dic
c ed
Ġin stance
v es
Ġpa per
end s
f e
Ġstruct ure
+ +
\! \!
u i
lec tr
Ġf il
ma ges
Ar ray
Ġf l
Ġcont ent
ec tively
Ġlim it
S ize
gr am
Ġm em
Ġyear s
pl ate
L O
Ġin dic
Ġsol ution
lo at
Ġi mage
v ed
Ġs equ
Ġv iew
F F
ne xt
2 8
it u
Ġsh e
Ġop tim
I t
Ġshow s
Ġc l
Ġch o
Ġh y
m d
Ġ/ *
Ġp resent
D es
Ġp ass
til l
Ġinte gr
Ġun i
Ġp ower
Ġre la
it or
o in
g t
Ġd ue
w ord
tab ular
Ġde te
if e
Ġdef ault
Ġm o
r on
Ġpo ints
wide tilde
Ġexper im
fo ot
o ff
lo t
en u
b ra
yn c
he ad
Ġbe h
Ġobtain ed
i od
ign ed
ate g
O r
Ġne xt
st a
ti s
ra g
Ġin st
Ġpos sible
id d
2 6
M L
il li
o ol
Ġs rc
oc us
ver se
> &
Ġst ates
Ġcorrespon ding
an el
V er
201 7
Ġwith in
k n
M A
ust om
} -
O f
b ase
str uction
k et
I f
Ġline ar
ĠH owever
Ġd ensity
9 0
Ġcon dition
F ig
s mall
w it
3 5
Ġequ ation
******** ********
cont ent
cre ate
Ġme an
y c
Ġm ed
Ġs cal
Ġ enc
cal l
li es
ile d
d own
et urn
po int
Ġm atch
M essage
A D
H and
ĠL et
f l
Ġran ge
0 1
di tions
Ġc ar
i k
pro p
l and
Ġd uring
g ener
Ġwith out
Ġa uth
Ġden ote
L e
U T
201 8
z eta
or ding
ou se
Ġconst ant
20 20
Ġf am
ob ject
c ss
S e
or ts
Ġj ava
I G
v ail
lo y
; &
Ġop en
iv al
um e
M odel
res ult
able d
T ran
E D
I S
F ield
Ġrequ ire
is tic
Ġw idth
Ġstud y
anc es
def ault
ĠĠĠĠĠĠĠĠ ĠĠĠĠ
A B
Ġint ro
V al
\ ]
i i
se m
Ġto tal
ch eck
Ġpre vious
201 6
Ġass oci
N o
Ġt ri
) {
\ {
Ġm uch
Ġ et
ĠĠĠĠĠĠĠĠ ĠĠ
Ġl ength
Col or
u pp
Ġout put
Ġb reak
d o
ers on
} +
Ġp otential
Ġl arg
ac y
Ġmethod s
Ġo cc
em ma
Ġfin ite
0 5
ting s
2 9
Ġpro perty
mer ic
Ġr andom
ass ert
Ġcalc ul
Ġd imension
Ġw rit
l t
F rom
Ġ= ==
pr ime
A S
w ay
as ter
pl ace
k en
M P
j ava
o h
Ġappro xi
me thod
le te
) =\
Ġv ector
roll er
D is
Ġpro of
Ġcal led
ith er
ĠE q
tain er
ĠO n
se qu
ĠS ystem
inf o
at s
l ight
t n
r ing
ĠThe orem
Ġ& =
Ġre le
Ġma de
Ġrequ est
T r
Ġsupp ort
p ort
Ġl ay
u f
s ol
amet er
Ġt ask
ĠS ection
Ġte ch
201 9
Ġresp ectively
n et
re ate
Ġback ground
) }\
} =\
Ġal gorithm
Ġcontin u
} ]
th m
Ġch ange
Ġf a
Ġthe ory
T D
Ġpa ir
C H
Ġcomple x
Ġstr ong
Ġe ar
Ġanal ysis
depend ent
201 5
U p
IN G
{ (
U ser
Ġt rac
Ġcont rol
r am
Ġb ase
E T
D ef
is on
Ġcre ate
Ġp op
ww w
ant um
ific ation
) ]
Ġt ake
6 6
and roid
W h
3 4
con text
Ġt erm
Ġcon f
Ġ item
al th
g ra
Ġpo sition
T able
ol ds
ic y
ref er
ord in
ĉĉĉĉ ĉĉ
L og
Ġph ase
pos ed
Ġcon tr
7 0
d oc
n amespace
Ġf lu
---------------- ----------------
; </
Man ager
5 5
. âĢĿ
Ġr ate
A d
st art
Ġ} ;
=" ../
ol l
Ġexp ected
om ent
re t
g s
Ġs till
) ^{
ent al
n ote
p ackage
Ġ ke
Ġch ang
ith ub
ra p
b ug
Ġ err
v is
Ġexp ect
Ġspec tr
f alse
Ġm ark
ĠO b
a z
Ġe m
w are
l ish
d b
u age
Ġ es
a h
Ġf rame
over n
sp ec
Ġ_ _
tical ly
Ġcol or
; \
Ġd own
text width
} |
Ġg u
c ore
}_ \
vir on
$ )
us ing
ic ation
Ġpro perties
Ġdef ine
I s
D O
Ġd ynam
lem ma
Ġc ou
om orph
vail able
Ġid entif
im al
Ġf our
pon se
pon ents
19 8
Ġcomm un
ĠA nd
, -
n al
vers ity
Ġdeter min
ater ial
ma g
de v
sk ip
Ġperform ance
Ġ ec
em p
Pro perty
s cale
}^ \
Ġkn own
Ġa ver
Ġch ild
x y
In ter
read y
ĠP ar
ib r
< !--
O ut
le g
Ġval id
o th
Ġd id
4 8
Ġpro te
Ġ im
Ġadd ress
=" #
S er
p df
g ithub
Ġl abel
ĠA d
Ġin f
======== ========
Ġimport ant
Ġt ry
d ay
cdot s
( (
id ent
t ot
Ġn ormal
und le
Ġ ge
m ark
Ġex ists
con n
p ng
sta tic
x space
l it
Ġconst ra
S ystem
Ġre ce
3 9
ĠB y
Ġinclu ding
U LL
Ġ\ {
Ġesti mate
at tern
E S
Ġa round
w ays
Ġcon ditions
dis play
en ame
Ġand roid
Ġs ymmet
w ise
Ġlow er
Ġc irc
O T
we b
li b
}} (
Ġre main
li ed
ĠS ch
201 4
ct or
I R
ur ity
Ġgo od
Ġwor ld
ĠA meric
m y
G roup
ag s
um ents
ar s
op tion
Ġrespon se
ĠG et
go ogle
] (
par t
q quad
Ġc lear
end er
P si
Ġz ero
3 6
ici ent
A c
Ġl ink
}) \
Ġlo ok
) </
re c
Ġh im
Ġsign ific
def ine
a it
ly ing
he ight
Ġal ong
. ~
ĠĠĠĠĠĠĠĠĠĠĠĠĠĠĠĠ ĠĠĠĠĠĠĠĠĠĠĠĠĠĠĠ
Ġse ver
p ol
M od
Ġe lectr
t ual
Ġc lu
A ll
Ex p
um p
n ull
00 00
Ġ ide
> (
P T
st and
Ġc ases
Ġ times
und er
C lient
pp ing
e ps
Ġst yle
ens or
h er
Ġph ot
U N
Ġdi ag
ateg ory
an k
E E
Ġcom put
Ġsystem s
Ġhel p
Ġrequ ired
Ð ¾
math sf
c lo
n s
Ġl aw
pl ing
en ded
Ġf ull
a ti
ĠC ol
Res ult
ĠA pp
EN T
in c
Me thod
o ot
in ary
3 8
ear ch
c up
B ar
Ġoper ator
}^{ (
Ġimp ro
Ġe as
Ġprob ability
id ual
c urrent
^ +
d l
ĠN o
ur b
Ġle ast
re l
Ġop tions
ĠFig ure
20 21
ĠU ni
arg in
Ġb est
Ġst d
Ġelement s
Ġtrain ing
D ate
ge bra
S ch
Ġf urther
si an
oper ator
o int
Ġde tail
Ġsimp le
Ġa uto
li p
en tity
Ġcon trib
ari ant
{ {\
Ġn il
Ġper iod
Ġev al
Ġdat as
au th
st ar
l in
Ġa vailable
s w
C E
wh ich
t le
}\ ,
Ġex pl
R eg
a de
Ġb ro
ist ory
Ġm essage
d ir
& =
201 3
c ount
Ġorig inal
}\ \
Ġpo sitive
Ġbo ol
equ iv
E nd
Ġhigh er
Ġo wn
lic it
Ġbeh av
Qu ery
Ã ©
al le
si te
Ġ& \
I I
i mage
la im
Ġassoci ated
Ġsu ff
r un
ut ure
Res ponse
Ġqu antum
Ġdif f
Ġat t
Ġt able
p c
as ing
Ð °
Over ride
Ġst udi
Ġf ree
lo cal
res h
Ġin clude
A ction
i ti
Ġph ys
T H
al ax
app ro
4 4
Ġ$ (\
At tribute
Ġp ost
A nd
B uilder
act ory
wide hat
ĠL emma
b utton
Ġfact or
ne tic
Ġstand ard
p age
r is
ri or
b ly
3 7
c os
s ch
Ġapp ear
om in
Ġsequ ence
qu ery
Ġde g
e ther
} :
t oc
rit er
Ġf ields
Ġtem per
ic tion
or n
Ġe ither
ĠS et
C all
defin ed
Ġeval u
S ub
es ts
ev ent
sub set
a f
viron ment
C ount
Ġcon ver
fin ished
Ġcomple te
Ġs cale
tic le
] [
m id
lic k
S c
em e
ac tive
Ġth us
Ġc ell
Ġsignific ant
o od
Ġbel ow
l ing
ph p
Ġw rite
pr int
3 1
Ġc ross
u ter
ind ent
Ġf ixed
Ġn ear
Ġimp lement
In put
Ġcol umn
op tions
sp lit
âĢ ľ
f unc
Ġm is
wit ch
Ġpro posed
Ġse par
h and
ĠA t
Ġs pe
j av
com mand
j or
N S
ur s
av ing
et y
ok en
e lement
Ġle ss
Ġequ ival
Ġobserv ed
Ġcom par
N ew
olog ical
Ġl ines
Ġf requ
Ġan other
ĠĠĠĠĠĠĠĠĠĠĠĠĠĠĠĠ Ġ
it al
Ġl ang
M S
St ream
re ct
Ġassum e
( {
6 5
] $
g ing
Ġde p
Ġinter est
un finished
R ef
oun ded
m ul
Ġv ol
al e
}} {\
Ġme ans
Ð µ
an ti
ĠT r
A ME
b ottom
0 8
Ġresp ect
0 7
201 2
Ġn um
Ġl ight
Ġste p
po se
Ġfe atures
Ġcom bin
S P
ĠP h
Ġpl ace
ig en
N ot
Ġsever al
b ased
U til
Ġal ready
Ġs ay
Ġs em
I L
] )
i um
l ished
Ġm oment
mod ule
arg s
Ġb uil
Ġg lobal
Ġm ov
Ġse arch
s tit
re en
B lock
d imension
ĠĠĠĠĠĠĠĠ ĠĠĠĠĠĠ
Com p
Ġde v
Ġ- >
Ġth row
Ġlear ning
) -
f ill
u tr
Ġcom ponent
ac tions
r al
cite t
| ^
Ġeff ect
0 4
0 2
Com ponent
app end
h ip
ti tion
ul ations
in ess
P r
Ġre fer
Ġre cent
Ġs ide
G ener
Ġm ove
. "
Ġa ff
en umer
9 5
âĢ ĵ
Ġ est
Ġsu ccess
, âĢĿ
Ġn umer
Ġdist ance
Ġlo ss
ad ding
} +\
Ġcons ist
ĠTh ese
tic es
& &
e k
Ġwe ight
h space
Ġ< <
I mage
ste ad
' $
g ht
U S
ĠL e
s in
n eq
ser ver
ed ge
ON T
Ġs erv
S tr
ĠS o
g en
L ine
ĠĠĠĠĠĠĠĠ Ċ
Ġdo main
ul a
Ġc over
I m
Ġd ocument
t arget
requ est
St atus
Ġb order
ore d
c lient
on al
ĠS ince
sc r
ec ess
Ġf ew
Ġqu es
f low
Ġconsider ed
Tran s
ch ar
ĠM e
A P
Th ere
pp ed
l n
Ġaver age
Ġ( )
ĠĠĠĠĠĠĠĠ ĠĠĠĠĊ
L ay
Ġ Ð
N av
om en
Ġd on
C C
h as
Ġc our
Ġagain st
} -\
7 8
Ġch annel
Ġbet ter
w rite
Ġf it
} /
Ġfe ature
B e
Ġed ge
ir d
Ġex ec
O S
og raph
Ġex act
201 1
foot note
Ġd iv
ate ly
c ase
( -
( {\
or iz
the orem
Ġh al
Ġanal y
or th
or ies
Ġg alax
Ġv ia
Ġt urn
Ġdescri bed
Ġal ways
S ec
Ġdire ction
ou d
Ġf low
D ec
ex ample
col umn
ĠE n
el oc
Ġw ant
Ġob j
b b
Ġdefin ition
{ }
um an
Ġgener ated
] \
r ule
enumer ate
Ġp erson
ĠB o
Ġexp ression
Ġwh ether
RE F
ol der
Ġre search
Ġb and
Ġpro gram
tiv es
item ize
Ġfam ily
Ġ- \
Ġacc ur
nav bar
he ader
su pp
Ġf ocus
Ġcontain s
od ing
) }{
0 6
ĠB ut
Ġun it
v space
Res ource
Ġis s
In stance
E d
om ic
end ing
f irst
c ell
Ġp ur
R ep
el ine
g g
Ġacc ess
A G
Ġsp in
l ap
k es
Ġit er
ĠN ULL
Ġb i
AT E
ide o
n ormal
Ġequ ations
Ġrel ations
Ġc ost
or ld
Hand ler
ang le
rac e
Y PE
in ation
Ġbo olean
itu de
toc ol
Ġbound ary
operator name
i ence
m ic
g l
4 9
B ase
emp ty
Ġm en
pro perty
$ {
j ection
if orm
Ġs k
om es
ĠUni versity
ab ase
x ml
0 3
ega tive
tr act
m ulti
or ds
Ġo ld
Ġ" ""
Ġser ies
pl it
Ġro le
no indent
Ġse en
is tr
mul tic
om ial
d ag
Ġf ilter
ĠTh us
a ther
ti o
T oken
Ġl ife
k er
Ġhe ight
Ġsh ort
ĠS ec
lug in
Ġth ink
ty le
le vel
m ost
Ġg overn
Ġset s
Ġprovide d
ri es
Ġcan not
m ar
Ġcomm on
Ġ+ =
ge ther
ĠL ist
Ġl at
ie ve
Ġspec ific
ol umn
7 7
ou th
Ġdes ign
p ts
ic ense
Ġg ive
Ġno te
le x
0 9
P i
Ġd ouble
Ġmulti ple
Con n
N N
}} _
Ġad v
201 0
ad ata
med i
in it
Op tions
oc ial
amet ers
Ġsur face
Cont ent
) }$
l ong
or age
Ġm ode
Ġres ource
6 8
[ "
Ġacc ount
Ġconn ection
Ġs ervice
Com mand
i res
ĠM ore
Ġw ar
iz er
as tic
ĠC O
f rame
multic olumn
Ġn at
C ell
Ġinv ol
m eta
sion s
$ }
kn own
j son
c ast
Ġlarg er
ĠThe y
Ġimp lies
ab il
us iness
Ġm ight
Ġrel ated
p arent
Ġn ecess
math scr
ef ore
u k
Ġrep res
ĠA ll
ĠN ote
Ġequ al
\ ,\
Ġv eloc
ech an
O D
N ull
H T
Ġh ttp
se lect
F unction
g ed
Ġpro ject
bo ok
dimension al
Ġclo se
ab ly
igh b
L ink
sh e
E X
Ġl ater
Ġin div
Ġco ordin
id ence
Ġre ason
Ġvari ables
th ough
b tn
Ġ ti
L T
ĠI nd
\ }$
Ġrepresent ation
B uffer
Ġf ar
F irst
Bo x
I P
Ġco eff
Ġtemper ature
S ource
des cription
H el
im g
N umber
ob j
n um
v ider
Ġpl an
s rc
st rac
d at
ter s
id get
str ong
Ġev ents
LA SS
T O
f ilter
Ġp age
Ġc ri
ma ted
p ost
Ġspec ial
if f
esti g
war ds
line ar
P re
Ġo pp
u ro
Ġare a
i ent
ĠC ar
4 7
en ti
appro x
Ġin dependent
ĠA ss
illi on
S C
p rivate
U E
Ġsol utions
ma il
* /
Ġpro ve
op en
Ġh olds
s g
Ġd one
Ġpro duct
im ary
led ge
ch ange
Ġ ]
in a
F actory
ĠN one
Ġaddition al
Ð ¸
te q
st ack
Ġf ac
G L
cre en
M M
Ġv ir
es ted
b uild
Ġc r
th at
ict ure
F A
Equ al
Ġi mages
R I
S p
ĠC o
R un
Ġre lation
C D
W indow
O per
Ġreg ular
Ġhe ad
ĉĉĉĉ ĉĉĉĉ
u ary
p tions
on y
text tt
Ġthere fore
Ġgiv es
f ind
c an
ĠO r
6 7
L abel
Ġg row
Ġclu ster
com m
Ġcomm and
" .
ab s
Ġcon c
Ġcom ponents
ress ed
$ (
Ġbo ok
S pec
r l
b ility
Ġ\ |
} );
ĠT able
Ġorg an
Ġpre c
pro cess
C K
ig ger
te ger
sc ope
row ser
v ing
Ġwe ak
Ġ loc
O ff
Ġtran sition
Ġf ail
) +
Ġindiv idual
el s
Ġdis play
// /
= {
ran ch
m t
as cript
f ont
Ver sion
Ġcent er
S I
Ġpro duc
N ote
Ġat tribute
Ġc ount
c r
Ġbl ack
ph er
oh n
Ġmax imum
Ġl a
Ġun c
Ġ _{
st atus
Ġro t
Ġf ore
Ġb egin
Ġc ertain
Ñ Ĥ
S U
s a
ch ild
y ing
Ġre ach
ty p
Ġvari able
Ġmod ule
F ilter
Ġob jects
at form
st ream
av es
Ġtyp es
F rame
p ush
F e
tr m
Ġe igen
g ence
ĠWh en
9 8
enc ies
inal ly
p tr
Ġup date
H E
se teq
is ed
n orm
in o
Ġf uture
" ]
Ġapp lic
ta g
A M
lay out
tex trm
.. ..
S upp
clo se
4 2
ĠY ou
A b
} '
val ues
B undle
Ġal gebra
le ase
V ER
Tr ue
si tions
h el
200 9
. $
Ġeff ective
m ore
D B
fin ite
under line
S tyle
Ġmag netic
Ġvari ous
St art
ĠThere fore
Ġh app
Ġacc ording
Ġext ends
idd en
Def ault
Ġa ble
Ġw ave
Ġli k
ma tic
Ġrela tive
ur y
Ġ< !--
S ince
p ack
Ġinter nal
L oc
p g
g ress
ĠG e
c s
Ġdeg ree
li ke
Ġapp lication
Th en
form at
m em
Ġh owever
Ġm atter
P age
}} }
ĠR o
min us
p to
Ġd ay
omet ry
Ġs yn
ol s
e ded
Ġ( -
l en
Ġ$\ {
Ġp rac
ra di
pro d
un e
Ġdiffer ence
al og
Th eta
Ġn odes
Ġdetail s
ĠC oun
4 6
Ġinv estig
qu are
~ $
R eturn
ran ge
Ġin stead
i ous
Ġh om
par se
Ġb en
8 5
up date
Ġsch ool
Ġle g
F ONT
Ġtrans form
A A
Ġth rows
l us
Ġeff ects
am il
Ġest ab
ĠE ng
C reate
F I
m atch
b a
Ch eck
sub seteq
Ġp ut
Ġto o
iz es
Ġauth or
ac ity
Cont roller
C o
Ġgroup s
N et
F T
Ġt re
iz ing
^ -
Ġto gether
ĠOb ject
T ask
Ġs ite
p y
jav ascript
Ġbas is
Ġg ame
ĠF e
re ed
th es
ĠĠĠ Ċ
Ġma jor
Ar g
P C
< \
Ġprote cted
o ke
Ġcomp ared
Ġset ting
strac t
Ġf und
Ġspectr um
Ġ$ |
Ġw indow
Ġ( (
n umber
B utton
il er
Ġac ross
yn omial
l s
mo oth
E xt
ĠT est
S ON
Ġun til
param s
{ $
Ġen ough
Ġdatas et
sh ow
Ġre str
) ,\
Ġm echan
\ "
A ss
R ow
el se
respon se
ic ial
on ic
Ġchang es
Ġwh ose
ĠI s
bl ack
Ġc laim
) |
Ġam ong
ho od
ĠI N
am ed
//////// ////////
st d
ap ter
Ġuni que
b uf
Ġtak en
Ġre st
ent ry
o ted
iv en
tot ype
age ment
Ġre ference
ĠD ec
b ound
al t
ic ro
M et
c d
ĠUn ited
ann ot
200 8
con tainer
s igned
a i
Ġveloc ity
ĠR ec
A cc
y l
our s
line width
Ġp rior
Ġp anel
yp es
ĠAmeric an
Ġ{ @
Ġc lient
Ġof ten
Ġ\ ;
Ġd ate
Form at
Ġunder stand
}} _{
}^{ -
al let
{ {
ĠR eturn
Ġapp lied
Ġsign al
Ġ row
Ġf ig
Ġcon struct
h ost
Ġemp loy
N O
Ġh ard
Ġtran sp
ĠĠĠĠĠĠĠĠĠĠĠĠĠĠĠĠ ĠĠĠĠĠĠĠĠĠĠĠĠĠĠĠĠĠĠĠ
Po int
O ne
ĠW ith
}} ,
Ġm er
ate gy
Ġder iv
ad o
Ġlay er
Ġspec ified
Ġev olution
L ast
so le
ar ies
Ġc are
Ġexp lo
P er
Ð ½
od er
Ġstar s
Ġ url
List ener
( &
r r
Ġar ch
in v
lim its
ul ated
Ġ ~
Ġ il
Ġen ti
ot o
Ġmet ric
Con st
l ast
end if
P RO
le an
i ps
Ġapp ly
P S
Ġu pper
Ġpres ented
Ġp ay
un it
ĠH REF
at tr
^{ -\
she et
t x
Ġqu ery
yc le
9 6
op s
et er
Ġb uild
Ġcontinu ous
Ġexp an
Ġp arent
serv ice
al k
Ġen vironment
Ġthe orem
tion al
Ġp ub
refer ence
Ġbehav ior
Ġh ome
Ġne ighb
Col umn
le y
) /
p ass
b s
p ag
Ġf r
tif act
Ġne utr
de ed
Val id
Ġa x
Ġra tio
ect ors
P l
8 8
is s
set minus
âĢ Ķ
Ġext ension
Ġhy per
" ).
N ext
Re ad
t ure
Ġse em
Ġgo ing
Ġem bed
Ġ( $\
9 7
P O
Ġpro file
Ġimpro ve
s ystem
ra in
Ġnat ural
er a
sub figure
ac ed
Ġo ption
Ġp attern
Ġlang uage
D ep
sem bly
ĠG ener
Ġwrit ten
Ġm argin
AB LE
p a
Ġin equ
at t
al y
Ġbec ome
Ġdirect ly
com e
Ġconfig uration
* {
en ari
ern el
Ġ\ (
Ch ar
a ma
model s
idd le
Ġt ree
Ġsta tis
Ġarg ument
ft ware
f loat
us ic
Ġcol l
Ġc opy
< ?
Equ als
ĠC LASS
am l
ĠC or
Ġcomp ute
qu es
F l
ĠR ep
on ly
u x
ref ix
S O
q l
Ġprov ides
I M
dag ger
Ġb ody
b ul
Ġe mission
: </
5 7
Ġequival ent
ĠO ne
in st
$ _
ul ly
#### ####
=" ../../
IN T
ag ed
Ġno ise
We b
n a
rem ove
ĠM an
200 7
ĠâĢ Ķ
Ġ$ [
UR L
' ).
`` `
Ġm aterial
w edge
r up
Ġen g
ĠL o
Ġf rac
Ġexp licit
class es
ide d
Ġver tex
Ġexpl ain
in stance
Ġg round
Ġinter face
S D
4 3
Lay out
bit r
c ur
Ġclo sed
s up
Ġcorre ct
Ġtech n
m enu
, "
Ġproble ms
tt ps
Ġques tion
str uc
. /
ĠC lass
f a
Ġg as
ĠC ent
Ġh uman
Ġdescri ption
" ),
B U
Ġsol id
st o
P ol
Ġc aus
ock et
alle l
Ġallow s
Ch ild
Out put
Ġro ot
V ert
ĠD is
Ġv i
Ñ Ģ
ĠS e
ĠB e
\ }
at ric
Ġoper ation
Ġc atch
Ġab s
Col lection
s cri
L ength
Ġst atus
ab or
defin ition
Ġtech ni
con f
A uth
Ġfrequ ency
Ġlo ad
c ar
out put
ĠR eg
_ .
t urb
ig ation
Ġh ttps
Ġs eg
pro ject
Ġunc ertain
Ġpol ynomial
5 8
ĠSt ate
ser ve
_ +
omorph ism
Ġh aving
imp le
z ed
ial ly
5 6
U I
os ed
au ge
= (
s d
tr i
cre te
Ġform at
ĠâĢ ĺ
ev ed
Ġwork s
Ġde cre
ER T
200 6
Ġra ther
Ġn one
Ġag ree
Ġad j
= -
ĠA PI
U rl
20 00
Ġincre ase
M ode
Ġg reat
t ree
a tial
> >
="../../../../ ../
Ġst re
E L
Ġinter val
Ġwe b
m ember
big g
Ġsmall er
Ġhe alth
ĉĉ Ċ
ed ia
( [
li er
h ib
4 1
Ġcho ice
: \
pro to
mon str
ĠT ran
s ign
Ġmon th
Ġne ver
di ent
Ð¾ Ð
in ner
ĠCom p
Ġf ont
Ġframe work
and id
Ġchild ren
th en
M in
Ġr ule
r s
Ġc ustom
th ers
id ing
align ed
Ġobserv ations
ĠU S
_{ (
En tity
Ġ location
Ġst ream
CO L
amil ton
Ġear ly
Ġflu x
Ġser ver
Ġoper ators
Ġd raw
Ġ! ==
a ded
d ist
Ġinter action
Ġse lected
_ *
Ġpro ced
n ed
com ple
Ġ$ -
b reak
Add ress
if ier
ĠSt ates
ĠI D
s es
Ġgovern ment
sol ute
lay er
oriz ont
Ġphys ical
Ġmem bers
N ow
Up date
Ġse lect
Ġh ence
R em
Ġh ost
Ġs ent
off set
ĠE X
M ax
su per
l ate
Ġl iter
Ġcre ated
Ġb ounded
Ġh istory
ta ge
Ġd r
a j
Ġcon struction
m ing
C L
an ish
i ver
f il
ce ed
ĠC al
ber t
ĠC an
C P
Ġpol icy
oll ary
ĠM ar
Ġ ir
ou ght
Ġnum bers
Ġke ep
ĠP r
N D
ĠC l
A V
ER R
Ġ }\
it tle
Se lect
ĠS he
Ġrep ort
Ġde monstr
op lus
s m
Ġun iform
Ġs en
G e
' \
B ack
g u
-- -
Ġclass es
19 7
Ġbec omes
r ics
ĠM ay
C ON
ri ver
Ġ[ ]
ĠS p
Ġch ain
v ant
tr an
on ds
text sc
Ġb usiness
Ġwor ds
ĠH T
C ache
c y
Ġsample s
Ġconn ected
ite ct
Ġsub set
C ase
Ġpr int
Ġoptim al
er ing
Ġh ar
ĠP l
Ġcol lection
ĠO p
=" -
at tribute
os en
r and
d ocument
fin al
cont rol
Ġam ount
Ġn av
Ġdetermin ed
f ree
Ġform ula
Ġapproxi mation
Ġdescri be
is ing
Ġcur ve
ĉ ĠĠĠ
++ )
d x
requ ire
orizont al
anc ed
Ġb it
aus sian
Ġan g
Ġatt ack
lic e
ial og
Ġn uc
Pro vider
st rap
re p
un ch
Ġar bitr
Ġal most
ute s
( _
Ġcri tical
Ġcall back
T ag
Ġsymmet ry
)\ ,
Ġincre asing
Ġse lection
ess ages
Ġp lot
bo ard
rop y
Ġad ded
op t
ĠM in
Ġp ress
lu str
ĠO F
ul ate
Ġpol i
d im
uro pe
Ġth ird
ĠJ ohn
ĠD es
T em
Ġre ally
Ġdynam ics
th on
ex ec
di rect
Ġte am
Ġma kes
Ġon ce
m ine
ind ing
v ector
Ġac tive
new command
Ġre view
c f
tif ication
}} (\
s ur
ĠL icense
ibr ary
ar ds
Ġro b
Ġsatisf ies
Ġd est
il i
Ġch all
ion s
ĠN ational
Ġerror s
Ġpartic le
ol ve
ang ed
Ġt w
Ġcoun try
Ġ| \
are n
5 1
b all
on om
k it
ĠJ an
_{ -
R ight
ĠD ata
Ġs ources
k y
par ameter
fin ition
ĠS te
Ġne eded
urre n
Ġsupp orted
a uto
Ġoff set
Ġregion s
Ġsh all
Ġj ob
Ġdevelop ment
E mp
i mages
Ġpop ulation
ĠQ u
Ġbo x
is ted
it ory
' _
O L
V is
D F
Ser ver
Ġst o
w indow
ĠPro position
Ġnecess ary
Ġinte ger
ĠTh at
ĠP ol
Ġhal f
_{ {\
Ġqu anti
Ġdiff ic
ac ing
Wh en
ĠR ef
T ypes
D ire
col on
ĠT ype
Ġpar tial
T arget
Ġn egative
\ '
ar ily
Ñ ģ
Ġpartic les
Ġs ocial
I O
is try
Ġdec ision
Ġcom e
ate gor
Ġapproxi mate
iv ing
W idth
Off set
Ġfil m
Ġ$ {
Ġcon ven
ri er
Ġgalax ies
200 5
bo ot
ro ot
Config uration
rem ark
Ġver tices
Ġfile s
tain s
p atch
Ġs mooth
Ġexperim ents
n os
Ġradi us
R L
Ġsch eme
Ġs itu
ã ģ
N AME
tif y
ll ar
Ġdete ction
for all
ar tifact
Ġma ps
pro totype
Ġd omin
Ġdiscus sed
ma ke
b as
Op en
sub subsection
Ġh o
Ġmin imum
O P
CO DE
D ev
Ġre d
z ero
Ġ ;
Ġma king
Ġinclu ded
Ġsu g
' >
Ġs ense
Par ameter
ĠAr ray
id s
S u
Ġnumer ical
ran t
i ke
Ġcent ral
tem plate
Ġgra v
gorith ms
5 00
er al
T op
Ġ* *
Ġtak ing
u sion
ĠR em
oun g
auth or
6 9
n ow
ra pper
Ġa ut
c el
ici ents
Ġconstra ints
Ġreturn s
Ġus es
s cal
ĠS er
T YPE
ĉĉĉĉ ĉĉĉ
Ġperform ed
ĠD ef
) }(
5 9
Ġan n
T ree
Ġcompar ison
a a
il s
E q
Ġenti re
Ġtak es
Ġvir tual
Ġrem ove
**************** ****************
) ^{\
Ġg re
val u
dition al
Ġcou pling
ot a
mod al
Ġat ten
ĠH ere
Ġsc enari
T P
om s
Ġmem ory
ĠH ence
Ġresult ing
t ask
D o
Ġarg uments
Ġlead ing
Ġrem ov
Ġsim ulations
Ġclass ical
Ġintro duced
Ġs ymbol
Le vel
Ġinter pre
Ġ ...
Ġsc atter
ĠY ork
ĠA cc
() ->
com mon
f it
Ġt reat
Ġpol ar
sh ould
Ġd oc
Ġaccur acy
,\ ,
M em
Ġcontin ue
Ġup d
iv es
Ġman if
ma tions
lo or
Ġrequ ires
Ġex cept
ĠA c
P os
ash ed
z z
Cont rol
return s
ar p
Ġnetwork s
Ġspectr al
style sheet
âĢ ¦
ĠD o
Ġinst all
Ġf ive
Ġpe ak
omet ric
Ġfor ce
f r
j o
ĠV er
Ġcommun ity
an i
Ġg auge
AT ION
ĠE urope
Ġcorrespon ds
Ġal ign
ur ch
' ),
bo ol
r ation
ag raph
) _{
re es
ul y
Ġl and
H ttp
Ġarg s
e le
5 4
Ġneed s
ri ed
D D
con s
Ġcomp act
sequ ence
Ġsimp ly
Con tainer
resh old
it ing
Ġs witch
Ġpro duction
m atrix
Util s
}$ -
Ġw ord
Ġmulti p
p ri
Ġ{ }
artifact Id
Ġinequ ality
ĠG L
Ġf loat
ĠF ran
cript or
Ġlat tice
200 4
c at
Ġa chi
~~ ~~
] );
Ġm illion
5 2
} %
K E
a o
Ġbuil ding
ĠF ile
H ere
Ġth ough
Ġsp atial
Ġsug ges
Ġac tiv
ĠF rom
Ġmoment um
Ġ ::
ĠG u
ĠO ur
Ġstudi es
Ġed ges
Ġ+ \
I F
Ġsh ape
Ġs plit
ĠA dd
bl ue
c ases
Ġcon v
ve x
> ,
6 3
tr ac
Ġgener ate
o o
ĠA b
Ġl ate
Ġ ess
Ġcomp any
k ed
Ġmeasure d
Ġwork ing
\ _
ne y
ap s
res ource
Ġits elf
Ġder ived
C S
He ight
Ġc os
Ġb uffer
per p
al es
clu sion
ĠĠĠĠĠĠĠĠĠĠĠĠĠĠĠĠ ĠĠĠĠĠ
dev ice
ĠN S
ĠH amilton
ve y
on es
Ġdepend s
t ml
Q L
res ults
m ode
Ġb ar
Ġrep orted
8 7
Conn ection
R el
Ġmo tion
Ġmeasure ments
en sive
i xt
duc es
Ġemp ty
ym pto
ator y
ro y
Ġn orm
Ġk ind
Ġf un
Ġmen tion
ph ere
ĠS ee
S H
ĠF irst
{ $\
Ġt ensor
im ilar
S earch
En try
re a
="../../../../ ../../
atric es
% %
Po sition
f for
Ġre t
Ġcontrib ution
v ari
v ision
Ġassum ption
Ġlik ely
u int
k ind
Ġcour se
Ġmed ia
Ġdec ay
b uffer
) ^{-
part ment
group Id
es h
Ġs ays
ri ef
Ġp ort
Ġvi ol
Ġpl ane
pm atrix
ach ed
Ġent ry
ĠW orld
ĠG o
Ġper turb
bul let
) }{\
M atch
b i
er c
P P
d r
Ġu int
Ġcorrespon d
Ġw on
Ġscal ar
M ore
to ken
pre c
Ġy et
Ġb ig
Ġth erm
20 22
) {\
6 2
ĠMore over
si bility
ann er
M B
Ġmag n
I V
Inter face
Ġil lustr
)\ \
Ġtrans fer
Ġd ays
Ġcoeff icients
Ġsuccess ful
Ġcomp uted
Ġuse ful
A ccess
Ġc andid
us ed
Z E
Un it
S cript
Ġl en
5 3
Ġrepres ents
b al
am ily
Emp ty
ĠN e
Mod ule
E Q
ã ĥ
ĠS ci
Ġp ack
M D
Ġcho ose
. )
so ft
IG N
h igh
W rite
Lo cal
Ġde com
Ġde ep
He ader
COL OR
act or
ĠS c
Ġg l
Ġother wise
Ġvol ume
Ġpar ts
is ms
Ġth ings
Ġrece ived
C l
Ġw ater
M enu
Ġa ge
Ġdeter mine
Ġsim ulation
Ġexist ing
L S
Ġcalcul ated
Ġconsist ent
Ġsome thing
te e
Ġexample s
Ġc ut
x x
$ ).
Ġwh ole
Ġm ember
Ġc ity
w ait
mit ted
Ġproced ure
ous ly
}^ *
Ġl ittle
F ont
Ġus ers
A PI
Ġrec ord
Ġch osen
Ex ec
ĠB l
Ġpar ams
Pro cess
f s
os s
urther more
: "
}} ^
: (
Ġlead s
z on
M C
Loc ation
c ache
Ġal gorithms
in ci
Ġhand le
b and
ĠW ar
.~ (\
Ġh old
8 6
h y
Ġt ag
Ġchar ge
b order
et ch
Ġre nder
n ap
Ġthe ore
Ġv ac
Ġa way
\| _{
um b
Ġpro per
Ġiss ue
H ash
de p
sim eq
Ġinterest ing
' }
Ġin finite
Ġstr ict
Ġspe ed
is es
ĠIn ter
ĠReturn s
oun ter
il it
el i
Ġs ure
sh ip
P R
Ġinf lu
Call back
D at
ist or
Ġcorre lation
M O
Ġhas h
d om
util s
Par ser
Ġrele vant
ro duction
Ġdenote s
Set tings
Ġdistrib utions
Ġknow ledge
O ption
exp ected
ste p
S o
Ġact ually
Ġlink s
Ġ tim
Ġqu e
ob ile
ad ow
Par ams
h ash
Ġintegr al
ĠC ont
Ġb ranch
Ġp ast
ti k
ĠM on
udi o
bol d
R ange
tr ies
100 0
Ġimp act
" ))
g ent
Ġstre ng
T I
de c
N one
lug ins
Ġinclu des
Ġorig in
ĠA f
Ġstate ment
Ġb inary
ut able
Ġarbitr ary
um in
Ġw ide
ĠU p
p icture
abil ities
ĠL og
z ation
O ur
y ear
inci ple
V AL
Ġre duced
de bug
a tives
ight s
Ġal tern
en tic
; ->
Ġexperim ental
ad ing
Ġdev ice
ĠP er
Ġfig ure
S ection
de g
istr ation
Fig ure
Ġc ategory
S te
c p
end ix
)$ -
ĠD E
it le
un g
Ch ange
Ġallow ed
Ġtem plate
Ġstudi ed
ĠA fter
Ġmin im
struc ted
Ġad ap
Ġexperim ent
w s
ĠS T
Ġo thers
Ġexpan sion
Ġc ore
ct x
Ġsub ject
ĠC reate
Ġinv ariant
Th read
Ġstr ategy
Ġste ps
C A
PE CT
Ġprocess es
h om
am pling
Ġdistrib uted
J son
Ġcomp are
og ene
200 3
p op
AC K
r u
Ġapplic ations
ĠS upp
} )$.
Ġrun ning
F O
is k
Hel per
wh ite
it able
Ġp adding
Ġpres ence
L I
Ġ* )
Ġres olution
Ġ= \
l or
$ ^{-
X X
7 2
d rop
g lobal
u str
medi ate
Ġan ti
Ġsc ope
Ġform er
| _{
Ġan gle
ut ing
S ym
oun ts
com ponent
$ $\
Ġ> =
8 9
Ġv ideo
Ġ Â
ĉ Ġ
T im
Le ft
l ines
H owever
M app
ynam ic
kn ow
Ġstud ents
ra ft
Ġre pl
C urrent
un k
Ġoper ations
ind er
}} ^{
Ġsp aces
6 1
Ġid entity
inter face
Ġab solute
Ġor bit
ĠE d
ter m
ab e
in te
map sto
Ġexact ly
ST R
Ġf ully
Ġc li
Ġ$ $
S ession
ch ron
ograph y
ub e
Sch ema
Ġcou ple
AR T
Ġarch itect
j oin
Ġide a
b efore
Ġpair s
Ġwe ek
Ġ$ .
a fter
C opy
Ġs ession
en v
Ġper cent
Ġa void
Ġdevelop ed
W ork
ta x
s ession
Ġin s
one y
ĠM ark
Ġst ory
Ġrec og
st ers
p ted
Ġlo t
boot strap
f ields
r ate
Ġan sw
Ġs ix
~ $\
Ġeff ici
ec ause
\!\! \!\!
Ġn eg
L P
Ġde al
il ib
) _
Ġcomm it
om an
E CT
Ġwh ite
Ġdis k
en ing
back ground
Des cription
A fter
c ard
Ġw omen
is ation
ult ure
vers al
D ir
Ġs m
200 1
re nder
Ġpro f
re q
Ġremain s
Ġam pl
Ġat tem
Ġg ot
Ġma ch
Ġme et
ĠS pec
ĠP o
) },
Ġeas ily
ad a
Im pl
Ġimplement ation
ra tic
Ġeas y
8 4
Ġreg ister
as i
Ġact ual
Ġw in
an a
B C
Ġcur ves
Ġj oin
" ));
Nav Bar
Ġm atrices
trans form
Ġin side
f ony
Pro perties
igh ted
In st
in y
typ es
b es
3 00
8 2
Ġintro duce
ĠP res
v ol
ib ility
f aces
Ġ ign
Ġserv ices
od ot
foot er
Ġappro pri
de tail
sec ond
Ġben ef
Ġ&= &
Ġdepend ence
rac k
b its
Ġd ual
uc k
thes is
ĠG aussian
Ġfact ors
s ample
9 4
D oc
Ġstruct ures
Ġ ensure
Ġsymmet ric
Ġb al
Ġapproach es
\ {\
=" _
Ġto ken
lic ity
Ġembed ding
ã Ĥ
ir m
ĠM odel
ä ¸
ag ing
ĠB G
D eta
er ed
Ġmod es
Ġre pe
Ġwh y
Ġcorre ction
Ġcoun ter
ch or
Ġx ml
c lear
^{ +
de lete
=" /
ĠT O
im in
Ġtask s
b um
9 2
in ternal
co q
Ġcontain ing
supp ort
ĠS ub
ĠĠĠĠĠĠĠĠĠĠĠĠĠĠĠĠ ĠĠĠĠ
as ure
Ġon es
doc s
Ġfor ward
In teger
un i
or ig
The orem
Ġqu ad
re st
pro position
g gle
s v
ilib ri
Ġf all
As ync
li de
Ġmark et
() :
ar an
9 3
tif ic
Exp ression
Ġed uc
ĠEx ception
Th us
Ġext ended
H O
Ġspec tra
re al
I con
ti li
Ġbro ad
av or
for ce
in ed
ĠI I
n ers
Ġqu ality
Ġex c
Â ł
Ġl atter
Ġpartic ip
Ġestimate s
pec ially
Ġy ields
Ġm usic
Ġgo al
it ation
D ocument
d ro
Ġlevel s
M on
R ev
Ġclo s
ĠSch ool
Ġright s
am era
Ġp i
Ġrec over
Ġincre ases
m ber
Ġbas ic
Ġqu an
al g
Ġfil ename
ĠS outh
Ġh ear
Ġg rid
Ġre con
' (
Ġpro pag
t ation
Ġreturn ed
Ġlo op
Ġm ar
se ud
Ġover ride
Ġin du
U s
$ ;
ĠA ug
Ġdoes n
d en
ĠIn tern
Ġof fer
Re ference
9 1
================ ================
Ġf ix
Th at
ĠO ff
Ġf ri
mod ules
Ġlong er
Ġin ner
Ġcirc le
Ġ{ };
Ġbel ong
Ġesti mated
Ġset tings
Ġmeasure ment
ed ule
Ġconver gence
ds h
\ )
c ref
Ġj av
ac ts
Ġor d
Ġb ottom
iz ations
a e
ic ted
Ġass ign
c opy
tr ain
ment ation
al ysis
Ġ ve
Ġreg ard
Or der
& #
L ong
B O
m ma
si ties
ĠM y
le ge
ential ly
S L
j ective
7 6
25 5
T ests
tik z
Ġs w
Ġex ception
al low
Ġr ates
ĠJan uary
Ġste llar
OR T
Ġec ho
U se
Ġp ul
ĠM ath
Tem plate
Ġob serve
Ġe p
el er
ĠEX PECT
Ġde ath
Ġiss ues
k a
our nal
Ġr ules
g n
U LT
os itory
Ã ¡
st s
c ategory
s end
Ġstart ing
ber g
Ġp ix
Ġup on
E M
ut or
Ġax is
f ull
St ore
Ġbl ue
ĠO ct
ĠS tr
Ġas ympto
G B
un ity
ct u
to String
Ġin c
N e
Ser ial
ip age
Ġclass ification
p lugin
pro te
Ġcoordin ates
Res ults
g ers
form s
b ind
Ġpro jection
Ġf ace
} &
com ment
C lo
ĠĠĠĠĠĠ Ċ
min ipage
omorph ic
per im
## #
Ġelectr on
Ġv ectors
200 2
Ġt or
p anel
Ġd ark
R A
Ġcorre l
ĠN ow
Ġbuil t
j pg
lap se
ing u
Ġso ftware
ĠH ar
ĠHamilton ian
ĠP a
Ġpar tition
Ġdep th
to ol
_ -
ĠWh ile
Ġsignificant ly
$ ~
ic ons
a res
pr il
S A
struct or
Ġexist ence
equ als
ĠC ity
D IR
add ress
Ġex ternal
d ouble
AN D
Ġbec ame
h bar
Ġs ys
Ġgrow th
as sive
( :
o ber
Ġse ason
ch ieve
ou ch
ĠC ons
v m
or ing
Ġun defined
c lick
C al
per s
Ġsta ge
en um
% ;
Ġbound s
Ġs end
Ġp ackage
ĠM arch
in ct
I nd
Ġinter actions
P L
Ġcurrent ly
a ut
if fer
S ign
Ġpr inciple
Ġran k
}{ |
Ġcons ists
av y
Ġch arg
Par ameters
h am
G C
ĠBG COLOR
V ector
Ġ} )
am ent
u id
Ġstreng th
w idget
} }$,
Ġoptim ization
in u
S M
Ġdiscus s
ms g
ĠB ar
Ġst able
j ected
Ġcon sum
Ġag ent
Ġout side
sc ill
) +\
Ġg ain
is sion
entif ier
Ġn ature
-- >
Ġtrans action
Ġgra dient
Ġon line
Ġs low
Ġn ames
Ġpr im
} }$.
Pro ject
ĠĠĠĠĠĠĠĠĠĠĠĠĠĠĠĠĠĠĠĠĠĠĠĠĠĠĠĠĠĠĠĠ ĠĠĠĠĠĠĠ
Ġpredic tion
z ing
f loor
ategor ies
D own
Ġc amp
p adding
) -\
Ġcom es
ĠO R
display style
Ġes pecially
Ġtrans formation
ilibri um
8 3
Ġdiag ram
Ġpro m
Ġa im
Ġ[ '
Ġagree ment
Ġconstra int
di ag
Ġinter n
po ints
Ġlim ited
Ġpro duced
i tions
P tr
Dev ice
Ġ" \
N on
m c
Ġpr imary
r ist
Ġev idence
ta iled
ad s
' ],
P ass
up le
Ġg en
Ġpress ure
Ġatten tion
Ġk ernel
ĠS ome
ul er
Ġexper ience
file s
en n
Ġstar ted
c er
Ġd ig
App lication
ĠM c
Ġex tra
row n
AL L
C or
Ġqu ite
Ġrecent ly
Ġsatisf y
o x
Ġc ache
Ġstr a
F R
Ġres ources
Ext ension
P H
conn ection
block List
I ter
Com ple
Ġauth ors
Ġn et
Ġto ok
p id
[ (
am ely
P A
ĠG erm
Ġfor mation
ERR OR
G raph
Class es
: }
c ustom
sh ot
Oper ation
trib ution
} )$,
Ġre duce
Ġdat abase
Ð° Ð
ĠN ot
Ġgraph s
ĠS u
lo ts
e ach
h over
b ut
on ical
7 4
E v
R ender
T itle
Ġa chieve
M ulti
by te
Ġus ually
Ġdiffic ult
m b
ri ve
D i
H ost
ĠM od
Ġfl at
Ġdisc over
N R
G E
7 3
8 1
Ġst ack
tem ber
for ward
en ess
Ġte ll
Ġanal og
c k
ip eline
U M
est amp
imp l
Ġnot ation
i ef
Ġfor ms
Ġf oot
rid ge
ĠTr ue
r b
Ġa ir
Ġfrac tion
ill s
} "
ep tember
ma tically
depend ency
Ġo scill
Ġn ational
iction ary
ch annel
Ġ$ |\
G ET
Ġpar se
Ġw aves
sh ort
Ġdete ct
t or
Ġfe ed
el ves
v as
m at
7 9
Ġ ^
Ġestab lish
Ġde l
N um
N ames
Ġp or
E ach
ip al
Rec ord
Ġs light
Ġto wards
Ġfa iled
ari ance
con d
Ġs quare
Ġeng ine
am ental
Ġassum ed
Ġdiscus sion
Ġitem s
Ġtest s
Ġpub lished
ur i
IN E
Ġde lete
ĠCh eck
Ġlarg est
Ġcap ture
su ccess
| |
S ION
4 00
Ġtrac k
Met adata
$ ),
D raw
re place
annot ation
) )$
Ġth ought
ĠJ une
T ER
R ect
ĠĠĠĠĠĠĠĠĠĠĠĠĠĠĠĠ ĠĠ
o ice
ĠCh ar
hand le
c over
f ect
Ġat tr
ove mber
Ġin sp
, $
D A
Ġre place
Ġin fo
Ġe ffor
Ġto ol
B A
ĠM o
h r
}$ )
Ġlay ers
s y
OR M
De finition
Val ues
ado op
l ar
="../../ ../
ak ing
n ov
Ġ ..
Ġa rm
z er
Ġst ore
less sim
b ur
frame work
de t
ĠD ate
i as
exp orts
Ġb ul
Ġdiffer ential
Ġcontrib utions
Ġsec urity
S ee
cc cc
exp ort
R ed
Ġchall eng
H z
199 9
Ġplay er
Ġpro tocol
Ġsitu ation
Hand le
Ġ\ (\
m ut
ann ing
Ġgalax y
d est
ti sh
Ġop tical
Ġform al
fo o
Ġth reshold
' re
) }_{
in itial
Ġover all
ĠA ct
Ġappropri ate
Ġl ib
if ically
Ġi mag
S um
ol ved
h ic
ĠJ uly
m aterial
Ġst ation
st able
g reg
Ġinv oke
we ight
U sing
do main
Ġs ong
Ġgener ation
,\ \
Ex ternal
S k
to ggle
Ġsh are
Ġconc ern
ound ation
> ();
C ore
Ġm orph
AT H
med ia
OR D
ĠE qu
Ġreg ime
- $
el low
P ort
Ġtechni ques
Ġrele ase
equ al
Ġc ame
Ġset up
for d
Ġv anish
Ġar ticle
ĠA pril
A pi
set tings
vir tual
C ap
Int roduction
B R
wh ile
F alse
ure d
Ġcontr ast
Th ese
con g
> .
K e
25 6
In valid
Ġaction s
Ġcon clude
Ġde vi
Ġun its
Ġmo lec
sequ ently
Ġy oung
En c
ĠN orth
Ġlear n
leg ate
M ock
p lugins
Ġscatter ing
Ġtra ject
Ġcomp an
ixt ure
Ġpro duce
ĠAf ric
Ġdatas ets
P U
Ġf rag
) }}
P ackage
Ġp ure
d y
` .
re la
h box
Ġres on
Ġal though
Ġre duction
Ġappear s
ĠWe b
Ġmatch ing
,\ ,\
}( {\
Ġto day
app lication
Ġe q
u it
Ġs l
I mp
Re ader
7 1
ogene ous
web kit
ark s
reg ion
c a
T ab
W E
Ġang ular
St ack
Ġpass ed
sh ape
Ġvis ual
") ]
Q ue
Ġb eg
Ġro und
( *
al gorithm
sem ble
Ġmeas ures
ĉĉĉ Ċ
Ġare as
Ġte le
ĠI m
Ġloc ated
Ġcomput ation
Ġtransp ort
) ).
$ };
Ġ+ +
Ġth read
Ġpoli tical
Ġin it
ang ular
f n
Ġfe el
Ġgre ater
er g
Ġliter ature
par agraph
ĠJ SON
Ġex hib
By te
Ġhy po
Ġampl itude
Ġwrit ing
S R
}{ (
f ocus
Ġidentif y
b on
n umer
Ġcon serv
Ġgener ally
Ġby te
There fore
Ġradi o
Ġindic ates
Ġsh ift
res p
Ġocc ur
Ġh ol
Ġd riv
y ond
c us
ĠTran s
ther n
] }
Ġa pi
Ġcon vex
Ġcomplex ity
Ġg ap
Ġuncertain ty
ustr al
Ġte ach
ati ble
&= &
Ġde li
Ġra ise
d ash
ĠM ed
Ġe mer
t w
Ġma pping
co in
o om
Ġcontain er
anc ial
Ġad min
ĠC E
' ))
h adoop
ier arch
Ġremain ing
C R
Ġobserv ation
Ø §
i ans
ĠR un
Ġcombin ation
Ġet c
B l
ĠA g
D L
Ġmean ing
V ar
ĠL O
duc ing
Ġc ov
Ġac cept
Ġex pon
ĠP e
Y ou
ĠDec ember
Ġseem s
M y
-------------------------------- --------------------------------
Ġmass es
Ġ[ \
ĠE rror
ax is
Ġcomput ational
Ġidentif ied
Ġun signed
ĠH igh
Ġestab lished
Ġas p
Ġle mma
d frac
ĠĠĠĠĠĠĠĠĠĠĠĠĠĠĠĠĠĠĠĠĠĠĠĠĠĠĠĠĠĠĠĠ ĠĠĠĠĠĠĠĠĠĠĠĠĠĠĠĠĠĠĠĠĠĠĠĠĠĠĠĠĠĠĠĠ
u tive
oci ety
p lot
si a
and s
circ le
ĠI nt
ick er
dis abled
ymmet ric
m argin
te in
en ed
ĠR E
; <
c pp
16 0
ĠS eptember
ĠR ev
Ġbe am
Ġver tical
Ġmin imal
SE T
Ġo s
De lete
Ġrepres ented
Ġweight s
ĠP re
Ġno vel
HT ML
F inally
Arg ument
Par am
t un
G o
Ġoff icial
it ch
Ġprevious ly
Ġt ax
Ġde tailed
Ġter min
Ġhe ader
Ġmechan ism
Ġmagn itude
By tes
Ġli ve
) ),
ĠC ON
Ar gs
Ġgu aran
en ch
ĠAs sert
ĠN ame
ir al
reg ister
Ġcalcul ations
Ġbehav i
Ġ' /
Ġh ouse
ĠOct ober
V ari
b el
Sym fony
Ġtem por
d iff
Ġscal ing
p ite
Ġstra ight
Ġcont act
__ (
ĠF inally
stit ute
n one
Ġm ix
\ }$.
Ġh idden
w p
Ġmention ed
C lick
Ġproduc ts
Ġj son
enc ed
ĠHT ML
Con s
t wo
Ġen h
ist ent
Ġc riter
Ġcalc ulation
[ -
ĠT ime
}[ \
ac cess
Ġcalcul ate
Ġe lect
Ġin cor
Ġin duced
P arent
o ti
Ġqu al
uct ure
ĠR us
par ameters
Ġc ause
ĠB ri
i et
FA ULT
E l
Ġdimension s
] $.
ĠAug ust
ĠN ovember
$ :
bm atrix
M ain
ĠAl so
b ing
Ġre dsh
id ers
ĠV al
Ġun known
m ock
c ro
vis ed
lo op
Ġw ait
p ub
Ġb in
h s
st ore
ĠS U
Ġdirect ory
K ind
Pol icy
Ġpa ti
Ġb r
Ġm icro
Ġdis crete
Ġden oted
ist ance
ir it
b t
end ar
w rap
"" "
De bug
ĠW hat
Ġn amespace
aw s
Ġblock s
G S
lim it
Ġpop ular
Ġv ary
B ound
Ġ{ $
: =
y es
Ġc at
ĠC our
ĠH is
ĠR ed
Ġcom pe
bo olean
ex ists
Ġrele ased
Bo olean
Ġtest ing
an tic
) )\
EN D
S ta
Ġ math
ad min
rel ated
ema il
C F
ch astic
ĠRes earch
Ġabs or
Ġcomplete ly
il le
not ation
Ġtheore tical
Ġfinal ly
Ġchang ed
m ass
c il
o res
Ġclear ly
Ġre ve
P e
D ialog
f lu
Ġp ers
Ġn amed
m os
En abled
anc y
ĠD av
en tion
r as
Ġst op
Ġt riv
radi us
Ġclu sters
Ġbe yond
Ġge ometry
erv ices
Ġtrain ed
Ġprac tice
ĠU ser
W ar
ke ys
gr id
st ats
H as
N E
ĠCoun ty
Ã ³
An y
inst all
^* $
O M
Ġconn ect
arg ument
sq l
ble m
M ark
tic les
Ġrelations hip
st ri
Ġ< =
Ġpar allel
Ġstrong ly
Ġrot ation
conn ect
U P
sp ort
Ġinvol ved
Ġprov ed
Ġflu ctu
R ou
proto buf
Ġsc ore
Ġc ry
os ity
Ġscenari o
Ch anged
ill ing
ĠM ap
b p
Ġr isk
) --
Ġ ener
Ġc ycle
Ġen tity
v s
Ġ( '
ĠM a
reed om
medi ately
ĠW est
ve e
Ġhigh ly
Ġmach ine
ud es
ĠW ork
Ġs creen
Ġmet al
}\ ,\
Ġent ropy
Ġscal es
Ġal bum
Ġcoll ision
ri a
St orage
l at
_ ;
gener ate
ĠEx p
ĠI O
Ġne ural
op ic
Ġconsider ing
pro perties
call back
M R
a ff
lem ented
Ġex am
Ġpi ec
v an
Ġdo ing
=" ">
R ule
ĠP y
Ġcoeff icient
Ġesti mation
] $,
en omen
Ġear lier
Ġsatisf ying
Ġpl atform
empty set
con trib
Ġg ames
ĠR equ
Dire ct
Ġre call
c ut
Ġevalu ation
Ġjav ax
w in
ĠU sing
ou l
Ġl ibrary
> \
in line
V ID
Ġneighb or
g reen
=" @
}} )
C an
Ġf ast
u de
$ _{
av el
Ġs us
Ch annel
Ġide al
ag ue
Ġhel d
Ġfunction al
Ġintern ational
item s
imilar ly
w ell
E C
Ġm ut
ĠE ach
Ġcoordin ate
CT ION
ĠPres ident
Ġk ine
t frac
En g
C re
Ġcoun tries
D I
r d
ĠI S
F ields
ĠD ire
lu ster
X ml
Ġr ing
cal led
Lo ad
TE D
ĠO ut
as c
er ies
B S
par ison
im es
it z
rom ise
199 8
12 8
Ġfund amental
ĠAmeric a
ĠOp en
p ay
Ġrela tively
` ,
Ġpro por
Ġsing ular
Ġmod ified
om b
h a
Ġal t
}) }
trac ted
\ ;
Ġdist inct
j query
Ġth ing
Ġp ush
Ġopp ort
Ġby tes
Ġe ver
ul i
T C
ĠV ol
a ign
Ġcon cent
ing ton
W riter
ĠV alue
Ġunder lying
ĠCh ris
Ġ\ ]
tr ack
Ġu til
ici ently
Ġver ify
Ġsol ve
ĠA ustral
Ġw ays
Ã Ń
B L
Ġ( "
f ly
Ġapp e
Ġdid n
eng ine
si tivity
j oint
T e
ar ing
ĠMe thod
Ġth ick
O K
Sh ow
tot al
Ġdiffer ences
ĠF orm
W hat
Ġes tim
ĠO ther
Ġsub group
Ġvis it
ĠĠĠĠĠĠĠĠĠĠĠĠĠĠĠĠ ĠĠĠĠĠĠĠĠĠ
D S
al led
ext ension
as ons
Ac tive
}} _{\
gr ams
leg al
pass word
ĠF urthermore
on omic
| }{
Ġb tn
B ody
tr iv
To ol
m i
ĠAcc ording
ĠN OT
Ġrob ust
Ġevalu ate
n n
Ġs ound
Ġdynam ic
ang er
Ġthrough out
B ut
en ge
ed eral
r ams
Ġsum mar
Ġlabel s
c b
n etwork
Dis play
Ġcharacter s
a ver
con dition
ĠG roup
column width
Que ue
Ġpur pose
o ph
Ġsh ared
Ġfollow ed
? :
ur ations
Ġn or
Ġac tivity
Ġconst ants
Ġcon cept
Ġindic ate
AG E
P erm
J SON
ond on
Ġcon structed
br uary
Ġcontain ed
fer ences
re w
ĠT e
; /
AT A
$ &
cm d
ro t
big l
Ġm ask
Ġsuff icient
h older
in i
r ong
dic t
}} }\
A p
Ġvari ety
inc ipal
TE ST
ts d
m ann
P ost
Ġexp ressed
Ġtreat ment
Ġadv an
Ġs ampling
str y
su ch
il ities
Ġnuc le
ĠI sl
Ġinv est
C ustom
Ġplay ers
Ġj oint
Ġd b
Ġc op
R R
ad ers
g ies
Ġle d
S end
wit ter
ĠD r
Ġw allet
Ġhigh est
or ter
VER SION
Ġin line
ĠEng lish
ĠA m
Ġw ent
Ġcre d
w ner
ir th
Ġtherm al
u el
R oot
. *
Ġques tions
d p
l arge
Ġdecom position
In v
Ġ ^{
Ġeffici ency
ar c
J ob
big r
}} .
Ġremov ed
N etwork
no ther
Ġsimp l
Ġin verse
Ġre comm
==== ==
Ġy ield
ing le
Ġh tml
Ġann oun
ĠCent er
Ġc lean
P RE
ĠK ing
In itial
Ġd a
ra d
ilit ary
Ġslight ly
script size
Ġ ),
al f
ollow ing
Des criptor
Ġsection s
Ġno tice
ĠĠĠĠĠĠĠĠĠĠĠĠĠĠĠĠ ĠĠĠĠĠĠĠĠ
ĠM ich
Ġtrac e
rom e
U RE
C ar
ut f
ĠV ir
Ġfr ont
ot al
Ġlim its
Ġre li
Trans action
sl ant
1 20
au gh
onom y
Ġdes igned
Ġrepresent ations
h ome
] {\
Ġ" /
ĠĠĠĠĠĠĠĠĠĠĠĠĠĠĠĠ ĠĠĠĠĠĠ
urs or
m ove
Ġconf ir
Ġbel ieve
f i
Ġch em
}) =
Ġ( *
tain ed
Ġenc oding
ent er
ap an
Ġpath s
Ġim mediately
s yn
Ġbut ton
Ġdepend ing
k w
k i
ĠU RL
Ġmonth s
Ġphys ics
Ġattribute s
Ġequ ilibrium
ra ys
B P
ed it
sp ring
an o
Ġu tili
Ġp seud
ĠApp endix
Wh ile
Ġexplicit ly
Ġtyp ical
Ġdes ired
J ECT
sc roll
M eta
as er
lang uage
ĠSci ence
Ġparticular ly
ti p
ĠT ra
Ġcon clu
Ġal loc
Ġcom ment
f ol
ĠH ouse
U ID
12 3
ĠE ar
ĠGener al
Ð »
u y
, {\
ĠB ro
os ing
By Id
Ex ample
AC E
Ob j
Ġph enomen
ch es
Ġarchitect ure
sl ash
T ra
Pro of
Ġext end
Ġb ad
W S
Ex pr
D P
if ies
l g
T S
Ġansw er
}} ^{\
Ġp ick
ĠS ervice
set s
Ġelectr ic
Ġunderstand ing
Ġc yc
Ġl ack
h orizontal
A uto
Ġp y
KE Y
ch ain
Ġocc urs
P a
' .
at ur
Ġvis ible
math op
sch ema
Ġman agement
Ġbeg an
er ve
sing le
ĠU se
)) )
Ġsc i
ĠEurope an
Ġin her
fig ures
ter min
Ġac qu
al gebra
si vely
P AR
Ġcon sole
Ġs ort
Ġincre ased
Ġex clu
ĠC re
Ġcomp uter
Ġshow ed
Ġm sg
Ġt en
Ġpol y
ç ļ
Ġh ole
Ġ Ã
Ġnew s
ĠIntern ational
ĠS an
Ġexp ress
IT Y
if i
code d
Ġqu ick
Ġob vious
in clu
f amily
tic k
Ġper fect
çļ Ħ
war m
com ing
i tive
Ġsuff iciently
in sert
math it
Ġdete cted
m f
Ġt un
u ge
ĠDe partment
pro file
th read
15 0
form al
que ue
re me
ad es
ph ot
Ġassum ptions
B efore
Ġd ro
id a
Ġ% }
Ġobj ective
I X
nap shot
ĠB ay
/ (
ge x
Ġlo ve
Ġcombin ed
Ġve hic
hel p
Ġachi eved
Ñ ĥ
ev ents
Ġmax imal
Ġ\ !
Ġcons tit
A m
Ġcommun ication
Ġperson al
Ġqu asi
Ġapp lying
ac tic
Ġpo sitions
Item s
.... ....
Ġprocess ing
wh en
a tively
FI LE
. __
ĠCh ina
^{ *
Ġon to
Ġrecog n
Ġp refer
Ac tivity
D R
ti an
L java
Ġtyp ically
}) ^
Ġke ys
@ "
Ġm oney
ST ATE
multi row
if ts
L emma
Ġent ries
SS ERT
ok s
st an
Ġbi as
a iled
ex ception
ang uage
g ment
Ġshow ing
Ġ lock
ĠL a
h av
Ġm iddle
gener al
g it
add r
Ġassert Equals
Ġintegr ation
Ġd rop
ens es
h ol
Ġex tract
Ġpro gress
W idget
Ġab ility
pro b
key word
Ġbegin ning
B it
[ :
ph ys
Ġstr ateg
B E
po ch
t xt
Ġno thing
v ature
r andom
un signed
ĠA L
ic o
ass ets
Ġdiag onal
Ġun less
Ġre ader
s ince
Ġcolumn s
Ġbeh ind
B uild
pro duct
Ġto ld
uc ket
######## ########
fl at
tikz picture
D C
Ġeff icient
ang es
w ords
di re
Ġimp lemented
en a
br id
n el
ill a
iv il
is ely
op tim
s ave
Ġpredic tions
Ġo dd
ĠCom m
Ġh istor
Ġst ability
ran g
Ġir re
long rightarrow
Ġplay ed
Ġde lay
w ild
i ota
Ġacc eler
$ {\
ou rier
cl oud
Ġinstance of
Ġrun s
\ }\
Ġm id
s ymbol
Window s
Ġd ust
Ġstatis tical
Ġapproximate ly
triv ial
em es
Ġ ul
se lected
) }_
Ġj ud
o y
\ }$,
ĠFe bruary
ver ti
Ġvari ation
import ant
Ġn amely
F loat
} |\
ĠF alse
Ġchannel s
In ternal
pr imary
Ġpredic ted
mag netic
}_{ -
Ġex tr
ch o
H ence
Ġindu stry
] :
ly ph
sub sec
p k
"> &
Ġi on
u ed
Ġpro ceed
b ot
cont roller
G rid
l b
L ock
Ġmanif old
z h
Ġ icon
( !
Ġmis sing
\ |\
tr l
Ġsu gg
On ly
ĠL ag
P op
Ġcell s
Sc ope
Ġcap acity
Ġsugg est
Ġcandid ate
V M
}$ }
Ġs ector
Ġpro pose
Ġcon sequence
ĠL ondon
() {
//////////////// ////////////////
199 7
Ġh it
Ġf ib
gener ated
Ġrepl aced
Ġm assive
Ġinflu ence
Ġj us
M T
Ġder ive
Ġim m
) &
][ ]{
Ġid en
ĠE vent
ang o
ĠHe alth
s ys
Ġgrav it
Ġeduc ation
Ed it
entic ation
b ib
Char acter
Ġin tr
for mations
l ig
ĠG od
Ġass ess
et al
| }
Ġdeg rees
re lation
is tics
iter al
ĠD em
Ġf erm
Ġderiv ative
Ġtra de
mission s
ir ing
Ġw atch
form ed
s en
Ġm ock
M sg
Ġ} {
ĠIn deed
u a
ol ar
Ġc m
Ġupd ated
Ġsum mary
m aster
Ġf air
Ġsem i
tif ied
ĠGo ogle
Ġb ring
ĠW illi
ig gs
Ġcomput ing
pos es
h ar
Ġpo inter
G R
ĠC opy
Ġphot on
Ġnon linear
Ġto wn
] ]
av ed
ĠH ow
des c
Ġaltern ative
Ġpres erv
ac c
f ail
ĠT HE
un t
ig ration
s ort
n es
.. .,
Ġcom ing
D M
ĠEx ample
as et
Ġcon j
tr igger
Ġmax im
Ġin deed
ĠCour t
- (
Ġsatisf ied
ĠD i
Ġgener ic
Ġb os
Ġd x
Ġde mand
ĠA ir
} ~
ĠBri tish
ra int
Ġrece ive
G iven
Ġlook ing
ol ver
drop down
AR Y
Time out
an ted
p air
a ults
[ $
Ġlocal ly
Ġopp o
Ġg reen
not ag
ran k
Ġext rem
s witch
Ġtechn ology
Ġ} }
icro soft
H S
Ġtriv ial
t iny
Ġfin ancial
olog ies
v a
199 6
Ġcl oud
=" ${
k m
Ġf reedom
Ġaff ect
Ġmov ing
Rec e
oci ation
Ġinst ances
var theta
ĠC ode
Ġspec ify
) [
ub y
Ġad op
Ġcontr ad
and ra
Ġener gies
Ġcharacter istic
Ġp en
Ġre serv
g an
D T
Ġwhere as
eli hood
Ġsepar ate
ibr ation
Ġdist ingu
Ġpar ty
$ /
al loc
Con f
C I
Ġb rief
re et
ub ble
Ġh ours
ĠS w
Ġs izes
umin osity
Ġu nd
ver gence
= .
Ġprob ably
Ġb all
Ġ{ {
ĠN O
n y
ient ation
^{ (\
) })
Ġfl ag
n ames
ĠS O
Ġcare er
ren ch
X T
Ġ$ ,
in her
Ġthe ms
Ġtop ological
=" "
s ect
ĠH ol
Ġspec ies
ad y
ser tion
}} =
Ġnuc lear
med skip
Ġ[ ];
Ġtechni que
Ġmet rics
Ġgo es
M OD
Ġad ding
Ġre pro
Ġasympto tic
S cale
Sec urity
Ġw all
Log ger
Ġcan onical
Ġs ym
ĠL ie
and ard
Ġhy dro
Acc ount
Ġm essages
Ġlead ers
Ġthems elves
ĠI P
ĠInd ia
ĠL aw
As sert
k in
Ġvari ance
Ġf ine
() ));
ĠE l
_ ->
: =\
Ġar t
ex ternal
Ġor th
cont inu
br as
at tle
ĠG overn
U LE
F S
Ġex change
Ġget s
Ġcompan ies
ĠB ase
ot ing
ite s
il ation
Ġhar mon
I ST
config uration
Ġmo tiv
__ __
S ymbol
Ġcour t
anc el
Ġsequ ences
s creen
N G
function s
Ġtr igger
Ġsa f
v c
Lo ader
par a
ĠO per
as ic
SI ZE
Ġe mail
ĠE nd
sk i
Ġpos si
Ġst orage
Ġv s
Ġn g
P anel
ĠU K
Ġla unch
type of
Ġnear ly
ĠT ext
Ã ¤
ant om
ĠI R
Ġt al
Ġattem pt
LO G
ec ho
Ġf ire
Ġm eta
Cons ider
Po ol
comple te
ĠG al
Ġb undle
ï ¼
;\ ;\
ok ie
scri pts
to ols
ĠA uth
p are
Ġocc up
Ġs qu
P ATH
S ample
ist ence
f ixed
ĠG reen
Ġsto chastic
th rows
if orn
Ġm ixed
ĠD ir
ĠAl though
Ġ= ========
m ult
L a
st op
Ġus ual
Ġfind ing
Ġco inc
M atrix
T ABLE
ge bras
o e
Ġs pher
NavBar Cell
gra d
po ol
Ġcent ury
Ġs cript
par ator
Ġtra vel
ĠBl ack
sp in
rec ord
Ġdis cre
avel ength
Ġexp and
M edia
an ks
Ġexpl an
Ġf unc
h idden
r ich
Ġin str
() ).
int ro
Ġis omorphism
p res
Ġre ct
M ENT
MA X
ĠJ apan
loy ment
nav List
oc aml
Ġs ave
}\ |
Ġindic es
j ob
Ġhand ler
iforn ia
Ġcom b
s quare
Ġcall s
Fl ags
ic ies
ymmet ry
ĠO ver
ĠP ark
Ġqu ark
Ġbul k
sh ift
CH E
Ġfor ces
get Element
ĠA R
ak er
Ġd ashed
ĠT ech
Ġprov iding
Ġlo st
low er
Ġ\ &
ĠG iven
Ad apter
V ol
Ġstatis tics
g a
com ponents
Ġp riv
A rea
ev en
Ġgeneral ized
Ġan i
ĠF oundation
Ġa wait
Su ccess
i us
Des c
par ser
! ]
Ġse x
Ġaccur ate
w rit
g ather
I E
EX T
Ġr ise
m as
Ġcon duc
ĠCol lege
Ġen able
Ġec onomic
aren ts
inte gr
er tific
Ġinter ested
ug ht
Ġe lection
Ġa p
F C
equ ations
Ste p
M ar
s ym
Po inter
Ġpr ice
En um
pl ain
la w
form ance
Ġno ted
G N
Ġin depend
UT F
ĠK ey
ing er
rop ic
Ġradi al
wild fly
Mapp ing
Ġsys te
Ġprec isely
Ġm ul
print f
++ ;
Ġdynam ical
Ġ er
Ġra pid
a el
Ġben ch
b c
ul ator
B rowser
Pro xy
or ded
)) );
Ġhe avy
RO M
ĠM or
h i
Ġ$\ {\
le v
Ġform ed
fl ags
Ġexec ution
ar m
D uration
an de
Ġf ill
Ġgra du
Ġsu itable
+ (
Ġinter section
Ġin valid
log ger
Ġn ight
Ġmod ern
Ġe lem
X i
con tains
Ġsur vey
Ġwork ed
ĠP ublic
. \\
b rowser
z en
n il
s us
Ġ( {\
h l
Ġo uter
Ġwor th
th ere
Ġenc ode
Ġrem ark
L i
ol ic
Ġcos m
Ġfam il
R et
Ġcont roller
oc ation
ult ane
Ġsp read
Ġen abled
lic ations
Fe ature
l an
Ġimport ance
s warm
es tern
up load
ash ington
sec urity
Ġequ ality
in ted
Supp ose
Ev ents
ĠI d
\% $
Ġredsh ift
r ase
Ġsign ature
Ġperiod ic
Ġinput s
Ġradi ation
v ity
Ġ rows
Ġdis per
I B
ĠH er
F r
ĉ čĊ
Ġs s
m n
Ġcon duct
w orld
Ġd ir
ĠM ax
Ġg r
S yn
Ġag ents
ev es
N A
the tic
Ġh on
Ġpro grams
ĠO ption
Ed itor
Ġexpression s
Mem ory
Ġsp ect
Trans form
Ġiter ation
ĠTO DO
Ġcaus ed
Pro p
ĠH el
et ween
Gener ic
R ad
P ack
Ġfail ure
F rag
J ava
S ER
n egative
Direct ory
z a
il bert
Ġso ft
Ġdimension al
I MP
ĠA rm
res sive
por ts
To String
Ġag greg
! \
tic ip
ĠCoun cil
More over
Ð º
ĠF unction
Ġimplement s
@ {
M o
}{ *
og onal
Ġcur vature
sp e
il led
back slash
ĠS uch
Ġas ync
ul ty
F unc
Ġprec ision
col lection
P art
Ġ( _
uc ial
ĠAr ch
M ember
di alog
Ġbehavi our
L R
Ġtrans lation
Ġexplain ed
ens ed
t an
Lay er
Ġreve al
Ġco q
ĠR el
ĠS en
Attribute s
w ik
ĠĠ čĊ
ĠCon fig
Ġprof ession
par allel
S ome
Ġd ot
Ġfamil ies
Ġinvestig ate
RI PT
Ġeigen values
Ġget ting
ĠA N
ĠO f
. [
lo od
( -\
Ġrela x
resent ation
Ġnormal ized
col lapse
ĠV iew
abe led
Ġgrav ity
In it
Ġpattern s
H R
Ġag o
v o
Ġpre vent
s cription
Pro tocol
Ġin struction
Deta ils
0000 00
cor ollary
Dat abase
sa fe
Ġb ur
Ġle ave
" `
ĠVer sion
Ġr ational
im it
Ġser ial
Rep ository
Ġst ress
B B
ote s
ud get
web pack
1 10
Ġn ative
)-- (
app ly
'] )
pl an
ĠNew s
t mp
pro ps
ĠRep ublic
clu ster
> :
Ġab und
Ġthe ories
pl ane
Ġab stract
Ġelect ro
Ġquanti ties
ed s
Ġst ated
assert Equals
ĠC ap
Ġseg ment
Select or
the less
Dep end
h ref
Ġar ti
Ġl iving
Ġsh ock
Ġpr ime
Ġxml ns
D ouble
Ġt ab
Ġm aster
d ated
Ġg ran
Ġ{ '
assert Equal
k o
Ġde bug
get Name
{ %
Re ferences
ential s
Ġleg al
b ad
se p
ph one
or ation
Ġb atch
duc ible
ph ase
S w
W A
res et
Ġto ols
< !
rang ian
Ġf ood
lo ss
å ı
P lugin
et te
f c
X ML
g b
f ix
Ġres id
me an
) ^\
ĠN etwork
ĠCh rist
^* \
comp iler
199 5
ĠĠĠĠĠĠĠĠĠĠĠĠĠĠĠĠĠĠĠĠĠĠĠĠĠĠĠĠĠĠĠĠ ĠĠĠĠĠĠĠĠĠĠĠ
C M
all classes
-> _
cri be
Ġtry ing
tem p
t ty
man ager
ĠP al
Ġdete ctor
ĠIn stitute
Ke ys
Ġro om
fer red
Ab stract
^* (
Ġp icture
id x
Ġcon tribute
Ġany thing
ar ith
Ġent ang
ĠEng land
Ġsur v
ff ic
sp ective
man if
Ġque ue
con v
ĠS m
un ic
col Last
ock er
Ġro ugh
Ġint ensity
Ġsc ience
bold math
Ġte s
ĠCal ifornia
Ġm ilitary
stack rel
ST AT
li ance
Ġco her
Ġ= ======
F ull
Ġs il
h ere
$ ^{
Clo se
ult ural
text color
Ġhypo thesis
P ay
ann ed
Ġfri end
Ġcontr act
Pr int
s imple
Ġquan tity
Ġequival ence
li br
Ġ[ [
tr im
Iter ator
test s
Ġc ategories
00 1
par ticle
S Y
us es
F ound
ĠRe act
ĠI mage
ĠM ag
sum er
hand ler
cal c
G lobal
War ning
Ġ ,\
Ġun ion
C G
ĠDav id
c ape
ĠDef ault
Ġm ind
Sum mary
Ġvalid ation
u um
sh all
$. }
Ġtr uth
S QL
ĠGe V
col First
Ġrequire ments
el t
prote cted
aj ax
_ (
tran sition
Ġis ol
Ġb orn
Ġmath ema
ĠC all
P attern
Ġcom position
y al
Di ag
ĠP ost
fe ature
j ango
y e
F IG
j i
Ġevalu ated
Ñ ı
m oment
A X
Ġassum ing
ĠĠĠĠĠĠĠĠĠĠĠĠĠĠĠĠ ĠĠĠĠĠĠĠĠĠĠ
U ni
ph as
ĠM r
Ġdev ices
Ġ" "
ĠM em
T rac
le ep
Ġi o
st ro
Ġadvan tage
Ġcomple ted
S im
t body
H C
Ġdis e
s ome
Ġconfig urations
ven tion
ĠS ta
Ġse ven
ĠN ode
199 0
M ath
Ġra w
th ick
S pace
c line
up s
Ġnav igation
iz able
*} [
ce pts
Ġ\ ,\
down arrow
Ġtre nd
or ge
ĠS M
Ġgiv ing
gra de
go ing
ce il
* )
b d
) ">
ĠV AL
lo ok
ĠS I
Ġauto matically
h aps
Ġ ens
N OT
BU G
Ġb uilder
| $
ĠIs ra
_ ,
ran e
Ġre q
met adata
Ġl uminosity
Ġc ard
pro v
S eg
an ded
pl us
ce ptions
Ġgener ator
Ġsc ene
struct ure
Ġcamp aign
Pro file
Ġf lex
ry pt
Ġed itor
ĠL i
Ġd uration
Ġreach ed
oriz on
ell ing
Ġmov ed
ĠE ast
Ġso on
Ġweb site
iter ator
ĠT ask
IC E
Not Null
N ULL
ĠN or
stit ution
Sc roll
m al
Ġqu ar
Ġ rac
Ġexpon ential
n eg
ĠL ong
Ġread ing
Ġs on
Ġ" <
footnote size
File s
á ĥ
. '
Eng ine
ph antom
Ġrequ ests
urren cy
Ġmatch es
b g
ĠB er
Ġcre ating
Ġpro jects
ar ticle
p attern
child ren
h fill
Ġserv ed
ro te
Ġ-- -
Ġrel ig
Ġhe at
Ġdescri bes
Ġperturb ation
Ġfluctu ations
ĠF in
y y
', '
T T
Ġsugges ts
Ġconnection s
tab s
ii i
Ġmov ie
Ġsol ar
Ġstud ent
h ide
text up
ĠIn c
Par se
Ġsign als
Ġthan k
ree k
Ġtra ditional
ĠUp date
Ġmed ical
Ġmajor ity
Rem ove
) }.
Ġtype of
ĠIn itial
R AN
pl atform
| ^{
Ġre asons
">< !--
f x
Ġincor por
ĠA ND
A ni
Com ment
n p
) "
F ail
is son
Ġgener ating
Ġdisc r
Ġneighbor hood
ĠW il
Ġexper i
Ġep is
à ¤
Ġstring s
Ġel lip
H ER
Ġmin or
Ġbo ard
m ask
ĠĠĠĠĠĠĠĠĠĠĠĠĠĠĠĠ ĠĠĠĠĠĠĠĠĠĠĠĠĠ
Ġhal o
v ect
Ġcar ried
Ġrepresent ing
Ġgravit ational
Ġc a
ĠSupp ose
Ġuniform ly
sh adow
ĠW ashington
Ġpolar ization
is ot
Ġcomp atible
tr ace
ob serv
; }
Ġiden tical
Ġf n
ur a
ti le
Ġas ked
k ens
j ar
attribute s
Ġtri ple
Ġpos sibility
ens us
ac le
%% %%
fil ename
n odes
Ġac ts
A tt
head ers
equ ence
Ġoff ice
", "
cd n
av en
' _{
Ġplan et
p refix
Ġacc re
f d
Ġcar ry
N T
Ġde m
ni tion
O ther
' =
Ġimpro ved
Ġd t
Ġnecess arily
B AR
pos al
Ġj et
ill is
om as
Ġdec l
up arrow
ĠN umber
Ġsim ultane
s ig
Ġquad ratic
er ial
ĠK e
Ġlear ned
ac ob
Ġk m
z one
ON E
ĠĠĠĠĠĠĠĠĠĠĠĠĠĠĠĠ ĠĠĠĠĠĠĠĠĠĠĠĠ
Ġpol ice
Ġrec ords
ari ties
Ġp refix
ĠPro ject
Do main
& =\
p ower
Ġno tion
12 5
ĠI E
h ave
Ġchem ical
r ift
si p
S ocket
Ġsite s
C luster
reg ular
tit ude
ac count
)} (\
k l
wo od
ĠU N
ir ror
Ġph ases
ap es
Run time
A gent
ĠAl gorithm
velop ment
33 33
Ġmod ules
Ġuncertain ties
y a
Ġco ol
Ġevery thing
by tes
C ref
Com mon
Hel p
ĠR et
ĠS D
Ġpo ol
i em
Ġwrit er
it a
Ġdepend ent
St ats
FF FF
ma ven
Ġfa ther
} >
po site
Ġsupp ose
) (\
J S
Ġord ers
c are
25 0
Ġdemonstr ate
Ġconv olution
oper ation
detail s
ĠCons ider
Ġass igned
d iffer
tr ine
know ledge
ð Ł
Ġsome times
Ġp ull
Ġw anted
Ġsp an
Ġp atch
ĠIO Exception
Ġmed ium
trib uted
G u
ĠCh urch
Ġman ager
bas ic
Ġ? >
Ġcap ital
Ġapplic able
Ġm or
Ġl isted
left arrow
Ġsch ema
ow ers
Ġdefin es
F ailed
Ġindividual s
sc opic
CHE CK
Ġto uch
ta gs
=\ {
F L
Ġoption al
Const ants
Ġb right
ff ff
pt on
ro b
}$ \
ro ad
199 4
ign ment
Ġpo or
Ġmod ify
Ġcoll abor
uni que
Ġm anner
b x
ĠPro gram
m its
Ġh ope
ject ure
Ġcouple d
i pped
Ġdefin itions
re size
-------- ----
as sembly
Ġis ot
ar r
Ġf em
st ates
Ġpredic t
uf act
R o
$- $
Ġorgan ization
ver b
A x
Reg ister
urre d
w ave
Ġbas eline
Ġpro xy
ĠB O
m k
Ġcom ments
Ġcorrection s
Ġh ierarch
ĠD el
Ġmaterial s
Ġan om
lar ation
18 0
en able
lic ated
text sf
ĠSec ond
AD D
ĠL android
Ġt alk
ĠF ield
ĠA ction
' m
Ġw rong
Ġl ives
Ġb rowser
ĠJ ava
serv ices
() </
Ġro ute
ĠCon n
M I
R est
ag o
Ġmain tain
de cl
ir ical
. $$
Ġrefer ences
U L
Ġcost s
H ow
W rapper
pro vider
Ġden se
ĠAs sembly
S imple
Ġfeed back
Ġ{ $\
Ġt ail
Ġess ential
Reg ion
ĠU nder
Dec l
Ġdevi ation
{ (\
conn ected
Ġis n
ĠF ourier
Ġconf lic
Gener ator
Ġrestr ic
Ġw avelength
Ġhapp en
D est
la in
ens ors
Ġsign ed
Ġs lo
per iod
ĠS y
use um
\| _
$\ \
? >
Ġt ro
AR N
Ġband s
um ption
ĠH iggs
pro tocol
w t
ack son
stan tial
Se lection
State ment
}. }
li k
om ents
se q
} </
ed itor
w rapper
ĠEx ec
Ġdes c
Ġrespon sible
Ġge ometric
ĠB ecause
Ġc ref
Ġ[ ],
Ġtrans mission
ĠAn y
v ille
Ġprofile s
M F
Ġconstruct or
Ġtop ology
Ġpix el
j a
S ync
x html
Ġ" ,
E V
ĠH o
Ġform ulation
$ ^
sequ ent
Ġs om
T wo
{ |
\!\! \!
Ġdirect or
Ġsec onds
Ġrefer red
S ingle
Pass word
' ve
inv ariant
Ġl ies
de te
ch e
(' .
error s
Ġsa w
H igh
Ġscenari os
le ted
P y
I A
Ġsur pr
Ġoff ic
Pro duct
f g
bin om
spec ial
Ġmain ly
ess or
Ġorder ed
Ġpass word
h old
Ġpro p
Ġat oms
P air
rup t
P ORT
AL SE
O PT
Ġw alk
ĠĠĠĠĠĠĠĠĠĠĠĠĠĠĠĠ Ċ
S N
O UT
. ");
Ġtrans l
b uilder
ĠS k
Ġd u
Sec ond
Ġent er
G en
~ (\
Ġdiff usion
Ġw ind
, ...,
) >
er ior
Ġsyn chron
g ate
w all
$\ ,
ar a
E rr
th eme
h ips
Ġbal ance
ĠCan ada
ĠInd ian
l ers
Ġbel i
Ġh orizontal
F E
IN D
Ġtrans late
Ġ[ "
(' #
ile s
\ /
Ġb irth
Ġre duces
c lip
Ġsize of
dition ally
mid rule
En coded
exec ute
Ġin iti
P D
z y
Ġadj ac
Pro ps
Ġw rote
u ages
& &\
T race
Ġstar ts
ordin ate
pre v
Ðµ Ð
ĠJ ames
Ġsol ving
Ġf avor
ret ch
Ġtran sitions
ig inal
log in
Ġbook s
T x
A ut
Ġmix ing
Ġc amera
S cal
Ġ" -
RE AD
ĠR ich
T otal
rac ket
Rou te
Ġdirection s
6 00
ĠM et
me asure
j unit
N odes
ag ent
k t
} /\
Ġsuccessful ly
Ġchang ing
TI ME
p u
Se lected
ĠS um
math tt
au di
Back ground
m ented
Ġst ored
Ġrecon struction
r f
ĠIn teger
ist ing
Ġin j
t ensor
ins ic
Ph ys
Ġevent ually
ĠG r
Ġreg ression
dep th
ce pted
s el
Ġ\ |\
Ġu i
Ġpar ser
Ġtop ic
ch anged
sp ital
TE XT
L in
Ġsus p
10 1
A CT
_{ +
ĠF rench
Ġsta ff
Ġsch edule
ĠIn dex
un ct
sh ared
ĠS ur
ĉĉĉĉ ĉĉĉĉĉ
ĠJ ew
if ted
Ġg ave
Ġadop ted
Vari able
Ġflu id
Ġ$ ^{
ĠCO VID
ĠTr ump
Ġ\ [
amp ion
O B
Ġd ied
Ġuni versal
Ġstraight forward
ĠL eg
Ġc ast
Ġ ri
pl ates
Ġcre ation
fin ed
Ġar c
Ġinter mediate
H o
x s
entif ic
uil t
Ġmin utes
ĠRes ource
Ġloc ations
}) ^{
C lear
Ġquick ly
d one
Ġoppo site
us form
numer usform
Ġinst alled
d ensity
ĠH ash
Ġth reat
Ġc tx
Ġres idual
Ġmodel ing
Reg istry
Ġden sities
Ġfrequ encies
ĠCopy right
Ġmet adata
ĠGerm an
Collection s
Ġv ic
mult line
view s
Ġpres ident
Ġen jo
Ġt end
Ġrec ur
Ġcandid ates
Ġmark ed
Ġmove ment
ĠN AME
Ġsp ent
ĠUn ion
ĠCor ollary
Ġhim self
Ġchall enge
spring framework
ertific ate
Ġturn s
s n
ĠB el
ar ded
aw a
Ġem phas
ine ar
lec tive
Ġpati ents
Ġe poch
const ant
Ġcharg ed
Ġcomm ut
Ġlow est
T A
Ġm us
$ '
leq slant
Ġguaran te
Ġre v
re y
Ġlog ger
c ross
Ġhigh light
Ġrem ote
Ġpolynomial s
Ġpr incipal
know led
}^ +
p icker
ĠP ub
Ġde ad
Ġexpect ation
C ategory
Ġhom ogeneous
Ġactiv ities
ele br
UR I
Ġ ],
] ^
Ġpl aced
Ġvac uum
Ġb its
P layer
ĠSu per
Ġat mos
Ġc odes
Ġstrateg ies
CE SS
g i
d k
S F
Ġ _{\
ĠM essage
CT YPE
y r
ĠD ep
Ġ( .
( __
ĠWh ite
Ġneutr ino
Ġdis tr
Ġess entially
Ġcol lect
ĠT V
ĠTech n
H istory
ĠRe ad
Ġcorrel ations
ro om
P ub
Ġpub lish
ti tions
im its
}^{ +
LE CT
g ame
Ġversion s
\ },
Ġinterpre tation
ĠG R
Ġpol icies
ĠS im
Ġpur poses
Ġmost ly
Ġsepar ation
sv g
Ġper mut
us ers
Ġanaly tic
Id entifier
index Of
c lean
C ho
g ments
in valid
te l
ĠB oth
phot on
Ġas k
as y
Ġchar set
prec ated
C RE
Ġfit ting
Ġen semble
over view
Ġad vers
Big g
pa per
W N
ma zon
Ġcontinu ed
Ġhear t
Res ources
Ġorth ogonal
type def
Ġaff ected
Ġcover age
ĠE xt
Ġconj ug
Ġres olve
&= &\
Ġdecre ase
Ġh ot
fl ag
t k
Ad min
Ġalgebra ic
on ym
requ ency
n m
anc ing
Ġr ig
Ġannoun ced
ĠD ay
Ġdr ug
Ġconf idence
Ġsh ell
Ġelectr ons
po le
ĠC ong
Ġin ference
Ge V
Ġbench mark
Ġtraject ory
' ));
Ġcon vert
Ġrestr iction
ĠH and
ĠLag rangian
Ġdepend encies
Date Time
ĠM al
Ġj Query
Ġtemper atures
Ġsub stantial
ĠCom mission
ens ing
}[ !
c ing
Ġwe ighted
ic a
ra ise
Ġpar am
se y
Ġ( [
De te
199 3
IT E
Ġpropor tional
Ġref lect
Ã §
st on
re v
qu ote
AN G
Ġm arg
st orage
it o
an chor
ĠI l
ĠD on
Inst all
Ã ¼
ĠAfric a
Ġallow ing
Ġro ad
ur able
Ġex it
user name
j ust
sub equations
Ġmon itor
ar ity
de ep
per son
mo z
Ġplay ing
Ġpl as
Ġdire cted
dire ction
U D
R ole
] =
ak es
print ln
ĠH ttp
O F
play er
en abled
Ġign ore
Ġregard ing
Ġtempor al
Ġ\ {\
ĠOn ly
Ġrandom ly
DO CTYPE
ines e
F ind
Ġdeli ver
Ġm enu
Ġstrict ly
ama zon
ĠS yn
ĠP ress
Ġwork ers
Ġapp arent
us ted
pol icy
Ġall Classes
ĠT wo
S V
Vis ible
ĠC R
s ure
nos tic
Ġdistingu ish
Auth or
ĠV is
ĠPh il
ed er
Ġm es
ĠallClasses Link
res ources
ĠW indow
Ġ' <
d c
e ks
Ġlate st
Ġw ish
ĠAustral ia
Ġsub space
ĠPar ty
ĠB r
U SE
Ġexplo re
Ġs al
or i
ro le
prop to
ĠM ost
EE EE
Ġfl ags
ĠD M
Inter val
! [
\ }.
}{ {\
ail y
> ::
ĠD at
\! \
ĠT R
ins tein
eff ect
Ġide as
Ġabsor ption
ĠE v
v ideo
Ġg rant
Ġexplan ation
ĠDem oc
ul us
E ff
py thon
Ġsupp orts
l as
Ġrep orts
de termin
H om
ur ally
F LA
Ġcontinu um
comple x
as ync
ĠE mp
ĠH all
Ġ ~\
Ġhapp ens
ĠDe finition
Ġschool s
Ġsen sitivity
IN FO
Ġdisper sion
199 2
pro gress
we ak
Ġdecre ases
war ning
Ġderiv atives
tem por
Ġtechn ical
TR UE
Ġintegr ated
Ġimp licit
and er
Text ure
el ian
Ġsen sitive
Ġsa fe
org an
ass andra
ĠCol or
te gr
ari an
ĠL com
F in
Ġeffor ts
Ġinter pol
A E
ti os
Ġ ).
il ing
S he
s ti
ar n
Ġimprove ment
L INE
ist og
Ġtem p
ĠSer ies
Ġvari ations
At tr
stand ing
big cup
end or
ĠM ac
ĠT em
exp ect
Ġsim ulated
Ġex tracted
op ed
tiv istic
var rho
Ġlaw s
Ġsugges ted
C B
ll ig
DE FAULT
Ġgu ide
Ġcontrol s
erm i
y les
Ġg lu
O ST
at omic
ĠLo cal
Ġrec orded
(' /
Ġser ve
ĠBo olean
F low
dic tion
å Ī
Ġb illion
ĠCom mit
spec ific
\ [\
.. .</
an aly
Ġpro ps
requ ired
Ġm other
Ġcon clusion
set up
Sk ip
A meric
Method s
h ard
, .
Ġindic ated
C red
lo ader
am i
Ġopport unity
W allet
Ġmeet ing
) }$.
P refix
Ġinter act
in ction
s lice
small skip
method s
Ġcon d
Ġor ientation
ĠComp any
) ->
te ch
ri al
Ġf ight
Ġch urch
Ġfore ach
Ġread y
ĠSt reet
comp are
Ġh um
Ġcho ices
exp ression
RE Q
Ġrepe ated
Ġdist ances
rior ity
O C
) _{\
ĠBo ard
ach ment
fin ity
Ġ ×
P Y
Ġ ĉ
Ġpseud o
Ġreason able
ĠT ex
Ġre tr
Ġc ulture
Ñ Į
Ġal one
pol y
Ġstate ments
Form s
Ġprec ise
Ġrestr icted
Ġp arents
ĠĠĠĠĠĠĠĠĠĠĠĠĠĠĠĠ ĠĠĠĠĠĠĠĠĠĠĠĠĠĠ
Ġf ol
c ounter
Ġenc ou
Ġa udio
ĠM ulti
ĠE ven
Ġsub section
test ing
Ġtre es
tr ight
Ġo wner
ĠAr g
Ġdest roy
n ol
B ind
¿ ½
ser ial
it ness
ver tex
g ray
at al
sign ature
W R
ĠP ort
th row
» ¿
Ġbro ught
Ġp ages
ab out
Ġf ederal
Ġsome one
u zz
qu id
st ood
ĠEqu ation
t c
ud y
ĠE duc
ï »¿
Ġdomain s
Ġview s
Ġcommun ities
Ġpix els
Ġinvol ving
new line
P lay
ĠEar th
Ġe ight
M s
Ġoutput s
Ġn orth
Ġ{ "
He aders
ĠG ets
Ġpl aces
Ġcry st
libr ary
Ġprac tical
ĠS imilarly
Ġnull ptr
Ġapp end
Ġ Ø
ID TH
enc ode
Ġus age
f lex
b rief
s or
ĠN AV
Ġdiag rams
}{ }
Ġuni qu
Ġspe ech
ĠIn st
Ġperform ing
Ġt sd
ĠA p
M a
Pro position
Ġqu eries
b log
text normal
. <
group s
Ġ â
ĠP ath
bl ank
ser ies
Ġchalleng es
U ri
= $
Ġsom ew
Ġlay out
Ġb re
ĠF lor
Ġdiffer enti
Ġd river
p b
Ġex cite
Ġsta y
ĠR ad
P ER
s b
Ġemploy ed
un defined
tright arrow
Ġc ub
S ervices
: [
\ -
M ouse
/ .
ĠC H
Ġattack s
Ġcriter ia
Ġto ward
EEEE FF
Ġf aster
Ġfin ish
Ġde b
Ġj ournal
Ġt urb
Ġmod al
19 80
ĠIn put
ĠD ev
Ġeffor t
lo aded
ĠB en
Ġpre v
ific ations
ul ating
Ġac com
Ġsch emes
Ġs ociety
Ġfil ms
# {
Ġgrow ing
Ġeff ectively
g ba
c as
ĠB ra
Ġvac c
Ġanaly ze
Ġlik elihood
\ }_{
Ġcirc um
ap os
Ġpl ays
c li
d ynamic
Rep ort
Ġirre ducible
E mail
sp ect
ĠAss ociation
Ġd ra
ï ¿½
Ġfr ames
Ġexec ute
i pe
Ġadj ust
L anguage
ĠRequ est
g est
valu ed
r uby
check box
ate ll
lear ning
Ġpossi bly
z ens
H ome
cus sion
Ġn ation
b re
sur face
ĠH ilbert
ĠV ector
ĠQ ue
Ġcr ucial
Ġan not
Ġ ill
pg f
Pro gress
Ġr ich
IV E
Ġhead ers
}} ,\
g in
8 00
sc ape
Ġt x
orig inal
Ver tex
ĠI mp
M is
Frame work
ful ly
side bar
def n
Ġinte gers
st ra
Ġsimilar ly
Requ ired
PO ST
() ))
~~~~ ~~~~
Ġt ang
at o
f act
Ġbenef it
Ġmolec ular
' ll
N ormal
Ġcli mate
Ġen um
Ġser ious
ou thern
orig in
Ġpl us
ĠCE LL
M ask
en ers
es ter
C N
Ġapp lies
Ġcharacter istics
Ġat omic
Ġvary ing
ĠD en
pl ings
EN SE
if def
S K
Ġcol lected
ĠR iver
b atch
ynam ics
Ġfri ends
Ġvalid ate
pe at
Ġlet ter
Ġorbit al
}{* }{
ĠD iv
Imp ort
A g
Ġsymbol s
Ġsyste matic
I ds
Ġd ict
ĠS a
ĠE ND
ĠArray List
Ġn arrow
R PC
sh ell
Ġw oman
| _{\
Ġre set
Ġwide ly
ĠPro cess
t z
Ġcondition al
vari able
Ġtrans verse
ar se
ti zation
at ural
place ment
T rack
Ã ¶
Ġfore ign
ĠP art
Ġfocus ed
ry ption
Ġsaf ety
MOD ULE
ĠL ife
Ġcl ub
char acter
Ġli e
Acc ording
uil ding
ĠT er
Ġdomin ant
Ġd ie
NavBar Font
ri end
Sh ape
iem ann
; )
Frag ment
ĠCol lection
_{ [
Ġprob abilities
Ġo k
Ġtre ated
alle st
lec ts
Ġmorph ism
te en
tri angle
Id entity
Ġre action
Ġm oments
app ing
Ġmon ot
h u
Ġsub sequent
; ">
Ñ ĭ
l m
plit udes
M ove
ä »
res olve
Ġsimilar ity
Ġasp ects
Ġm esh
Ġ race
Û Į
Ġenh ance
are st
ĠNAV BAR
( @
Ġconver ges
No tification
m ouse
lectr ic
lyph icon
le f
ĠPa ul
U nder
Ġref lection
Ġ\ }
sh arp
_{ -\
ME TH
Ġdocument ation
d ig
ĠGovern ment
N amespace
IG HT
Ġcommun ic
Ġdes pite
po sitions
Ġext ent
Ġeigen value
Be an
Ġbo ost
v dots
Ġiter ations
ĠPro f
/ {
p an
^* _
Ġinclu sion
Ġdig ital
Rec all
au ght
ist an
Ġaccre tion
Ġread only
Ġwar ning
) }$,
u pper
ĠD uring
M er
Ġsec ret
\| ^
^+ $
op es
ĠHT TP
um my
bel ow
j k
re port
ĠS un
ach ine
ĠS QL
con sole
' ];
Ġs ides
Ðµ Ð½
Ġdec ided
Al though
ĠU I
! \!\!\!\!
Ġ ];
w ill
S pe
De legate
v in
und ers
Ġlog ic
t b
pro xy
" ],
ver age
Ġrecomm end
f actor
}) =\
D en
Ġsepar ated
ol or
L C
LO CK
ac tiv
Gener ated
Ġspec ifically
ĠSt art
h al
ĠGe orge
u v
Ġsimp licity
Ġtra ffic
Ġop in
Ġtrans formations
ĠIn v
Sh ort
Ġz one
b or
IT ION
j et
Re al
Ġdis abled
ĠT op
ĠG ra
Ġa ug
ĠB ig
hy per
T ags
L iteral
Ġabs ence
A F
Ġbelong s
Ġdemonstr ated
hel per
ĠWilli am
Ġpower ful
Go ogle
ri e
Ġle ader
uc lide
Ġfoot ball
$ }}
Ġconsist ing
om ing
o cal
= &
Ġc ivil
c is
Ġinitial ly
ob s
B egin
ĠChris tian
G ame
ĠLO G
Ġl icense
Ġdefin ing
id entifier
am pl
ĠH istory
ĠIsra el
an alysis
Ġextrem ely
ĠD B
in os
supp orted
Ġn p
Supp ort
et ing
Ġcan cel
G r
Ġs phere
Ġal gebras
Ġinterval s
e a
Return s
Right arrow
( .
Ġsur faces
P ublic
Ġphot ons
L en
ach ing
S equence
Ġpost erior
/ "
Ġop acity
f ire
Ġtarget s
ĠS N
Ġcomple ment
Ġspe ak
S G
ex perim
Ġh ous
Ġupd ates
Ġdise ase
uclide an
ĠIn formation
Ġover lap
Ġw ife
METH OD
in ds
ĠA SSERT
Ġcat alog
Ġm d
all ery
Ġsol ved
H ub
En umer
ĉ ĠĠĠĠ
Ġ' \
="../../../../../../ ../
L android
Ġ" $
ĠN ext
Ġspect ro
vol ume
ĠÐ ¿
ex pr
St ar
{ .
ĠPh ys
| _
æ ľ
p ull
Ġimp ly
com mit
Ġc elebr
e es
ĠS ol
INT ER
Ġst ock
Ġp ipeline
gra dient
are a
Ġper spective
ĠMin ister
Ġra tios
' $.
lic ate
ĠS E
199 1
mate ly
am in
Ġsay ing
s ymmetric
re pos
Ġex ceed
Ġsc ores
Ġbreak ing
Ġrequire ment
Ġst ories
Ġto ur
g oto
w er
Y Y
Ġh orizon
omorph isms
down load
el astic
ĠU V
Ġc md
u lo
Ġtime out
ot or
D b
m en
ĠB ack
Str uct
ĠEq s
g on
VAL ID
Bo ok
ap is
Ġtyp ename
ven ue
sp acing
Ġpart ners
Ġh und
F ORM
Ġg ate
Ġmed ian
d uration
ĠB i
S W
Ġcluster ing
od ay
ify ing
Ġfour th
Ġread s
t f
not in
Ġcosm ological
Ġd ialog
Com parison
The y
ĠFlor ida
Ġdriv ing
ĠVal id
ĠSI ZE
Ġequ als
L ower
ĠA lex
form ing
Ġs outh
os sible
ĠI ss
ĠC r
Ġturn ed
Oper ator
st at
di ents
ĠCom mand
Ġnav bar
Ġgeneral ization
Ġsent ence
ex tern
ay lor
ho ok
: `
f old
mathbb m
Deta il
get Value
Ġf its
IC ENSE
Ġp ri
v g
Ġtes ted
ĠM ake
Ġact ing
Ġt mp
Ġemp irical
air s
Ġcov ariance
ĠFran ce
av ail
ac tivity
V ideo
HT TP
Ġver sus
urren ce
ã Ģ
Gener al
B M
am ond
2 13
Ġtransp arent
Ġentang lement
h an
Ġv or
Mem bers
Ġfe as
tis tics
Ġcover ed
al so
ĠSt ar
! !
Ġth ous
over set
Ġfact ory
Ġpur ch
Ġinvestig ated
Ġp lugin
ear s
Ġuni verse
Ġat om
Ġwe eks
ob jects
spec tr
OR TED
pro blem
e per
VAL UE
Ġreson ance
mic ro
R C
ap l
. ",
Ġsecond ary
Ġcorrect ly
Ġestim ator
Ġe mit
A li
ed uler
Ġge odes
ĠJ er
DE BUG
} ~\
od d
Ġfail s
s ocket
Ġca ref
du al
ĠA rt
| =
I LE
sk y
Ġoff ers
Ġembed ded
cor respon
Ġ Î
at z
P s
Ġunder stood
en es
check ed
ĠB rown
h ow
Ġprote ct
B atch
Ġtr unc
ĠCh inese
Ġdoc uments
F urthermore
Ġg ir
Event Listener
Ġtraject ories
ĠMich ael
Ġcontrad iction
Ġdiv is
Ġin duction
Ġneutr on
Ġappe ared
Ġindic ating
un ded
P ix
ĠW al
W ord
Ġmer ge
h ed
ĠT H
Ġis omorphic
de cor
time out
Ġag reed
Ġaddress es
t ar
Ġpl ans
A ST
ĠOff ice
US ER
cite alt
sy ch
Ġ' '
Ġproper ly
am ing
s ync
n c
EL D
ĠMark ov
Ġcontrol led
N C
ĠAL IGN
A re
ari o
Ġv align
Ġset t
U V
Ġvehic le
ing ly
st one
dis tribution
;\ ;
Ġpanel s
Ġpen al
h ouse
Ġpro mis
= [
Ġd ou
es ian
Ġprov ider
" ].
=" $
L imit
G ER
getElement ById
(" /
option al
ĉ ĠĠĠĠĠĠĠ
Ġlog arith
ace book
Ġsk y
ud ent
P M
ĠF l
Ġcheck ed
ĠSh ow
Ġunit ary
Ġinstr ument
comp ile
Ø ±
AN T
âĢĿ .
ĠPro perty
mo tion
Ġresp ective
Element s
ro ute
op ts
Ġinvestig ation
Ani mation
s un
Ġtr ust
En ter
h d
ĠW rite
in cre
ill er
Ġanal ys
Valid ation
ov a
PH P
Ġrun time
ĠP RO
f ast
Ġch iral
Ġillustr ated
PRO JECT
S a
w est
}} )$
Ġcall ing
Child ren
f ound
Ġl abeled
Ġlimit ations
Ġpass ing
Ġma cro
A nother
ĠL ou
kw args
ari a
ĠL and
Ġexp ort
Ġdiv ided
xy gen
augh ter
Ġra re
ro s
Ġnat urally
ed u
Ġpro ton
}) )
Ġproduc es
li ps
Ġop ts
ĠS ource
Ġp ain
ĠAN Y
. }\
Ġ ðŁ
ĠI ts
Ġd rive
ĠE m
ok ed
M IN
* \
AN CE
stand ard
Ġs parse
Ġsimultane ously
R T
II I
ĠC NN
inter val
\, {\
Ġp lease
Q U
su ff
Ġrem ember
re ce
Ġb udget
Ġsp irit
tri ang
ar ial
Ġpaper s
ĠZ e
ist ant
Ġdomin ated
Ġbenef its
ic ity
Ġrough ly
Ġp as
Ġc lock
Ġc iti
ra ints
Ġsc roll
Ð ²
!\!\!\!\! \!\!\!
T w
Ġfun ctor
con structor
sub stack
mer ge
ĠT ri
/ _
mem ory
ĠC ase
Ġa ware
Ġneutr al
os es
Ġstation ary
Ġe th
w d
t ur
G O
pi x
oun try
at ar
ĠF ore
y an
Ġdest ination
S ur
esti val
æ ĸ
run time
\, ,
Ġkine tic
art in
t ouch
ande mic
19 70
Ġdraw n
Ġval u
Ġferm ion
ap t
g z
Ġcompar ing
sub float
Ġpres ents
Ġ> >
Ġcon formal
Ġ& $
enti ties
'] ['
S ave
ĠH y
ĠT im
Set ting
d ark
C V
ĠM us
ĠR ob
lin ed
ĠA ng
ce p
Ġor bits
ab ove
,\ !\!\!\!\!\!\!\!
}} =\
ĠLe ague
Ġspher ical
Ġpropag ation
l ab
z ure
Ġre ward
Ġinvol ves
Ġpiec e
un iform
ĠCommit tee
Ar ch
12 7
ĠG lobal
ear ning
ash ion
ver tical
land s
ĠThe ir
ab a
ĠM er
Ġam plitudes
Ġopen ed
ĠTex as
Ġcou plings
Ġ@ "
NS String
t p
Ġcomm erc
M ake
b ounded
| -
Ġc lick
Ġelectr onic
c tive
} <
> '
ifi ers
mon th
F P
par ts
d ashed
H D
F ocus
tr ucture
go od
Ġclaim s
Ġjoin ed
ra ge
Ġclos ely
% "
Ġis su
ĠB lock
198 9
oun ted
ĠL in
M at
Ġwhen ever
math ds
Ġv ill
ĠGerm any
nav igation
ĠEduc ation
B asic
Ġcont ents
Ġcharacter ized
ul as
r ical
ĉ ĠĠĠĠĠ
c laim
{ "
ss l
cc c
Ġdiscr imin
Ġadjac ent
n ative
Draw ing
ell er
Ġke pt
Ġg lob
et o
c atch
CO MP
End point
s ess
Ġel imin
n l
ĠB ob
Ġrecog nition
ĠL at
ĠS ociety
Ġtri al
se lection
com es
Ġt ags
valid ation
n def
Ġs b
Ġidentif ication
Ġsem antic
Const ant
: @"
dat abase
ic ts
f actory
ĠA ward
Ġth in
log o
Ġcon version
ĠAfric an
Pl atform
Ġin come
Ġfilter s
au x
Ġm obile
Ġthe me
Ġman ufact
Ġcor por
th rift
ok ing
Ġpotential ly
SS L
Man y
' )$
R ate
el ines
viron ments
Ġend s
) |\
pro t
ision s
Ġcaus es
D iv
T F
re act
Ġintro duction
Ġextension s
Ġ$\ |
Ġrepresent ative
ct ors
id en
Ġbound aries
Ġdecre asing
M ac
Ġpar ties
ï¼ Į
Ġcomple tion
En vironment
Ġb ank
ĠS i
S creen
vis ible
Con sumer
Ġstrong er
dist ance
oti ent
C ur
, ~
Ġo pt
w atch
Ap J
Ġdescri bing
Ġp owers
OR Y
Ġre normal
in ity
ani mation
I gn
Ġfa ith
ĠD ocument
ĠM ary
ab c
Ġs it
= -\
ĠI II
un ities
D ictionary
Ġprofession al
Ġin d
lip se
Ġinc ident
Ġper haps
Ġjob s
select or
ic ensed
m essages
Ġg rand
sub mit
Input Stream
Ġg ene
ĠP age
Ġevery one
ĠOb serv
m iddle
Ġsm allest
Ġconduc ted
ĠOption al
Ex perim
ĠTh omas
Con dition
Ġenjo y
sp aces
ĠĠĠĠĠĠĠĠ ĠĠĊ
dest roy
g iven
Ġpl anning
( --
CH AR
on ce
Ġconfir med
re lease
clu sions
Al low
Ġleg is
ma pping
ov ed
B al
Ġan ni
valu ation
Ġcomp osed
phys ical
Fl ag
os c
valid ate
> $
element s
ex it
Ġsur round
Ġdiscus sions
Ġocc urred
ĠC G
Ġoper ating
' }\
F ix
ch er
ĠSec ret
b ro
å Ĳ
Ġtrans actions
11 1
ĠJ ournal
Ġprote ction
Ġar tif
T er
B inary
Ġexcite d
f b
ĠA tt
STR ING
Ġflow s
Ġassert That
cl one
for tun
ul ing
ĠL y
b etween
Ġcharg es
)= (
P UT
Ġad opt
st ain
in ing
comp ute
Ġplot ted
Ġcriter ion
example s
trans action
S l
w a
Ġcirc uit
Ġfin ished
Ġturb ul
Ġpro position
te sian
Ġh or
ĠPo isson
Ġfig ures
Ġrob ot
con duct
Ġcompar able
ge o
ĠD an
Ġdefin ite
ext end
Ġcop ies
> "
Ġconcent ration
am er
Nav igation
B ased
RE G
ĠSm ith
sequ ences
sub ject
l floor
Ġp ric
load ing
Ġend point
Ġmis sion
Ġti ght
m ix
Ġchalleng ing
w br
Ġpack et
tiv eness
c ou
F ree
os h
ec e
Ġch ance
Ax is
Ġcon figure
C LASS
ĠA GN
Ġde dic
m es
th rough
Ġang les
Ġdec ays
appro xi
Ġgener ators
S ql
V E
iss ues
Ob jects
Ġinst ant
ĠĠĠĠ ĠĊ
Valid ator
H P
ĠAnd roid
Ġcol ors
ĠIn stead
Ġst abil
ograph ic
Ġvari ant
Ġdisplay ed
hav ior
Ġregister ed
inher it
s r
Ġd rag
' $,
cf g
c u
ĠB uild
process ing
ĠC ath
if ndef
ĠM il
typ ename
Ġsubset s
Ġ{ {\
Ġb inding
ĠDir ac
um ul
es ides
is Empty
cre ated
ç Ķ
Ġa udi
at on
r floor
in dependent
Ġnormal ization
em bed
Ġj ump
ati o
re h
b race
es ome
& $
Ġb uf
Ġen v
pm b
Pro gram
Ġopen ing
the ory
per ature
Depend ency
Ġcomp licated
Ð ¼
DO M
Ġpre tty
T ile
Ġac cepted
Ñģ ÑĤ
Ġv ote
Ġaff ine
Ġinvol ve
Ġout come
ĠQ CD
SE LECT
train ing
Ġan isot
U psilon
ĠC lear
Ġl abor
Ġle aves
Ġslo pe
Ġcon vers
Ġr gba
ass ign
} &\
d omin
Ġs ql
Ġext reme
Ġ_ .
stri p
ver ter
DE F
Ġbro ken
r ink
G P
Ġ\ "
ĠCon st
Ġ" ";
im inal
li ography
Ġdel ta
ĠSo ftware
ĠL ore
Ed ge
c v
Ġb ary
cre ens
esti mate
Cl oud
Over view
Ġp lots
ĠCo q
ĠL ib
am el
ĠB it
ĠF ermi
ĠAss ume
Ġcur sor
Ġassign ment
Ġreserv ed
Vol ume
ma k
ĠP en
O wn
D ay
Ġlang uages
ĠRes ponse
; "
is o
Ġani mation
$ _{\
ĠM ain
ĠE lement
ex tra
th ree
ap ol
Ġtri ang
Ġas sembly
Ġd s
Con structor
Ġlat ent
ĠF ROM
ron ic
H tml
Line ar
j d
Us age
ab it
An notation
ach es
ĠT imes
Ġin sert
Ġk illed
Ġro ots
Ġin nov
nol imits
for Each
ĠAd min
li e
for ma
d v
ĠC P
ec tivity
Ġto t
Ġorgan ized
as ion
re ci
Ġmechan isms
IO Exception
Pro v
own er
Ġdis joint
T y
ang ing
Ġsh arp
Big l
Ġappear ance
Ġseg mentation
ĠM ex
Ġel if
st age
[ ]{
f etch
Ġphot o
Ġlist ener
de velop
Ġcollision s
Ġcommon ly
ĠD istr
Ġrequ ested
Ġperturb ations
ĠU s
Ġfin ds
Ġtri angle
ati bility
Ġec onomy
D ATA
Ġar riv
rela tive
get s
U B
Ġb us
ĠM C
Ass ume
% ,
cri pts
p ared
And roid
F N
Ġinter ior
um ps
Argument Exception
SC RIPT
fra g
. },
n ob
is set
igh ter
ORD ER
ar di
exp and
, '
ol a
Ġgener ates
ĠDe velopment
in teger
Ã³ n
5 12
ĠB al
scripts cript
ound s
Ġa ux
lic ense
c ost
l r
Ġcl in
radi o
ĠS earch
ane ous
ĠDire ctor
fore ach
ĠT ur
N ative
Ġf irm
ĠR iemann
}_{ {\
() ),
Ġ' ';
scriptscript style
p in
Ġpriv acy
pro gram
Ġb ind
view port
Ġra ised
ine ment
Ġcar bon
ĠE U
Ġs y
al ing
Exec ution
Ġl aser
Ġse p
sol id
******************************** ********************************
; |
fol io
MO DE
Ġac ade
Ġcommerc ial
J oin
Ġoriginal ly
bol ic
Ġsplit ting
ĠB ill
Ġcent re
Ġclo ser
ĠA mazon
Ġch art
ym er
Ġtele vision
ut ter
V ec
Ġmin i
Ġran ges
ĠS al
T V
Ġexpan ded
od ies
at en
MA P
Ġ' ./
)} _{\
ma ps
S ol
Ġte ams
] +
Ġlook s
Americ an
Ch ain
Ġpartial ly
onal d
Ġh uge
mm utable
ĠG raph
ĠM edia
7 00
dis able
C ursor
Ġcoun ts
ĠEng ine
Ġsk ip
St op
ĠRo bert
fr ont
V ir
B bb
av ity
Ġwas n
Ġutil ity
force ment
Ġcover ing
super vised
c yc
\| _{\
ch art
Ġseg ments
Ġlo aded
es sible
Ġindepend ently
On ce
Ġsu stain
ĠL ink
ov ing
ĠT or
'] );
ĠAc ade
Im ple
Ġweak ly
Ġcommand s
ĠAp ache
Ġ$ [\
Ġdi ver
W ait
Ġra d
on ts
Ġim mediate
âĢĿ ,
ĠP oint
198 7
Pro to
(" #
D rag
ry pted
de precated
Ġharmon ic
å ®
Ġf ul
Ġre ality
rec ated
l li
Ġcirc ular
ĠC A
Ġpul se
Big r
os oph
p ress
ĠF urther
Ġold er
Ġcon e
ĠN av
oid al
}\ ;
B inding
Ġ} {\
Ġmov es
Ġdiscover ed
/ ">
=\ "
ac cept
c ov
Ġvanish es
des ign
Ġcol lapse
S erv
ĠO C
ar ma
met ric
Ġintr insic
lib s
c assandra
nt z
cal endar
ĠĠĠĠĠĠĠĠĠĠĠĠĠĠĠĠĠĠĠĠĠĠĠĠĠĠĠĠĠĠĠĠ Ġ
ta ke
com bin
Ġdec ades
Ġparticip ants
Ġf av
= (\
ĠG old
ĠDes cription
d z
Sh ould
Ġthan ks
Ġed it
lig ible
e lem
c n
our se
scri be
Ġp le
Ġ ulti
nos tics
^ ^
Ġex erc
/* !
Ġro ll
Ġw al
L ight
Ġenc oder
um ing
ĠW IDTH
ĠJ acob
ï¿½ ï¿½
Ġex ponent
d jango
Ġdevelop ing
Ġp andemic
cont ents
Ġcontin ues
w as
u ma
ch itz
ĠA uto
stit utions
ic ine
um es
Ġ$ <
Ġout per
S m
Ġclass ifier
z es
å ħ
ĠG re
Ġpar a
Ġperform s
Ġper missions
c le
ĠW AR
W ORD
Ġspace time
ĠCh ild
ĠS ets
EE E
i os
Ġp at
ĠM at
ĠJ ose
face book
ĠDistr ict
198 8
label s
LO C
Ġinter view
Ġcons ec
Ġre verse
IN ST
Ġguaran tee
arg uments
b inding
ĠCong ress
Ġselect or
ĠX ML
Ġpro to
}. \
me tic
00 5
is y
ĠK en
ĠC ustom
Ġmarg inal
ĠM any
ĠSec urity
ĠDE FAULT
gg reg
high light
ent y
Ġnon zero
' +
v skip
z ip
Res olver
Fr ames
Ġdriv en
Ġn a
The me
ĠOr der
Ġg old
F n
ad ian
G A
Ġen umer
In formation
d river
Y ear
qu ark
& -
Ġexhib it
bo ost
ĠA nother
i h
in ue
< <
Ġman ip
ili ary
Ġsh ot
sc ore
, (
Ġs atell
og en
Ġorder ing
riter ia
ĠH uman
> )
Ġ$ $\
D IS
Ġcan cell
Mapp er
D em
Serial izer
am ps
ris is
Ġpro g
pher ic
Ġconsist ency
Ġinf lation
Ñ ĩ
D iff
Ġplas ma
writ ten
Ġqual it
C ard
Ġpro be
ord ers
g ov
}) _{
Ġde duce
Ġin ser
Ġm ys
Ġeas ier
ĠĠĠĠĠĠĠĠĠĠĠĠĠĠĠĠĠĠĠĠĠĠĠĠĠĠĠĠĠĠĠĠ ĠĠĠĠĠĠĠĠĠĠĠĠĠĠĠ
p f
P erson
D rop
get Id
ĠJ ust
p otential
ph rase
Ġperiod s
bin ary
ĠReg ister
}} }{
ĠT om
Ġlinear ly
ĠRev iew
del ay
ĠV ari
Ġentire ly
at alog
Ġv an
Ġdecision s
N ET
ĠG ame
ĠCont rol
Ġconven tional
C s
inter pre
istog ram
Am ount
Ġnumer ous
our n
ĠS ign
Ġ_ ,
Ġinitial ize
ĠE ner
ever theless
k ernel
ĠS ervices
con struct
Ġanaly tical
m ms
Ġ ">
Ġs par
}_{ (
Ġcertain ly
)} =
Ġfund ing
no ise
BP ACK
fe ed
Ġidentif ier
k ov
re str
Tim er
_ );
ic ago
Ã £
tr on
Ġsuff ices
ide os
hom ology
ĠB ur
@ {}
) |^
Log in
el d
Ġwh om
ĠRem ove
ol f
Ġ ^{\
Ġsupp ly
Ġ ig
ĠA S
order ed
Ġfor ced
Ġdetermin es
P rivate
Ġclos ure
Ġtw ice
p ad
B ottom
] ))
ĠM usic
ĠApp lication
Not Found
Ġpro jective
Ġsample d
w riter
Ġv ision
Un known
Ġcyc les
Ġlocal ized
th an
Ġgo als
Ġs ensor
Ġsyn thetic
rain ing
ĠF il
prote ct
p d
cre d
ĠE very
re newcommand
' }$
Ġhistor ical
Ġd y
lect or
ĠIl legal
pre dic
Ġh our
k ern
Ġenvironment al
;| &
ĠBo ok
ĠM ock
] ^{
Ġpr ison
C ONT
ĠR oman
Pre v
Ġprior ity
f mt
13 0
or a
optim al
Ġ }$
R andom
Ġn ine
Ġb uy
flu id
Ġpa id
res olution
Ġcoher ent
ĠS ym
clo sed
14 0
Ġload ing
Ġsomew hat
Ġid x
S imilarly
ĠH en
tain ing
erm an
Ġar ise
Ġam b
Ġstruct ural
Ġf elt
Th row
Ġ> >>
{ [
Ġ" ",
' d
ĠPy thon
direct ory
Ġsepar ately
\ }}
ari ate
bo se
b orn
O W
B H
ĠF ix
Ġgener ality
Ġconflic t
velop e
R S
Ab out
" },
ĠS ocial
Ġres olved
Ġdis app
Ġref ers
scal a
Ġfrag ment
Ġconstra ined
Ġpre par
TR Y
R aw
bur g
b us
Ġin fer
Ġint ended
Ġ' .
Ġasp ect
ĠE uclidean
Ð° Ð½
Ġanalog ous
Al so
Ġex cell
? ?
Ġenti ties
Ġstr ug
Ġconsider ation
ĠFran cis
assert True
ĠS und
D river
Ġsu c
Ġcol lege
). }
Ġst at
Ġinterpre ted
al ities
ĠMon te
Ġbrief ly
ip ment
) !
Ġconserv ation
Group s
j e
em it
Ġmathema tical
Ġdep loy
Comp at
pl ays
Ġs ending
Ġ" %
Ġste ady
Ġtrac king
E P
Ġf lo
Ġprogram ming
Sp an
ĠWindow s
EN V
Ġfinite ly
ou ds
ĠW IT
Ġvic tim
Ġveloc ities
Ù Ĩ
Ġc e
Ġcho osing
ĠB usiness
Ġli quid
}) (
ĠM icrosoft
Comple te
Ġdistr ict
it ations
Ġne ur
Ġlarg ely
ĠC lient
ĠW ay
ĠAuth or
Su per
Ġto kens
ou ter
Ġconc er
f p
ĠCent ral
Ġign ored
}} }$
Ġembedding s
al i
ut down
Ġf etch
UN D
}) -
ĉ ĠĠ
put ation
Ġcol our
L M
Ġimp lied
1 12
M ag
Ġan chor
Null able
App end
Ġw itness
Ġpe ace
Comp iler
Ġellip tic
ĠMan agement
ew ise
Ġhy brid
Ob serv
m obile
fortun ately
Ġc lip
~ (
66 66
. (\
P ers
Ġho les
al ert
ou ts
head ing
n of
im itive
}\ }$
}= (
ĠS C
: '
in n
g re
Ġhelp ed
uff ers
10 24
B I
g lyphicon
B T
ĠCar lo
ne utr
ĠWAR RAN
X Y
Sta tic
Render er
Doc trine
avail able
ON G
se par
anc er
ho le
F OR
inclu ding
ĠRec all
li ament
Ġre ly
Ġes cape
Ġprom ise
alt Color
Ġdis patch
Ġsci entific
Perm ission
ĠL os
ĠConfig uration
F il
Ġin finity
cons istent
M icrosoft
N V
t witter
b ench
Dep th
N U
( |
^{ [
Al loc
Ġpeak s
Ġb ug
b undle
T ick
* {-
deg ree
Ġresearch ers
En v
Ġillustr ate
ma y
ĠArm y
ma ch
" /
) )$.
Ġ\ #
Ġ ing
ĠSt atus
Ġrep ository
Ġ' ',
B r
ĠL java
ĠS H
Ġalign ment
N amed
auto ref
ĠAb stract
Ġabund ance
C enter
Ġhapp ened
Ġman aged
to Be
imp lement
Ġfind ings
M ed
AT ED
Ġrelations hips
as te
Ġcor ner
Ġsum mer
Ġconcern s
i pping
}_ +
ĠAn n
F ore
c ry
co ordinate
Ġfil led
dis patch
anc ell
Ġhel ps
m r
U ST
Ġ" .
S em
' )\
ips chitz
k k
Ġacc ounts
au i
Ġm ur
Ġ{ },
Ġde formation
Ġorgan izations
G ui
lic enses
Ġcal ibration
Ġwon der
Ġreal istic
è ¯
Ġs aved
par tition
cont act
ER S
f requency
ĠSt udi
Test Case
Ġintegr als
Ġconven ient
F act
Ġdis sip
G M
NO DE
ĠRus sian
ĠP M
Ġ< -
can vas
unders et
Ġacc um
Us ers
Ġexec uted
Ġj s
ĠD O
Ġse ed
Row s
Ġad mits
Ġen vironments
Ã£ o
ĠAmeric ans
uto ff
w x
Ġle aving
ĠB est
ĠF und
Ġph il
Ġencode d
ĠY our
Ġstand s
Ġsong s
ual ity
anc k
ta ges
ĠH ome
M essages
ĠSt andard
ub er
Ġpay load
ĠB ank
Ġ{ %
Ġquar ter
ĠM useum
ĠOr iginal
Ġf mt
Ġrelax ation
ti g
Ġqu otient
ab ric
A udio
Ġw ire
Ġper mission
Ġour s
Ġrecover y
trans late
Ġd im
ĠE con
Ġexp os
Ġne ither
it on
ĠF acebook
ĠAr ab
Ġf if
ation Token
198 6
p ot
Ġex cess
Ġfac ts
Con sole
ce eded
ator ial
Process or
refer red
Ġown ers
Ġent ered
Ġcred it
Ġge omet
j Query
Ġviol ence
Ġcre ates
ĠEner gy
Ġqu as
IN S
A UT
MM ARY
ĠS am
Ġreal ized
R UN
L Y
S i
W H
e th
sh al
Ġc yl
pol ar
h base
ST M
Ġcorrespond ence
Ġcapture d
fig s
ver ted
99 99
B order
Ġsp ot
re po
Ph one
pk g
Ġin duces
N umer
Ġb rand
\, .
b ilities
ĠSpec ifically
F older
ĠT E
ĠW estern
p n
10 2
Or ig
p ic
Ġdown load
ĠRem ark
Ġcon jecture
ay er
ĠL ast
ĠS pace
ĠT aylor
Ġpa int
Const raint
B F
read er
ĠRus sia
RE D
ĠF OR
Ġtri ed
.* ;
ĠM ass
repos itory
Ġrec ording
' ',
Rem ote
ĠI tem
Dep recated
us tice
ri age
b lob
l ife
. """
Ġw est
Ġinvest ment
k ins
Z one
Ġrece iver
llig ence
Ġbel ief
ad v
FI ELD
Str ategy
Ġkeep ing
Ġexc itation
HER E
Ġadmin istration
ĠG reat
Ġres ol
Ġpermut ation
J ohn
ĠDef ine
Ð¾Ð ²
i ra
ĠN GC
bound s
Ġlink ed
Ġcomp iler
Ġ rm
d ates
i en
ĠMe V
Ã ¨
j ax
Ġl ists
Ġal location
Ġview ed
Ġcorrel ated
Ġfib er
Ġclass Name
w ater
10 5
he ther
gl s
à ¸
) }^
p ages
ri an
Ġcomp ens
Ġdetermin istic
d al
T erm
lectr on
ĠY oung
Ġ ur
Ġtrans mit
Enc oding
ĠOut put
be an
Ġ' %
pre vious
STAT US
St andard
sim ilar
= %
der iv
ĠRes ult
ig er
br and
Ġrelig ious
Ġobserv able
Ġpo inted
gener ator
Ġaver aged
d h
r gb
Ġhard ware
Ġw ants
rup ted
Ġfem ale
Ġm u
Bo ol
sp irit
Pe er
ĉĉĉĉ Ċ
Ġnumer ically
Ġcri tic
Ġen ables
equ ival
W orld
Bound s
ĠN E
Ġany one
Ġg un
c tic
File Name
ra pped
I AL
ti te
LI ST
l int
AT CH
WE BPACK
ĠL u
ta tive
Ġl if
ile vel
on a
Ġcont roll
Ġp p
over ning
ĠH ill
ĠFor ce
stats models
cri bed
ĠQu ery
Ġab elian
CO MM
ĠI r
Ġph one
ten ess
Ġim g
H y
ir ation
Ġc row
T ouch
] _{
or ial
ĠF r
Lo op
Error s
mis sible
Ġofficial s
Ġt ables
sw ing
$ --
Ġmar ried
ĠRet ri
di tive
G G
Î ¿
ĠT ele
ĠR ights
ĠPol icy
$ (\
ĠIsl am
Ġp od
Ġmay be
we et
rag ma
Ġpercent age
ce an
Ġsee k
rid ay
ĠE instein
Ġcomp reh
Ġann ual
gu ide
ĠS V
bo th
Ġpotential s
Ġs pl
Ġ$ _
Ġcli ents
Ġatt ached
ĠA T
Ġconcern ed
Ġhe ard
comp act
Ġinter ference
on ed
C oin
Ġg ather
Ġprov es
ac ted
l arg
D ynamic
00 2
Tran sport
Ġ$- $
Array List
L ib
Ġopin ion
Lo ok
Ġfam ous
duc ts
x im
ĠPe ople
ĠP ass
Conn ect
Ġk new
ĠRes ults
Ġv oice
Add r
Ġneighb ors
u an
ĠF ree
Ġf ish
b ranch
ĠP DF
ch y
Ġst ats
id ential
Ġisol ated
ĠLou is
Ġe ase
ĠG en
Ġformal ism
t l
Ġcol d
In f
R ot
ĠC lo
f un
az y
Sign ature
in er
e val
Ġb rain
ec olor
Ġcan cer
Ġdedic ated
198 5
ĠST ART
Re lease
s ymmetry
link s
ĠL ine
ĠK ore
Ġimp ossible
K S
IMP ORTED
l st
Ġro ck
Ġform ulas
Ä ±
ĠS pe
ow ski
V AR
Ġpar agraph
CON FIG
us r
sc ss
ct ree
train ed
ĠOther wise
od o
Ġun stable
Ġconver ted
at re
Ġadv ance
Cont act
ĠOn ce
ĠMa jor
ĠCom ple
sa tisf
Ġm irror
S plit
audi o
M ay
Ġre ducing
tit led
}| ^
au tif
U C
Ġal leg
Ġpl ant
az ine
ĠR ight
Ġresp ons
}$ ).
sp a
i pher
Ġv ot
s id
Ġd aughter
Ġs ocket
Ġcombin ations
3 60
) <
Ġepis ode
ev ing
Wh ere
Ġrepl acing
erv ed
Ġc ities
Name Link
}, {\
g p
ĠM iddle
el come
æ ķ
HE AD
ĠPro v
ĠVir gin
Ġresp ond
Ġprim arily
Ġc y
T Y
Ġd war
Ġcirc les
Pl an
ĠCon text
C md
Ġa ria
BU IL
fl ush
F uture
ch en
198 4
Ġcompe tition
Ġm m
Ġt uple
Copy right
Ġs ales
ph y
d riv
x rightarrow
Ġar ticles
Seg ment
i ant
ĠM L
Ġact or
Ġtherm od
Ġn an
**** **
Ġf aces
B D
Ġciti zens
dat aset
^- $
am ount
p riv
ĠCO L
ĠTechn ology
k g
class Name
}( -
Ġsta ges
column s
Ġexp orts
Ġfeas ible
Ġlog ging
ĠC oll
ide l
ĠD ue
Ġpop ulations
Ġparamet ri
Ġregular ization
Al gorithm
Ġel astic
Ġam ounts
Ġobserv ables
' (\
R a
ues tion
Ġsitu ations
id entity
ĠFran k
comm ons
f av
string s
$& $
ĠN on
Ġmatch ed
Ġcub ic
bib liography
p resent
ĠL apl
Met rics
s olution
Ġcomp liance
Ġfe e
Ġactiv ation
ĠK E
Ġsh aring
Ġwor st
ĠAg ain
Ġtrac ks
ic ator
reate st
Ġanaly zed
ĠRep ort
= {\
è ¿
Ġemploy ees
K it
Sh arp
e b
L ibrary
A I
V ICE
Ġd aily
col l
Ġelement ary
atter y
Ġreveal ed
as tern
at om
55 5
Ġens ures
D imension
ĠRo yal
Pre vious
ĉĉ ĠĠĠ
pro j
Ġp ref
Ġbec oming
t re
ĠC SS
center line
G ra
Ġrespons es
top rule
We ight
Ġenc ounter
respon d
Ø ¯
d if
oci ated
ran ts
ĠF ind
u uid
Ġcol span
Ġgu ess
Ġhe av
B Y
Ġho spital
ĠIsl and
Ġassoci ation
Ġre ti
Ġdiscover y
Ġcenter ed
ĠVAL IGN
or bit
ĠSU MMARY
Ġ\\ [
ul arities
ul ted
display math
ĠOC aml
t uple
ä ½
ĠCar ol
> ()
ixt ures
}}\ \
Ġpor tion
h ang
F ixture
Ġm ale
AC H
Ġse a
ĠB ern
ĠRo ad
ad oc
Ġord inary
ge les
ĠS imple
Re act
St ub
ĠReg ion
ĠVir tual
ĠO N
Ġf ashion
Lo cale
fe atures
im ination
ĠWil son
Ġo il
Ġarti st
Ġprov en
Ġdiv ision
D ATE
Ġfund s
og n
ĠC ore
ĠA D
ĠE uler
em on
Ġcon cepts
Ð ´
Ġtim estamp
pec tively
ĉĉĉĉ ĉĉĉĉĉĉ
ĠC amp
Ġclaim ed
Ġrece iving
app ed
Ġlo ops
und les
Ġmod ification
N a
amazon aws
Ġro les
M aterial
Ġsol d
Ġplace holder
^ +\
ä º
Ġinf ras
A SE
Ġc ultural
Ġliter al
An alysis
d n
r pc
ĠP lay
Ġdepend ency
Ġsur ve
Ġanom al
ĠLore ntz
Ġne arest
Ġbos on
rem ote
Ġw ild
)\ ,\
with out
T l
Ġpul s
p ref
ĠY ear
ĠC S
ĠD OM
Ġstr ain
AT TR
FF ER
tific ations
Ġle s
Ġderiv ation
ire ct
Option al
ĠBay esian
}} +
( ['
C ounter
or tion
I Z
Ġexam ine
) *
Ġopport unities
u er
Ob server
Ġadv anced
ĠC ho
ĠB rit
ĠA ccess
D TD
Ġsurround ing
ĠL ibrary
Ġpro posal
> %
Ġpati ent
Ġstudy ing
Ġe ast
Ġhom ot
T L
cho ose
gan ization
' },
}\ )
ĠP eter
Ġpro min
Ex ists
b an
Ġap ilevel
Ġinequ alities
Ġcombin ing
ant ly
): =\
Ġp ion
' -
B ecause
con ditions
Ġrapid ly
ĠÐ ²
di al
ail s
Ġf er
ĠC ur
S ort
Ġwork er
S witch
Ġs at
ĠP op
Ġs ync
Ġr is
}] $
ĠC up
D r
res pectively
Ġext ensive
h alf
ff f
Ġs lice
n amed
b rane
war ded
Ġfrac tional
Ġg overning
........ ........
T i
Ġno tes
Ġcap t
Ġinv ariance
ple ctic
c ancel
W IN
Ġcross ing
Ġmag ne
}}\ ,
( ()
ĠNew ton
ĠDiv ision
Ġcool ing
s ent
ate ver
U ses
p q
ith metic
h aus
Ġrepe at
Ġfac ilit
us band
ĠCom mon
Ġdi vergence
Mis sing
ong o
Î ±
Ġro ut
ĠAn geles
Ġb lood
j b
Ð ¿
Ġpro jected
create Element
Po ints
Ġar range
M aster
Ġ\, ,
ĠCh icago
AT OR
Ġal ter
w allet
ger y
Ġarg ue
Ġhyper bolic
ec tiveness
vel oc
re peat
s ame
Fig ures
rit ory
Ġm ouse
ra tio
qu ality
Ex port
enc ing
Arg uments
iz ers
ĠĠĠĠĠĠĠĠĠĠĠĠĠĠĠĠĠĠĠĠĠĠĠĠĠĠĠĠĠĠĠĠ ĠĠ
ro uter
d m
Ġb ra
b ec
H older
Col l
b est
Ġen ded
new s
Ġm al
Ġgeodes ic
Ġmultip lication
Ġal pha
Sh ared
ma cro
ĠJ son
log ging
pro c
S ame
Ġb low
eff icient
f ac
Ġ\ }$
2 20
ĠN et
Res et
Ġpart ner
Column s
Ġoffer ed
sh are
Ġsupport ing
en berg
Ġcomp ression
Ġconclu sions
AR D
Fail ure
ĠT witter
multi ple
tim estamp
() ">
Dis patch
Ġinsp ired
n ight
Tim estamp
Ge ometry
Ġsec ure
ĠDe lete
Ġconcent r
pr ing
ĠCh ange
ĠP ower
f all
er os
In tegr
}^{ (\
Ġhand ling
ĠC urrent
) ~\
Ġcover s
con vert
tr action
Ġcheck s
ĠP lease
ĠSc ot
Ġintro ducing
ĠG ood
Ġneg ligible
in x
B s
Ġauthor ity
Ġc b
B N
iti an
Ġleaders hip
tool tip
}} +\
cri tical
ree ment
ĠB an
k top
Ġac comp
(' <
T ok
Id x
10 4
ĠE V
Ġreli able
cent ric
Ġpure ly
[ {\
Dire ction
Ġnew ly
LE TE
Ġcomb ine
Ġhapp y
Ġphenomen on
Ġcyc lic
Cont ents
3 50
Ġthink ing
ri val
ĠĠĠĠĠĠĠĠĠĠĠĠĠĠĠĠĠĠĠĠĠĠĠĠĠĠĠĠĠĠĠĠ ĠĠĠĠĠ
Ġig et
lef trightarrow
Ġt d
rela x
Ġpl ate
Ġp in
ĠSund ay
L eg
Ġfit ted
wik i
Ġle af
ARN ING
Ġphot ograph
po inter
Group Name
= }
) ",
Rel ated
Ġdis able
Ġob server
Model s
Ġw x
ĠB E
m bf
ht bp
Ġenh anced
cep ti
big skip
gra vity
19 60
Ġacceler ation
Ġm ig
Ġa ward
set length
op am
Ġtext ure
B IT
ter ms
19 2
get String
Exp ected
vail ability
ĠSpec ial
Ġbroad cast
Ġcryst al
}} }{\
Ġb old
ti er
Ġs ell
RE SU
G D
h skip
"> (
Dete ctor
ĠClass es
No tice
urb an
g ency
Ġrestr ict
198 3
ĠO h
jav ax
Ġprocess ed
b racket
ĠTh read
oun ce
ĠCre ates
m ention
ond ay
Mon th
P romise
T AG
Ġan im
ĠNo tice
Ġnear by
Ġneighb our
d rag
to ctree
arch ive
Ù Ħ
Ġsymmet ries
ti ff
t v
t m
ro ke
gr ic
Ġachi eves
ĠAd ditionally
Ġadvers arial
ma c
bl ing
Ġd up
Ġg ender
ch a
eq q
ĠB re
Ġsh adow
Ġprefer red
inter action
ĠSer ver
ĠC as
G EN
Ġissu ed
ie val
Ġsm art
ten tion
Ġvanish ing
ap ed
der r
* ,
en o
Ġra il
Ġdot ted
D om
oin ted
b ecause
is ons
(" %
å Ĭ
c op
Ġtransform ed
od al
ĠP et
top ic
Ġproof s
ĠC D
w ho
google apis
s qu
ĠI ter
Ġpresent ation
c ursor
id entif
Ġpay ment
ĠI ran
cell color
spe ed
Ġmag net
ĠD u
Ġbo ot
+ |
Ġf ake
Ġ ice
de com
Ġs un
T ri
l p
BL IC
Ġobtain ing
>( <
Ġimag ing
Ġs lot
Ġac knowled
s mooth
ĠH a
' ,\
C ALL
}} ^{(
A SS
ãĢ Ĥ
U AL
Ġd ictionary
Ġcos mic
ĠPl an
Ġal ert
it ar
os er
enc oding
Ver ify
In ner
Ġinst ability
dis k
sample s
! (
Ġpre ced
Ġdes criptor
Action s
g if
Ġdi versity
rot ate
tran sport
ĠRe ference
Ġappear ing
N P
Ù ħ
refer ences
Ġm at
Ġ& #
pro duction
ch arge
Ġsu cc
ip edia
are t
lin ux
o on
prec ision
Ġoscill ations
ĠSte p
h ot
Ġ )$
Ġc risis
L icense
D uring
f m
S elf
second ary
Ġmolec ules
ĠJapan ese
re land
In struction
Cal c
ĠPar se
Ġover flow
Ġrestric tions
st ances
ord an
ĠAcade my
ma inder
Ġdep icted
ĠB H
get Instance
Ġlimit ing
C ancel
ĠRe al
> [
UE ST
Ġattem pts
Ġmetal licity
Ġbeli eved
s z
S en
Syn tax
}$ ;
Ġengine ering
F UN
Ġpo se
ĠAn alysis
W I
ĠO ly
Table Row
En able
c ycle
Ġ( %
ĠJ es
Ġd il
si ent
ul ner
}) }\
Ġaux iliary
le ts
: #
Ġarti sts
run ner
ĠR ock
k ip
ict or
C trl
duc tive
ĠGu ide
Pl ace
Ġrela tivistic
g lob
Ġg oto
Serv let
ig u
Ġear th
A SSERT
ĠEn vironment
>< !--
}] \
Ġover view
G T
y er
Ġb il
Ġf ans
script style
R ob
an tics
le e
r v
it t
}} -
Ġtang ent
Con tains
Run ner
Ġimag inary
Ġloss es
Ġad ds
Ġlocal ization
Ġvehic les
form er
An aly
Ġt ends
Ġprim itive
cons ider
W atch
ket ch
Ġmanif est
Ġar ises
Control s
ĠSupp ort
Ġb ars
get Type
cl s
li ers
SO UR
Ġf older
Con clusion
Ġreach es
ĠM ad
Ġwor se
f ake
ĠM iss
li ve
-------- --
Ġm ental
em as
Ġremov ing
til s
ĠD eta
}} _\
Ġco homology
ĠS P
ĠO S
Ġdi verse
r ules
Ġeffici ently
ĠÂ £
Ġdetermin ing
Ġin sur
Ġpos sess
S uch
ex act
un lock
aw n
Ġout comes
p ur
Ġp lain
f aster
å ¤
Ġan notation
Th m
B est
TO M
Ġwait ing
Ġe ye
bottom rule
Ġserv es
C ast
F ollowing
ĠMethod s
RESU LT
M ost
em y
Ġcomput ations
L U
Com bin
al actic
P od
Ġf usion
Ġd anger
m v
LA Y
Ġinter ests
198 2
ĠJohn son
Ġcould n
ĠĠĠĠĠĠĠĠ ĠĊ
Ġsk ills
par ty
j ackson
), (
continu ous
ĠA I
ch anges
Ġobserv ational
Ġhand s
Th rough
Task s
ĠIntern et
ĠW ell
L ICENSE
UN T
ibr aries
Ġsh ear
Icon Error
\' {
po sitive
ĠAt tribute
Ġexcell ent
bibliography style
Ġbusiness es
ĠP U
con vex
================================ ================================
max cdn
Ġtell s
Ġ-- ></
Ġ ----------------------------------------------------------------
qu antum
ti tive
Ġsc r
irc raft
] _
Ġvir t
b one
Ġhierarch y
Ġconsum er
oun tain
ex cept
Ġclass ified
ask et
F inal
Ġch unk
TI ES
at able
Ġthous ands
' ].
en te
Ġver ified
ĠArg ument
ĠRes pon
Ġinfras tructure
ĠL ee
Wh ite
v v
ur er
ĠBy te
ater n
Ġcap able
sd k
Ġb ill
Ġconnect ing
in formation
H H
u j
D er
Ġbegin s
tim er
Z ero
v ectors
ht b
ĠS to
ĠPub lished
ĠĠĠĠĠĠĠ Ċ
Ġcon crete
i ro
tract or
Ġsub jects
) /\
Ġsh ifts
Ġlog ical
R M
P ut
Ġsurpr ising
ĠSecret ary
os ted
Ġcustom ers
ĠP romise
IconError Encoded
g tr
rain ed
ĠAustral ian
ĠW omen
ĠSt ream
ĠA ff
ĠC F
ĠA M
IC ATION
et t
Ġpre pared
no tify
ĠL ord
Dec laration
Ġmod er
}, \\
× ķ
Ġcell spacing
Ġso le
Ġincor rect
ĠChar les
h istory
Ġcon sequences
P ush
" ];
ic ode
Ġsc an
ever al
E m
and a
Ġv ideos
Ġvari ability
Ġcell padding
Ġcon ference
Ġun ity
~ {\
Def ine
Ġfac ilities
_{ {
Ġsp orts
W rit
tem perature
A ggreg
K L
Ġsex ual
ĠUS A
ci ent
Par tition
E ar
ra q
ĠF riday
ĠCon sequently
Ġtor us
r n
> ;
Ġcom mu
ab y
_ )
____ ____
Ġspe aking
ĠF ollowing
Ġhelp ful
or ange
autif ul
ĠM artin
Ġh usband
LO W
ĠPar is
war n
Ġproced ures
F ixed
ĠB ol
Ġ uri
rac y
ĠâĢ ¦
ĠW ed
ĠCont ent
Ġcr iminal
Ġwin ning
Ġhydro gen
Ġlet ters
ph en
ĠOb ama
Ġb g
ĠCan adian
Ign ore
depend ence
ĠN a
$ }\
L at
ĠI ll
Ġpar sed
sol r
Ġqu bit
Ac cept
Ġsignific ance
Ġdec oder
Ġev ol
omes tic
Del ay
Ġda mage
et ry
Ġch apter
Ġcontinu ity
Ġb attle
or row
11 5
f older
Ġm s
14 4
Ġcl one
Ġremov es
ĠJew ish
t bl
R GB
=- =-
ĠWARRAN TIES
ĠE li
G IN
Ġscal ed
] }\
l am
Ġstand ards
ke ep
T M
Ġb ridge
Ġf s
Ġst uff
t os
B ridge
Ġconsum ption
Ġconcer ning
Ġt error
ĠD A
P ower
Ġme ant
algorithm ic
con j
Ġdi ameter
ov ie
ĠC ross
date time
ĠT re
Ġsub graph
Ġc avity
Ġpe er
c ert
Pr ice
Ġs in
ĠJose ph
ĠS ing
ĠM S
Ġacc essible
Ġwe ap
inclu des
Ġ Ñģ
F ALSE
ĠRich ard
int o
Ġ til
Ġcomp ris
S core
ĠW ill
par tite
do or
ad ap
Ġl ived
Ġconver ge
com parison
Ġin stitutions
illis ec
Pack et
Ġdem oc
Ġpur su
": "
ques tion
ĠF ederal
le ton
çĶ ¨
DB LP
Ġviol ation
ĠM el
RA Y
Auth entication
ĠKE Y
C r
In jection
Ġma pped
Ġremain ed
ĠUn it
Ġanni h
Ġdetermin ation
ĠIt al
Ġaut om
Z Z
Pol y
oc om
trib utions
d anger
Ġs up
Output Stream
C CESS
ĠĠĠĠĠĠĠĠĠĠĠĠĠĠĠĠ ĠĠĠĠĊ
inte lli
Ġconf irm
eng er
Ġe mo
ĠĠĠĠĠĠĠĠĠĠĠĠĠĠĠĠĠĠĠĠĠĠĠĠĠĠĠĠĠĠĠĠ ĠĠĠĠ
ĠCh ief
Ġmanif olds
Ġp sych
Ġrect angle
Ġdef end
ig an
DE X
Ġun able
ear ance
Ġcomple tes
}\ !
}$ $
f riend
Ġn om
Requ ire
Ġpiec es
æ ĺ
ĠS il
Pix el
intelli j
Ġf re
} ",
al ias
]{ ./
make box
S napshot
col head
atur day
lu x
+ $
Ġoffic er
Ġcl ouds
Ġpack ages
Ġguarante es
nof rame
im ent
ĠAr ts
ote l
13 5
ĠS up
198 1
ĠS end
re gex
Menu Item
In deed
Ġ` ``
oid s
tis m
Ġfrequ ently
Ġh eter
Ġdiffic ulty
Ġsci enti
Ġsh oot
con cat
w al
(" \
Ġdec or
Ġsign s
au chy
Ġ# {
Ġrot ate
ĠGal actic
al ed
ĠR ou
Ġsuper conduct
> ${
Ġi p
or ney
Con verter
s ocial
Ġch ief
p us
form ula
Ġuser name
Ġmur der
LE MENT
P lease
Ġal ias
p ragma
H ar
Ġm ob
Ġexplo red
Ġc ached
link ed
Ġlength s
Ġferm ions
const raint
I l
ĠF rame
Ġbuilding s
Ġpres erve
Ġcustom er
Ġplan ets
Ġ- =
F M
o ir
Ġminim ize
correspon ding
ĠCl oud
Ġoptim ized
Ġinteract ing
Ġqu bits
res olved
ĠLog ger
ĠD ouble
p al
ĠM ember
ĠB ased
ĠB uilder
ĠM aster
itect ure
D ig
mem bers
k h
Å ¡
Ġinterpre t
abil istic
An not
at ers
ĠM P
Ġre tri
ĠRetri eved
int en
Ġchain s
ec lipse
veloc ity
Be en
Open Tl
Ġs mo
ro unded
differ ent
__ )
Ġconven tion
10 8
grad le
Ġor i
Ġuni versity
Ġdi pole
SS ION
duc er
i ation
S ty
Ġsqu ares
b uilt
n am
Ġch e
S to
u h
' }(
Vir tual
de code
i ers
Ġvol tage
Ġt ension
ĠG W
Ġv m
f ar
l c
ĠLo ad
re ason
Ġexpos ure
_{ (\
ĠKing dom
an sion
Ġvari ational
ĠH as
Ġanalys es
> ../
ĠT ag
! </
ver ify
Ġdec ide
Ġ' #
Ï Ħ
Ex tra
M c
Man agement
Ġm ixture
}{ $
au g
Ġlaunch ed
Ġa head
Tw ig
v endor
ĠL ake
ĠAdd ress
Ġcond ens
ĠCl ub
Ġcount ing
Ġradi i
Ġhol ding
q q
Ġatmos phere
ok ies
Ġ< ?
ĠB ell
Ġ" '
set Text
Ġde leted
lo cale
BU FFER
=" {{
24 0
ID E
Ġaim s
Ġmor ning
Error f
String Builder
D id
w ang
G s
con current
With out
Per iod
}{ $\
Ġas sets
Ġi i
ĠC PU
z o
ĠI reland
ne ighb
g ap
ict ures
I EEE
Ġs an
197 9
Ġb ubble
ĠA sia
Ġsh ip
ĠT own
driv en
or ough
big oplus
Exec ute
l ad
le ading
Ġregard less
Ser ies
}} )\
text style
Ġsummar ized
Ġs n
Down load
ĠM A
Ġconsec utive
Ġcommit ted
Ġsingular ity
Ġk inds
ĠJ ustice
IN VALID
ĠCom ponent
11 4
verti ble
Lo ading
Ġde partment
act ual
Ġec onom
ĠRem arks
ĠU RI
Ġ$ -\
it ud
sub Nav
rup tion
scal ar
) },\
ĠDes ign
10 3
lb race
Ġstr ip
G AN
Ġlist ing
Ġbro ther
Bit map
S ite
Ġpre pare
var pi
Ġeff ectiveness
per turb
al and
am ber
upload s
ti st
Ġexp ensive
aus s
AV E
ac cur
Ġextr action
big gr
ĠD own
ĠRun time
Ġsee ing
ab olic
erm itian
Ġaudi ence
Ġmod uli
stit uting
sch eme
Ġ[ -
B i
is er
Ġdef e
ĠI V
O pt
Ġresid ents
moment um
Ġband width
get Class
Ġ| =
mis s
list ing
\\ \
in verse
ĠVirgin ia
str ict
SP AN
Ġinterpol ation
ĠT OP
Ġdes cent
p rom
Ġsh ares
ĠO ld
ni pp
}$ ),
B el
L IN
Tran sl
ĠCon f
ad ic
Ġadap ted
ĠEn ter
ĠB as
ĠCol umn
OT TOM
Form atter
amp ing
Ġhom omorphism
Ġbox es
40 4
In sert
ĠM ur
Ġver ification
ĠMex ico
Ġteach er
TR AN
ĠM O
Dec imal
Ðµ ÑĢ
aw esome
med ium
Ġre ject
(' ./
Ġinher it
Ġpar ity
ĠTh rough
local host
ĠJ ul
Ġgra dients
B its
Ġf loor
Ġreg arded
% "><
Ġb urn
Ġadv oc
Ġprinciple s
Ġsh apes
resize box
v ia
ste in
Ġrepro duce
ĠS W
Exec utor
gener ic
RE CT
po i
ign ore
ur is
tempor ary
ĠF R
ar ra
ĉĉ čĊ
] ->
Ġrec ip
under brace
te ction
ĠMe an
ĠCor por
Ġ======= =
Ġinitial ized
Ġd oll
ĠG rant
Ġs ender
Ġcomm ission
< >();
& +
ĠC C
000 1
BA SE
j p
remark s
Ġsen ior
In tern
Ġpre m
Ġuniqu ely
Ġdis order
be ans
ol o
ok es
! "
ĠB S
, }
illi ons
get Message
as p
Ġ' @
Ġcut s
ur ies
ut ors
ĠR a
ak a
big gl
Ġb an
Ġprint f
Label s
R F
Ġsupp osed
Ġproduc ing
le vant
Ġpropor tion
raise box
Ġre lies
. (
%%%% %%%%
') ->
ĠG P
Ġacade mic
lik ely
Ġcommut ative
Ġindepend ence
( /
Ġcom posite
Ġpric es
). $$
Ġtype def
ari ants
ĠL earning
z i
Ġrig id
ĠD oc
LO AD
c mp
Ġsimpl ified
Ġ' "
h olds
Ġb ij
ĠI raq
Ġconven ience
cur ve
path s
O wner
- {\
ĠCath olic
re ds
Ġcons ult
ĠH op
ste llar
Ġinitial ization
c lock
################ ################
P ane
en vironment
Ġrequ iring
\" {
Ġk w
Ġh ide
ĠMod al
Ġsupp lied
aw are
ĠAd v
ab stract
Ġn ested
r ig
annot ations
gtr sim
G ate
cent ury
Ġexpon entially
ad or
Ġcheck ing
r int
Ġa part
Ġtop ics
@{ }}
10 7
Ġm iles
up dated
met rics
Ġmechan ics
27 0
M achine
ĠSp anish
Ġbig gest
Ġcaus al
Fe ed
aa aa
b u
n ic
ĠPar ameters
Ġgran ted
] ^{\
m cite
] \\
colon eqq
si tes
Ġn s
us s
Ġequ ally
add Class
lim inary
Ġth er
ĠP ri
10 6
12 2
×ķ ×
ĠStudi es
Ġin coming
un known
Ġe lected
Ð° ÑĤ
Ġpoli tics
BO OL
ĠA lice
UR N
ĠR ay
Ġr ating
ĠC L
B uf
ĠF uture
M ust
IL ITY
100 00
ĠJ o
e el
D a
): =
E mit
Supp orted
ad j
m ys
è ®
Ġp itch
Ġform ally
onym ous
rel ations
U A
ĠProf essor
ĠB uffer
Work er
tic a
ig roup
A vailable
æķ °
) ~
Ġ' _
Ġregular ity
Ġrecogn ized
Ġimprove ments
ag ger
task s
Ġhol omorphic
q ed
Ġequ ipped
PRO C
omin ator
ĠH am
Ġrobust ness
{ |\
ĠÐ ½
Cre ated
Ġfew er
Ġdual ity
Ù Ī
it ter
Spe ed
M utable
Ġ\ :
Ġb odies
Extension s
ĠOly mp
vers ely
Ġvill age
Ġb log
Ġp il
Ġiter ator
Ġde gener
Set s
Ġn ice
trans l
="../ _
ma jor
ĠN evertheless
mention ed
Ġreg istration
{ }{
HO UT
Ġdetect ors
Trans lation
Ġ$ ('#
urs day
. ;
Ġinstruction s
^{ *}
um ann
% )
ĠF oot
Ġre write
ĠL anguage
Ġb ins
Ġisot ropic
}$ :
ĠM atch
Ġpers ons
Ġthick ness
oul omb
Ġbound ing
OL D
sign al
ri ers
Int ent
Ġadap tive
P REF
Ġph on
? âĢĿ
Ġc utoff
MB ER
ss ue
Ġincre ment
Ġreplace ment
Ġa w
Ġad mit
ge ms
ĠA nt
__ _
View Controller
Ġteach ing
ĠA re
dat as
se en
ear t
c trl
au d
Ġexpl oration
p is
Ġas set
CRE ATE
A MP
ĠN um
00 3
Ġtal king
Ġg reatest
ĠPro of
Ġtun nel
fra gment
Ġcard inal
nob r
A ct
thes es
Ġno isy
in duced
Ġa v
cor relation
Ġidentif ying
Ġimp osed
Ġs leep
Ġj ets
Ġconvolution al
it Hub
faster xml
Set up
T yp
Ġ å
ĠMus lim
ĠN AS
F actor
** *
Ġre jected
Tran sition
match es
al go
Ġf ounded
Ġb id
Ġar ithmetic
man agement
umul ative
ĠP an
Ġis o
ĠCh ampion
ĠM onday
Ġw idget
Ġar row
ĠA ust
ĠD ig
45 6
Ġ\| _{
Ġvalid ity
geq slant
Match er
C amera
Ġman age
RE E
Op tim
mark s
Uni que
ĠB efore
ard ing
col lect
Ġphenomen a
D ry
Ġa apt
ab i
Ġvari ants
manif old
Ġelectro magnetic
ĠA P
OPT ION
ĠTran sition
Ġre form
Pr imary
ĠJ e
Ġrecomm ended
Com m
ĠDate Time
10 9
Î µ
Ġ era
S ig
Ġsub mit
w orth
'' .
Ġregion al
Ġbranch es
Ġartif icial
m ers
Ġexperi ences
__ ["
rb race
Re ason
Ġcol lective
- $\
Ġphot os
lic es
Ġassess ment
ticip ant
Ġepoch s
ĠHen ry
code c
} "/>
par amet
ĠIn valid
| {\
Ġshe et
s lide
cent ral
ĠD C
ici ency
Ø ª
Ġmod ular
F urther
ĠComm unity
Ġis land
tran sp
it an
Ġc as
ol i
Ġdiscre p
d on
Code c
th le
ĠP ak
ĠF re
n oc
f our
Ġout line
OR K
ĠF ALSE
C annot
bound ary
Ġde le
ref resh
ĠN ov
d ays
H L
( $\
ous el
ĠT ree
> .</
ĠJ S
as m
Ġassum es
XX XX
Ġjus tice
Ġmonitor ing
D on
RE T
19 77
set ting
Ph ase
Ġre mainder
ĠF ilter
sin h
Run ning
un te
T uple
ac ific
ta rea
Ġwe ather
ĠGener ated
Ġdecl ared
alax y
Mod ifier
Ġag ency
z il
Ass et
Ġlook ed
ĠP ack
Ġ( {
ĠJ ones
^{ {\
Ġpenal ty
end point
Ġcl s
Ġg lass
}} }}
ĠE ff
iel ding
d td
pack ages
Ġ' -
Met ric
ĠP R
Ġcollabor ation
Ġper man
Ġtr im
)} =\
E ven
Ġtechn ologies
ĠSer ial
Ġc ertificate
p aren
Ġlife time
> {
ĠN N
ric k
ĠP erson
Ġulti mately
in et
stri al
ĠN ull
Ġh op
Ġdec ade
Text View
Ġd st
Ġmeas uring
Ġdef ense
Ġexec utive
qu al
}. $$
Ġto ler
Ġapproxi mations
Ġtermin al
Ġaddress ed
U CT
Ġarg ued
ed y
ut y
our ney
Ġ erg
}; \
Ġcol le
sh a
ĠBO OST
ĠGe org
ĠTe am
__ ,
Ġmode led
50 9
Ġreturn ing
E very
Ġk ids
Ġvar ies
Ġthrow n
Ġext inction
B ad
c ts
o thing
ADD ING
ĠDe ep
ĠL ipschitz
B ro
Ġoffic ers
alle y
ĠCent re
ans as
R ules
Ġjud ge
TableRow Color
D ict
ost on
$ =
sh ips
u ce
C irc
is ition
ĠW ood
C ulture
\\ [
s ources
}) :
Ġcoinc ides
17 5
bal ance
Ġw rapper
Ġobvious ly
T ex
th umb
Ġapp reci
ut ch
ici ans
f ollow
til ity
Ġk ing
Ġaccur ately
lic a
shall er
Ġth r
ues day
v dash
="@ +
ti e
Com mit
Ġfam ili
ĠG rand
] </
IM IT
O FF
Ġst yles
ĠD R
Dis k
ĠF ort
Ġincreasing ly
Str ucture
æ Ī
Ġcent ers
enari o
ĠS af
h h
19 78
g ot
te ll
' })
L ike
Ġcr ime
ic an
Ġexclu ded
PRO P
Ġ tick
t one
Me asure
re view
sc atter
Orig in
Ġwe alth
the ad
)$ }
Ġclin ical
Ġphil osoph
Ġadmin istr
Ġde generate
ere f
5 000
ĠCh annel
Ġserv ing
f onts
AR G
L D
Ġst ations
Ġm and
Ġaccom pl
Ġal igned
Ġar rive
Ġadap tation
m x
fil led
pr ise
Ġreason ing
ĠĠĠĠĠĠĠĠĠĠĠĠĠĠĠĠĠĠĠĠĠĠĠĠĠĠĠĠĠĠĠĠ ĠĠĠĠĠĠ
Ġimpro ving
Ġv ulner
Ġcompreh ensive
ĠP ut
Ġprac tices
ce q
Ġin jection
Ġad verti
i ors
ĠB a
}{ !
Ġassert True
Ġin comp
app le
em an
que e
Ġp al
et ary
ordin ates
Ġconjug ate
Ġb ond
Sh ader
12 4
s ass
ap y
G aussian
Ġsatell ite
cos ity
ac ion
ec tives
Ġdeath s
}. $
Ġexerc ise
Ġqu arks
Ġasympto tically
Ġarchitect ures
Ġsch ed
Ġcharacter ization
Ġs napshot
^* (\
Ġre in
b n
M r
Ġdeal ing
let ter
ess el
Ġ\, .
Ġab use
cos h
ul k
omet er
Î ¹
ish er
v p
it ors
D istance
I ME
cor re
ard en
get Attribute
Ġsto res
Ġv ice
ict ory
late st
P G
c ategories
Ġs orted
ĠP A
st ation
Ġ" ${
Ġlogarith mic
^ *}
Ġapproxi mated
ack now
ĠEn tity
ĠBl ue
add le
az ure
Ġp ending
serv let
Ġins ight
Ġan ten
ĠB ORDER
ĠZe aland
e igen
man y
ak i
fr ames
Ġpar titions
] }$
Ġfac ility
Sw ift
Ġrot ational
Ġsing ularities
Ġretr ieve
Ġpoli tic
ĠĠĠĠ čĊ
Ġ$\ |\
Ġar ising
}} ^\
Ac tiv
Ġre new
HO ME
ĠSci ences
Ġnucle i
Ġplan ar
lat tice
Ġconserv ative
scale box
lap sed
Scal ar
Ġl ab
qu ar
pend ing
Ġis instance
ri vers
| }{\
Ġpass es
ma tics
" ?>
d st
NR AS
ĠNS String
Ġk not
SP AC
\ ).
N ON
Ġmechan ical
Ġdes tr
pay load
Ġnot ing
Ġlog in
du nd
ich let
Ġa id
urren ts
ĠR andom
Bo th
L ow
}) }{
F ac
Ġc er
* }\
S eq
w hat
Ġsym plectic
Ġdevi ations
P riority
mu x
Ġs ister
C UR
Ġtot ally
ĠR am
Ġpublic ation
Ġrece ives
as ym
Ġcons iders
ĠS imilar
Ġg rows
Ġs ight
tim eline
c x
tit ution
Ù ĩ
B er
M ix
exec ution
Ġr id
Ġv on
ced ure
Ġimpro ves
el le
star ts
Ġg iant
cover y
p ty
EV ENT
P ADDING
Ġgo ogle
ĠW hether
Ġadd r
Ð¾Ð »
nes day
Ġmoment a
Ġclass ic
des cribe
cor r
Ġnon trivial
ir med
Ġch ampion
P res
tra it
pub lish
: &
ke leton
)) =
`` ``
Ġsp end
Ġdecl are
)} }\
Ġ' ,
197 6
Ġopp osed
Ġd og
list ener
is sions
Ġobtain s
itud inal
out ing
ov es
display Name
Ġfl avor
C ost
yn chron
depend encies
fav icon
hom ogeneous
L ines
p es
Ġg one
ĠT ABLE
Ġori ented
W ill
r ceil
== =
ĠIt aly
Ġ/ ><
Ġas ser
Ġequival ently
Ġp ump
de mo
ĠM AX
ĠWh ere
Ġh ex
Up load
Ġ' ''
/ )
Ġflux es
ĠHand le
Ġ" );
Ġn m
Ch anges
p ed
Ġbar rier
ĠJ im
Ġarm s
frac tion
Ġmotiv ated
w ing
Ġexplain s
; %
di e
Ġ ray
ĠS aturday
Ġpo le
lo s
Ġcap abilities
Ġmar riage
V O
Ġre lying
Ġprov ing
Ġhomot opy
Ġneutr inos
Enumer able
Ġpromin ent
G reen
Ġreview s
var s
Ġassoci ate
}\, ,
l is
se parator
] ).
Ġb ases
pre d
AP P
Ġequ ipment
ĠM i
ĠPro p
the o
aw t
O k
ĠL ike
pr ice
cs v
Ġsimp ler
ore l
Ġknow s
sc an
cor rect
Bl ack
Ġconc aten
n as
[ ->
Ġar rays
Ġg amma
Ġmark ets
Ġleg end
TER N
inten ance
Ġquanti tative
cript ors
ĠÂ ©
es cape
Ġmys elf
Ġdro pped
Ġ tic
ĠH D
Ġclos est
Con vert
Ġabsolute ly
s imp
}) ^{\
Ð ·
Ġsh or
ex c
Ġwh atever
db c
or se
ĠS NR
Ġsh ifted
- ">
P OS
l ceil
ĠSh ould
h pp
` )
Ġar rival
9 00
LA B
Ġacqu ired
Me an
filter s
Ġs we
Ġguarante ed
idel ity
Ġco ach
p ipeline
11 6
EN TRY
de m
Ġcircum stances
Ġprov ision
T emp
Ġas sertion
Ġindic ator
ba tim
e V
ug ges
multi p
ast ro
Ġsupp ressed
Ġphot ometric
ĠC are
K ernel
Ġreport ing
Ġt f
ĠL uc
leg end
Ġexpand ing
x ym
op acity
D av
Ġb are
ĠF ar
big u
Ġauthor ities
Ġmut ual
ĠM IT
RE SS
value Of
Ġd ream
ĠJ eff
r x
Ġdr ift
un stable
FLA GS
ĠSup reme
ĠIn ternal
Se parator
l ighted
$ ^\
Ġplatform s
ra f
Ġdis p
L com
AR GET
u its
Ġaff ects
}} ;
ĠL ight
P ress
system s
Ġp m
Ġexperi enced
Ġp c
Ġbright ness
nos cript
Ġ )\
Ġsp ins
Ġexp r
Ġneg oti
do es
ĠJ ud
Ġ\ )
Ġanom aly
F etch
ĠÃ ł
Ġ\\ \
19 75
b en
^* _{
Vis ual
Diag nostics
Ġsim ulate
ĠUni verse
she ets
diag onal
g ressive
Ġdemonstr ates
\ @
ĠCal c
ĠB Y
}{ -
Style ID
Ġexhib its
B reak
Ġfl ight
Ä į
Ðµ ÑĤ
D ot
pro f
U sed
Ġst retch
m ond
te am
th ese
ic ular
ĠW ater
min imum
extension s
Ġexper ts
Ġf ear
ĠTR UE
pop up
Ġs ensors
ĠWIT HOUT
Block s
Ġas ymmetry
pro jects
Ġad ditive
Ġf resh
L arge
S B
B us
d ynamics
Ġoper ate
om er
@ {\
Ġa xi
Rad ius
Ġcoun ty
Ġsh orter
Hash Map
ĠĠĠĠĠĠĠĠ čĊ
Ġacc ord
T X
ran es
ĠA ut
11 3
stream ing
Ġslow ly
ig m
row Color
um s
ĠSen ate
Z oom
% .
period ic
Ġf an
O ld
and o
Un iform
d ue
S ide
Ġdeli very
ĠW all
Ġti le
ĠFig s
n ear
ĠBrit ain
Ġar r
Ġobserv ing
al a
ever y
ĠCon vert
bal lo
Ġgen us
ĠF amily
Ġhous ing
Ġbe autiful
}$ &
Ġref lected
pack et
Ġv ast
sp ot
Q ual
Ġde part
Ġrecover ed
~~ ~
Ġch ose
sta ur
Ġvis ibility
ĠC irc
+ }
if er
Ġschedule d
Fe atures
Ġrecon structed
Eff ect
Ġrespon sibility
Ġgra ded
p et
Ġprom ote
ĉĉ Ġ
Ġreach ing
. ',
ĠIllegal ArgumentException
G a
ĠS F
Ġ} ).
f w
Ġde t
Ġfe et
Ġcopy right
iffer ent
Ġa ircraft
ma king
P RI
section s
FORM AT
Ġw rap
),\ \
ur t
* {\
Ġ* ,
Ġthere by
m q
DE D
ĠS em
Ġin ferred
11 7
we ighted
pix el
Ġt ack
Ġwrite s
Ġsyn tax
ĠRec ords
U pper
Str ip
cons ist
Ġsimpl ify
Ġpair wise
Ġs ends
ierarch y
le et
ĠMed ical
Ġsub sequently
Com par
Ġde legate
Const raints
d ocker
ur istic
ĠR ow
Ġim per
dim en
eff ective
Ġsk ew
Ġm igration
Ġg it
ĠA C
Ġac knowledge
war z
fa iled
Ġocc asion
Ġc f
ffor d
P resent
tis tic
Pre dic
b our
Ġcol on
ĠM ont
Ġown ed
ĠWe yl
C AL
n ecess
ĠAb out
Ġsummar ize
u si
ern els
Rel ative
ent ation
Ġtr uly
Ġbr ings
Ġindu strial
Ġcharacter ize
cp u
: %
dis c
Ġspec ification
Ġsimple st
Ġmus ical
ig ate
Ġstre et
ĠAc tive
D ITION
Ġgir l
ĠB OTTOM
member NameLink
Ġco al
ĠK ar
cont inue
ĠItal ian
â Ķ
ĠR est
xym atrix
[ <
Ġcont our
Ġf ellow
ĠRepublic an
ass umption
ĠW ik
Rece ived
_{ |
SPAC ING
vari ables
ampl er
> `
ag ram
sch emas
Ġch air
Equ ation
it udes
)} ]
ĠS ymbol
Ġradi ative
Ġexper t
SU CCESS
ĠPal est
V D
run ning
ate st
Ġint ent
2 30
Ġhel per
ĠR ender
ul p
Mod ified
Ġad vis
ĠK IND
Ġprom pt
ĠM E
Ġsum s
Ġperform ances
? }
Trac ker
Ġa di
Ġimp lications
p en
ump y
s creens
append ix
Ġthread s
Ġf i
ĠP O
b ucket
mu st
C NN
Ġc ategor
ĠWilli ams
Ġin stitution
Ġon going
EN ABLE
Ġwar m
Ġillustr ates
De ep
Data Type
ĠJ ack
Ġco ast
Ġl ift
Ġif f
Ġfamili ar
F amily
aba tic
ĠC ivil
(" .
Al pha
) )$,
per t
ch at
REQ UEST
Ġb ucket
Ġhe ating
Ġid entities
M NRAS
ent ropy
Ġdep loyment
C ross
-- \
}) ^{-
Ġb igger
Cal endar
d dot
ĠN Y
K K
class ical
Ġwindow s
tr ation
ĠD et
ĠB C
Ġpro pos
ĠV i
Mon itor
}= -
w b
ĠO P
Ġd ip
en sively
Ġapp ointed
Ġsem antics
sub string
197 3
Ġcommit tee
ir us
sen sitive
Ġf uel
sp it
Ġdis placement
Ġsqu ared
Ġ/ ></
CO M
th in
ĠA ws
ĠDemoc ratic
con tain
Ġan c
Ġquanti zation
se x
Ġcoinc ide
Ġpromis ing
L F
Ġmov ies
Ġ} .
D ue
Ġ" ;
Enc oder
se g
first row
Pe ople
pend icular
as is
ourn als
Supp ress
Ġk ill
lo v
| }\
Ġgu itar
Ġd omestic
æ Ĺ
Ġ// -->
Ġmultip lic
Ġ ly
m ime
par k
197 4
å Ń
Ġare n
w an
Exp ect
ĠApp le
tit les
hold ers
th ird
Ġcontr ary
ĠL HC
Ġvalu able
tun ing
arg v
g c
Ġhand led
ac ian
str ument
19 50
f mf
Ġlo se
on to
ĠT w
Ġform ing
Ġsol di
olog ically
Ġinf ection
SOUR CE
IT LE
ĠI C
ĠP ay
mon ic
Ġcar s
id ents
Ġ urban
Ġcan vas
ĠSc ott
no tification
w ind
qu et
Ġout flow
[ [
Ġfor th
Ġst ub
Ġmin ister
Pro b
est ing
Ġreve als
ĠC he
+ "
N ONE
Ġreal ization
flu x
o is
ĠPU BLIC
ĠO k
process or
ad ded
Ġend if
d or
ĠĠĠĠĠĠĠĠĠĠĠĠĠĠĠĠĠĠĠĠĠĠĠĠĠĠĠĠĠĠĠĠ ĠĠĠĠĠĠĠĠ
Ġem b
Ġin cl
av g
ĠCELL PADDING
comm ut
ĠF ire
az z
Ġper mit
ser vers
Ch art
Ġadj oint
ĠMod ule
decor ation
ign er
Ġinter sect
$ ^{\
ch oice
ĠCol umb
). $
Sec ret
ops is
. ]
per cent
manif est
ĠI mmutable
st yles
ĠCELL SPACING
ĠPol i
Ġ" _
Ġv en
C RIPT
ĠIm ple
ĠSum mary
Ġm iti
in ject
is a
ĠG a
Ġappro ved
ĠR O
d w
M esh
( `
Ġtempor ary
Ġa de
gra ded
Ġgu id
SP ACE
ou ple
] _{\
inher ited
B ucket
F D
st ub
en ant
pos able
ag ers
File Path
ĠDes pite
ĠCarol ina
Ġmatter s
sh op
if ting
Ġprojection s
ac on
Po jo
Ġ} (
; ,
oc ab
Ali as
ch unk
) _\
h ex
tur bed
reed y
P N
p ing
ge ometry
Ġours elves
L ang
)$ $
ĠO ptions
ĠL I
Ġaver aging
Ġres istance
su cc
ĠInitial ize
ĠWith out
de fer
tem pt
et c
Ġarbitr arily
ĠA rea
Dat aset
Ġend ing
ch em
fra red
SS AGE
w i
Ġauth entication
Ġwall s
ĠT ab
Ġdef aults
B ACK
Ġgreat ly
\ ),
con c
ç »
Ġres ulted
ĠW HERE
ĠH istor
S mall
Java Script
Ġmod ifications
Own Property
} '$
To ols
Ġfilter ing
12 1
Ġread ers
ro c
Ġover come
Ġhum ans
ĠAss umption
ĠR ule
n own
Ġle ak
ĉĉĉĉĉĉĉĉ ĉĉĉ
Ġno tification
pi pe
Ġpair ing
Ġd raft
Ġexp osed
Ġatt end
Ac knowledge
Look up
rt l
17 0
ĠC oulomb
Access or
ĠHash Map
A W
ij k
re direct
back end
AS H
com ments
Ġcal ibr
ĠB asic
Ġfilter ed
Ġfair ly
Ġs tim
Me V
ĠDat abase
{ }\
Ġauto matic
Ġp ed
T ry
Ġcalcul ating
ĠWh y
ĠTh ursday
Ġsent ences
z oom
Ġe yes
Test ing
em s
ism atch
tic ular
Ġintro duces
ĠR ic
ST ART
ĠS ar
ath an
block s
)- (
p lots
ĠS l
up les
× Ļ
e lectron
}}{ (
Con clusions
gh an
mod ified
note s
on av
ĠP S
ir y
Ġinv ariants
ad i
n atural
st retch
pp ings
He ad
Ġl ic
ĠS outhern
Ï ĥ
ĠL ove
+ {\
Lower Case
}$ ~
over rightarrow
de generate
Ġhund reds
com b
ĠS and
ĠC auchy
ater al
Ġbranch ing
Î ½
Ġadv ice
de legate
Ġansw ers
AC CE
ĠĠĠĠĠĠĠĠĠĠĠĠĠĠĠĠĠĠĠĠĠĠĠĠĠĠĠĠĠĠĠĠ ĠĠĠĠĠĠĠĠĠĠĠĠĠĠĠĠĠĠĠ
ĠUn less
Com ponents
Ġtri p
phi a
Ġco arse
ran ce
ĠG PU
11 8
ac l
Ġcaref ul
Ġbreak s
the ast
Ġvis ited
par ticles
Ġreal ize
ĠCE O
Trans fer
Ġexperiment ally
Ġyour self
mod ifier
pre pare
Ġoptim ize
ĠB lo
Ġcontinuous ly
s is
con figure
initial ize
Ġke V
trans fer
WA RE
Ġun like
ĠT YPE
W rap
RO OT
ĠExp ression
Ġl as
Ġf oo
Ġfactor ization
)$ )
vis it
ĠTh ree
ch ro
He alth
Ġmultip licity
Ġco ins
Ġext ending
ĠB oston
Pro f
ĠG ar
non atomic
Ġconsist ently
Ġev ident
Ex it
Ġv ocal
E s
ĠM D
the ore
3 20
Ġmethod ology
Ġback ward
Ph oto
Ġp an
As sembly
/** */
Sch edule
or ters
ĠP HP
Ġd om
Ġre venue
U UID
Ġh ero
MP L
Ġf o
Ġro uter
Vis itor
Ġmeas urable
att ach
Ġad missible
Ġin direct
over lay
ĠPr int
sc ene
Ġpy thon
ĠR GB
i Ã³n
ĉ ĠĠĠĠĠĠĠĠĠĠĠ
un ication
Ġdivis or
Ġdo or
Ġsc enes
4 50
Lin q
SH A
Ġ" #
Ġdis plays
ction s
D ist
{ },
Ġle x
ĠF our
/ $
ĠC amb
arge ted
C SS
state ment
ĠL icensed
ĠString Builder
sl ider
Check ed
Ġyou th
Al ert
er gy
co okie
Ġadap t
S tage
tili ties
Pay ment
we ek
Ġsurve ys
Ġo c
ĠV ictor
Ġen velope
197 2
ĠSt an
] ),
ec raft
Ġex ceptions
P al
Ġdevelop ers
; -
ĠV an
Up dated
Ġpl anned
lim ited
.\ ]
T ensor
me as
Ġp un
Ġevalu ating
ĠL abor
s ampling
ĠÐ ¸
ĠS Y
ir able
( (\
z ier
Ġintegr ating
Ġconvers ation
Ġlook up
sc opy
diag ram
L em
Ġco res
Ġa warded
check mark
Mod al
O ri
Ġvis cosity
âĢ ĺ
; ]
ĠS R
Ġr ings
_{\ {
Example s
Ġt s
respon sive
++ ++
Par ty
}\, .
ĠS ize
Ġc oding
Re place
Ġz oom
Y our
}, $
Ġperturb ative
P ipeline
AR CH
ent ries
Ġb ath
Ġdeb ate
ĠI F
Ġn omin
os a
$ ~\
I p
Ġz eros
i y
Ġinher ited
V C
V I
Ġs ter
Ġapp endix
Ġmeaning ful
Ġ= &
ĠMin istry
Ġam bigu
tool bar
Pop up
it age
ĠV AR
ĠR en
2 10
ĠConn ection
ĠE gy
b eq
c ountry
ous tic
ĠSh ort
n an
vious ly
Sc ene
P lot
ĠF estival
est or
C ity
13 6
ME M
Ġfocus es
dec ay
ess aging
ĠL ev
implement ation
v n
ĠG reek
Ġdraw ing
or ous
Ġse es
\, $
ĠSe lect
Ġhelp ing
ĠJ un
ĠL ab
Ġdis ks
Ġr hs
}{ .
go al
\% ,
Ġrot ating
Ġcomple teness
Ġweak er
Ġin version
Ġh omes
h w
Ġdetermin ant
Ġtim ing
radi ent
ĠT uesday
ĠP AR
Ġs outhern
FFFF FF
}) ,\
Ġgre w
ian o
d ers
Al t
Ġman ually
un ing
M ail
ub le
D ao
Ġsto pped
Mark er
Ġhund red
B G
Graph ics
o ma
illisec onds
ĠLe ft
ĠN ative
d up
ĠRad io
Ġup load
Can vas
im m
tic ed
int on
f uture
Ġmer ger
ed ges
ĠH on
- }
Ġsever e
l vert
Ġs tem
bas is
ĠC T
Ġdec oding
et ter
Ġthere in
^* ,
allow ed
Ġsus cepti
é Ģ
the y
te t
Ġm ic
M N
ĠJ oe
Ġlist ening
spectr um
Ġre staur
G RO
Ġdiv ide
lement ary
Top ic
t ol
Ġ} ),
Ġtriang les
Ġinsur ance
Ġent ertain
ind ices
è ¡
Ġminim izing
ul ates
Ġimp ose
Ġnew spa
Ġtrend s
en h
Ġran ging
s atz
] ['
ern ate
Ġma il
u ition
Ġtun ing
rep resentation
in son
look up
Ġlist en
Ġc c
sh ots
I mages
{ #
Tr igger
Ġoutper forms
sp i
per formance
Ġl ens
w art
ular ity
Ġe V
==== =
LA S
ĠH E
r k
)) ^
Ġevery where
... )
Ð¾ ÑĢ
Sch eme
Ġtr ick
1 19
ĠV alley
ĠS ession
Ġqualit ative
om item
! =
put ing
r h
Ġarriv ed
Ġar rows
P adding
omitem pty
ach el
Ġfeature d
ĠStr ucture
Ġs ectors
13 4
)$ ;
c C
H I
Ġaccom mod
H ave
Ġre mo
Ġle ague
Ġaggreg ate
N UM
Ġcompe titive
Ġa st
Ġk ernels
ĠC ard
Ġpro fit
An chor
Ġprob abilistic
Ġprotocol s
Ġread ily
seud o
i pp
y ou
Ġpo si
Ġinv oked
Ġ" )
Ġ. /
Ġcl ause
Ġpreserv es
}: \
ĠC a
19 68
Ġtor sion
erial ize
Ġencou rag
Ġfall s
ĠW ho
ĠDire ct
Ġmark er
Ġglob ally
ĠM en
yl van
D one
-------------------------------- ----------------
ur ities
Ġdate time
ul se
dis crete
Ġspar s
T LS
Ġing re
abe th
u z
Ġbelong ing
Pos ted
x sd
W W
ĠB AS
Ġpublic ly
ish op
ĠS ET
Ġin jective
ĠM atrix
Ġoccup ied
F s
ti zed
at ype
Ġfore st
ĠFrancis co
ĠDe bug
**************************************************************** ********
Ġg rate
Ġm otor
Ġtransfer red
H ex
ĠJes us
Ġform ulated
ĠJ ordan
Ġre actions
draw able
Ġtim er
Ġmodel ling
Ġremark able
tract ing
Ġcoher ence
Ġrest ore
Ġextr apol
ro magnetic
dd en
0000 0000
Ġproduc er
ge om
T or
U i
__ .
i able
Ġin vertible
Ġsequ ential
Ġconsider able
m g
Ġrenormal ization
ĠAcc ount
Ġremo val
| ,
Int Literal
B en
r ons
Ġsh o
ext ype
end a
C ent
AR RAY
Ġattr s
Ġx si
Ġsp ring
Ġgeneral ize
ĠTe V
h our
ĠH aw
Ġo mitted
L ie
N I
ĠImp ort
ĠP ackage
equ ilibrium
ĠM id
ĠS ect
ish ing
con tr
rep resent
C a
aver age
ĠAm ong
l apping
}) +
ĠWed nesday
Ġmembers hip
ch arg
)\ |_{
prop ag
attr s
u u
App ro
ĠDemoc r
H AND
v anish
12 6
Ġh its
Ġf iction
ud it
Ġleg acy
Ġcr ash
dir name
ĠÐ º
Cor ollary
ĠP at
Ġnor thern
Ho ok
ĠT oken
Sa fe
Ġland scape
ex clude
Ġpreserv ed
Ġc urrents
parent Node
an tity
Ġcorre cted
ĠLat in
prob ability
enc il
Has Been
Ġc p
we ather
ĠT ro
ĠA li
Ġm el
Ġdif fe
"> &#
f ollowing
N ECT
i per
trac ts
De fin
ĠL abel
l iteral
Ġlong itudinal
ab ling
um ented
B ra
other wise
99 9
table s
Ġsu it
Ġvor tex
Ġref resh
onav irus
j ec
pl er
Ġd ots
Ġ{ })
V T
^+ (
" ])
e ties
. }}
bal ena
Ġl ibraries
ĠS cal
). \
0 10
Ġsub str
ad ium
Ġob st
E LEMENT
R atio
ĠRespon d
; =
Ġ æ
us age
ĠM ove
N L
ex clu
Ġvir us
Ġconsider ations
Ġinte lligence
Ġact ors
| $.
å ľ
Ġg ates
og gle
ĠFil m
utor ial
Ġbal anced
Ġhierarch ical
ĠPro blem
v y
Ġan cient
}\ |\
Ġtransform s
Ġc s
)\ )
Ġfocus ing
e valu
ĠD ar
Ġs ketch
Ġput ting
ph an
ĠP C
ĠPro perties
ĠÐ ´
ti a
per mission
Dest ination
ĠNor thern
) '
ĠCre ated
to Equal
CO UNT
ex isting
., ][]{
Ġw ww
Ġran king
M ut
Ġheav ily
U ES
Ġsp ort
){ $
App Compat
Ġdeliver ed
Ġpro hib
Ġrelig ion
Ġenhance ment
Ġexpect ations
pe ak
g ue
Ġdestroy ed
ĠJer sey
C over
ĠHe ad
Ġ" ./
Ġde but
Ġv ec
Ġkw args
al tern
Valid ate
Ġi ons
ĠJ r
RE NT
Ġoper ated
Ġex clude
ãĥ ¼
ĠC ache
Ġswitch ing
Ñ ĸ
}} -\
d g
Ġed ition
Ġturbul ence
Cap ture
a del
a int
ĠT arget
ĠJ ackson
ĠPar liament
ĠL P
c ue
Stack Trace
Ġ( `
q a
or ientation
16 8
External Task
Ġreg imes
ĠR L
. &
Ġs ink
Ġnorm ally
Ġfor get
Ġdifferenti able
short cut
n r
ian a
Ġhom ology
Ġass istance
Ġpoint ing
Ġmark s
b ell
Ref resh
16 9
ock s
Ġ"- //
Ġglu on
Ġ[ (
c amera
Ġc od
Ġp reference
Ġre tain
lim in
Ġlo cale
ĠG C
Ġref lects
Ġ" +
Ġcons ensus
Ġemission s
Ġcaref ully
pag ination
W in
ĠSt ore
Ġbehavi ors
Ġs and
Ġlimit ation
asc ade
cap ture
G Hz
v r
f an
Ġsol ver
Path s
Dis cussion
ig ator
Ġabund ances
enc oder
Ġphys ically
asket ball
ow l
Ġexc itations
e eq
FLA G
est ure
Wh y
ĠF ull
scal ing
de cre
eg o
ĠF ixed
Ġpost s
Ġsub mitted
G re
v t
Oper ations
Ġfl av
Dependency Injection
}) }{\
Ġuniqu eness
j u
ul ties
sh iv
ĠPak istan
33 3
Ġprof essor
g ui
ĠM is
ĠOper ation
i mag
> =
mis sing
14 7
Class Name
ĠG ames
NG TH
ĠF lo
Ġpar k
Ġanim als
Al ignment
ups ilon
ear ing
Ġdec laration
ExternalTask Pojo
C lean
}$ };
ĠLe vel
Ġpurch ase
ĠAd S
c ached
Ġhear ing
ylvan ia
HasBeen Set
Ġman ual
Ġaccord ance
Ġmod ulation
ĠC y
M AN
ĠT ry
]( #
Ġalloc ated
OB JECT
P ending
ĠAd am
il ly
Ġencou rage
v x
\% )
A U
Ġredsh ifts
ĠE RR
C li
Ġdiff ers
L ite
struc ts
h p
Ġinter fer
Ġintegr able
al d
ĠDan iel
ĠB ad
MA GE
Ġenc ryption
Ġoscill ation
,\,\ ,\,\
F ill
Ġestim ating
3 000
Ġ\ %
phys ics
i ma
Ġlegis lation
Function s
ĠB on
Ġgood s
Ġsa ke
EX PORT
. ")
Ġsubgroup s
M SE
Sh are
2 25
Ġmass less
Ġsuggest ing
A ff
Ġl l
Ġg ray
Per formance
] >
Ġcaus ing
J an
c oc
r ically
des criptor
ag greg
ring tone
Ġfunction ality
Ġper pendicular
A O
] <
Ġe le
Ref lection
ĠJ on
ĠF I
Ġoffer ing
Ġk pc
Ġ Ã©
Des cribe
P ref
dot ted
Ġcl ar
Ġmes on
Ġ[ {
atern ion
00 4
to LowerCase
TE GER
re verse
Ġk ick
J s
Spec ial
ir ds
Ġseem ed
ĠPol ice
Ġturn ing
ĠPar ameter
Ġcov ariant
Ġw ood
qu ick
ĠCon sole
SER VER
. âĢĻ
hash Code
Ġfif th
ov iet
Â °
const ants
Ġax es
ĠAdmin istration
En tries
hook rightarrow
Ġm ort
Ġinter faces
="# "
ver sities
ĠR ail
pol ymer
book s
FA IL
Ġdimension less
x ref
Ġ river
ĠClear ly
ĠY es
ĠC MB
sp l
Ġ{ (
is ations
Sec onds
Rev iew
b is
ĠEx perim
ĠSur vey
'' $
u sive
Ġcommit ment
Ġre direct
Ġsuc ceed
ĠAr ticle
AUT H
sc ious
care t
Ġpossi bilities
v b
IE W
ĠEngine ering
Ġsp ac
andid ate
Ġade qu
AT URE
Ġconfigure d
Ġpar ton
Ġover head
Ġro utes
Ġc la
ĠD ictionary
d yn
ĠW ord
Ġutili ze
Ġdissip ation
ĠEn c
Ġsu dden
Ġtri als
Ġprocess or
Ġre dund
sec ret
Ar rays
ati le
? </
ĠC ov
Re gex
ĠC V
ĠD er
Ġspec ifies
Ġstudi o
append Child
p referred
over flow
Ġdou bt
App ly
Ġselect ing
Multi ple
ĠBro ad
Ġscienti sts
sub scribe
Ġrel ate
T ip
Ġthermod ynamic
Ġs ac
or er
Ġo mit
m orph
ici ous
Mer ge
} --\
se gment
spectr al
. ][]{
O cc
Ġaut omorphism
Ch unk
Ġs ale
ĠSch ema
' }{
Ġmorph isms
Ġb ed
! }
? "
IN DEX
Dec oder
Ġexplo it
ren ce
vis ibility
al p
hel lo
Ġh a
Ġwill ing
po si
$ ]
f v
Ġpos ted
ĠPr ime
Tim es
c A
elastic search
imp ro
du ate
Ad v
zh ang
Ġprov iders
Ġun likely
197 1
Ġ. =
Ġlat ency
Ġsto pping
Å ¾
Ġsuper vised
Ġanomal ous
ches ter
Ġsubstantial ly
Ġconstruct ing
m esh
Ñ ħ
b v
Ġstand ing
R eq
Ġtem plates
do i
ĠRef s
19 69
n able
Ġfile d
Vis ibility
Ġperfect ly
sec onds
C ould
Ġan ticip
ad apter
le in
ost er
C tx
render er
M illis
Ġrender ing
Ġin set
Dest roy
Ġconstit u
ic er
st ab
Ġappe al
Ñ Ĩ
con vergence
Ġe lev
Ġ( #
Ġfeel ing
Ġmin ute
n ail
Ġin ject
Ġc url
si bly
' ^
ãģ ®
'] ))
B a
ph ab
ti d
nap shots
Ġiter ative
sch edule
ĠCorpor ation
Rou ter
suff icient
ĠĠĠĠĠĠĠĠĠĠĠĠĠĠĠĠĠĠĠĠĠĠĠĠĠĠĠĠĠĠĠĠ ĠĠĠĠĠĠĠĠĠ
Ï ģ
over ride
ma ker
Ġth resh
Ġsp ending
fit ting
IN IT
ä¸ Ń
Ġannot ations
ĠR PC
Con v
ĠS L
set Attribute
st derr
Ġstrug g
math rel
Ġtran sient
Ġcap ability
Ġa vailability
^+ _
lu c
Ġj ourney
Rep ly
re cor
Ġul tr
Ġto String
ĠRec ord
}: =\
ĠF ac
Ġadvan tages
Ġsuper ior
ik es
sw ap
es is
Ġrecogn ize
H ide
, $$
Ġdisc i
ĠA ri
ĠO x
ĠTh ose
P DF
? (
Ġneur ons
mach ine
ĠEd itor
Ġmach ines
ĠS ingle
Ġno tify
ME SSAGE
.\ ,\
ste ps
Ġmod ulo
to gether
Ġmagn itudes
s ender
15 5
Ġpar ad
US Y
Ġw ider
14 5
Ġauth entic
Ġpreserv ing
Ġbos ons
Ġp ip
ĠL ow
p aces
Ġag es
be ing
/ #
un ion
ĠL E
Ġsearch es
Sur face
Hel lo
G F
Ġconn ectivity
INST ANCE
imp lies
() [
Ġcomp atibility
J ust
Ġemploy ment
Y es
}^{ *
{- }
Ġannoun ce
iss ue
Status Code
\ ":
Ġnot ations
}$ \\
OR S
Ġj o
ĠCar tesian
Ġa z
igh th
Ġs i
dat ab
Ġprote in
se ed
F i
text ure
ĠU sed
ĠG rid
ab solute
Ġfound ation
Ġc oc
Ġf ra
Ġ/ .
Ġle pton
V ariant
Ġres cal
}= -\
Co okie
---- ---
Ter min
}} /
ĠKore a
ĠP rivate
Ġtw ist
Serial ization
ĠAf ghan
b os
z abeth
re ach
Per cent
ĠF all
ĠCON DITION
Ġrev olution
Ġpre liminary
Ġmer ely
ili pp
` :
ĠCh air
ĠBan ach
ori ented
Ġful fill
Ġtrac es
ĠS ample
ĠT al
ĠExec utive
r p
co eff
S ent
Ġpolar ized
Al ign
al gebras
B ranch
R ank
oun ger
ver batim
} ],
Ġcont ro
ns ylvania
Lo aded
ut s
cept or
Ġhar m
Ġrender ed
qu anti
Ġcompar isons
Pay load
Ġdev oted
h n
Ġrel ating
Ġnucle us
ĠN P
C ertificate
ati ent
over y
Ġdr ink
C ountry
T ables
amilton ian
Ġhon or
Ġrep ly
Ġintegr ate
no align
id ay
mer ce
ĠJava Script
S rc
od ic
T ech
Warning s
ĠGeorg ia
Ġprepar ation
S lot
el ly
P icker
C at
BUIL D
Ġsub scription
comp iled
ĠA wards
Q uestion
Ass ign
th reshold
Ġstructure d
ul f
A K
App endix
Ġsem igroup
Ġo xygen
ĠPl anck
nipp et
Comple tion
] -->
ĠT i
am ar
ref lect
Ġ.. .,
di rec
Ġcom for
Ġspatial ly
pre view
Rece ive
}\ {
ĠWe ek
FR AME
Ġdesign s
Pro blem
Ġdef ect
Ġser vers
multi put
r vert
le af
Ġeduc ational
Ġflex ible
ĠP acific
over ty
rec ur
ĠG ro
I ES
channel s
Ġcre ative
ĠDir ichlet
ro zen
decl are
y o
Ð¸ ÑĤ
FT WARE
G H
oun ced
N OS
Ġper ce
ĠE C
n pm
Ġreg ulations
=" //
Ġd amping
ĠBra zil
Ġfrac tions
|\ ,
Ġcorpor ate
un ks
hl js
C hat
Ġal i
input s
Ġmain tained
// ----------------------------------------------------------------
Ġg ar
vers ed
Ġcommunic ations
Ġmon omial
M IT
Ġag encies
Ġp ot
Ġv o
Ġcontrib uted
od ge
Ġsee king
Ġdistingu ished
Ġb undles
ure au
c ity
am ination
in ated
ell a
, +
AB ILITY
Sc an
ĠCon ference
&& &&
us ual
> ()</
Ġstream s
ĠThe ore
size of
gra v
Ġec centric
19 0
be hav
D et
mu tex
gr pc
20 2
ent a
ĠA ST
//////////////////////////////// ////////////////////////////////
30 4
ĠMich igan
ĠSp ain
Ġsyn thesis
}\ |_{
valid ator
Read y
Ġ- &
Ġcollection s
r ison
Ġarm y
work s
c odes
qu bit
ĠRiemann ian
inv oke
Ġcompan ion
Ġris ks
Ġjoin ing
We ek
S imilar
13 2
ĠM B
onom ous
ir l
Ġco oper
ou red
adel phia
m ount
on i
Ġde eper
triang leq
end ment
Ġvacc ine
O G
L ag
Ġbo y
IP S
Co ins
19 67
Ġfore cast
âĶ Ģ
Ġdwar f
N orm
Are Equal
W ORK
Ġc ash
W ang
ph oto
* >(
Ġpredic ate
Ġsch olar
interpre t
ĠThe ory
Ġt y
ĠBAS IS
ine q
Ġemphas ize
g as
Or iginal
Ġcred entials
Ġhost s
Ġmer ged
Ġoper ational
c py
sub scription
WR ITE
IF AR
ĠT oday
Data Source
LO B
' ):
E sti
Ġsupp ress
C LA
^* $.
Ġconstra in
ĠV ideo
Ġag rees
ĠA V
ĠChrist mas
Ġturbul ent
N ested
ĠCons titution
Ġanisot ropy
Ġsuff ix
ogene ity
****** /
)} ;
ĠChild ren
Ġat tributed
ĠMath ema
In sp
Ġs atur
$\ %
11 11
Ġh aven
ch rome
Ġman us
d ump
ĠL L
ĠE M
end region
Ġmo tions
F B
st mt
Ã ±
Ġm unic
}^ -
Ġf ault
ĠL ittle
co her
Ġprogram me
g overn
Ġpro totype
) }^{
> -
r ides
Ġpl ants
develop er
Ġins ights
ĠH ard
Ac knowled
A ng
s outh
_ [
g ro
Ġclo sing
Ġ' ')
Ġwrit ers
AME TER
ĠG O
Ġend points
ĠJew s
fore mentioned
h es
ad joint
Ġpo les
Ġmotiv ation
Phys Rev
å Ľ
Ġcomp ile
ĠCONDITION S
j j
micro soft
Ġsucc es
ĠM ah
oc ia
ry pto
ĠOh io
Ġent ering
Te X
tab End
LE S
be am
Ġy ellow
work er
Ġatmos pheric
12 9
Ġd ates
Ġc ere
FN GL
ĠT ake
B g
Ġan imal
ĠMed icine
Ġpass phrase
Ġsu ite
Ġsett lement
Ġre gex
lic t
Ġacqu isition
Ġsk in
od a
> )</
n orth
ĠSw ed
ĠS FR
" </
PT ION
Ġal le
G UI
Ġ" [
ĠN C
. \,
l ag
Ġrout ine
Ġ' ../
ĠF O
pgf set
Ġinst anti
For ce
Ġspectro scopic
Block ly
Comp are
Ġsp iral
Sub scription
TO DO
ib er
Ġflo ating
Ġoscill ator
Ġteach ers
E u
row th
ĠApp ro
"/ ></
ĠC ount
ĠG ib
Ġun expected
col ors
Ġprior i
Ġelection s
us p
ĠTransition al
Ġin frared
ke V
im er
ĠB orel
Ġaggreg ation
Ġinser ted
ĠS mall
St d
Ġcor ollary
Ġpar sing
="# ">
ab b
c urrency
e u
16 5
Ġear ned
Ġlo ved
Ġh abit
S in
g able
Ġ& -
vent ory
" }
P TED
Ġput s
Ġatten ded
ri tical
Ġa gric
h ad
nu cle
b id
ma zing
Ġconclu ded
Ġalleg ed
Q t
ĠAd ded
Ġir on
Ġimplement ations
Ġocc urrence
t u
Ġinfinite ly
An gle
ec ycle
for ge
reg istry
ex istence
ys h
Ġvol unte
Ġpredic tive
Ġgain ed
15 2
Ġm k
om m
Ġ$ ^
MA KE
Ġfe at
ev olution
13 7
V V
ĠN ations
Ġsp acing
Ġb is
rep ly
Comple x
Ġex em
H er
Gate way
if rame
ĠSyn tax
mem Item
i king
R IGHT
}} |
AA AA
ĠS ite
Ġphot ometry
F ace
im et
ord on
window s
ĠU SE
mark er
thread s
Ġnon negative
an im
lin ec
Any Ref
Ġint en
)}\ \
Comple ted
Sh adow
Ġemer gency
vi ation
Ġpar abolic
ancell ationToken
Ġpatch es
Ġguid ance
Ġneg lect
LE V
g reek
Ġa u
Sub ject
Ġfavor ite
Cred entials
ĠA B
Ġsole ly
Ġannih ilation
sl f
/ '
Ġdiscrep ancy
() ]
Annot ations
P B
PAR AM
å ¯
Ġa forementioned
Ġcontext s
Ġpredic ts
Ġfl ash
ĠD CHECK
S lice
p riority
Ġtrigger ed
ĠR F
Ġt ensors
Ġreson ances
ĠIn stance
tabular newline
Ġvictim s
ian ts
Ġpr on
Ä ģ
ĠF A
ple te
Ġvol umes
us al
Par ticipant
place holder
By Name
post s
Ġrecur sive
p od
Ġm illions
rack ets
m ixed
MS G
remove Class
ex ist
Ġelse where
å ¼
Ġc umulative
Ġconserv ed
ĠG T
CH AN
ĠA sian
Ġcombin atorial
Ġwould n
Ġrem arks
af ka
sem i
Ġtri angular
c g
Ġto urn
ĠDi ag
Ġm useum
A zure
si zed
Back up
pre ad
Ġupd ating
ĠExample s
ute x
ĠI T
S PE
control s
Ġreg ret
Ġtheore ms
Ġl t
24 5
te es
ĠM achine
ĠHo spital
ĠC li
Ġpropag ator
Ġmagne tization
ter ior
Ġe mitted
di amond
Ġas king
Ġcont ours
Ġexam ined
u ation
ĠE astern
T ARGET
vis ual
Ġv ictory
ĠT itle
Ġgir ls
Oper and
Ġfight ing
Par ts
ĠAl tern
Ġattr active
Ġs ed
est ingly
]{ @{}
Ġv eter
Ġv oting
' ')
scri ber
ĠĠĠĠ ĉ
Ġr c
ĠL ay
Reg istration
Bl ue
PREF IX
Ġdo ctor
Ġho spit
Ġevolution ary
Rem ark
def aults
List eners
Gener ate
Ġstream ing
' }),
G ood
Ġs ought
He ap
ĠN avy
B ot
Pro totype
. ');
Vari ables
hel pers
2 60
Ġes cap
atric k
ĠC luster
ĠF ellow
Ġc le
LE NGTH
(" <
min imal
ĠNe umann
Ġqu ench
Ġest ate
\% .
Ġrob ots
= >
Ġtrunc ated
CL U
ĠPh ot
ĠA sh
ir k
riter ion
ss on
ĠFig ures
ĠS SL
Ġreson ant
er en
Ġk id
yn man
oll ing
Ġin duce
Pa int
0 100
Ġconstit ution
in ations
get Text
Ġre ar
ĠPen nsylvania
ew is
ĠTr ust
M obile
Rece iver
Ġdefinite ly
Ġneighb oring
St mt
Ġweap ons
P ACK
ĠC laim
ĠM aterial
ĠIr ish
Ġul tra
Ã© e
">( </
ĠY et
ĠSe a
Ġstreng then
ĠD ark
ynam ical
Ø§ Ø
ram mar
(" -
ĠW rit
S an
y arn
EN CE
$ _\
si e
job s
approxi mation
13 3
ole t
[ _
Ġplan es
ino is
ĠA WS
uc ky
Par tial
Ġperman ent
* (
ĠForm at
max imum
Sta tistics
ĠS witch
Ġconduc tivity
ÐµÐ½ Ð¸
}=\ {
Ġon click
)^{ -\
y d
ly wood
pro por
ÑĢ Ð°Ð
Ġtw isted
) ]{
{- .
ar ound
Ġstrateg ic
Ġy es
x l
s an
D G
b if
Ġsing er
s il
tem plates
ĠQue en
p ick
ĠS ED
Ġa fford
ĠT our
Ġapp oint
c ourse
pro fit
ĠTr igger
ĠJ ob
Ġimplement ing
ĠAl low
or al
Ind icator
Ġdrug s
ĠT yp
Ġb lo
RE S
Ġvari ed
SU B
or ne
ĠBo x
Ġincorpor ate
og ni
ĠÂ §
re nt
Ġst roke
con struction
P K
A v
act ing
h ill
D u
a tivity
const rained
Ġd uty
Ġ ut
if est
ĠM ike
Ġappro val
Ġa stro
HO ST
ĠK o
sec ts
l Vert
mag n
can onical
im uth
}}( {\
Ġneg lected
g ar
wall paper
Ġhigh lighted
Sample s
{ -\
gr u
pay ment
Inst ances
Ġparticip ate
Ġretri eved
bi as
ĠS ky
ĠH al
SD K
------------ -
ĠP layer
with in
Ġbring ing
INS ERT
ĠPhys ics
)} +
ĠS oviet
F it
ĠK now
Ġepis odes
Ġworld wide
Ġmaxim ize
brid ge
ĠP si
Ġsynchron ized
n it
ind ic
Ġpreced ing
ĠB ul
' _{\
rop ol
ĠD IS
LI B
im eter
}} %
ass et
F ROM
c url
In line
read cr
Ġsuff er
Ġminim ization
v ct
Ġb ott
Ġa f
Ġb eta
2 11
F oundation
ĠP L
Ġf id
]{ $
off s
ĉĉĉĉĉĉ Ċ
ĠA UT
Ġhash Code
mon y
Ġho ok
Ï Ģ
IT H
Th ree
vis or
s By
Ġgraph ene
> ');
Ġl ambda
Ġcon sequently
cl ou
Ġiter ate
Ġh istogram
B as
14 3
Ġlat tices
Back end
id o
Event Args
as ts
Ġbij ection
Ġqual ified
ang el
ĠT urn
Ġpas sion
ĠC atalog
dest ination
all enge
uff le
MA SK
ag ues
MS earch
=" <?
Ġinstr uments
o ft
Ġ(! (
g auge
Ġcomputational ly
Ġtr ig
ti ble
B LOCK
Ġor ient
B ag
Ġro c
Ġmolec ule
Ġback end
H a
re ports
Ġun changed
ĠMem ory
En ergy
Rel ation
ph e
: -
I o
Ġbin aries
ĠModel s
Ġexclu sive
amp ed
art ing
pre vent
âĢ¦ âĢ¦
19 64
}}{ {\
æ ī
Ġcapt ures
Allow ed
| <
umin ate
DO CK
neutr al
ro tation
ĠD raw
Ġdis ag
Ġin er
ĠIn tegr
Ġinter net
tz mann
ĠK ong
. }.
class v
, [
Des pite
Ġsp ons
Ġdiffic ulties
Ġmin ing
Ġp index
Ġanaly tically
o i
Ġdist inction
ĠSym fony
Ġcardinal ity
bad ge
F W
P rom
ĠI o
ĠVer ify
Ġround s
M ich
:: $
k r
pro jection
Ġcomplement ary
Ġexceed s
or acle
ĠB esides
STR UCT
style sheets
TH ER
tempor al
ĠCon serv
ACCE PTED
in sp
car bon
observ ed
nos is
Ġcamp us
Ġion ization
o pher
y ellow
fail ure
ĠEcon om
ning s
Ġemer ging
Ġsh rink
Ġalong side
F ire
const raints
Ġab strac
ĉĉĉĉĉ Ċ
ĠM obile
ĠD ou
=\ ,
d B
U int
Ġexception al
Ġutili zed
Ġg aps
Ġre po
Res pon
Ġgra in
Ġtransl ated
ĠDig ital
Ġre written
Ġsign atures
ĠIm Gui
sq cup
Ġfor cing
ĠMan ager
EN C
I FI
s leep
ĠOff icial
New s
Ġc ss
Ġincre di
ĠT a
Ġy ounger
Ġapp s
Ġcounter part
ĠC HE
H A
NE W
Ġg host
to kens
S ources
ĠS eg
Ġpro sec
Ġinj ury
Ġb lob
Ġbary on
si zing
Ġsh allow
Ġcomp iled
ul um
erg i
Ġmod ulus
Ġinstall ation
P b
Ġf ell
Ġbg color
Ġfl ush
dete ct
( []
Ġwavelength s
play back
pp ers
aw ay
ĠTo ol
Ġde bt
Ġj unction
pre tty
ĠY ang
Ġsum mation
Un able
Ġatt ach
necess ary
ĠInst all
A ug
Ġti p
var sigma
ĠS pring
ric tion
ti ties
3 75
ĠH u
Equal To
struct ures
^* $,
Ġkine matic
Ġint ui
F ake
F oo
l antic
Ġre try
n or
13 8
C MD
2 80
G al
si ded
æĺ ¯
Ġconsider ably
Ġcarry ing
] ,\
Te am
exp lo
Ġre tail
Ġf ir
Ġw a
im ited
Ġs ensing
ĠCh apter
bur st
Å Ĥ
Ġre vision
ĠFore ign
r Vert
Ġsearch ing
Ġn arra
il a
iz ard
arc sec
n k
Ġt aught
le ave
Ġp t
Ġparamet ric
H ol
no thing
Ġ& =\
ĠV iet
h ou
}} }(
Ġsp ont
Ġgovern ed
integr al
G W
Ġquan tify
ĠG ET
Ġinte l
ĠC red
Ġde code
Ġ// !
User name
Browser Detector
k ar
Ġmag azine
ĠRequ ired
Ġb anks
ĠSO FTWARE
ĠQ String
b ury
e ah
NotFound Exception
Ġke eps
r ations
, ...
Ġindex ed
Ġaccept ance
clo sure
e ast
Dis abled
DE LETE
ĠF low
de li
add EventListener
00 7
ch an
ll ll
rob ust
Ġt argeted
() `
ĠB ud
. -
14 6
uber ne
ag a
Ġadj usted
ĠAg ency
er ry
ĠB attle
ta kes
An im
Ġbl ank
Ġconclu des
---- -
}^{ -\
Ġtimes cale
v ard
Ġcompute s
Ġcancell ation
uberne tes
ĠE P
ĠT y
M ass
Ġen rich
Ġte x
Ġc ube
un its
ĠC ast
Ġmarket ing
K P
Key word
FUN CTION
× ª
ĠĠĠĠĠĠĠĠĠĠĠĠĠĠ Ċ
roll ers
ps frag
ĠC M
Imple mentation
Ġinnov ation
ĠM ET
F ast
Ġc aught
im od
par sed
=" ./
Ġp s
>: ]<
ç ½
Al tern
Ġsepar able
Ġd jango
re duce
ther mal
Ġti dal
ĠRou te
D U
s ight
ĠE W
---- --
Ġdifferent ly
K EN
ĠTE ST
mod es
)\, ,
ä¸ Ģ
bur gh
K M
lim sup
Ġgain s
}} [
he alth
"> Â
ur c
ĠK im
Ġref uge
2 64
t cp
writ ing
version s
Ġ$ ("#
es sibility
For ward
Ñ İ
_+ $
al most
ĠFe ature
ow ed
rec ision
Un til
enn is
Ġcry pto
V A
Ġsat uration
l abeled
Ġfix ing
M or
Ġen forcement
ĠRes Net
ĠSystem s
Ġv otes
RO W
Ġb racket
Ġh ers
Ġth orough
ac cor
Ġobj ectives
Ġelimin ate
et ti
In ject
th ew
) ?
Ġstrength s
Ġb u
q w
Ġtri es
o S
Ġso ph
ul atory
Perm issions
Ġnorm s
app s
Ġle ct
graph s
File System
text greek
ĠAnd rew
="../../../../ ../../../../
al ink
ĠCh rome
Author ization
Ġrele v
Ġdanger ous
CL I
ĠPh oto
ĠAlex ander
ĠConst ant
tis tical
y aml
ĠT raining
ĠPhil adelphia
)) }
ta ken
ĠM ust
Su ite
ĠEli zabeth
} ')
Ġf ant
ĠL ive
Ġen for
cou pling
Ġsh ut
ffff ff
ĠCom bin
<? >
ĠF inal
Combin ing
Ġfluctu ation
)} +\
Ġpack ets
ĠS A
ĠComp ute
ĠColumb ia
lay ers
Ġgre y
f und
Ġdist urb
ĠSet tings
Filter s
Ġbas elines
Ġtrans mitted
x f
Ġw rapped
Sh ift
19 65
R G
yc lic
Ġ( );
tiv ariate
St udent
ĠIslam ic
Ġbi ological
Ġcontr action
eto oth
ĠG Hz
K w
Ġmoder ate
Ġrec ru
lu etooth
Ġ( <
ok er
Ġw inner
av i
b w
ag on
erv ing
Ġgovern ments
Ġparticip ation
00 6
Ġs oc
wp engine
v able
Ġcar rier
Ġac oustic
Ð¾Ð ´
row se
P ages
St at
Ġa str
ĠM ari
Ġfore ground
Meta Data
mak ers
in ian
ex ceptions
Ġfacilit ate
tex tarea
nav Bar
Ġc fg
Ġco operation
Ġbas ically
Rev ision
re ll
Ġf inger
car ballo
pl aced
Ġneighbour hood
TE S
ĠW H
Ġf illing
ĠSch r
ĠF air
ĠS at
Ġb on
s lot
Ġcon temporary
th ur
er ty
Ġjoint ly
ĠH or
: /
Ġra ys
13 1
Acknowledge ments
U Int
W al
Ġhand les
depend s
Ġpay ments
Ġas ymmetric
Pub lish
ĠPro tocol
Ag ain
Ġattem pted
Ġaff ili
R outing
te le
ĠS ports
ao tic
amb igu
ad just
Ã ¥
Ġmaintain ing
ud ents
T ube
Over lay
on ically
Ġor ange
F oot
M iddle
S n
L ONG
Ġas c
Ġext ensively
Get String
Ass ignment
ĠSD SS
Ġcol ored
ĠB rowser
D im
ĠUn fortunately
Be havior
Ġdevelop ments
}) \\
Ġstr ange
Ġbi partite
Con tract
Ġincorpor ated
4 80
x e
fer m
ĠEmp ire
Dis tribution
Pr imitive
Ġpropos als
ĠW in
Write Line
ĠC ulture
P in
Ġg a
In clude
p ure
ĠH ong
ĠTran sport
* .
} ',
Th reshold
Ġoccur ring
ĠLapl acian
PA SS
fol ding
NN s
ĠN ight
A verage
con e
Ġnot able
V ote
ĠB ang
ack s
Ġdescri ptions
Ġenc lo
Ġretr ieval
E r
De fined
ĠVal ues
az el
p ip
Ġp our
se man
back s
TEXT URE
He ading
z c
ĠCon dition
Ġco in
Sp in
s napshot
Tag Name
ĠDe velop
20 3
Ġor thon
Ġint ention
Ġaccount ing
Ġpartners hip
, </
date picker
Ġw inter
ĠR V
TR A
Ġmonot onic
Ġestim ators
ac o
el a
the ir
T s
h c
h m
NOS CRIPT
> /
In cre
ING S
w ick
B lob
Ret ry
P riv
S ys
Ġutil s
Ġaccept able
std lib
Ġachi eving
n x
v ary
big cap
rop ical
Ġthrough put
serial ize
Cal led
Ġsure ly
ogni tive
ĠR og
LIN K
u da
ĠB R
equival ent
V IEW
in finite
re pre
Ġowners hip
un a
sub str
Ġhous es
ĠIP v
ran ged
Ġinflu enced
it arian
TH E
Ġsym pt
ĠN ormal
ob tained
' |
I J
aut y
small matrix
Ġspe aker
æĸ ĩ
Ġconsum ers
g lu
has OwnProperty
Ġar ts
pon ential
Ġpass age
MA IN
C ss
op ing
ph on
ĠCon structor
Ġto m
ma ml
Ġjud gment
Ġsupp ression
^* )
integr ation
rela tivistic
g m
22 4
Ġw estern
per ture
rint f
V P
sh own
ĠBit coin
T oggle
Ġcontinu ation
She et
ĠS ave
ĠPro duct
te or
li u
Ġf estival
screens aver
Ġcom plain
ĠH ubble
res ted
L and
ĠĠĠĠĠĠĠĠĠĠĠĠĠĠĠĠĠĠĠĠĠĠĠĠĠĠĠĠĠĠĠĠ ĠĠĠĠĠĠĠĠĠĠ
Rec ords
ĠScot land
b idden
}^{ [
us et
Ġacc ident
Ġmob ility
ĠL ater
r ating
Ġev olve
Ġtra ding
â Ĩ
Ġpe ers
Ġoppo sition
19 66
Ġsur jective
Ġfac ing
Ġpriv ile
es tim
n f
Ġc ro
)$ :
^ -\
ĠS elf
[] {\
al one
Ġab and
vers ary
Mod ules
Ġtrans it
en ius
ĠE th
ĠW is
ro g
), $
ĠP ur
Ġ' $
Ġqu ote
Link ed
Ġen titled
Ġsuperconduct ing
Ġlo sing
ann a
Key board
Ġcap tion
Intern ational
ĠB iden
g res
lic ial
F un
command s
ah ler
un ov
Experim ental
ĠB ush
ĠThe atre
ynchron ous
Ġapparent ly
b ow
Ġsyn thes
Ġtw enty
Ġdesc end
Man aged
Ġcyl ind
ĠB and
Ġup grade
eter min
navBar Cell
tr uth
15 1
ĠTh ird
ĠP anel
ac les
Ġs addle
Ġn ations
Q R
Ġcyl inder
ĠM I
Ġkey word
Ġgradu ate
ple t
: $
} `
Ġtra p
Ġref inement
ĠS S
oh en
nt ario
Ġgradu ally
M LE
ĠO K
( @"
log ic
get Property
Ġmon o
normal ized
ast ore
H orizontal
Ġout lined
W ell
v k
re le
ĠE N
ev in
si o
D s
Ġ ../
ĠF ood
m ne
Q CD
ĠTh om
Cho ice
ĠGener ate
Ġprov isions
Ġtro ops
ĠK ent
Ġsurv ival
ĠB uilding
pe er
Ġcomplex es
ĠL inear
Ġs oci
il de
Red uce
om p
ad ditional
ĠU TC
at tention
ext ended
Ġanaly zing
Ġcontribute s
} ''
Ġr ural
ble ms
Ġhon est
Ġre start
ĠC os
Ġdis continu
ĠL ocation
Ġf abric
PAR AMETER
Ġdiscr imination
match ing
im i
oc key
get Key
}_{ +
ĠDeta ils
Emit ter
B in
ĠF loat
Ġcour ses
Ġsoldi ers
âĢ ¢
ERT Y
sign ific
ĠD ATA
Des ign
ĠA v
20 8
ĠSt udy
ĠExt ension
Dispatch er
elf are
($ _
First Name
M AC
Ġp ray
)\ |
ĠIll inois
Ġrecon struct
con clusion
In her
sw er
ĠSet ting
Thread ing
forma tive
Ġhad ronic
4 000
: **
ĠU l
S ound
ĠH om
Ġop am
ĠSa int
Ġhealth y
R ich
car ousel
Ġillustr ation
F ee
C U
custom er
Ġwas te
Ġfun ded
] =\
scri ptions
ĠD I
pos er
Ġrelev ance
T aking
ĠOp tim
ĠDev ice
ĠSt orage
Ġaccess ed
Î ·
M argin
g al
ĠÂ »
ong s
Rep resentation
Ġel ig
' }}
exp licit
Ġtele scope
Ġharmon y
CC CC
Ġhistor ic
gu ard
Ġdoll ars
H u
Ġ titles
Rad io
CD M
20 4
co hol
ĠCo ast
Requ ests
// !
ĠD ocker
local s
L ive
Ġshor test
App earance
syn tax
Sign al
Sty les
tr al
Ġwatch ing
L ife
Ġ" ")
}{ (\
Ġscr atch
W ARNING
^^ ^^
) }}{
Ġdisci pl
ans wer
bit coin
à ¥
Ġqu iet
}$. }
Ġbur st
ĠNAS A
ct l
ĠSet up
14 8
repre ne
ex tract
ĠR h
Ġregular ly
Com posite
Ġsmo othing
Ġter ritory
ĠDocument ation
Ġd rivers
char ts
Ġ(! $
app y
Ġrad ical
cm id
)} -
Ġil legal
C atalog
Ġ\ '
Ġaccomp an
Ġm ount
dis tributed
B tn
> ("
limin aries
Ġ} _{
ion e
ĠSt ock
Ġmetal lic
ĠâĢ ¢
Ġscreen ing
M id
Ã§ Ã£o
ti se
Ġun e
Ġhead s
nov a
Ġalbum s
W M
å º
Ġst orm
Pro c
)\, .
ac er
ĠN atural
Ġbe at
Ġanisot ropic
Ġboot strap
Ġs cripts
Ġanalog y
( |\
ocom plete
Ġgrate ful
Ġlist eners
f air
struc tive
mk ern
Ġinter ven
col sep
Ġ# #
G uid
R P
= </
ul ary
k ra
Ġvari eties
ĠP oin
Event Handler
Ġens uring
ĠDen ote
H ard
ĠI M
\ `
T ake
Sch eduler
Ġanalog ue
ĠTem plate
Ġ' </
Note s
sp arse
o tic
Ġuni vers
pm od
cmid rule
Ġf asc
=\ !
Ġgrow n
ĠIN TO
aren cy
stro ke
har monic
Ġenc rypted
ĠO THER
Ð¾Ð ¼
c amel
String s
MA G
ĠPub lish
pro ducts
LO AT
Ex cel
met al
ID ENT
M al
Im g
Dec ode
Ġfermion ic
ic ide
ĠInter face
ay a
Ġhe uristic
dis cussion
OD Y
Ġcrow d
Ġvot ers
i u
Ġle ver
Ġhad ron
L u
Ġsol ves
xim ity
Ġan satz
Ġcomp ilation
ï¿½ï¿½ ï¿½ï¿½
Ġgu y
Ġsw ap
ro tt
Ð¾ ÑĤ
is Array
Ġdist ortion
Ġequ iv
Ġd ash
au er
Ġsub spaces
bi ased
ĠS on
ĠB at
ILE D
12 34
lock ed
Ġpro ud
ĠL ang
ĠD ub
Int ro
Is Null
TO P
Ġpro mo
Ġbackground s
Ġcontinu ing
Ġdynam ically
ĠTrans action
ĠH MS
ff ee
cur r
Ġsub sequence
Ġ} ));
Ġse at
Ġdec line
Ġs lide
20 5
Sub mit
Ġpul ses
TE X
determin ed
Ġcon ce
Ġdec lar
D up
Ġspl its
ĠB la
mate s
Ġreg istry
ass ociated
Ġgra ins
H idden
h ub
as ympto
ĠD onald
Ġmed i
Initial ize
Ġwire less
ch ant
Ġdis tribute
Ġad vent
ĉĉĉĉĉĉĉĉ ĉĉĉĉ
Ġdro ps
i ents
) <\
Ġf ired
Ar row
Ġpermut ations
ĠD a
Ġro uting
Ġ lying
vanish ing
R ay
re ment
Ġnormal ize
linec ite
Ġsp anning
Ġo prot
Ġimp acts
Conn ector
\ (
ss ec
ĠSte ve
F G
ĠH ost
s at
ĠLo ok
Ġc ul
UM ENT
H is
Ġp tr
2 32
an te
ĠOx ford
Ġmin us
Ġ= ================================================================
lo be
ev able
> ';
dif ference
uk awa
prov ided
Ġencounter ed
Ġoccup ation
| +
phab et
il st
Ġimag ine
}} ]
Ġdisc lo
ĠA ge
Fil ename
Ġorthon ormal
ph inx
Ġop ens
Ġspecify ing
ĠN az
ĠĠĠĠĠĠĠĠĠĠĠĠĠĠĠĠĠĠĠĠĠĠĠĠĠĠĠĠĠĠĠĠ ĠĠĠĠĠĠĠĠĠĠĠĠ
ĠI gn
olog ist
Ġl icensed
ĠCon tainer
Ġwidth s
spec ified
road cast
Ġsub stitution
16 6
Byte Array
Ġinsp ection
Ġdiff use
load s
Ġmultiplic ative
Ú ©
pers istence
Ġimplicit ly
Ġacknowled ges
n at
New ton
Ġhers elf
DE s
Ext ended
Ġgene tic
ni o
main ing
13 9
Ġb if
ly n
Ġs eq
is enberg
ĠS cript
Check er
14 9
Ġcal endar
M ul
Ġdes ire
M AR
{ +
sec ure
)+ (
)}{ (
LEV EL
15 7
k u
Transform er
C XX
ĠW ales
ik i
s ap
ile y
Ã© s
con ver
O h
Un mar
ĠPl ace
Ġcall er
Ġemploy ee
C odes
Ġdeploy ed
re ng
}: =
Ġbos onic
Ġcent r
S ender
Ġno tions
ĠB ridge
ĠAff airs
ĠH art
k j
La unch
ĠRep resent
Ġad ults
Last Name
Ġn ur
Ġa mazing
Ġpro test
M g
Icon Success
tif ier
exp ansion
Ġsession s
em ed
Ġg enu
Ġsta ke
ĠT ests
Ġcontr acts
Ġhypo theses
æ İ
ĠQ t
Ġdiag nostic
)= -
40 1
ĠW atch
Ġma intenance
ĠAn aly
Ġdiscre tization
Ġpol l
ĠBe ach
sp atial
Ġrepresent atives
ĠD NA
N F
document ation
Ġ um
| ^{\
is ol
la unch
En code
22 2
T ITLE
Ch en
Ġa wards
ĠR od
19 20
fil ld
ĠW ild
Ġan onymous
ĠTh row
k pc
Bo ot
rm k
å Į
/ ******/
b uilding
âĢĻ ,
ext ends
Def aults
p v
' /
Ġa thle
ĠDis play
sub title
No tify
ti tem
lect ual
Input s
UP DATE
Co ord
Ġass ist
Ð¾Ð ±
Draw able
mys ql
ĠTh ough
Con figure
Clear ly
Ġlabel led
b urn
] *
cas ts
Ġsched uling
( <
p w
× Ķ
Ġc ult
Ġno ticed
Ġper mitted
Ġcomp ressed
oci ate
op enc
Ġinclu sive
w alk
h uman
Ġr ising
Y S
Ġrecommend ation
R D
30 1
av atar
graph ic
ĠP erm
Ġp lug
z illa
Ġimp l
Ġaccording ly
ĠMod ern
Ġtransport ation
,\ ;
filld raw
ĠSt ation
x r
Ġr s
Ġemo tional
Ã º
res on
n ice
Ġitem Members
Ġb onds
s al
K B
Col lector
Ġnucle on
Ġcoun cil
ĠO UT
ĠLin ux
r ont
Ġg alactic
ĠK ansas
æ ł
Ġto ggle
Numer ical
bul k
og nition
Ġsp oke
oc c
Ġste ep
im ir
15 4
Ġcar ries
d ens
Ġpers istent
COMM AND
B ur
Ġfall ing
A CTION
C lip
ti ous
R pc
Ġcompens ation
ID s
Ġdes irable
Block Index
eff ects
(" ")]
PO INT
an es
19 63
_* $
er ts
Ġy ielding
Ġdegener acy
o tion
val s
raph ic
Ġwork flow
(" ,
Ġdown stream
ĠIN T
Ġde als
hib ernate
ĠCHE CK
o pp
GEN ER
F use
Ġin complete
We ak
. ";
S IGN
tr ay
ĠL STM
Ġs ou
V S
ĠT ok
Ġknow ing
bas eline
FO RE
-\ !
Ġco okie
R oom
N i
Py thon
Ġgener ations
ĠDav is
IconSuccess Encoded
eck er
ĠCh ern
ool s
DO WN
enti ment
ĠDo es
19 5
ne ed
amer as
ĠF ox
ĠK al
f ee
ĠV ice
mon itor
Ġpro c
ĠE ns
Ġconf usion
Ġclass ify
C laim
ĠR ome
Ġsub tle
ĠS everal
Ġtra dition
Prov ince
sub script
E lem
ĠRes ources
ENT ER
Te V
I BU
Ġpoly top
ch apter
ĠH H
i vers
ic ing
ĠS ir
button s
IF Y
ĠGovern or
el li
Ġt iny
Ġin form
="../ ..
Ġsuff ered
ĠCOL SPAN
inter faces
Ġarch ive
ri ends
ag an
Or ganization
mid t
analy tics
Ñ Ī
Ġ$( {\
Ġbro ader
Ġspars ity
\ ;\
NU MBER
Ġex ponents
int roduction
Ad ditional
Ġhapp ening
Ġ\ ,\,
ĠĠĠĠĠĠĠĠĠĠĠĠĠĠĠĠĠĠĠĠĠĠĠĠĠĠĠĠĠĠĠĠ ĠĠĠĠĠĠĠĠĠĠĠĠĠĠĠĠĠĠĠĠĠĠĠ
ann on
Ġcor ners
Perm alink
Ġplace ment
Ġhealth care
gener ation
Ġf old
ĠSt ory
o z
c D
Serial izable
ĠRe lease
Ġcounter parts
on linecite
Un its
Ġmanus cript
UN K
ĠOr ganization
ab ases
ĠB ound
Ġcosm ology
tr uct
User Agent
Ġentang led
} <\
ĠE ric
15 6
Ġstr ike
DI RECT
Ġimm ig
Ġaug mentation
ĠT aking
Ġfac ulty
h ence
Al g
pol ynomial
00 8
15 8
O s
ĠE E
Ġstrug gle
defin ite
M W
Ġz ip
Custom er
Ġt um
Ġ< ![
Linear Layout
Ġran ked
ç ±
numer ic
RET URN
Ġf la
){ $\
Ä ĥ
min im
Max imum
s ock
du tils
a que
Ġdomin ates
Ġb ot
ä¸ ª
ä» ¶
DOCK ED
ver tices
19 30
Ġsem ic
as ide
S ci
conf irmed
Ġd f
ĠH un
Ġprefer ences
p ow
am ents
Ġfrag ments
Ġn ega
s phere
Fore ign
ĠT otal
Pro jection
be havior
Ġmonot one
T W
ĠH ub
ev t
Ġcontrib uting
Dav id
Ġadi abatic
st udy
Cl ause
copy right
Ad S
ĠT rac
ĠE r
ow a
ĠEn able
e h
ro d
E valu
Ġle verage
ĠC ost
Ġnom inal
ar on
Ġsc ored
Ġmag ic
Ġbeh alf
ĠPh ilipp
str ategy
ĠG l
Ge o
li est
14 1
Ġquad r
Ġmu on
ĠF P
Ð ¹
Ġelectric ity
in tern
Ch apter
x c
ac ies
Ġgra de
Ġp overty
j us
Ġgu ard
Ġnull able
Ġbeli eves
Ġmicro scopic
Th an
St ates
Ġdemand s
sim al
Ġfac ed
(\ {
Ġ ÑĤ
ĠF ast
Ġfil tration
Ġany where
g mail
) &=
Ġd ump
oun ters
Ġmis sed
ac cel
por ted
st ability
ĠAn th
Ġelectr ical
Ġeigen vectors
we ights
q r
Inv oke
æ į
eder ation
Ġf lip
ĠUn like
ĠR ange
df s
Ġquad rup
Ġ& $\
] ];
bar s
ĠA zure
Ġide als
Ġweek end
c ub
n od
ĠAnd erson
l ists
Ġch rom
Ġj e
}) +\
break ing
ach uset
put y
w ire
Ġanten na
pos sible
Ġm ild
Ġarg v
=" {
neighb or
ah n
Ġob lig
ni k
achuset ts
é ĩ
Cap acity
ĠBrown ian
in tr
V i
Ġmanufact uring
b usiness
bo lev
ĠV M
jb oss
Ġhar der
Ã ł
Ġp ad
Error Code
Ġf idelity
Suppress Warnings
Ġwith draw
Ġev olved
Ġparameter ized
qu o
Res olution
LE D
supp orts
}) ]
Ġstatis tic
38 4
Ġestablish ing
×Ļ ×
Ġeigen states
con ditional
15 9
u is
En tities
A ir
Ġcirc uits
| $,
Ġinv ent
d dots
pe ated
Ġs now
Ġ$ %
Ver tical
Ġcor pus
ash i
E valuation
Ġle pt
14 2
Ġlo ader
, -\
ĠNo thing
ĠR os
19 40
Ġhal os
Ġin formed
port folio
Ġâ Ĩ
N s
ĠMark et
CP U
wik ipedia
N EL
Ġ rom
Ġid s
dep loy
ĠL em
AC HE
um bs
ĠOn line
Q T
er ation
ex tr
Ġfrequ ent
ĠMem bers
S al
Ġo d
19 45
Ġform ulate
class ification
Ġconcentr ated
h op
Ġr am
Ġcons ent
ç± »
string ify
st ars
k le
put ational
min or
Con struct
Ġel lips
cover age
he at
Ġval ued
rob enius
c ence
18 5
Ġse asons
Ġsub div
Ob serve
fl ash
Ġs quee
ĠQu antum
ĠCamb ridge
âĢĻ .
ĠAr gs
ds on
tr um
Ġax ial
we ets
Cre ation
Ġsound s
F IN
Ġd z
ocab ulary
Ar ticle
Ġinvestig ations
@ \
n P
7 68
L G
7 50
out ube
Ġinvest ors
out line
Rel ations
combin ation
L ef
auth ors
Ġexc iting
P F
u ing
SD L
Ġ ì
Ġslow er
cry pto
lik elihood
bal anced
tikz cd
ĠS us
rest ore
b ay
j q
Ġto wer
LE FT
Ġbil inear
< >(
Ġj uris
activ ate
Ġrule d
cat alog
er ver
Ġ$ +
Ġwal ks
Ġb la
ĠTra de
ĠNO TE
Ġ ~~
AP PL
math comp
ĠP H
ĠEd ward
. ''
ĠValue Error
Ġcap ac
ĠN ash
ĠSD K
ĠA pi
Âł Âł
Ġmask s
Ġeng aged
Ġphilosoph y
Ġ ĉĉ
ĠB utton
ĠH AL
Ġscatter ed
Ġcre w
Ġcour ts
Ġaz imuth
Ġm ismatch
ĠH ad
Ġor acle
on line
}^* $
Ġt ar
MP TY
Y M
Pers istent
comp ress
Sh ell
0 25
Ġsub sid
Id entif
SU PP
Ar n
ĠF un
ĠB BC
Ġrepeated ly
j sp
Ġtext s
Ġout going
m or
Ġwal king
getElement sBy
s and
ic tions
ps on
-> {
Ġdeep ly
l on
ĠL ock
Ori entation
Q C
Ġpick ed
ĠChampion ship
)}\ ,
ĠDe fin
f lo
N ational
sch ild
Ġar rested
Ġreason ably
get Current
Ġstatis tically
Ġaddition ally
> ";
P reference
a os
ĠEcon omic
\ &
ĠS ql
igh test
23 5
^{- (
oper ating
contrib s
ĠClo se
Ġaim ed
Ġre min
ĠM enu
iv ot
Eng lish
Ġshoot ing
j an
id ity
ib ling
Ġreli ability
eloc ity
Ġtriple t
3 30
stit u
Ġc urrency
L ER
f ine
qu asi
Ġinter vention
ĠBo oks
i math
}} },
ĠGener ic
P en
ĠOff icer
ĠPer formance
T ON
Ġp assive
Clo sed
}{* }{\
ĠI mages
Rec ently
) ";
ĠC ub
Ġ$( -
c rit
O ps
r ated
ĠU P
re ts
ĠB ru
Ġgu est
rec v
ant ine
ed i
consist ency
ani mate
Ġel abor
Ġd ance
Ġmove ments
h ist
Type Name
+ -
Ġh air
ĠS tyle
Ġout standing
Q UE
Ġpil ot
st ock
Ġshe af
Ġb ag
16 7
Ġm il
LE N
. ).
b ian
Ad ded
f li
ä ¿
eng ers
Ġb rane
Ġ+ (
Ġmor al
Rec ent
v ariant
ĠCoun try
le ad
Ġex tern
Ġabs ent
Ġf ly
\ :
ac ces
Ġclass ifiers
Ġad apter
Ġamb ient
Ġw ins
19 3
Ġrefer enced
Ab solute
inner HTML
I ssue
ap ore
ti ans
Ġbirth s
dor ff
G ed
Ġmis s
Ġad ult
cell s
V R
ĠPr ince
P an
x z
}) -\
Ġidentif ies
Ġmed icine
sp ark
S ink
ĠH ou
17 6
Ġmore over
ur ious
Ġport folio
Ġcor onavirus
Ġdialog ue
am an
b ranes
Ġen force
class path
s lo
Ġma ppings
ĠC e
Ġfre ely
| (
Pre view
ĠW i
tr unc
Ġb asketball
pre ceq
la tive
ĠPa per
ĠD L
Ġch aotic
15 3
Att achment
mcite default
ĠFoot ball
Ġphon on
re vision
s ell
{( -
Ġb ol
)= -\
Ġreserv oir
Ġll vm
0 11
ver bose
Par cel
Ġ' {
Ġqualit atively
y u
Ġv ent
ĠTor onto
> #
ĠAir port
ĠH ermitian
lo ose
acknow led
I mmutable
23 4
al ways
Ġre dis
Ġen abling
ĠLeg end
st al
get C
XML Schema
Ġbuil ds
Ġflex ibility
def i
prevent Default
est ab
Ġpredic ting
F ar
Ar tifact
P ic
Ġdec imal
H int
Ġtoler ance
50 1
Ġvisual ization
ĠM iller
}^{ {\
enn es
}} ^{-
ĠChar acter
~ &
star ted
char set
Ġk il
[ ],
ĠR N
Ġfin ance
_+ (
Ġacqu ire
d am
experim ents
ĠAfghan istan
cccc cccc
B ODY
Ġlet ting
ĠN i
Ġen emy
Ä ĩ
Ġcom pl
Ġl ag
ĠIn tel
2 12
Ġback up
Ġtal ks
print StackTrace
ĠS K
OP EN
unic ations
ink owski
Ġsympt oms
Ġconstit ute
Ã ª
perturb ative
ĠS till
y si
Ñ Ħ
Ġdise ases
int ent
pot ent
b io
Ġsp anned
ul sion
Ġvic inity
ĠI MP
od ers
Ġob ey
tan h
D ash
P ad
}= {\
x b
Ġhouse hold
oc or
h yp
Ġaware ness
V IS
Ġarrange ment
Ġlear ns
Ġeven ing
Ġd Ã©
Log ging
j ournals
commut ative
ĠM eta
zon a
b ank
Ġlabor atory
ĠD NS
Ġw elcome
ric ket
experim ental
ol as
\ }^
Fr ont
M ount
erv ation
[ ];
w c
Ġgener ative
Ma jor
amp aign
ĠPa uli
v ac
Ġdra ma
Ġk illing
âĶĢ âĶĢ
Ġp ictures
Fl at
Ġsoph istic
s aved
ĠColor ado
ĠHol lywood
me ans
Ġcar ds
Ġeng age
Ġl in
tra its
Ġnewspa per
Ġun bounded
Ġun usual
st ory
Ġ" ");
ĠCO M
con verted
Qu ad
Ġre semble
ĠIsra eli
Em bed
ĠM N
Ġlog s
Ġguide lines
equiv ariant
n ested
ĠF a
Ġne uro
q t
et ype
Ġgran ts
s lug
ĠF L
() "
Ġoper ates
AT T
get Time
ĠVis ual
Ġass istant
Ġde ferred
man aged
Ġpush ed
X iv
ĠL ewis
Ġtrunc ation
Ġthresh olds
Ġpublic ations
cor ner
min i
\ },\
O ct
Ġ( -\
B usiness
E nt
ĠDemocr ats
Ġc ensus
Ġ utter
Ġm ent
ĠF ILE
ĠTh anks
Ġbe ams
ĠPl atform
M X
ou pling
ser if
Ġhand lers
Operation Exception
(" [
Tok ens
L ab
add plot
NO WN
Command s
Ġh un
Ġh otel
~~~~~~~~ ~~~~~~~~
ĠBer lin
Ġs ig
}) _
ro gate
Link s
Con sequently
$\ {
ĠValid ate
Ġsk ill
Ġsc oring
Ġm ile
Ġon set
Tool bar
Ġunder go
Ġ ))
feed back
ow ards
hic le
ĠCom ment
" ][
ph ony
SS M
re duction
Ġs elling
j l
Ġcomp ound
Ġp lugins
ĠWith in
Ġlong est
ge ometric
ent ang
th al
um ino
Ġsimultane ous
ĠMay be
Ġtell ing
sp ons
ĠF IX
Ġmon op
ĠC I
ĠW ait
CON F
H K
Ġsign ing
Ġlock ed
ĠVAL UES
18 4
igen ous
ĠFe b
pan ic
Cont inu
bre ve
Ġbre ath
Ġ\ ;\;
Ġto ugh
Ġrecommend ations
ot ent
lu a
ĠH ung
Read Only
r ational
Ġch at
Ġindex es
El se
ĠAt omic
pair s
A IN
en sitive
sh ire
Ġjus tify
incre ment
ĠLink ed
ĠC u
ĠCh em
}}$ -
At trib
Ġrac ial
ĠP T
ĠL ICENSE
Ġdef ects
function al
Ġparad igm
uck ets
Z hang
or b
ĠD ES
tain ment
19 61
Ar r
ĠM arg
Ġsustain able
new page
iz z
Ġ! (
par ity
/ %
âĢ ĭ
Json Property
"> #
r ise
high er
el ve
Ġ" :
Ġmer ging
CON NECT
Ġhead ing
Ġd yn
19 62
fin ish
Ġcon fined
c am
Ġf ixture
Ġde leg
ĠL arge
ĠAg reement
N il
Ġ[ #
cor related
comp atible
d V
ĠCon v
Ġloc us
Ġspectro scopy
Ġtourn ament
ri p
Ð°Ð »
ĠRic ci
View ById
ĠC IFAR
Ġrel ates
Red irect
Ġform ats
æ ³
[ $\
Ġinc en
Conf irm
Rot ation
å į
ĠF ound
Ġbe ar
$ ^{+
N egative
m atter
oun tains
ma de
op ens
Ġpart ly
Ged mo
Predic ate
Ġfeat uring
Ġdelay ed
d ummy
Ġthous and
} &=&
Ġme ets
19 4
Ġper turbed
sim ulation
ĠPh ase
Supp lier
Ġ($ (
b h
Ġball s
el led
S un
ĠIn it
o a
æľ ī
Ġemploy ing
NO TE
Ġcomb at
' ><
ĠSt op
Ġrecip ient
Ġre ver
Ġintegr ity
)\ ;
ul s
Ġfaith ful
Ġrel ay
ĠF isher
ĠR T
ĠDis ney
ĠMass achusetts
ĠEgy pt
ĠN A
n om
Loc ator
ĠF C
su it
ou ri
Ġis set
lear n
ym ore
key words
R V
h anded
B ri
Ġl ensing
Con version
}| $
unt u
or o
ĠRev olution
ĠS ER
ĠR om
Ġfar m
Ġr u
Ġexplo sion
B ay
Ġtriv ially
he ap
ĠA F
Ġreview ed
get Data
sm ash
}= (\
ĠG i
Ġproceed s
å °
Ġm im
ver si
ĠPl ant
WH M
Ġmeet ings
math ring
Acknowled gments
{ })
con sum
Ġph rase
Ġaug mented
th emes
15 00
View s
' </
W ire
_{ *
circ led
S ing
p rior
ĠL td
Ġfe els
ĠAss uming
Ġdis aster
Cl one
si x
ĠB inary
r w
contain ers
normal size
Ġpat ent
oper ations
Ġopp on
ĠP as
Ġconj unction
Ġdist ant
DE V
Ġbi ased
organ ization
Un lock
Ġbif urc
H F
On Search
h it
CD ATA
Dep loyment
Ġs av
Ġvulner able
å® ļ
Ġdesign ated
Ġh osted
/ {\
ang les
ĠFin ancial
is Valid
ĠN LO
Ġ\ }$.
Ġal ive
ĠW ars
B and
17 4
-- ;
get Logger
ĉĉĉ ĠĠĠ
ris k
\, (
Ġshort ly
Ġenjoy ed
ul ators
ĠAs ync
ĠE D
ĠM W
Sp rite
ĠGL enum
P icture
Ġst ops
_* \
r g
unit test
Ġdebug ging
Ġminor ity
Through out
ĠM R
Ġdemoc racy
C riteria
| .
aus dorff
$ },
å ĩ
Ġqu oted
Ġsur gery
2 16
}$ }\
Ġrep air
C lock
F inder
en et
DE P
Ad ap
experim ent
Ġmini ma
A ctor
Ġrec urrent
Po sitive
Ġgu ys
ĠAn ti
Ġdomin ate
Ġdetect ing
Ġd ry
requ ests
Ġadvers ary
sm art
Ġep ide
d id
esti mated
Ġs alt
Phys ical
Ġtunnel ing
b at
App lying
Ġo x
On line
te p
set Value
Ġhighlight s
Ġf riction
$ }.
os cal
Ġcontroll ing
ro se
Q A
ĠDep end
ĠSy ria
ĠKe ep
Ġcount able
ĠSto kes
loc ations
Ġpl au
Ġ( âĢľ
t odo
fields et
f lip
ST D
,- .
Ġleg iti
ĠL S
T oday
com par
ĠJ oh
c M
Ġun ified
}\ }
[] )
teen th
}{ {
al o
std out
APPL ICATION
Ġhas n
ĠCollection s
IS O
Ġdecre ased
. :
Ġv ital
Ġact ress
Ġind ent
ĠP E
Ġsugges tions
Ġsurv ive
Ex act
re duced
Ġsynchron ization
A WS
net t
Ġstart up
Initial ized
su ite
ĠJe an
ĠEv ents
pub lished
Ġcomp ac
Comp ute
Den ote
get Default
Ġreg ulation
tic ity
ĠBro ok
Ġtransl ations
}{ |\
SE D
W illi
Ġh olog
f req
REQ UI
P atch
Ġex haus
Ġcomp ares
Ġaccompan ied
ÑĢ Ð¸
co ins
b il
clou df
Ġcur r
Ġground s
F rac
Ġuni versities
exp anded
Ġjav adoc
Ġsurpr ise
cap acity
Ap is
ĠERR OR
Ġb om
Ġb rackets
ĠPo sition
ĠE ll
tif ying
Reg ular
Ġirre levant
ret val
Ġmes ons
b k
ĠLapl ace
ap unov
ä¸ į
pro ve
Ġexplan ations
Ġin jected
ic ian
Ġs el
mark et
Ġinter active
Ġfr ustr
Ġimp lying
paramet ric
Ġ/ \
Ġte en
Ġsing let
Ġup coming
call s
r ates
jav ase
ĠCON FIG
Ġdestr uction
Ġfail ures
ĠT ax
ĠSt ack
Ġl n
| |\
it ons
ĠS TR
Ġent ers
cred entials
}/ {
um ed
Ġpion e
Ġrender er
W ave
Ġbeh ave
ĠFrame work
n ick
Ġplanet ary
B ERT
ĠA udio
* >
Ġpres idential
] -
Ġbi ases
T raining
}, {
Ġsol o
SER VICE
th us
Ġimportant ly
------------ --
Ġh em
be zier
P lus
o led
Ġtra pped
ĠA rc
is l
ĠN FL
ĠN orm
c nt
Ġun supervised
: ]
ST RE
ass er
Î »
Ġin fl
ĠT F
Ġsch eduler
An n
Ġi prot
Ġcallback s
Ġvot er
art an
Ġh all
ĠR G
AR B
vi ol
Comp any
ta king
get Context
ir t
Res tr
differ ential
Ġscal ars
Ġoff line
h or
Ġla id
'' (
c H
;\;\ ;\;\
)] (
ĠH O
Ġover lapping
Ġw ra
Ġpiec ewise
arting ale
itor ies
Ġcondens ate
U K
comp uted
con serv
}\ }_{
assert False
Ġ! !
Ġint uition
w ich
urch ase
ss h
add on
comp ass
nes ota
I MAGE
ĠAt lantic
ask a
D AT
ak h
de leted
lo ys
sp ir
Qu ick
end ers
Op ts
ess ment
ĠP attern
ĠE T
ĠComp uter
Ġpro sp
Ab s
av is
larg er
ma pper
Bal ance
Ġnarra tive
ĠRes et
IC K
Ġcut ting
18 8
Ġperson nel
W rong
Ġsaf ely
Ġran ks
ĠAd ditional
ĠPri ze
G itHub
Ġtic ket
() }
R ew
\ #
ST O
as tically
se ver
x ff
Ġc au
Ġ" --
ed a
Ġsh ips
ĠO ri
anc ies
Ġb io
)) {
Ġsuper symmetric
Ð½ Ð¾
P references
sc i
" +
c F
ĠMax well
Ġsimp licial
tif ies
00 000
Ġresidual s
ap k
ocia tive
Ġf ron
hed ral
encode d
][ <
ĠG alaxy
rop ri
Ġde precated
ST EM
sh aped
ĠP rom
ĠF E
lem an
Ġexpl oring
Ġc ited
ĠB ody
ĠĠĠĠĠĠĠĠĠĠĠĠĠĠĠĠĠĠĠĠĠĠĠĠĠĠĠĠĠĠĠĠ ĠĠĠĠĠĠĠĠĠĠĠĠĠ
Cred ential
h int
dis cus
Ġartif acts
C as
Ġm ine
ĠOb serve
Defin itions
im s
eqn o
tw ig
Pro pag
Match es
Ġa ds
ĠSection s
ouple d
Ġaltern ate
Ã¡ n
: @
ber ts
Ġo cean
Ġdecom posed
ĠL ind
ress ing
Ġver sa
E val
Il legal
ĠA venue
ĠV ill
es sian
p unct
over ed
Instance Of
Ġf urn
Ġre fined
\, $\
Ġshould n
ĠP rem
Ġauto mated
b la
w en
ĠP riv
ĠD est
Ġar rest
Ġsymbol ic
ĠCom par
ĠRec ently
par ticular
s ound
] /
ĠWh it
ĠRE AD
Ġs ock
Dem o
o auth
text subscript
17 2
ograph ical
ĠSte phen
mm as
EQ UAL
Ġpuls ar
Rec orded
$. \\
Ġre act
Ġold est
ãĤ Ĵ
W T
Ġprov ince
des cribed
R en
D eg
Ġreli ef
20 6
Ġthought s
x a
GRO UP
Re fer
Ġt ac
set counter
ide al
ĠB rand
Ġhouse holds
\| _\
C op
ad os
ey ond
ĠO ntario
ĠR ES
}) (\
c L
ĠMo ore
ch anging
Ġf ed
Ġd ummy
A Y
t g
Ġmut ation
ĠC ell
list en
requ ires
)/ (
Ġlogarith m
recor ds
Ġb unch
L earning
ATTR IBU
ag ain
Ġoffset s
Man ifest
Ø§ ÙĦ
Ph ot
Ġsuff ering
Ġadverti sing
k v
Ġm ess
ĠD ra
ia o
Circ le
Ġc ameras
ma d
B etween
Ġp urs
' "
min ute
Cho ose
id ually
ĠB egin
Ġc lic
ĠTur key
Th rows
IT ER
Inv ocation
ĠMem orial
- .
. ),
null able
up iter
Throw able
Ġar cs
ĠHop f
ĠPol ish
Text Field
Ġsit ting
y ers
Ġden ied
Ø ³
Ð Ł
ur acy
Ġlo ts
be it
Ġannot ated
sing ular
f re
k ers
, &
Ġparse Int
mal ink
accur acy
h size
Ġpr inted
Re po
)) =\
el m
-------- ---
t ang
is cal
Inter op
coher ent
28 8
ĠS om
ĠS quare
Observ able
numer ical
ĠTrans form
ear n
Ġcon current
Http Request
Ġcommunic ate
em et
Li u
p romise
ORM AL
f h
ĠRuntime Exception
umn i
ĠW allet
ex change
gu id
Ġcomp eting
Y P
Lef trightarrow
Process ing
Ġacc used
Ġfra ud
S printf
ine ma
Ġth ir
17 3
ĠTheore ms
d ense
ar ticles
ĠA U
Ġwe ar
f ade
Ke ep
prov ide
ĠP RI
og y
Ġ$ ('.
oh er
ĠW E
ÐµÐ ¼
Ġa perture
al ong
bes gue
- |
oper ators
Â ·
ĠPoin car
b ash
des cr
Ġdimension ality
ĠH ay
Ġref used
Click Listener
Ġmathema tics
D J
Ġcalcul us
h dr
ĠF actory
am y
div ider
Ġpoly gon
Ġfib ers
Ġad res
Ġfix es
who se
_* (
m ov
Ġexp ects
R N
lst listing
Ġatt orney
ĠB oot
ĠN iger
ĠSan ta
ens en
ĠCh ap
Ġaut onomous
vari ance
ĠS ou
reng th
rep res
ĠIn cre
30 2
bra ket
Ġp ec
Ar c
å Ĩ
y z
ĠW ARNING
}[ (
")) );
ĠT ypes
ĠHe ader
w ould
Ġmanip ulation
Ġhe ap
Na N
ĠK r
ĠZ end
Min imum
Ġreti red
Ġre nt
Ġre putation
ec ell
Ġmul til
../../ ../
g allery
ĠL ar
(' ../
c riteria
sur vey
c ous
Ġb ought
Cre ator
incre asing
re dis
Ġt ube
general ized
Ġdevelop er
Ġreal izations
Ġ< \
ĠH ur
P et
L B
Ġ" (
W ho
)& =\
ĠEar ly
HAND LE
"> ,</
Spec ifically
Ġincl ination
sc opes
Ġcancell ationToken
z able
on ing
ĠW at
Ġinit With
Ġcom edy
ĠCont roller
Eu Script
ic ting
ĠS Ne
di am
Ġc d
! ");
}' \
Ġm p
go og
pro posal
G radient
el son
Ġfun ctors
in ecolor
re dsh
FA ILED
Ġun safe
Ġunc lear
Pa ired
F ollow
') ).
f red
ĠP rac
}) /
ENT S
ĠD utch
achel or
Ġ nd
User Id
CO RE
Ġcon form
control led
Ġbenef icial
ĠD id
ĠAuthor ity
- )
In stead
L y
Ġw ake
el ike
dial inecolor
ain ter
\/ }
Ġmut ually
Ġsh aded
Ġ] );
Ġfr uit
i q
inter pol
Ġpres cribed
Ġgeomet ries
sc ience
ordin ary
Ġ" </
Ġmultip lier
go als
Ġwarning s
! âĢĿ
Ġb attery
ĠCl inton
d an
Com bo
Ġstre ets
ĠMc C
ĠRec e
Ġpi pe
B uilding
per f
ĠV en
Ġpl astic
Ġexpan sions
Ex ist
ĠS olar
Ġadequ ate
in struction
Conn ected
HEAD ER
Ġti ed
æ ŀ
align ment
ĠStr uct
ä¸ º
}\| _
Fl ush
b readcr
ĠA LL
ĠPol y
ĠĠĠĠĠĠĠĠĠĠĠĠĠĠĠĠĠĠĠĠĠĠĠĠĠĠĠĠĠĠĠĠ ĠĠĠĠĠĠĠĠĠĠĠĠĠĠ
Ġsucces sive
Ġsophistic ated
Ġ* **
Ġcop ied
Ġwh eel
17 1
ol ars
Ġrig orous
Ġm as
Ġal cohol
a xi
}\ ]
Ġcon gru
Ġvisit ors
ĠS IL
define Property
Ġfair ness
Ġp ag
Ġ{ :
ĠN ic
Ġra in
ĠH I
19 6
Ġpopular ity
el o
ĠH it
Arch ive
18 7
decom position
t om
ned y
Ġflat ten
dash board
conf irm
Ġmacro scopic
Ġt on
oc a
20 9
f ish
}( (
source forge
Ġrandom ized
ap or
ump tions
Ġacceler ated
ĠB ible
Ġch ap
ber ger
Ġres cue
CLU DE
ĠViet nam
r q
16 2
Ġh ub
** :
be at
v ation
Ind ices
num bers
Ġani mated
C ov
Ġan ymore
J y
st udi
16 4
36 5
g f
sol utions
Ġt ub
Ġfit ness
w ere
' )}
Ġsub stitute
ĠS in
enn y
end o
loy ee
pos ing
E O
ĠP ers
mathb in
str ut
ĠBol tzmann
^ (
g rey
ab ic
struct ured
ĠRel ations
K er
Ġin sertion
Ġt body
In clu
E F
ym an
ble s
Ġiden tically
k b
ĠHel p
Ġcommu te
ĠMET H
Ġcheck sum
Rec on
Ã ¸
Ġpre gn
ĠC FT
ĠC lean
^{ '
[ -\
Ġdig its
}} </
Ġ\ }$,
Ġad mitted
R ound
Ġpre domin
Ġl azy
dete ction
ç Ľ
" <
Ġther apy
Ġair port
}{! }{
os phere
mem item
m echan
Ġformula e
Ġcouple s
normal font
Ġde formations
> @
}{ @{}
Ġgr pc
PROP ERTY
TR ACT
AB C
A MS
}) _{\
Alloc ator
) &\
Ġtal ent
å ½
Start ing
Ġsub algebra
Ġill ness
s ay
Res olve
Ġ* _
Ġ&& \
rows ers
datab ind
ple s
pe tition
Ġ- (
Ġmul tic
20 7
re search
Ġre n
Ġbo ys
Ġinstrument al
ve tica
)\ }$
Ġfound er
mak ecell
y ll
it ary
ĠN ick
Ġr uling
ĠSt and
ysh ift
j dbc
p ane
Ġtack le
O O
(' \
single ton
y i
write ln
Ġpol ymer
ĠLand au
AS C
il arities
Ġs q
qu is
ĠCap ital
ĠHol y
C u
ĠM ach
Ġexper tise
ci i
or ption
Ġd ies
Ġdo i
sta tistics
Ġtun ed
ID S
l isted
)} )$
Ï ħ
Ġextrem al
SE C
i pt
Ġconstruction s
Ġlo an
ĠI sing
co h
Ġpro ximity
ĠG auss
sh ake
64 0
ĠY ES
acknowled gments
ĠC ro
arg o
Ġcl arity
ĠM OD
un ix
hal o
Ġster e
ĠM s
amil ies
on ia
Ġkine matics
late x
Ġener ge
2 33
us c
17 8
C LO
Ġfa int
S il
d ac
Ġh ist
ĠY ukawa
ĠEd ge
Ġconflic ts
F ixtures
r times
M igration
IC S
0000 000
A ge
eg as
P ull
ig e
ĠSt udent
ether lands
Ġvirt ually
S uff
Ġeas tern
met er
Ġed iting
Ġmul tivariate
Ġp et
Ġe motion
Ġinher ent
c out
w so
or ov
dot sc
al ph
ĠPort ug
F IL
ĠPro file
ma cy
ad van
ĠOlymp ic
ti r
Ġsh op
CK ET
S outh
Ġtro uble
y ang
Sin ergi
Ĥ ¬
Ġbutton s
Ġb rown
read able
ĠL IMIT
Ġaccomp any
l v
ĠDE BUG
rie ve
A rm
Ġob sc
] ));
Ġval ence
Ġpay ing
s uc
ĠÐ ·
Ġt uples
Ġgl ad
Ġa ws
ĠB L
con sin
match ed
Ġ' )
tab colsep
aver aged
Ġun set
A f
A lex
ĠCon struct
ion ization
View er
Ġatt achment
ĠS ide
OP ER
[-> ]
if ference
pp i
lim inf
scatter ing
Res ize
LE AN
j as
Ġf d
Ġsuper symmetry
hand lers
N ay
it ten
k el
v f
Ġevalu ations
Ġappro xim
Ġaddress ing
reg ions
pres erving
ti que
dec oder
g ol
Ã ¢
ĠOb jects
Ġrare ly
A H
Q Q
æĹ ¶
Ġfir ms
c P
Ġtax es
F our
is c
ĠSh er
Ġappropri ately
M pc
Ġ\| _
Ðµ Ð»
umino sities
ĠO cean
Ġex terior
Par ticle
N M
ĠF M
Ġs ad
ap ing
>> >
ĠType Error
ĠVol ume
$. \
Ġtheore tically
level s
Ġlabel ing
PRO TO
ĠDu ke
"> '
V s
Ġdwar fs
S everal
ĠF red
Res earch
uni versal
Do es
tit udes
ĠM IN
ĠG AN
ĠLay out
ÐµÐ ´
Ð½ Ñĭ
en ix
Imple mented
Ġb lu
Ġset Timeout
ĠV ar
V oid
ĠD P
con ven
getElementsBy TagName
ok ia
})- (\
ĠBri an
Ġjus tified
log s
Ġrecur sion
H W
Ġpolitic ians
B on
Ġpro gen
B ench
N GC
T ele
ĠDe ad
type param
Work flow
b ard
end l
V e
ĠHar ry
ĠL R
17 7
/ ?
Ġpres cription
ĠC MD
ĠLa ure
Con stitu
ĠSum mer
gra ined
19 59
ĠSing apore
Ġna ive
- {
spec tra
Ġexclu sively
Ġdat abases
url s
Ġsyste matically
g un
ob server
g ulp
ire ction
Ġaltern ating
Ġiniti ative
Ġa side
Ġin h
v d
di o
ak ed
widget s
. ')
T ilde
ĠCheck s
st ries
Ġinnov ative
Ġaccess key
is si
Ġan th
Dis able
Ġadministr ative
Ġcon scious
m ob
ul sive
ipher al
Ġinv ited
co ordinates
o il
d ra
) ^{(
p tive
spec tives
h ls
ĠDe ath
Ġexhib ition
ĠAri zona
"> .</
TO OL
Ġheter ogeneous
Over flow
Ġman aging
ĠCor ps
Ġcomb ines
ĠW ang
Ġw elfare
pher ical
Ġestablish ment
ĠF ord
ĠD ifferent
Ġconn ects
Or Empty
Ġoptim izer
scal ed
W il
0 75
Ġgovern or
Ġ$< $
Ġintel lectual
Typ ed
Ġtermin ology
der ived
ĠCon vention
Ġh older
Ġin ev
text backslash
Un ited
Ġac cepts
y ml
ĠM T
ĠF ried
ding s
Ġlib eral
if ecycle
p seudo
ĠAll en
J O
Ġsequ el
hy dro
Ear ly
Ġtravel ing
B K
Ġdefault Value
Mod ify
Ġc lim
Ġ) :
current Time
b ach
19 57
Ġcr imes
Ġt une
Ġm ountain
Ġs tiff
}) )$
Ch ris
ĠFe ynman
urren ces
em er
=-=- =-=-
as ta
ĠL es
H aving
Ġreal m
ĠDef ense
Ġemphas is
lec ular
ĠMe asure
Ġs lots
de ps
Ġrem n
IT S
Ġeng agement
d in
Ġag ed
ĠYou Tube
Ġsuscepti bility
D K
ĠT ensor
\, ,\
block quote
Ġoptim ality
F LOAT
mid i
Auth entic
res sible
Ġd ans
ĠH ot
AR M
Ġelig ible
ĠSu ccess
ap sed
t pl
Ġ} ^{
iv idual
alth ough
7 20
? .
ON LY
Ġwin ds
ke e
0 15
ĠN amely
se ason
re ject
n z
Ġ<!-- [
ĠC orn
ar o
log ical
Non Null
Ġview ing
query Selector
æ Ķ
}\ !\
ĠB or
Ġany way
Ġalloc ate
Ġinstant aneous
ç½ ®
W ords
Ġ ].
19 58
} ")
) &=&
18 2
IR ST
SH OT
3 25
R ever
Ġpropag ate
analy tic
Ġd w
An swer
9 78
Pro tos
Ġf at
ĠG reg
Ġimp ressive
ĠE ss
per m
LOB AL
ish ment
View Model
deriv ative
Ġle mmas
normal ize
W ITH
Ġs aving
Ġsc oped
Ġaffect ing
ĠS ri
Ġrefer ring
ul pt
Ġframework s
Ġfl are
Ġint ense
Ġ* */
Ġserious ly
0 12
ĠAtt orney
Ġmem brane
ĠOr gan
Ġre serve
sequ ential
Ġrot ations
Ġstr iking
ank a
Ġsw im
l are
;& #
j ump
iter ation
row e
os ystem
mon ot
Ġparticip ant
Ġemer ged
Ġpurs ue
M n
ĠN ames
Ġ@ @
st ery
ir ically
Ġdel ays
then Return
Ġfe es
ot er
ĠS B
Ġvis its
pp ler
Ġexec utor
Uni versity
c la
qu er
ĠIn sp
Ġcolle agues
gl as
ĠD un
uil ty
Ġiniti ated
ĠG B
Ġset Up
Or g
ĠSy d
26 3
Ġm ill
In to
tiv ities
Ġagree ments
Ġcent uries
Ġmy th
Ġl ad
ass o
Ġcoun sel
16 1
Ġdup licate
le w
+ (\
åı ĸ
] }(
SE CON
e ither
Ġindu stries
Ġpoor ly
re call
big wedge
Map s
Ġdire ctive
TO KEN
ĠD ialog
Ġent reprene
pre t
Helper s
> }
C ert
ĠX ml
0 24
ll l
Ġper ception
file Name
b z
mk dir
ĠBO OL
ow nt
Ġbl ind
J o
Ġch amber
quar ters
D to
Ġ âĢĻ
EX P
pl orer
ĠM oh
Ġwor ry
Ġv it
So ft
Ġh ur
' =\
Ġpurch ased
Ġcont amination
Com ments
ov y
RE C
D an
SN AP
ĠĠĠĠĠĠĠĠĠĠĠĠĠĠĠĠĠĠĠĠĠĠĠĠĠĠĠĠĠĠĠĠĠĠĠĠĠĠĠĠĠĠĠĠĠĠĠĠĠĠĠĠĠĠĠĠĠĠĠĠĠĠĠĠ ĠĠĠĠĠĠĠĠĠĠĠĠĠĠĠĠĠĠĠĠĠĠĠĠĠĠĠĠĠĠĠĠĠĠĠĠĠĠĠĠĠĠĠĠĠĠĠĠĠĠĠĠĠĠĠĠĠĠĠĠĠĠĠĠ
Ġ iv
J acob
Ġj umps
Ġsl ave
ter y
ĠP ear
Render ing
åľ ¨
Ġimm igration
6 55
nov ation
Ġcov ari
border ed
q s
ĠE S
SE SSION
Ġisol ation
chro tron
ĠEns ure
ĠPro tection
Ġfoot er
Ġellip se
ãģ Ļ
Ġden ominator
Ġsuper position
Ġparametri zation
> ",
Ġbelief s
} &=
Ġnumer ic
) ^*
ĠP ART
Ġcomp oser
2 15
D ark
With in
Dec or
syn chron
TR ACE
ro bot
and y
imp licit
ĠCO MM
xx x
E duc
ĠHar ris
] &
col s
L STM
ĠT reat
c ot
ĠObserv able
M Q
j ud
ĠMin nesota
ĠM ul
ĠMajor ana
p oll
ef ully
Ġreg ulatory
ĠE sti
Ġofficial ly
col n
ĠD NN
ĠCo oper
m el
Ġra ising
Ġdra matic
Ġac id
om o
Ġaver ages
i ph
te cted
ĠI SM
ĠH an
loy d
Ġg ras
en kins
sw ift
NE SS
istog rams
small er
gra duate
Ġret ro
Ġcon test
B uilt
ĠSch warz
16 3
ĠA ni
ĠB ureau
Ġsett led
re comm
ĠR S
(( (
Ġspher es
ĠAdv anced
Ġro oted
array stretch
Ġhydro dynamic
)$ \
Ġprev ents
0 30
ĠM pc
Ġ$ {{\
Att ach
Ġw el
ĠL ady
ingu ish
ĠE s
mt x
st y
Ġa pt
clo s
Ġ& +
olog ists
ĠP sych
"> "
Ġevol ving
Ġn ic
uzz y
Multi p
Ġindiv idually
rol led
Ġchar ts
sk in
TH READ
Ġinsp ect
ĠTH IS
ĠN umer
CON ST
Ġinf ected
lic ates
Ġver bose
Ġbro ke
Ġassign ments
Ġcross es
ãĥ ³
DE VICE
ĠÐ ¼
aff ected
comp ressed
rece ived
Ġm i
B AD
Ad ditionally
Ġoff ices
ĠB all
Ġrelax ed
Ġ) );
Ġoper and
abor ation
ic it
nd ers
Ġcontrad icts
40 3
Ġgeomet rical
el and
rece ive
Pop Point
ĠFunction s
Ġ à¤
Pub lished
c ould
de velopment
AC CESS
Exp and
Callback s
U TE
ĠW el
Ġcont acts
reg ression
ĠT each
'' '
Ġdocument ary
r ust
ER Y
Ġcross ed
util ity
ir s
Ġev t
IN PUT
Ġabsor bed
$ [
yn olds
Ġac tively
ession al
Ar t
ĠNetwork s
ĠFore st
D H
ĠM ount
Ġpron ounced
is ta
Ex change
ĠQ uestion
Ġentertain ment
k an
IC AL
Byte String
_{ |\
ĠJ O
si ans
Ġpar alle
Ġdirect ors
UM N
0 22
tiv ated
( %
Cur ve
ĠM F
Ġindic ation
ferm ion
Ñ ī
; ;
tab len
Ġsum mand
Ġsubstr ate
è ¦
Ġas semble
Ġmiti g
ĠN V
ĠS TD
iter ature
ĠF i
Ġdetection s
ĠP FNGL
Image View
Ġspin or
Ġc ab
Up dates
Cred it
L ess
ĠB ERT
lu sion
60 1
> *
Ġb orrow
Pack ages
Ġun w
pe ople
Install ation
0 39
te ad
8 75
e lect
per form
Ġviol ent
) }}{\
Ġor bif
Ġblock ing
ĠT S
}) }$
fe as
ĠOlymp ics
par box
Ġinv ocation
Qu antum
ĠR yan
Al location
ĠD or
32 1
ams ung
ĠIsl ands
ĠEx change
Hy per
rotate box
Ġl hs
mer c
Ġtransform er
FO UND
ĠSh im
Ġrac es
s low
xi ma
Ġpool ing
For Key
Ġ/* !
Ġl ap
M Hz
ĠI L
ĠJacob ian
G I
cre ation
read only
Connection s
Ġproceed ings
ĠPe ace
ĠC ONT
19 1
Ġrun ner
18 3
Ġsil ver
U INT
-------- -
lip tic
C AT
ge m
Star ted
ar x
ĠN L
Ġg od
Ġthem es
Ġinflu ences
Ġfav our
cal es
user Id
comple tion
c art
Ġs sl
D ER
H op
Ġax ion
Ġcommu tes
auth entication
ĠEV ENT
Ġg fx
Ġencourag ed
Ġsub traction
Ġvalu ation
type Name
ces sion
ĠDo main
transl ated
ĠR ect
Ġattack er
) ];
Ġserial ized
Ġn ons
18 9
Ġblock chain
Ġarm ed
ev a
press ure
ĠB io
Rect angle
pher es
od rom
Serial ize
$ |
}( [
sup set
ĠHar vard
40 5
Ù ģ
h on
S NR
id ge
Ġ` --
co res
it ure
Ġge o
ĠNote s
ho ma
Ġspecial ized
Ġp la
observ ation
Ġv oted
own ed
B attery
ing roup
W est
Ġt ur
ĠB reak
CLI ENT
Constitu ency
Ġsac r
ĠSim on
& +\
ĠSt one
Ġp aren
Ġconc ert
ĠU AV
R B
Util ity
Pr incipal
wh el
ĠHe isenberg
Depend encies
Ġst one
UL AR
Ġequiv ariant
ch n
Un ion
ip ient
Ġdiscus sing
ĠHou ston
Ġhel icity
Ġpos es
id i
Ġpri ors
ĠP rior
he v
ta h
d ns
rr rr
ĠLe on
ĠMar ine
Ġsuc ceeded
tex pr
Ġrele ases
ang ers
19 56
Ġproton s
ĠCont act
ival ent
Å Ł
âĢ ħ
ĠH z
Ġrec i
27 5
Ġthe sis
r te
"> )</
Ġspeed s
ĠIter ator
. {
Ġf atal
Ġin ductive
Ġ[ &
process ed
ĠNe ural
friend ly
E t
ĠEn um
Ġinvestig ating
U id
Ġ\ ;\
uc ks
ĠRed is
d type
Ġs igma
Debug ger
Ġbenchmark s
Ġnumer us
Ġtermin ation
Pub Key
Ġro oms
ĠP ush
ĠB lu
Ġpec uli
2 90
Ġfid ucial
æį ®
F at
ĠG ran
ref ox
H it
ĠD rag
F ACE
Ġh int
Ġear liest
ĠM ilitary
m atrices
t ls
ĠSyd ney
Ġ*/ ;
Ġvis iting
Ġmultip lied
S pring
Fin ished
prom pt
' ></
ore st
root Scope
Y ea
Ġ till
ec es
Text Box
=" '
LOC ATION
ĠGold en
un def
Ġclean up
Ġh ate
Comp atible
to k
C OR
ĠS USY
Ġab bre
per missions
ĠD aily
Ġ) {
Ġexec uting
ĠT ai
Number Of
| >
Ġde pos
ĠDat aset
Ġstr ide
Ġconcept ual
Ġneur on
ĠL ik
cri ptions
sem b
Ġadv ances
pop over
ol id
be en
Numer ic
A mazon
19 55
Content Type
pro files
Ġsub stituting
x p
lo p
od b
N EXT
Ġprofession als
123 456
c annot
Ġweight ing
"> =</
Pl anck
---------------------------------------------------------------- ----------
t rees
Ġsh utdown
BE GIN
V K
ĠI MF
ĠP ra
}) \,
pr im
Ġemer ge
Experim ents
ĠOr ig
em ission
qu it
B IN
H M
ĠL ayer
Ġdecom pose
s orted
Ġemer gence
Get ter
ĠÐ ±
ĠGL int
Ġbar riers
c xx
f ixture
Ġpr uning
5 50
ĠB U
b uffers
Ġre wards
Ġpor tray
emet ery
G old
ĠM rs
Ġcor ruption
Ġauthor ized
ĠComple x
Ġgen re
Ġh et
) ',
Ġs oul
is i
ĠValid ation
Ġin tra
Ġrecur sively
ĠĠĠĠĠĠĠĠĠĠĠĠĠĠĠĠ ĠĠĠĠĠĠĠĠĊ
all ax
vers ation
^* $-
ven ted
Ġdoc umented
Recorded Vote
Ġequ ity
Ġrestaur ant
T ax
iti ze
Ġwonder ful
+ |\
3 45
] },
E ST
ĠR ose
ĠTele scope
adap tive
V ars
ĠG allery
D N
Re peat
ĠP P
Con tain
dimension s
M usic
Ġadjac ency
Ġa vo
Ġcorrect ness
ĠAc tivity
W P
ĠM es
)] $
Ġch ip
var nothing
List View
Ġ' [
17 9
23 1
access or
pl ating
Ġc ognitive
Ġdiv iding
Ï Ĥ
i ar
super script
Ġev il
bl ur
Ġpropag ating
att achment
ĠMil ky
H amiltonian
Tran sp
Ġsu icide
ĠMean while
*}[ !
l k
{$ {\
ADD RESS
Sl ider
Ġs lices
Ġro yal
Ġvis itor
Ġwar n
e poch
A u
L ex
re try
ĠB orn
L ists
pro toc
Ġlo s
Ġm illiseconds
dire cted
U tilities
N ORMAL
Ġpar liament
Ġco okies
Ġviol ated
th ink
re load
Ġar ranged
Ġmonth ly
ĠSta tic
ĠWis consin
inherit Doc
iv ariate
Ġmorph ology
Ġattempt ing
Ġrest ored
}\ }$.
Ġcontext ual
)) :
cl ing
Ġspirit ual
home page
re start
Ġtra ins
3 10
Ġv ibr
ĠC ohen
di on
Ġback bone
ĠTrans former
vary ing
:// $
ĠLe besgue
ili ation
ro ck
Ġar tifact
ĠL oc
19 00
b eg
C ached
] )$
comm unity
}' _
\ }}\
c aus
tech n
= _
h et
D ays
ĠMo on
L ee
ak ov
Ġbehav es
' )$.
ĠMat thew
Ġredund ant
g am
ĠCal led
> {{
non ym
c z
Ġconstant ly
ĠI owa
ĠP ot
Ġc ascade
ĠIn te
rt c
Ġse lects
ĠO ak
om y
Component Model
q p
Al ready
æ Ŀ
ee a
Ġmer gers
e asy
ĠM ode
Ġopin ions
M ON
Ġ\ [\
res olver
ĠVictor ia
B log
c ube
ĠM inkowski
19 44
' }(\
ĠCurrent ly
A ws
ex e
Ġgraph ics
sto chastic
ren a
Ġimp osing
Non null
Ġpublish ing
ĠMal ay
Ġre interpret
}} )$.
plan es
Ġpublish er
Ġp id
align at
ĠMary land
Th ird
g ression
pro ton
Ð¾Ð ³
ch rom
ĠR R
ĠM Hz
ĠEn try
LOC AL
be h
Ġb aby
W F
ot ype
Ġcancel led
ĠSh ared
ĠAnt on
re cent
ber ry
an th
Ġp b
usal em
Attr s
Ġbe auty
30 3
Ġpop ulated
C os
Mix in
C AP
kra ine
ĠMag azine
K T
Ġs entiment
he el
Ġe g
ri ble
ĠRepublic ans
ĠObserv atory
real m
D TO
f box
)) (
Ġcomputer s
Ġfunction als
Ġa uction
Ġd type
direc tive
Pr im
est ors
ĠK n
Ġsepar ating
pa int
g ain
ĠC am
in du
inf ra
ownt own
Hand lers
f ive
~ ,
ĠB ow
Ġval ley
I ll
C ycle
e valuation
è §
F all
tr ust
Ġnot ably
w l
ĠV k
SE rror
Ġh ack
Ġcon ject
c od
Ġsy nd
Ġs keleton
P LAY
S FR
High light
ens on
USE D
rr bracket
INTER N
Ġin qu
Ġpul led
Ġutili zing
Ġb ib
dis p
Ġnil potent
Ġten ant
tiv ation
Ġp orts
Ġsub mission
m ig
- %
ĠApp lying
ĠCO PY
Null Exception
con cept
inst ances
Ġp sy
Ġout break
Ġpaint ing
M en
Vis it
y our
23 7
b ab
ĠS ud
Ġstrong est
k al
ĠS ound
ĠN etherlands
erv es
ĠMETH OD
ĠSe ason
ĠCov id
Ġsur rounded
ĠPol and
". /
ĠSaf ari
test Data
id ad
ĠB P
Ġl uminosities
(" _
typ ed
M V
ĠK illing
de cess
Ġre use
id le
Ġs ans
ĠP SF
Ste ps
ampl itude
PT S
ob e
pos sibly
}- {\
AT IVE
Ġsearch Box
cat Desc
OFF SET
= &\
N orth
cur ves
G i
per malink
LO T
Ġ' --
ĠO B
ĠP ier
AS P
g cd
pi ece
Ġcelebr ated
a tic
Ġlink ing
til lation
Ġcur ved
grad ation
{ }^
ĠPar ser
), $$
calc ulate
O VER
ĠD rop
At Index
Ġgen es
llig ent
19 48
Ġsatell ites
Ġc up
) ],
Ġspont aneous
0 13
ĳ ¼
Ġb ass
lin ing
diff usion
T urn
oul li
ĠĠ ĉ
| ^{-
d it
mark down
ester day
Ġb orders
Requ ested
23 8
Ġrep orter
18 6
ig a
_ +\
Ġf ranch
Ġde formed
ĠL ess
Ġt ort
Ġh ull
S lide
ic ate
E W
Ġd p
ur ers
Ġvi able
ĠCatalog ue
ĠHash Set
Ġ= =====
Ġtor ic
Ġg reedy
ick ing
unc ertain
spec ies
c ertain
w u
ĠCh en
M ULT
/ :
n v
ides pread
ĠC ategory
M u
f k
ĠB ir
)] \
J ames
18 1
F atal
Ġpers istence
ĠGre ece
Trans actions
H am
Diag ram
Ġn it
Ġsome how
ĠAd ams
ĠBel g
d og
Ġb acter
Ġpos session
Ġa ster
Ġsupp lement
ĠAd ds
S el
w m
({ },
TIME OUT
an ch
Ġoptim um
sp y
ĠR ot
ĠCo x
Ġat tracted
Ġsomew here
ll bracket
)} -\
Ġdiag nosis
Ġswe ep
Ġgenu ine
ĠPro duction
STAT IC
ĠD FT
Ġpoint wise
ĠVari able
ĠA str
Ġcontain ers
Ġ&= &\
Ġful filled
ĠC ab
Ġass ault
St ation
é ¡
ĠP lugin
3 80
diction ary
ht m
H s
ĠG itHub
Rec ur
="# !"
g d
Ġh ip
ĠS tage
Ġrepro duced
e z
ro ut
rowe ak
n ie
Ġconver gent
s ong
Ġcol ours
R ic
ĠM ill
reg istration
uc lear
suff ix
om ed
comp uter
: .
it zer
Ġd B
R X
b anner
Ġse ats
M arch
Ġdoc s
x u
to o
Ch anging
CL UD
Ġas ynchronous
Button s
Ġconduct ance
eps fig
restr icted
D roid
Ġconf inement
Ġresol utions
________ ________
ol y
Ġmodel led
ĠSw ift
ĠS pr
Ġ[ `
im iter
ĠP ic
25 4
CLUD ING
qu oted
In c
19 18
get User
Ġavoid ing
Ġingre dients
Ġfa de
d ynamical
Ġp uzz
ĠPalest inian
M ime
\ })
Ġre tained
Ġon Click
ĠAr rays
top ology
ag le
c tives
ta p
/ (\
rece iver
is te
Ġanni versary
Ġw ing
Ġste el
ĠĠĠĠĠĠĠĠĠĠĠĠĠĠĠĠĠĠĠĠĠĠĠĠĠĠĠĠĠĠĠĠ ĠĠĠĠĠĠĠĠĠĠĠĠĠĠĠĠ
L uc
ne e
ST AR
Table Name
Ġulti mate
Ġ( ((
Ġ" {
ĠB ug
ĠB SD
ĠWik ipedia
Ġnon empty
ĠR u
p at
TH ON
ĠCl ark
transp arent
char At
Ġcapt uring
P ur
ĠP I
LE T
Sim ulation
ĠPo inter
Ġresid ue
ĠPro b
ENABLE D
}, \,
ĠApp ly
ĠCom ments
ĠV K
AS K
Ġconfir ms
Ġr pc
sg n
len eck
ĠIndian a
3 40
SP H
Ġs ick
Log ical
Ġd ocker
PO SE
ĠL LC
lic as
19 41
26 5
æ Ģ
Ġ( ``
Ġro ads
ĠPh D
Par allel
Ġsim ilarities
hed ron
ĠP i
Sm art
IR T
Ġamong st
Ġparticip ating
Ġt ropical
Ġg uilty
Ġde ple
Ġhel ium
ĠID s
is tically
Ġfall back
tab ility
Ġfile Name
R x
ĠE mail
ric ulum
Ġun lock
ell s
> ',
Am ong
ol ly
show s
Ġgather ed
ag onal
ĠJ ane
node Type
Ġshock s
fli x
Ġla titude
Ġkey board
auth entic
RO P
Ġorbit als
ĠØ ¨
á »
Col lect
ac iÃ³n
ĠC at
Ġpol lu
ĠKen nedy
Ġcontro versi
Ġ" \"
ĠAR M
"> @
Ġgradu ated
H AL
t in
l bl
Mar shaller
ĠM as
Ġcell ular
m utable
Ġh opes
Ġbus y
1 200
ĠS ix
clu sters
Ġwh ilst
ust ain
box ed
Ġregister s
Ġprim es
ĠA x
sp rite
ag en
ĠDo ctor
filter ed
ĠN ation
;\;\ ;
iel ded
Ġambigu ity
Ġcollect ing
% );
Ġhyper parameters
ard o
Ġdiscrimin ator
behav iors
Ġavo ided
p ym
Ġm arch
================ ========
lan ta
over e
Ġhor ror
Ġincorpor ating
ĠM ER
Spec ify
ĠSe lection
text sl
Ġsusp ect
Ġcatalog ue
%%%%%%%% %%%%%%%%
r ss
all as
ĠD omin
Com parator
Ġbase ball
Ġtrac ing
ud o
Ġdesign ing
ĠDes cribe
xx xx
Ġne b
SNAP SHOT
ab ama
ĠT ony
Ġsol iton
Ġlo go
Ġphenomen ological
YY YY
re li
math ord
ĠJ ay
cor por
Ġdra matically
Ġtrac ker
bootstrap cdn
P t
enc er
F requency
ĠM PI
ĠD ur
connection s
ĠH R
At tempt
Ġr v
ĠRE G
Get Type
ust er
Ġun a
ĠK ur
Ġin consistent
Ġmet ers
Ġplau sible
ct ype
Ġbur ied
R us
Ġgeodes ics
Ġf ram
ĠG er
Ġmain tains
redsh ift
Ġdig it
con taining
Ġformat ted
Ġachi evable
k ish
ĠST AT
work flow
Ġal phabet
Ġ( +
Ġfrag mentation
Ġen orm
, ~\
+\ !
V L
ymmet ries
Char Field
Ġaccompl ished
Ġintui tive
ĉĉĉ Ġ
Ġpl enty
ro it
ĠS audi
CP P
Ġad m
Ġ ties
Col ors
manif olds
Ġf rozen
ĠDi ego
Ġn ick
E urope
w r
oc o
Integr ation
ti les
en ko
user content
lectr onic
Ġover rid
ĠV I
ath y
Ġbro thers
State Exception
Ðµ Ñģ
Ġ$ >
Ġdis connected
track ing
19 39
Ġho pping
ir mation
Ġbur den
Ġrail way
Poly gon
FE ATURE
og on
ĠInter estingly
pres erve
A RE
ĠU E
Ġoptim izing
V elocity
ver ts
k ill
Ġ ^{-
ci pl
I sol
g age
Po isson
List en
ex ponential
host name
Ġexplo iting
__( /*!
z an
it ative
ĠIn fo
19 53
Ġestablish es
) ");
19 54
}_{\ {
propor tion
Le ave
on na
M icro
ĠGu id
ar Xiv
Ġra ises
ĠðŁ ĳ¼
ĠðŁĳ¼ </
ĠY O
- (\
Ġu uid
bib item
row ave
ĠRo y
= {(
or dial
Ġh am
um per
ĠC ru
K o
\ (\
"> :
ĠA h
sh im
ĠState ment
W ay
F K
ti um
wit zer
Ġlaw yer
Ġir regular
b rew
Ġrela tivity
% ">
") ).
Ġindic ators
Check Box
Ġdistr icts
initial ized
s impl
Ġcomp ounds
Ġviol ations
Ġhard ly
obj ective
Ġb ow
back up
ĠMar shall
= ~
r er
Ġthe atre
ĠL ower
ĠK a
ĠSh ape
Ġan tis
esti mation
Pi pe
c ounts
So ftware
C ategories
ro oms
Ġpack ed
P recision
19 52
Ġg ay
ĠF robenius
Ġ) ^
P ART
Ġth umb
Ġd ial
ĠKore an
ber ta
ens tein
Ġb ic
S dk
Ġst ood
Q P
ĠP atrick
Ġen th
h f
ĠN ich
00 9
Ġvalid ated
Ġpor tions
b right
ĠN ev
appro ach
ĠN an
omb re
="@ {
Ġsingle ton
( ',
F OS
Ġinter views
Ġcontroll ers
s ugges
W ater
ĠNe ed
' _\
Ġorgan isation
w y
get Parent
Ġex clusion
Ġtri b
Ġz ones
as List
text superscript
ĠW inter
ĠF ont
ĠD ynamic
Ġmunic ipal
ĠL as
Ġe at
Ġdesign er
ĠA BC
Ġpresent ing
ĠKe pler
Pro jects
Ġre versed
Ġe u
}_{ [
vis ited
open api
measure ment
restr iction
ĠU tils
ĠChris tians
Ĺ ãģ
Ġeng ines
> ")
}_ *
Ġpol ling
De velop
station ary
k ine
arch ar
Ass uming
Ġderiv ing
Ġconvers ations
Ignore Case
33 6
Ġlog ged
Ġcondition ed
Ġcross over
ĠPh one
pi res
Ġcos ine
Ð ±
ĠP it
tim ing
ĠH eart
Ġphotograph s
ro uting
{\ ,
be a
Dire ctive
{\ "
Ġer up
2 14
overe ign
j vm
Ġaltern atives
Ġthreat s
') [
Ġdo ctors
Ġb rowsers
tic ky
K ER
Ġspread ing
Ġ? ?
ex plain
tensor flow
K D
Ġtreat ments
Ġy ards
T B
ch ars
ik a
>. <
equival ence
Ġevol ves
N B
Ġkey words
Ð¾Ð º
Ġ$\ ,
Ð°Ð º
c E
Ġh r
in j
ol ding
ĠH ave
c ord
ai ro
ĠJud ge
\ >
at op
ANG LE
alax ies
Ġcod imension
ĠR oss
> ");
ĠE mer
s af
Ġinfinite simal
Ġst ating
ĠExec ute
f ers
order ing
Ch rome
ire cted
ic z
Ġsp okes
col our
Ġsix th
look ing
}\, {\
Ġcoordin ation
Or d
predic ate
et able
ĠS eq
25 3
Ġcho oses
ĠS equence
ref s
Ġweek ly
decre asing
ĠP OST
ĠD D
ran s
Ġis ometry
}| ^{
has Next
0 50
ĠA k
ĠF S
duc tivity
ĠLy apunov
Ra ises
on der
Ġimp urity
Ġperce ived
ĠA stro
ĠLabor atory
ĠFe atures
Ã µ
(" ./
ĠWork s
moz illa
Ġhyper surface
j ournal
}} &
Dire ctor
Trac king
Ġto x
Ġis omorphisms
ear ly
ĠSen ior
Ġc v
so ftware
IN TEGER
Ġhospit als
Z end
Ġst y
19 49
Ġden oting
Tem por
] ",
di a
Ġph arma
Ġsuper vision
Ø ¨
ĉ ĠĊ
ĠD S
Î ¼
UB LE
ĠS ong
Ġvocal s
DEF INE
DEF IN
G esture
bf series
ĠE ver
L azy
en z
ref lection
Ġaff airs
T a
ĠD im
Ġsh a
ordin ator
Ġprote ins
Exp licit
Ġexplain ing
ĠMi ami
18 00
CA SE
Ġelimin ated
ed ition
}$ \,
Ġ/** <
ĠJacob i
ĠF LA
get Node
ip ality
Ġtre ating
is ible
param ref
J MS
ĠN BA
lic h
Ġsatur ated
ĠB UT
ap id
Ġda mag
Ðº Ð°
ĠSar ah
Ġdiffe omorphism
Ġw idespread
ach er
ĠH ausdorff
Doc s
CONT ENT
we alth
ig o
ĠR C
IS H
Ġexam ination
Ġastro physical
witzer land
Ġpre val
ĠM ovie
uc ker
aw ait
Ġtimes cales
B esides
S ep
UT C
E MPTY
N eg
tern oon
Ġeigen functions
Ġfriend ly
amar in
Ġpromo ted
id al
Ġt ens
Ġin homogeneous
ĠK evin
ĠĠĠĠĠĠĠĠĠĠĠĠĠĠĠĠĠĠĠĠĠĠĠĠĠĠĠĠĠĠĠĠ ĠĠĠĠĠĠĠĠĠĠĠĠĠĠĠĠĠ
Ġcritic ism
Ġemp irically
8 50
S olution
ĠCli mate
Ġ\ {(
Op code
B IND
Ġop tically
ches tra
ĠInt ent
ĠC lin
Ġchild hood
}} }_
ĠUs age
Mo tion
ĠM icro
le igh
ĠV ER
Ġf ought
Ġchem istry
Ġro bo
32 7
fill Color
Ġs tick
for um
ĠIn f
ĠU UID
r df
") ),
Ġf printf
ĠR ound
Ġdefe at
ĠGib bs
22 6
) })\
ro les
Ass ociation
Experim ent
H i
24 7
g ender
Ġin hib
emp loyment
loc ate
^* _{\
ĠD ream
h ire
Ġsee ks
* [
Ġexplo ited
Ġcalibr ated
ac s
omet ers
Des criptors
ĠB u
Co ordinate
Ġm ounted
30 8
ennes see
ĠI de
4 75
Ġconstit utes
ĠT an
rid ges
Ġcent roid
P TR
for th
to Array
II mage
Ġsusp ension
ĠM att
0 20
pro cal
ind icator
Ġcol lap
23 6
Ġim mer
i ot
× ľ
ĠEnvironment al
ti gu
l ift
work ing
amp ions
ĠLin coln
li a
B uffers
ĠPart ners
ĠVis it
Y ES
ĠOver all
Ġquadr ature
ch r
MA IL
ĠSo bolev
Ġb omb
Ġactiv ated
if ford
ĠQu ar
I r
equ ality
ĠĠĠĠĠĠĠĠĠĠĠĠĠĠĠĠĠĠĠĠĠĠĠĠĠĠĠĠĠĠĠĠ ĠĠĠĠĠĠĠĠĠĠĠĠĠĠĠĠĠĠĠĠĠĠĠĠĠĠĠ
}^{ *}
Ġcompe te
av al
Ġad option
in sertion
\% }
success ful
ĠEmp ty
S equ
Ġreflect ing
Ġat tract
match er
w f
C Y
Ġinter rupt
reg on
As String
Ġeigen vector
0 14
Ġtra iling
P ag
comp any
Ġcheck point
19 42
la zy
Ġaccompl ish
Ġvis cous
, %
ĠBel ow
ĠW as
C pp
Ġclub s
as test
Ġem bar
Ġdecor ated
cer tific
T om
ATTRIBU TE
resource GroupName
De le
parse Int
Ġadjust ment
b A
Index Of
ĠT ables
ĠG ram
Ġfib re
Ġsmooth ness
ĠJer usalem
osc ow
ĠW ard
ĠG h
box times
ital ic
ĠV in
man ual
ĠScot tish
irection al
evalu ate
MLE lement
ĠA DD
Ġgroup ed
Ġas ks
ĠT X
l ings
ĠInd ust
render ing
c enti
x it
y outube
AD DR
av oid
CO PY
é Ļ
Spec ification
Ro les
19 47
IN X
22 9
Ġassoci ations
Ġjournal ist
K im
OUT PUT
Ġcylind rical
Con str
MPL ATE
GB T
19 51
Class ification
De leted
Ġgraph ical
Ġblock ed
Sch ool
umin ous
Tra its
ĠR ather
Ġf lying
Ġres ort
External Project
ĠMax imum
azel cast
um ar
Ġinc idence
Ġnon local
R ing
syn opsis
28 5
Ġmus icians
Ġconcentr ations
theore tic
Ġeccentric ity
u art
Ġh at
Con d
P V
Ġsub system
Ġover lay
Ġdes erial
Ġb uffers
). </
Ġobst acle
p ause
Ġde fer
rupted Exception
Ġparametri zed
a is
Ġex iting
df n
sch ed
Over all
G ap
Ġis lands
Ġsuper con
ĉ ĠĠĠĠĠĠĠĠĠĠĠĠĠĠĠ
ig s
ĠSch edule
ĠF ail
for t
Mark ov
B V
oc co
Ġsp ans
:: _
inherit doc
Ġauthor ization
ĠI mm
Ã ½
Ġg allery
ĠW I
cr imin
ãĤ ¹
N Y
ardi an
H uman
Ġd imin
s ensor
× ¨
ĠP D
valid ators
Ġmark ers
ĠMulti ple
VAR I
ic ates
Ġsta ys
Tool tip
EN SION
mag ne
ustr y
luc ene
de ll
oding er
ĠT en
ĠO cc
Ġconven tions
ertific ates
Ġtransl ates
Ġdefend ant
Suff ix
seman tic
Ð¾ Ð½
0 16
ä ¼
per or
}} }(\
ĠB run
Ġquanti zed
v iz
é Ĺ
lustr ation
ĠIn iti
? )
Tr im
ph r
Ġear n
, +\
g lass
con sumer
eq z
Ġlinear ized
>{ @
xy z
activ ation
ov ich
me th
N LS
Ġerg odic
ĠI Enumerable
Ġimp ression
) }_\
v or
ĠP ix
PI O
Ġappear ances
follow s
Ġw id
Ġcap s
ag g
ĠGal ois
h ero
Ġ ic
vec tive
Ġcompris es
B ern
ui tively
ĠA SC
Ġter rit
Ġdep ression
ĠSta tistics
Ġde emed
] ^-
d ater
ro utes
24 8
ĠFin ance
) ].
D onald
Ġtown s
po on
)=\ {
Ġload s
P AGE
Ġinj uries
, *
, {
}] $.
Ġpartition ing
Diag nostic
Den ominator
h fil
/ [
ĠAr thur
ch ap
ho o
b end
ag u
Ġover whel
Ġb at
Ġarrange ments
Ġc ra
ĠD AG
ĠV e
Ġdemonstr ation
ĠArch ived
l f
CONT RO
as ty
ĠTo gether
80 80
Thread s
Enc ryption
Ġnovel s
Ġm outh
ï¼ ļ
ass ignment
Ġtermin ate
in th
}) ^\
Eq n
w avelength
{ ,
Ġdecay ing
Ġexp ense
Str ict
ĠM u
Th anks
Ġresid ential
S IG
ĠB log
S ocial
C ACHE
Ġed ited
Ġmem ories
G LA
Ġvor tices
Ġ" #{
Ġre h
mock ito
ĠSta ff
Ġf m
Ġout liers
us ually
acc ounts
PE G
rac le
Ġimp orted
it eness
ĉĉĉĉĉĉĉĉ ĉĉĉĉĉĉĉĉ
Ġintern ally
Ġinvolve ment
S ect
es lint
ed ral
Ġ' *
ĠO li
size i
L oss
ĠS ent
Heading Color
A J
L aw
Ġinter sects
and al
node Name
lo re
Ġinflu ential
s ink
R ating
lass ical
/ @
ul ous
pre ced
ick s
UNK NOWN
Ġintersection s
symbol s
Print f
PHP Parser
Ġs ens
ĠH essian
Ġimp lication
ĠCh ain
ĠCar l
Ġ}} </
Ġc ob
B st
rect angle
Ġland s
22 3
M il
Ġan xi
ĠMet adata
Ġag enda
Ġdriv es
tw ist
< $
Syn chron
Ġdep icts
i ang
k p
Ġw aters
ĠR ate
Ġsub script
Ġm ales
Ġattack ed
ropol itan
Ġin sufficient
Ġ* =
ĠH aving
Ġstr uck
30 6
S ensor
Ġse eds
ĠS el
app ropri
Ġpush ing
M U
Ġev id
Ġtalk ed
asympto tic
ME TA
Ġvirt ue
ä ¹
Ġmand atory
github usercontent
el rte
ĠRo berts
W D
ĠL F
Des erial
Ġprac tically
Y ang
SET T
Ġaccommod ate
66 6
ĠConsider ing
ifi able
Ġisol ate
m og
sp lice
ĠK err
scal atest
li on
per ience
Ġinsp iration
ĠBay es
ost ream
Ġwork space
Target s
ĠâĨ Ĵ
ac qu
combin ed
ĠN ature
ĠS n
+ }$
a tility
ĠF ields
inter acting
Tool Strip
ĠCred it
r at
ĠT D
)= {\
G it
log ue
è¡ Į
jec ta
re si
STRE AM
ĠDiag nostic
Ġ ub
22 7
Ġfail ing
h b
ĠRes erved
}| _{
Ġdeli ber
Ġ( &
æ Ń
por ter
E A
Ġ& :=
Serial ized
................ ................
Ġcere mony
c it
}& =\
ĠP od
nice frac
my Item
o les
ER O
Ġiter atively
z ech
Ġdi amond
A nt
Ġ )}
Ġappoint ment
Ġman agers
Ġte tra
Ġconduct ing
Ġdiscus ses
Ġres ident
ĠTem ple
P RL
6 25
Get Value
Inf os
L int
Pro ducer
\ .
ĠCom parison
Ġfem ales
Ġl augh
hol m
G lob
Mich ael
S orted
ĠC ra
p arents
ĠG NU
ĠPr ice
Mon o
s ers
ĠI SO
Ġacc ounted
ho ff
de e
-> ]
Ġreti rement
P lugins
ĠU kraine
Ġhyper plane
form atter
ĠSci entific
Ġsupp lies
in div
m outh
Inter pol
Ð ³
Ġg lyphicon
^- _
Ð°Ð ´
ĠWIT H
Ġanaly se
May be
si le
DE SC
ĠRem ote
); \
Ġch aos
po les
co ol
j amin
es tr
Ġun biased
Ġmatch er
estimate s
$ }{
}. \]
ĠS av
ĠE L
ĠK ol
Call able
Ġspeak ers
H ierarchy
ĠHamilton ians
band s
complex ity
Ġanomal ies
ĠM atter
ĠU pper
Ġinten sities
g ences
Ġl iv
"> [
Id le
Ġmultip ly
W L
]{ $\
c id
b age
Ġun seen
Ġide mp
ab ri
ĠProp Types
glu on
ĠJ am
At omic
Lin ux
3 90
ĠP or
Ġdefe ated
m ill
ĠB rad
ĠThe me
mark ed
ding er
Http Servlet
INTERN AL
L IMIT
Ġt rem
Ġso il
29 5
Z h
ĠB ranch
}[ {\
ene z
Ġcolor ing
Ġhol iday
x ies
Ġprog ressive
de b
Ġn umpy
ĠRegion al
Ġes c
i op
Ġ{ *}
}. \\
inter section
}+ (
ĠStr ategy
Ġengine er
datas ets
sh rink
win ning
B oss
bar a
- "
H N
termin al
W all
domin ated
sh ader
ĠSub section
Ġtransp arency
! }\
Ġv el
U IT
ter ed
}) )\
Ġsepar ator
network s
G l
ĠHy per
Mar shal
ĠL anka
Ġat titude
Ġdu ties
} ">
assert Raises
ĠP rep
r hs
Ġsu ited
Ø§ ÛĮ
W IDTH
ĠHel per
'] [
ĠDis tribution
ĠG A
att ack
Ġc iv
p rac
ĠU TF
I FT
). \]
Ġdip lo
Ġs f
}^* \
Named Cell
Ġholog raphic
P unct
ys cale
30 5
Ġrect angular
op tical
Ph aser
user Agent
Ġliter ary
Instance State
Ġquas ars
Ġy r
ĠD ick
Ġlept ons
^- (
J e
ĠComp ared
ĠW R
dec imal
dig est
ĠFr ont
o sition
ug o
, âĢĻ
ĠB ou
co ord
Propag ation
j ac
Ġbe an
C rypto
mic ron
ĠId entity
Ġexem pl
Un expected
ĠB atch
ĉĉĉ čĊ
Ġen compass
Ġg ift
ĠMiss ouri
= |
ar abic
y ard
33 7
... "
Ġslo pes
L ip
Ġthe ta
il inear
Ġtw in
Ġinj ured
ĠE R
chem ical
C am
Ġsp ots
Ġref ere
bb on
Ġpolytop e
Ġre jection
ĠA gent
ox ide
Ġcryst als
C ut
Ġsh ifting
Spec ific
IFI ER
Ġmin ds
si bilities
ĠG un
work space
ĠY ears
23 9
Real m
Ġmaxim izing
M AT
Ġdie lectric
4 20
P IN
Ġ'/ '
B ol
Ġshort cut
Ġho oks
OB J
{\ '
Ġcon es
du ality
az a
or ry
ĠRe ynolds
Writ able
s x
ĠComm ons
ĠZ one
ĠGR B
b ower
\,\ ,\
æ Į
Ġde gradation
ĠW IN
Ġun necessary
)) _{
S y
Ġtool tip
K nown
icon duct
i ri
conn ector
b R
Rem oved
center ed
C y
P lain
ou ville
}' (
St amp
**************** ********
m arg
ĠC B
ĠO pp
Ġtra il
Dis pose
Ġn eck
Ġnav igate
Ġazimuth al
C urrency
Ġc line
os is
Ġchair man
] ):
m ol
ĠH RESULT
separ ated
ĠS ources
Ġprom oting
ĠResource Manager
Ġaccum ulated
ĠD ise
default Value
ĠOper ations
A pril
Ġre size
ĠD am
Ġiniti atives
< -
x si
}, $$
Ġc able
Ġelse if
=" .
ĠA u
Call ing
ĠMan chester
Ġburn ing
C ENTER
Ġb esides
ĠSchool s
Ġpen et
ĠH IV
ĠĠĠ čĊ
ty pec
ex clusion
U nd
ol utions
}\ {\
ĠG ate
set Name
M ARY
ĠId entif
Ġ( @
```` ````
19 43
pre duce
output s
Ð» Ñı
pur ple
ÑĨ Ð¸
Ġm b
col One
ĠEx pr
table View
aaaa aaaa
Ù Ĭ
Ġi put
Ġpl acing
"> {{
ey er
Filter Database
M utex
ĠCom pton
Ġpre d
lec tively
ĠE nt
Ġ$ *
radi ation
on z
Ġres idence
FAIL URE
et z
Ġpric ing
WIN DO
ĠA z
G LOBAL
Ġto y
Ġinter stellar
asym p
box es
Ġcre di
triang ler
ĠR ole
25 7
raw ler
Ġg ro
ĠS ho
ĠU pon
ath ers
ĠThrough out
wh eel
pm d
L ANG
author ized
Bound ing
19 46
Ġrec urrence
EX CE
Ġannounce ment
c T
ĠT M
ĠI ce
ĠS r
+ {
Ġv endor
Ġspecific ations
om on
Ġde duced
f u
Ġfor bidden
gather ed
H B
ac ute
ĠSt adium
ti sts
Ġt m
Ġsyn chrotron
Red uc
le ans
sc ar
ĠSch olar
Ġdiag n
ĠUs ers
ogen ous
ĠR ank
Ġec osystem
S and
b ubble
Ġsw iper
L t
d os
ant on
ab bit
Ġde mo
ĠD b
25 2
est ment
ij ing
A ds
}\ }$,
ĠB urn
b ac
un used
Ġ. \
W C
Ġ? ></
MO VE
worth y
Ġs quad
ĠC MS
O uter
in ating
}) |
Hash Code
F lex
Ġlif es
Ġ titled
c rop
track er
Ġmonot onically
x FF
Ġconfir mation
el if
BU F
3 70
Ġrun Test
ox el
Ġemploy er
ĠExec ution
ĠR ules
Ġtrig gers
ring e
ĠL A
ĠPoli tical
Ġi ps
Ġlegis l
Ġend owed
Out come
ĠF F
assert That
measure d
P rior
Sp atial
Ġbifurc ation
å Ģ
LE X
ĠCon versely
Ġmultip lying
ĠB etween
Ġattr action
Coll ision
macro def
ĠK elly
Ġpro poses
ĠM ars
Key Value
Ġes lint
Ġinvest ments
J av
ĠK h
Ġtor que
å ¾
ĠB os
2 18
2 17
oc cup
search Box
Ġjuris diction
ĠLaw rence
Fig s
Ġaccompany ing
Ġb es
ĠQ R
Ġelect roweak
Ġbit map
Ġl ingu
ĠC reek
ĠP DE
EN S
Ver sions
) `
ExternalProject Path
>: <
Ġsch olars
vis ory
33 5
or able
tr u
photon ui
-- ">
ial s
Ġve get
d S
Â ©
st udent
orange hill
orangehill dev
V k
ĠT ennessee
Ġn u
Ġfeas ibility
åĲ į
Ġprepar ing
Ġdiv ides
re pr
im an
PO M
ĠLo oks
Ġfore ver
dete cted
:: ~
class Frame
Bo ard
ĠUS B
J une
c O
Ġc ot
ĠM SE
3333 33
ĠImage Net
h ive
æİ ¥
e i
Ġcampaign s
ĠCho ose
Un ary
b ine
Ġperson ality
Ġlegiti mate
po thesis
pr ising
m irror
E scape
< '
f oundation
un es
erc ise
ĠSV G
Pl ane
tim ore
Ġab ort
RE L
ĠAr gent
Ġ} }\
ĠD WORD
Aggreg ation
linked ExternalProjectPath
t ens
Ġ" *
Clo sure
Ġfol k
U no
] }{
Ġview port
ĠJ ason
/* .
) }^{\
Ġcon verse
pop ulation
abel ian
6 50
Sh utdown
åı ¯
2 99
ĠZ ero
Comp uter
BY TE
ĠSt udents
ec tic
ĠF ake
Ġmod est
ĠAUT H
ĠAr k
ĠEnter tainment
Ġend l
i est
conj ug
ĠAnth ony
Ġde x
Ġapproach ing
ĠLag range
Ġcompact ness
Foreign Key
Ġ` $
Dete ction
Ġsub class
]{ .
ec ke
um mer
Ġdepart ure
ch ed
ĠAl abama
Ġw eren
N evertheless
y ield
Ġper f
Ex ceptions
Byte Buffer
Ð¸ Ñģ
Sp acing
NAME SPACE
lu ent
m oving
Bind ings
St roke
78 9
Match ers
K HR
subNav List
ĠM ut
dist inguish
Ġmiti gate
ch ip
Fl ash
Ġoff ensive
ĠMin or
Ġassign s
ĠSaf ety
ĠThom pson
G rant
ĠE uro
S ugges
ĠAm endment
Ġro of
ĠM AC
Qu antity
register ed
CON TEXT
Un supported
in ria
Ġ ride
} ].
Ġs ons
ĠGr ass
bour ne
Ġgr ab
A ware
he im
Ġmed al
GL uint
starts With
ĠG ard
dis tributions
Ġsupp orters
Ref s
Q Name
all ing
Display Name
B UT
iz ability
Buffer ed
Ġwe aring
Incre ment
m essaging
s mo
}} :
ME DI
ĠPer iod
ĠAuth ors
ĠDirect ory
F und
ĠH S
ĠCent ury
un set
G overn
l ighter
Fin ish
Ġenumer ate
Ġproble matic
AUT O
ins ky
Ġa ud
ee ded
ĠT LS
Result Set
US H
Ġf iscal
19 17
22 8
Ġneighborhood s
ull er
32 4
pro per
re tt
cross ing
Ġr ush
Ġf leet
Ġhor se
Ġfac et
27 1
Ġconvex ity
T CP
Ġse aled
mar shall
w ml
ĠF ive
ĠD ist
az ard
Ġti ssue
/ ************************************************************************
Ġ\! \
Ġconjug ation
Ġeth nic
ĠD iff
Ġabstrac tion
)= (\
Ġtranslate X
ĠP UR
Ġtyp ed
sur faces
ĠPack ages
w estern
~ .
Ġtr usted
ĠChrist opher
accur ate
loc ated
g old
N or
Ġrandom ness
è¡ ¨
âĢĿ )
Ġsuper gravity
Ġin formative
Inher ited
ĠAt lanta
})$ -
Ġmaxim ally
ĠL D
ach i
} ]{
Ġti les
c X
ĠWh ich
24 6
ĠL yn
Address es
ĠHigh er
ĠCall back
Inter action
Ġaug ment
ĠTok yo
Ġun used
Ġab c
3 15
Ġsur rogate
Ġle gs
ab ar
Pro cedure
Ġcoal ition
Ġsp ike
in el
Ġ" ../
(" {
tes y
pattern s
ma preduce
cho ices
Ġparticip ated
ĥ ½
se ment
lb rack
ĠHow ard
f ather
ĠUn supported
Ġgo og
}+ {\
ĠH odge
ET A
ĠAPI s
Ġp ra
skip Nav
ĠF ormal
cont rollers
n th
ĠM ountain
> ".
Ġlif ting
Ġprim ordial
ĠSQL Exception
Ġpolitic ian
Ġs napshots
ent ric
DE C
Aggreg ate
26 2
ide a
ond o
Ġdisc s
Ġign oring
collection s
Ġdemoc ratic
Ġrein forcement
odrom y
Un fortunately
: \\
c B
å ·
Ġo m
Ġpro motion
Ġu id
Ġob servers
vi ate
FIL TER
Th umb
ĠC op
Ġaf ternoon
en ium
Ġent rance
ill ance
Ġweb sites
observ ations
b az
ĠS lo
Ġtend ency
ĠDef aults
LI ED
Ġagric ultural
æ³ ķ
ĠA verage
Ġextract ing
Qu ota
æĸ ¹
Ġtranslate Y
v w
andid ates
ĠSp irit
Ġde coded
To Array
Sc enario
Ġadop ting
ãĥ Ī
å ¸
20 48
tr ad
Ġj un
Ġup stream
è¦ ģ
Ġf lood
ĠF T
Ġco ffee
E instein
data Type
th a
'' \
Ġsusp ended
ĠS ex
Ġbeg un
Ġund ers
& -\
th y
Cover age
op eng
upp et
'' }
ĠTri b
Act ual
Ġ è
in ely
und o
p index
Out Of
Ġver b
Ġtran sitive
ĠDe te
clean up
da o
Ġpe tition
tes ted
ĠMon th
Key words
ĠPoli tics
ann y
Ġed u
SV G
Ġv archar
Ġp df
åĬ ł
{ ``
si vity
B LE
Ġ ^\
* -
Ġpro mp
ĠAl liance
ĠAss istant
" ):
ak s
re ve
de ad
in side
Ġinv olution
Ġincredi ble
ĠE valuation
ĠSwed en
signific ant
@ {-
Ġcri tics
mut ation
thin space
Ġposi tively
ĠG it
triangler ight
ĠVAR CHAR
t up
å ī
ous es
Ġexclu ding
Fin ite
ĠMon o
ĠK L
INST ALL
n h
b lo
bra ins
ĠM g
Ġsimple x
al bum
Ġc trl
Op acity
ĠRo om
ĠD og
m ong
T K
start ing
Ġt c
Ġ\\ [-
}}$ }
ĠPer haps
jp eg
Ġloc ate
Hash Set
C MS
Ġcomple ting
ĠM LP
op les
Ġs cre
Ġpar king
Ġpre view
ç ī
Ġv ocabulary
P or
S us
Ġdrop down
osc ill
N an
ĠMuslim s
ĠAust in
. %
ĠK B
ĠH AVE
> ?
Ġex otic
mm ode
Ġprac tition
24 3
)( -
ĠRec ent
rb an
^{* }$
illa ume
ĠMC MC
Ġrep lication
Ġfil ament
Ġvol atile
bro ken
List Item
b mp
ĠIn dependent
Ð°Ð½ Ð¸
c S
}}$ )
Bel ow
ĠC ancer
thumb nail
ke ley
do xygen
de le
so lete
lin eno
ĠMex ican
ĠBlo ch
ĠW igner
ues ts
44 4
gate way
ierarch ical
f are
ig g
Ġres il
Ch rist
sc apes
Ġsmooth ly
Ġprison ers
TERN AL
as se
ed ding
oc on
cyc les
ĠB B
Ġen de
[] [
ĠArch itecture
H V
z ar
Ġgovern ance
Scale Denominator
list eners
Ġappreci ate
tic ing
ĠR on
Ġun icode
Ġcomp ress
Ġcharg ing
æķ° æį®
æĪ Ĳ
sp read
^* )$
ĠAltern atively
ion ic
cap tions
Ġnever theless
Ġ_ ("
Ġpredic tor
æ ģ
Ġchampion ship
0 35
Action Bar
Ġpeculi ar
D X
Ġsh ots
Ġbo at
f its
Ġoutper form
S ING
Ġch ronic
ĠFor ces
less ly
4 95
B lo
b ic
As sertion
Ġliter ally
Z ip
Ġconf ident
ĠF ed
CK S
30 7
R oll
er ase
model Version
sl ides
Ch ars
ĠĠĠĠĠĠĠĠĠĠĠĠĠĠĠĠĠĠĠĠĠĠĠĠĠĠĠĠĠĠĠĠ ĠĠĠĠĠĠĠĠĠĠĠĠĠĠĠĠĠĠ
Ġasser tions
polar ized
Ġweap on
k ubernetes
Ġref ine
GL enum
LE ASE
ĠGu ard
Ġp kg
get Int
libr aries
ĠLem mas
Ġadmin ister
wide text
prov iders
Ġv a
}. )
element Name
Ġconstitution al
F ault
ĠTh er
ĠĠĠĠĠĠĠĠĠĠĠ Ċ
Ġsp oken
ĠU C
M i
g ms
sh utdown
ven ues
ĠCO MP
}\ |^
Comp ile
Ġminim izes
Å Ļ
ĠS ame
Ġma c
Ġ* (
Ġ[ ])
^+ _{
ĠLe aders
Ġre lic
ĠPriv acy
Ġe jecta
Ġper spectives
ĠS DL
ĠConn ect
Ġanalys ed
m usic
Ġ ib
[-> ,
ĠS imp
24 4
ĠInt roduction
U tf
Ġ{ &
Ġcoun ted
if mmode
Ġbl ur
Ġvacc ines
C ES
SPH INX
Ġmain stream
X amarin
Ġf ibration
cloudf lare
ĠM un
Bound ary
3 12
B u
F ran
K G
tr ap
Ġl it
ĠC LI
Ad just
Ġresource Culture
ĠChair man
oher ence
ac ci
Ġsurv ived
I de
}\ ;\
Ġrating s
c R
IT NESS
Ġintegr and
Ġmul tim
Ġaxi oms
ak en
}^{ +\
pr imitive
Y N
Ġ' ');
Ġsc ulpt
Pa per
Ġsimpl ifies
/ ,
T IM
ĠSt udio
^* =
see k
Ġdemonstr ating
SY S
ĠU ri
++ ]
Fat alf
R ULE
Ġresource GroupName
Ġacknowled ged
DE CL
Ġmon oidal
ĠCalc ulate
Ġanticip ated
Ġion ized
ĠM ir
B ob
Ġrep lica
ĠBo y
charg ed
ĠM oscow
Ġ" __
(' -
" \
Ġfound ing
... \
ĠEqu ations
ĠInv estig
ĠM ix
mu ted
in fer
to on
Ġheight s
Ġsort ing
ãĤ ĭ
ĠSk ip
Ext ent
Enumer ator
)} |
Ġclip board
D ifferent
ĠM ail
Sh ard
Ġtw elve
Ġwatch ed
ĠKent ucky
x d
ĠO regon
B an
Ġsurprising ly
gh ost
callback s
ll a
Ġs z
ol en
Ġ[] *
ĠRE ST
IL S
C ube
it ored
determin istic
set Property
Ġknot s
ĠC er
ĠAl bert
Ġpop up
ĠStart ing
ĠA mb
Con ditional
AR S
Lay ers
Sec ure
ĠMy r
Ġconcaten ation
LAB EL
acknow ledge
i our
ĠS EC
Ġtriple s
Ġensemble s
vers arial
View port
LA ST
Ġ} ^{\
un ist
Match ing
sch eduler
Ġavoid s
Mac ro
\ )-
q i
Ġo ps
Ġat tained
Ġorig ins
z u
ĠSpec ifies
g rowth
Ġtag ged
: {\
t une
Ġi OS
( _.
ĠOpen SSL
ĠA gric
ĠR A
M ATCH
Ġstr len
IN CLUDE
ĠThrow able
F X
v l
}} }_{
dir ty
Ġ"/ "
ĠB ry
Ġ' ;
sh oot
un safe
cccc c
Ġextrapol ation
=' #
Ñ į
\{ (
DA O
prof iler
Ġenth usi
Ġl ifted
ĠB us
0 27
ĠC WE
ĠEx ternal
Rep orter
Ġaggreg ated
ur ance
M irror
Ġsudden ly
SY STEM
d ll
ĠS plit
Ġminim ized
}} )$,
trans formation
w g
in ery
ĠCon jecture
Ġdemand ing
Ġoccasion ally
ĠB in
Type Def
DD IR
ĠPre vious
target s
In ventory
)\ |^
O H
Ġr t
Ġphot ography
Ġminim izer
29 6
enc rypted
8 85
ĠS VM
Ġenc rypt
I ts
Ġarg c
conv olution
Ġk a
sh ock
ĠCombin ing
ĠCon struction
Ġmon ol
end um
Ġex isted
ĠL iver
get Item
At om
openc v
ors es
scri bed
Ðº Ð¸
infra red
ĠM itch
Ġf iring
un til
Ex isting
ĠR aw
$ "
yc ler
Ġres is
Un icode
Ġcompl aint
r us
ĠR NN
Ġenorm ous
PRE SS
Ġserial ize
ĠS PE
er ance
Ġun labeled
Ġnecess ity
Ġcred its
Ġm ari
ĠE asy
nonym ous
$ |\
Ġche ap
mis sed
ĠBe at
La TeX
o val
as pec
Th omas
Ġsur ge
& $\
Ġt weets
Ġma pper
L iving
il lo
Ġper col
ĠAccording ly
cover ed
W ild
Ġc aching
}$ (
Ġplate au
Ġro se
IF ICATION
f q
ĠLab our
ro gen
ĠM echan
con clusions
? ,
ĠG D
Comp act
ne ural
Function al
AL LOW
ĠW idget
sc enario
Ġsp ir
& (
Sm ith
og a
Ġcontroversi al
Ġch ir
as cii
Ġher itage
ik h
Comp ilation
ĠU INT
Ġautom aton
ĠM M
ĠQue ue
Un defined
ĠW D
ĠK os
Un install
tri ple
Initial izer
Gu ide
C are
Ġcol lapsed
Ġstack ed
Ġin duc
ak ers
Ġemp loys
Ġthe ater
ĠS witzerland
.} ~\
or on
ĠS ort
it ational
Ġf li
Ġ$\ #
ĠI mag
Lock ed
C e
S PI
ĠC la
ĠH otel
Ġobst acles
Test Metadata
l hs
Ġon mouse
Ġdi am
! \!
ĠPro gress
lad esh
String Value
Ġcor rupt
add All
Ġfranch ise
U ng
Pa ul
Transl ate
L ater
Ġin verted
ĠM erc
get All
tem ark
)) ^{
Ġsurv iv
ĠIo T
air line
Manager Service
ĠChar lie
Ġ Ñĥ
Ġsh el
Ġdis advan
Ġvalid ator
X R
Ġmask ed
Ass ets
Trac ing
Compar ing
mod ern
Channel s
Ġsp rintf
ĠFIX ME
D ump
XXXX XXXX
25 9
ĠRes erve
ĠP CA
squ ares
un ning
Ġswitch es
Ġrenormal ized
ĠT CP
}^* (
Ġorbif old
ĠC el
ĠG ir
ĠGe o
Ġingre dient
bitr ary
E B
IN LINE
ĠGL uint
b ag
Ġsupp lementary
CUR RENT
merc ial
ser tions
Ġbur sts
re levant
Ġdo ors
P ick
pret tify
F lo
Ġimmig rants
}} ),
Ġaband oned
ld er
WI SE
propag ation
ĠD etermin
ĠReg Exp
cdn js
Ġg rammar
ug gest
ense m
Ġviol ating
M ovie
ins ki
approxi mate
Ġt abs
f eld
e lectric
t ension
Ġp d
Ġcom ic
ic ed
Ġst oring
^+ ,
Area Pos
0 17
ro v
Ġx hr
Ġg au
IT EM
ram id
åħ ¥
: ",
âĨ ĳ
Ġcooper ative
en na
ĠT ar
ĠRus sell
uma bly
issi ppi
Ġg ang
Ġtra v
Ġevery body
å¯ ¹
ĠF reedom
Q String
Ġpromis es
_- (
}) ).
Ġcontr as
ĠDo ppler
3 64
J uly
Ġkn ock
Inv ariant
Ġsp urious
ĠFile s
rop ies
Ġpossess es
c andidate
Acc eler
Ġf ocal
25 8
Ġback wards
Ġsearch ed
V B
dis per
Ġgrid s
Ġrescal ing
ĠG EN
Ġab road
sql ite
Rec ogn
IB LE
ä½ ¿
for k
Sc anner
Ġdir ty
ĠWal ker
Ġrad ar
Ġc ler
ST AMP
ĠCap tain
x hr
Sch warz
Ġperson ally
Ġp iano
,\ ,\,
ĠDown load
re nd
ĠH erm
AN Y
bas elines
FILE S
Ġ$ ('
Ġ[ _
Ġd oping
Ġciti zen
BUIL DDIR
ĠWork ing
ĠS oc
Ġpo etry
Ġget Name
] "
ĠGener ation
ĠC over
40 8
ĠArch ive
) &=&\
ĠO t
hat tan
ĠM ission
an other
ev ol
ĠOper ator
non linear
G ro
ĠF er
thod ox
d R
de comp
Wh ich
ĠPre dic
dev ices
Pers istence
28 6
able View
Ġ$[ -
Ġellip tical
Ġanc estor
j om
(' _
CCCC FF
ers tein
ĠE dition
)\ }_{
Ġmonotonic ity
ĠD T
Ġrec ipe
Ġless ons
Ġ{} ",
ĠRel ig
ĠChristian ity
Property Changed
un wrap
Ġdes criptors
Sto kes
et ric
=\ {\
pr incipal
erm ine
Tem plates
ĠBoot strap
in ch
FUN C
ob tain
Ġcont amin
K ar
Ġn utr
acc um
g om
port let
Ġti e
ĠC UR
d q
Analy zer
Ġflav our
ĠF act
X Path
at um
ĠU int
Ġorient ations
P referred
ĉĉ ĠĠ
pro g
Ġrecon c
Ġcon duction
Ġ& (
åĪ °
/ ~
Ġb ump
get Path
th ose
Ġproduc ers
Ġannih il
at in
ĠA CT
Ġro unded
ĠExp ress
Ġmodify ing
Ġcelebr ate
ĠI B
Ġst uck
Ġuser Id
ather ine
Ġeconom ics
tigu ous
er ce
Ġconsum e
magn itude
la homa
ĠComple te
ho enix
oss il
ĠHer itage
Ġbott leneck
pro blems
Ġshe aves
Ġpass engers
ĠP ick
des ktop
ill ary
ul li
Ġprevent ing
p zc
Ġport al
Ġchurch es
ĠCont inu
ĠA vailable
em ale
v u
: _
Ġc am
fl avor
Ġ ------------------------------------------------
op lan
ĠM AP
ph ic
ĠN ob
= #
] |
Ġover se
Ġgu ided
ĠB og
ĠAnd re
fr as
ys on
Ġexp enses
ĠT C
T abs
Ġsub stance
/ ',
, ''
g rant
J K
ç §
pl aces
publish er
ĠD VD
ĠIn sert
ĠU rl
ĠSm art
S ibling
}] $,
allow s
Ġrenew able
is EqualTo
RE PL
t ro
Ġper pet
ĠB ishop
ä¸ ĭ
h is
D ummy
c yl
bench mark
F H
jav ac
IM O
Ġc pu
ĠE pis
ĠO wn
Ġgr ass
our t
Ex tractor
Ġsec ular
Ġprob es
Ġmk dir
Scal ing
Ġmark up
J P
ĠH um
arg min
im ize
19 15
Ġescap ed
s amp
ĠQ ual
Ġfund ament
exec utions
Ġdead line
ĠD ave
Ġansw ered
Ġtick ets
exp ects
w ers
Ġre dd
all ine
Ġafter wards
Ġ ----------------
Ġt v
Ġle ts
ĠJ oint
Q uality
ĠSt at
ĠNS F
ĠE rr
H en
ĠG ulf
Ġlight s
Ġsuccess or
tag on
Ġc of
Ġass ociative
d j
ĠTest ing
ĠS PI
ĠG yr
)) ]
ten ant
ĠSe attle
Dir ty
pro cedure
Foot er
n amely
it ol
Ġdif fraction
ĠU tah
Str ong
Ġseem ingly
Jan uary
g lyph
math pzc
Ġpro tests
6666 66
Ġget ter
strict Equal
Ġiner tial
Ġsh aped
24 2
Ġconcent rate
ĠL en
ĠVi ol
spec s
PRE C
Ter ms
æģ ¯
ex em
Ġdo se
Ġorgan isations
ĠLeg al
{ .}
Ġc rop
O Auth
Ġwe igh
Ġqu iver
Ġb ounce
DO C
memItem Left
er als
web site
ma tive
Pre liminaries
ce u
mt p
V m
24 9
ĠW ol
FORE ACH
Ġcollabor ative
ĠB ottom
32 8
a head
b mod
up grade
Ġinst abilities
Ġlong itude
IP v
Ø§ Ø±
iv o
ĠD al
Ġfree ze
ĠM ask
ĠM HD
exp ress
ctu ation
ĠEconom ics
Ġcom positions
Ġbreak down
Ġdis ability
optim ization
memItem Right
tic ks
ilibri a
Ġearth qu
Ġpar ish
Ġk o
mon o
Ġcla uses
deli very
Y LE
Ġre combination
ok i
Ġsing ing
Ġin ti
ĠA PP
Ġess ence
ve led
Ġpo sitivity
err no
ĠP ope
zh ou
Ġjournal ists
MA SS
Dis covery
^+ $,
\,\ ,
Rest ore
g pu
Ġcompe tit
bo y
Ġsho pping
Ġinvent ory
ho oks
Ø ´
ĠLIMIT ED
unic ode
jet brains
cite alp
defin itions
ĠFe ed
w eg
di p
Ġ@ {
Ġ[ $
Ġpre decess
Ġsc anning
}{! }{\
ĠG ordon
Ġid le
ĠCom Visible
OnSearch Select
ĠJon athan
ĠCast le
x shift
Ġs creens
Ġ( ;
ĠD allas
Ġhuman ity
Cor rect
Tra de
ĠL imited
COM PI
ĠR ick
den oted
recur sive
Ġb less
Ġd ens
Ġj ury
4 60
h k
le ased
}/ {\
A vg
qu ant
ĠTh ings
Ġbro ker
}} |\
ĠD G
tal k
Ġr ub
S Q
Î ³
cap s
Ġb ir
Ġmo on
ĠPhys ical
Ġl p
}, ~\
Ġincomp atibility
ss f
_- $
arch itecture
Ġrespon ded
ĠA CE
ĠH ugh
Ġpass enger
Ġ' __
Ġdou bly
G rad
å Ŀ
Ġd c
ĠB eng
Ġsitu ated
Num bers
ĠOper a
G RE
Ġl ua
St udy
ĠOb viously
alloc ate
Ä ħ
27 9
{ ,}
Ġt a
ĠF unc
app lications
H istogram
Up grade
Ġpsych ological
B ank
ĠL am
Ġ' :
Ġenc odes
Ġback ing
iss ance
Ġar tistic
sp el
ĠPUR POSE
/ </
ĠR and
Ed itable
null ptr
Ġg ross
Ġres ume
- ,
R Q
ass uming
ĠE SP
Ġ================================================================= ========
ap se
ĠUni versal
Th ough
Ġt ank
Ġtable Name
le xi
ĠUn ity
ĠDr ug
ĠMay or
ĠRev ision
rele ases
an ies
si zes
roll ing
Ġf astest
open ssl
++++ ++++
Ġaccept ing
ĠP ad
Exp ress
Ġfar mers
Ġtail s
= ${
Ġg ri
host s
accor ding
rec ogn
ĠE ve
AC L
ĠCirc uit
Ġcovari ates
in strument
qu est
AR GS
Ġfurther more
Ġsil ent
Ġch rome
fore ign
Gener ation
ĠMN IST
ĠM aria
Ġdirect ories
Ġe leg
Ġtermin ated
}| }
Ġsc ans
ĠU L
Ġsurpr ised
ĠF WHM
Ġqu otes
class List
Ġclar ify
19 38
Ġthere of
ĠC ry
Ed ges
Work space
åĽ ŀ
Leg end
Ġsummar izes
ĠD imension
Ġsp ite
max imal
S am
Ġlater al
Ġalter ed
Cont inue
SH ORT
Ġsol vable
ange vin
ĠG M
if ace
^+ }
get Resource
zer os
quad ratic
| )
ĠL ad
Ġqu aternion
Ġpa ired
Ġmon oid
ĠTai wan
ĠB oh
ĠD eg
d ou
ar ts
ĠT IM
ãģ Ĺãģ
i que
ĠM art
Ġcomp ly
Ġapproxim ating
Ġrest oration
213 07
[ (\
[...]
