{
  "version": "1.0",
  "truncation": null,
  "padding": null,
  "added_tokens": [
    {
      "id": 0,
      "content": "[UNK]",
      "single_word": false,
      "lstrip": false,
      "rstrip": false,
      "normalized": false,
      "special": true
    }
  ],
  "normalizer": null,
  "pre_tokenizer": {
    "type": "Sequence",
    "pretokenizers": [
      {
        "type": "Digits",
        "individual_digits": false
      },
      {
        "type": "ByteLevel",
        "add_prefix_space": false,
        "trim_offsets": true,
        "use_regex": true
      }
    ]
  },
  "post_processor": null,
  "decoder": null,
  "model": {
    "type": "BPE",
    "dropout": null,
    "unk_token": "[UNK]",
    "continuing_subword_prefix": null,
    "end_of_word_suffix": null,
    "fuse_unk": false,
    "byte_fallback": false,
    "vocab": {
      "[UNK]": 0,
      "!": 1,
      "\"": 2,
      "#": 3,
      "$": 4,
      "%": 5,
      "&": 6,
      "'": 7,
      "(": 8,
      ")": 9,
      "*": 10,
      "+": 11,
      ",": 12,
      "-": 13,
      ".": 14,
      "/": 15,
      "0": 16,
      "1": 17,
      "2": 18,
      "3": 19,
      "4": 20,
      "5": 21,
      "6": 22,
      "7": 23,
      "8": 24,
      "9": 25,
      ":": 26,
      ";": 27,
      "<": 28,
      "=": 29,
      ">": 30,
      "?": 31,
      "@": 32,
      "A": 33,
      "B": 34,
      "C": 35,
      "D": 36,
      "E": 37,
      "F": 38,
      "G": 39,
      "H": 40,
      "I": 41,
      "J": 42,
      "K": 43,
      "L": 44,
      "M": 45,
      "N": 46,
      "O": 47,
      "P": 48,
      "Q": 49,
      "R": 50,
      "S": 51,
      "T": 52,
      "U": 53,
      "V": 54,
      "W": 55,
      "X": 56,
      "Y": 57,
      "Z": 58,
      "[": 59,
      "\\": 60,
      "]": 61,
      "^": 62,
      "_": 63,
      "`": 64,
      "a": 65,
      "b": 66,
      "c": 67,
      "d": 68,
      "e": 69,
      "f": 70,
      "g": 71,
      "h": 72,
      "i": 73,
      "j": 74,
      "k": 75,
      "l": 76,
      "m": 77,
      "n": 78,
      "o": 79,
      "p": 80,
      "q": 81,
      "r": 82,
      "s": 83,
      "t": 84,
      "u": 85,
      "v": 86,
      "w": 87,
      "x": 88,
      "y": 89,
      "z": 90,
      "{": 91,
      "|": 92,
      "}": 93,
      "~": 94,
      "¡": 95,
      "¢": 96,
      "£": 97,
      "¤": 98,
      "¥": 99,
      "¦": 100,
      "§": 101,
      "¨": 102,
      "©": 103,
      "ª": 104,
      "«": 105,
      "¬": 106,
      "®": 107,
      "¯": 108,
      "°": 109,
      "±": 110,
      "²": 111,
      "³": 112,
      "´": 113,
      "µ": 114,
      "¶": 115,
      "·": 116,
      "¸": 117,
      "¹": 118,
      "º": 119,
      "»": 120,
      "¼": 121,
      "½": 122,
      "¾": 123,
      "¿": 124,
      "Â": 125,
      "Ã": 126,
      "Ä": 127,
      "Å": 128,
      "Æ": 129,
      "Ç": 130,
      "È": 131,
      "É": 132,
      "Ê": 133,
      "Ë": 134,
      "Ì": 135,
      "Í": 136,
      "Î": 137,
      "Ï": 138,
      "Ð": 139,
      "Ñ": 140,
      "Ò": 141,
      "Ó": 142,
      "Ô": 143,
      "Õ": 144,
      "Ö": 145,
      "×": 146,
      "Ø": 147,
      "Ù": 148,
      "Ú": 149,
      "Û": 150,
      "Ü": 151,
      "Ý": 152,
      "Þ": 153,
      "ß": 154,
      "à": 155,
      "á": 156,
      "â": 157,
      "ã": 158,
      "ä": 159,
      "å": 160,
      "æ": 161,
      "ç": 162,
      "è": 163,
      "é": 164,
      "ê": 165,
      "ë": 166,
      "ì": 167,
      "í": 168,
      "î": 169,
      "ï": 170,
      "ð": 171,
      "ò": 172,
      "ó": 173,
      "ô": 174,
      "Ā": 175,
      "ā": 176,
      "Ă": 177,
      "ă": 178,
      "Ą": 179,
      "ą": 180,
      "Ć": 181,
      "ć": 182,
      "Ĉ": 183,
      "ĉ": 184,
      "Ċ": 185,
      "ċ": 186,
      "Č": 187,
      "č": 188,
      "Ď": 189,
      "ď": 190,
      "Đ": 191,
      "đ": 192,
      "Ē": 193,
      "ē": 194,
      "Ĕ": 195,
      "ĕ": 196,
      "Ė": 197,
      "ė": 198,
      "Ę": 199,
      "ę": 200,
      "Ě": 201,
      "ě": 202,
      "Ĝ": 203,
      "ĝ": 204,
      "Ğ": 205,
      "ğ": 206,
      "Ġ": 207,
      "ġ": 208,
      "Ģ": 209,
      "ģ": 210,
      "Ĥ": 211,
      "ĥ": 212,
      "Ħ": 213,
      "ħ": 214,
      "Ĩ": 215,
      "ĩ": 216,
      "Ī": 217,
      "ī": 218,
      "Ĭ": 219,
      "ĭ": 220,
      "Į": 221,
      "į": 222,
      "İ": 223,
      "ı": 224,
      "Ĳ": 225,
      "ĳ": 226,
      "Ĵ": 227,
      "ĵ": 228,
      "Ķ": 229,
      "ķ": 230,
      "ĸ": 231,
      "Ĺ": 232,
      "ĺ": 233,
      "Ļ": 234,
      "ļ": 235,
      "Ľ": 236,
      "ľ": 237,
      "Ŀ": 238,
      "ŀ": 239,
      "Ł": 240,
      "ł": 241,
      "Ń": 242,
      "ĠĠ": 243,
      "ĠĠĠĠ": 244,
      "th": 245,
      "in": 246,
      "on": 247,
      "er": 248,
      "Ġa": 249,
      "re": 250,
      "Ġth": 251,
      "ti": 252,
      "en": 253,
      "Ġthe": 254,
      "or": 255,
      "al": 256,
      "Ġs": 257,
      "te": 258,
      "Ġc": 259,
      "is": 260,
      "le": 261,
      "ĠĠĠ": 262,
      "ar": 263,
      "tion": 264,
      "an": 265,
      "ĠĠĠĠĠĠĠĠ": 266,
      "es": 267,
      "Ġo": 268,
      "Ġ\\": 269,
      "Ġf": 270,
      "Ġt": 271,
      "Ġp": 272,
      "Ġw": 273,
      "Ġ$": 274,
      "ro": 275,
      "ing": 276,
      "de": 277,
      "at": 278,
      "as": 279,
      "Ġin": 280,
      "Ġb": 281,
      "Ġof": 282,
      "nd": 283,
      "et": 284,
      "ma": 285,
      "ic": 286,
      "ac": 287,
      "ed": 288,
      "ig": 289,
      "am": 290,
      "it": 291,
      "el": 292,
      "ent": 293,
      "st": 294,
      "Ġand": 295,
      "Ġto": 296,
      "ou": 297,
      "Ġm": 298,
      "ec": 299,
      "Ġre": 300,
      "Ġd": 301,
      "Ġn": 302,
      "ation": 303,
      "om": 304,
      "Ġh": 305,
      "ĠĠĠĠĠĠĠ": 306,
      "{\\": 307,
      "Ġ=": 308,
      "Ġ(": 309,
      "ol": 310,
      "Ġe": 311,
      "ate": 312,
      "il": 313,
      "Ġis": 314,
      "ur": 315,
      "čĊ": 316,
      "lo": 317,
      "tr": 318,
      "ĉĉ": 319,
      "id": 320,
      "qu": 321,
      "</": 322,
      "ul": 323,
      "ab": 324,
      "ce": 325,
      "se": 326,
      "im": 327,
      "Th": 328,
      "_{": 329,
      "=\"": 330,
      "um": 331,
      "ge": 332,
      "Ġfor": 333,
      "ot": 334,
      "ve": 335,
      "ra": 336,
      "ver": 337,
      ");": 338,
      "if": 339,
      "ch": 340,
      "si": 341,
      "Ġg": 342,
      "--": 343,
      "ĠS": 344,
      "Ġ$\\": 345,
      "un": 346,
      "ly": 347,
      "Ġ<": 348,
      "Ġl": 349,
      "Ġ{": 350,
      "end": 351,
      "Ġcon": 352,
      "ter": 353,
      "Ġv": 354,
      "ad": 355,
      "us": 356,
      "ht": 357,
      "ith": 358,
      "math": 359,
      "Ġthat": 360,
      "ĠĠĠĠĠĠĠĠĠĠĠ": 361,
      "Ġ&": 362,
      "ĠC": 363,
      "ut": 364,
      "Ġon": 365,
      "ĠA": 366,
      "ri": 367,
      "ass": 368,
      "eg": 369,
      "ph": 370,
      "//": 371,
      "ta": 372,
      "ĠI": 373,
      "Ġde": 374,
      "ite": 375,
      "ow": 376,
      "Ġ*": 377,
      "res": 378,
      "}\\": 379,
      "The": 380,
      "Ġbe": 381,
      "xt": 382,
      "Ġas": 383,
      "pp": 384,
      "cal": 385,
      "ref": 386,
      "ub": 387,
      "Ġwh": 388,
      "}$": 389,
      "Ġpro": 390,
      "Ġ}": 391,
      "ir": 392,
      "ame": 393,
      "^{": 394,
      "Ġwith": 395,
      "ode": 396,
      "od": 397,
      "ĠĊ": 398,
      "ine": 399,
      "sp": 400,
      "\">": 401,
      "Ġal": 402,
      "lass": 403,
      "ts": 404,
      "Ġan": 405,
      "ight": 406,
      "op": 407,
      "ure": 408,
      "ction": 409,
      "20": 410,
      "ue": 411,
      "and": 412,
      "ĠM": 413,
      "li": 414,
      "Ġwe": 415,
      "ĠĠĠĠĠĠĠĠĠĠĠĠĠĠĠĠ": 416,
      "ere": 417,
      "ew": 418,
      "ay": 419,
      "per": 420,
      "ted": 421,
      "Ġex": 422,
      "ment": 423,
      "}}": 424,
      "Ġst": 425,
      "ity": 426,
      "pe": 427,
      "ĠP": 428,
      "ess": 429,
      "di": 430,
      "Ġby": 431,
      "(\\": 432,
      "ĠF": 433,
      "ore": 434,
      "ĠĠĠĠĠ": 435,
      "âĢ": 436,
      "rac": 437,
      "Ġcom": 438,
      "egin": 439,
      "Ġare": 440,
      "Ġ\"": 441,
      "ct": 442,
      "tic": 443,
      "Ġthis": 444,
      "ĠB": 445,
      "able": 446,
      "rom": 447,
      "begin": 448,
      "()": 449,
      "ty": 450,
      "ect": 451,
      "our": 452,
      "ĠR": 453,
      "up": 454,
      "em": 455,
      "ĠL": 456,
      "text": 457,
      "age": 458,
      "ist": 459,
      "ĠThe": 460,
      "Ġor": 461,
      "ers": 462,
      "tim": 463,
      "ĠD": 464,
      "ĠT": 465,
      "..": 466,
      "**": 467,
      "Ġit": 468,
      "ĠH": 469,
      "urn": 470,
      "Ġclass": 471,
      "_{\\": 472,
      ")$": 473,
      "ap": 474,
      "equ": 475,
      "iz": 476,
      "In": 477,
      "ĠN": 478,
      "sion": 479,
      "oc": 480,
      "Ġat": 481,
      "for": 482,
      "Ġif": 483,
      "}{": 484,
      "ĠE": 485,
      "ĠW": 486,
      "eta": 487,
      "par": 488,
      "==": 489,
      "lic": 490,
      "Ġma": 491,
      "ort": 492,
      "os": 493,
      "con": 494,
      "Ġ-": 495,
      "},": 496,
      "int": 497,
      "imp": 498,
      "right": 499,
      "ran": 500,
      "est": 501,
      "ke": 502,
      "frac": 503,
      "Ġfrom": 504,
      "----": 505,
      "lu": 506,
      "Ġsh": 507,
      "turn": 508,
      "00": 509,
      "ft": 510,
      "cite": 511,
      "ack": 512,
      "abel": 513,
      "eq": 514,
      "to": 515,
      "ĠG": 516,
      "ase": 517,
      "ign": 518,
      "av": 519,
      "Ġch": 520,
      "ff": 521,
      "get": 522,
      "ace": 523,
      "})": 524,
      "ag": 525,
      "ile": 526,
      "Ġ'": 527,
      "all": 528,
      "fig": 529,
      "ata": 530,
      "low": 531,
      "Ġ+": 532,
      "ĠĠĠĠĠĠĠĠĠĠĠĠĠĠĠ": 533,
      "ach": 534,
      "ld": 535,
      "ib": 536,
      "ps": 537,
      "ave": 538,
      "Ġle": 539,
      "are": 540,
      "iv": 541,
      "unction": 542,
      "label": 543,
      "Ġsu": 544,
      "mathb": 545,
      "ys": 546,
      "ther": 547,
      ",\\": 548,
      "Ġpar": 549,
      "ich": 550,
      "ple": 551,
      "ser": 552,
      "str": 553,
      "ated": 554,
      "Ġcan": 555,
      "tem": 556,
      "tive": 557,
      "pro": 558,
      "ary": 559,
      "ence": 560,
      "Ġu": 561,
      "Ġus": 562,
      "pl": 563,
      "ection": 564,
      "com": 565,
      "Ġy": 566,
      "ype": 567,
      "alue": 568,
      "$,": 569,
      "rm": 570,
      "ber": 571,
      "nt": 572,
      "$.": 573,
      "ĠO": 574,
      "Ġsp": 575,
      "Ġnot": 576,
      "ill": 577,
      "ds": 578,
      "ant": 579,
      "ations": 580,
      "og": 581,
      "ult": 582,
      "mathcal": 583,
      "Ġ[": 584,
      "ener": 585,
      ").": 586,
      "ĠTh": 587,
      "Ġr": 588,
      "Ġ//": 589,
      "left": 590,
      "equation": 591,
      "}.": 592,
      "),": 593,
      "tial": 594,
      "../": 595,
      "cc": 596,
      "Ġ</": 597,
      "tions": 598,
      "du": 599,
      "ĉĉĉĉ": 600,
      "201": 601,
      "ell": 602,
      "Ġreturn": 603,
      "row": 604,
      "->": 605,
      "ss": 606,
      "ang": 607,
      "pt": 608,
      "set": 609,
      "til": 610,
      "ource": 611,
      "ind": 612,
      "::": 613,
      "loc": 614,
      "Ġhave": 615,
      "Ġres": 616,
      "tring": 617,
      "cri": 618,
      "}(": 619,
      "Ġse": 620,
      "ide": 621,
      "Ġwhich": 622,
      "Con": 623,
      "odel": 624,
      "Ġwas": 625,
      "act": 626,
      "line": 627,
      "ĠIn": 628,
      "Ġme": 629,
      "out": 630,
      "fer": 631,
      "~\\": 632,
      "}_": 633,
      "}^": 634,
      "Ġdis": 635,
      "Ġun": 636,
      "ance": 637,
      "ork": 638,
      "ies": 639,
      "Ġob": 640,
      "ĠU": 641,
      "sum": 642,
      "Ġfunction": 643,
      "ire": 644,
      "ject": 645,
      "der": 646,
      "tain": 647,
      "put": 648,
      "bo": 649,
      "ong": 650,
      "pha": 651,
      "19": 652,
      "ost": 653,
      "clu": 654,
      "ml": 655,
      "ray": 656,
      "Ġi": 657,
      "ex": 658,
      "alpha": 659,
      "ial": 660,
      "Ġapp": 661,
      "ublic": 662,
      "ans": 663,
      "10": 664,
      "Ġ@": 665,
      "vel": 666,
      "div": 667,
      "âĢĻ": 668,
      "Ġlo": 669,
      "fin": 670,
      "ast": 671,
      "pon": 672,
      ")\\": 673,
      "over": 674,
      "ator": 675,
      "ble": 676,
      "ens": 677,
      "da": 678,
      "ical": 679,
      "Ġj": 680,
      "iel": 681,
      "Ġk": 682,
      "Ġad": 683,
      "(\"": 684,
      "und": 685,
      "form": 686,
      "Ġset": 687,
      "Ġnew": 688,
      "></": 689,
      "amb": 690,
      "elf": 691,
      "ion": 692,
      "ption": 693,
      "essage": 694,
      "Ġhas": 695,
      "time": 696,
      "ĠJ": 697,
      "Ġ/": 698,
      "();": 699,
      "so": 700,
      "sub": 701,
      "span": 702,
      "ould": 703,
      "\",": 704,
      "ull": 705,
      "ard": 706,
      "ory": 707,
      "ari": 708,
      "Ġall": 709,
      "><": 710,
      "ambda": 711,
      "ak": 712,
      "enc": 713,
      "ear": 714,
      "Ġar": 715,
      "ree": 716,
      "of": 717,
      "ents": 718,
      "ous": 719,
      "$\\": 720,
      "',": 721,
      "Ġqu": 722,
      "po": 723,
      "amma": 724,
      "Ġpo": 725,
      "ice": 726,
      "ome": 727,
      "ega": 728,
      "ĠV": 729,
      "ath": 730,
      "app": 731,
      "_\\": 732,
      "we": 733,
      "../../": 734,
      "ym": 735,
      "mu": 736,
      "sh": 737,
      "import": 738,
      "Ġ\\\\": 739,
      "=\\": 740,
      "Ġinter": 741,
      "own": 742,
      "--------": 743,
      "ll": 744,
      "one": 745,
      "Ġper": 746,
      "ip": 747,
      "trib": 748,
      "mathbb": 749,
      "dot": 750,
      "ho": 751,
      "ror": 752,
      "umber": 753,
      "ust": 754,
      "ding": 755,
      "St": 756,
      "idth": 757,
      "Ġ:": 758,
      "au": 759,
      "}_{": 760,
      "item": 761,
      "Ġdo": 762,
      "ound": 763,
      "tit": 764,
      "Ġ.": 765,
      "}^{": 766,
      "Ġone": 767,
      "igma": 768,
      "Ġexp": 769,
      "ĉĉĉ": 770,
      "ize": 771,
      "ded": 772,
      "times": 773,
      "Ġwill": 774,
      "))": 775,
      "name": 776,
      "ok": 777,
      "html": 778,
      "-\\": 779,
      "ual": 780,
      "raph": 781,
      "ystem": 782,
      "lement": 783,
      "====": 784,
      "Ġstr": 785,
      "iew": 786,
      "ution": 787,
      "Ġte": 788,
      "Ġhe": 789,
      "ĠK": 790,
      "Ġhref": 791,
      "Ġno": 792,
      "Ġne": 793,
      "orm": 794,
      "Ġev": 795,
      "Ġmodel": 796,
      "wo": 797,
      "min": 798,
      "irst": 799,
      "ĠĠĠĠĠĠĠĠĠĠĠĠĠĠĠĠĠĠĠ": 800,
      "lation": 801,
      "ry": 802,
      "phi": 803,
      "pi": 804,
      "the": 805,
      "ular": 806,
      "ates": 807,
      "Ġdata": 808,
      "ties": 809,
      "Ġbo": 810,
      "cre": 811,
      "^{\\": 812,
      "ug": 813,
      "Ġ|": 814,
      "****": 815,
      "Ġ*/": 816,
      "Ex": 817,
      "thod": 818,
      "Pro": 819,
      "ĠĠĠĠĠĠĠĠĠ": 820,
      "la": 821,
      "bar": 822,
      "bf": 823,
      "ute": 824,
      "roup": 825,
      "'s": 826,
      "col": 827,
      "igh": 828,
      "Ġpublic": 829,
      "('": 830,
      "ield": 831,
      "ne": 832,
      "lambda": 833,
      "oid": 834,
      "section": 835,
      "ink": 836,
      "Ġ{\\": 837,
      "source": 838,
      "12": 839,
      "ms": 840,
      "Ġname": 841,
      "Ġpre": 842,
      "Ġline": 843,
      "ish": 844,
      "Ġpl": 845,
      "ob": 846,
      "this": 847,
      "Ġcomp": 848,
      "mathbf": 849,
      "ule": 850,
      "ix": 851,
      "ollow": 852,
      "Ġvalue": 853,
      "yn": 854,
      "bol": 855,
      "Ġen": 856,
      "ĠâĢ": 857,
      "message": 858,
      "ample": 859,
      "align": 860,
      "ark": 861,
      "ain": 862,
      "Ġout": 863,
      "Ġalso": 864,
      "oun": 865,
      "Ġconst": 866,
      "art": 867,
      "hat": 868,
      "ress": 869,
      "Ġdif": 870,
      "Ġcont": 871,
      "ef": 872,
      "Name": 873,
      "ER": 874,
      "Ġget": 875,
      "Ġver": 876,
      "ilon": 877,
      "cent": 878,
      "inal": 879,
      "Ġtype": 880,
      "var": 881,
      "ote": 882,
      "psilon": 883,
      "trans": 884,
      "ĠWe": 885,
      "Ġab": 886,
      "inf": 887,
      "amet": 888,
      "Ġ_": 889,
      "ia": 890,
      "dex": 891,
      "Ġtwo": 892,
      "Ġ=>": 893,
      "td": 894,
      "atch": 895,
      "Ġtran": 896,
      "Ġtime": 897,
      "Ġx": 898,
      "Ġfollow": 899,
      "Ġsub": 900,
      "ord": 901,
      "Ġint": 902,
      "code": 903,
      "200": 904,
      "sigma": 905,
      "width": 906,
      "arg": 907,
      "ics": 908,
      "sition": 909,
      "Ġthere": 910,
      "sc": 911,
      "def": 912,
      "val": 913,
      "ON": 914,
      "Ġcol": 915,
      "uct": 916,
      "led": 917,
      "}{\\": 918,
      "alse": 919,
      "Type": 920,
      "Ġ(\\": 921,
      "lock": 922,
      "clude": 923,
      "wh": 924,
      "Ġover": 925,
      "Ġro": 926,
      "beta": 927,
      "cript": 928,
      "Ġgener": 929,
      "Ġsuch": 930,
      "Ġbut": 931,
      "String": 932,
      "^{-": 933,
      "eng": 934,
      "Id": 935,
      "Ġcons": 936,
      "Ġour": 937,
      "del": 938,
      "Ġimp": 939,
      "Ġequ": 940,
      "Ġ#": 941,
      "Ġform": 942,
      "Ġdef": 943,
      "We": 944,
      "he": 945,
      "mathrm": 946,
      "tilde": 947,
      "Ġcor": 948,
      "Ġwhere": 949,
      "Ġtr": 950,
      "ĠThis": 951,
      "ep": 952,
      "Ġop": 953,
      "mation": 954,
      "\\\\": 955,
      "Ġdes": 956,
      "IN": 957,
      "ues": 958,
      "nder": 959,
      "array": 960,
      "Ġmore": 961,
      "*}": 962,
      "ild": 963,
      "##": 964,
      "Ġcase": 965,
      "ider": 966,
      "Ġonly": 967,
      "ov": 968,
      "ount": 969,
      "pr": 970,
      "ev": 971,
      "/>": 972,
      "+\\": 973,
      "gamma": 974,
      "Ġ`": 975,
      "Ġother": 976,
      "tical": 977,
      "Ġany": 978,
      "theta": 979,
      "tif": 980,
      "Ġid": 981,
      "]{": 982,
      "Ġbet": 983,
      "Ġso": 984,
      "gr": 985,
      "Ġspec": 986,
      "Ġits": 987,
      "riv": 988,
      "ud": 989,
      "return": 990,
      "Ġra": 991,
      "Ġup": 992,
      "tern": 993,
      "Ġdiffer": 994,
      "Ġreg": 995,
      "key": 996,
      "xi": 997,
      "\"/>": 998,
      "^\\": 999,
      "Ġwhen": 1000,
      "Ġrep": 1001,
      "Ġthen": 1002,
      ")}": 1003,
      "11": 1004,
      "rho": 1005,
      "figure": 1006,
      "class": 1007,
      "Com": 1008,
      "ors": 1009,
      "delta": 1010,
      "leq": 1011,
      "Ġval": 1012,
      "duc": 1013,
      "urre": 1014,
      "ime": 1015,
      "Ġfirst": 1016,
      "erv": 1017,
      "Ġsome": 1018,
      "type": 1019,
      "Ġself": 1020,
      "ting": 1021,
      "ility": 1022,
      "Ġrequ": 1023,
      "dd": 1024,
      "ann": 1025,
      "ST": 1026,
      "ose": 1027,
      "Ġtheir": 1028,
      "param": 1029,
      "ise": 1030,
      "serv": 1031,
      "translation": 1032,
      "Ġacc": 1033,
      "tau": 1034,
      "Res": 1035,
      "cess": 1036,
      "://": 1037,
      "pend": 1038,
      "Ġph": 1039,
      "Ġuse": 1040,
      "RE": 1041,
      "Ġeach": 1042,
      "tt": 1043,
      "cdot": 1044,
      "Ġgiv": 1045,
      "Ġshow": 1046,
      "work": 1047,
      "Ch": 1048,
      "Ġwork": 1049,
      "Ġel": 1050,
      "Ġthan": 1051,
      "error": 1052,
      "ze": 1053,
      "$-": 1054,
      "Ġco": 1055,
      "cap": 1056,
      "Ġsta": 1057,
      "16": 1058,
      "}$,": 1059,
      "ults": 1060,
      "Ġsol": 1061,
      "Ġ!": 1062,
      "}$.": 1063,
      "big": 1064,
      "its": 1065,
      "ger": 1066,
      "Ġ--": 1067,
      "ric": 1068,
      "Ġresp": 1069,
      "ond": 1070,
      "eqref": 1071,
      "Ġyou": 1072,
      "ween": 1073,
      "log": 1074,
      "}(\\": 1075,
      "dition": 1076,
      "eck": 1077,
      "round": 1078,
      "ating": 1079,
      "__": 1080,
      "ures": 1081,
      "ature": 1082,
      "tiv": 1083,
      "ton": 1084,
      "Ġnumber": 1085,
      "Ġbeen": 1086,
      "List": 1087,
      "Ġman": 1088,
      "ince": 1089,
      "Ġsa": 1090,
      "sec": 1091,
      "Ġac": 1092,
      "ĠCh": 1093,
      "To": 1094,
      "15": 1095,
      "ension": 1096,
      "mp": 1097,
      "Ġ>": 1098,
      "tex": 1099,
      "arch": 1100,
      "Ġ==": 1101,
      "Ġag": 1102,
      "AT": 1103,
      "box": 1104,
      "fo": 1105,
      "ength": 1106,
      "resent": 1107,
      "Ġused": 1108,
      "âĢĿ": 1109,
      "Ġbetween": 1110,
      "ash": 1111,
      "space": 1112,
      "Ġnull": 1113,
      "les": 1114,
      "ames": 1115,
      "lec": 1116,
      "ased": 1117,
      "Ġstate": 1118,
      "partial": 1119,
      "Ġwere": 1120,
      "ext": 1121,
      "Ġthey": 1122,
      "Ġmethod": 1123,
      "ault": 1124,
      "Ġtrans": 1125,
      "ian": 1126,
      "Ġthese": 1127,
      "arrow": 1128,
      "Ġsystem": 1129,
      "infty": 1130,
      "ception": 1131,
      "ont": 1132,
      "Ġcomm": 1133,
      "htt": 1134,
      "pre": 1135,
      "ax": 1136,
      "dic": 1137,
      "|\\": 1138,
      "Ġend": 1139,
      "\"><": 1140,
      "Del": 1141,
      "pm": 1142,
      "18": 1143,
      "omega": 1144,
      "urrent": 1145,
      "ail": 1146,
      "Ġusing": 1147,
      "ific": 1148,
      "Ġvari": 1149,
      "nu": 1150,
      "mall": 1151,
      "Ġtra": 1152,
      "Ġsc": 1153,
      "mage": 1154,
      "Ġunder": 1155,
      "Ġinto": 1156,
      "Ġresult": 1157,
      "ĠĠĠĠĠĠĠĠĠĠĠĠĠĠĠĠĠĠĠĠĠĠĠĠĠĠĠĠĠĠĠĠ": 1158,
      "Ġprov": 1159,
      "ges": 1160,
      "fore": 1161,
      "ĠY": 1162,
      "Ġli": 1163,
      "En": 1164,
      "ons": 1165,
      "Ġvar": 1166,
      "ask": 1167,
      "ater": 1168,
      "include": 1169,
      "Ġhigh": 1170,
      "ĠSt": 1171,
      "read": 1172,
      "main": 1173,
      "ning": 1174,
      "Ġnon": 1175,
      "Ġbec": 1176,
      "anc": 1177,
      "Ġvoid": 1178,
      "ument": 1179,
      "13": 1180,
      "location": 1181,
      "ĠĠĠĠĠĠ": 1182,
      "Ġdefin": 1183,
      "ĠĠĠĠĠĠĠĠĠĠĠĠĠ": 1184,
      "erm": 1185,
      "Ġ)": 1186,
      "Ġfalse": 1187,
      "ization": 1188,
      "Ġhis": 1189,
      "fter": 1190,
      "Ġappro": 1191,
      "OR": 1192,
      "ulti": 1193,
      "Delta": 1194,
      "ID": 1195,
      "ove": 1196,
      "uc": 1197,
      "25": 1198,
      "ied": 1199,
      "ential": 1200,
      "Ġparamet": 1201,
      "lang": 1202,
      "Ġtrue": 1203,
      "AR": 1204,
      "ock": 1205,
      "new": 1206,
      "sf": 1207,
      "):": 1208,
      "yle": 1209,
      "back": 1210,
      "me": 1211,
      "Ġ$(": 1212,
      "gy": 1213,
      "Ġgiven": 1214,
      "title": 1215,
      "string": 1216,
      "ized": 1217,
      "gle": 1218,
      "als": 1219,
      "eqn": 1220,
      "umn": 1221,
      "LE": 1222,
      "respon": 1223,
      "quad": 1224,
      "14": 1225,
      "ĠFor": 1226,
      "Ġeff": 1227,
      "perty": 1228,
      "size": 1229,
      "Ġinv": 1230,
      "ments": 1231,
      "ader": 1232,
      "file": 1233,
      "ange": 1234,
      "ected": 1235,
      "ational": 1236,
      "Ġpa": 1237,
      "Ar": 1238,
      "atri": 1239,
      "\");": 1240,
      "));": 1241,
      "Ġmay": 1242,
      "ever": 1243,
      "ĠIt": 1244,
      "}[": 1245,
      "Ġgo": 1246,
      "son": 1247,
      "data": 1248,
      "Ġz": 1249,
      "ery": 1250,
      "rivate": 1251,
      "lect": 1252,
      "graph": 1253,
      "ative": 1254,
      "Ġcal": 1255,
      "ie": 1256,
      "arget": 1257,
      "olog": 1258,
      "For": 1259,
      "ĠX": 1260,
      "Ġmod": 1261,
      "rt": 1262,
      "sq": 1263,
      "atrix": 1264,
      "center": 1265,
      "ays": 1266,
      "add": 1267,
      "}}\\": 1268,
      "dis": 1269,
      "irc": 1270,
      "ymbol": 1271,
      "Re": 1272,
      "Ġtest": 1273,
      "SS": 1274,
      "Ob": 1275,
      "be": 1276,
      "----------------": 1277,
      "Ġpol": 1278,
      "Ġsim": 1279,
      "Ġsame": 1280,
      "orem": 1281,
      "Ġoper": 1282,
      "\\,": 1283,
      "rit": 1284,
      "ni": 1285,
      "Ġorder": 1286,
      ")$.": 1287,
      "Ġchar": 1288,
      "lem": 1289,
      "ache": 1290,
      "aw": 1291,
      "Par": 1292,
      "lection": 1293,
      "ĠQ": 1294,
      "self": 1295,
      "ally": 1296,
      "////": 1297,
      "ĠâĢľ": 1298,
      "sim": 1299,
      "Ġdifferent": 1300,
      "Col": 1301,
      "org": 1302,
      "Value": 1303,
      "Ġfe": 1304,
      "Ġabout": 1305,
      "ava": 1306,
      "ause": 1307,
      "ĠĠĠĠĠĠĠĠĠĠĠĠĠĠĠĠĠĠĠĠĠĠĠ": 1308,
      "Ġpartic": 1309,
      "value": 1310,
      "nb": 1311,
      "********": 1312,
      "table": 1313,
      "action": 1314,
      "ole": 1315,
      "ugh": 1316,
      "Ġext": 1317,
      "Data": 1318,
      "Ġstring": 1319,
      "')": 1320,
      "epsilon": 1321,
      "exp": 1322,
      "Ġsign": 1323,
      "Ġelse": 1324,
      "not": 1325,
      "EN": 1326,
      "raw": 1327,
      "ng": 1328,
      "Ġconsider": 1329,
      "stance": 1330,
      "Ġfollowing": 1331,
      "AL": 1332,
      "esti": 1333,
      "ases": 1334,
      "rame": 1335,
      "gor": 1336,
      "Ġcomple": 1337,
      "cont": 1338,
      "vers": 1339,
      "date": 1340,
      "tab": 1341,
      "Om": 1342,
      "$$": 1343,
      "ive": 1344,
      "Ġwould": 1345,
      "Ġresults": 1346,
      "old": 1347,
      "su": 1348,
      "32": 1349,
      "Ġobtain": 1350,
      "Ġsupp": 1351,
      "where": 1352,
      "formation": 1353,
      "Ġ&&": 1354,
      "gh": 1355,
      "}_{\\": 1356,
      "ects": 1357,
      "Set": 1358,
      "requ": 1359,
      "Ġpr": 1360,
      "Ġcre": 1361,
      "Ġsec": 1362,
      "uil": 1363,
      "face": 1364,
      "ector": 1365,
      "ĠPro": 1366,
      "Ġdire": 1367,
      "no": 1368,
      "ĠčĊ": 1369,
      "mod": 1370,
      "Omega": 1371,
      "ability": 1372,
      "Ġdec": 1373,
      "Ġfact": 1374,
      "test": 1375,
      "cale": 1376,
      "Ġrel": 1377,
      "ĠĠĊ": 1378,
      "psi": 1379,
      "========": 1380,
      ".,": 1381,
      "ick": 1382,
      "textbf": 1383,
      "script": 1384,
      "pos": 1385,
      "\")": 1386,
      "ert": 1387,
      "nbsp": 1388,
      "vely": 1389,
      "Ġfield": 1390,
      "ey": 1391,
      "bm": 1392,
      "Ġam": 1393,
      "Ġorg": 1394,
      "100": 1395,
      "ner": 1396,
      "17": 1397,
      "Ġback": 1398,
      "Ġkn": 1399,
      "roid": 1400,
      "ints": 1401,
      "vi": 1402,
      "play": 1403,
      "lient": 1404,
      "];": 1405,
      "Ġfinal": 1406,
      "br": 1407,
      "ĠFig": 1408,
      "Ġmin": 1409,
      "ency": 1410,
      "Ġ/**": 1411,
      "px": 1412,
      "rror": 1413,
      "($": 1414,
      "view": 1415,
      "Ġerror": 1416,
      "DE": 1417,
      ")$,": 1418,
      "^*": 1419,
      "cm": 1420,
      "ists": 1421,
      "ody": 1422,
      "ten": 1423,
      "top": 1424,
      "ici": 1425,
      "eqnarray": 1426,
      "sqrt": 1427,
      "vent": 1428,
      "tribute": 1429,
      "rough": 1430,
      "etwork": 1431,
      "rite": 1432,
      "ision": 1433,
      "30": 1434,
      "ĠĠĠĠĊ": 1435,
      "umer": 1436,
      "subsection": 1437,
      "mer": 1438,
      "wide": 1439,
      "Ġgroup": 1440,
      "Ġsee": 1441,
      "};": 1442,
      "Gamma": 1443,
      "very": 1444,
      "21": 1445,
      "Ġboth": 1446,
      "caption": 1447,
      "Ġmost": 1448,
      "mate": 1449,
      "uth": 1450,
      "Ġwell": 1451,
      "rc": 1452,
      "ins": 1453,
      "Ġass": 1454,
      "order": 1455,
      "Ph": 1456,
      "Exception": 1457,
      "Ġmeas": 1458,
      "SE": 1459,
      "Ġpe": 1460,
      "yp": 1461,
      "Ġfile": 1462,
      "Ġdisc": 1463,
      "Ġanal": 1464,
      "ots": 1465,
      "By": 1466,
      "],": 1467,
      "sert": 1468,
      "graphics": 1469,
      "des": 1470,
      "ily": 1471,
      "chi": 1472,
      "Ġrec": 1473,
      "itial": 1474,
      "Ġstatic": 1475,
      "arge": 1476,
      "vare": 1477,
      "ream": 1478,
      "ervice": 1479,
      "Ġshould": 1480,
      "Ġ%": 1481,
      "ww": 1482,
      "co": 1483,
      "rol": 1484,
      "Ġprocess": 1485,
      "varepsilon": 1486,
      "Ġdistrib": 1487,
      "function": 1488,
      "22": 1489,
      "ings": 1490,
      "ition": 1491,
      "fra": 1492,
      "Ġyear": 1493,
      "50": 1494,
      "position": 1495,
      "\\!": 1496,
      "ponent": 1497,
      "Ġperform": 1498,
      "Ġvalues": 1499,
      "tively": 1500,
      "Ġstruct": 1501,
      "CT": 1502,
      "Ġ///": 1503,
      "owever": 1504,
      "As": 1505,
      "Ġhad": 1506,
      "mary": 1507,
      "met": 1508,
      "amp": 1509,
      "Ġlow": 1510,
      "includegraphics": 1511,
      "mon": 1512,
      "ake": 1513,
      "ets": 1514,
      "Ġelement": 1515,
      "Ġpos": 1516,
      "Ġspace": 1517,
      "ict": 1518,
      "Ġoff": 1519,
      "ĠCom": 1520,
      "ler": 1521,
      "Ġwho": 1522,
      "ities": 1523,
      "Ġdescri": 1524,
      "Ġpoint": 1525,
      "().": 1526,
      "uff": 1527,
      "ĠString": 1528,
      "Ġed": 1529,
      "link": 1530,
      "^{(": 1531,
      "}=": 1532,
      "ĠIf": 1533,
      "ality": 1534,
      "}^{\\": 1535,
      "ines": 1536,
      "energy": 1537,
      "ely": 1538,
      "lear": 1539,
      "inter": 1540,
      "ired": 1541,
      "Ġproble": 1542,
      "ilter": 1543,
      "ĠCon": 1544,
      "gorith": 1545,
      "Ġ${\\": 1546,
      "Ġbound": 1547,
      "Cont": 1548,
      "imension": 1549,
      "red": 1550,
      "js": 1551,
      "atus": 1552,
      "AN": 1553,
      "199": 1554,
      "Ġden": 1555,
      "This": 1556,
      ")=": 1557,
      "style": 1558,
      "sible": 1559,
      "ished": 1560,
      "ormal": 1561,
      "mis": 1562,
      "rangle": 1563,
      "roll": 1564,
      "Ġ!=": 1565,
      "Ġsize": 1566,
      "Error": 1567,
      "lob": 1568,
      "ĉĉĉĉĉ": 1569,
      "ier": 1570,
      "Object": 1571,
      "Ġcontain": 1572,
      "Ġprivate": 1573,
      "Ġassum": 1574,
      "emph": 1575,
      "());": 1576,
      "IT": 1577,
      "Ġobserv": 1578,
      "man": 1579,
      "Ġcorrespon": 1580,
      "Ġadd": 1581,
      "nav": 1582,
      "let": 1583,
      "index": 1584,
      "Ġthrough": 1585,
      "Ġinclu": 1586,
      "ough": 1587,
      "go": 1588,
      "public": 1589,
      "ism": 1590,
      "Ġinte": 1591,
      "non": 1592,
      "Ġafter": 1593,
      "max": 1594,
      "tity": 1595,
      "Ġarg": 1596,
      "mand": 1597,
      "\"></": 1598,
      "ensure": 1599,
      "._": 1600,
      "Ġlocal": 1601,
      "struct": 1602,
      "Ġexample": 1603,
      "Ġsur": 1604,
      "ME": 1605,
      "ression": 1606,
      "rightarrow": 1607,
      "bed": 1608,
      "uration": 1609,
      "View": 1610,
      "Get": 1611,
      "Ġsmall": 1612,
      "Ġwhile": 1613,
      "ulation": 1614,
      "Ġran": 1615,
      "geq": 1616,
      "24": 1617,
      "by": 1618,
      "quot": 1619,
      "Ġfin": 1620,
      ".</": 1621,
      "Ġ\\,": 1622,
      "Ġwor": 1623,
      "ĠAs": 1624,
      "Ġdoes": 1625,
      ".~\\": 1626,
      "atter": 1627,
      "try": 1628,
      "lay": 1629,
      "ces": 1630,
      ".}": 1631,
      "ower": 1632,
      "Class": 1633,
      "Ġ||": 1634,
      "err": 1635,
      "ilar": 1636,
      "Ġright": 1637,
      "CO": 1638,
      "Ġste": 1639,
      "varphi": 1640,
      "ields": 1641,
      "arent": 1642,
      "url": 1643,
      "group": 1644,
      "Ġexper": 1645,
      "node": 1646,
      "que": 1647,
      "oci": 1648,
      "color": 1649,
      "ĠZ": 1650,
      "lim": 1651,
      "64": 1652,
      "proof": 1653,
      "rem": 1654,
      "Ġdi": 1655,
      "ful": 1656,
      "Ġter": 1657,
      "uring": 1658,
      "bl": 1659,
      "!--": 1660,
      "Ġlim": 1661,
      "depend": 1662,
      "reg": 1663,
      "Ġlong": 1664,
      "uto": 1665,
      "ross": 1666,
      "At": 1667,
      "Ġcurrent": 1668,
      "\";": 1669,
      "Ġsing": 1670,
      "File": 1671,
      "velop": 1672,
      "sing": 1673,
      "ared": 1674,
      "ern": 1675,
      "De": 1676,
      "['": 1677,
      "sed": 1678,
      "Ġthem": 1679,
      "Ġser": 1680,
      "vec": 1681,
      "Ġimport": 1682,
      "Ġsimp": 1683,
      "ccess": 1684,
      "indow": 1685,
      "const": 1686,
      "acter": 1687,
      "ĠHe": 1688,
      "Ġevery": 1689,
      "Big": 1690,
      "ero": 1691,
      "bolds": 1692,
      "ven": 1693,
      "Key": 1694,
      "Ġclo": 1695,
      "Ġpres": 1696,
      "rop": 1697,
      "boldsymbol": 1698,
      "Ġneed": 1699,
      "frak": 1700,
      "less": 1701,
      "../../../../": 1702,
      "list": 1703,
      "Ġmeasure": 1704,
      "Ġkey": 1705,
      "load": 1706,
      "ground": 1707,
      "''": 1708,
      "ited": 1709,
      "Ġpart": 1710,
      "cor": 1711,
      "Ġlet": 1712,
      "Test": 1713,
      "mit": 1714,
      "Ġtem": 1715,
      "see": 1716,
      "Po": 1717,
      "dt": 1718,
      "Ġdist": 1719,
      "].": 1720,
      "http": 1721,
      "med": 1722,
      "Ġsch": 1723,
      "pace": 1724,
      "Ġenergy": 1725,
      "overline": 1726,
      "Ġhand": 1727,
      "utions": 1728,
      "Ġnow": 1729,
      "path": 1730,
      "},\\": 1731,
      "uch": 1732,
      "[\\": 1733,
      "reak": 1734,
      "Ġfind": 1735,
      "ee": 1736,
      "Un": 1737,
      "Sh": 1738,
      "&\\": 1739,
      "ams": 1740,
      "olution": 1741,
      "=\"+": 1742,
      "Ġmulti": 1743,
      "Requ": 1744,
      "Ġmass": 1745,
      "Ġbel": 1746,
      "comp": 1747,
      "');": 1748,
      "ense": 1749,
      "hline": 1750,
      "33": 1751,
      "Ġent": 1752,
      "model": 1753,
      "mo": 1754,
      "bin": 1755,
      "Ġdepend": 1756,
      "Ġfound": 1757,
      "sk": 1758,
      "ocument": 1759,
      "Ġcent": 1760,
      "}).": 1761,
      "ective": 1762,
      "with": 1763,
      "Ġsection": 1764,
      "ember": 1765,
      "Ġdefined": 1766,
      "Ġincre": 1767,
      "Ġmax": 1768,
      "ackage": 1769,
      "...": 1770,
      "ences": 1771,
      "Ġlist": 1772,
      "Ġgeneral": 1773,
      "``": 1774,
      "ified": 1775,
      "Ġbecause": 1776,
      "ĠAl": 1777,
      "mathfrak": 1778,
      "State": 1779,
      ")^": 1780,
      "Ġ,": 1781,
      "Ġthree": 1782,
      "Ġstar": 1783,
      "perties": 1784,
      "ented": 1785,
      "Ġcorre": 1786,
      "Ġcall": 1787,
      "(),": 1788,
      "bove": 1789,
      "void": 1790,
      "}}$": 1791,
      "Ġlike": 1792,
      "Op": 1793,
      "ĠEx": 1794,
      "vious": 1795,
      "40": 1796,
      "000": 1797,
      "Ġstud": 1798,
      "Ġcontin": 1799,
      "entif": 1800,
      "Ġrepresent": 1801,
      "summary": 1802,
      "']": 1803,
      "Ġconn": 1804,
      "duced": 1805,
      "Ġ/>": 1806,
      "io": 1807,
      "Ġsince": 1808,
      "Ġinformation": 1809,
      "Ġlarge": 1810,
      "ople": 1811,
      "Ġabove": 1812,
      "user": 1813,
      "opy": 1814,
      "Ġobject": 1815,
      "Ġrun": 1816,
      "map": 1817,
      "duction": 1818,
      "Ġtitle": 1819,
      "ices": 1820,
      "gorithm": 1821,
      "Ġtop": 1822,
      "LL": 1823,
      "unc": 1824,
      "ensity": 1825,
      "Ġcould": 1826,
      "ager": 1827,
      "Ġnetwork": 1828,
      "Ġsecond": 1829,
      "ynam": 1830,
      "He": 1831,
      "Ġmet": 1832,
      "ically": 1833,
      "ward": 1834,
      "ldots": 1835,
      "ference": 1836,
      "Ġreal": 1837,
      "Let": 1838,
      "langle": 1839,
      "ĠAr": 1840,
      "ness": 1841,
      "Ġmodels": 1842,
      "ott": 1843,
      "AC": 1844,
      "Time": 1845,
      "por": 1846,
      "sl": 1847,
      "ope": 1848,
      "Ġinput": 1849,
      "bit": 1850,
      "ci": 1851,
      "sive": 1852,
      "tics": 1853,
      "Text": 1854,
      "odes": 1855,
      "search": 1856,
      "ks": 1857,
      "ION": 1858,
      "lication": 1859,
      "ensuremath": 1860,
      "udi": 1861,
      "uild": 1862,
      "Ġesti": 1863,
      "uffer": 1864,
      "Lambda": 1865,
      "PE": 1866,
      "Event": 1867,
      "Ġwhat": 1868,
      "Ġfollows": 1869,
      "Ġvery": 1870,
      "Ġmany": 1871,
      "RO": 1872,
      "23": 1873,
      "Ġrem": 1874,
      "war": 1875,
      "Ġnode": 1876,
      "ural": 1877,
      "ify": 1878,
      "pec": 1879,
      "Ġhel": 1880,
      "ste": 1881,
      "tra": 1882,
      "Ġ?": 1883,
      "An": 1884,
      "Ġallow": 1885,
      "Al": 1886,
      "tes": 1887,
      "df": 1888,
      "Ġshown": 1889,
      "ush": 1890,
      "Ġmain": 1891,
      "Ġher": 1892,
      "\":": 1893,
      "length": 1894,
      "textit": 1895,
      "defin": 1896,
      "util": 1897,
      "Ġhow": 1898,
      "cept": 1899,
      "use": 1900,
      "Man": 1901,
      "andom": 1902,
      "circ": 1903,
      "Phi": 1904,
      "LA": 1905,
      "nab": 1906,
      "mm": 1907,
      "Ġproblem": 1908,
      "ixed": 1909,
      "Ġprovide": 1910,
      "Ġtarget": 1911,
      "duct": 1912,
      "ternal": 1913,
      "Ġeven": 1914,
      "TE": 1915,
      "Ġcur": 1916,
      "ane": 1917,
      "IC": 1918,
      "utton": 1919,
      "Ġparameters": 1920,
      "60": 1921,
      "https": 1922,
      "On": 1923,
      "Ġmust": 1924,
      "citep": 1925,
      "ĠUn": 1926,
      "Ġread": 1927,
      "Ġpath": 1928,
      "Ġdirect": 1929,
      "Ġinitial": 1930,
      "Ġregion": 1931,
      "ren": 1932,
      "ĠAn": 1933,
      "Bo": 1934,
      "eff": 1935,
      ".\\": 1936,
      "appa": 1937,
      "ymmet": 1938,
      ")(": 1939,
      "other": 1940,
      "urther": 1941,
      "tice": 1942,
      "ift": 1943,
      "pper": 1944,
      "Node": 1945,
      "Ġ-->": 1946,
      "lobal": 1947,
      "nabla": 1948,
      "ession": 1949,
      "Ġstart": 1950,
      "Ġmake": 1951,
      "Ġ($": 1952,
      "iter": 1953,
      "ages": 1954,
      "80": 1955,
      "':": 1956,
      "ema": 1957,
      "Ġlead": 1958,
      "Item": 1959,
      "Ġlevel": 1960,
      "king": 1961,
      "Ġaction": 1962,
      "Element": 1963,
      "orph": 1964,
      "amespace": 1965,
      "bers": 1966,
      "Ġcoun": 1967,
      "Ġyour": 1968,
      "Ġgra": 1969,
      "ants": 1970,
      "####": 1971,
      "\\|": 1972,
      "cl": 1973,
      "Ġtak": 1974,
      "Ġlog": 1975,
      "kappa": 1976,
      "Ġsuper": 1977,
      "Path": 1978,
      "Ġbased": 1979,
      "Ġapproach": 1980,
      "Ġplay": 1981,
      "tisf": 1982,
      "Ġmag": 1983,
      "oper": 1984,
      "ology": 1985,
      "config": 1986,
      "orted": 1987,
      "Lo": 1988,
      "mission": 1989,
      "from": 1990,
      "Ġprob": 1991,
      "cted": 1992,
      "Ġbeing": 1993,
      "With": 1994,
      "Ġtrain": 1995,
      "Info": 1996,
      "ĠRe": 1997,
      "mbox": 1998,
      "ij": 1999,
      "Index": 2000,
      "ster": 2001,
      "cription": 2002,
      "ĠDe": 2003,
      "/*": 2004,
      "\\%": 2005,
      "Request": 2006,
      "Ġdeter": 2007,
      "TR": 2008,
      "ators": 2009,
      "/**": 2010,
      "Ġgraph": 2011,
      "Ġsaid": 2012,
      "olean": 2013,
      "Ġcalc": 2014,
      "tail": 2015,
      "Ġpeople": 2016,
      "Ġq": 2017,
      "Ġsum": 2018,
      "Ġmon": 2019,
      "ables": 2020,
      "Ġdistribution": 2021,
      "annel": 2022,
      "})$": 2023,
      "ĠĠĠĠĠĠĠĠĠĠĠĠĠĠĠĠĠĠĠĠĠĠĠĠĠĠĠ": 2024,
      "ĠNew": 2025,
      "Ġradi": 2026,
      "ĠWh": 2027,
      "ysis": 2028,
      "PI": 2029,
      "true": 2030,
      "Ġway": 2031,
      "='": 2032,
      "rows": 2033,
      "Ġ);": 2034,
      "}),": 2035,
      "aus": 2036,
      "Context": 2037,
      "ese": 2038,
      "Ġsample": 2039,
      "ride": 2040,
      "())": 2041,
      "Ġsimilar": 2042,
      "ech": 2043,
      "Ġagain": 2044,
      "ason": 2045,
      "Ġlast": 2046,
      "body": 2047,
      "\"\"": 2048,
      "ogle": 2049,
      "ides": 2050,
      "tivity": 2051,
      "version": 2052,
      "Ġterms": 2053,
      "Ġjust": 2054,
      "Ġ``": 2055,
      "Ġthose": 2056,
      "air": 2057,
      "Ġparticular": 2058,
      "Ġbefore": 2059,
      "field": 2060,
      "draw": 2061,
      "ior": 2062,
      "thing": 2063,
      "Qu": 2064,
      "Equ": 2065,
      "vir": 2066,
      "Ġparameter": 2067,
      "vert": 2068,
      "Ġcode": 2069,
      "Ġhere": 2070,
      "ape": 2071,
      "sitive": 2072,
      "Ġlear": 2073,
      "ister": 2074,
      "Ġevent": 2075,
      "Ġdat": 2076,
      "Ġleft": 2077,
      "Config": 2078,
      "input": 2079,
      "jects": 2080,
      "otimes": 2081,
      "imum": 2082,
      "Ġcharacter": 2083,
      "reat": 2084,
      "Form": 2085,
      "Ġmy": 2086,
      "App": 2087,
      "ually": 2088,
      "duce": 2089,
      "Ġmap": 2090,
      "Ġuser": 2091,
      "27": 2092,
      "'t": 2093,
      "side": 2094,
      "tal": 2095,
      "dots": 2096,
      "Ġmatrix": 2097,
      "Ġknow": 2098,
      "Ġ:=": 2099,
      "uted": 2100,
      "omet": 2101,
      "block": 2102,
      "Ġcap": 2103,
      "Ġsatisf": 2104,
      "Ġtyp": 2105,
      "ĠRes": 2106,
      "45": 2107,
      "state": 2108,
      "ĠâĢĵ": 2109,
      "Ġdevelop": 2110,
      "Ġorig": 2111,
      "uction": 2112,
      "ently": 2113,
      "99": 2114,
      "icon": 2115,
      "Ġ});": 2116,
      "Me": 2117,
      "Over": 2118,
      "}}{": 2119,
      "Ġref": 2120,
      "Ġact": 2121,
      "Ġbl": 2122,
      "nonumber": 2123,
      "aces": 2124,
      "ertain": 2125,
      "ources": 2126,
      "atures": 2127,
      "any": 2128,
      "Ġconfig": 2129,
      "ĠThere": 2130,
      "ouble": 2131,
      "ene": 2132,
      "Ġtext": 2133,
      "Ġsingle": 2134,
      "';": 2135,
      "Ġder": 2136,
      "api": 2137,
      "Ġ(!": 2138,
      "lected": 2139,
      "Ġaddition": 2140,
      "Ġrespon": 2141,
      "Int": 2142,
      "uilder": 2143,
      "Add": 2144,
      "ĠThen": 2145,
      "\\[": 2146,
      "Ġblock": 2147,
      "Map": 2148,
      "Ġstand": 2149,
      "Ġcontext": 2150,
      "centering": 2151,
      "Ġversion": 2152,
      "ules": 2153,
      "lug": 2154,
      "Sigma": 2155,
      "Ġarray": 2156,
      "Ġbas": 2157,
      "rid": 2158,
      "wn": 2159,
      "Ġfunctions": 2160,
      "Ġ},": 2161,
      "[]": 2162,
      "ĠTo": 2163,
      "ottom": 2164,
      "UR": 2165,
      "75": 2166,
      "Ġvis": 2167,
      "Ġcheck": 2168,
      "ĠSh": 2169,
      "~~": 2170,
      "Service": 2171,
      "apache": 2172,
      "////////": 2173,
      "ttp": 2174,
      "ible": 2175,
      "Ġdiscus": 2176,
      "Ġindex": 2177,
      "Rec": 2178,
      "Ġassert": 2179,
      "{-": 2180,
      "Code": 2181,
      "=\"../../../../": 2182,
      "Ġsource": 2183,
      "Ġemp": 2184,
      "Ġexist": 2185,
      "otential": 2186,
      "ĉĊ": 2187,
      "/\\": 2188,
      "ived": 2189,
      "valid": 2190,
      "Ġpredic": 2191,
      "ced": 2192,
      "Ġinstance": 2193,
      "ves": 2194,
      "Ġpaper": 2195,
      "ends": 2196,
      "fe": 2197,
      "Ġstructure": 2198,
      "++": 2199,
      "\\!\\!": 2200,
      "ui": 2201,
      "lectr": 2202,
      "Ġfil": 2203,
      "mages": 2204,
      "Array": 2205,
      "Ġfl": 2206,
      "Ġcontent": 2207,
      "ectively": 2208,
      "Ġlimit": 2209,
      "Size": 2210,
      "gram": 2211,
      "Ġmem": 2212,
      "Ġyears": 2213,
      "plate": 2214,
      "LO": 2215,
      "Ġindic": 2216,
      "Ġsolution": 2217,
      "loat": 2218,
      "Ġimage": 2219,
      "ved": 2220,
      "Ġsequ": 2221,
      "Ġview": 2222,
      "FF": 2223,
      "next": 2224,
      "28": 2225,
      "itu": 2226,
      "Ġshe": 2227,
      "Ġoptim": 2228,
      "It": 2229,
      "Ġshows": 2230,
      "Ġcl": 2231,
      "Ġcho": 2232,
      "Ġhy": 2233,
      "md": 2234,
      "Ġ/*": 2235,
      "Ġpresent": 2236,
      "Des": 2237,
      "Ġpass": 2238,
      "till": 2239,
      "Ġintegr": 2240,
      "Ġuni": 2241,
      "Ġpower": 2242,
      "Ġrela": 2243,
      "itor": 2244,
      "oin": 2245,
      "gt": 2246,
      "Ġdue": 2247,
      "word": 2248,
      "tabular": 2249,
      "Ġdete": 2250,
      "ife": 2251,
      "Ġdefault": 2252,
      "Ġmo": 2253,
      "ron": 2254,
      "Ġpoints": 2255,
      "widetilde": 2256,
      "Ġexperim": 2257,
      "foot": 2258,
      "off": 2259,
      "lot": 2260,
      "enu": 2261,
      "bra": 2262,
      "ync": 2263,
      "head": 2264,
      "Ġbeh": 2265,
      "Ġobtained": 2266,
      "iod": 2267,
      "igned": 2268,
      "ateg": 2269,
      "Or": 2270,
      "Ġnext": 2271,
      "sta": 2272,
      "tis": 2273,
      "rag": 2274,
      "Ġinst": 2275,
      "Ġpossible": 2276,
      "idd": 2277,
      "26": 2278,
      "ML": 2279,
      "illi": 2280,
      "ool": 2281,
      "Ġsrc": 2282,
      "ocus": 2283,
      "verse": 2284,
      ">&": 2285,
      "Ġstates": 2286,
      "Ġcorresponding": 2287,
      "anel": 2288,
      "Ver": 2289,
      "2017": 2290,
      "Ġwithin": 2291,
      "kn": 2292,
      "MA": 2293,
      "ustom": 2294,
      "}-": 2295,
      "Of": 2296,
      "base": 2297,
      "struction": 2298,
      "ket": 2299,
      "If": 2300,
      "Ġlinear": 2301,
      "ĠHowever": 2302,
      "Ġdensity": 2303,
      "90": 2304,
      "Ġcondition": 2305,
      "Fig": 2306,
      "small": 2307,
      "wit": 2308,
      "35": 2309,
      "Ġequation": 2310,
      "****************": 2311,
      "content": 2312,
      "create": 2313,
      "Ġmean": 2314,
      "yc": 2315,
      "Ġmed": 2316,
      "Ġscal": 2317,
      "Ġenc": 2318,
      "call": 2319,
      "lies": 2320,
      "iled": 2321,
      "down": 2322,
      "eturn": 2323,
      "point": 2324,
      "Ġmatch": 2325,
      "Message": 2326,
      "AD": 2327,
      "Hand": 2328,
      "ĠLet": 2329,
      "fl": 2330,
      "Ġrange": 2331,
      "01": 2332,
      "ditions": 2333,
      "Ġcar": 2334,
      "ik": 2335,
      "prop": 2336,
      "land": 2337,
      "Ġduring": 2338,
      "gener": 2339,
      "Ġwithout": 2340,
      "Ġauth": 2341,
      "Ġdenote": 2342,
      "Le": 2343,
      "UT": 2344,
      "2018": 2345,
      "zeta": 2346,
      "ording": 2347,
      "ouse": 2348,
      "Ġconstant": 2349,
      "2020": 2350,
      "Ġfam": 2351,
      "object": 2352,
      "css": 2353,
      "Se": 2354,
      "orts": 2355,
      "Ġjava": 2356,
      "IG": 2357,
      "vail": 2358,
      "loy": 2359,
      ";&": 2360,
      "Ġopen": 2361,
      "ival": 2362,
      "ume": 2363,
      "Model": 2364,
      "result": 2365,
      "abled": 2366,
      "Tran": 2367,
      "ED": 2368,
      "IS": 2369,
      "Field": 2370,
      "Ġrequire": 2371,
      "istic": 2372,
      "Ġwidth": 2373,
      "Ġstudy": 2374,
      "ances": 2375,
      "default": 2376,
      "ĠĠĠĠĠĠĠĠĠĠĠĠ": 2377,
      "AB": 2378,
      "Ġintro": 2379,
      "Val": 2380,
      "\\]": 2381,
      "ii": 2382,
      "sem": 2383,
      "Ġtotal": 2384,
      "check": 2385,
      "Ġprevious": 2386,
      "2016": 2387,
      "Ġassoci": 2388,
      "No": 2389,
      "Ġtri": 2390,
      "){": 2391,
      "\\{": 2392,
      "Ġmuch": 2393,
      "Ġet": 2394,
      "ĠĠĠĠĠĠĠĠĠĠ": 2395,
      "Ġlength": 2396,
      "Color": 2397,
      "upp": 2398,
      "Ġoutput": 2399,
      "Ġbreak": 2400,
      "do": 2401,
      "erson": 2402,
      "}+": 2403,
      "Ġpotential": 2404,
      "Ġlarg": 2405,
      "acy": 2406,
      "Ġmethods": 2407,
      "Ġocc": 2408,
      "emma": 2409,
      "Ġfinite": 2410,
      "05": 2411,
      "tings": 2412,
      "29": 2413,
      "Ġproperty": 2414,
      "meric": 2415,
      "Ġrandom": 2416,
      "assert": 2417,
      "Ġcalcul": 2418,
      "Ġdimension": 2419,
      "Ġwrit": 2420,
      "lt": 2421,
      "From": 2422,
      "Ġ===": 2423,
      "prime": 2424,
      "AS": 2425,
      "way": 2426,
      "aster": 2427,
      "place": 2428,
      "ken": 2429,
      "MP": 2430,
      "java": 2431,
      "oh": 2432,
      "Ġapproxi": 2433,
      "method": 2434,
      "lete": 2435,
      ")=\\": 2436,
      "Ġvector": 2437,
      "roller": 2438,
      "Dis": 2439,
      "Ġproof": 2440,
      "Ġcalled": 2441,
      "ither": 2442,
      "ĠEq": 2443,
      "tainer": 2444,
      "ĠOn": 2445,
      "sequ": 2446,
      "ĠSystem": 2447,
      "info": 2448,
      "ats": 2449,
      "light": 2450,
      "tn": 2451,
      "ring": 2452,
      "ĠTheorem": 2453,
      "Ġ&=": 2454,
      "Ġrele": 2455,
      "Ġmade": 2456,
      "Ġrequest": 2457,
      "Tr": 2458,
      "Ġsupport": 2459,
      "port": 2460,
      "Ġlay": 2461,
      "uf": 2462,
      "sol": 2463,
      "ameter": 2464,
      "Ġtask": 2465,
      "ĠSection": 2466,
      "Ġtech": 2467,
      "2019": 2468,
      "Ġrespectively": 2469,
      "net": 2470,
      "reate": 2471,
      "Ġbackground": 2472,
      ")}\\": 2473,
      "}=\\": 2474,
      "Ġalgorithm": 2475,
      "Ġcontinu": 2476,
      "}]": 2477,
      "thm": 2478,
      "Ġchange": 2479,
      "Ġfa": 2480,
      "Ġtheory": 2481,
      "TD": 2482,
      "Ġpair": 2483,
      "CH": 2484,
      "Ġcomplex": 2485,
      "Ġstrong": 2486,
      "Ġear": 2487,
      "Ġanalysis": 2488,
      "dependent": 2489,
      "2015": 2490,
      "Up": 2491,
      "ING": 2492,
      "{(": 2493,
      "User": 2494,
      "Ġtrac": 2495,
      "Ġcontrol": 2496,
      "ram": 2497,
      "Ġbase": 2498,
      "ET": 2499,
      "Def": 2500,
      "ison": 2501,
      "Ġcreate": 2502,
      "Ġpop": 2503,
      "www": 2504,
      "antum": 2505,
      "ification": 2506,
      ")]": 2507,
      "Ġtake": 2508,
      "66": 2509,
      "android": 2510,
      "Wh": 2511,
      "34": 2512,
      "context": 2513,
      "Ġterm": 2514,
      "Ġconf": 2515,
      "Ġitem": 2516,
      "alth": 2517,
      "gra": 2518,
      "Ġposition": 2519,
      "Table": 2520,
      "olds": 2521,
      "icy": 2522,
      "refer": 2523,
      "ordin": 2524,
      "ĉĉĉĉĉĉ": 2525,
      "Log": 2526,
      "Ġphase": 2527,
      "posed": 2528,
      "Ġcontr": 2529,
      "70": 2530,
      "doc": 2531,
      "namespace": 2532,
      "Ġflu": 2533,
      "--------------------------------": 2534,
      ";</": 2535,
      "Manager": 2536,
      "55": 2537,
      ".âĢĿ": 2538,
      "Ġrate": 2539,
      "Ad": 2540,
      "start": 2541,
      "Ġ};": 2542,
      "=\"../": 2543,
      "oll": 2544,
      "Ġexpected": 2545,
      "oment": 2546,
      "ret": 2547,
      "gs": 2548,
      "Ġstill": 2549,
      ")^{": 2550,
      "ental": 2551,
      "note": 2552,
      "package": 2553,
      "Ġke": 2554,
      "Ġchang": 2555,
      "ithub": 2556,
      "rap": 2557,
      "bug": 2558,
      "Ġerr": 2559,
      "vis": 2560,
      "Ġexpect": 2561,
      "Ġspectr": 2562,
      "false": 2563,
      "Ġmark": 2564,
      "ĠOb": 2565,
      "az": 2566,
      "Ġem": 2567,
      "ware": 2568,
      "lish": 2569,
      "db": 2570,
      "uage": 2571,
      "Ġes": 2572,
      "ah": 2573,
      "Ġframe": 2574,
      "overn": 2575,
      "spec": 2576,
      "Ġ__": 2577,
      "tically": 2578,
      "Ġcolor": 2579,
      ";\\": 2580,
      "Ġdown": 2581,
      "textwidth": 2582,
      "}|": 2583,
      "Ġgu": 2584,
      "core": 2585,
      "}_\\": 2586,
      "viron": 2587,
      "$)": 2588,
      "using": 2589,
      "ication": 2590,
      "Ġproperties": 2591,
      "Ġdefine": 2592,
      "Is": 2593,
      "DO": 2594,
      "Ġdynam": 2595,
      "lemma": 2596,
      "Ġcou": 2597,
      "omorph": 2598,
      "vailable": 2599,
      "Ġidentif": 2600,
      "imal": 2601,
      "Ġfour": 2602,
      "ponse": 2603,
      "ponents": 2604,
      "198": 2605,
      "Ġcommun": 2606,
      "ĠAnd": 2607,
      ",-": 2608,
      "nal": 2609,
      "versity": 2610,
      "Ġdetermin": 2611,
      "aterial": 2612,
      "mag": 2613,
      "dev": 2614,
      "skip": 2615,
      "Ġperformance": 2616,
      "Ġec": 2617,
      "emp": 2618,
      "Property": 2619,
      "scale": 2620,
      "}^\\": 2621,
      "Ġknown": 2622,
      "Ġaver": 2623,
      "Ġchild": 2624,
      "xy": 2625,
      "Inter": 2626,
      "ready": 2627,
      "ĠPar": 2628,
      "ibr": 2629,
      "<!--": 2630,
      "Out": 2631,
      "leg": 2632,
      "Ġvalid": 2633,
      "oth": 2634,
      "Ġdid": 2635,
      "48": 2636,
      "Ġprote": 2637,
      "Ġim": 2638,
      "Ġaddress": 2639,
      "=\"#": 2640,
      "Ser": 2641,
      "pdf": 2642,
      "github": 2643,
      "Ġlabel": 2644,
      "ĠAd": 2645,
      "Ġinf": 2646,
      "================": 2647,
      "Ġimportant": 2648,
      "Ġtry": 2649,
      "day": 2650,
      "cdots": 2651,
      "((": 2652,
      "ident": 2653,
      "tot": 2654,
      "Ġnormal": 2655,
      "undle": 2656,
      "Ġge": 2657,
      "mark": 2658,
      "Ġexists": 2659,
      "conn": 2660,
      "png": 2661,
      "static": 2662,
      "xspace": 2663,
      "lit": 2664,
      "Ġconstra": 2665,
      "System": 2666,
      "Ġrece": 2667,
      "39": 2668,
      "ĠBy": 2669,
      "Ġincluding": 2670,
      "ULL": 2671,
      "Ġ\\{": 2672,
      "Ġestimate": 2673,
      "attern": 2674,
      "ES": 2675,
      "Ġaround": 2676,
      "ways": 2677,
      "Ġconditions": 2678,
      "display": 2679,
      "ename": 2680,
      "Ġandroid": 2681,
      "Ġsymmet": 2682,
      "wise": 2683,
      "Ġlower": 2684,
      "Ġcirc": 2685,
      "OT": 2686,
      "web": 2687,
      "lib": 2688,
      "}}(": 2689,
      "Ġremain": 2690,
      "lied": 2691,
      "ĠSch": 2692,
      "2014": 2693,
      "ctor": 2694,
      "IR": 2695,
      "urity": 2696,
      "Ġgood": 2697,
      "Ġworld": 2698,
      "ĠAmeric": 2699,
      "my": 2700,
      "Group": 2701,
      "ags": 2702,
      "uments": 2703,
      "ars": 2704,
      "option": 2705,
      "Ġresponse": 2706,
      "ĠGet": 2707,
      "google": 2708,
      "](": 2709,
      "part": 2710,
      "qquad": 2711,
      "Ġclear": 2712,
      "ender": 2713,
      "Psi": 2714,
      "Ġzero": 2715,
      "36": 2716,
      "icient": 2717,
      "Ac": 2718,
      "Ġlink": 2719,
      "})\\": 2720,
      "Ġlook": 2721,
      ")</": 2722,
      "rec": 2723,
      "Ġhim": 2724,
      "Ġsignific": 2725,
      "define": 2726,
      "ait": 2727,
      "lying": 2728,
      "height": 2729,
      "Ġalong": 2730,
      ".~": 2731,
      "ĠĠĠĠĠĠĠĠĠĠĠĠĠĠĠĠĠĠĠĠĠĠĠĠĠĠĠĠĠĠĠ": 2732,
      "Ġsever": 2733,
      "pol": 2734,
      "Mod": 2735,
      "Ġelectr": 2736,
      "tual": 2737,
      "Ġclu": 2738,
      "All": 2739,
      "Exp": 2740,
      "ump": 2741,
      "null": 2742,
      "0000": 2743,
      "Ġide": 2744,
      ">(": 2745,
      "PT": 2746,
      "stand": 2747,
      "Ġcases": 2748,
      "Ġtimes": 2749,
      "under": 2750,
      "Client": 2751,
      "pping": 2752,
      "eps": 2753,
      "Ġstyle": 2754,
      "ensor": 2755,
      "her": 2756,
      "Ġphot": 2757,
      "UN": 2758,
      "Ġdiag": 2759,
      "ategory": 2760,
      "ank": 2761,
      "EE": 2762,
      "Ġcomput": 2763,
      "Ġsystems": 2764,
      "Ġhelp": 2765,
      "Ġrequired": 2766,
      "Ð¾": 2767,
      "mathsf": 2768,
      "clo": 2769,
      "ns": 2770,
      "Ġlaw": 2771,
      "pling": 2772,
      "ended": 2773,
      "Ġfull": 2774,
      "ati": 2775,
      "ĠCol": 2776,
      "Result": 2777,
      "ĠApp": 2778,
      "ENT": 2779,
      "inc": 2780,
      "Method": 2781,
      "oot": 2782,
      "inary": 2783,
      "38": 2784,
      "earch": 2785,
      "cup": 2786,
      "Bar": 2787,
      "Ġoperator": 2788,
      "}^{(": 2789,
      "Ġimpro": 2790,
      "Ġeas": 2791,
      "Ġprobability": 2792,
      "idual": 2793,
      "current": 2794,
      "^+": 2795,
      "dl": 2796,
      "ĠNo": 2797,
      "urb": 2798,
      "Ġleast": 2799,
      "rel": 2800,
      "Ġoptions": 2801,
      "ĠFigure": 2802,
      "2021": 2803,
      "ĠUni": 2804,
      "argin": 2805,
      "Ġbest": 2806,
      "Ġstd": 2807,
      "Ġelements": 2808,
      "Ġtraining": 2809,
      "Date": 2810,
      "gebra": 2811,
      "Sch": 2812,
      "Ġfurther": 2813,
      "sian": 2814,
      "operator": 2815,
      "oint": 2816,
      "Ġdetail": 2817,
      "Ġsimple": 2818,
      "Ġauto": 2819,
      "lip": 2820,
      "entity": 2821,
      "Ġcontrib": 2822,
      "ariant": 2823,
      "{{\\": 2824,
      "Ġnil": 2825,
      "Ġperiod": 2826,
      "Ġeval": 2827,
      "Ġdatas": 2828,
      "auth": 2829,
      "star": 2830,
      "lin": 2831,
      "Ġavailable": 2832,
      "sw": 2833,
      "CE": 2834,
      "which": 2835,
      "tle": 2836,
      "}\\,": 2837,
      "Ġexpl": 2838,
      "Reg": 2839,
      "ade": 2840,
      "Ġbro": 2841,
      "istory": 2842,
      "Ġmessage": 2843,
      "dir": 2844,
      "&=": 2845,
      "2013": 2846,
      "count": 2847,
      "Ġoriginal": 2848,
      "}\\\\": 2849,
      "Ġpositive": 2850,
      "Ġbool": 2851,
      "equiv": 2852,
      "End": 2853,
      "Ġhigher": 2854,
      "Ġown": 2855,
      "licit": 2856,
      "Ġbehav": 2857,
      "Query": 2858,
      "Ã©": 2859,
      "alle": 2860,
      "site": 2861,
      "Ġ&\\": 2862,
      "II": 2863,
      "image": 2864,
      "laim": 2865,
      "Ġassociated": 2866,
      "Ġsuff": 2867,
      "run": 2868,
      "uture": 2869,
      "Response": 2870,
      "Ġquantum": 2871,
      "Ġdiff": 2872,
      "Ġatt": 2873,
      "Ġtable": 2874,
      "pc": 2875,
      "asing": 2876,
      "Ð°": 2877,
      "Override": 2878,
      "Ġstudi": 2879,
      "Ġfree": 2880,
      "local": 2881,
      "resh": 2882,
      "Ġinclude": 2883,
      "Action": 2884,
      "iti": 2885,
      "Ġphys": 2886,
      "TH": 2887,
      "alax": 2888,
      "appro": 2889,
      "44": 2890,
      "Ġ$(\\": 2891,
      "Attribute": 2892,
      "Ġpost": 2893,
      "And": 2894,
      "Builder": 2895,
      "actory": 2896,
      "widehat": 2897,
      "ĠLemma": 2898,
      "button": 2899,
      "Ġfactor": 2900,
      "netic": 2901,
      "Ġstandard": 2902,
      "page": 2903,
      "ris": 2904,
      "rior": 2905,
      "bly": 2906,
      "37": 2907,
      "cos": 2908,
      "sch": 2909,
      "Ġappear": 2910,
      "omin": 2911,
      "Ġsequence": 2912,
      "query": 2913,
      "Ġdeg": 2914,
      "ether": 2915,
      "}:": 2916,
      "toc": 2917,
      "riter": 2918,
      "Ġfields": 2919,
      "Ġtemper": 2920,
      "iction": 2921,
      "orn": 2922,
      "Ġeither": 2923,
      "ĠSet": 2924,
      "Call": 2925,
      "defined": 2926,
      "Ġevalu": 2927,
      "Sub": 2928,
      "ests": 2929,
      "event": 2930,
      "subset": 2931,
      "af": 2932,
      "vironment": 2933,
      "Count": 2934,
      "Ġconver": 2935,
      "finished": 2936,
      "Ġcomplete": 2937,
      "Ġscale": 2938,
      "ticle": 2939,
      "][": 2940,
      "mid": 2941,
      "lick": 2942,
      "Sc": 2943,
      "eme": 2944,
      "active": 2945,
      "Ġthus": 2946,
      "Ġcell": 2947,
      "Ġsignificant": 2948,
      "ood": 2949,
      "Ġbelow": 2950,
      "ling": 2951,
      "php": 2952,
      "Ġwrite": 2953,
      "print": 2954,
      "31": 2955,
      "Ġcross": 2956,
      "uter": 2957,
      "indent": 2958,
      "Ġfixed": 2959,
      "Ġnear": 2960,
      "Ġimplement": 2961,
      "Input": 2962,
      "Ġcolumn": 2963,
      "options": 2964,
      "split": 2965,
      "âĢľ": 2966,
      "func": 2967,
      "Ġmis": 2968,
      "witch": 2969,
      "Ġproposed": 2970,
      "Ġsepar": 2971,
      "hand": 2972,
      "ĠAt": 2973,
      "Ġspe": 2974,
      "jav": 2975,
      "command": 2976,
      "jor": 2977,
      "NS": 2978,
      "urs": 2979,
      "aving": 2980,
      "ety": 2981,
      "oken": 2982,
      "element": 2983,
      "Ġless": 2984,
      "Ġequival": 2985,
      "Ġobserved": 2986,
      "Ġcompar": 2987,
      "New": 2988,
      "ological": 2989,
      "Ġlines": 2990,
      "Ġfrequ": 2991,
      "Ġanother": 2992,
      "ĠĠĠĠĠĠĠĠĠĠĠĠĠĠĠĠĠ": 2993,
      "ital": 2994,
      "Ġlang": 2995,
      "MS": 2996,
      "Stream": 2997,
      "rect": 2998,
      "Ġassume": 2999,
      "({": 3000,
      "65": 3001,
      "]$": 3002,
      "ging": 3003,
      "Ġdep": 3004,
      "Ġinterest": 3005,
      "unfinished": 3006,
      "Ref": 3007,
      "ounded": 3008,
      "mul": 3009,
      "Ġvol": 3010,
      "ale": 3011,
      "}}{\\": 3012,
      "Ġmeans": 3013,
      "Ðµ": 3014,
      "anti": 3015,
      "ĠTr": 3016,
      "AME": 3017,
      "bottom": 3018,
      "08": 3019,
      "Ġrespect": 3020,
      "07": 3021,
      "2012": 3022,
      "Ġnum": 3023,
      "Ġlight": 3024,
      "Ġstep": 3025,
      "pose": 3026,
      "Ġfeatures": 3027,
      "Ġcombin": 3028,
      "SP": 3029,
      "ĠPh": 3030,
      "Ġplace": 3031,
      "igen": 3032,
      "Not": 3033,
      "Ġseveral": 3034,
      "based": 3035,
      "Util": 3036,
      "Ġalready": 3037,
      "Ġsay": 3038,
      "Ġsem": 3039,
      "IL": 3040,
      "])": 3041,
      "ium": 3042,
      "lished": 3043,
      "Ġmoment": 3044,
      "module": 3045,
      "args": 3046,
      "Ġbuil": 3047,
      "Ġglobal": 3048,
      "Ġmov": 3049,
      "Ġsearch": 3050,
      "stit": 3051,
      "reen": 3052,
      "Block": 3053,
      "dimension": 3054,
      "ĠĠĠĠĠĠĠĠĠĠĠĠĠĠ": 3055,
      "Comp": 3056,
      "Ġdev": 3057,
      "Ġ->": 3058,
      "Ġthrow": 3059,
      "Ġlearning": 3060,
      ")-": 3061,
      "fill": 3062,
      "utr": 3063,
      "Ġcomponent": 3064,
      "actions": 3065,
      "ral": 3066,
      "citet": 3067,
      "|^": 3068,
      "Ġeffect": 3069,
      "04": 3070,
      "02": 3071,
      "Component": 3072,
      "append": 3073,
      "hip": 3074,
      "tition": 3075,
      "ulations": 3076,
      "iness": 3077,
      "Pr": 3078,
      "Ġrefer": 3079,
      "Ġrecent": 3080,
      "Ġside": 3081,
      "Gener": 3082,
      "Ġmove": 3083,
      ".\"": 3084,
      "Ġaff": 3085,
      "enumer": 3086,
      "95": 3087,
      "âĢĵ": 3088,
      "Ġest": 3089,
      "Ġsuccess": 3090,
      ",âĢĿ": 3091,
      "Ġnumer": 3092,
      "Ġdistance": 3093,
      "Ġloss": 3094,
      "adding": 3095,
      "}+\\": 3096,
      "Ġconsist": 3097,
      "ĠThese": 3098,
      "tices": 3099,
      "&&": 3100,
      "ek": 3101,
      "Ġweight": 3102,
      "hspace": 3103,
      "Ġ<<": 3104,
      "Image": 3105,
      "stead": 3106,
      "'$": 3107,
      "ght": 3108,
      "US": 3109,
      "ĠLe": 3110,
      "sin": 3111,
      "neq": 3112,
      "server": 3113,
      "edge": 3114,
      "ONT": 3115,
      "Ġserv": 3116,
      "Str": 3117,
      "ĠSo": 3118,
      "gen": 3119,
      "Line": 3120,
      "ĠĠĠĠĠĠĠĠĊ": 3121,
      "Ġdomain": 3122,
      "ula": 3123,
      "Ġcover": 3124,
      "Im": 3125,
      "Ġdocument": 3126,
      "target": 3127,
      "request": 3128,
      "Status": 3129,
      "Ġborder": 3130,
      "ored": 3131,
      "client": 3132,
      "onal": 3133,
      "ĠSince": 3134,
      "scr": 3135,
      "ecess": 3136,
      "Ġfew": 3137,
      "Ġques": 3138,
      "flow": 3139,
      "Ġconsidered": 3140,
      "Trans": 3141,
      "char": 3142,
      "ĠMe": 3143,
      "AP": 3144,
      "There": 3145,
      "pped": 3146,
      "ln": 3147,
      "Ġaverage": 3148,
      "Ġ()": 3149,
      "ĠĠĠĠĠĠĠĠĠĠĠĠĊ": 3150,
      "Lay": 3151,
      "ĠÐ": 3152,
      "Nav": 3153,
      "omen": 3154,
      "Ġdon": 3155,
      "CC": 3156,
      "has": 3157,
      "Ġcour": 3158,
      "Ġagainst": 3159,
      "}-\\": 3160,
      "78": 3161,
      "Ġchannel": 3162,
      "Ġbetter": 3163,
      "write": 3164,
      "Ġfit": 3165,
      "}/": 3166,
      "Ġfeature": 3167,
      "Be": 3168,
      "Ġedge": 3169,
      "ird": 3170,
      "Ġexec": 3171,
      "OS": 3172,
      "ograph": 3173,
      "Ġexact": 3174,
      "2011": 3175,
      "footnote": 3176,
      "Ġdiv": 3177,
      "ately": 3178,
      "case": 3179,
      "(-": 3180,
      "({\\": 3181,
      "oriz": 3182,
      "theorem": 3183,
      "Ġhal": 3184,
      "Ġanaly": 3185,
      "orth": 3186,
      "ories": 3187,
      "Ġgalax": 3188,
      "Ġvia": 3189,
      "Ġturn": 3190,
      "Ġdescribed": 3191,
      "Ġalways": 3192,
      "Sec": 3193,
      "Ġdirection": 3194,
      "oud": 3195,
      "Ġflow": 3196,
      "Dec": 3197,
      "example": 3198,
      "column": 3199,
      "ĠEn": 3200,
      "eloc": 3201,
      "Ġwant": 3202,
      "Ġobj": 3203,
      "bb": 3204,
      "Ġdefinition": 3205,
      "{}": 3206,
      "uman": 3207,
      "Ġgenerated": 3208,
      "]\\": 3209,
      "rule": 3210,
      "enumerate": 3211,
      "Ġperson": 3212,
      "ĠBo": 3213,
      "Ġexpression": 3214,
      "Ġwhether": 3215,
      "REF": 3216,
      "older": 3217,
      "Ġresearch": 3218,
      "Ġband": 3219,
      "Ġprogram": 3220,
      "tives": 3221,
      "itemize": 3222,
      "Ġfamily": 3223,
      "Ġ-\\": 3224,
      "Ġaccur": 3225,
      "navbar": 3226,
      "header": 3227,
      "supp": 3228,
      "Ġfocus": 3229,
      "Ġcontains": 3230,
      "oding": 3231,
      ")}{": 3232,
      "06": 3233,
      "ĠBut": 3234,
      "Ġunit": 3235,
      "vspace": 3236,
      "Resource": 3237,
      "Ġiss": 3238,
      "Instance": 3239,
      "Ed": 3240,
      "omic": 3241,
      "ending": 3242,
      "first": 3243,
      "cell": 3244,
      "Ġpur": 3245,
      "Rep": 3246,
      "eline": 3247,
      "gg": 3248,
      "Ġaccess": 3249,
      "AG": 3250,
      "Ġspin": 3251,
      "lap": 3252,
      "kes": 3253,
      "Ġiter": 3254,
      "ĠNULL": 3255,
      "Ġbi": 3256,
      "ATE": 3257,
      "ideo": 3258,
      "normal": 3259,
      "Ġequations": 3260,
      "Ġrelations": 3261,
      "Ġcost": 3262,
      "orld": 3263,
      "Handler": 3264,
      "angle": 3265,
      "race": 3266,
      "YPE": 3267,
      "ination": 3268,
      "Ġboolean": 3269,
      "itude": 3270,
      "tocol": 3271,
      "Ġboundary": 3272,
      "operatorname": 3273,
      "ience": 3274,
      "mic": 3275,
      "gl": 3276,
      "49": 3277,
      "Base": 3278,
      "empty": 3279,
      "Ġmen": 3280,
      "property": 3281,
      "${": 3282,
      "jection": 3283,
      "iform": 3284,
      "Ġsk": 3285,
      "omes": 3286,
      "ĠUniversity": 3287,
      "abase": 3288,
      "xml": 3289,
      "03": 3290,
      "egative": 3291,
      "tract": 3292,
      "multi": 3293,
      "ords": 3294,
      "Ġold": 3295,
      "Ġ\"\"\"": 3296,
      "Ġseries": 3297,
      "plit": 3298,
      "Ġrole": 3299,
      "noindent": 3300,
      "Ġseen": 3301,
      "istr": 3302,
      "multic": 3303,
      "omial": 3304,
      "dag": 3305,
      "Ġfilter": 3306,
      "ĠThus": 3307,
      "ather": 3308,
      "tio": 3309,
      "Token": 3310,
      "Ġlife": 3311,
      "ker": 3312,
      "Ġheight": 3313,
      "Ġshort": 3314,
      "ĠSec": 3315,
      "lugin": 3316,
      "Ġthink": 3317,
      "tyle": 3318,
      "level": 3319,
      "most": 3320,
      "Ġgovern": 3321,
      "Ġsets": 3322,
      "Ġprovided": 3323,
      "ries": 3324,
      "Ġcannot": 3325,
      "mar": 3326,
      "Ġcommon": 3327,
      "Ġ+=": 3328,
      "gether": 3329,
      "ĠList": 3330,
      "Ġlat": 3331,
      "ieve": 3332,
      "Ġspecific": 3333,
      "olumn": 3334,
      "77": 3335,
      "outh": 3336,
      "Ġdesign": 3337,
      "pts": 3338,
      "icense": 3339,
      "Ġgive": 3340,
      "Ġnote": 3341,
      "lex": 3342,
      "09": 3343,
      "Pi": 3344,
      "Ġdouble": 3345,
      "Ġmultiple": 3346,
      "Conn": 3347,
      "NN": 3348,
      "}}_": 3349,
      "Ġadv": 3350,
      "2010": 3351,
      "adata": 3352,
      "medi": 3353,
      "init": 3354,
      "Options": 3355,
      "ocial": 3356,
      "ameters": 3357,
      "Ġsurface": 3358,
      "Content": 3359,
      ")}$": 3360,
      "long": 3361,
      "orage": 3362,
      "Ġmode": 3363,
      "Ġresource": 3364,
      "68": 3365,
      "[\"": 3366,
      "Ġaccount": 3367,
      "Ġconnection": 3368,
      "Ġservice": 3369,
      "Command": 3370,
      "ires": 3371,
      "ĠMore": 3372,
      "Ġwar": 3373,
      "izer": 3374,
      "astic": 3375,
      "ĠCO": 3376,
      "frame": 3377,
      "multicolumn": 3378,
      "Ġnat": 3379,
      "Cell": 3380,
      "Ġinvol": 3381,
      "meta": 3382,
      "sions": 3383,
      "$}": 3384,
      "known": 3385,
      "json": 3386,
      "cast": 3387,
      "Ġlarger": 3388,
      "ĠThey": 3389,
      "Ġimplies": 3390,
      "abil": 3391,
      "usiness": 3392,
      "Ġmight": 3393,
      "Ġrelated": 3394,
      "parent": 3395,
      "Ġnecess": 3396,
      "mathscr": 3397,
      "efore": 3398,
      "uk": 3399,
      "Ġrepres": 3400,
      "ĠAll": 3401,
      "ĠNote": 3402,
      "Ġequal": 3403,
      "\\,\\": 3404,
      "Ġveloc": 3405,
      "echan": 3406,
      "OD": 3407,
      "Null": 3408,
      "HT": 3409,
      "Ġhttp": 3410,
      "select": 3411,
      "Function": 3412,
      "ged": 3413,
      "Ġproject": 3414,
      "book": 3415,
      "dimensional": 3416,
      "Ġclose": 3417,
      "ably": 3418,
      "ighb": 3419,
      "Link": 3420,
      "she": 3421,
      "EX": 3422,
      "Ġlater": 3423,
      "Ġindiv": 3424,
      "Ġcoordin": 3425,
      "idence": 3426,
      "Ġreason": 3427,
      "Ġvariables": 3428,
      "though": 3429,
      "btn": 3430,
      "Ġti": 3431,
      "LT": 3432,
      "ĠInd": 3433,
      "\\}$": 3434,
      "Ġrepresentation": 3435,
      "Buffer": 3436,
      "Ġfar": 3437,
      "First": 3438,
      "Box": 3439,
      "IP": 3440,
      "Ġcoeff": 3441,
      "Ġtemperature": 3442,
      "Source": 3443,
      "description": 3444,
      "Hel": 3445,
      "img": 3446,
      "Number": 3447,
      "obj": 3448,
      "num": 3449,
      "vider": 3450,
      "Ġplan": 3451,
      "src": 3452,
      "strac": 3453,
      "dat": 3454,
      "ters": 3455,
      "idget": 3456,
      "strong": 3457,
      "Ġevents": 3458,
      "LASS": 3459,
      "TO": 3460,
      "filter": 3461,
      "Ġpage": 3462,
      "Ġcri": 3463,
      "mated": 3464,
      "post": 3465,
      "Ġspecial": 3466,
      "iff": 3467,
      "estig": 3468,
      "wards": 3469,
      "linear": 3470,
      "Pre": 3471,
      "Ġopp": 3472,
      "uro": 3473,
      "Ġarea": 3474,
      "ient": 3475,
      "ĠCar": 3476,
      "47": 3477,
      "enti": 3478,
      "approx": 3479,
      "Ġindependent": 3480,
      "ĠAss": 3481,
      "illion": 3482,
      "SC": 3483,
      "private": 3484,
      "UE": 3485,
      "Ġsolutions": 3486,
      "mail": 3487,
      "*/": 3488,
      "Ġprove": 3489,
      "open": 3490,
      "Ġholds": 3491,
      "sg": 3492,
      "Ġdone": 3493,
      "Ġproduct": 3494,
      "imary": 3495,
      "ledge": 3496,
      "change": 3497,
      "Ġ]": 3498,
      "ina": 3499,
      "Factory": 3500,
      "ĠNone": 3501,
      "Ġadditional": 3502,
      "Ð¸": 3503,
      "teq": 3504,
      "stack": 3505,
      "Ġfac": 3506,
      "GL": 3507,
      "creen": 3508,
      "MM": 3509,
      "Ġvir": 3510,
      "ested": 3511,
      "build": 3512,
      "Ġcr": 3513,
      "that": 3514,
      "icture": 3515,
      "FA": 3516,
      "Equal": 3517,
      "Ġimages": 3518,
      "RI": 3519,
      "Sp": 3520,
      "ĠCo": 3521,
      "Run": 3522,
      "Ġrelation": 3523,
      "CD": 3524,
      "Window": 3525,
      "Oper": 3526,
      "Ġregular": 3527,
      "Ġhead": 3528,
      "ĉĉĉĉĉĉĉĉ": 3529,
      "uary": 3530,
      "ptions": 3531,
      "ony": 3532,
      "texttt": 3533,
      "Ġtherefore": 3534,
      "Ġgives": 3535,
      "find": 3536,
      "can": 3537,
      "ĠOr": 3538,
      "67": 3539,
      "Label": 3540,
      "Ġgrow": 3541,
      "Ġcluster": 3542,
      "comm": 3543,
      "Ġcommand": 3544,
      "\".": 3545,
      "abs": 3546,
      "Ġconc": 3547,
      "Ġcomponents": 3548,
      "ressed": 3549,
      "$(": 3550,
      "Ġbook": 3551,
      "Spec": 3552,
      "rl": 3553,
      "bility": 3554,
      "Ġ\\|": 3555,
      "});": 3556,
      "ĠTable": 3557,
      "Ġorgan": 3558,
      "Ġprec": 3559,
      "process": 3560,
      "CK": 3561,
      "igger": 3562,
      "teger": 3563,
      "scope": 3564,
      "rowser": 3565,
      "ving": 3566,
      "Ġweak": 3567,
      "Ġloc": 3568,
      "Off": 3569,
      "Ġtransition": 3570,
      "Ġfail": 3571,
      ")+": 3572,
      "Ġindividual": 3573,
      "els": 3574,
      "Ġdisplay": 3575,
      "///": 3576,
      "={": 3577,
      "ranch": 3578,
      "mt": 3579,
      "ascript": 3580,
      "font": 3581,
      "Version": 3582,
      "Ġcenter": 3583,
      "SI": 3584,
      "Ġproduc": 3585,
      "Note": 3586,
      "Ġattribute": 3587,
      "Ġcount": 3588,
      "cr": 3589,
      "Ġblack": 3590,
      "pher": 3591,
      "ohn": 3592,
      "Ġmaximum": 3593,
      "Ġla": 3594,
      "Ġunc": 3595,
      "Ġ_{": 3596,
      "status": 3597,
      "Ġrot": 3598,
      "Ġfore": 3599,
      "Ġbegin": 3600,
      "Ġcertain": 3601,
      "ÑĤ": 3602,
      "SU": 3603,
      "sa": 3604,
      "child": 3605,
      "ying": 3606,
      "Ġreach": 3607,
      "typ": 3608,
      "Ġvariable": 3609,
      "Ġmodule": 3610,
      "Filter": 3611,
      "Ġobjects": 3612,
      "atform": 3613,
      "stream": 3614,
      "aves": 3615,
      "Ġtypes": 3616,
      "Frame": 3617,
      "push": 3618,
      "Fe": 3619,
      "trm": 3620,
      "Ġeigen": 3621,
      "gence": 3622,
      "ĠWhen": 3623,
      "98": 3624,
      "encies": 3625,
      "inally": 3626,
      "ptr": 3627,
      "Ġupdate": 3628,
      "HE": 3629,
      "seteq": 3630,
      "ised": 3631,
      "norm": 3632,
      "ino": 3633,
      "Ġfuture": 3634,
      "\"]": 3635,
      "Ġapplic": 3636,
      "tag": 3637,
      "AM": 3638,
      "layout": 3639,
      "textrm": 3640,
      "....": 3641,
      "Supp": 3642,
      "close": 3643,
      "42": 3644,
      "ĠYou": 3645,
      "Ab": 3646,
      "}'": 3647,
      "values": 3648,
      "Bundle": 3649,
      "Ġalgebra": 3650,
      "lease": 3651,
      "VER": 3652,
      "True": 3653,
      "sitions": 3654,
      "hel": 3655,
      "2009": 3656,
      ".$": 3657,
      "Ġeffective": 3658,
      "more": 3659,
      "DB": 3660,
      "finite": 3661,
      "underline": 3662,
      "Style": 3663,
      "Ġmagnetic": 3664,
      "Ġvarious": 3665,
      "Start": 3666,
      "ĠTherefore": 3667,
      "Ġhapp": 3668,
      "Ġaccording": 3669,
      "Ġextends": 3670,
      "idden": 3671,
      "Default": 3672,
      "Ġable": 3673,
      "Ġwave": 3674,
      "Ġlik": 3675,
      "matic": 3676,
      "Ġrelative": 3677,
      "ury": 3678,
      "Ġ<!--": 3679,
      "Since": 3680,
      "pack": 3681,
      "Ġinternal": 3682,
      "Loc": 3683,
      "pg": 3684,
      "gress": 3685,
      "ĠGe": 3686,
      "cs": 3687,
      "Ġdegree": 3688,
      "like": 3689,
      "Ġapplication": 3690,
      "Then": 3691,
      "format": 3692,
      "mem": 3693,
      "Ġhowever": 3694,
      "Ġmatter": 3695,
      "Page": 3696,
      "}}}": 3697,
      "ĠRo": 3698,
      "minus": 3699,
      "pto": 3700,
      "Ġday": 3701,
      "ometry": 3702,
      "Ġsyn": 3703,
      "ols": 3704,
      "eded": 3705,
      "Ġ(-": 3706,
      "len": 3707,
      "Ġ$\\{": 3708,
      "Ġprac": 3709,
      "radi": 3710,
      "prod": 3711,
      "une": 3712,
      "Ġdifference": 3713,
      "alog": 3714,
      "Theta": 3715,
      "Ġnodes": 3716,
      "Ġdetails": 3717,
      "ĠCoun": 3718,
      "46": 3719,
      "Ġinvestig": 3720,
      "quare": 3721,
      "~$": 3722,
      "Return": 3723,
      "range": 3724,
      "Ġinstead": 3725,
      "ious": 3726,
      "Ġhom": 3727,
      "parse": 3728,
      "Ġben": 3729,
      "85": 3730,
      "update": 3731,
      "Ġschool": 3732,
      "Ġleg": 3733,
      "FONT": 3734,
      "Ġtransform": 3735,
      "AA": 3736,
      "Ġthrows": 3737,
      "lus": 3738,
      "Ġeffects": 3739,
      "amil": 3740,
      "Ġestab": 3741,
      "ĠEng": 3742,
      "Create": 3743,
      "FI": 3744,
      "match": 3745,
      "ba": 3746,
      "Check": 3747,
      "subseteq": 3748,
      "Ġput": 3749,
      "Ġtoo": 3750,
      "izes": 3751,
      "Ġauthor": 3752,
      "acity": 3753,
      "Controller": 3754,
      "Co": 3755,
      "Ġgroups": 3756,
      "Net": 3757,
      "FT": 3758,
      "Ġtre": 3759,
      "izing": 3760,
      "^-": 3761,
      "Ġtogether": 3762,
      "ĠObject": 3763,
      "Task": 3764,
      "Ġsite": 3765,
      "py": 3766,
      "javascript": 3767,
      "Ġbasis": 3768,
      "Ġgame": 3769,
      "ĠFe": 3770,
      "reed": 3771,
      "thes": 3772,
      "ĠĠĠĊ": 3773,
      "Ġmajor": 3774,
      "Arg": 3775,
      "PC": 3776,
      "<\\": 3777,
      "Ġprotected": 3778,
      "oke": 3779,
      "Ġcompared": 3780,
      "Ġsetting": 3781,
      "stract": 3782,
      "Ġfund": 3783,
      "Ġspectrum": 3784,
      "Ġ$|": 3785,
      "Ġwindow": 3786,
      "Ġ((": 3787,
      "number": 3788,
      "Button": 3789,
      "iler": 3790,
      "Ġacross": 3791,
      "ynomial": 3792,
      "ls": 3793,
      "mooth": 3794,
      "Ext": 3795,
      "ĠTest": 3796,
      "SON": 3797,
      "Ġuntil": 3798,
      "params": 3799,
      "{$": 3800,
      "Ġenough": 3801,
      "Ġdataset": 3802,
      "show": 3803,
      "Ġrestr": 3804,
      "),\\": 3805,
      "Ġmechan": 3806,
      "\\\"": 3807,
      "Ass": 3808,
      "Row": 3809,
      "else": 3810,
      "response": 3811,
      "icial": 3812,
      "onic": 3813,
      "Ġchanges": 3814,
      "Ġwhose": 3815,
      "ĠIs": 3816,
      "black": 3817,
      "Ġclaim": 3818,
      ")|": 3819,
      "Ġamong": 3820,
      "hood": 3821,
      "ĠIN": 3822,
      "amed": 3823,
      "////////////////": 3824,
      "std": 3825,
      "apter": 3826,
      "Ġunique": 3827,
      "buf": 3828,
      "Ġtaken": 3829,
      "Ġrest": 3830,
      "entry": 3831,
      "oted": 3832,
      "iven": 3833,
      "totype": 3834,
      "agement": 3835,
      "Ġreference": 3836,
      "ĠDec": 3837,
      "bound": 3838,
      "alt": 3839,
      "icro": 3840,
      "Met": 3841,
      "cd": 3842,
      "ĠUnited": 3843,
      "annot": 3844,
      "2008": 3845,
      "container": 3846,
      "signed": 3847,
      "ai": 3848,
      "Ġvelocity": 3849,
      "ĠRec": 3850,
      "Acc": 3851,
      "yl": 3852,
      "ours": 3853,
      "linewidth": 3854,
      "Ġprior": 3855,
      "Ġpanel": 3856,
      "ypes": 3857,
      "ĠAmerican": 3858,
      "Ġ{@": 3859,
      "Ġclient": 3860,
      "Ġoften": 3861,
      "Ġ\\;": 3862,
      "Ġdate": 3863,
      "Format": 3864,
      "Ġunderstand": 3865,
      "}}_{": 3866,
      "}^{-": 3867,
      "allet": 3868,
      "{{": 3869,
      "ĠReturn": 3870,
      "Ġapplied": 3871,
      "Ġsignal": 3872,
      "Ġrow": 3873,
      "Ġfig": 3874,
      "Ġconstruct": 3875,
      "host": 3876,
      "Ġemploy": 3877,
      "NO": 3878,
      "Ġhard": 3879,
      "Ġtransp": 3880,
      "ĠĠĠĠĠĠĠĠĠĠĠĠĠĠĠĠĠĠĠĠĠĠĠĠĠĠĠĠĠĠĠĠĠĠĠ": 3881,
      "Point": 3882,
      "One": 3883,
      "ĠWith": 3884,
      "}},": 3885,
      "Ġmer": 3886,
      "ategy": 3887,
      "Ġderiv": 3888,
      "ado": 3889,
      "Ġlayer": 3890,
      "Ġspecified": 3891,
      "Ġevolution": 3892,
      "Last": 3893,
      "sole": 3894,
      "aries": 3895,
      "Ġcare": 3896,
      "Ġexplo": 3897,
      "Per": 3898,
      "Ð½": 3899,
      "oder": 3900,
      "Ġstars": 3901,
      "Ġurl": 3902,
      "Listener": 3903,
      "(&": 3904,
      "rr": 3905,
      "Ġarch": 3906,
      "inv": 3907,
      "limits": 3908,
      "ulated": 3909,
      "Ġ~": 3910,
      "Ġil": 3911,
      "Ġenti": 3912,
      "oto": 3913,
      "Ġmetric": 3914,
      "Const": 3915,
      "last": 3916,
      "endif": 3917,
      "PRO": 3918,
      "lean": 3919,
      "ips": 3920,
      "Ġapply": 3921,
      "PS": 3922,
      "Ġupper": 3923,
      "Ġpresented": 3924,
      "Ġpay": 3925,
      "unit": 3926,
      "ĠHREF": 3927,
      "attr": 3928,
      "^{-\\": 3929,
      "sheet": 3930,
      "tx": 3931,
      "Ġquery": 3932,
      "ycle": 3933,
      "96": 3934,
      "ops": 3935,
      "eter": 3936,
      "Ġbuild": 3937,
      "Ġcontinuous": 3938,
      "Ġexpan": 3939,
      "Ġparent": 3940,
      "service": 3941,
      "alk": 3942,
      "Ġenvironment": 3943,
      "Ġtheorem": 3944,
      "tional": 3945,
      "Ġpub": 3946,
      "reference": 3947,
      "Ġbehavior": 3948,
      "Ġhome": 3949,
      "Ġneighb": 3950,
      "Column": 3951,
      "ley": 3952,
      ")/": 3953,
      "pass": 3954,
      "bs": 3955,
      "pag": 3956,
      "Ġfr": 3957,
      "tifact": 3958,
      "Ġneutr": 3959,
      "deed": 3960,
      "Valid": 3961,
      "Ġax": 3962,
      "Ġratio": 3963,
      "ectors": 3964,
      "Pl": 3965,
      "88": 3966,
      "iss": 3967,
      "setminus": 3968,
      "âĢĶ": 3969,
      "Ġextension": 3970,
      "Ġhyper": 3971,
      "\").": 3972,
      "Next": 3973,
      "Read": 3974,
      "ture": 3975,
      "Ġseem": 3976,
      "Ġgoing": 3977,
      "Ġembed": 3978,
      "Ġ($\\": 3979,
      "97": 3980,
      "PO": 3981,
      "Ġprofile": 3982,
      "Ġimprove": 3983,
      "system": 3984,
      "rain": 3985,
      "Ġnatural": 3986,
      "era": 3987,
      "subfigure": 3988,
      "aced": 3989,
      "Ġoption": 3990,
      "Ġpattern": 3991,
      "Ġlanguage": 3992,
      "Dep": 3993,
      "sembly": 3994,
      "ĠGener": 3995,
      "Ġwritten": 3996,
      "Ġmargin": 3997,
      "ABLE": 3998,
      "pa": 3999,
      "Ġinequ": 4000,
      "att": 4001,
      "aly": 4002,
      "Ġbecome": 4003,
      "Ġdirectly": 4004,
      "come": 4005,
      "Ġconfiguration": 4006,
      "*{": 4007,
      "enari": 4008,
      "ernel": 4009,
      "Ġ\\(": 4010,
      "Char": 4011,
      "ama": 4012,
      "models": 4013,
      "iddle": 4014,
      "Ġtree": 4015,
      "Ġstatis": 4016,
      "Ġargument": 4017,
      "ftware": 4018,
      "float": 4019,
      "usic": 4020,
      "Ġcoll": 4021,
      "Ġcopy": 4022,
      "<?": 4023,
      "Equals": 4024,
      "ĠCLASS": 4025,
      "aml": 4026,
      "ĠCor": 4027,
      "Ġcompute": 4028,
      "ques": 4029,
      "Fl": 4030,
      "ĠRep": 4031,
      "only": 4032,
      "ux": 4033,
      "refix": 4034,
      "SO": 4035,
      "ql": 4036,
      "Ġprovides": 4037,
      "IM": 4038,
      "dagger": 4039,
      "Ġbody": 4040,
      "bul": 4041,
      "Ġemission": 4042,
      ":</": 4043,
      "57": 4044,
      "Ġequivalent": 4045,
      "ĠOne": 4046,
      "inst": 4047,
      "$_": 4048,
      "ully": 4049,
      "########": 4050,
      "=\"../../": 4051,
      "INT": 4052,
      "aged": 4053,
      "Ġnoise": 4054,
      "Web": 4055,
      "na": 4056,
      "remove": 4057,
      "ĠMan": 4058,
      "2007": 4059,
      "ĠâĢĶ": 4060,
      "Ġ$[": 4061,
      "URL": 4062,
      "').": 4063,
      "```": 4064,
      "Ġmaterial": 4065,
      "wedge": 4066,
      "rup": 4067,
      "Ġeng": 4068,
      "ĠLo": 4069,
      "Ġfrac": 4070,
      "Ġexplicit": 4071,
      "classes": 4072,
      "ided": 4073,
      "Ġvertex": 4074,
      "Ġexplain": 4075,
      "instance": 4076,
      "Ġground": 4077,
      "Ġinterface": 4078,
      "SD": 4079,
      "43": 4080,
      "Layout": 4081,
      "bitr": 4082,
      "cur": 4083,
      "Ġclosed": 4084,
      "sup": 4085,
      "Ġcorrect": 4086,
      "Ġtechn": 4087,
      "menu": 4088,
      ",\"": 4089,
      "Ġproblems": 4090,
      "ttps": 4091,
      "Ġquestion": 4092,
      "struc": 4093,
      "./": 4094,
      "ĠClass": 4095,
      "fa": 4096,
      "Ġgas": 4097,
      "ĠCent": 4098,
      "Ġhuman": 4099,
      "Ġdescription": 4100,
      "\"),": 4101,
      "BU": 4102,
      "Ġsolid": 4103,
      "sto": 4104,
      "Pol": 4105,
      "Ġcaus": 4106,
      "ocket": 4107,
      "allel": 4108,
      "Ġallows": 4109,
      "Child": 4110,
      "Output": 4111,
      "Ġroot": 4112,
      "Vert": 4113,
      "ĠDis": 4114,
      "Ġvi": 4115,
      "ÑĢ": 4116,
      "ĠSe": 4117,
      "ĠBe": 4118,
      "\\}": 4119,
      "atric": 4120,
      "Ġoperation": 4121,
      "Ġcatch": 4122,
      "Ġabs": 4123,
      "Collection": 4124,
      "scri": 4125,
      "Length": 4126,
      "Ġstatus": 4127,
      "abor": 4128,
      "definition": 4129,
      "Ġtechni": 4130,
      "conf": 4131,
      "Auth": 4132,
      "Ġfrequency": 4133,
      "Ġload": 4134,
      "car": 4135,
      "output": 4136,
      "ĠReg": 4137,
      "_.": 4138,
      "turb": 4139,
      "igation": 4140,
      "Ġhttps": 4141,
      "Ġseg": 4142,
      "project": 4143,
      "Ġuncertain": 4144,
      "Ġpolynomial": 4145,
      "58": 4146,
      "ĠState": 4147,
      "serve": 4148,
      "_+": 4149,
      "omorphism": 4150,
      "Ġhaving": 4151,
      "imple": 4152,
      "zed": 4153,
      "ially": 4154,
      "56": 4155,
      "UI": 4156,
      "osed": 4157,
      "auge": 4158,
      "=(": 4159,
      "sd": 4160,
      "tri": 4161,
      "crete": 4162,
      "Ġformat": 4163,
      "ĠâĢĺ": 4164,
      "eved": 4165,
      "Ġworks": 4166,
      "Ġdecre": 4167,
      "ERT": 4168,
      "2006": 4169,
      "Ġrather": 4170,
      "Ġnone": 4171,
      "Ġagree": 4172,
      "Ġadj": 4173,
      "=-": 4174,
      "ĠAPI": 4175,
      "Url": 4176,
      "2000": 4177,
      "Ġincrease": 4178,
      "Mode": 4179,
      "Ġgreat": 4180,
      "tree": 4181,
      "atial": 4182,
      ">>": 4183,
      "=\"../../../../../": 4184,
      "Ġstre": 4185,
      "EL": 4186,
      "Ġinterval": 4187,
      "Ġweb": 4188,
      "member": 4189,
      "bigg": 4190,
      "Ġsmaller": 4191,
      "Ġhealth": 4192,
      "ĉĉĊ": 4193,
      "edia": 4194,
      "([": 4195,
      "lier": 4196,
      "hib": 4197,
      "41": 4198,
      "Ġchoice": 4199,
      ":\\": 4200,
      "proto": 4201,
      "monstr": 4202,
      "ĠTran": 4203,
      "sign": 4204,
      "Ġmonth": 4205,
      "Ġnever": 4206,
      "dient": 4207,
      "Ð¾Ð": 4208,
      "inner": 4209,
      "ĠComp": 4210,
      "Ġfont": 4211,
      "Ġframework": 4212,
      "andid": 4213,
      "Ġchildren": 4214,
      "then": 4215,
      "Min": 4216,
      "Ġrule": 4217,
      "rs": 4218,
      "Ġcustom": 4219,
      "thers": 4220,
      "iding": 4221,
      "aligned": 4222,
      "Ġobservations": 4223,
      "ĠUS": 4224,
      "_{(": 4225,
      "Entity": 4226,
      "Ġlocation": 4227,
      "Ġstream": 4228,
      "COL": 4229,
      "amilton": 4230,
      "Ġearly": 4231,
      "Ġflux": 4232,
      "Ġserver": 4233,
      "Ġoperators": 4234,
      "Ġdraw": 4235,
      "Ġ!==": 4236,
      "aded": 4237,
      "dist": 4238,
      "Ġinteraction": 4239,
      "Ġselected": 4240,
      "_*": 4241,
      "Ġproced": 4242,
      "ned": 4243,
      "comple": 4244,
      "Ġ$-": 4245,
      "break": 4246,
      "Address": 4247,
      "ifier": 4248,
      "ĠStates": 4249,
      "ĠID": 4250,
      "ses": 4251,
      "Ġgovernment": 4252,
      "solute": 4253,
      "layer": 4254,
      "orizont": 4255,
      "Ġphysical": 4256,
      "Ġmembers": 4257,
      "Now": 4258,
      "Update": 4259,
      "Ġselect": 4260,
      "Ġhence": 4261,
      "Rem": 4262,
      "Ġhost": 4263,
      "Ġsent": 4264,
      "offset": 4265,
      "ĠEX": 4266,
      "Max": 4267,
      "super": 4268,
      "late": 4269,
      "Ġliter": 4270,
      "Ġcreated": 4271,
      "Ġbounded": 4272,
      "Ġhistory": 4273,
      "tage": 4274,
      "Ġdr": 4275,
      "aj": 4276,
      "Ġconstruction": 4277,
      "ming": 4278,
      "CL": 4279,
      "anish": 4280,
      "iver": 4281,
      "fil": 4282,
      "ceed": 4283,
      "ĠCal": 4284,
      "bert": 4285,
      "ĠCan": 4286,
      "CP": 4287,
      "Ġpolicy": 4288,
      "ollary": 4289,
      "ĠMar": 4290,
      "Ġir": 4291,
      "ought": 4292,
      "Ġnumbers": 4293,
      "Ġkeep": 4294,
      "ĠPr": 4295,
      "ND": 4296,
      "ĠCl": 4297,
      "AV": 4298,
      "ERR": 4299,
      "Ġ}\\": 4300,
      "ittle": 4301,
      "Select": 4302,
      "ĠShe": 4303,
      "Ġreport": 4304,
      "Ġdemonstr": 4305,
      "oplus": 4306,
      "sm": 4307,
      "Ġuniform": 4308,
      "Ġsen": 4309,
      "Ge": 4310,
      "'\\": 4311,
      "Back": 4312,
      "gu": 4313,
      "---": 4314,
      "Ġclasses": 4315,
      "197": 4316,
      "Ġbecomes": 4317,
      "rics": 4318,
      "ĠMay": 4319,
      "CON": 4320,
      "river": 4321,
      "Ġ[]": 4322,
      "ĠSp": 4323,
      "Ġchain": 4324,
      "vant": 4325,
      "tran": 4326,
      "onds": 4327,
      "textsc": 4328,
      "Ġbusiness": 4329,
      "Ġwords": 4330,
      "ĠHT": 4331,
      "Cache": 4332,
      "cy": 4333,
      "Ġsamples": 4334,
      "Ġconnected": 4335,
      "itect": 4336,
      "Ġsubset": 4337,
      "Case": 4338,
      "Ġprint": 4339,
      "Ġoptimal": 4340,
      "ering": 4341,
      "Ġhar": 4342,
      "ĠPl": 4343,
      "Ġcollection": 4344,
      "ĠOp": 4345,
      "=\"-": 4346,
      "attribute": 4347,
      "osen": 4348,
      "rand": 4349,
      "document": 4350,
      "final": 4351,
      "control": 4352,
      "Ġamount": 4353,
      "Ġnav": 4354,
      "Ġdetermined": 4355,
      "free": 4356,
      "Ġformula": 4357,
      "Ġapproximation": 4358,
      "Ġdescribe": 4359,
      "ising": 4360,
      "Ġcurve": 4361,
      "ĉĠĠĠ": 4362,
      "++)": 4363,
      "dx": 4364,
      "require": 4365,
      "orizontal": 4366,
      "anced": 4367,
      "Ġbit": 4368,
      "aussian": 4369,
      "Ġang": 4370,
      "Ġattack": 4371,
      "lice": 4372,
      "ialog": 4373,
      "Ġnuc": 4374,
      "Provider": 4375,
      "strap": 4376,
      "rep": 4377,
      "unch": 4378,
      "Ġarbitr": 4379,
      "Ġalmost": 4380,
      "utes": 4381,
      "(_": 4382,
      "Ġcritical": 4383,
      "Ġcallback": 4384,
      "Tag": 4385,
      "Ġsymmetry": 4386,
      ")\\,": 4387,
      "Ġincreasing": 4388,
      "Ġselection": 4389,
      "essages": 4390,
      "Ġplot": 4391,
      "board": 4392,
      "ropy": 4393,
      "Ġadded": 4394,
      "opt": 4395,
      "ĠMin": 4396,
      "Ġpress": 4397,
      "lustr": 4398,
      "ĠOF": 4399,
      "ulate": 4400,
      "Ġpoli": 4401,
      "dim": 4402,
      "urope": 4403,
      "Ġthird": 4404,
      "ĠJohn": 4405,
      "ĠDes": 4406,
      "Tem": 4407,
      "Ġreally": 4408,
      "Ġdynamics": 4409,
      "thon": 4410,
      "exec": 4411,
      "direct": 4412,
      "Ġteam": 4413,
      "Ġmakes": 4414,
      "Ġonce": 4415,
      "mine": 4416,
      "inding": 4417,
      "vector": 4418,
      "Ġactive": 4419,
      "newcommand": 4420,
      "Ġreview": 4421,
      "cf": 4422,
      "tification": 4423,
      "}}(\\": 4424,
      "sur": 4425,
      "ĠLicense": 4426,
      "ibrary": 4427,
      "ards": 4428,
      "Ġrob": 4429,
      "Ġsatisfies": 4430,
      "Ġdest": 4431,
      "ili": 4432,
      "Ġchall": 4433,
      "ions": 4434,
      "ĠNational": 4435,
      "Ġerrors": 4436,
      "Ġparticle": 4437,
      "olve": 4438,
      "anged": 4439,
      "Ġtw": 4440,
      "Ġcountry": 4441,
      "Ġ|\\": 4442,
      "aren": 4443,
      "51": 4444,
      "ball": 4445,
      "onom": 4446,
      "kit": 4447,
      "ĠJan": 4448,
      "_{-": 4449,
      "Right": 4450,
      "ĠData": 4451,
      "Ġsources": 4452,
      "ky": 4453,
      "parameter": 4454,
      "finition": 4455,
      "ĠSte": 4456,
      "Ġneeded": 4457,
      "urren": 4458,
      "Ġsupported": 4459,
      "auto": 4460,
      "Ġoffset": 4461,
      "Ġregions": 4462,
      "Ġshall": 4463,
      "Ġjob": 4464,
      "Ġdevelopment": 4465,
      "Emp": 4466,
      "images": 4467,
      "Ġpopulation": 4468,
      "ĠQu": 4469,
      "Ġbox": 4470,
      "isted": 4471,
      "itory": 4472,
      "'_": 4473,
      "OL": 4474,
      "Vis": 4475,
      "DF": 4476,
      "Server": 4477,
      "Ġsto": 4478,
      "window": 4479,
      "ĠProposition": 4480,
      "Ġnecessary": 4481,
      "Ġinteger": 4482,
      "ĠThat": 4483,
      "ĠPol": 4484,
      "Ġhalf": 4485,
      "_{{\\": 4486,
      "Ġquanti": 4487,
      "Ġdiffic": 4488,
      "acing": 4489,
      "When": 4490,
      "ĠRef": 4491,
      "Types": 4492,
      "Dire": 4493,
      "colon": 4494,
      "ĠType": 4495,
      "Ġpartial": 4496,
      "Target": 4497,
      "Ġnegative": 4498,
      "\\'": 4499,
      "arily": 4500,
      "Ñģ": 4501,
      "Ġparticles": 4502,
      "Ġsocial": 4503,
      "IO": 4504,
      "istry": 4505,
      "Ġdecision": 4506,
      "Ġcome": 4507,
      "ategor": 4508,
      "Ġapproximate": 4509,
      "iving": 4510,
      "Width": 4511,
      "Offset": 4512,
      "Ġfilm": 4513,
      "Ġ${": 4514,
      "Ġconven": 4515,
      "rier": 4516,
      "Ġgalaxies": 4517,
      "2005": 4518,
      "boot": 4519,
      "root": 4520,
      "Configuration": 4521,
      "remark": 4522,
      "Ġvertices": 4523,
      "Ġfiles": 4524,
      "tains": 4525,
      "patch": 4526,
      "Ġsmooth": 4527,
      "Ġexperiments": 4528,
      "nos": 4529,
      "Ġradius": 4530,
      "RL": 4531,
      "Ġscheme": 4532,
      "Ġsitu": 4533,
      "ãģ": 4534,
      "NAME": 4535,
      "tify": 4536,
      "llar": 4537,
      "Ġdetection": 4538,
      "forall": 4539,
      "artifact": 4540,
      "Ġmaps": 4541,
      "prototype": 4542,
      "Ġdomin": 4543,
      "Ġdiscussed": 4544,
      "make": 4545,
      "bas": 4546,
      "Open": 4547,
      "subsubsection": 4548,
      "Ġho": 4549,
      "Ġminimum": 4550,
      "OP": 4551,
      "CODE": 4552,
      "Dev": 4553,
      "Ġred": 4554,
      "zero": 4555,
      "Ġ;": 4556,
      "Ġmaking": 4557,
      "Ġincluded": 4558,
      "Ġsug": 4559,
      "'>": 4560,
      "Ġsense": 4561,
      "Parameter": 4562,
      "ĠArray": 4563,
      "ids": 4564,
      "Su": 4565,
      "Ġnumerical": 4566,
      "rant": 4567,
      "ike": 4568,
      "Ġcentral": 4569,
      "template": 4570,
      "Ġgrav": 4571,
      "gorithms": 4572,
      "500": 4573,
      "eral": 4574,
      "Top": 4575,
      "Ġ**": 4576,
      "Ġtaking": 4577,
      "usion": 4578,
      "ĠRem": 4579,
      "oung": 4580,
      "author": 4581,
      "69": 4582,
      "now": 4583,
      "rapper": 4584,
      "Ġaut": 4585,
      "cel": 4586,
      "icients": 4587,
      "Ġconstraints": 4588,
      "Ġreturns": 4589,
      "Ġuses": 4590,
      "scal": 4591,
      "ĠSer": 4592,
      "TYPE": 4593,
      "ĉĉĉĉĉĉĉ": 4594,
      "Ġperformed": 4595,
      "ĠDef": 4596,
      ")}(": 4597,
      "59": 4598,
      "Ġann": 4599,
      "Tree": 4600,
      "Ġcomparison": 4601,
      "aa": 4602,
      "ils": 4603,
      "Eq": 4604,
      "Ġentire": 4605,
      "Ġtakes": 4606,
      "Ġvirtual": 4607,
      "Ġremove": 4608,
      "********************************": 4609,
      ")^{\\": 4610,
      "Ġgre": 4611,
      "valu": 4612,
      "ditional": 4613,
      "Ġcoupling": 4614,
      "ota": 4615,
      "modal": 4616,
      "Ġatten": 4617,
      "ĠHere": 4618,
      "Ġscenari": 4619,
      "TP": 4620,
      "oms": 4621,
      "Ġmemory": 4622,
      "ĠHence": 4623,
      "Ġresulting": 4624,
      "task": 4625,
      "Do": 4626,
      "Ġarguments": 4627,
      "Ġleading": 4628,
      "Ġremov": 4629,
      "Ġsimulations": 4630,
      "Ġclassical": 4631,
      "Ġintroduced": 4632,
      "Ġsymbol": 4633,
      "Level": 4634,
      "Ġinterpre": 4635,
      "Ġ...": 4636,
      "Ġscatter": 4637,
      "ĠYork": 4638,
      "ĠAcc": 4639,
      "()->": 4640,
      "common": 4641,
      "fit": 4642,
      "Ġtreat": 4643,
      "Ġpolar": 4644,
      "should": 4645,
      "Ġdoc": 4646,
      "Ġaccuracy": 4647,
      ",\\,": 4648,
      "Mem": 4649,
      "Ġcontinue": 4650,
      "Ġupd": 4651,
      "ives": 4652,
      "Ġmanif": 4653,
      "mations": 4654,
      "loor": 4655,
      "Ġrequires": 4656,
      "Ġexcept": 4657,
      "ĠAc": 4658,
      "Pos": 4659,
      "ashed": 4660,
      "zz": 4661,
      "Control": 4662,
      "returns": 4663,
      "arp": 4664,
      "Ġnetworks": 4665,
      "Ġspectral": 4666,
      "stylesheet": 4667,
      "âĢ¦": 4668,
      "ĠDo": 4669,
      "Ġinstall": 4670,
      "Ġfive": 4671,
      "Ġpeak": 4672,
      "ometric": 4673,
      "Ġforce": 4674,
      "fr": 4675,
      "jo": 4676,
      "ĠVer": 4677,
      "Ġcommunity": 4678,
      "ani": 4679,
      "Ġgauge": 4680,
      "ATION": 4681,
      "ĠEurope": 4682,
      "Ġcorresponds": 4683,
      "Ġalign": 4684,
      "urch": 4685,
      "'),": 4686,
      "bool": 4687,
      "ration": 4688,
      "agraph": 4689,
      ")_{": 4690,
      "rees": 4691,
      "uly": 4692,
      "Ġland": 4693,
      "Http": 4694,
      "Ġargs": 4695,
      "ele": 4696,
      "54": 4697,
      "Ġneeds": 4698,
      "ried": 4699,
      "DD": 4700,
      "cons": 4701,
      "Ġcompact": 4702,
      "sequence": 4703,
      "Ġsimply": 4704,
      "Container": 4705,
      "reshold": 4706,
      "iting": 4707,
      "Ġswitch": 4708,
      "Ġproduction": 4709,
      "matrix": 4710,
      "Utils": 4711,
      "}$-": 4712,
      "Ġword": 4713,
      "Ġmultip": 4714,
      "pri": 4715,
      "Ġ{}": 4716,
      "artifactId": 4717,
      "Ġinequality": 4718,
      "ĠGL": 4719,
      "Ġfloat": 4720,
      "ĠFran": 4721,
      "criptor": 4722,
      "Ġlattice": 4723,
      "2004": 4724,
      "cat": 4725,
      "Ġachi": 4726,
      "~~~~": 4727,
      "]);": 4728,
      "Ġmillion": 4729,
      "52": 4730,
      "}%": 4731,
      "KE": 4732,
      "ao": 4733,
      "Ġbuilding": 4734,
      "ĠFile": 4735,
      "Here": 4736,
      "Ġthough": 4737,
      "Ġspatial": 4738,
      "Ġsugges": 4739,
      "Ġactiv": 4740,
      "ĠFrom": 4741,
      "Ġmomentum": 4742,
      "Ġ::": 4743,
      "ĠGu": 4744,
      "ĠOur": 4745,
      "Ġstudies": 4746,
      "Ġedges": 4747,
      "Ġ+\\": 4748,
      "IF": 4749,
      "Ġshape": 4750,
      "Ġsplit": 4751,
      "ĠAdd": 4752,
      "blue": 4753,
      "cases": 4754,
      "Ġconv": 4755,
      "vex": 4756,
      ">,": 4757,
      "63": 4758,
      "trac": 4759,
      "Ġgenerate": 4760,
      "oo": 4761,
      "ĠAb": 4762,
      "Ġlate": 4763,
      "Ġess": 4764,
      "Ġcompany": 4765,
      "ked": 4766,
      "Ġmeasured": 4767,
      "Ġworking": 4768,
      "\\_": 4769,
      "ney": 4770,
      "aps": 4771,
      "resource": 4772,
      "Ġitself": 4773,
      "Ġderived": 4774,
      "CS": 4775,
      "Height": 4776,
      "Ġcos": 4777,
      "Ġbuffer": 4778,
      "perp": 4779,
      "ales": 4780,
      "clusion": 4781,
      "ĠĠĠĠĠĠĠĠĠĠĠĠĠĠĠĠĠĠĠĠĠ": 4782,
      "device": 4783,
      "ĠNS": 4784,
      "ĠHamilton": 4785,
      "vey": 4786,
      "ones": 4787,
      "Ġdepends": 4788,
      "tml": 4789,
      "QL": 4790,
      "results": 4791,
      "mode": 4792,
      "Ġbar": 4793,
      "Ġreported": 4794,
      "87": 4795,
      "Connection": 4796,
      "Rel": 4797,
      "Ġmotion": 4798,
      "Ġmeasurements": 4799,
      "ensive": 4800,
      "ixt": 4801,
      "duces": 4802,
      "Ġempty": 4803,
      "ympto": 4804,
      "atory": 4805,
      "roy": 4806,
      "Ġnorm": 4807,
      "Ġkind": 4808,
      "Ġfun": 4809,
      "Ġmention": 4810,
      "phere": 4811,
      "ĠSee": 4812,
      "SH": 4813,
      "ĠFirst": 4814,
      "{$\\": 4815,
      "Ġtensor": 4816,
      "imilar": 4817,
      "Search": 4818,
      "Entry": 4819,
      "rea": 4820,
      "=\"../../../../../../": 4821,
      "atrices": 4822,
      "%%": 4823,
      "Position": 4824,
      "ffor": 4825,
      "Ġret": 4826,
      "Ġcontribution": 4827,
      "vari": 4828,
      "vision": 4829,
      "Ġassumption": 4830,
      "Ġlikely": 4831,
      "uint": 4832,
      "kind": 4833,
      "Ġcourse": 4834,
      "Ġmedia": 4835,
      "Ġdecay": 4836,
      "buffer": 4837,
      ")^{-": 4838,
      "partment": 4839,
      "groupId": 4840,
      "esh": 4841,
      "Ġsays": 4842,
      "rief": 4843,
      "Ġport": 4844,
      "Ġviol": 4845,
      "Ġplane": 4846,
      "pmatrix": 4847,
      "ached": 4848,
      "Ġentry": 4849,
      "ĠWorld": 4850,
      "ĠGo": 4851,
      "Ġperturb": 4852,
      "bullet": 4853,
      ")}{\\": 4854,
      "Match": 4855,
      "bi": 4856,
      "erc": 4857,
      "PP": 4858,
      "dr": 4859,
      "Ġuint": 4860,
      "Ġcorrespond": 4861,
      "Ġwon": 4862,
      "Ġscalar": 4863,
      "More": 4864,
      "token": 4865,
      "prec": 4866,
      "Ġyet": 4867,
      "Ġbig": 4868,
      "Ġtherm": 4869,
      "2022": 4870,
      "){\\": 4871,
      "62": 4872,
      "ĠMoreover": 4873,
      "sibility": 4874,
      "anner": 4875,
      "MB": 4876,
      "Ġmagn": 4877,
      "IV": 4878,
      "Interface": 4879,
      "Ġillustr": 4880,
      ")\\\\": 4881,
      "Ġtransfer": 4882,
      "Ġdays": 4883,
      "Ġcoefficients": 4884,
      "Ġsuccessful": 4885,
      "Ġcomputed": 4886,
      "Ġuseful": 4887,
      "Access": 4888,
      "Ġcandid": 4889,
      "used": 4890,
      "ZE": 4891,
      "Unit": 4892,
      "Script": 4893,
      "Ġlen": 4894,
      "53": 4895,
      "Ġrepresents": 4896,
      "bal": 4897,
      "amily": 4898,
      "Empty": 4899,
      "ĠNe": 4900,
      "Module": 4901,
      "EQ": 4902,
      "ãĥ": 4903,
      "ĠSci": 4904,
      "Ġpack": 4905,
      "MD": 4906,
      "Ġchoose": 4907,
      ".)": 4908,
      "soft": 4909,
      "IGN": 4910,
      "high": 4911,
      "Write": 4912,
      "Local": 4913,
      "Ġdecom": 4914,
      "Ġdeep": 4915,
      "Header": 4916,
      "COLOR": 4917,
      "actor": 4918,
      "ĠSc": 4919,
      "Ġgl": 4920,
      "Ġotherwise": 4921,
      "Ġvolume": 4922,
      "Ġparts": 4923,
      "isms": 4924,
      "Ġthings": 4925,
      "Ġreceived": 4926,
      "Cl": 4927,
      "Ġwater": 4928,
      "Menu": 4929,
      "Ġage": 4930,
      "Ġdetermine": 4931,
      "Ġsimulation": 4932,
      "Ġexisting": 4933,
      "LS": 4934,
      "Ġcalculated": 4935,
      "Ġconsistent": 4936,
      "Ġsomething": 4937,
      "tee": 4938,
      "Ġexamples": 4939,
      "Ġcut": 4940,
      "xx": 4941,
      "$).": 4942,
      "Ġwhole": 4943,
      "Ġmember": 4944,
      "Ġcity": 4945,
      "wait": 4946,
      "mitted": 4947,
      "Ġprocedure": 4948,
      "ously": 4949,
      "}^*": 4950,
      "Ġlittle": 4951,
      "Font": 4952,
      "Ġusers": 4953,
      "API": 4954,
      "Ġrecord": 4955,
      "Ġchosen": 4956,
      "Exec": 4957,
      "ĠBl": 4958,
      "Ġparams": 4959,
      "Process": 4960,
      "fs": 4961,
      "oss": 4962,
      "urthermore": 4963,
      ":\"": 4964,
      "}}^": 4965,
      ":(": 4966,
      "Ġleads": 4967,
      "zon": 4968,
      "MC": 4969,
      "Location": 4970,
      "cache": 4971,
      "Ġalgorithms": 4972,
      "inci": 4973,
      "Ġhandle": 4974,
      "band": 4975,
      "ĠWar": 4976,
      ".~(\\": 4977,
      "Ġhold": 4978,
      "86": 4979,
      "hy": 4980,
      "Ġtag": 4981,
      "Ġcharge": 4982,
      "border": 4983,
      "etch": 4984,
      "Ġrender": 4985,
      "nap": 4986,
      "Ġtheore": 4987,
      "Ġvac": 4988,
      "Ġaway": 4989,
      "\\|_{": 4990,
      "umb": 4991,
      "Ġproper": 4992,
      "Ġissue": 4993,
      "Hash": 4994,
      "dep": 4995,
      "simeq": 4996,
      "Ġinteresting": 4997,
      "'}": 4998,
      "Ġinfinite": 4999,
      "Ġstrict": 5000,
      "Ġspeed": 5001,
      "ises": 5002,
      "ĠInter": 5003,
      "ĠReturns": 5004,
      "ounter": 5005,
      "ilit": 5006,
      "eli": 5007,
      "Ġsure": 5008,
      "ship": 5009,
      "PR": 5010,
      "Ġinflu": 5011,
      "Callback": 5012,
      "Dat": 5013,
      "istor": 5014,
      "Ġcorrelation": 5015,
      "MO": 5016,
      "Ġhash": 5017,
      "dom": 5018,
      "utils": 5019,
      "Parser": 5020,
      "Ġrelevant": 5021,
      "roduction": 5022,
      "Ġdenotes": 5023,
      "Settings": 5024,
      "Ġdistributions": 5025,
      "Ġknowledge": 5026,
      "Option": 5027,
      "expected": 5028,
      "step": 5029,
      "So": 5030,
      "Ġactually": 5031,
      "Ġlinks": 5032,
      "Ġtim": 5033,
      "Ġque": 5034,
      "obile": 5035,
      "adow": 5036,
      "Params": 5037,
      "hash": 5038,
      "Ġintegral": 5039,
      "ĠCont": 5040,
      "Ġbranch": 5041,
      "Ġpast": 5042,
      "tik": 5043,
      "ĠMon": 5044,
      "udio": 5045,
      "bold": 5046,
      "Range": 5047,
      "tries": 5048,
      "1000": 5049,
      "Ġimpact": 5050,
      "\"))": 5051,
      "gent": 5052,
      "Ġstreng": 5053,
      "TI": 5054,
      "dec": 5055,
      "None": 5056,
      "lugins": 5057,
      "Ġincludes": 5058,
      "Ġorigin": 5059,
      "ĠAf": 5060,
      "Ġstatement": 5061,
      "Ġbinary": 5062,
      "utable": 5063,
      "Ġarbitrary": 5064,
      "umin": 5065,
      "Ġwide": 5066,
      "ĠUp": 5067,
      "picture": 5068,
      "abilities": 5069,
      "ĠLog": 5070,
      "zation": 5071,
      "Our": 5072,
      "year": 5073,
      "inciple": 5074,
      "VAL": 5075,
      "Ġreduced": 5076,
      "debug": 5077,
      "atives": 5078,
      "ights": 5079,
      "Ġaltern": 5080,
      "entic": 5081,
      ";->": 5082,
      "Ġexperimental": 5083,
      "ading": 5084,
      "Ġdevice": 5085,
      "ĠPer": 5086,
      "Ġfigure": 5087,
      "Section": 5088,
      "deg": 5089,
      "istration": 5090,
      "Figure": 5091,
      "Ġcategory": 5092,
      "Ste": 5093,
      "cp": 5094,
      "endix": 5095,
      ")$-": 5096,
      "ĠDE": 5097,
      "itle": 5098,
      "ung": 5099,
      "Change": 5100,
      "Ġallowed": 5101,
      "Ġtemplate": 5102,
      "Ġstudied": 5103,
      "ĠAfter": 5104,
      "Ġminim": 5105,
      "structed": 5106,
      "Ġadap": 5107,
      "Ġexperiment": 5108,
      "ws": 5109,
      "ĠST": 5110,
      "Ġothers": 5111,
      "Ġexpansion": 5112,
      "Ġcore": 5113,
      "ctx": 5114,
      "Ġsubject": 5115,
      "ĠCreate": 5116,
      "Ġinvariant": 5117,
      "Thread": 5118,
      "Ġstrategy": 5119,
      "Ġsteps": 5120,
      "CA": 5121,
      "PECT": 5122,
      "Ġprocesses": 5123,
      "hom": 5124,
      "ampling": 5125,
      "Ġdistributed": 5126,
      "Json": 5127,
      "Ġcompare": 5128,
      "ogene": 5129,
      "2003": 5130,
      "pop": 5131,
      "ACK": 5132,
      "ru": 5133,
      "Ġapplications": 5134,
      "ĠSupp": 5135,
      "})$.": 5136,
      "Ġrunning": 5137,
      "FO": 5138,
      "isk": 5139,
      "Helper": 5140,
      "white": 5141,
      "itable": 5142,
      "Ġpadding": 5143,
      "Ġpresence": 5144,
      "LI": 5145,
      "Ġ*)": 5146,
      "Ġresolution": 5147,
      "Ġ=\\": 5148,
      "lor": 5149,
      "$^{-": 5150,
      "XX": 5151,
      "72": 5152,
      "drop": 5153,
      "global": 5154,
      "ustr": 5155,
      "mediate": 5156,
      "Ġanti": 5157,
      "Ġscope": 5158,
      "Ġformer": 5159,
      "|_{": 5160,
      "Ġangle": 5161,
      "uting": 5162,
      "Sym": 5163,
      "ounts": 5164,
      "component": 5165,
      "$$\\": 5166,
      "Ġ>=": 5167,
      "89": 5168,
      "Ġvideo": 5169,
      "ĠÂ": 5170,
      "ĉĠ": 5171,
      "Tim": 5172,
      "Left": 5173,
      "lines": 5174,
      "However": 5175,
      "Mapp": 5176,
      "ynamic": 5177,
      "know": 5178,
      "Ġstudents": 5179,
      "raft": 5180,
      "Ġrepl": 5181,
      "Current": 5182,
      "unk": 5183,
      "Ġoperations": 5184,
      "inder": 5185,
      "}}^{": 5186,
      "Ġspaces": 5187,
      "61": 5188,
      "Ġidentity": 5189,
      "interface": 5190,
      "Ġabsolute": 5191,
      "Ġorbit": 5192,
      "ĠEd": 5193,
      "term": 5194,
      "abe": 5195,
      "inte": 5196,
      "mapsto": 5197,
      "Ġexactly": 5198,
      "STR": 5199,
      "Ġfully": 5200,
      "Ġcli": 5201,
      "Ġ$$": 5202,
      "Session": 5203,
      "chron": 5204,
      "ography": 5205,
      "ube": 5206,
      "Schema": 5207,
      "Ġcouple": 5208,
      "ART": 5209,
      "Ġarchitect": 5210,
      "join": 5211,
      "Ġidea": 5212,
      "before": 5213,
      "Ġpairs": 5214,
      "Ġweek": 5215,
      "Ġ$.": 5216,
      "after": 5217,
      "Copy": 5218,
      "Ġsession": 5219,
      "env": 5220,
      "Ġpercent": 5221,
      "Ġavoid": 5222,
      "Ġdeveloped": 5223,
      "Work": 5224,
      "tax": 5225,
      "session": 5226,
      "Ġins": 5227,
      "oney": 5228,
      "ĠMark": 5229,
      "Ġstory": 5230,
      "Ġrecog": 5231,
      "sters": 5232,
      "pted": 5233,
      "Ġlot": 5234,
      "bootstrap": 5235,
      "fields": 5236,
      "rate": 5237,
      "Ġansw": 5238,
      "Ġsix": 5239,
      "~$\\": 5240,
      "Ġeffici": 5241,
      "ecause": 5242,
      "\\!\\!\\!\\!": 5243,
      "Ġneg": 5244,
      "LP": 5245,
      "Ġdeal": 5246,
      "ilib": 5247,
      ")_": 5248,
      "Ġcommit": 5249,
      "oman": 5250,
      "ECT": 5251,
      "Ġwhite": 5252,
      "Ġdisk": 5253,
      "ening": 5254,
      "background": 5255,
      "Description": 5256,
      "After": 5257,
      "card": 5258,
      "Ġwomen": 5259,
      "isation": 5260,
      "ulture": 5261,
      "versal": 5262,
      "Dir": 5263,
      "Ġsm": 5264,
      "2001": 5265,
      "render": 5266,
      "Ġprof": 5267,
      "req": 5268,
      "Ġremains": 5269,
      "Ġampl": 5270,
      "Ġattem": 5271,
      "Ġgot": 5272,
      "Ġmach": 5273,
      "Ġmeet": 5274,
      "ĠSpec": 5275,
      "ĠPo": 5276,
      ")},": 5277,
      "Ġeasily": 5278,
      "ada": 5279,
      "Impl": 5280,
      "Ġimplementation": 5281,
      "ratic": 5282,
      "Ġeasy": 5283,
      "84": 5284,
      "Ġregister": 5285,
      "asi": 5286,
      "Ġactual": 5287,
      "Ġwin": 5288,
      "ana": 5289,
      "BC": 5290,
      "Ġcurves": 5291,
      "Ġjoin": 5292,
      "\"));": 5293,
      "NavBar": 5294,
      "Ġmatrices": 5295,
      "transform": 5296,
      "Ġinside": 5297,
      "fony": 5298,
      "Properties": 5299,
      "ighted": 5300,
      "Inst": 5301,
      "iny": 5302,
      "types": 5303,
      "bes": 5304,
      "300": 5305,
      "82": 5306,
      "Ġintroduce": 5307,
      "ĠPres": 5308,
      "vol": 5309,
      "ibility": 5310,
      "faces": 5311,
      "Ġign": 5312,
      "Ġservices": 5313,
      "odot": 5314,
      "footer": 5315,
      "Ġappropri": 5316,
      "detail": 5317,
      "second": 5318,
      "Ġbenef": 5319,
      "Ġ&=&": 5320,
      "Ġdependence": 5321,
      "rack": 5322,
      "bits": 5323,
      "Ġdual": 5324,
      "uck": 5325,
      "thesis": 5326,
      "ĠGaussian": 5327,
      "Ġfactors": 5328,
      "sample": 5329,
      "94": 5330,
      "Doc": 5331,
      "Ġstructures": 5332,
      "Ġensure": 5333,
      "Ġsymmetric": 5334,
      "Ġbal": 5335,
      "Ġapproaches": 5336,
      "\\{\\": 5337,
      "=\"_": 5338,
      "Ġtoken": 5339,
      "licity": 5340,
      "Ġembedding": 5341,
      "ãĤ": 5342,
      "irm": 5343,
      "ĠModel": 5344,
      "ä¸": 5345,
      "aging": 5346,
      "ĠBG": 5347,
      "Deta": 5348,
      "ered": 5349,
      "Ġmodes": 5350,
      "Ġrepe": 5351,
      "Ġwhy": 5352,
      "Ġcorrection": 5353,
      "Ġcounter": 5354,
      "chor": 5355,
      "Ġxml": 5356,
      "clear": 5357,
      "^{+": 5358,
      "delete": 5359,
      "=\"/": 5360,
      "ĠTO": 5361,
      "imin": 5362,
      "Ġtasks": 5363,
      "bum": 5364,
      "92": 5365,
      "internal": 5366,
      "coq": 5367,
      "Ġcontaining": 5368,
      "support": 5369,
      "ĠSub": 5370,
      "ĠĠĠĠĠĠĠĠĠĠĠĠĠĠĠĠĠĠĠĠ": 5371,
      "asure": 5372,
      "Ġones": 5373,
      "docs": 5374,
      "Ġforward": 5375,
      "Integer": 5376,
      "uni": 5377,
      "orig": 5378,
      "Theorem": 5379,
      "Ġquad": 5380,
      "rest": 5381,
      "proposition": 5382,
      "ggle": 5383,
      "sv": 5384,
      "ilibri": 5385,
      "Ġfall": 5386,
      "Async": 5387,
      "lide": 5388,
      "Ġmarket": 5389,
      "():": 5390,
      "aran": 5391,
      "93": 5392,
      "tific": 5393,
      "Expression": 5394,
      "Ġeduc": 5395,
      "ĠException": 5396,
      "Thus": 5397,
      "Ġextended": 5398,
      "HO": 5399,
      "Ġspectra": 5400,
      "real": 5401,
      "Icon": 5402,
      "tili": 5403,
      "Ġbroad": 5404,
      "avor": 5405,
      "force": 5406,
      "ined": 5407,
      "ĠII": 5408,
      "ners": 5409,
      "Ġquality": 5410,
      "Ġexc": 5411,
      "Âł": 5412,
      "Ġlatter": 5413,
      "Ġparticip": 5414,
      "Ġestimates": 5415,
      "pecially": 5416,
      "Ġyields": 5417,
      "Ġmusic": 5418,
      "Ġgoal": 5419,
      "itation": 5420,
      "Document": 5421,
      "dro": 5422,
      "Ġlevels": 5423,
      "Mon": 5424,
      "Rev": 5425,
      "Ġclos": 5426,
      "ĠSchool": 5427,
      "Ġrights": 5428,
      "amera": 5429,
      "Ġpi": 5430,
      "Ġrecover": 5431,
      "Ġincreases": 5432,
      "mber": 5433,
      "Ġbasic": 5434,
      "Ġquan": 5435,
      "alg": 5436,
      "Ġfilename": 5437,
      "ĠSouth": 5438,
      "Ġhear": 5439,
      "Ġgrid": 5440,
      "Ġrecon": 5441,
      "'(": 5442,
      "Ġpropag": 5443,
      "tation": 5444,
      "Ġreturned": 5445,
      "Ġloop": 5446,
      "Ġmar": 5447,
      "seud": 5448,
      "Ġoverride": 5449,
      "Ġindu": 5450,
      "Us": 5451,
      "$;": 5452,
      "ĠAug": 5453,
      "Ġdoesn": 5454,
      "den": 5455,
      "ĠIntern": 5456,
      "Ġoffer": 5457,
      "Reference": 5458,
      "91": 5459,
      "================================": 5460,
      "Ġfix": 5461,
      "That": 5462,
      "ĠOff": 5463,
      "Ġfri": 5464,
      "modules": 5465,
      "Ġlonger": 5466,
      "Ġinner": 5467,
      "Ġcircle": 5468,
      "Ġ{};": 5469,
      "Ġbelong": 5470,
      "Ġestimated": 5471,
      "Ġsettings": 5472,
      "Ġmeasurement": 5473,
      "edule": 5474,
      "Ġconvergence": 5475,
      "dsh": 5476,
      "\\)": 5477,
      "cref": 5478,
      "Ġjav": 5479,
      "acts": 5480,
      "Ġord": 5481,
      "Ġbottom": 5482,
      "izations": 5483,
      "ae": 5484,
      "icted": 5485,
      "Ġassign": 5486,
      "copy": 5487,
      "train": 5488,
      "mentation": 5489,
      "alysis": 5490,
      "Ġve": 5491,
      "Ġregard": 5492,
      "Order": 5493,
      "&#": 5494,
      "Long": 5495,
      "BO": 5496,
      "mma": 5497,
      "sities": 5498,
      "ĠMy": 5499,
      "lege": 5500,
      "entially": 5501,
      "SL": 5502,
      "jective": 5503,
      "76": 5504,
      "255": 5505,
      "Tests": 5506,
      "tikz": 5507,
      "Ġsw": 5508,
      "Ġexception": 5509,
      "allow": 5510,
      "Ġrates": 5511,
      "ĠJanuary": 5512,
      "Ġstellar": 5513,
      "ORT": 5514,
      "Ġecho": 5515,
      "Use": 5516,
      "Ġpul": 5517,
      "ĠMath": 5518,
      "Template": 5519,
      "Ġobserve": 5520,
      "Ġep": 5521,
      "eler": 5522,
      "ĠEXPECT": 5523,
      "Ġdeath": 5524,
      "Ġissues": 5525,
      "ka": 5526,
      "ournal": 5527,
      "Ġrules": 5528,
      "gn": 5529,
      "ULT": 5530,
      "ository": 5531,
      "Ã¡": 5532,
      "sts": 5533,
      "category": 5534,
      "send": 5535,
      "Ġstarting": 5536,
      "berg": 5537,
      "Ġpix": 5538,
      "Ġupon": 5539,
      "EM": 5540,
      "utor": 5541,
      "Ġaxis": 5542,
      "full": 5543,
      "Store": 5544,
      "Ġblue": 5545,
      "ĠOct": 5546,
      "ĠStr": 5547,
      "Ġasympto": 5548,
      "GB": 5549,
      "unity": 5550,
      "ctu": 5551,
      "toString": 5552,
      "Ġinc": 5553,
      "Ne": 5554,
      "Serial": 5555,
      "ipage": 5556,
      "Ġclassification": 5557,
      "plugin": 5558,
      "prote": 5559,
      "Ġcoordinates": 5560,
      "Results": 5561,
      "gers": 5562,
      "forms": 5563,
      "bind": 5564,
      "Ġprojection": 5565,
      "Ġface": 5566,
      "}&": 5567,
      "comment": 5568,
      "Clo": 5569,
      "ĠĠĠĠĠĠĊ": 5570,
      "minipage": 5571,
      "omorphic": 5572,
      "perim": 5573,
      "###": 5574,
      "Ġelectron": 5575,
      "Ġvectors": 5576,
      "2002": 5577,
      "Ġtor": 5578,
      "panel": 5579,
      "Ġdark": 5580,
      "RA": 5581,
      "Ġcorrel": 5582,
      "ĠNow": 5583,
      "Ġbuilt": 5584,
      "jpg": 5585,
      "lapse": 5586,
      "ingu": 5587,
      "Ġsoftware": 5588,
      "ĠHar": 5589,
      "ĠHamiltonian": 5590,
      "ĠPa": 5591,
      "Ġpartition": 5592,
      "Ġdepth": 5593,
      "tool": 5594,
      "_-": 5595,
      "ĠWhile": 5596,
      "Ġsignificantly": 5597,
      "$~": 5598,
      "icons": 5599,
      "ares": 5600,
      "pril": 5601,
      "SA": 5602,
      "structor": 5603,
      "Ġexistence": 5604,
      "equals": 5605,
      "ĠCity": 5606,
      "DIR": 5607,
      "address": 5608,
      "Ġexternal": 5609,
      "double": 5610,
      "AND": 5611,
      "Ġbecame": 5612,
      "hbar": 5613,
      "Ġsys": 5614,
      "Ġgrowth": 5615,
      "assive": 5616,
      "(:": 5617,
      "ober": 5618,
      "Ġseason": 5619,
      "chieve": 5620,
      "ouch": 5621,
      "ĠCons": 5622,
      "vm": 5623,
      "oring": 5624,
      "Ġundefined": 5625,
      "click": 5626,
      "Cal": 5627,
      "pers": 5628,
      "Ġstage": 5629,
      "enum": 5630,
      "%;": 5631,
      "Ġbounds": 5632,
      "Ġsend": 5633,
      "Ġpackage": 5634,
      "ĠMarch": 5635,
      "inct": 5636,
      "Ind": 5637,
      "Ġinteractions": 5638,
      "PL": 5639,
      "Ġcurrently": 5640,
      "aut": 5641,
      "iffer": 5642,
      "Sign": 5643,
      "Ġprinciple": 5644,
      "Ġrank": 5645,
      "}{|": 5646,
      "Ġconsists": 5647,
      "avy": 5648,
      "Ġcharg": 5649,
      "Parameters": 5650,
      "ham": 5651,
      "GC": 5652,
      "ĠBGCOLOR": 5653,
      "Vector": 5654,
      "Ġ})": 5655,
      "ament": 5656,
      "uid": 5657,
      "Ġstrength": 5658,
      "widget": 5659,
      "}}$,": 5660,
      "Ġoptimization": 5661,
      "inu": 5662,
      "SM": 5663,
      "Ġdiscuss": 5664,
      "msg": 5665,
      "ĠBar": 5666,
      "Ġstable": 5667,
      "jected": 5668,
      "Ġconsum": 5669,
      "Ġagent": 5670,
      "Ġoutside": 5671,
      "scill": 5672,
      ")+\\": 5673,
      "Ġgain": 5674,
      "ission": 5675,
      "entifier": 5676,
      "Ġnature": 5677,
      "-->": 5678,
      "Ġtransaction": 5679,
      "Ġgradient": 5680,
      "Ġonline": 5681,
      "Ġslow": 5682,
      "Ġnames": 5683,
      "Ġprim": 5684,
      "}}$.": 5685,
      "Project": 5686,
      "ĠĠĠĠĠĠĠĠĠĠĠĠĠĠĠĠĠĠĠĠĠĠĠĠĠĠĠĠĠĠĠĠĠĠĠĠĠĠĠ": 5687,
      "Ġprediction": 5688,
      "zing": 5689,
      "floor": 5690,
      "ategories": 5691,
      "Down": 5692,
      "Ġcamp": 5693,
      "padding": 5694,
      ")-\\": 5695,
      "Ġcomes": 5696,
      "ĠOR": 5697,
      "displaystyle": 5698,
      "Ġespecially": 5699,
      "Ġtransformation": 5700,
      "ilibrium": 5701,
      "83": 5702,
      "Ġdiagram": 5703,
      "Ġprom": 5704,
      "Ġaim": 5705,
      "Ġ['": 5706,
      "Ġagreement": 5707,
      "Ġconstraint": 5708,
      "diag": 5709,
      "Ġintern": 5710,
      "points": 5711,
      "Ġlimited": 5712,
      "Ġproduced": 5713,
      "itions": 5714,
      "Ptr": 5715,
      "Device": 5716,
      "Ġ\"\\": 5717,
      "Non": 5718,
      "mc": 5719,
      "Ġprimary": 5720,
      "rist": 5721,
      "Ġevidence": 5722,
      "tailed": 5723,
      "ads": 5724,
      "'],": 5725,
      "Pass": 5726,
      "uple": 5727,
      "Ġgen": 5728,
      "Ġpressure": 5729,
      "Ġattention": 5730,
      "Ġkernel": 5731,
      "ĠSome": 5732,
      "uler": 5733,
      "Ġexperience": 5734,
      "files": 5735,
      "enn": 5736,
      "Ġstarted": 5737,
      "cer": 5738,
      "Ġdig": 5739,
      "Application": 5740,
      "ĠMc": 5741,
      "Ġextra": 5742,
      "rown": 5743,
      "ALL": 5744,
      "Cor": 5745,
      "Ġquite": 5746,
      "Ġrecently": 5747,
      "Ġsatisfy": 5748,
      "ox": 5749,
      "Ġcache": 5750,
      "Ġstra": 5751,
      "FR": 5752,
      "Ġresources": 5753,
      "Extension": 5754,
      "PH": 5755,
      "connection": 5756,
      "blockList": 5757,
      "Iter": 5758,
      "Comple": 5759,
      "Ġauthors": 5760,
      "Ġnet": 5761,
      "Ġtook": 5762,
      "pid": 5763,
      "[(": 5764,
      "amely": 5765,
      "PA": 5766,
      "ĠGerm": 5767,
      "Ġformation": 5768,
      "ERROR": 5769,
      "Graph": 5770,
      "Classes": 5771,
      ":}": 5772,
      "custom": 5773,
      "shot": 5774,
      "Operation": 5775,
      "tribution": 5776,
      "})$,": 5777,
      "Ġreduce": 5778,
      "Ġdatabase": 5779,
      "Ð°Ð": 5780,
      "ĠNot": 5781,
      "Ġgraphs": 5782,
      "ĠSu": 5783,
      "lots": 5784,
      "each": 5785,
      "hover": 5786,
      "but": 5787,
      "onical": 5788,
      "74": 5789,
      "Ev": 5790,
      "Render": 5791,
      "Title": 5792,
      "Ġachieve": 5793,
      "Multi": 5794,
      "byte": 5795,
      "Ġusually": 5796,
      "Ġdifficult": 5797,
      "mb": 5798,
      "rive": 5799,
      "Di": 5800,
      "Host": 5801,
      "ĠMod": 5802,
      "Ġflat": 5803,
      "Ġdiscover": 5804,
      "NR": 5805,
      "GE": 5806,
      "73": 5807,
      "81": 5808,
      "Ġstack": 5809,
      "tember": 5810,
      "forward": 5811,
      "eness": 5812,
      "Ġtell": 5813,
      "Ġanalog": 5814,
      "ck": 5815,
      "ipeline": 5816,
      "UM": 5817,
      "estamp": 5818,
      "impl": 5819,
      "Ġnotation": 5820,
      "ief": 5821,
      "Ġforms": 5822,
      "Ġfoot": 5823,
      "ridge": 5824,
      "ĠTrue": 5825,
      "rb": 5826,
      "Ġair": 5827,
      "Ġfraction": 5828,
      "ills": 5829,
      "}\"": 5830,
      "eptember": 5831,
      "matically": 5832,
      "dependency": 5833,
      "Ġoscill": 5834,
      "Ġnational": 5835,
      "ictionary": 5836,
      "channel": 5837,
      "Ġ$|\\": 5838,
      "GET": 5839,
      "Ġparse": 5840,
      "Ġwaves": 5841,
      "short": 5842,
      "Ġdetect": 5843,
      "tor": 5844,
      "Ġfeed": 5845,
      "elves": 5846,
      "vas": 5847,
      "mat": 5848,
      "79": 5849,
      "Ġ^": 5850,
      "Ġestablish": 5851,
      "Ġdel": 5852,
      "Num": 5853,
      "Names": 5854,
      "Ġpor": 5855,
      "Each": 5856,
      "ipal": 5857,
      "Record": 5858,
      "Ġslight": 5859,
      "Ġtowards": 5860,
      "Ġfailed": 5861,
      "ariance": 5862,
      "cond": 5863,
      "Ġsquare": 5864,
      "Ġengine": 5865,
      "amental": 5866,
      "Ġassumed": 5867,
      "Ġdiscussion": 5868,
      "Ġitems": 5869,
      "Ġtests": 5870,
      "Ġpublished": 5871,
      "uri": 5872,
      "INE": 5873,
      "Ġdelete": 5874,
      "ĠCheck": 5875,
      "Ġlargest": 5876,
      "Ġcapture": 5877,
      "success": 5878,
      "||": 5879,
      "SION": 5880,
      "400": 5881,
      "Ġtrack": 5882,
      "Metadata": 5883,
      "$),": 5884,
      "Draw": 5885,
      "replace": 5886,
      "annotation": 5887,
      "))$": 5888,
      "Ġthought": 5889,
      "ĠJune": 5890,
      "TER": 5891,
      "Rect": 5892,
      "ĠĠĠĠĠĠĠĠĠĠĠĠĠĠĠĠĠĠ": 5893,
      "oice": 5894,
      "ĠChar": 5895,
      "handle": 5896,
      "cover": 5897,
      "fect": 5898,
      "Ġattr": 5899,
      "ovember": 5900,
      "Ġinsp": 5901,
      ",$": 5902,
      "DA": 5903,
      "Ġreplace": 5904,
      "Ġinfo": 5905,
      "Ġeffor": 5906,
      "Ġtool": 5907,
      "BA": 5908,
      "ĠMo": 5909,
      "hr": 5910,
      "}$)": 5911,
      "Ġlayers": 5912,
      "sy": 5913,
      "ORM": 5914,
      "Definition": 5915,
      "Values": 5916,
      "adoop": 5917,
      "lar": 5918,
      "=\"../../../": 5919,
      "aking": 5920,
      "nov": 5921,
      "Ġ..": 5922,
      "Ġarm": 5923,
      "zer": 5924,
      "Ġstore": 5925,
      "lesssim": 5926,
      "bur": 5927,
      "framework": 5928,
      "det": 5929,
      "ĠDate": 5930,
      "ias": 5931,
      "exports": 5932,
      "Ġbul": 5933,
      "Ġdifferential": 5934,
      "Ġcontributions": 5935,
      "Ġsecurity": 5936,
      "See": 5937,
      "cccc": 5938,
      "export": 5939,
      "Red": 5940,
      "Ġchalleng": 5941,
      "Hz": 5942,
      "1999": 5943,
      "Ġplayer": 5944,
      "Ġprotocol": 5945,
      "Ġsituation": 5946,
      "Handle": 5947,
      "Ġ\\(\\": 5948,
      "mut": 5949,
      "anning": 5950,
      "Ġgalaxy": 5951,
      "dest": 5952,
      "tish": 5953,
      "Ġoptical": 5954,
      "Ġformal": 5955,
      "foo": 5956,
      "Ġthreshold": 5957,
      "'re": 5958,
      ")}_{": 5959,
      "initial": 5960,
      "Ġoverall": 5961,
      "ĠAct": 5962,
      "Ġappropriate": 5963,
      "Ġlib": 5964,
      "ifically": 5965,
      "Ġimag": 5966,
      "Sum": 5967,
      "olved": 5968,
      "hic": 5969,
      "ĠJuly": 5970,
      "material": 5971,
      "Ġstation": 5972,
      "stable": 5973,
      "greg": 5974,
      "Ġinvoke": 5975,
      "weight": 5976,
      "Using": 5977,
      "domain": 5978,
      "Ġsong": 5979,
      "Ġgeneration": 5980,
      ",\\\\": 5981,
      "External": 5982,
      "Sk": 5983,
      "toggle": 5984,
      "Ġshare": 5985,
      "Ġconcern": 5986,
      "oundation": 5987,
      ">();": 5988,
      "Core": 5989,
      "Ġmorph": 5990,
      "ATH": 5991,
      "media": 5992,
      "ORD": 5993,
      "ĠEqu": 5994,
      "Ġregime": 5995,
      "-$": 5996,
      "ellow": 5997,
      "Port": 5998,
      "Ġtechniques": 5999,
      "Ġrelease": 6000,
      "equal": 6001,
      "Ġcame": 6002,
      "Ġsetup": 6003,
      "ford": 6004,
      "Ġvanish": 6005,
      "Ġarticle": 6006,
      "ĠApril": 6007,
      "Api": 6008,
      "settings": 6009,
      "virtual": 6010,
      "Cap": 6011,
      "Introduction": 6012,
      "BR": 6013,
      "while": 6014,
      "False": 6015,
      "ured": 6016,
      "Ġcontrast": 6017,
      "These": 6018,
      "cong": 6019,
      ">.": 6020,
      "Ke": 6021,
      "256": 6022,
      "Invalid": 6023,
      "Ġactions": 6024,
      "Ġconclude": 6025,
      "Ġdevi": 6026,
      "Ġunits": 6027,
      "Ġmolec": 6028,
      "sequently": 6029,
      "Ġyoung": 6030,
      "Enc": 6031,
      "ĠNorth": 6032,
      "Ġlearn": 6033,
      "legate": 6034,
      "Mock": 6035,
      "plugins": 6036,
      "Ġscattering": 6037,
      "Ġtraject": 6038,
      "Ġcompan": 6039,
      "ixture": 6040,
      "Ġproduce": 6041,
      "ĠAfric": 6042,
      "Ġdatasets": 6043,
      "PU": 6044,
      "Ġfrag": 6045,
      ")}}": 6046,
      "Package": 6047,
      "Ġpure": 6048,
      "dy": 6049,
      "`.": 6050,
      "rela": 6051,
      "hbox": 6052,
      "Ġreson": 6053,
      "Ġalthough": 6054,
      "Ġreduction": 6055,
      "Ġappears": 6056,
      "ĠWeb": 6057,
      "Ġmatching": 6058,
      ",\\,\\": 6059,
      "}({\\": 6060,
      "Ġtoday": 6061,
      "application": 6062,
      "Ġeq": 6063,
      "uit": 6064,
      "Ġsl": 6065,
      "Imp": 6066,
      "Reader": 6067,
      "71": 6068,
      "ogeneous": 6069,
      "webkit": 6070,
      "arks": 6071,
      "region": 6072,
      "ca": 6073,
      "Tab": 6074,
      "WE": 6075,
      "Ġangular": 6076,
      "Stack": 6077,
      "Ġpassed": 6078,
      "shape": 6079,
      "Ġvisual": 6080,
      "\")]": 6081,
      "Que": 6082,
      "Ġbeg": 6083,
      "Ġround": 6084,
      "(*": 6085,
      "algorithm": 6086,
      "semble": 6087,
      "Ġmeasures": 6088,
      "ĉĉĉĊ": 6089,
      "Ġareas": 6090,
      "Ġtele": 6091,
      "ĠIm": 6092,
      "Ġlocated": 6093,
      "Ġcomputation": 6094,
      "Ġtransport": 6095,
      ")).": 6096,
      "$};": 6097,
      "Ġ++": 6098,
      "Ġthread": 6099,
      "Ġpolitical": 6100,
      "Ġinit": 6101,
      "angular": 6102,
      "fn": 6103,
      "Ġfeel": 6104,
      "Ġgreater": 6105,
      "erg": 6106,
      "Ġliterature": 6107,
      "paragraph": 6108,
      "ĠJSON": 6109,
      "Ġexhib": 6110,
      "Byte": 6111,
      "Ġhypo": 6112,
      "Ġamplitude": 6113,
      "Ġwriting": 6114,
      "SR": 6115,
      "}{(": 6116,
      "focus": 6117,
      "Ġidentify": 6118,
      "bon": 6119,
      "numer": 6120,
      "Ġconserv": 6121,
      "Ġgenerally": 6122,
      "Ġbyte": 6123,
      "Therefore": 6124,
      "Ġradio": 6125,
      "Ġindicates": 6126,
      "Ġshift": 6127,
      "resp": 6128,
      "Ġoccur": 6129,
      "Ġhol": 6130,
      "Ġdriv": 6131,
      "yond": 6132,
      "cus": 6133,
      "ĠTrans": 6134,
      "thern": 6135,
      "]}": 6136,
      "Ġapi": 6137,
      "Ġconvex": 6138,
      "Ġcomplexity": 6139,
      "Ġgap": 6140,
      "Ġuncertainty": 6141,
      "ustral": 6142,
      "Ġteach": 6143,
      "atible": 6144,
      "&=&": 6145,
      "Ġdeli": 6146,
      "Ġraise": 6147,
      "dash": 6148,
      "ĠMed": 6149,
      "Ġemer": 6150,
      "tw": 6151,
      "Ġmapping": 6152,
      "coin": 6153,
      "oom": 6154,
      "Ġcontainer": 6155,
      "ancial": 6156,
      "Ġadmin": 6157,
      "ĠCE": 6158,
      "'))": 6159,
      "hadoop": 6160,
      "ierarch": 6161,
      "Ġremaining": 6162,
      "CR": 6163,
      "Ġobservation": 6164,
      "Ø§": 6165,
      "ians": 6166,
      "ĠRun": 6167,
      "Ġcombination": 6168,
      "Ġetc": 6169,
      "Bl": 6170,
      "ĠAg": 6171,
      "DL": 6172,
      "Ġmeaning": 6173,
      "Var": 6174,
      "ĠLO": 6175,
      "ducing": 6176,
      "Ġcov": 6177,
      "Ġaccept": 6178,
      "Ġexpon": 6179,
      "ĠPe": 6180,
      "You": 6181,
      "ĠDecember": 6182,
      "Ġseems": 6183,
      "My": 6184,
      "----------------------------------------------------------------": 6185,
      "Ġmasses": 6186,
      "Ġ[\\": 6187,
      "ĠError": 6188,
      "axis": 6189,
      "Ġcomputational": 6190,
      "Ġidentified": 6191,
      "Ġunsigned": 6192,
      "ĠHigh": 6193,
      "Ġestablished": 6194,
      "Ġasp": 6195,
      "Ġlemma": 6196,
      "dfrac": 6197,
      "ĠĠĠĠĠĠĠĠĠĠĠĠĠĠĠĠĠĠĠĠĠĠĠĠĠĠĠĠĠĠĠĠĠĠĠĠĠĠĠĠĠĠĠĠĠĠĠĠĠĠĠĠĠĠĠĠĠĠĠĠĠĠĠĠ": 6198,
      "utive": 6199,
      "ociety": 6200,
      "plot": 6201,
      "sia": 6202,
      "ands": 6203,
      "circle": 6204,
      "ĠInt": 6205,
      "icker": 6206,
      "disabled": 6207,
      "ymmetric": 6208,
      "margin": 6209,
      "tein": 6210,
      "ened": 6211,
      "ĠRE": 6212,
      ";<": 6213,
      "cpp": 6214,
      "160": 6215,
      "ĠSeptember": 6216,
      "ĠRev": 6217,
      "Ġbeam": 6218,
      "Ġvertical": 6219,
      "Ġminimal": 6220,
      "SET": 6221,
      "Ġos": 6222,
      "Delete": 6223,
      "Ġrepresented": 6224,
      "Ġweights": 6225,
      "ĠPre": 6226,
      "Ġnovel": 6227,
      "HTML": 6228,
      "Finally": 6229,
      "Argument": 6230,
      "Param": 6231,
      "tun": 6232,
      "Go": 6233,
      "Ġofficial": 6234,
      "itch": 6235,
      "Ġpreviously": 6236,
      "Ġtax": 6237,
      "Ġdetailed": 6238,
      "Ġtermin": 6239,
      "Ġheader": 6240,
      "Ġmechanism": 6241,
      "Ġmagnitude": 6242,
      "Bytes": 6243,
      "Ġlive": 6244,
      ")),": 6245,
      "ĠCON": 6246,
      "Args": 6247,
      "Ġguaran": 6248,
      "ench": 6249,
      "ĠAssert": 6250,
      "ĠName": 6251,
      "iral": 6252,
      "register": 6253,
      "Ġcalculations": 6254,
      "Ġbehavi": 6255,
      "Ġ'/": 6256,
      "Ġhouse": 6257,
      "ĠOctober": 6258,
      "Vari": 6259,
      "bel": 6260,
      "Symfony": 6261,
      "Ġtempor": 6262,
      "diff": 6263,
      "Ġscaling": 6264,
      "pite": 6265,
      "Ġstraight": 6266,
      "Ġcontact": 6267,
      "__(": 6268,
      "ĠFinally": 6269,
      "stitute": 6270,
      "none": 6271,
      "Ġmix": 6272,
      "\\}$.": 6273,
      "Ġhidden": 6274,
      "wp": 6275,
      "Ġmentioned": 6276,
      "Click": 6277,
      "Ġproducts": 6278,
      "Ġjson": 6279,
      "enced": 6280,
      "ĠHTML": 6281,
      "Cons": 6282,
      "two": 6283,
      "Ġenh": 6284,
      "istent": 6285,
      "Ġcriter": 6286,
      "Ġcalculation": 6287,
      "[-": 6288,
      "ĠTime": 6289,
      "}[\\": 6290,
      "access": 6291,
      "Ġcalculate": 6292,
      "Ġelect": 6293,
      "Ġincor": 6294,
      "Ġinduced": 6295,
      "Parent": 6296,
      "oti": 6297,
      "Ġqual": 6298,
      "ucture": 6299,
      "ĠRus": 6300,
      "parameters": 6301,
      "Ġcause": 6302,
      "ĠBri": 6303,
      "iet": 6304,
      "FAULT": 6305,
      "El": 6306,
      "Ġdimensions": 6307,
      "]$.": 6308,
      "ĠAugust": 6309,
      "ĠNovember": 6310,
      "$:": 6311,
      "bmatrix": 6312,
      "Main": 6313,
      "ĠAlso": 6314,
      "bing": 6315,
      "Ġredsh": 6316,
      "iders": 6317,
      "ĠVal": 6318,
      "Ġunknown": 6319,
      "mock": 6320,
      "cro": 6321,
      "vised": 6322,
      "loop": 6323,
      "Ġwait": 6324,
      "pub": 6325,
      "Ġbin": 6326,
      "hs": 6327,
      "store": 6328,
      "ĠSU": 6329,
      "Ġdirectory": 6330,
      "Kind": 6331,
      "Policy": 6332,
      "Ġpati": 6333,
      "Ġbr": 6334,
      "Ġmicro": 6335,
      "Ġdiscrete": 6336,
      "Ġdenoted": 6337,
      "istance": 6338,
      "irit": 6339,
      "bt": 6340,
      "endar": 6341,
      "wrap": 6342,
      "\"\"\"": 6343,
      "Debug": 6344,
      "ĠWhat": 6345,
      "Ġnamespace": 6346,
      "aws": 6347,
      "Ġblocks": 6348,
      "GS": 6349,
      "limit": 6350,
      "Ġpopular": 6351,
      "Ġvary": 6352,
      "Bound": 6353,
      "Ġ{$": 6354,
      ":=": 6355,
      "yes": 6356,
      "Ġcat": 6357,
      "ĠCour": 6358,
      "ĠHis": 6359,
      "ĠRed": 6360,
      "Ġcompe": 6361,
      "boolean": 6362,
      "exists": 6363,
      "Ġreleased": 6364,
      "Boolean": 6365,
      "Ġtesting": 6366,
      "antic": 6367,
      "))\\": 6368,
      "END": 6369,
      "Sta": 6370,
      "Ġmath": 6371,
      "admin": 6372,
      "related": 6373,
      "email": 6374,
      "CF": 6375,
      "chastic": 6376,
      "ĠResearch": 6377,
      "Ġabsor": 6378,
      "Ġcompletely": 6379,
      "ille": 6380,
      "notation": 6381,
      "Ġtheoretical": 6382,
      "Ġfinally": 6383,
      "Ġchanged": 6384,
      "mass": 6385,
      "cil": 6386,
      "ores": 6387,
      "Ġclearly": 6388,
      "Ġreve": 6389,
      "Pe": 6390,
      "Dialog": 6391,
      "flu": 6392,
      "Ġpers": 6393,
      "Ġnamed": 6394,
      "mos": 6395,
      "Enabled": 6396,
      "ancy": 6397,
      "ĠDav": 6398,
      "ention": 6399,
      "ras": 6400,
      "Ġstop": 6401,
      "Ġtriv": 6402,
      "radius": 6403,
      "Ġclusters": 6404,
      "Ġbeyond": 6405,
      "Ġgeometry": 6406,
      "ervices": 6407,
      "Ġtrained": 6408,
      "Ġpractice": 6409,
      "ĠUser": 6410,
      "War": 6411,
      "keys": 6412,
      "grid": 6413,
      "stats": 6414,
      "Has": 6415,
      "NE": 6416,
      "ĠCounty": 6417,
      "Ã³": 6418,
      "Any": 6419,
      "install": 6420,
      "^*$": 6421,
      "OM": 6422,
      "Ġconnect": 6423,
      "argument": 6424,
      "sql": 6425,
      "blem": 6426,
      "Mark": 6427,
      "ticles": 6428,
      "Ġrelationship": 6429,
      "stri": 6430,
      "Ġ<=": 6431,
      "Ġparallel": 6432,
      "Ġstrongly": 6433,
      "Ġrotation": 6434,
      "connect": 6435,
      "UP": 6436,
      "sport": 6437,
      "Ġinvolved": 6438,
      "Ġproved": 6439,
      "Ġfluctu": 6440,
      "Rou": 6441,
      "protobuf": 6442,
      "Ġscore": 6443,
      "Ġcry": 6444,
      "osity": 6445,
      "Ġscenario": 6446,
      "Changed": 6447,
      "illing": 6448,
      "ĠMap": 6449,
      "bp": 6450,
      "Ġrisk": 6451,
      ")--": 6452,
      "Ġener": 6453,
      "Ġcycle": 6454,
      "Ġentity": 6455,
      "vs": 6456,
      "Ġ('": 6457,
      "ĠMa": 6458,
      "reedom": 6459,
      "mediately": 6460,
      "ĠWest": 6461,
      "vee": 6462,
      "Ġhighly": 6463,
      "Ġmachine": 6464,
      "udes": 6465,
      "ĠWork": 6466,
      "Ġscreen": 6467,
      "Ġmetal": 6468,
      "}\\,\\": 6469,
      "Ġentropy": 6470,
      "Ġscales": 6471,
      "Ġalbum": 6472,
      "Ġcollision": 6473,
      "ria": 6474,
      "Storage": 6475,
      "lat": 6476,
      "_;": 6477,
      "generate": 6478,
      "ĠExp": 6479,
      "ĠIO": 6480,
      "Ġneural": 6481,
      "opic": 6482,
      "Ġconsidering": 6483,
      "properties": 6484,
      "callback": 6485,
      "MR": 6486,
      "aff": 6487,
      "lemented": 6488,
      "Ġexam": 6489,
      "Ġpiec": 6490,
      "van": 6491,
      "Ġdoing": 6492,
      "=\"\">": 6493,
      "Rule": 6494,
      "ĠPy": 6495,
      "Ġcoefficient": 6496,
      "Ġestimation": 6497,
      "]$,": 6498,
      "enomen": 6499,
      "Ġearlier": 6500,
      "Ġsatisfying": 6501,
      "Ġplatform": 6502,
      "emptyset": 6503,
      "contrib": 6504,
      "Ġgames": 6505,
      "ĠRequ": 6506,
      "Direct": 6507,
      "Ġrecall": 6508,
      "cut": 6509,
      "Ġevaluation": 6510,
      "Ġjavax": 6511,
      "win": 6512,
      "ĠUsing": 6513,
      "oul": 6514,
      "Ġlibrary": 6515,
      ">\\": 6516,
      "inline": 6517,
      "VID": 6518,
      "Ġneighbor": 6519,
      "green": 6520,
      "=\"@": 6521,
      "}})": 6522,
      "Can": 6523,
      "Ġfast": 6524,
      "ude": 6525,
      "$_{": 6526,
      "avel": 6527,
      "Ġsus": 6528,
      "Channel": 6529,
      "Ġideal": 6530,
      "ague": 6531,
      "Ġheld": 6532,
      "Ġfunctional": 6533,
      "Ġinternational": 6534,
      "items": 6535,
      "imilarly": 6536,
      "well": 6537,
      "EC": 6538,
      "Ġmut": 6539,
      "ĠEach": 6540,
      "Ġcoordinate": 6541,
      "CTION": 6542,
      "ĠPresident": 6543,
      "Ġkine": 6544,
      "tfrac": 6545,
      "Eng": 6546,
      "Cre": 6547,
      "Ġcountries": 6548,
      "DI": 6549,
      "rd": 6550,
      "ĠIS": 6551,
      "Fields": 6552,
      "ĠDire": 6553,
      "luster": 6554,
      "Xml": 6555,
      "Ġring": 6556,
      "called": 6557,
      "Load": 6558,
      "TED": 6559,
      "ĠOut": 6560,
      "asc": 6561,
      "eries": 6562,
      "BS": 6563,
      "parison": 6564,
      "imes": 6565,
      "itz": 6566,
      "romise": 6567,
      "1998": 6568,
      "128": 6569,
      "Ġfundamental": 6570,
      "ĠAmerica": 6571,
      "ĠOpen": 6572,
      "pay": 6573,
      "Ġrelatively": 6574,
      "`,": 6575,
      "Ġpropor": 6576,
      "Ġsingular": 6577,
      "Ġmodified": 6578,
      "omb": 6579,
      "ha": 6580,
      "Ġalt": 6581,
      "})}": 6582,
      "tracted": 6583,
      "\\;": 6584,
      "Ġdistinct": 6585,
      "jquery": 6586,
      "Ġthing": 6587,
      "Ġpush": 6588,
      "Ġopport": 6589,
      "Ġbytes": 6590,
      "Ġever": 6591,
      "uli": 6592,
      "TC": 6593,
      "ĠVol": 6594,
      "aign": 6595,
      "Ġconcent": 6596,
      "ington": 6597,
      "Writer": 6598,
      "ĠValue": 6599,
      "Ġunderlying": 6600,
      "ĠChris": 6601,
      "Ġ\\]": 6602,
      "track": 6603,
      "Ġutil": 6604,
      "iciently": 6605,
      "Ġverify": 6606,
      "Ġsolve": 6607,
      "ĠAustral": 6608,
      "Ġways": 6609,
      "ÃŃ": 6610,
      "BL": 6611,
      "Ġ(\"": 6612,
      "fly": 6613,
      "Ġappe": 6614,
      "Ġdidn": 6615,
      "engine": 6616,
      "sitivity": 6617,
      "joint": 6618,
      "Te": 6619,
      "aring": 6620,
      "ĠMethod": 6621,
      "Ġthick": 6622,
      "OK": 6623,
      "Show": 6624,
      "total": 6625,
      "Ġdifferences": 6626,
      "ĠForm": 6627,
      "What": 6628,
      "Ġestim": 6629,
      "ĠOther": 6630,
      "Ġsubgroup": 6631,
      "Ġvisit": 6632,
      "ĠĠĠĠĠĠĠĠĠĠĠĠĠĠĠĠĠĠĠĠĠĠĠĠĠ": 6633,
      "DS": 6634,
      "alled": 6635,
      "extension": 6636,
      "asons": 6637,
      "Active": 6638,
      "}}_{\\": 6639,
      "grams": 6640,
      "legal": 6641,
      "password": 6642,
      "ĠFurthermore": 6643,
      "onomic": 6644,
      "|}{": 6645,
      "Ġbtn": 6646,
      "Body": 6647,
      "triv": 6648,
      "Tool": 6649,
      "mi": 6650,
      "ĠAccording": 6651,
      "ĠNOT": 6652,
      "Ġrobust": 6653,
      "Ġevaluate": 6654,
      "nn": 6655,
      "Ġsound": 6656,
      "Ġdynamic": 6657,
      "anger": 6658,
      "Ġthroughout": 6659,
      "But": 6660,
      "enge": 6661,
      "ederal": 6662,
      "rams": 6663,
      "Ġsummar": 6664,
      "Ġlabels": 6665,
      "cb": 6666,
      "network": 6667,
      "Display": 6668,
      "Ġcharacters": 6669,
      "aver": 6670,
      "condition": 6671,
      "ĠGroup": 6672,
      "columnwidth": 6673,
      "Queue": 6674,
      "Ġpurpose": 6675,
      "oph": 6676,
      "Ġshared": 6677,
      "Ġfollowed": 6678,
      "?:": 6679,
      "urations": 6680,
      "Ġnor": 6681,
      "Ġactivity": 6682,
      "Ġconstants": 6683,
      "Ġconcept": 6684,
      "Ġindicate": 6685,
      "AGE": 6686,
      "Perm": 6687,
      "JSON": 6688,
      "ondon": 6689,
      "Ġconstructed": 6690,
      "bruary": 6691,
      "Ġcontained": 6692,
      "ferences": 6693,
      "rew": 6694,
      "ĠTe": 6695,
      ";/": 6696,
      "ATA": 6697,
      "$&": 6698,
      "cmd": 6699,
      "rot": 6700,
      "bigl": 6701,
      "Ġmask": 6702,
      "Ġsufficient": 6703,
      "holder": 6704,
      "ini": 6705,
      "rong": 6706,
      "dict": 6707,
      "}}}\\": 6708,
      "Ap": 6709,
      "Ġvariety": 6710,
      "incipal": 6711,
      "TEST": 6712,
      "tsd": 6713,
      "mann": 6714,
      "Post": 6715,
      "Ġexpressed": 6716,
      "Ġtreatment": 6717,
      "Ġadvan": 6718,
      "Ġsampling": 6719,
      "stry": 6720,
      "such": 6721,
      "ilities": 6722,
      "Ġnucle": 6723,
      "ĠIsl": 6724,
      "Ġinvest": 6725,
      "Custom": 6726,
      "Ġplayers": 6727,
      "Ġjoint": 6728,
      "Ġdb": 6729,
      "Ġcop": 6730,
      "RR": 6731,
      "aders": 6732,
      "gies": 6733,
      "Ġled": 6734,
      "Send": 6735,
      "witter": 6736,
      "ĠDr": 6737,
      "Ġwallet": 6738,
      "Ġhighest": 6739,
      "orter": 6740,
      "VERSION": 6741,
      "Ġinline": 6742,
      "ĠEnglish": 6743,
      "ĠAm": 6744,
      "Ġwent": 6745,
      "Ġcred": 6746,
      "wner": 6747,
      "irth": 6748,
      "Ġthermal": 6749,
      "uel": 6750,
      "Root": 6751,
      ".*": 6752,
      "Ġquestions": 6753,
      "dp": 6754,
      "large": 6755,
      "Ġdecomposition": 6756,
      "Inv": 6757,
      "Ġ^{": 6758,
      "Ġefficiency": 6759,
      "arc": 6760,
      "Job": 6761,
      "bigr": 6762,
      "}}.": 6763,
      "Ġremoved": 6764,
      "Network": 6765,
      "nother": 6766,
      "Ġsimpl": 6767,
      "Ġinverse": 6768,
      "Ġrecomm": 6769,
      "======": 6770,
      "Ġyield": 6771,
      "ingle": 6772,
      "Ġhtml": 6773,
      "Ġannoun": 6774,
      "ĠCenter": 6775,
      "Ġclean": 6776,
      "PRE": 6777,
      "ĠKing": 6778,
      "Initial": 6779,
      "Ġda": 6780,
      "rad": 6781,
      "ilitary": 6782,
      "Ġslightly": 6783,
      "scriptsize": 6784,
      "Ġ),": 6785,
      "alf": 6786,
      "ollowing": 6787,
      "Descriptor": 6788,
      "Ġsections": 6789,
      "Ġnotice": 6790,
      "ĠĠĠĠĠĠĠĠĠĠĠĠĠĠĠĠĠĠĠĠĠĠĠĠ": 6791,
      "ĠMich": 6792,
      "Ġtrace": 6793,
      "rome": 6794,
      "URE": 6795,
      "Car": 6796,
      "utf": 6797,
      "ĠVir": 6798,
      "Ġfront": 6799,
      "otal": 6800,
      "Ġlimits": 6801,
      "Ġreli": 6802,
      "Transaction": 6803,
      "slant": 6804,
      "120": 6805,
      "augh": 6806,
      "onomy": 6807,
      "Ġdesigned": 6808,
      "Ġrepresentations": 6809,
      "home": 6810,
      "]{\\": 6811,
      "Ġ\"/": 6812,
      "ĠĠĠĠĠĠĠĠĠĠĠĠĠĠĠĠĠĠĠĠĠĠ": 6813,
      "ursor": 6814,
      "move": 6815,
      "Ġconfir": 6816,
      "Ġbelieve": 6817,
      "fi": 6818,
      "Ġchem": 6819,
      "})=": 6820,
      "Ġ(*": 6821,
      "tained": 6822,
      "Ġencoding": 6823,
      "enter": 6824,
      "apan": 6825,
      "Ġpaths": 6826,
      "Ġimmediately": 6827,
      "syn": 6828,
      "Ġbutton": 6829,
      "Ġdepending": 6830,
      "kw": 6831,
      "ki": 6832,
      "ĠURL": 6833,
      "Ġmonths": 6834,
      "Ġphysics": 6835,
      "Ġattributes": 6836,
      "Ġequilibrium": 6837,
      "rays": 6838,
      "BP": 6839,
      "edit": 6840,
      "spring": 6841,
      "ano": 6842,
      "Ġutili": 6843,
      "Ġpseud": 6844,
      "ĠAppendix": 6845,
      "While": 6846,
      "Ġexplicitly": 6847,
      "Ġtypical": 6848,
      "Ġdesired": 6849,
      "JECT": 6850,
      "scroll": 6851,
      "Meta": 6852,
      "aser": 6853,
      "language": 6854,
      "ĠScience": 6855,
      "Ġparticularly": 6856,
      "tip": 6857,
      "ĠTra": 6858,
      "Ġconclu": 6859,
      "Ġalloc": 6860,
      "Ġcomment": 6861,
      "fol": 6862,
      "ĠHouse": 6863,
      "UID": 6864,
      "123": 6865,
      "ĠEar": 6866,
      "ĠGeneral": 6867,
      "Ð»": 6868,
      "uy": 6869,
      ",{\\": 6870,
      "ĠBro": 6871,
      "osing": 6872,
      "ById": 6873,
      "Example": 6874,
      "ACE": 6875,
      "Obj": 6876,
      "Ġphenomen": 6877,
      "ches": 6878,
      "Ġarchitecture": 6879,
      "slash": 6880,
      "Tra": 6881,
      "Proof": 6882,
      "Ġextend": 6883,
      "Ġbad": 6884,
      "WS": 6885,
      "Expr": 6886,
      "DP": 6887,
      "ifies": 6888,
      "lg": 6889,
      "TS": 6890,
      "Ġanswer": 6891,
      "}}^{\\": 6892,
      "Ġpick": 6893,
      "ĠService": 6894,
      "sets": 6895,
      "Ġelectric": 6896,
      "Ġunderstanding": 6897,
      "Ġcyc": 6898,
      "Ġlack": 6899,
      "horizontal": 6900,
      "Auto": 6901,
      "Ġpy": 6902,
      "KEY": 6903,
      "chain": 6904,
      "Ġoccurs": 6905,
      "Pa": 6906,
      "'.": 6907,
      "atur": 6908,
      "Ġvisible": 6909,
      "mathop": 6910,
      "schema": 6911,
      "Ġmanagement": 6912,
      "Ġbegan": 6913,
      "erve": 6914,
      "single": 6915,
      "ĠUse": 6916,
      ")))": 6917,
      "Ġsci": 6918,
      "ĠEuropean": 6919,
      "Ġinher": 6920,
      "figures": 6921,
      "termin": 6922,
      "Ġacqu": 6923,
      "algebra": 6924,
      "sively": 6925,
      "PAR": 6926,
      "Ġconsole": 6927,
      "Ġsort": 6928,
      "Ġincreased": 6929,
      "Ġexclu": 6930,
      "ĠCre": 6931,
      "Ġcomputer": 6932,
      "Ġshowed": 6933,
      "Ġmsg": 6934,
      "Ġten": 6935,
      "Ġpoly": 6936,
      "çļ": 6937,
      "Ġhole": 6938,
      "ĠÃ": 6939,
      "Ġnews": 6940,
      "ĠInternational": 6941,
      "ĠSan": 6942,
      "Ġexpress": 6943,
      "ITY": 6944,
      "ifi": 6945,
      "coded": 6946,
      "Ġquick": 6947,
      "Ġobvious": 6948,
      "inclu": 6949,
      "family": 6950,
      "tick": 6951,
      "Ġperfect": 6952,
      "çļĦ": 6953,
      "warm": 6954,
      "coming": 6955,
      "itive": 6956,
      "Ġsufficiently": 6957,
      "insert": 6958,
      "mathit": 6959,
      "Ġdetected": 6960,
      "mf": 6961,
      "Ġtun": 6962,
      "uge": 6963,
      "ĠDepartment": 6964,
      "profile": 6965,
      "thread": 6966,
      "150": 6967,
      "formal": 6968,
      "queue": 6969,
      "reme": 6970,
      "ades": 6971,
      "phot": 6972,
      "Ġassumptions": 6973,
      "Before": 6974,
      "Ġdro": 6975,
      "ida": 6976,
      "Ġ%}": 6977,
      "Ġobjective": 6978,
      "IX": 6979,
      "napshot": 6980,
      "ĠBay": 6981,
      "/(": 6982,
      "gex": 6983,
      "Ġlove": 6984,
      "Ġcombined": 6985,
      "Ġvehic": 6986,
      "help": 6987,
      "Ġachieved": 6988,
      "Ñĥ": 6989,
      "events": 6990,
      "Ġmaximal": 6991,
      "Ġ\\!": 6992,
      "Ġconstit": 6993,
      "Am": 6994,
      "Ġcommunication": 6995,
      "Ġpersonal": 6996,
      "Ġquasi": 6997,
      "Ġapplying": 6998,
      "actic": 6999,
      "Ġpositions": 7000,
      "Items": 7001,
      "........": 7002,
      "Ġprocessing": 7003,
      "when": 7004,
      "atively": 7005,
      "FILE": 7006,
      ".__": 7007,
      "ĠChina": 7008,
      "^{*": 7009,
      "Ġonto": 7010,
      "Ġrecogn": 7011,
      "Ġprefer": 7012,
      "Activity": 7013,
      "DR": 7014,
      "tian": 7015,
      "Ljava": 7016,
      "Ġtypically": 7017,
      "})^": 7018,
      "Ġkeys": 7019,
      "@\"": 7020,
      "Ġmoney": 7021,
      "STATE": 7022,
      "multirow": 7023,
      "ifts": 7024,
      "Lemma": 7025,
      "Ġentries": 7026,
      "SSERT": 7027,
      "oks": 7028,
      "stan": 7029,
      "Ġbias": 7030,
      "ailed": 7031,
      "exception": 7032,
      "anguage": 7033,
      "gment": 7034,
      "Ġshowing": 7035,
      "Ġlock": 7036,
      "ĠLa": 7037,
      "hav": 7038,
      "Ġmiddle": 7039,
      "general": 7040,
      "git": 7041,
      "addr": 7042,
      "ĠassertEquals": 7043,
      "Ġintegration": 7044,
      "Ġdrop": 7045,
      "enses": 7046,
      "hol": 7047,
      "Ġextract": 7048,
      "Ġprogress": 7049,
      "Widget": 7050,
      "Ġability": 7051,
      "prob": 7052,
      "keyword": 7053,
      "Ġbeginning": 7054,
      "Bit": 7055,
      "[:": 7056,
      "phys": 7057,
      "Ġstrateg": 7058,
      "BE": 7059,
      "poch": 7060,
      "txt": 7061,
      "Ġnothing": 7062,
      "vature": 7063,
      "random": 7064,
      "unsigned": 7065,
      "ĠAL": 7066,
      "ico": 7067,
      "assets": 7068,
      "Ġdiagonal": 7069,
      "Ġunless": 7070,
      "Ġreader": 7071,
      "since": 7072,
      "Ġcolumns": 7073,
      "Ġbehind": 7074,
      "Build": 7075,
      "product": 7076,
      "Ġtold": 7077,
      "ucket": 7078,
      "################": 7079,
      "flat": 7080,
      "tikzpicture": 7081,
      "DC": 7082,
      "Ġefficient": 7083,
      "anges": 7084,
      "words": 7085,
      "dire": 7086,
      "Ġimplemented": 7087,
      "ena": 7088,
      "brid": 7089,
      "nel": 7090,
      "illa": 7091,
      "ivil": 7092,
      "isely": 7093,
      "optim": 7094,
      "save": 7095,
      "Ġpredictions": 7096,
      "Ġodd": 7097,
      "ĠComm": 7098,
      "Ġhistor": 7099,
      "Ġstability": 7100,
      "rang": 7101,
      "Ġirre": 7102,
      "longrightarrow": 7103,
      "Ġplayed": 7104,
      "Ġdelay": 7105,
      "wild": 7106,
      "iota": 7107,
      "Ġacceler": 7108,
      "${\\": 7109,
      "ourier": 7110,
      "cloud": 7111,
      "Ġinstanceof": 7112,
      "Ġruns": 7113,
      "\\}\\": 7114,
      "Ġmid": 7115,
      "symbol": 7116,
      "Windows": 7117,
      "Ġdust": 7118,
      "Ġstatistical": 7119,
      "Ġapproximately": 7120,
      "trivial": 7121,
      "emes": 7122,
      "Ġul": 7123,
      "selected": 7124,
      ")}_": 7125,
      "Ġjud": 7126,
      "oy": 7127,
      "\\}$,": 7128,
      "ĠFebruary": 7129,
      "verti": 7130,
      "Ġvariation": 7131,
      "important": 7132,
      "Ġnamely": 7133,
      "Float": 7134,
      "}|\\": 7135,
      "ĠFalse": 7136,
      "Ġchannels": 7137,
      "Internal": 7138,
      "primary": 7139,
      "Ġpredicted": 7140,
      "magnetic": 7141,
      "}_{-": 7142,
      "Ġextr": 7143,
      "cho": 7144,
      "Hence": 7145,
      "Ġindustry": 7146,
      "]:": 7147,
      "lyph": 7148,
      "subsec": 7149,
      "pk": 7150,
      "\">&": 7151,
      "Ġion": 7152,
      "ued": 7153,
      "Ġproceed": 7154,
      "bot": 7155,
      "controller": 7156,
      "Grid": 7157,
      "lb": 7158,
      "Lock": 7159,
      "Ġmanifold": 7160,
      "zh": 7161,
      "Ġicon": 7162,
      "(!": 7163,
      "Ġmissing": 7164,
      "\\|\\": 7165,
      "trl": 7166,
      "Ġsugg": 7167,
      "Only": 7168,
      "ĠLag": 7169,
      "Pop": 7170,
      "Ġcells": 7171,
      "Scope": 7172,
      "Ġcapacity": 7173,
      "Ġsuggest": 7174,
      "Ġcandidate": 7175,
      "VM": 7176,
      "}$}": 7177,
      "Ġsector": 7178,
      "Ġpropose": 7179,
      "Ġconsequence": 7180,
      "ĠLondon": 7181,
      "(){": 7182,
      "////////////////////////////////": 7183,
      "1997": 7184,
      "Ġhit": 7185,
      "Ġfib": 7186,
      "generated": 7187,
      "Ġreplaced": 7188,
      "Ġmassive": 7189,
      "Ġinfluence": 7190,
      "Ġjus": 7191,
      "MT": 7192,
      "Ġderive": 7193,
      "Ġimm": 7194,
      ")&": 7195,
      "][]{": 7196,
      "Ġiden": 7197,
      "ĠEvent": 7198,
      "ango": 7199,
      "ĠHealth": 7200,
      "sys": 7201,
      "Ġgravit": 7202,
      "Ġeducation": 7203,
      "Edit": 7204,
      "entication": 7205,
      "bib": 7206,
      "Character": 7207,
      "Ġintr": 7208,
      "formations": 7209,
      "lig": 7210,
      "ĠGod": 7211,
      "Ġassess": 7212,
      "etal": 7213,
      "|}": 7214,
      "Ġdegrees": 7215,
      "relation": 7216,
      "istics": 7217,
      "iteral": 7218,
      "ĠDem": 7219,
      "Ġferm": 7220,
      "Ġderivative": 7221,
      "Ġtrade": 7222,
      "missions": 7223,
      "iring": 7224,
      "Ġwatch": 7225,
      "formed": 7226,
      "sen": 7227,
      "Ġmock": 7228,
      "Msg": 7229,
      "Ġ}{": 7230,
      "ĠIndeed": 7231,
      "ua": 7232,
      "olar": 7233,
      "Ġcm": 7234,
      "Ġupdated": 7235,
      "Ġsummary": 7236,
      "master": 7237,
      "Ġfair": 7238,
      "Ġsemi": 7239,
      "tified": 7240,
      "ĠGoogle": 7241,
      "Ġbring": 7242,
      "ĠWilli": 7243,
      "iggs": 7244,
      "Ġcomputing": 7245,
      "poses": 7246,
      "har": 7247,
      "Ġpointer": 7248,
      "GR": 7249,
      "ĠCopy": 7250,
      "Ġphoton": 7251,
      "Ġnonlinear": 7252,
      "Ġtown": 7253,
      "]]": 7254,
      "aved": 7255,
      "ĠHow": 7256,
      "desc": 7257,
      "Ġalternative": 7258,
      "Ġpreserv": 7259,
      "acc": 7260,
      "fail": 7261,
      "ĠTHE": 7262,
      "unt": 7263,
      "igration": 7264,
      "sort": 7265,
      "nes": 7266,
      "...,": 7267,
      "Ġcoming": 7268,
      "DM": 7269,
      "ĠExample": 7270,
      "aset": 7271,
      "Ġconj": 7272,
      "trigger": 7273,
      "Ġmaxim": 7274,
      "Ġindeed": 7275,
      "ĠCourt": 7276,
      "-(": 7277,
      "Ġsatisfied": 7278,
      "ĠDi": 7279,
      "Ġgeneric": 7280,
      "Ġbos": 7281,
      "Ġdx": 7282,
      "Ġdemand": 7283,
      "ĠAir": 7284,
      "}~": 7285,
      "ĠBritish": 7286,
      "raint": 7287,
      "Ġreceive": 7288,
      "Given": 7289,
      "Ġlooking": 7290,
      "olver": 7291,
      "dropdown": 7292,
      "ARY": 7293,
      "Timeout": 7294,
      "anted": 7295,
      "pair": 7296,
      "aults": 7297,
      "[$": 7298,
      "Ġlocally": 7299,
      "Ġoppo": 7300,
      "Ġgreen": 7301,
      "notag": 7302,
      "rank": 7303,
      "Ġextrem": 7304,
      "switch": 7305,
      "Ġtechnology": 7306,
      "Ġ}}": 7307,
      "icrosoft": 7308,
      "HS": 7309,
      "Ġtrivial": 7310,
      "tiny": 7311,
      "Ġfinancial": 7312,
      "ologies": 7313,
      "va": 7314,
      "1996": 7315,
      "Ġcloud": 7316,
      "=\"${": 7317,
      "km": 7318,
      "Ġfreedom": 7319,
      "Ġaffect": 7320,
      "Ġmoving": 7321,
      "Rece": 7322,
      "ociation": 7323,
      "Ġinstances": 7324,
      "vartheta": 7325,
      "ĠCode": 7326,
      "Ġspecify": 7327,
      ")[": 7328,
      "uby": 7329,
      "Ġadop": 7330,
      "Ġcontrad": 7331,
      "andra": 7332,
      "Ġenergies": 7333,
      "Ġcharacteristic": 7334,
      "Ġpen": 7335,
      "Ġreserv": 7336,
      "gan": 7337,
      "DT": 7338,
      "Ġwhereas": 7339,
      "elihood": 7340,
      "Ġseparate": 7341,
      "ibration": 7342,
      "Ġdistingu": 7343,
      "Ġparty": 7344,
      "$/": 7345,
      "alloc": 7346,
      "Conf": 7347,
      "CI": 7348,
      "Ġbrief": 7349,
      "reet": 7350,
      "ubble": 7351,
      "Ġhours": 7352,
      "ĠSw": 7353,
      "Ġsizes": 7354,
      "uminosity": 7355,
      "Ġund": 7356,
      "vergence": 7357,
      "=.": 7358,
      "Ġprobably": 7359,
      "Ġball": 7360,
      "Ġ{{": 7361,
      "ĠNO": 7362,
      "ny": 7363,
      "ientation": 7364,
      "^{(\\": 7365,
      ")})": 7366,
      "Ġflag": 7367,
      "names": 7368,
      "ĠSO": 7369,
      "Ġcareer": 7370,
      "rench": 7371,
      "XT": 7372,
      "Ġ$,": 7373,
      "inher": 7374,
      "Ġthems": 7375,
      "Ġtopological": 7376,
      "=\"\"": 7377,
      "sect": 7378,
      "ĠHol": 7379,
      "Ġspecies": 7380,
      "ady": 7381,
      "sertion": 7382,
      "}}=": 7383,
      "Ġnuclear": 7384,
      "medskip": 7385,
      "Ġ[];": 7386,
      "Ġtechnique": 7387,
      "Ġmetrics": 7388,
      "Ġgoes": 7389,
      "MOD": 7390,
      "Ġadding": 7391,
      "Ġrepro": 7392,
      "Ġasymptotic": 7393,
      "Scale": 7394,
      "Security": 7395,
      "Ġwall": 7396,
      "Logger": 7397,
      "Ġcanonical": 7398,
      "Ġsym": 7399,
      "ĠLie": 7400,
      "andard": 7401,
      "Ġhydro": 7402,
      "Account": 7403,
      "Ġmessages": 7404,
      "Ġleaders": 7405,
      "Ġthemselves": 7406,
      "ĠIP": 7407,
      "ĠIndia": 7408,
      "ĠLaw": 7409,
      "Assert": 7410,
      "kin": 7411,
      "Ġvariance": 7412,
      "Ġfine": 7413,
      "()));": 7414,
      "ĠEl": 7415,
      "_->": 7416,
      ":=\\": 7417,
      "Ġart": 7418,
      "external": 7419,
      "Ġorth": 7420,
      "continu": 7421,
      "bras": 7422,
      "attle": 7423,
      "ĠGovern": 7424,
      "ULE": 7425,
      "FS": 7426,
      "Ġexchange": 7427,
      "Ġgets": 7428,
      "Ġcompanies": 7429,
      "ĠBase": 7430,
      "oting": 7431,
      "ites": 7432,
      "ilation": 7433,
      "Ġharmon": 7434,
      "IST": 7435,
      "configuration": 7436,
      "Ġmotiv": 7437,
      "____": 7438,
      "Symbol": 7439,
      "Ġcourt": 7440,
      "ancel": 7441,
      "Ġsequences": 7442,
      "screen": 7443,
      "NG": 7444,
      "functions": 7445,
      "Ġtrigger": 7446,
      "Ġsaf": 7447,
      "vc": 7448,
      "Loader": 7449,
      "para": 7450,
      "ĠOper": 7451,
      "asic": 7452,
      "SIZE": 7453,
      "Ġemail": 7454,
      "ĠEnd": 7455,
      "ski": 7456,
      "Ġpossi": 7457,
      "Ġstorage": 7458,
      "Ġvs": 7459,
      "Ġng": 7460,
      "Panel": 7461,
      "ĠUK": 7462,
      "Ġlaunch": 7463,
      "typeof": 7464,
      "Ġnearly": 7465,
      "ĠText": 7466,
      "Ã¤": 7467,
      "antom": 7468,
      "ĠIR": 7469,
      "Ġtal": 7470,
      "Ġattempt": 7471,
      "LOG": 7472,
      "echo": 7473,
      "Ġfire": 7474,
      "Ġmeta": 7475,
      "Consider": 7476,
      "Pool": 7477,
      "complete": 7478,
      "ĠGal": 7479,
      "Ġbundle": 7480,
      "ï¼": 7481,
      ";\\;\\": 7482,
      "okie": 7483,
      "scripts": 7484,
      "tools": 7485,
      "ĠAuth": 7486,
      "pare": 7487,
      "Ġoccup": 7488,
      "Ġsqu": 7489,
      "PATH": 7490,
      "Sample": 7491,
      "istence": 7492,
      "fixed": 7493,
      "ĠGreen": 7494,
      "Ġstochastic": 7495,
      "throws": 7496,
      "iforn": 7497,
      "Ġmixed": 7498,
      "ĠDir": 7499,
      "ĠAlthough": 7500,
      "Ġ=========": 7501,
      "mult": 7502,
      "La": 7503,
      "stop": 7504,
      "Ġusual": 7505,
      "Ġfinding": 7506,
      "Ġcoinc": 7507,
      "Matrix": 7508,
      "TABLE": 7509,
      "gebras": 7510,
      "oe": 7511,
      "Ġspher": 7512,
      "NavBarCell": 7513,
      "grad": 7514,
      "pool": 7515,
      "Ġcentury": 7516,
      "Ġscript": 7517,
      "parator": 7518,
      "Ġtravel": 7519,
      "ĠBlack": 7520,
      "spin": 7521,
      "record": 7522,
      "Ġdiscre": 7523,
      "avelength": 7524,
      "Ġexpand": 7525,
      "Media": 7526,
      "anks": 7527,
      "Ġexplan": 7528,
      "Ġfunc": 7529,
      "hidden": 7530,
      "rich": 7531,
      "Ġinstr": 7532,
      "()).": 7533,
      "intro": 7534,
      "Ġisomorphism": 7535,
      "pres": 7536,
      "Ġrect": 7537,
      "MENT": 7538,
      "MAX": 7539,
      "ĠJapan": 7540,
      "loyment": 7541,
      "navList": 7542,
      "ocaml": 7543,
      "Ġsave": 7544,
      "}\\|": 7545,
      "Ġindices": 7546,
      "job": 7547,
      "Ġhandler": 7548,
      "ifornia": 7549,
      "Ġcomb": 7550,
      "square": 7551,
      "Ġcalls": 7552,
      "Flags": 7553,
      "icies": 7554,
      "ymmetry": 7555,
      "ĠOver": 7556,
      "ĠPark": 7557,
      "Ġquark": 7558,
      "Ġbulk": 7559,
      "shift": 7560,
      "CHE": 7561,
      "Ġforces": 7562,
      "getElement": 7563,
      "ĠAR": 7564,
      "aker": 7565,
      "Ġdashed": 7566,
      "ĠTech": 7567,
      "Ġproviding": 7568,
      "Ġlost": 7569,
      "lower": 7570,
      "Ġ\\&": 7571,
      "ĠGiven": 7572,
      "Adapter": 7573,
      "Vol": 7574,
      "Ġstatistics": 7575,
      "ga": 7576,
      "components": 7577,
      "Ġpriv": 7578,
      "Area": 7579,
      "even": 7580,
      "Ġgeneralized": 7581,
      "Ġani": 7582,
      "ĠFoundation": 7583,
      "Ġawait": 7584,
      "Success": 7585,
      "ius": 7586,
      "Desc": 7587,
      "parser": 7588,
      "!]": 7589,
      "Ġsex": 7590,
      "Ġaccurate": 7591,
      "writ": 7592,
      "gather": 7593,
      "IE": 7594,
      "EXT": 7595,
      "Ġrise": 7596,
      "mas": 7597,
      "Ġconduc": 7598,
      "ĠCollege": 7599,
      "Ġenable": 7600,
      "Ġeconomic": 7601,
      "arents": 7602,
      "integr": 7603,
      "ertific": 7604,
      "Ġinterested": 7605,
      "ught": 7606,
      "Ġelection": 7607,
      "Ġap": 7608,
      "FC": 7609,
      "equations": 7610,
      "Step": 7611,
      "Mar": 7612,
      "sym": 7613,
      "Pointer": 7614,
      "Ġprice": 7615,
      "Enum": 7616,
      "plain": 7617,
      "law": 7618,
      "formance": 7619,
      "Ġnoted": 7620,
      "GN": 7621,
      "Ġindepend": 7622,
      "UTF": 7623,
      "ĠKey": 7624,
      "inger": 7625,
      "ropic": 7626,
      "Ġradial": 7627,
      "wildfly": 7628,
      "Mapping": 7629,
      "Ġsyste": 7630,
      "Ġprecisely": 7631,
      "Ġmul": 7632,
      "printf": 7633,
      "++;": 7634,
      "Ġdynamical": 7635,
      "Ġer": 7636,
      "Ġrapid": 7637,
      "ael": 7638,
      "Ġbench": 7639,
      "bc": 7640,
      "ulator": 7641,
      "Browser": 7642,
      "Proxy": 7643,
      "orded": 7644,
      ")));": 7645,
      "Ġheavy": 7646,
      "ROM": 7647,
      "ĠMor": 7648,
      "hi": 7649,
      "Ġ$\\{\\": 7650,
      "lev": 7651,
      "Ġformed": 7652,
      "flags": 7653,
      "Ġexecution": 7654,
      "arm": 7655,
      "Duration": 7656,
      "ande": 7657,
      "Ġfill": 7658,
      "Ġgradu": 7659,
      "Ġsuitable": 7660,
      "+(": 7661,
      "Ġintersection": 7662,
      "Ġinvalid": 7663,
      "logger": 7664,
      "Ġnight": 7665,
      "Ġmodern": 7666,
      "Ġelem": 7667,
      "Xi": 7668,
      "contains": 7669,
      "Ġsurvey": 7670,
      "Ġworked": 7671,
      "ĠPublic": 7672,
      ".\\\\": 7673,
      "browser": 7674,
      "zen": 7675,
      "nil": 7676,
      "sus": 7677,
      "Ġ({\\": 7678,
      "hl": 7679,
      "Ġouter": 7680,
      "Ġworth": 7681,
      "there": 7682,
      "Ġencode": 7683,
      "Ġremark": 7684,
      "Li": 7685,
      "olic": 7686,
      "Ġcosm": 7687,
      "Ġfamil": 7688,
      "Ret": 7689,
      "Ġcontroller": 7690,
      "ocation": 7691,
      "ultane": 7692,
      "Ġspread": 7693,
      "Ġenabled": 7694,
      "lications": 7695,
      "Feature": 7696,
      "lan": 7697,
      "Ġimportance": 7698,
      "swarm": 7699,
      "estern": 7700,
      "upload": 7701,
      "ashington": 7702,
      "security": 7703,
      "Ġequality": 7704,
      "inted": 7705,
      "Suppose": 7706,
      "Events": 7707,
      "ĠId": 7708,
      "\\%$": 7709,
      "Ġredshift": 7710,
      "rase": 7711,
      "Ġsignature": 7712,
      "Ġperiodic": 7713,
      "Ġinputs": 7714,
      "Ġradiation": 7715,
      "vity": 7716,
      "Ġrows": 7717,
      "Ġdisper": 7718,
      "IB": 7719,
      "ĠHer": 7720,
      "Fr": 7721,
      "ĉčĊ": 7722,
      "Ġss": 7723,
      "mn": 7724,
      "Ġconduct": 7725,
      "world": 7726,
      "Ġdir": 7727,
      "ĠMax": 7728,
      "Ġgr": 7729,
      "Syn": 7730,
      "Ġagents": 7731,
      "eves": 7732,
      "NA": 7733,
      "thetic": 7734,
      "Ġhon": 7735,
      "Ġprograms": 7736,
      "ĠOption": 7737,
      "Editor": 7738,
      "Ġexpressions": 7739,
      "Memory": 7740,
      "Ġspect": 7741,
      "Transform": 7742,
      "Ġiteration": 7743,
      "ĠTODO": 7744,
      "Ġcaused": 7745,
      "Prop": 7746,
      "ĠHel": 7747,
      "etween": 7748,
      "Generic": 7749,
      "Rad": 7750,
      "Pack": 7751,
      "Ġfailure": 7752,
      "Frag": 7753,
      "Java": 7754,
      "SER": 7755,
      "negative": 7756,
      "Directory": 7757,
      "za": 7758,
      "ilbert": 7759,
      "Ġsoft": 7760,
      "Ġdimensional": 7761,
      "IMP": 7762,
      "ĠArm": 7763,
      "ressive": 7764,
      "ports": 7765,
      "ToString": 7766,
      "Ġaggreg": 7767,
      "!\\": 7768,
      "ticip": 7769,
      "ĠCouncil": 7770,
      "Moreover": 7771,
      "Ðº": 7772,
      "ĠFunction": 7773,
      "Ġimplements": 7774,
      "@{": 7775,
      "Mo": 7776,
      "}{*": 7777,
      "ogonal": 7778,
      "Ġcurvature": 7779,
      "spe": 7780,
      "illed": 7781,
      "backslash": 7782,
      "ĠSuch": 7783,
      "Ġasync": 7784,
      "ulty": 7785,
      "Func": 7786,
      "Ġprecision": 7787,
      "collection": 7788,
      "Part": 7789,
      "Ġ(_": 7790,
      "ucial": 7791,
      "ĠArch": 7792,
      "Member": 7793,
      "dialog": 7794,
      "Ġbehaviour": 7795,
      "LR": 7796,
      "Ġtranslation": 7797,
      "Ġexplained": 7798,
      "ensed": 7799,
      "tan": 7800,
      "Layer": 7801,
      "Ġreveal": 7802,
      "Ġcoq": 7803,
      "ĠRel": 7804,
      "ĠSen": 7805,
      "Attributes": 7806,
      "wik": 7807,
      "ĠĠčĊ": 7808,
      "ĠConfig": 7809,
      "Ġprofession": 7810,
      "parallel": 7811,
      "Some": 7812,
      "Ġdot": 7813,
      "Ġfamilies": 7814,
      "Ġinvestigate": 7815,
      "RIPT": 7816,
      "Ġeigenvalues": 7817,
      "Ġgetting": 7818,
      "ĠAN": 7819,
      "ĠOf": 7820,
      ".[": 7821,
      "lood": 7822,
      "(-\\": 7823,
      "Ġrelax": 7824,
      "resentation": 7825,
      "Ġnormalized": 7826,
      "collapse": 7827,
      "ĠView": 7828,
      "abeled": 7829,
      "Ġgravity": 7830,
      "Init": 7831,
      "Ġpatterns": 7832,
      "HR": 7833,
      "Ġago": 7834,
      "vo": 7835,
      "Ġprevent": 7836,
      "scription": 7837,
      "Protocol": 7838,
      "Ġinstruction": 7839,
      "Details": 7840,
      "000000": 7841,
      "corollary": 7842,
      "Database": 7843,
      "safe": 7844,
      "Ġbur": 7845,
      "Ġleave": 7846,
      "\"`": 7847,
      "ĠVersion": 7848,
      "Ġrational": 7849,
      "imit": 7850,
      "Ġserial": 7851,
      "Repository": 7852,
      "Ġstress": 7853,
      "BB": 7854,
      "otes": 7855,
      "udget": 7856,
      "webpack": 7857,
      "110": 7858,
      "Ġnative": 7859,
      ")--(": 7860,
      "apply": 7861,
      "'])": 7862,
      "plan": 7863,
      "ĠNews": 7864,
      "tmp": 7865,
      "props": 7866,
      "ĠRepublic": 7867,
      "cluster": 7868,
      ">:": 7869,
      "Ġabund": 7870,
      "Ġtheories": 7871,
      "plane": 7872,
      "Ġabstract": 7873,
      "Ġelectro": 7874,
      "Ġquantities": 7875,
      "eds": 7876,
      "Ġstated": 7877,
      "assertEquals": 7878,
      "ĠCap": 7879,
      "Ġsegment": 7880,
      "Selector": 7881,
      "theless": 7882,
      "Depend": 7883,
      "href": 7884,
      "Ġarti": 7885,
      "Ġliving": 7886,
      "Ġshock": 7887,
      "Ġprime": 7888,
      "Ġxmlns": 7889,
      "Double": 7890,
      "Ġtab": 7891,
      "Ġmaster": 7892,
      "dated": 7893,
      "Ġgran": 7894,
      "Ġ{'": 7895,
      "assertEqual": 7896,
      "ko": 7897,
      "Ġdebug": 7898,
      "getName": 7899,
      "{%": 7900,
      "References": 7901,
      "entials": 7902,
      "Ġlegal": 7903,
      "bad": 7904,
      "sep": 7905,
      "phone": 7906,
      "oration": 7907,
      "Ġbatch": 7908,
      "ducible": 7909,
      "phase": 7910,
      "Sw": 7911,
      "WA": 7912,
      "reset": 7913,
      "Ġtools": 7914,
      "<!": 7915,
      "rangian": 7916,
      "Ġfood": 7917,
      "loss": 7918,
      "åı": 7919,
      "Plugin": 7920,
      "ette": 7921,
      "fc": 7922,
      "XML": 7923,
      "gb": 7924,
      "fix": 7925,
      "Ġresid": 7926,
      "mean": 7927,
      ")^\\": 7928,
      "ĠNetwork": 7929,
      "ĠChrist": 7930,
      "^*\\": 7931,
      "compiler": 7932,
      "1995": 7933,
      "ĠĠĠĠĠĠĠĠĠĠĠĠĠĠĠĠĠĠĠĠĠĠĠĠĠĠĠĠĠĠĠĠĠĠĠĠĠĠĠĠĠĠĠ": 7934,
      "CM": 7935,
      "allclasses": 7936,
      "->_": 7937,
      "cribe": 7938,
      "Ġtrying": 7939,
      "temp": 7940,
      "tty": 7941,
      "manager": 7942,
      "ĠPal": 7943,
      "Ġdetector": 7944,
      "ĠInstitute": 7945,
      "Keys": 7946,
      "Ġroom": 7947,
      "ferred": 7948,
      "Abstract": 7949,
      "^*(": 7950,
      "Ġpicture": 7951,
      "idx": 7952,
      "Ġcontribute": 7953,
      "Ġanything": 7954,
      "arith": 7955,
      "Ġentang": 7956,
      "ĠEngland": 7957,
      "Ġsurv": 7958,
      "ffic": 7959,
      "spective": 7960,
      "manif": 7961,
      "Ġqueue": 7962,
      "conv": 7963,
      "ĠSm": 7964,
      "unic": 7965,
      "colLast": 7966,
      "ocker": 7967,
      "Ġrough": 7968,
      "Ġintensity": 7969,
      "Ġscience": 7970,
      "boldmath": 7971,
      "Ġtes": 7972,
      "ĠCalifornia": 7973,
      "Ġmilitary": 7974,
      "stackrel": 7975,
      "STAT": 7976,
      "liance": 7977,
      "Ġcoher": 7978,
      "Ġ=======": 7979,
      "Full": 7980,
      "Ġsil": 7981,
      "here": 7982,
      "$^{": 7983,
      "Close": 7984,
      "ultural": 7985,
      "textcolor": 7986,
      "Ġhypothesis": 7987,
      "Pay": 7988,
      "anned": 7989,
      "Ġfriend": 7990,
      "Ġcontract": 7991,
      "Print": 7992,
      "simple": 7993,
      "Ġquantity": 7994,
      "Ġequivalence": 7995,
      "libr": 7996,
      "Ġ[[": 7997,
      "trim": 7998,
      "Iterator": 7999,
      "tests": 8000,
      "Ġcategories": 8001,
      "001": 8002,
      "particle": 8003,
      "SY": 8004,
      "uses": 8005,
      "Found": 8006,
      "ĠReact": 8007,
      "ĠImage": 8008,
      "ĠMag": 8009,
      "sumer": 8010,
      "handler": 8011,
      "calc": 8012,
      "Global": 8013,
      "Warning": 8014,
      "Ġ,\\": 8015,
      "Ġunion": 8016,
      "CG": 8017,
      "ĠDavid": 8018,
      "cape": 8019,
      "ĠDefault": 8020,
      "Ġmind": 8021,
      "Summary": 8022,
      "Ġvalidation": 8023,
      "uum": 8024,
      "shall": 8025,
      "$.}": 8026,
      "Ġtruth": 8027,
      "SQL": 8028,
      "ĠGeV": 8029,
      "colFirst": 8030,
      "Ġrequirements": 8031,
      "elt": 8032,
      "protected": 8033,
      "ajax": 8034,
      "_(": 8035,
      "transition": 8036,
      "Ġisol": 8037,
      "Ġborn": 8038,
      "Ġmathema": 8039,
      "ĠCall": 8040,
      "Pattern": 8041,
      "Ġcomposition": 8042,
      "yal": 8043,
      "Diag": 8044,
      "ĠPost": 8045,
      "feature": 8046,
      "jango": 8047,
      "ye": 8048,
      "FIG": 8049,
      "ji": 8050,
      "Ġevaluated": 8051,
      "Ñı": 8052,
      "moment": 8053,
      "AX": 8054,
      "Ġassuming": 8055,
      "ĠĠĠĠĠĠĠĠĠĠĠĠĠĠĠĠĠĠĠĠĠĠĠĠĠĠ": 8056,
      "Uni": 8057,
      "phas": 8058,
      "ĠMr": 8059,
      "Ġdevices": 8060,
      "Ġ\"\"": 8061,
      "ĠMem": 8062,
      "Trac": 8063,
      "leep": 8064,
      "Ġio": 8065,
      "stro": 8066,
      "Ġadvantage": 8067,
      "Ġcompleted": 8068,
      "Sim": 8069,
      "tbody": 8070,
      "HC": 8071,
      "Ġdise": 8072,
      "some": 8073,
      "Ġconfigurations": 8074,
      "vention": 8075,
      "ĠSta": 8076,
      "Ġseven": 8077,
      "ĠNode": 8078,
      "1990": 8079,
      "Math": 8080,
      "Ġraw": 8081,
      "thick": 8082,
      "Space": 8083,
      "cline": 8084,
      "ups": 8085,
      "Ġnavigation": 8086,
      "izable": 8087,
      "*}[": 8088,
      "cepts": 8089,
      "Ġ\\,\\": 8090,
      "downarrow": 8091,
      "Ġtrend": 8092,
      "orge": 8093,
      "ĠSM": 8094,
      "Ġgiving": 8095,
      "grade": 8096,
      "going": 8097,
      "ceil": 8098,
      "*)": 8099,
      "bd": 8100,
      ")\">": 8101,
      "ĠVAL": 8102,
      "look": 8103,
      "ĠSI": 8104,
      "Ġautomatically": 8105,
      "haps": 8106,
      "Ġens": 8107,
      "NOT": 8108,
      "BUG": 8109,
      "Ġbuilder": 8110,
      "|$": 8111,
      "ĠIsra": 8112,
      "_,": 8113,
      "rane": 8114,
      "Ġreq": 8115,
      "metadata": 8116,
      "Ġluminosity": 8117,
      "Ġcard": 8118,
      "prov": 8119,
      "Seg": 8120,
      "anded": 8121,
      "plus": 8122,
      "ceptions": 8123,
      "Ġgenerator": 8124,
      "Ġscene": 8125,
      "structure": 8126,
      "Ġcampaign": 8127,
      "Profile": 8128,
      "Ġflex": 8129,
      "rypt": 8130,
      "Ġeditor": 8131,
      "ĠLi": 8132,
      "Ġduration": 8133,
      "Ġreached": 8134,
      "orizon": 8135,
      "elling": 8136,
      "Ġmoved": 8137,
      "ĠEast": 8138,
      "Ġsoon": 8139,
      "Ġwebsite": 8140,
      "iterator": 8141,
      "ĠTask": 8142,
      "ICE": 8143,
      "NotNull": 8144,
      "NULL": 8145,
      "ĠNor": 8146,
      "stitution": 8147,
      "Scroll": 8148,
      "mal": 8149,
      "Ġquar": 8150,
      "Ġrac": 8151,
      "Ġexponential": 8152,
      "neg": 8153,
      "ĠLong": 8154,
      "Ġreading": 8155,
      "Ġson": 8156,
      "Ġ\"<": 8157,
      "footnotesize": 8158,
      "Files": 8159,
      "áĥ": 8160,
      ".'": 8161,
      "Engine": 8162,
      "phantom": 8163,
      "Ġrequests": 8164,
      "urrency": 8165,
      "Ġmatches": 8166,
      "bg": 8167,
      "ĠBer": 8168,
      "Ġcreating": 8169,
      "Ġprojects": 8170,
      "article": 8171,
      "pattern": 8172,
      "children": 8173,
      "hfill": 8174,
      "Ġserved": 8175,
      "rote": 8176,
      "Ġ---": 8177,
      "Ġrelig": 8178,
      "Ġheat": 8179,
      "Ġdescribes": 8180,
      "Ġperturbation": 8181,
      "Ġfluctuations": 8182,
      "ĠFin": 8183,
      "yy": 8184,
      "','": 8185,
      "TT": 8186,
      "Ġsuggests": 8187,
      "Ġconnections": 8188,
      "tabs": 8189,
      "iii": 8190,
      "Ġmovie": 8191,
      "Ġsolar": 8192,
      "Ġstudent": 8193,
      "hide": 8194,
      "textup": 8195,
      "ĠInc": 8196,
      "Parse": 8197,
      "Ġsignals": 8198,
      "Ġthank": 8199,
      "reek": 8200,
      "Ġtraditional": 8201,
      "ĠUpdate": 8202,
      "Ġmedical": 8203,
      "Ġmajority": 8204,
      "Remove": 8205,
      ")}.": 8206,
      "Ġtypeof": 8207,
      "ĠInitial": 8208,
      "RAN": 8209,
      "platform": 8210,
      "|^{": 8211,
      "Ġreasons": 8212,
      "\"><!--": 8213,
      "fx": 8214,
      "Ġincorpor": 8215,
      "ĠAND": 8216,
      "Ani": 8217,
      "Comment": 8218,
      "np": 8219,
      ")\"": 8220,
      "Fail": 8221,
      "isson": 8222,
      "Ġgenerating": 8223,
      "Ġdiscr": 8224,
      "Ġneighborhood": 8225,
      "ĠWil": 8226,
      "Ġexperi": 8227,
      "Ġepis": 8228,
      "à¤": 8229,
      "Ġstrings": 8230,
      "Ġellip": 8231,
      "HER": 8232,
      "Ġminor": 8233,
      "Ġboard": 8234,
      "mask": 8235,
      "ĠĠĠĠĠĠĠĠĠĠĠĠĠĠĠĠĠĠĠĠĠĠĠĠĠĠĠĠĠ": 8236,
      "Ġhalo": 8237,
      "vect": 8238,
      "Ġcarried": 8239,
      "Ġrepresenting": 8240,
      "Ġgravitational": 8241,
      "Ġca": 8242,
      "ĠSuppose": 8243,
      "Ġuniformly": 8244,
      "shadow": 8245,
      "ĠWashington": 8246,
      "Ġpolarization": 8247,
      "isot": 8248,
      "Ġcompatible": 8249,
      "trace": 8250,
      "observ": 8251,
      ";}": 8252,
      "Ġidentical": 8253,
      "Ġfn": 8254,
      "ura": 8255,
      "tile": 8256,
      "Ġasked": 8257,
      "kens": 8258,
      "jar": 8259,
      "attributes": 8260,
      "Ġtriple": 8261,
      "Ġpossibility": 8262,
      "ensus": 8263,
      "acle": 8264,
      "%%%%": 8265,
      "filename": 8266,
      "nodes": 8267,
      "Ġacts": 8268,
      "Att": 8269,
      "headers": 8270,
      "equence": 8271,
      "Ġoffice": 8272,
      "\",\"": 8273,
      "cdn": 8274,
      "aven": 8275,
      "'_{": 8276,
      "Ġplanet": 8277,
      "prefix": 8278,
      "Ġaccre": 8279,
      "fd": 8280,
      "Ġcarry": 8281,
      "NT": 8282,
      "Ġdem": 8283,
      "nition": 8284,
      "Other": 8285,
      "'=": 8286,
      "Ġimproved": 8287,
      "Ġdt": 8288,
      "Ġnecessarily": 8289,
      "BAR": 8290,
      "posal": 8291,
      "Ġjet": 8292,
      "illis": 8293,
      "omas": 8294,
      "Ġdecl": 8295,
      "uparrow": 8296,
      "ĠNumber": 8297,
      "Ġsimultane": 8298,
      "sig": 8299,
      "Ġquadratic": 8300,
      "erial": 8301,
      "ĠKe": 8302,
      "Ġlearned": 8303,
      "acob": 8304,
      "Ġkm": 8305,
      "zone": 8306,
      "ONE": 8307,
      "ĠĠĠĠĠĠĠĠĠĠĠĠĠĠĠĠĠĠĠĠĠĠĠĠĠĠĠĠ": 8308,
      "Ġpolice": 8309,
      "Ġrecords": 8310,
      "arities": 8311,
      "Ġprefix": 8312,
      "ĠProject": 8313,
      "Domain": 8314,
      "&=\\": 8315,
      "power": 8316,
      "Ġnotion": 8317,
      "125": 8318,
      "ĠIE": 8319,
      "have": 8320,
      "Ġchemical": 8321,
      "rift": 8322,
      "sip": 8323,
      "Socket": 8324,
      "Ġsites": 8325,
      "Cluster": 8326,
      "regular": 8327,
      "titude": 8328,
      "account": 8329,
      ")}(\\": 8330,
      "kl": 8331,
      "wood": 8332,
      "ĠUN": 8333,
      "irror": 8334,
      "Ġphases": 8335,
      "apes": 8336,
      "Runtime": 8337,
      "Agent": 8338,
      "ĠAlgorithm": 8339,
      "velopment": 8340,
      "3333": 8341,
      "Ġmodules": 8342,
      "Ġuncertainties": 8343,
      "ya": 8344,
      "Ġcool": 8345,
      "Ġeverything": 8346,
      "bytes": 8347,
      "Cref": 8348,
      "Common": 8349,
      "Help": 8350,
      "ĠRet": 8351,
      "ĠSD": 8352,
      "Ġpool": 8353,
      "iem": 8354,
      "Ġwriter": 8355,
      "ita": 8356,
      "Ġdependent": 8357,
      "Stats": 8358,
      "FFFF": 8359,
      "maven": 8360,
      "Ġfather": 8361,
      "}>": 8362,
      "posite": 8363,
      "Ġsuppose": 8364,
      ")(\\": 8365,
      "JS": 8366,
      "Ġorders": 8367,
      "care": 8368,
      "250": 8369,
      "Ġdemonstrate": 8370,
      "Ġconvolution": 8371,
      "operation": 8372,
      "details": 8373,
      "ĠConsider": 8374,
      "Ġassigned": 8375,
      "differ": 8376,
      "trine": 8377,
      "knowledge": 8378,
      "ðŁ": 8379,
      "Ġsometimes": 8380,
      "Ġpull": 8381,
      "Ġwanted": 8382,
      "Ġspan": 8383,
      "Ġpatch": 8384,
      "ĠIOException": 8385,
      "Ġmedium": 8386,
      "tributed": 8387,
      "Gu": 8388,
      "ĠChurch": 8389,
      "Ġmanager": 8390,
      "basic": 8391,
      "Ġ?>": 8392,
      "Ġcapital": 8393,
      "Ġapplicable": 8394,
      "Ġmor": 8395,
      "Ġlisted": 8396,
      "leftarrow": 8397,
      "Ġschema": 8398,
      "owers": 8399,
      "Ġdefines": 8400,
      "Failed": 8401,
      "Ġindividuals": 8402,
      "scopic": 8403,
      "CHECK": 8404,
      "Ġtouch": 8405,
      "tags": 8406,
      "=\\{": 8407,
      "FL": 8408,
      "Ġoptional": 8409,
      "Constants": 8410,
      "Ġbright": 8411,
      "ffff": 8412,
      "pton": 8413,
      "rob": 8414,
      "}$\\": 8415,
      "road": 8416,
      "1994": 8417,
      "ignment": 8418,
      "Ġpoor": 8419,
      "Ġmodify": 8420,
      "Ġcollabor": 8421,
      "unique": 8422,
      "Ġmanner": 8423,
      "bx": 8424,
      "ĠProgram": 8425,
      "mits": 8426,
      "Ġhope": 8427,
      "jecture": 8428,
      "Ġcoupled": 8429,
      "ipped": 8430,
      "Ġdefinitions": 8431,
      "resize": 8432,
      "------------": 8433,
      "assembly": 8434,
      "Ġisot": 8435,
      "arr": 8436,
      "Ġfem": 8437,
      "states": 8438,
      "Ġpredict": 8439,
      "ufact": 8440,
      "Ro": 8441,
      "$-$": 8442,
      "Ġorganization": 8443,
      "verb": 8444,
      "Ax": 8445,
      "Register": 8446,
      "urred": 8447,
      "wave": 8448,
      "Ġbaseline": 8449,
      "Ġproxy": 8450,
      "ĠBO": 8451,
      "mk": 8452,
      "Ġcomments": 8453,
      "Ġcorrections": 8454,
      "Ġhierarch": 8455,
      "ĠDel": 8456,
      "Ġmaterials": 8457,
      "Ġanom": 8458,
      "laration": 8459,
      "180": 8460,
      "enable": 8461,
      "licated": 8462,
      "textsf": 8463,
      "ĠSecond": 8464,
      "ADD": 8465,
      "ĠLandroid": 8466,
      "Ġtalk": 8467,
      "ĠField": 8468,
      "ĠAction": 8469,
      "'m": 8470,
      "Ġwrong": 8471,
      "Ġlives": 8472,
      "Ġbrowser": 8473,
      "ĠJava": 8474,
      "services": 8475,
      "()</": 8476,
      "Ġroute": 8477,
      "ĠConn": 8478,
      "MI": 8479,
      "Rest": 8480,
      "ago": 8481,
      "Ġmaintain": 8482,
      "decl": 8483,
      "irical": 8484,
      ".$$": 8485,
      "Ġreferences": 8486,
      "UL": 8487,
      "Ġcosts": 8488,
      "How": 8489,
      "Wrapper": 8490,
      "provider": 8491,
      "Ġdense": 8492,
      "ĠAssembly": 8493,
      "Simple": 8494,
      "Ġfeedback": 8495,
      "Ġ{$\\": 8496,
      "Ġtail": 8497,
      "Ġessential": 8498,
      "Region": 8499,
      "ĠUnder": 8500,
      "Decl": 8501,
      "Ġdeviation": 8502,
      "{(\\": 8503,
      "connected": 8504,
      "Ġisn": 8505,
      "ĠFourier": 8506,
      "Ġconflic": 8507,
      "Generator": 8508,
      "Ġrestric": 8509,
      "Ġwavelength": 8510,
      "Ġhappen": 8511,
      "Dest": 8512,
      "lain": 8513,
      "ensors": 8514,
      "Ġsigned": 8515,
      "Ġslo": 8516,
      "period": 8517,
      "ĠSy": 8518,
      "useum": 8519,
      "\\|_": 8520,
      "$\\\\": 8521,
      "?>": 8522,
      "Ġtro": 8523,
      "ARN": 8524,
      "Ġbands": 8525,
      "umption": 8526,
      "ĠHiggs": 8527,
      "protocol": 8528,
      "wt": 8529,
      "ackson": 8530,
      "stantial": 8531,
      "Selection": 8532,
      "Statement": 8533,
      "}.}": 8534,
      "lik": 8535,
      "oments": 8536,
      "seq": 8537,
      "}</": 8538,
      "editor": 8539,
      "wrapper": 8540,
      "ĠExec": 8541,
      "Ġdesc": 8542,
      "Ġresponsible": 8543,
      "Ġgeometric": 8544,
      "ĠBecause": 8545,
      "Ġcref": 8546,
      "Ġ[],": 8547,
      "Ġtransmission": 8548,
      "ĠAny": 8549,
      "ville": 8550,
      "Ġprofiles": 8551,
      "MF": 8552,
      "Ġconstructor": 8553,
      "Ġtopology": 8554,
      "Ġpixel": 8555,
      "ja": 8556,
      "Sync": 8557,
      "xhtml": 8558,
      "Ġ\",": 8559,
      "EV": 8560,
      "ĠHo": 8561,
      "Ġformulation": 8562,
      "$^": 8563,
      "sequent": 8564,
      "Ġsom": 8565,
      "Two": 8566,
      "{|": 8567,
      "\\!\\!\\!": 8568,
      "Ġdirector": 8569,
      "Ġseconds": 8570,
      "Ġreferred": 8571,
      "Single": 8572,
      "Password": 8573,
      "'ve": 8574,
      "invariant": 8575,
      "Ġlies": 8576,
      "dete": 8577,
      "che": 8578,
      "('.": 8579,
      "errors": 8580,
      "Ġsaw": 8581,
      "High": 8582,
      "Ġscenarios": 8583,
      "leted": 8584,
      "Py": 8585,
      "IA": 8586,
      "Ġsurpr": 8587,
      "Ġoffic": 8588,
      "Product": 8589,
      "fg": 8590,
      "binom": 8591,
      "special": 8592,
      "Ġmainly": 8593,
      "essor": 8594,
      "Ġordered": 8595,
      "Ġpassword": 8596,
      "hold": 8597,
      "Ġprop": 8598,
      "Ġatoms": 8599,
      "Pair": 8600,
      "rupt": 8601,
      "PORT": 8602,
      "ALSE": 8603,
      "OPT": 8604,
      "Ġwalk": 8605,
      "ĠĠĠĠĠĠĠĠĠĠĠĠĠĠĠĠĊ": 8606,
      "SN": 8607,
      "OUT": 8608,
      ".\");": 8609,
      "Ġtransl": 8610,
      "builder": 8611,
      "ĠSk": 8612,
      "Ġdu": 8613,
      "Second": 8614,
      "Ġenter": 8615,
      "Gen": 8616,
      "~(\\": 8617,
      "Ġdiffusion": 8618,
      "Ġwind": 8619,
      ",...,": 8620,
      ")>": 8621,
      "erior": 8622,
      "Ġsynchron": 8623,
      "gate": 8624,
      "wall": 8625,
      "$\\,": 8626,
      "ara": 8627,
      "Err": 8628,
      "theme": 8629,
      "hips": 8630,
      "Ġbalance": 8631,
      "ĠCanada": 8632,
      "ĠIndian": 8633,
      "lers": 8634,
      "Ġbeli": 8635,
      "Ġhorizontal": 8636,
      "FE": 8637,
      "IND": 8638,
      "Ġtranslate": 8639,
      "Ġ[\"": 8640,
      "('#": 8641,
      "iles": 8642,
      "\\/": 8643,
      "Ġbirth": 8644,
      "Ġreduces": 8645,
      "clip": 8646,
      "Ġsizeof": 8647,
      "ditionally": 8648,
      "midrule": 8649,
      "Encoded": 8650,
      "execute": 8651,
      "Ġiniti": 8652,
      "PD": 8653,
      "zy": 8654,
      "Ġadjac": 8655,
      "Props": 8656,
      "Ġwrote": 8657,
      "uages": 8658,
      "&&\\": 8659,
      "Trace": 8660,
      "Ġstarts": 8661,
      "ordinate": 8662,
      "prev": 8663,
      "ÐµÐ": 8664,
      "ĠJames": 8665,
      "Ġsolving": 8666,
      "Ġfavor": 8667,
      "retch": 8668,
      "Ġtransitions": 8669,
      "iginal": 8670,
      "login": 8671,
      "Ġbooks": 8672,
      "Tx": 8673,
      "Aut": 8674,
      "Ġmixing": 8675,
      "Ġcamera": 8676,
      "Scal": 8677,
      "Ġ\"-": 8678,
      "READ": 8679,
      "ĠRich": 8680,
      "Total": 8681,
      "racket": 8682,
      "Route": 8683,
      "Ġdirections": 8684,
      "600": 8685,
      "ĠMet": 8686,
      "measure": 8687,
      "junit": 8688,
      "Nodes": 8689,
      "agent": 8690,
      "kt": 8691,
      "}/\\": 8692,
      "Ġsuccessfully": 8693,
      "Ġchanging": 8694,
      "TIME": 8695,
      "pu": 8696,
      "Selected": 8697,
      "ĠSum": 8698,
      "mathtt": 8699,
      "audi": 8700,
      "Background": 8701,
      "mented": 8702,
      "Ġstored": 8703,
      "Ġreconstruction": 8704,
      "rf": 8705,
      "ĠInteger": 8706,
      "isting": 8707,
      "Ġinj": 8708,
      "tensor": 8709,
      "insic": 8710,
      "Phys": 8711,
      "Ġeventually": 8712,
      "ĠGr": 8713,
      "Ġregression": 8714,
      "depth": 8715,
      "cepted": 8716,
      "sel": 8717,
      "Ġ\\|\\": 8718,
      "Ġui": 8719,
      "Ġparser": 8720,
      "Ġtopic": 8721,
      "changed": 8722,
      "spital": 8723,
      "TEXT": 8724,
      "Lin": 8725,
      "Ġsusp": 8726,
      "101": 8727,
      "ACT": 8728,
      "_{+": 8729,
      "ĠFrench": 8730,
      "Ġstaff": 8731,
      "Ġschedule": 8732,
      "ĠIndex": 8733,
      "unct": 8734,
      "shared": 8735,
      "ĠSur": 8736,
      "ĉĉĉĉĉĉĉĉĉ": 8737,
      "ĠJew": 8738,
      "ifted": 8739,
      "Ġgave": 8740,
      "Ġadopted": 8741,
      "Variable": 8742,
      "Ġfluid": 8743,
      "Ġ$^{": 8744,
      "ĠCOVID": 8745,
      "ĠTrump": 8746,
      "Ġ\\[": 8747,
      "ampion": 8748,
      "OB": 8749,
      "Ġdied": 8750,
      "Ġuniversal": 8751,
      "Ġstraightforward": 8752,
      "ĠLeg": 8753,
      "Ġcast": 8754,
      "Ġri": 8755,
      "plates": 8756,
      "Ġcreation": 8757,
      "fined": 8758,
      "Ġarc": 8759,
      "Ġintermediate": 8760,
      "Ho": 8761,
      "xs": 8762,
      "entific": 8763,
      "uilt": 8764,
      "Ġminutes": 8765,
      "ĠResource": 8766,
      "Ġlocations": 8767,
      "})^{": 8768,
      "Clear": 8769,
      "Ġquickly": 8770,
      "done": 8771,
      "Ġopposite": 8772,
      "usform": 8773,
      "numerusform": 8774,
      "Ġinstalled": 8775,
      "density": 8776,
      "ĠHash": 8777,
      "Ġthreat": 8778,
      "Ġctx": 8779,
      "Ġresidual": 8780,
      "Ġmodeling": 8781,
      "Registry": 8782,
      "Ġdensities": 8783,
      "Ġfrequencies": 8784,
      "ĠCopyright": 8785,
      "Ġmetadata": 8786,
      "ĠGerman": 8787,
      "Collections": 8788,
      "Ġvic": 8789,
      "multline": 8790,
      "views": 8791,
      "Ġpresident": 8792,
      "Ġenjo": 8793,
      "Ġtend": 8794,
      "Ġrecur": 8795,
      "Ġcandidates": 8796,
      "Ġmarked": 8797,
      "Ġmovement": 8798,
      "ĠNAME": 8799,
      "Ġspent": 8800,
      "ĠUnion": 8801,
      "ĠCorollary": 8802,
      "Ġhimself": 8803,
      "Ġchallenge": 8804,
      "springframework": 8805,
      "ertificate": 8806,
      "Ġturns": 8807,
      "sn": 8808,
      "ĠBel": 8809,
      "arded": 8810,
      "awa": 8811,
      "Ġemphas": 8812,
      "inear": 8813,
      "lective": 8814,
      "Ġpatients": 8815,
      "Ġepoch": 8816,
      "constant": 8817,
      "Ġcharged": 8818,
      "Ġcommut": 8819,
      "Ġlowest": 8820,
      "TA": 8821,
      "Ġmus": 8822,
      "$'": 8823,
      "leqslant": 8824,
      "Ġguarante": 8825,
      "Ġrev": 8826,
      "rey": 8827,
      "Ġlogger": 8828,
      "cross": 8829,
      "Ġhighlight": 8830,
      "Ġremote": 8831,
      "Ġpolynomials": 8832,
      "Ġprincipal": 8833,
      "knowled": 8834,
      "}^+": 8835,
      "picker": 8836,
      "ĠPub": 8837,
      "Ġdead": 8838,
      "Ġexpectation": 8839,
      "Category": 8840,
      "Ġhomogeneous": 8841,
      "Ġactivities": 8842,
      "elebr": 8843,
      "URI": 8844,
      "Ġ],": 8845,
      "]^": 8846,
      "Ġplaced": 8847,
      "Ġvacuum": 8848,
      "Ġbits": 8849,
      "Player": 8850,
      "ĠSuper": 8851,
      "Ġatmos": 8852,
      "Ġcodes": 8853,
      "Ġstrategies": 8854,
      "CESS": 8855,
      "gi": 8856,
      "dk": 8857,
      "SF": 8858,
      "Ġ_{\\": 8859,
      "ĠMessage": 8860,
      "CTYPE": 8861,
      "yr": 8862,
      "ĠDep": 8863,
      "Ġ(.": 8864,
      "(__": 8865,
      "ĠWhite": 8866,
      "Ġneutrino": 8867,
      "Ġdistr": 8868,
      "Ġessentially": 8869,
      "Ġcollect": 8870,
      "ĠTV": 8871,
      "ĠTechn": 8872,
      "History": 8873,
      "ĠRead": 8874,
      "Ġcorrelations": 8875,
      "room": 8876,
      "Pub": 8877,
      "Ġpublish": 8878,
      "titions": 8879,
      "imits": 8880,
      "}^{+": 8881,
      "LECT": 8882,
      "game": 8883,
      "Ġversions": 8884,
      "\\},": 8885,
      "Ġinterpretation": 8886,
      "ĠGR": 8887,
      "Ġpolicies": 8888,
      "ĠSim": 8889,
      "Ġpurposes": 8890,
      "Ġmostly": 8891,
      "Ġseparation": 8892,
      "svg": 8893,
      "Ġpermut": 8894,
      "users": 8895,
      "Ġanalytic": 8896,
      "Identifier": 8897,
      "indexOf": 8898,
      "clean": 8899,
      "Cho": 8900,
      "gments": 8901,
      "invalid": 8902,
      "tel": 8903,
      "ĠBoth": 8904,
      "photon": 8905,
      "Ġask": 8906,
      "asy": 8907,
      "Ġcharset": 8908,
      "precated": 8909,
      "CRE": 8910,
      "Ġfitting": 8911,
      "Ġensemble": 8912,
      "overview": 8913,
      "Ġadvers": 8914,
      "Bigg": 8915,
      "paper": 8916,
      "WN": 8917,
      "mazon": 8918,
      "Ġcontinued": 8919,
      "Ġheart": 8920,
      "Resources": 8921,
      "Ġorthogonal": 8922,
      "typedef": 8923,
      "Ġaffected": 8924,
      "Ġcoverage": 8925,
      "ĠExt": 8926,
      "Ġconjug": 8927,
      "Ġresolve": 8928,
      "&=&\\": 8929,
      "Ġdecrease": 8930,
      "Ġhot": 8931,
      "flag": 8932,
      "tk": 8933,
      "Admin": 8934,
      "Ġalgebraic": 8935,
      "onym": 8936,
      "requency": 8937,
      "nm": 8938,
      "ancing": 8939,
      "Ġrig": 8940,
      "Ġannounced": 8941,
      "ĠDay": 8942,
      "Ġdrug": 8943,
      "Ġconfidence": 8944,
      "Ġshell": 8945,
      "Ġelectrons": 8946,
      "pole": 8947,
      "ĠCong": 8948,
      "Ġinference": 8949,
      "GeV": 8950,
      "Ġbenchmark": 8951,
      "Ġtrajectory": 8952,
      "'));": 8953,
      "Ġconvert": 8954,
      "Ġrestriction": 8955,
      "ĠHand": 8956,
      "ĠLagrangian": 8957,
      "Ġdependencies": 8958,
      "DateTime": 8959,
      "ĠMal": 8960,
      "ĠjQuery": 8961,
      "Ġtemperatures": 8962,
      "Ġsubstantial": 8963,
      "ĠCommission": 8964,
      "ensing": 8965,
      "}[!": 8966,
      "cing": 8967,
      "Ġweighted": 8968,
      "ica": 8969,
      "raise": 8970,
      "Ġparam": 8971,
      "sey": 8972,
      "Ġ([": 8973,
      "Dete": 8974,
      "1993": 8975,
      "ITE": 8976,
      "Ġproportional": 8977,
      "Ġreflect": 8978,
      "Ã§": 8979,
      "ston": 8980,
      "rev": 8981,
      "quote": 8982,
      "ANG": 8983,
      "Ġmarg": 8984,
      "storage": 8985,
      "ito": 8986,
      "anchor": 8987,
      "ĠIl": 8988,
      "ĠDon": 8989,
      "Install": 8990,
      "Ã¼": 8991,
      "ĠAfrica": 8992,
      "Ġallowing": 8993,
      "Ġroad": 8994,
      "urable": 8995,
      "Ġexit": 8996,
      "username": 8997,
      "just": 8998,
      "subequations": 8999,
      "Ġmonitor": 9000,
      "arity": 9001,
      "deep": 9002,
      "person": 9003,
      "moz": 9004,
      "Ġplaying": 9005,
      "Ġplas": 9006,
      "Ġdirected": 9007,
      "direction": 9008,
      "UD": 9009,
      "Role": 9010,
      "]=": 9011,
      "akes": 9012,
      "println": 9013,
      "ĠHttp": 9014,
      "OF": 9015,
      "player": 9016,
      "enabled": 9017,
      "Ġignore": 9018,
      "Ġregarding": 9019,
      "Ġtemporal": 9020,
      "Ġ\\{\\": 9021,
      "ĠOnly": 9022,
      "Ġrandomly": 9023,
      "DOCTYPE": 9024,
      "inese": 9025,
      "Find": 9026,
      "Ġdeliver": 9027,
      "Ġmenu": 9028,
      "Ġstrictly": 9029,
      "amazon": 9030,
      "ĠSyn": 9031,
      "ĠPress": 9032,
      "Ġworkers": 9033,
      "Ġapparent": 9034,
      "usted": 9035,
      "policy": 9036,
      "ĠallClasses": 9037,
      "ĠTwo": 9038,
      "SV": 9039,
      "Visible": 9040,
      "ĠCR": 9041,
      "sure": 9042,
      "nostic": 9043,
      "Ġdistinguish": 9044,
      "Author": 9045,
      "ĠVis": 9046,
      "ĠPhil": 9047,
      "eder": 9048,
      "Ġmes": 9049,
      "ĠallClassesLink": 9050,
      "resources": 9051,
      "ĠWindow": 9052,
      "Ġ'<": 9053,
      "dc": 9054,
      "eks": 9055,
      "Ġlatest": 9056,
      "Ġwish": 9057,
      "ĠAustralia": 9058,
      "Ġsubspace": 9059,
      "ĠParty": 9060,
      "ĠBr": 9061,
      "USE": 9062,
      "Ġexplore": 9063,
      "Ġsal": 9064,
      "ori": 9065,
      "role": 9066,
      "propto": 9067,
      "ĠMost": 9068,
      "EEEE": 9069,
      "Ġflags": 9070,
      "ĠDM": 9071,
      "Interval": 9072,
      "![": 9073,
      "\\}.": 9074,
      "}{{\\": 9075,
      "aily": 9076,
      ">::": 9077,
      "ĠDat": 9078,
      "\\!\\": 9079,
      "ĠTR": 9080,
      "instein": 9081,
      "effect": 9082,
      "Ġideas": 9083,
      "Ġabsorption": 9084,
      "ĠEv": 9085,
      "video": 9086,
      "Ġgrant": 9087,
      "Ġexplanation": 9088,
      "ĠDemoc": 9089,
      "ulus": 9090,
      "Eff": 9091,
      "python": 9092,
      "Ġsupports": 9093,
      "las": 9094,
      "Ġreports": 9095,
      "determin": 9096,
      "Hom": 9097,
      "urally": 9098,
      "FLA": 9099,
      "Ġcontinuum": 9100,
      "complex": 9101,
      "async": 9102,
      "ĠEmp": 9103,
      "ĠHall": 9104,
      "Ġ~\\": 9105,
      "Ġhappens": 9106,
      "ĠDefinition": 9107,
      "Ġschools": 9108,
      "Ġsensitivity": 9109,
      "INFO": 9110,
      "Ġdispersion": 9111,
      "1992": 9112,
      "progress": 9113,
      "weak": 9114,
      "Ġdecreases": 9115,
      "warning": 9116,
      "Ġderivatives": 9117,
      "tempor": 9118,
      "Ġtechnical": 9119,
      "TRUE": 9120,
      "Ġintegrated": 9121,
      "Ġimplicit": 9122,
      "ander": 9123,
      "Texture": 9124,
      "elian": 9125,
      "Ġsensitive": 9126,
      "Ġsafe": 9127,
      "organ": 9128,
      "assandra": 9129,
      "ĠColor": 9130,
      "tegr": 9131,
      "arian": 9132,
      "ĠLcom": 9133,
      "Fin": 9134,
      "Ġefforts": 9135,
      "Ġinterpol": 9136,
      "AE": 9137,
      "tios": 9138,
      "Ġ).": 9139,
      "iling": 9140,
      "She": 9141,
      "sti": 9142,
      "arn": 9143,
      "Ġimprovement": 9144,
      "LINE": 9145,
      "istog": 9146,
      "Ġtemp": 9147,
      "ĠSeries": 9148,
      "Ġvariations": 9149,
      "Attr": 9150,
      "standing": 9151,
      "bigcup": 9152,
      "endor": 9153,
      "ĠMac": 9154,
      "ĠTem": 9155,
      "expect": 9156,
      "Ġsimulated": 9157,
      "Ġextracted": 9158,
      "oped": 9159,
      "tivistic": 9160,
      "varrho": 9161,
      "Ġlaws": 9162,
      "Ġsuggested": 9163,
      "CB": 9164,
      "llig": 9165,
      "DEFAULT": 9166,
      "Ġguide": 9167,
      "Ġcontrols": 9168,
      "ermi": 9169,
      "yles": 9170,
      "Ġglu": 9171,
      "OST": 9172,
      "atomic": 9173,
      "ĠLocal": 9174,
      "Ġrecorded": 9175,
      "('/": 9176,
      "Ġserve": 9177,
      "ĠBoolean": 9178,
      "Flow": 9179,
      "diction": 9180,
      "åĪ": 9181,
      "Ġbillion": 9182,
      "ĠCommit": 9183,
      "specific": 9184,
      "\\[\\": 9185,
      "...</": 9186,
      "analy": 9187,
      "Ġprops": 9188,
      "required": 9189,
      "Ġmother": 9190,
      "Ġconclusion": 9191,
      "setup": 9192,
      "Skip": 9193,
      "Americ": 9194,
      "Methods": 9195,
      "hard": 9196,
      ",.": 9197,
      "Ġindicated": 9198,
      "Cred": 9199,
      "loader": 9200,
      "ami": 9201,
      "Ġopportunity": 9202,
      "Wallet": 9203,
      "Ġmeeting": 9204,
      ")}$.": 9205,
      "Prefix": 9206,
      "Ġinteract": 9207,
      "inction": 9208,
      "slice": 9209,
      "smallskip": 9210,
      "methods": 9211,
      "Ġcond": 9212,
      "Ġorientation": 9213,
      "ĠCompany": 9214,
      ")->": 9215,
      "tech": 9216,
      "rial": 9217,
      "Ġfight": 9218,
      "Ġchurch": 9219,
      "Ġforeach": 9220,
      "Ġready": 9221,
      "ĠStreet": 9222,
      "compare": 9223,
      "Ġhum": 9224,
      "Ġchoices": 9225,
      "expression": 9226,
      "REQ": 9227,
      "Ġrepeated": 9228,
      "Ġdistances": 9229,
      "riority": 9230,
      "OC": 9231,
      ")_{\\": 9232,
      "ĠBoard": 9233,
      "achment": 9234,
      "finity": 9235,
      "Ġ×": 9236,
      "PY": 9237,
      "Ġĉ": 9238,
      "Ġpseudo": 9239,
      "Ġreasonable": 9240,
      "ĠTex": 9241,
      "Ġretr": 9242,
      "Ġculture": 9243,
      "ÑĮ": 9244,
      "Ġalone": 9245,
      "poly": 9246,
      "Ġstatements": 9247,
      "Forms": 9248,
      "Ġprecise": 9249,
      "Ġrestricted": 9250,
      "Ġparents": 9251,
      "ĠĠĠĠĠĠĠĠĠĠĠĠĠĠĠĠĠĠĠĠĠĠĠĠĠĠĠĠĠĠ": 9252,
      "Ġfol": 9253,
      "counter": 9254,
      "Ġencou": 9255,
      "Ġaudio": 9256,
      "ĠMulti": 9257,
      "ĠEven": 9258,
      "Ġsubsection": 9259,
      "testing": 9260,
      "Ġtrees": 9261,
      "tright": 9262,
      "Ġowner": 9263,
      "ĠArg": 9264,
      "Ġdestroy": 9265,
      "nol": 9266,
      "Bind": 9267,
      "¿½": 9268,
      "serial": 9269,
      "itness": 9270,
      "vertex": 9271,
      "gray": 9272,
      "atal": 9273,
      "signature": 9274,
      "WR": 9275,
      "ĠPort": 9276,
      "throw": 9277,
      "»¿": 9278,
      "Ġbrought": 9279,
      "Ġpages": 9280,
      "about": 9281,
      "Ġfederal": 9282,
      "Ġsomeone": 9283,
      "uzz": 9284,
      "quid": 9285,
      "stood": 9286,
      "ĠEquation": 9287,
      "tc": 9288,
      "udy": 9289,
      "ĠEduc": 9290,
      "ï»¿": 9291,
      "Ġdomains": 9292,
      "Ġviews": 9293,
      "Ġcommunities": 9294,
      "Ġpixels": 9295,
      "Ġinvolving": 9296,
      "newline": 9297,
      "Play": 9298,
      "ĠEarth": 9299,
      "Ġeight": 9300,
      "Ms": 9301,
      "Ġoutputs": 9302,
      "Ġnorth": 9303,
      "Ġ{\"": 9304,
      "Headers": 9305,
      "ĠGets": 9306,
      "Ġplaces": 9307,
      "Ġcryst": 9308,
      "library": 9309,
      "Ġpractical": 9310,
      "ĠSimilarly": 9311,
      "Ġnullptr": 9312,
      "Ġappend": 9313,
      "ĠØ": 9314,
      "IDTH": 9315,
      "encode": 9316,
      "Ġusage": 9317,
      "flex": 9318,
      "brief": 9319,
      "sor": 9320,
      "ĠNAV": 9321,
      "Ġdiagrams": 9322,
      "}{}": 9323,
      "Ġuniqu": 9324,
      "Ġspeech": 9325,
      "ĠInst": 9326,
      "Ġperforming": 9327,
      "Ġtsd": 9328,
      "ĠAp": 9329,
      "Ma": 9330,
      "Proposition": 9331,
      "Ġqueries": 9332,
      "blog": 9333,
      "textnormal": 9334,
      ".<": 9335,
      "groups": 9336,
      "Ġâ": 9337,
      "ĠPath": 9338,
      "blank": 9339,
      "series": 9340,
      "Ġchallenges": 9341,
      "Uri": 9342,
      "=$": 9343,
      "Ġsomew": 9344,
      "Ġlayout": 9345,
      "Ġbre": 9346,
      "ĠFlor": 9347,
      "Ġdifferenti": 9348,
      "Ġdriver": 9349,
      "pb": 9350,
      "Ġexcite": 9351,
      "Ġstay": 9352,
      "ĠRad": 9353,
      "PER": 9354,
      "sb": 9355,
      "Ġemployed": 9356,
      "undefined": 9357,
      "trightarrow": 9358,
      "Ġcub": 9359,
      "Services": 9360,
      ":[": 9361,
      "\\-": 9362,
      "Mouse": 9363,
      "/.": 9364,
      "ĠCH": 9365,
      "Ġattacks": 9366,
      "Ġcriteria": 9367,
      "Ġtoward": 9368,
      "EEEEFF": 9369,
      "Ġfaster": 9370,
      "Ġfinish": 9371,
      "Ġdeb": 9372,
      "Ġjournal": 9373,
      "Ġturb": 9374,
      "Ġmodal": 9375,
      "1980": 9376,
      "ĠInput": 9377,
      "ĠDev": 9378,
      "Ġeffort": 9379,
      "loaded": 9380,
      "ĠBen": 9381,
      "Ġprev": 9382,
      "ifications": 9383,
      "ulating": 9384,
      "Ġaccom": 9385,
      "Ġschemes": 9386,
      "Ġsociety": 9387,
      "Ġfilms": 9388,
      "#{": 9389,
      "Ġgrowing": 9390,
      "Ġeffectively": 9391,
      "gba": 9392,
      "cas": 9393,
      "ĠBra": 9394,
      "Ġvacc": 9395,
      "Ġanalyze": 9396,
      "Ġlikelihood": 9397,
      "\\}_{": 9398,
      "Ġcircum": 9399,
      "apos": 9400,
      "Ġplays": 9401,
      "cli": 9402,
      "dynamic": 9403,
      "Report": 9404,
      "Ġirreducible": 9405,
      "Email": 9406,
      "spect": 9407,
      "ĠAssociation": 9408,
      "Ġdra": 9409,
      "ï¿½": 9410,
      "Ġframes": 9411,
      "Ġexecute": 9412,
      "ipe": 9413,
      "Ġadjust": 9414,
      "Language": 9415,
      "ĠRequest": 9416,
      "gest": 9417,
      "valued": 9418,
      "ruby": 9419,
      "checkbox": 9420,
      "atell": 9421,
      "learning": 9422,
      "Ġpossibly": 9423,
      "zens": 9424,
      "Home": 9425,
      "cussion": 9426,
      "Ġnation": 9427,
      "bre": 9428,
      "surface": 9429,
      "ĠHilbert": 9430,
      "ĠVector": 9431,
      "ĠQue": 9432,
      "Ġcrucial": 9433,
      "Ġannot": 9434,
      "Ġill": 9435,
      "pgf": 9436,
      "Progress": 9437,
      "Ġrich": 9438,
      "IVE": 9439,
      "Ġheaders": 9440,
      "}},\\": 9441,
      "gin": 9442,
      "800": 9443,
      "scape": 9444,
      "Ġtx": 9445,
      "original": 9446,
      "Vertex": 9447,
      "ĠImp": 9448,
      "Mis": 9449,
      "Framework": 9450,
      "fully": 9451,
      "sidebar": 9452,
      "defn": 9453,
      "Ġintegers": 9454,
      "stra": 9455,
      "Ġsimilarly": 9456,
      "Required": 9457,
      "POST": 9458,
      "()))": 9459,
      "~~~~~~~~": 9460,
      "Ġtang": 9461,
      "ato": 9462,
      "fact": 9463,
      "Ġbenefit": 9464,
      "Ġmolecular": 9465,
      "'ll": 9466,
      "Normal": 9467,
      "Ġclimate": 9468,
      "Ġenum": 9469,
      "Ġserious": 9470,
      "outhern": 9471,
      "origin": 9472,
      "Ġplus": 9473,
      "ĠCELL": 9474,
      "Mask": 9475,
      "eners": 9476,
      "ester": 9477,
      "CN": 9478,
      "Ġapplies": 9479,
      "Ġcharacteristics": 9480,
      "Ġatomic": 9481,
      "Ġvarying": 9482,
      "ĠDen": 9483,
[...]
