{"[UNK]":0,"!":1,"\"":2,"#":3,"$":4,"%":5,"&":6,"'":7,"(":8,")":9,"*":10,"+":11,",":12,"-":13,".":14,"/":15,"0":16,"1":17,"2":18,"3":19,"4":20,"5":21,"6":22,"7":23,"8":24,"9":25,":":26,";":27,"<":28,"=":29,">":30,"?":31,"@":32,"A":33,"B":34,"C":35,"D":36,"E":37,"F":38,"G":39,"H":40,"I":41,"J":42,"K":43,"L":44,"M":45,"N":46,"O":47,"P":48,"Q":49,"R":50,"S":51,"T":52,"U":53,"V":54,"W":55,"X":56,"Y":57,"Z":58,"[":59,"\\":60,"]":61,"^":62,"_":63,"`":64,"a":65,"b":66,"c":67,"d":68,"e":69,"f":70,"g":71,"h":72,"i":73,"j":74,"k":75,"l":76,"m":77,"n":78,"o":79,"p":80,"q":81,"r":82,"s":83,"t":84,"u":85,"v":86,"w":87,"x":88,"y":89,"z":90,"{":91,"|":92,"}":93,"~":94,"¡":95,"¢":96,"£":97,"¤":98,"¥":99,"¦":100,"§":101,"¨":102,"©":103,"ª":104,"«":105,"¬":106,"®":107,"¯":108,"°":109,"±":110,"²":111,"³":112,"´":113,"µ":114,"¶":115,"·":116,"¸":117,"¹":118,"º":119,"»":120,"¼":121,"½":122,"¾":123,"¿":124,"Â":125,"Ã":126,"Ä":127,"Å":128,"Æ":129,"Ç":130,"È":131,"É":132,"Ê":133,"Ë":134,"Ì":135,"Í":136,"Î":137,"Ï":138,"Ð":139,"Ñ":140,"Ò":141,"Ó":142,"Ô":143,"Õ":144,"Ö":145,"×":146,"Ø":147,"Ù":148,"Ú":149,"Û":150,"Ü":151,"Ý":152,"Þ":153,"ß":154,"à":155,"á":156,"â":157,"ã":158,"ä":159,"å":160,"æ":161,"ç":162,"è":163,"é":164,"ê":165,"ë":166,"ì":167,"í":168,"î":169,"ï":170,"ð":171,"ò":172,"ó":173,"ô":174,"Ā":175,"ā":176,"Ă":177,"ă":178,"Ą":179,"ą":180,"Ć":181,"ć":182,"Ĉ":183,"ĉ":184,"Ċ":185,"ċ":186,"Č":187,"č":188,"Ď":189,"ď":190,"Đ":191,"đ":192,"Ē":193,"ē":194,"Ĕ":195,"ĕ":196,"Ė":197,"ė":198,"Ę":199,"ę":200,"Ě":201,"ě":202,"Ĝ":203,"ĝ":204,"Ğ":205,"ğ":206,"Ġ":207,"ġ":208,"Ģ":209,"ģ":210,"Ĥ":211,"ĥ":212,"Ħ":213,"ħ":214,"Ĩ":215,"ĩ":216,"Ī":217,"ī":218,"Ĭ":219,"ĭ":220,"Į":221,"į":222,"İ":223,"ı":224,"Ĳ":225,"ĳ":226,"Ĵ":227,"ĵ":228,"Ķ":229,"ķ":230,"ĸ":231,"Ĺ":232,"ĺ":233,"Ļ":234,"ļ":235,"Ľ":236,"ľ":237,"Ŀ":238,"ŀ":239,"Ł":240,"ł":241,"Ń":242,"ĠĠ":243,"ĠĠĠĠ":244,"th":245,"in":246,"on":247,"er":248,"Ġa":249,"re":250,"Ġth":251,"ti":252,"en":253,"Ġthe":254,"or":255,"al":256,"Ġs":257,"te":258,"Ġc":259,"is":260,"le":261,"ĠĠĠ":262,"ar":263,"tion":264,"an":265,"ĠĠĠĠĠĠĠĠ":266,"es":267,"Ġo":268,"Ġ\\":269,"Ġf":270,"Ġt":271,"Ġp":272,"Ġw":273,"Ġ$":274,"ro":275,"ing":276,"de":277,"at":278,"as":279,"Ġin":280,"Ġb":281,"Ġof":282,"nd":283,"et":284,"ma":285,"ic":286,"ac":287,"ed":288,"ig":289,"am":290,"it":291,"el":292,"ent":293,"st":294,"Ġand":295,"Ġto":296,"ou":297,"Ġm":298,"ec":299,"Ġre":300,"Ġd":301,"Ġn":302,"ation":303,"om":304,"Ġh":305,"ĠĠĠĠĠĠĠ":306,"{\\":307,"Ġ=":308,"Ġ(":309,"ol":310,"Ġe":311,"ate":312,"il":313,"Ġis":314,"ur":315,"čĊ":316,"lo":317,"tr":318,"ĉĉ":319,"id":320,"qu":321,"</":322,"ul":323,"ab":324,"ce":325,"se":326,"im":327,"Th":328,"_{":329,"=\"":330,"um":331,"ge":332,"Ġfor":333,"ot":334,"ve":335,"ra":336,"ver":337,");":338,"if":339,"ch":340,"si":341,"Ġg":342,"--":343,"ĠS":344,"Ġ$\\":345,"un":346,"ly":347,"Ġ<":348,"Ġl":349,"Ġ{":350,"end":351,"Ġcon":352,"ter":353,"Ġv":354,"ad":355,"us":356,"ht":357,"ith":358,"math":359,"Ġthat":360,"ĠĠĠĠĠĠĠĠĠĠĠ":361,"Ġ&":362,"ĠC":363,"ut":364,"Ġon":365,"ĠA":366,"ri":367,"ass":368,"eg":369,"ph":370,"//":371,"ta":372,"ĠI":373,"Ġde":374,"ite":375,"ow":376,"Ġ*":377,"res":378,"}\\":379,"The":380,"Ġbe":381,"xt":382,"Ġas":383,"pp":384,"cal":385,"ref":386,"ub":387,"Ġwh":388,"}$":389,"Ġpro":390,"Ġ}":391,"ir":392,"ame":393,"^{":394,"Ġwith":395,"ode":396,"od":397,"ĠĊ":398,"ine":399,"sp":400,"\">":401,"Ġal":402,"lass":403,"ts":404,"Ġan":405,"ight":406,"op":407,"ure":408,"ction":409,"20":410,"ue":411,"and":412,"ĠM":413,"li":414,"Ġwe":415,"ĠĠĠĠĠĠĠĠĠĠĠĠĠĠĠĠ":416,"ere":417,"ew":418,"ay":419,"per":420,"ted":421,"Ġex":422,"ment":423,"}}":424,"Ġst":425,"ity":426,"pe":427,"ĠP":428,"ess":429,"di":430,"Ġby":431,"(\\":432,"ĠF":433,"ore":434,"ĠĠĠĠĠ":435,"âĢ":436,"rac":437,"Ġcom":438,"egin":439,"Ġare":440,"Ġ\"":441,"ct":442,"tic":443,"Ġthis":444,"ĠB":445,"able":446,"rom":447,"begin":448,"()":449,"ty":450,"ect":451,"our":452,"ĠR":453,"up":454,"em":455,"ĠL":456,"text":457,"age":458,"ist":459,"ĠThe":460,"Ġor":461,"ers":462,"tim":463,"ĠD":464,"ĠT":465,"..":466,"**":467,"Ġit":468,"ĠH":469,"urn":470,"Ġclass":471,"_{\\":472,")$":473,"ap":474,"equ":475,"iz":476,"In":477,"ĠN":478,"sion":479,"oc":480,"Ġat":481,"for":482,"Ġif":483,"}{":484,"ĠE":485,"ĠW":486,"eta":487,"par":488,"==":489,"lic":490,"Ġma":491,"ort":492,"os":493,"con":494,"Ġ-":495,"},":496,"int":497,"imp":498,"right":499,"ran":500,"est":501,"ke":502,"frac":503,"Ġfrom":504,"----":505,"lu":506,"Ġsh":507,"turn":508,"00":509,"ft":510,"cite":511,"ack":512,"abel":513,"eq":514,"to":515,"ĠG":516,"ase":517,"ign":518,"av":519,"Ġch":520,"ff":521,"get":522,"ace":523,"})":524,"ag":525,"ile":526,"Ġ'":527,"all":528,"fig":529,"ata":530,"low":531,"Ġ+":532,"ĠĠĠĠĠĠĠĠĠĠĠĠĠĠĠ":533,"ach":534,"ld":535,"ib":536,"ps":537,"ave":538,"Ġle":539,"are":540,"iv":541,"unction":542,"label":543,"Ġsu":544,"mathb":545,"ys":546,"ther":547,",\\":548,"Ġpar":549,"ich":550,"ple":551,"ser":552,"str":553,"ated":554,"Ġcan":555,"tem":556,"tive":557,"pro":558,"ary":559,"ence":560,"Ġu":561,"Ġus":562,"pl":563,"ection":564,"com":565,"Ġy":566,"ype":567,"alue":568,"$,":569,"rm":570,"ber":571,"nt":572,"$.":573,"ĠO":574,"Ġsp":575,"Ġnot":576,"ill":577,"ds":578,"ant":579,"ations":580,"og":581,"ult":582,"mathcal":583,"Ġ[":584,"ener":585,").":586,"ĠTh":587,"Ġr":588,"Ġ//":589,"left":590,"equation":591,"}.":592,"),":593,"tial":594,"../":595,"cc":596,"Ġ</":597,"tions":598,"du":599,"ĉĉĉĉ":600,"201":601,"ell":602,"Ġreturn":603,"row":604,"->":605,"ss":606,"ang":607,"pt":608,"set":609,"til":610,"ource":611,"ind":612,"::":613,"loc":614,"Ġhave":615,"Ġres":616,"tring":617,"cri":618,"}(":619,"Ġse":620,"ide":621,"Ġwhich":622,"Con":623,"odel":624,"Ġwas":625,"act":626,"line":627,"ĠIn":628,"Ġme":629,"out":630,"fer":631,"~\\":632,"}_":633,"}^":634,"Ġdis":635,"Ġun":636,"ance":637,"ork":638,"ies":639,"Ġob":640,"ĠU":641,"sum":642,"Ġfunction":643,"ire":644,"ject":645,"der":646,"tain":647,"put":648,"bo":649,"ong":650,"pha":651,"19":652,"ost":653,"clu":654,"ml":655,"ray":656,"Ġi":657,"ex":658,"alpha":659,"ial":660,"Ġapp":661,"ublic":662,"ans":663,"10":664,"Ġ@":665,"vel":666,"div":667,"âĢĻ":668,"Ġlo":669,"fin":670,"ast":671,"pon":672,")\\":673,"over":674,"ator":675,"ble":676,"ens":677,"da":678,"ical":679,"Ġj":680,"iel":681,"Ġk":682,"Ġad":683,"(\"":684,"und":685,"form":686,"Ġset":687,"Ġnew":688,"></":689,"amb":690,"elf":691,"ion":692,"ption":693,"essage":694,"Ġhas":695,"time":696,"ĠJ":697,"Ġ/":698,"();":699,"so":700,"sub":701,"span":702,"ould":703,"\",":704,"ull":705,"ard":706,"ory":707,"ari":708,"Ġall":709,"><":710,"ambda":711,"ak":712,"enc":713,"ear":714,"Ġar":715,"ree":716,"of":717,"ents":718,"ous":719,"$\\":720,"',":721,"Ġqu":722,"po":723,"amma":724,"Ġpo":725,"ice":726,"ome":727,"ega":728,"ĠV":729,"ath":730,"app":731,"_\\":732,"we":733,"../../":734,"ym":735,"mu":736,"sh":737,"import":738,"Ġ\\\\":739,"=\\":740,"Ġinter":741,"own":742,"--------":743,"ll":744,"one":745,"Ġper":746,"ip":747,"trib":748,"mathbb":749,"dot":750,"ho":751,"ror":752,"umber":753,"ust":754,"ding":755,"St":756,"idth":757,"Ġ:":758,"au":759,"}_{":760,"item":761,"Ġdo":762,"ound":763,"tit":764,"Ġ.":765,"}^{":766,"Ġone":767,"igma":768,"Ġexp":769,"ĉĉĉ":770,"ize":771,"ded":772,"times":773,"Ġwill":774,"))":775,"name":776,"ok":777,"html":778,"-\\":779,"ual":780,"raph":781,"ystem":782,"lement":783,"====":784,"Ġstr":785,"iew":786,"ution":787,"Ġte":788,"Ġhe":789,"ĠK":790,"Ġhref":791,"Ġno":792,"Ġne":793,"orm":794,"Ġev":795,"Ġmodel":796,"wo":797,"min":798,"irst":799,"ĠĠĠĠĠĠĠĠĠĠĠĠĠĠĠĠĠĠĠ":800,"lation":801,"ry":802,"phi":803,"pi":804,"the":805,"ular":806,"ates":807,"Ġdata":808,"ties":809,"Ġbo":810,"cre":811,"^{\\":812,"ug":813,"Ġ|":814,"****":815,"Ġ*/":816,"Ex":817,"thod":818,"Pro":819,"ĠĠĠĠĠĠĠĠĠ":820,"la":821,"bar":822,"bf":823,"ute":824,"roup":825,"'s":826,"col":827,"igh":828,"Ġpublic":829,"('":830,"ield":831,"ne":832,"lambda":833,"oid":834,"section":835,"ink":836,"Ġ{\\":837,"source":838,"12":839,"ms":840,"Ġname":841,"Ġpre":842,"Ġline":843,"ish":844,"Ġpl":845,"ob":846,"this":847,"Ġcomp":848,"mathbf":849,"ule":850,"ix":851,"ollow":852,"Ġvalue":853,"yn":854,"bol":855,"Ġen":856,"ĠâĢ":857,"message":858,"ample":859,"align":860,"ark":861,"ain":862,"Ġout":863,"Ġalso":864,"oun":865,"Ġconst":866,"art":867,"hat":868,"ress":869,"Ġdif":870,"Ġcont":871,"ef":872,"Name":873,"ER":874,"Ġget":875,"Ġver":876,"ilon":877,"cent":878,"inal":879,"Ġtype":880,"var":881,"ote":882,"psilon":883,"trans":884,"ĠWe":885,"Ġab":886,"inf":887,"amet":888,"Ġ_":889,"ia":890,"dex":891,"Ġtwo":892,"Ġ=>":893,"td":894,"atch":895,"Ġtran":896,"Ġtime":897,"Ġx":898,"Ġfollow":899,"Ġsub":900,"ord":901,"Ġint":902,"code":903,"200":904,"sigma":905,"width":906,"arg":907,"ics":908,"sition":909,"Ġthere":910,"sc":911,"def":912,"val":913,"ON":914,"Ġcol":915,"uct":916,"led":917,"}{\\":918,"alse":919,"Type":920,"Ġ(\\":921,"lock":922,"clude":923,"wh":924,"Ġover":925,"Ġro":926,"beta":927,"cript":928,"Ġgener":929,"Ġsuch":930,"Ġbut":931,"String":932,"^{-":933,"eng":934,"Id":935,"Ġcons":936,"Ġour":937,"del":938,"Ġimp":939,"Ġequ":940,"Ġ#":941,"Ġform":942,"Ġdef":943,"We":944,"he":945,"mathrm":946,"tilde":947,"Ġcor":948,"Ġwhere":949,"Ġtr":950,"ĠThis":951,"ep":952,"Ġop":953,"mation":954,"\\\\":955,"Ġdes":956,"IN":957,"ues":958,"nder":959,"array":960,"Ġmore":961,"*}":962,"ild":963,"##":964,"Ġcase":965,"ider":966,"Ġonly":967,"ov":968,"ount":969,"pr":970,"ev":971,"/>":972,"+\\":973,"gamma":974,"Ġ`":975,"Ġother":976,"tical":977,"Ġany":978,"theta":979,"tif":980,"Ġid":981,"]{":982,"Ġbet":983,"Ġso":984,"gr":985,"Ġspec":986,"Ġits":987,"riv":988,"ud":989,"return":990,"Ġra":991,"Ġup":992,"tern":993,"Ġdiffer":994,"Ġreg":995,"key":996,"xi":997,"\"/>":998,"^\\":999,"Ġwhen":1000,"Ġrep":1001,"Ġthen":1002,")}":1003,"11":1004,"rho":1005,"figure":1006,"class":1007,"Com":1008,"ors":1009,"delta":1010,"leq":1011,"Ġval":1012,"duc":1013,"urre":1014,"ime":1015,"Ġfirst":1016,"erv":1017,"Ġsome":1018,"type":1019,"Ġself":1020,"ting":1021,"ility":1022,"Ġrequ":1023,"dd":1024,"ann":1025,"ST":1026,"ose":1027,"Ġtheir":1028,"param":1029,"ise":1030,"serv":1031,"translation":1032,"Ġacc":1033,"tau":1034,"Res":1035,"cess":1036,"://":1037,"pend":1038,"Ġph":1039,"Ġuse":1040,"RE":1041,"Ġeach":1042,"tt":1043,"cdot":1044,"Ġgiv":1045,"Ġshow":1046,"work":1047,"Ch":1048,"Ġwork":1049,"Ġel":1050,"Ġthan":1051,"error":1052,"ze":1053,"$-":1054,"Ġco":1055,"cap":1056,"Ġsta":1057,"16":1058,"}$,":1059,"ults":1060,"Ġsol":1061,"Ġ!":1062,"}$.":1063,"big":1064,"its":1065,"ger":1066,"Ġ--":1067,"ric":1068,"Ġresp":1069,"ond":1070,"eqref":1071,"Ġyou":1072,"ween":1073,"log":1074,"}(\\":1075,"dition":1076,"eck":1077,"round":1078,"ating":1079,"__":1080,"ures":1081,"ature":1082,"tiv":1083,"ton":1084,"Ġnumber":1085,"Ġbeen":1086,"List":1087,"Ġman":1088,"ince":1089,"Ġsa":1090,"sec":1091,"Ġac":1092,"ĠCh":1093,"To":1094,"15":1095,"ension":1096,"mp":1097,"Ġ>":1098,"tex":1099,"arch":1100,"Ġ==":1101,"Ġag":1102,"AT":1103,"box":1104,"fo":1105,"ength":1106,"resent":1107,"Ġused":1108,"âĢĿ":1109,"Ġbetween":1110,"ash":1111,"space":1112,"Ġnull":1113,"les":1114,"ames":1115,"lec":1116,"ased":1117,"Ġstate":1118,"partial":1119,"Ġwere":1120,"ext":1121,"Ġthey":1122,"Ġmethod":1123,"ault":1124,"Ġtrans":1125,"ian":1126,"Ġthese":1127,"arrow":1128,"Ġsystem":1129,"infty":1130,"ception":1131,"ont":1132,"Ġcomm":1133,"htt":1134,"pre":1135,"ax":1136,"dic":1137,"|\\":1138,"Ġend":1139,"\"><":1140,"Del":1141,"pm":1142,"18":1143,"omega":1144,"urrent":1145,"ail":1146,"Ġusing":1147,"ific":1148,"Ġvari":1149,"nu":1150,"mall":1151,"Ġtra":1152,"Ġsc":1153,"mage":1154,"Ġunder":1155,"Ġinto":1156,"Ġresult":1157,"ĠĠĠĠĠĠĠĠĠĠĠĠĠĠĠĠĠĠĠĠĠĠĠĠĠĠĠĠĠĠĠĠ":1158,"Ġprov":1159,"ges":1160,"fore":1161,"ĠY":1162,"Ġli":1163,"En":1164,"ons":1165,"Ġvar":1166,"ask":1167,"ater":1168,"include":1169,"Ġhigh":1170,"ĠSt":1171,"read":1172,"main":1173,"ning":1174,"Ġnon":1175,"Ġbec":1176,"anc":1177,"Ġvoid":1178,"ument":1179,"13":1180,"location":1181,"ĠĠĠĠĠĠ":1182,"Ġdefin":1183,"ĠĠĠĠĠĠĠĠĠĠĠĠĠ":1184,"erm":1185,"Ġ)":1186,"Ġfalse":1187,"ization":1188,"Ġhis":1189,"fter":1190,"Ġappro":1191,"OR":1192,"ulti":1193,"Delta":1194,"ID":1195,"ove":1196,"uc":1197,"25":1198,"ied":1199,"ential":1200,"Ġparamet":1201,"lang":1202,"Ġtrue":1203,"AR":1204,"ock":1205,"new":1206,"sf":1207,"):":1208,"yle":1209,"back":1210,"me":1211,"Ġ$(":1212,"gy":1213,"Ġgiven":1214,"title":1215,"string":1216,"ized":1217,"gle":1218,"als":1219,"eqn":1220,"umn":1221,"LE":1222,"respon":1223,"quad":1224,"14":1225,"ĠFor":1226,"Ġeff":1227,"perty":1228,"size":1229,"Ġinv":1230,"ments":1231,"ader":1232,"file":1233,"ange":1234,"ected":1235,"ational":1236,"Ġpa":1237,"Ar":1238,"atri":1239,"\");":1240,"));":1241,"Ġmay":1242,"ever":1243,"ĠIt":1244,"}[":1245,"Ġgo":1246,"son":1247,"data":1248,"Ġz":1249,"ery":1250,"rivate":1251,"lect":1252,"graph":1253,"ative":1254,"Ġcal":1255,"ie":1256,"arget":1257,"olog":1258,"For":1259,"ĠX":1260,"Ġmod":1261,"rt":1262,"sq":1263,"atrix":1264,"center":1265,"ays":1266,"add":1267,"}}\\":1268,"dis":1269,"irc":1270,"ymbol":1271,"Re":1272,"Ġtest":1273,"SS":1274,"Ob":1275,"be":1276,"----------------":1277,"Ġpol":1278,"Ġsim":1279,"Ġsame":1280,"orem":1281,"Ġoper":1282,"\\,":1283,"rit":1284,"ni":1285,"Ġorder":1286,")$.":1287,"Ġchar":1288,"lem":1289,"ache":1290,"aw":1291,"Par":1292,"lection":1293,"ĠQ":1294,"self":1295,"ally":1296,"////":1297,"ĠâĢľ":1298,"sim":1299,"Ġdifferent":1300,"Col":1301,"org":1302,"Value":1303,"Ġfe":1304,"Ġabout":1305,"ava":1306,"ause":1307,"ĠĠĠĠĠĠĠĠĠĠĠĠĠĠĠĠĠĠĠĠĠĠĠ":1308,"Ġpartic":1309,"value":1310,"nb":1311,"********":1312,"table":1313,"action":1314,"ole":1315,"ugh":1316,"Ġext":1317,"Data":1318,"Ġstring":1319,"')":1320,"epsilon":1321,"exp":1322,"Ġsign":1323,"Ġelse":1324,"not":1325,"EN":1326,"raw":1327,"ng":1328,"Ġconsider":1329,"stance":1330,"Ġfollowing":1331,"AL":1332,"esti":1333,"ases":1334,"rame":1335,"gor":1336,"Ġcomple":1337,"cont":1338,"vers":1339,"date":1340,"tab":1341,"Om":1342,"$$":1343,"ive":1344,"Ġwould":1345,"Ġresults":1346,"old":1347,"su":1348,"32":1349,"Ġobtain":1350,"Ġsupp":1351,"where":1352,"formation":1353,"Ġ&&":1354,"gh":1355,"}_{\\":1356,"ects":1357,"Set":1358,"requ":1359,"Ġpr":1360,"Ġcre":1361,"Ġsec":1362,"uil":1363,"face":1364,"ector":1365,"ĠPro":1366,"Ġdire":1367,"no":1368,"ĠčĊ":1369,"mod":1370,"Omega":1371,"ability":1372,"Ġdec":1373,"Ġfact":1374,"test":1375,"cale":1376,"Ġrel":1377,"ĠĠĊ":1378,"psi":1379,"========":1380,".,":1381,"ick":1382,"textbf":1383,"script":1384,"pos":1385,"\")":1386,"ert":1387,"nbsp":1388,"vely":1389,"Ġfield":1390,"ey":1391,"bm":1392,"Ġam":1393,"Ġorg":1394,"100":1395,"ner":1396,"17":1397,"Ġback":1398,"Ġkn":1399,"roid":1400,"ints":1401,"vi":1402,"play":1403,"lient":1404,"];":1405,"Ġfinal":1406,"br":1407,"ĠFig":1408,"Ġmin":1409,"ency":1410,"Ġ/**":1411,"px":1412,"rror":1413,"($":1414,"view":1415,"Ġerror":1416,"DE":1417,")$,":1418,"^*":1419,"cm":1420,"ists":1421,"ody":1422,"ten":1423,"top":1424,"ici":1425,"eqnarray":1426,"sqrt":1427,"vent":1428,"tribute":1429,"rough":1430,"etwork":1431,"rite":1432,"ision":1433,"30":1434,"ĠĠĠĠĊ":1435,"umer":1436,"subsection":1437,"mer":1438,"wide":1439,"Ġgroup":1440,"Ġsee":1441,"};":1442,"Gamma":1443,"very":1444,"21":1445,"Ġboth":1446,"caption":1447,"Ġmost":1448,"mate":1449,"uth":1450,"Ġwell":1451,"rc":1452,"ins":1453,"Ġass":1454,"order":1455,"Ph":1456,"Exception":1457,"Ġmeas":1458,"SE":1459,"Ġpe":1460,"yp":1461,"Ġfile":1462,"Ġdisc":1463,"Ġanal":1464,"ots":1465,"By":1466,"],":1467,"sert":1468,"graphics":1469,"des":1470,"ily":1471,"chi":1472,"Ġrec":1473,"itial":1474,"Ġstatic":1475,"arge":1476,"vare":1477,"ream":1478,"ervice":1479,"Ġshould":1480,"Ġ%":1481,"ww":1482,"co":1483,"rol":1484,"Ġprocess":1485,"varepsilon":1486,"Ġdistrib":1487,"function":1488,"22":1489,"ings":1490,"ition":1491,"fra":1492,"Ġyear":1493,"50":1494,"position":1495,"\\!":1496,"ponent":1497,"Ġperform":1498,"Ġvalues":1499,"tively":1500,"Ġstruct":1501,"CT":1502,"Ġ///":1503,"owever":1504,"As":1505,"Ġhad":1506,"mary":1507,"met":1508,"amp":1509,"Ġlow":1510,"includegraphics":1511,"mon":1512,"ake":1513,"ets":1514,"Ġelement":1515,"Ġpos":1516,"Ġspace":1517,"ict":1518,"Ġoff":1519,"ĠCom":1520,"ler":1521,"Ġwho":1522,"ities":1523,"Ġdescri":1524,"Ġpoint":1525,"().":1526,"uff":1527,"ĠString":1528,"Ġed":1529,"link":1530,"^{(":1531,"}=":1532,"ĠIf":1533,"ality":1534,"}^{\\":1535,"ines":1536,"energy":1537,"ely":1538,"lear":1539,"inter":1540,"ired":1541,"Ġproble":1542,"ilter":1543,"ĠCon":1544,"gorith":1545,"Ġ${\\":1546,"Ġbound":1547,"Cont":1548,"imension":1549,"red":1550,"js":1551,"atus":1552,"AN":1553,"199":1554,"Ġden":1555,"This":1556,")=":1557,"style":1558,"sible":1559,"ished":1560,"ormal":1561,"mis":1562,"rangle":1563,"roll":1564,"Ġ!=":1565,"Ġsize":1566,"Error":1567,"lob":1568,"ĉĉĉĉĉ":1569,"ier":1570,"Object":1571,"Ġcontain":1572,"Ġprivate":1573,"Ġassum":1574,"emph":1575,"());":1576,"IT":1577,"Ġobserv":1578,"man":1579,"Ġcorrespon":1580,"Ġadd":1581,"nav":1582,"let":1583,"index":1584,"Ġthrough":1585,"Ġinclu":1586,"ough":1587,"go":1588,"public":1589,"ism":1590,"Ġinte":1591,"non":1592,"Ġafter":1593,"max":1594,"tity":1595,"Ġarg":1596,"mand":1597,"\"></":1598,"ensure":1599,"._":1600,"Ġlocal":1601,"struct":1602,"Ġexample":1603,"Ġsur":1604,"ME":1605,"ression":1606,"rightarrow":1607,"bed":1608,"uration":1609,"View":1610,"Get":1611,"Ġsmall":1612,"Ġwhile":1613,"ulation":1614,"Ġran":1615,"geq":1616,"24":1617,"by":1618,"quot":1619,"Ġfin":1620,".</":1621,"Ġ\\,":1622,"Ġwor":1623,"ĠAs":1624,"Ġdoes":1625,".~\\":1626,"atter":1627,"try":1628,"lay":1629,"ces":1630,".}":1631,"ower":1632,"Class":1633,"Ġ||":1634,"err":1635,"ilar":1636,"Ġright":1637,"CO":1638,"Ġste":1639,"varphi":1640,"ields":1641,"arent":1642,"url":1643,"group":1644,"Ġexper":1645,"node":1646,"que":1647,"oci":1648,"color":1649,"ĠZ":1650,"lim":1651,"64":1652,"proof":1653,"rem":1654,"Ġdi":1655,"ful":1656,"Ġter":1657,"uring":1658,"bl":1659,"!--":1660,"Ġlim":1661,"depend":1662,"reg":1663,"Ġlong":1664,"uto":1665,"ross":1666,"At":1667,"Ġcurrent":1668,"\";":1669,"Ġsing":1670,"File":1671,"velop":1672,"sing":1673,"ared":1674,"ern":1675,"De":1676,"['":1677,"sed":1678,"Ġthem":1679,"Ġser":1680,"vec":1681,"Ġimport":1682,"Ġsimp":1683,"ccess":1684,"indow":1685,"const":1686,"acter":1687,"ĠHe":1688,"Ġevery":1689,"Big":1690,"ero":1691,"bolds":1692,"ven":1693,"Key":1694,"Ġclo":1695,"Ġpres":1696,"rop":1697,"boldsymbol":1698,"Ġneed":1699,"frak":1700,"less":1701,"../../../../":1702,"list":1703,"Ġmeasure":1704,"Ġkey":1705,"load":1706,"ground":1707,"''":1708,"ited":1709,"Ġpart":1710,"cor":1711,"Ġlet":1712,"Test":1713,"mit":1714,"Ġtem":1715,"see":1716,"Po":1717,"dt":1718,"Ġdist":1719,"].":1720,"http":1721,"med":1722,"Ġsch":1723,"pace":1724,"Ġenergy":1725,"overline":1726,"Ġhand":1727,"utions":1728,"Ġnow":1729,"path":1730,"},\\":1731,"uch":1732,"[\\":1733,"reak":1734,"Ġfind":1735,"ee":1736,"Un":1737,"Sh":1738,"&\\":1739,"ams":1740,"olution":1741,"=\"+":1742,"Ġmulti":1743,"Requ":1744,"Ġmass":1745,"Ġbel":1746,"comp":1747,"');":1748,"ense":1749,"hline":1750,"33":1751,"Ġent":1752,"model":1753,"mo":1754,"bin":1755,"Ġdepend":1756,"Ġfound":1757,"sk":1758,"ocument":1759,"Ġcent":1760,"}).":1761,"ective":1762,"with":1763,"Ġsection":1764,"ember":1765,"Ġdefined":1766,"Ġincre":1767,"Ġmax":1768,"ackage":1769,"...":1770,"ences":1771,"Ġlist":1772,"Ġgeneral":1773,"``":1774,"ified":1775,"Ġbecause":1776,"ĠAl":1777,"mathfrak":1778,"State":1779,")^":1780,"Ġ,":1781,"Ġthree":1782,"Ġstar":1783,"perties":1784,"ented":1785,"Ġcorre":1786,"Ġcall":1787,"(),":1788,"bove":1789,"void":1790,"}}$":1791,"Ġlike":1792,"Op":1793,"ĠEx":1794,"vious":1795,"40":1796,"000":1797,"Ġstud":1798,"Ġcontin":1799,"entif":1800,"Ġrepresent":1801,"summary":1802,"']":1803,"Ġconn":1804,"duced":1805,"Ġ/>":1806,"io":1807,"Ġsince":1808,"Ġinformation":1809,"Ġlarge":1810,"ople":1811,"Ġabove":1812,"user":1813,"opy":1814,"Ġobject":1815,"Ġrun":1816,"map":1817,"duction":1818,"Ġtitle":1819,"ices":1820,"gorithm":1821,"Ġtop":1822,"LL":1823,"unc":1824,"ensity":1825,"Ġcould":1826,"ager":1827,"Ġnetwork":1828,"Ġsecond":1829,"ynam":1830,"He":1831,"Ġmet":1832,"ically":1833,"ward":1834,"ldots":1835,"ference":1836,"Ġreal":1837,"Let":1838,"langle":1839,"ĠAr":1840,"ness":1841,"Ġmodels":1842,"ott":1843,"AC":1844,"Time":1845,"por":1846,"sl":1847,"ope":1848,"Ġinput":1849,"bit":1850,"ci":1851,"sive":1852,"tics":1853,"Text":1854,"odes":1855,"search":1856,"ks":1857,"ION":1858,"lication":1859,"ensuremath":1860,"udi":1861,"uild":1862,"Ġesti":1863,"uffer":1864,"Lambda":1865,"PE":1866,"Event":1867,"Ġwhat":1868,"Ġfollows":1869,"Ġvery":1870,"Ġmany":1871,"RO":1872,"23":1873,"Ġrem":1874,"war":1875,"Ġnode":1876,"ural":1877,"ify":1878,"pec":1879,"Ġhel":1880,"ste":1881,"tra":1882,"Ġ?":1883,"An":1884,"Ġallow":1885,"Al":1886,"tes":1887,"df":1888,"Ġshown":1889,"ush":1890,"Ġmain":1891,"Ġher":1892,"\":":1893,"length":1894,"textit":1895,"defin":1896,"util":1897,"Ġhow":1898,"cept":1899,"use":1900,"Man":1901,"andom":1902,"circ":1903,"Phi":1904,"LA":1905,"nab":1906,"mm":1907,"Ġproblem":1908,"ixed":1909,"Ġprovide":1910,"Ġtarget":1911,"duct":1912,"ternal":1913,"Ġeven":1914,"TE":1915,"Ġcur":1916,"ane":1917,"IC":1918,"utton":1919,"Ġparameters":1920,"60":1921,"https":1922,"On":1923,"Ġmust":1924,"citep":1925,"ĠUn":1926,"Ġread":1927,"Ġpath":1928,"Ġdirect":1929,"Ġinitial":1930,"Ġregion":1931,"ren":1932,"ĠAn":1933,"Bo":1934,"eff":1935,".\\":1936,"appa":1937,"ymmet":1938,")(":1939,"other":1940,"urther":1941,"tice":1942,"ift":1943,"pper":1944,"Node":1945,"Ġ-->":1946,"lobal":1947,"nabla":1948,"ession":1949,"Ġstart":1950,"Ġmake":1951,"Ġ($":1952,"iter":1953,"ages":1954,"80":1955,"':":1956,"ema":1957,"Ġlead":1958,"Item":1959,"Ġlevel":1960,"king":1961,"Ġaction":1962,"Element":1963,"orph":1964,"amespace":1965,"bers":1966,"Ġcoun":1967,"Ġyour":1968,"Ġgra":1969,"ants":1970,"####":1971,"\\|":1972,"cl":1973,"Ġtak":1974,"Ġlog":1975,"kappa":1976,"Ġsuper":1977,"Path":1978,"Ġbased":1979,"Ġapproach":1980,"Ġplay":1981,"tisf":1982,"Ġmag":1983,"oper":1984,"ology":1985,"config":1986,"orted":1987,"Lo":1988,"mission":1989,"from":1990,"Ġprob":1991,"cted":1992,"Ġbeing":1993,"With":1994,"Ġtrain":1995,"Info":1996,"ĠRe":1997,"mbox":1998,"ij":1999,"Index":2000,"ster":2001,"cription":2002,"ĠDe":2003,"/*":2004,"\\%":2005,"Request":2006,"Ġdeter":2007,"TR":2008,"ators":2009,"/**":2010,"Ġgraph":2011,"Ġsaid":2012,"olean":2013,"Ġcalc":2014,"tail":2015,"Ġpeople":2016,"Ġq":2017,"Ġsum":2018,"Ġmon":2019,"ables":2020,"Ġdistribution":2021,"annel":2022,"})$":2023,"ĠĠĠĠĠĠĠĠĠĠĠĠĠĠĠĠĠĠĠĠĠĠĠĠĠĠĠ":2024,"ĠNew":2025,"Ġradi":2026,"ĠWh":2027,"ysis":2028,"PI":2029,"true":2030,"Ġway":2031,"='":2032,"rows":2033,"Ġ);":2034,"}),":2035,"aus":2036,"Context":2037,"ese":2038,"Ġsample":2039,"ride":2040,"())":2041,"Ġsimilar":2042,"ech":2043,"Ġagain":2044,"ason":2045,"Ġlast":2046,"body":2047,"\"\"":2048,"ogle":2049,"ides":2050,"tivity":2051,"version":2052,"Ġterms":2053,"Ġjust":2054,"Ġ``":2055,"Ġthose":2056,"air":2057,"Ġparticular":2058,"Ġbefore":2059,"field":2060,"draw":2061,"ior":2062,"thing":2063,"Qu":2064,"Equ":2065,"vir":2066,"Ġparameter":2067,"vert":2068,"Ġcode":2069,"Ġhere":2070,"ape":2071,"sitive":2072,"Ġlear":2073,"ister":2074,"Ġevent":2075,"Ġdat":2076,"Ġleft":2077,"Config":2078,"input":2079,"jects":2080,"otimes":2081,"imum":2082,"Ġcharacter":2083,"reat":2084,"Form":2085,"Ġmy":2086,"App":2087,"ually":2088,"duce":2089,"Ġmap":2090,"Ġuser":2091,"27":2092,"'t":2093,"side":2094,"tal":2095,"dots":2096,"Ġmatrix":2097,"Ġknow":2098,"Ġ:=":2099,"uted":2100,"omet":2101,"block":2102,"Ġcap":2103,"Ġsatisf":2104,"Ġtyp":2105,"ĠRes":2106,"45":2107,"state":2108,"ĠâĢĵ":2109,"Ġdevelop":2110,"Ġorig":2111,"uction":2112,"ently":2113,"99":2114,"icon":2115,"Ġ});":2116,"Me":2117,"Over":2118,"}}{":2119,"Ġref":2120,"Ġact":2121,"Ġbl":2122,"nonumber":2123,"aces":2124,"ertain":2125,"ources":2126,"atures":2127,"any":2128,"Ġconfig":2129,"ĠThere":2130,"ouble":2131,"ene":2132,"Ġtext":2133,"Ġsingle":2134,"';":2135,"Ġder":2136,"api":2137,"Ġ(!":2138,"lected":2139,"Ġaddition":2140,"Ġrespon":2141,"Int":2142,"uilder":2143,"Add":2144,"ĠThen":2145,"\\[":2146,"Ġblock":2147,"Map":2148,"Ġstand":2149,"Ġcontext":2150,"centering":2151,"Ġversion":2152,"ules":2153,"lug":2154,"Sigma":2155,"Ġarray":2156,"Ġbas":2157,"rid":2158,"wn":2159,"Ġfunctions":2160,"Ġ},":2161,"[]":2162,"ĠTo":2163,"ottom":2164,"UR":2165,"75":2166,"Ġvis":2167,"Ġcheck":2168,"ĠSh":2169,"~~":2170,"Service":2171,"apache":2172,"////////":2173,"ttp":2174,"ible":2175,"Ġdiscus":2176,"Ġindex":2177,"Rec":2178,"Ġassert":2179,"{-":2180,"Code":2181,"=\"../../../../":2182,"Ġsource":2183,"Ġemp":2184,"Ġexist":2185,"otential":2186,"ĉĊ":2187,"/\\":2188,"ived":2189,"valid":2190,"Ġpredic":2191,"ced":2192,"Ġinstance":2193,"ves":2194,"Ġpaper":2195,"ends":2196,"fe":2197,"Ġstructure":2198,"++":2199,"\\!\\!":2200,"ui":2201,"lectr":2202,"Ġfil":2203,"mages":2204,"Array":2205,"Ġfl":2206,"Ġcontent":2207,"ectively":2208,"Ġlimit":2209,"Size":2210,"gram":2211,"Ġmem":2212,"Ġyears":2213,"plate":2214,"LO":2215,"Ġindic":2216,"Ġsolution":2217,"loat":2218,"Ġimage":2219,"ved":2220,"Ġsequ":2221,"Ġview":2222,"FF":2223,"next":2224,"28":2225,"itu":2226,"Ġshe":2227,"Ġoptim":2228,"It":2229,"Ġshows":2230,"Ġcl":2231,"Ġcho":2232,"Ġhy":2233,"md":2234,"Ġ/*":2235,"Ġpresent":2236,"Des":2237,"Ġpass":2238,"till":2239,"Ġintegr":2240,"Ġuni":2241,"Ġpower":2242,"Ġrela":2243,"itor":2244,"oin":2245,"gt":2246,"Ġdue":2247,"word":2248,"tabular":2249,"Ġdete":2250,"ife":2251,"Ġdefault":2252,"Ġmo":2253,"ron":2254,"Ġpoints":2255,"widetilde":2256,"Ġexperim":2257,"foot":2258,"off":2259,"lot":2260,"enu":2261,"bra":2262,"ync":2263,"head":2264,"Ġbeh":2265,"Ġobtained":2266,"iod":2267,"igned":2268,"ateg":2269,"Or":2270,"Ġnext":2271,"sta":2272,"tis":2273,"rag":2274,"Ġinst":2275,"Ġpossible":2276,"idd":2277,"26":2278,"ML":2279,"illi":2280,"ool":2281,"Ġsrc":2282,"ocus":2283,"verse":2284,">&":2285,"Ġstates":2286,"Ġcorresponding":2287,"anel":2288,"Ver":2289,"2017":2290,"Ġwithin":2291,"kn":2292,"MA":2293,"ustom":2294,"}-":2295,"Of":2296,"base":2297,"struction":2298,"ket":2299,"If":2300,"Ġlinear":2301,"ĠHowever":2302,"Ġdensity":2303,"90":2304,"Ġcondition":2305,"Fig":2306,"small":2307,"wit":2308,"35":2309,"Ġequation":2310,"****************":2311,"content":2312,"create":2313,"Ġmean":2314,"yc":2315,"Ġmed":2316,"Ġscal":2317,"Ġenc":2318,"call":2319,"lies":2320,"iled":2321,"down":2322,"eturn":2323,"point":2324,"Ġmatch":2325,"Message":2326,"AD":2327,"Hand":2328,"ĠLet":2329,"fl":2330,"Ġrange":2331,"01":2332,"ditions":2333,"Ġcar":2334,"ik":2335,"prop":2336,"land":2337,"Ġduring":2338,"gener":2339,"Ġwithout":2340,"Ġauth":2341,"Ġdenote":2342,"Le":2343,"UT":2344,"2018":2345,"zeta":2346,"ording":2347,"ouse":2348,"Ġconstant":2349,"2020":2350,"Ġfam":2351,"object":2352,"css":2353,"Se":2354,"orts":2355,"Ġjava":2356,"IG":2357,"vail":2358,"loy":2359,";&":2360,"Ġopen":2361,"ival":2362,"ume":2363,"Model":2364,"result":2365,"abled":2366,"Tran":2367,"ED":2368,"IS":2369,"Field":2370,"Ġrequire":2371,"istic":2372,"Ġwidth":2373,"Ġstudy":2374,"ances":2375,"default":2376,"ĠĠĠĠĠĠĠĠĠĠĠĠ":2377,"AB":2378,"Ġintro":2379,"Val":2380,"\\]":2381,"ii":2382,"sem":2383,"Ġtotal":2384,"check":2385,"Ġprevious":2386,"2016":2387,"Ġassoci":2388,"No":2389,"Ġtri":2390,"){":2391,"\\{":2392,"Ġmuch":2393,"Ġet":2394,"ĠĠĠĠĠĠĠĠĠĠ":2395,"Ġlength":2396,"Color":2397,"upp":2398,"Ġoutput":2399,"Ġbreak":2400,"do":2401,"erson":2402,"}+":2403,"Ġpotential":2404,"Ġlarg":2405,"acy":2406,"Ġmethods":2407,"Ġocc":2408,"emma":2409,"Ġfinite":2410,"05":2411,"tings":2412,"29":2413,"Ġproperty":2414,"meric":2415,"Ġrandom":2416,"assert":2417,"Ġcalcul":2418,"Ġdimension":2419,"Ġwrit":2420,"lt":2421,"From":2422,"Ġ===":2423,"prime":2424,"AS":2425,"way":2426,"aster":2427,"place":2428,"ken":2429,"MP":2430,"java":2431,"oh":2432,"Ġapproxi":2433,"method":2434,"lete":2435,")=\\":2436,"Ġvector":2437,"roller":2438,"Dis":2439,"Ġproof":2440,"Ġcalled":2441,"ither":2442,"ĠEq":2443,"tainer":2444,"ĠOn":2445,"sequ":2446,"ĠSystem":2447,"info":2448,"ats":2449,"light":2450,"tn":2451,"ring":2452,"ĠTheorem":2453,"Ġ&=":2454,"Ġrele":2455,"Ġmade":2456,"Ġrequest":2457,"Tr":2458,"Ġsupport":2459,"port":2460,"Ġlay":2461,"uf":2462,"sol":2463,"ameter":2464,"Ġtask":2465,"ĠSection":2466,"Ġtech":2467,"2019":2468,"Ġrespectively":2469,"net":2470,"reate":2471,"Ġbackground":2472,")}\\":2473,"}=\\":2474,"Ġalgorithm":2475,"Ġcontinu":2476,"}]":2477,"thm":2478,"Ġchange":2479,"Ġfa":2480,"Ġtheory":2481,"TD":2482,"Ġpair":2483,"CH":2484,"Ġcomplex":2485,"Ġstrong":2486,"Ġear":2487,"Ġanalysis":2488,"dependent":2489,"2015":2490,"Up":2491,"ING":2492,"{(":2493,"User":2494,"Ġtrac":2495,"Ġcontrol":2496,"ram":2497,"Ġbase":2498,"ET":2499,"Def":2500,"ison":2501,"Ġcreate":2502,"Ġpop":2503,"www":2504,"antum":2505,"ification":2506,")]":2507,"Ġtake":2508,"66":2509,"android":2510,"Wh":2511,"34":2512,"context":2513,"Ġterm":2514,"Ġconf":2515,"Ġitem":2516,"alth":2517,"gra":2518,"Ġposition":2519,"Table":2520,"olds":2521,"icy":2522,"refer":2523,"ordin":2524,"ĉĉĉĉĉĉ":2525,"Log":2526,"Ġphase":2527,"posed":2528,"Ġcontr":2529,"70":2530,"doc":2531,"namespace":2532,"Ġflu":2533,"--------------------------------":2534,";</":2535,"Manager":2536,"55":2537,".âĢĿ":2538,"Ġrate":2539,"Ad":2540,"start":2541,"Ġ};":2542,"=\"../":2543,"oll":2544,"Ġexpected":2545,"oment":2546,"ret":2547,"gs":2548,"Ġstill":2549,")^{":2550,"ental":2551,"note":2552,"package":2553,"Ġke":2554,"Ġchang":2555,"ithub":2556,"rap":2557,"bug":2558,"Ġerr":2559,"vis":2560,"Ġexpect":2561,"Ġspectr":2562,"false":2563,"Ġmark":2564,"ĠOb":2565,"az":2566,"Ġem":2567,"ware":2568,"lish":2569,"db":2570,"uage":2571,"Ġes":2572,"ah":2573,"Ġframe":2574,"overn":2575,"spec":2576,"Ġ__":2577,"tically":2578,"Ġcolor":2579,";\\":2580,"Ġdown":2581,"textwidth":2582,"}|":2583,"Ġgu":2584,"core":2585,"}_\\":2586,"viron":2587,"$)":2588,"using":2589,"ication":2590,"Ġproperties":2591,"Ġdefine":2592,"Is":2593,"DO":2594,"Ġdynam":2595,"lemma":2596,"Ġcou":2597,"omorph":2598,"vailable":2599,"Ġidentif":2600,"imal":2601,"Ġfour":2602,"ponse":2603,"ponents":2604,"198":2605,"Ġcommun":2606,"ĠAnd":2607,",-":2608,"nal":2609,"versity":2610,"Ġdetermin":2611,"aterial":2612,"mag":2613,"dev":2614,"skip":2615,"Ġperformance":2616,"Ġec":2617,"emp":2618,"Property":2619,"scale":2620,"}^\\":2621,"Ġknown":2622,"Ġaver":2623,"Ġchild":2624,"xy":2625,"Inter":2626,"ready":2627,"ĠPar":2628,"ibr":2629,"<!--":2630,"Out":2631,"leg":2632,"Ġvalid":2633,"oth":2634,"Ġdid":2635,"48":2636,"Ġprote":2637,"Ġim":2638,"Ġaddress":2639,"=\"#":2640,"Ser":2641,"pdf":2642,"github":2643,"Ġlabel":2644,"ĠAd":2645,"Ġinf":2646,"================":2647,"Ġimportant":2648,"Ġtry":2649,"day":2650,"cdots":2651,"((":2652,"ident":2653,"tot":2654,"Ġnormal":2655,"undle":2656,"Ġge":2657,"mark":2658,"Ġexists":2659,"conn":2660,"png":2661,"static":2662,"xspace":2663,"lit":2664,"Ġconstra":2665,"System":2666,"Ġrece":2667,"39":2668,"ĠBy":2669,"Ġincluding":2670,"ULL":2671,"Ġ\\{":2672,"Ġestimate":2673,"attern":2674,"ES":2675,"Ġaround":2676,"ways":2677,"Ġconditions":2678,"display":2679,"ename":2680,"Ġandroid":2681,"Ġsymmet":2682,"wise":2683,"Ġlower":2684,"Ġcirc":2685,"OT":2686,"web":2687,"lib":2688,"}}(":2689,"Ġremain":2690,"lied":2691,"ĠSch":2692,"2014":2693,"ctor":2694,"IR":2695,"urity":2696,"Ġgood":2697,"Ġworld":2698,"ĠAmeric":2699,"my":2700,"Group":2701,"ags":2702,"uments":2703,"ars":2704,"option":2705,"Ġresponse":2706,"ĠGet":2707,"google":2708,"](":2709,"part":2710,"qquad":2711,"Ġclear":2712,"ender":2713,"Psi":2714,"Ġzero":2715,"36":2716,"icient":2717,"Ac":2718,"Ġlink":2719,"})\\":2720,"Ġlook":2721,")</":2722,"rec":2723,"Ġhim":2724,"Ġsignific":2725,"define":2726,"ait":2727,"lying":2728,"height":2729,"Ġalong":2730,".~":2731,"ĠĠĠĠĠĠĠĠĠĠĠĠĠĠĠĠĠĠĠĠĠĠĠĠĠĠĠĠĠĠĠ":2732,"Ġsever":2733,"pol":2734,"Mod":2735,"Ġelectr":2736,"tual":2737,"Ġclu":2738,"All":2739,"Exp":2740,"ump":2741,"null":2742,"0000":2743,"Ġide":2744,">(":2745,"PT":2746,"stand":2747,"Ġcases":2748,"Ġtimes":2749,"under":2750,"Client":2751,"pping":2752,"eps":2753,"Ġstyle":2754,"ensor":2755,"her":2756,"Ġphot":2757,"UN":2758,"Ġdiag":2759,"ategory":2760,"ank":2761,"EE":2762,"Ġcomput":2763,"Ġsystems":2764,"Ġhelp":2765,"Ġrequired":2766,"Ð¾":2767,"mathsf":2768,"clo":2769,"ns":2770,"Ġlaw":2771,"pling":2772,"ended":2773,"Ġfull":2774,"ati":2775,"ĠCol":2776,"Result":2777,"ĠApp":2778,"ENT":2779,"inc":2780,"Method":2781,"oot":2782,"inary":2783,"38":2784,"earch":2785,"cup":2786,"Bar":2787,"Ġoperator":2788,"}^{(":2789,"Ġimpro":2790,"Ġeas":2791,"Ġprobability":2792,"idual":2793,"current":2794,"^+":2795,"dl":2796,"ĠNo":2797,"urb":2798,"Ġleast":2799,"rel":2800,"Ġoptions":2801,"ĠFigure":2802,"2021":2803,"ĠUni":2804,"argin":2805,"Ġbest":2806,"Ġstd":2807,"Ġelements":2808,"Ġtraining":2809,"Date":2810,"gebra":2811,"Sch":2812,"Ġfurther":2813,"sian":2814,"operator":2815,"oint":2816,"Ġdetail":2817,"Ġsimple":2818,"Ġauto":2819,"lip":2820,"entity":2821,"Ġcontrib":2822,"ariant":2823,"{{\\":2824,"Ġnil":2825,"Ġperiod":2826,"Ġeval":2827,"Ġdatas":2828,"auth":2829,"star":2830,"lin":2831,"Ġavailable":2832,"sw":2833,"CE":2834,"which":2835,"tle":2836,"}\\,":2837,"Ġexpl":2838,"Reg":2839,"ade":2840,"Ġbro":2841,"istory":2842,"Ġmessage":2843,"dir":2844,"&=":2845,"2013":2846,"count":2847,"Ġoriginal":2848,"}\\\\":2849,"Ġpositive":2850,"Ġbool":2851,"equiv":2852,"End":2853,"Ġhigher":2854,"Ġown":2855,"licit":2856,"Ġbehav":2857,"Query":2858,"Ã©":2859,"alle":2860,"site":2861,"Ġ&\\":2862,"II":2863,"image":2864,"laim":2865,"Ġassociated":2866,"Ġsuff":2867,"run":2868,"uture":2869,"Response":2870,"Ġquantum":2871,"Ġdiff":2872,"Ġatt":2873,"Ġtable":2874,"pc":2875,"asing":2876,"Ð°":2877,"Override":2878,"Ġstudi":2879,"Ġfree":2880,"local":2881,"resh":2882,"Ġinclude":2883,"Action":2884,"iti":2885,"Ġphys":2886,"TH":2887,"alax":2888,"appro":2889,"44":2890,"Ġ$(\\":2891,"Attribute":2892,"Ġpost":2893,"And":2894,"Builder":2895,"actory":2896,"widehat":2897,"ĠLemma":2898,"button":2899,"Ġfactor":2900,"netic":2901,"Ġstandard":2902,"page":2903,"ris":2904,"rior":2905,"bly":2906,"37":2907,"cos":2908,"sch":2909,"Ġappear":2910,"omin":2911,"Ġsequence":2912,"query":2913,"Ġdeg":2914,"ether":2915,"}:":2916,"toc":2917,"riter":2918,"Ġfields":2919,"Ġtemper":2920,"iction":2921,"orn":2922,"Ġeither":2923,"ĠSet":2924,"Call":2925,"defined":2926,"Ġevalu":2927,"Sub":2928,"ests":2929,"event":2930,"subset":2931,"af":2932,"vironment":2933,"Count":2934,"Ġconver":2935,"finished":2936,"Ġcomplete":2937,"Ġscale":2938,"ticle":2939,"][":2940,"mid":2941,"lick":2942,"Sc":2943,"eme":2944,"active":2945,"Ġthus":2946,"Ġcell":2947,"Ġsignificant":2948,"ood":2949,"Ġbelow":2950,"ling":2951,"php":2952,"Ġwrite":2953,"print":2954,"31":2955,"Ġcross":2956,"uter":2957,"indent":2958,"Ġfixed":2959,"Ġnear":2960,"Ġimplement":2961,"Input":2962,"Ġcolumn":2963,"options":2964,"split":2965,"âĢľ":2966,"func":2967,"Ġmis":2968,"witch":2969,"Ġproposed":2970,"Ġsepar":2971,"hand":2972,"ĠAt":2973,"Ġspe":2974,"jav":2975,"command":2976,"jor":2977,"NS":2978,"urs":2979,"aving":2980,"ety":2981,"oken":2982,"element":2983,"Ġless":2984,"Ġequival":2985,"Ġobserved":2986,"Ġcompar":2987,"New":2988,"ological":2989,"Ġlines":2990,"Ġfrequ":2991,"Ġanother":2992,"ĠĠĠĠĠĠĠĠĠĠĠĠĠĠĠĠĠ":2993,"ital":2994,"Ġlang":2995,"MS":2996,"Stream":2997,"rect":2998,"Ġassume":2999,"({":3000,"65":3001,"]$":3002,"ging":3003,"Ġdep":3004,"Ġinterest":3005,"unfinished":3006,"Ref":3007,"ounded":3008,"mul":3009,"Ġvol":3010,"ale":3011,"}}{\\":3012,"Ġmeans":3013,"Ðµ":3014,"anti":3015,"ĠTr":3016,"AME":3017,"bottom":3018,"08":3019,"Ġrespect":3020,"07":3021,"2012":3022,"Ġnum":3023,"Ġlight":3024,"Ġstep":3025,"pose":3026,"Ġfeatures":3027,"Ġcombin":3028,"SP":3029,"ĠPh":3030,"Ġplace":3031,"igen":3032,"Not":3033,"Ġseveral":3034,"based":3035,"Util":3036,"Ġalready":3037,"Ġsay":3038,"Ġsem":3039,"IL":3040,"])":3041,"ium":3042,"lished":3043,"Ġmoment":3044,"module":3045,"args":3046,"Ġbuil":3047,"Ġglobal":3048,"Ġmov":3049,"Ġsearch":3050,"stit":3051,"reen":3052,"Block":3053,"dimension":3054,"ĠĠĠĠĠĠĠĠĠĠĠĠĠĠ":3055,"Comp":3056,"Ġdev":3057,"Ġ->":3058,"Ġthrow":3059,"Ġlearning":3060,")-":3061,"fill":3062,"utr":3063,"Ġcomponent":3064,"actions":3065,"ral":3066,"citet":3067,"|^":3068,"Ġeffect":3069,"04":3070,"02":3071,"Component":3072,"append":3073,"hip":3074,"tition":3075,"ulations":3076,"iness":3077,"Pr":3078,"Ġrefer":3079,"Ġrecent":3080,"Ġside":3081,"Gener":3082,"Ġmove":3083,".\"":3084,"Ġaff":3085,"enumer":3086,"95":3087,"âĢĵ":3088,"Ġest":3089,"Ġsuccess":3090,",âĢĿ":3091,"Ġnumer":3092,"Ġdistance":3093,"Ġloss":3094,"adding":3095,"}+\\":3096,"Ġconsist":3097,"ĠThese":3098,"tices":3099,"&&":3100,"ek":3101,"Ġweight":3102,"hspace":3103,"Ġ<<":3104,"Image":3105,"stead":3106,"'$":3107,"ght":3108,"US":3109,"ĠLe":3110,"sin":3111,"neq":3112,"server":3113,"edge":3114,"ONT":3115,"Ġserv":3116,"Str":3117,"ĠSo":3118,"gen":3119,"Line":3120,"ĠĠĠĠĠĠĠĠĊ":3121,"Ġdomain":3122,"ula":3123,"Ġcover":3124,"Im":3125,"Ġdocument":3126,"target":3127,"request":3128,"Status":3129,"Ġborder":3130,"ored":3131,"client":3132,"onal":3133,"ĠSince":3134,"scr":3135,"ecess":3136,"Ġfew":3137,"Ġques":3138,"flow":3139,"Ġconsidered":3140,"Trans":3141,"char":3142,"ĠMe":3143,"AP":3144,"There":3145,"pped":3146,"ln":3147,"Ġaverage":3148,"Ġ()":3149,"ĠĠĠĠĠĠĠĠĠĠĠĠĊ":3150,"Lay":3151,"ĠÐ":3152,"Nav":3153,"omen":3154,"Ġdon":3155,"CC":3156,"has":3157,"Ġcour":3158,"Ġagainst":3159,"}-\\":3160,"78":3161,"Ġchannel":3162,"Ġbetter":3163,"write":3164,"Ġfit":3165,"}/":3166,"Ġfeature":3167,"Be":3168,"Ġedge":3169,"ird":3170,"Ġexec":3171,"OS":3172,"ograph":3173,"Ġexact":3174,"2011":3175,"footnote":3176,"Ġdiv":3177,"ately":3178,"case":3179,"(-":3180,"({\\":3181,"oriz":3182,"theorem":3183,"Ġhal":3184,"Ġanaly":3185,"orth":3186,"ories":3187,"Ġgalax":3188,"Ġvia":3189,"Ġturn":3190,"Ġdescribed":3191,"Ġalways":3192,"Sec":3193,"Ġdirection":3194,"oud":3195,"Ġflow":3196,"Dec":3197,"example":3198,"column":3199,"ĠEn":3200,"eloc":3201,"Ġwant":3202,"Ġobj":3203,"bb":3204,"Ġdefinition":3205,"{}":3206,"uman":3207,"Ġgenerated":3208,"]\\":3209,"rule":3210,"enumerate":3211,"Ġperson":3212,"ĠBo":3213,"Ġexpression":3214,"Ġwhether":3215,"REF":3216,"older":3217,"Ġresearch":3218,"Ġband":3219,"Ġprogram":3220,"tives":3221,"itemize":3222,"Ġfamily":3223,"Ġ-\\":3224,"Ġaccur":3225,"navbar":3226,"header":3227,"supp":3228,"Ġfocus":3229,"Ġcontains":3230,"oding":3231,")}{":3232,"06":3233,"ĠBut":3234,"Ġunit":3235,"vspace":3236,"Resource":3237,"Ġiss":3238,"Instance":3239,"Ed":3240,"omic":3241,"ending":3242,"first":3243,"cell":3244,"Ġpur":3245,"Rep":3246,"eline":3247,"gg":3248,"Ġaccess":3249,"AG":3250,"Ġspin":3251,"lap":3252,"kes":3253,"Ġiter":3254,"ĠNULL":3255,"Ġbi":3256,"ATE":3257,"ideo":3258,"normal":3259,"Ġequations":3260,"Ġrelations":3261,"Ġcost":3262,"orld":3263,"Handler":3264,"angle":3265,"race":3266,"YPE":3267,"ination":3268,"Ġboolean":3269,"itude":3270,"tocol":3271,"Ġboundary":3272,"operatorname":3273,"ience":3274,"mic":3275,"gl":3276,"49":3277,"Base":3278,"empty":3279,"Ġmen":3280,"property":3281,"${":3282,"jection":3283,"iform":3284,"Ġsk":3285,"omes":3286,"ĠUniversity":3287,"abase":3288,"xml":3289,"03":3290,"egative":3291,"tract":3292,"multi":3293,"ords":3294,"Ġold":3295,"Ġ\"\"\"":3296,"Ġseries":3297,"plit":3298,"Ġrole":3299,"noindent":3300,"Ġseen":3301,"istr":3302,"multic":3303,"omial":3304,"dag":3305,"Ġfilter":3306,"ĠThus":3307,"ather":3308,"tio":3309,"Token":3310,"Ġlife":3311,"ker":3312,"Ġheight":3313,"Ġshort":3314,"ĠSec":3315,"lugin":3316,"Ġthink":3317,"tyle":3318,"level":3319,"most":3320,"Ġgovern":3321,"Ġsets":3322,"Ġprovided":3323,"ries":3324,"Ġcannot":3325,"mar":3326,"Ġcommon":3327,"Ġ+=":3328,"gether":3329,"ĠList":3330,"Ġlat":3331,"ieve":3332,"Ġspecific":3333,"olumn":3334,"77":3335,"outh":3336,"Ġdesign":3337,"pts":3338,"icense":3339,"Ġgive":3340,"Ġnote":3341,"lex":3342,"09":3343,"Pi":3344,"Ġdouble":3345,"Ġmultiple":3346,"Conn":3347,"NN":3348,"}}_":3349,"Ġadv":3350,"2010":3351,"adata":3352,"medi":3353,"init":3354,"Options":3355,"ocial":3356,"ameters":3357,"Ġsurface":3358,"Content":3359,")}$":3360,"long":3361,"orage":3362,"Ġmode":3363,"Ġresource":3364,"68":3365,"[\"":3366,"Ġaccount":3367,"Ġconnection":3368,"Ġservice":3369,"Command":3370,"ires":3371,"ĠMore":3372,"Ġwar":3373,"izer":3374,"astic":3375,"ĠCO":3376,"frame":3377,"multicolumn":3378,"Ġnat":3379,"Cell":3380,"Ġinvol":3381,"meta":3382,"sions":3383,"$}":3384,"known":3385,"json":3386,"cast":3387,"Ġlarger":3388,"ĠThey":3389,"Ġimplies":3390,"abil":3391,"usiness":3392,"Ġmight":3393,"Ġrelated":3394,"parent":3395,"Ġnecess":3396,"mathscr":3397,"efore":3398,"uk":3399,"Ġrepres":3400,"ĠAll":3401,"ĠNote":3402,"Ġequal":3403,"\\,\\":3404,"Ġveloc":3405,"echan":3406,"OD":3407,"Null":3408,"HT":3409,"Ġhttp":3410,"select":3411,"Function":3412,"ged":3413,"Ġproject":3414,"book":3415,"dimensional":3416,"Ġclose":3417,"ably":3418,"ighb":3419,"Link":3420,"she":3421,"EX":3422,"Ġlater":3423,"Ġindiv":3424,"Ġcoordin":3425,"idence":3426,"Ġreason":3427,"Ġvariables":3428,"though":3429,"btn":3430,"Ġti":3431,"LT":3432,"ĠInd":3433,"\\}$":3434,"Ġrepresentation":3435,"Buffer":3436,"Ġfar":3437,"First":3438,"Box":3439,"IP":3440,"Ġcoeff":3441,"Ġtemperature":3442,"Source":3443,"description":3444,"Hel":3445,"img":3446,"Number":3447,"obj":3448,"num":3449,"vider":3450,"Ġplan":3451,"src":3452,"strac":3453,"dat":3454,"ters":3455,"idget":3456,"strong":3457,"Ġevents":3458,"LASS":3459,"TO":3460,"filter":3461,"Ġpage":3462,"Ġcri":3463,"mated":3464,"post":3465,"Ġspecial":3466,"iff":3467,"estig":3468,"wards":3469,"linear":3470,"Pre":3471,"Ġopp":3472,"uro":3473,"Ġarea":3474,"ient":3475,"ĠCar":3476,"47":3477,"enti":3478,"approx":3479,"Ġindependent":3480,"ĠAss":3481,"illion":3482,"SC":3483,"private":3484,"UE":3485,"Ġsolutions":3486,"mail":3487,"*/":3488,"Ġprove":3489,"open":3490,"Ġholds":3491,"sg":3492,"Ġdone":3493,"Ġproduct":3494,"imary":3495,"ledge":3496,"change":3497,"Ġ]":3498,"ina":3499,"Factory":3500,"ĠNone":3501,"Ġadditional":3502,"Ð¸":3503,"teq":3504,"stack":3505,"Ġfac":3506,"GL":3507,"creen":3508,"MM":3509,"Ġvir":3510,"ested":3511,"build":3512,"Ġcr":3513,"that":3514,"icture":3515,"FA":3516,"Equal":3517,"Ġimages":3518,"RI":3519,"Sp":3520,"ĠCo":3521,"Run":3522,"Ġrelation":3523,"CD":3524,"Window":3525,"Oper":3526,"Ġregular":3527,"Ġhead":3528,"ĉĉĉĉĉĉĉĉ":3529,"uary":3530,"ptions":3531,"ony":3532,"texttt":3533,"Ġtherefore":3534,"Ġgives":3535,"find":3536,"can":3537,"ĠOr":3538,"67":3539,"Label":3540,"Ġgrow":3541,"Ġcluster":3542,"comm":3543,"Ġcommand":3544,"\".":3545,"abs":3546,"Ġconc":3547,"Ġcomponents":3548,"ressed":3549,"$(":3550,"Ġbook":3551,"Spec":3552,"rl":3553,"bility":3554,"Ġ\\|":3555,"});":3556,"ĠTable":3557,"Ġorgan":3558,"Ġprec":3559,"process":3560,"CK":3561,"igger":3562,"teger":3563,"scope":3564,"rowser":3565,"ving":3566,"Ġweak":3567,"Ġloc":3568,"Off":3569,"Ġtransition":3570,"Ġfail":3571,")+":3572,"Ġindividual":3573,"els":3574,"Ġdisplay":3575,"///":3576,"={":3577,"ranch":3578,"mt":3579,"ascript":3580,"font":3581,"Version":3582,"Ġcenter":3583,"SI":3584,"Ġproduc":3585,"Note":3586,"Ġattribute":3587,"Ġcount":3588,"cr":3589,"Ġblack":3590,"pher":3591,"ohn":3592,"Ġmaximum":3593,"Ġla":3594,"Ġunc":3595,"Ġ_{":3596,"status":3597,"Ġrot":3598,"Ġfore":3599,"Ġbegin":3600,"Ġcertain":3601,"ÑĤ":3602,"SU":3603,"sa":3604,"child":3605,"ying":3606,"Ġreach":3607,"typ":3608,"Ġvariable":3609,"Ġmodule":3610,"Filter":3611,"Ġobjects":3612,"atform":3613,"stream":3614,"aves":3615,"Ġtypes":3616,"Frame":3617,"push":3618,"Fe":3619,"trm":3620,"Ġeigen":3621,"gence":3622,"ĠWhen":3623,"98":3624,"encies":3625,"inally":3626,"ptr":3627,"Ġupdate":3628,"HE":3629,"seteq":3630,"ised":3631,"norm":3632,"ino":3633,"Ġfuture":3634,"\"]":3635,"Ġapplic":3636,"tag":3637,"AM":3638,"layout":3639,"textrm":3640,"....":3641,"Supp":3642,"close":3643,"42":3644,"ĠYou":3645,"Ab":3646,"}'":3647,"values":3648,"Bundle":3649,"Ġalgebra":3650,"lease":3651,"VER":3652,"True":3653,"sitions":3654,"hel":3655,"2009":3656,".$":3657,"Ġeffective":3658,"more":3659,"DB":3660,"finite":3661,"underline":3662,"Style":3663,"Ġmagnetic":3664,"Ġvarious":3665,"Start":3666,"ĠTherefore":3667,"Ġhapp":3668,"Ġaccording":3669,"Ġextends":3670,"idden":3671,"Default":3672,"Ġable":3673,"Ġwave":3674,"Ġlik":3675,"matic":3676,"Ġrelative":3677,"ury":3678,"Ġ<!--":3679,"Since":3680,"pack":3681,"Ġinternal":3682,"Loc":3683,"pg":3684,"gress":3685,"ĠGe":3686,"cs":3687,"Ġdegree":3688,"like":3689,"Ġapplication":3690,"Then":3691,"format":3692,"mem":3693,"Ġhowever":3694,"Ġmatter":3695,"Page":3696,"}}}":3697,"ĠRo":3698,"minus":3699,"pto":3700,"Ġday":3701,"ometry":3702,"Ġsyn":3703,"ols":3704,"eded":3705,"Ġ(-":3706,"len":3707,"Ġ$\\{":3708,"Ġprac":3709,"radi":3710,"prod":3711,"une":3712,"Ġdifference":3713,"alog":3714,"Theta":3715,"Ġnodes":3716,"Ġdetails":3717,"ĠCoun":3718,"46":3719,"Ġinvestig":3720,"quare":3721,"~$":3722,"Return":3723,"range":3724,"Ġinstead":3725,"ious":3726,"Ġhom":3727,"parse":3728,"Ġben":3729,"85":3730,"update":3731,"Ġschool":3732,"Ġleg":3733,"FONT":3734,"Ġtransform":3735,"AA":3736,"Ġthrows":3737,"lus":3738,"Ġeffects":3739,"amil":3740,"Ġestab":3741,"ĠEng":3742,"Create":3743,"FI":3744,"match":3745,"ba":3746,"Check":3747,"subseteq":3748,"Ġput":3749,"Ġtoo":3750,"izes":3751,"Ġauthor":3752,"acity":3753,"Controller":3754,"Co":3755,"Ġgroups":3756,"Net":3757,"FT":3758,"Ġtre":3759,"izing":3760,"^-":3761,"Ġtogether":3762,"ĠObject":3763,"Task":3764,"Ġsite":3765,"py":3766,"javascript":3767,"Ġbasis":3768,"Ġgame":3769,"ĠFe":3770,"reed":3771,"thes":3772,"ĠĠĠĊ":3773,"Ġmajor":3774,"Arg":3775,"PC":3776,"<\\":3777,"Ġprotected":3778,"oke":3779,"Ġcompared":3780,"Ġsetting":3781,"stract":3782,"Ġfund":3783,"Ġspectrum":3784,"Ġ$|":3785,"Ġwindow":3786,"Ġ((":3787,"number":3788,"Button":3789,"iler":3790,"Ġacross":3791,"ynomial":3792,"ls":3793,"mooth":3794,"Ext":3795,"ĠTest":3796,"SON":3797,"Ġuntil":3798,"params":3799,"{$":3800,"Ġenough":3801,"Ġdataset":3802,"show":3803,"Ġrestr":3804,"),\\":3805,"Ġmechan":3806,"\\\"":3807,"Ass":3808,"Row":3809,"else":3810,"response":3811,"icial":3812,"onic":3813,"Ġchanges":3814,"Ġwhose":3815,"ĠIs":3816,"black":3817,"Ġclaim":3818,")|":3819,"Ġamong":3820,"hood":3821,"ĠIN":3822,"amed":3823,"////////////////":3824,"std":3825,"apter":3826,"Ġunique":3827,"buf":3828,"Ġtaken":3829,"Ġrest":3830,"entry":3831,"oted":3832,"iven":3833,"totype":3834,"agement":3835,"Ġreference":3836,"ĠDec":3837,"bound":3838,"alt":3839,"icro":3840,"Met":3841,"cd":3842,"ĠUnited":3843,"annot":3844,"2008":3845,"container":3846,"signed":3847,"ai":3848,"Ġvelocity":3849,"ĠRec":3850,"Acc":3851,"yl":3852,"ours":3853,"linewidth":3854,"Ġprior":3855,"Ġpanel":3856,"ypes":3857,"ĠAmerican":3858,"Ġ{@":3859,"Ġclient":3860,"Ġoften":3861,"Ġ\\;":3862,"Ġdate":3863,"Format":3864,"Ġunderstand":3865,"}}_{":3866,"}^{-":3867,"allet":3868,"{{":3869,"ĠReturn":3870,"Ġapplied":3871,"Ġsignal":3872,"Ġrow":3873,"Ġfig":3874,"Ġconstruct":3875,"host":3876,"Ġemploy":3877,"NO":3878,"Ġhard":3879,"Ġtransp":3880,"ĠĠĠĠĠĠĠĠĠĠĠĠĠĠĠĠĠĠĠĠĠĠĠĠĠĠĠĠĠĠĠĠĠĠĠ":3881,"Point":3882,"One":3883,"ĠWith":3884,"}},":3885,"Ġmer":3886,"ategy":3887,"Ġderiv":3888,"ado":3889,"Ġlayer":3890,"Ġspecified":3891,"Ġevolution":3892,"Last":3893,"sole":3894,"aries":3895,"Ġcare":3896,"Ġexplo":3897,"Per":3898,"Ð½":3899,"oder":3900,"Ġstars":3901,"Ġurl":3902,"Listener":3903,"(&":3904,"rr":3905,"Ġarch":3906,"inv":3907,"limits":3908,"ulated":3909,"Ġ~":3910,"Ġil":3911,"Ġenti":3912,"oto":3913,"Ġmetric":3914,"Const":3915,"last":3916,"endif":3917,"PRO":3918,"lean":3919,"ips":3920,"Ġapply":3921,"PS":3922,"Ġupper":3923,"Ġpresented":3924,"Ġpay":3925,"unit":3926,"ĠHREF":3927,"attr":3928,"^{-\\":3929,"sheet":3930,"tx":3931,"Ġquery":3932,"ycle":3933,"96":3934,"ops":3935,"eter":3936,"Ġbuild":3937,"Ġcontinuous":3938,"Ġexpan":3939,"Ġparent":3940,"service":3941,"alk":3942,"Ġenvironment":3943,"Ġtheorem":3944,"tional":3945,"Ġpub":3946,"reference":3947,"Ġbehavior":3948,"Ġhome":3949,"Ġneighb":3950,"Column":3951,"ley":3952,")/":3953,"pass":3954,"bs":3955,"pag":3956,"Ġfr":3957,"tifact":3958,"Ġneutr":3959,"deed":3960,"Valid":3961,"Ġax":3962,"Ġratio":3963,"ectors":3964,"Pl":3965,"88":3966,"iss":3967,"setminus":3968,"âĢĶ":3969,"Ġextension":3970,"Ġhyper":3971,"\").":3972,"Next":3973,"Read":3974,"ture":3975,"Ġseem":3976,"Ġgoing":3977,"Ġembed":3978,"Ġ($\\":3979,"97":3980,"PO":3981,"Ġprofile":3982,"Ġimprove":3983,"system":3984,"rain":3985,"Ġnatural":3986,"era":3987,"subfigure":3988,"aced":3989,"Ġoption":3990,"Ġpattern":3991,"Ġlanguage":3992,"Dep":3993,"sembly":3994,"ĠGener":3995,"Ġwritten":3996,"Ġmargin":3997,"ABLE":3998,"pa":3999,"Ġinequ":4000,"att":4001,"aly":4002,"Ġbecome":4003,"Ġdirectly":4004,"come":4005,"Ġconfiguration":4006,"*{":4007,"enari":4008,"ernel":4009,"Ġ\\(":4010,"Char":4011,"ama":4012,"models":4013,"iddle":4014,"Ġtree":4015,"Ġstatis":4016,"Ġargument":4017,"ftware":4018,"float":4019,"usic":4020,"Ġcoll":4021,"Ġcopy":4022,"<?":4023,"Equals":4024,"ĠCLASS":4025,"aml":4026,"ĠCor":4027,"Ġcompute":4028,"ques":4029,"Fl":4030,"ĠRep":4031,"only":4032,"ux":4033,"refix":4034,"SO":4035,"ql":4036,"Ġprovides":4037,"IM":4038,"dagger":4039,"Ġbody":4040,"bul":4041,"Ġemission":4042,":</":4043,"57":4044,"Ġequivalent":4045,"ĠOne":4046,"inst":4047,"$_":4048,"ully":4049,"########":4050,"=\"../../":4051,"INT":4052,"aged":4053,"Ġnoise":4054,"Web":4055,"na":4056,"remove":4057,"ĠMan":4058,"2007":4059,"ĠâĢĶ":4060,"Ġ$[":4061,"URL":4062,"').":4063,"```":4064,"Ġmaterial":4065,"wedge":4066,"rup":4067,"Ġeng":4068,"ĠLo":4069,"Ġfrac":4070,"Ġexplicit":4071,"classes":4072,"ided":4073,"Ġvertex":4074,"Ġexplain":4075,"instance":4076,"Ġground":4077,"Ġinterface":4078,"SD":4079,"43":4080,"Layout":4081,"bitr":4082,"cur":4083,"Ġclosed":4084,"sup":4085,"Ġcorrect":4086,"Ġtechn":4087,"menu":4088,",\"":4089,"Ġproblems":4090,"ttps":4091,"Ġquestion":4092,"struc":4093,"./":4094,"ĠClass":4095,"fa":4096,"Ġgas":4097,"ĠCent":4098,"Ġhuman":4099,"Ġdescription":4100,"\"),":4101,"BU":4102,"Ġsolid":4103,"sto":4104,"Pol":4105,"Ġcaus":4106,"ocket":4107,"allel":4108,"Ġallows":4109,"Child":4110,"Output":4111,"Ġroot":4112,"Vert":4113,"ĠDis":4114,"Ġvi":4115,"ÑĢ":4116,"ĠSe":4117,"ĠBe":4118,"\\}":4119,"atric":4120,"Ġoperation":4121,"Ġcatch":4122,"Ġabs":4123,"Collection":4124,"scri":4125,"Length":4126,"Ġstatus":4127,"abor":4128,"definition":4129,"Ġtechni":4130,"conf":4131,"Auth":4132,"Ġfrequency":4133,"Ġload":4134,"car":4135,"output":4136,"ĠReg":4137,"_.":4138,"turb":4139,"igation":4140,"Ġhttps":4141,"Ġseg":4142,"project":4143,"Ġuncertain":4144,"Ġpolynomial":4145,"58":4146,"ĠState":4147,"serve":4148,"_+":4149,"omorphism":4150,"Ġhaving":4151,"imple":4152,"zed":4153,"ially":4154,"56":4155,"UI":4156,"osed":4157,"auge":4158,"=(":4159,"sd":4160,"tri":4161,"crete":4162,"Ġformat":4163,"ĠâĢĺ":4164,"eved":4165,"Ġworks":4166,"Ġdecre":4167,"ERT":4168,"2006":4169,"Ġrather":4170,"Ġnone":4171,"Ġagree":4172,"Ġadj":4173,"=-":4174,"ĠAPI":4175,"Url":4176,"2000":4177,"Ġincrease":4178,"Mode":4179,"Ġgreat":4180,"tree":4181,"atial":4182,">>":4183,"=\"../../../../../":4184,"Ġstre":4185,"EL":4186,"Ġinterval":4187,"Ġweb":4188,"member":4189,"bigg":4190,"Ġsmaller":4191,"Ġhealth":4192,"ĉĉĊ":4193,"edia":4194,"([":4195,"lier":4196,"hib":4197,"41":4198,"Ġchoice":4199,":\\":4200,"proto":4201,"monstr":4202,"ĠTran":4203,"sign":4204,"Ġmonth":4205,"Ġnever":4206,"dient":4207,"Ð¾Ð":4208,"inner":4209,"ĠComp":4210,"Ġfont":4211,"Ġframework":4212,"andid":4213,"Ġchildren":4214,"then":4215,"Min":4216,"Ġrule":4217,"rs":4218,"Ġcustom":4219,"thers":4220,"iding":4221,"aligned":4222,"Ġobservations":4223,"ĠUS":4224,"_{(":4225,"Entity":4226,"Ġlocation":4227,"Ġstream":4228,"COL":4229,"amilton":4230,"Ġearly":4231,"Ġflux":4232,"Ġserver":4233,"Ġoperators":4234,"Ġdraw":4235,"Ġ!==":4236,"aded":4237,"dist":4238,"Ġinteraction":4239,"Ġselected":4240,"_*":4241,"Ġproced":4242,"ned":4243,"comple":4244,"Ġ$-":4245,"break":4246,"Address":4247,"ifier":4248,"ĠStates":4249,"ĠID":4250,"ses":4251,"Ġgovernment":4252,"solute":4253,"layer":4254,"orizont":4255,"Ġphysical":4256,"Ġmembers":4257,"Now":4258,"Update":4259,"Ġselect":4260,"Ġhence":4261,"Rem":4262,"Ġhost":4263,"Ġsent":4264,"offset":4265,"ĠEX":4266,"Max":4267,"super":4268,"late":4269,"Ġliter":4270,"Ġcreated":4271,"Ġbounded":4272,"Ġhistory":4273,"tage":4274,"Ġdr":4275,"aj":4276,"Ġconstruction":4277,"ming":4278,"CL":4279,"anish":4280,"iver":4281,"fil":4282,"ceed":4283,"ĠCal":4284,"bert":4285,"ĠCan":4286,"CP":4287,"Ġpolicy":4288,"ollary":4289,"ĠMar":4290,"Ġir":4291,"ought":4292,"Ġnumbers":4293,"Ġkeep":4294,"ĠPr":4295,"ND":4296,"ĠCl":4297,"AV":4298,"ERR":4299,"Ġ}\\":4300,"ittle":4301,"Select":4302,"ĠShe":4303,"Ġreport":4304,"Ġdemonstr":4305,"oplus":4306,"sm":4307,"Ġuniform":4308,"Ġsen":4309,"Ge":4310,"'\\":4311,"Back":4312,"gu":4313,"---":4314,"Ġclasses":4315,"197":4316,"Ġbecomes":4317,"rics":4318,"ĠMay":4319,"CON":4320,"river":4321,"Ġ[]":4322,"ĠSp":4323,"Ġchain":4324,"vant":4325,"tran":4326,"onds":4327,"textsc":4328,"Ġbusiness":4329,"Ġwords":4330,"ĠHT":4331,"Cache":4332,"cy":4333,"Ġsamples":4334,"Ġconnected":4335,"itect":4336,"Ġsubset":4337,"Case":4338,"Ġprint":4339,"Ġoptimal":4340,"ering":4341,"Ġhar":4342,"ĠPl":4343,"Ġcollection":4344,"ĠOp":4345,"=\"-":4346,"attribute":4347,"osen":4348,"rand":4349,"document":4350,"final":4351,"control":4352,"Ġamount":4353,"Ġnav":4354,"Ġdetermined":4355,"free":4356,"Ġformula":4357,"Ġapproximation":4358,"Ġdescribe":4359,"ising":4360,"Ġcurve":4361,"ĉĠĠĠ":4362,"++)":4363,"dx":4364,"require":4365,"orizontal":4366,"anced":4367,"Ġbit":4368,"aussian":4369,"Ġang":4370,"Ġattack":4371,"lice":4372,"ialog":4373,"Ġnuc":4374,"Provider":4375,"strap":4376,"rep":4377,"unch":4378,"Ġarbitr":4379,"Ġalmost":4380,"utes":4381,"(_":4382,"Ġcritical":4383,"Ġcallback":4384,"Tag":4385,"Ġsymmetry":4386,")\\,":4387,"Ġincreasing":4388,"Ġselection":4389,"essages":4390,"Ġplot":4391,"board":4392,"ropy":4393,"Ġadded":4394,"opt":4395,"ĠMin":4396,"Ġpress":4397,"lustr":4398,"ĠOF":4399,"ulate":4400,"Ġpoli":4401,"dim":4402,"urope":4403,"Ġthird":4404,"ĠJohn":4405,"ĠDes":4406,"Tem":4407,"Ġreally":4408,"Ġdynamics":4409,"thon":4410,"exec":4411,"direct":4412,"Ġteam":4413,"Ġmakes":4414,"Ġonce":4415,"mine":4416,"inding":4417,"vector":4418,"Ġactive":4419,"newcommand":4420,"Ġreview":4421,"cf":4422,"tification":4423,"}}(\\":4424,"sur":4425,"ĠLicense":4426,"ibrary":4427,"ards":4428,"Ġrob":4429,"Ġsatisfies":4430,"Ġdest":4431,"ili":4432,"Ġchall":4433,"ions":4434,"ĠNational":4435,"Ġerrors":4436,"Ġparticle":4437,"olve":4438,"anged":4439,"Ġtw":4440,"Ġcountry":4441,"Ġ|\\":4442,"aren":4443,"51":4444,"ball":4445,"onom":4446,"kit":4447,"ĠJan":4448,"_{-":4449,"Right":4450,"ĠData":4451,"Ġsources":4452,"ky":4453,"parameter":4454,"finition":4455,"ĠSte":4456,"Ġneeded":4457,"urren":4458,"Ġsupported":4459,"auto":4460,"Ġoffset":4461,"Ġregions":4462,"Ġshall":4463,"Ġjob":4464,"Ġdevelopment":4465,"Emp":4466,"images":4467,"Ġpopulation":4468,"ĠQu":4469,"Ġbox":4470,"isted":4471,"itory":4472,"'_":4473,"OL":4474,"Vis":4475,"DF":4476,"Server":4477,"Ġsto":4478,"window":4479,"ĠProposition":4480,"Ġnecessary":4481,"Ġinteger":4482,"ĠThat":4483,"ĠPol":4484,"Ġhalf":4485,"_{{\\":4486,"Ġquanti":4487,"Ġdiffic":4488,"acing":4489,"When":4490,"ĠRef":4491,"Types":4492,"Dire":4493,"colon":4494,"ĠType":4495,"Ġpartial":4496,"Target":4497,"Ġnegative":4498,"\\'":4499,"arily":4500,"Ñģ":4501,"Ġparticles":4502,"Ġsocial":4503,"IO":4504,"istry":4505,"Ġdecision":4506,"Ġcome":4507,"ategor":4508,"Ġapproximate":4509,"iving":4510,"Width":4511,"Offset":4512,"Ġfilm":4513,"Ġ${":4514,"Ġconven":4515,"rier":4516,"Ġgalaxies":4517,"2005":4518,"boot":4519,"root":4520,"Configuration":4521,"remark":4522,"Ġvertices":4523,"Ġfiles":4524,"tains":4525,"patch":4526,"Ġsmooth":4527,"Ġexperiments":4528,"nos":4529,"Ġradius":4530,"RL":4531,"Ġscheme":4532,"Ġsitu":4533,"ãģ":4534,"NAME":4535,"tify":4536,"llar":4537,"Ġdetection":4538,"forall":4539,"artifact":4540,"Ġmaps":4541,"prototype":4542,"Ġdomin":4543,"Ġdiscussed":4544,"make":4545,"bas":4546,"Open":4547,"subsubsection":4548,"Ġho":4549,"Ġminimum":4550,"OP":4551,"CODE":4552,"Dev":4553,"Ġred":4554,"zero":4555,"Ġ;":4556,"Ġmaking":4557,"Ġincluded":4558,"Ġsug":4559,"'>":4560,"Ġsense":4561,"Parameter":4562,"ĠArray":4563,"ids":4564,"Su":4565,"Ġnumerical":4566,"rant":4567,"ike":4568,"Ġcentral":4569,"template":4570,"Ġgrav":4571,"gorithms":4572,"500":4573,"eral":4574,"Top":4575,"Ġ**":4576,"Ġtaking":4577,"usion":4578,"ĠRem":4579,"oung":4580,"author":4581,"69":4582,"now":4583,"rapper":4584,"Ġaut":4585,"cel":4586,"icients":4587,"Ġconstraints":4588,"Ġreturns":4589,"Ġuses":4590,"scal":4591,"ĠSer":4592,"TYPE":4593,"ĉĉĉĉĉĉĉ":4594,"Ġperformed":4595,"ĠDef":4596,")}(":4597,"59":4598,"Ġann":4599,"Tree":4600,"Ġcomparison":4601,"aa":4602,"ils":4603,"Eq":4604,"Ġentire":4605,"Ġtakes":4606,"Ġvirtual":4607,"Ġremove":4608,"********************************":4609,")^{\\":4610,"Ġgre":4611,"valu":4612,"ditional":4613,"Ġcoupling":4614,"ota":4615,"modal":4616,"Ġatten":4617,"ĠHere":4618,"Ġscenari":4619,"TP":4620,"oms":4621,"Ġmemory":4622,"ĠHence":4623,"Ġresulting":4624,"task":4625,"Do":4626,"Ġarguments":4627,"Ġleading":4628,"Ġremov":4629,"Ġsimulations":4630,"Ġclassical":4631,"Ġintroduced":4632,"Ġsymbol":4633,"Level":4634,"Ġinterpre":4635,"Ġ...":4636,"Ġscatter":4637,"ĠYork":4638,"ĠAcc":4639,"()->":4640,"common":4641,"fit":4642,"Ġtreat":4643,"Ġpolar":4644,"should":4645,"Ġdoc":4646,"Ġaccuracy":4647,",\\,":4648,"Mem":4649,"Ġcontinue":4650,"Ġupd":4651,"ives":4652,"Ġmanif":4653,"mations":4654,"loor":4655,"Ġrequires":4656,"Ġexcept":4657,"ĠAc":4658,"Pos":4659,"ashed":4660,"zz":4661,"Control":4662,"returns":4663,"arp":4664,"Ġnetworks":4665,"Ġspectral":4666,"stylesheet":4667,"âĢ¦":4668,"ĠDo":4669,"Ġinstall":4670,"Ġfive":4671,"Ġpeak":4672,"ometric":4673,"Ġforce":4674,"fr":4675,"jo":4676,"ĠVer":4677,"Ġcommunity":4678,"ani":4679,"Ġgauge":4680,"ATION":4681,"ĠEurope":4682,"Ġcorresponds":4683,"Ġalign":4684,"urch":4685,"'),":4686,"bool":4687,"ration":4688,"agraph":4689,")_{":4690,"rees":4691,"uly":4692,"Ġland":4693,"Http":4694,"Ġargs":4695,"ele":4696,"54":4697,"Ġneeds":4698,"ried":4699,"DD":4700,"cons":4701,"Ġcompact":4702,"sequence":4703,"Ġsimply":4704,"Container":4705,"reshold":4706,"iting":4707,"Ġswitch":4708,"Ġproduction":4709,"matrix":4710,"Utils":4711,"}$-":4712,"Ġword":4713,"Ġmultip":4714,"pri":4715,"Ġ{}":4716,"artifactId":4717,"Ġinequality":4718,"ĠGL":4719,"Ġfloat":4720,"ĠFran":4721,"criptor":4722,"Ġlattice":4723,"2004":4724,"cat":4725,"Ġachi":4726,"~~~~":4727,"]);":4728,"Ġmillion":4729,"52":4730,"}%":4731,"KE":4732,"ao":4733,"Ġbuilding":4734,"ĠFile":4735,"Here":4736,"Ġthough":4737,"Ġspatial":4738,"Ġsugges":4739,"Ġactiv":4740,"ĠFrom":4741,"Ġmomentum":4742,"Ġ::":4743,"ĠGu":4744,"ĠOur":4745,"Ġstudies":4746,"Ġedges":4747,"Ġ+\\":4748,"IF":4749,"Ġshape":4750,"Ġsplit":4751,"ĠAdd":4752,"blue":4753,"cases":4754,"Ġconv":4755,"vex":4756,">,":4757,"63":4758,"trac":4759,"Ġgenerate":4760,"oo":4761,"ĠAb":4762,"Ġlate":4763,"Ġess":4764,"Ġcompany":4765,"ked":4766,"Ġmeasured":4767,"Ġworking":4768,"\\_":4769,"ney":4770,"aps":4771,"resource":4772,"Ġitself":4773,"Ġderived":4774,"CS":4775,"Height":4776,"Ġcos":4777,"Ġbuffer":4778,"perp":4779,"ales":4780,"clusion":4781,"ĠĠĠĠĠĠĠĠĠĠĠĠĠĠĠĠĠĠĠĠĠ":4782,"device":4783,"ĠNS":4784,"ĠHamilton":4785,"vey":4786,"ones":4787,"Ġdepends":4788,"tml":4789,"QL":4790,"results":4791,"mode":4792,"Ġbar":4793,"Ġreported":4794,"87":4795,"Connection":4796,"Rel":4797,"Ġmotion":4798,"Ġmeasurements":4799,"ensive":4800,"ixt":4801,"duces":4802,"Ġempty":4803,"ympto":4804,"atory":4805,"roy":4806,"Ġnorm":4807,"Ġkind":4808,"Ġfun":4809,"Ġmention":4810,"phere":4811,"ĠSee":4812,"SH":4813,"ĠFirst":4814,"{$\\":4815,"Ġtensor":4816,"imilar":4817,"Search":4818,"Entry":4819,"rea":4820,"=\"../../../../../../":4821,"atrices":4822,"%%":4823,"Position":4824,"ffor":4825,"Ġret":4826,"Ġcontribution":4827,"vari":4828,"vision":4829,"Ġassumption":4830,"Ġlikely":4831,"uint":4832,"kind":4833,"Ġcourse":4834,"Ġmedia":4835,"Ġdecay":4836,"buffer":4837,")^{-":4838,"partment":4839,"groupId":4840,"esh":4841,"Ġsays":4842,"rief":4843,"Ġport":4844,"Ġviol":4845,"Ġplane":4846,"pmatrix":4847,"ached":4848,"Ġentry":4849,"ĠWorld":4850,"ĠGo":4851,"Ġperturb":4852,"bullet":4853,")}{\\":4854,"Match":4855,"bi":4856,"erc":4857,"PP":4858,"dr":4859,"Ġuint":4860,"Ġcorrespond":4861,"Ġwon":4862,"Ġscalar":4863,"More":4864,"token":4865,"prec":4866,"Ġyet":4867,"Ġbig":4868,"Ġtherm":4869,"2022":4870,"){\\":4871,"62":4872,"ĠMoreover":4873,"sibility":4874,"anner":4875,"MB":4876,"Ġmagn":4877,"IV":4878,"Interface":4879,"Ġillustr":4880,")\\\\":4881,"Ġtransfer":4882,"Ġdays":4883,"Ġcoefficients":4884,"Ġsuccessful":4885,"Ġcomputed":4886,"Ġuseful":4887,"Access":4888,"Ġcandid":4889,"used":4890,"ZE":4891,"Unit":4892,"Script":4893,"Ġlen":4894,"53":4895,"Ġrepresents":4896,"bal":4897,"amily":4898,"Empty":4899,"ĠNe":4900,"Module":4901,"EQ":4902,"ãĥ":4903,"ĠSci":4904,"Ġpack":4905,"MD":4906,"Ġchoose":4907,".)":4908,"soft":4909,"IGN":4910,"high":4911,"Write":4912,"Local":4913,"Ġdecom":4914,"Ġdeep":4915,"Header":4916,"COLOR":4917,"actor":4918,"ĠSc":4919,"Ġgl":4920,"Ġotherwise":4921,"Ġvolume":4922,"Ġparts":4923,"isms":4924,"Ġthings":4925,"Ġreceived":4926,"Cl":4927,"Ġwater":4928,"Menu":4929,"Ġage":4930,"Ġdetermine":4931,"Ġsimulation":4932,"Ġexisting":4933,"LS":4934,"Ġcalculated":4935,"Ġconsistent":4936,"Ġsomething":4937,"tee":4938,"Ġexamples":4939,"Ġcut":4940,"xx":4941,"$).":4942,"Ġwhole":4943,"Ġmember":4944,"Ġcity":4945,"wait":4946,"mitted":4947,"Ġprocedure":4948,"ously":4949,"}^*":4950,"Ġlittle":4951,"Font":4952,"Ġusers":4953,"API":4954,"Ġrecord":4955,"Ġchosen":4956,"Exec":4957,"ĠBl":4958,"Ġparams":4959,"Process":4960,"fs":4961,"oss":4962,"urthermore":4963,":\"":4964,"}}^":4965,":(":4966,"Ġleads":4967,"zon":4968,"MC":4969,"Location":4970,"cache":4971,"Ġalgorithms":4972,"inci":4973,"Ġhandle":4974,"band":4975,"ĠWar":4976,".~(\\":4977,"Ġhold":4978,"86":4979,"hy":4980,"Ġtag":4981,"Ġcharge":4982,"border":4983,"etch":4984,"Ġrender":4985,"nap":4986,"Ġtheore":4987,"Ġvac":4988,"Ġaway":4989,"\\|_{":4990,"umb":4991,"Ġproper":4992,"Ġissue":4993,"Hash":4994,"dep":4995,"simeq":4996,"Ġinteresting":4997,"'}":4998,"Ġinfinite":4999,"Ġstrict":5000,"Ġspeed":5001,"ises":5002,"ĠInter":5003,"ĠReturns":5004,"ounter":5005,"ilit":5006,"eli":5007,"Ġsure":5008,"ship":5009,"PR":5010,"Ġinflu":5011,"Callback":5012,"Dat":5013,"istor":5014,"Ġcorrelation":5015,"MO":5016,"Ġhash":5017,"dom":5018,"utils":5019,"Parser":5020,"Ġrelevant":5021,"roduction":5022,"Ġdenotes":5023,"Settings":5024,"Ġdistributions":5025,"Ġknowledge":5026,"Option":5027,"expected":5028,"step":5029,"So":5030,"Ġactually":5031,"Ġlinks":5032,"Ġtim":5033,"Ġque":5034,"obile":5035,"adow":5036,"Params":5037,"hash":5038,"Ġintegral":5039,"ĠCont":5040,"Ġbranch":5041,"Ġpast":5042,"tik":5043,"ĠMon":5044,"udio":5045,"bold":5046,"Range":5047,"tries":5048,"1000":5049,"Ġimpact":5050,"\"))":5051,"gent":5052,"Ġstreng":5053,"TI":5054,"dec":5055,"None":5056,"lugins":5057,"Ġincludes":5058,"Ġorigin":5059,"ĠAf":5060,"Ġstatement":5061,"Ġbinary":5062,"utable":5063,"Ġarbitrary":5064,"umin":5065,"Ġwide":5066,"ĠUp":5067,"picture":5068,"abilities":5069,"ĠLog":5070,"zation":5071,"Our":5072,"year":5073,"inciple":5074,"VAL":5075,"Ġreduced":5076,"debug":5077,"atives":5078,"ights":5079,"Ġaltern":5080,"entic":5081,";->":5082,"Ġexperimental":5083,"ading":5084,"Ġdevice":5085,"ĠPer":5086,"Ġfigure":5087,"Section":5088,"deg":5089,"istration":5090,"Figure":5091,"Ġcategory":5092,"Ste":5093,"cp":5094,"endix":5095,")$-":5096,"ĠDE":5097,"itle":5098,"ung":5099,"Change":5100,"Ġallowed":5101,"Ġtemplate":5102,"Ġstudied":5103,"ĠAfter":5104,"Ġminim":5105,"structed":5106,"Ġadap":5107,"Ġexperiment":5108,"ws":5109,"ĠST":5110,"Ġothers":5111,"Ġexpansion":5112,"Ġcore":5113,"ctx":5114,"Ġsubject":5115,"ĠCreate":5116,"Ġinvariant":5117,"Thread":5118,"Ġstrategy":5119,"Ġsteps":5120,"CA":5121,"PECT":5122,"Ġprocesses":5123,"hom":5124,"ampling":5125,"Ġdistributed":5126,"Json":5127,"Ġcompare":5128,"ogene":5129,"2003":5130,"pop":5131,"ACK":5132,"ru":5133,"Ġapplications":5134,"ĠSupp":5135,"})$.":5136,"Ġrunning":5137,"FO":5138,"isk":5139,"Helper":5140,"white":5141,"itable":5142,"Ġpadding":5143,"Ġpresence":5144,"LI":5145,"Ġ*)":5146,"Ġresolution":5147,"Ġ=\\":5148,"lor":5149,"$^{-":5150,"XX":5151,"72":5152,"drop":5153,"global":5154,"ustr":5155,"mediate":5156,"Ġanti":5157,"Ġscope":5158,"Ġformer":5159,"|_{":5160,"Ġangle":5161,"uting":5162,"Sym":5163,"ounts":5164,"component":5165,"$$\\":5166,"Ġ>=":5167,"89":5168,"Ġvideo":5169,"ĠÂ":5170,"ĉĠ":5171,"Tim":5172,"Left":5173,"lines":5174,"However":5175,"Mapp":5176,"ynamic":5177,"know":5178,"Ġstudents":5179,"raft":5180,"Ġrepl":5181,"Current":5182,"unk":5183,"Ġoperations":5184,"inder":5185,"}}^{":5186,"Ġspaces":5187,"61":5188,"Ġidentity":5189,"interface":5190,"Ġabsolute":5191,"Ġorbit":5192,"ĠEd":5193,"term":5194,"abe":5195,"inte":5196,"mapsto":5197,"Ġexactly":5198,"STR":5199,"Ġfully":5200,"Ġcli":5201,"Ġ$$":5202,"Session":5203,"chron":5204,"ography":5205,"ube":5206,"Schema":5207,"Ġcouple":5208,"ART":5209,"Ġarchitect":5210,"join":5211,"Ġidea":5212,"before":5213,"Ġpairs":5214,"Ġweek":5215,"Ġ$.":5216,"after":5217,"Copy":5218,"Ġsession":5219,"env":5220,"Ġpercent":5221,"Ġavoid":5222,"Ġdeveloped":5223,"Work":5224,"tax":5225,"session":5226,"Ġins":5227,"oney":5228,"ĠMark":5229,"Ġstory":5230,"Ġrecog":5231,"sters":5232,"pted":5233,"Ġlot":5234,"bootstrap":5235,"fields":5236,"rate":5237,"Ġansw":5238,"Ġsix":5239,"~$\\":5240,"Ġeffici":5241,"ecause":5242,"\\!\\!\\!\\!":5243,"Ġneg":5244,"LP":5245,"Ġdeal":5246,"ilib":5247,")_":5248,"Ġcommit":5249,"oman":5250,"ECT":5251,"Ġwhite":5252,"Ġdisk":5253,"ening":5254,"background":5255,"Description":5256,"After":5257,"card":5258,"Ġwomen":5259,"isation":5260,"ulture":5261,"versal":5262,"Dir":5263,"Ġsm":5264,"2001":5265,"render":5266,"Ġprof":5267,"req":5268,"Ġremains":5269,"Ġampl":5270,"Ġattem":5271,"Ġgot":5272,"Ġmach":5273,"Ġmeet":5274,"ĠSpec":5275,"ĠPo":5276,")},":5277,"Ġeasily":5278,"ada":5279,"Impl":5280,"Ġimplementation":5281,"ratic":5282,"Ġeasy":5283,"84":5284,"Ġregister":5285,"asi":5286,"Ġactual":5287,"Ġwin":5288,"ana":5289,"BC":5290,"Ġcurves":5291,"Ġjoin":5292,"\"));":5293,"NavBar":5294,"Ġmatrices":5295,"transform":5296,"Ġinside":5297,"fony":5298,"Properties":5299,"ighted":5300,"Inst":5301,"iny":5302,"types":5303,"bes":5304,"300":5305,"82":5306,"Ġintroduce":5307,"ĠPres":5308,"vol":5309,"ibility":5310,"faces":5311,"Ġign":5312,"Ġservices":5313,"odot":5314,"footer":5315,"Ġappropri":5316,"detail":5317,"second":5318,"Ġbenef":5319,"Ġ&=&":5320,"Ġdependence":5321,"rack":5322,"bits":5323,"Ġdual":5324,"uck":5325,"thesis":5326,"ĠGaussian":5327,"Ġfactors":5328,"sample":5329,"94":5330,"Doc":5331,"Ġstructures":5332,"Ġensure":5333,"Ġsymmetric":5334,"Ġbal":5335,"Ġapproaches":5336,"\\{\\":5337,"=\"_":5338,"Ġtoken":5339,"licity":5340,"Ġembedding":5341,"ãĤ":5342,"irm":5343,"ĠModel":5344,"ä¸":5345,"aging":5346,"ĠBG":5347,"Deta":5348,"ered":5349,"Ġmodes":5350,"Ġrepe":5351,"Ġwhy":5352,"Ġcorrection":5353,"Ġcounter":5354,"chor":5355,"Ġxml":5356,"clear":5357,"^{+":5358,"delete":5359,"=\"/":5360,"ĠTO":5361,"imin":5362,"Ġtasks":5363,"bum":5364,"92":5365,"internal":5366,"coq":5367,"Ġcontaining":5368,"support":5369,"ĠSub":5370,"ĠĠĠĠĠĠĠĠĠĠĠĠĠĠĠĠĠĠĠĠ":5371,"asure":5372,"Ġones":5373,"docs":5374,"Ġforward":5375,"Integer":5376,"uni":5377,"orig":5378,"Theorem":5379,"Ġquad":5380,"rest":5381,"proposition":5382,"ggle":5383,"sv":5384,"ilibri":5385,"Ġfall":5386,"Async":5387,"lide":5388,"Ġmarket":5389,"():":5390,"aran":5391,"93":5392,"tific":5393,"Expression":5394,"Ġeduc":5395,"ĠException":5396,"Thus":5397,"Ġextended":5398,"HO":5399,"Ġspectra":5400,"real":5401,"Icon":5402,"tili":5403,"Ġbroad":5404,"avor":5405,"force":5406,"ined":5407,"ĠII":5408,"ners":5409,"Ġquality":5410,"Ġexc":5411,"Âł":5412,"Ġlatter":5413,"Ġparticip":5414,"Ġestimates":5415,"pecially":5416,"Ġyields":5417,"Ġmusic":5418,"Ġgoal":5419,"itation":5420,"Document":5421,"dro":5422,"Ġlevels":5423,"Mon":5424,"Rev":5425,"Ġclos":5426,"ĠSchool":5427,"Ġrights":5428,"amera":5429,"Ġpi":5430,"Ġrecover":5431,"Ġincreases":5432,"mber":5433,"Ġbasic":5434,"Ġquan":5435,"alg":5436,"Ġfilename":5437,"ĠSouth":5438,"Ġhear":5439,"Ġgrid":5440,"Ġrecon":5441,"'(":5442,"Ġpropag":5443,"tation":5444,"Ġreturned":5445,"Ġloop":5446,"Ġmar":5447,"seud":5448,"Ġoverride":5449,"Ġindu":5450,"Us":5451,"$;":5452,"ĠAug":5453,"Ġdoesn":5454,"den":5455,"ĠIntern":5456,"Ġoffer":5457,"Reference":5458,"91":5459,"================================":5460,"Ġfix":5461,"That":5462,"ĠOff":5463,"Ġfri":5464,"modules":5465,"Ġlonger":5466,"Ġinner":5467,"Ġcircle":5468,"Ġ{};":5469,"Ġbelong":5470,"Ġestimated":5471,"Ġsettings":5472,"Ġmeasurement":5473,"edule":5474,"Ġconvergence":5475,"dsh":5476,"\\)":5477,"cref":5478,"Ġjav":5479,"acts":5480,"Ġord":5481,"Ġbottom":5482,"izations":5483,"ae":5484,"icted":5485,"Ġassign":5486,"copy":5487,"train":5488,"mentation":5489,"alysis":5490,"Ġve":5491,"Ġregard":5492,"Order":5493,"&#":5494,"Long":5495,"BO":5496,"mma":5497,"sities":5498,"ĠMy":5499,"lege":5500,"entially":5501,"SL":5502,"jective":5503,"76":5504,"255":5505,"Tests":5506,"tikz":5507,"Ġsw":5508,"Ġexception":5509,"allow":5510,"Ġrates":5511,"ĠJanuary":5512,"Ġstellar":5513,"ORT":5514,"Ġecho":5515,"Use":5516,"Ġpul":5517,"ĠMath":5518,"Template":5519,"Ġobserve":5520,"Ġep":5521,"eler":5522,"ĠEXPECT":5523,"Ġdeath":5524,"Ġissues":5525,"ka":5526,"ournal":5527,"Ġrules":5528,"gn":5529,"ULT":5530,"ository":5531,"Ã¡":5532,"sts":5533,"category":5534,"send":5535,"Ġstarting":5536,"berg":5537,"Ġpix":5538,"Ġupon":5539,"EM":5540,"utor":5541,"Ġaxis":5542,"full":5543,"Store":5544,"Ġblue":5545,"ĠOct":5546,"ĠStr":5547,"Ġasympto":5548,"GB":5549,"unity":5550,"ctu":5551,"toString":5552,"Ġinc":5553,"Ne":5554,"Serial":5555,"ipage":5556,"Ġclassification":5557,"plugin":5558,"prote":5559,"Ġcoordinates":5560,"Results":5561,"gers":5562,"forms":5563,"bind":5564,"Ġprojection":5565,"Ġface":5566,"}&":5567,"comment":5568,"Clo":5569,"ĠĠĠĠĠĠĊ":5570,"minipage":5571,"omorphic":5572,"perim":5573,"###":5574,"Ġelectron":5575,"Ġvectors":5576,"2002":5577,"Ġtor":5578,"panel":5579,"Ġdark":5580,"RA":5581,"Ġcorrel":5582,"ĠNow":5583,"Ġbuilt":5584,"jpg":5585,"lapse":5586,"ingu":5587,"Ġsoftware":5588,"ĠHar":5589,"ĠHamiltonian":5590,"ĠPa":5591,"Ġpartition":5592,"Ġdepth":5593,"tool":5594,"_-":5595,"ĠWhile":5596,"Ġsignificantly":5597,"$~":5598,"icons":5599,"ares":5600,"pril":5601,"SA":5602,"structor":5603,"Ġexistence":5604,"equals":5605,"ĠCity":5606,"DIR":5607,"address":5608,"Ġexternal":5609,"double":5610,"AND":5611,"Ġbecame":5612,"hbar":5613,"Ġsys":5614,"Ġgrowth":5615,"assive":5616,"(:":5617,"ober":5618,"Ġseason":5619,"chieve":5620,"ouch":5621,"ĠCons":5622,"vm":5623,"oring":5624,"Ġundefined":5625,"click":5626,"Cal":5627,"pers":5628,"Ġstage":5629,"enum":5630,"%;":5631,"Ġbounds":5632,"Ġsend":5633,"Ġpackage":5634,"ĠMarch":5635,"inct":5636,"Ind":5637,"Ġinteractions":5638,"PL":5639,"Ġcurrently":5640,"aut":5641,"iffer":5642,"Sign":5643,"Ġprinciple":5644,"Ġrank":5645,"}{|":5646,"Ġconsists":5647,"avy":5648,"Ġcharg":5649,"Parameters":5650,"ham":5651,"GC":5652,"ĠBGCOLOR":5653,"Vector":5654,"Ġ})":5655,"ament":5656,"uid":5657,"Ġstrength":5658,"widget":5659,"}}$,":5660,"Ġoptimization":5661,"inu":5662,"SM":5663,"Ġdiscuss":5664,"msg":5665,"ĠBar":5666,"Ġstable":5667,"jected":5668,"Ġconsum":5669,"Ġagent":5670,"Ġoutside":5671,"scill":5672,")+\\":5673,"Ġgain":5674,"ission":5675,"entifier":5676,"Ġnature":5677,"-->":5678,"Ġtransaction":5679,"Ġgradient":5680,"Ġonline":5681,"Ġslow":5682,"Ġnames":5683,"Ġprim":5684,"}}$.":5685,"Project":5686,"ĠĠĠĠĠĠĠĠĠĠĠĠĠĠĠĠĠĠĠĠĠĠĠĠĠĠĠĠĠĠĠĠĠĠĠĠĠĠĠ":5687,"Ġprediction":5688,"zing":5689,"floor":5690,"ategories":5691,"Down":5692,"Ġcamp":5693,"padding":5694,")-\\":5695,"Ġcomes":5696,"ĠOR":5697,"displaystyle":5698,"Ġespecially":5699,"Ġtransformation":5700,"ilibrium":5701,"83":5702,"Ġdiagram":5703,"Ġprom":5704,"Ġaim":5705,"Ġ['":5706,"Ġagreement":5707,"Ġconstraint":5708,"diag":5709,"Ġintern":5710,"points":5711,"Ġlimited":5712,"Ġproduced":5713,"itions":5714,"Ptr":5715,"Device":5716,"Ġ\"\\":5717,"Non":5718,"mc":5719,"Ġprimary":5720,"rist":5721,"Ġevidence":5722,"tailed":5723,"ads":5724,"'],":5725,"Pass":5726,"uple":5727,"Ġgen":5728,"Ġpressure":5729,"Ġattention":5730,"Ġkernel":5731,"ĠSome":5732,"uler":5733,"Ġexperience":5734,"files":5735,"enn":5736,"Ġstarted":5737,"cer":5738,"Ġdig":5739,"Application":5740,"ĠMc":5741,"Ġextra":5742,"rown":5743,"ALL":5744,"Cor":5745,"Ġquite":5746,"Ġrecently":5747,"Ġsatisfy":5748,"ox":5749,"Ġcache":5750,"Ġstra":5751,"FR":5752,"Ġresources":5753,"Extension":5754,"PH":5755,"connection":5756,"blockList":5757,"Iter":5758,"Comple":5759,"Ġauthors":5760,"Ġnet":5761,"Ġtook":5762,"pid":5763,"[(":5764,"amely":5765,"PA":5766,"ĠGerm":5767,"Ġformation":5768,"ERROR":5769,"Graph":5770,"Classes":5771,":}":5772,"custom":5773,"shot":5774,"Operation":5775,"tribution":5776,"})$,":5777,"Ġreduce":5778,"Ġdatabase":5779,"Ð°Ð":5780,"ĠNot":5781,"Ġgraphs":5782,"ĠSu":5783,"lots":5784,"each":5785,"hover":5786,"but":5787,"onical":5788,"74":5789,"Ev":5790,"Render":5791,"Title":5792,"Ġachieve":5793,"Multi":5794,"byte":5795,"Ġusually":5796,"Ġdifficult":5797,"mb":5798,"rive":5799,"Di":5800,"Host":5801,"ĠMod":5802,"Ġflat":5803,"Ġdiscover":5804,"NR":5805,"GE":5806,"73":5807,"81":5808,"Ġstack":5809,"tember":5810,"forward":5811,"eness":5812,"Ġtell":5813,"Ġanalog":5814,"ck":5815,"ipeline":5816,"UM":5817,"estamp":5818,"impl":5819,"Ġnotation":5820,"ief":5821,"Ġforms":5822,"Ġfoot":5823,"ridge":5824,"ĠTrue":5825,"rb":5826,"Ġair":5827,"Ġfraction":5828,"ills":5829,"}\"":5830,"eptember":5831,"matically":5832,"dependency":5833,"Ġoscill":5834,"Ġnational":5835,"ictionary":5836,"channel":5837,"Ġ$|\\":5838,"GET":5839,"Ġparse":5840,"Ġwaves":5841,"short":5842,"Ġdetect":5843,"tor":5844,"Ġfeed":5845,"elves":5846,"vas":5847,"mat":5848,"79":5849,"Ġ^":5850,"Ġestablish":5851,"Ġdel":5852,"Num":5853,"Names":5854,"Ġpor":5855,"Each":5856,"ipal":5857,"Record":5858,"Ġslight":5859,"Ġtowards":5860,"Ġfailed":5861,"ariance":5862,"cond":5863,"Ġsquare":5864,"Ġengine":5865,"amental":5866,"Ġassumed":5867,"Ġdiscussion":5868,"Ġitems":5869,"Ġtests":5870,"Ġpublished":5871,"uri":5872,"INE":5873,"Ġdelete":5874,"ĠCheck":5875,"Ġlargest":5876,"Ġcapture":5877,"success":5878,"||":5879,"SION":5880,"400":5881,"Ġtrack":5882,"Metadata":5883,"$),":5884,"Draw":5885,"replace":5886,"annotation":5887,"))$":5888,"Ġthought":5889,"ĠJune":5890,"TER":5891,"Rect":5892,"ĠĠĠĠĠĠĠĠĠĠĠĠĠĠĠĠĠĠ":5893,"oice":5894,"ĠChar":5895,"handle":5896,"cover":5897,"fect":5898,"Ġattr":5899,"ovember":5900,"Ġinsp":5901,",$":5902,"DA":5903,"Ġreplace":5904,"Ġinfo":5905,"Ġeffor":5906,"Ġtool":5907,"BA":5908,"ĠMo":5909,"hr":5910,"}$)":5911,"Ġlayers":5912,"sy":5913,"ORM":5914,"Definition":5915,"Values":5916,"adoop":5917,"lar":5918,"=\"../../../":5919,"aking":5920,"nov":5921,"Ġ..":5922,"Ġarm":5923,"zer":5924,"Ġstore":5925,"lesssim":5926,"bur":5927,"framework":5928,"det":5929,"ĠDate":5930,"ias":5931,"exports":5932,"Ġbul":5933,"Ġdifferential":5934,"Ġcontributions":5935,"Ġsecurity":5936,"See":5937,"cccc":5938,"export":5939,"Red":5940,"Ġchalleng":5941,"Hz":5942,"1999":5943,"Ġplayer":5944,"Ġprotocol":5945,"Ġsituation":5946,"Handle":5947,"Ġ\\(\\":5948,"mut":5949,"anning":5950,"Ġgalaxy":5951,"dest":5952,"tish":5953,"Ġoptical":5954,"Ġformal":5955,"foo":5956,"Ġthreshold":5957,"'re":5958,")}_{":5959,"initial":5960,"Ġoverall":5961,"ĠAct":5962,"Ġappropriate":5963,"Ġlib":5964,"ifically":5965,"Ġimag":5966,"Sum":5967,"olved":5968,"hic":5969,"ĠJuly":5970,"material":5971,"Ġstation":5972,"stable":5973,"greg":5974,"Ġinvoke":5975,"weight":5976,"Using":5977,"domain":5978,"Ġsong":5979,"Ġgeneration":5980,",\\\\":5981,"External":5982,"Sk":5983,"toggle":5984,"Ġshare":5985,"Ġconcern":5986,"oundation":5987,">();":5988,"Core":5989,"Ġmorph":5990,"ATH":5991,"media":5992,"ORD":5993,"ĠEqu":5994,"Ġregime":5995,"-$":5996,"ellow":5997,"Port":5998,"Ġtechniques":5999,"Ġrelease":6000,"equal":6001,"Ġcame":6002,"Ġsetup":6003,"ford":6004,"Ġvanish":6005,"Ġarticle":6006,"ĠApril":6007,"Api":6008,"settings":6009,"virtual":6010,"Cap":6011,"Introduction":6012,"BR":6013,"while":6014,"False":6015,"ured":6016,"Ġcontrast":6017,"These":6018,"cong":6019,">.":6020,"Ke":6021,"256":6022,"Invalid":6023,"Ġactions":6024,"Ġconclude":6025,"Ġdevi":6026,"Ġunits":6027,"Ġmolec":6028,"sequently":6029,"Ġyoung":6030,"Enc":6031,"ĠNorth":6032,"Ġlearn":6033,"legate":6034,"Mock":6035,"plugins":6036,"Ġscattering":6037,"Ġtraject":6038,"Ġcompan":6039,"ixture":6040,"Ġproduce":6041,"ĠAfric":6042,"Ġdatasets":6043,"PU":6044,"Ġfrag":6045,")}}":6046,"Package":6047,"Ġpure":6048,"dy":6049,"`.":6050,"rela":6051,"hbox":6052,"Ġreson":6053,"Ġalthough":6054,"Ġreduction":6055,"Ġappears":6056,"ĠWeb":6057,"Ġmatching":6058,",\\,\\":6059,"}({\\":6060,"Ġtoday":6061,"application":6062,"Ġeq":6063,"uit":6064,"Ġsl":6065,"Imp":6066,"Reader":6067,"71":6068,"ogeneous":6069,"webkit":6070,"arks":6071,"region":6072,"ca":6073,"Tab":6074,"WE":6075,"Ġangular":6076,"Stack":6077,"Ġpassed":6078,"shape":6079,"Ġvisual":6080,"\")]":6081,"Que":6082,"Ġbeg":6083,"Ġround":6084,"(*":6085,"algorithm":6086,"semble":6087,"Ġmeasures":6088,"ĉĉĉĊ":6089,"Ġareas":6090,"Ġtele":6091,"ĠIm":6092,"Ġlocated":6093,"Ġcomputation":6094,"Ġtransport":6095,")).":6096,"$};":6097,"Ġ++":6098,"Ġthread":6099,"Ġpolitical":6100,"Ġinit":6101,"angular":6102,"fn":6103,"Ġfeel":6104,"Ġgreater":6105,"erg":6106,"Ġliterature":6107,"paragraph":6108,"ĠJSON":6109,"Ġexhib":6110,"Byte":6111,"Ġhypo":6112,"Ġamplitude":6113,"Ġwriting":6114,"SR":6115,"}{(":6116,"focus":6117,"Ġidentify":6118,"bon":6119,"numer":6120,"Ġconserv":6121,"Ġgenerally":6122,"Ġbyte":6123,"Therefore":6124,"Ġradio":6125,"Ġindicates":6126,"Ġshift":6127,"resp":6128,"Ġoccur":6129,"Ġhol":6130,"Ġdriv":6131,"yond":6132,"cus":6133,"ĠTrans":6134,"thern":6135,"]}":6136,"Ġapi":6137,"Ġconvex":6138,"Ġcomplexity":6139,"Ġgap":6140,"Ġuncertainty":6141,"ustral":6142,"Ġteach":6143,"atible":6144,"&=&":6145,"Ġdeli":6146,"Ġraise":6147,"dash":6148,"ĠMed":6149,"Ġemer":6150,"tw":6151,"Ġmapping":6152,"coin":6153,"oom":6154,"Ġcontainer":6155,"ancial":6156,"Ġadmin":6157,"ĠCE":6158,"'))":6159,"hadoop":6160,"ierarch":6161,"Ġremaining":6162,"CR":6163,"Ġobservation":6164,"Ø§":6165,"ians":6166,"ĠRun":6167,"Ġcombination":6168,"Ġetc":6169,"Bl":6170,"ĠAg":6171,"DL":6172,"Ġmeaning":6173,"Var":6174,"ĠLO":6175,"ducing":6176,"Ġcov":6177,"Ġaccept":6178,"Ġexpon":6179,"ĠPe":6180,"You":6181,"ĠDecember":6182,"Ġseems":6183,"My":6184,"----------------------------------------------------------------":6185,"Ġmasses":6186,"Ġ[\\":6187,"ĠError":6188,"axis":6189,"Ġcomputational":6190,"Ġidentified":6191,"Ġunsigned":6192,"ĠHigh":6193,"Ġestablished":6194,"Ġasp":6195,"Ġlemma":6196,"dfrac":6197,"ĠĠĠĠĠĠĠĠĠĠĠĠĠĠĠĠĠĠĠĠĠĠĠĠĠĠĠĠĠĠĠĠĠĠĠĠĠĠĠĠĠĠĠĠĠĠĠĠĠĠĠĠĠĠĠĠĠĠĠĠĠĠĠĠ":6198,"utive":6199,"ociety":6200,"plot":6201,"sia":6202,"ands":6203,"circle":6204,"ĠInt":6205,"icker":6206,"disabled":6207,"ymmetric":6208,"margin":6209,"tein":6210,"ened":6211,"ĠRE":6212,";<":6213,"cpp":6214,"160":6215,"ĠSeptember":6216,"ĠRev":6217,"Ġbeam":6218,"Ġvertical":6219,"Ġminimal":6220,"SET":6221,"Ġos":6222,"Delete":6223,"Ġrepresented":6224,"Ġweights":6225,"ĠPre":6226,"Ġnovel":6227,"HTML":6228,"Finally":6229,"Argument":6230,"Param":6231,"tun":6232,"Go":6233,"Ġofficial":6234,"itch":6235,"Ġpreviously":6236,"Ġtax":6237,"Ġdetailed":6238,"Ġtermin":6239,"Ġheader":6240,"Ġmechanism":6241,"Ġmagnitude":6242,"Bytes":6243,"Ġlive":6244,")),":6245,"ĠCON":6246,"Args":6247,"Ġguaran":6248,"ench":6249,"ĠAssert":6250,"ĠName":6251,"iral":6252,"register":6253,"Ġcalculations":6254,"Ġbehavi":6255,"Ġ'/":6256,"Ġhouse":6257,"ĠOctober":6258,"Vari":6259,"bel":6260,"Symfony":6261,"Ġtempor":6262,"diff":6263,"Ġscaling":6264,"pite":6265,"Ġstraight":6266,"Ġcontact":6267,"__(":6268,"ĠFinally":6269,"stitute":6270,"none":6271,"Ġmix":6272,"\\}$.":6273,"Ġhidden":6274,"wp":6275,"Ġmentioned":6276,"Click":6277,"Ġproducts":6278,"Ġjson":6279,"enced":6280,"ĠHTML":6281,"Cons":6282,"two":6283,"Ġenh":6284,"istent":6285,"Ġcriter":6286,"Ġcalculation":6287,"[-":6288,"ĠTime":6289,"}[\\":6290,"access":6291,"Ġcalculate":6292,"Ġelect":6293,"Ġincor":6294,"Ġinduced":6295,"Parent":6296,"oti":6297,"Ġqual":6298,"ucture":6299,"ĠRus":6300,"parameters":6301,"Ġcause":6302,"ĠBri":6303,"iet":6304,"FAULT":6305,"El":6306,"Ġdimensions":6307,"]$.":6308,"ĠAugust":6309,"ĠNovember":6310,"$:":6311,"bmatrix":6312,"Main":6313,"ĠAlso":6314,"bing":6315,"Ġredsh":6316,"iders":6317,"ĠVal":6318,"Ġunknown":6319,"mock":6320,"cro":6321,"vised":6322,"loop":6323,"Ġwait":6324,"pub":6325,"Ġbin":6326,"hs":6327,"store":6328,"ĠSU":6329,"Ġdirectory":6330,"Kind":6331,"Policy":6332,"Ġpati":6333,"Ġbr":6334,"Ġmicro":6335,"Ġdiscrete":6336,"Ġdenoted":6337,"istance":6338,"irit":6339,"bt":6340,"endar":6341,"wrap":6342,"\"\"\"":6343,"Debug":6344,"ĠWhat":6345,"Ġnamespace":6346,"aws":6347,"Ġblocks":6348,"GS":6349,"limit":6350,"Ġpopular":6351,"Ġvary":6352,"Bound":6353,"Ġ{$":6354,":=":6355,"yes":6356,"Ġcat":6357,"ĠCour":6358,"ĠHis":6359,"ĠRed":6360,"Ġcompe":6361,"boolean":6362,"exists":6363,"Ġreleased":6364,"Boolean":6365,"Ġtesting":6366,"antic":6367,"))\\":6368,"END":6369,"Sta":6370,"Ġmath":6371,"admin":6372,"related":6373,"email":6374,"CF":6375,"chastic":6376,"ĠResearch":6377,"Ġabsor":6378,"Ġcompletely":6379,"ille":6380,"notation":6381,"Ġtheoretical":6382,"Ġfinally":6383,"Ġchanged":6384,"mass":6385,"cil":6386,"ores":6387,"Ġclearly":6388,"Ġreve":6389,"Pe":6390,"Dialog":6391,"flu":6392,"Ġpers":6393,"Ġnamed":6394,"mos":6395,"Enabled":6396,"ancy":6397,"ĠDav":6398,"ention":6399,"ras":6400,"Ġstop":6401,"Ġtriv":6402,"radius":6403,"Ġclusters":6404,"Ġbeyond":6405,"Ġgeometry":6406,"ervices":6407,"Ġtrained":6408,"Ġpractice":6409,"ĠUser":6410,"War":6411,"keys":6412,"grid":6413,"stats":6414,"Has":6415,"NE":6416,"ĠCounty":6417,"Ã³":6418,"Any":6419,"install":6420,"^*$":6421,"OM":6422,"Ġconnect":6423,"argument":6424,"sql":6425,"blem":6426,"Mark":6427,"ticles":6428,"Ġrelationship":6429,"stri":6430,"Ġ<=":6431,"Ġparallel":6432,"Ġstrongly":6433,"Ġrotation":6434,"connect":6435,"UP":6436,"sport":6437,"Ġinvolved":6438,"Ġproved":6439,"Ġfluctu":6440,"Rou":6441,"protobuf":6442,"Ġscore":6443,"Ġcry":6444,"osity":6445,"Ġscenario":6446,"Changed":6447,"illing":6448,"ĠMap":6449,"bp":6450,"Ġrisk":6451,")--":6452,"Ġener":6453,"Ġcycle":6454,"Ġentity":6455,"vs":6456,"Ġ('":6457,"ĠMa":6458,"reedom":6459,"mediately":6460,"ĠWest":6461,"vee":6462,"Ġhighly":6463,"Ġmachine":6464,"udes":6465,"ĠWork":6466,"Ġscreen":6467,"Ġmetal":6468,"}\\,\\":6469,"Ġentropy":6470,"Ġscales":6471,"Ġalbum":6472,"Ġcollision":6473,"ria":6474,"Storage":6475,"lat":6476,"_;":6477,"generate":6478,"ĠExp":6479,"ĠIO":6480,"Ġneural":6481,"opic":6482,"Ġconsidering":6483,"properties":6484,"callback":6485,"MR":6486,"aff":6487,"lemented":6488,"Ġexam":6489,"Ġpiec":6490,"van":6491,"Ġdoing":6492,"=\"\">":6493,"Rule":6494,"ĠPy":6495,"Ġcoefficient":6496,"Ġestimation":6497,"]$,":6498,"enomen":6499,"Ġearlier":6500,"Ġsatisfying":6501,"Ġplatform":6502,"emptyset":6503,"contrib":6504,"Ġgames":6505,"ĠRequ":6506,"Direct":6507,"Ġrecall":6508,"cut":6509,"Ġevaluation":6510,"Ġjavax":6511,"win":6512,"ĠUsing":6513,"oul":6514,"Ġlibrary":6515,">\\":6516,"inline":6517,"VID":6518,"Ġneighbor":6519,"green":6520,"=\"@":6521,"}})":6522,"Can":6523,"Ġfast":6524,"ude":6525,"$_{":6526,"avel":6527,"Ġsus":6528,"Channel":6529,"Ġideal":6530,"ague":6531,"Ġheld":6532,"Ġfunctional":6533,"Ġinternational":6534,"items":6535,"imilarly":6536,"well":6537,"EC":6538,"Ġmut":6539,"ĠEach":6540,"Ġcoordinate":6541,"CTION":6542,"ĠPresident":6543,"Ġkine":6544,"tfrac":6545,"Eng":6546,"Cre":6547,"Ġcountries":6548,"DI":6549,"rd":6550,"ĠIS":6551,"Fields":6552,"ĠDire":6553,"luster":6554,"Xml":6555,"Ġring":6556,"called":6557,"Load":6558,"TED":6559,"ĠOut":6560,"asc":6561,"eries":6562,"BS":6563,"parison":6564,"imes":6565,"itz":6566,"romise":6567,"1998":6568,"128":6569,"Ġfundamental":6570,"ĠAmerica":6571,"ĠOpen":6572,"pay":6573,"Ġrelatively":6574,"`,":6575,"Ġpropor":6576,"Ġsingular":6577,"Ġmodified":6578,"omb":6579,"ha":6580,"Ġalt":6581,"})}":6582,"tracted":6583,"\\;":6584,"Ġdistinct":6585,"jquery":6586,"Ġthing":6587,"Ġpush":6588,"Ġopport":6589,"Ġbytes":6590,"Ġever":6591,"uli":6592,"TC":6593,"ĠVol":6594,"aign":6595,"Ġconcent":6596,"ington":6597,"Writer":6598,"ĠValue":6599,"Ġunderlying":6600,"ĠChris":6601,"Ġ\\]":6602,"track":6603,"Ġutil":6604,"iciently":6605,"Ġverify":6606,"Ġsolve":6607,"ĠAustral":6608,"Ġways":6609,"ÃŃ":6610,"BL":6611,"Ġ(\"":6612,"fly":6613,"Ġappe":6614,"Ġdidn":6615,"engine":6616,"sitivity":6617,"joint":6618,"Te":6619,"aring":6620,"ĠMethod":6621,"Ġthick":6622,"OK":6623,"Show":6624,"total":6625,"Ġdifferences":6626,"ĠForm":6627,"What":6628,"Ġestim":6629,"ĠOther":6630,"Ġsubgroup":6631,"Ġvisit":6632,"ĠĠĠĠĠĠĠĠĠĠĠĠĠĠĠĠĠĠĠĠĠĠĠĠĠ":6633,"DS":6634,"alled":6635,"extension":6636,"asons":6637,"Active":6638,"}}_{\\":6639,"grams":6640,"legal":6641,"password":6642,"ĠFurthermore":6643,"onomic":6644,"|}{":6645,"Ġbtn":6646,"Body":6647,"triv":6648,"Tool":6649,"mi":6650,"ĠAccording":6651,"ĠNOT":6652,"Ġrobust":6653,"Ġevaluate":6654,"nn":6655,"Ġsound":6656,"Ġdynamic":6657,"anger":6658,"Ġthroughout":6659,"But":6660,"enge":6661,"ederal":6662,"rams":6663,"Ġsummar":6664,"Ġlabels":6665,"cb":6666,"network":6667,"Display":6668,"Ġcharacters":6669,"aver":6670,"condition":6671,"ĠGroup":6672,"columnwidth":6673,"Queue":6674,"Ġpurpose":6675,"oph":6676,"Ġshared":6677,"Ġfollowed":6678,"?:":6679,"urations":6680,"Ġnor":6681,"Ġactivity":6682,"Ġconstants":6683,"Ġconcept":6684,"Ġindicate":6685,"AGE":6686,"Perm":6687,"JSON":6688,"ondon":6689,"Ġconstructed":6690,"bruary":6691,"Ġcontained":6692,"ferences":6693,"rew":6694,"ĠTe":6695,";/":6696,"ATA":6697,"$&":6698,"cmd":6699,"rot":6700,"bigl":6701,"Ġmask":6702,"Ġsufficient":6703,"holder":6704,"ini":6705,"rong":6706,"dict":6707,"}}}\\":6708,"Ap":6709,"Ġvariety":6710,"incipal":6711,"TEST":6712,"tsd":6713,"mann":6714,"Post":6715,"Ġexpressed":6716,"Ġtreatment":6717,"Ġadvan":6718,"Ġsampling":6719,"stry":6720,"such":6721,"ilities":6722,"Ġnucle":6723,"ĠIsl":6724,"Ġinvest":6725,"Custom":6726,"Ġplayers":6727,"Ġjoint":6728,"Ġdb":6729,"Ġcop":6730,"RR":6731,"aders":6732,"gies":6733,"Ġled":6734,"Send":6735,"witter":6736,"ĠDr":6737,"Ġwallet":6738,"Ġhighest":6739,"orter":6740,"VERSION":6741,"Ġinline":6742,"ĠEnglish":6743,"ĠAm":6744,"Ġwent":6745,"Ġcred":6746,"wner":6747,"irth":6748,"Ġthermal":6749,"uel":6750,"Root":6751,".*":6752,"Ġquestions":6753,"dp":6754,"large":6755,"Ġdecomposition":6756,"Inv":6757,"Ġ^{":6758,"Ġefficiency":6759,"arc":6760,"Job":6761,"bigr":6762,"}}.":6763,"Ġremoved":6764,"Network":6765,"nother":6766,"Ġsimpl":6767,"Ġinverse":6768,"Ġrecomm":6769,"======":6770,"Ġyield":6771,"ingle":6772,"Ġhtml":6773,"Ġannoun":6774,"ĠCenter":6775,"Ġclean":6776,"PRE":6777,"ĠKing":6778,"Initial":6779,"Ġda":6780,"rad":6781,"ilitary":6782,"Ġslightly":6783,"scriptsize":6784,"Ġ),":6785,"alf":6786,"ollowing":6787,"Descriptor":6788,"Ġsections":6789,"Ġnotice":6790,"ĠĠĠĠĠĠĠĠĠĠĠĠĠĠĠĠĠĠĠĠĠĠĠĠ":6791,"ĠMich":6792,"Ġtrace":6793,"rome":6794,"URE":6795,"Car":6796,"utf":6797,"ĠVir":6798,"Ġfront":6799,"otal":6800,"Ġlimits":6801,"Ġreli":6802,"Transaction":6803,"slant":6804,"120":6805,"augh":6806,"onomy":6807,"Ġdesigned":6808,"Ġrepresentations":6809,"home":6810,"]{\\":6811,"Ġ\"/":6812,"ĠĠĠĠĠĠĠĠĠĠĠĠĠĠĠĠĠĠĠĠĠĠ":6813,"ursor":6814,"move":6815,"Ġconfir":6816,"Ġbelieve":6817,"fi":6818,"Ġchem":6819,"})=":6820,"Ġ(*":6821,"tained":6822,"Ġencoding":6823,"enter":6824,"apan":6825,"Ġpaths":6826,"Ġimmediately":6827,"syn":6828,"Ġbutton":6829,"Ġdepending":6830,"kw":6831,"ki":6832,"ĠURL":6833,"Ġmonths":6834,"Ġphysics":6835,"Ġattributes":6836,"Ġequilibrium":6837,"rays":6838,"BP":6839,"edit":6840,"spring":6841,"ano":6842,"Ġutili":6843,"Ġpseud":6844,"ĠAppendix":6845,"While":6846,"Ġexplicitly":6847,"Ġtypical":6848,"Ġdesired":6849,"JECT":6850,"scroll":6851,"Meta":6852,"aser":6853,"language":6854,"ĠScience":6855,"Ġparticularly":6856,"tip":6857,"ĠTra":6858,"Ġconclu":6859,"Ġalloc":6860,"Ġcomment":6861,"fol":6862,"ĠHouse":6863,"UID":6864,"123":6865,"ĠEar":6866,"ĠGeneral":6867,"Ð»":6868,"uy":6869,",{\\":6870,"ĠBro":6871,"osing":6872,"ById":6873,"Example":6874,"ACE":6875,"Obj":6876,"Ġphenomen":6877,"ches":6878,"Ġarchitecture":6879,"slash":6880,"Tra":6881,"Proof":6882,"Ġextend":6883,"Ġbad":6884,"WS":6885,"Expr":6886,"DP":6887,"ifies":6888,"lg":6889,"TS":6890,"Ġanswer":6891,"}}^{\\":6892,"Ġpick":6893,"ĠService":6894,"sets":6895,"Ġelectric":6896,"Ġunderstanding":6897,"Ġcyc":6898,"Ġlack":6899,"horizontal":6900,"Auto":6901,"Ġpy":6902,"KEY":6903,"chain":6904,"Ġoccurs":6905,"Pa":6906,"'.":6907,"atur":6908,"Ġvisible":6909,"mathop":6910,"schema":6911,"Ġmanagement":6912,"Ġbegan":6913,"erve":6914,"single":6915,"ĠUse":6916,")))":6917,"Ġsci":6918,"ĠEuropean":6919,"Ġinher":6920,"figures":6921,"termin":6922,"Ġacqu":6923,"algebra":6924,"sively":6925,"PAR":6926,"Ġconsole":6927,"Ġsort":6928,"Ġincreased":6929,"Ġexclu":6930,"ĠCre":6931,"Ġcomputer":6932,"Ġshowed":6933,"Ġmsg":6934,"Ġten":6935,"Ġpoly":6936,"çļ":6937,"Ġhole":6938,"ĠÃ":6939,"Ġnews":6940,"ĠInternational":6941,"ĠSan":6942,"Ġexpress":6943,"ITY":6944,"ifi":6945,"coded":6946,"Ġquick":6947,"Ġobvious":6948,"inclu":6949,"family":6950,"tick":6951,"Ġperfect":6952,"çļĦ":6953,"warm":6954,"coming":6955,"itive":6956,"Ġsufficiently":6957,"insert":6958,"mathit":6959,"Ġdetected":6960,"mf":6961,"Ġtun":6962,"uge":6963,"ĠDepartment":6964,"profile":6965,"thread":6966,"150":6967,"formal":6968,"queue":6969,"reme":6970,"ades":6971,"phot":6972,"Ġassumptions":6973,"Before":6974,"Ġdro":6975,"ida":6976,"Ġ%}":6977,"Ġobjective":6978,"IX":6979,"napshot":6980,"ĠBay":6981,"/(":6982,"gex":6983,"Ġlove":6984,"Ġcombined":6985,"Ġvehic":6986,"help":6987,"Ġachieved":6988,"Ñĥ":6989,"events":6990,"Ġmaximal":6991,"Ġ\\!":6992,"Ġconstit":6993,"Am":6994,"Ġcommunication":6995,"Ġpersonal":6996,"Ġquasi":6997,"Ġapplying":6998,"actic":6999,"Ġpositions":7000,"Items":7001,"........":7002,"Ġprocessing":7003,"when":7004,"atively":7005,"FILE":7006,".__":7007,"ĠChina":7008,"^{*":7009,"Ġonto":7010,"Ġrecogn":7011,"Ġprefer":7012,"Activity":7013,"DR":7014,"tian":7015,"Ljava":7016,"Ġtypically":7017,"})^":7018,"Ġkeys":7019,"@\"":7020,"Ġmoney":7021,"STATE":7022,"multirow":7023,"ifts":7024,"Lemma":7025,"Ġentries":7026,"SSERT":7027,"oks":7028,"stan":7029,"Ġbias":7030,"ailed":7031,"exception":7032,"anguage":7033,"gment":7034,"Ġshowing":7035,"Ġlock":7036,"ĠLa":7037,"hav":7038,"Ġmiddle":7039,"general":7040,"git":7041,"addr":7042,"ĠassertEquals":7043,"Ġintegration":7044,"Ġdrop":7045,"enses":7046,"hol":7047,"Ġextract":7048,"Ġprogress":7049,"Widget":7050,"Ġability":7051,"prob":7052,"keyword":7053,"Ġbeginning":7054,"Bit":7055,"[:":7056,"phys":7057,"Ġstrateg":7058,"BE":7059,"poch":7060,"txt":7061,"Ġnothing":7062,"vature":7063,"random":7064,"unsigned":7065,"ĠAL":7066,"ico":7067,"assets":7068,"Ġdiagonal":7069,"Ġunless":7070,"Ġreader":7071,"since":7072,"Ġcolumns":7073,"Ġbehind":7074,"Build":7075,"product":7076,"Ġtold":7077,"ucket":7078,"################":7079,"flat":7080,"tikzpicture":7081,"DC":7082,"Ġefficient":7083,"anges":7084,"words":7085,"dire":7086,"Ġimplemented":7087,"ena":7088,"brid":7089,"nel":7090,"illa":7091,"ivil":7092,"isely":7093,"optim":7094,"save":7095,"Ġpredictions":7096,"Ġodd":7097,"ĠComm":7098,"Ġhistor":7099,"Ġstability":7100,"rang":7101,"Ġirre":7102,"longrightarrow":7103,"Ġplayed":7104,"Ġdelay":7105,"wild":7106,"iota":7107,"Ġacceler":7108,"${\\":7109,"ourier":7110,"cloud":7111,"Ġinstanceof":7112,"Ġruns":7113,"\\}\\":7114,"Ġmid":7115,"symbol":7116,"Windows":7117,"Ġdust":7118,"Ġstatistical":7119,"Ġapproximately":7120,"trivial":7121,"emes":7122,"Ġul":7123,"selected":7124,")}_":7125,"Ġjud":7126,"oy":7127,"\\}$,":7128,"ĠFebruary":7129,"verti":7130,"Ġvariation":7131,"important":7132,"Ġnamely":7133,"Float":7134,"}|\\":7135,"ĠFalse":7136,"Ġchannels":7137,"Internal":7138,"primary":7139,"Ġpredicted":7140,"magnetic":7141,"}_{-":7142,"Ġextr":7143,"cho":7144,"Hence":7145,"Ġindustry":7146,"]:":7147,"lyph":7148,"subsec":7149,"pk":7150,"\">&":7151,"Ġion":7152,"ued":7153,"Ġproceed":7154,"bot":7155,"controller":7156,"Grid":7157,"lb":7158,"Lock":7159,"Ġmanifold":7160,"zh":7161,"Ġicon":7162,"(!":7163,"Ġmissing":7164,"\\|\\":7165,"trl":7166,"Ġsugg":7167,"Only":7168,"ĠLag":7169,"Pop":7170,"Ġcells":7171,"Scope":7172,"Ġcapacity":7173,"Ġsuggest":7174,"Ġcandidate":7175,"VM":7176,"}$}":7177,"Ġsector":7178,"Ġpropose":7179,"Ġconsequence":7180,"ĠLondon":7181,"(){":7182,"////////////////////////////////":7183,"1997":7184,"Ġhit":7185,"Ġfib":7186,"generated":7187,"Ġreplaced":7188,"Ġmassive":7189,"Ġinfluence":7190,"Ġjus":7191,"MT":7192,"Ġderive":7193,"Ġimm":7194,")&":7195,"][]{":7196,"Ġiden":7197,"ĠEvent":7198,"ango":7199,"ĠHealth":7200,"sys":7201,"Ġgravit":7202,"Ġeducation":7203,"Edit":7204,"entication":7205,"bib":7206,"Character":7207,"Ġintr":7208,"formations":7209,"lig":7210,"ĠGod":7211,"Ġassess":7212,"etal":7213,"|}":7214,"Ġdegrees":7215,"relation":7216,"istics":7217,"iteral":7218,"ĠDem":7219,"Ġferm":7220,"Ġderivative":7221,"Ġtrade":7222,"missions":7223,"iring":7224,"Ġwatch":7225,"formed":7226,"sen":7227,"Ġmock":7228,"Msg":7229,"Ġ}{":7230,"ĠIndeed":7231,"ua":7232,"olar":7233,"Ġcm":7234,"Ġupdated":7235,"Ġsummary":7236,"master":7237,"Ġfair":7238,"Ġsemi":7239,"tified":7240,"ĠGoogle":7241,"Ġbring":7242,"ĠWilli":7243,"iggs":7244,"Ġcomputing":7245,"poses":7246,"har":7247,"Ġpointer":7248,"GR":7249,"ĠCopy":7250,"Ġphoton":7251,"Ġnonlinear":7252,"Ġtown":7253,"]]":7254,"aved":7255,"ĠHow":7256,"desc":7257,"Ġalternative":7258,"Ġpreserv":7259,"acc":7260,"fail":7261,"ĠTHE":7262,"unt":7263,"igration":7264,"sort":7265,"nes":7266,"...,":7267,"Ġcoming":7268,"DM":7269,"ĠExample":7270,"aset":7271,"Ġconj":7272,"trigger":7273,"Ġmaxim":7274,"Ġindeed":7275,"ĠCourt":7276,"-(":7277,"Ġsatisfied":7278,"ĠDi":7279,"Ġgeneric":7280,"Ġbos":7281,"Ġdx":7282,"Ġdemand":7283,"ĠAir":7284,"}~":7285,"ĠBritish":7286,"raint":7287,"Ġreceive":7288,"Given":7289,"Ġlooking":7290,"olver":7291,"dropdown":7292,"ARY":7293,"Timeout":7294,"anted":7295,"pair":7296,"aults":7297,"[$":7298,"Ġlocally":7299,"Ġoppo":7300,"Ġgreen":7301,"notag":7302,"rank":7303,"Ġextrem":7304,"switch":7305,"Ġtechnology":7306,"Ġ}}":7307,"icrosoft":7308,"HS":7309,"Ġtrivial":7310,"tiny":7311,"Ġfinancial":7312,"ologies":7313,"va":7314,"1996":7315,"Ġcloud":7316,"=\"${":7317,"km":7318,"Ġfreedom":7319,"Ġaffect":7320,"Ġmoving":7321,"Rece":7322,"ociation":7323,"Ġinstances":7324,"vartheta":7325,"ĠCode":7326,"Ġspecify":7327,")[":7328,"uby":7329,"Ġadop":7330,"Ġcontrad":7331,"andra":7332,"Ġenergies":7333,"Ġcharacteristic":7334,"Ġpen":7335,"Ġreserv":7336,"gan":7337,"DT":7338,"Ġwhereas":7339,"elihood":7340,"Ġseparate":7341,"ibration":7342,"Ġdistingu":7343,"Ġparty":7344,"$/":7345,"alloc":7346,"Conf":7347,"CI":7348,"Ġbrief":7349,"reet":7350,"ubble":7351,"Ġhours":7352,"ĠSw":7353,"Ġsizes":7354,"uminosity":7355,"Ġund":7356,"vergence":7357,"=.":7358,"Ġprobably":7359,"Ġball":7360,"Ġ{{":7361,"ĠNO":7362,"ny":7363,"ientation":7364,"^{(\\":7365,")})":7366,"Ġflag":7367,"names":7368,"ĠSO":7369,"Ġcareer":7370,"rench":7371,"XT":7372,"Ġ$,":7373,"inher":7374,"Ġthems":7375,"Ġtopological":7376,"=\"\"":7377,"sect":7378,"ĠHol":7379,"Ġspecies":7380,"ady":7381,"sertion":7382,"}}=":7383,"Ġnuclear":7384,"medskip":7385,"Ġ[];":7386,"Ġtechnique":7387,"Ġmetrics":7388,"Ġgoes":7389,"MOD":7390,"Ġadding":7391,"Ġrepro":7392,"Ġasymptotic":7393,"Scale":7394,"Security":7395,"Ġwall":7396,"Logger":7397,"Ġcanonical":7398,"Ġsym":7399,"ĠLie":7400,"andard":7401,"Ġhydro":7402,"Account":7403,"Ġmessages":7404,"Ġleaders":7405,"Ġthemselves":7406,"ĠIP":7407,"ĠIndia":7408,"ĠLaw":7409,"Assert":7410,"kin":7411,"Ġvariance":7412,"Ġfine":7413,"()));":7414,"ĠEl":7415,"_->":7416,":=\\":7417,"Ġart":7418,"external":7419,"Ġorth":7420,"continu":7421,"bras":7422,"attle":7423,"ĠGovern":7424,"ULE":7425,"FS":7426,"Ġexchange":7427,"Ġgets":7428,"Ġcompanies":7429,"ĠBase":7430,"oting":7431,"ites":7432,"ilation":7433,"Ġharmon":7434,"IST":7435,"configuration":7436,"Ġmotiv":7437,"____":7438,"Symbol":7439,"Ġcourt":7440,"ancel":7441,"Ġsequences":7442,"screen":7443,"NG":7444,"functions":7445,"Ġtrigger":7446,"Ġsaf":7447,"vc":7448,"Loader":7449,"para":7450,"ĠOper":7451,"asic":7452,"SIZE":7453,"Ġemail":7454,"ĠEnd":7455,"ski":7456,"Ġpossi":7457,"Ġstorage":7458,"Ġvs":7459,"Ġng":7460,"Panel":7461,"ĠUK":7462,"Ġlaunch":7463,"typeof":7464,"Ġnearly":7465,"ĠText":7466,"Ã¤":7467,"antom":7468,"ĠIR":7469,"Ġtal":7470,"Ġattempt":7471,"LOG":7472,"echo":7473,"Ġfire":7474,"Ġmeta":7475,"Consider":7476,"Pool":7477,"complete":7478,"ĠGal":7479,"Ġbundle":7480,"ï¼":7481,";\\;\\":7482,"okie":7483,"scripts":7484,"tools":7485,"ĠAuth":7486,"pare":7487,"Ġoccup":7488,"Ġsqu":7489,"PATH":7490,"Sample":7491,"istence":7492,"fixed":7493,"ĠGreen":7494,"Ġstochastic":7495,"throws":7496,"iforn":7497,"Ġmixed":7498,"ĠDir":7499,"ĠAlthough":7500,"Ġ=========":7501,"mult":7502,"La":7503,"stop":7504,"Ġusual":7505,"Ġfinding":7506,"Ġcoinc":7507,"Matrix":7508,"TABLE":7509,"gebras":7510,"oe":7511,"Ġspher":7512,"NavBarCell":7513,"grad":7514,"pool":7515,"Ġcentury":7516,"Ġscript":7517,"parator":7518,"Ġtravel":7519,"ĠBlack":7520,"spin":7521,"record":7522,"Ġdiscre":7523,"avelength":7524,"Ġexpand":7525,"Media":7526,"anks":7527,"Ġexplan":7528,"Ġfunc":7529,"hidden":7530,"rich":7531,"Ġinstr":7532,"()).":7533,"intro":7534,"Ġisomorphism":7535,"pres":7536,"Ġrect":7537,"MENT":7538,"MAX":7539,"ĠJapan":7540,"loyment":7541,"navList":7542,"ocaml":7543,"Ġsave":7544,"}\\|":7545,"Ġindices":7546,"job":7547,"Ġhandler":7548,"ifornia":7549,"Ġcomb":7550,"square":7551,"Ġcalls":7552,"Flags":7553,"icies":7554,"ymmetry":7555,"ĠOver":7556,"ĠPark":7557,"Ġquark":7558,"Ġbulk":7559,"shift":7560,"CHE":7561,"Ġforces":7562,"getElement":7563,"ĠAR":7564,"aker":7565,"Ġdashed":7566,"ĠTech":7567,"Ġproviding":7568,"Ġlost":7569,"lower":7570,"Ġ\\&":7571,"ĠGiven":7572,"Adapter":7573,"Vol":7574,"Ġstatistics":7575,"ga":7576,"components":7577,"Ġpriv":7578,"Area":7579,"even":7580,"Ġgeneralized":7581,"Ġani":7582,"ĠFoundation":7583,"Ġawait":7584,"Success":7585,"ius":7586,"Desc":7587,"parser":7588,"!]":7589,"Ġsex":7590,"Ġaccurate":7591,"writ":7592,"gather":7593,"IE":7594,"EXT":7595,"Ġrise":7596,"mas":7597,"Ġconduc":7598,"ĠCollege":7599,"Ġenable":7600,"Ġeconomic":7601,"arents":7602,"integr":7603,"ertific":7604,"Ġinterested":7605,"ught":7606,"Ġelection":7607,"Ġap":7608,"FC":7609,"equations":7610,"Step":7611,"Mar":7612,"sym":7613,"Pointer":7614,"Ġprice":7615,"Enum":7616,"plain":7617,"law":7618,"formance":7619,"Ġnoted":7620,"GN":7621,"Ġindepend":7622,"UTF":7623,"ĠKey":7624,"inger":7625,"ropic":7626,"Ġradial":7627,"wildfly":7628,"Mapping":7629,"Ġsyste":7630,"Ġprecisely":7631,"Ġmul":7632,"printf":7633,"++;":7634,"Ġdynamical":7635,"Ġer":7636,"Ġrapid":7637,"ael":7638,"Ġbench":7639,"bc":7640,"ulator":7641,"Browser":7642,"Proxy":7643,"orded":7644,")));":7645,"Ġheavy":7646,"ROM":7647,"ĠMor":7648,"hi":7649,"Ġ$\\{\\":7650,"lev":7651,"Ġformed":7652,"flags":7653,"Ġexecution":7654,"arm":7655,"Duration":7656,"ande":7657,"Ġfill":7658,"Ġgradu":7659,"Ġsuitable":7660,"+(":7661,"Ġintersection":7662,"Ġinvalid":7663,"logger":7664,"Ġnight":7665,"Ġmodern":7666,"Ġelem":7667,"Xi":7668,"contains":7669,"Ġsurvey":7670,"Ġworked":7671,"ĠPublic":7672,".\\\\":7673,"browser":7674,"zen":7675,"nil":7676,"sus":7677,"Ġ({\\":7678,"hl":7679,"Ġouter":7680,"Ġworth":7681,"there":7682,"Ġencode":7683,"Ġremark":7684,"Li":7685,"olic":7686,"Ġcosm":7687,"Ġfamil":7688,"Ret":7689,"Ġcontroller":7690,"ocation":7691,"ultane":7692,"Ġspread":7693,"Ġenabled":7694,"lications":7695,"Feature":7696,"lan":7697,"Ġimportance":7698,"swarm":7699,"estern":7700,"upload":7701,"ashington":7702,"security":7703,"Ġequality":7704,"inted":7705,"Suppose":7706,"Events":7707,"ĠId":7708,"\\%$":7709,"Ġredshift":7710,"rase":7711,"Ġsignature":7712,"Ġperiodic":7713,"Ġinputs":7714,"Ġradiation":7715,"vity":7716,"Ġrows":7717,"Ġdisper":7718,"IB":7719,"ĠHer":7720,"Fr":7721,"ĉčĊ":7722,"Ġss":7723,"mn":7724,"Ġconduct":7725,"world":7726,"Ġdir":7727,"ĠMax":7728,"Ġgr":7729,"Syn":7730,"Ġagents":7731,"eves":7732,"NA":7733,"thetic":7734,"Ġhon":7735,"Ġprograms":7736,"ĠOption":7737,"Editor":7738,"Ġexpressions":7739,"Memory":7740,"Ġspect":7741,"Transform":7742,"Ġiteration":7743,"ĠTODO":7744,"Ġcaused":7745,"Prop":7746,"ĠHel":7747,"etween":7748,"Generic":7749,"Rad":7750,"Pack":7751,"Ġfailure":7752,"Frag":7753,"Java":7754,"SER":7755,"negative":7756,"Directory":7757,"za":7758,"ilbert":7759,"Ġsoft":7760,"Ġdimensional":7761,"IMP":7762,"ĠArm":7763,"ressive":7764,"ports":7765,"ToString":7766,"Ġaggreg":7767,"!\\":7768,"ticip":7769,"ĠCouncil":7770,"Moreover":7771,"Ðº":7772,"ĠFunction":7773,"Ġimplements":7774,"@{":7775,"Mo":7776,"}{*":7777,"ogonal":7778,"Ġcurvature":7779,"spe":7780,"illed":7781,"backslash":7782,"ĠSuch":7783,"Ġasync":7784,"ulty":7785,"Func":7786,"Ġprecision":7787,"collection":7788,"Part":7789,"Ġ(_":7790,"ucial":7791,"ĠArch":7792,"Member":7793,"dialog":7794,"Ġbehaviour":7795,"LR":7796,"Ġtranslation":7797,"Ġexplained":7798,"ensed":7799,"tan":7800,"Layer":7801,"Ġreveal":7802,"Ġcoq":7803,"ĠRel":7804,"ĠSen":7805,"Attributes":7806,"wik":7807,"ĠĠčĊ":7808,"ĠConfig":7809,"Ġprofession":7810,"parallel":7811,"Some":7812,"Ġdot":7813,"Ġfamilies":7814,"Ġinvestigate":7815,"RIPT":7816,"Ġeigenvalues":7817,"Ġgetting":7818,"ĠAN":7819,"ĠOf":7820,".[":7821,"lood":7822,"(-\\":7823,"Ġrelax":7824,"resentation":7825,"Ġnormalized":7826,"collapse":7827,"ĠView":7828,"abeled":7829,"Ġgravity":7830,"Init":7831,"Ġpatterns":7832,"HR":7833,"Ġago":7834,"vo":7835,"Ġprevent":7836,"scription":7837,"Protocol":7838,"Ġinstruction":7839,"Details":7840,"000000":7841,"corollary":7842,"Database":7843,"safe":7844,"Ġbur":7845,"Ġleave":7846,"\"`":7847,"ĠVersion":7848,"Ġrational":7849,"imit":7850,"Ġserial":7851,"Repository":7852,"Ġstress":7853,"BB":7854,"otes":7855,"udget":7856,"webpack":7857,"110":7858,"Ġnative":7859,")--(":7860,"apply":7861,"'])":7862,"plan":7863,"ĠNews":7864,"tmp":7865,"props":7866,"ĠRepublic":7867,"cluster":7868,">:":7869,"Ġabund":7870,"Ġtheories":7871,"plane":7872,"Ġabstract":7873,"Ġelectro":7874,"Ġquantities":7875,"eds":7876,"Ġstated":7877,"assertEquals":7878,"ĠCap":7879,"Ġsegment":7880,"Selector":7881,"theless":7882,"Depend":7883,"href":7884,"Ġarti":7885,"Ġliving":7886,"Ġshock":7887,"Ġprime":7888,"Ġxmlns":7889,"Double":7890,"Ġtab":7891,"Ġmaster":7892,"dated":7893,"Ġgran":7894,"Ġ{'":7895,"assertEqual":7896,"ko":7897,"Ġdebug":7898,"getName":7899,"{%":7900,"References":7901,"entials":7902,"Ġlegal":7903,"bad":7904,"sep":7905,"phone":7906,"oration":7907,"Ġbatch":7908,"ducible":7909,"phase":7910,"Sw":7911,"WA":7912,"reset":7913,"Ġtools":7914,"<!":7915,"rangian":7916,"Ġfood":7917,"loss":7918,"åı":7919,"Plugin":7920,"ette":7921,"fc":7922,"XML":7923,"gb":7924,"fix":7925,"Ġresid":7926,"mean":7927,")^\\":7928,"ĠNetwork":7929,"ĠChrist":7930,"^*\\":7931,"compiler":7932,"1995":7933,"ĠĠĠĠĠĠĠĠĠĠĠĠĠĠĠĠĠĠĠĠĠĠĠĠĠĠĠĠĠĠĠĠĠĠĠĠĠĠĠĠĠĠĠ":7934,"CM":7935,"allclasses":7936,"->_":7937,"cribe":7938,"Ġtrying":7939,"temp":7940,"tty":7941,"manager":7942,"ĠPal":7943,"Ġdetector":7944,"ĠInstitute":7945,"Keys":7946,"Ġroom":7947,"ferred":7948,"Abstract":7949,"^*(":7950,"Ġpicture":7951,"idx":7952,"Ġcontribute":7953,"Ġanything":7954,"arith":7955,"Ġentang":7956,"ĠEngland":7957,"Ġsurv":7958,"ffic":7959,"spective":7960,"manif":7961,"Ġqueue":7962,"conv":7963,"ĠSm":7964,"unic":7965,"colLast":7966,"ocker":7967,"Ġrough":7968,"Ġintensity":7969,"Ġscience":7970,"boldmath":7971,"Ġtes":7972,"ĠCalifornia":7973,"Ġmilitary":7974,"stackrel":7975,"STAT":7976,"liance":7977,"Ġcoher":7978,"Ġ=======":7979,"Full":7980,"Ġsil":7981,"here":7982,"$^{":7983,"Close":7984,"ultural":7985,"textcolor":7986,"Ġhypothesis":7987,"Pay":7988,"anned":7989,"Ġfriend":7990,"Ġcontract":7991,"Print":7992,"simple":7993,"Ġquantity":7994,"Ġequivalence":7995,"libr":7996,"Ġ[[":7997,"trim":7998,"Iterator":7999,"tests":8000,"Ġcategories":8001,"001":8002,"particle":8003,"SY":8004,"uses":8005,"Found":8006,"ĠReact":8007,"ĠImage":8008,"ĠMag":8009,"sumer":8010,"handler":8011,"calc":8012,"Global":8013,"Warning":8014,"Ġ,\\":8015,"Ġunion":8016,"CG":8017,"ĠDavid":8018,"cape":8019,"ĠDefault":8020,"Ġmind":8021,"Summary":8022,"Ġvalidation":8023,"uum":8024,"shall":8025,"$.}":8026,"Ġtruth":8027,"SQL":8028,"ĠGeV":8029,"colFirst":8030,"Ġrequirements":8031,"elt":8032,"protected":8033,"ajax":8034,"_(":8035,"transition":8036,"Ġisol":8037,"Ġborn":8038,"Ġmathema":8039,"ĠCall":8040,"Pattern":8041,"Ġcomposition":8042,"yal":8043,"Diag":8044,"ĠPost":8045,"feature":8046,"jango":8047,"ye":8048,"FIG":8049,"ji":8050,"Ġevaluated":8051,"Ñı":8052,"moment":8053,"AX":8054,"Ġassuming":8055,"ĠĠĠĠĠĠĠĠĠĠĠĠĠĠĠĠĠĠĠĠĠĠĠĠĠĠ":8056,"Uni":8057,"phas":8058,"ĠMr":8059,"Ġdevices":8060,"Ġ\"\"":8061,"ĠMem":8062,"Trac":8063,"leep":8064,"Ġio":8065,"stro":8066,"Ġadvantage":8067,"Ġcompleted":8068,"Sim":8069,"tbody":8070,"HC":8071,"Ġdise":8072,"some":8073,"Ġconfigurations":8074,"vention":8075,"ĠSta":8076,"Ġseven":8077,"ĠNode":8078,"1990":8079,"Math":8080,"Ġraw":8081,"thick":8082,"Space":8083,"cline":8084,"ups":8085,"Ġnavigation":8086,"izable":8087,"*}[":8088,"cepts":8089,"Ġ\\,\\":8090,"downarrow":8091,"Ġtrend":8092,"orge":8093,"ĠSM":8094,"Ġgiving":8095,"grade":8096,"going":8097,"ceil":8098,"*)":8099,"bd":8100,")\">":8101,"ĠVAL":8102,"look":8103,"ĠSI":8104,"Ġautomatically":8105,"haps":8106,"Ġens":8107,"NOT":8108,"BUG":8109,"Ġbuilder":8110,"|$":8111,"ĠIsra":8112,"_,":8113,"rane":8114,"Ġreq":8115,"metadata":8116,"Ġluminosity":8117,"Ġcard":8118,"prov":8119,"Seg":8120,"anded":8121,"plus":8122,"ceptions":8123,"Ġgenerator":8124,"Ġscene":8125,"structure":8126,"Ġcampaign":8127,"Profile":8128,"Ġflex":8129,"rypt":8130,"Ġeditor":8131,"ĠLi":8132,"Ġduration":8133,"Ġreached":8134,"orizon":8135,"elling":8136,"Ġmoved":8137,"ĠEast":8138,"Ġsoon":8139,"Ġwebsite":8140,"iterator":8141,"ĠTask":8142,"ICE":8143,"NotNull":8144,"NULL":8145,"ĠNor":8146,"stitution":8147,"Scroll":8148,"mal":8149,"Ġquar":8150,"Ġrac":8151,"Ġexponential":8152,"neg":8153,"ĠLong":8154,"Ġreading":8155,"Ġson":8156,"Ġ\"<":8157,"footnotesize":8158,"Files":8159,"áĥ":8160,".'":8161,"Engine":8162,"phantom":8163,"Ġrequests":8164,"urrency":8165,"Ġmatches":8166,"bg":8167,"ĠBer":8168,"Ġcreating":8169,"Ġprojects":8170,"article":8171,"pattern":8172,"children":8173,"hfill":8174,"Ġserved":8175,"rote":8176,"Ġ---":8177,"Ġrelig":8178,"Ġheat":8179,"Ġdescribes":8180,"Ġperturbation":8181,"Ġfluctuations":8182,"ĠFin":8183,"yy":8184,"','":8185,"TT":8186,"Ġsuggests":8187,"Ġconnections":8188,"tabs":8189,"iii":8190,"Ġmovie":8191,"Ġsolar":8192,"Ġstudent":8193,"hide":8194,"textup":8195,"ĠInc":8196,"Parse":8197,"Ġsignals":8198,"Ġthank":8199,"reek":8200,"Ġtraditional":8201,"ĠUpdate":8202,"Ġmedical":8203,"Ġmajority":8204,"Remove":8205,")}.":8206,"Ġtypeof":8207,"ĠInitial":8208,"RAN":8209,"platform":8210,"|^{":8211,"Ġreasons":8212,"\"><!--":8213,"fx":8214,"Ġincorpor":8215,"ĠAND":8216,"Ani":8217,"Comment":8218,"np":8219,")\"":8220,"Fail":8221,"isson":8222,"Ġgenerating":8223,"Ġdiscr":8224,"Ġneighborhood":8225,"ĠWil":8226,"Ġexperi":8227,"Ġepis":8228,"à¤":8229,"Ġstrings":8230,"Ġellip":8231,"HER":8232,"Ġminor":8233,"Ġboard":8234,"mask":8235,"ĠĠĠĠĠĠĠĠĠĠĠĠĠĠĠĠĠĠĠĠĠĠĠĠĠĠĠĠĠ":8236,"Ġhalo":8237,"vect":8238,"Ġcarried":8239,"Ġrepresenting":8240,"Ġgravitational":8241,"Ġca":8242,"ĠSuppose":8243,"Ġuniformly":8244,"shadow":8245,"ĠWashington":8246,"Ġpolarization":8247,"isot":8248,"Ġcompatible":8249,"trace":8250,"observ":8251,";}":8252,"Ġidentical":8253,"Ġfn":8254,"ura":8255,"tile":8256,"Ġasked":8257,"kens":8258,"jar":8259,"attributes":8260,"Ġtriple":8261,"Ġpossibility":8262,"ensus":8263,"acle":8264,"%%%%":8265,"filename":8266,"nodes":8267,"Ġacts":8268,"Att":8269,"headers":8270,"equence":8271,"Ġoffice":8272,"\",\"":8273,"cdn":8274,"aven":8275,"'_{":8276,"Ġplanet":8277,"prefix":8278,"Ġaccre":8279,"fd":8280,"Ġcarry":8281,"NT":8282,"Ġdem":8283,"nition":8284,"Other":8285,"'=":8286,"Ġimproved":8287,"Ġdt":8288,"Ġnecessarily":8289,"BAR":8290,"posal":8291,"Ġjet":8292,"illis":8293,"omas":8294,"Ġdecl":8295,"uparrow":8296,"ĠNumber":8297,"Ġsimultane":8298,"sig":8299,"Ġquadratic":8300,"erial":8301,"ĠKe":8302,"Ġlearned":8303,"acob":8304,"Ġkm":8305,"zone":8306,"ONE":8307,"ĠĠĠĠĠĠĠĠĠĠĠĠĠĠĠĠĠĠĠĠĠĠĠĠĠĠĠĠ":8308,"Ġpolice":8309,"Ġrecords":8310,"arities":8311,"Ġprefix":8312,"ĠProject":8313,"Domain":8314,"&=\\":8315,"power":8316,"Ġnotion":8317,"125":8318,"ĠIE":8319,"have":8320,"Ġchemical":8321,"rift":8322,"sip":8323,"Socket":8324,"Ġsites":8325,"Cluster":8326,"regular":8327,"titude":8328,"account":8329,")}(\\":8330,"kl":8331,"wood":8332,"ĠUN":8333,"irror":8334,"Ġphases":8335,"apes":8336,"Runtime":8337,"Agent":8338,"ĠAlgorithm":8339,"velopment":8340,"3333":8341,"Ġmodules":8342,"Ġuncertainties":8343,"ya":8344,"Ġcool":8345,"Ġeverything":8346,"bytes":8347,"Cref":8348,"Common":8349,"Help":8350,"ĠRet":8351,"ĠSD":8352,"Ġpool":8353,"iem":8354,"Ġwriter":8355,"ita":8356,"Ġdependent":8357,"Stats":8358,"FFFF":8359,"maven":8360,"Ġfather":8361,"}>":8362,"posite":8363,"Ġsuppose":8364,")(\\":8365,"JS":8366,"Ġorders":8367,"care":8368,"250":8369,"Ġdemonstrate":8370,"Ġconvolution":8371,"operation":8372,"details":8373,"ĠConsider":8374,"Ġassigned":8375,"differ":8376,"trine":8377,"knowledge":8378,"ðŁ":8379,"Ġsometimes":8380,"Ġpull":8381,"Ġwanted":8382,"Ġspan":8383,"Ġpatch":8384,"ĠIOException":8385,"Ġmedium":8386,"tributed":8387,"Gu":8388,"ĠChurch":8389,"Ġmanager":8390,"basic":8391,"Ġ?>":8392,"Ġcapital":8393,"Ġapplicable":8394,"Ġmor":8395,"Ġlisted":8396,"leftarrow":8397,"Ġschema":8398,"owers":8399,"Ġdefines":8400,"Failed":8401,"Ġindividuals":8402,"scopic":8403,"CHECK":8404,"Ġtouch":8405,"tags":8406,"=\\{":8407,"FL":8408,"Ġoptional":8409,"Constants":8410,"Ġbright":8411,"ffff":8412,"pton":8413,"rob":8414,"}$\\":8415,"road":8416,"1994":8417,"ignment":8418,"Ġpoor":8419,"Ġmodify":8420,"Ġcollabor":8421,"unique":8422,"Ġmanner":8423,"bx":8424,"ĠProgram":8425,"mits":8426,"Ġhope":8427,"jecture":8428,"Ġcoupled":8429,"ipped":8430,"Ġdefinitions":8431,"resize":8432,"------------":8433,"assembly":8434,"Ġisot":8435,"arr":8436,"Ġfem":8437,"states":8438,"Ġpredict":8439,"ufact":8440,"Ro":8441,"$-$":8442,"Ġorganization":8443,"verb":8444,"Ax":8445,"Register":8446,"urred":8447,"wave":8448,"Ġbaseline":8449,"Ġproxy":8450,"ĠBO":8451,"mk":8452,"Ġcomments":8453,"Ġcorrections":8454,"Ġhierarch":8455,"ĠDel":8456,"Ġmaterials":8457,"Ġanom":8458,"laration":8459,"180":8460,"enable":8461,"licated":8462,"textsf":8463,"ĠSecond":8464,"ADD":8465,"ĠLandroid":8466,"Ġtalk":8467,"ĠField":8468,"ĠAction":8469,"'m":8470,"Ġwrong":8471,"Ġlives":8472,"Ġbrowser":8473,"ĠJava":8474,"services":8475,"()</":8476,"Ġroute":8477,"ĠConn":8478,"MI":8479,"Rest":8480,"ago":8481,"Ġmaintain":8482,"decl":8483,"irical":8484,".$$":8485,"Ġreferences":8486,"UL":8487,"Ġcosts":8488,"How":8489,"Wrapper":8490,"provider":8491,"Ġdense":8492,"ĠAssembly":8493,"Simple":8494,"Ġfeedback":8495,"Ġ{$\\":8496,"Ġtail":8497,"Ġessential":8498,"Region":8499,"ĠUnder":8500,"Decl":8501,"Ġdeviation":8502,"{(\\":8503,"connected":8504,"Ġisn":8505,"ĠFourier":8506,"Ġconflic":8507,"Generator":8508,"Ġrestric":8509,"Ġwavelength":8510,"Ġhappen":8511,"Dest":8512,"lain":8513,"ensors":8514,"Ġsigned":8515,"Ġslo":8516,"period":8517,"ĠSy":8518,"useum":8519,"\\|_":8520,"$\\\\":8521,"?>":8522,"Ġtro":8523,"ARN":8524,"Ġbands":8525,"umption":8526,"ĠHiggs":8527,"protocol":8528,"wt":8529,"ackson":8530,"stantial":8531,"Selection":8532,"Statement":8533,"}.}":8534,"lik":8535,"oments":8536,"seq":8537,"}</":8538,"editor":8539,"wrapper":8540,"ĠExec":8541,"Ġdesc":8542,"Ġresponsible":8543,"Ġgeometric":8544,"ĠBecause":8545,"Ġcref":8546,"Ġ[],":8547,"Ġtransmission":8548,"ĠAny":8549,"ville":8550,"Ġprofiles":8551,"MF":8552,"Ġconstructor":8553,"Ġtopology":8554,"Ġpixel":8555,"ja":8556,"Sync":8557,"xhtml":8558,"Ġ\",":8559,"EV":8560,"ĠHo":8561,"Ġformulation":8562,"$^":8563,"sequent":8564,"Ġsom":8565,"Two":8566,"{|":8567,"\\!\\!\\!":8568,"Ġdirector":8569,"Ġseconds":8570,"Ġreferred":8571,"Single":8572,"Password":8573,"'ve":8574,"invariant":8575,"Ġlies":8576,"dete":8577,"che":8578,"('.":8579,"errors":8580,"Ġsaw":8581,"High":8582,"Ġscenarios":8583,"leted":8584,"Py":8585,"IA":8586,"Ġsurpr":8587,"Ġoffic":8588,"Product":8589,"fg":8590,"binom":8591,"special":8592,"Ġmainly":8593,"essor":8594,"Ġordered":8595,"Ġpassword":8596,"hold":8597,"Ġprop":8598,"Ġatoms":8599,"Pair":8600,"rupt":8601,"PORT":8602,"ALSE":8603,"OPT":8604,"Ġwalk":8605,"ĠĠĠĠĠĠĠĠĠĠĠĠĠĠĠĠĊ":8606,"SN":8607,"OUT":8608,".\");":8609,"Ġtransl":8610,"builder":8611,"ĠSk":8612,"Ġdu":8613,"Second":8614,"Ġenter":8615,"Gen":8616,"~(\\":8617,"Ġdiffusion":8618,"Ġwind":8619,",...,":8620,")>":8621,"erior":8622,"Ġsynchron":8623,"gate":8624,"wall":8625,"$\\,":8626,"ara":8627,"Err":8628,"theme":8629,"hips":8630,"Ġbalance":8631,"ĠCanada":8632,"ĠIndian":8633,"lers":8634,"Ġbeli":8635,"Ġhorizontal":8636,"FE":8637,"IND":8638,"Ġtranslate":8639,"Ġ[\"":8640,"('#":8641,"iles":8642,"\\/":8643,"Ġbirth":8644,"Ġreduces":8645,"clip":8646,"Ġsizeof":8647,"ditionally":8648,"midrule":8649,"Encoded":8650,"execute":8651,"Ġiniti":8652,"PD":8653,"zy":8654,"Ġadjac":8655,"Props":8656,"Ġwrote":8657,"uages":8658,"&&\\":8659,"Trace":8660,"Ġstarts":8661,"ordinate":8662,"prev":8663,"ÐµÐ":8664,"ĠJames":8665,"Ġsolving":8666,"Ġfavor":8667,"retch":8668,"Ġtransitions":8669,"iginal":8670,"login":8671,"Ġbooks":8672,"Tx":8673,"Aut":8674,"Ġmixing":8675,"Ġcamera":8676,"Scal":8677,"Ġ\"-":8678,"READ":8679,"ĠRich":8680,"Total":8681,"racket":8682,"Route":8683,"Ġdirections":8684,"600":8685,"ĠMet":8686,"measure":8687,"junit":8688,"Nodes":8689,"agent":8690,"kt":8691,"}/\\":8692,"Ġsuccessfully":8693,"Ġchanging":8694,"TIME":8695,"pu":8696,"Selected":8697,"ĠSum":8698,"mathtt":8699,"audi":8700,"Background":8701,"mented":8702,"Ġstored":8703,"Ġreconstruction":8704,"rf":8705,"ĠInteger":8706,"isting":8707,"Ġinj":8708,"tensor":8709,"insic":8710,"Phys":8711,"Ġeventually":8712,"ĠGr":8713,"Ġregression":8714,"depth":8715,"cepted":8716,"sel":8717,"Ġ\\|\\":8718,"Ġui":8719,"Ġparser":8720,"Ġtopic":8721,"changed":8722,"spital":8723,"TEXT":8724,"Lin":8725,"Ġsusp":8726,"101":8727,"ACT":8728,"_{+":8729,"ĠFrench":8730,"Ġstaff":8731,"Ġschedule":8732,"ĠIndex":8733,"unct":8734,"shared":8735,"ĠSur":8736,"ĉĉĉĉĉĉĉĉĉ":8737,"ĠJew":8738,"ifted":8739,"Ġgave":8740,"Ġadopted":8741,"Variable":8742,"Ġfluid":8743,"Ġ$^{":8744,"ĠCOVID":8745,"ĠTrump":8746,"Ġ\\[":8747,"ampion":8748,"OB":8749,"Ġdied":8750,"Ġuniversal":8751,"Ġstraightforward":8752,"ĠLeg":8753,"Ġcast":8754,"Ġri":8755,"plates":8756,"Ġcreation":8757,"fined":8758,"Ġarc":8759,"Ġintermediate":8760,"Ho":8761,"xs":8762,"entific":8763,"uilt":8764,"Ġminutes":8765,"ĠResource":8766,"Ġlocations":8767,"})^{":8768,"Clear":8769,"Ġquickly":8770,"done":8771,"Ġopposite":8772,"usform":8773,"numerusform":8774,"Ġinstalled":8775,"density":8776,"ĠHash":8777,"Ġthreat":8778,"Ġctx":8779,"Ġresidual":8780,"Ġmodeling":8781,"Registry":8782,"Ġdensities":8783,"Ġfrequencies":8784,"ĠCopyright":8785,"Ġmetadata":8786,"ĠGerman":8787,"Collections":8788,"Ġvic":8789,"multline":8790,"views":8791,"Ġpresident":8792,"Ġenjo":8793,"Ġtend":8794,"Ġrecur":8795,"Ġcandidates":8796,"Ġmarked":8797,"Ġmovement":8798,"ĠNAME":8799,"Ġspent":8800,"ĠUnion":8801,"ĠCorollary":8802,"Ġhimself":8803,"Ġchallenge":8804,"springframework":8805,"ertificate":8806,"Ġturns":8807,"sn":8808,"ĠBel":8809,"arded":8810,"awa":8811,"Ġemphas":8812,"inear":8813,"lective":8814,"Ġpatients":8815,"Ġepoch":8816,"constant":8817,"Ġcharged":8818,"Ġcommut":8819,"Ġlowest":8820,"TA":8821,"Ġmus":8822,"$'":8823,"leqslant":8824,"Ġguarante":8825,"Ġrev":8826,"rey":8827,"Ġlogger":8828,"cross":8829,"Ġhighlight":8830,"Ġremote":8831,"Ġpolynomials":8832,"Ġprincipal":8833,"knowled":8834,"}^+":8835,"picker":8836,"ĠPub":8837,"Ġdead":8838,"Ġexpectation":8839,"Category":8840,"Ġhomogeneous":8841,"Ġactivities":8842,"elebr":8843,"URI":8844,"Ġ],":8845,"]^":8846,"Ġplaced":8847,"Ġvacuum":8848,"Ġbits":8849,"Player":8850,"ĠSuper":8851,"Ġatmos":8852,"Ġcodes":8853,"Ġstrategies":8854,"CESS":8855,"gi":8856,"dk":8857,"SF":8858,"Ġ_{\\":8859,"ĠMessage":8860,"CTYPE":8861,"yr":8862,"ĠDep":8863,"Ġ(.":8864,"(__":8865,"ĠWhite":8866,"Ġneutrino":8867,"Ġdistr":8868,"Ġessentially":8869,"Ġcollect":8870,"ĠTV":8871,"ĠTechn":8872,"History":8873,"ĠRead":8874,"Ġcorrelations":8875,"room":8876,"Pub":8877,"Ġpublish":8878,"titions":8879,"imits":8880,"}^{+":8881,"LECT":8882,"game":8883,"Ġversions":8884,"\\},":8885,"Ġinterpretation":8886,"ĠGR":8887,"Ġpolicies":8888,"ĠSim":8889,"Ġpurposes":8890,"Ġmostly":8891,"Ġseparation":8892,"svg":8893,"Ġpermut":8894,"users":8895,"Ġanalytic":8896,"Identifier":8897,"indexOf":8898,"clean":8899,"Cho":8900,"gments":8901,"invalid":8902,"tel":8903,"ĠBoth":8904,"photon":8905,"Ġask":8906,"asy":8907,"Ġcharset":8908,"precated":8909,"CRE":8910,"Ġfitting":8911,"Ġensemble":8912,"overview":8913,"Ġadvers":8914,"Bigg":8915,"paper":8916,"WN":8917,"mazon":8918,"Ġcontinued":8919,"Ġheart":8920,"Resources":8921,"Ġorthogonal":8922,"typedef":8923,"Ġaffected":8924,"Ġcoverage":8925,"ĠExt":8926,"Ġconjug":8927,"Ġresolve":8928,"&=&\\":8929,"Ġdecrease":8930,"Ġhot":8931,"flag":8932,"tk":8933,"Admin":8934,"Ġalgebraic":8935,"onym":8936,"requency":8937,"nm":8938,"ancing":8939,"Ġrig":8940,"Ġannounced":8941,"ĠDay":8942,"Ġdrug":8943,"Ġconfidence":8944,"Ġshell":8945,"Ġelectrons":8946,"pole":8947,"ĠCong":8948,"Ġinference":8949,"GeV":8950,"Ġbenchmark":8951,"Ġtrajectory":8952,"'));":8953,"Ġconvert":8954,"Ġrestriction":8955,"ĠHand":8956,"ĠLagrangian":8957,"Ġdependencies":8958,"DateTime":8959,"ĠMal":8960,"ĠjQuery":8961,"Ġtemperatures":8962,"Ġsubstantial":8963,"ĠCommission":8964,"ensing":8965,"}[!":8966,"cing":8967,"Ġweighted":8968,"ica":8969,"raise":8970,"Ġparam":8971,"sey":8972,"Ġ([":8973,"Dete":8974,"1993":8975,"ITE":8976,"Ġproportional":8977,"Ġreflect":8978,"Ã§":8979,"ston":8980,"rev":8981,"quote":8982,"ANG":8983,"Ġmarg":8984,"storage":8985,"ito":8986,"anchor":8987,"ĠIl":8988,"ĠDon":8989,"Install":8990,"Ã¼":8991,"ĠAfrica":8992,"Ġallowing":8993,"Ġroad":8994,"urable":8995,"Ġexit":8996,"username":8997,"just":8998,"subequations":8999,"Ġmonitor":9000,"arity":9001,"deep":9002,"person":9003,"moz":9004,"Ġplaying":9005,"Ġplas":9006,"Ġdirected":9007,"direction":9008,"UD":9009,"Role":9010,"]=":9011,"akes":9012,"println":9013,"ĠHttp":9014,"OF":9015,"player":9016,"enabled":9017,"Ġignore":9018,"Ġregarding":9019,"Ġtemporal":9020,"Ġ\\{\\":9021,"ĠOnly":9022,"Ġrandomly":9023,"DOCTYPE":9024,"inese":9025,"Find":9026,"Ġdeliver":9027,"Ġmenu":9028,"Ġstrictly":9029,"amazon":9030,"ĠSyn":9031,"ĠPress":9032,"Ġworkers":9033,"Ġapparent":9034,"usted":9035,"policy":9036,"ĠallClasses":9037,"ĠTwo":9038,"SV":9039,"Visible":9040,"ĠCR":9041,"sure":9042,"nostic":9043,"Ġdistinguish":9044,"Author":9045,"ĠVis":9046,"ĠPhil":9047,"eder":9048,"Ġmes":9049,"ĠallClassesLink":9050,"resources":9051,"ĠWindow":9052,"Ġ'<":9053,"dc":9054,"eks":9055,"Ġlatest":9056,"Ġwish":9057,"ĠAustralia":9058,"Ġsubspace":9059,"ĠParty":9060,"ĠBr":9061,"USE":9062,"Ġexplore":9063,"Ġsal":9064,"ori":9065,"role":9066,"propto":9067,"ĠMost":9068,"EEEE":9069,"Ġflags":9070,"ĠDM":9071,"Interval":9072,"![":9073,"\\}.":9074,"}{{\\":9075,"aily":9076,">::":9077,"ĠDat":9078,"\\!\\":9079,"ĠTR":9080,"instein":9081,"effect":9082,"Ġideas":9083,"Ġabsorption":9084,"ĠEv":9085,"video":9086,"Ġgrant":9087,"Ġexplanation":9088,"ĠDemoc":9089,"ulus":9090,"Eff":9091,"python":9092,"Ġsupports":9093,"las":9094,"Ġreports":9095,"determin":9096,"Hom":9097,"urally":9098,"FLA":9099,"Ġcontinuum":9100,"complex":9101,"async":9102,"ĠEmp":9103,"ĠHall":9104,"Ġ~\\":9105,"Ġhappens":9106,"ĠDefinition":9107,"Ġschools":9108,"Ġsensitivity":9109,"INFO":9110,"Ġdispersion":9111,"1992":9112,"progress":9113,"weak":9114,"Ġdecreases":9115,"warning":9116,"Ġderivatives":9117,"tempor":9118,"Ġtechnical":9119,"TRUE":9120,"Ġintegrated":9121,"Ġimplicit":9122,"ander":9123,"Texture":9124,"elian":9125,"Ġsensitive":9126,"Ġsafe":9127,"organ":9128,"assandra":9129,"ĠColor":9130,"tegr":9131,"arian":9132,"ĠLcom":9133,"Fin":9134,"Ġefforts":9135,"Ġinterpol":9136,"AE":9137,"tios":9138,"Ġ).":9139,"iling":9140,"She":9141,"sti":9142,"arn":9143,"Ġimprovement":9144,"LINE":9145,"istog":9146,"Ġtemp":9147,"ĠSeries":9148,"Ġvariations":9149,"Attr":9150,"standing":9151,"bigcup":9152,"endor":9153,"ĠMac":9154,"ĠTem":9155,"expect":9156,"Ġsimulated":9157,"Ġextracted":9158,"oped":9159,"tivistic":9160,"varrho":9161,"Ġlaws":9162,"Ġsuggested":9163,"CB":9164,"llig":9165,"DEFAULT":9166,"Ġguide":9167,"Ġcontrols":9168,"ermi":9169,"yles":9170,"Ġglu":9171,"OST":9172,"atomic":9173,"ĠLocal":9174,"Ġrecorded":9175,"('/":9176,"Ġserve":9177,"ĠBoolean":9178,"Flow":9179,"diction":9180,"åĪ":9181,"Ġbillion":9182,"ĠCommit":9183,"specific":9184,"\\[\\":9185,"...</":9186,"analy":9187,"Ġprops":9188,"required":9189,"Ġmother":9190,"Ġconclusion":9191,"setup":9192,"Skip":9193,"Americ":9194,"Methods":9195,"hard":9196,",.":9197,"Ġindicated":9198,"Cred":9199,"loader":9200,"ami":9201,"Ġopportunity":9202,"Wallet":9203,"Ġmeeting":9204,")}$.":9205,"Prefix":9206,"Ġinteract":9207,"inction":9208,"slice":9209,"smallskip":9210,"methods":9211,"Ġcond":9212,"Ġorientation":9213,"ĠCompany":9214,")->":9215,"tech":9216,"rial":9217,"Ġfight":9218,"Ġchurch":9219,"Ġforeach":9220,"Ġready":9221,"ĠStreet":9222,"compare":9223,"Ġhum":9224,"Ġchoices":9225,"expression":9226,"REQ":9227,"Ġrepeated":9228,"Ġdistances":9229,"riority":9230,"OC":9231,")_{\\":9232,"ĠBoard":9233,"achment":9234,"finity":9235,"Ġ×":9236,"PY":9237,"Ġĉ":9238,"Ġpseudo":9239,"Ġreasonable":9240,"ĠTex":9241,"Ġretr":9242,"Ġculture":9243,"ÑĮ":9244,"Ġalone":9245,"poly":9246,"Ġstatements":9247,"Forms":9248,"Ġprecise":9249,"Ġrestricted":9250,"Ġparents":9251,"ĠĠĠĠĠĠĠĠĠĠĠĠĠĠĠĠĠĠĠĠĠĠĠĠĠĠĠĠĠĠ":9252,"Ġfol":9253,"counter":9254,"Ġencou":9255,"Ġaudio":9256,"ĠMulti":9257,"ĠEven":9258,"Ġsubsection":9259,"testing":9260,"Ġtrees":9261,"tright":9262,"Ġowner":9263,"ĠArg":9264,"Ġdestroy":9265,"nol":9266,"Bind":9267,"¿½":9268,"serial":9269,"itness":9270,"vertex":9271,"gray":9272,"atal":9273,"signature":9274,"WR":9275,"ĠPort":9276,"throw":9277,"»¿":9278,"Ġbrought":9279,"Ġpages":9280,"about":9281,"Ġfederal":9282,"Ġsomeone":9283,"uzz":9284,"quid":9285,"stood":9286,"ĠEquation":9287,"tc":9288,"udy":9289,"ĠEduc":9290,"ï»¿":9291,"Ġdomains":9292,"Ġviews":9293,"Ġcommunities":9294,"Ġpixels":9295,"Ġinvolving":9296,"newline":9297,"Play":9298,"ĠEarth":9299,"Ġeight":9300,"Ms":9301,"Ġoutputs":9302,"Ġnorth":9303,"Ġ{\"":9304,"Headers":9305,"ĠGets":9306,"Ġplaces":9307,"Ġcryst":9308,"library":9309,"Ġpractical":9310,"ĠSimilarly":9311,"Ġnullptr":9312,"Ġappend":9313,"ĠØ":9314,"IDTH":9315,"encode":9316,"Ġusage":9317,"flex":9318,"brief":9319,"sor":9320,"ĠNAV":9321,"Ġdiagrams":9322,"}{}":9323,"Ġuniqu":9324,"Ġspeech":9325,"ĠInst":9326,"Ġperforming":9327,"Ġtsd":9328,"ĠAp":9329,"Ma":9330,"Proposition":9331,"Ġqueries":9332,"blog":9333,"textnormal":9334,".<":9335,"groups":9336,"Ġâ":9337,"ĠPath":9338,"blank":9339,"series":9340,"Ġchallenges":9341,"Uri":9342,"=$":9343,"Ġsomew":9344,"Ġlayout":9345,"Ġbre":9346,"ĠFlor":9347,"Ġdifferenti":9348,"Ġdriver":9349,"pb":9350,"Ġexcite":9351,"Ġstay":9352,"ĠRad":9353,"PER":9354,"sb":9355,"Ġemployed":9356,"undefined":9357,"trightarrow":9358,"Ġcub":9359,"Services":9360,":[":9361,"\\-":9362,"Mouse":9363,"/.":9364,"ĠCH":9365,"Ġattacks":9366,"Ġcriteria":9367,"Ġtoward":9368,"EEEEFF":9369,"Ġfaster":9370,"Ġfinish":9371,"Ġdeb":9372,"Ġjournal":9373,"Ġturb":9374,"Ġmodal":9375,"1980":9376,"ĠInput":9377,"ĠDev":9378,"Ġeffort":9379,"loaded":9380,"ĠBen":9381,"Ġprev":9382,"ifications":9383,"ulating":9384,"Ġaccom":9385,"Ġschemes":9386,"Ġsociety":9387,"Ġfilms":9388,"#{":9389,"Ġgrowing":9390,"Ġeffectively":9391,"gba":9392,"cas":9393,"ĠBra":9394,"Ġvacc":9395,"Ġanalyze":9396,"Ġlikelihood":9397,"\\}_{":9398,"Ġcircum":9399,"apos":9400,"Ġplays":9401,"cli":9402,"dynamic":9403,"Report":9404,"Ġirreducible":9405,"Email":9406,"spect":9407,"ĠAssociation":9408,"Ġdra":9409,"ï¿½":9410,"Ġframes":9411,"Ġexecute":9412,"ipe":9413,"Ġadjust":9414,"Language":9415,"ĠRequest":9416,"gest":9417,"valued":9418,"ruby":9419,"checkbox":9420,"atell":9421,"learning":9422,"Ġpossibly":9423,"zens":9424,"Home":9425,"cussion":9426,"Ġnation":9427,"bre":9428,"surface":9429,"ĠHilbert":9430,"ĠVector":9431,"ĠQue":9432,"Ġcrucial":9433,"Ġannot":9434,"Ġill":9435,"pgf":9436,"Progress":9437,"Ġrich":9438,"IVE":9439,"Ġheaders":9440,"}},\\":9441,"gin":9442,"800":9443,"scape":9444,"Ġtx":9445,"original":9446,"Vertex":9447,"ĠImp":9448,"Mis":9449,"Framework":9450,"fully":9451,"sidebar":9452,"defn":9453,"Ġintegers":9454,"stra":9455,"Ġsimilarly":9456,"Required":9457,"POST":9458,"()))":9459,"~~~~~~~~":9460,"Ġtang":9461,"ato":9462,"fact":9463,"Ġbenefit":9464,"Ġmolecular":9465,"'ll":9466,"Normal":9467,"Ġclimate":9468,"Ġenum":9469,"Ġserious":9470,"outhern":9471,"origin":9472,"Ġplus":9473,"ĠCELL":9474,"Mask":9475,"eners":9476,"ester":9477,"CN":9478,"Ġapplies":9479,"Ġcharacteristics":9480,"Ġatomic":9481,"Ġvarying":9482,"ĠDen":9483,"plings":9484,"ENSE":9485,"ifdef":9486,"SK":9487,"Ġcollected":9488,"ĠRiver":9489,"batch":9490,"ynamics":9491,"Ġfriends":9492,"Ġvalidate":9493,"peat":9494,"Ġletter":9495,"Ġorbital":9496,"}{*}{":9497,"ĠDiv":9498,"Import":9499,"Ag":9500,"Ġsymbols":9501,"Ġsystematic":9502,"Ids":9503,"Ġdict":9504,"ĠSa":9505,"ĠEND":9506,"ĠArrayList":9507,"Ġnarrow":9508,"RPC":9509,"shell":9510,"Ġwoman":9511,"|_{\\":9512,"Ġreset":9513,"Ġwidely":9514,"ĠProcess":9515,"tz":9516,"Ġconditional":9517,"variable":9518,"Ġtransverse":9519,"arse":9520,"tization":9521,"atural":9522,"placement":9523,"Track":9524,"Ã¶":9525,"Ġforeign":9526,"ĠPart":9527,"Ġfocused":9528,"ryption":9529,"Ġsafety":9530,"MODULE":9531,"ĠLife":9532,"Ġclub":9533,"character":9534,"Ġlie":9535,"According":9536,"uilding":9537,"ĠTer":9538,"Ġdominant":9539,"Ġdie":9540,"NavBarFont":9541,"riend":9542,"Shape":9543,"iemann":9544,";)":9545,"Fragment":9546,"ĠCollection":9547,"_{[":9548,"Ġprobabilities":9549,"Ġok":9550,"Ġtreated":9551,"allest":9552,"lects":9553,"Ġmorphism":9554,"teen":9555,"triangle":9556,"Identity":9557,"Ġreaction":9558,"Ġmoments":9559,"apping":9560,"Ġmonot":9561,"hu":9562,"Ġsubsequent":9563,";\">":9564,"Ñĭ":9565,"lm":9566,"plitudes":9567,"Move":9568,"ä»":9569,"resolve":9570,"Ġsimilarity":9571,"Ġaspects":9572,"Ġmesh":9573,"Ġrace":9574,"ÛĮ":9575,"Ġenhance":9576,"arest":9577,"ĠNAVBAR":9578,"(@":9579,"Ġconverges":9580,"Notification":9581,"mouse":9582,"lectric":9583,"lyphicon":9584,"lef":9585,"ĠPaul":9586,"Under":9587,"Ġreflection":9588,"Ġ\\}":9589,"sharp":9590,"_{-\\":9591,"METH":9592,"Ġdocumentation":9593,"dig":9594,"ĠGovernment":9595,"Namespace":9596,"IGHT":9597,"Ġcommunic":9598,"Ġdespite":9599,"positions":9600,"Ġextent":9601,"Ġeigenvalue":9602,"Bean":9603,"Ġboost":9604,"vdots":9605,"Ġiterations":9606,"ĠProf":9607,"/{":9608,"pan":9609,"^*_":9610,"Ġinclusion":9611,"Ġdigital":9612,"Recall":9613,"aught":9614,"istan":9615,"Ġaccretion":9616,"Ġreadonly":9617,"Ġwarning":9618,")}$,":9619,"upper":9620,"ĠDuring":9621,"Mer":9622,"Ġsecret":9623,"\\|^":9624,"^+$":9625,"opes":9626,"ĠHTTP":9627,"ummy":9628,"below":9629,"jk":9630,"report":9631,"ĠSun":9632,"achine":9633,"ĠSQL":9634,"console":9635,"'];":9636,"Ġsides":9637,"ÐµÐ½":9638,"Ġdecided":9639,"Although":9640,"ĠUI":9641,"!\\!\\!\\!\\!":9642,"Ġ];":9643,"will":9644,"Spe":9645,"Delegate":9646,"vin":9647,"unders":9648,"Ġlogic":9649,"tb":9650,"proxy":9651,"\"],":9652,"verage":9653,"Ġrecommend":9654,"factor":9655,"})=\\":9656,"Den":9657,"Ġseparated":9658,"olor":9659,"LC":9660,"LOCK":9661,"activ":9662,"Generated":9663,"Ġspecifically":9664,"ĠStart":9665,"hal":9666,"ĠGeorge":9667,"uv":9668,"Ġsimplicity":9669,"Ġtraffic":9670,"Ġopin":9671,"Ġtransformations":9672,"ĠInv":9673,"Short":9674,"Ġzone":9675,"bor":9676,"ITION":9677,"jet":9678,"Real":9679,"Ġdisabled":9680,"ĠTop":9681,"ĠGra":9682,"Ġaug":9683,"ĠBig":9684,"hyper":9685,"Tags":9686,"Literal":9687,"Ġabsence":9688,"AF":9689,"Ġbelongs":9690,"Ġdemonstrated":9691,"helper":9692,"ĠWilliam":9693,"Ġpowerful":9694,"Google":9695,"rie":9696,"Ġleader":9697,"uclide":9698,"Ġfootball":9699,"$}}":9700,"Ġconsisting":9701,"oming":9702,"ocal":9703,"=&":9704,"Ġcivil":9705,"cis":9706,"Ġinitially":9707,"obs":9708,"Begin":9709,"ĠChristian":9710,"Game":9711,"ĠLOG":9712,"Ġlicense":9713,"Ġdefining":9714,"identifier":9715,"ampl":9716,"ĠHistory":9717,"ĠIsrael":9718,"analysis":9719,"Ġextremely":9720,"ĠDB":9721,"inos":9722,"supported":9723,"Ġnp":9724,"Support":9725,"eting":9726,"Ġcancel":9727,"Gr":9728,"Ġsphere":9729,"Ġalgebras":9730,"Ġintervals":9731,"ea":9732,"Returns":9733,"Rightarrow":9734,"(.":9735,"Ġsurfaces":9736,"Public":9737,"Ġphotons":9738,"Len":9739,"aching":9740,"Sequence":9741,"Ġposterior":9742,"/\"":9743,"Ġopacity":9744,"fire":9745,"Ġtargets":9746,"ĠSN":9747,"Ġcomplement":9748,"Ġspeak":9749,"SG":9750,"experim":9751,"Ġhous":9752,"Ġupdates":9753,"Ġdisease":9754,"uclidean":9755,"ĠInformation":9756,"Ġoverlap":9757,"Ġwife":9758,"METHOD":9759,"inds":9760,"ĠASSERT":9761,"Ġcatalog":9762,"Ġmd":9763,"allery":9764,"Ġsolved":9765,"Hub":9766,"Enumer":9767,"ĉĠĠĠĠ":9768,"Ġ'\\":9769,"=\"../../../../../../../":9770,"Landroid":9771,"Ġ\"$":9772,"ĠNext":9773,"Ġspectro":9774,"volume":9775,"ĠÐ¿":9776,"expr":9777,"Star":9778,"{.":9779,"ĠPhys":9780,"|_":9781,"æľ":9782,"pull":9783,"Ġimply":9784,"commit":9785,"Ġcelebr":9786,"ees":9787,"ĠSol":9788,"INTER":9789,"Ġstock":9790,"Ġpipeline":9791,"gradient":9792,"area":9793,"Ġperspective":9794,"ĠMinister":9795,"Ġratios":9796,"'$.":9797,"licate":9798,"ĠSE":9799,"1991":9800,"mately":9801,"amin":9802,"Ġsaying":9803,"symmetric":9804,"repos":9805,"Ġexceed":9806,"Ġscores":9807,"Ġbreaking":9808,"Ġrequirement":9809,"Ġstories":9810,"Ġtour":9811,"goto":9812,"wer":9813,"YY":9814,"Ġhorizon":9815,"omorphisms":9816,"download":9817,"elastic":9818,"ĠUV":9819,"Ġcmd":9820,"ulo":9821,"Ġtimeout":9822,"otor":9823,"Db":9824,"men":9825,"ĠBack":9826,"Struct":9827,"ĠEqs":9828,"gon":9829,"VALID":9830,"Book":9831,"apis":9832,"Ġtypename":9833,"venue":9834,"spacing":9835,"Ġpartners":9836,"Ġhund":9837,"FORM":9838,"Ġgate":9839,"Ġmedian":9840,"duration":9841,"ĠBi":9842,"SW":9843,"Ġclustering":9844,"oday":9845,"ifying":9846,"Ġfourth":9847,"Ġreads":9848,"tf":9849,"notin":9850,"Ġcosmological":9851,"Ġdialog":9852,"Comparison":9853,"They":9854,"ĠFlorida":9855,"Ġdriving":9856,"ĠValid":9857,"ĠSIZE":9858,"Ġequals":9859,"Lower":9860,"ĠAlex":9861,"forming":9862,"Ġsouth":9863,"ossible":9864,"ĠIss":9865,"ĠCr":9866,"Ġturned":9867,"Operator":9868,"stat":9869,"dients":9870,"ĠCommand":9871,"Ġnavbar":9872,"Ġgeneralization":9873,"Ġsentence":9874,"extern":9875,"aylor":9876,"hook":9877,":`":9878,"fold":9879,"mathbbm":9880,"Detail":9881,"getValue":9882,"Ġfits":9883,"ICENSE":9884,"Ġpri":9885,"vg":9886,"Ġtested":9887,"ĠMake":9888,"Ġacting":9889,"Ġtmp":9890,"Ġempirical":9891,"airs":9892,"Ġcovariance":9893,"ĠFrance":9894,"avail":9895,"activity":9896,"Video":9897,"HTTP":9898,"Ġversus":9899,"urrence":9900,"ãĢ":9901,"General":9902,"BM":9903,"amond":9904,"213":9905,"Ġtransparent":9906,"Ġentanglement":9907,"han":9908,"Ġvor":9909,"Members":9910,"Ġfeas":9911,"tistics":9912,"Ġcovered":9913,"also":9914,"ĠStar":9915,"!!":9916,"Ġthous":9917,"overset":9918,"Ġfactory":9919,"Ġpurch":9920,"Ġinvestigated":9921,"Ġplugin":9922,"ears":9923,"Ġuniverse":9924,"Ġatom":9925,"Ġweeks":9926,"objects":9927,"spectr":9928,"ORTED":9929,"problem":9930,"eper":9931,"VALUE":9932,"Ġresonance":9933,"micro":9934,"RC":9935,"apl":9936,".\",":9937,"Ġsecondary":9938,"Ġcorrectly":9939,"Ġestimator":9940,"Ġemit":9941,"Ali":9942,"eduler":9943,"Ġgeodes":9944,"ĠJer":9945,"DEBUG":9946,"}~\\":9947,"odd":9948,"Ġfails":9949,"socket":9950,"Ġcaref":9951,"dual":9952,"ĠArt":9953,"|=":9954,"ILE":9955,"sky":9956,"Ġoffers":9957,"Ġembedded":9958,"correspon":9959,"ĠÎ":9960,"atz":9961,"Ps":9962,"Ġunderstood":9963,"enes":9964,"checked":9965,"ĠBrown":9966,"how":9967,"Ġprotect":9968,"Batch":9969,"Ġtrunc":9970,"ĠChinese":9971,"Ġdocuments":9972,"Furthermore":9973,"Ġgir":9974,"EventListener":9975,"Ġtrajectories":9976,"ĠMichael":9977,"Ġcontradiction":9978,"Ġdivis":9979,"Ġinduction":9980,"Ġneutron":9981,"Ġappeared":9982,"Ġindicating":9983,"unded":9984,"Pix":9985,"ĠWal":9986,"Word":9987,"Ġmerge":9988,"hed":9989,"ĠTH":9990,"Ġisomorphic":9991,"decor":9992,"timeout":9993,"Ġagreed":9994,"Ġaddresses":9995,"tar":9996,"Ġplans":9997,"AST":9998,"ĠOffice":9999,"USER":10000,"citealt":10001,"sych":10002,"Ġ''":10003,"Ġproperly":10004,"aming":10005,"sync":10006,"nc":10007,"ELD":10008,"ĠMarkov":10009,"Ġcontrolled":10010,"NC":10011,"ĠALIGN":10012,"Are":10013,"ario":10014,"Ġvalign":10015,"Ġsett":10016,"UV":10017,"Ġvehicle":10018,"ingly":10019,"stone":10020,"distribution":10021,";\\;":10022,"Ġpanels":10023,"Ġpenal":10024,"house":10025,"Ġpromis":10026,"=[":10027,"Ġdou":10028,"esian":10029,"Ġprovider":10030,"\"].":10031,"=\"$":10032,"Limit":10033,"GER":10034,"getElementById":10035,"(\"/":10036,"optional":10037,"ĉĠĠĠĠĠĠĠ":10038,"Ġlogarith":10039,"acebook":10040,"Ġsky":10041,"udent":10042,"PM":10043,"ĠFl":10044,"Ġchecked":10045,"ĠShow":10046,"Ġunitary":10047,"Ġinstrument":10048,"compile":10049,"Ø±":10050,"ANT":10051,"âĢĿ.":10052,"ĠProperty":10053,"motion":10054,"Ġrespective":10055,"Elements":10056,"route":10057,"opts":10058,"Ġinvestigation":10059,"Animation":10060,"sun":10061,"Ġtrust":10062,"Enter":10063,"hd":10064,"ĠWrite":10065,"incre":10066,"iller":10067,"Ġanalys":10068,"Validation":10069,"ova":10070,"PHP":10071,"Ġruntime":10072,"ĠPRO":10073,"fast":10074,"Ġchiral":10075,"Ġillustrated":10076,"PROJECT":10077,"Sa":10078,"west":10079,"}})$":10080,"Ġcalling":10081,"Children":10082,"found":10083,"Ġlabeled":10084,"Ġlimitations":10085,"Ġpassing":10086,"Ġmacro":10087,"Another":10088,"ĠLou":10089,"kwargs":10090,"aria":10091,"ĠLand":10092,"Ġexport":10093,"Ġdivided":10094,"xygen":10095,"aughter":10096,"Ġrare":10097,"ros":10098,"Ġnaturally":10099,"edu":10100,"Ġproton":10101,"}))":10102,"Ġproduces":10103,"lips":10104,"Ġopts":10105,"ĠSource":10106,"Ġpain":10107,"ĠANY":10108,".}\\":10109,"ĠðŁ":10110,"ĠIts":10111,"Ġdrive":10112,"ĠEm":10113,"oked":10114,"MIN":10115,"*\\":10116,"ANCE":10117,"standard":10118,"Ġsparse":10119,"Ġsimultaneously":10120,"RT":10121,"III":10122,"ĠCNN":10123,"interval":10124,"\\,{\\":10125,"Ġplease":10126,"QU":10127,"suff":10128,"Ġremember":10129,"rece":10130,"Ġbudget":10131,"Ġspirit":10132,"triang":10133,"arial":10134,"Ġpapers":10135,"ĠZe":10136,"istant":10137,"Ġdominated":10138,"Ġbenefits":10139,"icity":10140,"Ġroughly":10141,"Ġpas":10142,"Ġclock":10143,"Ġciti":10144,"raints":10145,"Ġscroll":10146,"Ð²":10147,"!\\!\\!\\!\\!\\!\\!\\!":10148,"Tw":10149,"Ġfunctor":10150,"constructor":10151,"substack":10152,"merge":10153,"ĠTri":10154,"/_":10155,"memory":10156,"ĠCase":10157,"Ġaware":10158,"Ġneutral":10159,"oses":10160,"Ġstationary":10161,"Ġeth":10162,"wd":10163,"tur":10164,"GO":10165,"pix":10166,"ountry":10167,"atar":10168,"ĠFore":10169,"yan":10170,"Ġdestination":10171,"Sur":10172,"estival":10173,"æĸ":10174,"runtime":10175,"\\,,":10176,"Ġkinetic":10177,"artin":10178,"touch":10179,"andemic":10180,"1970":10181,"Ġdrawn":10182,"Ġvalu":10183,"Ġfermion":10184,"apt":10185,"gz":10186,"Ġcomparing":10187,"subfloat":10188,"Ġpresents":10189,"Ġ>>":10190,"Ġconformal":10191,"Ġ&$":10192,"entities":10193,"']['":10194,"Save":10195,"ĠHy":10196,"ĠTim":10197,"Setting":10198,"dark":10199,"CV":10200,"ĠMus":10201,"ĠRob":10202,"lined":10203,"ĠAng":10204,"cep":10205,"Ġorbits":10206,"above":10207,",\\!\\!\\!\\!\\!\\!\\!\\!":10208,"}}=\\":10209,"ĠLeague":10210,"Ġspherical":10211,"Ġpropagation":10212,"lab":10213,"zure":10214,"Ġreward":10215,"Ġinvolves":10216,"Ġpiece":10217,"uniform":10218,"ĠCommittee":10219,"Arch":10220,"127":10221,"ĠGlobal":10222,"earning":10223,"ashion":10224,"vertical":10225,"lands":10226,"ĠTheir":10227,"aba":10228,"ĠMer":10229,"Ġamplitudes":10230,"Ġopened":10231,"ĠTexas":10232,"Ġcouplings":10233,"Ġ@\"":10234,"NSString":10235,"tp":10236,"Ġcommerc":10237,"Make":10238,"bounded":10239,"|-":10240,"Ġclick":10241,"Ġelectronic":10242,"ctive":10243,"}<":10244,">'":10245,"ifiers":10246,"month":10247,"FP":10248,"parts":10249,"dashed":10250,"HD":10251,"Focus":10252,"tructure":10253,"good":10254,"Ġclaims":10255,"Ġjoined":10256,"rage":10257,"Ġclosely":10258,"%\"":10259,"Ġissu":10260,"ĠBlock":10261,"1989":10262,"ounted":10263,"ĠLin":10264,"Mat":10265,"Ġwhenever":10266,"mathds":10267,"Ġvill":10268,"ĠGermany":10269,"navigation":10270,"ĠEducation":10271,"Basic":10272,"Ġcontents":10273,"Ġcharacterized":10274,"ulas":10275,"rical":10276,"ĉĠĠĠĠĠ":10277,"claim":10278,"{\"":10279,"ssl":10280,"ccc":10281,"Ġdiscrimin":10282,"Ġadjacent":10283,"native":10284,"Drawing":10285,"eller":10286,"Ġkept":10287,"Ġglob":10288,"eto":10289,"catch":10290,"COMP":10291,"Endpoint":10292,"sess":10293,"Ġelimin":10294,"nl":10295,"ĠBob":10296,"Ġrecognition":10297,"ĠLat":10298,"ĠSociety":10299,"Ġtrial":10300,"selection":10301,"comes":10302,"Ġtags":10303,"validation":10304,"ndef":10305,"Ġsb":10306,"Ġidentification":10307,"Ġsemantic":10308,"Constant":10309,":@\"":10310,"database":10311,"icts":10312,"factory":10313,"ĠAward":10314,"Ġthin":10315,"logo":10316,"Ġconversion":10317,"ĠAfrican":10318,"Platform":10319,"Ġincome":10320,"Ġfilters":10321,"aux":10322,"Ġmobile":10323,"Ġtheme":10324,"Ġmanufact":10325,"Ġcorpor":10326,"thrift":10327,"oking":10328,"Ġpotentially":10329,"SSL":10330,"Many":10331,"')$":10332,"Rate":10333,"elines":10334,"vironments":10335,"Ġends":10336,")|\\":10337,"prot":10338,"isions":10339,"Ġcauses":10340,"Div":10341,"TF":10342,"react":10343,"Ġintroduction":10344,"Ġextensions":10345,"Ġ$\\|":10346,"Ġrepresentative":10347,"ctors":10348,"iden":10349,"Ġboundaries":10350,"Ġdecreasing":10351,"Mac":10352,"Ġparties":10353,"ï¼Į":10354,"Ġcompletion":10355,"Environment":10356,"Ġbank":10357,"ĠSi":10358,"Screen":10359,"visible":10360,"Consumer":10361,"Ġstronger":10362,"distance":10363,"otient":10364,"Cur":10365,",~":10366,"Ġopt":10367,"watch":10368,"ApJ":10369,"Ġdescribing":10370,"Ġpowers":10371,"ORY":10372,"Ġrenormal":10373,"inity":10374,"animation":10375,"Ign":10376,"Ġfaith":10377,"ĠDocument":10378,"ĠMary":10379,"abc":10380,"Ġsit":10381,"=-\\":10382,"ĠIII":10383,"unities":10384,"Dictionary":10385,"Ġprofessional":10386,"Ġind":10387,"lipse":10388,"Ġincident":10389,"Ġperhaps":10390,"Ġjobs":10391,"selector":10392,"icensed":10393,"messages":10394,"Ġgrand":10395,"submit":10396,"InputStream":10397,"Ġgene":10398,"ĠPage":10399,"Ġeveryone":10400,"ĠObserv":10401,"middle":10402,"Ġsmallest":10403,"Ġconducted":10404,"ĠOptional":10405,"Experim":10406,"ĠThomas":10407,"Condition":10408,"Ġenjoy":10409,"spaces":10410,"ĠĠĠĠĠĠĠĠĠĠĊ":10411,"destroy":10412,"given":10413,"Ġplanning":10414,"(--":10415,"CHAR":10416,"once":10417,"Ġconfirmed":10418,"release":10419,"clusions":10420,"Allow":10421,"Ġlegis":10422,"mapping":10423,"oved":10424,"Bal":10425,"Ġanni":10426,"valuation":10427,"Ġcomposed":10428,"physical":10429,"Flag":10430,"osc":10431,"validate":10432,">$":10433,"elements":10434,"exit":10435,"Ġsurround":10436,"Ġdiscussions":10437,"Ġoccurred":10438,"ĠCG":10439,"Ġoperating":10440,"'}\\":10441,"Fix":10442,"cher":10443,"ĠSecret":10444,"bro":10445,"åĲ":10446,"Ġtransactions":10447,"111":10448,"ĠJournal":10449,"Ġprotection":10450,"Ġartif":10451,"Ter":10452,"Binary":10453,"Ġexcited":10454,"fb":10455,"ĠAtt":10456,"STRING":10457,"Ġflows":10458,"ĠassertThat":10459,"clone":10460,"fortun":10461,"uling":10462,"ĠLy":10463,"between":10464,"Ġcharges":10465,")=(":10466,"PUT":10467,"Ġadopt":10468,"stain":10469,"ining":10470,"compute":10471,"Ġplotted":10472,"Ġcriterion":10473,"examples":10474,"transaction":10475,"Sl":10476,"wa":10477,"Ġcircuit":10478,"Ġfinished":10479,"Ġturbul":10480,"Ġproposition":10481,"tesian":10482,"Ġhor":10483,"ĠPoisson":10484,"Ġfigures":10485,"Ġrobot":10486,"conduct":10487,"Ġcomparable":10488,"geo":10489,"ĠDan":10490,"Ġdefinite":10491,"extend":10492,"Ġcopies":10493,">\"":10494,"Ġconcentration":10495,"amer":10496,"Navigation":10497,"Based":10498,"REG":10499,"ĠSmith":10500,"sequences":10501,"subject":10502,"lfloor":10503,"Ġpric":10504,"loading":10505,"Ġendpoint":10506,"Ġmission":10507,"Ġtight":10508,"mix":10509,"Ġchallenging":10510,"wbr":10511,"Ġpacket":10512,"tiveness":10513,"cou":10514,"Free":10515,"osh":10516,"ece":10517,"Ġchance":10518,"Axis":10519,"Ġconfigure":10520,"CLASS":10521,"ĠAGN":10522,"Ġdedic":10523,"mes":10524,"through":10525,"Ġangles":10526,"Ġdecays":10527,"approxi":10528,"Ġgenerators":10529,"Sql":10530,"VE":10531,"issues":10532,"Objects":10533,"Ġinstant":10534,"ĠĠĠĠĠĊ":10535,"Validator":10536,"HP":10537,"ĠAndroid":10538,"Ġcolors":10539,"ĠInstead":10540,"Ġstabil":10541,"ographic":10542,"Ġvariant":10543,"Ġdisplayed":10544,"havior":10545,"Ġregistered":10546,"inherit":10547,"sr":10548,"Ġdrag":10549,"'$,":10550,"cfg":10551,"cu":10552,"ĠBuild":10553,"processing":10554,"ĠCath":10555,"ifndef":10556,"ĠMil":10557,"typename":10558,"Ġsubsets":10559,"Ġ{{\\":10560,"Ġbinding":10561,"ĠDirac":10562,"umul":10563,"esides":10564,"isEmpty":10565,"created":10566,"çĶ":10567,"Ġaudi":10568,"aton":10569,"rfloor":10570,"independent":10571,"Ġnormalization":10572,"embed":10573,"Ġjump":10574,"atio":10575,"reh":10576,"brace":10577,"esome":10578,"&$":10579,"Ġbuf":10580,"Ġenv":10581,"pmb":10582,"Program":10583,"Ġopening":10584,"theory":10585,"perature":10586,"Dependency":10587,"Ġcomplicated":10588,"Ð¼":10589,"DOM":10590,"Ġpretty":10591,"Tile":10592,"Ġaccepted":10593,"ÑģÑĤ":10594,"Ġvote":10595,"Ġaffine":10596,"Ġinvolve":10597,"Ġoutcome":10598,"ĠQCD":10599,"SELECT":10600,"training":10601,"Ġanisot":10602,"Upsilon":10603,"ĠClear":10604,"Ġlabor":10605,"Ġleaves":10606,"Ġslope":10607,"Ġconvers":10608,"Ġrgba":10609,"assign":10610,"}&\\":10611,"domin":10612,"Ġsql":10613,"Ġextreme":10614,"Ġ_.":10615,"strip":10616,"verter":10617,"DEF":10618,"Ġbroken":10619,"rink":10620,"GP":10621,"Ġ\\\"":10622,"ĠConst":10623,"Ġ\"\";":10624,"iminal":10625,"liography":10626,"Ġdelta":10627,"ĠSoftware":10628,"ĠLore":10629,"Edge":10630,"cv":10631,"Ġbary":10632,"creens":10633,"estimate":10634,"Cloud":10635,"Overview":10636,"Ġplots":10637,"ĠCoq":10638,"ĠLib":10639,"amel":10640,"ĠBit":10641,"ĠFermi":10642,"ĠAssume":10643,"Ġcursor":10644,"Ġassignment":10645,"Ġreserved":10646,"Volume":10647,"mak":10648,"ĠPen":10649,"Own":10650,"Day":10651,"Ġlanguages":10652,"ĠResponse":10653,";\"":10654,"iso":10655,"Ġanimation":10656,"$_{\\":10657,"ĠMain":10658,"ĠElement":10659,"extra":10660,"three":10661,"apol":10662,"Ġtriang":10663,"Ġassembly":10664,"Ġds":10665,"Constructor":10666,"Ġlatent":10667,"ĠFROM":10668,"ronic":10669,"Html":10670,"Linear":10671,"jd":10672,"Usage":10673,"abit":10674,"Annotation":10675,"aches":10676,"ĠTimes":10677,"Ġinsert":10678,"Ġkilled":10679,"Ġroots":10680,"Ġinnov":10681,"nolimits":10682,"forEach":10683,"ĠAdmin":10684,"lie":10685,"forma":10686,"dv":10687,"ĠCP":10688,"ectivity":10689,"Ġtot":10690,"Ġorganized":10691,"asion":10692,"reci":10693,"Ġmechanisms":10694,"IOException":10695,"Prov":10696,"owner":10697,"Ġdisjoint":10698,"Ty":10699,"anging":10700,"Ġsharp":10701,"Bigl":10702,"Ġappearance":10703,"Ġsegmentation":10704,"ĠMex":10705,"Ġelif":10706,"stage":10707,"[]{":10708,"fetch":10709,"Ġphoto":10710,"Ġlistener":10711,"develop":10712,"Ġcollisions":10713,"Ġcommonly":10714,"ĠDistr":10715,"Ġrequested":10716,"Ġperturbations":10717,"ĠUs":10718,"Ġfinds":10719,"Ġtriangle":10720,"atibility":10721,"Ġeconomy":10722,"DATA":10723,"Ġarriv":10724,"relative":10725,"gets":10726,"UB":10727,"Ġbus":10728,"ĠMC":10729,"Assume":10730,"%,":10731,"cripts":10732,"pared":10733,"Android":10734,"FN":10735,"Ġinterior":10736,"umps":10737,"ArgumentException":10738,"SCRIPT":10739,"frag":10740,".},":10741,"nob":10742,"isset":10743,"ighter":10744,"ORDER":10745,"ardi":10746,"expand":10747,",'":10748,"ola":10749,"Ġgenerates":10750,"ĠDevelopment":10751,"integer":10752,"Ã³n":10753,"512":10754,"ĠBal":10755,"scriptscript":10756,"ounds":10757,"Ġaux":10758,"license":10759,"cost":10760,"lr":10761,"Ġclin":10762,"radio":10763,"ĠSearch":10764,"aneous":10765,"ĠDirector":10766,"foreach":10767,"ĠTur":10768,"Native":10769,"Ġfirm":10770,"ĠRiemann":10771,"}_{{\\":10772,"()),":10773,"Ġ'';":10774,"scriptscriptstyle":10775,"pin":10776,"Ġprivacy":10777,"program":10778,"Ġbind":10779,"viewport":10780,"Ġraised":10781,"inement":10782,"Ġcarbon":10783,"ĠEU":10784,"Ġsy":10785,"aling":10786,"Execution":10787,"Ġlaser":10788,"Ġsep":10789,"solid":10790,"****************************************************************":10791,";|":10792,"folio":10793,"MODE":10794,"Ġacade":10795,"Ġcommercial":10796,"Join":10797,"Ġoriginally":10798,"bolic":10799,"Ġsplitting":10800,"ĠBill":10801,"Ġcentre":10802,"Ġcloser":10803,"ĠAmazon":10804,"Ġchart":10805,"ymer":10806,"Ġtelevision":10807,"utter":10808,"Vec":10809,"Ġmini":10810,"Ġranges":10811,"ĠSal":10812,"TV":10813,"Ġexpanded":10814,"odies":10815,"aten":10816,"MAP":10817,"Ġ'./":10818,")}_{\\":10819,"maps":10820,"Sol":10821,"Ġteams":10822,"]+":10823,"Ġlooks":10824,"American":10825,"Chain":10826,"Ġpartially":10827,"onald":10828,"Ġhuge":10829,"mmutable":10830,"ĠGraph":10831,"ĠMedia":10832,"700":10833,"disable":10834,"Cursor":10835,"Ġcounts":10836,"ĠEngine":10837,"Ġskip":10838,"Stop":10839,"ĠRobert":10840,"front":10841,"Vir":10842,"Bbb":10843,"avity":10844,"Ġwasn":10845,"Ġutility":10846,"forcement":10847,"Ġcovering":10848,"supervised":10849,"cyc":10850,"\\|_{\\":10851,"chart":10852,"Ġsegments":10853,"Ġloaded":10854,"essible":10855,"Ġindependently":10856,"Once":10857,"Ġsustain":10858,"ĠLink":10859,"oving":10860,"ĠTor":10861,"']);":10862,"ĠAcade":10863,"Imple":10864,"Ġweakly":10865,"Ġcommands":10866,"ĠApache":10867,"Ġ$[\\":10868,"Ġdiver":10869,"Wait":10870,"Ġrad":10871,"onts":10872,"Ġimmediate":10873,"âĢĿ,":10874,"ĠPoint":10875,"1987":10876,"Proto":10877,"(\"#":10878,"Drag":10879,"rypted":10880,"deprecated":10881,"Ġharmonic":10882,"å®":10883,"Ġful":10884,"Ġreality":10885,"recated":10886,"lli":10887,"Ġcircular":10888,"ĠCA":10889,"Ġpulse":10890,"Bigr":10891,"osoph":10892,"press":10893,"ĠFurther":10894,"Ġolder":10895,"Ġcone":10896,"ĠNav":10897,"oidal":10898,"}\\;":10899,"Binding":10900,"Ġ}{\\":10901,"Ġmoves":10902,"Ġdiscovered":10903,"/\">":10904,"=\\\"":10905,"accept":10906,"cov":10907,"Ġvanishes":10908,"design":10909,"Ġcollapse":10910,"Serv":10911,"ĠOC":10912,"arma":10913,"metric":10914,"Ġintrinsic":10915,"libs":10916,"cassandra":10917,"ntz":10918,"calendar":10919,"ĠĠĠĠĠĠĠĠĠĠĠĠĠĠĠĠĠĠĠĠĠĠĠĠĠĠĠĠĠĠĠĠĠ":10920,"take":10921,"combin":10922,"Ġdecades":10923,"Ġparticipants":10924,"Ġfav":10925,"=(\\":10926,"ĠGold":10927,"ĠDescription":10928,"dz":10929,"Should":10930,"Ġthanks":10931,"Ġedit":10932,"ligible":10933,"elem":10934,"cn":10935,"ourse":10936,"scribe":10937,"Ġple":10938,"Ġulti":10939,"nostics":10940,"^^":10941,"Ġexerc":10942,"/*!":10943,"Ġroll":10944,"Ġwal":10945,"Light":10946,"Ġencoder":10947,"uming":10948,"ĠWIDTH":10949,"ĠJacob":10950,"ï¿½ï¿½":10951,"Ġexponent":10952,"django":10953,"Ġdeveloping":10954,"Ġpandemic":10955,"contents":10956,"Ġcontinues":10957,"was":10958,"uma":10959,"chitz":10960,"ĠAuto":10961,"stitutions":10962,"icine":10963,"umes":10964,"Ġ$<":10965,"Ġoutper":10966,"Sm":10967,"Ġclassifier":10968,"zes":10969,"åħ":10970,"ĠGre":10971,"Ġpara":10972,"Ġperforms":10973,"Ġpermissions":10974,"cle":10975,"ĠWAR":10976,"WORD":10977,"Ġspacetime":10978,"ĠChild":10979,"ĠSets":10980,"EEE":10981,"ios":10982,"Ġpat":10983,"ĠMat":10984,"ĠJose":10985,"facebook":10986,"ĠDistrict":10987,"1988":10988,"labels":10989,"LOC":10990,"Ġinterview":10991,"Ġconsec":10992,"Ġreverse":10993,"INST":10994,"Ġguarantee":10995,"arguments":10996,"binding":10997,"ĠCongress":10998,"Ġselector":10999,"ĠXML":11000,"Ġproto":11001,"}.\\":11002,"metic":11003,"005":11004,"isy":11005,"ĠKen":11006,"ĠCustom":11007,"Ġmarginal":11008,"ĠMany":11009,"ĠSecurity":11010,"ĠDEFAULT":11011,"ggreg":11012,"highlight":11013,"enty":11014,"Ġnonzero":11015,"'+":11016,"vskip":11017,"zip":11018,"Resolver":11019,"Frames":11020,"Ġdriven":11021,"Ġna":11022,"Theme":11023,"ĠOrder":11024,"Ġgold":11025,"Fn":11026,"adian":11027,"GA":11028,"Ġenumer":11029,"Information":11030,"driver":11031,"Year":11032,"quark":11033,"&-":11034,"Ġexhibit":11035,"boost":11036,"ĠAnother":11037,"ih":11038,"inue":11039,"<<":11040,"Ġmanip":11041,"iliary":11042,"Ġshot":11043,"score":11044,",(":11045,"Ġsatell":11046,"ogen":11047,"Ġordering":11048,"riteria":11049,"ĠHuman":11050,">)":11051,"Ġ$$\\":11052,"DIS":11053,"Ġcancell":11054,"Mapper":11055,"Dem":11056,"Serializer":11057,"amps":11058,"risis":11059,"Ġprog":11060,"pheric":11061,"Ġconsistency":11062,"Ġinflation":11063,"Ñĩ":11064,"Diff":11065,"Ġplasma":11066,"written":11067,"Ġqualit":11068,"Card":11069,"Ġprobe":11070,"orders":11071,"gov":11072,"})_{":11073,"Ġdeduce":11074,"Ġinser":11075,"Ġmys":11076,"Ġeasier":11077,"ĠĠĠĠĠĠĠĠĠĠĠĠĠĠĠĠĠĠĠĠĠĠĠĠĠĠĠĠĠĠĠĠĠĠĠĠĠĠĠĠĠĠĠĠĠĠĠ":11078,"pf":11079,"Person":11080,"Drop":11081,"getId":11082,"ĠJust":11083,"potential":11084,"phrase":11085,"Ġperiods":11086,"binary":11087,"ĠRegister":11088,"}}}{":11089,"ĠTom":11090,"Ġlinearly":11091,"ĠReview":11092,"delay":11093,"ĠVari":11094,"Ġentirely":11095,"atalog":11096,"Ġvan":11097,"Ġdecisions":11098,"NET":11099,"ĠGame":11100,"ĠControl":11101,"Ġconventional":11102,"Cs":11103,"interpre":11104,"istogram":11105,"Amount":11106,"Ġnumerous":11107,"ourn":11108,"ĠSign":11109,"Ġ_,":11110,"Ġinitialize":11111,"ĠEner":11112,"evertheless":11113,"kernel":11114,"ĠServices":11115,"construct":11116,"Ġanalytical":11117,"mms":11118,"Ġ\">":11119,"Ġspar":11120,"}_{(":11121,"Ġcertainly":11122,")}=":11123,"Ġfunding":11124,"noise":11125,"BPACK":11126,"feed":11127,"Ġidentifier":11128,"kov":11129,"restr":11130,"Timer":11131,"_);":11132,"icago":11133,"Ã£":11134,"tron":11135,"Ġsuffices":11136,"ideos":11137,"homology":11138,"ĠBur":11139,"@{}":11140,")|^":11141,"Login":11142,"eld":11143,"Ġwhom":11144,"ĠRemove":11145,"olf":11146,"Ġ^{\\":11147,"Ġsupply":11148,"Ġig":11149,"ĠAS":11150,"ordered":11151,"Ġforced":11152,"Ġdetermines":11153,"Private":11154,"Ġclosure":11155,"Ġtwice":11156,"pad":11157,"Bottom":11158,"]))":11159,"ĠMusic":11160,"ĠApplication":11161,"NotFound":11162,"Ġprojective":11163,"Ġsampled":11164,"writer":11165,"Ġvision":11166,"Unknown":11167,"Ġcycles":11168,"Ġlocalized":11169,"than":11170,"Ġgoals":11171,"Ġsensor":11172,"Ġsynthetic":11173,"raining":11174,"ĠFil":11175,"protect":11176,"pd":11177,"cred":11178,"ĠEvery":11179,"renewcommand":11180,"'}$":11181,"Ġhistorical":11182,"Ġdy":11183,"lector":11184,"ĠIllegal":11185,"predic":11186,"Ġhour":11187,"kern":11188,"Ġenvironmental":11189,";|&":11190,"ĠBook":11191,"ĠMock":11192,"]^{":11193,"Ġprison":11194,"CONT":11195,"ĠRoman":11196,"Prev":11197,"Ġpriority":11198,"fmt":11199,"130":11200,"ora":11201,"optimal":11202,"Ġ}$":11203,"Random":11204,"Ġnine":11205,"Ġbuy":11206,"fluid":11207,"Ġpaid":11208,"resolution":11209,"Ġcoherent":11210,"ĠSym":11211,"closed":11212,"140":11213,"Ġloading":11214,"Ġsomewhat":11215,"Ġidx":11216,"Similarly":11217,"ĠHen":11218,"taining":11219,"erman":11220,"Ġarise":11221,"Ġamb":11222,"Ġstructural":11223,"Ġfelt":11224,"Throw":11225,"Ġ>>>":11226,"{[":11227,"Ġ\"\",":11228,"'d":11229,"ĠPython":11230,"directory":11231,"Ġseparately":11232,"\\}}":11233,"ariate":11234,"bose":11235,"born":11236,"OW":11237,"BH":11238,"ĠFix":11239,"Ġgenerality":11240,"Ġconflict":11241,"velope":11242,"RS":11243,"About":11244,"\"},":11245,"ĠSocial":11246,"Ġresolved":11247,"Ġdisapp":11248,"Ġrefers":11249,"scala":11250,"Ġfragment":11251,"Ġconstrained":11252,"Ġprepar":11253,"TRY":11254,"Raw":11255,"burg":11256,"bus":11257,"Ġinfer":11258,"Ġintended":11259,"Ġ'.":11260,"Ġaspect":11261,"ĠEuclidean":11262,"Ð°Ð½":11263,"Ġanalogous":11264,"Also":11265,"Ġexcell":11266,"??":11267,"Ġentities":11268,"Ġstrug":11269,"Ġconsideration":11270,"ĠFrancis":11271,"assertTrue":11272,"ĠSund":11273,"Driver":11274,"Ġsuc":11275,"Ġcollege":11276,").}":11277,"Ġstat":11278,"Ġinterpreted":11279,"alities":11280,"ĠMonte":11281,"Ġbriefly":11282,"ipment":11283,")!":11284,"Ġconservation":11285,"Groups":11286,"je":11287,"emit":11288,"Ġmathematical":11289,"Ġdeploy":11290,"Compat":11291,"plays":11292,"Ġsending":11293,"Ġ\"%":11294,"Ġsteady":11295,"Ġtracking":11296,"EP":11297,"Ġflo":11298,"Ġprogramming":11299,"Span":11300,"ĠWindows":11301,"ENV":11302,"Ġfinitely":11303,"ouds":11304,"ĠWIT":11305,"Ġvictim":11306,"Ġvelocities":11307,"ÙĨ":11308,"Ġce":11309,"Ġchoosing":11310,"ĠBusiness":11311,"Ġliquid":11312,"})(":11313,"ĠMicrosoft":11314,"Complete":11315,"Ġdistrict":11316,"itations":11317,"Ġneur":11318,"Ġlargely":11319,"ĠClient":11320,"ĠWay":11321,"ĠAuthor":11322,"Super":11323,"Ġtokens":11324,"outer":11325,"Ġconcer":11326,"fp":11327,"ĠCentral":11328,"Ġignored":11329,"}}}$":11330,"Ġembeddings":11331,"ali":11332,"utdown":11333,"Ġfetch":11334,"UND":11335,"})-":11336,"ĉĠĠ":11337,"putation":11338,"Ġcolour":11339,"LM":11340,"Ġimplied":11341,"112":11342,"Mag":11343,"Ġanchor":11344,"Nullable":11345,"Append":11346,"Ġwitness":11347,"Ġpeace":11348,"Compiler":11349,"Ġelliptic":11350,"ĠManagement":11351,"ewise":11352,"Ġhybrid":11353,"Observ":11354,"mobile":11355,"fortunately":11356,"Ġclip":11357,"~(":11358,"6666":11359,".(\\":11360,"Pers":11361,"Ġholes":11362,"alert":11363,"outs":11364,"heading":11365,"nof":11366,"imitive":11367,"}\\}$":11368,"}=(":11369,"ĠSC":11370,":'":11371,"inn":11372,"gre":11373,"Ġhelped":11374,"uffers":11375,"1024":11376,"BI":11377,"glyphicon":11378,"BT":11379,"ĠCarlo":11380,"neutr":11381,"ĠWARRAN":11382,"XY":11383,"Static":11384,"Renderer":11385,"Doctrine":11386,"available":11387,"ONG":11388,"separ":11389,"ancer":11390,"hole":11391,"FOR":11392,"including":11393,"ĠRecall":11394,"liament":11395,"Ġrely":11396,"Ġescape":11397,"Ġpromise":11398,"altColor":11399,"Ġdispatch":11400,"Ġscientific":11401,"Permission":11402,"ĠLos":11403,"ĠConfiguration":11404,"Fil":11405,"Ġinfinity":11406,"consistent":11407,"Microsoft":11408,"NV":11409,"twitter":11410,"bench":11411,"Depth":11412,"NU":11413,"(|":11414,"^{[":11415,"Alloc":11416,"Ġpeaks":11417,"Ġbug":11418,"bundle":11419,"Tick":11420,"*{-":11421,"degree":11422,"Ġresearchers":11423,"Env":11424,"Ġillustrate":11425,"may":11426,"ĠArmy":11427,"mach":11428,"\"/":11429,"))$.":11430,"Ġ\\#":11431,"Ġing":11432,"ĠStatus":11433,"Ġrepository":11434,"Ġ'',":11435,"Br":11436,"ĠLjava":11437,"ĠSH":11438,"Ġalignment":11439,"Named":11440,"autoref":11441,"ĠAbstract":11442,"Ġabundance":11443,"Center":11444,"Ġhappened":11445,"Ġmanaged":11446,"toBe":11447,"implement":11448,"Ġfindings":11449,"Med":11450,"ATED":11451,"Ġrelationships":11452,"aste":11453,"Ġcorner":11454,"Ġsummer":11455,"Ġconcerns":11456,"ipping":11457,"}_+":11458,"ĠAnn":11459,"Fore":11460,"cry":11461,"coordinate":11462,"Ġfilled":11463,"dispatch":11464,"ancell":11465,"Ġhelps":11466,"mr":11467,"UST":11468,"Ġ\".":11469,"Sem":11470,"')\\":11471,"ipschitz":11472,"kk":11473,"Ġaccounts":11474,"aui":11475,"Ġmur":11476,"Ġ{},":11477,"Ġdeformation":11478,"Ġorganizations":11479,"Gui":11480,"licenses":11481,"Ġcalibration":11482,"Ġwonder":11483,"Ġrealistic":11484,"è¯":11485,"Ġsaved":11486,"partition":11487,"contact":11488,"ERS":11489,"frequency":11490,"ĠStudi":11491,"TestCase":11492,"Ġintegrals":11493,"Ġconvenient":11494,"Fact":11495,"Ġdissip":11496,"GM":11497,"NODE":11498,"ĠRussian":11499,"ĠPM":11500,"Ġ<-":11501,"canvas":11502,"underset":11503,"Ġaccum":11504,"Users":11505,"Ġexecuted":11506,"Ġjs":11507,"ĠDO":11508,"Ġseed":11509,"Rows":11510,"Ġadmits":11511,"Ġenvironments":11512,"Ã£o":11513,"ĠAmericans":11514,"utoff":11515,"wx":11516,"Ġleaving":11517,"ĠBest":11518,"ĠFund":11519,"Ġphil":11520,"Ġencoded":11521,"ĠYour":11522,"Ġstands":11523,"Ġsongs":11524,"uality":11525,"anck":11526,"tages":11527,"ĠHome":11528,"Messages":11529,"ĠStandard":11530,"uber":11531,"Ġpayload":11532,"ĠBank":11533,"Ġ{%":11534,"Ġquarter":11535,"ĠMuseum":11536,"ĠOriginal":11537,"Ġfmt":11538,"Ġrelaxation":11539,"tig":11540,"Ġquotient":11541,"abric":11542,"Audio":11543,"Ġwire":11544,"Ġpermission":11545,"Ġours":11546,"Ġrecovery":11547,"translate":11548,"Ġdim":11549,"ĠEcon":11550,"Ġexpos":11551,"Ġneither":11552,"iton":11553,"ĠFacebook":11554,"ĠArab":11555,"Ġfif":11556,"ationToken":11557,"1986":11558,"pot":11559,"Ġexcess":11560,"Ġfacts":11561,"Console":11562,"ceeded":11563,"atorial":11564,"Processor":11565,"referred":11566,"Ġowners":11567,"Ġentered":11568,"Ġcredit":11569,"Ġgeomet":11570,"jQuery":11571,"Ġviolence":11572,"Ġcreates":11573,"ĠEnergy":11574,"Ġquas":11575,"INS":11576,"AUT":11577,"MMARY":11578,"ĠSam":11579,"Ġrealized":11580,"RUN":11581,"LY":11582,"Si":11583,"WH":11584,"eth":11585,"shal":11586,"Ġcyl":11587,"polar":11588,"hbase":11589,"STM":11590,"Ġcorrespondence":11591,"Ġcaptured":11592,"figs":11593,"verted":11594,"9999":11595,"Border":11596,"Ġspot":11597,"repo":11598,"Phone":11599,"pkg":11600,"Ġinduces":11601,"Numer":11602,"Ġbrand":11603,"\\,.":11604,"bilities":11605,"ĠSpecifically":11606,"Folder":11607,"ĠTE":11608,"ĠWestern":11609,"pn":11610,"102":11611,"Orig":11612,"pic":11613,"Ġdownload":11614,"ĠRemark":11615,"Ġconjecture":11616,"ayer":11617,"ĠLast":11618,"ĠSpace":11619,"ĠTaylor":11620,"Ġpaint":11621,"Constraint":11622,"BF":11623,"reader":11624,"ĠRussia":11625,"RED":11626,"ĠFOR":11627,"Ġtried":11628,".*;":11629,"ĠMass":11630,"repository":11631,"Ġrecording":11632,"'',":11633,"Remote":11634,"ĠItem":11635,"Deprecated":11636,"ustice":11637,"riage":11638,"blob":11639,"life":11640,".\"\"\"":11641,"Ġwest":11642,"Ġinvestment":11643,"kins":11644,"Zone":11645,"Ġreceiver":11646,"lligence":11647,"Ġbelief":11648,"adv":11649,"FIELD":11650,"Strategy":11651,"Ġkeeping":11652,"Ġexcitation":11653,"HERE":11654,"Ġadministration":11655,"ĠGreat":11656,"Ġresol":11657,"Ġpermutation":11658,"John":11659,"ĠDefine":11660,"Ð¾Ð²":11661,"ira":11662,"ĠNGC":11663,"bounds":11664,"Ġlinked":11665,"Ġcompiler":11666,"Ġrm":11667,"dates":11668,"ien":11669,"ĠMeV":11670,"Ã¨":11671,"jax":11672,"Ġlists":11673,"Ġallocation":11674,"Ġviewed":11675,"Ġcorrelated":11676,"Ġfiber":11677,"ĠclassName":11678,"water":11679,"105":11680,"hether":11681,"gls":11682,"à¸":11683,")}^":11684,"pages":11685,"rian":11686,"Ġcompens":11687,"Ġdeterministic":11688,"dal":11689,"Term":11690,"lectron":11691,"ĠYoung":11692,"Ġur":11693,"Ġtransmit":11694,"Encoding":11695,"ĠOutput":11696,"bean":11697,"Ġ'%":11698,"previous":11699,"STATUS":11700,"Standard":11701,"similar":11702,"=%":11703,"deriv":11704,"ĠResult":11705,"iger":11706,"brand":11707,"Ġreligious":11708,"Ġobservable":11709,"Ġpointed":11710,"generator":11711,"Ġaveraged":11712,"dh":11713,"rgb":11714,"Ġhardware":11715,"Ġwants":11716,"rupted":11717,"Ġfemale":11718,"Ġmu":11719,"Bool":11720,"spirit":11721,"Peer":11722,"ĉĉĉĉĊ":11723,"Ġnumerically":11724,"Ġcritic":11725,"Ġenables":11726,"equival":11727,"World":11728,"Bounds":11729,"ĠNE":11730,"Ġanyone":11731,"Ġgun":11732,"ctic":11733,"FileName":11734,"rapped":11735,"IAL":11736,"tite":11737,"LIST":11738,"lint":11739,"ATCH":11740,"WEBPACK":11741,"ĠLu":11742,"tative":11743,"Ġlif":11744,"ilevel":11745,"ona":11746,"Ġcontroll":11747,"Ġpp":11748,"overning":11749,"ĠHill":11750,"ĠForce":11751,"statsmodels":11752,"cribed":11753,"ĠQuery":11754,"Ġabelian":11755,"COMM":11756,"ĠIr":11757,"Ġphone":11758,"teness":11759,"Ġimg":11760,"Hy":11761,"iration":11762,"Ġcrow":11763,"Touch":11764,"]_{":11765,"orial":11766,"ĠFr":11767,"Loop":11768,"Errors":11769,"missible":11770,"Ġofficials":11771,"Ġtables":11772,"swing":11773,"$--":11774,"Ġmarried":11775,"ĠRetri":11776,"ditive":11777,"GG":11778,"Î¿":11779,"ĠTele":11780,"ĠRights":11781,"ĠPolicy":11782,"$(\\":11783,"ĠIslam":11784,"Ġpod":11785,"Ġmaybe":11786,"weet":11787,"ragma":11788,"Ġpercentage":11789,"cean":11790,"Ġseek":11791,"riday":11792,"ĠEinstein":11793,"Ġcompreh":11794,"Ġannual":11795,"guide":11796,"ĠSV":11797,"both":11798,"Ġpotentials":11799,"Ġspl":11800,"Ġ$_":11801,"Ġclients":11802,"Ġattached":11803,"ĠAT":11804,"Ġconcerned":11805,"Ġheard":11806,"compact":11807,"Ġinterference":11808,"oned":11809,"Coin":11810,"Ġgather":11811,"Ġproves":11812,"acted":11813,"larg":11814,"Dynamic":11815,"002":11816,"Transport":11817,"Ġ$-$":11818,"ArrayList":11819,"Lib":11820,"Ġopinion":11821,"Look":11822,"Ġfamous":11823,"ducts":11824,"xim":11825,"ĠPeople":11826,"ĠPass":11827,"Connect":11828,"Ġknew":11829,"ĠResults":11830,"Ġvoice":11831,"Addr":11832,"Ġneighbors":11833,"uan":11834,"ĠFree":11835,"Ġfish":11836,"branch":11837,"ĠPDF":11838,"chy":11839,"Ġstats":11840,"idential":11841,"Ġisolated":11842,"ĠLouis":11843,"Ġease":11844,"ĠGen":11845,"Ġformalism":11846,"tl":11847,"Ġcold":11848,"Inf":11849,"Rot":11850,"ĠClo":11851,"fun":11852,"azy":11853,"Signature":11854,"iner":11855,"eval":11856,"Ġbrain":11857,"ecolor":11858,"Ġcancer":11859,"Ġdedicated":11860,"1985":11861,"ĠSTART":11862,"Release":11863,"symmetry":11864,"links":11865,"ĠLine":11866,"ĠKore":11867,"Ġimpossible":11868,"KS":11869,"IMPORTED":11870,"lst":11871,"Ġrock":11872,"Ġformulas":11873,"Ä±":11874,"ĠSpe":11875,"owski":11876,"VAR":11877,"Ġparagraph":11878,"CONFIG":11879,"usr":11880,"scss":11881,"ctree":11882,"trained":11883,"ĠOtherwise":11884,"odo":11885,"Ġunstable":11886,"Ġconverted":11887,"atre":11888,"Ġadvance":11889,"Contact":11890,"ĠOnce":11891,"ĠMajor":11892,"ĠComple":11893,"satisf":11894,"Ġmirror":11895,"Split":11896,"audio":11897,"May":11898,"Ġreducing":11899,"titled":11900,"}|^":11901,"autif":11902,"UC":11903,"Ġalleg":11904,"Ġplant":11905,"azine":11906,"ĠRight":11907,"Ġrespons":11908,"}$).":11909,"spa":11910,"ipher":11911,"Ġvot":11912,"sid":11913,"Ġdaughter":11914,"Ġsocket":11915,"Ġcombinations":11916,"360":11917,")<":11918,"Ġepisode":11919,"eving":11920,"Where":11921,"Ġreplacing":11922,"erved":11923,"Ġcities":11924,"NameLink":11925,"},{\\":11926,"gp":11927,"ĠMiddle":11928,"elcome":11929,"æķ":11930,"HEAD":11931,"ĠProv":11932,"ĠVirgin":11933,"Ġrespond":11934,"Ġprimarily":11935,"Ġcy":11936,"TY":11937,"Ġdwar":11938,"Ġcircles":11939,"Plan":11940,"ĠContext":11941,"Cmd":11942,"Ġaria":11943,"BUIL":11944,"flush":11945,"Future":11946,"chen":11947,"1984":11948,"Ġcompetition":11949,"Ġmm":11950,"Ġtuple":11951,"Copyright":11952,"Ġsales":11953,"phy":11954,"driv":11955,"xrightarrow":11956,"Ġarticles":11957,"Segment":11958,"iant":11959,"ĠML":11960,"Ġactor":11961,"Ġthermod":11962,"Ġnan":11963,"******":11964,"Ġfaces":11965,"BD":11966,"Ġcitizens":11967,"dataset":11968,"^-$":11969,"amount":11970,"priv":11971,"ĠCOL":11972,"ĠTechnology":11973,"kg":11974,"className":11975,"}(-":11976,"Ġstages":11977,"columns":11978,"Ġexports":11979,"Ġfeasible":11980,"Ġlogging":11981,"ĠColl":11982,"idel":11983,"ĠDue":11984,"Ġpopulations":11985,"Ġparametri":11986,"Ġregularization":11987,"Algorithm":11988,"Ġelastic":11989,"Ġamounts":11990,"Ġobservables":11991,"'(\\":11992,"Ra":11993,"uestion":11994,"Ġsituations":11995,"identity":11996,"ĠFrank":11997,"commons":11998,"fav":11999,"strings":12000,"$&$":12001,"ĠNon":12002,"Ġmatched":12003,"Ġcubic":12004,"bibliography":12005,"present":12006,"ĠLapl":12007,"Metrics":12008,"solution":12009,"Ġcompliance":12010,"Ġfee":12011,"Ġactivation":12012,"ĠKE":12013,"Ġsharing":12014,"Ġworst":12015,"ĠAgain":12016,"Ġtracks":12017,"icator":12018,"reatest":12019,"Ġanalyzed":12020,"ĠReport":12021,"={\\":12022,"è¿":12023,"Ġemployees":12024,"Kit":12025,"Sharp":12026,"eb":12027,"Library":12028,"AI":12029,"VICE":12030,"Ġdaily":12031,"coll":12032,"Ġelementary":12033,"attery":12034,"Ġrevealed":12035,"astern":12036,"atom":12037,"555":12038,"Ġensures":12039,"Dimension":12040,"ĠRoyal":12041,"Previous":12042,"ĉĉĠĠĠ":12043,"proj":12044,"Ġpref":12045,"Ġbecoming":12046,"tre":12047,"ĠCSS":12048,"centerline":12049,"Gra":12050,"Ġresponses":12051,"toprule":12052,"Weight":12053,"Ġencounter":12054,"respond":12055,"Ø¯":12056,"dif":12057,"ociated":12058,"rants":12059,"ĠFind":12060,"uuid":12061,"Ġcolspan":12062,"Ġguess":12063,"Ġheav":12064,"BY":12065,"Ġhospital":12066,"ĠIsland":12067,"Ġassociation":12068,"Ġreti":12069,"Ġdiscovery":12070,"Ġcentered":12071,"ĠVALIGN":12072,"orbit":12073,"ĠSUMMARY":12074,"Ġ\\\\[":12075,"ularities":12076,"ulted":12077,"displaymath":12078,"ĠOCaml":12079,"tuple":12080,"ä½":12081,"ĠCarol":12082,">()":12083,"ixtures":12084,"}}\\\\":12085,"Ġportion":12086,"hang":12087,"Fixture":12088,"Ġmale":12089,"ACH":12090,"Ġsea":12091,"ĠBern":12092,"ĠRoad":12093,"adoc":12094,"Ġordinary":12095,"geles":12096,"ĠSimple":12097,"React":12098,"Stub":12099,"ĠRegion":12100,"ĠVirtual":12101,"ĠON":12102,"Ġfashion":12103,"Locale":12104,"features":12105,"imination":12106,"ĠWilson":12107,"Ġoil":12108,"Ġartist":12109,"Ġproven":12110,"Ġdivision":12111,"DATE":12112,"Ġfunds":12113,"ogn":12114,"ĠCore":12115,"ĠAD":12116,"ĠEuler":12117,"emon":12118,"Ġconcepts":12119,"Ð´":12120,"Ġtimestamp":12121,"pectively":12122,"ĉĉĉĉĉĉĉĉĉĉ":12123,"ĠCamp":12124,"Ġclaimed":12125,"Ġreceiving":12126,"apped":12127,"Ġloops":12128,"undles":12129,"Ġmodification":12130,"Na":12131,"amazonaws":12132,"Ġroles":12133,"Material":12134,"Ġsold":12135,"Ġplaceholder":12136,"^+\\":12137,"äº":12138,"Ġinfras":12139,"ASE":12140,"Ġcultural":12141,"Ġliteral":12142,"Analysis":12143,"dn":12144,"rpc":12145,"ĠPlay":12146,"Ġdependency":12147,"Ġsurve":12148,"Ġanomal":12149,"ĠLorentz":12150,"Ġnearest":12151,"Ġboson":12152,"remote":12153,"Ġwild":12154,")\\,\\":12155,"without":12156,"Tl":12157,"Ġpuls":12158,"pref":12159,"ĠYear":12160,"ĠCS":12161,"ĠDOM":12162,"Ġstrain":12163,"ATTR":12164,"FFER":12165,"tifications":12166,"Ġles":12167,"Ġderivation":12168,"irect":12169,"Optional":12170,"ĠBayesian":12171,"}}+":12172,"(['":12173,"Counter":12174,"ortion":12175,"IZ":12176,"Ġexamine":12177,")*":12178,"Ġopportunities":12179,"uer":12180,"Observer":12181,"Ġadvanced":12182,"ĠCho":12183,"ĠBrit":12184,"ĠAccess":12185,"DTD":12186,"Ġsurrounding":12187,"ĠLibrary":12188,"Ġproposal":12189,">%":12190,"Ġpatient":12191,"Ġstudying":12192,"Ġeast":12193,"Ġhomot":12194,"TL":12195,"choose":12196,"ganization":12197,"'},":12198,"}\\)":12199,"ĠPeter":12200,"Ġpromin":12201,"Exists":12202,"ban":12203,"Ġapilevel":12204,"Ġinequalities":12205,"Ġcombining":12206,"antly":12207,"):=\\":12208,"Ġpion":12209,"'-":12210,"Because":12211,"conditions":12212,"Ġrapidly":12213,"ĠÐ²":12214,"dial":12215,"ails":12216,"Ġfer":12217,"ĠCur":12218,"Sort":12219,"Ġworker":12220,"Switch":12221,"Ġsat":12222,"ĠPop":12223,"Ġsync":12224,"Ġris":12225,"}]$":12226,"ĠCup":12227,"Dr":12228,"respectively":12229,"Ġextensive":12230,"half":12231,"fff":12232,"Ġslice":12233,"named":12234,"brane":12235,"warded":12236,"Ġfractional":12237,"Ġgoverning":12238,"................":12239,"Ti":12240,"Ġnotes":12241,"Ġcapt":12242,"Ġinvariance":12243,"plectic":12244,"cancel":12245,"WIN":12246,"Ġcrossing":12247,"Ġmagne":12248,"}}\\,":12249,"(()":12250,"ĠNewton":12251,"ĠDivision":12252,"Ġcooling":12253,"sent":12254,"atever":12255,"Uses":12256,"pq":12257,"ithmetic":12258,"haus":12259,"Ġrepeat":12260,"Ġfacilit":12261,"usband":12262,"ĠCommon":12263,"Ġdivergence":12264,"Missing":12265,"ongo":12266,"Î±":12267,"Ġrout":12268,"ĠAngeles":12269,"Ġblood":12270,"jb":12271,"Ð¿":12272,"Ġprojected":12273,"createElement":12274,"Points":12275,"Ġarrange":12276,"Master":12277,"Ġ\\,,":12278,"ĠChicago":12279,"ATOR":12280,"Ġalter":12281,"wallet":12282,"gery":12283,"Ġargue":12284,"Ġhyperbolic":12285,"ectiveness":12286,"veloc":12287,"repeat":12288,"same":12289,"Figures":12290,"ritory":12291,"Ġmouse":12292,"ratio":12293,"quality":12294,"Export":12295,"encing":12296,"Arguments":12297,"izers":12298,"ĠĠĠĠĠĠĠĠĠĠĠĠĠĠĠĠĠĠĠĠĠĠĠĠĠĠĠĠĠĠĠĠĠĠ":12299,"router":12300,"dm":12301,"Ġbra":12302,"bec":12303,"Holder":12304,"Coll":12305,"best":12306,"Ġended":12307,"news":12308,"Ġmal":12309,"Ġgeodesic":12310,"Ġmultiplication":12311,"Ġalpha":12312,"Shared":12313,"macro":12314,"ĠJson":12315,"logging":12316,"proc":12317,"Same":12318,"Ġblow":12319,"efficient":12320,"fac":12321,"Ġ\\}$":12322,"220":12323,"ĠNet":12324,"Reset":12325,"Ġpartner":12326,"Columns":12327,"Ġoffered":12328,"share":12329,"Ġsupporting":12330,"enberg":12331,"Ġcompression":12332,"Ġconclusions":12333,"ARD":12334,"Failure":12335,"ĠTwitter":12336,"multiple":12337,"timestamp":12338,"()\">":12339,"Dispatch":12340,"Ġinspired":12341,"night":12342,"Timestamp":12343,"Geometry":12344,"Ġsecure":12345,"ĠDelete":12346,"Ġconcentr":12347,"pring":12348,"ĠChange":12349,"ĠPower":12350,"fall":12351,"eros":12352,"Integr":12353,"}^{(\\":12354,"Ġhandling":12355,"ĠCurrent":12356,")~\\":12357,"Ġcovers":12358,"convert":12359,"traction":12360,"Ġchecks":12361,"ĠPlease":12362,"ĠScot":12363,"Ġintroducing":12364,"ĠGood":12365,"Ġnegligible":12366,"inx":12367,"Bs":12368,"Ġauthority":12369,"Ġcb":12370,"BN":12371,"itian":12372,"Ġleadership":12373,"tooltip":12374,"}}+\\":12375,"critical":12376,"reement":12377,"ĠBan":12378,"ktop":12379,"Ġaccomp":12380,"('<":12381,"Tok":12382,"Idx":12383,"104":12384,"ĠEV":12385,"Ġreliable":12386,"centric":12387,"Ġpurely":12388,"[{\\":12389,"Direction":12390,"Ġnewly":12391,"LETE":12392,"Ġcombine":12393,"Ġhappy":12394,"Ġphenomenon":12395,"Ġcyclic":12396,"Contents":12397,"350":12398,"Ġthinking":12399,"rival":12400,"ĠĠĠĠĠĠĠĠĠĠĠĠĠĠĠĠĠĠĠĠĠĠĠĠĠĠĠĠĠĠĠĠĠĠĠĠĠ":12401,"Ġiget":12402,"leftrightarrow":12403,"Ġtd":12404,"relax":12405,"Ġplate":12406,"Ġpin":12407,"ĠSunday":12408,"Leg":12409,"Ġfitted":12410,"wiki":12411,"Ġleaf":12412,"ARNING":12413,"Ġphotograph":12414,"pointer":12415,"GroupName":12416,"=}":12417,")\",":12418,"Related":12419,"Ġdisable":12420,"Ġobserver":12421,"Models":12422,"Ġwx":12423,"ĠBE":12424,"mbf":12425,"htbp":12426,"Ġenhanced":12427,"cepti":12428,"bigskip":12429,"gravity":12430,"1960":12431,"Ġacceleration":12432,"Ġmig":12433,"Ġaward":12434,"setlength":12435,"opam":12436,"Ġtexture":12437,"BIT":12438,"terms":12439,"192":12440,"getString":12441,"Expected":12442,"vailability":12443,"ĠSpecial":12444,"Ġbroadcast":12445,"Ġcrystal":12446,"}}}{\\":12447,"Ġbold":12448,"tier":12449,"Ġsell":12450,"RESU":12451,"GD":12452,"hskip":12453,"\">(":12454,"Detector":12455,"ĠClasses":12456,"Notice":12457,"urban":12458,"gency":12459,"Ġrestrict":12460,"1983":12461,"ĠOh":12462,"javax":12463,"Ġprocessed":12464,"bracket":12465,"ĠThread":12466,"ounce":12467,"ĠCreates":12468,"mention":12469,"onday":12470,"Month":12471,"Promise":12472,"TAG":12473,"Ġanim":12474,"ĠNotice":12475,"Ġnearby":12476,"Ġneighbour":12477,"drag":12478,"toctree":12479,"archive":12480,"ÙĦ":12481,"Ġsymmetries":12482,"tiff":12483,"tv":12484,"tm":12485,"roke":12486,"gric":12487,"Ġachieves":12488,"ĠAdditionally":12489,"Ġadversarial":12490,"mac":12491,"bling":12492,"Ġdup":12493,"Ġgender":12494,"cha":12495,"eqq":12496,"ĠBre":12497,"Ġshadow":12498,"Ġpreferred":12499,"interaction":12500,"ĠServer":12501,"ĠCas":12502,"GEN":12503,"Ġissued":12504,"ieval":12505,"Ġsmart":12506,"tention":12507,"Ġvanishing":12508,"aped":12509,"derr":12510,"*,":12511,"eno":12512,"Ġrail":12513,"Ġdotted":12514,"Dom":12515,"ointed":12516,"because":12517,"isons":12518,"(\"%":12519,"åĬ":12520,"cop":12521,"Ġtransformed":12522,"odal":12523,"ĠPet":12524,"topic":12525,"Ġproofs":12526,"ĠCD":12527,"who":12528,"googleapis":12529,"squ":12530,"ĠIter":12531,"Ġpresentation":12532,"cursor":12533,"identif":12534,"Ġpayment":12535,"ĠIran":12536,"cellcolor":12537,"speed":12538,"Ġmagnet":12539,"ĠDu":12540,"Ġboot":12541,"+|":12542,"Ġfake":12543,"Ġice":12544,"decom":12545,"Ġsun":12546,"Tri":12547,"lp":12548,"BLIC":12549,"Ġobtaining":12550,">(<":12551,"Ġimaging":12552,"Ġslot":12553,"Ġacknowled":12554,"smooth":12555,"ĠHa":12556,"',\\":12557,"CALL":12558,"}}^{(":12559,"ASS":12560,"ãĢĤ":12561,"UAL":12562,"Ġdictionary":12563,"Ġcosmic":12564,"ĠPlan":12565,"Ġalert":12566,"itar":12567,"oser":12568,"encoding":12569,"Verify":12570,"Inner":12571,"Ġinstability":12572,"disk":12573,"samples":12574,"!(":12575,"Ġpreced":12576,"Ġdescriptor":12577,"Actions":12578,"gif":12579,"Ġdiversity":12580,"rotate":12581,"transport":12582,"ĠReference":12583,"Ġappearing":12584,"NP":12585,"Ùħ":12586,"references":12587,"Ġmat":12588,"Ġ&#":12589,"production":12590,"charge":12591,"Ġsucc":12592,"ipedia":12593,"aret":12594,"linux":12595,"oon":12596,"precision":12597,"Ġoscillations":12598,"ĠStep":12599,"hot":12600,"Ġ)$":12601,"Ġcrisis":12602,"License":12603,"During":12604,"fm":12605,"Self":12606,"secondary":12607,"Ġmolecules":12608,"ĠJapanese":12609,"reland":12610,"Instruction":12611,"Calc":12612,"ĠParse":12613,"Ġoverflow":12614,"Ġrestrictions":12615,"stances":12616,"ordan":12617,"ĠAcademy":12618,"mainder":12619,"Ġdepicted":12620,"ĠBH":12621,"getInstance":12622,"Ġlimiting":12623,"Cancel":12624,"ĠReal":12625,">[":12626,"UEST":12627,"Ġattempts":12628,"Ġmetallicity":12629,"Ġbelieved":12630,"sz":12631,"Sen":12632,"Syntax":12633,"}$;":12634,"Ġengineering":12635,"FUN":12636,"Ġpose":12637,"ĠAnalysis":12638,"WI":12639,"ĠOly":12640,"TableRow":12641,"Enable":12642,"cycle":12643,"Ġ(%":12644,"ĠJes":12645,"Ġdil":12646,"sient":12647,"ulner":12648,"})}\\":12649,"Ġauxiliary":12650,"lets":12651,":#":12652,"Ġartists":12653,"runner":12654,"ĠRock":12655,"kip":12656,"ictor":12657,"Ctrl":12658,"ductive":12659,"ĠGuide":12660,"Place":12661,"Ġrelativistic":12662,"glob":12663,"Ġgoto":12664,"Servlet":12665,"igu":12666,"Ġearth":12667,"ASSERT":12668,"ĠEnvironment":12669,"><!--":12670,"}]\\":12671,"Ġoverview":12672,"GT":12673,"yer":12674,"Ġbil":12675,"Ġfans":12676,"scriptstyle":12677,"Rob":12678,"antics":12679,"lee":12680,"rv":12681,"itt":12682,"}}-":12683,"Ġtangent":12684,"Contains":12685,"Runner":12686,"Ġimaginary":12687,"Ġlosses":12688,"Ġadds":12689,"Ġlocalization":12690,"Ġvehicles":12691,"former":12692,"Analy":12693,"Ġtends":12694,"Ġprimitive":12695,"consider":12696,"Watch":12697,"ketch":12698,"Ġmanifest":12699,"Ġarises":12700,"Controls":12701,"ĠSupport":12702,"Ġbars":12703,"getType":12704,"cls":12705,"liers":12706,"SOUR":12707,"Ġfolder":12708,"Conclusion":12709,"Ġreaches":12710,"ĠMad":12711,"Ġworse":12712,"fake":12713,"ĠMiss":12714,"live":12715,"----------":12716,"Ġmental":12717,"emas":12718,"Ġremoving":12719,"tils":12720,"ĠDeta":12721,"}}_\\":12722,"Ġcohomology":12723,"ĠSP":12724,"ĠOS":12725,"Ġdiverse":12726,"rules":12727,"Ġefficiently":12728,"ĠÂ£":12729,"Ġdetermining":12730,"Ġinsur":12731,"Ġpossess":12732,"Such":12733,"exact":12734,"unlock":12735,"awn":12736,"Ġoutcomes":12737,"pur":12738,"Ġplain":12739,"faster":12740,"å¤":12741,"Ġannotation":12742,"Thm":12743,"Best":12744,"TOM":12745,"Ġwaiting":12746,"Ġeye":12747,"bottomrule":12748,"Ġserves":12749,"Cast":12750,"Following":12751,"ĠMethods":12752,"RESULT":12753,"Most":12754,"emy":12755,"Ġcomputations":12756,"LU":12757,"Combin":12758,"alactic":12759,"Pod":12760,"Ġfusion":12761,"Ġdanger":12762,"mv":12763,"LAY":12764,"Ġinterests":12765,"1982":12766,"ĠJohnson":12767,"Ġcouldn":12768,"ĠĠĠĠĠĠĠĠĠĊ":12769,"Ġskills":12770,"party":12771,"jackson":12772,"),(":12773,"continuous":12774,"ĠAI":12775,"changes":12776,"Ġobservational":12777,"Ġhands":12778,"Through":12779,"Tasks":12780,"ĠInternet":12781,"ĠWell":12782,"LICENSE":12783,"UNT":12784,"ibraries":12785,"Ġshear":12786,"IconError":12787,"\\'{":12788,"positive":12789,"ĠAttribute":12790,"Ġexcellent":12791,"bibliographystyle":12792,"Ġbusinesses":12793,"ĠPU":12794,"convex":12795,"================================================================":12796,"maxcdn":12797,"Ġtells":12798,"Ġ--></":12799,"Ġ----------------------------------------------------------------":12800,"quantum":12801,"titive":12802,"Ġscr":12803,"ircraft":12804,"]_":12805,"Ġvirt":12806,"bone":12807,"Ġhierarchy":12808,"Ġconsumer":12809,"ountain":12810,"except":12811,"Ġclassified":12812,"asket":12813,"Final":12814,"Ġchunk":12815,"TIES":12816,"atable":12817,"Ġthousands":12818,"'].":12819,"ente":12820,"Ġverified":12821,"ĠArgument":12822,"ĠRespon":12823,"Ġinfrastructure":12824,"ĠLee":12825,"White":12826,"vv":12827,"urer":12828,"ĠByte":12829,"atern":12830,"Ġcapable":12831,"sdk":12832,"Ġbill":12833,"Ġconnecting":12834,"information":12835,"HH":12836,"uj":12837,"Der":12838,"Ġbegins":12839,"timer":12840,"Zero":12841,"vectors":12842,"htb":12843,"ĠSto":12844,"ĠPublished":12845,"ĠĠĠĠĠĠĠĊ":12846,"Ġconcrete":12847,"iro":12848,"tractor":12849,"Ġsubjects":12850,")/\\":12851,"Ġshifts":12852,"Ġlogical":12853,"RM":12854,"Put":12855,"Ġsurprising":12856,"ĠSecretary":12857,"osted":12858,"Ġcustomers":12859,"ĠPromise":12860,"IconErrorEncoded":12861,"gtr":12862,"rained":12863,"ĠAustralian":12864,"ĠWomen":12865,"ĠStream":12866,"ĠAff":12867,"ĠCF":12868,"ĠAM":12869,"ICATION":12870,"ett":12871,"Ġprepared":12872,"notify":12873,"ĠLord":12874,"Declaration":12875,"Ġmoder":12876,"},\\\\":12877,"×ķ":12878,"Ġcellspacing":12879,"Ġsole":12880,"Ġincorrect":12881,"ĠCharles":12882,"history":12883,"Ġconsequences":12884,"Push":12885,"\"];":12886,"icode":12887,"Ġscan":12888,"everal":12889,"Em":12890,"anda":12891,"Ġvideos":12892,"Ġvariability":12893,"Ġcellpadding":12894,"Ġconference":12895,"Ġunity":12896,"~{\\":12897,"Define":12898,"Ġfacilities":12899,"_{{":12900,"Ġsports":12901,"Writ":12902,"temperature":12903,"Aggreg":12904,"KL":12905,"Ġsexual":12906,"ĠUSA":12907,"cient":12908,"Partition":12909,"Ear":12910,"raq":12911,"ĠFriday":12912,"ĠConsequently":12913,"Ġtorus":12914,"rn":12915,">;":12916,"Ġcommu":12917,"aby":12918,"_)":12919,"________":12920,"Ġspeaking":12921,"ĠFollowing":12922,"Ġhelpful":12923,"orange":12924,"autiful":12925,"ĠMartin":12926,"Ġhusband":12927,"LOW":12928,"ĠParis":12929,"warn":12930,"Ġprocedures":12931,"Fixed":12932,"ĠBol":12933,"Ġuri":12934,"racy":12935,"ĠâĢ¦":12936,"ĠWed":12937,"ĠContent":12938,"Ġcriminal":12939,"Ġwinning":12940,"Ġhydrogen":12941,"Ġletters":12942,"phen":12943,"ĠObama":12944,"Ġbg":12945,"ĠCanadian":12946,"Ignore":12947,"dependence":12948,"ĠNa":12949,"$}\\":12950,"Lat":12951,"ĠIll":12952,"Ġparsed":12953,"solr":12954,"Ġqubit":12955,"Accept":12956,"Ġsignificance":12957,"Ġdecoder":12958,"Ġevol":12959,"omestic":12960,"Delay":12961,"Ġdamage":12962,"etry":12963,"Ġchapter":12964,"Ġcontinuity":12965,"Ġbattle":12966,"orrow":12967,"115":12968,"folder":12969,"Ġms":12970,"144":12971,"Ġclone":12972,"Ġremoves":12973,"ĠJewish":12974,"tbl":12975,"RGB":12976,"=-=-":12977,"ĠWARRANTIES":12978,"ĠEli":12979,"GIN":12980,"Ġscaled":12981,"]}\\":12982,"lam":12983,"Ġstandards":12984,"keep":12985,"TM":12986,"Ġbridge":12987,"Ġfs":12988,"Ġstuff":12989,"tos":12990,"Bridge":12991,"Ġconsumption":12992,"Ġconcerning":12993,"Ġterror":12994,"ĠDA":12995,"Power":12996,"Ġmeant":12997,"algorithmic":12998,"conj":12999,"Ġdiameter":13000,"ovie":13001,"ĠCross":13002,"datetime":13003,"ĠTre":13004,"Ġsubgraph":13005,"Ġcavity":13006,"Ġpeer":13007,"cert":13008,"Price":13009,"Ġsin":13010,"ĠJoseph":13011,"ĠSing":13012,"ĠMS":13013,"Ġaccessible":13014,"Ġweap":13015,"includes":13016,"ĠÑģ":13017,"FALSE":13018,"ĠRichard":13019,"into":13020,"Ġtil":13021,"Ġcompris":13022,"Score":13023,"ĠWill":13024,"partite":13025,"door":13026,"adap":13027,"Ġlived":13028,"Ġconverge":13029,"comparison":13030,"Ġinstitutions":13031,"illisec":13032,"Packet":13033,"Ġdemoc":13034,"Ġpursu":13035,"\":\"":13036,"question":13037,"ĠFederal":13038,"leton":13039,"çĶ¨":13040,"DBLP":13041,"Ġviolation":13042,"ĠMel":13043,"RAY":13044,"Authentication":13045,"ĠKEY":13046,"Cr":13047,"Injection":13048,"Ġmapped":13049,"Ġremained":13050,"ĠUnit":13051,"Ġannih":13052,"Ġdetermination":13053,"ĠItal":13054,"Ġautom":13055,"ZZ":13056,"Poly":13057,"ocom":13058,"tributions":13059,"danger":13060,"Ġsup":13061,"OutputStream":13062,"CCESS":13063,"ĠĠĠĠĠĠĠĠĠĠĠĠĠĠĠĠĠĠĠĠĊ":13064,"intelli":13065,"Ġconfirm":13066,"enger":13067,"Ġemo":13068,"ĠĠĠĠĠĠĠĠĠĠĠĠĠĠĠĠĠĠĠĠĠĠĠĠĠĠĠĠĠĠĠĠĠĠĠĠ":13069,"ĠChief":13070,"Ġmanifolds":13071,"Ġpsych":13072,"Ġrectangle":13073,"Ġdefend":13074,"igan":13075,"DEX":13076,"Ġunable":13077,"earance":13078,"Ġcompletes":13079,"}\\!":13080,"}$$":13081,"friend":13082,"Ġnom":13083,"Require":13084,"Ġpieces":13085,"æĺ":13086,"ĠSil":13087,"Pixel":13088,"intellij":13089,"Ġfre":13090,"}\",":13091,"alias":13092,"]{./":13093,"makebox":13094,"Snapshot":13095,"colhead":13096,"aturday":13097,"lux":13098,"+$":13099,"Ġofficer":13100,"Ġclouds":13101,"Ġpackages":13102,"Ġguarantees":13103,"noframe":13104,"iment":13105,"ĠArts":13106,"otel":13107,"135":13108,"ĠSup":13109,"1981":13110,"ĠSend":13111,"regex":13112,"MenuItem":13113,"Indeed":13114,"Ġ```":13115,"oids":13116,"tism":13117,"Ġfrequently":13118,"Ġheter":13119,"Ġdifficulty":13120,"Ġscienti":13121,"Ġshoot":13122,"concat":13123,"wal":13124,"(\"\\":13125,"Ġdecor":13126,"Ġsigns":13127,"auchy":13128,"Ġ#{":13129,"Ġrotate":13130,"ĠGalactic":13131,"aled":13132,"ĠRou":13133,"Ġsuperconduct":13134,">${":13135,"Ġip":13136,"orney":13137,"Converter":13138,"social":13139,"Ġchief":13140,"pus":13141,"formula":13142,"Ġusername":13143,"Ġmurder":13144,"LEMENT":13145,"Please":13146,"Ġalias":13147,"pragma":13148,"Har":13149,"Ġmob":13150,"Ġexplored":13151,"Ġcached":13152,"linked":13153,"Ġlengths":13154,"Ġfermions":13155,"constraint":13156,"Il":13157,"ĠFrame":13158,"Ġbuildings":13159,"Ġpreserve":13160,"Ġcustomer":13161,"Ġplanets":13162,"Ġ-=":13163,"FM":13164,"oir":13165,"Ġminimize":13166,"corresponding":13167,"ĠCloud":13168,"Ġoptimized":13169,"Ġinteracting":13170,"Ġqubits":13171,"resolved":13172,"ĠLogger":13173,"ĠDouble":13174,"pal":13175,"ĠMember":13176,"ĠBased":13177,"ĠBuilder":13178,"ĠMaster":13179,"itecture":13180,"Dig":13181,"members":13182,"kh":13183,"Å¡":13184,"Ġinterpret":13185,"abilistic":13186,"Annot":13187,"aters":13188,"ĠMP":13189,"Ġretri":13190,"ĠRetrieved":13191,"inten":13192,"Ġchains":13193,"eclipse":13194,"velocity":13195,"Been":13196,"OpenTl":13197,"Ġsmo":13198,"rounded":13199,"different":13200,"__)":13201,"Ġconvention":13202,"108":13203,"gradle":13204,"Ġori":13205,"Ġuniversity":13206,"Ġdipole":13207,"SSION":13208,"ducer":13209,"iation":13210,"Sty":13211,"Ġsquares":13212,"built":13213,"nam":13214,"Ġche":13215,"Sto":13216,"uh":13217,"'}(":13218,"Virtual":13219,"decode":13220,"iers":13221,"Ġvoltage":13222,"Ġtension":13223,"ĠGW":13224,"Ġvm":13225,"far":13226,"lc":13227,"ĠLoad":13228,"reason":13229,"Ġexposure":13230,"_{(\\":13231,"ĠKingdom":13232,"ansion":13233,"Ġvariational":13234,"ĠHas":13235,"Ġanalyses":13236,">../":13237,"ĠTag":13238,"!</":13239,"verify":13240,"Ġdecide":13241,"Ġ'#":13242,"ÏĦ":13243,"Extra":13244,"Mc":13245,"Management":13246,"Ġmixture":13247,"}{$":13248,"aug":13249,"Ġlaunched":13250,"Ġahead":13251,"Twig":13252,"vendor":13253,"ĠLake":13254,"ĠAddress":13255,"Ġcondens":13256,"ĠClub":13257,"Ġcounting":13258,"Ġradii":13259,"Ġholding":13260,"qq":13261,"Ġatmosphere":13262,"okies":13263,"Ġ<?":13264,"ĠBell":13265,"Ġ\"'":13266,"setText":13267,"Ġdeleted":13268,"locale":13269,"BUFFER":13270,"=\"{{":13271,"240":13272,"IDE":13273,"Ġaims":13274,"Ġmorning":13275,"Errorf":13276,"StringBuilder":13277,"Did":13278,"wang":13279,"Gs":13280,"concurrent":13281,"Without":13282,"Period":13283,"}{$\\":13284,"Ġassets":13285,"Ġii":13286,"ĠCPU":13287,"zo":13288,"ĠIreland":13289,"neighb":13290,"gap":13291,"ictures":13292,"IEEE":13293,"Ġsan":13294,"1979":13295,"Ġbubble":13296,"ĠAsia":13297,"Ġship":13298,"ĠTown":13299,"driven":13300,"orough":13301,"bigoplus":13302,"Execute":13303,"lad":13304,"leading":13305,"Ġregardless":13306,"Series":13307,"}})\\":13308,"textstyle":13309,"Ġsummarized":13310,"Ġsn":13311,"Download":13312,"ĠMA":13313,"Ġconsecutive":13314,"Ġcommitted":13315,"Ġsingularity":13316,"Ġkinds":13317,"ĠJustice":13318,"INVALID":13319,"ĠComponent":13320,"114":13321,"vertible":13322,"Loading":13323,"Ġdepartment":13324,"actual":13325,"Ġeconom":13326,"ĠRemarks":13327,"ĠURI":13328,"Ġ$-\\":13329,"itud":13330,"subNav":13331,"ruption":13332,"scalar":13333,")},\\":13334,"ĠDesign":13335,"103":13336,"lbrace":13337,"Ġstrip":13338,"GAN":13339,"Ġlisting":13340,"Ġbrother":13341,"Bitmap":13342,"Site":13343,"Ġprepare":13344,"varpi":13345,"Ġeffectiveness":13346,"perturb":13347,"aland":13348,"amber":13349,"uploads":13350,"tist":13351,"Ġexpensive":13352,"auss":13353,"AVE":13354,"accur":13355,"Ġextraction":13356,"biggr":13357,"ĠDown":13358,"ĠRuntime":13359,"Ġseeing":13360,"abolic":13361,"ermitian":13362,"Ġaudience":13363,"Ġmoduli":13364,"stituting":13365,"scheme":13366,"Ġ[-":13367,"Bi":13368,"iser":13369,"Ġdefe":13370,"ĠIV":13371,"Opt":13372,"Ġresidents":13373,"momentum":13374,"Ġbandwidth":13375,"getClass":13376,"Ġ|=":13377,"miss":13378,"listing":13379,"\\\\\\":13380,"inverse":13381,"ĠVirginia":13382,"strict":13383,"SPAN":13384,"Ġinterpolation":13385,"ĠTOP":13386,"Ġdescent":13387,"prom":13388,"Ġshares":13389,"ĠOld":13390,"nipp":13391,"}$),":13392,"Bel":13393,"LIN":13394,"Transl":13395,"ĠConf":13396,"adic":13397,"Ġadapted":13398,"ĠEnter":13399,"ĠBas":13400,"ĠColumn":13401,"OTTOM":13402,"Formatter":13403,"amping":13404,"Ġhomomorphism":13405,"Ġboxes":13406,"404":13407,"Insert":13408,"ĠMur":13409,"Ġverification":13410,"ĠMexico":13411,"Ġteacher":13412,"TRAN":13413,"ĠMO":13414,"Decimal":13415,"ÐµÑĢ":13416,"awesome":13417,"medium":13418,"Ġreject":13419,"('./":13420,"Ġinherit":13421,"Ġparity":13422,"ĠThrough":13423,"localhost":13424,"ĠJul":13425,"Ġgradients":13426,"Bits":13427,"Ġfloor":13428,"Ġregarded":13429,"%\"><":13430,"Ġburn":13431,"Ġadvoc":13432,"Ġprinciples":13433,"Ġshapes":13434,"resizebox":13435,"via":13436,"stein":13437,"Ġreproduce":13438,"ĠSW":13439,"Executor":13440,"generic":13441,"RECT":13442,"poi":13443,"ignore":13444,"uris":13445,"temporary":13446,"ĠFR":13447,"arra":13448,"ĉĉčĊ":13449,"]->":13450,"Ġrecip":13451,"underbrace":13452,"tection":13453,"ĠMean":13454,"ĠCorpor":13455,"Ġ========":13456,"Ġinitialized":13457,"Ġdoll":13458,"ĠGrant":13459,"Ġsender":13460,"Ġcommission":13461,"<>();":13462,"&+":13463,"ĠCC":13464,"0001":13465,"BASE":13466,"jp":13467,"remarks":13468,"Ġsenior":13469,"Intern":13470,"Ġprem":13471,"Ġuniquely":13472,"Ġdisorder":13473,"beans":13474,"olo":13475,"okes":13476,"!\"":13477,"ĠBS":13478,",}":13479,"illions":13480,"getMessage":13481,"asp":13482,"Ġ'@":13483,"Ġcuts":13484,"uries":13485,"utors":13486,"ĠRa":13487,"aka":13488,"biggl":13489,"Ġban":13490,"Ġprintf":13491,"Labels":13492,"RF":13493,"Ġsupposed":13494,"Ġproducing":13495,"levant":13496,"Ġproportion":13497,"raisebox":13498,"Ġrelies":13499,".(":13500,"%%%%%%%%":13501,"')->":13502,"ĠGP":13503,"Ġacademic":13504,"likely":13505,"Ġcommutative":13506,"Ġindependence":13507,"(/":13508,"Ġcomposite":13509,"Ġprices":13510,").$$":13511,"Ġtypedef":13512,"ariants":13513,"ĠLearning":13514,"zi":13515,"Ġrigid":13516,"ĠDoc":13517,"LOAD":13518,"cmp":13519,"Ġsimplified":13520,"Ġ'\"":13521,"holds":13522,"Ġbij":13523,"ĠIraq":13524,"Ġconvenience":13525,"curve":13526,"paths":13527,"Owner":13528,"-{\\":13529,"ĠCatholic":13530,"reds":13531,"Ġconsult":13532,"ĠHop":13533,"stellar":13534,"Ġinitialization":13535,"clock":13536,"################################":13537,"Pane":13538,"environment":13539,"Ġrequiring":13540,"\\\"{":13541,"Ġkw":13542,"Ġhide":13543,"ĠModal":13544,"Ġsupplied":13545,"aware":13546,"ĠAdv":13547,"abstract":13548,"Ġnested":13549,"rig":13550,"annotations":13551,"gtrsim":13552,"Gate":13553,"century":13554,"Ġexponentially":13555,"ador":13556,"Ġchecking":13557,"rint":13558,"Ġapart":13559,"Ġtopics":13560,"@{}}":13561,"107":13562,"Ġmiles":13563,"updated":13564,"metrics":13565,"Ġmechanics":13566,"270":13567,"Machine":13568,"ĠSpanish":13569,"Ġbiggest":13570,"Ġcausal":13571,"Feed":13572,"aaaa":13573,"bu":13574,"nic":13575,"ĠParameters":13576,"Ġgranted":13577,"]^{\\":13578,"mcite":13579,"]\\\\":13580,"coloneqq":13581,"sites":13582,"Ġns":13583,"uss":13584,"Ġequally":13585,"addClass":13586,"liminary":13587,"Ġther":13588,"ĠPri":13589,"106":13590,"122":13591,"×ķ×":13592,"ĠStudies":13593,"Ġincoming":13594,"unknown":13595,"Ġelected":13596,"Ð°ÑĤ":13597,"Ġpolitics":13598,"BOOL":13599,"ĠAlice":13600,"URN":13601,"ĠRay":13602,"Ġrating":13603,"ĠCL":13604,"Buf":13605,"ĠFuture":13606,"Must":13607,"ILITY":13608,"10000":13609,"ĠJo":13610,"eel":13611,"Da":13612,"):=":13613,"Emit":13614,"Supported":13615,"adj":13616,"mys":13617,"è®":13618,"Ġpitch":13619,"Ġformally":13620,"onymous":13621,"relations":13622,"UA":13623,"ĠProfessor":13624,"ĠBuffer":13625,"Worker":13626,"tica":13627,"igroup":13628,"Available":13629,"æķ°":13630,")~":13631,"Ġ'_":13632,"Ġregularity":13633,"Ġrecognized":13634,"Ġimprovements":13635,"agger":13636,"tasks":13637,"Ġholomorphic":13638,"qed":13639,"Ġequipped":13640,"PROC":13641,"ominator":13642,"ĠHam":13643,"Ġrobustness":13644,"{|\\":13645,"ĠÐ½":13646,"Created":13647,"Ġfewer":13648,"Ġduality":13649,"ÙĪ":13650,"itter":13651,"Speed":13652,"Mutable":13653,"Ġ\\:":13654,"Ġbodies":13655,"Extensions":13656,"ĠOlymp":13657,"versely":13658,"Ġvillage":13659,"Ġblog":13660,"Ġpil":13661,"Ġiterator":13662,"Ġdegener":13663,"Sets":13664,"Ġnice":13665,"transl":13666,"=\"../_":13667,"major":13668,"ĠNevertheless":13669,"mentioned":13670,"Ġregistration":13671,"{}{":13672,"HOUT":13673,"Ġdetectors":13674,"Translation":13675,"Ġ$('#":13676,"ursday":13677,".;":13678,"Ġinstructions":13679,"^{*}":13680,"umann":13681,"%)":13682,"ĠFoot":13683,"Ġrewrite":13684,"ĠLanguage":13685,"Ġbins":13686,"Ġisotropic":13687,"}$:":13688,"ĠMatch":13689,"Ġpersons":13690,"Ġthickness":13691,"oulomb":13692,"Ġbounding":13693,"OLD":13694,"signal":13695,"riers":13696,"Intent":13697,"Ġadaptive":13698,"PREF":13699,"Ġphon":13700,"?âĢĿ":13701,"Ġcutoff":13702,"MBER":13703,"ssue":13704,"Ġincrement":13705,"Ġreplacement":13706,"Ġaw":13707,"Ġadmit":13708,"gems":13709,"ĠAnt":13710,"___":13711,"ViewController":13712,"Ġteaching":13713,"ĠAre":13714,"datas":13715,"seen":13716,"eart":13717,"ctrl":13718,"aud":13719,"Ġexploration":13720,"pis":13721,"Ġasset":13722,"CREATE":13723,"AMP":13724,"ĠNum":13725,"003":13726,"Ġtalking":13727,"Ġgreatest":13728,"ĠProof":13729,"Ġtunnel":13730,"fragment":13731,"Ġcardinal":13732,"nobr":13733,"Act":13734,"theses":13735,"Ġnoisy":13736,"induced":13737,"Ġav":13738,"correlation":13739,"Ġidentifying":13740,"Ġimposed":13741,"Ġsleep":13742,"Ġjets":13743,"Ġconvolutional":13744,"itHub":13745,"fasterxml":13746,"Setup":13747,"Typ":13748,"Ġå":13749,"ĠMuslim":13750,"ĠNAS":13751,"Factor":13752,"***":13753,"Ġrejected":13754,"Transition":13755,"matches":13756,"algo":13757,"Ġfounded":13758,"Ġbid":13759,"Ġarithmetic":13760,"management":13761,"umulative":13762,"ĠPan":13763,"Ġiso":13764,"ĠChampion":13765,"ĠMonday":13766,"Ġwidget":13767,"Ġarrow":13768,"ĠAust":13769,"ĠDig":13770,"456":13771,"Ġ\\|_{":13772,"Ġvalidity":13773,"geqslant":13774,"Matcher":13775,"Camera":13776,"Ġmanage":13777,"REE":13778,"Optim":13779,"marks":13780,"Unique":13781,"ĠBefore":13782,"arding":13783,"collect":13784,"Ġphenomena":13785,"Dry":13786,"Ġaapt":13787,"abi":13788,"Ġvariants":13789,"manifold":13790,"Ġelectromagnetic":13791,"ĠAP":13792,"OPTION":13793,"ĠTransition":13794,"Ġreform":13795,"Primary":13796,"ĠJe":13797,"Ġrecommended":13798,"Comm":13799,"ĠDateTime":13800,"109":13801,"Îµ":13802,"Ġera":13803,"Sig":13804,"Ġsubmit":13805,"worth":13806,"''.":13807,"Ġregional":13808,"Ġbranches":13809,"Ġartificial":13810,"mers":13811,"Ġexperiences":13812,"__[\"":13813,"rbrace":13814,"Reason":13815,"Ġcollective":13816,"-$\\":13817,"Ġphotos":13818,"lices":13819,"Ġassessment":13820,"ticipant":13821,"Ġepochs":13822,"ĠHenry":13823,"codec":13824,"}\"/>":13825,"paramet":13826,"ĠInvalid":13827,"|{\\":13828,"Ġsheet":13829,"slide":13830,"central":13831,"ĠDC":13832,"iciency":13833,"Øª":13834,"Ġmodular":13835,"Further":13836,"ĠCommunity":13837,"Ġisland":13838,"transp":13839,"itan":13840,"Ġcas":13841,"oli":13842,"Ġdiscrep":13843,"don":13844,"Codec":13845,"thle":13846,"ĠPak":13847,"ĠFre":13848,"noc":13849,"four":13850,"Ġoutline":13851,"ORK":13852,"ĠFALSE":13853,"Cannot":13854,"boundary":13855,"Ġdele":13856,"refresh":13857,"ĠNov":13858,"days":13859,"HL":13860,"($\\":13861,"ousel":13862,"ĠTree":13863,">.</":13864,"ĠJS":13865,"asm":13866,"Ġassumes":13867,"XXXX":13868,"Ġjustice":13869,"Ġmonitoring":13870,"Don":13871,"RET":13872,"1977":13873,"setting":13874,"Phase":13875,"Ġremainder":13876,"ĠFilter":13877,"sinh":13878,"Running":13879,"unte":13880,"Tuple":13881,"acific":13882,"tarea":13883,"Ġweather":13884,"ĠGenerated":13885,"Ġdeclared":13886,"alaxy":13887,"Modifier":13888,"Ġagency":13889,"zil":13890,"Asset":13891,"Ġlooked":13892,"ĠPack":13893,"Ġ({":13894,"ĠJones":13895,"^{{\\":13896,"Ġpenalty":13897,"endpoint":13898,"Ġcls":13899,"Ġglass":13900,"}}}}":13901,"ĠEff":13902,"ielding":13903,"dtd":13904,"packages":13905,"Ġ'-":13906,"Metric":13907,"ĠPR":13908,"Ġcollaboration":13909,"Ġperman":13910,"Ġtrim":13911,")}=\\":13912,"Even":13913,"Ġtechnologies":13914,"ĠSerial":13915,"Ġcertificate":13916,"paren":13917,"Ġlifetime":13918,">{":13919,"ĠNN":13920,"rick":13921,"ĠPerson":13922,"Ġultimately":13923,"inet":13924,"strial":13925,"ĠNull":13926,"Ġhop":13927,"Ġdecade":13928,"TextView":13929,"Ġdst":13930,"Ġmeasuring":13931,"Ġdefense":13932,"Ġexecutive":13933,"qual":13934,"}.$$":13935,"Ġtoler":13936,"Ġapproximations":13937,"Ġterminal":13938,"Ġaddressed":13939,"UCT":13940,"Ġargued":13941,"edy":13942,"uty":13943,"ourney":13944,"Ġerg":13945,"};\\":13946,"Ġcolle":13947,"sha":13948,"ĠBOOST":13949,"ĠGeorg":13950,"ĠTeam":13951,"__,":13952,"Ġmodeled":13953,"509":13954,"Ġreturning":13955,"Every":13956,"Ġkids":13957,"Ġvaries":13958,"Ġthrown":13959,"Ġextinction":13960,"Bad":13961,"cts":13962,"othing":13963,"ADDING":13964,"ĠDeep":13965,"ĠLipschitz":13966,"Bro":13967,"Ġofficers":13968,"alley":13969,"ĠCentre":13970,"ansas":13971,"Rules":13972,"Ġjudge":13973,"TableRowColor":13974,"Dict":13975,"oston":13976,"$=":13977,"ships":13978,"uce":13979,"Circ":13980,"isition":13981,"ĠWood":13982,"Culture":13983,"\\\\[":13984,"sources":13985,"}):":13986,"Ġcoincides":13987,"175":13988,"balance":13989,"Ġwrapper":13990,"Ġobviously":13991,"Tex":13992,"thumb":13993,"Ġappreci":13994,"utch":13995,"icians":13996,"follow":13997,"tility":13998,"Ġking":13999,"Ġaccurately":14000,"lica":14001,"shaller":14002,"Ġthr":14003,"uesday":14004,"vdash":14005,"=\"@+":14006,"tie":14007,"Commit":14008,"Ġfamili":14009,"ĠGrand":14010,"]</":14011,"IMIT":14012,"OFF":14013,"Ġstyles":14014,"ĠDR":14015,"Disk":14016,"ĠFort":14017,"Ġincreasingly":14018,"Structure":14019,"æĪ":14020,"Ġcenters":14021,"enario":14022,"ĠSaf":14023,"hh":14024,"1978":14025,"got":14026,"tell":14027,"'})":14028,"Like":14029,"Ġcrime":14030,"ican":14031,"Ġexcluded":14032,"PROP":14033,"Ġtick":14034,"tone":14035,"Measure":14036,"review":14037,"scatter":14038,"Origin":14039,"Ġwealth":14040,"thead":14041,")$}":14042,"Ġclinical":14043,"Ġphilosoph":14044,"Ġadministr":14045,"Ġdegenerate":14046,"eref":14047,"5000":14048,"ĠChannel":14049,"Ġserving":14050,"fonts":14051,"ARG":14052,"LD":14053,"Ġstations":14054,"Ġmand":14055,"Ġaccompl":14056,"Ġaligned":14057,"Ġarrive":14058,"Ġadaptation":14059,"mx":14060,"filled":14061,"prise":14062,"Ġreasoning":14063,"ĠĠĠĠĠĠĠĠĠĠĠĠĠĠĠĠĠĠĠĠĠĠĠĠĠĠĠĠĠĠĠĠĠĠĠĠĠĠ":14064,"Ġimproving":14065,"Ġvulner":14066,"Ġcomprehensive":14067,"ĠPut":14068,"Ġpractices":14069,"ceq":14070,"Ġinjection":14071,"Ġadverti":14072,"iors":14073,"ĠBa":14074,"}{!":14075,"ĠassertTrue":14076,"Ġincomp":14077,"apple":14078,"eman":14079,"quee":14080,"Ġpal":14081,"etary":14082,"ordinates":14083,"Ġconjugate":14084,"Ġbond":14085,"Shader":14086,"124":14087,"sass":14088,"apy":14089,"Gaussian":14090,"Ġsatellite":14091,"cosity":14092,"acion":14093,"ectives":14094,"Ġdeaths":14095,"}.$":14096,"Ġexercise":14097,"Ġquarks":14098,"Ġasymptotically":14099,"Ġarchitectures":14100,"Ġsched":14101,"Ġcharacterization":14102,"Ġsnapshot":14103,"^*(\\":14104,"Ġrein":14105,"bn":14106,"Mr":14107,"Ġdealing":14108,"letter":14109,"essel":14110,"Ġ\\,.":14111,"Ġabuse":14112,"cosh":14113,"ulk":14114,"ometer":14115,"Î¹":14116,"isher":14117,"vp":14118,"itors":14119,"Distance":14120,"IME":14121,"corre":14122,"arden":14123,"getAttribute":14124,"Ġstores":14125,"Ġvice":14126,"ictory":14127,"latest":14128,"PG":14129,"categories":14130,"Ġsorted":14131,"ĠPA":14132,"station":14133,"Ġ\"${":14134,"Ġlogarithmic":14135,"^*}":14136,"Ġapproximated":14137,"acknow":14138,"ĠEntity":14139,"ĠBlue":14140,"addle":14141,"azure":14142,"Ġpending":14143,"servlet":14144,"Ġinsight":14145,"Ġanten":14146,"ĠBORDER":14147,"ĠZealand":14148,"eigen":14149,"many":14150,"aki":14151,"frames":14152,"Ġpartitions":14153,"]}$":14154,"Ġfacility":14155,"Swift":14156,"Ġrotational":14157,"Ġsingularities":14158,"Ġretrieve":14159,"Ġpolitic":14160,"ĠĠĠĠčĊ":14161,"Ġ$\\|\\":14162,"Ġarising":14163,"}}^\\":14164,"Activ":14165,"Ġrenew":14166,"HOME":14167,"ĠSciences":14168,"Ġnuclei":14169,"Ġplanar":14170,"lattice":14171,"Ġconservative":14172,"scalebox":14173,"lapsed":14174,"Scalar":14175,"Ġlab":14176,"quar":14177,"pending":14178,"Ġisinstance":14179,"rivers":14180,"|}{\\":14181,"Ġpasses":14182,"matics":14183,"\"?>":14184,"dst":14185,"NRAS":14186,"ĠNSString":14187,"Ġknot":14188,"SPAC":14189,"\\).":14190,"NON":14191,"Ġmechanical":14192,"Ġdestr":14193,"payload":14194,"Ġnoting":14195,"Ġlogin":14196,"dund":14197,"ichlet":14198,"Ġaid":14199,"urrents":14200,"ĠRandom":14201,"Both":14202,"Low":14203,"})}{":14204,"Fac":14205,"Ġcer":14206,"*}\\":14207,"Seq":14208,"what":14209,"Ġsymplectic":14210,"Ġdeviations":14211,"Priority":14212,"mux":14213,"Ġsister":14214,"CUR":14215,"Ġtotally":14216,"ĠRam":14217,"Ġpublication":14218,"Ġreceives":14219,"asym":14220,"Ġconsiders":14221,"ĠSimilar":14222,"Ġgrows":14223,"Ġsight":14224,"timeline":14225,"cx":14226,"titution":14227,"Ùĩ":14228,"Ber":14229,"Mix":14230,"execution":14231,"Ġrid":14232,"Ġvon":14233,"cedure":14234,"Ġimproves":14235,"elle":14236,"starts":14237,"Ġgiant":14238,"covery":14239,"pty":14240,"EVENT":14241,"PADDING":14242,"Ġgoogle":14243,"ĠWhether":14244,"Ġaddr":14245,"Ð¾Ð»":14246,"nesday":14247,"Ġmomenta":14248,"Ġclassic":14249,"describe":14250,"corr":14251,"Ġnontrivial":14252,"irmed":14253,"Ġchampion":14254,"Pres":14255,"trait":14256,"publish":14257,":&":14258,"keleton":14259,"))=":14260,"````":14261,"Ġspend":14262,"Ġdeclare":14263,")}}\\":14264,"Ġ',":14265,"1976":14266,"Ġopposed":14267,"Ġdog":14268,"listener":14269,"issions":14270,"Ġobtains":14271,"itudinal":14272,"outing":14273,"oves":14274,"displayName":14275,"Ġflavor":14276,"Cost":14277,"ynchron":14278,"dependencies":14279,"favicon":14280,"homogeneous":14281,"Lines":14282,"pes":14283,"Ġgone":14284,"ĠTABLE":14285,"Ġoriented":14286,"Will":14287,"rceil":14288,"===":14289,"ĠItaly":14290,"Ġ/><":14291,"Ġasser":14292,"Ġequivalently":14293,"Ġpump":14294,"demo":14295,"ĠMAX":14296,"ĠWhere":14297,"Ġhex":14298,"Upload":14299,"Ġ'''":14300,"/)":14301,"Ġfluxes":14302,"ĠHandle":14303,"Ġ\");":14304,"Ġnm":14305,"Changes":14306,"ped":14307,"Ġbarrier":14308,"ĠJim":14309,"Ġarms":14310,"fraction":14311,"Ġmotivated":14312,"wing":14313,"Ġexplains":14314,";%":14315,"die":14316,"Ġray":14317,"ĠSaturday":14318,"Ġpole":14319,"los":14320,"Ġcapabilities":14321,"Ġmarriage":14322,"VO":14323,"Ġrelying":14324,"Ġproving":14325,"Ġhomotopy":14326,"Ġneutrinos":14327,"Enumerable":14328,"Ġprominent":14329,"Green":14330,"Ġreviews":14331,"vars":14332,"Ġassociate":14333,"}\\,,":14334,"lis":14335,"separator":14336,"]).":14337,"Ġbases":14338,"pred":14339,"APP":14340,"Ġequipment":14341,"ĠMi":14342,"ĠProp":14343,"theo":14344,"awt":14345,"Ok":14346,"ĠLike":14347,"price":14348,"csv":14349,"Ġsimpler":14350,"orel":14351,"Ġknows":14352,"scan":14353,"correct":14354,"Black":14355,"Ġconcaten":14356,"nas":14357,"[->":14358,"Ġarrays":14359,"Ġgamma":14360,"Ġmarkets":14361,"Ġlegend":14362,"TERN":14363,"intenance":14364,"Ġquantitative":14365,"criptors":14366,"ĠÂ©":14367,"escape":14368,"Ġmyself":14369,"Ġdropped":14370,"Ġtic":14371,"ĠHD":14372,"Ġclosest":14373,"Convert":14374,"Ġabsolutely":14375,"simp":14376,"})^{\\":14377,"Ð·":14378,"Ġshor":14379,"exc":14380,"Ġwhatever":14381,"dbc":14382,"orse":14383,"ĠSNR":14384,"Ġshifted":14385,"-\">":14386,"POS":14387,"lceil":14388,"ĠShould":14389,"hpp":14390,"`)":14391,"Ġarrival":14392,"900":14393,"LAB":14394,"Ġacquired":14395,"Mean":14396,"filters":14397,"Ġswe":14398,"Ġguaranteed":14399,"idelity":14400,"Ġcoach":14401,"pipeline":14402,"116":14403,"ENTRY":14404,"dem":14405,"Ġcircumstances":14406,"Ġprovision":14407,"Temp":14408,"Ġassertion":14409,"Ġindicator":14410,"batim":14411,"eV":14412,"ugges":14413,"multip":14414,"astro":14415,"Ġsuppressed":14416,"Ġphotometric":14417,"ĠCare":14418,"Kernel":14419,"Ġreporting":14420,"Ġtf":14421,"ĠLuc":14422,"legend":14423,"Ġexpanding":14424,"xym":14425,"opacity":14426,"Dav":14427,"Ġbare":14428,"ĠFar":14429,"bigu":14430,"Ġauthorities":14431,"Ġmutual":14432,"ĠMIT":14433,"RESS":14434,"valueOf":14435,"Ġdream":14436,"ĠJeff":14437,"rx":14438,"Ġdrift":14439,"unstable":14440,"FLAGS":14441,"ĠSupreme":14442,"ĠInternal":14443,"Separator":14444,"lighted":14445,"$^\\":14446,"Ġplatforms":14447,"raf":14448,"Ġdisp":14449,"Lcom":14450,"ARGET":14451,"uits":14452,"Ġaffects":14453,"}};":14454,"ĠLight":14455,"Press":14456,"systems":14457,"Ġpm":14458,"Ġexperienced":14459,"Ġpc":14460,"Ġbrightness":14461,"noscript":14462,"Ġ)\\":14463,"Ġspins":14464,"Ġexpr":14465,"Ġnegoti":14466,"does":14467,"ĠJud":14468,"Ġ\\)":14469,"Ġanomaly":14470,"Fetch":14471,"ĠÃł":14472,"Ġ\\\\\\":14473,"1975":14474,"ben":14475,"^*_{":14476,"Visual":14477,"Diagnostics":14478,"Ġsimulate":14479,"ĠUniverse":14480,"sheets":14481,"diagonal":14482,"gressive":14483,"Ġdemonstrates":14484,"\\@":14485,"ĠCalc":14486,"ĠBY":14487,"}{-":14488,"StyleID":14489,"Ġexhibits":14490,"Break":14491,"Ġflight":14492,"Äį":14493,"ÐµÑĤ":14494,"Dot":14495,"prof":14496,"Used":14497,"Ġstretch":14498,"mond":14499,"team":14500,"these":14501,"icular":14502,"ĠWater":14503,"minimum":14504,"extensions":14505,"Ġexperts":14506,"Ġfear":14507,"ĠTRUE":14508,"popup":14509,"Ġsensors":14510,"ĠWITHOUT":14511,"Blocks":14512,"Ġasymmetry":14513,"projects":14514,"Ġadditive":14515,"Ġfresh":14516,"Large":14517,"SB":14518,"Bus":14519,"dynamics":14520,"Ġoperate":14521,"omer":14522,"@{\\":14523,"Ġaxi":14524,"Radius":14525,"Ġcounty":14526,"Ġshorter":14527,"HashMap":14528,"ĠĠĠĠĠĠĠĠčĊ":14529,"Ġaccord":14530,"TX":14531,"ranes":14532,"ĠAut":14533,"113":14534,"streaming":14535,"Ġslowly":14536,"igm":14537,"rowColor":14538,"ums":14539,"ĠSenate":14540,"Zoom":14541,"%.":14542,"periodic":14543,"Ġfan":14544,"Old":14545,"ando":14546,"Uniform":14547,"due":14548,"Side":14549,"Ġdelivery":14550,"ĠWall":14551,"Ġtile":14552,"ĠFigs":14553,"near":14554,"ĠBritain":14555,"Ġarr":14556,"Ġobserving":14557,"ala":14558,"every":14559,"ĠConvert":14560,"ballo":14561,"Ġgenus":14562,"ĠFamily":14563,"Ġhousing":14564,"Ġbeautiful":14565,"}$&":14566,"Ġreflected":14567,"packet":14568,"Ġvast":14569,"spot":14570,"Qual":14571,"Ġdepart":14572,"Ġrecovered":14573,"~~~":14574,"Ġchose":14575,"staur":14576,"Ġvisibility":14577,"ĠCirc":14578,"+}":14579,"ifer":14580,"Ġscheduled":14581,"Features":14582,
[...]
