#version: 0.2
Ġ Ġ
ĠĠ ĠĠ
i n
Ġ t
e r
o n
Ġ a
h e
r e
a t
e n
o r
s t
Ġt he
a n
a l
ĠĠ Ġ
a r
i t
ĠĠĠĠ ĠĠĠĠ
Ġ c
l e
i on
e d
Ġ o
Ġ s
i s
e s
Ġ f
Ġ w
i c
Ġ p
r o
in g
Ġ in
a s
n d
Ġ b
Ġo f
e t
c t
Ġ d
a m
en t
o u
Ġ m
e l
Ġa nd
Ġt o
i l
ĠĠĠĠ ĠĠĠ
Ġ re
o m
Ġ S
Ġ (
Ġ h
Ġ n
i d
o l
a c
at ion
u r
i g
Ġ =
Ġ C
Ġ T
i m
Ġ A
Ġt h
a d
ĉ ĉ
t h
i v
Ġ l
Ġ e
s e
< /
u t
= "
c e
o t
a g
o d
) ;
u l
i f
Ġ $
Ġ M
Ġ {
u n
- -
e m
c h
Ġ \
Ġ is
Ġ <
a y
er s
Ġ v
u m
p e
Ġf or
u s
o w
Ġ g
i st
a b
Ġ I
Ġ P
Ġ st
ĠĠĠĠĠĠĠĠ ĠĠĠ
Ġ B
at e
č Ċ
i r
a p
o c
t r
u e
/ /
Ġ *
l y
t er
Ġ on
as s
e x
it h
2 0
Ġ R
1 9
Ġ H
Ġc on
am e
Ġ "
ct ion
Ġb e
Ġ D
p t
an d
Ġa s
h t
Ġ L
Ġ F
a v
Ġ }
u b
v er
en d
e f
q u
re s
Ġ N
e w
Ġw as
" >
r i
Ġ G
o p
u p
Ġw ith
Ġa l
l ass
or t
a in
ag e
es s
ĠT he
Ġ W
ro m
ĠĠĠĠĠĠĠĠ ĠĠĠĠĠĠĠĠ
Ġ E
o s
e st
ou r
Ġb y
Ġth at
Ġa n
ĠĠĠĠ Ġ
( )
l i
Ġw h
at h
e ct
Ġp ro
in e
â Ģ
ar t
ur n
* *
n t
it y
Ġ r
Ġa t
e c
m ent
Ġc om
al l
o re
er e
Ġ O
Ġe x
o g
Ġ Ċ
Ġ J
s p
_ {
ac k
e g
i z
ex t
t urn
Ġf rom
Ġ it
Ġ or
ig ht
p l
i es
-- --
ul t
y pe
k e
Ġc lass
ab le
b er
= =
i al
p ort
an g
u re
i le
an s
u d
Ġ '
p er
. .
st r
od e
Ġth is
g et
' s
iv e
an t
on t
Ġ if
Ġ &
Ġ U
re f
ar y
in t
0 0
Ġt r
Ġ he
I n
e p
il l
a st
or m
i p
l d
at ed
Ġa re
ĠĠĠĠĠĠĠĠ ĠĠĠĠĠĠĠ
ar d
o v
l ic
Ġ K
a ct
or d
Ġc h
u nd
pt ion
i a
{ \
) ,
Ġ -
f f
a re
at a
i re
ig n
e v
as e
u g
in d
i b
Ġ //
Ġre turn
ic h
ac e
20 1
T he
it ion
Ġ le
it e
âĢ ĵ
on g
a k
al ue
c om
Ġp l
- >
j ect
: :
Ġ y
ĉĉ ĉĉ
Ġ |
el l
s er
c l
ĠI n
o st
p ro
Ġ$ \
Ġ </
t o
Ġ V
g e
i an
Ġs h
Ġs e
im e
) .
p h
th er
ou t
ub lic
il d
.. /
Ġn ot
un ction
p le
ĠS t
ic e
our ce
id e
ic al
en c
" ,
c on
Ġw e
or k
m ath
Ġ @
u st
en s
20 0
m a
f t
ar am
c c
l o
Ġ [
s o
or y
S t
av e
Ġn ew
Ġa r
oc k
c ri
o k
r a
is h
E x
Ġ +
Ġh is
s et
s h
an ce
Ġ us
ĠC h
( "
Ġ j
f orm
ro w
Ġ /
d d
d u
( );
e ar
Ġwh ich
1 8
Ġre s
en ce
Ġ un
Ġcon t
m l
d iv
p ut
ul l
el f
le s
ess age
res s
ation s
ac h
ĠT h
m er
iz e
} \
ou nt
i el
l ow
Ġ k
' ,
en er
tr ing
---- ----
Ġ| |
} $
> </
^ {
ter n
Ġa p
ir st
ow n
on e
q ue
sp an
f r
in k
c he
u se
er r
iel d
Ġn ame
ent s
e le
Ġst r
on d
f ig
Ġh as
a il
ou s
Ġ* /
** **
in al
re e
Ġ im
t e
l l
er v
ou nd
b ject
Ġc an
e b
Ġ .
> <
Ġal so
ou ld
Ġw ere
c al
he n
Ġp ublic
Ġf unction
er m
Ġb o
cl ud
s s
Ġd ef
../ ../
r it
ic t
o ver
Ġ :
Ġcom p
== ==
ĉĉ ĉ
1 0
r ay
et h
at or
ĠĠĠĠĠĠĠĠ ĠĠĠĠĠĠĠĠĠĠĠ
i ew
r y
Ġh ave
n e
at es
u al
ol d
t a
ar k
o id
Ġp r
} }
( '
Ġin t
ĠU n
ĠĠĠĠĠĠĠĠ Ġ
Ġs et
p r
Ġa b
n ame
) )
ro up
c k
le d
P ro
Ġv ar
p s
f er
Ġ ro
th is
( \
ht ml
y st
i o
ab el
b o
r ap
i x
Ġh ref
Ġp art
en g
er t
N ame
w o
s ource
pe c
ĠH e
eg in
Ġ Y
m essage
n g
he d
o int
l ation
Ġf irst
E R
19 9
om e
Ġpl ay
ke y
ion s
Ġd is
t ext
Ġon e
Ġal l
r ight
f ter
t y
Ġ _
c ol
v ent
er y
od el
ic s
Ġs u
b egin
yst em
T ype
} ,
p aram
at er
tr ans
o b
ing s
im port
ĠI t
Ġ #
Ġt ype
e qu
am es
Ġb ut
Ġo ut
S tring
a w
C on
pe ct
Ġd e
le ct
a x
I d
O N
que st
ation al
is s
al se
ar g
or s
Ġc ol
R ef
at ic
I N
Ġ âĢĵ
Ġv alue
enc es
s um
o ol
Ġg et
em ber
Ġ= >
um ber
re turn
Ġ up
Ġit s
ĠA r
t d
Ġh ad
at ch
ig h
w e
1 2
c re
# #
_{ \
u ild
Ġd es
l ine
ic k
) $
/ >
u ct
o se
Ġthe ir
c ont
el y
eth od
Ġc l
C ont
d ef
f o
c ode
an y
Ġl ine
am p
an n
cri pt
t on
C om
l and
m s
Ġs p
re d
i e
t he
1 6
Ġp er
" />
Ġt wo
Ġ !
Ġo ver
Ġd o
R e
R es
c ent
ap p
i ed
l ock
} {
R E
C h
Ġa g
ce ption
ut e
ic an
n c
it ed
p on
Ġcon st
al s
ro und
ang e
L ist
ad d
rap h
Ġwh o
or n
Ġs elf
et a
Ġ end
fr ac
t ype
a ke
Ġ el
ov e
ar ch
e y
c lass
trans lation
a ult
le ment
Ġt ime
Ġd ata
p os
an c
l abel
Ġw ork
Ġcom m
Ġo ther
Ref er
y m
s on
ur re
e q
v ar
as ed
Ġ i
if ic
it le
at ive
Ġf il
Ġ= =
Ġa dd
19 8
Ġin ter
o f
Ġw ill
le ft
op le
v al
Ġ und
Ġres ult
Ġin clud
Ġ id
ad e
ac he
oc ation
tern al
1 5
_ _
Ġh er
er n
T h
Ġn ull
Ġs ub
Ġbe en
S T
Ġw hen
Ġm e
ul ar
ĠC om
c o
Ġv oid
is hed
1 7
t t
A r
Ġp re
ers ion
g r
: //
Ġa d
w ard
as h
ol low
Ġs up
ire ct
Ġy ear
Ġt e
Ġ qu
Ġre g
u es
as k
A T
y le
on s
ĠTh is
Refer ences
iv ers
Ġ `
ut ion
tr ib
ad er
e e
id th
Ġfor m
um ent
y s
oc al
e ople
ĠN ew
"> <
Ġin to
Ġon ly
Ġof f
iv ate
ur ing
ug h
urre nt
Ġy ou
Ġ en
Ġa ct
) );
Ġa fter
o ot
Ġm ore
res ent
ht t
re ad
am b
d er
Ġre c
Ġthe y
t s
Ġc o
b ack
m in
Ġs o
) :
ĠĠĠĠĠĠĠĠĠĠĠĠĠĠĠĠ ĠĠĠĠĠĠĠ
Ġs pec
1 1
math b
r u
str ing
mer ican
L E
19 7
at ing
c ess
Ġor g
T r
cc ess
or g
is e
an k
O R
Ġn e
am ple
$ .
in ed
ou g
ĠA l
âĢ Ļ
Ġin d
le ction
Ġ >
ĠP ro
Ġwh ere
b ar
" );
eng th
Ġb et
Ġf alse
ist s
-------- --------
w ay
Ġp os
} )
ĠĠĠĠĠĠĠĠ ĠĠĠĠĠ
in ce
**** ****
Ġtr ans
an ag
Ġ err
A R
Ġs c
ser t
b all
Ġs erv
Ġf ollow
c ite
1 4
it s
$ ,
i ous
Ġus ed
1 3
is ion
r r
im es
I D
, \
o le
ser v
i er
Ġ )
Ġin st
ol og
t em
w n
Ġund er
d ata
Ġtr ue
re n
Ġs ec
r m
at ure
s ub
du c
Ġo b
V alue
ption s
i k
Ġc re
av a
Ġthe n
id er
s elf
Ġn o
ĠS h
Ġv al
Ġo p
ch ool
Ġ use
2 5
} .
o y
Ġd ist
f ile
Ġf inal
we en
it ies
equ ation
C ol
Ġd ec
it em
w ork
b le
Ġp ol
D ata
o od
u th
pl ic
or ld
// //
math cal
em ent
Ġpro v
ag es
E N
Ġ x
A L
u res
Ġre m
Ġel se
" )
T o
il y
per ty
Ġan y
v alue
a z
Ġg ener
a ir
ĠĠĠĠ ĠĠ
ĠC on
u le
Ġch ar
Ġn umber
Ġe v
19 6
Ġ Q
in s
et er
li ent
u ff
ib le
Ġs he
d a
Ġth ere
ĠA s
ĠĠĠĠĠĠĠĠĠĠĠĠĠĠĠĠ ĠĠĠĠĠĠĠĠĠĠĠĠĠĠĠĠ
at t
Ġsu ch
Ġ Z
Ġ/ **
S S
as on
Ġk n
Ġre l
Ġstr ing
Ġt est
Ġ ent
S et
l og
in es
ar s
ar get
qu ire
n ing
Ġc ase
Ġbe c
Ġbet ween
a ction
ph a
Ġd if
Ġ âĢ
iz ed
} (
ev el
il ity
==== ====
od y
oc i
Ex ception
Ġw ould
ĠA n
Ġ --
a h
Ġcon s
y p
ic es
um n
ep end
ap t
Ġs er
o h
b r
Ġ& &
Ġl ink
2 1
] ;
ur y
Ġp eople
p x
Ġp h
Ġ// /
n b
( $
3 2
Ġb ack
p re
ivers ity
E rr
ow er
ro ugh
Ġth an
3 0
n ot
at us
Ġs ome
re am
v iew
ou th
d ate
ĠS e
ment s
ĠC ol
Ã ©
Ġg r
pl ay
Ġab out
Ġe st
l ocation
n ew
Ġl ist
} ^
f or
t est
Ġa c
y n
p ress
Ġsh ow
iv er
Ġo per
ou se
Ġf e
O bject
Ġf ile
2 2
Ġst atic
U n
n er
ou n
v e
i ent
t il
ro id
l ish
b y
s c
Ġf ound
m ary
' )
Ġm ay
Ġ ed
~ \
ĠT r
Ġe m
al pha
ot t
Ġ! =
ĠS tring
} _
or th
sh ip
nb sp
a j
m an
Ġpr ivate
Ġc ent
p p
b e
() .
o ok
l er
are nt
Ġst ud
str uct
ĠI nd
Ġc al
T est
v el
el ta
m e
ĠA merican
19 4
Ġm odel
w h
Ġs im
Ġ %
] ,
p i
Ġg roup
D E
s ize
e ver
ĠE x
ro l
00 0
oug h
() );
C T
Ġin v
f ace
H e
G et
Ġm ost
Ġf ield
Ġex t
Ġas s
19 5
le t
ĠL e
Â ł
l ang
Ġst art
ain s
Ġh igh
Ġm od
if e
g er
Ġg iv
Ġa m
amb da
f ield
it t
Ġm ethod
al e
l ink
Ġag ain
r c
m all
u c
Ġs ystem
ist er
I T
al ly
ĠF or
r ic
A s
Ġo bject
Err or
Ġth rough
et s
S E
Ġs ign
us s
A t
Ġst ate
he ck
I nd
O n
ord er
Ġm in
. </
Ġs ing
Ġsec ond
r on
. _
Ġap p
id ent
iz ation
K ey
ro ll
Ġh im
Ġp oint
s cript
ĠUn ited
Ġre p
Ġe ach
a use
. "
ot e
if ied
w w
am ma
Ġ key
m od
Ġt itle
o ther
ĠF r
ĉĉĉĉ ĉ
f ore
if y
C lass
Ġd irect
Ġa cc
Ġ X
) \
I m
E n
re g
Ġdif fer
Ġe qu
evel op
Ġd uring
2 4
Ġc or
F ile
Ġr un
Ġlink s
Ex ternal
ĠUn iversity
tr y
M E
ot s
b ers
l ay
[ '
f unction
Ġp aram
Ġwh ile
n av
oot ball
ind ow
Ġcom ple
"> </
S h
t ime
p ar
m u
ĠĠĠĠ Ċ
are d
ain t
cri ption
ain ed
Ġre le
Ġf l
p ublic
l ist
in ter
" ;
al ign
oc ument
iv ed
Ġyear s
Ġte am
m p
Ġd et
V iew
$ \
ers on
A N
Ġth ree
ess ion
ĠD e
Ġd r
d is
ur l
ut il
B y
p ace
g round
' );
j s
= \
ce pt
ar ray
se ction
ind ex
Ġs ame
col or
sum mary
ist ory
l ished
_ \
ant s
c es
is m
in clud
Ġl ong
Ġw ell
o ad
Ġus ing
i ke
Ġ/ >
r ite
w idth
over n
Ġw rit
ĠW e
Ġg o
" .
Ġthe se
ect or
t op
Ġar g
f l
1 00
C O
Ġthe m
us ic
Ġb uild
' ]
in a
() ,
ra w
re ak
Ġar t
it ial
Ġf am
htt p
Ġe ar
lo ad
du ct
ri b
en se
port s
og raph
p art
m ed
a f
ĠS c
erv ice
m y
5 0
Ġc urrent
t en
Ġbe fore
enc y
U L
Ġfollow ing
o ber
ro p
ir c
ĠI s
m on
Ġc all
Ġplay ers
uff er
A n
ĠE ng
Ġb r
ĠR e
ath er
! --
re at
mathb b
ur ation
Ġbo th
Ġat t
Ġm ed
us h
Ġbe ing
Ġe ff
R O
ect ed
F or
g roup
ĠM ar
anag er
g o
t able
2 3
=" ../../
ig ma
Ġf r
ay s
bo x
Ġm ade
oh n
v oid
b um
6 4
h o
gr am
an e
Ġp op
p ath
pon se
ĠO n
} ^{
h er
con st
Ġl ocal
Ġrec ord
E vent
Ġm em
=" +
re m
Ġsh ould
iv ing
ist r
lo b
ow ever
g y
iss ion
ical ly
ition s
Ġe vent
} _{
h at
Ġ\ \
ur al
Ġ z
Ġs ol
" :
T ime
p ack
u i
eg a
Ġn on
A C
E lement
m and
Ġs ur
Ġh and
et ers
Ġre sp
ĠSt ates
an u
it or
Ġor der
ens ion
Ġgiv en
- \
en n
Ġor ig
un c
Ġbe g
u str
Ġ );
Ġper form
at s
ain ing
at ri
Ġl ater
us er
Ġp ass
th s
T ext
ic a
/ *
o x
f ul
In fo
ro ss
Ġs ize
op y
r al
Re quest
/ **
T E
Ġ ?
m d
ĠS he
Ġre quire
ver t
Ġfil m
Ġkn own
le y
^ {\
ul ation
A l
a id
ain er
b ed
ag ue
Ġas sert
l ambda
I nt
ount y
P E
ph i
F ield
D ef
Ġe lement
u ch
un e
P ath
A dd
N ode
3 3
' :
ĠP r
qu ot
Ġpart ic
ole an
N ot
## ##
Ġp ar
Con fig
l ength
` `
Ġth row
ac es
] .
a pe
Ġap pro
Ġstr uct
trib ute
form ation
ĠC l
om en
Ġo wn
el s
Ġb ir
Ġt erm
ut ton
olog y
a i
Ġm any
Ġse ason
T R
I ON
Ġm on
ĠI f
Ġ{ \
o ff
et work
P aram
() )
E qu
Ġap pe
Ġr ight
I tem
Ġm ov
am ed
uth or
Ġo ur
Ġsup port
Ġdiffer ent
} ;
ĠB r
.. .
s k
Ġerr or
Ġne ed
Ġf ootball
it er
L A
ou nc
Ġb ro
Ġim port
ĠO r
ign ed
Ġex pect
le ar
c d
Ġf our
Ġre ad
per t
ĠP h
b f
Ind ex
as es
P I
Q u
e k
d es
Cont ext
Ġd evelop
St ate
Ġ/ *
con fig
ĠĠĠĠĠĠĠĠĠĠĠĠĠĠĠĠ ĠĠĠĠĠĠĠĠĠĠĠ
ĠC ar
id d
Ġinclud ing
Ġcont in
Ġal bum
' t
4 0
m b
Ġop en
2 7
og le
M ap
F orm
i or
r ide
iv es
i um
Ġser ies
st ance
ĠM ay
m ap
Ar ray
Ġre quest
2 8
f in
Ġf in
pt y
ual ly
ames pace
ĠW ar
\ \
ar ge
Ġb el
Ġar ray
se arch
Ġs chool
ĠĠ Ċ
ĠW orld
ĠG r
ĠJ ohn
Ġ} );
ction s
il on
Ġa ut
Ġt em
Ġ( !
Ġ ,
ap i
ep s
ĠR es
Ġre ce
u ro
2 6
w ord
duc ed
Ġest ab
Ġst yle
W ith
tr ue
O ver
t ing
D es
Ġpro cess
Ġ u
Ġch ild
um er
Ġcal led
Ġm et
Ġ-- >
ĠN ational
Ġagain st
Ġle ad
l ack
O r
b ol
p or
pon ent
ĠA t
Ġn ow
Ġs ince
Ġe ver
Ġl ast
n ode
Ġre f
tern ational
os s
Ġto p
Ġdis c
S ervice
ur ch
ap ache
Ġt ext
[ ]
al ity
ĠS p
ar ri
b eta
Ġdes cri
ar i
m odel
W e
lect ed
d t
mathb f
Ġle ft
re t
Ġbec ame
res ult
ef ore
u age
Ġvar i
ĠC an
il t
******** ********
cent er
od es
" "
l p
i ev
se c
act er
Ġ} ,
I C
' ;
Ġs mall
Ġdef ault
Res ult
s igma
n o
htt ps
Ġre fer
ire d
in put
2 9
y nc
ass ert
a u
ast er
ic on
t itle
//// ////
Ġf act
en e
ĠC ounty
a it
Ġm ain
ur s
s ide
plic ation
id ed
Ġal low
o bject
ĠB rit
end s
in c
tt p
iv ely
Ġv ersion
S ize
^{ -
f rom
ile d
it al
Ġcons ider
Ġun til
B uild
ĠS chool
b s
ĠY ork
U R
ut es
n et
Ġl og
li am
b lock
che s
v ious
Ġt arget
du ction
F F
et urn
Ġb ased
ĠP ar
Ġl oc
l ing
ĠA d
def ine
ild e
F r
ific ation
ent ial
C ode
Ġrep resent
Ġ( \
les s
ĠJ ul
ch n
val id
Ġc ould
201 0
nd er
m it
Ġb u
pl ate
| -
if t
Ġc oun
M essage
pert ies
cre ate
ym bol
iv al
) }
H and
id es
Ġm ake
Ġfam ily
Ġdo es
Ġex p
ĠN ov
ict ion
end ed
ustr al
Ġd ep
Ġse ver
Ġs ong
Ġl ike
he ad
ust om
ate g
ĠS outh
m et
Ġcont ent
il ter
ir d
ĠG erm
err or
ak ing
v ir
our ces
en u
v ersion
im it
i ans
Ġ: =
g amma
amp ion
+ +
Ġpro t
19 3
= '
w it
âĢ Ŀ
S ystem
ou ble
ĠW est
Ġt yp
* }
overn ment
Ġ_ _
Th is
Ġp resent
ug ust
Ġg u
tr act
Ġbec ause
Ġp res
lo at
Ġj ust
Ġcon fig
l t
co pe
A D
Ġde ath
ĠS ystem
Ġv is
com p
Ġb ase
n ext
ĠP l
i ence
V al
201 4
ward s
g t
L O
ag s
qu ad
U T
P h
Ġc are
def ault
p oint
ĠR eg
Ġhe ad
able d
Ġorig inal
cal e
aj or
ar n
pt ember
Ġus er
Ġsing le
u k
ĠG e
ore d
ar row
anu ary
O f
. ,
201 5
="../../ ../../
201 6
Ġp ath
Ġf ind
+ \
lob al
Ġj ava
201 1
atri x
ĠC ent
b ody
M A
a e
Ġm ult
Ġpol it
Ġ( )
ition al
Ġg ame
ev ice
at ter
Ġy our
Ġare a
Ġ= ==
r ist
is ed
our n
Ġo cc
ct ober
o th
m ber
6 0
Ġre t
re c
Ġval ues
A ll
st art
201 7
Ġex ample
S er
l a
re ate
st ate
8 0
ne ction
on y
ĠP ol
ail s
Ġp ub
in ation
I s
Ġpro gram
Ġresult s
ma x
Ġeff ect
et y
ist or
Ġle vel
Ġm usic
Ġan n
se e
math rm
v ision
201 2
I G
is on
Ġs rc
201 3
in fo
d elta
ĠC al
ĠW h
^ \
M L
ĠA ugust
u ck
ĠW il
b ig
Ġb reak
---------------- ----------------
UL L
ol v
Ġm ust
includ e
Ġcon d
Ġb lock
O ut
ĠM arch
Ġc heck
Ġc r
r ho
> &
j ava
Ġcomm un
Ġn ext
ĠA ll
ĠSe ptember
ĉĉĉĉ ĉĉ
ĠJ anuary
b orn
Ġcre ate
Ġd i
ab ility
Ġn ode
w ith
orm al
} {\
pr il
Ġd id
t al
ĠA nd
om an
Ġm ax
ic ial
Ġ$ (
E T
Ġorg an
M anager
an sp
Ġsu ccess
In ter
Ġpl ace
Ġl ife
ĠM in
M odel
Ġo ld
p en
che d
anc es
P l
20 19
pos ition
L og
Ġsever al
201 8
sp ace
us ing
ide o
200 8
d own
Ġm ark
le ge
S ee
Ġ} ;
ĠO ctober
b ase
i od
Ġin put
t ings
o in
Ġbe com
le q
ele ct
Ġl arge
un g
Ġever y
ĠG u
k en
ak es
ĠâĢ Ķ
Ġpro ject
Ġw in
l in
the ta
cont ext
end er
Ã ¡
ĠL ist
200 9
ar m
Ġcont ext
and roid
Ġc ode
a ut
cont ent
F rom
ele te
str u
Ġpos s
n ess
Ġind ex
ĠA ustral
ce mber
ĠJ une
Ġrele ased
Ġn ear
Ġbo ok
c ss
al th
ta u
IN G
Ġw on
press ion
Ġd own
T able
Ġplay ed
Ġm ap
G roup
Ġin itial
t es
il ar
Ġm an
f alse
Ġp rom
roll er
c ast
ann el
Ġin cre
Ġal ong
Ġa v
N ew
ott om
res p
ĠJul y
le m
w eb
Ġv iew
o ption
U p
Ġinst ance
er o
Ġfor mer
200 7
C H
ol ution
ĠG et
U ser
Ġse e
$ -
al k
Ġwith in
ac ed
t ab
Ġp ost
ev ent
old s
ix ed
pack age
st yle
s up
Ġpos ition
p m
ĠSt ate
om et
l ight
E D
I S
Ġ Ð
Qu ery
ord s
s q
ĠN orth
ĠĠĠĠĠĠĠĠ ĠĠĠĠ
Ġm atch
p ed
Ġd ue
Col or
9 9
d e
200 6
in ess
D is
av ing
at ely
M P
; &
Ġserv ice
ĠA pril
u ed
ĠC ity
ĠI I
Ġr ad
pro t
Ġid ent
t imes
ur g
ator s
Ġinclud e
ur ther
z e
al es
R eg
he s
ĠB e
Ġst and
ĠE d
Ġp o
19 0
}$ .
d om
Ġdist rib
C lient
ograph y
ord ing
ther n
uro pe
d ay
pr int
iv ity
R ec
Res ponse
Ġin formation
Ġb ound
T D
ĠBrit ish
t n
} (\
Ġwh at
======== ========
=" ../
w are
ĠNov ember
=" #
ĠC o
}$ ,
part ial
fig ure
Ġbir ths
ib r
Ġle t
i us
Ġv ery
ar r
A B
Ar g
a ff
ĠDe cember
Ġm y
Ġn il
n u
Ġev en
Tr ans
Ġit em
d oc
ail able
U N
c ount
Ġt ri
4 5
Pro perty
us ed
cent ury
s l
ra ft
ĠLe ague
Ġs ource
] {
20 00
if ier
Ġl aw
go ogle
ĠThe y
che ck
A S
r t
ampion ship
ap an
ut ed
D O
d b
Ġbo ol
ok en
t ed
Ġ eng
Ġear ly
um ents
ĠT e
ur ity
eg er
ww w
um e
Ġa round
ad a
Ð °
at ures
m ethod
ĠâĢ ľ
Ġs aid
Ġch ang
Ġob t
P r
op er
u x
il it
eb ug
ang le
M ethod
Ġw orld
C all
pl oy
ĠH owever
C ount
se mb
ref er
20 20
ĠĠĠĠĠĠĠĠ ĠĠ
Ġc ity
; </
al y
ĠY ou
eb ru
Ġgener al
Over ride
ĠU S
e ad
st atic
re l
Ġtr y
ith ub
s w
c ore
Ġal ign
Ġm ember
9 0
Ġex per
M od
ebru ary
h am
st it
Ġth ose
Ġl ang
Ġs k
wh ere
Ġl a
Ġmem bers
Ġd iv
ĠR ep
en ame
c all
Ġsh ort
ĠE n
Ġm ag
i que
u les
Ġp ower
ĠK ing
Ġcon f
Ġb and
Ġo ptions
am a
Ġ čĊ
t ual
eq ref
C l
ater ial
Ġp erson
ure d
ple ment
on se
Ġt able
ic y
Ġ enc
ac y
Ġs um
Ġcomm and
Ġd ocument
le x
Ġreg ion
ard s
> (
3 5
Ġc ap
Ð ¾
A d
Ġpre vious
Ġst d
ear ch
y l
it ive
an a
il le
Ġfil ms
Ġchar acter
u f
E S
Ġcont rol
act ory
Ġn amed
Ġresp onse
ele vision
g ithub
ft y
us iness
6 6
ĠS et
D elta
n ect
ren ch
Build er
Ġd el
EN T
ĠĠĠĠĠĠĠĠĠĠĠĠĠĠĠĠ ĠĠĠĠĠĠĠĠĠĠĠĠĠĠĠ
Ġw ay
ĠA ss
ĠE urope
Ġcom put
Ġcol or
resp ond
arg in
b l
st er
in fty
ĠP art
an ch
eq n
Ġre port
n amespace
stru ction
t ilde
lo se
lic k
7 5
Ġl and
a im
b uild
Ġand roid
ĠN o
Ġback ground
G ener
in o
Ġpro perty
) </
Ġcomp et
Ġst ill
n ull
Ġdes ign
Ġto wn
ap er
I L
Ġass oci
Ġpro f
d ir
Ġex pl
< !--
Ġcare er
ĠF ebruary
Ġp at
Ġob serv
200 5
O T
] (
Ġhe lp
Ġw omen
Ġwith out
Ġto tal
Ġe lect
] )
c urrent
Ġre al
id ge
Ġpro ble
ĠR ec
Ġex ist
A merican
Ġb order
in ition
Ġh ome
B ar
ut ions
o ptions
ĠS up
g ress
ĠA fter
epend ent
Ġl arg
Ġle g
St ream
ĠA b
ĠS er
S ub
l or
3 4
ac hed
Ġm ajor
i j
ĠS ec
Ġc our
Ġsp ace
f unc
v en
im ent
ĠĠĠĠĠĠĠĠĠĠĠĠĠĠĠĠ Ġ
U til
ĠN ULL
ĠI m
oc ial
Ġh ow
um b
e ction
| \
Ġw idth
rit er
ic le
Ġm essage
os ed
op s
Ð µ
re en
E nd
es e
A nd
C E
ĠB y
ĠB o
Ġad v
Ġme as
Ġan other
h and
ug g
Ġf a
Ġd em
at ab
Ġd om
S c
vir on
ĠM ed
Ġr ange
Ġg overnment
pl ace
im age
con d
p an
Ġis s
c lient
qu ery
Im age
ad em
om ega
Ġc ar
In put
( (
ĠG ener
Ġex ec
ĠCh rist
b utton
T H
or ies
r un
x i
7 0
re quest
c ed
N A
li b
um p
St atus
Ġbeg an
l s
ore m
U S
Ġs ide
Ġbe h
Ġadd ress
Ġ es
3 1
Ġm ass
fin ished
end ing
ou d
E d
Ġhe ld
pos ed
al f
im al
re w
ill ion
ĠEng lish
Ġcl ub
Ġn etwork
Ġtr ack
b it
Ġd ay
ne y
Ġo pt
ith er
Ġrece ived
Ġ( $
Ġbe st
Ġestab lished
Ġres pect
o pt
Ġloc ated
200 4
tr a
ĠJ apan
Ġab ove
D ate
Ġv ol
h ip
re et
ĠB ar
Ġro le
Ġv ill
Ġf re
Ġa ction
ef f
Ġa ccess
I P
Ġbo olean
Ã ³
ĠM c
Ġl ength
n a
Ġpop ulation
re st
Ġcomp any
ch o
B e
ĠH is
P ar
ĠT o
s im
old er
In stance
Ġper iod
pec ial
ĉ Ċ
che ma
g es
ĠH igh
Ġbu ilt
Ġst at
arg s
Ġc a
r am
k n
istr ict
if f
Ġdef ined
Ġsim ilar
$ $
row s
S tr
al t
Ġ et
im um
Ġdescri bed
ust er
on es
way s
Ġb as
\ ,
T oken
Ġm uch
er a
se qu
ond on
pro v
ON T
Ġp arent
Ġout put
ph p
ip le
F A
Ġim p
Ġm at
app end
) {
Ġt ake
Ġh istory
Ġsup er
Ġb l
Ġst ation
p age
Ġh ouse
Ġto ok
un finished
5 5
E X
h as
ĠCom m
ay out
Ġe p
read y
Ġf ull
in ary
n s
Ġ< <
Ġh ere
ĠM an
Ġf ore
m ark
D I
Ġ- >
O ff
N S
Y PE
cre en
ener gy
Ġchild ren
Ġh ost
P os
ĠC or
ĠA ir
and om
R un
I t
ĠA fr
r ad
j av
L ine
ser ver
A ct
n on
add ing
Ġg ames
Ġcre ated
A ction
Equ al
ĠG L
th ough
he ight
B lock
id get
Ġs pe
Ġpoint s
c apt
Ġc ell
um an
fr ame
Ġcomp on
raph ics
c or
3 9
N ull
he m
y d
im ate
Ġp ort
oc us
ic ense
B ase
d l
g or
c it
i et
( {
ĠCh ar
y c
ing ton
Ġch ange
ĠC ont
Ġp e
semb ly
ed er
in it
ĠĠĠĠĠĠĠĠ ĠĠĠĠĠĠ
able s
or age
Ġpub lished
ĠR uss
Ġc ur
Ġd est
Ã Ń
N av
und le
Ġte chn
ĠE ast
Ġrequire d
Ġinclud ed
ĠD r
g ed
Ġc ount
er ed
ĠB l
~ ~
Ð ¸
Ġn ational
un ic
Ġ+ =
Ġplay er
m o
S ource
ĠM e
ateg ory
Ġav ailable
3 6
Ġd eb
ĠCol lege
t x
a ul
Com ponent
Ġa ge
al ys
Ġl abel
x y
Ġim age
Ġcor respond
O ptions
act ive
B uffer
Ġre st
N o
op h
Ġd epend
wit ch
ansp ort
our s
0 1
he ader
At tribute
yn am
Ġas sum
Ġar ch
A pp
atab ase
ĠTh ere
Hand ler
Ġint ro
Ġa uthor
[ "
Ġappe ar
ep ar
ĠPh il
Ġa ff
ch ild
y les
ib ility
li ed
' '
ĠT est
} }\
ĠL ondon
cd ot
Ġw ar
D ec
U E
Ġserv ed
Ġd er
im ary
viron ment
ug in
p arent
Ġpartic ular
200 1
Ġ" ""
P ol
4 4
t arget
eqn array
Ġev ents
S elect
Ġfe ature
Ġcent ury
O per
f ord
ĠĠĠĠĠĠĠĠ Ċ
r ict
n ow
Ġdis play
Res ource
200 3
Ġth ird
ĠF rench
Cont ent
Ġval id
ac ing
Ġse ction
ĠD es
Ġt urn
p ol
m ember
im ation
Ġp age
ad ata
Ġs ix
S P
* /
ilit ary
er ing
al d
ĠP ark
G L
C ell
Ġs l
j son
18 9
)$ .
ounc il
3 8
ĠA ct
ĠCh ampionship
O P
Ġh ttp
ĠA dd
Ġar r
ri or
Com p
RE F
Ġw ant
ĠWil liam
Ġb orn
art ment
arri ed
th ers
i ber
Ġt imes
ad o
ic ro
Ġf ive
200 2
p ost
ens ure
S ec
} [
ist ic
se lect
Ġexpect ed
l im
ĠS w
am ent
du ce
eps ilon
it es
Ġl ow
20 21
4 8
ĠL a
00 00
ent ion
un k
18 8
P oint
Ġkn ow
G amma
ele ment
i ef
row n
E E
p tr
Ġspec ies
Ġe lection
f low
Ġcom b
O m
Ġspec ial
Def ault
ot ype
Ġreturn ed
Ġed uc
ĠGerm an
ent ly
c m
Ġcomm on
Ġ ke
O L
c ul
Ġm anag
Ġd en
ud e
res h
St art
A p
iz er
O S
ly mp
E L
e ed
ĠA m
s i
C K
l ocal
Ġdist rict
ĠV al
ĠD istrict
gor ith
Ġl ook
ĠCom p
Ġg ood
3 7
av es
F actory
mod ule
ĠH ar
Ġt elevision
id ual
C C
Ġinter est
att le
x ml
idd le
F unction
ps i
li es
nav bar
oug ht
L ink
om ic
ot o
g le
} _{\
ĠQ u
ial og
Com mand
ug ht
ĠD av
re ct
v ers
Ġbuild ing
Ġn um
ĠH ouse
r l
Ġc over
R A
o o
ĠAr t
d ec
ĠC lass
capt ion
Ġwe ek
s g
ĠB ro
Ġc rit
Ġl ate
pro perty
l en
Ġa ir
T ask
Ġ energy
ut ure
alys is
Ġs at
f irst
Ġdet erm
ps ilon
im ension
i i
ĠA mer
ig ation
ro y
w rite
ight s
kn own
op en
u ation
H istory
6 5
oci ation
Ġf ew
Ġb ody
ĠN or
Ġwrit ten
dis play
Ġf ree
Ġres ource
re quire
at form
Ã ¼
h a
Ġgr ad
f ind
o ice
g ener
oc ol
Ġ{ @
W indow
Ġv ir
h ost
Ġc amp
Tr ue
ĠO bject
Ġparam eter
ĠC up
ĠF ig
st atus
ĠH er
Ġs ite
Ġ q
Ġcol umn
c ase
I f
m ar
trib utes
V ersion
ĠI nt
Ñ Ĥ
ĠP res
ĠO ff
Ġm en
s rc
th ing
Ġoff icial
Ġprot ected
Ġd eg
m eta
Ġparam eters
ĠR eturn
r is
o ke
Ġw ater
ch ar
Ġs ent
P RO
fo ot
ĠW hen
b ottom
sq rt
bo ard
Ġp red
ist ry
Ġof ten
ĉĉĉĉ ĉĉĉĉ
Om ega
H T
^ *
l ast
Ġposs ible
ĠP er
Ġpr int
ĠIn ternational
p ush
og n
ibr ary
LA SS
Ġn orth
AT E
H el
str ong
d f
M S
d r
ĠD ef
Ġb usiness
Ġ( (
m m
p ose
ig r
it ory
ap s
in n
d o
Ġthrow s
p c
pr ivate
St yle
Ġpro duct
ĠS ch
Ġst atus
Ġa ver
ert ain
v are
N umber
Ġp erm
) (
Ġe ither
ic o
ĠA c
he l
ĠN one
end if
ak en
Ġd ied
s u
if orn
Ġro und
Ġind ic
F I
Ġshow s
T O
ĠThe se
des cription
olog ical
ch i
Ġp ack
b tn
ĠO ne
Ð ½
ens ity
ĠĠĠĠĠĠĠĠ ĠĠĠĠĊ
} );
Ġstud y
Ġm er
cl us
im g
P age
Ġcon struct
Ġre d
" ]
eg r
C A
F l
g en
199 9
ĠD iv
Pro v
Ġhe ight
Ġam ong
p y
Fr ame
ma il
av y
ab or
L abel
M em
" ).
row ser
ob j
y nt
R ow
ur b
at al
Ġt ask
Ġstruct ure
yp es
% %
iforn ia
st ream
L iving
Ex t
âĢ Ķ
st and
olv ed
Ġw he
Ġstr ong
Ġatt ack
ult ure
Ġvill age
Ġsh own
bo ok
S up
Equ als
ch ange
Ġr a
A G
$ {
A fter
g l
st d
Ġvar ious
Ġs epar
i ol
Ġc lient
pect ed
ĠS an
in st
Ġre search
Ġl o
P eople
)$ ,
Ġal ready
s igned
ĠInd ian
Ġeng ine
d et
Ġimport ant
b or
Ġcon c
ot ion
Ġs on
P art
vare psilon
U s
Ġl oad
g ing
c ell
ourn al
ĠD ep
or ge
ĠR iver
Ġlang uage
Ġd ouble
( &
B C
R eturn
Ġwork s
ud io
oy al
lay out
C heck
Ġf urther
itt ed
ar a
land s
v is
ĠM ich
0 5
so le
Ġtr ad
cont ainer
he et
Ġd on
Ġg en
Ġre lation
ock et
Ġc lose
// /
E m
ĠA p
li p
^{ (
b urg
ev en
Ch ar
as cript
ĠEng land
V ER
F ONT
od ing
Ġm iss
" ),
Ġre pl
fl u
Ġse qu
Ġinv est
Ġ url
Ġ ]
Ġelement s
Ġs outh
Ġext ends
ire ction
p ng
C reate
ens or
ounc ed
if act
Ġv ideo
B ox
Ġme an
pro ject
199 0
b uf
itt le
Ġle ss
ab ly
Ġc irc
c an
cl ose
M O
c ap
Ġin s
Ġph ys
Ġw indow
c el
Ġf ac
Ġsh ip
Ġmodel s
ĠCal ifornia
o on
serv ice
Ġn ov
Ġcoun try
Ġl ight
Ġterm s
M et
Ġcol l
Ġpro b
Ġacc ount
} =
sub section
Ġstart ed
or ph
Ġt w
Ġ< !--
Ġ$ {\
B ack
Ġh aving
Ġle d
oci ety
Ġl imit
7 7
Ġprov ided
ir m
Ġp ot
Ġim plement
Ġcl aim
Ġbecom e
Ġc apt
Ġc lear
//////// ////////
Ch ild
ul a
i as
ĠR ed
ĠI N
k a
com m
t ag
ĠE l
er efore
use um
Ñ Ģ
A cc
m ult
b m
Ġmov ed
List ener
G r
Ġ\ ,
s ol
Ġst ates
at tr
f ont
ĠQ ue
4 9
Ġconsider ed
idd en
AB LE
ĠM on
W eb
I I
20 22
k s
#### ####
Cont roller
ĠD is
ĠAustral ia
m t
le vel
_ .
it ect
ĠW ith
Ġh istor
min istr
el ine
ĠS tr
F ilter
s mall
Ġd a
Ġsu ff
Ġproble m
ce ed
B utton
Re ad
app ing
fer ence
n um
Ġpro duced
w ise
ol l
Ġfollow s
Ġm argin
action s
Ġo ption
ĠI r
form at
Ġdevelop ment
r ing
ĠPart y
Ġv ert
ang ed
Form at
Ġcon trib
}^ {\
) =
L ength
Ġfr ame
Ġv er
ig ger
f ilter
ent ry
res ponse
om b
v es
Ġsign ific
tem pt
Ġin ternal
Ġc ross
Ġfunction s
le g
B U
d ev
ex p
ĠS im
al let
v ec
Ã ¶
ft ware
iv il
ar ies
Ġle ast
S C
Ġcol lection
Ġc atch
d raw
Ġpro perties
ession al
Ġm ove
Ġgroup s
Ġv ia
F irst
med i
il er
ĠRep ublic
m em
ugg est
oc r
Ġh owever
R ep
Ġw est
S ON
ĠP ort
Ġb g
Ġpro duction
Ġin div
Ġspec ified
ay er
ell ow
Ġp ut
le an
D et
f e
, "
Ġs ample
m enu
r angle
Val id
str act
Ġestab lish
up date
Ġf ri
Ġ ide
ad ian
jav ascript
ĠE m
ref ix
Ġcont ains
6 7
right arrow
Ġc opy
4 7
Ġb lack
M ode
is ing
ele g
Ġ Ã
Ġbeg in
199 8
Ġm ale
Ġg l
i ation
f inal
ĠA g
Ġassoci ated
em ents
Ġ` `
Ġfe atures
ap ter
i qu
em ph
Ġan t
Ġyou ng
h ib
i ers
ot a
ill s
Ġs che
Ġf low
ĠO lymp
Ġmethod s
ĠA ward
ens ions
am l
Ġl ower
Ġdeath s
Ġd ate
ly ing
Ġs em
IN T
out put
Ġin ternational
Ġperform ance
Ġaut o
Ġcommun ity
i res
U I
Ġappro x
Col lection
ĠĠĠĠĠĠĠĠĠĠĠĠĠĠĠĠ ĠĠĠĠĠĠĠĠĠĠĠĠĠĠĠĠĠĠĠ
ri es
Ġs old
Add ress
ĠInd ia
c irc
p o
G e
m ost
Ġ row
N O
Ġs pect
id ence
Ġf ather
param s
gorith m
Ġpr act
Out put
ou ch
ĠM al
a el
Ġm illion
A P
ord in
: </
Ġw rite
y ear
os p
as ing
A ut
ag ed
Ġf em
ĠG o
S pec
n umber
com mand
y r
Ġinst ead
Ġat tempt
Ġqu ant
eg raphics
includ egraphics
pl it
Ġcomple x
Ġe ast
Ġc ame
Ġup date
B ig
at ural
ĠD o
< ?
I M
ot ed
is f
q l
Col umn
rem ove
Ġd ev
refer ence
ĠB el
0 8
C ache
ag n
T em
Ġform at
Ġto get
il m
UR L
ar ning
ad es
T P
ĠAr my
Ġadd ed
Ġtoget her
ĠR ev
var i
Ġc ou
Ġserv ices
un it
Ġadd ition
Ġaver age
L ayout
ĠIn ter
id s
Ġcall back
Ġbel ow
ĠFr ance
6 8
Ġdisc uss
sh ow
Ġindiv idual
Ġmod ule
ak er
al le
ĠCh urch
T YPE
Ġdif f
199 6
ĠGener al
Ġg e
ER R
p ass
an el
ail way
Ġep is
Ġse arch
P re
H E
s f
ĠS um
Ġh alf
198 0
pro cess
e h
om in
Ġw ent
ex ec
ac ity
ĠN ot
in stance
Ġann ounced
m ain
col umn
Ġj o
it ar
O b
U M
am ily
E nt
ic ient
e al
ef ined
ec ess
Ġdistrib ution
an ish
over line
Ġbg color
ĠC LASS
199 7
to ol
Ġser ver
ĠU p
at as
Ġpro duc
E ng
L et
Ġfield s
ĠC our
} ).
ann ot
ĠA nt
pro of
ĠA cc
el se
p ly
ĠB er
ĠS k
Ġne ver
A ss
`` `
ĠV ir
Ã ¤
off set
Ġc ustom
back ground
P er
ĠP al
and id
ge q
air s
ĠH REF
prot otype
Ġn ormal
Ġf ont
av el
Ġst ory
Ġon ce
u el
Ñ ģ
u int
b a
Ġ[ ]
id ing
ĠC ouncil
ym met
Ġinter face
C ON
W h
Ġrele ase
ĠA PI
Ġa ward
. ~\
Ġ! ==
Prov ider
y a
ĠAmer ica
ĠF irst
Ġg raph
h an
s m
text bf
' ).
s pec
ĠSt reet
B undle
ile s
il ities
Ġun it
Ġin f
Ð¾ Ð
ER T
4 2
ĠCan ada
st yles
Ser ver
Ġs w
Ġprov ide
L ast
or iz
R em
++ )
Ġoper ation
w rap
Ġf ail
Ġm atrix
enc ies
Ġre view
Ġd ays
il led
ĠD i
ã ģ
ĠS o
l it
T ypes
Ġp ay
Ġcons ist
l ong
Ġl ocation
ĠJ ames
var phi
U rl
ĠH ol
ĉ ĠĠĠ
Ġact iv
return s
Ġn eg
Ġstand ard
Ġspec ific
D e
ĠR oman
8 8
Ġph ot
ist ics
w est
Ġtyp es
ver se
ry pt
ĠR ober
C L
[ \
ĠTh om
Ġcent er
ĠL icense
Ġn av
ex ample
Ġpl an
unic ip
Ġrem ov
Ġs ocial
Ġpolit ic
ag o
Ġst ream
S I
ĠG roup
i ents
b b
Ġsignific ant
Ġpolit ical
ĠE X
Ġse lect
ro te
Ġd one
ĠAr ray
Ġsuccess ful
D B
Ġ( "
v ille
on ly
**************** ****************
c er
ĠPres ident
f a
Ġg lobal
Ġme ans
Up date
Ġact ive
plic it
0 9
Ġc ost
4 6
Ġl ines
Ġmed ia
ĠEurope an
CO L
s d
pro to
M ed
stit ute
ĠTr ans
L ocal
ree k
Ġsur v
199 5
0 2
> >
pro p
Ġin it
0 7
Ġag re
u id
ing le
ĠS m
T ag
r d
Ġf und
com e
Ġrefer ence
ĠP aul
& \
} ),
Ġl iter
5 9
z er
w ide
util s
ĠT ype
Ġn umer
Ġac ross
Ġsystem s
ĠB ut
Ġse en
k it
Ġm ode
M in
W idth
Ġre cent
Ġapp oint
Cont ainer
Ġwhe ther
ou thern
Ġse lected
Ġc ases
ch an
Ġmeas ure
}, \
Ġr ank
Ġac cept
id a
an ia
Ġpot ential
iz ing
Config uration
Ġn one
sk ip
5 8
s cope
ĠI D
Ġr ate
ĠM y
ch iev
ĠD em
18 7
ri a
ĠH T
Ġreg ular
Off set
197 0
Ġcomp os
) ^
ĠR ich
ic les
ĠDiv ision
ĠGe orge
li er
V AL
Ġs ay
tem plate
0 6
ic ation
Ġm aterial
Ġbro ad
Ġwe bs
Ġpop ular
Ġg reat
Ġmult iple
a ur
b ind
() ->
Ġwork ing
Ġwork ed
NA ME
T arget
Ġpartic ip
com mon
Ġs it
Ġm aking
. \
Ġl im
ĠThe n
n ers
P ack
| |
Ġthe ory
ĠM ark
Ġal ways
ĠR oyal
Ġob j
Ġbo x
Ġs uggest
Ġtr aining
Ġstud ents
b ased
i os
L ambda
Ġconst ant
V is
Ġdec l
ã ĥ
Ġm ilitary
( _
M ax
) ]
Ġg round
Ġt re
I O
5 7
Ġm arried
Ġ* *
a ign
Ġt aken
Param eter
li ke
Ġn ames
em pty
f loat
ul ated
ĠS en
Ġjo ined
ach ing
s v
Ġfre qu
ĠM ont
Ġex press
S p
Ġg row
Ġto o
ĠDav id
199 4
b in
="../../../../ ../
ion al
A b
iv en
t ask
ol ic
c ache
w indow
ct x
av en
act ers
ĠAss ociation
ĠF l
ra z
C o
Inter face
Ġqu ery
Ġreturn s
one y
Ġf ar
Ġcompon ent
0 4
ĠB lack
Ġh uman
Ġcomple ted
Ġdef e
d epend
5 00
is es
A ccess
Ġcond itions
] );
so ft
m atch
Ġchang es
. $
ĠM ount
ĠR ef
Ġadd itional
. }
lay er
Ġfile s
b uffer
Ġab le
T ree
sh ould
sup port
an i
Ġcon v
Ġ quest
O pen
ĠS ub
Ġhigh er
ĠUn ion
at ives
ĉĉĉĉ ĉĉĉ
ĠGerm any
art ifact
lang uage
Ġind ependent
Ġs cal
d ep
199 2
En try
ar ly
Ġl en
im ated
Des cription
Ġm id
Ġopen ed
ber g
Ġl oss
ĠW eb
om ent
Ġarg s
C ase
Ġe as
fr ak
Ġp aper
Ġu int
T op
at tern
Ġsub ject
ĠF rom
ess ages
ol ve
ĠL ou
} /
U P
umn i
Ġl ost
h ood
B o
ug e
Ġoff set
Ġreport ed
ber t
Ġe con
ĠH am
in ner
st on
ip p
c a
Ġw rote
tr ack
ĠL et
b and
W ork
ĠR em
UL T
ld ots
ĠD on
n el
f act
ĠAustral ian
ĠH all
Ġof fer
par se
O ne
Ġpres ident
Ġst op
0 3
qu are
Ġb uffer
bo ol
N D
Ġfil ter
ĠP o
m ing
Ġobt ained
ri an
cript or
at ory
( [
Ġap plication
Ġent ry
u a
Ġv ector
ot al
sh ire
Ġro ad
Ġp ress
g in
ĠP e
un ch
Ġd ensity
: "
Ġsat isf
He ader
d ist
gr ad
Ġcond ition
Ġh ard
if orm
ĠM et
Ġinst all
l ate
Ġ ::
Ġf loat
P C
lang le
ound s
' ),
ash ington
L oad
Util s
b reak
Ġ ...
ro ot
ct or
. /
Ġst ep
} }$
tr ies
as ons
Ġo thers
ensure math
Th read
ig inal
Ġme et
ask et
wo od
u z
Ġdevelop ed
af e
s cale
=" -
Ġperform ed
Ġs cale
A PI
err y
Ġare as
ĠCh ina
d ocument
ĠR oad
Ġsign ed
Ġvir tual
d s
res ource
A g
L e
Ex ec
ĠN e
un t
Ġem ploy
im er
Ġin flu
ĠPro v
P O
st ant
t ree
Ġ ill
Ġsim ple
w ait
ĠCent er
ĠM art
Ġan alysis
199 3
Call back
L o
Ġrel ated
Ġl ive
h line
ar io
od ed
V ert
a uthor
Ġth ough
Ġtem per
iz es
Ġh om
5 6
ache s
Un it
Ġpart y
all s
c r
Ġdirect or
et ch
Ġobt ain
ot imes
ro s
L evel
ĠL og
Ġinclud es
ĠAr ch
te e
ar ing
Pro cess
Ent ity
val ues
Ġs om
ri ef
Ġcomp an
lic e
Ġr andom
em s
Ġcon nection
le ase
Ġoper ator
ty p
Ġa way
ĠA ng
ĠD uring
ĠReturn s
Ġrec ogn
ut ive
A M
Ġpro p
B r
Ġdeb ut
N ext
class es
ex pected
K E
Cont rol
Ġteam s
Ġj ob
Ġwebs ite
ĠL aw
Ġcal cul
app a
ĠO F
Ġsong s
math frak
im ately
th on
Ġst ar
Ġf ig
C D
m at
Ġprof essional
il i
ĠĠĠĠĠĠĠĠĠĠĠĠĠĠĠĠ ĠĠĠĠĠ
Ġth us
Ġtrans form
n ected
an o
ĠF ile
Ġch urch
Ġp ur
CO DE
W rite
Ġbet ter
que ue
Em pty
Ġ{ }
Ġb i
D r
Ġa chiev
Ġcorrespond ing
Ġcon struction
ĠS am
ugh ter
Ġbeh av
he nt
Ġcomple te
Mod ule
4 3
liam ent
" ))
J son
h i
ens ive
199 1
w in
Ġt en
ut able
ĠAc adem
ĠSt ud
Ġm ight
ĠC r
ĠComp any
A A
Ġd raw
b ra
ĠM or
Ġl ik
R ange
Ġp aint
] [
pon ents
L ocation
Tr ack
ach ine
Ġc ast
ab s
ĠH en
Ġcurrent ly
Ġam ount
Ġset t
ell ing
Ġwh ose
ef t
Ġcan not
ult ural
Ġit er
ens us
en a
Ġro ot
4 1
ĠM usic
artifact Id
ĠM ary
Z E
Ġro ck
Ġoff ic
Ġcon tract
Ġsol ution
Ph i
Ġresp ons
ec k
Ġcontin ued
to ken
Ġarch itect
Ġ ;
{ {
Ġfr ont
ĠM ex
s in
cont rol
m box
wh ich
ad ow
ĠRober t
Ġcl osed
ĠD ata
ob ile
Ġ* )
ines e
al a
o ch
Ġfa iled
ain ts
C an
s ign
Ġent ire
Ġobject s
Ġright s
P ort
Ġrespect ively
ĠS ervice
Ġrecord ed
H ttp
Ġrem ove
Q L
Ġst age
Ġbel iev
Ġqu al
ĠM ag
Ġwh ite
Ġex ists
Ġch annel
om y
ĠFr anc
? :
Ġsupport ed
Set tings
Ġrun ning
ĠIs land
Ġen vironment
in i
ã Ĥ
He ight
t ml
= #
Ġfor ce
T I
Ġg ive
Ġv iol
Ġ Â
Q ue
S O
Ġeduc ation
Ġb it
ĠCl ub
="../../../../ ../../
Ġcl os
Ġh old
str ap
Ġh on
Ġh app
anc ed
6 9
IG N
Ġcontin ue
Ġf uture
ĠS ince
S cript
ĠCour t
sp lit
ag on
sub set
od er
H O
Ġlead ing
est ival
enc ed
Ġdef ine
p atch
und er
A V
Ġdeg ree
. )
as c
s y
C urrent
b our
ĠAs sert
Ġallow ed
D irect
AT ION
Ġocc ur
Ġp rior
196 0
ĠC reate
B A
ast ic
it ing
Ġt ree
ict or
ĉ Ġ
Ġex ception
Pos ition
ĠW ashington
E nc
he st
Ġset s
ĠT V
Param s
file s
ĠT own
se y
ĠM ac
b olds
ĠS ociety
we ight
S im
Ġdirect ed
ĠA pp
n ab
ĠKing dom
} )$
c ial
Ġchar acters
S earch
ĠIt al
% ;
Ġpos itive
ĠO ut
Ġin c
ms g
R L
ag ing
st ack
P o
group Id
us es
Ġrad io
ĠN S
Ġf ire
Ġform ed
c ard
O ption
ut or
model s
Ġalbum s
n ap
O p
Th ere
Ġhe alth
Ġb ar
F e
bolds ymbol
o e
m en
ĠO pen
IN E
Ġd oc
ark s
ain e
u ated
ĠCan adian
Ġnov el
ĠG ames
Ch ange
ot es
ur i
198 8
ĠIn stitute
Con nection
a a
Ġre nder
H ash
ĠP ress
Ġd evice
Ġk m
Ġ> =
Ġus es
con f
T ER
e in
Ġacc ording
Ġpart s
w s
Ġr ather
ag ment
D ir
Ġto ol
Ġke ep
ĠDep artment
Ġaut om
Ġex cept
ig en
9 7
ĠJ ack
param eter
Ġem pty
g reg
Ġdes cription
ĠT ur
bo ot
9 5
Ġw ife
Ġequ al
om s
ĠB ay
ĠM iss
B O
Ġc andid
Ġm ot
overn or
ix t
ĠAfr ican
iction ary
u ous
am s
L I
Ġappro ach
h r
Ġp ast
St at
b efore
Ġint egr
asket ball
E CT
Ser ial
198 9
D ocument
oun ter
p ite
> ,
ar ter
Ġc ut
ĠV ol
ĠC ath
Ġph ase
Ġr ace
ĠM od
re a
R el
ĠL em
ĠAr g
d i
c os
out e
S ession
ub e
l n
Ġfil ename
et t
() :
Ġoper ations
Ġcent ral
Pro perties
Ġf lo
C P
Pro ject
X X
Ġcon duct
it ch
Ġn ecess
Ġpass ed
Ġgo al
" ));
ed y
oriz ont
Ġintro duced
ru pt
ĠJapan ese
and s
Ġt ag
ur a
Ġc ertain
AC K
N one
Ġarg uments
Ġch o
Ġsequ ence
non umber
5 1
Ġparam s
COL OR
ant ic
Ġal though
z a
ou l
ĠT ex
styles heet
Ġt reat
c s
Ġtrans fer
Ġad ministr
Ġmark et
f s
PE CT
d ated
ĠS ee
inc ip
Ġ ir
Ġconfig uration
en ed
k appa
Ġsur face
ĠRec ords
Ġchang ed
d rop
im ages
ple te
d evice
Ġoff ice
Ġappe ared
Ġz ero
ĠH istor
Ġfound ed
yc le
Ġ" \
d ebug
Ġ ~
Ġhand le
F ont
Id ent
ĠJ er
ĠB est
Ġline ar
d est
g n
Ġe lected
at io
I V
re y
Rec ord
cit ep
Ġt our
it ude
ound ation
al led
Ġne igh
ar ian
S chema
Ġb en
ĠB ase
Ġst ri
ill a
Ġx ml
9 8
Ġat tribute
d en
re nder
Ġover ride
urs or
ar ily
d ot
I F
a o
Ġv ict
Ġmod ern
m ission
Ġappoint ed
Ġse lection
Ġass ist
ĠT ime
n es
eder al
Ġv ers
or ing
Ġreg ister
Ġd ynam
Ġre v
Ġwrit er
omet ry
ĠThom as
j o
Ġfootball ers
on a
As ync
ĠU K
ess or
ĠD irect
Ġre ason
im est
Ġp adding
and er
Ġpat tern
Ġsol id
h ash
ĠM ore
ĠRuss ian
ĠM ad
Ġhim self
ang es
Ġcompan ies
un ity
Ġwrit ing
erm an
j oin
tt ps
ĠC ong
Ġm aint
ĠG reen
Ġcon str
ro ad
Ġro t
ug ins
ĠCent ral
M on
Ġlarg er
f g
S L
Ġequ ation
ĠS ome
ĠA lex
Ġits elf
5 2
Ġe val
ĠB uild
' ],
Ġm ar
ĠR ad
ĠW ork
ĠM o
: (
yn ch
ĠO per
ĠB ook
Ġfollow ed
Ġth ink
ĠM er
ĉĉ Ċ
ĠAfr ica
mod al
Ġdet ails
ĠZ eal
Ġt ro
5 4
ĠGr and
ourn ament
à ¤
ĠEx ception
ict ed
; "
Ġcor rect
; ->
DI R
Ġvari able
Ġfin ished
ĠL eg
Ġ[ '
Ġn or
M ult
ĠAcadem y
ĠSc ott
th m
not e
M enu
Ġap i
c i
Int eger
Ġdist ance
ĠF orm
AR T
equ al
Ġal umni
C opy
M M
Ġs cope
ĠU s
Ġle ague
ĠP ublic
Ġun its
ank s
ra el
struct or
d elete
Oper ation
\ |
\ [
Ġtem plate
d at
ĠZeal and
d ots
Ġpr imary
ST R
ick et
orizont al
ĠM useum
Ġplay ing
ĠM at
D L
se cond
Hel per
V ari
Ġin j
k y
Ġmon ths
Ġre n
Ġpro of
ul ations
nab la
Ex p
Ġgener ated
198 7
Ġst ore
Ġch art
5 3
ĠC O
ict ure
Ġh ttps
c lear
p ing
fo o
b on
= {
ĠJ ew
l as
a uth
ĠSum mer
Ġs creen
Ġarg ument
( -
itt ing
Ġn atural
ĠItal ian
ĠY ear
th let
ĠWest ern
t hen
Ġbir th
Ġto ken
Ġs il
Ġschool s
H ost
Ġs ession
n ce
b order
Ġm ount
Ġm other
Ġdes igned
ĠE ar
T S
g lobal
Ġcon tr
================ ================
ynt ax
St ore
str y
U B
s end
ĠP at
Ex pression
M atch
ĠR un
oc als
ma ke
r s
k m
ĠT or
Im pl
ĠS al
eleg ate
Ġs eg
su ccess
Ġlarg est
Ġf ixed
ang er
ĠOlymp ics
Ġmiss ing
Ġup on
M ar
u ate
Nav Bar
Ġgu itar
Ġal t
add ress
Ġal most
Ġdisc over
F C
ar p
R ender
ĠD E
por ary
plic ations
Ġc red
p op
ĠLou is
v ector
/ \
Ġcamp aign
Pro t
P tr
K ind
Ġrepl aced
Ġp ers
s ort
typ es
Ġrel ative
Ġf av
oper ator
S igma
c at
Ġe ight
ĠC he
Ġcon vert
Ġmem ory
ir it
Ġim prov
& #
E Q
}} {
Ġen ough
Ġpro posed
Ġh ous
ĠS l
=" _
9 6
re land
Refer ence
in ternal
8 6
198 4
Ġd irection
198 6
ĠE nd
ĠMich ael
Ġk ind
irc raft
u it
Ġreg ard
ĠE rr
ĠChar les
ĠG old
C ore
Ġgo ing
ĠVir gin
ate gy
T ool
Ġs ports
Ġsub sequ
P op
Ġf ight
S H
Ġhas h
Ġl iving
ĠF ootball
E v
t ion
f ill
Or der
in ated
az ine
AL L
Ġex pression
anag ement
text it
w id
m ore
ĠChrist ian
osp ital
iss ions
Ġso ftware
8 7
en v
erv ices
ul ly
Ġmult i
Ġset ting
om a
Ġw ord
Ġr ule
pr ing
Ġprov ides
Ġun ique
s ystem
ĠTex as
at re
Result s
ĠV er
Ġf all
Param eters
ĠAs sembly
g u
Ġmax imum
D D
ĠWh ite
trans form
Ġfri end
k r
Ġus ually
Ġp air
ERR OR
Ġre serv
ĠOr der
Ġwe ight
\ %
and ed
doc s
Ġdirect ly
ĠDem ocr
Ġas k
Ġde al
c opy
ind ing
k ind
Ġl ittle
ĠG reat
198 5
P ass
Ġpol icy
a fter
( :
ĠCar ol
ĠFranc is
He ad
ĠCh inese
field s
Ġout side
ĠMin ister
Ġs witch
t ic
F O
W hen
k i
ĠK ore
Ġtr ansport
n y
Ġund efined
C R
$ (
ann er
it a
us ical
ĠD ay
Ġs ymbol
F L
il ies
Ġneed ed
ĠJ ust
eth ing
Ġal gorithm
Ġda ughter
y cl
S ign
Ã³ n
ĠT om
D own
Ġequ ival
Ġrelation ship
to String
ĠS ing
; \
N ames
Ġco ach
e an
Hand le
ri al
Ġf ocus
Ġt aking
og gle
ĠF ield
icro soft
he ast
ĠB G
m es
Ġcom e
ĠAcc ording
} -
ĠSup er
Ġepis ode
Ġpl aces
duc ation
ĠEX PECT
inter face
ĠC heck
Ġfor ces
Ġg ave
G ET
ĠE v
ĠP y
Ġthrough out
ĠWh ile
Ġd ig
& &
Ġinv olved
ex port
Ġconst it
c lick
c p
ĠB en
T e
F ig
c over
L eft
Ġst ations
ĠĠĠĠĠĠĠĠĠĠĠĠĠĠĠĠ ĠĠĠĠĠĠĠĠĠĠĠĠĠĠĠĠĠĠĠĠĠĠĠ
F il
1 000
equ als
led ge
is l
Ġs cript
Ġex act
ĠP ri
P R
ĠO ther
d irect
m as
en um
at in
Ġbook s
Ġd am
r ange
ĠT O
w idget
x is
w ell
ĠM em
ĠĠĠĠĠĠĠĠĠĠĠĠĠĠĠĠ ĠĠĠĠ
ĠM ap
I ter
m ode
id ents
b ound
Ġmed al
Ġbuild ings
pe ople
Ã §
Ġed itor
Ġpre c
f n
Ġdef inition
at ively
M D
Ġcon nect
Ġs ound
Ġin fo
Ġiss ue
P ost
Ġm anager
Ġ er
Ġg ot
D raw
Ġj av
le v
25 5
o om
Ġm akes
Ġm unicip
s ite
R ight
ĠC re
ĠC ON
Ġexper iment
ig g
Ġs end
195 0
6 3
Ġwe b
Ġj ud
Ð »
iz ations
Ġprevious ly
Ġmat ches
re ater
Ġcont ainer
\ !
TE D
ĠD ec
Ġt akes
Ġk illed
Ġj ournal
F alse
o pe
ĠF ore
Ġfact or
Par ser
pl ugin
Ġed ge
Ġe cho
ic ult
g an
P L
Ġcl uster
Ġn amespace
Ġcour se
et ime
r ics
c ur
s cri
_ ;
ex ception
Ġm oment
pecial ly
ĠFr ank
198 3
Ġt it
V ector
wid et
w rit
ĠD an
ĠO R
Ġdest roy
ĠSe ction
ick er
x x
-- -
ers hip
ĠJ ose
v as
med ia
Ġme chan
vent ion
In valid
Ġup per
ä ¸
ac cess
Ġbo ard
hand le
Tem plate
U se
N on
ĠCath olic
\ ]
Ġrel ig
ĠD el
eth er
as ic
foot er
In st
Ġy et
S k
ĠL u
d el
ĠH el
y e
in ct
Ġre str
R ect
6 2
Val ues
ify ing
S A
ĠReg ister
Ġab s
Ġ( '
4 00
Ġj oin
s ession
S l
Ġ& =
ov ers
3 00
Ġh ar
ĠO b
ĠN ote
mer cial
Ġlist ed
i ences
Ġad j
ĠFor ce
az z
Ġc ache
Ġnum bers
I con
OR T
Ġfem ale
set tings
N um
ĠS T
> ();
ov iet
Ġst re
Ġread ing
{ -
Ġcom ment
v m
is ation
Ap plication
Ġs m
L ong
oun try
Ġclass es
Ã ¨
Ġstud ies
ĠH istory
Ġim medi
imest amp
Ġpresent ed
{ }
id ae
web kit
h over
atas et
ĠM el
D F
## #
ĠP eter
( *
Ġth read
Ġcomp ar
Ġobserv ed
ist an
ĠSm ith
Ġext ension
ĠTr ue
198 2
widet ilde
T itle
ĠPar is
Ġs even
u an
Ġspe ed
equ iv
Ġoriginal ly
end ar
Ġart ists
=" /
ĠBG COLOR
Ġ} )
8 9
ge bra
m id
Ġcont ain
Ġeffect s
et te
ĠSec ond
S u
i pe
P erson
ing u
8 5
Ġallow s
ill ing
ĠTh at
clud e
Ġs ymmet
AT A
D evice
net ic
ol a
` .
Ġcoun tries
all ow
Ġpar se
ĠL ong
Ġex hib
ic ago
Ġact ual
oc key
al ax
or se
ĠP re
ĠM ass
W E
re q
D o
Ġd elete
6 1
am era
ĠF lor
R ev
D ep
S e
ant a
Ġst ated
ĠRich ard
h igh
ĠV ictor
Ġiss ues
c ustom
ig hest
Re ader
ĠSp anish
ex ports
ĠN ame
a iled
Ġitem s
ic ons
Ġro ute
ĠL ake
Not es
raz il
ĠGe org
Arg ument
os en
Ġrun s
-------------------------------- --------------------------------
Ġn ight
il ton
frame work
\ {
Ġmon th
ap se
A m
' .
Ġgiv es
est ed
s cal
Ġc ivil
Ġevent ually
ĠG od
) "
ern el
Ġbro ther
Ġco ordin
Ġpro te
Ġcomm it
ĠL os
V er
I R
ish op
ĠI reland
ĠSc ience
Ġhe ader
r um
Ġre ached
Y ou
Ġpl atform
Ġc op
Met adata
yl v
197 9
Ġs us
ĠCom mand
ut ch
pl ing
re al
Ġor d
Arg s
anc ial
erv e
Ġa void
Ġ ign
omet imes
Th at
Ġre ve
Ġfin ite
am i
ĠA ust
\ "
, -
Ġcompon ents
Ġinst it
is k
Ġst e
ig an
g raph
z eta
Ġun signed
ell a
ol f
Ġpol ice
pan el
ell s
by te
com ponent
Ġt err
R ed
A pi
ĠM ath
ĠR ob
C S
-- >
E l
Ġexist ing
in et
bo olean
Ġrepresent ed
ir l
n ormal
ĠB ill
A c
ĠF ilm
ĠR ock
Ġpl ant
ag ram
in sert
ĠD et
Class es
Ġn odes
anu fact
ĠIs rael
Ġlong er
ĠHen ry
ollow ing
av er
Ġre qu
Ġtemper ature
f ony
OR D
Ġin line
AN D
Ġal tern
: #
B ody
Ġeff ort
boot strap
198 1
ĠE q
Ġdiff icult
ym fony
rec ated
") ]
Ġt ax
stand ing
ĠCom mit
Mem bers
in ing
Ġs ort
Ġtrans ition
Ġth erefore
Ġbeh ind
Def inition
SE T
P si
Ġconc ern
Ġcour t
Ġs en
D om
Ġpro gress
Y ear
av ed
ee k
pr ime
Ġw ords
Ġd imension
p g
D ebug
__ (
M eta
for ce
al ed
W rap
rom e
Ġincre ase
ĠK ey
Ġg old
E M
Ġin side
p adding
re place
ans ion
ĠA ut
ann ed
Ġrepresent ation
ĠThe orem
depend ency
) =\
ab it
all ery
P arent
. âĢĿ
} +
Ġproble ms
ĠH ill
Ġs ources
P H
H as
l am
up le
Ġpolitic ian
Ġs aw
ele ction
' >
Ġerr ors
wh ite
Ġother wise
ol k
i h
j a
197 2
="../../ ../
ong s
Ġra ise
Ġat tr
ann ing
ĠH ow
ĠS ur
con nect
} ]
th at
atal og
Ġbroad cast
Ġapp lied
p df
Ä ģ
ĠP enn
Ġorig in
Ġth ought
arg ument
Ġsc ore
Ġrem ained
E arly
Ġstruct ures
Field s
el oc
Ġd atabase
ĠTe chn
in line
Ġsp in
X ml
Ġcont aining
Ġh it
Ġdom ain
ĠO ver
ĠC amp
ĠW omen
Ġst ars
Ġpl aced
j ection
As sert
is ions
G o
Ġn ative
U RE
Ġo s
ic ate
Ġfeature d
ĠI ll
im s
dis abled
OR M
Ð º
ill er
Ġad apt
n am
Ġstart ing
o res
om orph
P S
ad min
Ġd u
197 6
ip s
ĠD u
Ġquest ion
ĠD ate
Ġa ircraft
~~ ~~
AT H
Ġst aff
Ġsh ape
y es
Ġart ist
Ġvari ables
Ġbas is
Dec l
D oc
y per
} =\
m i
B S
Ġremov ed
Ġestablish ments
he lp
cl oud
ĠI S
ĠC ast
Ġim ages
S ince
C al
it ors
p ub
ĠĠĠĠĠĠĠĠĠĠĠĠĠĠĠĠ ĠĠ
C are
Ġaward ed
a ud
Ġg as
ynch ron
Ġj son
d ouble
ub y
ĠRes earch
Ġim m
col l
W riter
Ġbegin ning
a res
Ġl ibrary
197 8
clus ion
B l
Ġnot e
Ġ+ +
By tes
ĠI O
it able
p ers
Bo olean
call back
St ack
at o
Ġto wards
set s
Ġapp ly
T V
f ree
$ )
ĠComm ission
Ä ĩ
st ar
ac ement
Ġsign al
%% %%
Ġby te
ĠSw ed
Ġdistrib uted
ĠVirgin ia
7 8
Ġp or
Ġfour th
ue st
re me
ud d
h older
Ġsmall er
` ,
Ġes pecially
En abled
D i
center ing
) }\
Ġpart ial
ĠF inal
ĠS un
Ġinv oke
ol ume
Ġset tings
reg ister
Ġdescri be
197 4
St orage
Ġm sg
sh ot
V ar
pro x
or a
aut o
ĠSc ot
Ġmanag ement
O K
Ġs ex
197 5
Ġper cent
li e
EX T
rec ord
h s
Ġocc up
Ġm ention
Ġcou ple
it z
ĠF in
ĠA v
Ġh olds
Ġstud ied
ur t
> .
Ġdem on
id ers
ut y
197 7
aw s
ĠP an
Ġdirect ory
S he
Ġan g
Ġs ure
Ġby tes
l ers
Ġperson al
ĠL O
tab ular
k o
Ġfinal ly
S ION
W idget
Ġr ules
evelop ment
Ġcomp ared
ĠP ost
ert ific
Ġch all
ad y
G E
. ~
R oot
al i
D elete
ed ge
Ch anged
Ġle arn
ĠJ SON
Ġsing er
ixt ure
k er
Ġcon sum
Ġan aly
Ġcompet ition
vir tual
Ġw ait
ĠK n
ĠE vent
Ġneed s
pl ugins
block List
alle l
ĠL ine
Ġy ield
ge les
ind ent
ĠR E
g g
us ion
Ġl ock
Ġg un
ĠChampionship s
O ther
n ed
ĠMex ico
ĠT wo
Ġbehav ior
G B
; <
v ed
f il
ĠIt aly
M ark
I X
if est
Ġvol ume
196 8
Ġbound ary
Ġcap ital
} "
c up
) ^{
ĠCh icago
S w
ĠM us
Ġbecom es
D ialog
Ġin du
Ġc ause
By te
Ġcon cept
Ġv eh
y ing
ĠD en
ĠSer ies
ĠK e
Ġpro file
ic ated
ol ar
Ġcol lege
ĠAr ts
Pol icy
D S
c md
Ġm iddle
ĠIt s
ĠAn geles
Ġindu stry
Ġwho le
Ġdoes n
c ategory
y an
197 3
Des criptor
Ġsc ored
ul ate
ro t
Ġpack age
P A
b ot
Ġle ader
FA ULT
s che
F T
Ġp ick
ĠT em
Ġcrit ic
Ġ' /
SS ERT
ond s
or ation
p resent
el t
ug by
Ġt ournament
st ore
Ġcol lect
Ġfl ag
Ġfor ms
ind er
ĠâĢ ĺ
Ġphys ical
' ))
lem ma
C re
Ġf ace
ĠL and
Ġtrans action
; /
E ach
N ote
Ġgr ant
D U
sq l
ĠPro f
ĠN avy
Ġte ach
math sf
ĠPar liament
i en
f ull
Ġbut ton
J ob
ĠS aint
Ġgener ally
Ġsec urity
rom ise
Dis play
Eng lish
Ġd ro
ĠCommit tee
j i
agn ost
7 2
ter m
) /
Ġh ighest
Ġf ood
form s
at tribute
Ġl ove
C lick
8 2
il s
Ġdec ided
Ġb all
197 1
Ġ< =
Ġb asketball
m itted
en ing
Ar t
âĢ ľ
ĠHT ML
ap plication
Ġc ulture
Ġs ch
R ule
ig er
Ġn et
Ġqu ick
ĠF e
ret ary
ic i
194 0
ĠCong ress
Ġp urch
Ġ" /
ĠF estival
Ġpe ak
Ġa uth
Ġnecess ary
pre t
st ep
ĠA L
Ġcoun ter
p ool
li ance
Ġcon nected
ie ce
m aterial
R equ
Ġassum e
TE ST
ang uage
Ġin cor
ĠM ethod
Ġorgan ization
ut ing
Ġlim ited
Ġear lier
Test s
Ġeffect ive
ĠG l
{ (
ado op
Ġfin ish
vari ant
b i
M ock
Pack age
8 4
ĠV alue
194 5
ĠB ig
Ġfam ilies
ĠK h
Ġsc ient
Ġmov ement
ĠĠĠĠĠĠ Ċ
Ġrem aining
c ar
Ġ ess
Ġrem ains
im a
ĠG overnment
g a
Ġb ank
Ext ension
ĠErr or
c pp
M an
Ġh ot
ĠE mp
Ġp ri
w ar
196 9
n ames
Ġe lem
Ġsc en
ĠRuss ia
ign ment
proto buf
Ġdec ision
Ġlik ely
ang o
Å į
in itial
Ġd ed
ĠE r
ĠPro ject
ov a
Ġapprox imately
t oggle
M y
add r
Ġinv olv
S um
el ves
lo od
ĠFlor ida
th read
Ġso on
ev e
Ġwrit ers
annot ation
er ies
Ġ ),
Ġsom ething
Ġser ial
item s
ian a
f ocus
ĠSt ar
es h
Ġincre asing
Ġex tra
Ġfor ward
Ġact ually
Ġstr ict
N et
se m
mo oth
Ġ$ {
ian o
S end
}_ \
un ched
ĠT able
Ġcont act
AG E
org an
du le
Ġs ens
ru le
ed s
cd ots
Ġmin or
od ec
Ġm oney
Ġa ud
Ġl i
pp ed
Ġus ers
rel ated
ĠĠĠĠĠĠĠĠĠĠĠĠĠĠĠĠ ĠĠĠĠĠĠĠĠĠ
ous ly
ĠTh us
anc y
Ġun known
Ġact ress
ent al
w a
sh ape
el li
Ġpract ice
Ġact or
ĠO ld
ple ments
ĠM ax
9 4
m ock
Ġacc ur
ĠM il
Ġe mer
Ġelect ron
key s
os h
st at
Ġbr anch
Ġappe ars
Ġv ocals
P RE
se ct
os ing
}) \
Ġgr and
Ġlevel s
ist ers
Ġnew s
Ġre pe
ĠS oviet
Ġb ad
Ġet c
Ġassert Equals
op ed
Ġle arning
on ic
Ġext ended
ou b
Ġm ur
Ġ( *
ĠN OT
ĠK ar
ĠNew s
Ġon line
ĠF re
7 6
ing er
ul er
ĠW ales
L ock
il ation
ent ity
ail y
Ġdemon str
ĠS il
In itial
Ġp ark
T ab
Ob j
) -
Ġbro ught
}^ \
ele br
196 7
Ġdiv ision
Ġrem ain
ic ol
Ġf if
CT ION
reg ion
d imension
Ġsp ent
ip eline
sp ring
Ġinvest ig
Ġb ur
sh ort
b ul
h old
J ECT
D C
Acc ount
R et
Ñ ĥ
Ġ â
co in
Ġres ources
C ustom
Ġplay s
ĠH and
at i
in em
ĠF oundation
v a
re lation
ĉĉĉ Ċ
at ur
wide hat
Ġtr avel
A ME
Ġimplement ation
ĠP lay
On ly
19 30
ol ver
ĠR el
Ġjav ax
ple x
r b
ĠM ur
S cope
Sec urity
ad s
P T
ĠIn c
ĠG i
gr id
Ġex plicit
Ġl ack
com ment
ir ing
q quad
Ġtest s
Ġprob ability
ĠEng ine
Ġb ottom
ĠSt ep
pass word
ĠT our
Ġpre vent
Ġ{ };
line ar
h ouse
Time out
in v
ann els
ir a
() {
Ġro om
ix el
co q
ĠL ife
ylv ania
ĠAn n
Ġl atter
Ġl ayer
con nection
Ġw ide
ĠCarol ina
her it
Ġde ep
TE X
######## ########
Ġw rap
Sh ow
D ist
t ex
ĠProv ince
196 4
Act ive
Ġh ours
Ġint eger
Back ground
ly ph
Ġm anufact
KE Y
ĠA wards
ĠAt l
h ar
e es
Ġad opt
} |
res ents
ĠC ap
Ġtrad itional
Ġ Î
s pe
Ġcom mercial
app ed
uss ian
M ember
ig in
atri ate
N e
ĠB razil
c ut
9 3
ĠB ur
Ġsc ience
Ġin str
ĠU RL
Ġun ion
Ġf un
ap id
' re
Ġ\ {
ĠP et
urre nc
In it
em ail
HT ML
ma z
F inal
Ġch arg
Care er
or al
Ch annel
Ġh tml
bed d
ĠO h
cre te
ad ium
R I
Ġart icle
P lay
Med ia
inst all
con trib
"> &
Que ue
Ġca used
Ġrecord s
r or
ĠU ser
ĠM odel
re es
9 2
ĠFig ure
Ġs ays
S U
m argin
v ey
ĠU se
ent er
Ġp en
^ +
Ġresult ing
Ġover all
J SON
ĠSh ow
at ically
Con st
Ġproduc er
Ġnot ed
Ġm atter
l ines
sol ute
Ġincre ased
CH E
t ip
ĠC D
ĠP ac
S ymbol
ĠU nder
( !
E C
ĠM a
if ies
Ġs ometimes
ay ed
Ġopt im
Ġn uc
Ġre ally
n umer
Ġsim ply
Ġinstance of
Ġexper ience
Ġdiffer ence
Ġun c
Ġc ref
@ "
} :
st op
f ly
pro duct
Ġreg ions
O M
}\ ,
ĠMart in
A tt
J ohn
M sg
u ilt
Ġmin utes
Ġst ack
. *
h adoop
ĠP ub
Ġpub lish
Ø §
key word
Ġc he
print f
un signed
ĠG en
ĠBo ard
Ġtr ain
Ġtrans l
Run time
ĠHistor ic
Ġr iver
Ġed ition
ĠT op
eloc ity
D uring
Ġc ategory
s ample
Ġc ore
Ġm aster
M e
Ġcon ver
ĠS ir
Ġcons ists
Ġev idence
Å ¡
m aster
Ġb attle
f amily
incip al
ĠAl though
Ġimp act
Ġw alk
Ġchar ge
en ge
o z
Ġopen ing
Ġhand ler
Ġth ings
k g
Ġto day
Ġmean ing
Ġsh ot
Ġr ailway
or ter
& =
Ġpro per
196 5
ag ger
p are
Ġend ed
ĠIr ish
Ġwin ning
Ev ents
yd ro
Ġc ard
Ġg a
Ġd ark
Ġd b
Ġse asons
9 1
Ġbl ue
ĠM os
ock er
Ġch ain
om ial
P attern
Fil ms
Ġg alax
Ġcrit ical
_ ->
m ove
M ain
ĠNor thern
art s
196 6
Ġsh ared
ĠM ost
Ġw oman
FI LE
Ġk ing
Ġent ered
n one
Ġch ampionship
hent ication
u ages
w an
Act ivity
19 20
ĠO l
W S
Ġact ivity
Ġco ast
Ġstud io
ĠEmp ire
Ġf it
ac c
ĠD ev
ĠL iber
Ġs plit
ĠF alse
[ :
ĠTe am
wh ile
{ {\
ĠB rown
Ġsepar ate
w riter
Ġquant um
Ġatt ended
Ġtr ade
Ġn g
Ġproduct s
nap shot
Ġequ ip
( {\
ik i
Ġc ensus
assert Equals
ĠO p
ĠHe alth
s ylvania
Ġb re
y g
ty ped
Ġpo et
Ġant i
Ġill ustr
Ġsh are
p ri
com ponents
sk i
ĠCol umb
put e
d im
N ow
ĠF ort
Ġwh om
ress ion
k in
ĠT imes
str a
f aces
P erm
EN D
ĠT ri
Str uct
im ents
sh all
ĠAr ab
oc ated
ĠL in
_ ,
anc el
Ġide a
Ġnor thern
Ġb tn
7 4
cont in
ĠH aw
C RE
um s
ĠJose ph
ĠL ove
Ġb ig
Ġpr ison
ir med
Ġs outhern
ĠW ood
ou ri
A F
Window s
IT Y
Ġwe ak
in y
ect ors
Ġkey s
i ro
Ġgo als
u er
Ġf unc
el a
âĢ ¦
s pect
Ġw allet
() ).
b es
N etwork
s cription
ific ations
Ã £
Ġsur round
Ġstud ent
Ġs s
Ġac adem
tx t
ĠCol or
Ġgener ate
e ch
ar ia
Ġequival ent
ang ular
ĠII I
8 1
th rows
F loat
um in
sc roll
Ġcon sole
Ġ% }
ig a
d x
ri z
ĠYou ng
S o
B efore
)) )
ĠLem ma
ĠAl so
h ol
Ġm usical
16 0
ec ause
Ġw ood
AC E
Ġ$ (\
umer ate
ĠH ot
", "
8 3
=" @
ans as
st ats
Ġis land
Ġf ish
act or
Ġm ock
ick s
text width
ĠE li
os ph
ra ction
Ġ[ ];
Ġf ast
Ġs low
Ð° Ð
Ġneg ative
Ġrec over
Ġstre ng
C I
ad or
Gr id
Ġw id
result s
it an
Ġrel ations
Ġrece ive
Ġleg al
Con f
}^{ (
m iss
ut f
ĠC am
ĠC all
Ġsh ift
Ġs ave
N E
av al
ĠDef ault
ĠB ank
Ġc it
stit ution
ĠR h
Ġdeterm ined
and a
Ġm ut
//////////////// ////////////////
Ġph il
] ]
drop down
Ġfig ure
Ġc hem
L S
Log ger
Ġt alk
An y
ĠL i
Ġac quire
B it
im pl
rad ius
Ġla unched
ĠE ducation
ĠRe ad
ĠC ross
Ġc lean
L java
as ion
Sup port
Trans action
Ġown er
le ep
Ġnew sp
Ġre b
fl ags
Ġm ix
Ġdefe ated
R ad
ev ents
d ict
P ool
ĠL ibrary
Ġrequ ires
Ġappear ance
Ġpr im
ap prox
P anel
al o
ĠP eople
ĠI d
}\ \
Ġown ed
resh old
Lo ader
==== ==
point s
Ġpres ence
R est
. __
Ġt im
ĠB attle
Item s
=" "
Ġcom es
25 6
c ape
ĠN etwork
ĠT ext
ĠG ar
SI ZE
j query
Ġch oice
Ġvari ety
ĠG reek
7 3
Ġsum mer
P P
not ation
Ġd ir
194 4
AD D
ynam ic
as y
Ġinter view
un ior
Ġdec re
Ġstat ement
Ġparticular ly
T C
Ġbas ic
Ġlo op
ĠB ul
ven ue
ed it
Ġequ ations
ĠPenn sylvania
c f
ms elves
L a
Ġn ature
Ġd im
ver y
Ġ Å
assert Equal
G S
Ġclass ical
Ġdes c
ĠS ocial
r ich
Ġben ef
Ġsing les
ĠC opy
Ġpro duce
pro perties
en ant
ook s
7 9
196 2
Ġactiv ities
P AR
Ġcall s
it o
el er
f ound
Ġder ived
sup er
ĠVal ley
g it
ĠCh ief
Ġm ixed
U ID
() ));
ĠA N
O wn
ĠSp ain
ot ic
Select or
ens es
al og
* )
web pack
cont roller
and ra
Ġf ully
Ġcandid ate
s ur
}} (
is c
Ġfin ancial
Ġfe el
m ond
196 3
ĠGo ogle
Ġst orage
By Id
Ġf oot
M C
Ġcent re
Ġold er
Ġimmedi ately
se lected
VER SION
A uth
VAL UE
er c
Ġprogram s
F ound
type of
Ġneigh bor
Ġinitial ly
Ġthe mselves
Ġp anel
ĠJ o
Ġ ensure
)) );
Ġtechn ology
ĠP oint
) ).
b al
-> _
Fl ags
igr ation
Ġa ctions
mod ules
Ġqu ality
B R
Ġs ense
MA X
In v
b ing
on ym
h av
and ard
Ġs n
ap ers
Ġprov e
Ġtr ansp
s ave
Ġcoll abor
er ial
Ġmajor ity
j ar
ĠJ im
P ublic
ploy ment
O O
ro ke
ĠEx ec
Ġex ternal
S R
A v
Det ails
LO G
sh ift
us band
Direct ory
is hes
ĠĠĠĠĠĠĠĠĠĠĠĠĠĠĠĠ ĠĠĠĠĠĠĠĠ
p ay
Ġm ission
ne ctions
as er
Ġr atio
Ġ icon
S D
m ann
r ine
ĠT re
r ong
ĠH on
.. ..
or ial
F urther
ĠV ersion
Ġch ief
bit r
ĠF ri
ĠT im
ĠCol lection
Ġc elebr
Ġre duced
as ure
T ABLE
" `
Ġdeterm ine
ĠG ame
C ar
ĠT ask
ut er
ĠN ow
AR Y
s chema
pro file
sec urity
ĠPro gram
sc r
Ġvis it
ĠL ee
Ġmag azine
ĠB re
Ġident ity
Ġh um
cit et
Ġle ave
os itory
d eg
Not Null
) ),
are t
Ġp y
= (
] :
Ä ±
Ed itor
Ġgrow th
iver se
ĠM P
Ġhe avy
i ography
D atabase
pr imary
ĠN O
b ury
Ġv an
ost on
Ġmost ly
Ġbuild er
Ġ{ '
ĠU kr
ĠV is
Ġcomm ission
D em
Ġent ity
Ġhe l
ar ation
7 1
os oph
Ġth reat
ĠR o
Re ce
Pro p
ag er
Ġmed ical
15 0
Ġbr ing
orn er
Ã£ o
ĠW al
ass ets
Ġat tributes
ĠDirect or
tern et
ĠS ol
import ant
Ġdr ama
W orld
ch annel
ul s
Ġag ent
ĠO ption
w er
Ġg reater
Ġin n
Ġb al
Ġconstruct ed
se ud
Ġmin imum
C ast
e ach
Gener ic
ĠI P
s creen
ĠRad io
Ġt ouch
Ed it
ib li
Ġin sp
Select ed
C lose
sy ch
struct ure
ĠV iew
P ATH
Ġr an
ĠP ak
ceed ed
ole c
us et
ent h
Ġpre m
S che
x space
ĠI l
Ġ util
Ġin sert
ĠIn st
ak a
Des c
Ġf n
Ġs quare
. '
L P
ino is
ot ing
ĠS u
ĠW indow
Ġf le
i Äĩ
S ymfony
St ep
ib ly
Ġsche me
ĠĠĠĠĠĠĠĠĠĠĠĠĠĠĠĠĠĠĠĠĠĠĠĠĠĠĠĠĠĠĠĠ ĠĠĠĠĠĠĠĠĠĠĠ
Ex pr
] $
++ ;
Ġfe ed
Ġcomput er
des c
Ġre comm
RO M
Ġch osen
Ġl ived
ĠC amb
are a
ĠJ ud
196 1
Ġrep resents
Ġse a
Ġuse ful
b ad
Ġar my
operator name
air man
D el
ind s
con s
ĠC ivil
Ġcontin uous
ĠIr an
194 2
Ad apter
Iter ator
} </
} '
ĠBrit ain
er g
Ġj Query
ri p
dimension al
ro om
ĠB ob
res et
D A
enn is
Ġfore ign
arri age
ĠG al
ĠM iddle
ĠN ode
m anager
ĠO f
Ġco eff
Ġden ote
Ġoffic er
Ġar m
par ser
M ENT
ad r
Ġb rief
ĠĠĠĠĠĠĠĠĠĠĠĠĠĠĠĠ ĠĠĠĠĠĠ
c b
ĠĠĠ Ċ
ay a
Ġmag netic
ens ed
Ġd raft
por ation
def ined
Ġprob ably
Mem ory
st one
ĠH a
ĠG a
Ġt ab
D on
ts d
En um
}} {\
un ct
e z
r ick
Ġfail ure
Ġecon omic
f ect
'] )
Ġpro ced
Ġsc ene
ac count
Ġfrequ ency
Ġne ut
pt on
Ġgen us
ard en
Ġ io
ertific ate
ĠS outhern
Ġsol utions
dom ain
app ly
ĠJ ac
t mp
Ġc ounty
V ideo
ĠM ah
M atrix
Ġev olution
am ing
Pro xy
Ġcon serv
ĠL ord
Ġbecom ing
ir ls
typed ef
ĠS y
P i
S ection
v ant
Ġdis e
ĠScot land
ĠS ar
Ġ" "
ĠIn itial
il a
Ġest imated
= -
pos ite
} +\
Ġl ot
urrenc y
cal led
ĠP op
ĠF unction
Ã ±
hand ler
Ġmeet ing
195 6
ĠTO DO
Pr int
l imit
[ $
Ġparent s
burg h
In ternal
ill is
k ins
iqu es
Ġre ach
ĠA tt
f it
gr ade
ĠJer sey
log ger
Ġal gebra
eng ine
Ġproject s
Ġde ad
ĠPac ific
C ond
ust rial
| ^
Ġra ised
195 8
Ġsu c
N G
ĠMich igan
Con str
ĠJ an
NavBar Cell
Ġr ail
Ġn orm
ne q
e cho
W A
195 9
ĠN umber
Ġcell s
Ġsen ior
Ġcap acity
Ġrefer red
Pl ugin
et ween
Ñ ı
ĠO x
Ġann ual
Ġm icro
UT F
t ely
ĠOh io
ĠC ode
G u
Ġ$ .
Ġvis ible
at ible
Ġg reen
194 3
r idge
194 8
ect s
ĠHam ilton
Ġexp ansion
in f
Ġfor ced
n etwork
Ġqu arter
Trans form
ĠOff ice
ĠJ ournal
Element s
l g
Ġimp lies
ĠEd ward
Ġs af
à ¸
Ġnumer ous
u ing
ach uset
Ġun iform
achuset ts
Ġ& \
Ġinflu ence
Ġelect ric
ĠPol and
L IC
ĠM r
at ers
ĠV AL
Ġin valid
ĠCon fig
Ġc arried
ed om
Ġinst alled
12 3
N ULL
Ġass igned
Ġv s
Ġvers ions
Sc roll
Ġsup p
Ġ[ [
ĠP rem
ĠAs ia
The n
ĠCh ild
Ġfootball er
ĠCar l
Ġtrack s
Ġin ner
Å Ĥ
Ġh usband
=" ">
M B
Ġrespons ible
Ġdr iver
col lection
pos itory
ĠMed ia
ĠRep resent
aw a
Prot ocol
Ġv elocity
At tributes
av ity
To String
ateg ories
Ġdep artment
Ġagre ement
Ġpress ure
met adata
Ġmur der
S QL
j e
h idden
Ġb ass
Ġl ay
k l
ab ilities
Ġen abled
wit ter
cent r
Ġenc oding
f ort
Ġ[ ],
Ġweek s
param eters
193 9
Ġ eth
config uration
ĠF red
194 1
os a
is ms
fr ont
t otal
Ġmov ie
Ġf arm
m ir
Ġre con
tool s
Ġm achine
] \
Ġship s
h orizontal
_ (
ĠEar th
ï ¼
Ġt rib
f ri
Ġim plements
ĠDemocr atic
L oc
Pro file
child ren
ĠTh erefore
Ġrecent ly
Ġcol on
ĠM en
} -\
Ġliter ature
com ing
Ġoption al
S equ
k w
J ava
ict ions
Ġknow ledge
ell ig
igh ter
ĠT ra
S cale
ĠR am
Ġcre ation
S ocket
ele ase
leg al
Ġb ul
m utable
ĠĠĠĠĠĠĠĠĠĠĠĠĠĠĠĠ ĠĠĠĠĠĠĠĠĠĠĠĠĠ
em ic
gy pt
ĠQue en
F unc
ON E
Ġexample s
ĠG ood
Ġre ject
X ML
195 7
Ġform ation
H igh
ĠC ro
Ġh yp
ĠK ent
D est
iter ator
Ġpos itions
Ġh idden
ĠCon ference
Ġelection s
Ġappro pri
) ">
Ġent er
ĠH ere
Ġint eg
Ġ( _
S ports
ĠEn ter
G raph
ult y
Ġex port
ĠAs ian
amp ions
I B
Ġse at
Ġa wait
Ġpo inter
ĠM i
) +
S pan
j ob
ĠT ro
ĠCent re
Ġtreat ment
194 6
ĠP aram
ad el
b rowser
Ġas ync
E O
Com mon
D ouble
ential s
Ġs light
r id
che n
Ġto ld
1 20
Key s
Ġ ip
Ġlet ter
ĠB ow
ĠJ ones
Ġseg ment
~ $
ent y
cont ains
Ġan sw
CHE CK
ĠBl ue
ĠL o
Ġcre ating
Ġatt ention
ed itor
N ational
ĠIll inois
Ġap plications
Ġb us
Ġhigh ly
ĠC ard
Ġs quad
Ġsh oot
Ġex tract
R oute
B rit
Ġconf lic
ĠM ain
ĠE lect
ĠM ajor
the orem
Ġagre ed
am m
Ġwh y
test s
Ġmanag ed
ç ļ
it ation
h ome
) }{
ist ent
Ġvict ory
Ġturn ed
Ġpo or
Ġblock s
Ġ- \
em porary
Ġm otion
Ġw aves
i ate
ion e
S ync
by tes
en umerate
ĠF I
BU G
c y
Ġnear ly
B P
Ġoper ated
Eng ine
Ar ch
s witch
ĠS pecial
get Name
ident ifier
Ġrelig ious
Ġmov ing
ĠD utch
eng er
Ġab solute
Ġfact ory
Ġserv e
m ut
Ġcomp osed
ĠJew ish
Ġask ed
Ġrecord ing
Ġmain ly
ak ers
B rowser
p a
Ġv ote
Ġthe me
File s
çļ Ħ
R AN
d ates
Par se
Ġident ified
Aut o
Ġpolitic ians
( __
tr iev
ĠU N
Ġwest ern
ell er
ĠIO Exception
195 5
Ġest im
Su ccess
Ġpl ot
li br
ĠM ov
Ġcar ry
par a
ĠP ass
Ġf ix
Ġar rest
Ġcommun ities
Ä į
w ild
ĠS pe
ĠR ailway
{ $
ĠF C
ex ternal
ĠFrancis co
Ġframe work
N N
Ġre q
Ġ" <
ĠB as
D uration
Ġhe art
ĠGeorg ia
Ġtyp ically
ĠT HE
ĠCom mon
ĠE ach
Stat ement
Ġdist inct
Rem ove
A X
ĠL uc
Ġle aving
sk y
Ġclaim ed
Ġfore st
ev al
pro ve
L ayer
ĠJohn son
ĠMass achusetts
Ġserv ing
il ly
Ġ ice
195 2
Ġwant ed
Ġhistor ical
Ġf iction
ĠPort ug
z ero
Ġact ors
Po inter
Ġre place
Ġ= ========
S eg
ph one
Ġup dated
Ġf ederal
ĠK ong
ĠL android
Ġe mail
Ġr u
Ġcomb ined
hem at
Ġn omin
S ingle
ĠA R
) }$
tr igger
ĠThe atre
ĠL ocal
Ġab ility
Ġp il
Ġan im
C or
Ġbel ong
M apping
ĠEx t
ch or
pro ps
M at
Ġmention ed
$ /
yn omial
: \
H R
194 7
Ġno thing
ĠHe ad
$ }
Ġlist ing
12 8
Ġn ine
Ġtype of
ĠAl b
b lack
Ġj oint
Ġb inary
ph y
Ġsecond s
por ated
ell o
Ġarchitect ure
ĠC ons
S ER
Ġmet ric
Ġun iversity
urb an
Ġoccur red
ĠThe ir
Ġtest ing
ĠD evelopment
Un ited
un a
Ġxml ns
refer red
M ore
Ġconstruct or
pon s
ĠPhil ipp
Fe ature
ĠE lement
du led
ĠJ ava
cl aim
Ġvert ex
F ull
Ġf oc
G en
sequ ence
F ail
Ġcover ed
n eg
all oc
r ase
Vari able
Ġprot ocol
Ġw ave
ĠCo ast
S ervices
ĠO ur
Ġindividual s
Ġp ool
l an
S Y
ow ers
Ġst ra
ograph ic
ĠUp date
prot ected
Ġd ebug
ont o
f d
Ġspect rum
Ġs ites
n i
Ġret ired
ĠĠĠĠĠĠĠĠĠĠĠĠĠĠĠĠĠĠĠĠĠĠĠĠĠĠĠĠĠĠĠĠ ĠĠĠĠĠĠĠĠĠĠĠĠĠĠĠĠĠĠĠĠĠĠĠĠĠĠĠĠĠĠĠĠ
cre d
wrap per
p ower
O pt
f ail
Ġth r
Ġm essages
y er
Ġon es
Ġre li
id x
cri be
Ġbr idge
clud ed
ĠB oston
Ġp p
RE AD
Ġop port
ab eth
st ein
ul pt
Ġsett lement
ĠB ern
Ġs ym
I MP
ĠG overnor
j ango
Ġl ib
r ical
Ġm ask
Ġa xis
h space
Ġsuff icient
Rep ository
ĠÂ £
Ġprof essor
Ã ¸
ĠS O
FF FF
Ġin come
Ġw atch
n orm
Ġ ul
t or
Ġcomple tely
Ġp ain
IP T
t ical
as hed
Ġorder ed
\ ,\
Ex ample
w x
Ġcom edy
Ġder iv
riter ia
t im
! [
P ORT
F ailed
ĠScott ish
ĠS oc
istr ation
erv ed
Ġdep th
Acc ording
Ġpur pose
Ġc ouncil
Ġsize of
Ġun ivers
Ġprom in
ch er
u v
ex ists
fil ename
', '
T erm
ST AT
T A
ĠK r
Pro duct
195 4
h ide
Ġvert ical
Ġeas ily
Ġar bitr
ĠWilliam s
ay lor
ĠG ets
Ġest imate
Ġclub s
ce an
i ated
Ġdes pite
Ġv on
Ġb att
C F
V ID
F IG
ĠPr ince
Ġs ister
Ġsubsequ ently
Ġsp read
m atrix
pos es
Ġpl ane
ĠB ang
Ġex am
ĠC reek
Ġc at
Ġtr aff
head ers
Gener al
, âĢĿ
ĠĠĠĠĠĠĠĠĠĠĠĠĠĠĠĠ ĠĠĠĠĠĠĠĠĠĠ
p refix
Ġacquire d
195 3
Ġsh all
hen s
def inition
^ -
= >
item ize
ĠOn ly
no indent
Ġfav or
y o
ĠL ab
ul f
s ymbol
ĠAir port
C ap
at uring
Ġd rop
art ers
Ġgener ation
ĠC a
AL SE
Ġm is
Ġre ct
Ġfri ends
Ġcom ing
an try
Ġhelp ed
ĠEast ern
min us
Ġcho ose
S pace
Ġst ories
194 9
Ġdes cent
Ġsay ing
P ay
H ER
ĠB or
Ġoper ators
build er
ac le
n il
l oc
Ġtr igger
Ġdet ail
ĠH ome
Ġc tx
Ġsem i
ĠReg ion
if fer
ĠSe a
pl atform
at ial
em on
Ġs mooth
Brit ish
s pecial
ĉĉĉĉ ĉĉĉĉĉ
id ay
ro le
Ġset up
Wrap per
g ence
Ġsample s
sum er
At tr
Ġcon centr
Ġe igen
Ident ifier
TEX T
Ġsit uation
ĠL atin
Ġfam ous
ĠOff icial
her ited
Ġthe orem
Ab stract
Ġsurv ey
ĠSt an
rib ution
Ġocc urs
ĠB ol
Ġs al
Ġv oice
ĠP ath
Ġpr iv
195 1
Ġc ities
Vert ex
Ġoffic ers
Collection s
tab s
und red
Ġse ek
s en
Ġin fin
ĠM id
it age
sc ape
at tributes
ing ham
ĠColumb ia
exec ute
Char acter
Ġlead s
Ġoffer ed
ĠL ie
Ġpass word
Ġpl ans
ĠB oth
Ġquick ly
m ask
o les
and on
n ic
ĠPl aces
h y
ĠJ r
Ġcomput e
Ġ que
Ġab stract
ĠH ash
Ġmod ified
d ialog
Gener ator
Ġ" -
Ġrequest s
Ġmap s
Const ants
' $
ars ed
ĠW ay
Tr ansport
a is
Reg ister
ax is
ar ant
ke e
M usic
Ġun less
d p
press ed
Ġgr id
Ġcit iz
Ġgo es
-------- ----
Ġbeliev ed
\ '
Ġrad ius
I E
Ġorgan izations
el d
ĠOx ford
se x
Ġapp end
Ġlang uages
iz able
Ġgiv ing
Ġsus p
Ġref lect
P y
b ro
ĠC apt
Ġperson nel
Ġ queue
Ġh ockey
or iginal
DU LE
Ã¡ n
tr m
ĠH ung
ĠInd ex
; }
re v
if def
em y
Ġm useum
Ġre duce
Reg ion
j ust
s ince
Ġmunicip ality
Ġl ives
ex tern
Ġcolumn s
prov ider
$ _
M ay
Ġprocess es
Ġpart ies
F N
Ġregion al
Ġvis ual
B E
Ġdiscover ed
on ia
Ġ\ ;
oper ation
ĠSt ation
> :
eder ation
Ġt ensor
nav List
lo op
ĠM u
ur ies
det ails
Ġdo ing
Ġs ociety
R ole
t ags
ĠM any
Ġla unch
ang ing
nd ef
ĠPol ish
ĠIs lam
ac ro
ĠIn f
ĠW hat
Ġrepresent ing
v space
Tr ace
r f
Ġ" ,
" |
Ass ociation
ic ine
out heast
33 33
s he
Ġse em
z z
Ġfl ags
ĠE gypt
orn ing
Ġstra ight
ĠBro ad
Ġcont ained
Ġt or
Ġsp aces
ov ed
Ġinter action
ĠSt e
ĠR ay
Ġsec ret
Ġl ayout
pre v
m aven
O UT
tex trm
s ingle
h om
IN D
ic ed
sv g
ĠI E
Ġdis k
ĠSen ate
ĠA ction
Ġaccept ed
Ġpor tr
Ġl ic
ĠN ight
S ample
Ġeas y
Ag ent
Ġr ing
j unit
con n
Ġ ui
Ġt un
ug s
ra wn
Ġconc ert
Ġget s
IT E
Ġex change
in ity
ĠA ND
Ġl ies
Ð ´
G lobal
te en
od ay
N odes
ĠP ack
ier arch
Ġint ended
Ġdepend s
Ġstat istics
il ing
ĠSec retary
od s
Ġpar ser
od d
Ġp refix
Ġqu ite
ĠT w
S election
}} _
o ir
Ġcontr ast
che ster
193 6
. ");
Ġsuccessful ly
ĠJ ean
ĠS and
ĠW ild
ĠS und
Ġsign ature
eta iled
ĠE p
Ġexp anded
ĠW is
th ur
G ame
ĠRe quest
Ġcomp are
Ġen able
Ġmark ed
det ail
ĠM ot
lo ok
Ġres olution
g reen
ĠL ittle
}} ,
ĠL ater
Ġg overn
if ically
j pg
hes is
Ġas pect
ze ch
ĠB ack
ĠH ong
ab y
Ġear ned
en able
ur er
b as
=" ${
Ġr isk
P refix
r ate
">< !--
an z
ĠF ree
ser ial
Ġstr ategy
D epend
ĠE qu
Ġp ages
Sec ond
Ġcur ve
Ġc ru
Ġmet al
ĠIs lands
ast e
sw arm
Ġp ush
Pro ps
) ->
Ġcompet ed
() </
gener ated
Ġform ula
Ġnav igation
ĠW all
z one
å ı
Ġcompar ison
ĠCor ps
C ategory
att ice
ĠVictor ia
Sim ple
Ġmag n
ĠF urther
ĠInt eger
ĠR et
19 18
aj ax
rop y
Ġ= ======
Ġshow ed
maz on
B ound
Ġan gle
ĠP ower
if iers
Ġhe nce
w all
Ġprov iding
Ġwin ner
\ }$
medi ate
Ġstr ings
pro d
Ġfl at
Ġdep art
ĠW ill
ch a
Ġg uest
yd ney
f x
t ers
rop ol
Ġexist ence
ĠR oute
iter al
Ġpartic le
Ġiss ued
r andom
TR Y
ap os
p at
Ġmet adata
end or
Ġb rowser
Ġ' <
Head ers
Ġdel iver
Ġf irm
Ġga uge
Ġnear by
< \
st orage
ition ally
ĠV an
Pass word
Ġw or
Ġtyp ename
wild fly
ĠBel g
ĠL ight
HT TP
}} }
Ġ[ "
r uby
h ard
Ġwork ers
Ġepis odes
serv ices
in ate
r ift
ĠCon serv
cl uster
LE CT
Cl uster
Ġon to
IC E
coll apse
ut enant
nt ario
Ġeast ern
ĠF ar
b rief
ĠH arr
ĠS pec
Ġex c
Com ment
ĠAnd rew
d one
U ri
ĠR ail
Ġsum mary
TI ME
Ġc er
all classes
um es
op es
ele ted
Ġan c
Ġd oub
{ %
193 8
Ġcall ing
Reg istry
ĠB BC
Ġo il
Mult i
Ġhous es
CE SS
ĠHT TP
Text ure
ud get
ĠK en
ĠKore a
f ire
t body
uck y
A uthor
ĠS i
D P
t ain
Sh ort
at ar
Ġex it
Ñ ĭ
Ġh yper
ĠJack son
Ġcomp act
im inal
ct rine
r an
Ġe q
V M
Wh ile
iv ial
ĠIn v
ĠA ff
Ġre triev
i Ã³n
Ġco ok
Ġ{ {
ĠM essage
Ġl icense
Ġfor t
p et
anc ell
ĠJ es
Person al
Ġcontrib ution
Un iversity
Ġbe y
Ġl ab
ĠArg ent
C red
ec es
ĠOlymp ic
UR I
ĠF our
ĠA li
Ġr aw
pro gress
Res ources
tem p
ĠB i
Ġc md
Ġh ospital
aw n
p u
Ġappear ances
ĠRes ource
S M
Ġen um
spring framework
Ñ Į
Ġd ataset
math scr
N OT
h ref
Ġm arriage
ĠBer lin
h u
Ġsecond ary
ĠS I
N T
ĠPol ice
Ġfact ors
Ġ? >
err ors
W est
N amespace
ell ar
Ġse ems
th row
ĠCon f
ĠUS A
ach ment
ĠM ult
sh adow
ĠRe act
6 00
Ġform al
Ġn om
ĠAlex ander
Ġ ..
% )
ic ans
Ġc os
Ð ¼
prot ocol
clus ive
user name
epend ence
ĠSt at
sh ared
olog ist
' ));
enn es
Ġbase ball
ro vers
ĠB al
Ġac com
Ġno ise
Ġel im
play er
olog ies
Ġ ],
index Of
Ġmatch ing
Ġa wards
Ġd at
Com m
Ġle aves
Ġem bedd
w hen
Com par
Ġtransfer red
193 7
? >
Ġbey ond
W il
Ġprom oted
am ber
eff ect
Ġa udio
ate way
25 0
Ġtro ops
it ical
Ġhead ers
Pro gress
ĠE con
ĠTechn ology
al so
Hel p
ph ia
z en
Ġpre v
z abeth
Ġst eps
ĠSt art
Ġoper ating
as i
Ġdiscuss ed
Ġprim arily
ĠE st
Ġdiv ided
Ġdecl ared
ĠS ports
< !
F LA
}^{ -
ĠW ater
j d
ĠS om
Ġw ays
Ġdid n
we et
Ġdi agram
Ġfore ach
Ġ ut
Ġr g
op l
Ġcont roller
S ome
Sequ ence
Ġpol ynomial
ex pect
Gener ated
M T
anc ing
Ġth erm
Ġ ).
bl ue
ã Ģ
Ġp an
h olds
ĠA k
log in
(' .
Ġreve aled
ĠY our
ĠD own
res ources
on om
Ġprot ect
v s
Ġprov ince
Ġappropri ate
A ustral
ĠP en
M er
ĠA z
ĠReg iment
Ġc ultural
Ġall oc
Ġess ential
Ġor ient
en ers
ad ing
The ta
ex pr
under line
Ġ _{
an th
Ġtrans lation
b en
Ġp i
s afe
Ġent ries
ĠEx ample
ĠH ospital
b g
or i
Ġ( -
Ġrel atively
ĠD ar
ĠRev iew
Ġre ader
Ġr are
Ġp al
ff ff
col Last
Ġconstr aints
adel phia
ĠBro ok
Ġyou th
Ġp airs
L INE
ĠD ub
j oy
ĠN AME
ist ance
am in
ĠLO G
J S
ĠCor poration
per or
un ique
s el
Ġarr ived
Ġf ellow
Ġr ac
Ġin form
ĠOr gan
us ers
O D
oc aml
U SE
ap es
Ġmaterial s
Ġexact ly
ĠA SSERT
Ġre ports
il li
et ic
ou ter
F S
Ġhigh light
ĠM ember
Ġfif th
Ġfl ux
Ġart icles
Re port
ĠArray List
ĠJ on
ĠB usiness
Ġcomb ination
Ġro les
Ġm enu
fe ature
Ġsc atter
ĠB ad
Ġinter val
Ġrem ote
ĠCopy right
AR N
Ġv en
Ġdig ital
f ixed
s ys
Ġpartic les
qu is
Ġlog ger
u ations
as sembly
Ã© e
duc es
ĠB a
ul ator
Ġim prove
ag a
Ġv ac
Ġver ify
Ġexec utive
t wo
Ġget ting
Ġassum ed
Dom ain
Ġm olec
uck et
Ġexp and
RE S
V ir
ĠDan iel
od ies
} %
p attern
t c
Ġtri al
comp iler
am ps
Ġw ild
up lic
com plete
W N
w eg
Ġpart ners
ĉ ĠĠĠĠĠ
B AR
! !
anc er
Ġconduct ed
form ance
Ġexperiment al
Ġassoci ation
ĠS a
Ġl if
ĠC ount
Ġcan cel
P layer
Ġat tract
In ternational
Ġchall eng
ic ies
ĠO s
Ġlead ers
Ġsp an
x s
col First
ĠP age
Ã º
ĠH uman
Ġt a
Ġa im
v in
ĠWil son
Ġnetwork s
imit ive
ĠĠĠĠĠĠĠĠĠĠĠĠĠĠĠĠ ĠĠĠĠĠĠĠĠĠĠĠĠ
Ġtime out
Ġs ynt
ext ension
w ater
Ġaltern ative
est er
bour ne
Vis ible
d em
ĠPri ze
Ġded icated
St ats
bo ost
ĠRepublic an
L in
D ictionary
S yntax
ed ia
ĠR og
Ġobserv ations
ĠWindow s
Ġdec om
Ġnewsp aper
M I
c uss
Ġprocess ing
ron ze
ĠM ir
g ame
t i
Sum mary
T otal
Ġslight ly
subset eq
Ġf air
in valid
ĠV iet
ĠU I
' m
Ġallow ing
am er
Ġnull ptr
Ġres idents
Ġdestroy ed
Ġadopt ed
b at
Ġtry ing
Ð ²
Ġs port
Ġexp atriate
Ġoff ers
Ġassist ant
ĠIm age
ele m
ĠO ntario
Ġwe ap
ĠJ oe
Ġtraff ic
193 5
Ġpart ition
t w
ond er
Ġcal c
ĠCh annel
Ġhon or
ĠOr iginal
Ġcapt ured
ĠH ttp
Ġ ];
19 14
Ġanc ient
ĠB C
Ġdis s
Ġconf irmed
Ġn p
ou red
Ġmeas ured
Ġdown load
W hat
ort heast
ĠRes ult
R C
Ġalong side
y ard
> ::
Ġ ens
Ġp ert
ĠComm unity
Im port
) |
LO CK
( @
Ġren amed
(' /
ak i
A ng
Ġcommon ly
ĠS ydney
ust ers
W rit
Ġindic ates
Ġr apid
% ,
Î ±
Ġas sembly
Ġth ing
Ġf ill
ĠĠĠĠĠĠĠĠĠĠĠĠĠĠĠĠ Ċ
Ġfe aturing
rior ity
19 19
Ġprogram ming
ĠB lock
ash ion
rop ical
ĠTh ree
not es
Ġco q
Ġflo or
Ġ ×
ĠS em
numer us
numerus form
dec l
Ġcontrib utions
ĠSec urity
ĠS ant
s ch
Ġsc ulpt
ether lands
ĠGu ard
Ġen v
ry st
ĠM anagement
Ġlook ing
ĠJust ice
V D
MO DULE
Ġconstit u
F in
L eg
Ġcre w
Ġw all
Ġst reet
mo z
L en
ĠKore an
H ere
ĠC at
Ġn ation
ĠJ eff
Ġpro xy
Ġc ycle
Ġrele vant
M iss
Ġexec ution
C apt
Î ¿
ĠSup port
Ġz one
ap pe
Ġprop ag
Inter val
Ġeffort s
ĠA venue
ĠT H
Ġachiev ed
ĠB and
Ġse ctions
Ġnew ly
iss ues
ly n
Ġcl oud
D T
Ġassert That
N V
ĠR os
as ync
Ġchar set
; )
Ġh ydro
s id
A CT
ĠT ok
Ġp ra
omet ric
Ġbound ed
ĠPr ime
am az
ĠPl an
; ">
S ources
ĠMus lim
lo ader
A rea
Ġview s
ĠR aj
Ġregister ed
Ġc li
dep th
ess ions
ĠA uthor
Ġstart s
Con n
time out
x html
lo or
ĠV ill
en abled
ĠTor onto
v c
I ST
D elegate
Ġvert ices
require d
Ġtask s
Ġp iece
Ġadministr ation
Ġsil ver
Ġt ele
Ġsp irit
Sh ape
Ġany thing
Ġtem p
Ġunder stand
Ġadv ant
ĠA sh
ĠMin istry
B B
group s
Ġsold iers
Ġinstr ument
Ġexpress ed
b ec
19 33
Pro gram
Ġa thlet
i y
TR UE
se g
(' #
print ln
Ġst ored
8 00
S outh
ro g
if ndef
ĠA rea
pl an
ades h
st able
re qu
st o
n odes
DE FAULT
p erson
Ġmot or
Ġd uration
Ġad ult
b its
Ġh ol
F ree
in itions
1 10
^ ^
be an
ĠB on
Ġle tt
ĠK enn
ellig ence
Ġstreng th
B ind
=" $
ri e
ar c
ĠW alk
Ġ\ |
ĠM aster
L anguage
ici ency
Ġshow ing
p red
Ġsuggest ed
lyph icon
Ġt mp
Ġcop ies
Ġgrad uated
ef e
est ab
libr ary
Ġan imation
Ġindic ate
19 17
Ġ$\ {
art icle
B egin
Ġloc ations
E V
ĠF ederal
Ġadd ing
ĠD ocument
t ar
ĠT am
ic ip
ott ed
Ġacadem ic
ire ment
Ġsignificant ly
Ġdev ices
Ġtechn iques
set minus
side bar
Ġshe ll
EE EE
Ġp urs
ian ce
L L
duc ing
Ġem ission
ĠSc iences
P ub
B est
Ġed ges
v an
P ER
h ere
Ġtw ice
Ġac comp
ĠC irc
19 29
per ial
ĠR ome
Ġmed ian
Ġin h
Ġlist ener
v ideo
PO ST
ĠRev olution
ĠS pring
get Element
ĠM ake
pr ise
uz z
Ġass ign
on ical
ĠSup reme
Ġact ing
Ġd ict
con sin
al ion
Ġc lick
d iff
Ġch annels
ibli ography
Go ogle
ag g
Ġadministr ative
f i
Ġ( [
check box
Ġc arri
z h
ĠT aylor
O B
fl ag
__ __
T wo
Ġr ates
Ġt x
Ġsymmet ry
ĠL ew
Return s
test ing
Ġdise ase
al g
pl us
che stra
ath an
mon th
R elease
pro xy
Ġp et
Ġconsist ent
Ġ rows
ra q
193 4
ĠB ell
re pe
ag ent
Ġpr ice
foot note
lim its
con sole
_ *
d y
Ġautom atically
ĠA S
Ġclass ification
um my
ĠPak istan
the me
ust ed
for ward
it ness
ro duction
ab ric
Ġpart ner
ow a
AN G
word s
k es
oun ce
CT YPE
Ġdist ingu
19 28
Ġd ual
Ġap plic
m ouse
circ le
Ġfl ight
Ġimplement ed
^{ -\
Date Time
ĠW he
Ġsol o
b c
Ġinterest ing
c ert
Ġs ph
T x
"" "
R R
Ġke pt
M ask
f ix
D iv
Ġorgan ized
Ġdis abled
ys ical
ĠS ervices
ĠUn ivers
Ġnot ice
if i
Sk ip
19 00
Ġpol ar
on omy
v o
ĠF ire
ĠR om
Ġconvert ed
Ġwid ely
p res
Ġser ious
Ġpl anned
P air
b old
ĠN ations
ĠB u
Ġ era
Ġst ay
ĠK ir
ps on
is er
p ull
it led
pl er
sh al
cd n
ched uler
ĠL y
qu arters
ĠW el
ĠC EL
Ġequip ment
ĠProf essor
ĠF ollowing
Ġid x
ĠEli zabeth
EN SE
Ġlabel s
Ġauth ors
.. .</
go ing
Ġg irl
ĠS QL
av or
ĠAnt on
c lean
() ))
Ġmusic ians
H is
19 32
pl ates
Ġus age
Method s
Ġh undred
s ocket
13 0
mult i
RE Q
Ġm apping
Ġenc our
Fl ag
Ġrefer ences
ĠQue ens
r ons
ck now
Ġnot es
Ġatt end
OR TED
Ġs ector
ĠD er
ord ers
Ġpl ugin
ĠL es
Ġre set
ĠS ong
em et
Ġpar allel
ĠS us
ĠM icrosoft
Ġcon nections
Ġm ind
gorith ms
ĠS ource
ĠB oy
Ġread only
ĠCamb ridge
Ġtr a
L android
Ġwin ners
Ġpromin ent
H owever
19 10
Ġal one
Ġr aces
H S
Ġtit les
ĠIn formation
M ake
Ġreview s
ap ed
Ġ$ |
Ġprov ed
Ġl abor
stru ctions
. <
ĠT y
Ġpre p
Ġrec ip
Ġpr incipal
ĠM arg
com mit
ĠS anta
The se
Ġreturn ing
bl ank
act iv
ĠA thlet
os l
p icture
ĠMed al
IN FO
ak h
Ġre asons
Ġdocument ation
os is
Ġarbitr ary
Ġattack s
\ }
p icker
Ġp ul
Ġgrant ed
b ut
Ġes cape
pos s
Ðµ Ð½
M o
Ġsc roll
Ġcon sec
ĠR od
text tt
ag raph
s a
DO CTYPE
ist ence
ĠV ector
EEEE FF
PRO C
Ġsk ip
Ġcalcul ated
py thon
M ath
(" /
W R
ID TH
Ġbu f
Ġfac ilities
Ġb lood
s b
con structor
Ġc ult
VAL ID
ST ATE
Ġcapt ure
ĠM ic
IT ION
Ġpro pos
ĠG lobal
H P
ask a
Ġphot ograph
Ġdam age
ĠDes ign
Ġtool s
Ġst ock
b el
Inst all
Ġexec ute
u um
' \
Ġofficial ly
Ġs pl
ĠSh ort
Ġc ars
am el
r im
ĠM ike
re port
Be an
G erman
Ġro ll
Ġproced ure
Ġs yn
Ġo k
ĠAn y
ĠW in
Com ple
cond ition
S ort
he tic
mult icol
ĠPrem ier
Id s
Ġ" $
au x
ĠB att
ĠPhil adelphia
ĠF air
Ġmunicip al
á ĥ
own er
' ];
w arning
az y
Fr agment
12 5
f c
ict ures
ul y
option al
weg ian
St op
Ġp ull
Ġsup ports
ĠG ro
Ġbeliev e
iv ery
Ġv ary
ĠPe ak
ĠN etherlands
w p
Ġfr ag
greg ate
Ġscal ar
dest roy
T ax
N ov
Ġdom in
ĠF il
ab out
Ġw ind
ĠR est
em pt
End point
Ġsubsequ ent
ig ital
ĠV en
res olve
isl ative
Child ren
ater n
Ġparticip ated
Ġext rem
193 1
Ġr ural
I gn
ĠR en
Ġnot able
P U
Ġp sych
Ġf raction
in son
" /
tr l
r g
Ġe lev
Ġh abit
m c
arr ing
ĠP ers
ĠCh ris
Ġexper iments
Ġdr ive
ĠSwed ish
Ġbe at
Ġg rew
s ync
Ġclaim s
ĠVal id
Ġhost ed
Ġmin ister
IV E
l arge
H L
Ġm d
M ouse
w orld
ĠT R
Ġcon ference
Ġch ampion
ix els
ok ed
En umer
Ġf elt
Ġlarg ely
ĠAn other
sign ature
l aw
lip se
F rench
19 27
ang a
ac ent
emet ery
Ġcont est
f lex
IG HT
pl ot
Ġpl ants
im b
t k
Cl oud
Ġth ous
check ed
Ġw rong
' ll
Ġpol y
Comp at
Ġend s
F ORM
multicol umn
Ġd ance
10 1
ĠSt adium
Ġperm an
ĠMin nes
19 22
V olume
Ġthe ore
ĠTur k
est ic
Ġex tr
p ur
' }
Ġst able
" ],
Ġcorrespond s
Ġ ult
Ġal le
up load
Ġmount ain
ĠStud ies
Ġs ides
Ġro b
Ġtrans late
' _
Ã ¥
p air
Ġen h
PRO JECT
eg o
y al
ĠG ra
NavBar Font
'] ['
S cal
19 24
S pe
ship s
and o
j Query
ilt ers
Ġs chema
ĠMinnes ota
et o
Ġis ol
ĠI V
w orth
tr ace
v olume
B iography
ĠS on
Ġgalax ies
Ġv otes
C G
c ow
ĠRe al
hel per
Ġr ugby
Ġin tr
ĠL at
Ġcomput ed
Ġbeg ins
D ev
Ġp itch
Oper ator
ĠC ub
Ġcandid ates
get Value
Ã© s
ĠMed ical
ĠBo olean
: `
Ġs y
Ġp od
ap h
un te
S K
C lear
Ġhouse holds
ĠL ink
ĠCon nect
ik a
ĠL ady
Ġb in
ĠWis consin
Ġresp ond
N ative
ack s
Ġtyp ical
Ġcompos er
Ġpass ing
O lymp
Ġn arrow
{ "
Ġs ales
ĠDu ke
NS String
ĠÐ ¿
Ġ' \
P e
Ġw ing
Ġro ugh
Ġneighbor hood
. ",
ĠSo ftware
Ġbr and
Ġtre es
c u
R T
h l
sim ple
C ard
Ġtri ed
Ġp ure
ĠBr idge
fl at
ĠS ab
Ġmin im
Event Listener
ð Ł
Ġ( $\
ot on
Requ ired
Ġf ru
ĠH ind
up s
Ġsaf ety
Ġmult ip
Ġdet ect
ur ches
Ġapprox imation
Argument Exception
und efined
select or
Ġpar ish
Ġinter pret
ĠPro cess
Ġ$ -
Ġserv es
Ġent r
k ens
ic er
ost er
Ġcitiz ens
reate st
Ġengine ering
amaz on
Ġact s
Ġgrow ing
f old
ĠAN Y
Ġdynam ics
Ġtransp arent
D ATA
igh th
Ġa x
ĠS quad
trans ition
Ġrece iving
Ġprov ider
Ġd etailed
ĠT ai
Ġcont rovers
down load
ann a
Ġpat ients
Ġhar mon
/ _
_{ {\
un es
ĠAn th
Ġ$ [
I A
ĠL im
' ve
g oto
op her
En ter
Ġdec or
Ġrecogn ized
Not ification
ic ients
Ġhistor ic
Ġcont ents
sem ble
Ġ_ .
Ġse ed
å Ī
big g
ament al
F UN
ĠE ND
Ġso ft
Ġbound s
ĠH ay
Ġ{ "
ĠBr ig
Ġext end
Ġcan cer
Ġbe aut
R PC
Ġtem ple
ĠC orn
reg on
al ing
ĠE nc
Ġe le
r ices
ail ing
s lice
Ġr at
ĠW eek
ast y
Ġper fect
per iment
ĠN a
Ġl iber
Ġdoc uments
19 21
opl us
support ed
T ra
Ġr ise
at omic
our se
d agger
Ġf ine
re lease
Ġtr av
Ġcol span
ress ed
Ġs urn
Ġselect or
ĠS ign
Ad min
ĠW ars
ĠO t
Ġabs or
Ġag o
Ġnumer ical
Ġs ynchron
j an
Ġteach er
l ife
Ġem b
ys ics
ĠS pace
low er
An imation
ĠW inter
Ġc e
Ġspec ify
19 25
Ġf lex
ty pen
L imit
m ad
Ġident ify
Ġen joy
Ġcoordin ates
ĠIn put
ĠE nt
agnost ics
F amily
F ilm
* {
f all
he t
Ġp hen
ĠBe ach
ist ed
Ġinstit utions
L ower
Frame work
F ind
Ġveh icle
ĠC ustom
Ġdet ection
Ġbehav i
ĠG re
Ġsatisf ies
amb ig
Ġpro ps
=\ "
ĠH o
omorph ism
Ġdescri bes
d atabase
og ram
rit ical
ĠD ist
is a
Ġp iano
s n
_ );
Ġdefe at
ĠCol l
19 26
A li
Ġmeas ures
ĠR a
Ġtr ace
Ġc amera
ĠD om
ist ical
U nder
M ove
P UT
valid ate
Ġfig ures
Ġsh ut
int on
Ġc orner
ĠH un
ĠL ive
Ġpro ceed
ph as
Ġsome one
ev in
s ome
_ +
Ġpr ime
19 23
Ġag ric
Ġhous ing
equ ality
object s
ĠCont rol
Ġpurch ased
Ġb ind
ĠX ML
opt s
ĠP RO
ud es
ch ain
Ġquest ions
ĠD or
Ġcommun ication
li k
ĠRec ord
ill ery
B ook
ĠAd ministr
Ġdec ay
Ġperform ing
ful ly
Ġdiffer ences
put er
ĠDes pite
ĠSer b
Ġord ers
Ġlead ership
ĠK im
Ġmoment um
: [
Ġphil osoph
ĠTown ship
Ä ĥ
Ġinst ances
se ason
and y
ĠC zech
_{ (
ĠSwed en
on ce
ĠĠĠĠĠĠĠĠĠĠĠĠĠĠĠĠ ĠĠĠĠĠĠĠĠĠĠĠĠĠĠ
" ].
t f
Ġinteg ral
S ch
F ore
ĠC as
Ġpath s
H z
Ġmedal ists
ch anged
Ġmod es
in herit
enn a
Ġcr ime
align ed
******************************** ********************************
Ġcontin ues
CO MP
E mail
> \
des ign
ĠB udd
18 0
ĠD oug
Ġ( ),
ab il
ĠT err
Ġread y
ĠAp ache
Ġincre ases
Ġ> >
ĠB ishop
Ġm o
typen ame
Ġsh op
a ug
s uch
%%%% %%%%
ast ers
pl om
Ġcl imate
ennes see
Ġsw im
Ġind ustrial
EN TRY
Ġm iles
in er
DE BUG
Ġtrans formation
ap ol
ile vel
co res
RE G
Ġfr agment
el i
ĠGold en
ĠPub lish
Ġl ie
» ¿
D ay
MO DE
Ġpolit ics
Ġp aid
Ġ@ "
Ġw rest
agon al
En vironment
Olymp ic
Ġl attice
ĠN AV
Ġexec uted
f actory
Ġall Classes
C B
Ġdeg rees
19 12
Ġsurround ing
W allet
Ġprom otion
D R
Us ing
ap ore
Ġass ess
A wards
ĠallClasses Link
ĠB ecause
ĠIndian a
M AC
19 16
S em
om ot
EL D
ew idth
Ġfoc used
Ġgu arant
Ġapp arent
ï »¿
Ã ¢
Ġtown s
T T
'] );
Ġdi am
S ql
Ed ge
W omen
Ġdest ination
ĠAr m
h aps
Ġadv anced
Ġrg ba
ĠInd ones
Ġdepend ing
ĠH ard
Ġrequest ed
comp ile
Ġs afe
Ġf mt
d uration
Ġdynam ic
ro ute
riz ona
O F
or ient
ropol itan
G C
Ġ ^
oll ary
ME TH
arn ings
US ER
d ependent
W ait
Ġm eta
ant e
sc ss
ist ing
ĠOption al
ac cept
Ġchem ical
Ġest ate
Ġnov els
ĠSI ZE
) [
Input Stream
og en
ĠM un
ap is
Ġcirc le
ĉ ĠĠĠĠĠĠĠ
19 15
Un known
ver ter
Ġ" ",
Ġ' '
u y
ĠG er
vis ible
ĠFore st
Ġt ells
z ip
ner gy
n p
H ub
Ġres olve
Ġan alog
k h
Ġdiscuss ion
Ġstrong ly
ĠCast le
Ġnuc lear
ud a
12 7
Ġc ycl
Ġtr ained
Ġb urn
Ġvis ited
Ġport ion
Ġresult ed
Ġme ant
Ġstr ugg
ĠI raq
aps ed
Ġtyp ed
Ġregard ing
S ur
A nt
run time
ĠN ative
Ġstr ateg
F low
ble m
App end
Ġ urban
c ases
l ig
ĠG allery
Ġinc ident
ĠF ROM
dr iver
ĠW at
ĠMc C
Ġevery thing
Ġengine er
ation Token
ĠB ru
Ġc ursor
IN S
Ġattempt s
S ave
ĠH ence
Form s
Ġl at
ry ption
G ER
Ġconflic t
Ġfem ales
Ġtit led
ĠF amily
Ġinter section
ĠN az
Ġcou pling
pect ive
Ġprote ction
Ġ( ;
Ð° Ð½
S erv
or igin
l iving
Exec ution
Ġtechn ical
ext end
ĠOb serv
m ic
ag en
c atch
an imation
E q
Al low
ĠV i
om er
LO C
Q U
agnost ic
# {
ĠF ox
S creen
H ome
ĠEngine ering
M any
Object s
Ġopt s
ĠM ilitary
Ġrepe ated
ĠH al
Ġign ore
I tal
er ence
Ġear th
Ġterr itory
ĠK al
m ers
Ġdem and
ĠJ oh
is Empty
Ġg ained
Ġk ill
STR ING
d ash
Ġopt imal
Ġveh icles
Ġsex ual
) {\
IO Exception
Pr ivate
Ġpar liament
Ġofficial s
us c
Ġs qu
ĠB h
Ġinsp ired
Ġm ill
Ġb omb
Ġco al
g al
ĠJac ob
ĠSt eve
w ing
cre ated
Ġdocument ary
Ġw orth
Ġaff ect
Ġcol lected
ce st
Ġaccur acy
bul let
ad i
d c
Ġm obile
el ly
ak s
Ġperform ances
Ġap ilevel
Ñģ ÑĤ
ĠG ree
SC R
ic ian
SE LECT
ĠR on
Ġm orph
Ġv ess
ĠB it
ĠSt ock
Ġmed ium
w edge
Ġb ow
Ġ" %
H ow
Ġdim ensions
ĠR ow
S V
v ol
Ġam b
Ġcr ick
if er
Ġfound er
Ġd ialog
L ook
em an
Ġst one
Ġg ain
ĠC ur
ĠPro perty
ĠC ountry
M IN
Ġrot ation
ĠCapt ain
æ ľ
Ġcont emporary
Not Found
per p
INT ER
ph ony
Ġ\ "
el le
Ġpower ful
Over view
Ġp le
Ġhe at
ĠRe port
Ġhe av
ĠK ansas
se q
Ġang ular
ĠAtl antic
ĠC lient
ĠG reg
Ġex ponent
Ġin variant
Ġmechan ism
ch ant
are st
Ġtop ic
J oin
Can adian
Ġout er
r v
Ġres ident
ĠAr thur
ĠA mazon
D b
F older
ens is
t ensor
vari able
Ser ies
ĠDav is
, $
Ġs b
ĠBar on
Ġadv ance
> "
iss ue
A re
Ġth ick
Ġal ias
u ce
Ġad vert
Ġg overnor
Ġs pring
: @"
Valid ation
ĠL ast
Ġim ag
E ST
Ġ} \
> )
Con s
ĠStep hen
ĠD un
mer ge
SS L
ÃŃ a
Ġp seud
ist ant
Ġfac ulty
f ol
Ġansw er
ĠMar ia
L ife
c li
N amed
Ġsup ply
Ġeff icient
av id
ĠCol on
U D
Q ual
ĠMore over
O ur
Ġse ats
int eger
Col l
se par
En v
}} _{
| }
Ġge ometry
B inding
L ight
ĠW rite
Ġgu ard
Ġsuff ered
qu es
plement ation
ierarch y
="../../../../../../ ../
Ġsp atial
Ġrequire ments
v ard
The me
Ġk ernel
Ġab andon
cl osed
Ġ| \
ĠAnd roid
inal s
ĠTr ansport
set up
Ġcl ock
Ġcompos ition
ĠNAV BAR
Ġlaw s
o es
ord an
Ġmon itor
Ġf ans
Ġspect ral
Ġrank ed
Ġconstr aint
ass andra
Ġload ed
ĠMiss ouri
Ġdel ay
Ġ" ";
Ġrest aur
ĠN orm
Ġad min
B ibliography
ic ator
) _
Ġposs ibly
ĠO regon
p ag
Ġc ab
Ġf ell
Ġun able
kw args
duc er
du ctions
ĠBook s
ĠMount ain
Ġh our
on al
lic ense
ear s
Pl ot
R aw
ov es
F act
Ġcommit tee
Ġscient ific
Ġp icture
ĠL abor
F E
ĠD a
ĠIl legal
ĠA D
Ġmeasure ments
P od
Ġam plit
f red
FN GL
Ġreg ime
og ene
Ġl ists
Ġcomple tion
Ġd aily
R ate
Ġreserv ed
19 13
Ġatt ached
ym pt
Ġband s
west ern
e ast
Ġaff ected
ĠUn it
S m
ĠF ace
." ""
C md
over view
con str
Ġt ail
F n
Ġd og
ĠV o
Ð¾Ð ²
B order
Test Case
Ġdistrict s
ĠN on
Ġc art
ORD ER
in us
high light
ĠD am
J apan
Con nect
Ġpri est
Ġd ie
Con stant
Ġsp ons
f ef
con struct
as m
Ġ rom
ĠM unicip
Point s
Null able
Sports people
ĠTur key
ex it
f mt
Ñ ĩ
is set
ĠOper ation
uff ers
dep recated
Ġl osing
/ {
ĠT al
ĠB all
z o
Ġ_ ,
Ġcol le
B asic
Ġlate st
ä »
B I
ĠN Y
Ġpre par
ord on
, '
ĠColor ado
ĠRepresent atives
Ġar ts
Â °
% "
Ġfac ility
Ġmer ge
E ff
comm ons
Ġpur poses
Ġsche duled
Ġunder lying
s heet
p b
Ġ} }
Ġlim its
Ġb atch
Ġpl us
Ġb illion
om ics
Ġcor re
Ġdro pped
ĠL com
_{ -
Pop ulated
Ġspe ech
Ġsc oring
N ormal
col on
ĠTr ust
), \
Ġdef end
Ġs aved
igr ants
Us ers
ĠUs ing
al ert
Ġsub stant
Comp iler
hed ral
ĠS ets
ĠHigh way
Ġg ap
Ġunder standing
Ġpro port
getElement ById
pol icy
j et
en ance
Ġgener ic
II I
a us
por ate
y y
ĠN av
dis able
Ġlett ers
per m
Ġth reshold
Ġsim ulations
P ers
Re al
W arning
Ġcom ments
ĠF ederation
ound ed
Ġpred ict
Ġs ys
view s
ĠH an
Ã¼ r
ĠMex ican
ĠMem orial
tr im
Ġs an
V E
ĠT ennessee
Ġt ell
ĠH as
con vert
ur r
Pro to
Ġsim ulation
itor ies
Ġconf irm
ĠSt atus
ĠEn vironment
F R
å ®
cuss ion
ron ic
ĠH y
Ġs event
le ts
elli j
Ġval ign
Ge ography
Ġ' ';
Serial izer
re ce
n n
Ġtr ust
ĠAL IGN
Ġr ain
Ġimport ance
Ġsepar ated
face book
ĠS earch
ĠNor way
M icrosoft
Ġinj ury
L ibrary
.~ (\
Con structor
ĠG h
ĠG il
ĠW IT
ĠGu ide
Ġfre edom
Ġacc ident
ĠE th
f ast
Ġemploy ed
ar ry
Ġinterest ed
/ "
b atch
Err ors
ĠL ang
ĠC H
Ġs oc
top ic
Ġvalid ation
w atch
% .
P res
B L
Ġfind s
ĠS che
Ġsuc ceeded
Ġpre t
Seg ment
ĠPro position
Th row
ar se
Ġhand s
Ġauthor ity
ĠE ll
int ellij
Ġassum ption
Ġt al
Ġdes ired
Com plete
F ollowing
ed d
D IS
Ġvalid ate
Ġadvant age
ĠB at
cl one
Ġmer ged
ĠJew s
w t
Dr iver
Ġsub set
Ġimprov ed
ĠSund ay
Ġca uses
ĠMel bourne
Ġdepend encies
lin ewidth
ĠA h
ĠP ier
ĠD O
re act
sub mit
l at
ly wood
Ġin vent
Ġachiev e
ĠChrist mas
atter y
) }(
ĠJ unior
Ġem phas
Ï Ħ
æ ĸ
tain ment
Ġre form
Ġcor relation
N ET
g ers
In formation
Ġrepresent ative
k top
ĠT urn
ong o
ĠM oh
Ġjournal ist
19 11
Ġcoeff icients
Ġb ronze
if ul
trans action
Ġs ync
Ġcontrol led
St atic
b d
Det ail
ĠE P
ut s
ĠPhilipp ines
ĠMos cow
Ġinvolv ing
ĠS at
Ġy ards
N C
Ġperm ission
o is
ç Ķ
~ $\
AN CE
Ġs am
An notation
wit zer
Ġrecogn ition
ĠW rit
m ag
Ġt end
De ath
ĠL td
vert ical
W ORD
w d
Ġj s
ĠSur vey
or ney
Ġp owers
ĠK han
run ner
Ġyoung er
ĠComm un
m k
Ġp ref
Ġinter actions
in ations
ĠUkr aine
nav igation
ĠV ari
G A
! "
Ġta ught
Ġar ms
Ġanim als
Ġb its
Ġt sd
ĠBase ball
ra structure
Valid ator
Ġauthor ities
Ġsch olar
n ob
Ġ$ $
Ġs ql
Ġd yn
ĠA ccess
7 00
ĠW AR
Row s
Ġto ward
scri be
AT TR
IL D
ĠFred er
act ivity
ĠRes ponse
assert True
Us age
Ġo dd
B ut
() ),
ĠS av
yr ics
ĠN iger
ĠR ose
id el
act ic
Ġend ing
ĠR oss
fef efe
an es
B atch
Ġw ins
Ġcon version
Ġpublic ation
Ġst yles
ĠF ish
20 23
ĠMary land
ial ly
Ġres c
Con sumer
Ġpi eces
arg uments
ĠL ow
Ġel if
Group Name
ĠFore ign
ad ed
Ġin equality
Ġis n
Ġtechn ique
Pl atform
BP ACK
os ure
ip h
Ġide as
Ġlo an
ues e
Ġs ocket
Ġhyp ot
ir ation
CA A
ĠLew is
Ġc overs
ah oma
Ġfe et
Ġfrequ ently
iv als
st an
Ġcr iminal
OR Y
Ġexpl an
w ick
' d
pre c
mer ce
Ġcl in
ĠE ven
Ġg ather
ĠS E
Ġ' ',
witzer land
Ident ity
us al
ĠBr ad
i ant
Ġref ers
Ġfind ing
Ġbo ost
Ġthe atre
n amed
Ġcamp us
Map per
B inary
ĠP it
Ġsing ular
tr i
Å «
av ailable
for Each
are n
Pl ace
RE E
we alth
inc ial
Ġt ags
ĠH art
ist a
Ġsp ot
mem ory
å Ĳ
il ib
}} (\
Ġaud ience
ĠS elect
Ġy ellow
Ġh ope
ĠM O
DO M
ac ew
Ġaddress es
= [
Ġvill ages
Ġ Ø
cal endar
e en
Render er
ĠC A
Ġsom ew
Ġbal ance
m essages
um a
Ġc ool
T ex
Ġturn s
rad io
m ont
Ġappro aches
Ġunc ertain
Ġinvest igation
Ġclear ly
g lyphicon
Ġfunction al
Ġs and
B lack
Ġbo y
ĠSl ov
k et
p ot
\! \!
ut t
b ell
k t
190 8
Ġnomin ated
ĠS D
Ġb undle
H er
P resent
p kg
Ġbro ken
Ġpaint ing
ĠR ights
Sh ould
hav ior
)\ ,
ĠC are
DE F
FF ER
Ġte aching
C ONT
Ġm orning
gener al
sp acing
Ġcur ves
ĠM ill
) ^{\
const ant
ĠA rizona
Ġeduc ated
Ġintro duce
ele ments
ĠLe on
T ags
Ġmass ive
pro gram
Ġqual ified
Ġde ploy
Ġcon n
Ġop posite
T im
ĠA ge
d ig
ul i
ĠMal ays
Î ¹
ch mark
pol y
ul ing
L C
ĠP R
Ch art
Ġcons ult
Ġb or
Ġbur ied
ĠC urrent
Ġre duction
Ġconsist ing
ambig uation
ĠAl bert
ur ations
rupt ed
e a
s ig
ĠF ord
ĠIn ternet
Ġdo ctor
us hed
ĠRem ove
Ġdesign ated
u j
f etch
ĠĠĠĠĠĠĠĠĠĠĠĠĠĠĠĠĠĠĠĠĠĠĠĠĠĠĠĠĠĠĠĠ ĠĠĠĠĠĠĠĠĠĠĠĠĠĠĠ
Ġcharg ed
col lect
Ġcover age
Ġexplicit ly
T imer
AN T
Ġspec ifically
ĠAd v
li a
sequ ently
ĠU l
**** **
r ank
ide os
Ġend point
al ty
Ġf resh
ĠĠĠĠĠĠĠĠĠĠĠĠĠĠĠĠĠĠĠĠĠĠĠĠĠĠĠĠĠĠĠĠ Ġ
PH P
Ġpert urb
sp irit
M ount
w ig
col n
D en
Ġcon j
ĠD B
Ġf ashion
b us
Ġmin imal
grad ient
for all
AR B
Enc oded
ip her
ĠP i
Ġb ill
T F
ĠL ev
Ġpl anning
anag ed
Pro f
ĠFr ont
ĠF A
Ġh all
ain ian
et es
fri end
ain ers
ĠB et
ĠC ab
Ġh orse
Ġhold ing
Ġf estival
s ime
Ġapplic able
ĠPhil ip
Ġident ifier
Ġin struction
Al though
Ġden otes
he im
se lection
includ ing
ct ic
ĠAb out
ĠTr ump
C M
Ġtw enty
Ġs un
ass ign
Nav igation
- (
) _{
Ġm ouse
N UM
es ome
C LASS
Wil liam
ĠT ag
Ġst ats
Ġ' ./
el astic
Ġocc asion
}$ -
l ot
Ġop in
,\ ,
d evelop
Ġwar ning
cre t
ĠAb stract
get Id
Ġv ocal
ĠN E
g ar
ĠAmer icans
th rift
In sert
Ġch airman
Ġpattern s
ut ies
ĠSt andard
inc iple
eng ers
Ġperm issions
sime q
put ation
Ġcalcul ate
off s
cknow led
C ounter
Ġarrest ed
ic ity
Ġphys ics
ĠH ou
ren a
o or
ser ies
re ll
Ġide al
Ġal gorithms
ĠL ag
ĠSing apore
p aper
method s
F ocus
ate ur
t ics
Ġm ales
Ġfight ing
Austral ian
Ġmat rices
Ġn ob
Ġ ion
Ġsupport ing
f eed
bo se
Ġdef ense
d am
Ġst arring
ym n
gener ate
Cond ition
B el
comp are
Ġ( ,
d on
Ġdr am
Ex port
por ter
Ġcommand s
Ġn arr
Ġreject ed
Ġchang ing
Ġjud ge
ĠS af
iv a
m osph
> ;
Pl an
Ġcon vent
ĠWAR RAN
ĠSquad ron
ĠAff airs
Ġex ports
Ġenvironment al
ĠS ri
ĠS ound
Fig ure
~~~~ ~~~~
Ġ{ },
Ġtr ains
ĠL ike
onym ous
St ar
M essages
Ġmod ify
$ ^{-
Ġ ðŁ
Add r
Ġsymmet ric
function s
ĠSt aff
C ursor
ĠDes cription
R S
CH AR
Ch rist
H tml
p ad
Ġr acing
Ġdr ums
Ġnav bar
Ġ&= &
cont act
d jango
Ġconsec utive
Ġv ice
load ed
WE BPACK
refer ences
Rem ote
Ġpass es
/ .
sub ject
/ ">
Res olver
ic ut
ĠF ellow
b p
re ader
Ġ" >
Ġecon omy
Ġinst ant
ĉ čĊ
Ġnuc le
it ter
Ġin ject
ĠAnd erson
ĠViet nam
ĠB efore
Ġs ust
pl oad
Ġcomp ilation
g ency
Ġlink ed
atur day
Ġdr ug
Ġintro duction
ĠM iller
HER E
Ġm el
Ġrun time
M aterial
Ġpay load
Ġsuggest s
v als
Ġg lass
Ġtem por
Ġold est
Ġformer ly
18 90
o a
Ġprom ise
Ġop posed
ĠL oad
B ottom
Ġop position
ĠM ock
Ġd rawn
if old
res ize
Ġext ensive
ĠL ic
ak ed
S G
ĠM as
ang el
n ight
ĠC ore
D rop
Ġb udget
an ches
ĠC SS
Process or
Ġ+ \
Ġacc eler
ĠI owa
[ (
Ġattempt ed
ĠDE FAULT
Ġmanag ers
ĠJ os
Ġpol l
Ġappro ved
Ġdevelop ing
Ġst orm
Ġco aches
co ok
or er
Ġr ich
not ations
ĠB alt
T ile
ĠEnter tainment
Ġopport unity
Lo op
Ġwhere as
Sh ared
ĠC ost
Ġdistrib utions
Ġcon ven
pl acement
ĠHol y
Ġc row
s es
ele d
b log
ĠSim on
ĠC art
ĠĠĠĠĠĠĠĠ ĠĠĊ
ex pression
grad le
ĠT a
ĠB urn
ĠL anguage
ch art
Ġ\ (
ĠBuild ing
ĠAust ria
We ight
Ġaff ili
ub ble
ab ama
Ġph one
Ġ' .
Å ¾
Î µ
qu ote
ĠC ase
Ġ> >>
Y Y
ĠHar ry
W ord
ĠL eb
Ġs izes
Ġb inding
ĠL INE
ous es
Str ategy
N orth
log o
Ġcommand er
Ġro yal
Ġphen omen
M anagement
p in
Ġlocal ly
p id
Ġopt ical
Ġc ategories
Ġhapp en
A udio
Ġload ing
Group s
C ur
\ _
v ing
Fail ure
Am ount
Ġchall enge
Ġprem ier
ap el
Ġqu adr
}} ^
MA P
Ġdisplay ed
ĠSim ple
UM M
C ent
cre ens
Set ting
Ġst ores
T elevision
Ġpe ace
Ġcoordin ate
Ġcapt ain
Ġ ig
Ġcom pl
Ã© t
ro it
cont ents
ĠK itt
dis ambiguation
Ġfund s
Ġentire ly
ĠGree ce
SCR IPT
IMP ORTED
Ġcost s
i ative
B en
F uture
ĠT er
Ġpain ter
Con vert
Ġexpl ained
end o
ï¼ Į
str ings
ĠF und
Ġplan et
] ))
Ġ' %
ĠSt ory
M aster
ĠAd am
ex tra
con v
E st
Cont ents
ĠAp ple
Ġal ert
M ag
Ð ¿
az a
ĠNor wegian
Ġb ought
ĠSt ream
ri um
B al
Ġ< -
ĠKent ucky
og ether
direct ory
ĠA re
Ġchart s
kl ahoma
w ich
br idge
ĠSe ver
bum s
ĉĉĉĉ ĉĉĉĉĉĉ
å ħ
Ġar c
Ġch unk
ĠEar l
ĠK y
Ġsup erv
over ning
am ely
Ġc ert
Z one
or ro
ĠB ab
sub figure
ĠMod ern
ĠPro t
Ù Ħ
A SSERT
66 66
n ie
Ġre action
iv ation
Ġm ir
ĠPy thon
Ġdepend ence
Ġlay ers
Ġv ent
Ġv ectors
Ġdet ected
Ġadj acent
j ack
et ing
Ġb right
b asic
ĠConfig uration
ĠL ind
ĠF ame
o i
n ative
ĠB os
form er
Ġintegr ation
sub subsection
Ġj ump
Ġc atalog
ĠFinal ly
Ġc as
ĠC ape
Ġst ress
Ġcrit ics
id ges
ĠTok yo
ĠS M
ĠN ext
a udio
ĠB eng
ON G
ĠEm peror
Vir tual
Ġhe ard
Ġmat hemat
Ġpro to
Ġmeasure ment
IN ST
ĠB ah
Ġa ware
ult ane
Ġle ct
Ġlog ging
Sign ature
ĠP ot
Ġpre ced
ĠSer ver
ĠS witzerland
ant asy
r as
$ ).
att ers
Ġsix th
Ext ensions
s un
ĠW IDTH
Ġarr ang
od a
Ġ ----------------------------------------------------------------
out s
C enter
ĠC hen
l ab
ich ol
re po
ac o
Ġ" .
Ġestim ates
Ġconst ants
H on
Ġbu ck
igg s
Run ner
Ġnot ation
B ad
FI ELD
Ġal ter
ĠN ick
Ġspect ra
O ld
Î ½
Ġinter ior
_ )
M ajor
ĠInf antry
G LE
Ġh ers
ag u
ĠT ony
Ġto wer
Ġd ates
Ġrem ark
Ġinput s
is or
190 5
B Y
p ages
Ġm ach
rypt ed
ĠFor ces
Ġcomp atible
Ġclos ely
es ian
Log in
I AL
g i
enn y
Ġpol icies
head ing
F M
z y
b urn
Depend ency
inem a
ach er
S am
to Be
ret ch
(" #
ĠQueens land
Ġs ending
Draw ing
( ['
00 1
In ner
iss ip
Ġelectron ic
c fg
h ist
ure au
ĠO cean
Ġle s
our ney
Ġwe ather
All oc
can vas
oc ese
sh op
ĠS in
Ġh or
c ountry
ĠSh er
ook ie
ĠA mb
ĠE s
LO W
Enc oding
Ġch ance
ur st
Ġ Ä
Th us
ĠBul g
ĠMag azine
s ym
j ax
Ġtrad ition
rem arks
us r
ĠP ur
Ġdifferent ial
Ġro utes
ĠL java
og y
Ġf ee
Ġhead quarters
Array List
an aly
le ton
Ġyield s
ĠCl oud
U K
w iki
u ating
M en
Ġneg ot
BU FFER
AT ED
an im
Ġg irls
Ġbro thers
Ġult imately
ĠAp plication
ĠChild ren
Ġrem ember
greg ation
el ve
ĠMan chester
Ġh ole
in cess
ĠJ ane
D ATE
er d
uer to
B ounds
ĠS C
k ing
; |
F ixture
Ġm and
sc ill
[] {
ĠC op
ĠCh ange
ac on
pp ing
Ġmagn itude
ell ite
Ġop acity
ĠR eb
rem ark
ile y
Ġus ual
V ICE
er os
load ing
Ġoccup ied
ĠB ox
ĠO tt
Ġ$ _
N or
ke ep
) ^{-
) ",
190 6
create Element
ĠC G
te am
ĠA M
ĠR oy
view port
ĠW ho
Ġcharg es
ĠR ol
Ġobserv ation
h d
ur able
el led
Ġan chor
Ġmod ules
ĠAr k
c ounter
And roid
A xis
enc ode
ĠR equ
NO DE
E p
l on
Ġmay or
Ġsu itable
enc ing
Ġan imated
190 7
St andard
HE AD
ibr aries
Ø ±
ĠC y
M ost
N R
Ġw inter
Ġcan cell
et ies
Pre v
Ġn ortheast
d k
Cont ains
Or gan
190 9
ol o
E P
Ġmaint ain
Ġir on
display Name
ou st
Ġg ar
ĠD ouble
Ġw ire
omorph ic
b lob
ache lor
Ġre ality
Ġex erc
ĠCl ark
Dep th
Ġst ellar
ĠD C
/* !
ph rase
ĠS ym
Ġgener ator
V ill
Ġviol ence
ic ians
H C
Ġs ons
CON FIG
ĠP layer
Ġtyped ef
re p
) },
ĠG ib
s at
DE X
patch er
ĠDo ctor
à ¥
__ )
Ġind ependence
Ġref used
ĠJ son
Ġsett led
anch or
Error f
Ġrepl acement
Ġdis estab
ĠN et
Ġf olk
S witch
LE D
ĠO S
ĠMar ine
ren ce
Ġdr ink
Not able
Ġcomb at
Ġindic ating
Ġf ails
Ġcol our
ug u
re pository
lic enses
Ph il
repe at
- $
ĠT en
Cont act
ĠF le
Ġbrief ly
.* ;
Ġsit uated
class Name
ĠV ideo
{ $\
Ġ| =
P red
m n
new command
ivers ary
poss ible
ĠCh ile
Ġsatisf y
Ġhouse hold
ĠT ree
Ġdi plom
Ġth ir
ĠCont ext
ant on
ĠÐ ²
At trib
ĠE ric
in th
Ġbe am
ang ers
Ġcol ors
Ġfund ing
rypt o
0000 00
err ing
Ġdr iving
arch ive
ĠLab our
ene z
rem ote
Ġclass Name
)} {\
ĠSt one
Ġdec ades
Ġmod al
Ġm anner
h ave
ĠL ank
Ġed it
od ot
ĠF ac
Ġsing ers
ĠO N
ĠM it
ĠD ir
Ġhistor ian
z i
ĠLin coln
Ġk ick
ik h
cover y
con nected
Ġpro test
Ġfil led
S plit
Ġs ell
Ġca using
l u
Ġcontrib uted
ĠCre ates
Ġbro ke
valid ation
Ġfav our
K e
ĠW ell
ĠB ra
ĠB rian
ĠZ h
V AR
pm atrix
w ik
Ġindic ated
Ġtre ated
t ouch
ĠDi ego
T Y
a ired
if ts
Ġre pro
p end
Ex pected
ir th
Ġsch ol
l ap
Ġmusic ian
Ġl yrics
ĠPol icy
ff f
sh a
OP T
def er
atas ets
Ġinter pre
E ducation
ĠH om
ĠFurther more
Ġlearn ed
Ġfund amental
Ġpil ot
A UT
ĠH ans
ĠD ark
Ġdr ag
ĠComm unic
P Y
pre vious
Ġsim pl
Ac cept
li bs
Ġres on
LI ST
E Y
ĠF ind
st ates
S ame
Ð ·
P M
Ph one
Ġobserv e
ĠG un
Ġ{ %
Ġrec ru
ĠN FL
" },
} )$.
ĠD ream
cc cc
ĠTem ple
Ġcirc um
ĠOn ce
Ġa head
METH OD
olog ists
M al
ĠD eb
Ġinfin ite
ard o
text sc
Con sole
Ġtr uth
Ġinitial ize
Constr aint
rel ative
190 4
fol io
m ass
Ġtarget s
ĠBr un
ed u
hel lo
ĠD elete
? "
AT OR
ĠS quare
RE D
Ġexper i
m ac
ĠOff icer
ĠAl abama
Ġsurn ame
em ony
os ity
dist ance
Ġprior ity
ĠOut put
Ġdr um
H older
ĠReg ional
Perm ission
Ġperman ent
ow nt
arg o
ĠB an
Res et
Ġt d
pr iv
all enge
ag ma
l ad
> '
Ġes cap
Ġstand ards
Dep recated
Ġat trib
A z
Ġhers elf
< <
Ġl ake
E val
map sto
scal a
h box
": "
ĠBatt alion
Ġcl usters
$ $\
nt il
ars ing
ordin ate
column s
G R
ĠH or
Ġd elegate
ĠCon stitution
igen ous
Ġcheck ed
mit ter
Ġob vious
ol i
ĠN ev
ĠTh read
iffer ent
Ġw alls
ĠG ab
Ġprote in
ĠT elevision
ag ues
STAT US
U ST
T imestamp
br id
Ġb odies
br and
ĠM A
Ġtem porary
op ic
ĠM and
C ancel
EN V
ĠC ru
ĠBill board
Ġw itness
ial s
log ging
k ov
Ġa ired
ĠP O
Ġenc ounter
Ġdo or
Ġp lease
acew atch
Ġalle ged
Ġsports people
ĠConnect icut
ĠS H
on i
Option al
St ub
G N
ect ure
ock s
er al
Arg uments
Ġcontrol s
} &
ur is
Ġind ices
Fr ames
ĠE very
ack et
ĠEx press
ĠGr ant
Ġsche dule
ĠL iter
ĠP a
Ġpro jection
ilib rium
UMM ARY
C r
}^ *
Ġf uel
ĠHow ard
ĠHe art
ĠWal ter
] +
ag an
ĠTh rough
Ġoper a
Ġhot el
al ias
Ġro of
' (
ĠD omin
link s
ops is
Ġe ye
Ġdom estic
= %
r pc
UN D
: '
ol ished
} ))
com plex
XX XX
ĠC R
ĠSen ior
M EN
ĠSil ver
Ġpack et
r ame
Ġsupp lied
sw ing
writ ten
Ob serv
j b
os es
Ġd elta
ĠSp acewatch
ac er
ĠD ue
ĠT erm
Ġcompet itions
vert ex
W eek
ant om
M R
F ootball
ĠE uro
> ()
Å Ł
ĠF a
u uid
å ¤
Ġre verse
Ġl iqu
Ġwe alth
ĠK at
Ġa st
Ch ain
Ġph oto
K it
H ar
ĠI ter
Cl ub
Ġadapt ed
Ġvari ation
Ġshort ly
S ing
Ġjob s
ĠBuild er
ig o
sol r
Ġpr inciple
ĠExec utive
Ind ian
part s
Ġprom ote
get Instance
Sup er
M ut
;| &
t re
Ġk illing
in x
ĠMar c
ryst al
Ġa f
AT CH
Ġmix ing
issip pi
b uilt
pl ane
B ool
C ALL
ĠSk y
ĠSim ilar
Ġent itled
ĠCO VID
Ġmin ute
it ivity
Ġg overning
ĠTurk ish
ĠD OM
ap y
iev al
Ġgalax y
w ill
Ġexhib ition
Ġattack ed
ĠLINE AR
clud es
ĠB OO
Ġscal es
Ġ" '
Ġhand ling
ĠAll en
Ġair port
at on
Ġ= \
Ġaspect s
= $
ĠF OR
iz ers
ĠS uch
ig e
Ġgun s
In f
M ilitary
inc or
ĠO C
Ġextrem ely
Ġap art
Ġpartners hip
Ġwindow s
Met rics
itect ure
ĠStr uct
ĠN ap
ĠA T
Ġm yst
ĠJ ordan
P al
On ce
Ġident ical
el son
ĠTh ird
Ġf ought
Ġd ire
Ġtheore tical
c ross
ĠS ix
ok es
Ob server
Ġ Ñģ
c ing
ĠE nergy
Ġag ents
ĠP erson
ri ent
ur ance
ĠN ik
Ġeff iciency
Ġrecomm ended
ĠPat rick
Ġa ria
ĠC OL
ĠAr men
Ġtre nd
ymmet ric
id o
Ġext ensions
Ġdis able
Ġproduc ing
put ed
ĠIn n
Ġo scill
ãĢ Ĥ
190 3
Ġ ille
ĉĉ ĠĠĠ
ĠV ar
Ġj azz
ĠQu ery
od ox
Ġvari ant
RA Y
ĠP romise
M illis
Ġstop ped
ĠPl ace
ic ode
( ()
t z
ĠO klahoma
Ġn a
in burgh
Ġlog ic
Ġrun ner
ĠJ S
Ġp ipeline
w arn
á »
Ġtrans mission
Ġa apt
ov ation
Ġs ed
m ount
in ces
Ġprom pt
Ã ł
Ġmass es
Ex ists
Ġdr ivers
$ ~
ĠAm ong
Ġtransl ated
f b
Line ar
ĠJ am
l int
Ġcre ates
ĠSw iss
ĠSoc orro
ĠN aval
Ġemploy ees
av it
Ġb an
Ġcommission ed
Ġweap ons
ĠAn ne
Ġrelig ion
A bs
ĉ ĠĠ
ĠR ab
M ac
Ġprogram me
oth ing
T ouch
)$ -
190 1
po inter
ĠArgent ina
Ġc m
ĠP as
m aml
Ġp ed
AR D
S ite
ĠPr int
Ġr ational
ob serv
Ġor bit
r at
18 80
h al
Ġs ac
um ps
Ġdef ines
Ġcalc ulation
Ġag ed
Ġs ale
Ġen emy
Aut hentication
Ġw ish
Ġconsider ing
2 13
R a
T AG
ĠH u
Ex pect
own ed
Ġem p
spec ific
Ġs i
Ġoper ate
190 2
ig ate
ann y
C trl
Ġmet res
Ġbehavi our
L iteral
Ġgrad ient
Task s
B orn
Ġcr icket
Ġ ener
ä º
Ġinh abit
n est
;" |
Ġs outheast
Ġw idget
S W
ĠPri x
Ġpresident ial
Ġcred it
ĠIsrael i
ar o
P romise
ĠAnth ony
g z
F ALSE
Ġp un
li est
ĠAg ain
ĠS end
Ġcirc uit
Ġk il
ut ors
ĠR ey
B IT
ĠD al
Con verter
RES ULT
O C
Ġexplan ation
ĠA ud
fg han
ĠA le
ĠM att
ĠĠĠĠĠĠĠĠĠĠĠĠĠĠĠĠĠĠĠĠĠĠĠĠĠĠĠĠĠĠĠĠ ĠĠĠĠĠ
(" %
Ġs ought
av ia
Ï ĥ
Ġre pository
uplic ate
Ġcl one
ĠPal est
d irection
Ġn s
Ġd anger
ĠC ulture
Ġtherm al
t p
AR G
Ġmaint ained
g if
ĠHot el
ta h
Ġign ored
st rip
Ġan imal
ĠGa ussian
Ġcon vers
F RA
Ġcharacter istic
D iff
B ro
b undle
res pons
ĠS UMMARY
ĠS to
ĠB us
Ġg ene
Output Stream
Ġbr ain
ĠS el
ĠHaw ai
Miss ing
c raft
w as
Ġag ree
G P
LE TE
ug ar
Ġfound ing
Ġc b
Ġc ov
ĠA st
em it
R andom
ĠRef erence
Ġas ympt
pos ing
ĠN CAA
ĠD aily
bind ing
ĠK er
Ġor th
ĠVir tual
Ã ´
Exec utor
T ube
Ġadj ust
Ġm ent
Ġregard ed
clus ions
Ġexpl ain
Ġat mosph
Ġf an
Or iginal
ĠPortug uese
P at
Ġle af
vent ure
}} ^{
Ġa id
Ġeval uation
D ynamic
is ode
Ġsk ills
in ject
C oin
Ġm ist
Ġscen es
Ġleg end
Ġscen ario
Ġproper ly
ĠC emetery
Ġconsist ed
un lock
Ġf etch
ĠD ick
$ ;
The orem
Ġso le
op ter
ĠBy te
Ġsec ure
Ġsol ar
Ġtrans actions
Ġdirect ors
R ot
Ġcomput ation
(' <
Ġgu ide
> %
Ġcent uries
is is
Ġaccount s
Ġsim ultane
t imestamp
ä ½
S napshot
m obile
ograph ical
================================ ================================
ĠCro at
] }
ĠCo q
Ġ` ``
Ġlow est
Ġh air
ĠHon or
h ow
â Ķ
Ġg ender
Ġback ing
ĠCommon wealth
Ġliter ary
Ġassert True
Ġover flow
Ġimp lied
n an
Column s
LIC ENSE
T y
(" \
Serial ization
v et
Ġconstit ution
stand ard
"> (
( /
Ġret irement
Ġbu y
Ġt ennis
Ġre aching
ad oc
Ġh orizontal
Ġtext ure
Ġst ages
Ġim g
ant ly
ĠG ordon
Ġcollection s
ĠM oon
ru les
Ġch urches
Ġarg ued
ĠWh it
Ġh ide
Ġf aced
de ep
E ast
C MD
ab ad
c ancel
Ġt imestamp
ĠH op
s quare
Ġup dates
Ġplace holder
d ark
R out
d ied
ĠHou ston
Ġd ry
L ib
[ -
Ġp arsed
Ġ- =
ac ht
c n
y ll
v endor
Û Į
W IN
Ġstand s
gener ator
Ġbel ief
Us es
Ġflow s
Ġheav ily
Ġth er
Ign ore
ĠP ay
Ġloc omot
Ġres istance
C ulture
ocr atic
U C
B M
Ġf s
S epar
D avid
Ġscatter ing
Ġposs ibility
)\ \
bo ards
Ġpe er
example s
ar on
Ġprep ared
Ġfa ith
ph ase
ĠJ ay
ĠBrig ade
m ma
Col lect
T L
Ġrough ly
ĠY outh
Ġm igr
P ower
Ï ģ
Ġh its
\| _{
Ġ uri
f ish
i ary
ĠP ut
ĠK az
ĠBelg ium
ĠK EY
Ã «
ĠB uck
S an
Ġtr ail
S elf
Ac adem
Ġste el
ĠH ockey
Ġv o
Ġlimit ations
Ġper haps
d ocker
11 1
H istor
sd k
Ġsoc cer
ĠK a
reg ular
sh are
ul ating
Own er
Ġcomp iler
ĠS ud
Ġbul k
Ġf ired
ĠU r
w en
Ðµ ÑĢ
TI ES
Ġext ent
Ġeduc ational
ĠF ull
Ġ{ $
Ġc old
ĠDoug las
R UN
En able
Ġwork er
Ġj et
h pp
F P
ĠQue bec
Ġcover ing
in ch
ĠK am
Ġcar bon
Ġinstit ution
Ġreserv e
Ġeng ines
Ġoff ices
D M
Ġscal ing
G O
ĠPo pe
ro uter
Ġr ating
CO MM
Ġexpress ions
cept or
Di agnostics
ul us
Ġb rown
Ġthrow n
s ong
Ver ify
Ġin duced
Ġincor porated
ĠPar se
me an
ĠP os
Ġlook s
Ġsum mar
ĠTai wan
As sembly
tr ansport
aw are
( .
im ore
R oman
ĠB ureau
sp in
ĠF M
Ġig et
sc ore
Ġpr incip
ab c
Ġstri ke
ap ple
Ġworld wide
nob r
w i
Ġco inc
f p
Ġ æ
E urope
ing ly
m iddle
ĠCh ampions
ĠT oday
Ġc lo
L icense
Ġ ri
h ill
ĠB uffer
ixt ures
n os
ĠVAL IGN
Ġn amely
Ġpurch ase
Ġaccomp an
Dr ag
ir al
Ġjoin ing
ĠLouis iana
################ ################
Ġs oci
ĠĠĠĠĠĠĠĠĠĠĠĠĠĠĠĠĠĠĠĠĠĠĠĠĠĠĠĠĠĠĠĠ ĠĠ
ĠN ag
ĠAdministr ation
ĠAl ber
Ġcomm itted
1 16
text ure
1 12
ĠJ uan
ĠIslam ic
Ġeth nic
act ual
str ict
ĠVill age
ĠV ice
m outh
Ġd ependent
Ġcopy right
Ġex cit
F OR
ĠC lear
Ġac id
Copy right
Ġaccur ate
ĠN AS
Ġsol ve
Ġs leep
Ġre ar
Ġinflu enced
ĠD VD
ĠN ic
j oint
ĠHamilton ian
f loor
ĠMot or
ĠWARRAN TIES
ĠG ard
ĠDen mark
ĠT un
s z
get String
fr ag
Ġre ception
ĠST ART
ĠFace book
Ġh y
ĠD ictionary
Ġhom es
L Y
Ġfr anch
Sh ader
ĠP ref
pro position
m oment
ĠO ak
Ġgraph s
Ġro ut
ĠH amp
Re ception
UE ST
Ġm art
com ple
F ixed
ĠHarr is
Ġeffect ively
Ġiter ator
A SE
Ġw a
ri k
10 2
Ġevery one
i ations
Ġown ership
h ot
Ġrad iation
L IN
ĠF all
h ook
h istory
UN T
m apping
Ġlaw yer
T uple
not ify
p rom
SP AN
Ġmet rics
Ġn ick
Ġch ose
BU ILD
Ġcorrect ly
ĠC ond
ĠBOO ST
ign ore
ĠClass es
ĠS aturday
Ab out
ĠR ound
ĠPortug al
u ity
Ġrecomm end
Ù Ĩ
Ġconver gence
Ġpers ons
com pute
ist ol
The y
10 24
V ol
ss l
ĠEd inburgh
Ġhost s
ĠT ABLE
i em
Ġg oto
ace ae
Ġcalcul ations
Ġestablish ment
Ġfle et
Ġrepl acing
Ġcomplex ity
ĠCon stant
n ik
Ġ ing
ent ed
>< !--
Local e
ogene ous
Ġch ampions
ĠSer ial
C ity
un known
ov ing
S ongs
Ġg lob
\ {\
d ers
plic ated
st age
Ġtri es
Ġpoet ry
ĠF inn
ĠB ry
A ctions
Ġhigh way
ro c
Ġrot ate
Ġstri p
L ike
Ġv ideos
le ans
Ġpres erv
W in
Ġf ake
el and
ĠP uerto
ĠC EO
ĠA ws
Ġc ached
ĠLiber al
Ġeval uate
Ġind eed
ĠI F
gr ic
G EN
Ġadv oc
Ġc odes
us cript
Ġinv ited
M achine
Ġabandon ed
Po jo
C odec
t ik
Ġ-- ></
String Builder
br ace
ĠHand le
Ġtemper atures
arri er
ĠN ichol
get Message
" ];
AC H
Ġcollabor ation
gle w
qu ant
-------- --
ĠA C
Ġsp ac
Ġ' "
ĠAss oci
R ob
SO UR
ĠE ag
alt Color
b inary
ĠLie utenant
Ã© r
TR AN
Ġp ixel
ph oton
M ich
ĠLem mon
Ġm al
Ġcharacter istics
An other
D irection
Ġthe ories
__ _
ge o
ys ql
Ġbel ongs
Ġch apter
ĠK o
Ġoptim ization
Exp atriate
un i
get Type
Be en
ĠM aur
ĠCont ent
ĠJes us
Ġtable s
Ġg reatest
in os
189 8
h ab
ic ing
in ction
M c
c ong
ĠL ib
ĠMiss issippi
enc oding
Ġactress es
Ġsubject s
Ġp apers
Un iform
egr ation
ĠAnton io
Ġsequ ences
Ġh op
er ic
B uf
Ġad m
Ġconsum er
Ġappear ing
ĠMo ore
Ġag ency
ul p
Ġwait ing
è ¯
od o
ts burgh
Ġdep os
IN VALID
tool tip
Ġe yes
ĠHer itage
Ä «
ĠBrazil ian
iven ess
ĠS pr
ĠD anish
ĠN ever
m ms
un ities
urs ive
Ġw ants
Ġp it
ĠOr th
Down load
F lor
Ġpl ate
Style ID
S pecial
× ķ
Ġcon cluded
all as
ĠD igital
ru ption
ash i
U pload
re le
LE MENT
ig ator
annot ations
as a
am an
Ġm ile
Ġf older
g ood
ar ance
ĠD ur
Dis c
Ġ" [
iv idual
ver ify
W atch
Int roduction
B its
uff ix
I Z
ail ability
R ober
ĠDet roit
L em
form ed
Ġintegr ated
S F
Ġca ught
Ġhum ans
Ã ª
RE CT
Ġinterest s
ĠD est
ĠIndones ia
} ",
u ction
ĠS port
Des ign
yg on
lo yd
ir i
iss ance
Ġvol unte
ĠD ak
A I
1 15
t witter
Ġv oted
Ġtri ple
Decl aration
Ġl aid
Ġmembers hip
Pack et
K n
ĠW y
Ġin herit
Ġb ed
ĠGr am
exec ution
ĠCol omb
ĠSt ew
Ġp and
Ġconcern s
Ġsign als
in ator
CRE ATE
Ġd st
p ref
Ġwe ights
ĠM ond
U ES
f ake
R ich
< >();
ĠF uture
Ġ' #
ĠIm mutable
pl ain
ĠS V
Ġcer emony
Control s
ĠApp end
ĠDub lin
ur d
c ursor
ott en
d anger
18 99
igg est
Ġf ly
Ġpass enger
Ġst adium
cre ment
Ġfound ation
Ġliter al
Ġsymbol s
Part ition
ĠStud ios
1 17
per iod
ear ning
An alysis
ĠInv est
J ust
Ġst ating
Ġ ĉ
ĠLog ger
ĠRun time
il k
Ġstat istical
HO ME
ĠV in
spe ed
eg et
Ġb old
ĉĉĉĉ Ċ
ĠInst ead
final s
ro ck
ĠHol lywood
at en
Te am
ĠBang l
inter val
Ġal pha
kee per
Ġpred iction
Ġf old
con cat
ow ski
Off icial
st ory
ĠIm perial
ĠMat the
10 5
part y
riter ion
Ġr ig
th ird
Ġneigh bour
Ġcon clude
Ġdis miss
n ia
Ġtouch down
Ġfinish ing
UB LIC
Ġin aug
ĠT reat
level and
ĠH ills
ĠDon ald
ĠS ite
ĠB lo
Ġenc oded
Ġs ud
ct ree
ub er
Ġinter act
Ġdeliver ed
Ġinv asion
ĠJ ob
Ġentr ance
ap l
Ġp ending
Ġbo at
Ġproduc es
she ll
Ġbenef it
Trans ition
Name Link
^{ +
ĠDis ney
Ġed ited
Ġfl uct
ĠPro p
p ic
ĠL am
Ġimmedi ate
Ġis lands
Ġpaint ings
att ed
G a
Ġhapp ened
ĠC ow
ub ern
ay an
Form er
IL ITY
Build ings
as p
Ġr ival
d n
ĠInd ependent
urr ican
Ġbreak ing
ri ed
ar ity
ic ular
ol id
ĠWalk er
ĠCont in
od ge
ĠPr ivate
PRO P
ĠÃ ī
ub b
pro b
Ġtest ed
f older
d ynamic
c assandra
Ġf i
An im
Ġh uge
b ey
t l
g ies
it als
ownt own
Ġmov es
ĠF ix
t imer
ĠIn it
ARN ING
File Name
t m
Ġtri p
Ġcross ing
display style
Ġinj ured
Ġro ots
Ġmid field
Ġprof ession
u is
ĠAut o
ss ue
ors es
Rad io
Ġco ins
3 60
es is
Ġ' @
è ¿
IC ATION
ĠMi ami
}( {\
14 0
Ġterm inal
pr agma
Ġexpl o
Rel ation
ĠE arly
ĠR ange
ĠUkr ainian
Ġrev olution
Ġp ione
Ġ# {
ĠG irl
Ġstand ing
th rough
Ġc yc
ĠR ight
Ġvers us
ĠF ern
Pro duction
LA Y
d ays
Ġv ot
Ġre ign
Ġc lip
ĠMed icine
? ?
å Ĭ
Z ero
Ġab und
rt l
Ġuser name
in ian
Ġl umin
ĠAl an
Ġin verse
int ro
Ġd ictionary
18 70
Ġin fer
Ġh un
Ġw arm
im p
ĠP ed
alle st
we ek
Ð° ÑĤ
ĠR yan
Ġd ust
Id x
Ġabs ence
Ġrec all
sl ide
Ġdisc rim
ĠL as
W ill
G rad
Ġex pert
ĠFreder ick
ah n
Ġpublic ations
Ġamplit ude
Ġru led
Ġpred icted
v i
In struction
,\ ,\
exp and
G ui
al gorithm
189 5
Ġgr ade
M s
Ġt ropical
ĠAdd ress
Ġsomew hat
ĠU RI
ĠĠĠĠĠĠĠĠĠĠĠĠĠĠĠĠĠĠĠĠĠĠĠĠĠĠĠĠĠĠĠĠ ĠĠĠĠ
Ġc y
Ġtr ivial
Ġin herited
Ġ( %
Ġsh ock
ce ived
Ġb log
ick ets
id ad
do or
k ernel
is en
Ġcl im
ĠD ol
Ġ' -
ER S
ĠE V
Ġbir ds
Ġab ort
ĠCom ponent
Ġp up
ig ious
Ġsur g
D at
lin ux
ĠCon vert
Ġst ability
Ġrece iver
Final ly
jav ax
Ġpay ment
N a
189 7
Ġf aster
Av ailable
ĠT ool
Japan ese
Ġcom ic
cri bed
Run ning
Ġdef initions
Ã³ w
incor porated
Ġdis appe
i op
enez uel
ĠOper a
Ġprec ision
ĠBow l
Ġd eleted
Ġsl ot
ĠHar vard
com b
Ġres igned
az ines
Dec imal
ĠM rs
link ed
am ount
ĠVol ume
BA SE
ĠG arden
ch unk
Ġch air
ĠS P
Ġh am
F eed
Ġv m
ĠF ALSE
ĠLeg islative
Ġsent ence
Ġ' ''
ic ide
Ġ[ \
Ġint ent
Ġdiscover y
ss on
ĠP ap
P ane
con current
an Ã§
Ġobject ive
is lation
ĠD ave
Ġcomp liance
Ġp atch
189 6
fr agment
D TD
ĠL ore
st e
f ather
av is
mem bers
ail and
ĠA fghan
Fe atures
Ġh ired
ĠM es
Ġcast le
OR K
UR N
append Child
Ġcap able
Support ed
ĠDe ad
Ġacc um
get Class
__ ,
h our
Exec ute
Ġopin ion
Re ason
S ide
G IN
pt ic
li ps
Ġstat ements
ĠDe ath
Wh ere
aa aa
As set
ibr ation
l oss
at ibility
Ġany one
bar a
ĠC ole
ĠN um
Ġex cess
Ġsub sid
item pty
qu al
ens itive
be ans
Ġgood s
ov o
ĠH ug
ĠIllegal ArgumentException
Ġ& #
m ix
om itempty
Ġt urb
ĠK evin
sect s
__ ["
Ġown ers
ĠP A
ĠT ab
ĠP lease
ĠAb d
ĠN ob
list ener
Mon th
Q t
cl s
l ive
ĠS n
u h
Ġdesc end
ĠĠ čĊ
Ġclass ified
ĠDef ense
Ġeng aged
Ī Ĵ
Ġseg ments
Ù ħ
Ġinvest ment
Ġbusiness es
ĠSam uel
ĠOr chestra
Ġcon sequence
Ġre new
ĠL P
ĠD NA
RE SS
ĠI R
Ġm ort
Ġapp lying
An aly
oc om
Ġcan onical
. ',
Ġh al
R ules
Ġdesign s
Ġex ceed
Ġdes criptor
ĠG all
ouri er
Ġp referred
ĠIn valid
ĠRes erve
Ġcoll apse
al ink
r ang
om ents
z ed
! </
Ġd ial
F ix
Ġsup posed
ĠIn ternal
Load ing
Ġj unior
} }$.
Ġim plicit
Ġr anges
wh o
Ġclass ic
ĠD ebug
Ġinhabit ants
ĠD raw
Ġclos ure
SU C
ub le
Serv let
HO UT
Com mit
Ġposs ess
IM IT
Ġcompet e
EN ABLE
Ġgo ogle
> ${
Ġp ixels
Work s
aw ay
Ġbr anches
ext ensions
Ġb iggest
Or igin
L ang
Ġan th
te ction
å Ń
Ġt error
oc he
ro ph
amazon aws
Ġex cell
Ġcoeff icient
AV E
se a
Ġint elligence
force ment
Ġ' _
Ġwrit es
fl ush
() ">
c are
L ive
uk i
Ital ian
Sche dule
ĠMay or
: =
Cre ated
Ġdyn asty
) +\
Ġfeed back
Ġbo ot
Ġsatisf ied
Ġa str
Do ctrine
Ġocc as
ĠSing h
add Class
æ ķ
ĠWork s
INS ERT
Ġcon vention
Ġrestr icted
Ġc riteria
ĠB E
ĠÐ ½
Vill ages
Ġdraw ing
ĠCh art
A E
Ġass ignment
pi pe
Sup press
m el
ĠT el
Re act
ĠE u
Ch anges
(' ./
the less
ĠG iven
Enumer able
Ġm es
} )$,
ĠMP s
Ġacc used
ÃŃ n
Ġprint f
Ġequ ality
ĠU til
FLA G
Ġdec ade
) }_{
ick y
ĠLa ure
F ac
Ġrespons ibility
ir y
bor ough
ĠTr aining
c urrency
ĠN ull
ĠMalays ia
Ġt ack
R ailway
Ġpercent age
Ġparticip ate
Ġd ies
Ġconv ex
Ġinvestig ate
ĠFin land
en ess
Ġdis crete
M ass
Ġdescri bing
OL D
Eff ect
Rec ip
Vis ual
S core
Ġmin ing
eb r
V ec
ĠM ol
Ġk id
ĠB arn
m illion
Ġinter mediate
Wh ite
ĠL anc
Ġrecord ings
Ġe ase
ĠM ust
ĠCommand er
Ġquant ity
h bar
Ġb ug
Menu Item
Ġaccom mod
Ġcon clusion
ver age
plic ity
Ġpret ty
iv ated
re tt
d st
local host
Ġcan vas
Ġread s
ĠAg ency
Ġap pre
Ġent ropy
Ġqu eries
ĠT rib
b one
Ġcon crete
c lip
am ond
Ġb ot
Ġl ift
Ġsec retary
ir t
Ch unk
Ġhapp ens
m ay
Ġ" ${
10 4
B reak
ĠSt ore
Ġform ally
ĠPro file
ĠI ron
Ġs cores
LO AD
Med al
im ize
BO OL
Ġman ifest
end point
ĠB ou
D id
ĠPal ace
J ames
Ġexp ed
L ines
| _{
Ġsc r
ĠT ar
Ġtw elve
C irc
Ġpat ient
Ġrelationship s
ĠT ele
ia h
c op
) -\
Ġw arn
ex cept
} }$,
eg as
s is
tik z
P OS
fore ach
, .
Ġconserv ation
I p
neg ative
Ġd ense
Ġb om
stats models
it ics
Ġcr ash
az e
Pr imary
Ġderiv ative
/ (
Ġb ias
ĠC ensus
del ay
ĠT ru
ID E
Ġfr ames
CO M
a ire
ass ador
Ġf ra
pub lish
Ġpre pare
b ug
Ġm arg
ĠLaw rence
ish ops
ari os
or us
second ary
99 99
fr ames
Ġs yntax
ec lipse
work s
Ġpar a
st ances
External Task
Ġland s
ĠAtl anta
×ķ ×
Ġorient ation
&= &
k ar
Ġvol umes
Ġpropos al
ĠC hem
ĠS mall
st ud
ĠMar shall
/** */
ĠE ver
GB T
Ġman age
Ġcommun ic
Ġas sets
t oc
ĠWel sh
ut down
Ġe c
en z
ĠP eters
ather ine
Model s
Br idge
Mon itor
P aul
che ll
sp ort
g ov
met ic
Ġdesign er
Ġ* ,
Ġar med
189 3
ĠSe attle
er red
ĠK now
olv es
Ġroad s
Ġexperi enced
Ġexpl os
ĠHistor ical
Ġcell padding
Ġc ub
B g
ĠM ission
id al
com par
aw esome
Ġres olved
spect or
str ument
Ġplatform s
Ġm ob
w br
Ġadd r
ĠAcc ount
T ok
pro c
requ ency
ExternalTask Pojo
Con tract
g ow
Ġst roke
google apis
ĠAct ive
eg e
Ġcour ses
ĠP si
el come
$ ),
ĠC P
Ġear liest
ĠM L
M arch
188 9
W I
dec ode
er on
ĠP ear
') ->
Ġpartial ly
f av
P an
Ġhel ps
ĠMount ains
Ã ¦
viron ments
om as
Ġvir t
Ġsub group
ĠÃ ł
Ð ¹
ĠM S
10 3
M utable
Ġiter ation
Ġneut ral
}{ |
ĠD im
Ġw x
Label s
Sc ott
Ġl ob
ta ke
ĠL ook
Ġs pr
Ġw at
ĠT ig
Table Row
t ile
Ġd ream
Ġpract ices
Del ay
c le
Ġim pr
ĠF ood
Ġthous ands
Ġd t
Ex tra
ĠF arm
Ġrel ax
Ñ ĸ
Ġjust ice
Ġd oll
Ġcl s
Form atter
ĠB art
quis ition
Ġfl uid
R ound
ĠAdd itionally
cl ine
run ning
A ugust
Ġcr isis
Ġt uple
Ġf alls
Ġc le
am ents
Ġperiod s
Ge ometry
g s
Ġinf rastructure
mat ches
eli hood
ĠKn ight
is ations
)) $
189 2
A ST
fe atures
ĠDep uty
st ion
Ġth in
R ussian
Ġb ishop
ĠM anager
Ġphilosoph y
EV ENT
ip edia
Ġcomput ational
Ġshoot ing
> `
D er
Cal endar
ĠĠĠĠĠĠĠĠĠĠĠĠĠĠĠĠ ĠĠĠĠĊ
Ġparticip ants
iz ard
ĠAng el
Ġa w
Ġden oted
Ġir re
ĠTr ack
on ian
T yp
ograph ics
map s
j u
Ġinterpret ation
c ycle
r ink
Å Ħ
Met ric
to ctree
Look up
ĠD og
ĠF al
Ġregular ly
'] .
ref resh
ĠPub lished
Ã© n
Ġrest ored
P REF
Ġ$ |\
Ġconstitu ency
Ġb id
ĠU P
Ġd iver
Ġcell spacing
pay load
ĠE RR
( --
ge ometry
roll ers
ĠEd itor
ĠMe an
ME M
Ġmod er
re duce
ĠO k
bl ast
y ers
Ġd eleg
C LA
Ġrespect ive
}$ )
\ /
ĠFr ame
Ġbound aries
ĠN atural
ĠAust rian
y ou
ĠRet ri
ĠF i
Ġcomput ing
ĠP C
Ġsk in
Ġarr ival
hib ition
Th erefore
Ġmat ched
% "><
Ġconcentr ation
**************************************************************** ********
RE T
ĠSc ient
t iny
ĠPublish ing
Ġloss es
ĠS ingle
St ud
x sd
re nt
ul o
t ail
ĠG on
Ġpl ain
Ġcheck s
Ali as
ip age
Ġdefault s
up per
Ġsign ing
ĠL ock
Ġ-- -
an alysis
ught ers
Ġres idence
m f
ĠArg ument
Ġrestr ict
c mp
g ate
Ġf lying
Ġd x
r ig
Ġpri ze
ĠT ry
ĠD atabase
G reen
v ia
ĠP un
Ġpra ised
oc a
i pl
Ġfil ters
ĠMont real
Ġcomp ris
Ġassoci ate
Per iod
TO M
== =
Ġle mma
Ġdom inated
P aint
Ġv eter
Ġto t
big l
ĠBru ce
Ġsuc ceed
ug osl
c ity
cast ing
ĠCol umn
Ġw aters
dat etime
ĠB ed
Ġcharacter ized
M ust
Ġcomp iled
contin ue
at iv
umb n
Ġsufficient ly
ĠIt em
Mod ified
Ġc ards
ĠAn na
ĠM AX
B us
P riority
ĠSec ret
) }}
en ix
et al
L ater
Ġint ensity
list ed
ĠP HP
âĶ Ģ
Ġgrad uate
st ood
ĠCh airman
est ure
Ġe gg
var s
Ġs ender
it ative
Ġschol ars
` :
ĠN ep
b ow
label s
ĠFri ed
P ixel
is ely
Track er
pe g
ĠĠĠĠĠĠĠĠĠĠĠĠĠĠĠĠĠĠĠĠĠĠĠĠĠĠĠĠĠĠĠĠ ĠĠĠĠĠĠ
N ONE
ĠK it
Ġent ertain
ĠD ance
Ġne ither
B ased
DE D
T ri
over ty
ĠI gn
ad v
Ġred irect
ĠSh ould
ĠN ash
G iven
ine a
40 4
g re
Ġdomin ant
] ->
Ġtr uck
urre nce
inn ers
Ġpublish ing
ĉĉĉĉĉĉĉĉ ĉĉĉ
local e
Ġret ail
lo pe
Ġt ank
Ġl it
he el
s r
Ġd uty
ĠHung arian
AR RAY
d elegate
Ġin duct
C annot
* ,
ĠAl liance
=" {{
no frame
red irect
ĠRail road
" ])
Ġinvolv es
U nd
ĠArk ansas
ĠR ugby
is o
ĠSh ah
C UR
: }
189 4
Ġs we
s ure
Ġcustom er
189 1
ĠF ight
Ġ å
Ġm it
ane an
Ġ( #
Ġint ention
ĠCommun ist
il st
Ġsy nd
l arg
Ġproduc ers
b est
Ġadapt ation
Ġkn ew
cp u
L i
ish ing
Ġcarry ing
Ġcustom ers
med ium
D ITION
t v
ĠSe ason
ĠTh ailand
Ġpass engers
tra its
iver pool
Ï Ģ
Ġis instance
P lease
Ġoffer ing
Ġun us
Ġunivers al
Ġcli ents
trans late
end ment
Ġm ac
Hash Map
elastic search
Ġconnect ing
Ġpen alty
apol is
ĠPl ant
Ġsing ing
dis patch
pop up
an ian
et r
Ġto kens
U A
Ġvict ims
Ġscient ists
re ason
ateg or
Ġca ref
ĠTam il
188 5
Ġsevent h
ĠR io
Ġequ als
18 60
Ġbo ys
g raphics
ĠMet ro
Ġoper ates
Ġarch ae
Top ic
oust ic
Bit map
Ġrepresent ations
Ġcrick eters
ĠB ush
ident ity
Ġdiv isions
ed ing
ĠIN TO
al gebra
up dated
ĠOC aml
Ðµ ÑĤ
oriz on
periment al
ĠG irls
get Attribute
n l
Ġsatisf ying
w allet
Function s
Ġ ^{
Ġdepend ency
ĠMor ris
par allel
c x
Ġb es
ĠDe an
ĠSever al
ust ries
Ġaccom pl
ĠOtt oman
ĠL ower
Ġro oms
Ġman ip
Ġpop ulations
Ġuncertain ty
ar ith
Ġre in
O cc
ĠK elly
IN CRE
fa iled
ĠT OP
th ree
ox y
Ġessential ly
Set s
set Attribute
ĠB ull
os er
t frac
Ġass ault
Ġgr avity
Ġmed icine
f am
View Controller
ĠMet ropolitan
plement ed
Ġleg islation
Ġher o
Ġman uscript
mut ex
ĠRog er
ev a
C ountry
al ph
Ġdep ict
b ach
bo th
ĠUp per
Ġmolec ular
Ġkeep ing
Ġste am
ĠU tah
Rober t
Ġstudy ing
Ġwrap per
cast le
N ON
Ġem otion
big r
mult ip
ĠW ard
Ġret ained
ĠStew art
çĶ ¨
Ġm ine
par agraph
}{ (
Ġapp lies
ĠMc G
L at
Ġre vers
I l
ĠB etween
erial ize
Rece ived
Ġsubstant ial
ĠHamp shire
Ġpremier ed
Ġunivers ities
Ġne arest
mar shall
ĠWIT HOUT
ĠG las
Ð¾Ð »
m ate
Ġclos er
Ġinstr uments
ĠBalt imore
h alf
ĠCh ampion
Ġground s
c v
ĠW ol
pre pare
Ñ Ĩ
Ġpers pective
ĠHung ary
ĠC F
Ġarr anged
Ġwas n
EX PORT
min ipage
c ached
Pol itical
aud i
Ġs now
ĠCh amber
ĠT s
rb an
ĠK on
ĠF el
Ġfl u
ADD ING
ĠC rown
ĠM organ
ĠP ad
Pro of
ĠMc K
att ach
Ġv ision
Ġpack ages
Ġequip ped
ĠM IT
ev ens
uff alo
Ġin structions
ĠRuss ell
ĠCo oper
Ġsever e
Ġm acro
iv ia
pan ic
Pre vious
it err
ist ogram
ĠS R
ĠP atri
j or
188 8
St ation
ĠH erm
Ġm ail
He alth
Ã¨ re
ĠSchool s
Ġt f
ĠN elson
ĠMarg aret
Ġaccompan ied
Sec ret
ĠSystem s
rib uted
ch at
Ġassist ance
Ġpract ical
Ġrest ore
M ix
SP AC
C amera
ĠCamp bell
Ġdecl are
b ai
ĠK ings
ĠJos Ã©
Ġremain der
LA B
ĠJoh ann
S UB
ane ous
ĠO d
Ġagric ultural
ĠBo ys
Ġs elling
le e
Ġk w
ers et
ĠWeb site
op am
Ġc ertificate
_ -
ĠB Y
Ġex posed
Ġf ear
Ġrad ial
ĠRoman ia
ĠF ive
Ġequ ilibrium
Ġnormal ized
ĠH it
ĠGener ated
k an
not ification
Ġlog in
Ġte en
seg ment
âĢĿ .
arg v
Dist ribution
ĠOrgan ization
or ce
(" .
ĠY an
g un
Struct ure
c odec
H ol
ĠAl fred
ĠA P
ins ula
S eq
ĠTh or
ĠSt and
id i
op ol
sp i
to Equal
as is
P ush
ĠPit tsburgh
ĠB asic
Ġmar ine
jack son
Ġh a
ĠO P
Ġsh adow
Ġval ley
ĠTr ade
b re
ĠFr iday
avel ength
Ġgener a
F actor
Ġres ign
Ġstre ets
at om
iz z
clud ing
ss im
Ġnorm ally
ĠOrth odox
10 7
ĠBangl adesh
Pro c
iss on
ĠP ho
el lect
includ es
ĠC ook
ĠAust in
ab a
ab i
AP P
u ary
T ry
Ġv ec
5 12
Ġwhe el
Co ord
B ur
ar us
St age
STR U
Ġr aid
MP L
Ġform ing
Ġcolon ial
ut ter
h ai
E lect
bo y
Ġtr im
Ġprov ision
Ġsur pr
Ġathlet es
A ir
A SS
Ġhard ware
gu ide
Ġfranch ise
9 00
ĠA gric
SP ACE
ĠMar ie
Ġext reme
ĠQ ual
Ġwith d
ĠThom pson
ĠA rena
Com ponents
Rad ius
ĠE mer
Ġretriev e
Ġsurv ived
IT LE
ĠTR UE
Ġ======= =
pos ure
i ang
Ġ' ,
ĠHash Map
H ave
ĠT YPE
ĠAuthor ity
ĠPro gress
isl ature
ĠB ird
ort on
19 2
P ut
= &
ĠS S
Mod ifier
Ġann iversary
Ġg one
Ġspe ak
Ġcrow d
ĠG ray
O FF
en o
Ġbenef its
IN IT
Ġun iverse
Ġm ilit
tr ain
55 5
ĠPro duct
ĠW rest
fin ite
ĠVi enna
Ch o
r ish
ĠRef orm
ĠZ one
project s
Mark er
tim eline
Ġgener ating
Ġclos ing
aval ry
a que
ĠH eb
ĠD ie
se p
her ent
char acter
J une
Ġbuck et
att an
Ġcontr ad
D Y
ĠMur ray
Ġliqu id
m al
Ġexper iences
SS AGE
Ġdr iven
ĠOther wise
N eg
ĠT witter
Ġdef ensive
" ?>
Ġnecess arily
re present
ers h
Ġrapid ly
Ġlic ensed
ĠEx pression
ĠP FNGL
ĠB eck
ĠN eg
Qu ant
Ġincor rect
Ġhypot hesis
Ġt er
Ġb ond
() [
irm ingham
Ġnorth west
Ġrail road
Ġrob ust
ir ates
_ [
ograph er
ĠC it
ĠC atal
ĠC leveland
ST ART
ump y
lection s
O ctober
Set up
ĠE ff
m aker
ĠW right
ĠMod ule
$ :
edd ing
Ġg ang
ĠR u
olv ing
SOUR CE
ĠBe at
j amin
ou ver
> [
ĠS ac
F ace
ĠD CHECK
Ø ¯
ill o
Ġent ering
Ġview ed
Ġsph er
sche mas
sur face
Ġdiam eter
ĠLic ensed
D ig
ĠJ un
Ġdis p
Ġillustr ated
Lin q
Det ector
ok er
ĠCom ics
ĠR y
Work er
ĠOr leans
Ġor b
st roke
Ġr ap
Ġeven ing
Al ert
ĠSt age
Ġvis ibility
ĠDe ep
pro duction
ĠB ORDER
ant i
f ilters
Ġb low
ĠH ell
Ġrestaur ant
B ACK
int o
Data Type
Match er
ĠH il
Ġt imer
+ "
ĠA BC
ĠKar l
ĠK IND
ĠT oken
Ġad mitted
ipp ing
es c
Ġshe et
Ġ à¤
F etch
ro se
ĠBern ard
Ġm eters
Ġb anks
Ġhel per
enc er
plic a
Ġpost ed
S chool
Ġdemonstr ated
ob a
Ġkn ock
ĠA lice
a ui
}} )
ĠGL int
F oot
Dest roy
ĠL evel
ĠO ct
ĠL ane
ĠBro thers
ĠDate Time
ĠR ic
/ )
Ġdi agonal
ĠN i
ast s
Al pha
or o
Tr igger
late st
ĠCon vention
Th rough
C he
Ġf est
ch anges
Mer ge
A fr
Ġc ro
met rics
az ure
Ġmy th
Ġf ib
B ul
SUC CESS
ĠYear s
Ġf oo
Sh adow
G RO
Ġisol ated
S n
ĠF oot
t le
Sub scription
ĠT ak
Dis k
ĠL ith
\ ;
Ġdeb ate
d td
new s
ri el
N umer
G RA
iber n
Ġpres erved
ud son
J s
p ending
value Of
Al t
G M
Ġg it
Ġdam aged
tool bar
Path s
Ġt ight
OT TOM
mir al
ĠSar ah
c od
Ap pe
188 7
Ġh ook
s ent
Spe ed
Ġh ill
ĠLeb an
Ġm oth
Ã¶ r
Ġinstall ation
I ME
Ġt y
Ġhead s
A pril
Ġecon om
Ġnot ably
Ġgr ass
Ġeas ier
Ġhe ar
Ġst ood
æ ĺ
MAC RO
Ġ} ),
Ġsound track
b ird
] </
Ġc orn
add ed
ru ction
rop ic
set Text
Ġsu it
N P
Ġdecom position
Ġcour ts
ĠM atch
! =
SS ION
}\ ,\
Ġ< ?
Re pe
D im
Ġpand emic
Ġes c
t ele
ĠSt udio
Ġven ues
ĠH end
ĠEcon omic
br as
' +
Ġ! !
B i
Ġat omic
CR IPT
A MP
av ers
Ġre nt
Ġtra ject
Ġresc ue
Ġsh ares
Ġsam pling
Ġconcern ed
Ġcor rel
ĠP rom
ĠKenn edy
Ġdel ivery
^* $
start s
ĠH um
18 65
ĠPe ace
Ġ" );
ĠAd ams
ĠW HERE
task s
ĠR ural
Ġ// !
Ġmark ets
ancell ationToken
ĠLank a
Ġdep uty
e i
Ġweek ly
T ip
set ting
th ere
Ġg ate
ul ner
M F
Ġb os
ĠPh ot
um ed
Compar ison
Ġm ental
us k
Oper ations
db c
Ġembedd ed
Ġm outh
ĠV enezuel
p aces
Ġcent ers
Cont in
Ġsign s
ĠR ender
pro fit
we ak
Ġaccess ible
Ġtun nel
Ġrespons es
Ġt ied
ec onds
ĠB O
iterr anean
- ">
Ġdi agn
Ġpaint ers
Class Name
Ġsm art
Ġdecre ase
V O
FA IL
Ġsepar ation
> .</
ul um
SL S
Ġenc ode
int s
Ġreg istration
ley ball
Ġm m
Ġconf idence
J uly
g c
Ġille gal
TER N
REQ UEST
ĠChrist opher
Ġland scape
Ġc ited
Ġdeterm in
ĠM C
K ernel
ĠRob inson
Ġrele ases
se cret
i ors
MEN TED
ins ic
× Ļ
ĠCEL L
C ertificate
Ġs lice
cul ate
process or
g p
Ġder ive
Ã ½
Ġt s
Ġcancel led
Ġent ities
MA GE
Stat istics
Ġj ourney
Ġhead ed
ĠWhe ther
apt ist
10 9
ha us
Ġfem in
ĠCap ital
les ssim
ĠNS String
path s
Ġfile d
Ġresearch ers
th a
Ġo x
ol t
Ġhand led
des cribe
Ġcompos ers
se ed
C SS
ĠV ik
Se ptember
Ġoccup ation
ib ling
Ġnot ification
SPAC ING
ĠM aine
app y
Ġoff ensive
b ucket
Ġend if
__ .
( `
ĠYou Tube
at ile
> {
N ECT
Ġorgan isation
Ġleg acy
Ġemer gency
as hes
ĠG ulf
Ġc raft
Ġvari ations
et ition
st ri
` )
ter y
st ub
ĠB AS
H om
Dist ance
Ġrecover y
ib ilities
zer bai
Ġs urre
Ġs a
ĠT an
Ġdis patch
attr s
Ġteach ers
ep age
Ġresident ial
op ens
ĠA qu
Lower Case
man ifest
ab stract
2 20
iv o
br anch
ĠMem bers
="@ +
Ġround s
Sc ene
T own
yn opsis
Ġinter pol
ĠC er
ĠDak ota
ĠEnt ity
u art
ĠS eg
max cdn
Array s
sl ash
it i
Ġsk y
li x
ov iÄĩ
Ġart ifact
Don ald
L and
Ġcon tribute
ĠâĢ ł
ult an
ĠK u
Sl ot
P rom
ĠCent ury
æ Ī
ĠL I
Ġeval uated
ate st
ĠR ot
3 50
ĠPr incess
apt ers
c z
Ġjud ges
sub Nav
Ġmanufact uring
tr ivial
ĠOn line
l ined
Ġadd s
Ġsuccess or
ific ial
Ġs in
ĠColon el
sub string
Ġc od
Ġpoint ed
ĠFrank lin
W ar
sample s
c amel
10 8
g lob
Ġnav al
ĠÐ ¸
Ġth anks
11 4
App Compat
Ġgr avit
188 6
Ġassum ptions
cook ie
ĠL iverpool
14 4
Ġmark er
Î ·
c ia
>( <
i ac
b ishop
Ġv eget
mar ine
back s
et he
Ġsimultane ously
em en
ĠGr id
Ġprocess ed
c sv
="../ _
ĠD allas
ĠMethod s
f iction
B ER
ĠJ u
ul u
parent Node
Ġa ux
ĠU pon
and al
Ġquant ities
u able
f are
Ġr ivers
ĠMark et
Ġbring ing
Ġrender ed
po i
ĠVer ify
is ons
S rc
ĠN am
Ġhelp ing
Ġpaint ed
Ġprison ers
\ }$.
fact or
ĠInd eed
C la
et ary
Access or
Ġrequire ment
mark er
ĠSen ator
un iform
scri ber
Ġfru it
ĠAr n
ymmet ry
,\ \
ĠM ak
10 6
Ġ} ).
Ġ. =
Test ing
it Hub
script s
Ġreg iment
Has Been
È Ļ
WA RE
Ġl l
ĠĠĠĠĠĠĠĠĠĠĠĠĠĠĠĠĠĠĠĠĠĠĠĠĠĠĠĠĠĠĠĠ ĠĠĠĠĠĠĠĠĠĠĠĠĠĠĠĠĠĠĠ
... )
J anuary
t uple
T X
Un ique
Ġrac ial
Ġj uris
Ġbeaut iful
ĠTh ough
Ġsens itive
LP ADDING
Ġn ested
+ (
Ġincreasing ly
5 000
ch t
cl ock
Ù Ī
ĠBrook lyn
Ġsub scription
v ee
v ature
Ġd ating
Ġcomple ment
Ġsort ed
ĠGra ham
ro v
D one
ĠM ong
Scal ar
ne ur
Tool s
Ġalign ment
ĠR ain
. ")
ĠW oman
Ġth ank
aw t
a ac
ĉ ĠĠĠĠ
ĠM ack
ok a
cond itions
ustr y
Ġimpr ison
ous el
Sche me
Ġdire ctions
ĠCELL SPACING
M IT
Ġmaint enance
ĠR ico
Ref lection
ĠCEL LPADDING
Ġcomp re
Ġb on
Ġ" _
ĠEx pl
ĠR ud
ĠMov ement
he ets
TableRow Color
Ġaut hentication
Capt ure
Ġ" ;
File Path
}) }
Ġrepe at
Ġl ose
Ge orge
ab et
end a
"/ ></
Ġa cknowled
Trans fer
ĠInitial ize
as ma
ĠS ession
ĠM obile
Ġan notation
Ġat om
om ing
S al
Ġmem orial
Ġt ip
Ġag encies
atur ally
D ict
form al
Ġs napshot
Ex it
ãĥ ¼
ĠW ing
N eed
Ġfac ilit
Ġex pr
ann on
ĠSh ar
Ġhabit at
ĠM aj
Ġg arden
T K
r uct
Ġtop ics
ĠAthlet ic
order ed
è ®
P adding
ĠLim ited
Ġchalleng es
sl ant
X Y
Ġpopular ity
Ġbelong ing
50 9
: &
Int ent
Ġcom ed
Ġd ens
w alk
ili ary
un ately
ĠCar ter
Ġher itage
pan ies
ĠC os
R GB
form ing
Ġs wit
Ġlocal ity
Ġ" #
Ġassum ing
Ġhe lic
f our
Str ip
Ġ" )
e enth
$ _{
Ġsc an
ĠW ed
Ġdecl aration
Ġ$ ('#
ĠN ord
CD ATA
ĠVAL UES
ur ers
ĠT ournament
ĠEd ition
Ġme ets
Ġf urn
d ag
Ġpost s
Ġpr on
Ġconfig urations
he x
ik o
ĠT ob
hens ive
Ġim pl
ast ery
Sh arp
Ġr c
ol ia
Ġse es
Re place
Ġman ual
sh aped
struct ed
min ute
ĠÐ º
Ġdeb uted
. :
ag re
let ter
v est
Ġener gies
ĠB asketball
Ġcho ices
ubern etes
Ġneut r
Nov ember
Ġmarket ing
18 64
Ġprec isely
Ġrank ing
ĠElement ary
Sc an
depend encies
Ġs essions
ĠM eg
ĠCar ib
Ġman ifold
ĠN ad
us age
anc ouver
Text View
sc an
' },
D ry
long rightarrow
d ale
ĠB ud
ĠSt op
ĠÐ ´
Ġimprov ement
Ġopport unities
over flow
ĠMad rid
Ġprint ed
Ġo vers
ĠR O
pack ages
inv oke
ĠN BA
ĠE dd
ina e
Read y
Ġw ounded
M ont
Ġmag net
Ġlook ed
u eto
gener ic
p al
Ġcritic ized
et c
m anagement
With out
] $.
usal em
em ale
FFFF FF
ok ing
ĠString Builder
Rev iew
id en
Bl ue
Europe an
Ġremov es
t ies
Ġf ault
ĠBr anch
: %
:: $
Ġsat ellite
ĠPro perties
ĠF ont
Status Code
ĠJim my
ĠB ag
serv let
'] ))
Tem p
Ġpublish er
S ent
Ġj unction
l ater
z ym
Ġpost er
w right
Ġthe ater
ĠNew ton
writ ers
Ġun success
D ao
Ġmov ements
ĠO blast
}} .
Ġp ian
Ġup load
0000 0000
Check ed
ĠEv ans
claim ed
Ġpotential ly
B usiness
Ġenh ance
re ck
ĠL eft
ĠS ax
lot te
app ings
S ig
S PE
Dem ographics
ĠConserv ative
HasBeen Set
ri er
Ġactiv ist
Al umni
ĠPort land
t age
18 61
W ORK
18 50
met ric
Ġsl ave
pag ination
Î »
un ion
h um
w ave
188 4
Ġst ead
es cape
on ed
ĠCh allenge
Ġrece ives
urrican e
Ġpan els
ĠGr ad
C over
] ['
Le ague
Ġcred ited
De cember
ĠK um
le te
ter ior
Ġaut hent
Ġin clusion
Ġen umer
ĠP ictures
En tries
Al gorithm
$ {\
le tt
Ġunder stood
Ġtown ship
Ġc ous
ĠL L
ĠAthlet ics
Ġc yl
ĠS ize
Ġall ocated
Ġsignific ance
Ġexpl ore
Ġprov incial
ĠMin or
Ġc rown
ab e
Ġspe aking
ĠM achine
ber ry
f ac
Ġd uties
Ġp m
am pton
Ġoutput s
ĠH AL
ra ig
Ġkey board
Se ason
et ry
L ow
ch rome
cont ainers
ĠT arget
m usic
Ġf itted
Ġcl er
Ġann ounce
M iddle
Ġjournal ists
com ments
ĠPref ecture
it ime
is i
Ġm oments
uk a
Ġcritic ism
V P
Ġland ing
ĠMunicip ality
Ġs ail
=- =-
Ġnot ion
Own Property
J ew
dis k
Ġappro val
ol ute
24 0
draw able
id ency
ĠJud ge
Ġreport ing
ĠNaz i
Ġbe ar
Ġro se
TEXT URE
Ġsimilar ly
qu er
Ġfinal s
ĠE ss
per cent
H D
Ġp ray
Pop up
AND LE
Ġph ases
ab ul
Ġpro sec
Ã Ł
@ {
Ġh ip
) })
ak u
Cons ider
ut r
ĠP M
; %
ãģ ®
ueto oth
Ġcoast al
t own
)) \
ĠMult i
andid ate
Ġvary ing
Ġd ele
Ġpred ictions
Ġsouth west
ĠB SLS
Ġsub mitted
umb ent
Trans lation
Ġcre ative
d ataset
n m
Ñ ħ
co hol
T or
ut ation
ĠB reak
ĠĠĠĠĠĠĠĠĠĠĠĠĠĠĠĠĠĠĠĠĠĠĠĠĠĠĠĠĠĠĠĠ ĠĠĠĠĠĠĠĠ
ÑĢ Ðµ
E r
st reet
In ject
P ending
s ources
ĠI ce
Ġro bot
ĠGlas gow
ĠĠĠĠ čĊ
Ġtop ological
B etween
i able
r ides
ĠEx change
ith metic
Ġp ip
ĠGu y
ct ors
Ġconvent ional
Ġthem es
ĠK ur
ir ical
p ond
flu id
ĠUs ed
Ġturn ing
T om
Ġprot otype
ĠStan ley
ĠYork shire
Ġpro files
Az ure
Ġden ied
Ġnewsp apers
." ;
;\ ;\
om atic
Ġest imation
ĠW ind
Al bums
Ġstar red
Ġdefe ating
or ate
z oom
ĠG raph
Y our
ĠMo z
cl osure
Valid ate
Ġattrib uted
Ġbusiness man
Ġsud den
Ġshe l
Event Args
f v
ĠMod al
Ġstr uck
M art
O k
Ġst uff
Ġmay be
F ire
Ġsee ing
Ġsuff ix
ourn als
Ġd atasets
em pl
U AL
A K
ĠL ud
Ġconsider able
Load ed
Ġcos m
b ounds
Ġcomp ens
back end
ĠLe ad
ir k
duc ational
ĠP UBLIC
Ġrecip ient
Ġp in
Ġ} {
ĠCon sole
****** /
p ine
ĠB irmingham
Ġt all
188 1
Vari ant
ab b
Up per
Ġexception s
empty set
C amp
g ather
Ġconfig ured
ili ar
ĠC HE
d al
H ello
Can vas
Ġcoll ision
Mult iple
W arnings
Span ish
S ound
ĠJ ason
OB JECT
i ot
or ia
Ġrestr iction
^^ ^^
ĠJ azz
Constr aints
G ateway
Ġautom atic
Ġac qu
L ite
Ġmov ies
Ġvess els
ex tract
Ġsynchron ized
umbn ail
IN DEX
Ġrecover ed
Ġs ink
ate ver
Ġbr ig
Separ ator
ĠCon nection
3 000
Ġentertain ment
Ġb ases
im o
ĠCat hedral
Fore ign
ge on
Ġelim inated
Ġcomm une
U V
ĉĉ čĊ
look up
ĠCon st
Dec oder
oc o
Vis itor
m ates
Ġdec ide
c ord
op acity
Ġvis itors
Ġattr s
ĠS r
h is
ĠFI FA
SER VER
Ġqual ifying
? (
Ġut ility
ĠDef ence
ge bras
sign al
dir name
initial ize
= .
f w
Ġfriend ly
respons ive
ic he
-------------------------------- ----------------
Ġgeneral ized
ĠB ible
m und
Ġqu asi
Ġwith draw
stit u
CO UNT
? </
ĠB illy
en berg
ĠH ero
C lean
Ġin fl
ĠCon n
ĠH ost
ĠE sp
Ġlong est
Ġre aches
RE NT
FORM AT
V C
om al
ĠS ide
Ġappe al
ĠN ar
gr pc
Ġpo em
Ġp overty
Ġrele g
h base
im ir
J ack
Ġde ployment
Ġc up
Ġsusp ended
C ritical
ĠBelg ian
T ensor
c ref
18 63
spec ies
ĠM ars
Ġqu ark
Ġcount s
) &
ĠC E
Al so
Ġv oting
() ]
b t
og a
Ġ\ ]
ĠS W
Ġbr ick
188 2
Att empt
u ke
Ġinv oked
! \
STRU CT
Ass ign
C ookie
ĠGL enum
T ur
h attan
ĠCarl os
Ġag gregate
Ġl ibraries
ĠW atch
Ġlocal e
default s
* >(
Ġdistingu ished
E very
over ride
ĠP or
Ġviol in
ĠMatthe w
ĠSt ars
Ġg rown
ic ht
ĠM D
ra ham
re pre
ut o
Ġd s
Ġchild hood
az el
Ġdec isions
Ġsur faces
S il
> ../
P icker
Ġto String
ke leton
ĠHawai i
Ġmax imal
à ®
Ġat oms
ĠO ptions
Ġlook up
h us
n able
B D
d m
Ġs ight
s am
av i
ĠPr imary
! (
P G
erm ont
' ):
Ref resh
ĠC lose
pro f
Ġd ress
ĠBl ues
Ġcould n
Ġoper ational
ĠNiger ia
á º
p ipeline
ĠT ower
ĠJ e
) }_
P ress
pr ice
Person nel
Ġm ath
1 18
Ġref resh
Ġcal endar
Ġso il
ĠO wn
ĠTro phy
xy gen
Ġab use
Up dated
Ġguitar ist
ex pl
Ġelect ro
FRA ME
allow ed
ĠY ugosl
dr ag
p od
sh arp
ĠNorm an
Ġacc ord
f aster
Ġw ine
G allery
if le
18 62
E LEMENT
ĠL abel
Ġt ile
stream ing
c aret
187 8
ME SSAGE
RO OT
Ġpresent ation
separ ator
to LowerCase
Data Source
Ġtop ology
vent ory
Mod al
Ġphot on
ĠK os
Ġvar iance
Ä Ł
ent ries
Ġmed ieval
inst ein
ĠD A
Ġdemonstr ate
, {\
ĠG ary
ĠFle et
T l
Ġsh aring
ĠC ass
ic ates
ĠW ait
re z
Lem ma
188 3
ĠU E
ĠC ache
aj a
Pay ment
B ucket
Ġn ations
ĠG ot
) >
{ |
at able
Ġarch ive
) *
B lob
ĠT EST
Ġadv ice
v y
Su ite
ĠC L
Ġdef orm
ĠSpe ed
pt s
] ).
am ar
Ĩ Ĵ
Ġdec line
\ )
AR GET
Dest ination
Ġfl ash
ellect ual
nc ient
ĠRes ources
Ġmag azines
Mich ael
Ġcompet itive
Ġart istic
Ġmin i
U UID
writ ing
tr ait
ant ed
i ator
ĠE C
d frac
Ġstrateg ies
op les
Ġsp end
ham mad
Ġspirit ual
Comple tion
Stack Trace
ich i
it udes
Ġcompet ing
ites pace
och astic
om on
Ġstruct ural
h p
ĠSer ge
Ġgreat ly
S ever
He ap
ĠRich mond
Ġpres erve
Ġpeak ed
ĠWay ne
ĠĠĠĠĠĠĠĠĠĠĠĠĠĠĠĠĠĠĠĠĠĠĠĠĠĠĠĠĠĠĠĠ ĠĠĠĠĠĠĠĠĠ
Ġsurg ery
A lex
Ġda ughters
Ġflow ers
ĠPol y
ĠJer usalem
Ġst y
ĠCr icket
Ġthread s
A U
Ð ±
ĠJohn ny
sl f
18 75
t one
Ġret ain
}[ \
ĠThe ater
ak ia
Ġcontin uing
="# ">
Ġd ot
ĠR ub
ur u
ĠN ation
Ġmach ines
the ad
ĠR angers
WR ITE
ĠUn less
Ġv ic
M ail
ĠPr adesh
CH AN
Ġappoint ment
ag netic
0000 000
æķ °
nos cript
ĠR and
p k
Ï Ĥ
en vironment
ĠB aker
Ġcelebr ated
Ġm s
Ex cel
ow s
Ġ" +
Block s
am o
U ntil
ĠS SL
ebr aska
b n
ĠSoc cer
Ġembedd ing
et on
pos er
m ust
quest ion
Ġf erm
ĠF er
12 4
inet ic
Ġan cest
ĠNov a
ch arge
our t
t ol
G ood
Ġst ayed
H en
c ost
Z oom
V R
block s
ĠS cal
Ġconserv ative
Ġfiction al
T imes
ĠC S
Th ree
ref lect
ĠL iving
Ġre start
ĠElect ric
Ġs v
g ems
Ġhundred s
ess aging
ĠBroad way
grad uate
ĠA ld
Ġp refer
Ġdef ining
ĠParam eters
s ocial
ĉĉ Ġ
Ġhor ror
ĠIm port
Br anch
ĠZ end
Ġcirc ular
Ġamount s
B T
Ġst ub
ue z
Ġord inary
="# "
S mall
al ym
iv an
sub scription
Ġreg istry
100 00
Sim ilar
ĠWh ere
Ġre putation
ĠCON FIG
ĠC ultural
Ġas set
ĠM ans
sp ark
mark s
Rel ative
ĠH orn
Ġpublic ly
Ġident ification
ĠR aw
] $,
H am
ev ed
ĠTra il
Ġrom antic
Ð¾ ÑĢ
p n
Ġconfig ure
vel ope
Ġp ole
render er
ad apter
sub scribe
Equal To
Ġf at
og ue
sp ir
P ipeline
F i
Ġen semble
Ġmount ains
ĠG ET
ĠFl ore
w ind
Ġwe ar
Ġcomp ile
Ġfish ing
ĠMit chell
Ġwhen ever
Ġstrict ly
ĠN othing
Conf irm
Rece ive
st ers
Ġas c
Ġem it
ĠWar ren
MACRO INCRE
hash Code
Ġrecon struction
ordin ates
Ġsust ain
ĠClass ic
l ag
ĠSp irit
Ġpres ents
MACROINCRE MENTED
ounc ill
Ġapprox imate
act ical
ro tt
qu o
ĠN eed
ĠAl aska
Ġhe x
Ġfil med
ĠE ston
Ġover se
member NameLink
ĠS cript
Com plex
ĠAss istant
Ġmiss ed
ĠAppend ix
b ors
l ings
Medal ists
ĠMil an
Ġmark s
Back end
M obile
ĠDel hi
c ourse
Ġforest s
Ġexist ed
t b
in ating
ĠPier re
Ġdisc ipl
at ivity
ĠO pt
ĠB OTTOM
SH A
I ll
it ely
Ġv ast
Pay load
} >
ĠMont e
app oint
ĠCons ider
Ġexp ensive
MS G
Ġf o
Reg ular
Pe er
decl are
ĠF ilter
}) =
ur ring
Ġex clusive
Def ined
ĠE U
inn ed
is co
f olk
X i
cript ors
L D
Ä Ļ
Ġind ent
ag ement
r and
Ġelect oral
Ġsph ere
ĠFinn ish
le af
ĠS ymbol
Ġvac uum
ĠSal v
D an
Ġexcell ent
187 6
Sec onds
Ġcred entials
ĠS ET
enc il
ĠAt tribute
Ġbl ank
Un ivers
âĢĿ ,
Ġreli ef
Ġwor st
if ference
... ,
Ġg iant
Ġne ural
ov en
trans fer
ĠAnd y
Ġass ass
Ġthink ing
' =>
ĠPol itical
size of
reg istry
\ ":
Ġim possible
r ub
Ġ ../
ĠSt orm
ĠR acing
ĠW olf
Ġparticip ation
==== =
H AS
Ð¸ ÑĤ
Ġindependent ly
Ġvis iting
ĠWrest ling
Ġnon linear
ĠF low
uc ed
Ġis omorphism
roll ing
ĠPer formance
Cred entials
For ce
s ock
For ward
M esh
e or
S ol
è ¡
Pr ice
G l
Ġpre gn
Ġpy thon
ĠSerb ia
An notations
Ġcomm em
ĠY e
Ġgen re
Ġmechan ical
Ġremov ing
Ġr hs
( []
ĠI an
ĠMem ory
Ġexhib it
Ġsurround ed
tr ansp
ĠF ine
ĠB ey
Ġch rom
fav icon
Flor a
Ġ' ')
ĠInd ians
" }
(" <
rol led
ĠPark er
help ers
Ġcorre ction
Ġprincip les
G old
Ġm atters
Ġtransport ation
con duct
part ition
ir ms
ĠF alls
c py
Ġconcern ing
Ġoccasion ally
g em
or f
In jection
Ġon going
Ġking dom
press ions
Ġcon front
Ġrep ly
Ġmed als
M ov
Ġb ars
DITION S
ody nam
Ġaff airs
Link ed
U int
Java Script
st ad
ĠB row
Ġfrequ encies
ig ible
d v
Ġsche mes
first row
ĠAlber ta
S lice
ibern ate
ke ley
Ġelement ary
ĠB ody
OR S
$ };
ĠW a
G raphics
ĠW ang
Ġdeploy ed
ij ing
ĠTig ers
op al
F B
om m
ph ere
Ġcount ies
ach i
S heet
ĠCl inton
L ou
build ing
Ġperson ality
ĠF err
ĠY ang
ĠSh a
ĠQ String
AB ILITY
ĠBen jamin
---- ---
187 1
U Int
]( #
Ġsu icide
ur se
ĠF ound
i ota
Ġcon sequ
Ġpo ets
Ġdimension al
Ġen vironments
per ature
ĠConf eder
ĠRem arks
R outer
Ġseek ing
Ġapparent ly
MA SK
Ġ// -->
LIN K
ĠCom puter
ĠR AF
ĠGu inea
.... ....
ĠH old
ĠT i
Ġf aces
13 5
å ľ
ĠCHE CK
Ġinj uries
ym an
ĠK an
Ø ª
af ka
Ġg rey
Ġreve als
] *
}} ^{\
ĠC C
Ġrepresent atives
St yles
comm unic
Ġarray s
duc ible
des criptor
Ġob server
ĠAfghan istan
Al ignment
ĠM aced
ĠU g
18 00
second s
f un
Ġ# #
FLA GS
Ġcru cial
oth y
bour g
Ġwrap ped
ĠV I
Ġtr unc
ĠCarib bean
cred ited
ĠF itz
ect ive
Ġfrequ ent
ĠCh ron
Ġasympt otic
Ġm igration
hol m
âĶĢ âĶĢ
ĠBar bara
F ill
18 68
Ġmon ument
t an
Vis ibility
Ġ urg
Ġlist ening
Ġpick ed
Ġbe ach
18 77
hy thm
ĠProf essional
Ġconcept s
Ġrestr ictions
D imension
s ame
18 67
min a
}) ^
Ġperm itted
Ġsil ent
ed a
$ &
Ġne uro
Ġre duces
FT WARE
f uture
iv odes
ĠG P
il ty
ĠA zerbai
____ ____
Ġtrans itions
ent e
ĠG reater
H ook
}} }\
Ġdevelop ers
AT URE
Ġd ol
ĠDis play
187 9
il ia
ĠI van
non atomic
Ġlocal ized
ĠNev ada
ĠB egin
ĠMed iterranean
Ġtext s
ĠV ancouver
Ġst im
An chor
ort ed
Ġnom ination
Ġmunicipal ities
Ġprec ise
R B
ĠCl ar
ĠJon athan
m icrosoft
ĠB es
C ould
S pring
ish ment
Ġh osp
b x
ig s
Ġweek end
Ġremov al
Ġinvolv ement
Ġregard less
ĠZ e
ĠColomb ia
g ui
ĠSte el
Ġh orses
List eners
ĠCommunic ations
Ġp sy
P ref
end ers
ari ans
Ġtransform ed
o j
og onal
Ġportr ayed
{ },
ĠEgypt ian
Ġdef ence
sl ider
ĠH ope
cel ona
W alk
r x
ĠR ap
Ġvir us
Ġharmon y
ben ch
ĠTe ch
Ġswim ming
ĠBAS IS
Ġd ated
hold ers
p read
æ Ĺ
ĠH iggs
Å Ļ
Ġequival ence
Ġs alt
ĠM atrix
ĠĠĠĠĠ Ċ
}} _{\
t ility
ĠPer u
Ġstream s
Ġadvert ising
win ning
Ġbeh alf
oped ia
B road
ff ee
} ~
in verse
Ar r
NG TH
Ġd ashed
Th omas
11 3
Ġdep icted
if ting
] ),
Ġw avelength
ivodes hip
og s
ĠCON DITIONS
C V
Ġinflu ential
Ġre ward
Ġinterpre ted
arian ce
faster xml
Ġfall ing
ĠF light
sl ot
Ġchampionship s
pack et
Ġdis contin
V EL
ĠP erm
onom ous
Ġg rows
Ġsp ending
he ta
c atalog
ĠPack age
F ar
S afe
ĠBor ough
Ġexerc ise
ĠI L
Ġtrack ing
t bl
oid s
att en
al ia
Ġmiss ions
Rep ly
ver b
Ret ry
Ï ħ
text area
Ġexped ition
mod ifier
Ġn est
Ġsp oke
mult iple
ĠLu ther
ĠU SS
Ġdr ugs
Ġwood en
ĠChar lie
M X
window s
or ous
m any
end region
Ġsup ers
d ump
und les
ĠR ace
ok u
Ã§ Ã£o
Ġd owntown
Ġas semb
Ġ"- //
ag h
ĠâĢ ¢
Ġrep o
Ġperiod ic
} |\
ct rl
ĠA uth
St d
ĠAl bum
Tax a
Ġw et
ind ices
Ġqu ot
Ġhapp y
å Ľ
Ġdecl ined
Ġpred ecess
Ġel der
ĠS even
Ġextract ed
Ñ Ī
Ġcolle ges
ot ton
mod ified
develop er
st eps
Ġtrad ing
ch arg
C ross
cor rect
uc ene
Ġcouple d
ĠM ix
3 20
ĠBar ry
ĠV egas
d iction
lo be
ĠS ave
ta x
//////////////////////////////// ////////////////////////////////
Rec ords
Ġbreak s
ĠB ound
ĠHind u
Ġclin ical
an ne
C a
me asure
Ġre ducing
Ġinteg ers
ĠDer by
t un
Sur face
Mo ths
Âł Âł
Ġcheck ing
c as
ier ra
Ġhistor ians
ĠMond ay
Ġhy brid
i per
ĠW ord
F ake
ĠB urg
or b
ĠV ic
ĠBr and
Ġmount ed
Hon ours
post s
Ġsp oken
bor ne
\ }\
Ġor chestra
Ġdat etime
Ġphot os
dem o
ĠB ron
Ġflo ating
Ġto ler
itar ian
. $$
---- -
LO B
place holder
Ġmag ic
ĠS aints
ap ps
sc ar
ĠTh row
ens ing
row Color
ĠT u
Ġb lo
over lay
Ġmer ger
ĠP rior
Example s
C tx
Ġthreat ened
ĠUnivers al
ess ment
F iction
Ġterr itories
Ġd iverse
Dis abled
Ġ ì
Ġmet all
with out
Ad v
ĠResult s
Ġr m
ĠPar ish
Ġinvestig ated
Ġt ie
oot strap
Requ ire
Recip ients
ĠD oc
Academ ic
187 2
V I
Ġre try
Comple ted
stat ement
Ġlif etime
Ġvess el
ro d
el en
ĠA y
> ()</
ac a
Ġarrang ement
ph an
Ġrow span
A ff
ĠP il
ens ors
it ure
Ġ. /
Ġt icket
Request s
Thread ing
per mission
Ġhe aring
Ġg allery
Ġelev ation
vent ures
Ġart illery
S i
PAR AM
ĠVo ivodeship
H ence
Reg istration
Ġsit uations
ĠS ongs
p us
Ġdest ruction
m x
Ġc ash
Ġsub mit
d ensity
Ġro uter
ĠCre ated
Ġcouple s
Ġphot ography
Ġmeet ings
ĠOb ama
Ġred shift
ĠK ath
ĠJava Script
pl aced
ster dam
ĠCh rome
ĠL is
act s
ĠS N
Ġs ensor
Ġstrong er
ĠGi ants
Ġc ss
Arch ive
ĠOr ange
187 4
Sub ject
Part ial
<? >
Ġb attery
Ġt ang
Ġd ub
u its
Ġthous and
ĠComm ons
Ġst abil
Ġcor porate
il o
ĠP in
Ġup grade
ĠSum mary
Ġdoub les
Part icip
f ar
ĠS ymfony
LE S
et ric
pub lished
Ġb acter
ĠP ont
ra ke
clus ively
z es
ĠPro test
ç »
Ġaltern ate
------------ -
ĠÂ ©
ĠMic hel
Ġlist eners
pt o
S UP
Ġelect rons
ĠB omb
N ested
J o
it is
BY TE
Ġw ides
// ----------------------------------------------------------------
Ġbir d
ĉĉĉĉĉĉ Ċ
p d
ĠSimilar ly
ĠF ather
ĠJ osh
Ġs ax
ĠS outheast
pi res
qu et
] {\
Ġdistingu ish
ĠR PC
ĠE ug
ac re
Ex tract
work er
Ġb ott
ĠL GBT
In s
ela ide
ĠR ule
Ġop ens
ĠC el
ĠR ing
ath ers
17 0
C ost
c art
ĠMan hattan
ac ion
inc inn
ĠT ake
ĠR andom
ĠH D
ĠAl low
Ġn aturally
h n
Ġb at
Ġa ug
ĠF actory
com es
ĠVictor ian
ac iÃ³n
Ġpro x
lock ed
List s
Ġdist ances
av ery
sc ene
ens ively
Ġcur vature
ĠArt illery
Pub lish
Ġtri als
ĠP od
Ġcontrovers y
H AL
Ġspec ifies
Ġdom ains
column width
Ġf acing
F D
re verse
ard ed
ĠGr an
Ġcommunic ations
Ġch amber
Un its
oph one
v ect
Error Code
ĠÐ ¾
ĠSerb ian
ĠC le
qu arter
is ch
z ant
book s
Ġpo ems
ĠLin ux
Ĥ ¬
ne ed
B LOCK
f oundation
Oper and
V A
Ġin ternet
Ġh at
] =
Ġins pect
Ġref uge
ĠBeng al
F IL
ĠSt orage
. ;
F ebruary
Ġal leg
N d
é Ģ
ĠD evice
ĠU rban
Ġmod ification
Ġmer chant
Ang le
N OS
ĠHun ter
S ink
Ġwh ilst
Ġunus ual
Disc ography
Ã¼ n
' "
Ġperform s
Ġparliament ary
Ġlocomot ives
Ġg olf
ion ic
Ġst em
ĠCon struct
Gener ate
ĠArab ic
sc opic
ĠMag ic
Ã¡ s
Ġweap on
vari ables
d ating
ĠPr im
ĠG C
Ġ' $
pre view
Ġlumin osity
att ing
Ġf oss
Ġmechan isms
ĠN ature
ynchron ous
ĠOper ations
ĠAlex and
m ov
In line
Ġorder ing
ĠB achelor
g ent
trans l
Ġlog o
rit ic
q q
Ġall ocation
ĠC atalog
Ġcr imes
Ġins urance
Ġproport ional
b etween
Ġs oul
reg ex
lear ning
Ġc url
ex isting
Ġd y
Def unct
Ġ$ ,
ĠM ind
Ġrep air
ener ate
Ġam ateur
AME TER
Ġac oustic
g iven
incinn ati
Ġback up
Ġgrad ually
C op
Ġex posure
prec ision
ro b
ĠSy ria
Ġ[ {
ĠIran ian
at ype
18 66
Ġsquad ron
Ġn an
ĠS chema
Ġdisplay s
ĠAp pe
p ixel
PREF IX
Ġfavor ite
ĠS elf
cel and
part icle
ath on
ĠDemocr ats
g h
Ġpr ices
Ġk it
ĠJ ama
ne e
Ġatmosph ere
ent ine
ard ing
S cheduler
Ġlist en
ext ype
ast ore
ĠAl tern
ch annels
Ġpro hib
ĠAn alysis
ĠSh ang
ĠMu hammad
l b
Ġst retch
ĠSh adow
qu ick
ĠTest s
M AN
Ġconv icted
ass et
Ġr uling
che str
Ġinitial ized
ĠDr ive
Ġimprov ements
Author ization
el o
C at
ĠCont ainer
R IGHT
ĉĉĉĉĉ Ċ
Comp are
or um
Ġinstrument al
ĠChar lotte
. ');
C alled
CL I
ĠFe ature
B bb
Ġ Ã©
ĠRequ ired
Ñ İ
s ender
[ <
Ġelect rical
ĠFre edom
get Text
ĠQ t
Ġsystem atic
Ġemploy ment
au er
Ġgu id
styles heets
De ployment
m aking
on na
ĠT it
Ġcircum stances
Ġm anga
th y
ĠStud y
ĠD M
Ġsepar ately
OPT ION
Ġrep orter
Ġdep recated
ĠS Y
Ġpr imitive
ĠS id
og g
ĠK i
Ġspec im
Ġep och
Ġpro pose
Ġmon arch
Ġrank s
Ġdet ector
Ġmin isters
AC CE
Ġc c
ĠTerr itory
ĠPhil osoph
Ġb io
Ġfluct uations
187 3
ĠParam eter
ĠN ebraska
Ġsem antic
Ġsurv iving
Ġ\ &
MA KE
12 2
Ġp s
config ure
ĠF erm
Ġatt ach
ex clude
ĉ ĠĠĠĠĠĠĠĠĠĠĠ
Ġreason able
te enth
Ġs ounds
Ġconsum ption
ĠAnd r
) '
D ash
ĠOl iver
ast rop
ĠS witch
row se
br ane
constr aint
ĠU SE
C art
App ly
Ġ\ !
ii i
add EventListener
ĠGe V
ĠA WS
}} =
User name
g om
FUN CTION
ĠL iga
is ot
ov ich
ĠV a
'' '
ĠMov ie
ĠM ut
Ġ(! (
Conn ector
ĠD raft
ĠV as
ear ing
%%%%%%%% %%%%%%%%
dest ination
r atio
Ġge ometric
Ġalgebra ic
Ġeigen values
en ario
elect ric
Ġsym pt
Ġven ue
p f
Ġre venue
Sup pose
H ide
Ġre semb
cent ral
st own
Ġslow ly
math op
ĠS yntax
Ġinter rupt
Ġh oles
Ġsm allest
Ġ/* !
Ġthe at
ou p
Ġo cean
^{ *
get Key
NotFound Exception
ar an
lic t
Ġnot ify
Ġrel ay
\ }$,
Ġun iqu
MA IN
Ġaim ed
ĠI mp
i u
ĠS audi
ĠR ick
ĠY am
sp aces
Ind icator
ĠB und
s creens
ĠFr ances
S ocial
Ġto w
ĠCollection s
v art
Ġg ray
m ill
Us ed
EN C
ĠMat hemat
ĠColl ins
ĠTurn er
ĠM other
IE W
Ġac quisition
scri ptions
Ġp uls
ĠSt ein
ush ing
Y P
ĠP ra
ĠD ays
Im ages
Ġb orders
ĠDr ag
Ġpriv acy
fort unately
Ġscript s
. ),
18 40
Ġsent enced
ub a
Ġp ictures
Ġdisestab lished
table s
Ġspec ification
Ġ ur
ang les
Ġclose st
u ates
ph antom
process ing
18 69
Ġadult s
B ooks
size i
off icial
Part y
ĠG T
H ot
ĠJ enn
ĠM ess
Ġelse where
ĠN BC
el ines
I ES
Ġf ul
Ġend emic
c amera
Ġind igenous
ĠM anu
at che
Ġvict im
ĠAnd re
ret val
Ġcous in
EN CE
Ġann ounc
Ġsurre nder
Ġear n
Ġreal ized
Ġgovern ments
ĠD J
G overnment
vis ibility
tikz picture
ĠCom par
Ġh alo
Ġatt orney
input s
inter pret
Ġexpl ains
Ġ( {\
Ġsuper ior
Ġlog ical
Ġ( `
Ġdifficult y
ĠB rew
Ġkw args
A ud
Ġx si
Ġt ur
ĠL ad
ĠI C
ocr acy
pay ment
ĠF ab
Ġout come
Ġgravit ational
ĠS eb
Ġpred omin
Ġl ap
und a
IT H
> /
N I
Ġe ighth
g ray
Ġ Ø§
ĠP ow
ĠCommission er
Ġcontrovers ial
B er
if rame
ij i
ass oci
Ġcom plicated
Ġvot ers
ĠB uffalo
Ġfunction ality
ĠB ot
/ #
H idden
; ]
Sh ift
Back up
M a
in herited
ĠTrans itional
ĠB aptist
ĠInd ustry
W H
ĠAct or
ĠDec l
M ir
um i
Ġprepar ation
u on
ĠJ a
uff le
Ġm apped
Ġinn ings
Ġactiv ists
ĠBr istol
K ing
ĠEx p
be at
et ta
Ġpass age
Al ign
Ġabsor ption
Ġsold ier
S en
elf are
or ough
ĠS now
ĠTr inity
Pr imitive
il iation
Ð¾Ð ´
ject ure
ool s
O rient
ick ing
Ġcl ar
Perm issions
R M
ĠP ic
Ġun like
T our
R oyal
ĠC red
Ã± a
Ġgrad uating
ass y
ERT Y
Ġattract ed
comp atible
Ġ/ ><
ĠK un
ĠI T
Per cent
Ġhon our
Ġs lope
ist ani
Ġdel ayed
B ecause
Ġ( ).
bad ge
Ġmanag ing
Ġincre ment
ĠN an
p referred
re view
std err
M r
Ġm esh
N EL
ĠDr agon
Ġcap s
Ġl aser
cover ed
for ced
; -
Ġcom fort
St ates
Ġdepart ure
> ');
Re q
ĠShe l
u pt
ĠPho enix
Ġann ually
Ġdynam ical
PA SS
b ie
Ġcons c
Ġcall er
~ (\
Ġdis order
Ġwides pread
al ter
ĠArt ist
hel m
: -
ey er
Ġinn ov
Ġderiv atives
Allow ed
Ġin coming
il ine
AUT H
Ġref lection
Ġv anish
ĠÃ Ĺ
Ġt on
Be havior
AS C
GL enum
ĠP DF
Over lay
st mt
ĠM all
ĠA ug
Ġc able
' }),
prov ed
Ġele ven
ĠAd vis
ir s
Ġ/ ></
Ph ase
ĠMont ana
Ġmodel ing
p riority
Ġaccomp any
> ';
AR CH
ĠM icro
os hi
Ġafter wards
ĠWar ner
Ġinter vals
ĠAnt ar
R atio
Con version
Ġcond itional
Ġlo ader
Ġun expected
Add itional
Ġunder ground
Ġescap ed
ĠHarr ison
ĠVin cent
Ġemer ged
Play ers
Ġcab inet
^{ (\
ĠB enn
Char les
ma jor
) }.
ĠH ad
B ob
ĠH unt
om es
ab ling
wh at
uck land
Ġ( );
, </
ĠR ank
Ġhand les
Ġfocus es
Ġencour aged
ĠM aterial
ĠSO FTWARE
p lier
inem at
G uid
em a
T ITLE
Ġsu ite
Ġben ch
Prof essional
Ġdes ire
Ġ ,\
s leep
Ġact ed
Ġd rew
Ġconj ug
ĠB our
ĠFac ulty
Ġm usc
Ġsupp lies
D MA
Ġill ness
Ġamong st
ĠBar celona
Ġcollect ive
urs day
Read Only
Ġscen arios
Ġsub stitute
UT C
Ġg ard
car bon
Ġenjoy ed
elect ed
LE VEL
( @"
GRO UP
Ġread ers
ĠUn iverse
im plementation
it ro
ĠF ast
im m
ĠI SO
iss a
ĠH amb
Ġf itting
Ġnomin ations
Ġ' </
Ġf er
ĠInst all
Ġc inema
Ġsh orter
erv ation
F ROM
ĠT ib
Ġexponent ial
Ġcorre ctions
Ġpass phrase
ĠSym phony
ĠP red
Ġ" ./
15 00
bm atrix
C AC
] <
Un able
Ġform ats
ĠRoman ian
M usical
Ġwrest ling
or row
L com
b ane
Ġfind ings
Pr iv
Ġt ill
ĠS ah
// !
Ġt ort
ol ly
Ġgen etic
Ġlie utenant
del im
ul ates
Sh are
Ġknow s
Ġgr am
^* \
R ank
ĠAtt orney
Des pite
ĠCost a
Ġsh ore
TH ER
st ock
Ġagric ulture
ĠC BS
n io
ĠL ate
y aml
vers ions
Ġcut s
sche me
om p
Ġtri angle
Ġ} .
Open Tl
ĠSt re
ĠĠĠĠĠĠĠĠĠĠĠĠĠĠĠĠĠĠĠĠĠĠĠĠĠĠĠĠĠĠĠĠ ĠĠĠĠĠĠĠĠĠĠ
Ġal ive
ĠL yn
ĠNichol as
TE GER
Ġlast ed
16 9
Ġstreng then
HO ST
nes day
ĠCub a
Ġthir ty
12 1
short cut
ĠR oom
R G
Ġearth qu
serial ize
Ġtal ent
ell ion
18 59
An n
ave led
Ġsens itivity
ne ut
ĠCl are
f m
ĠUn like
Ġsupport ers
sp l
Ġdiscuss ions
A thlet
ot he
ĠS z
ĠArt icle
ĠCan al
Ġcomp ound
ĠM yst
i ology
Ġf ighter
Ġal cohol
Ġout line
Ġhash Code
Ġattempt ing
TO OL
ĠT ax
ĠT yp
Ġs ock
Ġf antasy
ĠH orse
ĠKir k
ĠSh ip
equ ations
Ġtechn ologies
Ch inese
ĠMor oc
go al
Ġper cussion
ag ar
Ġvari ants
re str
Ġsh arp
te chn
ĠForm at
INST ANCE
ort ex
Ass ignment
ĠV lad
ĠY u
ick en
R ay
H ANDLE
Ġsub div
in ite
ol s
Ġport s
Ġlaw yers
K S
fig ures
enn ial
Vari ables
Debug ger
ĠArch ive
Ġg ro
EE E
" </
Ġas ks
Ġout standing
ancell or
amp a
ÑĢ Ð°Ð
ĠPl atform
Ġl ambda
Leg acy
Ġc fg
ac ef
ĠB arr
Ġwor ship
Î ¼
ĠAd elaide
Icon Error
Ġres ort
pre vent
Un ion
ĠL ess
Ġyoung est
i est
S IGN
s an
Ġcarri er
b ank
button s
ĠExample s
Ġquadr atic
l c
Ġcook ie
ĠLu is
remove Class
Ġst ochastic
un its
hem atic
k u
: /
à ¦
Ġse ar
Afr ican
ĠDef inition
4 50
l ocals
uss ia
F oundation
Ġpart ly
Ġgener ates
Ġc urrency
ĠC ad
Ġobt aining
Ġleg s
Scott ish
S ir
ar ound
av atar
ĠC PU
F oo
Ù ĩ
Des cribe
Ġarr ive
Ġl in
Ġdon ated
×Ļ ×
Jew ish
ĠP sych
rele ased
Ġover view
im its
Ġco in
b u
ĠC ob
ĠCom plex
ĠCr ime
LO AT
ĠAm sterdam
al am
ĠAz ure
ĠRober ts
C ert
Ġv ulner
ĠK ap
Rel ated
Ġsuff ering
Ġr id
bedd ed
Ġmar ry
em ed
Ġsup pose
ĠS equ
pol l
ĉĉĉĉĉĉĉĉ ĉĉĉĉ
uch y
ĠS ultan
P eter
O h
col ors
Ġinc idents
Ġcon gress
c am
B ag
| }{
thread s
ĠD evelop
en os
Ġmathemat ics
M argin
More over
lik ely
Ġgu ess
Ġp ipe
Ġsequ el
Ġh ierarchy
. (
Ġcertain ly
Ã ī
ĠC ov
ĠJ erry
} "/>
LE NGTH
ĠTreat y
l m
Ġcomp ression
Ġst ops
Ġpre mi
ĠUE FA
Ġen zym
ĠC urt
">( </
IconError Encoded
DE LETE
d eb
Ġr ising
Ġex clusively
Ġrender ing
Ġp a
Ġp tr
vert ed
Ġbo ats
ĠMar vel
Ġarchitect ural
Ġsl ide
Tag Name
ol en
Ġag gress
r h
s ing
. &
E lem
Ġfund ed
11 11
; ,
ĠLiter ature
H ex
H ung
Ġf iber
ep he
Ġchar ter
Ġsol ving
ĠS ay
Ġa z
n pm
Ġclaim ing
Elements By
ĠM ach
ĠB ir
ĠMuslim s
ĠD h
Sign al
Ġg od
Ġdem olished
Ġestablish ing
ĠB uch
ĠPro tection
N U
Ġcred its
ĠG rey
ĠSt yle
String s
Ġb are
Ġre cre
ĠS A
New ton
c ategories
ĠT ed
\ |\
Ġsub str
ĠPr ice
Ġpro tests
Ġcap abilities
s napshot
ĠN HL
m g
Ġcomp aring
su it
ĠEth iop
Ġdanger ous
Ġw ider
M ot
ĠV el
() `
Ġbas eline
ĠForm ula
ĠGener ic
Ġcon fer
Ġ ib
Ġd jango
Ġcross ed
ĠNO TE
ĠE le
L aw
Ġdise ases
ĠTechn ical
ta wa
t ot
Ġb ath
T ick
Ġprocess or
ash a
18 48
ĠBe ijing
/ '
inner HTML
E con
Ġprote ins
Ġl oyal
ĠG round
ann i
Inst ances
Ġ" (
v r
Par cel
M ale
um per
Ġcas ual
ourn aments
vis it
[ [
Ġd ip
ĠO K
Ġgr pc
D X
Part s
Ġmart ial
ĠL ions
igh bor
Ġstrugg le
ĠI da
Ġ' ../
CL U
Ġbeg un
ĠDet erm
! ]
ĠP le
en ia
y arn
Ġreg ression
Ġmonitor ing
Ġdes ert
ĠC row
Ġrequ iring
ĠC lay
tensor flow
Enc oder
B razil
last ic
ul ative
ĠF u
pe er
S in
Mod ules
I BU
Ġo ct
Ġm k
Ġb aby
ĠB rowser
mo ke
Ġdeal ing
Ġexpect ation
Ġon click
ĠT itle
ĠF un
ipp et
Ġg ift
ant ics
Ġproced ures
Rich ard
h w
Ġ" --
ond a
Ġg raphics
Ġc um
Fil ename
ĠS ep
Ġr ide
Ġpop ulated
it ual
Ġph rase
ĠK le
Ġtri be
---- --
Ġdeb t
ĠC hel
Ġ(! $
Ġan alys
Ġcompar able
S at
ĠM I
> $
m un
.. ."
16 8
Ġben chmark
ĠExt ension
med skip
ph abet
N il
uff icient
is Array
ĠBer keley
Ġfeel ing
pos itions
ed e
Ġen ables
at um
ai ro
Ġe cc
al is
aint ies
ĠT erry
Ġassess ment
}$ }
cc c
DE P
ĠM ason
}_{ -
ĠMun ich
. \\
g overnor
Ġfew er
at ra
ul se
Ġcent ered
Ġinit iated
C lip
D ataset
Ġab road
Key word
Ġdev iation
Ġdeterm ines
B N
Ch arts
ah l
Ġuniform ly
Ġrest oration
CON ST
F our
conf irm
Ġw ings
Mar shall
ĠCon struction
=" //
S printf
z ier
Fr ag
ĠS ad
comp act
File System
Fr ank
ĠPhilipp ine
Ġc s
14 7
PL ICATION
: =\
ce il
re ply
ĠJ oy
K ar
Ġt orn
Appe arance
Are Equal
Ġr anging
dec oration
rom agnetic
Ġconv inc
v p
Ġt ub
ĠC raig
ĠB lood
K EN
sub str
r ise
Ġcom ics
Red irect
x l
rang ian
Ġare n
ĠCar lo
ĠH em
ĠSh aw
Ġoccas ions
Ġorb ital
Ã© d
Ġr ub
Ġm ixture
ĠMunicip al
ĠW as
ĠCirc uit
go og
Ġpat rol
ced ure
Ġw aste
em bed
ĠW ik
ev es
bit coin
Ġco aching
Ġenc ryption
Art ifact
ĠFil ip
Ġp arsing
Ġfest ivals
get Property
DI RECT
c ov
l r
Ġscient ist
Ġtr aveled
ĠRepresent ative
Ġbr idges
Fr ont
> -
x e
ĠA udio
read cr
ĠPh ys
S uch
ĠD I
ĠCh and
Prot otype
or acle
ore st
123 45
ĠStruct ure
p iece
Sw ed
or ne
ind ependent
Ġliber al
Ġlength s
Ġout break
ĠS creen
im edia
or ship
uc lear
it ations
Ġbi ological
e per
h op
Ġcomment ed
: @
Man ifest
PT ION
Ġreported ly
dist ribution
Ġcompre hensive
Ġencounter ed
ĠInter face
Ġput s
L R
Ġtrans f
Ġ/ .
c aster
Ġg ay
ĠSt evens
Im mutable
ĠF ro
ĠDef ine
Ġsurv ive
ĠB ath
ĠSh im
Ġkey boards
Rep resent
ch arts
ĠM asters
ert on
Ġconven ient
ĠCamp aign
Ġpriv ile
S ong
h istor
** :
ec ycle
Ġpseud o
grad ed
miss ing
ĠT ang
Ġseem ed
ĠCon structor
18 57
ĠHe avy
å ¯
ues day
ĠEnc ycl
ĠL ost
ĠSing les
ĠH udson
ĠL en
re ject
Event Handler
ut a
or ange
ĠF am
Ġmax im
Ġf led
h ou
Ġsh a
L ab
ĠPh ysics
Ġhon ors
B oth
Ġw onder
ĠSpr ings
ro oms
ĠK l
CC CC
V S
ĠL loyd
m atic
Ġask ing
D a
ĠSet tings
is an
=" ./
ĠB ased
A mer
Ġdev oted
ĠVis ual
T oggle
Ġd ump
ĠB og
p el
n r
Write Line
C atalog
ĠO ri
Type Def
over e
ĠGh ana
Ġr is
å °
U r
Collect or
ĠJ en
Custom er
Meta Data
Ġref lected
cri ptions
Ġunc le
ĠB ass
H A
Ġw edding
prot oc
Ġres idual
Ġap artment
ĠL oc
ĠEn able
ĠCh apter
re ach
ĠD ATA
ĠPr iv
ĠCh ap
Ġguarant ee
i ya
pe ction
umin ate
Ġdu o
Un expected
Cl one
font s
th ick
ĠFin ance
Draw able
ĠG len
Ġtrigger ed
he art
Ġs ends
Ġstat ue
Ġll vm
Ġ um
Ġaddress ed
ĠB right
Ġreg ulations
Ġactiv ation
th lete
Ġco oper
ĠDocument ation
ĠS TR
ĠCont emporary
d ue
Ġr s
ew ay
00 2
Ġhe ter
Ġcomb ine
Ġ$\ {\
ance led
D ue
Ġcomple ting
ÐµÐ½ Ð¸
Ġp ushed
Ġext ending
ĠGr ade
Ġcirc les
ĠB utton
Ġpl asma
Ġinf antry
rg b
Ġg all
Film ography
Ġmathemat ical
L ONG
Cre ation
SD K
[] )
Ġf abric
Get String
comp iled
Ġap ps
Ġdevelop er
ID S
ot ions
x ref
ĠL ayout
as ant
Ġ" ")
/ ******/
est yle
Ġsp arse
sw er
k k
Ġel li
ĠGL uint
i at
ĠRes pond
GL uint
ĠHer z
Ġwe aring
Ġserv ers
u cc
Ġm or
Ä ħ
ev ille
F at
ert ainties
Ġplay offs
std lib
command s
ĠH ann
Ġs av
vart heta
F ri
us p
ĠStud ent
Ġmarg inal
ĠTh ose
Ġform ul
Ġbroadcast ing
e ing
N orm
ĠFri ends
j ab
ix on
De ep
d type
i am
Ġcontrib uting
Th an
Log ging
DO CK
sp ot
in variant
Ġpolynomial s
and box
ĠJ ess
Ġaver aged
act ed
Th rows
Ð ³
to kens
++ ++
ĠT ol
Ġbeaut y
Ġtw in
Ġ( <
ĠAdd ed
ri en
LA PI
Ġorgan isations
ĠP ast
ip art
Ġhydro gen
Vert ical
h fill
Ġres id
gr avity
â ĪĴ
ä¸ Ń
script style
add le
M or
Ġfam iliar
å ¼
Ġ' {
P K
ĠPh D
iv ic
ĠV AR
Ġf asc
ache l
Mat ches
ĠL earning
ĠHer bert
Ġtrans it
atab ases
itor ial
ĠSup pose
Ġwalk ing
Ġtrans verse
ĠĠĠĠĠĠĠĠĠĠĠĠĠĠĠĠĠĠĠĠĠĠĠĠĠĠĠĠĠĠĠĠ ĠĠĠĠĠĠĠĠĠĠĠĠ
ĠAt omic
ia o
NOS CRIPT
s outh
Ġi i
atern al
P ACK
Ġj ournals
ĠFin ancial
Ä Ľ
Ġint ellectual
Ġz oom
33 3
ĠEn try
Ge V
LE N
ĠC old
ival ent
13 6
f requency
au kee
Ġlab eled
Com bo
Ġdec ode
ĠT otal
l iteral
Ġb anned
ab br
Th reshold
] []{
ĠS erv
custom er
ĠSocial ist
ĠW es
Ġad apter
Ġspe aker
ĠV ert
Ġmanufact urer
Ġd iversity
TO DO
lo ating
c g
l ua
Ġz ip
or ig
> )</
Ġrad ical
Ġmir ror
H ard
Ġperm it
ĠHeb rew
tem plates
gu ard
bal ena
q a
exception s
ĠInd ustrial
ĠGener ate
w so
Ġtrib es
b an
Ġop ponents
illis econds
ĠChrist ians
Ġsettlement s
ĠF ixed
ĠPro duction
DO WN
h all
Ġc argo
ĠA ber
ĠKe ith
18 30
sol id
Ġstrateg ic
Ã¶ n
Ġ utils
Ġaccess key
orient ation
Ġm as
Ġphys ician
Ġ il
Inv oke
O s
ĠF if
Ġput ting
ĠVenezuel a
Ġ= ================================================================
Ġrout ine
res olved
ĠBer g
Ġfor th
Football ers
sh iv
Table s
Ġsk i
R o
ĠX ml
S aint
Dis patcher
Rece iver
ent o
os c
Ġdiff usion
Ġang les
cor ollary
is se
ĠC ategory
Ġserial ized
leg end
ĠD IS
oc on
Ġb rows
v ik
ST RE
sub sec
ĠBroad casting
RET URN
ov y
T M
27 0
Ġp arks
ĠNor folk
ĠId ent
Ġstraight forward
P ages
ag i
Ġpro be
Ġinit iative
| ^{
Ġgu ilty
comp ass
om eter
ĠMean while
S un
Ġpro c
Ġinter faces
lic an
PRO TO
æ ł
Ġcol ony
^* (
ĠG oth
ĠThe ory
ĠA uckland
Ġv acc
enc ia
Ġf atal
Ġf ixture
Ġan ime
H orizontal
($ _
g gle
Ġpolar ization
Ġatt ending
Check er
Any Ref
et e
ĠF ourier
Ġfl av
IBU TE
ĠBe aut
ĠBy zant
Ġperturb ation
2 30
Ġh arm
] -->
Ġanaly ze
ĠT as
Ġn eck
ov an
tri angle
z ing
Ġem igrants
ĠWith in
Ġch ains
ra f
ĠO THER
rot ate
repre neur
Suppress Warnings
| $
us a
LI B
Head ing
ĠIP v
ĠA V
ext ends
compar ison
script size
om ething
Ġrare ly
Add ed
w ire
Ġminor ity
has OwnProperty
Ġrespond ed
G UI
Ġshift ed
hen g
Link s
ĠL arry
ynam ics
ĠS Ã£o
ow ed
o ard
ol ine
re ts
ĠK ay
ĠAt hens
She ll
ĠGerm ans
ĠCh air
Ġed itions
* .
Ġa ims
] ];
MP TY
ä¸ Ģ
det erm
Ġreve al
Ġportr ait
Ġphotograph s
Ġne ur
press ive
Ġen forcement
ur as
ur bs
sw ap
ĠK ol
ĠS ak
ffff ff
ĠWh y
G F
>: ]<
ĠI celand
New s
Ġop ponent
ĠL ion
Ġpat ent
Block ly
Ġd war
ĠPen insula
Ġinsert ed
ĠU TC
RO W
h m
math it
Ġw inds
ĠN g
ĠRob in
Ġinitial ization
Ġis ot
_{ {
Ġf usion
get C
Ġdef ending
ins ky
ĠH E
init ely
Ġp c
ĠV ermont
CON NECT
ĠMer c
Ġul tr
m issions
Ġar row
ĠWith out
over y
Ġhom ogeneous
U TE
h ole
Operation Exception
Ġdecre ases
Ġl ingu
ĠG ay
Ġcancell ationToken
numer ic
Ġnarr ative
Ġbox es
th an
av ier
Ġpremi ere
z ig
Ġh older
Ar n
Ġrel ating
ĠHel en
ĠA UT
E ar
Ġâ ĨĴ
Ġpe ers
Ġweight ed
ĠT on
j k
} `
Ġclo thing
Ġchar ity
Json Property
ad ers
m acro
ĠCroat ia
Ġag es
Ġre lying
ĠC ell
Ġar ithmetic
ĠBulg aria
ĠD epend
Ġtalk ing
ĠE N
Ġorig ins
T ARGET
AR K
Gr and
ĠB ond
Ġcoal ition
Ġjuris diction
ref ox
ĠHol land
Ġcub ic
ĠS ox
) ^\
Ġdec ides
Ġart ificial
Ġelectric ity
] >
ĠAl ger
Ġten ure
date picker
ĠEd wards
el ian
ifi able
Ġcont ested
ĠM enu
99 9
18 58
ĠArgent ine
Ġsol ved
ĠFI LE
UN K
By Name
Reg ex
ĠKen ya
ĠLe ader
D istrict
/ %
ĠS ans
ĠTr igger
not ag
Å Ľ
ater al
Ġover l
Ġre ly
ac les
ĠT oy
Ġbr ings
alax y
ĠAng lo
v or
18 54
c amp
Ġfor wards
Ġsurv iv
M LE
[ ],
ĠBut ler
Ġover lap
Ġview ers
chi at
ik es
R ivers
w aukee
$. }
( ",
W ARNING
Ġstream ing
Ġre ven
ĠÃ ģ
Ñ Ħ
Ġtrib ut
Ġproport ion
d w
ro at
ĠW H
le ading
ĠC incinnati
section s
Ġengine ers
Ġpul led
Ġkind s
J ac
b idden
ĠCo al
âĢ ĺ
ĠAnt i
in formation
Ġfor g
host s
ĠP el
14 5
ĠT ogether
ring tone
ĠOver all
Ġn ice
Serial izable
Ġtransform ations
ĠL ux
av an
Ġr hythm
Ġconsider ation
Initial ize
H F
Ġrect angle
Ġthere by
s ass
ĠJeff erson
ingu ished
Ġqual ify
Ġlock ed
Ġanaly tic
Ġgener ators
iv ities
Ġfarm ers
Ġmolec ules
Ġval uable
Ġcarri es
om o
um ption
en burg
ov sky
ack ed
Ġch apel
ĠAzerbai jan
Ġt um
ĠGon z
S y
12 6
Ġdecor ated
Con v
Ġaffili ated
ĠGr ace
Ġor ange
Ġmuseum s
ĠM ul
ĠM ET
ield s
Ġform ations
el n
St mt
opt im
ĠD ocker
Ġdens ities
ĠO cc
ig ion
ĠP aper
Y es
Ġmake up
r ant
b ian
leg iate
Ġf d
Ġm ines
ĠF loat
Ġer ected
ĠM ann
ĠC atherine
Ġsec ured
ĠFl ag
Ġther apy
ĠS pect
akes pe
Ġincor por
' _{
Ġfact s
Christ ian
ok ia
Command s
em in
Ġdocument ed
Ġ@ @
ĠEd ge
Ġext ensively
) ?
ab solute
Ġpurs ue
Ġposs ession
Rep ublic
ĠL ot
ĠLeg end
00 5
S N
ious ly
Ġhand lers
ĠA B
Ġexpand ing
ĠInt elligence
Ph oto
Cent ral
ad ic
Ġconcert s
Ġc ul
Ġsc oped
ĠW i
tab End
Ġinv olve
ĠĠĠĠĠĠĠĠĠĠĠĠĠĠĠĠĠĠĠĠĠĠĠĠĠĠĠĠĠĠĠĠ ĠĠĠĠĠĠĠĠĠĠĠĠĠĠĠĠĠĠĠĠĠĠĠ
ĠH ob
Ġt ar
Ġf its
S ym
as ide
Ġco operation
g uid
ĠProt ocol
Te chn
es a
ĠH ugh
Is rael
Ġto ggle
h ad
ĠD elta
In c
Ġsh apes
sm art
ĠE SP
ĠPers ian
Ġrel ocated
ol ph
Ġfair ly
ĠFor um
m v
ĠDi ocese
Ġgrand father
ĠM ove
former ly
Ġvol can
ĠJ ar
Ġdig it
J ose
ĠL ar
d z
æ ī
Ch at
Ġphenomen on
Ġaccess ed
ocom plete
Ġin duction
NE W
[ ];
oxy gen
ĠA f
ĠSt even
ĠV iol
Ġinflu ences
S pr
W F
Rev ision
Ġorgan ised
ĠNep al
n x
Ġ} ));
Ġdirect ive
ĠRog ers
7 50
Ġid s
l is
ud o
ĠĠĠĠĠĠĠĠ čĊ
multi row
type param
al one
pos al
F IN
Ġpro spect
Ġenh anced
igg ers
Ġpeak s
ĠO il
Ġreb uilt
field set
s mooth
Ġsympt oms
iv ot
Ġsp ell
c yc
m r
n ell
Ù Ĭ
ol utions
Ġwh atever
2 11
× ª
Ð¾Ð ¼
4 80
ov al
Ġcompos ite
Ġw av
BO O
orient ed
ĠSt ill
PAR AMETER
Nd Ex
ĠH av
tr action
Cl osed
AA AA
ĠChristian ity
ĠAv iation
Ġl t
Ġpower ed
ĠR elease
F ast
ĠDen ver
Ġbut ter
ĠAb bey
XML Schema
V oid
iff s
Aut om
M anaged
ator ial
Ġspecial ized
Ġprov iders
å į
Ġtrad ed
Ġsim ulated
Ġport ions
Act or
ĠS or
Ġgr an
Com b
Ġdiagram s
ĠD yn
Ġorth ogonal
osp el
Ġchalleng ing
ĠArmen ian
ĠG as
15 5
an imate
tern oon
ĠCirc le
( -\
Py thon
ecess ary
i ating
å º
Ġsp ark
vel oc
ser if
Ġlab our
cu ador
Ġb lob
ri x
em ies
ĠN icol
aver se
Ġcyc les
ĠO UT
Ġform ulation
assert False
ĠPar alym
$ ^{
C N
P D
Ġadmin ister
P FNGL
Rec ogn
ĠM agn
et ics
(" [
Ġcommand ed
ĠMah ar
Ġsculpt ure
Ġpe oples
M ean
Ġev olved
Ġ rib
Ġ\ ,\
Ġdo ors
ĠCal led
f eld
ob s
unit Pattern
for um
ĠSt uart
Is Null
I MAGE
do es
leq slant
Ġexpl oration
ĠN ear
ĠM ig
int endo
CK ET
Ġpat ron
ĠArab ia
Ġt ape
ers ions
Ġpred icate
ĠSm art
18 55
ĠFri end
Ġs oph
(" -
Ġab b
job s
Ġfor cing
17 5
oc os
Ġrandom ly
; =
High light
Ġn inth
ĠEnvironment al
op ing
Sub mit
Ġcivil ian
Ġinform ed
C AL
Ġdis pute
Death s
E mitter
ĠMur phy
l iga
Ġs ig
ac l
"> &#
ĠEcon omics
A CTION
c ock
ĠN ames
Un lock
Ġtempor al
DE VICE
=" <?
Ġbeliev es
eng u
ĠAr c
g mail
ide a
L ittle
akespe are
set Value
ep h
um ing
capt ure
t cp
Ġvar ies
S ys
qu ality
18 56
ĠDis c
Ġjud g
ĠH at
ra ise
T wig
ç ½
az i
url ing
Ġreson ance
Ġt body
âĢ ¢
ett i
Ġfail ing
ĠBudd hist
res olution
ys elf
Alloc ator
ol ate
asc ade
S ender
xx xx
ĠR ivers
var iance
I ssue
Ġev ac
ad os
ĠBr is
ĠS K
s izing
ent i
V IEW
Ġcop ied
Ġg ymn
ident ial
Ġo xygen
á Ģ
ĠD od
r ain
Ġbi ography
ENT ER
F ilters
copy right
jb oss
ĠP ick
ĠCar r
Ġinaug ural
ĠT F
Ð Ł
Ġind irect
ĠEag les
16 5
Ġspons ored
ev t
mon itor
Ġg ross
it ud
l ift
add on
ĠP rest
Ġbutton s
Ġrat ios
des cr
p arsed
Ġt elling
ĠIn stance
Ġph on
ĠEl li
Ġv oc
ĠDiv is
Rout ing
Ġleg islative
B uilt
Ġp ad
ft en
$ '
stack rel
Ġguest s
Ġcorrespond ence
open ed
in ery
View s
: **
ĠN ak
Ġa qu
Ġvol tage
ĠArch itecture
Ġ{ })
Ġent ers
Ġchem istry
Ġproject ed
back slash
ling ton
Ġex ha
W ater
Ġ[ #
á ¹
ĠRes et
Ġt ournaments
Ġvis its
Ġdismiss ed
Ġh orizon
Ġex cluded
ĠSu ccess
eth yl
car ousel
ĠL ex
Ġhead ing
x f
ĠB ear
Ġsubsid iary
ĠU lt
bel ow
../../ ../
Ġd type
Ġsynt hetic
Ġshop ping
Ġp ump
ĠHar old
Byte Array
ĠAl ong
sw ick
h in
H int
he ld
Ġcool ing
Ġch a
> ";
Ġle x
Ġs ep
F un
ĠTh er
Ġpre lim
Ġf iring
Ġdifficult ies
ĠGuard ian
ĠE val
OP ER
get ElementsBy
Ð» Ð¸
Ġcomp atibility
on line
Ġk ids
Ġportr ay
Ġmod ifications
12 9
ĠDel aware
ĠCOL SPAN
ĠMad ison
r us
Å ¿
b ower
Default s
ĠAdv anced
Ġev il
L ondon
ĠPeters burg
Ã µ
Ġcontin uum
fl ux
ĠT alk
)} (\
ĠS oul
Ġfl ush
om eters
ĠR oot
m other
Ġdis band
Ġs itting
art z
Ġpl ots
gom ery
M el
ĠA round
Com panies
Que stion
ĠHis panic
ĠM E
Ġviol ent
A IN
ĠU V
Cap acity
Ġspl itting
ĠS uz
ĠIN T
Ġnob le
Me asure
ĠStud ents
Pred icate
Not ify
m ysql
Ġex clude
d istrict
ĠValid ate
Ñģ Ðº
× Ķ
ĠDemocr at
oc used
Ġcampaign s
Ġback end
Ġc rystal
che l
ĠKe ep
Res earch
ĠÅ ł
pers istence
Ġ( {
Ġgovern ed
G T
h int
ĠJ oint
ĠGL sizei
ĠNot es
pl ings
ĠHigh er
O RE
string ify
f re
ĠG ust
& &\
ĠF ighter
= </
Ġarg ue
om i
uch i
Ġrefer enced
ĠPro ductions
ĠNAS A
PO INT
L T
int egr
h yper
M ex
Ġc amps
Ġfin ance
ĠThe od
M ad
ll a
std out
ĠValue Error
P ipe
te ch
L arge
ĠCol lect
Ġunc ertainties
Ġt ies
\% $
Component Model
13 2
In clude
la unch
por al
Ġpl ugins
Ġl os
ĠAs ync
Ġtrad itions
Ġreli able
ind a
ĠR idge
Throw able
Ġbr ands
Abs olute
Ġce ased
Ġal igned
Ġfrag ments
C lock
pro blem
Ch oice
fail ure
Ġed iting
Co ins
read only
l ists
Ġt ube
ĠK rist
Comm unes
ĠNever theless
Ġdefend ers
) --
A ust
ĠĠĠĠĠĠĠĠĠĠĠĠĠĠ Ċ
= }
ver bose
14 3
arr ison
ĠQu arter
Ġdisp ersion
1 19
act ivate
ĠLeban on
Ġwill ing
Ext ended
design ated
Ġcrick eter
Ġtalk s
** *
ĠWat son
Ġiter ations
Ġf inger
Ġnot ing
ĠArn old
enc oded
ĠObserv able
Ġaug ment
Direct ive
bold math
ari ant
18 52
har mon
ĠTrans action
Ġfoc using
Ġbon us
0 100
s aved
ine e
cho ice
ĠWall ace
P ad
Ġman ually
ĠL IC
D ot
Ġ! (
ched uling
Ġdem ands
Ġorig inated
Ġtempor arily
L u
lay ers
L M
ĠV M
Ġinterview s
p ick
Ġviol ation
Ġ ÑĤ
Ġpass ion
Ġin tern
ĠL ocation
ĠM ort
Ġqu iet
Ġmurder ed
Cl ause
2 25
ĠArch bishop
t ick
Ġw ww
ĠL E
Ġal liance
sec ure
$- $
Rep o
ĠR out
Ġcl ause
Ġimport ed
FO RE
Ġpropag ation
S port
P atch
Ġr ated
UP DATE
ĠBulg arian
Ġcon current
ĠS ask
he alth
ĠLu ke
) ";
Pol y
Ġpul se
control s
ry s
analy tics
ĠCh i
ĠCh a
Ġequ ally
de ploy
Ġlik elihood
ĠCru z
Ġch ron
Ġsl aves
ĠP S
Ġd w
ĠEv ents
Ġmanufact urers
ĠDE BUG
Ġpal ace
Ġcomm ut
Ġcond em
ĠConserv ation
Ġimm igrants
ĠS ex
ing e
ĠB orn
ĠFlore nce
n ested
Ġ$ ^{
aw k
Ġlog arith
Ġsimilar ity
o ons
ĠArch ives
Ġemotion al
get Time
ic z
ic us
ĠĠĠĠ ĉ
ĠI MP
lim ited
it ol
ĠScient ific
les cope
Ġcl an
B as
Ġre vision
sh ots
Ġparticip ating
cons istent
Ġs id
Ġsub stit
Ġcho osing
ĠR ou
Ġpro ton
ĠP resent
P rior
Ġneutr ino
Ġarg v
R oom
Ġm os
m ade
Ġref erring
Ġp our
ent ities
ĠA w
MS earch
ĠM is
Ġim perial
Ġb ay
&= &\
cal c
ĠL an
Al tern
ull ivan
d ummy
ĠN y
m icro
MA G
I LED
Ġcon e
char set
Ġd Ã©
ĠBob by
Ġb one
Ġaff ord
< >(
um ped
ĠCl uster
M ur
ĠS F
ĠM ail
r ans
e ur
i q
Ġund ert
ĠIter ator
m is
Ġp t
ĠP aint
ĠN at
Ġdrum mer
Ġrun ners
Ġg re
Ġad venture
Linear Layout
oc ent
Ġrecogn ize
Ġw ard
new line
Res olution
pos able
h uman
m aint
ĠY ale
Ġel igible
ĠStan ford
A W
"> {
iem ann
ĠLabor atory
se ek
Ġv e
Ġprint ing
Ġb igger
Ġre actions
B and
poly mer
Ġimp ly
end um
D utch
ING S
Ġpl astic
Sing les
ĠM az
Off ice
ĠAnn ual
ch rom
organ ization
Ġo c
tr aining
Ġsus pect
Ġrepeated ly
ĠS ang
ĠTh under
abric ator
B AD
ĠG em
Ġdoub t
Spec ies
ĠTem plate
eg en
y led
ol ition
=\ {
Ġrad ar
get s
const ants
r ated
ens en
ond o
ĠR oll
al tern
play ing
Ġt anks
20 2
Ġind ustries
Ġneighbor ing
ĠHe in
Ġspect ro
c ou
ĠSt ef
Ġstation ary
Ġim posed
ĠField s
ĠOt tawa
wall paper
ĠVen ice
track s
Ġconflic ts
Ġlog s
Ġlabor atory
m eter
ĠUS B
ĠTre as
Tok ens
om ar
R ock
tr on
og ical
ĠTh ir
as List
M U
Ġship ping
Ġro ster
Ġunsuccess ful
18 47
Ġprov inces
log ic
et ype
Ġr itual
Â ½
\! \
Key board
Ġconduct or
the mes
Ġsac r
Ġemploy ee
down arrow
Ġsuggest ing
Ø ³
14 9
En code
Ġc rypt
w heel
ĠHen ri
Ġt oured
Ġk inetic
ah an
Ġinsp iration
Ex change
AP PLICATION
Ġcallback s
ĠLe eds
ir ts
ress es
30 4
m ot
b uck
T ake
Ġconsequ ences
Ġ" :
18 51
Ġear ning
Ġm ic
Ġr ay
ĠD ennis
m achine
w b
inc eton
ad itional
get Logger
Ġm arch
Ġbor ough
G LAPI
14 6
ĠRuntime Exception
ĠAl lied
Ġse q
Ġdist inction
m os
ĠC ant
ĠNe il
Fr ance
ĠW u
Ġbelong ed
Ġt ons
min ster
Ġin fr
P rec
Ġconnect s
ĠCong o
ar ations
Ġwatch ing
ĠAl gorithm
Ġfilter ed
I rish
ĠK el
ï ¿
ĠÐ ¼
Ġdecre asing
Typ ed
ĠCom ment
Ġexc av
open api
ro zen
ĠA str
Ġme at
cl ide
R F
ĠP arent
nav Bar
Ġvari eties
Ġph arm
Type Name
Ġdoll ars
m ime
ĠInd ependence
Writ ers
P DF
get Data
Ġconvers ation
ob e
Ġb eta
Ġfun ctor
F LOAT
Ġc ogn
define Property
La unch
log ue
Ġsim plicity
ĠD id
Ġexper ts
Ġaware ness
ĠCom put
Ġinter ference
ĠAb u
ĠFish er
Ġbe ating
Ġbl ind
Ġh ub
Ġattr actions
Ġturb ul
M W
ig i
13 3
M id
Ġstand ings
F all
Ġsk ill
Ġbirth day
Ġle agues
ĠDirect ory
) (\
cor respond
ĠWars aw
Ġto mb
bound ed
ĠVal ues
Ġfast est
ĠP erry
cur r
ĠM ode
Ġ\ (\
col ogy
ct l
}/ \
Ġc v
Ġp ale
ĠR alph
mar shal
ĠS U
ĠEr nest
Ġs ang
Ġr um
Ġfl ights
an che
ac ional
Ġplay off
ĠK id
ĠTh ai
Ġun ity
C odes
Ġto x
Ġg fx
res pect
Z ip
Ġkey word
ĠRead ing
ra h
ter min
rec v
ĠBris bane
2 10
Ġdisestab lish
Ġent ang
Fiction al
Ġswit ched
Ġmat hematic
conf irmed
s qu
get Default
sp er
Trans l
Ġimprov ing
ĠPed ro
& =\
Ġmonth ly
ac co
Ġspe akers
Austral ia
Ġ* _
ĠP AR
is Valid
Ġdef erred
Ġinf lation
p ip
eb ook
erm ark
Out come
20 4
Ġrec urs
T OP
on er
Ġo mitted
"> Â
ĠGil bert
') ).
ĠCh o
ĠÐ ·
ul atory
ĠBO OL
ĠN ormal
U i
ack ets
oc c
log ical
Ġtro uble
for ge
df s
f ilm
Ph aser
Ġterm in
document ation
ĠForm er
Tax onomy
h dr
ĠM ills
ĠCurrent ly
12 34
bar s
ÑĢ Ð¸
ĠW ells
R X
Ġ" </
Ġdraft ed
b age
ĠS alt
Ġess ay
ĠG olf
Ġqu oted
qu iry
Ġintro ducing
V IS
Ġel abor
Ġassist ed
Com posite
ĠFr anÃ§
ĠHil bert
oc ate
St udio
Ġdeterm ining
Ġ' [
Ap is
B ank
Ġpay ments
Ġthr one
> ("
ĠA pi
ĠD y
}) (
ĠShang hai
Ġmer ely
Ġver ification
Ġj e
Ġprom oting
Ġexc ited
valid ator
Ġacc ret
Ġwithd rew
Ġretriev ed
ĠR us
Ġj ury
ĠSus an
Ġd il
ĠS ierra
vis ual
Ġst ere
port folio
Y S
t ec
Ġin hib
Ġdep ression
Ġtreat y
$\ \
Inter op
ut ely
Ġecon omics
\ -
Input s
ĠM B
lin ing
h ind
per form
ĠSy rian
] ",
æ Ŀ
ĠA DC
ess a
ob i
Ind ices
sk a
p romise
OP EN
Ġl od
Ġplay wright
Ġra ising
" +
h agen
ĠS ample
Ġrestaur ants
re nd
18 53
TR ACT
Ġprov en
ĠG ang
Ġ$ ("#
m anaged
{ (\
Ġarrang ements
13 4
ĠHug hes
ĠAl t
}\ |
T reat
18 49
ĠK il
NO WN
ĠS oph
ĠT IM
Ġvis itor
Ġren ov
Ġtarget ed
ot er
Ġtem plates
ersh ire
St e
Ġscholar ship
ĠR ena
æĸ ĩ
ĠN C
Vertex Attrib
Ġpl acing
/ $
Ġorgan ic
ĠB aby
Dependency Injection
Ġnull able
Ġm oral
Loc ator
it ars
Ġ- &
Int o
sw ift
Null Exception
ĠBrun swick
B in
ĠR ah
ĠA I
Max imum
g ro
13 7
Ġdec imal
ĠHar vey
Ġh orn
Ġsub urb
] ));
ĠS IL
text up
s uffix
> *
Ġmut ual
Ġexhib ited
Ġmoder ate
Ġse eds
Ġrender er
list ing
Ġguarant eed
Ġst ake
ĠR T
ĠSt ories
ĠSh akespeare
Ġpredecess or
Ġdec k
Ġem peror
Ġactiv ated
Ġcross es
ĠF IX
Col lege
Ð½ Ñĭ
u ator
Ġsh allow
Ġrev ised
Ġm ess
ON LY
ĠB ach
Ġdescend ants
IN PUT
Il legal
Ġaccept s
DOCK ED
Ġmorph ism
Ġhun ting
ĠS ony
-- ;
Ġstead y
Ġflo od
Ġcontract s
re ports
ĠWell ington
Ġvol leyball
ab we
mark et
Ġhonor ary
M icro
ĠC lean
Ġegg s
Ġso ap
ãĥ ³
é ĩ
Ġpre st
Ġcons ensus
Ġing red
ĠB av
CON F
et ter
Ġb ishops
equ ate
Ġor n
ĠAdd itional
Ġposter ior
f ollow
ĠPart ners
Ġlo ops
Ġl ights
Ġste ep
ĠCard inals
Ġabund ance
Ġcompet itors
n ear
Ã Ĺ
Ġirre ducible
Ġcor ruption
Ġp ag
ib lings
Ġ" ");
Ġ nd
omin ator
ĠLIC ENSE
Ġb oss
Ġcut ting
ĠSt ack
Ġsc rap
at z
ever y
Ġsong writer
Ġbre ast
ĠBro ther
sl ug
ter ms
Ġob lig
å Į
ment ion
Con struct
Ġw arnings
HEAD ER
Ġcompos itions
ĠBel arus
EX P
Ġrock s
Ġc emetery
GEN ER
IC AL
f urt
20 3
Ġd ash
ĠLat ino
( <
ADD R
Rec ent
ĠCl in
Ġconj unction
Ġw orse
ing en
Ġoper and
ĠPhil lips
Orient ation
L ead
Ġmaint aining
ab ove
ĠS ER
Ġcomb ining
ĠMe chan
node Type
\, {\
ĠGro ve
P TED
Ġassoci ations
n orth
t u
Ġbe et
Ġb arrier
un ning
ĠSh op
A mb
ish a
ĠLe o
LE FT
V ars
al yst
maz ing
ph oto
S oviet
pl o
mat htt
S B
Ġcorrel ations
ĠC u
Ġland ed
d id
back up
urs ing
at em
prevent Default
Ġpark ing
ber ger
ia z
Ġdis cre
ĠNew castle
veloc ity
RO P
ĠW onder
[ _
Ġver b
{ })
Ġ ):
text color
+ -
B tn
Http Request
CP U
aur us
Ġc p
Ġpos it
ĠG uild
Opt s
ag ation
Ġmeas uring
ĠCor ollary
dim en
Ġastr onom
ĠH O
ID s
C ities
it us
Over flow
ĠFil ms
ĠSe an
fin ish
ge om
Ġel dest
Tool bar
ĠP attern
Ġfra ud
ĠS ic
em b
request s
15 2
Z end
im mer
Dis able
Ġm ilk
ur red
resource GroupName
anc a
ĠNap ole
Ġs ugar
Sw ift
play back
uck er
is che
ĠCh apel
ĠDi amond
ĠY es
ĠY ellow
Ġpro ductions
AT T
ĠWork ers
Ġag greg
ĠW alt
SE CON
Ġsett lers
Ġsub space
Ġinc umbent
30 1
T urn
ĠĠĠĠĠĠĠĠĠĠĠĠĠĠĠĠĠĠĠĠĠĠĠĠĠĠĠĠĠĠĠĠ ĠĠĠĠĠĠĠĠĠĠĠĠĠ
ĠWed nesday
T i
Ġcomp ounds
Ġd ocker
Res olve
Ġar ise
M ULT
Ġm i
Initial ized
API ENTRY
ex ist
Ġcons olid
R P
re ement
ĠProtest ant
T w
Ġdisestablish ments
ĠArt ists
Ġoverse as
Ġfe as
ĠM orning
ie u
C ss
ĠR oche
imb abwe
Ġl iv
ĠKer ala
ĠB ak
get Current
Ġpers u
Ġ) {
pro pto
ĠGreg ory
it zer
ï¿ ½
ĠStat istics
B ill
ĠO m
Com pute
Ġyour self
Art icle
und o
16 6
C am
}} </
C LO
raz y
Ġplan ets
Ġs isters
ĠB ert
Ġr ings
Ġphotograph er
idel ines
Inv ocation
L ove
ĠS oon
Ġc attle
ra id
ĠCl iff
NUM BER
ĠS ig
ov ina
M ary
eg u
C ached
Ġ& $
oss ible
Ġneut ron
? )
in ja
ĠV oice
N ER
Ġrecogn ised
ing o
ĠS ent
Ġse aled
ver ts
ĠC OP
ĠB order
Ġcomb inations
Sm ith
ort ion
ter rit
Ġw el
ĠP L
Ġtr uly
BU F
Ġtrib ute
to k
ÅĤ aw
as se
ĠCom merce
ĠA ncient
(' ../
ĠNot able
andid ates
ACCE PTED
k ubernetes
ĠD ialog
Ġident ifying
S pl
ĠQu ant
Ġan ten
g res
s il
bo at
Ġcur r
ĠB ald
Ġev ident
Ph ys
W ild
Ġs cre
ĠK ash
Ġsp ots
ĠÐ ±
æ ³
E ven
D evelopment
Ġstart up
Ġde emed
T IM
Ġsusp ension
clide an
Ġgr ave
mu x
song writer
P reference
ĠA F
H it
navBar Cell
Ġ( ((
W D
Ġappro ached
w yn
Ġgather ed
Ġdevelop ments
ãĤ Ĵ
ĠAd miral
Q UE
b org
ĠPaul o
list en
ĠAir lines
prop ri
Ġmanufact ured
T oday
l ane
sche dule
Ġt one
ĠK ind
Res ize
PROP ERTY
"> "
26 0
out line
d an
t lement
à¤ ¾
Ġdepart ments
inherit Doc
ĠR ect
Pers istent
$ ^
ĠF ly
13 8
it el
scal ar
ĠRev ival
Ġrecip ients
ĠP av
Ġs le
Ġconsist ency
P B
ĠM uch
Ġs aving
Ġdis appoint
Ġav ailability
ĠAng lican
ff ield
Ġauthor ized
ĠBaron et
k le
Ġdis aster
At l
Ġtour ing
f ee
ĠV ict
Ġunit ary
atche wan
ĠGL float
R en
w y
Ġp b
em p
CLI ENT
Ġbatt alion
V T
r ice
D AT
Comp ilation
Ġnegot iations
Ġappre ci
rest ore
Pol it
umb ai
Ġtrad itionally
ĠSaf ari
spec ified
18 46
ĠFried rich
deg ree
-------- -
NO TE
li ers
Ġcap ability
ĠHe ader
S eed
rec ords
tele phony
B ot
Ġvent ure
ĠTh ursday
Ġblock ed
ĠChe ster
IT ER
IF T
anc ers
Ġadv ers
Ġacceler ation
Ġh ooks
Start ed
ĠSeb ast
Ar c
Ġgr ain
Ġreserv oir
ser ts
13 1
Ġent hus
Ġt ick
ff ic
Ġup coming
ĠSud an
ĠMal ay
ĠK in
h or
st ation
) ](
d ater
Ġresource GroupName
ĠManu el
if olds
External Project
}) ^{
J im
ĠD NS
pos itive
Ġb le
Ġenc oder
Ġant icip
ens on
J an
ĠCh ang
Ġ\ {\
lic al
F re
fl ash
. ).
g row
ĠB un
olog ically
ĠScot ia
)) {
ĠAb raham
Ġpet ition
Ġapprox im
Ġsynt hes
ism atch
Ġmon ot
Ġloc als
Instance Of
ĠL ov
UM ENT
ĠEdd ie
] ^
Tra its
ID ENT
Ġass ists
Ġun lock
w ent
erg i
add er
Fl ush
e er
ĠB eth
Ind ividual
ĠMont gomery
Ġclean up
je ctions
D ER
Start ing
Ġcontain ers
amp ed
Ð½ Ð¸
is ers
Ġel astic
ĠC ox
Ġth orough
ĠSh ared
Ġcomput ers
ĠSD K
ĠLeon ard
up les
uls ion
ĠPos ition
Ġre fin
Ġan onymous
Ġprof it
oper ations
2 64
Sup plier
' </
H a
ĠPal mer
ĠArch itect
ric ulum
ĠSet ting
Pre view
) ];
ĠSecond ary
s yntax
{ .
BO DY
Ġreview ed
x ff
Hen ry
ĠĠĠĠĠĠĠĠĠĠĠĠĠĠĠĠĠĠĠĠĠĠĠĠĠĠĠĠĠĠĠĠ ĠĠĠĠĠĠĠĠĠĠĠĠĠĠ
Ġneg lig
r ag
ĠFerm i
print StackTrace
ĠEn sure
ĠDo es
c rypto
Th ird
mult line
Ġm a
Ġgraph ic
Ġwealth y
Ġr iding
fin ity
ĠEn um
ib us
st orm
um bs
Ke ep
ĠC ris
up arrow
Ġaux iliary
Transport ation
h ibernate
Perm alink
Spr ite
ĠA DD
ec ca
ĠD ig
f ive
r int
F inder
R eb
Ġreal istic
C riteria
Ġcommit ment
UM N
à ¹
Ġg ear
ĠM eta
ec raft
ĠS old
ĠAg ent
se en
u o
Ġsurv ival
Ġpitch er
n ick
Ġt ours
am ation
Ġhosp itals
ack er
DE V
p ow
so ap
ST EM
14 1
amb ers
Ġdial ect
Ġdialog ue
Sever al
Ġart work
ĠPalest ine
Ġsur prise
Ġdi agnostic
ĠCam eron
F K
Ġfun eral
sim ilar
Ġdem o
ä ¿
ĠS yn
ĠR ole
Ġphot ons
y t
to o
Ġconv olution
ra ils
ĠMar shal
Ġtot ally
ne z
az ar
Ġthere after
Get ter
ĠSp encer
Named Cell
m itt
Î º
nd ez
Ġal i
Circ le
Ġr ice
3 75
Ġal gebras
ĠC ycl
vel t
Ġhol iday
ĠBos nia
Ġinternational ly
asc ii
as ia
ĠSaf ety
ig ue
ER Y
Ġal phabet
on omic
Com position
Ġbor row
if inals
Ġparse Int
l st
F ort
Ã© g
ĠB il
}^{ +
AS K
Ġm p
min imum
Util ities
------------ --
ĠDes cribe
Ġindic ator
Ġf ur
Dec ode
ĠTransport ation
Ġset Up
)) :
Ġleg it
foot notes
Ġcer emon
Ġmechan ics
R ugby
s amp
th al
Ġemphas is
ĠMer it
A ws
Ġt ier
in as
Ġcoll isions
bo ys
Browser Detector
ĠIda ho
ĠâĢ ¦
param ref
ĠType Error
s ound
Ġver ified
ist ically
th reshold
Ġsub marine
Ġenc rypted
ic ious
file Name
url s
Ġre act
\| _
ĠSw an
Wh y
, (
load s
ĠMon th
F atal
ĠS ey
Or d
Ġtr ap
Im g
Ġbl ues
Ġsurpr ising
M ah
A WS
Ġassum es
Ar row
Ġtravel led
om ed
im an
Ġ\ [
Ġis set
ak ov
br ains
Ġiter ate
ĠConfeder ate
=" {
tr ight
pret ty
Ġ( +
jav ase
ĠHamb urg
m ine
}. }
mem Item
h it
Ġinit With
names e
Config ure
Ġrat ings
ij a
Ġfight ers
ĠR an
h orn
ĠL IMIT
get Context
Ġspher ical
Ġreg ulation
ou ches
TO KEN
ĠR av
Ġtax es
Ġref ere
um ann
Ġvar ied
Pl us
ĠGab riel
USE D
Ġdoc s
ĠColumb us
Ġinter cept
l ar
ĠMar io
iz a
F ee
pro j
Ġgold en
Ġinter change
ĠC NN
un credited
Ġg al
sk in
Ġj u
Lou is
ĠAl pha
Ġde als
Ġsup press
ĠDr ama
Rot ation
Ġestim ator
Ġbrows ers
Ġcompan ion
Ġens ures
ĠS part
Im plementation
LOC AL
Ġtr ick
il io
! ");
stitu ency
DE C
NAME SPACE
ĠHar bor
ĠNash ville
ĠV ent
the ory
Ġsub t
o auth
ic as
seud o
å® ļ
und ers
Filter Database
osl ov
Ġconstitution al
ĠE cuador
Cal c
ĠIn stit
ĠPlay ers
ĠWeek ly
ĠC raw
AC CESS
Ġen emies
ĠZh ang
out ube
000 1
Ġarr iving
Ġcert ified
ĠS oci
ĠT E
ĠTun is
H ouses
ĠP ush
Ġdes erial
Ġabs ent
W ire
Sh ard
R oad
at ta
Ġdram atic
Ġcancell ation
io let
ĠSh in
Ġs el
k ern
L F
Ġpar ad
æ į
ĠN athan
Ġt ends
ad just
aut hentication
Ġexhib itions
inter faces
host name
Ġs weet
Ġe at
Ġbur st
h yp
end ent
ORM AL
od b
te es
Text Field
he ap
un s
ĠRevolution ary
Ġare na
ĠW ag
Ġexpl ored
Public ations
Ġadm its
Ġc amer
ĠRay mond
Ġs ick
ĠT uesday
g ender
ob ar
Content Type
ĠRh odes
) ',
Ġabb rev
Ġterm inus
ĠP ent
Ġtim ber
Ġan ce
-> {
og o
hand ed
Ġarr ives
C li
b ecause
Project s
Ġâ Ĥ¬
Ġco ffee
Ġearthqu ake
Ġt issue
ĠM ik
STAT IC
ĠLag rangian
re try
13 9
Ġsearch ing
Play ing
screens aver
ĠHit ler
Ġw ake
ĠAr med
Ġre called
d g
ot ypes
$\ ,
ĠB A
int ent
Ġen compass
Hand lers
TH READ
ĠH ub
\ },
H ouse
oy age
uss els
ĠA aron
Ġinf ection
Ġresign ation
Ġcons iders
Ġfif teen
ĠO scar
Ġsynd rome
Ã ¯
Ġc riterion
ĠW ald
Ġprogress ive
ĠAgric ulture
ph al
inter action
Ġassert ion
Mix in
Ġpian ist
ĠS urre
ar is
ativ istic
P s
Ġthr iller
Cre ator
col s
ĠTib et
P OL
ĠL A
ADD RESS
Ġsum mit
Ġad res
ploy ee
* \
2 17
oc ene
pr us
ĠRey n
Ġb ag
20 8
left arrow
ĠPer th
ath a
14 8
Ġgener ations
Ġcompris es
Ġ/** <
ĠHel p
Ġtim ing
TIME OUT
Ġa thlete
Ġke eps
="../../../../../../ ../../
ĠC WE
l ishes
Ġinter vention
Ġreg ex
Ġarg c
ĠDe ut
umber land
Ġmain stream
call s
ĠLink ed
Ġnick name
ĠV illa
et erm
Ġs ailed
> ',
Ġ è
ud ge
15 1
Hel pers
Ġanaly zed
Ġcou p
W ords
ĠG az
ĠParliament ary
H uman
Ġd f
co ins
f und
s ized
ĠF lying
ĠL amb
Dis covery
* }{
Ġhous ed
Ġbatt les
Ġneighbour hood
ĠWil helm
Ġaf ternoon
ĠAng els
O IN
b ash
sup ports
ertific ates
p ent
Ã¤ r
Ġt iny
Ġburn ed
Ġnovel ist
Ġcoll apsed
Sl ider
Ġcop per
ĠH ir
ĠCom pute
Ġmon astery
Ġc ow
ur ated
Depend encies
B F
h h
() }
West ern
G G
cho ose
ro e
ose velt
ĠEncycl opedia
ous ing
me as
ĠNorth west
sole te
m art
Ġdesign ation
c nt
Ġany where
XXXX XXXX
am en
ĠP and
) _{\
Ġprelim inary
Red uce
Ġencour age
ĠMil waukee
] "
ĠJ in
Ġco at
> ",
\ [\
Ġthe sis
ark er
am y
Ġdistrib ute
Ġr h
Ġqu ote
ĠCheck s
\ }.
Aut hent
Ġdebut s
Ġexhib its
Ġprot agon
ĠBlo om
P references
r ab
() "
ĠArg s
Ġsw ap
d eleted
ci pl
H I
Ġh istogram
ĠT odd
Ġconven ience
IL L
anc o
Ġexam ine
territ ory
Ġl azy
n v
ĠD in
Process ing
æĺ ¯
I reland
Ġour s
Ġdiss ip
J ul
Î ¯
Ġco ord
Ġf ert
m q
Col umb
M igration
ex act
Sample s
Ġ[ -
Ġcre ator
Ġconstitu encies
Ġobserv able
spir acy
uzz le
act ics
Ġdiplom atic
P TS
ĠCom plete
ĠE ld
Ġav iation
18 44
Ġneigh bors
ĠSc ar
Ġor bits
ĠDev on
ĠPr ague
Ġw arr
ĠJ ak
ĠCom b
g est
Ġ[ (
Ġagre es
Ġ _{\
def n
Ġsynt hesis
ex tr
m igration
) }$.
r age
Ġattend ance
ĠTas man
Ġm amm
ĠI con
im eter
ri o
D eb
Ġpure ly
Ġgen es
Ġintr insic
ĠH ave
cred entials
query Selector
ex c
Non Null
id ity
P a
d yn
ĠEx per
]] ></
ĠT ong
Ġtrav ers
Ġd ummy
Ġphys ic
Ġn inet
Ġpreced ing
ĠRe ed
IS O
Ġfeel ings
Ġemp irical
Ġab ilities
n ut
M gr
Ġgard ens
Ġ$ ('.
Ġserious ly
Ġfilm ing
ĠC oun
ĠRE AD
ĠB ened
ĠStock holm
ĠU ri
div ider
access or
Ġtraject ory
. -
Ġinj ection
ĠLi u
ĠRh ode
Ġhe ating
Ġac res
lo ose
ĠCont roller
Ġun incorporated
Def ine
ĠWrit ing
Ġ ].
ĠP icture
ap a
So ftware
ĠSw ift
add y
st ed
vet ica
ĠN AT
eg al
Image View
ĠOt to
dash board
Un incorporated
ĠLa ura
ĠR ever
Comp any
all ing
ĠThe me
TR A
' })
Ġfe els
Ad ministr
oid al
w al
ph ib
Î ³
Ġr uler
Ġsh ops
18 45
w l
ä¸ ª
Fin ished
View Model
Per formance
Col ors
ĠEs sex
Pro ducer
ĠEd it
c odes
com press
che m
Ġz ones
æ İ
Ġor chestr
utor ial
-------- ---
ĠC inema
tright arrow
Ġcle ared
w ang
jet brains
Ġp reference
ĠC rit
40 1
Q R
ĠCo ach
ĠB uilt
ill on
ĠWIT H
Ġtour ism
(" ")]
m akers
b ur
Ġ* **
ir us
Ġmet ropolitan
Ġagre ements
Ġproject ive
hes es
K O
art et
T s
b uffers
ĠR af
nap shots
ĠLuc as
ĠChar acter
P in
$ }}
ph ysical
m ith
ĠS ou
ĠR uth
Att ach
ĠD aw
ĠY ES
im i
Ġsole ly
Ð° Ð»
Ġphys ically
os opher
ag ers
Ġcent res
EO F
ĠR at
ĠRe ich
ĠOriginal ly
ĠM ine
linked ExternalProject
product s
by ter
ĉĉĉ ĠĠĠ
root Scope
direct ive
Ġl ying
ĠD anny
Ġexec ut
Ġc ave
ĠAdd s
Ġinduct ed
ĠCroat ian
Swed ish
fam ilies
cover age
(( (
ĠF at
Ġin ference
Ph abricator
Ġelev ated
Ġout door
Ġin cl
Con struction
ar ms
ĠClar ke
x c
Ġcons ent
Callback s
Ġph osph
Ġtravel ing
sub title
ro bot
if etime
ĠK ill
ĠM oney
Comp ile
1 200
al ways
mod ern
get User
ĠByzant ine
Ġd eter
ĠK or
ac cur
ĠA ires
Ġl akes
Ġtool tip
Ch rome
G reek
Ġdebug ging
d h
map per
Ġmanag es
Ġrep ublic
n od
ĠM usical
ĠAct ress
Ex pl
Ġun set
su ite
ĠE mb
ãģ Ļ
el ia
k ill
Ġ ))
j q
Ġmin istry
^ (
s ap
im ity
flu ence
Ge org
, ...,
Ġtr ump
Ġm ature
ĠOr d
tw ig
g ap
Ġ* */
Ġun stable
"> #
ĠS ter
Cl osure
linkedExternalProject Path
ĠEV ENT
Ġan not
g ulp
ĠC T
Ġaccompany ing
tem perature
Ġtransl ations
ĠOut standing
Ġab oard
Ġcontinuous ly
abul ary
f air
ul ers
ĠC ork
val ued
ĠW allet
Ġatt achment
j er
ew ise
var rho
Na N
Ġoccur ring
? .
Ġ ~\
Ġh int
W ell
Ġbas in
E ducational
ĠYugosl avia
H H
Qu ick
Code Attribute
footnotes ize
eh icle
Ġn aming
ĠPre vious
Ġdef ended
aw ks
Ġdefault Value
ĠIndones ian
ĠD MA
ĠSom erset
Ġveter an
LOB AL
ĠST AT
ĠSV G
ĠF eb
Ġwrit ings
n P
Ġb uffers
ĠZ ero
ĠC ec
D K
Ġcou plings
r in
* >
ĠMark ov
f lix
Ġcount ing
ĠJo an
Ġpoint ing
Ð½ Ð¾
14 2
if s
Ġ] );
NA P
ç Ľ
Ġleg islature
insert ion
ro les
ish i
Im plemented
we ather
Ġeigen value
Ph ysical
Att achment
ĠD ame
ĠD rop
ĠL iv
Ġaff air
Ġannounce ment
Ġh o
ĠMig uel
Ġob st
M i
nc y
display math
ĠR osen
ĠInd ies
uc le
Ġl oved
Ġint ense
Doc s
le ave
Ġshe ar
ĠAn aly
W C
Ġlist ings
Ġconf used
ĠKn ights
")) );
ĠB ug
US A
L ie
ĠG ate
v card
ĠS ul
ern ess
Pres ident
h ls
is cal
P N
ĠJ unction
Ġcolle agues
ĠW inn
exp anded
Ġal ien
ĠCit iz
S us
Ġc ategor
ĠPhilosoph y
ĠB inary
Ġspec ifying
im iter
em e
li us
Ġq ub
ĠPo isson
ĠSet up
Ġmidfield er
P ak
ok o
Ġdepart ed
ou x
ĠL isa
ĠRel ations
I ts
I OS
Ġv ow
Ġsup plement
p it
al in
Ġpl acement
O ps
mes h
Ġcitiz en
Ġact ively
m ob
b az
Ġdel iber
ee per
ĠBro s
n ol
Ġsp y
urch ase
unt u
bro ok
neut ral
D ark
P ac
r ac
Ġ< ![
port ion
m or
Ġr ab
E s
Ġdog s
Ġb rew
Ġpar agraph
Ġc ust
Ġb uses
ĠPlan et
L uc
Neg ative
D ele
ĠPl anning
"> ,</
r ust
> =
u ania
l ov
ĠC V
Ġop am
ĠTr ain
j ournal
Ġcaref ul
ott ingham
Ġ\ |\
ipher al
ĠC over
Ġ\ }
Ġbe an
ĠEx pr
Mar shal
col span
> #
unc an
T ON
Ġun ions
STRE AM
ĠH aving
ĠG ene
ĠK ate
Ġres umed
default Value
ad ier
' ></
ĠPer iod
i ast
al bum
ĠG or
ic it
ĠCO M
Ġshut down
ĠAmb assador
is EqualTo
2 130
ed ges
ist le
has Next
ĠF oster
ĠTr avel
keyword s
GLE W
Ġa ster
Ġj ew
Ġexec utor
Ġnormal ize
ĠSk ip
Numer ic
ĠT all
ats u
Ġcart oon
Ġathlet ics
ĠN intendo
Ġpl otted
B on
vari ants
Ġpl ates
comp any
ĠBat man
Ex ist
ual ity
G erm
ĠEqu ation
ĠDivis iÃ³n
ĠE ight
}{ {\
Ġrem ix
ĠF L
Ġartifact s
S a
ä» ¶
Ġaccommod ate
Ġal lies
ari ate
cknowled g
w oman
Pro position
ij k
d ifferent
Serial ize
B attle
EN S
ĠF olk
ĠTom my
ur bed
( %
ĠI v
eg an
ĠBenn ett
ose x
Ġge odes
Ġdistinct ive
Ġh ills
ĠSh ir
P AGE
ert y
18 37
bor o
Ġanth rop
Res p
UL AR
Ġreal m
ĠGrand e
Ġp unk
Pr incipal
Ġc ad
ĠM umbai
(' \
mid t
ĠS ql
ĠEag le
ĠUg anda
K G
ĠT ypes
å ĩ
Ġpl ural
ĠPr ison
Ġnormal ization
So ft
ä ¹
in ia
b ay
PI O
b ib
On line
Ġhistor ically
User Agent
Ġtor ped
Ġaccret ion
Transform er
SY S
en i
Ġam pl
C s
m ne
Ġtr aces
A mazon
Ġis omorphic
}) =\
C AR
Ġim aging
ĠMar x
Dec or
ĠIn s
Ġguid ance
ĠS olar
Ġjav adoc
m ong
Ġed itors
p es
Ġro uting
ff bb
Ġgr ants
Ġhighlight ed
ĠB ears
*} [
Ġlight ing
M AT
ĠComp etition
Ġvolunte ers
Ġset Timeout
An swer
U INT
ath i
ok i
text sf
ĠDur ham
Ġper ceived
Ġexplos ion
Ġfoot age
Ġvar s
Ġcheck sum
Ġfarm ing
l ucene
ĠBit coin
ĠRena issance
ĠN ancy
eg ovina
Ġconsum ers
Ġaccord ance
Ġh yd
ĠB ent
current Time
ĠAh med
get Parent
SE SSION
18 20
ĠPl ugin
Ġaff ine
ĠH alf
ifest yle
LA S
ah a
ĠCon trib
ĠK re
ĠVari able
L atin
Jose ph
:: _
Ġmer ch
small skip
Ġl ens
Ġ{ $\
oper ating
Ġpo ison
Ġeng age
eff icient
du al
E u
Ġhand ed
Ġfle w
Col on
ĠUtil s
Ġmiss ile
Ġconcentr ated
user Id
node Name
Ġqual ification
ĠG host
ĠDes ert
ĠDec ision
ĠExec ute
Observ able
Ã© m
W T
Ġper ception
border ed
ĠS L
Ġen rolled
Ġfl avor
Thread s
M Q
Ġ ));
ATTR IBUTE
Ġprob abilities
22 4
ĠRo osevelt
d ro
ĠP att
aut hent
Ġcollect or
ĠMethod ist
min or
ĠL ac
ov anni
FIL TER
ĠTH REE
D J
L ay
][ <
Ġpione er
ĠEngine ers
ential ly
Ġche ss
Ġhe ap
g ol
ag le
i ago
Ġf ol
List View
p ics
up iter
rec ogn
Ġscreen play
æ ŀ
Ġconsist ently
ĠHash Set
W ITH
Ġc avalry
ĠR ules
IT S
Ġinh ab
K K
Ġscal ed
æľ ī
ĠF iction
re load
oc hem
15 9
R U
Ġsaf ely
Ġeng agement
ĠTrans it
ard i
p ared
big cup
P en
il ian
Con nected
0 10
Ġown s
Ġcol ours
ĠAn imation
=" '
Ġv it
un ix
Ġt ension
Ð ¶
Ġbe er
b readcr
n ov
ĠR ams
ĠS weet
Ġjo ins
ink s
Ġsc iences
form ula
~~~~~~~~ ~~~~~~~~
ĠPun jab
18 43
Further more
Ġbank rupt
oot ing
ĠV II
feed back
Ġg ent
getElementsBy TagName
Ġsh ots
Ġh ang
Ġb atter
ĠIn spector
Ġex terior
add itional
ĠRon ald
CA P
ap k
ĠD S
Ġdec oder
Mod ern
C LE
ĠM end
red is
Ġmulti plication
ĠPet e
le f
ĠAss ume
power ed
Ġemer ging
art a
sh ake
Number Of
) }$,
Ġby pass
Ġmidfield ers
Ġver se
ak ef
ĠTrans form
Con nections
Ġpay ing
cons ider
man ual
CO PY
ĠSt atic
ĠN A
ĠJac ques
Ġdiscrim ination
Ġa ws
st ead
on so
Pol ish
NE SS
j dbc
") ).
Ġann ex
ĠA ur
S uffix
block quote
cap acity
Ġcollabor ated
Exp and
Ġanalog ous
Ġ' )
Initial izer
fold ing
us ive
T ele
h im
Ġfor get
Ġgu itars
ĠPol itics
L ess
ĠM otion
Ġn ephe
Im p
Ġgeneral ization
L iter
Ġl as
oy a
ĠCab inet
ĠIn sert
W rong
hom ology
inherit doc
}{ }
Ġshel ter
Ñ ī
Ġv eloc
Ġswitch ing
Kn own
ond e
ĠIs aac
requ ires
7 68
ĠL or
Ġmaint ains
ĠA ST
28 0
BE GIN
the y
sat isf
Can ada
E scape
effect ive
ĠJust in
Ġm yself
ch r
ĠD as
is cher
Ġch ore
int egration
ĠPalest inian
ib a
22 2
ĠDist inguished
Ġpredomin antly
ext ended
Ġgo og
c ern
15 8
s uggest
open hagen
m ixed
ĠBu enos
land o
Ġdrink ing
ap on
ĠB U
ĠU nd
Sh ip
Ġtour ist
A ge
read able
ĠCon sequently
ĠFr anz
ĠSch w
Ġreserv es
c ue
ĠL oss
ĠPol l
P TR
start ed
Ġcult ures
MPL ATE
ĠPear l
Ġch ip
g ary
ĠT ir
ot hes
ĠRepublic ans
erd in
Ġw orn
FA ILED
ĠLiber ty
Polit icians
ĠF ul
Ġan notations
lic h
ĠLeg ion
ĠE S
L es
transp arent
ĠG ren
ĠC ONT
Ġdo ctors
ene ath
In spector
Ġcomp ress
Ġdeterm ination
Ġamb assador
20 5
isc opal
r idden
Tool tip
F ish
Ġp ill
Ġc hest
Ġcan al
Ġs ectors
Ø ¨
Ġconstr ained
Ġreleg ated
15 4
h ub
and ro
x a
Ġhealth y
l v
mk dir
P F
). </
ĠR aid
Ġam big
All ocation
Ġcard inal
Ġm illiseconds
Ġplan es
Cover age
Q T
E F
15 7
ou ched
Ġcomple tes
ĠHar per
^+ $
Ġauthor ization
Ġcosm ological
Â »
Ġo m
Ġi OS
4 000
Ġaff ects
ĠSalv ador
M G
ast ed
f ade
uan ian
ph ant
Ġdeep ly
:// $
ĠSask atchewan
ĠKaz akh
DE CL
bin om
em bourg
18 35
EQ UAL
sub equations
ar u
Ġb er
18 41
ĠLe ic
Ġst olen
Ġdiff ers
] /
ç ±
in crement
atin um
uis ine
id y
N ever
Ġqu as
G al
Ġdiss olved
Com ments
ious ness
Ġbomb ing
ash ire
Ġpriest s
Ġvalid ity
Ġge omet
ĠVlad imir
J ean
Ġ ----------------
art ist
ĠJ ung
ĠA ub
Ġab sol
ĠL LC
Al ready
Ġdiv ide
ph ot
ad apt
18 39
ĠS of
Spec ific
Ġg host
Ġround ed
ĠO ber
APIENTRY P
U kr
OFF SET
U tility
+ $
ĠC ut
State Exception
normal ize
Ġconf usion
Fat alf
ach ers
ĠJama ica
Sm art
Ġd uplicate
Ġg ates
type Name
c ritical
Ġattack ing
W ay
ator ies
Ġ/*! <
L iber
ere k
15 3
? ,
aff e
el ing
_{ -\
CL UD
Ġa pt
ĠM ouse
Ġgu y
ctx t
Map s
er ie
ĠCh an
CONT RO
Ġh i
di ag
ak o
ĠGu id
ĠG y
Ġa u
ĠKr ish
CLUD ING
ĠCar n
\ .
Ðµ Ð»
d atab
Prot ected
Ġprevent ed
rece ive
ĠIs le
ĠCo hen
' ',
m igr
Ġdef ender
Ġg rap
ĠI ssue
S ibling
it he
on ing
Ġpsych ology
ex e
lo ver
log s
ĠPan ama
Ġc f
Ġlimit ing
h ang
Ġs ans
Ġf Ã¼r
Ġst reak
man uel
c out
Ġalt itude
CONT ENT
ĠShe ffield
Ġdem ocracy
B a
Dem o
Cred ential
ĠCour se
m ans
Ġbelief s
ENABLE D
enc oder
ĠPo inter
ĠI de
ĠEm pty
ĠAn a
RA M
ĠAg reement
Ġcontrad iction
Ġnon zero
ke es
Ġun w
Ġun used
ĠFour th
q t
ĠP ir
Ġdr ain
eleg raph
H op
é Ļ
Id le
Ag gregate
Ġexam ination
av ian
ort s
18 12
Ġfoot er
Ġtrav els
Ġc ock
Ġinter active
ĠIraq i
s olution
ĠEp isode
ĠC ord
Ġalter ed
Get Type
ĠCom edy
p ane
Ġa uction
ĠMet al
zh ou
Ġcloud s
ol ics
Ġl ig
ĠH im
be havior
/ ************************************************************************
ĠF lem
View ById
**************** ********
15 6
Ġinvest ors
Ġexam ined
Ġsoci eties
B ay
Ġch iral
l ived
Ġcelebr ation
ĠWild life
t ically
Ġc ouncill
Ġadministr ator
Ġprogram mes
stan bul
P ull
ĠT ensor
Opt im
lev ard
on c
\ }_{
Lin ux
cite alt
ĠG amb
Ġimm igration
activ ated
Ge o
s elling
Sh utdown
ĠD ynamic
sh ops
ĠMaur ice
n f
Ġs overe
am ination
ack ing
Ġcov ariance
re vision
ĠSl av
ord inary
Ġun likely
Ġdecre ased
Ġpil ots
Organ ization
ĠF iles
18 36
Ġrelax ation
h ydro
ĠC ou
Dem ocratic
n ecessary
> @
S on
ild a
Ġquarter back
ĠP om
VER TEX
Ġrepro duce
M ixed
G reat
P ur
) <
b road
ĠS eq
"> '
widget s
Ġv el
Ġful fill
l iter
Ġf ires
ĠS uff
ĠE sc
18 5
\, ,
ĠAm endment
As ian
k al
ĠP ul
ĠPar ad
ĠSus sex
Ġthick ness
ĠHerz egovina
ĠK as
go als
Ass oci
ĠFl ash
Ġre un
ĠEnter prise
18 42
18 32
ĠO g
ĠK ra
M il
Ġc am
Ġc ant
um m
Ġgrad es
ĠWest minster
ĠR iemann
Ġab olished
ular ity
Compar ator
Ġsudden ly
ĠL ak
ĠE mber
Ġcommem or
Ġc d
Ġorient ed
P icture
ĠV ec
ĠCatalog ue
Ġsent ences
ĠAc cept
}$ \
Ġbo ards
Vis it
B uffers
} ")
18 38
ĠPy Object
er i
sh ader
ĠG Ã¶
Ġtr ailing
Ġair line
ĠAl f
Ġbuild s
cat Desc
ĠRail ways
ĠERR OR
itud inal
Ġcomm enced
Des ktop
_{ [
mont on
Ġanaly tical
ull ah
az ard
DIS ABLE
t ap
Ġfile Name
Ġp index
Ġs ung
Ġc odec
Ġcelebr ate
ĠOak land
j in
th umb
i pt
ĠFa ith
Ġ@ {
Ġdisband ed
Ġent repreneur
Ġl y
Ġansw ers
ĠVol unte
Z Z
IN LINE
Ġcomment ary
å ½
W M
Dis patch
Ġintegr ity
Ġsi ege
MLE lement
ME TA
CO RE
Ġpro l
Ġtele phone
Ġstr ain
Ġsub sets
N ORMAL
Ġconsider ably
="../ ..
ĠK arn
P rem
Pop ulation
s ix
ĠSp ark
aj i
op r
_{ +
ĠMoroc co
ĠB R
ĠE D
ĠR ac
IF Y
Represent ation
P et
X T
V ersions
Ġsp okes
Ġpers istent
Ent ities
en es
Ġimplement ations
Ġconver ges
ĠA GN
Ġfollow ers
Big l
u pe
Ġdro ve
Tr im
ĠPr act
ĠGener ation
ĠCorn wall
Ġst eal
und ef
adem ark
Button s
ĠEx ped
Ġextr action
Ġ{ :
Ġexpect ations
Second ary
Ġnovel ists
ĠV il
Ġque en
ry p
ĠLeg al
Ġmem or
MO D
ĠV eter
bol ic
ĠCon cert
ae us
ĠIm Gui
El se
rot ation
Ġnumer ic
j p
Ġpr ince
Ġten ant
Request ed
ĠR ice
Ġgrand son
Ġm ild
ĠV ern
rib utions
Ġf irms
f ixture
m ons
ĠM old
ĠMan it
ĠP ART
n om
Ġnumber ed
Byte String
Ġas h
ĠPh ysical
g md
Ð° Ðº
Ġperman ently
sen al
At A
F s
ĠAgain st
Brazil ian
ĠAl ert
ĠS tra
Ġb ull
ĠG ol
all a
mall oc
For Key
Ġindex es
Ġbox ing
ĠCy prus
F ellow
g art
Ġy es
Ġboot strap
Ġreg isters
COMM AND
Ġo l
Ġfilter ing
Ġch apters
3 30
Ġc iting
arn ess
cal cul
Ġp ow
ĠM Ã©
dr iven
he nd
Ġv in
á ¸
Or Empty
S PI
h art
rupted Exception
Ġaccept ance
j sp
class path
be k
Ġcontext s
P LAY
On Search
Ġlaw suit
ÑĨ Ð¸
ĠZ imbabwe
Ġarg ues
;& #
Ġb achelor
Ġprofession als
Ġhost ing
Ġcho ir
Ġan ch
Ġt ent
Ġin set
Ġstri king
TR ACE
hand lers
ĠJul ian
od ic
Call able
Ġdeg rad
Ġcon jecture
Ġsk etch
ĠL akes
ab ar
ĠSh ape
perm issions
Ġax es
Ġr pc
ĠMay be
Big g
Ġthreat s
ĠTH IS
Ġret reat
Ġflow er
Ġp ap
ĠG ir
m pi
ĠG and
I ce
cl osing
Ġout comes
inst ances
Ġcluster ing
ĠMarc us
Ġcompris ing
in ar
Ġren ormal
Ġv ault
50 1
W ho
Ġover come
Ġpre view
Cur ve
he ll
Ep isode
ec a
exec utor
am as
ĠR ES
Qu ota
no ise
Ġwebs ites
ĠN ine
00 3
ĠGard ens
Ġinter sect
Ġbel t
PO SE
Ġinstit ute
SER VICE
G i
m ile
ĠRem ote
Ignore Case
Ġamplit udes
ast ro
Ġback ward
Ġpropos als
ĠJohann es
Ġfl our
Text Box
ĠInitial ly
ĠR uby
ari us
Ġd uplic
Ġgu ards
av o
sp lice
ĠProv incial
Rec all
Ġperson ally
Ġcoun sel
inem atic
c ats
Ġveloc ities
Ġt enth
Ġillustr ate
ĠN R
ĠPO ST
ast ics
SQL ite
Ġlog ged
ĠEq s
Writ able
Ġconvinc ed
ul ous
* (
overs et
Ġdec ays
N EXT
ĠO wen
ĠCOP Y
å Ĩ
N atural
or p
ĠCont act
Dir ty
ang ered
Ġcor related
Ġt il
IC K
ele t
Ġun safe
Ġprov es
M u
Ġover w
ĠCard inal
l ore
n ai
Ġh aven
pr ises
ĠPark s
Ã °
Ġsust ained
gr and
ĠGu ards
Ġre forms
y u
ĠCl a
Ġdig est
am med
Ġir regular
Ġscr atch
Ġgr ab
ĠSch olar
Ġy ard
F it
y ellow
sh i
ap ing
Ġstud ios
Ġremark able
ik ing
Ġprov isions
"] ["
C U
ĠN umer
D ays
Ġt m
> ");
v b
ĠValid ation
Ġarchae ological
her o
Ġbus y
Ġs z
Ġarchitect s
ĠL arge
Log ical
work ing
Ġte a
Ġindex ed
Sort ed
Ġext inct
" <
ĠS TD
ps y
In stant
Ġbre eding
s cheduler
Comp atible
ĠBr as
depend s
s al
Ġpro position
ĠDis covery
Ġstop ping
Pos itive
ht m
Ġj ail
REQ UI
D NS
G itHub
Ġbound ing
Ġre fr
Ġalleged ly
ì Ŀ
ĠDom ain
ç± »
M acro
PE G
is y
ĠG lass
ĠX XX
Mut ex
ĠH aven
Ġfre ed
ĠPo etry
key board
Ġpsych ological
H o
Ġvol atile
ĠFranc o
Ġacadem y
Ġhouse holder
ĠUr ugu
F red
Ġle ase
Ġmem oir
plic as
ĠP ink
ass ignment
built in
pro duced
ĠGe off
Ġrefuge es
ĠCom ple
Ġform atted
Ġver bose
St amp
({ },
Ġterm inated
Ġphil anth
ĠPak istani
G esture
ĠW rap
Ġob sc
Ph ysics
null able
up pet
Ġreflect s
Ġvocal ist
at an
Ġprom ised
ĠI BM
T LS
ĠPh oto
ĠÃ ĸ
ĠHol mes
Art icles
ĠFellow ship
y our
writ eln
ĠX X
ĠHind i
Ġp id
ĠAct ivity
ĠObject s
Ġhelp ful
ĠR ib
E MPTY
Ġth rew
Ġcook ies
FAIL URE
Ġsqu ares
Ġdist urb
PHP Excel
ordin ator
con sum
n is
ĠIn stitution
ple d
ĠEx hibition
x t
ab ol
}^{ (\
Ġsport ing
ĠNE AT
Ġcontin uity
p ure
Ã¨ s
" ):
Ġo ps
res olver
it ic
ĠArray s
Ġu uid
ĠQ CD
ĠĠĠĠĠĠĠĠĠĠĠĠĠĠĠĠ ĠĠĠĠĠĠĠĠĊ
Ġan isot
ĠY uk
Ġkid n
Ġbrig ade
n h
ĠPr inceton
Ġband width
aver age
Ġmem brane
k el
Ġimprison ed
Up dates
ĠKum ar
Ġm oll
ĠHe aven
L V
ĠCh ern
Ġelim inate
CLU DE
Nor thern
ĠMathemat ics
dr ive
spe aking
ĠS ed
16 7
Ġnow rap
d og
Ġc line
Ġstr ange
Ġparam et
it on
× ľ
Ġconv ey
acef ul
iff e
ĠA ges
ell ers
im on
Ġch at
Ġs printf
Ġst ick
on aut
Ġnew er
d up
x r
We ak
Ġhom ot
Ġtribut ary
Ġin complete
}} ,\
Ġpart itions
n st
Ġins ight
ãĤ ¹
| =
. ')
Ġimplement ing
ĠReyn olds
Sl ide
ĠE lection
max imum
Ch ina
Ġs ad
EX CE
g ie
ĠC yr
sh ore
17 6
Click Listener
ĠA chiev
aw i
C itations
View er
ĠTri ple
ĠW inds
AB C
| _
ad j
if ecycle
CAC HE
R oles
Ġprom ising
found er
Ġw ars
20 6
ĠMal ta
Requ irement
ĠC openhagen
Di agnostic
o ct
( ',
comple tion
Ġp atri
Ġf ade
Ass ume
anim ous
Fin ish
ME DI
Ġchalleng ed
Ġancest or
ro ut
ew s
Ġdist ant
ĠHer ald
Interop Services
Ġsp ir
Ġlearn s
auth ors
Ġmyst ery
hab ilit
}_{ {\
Hash Code
ans wer
Ġcor ps
um ble
ĠH AVE
ĠEvent ually
Ġb ell
author ized
Ġcollect ing
Ġtrans mitted
J ournal
ter bury
ĠH us
Ġsur f
SE C
W IDTH
l azy
ĠDomin ican
Ġdis joint
ER O
Base ball
find er
Ġsh ifts
F ollow
eck o
">< ![
ĠSp ider
sp h
s rv
D TO
eg ral
ĠHel per
ĠCh oice
Ġsup pressed
le z
ear n
B log
c ence
Ġ$ <
Ġ` --
Ġsup ern
ur ities
ĠW A
cf c
ĠEll is
ar ial
Ġn umpy
Ġx hr
igr ated
Ġl ux
ĠWik ipedia
Pl ain
With in
ĠChar ter
Ġharmon ic
DEF IN
Ġb is
Ġim pressive
Newton soft
F old
Ġres iding
ĠHe ights
At omic
Ġadvoc ate
Ġc ryst
ist on
Ġcon formal
ĠTh ings
ble ms
Ġb ary
Ġh itting
e o
ch ars
Ġc avity
Ġcontact s
ĠIn fo
ĠCON ST
He art
Ġfacilit ate
R h
ah u
Ġ[] *
Or g
Ġh ull
Des erial
ĠN as
contrib s
ĠH ur
ĠM TV
ch ief
} <
ath y
Target s
t pl
utr ition
Ġtherm odynam
D ead
Ġw er
h ooks
Ġpit ched
a qu
ĠGib son
W ashington
ĠGl ou
Ġinfin ity
= -\
ĠC M
ĠU ntil
are ncy
Ġvan ishes
EN UM
> ]
Ġfr act
Ġdescri ptions
Ġvo iced
st a
lic es
Ġqu it
Ð¾Ð º
Ġcamer as
c url
uby te
ĠShort ly
ĠFrame work
ĠModel s
ç½ ®
. (\
ĠW ARNING
Ġper pet
bound ary
Ra ises
Ġphenomen a
ĠG alaxy
if ice
åı ĸ
th umbnail
ĠH H
ĠC ounter
Ġb read
ĠA bs
ĠInter est
ĠForm ation
Ġadminister ed
om aly
ĠEm ma
ap ur
Ph ot
ĠB UT
ĠE instein
Ġnot iced
ĠI ss
Ġs f
Histor ic
ĠB od
Ġw ore
ĠU TF
min i
Ġdig its
N ear
S uggest
Ġj ets
Key Value
enz ie
g b
ĠArmen ia
w m
ĠPl ate
st en
Ġco herent
Ġunder graduate
Ind ia
ĠAbd ul
Ġcasual ties
Ã± o
Ġathlet ic
Ġabsor bed
M unicip
W W
Ġalloc ate
Ġw elfare
co ordinate
sup p
Ġfoss il
] ],
Ġtab index
Ð¾ ÑĤ
ĠĠĠĠĠĠĠ Ċ
ĠWork ing
Ġsus pected
ĠM ull
ĠCamp us
2 32
h urst
parent s
Ġfif ty
j as
str ategy
F ACE
orph ism
Am ong
Ġwat ched
w ifi
Particip ant
Ġ" {
Ġup dating
Ch ief
Ġcontin uation
}[ !
char At
per formance
Min imum
Ġinst ability
Character Offset
Col our
det ect
ĠE state
ĠDi agnostic
int endent
ape st
ĠCommunic ation
Ġlink ing
2 12
ĠS EC
ĠR overs
Ġ' --
Ġfound ers
alt ies
Ġnumer us
B IND
| _{\
un til
Ġeditor ial
Ġalleg ations
% );
C ycle
38 4
Ġcor rupt
OUT PUT
Å ¼
ĠA SC
Ġconstant ly
Symbol s
ĠCont est
enti eth
Ġfor ty
Block Index
Ġpresent er
Ġfail ures
ost ream
ĠViet namese
d ing
Ġbot an
O VER
Ġphil osopher
e ctions
ĠDav ies
ab olic
=" .
Ġsimpl ified
be am
Ġattr action
Ġfe es
Ġdetermin istic
ĠPr incipal
Ġfre estyle
Ġconduct ing
ĠWood s
Render ing
Ġcivil ians
ĠLanc ashire
B all
we ights
ĠG NU
ĠLith uania
ol y
ĠC rist
Ġind oor
ĠWar ri
Ġcon clusions
Ġch rome
ĠR achel
Ġun changed
Ġport al
le igh
Con serv
ĠP H
Ĺ ãģ
ĠAl bums
r p
CA SE
ĠM ang
z el
ĠEx ternal
Ġl ar
Ġb onds
DE SC
Ġident ifies
then Return
ĠHop kins
ĠW orth
ä¸ į
Ġc rop
:: ~
ĠEx cell
Ġ ic
it les
I o
ĠM ask
il ateral
ĠG ent
Ġdis placement
ĠCall back
ct ype
Ð¾Ð ³
ĠF ut
ĠMin i
B igr
ĠG mina
Ġn ut
Ġint ens
È Ľ
Char acters
Ġliter ally
Ġcomed ian
d ashed
Ġgram mar
erdin and
am bo
Ġspac etime
} ',
ä ¼
f ork
ĠU INT
Ġan omal
elect ron
Ġo d
Ġwould n
t om
Ġblock ing
Ġf illing
Dan iel
it ian
Char Field
CON TEXT
Ġs iblings
op eng
ll er
un used
Ġd ock
sup erv
n Ã©e
Bo ard
Ġcaref ully
% ">
ĠSant iago
Athlet es
ch air
Ġmain land
P ier
Ġcomp ressed
ĠQue st
Ġrev ival
Ġfriend ship
ĠPar ser
ĠI o
"> )</
' -
y ml
ess ed
ĠRe ce
n ar
ĠB log
Out Of
Ġte eth
Buffer ed
/ :
ol in
ĠA my
ĠId entity
Tur k
ĠĠĠĠĠĠĠĠĠĠĠĠĠĠĠĠĠĠĠĠĠĠĠĠĠĠĠĠĠĠĠĠ ĠĠĠĠĠĠĠĠĠĠĠĠĠĠĠĠ
Rect angle
Ġvic inity
g allery
Ġadv is
Ġrecru ited
ic ia
Ġg ateway
Pol itics
ĠD ale
Ġover head
ĠMan ila
Ġsuff er
% ),
od ia
C AN
Ġreal ize
Ġemp ire
tr ip
18 34
Ġmot ivated
Print f
Ġanalys es
---------------------------------------------------------------- ----------
80 80
O l
Ġg amma
iz ar
initial ized
tt ify
Ġw elcome
W all
ĠAPI ENTRY
ĠBrook s
Ġep id
aaaa aaaa
? âĢĿ
Ġpick s
ĠI Enumerable
Ġun clear
E th
MO VE
ĠGram my
ĠEd mund
Ġspecial ist
ĠG ael
ĠThrow able
Pack ages
Ġin vert
con tract
Dis pose
Ġvo ices
ĠS election
Ch ars
R pc
Ġfall en
30 2
Ġachiev ement
Ar thur
p aint
ĠSol omon
' ",
Ind ent
her its
ical s
Ġfe ud
ĠLore n
ĠC B
d ns
× ¨
st re
ĠW idget
Ġsub mission
Ġdwar f
und ant
kin son
text normal
ĠN ottingham
Ġterr ain
Ġwid ow
: ",
ĠB io
Ġevent ual
Ġdraw s
ĠE ve
Ġf ung
single ton
Ġfru str
Ġcont rolling
Ġrele asing
ĠGu ang
Ġprepar ing
ik er
Ġqu ota
Ġknow ing
Ġsample d
ĠS ullivan
ac ular
ĠAndrew s
mention ed
R ew
Ġd otted
ĠB SD
Ġrec ursive
Ġr iders
Ġsh aped
Ġsurvey s
Ġsculpt ures
ĠB elf
found ed
ĠS aw
Match ers
Ġflex ible
Ġb ubble
li o
Ġtheat rical
L ee
Ġv a
ĠArch ae
ber y
k b
rece ived
dig est
icy cle
ĠInt el
sql ite
Ġexecut ives
)} _{\
Ġtrend s
Ġachiev ements
( _.
Ġsculpt or
ed ed
16 1
ĠA ce
d ims
. {
am ine
com puter
Ġen abling
att achment
Le ave
Ġequal To
bal ance
constr aints
ĠDev il
are l
Ġdr ives
Ġhon est
Ġconst expr
v iv
16 4
c id
TH E
v ation
Ġview ing
Ġaccept able
Ġany way
Mart in
Ġre lies
ore l
ev o
St and
ĠTw enty
Ġcirc ulation
f u
to Array
yl an
B IN
Ġar ises
ĠAut om
Ġweak ly
R oll
be it
Ġv i
n at
byter ian
è ¦
ĠN amed
ĠEngine er
0 200
Ġas ide
Ġl ots
UB LE
n or
================ ========
SH OT
GRA M
ĠESP N
ĠGr iff
ĠIndian apolis
ĠÎ ±
ĠN L
ain es
sh utdown
Ġrock et
ĠT iger
Ġdesign ers
ĠFrank furt
al an
ass o
illi an
Ġremember ed
ac ements
Ġun e
Ġscatter ed
Value Type
ĠBr ussels
Port ug
rec ip
Ġbroadcast s
ĠGoth ic
R ol
ĠC ome
set Name
'] [
ĠFinal s
g ateway
ut ility
ĠP u
Ġev t
ĠCa uc
Ġatt itude
ĠRes erved
Ġt ale
Ġjoint ly
Ġcos mic
ĠA pol
Ġacknowled ged
Do es
ro ach
Ġre dis
ĠDir ac
A RE
apid oc
Ġm im
ĠCol in
Ġm oon
ĠF ake
ĠA post
C zech
est im
Ġco ached
Ġwe aken
User Id
ĠH ale
Ġport folio
Trans actions
B inder
ĠL il
Ġrem n
U psilon
V ote
ĠR ut
') [
Ġsever ely
ros so
pred icate
ĠG row
ĠDet ails
Ġ Ñĥ
Ġf ed
air y
Im plicit
match er
d eps
ĠN GC
nt z
Ġfin itely
Ġg aining
Music ians
IN X
Right arrow
eb ox
WIN DO
gener ation
Ġpack ets
mock ito
ĠGen eva
Ġinvestig ations
at ics
Ġup graded
ĠReg Exp
^* _
Ġinterpol ation
ĠB H
ĠE asy
Analy zer
ob server
ĠCel tic
$ _{\
b id
ĠCh anges
work space
S ar
Ġcompens ation
Ġhon ours
Ġnephe w
Ġpract ition
ib lical
Ġback ed
Ġperturb ations
Ġment ions
ĠP orter
ĠF ed
Ġelse if
ĠRe id
ĠMax well
ĠS IGN
level s
Ġl hs
Ġ" *
ĠL ub
ĠWarri ors
ex perimental
be hav
Ġs cheduler
SE D
S CHE
16 3
Ġaud iences
Ġenzym e
Ġch ronic
UNK NOWN
ĠRobert son
ĠM IN
ist ency
ĠS PI
C AT
R ele
ĠW R
Ġinit i
h c
s chool
Ġl ung
Ġr v
work flow
ĠMET HO
amb a
unt ary
Attr s
ct uary
Ġsc andal
ĠM ER
Ġap ple
Ġaccount ing
Ġfre ight
Ġwar fare
Ġmill ions
ĠApp ly
Ġsurviv ors
al ong
Ġto ll
PRE SS
B G
C XX
ĠC av
ĠKenn eth
in cre
17 8
Ġin duces
à¥ į
Ġdiscontin ued
Bal ance
ĠBudd h
i ar
p ause
Ġinn ovation
Ġaffili ate
en h
ĠFern ando
) |\
! ,
ĠA ch
cos ystem
Ġrecru it
>{ @
ĠPlay Station
L earning
ĠV e
m ud
Ġa est
ĠContin ental
ĠM ales
ĠN acional
t odo
å ·
user Agent
Ġoptim ized
V ictor
17 2
Ġgrad uation
W ood
Ġdiv orce
alloc ate
ĠR FC
Ġex tern
ĠLine ar
ĠRE ST
Ch annels
Ġcontrib utor
Ù ģ
Ret ri
Ġib n
Ġrecon structed
ĠT ouch
es ar
Ġb out
pe x
ĠD uncan
ain ter
ĉĉĉ čĊ
H ierarchy
Ġcommun ist
AL LOW
ĠLes lie
Ġ* =
Ġuniqu ely
ĠTr in
Ġtemple s
Ġf ame
Ġim per
St roke
RE C
pro ducer
Ġpoly mer
ĠNav igation
not in
man age
Ġnom inal
ri ble
Ġb arr
"> :
ck er
ret ty
ĠCub an
M N
Ġel ite
break ing
n ets
36 5
ĠLou ise
Ġbank ing
ĠObserv atory
ĠRol ling
)-- (
Ġdem anded
ĠUs age
Ġminim ize
ĠBel le
ĠTh r
æ Ń
Bel g
D ump
Ġph p
Ġkil ometers
E B
in el
Get Value
ĠBey ond
if a
Ġcolon ies
us hes
av g
ĠW riter
Nov els
Ġon Click
Ð ¡
er ious
oy e
;\ ;
Ġattract ive
ex per
ĠN ortheast
åľ ¨
Ġpoor ly
ĠHigh land
ynt hetic
ov i
S NAP
ĠH ass
ep per
ĠT ennis
Ġun ve
ĠUn ity
ĠCal endar
æ Ķ
ĠMor r
Ġhighlight s
Ġformul as
di agram
Ġsubstant ially
ethe less
scal atest
Not ice
Ġd atabases
nt on
ĠPow ell
Ġcyl ind
Con cept
Ġeffect iveness
en umer
"> {{
u u
ĠCon tract
y ang
ern er
publish er
ĠL it
est one
aw ait
r n
ĠR anch
any on
Fl at
s it
" =>
Ġwork space
Ġbi ology
prom pt
Ġp ent
ĠPal omar
ĠRe ader
dev ices
Ġt c
ind uced
ĠNiger ian
assert That
ĠNob el
S to
t ls
Ġm eg
) ");
O Auth
q s
Ġbar rel
3 40
cl ub
d ac
Ġsh ield
sc opy
ĠDefault s
Ġdr ift
Ġperform ers
ĠPl aza
X R
D eleted
ist o
") ),
ĠMont en
da o
Ġins cription
( |
Ġdis pers
output s
Ġend points
ol ith
ĠMaced onia
Ġv ibr
mat ched
"> =</
ĠAd ult
Act ual
Ġw arri
Pub Key
Ġd ancer
ĠT ales
re start
Ġgl ac
ĠCre ative
Y ES
Ġp ink
Ġd ancing
... ]
o que
act ing
marshall er
Ġquot ient
As String
Un icode
ĠNot ice
ex change
ĠBou levard
Heading Color
Ġres ize
dis c
Ġsuccess ion
Ġmark ing
Ap ache
Ġmand atory
ĠL ists
M arg
l os
}} =\
23 4
at trib
ĠU UID
ĠClass ical
Ġtouchdown s
Combo Box
ch in
ĠDr iver
oid es
Cal cul
Ġtang ent
ĠLeg islature
ãĤ ĭ
ug a
ĠGL ubyte
Ġ'/ '
ĠW ool
Ġs word
un ches
L os
ĠRichard son
Ġcro ps
ha o
S ensor
Ġ[ `
Serial ized
Ġbeat en
he y
ĠV ER
be ing
cur ve
ĠTy ler
ĠC lement
Tr ansp
Mod ify
ĠBl ake
M ic
] ^{
Ġadj usted
S IL
ĠUn known
ym ph
Ex plicit
Ġtack le
ĠSurre y
"> @
Ġemb ark
2130 77
I CT
ĠArm strong
ĠM ade
Ġcap ita
et ched
Ġh opes
J ud
} ~\
Ġsub scri
ĠC avalry
end l
"> .</
Ġlocomot ive
ĠT anz
AT IVE
des ktop
Ġpress ed
Ġaccompl ished
J on
le ston
Ġem issions
VAR I
Ġglob ally
v skip
ĠH IV
iers hip
Ġ( @
ĠW or
ocol ate
l w
18 33
Ġintro duces
og an
ĠJul ia
contrib uted
ĠR ush
Pol ygon
Ġas p
ĠChe ss
Ðº Ð°
p ark
x hr
Ġt ickets
Ġperfect ly
Ġocc urrence
Ġvict ories
Ð½ Ð°
id ays
Com puter
ĠO z
Non null
ĠD um
ĠAd ventures
Ġfall back
Ġburn ing
- }
pro logue
Ġassert False
ĠB ee
Ġtri angular
ĠAll an
ĠF oo
Pro blem
Ġfl ank
Ġprotocol s
Ġlocal ization
Ġn m
ĠPublic ations
G uest
Ġad option
Ġs print
Ġprox imity
Ġl n
ĠEx port
cast s
ve ill
ĠExped ition
Prop agation
ĠK om
ST M
Con sum
Ġg lyphicon
ĠK ids
ĠSh ore
filter ed
cr im
ĠPop ular
Ġde eper
ÏĦ Î¿
aint enance
get Path
ĠLet ter
Ġc oding
ĠMar in
ĠÂ »
n it
Ġb ats
ins pect
Ġsyn onym
ĠCzech oslov
Ġline arly
Pub lished
v iol
ĠW S
Ġor al
N L
Ġbe ars
Ġre write
ĠB S
ĠE ye
IM ARY
Ġabsol utely
ĠS ons
ĠA G
ĠGer ald
un ing
Ġunder went
Ġre pr
ĠHe ath
Ġ"\ "
Ġg em
ĠJ et
Ġvirt ually
ograph ers
Ġexp ired
Ġdies el
ah oo
Ġd ish
Ġn ose
In ventory
ĠPh ase
Ġconfer ences
r w
uk u
cell s
set Property
Ġt une
ject ive
Q String
18 15
Ġelli ptic
un stable
la us
ĠStr ong
ot yp
\| ^
Ġk ills
Sh op
Ġhealth care
Ġdrop down
reg ation
ĠYan kees
EX PECT
Ġas ynchronous
ott i
ĠT at
ĠU tt
Work flow
St an
Ġproof s
[ ^
g id
ĠF erg
ĠG itHub
ĠStr ateg
Ġr ifle
che z
Î ®
Ġfavour ite
F ixtures
ĠInt ent
N AL
* )"
Ġg ains
Ġtra its
ji ang
Ġre nd
ĠS qu
Ġr ally
B uck
sub stack
he e
Ġp ig
ĠSc out
ĠInitial izes
L ost
Ġwire less
mathbb m
Ad apt
ĠFif th
h yd
omb re
Ġren owned
ĠF unc
ĠSim pson
mid i
ĠManit oba
h ir
es ch
ĠPh one
iev e
Work space
Ġdiv or
ĠB iography
Arch itecture
Ġlob by
ĠAnd ers
Ġ` $
' $.
Ġcommun icate
parse Int
ĠCh ase
Ġrenew ed
Ġpsy chiat
Ġaver aging
system s
Ġcol ored
++ ]
In crement
illa ume
Ġimag inary
assert Raises
rid or
Republic an
Ġs creens
Ġm us
ef orm
x FF
ent ric
k ok
Str ict
r ically
ĠP ool
Ġsuccess ive
Ex press
ĠTest ament
Ġbe aring
ne o
Ġb alls
ĠM ob
}{ *}{
Cred it
' ><
T CP
Ð¾Ð ±
LI ED
rt c
ĠBur ke
ĠS plit
Ġreb ellion
Cor rect
harmon ic
ĠDown load
ĠG ill
O G
ĠBa iley
ow l
atern ion
Ġsurn ames
A cknowledg
ĠCath olics
ĠTh an
olec ular
P ag
)= (
inter est
ĠAuth ors
Ġover lay
Ġaut onomous
Ġcyl inder
As pect
g ot
C ut
ĠFight ing
Ġderiv ation
ĠAb original
Ġl ac
Ġdraw ings
Bur ials
Similar ly
ãĥ Ī
ighth ouse
ys ide
D evelop
Ġâ Ķ
ĠC ancer
roll ment
ab lo
col m
Ġcl ay
ĠS ylv
Ġcap ac
rott le
ĠAb b
udd y
W P
= (\
b lo
Ġvulner able
Ġp ic
sp ired
list eners
ĠKing ston
omet own
Ġh unt
ĠP irates
Ġem itted
Ġcount ed
ĠF ail
Action Bar
Ġrecon c
S IG
Ġ Âł
ic ers
ĠSt akes
g io
ĠM ead
ĠB irth
Ġneighbour ing
qual ified
re name
Job s
Ġnucle us
Ġret iring
Ġded uce
ellig ent
ĠBrad ley
ĠF antasy
ĠWy oming
ĠParalym pics
Ġhe ir
ho ff
Ġresearch er
ĠM iles
ĠEston ia
Enc ryption
pres erve
ust ain
ĠBry an
Ġdisappe ared
G reg
Ġt ear
ĠD ob
Ġdem ocratic
is le
S yn
ur an
ĠA A
Ġlimit ation
Enumer ator
ĠBurn s
Ã ®
ĠB in
che ss
Tim eline
Ġn erv
ĠLet ters
Ġjud icial
Ġp ose
Ġwork flow
Und efined
F X
Ġexha ust
C ath
ĠC oul
se ver
que z
Ġinnov ative
å ¾
ace ut
Sw ap
ĠE mail
Rem oved
Ġsign atures
D to
ĠUs ers
g co
à ²
ĠD uck
Ġvolunte er
oc y
Ġ( &
18 31
ĠEthiop ia
G LOBAL
ĠWar wick
ĠR iv
00 000
Code Dom
con sumer
TH ON
le ad
Ġk nee
ĠPl us
Lock ed
Ġmode led
ĠBel grade
ĠB ind
ĠY et
Ġscreen ing
Ġcounter part
Nor wegian
Ï ī
pl ating
R V
16 2
http Request
n atural
Ġ{ !
Ġhead quarter
Ġmyth ology
Ġpregn ant
ess es
Grad ient
20 9
ĠShe ll
LE ASE
Ġbre ath
ĠF emale
Build ing
Ġperm utation
Ġmer c
Ġtrav elling
Ġbit map
Ġsens ors
veill ance
Prot os
is ible
ul ators
ir q
Ġper f
mark down
ĠD ash
M otion
Ġspeed s
sort ed
ĠC ort
ĠR C
ĠReg ulations
ĠEp iscopal
ĠHend erson
ĠEu clidean
Ġvar char
> {{
Ġmur ders
Ġdiplom at
Cho ose
Ġsl opes
At om
Ġview port
C urrency
ĠK ab
Ġtro ub
Ġl p
ĠK urt
ĠA ri
ren ew
Ġb eneath
Ġaccur ately
Ġ} }</
ind icator
Table Name
Ġcontr ary
S dk
Ġshould er
Ġprison er
Ġ[ &
Ġst ret
el ong
Gener ation
Hung arian
Par allel
v t
= _
ĠT X
Ġread ily
H y
c ro
g ene
Ġ iv
t el
en za
}) _{
B ird
Ġprec ip
sur ance
ĠLux embourg
; "><
M ATCH
Ġst mt
ĠB anks
Ġinter fer
Ġdisc overs
ass igned
> }
Ġsustain able
ĠH es
B asketball
starts With
Product s
A verage
M as
ĠG lobe
Ġcr ashed
Ã¡ l
P referred
Ġv ital
Ġle ak
N an
e u
it Ã©
ĠE RA
Ġfraction al
Ġ ions
ĠR ele
is Function
prov ided
Ġinv ocation
c riteria
Ġt et
Ġm eter
ĠAh mad
17 7
+ '
Ġs sl
Ġm eth
Ġpron ounced
Ġachiev ing
Ġpre val
ĉ ĠĠĠĠĠĠĠĠĠĠĠĠĠĠĠ
un ar
6 55
re ne
reg istration
am on
sc apes
ly mouth
Ġl ip
ĠG it
ĠGu itar
Assert ion
Ġselect ing
m ology
Ġc anceled
Inf os
Ġre interpret
ph on
D ie
Ġdef ect
ĠR i
ĠCO MM
ĠGeorg ian
Ġrevolution ary
Ġwalk s
C y
Ġstr len
ĉĉĉ Ġ
Ġrefer endum
Ġinvent ed
arri ers
ĠAdvis ory
L ex
\ ",
67 8
Ġdemonstr ates
N ick
ĠUn supported
Ġunder go
prov iders
Ġmusc le
Ġf ate
Ġsec ular
ĠExec ution
May be
ĠC ann
alth ough
ia e
Rest ore
Ġdepict s
I FI
ĠØ§ ÙĦ
eb e
Ġnumer ically
Ġcul min
g overnment
}\ ;
>> >
Install ation
' )$
Ġshould n
ï¼ ļ
bat im
z k
Ġen larg
ĠT ampa
ĠCon v
le ys
or bit
- "
ĠL ed
Ġeduc ator
ĠI sh
ĠHe at
Repe at
ac i
ĠD ES
ip zig
Ġrel atives
ten ant
if fin
Ġ[ ])
ĠLo op
rest rial
Ġ" __
Index Of
net t
} ],
ĠSher iff
Ġpun ishment
6666 66
ĠH ull
Ġ<!-- [
Ġexceed s
asc ar
ĠLe op
control led
ç ī
um en
ĠCr iminal
p ager
Ġc uisine
Ġ{ *}
Ġover look
ĠCan terbury
inst on
ĠIll ustr
ĠMon o
ien ne
on ist
ĠUn icode
f bb
ierarch ical
Ä ĵ
num bers
ed itable
17 9
im od
Municip al
ĠSpec ifically
comp atibility
23 5
ĠJenn ifer
ym ore
ĠM T
Ġres ume
add All
Ġsub section
F W
Ġend l
Ġsear ches
ĠStaff ord
Ġm ysql
FUN C
ĠThrough out
ĠH ait
ĠH urricane
aut om
oca ust
ig raph
ĠVis it
ĠLud wig
ĠQu ick
Ġs hed
ĠL ip
sp y
At Index
ĠL ET
ĠÂ «
Ġswe ep
Ġrecommend ations
Ġtr ait
Ġdi et
Ġp kg
ra pe
g pu
Ġr t
æį ®
Ġrevers ed
Ð°Ð½ Ð¸
ĠH i
Ġh ind
CP P
m otion
To Array
ĠBer k
[ @
ĠS hen
Ġfor k
Inter pol
enn ium
Ġtack les
ĠNew port
Bal ancer
ĠO w
In herited
uc a
Ġ' ');
âĢĻ ,
histor ic
Ġa erial
align ment
ĠE c
k ie
Ġs q
ĠF BI
ĠBe ing
ĠEm ily
] ):
Ġm aid
LE T
im ited
ĠN u
ĠPro to
Ġtransl ator
ĠFunction s
v dots
ĠOs lo
N s
eval uate
Ġcal ibration
C as
er ance
ours es
Sh ips
Int egration
Ġsax ophone
t oday
ian e
IS H
ĠPerson al
Ġp unct
Ġroll ing
Ġjournal ism
st ones
che v
Ġde ce
Ġsim pler
Ġgu idelines
View port
Ġsl avery
Ġext inction
ĠOr lando
ĠConst ants
re pos
ĠH ook
Ġcheck point
Ġobvious ly
Ġe u
ĠF erdinand
ĠWe ather
æĹ ¶
Ġaggress ive
AR M
Ġexception al
perm alink
Ġh oped
Ġfa una
Pl ugins
PR INT
Ú ©
ĠP Ã©
ĠH od
it ary
ĠP anel
Ġim plications
RE L
art icles
Ġqu ad
libr aries
) `
ĠÐ½ Ð°
Ġcon ce
ĠCart esian
g ae
ĠL ok
Icon Success
Ġthought s
Ġwarr ant
ĠA ircraft
Ġeng r
Ġfre ely
16 00
FE ATURE
ĠA pr
ĠBas in
=' #
FO UND
atern ity
ĠT C
un al
V iol
l hs
18 2
Res pons
Out er
Gu ard
Ġg enu
b il
re ction
SP H
register ed
6 50
charg ed
Event Type
S ens
Ġbright ness
ĠCom bat
Ġcor on
Ġsql ite
60 1
Work ing
Ġwrest ler
ĠP UR
ap plications
18 25
Pro jection
Ġre plica
com pressed
64 0
AUT O
17 3
Call s
Ġp g
dec or
Ġrap per
L ANG
ad vert
Ġoptim ize
P ot
im ag
err no
Ġobject ives
20 7
ĠAd venture
/ </
Ġan alyst
W at
b rowse
ir able
ne apolis
ac ies
Ðµ Ð¼
LOC ATION
ĠS DL
repe ated
i NdEx
Ġ= =====
Ġadv isor
le et
Ġefficient ly
L IMIT
Ġa er
Ġâ ĪĴ
ĠĠĠĠĠĠĠĠ ĠĊ
Ġrot ating
term inal
f name
Ġserial ize
- %
Ġpotential s
cknow ledge
} ):
Ġdirect ories
ĠF E
ib o
Ġleg isl
ĠDis able
ĠRetri eved
Econ omy
Ġon wards
ĠL omb
Ã¡ r
US H
Ġ' __
Mult ip
ĠNad u
Ġ? ?
h on
Ð Ĵ
Writ ing
s sh
Ġrem arks
ĠMic he
ĠSpe aker
ĠV K
Ġthir teen
CA ST
ĠV III
I ss
Ġident ities
30 3
he ther
Ġbos on
Ġliter acy
Ġdepos its
ĠLuther an
D ynam
E nergy
et ches
her ence
Ġless ons
Ġspecim ens
ĠGi ovanni
is p
Def initions
ĠAn imal
Ġwrest lers
SNAP SHOT
ĠEv angel
Fellow s
Ġst ones
Ġgather ing
ĠG overn
ĠML B
Ġcl othes
rece iver
R ing
mun ition
Ġd inner
ĠCal gary
Ġ* );
Ġsepar ator
G it
ĠChel sea
3 10
Ġs or
ĠFr aser
Ġtoler ance
Ġend ings
z ek
Ġdef initely
ĠS ort
Ġim ports
In strument
amp ing
ĠX I
Ġmolec ule
ag ne
Ġclass ifier
Ġsuper conduct
y i
an imated
omorph isms
Ġch orus
ĠBes ides
". /
ĠComp are
Spec ify
el if
ĠA part
Ġ ------------------------------------------------
}} )$
ĠV iv
5 50
Ġcomplex es
J P
z ens
Pl aces
Sub scriber
f illed
ĠBe an
Ġlo ose
U G
Ġ} {\
Ġguarant ees
g rey
Ġview er
ĠDr um
Ġfit ness
C os
Ġbul let
it ize
is odes
ng th
ĠBra h
s yn
Ġtr act
D igital
Trans late
ĠMc Donald
ĠRem ark
Hash Set
/ ,
Ġb less
author ization
You ng
Ġrig id
ĉ ĠĊ
an an
Ġ\ #
ĠK w
ĠMar sh
Ġt aste
Address es
Ġconsum ed
ĠUn fortunately
ro utes
ĠS ocket
QU ERY
Ġf printf
Ġdeform ation
~~ ~
loc ations
Ġcontrib utors
IconSuccess Encoded
Exception s
LO T
Pos itions
ĠD ynam
ĠLy on
CLA RE
To o
Ġmut ation
Ġs ou
ĠBed ford
F a
Ġt ough
af a
im ming
Ġmod ular
vir t
l od
cest ershire
ĠBened ict
Ġre build
ĠY a
ĠĠĠĠĠĠĠĠĠĠĠĠĠĠĠĠĠĠĠĠĠĠĠĠĠĠĠĠĠĠĠĠ ĠĠĠĠĠĠĠĠĠĠĠĠĠĠĠĠĠĠĠĠĠĠĠĠĠĠĠ
ĠB ever
son s
ĠR ET
T abs
ĠP E
get Item
Ġsett le
v oice
Ġex ile
class v
g as
Ġbr acket
Ġsl ots
3333 3333
Ġmin er
ad al
Ġnational ly
ĠB B
Ġk iller
ĠGu atem
B rien
ĠL odge
Ġgener als
Ġtransport ed
Foreign Key
ĠM emph
Ġtraject ories
Ġre plication
Ġintegr als
spe ction
Ġgroup ed
AD ER
clean up
Ġprest igious
ograph ies
Ġann ih
Ġsub tract
Ġexport ed
SY STEM
A k
x si
Ġfor um
Ġserv ant
found land
en ic
get Node
ĠCl imate
ĠEd monton
ĠLiber ation
Ġbacter ia
Ġs ailing
of ill
ins k
Ġsuff ices
Ġproceed s
Sin ergi
RA W
Ġw reck
Ġre organ
18 28
+ =
Comp et
oub les
é ¡
re comm
ĠK ang
/* .
Ġentang lement
C OR
K h
Ġmatch er
ĠH ip
ĠV ision
count s
Marshall er
Ġget ter
j ud
ĠF an
Ġtr apped
de ployment
ĠP iano
ĠU FC
Ġdev ast
H EL
45 6
od i
Ġutil ized
Ġund ers
Des criptors
ĠIn side
Ġtri o
ash tra
ĠEug ene
S leep
ĠZ oo
prot ect
Ġ{} ",
conn ector
Ġtorn ado
Part icle
' }\
Ġk ings
r te
Ġun em
Ġdis orders
with in
ĠA way
ĠL t
at u
at ro
ĠH els
Ġinteract ing
J av
Ġdim in
ĠAssoci ate
l Ã©
Stud ent
Ġt abs
ĠMar ion
ĠWrit ers
Ġcon spiracy
ref s
ĠK aren
ry ing
Ġconsult ant
ĠM ale
ĠAn im
Ġe leg
CL K
Ġgoal keeper
pe st
form atter
wik ipedia
ĠAntar ctic
ar in
Ġtr am
il les
ĠW IN
ĠTre k
Ġrain fall
{ [
ĠEx tract
b usiness
ĠSo ft
C ref
U uid
Ġinternal ly
am d
cha ft
Ġst aged
ĠM s
pi ke
ess el
Ġexcit ation
Ã ²
ĠF eder
ĠMet adata
Ġtim eline
ĠFilip ino
Ġ/// <
Ġlik es
activ ation
b ours
il ion
Ġnom inee
G od
ĠG M
ĠBo eing
Town s
R D
ĠW ey
Ġdro ps
Ġrom ance
ĠCh ad
Ġconstruct ing
real m
ĠInter state
Ġcitizens hip
s ens
up p
Non User
ant es
17 4
Ġstruct ured
war z
ĠK iss
ĠSer ie
ĠCard iff
}) -
ĠRec ording
if les
hen e
ĠSte am
r ating
Foot er
ĠW WE
Ġitem Members
Ġp ace
ĠJer emy
equal ities
Ġd ivers
IC S
b is
G ar
Ġo g
Ġexec uting
yr ac
ĠMemph is
Tem plates
T a
ĠK aw
Ġab c
B ol
Ï Į
ĠU int
Ġ*/ ;
y on
ject ed
18 14
ĠSlov akia
un n
19 1
ĠE g
Ch ris
h ass
AN Y
Ġcat hedral
C ycl
Cont ainers
S olution
ĠInter ior
EX TERN
Ġox id
D ocker
Ġthe ad
Ġun a
Ġmap per
40 3
Ġse ized
Ġhelic opter
ĠC od
ĠCh uck
ipe g
AS H
ell ation
Class ification
Ġpresent ing
Sp in
Ġevery where
ĠT D
Ġfar ms
Ġmem ories
ch ard
Ã© es
ĠQue stion
j j
00 7
ink ing
r hs
U pon
x d
Ġacc red
Ġreb els
ĠPrest on
im ony
L azy
up al
18 4
Is Valid
ch ing
Ġsub stance
b anner
op a
Ġsw ing
Ġ$\ |
Ġris ks
Sw iss
ar ag
Ġimprison ment
Ġclos es
st ellar
Ġsp acing
Ġcyc lic
B ootstrap
Ġar ising
\, .
ip ur
pro per
u ent
Ġ ^{\
Ġadvert is
co le
Ġtow ers
pl oma
r ases
ĠK ot
ĠP am
C ENTER
Ġd ying
w ald
Members hip
Ð¾ Ð½
Ġant ib
Track ing
Ġkit chen
INTER NAL
ĉĉ ĠĠ
b v
P ick
Ġparticip ant
Ġoverw hel
$ --
Ġc ele
ad ors
ä¸ º
ĠH off
ĠI stanbul
Ġr idge
Ġsearch Box
Ġqual ifier
> ")
ĠS G
Le af
ĠS event
ass is
Ex act
vers ation
Ġro ok
) !
b eck
Ä Ĺ
Cl imate
Result Set
Ch apter
t ier
R anges
b urst
Ġget Name
ant astic
ott ing
Min or
ĠC anyon
ĠL enn
ĠJ i
amm ad
Ġpreserv ation
Ġpra ise
or ian
ãĢ ģ
ĠP engu
ĠM ilton
Ġfour teen
Ad just
ĠI X
ĠF LA
ĠStr at
respect ively
R x
Ġflo ors
iv ariate
Ġh over
CT RL
urs es
Ġincre d
[...]
