{"[UNK]":0,"!":1,"\"":2,"#":3,"$":4,"%":5,"&":6,"'":7,"(":8,")":9,"*":10,"+":11,",":12,"-":13,".":14,"/":15,"0":16,"1":17,"2":18,"3":19,"4":20,"5":21,"6":22,"7":23,"8":24,"9":25,":":26,";":27,"<":28,"=":29,">":30,"?":31,"@":32,"A":33,"B":34,"C":35,"D":36,"E":37,"F":38,"G":39,"H":40,"I":41,"J":42,"K":43,"L":44,"M":45,"N":46,"O":47,"P":48,"Q":49,"R":50,"S":51,"T":52,"U":53,"V":54,"W":55,"X":56,"Y":57,"Z":58,"[":59,"\\":60,"]":61,"^":62,"_":63,"`":64,"a":65,"b":66,"c":67,"d":68,"e":69,"f":70,"g":71,"h":72,"i":73,"j":74,"k":75,"l":76,"m":77,"n":78,"o":79,"p":80,"q":81,"r":82,"s":83,"t":84,"u":85,"v":86,"w":87,"x":88,"y":89,"z":90,"{":91,"|":92,"}":93,"~":94,"¡":95,"¢":96,"£":97,"¤":98,"¥":99,"¦":100,"§":101,"¨":102,"©":103,"ª":104,"«":105,"¬":106,"®":107,"¯":108,"°":109,"±":110,"²":111,"³":112,"´":113,"µ":114,"¶":115,"·":116,"¸":117,"¹":118,"º":119,"»":120,"¼":121,"½":122,"¾":123,"¿":124,"Â":125,"Ã":126,"Ä":127,"Å":128,"Æ":129,"Ç":130,"È":131,"É":132,"Ê":133,"Ë":134,"Ì":135,"Í":136,"Î":137,"Ï":138,"Ð":139,"Ñ":140,"Ò":141,"Ó":142,"Ô":143,"Õ":144,"Ö":145,"×":146,"Ø":147,"Ù":148,"Ú":149,"Û":150,"Ü":151,"Ý":152,"Þ":153,"ß":154,"à":155,"á":156,"â":157,"ã":158,"ä":159,"å":160,"æ":161,"ç":162,"è":163,"é":164,"ê":165,"ë":166,"ì":167,"í":168,"î":169,"ï":170,"ð":171,"ñ":172,"ò":173,"ó":174,"ô":175,"Ā":176,"ā":177,"Ă":178,"ă":179,"Ą":180,"ą":181,"Ć":182,"ć":183,"Ĉ":184,"ĉ":185,"Ċ":186,"ċ":187,"Č":188,"č":189,"Ď":190,"ď":191,"Đ":192,"đ":193,"Ē":194,"ē":195,"Ĕ":196,"ĕ":197,"Ė":198,"ė":199,"Ę":200,"ę":201,"Ě":202,"ě":203,"Ĝ":204,"ĝ":205,"Ğ":206,"ğ":207,"Ġ":208,"ġ":209,"Ģ":210,"ģ":211,"Ĥ":212,"ĥ":213,"Ħ":214,"ħ":215,"Ĩ":216,"ĩ":217,"Ī":218,"ī":219,"Ĭ":220,"ĭ":221,"Į":222,"į":223,"İ":224,"ı":225,"Ĳ":226,"ĳ":227,"Ĵ":228,"ĵ":229,"Ķ":230,"ķ":231,"ĸ":232,"Ĺ":233,"ĺ":234,"Ļ":235,"ļ":236,"Ľ":237,"ľ":238,"Ŀ":239,"ŀ":240,"Ł":241,"ł":242,"Ń":243,"ĠĠ":244,"ĠĠĠĠ":245,"in":246,"Ġt":247,"er":248,"on":249,"Ġa":250,"he":251,"re":252,"at":253,"en":254,"or":255,"st":256,"Ġthe":257,"an":258,"al":259,"ĠĠĠ":260,"ar":261,"it":262,"ĠĠĠĠĠĠĠĠ":263,"Ġc":264,"le":265,"ion":266,"ed":267,"Ġo":268,"Ġs":269,"is":270,"es":271,"Ġf":272,"Ġw":273,"ic":274,"Ġp":275,"ro":276,"ing":277,"Ġin":278,"as":279,"nd":280,"Ġb":281,"Ġof":282,"et":283,"ct":284,"Ġd":285,"am":286,"ent":287,"ou":288,"Ġm":289,"el":290,"Ġand":291,"Ġto":292,"il":293,"ĠĠĠĠĠĠĠ":294,"Ġre":295,"om":296,"ĠS":297,"Ġ(":298,"Ġh":299,"Ġn":300,"id":301,"ol":302,"ac":303,"ation":304,"ur":305,"ig":306,"Ġ=":307,"ĠC":308,"ĠT":309,"im":310,"ĠA":311,"Ġth":312,"ad":313,"ĉĉ":314,"th":315,"iv":316,"Ġl":317,"Ġe":318,"se":319,"</":320,"ut":321,"=\"":322,"ce":323,"ot":324,"ag":325,"od":326,");":327,"ul":328,"if":329,"Ġ$":330,"ĠM":331,"Ġ{":332,"un":333,"--":334,"em":335,"ch":336,"Ġ\\":337,"Ġis":338,"Ġ<":339,"ay":340,"ers":341,"Ġv":342,"um":343,"pe":344,"Ġfor":345,"us":346,"ow":347,"Ġg":348,"ist":349,"ab":350,"ĠI":351,"ĠP":352,"Ġst":353,"ĠĠĠĠĠĠĠĠĠĠĠ":354,"ĠB":355,"ate":356,"čĊ":357,"ir":358,"ap":359,"oc":360,"tr":361,"ue":362,"//":363,"Ġ*":364,"ly":365,"ter":366,"Ġon":367,"ass":368,"ex":369,"ith":370,"20":371,"ĠR":372,"19":373,"ĠH":374,"Ġcon":375,"ame":376,"Ġ\"":377,"ction":378,"Ġbe":379,"ĠD":380,"pt":381,"and":382,"Ġas":383,"ht":384,"ĠL":385,"ĠF":386,"av":387,"Ġ}":388,"ub":389,"ver":390,"end":391,"ef":392,"qu":393,"res":394,"ĠN":395,"ew":396,"Ġwas":397,"\">":398,"ri":399,"ĠG":400,"op":401,"up":402,"Ġwith":403,"Ġal":404,"lass":405,"ort":406,"ain":407,"age":408,"ess":409,"ĠThe":410,"ĠW":411,"rom":412,"ĠĠĠĠĠĠĠĠĠĠĠĠĠĠĠĠ":413,"ĠE":414,"os":415,"est":416,"our":417,"Ġby":418,"Ġthat":419,"Ġan":420,"ĠĠĠĠĠ":421,"()":422,"li":423,"Ġwh":424,"ath":425,"ect":426,"Ġpro":427,"ine":428,"âĢ":429,"art":430,"urn":431,"**":432,"nt":433,"ity":434,"Ġr":435,"Ġat":436,"ec":437,"ment":438,"Ġcom":439,"all":440,"ore":441,"ere":442,"ĠO":443,"Ġex":444,"og":445,"ĠĊ":446,"ĠJ":447,"sp":448,"_{":449,"ack":450,"eg":451,"iz":452,"ext":453,"turn":454,"Ġfrom":455,"Ġit":456,"Ġor":457,"ight":458,"pl":459,"ies":460,"----":461,"ult":462,"ype":463,"ke":464,"Ġclass":465,"able":466,"ber":467,"==":468,"ial":469,"port":470,"ang":471,"ure":472,"ile":473,"ans":474,"ud":475,"Ġ'":476,"per":477,"..":478,"str":479,"ode":480,"Ġthis":481,"get":482,"'s":483,"ive":484,"ant":485,"ont":486,"Ġif":487,"Ġ&":488,"ĠU":489,"ref":490,"ary":491,"int":492,"00":493,"Ġtr":494,"Ġhe":495,"In":496,"ep":497,"ill":498,"ast":499,"orm":500,"ip":501,"ld":502,"ated":503,"Ġare":504,"ĠĠĠĠĠĠĠĠĠĠĠĠĠĠĠ":505,"ard":506,"ov":507,"lic":508,"ĠK":509,"act":510,"ord":511,"Ġch":512,"und":513,"ption":514,"ia":515,"{\\":516,"),":517,"Ġ-":518,"ff":519,"are":520,"ata":521,"ire":522,"ign":523,"ev":524,"ase":525,"ug":526,"ind":527,"ib":528,"Ġ//":529,"Ġreturn":530,"ich":531,"ace":532,"201":533,"The":534,"ition":535,"Ġle":536,"ite":537,"âĢĵ":538,"ong":539,"ak":540,"alue":541,"com":542,"Ġpl":543,"->":544,"ject":545,"::":546,"Ġy":547,"ĉĉĉĉ":548,"Ġ|":549,"ell":550,"ser":551,"cl":552,"ĠIn":553,"ost":554,"pro":555,"Ġ$\\":556,"Ġ</":557,"to":558,"ĠV":559,"ge":560,"ian":561,"Ġsh":562,"Ġse":563,"ime":564,").":565,"ph":566,"ther":567,"out":568,"ublic":569,"ild":570,"../":571,"Ġnot":572,"unction":573,"ple":574,"ĠSt":575,"ice":576,"ource":577,"ide":578,"ical":579,"enc":580,"\",":581,"con":582,"Ġwe":583,"ork":584,"math":585,"Ġ@":586,"ust":587,"ens":588,"200":589,"ma":590,"ft":591,"aram":592,"cc":593,"lo":594,"Ġ[":595,"so":596,"ory":597,"St":598,"ave":599,"Ġnew":600,"Ġar":601,"ock":602,"cri":603,"ok":604,"ra":605,"ish":606,"Ex":607,"Ġ+":608,"Ġhis":609,"set":610,"sh":611,"ance":612,"Ġus":613,"ĠCh":614,"(\"":615,"Ġj":616,"form":617,"row":618,"Ġ/":619,"dd":620,"du":621,"();":622,"ear":623,"Ġwhich":624,"18":625,"Ġres":626,"ence":627,"Ġun":628,"Ġcont":629,"ml":630,"div":631,"put":632,"ull":633,"elf":634,"les":635,"essage":636,"ress":637,"ations":638,"ach":639,"ĠTh":640,"mer":641,"ize":642,"}\\":643,"ount":644,"iel":645,"low":646,"Ġk":647,"',":648,"ener":649,"tring":650,"--------":651,"Ġ||":652,"}$":653,"></":654,"^{":655,"tern":656,"Ġap":657,"irst":658,"own":659,"one":660,"que":661,"span":662,"fr":663,"ink":664,"che":665,"use":666,"err":667,"ield":668,"Ġname":669,"ents":670,"ele":671,"Ġstr":672,"ond":673,"fig":674,"Ġhas":675,"ail":676,"ous":677,"Ġ*/":678,"****":679,"inal":680,"ree":681,"Ġim":682,"te":683,"ll":684,"erv":685,"ound":686,"bject":687,"Ġcan":688,"eb":689,"Ġ.":690,"><":691,"Ġalso":692,"ould":693,"Ġwere":694,"cal":695,"hen":696,"Ġpublic":697,"Ġfunction":698,"erm":699,"Ġbo":700,"clud":701,"ss":702,"Ġdef":703,"../../":704,"rit":705,"ict":706,"over":707,"Ġ:":708,"Ġcomp":709,"====":710,"ĉĉĉ":711,"10":712,"ray":713,"eth":714,"ator":715,"ĠĠĠĠĠĠĠĠĠĠĠĠĠĠĠĠĠĠĠ":716,"iew":717,"ry":718,"Ġhave":719,"ne":720,"ates":721,"ual":722,"old":723,"ta":724,"ark":725,"oid":726,"Ġpr":727,"}}":728,"('":729,"Ġint":730,"ĠUn":731,"ĠĠĠĠĠĠĠĠĠ":732,"Ġset":733,"pr":734,"Ġab":735,"name":736,"))":737,"roup":738,"ck":739,"led":740,"Pro":741,"Ġvar":742,"ps":743,"fer":744,"Ġro":745,"this":746,"(\\":747,"html":748,"yst":749,"io":750,"abel":751,"bo":752,"rap":753,"ix":754,"Ġhref":755,"Ġpart":756,"eng":757,"ert":758,"Name":759,"wo":760,"source":761,"pec":762,"ĠHe":763,"egin":764,"ĠY":765,"message":766,"ng":767,"hed":768,"oint":769,"lation":770,"Ġfirst":771,"ER":772,"199":773,"ome":774,"Ġplay":775,"key":776,"ions":777,"Ġdis":778,"text":779,"Ġone":780,"Ġall":781,"right":782,"fter":783,"ty":784,"Ġ_":785,"col":786,"vent":787,"ery":788,"odel":789,"ics":790,"Ġsu":791,"begin":792,"ystem":793,"Type":794,"},":795,"param":796,"ater":797,"trans":798,"ob":799,"ings":800,"import":801,"ĠIt":802,"Ġ#":803,"Ġtype":804,"equ":805,"ames":806,"Ġbut":807,"Ġout":808,"String":809,"aw":810,"Con":811,"pect":812,"Ġde":813,"lect":814,"ax":815,"Id":816,"ON":817,"quest":818,"ational":819,"iss":820,"alse":821,"arg":822,"ors":823,"Ġcol":824,"Ref":825,"atic":826,"IN":827,"ĠâĢĵ":828,"Ġvalue":829,"ences":830,"sum":831,"ool":832,"Ġget":833,"ember":834,"Ġ=>":835,"umber":836,"return":837,"Ġup":838,"Ġits":839,"ĠAr":840,"td":841,"Ġhad":842,"atch":843,"igh":844,"we":845,"12":846,"cre":847,"##":848,"_{\\":849,"uild":850,"Ġdes":851,"line":852,"ick":853,")$":854,"/>":855,"uct":856,"ose":857,"Ġtheir":858,"cont":859,"ely":860,"ethod":861,"Ġcl":862,"Cont":863,"def":864,"fo":865,"code":866,"any":867,"Ġline":868,"amp":869,"ann":870,"cript":871,"ton":872,"Com":873,"land":874,"ms":875,"Ġsp":876,"red":877,"ie":878,"the":879,"16":880,"Ġper":881,"\"/>":882,"Ġtwo":883,"Ġ!":884,"Ġover":885,"Ġdo":886,"Re":887,"Res":888,"cent":889,"app":890,"ied":891,"lock":892,"}{":893,"RE":894,"Ch":895,"Ġag":896,"ception":897,"ute":898,"ican":899,"nc":900,"ited":901,"pon":902,"Ġconst":903,"als":904,"round":905,"ange":906,"List":907,"add":908,"raph":909,"Ġwho":910,"orn":911,"Ġself":912,"eta":913,"Ġend":914,"frac":915,"type":916,"ake":917,"Ġel":918,"ove":919,"arch":920,"ey":921,"class":922,"translation":923,"ault":924,"lement":925,"Ġtime":926,"Ġdata":927,"pos":928,"anc":929,"label":930,"Ġwork":931,"Ġcomm":932,"Ġother":933,"Refer":934,"ym":935,"son":936,"urre":937,"eq":938,"var":939,"ased":940,"Ġi":941,"ific":942,"itle":943,"ative":944,"Ġfil":945,"Ġ==":946,"Ġadd":947,"198":948,"Ġinter":949,"of":950,"Ġwill":951,"left":952,"ople":953,"val":954,"Ġund":955,"Ġresult":956,"Ġinclud":957,"Ġid":958,"ade":959,"ache":960,"ocation":961,"ternal":962,"15":963,"__":964,"Ġher":965,"ern":966,"Th":967,"Ġnull":968,"Ġsub":969,"Ġbeen":970,"ST":971,"Ġwhen":972,"Ġme":973,"ular":974,"ĠCom":975,"co":976,"Ġvoid":977,"ished":978,"17":979,"tt":980,"Ar":981,"Ġpre":982,"ersion":983,"gr":984,"://":985,"Ġad":986,"ward":987,"ash":988,"ollow":989,"Ġsup":990,"irect":991,"Ġyear":992,"Ġte":993,"Ġqu":994,"Ġreg":995,"ues":996,"ask":997,"AT":998,"yle":999,"ons":1000,"ĠThis":1001,"References":1002,"ivers":1003,"Ġ`":1004,"ution":1005,"trib":1006,"ader":1007,"ee":1008,"idth":1009,"Ġform":1010,"ument":1011,"ys":1012,"ocal":1013,"eople":1014,"ĠNew":1015,"\"><":1016,"Ġinto":1017,"Ġonly":1018,"Ġoff":1019,"ivate":1020,"uring":1021,"ugh":1022,"urrent":1023,"Ġyou":1024,"Ġen":1025,"Ġact":1026,"));":1027,"Ġafter":1028,"oot":1029,"Ġmore":1030,"resent":1031,"htt":1032,"read":1033,"amb":1034,"der":1035,"Ġrec":1036,"Ġthey":1037,"ts":1038,"Ġco":1039,"back":1040,"min":1041,"Ġso":1042,"):":1043,"ĠĠĠĠĠĠĠĠĠĠĠĠĠĠĠĠĠĠĠĠĠĠĠ":1044,"Ġspec":1045,"11":1046,"mathb":1047,"ru":1048,"string":1049,"merican":1050,"LE":1051,"197":1052,"ating":1053,"cess":1054,"Ġorg":1055,"Tr":1056,"ccess":1057,"org":1058,"ise":1059,"ank":1060,"OR":1061,"Ġne":1062,"ample":1063,"$.":1064,"ined":1065,"oug":1066,"ĠAl":1067,"âĢĻ":1068,"Ġind":1069,"lection":1070,"Ġ>":1071,"ĠPro":1072,"Ġwhere":1073,"bar":1074,"\");":1075,"ength":1076,"Ġbet":1077,"Ġfalse":1078,"ists":1079,"----------------":1080,"way":1081,"Ġpos":1082,"})":1083,"ĠĠĠĠĠĠĠĠĠĠĠĠĠ":1084,"ince":1085,"********":1086,"Ġtrans":1087,"anag":1088,"Ġerr":1089,"AR":1090,"Ġsc":1091,"sert":1092,"ball":1093,"Ġserv":1094,"Ġfollow":1095,"cite":1096,"14":1097,"its":1098,"$,":1099,"ious":1100,"Ġused":1101,"13":1102,"ision":1103,"rr":1104,"imes":1105,"ID":1106,",\\":1107,"ole":1108,"serv":1109,"ier":1110,"Ġ)":1111,"Ġinst":1112,"olog":1113,"tem":1114,"wn":1115,"Ġunder":1116,"data":1117,"Ġtrue":1118,"ren":1119,"Ġsec":1120,"rm":1121,"ature":1122,"sub":1123,"duc":1124,"Ġob":1125,"Value":1126,"ptions":1127,"ik":1128,"Ġcre":1129,"ava":1130,"Ġthen":1131,"ider":1132,"self":1133,"Ġno":1134,"ĠSh":1135,"Ġval":1136,"Ġop":1137,"chool":1138,"Ġuse":1139,"25":1140,"}.":1141,"oy":1142,"Ġdist":1143,"file":1144,"Ġfinal":1145,"ween":1146,"ities":1147,"equation":1148,"Col":1149,"Ġdec":1150,"item":1151,"work":1152,"ble":1153,"Ġpol":1154,"Data":1155,"ood":1156,"uth":1157,"plic":1158,"orld":1159,"////":1160,"mathcal":1161,"ement":1162,"Ġprov":1163,"ages":1164,"EN":1165,"Ġx":1166,"AL":1167,"ures":1168,"Ġrem":1169,"Ġelse":1170,"\")":1171,"To":1172,"ily":1173,"perty":1174,"Ġany":1175,"value":1176,"az":1177,"Ġgener":1178,"air":1179,"ĠĠĠĠĠĠ":1180,"ĠCon":1181,"ule":1182,"Ġchar":1183,"Ġnumber":1184,"Ġev":1185,"196":1186,"ĠQ":1187,"ins":1188,"eter":1189,"lient":1190,"uff":1191,"ible":1192,"Ġshe":1193,"da":1194,"Ġthere":1195,"ĠAs":1196,"ĠĠĠĠĠĠĠĠĠĠĠĠĠĠĠĠĠĠĠĠĠĠĠĠĠĠĠĠĠĠĠĠ":1197,"att":1198,"Ġsuch":1199,"ĠZ":1200,"Ġ/**":1201,"SS":1202,"ason":1203,"Ġkn":1204,"Ġrel":1205,"Ġstring":1206,"Ġtest":1207,"Ġent":1208,"Set":1209,"log":1210,"ines":1211,"ars":1212,"arget":1213,"quire":1214,"ning":1215,"Ġcase":1216,"Ġbec":1217,"Ġbetween":1218,"action":1219,"pha":1220,"Ġdif":1221,"ĠâĢ":1222,"ized":1223,"}(":1224,"evel":1225,"ility":1226,"========":1227,"ody":1228,"oci":1229,"Exception":1230,"Ġwould":1231,"ĠAn":1232,"Ġ--":1233,"ah":1234,"Ġcons":1235,"yp":1236,"ices":1237,"umn":1238,"epend":1239,"apt":1240,"Ġser":1241,"oh":1242,"br":1243,"Ġ&&":1244,"Ġlink":1245,"21":1246,"];":1247,"ury":1248,"Ġpeople":1249,"px":1250,"Ġph":1251,"Ġ///":1252,"nb":1253,"($":1254,"32":1255,"Ġback":1256,"pre":1257,"iversity":1258,"Err":1259,"ower":1260,"rough":1261,"Ġthan":1262,"30":1263,"not":1264,"atus":1265,"Ġsome":1266,"ream":1267,"view":1268,"outh":1269,"date":1270,"ĠSe":1271,"ments":1272,"ĠCol":1273,"Ã©":1274,"Ġgr":1275,"play":1276,"Ġabout":1277,"Ġest":1278,"location":1279,"new":1280,"Ġlist":1281,"}^":1282,"for":1283,"test":1284,"Ġac":1285,"yn":1286,"press":1287,"Ġshow":1288,"iver":1289,"Ġoper":1290,"ouse":1291,"Ġfe":1292,"Object":1293,"Ġfile":1294,"22":1295,"Ġstatic":1296,"Un":1297,"ner":1298,"oun":1299,"ve":1300,"ient":1301,"til":1302,"roid":1303,"lish":1304,"by":1305,"sc":1306,"Ġfound":1307,"mary":1308,"')":1309,"Ġmay":1310,"Ġed":1311,"~\\":1312,"ĠTr":1313,"Ġem":1314,"alpha":1315,"ott":1316,"Ġ!=":1317,"ĠString":1318,"}_":1319,"orth":1320,"ship":1321,"nbsp":1322,"aj":1323,"man":1324,"Ġprivate":1325,"Ġcent":1326,"pp":1327,"be":1328,"().":1329,"ook":1330,"ler":1331,"arent":1332,"Ġstud":1333,"struct":1334,"ĠInd":1335,"Ġcal":1336,"Test":1337,"vel":1338,"elta":1339,"me":1340,"ĠAmerican":1341,"194":1342,"Ġmodel":1343,"wh":1344,"Ġsim":1345,"Ġ%":1346,"],":1347,"pi":1348,"Ġgroup":1349,"DE":1350,"size":1351,"ever":1352,"ĠEx":1353,"rol":1354,"000":1355,"ough":1356,"());":1357,"CT":1358,"Ġinv":1359,"face":1360,"He":1361,"Get":1362,"Ġmost":1363,"Ġfield":1364,"Ġext":1365,"Ġass":1366,"195":1367,"let":1368,"ĠLe":1369,"Âł":1370,"lang":1371,"Ġstart":1372,"ains":1373,"Ġhigh":1374,"Ġmod":1375,"ife":1376,"ger":1377,"Ġgiv":1378,"Ġam":1379,"ambda":1380,"field":1381,"itt":1382,"Ġmethod":1383,"ale":1384,"link":1385,"Ġagain":1386,"rc":1387,"mall":1388,"uc":1389,"Ġsystem":1390,"ister":1391,"IT":1392,"ally":1393,"ĠFor":1394,"ric":1395,"As":1396,"Ġobject":1397,"Error":1398,"Ġthrough":1399,"ets":1400,"SE":1401,"Ġsign":1402,"uss":1403,"At":1404,"Ġstate":1405,"heck":1406,"Ind":1407,"On":1408,"order":1409,"Ġmin":1410,".</":1411,"Ġsing":1412,"Ġsecond":1413,"ron":1414,"._":1415,"Ġapp":1416,"ident":1417,"ization":1418,"Key":1419,"roll":1420,"Ġhim":1421,"Ġpoint":1422,"script":1423,"ĠUnited":1424,"Ġrep":1425,"Ġeach":1426,"ause":1427,".\"":1428,"ote":1429,"ified":1430,"ww":1431,"amma":1432,"Ġkey":1433,"mod":1434,"Ġtitle":1435,"other":1436,"ĠFr":1437,"ĉĉĉĉĉ":1438,"fore":1439,"ify":1440,"Class":1441,"Ġdirect":1442,"Ġacc":1443,"ĠX":1444,")\\":1445,"Im":1446,"En":1447,"reg":1448,"Ġdiffer":1449,"Ġequ":1450,"evelop":1451,"Ġduring":1452,"24":1453,"Ġcor":1454,"File":1455,"Ġrun":1456,"Ġlinks":1457,"External":1458,"ĠUniversity":1459,"try":1460,"ME":1461,"ots":1462,"bers":1463,"lay":1464,"['":1465,"function":1466,"Ġparam":1467,"Ġwhile":1468,"nav":1469,"ootball":1470,"indow":1471,"Ġcomple":1472,"\"></":1473,"Sh":1474,"time":1475,"par":1476,"mu":1477,"ĠĠĠĠĊ":1478,"ared":1479,"aint":1480,"cription":1481,"ained":1482,"Ġrele":1483,"Ġfl":1484,"public":1485,"list":1486,"inter":1487,"\";":1488,"align":1489,"ocument":1490,"ived":1491,"Ġyears":1492,"Ġteam":1493,"mp":1494,"Ġdet":1495,"View":1496,"$\\":1497,"erson":1498,"AN":1499,"Ġthree":1500,"ession":1501,"ĠDe":1502,"Ġdr":1503,"dis":1504,"url":1505,"util":1506,"By":1507,"pace":1508,"ground":1509,"');":1510,"js":1511,"=\\":1512,"cept":1513,"array":1514,"section":1515,"index":1516,"Ġsame":1517,"color":1518,"summary":1519,"istory":1520,"lished":1521,"_\\":1522,"ants":1523,"ces":1524,"ism":1525,"includ":1526,"Ġlong":1527,"Ġwell":1528,"oad":1529,"Ġusing":1530,"ike":1531,"Ġ/>":1532,"rite":1533,"width":1534,"overn":1535,"Ġwrit":1536,"ĠWe":1537,"Ġgo":1538,"\".":1539,"Ġthese":1540,"ector":1541,"top":1542,"Ġarg":1543,"fl":1544,"100":1545,"CO":1546,"Ġthem":1547,"usic":1548,"Ġbuild":1549,"']":1550,"ina":1551,"(),":1552,"raw":1553,"reak":1554,"Ġart":1555,"itial":1556,"Ġfam":1557,"http":1558,"Ġear":1559,"load":1560,"duct":1561,"rib":1562,"ense":1563,"ports":1564,"ograph":1565,"part":1566,"med":1567,"af":1568,"ĠSc":1569,"ervice":1570,"my":1571,"50":1572,"Ġcurrent":1573,"ten":1574,"Ġbefore":1575,"ency":1576,"UL":1577,"Ġfollowing":1578,"ober":1579,"rop":1580,"irc":1581,"ĠIs":1582,"mon":1583,"Ġcall":1584,"Ġplayers":1585,"uffer":1586,"An":1587,"ĠEng":1588,"Ġbr":1589,"ĠRe":1590,"ather":1591,"!--":1592,"reat":1593,"mathbb":1594,"uration":1595,"Ġboth":1596,"Ġatt":1597,"Ġmed":1598,"ush":1599,"Ġbeing":1600,"Ġeff":1601,"RO":1602,"ected":1603,"For":1604,"group":1605,"ĠMar":1606,"anager":1607,"go":1608,"table":1609,"23":1610,"=\"../../":1611,"igma":1612,"Ġfr":1613,"ays":1614,"box":1615,"Ġmade":1616,"ohn":1617,"void":1618,"bum":1619,"64":1620,"ho":1621,"gram":1622,"ane":1623,"Ġpop":1624,"path":1625,"ponse":1626,"ĠOn":1627,"}^{":1628,"her":1629,"const":1630,"Ġlocal":1631,"Ġrecord":1632,"Event":1633,"Ġmem":1634,"=\"+":1635,"rem":1636,"Ġshould":1637,"iving":1638,"istr":1639,"lob":1640,"owever":1641,"gy":1642,"ission":1643,"ically":1644,"itions":1645,"Ġevent":1646,"}_{":1647,"hat":1648,"Ġ\\\\":1649,"ural":1650,"Ġz":1651,"Ġsol":1652,"\":":1653,"Time":1654,"pack":1655,"ui":1656,"ega":1657,"Ġnon":1658,"AC":1659,"Element":1660,"mand":1661,"Ġsur":1662,"Ġhand":1663,"eters":1664,"Ġresp":1665,"ĠStates":1666,"anu":1667,"itor":1668,"Ġorder":1669,"ension":1670,"Ġgiven":1671,"-\\":1672,"enn":1673,"Ġorig":1674,"unc":1675,"Ġbeg":1676,"ustr":1677,"Ġ);":1678,"Ġperform":1679,"ats":1680,"aining":1681,"atri":1682,"Ġlater":1683,"user":1684,"Ġpass":1685,"ths":1686,"Text":1687,"ica":1688,"/*":1689,"ox":1690,"ful":1691,"Info":1692,"ross":1693,"Ġsize":1694,"opy":1695,"ral":1696,"Request":1697,"/**":1698,"TE":1699,"Ġ?":1700,"md":1701,"ĠShe":1702,"Ġrequire":1703,"vert":1704,"Ġfilm":1705,"Ġknown":1706,"ley":1707,"^{\\":1708,"ulation":1709,"Al":1710,"aid":1711,"ainer":1712,"bed":1713,"ague":1714,"Ġassert":1715,"lambda":1716,"Int":1717,"ounty":1718,"PE":1719,"phi":1720,"Field":1721,"Def":1722,"Ġelement":1723,"uch":1724,"une":1725,"Path":1726,"Add":1727,"Node":1728,"33":1729,"':":1730,"ĠPr":1731,"quot":1732,"Ġpartic":1733,"olean":1734,"Not":1735,"####":1736,"Ġpar":1737,"Config":1738,"length":1739,"``":1740,"Ġthrow":1741,"aces":1742,"].":1743,"ape":1744,"Ġappro":1745,"Ġstruct":1746,"tribute":1747,"formation":1748,"ĠCl":1749,"omen":1750,"Ġown":1751,"els":1752,"Ġbir":1753,"Ġterm":1754,"utton":1755,"ology":1756,"ai":1757,"Ġmany":1758,"Ġseason":1759,"TR":1760,"ION":1761,"Ġmon":1762,"ĠIf":1763,"Ġ{\\":1764,"off":1765,"etwork":1766,"Param":1767,"())":1768,"Equ":1769,"Ġappe":1770,"Ġright":1771,"Item":1772,"Ġmov":1773,"amed":1774,"uthor":1775,"Ġour":1776,"Ġsupport":1777,"Ġdifferent":1778,"};":1779,"ĠBr":1780,"...":1781,"sk":1782,"Ġerror":1783,"Ġneed":1784,"Ġfootball":1785,"iter":1786,"LA":1787,"ounc":1788,"Ġbro":1789,"Ġimport":1790,"ĠOr":1791,"igned":1792,"Ġexpect":1793,"lear":1794,"cd":1795,"Ġfour":1796,"Ġread":1797,"pert":1798,"ĠPh":1799,"bf":1800,"Index":1801,"ases":1802,"PI":1803,"Qu":1804,"ek":1805,"des":1806,"Context":1807,"Ġdevelop":1808,"State":1809,"Ġ/*":1810,"config":1811,"ĠĠĠĠĠĠĠĠĠĠĠĠĠĠĠĠĠĠĠĠĠĠĠĠĠĠĠ":1812,"ĠCar":1813,"idd":1814,"Ġincluding":1815,"Ġcontin":1816,"Ġalbum":1817,"'t":1818,"40":1819,"mb":1820,"Ġopen":1821,"27":1822,"ogle":1823,"Map":1824,"Form":1825,"ior":1826,"ride":1827,"ives":1828,"ium":1829,"Ġseries":1830,"stance":1831,"ĠMay":1832,"map":1833,"Array":1834,"Ġrequest":1835,"28":1836,"fin":1837,"Ġfin":1838,"pty":1839,"ually":1840,"amespace":1841,"ĠWar":1842,"\\\\":1843,"arge":1844,"Ġbel":1845,"Ġarray":1846,"search":1847,"Ġschool":1848,"ĠĠĊ":1849,"ĠWorld":1850,"ĠGr":1851,"ĠJohn":1852,"Ġ});":1853,"ctions":1854,"ilon":1855,"Ġaut":1856,"Ġtem":1857,"Ġ(!":1858,"Ġ,":1859,"api":1860,"eps":1861,"ĠRes":1862,"Ġrece":1863,"uro":1864,"26":1865,"word":1866,"duced":1867,"Ġestab":1868,"Ġstyle":1869,"With":1870,"true":1871,"Over":1872,"ting":1873,"Des":1874,"Ġprocess":1875,"Ġu":1876,"Ġchild":1877,"umer":1878,"Ġcalled":1879,"Ġmet":1880,"Ġ-->":1881,"ĠNational":1882,"Ġagainst":1883,"Ġlead":1884,"lack":1885,"Or":1886,"bol":1887,"por":1888,"ponent":1889,"ĠAt":1890,"Ġnow":1891,"Ġsince":1892,"Ġever":1893,"Ġlast":1894,"node":1895,"Ġref":1896,"ternational":1897,"oss":1898,"Ġtop":1899,"Ġdisc":1900,"Service":1901,"urch":1902,"apache":1903,"Ġtext":1904,"[]":1905,"ality":1906,"ĠSp":1907,"arri":1908,"beta":1909,"Ġdescri":1910,"ari":1911,"model":1912,"We":1913,"lected":1914,"dt":1915,"mathbf":1916,"Ġleft":1917,"ret":1918,"Ġbecame":1919,"result":1920,"efore":1921,"uage":1922,"Ġvari":1923,"ĠCan":1924,"ilt":1925,"****************":1926,"center":1927,"odes":1928,"\"\"":1929,"lp":1930,"iev":1931,"sec":1932,"acter":1933,"Ġ},":1934,"IC":1935,"';":1936,"Ġsmall":1937,"Ġdefault":1938,"Result":1939,"sigma":1940,"no":1941,"https":1942,"Ġrefer":1943,"ired":1944,"input":1945,"29":1946,"ync":1947,"assert":1948,"au":1949,"aster":1950,"icon":1951,"title":1952,"////////":1953,"Ġfact":1954,"ene":1955,"ĠCounty":1956,"ait":1957,"Ġmain":1958,"urs":1959,"side":1960,"plication":1961,"ided":1962,"Ġallow":1963,"object":1964,"ĠBrit":1965,"ends":1966,"inc":1967,"ttp":1968,"ively":1969,"Ġversion":1970,"Size":1971,"^{-":1972,"from":1973,"iled":1974,"ital":1975,"Ġconsider":1976,"Ġuntil":1977,"Build":1978,"ĠSchool":1979,"bs":1980,"ĠYork":1981,"UR":1982,"utes":1983,"net":1984,"Ġlog":1985,"liam":1986,"block":1987,"ches":1988,"vious":1989,"Ġtarget":1990,"duction":1991,"FF":1992,"eturn":1993,"Ġbased":1994,"ĠPar":1995,"Ġloc":1996,"ling":1997,"ĠAd":1998,"define":1999,"ilde":2000,"Fr":2001,"ification":2002,"ential":2003,"Code":2004,"Ġrepresent":2005,"Ġ(\\":2006,"less":2007,"ĠJul":2008,"chn":2009,"valid":2010,"Ġcould":2011,"2010":2012,"nder":2013,"mit":2014,"Ġbu":2015,"plate":2016,"|-":2017,"ift":2018,"Ġcoun":2019,"Message":2020,"perties":2021,"create":2022,"ymbol":2023,"ival":2024,")}":2025,"Hand":2026,"ides":2027,"Ġmake":2028,"Ġfamily":2029,"Ġdoes":2030,"Ġexp":2031,"ĠNov":2032,"iction":2033,"ended":2034,"ustral":2035,"Ġdep":2036,"Ġsever":2037,"Ġsong":2038,"Ġlike":2039,"head":2040,"ustom":2041,"ateg":2042,"ĠSouth":2043,"met":2044,"Ġcontent":2045,"ilter":2046,"ird":2047,"ĠGerm":2048,"error":2049,"aking":2050,"vir":2051,"ources":2052,"enu":2053,"version":2054,"imit":2055,"ians":2056,"Ġ:=":2057,"gamma":2058,"ampion":2059,"++":2060,"Ġprot":2061,"193":2062,"='":2063,"wit":2064,"âĢĿ":2065,"System":2066,"ouble":2067,"ĠWest":2068,"Ġtyp":2069,"*}":2070,"overnment":2071,"Ġ__":2072,"This":2073,"Ġpresent":2074,"ugust":2075,"Ġgu":2076,"tract":2077,"Ġbecause":2078,"Ġpres":2079,"loat":2080,"Ġjust":2081,"Ġconfig":2082,"lt":2083,"cope":2084,"AD":2085,"Ġdeath":2086,"ĠSystem":2087,"Ġvis":2088,"comp":2089,"Ġbase":2090,"next":2091,"ĠPl":2092,"ience":2093,"Val":2094,"2014":2095,"wards":2096,"gt":2097,"LO":2098,"ags":2099,"quad":2100,"UT":2101,"Ph":2102,"Ġcare":2103,"default":2104,"point":2105,"ĠReg":2106,"Ġhead":2107,"abled":2108,"Ġoriginal":2109,"cale":2110,"ajor":2111,"arn":2112,"ptember":2113,"Ġuser":2114,"Ġsingle":2115,"uk":2116,"ĠGe":2117,"ored":2118,"arrow":2119,"anuary":2120,"Of":2121,".,":2122,"2015":2123,"=\"../../../../":2124,"2016":2125,"Ġpath":2126,"Ġfind":2127,"+\\":2128,"lobal":2129,"Ġjava":2130,"2011":2131,"atrix":2132,"ĠCent":2133,"body":2134,"MA":2135,"ae":2136,"Ġmult":2137,"Ġpolit":2138,"Ġ()":2139,"itional":2140,"Ġgame":2141,"evice":2142,"atter":2143,"Ġyour":2144,"Ġarea":2145,"Ġ===":2146,"rist":2147,"ised":2148,"ourn":2149,"Ġocc":2150,"ctober":2151,"oth":2152,"mber":2153,"60":2154,"Ġret":2155,"rec":2156,"Ġvalues":2157,"All":2158,"start":2159,"2017":2160,"Ġexample":2161,"Ser":2162,"la":2163,"reate":2164,"state":2165,"80":2166,"nection":2167,"ony":2168,"ĠPol":2169,"ails":2170,"Ġpub":2171,"ination":2172,"Is":2173,"Ġprogram":2174,"Ġresults":2175,"max":2176,"Ġeffect":2177,"ety":2178,"istor":2179,"Ġlevel":2180,"Ġmusic":2181,"Ġann":2182,"see":2183,"mathrm":2184,"vision":2185,"2012":2186,"IG":2187,"ison":2188,"Ġsrc":2189,"2013":2190,"info":2191,"delta":2192,"ĠCal":2193,"ĠWh":2194,"^\\":2195,"ML":2196,"ĠAugust":2197,"uck":2198,"ĠWil":2199,"big":2200,"Ġbreak":2201,"--------------------------------":2202,"ULL":2203,"olv":2204,"Ġmust":2205,"include":2206,"Ġcond":2207,"Ġblock":2208,"Out":2209,"ĠMarch":2210,"Ġcheck":2211,"Ġcr":2212,"rho":2213,">&":2214,"java":2215,"Ġcommun":2216,"Ġnext":2217,"ĠAll":2218,"ĠSeptember":2219,"ĉĉĉĉĉĉ":2220,"ĠJanuary":2221,"born":2222,"Ġcreate":2223,"Ġdi":2224,"ability":2225,"Ġnode":2226,"with":2227,"ormal":2228,"}{\\":2229,"pril":2230,"Ġdid":2231,"tal":2232,"ĠAnd":2233,"oman":2234,"Ġmax":2235,"icial":2236,"Ġ$(":2237,"ET":2238,"Ġorgan":2239,"Manager":2240,"ansp":2241,"Ġsuccess":2242,"Inter":2243,"Ġplace":2244,"Ġlife":2245,"ĠMin":2246,"Model":2247,"Ġold":2248,"pen":2249,"ched":2250,"ances":2251,"Pl":2252,"2019":2253,"position":2254,"Log":2255,"Ġseveral":2256,"2018":2257,"space":2258,"using":2259,"ideo":2260,"2008":2261,"down":2262,"Ġmark":2263,"lege":2264,"See":2265,"Ġ};":2266,"ĠOctober":2267,"base":2268,"iod":2269,"Ġinput":2270,"tings":2271,"oin":2272,"Ġbecom":2273,"leq":2274,"elect":2275,"Ġlarge":2276,"ung":2277,"Ġevery":2278,"ĠGu":2279,"ken":2280,"akes":2281,"ĠâĢĶ":2282,"Ġproject":2283,"Ġwin":2284,"lin":2285,"theta":2286,"context":2287,"ender":2288,"Ã¡":2289,"ĠList":2290,"2009":2291,"arm":2292,"Ġcontext":2293,"android":2294,"Ġcode":2295,"aut":2296,"content":2297,"From":2298,"elete":2299,"stru":2300,"Ġposs":2301,"ness":2302,"Ġindex":2303,"ĠAustral":2304,"cember":2305,"ĠJune":2306,"Ġreleased":2307,"Ġnear":2308,"Ġbook":2309,"css":2310,"alth":2311,"tau":2312,"ING":2313,"Ġwon":2314,"pression":2315,"Ġdown":2316,"Table":2317,"Ġplayed":2318,"Ġmap":2319,"Group":2320,"Ġinitial":2321,"tes":2322,"ilar":2323,"Ġman":2324,"false":2325,"Ġprom":2326,"roller":2327,"cast":2328,"annel":2329,"Ġincre":2330,"Ġalong":2331,"Ġav":2332,"New":2333,"ottom":2334,"resp":2335,"ĠJuly":2336,"lem":2337,"web":2338,"Ġview":2339,"option":2340,"Up":2341,"Ġinstance":2342,"ero":2343,"Ġformer":2344,"2007":2345,"CH":2346,"olution":2347,"ĠGet":2348,"User":2349,"Ġsee":2350,"$-":2351,"alk":2352,"Ġwithin":2353,"aced":2354,"tab":2355,"Ġpost":2356,"event":2357,"olds":2358,"ixed":2359,"package":2360,"style":2361,"sup":2362,"Ġposition":2363,"pm":2364,"ĠState":2365,"omet":2366,"light":2367,"ED":2368,"IS":2369,"ĠÐ":2370,"Query":2371,"ords":2372,"sq":2373,"ĠNorth":2374,"ĠĠĠĠĠĠĠĠĠĠĠĠ":2375,"Ġmatch":2376,"ped":2377,"Ġdue":2378,"Color":2379,"99":2380,"de":2381,"2006":2382,"iness":2383,"Dis":2384,"aving":2385,"ately":2386,"MP":2387,";&":2388,"Ġservice":2389,"ĠApril":2390,"ued":2391,"ĠCity":2392,"ĠII":2393,"Ġrad":2394,"prot":2395,"Ġident":2396,"times":2397,"urg":2398,"ators":2399,"Ġinclude":2400,"urther":2401,"ze":2402,"ales":2403,"Reg":2404,"hes":2405,"ĠBe":2406,"Ġstand":2407,"ĠEd":2408,"Ġpo":2409,"190":2410,"}$.":2411,"dom":2412,"Ġdistrib":2413,"Client":2414,"ography":2415,"ording":2416,"thern":2417,"urope":2418,"day":2419,"print":2420,"ivity":2421,"Rec":2422,"Response":2423,"Ġinformation":2424,"Ġbound":2425,"TD":2426,"ĠBritish":2427,"tn":2428,"}(\\":2429,"Ġwhat":2430,"================":2431,"=\"../":2432,"ware":2433,"ĠNovember":2434,"=\"#":2435,"ĠCo":2436,"}$,":2437,"partial":2438,"figure":2439,"Ġbirths":2440,"ibr":2441,"Ġlet":2442,"ius":2443,"Ġvery":2444,"arr":2445,"AB":2446,"Arg":2447,"aff":2448,"ĠDecember":2449,"Ġmy":2450,"Ġnil":2451,"nu":2452,"Ġeven":2453,"Trans":2454,"Ġitem":2455,"doc":2456,"ailable":2457,"UN":2458,"count":2459,"Ġtri":2460,"45":2461,"Property":2462,"used":2463,"century":2464,"sl":2465,"raft":2466,"ĠLeague":2467,"Ġsource":2468,"]{":2469,"2000":2470,"ifier":2471,"Ġlaw":2472,"google":2473,"ĠThey":2474,"check":2475,"AS":2476,"rt":2477,"ampionship":2478,"apan":2479,"uted":2480,"DO":2481,"db":2482,"Ġbool":2483,"oken":2484,"ted":2485,"Ġeng":2486,"Ġearly":2487,"uments":2488,"ĠTe":2489,"urity":2490,"eger":2491,"www":2492,"ume":2493,"Ġaround":2494,"ada":2495,"Ð°":2496,"atures":2497,"method":2498,"ĠâĢľ":2499,"Ġsaid":2500,"Ġchang":2501,"Ġobt":2502,"Pr":2503,"oper":2504,"ux":2505,"ilit":2506,"ebug":2507,"angle":2508,"Method":2509,"Ġworld":2510,"Call":2511,"ploy":2512,"ĠHowever":2513,"Count":2514,"semb":2515,"refer":2516,"2020":2517,"ĠĠĠĠĠĠĠĠĠĠ":2518,"Ġcity":2519,";</":2520,"aly":2521,"ĠYou":2522,"ebru":2523,"Ġgeneral":2524,"Override":2525,"ĠUS":2526,"ead":2527,"static":2528,"rel":2529,"Ġtry":2530,"ithub":2531,"sw":2532,"core":2533,"Ġalign":2534,"Ġmember":2535,"90":2536,"Ġexper":2537,"Mod":2538,"ebruary":2539,"ham":2540,"stit":2541,"Ġthose":2542,"Ġlang":2543,"Ġsk":2544,"where":2545,"Ġla":2546,"Ġmembers":2547,"Ġdiv":2548,"ĠRep":2549,"ename":2550,"call":2551,"Ġshort":2552,"ĠEn":2553,"Ġmag":2554,"ique":2555,"ules":2556,"Ġpower":2557,"ĠKing":2558,"Ġconf":2559,"Ġband":2560,"Ġoptions":2561,"ama":2562,"ĠčĊ":2563,"tual":2564,"eqref":2565,"Cl":2566,"aterial":2567,"Ġperson":2568,"ured":2569,"plement":2570,"onse":2571,"Ġtable":2572,"icy":2573,"Ġenc":2574,"acy":2575,"Ġsum":2576,"Ġcommand":2577,"Ġdocument":2578,"lex":2579,"Ġregion":2580,"ards":2581,">(":2582,"35":2583,"Ġcap":2584,"Ð¾":2585,"Ad":2586,"Ġprevious":2587,"Ġstd":2588,"earch":2589,"yl":2590,"itive":2591,"ana":2592,"ille":2593,"Ġfilms":2594,"Ġcharacter":2595,"uf":2596,"ES":2597,"Ġcontrol":2598,"actory":2599,"Ġnamed":2600,"Ġresponse":2601,"elevision":2602,"github":2603,"fty":2604,"usiness":2605,"66":2606,"ĠSet":2607,"Delta":2608,"nect":2609,"rench":2610,"Builder":2611,"Ġdel":2612,"ENT":2613,"ĠĠĠĠĠĠĠĠĠĠĠĠĠĠĠĠĠĠĠĠĠĠĠĠĠĠĠĠĠĠĠ":2614,"Ġway":2615,"ĠAss":2616,"ĠEurope":2617,"Ġcomput":2618,"Ġcolor":2619,"respond":2620,"argin":2621,"bl":2622,"ster":2623,"infty":2624,"ĠPart":2625,"anch":2626,"eqn":2627,"Ġreport":2628,"namespace":2629,"struction":2630,"tilde":2631,"lose":2632,"lick":2633,"75":2634,"Ġland":2635,"aim":2636,"build":2637,"Ġandroid":2638,"ĠNo":2639,"Ġbackground":2640,"Gener":2641,"ino":2642,"Ġproperty":2643,")</":2644,"Ġcompet":2645,"Ġstill":2646,"null":2647,"Ġdesign":2648,"Ġtown":2649,"aper":2650,"IL":2651,"Ġassoci":2652,"Ġprof":2653,"dir":2654,"Ġexpl":2655,"<!--":2656,"Ġcareer":2657,"ĠFebruary":2658,"Ġpat":2659,"Ġobserv":2660,"2005":2661,"OT":2662,"](":2663,"Ġhelp":2664,"Ġwomen":2665,"Ġwithout":2666,"Ġtotal":2667,"Ġelect":2668,"])":2669,"current":2670,"Ġreal":2671,"idge":2672,"Ġproble":2673,"ĠRec":2674,"Ġexist":2675,"American":2676,"Ġborder":2677,"inition":2678,"Ġhome":2679,"Bar":2680,"utions":2681,"options":2682,"ĠSup":2683,"gress":2684,"ĠAfter":2685,"ependent":2686,"Ġlarg":2687,"Ġleg":2688,"Stream":2689,"ĠAb":2690,"ĠSer":2691,"Sub":2692,"lor":2693,"34":2694,"ached":2695,"Ġmajor":2696,"ij":2697,"ĠSec":2698,"Ġcour":2699,"Ġspace":2700,"func":2701,"ven":2702,"iment":2703,"ĠĠĠĠĠĠĠĠĠĠĠĠĠĠĠĠĠ":2704,"Util":2705,"ĠNULL":2706,"ĠIm":2707,"ocial":2708,"Ġhow":2709,"umb":2710,"ection":2711,"|\\":2712,"Ġwidth":2713,"riter":2714,"icle":2715,"Ġmessage":2716,"osed":2717,"ops":2718,"Ðµ":2719,"reen":2720,"End":2721,"ese":2722,"And":2723,"CE":2724,"ĠBy":2725,"ĠBo":2726,"Ġadv":2727,"Ġmeas":2728,"Ġanother":2729,"hand":2730,"ugg":2731,"Ġfa":2732,"Ġdem":2733,"atab":2734,"Ġdom":2735,"Sc":2736,"viron":2737,"ĠMed":2738,"Ġrange":2739,"Ġgovernment":2740,"place":2741,"image":2742,"cond":2743,"pan":2744,"Ġiss":2745,"client":2746,"query":2747,"Image":2748,"adem":2749,"omega":2750,"Ġcar":2751,"Input":2752,"((":2753,"ĠGener":2754,"Ġexec":2755,"ĠChrist":2756,"button":2757,"TH":2758,"ories":2759,"run":2760,"xi":2761,"70":2762,"request":2763,"ced":2764,"NA":2765,"lib":2766,"ump":2767,"Status":2768,"Ġbegan":2769,"ls":2770,"orem":2771,"US":2772,"Ġside":2773,"Ġbeh":2774,"Ġaddress":2775,"Ġes":2776,"31":2777,"Ġmass":2778,"finished":2779,"ending":2780,"oud":2781,"Ed":2782,"Ġheld":2783,"posed":2784,"alf":2785,"imal":2786,"rew":2787,"illion":2788,"ĠEnglish":2789,"Ġclub":2790,"Ġnetwork":2791,"Ġtrack":2792,"bit":2793,"Ġday":2794,"ney":2795,"Ġopt":2796,"ither":2797,"Ġreceived":2798,"Ġ($":2799,"Ġbest":2800,"Ġestablished":2801,"Ġrespect":2802,"opt":2803,"Ġlocated":2804,"2004":2805,"tra":2806,"ĠJapan":2807,"Ġabove":2808,"Date":2809,"Ġvol":2810,"hip":2811,"reet":2812,"ĠBar":2813,"Ġrole":2814,"Ġvill":2815,"Ġfre":2816,"Ġaction":2817,"eff":2818,"Ġaccess":2819,"IP":2820,"Ġboolean":2821,"Ã³":2822,"ĠMc":2823,"Ġlength":2824,"na":2825,"Ġpopulation":2826,"rest":2827,"Ġcompany":2828,"cho":2829,"Be":2830,"ĠHis":2831,"Par":2832,"ĠTo":2833,"sim":2834,"older":2835,"Instance":2836,"Ġperiod":2837,"pecial":2838,"ĉĊ":2839,"chema":2840,"ges":2841,"ĠHigh":2842,"Ġbuilt":2843,"Ġstat":2844,"args":2845,"Ġca":2846,"ram":2847,"kn":2848,"istrict":2849,"iff":2850,"Ġdefined":2851,"Ġsimilar":2852,"$$":2853,"rows":2854,"Str":2855,"alt":2856,"Ġet":2857,"imum":2858,"Ġdescribed":2859,"uster":2860,"ones":2861,"ways":2862,"Ġbas":2863,"\\,":2864,"Token":2865,"Ġmuch":2866,"era":2867,"sequ":2868,"ondon":2869,"prov":2870,"ONT":2871,"Ġparent":2872,"Ġoutput":2873,"php":2874,"iple":2875,"FA":2876,"Ġimp":2877,"Ġmat":2878,"append":2879,"){":2880,"Ġtake":2881,"Ġhistory":2882,"Ġsuper":2883,"Ġbl":2884,"Ġstation":2885,"page":2886,"Ġhouse":2887,"Ġtook":2888,"unfinished":2889,"55":2890,"EX":2891,"has":2892,"ĠComm":2893,"ayout":2894,"Ġep":2895,"ready":2896,"Ġfull":2897,"inary":2898,"ns":2899,"Ġ<<":2900,"Ġhere":2901,"ĠMan":2902,"Ġfore":2903,"mark":2904,"DI":2905,"Ġ->":2906,"Off":2907,"NS":2908,"YPE":2909,"creen":2910,"energy":2911,"Ġchildren":2912,"Ġhost":2913,"Pos":2914,"ĠCor":2915,"ĠAir":2916,"andom":2917,"Run":2918,"It":2919,"ĠAfr":2920,"rad":2921,"jav":2922,"Line":2923,"server":2924,"Act":2925,"non":2926,"adding":2927,"Ġgames":2928,"Ġcreated":2929,"Action":2930,"Equal":2931,"ĠGL":2932,"though":2933,"height":2934,"Block":2935,"idget":2936,"Ġspe":2937,"Ġpoints":2938,"capt":2939,"Ġcell":2940,"uman":2941,"frame":2942,"Ġcompon":2943,"raphics":2944,"cor":2945,"39":2946,"Null":2947,"hem":2948,"yd":2949,"imate":2950,"Ġport":2951,"ocus":2952,"icense":2953,"Base":2954,"dl":2955,"gor":2956,"cit":2957,"iet":2958,"({":2959,"ĠChar":2960,"yc":2961,"ington":2962,"Ġchange":2963,"ĠCont":2964,"Ġpe":2965,"sembly":2966,"eder":2967,"init":2968,"ĠĠĠĠĠĠĠĠĠĠĠĠĠĠ":2969,"ables":2970,"orage":2971,"Ġpublished":2972,"ĠRuss":2973,"Ġcur":2974,"Ġdest":2975,"ÃŃ":2976,"Nav":2977,"undle":2978,"Ġtechn":2979,"ĠEast":2980,"Ġrequired":2981,"Ġincluded":2982,"ĠDr":2983,"ged":2984,"Ġcount":2985,"ered":2986,"ĠBl":2987,"~~":2988,"Ð¸":2989,"Ġnational":2990,"unic":2991,"Ġ+=":2992,"Ġplayer":2993,"mo":2994,"Source":2995,"ĠMe":2996,"ategory":2997,"Ġavailable":2998,"36":2999,"Ġdeb":3000,"ĠCollege":3001,"tx":3002,"aul":3003,"Component":3004,"Ġage":3005,"alys":3006,"Ġlabel":3007,"xy":3008,"Ġimage":3009,"Ġcorrespond":3010,"Options":3011,"active":3012,"Buffer":3013,"Ġrest":3014,"No":3015,"oph":3016,"Ġdepend":3017,"witch":3018,"ansport":3019,"ours":3020,"01":3021,"header":3022,"Attribute":3023,"ynam":3024,"Ġassum":3025,"Ġarch":3026,"App":3027,"atabase":3028,"ĠThere":3029,"Handler":3030,"Ġintro":3031,"Ġauthor":3032,"[\"":3033,"Ġappear":3034,"epar":3035,"ĠPhil":3036,"Ġaff":3037,"child":3038,"yles":3039,"ibility":3040,"lied":3041,"''":3042,"ĠTest":3043,"}}\\":3044,"ĠLondon":3045,"cdot":3046,"Ġwar":3047,"Dec":3048,"UE":3049,"Ġserved":3050,"Ġder":3051,"imary":3052,"vironment":3053,"ugin":3054,"parent":3055,"Ġparticular":3056,"2001":3057,"Ġ\"\"\"":3058,"Pol":3059,"44":3060,"target":3061,"eqnarray":3062,"Ġevents":3063,"Select":3064,"Ġfeature":3065,"Ġcentury":3066,"Oper":3067,"ford":3068,"ĠĠĠĠĠĠĠĠĊ":3069,"rict":3070,"now":3071,"Ġdisplay":3072,"Resource":3073,"2003":3074,"Ġthird":3075,"ĠFrench":3076,"Content":3077,"Ġvalid":3078,"acing":3079,"Ġsection":3080,"ĠDes":3081,"Ġturn":3082,"pol":3083,"member":3084,"imation":3085,"Ġpage":3086,"adata":3087,"Ġsix":3088,"SP":3089,"*/":3090,"ilitary":3091,"ering":3092,"ald":3093,"ĠPark":3094,"GL":3095,"Cell":3096,"Ġsl":3097,"json":3098,"189":3099,")$.":3100,"ouncil":3101,"38":3102,"ĠAct":3103,"ĠChampionship":3104,"OP":3105,"Ġhttp":3106,"ĠAdd":3107,"Ġarr":3108,"rior":3109,"Comp":3110,"REF":3111,"Ġwant":3112,"ĠWilliam":3113,"Ġborn":3114,"artment":3115,"arried":3116,"thers":3117,"iber":3118,"Ġtimes":3119,"ado":3120,"icro":3121,"Ġfive":3122,"2002":3123,"post":3124,"ensure":3125,"Sec":3126,"}[":3127,"istic":3128,"select":3129,"Ġexpected":3130,"lim":3131,"ĠSw":3132,"ament":3133,"duce":3134,"epsilon":3135,"ites":3136,"Ġlow":3137,"2021":3138,"48":3139,"ĠLa":3140,"0000":3141,"ention":3142,"unk":3143,"188":3144,"Point":3145,"Ġknow":3146,"Gamma":3147,"element":3148,"ief":3149,"rown":3150,"EE":3151,"ptr":3152,"Ġspecies":3153,"Ġelection":3154,"flow":3155,"Ġcomb":3156,"Om":3157,"Ġspecial":3158,"Default":3159,"otype":3160,"Ġreturned":3161,"Ġeduc":3162,"ĠGerman":3163,"ently":3164,"cm":3165,"Ġcommon":3166,"Ġke":3167,"OL":3168,"cul":3169,"Ġmanag":3170,"Ġden":3171,"ude":3172,"resh":3173,"Start":3174,"Ap":3175,"izer":3176,"OS":3177,"lymp":3178,"EL":3179,"eed":3180,"ĠAm":3181,"si":3182,"CK":3183,"local":3184,"Ġdistrict":3185,"ĠVal":3186,"ĠDistrict":3187,"gorith":3188,"Ġlook":3189,"ĠComp":3190,"Ġgood":3191,"37":3192,"aves":3193,"Factory":3194,"module":3195,"ĠHar":3196,"Ġtelevision":3197,"idual":3198,"CC":3199,"Ġinterest":3200,"attle":3201,"xml":3202,"iddle":3203,"Function":3204,"psi":3205,"lies":3206,"navbar":3207,"ought":3208,"Link":3209,"omic":3210,"oto":3211,"gle":3212,"}_{\\":3213,"ĠQu":3214,"ialog":3215,"Command":3216,"ught":3217,"ĠDav":3218,"rect":3219,"vers":3220,"Ġbuilding":3221,"Ġnum":3222,"ĠHouse":3223,"rl":3224,"Ġcover":3225,"RA":3226,"oo":3227,"ĠArt":3228,"dec":3229,"ĠClass":3230,"caption":3231,"Ġweek":3232,"sg":3233,"ĠBro":3234,"Ġcrit":3235,"Ġlate":3236,"property":3237,"len":3238,"Ġair":3239,"Task":3240,"Ġenergy":3241,"uture":3242,"alysis":3243,"Ġsat":3244,"first":3245,"Ġdeterm":3246,"psilon":3247,"imension":3248,"ii":3249,"ĠAmer":3250,"igation":3251,"roy":3252,"write":3253,"ights":3254,"known":3255,"open":3256,"uation":3257,"History":3258,"65":3259,"ociation":3260,"Ġfew":3261,"Ġbody":3262,"ĠNor":3263,"Ġwritten":3264,"display":3265,"Ġfree":3266,"Ġresource":3267,"require":3268,"atform":3269,"Ã¼":3270,"ha":3271,"Ġgrad":3272,"find":3273,"oice":3274,"gener":3275,"ocol":3276,"Ġ{@":3277,"Window":3278,"Ġvir":3279,"host":3280,"Ġcamp":3281,"True":3282,"ĠObject":3283,"Ġparameter":3284,"ĠCup":3285,"ĠFig":3286,"status":3287,"ĠHer":3288,"Ġsite":3289,"Ġq":3290,"Ġcolumn":3291,"case":3292,"If":3293,"mar":3294,"tributes":3295,"Version":3296,"ĠInt":3297,"ÑĤ":3298,"ĠPres":3299,"ĠOff":3300,"Ġmen":3301,"src":3302,"thing":3303,"Ġofficial":3304,"Ġprotected":3305,"Ġdeg":3306,"meta":3307,"Ġparameters":3308,"ĠReturn":3309,"ris":3310,"oke":3311,"Ġwater":3312,"char":3313,"Ġsent":3314,"PRO":3315,"foot":3316,"ĠWhen":3317,"bottom":3318,"sqrt":3319,"board":3320,"Ġpred":3321,"istry":3322,"Ġoften":3323,"ĉĉĉĉĉĉĉĉ":3324,"Omega":3325,"HT":3326,"^*":3327,"last":3328,"Ġpossible":3329,"ĠPer":3330,"Ġprint":3331,"ĠInternational":3332,"push":3333,"ogn":3334,"ibrary":3335,"LASS":3336,"Ġnorth":3337,"ATE":3338,"Hel":3339,"strong":3340,"df":3341,"MS":3342,"dr":3343,"ĠDef":3344,"Ġbusiness":3345,"Ġ((":3346,"mm":3347,"pose":3348,"igr":3349,"itory":3350,"aps":3351,"inn":3352,"do":3353,"Ġthrows":3354,"pc":3355,"private":3356,"Style":3357,"Ġproduct":3358,"ĠSch":3359,"Ġstatus":3360,"Ġaver":3361,"ertain":3362,"vare":3363,"Number":3364,"Ġperm":3365,")(":3366,"Ġeither":3367,"ico":3368,"ĠAc":3369,"hel":3370,"ĠNone":3371,"endif":3372,"aken":3373,"Ġdied":3374,"su":3375,"iforn":3376,"Ġround":3377,"Ġindic":3378,"FI":3379,"Ġshows":3380,"TO":3381,"ĠThese":3382,"description":3383,"ological":3384,"chi":3385,"Ġpack":3386,"btn":3387,"ĠOne":3388,"Ð½":3389,"ensity":3390,"ĠĠĠĠĠĠĠĠĠĠĠĠĊ":3391,"});":3392,"Ġstudy":3393,"Ġmer":3394,"clus":3395,"img":3396,"Page":3397,"Ġconstruct":3398,"Ġred":3399,"\"]":3400,"egr":3401,"CA":3402,"Fl":3403,"gen":3404,"1999":3405,"ĠDiv":3406,"Prov":3407,"Ġheight":3408,"Ġamong":3409,"py":3410,"Frame":3411,"mail":3412,"avy":3413,"abor":3414,"Label":3415,"Mem":3416,"\").":3417,"rowser":3418,"obj":3419,"ynt":3420,"Row":3421,"urb":3422,"atal":3423,"Ġtask":3424,"Ġstructure":3425,"ypes":3426,"%%":3427,"ifornia":3428,"stream":3429,"Living":3430,"Ext":3431,"âĢĶ":3432,"stand":3433,"olved":3434,"Ġwhe":3435,"Ġstrong":3436,"Ġattack":3437,"ulture":3438,"Ġvillage":3439,"Ġshown":3440,"book":3441,"Sup":3442,"Equals":3443,"change":3444,"Ġra":3445,"AG":3446,"${":3447,"After":3448,"gl":3449,"std":3450,"Ġvarious":3451,"Ġsepar":3452,"iol":3453,"Ġclient":3454,"pected":3455,"ĠSan":3456,"inst":3457,"Ġresearch":3458,"Ġlo":3459,"People":3460,")$,":3461,"Ġalready":3462,"signed":3463,"ĠIndian":3464,"Ġengine":3465,"det":3466,"Ġimportant":3467,"bor":3468,"Ġconc":3469,"otion":3470,"Ġson":3471,"Part":3472,"varepsilon":3473,"Us":3474,"Ġload":3475,"ging":3476,"cell":3477,"ournal":3478,"ĠDep":3479,"orge":3480,"ĠRiver":3481,"Ġlanguage":3482,"Ġdouble":3483,"(&":3484,"BC":3485,"Return":3486,"Ġworks":3487,"udio":3488,"oyal":3489,"layout":3490,"Check":3491,"Ġfurther":3492,"itted":3493,"ara":3494,"lands":3495,"vis":3496,"ĠMich":3497,"05":3498,"sole":3499,"Ġtrad":3500,"container":3501,"heet":3502,"Ġdon":3503,"Ġgen":3504,"Ġrelation":3505,"ocket":3506,"Ġclose":3507,"///":3508,"Em":3509,"ĠAp":3510,"lip":3511,"^{(":3512,"burg":3513,"even":3514,"Char":3515,"ascript":3516,"ĠEngland":3517,"VER":3518,"FONT":3519,"oding":3520,"Ġmiss":3521,"\"),":3522,"Ġrepl":3523,"flu":3524,"Ġsequ":3525,"Ġinvest":3526,"Ġurl":3527,"Ġ]":3528,"Ġelements":3529,"Ġsouth":3530,"Ġextends":3531,"irection":3532,"png":3533,"Create":3534,"ensor":3535,"ounced":3536,"ifact":3537,"Ġvideo":3538,"Box":3539,"Ġmean":3540,"project":3541,"1990":3542,"buf":3543,"ittle":3544,"Ġless":3545,"ably":3546,"Ġcirc":3547,"can":3548,"close":3549,"MO":3550,"cap":3551,"Ġins":3552,"Ġphys":3553,"Ġwindow":3554,"cel":3555,"Ġfac":3556,"Ġship":3557,"Ġmodels":3558,"ĠCalifornia":3559,"oon":3560,"service":3561,"Ġnov":3562,"Ġcountry":3563,"Ġlight":3564,"Ġterms":3565,"Met":3566,"Ġcoll":3567,"Ġprob":3568,"Ġaccount":3569,"}=":3570,"subsection":3571,"Ġstarted":3572,"orph":3573,"Ġtw":3574,"Ġ<!--":3575,"Ġ${\\":3576,"Back":3577,"Ġhaving":3578,"Ġled":3579,"ociety":3580,"Ġlimit":3581,"77":3582,"Ġprovided":3583,"irm":3584,"Ġpot":3585,"Ġimplement":3586,"Ġclaim":3587,"Ġbecome":3588,"Ġcapt":3589,"Ġclear":3590,"////////////////":3591,"Child":3592,"ula":3593,"ias":3594,"ĠRed":3595,"ĠIN":3596,"ka":3597,"comm":3598,"tag":3599,"ĠEl":3600,"erefore":3601,"useum":3602,"ÑĢ":3603,"Acc":3604,"mult":3605,"bm":3606,"Ġmoved":3607,"Listener":3608,"Gr":3609,"Ġ\\,":3610,"sol":3611,"Ġstates":3612,"attr":3613,"font":3614,"ĠQue":3615,"49":3616,"Ġconsidered":3617,"idden":3618,"ABLE":3619,"ĠMon":3620,"Web":3621,"II":3622,"2022":3623,"ks":3624,"########":3625,"Controller":3626,"ĠDis":3627,"ĠAustralia":3628,"mt":3629,"level":3630,"_.":3631,"itect":3632,"ĠWith":3633,"Ġhistor":3634,"ministr":3635,"eline":3636,"ĠStr":3637,"Filter":3638,"small":3639,"Ġda":3640,"Ġsuff":3641,"Ġproblem":3642,"ceed":3643,"Button":3644,"Read":3645,"apping":3646,"ference":3647,"num":3648,"Ġproduced":3649,"wise":3650,"oll":3651,"Ġfollows":3652,"Ġmargin":3653,"actions":3654,"Ġoption":3655,"ĠIr":3656,"format":3657,"Ġdevelopment":3658,"ring":3659,"ĠParty":3660,"Ġvert":3661,"anged":3662,"Format":3663,"Ġcontrib":3664,"}^{\\":3665,")=":3666,"Length":3667,"Ġframe":3668,"Ġver":3669,"igger":3670,"filter":3671,"entry":3672,"response":3673,"omb":3674,"ves":3675,"Ġsignific":3676,"tempt":3677,"Ġinternal":3678,"Ġcross":3679,"Ġfunctions":3680,"leg":3681,"BU":3682,"dev":3683,"exp":3684,"ĠSim":3685,"allet":3686,"vec":3687,"Ã¶":3688,"ftware":3689,"ivil":3690,"aries":3691,"Ġleast":3692,"SC":3693,"Ġcollection":3694,"Ġcatch":3695,"draw":3696,"Ġproperties":3697,"essional":3698,"Ġmove":3699,"Ġgroups":3700,"Ġvia":3701,"First":3702,"medi":3703,"iler":3704,"ĠRepublic":3705,"mem":3706,"uggest":3707,"ocr":3708,"Ġhowever":3709,"Rep":3710,"Ġwest":3711,"SON":3712,"ĠPort":3713,"Ġbg":3714,"Ġproduction":3715,"Ġindiv":3716,"Ġspecified":3717,"ayer":3718,"ellow":3719,"Ġput":3720,"lean":3721,"Det":3722,"fe":3723,",\"":3724,"Ġsample":3725,"menu":3726,"rangle":3727,"Valid":3728,"stract":3729,"Ġestablish":3730,"update":3731,"Ġfri":3732,"Ġide":3733,"adian":3734,"javascript":3735,"ĠEm":3736,"refix":3737,"Ġcontains":3738,"67":3739,"rightarrow":3740,"Ġcopy":3741,"47":3742,"Ġblack":3743,"Mode":3744,"ising":3745,"eleg":3746,"ĠÃ":3747,"Ġbegin":3748,"1998":3749,"Ġmale":3750,"Ġgl":3751,"iation":3752,"final":3753,"ĠAg":3754,"Ġassociated":3755,"ements":3756,"Ġ``":3757,"Ġfeatures":3758,"apter":3759,"iqu":3760,"emph":3761,"Ġant":3762,"Ġyoung":3763,"hib":3764,"iers":3765,"ota":3766,"ills":3767,"Ġsche":3768,"Ġflow":3769,"ĠOlymp":3770,"Ġmethods":3771,"ĠAward":3772,"ensions":3773,"aml":3774,"Ġlower":3775,"Ġdeaths":3776,"Ġdate":3777,"lying":3778,"Ġsem":3779,"INT":3780,"output":3781,"Ġinternational":3782,"Ġperformance":3783,"Ġauto":3784,"Ġcommunity":3785,"ires":3786,"UI":3787,"Ġapprox":3788,"Collection":3789,"ĠĠĠĠĠĠĠĠĠĠĠĠĠĠĠĠĠĠĠĠĠĠĠĠĠĠĠĠĠĠĠĠĠĠĠ":3790,"ries":3791,"Ġsold":3792,"Address":3793,"ĠIndia":3794,"circ":3795,"po":3796,"Ge":3797,"most":3798,"Ġrow":3799,"NO":3800,"Ġspect":3801,"idence":3802,"Ġfather":3803,"params":3804,"gorithm":3805,"Ġpract":3806,"Output":3807,"ouch":3808,"ĠMal":3809,"ael":3810,"Ġmillion":3811,"AP":3812,"ordin":3813,":</":3814,"Ġwrite":3815,"year":3816,"osp":3817,"asing":3818,"Aut":3819,"aged":3820,"Ġfem":3821,"ĠGo":3822,"Spec":3823,"number":3824,"command":3825,"yr":3826,"Ġinstead":3827,"Ġattempt":3828,"Ġquant":3829,"egraphics":3830,"includegraphics":3831,"plit":3832,"Ġcomplex":3833,"Ġeast":3834,"Ġcame":3835,"Ġupdate":3836,"Big":3837,"atural":3838,"ĠDo":3839,"<?":3840,"IM":3841,"oted":3842,"isf":3843,"ql":3844,"Column":3845,"remove":3846,"Ġdev":3847,"reference":3848,"ĠBel":3849,"08":3850,"Cache":3851,"agn":3852,"Tem":3853,"Ġformat":3854,"Ġtoget":3855,"ilm":3856,"URL":3857,"arning":3858,"ades":3859,"TP":3860,"ĠArmy":3861,"Ġadded":3862,"Ġtogether":3863,"ĠRev":3864,"vari":3865,"Ġcou":3866,"Ġservices":3867,"unit":3868,"Ġaddition":3869,"Ġaverage":3870,"Layout":3871,"ĠInter":3872,"ids":3873,"Ġcallback":3874,"Ġbelow":3875,"ĠFrance":3876,"68":3877,"Ġdiscuss":3878,"show":3879,"Ġindividual":3880,"Ġmodule":3881,"aker":3882,"alle":3883,"ĠChurch":3884,"TYPE":3885,"Ġdiff":3886,"1996":3887,"ĠGeneral":3888,"Ġge":3889,"ERR":3890,"pass":3891,"anel":3892,"ailway":3893,"Ġepis":3894,"Ġsearch":3895,"Pre":3896,"HE":3897,"sf":3898,"ĠSum":3899,"Ġhalf":3900,"1980":3901,"process":3902,"eh":3903,"omin":3904,"Ġwent":3905,"exec":3906,"acity":3907,"ĠNot":3908,"instance":3909,"Ġannounced":3910,"main":3911,"column":3912,"Ġjo":3913,"itar":3914,"Ob":3915,"UM":3916,"amily":3917,"Ent":3918,"icient":3919,"eal":3920,"efined":3921,"ecess":3922,"Ġdistribution":3923,"anish":3924,"overline":3925,"Ġbgcolor":3926,"ĠCLASS":3927,"1997":3928,"tool":3929,"Ġserver":3930,"ĠUp":3931,"atas":3932,"Ġproduc":3933,"Eng":3934,"Let":3935,"Ġfields":3936,"ĠCour":3937,"}).":3938,"annot":3939,"ĠAnt":3940,"proof":3941,"ĠAcc":3942,"else":3943,"ply":3944,"ĠBer":3945,"ĠSk":3946,"Ġnever":3947,"Ass":3948,"```":3949,"ĠVir":3950,"Ã¤":3951,"offset":3952,"Ġcustom":3953,"background":3954,"Per":3955,"ĠPal":3956,"andid":3957,"geq":3958,"airs":3959,"ĠHREF":3960,"prototype":3961,"Ġnormal":3962,"Ġfont":3963,"avel":3964,"Ġstory":3965,"Ġonce":3966,"uel":3967,"Ñģ":3968,"uint":3969,"ba":3970,"Ġ[]":3971,"iding":3972,"ĠCouncil":3973,"ymmet":3974,"Ġinterface":3975,"CON":3976,"Wh":3977,"Ġrelease":3978,"ĠAPI":3979,"Ġaward":3980,".~\\":3981,"Ġ!==":3982,"Provider":3983,"ya":3984,"ĠAmerica":3985,"ĠFirst":3986,"Ġgraph":3987,"han":3988,"sm":3989,"textbf":3990,"').":3991,"spec":3992,"ĠStreet":3993,"Bundle":3994,"iles":3995,"ilities":3996,"Ġunit":3997,"Ġinf":3998,"Ð¾Ð":3999,"ERT":4000,"42":4001,"ĠCanada":4002,"styles":4003,"Server":4004,"Ġsw":4005,"Ġprovide":4006,"Last":4007,"oriz":4008,"Rem":4009,"++)":4010,"Ġoperation":4011,"wrap":4012,"Ġfail":4013,"Ġmatrix":4014,"encies":4015,"Ġreview":4016,"Ġdays":4017,"illed":4018,"ĠDi":4019,"ãģ":4020,"ĠSo":4021,"lit":4022,"Types":4023,"Ġpay":4024,"Ġconsist":4025,"long":4026,"Ġlocation":4027,"ĠJames":4028,"varphi":4029,"Url":4030,"ĠHol":4031,"ĉĠĠĠ":4032,"Ġactiv":4033,"returns":4034,"Ġneg":4035,"Ġstandard":4036,"Ġspecific":4037,"De":4038,"ĠRoman":4039,"88":4040,"Ġphot":4041,"istics":4042,"west":4043,"Ġtypes":4044,"verse":4045,"rypt":4046,"ĠRober":4047,"CL":4048,"[\\":4049,"ĠThom":4050,"Ġcenter":4051,"ĠLicense":4052,"Ġnav":4053,"example":4054,"Ġplan":4055,"unicip":4056,"Ġremov":4057,"Ġsocial":4058,"Ġpolitic":4059,"ago":4060,"Ġstream":4061,"SI":4062,"ĠGroup":4063,"ients":4064,"bb":4065,"Ġsignificant":4066,"Ġpolitical":4067,"ĠEX":4068,"Ġselect":4069,"rote":4070,"Ġdone":4071,"ĠArray":4072,"Ġsuccessful":4073,"DB":4074,"Ġ(\"":4075,"ville":4076,"only":4077,"********************************":4078,"cer":4079,"ĠPresident":4080,"fa":4081,"Ġglobal":4082,"Ġmeans":4083,"Update":4084,"Ġactive":4085,"plicit":4086,"09":4087,"Ġcost":4088,"46":4089,"Ġlines":4090,"Ġmedia":4091,"ĠEuropean":4092,"COL":4093,"sd":4094,"proto":4095,"Med":4096,"stitute":4097,"ĠTrans":4098,"Local":4099,"reek":4100,"Ġsurv":4101,"1995":4102,"02":4103,">>":4104,"prop":4105,"Ġinit":4106,"07":4107,"Ġagre":4108,"uid":4109,"ingle":4110,"ĠSm":4111,"Tag":4112,"rd":4113,"Ġfund":4114,"come":4115,"Ġreference":4116,"ĠPaul":4117,"&\\":4118,"}),":4119,"Ġliter":4120,"59":4121,"zer":4122,"wide":4123,"utils":4124,"ĠType":4125,"Ġnumer":4126,"Ġacross":4127,"Ġsystems":4128,"ĠBut":4129,"Ġseen":4130,"kit":4131,"Ġmode":4132,"Min":4133,"Width":4134,"Ġrecent":4135,"Ġappoint":4136,"Container":4137,"Ġwhether":4138,"outhern":4139,"Ġselected":4140,"Ġcases":4141,"chan":4142,"Ġmeasure":4143,"},\\":4144,"Ġrank":4145,"Ġaccept":4146,"ida":4147,"ania":4148,"Ġpotential":4149,"izing":4150,"Configuration":4151,"Ġnone":4152,"skip":4153,"58":4154,"scope":4155,"ĠID":4156,"Ġrate":4157,"ĠMy":4158,"chiev":4159,"ĠDem":4160,"187":4161,"ria":4162,"ĠHT":4163,"Ġregular":4164,"Offset":4165,"1970":4166,"Ġcompos":4167,")^":4168,"ĠRich":4169,"icles":4170,"ĠDivision":4171,"ĠGeorge":4172,"lier":4173,"VAL":4174,"Ġsay":4175,"template":4176,"06":4177,"ication":4178,"Ġmaterial":4179,"Ġbroad":4180,"Ġwebs":4181,"Ġpopular":4182,"Ġgreat":4183,"Ġmultiple":4184,"aur":4185,"bind":4186,"()->":4187,"Ġworking":4188,"Ġworked":4189,"NAME":4190,"Target":4191,"Ġparticip":4192,"common":4193,"Ġsit":4194,"Ġmaking":4195,".\\":4196,"Ġlim":4197,"ĠThen":4198,"ners":4199,"Pack":4200,"||":4201,"Ġtheory":4202,"ĠMark":4203,"Ġalways":4204,"ĠRoyal":4205,"Ġobj":4206,"Ġbox":4207,"Ġsuggest":4208,"Ġtraining":4209,"Ġstudents":4210,"based":4211,"ios":4212,"Lambda":4213,"Ġconstant":4214,"Vis":4215,"Ġdecl":4216,"ãĥ":4217,"Ġmilitary":4218,"(_":4219,"Max":4220,")]":4221,"Ġground":4222,"Ġtre":4223,"IO":4224,"57":4225,"Ġmarried":4226,"Ġ**":4227,"aign":4228,"Ġtaken":4229,"Parameter":4230,"like":4231,"Ġnames":4232,"empty":4233,"float":4234,"ulated":4235,"ĠSen":4236,"Ġjoined":4237,"aching":4238,"sv":4239,"Ġfrequ":4240,"ĠMont":4241,"Ġexpress":4242,"Sp":4243,"Ġgrow":4244,"Ġtoo":4245,"ĠDavid":4246,"1994":4247,"bin":4248,"=\"../../../../../":4249,"ional":4250,"Ab":4251,"iven":4252,"task":4253,"olic":4254,"cache":4255,"window":4256,"ctx":4257,"aven":4258,"acters":4259,"ĠAssociation":4260,"ĠFl":4261,"raz":4262,"Co":4263,"Interface":4264,"Ġquery":4265,"Ġreturns":4266,"oney":4267,"Ġfar":4268,"Ġcomponent":4269,"04":4270,"ĠBlack":4271,"Ġhuman":4272,"Ġcompleted":4273,"Ġdefe":4274,"depend":4275,"500":4276,"ises":4277,"Access":4278,"Ġconditions":4279,"]);":4280,"soft":4281,"match":4282,"Ġchanges":4283,".$":4284,"ĠMount":4285,"ĠRef":4286,"Ġadditional":4287,".}":4288,"layer":4289,"Ġfiles":4290,"buffer":4291,"Ġable":4292,"Tree":4293,"should":4294,"support":4295,"ani":4296,"Ġconv":4297,"Ġquest":4298,"Open":4299,"ĠSub":4300,"Ġhigher":4301,"ĠUnion":4302,"atives":4303,"ĉĉĉĉĉĉĉ":4304,"ĠGermany":4305,"artifact":4306,"language":4307,"Ġindependent":4308,"Ġscal":4309,"dep":4310,"1992":4311,"Entry":4312,"arly":4313,"Ġlen":4314,"imated":4315,"Description":4316,"Ġmid":4317,"Ġopened":4318,"berg":4319,"Ġloss":4320,"ĠWeb":4321,"oment":4322,"Ġargs":4323,"Case":4324,"Ġeas":4325,"frak":4326,"Ġpaper":4327,"Ġuint":4328,"Top":4329,"attern":4330,"Ġsubject":4331,"ĠFrom":4332,"essages":4333,"olve":4334,"ĠLou":4335,"}/":4336,"UP":4337,"umni":4338,"Ġlost":4339,"hood":4340,"Bo":4341,"uge":4342,"Ġoffset":4343,"Ġreported":4344,"bert":4345,"Ġecon":4346,"ĠHam":4347,"inner":4348,"ston":4349,"ipp":4350,"ca":4351,"Ġwrote":4352,"track":4353,"ĠLet":4354,"band":4355,"Work":4356,"ĠRem":4357,"ULT":4358,"ldots":4359,"ĠDon":4360,"nel":4361,"fact":4362,"ĠAustralian":4363,"ĠHall":4364,"Ġoffer":4365,"parse":4366,"One":4367,"Ġpresident":4368,"Ġstop":4369,"03":4370,"quare":4371,"Ġbuffer":4372,"bool":4373,"ND":4374,"Ġfilter":4375,"ĠPo":4376,"ming":4377,"Ġobtained":4378,"rian":4379,"criptor":4380,"atory":4381,"([":4382,"Ġapplication":4383,"Ġentry":4384,"ua":4385,"Ġvector":4386,"otal":4387,"shire":4388,"Ġroad":4389,"Ġpress":4390,"gin":4391,"ĠPe":4392,"unch":4393,"Ġdensity":4394,":\"":4395,"Ġsatisf":4396,"Header":4397,"dist":4398,"grad":4399,"Ġcondition":4400,"Ġhard":4401,"iform":4402,"ĠMet":4403,"Ġinstall":4404,"late":4405,"Ġ::":4406,"Ġfloat":4407,"PC":4408,"langle":4409,"ounds":4410,"'),":4411,"ashington":4412,"Load":4413,"Utils":4414,"break":4415,"Ġ...":4416,"root":4417,"ctor":4418,"./":4419,"Ġstep":4420,"}}$":4421,"tries":4422,"asons":4423,"Ġothers":4424,"ensuremath":4425,"Thread":4426,"iginal":4427,"Ġmeet":4428,"asket":4429,"wood":4430,"uz":4431,"Ġdeveloped":4432,"afe":4433,"scale":4434,"=\"-":4435,"Ġperformed":4436,"Ġscale":4437,"API":4438,"erry":4439,"Ġareas":4440,"ĠChina":4441,"document":4442,"ĠRoad":4443,"Ġsigned":4444,"Ġvirtual":4445,"ds":4446,"resource":4447,"Ag":4448,"Le":4449,"Exec":4450,"ĠNe":4451,"unt":4452,"Ġemploy":4453,"imer":4454,"Ġinflu":4455,"ĠProv":4456,"PO":4457,"stant":4458,"tree":4459,"Ġill":4460,"Ġsimple":4461,"wait":4462,"ĠCenter":4463,"ĠMart":4464,"Ġanalysis":4465,"1993":4466,"Callback":4467,"Lo":4468,"Ġrelated":4469,"Ġlive":4470,"hline":4471,"ario":4472,"oded":4473,"Vert":4474,"author":4475,"Ġthough":4476,"Ġtemper":4477,"izes":4478,"Ġhom":4479,"56":4480,"aches":4481,"Unit":4482,"Ġparty":4483,"alls":4484,"cr":4485,"Ġdirector":4486,"etch":4487,"Ġobtain":4488,"otimes":4489,"ros":4490,"Level":4491,"ĠLog":4492,"Ġincludes":4493,"ĠArch":4494,"tee":4495,"aring":4496,"Process":4497,"Entity":4498,"values":4499,"Ġsom":4500,"rief":4501,"Ġcompan":4502,"lice":4503,"Ġrandom":4504,"ems":4505,"Ġconnection":4506,"lease":4507,"Ġoperator":4508,"typ":4509,"Ġaway":4510,"ĠAng":4511,"ĠDuring":4512,"ĠReturns":4513,"Ġrecogn":4514,"utive":4515,"AM":4516,"Ġprop":4517,"Br":4518,"Ġdebut":4519,"Next":4520,"classes":4521,"expected":4522,"KE":4523,"Control":4524,"Ġteams":4525,"Ġjob":4526,"Ġwebsite":4527,"ĠLaw":4528,"Ġcalcul":4529,"appa":4530,"ĠOF":4531,"Ġsongs":4532,"mathfrak":4533,"imately":4534,"thon":4535,"Ġstar":4536,"Ġfig":4537,"CD":4538,"mat":4539,"Ġprofessional":4540,"ili":4541,"ĠĠĠĠĠĠĠĠĠĠĠĠĠĠĠĠĠĠĠĠĠ":4542,"Ġthus":4543,"Ġtransform":4544,"nected":4545,"ano":4546,"ĠFile":4547,"Ġchurch":4548,"Ġpur":4549,"CODE":4550,"Write":4551,"Ġbetter":4552,"queue":4553,"Empty":4554,"Ġ{}":4555,"Ġbi":4556,"Dr":4557,"Ġachiev":4558,"Ġcorresponding":4559,"Ġconstruction":4560,"ĠSam":4561,"ughter":4562,"Ġbehav":4563,"hent":4564,"Ġcomplete":4565,"Module":4566,"43":4567,"liament":4568,"\"))":4569,"Json":4570,"hi":4571,"ensive":4572,"1991":4573,"win":4574,"Ġten":4575,"utable":4576,"ĠAcadem":4577,"ĠStud":4578,"Ġmight":4579,"ĠCr":4580,"ĠCompany":4581,"AA":4582,"Ġdraw":4583,"bra":4584,"ĠMor":4585,"Ġlik":4586,"Range":4587,"Ġpaint":4588,"][":4589,"ponents":4590,"Location":4591,"Track":4592,"achine":4593,"Ġcast":4594,"abs":4595,"ĠHen":4596,"Ġcurrently":4597,"Ġamount":4598,"Ġsett":4599,"elling":4600,"Ġwhose":4601,"eft":4602,"Ġcannot":4603,"ultural":4604,"Ġiter":4605,"ensus":4606,"ena":4607,"Ġroot":4608,"41":4609,"ĠMusic":4610,"artifactId":4611,"ĠMary":4612,"ZE":4613,"Ġrock":4614,"Ġoffic":4615,"Ġcontract":4616,"Ġsolution":4617,"Phi":4618,"Ġrespons":4619,"eck":4620,"Ġcontinued":4621,"token":4622,"Ġarchitect":4623,"Ġ;":4624,"{{":4625,"Ġfront":4626,"ĠMex":4627,"sin":4628,"control":4629,"mbox":4630,"which":4631,"adow":4632,"ĠRobert":4633,"Ġclosed":4634,"ĠData":4635,"obile":4636,"Ġ*)":4637,"inese":4638,"ala":4639,"och":4640,"Ġfailed":4641,"aints":4642,"Can":4643,"sign":4644,"Ġentire":4645,"Ġobjects":4646,"Ġrights":4647,"Port":4648,"Ġrespectively":4649,"ĠService":4650,"Ġrecorded":4651,"Http":4652,"Ġremove":4653,"QL":4654,"Ġstage":4655,"Ġbeliev":4656,"Ġqual":4657,"ĠMag":4658,"Ġwhite":4659,"Ġexists":4660,"Ġchannel":4661,"omy":4662,"ĠFranc":4663,"?:":4664,"Ġsupported":4665,"Settings":4666,"Ġrunning":4667,"ĠIsland":4668,"Ġenvironment":4669,"ini":4670,"ãĤ":4671,"Height":4672,"tml":4673,"=#":4674,"Ġforce":4675,"TI":4676,"Ġgive":4677,"Ġviol":4678,"ĠÂ":4679,"Que":4680,"SO":4681,"Ġeducation":4682,"Ġbit":4683,"ĠClub":4684,"=\"../../../../../../":4685,"Ġclos":4686,"Ġhold":4687,"strap":4688,"Ġhon":4689,"Ġhapp":4690,"anced":4691,"69":4692,"IGN":4693,"Ġcontinue":4694,"Ġfuture":4695,"ĠSince":4696,"Script":4697,"ĠCourt":4698,"split":4699,"agon":4700,"subset":4701,"oder":4702,"HO":4703,"Ġleading":4704,"estival":4705,"enced":4706,"Ġdefine":4707,"patch":4708,"under":4709,"AV":4710,"Ġdegree":4711,".)":4712,"asc":4713,"sy":4714,"Current":4715,"bour":4716,"ĠAssert":4717,"Ġallowed":4718,"Direct":4719,"ATION":4720,"Ġoccur":4721,"Ġprior":4722,"1960":4723,"ĠCreate":4724,"BA":4725,"astic":4726,"iting":4727,"Ġtree":4728,"ictor":4729,"ĉĠ":4730,"Ġexception":4731,"Position":4732,"ĠWashington":4733,"Enc":4734,"hest":4735,"Ġsets":4736,"ĠTV":4737,"Params":4738,"files":4739,"ĠTown":4740,"sey":4741,"ĠMac":4742,"bolds":4743,"ĠSociety":4744,"weight":4745,"Sim":4746,"Ġdirected":4747,"ĠApp":4748,"nab":4749,"ĠKingdom":4750,"})$":4751,"cial":4752,"Ġcharacters":4753,"Search":4754,"ĠItal":4755,"%;":4756,"Ġpositive":4757,"ĠOut":4758,"Ġinc":4759,"msg":4760,"RL":4761,"aging":4762,"stack":4763,"Po":4764,"groupId":4765,"uses":4766,"Ġradio":4767,"ĠNS":4768,"Ġfire":4769,"Ġformed":4770,"card":4771,"Option":4772,"utor":4773,"models":4774,"Ġalbums":4775,"nap":4776,"Op":4777,"There":4778,"Ġhealth":4779,"Ġbar":4780,"Fe":4781,"boldsymbol":4782,"oe":4783,"men":4784,"ĠOpen":4785,"INE":4786,"Ġdoc":4787,"arks":4788,"aine":4789,"uated":4790,"ĠCanadian":4791,"Ġnovel":4792,"ĠGames":4793,"Change":4794,"otes":4795,"uri":4796,"1988":4797,"ĠInstitute":4798,"Connection":4799,"aa":4800,"Ġrender":4801,"Hash":4802,"ĠPress":4803,"Ġdevice":4804,"Ġkm":4805,"Ġ>=":4806,"Ġuses":4807,"conf":4808,"TER":4809,"ein":4810,"Ġaccording":4811,"Ġparts":4812,"ws":4813,"Ġrather":4814,"agment":4815,"Dir":4816,"Ġtool":4817,"Ġkeep":4818,"ĠDepartment":4819,"Ġautom":4820,"Ġexcept":4821,"igen":4822,"97":4823,"ĠJack":4824,"parameter":4825,"Ġempty":4826,"greg":4827,"Ġdescription":4828,"ĠTur":4829,"boot":4830,"95":4831,"Ġwife":4832,"Ġequal":4833,"oms":4834,"ĠBay":4835,"ĠMiss":4836,"BO":4837,"Ġcandid":4838,"Ġmot":4839,"overnor":4840,"ixt":4841,"ĠAfrican":4842,"ictionary":4843,"uous":4844,"ams":4845,"LI":4846,"Ġapproach":4847,"hr":4848,"Ġpast":4849,"Stat":4850,"before":4851,"Ġintegr":4852,"asketball":4853,"ECT":4854,"Serial":4855,"1989":4856,"Document":4857,"ounter":4858,"pite":4859,">,":4860,"arter":4861,"Ġcut":4862,"ĠVol":4863,"ĠCath":4864,"Ġphase":4865,"Ġrace":4866,"ĠMod":4867,"rea":4868,"Rel":4869,"ĠLem":4870,"ĠArg":4871,"di":4872,"cos":4873,"oute":4874,"Session":4875,"ube":4876,"ln":4877,"Ġfilename":4878,"ett":4879,"():":4880,"Ġoperations":4881,"Ġcentral":4882,"Properties":4883,"Ġflo":4884,"CP":4885,"Project":4886,"XX":4887,"Ġconduct":4888,"itch":4889,"Ġnecess":4890,"Ġpassed":4891,"Ġgoal":4892,"\"));":4893,"edy":4894,"orizont":4895,"Ġintroduced":4896,"rupt":4897,"ĠJapanese":4898,"ands":4899,"Ġtag":4900,"ura":4901,"Ġcertain":4902,"ACK":4903,"None":4904,"Ġarguments":4905,"Ġcho":4906,"Ġsequence":4907,"nonumber":4908,"51":4909,"Ġparams":4910,"COLOR":4911,"antic":4912,"Ġalthough":4913,"za":4914,"oul":4915,"ĠTex":4916,"stylesheet":4917,"Ġtreat":4918,"cs":4919,"Ġtransfer":4920,"Ġadministr":4921,"Ġmarket":4922,"fs":4923,"PECT":4924,"dated":4925,"ĠSee":4926,"incip":4927,"Ġir":4928,"Ġconfiguration":4929,"ened":4930,"kappa":4931,"Ġsurface":4932,"ĠRecords":4933,"Ġchanged":4934,"drop":4935,"images":4936,"plete":4937,"device":4938,"Ġoffice":4939,"Ġappeared":4940,"Ġzero":4941,"ĠHistor":4942,"Ġfounded":4943,"ycle":4944,"Ġ\"\\":4945,"debug":4946,"Ġ~":4947,"Ġhandle":4948,"Font":4949,"Ident":4950,"ĠJer":4951,"ĠBest":4952,"Ġlinear":4953,"dest":4954,"gn":4955,"Ġelected":4956,"atio":4957,"IV":4958,"rey":4959,"Record":4960,"citep":4961,"Ġtour":4962,"itude":4963,"oundation":4964,"alled":4965,"Ġneigh":4966,"arian":4967,"Schema":4968,"Ġben":4969,"ĠBase":4970,"Ġstri":4971,"illa":4972,"Ġxml":4973,"98":4974,"Ġattribute":4975,"den":4976,"render":4977,"Ġoverride":4978,"ursor":4979,"arily":4980,"dot":4981,"IF":4982,"ao":4983,"Ġvict":4984,"Ġmodern":4985,"mission":4986,"Ġappointed":4987,"Ġselection":4988,"Ġassist":4989,"ĠTime":4990,"nes":4991,"ederal":4992,"Ġvers":4993,"oring":4994,"Ġregister":4995,"Ġdynam":4996,"Ġrev":4997,"Ġwriter":4998,"ometry":4999,"ĠThomas":5000,"jo":5001,"Ġfootballers":5002,"ona":5003,"Async":5004,"ĠUK":5005,"essor":5006,"ĠDirect":5007,"Ġreason":5008,"imest":5009,"Ġpadding":5010,"ander":5011,"Ġpattern":5012,"Ġsolid":5013,"hash":5014,"ĠMore":5015,"ĠRussian":5016,"ĠMad":5017,"Ġhimself":5018,"anges":5019,"Ġcompanies":5020,"unity":5021,"Ġwriting":5022,"erman":5023,"join":5024,"ttps":5025,"ĠCong":5026,"Ġmaint":5027,"ĠGreen":5028,"Ġconstr":5029,"road":5030,"Ġrot":5031,"ugins":5032,"ĠCentral":5033,"Mon":5034,"Ġlarger":5035,"fg":5036,"SL":5037,"Ġequation":5038,"ĠSome":5039,"ĠAlex":5040,"Ġitself":5041,"52":5042,"Ġeval":5043,"ĠBuild":5044,"'],":5045,"Ġmar":5046,"ĠRad":5047,"ĠWork":5048,"ĠMo":5049,":(":5050,"ynch":5051,"ĠOper":5052,"ĠBook":5053,"Ġfollowed":5054,"Ġthink":5055,"ĠMer":5056,"ĉĉĊ":5057,"ĠAfrica":5058,"modal":5059,"Ġdetails":5060,"ĠZeal":5061,"Ġtro":5062,"54":5063,"ĠGrand":5064,"ournament":5065,"à¤":5066,"ĠException":5067,"icted":5068,";\"":5069,"Ġcorrect":5070,";->":5071,"DIR":5072,"Ġvariable":5073,"Ġfinished":5074,"ĠLeg":5075,"Ġ['":5076,"Ġnor":5077,"Mult":5078,"ĠAcademy":5079,"ĠScott":5080,"thm":5081,"note":5082,"Menu":5083,"Ġapi":5084,"ci":5085,"Integer":5086,"Ġdistance":5087,"ĠForm":5088,"ART":5089,"equal":5090,"Ġalumni":5091,"Copy":5092,"MM":5093,"Ġscope":5094,"ĠUs":5095,"Ġleague":5096,"ĠPublic":5097,"Ġunits":5098,"anks":5099,"rael":5100,"structor":5101,"delete":5102,"Operation":5103,"\\|":5104,"\\[":5105,"Ġtemplate":5106,"dat":5107,"ĠZealand":5108,"dots":5109,"Ġprimary":5110,"STR":5111,"icket":5112,"orizontal":5113,"ĠMuseum":5114,"Ġplaying":5115,"ĠMat":5116,"DL":5117,"second":5118,"Helper":5119,"Vari":5120,"Ġinj":5121,"ky":5122,"Ġmonths":5123,"Ġren":5124,"Ġproof":5125,"ulations":5126,"nabla":5127,"Exp":5128,"Ġgenerated":5129,"1987":5130,"Ġstore":5131,"Ġchart":5132,"53":5133,"ĠCO":5134,"icture":5135,"Ġhttps":5136,"clear":5137,"ping":5138,"foo":5139,"bon":5140,"={":5141,"ĠJew":5142,"las":5143,"auth":5144,"ĠSummer":5145,"Ġscreen":5146,"Ġargument":5147,"(-":5148,"itting":5149,"Ġnatural":5150,"ĠItalian":5151,"ĠYear":5152,"thlet":5153,"ĠWestern":5154,"then":5155,"Ġbirth":5156,"Ġtoken":5157,"Ġsil":5158,"Ġschools":5159,"Host":5160,"Ġsession":5161,"nce":5162,"border":5163,"Ġmount":5164,"Ġmother":5165,"Ġdesigned":5166,"ĠEar":5167,"TS":5168,"global":5169,"Ġcontr":5170,"================================":5171,"yntax":5172,"Store":5173,"stry":5174,"UB":5175,"send":5176,"ĠPat":5177,"Expression":5178,"Match":5179,"ĠRun":5180,"ocals":5181,"make":5182,"rs":5183,"km":5184,"ĠTor":5185,"Impl":5186,"ĠSal":5187,"elegate":5188,"Ġseg":5189,"success":5190,"Ġlargest":5191,"Ġfixed":5192,"anger":5193,"ĠOlympics":5194,"Ġmissing":5195,"Ġupon":5196,"Mar":5197,"uate":5198,"NavBar":5199,"Ġguitar":5200,"Ġalt":5201,"address":5202,"Ġalmost":5203,"Ġdiscover":5204,"FC":5205,"arp":5206,"Render":5207,"ĠDE":5208,"porary":5209,"plications":5210,"Ġcred":5211,"pop":5212,"ĠLouis":5213,"vector":5214,"/\\":5215,"Ġcampaign":5216,"Prot":5217,"Ptr":5218,"Kind":5219,"Ġreplaced":5220,"Ġpers":5221,"sort":5222,"types":5223,"Ġrelative":5224,"Ġfav":5225,"operator":5226,"Sigma":5227,"cat":5228,"Ġeight":5229,"ĠChe":5230,"Ġconvert":5231,"Ġmemory":5232,"irit":5233,"Ġimprov":5234,"&#":5235,"EQ":5236,"}}{":5237,"Ġenough":5238,"Ġproposed":5239,"Ġhous":5240,"ĠSl":5241,"=\"_":5242,"96":5243,"reland":5244,"Reference":5245,"internal":5246,"86":5247,"1984":5248,"Ġdirection":5249,"1986":5250,"ĠEnd":5251,"ĠMichael":5252,"Ġkind":5253,"ircraft":5254,"uit":5255,"Ġregard":5256,"ĠErr":5257,"ĠCharles":5258,"ĠGold":5259,"Core":5260,"Ġgoing":5261,"ĠVirgin":5262,"ategy":5263,"Tool":5264,"Ġsports":5265,"Ġsubsequ":5266,"Pop":5267,"Ġfight":5268,"SH":5269,"Ġhash":5270,"Ġliving":5271,"ĠFootball":5272,"Ev":5273,"tion":5274,"fill":5275,"Order":5276,"inated":5277,"azine":5278,"ALL":5279,"Ġexpression":5280,"anagement":5281,"textit":5282,"wid":5283,"more":5284,"ĠChristian":5285,"ospital":5286,"issions":5287,"Ġsoftware":5288,"87":5289,"env":5290,"ervices":5291,"ully":5292,"Ġmulti":5293,"Ġsetting":5294,"oma":5295,"Ġword":5296,"Ġrule":5297,"pring":5298,"Ġprovides":5299,"Ġunique":5300,"system":5301,"ĠTexas":5302,"atre":5303,"Results":5304,"ĠVer":5305,"Ġfall":5306,"Parameters":5307,"ĠAssembly":5308,"gu":5309,"Ġmaximum":5310,"DD":5311,"ĠWhite":5312,"transform":5313,"Ġfriend":5314,"kr":5315,"Ġusually":5316,"Ġpair":5317,"ERROR":5318,"Ġreserv":5319,"ĠOrder":5320,"Ġweight":5321,"\\%":5322,"anded":5323,"docs":5324,"Ġdirectly":5325,"ĠDemocr":5326,"Ġask":5327,"Ġdeal":5328,"copy":5329,"inding":5330,"kind":5331,"Ġlittle":5332,"ĠGreat":5333,"1985":5334,"Pass":5335,"Ġpolicy":5336,"after":5337,"(:":5338,"ĠCarol":5339,"ĠFrancis":5340,"Head":5341,"ĠChinese":5342,"fields":5343,"Ġoutside":5344,"ĠMinister":5345,"Ġswitch":5346,"tic":5347,"FO":5348,"When":5349,"ki":5350,"ĠKore":5351,"Ġtransport":5352,"ny":5353,"Ġundefined":5354,"CR":5355,"$(":5356,"anner":5357,"ita":5358,"usical":5359,"ĠDay":5360,"Ġsymbol":5361,"FL":5362,"ilies":5363,"Ġneeded":5364,"ĠJust":5365,"ething":5366,"Ġalgorithm":5367,"Ġdaughter":5368,"ycl":5369,"Sign":5370,"Ã³n":5371,"ĠTom":5372,"Down":5373,"Ġequival":5374,"Ġrelationship":5375,"toString":5376,"ĠSing":5377,";\\":5378,"Names":5379,"Ġcoach":5380,"ean":5381,"Handle":5382,"rial":5383,"Ġfocus":5384,"Ġtaking":5385,"oggle":5386,"ĠField":5387,"icrosoft":5388,"heast":5389,"ĠBG":5390,"mes":5391,"Ġcome":5392,"ĠAccording":5393,"}-":5394,"ĠSuper":5395,"Ġepisode":5396,"Ġplaces":5397,"ducation":5398,"ĠEXPECT":5399,"interface":5400,"ĠCheck":5401,"Ġforces":5402,"Ġgave":5403,"GET":5404,"ĠEv":5405,"ĠPy":5406,"Ġthroughout":5407,"ĠWhile":5408,"Ġdig":5409,"&&":5410,"Ġinvolved":5411,"export":5412,"Ġconstit":5413,"click":5414,"cp":5415,"ĠBen":5416,"Te":5417,"Fig":5418,"cover":5419,"Left":5420,"Ġstations":5421,"ĠĠĠĠĠĠĠĠĠĠĠĠĠĠĠĠĠĠĠĠĠĠĠĠĠĠĠĠĠĠĠĠĠĠĠĠĠĠĠ":5422,"Fil":5423,"1000":5424,"equals":5425,"ledge":5426,"isl":5427,"Ġscript":5428,"Ġexact":5429,"ĠPri":5430,"PR":5431,"ĠOther":5432,"direct":5433,"mas":5434,"enum":5435,"atin":5436,"Ġbooks":5437,"Ġdam":5438,"range":5439,"ĠTO":5440,"widget":5441,"xis":5442,"well":5443,"ĠMem":5444,"ĠĠĠĠĠĠĠĠĠĠĠĠĠĠĠĠĠĠĠĠ":5445,"ĠMap":5446,"Iter":5447,"mode":5448,"idents":5449,"bound":5450,"Ġmedal":5451,"Ġbuildings":5452,"people":5453,"Ã§":5454,"Ġeditor":5455,"Ġprec":5456,"fn":5457,"Ġdefinition":5458,"atively":5459,"MD":5460,"Ġconnect":5461,"Ġsound":5462,"Ġinfo":5463,"Ġissue":5464,"Post":5465,"Ġmanager":5466,"Ġer":5467,"Ġgot":5468,"Draw":5469,"Ġjav":5470,"lev":5471,"255":5472,"oom":5473,"Ġmakes":5474,"Ġmunicip":5475,"site":5476,"Right":5477,"ĠCre":5478,"ĠCON":5479,"Ġexperiment":5480,"igg":5481,"Ġsend":5482,"1950":5483,"63":5484,"Ġweb":5485,"Ġjud":5486,"Ð»":5487,"izations":5488,"Ġpreviously":5489,"Ġmatches":5490,"reater":5491,"Ġcontainer":5492,"\\!":5493,"TED":5494,"ĠDec":5495,"Ġtakes":5496,"Ġkilled":5497,"Ġjournal":5498,"False":5499,"ope":5500,"ĠFore":5501,"Ġfactor":5502,"Parser":5503,"plugin":5504,"Ġedge":5505,"Ġecho":5506,"icult":5507,"gan":5508,"PL":5509,"Ġcluster":5510,"Ġnamespace":5511,"Ġcourse":5512,"etime":5513,"rics":5514,"cur":5515,"scri":5516,"_;":5517,"exception":5518,"Ġmoment":5519,"pecially":5520,"ĠFrank":5521,"1983":5522,"Ġtit":5523,"Vector":5524,"widet":5525,"writ":5526,"ĠDan":5527,"ĠOR":5528,"Ġdestroy":5529,"ĠSection":5530,"icker":5531,"xx":5532,"---":5533,"ership":5534,"ĠJose":5535,"vas":5536,"media":5537,"Ġmechan":5538,"vention":5539,"Invalid":5540,"Ġupper":5541,"ä¸":5542,"access":5543,"Ġboard":5544,"handle":5545,"Template":5546,"Use":5547,"Non":5548,"ĠCatholic":5549,"\\]":5550,"Ġrelig":5551,"ĠDel":5552,"ether":5553,"asic":5554,"footer":5555,"Inst":5556,"Ġyet":5557,"Sk":5558,"ĠLu":5559,"del":5560,"ĠHel":5561,"ye":5562,"inct":5563,"Ġrestr":5564,"Rect":5565,"62":5566,"Values":5567,"ifying":5568,"SA":5569,"ĠRegister":5570,"Ġabs":5571,"Ġ('":5572,"400":5573,"Ġjoin":5574,"session":5575,"Sl":5576,"Ġ&=":5577,"overs":5578,"300":5579,"Ġhar":5580,"ĠOb":5581,"ĠNote":5582,"mercial":5583,"Ġlisted":5584,"iences":5585,"Ġadj":5586,"ĠForce":5587,"azz":5588,"Ġcache":5589,"Ġnumbers":5590,"Icon":5591,"ORT":5592,"Ġfemale":5593,"settings":5594,"Num":5595,"ĠST":5596,">();":5597,"oviet":5598,"Ġstre":5599,"Ġreading":5600,"{-":5601,"Ġcomment":5602,"vm":5603,"isation":5604,"Application":5605,"Ġsm":5606,"Long":5607,"ountry":5608,"Ġclasses":5609,"Ã¨":5610,"Ġstudies":5611,"ĠHistory":5612,"Ġimmedi":5613,"imestamp":5614,"Ġpresented":5615,"{}":5616,"idae":5617,"webkit":5618,"hover":5619,"ataset":5620,"ĠMel":5621,"DF":5622,"###":5623,"ĠPeter":5624,"(*":5625,"Ġthread":5626,"Ġcompar":5627,"Ġobserved":5628,"istan":5629,"ĠSmith":5630,"Ġextension":5631,"ĠTrue":5632,"1982":5633,"widetilde":5634,"Title":5635,"ĠParis":5636,"Ġseven":5637,"uan":5638,"Ġspeed":5639,"equiv":5640,"Ġoriginally":5641,"endar":5642,"Ġartists":5643,"=\"/":5644,"ĠBGCOLOR":5645,"Ġ})":5646,"89":5647,"gebra":5648,"mid":5649,"Ġcontain":5650,"Ġeffects":5651,"ette":5652,"ĠSecond":5653,"Su":5654,"ipe":5655,"Person":5656,"ingu":5657,"85":5658,"Ġallows":5659,"illing":5660,"ĠThat":5661,"clude":5662,"Ġsymmet":5663,"ATA":5664,"Device":5665,"netic":5666,"ola":5667,"`.":5668,"Ġcountries":5669,"allow":5670,"Ġparse":5671,"ĠLong":5672,"Ġexhib":5673,"icago":5674,"Ġactual":5675,"ockey":5676,"alax":5677,"orse":5678,"ĠPre":5679,"ĠMass":5680,"WE":5681,"req":5682,"Do":5683,"Ġdelete":5684,"61":5685,"amera":5686,"ĠFlor":5687,"Rev":5688,"Dep":5689,"Se":5690,"anta":5691,"Ġstated":5692,"ĠRichard":5693,"high":5694,"ĠVictor":5695,"Ġissues":5696,"custom":5697,"ighest":5698,"Reader":5699,"ĠSpanish":5700,"exports":5701,"ĠName":5702,"ailed":5703,"Ġitems":5704,"icons":5705,"Ġroute":5706,"ĠLake":5707,"Notes":5708,"razil":5709,"ĠGeorg":5710,"Argument":5711,"osen":5712,"Ġruns":5713,"----------------------------------------------------------------":5714,"Ġnight":5715,"ilton":5716,"framework":5717,"\\{":5718,"Ġmonth":5719,"apse":5720,"Am":5721,"'.":5722,"Ġgives":5723,"ested":5724,"scal":5725,"Ġcivil":5726,"Ġeventually":5727,"ĠGod":5728,")\"":5729,"ernel":5730,"Ġbrother":5731,"Ġcoordin":5732,"Ġprote":5733,"Ġcommit":5734,"ĠLos":5735,"Ver":5736,"IR":5737,"ishop":5738,"ĠIreland":5739,"ĠScience":5740,"Ġheader":5741,"rum":5742,"Ġreached":5743,"You":5744,"Ġplatform":5745,"Ġcop":5746,"Metadata":5747,"ylv":5748,"1979":5749,"Ġsus":5750,"ĠCommand":5751,"utch":5752,"pling":5753,"real":5754,"Ġord":5755,"Args":5756,"ancial":5757,"erve":5758,"Ġavoid":5759,"Ġign":5760,"ometimes":5761,"That":5762,"Ġreve":5763,"Ġfinite":5764,"ami":5765,"ĠAust":5766,"\\\"":5767,",-":5768,"Ġcomponents":5769,"Ġinstit":5770,"isk":5771,"Ġste":5772,"igan":5773,"graph":5774,"zeta":5775,"Ġunsigned":5776,"ella":5777,"olf":5778,"Ġpolice":5779,"panel":5780,"ells":5781,"byte":5782,"component":5783,"Ġterr":5784,"Red":5785,"Api":5786,"ĠMath":5787,"ĠRob":5788,"CS":5789,"-->":5790,"El":5791,"Ġexisting":5792,"inet":5793,"boolean":5794,"Ġrepresented":5795,"irl":5796,"normal":5797,"ĠBill":5798,"Ac":5799,"ĠFilm":5800,"ĠRock":5801,"Ġplant":5802,"agram":5803,"insert":5804,"ĠDet":5805,"Classes":5806,"Ġnodes":5807,"anufact":5808,"ĠIsrael":5809,"Ġlonger":5810,"ĠHenry":5811,"ollowing":5812,"aver":5813,"Ġrequ":5814,"Ġtemperature":5815,"fony":5816,"ORD":5817,"Ġinline":5818,"AND":5819,"Ġaltern":5820,":#":5821,"Body":5822,"Ġeffort":5823,"bootstrap":5824,"1981":5825,"ĠEq":5826,"Ġdifficult":5827,"ymfony":5828,"recated":5829,"\")]":5830,"Ġtax":5831,"standing":5832,"ĠCommit":5833,"Members":5834,"ining":5835,"Ġsort":5836,"Ġtransition":5837,"Ġtherefore":5838,"Ġbehind":5839,"Definition":5840,"SET":5841,"Psi":5842,"Ġconcern":5843,"Ġcourt":5844,"Ġsen":5845,"Dom":5846,"Ġprogress":5847,"Year":5848,"aved":5849,"eek":5850,"prime":5851,"Ġwords":5852,"Ġdimension":5853,"pg":5854,"Debug":5855,"__(":5856,"Meta":5857,"force":5858,"aled":5859,"Wrap":5860,"rome":5861,"Ġincrease":5862,"ĠKey":5863,"Ġgold":5864,"EM":5865,"Ġinside":5866,"padding":5867,"replace":5868,"ansion":5869,"ĠAut":5870,"anned":5871,"Ġrepresentation":5872,"ĠTheorem":5873,"dependency":5874,")=\\":5875,"abit":5876,"allery":5877,"Parent":5878,".âĢĿ":5879,"}+":5880,"Ġproblems":5881,"ĠHill":5882,"Ġsources":5883,"PH":5884,"Has":5885,"lam":5886,"uple":5887,"Ġpolitician":5888,"Ġsaw":5889,"election":5890,"'>":5891,"Ġerrors":5892,"white":5893,"Ġotherwise":5894,"olk":5895,"ih":5896,"ja":5897,"1972":5898,"=\"../../../":5899,"ongs":5900,"Ġraise":5901,"Ġattr":5902,"anning":5903,"ĠHow":5904,"ĠSur":5905,"connect":5906,"}]":5907,"that":5908,"atalog":5909,"Ġbroadcast":5910,"Ġapplied":5911,"pdf":5912,"Äģ":5913,"ĠPenn":5914,"Ġorigin":5915,"Ġthought":5916,"argument":5917,"Ġscore":5918,"Ġremained":5919,"Early":5920,"Ġstructures":5921,"Fields":5922,"eloc":5923,"Ġdatabase":5924,"ĠTechn":5925,"inline":5926,"Ġspin":5927,"Xml":5928,"Ġcontaining":5929,"Ġhit":5930,"Ġdomain":5931,"ĠOver":5932,"ĠCamp":5933,"ĠWomen":5934,"Ġstars":5935,"Ġplaced":5936,"jection":5937,"Assert":5938,"isions":5939,"Go":5940,"Ġnative":5941,"URE":5942,"Ġos":5943,"icate":5944,"Ġfeatured":5945,"ĠIll":5946,"ims":5947,"disabled":5948,"ORM":5949,"Ðº":5950,"iller":5951,"Ġadapt":5952,"nam":5953,"Ġstarting":5954,"ores":5955,"omorph":5956,"PS":5957,"admin":5958,"Ġdu":5959,"1976":5960,"ips":5961,"ĠDu":5962,"Ġquestion":5963,"ĠDate":5964,"Ġaircraft":5965,"~~~~":5966,"ATH":5967,"Ġstaff":5968,"Ġshape":5969,"yes":5970,"Ġartist":5971,"Ġvariables":5972,"Ġbasis":5973,"Decl":5974,"Doc":5975,"yper":5976,"}=\\":5977,"mi":5978,"BS":5979,"Ġremoved":5980,"Ġestablishments":5981,"help":5982,"cloud":5983,"ĠIS":5984,"ĠCast":5985,"Ġimages":5986,"Since":5987,"Cal":5988,"itors":5989,"pub":5990,"ĠĠĠĠĠĠĠĠĠĠĠĠĠĠĠĠĠĠ":5991,"Care":5992,"Ġawarded":5993,"aud":5994,"Ġgas":5995,"ynchron":5996,"Ġjson":5997,"double":5998,"uby":5999,"ĠResearch":6000,"Ġimm":6001,"coll":6002,"Writer":6003,"Ġbeginning":6004,"ares":6005,"Ġlibrary":6006,"1978":6007,"clusion":6008,"Bl":6009,"Ġnote":6010,"Ġ++":6011,"Bytes":6012,"ĠIO":6013,"itable":6014,"pers":6015,"Boolean":6016,"callback":6017,"Stack":6018,"ato":6019,"Ġtowards":6020,"sets":6021,"Ġapply":6022,"TV":6023,"free":6024,"$)":6025,"ĠCommission":6026,"Äĩ":6027,"star":6028,"acement":6029,"Ġsignal":6030,"%%%%":6031,"Ġbyte":6032,"ĠSwed":6033,"Ġdistributed":6034,"ĠVirginia":6035,"78":6036,"Ġpor":6037,"Ġfourth":6038,"uest":6039,"reme":6040,"udd":6041,"holder":6042,"Ġsmaller":6043,"`,":6044,"Ġespecially":6045,"Enabled":6046,"Di":6047,"centering":6048,")}\\":6049,"Ġpartial":6050,"ĠFinal":6051,"ĠSun":6052,"Ġinvoke":6053,"olume":6054,"Ġsettings":6055,"register":6056,"Ġdescribe":6057,"1974":6058,"Storage":6059,"Ġmsg":6060,"shot":6061,"Var":6062,"prox":6063,"ora":6064,"auto":6065,"ĠScot":6066,"Ġmanagement":6067,"OK":6068,"Ġsex":6069,"1975":6070,"Ġpercent":6071,"lie":6072,"EXT":6073,"record":6074,"hs":6075,"Ġoccup":6076,"Ġmention":6077,"Ġcouple":6078,"itz":6079,"ĠFin":6080,"ĠAv":6081,"Ġholds":6082,"Ġstudied":6083,"urt":6084,">.":6085,"Ġdemon":6086,"iders":6087,"uty":6088,"1977":6089,"aws":6090,"ĠPan":6091,"Ġdirectory":6092,"She":6093,"Ġang":6094,"Ġsure":6095,"Ġbytes":6096,"lers":6097,"Ġpersonal":6098,"ĠLO":6099,"tabular":6100,"ko":6101,"Ġfinally":6102,"SION":6103,"Widget":6104,"Ġrules":6105,"evelopment":6106,"Ġcompared":6107,"ĠPost":6108,"ertific":6109,"Ġchall":6110,"ady":6111,"GE":6112,".~":6113,"Root":6114,"ali":6115,"Delete":6116,"edge":6117,"Changed":6118,"Ġlearn":6119,"ĠJSON":6120,"Ġsinger":6121,"ixture":6122,"ker":6123,"Ġconsum":6124,"Ġanaly":6125,"Ġcompetition":6126,"virtual":6127,"Ġwait":6128,"ĠKn":6129,"ĠEvent":6130,"Ġneeds":6131,"plugins":6132,"blockList":6133,"allel":6134,"ĠLine":6135,"Ġyield":6136,"geles":6137,"indent":6138,"ĠRE":6139,"gg":6140,"usion":6141,"Ġlock":6142,"Ġgun":6143,"ĠChampionships":6144,"Other":6145,"ned":6146,"ĠMexico":6147,"ĠTwo":6148,"Ġbehavior":6149,"GB":6150,";<":6151,"ved":6152,"fil":6153,"ĠItaly":6154,"Mark":6155,"IX":6156,"ifest":6157,"Ġvolume":6158,"1968":6159,"Ġboundary":6160,"Ġcapital":6161,"}\"":6162,"cup":6163,")^{":6164,"ĠChicago":6165,"Sw":6166,"ĠMus":6167,"Ġbecomes":6168,"Dialog":6169,"Ġindu":6170,"Ġcause":6171,"Byte":6172,"Ġconcept":6173,"Ġveh":6174,"ying":6175,"ĠDen":6176,"ĠSeries":6177,"ĠKe":6178,"Ġprofile":6179,"icated":6180,"olar":6181,"Ġcollege":6182,"ĠArts":6183,"Policy":6184,"DS":6185,"cmd":6186,"Ġmiddle":6187,"ĠIts":6188,"ĠAngeles":6189,"Ġindustry":6190,"Ġwhole":6191,"Ġdoesn":6192,"category":6193,"yan":6194,"1973":6195,"Descriptor":6196,"Ġscored":6197,"ulate":6198,"rot":6199,"Ġpackage":6200,"PA":6201,"bot":6202,"Ġleader":6203,"FAULT":6204,"sche":6205,"FT":6206,"Ġpick":6207,"ĠTem":6208,"Ġcritic":6209,"Ġ'/":6210,"SSERT":6211,"onds":6212,"oration":6213,"present":6214,"elt":6215,"ugby":6216,"Ġtournament":6217,"store":6218,"Ġcollect":6219,"Ġflag":6220,"Ġforms":6221,"inder":6222,"ĠâĢĺ":6223,"Ġphysical":6224,"'))":6225,"lemma":6226,"Cre":6227,"Ġface":6228,"ĠLand":6229,"Ġtransaction":6230,";/":6231,"Each":6232,"Note":6233,"Ġgrant":6234,"DU":6235,"sql":6236,"ĠProf":6237,"ĠNavy":6238,"Ġteach":6239,"mathsf":6240,"ĠParliament":6241,"ien":6242,"full":6243,"Ġbutton":6244,"Job":6245,"ĠSaint":6246,"Ġgenerally":6247,"Ġsecurity":6248,"romise":6249,"Display":6250,"English":6251,"Ġdro":6252,"ĠCommittee":6253,"ji":6254,"agnost":6255,"72":6256,"term":6257,")/":6258,"Ġhighest":6259,"Ġfood":6260,"forms":6261,"attribute":6262,"Ġlove":6263,"Click":6264,"82":6265,"ils":6266,"Ġdecided":6267,"Ġball":6268,"1971":6269,"Ġ<=":6270,"Ġbasketball":6271,"mitted":6272,"ening":6273,"Art":6274,"âĢľ":6275,"ĠHTML":6276,"application":6277,"Ġculture":6278,"Ġsch":6279,"Rule":6280,"iger":6281,"Ġnet":6282,"Ġquick":6283,"ĠFe":6284,"retary":6285,"ici":6286,"1940":6287,"ĠCongress":6288,"Ġpurch":6289,"Ġ\"/":6290,"ĠFestival":6291,"Ġpeak":6292,"Ġauth":6293,"Ġnecessary":6294,"pret":6295,"step":6296,"ĠAL":6297,"Ġcounter":6298,"pool":6299,"liance":6300,"Ġconnected":6301,"iece":6302,"material":6303,"Requ":6304,"Ġassume":6305,"TEST":6306,"anguage":6307,"Ġincor":6308,"ĠMethod":6309,"Ġorganization":6310,"uting":6311,"Ġlimited":6312,"Ġearlier":6313,"Tests":6314,"Ġeffective":6315,"ĠGl":6316,"{(":6317,"adoop":6318,"Ġfinish":6319,"variant":6320,"bi":6321,"Mock":6322,"Package":6323,"84":6324,"ĠValue":6325,"1945":6326,"ĠBig":6327,"Ġfamilies":6328,"ĠKh":6329,"Ġscient":6330,"Ġmovement":6331,"ĠĠĠĠĠĠĊ":6332,"Ġremaining":6333,"car":6334,"Ġess":6335,"Ġremains":6336,"ima":6337,"ĠGovernment":6338,"ga":6339,"Ġbank":6340,"Extension":6341,"ĠError":6342,"cpp":6343,"Man":6344,"Ġhot":6345,"ĠEmp":6346,"Ġpri":6347,"war":6348,"1969":6349,"names":6350,"Ġelem":6351,"Ġscen":6352,"ĠRussia":6353,"ignment":6354,"protobuf":6355,"Ġdecision":6356,"Ġlikely":6357,"ango":6358,"Åį":6359,"initial":6360,"Ġded":6361,"ĠEr":6362,"ĠProject":6363,"ova":6364,"Ġapproximately":6365,"toggle":6366,"My":6367,"addr":6368,"Ġinvolv":6369,"Sum":6370,"elves":6371,"lood":6372,"ĠFlorida":6373,"thread":6374,"Ġsoon":6375,"eve":6376,"Ġwriters":6377,"annotation":6378,"eries":6379,"Ġ),":6380,"Ġsomething":6381,"Ġserial":6382,"items":6383,"iana":6384,"focus":6385,"ĠStar":6386,"esh":6387,"Ġincreasing":6388,"Ġextra":6389,"Ġforward":6390,"Ġactually":6391,"Ġstrict":6392,"Net":6393,"sem":6394,"mooth":6395,"Ġ${":6396,"iano":6397,"Send":6398,"}_\\":6399,"unched":6400,"ĠTable":6401,"Ġcontact":6402,"AGE":6403,"organ":6404,"dule":6405,"Ġsens":6406,"rule":6407,"eds":6408,"cdots":6409,"Ġminor":6410,"odec":6411,"Ġmoney":6412,"Ġaud":6413,"Ġli":6414,"pped":6415,"Ġusers":6416,"related":6417,"ĠĠĠĠĠĠĠĠĠĠĠĠĠĠĠĠĠĠĠĠĠĠĠĠĠ":6418,"ously":6419,"ĠThus":6420,"ancy":6421,"Ġunknown":6422,"Ġactress":6423,"ental":6424,"wa":6425,"shape":6426,"elli":6427,"Ġpractice":6428,"Ġactor":6429,"ĠOld":6430,"plements":6431,"ĠMax":6432,"94":6433,"mock":6434,"Ġaccur":6435,"ĠMil":6436,"Ġemer":6437,"Ġelectron":6438,"keys":6439,"osh":6440,"stat":6441,"Ġbranch":6442,"Ġappears":6443,"Ġvocals":6444,"PRE":6445,"sect":6446,"osing":6447,"})\\":6448,"Ġgrand":6449,"Ġlevels":6450,"isters":6451,"Ġnews":6452,"Ġrepe":6453,"ĠSoviet":6454,"Ġbad":6455,"Ġetc":6456,"ĠassertEquals":6457,"oped":6458,"Ġlearning":6459,"onic":6460,"Ġextended":6461,"oub":6462,"Ġmur":6463,"Ġ(*":6464,"ĠNOT":6465,"ĠKar":6466,"ĠNews":6467,"Ġonline":6468,"ĠFre":6469,"76":6470,"inger":6471,"uler":6472,"ĠWales":6473,"Lock":6474,"ilation":6475,"entity":6476,"aily":6477,"Ġdemonstr":6478,"ĠSil":6479,"Initial":6480,"Ġpark":6481,"Tab":6482,"Obj":6483,")-":6484,"Ġbrought":6485,"}^\\":6486,"elebr":6487,"1967":6488,"Ġdivision":6489,"Ġremain":6490,"icol":6491,"Ġfif":6492,"CTION":6493,"region":6494,"dimension":6495,"Ġspent":6496,"ipeline":6497,"spring":6498,"Ġinvestig":6499,"Ġbur":6500,"short":6501,"bul":6502,"hold":6503,"JECT":6504,"DC":6505,"Account":6506,"Ret":6507,"Ñĥ":6508,"Ġâ":6509,"coin":6510,"Ġresources":6511,"Custom":6512,"Ġplays":6513,"ĠHand":6514,"ati":6515,"inem":6516,"ĠFoundation":6517,"va":6518,"relation":6519,"ĉĉĉĊ":6520,"atur":6521,"widehat":6522,"Ġtravel":6523,"AME":6524,"Ġimplementation":6525,"ĠPlay":6526,"Only":6527,"1930":6528,"olver":6529,"ĠRel":6530,"Ġjavax":6531,"plex":6532,"rb":6533,"ĠMur":6534,"Scope":6535,"Security":6536,"ads":6537,"PT":6538,"ĠInc":6539,"ĠGi":6540,"grid":6541,"Ġexplicit":6542,"Ġlack":6543,"comment":6544,"iring":6545,"qquad":6546,"Ġtests":6547,"Ġprobability":6548,"ĠEngine":6549,"Ġbottom":6550,"ĠStep":6551,"password":6552,"ĠTour":6553,"Ġprevent":6554,"Ġ{};":6555,"linear":6556,"house":6557,"Timeout":6558,"inv":6559,"annels":6560,"ira":6561,"(){":6562,"Ġroom":6563,"ixel":6564,"coq":6565,"ĠLife":6566,"ylvania":6567,"ĠAnn":6568,"Ġlatter":6569,"Ġlayer":6570,"connection":6571,"Ġwide":6572,"ĠCarolina":6573,"herit":6574,"Ġdeep":6575,"TEX":6576,"################":6577,"Ġwrap":6578,"Show":6579,"Dist":6580,"tex":6581,"ĠProvince":6582,"1964":6583,"Active":6584,"Ġhours":6585,"Ġinteger":6586,"Background":6587,"lyph":6588,"Ġmanufact":6589,"KEY":6590,"ĠAwards":6591,"ĠAtl":6592,"har":6593,"ees":6594,"Ġadopt":6595,"}|":6596,"resents":6597,"ĠCap":6598,"Ġtraditional":6599,"ĠÎ":6600,"spe":6601,"Ġcommercial":6602,"apped":6603,"ussian":6604,"Member":6605,"igin":6606,"atriate":6607,"Ne":6608,"ĠBrazil":6609,"cut":6610,"93":6611,"ĠBur":6612,"Ġscience":6613,"Ġinstr":6614,"ĠURL":6615,"Ġunion":6616,"Ġfun":6617,"apid":6618,"'re":6619,"Ġ\\{":6620,"ĠPet":6621,"urrenc":6622,"Init":6623,"email":6624,"HTML":6625,"maz":6626,"Final":6627,"Ġcharg":6628,"Career":6629,"oral":6630,"Channel":6631,"Ġhtml":6632,"bedd":6633,"ĠOh":6634,"crete":6635,"adium":6636,"RI":6637,"Ġarticle":6638,"Play":6639,"Media":6640,"install":6641,"contrib":6642,"\">&":6643,"Queue":6644,"Ġcaused":6645,"Ġrecords":6646,"ror":6647,"ĠUser":6648,"ĠModel":6649,"rees":6650,"92":6651,"ĠFigure":6652,"Ġsays":6653,"SU":6654,"margin":6655,"vey":6656,"ĠUse":6657,"enter":6658,"Ġpen":6659,"^+":6660,"Ġresulting":6661,"Ġoverall":6662,"JSON":6663,"ĠShow":6664,"atically":6665,"Const":6666,"Ġproducer":6667,"Ġnoted":6668,"Ġmatter":6669,"lines":6670,"solute":6671,"Ġincreased":6672,"CHE":6673,"tip":6674,"ĠCD":6675,"ĠPac":6676,"Symbol":6677,"ĠUnder":6678,"(!":6679,"EC":6680,"ĠMa":6681,"ifies":6682,"Ġsometimes":6683,"ayed":6684,"Ġoptim":6685,"Ġnuc":6686,"Ġreally":6687,"numer":6688,"Ġsimply":6689,"Ġinstanceof":6690,"Ġexperience":6691,"Ġdifference":6692,"Ġunc":6693,"Ġcref":6694,"@\"":6695,"}:":6696,"stop":6697,"fly":6698,"product":6699,"Ġregions":6700,"OM":6701,"}\\,":6702,"ĠMartin":6703,"Att":6704,"John":6705,"Msg":6706,"uilt":6707,"Ġminutes":6708,"Ġstack":6709,".*":6710,"hadoop":6711,"ĠPub":6712,"Ġpublish":6713,"Ø§":6714,"keyword":6715,"Ġche":6716,"printf":6717,"unsigned":6718,"ĠGen":6719,"ĠBoard":6720,"Ġtrain":6721,"Ġtransl":6722,"Runtime":6723,"ĠHistoric":6724,"Ġriver":6725,"Ġedition":6726,"ĠTop":6727,"elocity":6728,"During":6729,"Ġcategory":6730,"sample":6731,"Ġcore":6732,"Ġmaster":6733,"Me":6734,"Ġconver":6735,"ĠSir":6736,"Ġconsists":6737,"Ġevidence":6738,"Å¡":6739,"master":6740,"Ġbattle":6741,"family":6742,"incipal":6743,"ĠAlthough":6744,"Ġimpact":6745,"Ġwalk":6746,"Ġcharge":6747,"enge":6748,"oz":6749,"Ġopening":6750,"Ġhandler":6751,"Ġthings":6752,"kg":6753,"Ġtoday":6754,"Ġmeaning":6755,"Ġshot":6756,"Ġrailway":6757,"orter":6758,"&=":6759,"Ġproper":6760,"1965":6761,"agger":6762,"pare":6763,"Ġended":6764,"ĠIrish":6765,"Ġwinning":6766,"Events":6767,"ydro":6768,"Ġcard":6769,"Ġga":6770,"Ġdark":6771,"Ġdb":6772,"Ġseasons":6773,"91":6774,"Ġblue":6775,"ĠMos":6776,"ocker":6777,"Ġchain":6778,"omial":6779,"Pattern":6780,"Films":6781,"Ġgalax":6782,"Ġcritical":6783,"_->":6784,"move":6785,"Main":6786,"ĠNorthern":6787,"arts":6788,"1966":6789,"Ġshared":6790,"ĠMost":6791,"Ġwoman":6792,"FILE":6793,"Ġking":6794,"Ġentered":6795,"none":6796,"Ġchampionship":6797,"hentication":6798,"uages":6799,"wan":6800,"Activity":6801,"1920":6802,"ĠOl":6803,"WS":6804,"Ġactivity":6805,"Ġcoast":6806,"Ġstudio":6807,"ĠEmpire":6808,"Ġfit":6809,"acc":6810,"ĠDev":6811,"ĠLiber":6812,"Ġsplit":6813,"ĠFalse":6814,"[:":6815,"ĠTeam":6816,"while":6817,"{{\\":6818,"ĠBrown":6819,"Ġseparate":6820,"writer":6821,"Ġquantum":6822,"Ġattended":6823,"Ġtrade":6824,"Ġng":6825,"Ġproducts":6826,"napshot":6827,"Ġequip":6828,"({\\":6829,"iki":6830,"Ġcensus":6831,"assertEquals":6832,"ĠOp":6833,"ĠHealth":6834,"sylvania":6835,"Ġbre":6836,"yg":6837,"typed":6838,"Ġpoet":6839,"Ġanti":6840,"Ġillustr":6841,"Ġshare":6842,"pri":6843,"components":6844,"ski":6845,"ĠColumb":6846,"pute":6847,"dim":6848,"Now":6849,"ĠFort":6850,"Ġwhom":6851,"ression":6852,"kin":6853,"ĠTimes":6854,"stra":6855,"faces":6856,"Perm":6857,"END":6858,"ĠTri":6859,"Struct":6860,"iments":6861,"shall":6862,"ĠArab":6863,"ocated":6864,"ĠLin":6865,"_,":6866,"ancel":6867,"Ġidea":6868,"Ġnorthern":6869,"Ġbtn":6870,"74":6871,"contin":6872,"ĠHaw":6873,"CRE":6874,"ums":6875,"ĠJoseph":6876,"ĠLove":6877,"Ġbig":6878,"Ġprison":6879,"irmed":6880,"Ġsouthern":6881,"ĠWood":6882,"ouri":6883,"AF":6884,"Windows":6885,"ITY":6886,"Ġweak":6887,"iny":6888,"ectors":6889,"Ġkeys":6890,"iro":6891,"Ġgoals":6892,"uer":6893,"Ġfunc":6894,"ela":6895,"âĢ¦":6896,"spect":6897,"Ġwallet":6898,"()).":6899,"bes":6900,"Network":6901,"scription":6902,"ifications":6903,"Ã£":6904,"Ġsurround":6905,"Ġstudent":6906,"Ġss":6907,"Ġacadem":6908,"txt":6909,"ĠColor":6910,"Ġgenerate":6911,"ech":6912,"aria":6913,"Ġequivalent":6914,"angular":6915,"ĠIII":6916,"81":6917,"throws":6918,"Float":6919,"umin":6920,"scroll":6921,"Ġconsole":6922,"Ġ%}":6923,"iga":6924,"dx":6925,"riz":6926,"ĠYoung":6927,"So":6928,"Before":6929,")))":6930,"ĠLemma":6931,"ĠAlso":6932,"hol":6933,"Ġmusical":6934,"160":6935,"ecause":6936,"Ġwood":6937,"ACE":6938,"Ġ$(\\":6939,"umerate":6940,"ĠHot":6941,"\",\"":6942,"83":6943,"=\"@":6944,"ansas":6945,"stats":6946,"Ġisland":6947,"Ġfish":6948,"actor":6949,"Ġmock":6950,"icks":6951,"textwidth":6952,"ĠEli":6953,"osph":6954,"raction":6955,"Ġ[];":6956,"Ġfast":6957,"Ġslow":6958,"Ð°Ð":6959,"Ġnegative":6960,"Ġrecover":6961,"Ġstreng":6962,"CI":6963,"ador":6964,"Grid":6965,"Ġwid":6966,"results":6967,"itan":6968,"Ġrelations":6969,"Ġreceive":6970,"Ġlegal":6971,"Conf":6972,"}^{(":6973,"miss":6974,"utf":6975,"ĠCam":6976,"ĠCall":6977,"Ġshift":6978,"Ġsave":6979,"NE":6980,"aval":6981,"ĠDefault":6982,"ĠBank":6983,"Ġcit":6984,"stitution":6985,"ĠRh":6986,"Ġdetermined":6987,"anda":6988,"Ġmut":6989,"////////////////////////////////":6990,"Ġphil":6991,"]]":6992,"dropdown":6993,"Ġfigure":6994,"Ġchem":6995,"LS":6996,"Logger":6997,"Ġtalk":6998,"Any":6999,"ĠLi":7000,"Ġacquire":7001,"Bit":7002,"impl":7003,"radius":7004,"Ġlaunched":7005,"ĠEducation":7006,"ĠRead":7007,"ĠCross":7008,"Ġclean":7009,"Ljava":7010,"asion":7011,"Support":7012,"Transaction":7013,"Ġowner":7014,"leep":7015,"Ġnewsp":7016,"Ġreb":7017,"flags":7018,"Ġmix":7019,"Ġdefeated":7020,"Rad":7021,"events":7022,"dict":7023,"Pool":7024,"ĠLibrary":7025,"Ġrequires":7026,"Ġappearance":7027,"Ġprim":7028,"approx":7029,"Panel":7030,"alo":7031,"ĠPeople":7032,"ĠId":7033,"}\\\\":7034,"Ġowned":7035,"reshold":7036,"Loader":7037,"======":7038,"points":7039,"Ġpresence":7040,"Rest":7041,".__":7042,"Ġtim":7043,"ĠBattle":7044,"Items":7045,"=\"\"":7046,"Ġcomes":7047,"256":7048,"cape":7049,"ĠNetwork":7050,"ĠText":7051,"ĠGar":7052,"SIZE":7053,"jquery":7054,"Ġchoice":7055,"Ġvariety":7056,"ĠGreek":7057,"73":7058,"Ġsummer":7059,"PP":7060,"notation":7061,"Ġdir":7062,"1944":7063,"ADD":7064,"ynamic":7065,"asy":7066,"Ġinterview":7067,"unior":7068,"Ġdecre":7069,"Ġstatement":7070,"Ġparticularly":7071,"TC":7072,"Ġbasic":7073,"Ġloop":7074,"ĠBul":7075,"venue":7076,"edit":7077,"Ġequations":7078,"ĠPennsylvania":7079,"cf":7080,"mselves":7081,"La":7082,"Ġnature":7083,"Ġdim":7084,"very":7085,"ĠÅ":7086,"assertEqual":7087,"GS":7088,"Ġclassical":7089,"Ġdesc":7090,"ĠSocial":7091,"rich":7092,"Ġbenef":7093,"Ġsingles":7094,"ĠCopy":7095,"Ġproduce":7096,"properties":7097,"enant":7098,"ooks":7099,"79":7100,"1962":7101,"Ġactivities":7102,"PAR":7103,"Ġcalls":7104,"ito":7105,"eler":7106,"found":7107,"Ġderived":7108,"super":7109,"ĠValley":7110,"git":7111,"ĠChief":7112,"Ġmixed":7113,"UID":7114,"()));":7115,"ĠAN":7116,"Own":7117,"ĠSpain":7118,"otic":7119,"Selector":7120,"enses":7121,"alog":7122,"*)":7123,"webpack":7124,"controller":7125,"andra":7126,"Ġfully":7127,"Ġcandidate":7128,"sur":7129,"}}(":7130,"isc":7131,"Ġfinancial":7132,"Ġfeel":7133,"mond":7134,"1963":7135,"ĠGoogle":7136,"Ġstorage":7137,"ById":7138,"Ġfoot":7139,"MC":7140,"Ġcentre":7141,"Ġolder":7142,"Ġimmediately":7143,"selected":7144,"VERSION":7145,"Auth":7146,"VALUE":7147,"erc":7148,"Ġprograms":7149,"Found":7150,"typeof":7151,"Ġneighbor":7152,"Ġinitially":7153,"Ġthemselves":7154,"Ġpanel":7155,"ĠJo":7156,"Ġensure":7157,")));":7158,"Ġtechnology":7159,"ĠPoint":7160,")).":7161,"bal":7162,"->_":7163,"Flags":7164,"igration":7165,"Ġactions":7166,"modules":7167,"Ġquality":7168,"BR":7169,"Ġsense":7170,"MAX":7171,"Inv":7172,"bing":7173,"onym":7174,"hav":7175,"andard":7176,"Ġsn":7177,"apers":7178,"Ġprove":7179,"Ġtransp":7180,"save":7181,"Ġcollabor":7182,"erial":7183,"Ġmajority":7184,"jar":7185,"ĠJim":7186,"Public":7187,"ployment":7188,"OO":7189,"roke":7190,"ĠExec":7191,"Ġexternal":7192,"SR":7193,"Av":7194,"Details":7195,"LOG":7196,"shift":7197,"usband":7198,"Directory":7199,"ishes":7200,"ĠĠĠĠĠĠĠĠĠĠĠĠĠĠĠĠĠĠĠĠĠĠĠĠ":7201,"pay":7202,"Ġmission":7203,"nections":7204,"aser":7205,"Ġratio":7206,"Ġicon":7207,"SD":7208,"mann":7209,"rine":7210,"ĠTre":7211,"rong":7212,"ĠHon":7213,"....":7214,"orial":7215,"Further":7216,"ĠVersion":7217,"Ġchief":7218,"bitr":7219,"ĠFri":7220,"ĠTim":7221,"ĠCollection":7222,"Ġcelebr":7223,"Ġreduced":7224,"asure":7225,"TABLE":7226,"\"`":7227,"Ġdetermine":7228,"ĠGame":7229,"Car":7230,"ĠTask":7231,"uter":7232,"ĠNow":7233,"ARY":7234,"schema":7235,"profile":7236,"security":7237,"ĠProgram":7238,"scr":7239,"Ġvisit":7240,"ĠLee":7241,"Ġmagazine":7242,"ĠBre":7243,"Ġidentity":7244,"Ġhum":7245,"citet":7246,"Ġleave":7247,"ository":7248,"deg":7249,"NotNull":7250,")),":7251,"aret":7252,"Ġpy":7253,"=(":7254,"]:":7255,"Ä±":7256,"Editor":7257,"Ġgrowth":7258,"iverse":7259,"ĠMP":7260,"Ġheavy":7261,"iography":7262,"Database":7263,"primary":7264,"ĠNO":7265,"bury":7266,"Ġvan":7267,"oston":7268,"Ġmostly":7269,"Ġbuilder":7270,"Ġ{'":7271,"ĠUkr":7272,"ĠVis":7273,"Ġcommission":7274,"Dem":7275,"Ġentity":7276,"Ġhel":7277,"aration":7278,"71":7279,"osoph":7280,"Ġthreat":7281,"ĠRo":7282,"Rece":7283,"Prop":7284,"ager":7285,"Ġmedical":7286,"150":7287,"Ġbring":7288,"orner":7289,"Ã£o":7290,"ĠWal":7291,"assets":7292,"Ġattributes":7293,"ĠDirector":7294,"ternet":7295,"ĠSol":7296,"important":7297,"Ġdrama":7298,"World":7299,"channel":7300,"uls":7301,"Ġagent":7302,"ĠOption":7303,"wer":7304,"Ġgreater":7305,"Ġinn":7306,"Ġbal":7307,"Ġconstructed":7308,"seud":7309,"Ġminimum":7310,"Cast":7311,"each":7312,"Generic":7313,"ĠIP":7314,"screen":7315,"ĠRadio":7316,"Ġtouch":7317,"Edit":7318,"ibli":7319,"Ġinsp":7320,"Selected":7321,"Close":7322,"sych":7323,"structure":7324,"ĠView":7325,"PATH":7326,"Ġran":7327,"ĠPak":7328,"ceeded":7329,"olec":7330,"uset":7331,"enth":7332,"Ġprem":7333,"Sche":7334,"xspace":7335,"ĠIl":7336,"Ġutil":7337,"Ġinsert":7338,"ĠInst":7339,"aka":7340,"Desc":7341,"Ġfn":7342,"Ġsquare":7343,".'":7344,"LP":7345,"inois":7346,"oting":7347,"ĠSu":7348,"ĠWindow":7349,"Ġfle":7350,"iÄĩ":7351,"Symfony":7352,"Step":7353,"ibly":7354,"Ġscheme":7355,"ĠĠĠĠĠĠĠĠĠĠĠĠĠĠĠĠĠĠĠĠĠĠĠĠĠĠĠĠĠĠĠĠĠĠĠĠĠĠĠĠĠĠĠ":7356,"Expr":7357,"]$":7358,"++;":7359,"Ġfeed":7360,"Ġcomputer":7361,"desc":7362,"Ġrecomm":7363,"ROM":7364,"Ġchosen":7365,"Ġlived":7366,"ĠCamb":7367,"area":7368,"ĠJud":7369,"1961":7370,"Ġrepresents":7371,"Ġsea":7372,"Ġuseful":7373,"bad":7374,"Ġarmy":7375,"operatorname":7376,"airman":7377,"Del":7378,"inds":7379,"cons":7380,"ĠCivil":7381,"Ġcontinuous":7382,"ĠIran":7383,"1942":7384,"Adapter":7385,"Iterator":7386,"}</":7387,"}'":7388,"ĠBritain":7389,"erg":7390,"ĠjQuery":7391,"rip":7392,"dimensional":7393,"room":7394,"ĠBob":7395,"reset":7396,"DA":7397,"ennis":7398,"Ġforeign":7399,"arriage":7400,"ĠGal":7401,"ĠMiddle":7402,"ĠNode":7403,"manager":7404,"ĠOf":7405,"Ġcoeff":7406,"Ġdenote":7407,"Ġofficer":7408,"Ġarm":7409,"parser":7410,"MENT":7411,"adr":7412,"Ġbrief":7413,"ĠĠĠĠĠĠĠĠĠĠĠĠĠĠĠĠĠĠĠĠĠĠ":7414,"cb":7415,"ĠĠĠĊ":7416,"aya":7417,"Ġmagnetic":7418,"ensed":7419,"Ġdraft":7420,"poration":7421,"defined":7422,"Ġprobably":7423,"Memory":7424,"stone":7425,"ĠHa":7426,"ĠGa":7427,"Ġtab":7428,"Don":7429,"tsd":7430,"Enum":7431,"}}{\\":7432,"unct":7433,"ez":7434,"rick":7435,"Ġfailure":7436,"Ġeconomic":7437,"fect":7438,"'])":7439,"Ġproced":7440,"Ġscene":7441,"account":7442,"Ġfrequency":7443,"Ġneut":7444,"pton":7445,"Ġgenus":7446,"arden":7447,"Ġio":7448,"ertificate":7449,"ĠSouthern":7450,"Ġsolutions":7451,"domain":7452,"apply":7453,"ĠJac":7454,"tmp":7455,"Ġcounty":7456,"Video":7457,"ĠMah":7458,"Matrix":7459,"Ġevolution":7460,"aming":7461,"Proxy":7462,"Ġconserv":7463,"ĠLord":7464,"Ġbecoming":7465,"irls":7466,"typedef":7467,"ĠSy":7468,"Pi":7469,"Section":7470,"vant":7471,"Ġdise":7472,"ĠScotland":7473,"ĠSar":7474,"Ġ\"\"":7475,"ĠInitial":7476,"ila":7477,"Ġestimated":7478,"=-":7479,"posite":7480,"}+\\":7481,"Ġlot":7482,"urrency":7483,"called":7484,"ĠPop":7485,"ĠFunction":7486,"Ã±":7487,"handler":7488,"Ġmeeting":7489,"1956":7490,"ĠTODO":7491,"Print":7492,"limit":7493,"[$":7494,"Ġparents":7495,"burgh":7496,"Internal":7497,"illis":7498,"kins":7499,"iques":7500,"Ġreach":7501,"ĠAtt":7502,"fit":7503,"grade":7504,"ĠJersey":7505,"logger":7506,"Ġalgebra":7507,"engine":7508,"Ġprojects":7509,"Ġdead":7510,"ĠPacific":7511,"Cond":7512,"ustrial":7513,"|^":7514,"Ġraised":7515,"1958":7516,"Ġsuc":7517,"NG":7518,"ĠMichigan":7519,"Constr":7520,"ĠJan":7521,"NavBarCell":7522,"Ġrail":7523,"Ġnorm":7524,"neq":7525,"echo":7526,"WA":7527,"1959":7528,"ĠNumber":7529,"Ġcells":7530,"Ġsenior":7531,"Ġcapacity":7532,"Ġreferred":7533,"Plugin":7534,"etween":7535,"Ñı":7536,"ĠOx":7537,"Ġannual":7538,"Ġmicro":7539,"UTF":7540,"tely":7541,"ĠOhio":7542,"ĠCode":7543,"Gu":7544,"Ġ$.":7545,"Ġvisible":7546,"atible":7547,"Ġgreen":7548,"1943":7549,"ridge":7550,"1948":7551,"ects":7552,"ĠHamilton":7553,"Ġexpansion":7554,"inf":7555,"Ġforced":7556,"network":7557,"Ġquarter":7558,"Transform":7559,"ĠOffice":7560,"ĠJournal":7561,"Elements":7562,"lg":7563,"Ġimplies":7564,"ĠEdward":7565,"Ġsaf":7566,"à¸":7567,"Ġnumerous":7568,"uing":7569,"achuset":7570,"Ġuniform":7571,"achusetts":7572,"Ġ&\\":7573,"Ġinfluence":7574,"Ġelectric":7575,"ĠPoland":7576,"LIC":7577,"ĠMr":7578,"aters":7579,"ĠVAL":7580,"Ġinvalid":7581,"ĠConfig":7582,"Ġcarried":7583,"edom":7584,"Ġinstalled":7585,"123":7586,"NULL":7587,"Ġassigned":7588,"Ġvs":7589,"Ġversions":7590,"Scroll":7591,"Ġsupp":7592,"Ġ[[":7593,"ĠPrem":7594,"ĠAsia":7595,"Then":7596,"ĠChild":7597,"Ġfootballer":7598,"ĠCarl":7599,"Ġtracks":7600,"Ġinner":7601,"ÅĤ":7602,"Ġhusband":7603,"=\"\">":7604,"MB":7605,"Ġresponsible":7606,"Ġdriver":7607,"collection":7608,"pository":7609,"ĠMedia":7610,"ĠRepresent":7611,"awa":7612,"Protocol":7613,"Ġvelocity":7614,"Attributes":7615,"avity":7616,"ToString":7617,"ategories":7618,"Ġdepartment":7619,"Ġagreement":7620,"Ġpressure":7621,"metadata":7622,"Ġmurder":7623,"SQL":7624,"je":7625,"hidden":7626,"Ġbass":7627,"Ġlay":7628,"kl":7629,"abilities":7630,"Ġenabled":7631,"witter":7632,"centr":7633,"Ġencoding":7634,"fort":7635,"Ġ[],":7636,"Ġweeks":7637,"parameters":7638,"1939":7639,"Ġeth":7640,"configuration":7641,"ĠFred":7642,"1941":7643,"osa":7644,"isms":7645,"front":7646,"total":7647,"Ġmovie":7648,"Ġfarm":7649,"mir":7650,"Ġrecon":7651,"tools":7652,"Ġmachine":7653,"]\\":7654,"Ġships":7655,"horizontal":7656,"_(":7657,"ĠEarth":7658,"ï¼":7659,"Ġtrib":7660,"fri":7661,"Ġimplements":7662,"ĠDemocratic":7663,"Loc":7664,"Profile":7665,"children":7666,"ĠTherefore":7667,"Ġrecently":7668,"Ġcolon":7669,"ĠMen":7670,"}-\\":7671,"Ġliterature":7672,"coming":7673,"Ġoptional":7674,"Sequ":7675,"kw":7676,"Java":7677,"ictions":7678,"Ġknowledge":7679,"ellig":7680,"ighter":7681,"ĠTra":7682,"Scale":7683,"ĠRam":7684,"Ġcreation":7685,"Socket":7686,"elease":7687,"legal":7688,"Ġbul":7689,"mutable":7690,"ĠĠĠĠĠĠĠĠĠĠĠĠĠĠĠĠĠĠĠĠĠĠĠĠĠĠĠĠĠ":7691,"emic":7692,"gypt":7693,"ĠQueen":7694,"Func":7695,"ONE":7696,"Ġexamples":7697,"ĠGood":7698,"Ġreject":7699,"XML":7700,"1957":7701,"Ġformation":7702,"High":7703,"ĠCro":7704,"Ġhyp":7705,"ĠKent":7706,"Dest":7707,"iterator":7708,"Ġpositions":7709,"Ġhidden":7710,"ĠConference":7711,"Ġelections":7712,"Ġappropri":7713,")\">":7714,"Ġenter":7715,"ĠHere":7716,"Ġinteg":7717,"Ġ(_":7718,"Sports":7719,"ĠEnter":7720,"Graph":7721,"ulty":7722,"Ġexport":7723,"ĠAsian":7724,"ampions":7725,"IB":7726,"Ġseat":7727,"Ġawait":7728,"Ġpointer":7729,"ĠMi":7730,")+":7731,"Span":7732,"job":7733,"ĠTro":7734,"ĠCentre":7735,"Ġtreatment":7736,"1946":7737,"ĠParam":7738,"adel":7739,"browser":7740,"Ġasync":7741,"EO":7742,"Common":7743,"Double":7744,"entials":7745,"Ġslight":7746,"rid":7747,"chen":7748,"Ġtold":7749,"120":7750,"Keys":7751,"Ġip":7752,"Ġletter":7753,"ĠBow":7754,"ĠJones":7755,"Ġsegment":7756,"~$":7757,"enty":7758,"contains":7759,"Ġansw":7760,"CHECK":7761,"ĠBlue":7762,"ĠLo":7763,"Ġcreating":7764,"Ġattention":7765,"editor":7766,"National":7767,"ĠIllinois":7768,"Ġapplications":7769,"Ġbus":7770,"Ġhighly":7771,"ĠCard":7772,"Ġsquad":7773,"Ġshoot":7774,"Ġextract":7775,"Route":7776,"Brit":7777,"Ġconflic":7778,"ĠMain":7779,"ĠElect":7780,"ĠMajor":7781,"theorem":7782,"Ġagreed":7783,"amm":7784,"Ġwhy":7785,"tests":7786,"Ġmanaged":7787,"çļ":7788,"itation":7789,"home":7790,")}{":7791,"istent":7792,"Ġvictory":7793,"Ġturned":7794,"Ġpoor":7795,"Ġblocks":7796,"Ġ-\\":7797,"emporary":7798,"Ġmotion":7799,"Ġwaves":7800,"iate":7801,"ione":7802,"Sync":7803,"bytes":7804,"enumerate":7805,"ĠFI":7806,"BUG":7807,"cy":7808,"Ġnearly":7809,"BP":7810,"Ġoperated":7811,"Engine":7812,"Arch":7813,"switch":7814,"ĠSpecial":7815,"getName":7816,"identifier":7817,"Ġreligious":7818,"Ġmoving":7819,"ĠDutch":7820,"enger":7821,"Ġabsolute":7822,"Ġfactory":7823,"Ġserve":7824,"mut":7825,"Ġcomposed":7826,"ĠJewish":7827,"Ġasked":7828,"Ġrecording":7829,"Ġmainly":7830,"akers":7831,"Browser":7832,"pa":7833,"Ġvote":7834,"Ġtheme":7835,"Files":7836,"çļĦ":7837,"RAN":7838,"dates":7839,"Parse":7840,"Ġidentified":7841,"Auto":7842,"Ġpoliticians":7843,"(__":7844,"triev":7845,"ĠUN":7846,"Ġwestern":7847,"eller":7848,"ĠIOException":7849,"1955":7850,"Ġestim":7851,"Success":7852,"Ġplot":7853,"libr":7854,"ĠMov":7855,"Ġcarry":7856,"para":7857,"ĠPass":7858,"Ġfix":7859,"Ġarrest":7860,"Ġcommunities":7861,"Äį":7862,"wild":7863,"ĠSpe":7864,"ĠRailway":7865,"{$":7866,"ĠFC":7867,"external":7868,"ĠFrancisco":7869,"Ġframework":7870,"NN":7871,"Ġreq":7872,"Ġ\"<":7873,"ĠBas":7874,"Duration":7875,"Ġheart":7876,"ĠGeorgia":7877,"Ġtypically":7878,"ĠTHE":7879,"ĠCommon":7880,"ĠEach":7881,"Statement":7882,"Ġdistinct":7883,"Remove":7884,"AX":7885,"ĠLuc":7886,"Ġleaving":7887,"sky":7888,"Ġclaimed":7889,"Ġforest":7890,"eval":7891,"prove":7892,"Layer":7893,"ĠJohnson":7894,"ĠMassachusetts":7895,"Ġserving":7896,"illy":7897,"Ġice":7898,"1952":7899,"Ġwanted":7900,"Ġhistorical":7901,"Ġfiction":7902,"ĠPortug":7903,"zero":7904,"Ġactors":7905,"Pointer":7906,"Ġreplace":7907,"Ġ=========":7908,"Seg":7909,"phone":7910,"Ġupdated":7911,"Ġfederal":7912,"ĠKong":7913,"ĠLandroid":7914,"Ġemail":7915,"Ġru":7916,"Ġcombined":7917,"hemat":7918,"Ġnomin":7919,"Single":7920,"ĠAR":7921,")}$":7922,"trigger":7923,"ĠTheatre":7924,"ĠLocal":7925,"Ġability":7926,"Ġpil":7927,"Ġanim":7928,"Cor":7929,"Ġbelong":7930,"Mapping":7931,"ĠExt":7932,"chor":7933,"props":7934,"Mat":7935,"Ġmentioned":7936,"$/":7937,"ynomial":7938,":\\":7939,"HR":7940,"1947":7941,"Ġnothing":7942,"ĠHead":7943,"$}":7944,"Ġlisting":7945,"128":7946,"Ġnine":7947,"Ġtypeof":7948,"ĠAlb":7949,"black":7950,"Ġjoint":7951,"Ġbinary":7952,"phy":7953,"Ġseconds":7954,"porated":7955,"ello":7956,"Ġarchitecture":7957,"ĠCons":7958,"SER":7959,"Ġmetric":7960,"Ġuniversity":7961,"urban":7962,"Ġoccurred":7963,"ĠTheir":7964,"Ġtesting":7965,"ĠDevelopment":7966,"United":7967,"una":7968,"Ġxmlns":7969,"referred":7970,"More":7971,"Ġconstructor":7972,"pons":7973,"ĠPhilipp":7974,"Feature":7975,"ĠElement":7976,"duled":7977,"ĠJava":7978,"claim":7979,"Ġvertex":7980,"Full":7981,"Ġfoc":7982,"Gen":7983,"sequence":7984,"Fail":7985,"Ġcovered":7986,"neg":7987,"alloc":7988,"rase":7989,"Variable":7990,"Ġprotocol":7991,"Ġwave":7992,"ĠCoast":7993,"Services":7994,"ĠOur":7995,"Ġindividuals":7996,"Ġpool":7997,"lan":7998,"SY":7999,"owers":8000,"Ġstra":8001,"ographic":8002,"ĠUpdate":8003,"protected":8004,"Ġdebug":8005,"onto":8006,"fd":8007,"Ġspectrum":8008,"Ġsites":8009,"ni":8010,"Ġretired":8011,"ĠĠĠĠĠĠĠĠĠĠĠĠĠĠĠĠĠĠĠĠĠĠĠĠĠĠĠĠĠĠĠĠĠĠĠĠĠĠĠĠĠĠĠĠĠĠĠĠĠĠĠĠĠĠĠĠĠĠĠĠĠĠĠĠ":8012,"cred":8013,"wrapper":8014,"power":8015,"Opt":8016,"fail":8017,"Ġthr":8018,"Ġmessages":8019,"yer":8020,"Ġones":8021,"Ġreli":8022,"idx":8023,"cribe":8024,"Ġbridge":8025,"cluded":8026,"ĠBoston":8027,"Ġpp":8028,"READ":8029,"Ġopport":8030,"abeth":8031,"stein":8032,"ulpt":8033,"Ġsettlement":8034,"ĠBern":8035,"Ġsym":8036,"IMP":8037,"ĠGovernor":8038,"jango":8039,"Ġlib":8040,"rical":8041,"Ġmask":8042,"Ġaxis":8043,"hspace":8044,"Ġsufficient":8045,"Repository":8046,"ĠÂ£":8047,"Ġprofessor":8048,"Ã¸":8049,"ĠSO":8050,"FFFF":8051,"Ġincome":8052,"Ġwatch":8053,"norm":8054,"Ġul":8055,"tor":8056,"Ġcompletely":8057,"Ġpain":8058,"IPT":8059,"tical":8060,"ashed":8061,"Ġordered":8062,"\\,\\":8063,"Example":8064,"wx":8065,"Ġcomedy":8066,"Ġderiv":8067,"riteria":8068,"tim":8069,"![":8070,"PORT":8071,"Failed":8072,"ĠScottish":8073,"ĠSoc":8074,"istration":8075,"erved":8076,"Ġdepth":8077,"According":8078,"Ġpurpose":8079,"Ġcouncil":8080,"Ġsizeof":8081,"Ġunivers":8082,"Ġpromin":8083,"cher":8084,"uv":8085,"exists":8086,"filename":8087,"','":8088,"Term":8089,"STAT":8090,"TA":8091,"ĠKr":8092,"Product":8093,"1954":8094,"hide":8095,"Ġvertical":8096,"Ġeasily":8097,"Ġarbitr":8098,"ĠWilliams":8099,"aylor":8100,"ĠGets":8101,"Ġestimate":8102,"Ġclubs":8103,"cean":8104,"iated":8105,"Ġdespite":8106,"Ġvon":8107,"Ġbatt":8108,"CF":8109,"VID":8110,"FIG":8111,"ĠPrince":8112,"Ġsister":8113,"Ġsubsequently":8114,"Ġspread":8115,"matrix":8116,"poses":8117,"Ġplane":8118,"ĠBang":8119,"Ġexam":8120,"ĠCreek":8121,"Ġcat":8122,"Ġtraff":8123,"headers":8124,"General":8125,",âĢĿ":8126,"ĠĠĠĠĠĠĠĠĠĠĠĠĠĠĠĠĠĠĠĠĠĠĠĠĠĠ":8127,"prefix":8128,"Ġacquired":8129,"1953":8130,"Ġshall":8131,"hens":8132,"definition":8133,"^-":8134,"=>":8135,"itemize":8136,"ĠOnly":8137,"noindent":8138,"Ġfavor":8139,"yo":8140,"ĠLab":8141,"ulf":8142,"symbol":8143,"ĠAirport":8144,"Cap":8145,"aturing":8146,"Ġdrop":8147,"arters":8148,"Ġgeneration":8149,"ĠCa":8150,"ALSE":8151,"Ġmis":8152,"Ġrect":8153,"Ġfriends":8154,"Ġcoming":8155,"antry":8156,"Ġhelped":8157,"ĠEastern":8158,"minus":8159,"Ġchoose":8160,"Space":8161,"Ġstories":8162,"1949":8163,"Ġdescent":8164,"Ġsaying":8165,"Pay":8166,"HER":8167,"ĠBor":8168,"Ġoperators":8169,"builder":8170,"acle":8171,"nil":8172,"loc":8173,"Ġtrigger":8174,"Ġdetail":8175,"ĠHome":8176,"Ġctx":8177,"Ġsemi":8178,"ĠRegion":8179,"iffer":8180,"ĠSea":8181,"platform":8182,"atial":8183,"emon":8184,"Ġsmooth":8185,"British":8186,"special":8187,"ĉĉĉĉĉĉĉĉĉ":8188,"iday":8189,"role":8190,"Ġsetup":8191,"Wrapper":8192,"gence":8193,"Ġsamples":8194,"sumer":8195,"Attr":8196,"Ġconcentr":8197,"Ġeigen":8198,"Identifier":8199,"TEXT":8200,"Ġsituation":8201,"ĠLatin":8202,"Ġfamous":8203,"ĠOfficial":8204,"herited":8205,"Ġtheorem":8206,"Abstract":8207,"Ġsurvey":8208,"ĠStan":8209,"ribution":8210,"Ġoccurs":8211,"ĠBol":8212,"Ġsal":8213,"Ġvoice":8214,"ĠPath":8215,"Ġpriv":8216,"1951":8217,"Ġcities":8218,"Vertex":8219,"Ġofficers":8220,"Collections":8221,"tabs":8222,"undred":8223,"Ġseek":8224,"sen":8225,"Ġinfin":8226,"ĠMid":8227,"itage":8228,"scape":8229,"attributes":8230,"ingham":8231,"ĠColumbia":8232,"execute":8233,"Character":8234,"Ġleads":8235,"Ġoffered":8236,"ĠLie":8237,"Ġpassword":8238,"Ġplans":8239,"ĠBoth":8240,"Ġquickly":8241,"mask":8242,"oles":8243,"andon":8244,"nic":8245,"ĠPlaces":8246,"hy":8247,"ĠJr":8248,"Ġcompute":8249,"Ġque":8250,"Ġabstract":8251,"ĠHash":8252,"Ġmodified":8253,"dialog":8254,"Generator":8255,"Ġ\"-":8256,"Ġrequests":8257,"Ġmaps":8258,"Constants":8259,"'$":8260,"arsed":8261,"ĠWay":8262,"Transport":8263,"ais":8264,"Register":8265,"axis":8266,"arant":8267,"kee":8268,"Music":8269,"Ġunless":8270,"dp":8271,"pressed":8272,"Ġgrid":8273,"Ġcitiz":8274,"Ġgoes":8275,"------------":8276,"Ġbelieved":8277,"\\'":8278,"Ġradius":8279,"IE":8280,"Ġorganizations":8281,"eld":8282,"ĠOxford":8283,"sex":8284,"Ġappend":8285,"Ġlanguages":8286,"izable":8287,"Ġgiving":8288,"Ġsusp":8289,"Ġreflect":8290,"Py":8291,"bro":8292,"ĠCapt":8293,"Ġpersonnel":8294,"Ġqueue":8295,"Ġhockey":8296,"original":8297,"DULE":8298,"Ã¡n":8299,"trm":8300,"ĠHung":8301,"ĠIndex":8302,";}":8303,"rev":8304,"ifdef":8305,"emy":8306,"Ġmuseum":8307,"Ġreduce":8308,"Region":8309,"just":8310,"since":8311,"Ġmunicipality":8312,"Ġlives":8313,"extern":8314,"Ġcolumns":8315,"provider":8316,"$_":8317,"May":8318,"Ġprocesses":8319,"Ġparties":8320,"FN":8321,"Ġregional":8322,"Ġvisual":8323,"BE":8324,"Ġdiscovered":8325,"onia":8326,"Ġ\\;":8327,"operation":8328,"ĠStation":8329,">:":8330,"ederation":8331,"Ġtensor":8332,"navList":8333,"loop":8334,"ĠMu":8335,"uries":8336,"details":8337,"Ġdoing":8338,"Ġsociety":8339,"Role":8340,"tags":8341,"ĠMany":8342,"Ġlaunch":8343,"anging":8344,"ndef":8345,"ĠPolish":8346,"ĠIslam":8347,"acro":8348,"ĠInf":8349,"ĠWhat":8350,"Ġrepresenting":8351,"vspace":8352,"Trace":8353,"rf":8354,"Ġ\",":8355,"\"|":8356,"Association":8357,"icine":8358,"outheast":8359,"3333":8360,"she":8361,"Ġseem":8362,"zz":8363,"Ġflags":8364,"ĠEgypt":8365,"orning":8366,"Ġstraight":8367,"ĠBroad":8368,"Ġcontained":8369,"Ġtor":8370,"Ġspaces":8371,"oved":8372,"Ġinteraction":8373,"ĠSte":8374,"ĠRay":8375,"Ġsecret":8376,"Ġlayout":8377,"prev":8378,"maven":8379,"OUT":8380,"textrm":8381,"single":8382,"hom":8383,"IND":8384,"iced":8385,"svg":8386,"ĠIE":8387,"Ġdisk":8388,"ĠSenate":8389,"ĠAction":8390,"Ġaccepted":8391,"Ġportr":8392,"Ġlic":8393,"ĠNight":8394,"Sample":8395,"Ġeasy":8396,"Agent":8397,"Ġring":8398,"junit":8399,"conn":8400,"Ġui":8401,"Ġtun":8402,"ugs":8403,"rawn":8404,"Ġconcert":8405,"Ġgets":8406,"ITE":8407,"Ġexchange":8408,"inity":8409,"ĠAND":8410,"Ġlies":8411,"Ð´":8412,"Global":8413,"teen":8414,"oday":8415,"Nodes":8416,"ĠPack":8417,"ierarch":8418,"Ġintended":8419,"Ġdepends":8420,"Ġstatistics":8421,"iling":8422,"ĠSecretary":8423,"ods":8424,"Ġparser":8425,"odd":8426,"Ġprefix":8427,"Ġquite":8428,"ĠTw":8429,"Selection":8430,"}}_":8431,"oir":8432,"Ġcontrast":8433,"chester":8434,"1936":8435,".\");":8436,"Ġsuccessfully":8437,"ĠJean":8438,"ĠSand":8439,"ĠWild":8440,"ĠSund":8441,"Ġsignature":8442,"etailed":8443,"ĠEp":8444,"Ġexpanded":8445,"ĠWis":8446,"thur":8447,"Game":8448,"ĠRequest":8449,"Ġcompare":8450,"Ġenable":8451,"Ġmarked":8452,"detail":8453,"ĠMot":8454,"look":8455,"Ġresolution":8456,"green":8457,"ĠLittle":8458,"}},":8459,"ĠLater":8460,"Ġgovern":8461,"ifically":8462,"jpg":8463,"hesis":8464,"Ġaspect":8465,"zech":8466,"ĠBack":8467,"ĠHong":8468,"aby":8469,"Ġearned":8470,"enable":8471,"urer":8472,"bas":8473,"=\"${":8474,"Ġrisk":8475,"Prefix":8476,"rate":8477,"\"><!--":8478,"anz":8479,"ĠFree":8480,"serial":8481,"Ġstrategy":8482,"Depend":8483,"ĠEqu":8484,"Ġpages":8485,"Second":8486,"Ġcurve":8487,"Ġcru":8488,"Ġmetal":8489,"ĠIslands":8490,"aste":8491,"swarm":8492,"Ġpush":8493,"Props":8494,")->":8495,"Ġcompeted":8496,"()</":8497,"generated":8498,"Ġformula":8499,"Ġnavigation":8500,"ĠWall":8501,"zone":8502,"åı":8503,"Ġcomparison":8504,"ĠCorps":8505,"Category":8506,"attice":8507,"ĠVictoria":8508,"Simple":8509,"Ġmagn":8510,"ĠFurther":8511,"ĠInteger":8512,"ĠRet":8513,"1918":8514,"ajax":8515,"ropy":8516,"Ġ=======":8517,"Ġshowed":8518,"mazon":8519,"Bound":8520,"Ġangle":8521,"ĠPower":8522,"ifiers":8523,"Ġhence":8524,"wall":8525,"Ġproviding":8526,"Ġwinner":8527,"\\}$":8528,"mediate":8529,"Ġstrings":8530,"prod":8531,"Ġflat":8532,"Ġdepart":8533,"ĠWill":8534,"cha":8535,"Ġguest":8536,"ydney":8537,"fx":8538,"ters":8539,"ropol":8540,"Ġexistence":8541,"ĠRoute":8542,"iteral":8543,"Ġparticle":8544,"Ġissued":8545,"random":8546,"TRY":8547,"apos":8548,"pat":8549,"Ġmetadata":8550,"endor":8551,"Ġbrowser":8552,"Ġ'<":8553,"Headers":8554,"Ġdeliver":8555,"Ġfirm":8556,"Ġgauge":8557,"Ġnearby":8558,"<\\":8559,"storage":8560,"itionally":8561,"ĠVan":8562,"Password":8563,"Ġwor":8564,"Ġtypename":8565,"wildfly":8566,"ĠBelg":8567,"ĠLight":8568,"HTTP":8569,"}}}":8570,"Ġ[\"":8571,"ruby":8572,"hard":8573,"Ġworkers":8574,"Ġepisodes":8575,"services":8576,"inate":8577,"rift":8578,"ĠConserv":8579,"cluster":8580,"LECT":8581,"Cluster":8582,"Ġonto":8583,"ICE":8584,"collapse":8585,"utenant":8586,"ntario":8587,"Ġeastern":8588,"ĠFar":8589,"brief":8590,"ĠHarr":8591,"ĠSpec":8592,"Ġexc":8593,"Comment":8594,"ĠAndrew":8595,"done":8596,"Uri":8597,"ĠRail":8598,"Ġsummary":8599,"TIME":8600,"Ġcer":8601,"allclasses":8602,"umes":8603,"opes":8604,"eleted":8605,"Ġanc":8606,"Ġdoub":8607,"{%":8608,"1938":8609,"Ġcalling":8610,"Registry":8611,"ĠBBC":8612,"Ġoil":8613,"Multi":8614,"Ġhouses":8615,"CESS":8616,"ĠHTTP":8617,"Texture":8618,"udget":8619,"ĠKen":8620,"ĠKorea":8621,"fire":8622,"tbody":8623,"ucky":8624,"Author":8625,"ĠSi":8626,"DP":8627,"tain":8628,"Short":8629,"atar":8630,"Ġexit":8631,"Ñĭ":8632,"Ġhyper":8633,"ĠJackson":8634,"Ġcompact":8635,"iminal":8636,"ctrine":8637,"ran":8638,"Ġeq":8639,"VM":8640,"While":8641,"ivial":8642,"ĠInv":8643,"ĠAff":8644,"Ġretriev":8645,"iÃ³n":8646,"Ġcook":8647,"Ġ{{":8648,"ĠMessage":8649,"Ġlicense":8650,"Ġfort":8651,"pet":8652,"ancell":8653,"ĠJes":8654,"Personal":8655,"Ġcontribution":8656,"University":8657,"Ġbey":8658,"Ġlab":8659,"ĠArgent":8660,"Cred":8661,"eces":8662,"ĠOlympic":8663,"URI":8664,"ĠFour":8665,"ĠAli":8666,"Ġraw":8667,"progress":8668,"Resources":8669,"temp":8670,"ĠBi":8671,"Ġcmd":8672,"Ġhospital":8673,"awn":8674,"pu":8675,"Ġappearances":8676,"ĠResource":8677,"SM":8678,"Ġenum":8679,"springframework":8680,"ÑĮ":8681,"Ġdataset":8682,"mathscr":8683,"NOT":8684,"href":8685,"Ġmarriage":8686,"ĠBerlin":8687,"hu":8688,"Ġsecondary":8689,"ĠSI":8690,"NT":8691,"ĠPolice":8692,"Ġfactors":8693,"Ġ?>":8694,"errors":8695,"West":8696,"Namespace":8697,"ellar":8698,"Ġseems":8699,"throw":8700,"ĠConf":8701,"ĠUSA":8702,"achment":8703,"ĠMult":8704,"shadow":8705,"ĠReact":8706,"600":8707,"Ġformal":8708,"Ġnom":8709,"ĠAlexander":8710,"Ġ..":8711,"%)":8712,"icans":8713,"Ġcos":8714,"Ð¼":8715,"protocol":8716,"clusive":8717,"username":8718,"ependence":8719,"ĠStat":8720,"shared":8721,"ologist":8722,"'));":8723,"ennes":8724,"Ġbaseball":8725,"rovers":8726,"ĠBal":8727,"Ġaccom":8728,"Ġnoise":8729,"Ġelim":8730,"player":8731,"ologies":8732,"Ġ],":8733,"indexOf":8734,"Ġmatching":8735,"Ġawards":8736,"Ġdat":8737,"Comm":8738,"Ġleaves":8739,"Ġembedd":8740,"when":8741,"Compar":8742,"Ġtransferred":8743,"1937":8744,"?>":8745,"Ġbeyond":8746,"Wil":8747,"Ġpromoted":8748,"amber":8749,"effect":8750,"Ġaudio":8751,"ateway":8752,"250":8753,"Ġtroops":8754,"itical":8755,"Ġheaders":8756,"Progress":8757,"ĠEcon":8758,"ĠTechnology":8759,"also":8760,"Help":8761,"phia":8762,"zen":8763,"Ġprev":8764,"zabeth":8765,"Ġsteps":8766,"ĠStart":8767,"Ġoperating":8768,"asi":8769,"Ġdiscussed":8770,"Ġprimarily":8771,"ĠEst":8772,"Ġdivided":8773,"Ġdeclared":8774,"ĠSports":8775,"<!":8776,"FLA":8777,"}^{-":8778,"ĠWater":8779,"jd":8780,"ĠSom":8781,"Ġways":8782,"Ġdidn":8783,"weet":8784,"Ġdiagram":8785,"Ġforeach":8786,"Ġut":8787,"Ġrg":8788,"opl":8789,"Ġcontroller":8790,"Some":8791,"Sequence":8792,"Ġpolynomial":8793,"expect":8794,"Generated":8795,"MT":8796,"ancing":8797,"Ġtherm":8798,"Ġ).":8799,"blue":8800,"ãĢ":8801,"Ġpan":8802,"holds":8803,"ĠAk":8804,"login":8805,"('.":8806,"Ġrevealed":8807,"ĠYour":8808,"ĠDown":8809,"resources":8810,"onom":8811,"Ġprotect":8812,"vs":8813,"Ġprovince":8814,"Ġappropriate":8815,"Austral":8816,"ĠPen":8817,"Mer":8818,"ĠAz":8819,"ĠRegiment":8820,"Ġcultural":8821,"Ġalloc":8822,"Ġessential":8823,"Ġorient":8824,"eners":8825,"ading":8826,"Theta":8827,"expr":8828,"underline":8829,"Ġ_{":8830,"anth":8831,"Ġtranslation":8832,"ben":8833,"Ġpi":8834,"safe":8835,"Ġentries":8836,"ĠExample":8837,"ĠHospital":8838,"bg":8839,"ori":8840,"Ġ(-":8841,"Ġrelatively":8842,"ĠDar":8843,"ĠReview":8844,"Ġreader":8845,"Ġrare":8846,"Ġpal":8847,"ffff":8848,"colLast":8849,"Ġconstraints":8850,"adelphia":8851,"ĠBrook":8852,"Ġyouth":8853,"Ġpairs":8854,"LINE":8855,"ĠDub":8856,"joy":8857,"ĠNAME":8858,"istance":8859,"amin":8860,"ĠLOG":8861,"JS":8862,"ĠCorporation":8863,"peror":8864,"unique":8865,"sel":8866,"Ġarrived":8867,"Ġfellow":8868,"Ġrac":8869,"Ġinform":8870,"ĠOrgan":8871,"users":8872,"OD":8873,"ocaml":8874,"USE":8875,"apes":8876,"Ġmaterials":8877,"Ġexactly":8878,"ĠASSERT":8879,"Ġreports":8880,"illi":8881,"etic":8882,"outer":8883,"FS":8884,"Ġhighlight":8885,"ĠMember":8886,"Ġfifth":8887,"Ġflux":8888,"Ġarticles":8889,"Report":8890,"ĠArrayList":8891,"ĠJon":8892,"ĠBusiness":8893,"Ġcombination":8894,"Ġroles":8895,"Ġmenu":8896,"feature":8897,"Ġscatter":8898,"ĠBad":8899,"Ġinterval":8900,"Ġremote":8901,"ĠCopyright":8902,"ARN":8903,"Ġven":8904,"Ġdigital":8905,"fixed":8906,"sys":8907,"Ġparticles":8908,"quis":8909,"Ġlogger":8910,"uations":8911,"assembly":8912,"Ã©e":8913,"duces":8914,"ĠBa":8915,"ulator":8916,"Ġimprove":8917,"aga":8918,"Ġvac":8919,"Ġverify":8920,"Ġexecutive":8921,"two":8922,"Ġgetting":8923,"Ġassumed":8924,"Domain":8925,"Ġmolec":8926,"ucket":8927,"Ġexpand":8928,"RES":8929,"Vir":8930,"ĠDaniel":8931,"odies":8932,"}%":8933,"pattern":8934,"tc":8935,"Ġtrial":8936,"compiler":8937,"amps":8938,"Ġwild":8939,"uplic":8940,"complete":8941,"WN":8942,"weg":8943,"Ġpartners":8944,"ĉĠĠĠĠĠ":8945,"BAR":8946,"!!":8947,"ancer":8948,"Ġconducted":8949,"formance":8950,"Ġexperimental":8951,"Ġassociation":8952,"ĠSa":8953,"Ġlif":8954,"ĠCount":8955,"Ġcancel":8956,"Player":8957,"Ġattract":8958,"International":8959,"Ġchalleng":8960,"icies":8961,"ĠOs":8962,"Ġleaders":8963,"Ġspan":8964,"xs":8965,"colFirst":8966,"ĠPage":8967,"Ãº":8968,"ĠHuman":8969,"Ġta":8970,"Ġaim":8971,"vin":8972,"ĠWilson":8973,"Ġnetworks":8974,"imitive":8975,"ĠĠĠĠĠĠĠĠĠĠĠĠĠĠĠĠĠĠĠĠĠĠĠĠĠĠĠĠ":8976,"Ġtimeout":8977,"Ġsynt":8978,"extension":8979,"water":8980,"Ġalternative":8981,"ester":8982,"bourne":8983,"Visible":8984,"dem":8985,"ĠPrize":8986,"Ġdedicated":8987,"Stats":8988,"boost":8989,"ĠRepublican":8990,"Lin":8991,"Dictionary":8992,"Syntax":8993,"edia":8994,"ĠRog":8995,"Ġobservations":8996,"ĠWindows":8997,"Ġdecom":8998,"Ġnewspaper":8999,"MI":9000,"cuss":9001,"Ġprocessing":9002,"ronze":9003,"ĠMir":9004,"game":9005,"ti":9006,"Summary":9007,"Total":9008,"Ġslightly":9009,"subseteq":9010,"Ġfair":9011,"invalid":9012,"ĠViet":9013,"ĠUI":9014,"'m":9015,"Ġallowing":9016,"amer":9017,"Ġnullptr":9018,"Ġresidents":9019,"Ġdestroyed":9020,"Ġadopted":9021,"bat":9022,"Ġtrying":9023,"Ð²":9024,"Ġsport":9025,"Ġexpatriate":9026,"Ġoffers":9027,"Ġassistant":9028,"ĠImage":9029,"elem":9030,"ĠOntario":9031,"Ġweap":9032,"ĠJoe":9033,"Ġtraffic":9034,"1935":9035,"Ġpartition":9036,"tw":9037,"onder":9038,"Ġcalc":9039,"ĠChannel":9040,"Ġhonor":9041,"ĠOriginal":9042,"Ġcaptured":9043,"ĠHttp":9044,"Ġ];":9045,"1914":9046,"Ġancient":9047,"ĠBC":9048,"Ġdiss":9049,"Ġconfirmed":9050,"Ġnp":9051,"oured":9052,"Ġmeasured":9053,"Ġdownload":9054,"What":9055,"ortheast":9056,"ĠResult":9057,"RC":9058,"Ġalongside":9059,"yard":9060,">::":9061,"Ġens":9062,"Ġpert":9063,"ĠCommunity":9064,"Import":9065,")|":9066,"LOCK":9067,"(@":9068,"Ġrenamed":9069,"('/":9070,"aki":9071,"Ang":9072,"Ġcommonly":9073,"ĠSydney":9074,"usters":9075,"Writ":9076,"Ġindicates":9077,"Ġrapid":9078,"%,":9079,"Î±":9080,"Ġassembly":9081,"Ġthing":9082,"Ġfill":9083,"ĠĠĠĠĠĠĠĠĠĠĠĠĠĠĠĠĊ":9084,"Ġfeaturing":9085,"riority":9086,"1919":9087,"Ġprogramming":9088,"ĠBlock":9089,"ashion":9090,"ropical":9091,"ĠThree":9092,"notes":9093,"Ġcoq":9094,"Ġfloor":9095,"Ġ×":9096,"ĠSem":9097,"numerus":9098,"numerusform":9099,"decl":9100,"Ġcontributions":9101,"ĠSecurity":9102,"ĠSant":9103,"sch":9104,"Ġsculpt":9105,"etherlands":9106,"ĠGuard":9107,"Ġenv":9108,"ryst":9109,"ĠManagement":9110,"Ġlooking":9111,"ĠJustice":9112,"VD":9113,"MODULE":9114,"Ġconstitu":9115,"Fin":9116,"Leg":9117,"Ġcrew":9118,"Ġwall":9119,"Ġstreet":9120,"moz":9121,"Len":9122,"ĠKorean":9123,"Here":9124,"ĠCat":9125,"Ġnation":9126,"ĠJeff":9127,"Ġproxy":9128,"Ġcycle":9129,"Ġrelevant":9130,"Miss":9131,"Ġexecution":9132,"Capt":9133,"Î¿":9134,"ĠSupport":9135,"Ġzone":9136,"appe":9137,"Ġpropag":9138,"Interval":9139,"Ġefforts":9140,"ĠAvenue":9141,"ĠTH":9142,"Ġachieved":9143,"ĠBand":9144,"Ġsections":9145,"Ġnewly":9146,"issues":9147,"lyn":9148,"Ġcloud":9149,"DT":9150,"ĠassertThat":9151,"NV":9152,"ĠRos":9153,"async":9154,"Ġcharset":9155,";)":9156,"Ġhydro":9157,"sid":9158,"ACT":9159,"ĠTok":9160,"Ġpra":9161,"ometric":9162,"Ġbounded":9163,"ĠPrime":9164,"amaz":9165,"ĠPlan":9166,";\">":9167,"Sources":9168,"ĠMuslim":9169,"loader":9170,"Area":9171,"Ġviews":9172,"ĠRaj":9173,"Ġregistered":9174,"Ġcli":9175,"depth":9176,"essions":9177,"ĠAuthor":9178,"Ġstarts":9179,"Conn":9180,"timeout":9181,"xhtml":9182,"loor":9183,"ĠVill":9184,"enabled":9185,"ĠToronto":9186,"vc":9187,"IST":9188,"Delegate":9189,"Ġvertices":9190,"required":9191,"Ġtasks":9192,"Ġpiece":9193,"Ġadministration":9194,"Ġsilver":9195,"Ġtele":9196,"Ġspirit":9197,"Shape":9198,"Ġanything":9199,"Ġtemp":9200,"Ġunderstand":9201,"Ġadvant":9202,"ĠAsh":9203,"ĠMinistry":9204,"BB":9205,"groups":9206,"Ġsoldiers":9207,"Ġinstrument":9208,"Ġexpressed":9209,"bec":9210,"1933":9211,"Program":9212,"Ġathlet":9213,"iy":9214,"TRUE":9215,"seg":9216,"('#":9217,"println":9218,"Ġstored":9219,"800":9220,"South":9221,"rog":9222,"ifndef":9223,"ĠArea":9224,"plan":9225,"adesh":9226,"stable":9227,"requ":9228,"sto":9229,"nodes":9230,"DEFAULT":9231,"person":9232,"Ġmotor":9233,"Ġduration":9234,"Ġadult":9235,"bits":9236,"Ġhol":9237,"Free":9238,"initions":9239,"110":9240,"^^":9241,"bean":9242,"ĠBon":9243,"Ġlett":9244,"ĠKenn":9245,"elligence":9246,"Ġstrength":9247,"Bind":9248,"=\"$":9249,"rie":9250,"arc":9251,"ĠWalk":9252,"Ġ\\|":9253,"ĠMaster":9254,"Language":9255,"iciency":9256,"Ġshowing":9257,"pred":9258,"Ġsuggested":9259,"lyphicon":9260,"Ġtmp":9261,"Ġcopies":9262,"Ġgraduated":9263,"efe":9264,"estab":9265,"library":9266,"Ġanimation":9267,"Ġindicate":9268,"1917":9269,"Ġ$\\{":9270,"article":9271,"Begin":9272,"Ġlocations":9273,"EV":9274,"ĠFederal":9275,"Ġadding":9276,"ĠDocument":9277,"tar":9278,"ĠTam":9279,"icip":9280,"otted":9281,"Ġacademic":9282,"irement":9283,"Ġsignificantly":9284,"Ġdevices":9285,"Ġtechniques":9286,"setminus":9287,"sidebar":9288,"Ġshell":9289,"EEEE":9290,"Ġpurs":9291,"iance":9292,"LL":9293,"ducing":9294,"Ġemission":9295,"ĠSciences":9296,"Pub":9297,"Best":9298,"Ġedges":9299,"van":9300,"PER":9301,"here":9302,"Ġtwice":9303,"Ġaccomp":9304,"ĠCirc":9305,"1929":9306,"perial":9307,"ĠRome":9308,"Ġmedian":9309,"Ġinh":9310,"Ġlistener":9311,"video":9312,"POST":9313,"ĠRevolution":9314,"ĠSpring":9315,"getElement":9316,"ĠMake":9317,"prise":9318,"uzz":9319,"Ġassign":9320,"onical":9321,"ĠSupreme":9322,"Ġacting":9323,"Ġdict":9324,"consin":9325,"alion":9326,"Ġclick":9327,"diff":9328,"Ġchannels":9329,"ibliography":9330,"Google":9331,"agg":9332,"Ġadministrative":9333,"fi":9334,"Ġ([":9335,"checkbox":9336,"Ġcarri":9337,"zh":9338,"ĠTaylor":9339,"OB":9340,"flag":9341,"____":9342,"Two":9343,"Ġrates":9344,"Ġtx":9345,"Ġsymmetry":9346,"ĠLew":9347,"Returns":9348,"testing":9349,"Ġdisease":9350,"alg":9351,"plus":9352,"chestra":9353,"athan":9354,"month":9355,"Release":9356,"proxy":9357,"Ġpet":9358,"Ġconsistent":9359,"Ġrows":9360,"raq":9361,"1934":9362,"ĠBell":9363,"repe":9364,"agent":9365,"Ġprice":9366,"footnote":9367,"limits":9368,"console":9369,"_*":9370,"dy":9371,"Ġautomatically":9372,"ĠAS":9373,"Ġclassification":9374,"ummy":9375,"ĠPakistan":9376,"theme":9377,"usted":9378,"forward":9379,"itness":9380,"roduction":9381,"abric":9382,"Ġpartner":9383,"owa":9384,"ANG":9385,"words":9386,"kes":9387,"ounce":9388,"CTYPE":9389,"Ġdistingu":9390,"1928":9391,"Ġdual":9392,"Ġapplic":9393,"mouse":9394,"circle":9395,"Ġflight":9396,"Ġimplemented":9397,"^{-\\":9398,"DateTime":9399,"ĠWhe":9400,"Ġsolo":9401,"bc":9402,"Ġinteresting":9403,"cert":9404,"Ġsph":9405,"Tx":9406,"\"\"\"":9407,"RR":9408,"Ġkept":9409,"Mask":9410,"fix":9411,"Div":9412,"Ġorganized":9413,"Ġdisabled":9414,"ysical":9415,"ĠServices":9416,"ĠUnivers":9417,"Ġnotice":9418,"ifi":9419,"Skip":9420,"1900":9421,"Ġpolar":9422,"onomy":9423,"vo":9424,"ĠFire":9425,"ĠRom":9426,"Ġconverted":9427,"Ġwidely":9428,"pres":9429,"Ġserious":9430,"Ġplanned":9431,"Pair":9432,"bold":9433,"ĠNations":9434,"ĠBu":9435,"Ġera":9436,"Ġstay":9437,"ĠKir":9438,"pson":9439,"iser":9440,"pull":9441,"itled":9442,"pler":9443,"shal":9444,"cdn":9445,"cheduler":9446,"ĠLy":9447,"quarters":9448,"ĠWel":9449,"ĠCEL":9450,"Ġequipment":9451,"ĠProfessor":9452,"ĠFollowing":9453,"Ġidx":9454,"ĠElizabeth":9455,"ENSE":9456,"Ġlabels":9457,"Ġauthors":9458,"...</":9459,"going":9460,"Ġgirl":9461,"ĠSQL":9462,"avor":9463,"ĠAnton":9464,"clean":9465,"()))":9466,"Ġmusicians":9467,"His":9468,"1932":9469,"plates":9470,"Ġusage":9471,"Methods":9472,"Ġhundred":9473,"socket":9474,"130":9475,"multi":9476,"REQ":9477,"Ġmapping":9478,"Ġencour":9479,"Flag":9480,"Ġreferences":9481,"ĠQueens":9482,"rons":9483,"cknow":9484,"Ġnotes":9485,"Ġattend":9486,"ORTED":9487,"Ġsector":9488,"ĠDer":9489,"orders":9490,"Ġplugin":9491,"ĠLes":9492,"Ġreset":9493,"ĠSong":9494,"emet":9495,"Ġparallel":9496,"ĠSus":9497,"ĠMicrosoft":9498,"Ġconnections":9499,"Ġmind":9500,"gorithms":9501,"ĠSource":9502,"ĠBoy":9503,"Ġreadonly":9504,"ĠCambridge":9505,"Ġtra":9506,"Landroid":9507,"Ġwinners":9508,"Ġprominent":9509,"However":9510,"1910":9511,"Ġalone":9512,"Ġraces":9513,"HS":9514,"Ġtitles":9515,"ĠInformation":9516,"Make":9517,"Ġreviews":9518,"aped":9519,"Ġ$|":9520,"Ġproved":9521,"Ġlabor":9522,"structions":9523,".<":9524,"ĠTy":9525,"Ġprep":9526,"Ġrecip":9527,"Ġprincipal":9528,"ĠMarg":9529,"commit":9530,"ĠSanta":9531,"These":9532,"Ġreturning":9533,"blank":9534,"activ":9535,"ĠAthlet":9536,"osl":9537,"picture":9538,"ĠMedal":9539,"INFO":9540,"akh":9541,"Ġreasons":9542,"Ġdocumentation":9543,"osis":9544,"Ġarbitrary":9545,"Ġattacks":9546,"\\}":9547,"picker":9548,"Ġpul":9549,"Ġgranted":9550,"but":9551,"Ġescape":9552,"poss":9553,"ÐµÐ½":9554,"Mo":9555,"Ġscroll":9556,"Ġconsec":9557,"ĠRod":9558,"texttt":9559,"agraph":9560,"sa":9561,"DOCTYPE":9562,"istence":9563,"ĠVector":9564,"EEEEFF":9565,"PROC":9566,"Ġskip":9567,"Ġcalculated":9568,"python":9569,"Math":9570,"(\"/":9571,"WR":9572,"IDTH":9573,"Ġbuf":9574,"Ġfacilities":9575,"Ġblood":9576,"sb":9577,"constructor":9578,"Ġcult":9579,"VALID":9580,"STATE":9581,"Ġcapture":9582,"ĠMic":9583,"ITION":9584,"Ġpropos":9585,"ĠGlobal":9586,"HP":9587,"aska":9588,"Ġphotograph":9589,"Ġdamage":9590,"ĠDesign":9591,"Ġtools":9592,"Ġstock":9593,"bel":9594,"Install":9595,"Ġexecute":9596,"uum":9597,"'\\":9598,"Ġofficially":9599,"Ġspl":9600,"ĠShort":9601,"Ġcars":9602,"amel":9603,"rim":9604,"ĠMike":9605,"report":9606,"Bean":9607,"German":9608,"Ġroll":9609,"Ġprocedure":9610,"Ġsyn":9611,"Ġok":9612,"ĠAny":9613,"ĠWin":9614,"Comple":9615,"condition":9616,"Sort":9617,"hetic":9618,"multicol":9619,"ĠPremier":9620,"Ids":9621,"Ġ\"$":9622,"aux":9623,"ĠBatt":9624,"ĠPhiladelphia":9625,"ĠFair":9626,"Ġmunicipal":9627,"áĥ":9628,"owner":9629,"'];":9630,"warning":9631,"azy":9632,"Fragment":9633,"125":9634,"fc":9635,"ictures":9636,"uly":9637,"optional":9638,"wegian":9639,"Stop":9640,"Ġpull":9641,"Ġsupports":9642,"ĠGro":9643,"Ġbelieve":9644,"ivery":9645,"Ġvary":9646,"ĠPeak":9647,"ĠNetherlands":9648,"wp":9649,"Ġfrag":9650,"gregate":9651,"Ġscalar":9652,"destroy":9653,"Tax":9654,"Nov":9655,"Ġdomin":9656,"ĠFil":9657,"about":9658,"Ġwind":9659,"ĠRest":9660,"empt":9661,"Endpoint":9662,"Ġsubsequent":9663,"igital":9664,"ĠVen":9665,"resolve":9666,"islative":9667,"Children":9668,"atern":9669,"Ġparticipated":9670,"Ġextrem":9671,"1931":9672,"Ġrural":9673,"Ign":9674,"ĠRen":9675,"Ġnotable":9676,"PU":9677,"Ġpsych":9678,"Ġfraction":9679,"inson":9680,"\"/":9681,"trl":9682,"rg":9683,"Ġelev":9684,"Ġhabit":9685,"mc":9686,"arring":9687,"ĠPers":9688,"ĠChris":9689,"Ġexperiments":9690,"Ġdrive":9691,"ĠSwedish":9692,"Ġbeat":9693,"Ġgrew":9694,"sync":9695,"Ġclaims":9696,"ĠValid":9697,"Ġhosted":9698,"Ġminister":9699,"IVE":9700,"large":9701,"HL":9702,"Ġmd":9703,"Mouse":9704,"world":9705,"ĠTR":9706,"Ġconference":9707,"Ġchampion":9708,"ixels":9709,"oked":9710,"Enumer":9711,"Ġfelt":9712,"Ġlargely":9713,"ĠAnother":9714,"signature":9715,"law":9716,"lipse":9717,"French":9718,"1927":9719,"anga":9720,"acent":9721,"emetery":9722,"Ġcontest":9723,"flex":9724,"IGHT":9725,"plot":9726,"Ġplants":9727,"imb":9728,"tk":9729,"Cloud":9730,"Ġthous":9731,"checked":9732,"Ġwrong":9733,"'ll":9734,"Ġpoly":9735,"Compat":9736,"Ġends":9737,"FORM":9738,"multicolumn":9739,"Ġdance":9740,"101":9741,"ĠStadium":9742,"Ġperman":9743,"ĠMinnes":9744,"1922":9745,"Volume":9746,"Ġtheore":9747,"ĠTurk":9748,"estic":9749,"Ġextr":9750,"pur":9751,"'}":9752,"Ġstable":9753,"\"],":9754,"Ġcorresponds":9755,"Ġult":9756,"Ġalle":9757,"upload":9758,"Ġmountain":9759,"ĠStudies":9760,"Ġsides":9761,"Ġrob":9762,"Ġtranslate":9763,"'_":9764,"Ã¥":9765,"pair":9766,"Ġenh":9767,"PROJECT":9768,"ego":9769,"yal":9770,"ĠGra":9771,"NavBarFont":9772,"']['":9773,"Scal":9774,"1924":9775,"Spe":9776,"ships":9777,"ando":9778,"jQuery":9779,"ilters":9780,"Ġschema":9781,"ĠMinnesota":9782,"eto":9783,"Ġisol":9784,"ĠIV":9785,"worth":9786,"trace":9787,"volume":9788,"Biography":9789,"ĠSon":9790,"Ġgalaxies":9791,"Ġvotes":9792,"CG":9793,"cow":9794,"ĠReal":9795,"helper":9796,"Ġrugby":9797,"Ġintr":9798,"ĠLat":9799,"Ġcomputed":9800,"Ġbegins":9801,"Dev":9802,"Ġpitch":9803,"Operator":9804,"ĠCub":9805,"Ġcandidates":9806,"getValue":9807,"Ã©s":9808,"ĠMedical":9809,"ĠBoolean":9810,":`":9811,"Ġsy":9812,"Ġpod":9813,"aph":9814,"unte":9815,"SK":9816,"Clear":9817,"Ġhouseholds":9818,"ĠLink":9819,"ĠConnect":9820,"ika":9821,"ĠLady":9822,"Ġbin":9823,"ĠWisconsin":9824,"Ġrespond":9825,"Native":9826,"acks":9827,"Ġtypical":9828,"Ġcomposer":9829,"Ġpassing":9830,"Olymp":9831,"Ġnarrow":9832,"{\"":9833,"Ġsales":9834,"ĠDuke":9835,"NSString":9836,"ĠÐ¿":9837,"Ġ'\\":9838,"Pe":9839,"Ġwing":9840,"Ġrough":9841,"Ġneighborhood":9842,".\",":9843,"ĠSoftware":9844,"Ġbrand":9845,"Ġtrees":9846,"cu":9847,"RT":9848,"hl":9849,"simple":9850,"Card":9851,"Ġtried":9852,"Ġpure":9853,"ĠBridge":9854,"flat":9855,"ĠSab":9856,"Ġminim":9857,"EventListener":9858,"ðŁ":9859,"Ġ($\\":9860,"oton":9861,"Required":9862,"Ġfru":9863,"ĠHind":9864,"ups":9865,"Ġsafety":9866,"Ġmultip":9867,"Ġdetect":9868,"urches":9869,"Ġapproximation":9870,"ArgumentException":9871,"undefined":9872,"selector":9873,"Ġparish":9874,"Ġinterpret":9875,"ĠProcess":9876,"Ġ$-":9877,"Ġserves":9878,"Ġentr":9879,"kens":9880,"icer":9881,"oster":9882,"Ġcitizens":9883,"reatest":9884,"Ġengineering":9885,"amazon":9886,"Ġacts":9887,"Ġgrowing":9888,"fold":9889,"ĠANY":9890,"Ġdynamics":9891,"Ġtransparent":9892,"DATA":9893,"ighth":9894,"Ġax":9895,"ĠSquad":9896,"transition":9897,"Ġreceiving":9898,"Ġprovider":9899,"Ġdetailed":9900,"ĠTai":9901,"Ġcontrovers":9902,"download":9903,"anna":9904,"Ġpatients":9905,"Ġharmon":9906,"/_":9907,"_{{\\":9908,"unes":9909,"ĠAnth":9910,"Ġ$[":9911,"IA":9912,"ĠLim":9913,"'ve":9914,"goto":9915,"opher":9916,"Enter":9917,"Ġdecor":9918,"Ġrecognized":9919,"Notification":9920,"icients":9921,"Ġhistoric":9922,"Ġcontents":9923,"semble":9924,"Ġ_.":9925,"Ġseed":9926,"åĪ":9927,"bigg":9928,"amental":9929,"FUN":9930,"ĠEND":9931,"Ġsoft":9932,"Ġbounds":9933,"ĠHay":9934,"Ġ{\"":9935,"ĠBrig":9936,"Ġextend":9937,"Ġcancer":9938,"Ġbeaut":9939,"RPC":9940,"Ġtemple":9941,"ĠCorn":9942,"regon":9943,"aling":9944,"ĠEnc":9945,"Ġele":9946,"rices":9947,"ailing":9948,"slice":9949,"Ġrat":9950,"ĠWeek":9951,"asty":9952,"Ġperfect":9953,"periment":9954,"ĠNa":9955,"Ġliber":9956,"Ġdocuments":9957,"1921":9958,"oplus":9959,"supported":9960,"Tra":9961,"Ġrise":9962,"atomic":9963,"ourse":9964,"dagger":9965,"Ġfine":9966,"release":9967,"Ġtrav":9968,"Ġcolspan":9969,"ressed":9970,"Ġsurn":9971,"Ġselector":9972,"ĠSign":9973,"Admin":9974,"ĠWars":9975,"ĠOt":9976,"Ġabsor":9977,"Ġago":9978,"Ġnumerical":9979,"Ġsynchron":9980,"jan":9981,"Ġteacher":9982,"life":9983,"Ġemb":9984,"ysics":9985,"ĠSpace":9986,"lower":9987,"Animation":9988,"ĠWinter":9989,"Ġce":9990,"Ġspecify":9991,"1925":9992,"Ġflex":9993,"typen":9994,"Limit":9995,"mad":9996,"Ġidentify":9997,"Ġenjoy":9998,"Ġcoordinates":9999,"ĠInput":10000,"ĠEnt":10001,"agnostics":10002,"Family":10003,"Film":10004,"*{":10005,"fall":10006,"het":10007,"Ġphen":10008,"ĠBeach":10009,"isted":10010,"Ġinstitutions":10011,"Lower":10012,"Framework":10013,"Find":10014,"Ġvehicle":10015,"ĠCustom":10016,"Ġdetection":10017,"Ġbehavi":10018,"ĠGre":10019,"Ġsatisfies":10020,"ambig":10021,"Ġprops":10022,"=\\\"":10023,"ĠHo":10024,"omorphism":10025,"Ġdescribes":10026,"database":10027,"ogram":10028,"ritical":10029,"ĠDist":10030,"isa":10031,"Ġpiano":10032,"sn":10033,"_);":10034,"Ġdefeat":10035,"ĠColl":10036,"1926":10037,"Ali":10038,"Ġmeasures":10039,"ĠRa":10040,"Ġtrace":10041,"Ġcamera":10042,"ĠDom":10043,"istical":10044,"Under":10045,"Move":10046,"PUT":10047,"validate":10048,"Ġfigures":10049,"Ġshut":10050,"inton":10051,"Ġcorner":10052,"ĠHun":10053,"ĠLive":10054,"Ġproceed":10055,"phas":10056,"Ġsomeone":10057,"evin":10058,"some":10059,"_+":10060,"Ġprime":10061,"1923":10062,"Ġagric":10063,"Ġhousing":10064,"equality":10065,"objects":10066,"ĠControl":10067,"Ġpurchased":10068,"Ġbind":10069,"ĠXML":10070,"opts":10071,"ĠPRO":10072,"udes":10073,"chain":10074,"Ġquestions":10075,"ĠDor":10076,"Ġcommunication":10077,"lik":10078,"ĠRecord":10079,"illery":10080,"Book":10081,"ĠAdministr":10082,"Ġdecay":10083,"Ġperforming":10084,"fully":10085,"Ġdifferences":10086,"puter":10087,"ĠDespite":10088,"ĠSerb":10089,"Ġorders":10090,"Ġleadership":10091,"ĠKim":10092,"Ġmomentum":10093,":[":10094,"Ġphilosoph":10095,"ĠTownship":10096,"Äĥ":10097,"Ġinstances":10098,"season":10099,"andy":10100,"ĠCzech":10101,"_{(":10102,"ĠSweden":10103,"once":10104,"ĠĠĠĠĠĠĠĠĠĠĠĠĠĠĠĠĠĠĠĠĠĠĠĠĠĠĠĠĠĠ":10105,"\"].":10106,"tf":10107,"Ġintegral":10108,"Sch":10109,"Fore":10110,"ĠCas":10111,"Ġpaths":10112,"Hz":10113,"Ġmedalists":10114,"changed":10115,"Ġmodes":10116,"inherit":10117,"enna":10118,"Ġcrime":10119,"aligned":10120,"****************************************************************":10121,"Ġcontinues":10122,"COMP":10123,"Email":10124,">\\":10125,"design":10126,"ĠBudd":10127,"180":10128,"ĠDoug":10129,"Ġ(),":10130,"abil":10131,"ĠTerr":10132,"Ġready":10133,"ĠApache":10134,"Ġincreases":10135,"Ġ>>":10136,"ĠBishop":10137,"Ġmo":10138,"typename":10139,"Ġshop":10140,"aug":10141,"such":10142,"%%%%%%%%":10143,"asters":10144,"plom":10145,"Ġclimate":10146,"ennessee":10147,"Ġswim":10148,"Ġindustrial":10149,"ENTRY":10150,"Ġmiles":10151,"iner":10152,"DEBUG":10153,"Ġtransformation":10154,"apol":10155,"ilevel":10156,"cores":10157,"REG":10158,"Ġfragment":10159,"eli":10160,"ĠGolden":10161,"ĠPublish":10162,"Ġlie":10163,"»¿":10164,"Day":10165,"MODE":10166,"Ġpolitics":10167,"Ġpaid":10168,"Ġ@\"":10169,"Ġwrest":10170,"agonal":10171,"Environment":10172,"Olympic":10173,"Ġlattice":10174,"ĠNAV":10175,"Ġexecuted":10176,"factory":10177,"ĠallClasses":10178,"CB":10179,"Ġdegrees":10180,"1912":10181,"Ġsurrounding":10182,"Wallet":10183,"Ġpromotion":10184,"DR":10185,"Using":10186,"apore":10187,"Ġassess":10188,"Awards":10189,"ĠallClassesLink":10190,"ĠBecause":10191,"ĠIndiana":10192,"MAC":10193,"1916":10194,"Sem":10195,"omot":10196,"ELD":10197,"ewidth":10198,"Ġfocused":10199,"Ġguarant":10200,"Ġapparent":10201,"ï»¿":10202,"Ã¢":10203,"Ġtowns":10204,"TT":10205,"']);":10206,"Ġdiam":10207,"Sql":10208,"Edge":10209,"Women":10210,"Ġdestination":10211,"ĠArm":10212,"haps":10213,"Ġadvanced":10214,"Ġrgba":10215,"ĠIndones":10216,"Ġdepending":10217,"ĠHard":10218,"Ġrequested":10219,"compile":10220,"Ġsafe":10221,"Ġfmt":10222,"duration":10223,"Ġdynamic":10224,"route":10225,"rizona":10226,"OF":10227,"orient":10228,"ropolitan":10229,"GC":10230,"Ġ^":10231,"ollary":10232,"METH":10233,"arnings":10234,"USER":10235,"dependent":10236,"Wait":10237,"Ġmeta":10238,"ante":10239,"scss":10240,"isting":10241,"ĠOptional":10242,"accept":10243,"Ġchemical":10244,"Ġestate":10245,"Ġnovels":10246,"ĠSIZE":10247,")[":10248,"InputStream":10249,"ogen":10250,"ĠMun":10251,"apis":10252,"Ġcircle":10253,"ĉĠĠĠĠĠĠĠ":10254,"1915":10255,"Unknown":10256,"verter":10257,"Ġ\"\",":10258,"Ġ''":10259,"uy":10260,"ĠGer":10261,"visible":10262,"ĠForest":10263,"Ġtells":10264,"zip":10265,"nergy":10266,"np":10267,"Hub":10268,"Ġresolve":10269,"Ġanalog":10270,"kh":10271,"Ġdiscussion":10272,"Ġstrongly":10273,"ĠCastle":10274,"Ġnuclear":10275,"uda":10276,"127":10277,"Ġcycl":10278,"Ġtrained":10279,"Ġburn":10280,"Ġvisited":10281,"Ġportion":10282,"Ġresulted":10283,"Ġmeant":10284,"Ġstrugg":10285,"ĠIraq":10286,"apsed":10287,"Ġtyped":10288,"Ġregarding":10289,"Sur":10290,"Ant":10291,"runtime":10292,"ĠNative":10293,"Ġstrateg":10294,"Flow":10295,"blem":10296,"Append":10297,"Ġurban":10298,"cases":10299,"lig":10300,"ĠGallery":10301,"Ġincident":10302,"ĠFROM":10303,"driver":10304,"ĠWat":10305,"ĠMcC":10306,"Ġeverything":10307,"Ġengineer":10308,"ationToken":10309,"ĠBru":10310,"Ġcursor":10311,"INS":10312,"Ġattempts":10313,"Save":10314,"ĠHence":10315,"Forms":10316,"Ġlat":10317,"ryption":10318,"GER":10319,"Ġconflict":10320,"Ġfemales":10321,"Ġtitled":10322,"ĠFamily":10323,"Ġintersection":10324,"ĠNaz":10325,"Ġcoupling":10326,"pective":10327,"Ġprotection":10328,"Ġ(;":10329,"Ð°Ð½":10330,"Serv":10331,"origin":10332,"living":10333,"Execution":10334,"Ġtechnical":10335,"extend":10336,"ĠObserv":10337,"mic":10338,"agen":10339,"catch":10340,"animation":10341,"Eq":10342,"Allow":10343,"ĠVi":10344,"omer":10345,"LOC":10346,"QU":10347,"agnostic":10348,"#{":10349,"ĠFox":10350,"Screen":10351,"Home":10352,"ĠEngineering":10353,"Many":10354,"Objects":10355,"Ġopts":10356,"ĠMilitary":10357,"Ġrepeated":10358,"ĠHal":10359,"Ġignore":10360,"Ital":10361,"erence":10362,"Ġearth":10363,"Ġterritory":10364,"ĠKal":10365,"mers":10366,"Ġdemand":10367,"ĠJoh":10368,"isEmpty":10369,"Ġgained":10370,"Ġkill":10371,"STRING":10372,"dash":10373,"Ġoptimal":10374,"Ġvehicles":10375,"Ġsexual":10376,"){\\":10377,"IOException":10378,"Private":10379,"Ġparliament":10380,"Ġofficials":10381,"usc":10382,"Ġsqu":10383,"ĠBh":10384,"Ġinspired":10385,"Ġmill":10386,"Ġbomb":10387,"Ġcoal":10388,"gal":10389,"ĠJacob":10390,"ĠSteve":10391,"wing":10392,"created":10393,"Ġdocumentary":10394,"Ġworth":10395,"Ġaffect":10396,"Ġcollected":10397,"cest":10398,"Ġaccuracy":10399,"bullet":10400,"adi":10401,"dc":10402,"Ġmobile":10403,"elly":10404,"aks":10405,"Ġperformances":10406,"Ġapilevel":10407,"ÑģÑĤ":10408,"ĠGree":10409,"SCR":10410,"ician":10411,"SELECT":10412,"ĠRon":10413,"Ġmorph":10414,"Ġvess":10415,"ĠBit":10416,"ĠStock":10417,"Ġmedium":10418,"wedge":10419,"Ġbow":10420,"Ġ\"%":10421,"How":10422,"Ġdimensions":10423,"ĠRow":10424,"SV":10425,"vol":10426,"Ġamb":10427,"Ġcrick":10428,"ifer":10429,"Ġfounder":10430,"Ġdialog":10431,"Look":10432,"eman":10433,"Ġstone":10434,"Ġgain":10435,"ĠCur":10436,"ĠProperty":10437,"ĠCountry":10438,"MIN":10439,"Ġrotation":10440,"ĠCaptain":10441,"æľ":10442,"Ġcontemporary":10443,"NotFound":10444,"perp":10445,"INTER":10446,"phony":10447,"Ġ\\\"":10448,"elle":10449,"Ġpowerful":10450,"Overview":10451,"Ġple":10452,"Ġheat":10453,"ĠReport":10454,"Ġheav":10455,"ĠKansas":10456,"seq":10457,"Ġangular":10458,"ĠAtlantic":10459,"ĠClient":10460,"ĠGreg":10461,"Ġexponent":10462,"Ġinvariant":10463,"Ġmechanism":10464,"chant":10465,"arest":10466,"Ġtopic":10467,"Join":10468,"Canadian":10469,"Ġouter":10470,"rv":10471,"Ġresident":10472,"ĠArthur":10473,"ĠAmazon":10474,"Db":10475,"Folder":10476,"ensis":10477,"tensor":10478,"variable":10479,"Series":10480,"ĠDavis":10481,",$":10482,"Ġsb":10483,"ĠBaron":10484,"Ġadvance":10485,">\"":10486,"issue":10487,"Are":10488,"Ġthick":10489,"Ġalias":10490,"uce":10491,"Ġadvert":10492,"Ġgovernor":10493,"Ġspring":10494,":@\"":10495,"Validation":10496,"ĠLast":10497,"Ġimag":10498,"EST":10499,"Ġ}\\":10500,">)":10501,"Cons":10502,"ĠStephen":10503,"ĠDun":10504,"merge":10505,"SSL":10506,"ÃŃa":10507,"Ġpseud":10508,"istant":10509,"Ġfaculty":10510,"fol":10511,"Ġanswer":10512,"ĠMaria":10513,"Life":10514,"cli":10515,"Named":10516,"Ġsupply":10517,"Ġefficient":10518,"avid":10519,"ĠColon":10520,"UD":10521,"Qual":10522,"ĠMoreover":10523,"Our":10524,"Ġseats":10525,"integer":10526,"Coll":10527,"separ":10528,"Env":10529,"}}_{":10530,"|}":10531,"Ġgeometry":10532,"Binding":10533,"Light":10534,"ĠWrite":10535,"Ġguard":10536,"Ġsuffered":10537,"ques":10538,"plementation":10539,"ierarchy":10540,"=\"../../../../../../../":10541,"Ġspatial":10542,"Ġrequirements":10543,"vard":10544,"Theme":10545,"Ġkernel":10546,"Ġabandon":10547,"closed":10548,"Ġ|\\":10549,"ĠAndroid":10550,"inals":10551,"ĠTransport":10552,"setup":10553,"Ġclock":10554,"Ġcomposition":10555,"ĠNAVBAR":10556,"Ġlaws":10557,"oes":10558,"ordan":10559,"Ġmonitor":10560,"Ġfans":10561,"Ġspectral":10562,"Ġranked":10563,"Ġconstraint":10564,"assandra":10565,"Ġloaded":10566,"ĠMissouri":10567,"Ġdelay":10568,"Ġ\"\";":10569,"Ġrestaur":10570,"ĠNorm":10571,"Ġadmin":10572,"Bibliography":10573,"icator":10574,")_":10575,"Ġpossibly":10576,"ĠOregon":10577,"pag":10578,"Ġcab":10579,"Ġfell":10580,"Ġunable":10581,"kwargs":10582,"ducer":10583,"ductions":10584,"ĠBooks":10585,"ĠMountain":10586,"Ġhour":10587,"onal":10588,"license":10589,"ears":10590,"Plot":10591,"Raw":10592,"oves":10593,"Fact":10594,"Ġcommittee":10595,"Ġscientific":10596,"Ġpicture":10597,"ĠLabor":10598,"FE":10599,"ĠDa":10600,"ĠIllegal":10601,"ĠAD":10602,"Ġmeasurements":10603,"Pod":10604,"Ġamplit":10605,"fred":10606,"FNGL":10607,"Ġregime":10608,"ogene":10609,"Ġlists":10610,"Ġcompletion":10611,"Ġdaily":10612,"Rate":10613,"Ġreserved":10614,"1913":10615,"Ġattached":10616,"ympt":10617,"Ġbands":10618,"western":10619,"east":10620,"Ġaffected":10621,"ĠUnit":10622,"Sm":10623,"ĠFace":10624,".\"\"\"":10625,"Cmd":10626,"overview":10627,"constr":10628,"Ġtail":10629,"Fn":10630,"Ġdog":10631,"ĠVo":10632,"Ð¾Ð²":10633,"Border":10634,"TestCase":10635,"Ġdistricts":10636,"ĠNon":10637,"Ġcart":10638,"ORDER":10639,"inus":10640,"highlight":10641,"ĠDam":10642,"Japan":10643,"Connect":10644,"Ġpriest":10645,"Ġdie":10646,"Constant":10647,"Ġspons":10648,"fef":10649,"construct":10650,"asm":10651,"Ġrom":10652,"ĠMunicip":10653,"Points":10654,"Nullable":10655,"Sportspeople":10656,"ĠTurkey":10657,"exit":10658,"fmt":10659,"Ñĩ":10660,"isset":10661,"ĠOperation":10662,"uffers":10663,"deprecated":10664,"Ġlosing":10665,"/{":10666,"ĠTal":10667,"ĠBall":10668,"zo":10669,"Ġ_,":10670,"Ġcolle":10671,"Basic":10672,"Ġlatest":10673,"ä»":10674,"BI":10675,"ĠNY":10676,"Ġprepar":10677,"ordon":10678,",'":10679,"ĠColorado":10680,"ĠRepresentatives":10681,"Ġarts":10682,"Â°":10683,"%\"":10684,"Ġfacility":10685,"Ġmerge":10686,"Eff":10687,"commons":10688,"Ġpurposes":10689,"Ġscheduled":10690,"Ġunderlying":10691,"sheet":10692,"pb":10693,"Ġ}}":10694,"Ġlimits":10695,"Ġbatch":10696,"Ġplus":10697,"Ġbillion":10698,"omics":10699,"Ġcorre":10700,"Ġdropped":10701,"ĠLcom":10702,"_{-":10703,"Populated":10704,"Ġspeech":10705,"Ġscoring":10706,"Normal":10707,"colon":10708,"ĠTrust":10709,"),\\":10710,"Ġdefend":10711,"Ġsaved":10712,"igrants":10713,"Users":10714,"ĠUsing":10715,"alert":10716,"Ġsubstant":10717,"Compiler":10718,"hedral":10719,"ĠSets":10720,"ĠHighway":10721,"Ġgap":10722,"Ġunderstanding":10723,"Ġproport":10724,"getElementById":10725,"policy":10726,"jet":10727,"enance":10728,"Ġgeneric":10729,"III":10730,"aus":10731,"porate":10732,"yy":10733,"ĠNav":10734,"disable":10735,"Ġletters":10736,"perm":10737,"Ġthreshold":10738,"Ġsimulations":10739,"Pers":10740,"Real":10741,"Warning":10742,"Ġcomments":10743,"ĠFederation":10744,"ounded":10745,"Ġpredict":10746,"Ġsys":10747,"views":10748,"ĠHan":10749,"Ã¼r":10750,"ĠMexican":10751,"ĠMemorial":10752,"trim":10753,"Ġsan":10754,"VE":10755,"ĠTennessee":10756,"Ġtell":10757,"ĠHas":10758,"convert":10759,"urr":10760,"Proto":10761,"Ġsimulation":10762,"itories":10763,"Ġconfirm":10764,"ĠStatus":10765,"ĠEnvironment":10766,"FR":10767,"å®":10768,"cussion":10769,"ronic":10770,"ĠHy":10771,"Ġsevent":10772,"lets":10773,"ellij":10774,"Ġvalign":10775,"Geography":10776,"Ġ'';":10777,"Serializer":10778,"rece":10779,"nn":10780,"Ġtrust":10781,"ĠALIGN":10782,"Ġrain":10783,"Ġimportance":10784,"Ġseparated":10785,"facebook":10786,"ĠSearch":10787,"ĠNorway":10788,"Microsoft":10789,"Ġinjury":10790,"Library":10791,".~(\\":10792,"Constructor":10793,"ĠGh":10794,"ĠGil":10795,"ĠWIT":10796,"ĠGuide":10797,"Ġfreedom":10798,"Ġaccident":10799,"ĠEth":10800,"fast":10801,"Ġemployed":10802,"arry":10803,"Ġinterested":10804,"/\"":10805,"batch":10806,"Errors":10807,"ĠLang":10808,"ĠCH":10809,"Ġsoc":10810,"topic":10811,"Ġvalidation":10812,"watch":10813,"%.":10814,"Pres":10815,"BL":10816,"Ġfinds":10817,"ĠSche":10818,"Ġsucceeded":10819,"Ġpret":10820,"Segment":10821,"ĠProposition":10822,"Throw":10823,"arse":10824,"Ġhands":10825,"Ġauthority":10826,"ĠEll":10827,"intellij":10828,"Ġassumption":10829,"Ġtal":10830,"Ġdesired":10831,"Complete":10832,"Following":10833,"edd":10834,"DIS":10835,"Ġvalidate":10836,"Ġadvantage":10837,"ĠBat":10838,"clone":10839,"Ġmerged":10840,"ĠJews":10841,"wt":10842,"Driver":10843,"Ġsubset":10844,"Ġimproved":10845,"ĠSunday":10846,"Ġcauses":10847,"ĠMelbourne":10848,"Ġdependencies":10849,"linewidth":10850,"ĠAh":10851,"ĠPier":10852,"ĠDO":10853,"react":10854,"submit":10855,"lat":10856,"lywood":10857,"Ġinvent":10858,"Ġachieve":10859,"ĠChristmas":10860,"attery":10861,")}(":10862,"ĠJunior":10863,"Ġemphas":10864,"ÏĦ":10865,"æĸ":10866,"tainment":10867,"Ġreform":10868,"Ġcorrelation":10869,"NET":10870,"gers":10871,"Information":10872,"Ġrepresentative":10873,"ktop":10874,"ĠTurn":10875,"ongo":10876,"ĠMoh":10877,"Ġjournalist":10878,"1911":10879,"Ġcoefficients":10880,"Ġbronze":10881,"iful":10882,"transaction":10883,"Ġsync":10884,"Ġcontrolled":10885,"Static":10886,"bd":10887,"Detail":10888,"ĠEP":10889,"uts":10890,"ĠPhilippines":10891,"ĠMoscow":10892,"Ġinvolving":10893,"ĠSat":10894,"Ġyards":10895,"NC":10896,"Ġpermission":10897,"ois":10898,"çĶ":10899,"~$\\":10900,"ANCE":10901,"Ġsam":10902,"Annotation":10903,"witzer":10904,"Ġrecognition":10905,"ĠWrit":10906,"mag":10907,"Ġtend":10908,"Death":10909,"ĠLtd":10910,"vertical":10911,"WORD":10912,"wd":10913,"Ġjs":10914,"ĠSurvey":10915,"orney":10916,"Ġpowers":10917,"ĠKhan":10918,"runner":10919,"Ġyounger":10920,"ĠCommun":10921,"mk":10922,"Ġpref":10923,"Ġinteractions":10924,"inations":10925,"ĠUkraine":10926,"navigation":10927,"ĠVari":10928,"GA":10929,"!\"":10930,"Ġtaught":10931,"Ġarms":10932,"Ġanimals":10933,"Ġbits":10934,"Ġtsd":10935,"ĠBaseball":10936,"rastructure":10937,"Validator":10938,"Ġauthorities":10939,"Ġscholar":10940,"nob":10941,"Ġ$$":10942,"Ġsql":10943,"Ġdyn":10944,"ĠAccess":10945,"700":10946,"ĠWAR":10947,"Rows":10948,"Ġtoward":10949,"scribe":10950,"ATTR":10951,"ILD":10952,"ĠFreder":10953,"activity":10954,"ĠResponse":10955,"assertTrue":10956,"Usage":10957,"Ġodd":10958,"But":10959,"()),":10960,"ĠSav":10961,"yrics":10962,"ĠNiger":10963,"ĠRose":10964,"idel":10965,"actic":10966,"Ġending":10967,"ĠRoss":10968,"fefefe":10969,"anes":10970,"Batch":10971,"Ġwins":10972,"Ġconversion":10973,"Ġpublication":10974,"Ġstyles":10975,"ĠFish":10976,"2023":10977,"ĠMaryland":10978,"ially":10979,"Ġresc":10980,"Consumer":10981,"Ġpieces":10982,"arguments":10983,"ĠLow":10984,"Ġelif":10985,"GroupName":10986,"ĠForeign":10987,"aded":10988,"Ġinequality":10989,"Ġisn":10990,"Ġtechnique":10991,"Platform":10992,"BPACK":10993,"osure":10994,"iph":10995,"Ġideas":10996,"Ġloan":10997,"uese":10998,"Ġsocket":10999,"Ġhypot":11000,"iration":11001,"CAA":11002,"ĠLewis":11003,"Ġcovers":11004,"ahoma":11005,"Ġfeet":11006,"Ġfrequently":11007,"ivals":11008,"stan":11009,"Ġcriminal":11010,"ORY":11011,"Ġexplan":11012,"wick":11013,"'d":11014,"prec":11015,"merce":11016,"Ġclin":11017,"ĠEven":11018,"Ġgather":11019,"ĠSE":11020,"Ġ'',":11021,"witzerland":11022,"Identity":11023,"usal":11024,"ĠBrad":11025,"iant":11026,"Ġrefers":11027,"Ġfinding":11028,"Ġboost":11029,"Ġtheatre":11030,"named":11031,"Ġcampus":11032,"Mapper":11033,"Binary":11034,"ĠPit":11035,"Ġsingular":11036,"tri":11037,"Å«":11038,"available":11039,"forEach":11040,"aren":11041,"Place":11042,"REE":11043,"wealth":11044,"incial":11045,"Ġtags":11046,"ĠHart":11047,"ista":11048,"Ġspot":11049,"memory":11050,"åĲ":11051,"ilib":11052,"}}(\\":11053,"Ġaudience":11054,"ĠSelect":11055,"Ġyellow":11056,"Ġhope":11057,"ĠMO":11058,"DOM":11059,"acew":11060,"Ġaddresses":11061,"=[":11062,"Ġvillages":11063,"ĠØ":11064,"calendar":11065,"een":11066,"Renderer":11067,"ĠCA":11068,"Ġsomew":11069,"Ġbalance":11070,"messages":11071,"uma":11072,"Ġcool":11073,"Tex":11074,"Ġturns":11075,"radio":11076,"mont":11077,"Ġapproaches":11078,"Ġuncertain":11079,"Ġinvestigation":11080,"Ġclearly":11081,"glyphicon":11082,"Ġfunctional":11083,"Ġsand":11084,"Black":11085,"Ġboy":11086,"ĠSlov":11087,"ket":11088,"pot":11089,"\\!\\!":11090,"utt":11091,"bell":11092,"kt":11093,"1908":11094,"Ġnominated":11095,"ĠSD":11096,"Ġbundle":11097,"Her":11098,"Present":11099,"pkg":11100,"Ġbroken":11101,"Ġpainting":11102,"ĠRights":11103,"Should":11104,"havior":11105,")\\,":11106,"ĠCare":11107,"DEF":11108,"FFER":11109,"Ġteaching":11110,"CONT":11111,"Ġmorning":11112,"general":11113,"spacing":11114,"Ġcurves":11115,"ĠMill":11116,")^{\\":11117,"constant":11118,"ĠArizona":11119,"Ġeducated":11120,"Ġintroduce":11121,"elements":11122,"ĠLeon":11123,"Tags":11124,"Ġmassive":11125,"program":11126,"Ġqualified":11127,"Ġdeploy":11128,"Ġconn":11129,"Ġopposite":11130,"Tim":11131,"ĠAge":11132,"dig":11133,"uli":11134,"ĠMalays":11135,"Î¹":11136,"chmark":11137,"poly":11138,"uling":11139,"LC":11140,"ĠPR":11141,"Chart":11142,"Ġconsult":11143,"Ġbor":11144,"Ġburied":11145,"ĠCurrent":11146,"Ġreduction":11147,"Ġconsisting":11148,"ambiguation":11149,"ĠAlbert":11150,"urations":11151,"rupted":11152,"ea":11153,"sig":11154,"ĠFord":11155,"ĠInternet":11156,"Ġdoctor":11157,"ushed":11158,"ĠRemove":11159,"Ġdesignated":11160,"uj":11161,"fetch":11162,"ĠĠĠĠĠĠĠĠĠĠĠĠĠĠĠĠĠĠĠĠĠĠĠĠĠĠĠĠĠĠĠĠĠĠĠĠĠĠĠĠĠĠĠĠĠĠĠ":11163,"Ġcharged":11164,"collect":11165,"Ġcoverage":11166,"Ġexplicitly":11167,"Timer":11168,"ANT":11169,"Ġspecifically":11170,"ĠAdv":11171,"lia":11172,"sequently":11173,"ĠUl":11174,"******":11175,"rank":11176,"ideos":11177,"Ġendpoint":11178,"alty":11179,"Ġfresh":11180,"ĠĠĠĠĠĠĠĠĠĠĠĠĠĠĠĠĠĠĠĠĠĠĠĠĠĠĠĠĠĠĠĠĠ":11181,"PHP":11182,"Ġperturb":11183,"spirit":11184,"Mount":11185,"wig":11186,"coln":11187,"Den":11188,"Ġconj":11189,"ĠDB":11190,"Ġfashion":11191,"bus":11192,"Ġminimal":11193,"gradient":11194,"forall":11195,"ARB":11196,"Encoded":11197,"ipher":11198,"ĠPi":11199,"Ġbill":11200,"TF":11201,"ĠLev":11202,"Ġplanning":11203,"anaged":11204,"Prof":11205,"ĠFront":11206,"ĠFA":11207,"Ġhall":11208,"ainian":11209,"etes":11210,"friend":11211,"ainers":11212,"ĠBet":11213,"ĠCab":11214,"Ġhorse":11215,"Ġholding":11216,"Ġfestival":11217,"sime":11218,"Ġapplicable":11219,"ĠPhilip":11220,"Ġidentifier":11221,"Ġinstruction":11222,"Although":11223,"Ġdenotes":11224,"heim":11225,"selection":11226,"including":11227,"ctic":11228,"ĠAbout":11229,"ĠTrump":11230,"CM":11231,"Ġtwenty":11232,"Ġsun":11233,"assign":11234,"Navigation":11235,"-(":11236,")_{":11237,"Ġmouse":11238,"NUM":11239,"esome":11240,"CLASS":11241,"William":11242,"ĠTag":11243,"Ġstats":11244,"Ġ'./":11245,"elastic":11246,"Ġoccasion":11247,"}$-":11248,"lot":11249,"Ġopin":11250,",\\,":11251,"develop":11252,"Ġwarning":11253,"cret":11254,"ĠAbstract":11255,"getId":11256,"Ġvocal":11257,"ĠNE":11258,"gar":11259,"ĠAmericans":11260,"thrift":11261,"Insert":11262,"Ġchairman":11263,"Ġpatterns":11264,"uties":11265,"ĠStandard":11266,"inciple":11267,"engers":11268,"Ġpermissions":11269,"simeq":11270,"putation":11271,"Ġcalculate":11272,"offs":11273,"cknowled":11274,"Counter":11275,"Ġarrested":11276,"icity":11277,"Ġphysics":11278,"ĠHou":11279,"rena":11280,"oor":11281,"series":11282,"rell":11283,"Ġideal":11284,"Ġalgorithms":11285,"ĠLag":11286,"ĠSingapore":11287,"paper":11288,"methods":11289,"Focus":11290,"ateur":11291,"tics":11292,"Ġmales":11293,"Ġfighting":11294,"Australian":11295,"Ġmatrices":11296,"Ġnob":11297,"Ġion":11298,"Ġsupporting":11299,"feed":11300,"bose":11301,"Ġdefense":11302,"dam":11303,"Ġstarring":11304,"ymn":11305,"generate":11306,"Condition":11307,"Bel":11308,"compare":11309,"Ġ(,":11310,"don":11311,"Ġdram":11312,"Export":11313,"porter":11314,"Ġcommands":11315,"Ġnarr":11316,"Ġrejected":11317,"Ġchanging":11318,"Ġjudge":11319,"ĠSaf":11320,"iva":11321,"mosph":11322,">;":11323,"Plan":11324,"Ġconvent":11325,"ĠWARRAN":11326,"ĠSquadron":11327,"ĠAffairs":11328,"Ġexports":11329,"Ġenvironmental":11330,"ĠSri":11331,"ĠSound":11332,"Figure":11333,"~~~~~~~~":11334,"Ġ{},":11335,"Ġtrains":11336,"ĠLike":11337,"onymous":11338,"Star":11339,"Messages":11340,"Ġmodify":11341,"$^{-":11342,"ĠðŁ":11343,"Addr":11344,"Ġsymmetric":11345,"functions":11346,"ĠStaff":11347,"Cursor":11348,"ĠDescription":11349,"RS":11350,"CHAR":11351,"Christ":11352,"Html":11353,"pad":11354,"Ġracing":11355,"Ġdrums":11356,"Ġnavbar":11357,"Ġ&=&":11358,"contact":11359,"django":11360,"Ġconsecutive":11361,"Ġvice":11362,"loaded":11363,"WEBPACK":11364,"references":11365,"Remote":11366,"Ġpasses":11367,"/.":11368,"subject":11369,"/\">":11370,"Resolver":11371,"icut":11372,"ĠFellow":11373,"bp":11374,"reader":11375,"Ġ\">":11376,"Ġeconomy":11377,"Ġinstant":11378,"ĉčĊ":11379,"Ġnucle":11380,"itter":11381,"Ġinject":11382,"ĠAnderson":11383,"ĠVietnam":11384,"ĠBefore":11385,"Ġsust":11386,"pload":11387,"Ġcompilation":11388,"gency":11389,"Ġlinked":11390,"aturday":11391,"Ġdrug":11392,"Ġintroduction":11393,"ĠMiller":11394,"HERE":11395,"Ġmel":11396,"Ġruntime":11397,"Material":11398,"Ġpayload":11399,"Ġsuggests":11400,"vals":11401,"Ġglass":11402,"Ġtempor":11403,"Ġoldest":11404,"Ġformerly":11405,"1890":11406,"oa":11407,"Ġpromise":11408,"Ġopposed":11409,"ĠLoad":11410,"Bottom":11411,"Ġopposition":11412,"ĠMock":11413,"Ġdrawn":11414,"ifold":11415,"resize":11416,"Ġextensive":11417,"ĠLic":11418,"aked":11419,"SG":11420,"ĠMas":11421,"angel":11422,"night":11423,"ĠCore":11424,"Drop":11425,"Ġbudget":11426,"anches":11427,"ĠCSS":11428,"Processor":11429,"Ġ+\\":11430,"Ġacceler":11431,"ĠIowa":11432,"[(":11433,"Ġattempted":11434,"ĠDEFAULT":11435,"Ġmanagers":11436,"ĠJos":11437,"Ġpoll":11438,"Ġapproved":11439,"Ġdeveloping":11440,"Ġstorm":11441,"Ġcoaches":11442,"cook":11443,"orer":11444,"Ġrich":11445,"notations":11446,"ĠBalt":11447,"Tile":11448,"ĠEntertainment":11449,"Ġopportunity":11450,"Loop":11451,"Ġwhereas":11452,"Shared":11453,"ĠCost":11454,"Ġdistributions":11455,"Ġconven":11456,"placement":11457,"ĠHoly":11458,"Ġcrow":11459,"ses":11460,"eled":11461,"blog":11462,"ĠSimon":11463,"ĠCart":11464,"ĠĠĠĠĠĠĠĠĠĠĊ":11465,"expression":11466,"gradle":11467,"ĠTa":11468,"ĠBurn":11469,"ĠLanguage":11470,"chart":11471,"Ġ\\(":11472,"ĠBuilding":11473,"ĠAustria":11474,"Weight":11475,"Ġaffili":11476,"ubble":11477,"abama":11478,"Ġphone":11479,"Ġ'.":11480,"Å¾":11481,"Îµ":11482,"quote":11483,"ĠCase":11484,"Ġ>>>":11485,"YY":11486,"ĠHarry":11487,"Word":11488,"ĠLeb":11489,"Ġsizes":11490,"Ġbinding":11491,"ĠLINE":11492,"ouses":11493,"Strategy":11494,"North":11495,"logo":11496,"Ġcommander":11497,"Ġroyal":11498,"Ġphenomen":11499,"Management":11500,"pin":11501,"Ġlocally":11502,"pid":11503,"Ġoptical":11504,"Ġcategories":11505,"Ġhappen":11506,"Audio":11507,"Ġloading":11508,"Groups":11509,"Cur":11510,"\\_":11511,"ving":11512,"Failure":11513,"Amount":11514,"Ġchallenge":11515,"Ġpremier":11516,"apel":11517,"Ġquadr":11518,"}}^":11519,"MAP":11520,"Ġdisplayed":11521,"ĠSimple":11522,"UMM":11523,"Cent":11524,"creens":11525,"Setting":11526,"Ġstores":11527,"Television":11528,"Ġpeace":11529,"Ġcoordinate":11530,"Ġcaptain":11531,"Ġig":11532,"Ġcompl":11533,"Ã©t":11534,"roit":11535,"contents":11536,"ĠKitt":11537,"disambiguation":11538,"Ġfunds":11539,"Ġentirely":11540,"ĠGreece":11541,"SCRIPT":11542,"IMPORTED":11543,"Ġcosts":11544,"iative":11545,"Ben":11546,"Future":11547,"ĠTer":11548,"Ġpainter":11549,"Convert":11550,"Ġexplained":11551,"endo":11552,"ï¼Į":11553,"strings":11554,"ĠFund":11555,"Ġplanet":11556,"]))":11557,"Ġ'%":11558,"ĠStory":11559,"Master":11560,"ĠAdam":11561,"extra":11562,"conv":11563,"Est":11564,"Contents":11565,"ĠApple":11566,"Ġalert":11567,"Mag":11568,"Ð¿":11569,"aza":11570,"ĠNorwegian":11571,"Ġbought":11572,"ĠStream":11573,"rium":11574,"Bal":11575,"Ġ<-":11576,"ĠKentucky":11577,"ogether":11578,"directory":11579,"ĠAre":11580,"Ġcharts":11581,"klahoma":11582,"wich":11583,"bridge":11584,"ĠSever":11585,"bums":11586,"ĉĉĉĉĉĉĉĉĉĉ":11587,"åħ":11588,"Ġarc":11589,"Ġchunk":11590,"ĠEarl":11591,"ĠKy":11592,"Ġsuperv":11593,"overning":11594,"amely":11595,"Ġcert":11596,"Zone":11597,"orro":11598,"ĠBab":11599,"subfigure":11600,"ĠModern":11601,"ĠProt":11602,"ÙĦ":11603,"ASSERT":11604,"6666":11605,"nie":11606,"Ġreaction":11607,"ivation":11608,"Ġmir":11609,"ĠPython":11610,"Ġdependence":11611,"Ġlayers":11612,"Ġvent":11613,"Ġvectors":11614,"Ġdetected":11615,"Ġadjacent":11616,"jack":11617,"eting":11618,"Ġbright":11619,"basic":11620,"ĠConfiguration":11621,"ĠLind":11622,"ĠFame":11623,"oi":11624,"native":11625,"ĠBos":11626,"former":11627,"Ġintegration":11628,"subsubsection":11629,"Ġjump":11630,"Ġcatalog":11631,"ĠFinally":11632,"Ġcas":11633,"ĠCape":11634,"Ġstress":11635,"Ġcritics":11636,"idges":11637,"ĠTokyo":11638,"ĠSM":11639,"ĠNext":11640,"audio":11641,"ĠBeng":11642,"ONG":11643,"ĠEmperor":11644,"Virtual":11645,"Ġheard":11646,"Ġmathemat":11647,"Ġproto":11648,"Ġmeasurement":11649,"INST":11650,"ĠBah":11651,"Ġaware":11652,"ultane":11653,"Ġlect":11654,"Ġlogging":11655,"Signature":11656,"ĠPot":11657,"Ġpreced":11658,"ĠServer":11659,"ĠSwitzerland":11660,"antasy":11661,"ras":11662,"$).":11663,"atters":11664,"Ġsixth":11665,"Extensions":11666,"sun":11667,"ĠWIDTH":11668,"Ġarrang":11669,"oda":11670,"Ġ----------------------------------------------------------------":11671,"outs":11672,"Center":11673,"ĠChen":11674,"lab":11675,"ichol":11676,"repo":11677,"aco":11678,"Ġ\".":11679,"Ġestimates":11680,"Ġconstants":11681,"Hon":11682,"Ġbuck":11683,"iggs":11684,"Runner":11685,"Ġnotation":11686,"Bad":11687,"FIELD":11688,"Ġalter":11689,"ĠNick":11690,"Ġspectra":11691,"Old":11692,"Î½":11693,"Ġinterior":11694,"_)":11695,"Major":11696,"ĠInfantry":11697,"GLE":11698,"Ġhers":11699,"agu":11700,"ĠTony":11701,"Ġtower":11702,"Ġdates":11703,"Ġremark":11704,"Ġinputs":11705,"isor":11706,"1905":11707,"BY":11708,"pages":11709,"Ġmach":11710,"rypted":11711,"ĠForces":11712,"Ġcompatible":11713,"Ġclosely":11714,"esian":11715,"Login":11716,"IAL":11717,"gi":11718,"enny":11719,"Ġpolicies":11720,"heading":11721,"FM":11722,"zy":11723,"burn":11724,"Dependency":11725,"inema":11726,"acher":11727,"Sam":11728,"toBe":11729,"retch":11730,"(\"#":11731,"ĠQueensland":11732,"Ġsending":11733,"Drawing":11734,"(['":11735,"001":11736,"Inner":11737,"issip":11738,"Ġelectronic":11739,"cfg":11740,"hist":11741,"ureau":11742,"ĠOcean":11743,"Ġles":11744,"ourney":11745,"Ġweather":11746,"Alloc":11747,"canvas":11748,"ocese":11749,"shop":11750,"ĠSin":11751,"Ġhor":11752,"country":11753,"ĠSher":11754,"ookie":11755,"ĠAmb":11756,"ĠEs":11757,"LOW":11758,"Encoding":11759,"Ġchance":11760,"urst":11761,"ĠÄ":11762,"Thus":11763,"ĠBulg":11764,"ĠMagazine":11765,"sym":11766,"jax":11767,"Ġtradition":11768,"remarks":11769,"usr":11770,"ĠPur":11771,"Ġdifferential":11772,"Ġroutes":11773,"ĠLjava":11774,"ogy":11775,"Ġfee":11776,"Ġheadquarters":11777,"ArrayList":11778,"analy":11779,"leton":11780,"Ġyields":11781,"ĠCloud":11782,"UK":11783,"wiki":11784,"uating":11785,"Men":11786,"Ġnegot":11787,"BUFFER":11788,"ATED":11789,"anim":11790,"Ġgirls":11791,"Ġbrothers":11792,"Ġultimately":11793,"ĠApplication":11794,"ĠChildren":11795,"Ġremember":11796,"gregation":11797,"elve":11798,"ĠManchester":11799,"Ġhole":11800,"incess":11801,"ĠJane":11802,"DATE":11803,"erd":11804,"uerto":11805,"Bounds":11806,"ĠSC":11807,"king":11808,";|":11809,"Fixture":11810,"Ġmand":11811,"scill":11812,"[]{":11813,"ĠCop":11814,"ĠChange":11815,"acon":11816,"pping":11817,"Ġmagnitude":11818,"ellite":11819,"Ġopacity":11820,"ĠReb":11821,"remark":11822,"iley":11823,"Ġusual":11824,"VICE":11825,"eros":11826,"loading":11827,"Ġoccupied":11828,"ĠBox":11829,"ĠOtt":11830,"Ġ$_":11831,"Nor":11832,"keep":11833,")^{-":11834,")\",":11835,"1906":11836,"createElement":11837,"ĠCG":11838,"team":11839,"ĠAM":11840,"ĠRoy":11841,"viewport":11842,"ĠWho":11843,"Ġcharges":11844,"ĠRol":11845,"Ġobservation":11846,"hd":11847,"urable":11848,"elled":11849,"Ġanchor":11850,"Ġmodules":11851,"ĠArk":11852,"counter":11853,"Android":11854,"Axis":11855,"encode":11856,"ĠRequ":11857,"NODE":11858,"Ep":11859,"lon":11860,"Ġmayor":11861,"Ġsuitable":11862,"encing":11863,"Ġanimated":11864,"1907":11865,"Standard":11866,"HEAD":11867,"ibraries":11868,"Ø±":11869,"ĠCy":11870,"Most":11871,"NR":11872,"Ġwinter":11873,"Ġcancell":11874,"eties":11875,"Prev":11876,"Ġnortheast":11877,"dk":11878,"Contains":11879,"Organ":11880,"1909":11881,"olo":11882,"EP":11883,"Ġmaintain":11884,"Ġiron":11885,"displayName":11886,"oust":11887,"Ġgar":11888,"ĠDouble":11889,"Ġwire":11890,"omorphic":11891,"blob":11892,"achelor":11893,"Ġreality":11894,"Ġexerc":11895,"ĠClark":11896,"Depth":11897,"Ġstellar":11898,"ĠDC":11899,"/*!":11900,"phrase":11901,"ĠSym":11902,"Ġgenerator":11903,"Vill":11904,"Ġviolence":11905,"icians":11906,"HC":11907,"Ġsons":11908,"CONFIG":11909,"ĠPlayer":11910,"Ġtypedef":11911,"rep":11912,")},":11913,"ĠGib":11914,"sat":11915,"DEX":11916,"patcher":11917,"ĠDoctor":11918,"à¥":11919,"__)":11920,"Ġindependence":11921,"Ġrefused":11922,"ĠJson":11923,"Ġsettled":11924,"anchor":11925,"Errorf":11926,"Ġreplacement":11927,"Ġdisestab":11928,"ĠNet":11929,"Ġfolk":11930,"Switch":11931,"LED":11932,"ĠOS":11933,"ĠMarine":11934,"rence":11935,"Ġdrink":11936,"Notable":11937,"Ġcombat":11938,"Ġindicating":11939,"Ġfails":11940,"Ġcolour":11941,"ugu":11942,"repository":11943,"licenses":11944,"Phil":11945,"repeat":11946,"-$":11947,"ĠTen":11948,"Contact":11949,"ĠFle":11950,"Ġbriefly":11951,".*;":11952,"Ġsituated":11953,"className":11954,"ĠVideo":11955,"{$\\":11956,"Ġ|=":11957,"Pred":11958,"mn":11959,"newcommand":11960,"iversary":11961,"possible":11962,"ĠChile":11963,"Ġsatisfy":11964,"Ġhousehold":11965,"ĠTree":11966,"Ġdiplom":11967,"Ġthir":11968,"ĠContext":11969,"anton":11970,"ĠÐ²":11971,"Attrib":11972,"ĠEric":11973,"inth":11974,"Ġbeam":11975,"angers":11976,"Ġcolors":11977,"Ġfunding":11978,"rypto":11979,"000000":11980,"erring":11981,"Ġdriving":11982,"archive":11983,"ĠLabour":11984,"enez":11985,"remote":11986,"ĠclassName":11987,")}{\\":11988,"ĠStone":11989,"Ġdecades":11990,"Ġmodal":11991,"Ġmanner":11992,"have":11993,"ĠLank":11994,"Ġedit":11995,"odot":11996,"ĠFac":11997,"Ġsingers":11998,"ĠON":11999,"ĠMit":12000,"ĠDir":12001,"Ġhistorian":12002,"zi":12003,"ĠLincoln":12004,"Ġkick":12005,"ikh":12006,"covery":12007,"connected":12008,"Ġprotest":12009,"Ġfilled":12010,"Split":12011,"Ġsell":12012,"Ġcausing":12013,"lu":12014,"Ġcontributed":12015,"ĠCreates":12016,"Ġbroke":12017,"validation":12018,"Ġfavour":12019,"Ke":12020,"ĠWell":12021,"ĠBra":12022,"ĠBrian":12023,"ĠZh":12024,"VAR":12025,"pmatrix":12026,"wik":12027,"Ġindicated":12028,"Ġtreated":12029,"touch":12030,"ĠDiego":12031,"TY":12032,"aired":12033,"ifts":12034,"Ġrepro":12035,"pend":12036,"Expected":12037,"irth":12038,"Ġschol":12039,"lap":12040,"Ġmusician":12041,"Ġlyrics":12042,"ĠPolicy":12043,"fff":12044,"sha":12045,"OPT":12046,"defer":12047,"atasets":12048,"Ġinterpre":12049,"Education":12050,"ĠHom":12051,"ĠFurthermore":12052,"Ġlearned":12053,"Ġfundamental":12054,"Ġpilot":12055,"AUT":12056,"ĠHans":12057,"ĠDark":12058,"Ġdrag":12059,"ĠCommunic":12060,"PY":12061,"previous":12062,"Ġsimpl":12063,"Accept":12064,"libs":12065,"Ġreson":12066,"LIST":12067,"EY":12068,"ĠFind":12069,"states":12070,"Same":12071,"Ð·":12072,"PM":12073,"Phone":12074,"Ġobserve":12075,"ĠGun":12076,"Ġ{%":12077,"Ġrecru":12078,"ĠNFL":12079,"\"},":12080,"})$.":12081,"ĠDream":12082,"cccc":12083,"ĠTemple":12084,"Ġcircum":12085,"ĠOnce":12086,"Ġahead":12087,"METHOD":12088,"ologists":12089,"Mal":12090,"ĠDeb":12091,"Ġinfinite":12092,"ardo":12093,"textsc":12094,"Console":12095,"Ġtruth":12096,"Ġinitialize":12097,"Constraint":12098,"relative":12099,"1904":12100,"folio":12101,"mass":12102,"Ġtargets":12103,"ĠBrun":12104,"edu":12105,"hello":12106,"ĠDelete":12107,"?\"":12108,"ATOR":12109,"ĠSquare":12110,"RED":12111,"Ġexperi":12112,"mac":12113,"ĠOfficer":12114,"ĠAlabama":12115,"Ġsurname":12116,"emony":12117,"osity":12118,"distance":12119,"Ġpriority":12120,"ĠOutput":12121,"Ġdrum":12122,"Holder":12123,"ĠRegional":12124,"Permission":12125,"Ġpermanent":12126,"ownt":12127,"argo":12128,"ĠBan":12129,"Reset":12130,"Ġtd":12131,"priv":12132,"allenge":12133,"agma":12134,"lad":12135,">'":12136,"Ġescap":12137,"Ġstandards":12138,"Deprecated":12139,"Ġattrib":12140,"Az":12141,"Ġherself":12142,"<<":12143,"Ġlake":12144,"Eval":12145,"mapsto":12146,"scala":12147,"hbox":12148,"\":\"":12149,"ĠBattalion":12150,"Ġclusters":12151,"$$\\":12152,"ntil":12153,"arsing":12154,"ordinate":12155,"columns":12156,"GR":12157,"ĠHor":12158,"Ġdelegate":12159,"ĠConstitution":12160,"igenous":12161,"Ġchecked":12162,"mitter":12163,"Ġobvious":12164,"oli":12165,"ĠNev":12166,"ĠThread":12167,"ifferent":12168,"Ġwalls":12169,"ĠGab":12170,"Ġprotein":12171,"ĠTelevision":12172,"agues":12173,"STATUS":12174,"UST":12175,"Timestamp":12176,"brid":12177,"Ġbodies":12178,"brand":12179,"ĠMA":12180,"Ġtemporary":12181,"opic":12182,"ĠMand":12183,"Cancel":12184,"ENV":12185,"ĠCru":12186,"ĠBillboard":12187,"Ġwitness":12188,"ials":12189,"logging":12190,"kov":12191,"Ġaired":12192,"ĠPO":12193,"Ġencounter":12194,"Ġdoor":12195,"Ġplease":12196,"acewatch":12197,"Ġalleged":12198,"Ġsportspeople":12199,"ĠConnecticut":12200,"ĠSH":12201,"oni":12202,"Optional":12203,"Stub":12204,"GN":12205,"ecture":12206,"ocks":12207,"eral":12208,"Arguments":12209,"Ġcontrols":12210,"}&":12211,"uris":12212,"Ġindices":12213,"Frames":12214,"ĠEvery":12215,"acket":12216,"ĠExpress":12217,"ĠGrant":12218,"Ġschedule":12219,"ĠLiter":12220,"ĠPa":12221,"Ġprojection":12222,"ilibrium":12223,"UMMARY":12224,"Cr":12225,"}^*":12226,"Ġfuel":12227,"ĠHoward":12228,"ĠHeart":12229,"ĠWalter":12230,"]+":12231,"agan":12232,"ĠThrough":12233,"Ġopera":12234,"Ġhotel":12235,"alias":12236,"Ġroof":12237,"'(":12238,"ĠDomin":12239,"links":12240,"opsis":12241,"Ġeye":12242,"Ġdomestic":12243,"=%":12244,"rpc":12245,"UND":12246,":'":12247,"olished":12248,"}))":12249,"complex":12250,"XXXX":12251,"ĠCR":12252,"ĠSenior":12253,"MEN":12254,"ĠSilver":12255,"Ġpacket":12256,"rame":12257,"Ġsupplied":12258,"swing":12259,"written":12260,"Observ":12261,"jb":12262,"oses":12263,"Ġdelta":12264,"ĠSpacewatch":12265,"acer":12266,"ĠDue":12267,"ĠTerm":12268,"Ġcompetitions":12269,"vertex":12270,"Week":12271,"antom":12272,"MR":12273,"Football":12274,"ĠEuro":12275,">()":12276,"ÅŁ":12277,"ĠFa":12278,"uuid":12279,"å¤":12280,"Ġreverse":12281,"Ġliqu":12282,"Ġwealth":12283,"ĠKat":12284,"Ġast":12285,"Chain":12286,"Ġphoto":12287,"Kit":12288,"Har":12289,"ĠIter":12290,"Club":12291,"Ġadapted":12292,"Ġvariation":12293,"Ġshortly":12294,"Sing":12295,"Ġjobs":12296,"ĠBuilder":12297,"igo":12298,"solr":12299,"Ġprinciple":12300,"ĠExecutive":12301,"Indian":12302,"parts":12303,"Ġpromote":12304,"getInstance":12305,"Super":12306,"Mut":12307,";|&":12308,"tre":12309,"Ġkilling":12310,"inx":12311,"ĠMarc":12312,"rystal":12313,"Ġaf":12314,"ATCH":12315,"Ġmixing":12316,"issippi":12317,"built":12318,"plane":12319,"Bool":12320,"CALL":12321,"ĠSky":12322,"ĠSimilar":12323,"Ġentitled":12324,"ĠCOVID":12325,"Ġminute":12326,"itivity":12327,"Ġgoverning":12328,"ĠTurkish":12329,"ĠDOM":12330,"apy":12331,"ieval":12332,"Ġgalaxy":12333,"will":12334,"Ġexhibition":12335,"Ġattacked":12336,"ĠLINEAR":12337,"cludes":12338,"ĠBOO":12339,"Ġscales":12340,"Ġ\"'":12341,"Ġhandling":12342,"ĠAllen":12343,"Ġairport":12344,"aton":12345,"Ġ=\\":12346,"Ġaspects":12347,"=$":12348,"ĠFOR":12349,"izers":12350,"ĠSuch":12351,"ige":12352,"Ġguns":12353,"Inf":12354,"Military":12355,"incor":12356,"ĠOC":12357,"Ġextremely":12358,"Ġapart":12359,"Ġpartnership":12360,"Ġwindows":12361,"Metrics":12362,"itecture":12363,"ĠStruct":12364,"ĠNap":12365,"ĠAT":12366,"Ġmyst":12367,"ĠJordan":12368,"Pal":12369,"Once":12370,"Ġidentical":12371,"elson":12372,"ĠThird":12373,"Ġfought":12374,"Ġdire":12375,"Ġtheoretical":12376,"cross":12377,"ĠSix":12378,"okes":12379,"Observer":12380,"ĠÑģ":12381,"cing":12382,"ĠEnergy":12383,"Ġagents":12384,"ĠPerson":12385,"rient":12386,"urance":12387,"ĠNik":12388,"Ġefficiency":12389,"Ġrecommended":12390,"ĠPatrick":12391,"Ġaria":12392,"ĠCOL":12393,"ĠArmen":12394,"Ġtrend":12395,"ymmetric":12396,"ido":12397,"Ġextensions":12398,"Ġdisable":12399,"Ġproducing":12400,"puted":12401,"ĠInn":12402,"Ġoscill":12403,"ãĢĤ":12404,"1903":12405,"Ġille":12406,"ĉĉĠĠĠ":12407,"ĠVar":12408,"Ġjazz":12409,"ĠQuery":12410,"odox":12411,"Ġvariant":12412,"RAY":12413,"ĠPromise":12414,"Millis":12415,"Ġstopped":12416,"ĠPlace":12417,"icode":12418,"(()":12419,"tz":12420,"ĠOklahoma":12421,"Ġna":12422,"inburgh":12423,"Ġlogic":12424,"Ġrunner":12425,"ĠJS":12426,"Ġpipeline":12427,"warn":12428,"á»":12429,"Ġtransmission":12430,"Ġaapt":12431,"ovation":12432,"Ġsed":12433,"mount":12434,"inces":12435,"Ġprompt":12436,"Ãł":12437,"Ġmasses":12438,"Exists":12439,"Ġdrivers":12440,"$~":12441,"ĠAmong":12442,"Ġtranslated":12443,"fb":12444,"Linear":12445,"ĠJam":12446,"lint":12447,"Ġcreates":12448,"ĠSwiss":12449,"ĠSocorro":12450,"ĠNaval":12451,"Ġemployees":12452,"avit":12453,"Ġban":12454,"Ġcommissioned":12455,"Ġweapons":12456,"ĠAnne":12457,"Ġreligion":12458,"Abs":12459,"ĉĠĠ":12460,"ĠRab":12461,"Mac":12462,"Ġprogramme":12463,"othing":12464,"Touch":12465,")$-":12466,"1901":12467,"pointer":12468,"ĠArgentina":12469,"Ġcm":12470,"ĠPas":12471,"maml":12472,"Ġped":12473,"ARD":12474,"Site":12475,"ĠPrint":12476,"Ġrational":12477,"observ":12478,"Ġorbit":12479,"rat":12480,"1880":12481,"hal":12482,"Ġsac":12483,"umps":12484,"Ġdefines":12485,"Ġcalculation":12486,"Ġaged":12487,"Ġsale":12488,"Ġenemy":12489,"Authentication":12490,"Ġwish":12491,"Ġconsidering":12492,"213":12493,"Ra":12494,"TAG":12495,"ĠHu":12496,"Expect":12497,"owned":12498,"Ġemp":12499,"specific":12500,"Ġsi":12501,"Ġoperate":12502,"1902":12503,"igate":12504,"anny":12505,"Ctrl":12506,"Ġmetres":12507,"Ġbehaviour":12508,"Literal":12509,"Ġgradient":12510,"Tasks":12511,"Born":12512,"Ġcricket":12513,"Ġener":12514,"äº":12515,"Ġinhabit":12516,"nest":12517,";\"|":12518,"Ġsoutheast":12519,"Ġwidget":12520,"SW":12521,"ĠPrix":12522,"Ġpresidential":12523,"Ġcredit":12524,"ĠIsraeli":12525,"aro":12526,"Promise":12527,"ĠAnthony":12528,"gz":12529,"FALSE":12530,"Ġpun":12531,"liest":12532,"ĠAgain":12533,"ĠSend":12534,"Ġcircuit":12535,"Ġkil":12536,"utors":12537,"ĠRey":12538,"BIT":12539,"ĠDal":12540,"Converter":12541,"RESULT":12542,"OC":12543,"Ġexplanation":12544,"ĠAud":12545,"fghan":12546,"ĠAle":12547,"ĠMatt":12548,"ĠĠĠĠĠĠĠĠĠĠĠĠĠĠĠĠĠĠĠĠĠĠĠĠĠĠĠĠĠĠĠĠĠĠĠĠĠ":12549,"(\"%":12550,"Ġsought":12551,"avia":12552,"Ïĥ":12553,"Ġrepository":12554,"uplicate":12555,"Ġclone":12556,"ĠPalest":12557,"direction":12558,"Ġns":12559,"Ġdanger":12560,"ĠCulture":12561,"Ġthermal":12562,"tp":12563,"ARG":12564,"Ġmaintained":12565,"gif":12566,"ĠHotel":12567,"tah":12568,"Ġignored":12569,"strip":12570,"Ġanimal":12571,"ĠGaussian":12572,"Ġconvers":12573,"FRA":12574,"Ġcharacteristic":12575,"Diff":12576,"Bro":12577,"bundle":12578,"respons":12579,"ĠSUMMARY":12580,"ĠSto":12581,"ĠBus":12582,"Ġgene":12583,"OutputStream":12584,"Ġbrain":12585,"ĠSel":12586,"ĠHawai":12587,"Missing":12588,"craft":12589,"was":12590,"Ġagree":12591,"GP":12592,"LETE":12593,"ugar":12594,"Ġfounding":12595,"Ġcb":12596,"Ġcov":12597,"ĠAst":12598,"emit":12599,"Random":12600,"ĠReference":12601,"Ġasympt":12602,"posing":12603,"ĠNCAA":12604,"ĠDaily":12605,"binding":12606,"ĠKer":12607,"Ġorth":12608,"ĠVirtual":12609,"Ã´":12610,"Executor":12611,"Tube":12612,"Ġadjust":12613,"Ġment":12614,"Ġregarded":12615,"clusions":12616,"Ġexplain":12617,"Ġatmosph":12618,"Ġfan":12619,"Original":12620,"ĠPortuguese":12621,"Pat":12622,"Ġleaf":12623,"venture":12624,"}}^{":12625,"Ġaid":12626,"Ġevaluation":12627,"Dynamic":12628,"isode":12629,"Ġskills":12630,"inject":12631,"Coin":12632,"Ġmist":12633,"Ġscenes":12634,"Ġlegend":12635,"Ġscenario":12636,"Ġproperly":12637,"ĠCemetery":12638,"Ġconsisted":12639,"unlock":12640,"Ġfetch":12641,"ĠDick":12642,"$;":12643,"Theorem":12644,"Ġsole":12645,"opter":12646,"ĠByte":12647,"Ġsecure":12648,"Ġsolar":12649,"Ġtransactions":12650,"Ġdirectors":12651,"Rot":12652,"Ġcomputation":12653,"('<":12654,"Ġguide":12655,">%":12656,"Ġcenturies":12657,"isis":12658,"Ġaccounts":12659,"Ġsimultane":12660,"timestamp":12661,"ä½":12662,"Snapshot":12663,"mobile":12664,"ographical":12665,"================================================================":12666,"ĠCroat":12667,"]}":12668,"ĠCoq":12669,"Ġ```":12670,"Ġlowest":12671,"Ġhair":12672,"ĠHonor":12673,"how":12674,"âĶ":12675,"Ġgender":12676,"Ġbacking":12677,"ĠCommonwealth":12678,"Ġliterary":12679,"ĠassertTrue":12680,"Ġoverflow":12681,"Ġimplied":12682,"nan":12683,"Columns":12684,"LICENSE":12685,"Ty":12686,"(\"\\":12687,"Serialization":12688,"vet":12689,"Ġconstitution":12690,"standard":12691,"\">(":12692,"(/":12693,"Ġretirement":12694,"Ġbuy":12695,"Ġtennis":12696,"Ġreaching":12697,"adoc":12698,"Ġhorizontal":12699,"Ġtexture":12700,"Ġstages":12701,"Ġimg":12702,"antly":12703,"ĠGordon":12704,"Ġcollections":12705,"ĠMoon":12706,"rules":12707,"Ġchurches":12708,"Ġargued":12709,"ĠWhit":12710,"Ġhide":12711,"Ġfaced":12712,"deep":12713,"East":12714,"CMD":12715,"abad":12716,"cancel":12717,"Ġtimestamp":12718,"ĠHop":12719,"square":12720,"Ġupdates":12721,"Ġplaceholder":12722,"dark":12723,"Rout":12724,"died":12725,"ĠHouston":12726,"Ġdry":12727,"Lib":12728,"[-":12729,"Ġparsed":12730,"Ġ-=":12731,"acht":12732,"cn":12733,"yll":12734,"vendor":12735,"ÛĮ":12736,"WIN":12737,"Ġstands":12738,"generator":12739,"Ġbelief":12740,"Uses":12741,"Ġflows":12742,"Ġheavily":12743,"Ġther":12744,"Ignore":12745,"ĠPay":12746,"Ġlocomot":12747,"Ġresistance":12748,"Culture":12749,"ocratic":12750,"UC":12751,"BM":12752,"Ġfs":12753,"Separ":12754,"David":12755,"Ġscattering":12756,"Ġpossibility":12757,")\\\\":12758,"boards":12759,"Ġpeer":12760,"examples":12761,"aron":12762,"Ġprepared":12763,"Ġfaith":12764,"phase":12765,"ĠJay":12766,"ĠBrigade":12767,"mma":12768,"Collect":12769,"TL":12770,"Ġroughly":12771,"ĠYouth":12772,"Ġmigr":12773,"Power":12774,"Ïģ":12775,"Ġhits":12776,"\\|_{":12777,"Ġuri":12778,"fish":12779,"iary":12780,"ĠPut":12781,"ĠKaz":12782,"ĠBelgium":12783,"ĠKEY":12784,"Ã«":12785,"ĠBuck":12786,"San":12787,"Ġtrail":12788,"Self":12789,"Academ":12790,"Ġsteel":12791,"ĠHockey":12792,"Ġvo":12793,"Ġlimitations":12794,"Ġperhaps":12795,"docker":12796,"111":12797,"Histor":12798,"sdk":12799,"Ġsoccer":12800,"ĠKa":12801,"regular":12802,"share":12803,"ulating":12804,"Owner":12805,"Ġcompiler":12806,"ĠSud":12807,"Ġbulk":12808,"Ġfired":12809,"ĠUr":12810,"wen":12811,"ÐµÑĢ":12812,"TIES":12813,"Ġextent":12814,"Ġeducational":12815,"ĠFull":12816,"Ġ{$":12817,"Ġcold":12818,"ĠDouglas":12819,"RUN":12820,"Enable":12821,"Ġworker":12822,"Ġjet":12823,"hpp":12824,"FP":12825,"ĠQuebec":12826,"Ġcovering":12827,"inch":12828,"ĠKam":12829,"Ġcarbon":12830,"Ġinstitution":12831,"Ġreserve":12832,"Ġengines":12833,"Ġoffices":12834,"DM":12835,"Ġscaling":12836,"GO":12837,"ĠPope":12838,"router":12839,"Ġrating":12840,"COMM":12841,"Ġexpressions":12842,"ceptor":12843,"Diagnostics":12844,"ulus":12845,"Ġbrown":12846,"Ġthrown":12847,"song":12848,"Verify":12849,"Ġinduced":12850,"Ġincorporated":12851,"ĠParse":12852,"mean":12853,"ĠPos":12854,"Ġlooks":12855,"Ġsummar":12856,"ĠTaiwan":12857,"Assembly":12858,"transport":12859,"aware":12860,"(.":12861,"imore":12862,"Roman":12863,"ĠBureau":12864,"spin":12865,"ĠFM":12866,"Ġiget":12867,"score":12868,"Ġprincip":12869,"abc":12870,"Ġstrike":12871,"apple":12872,"Ġworldwide":12873,"nobr":12874,"wi":12875,"Ġcoinc":12876,"fp":12877,"Ġæ":12878,"Europe":12879,"ingly":12880,"middle":12881,"ĠChampions":12882,"ĠToday":12883,"Ġclo":12884,"License":12885,"Ġri":12886,"hill":12887,"ĠBuffer":12888,"ixtures":12889,"nos":12890,"ĠVALIGN":12891,"Ġnamely":12892,"Ġpurchase":12893,"Ġaccompan":12894,"Drag":12895,"iral":12896,"Ġjoining":12897,"ĠLouisiana":12898,"################################":12899,"Ġsoci":12900,"ĠĠĠĠĠĠĠĠĠĠĠĠĠĠĠĠĠĠĠĠĠĠĠĠĠĠĠĠĠĠĠĠĠĠ":12901,"ĠNag":12902,"ĠAdministration":12903,"ĠAlber":12904,"Ġcommitted":12905,"116":12906,"texture":12907,"112":12908,"ĠJuan":12909,"ĠIslamic":12910,"Ġethnic":12911,"actual":12912,"strict":12913,"ĠVillage":12914,"ĠVice":12915,"mouth":12916,"Ġdependent":12917,"Ġcopyright":12918,"Ġexcit":12919,"FOR":12920,"ĠClear":12921,"Ġacid":12922,"Copyright":12923,"Ġaccurate":12924,"ĠNAS":12925,"Ġsolve":12926,"Ġsleep":12927,"Ġrear":12928,"Ġinfluenced":12929,"ĠDVD":12930,"ĠNic":12931,"joint":12932,"ĠHamiltonian":12933,"floor":12934,"ĠMotor":12935,"ĠWARRANTIES":12936,"ĠGard":12937,"ĠDenmark":12938,"ĠTun":12939,"sz":12940,"getString":12941,"frag":12942,"Ġreception":12943,"ĠSTART":12944,"ĠFacebook":12945,"Ġhy":12946,"ĠDictionary":12947,"Ġhomes":12948,"LY":12949,"Ġfranch":12950,"Shader":12951,"ĠPref":12952,"proposition":12953,"moment":12954,"ĠOak":12955,"Ġgraphs":12956,"Ġrout":12957,"ĠHamp":12958,"Reception":12959,"UEST":12960,"Ġmart":12961,"comple":12962,"Fixed":12963,"ĠHarris":12964,"Ġeffectively":12965,"Ġiterator":12966,"ASE":12967,"Ġwa":12968,"rik":12969,"102":12970,"Ġeveryone":12971,"iations":12972,"Ġownership":12973,"hot":12974,"Ġradiation":12975,"LIN":12976,"ĠFall":12977,"hook":12978,"history":12979,"UNT":12980,"mapping":12981,"Ġlawyer":12982,"Tuple":12983,"notify":12984,"prom":12985,"SPAN":12986,"Ġmetrics":12987,"Ġnick":12988,"Ġchose":12989,"BUILD":12990,"Ġcorrectly":12991,"ĠCond":12992,"ĠBOOST":12993,"ignore":12994,"ĠClasses":12995,"ĠSaturday":12996,"About":12997,"ĠRound":12998,"ĠPortugal":12999,"uity":13000,"Ġrecommend":13001,"ÙĨ":13002,"Ġconvergence":13003,"Ġpersons":13004,"compute":13005,"istol":13006,"They":13007,"1024":13008,"Vol":13009,"ssl":13010,"ĠEdinburgh":13011,"Ġhosts":13012,"ĠTABLE":13013,"iem":13014,"Ġgoto":13015,"aceae":13016,"Ġcalculations":13017,"Ġestablishment":13018,"Ġfleet":13019,"Ġreplacing":13020,"Ġcomplexity":13021,"ĠConstant":13022,"nik":13023,"Ġing":13024,"ented":13025,"><!--":13026,"Locale":13027,"ogeneous":13028,"Ġchampions":13029,"ĠSerial":13030,"City":13031,"unknown":13032,"oving":13033,"Songs":13034,"Ġglob":13035,"\\{\\":13036,"ders":13037,"plicated":13038,"stage":13039,"Ġtries":13040,"Ġpoetry":13041,"ĠFinn":13042,"ĠBry":13043,"Actions":13044,"Ġhighway":13045,"roc":13046,"Ġrotate":13047,"Ġstrip":13048,"Like":13049,"Ġvideos":13050,"leans":13051,"Ġpreserv":13052,"Win":13053,"Ġfake":13054,"eland":13055,"ĠPuerto":13056,"ĠCEO":13057,"ĠAws":13058,"Ġcached":13059,"ĠLiberal":13060,"Ġevaluate":13061,"Ġindeed":13062,"ĠIF":13063,"gric":13064,"GEN":13065,"Ġadvoc":13066,"Ġcodes":13067,"uscript":13068,"Ġinvited":13069,"Machine":13070,"Ġabandoned":13071,"Pojo":13072,"Codec":13073,"tik":13074,"Ġ--></":13075,"StringBuilder":13076,"brace":13077,"ĠHandle":13078,"Ġtemperatures":13079,"arrier":13080,"ĠNichol":13081,"getMessage":13082,"\"];":13083,"ACH":13084,"Ġcollaboration":13085,"glew":13086,"quant":13087,"----------":13088,"ĠAC":13089,"Ġspac":13090,"Ġ'\"":13091,"ĠAssoci":13092,"Rob":13093,"SOUR":13094,"ĠEag":13095,"altColor":13096,"binary":13097,"ĠLieutenant":13098,"Ã©r":13099,"TRAN":13100,"Ġpixel":13101,"photon":13102,"Mich":13103,"ĠLemmon":13104,"Ġmal":13105,"Ġcharacteristics":13106,"Another":13107,"Direction":13108,"Ġtheories":13109,"___":13110,"geo":13111,"ysql":13112,"Ġbelongs":13113,"Ġchapter":13114,"ĠKo":13115,"Ġoptimization":13116,"Expatriate":13117,"uni":13118,"getType":13119,"Been":13120,"ĠMaur":13121,"ĠContent":13122,"ĠJesus":13123,"Ġtables":13124,"Ġgreatest":13125,"inos":13126,"1898":13127,"hab":13128,"icing":13129,"inction":13130,"Mc":13131,"cong":13132,"ĠLib":13133,"ĠMississippi":13134,"encoding":13135,"Ġactresses":13136,"Ġsubjects":13137,"Ġpapers":13138,"Uniform":13139,"egration":13140,"ĠAntonio":13141,"Ġsequences":13142,"Ġhop":13143,"eric":13144,"Buf":13145,"Ġadm":13146,"Ġconsumer":13147,"Ġappearing":13148,"ĠMoore":13149,"Ġagency":13150,"ulp":13151,"Ġwaiting":13152,"è¯":13153,"odo":13154,"tsburgh":13155,"Ġdepos":13156,"INVALID":13157,"tooltip":13158,"Ġeyes":13159,"ĠHeritage":13160,"Ä«":13161,"ĠBrazilian":13162,"iveness":13163,"ĠSpr":13164,"ĠDanish":13165,"ĠNever":13166,"mms":13167,"unities":13168,"ursive":13169,"Ġwants":13170,"Ġpit":13171,"ĠOrth":13172,"Download":13173,"Flor":13174,"Ġplate":13175,"StyleID":13176,"Special":13177,"×ķ":13178,"Ġconcluded":13179,"allas":13180,"ĠDigital":13181,"ruption":13182,"ashi":13183,"Upload":13184,"rele":13185,"LEMENT":13186,"igator":13187,"annotations":13188,"asa":13189,"aman":13190,"Ġmile":13191,"Ġfolder":13192,"good":13193,"arance":13194,"ĠDur":13195,"Disc":13196,"Ġ\"[":13197,"ividual":13198,"verify":13199,"Watch":13200,"Introduction":13201,"Bits":13202,"uffix":13203,"IZ":13204,"ailability":13205,"Rober":13206,"ĠDetroit":13207,"Lem":13208,"formed":13209,"Ġintegrated":13210,"SF":13211,"Ġcaught":13212,"Ġhumans":13213,"Ãª":13214,"RECT":13215,"Ġinterests":13216,"ĠDest":13217,"ĠIndonesia":13218,"}\",":13219,"uction":13220,"ĠSport":13221,"Design":13222,"ygon":13223,"loyd":13224,"iri":13225,"issance":13226,"Ġvolunte":13227,"ĠDak":13228,"AI":13229,"115":13230,"twitter":13231,"Ġvoted":13232,"Ġtriple":13233,"Declaration":13234,"Ġlaid":13235,"Ġmembership":13236,"Packet":13237,"Kn":13238,"ĠWy":13239,"Ġinherit":13240,"Ġbed":13241,"ĠGram":13242,"execution":13243,"ĠColomb":13244,"ĠStew":13245,"Ġpand":13246,"Ġconcerns":13247,"Ġsignals":13248,"inator":13249,"CREATE":13250,"Ġdst":13251,"pref":13252,"Ġweights":13253,"ĠMond":13254,"UES":13255,"fake":13256,"Rich":13257,"<>();":13258,"ĠFuture":13259,"Ġ'#":13260,"ĠImmutable":13261,"plain":13262,"ĠSV":13263,"Ġceremony":13264,"Controls":13265,"ĠAppend":13266,"ĠDublin":13267,"urd":13268,"cursor":13269,"otten":13270,"danger":13271,"1899":13272,"iggest":13273,"Ġfly":13274,"Ġpassenger":13275,"Ġstadium":13276,"crement":13277,"Ġfoundation":13278,"Ġliteral":13279,"Ġsymbols":13280,"Partition":13281,"ĠStudios":13282,"117":13283,"period":13284,"earning":13285,"Analysis":13286,"ĠInvest":13287,"Just":13288,"Ġstating":13289,"Ġĉ":13290,"ĠLogger":13291,"ĠRuntime":13292,"ilk":13293,"Ġstatistical":13294,"HOME":13295,"ĠVin":13296,"speed":13297,"eget":13298,"Ġbold":13299,"ĉĉĉĉĊ":13300,"ĠInstead":13301,"finals":13302,"rock":13303,"ĠHollywood":13304,"aten":13305,"Team":13306,"ĠBangl":13307,"interval":13308,"Ġalpha":13309,"keeper":13310,"Ġprediction":13311,"Ġfold":13312,"concat":13313,"owski":13314,"Official":13315,"story":13316,"ĠImperial":13317,"ĠMatthe":13318,"105":13319,"party":13320,"riterion":13321,"Ġrig":13322,"third":13323,"Ġneighbour":13324,"Ġconclude":13325,"Ġdismiss":13326,"nia":13327,"Ġtouchdown":13328,"Ġfinishing":13329,"UBLIC":13330,"Ġinaug":13331,"ĠTreat":13332,"leveland":13333,"ĠHills":13334,"ĠDonald":13335,"ĠSite":13336,"ĠBlo":13337,"Ġencoded":13338,"Ġsud":13339,"ctree":13340,"uber":13341,"Ġinteract":13342,"Ġdelivered":13343,"Ġinvasion":13344,"ĠJob":13345,"Ġentrance":13346,"apl":13347,"Ġpending":13348,"Ġboat":13349,"Ġproduces":13350,"shell":13351,"Ġbenefit":13352,"Transition":13353,"NameLink":13354,"^{+":13355,"ĠDisney":13356,"Ġedited":13357,"Ġfluct":13358,"ĠProp":13359,"pic":13360,"ĠLam":13361,"Ġimmediate":13362,"Ġislands":13363,"Ġpaintings":13364,"atted":13365,"Ga":13366,"Ġhappened":13367,"ĠCow":13368,"ubern":13369,"ayan":13370,"Former":13371,"ILITY":13372,"Buildings":13373,"asp":13374,"Ġrival":13375,"dn":13376,"ĠIndependent":13377,"urrican":13378,"Ġbreaking":13379,"ried":13380,"arity":13381,"icular":13382,"olid":13383,"ĠWalker":13384,"ĠContin":13385,"odge":13386,"ĠPrivate":13387,"PROP":13388,"ĠÃī":13389,"ubb":13390,"prob":13391,"Ġtested":13392,"folder":13393,"dynamic":13394,"cassandra":13395,"Ġfi":13396,"Anim":13397,"Ġhuge":13398,"bey":13399,"tl":13400,"gies":13401,"itals":13402,"owntown":13403,"Ġmoves":13404,"ĠFix":13405,"timer":13406,"ĠInit":13407,"ARNING":13408,"FileName":13409,"tm":13410,"Ġtrip":13411,"Ġcrossing":13412,"displaystyle":13413,"Ġinjured":13414,"Ġroots":13415,"Ġmidfield":13416,"Ġprofession":13417,"uis":13418,"ĠAuto":13419,"ssue":13420,"orses":13421,"Radio":13422,"Ġcoins":13423,"360":13424,"esis":13425,"Ġ'@":13426,"è¿":13427,"ICATION":13428,"ĠMiami":13429,"}({\\":13430,"140":13431,"Ġterminal":13432,"pragma":13433,"Ġexplo":13434,"Relation":13435,"ĠEarly":13436,"ĠRange":13437,"ĠUkrainian":13438,"Ġrevolution":13439,"Ġpione":13440,"Ġ#{":13441,"ĠGirl":13442,"Ġstanding":13443,"through":13444,"Ġcyc":13445,"ĠRight":13446,"Ġversus":13447,"ĠFern":13448,"Production":13449,"LAY":13450,"days":13451,"Ġvot":13452,"Ġreign":13453,"Ġclip":13454,"ĠMedicine":13455,"??":13456,"åĬ":13457,"Zero":13458,"Ġabund":13459,"rtl":13460,"Ġusername":13461,"inian":13462,"Ġlumin":13463,"ĠAlan":13464,"Ġinverse":13465,"intro":13466,"Ġdictionary":13467,"1870":13468,"Ġinfer":13469,"Ġhun":13470,"Ġwarm":13471,"imp":13472,"ĠPed":13473,"allest":13474,"week":13475,"Ð°ÑĤ":13476,"ĠRyan":13477,"Ġdust":13478,"Idx":13479,"Ġabsence":13480,"Ġrecall":13481,"slide":13482,"Ġdiscrim":13483,"ĠLas":13484,"Will":13485,"Grad":13486,"Ġexpert":13487,"ĠFrederick":13488,"ahn":13489,"Ġpublications":13490,"Ġamplitude":13491,"Ġruled":13492,"Ġpredicted":13493,"vi":13494,"Instruction":13495,",\\,\\":13496,"expand":13497,"Gui":13498,"algorithm":13499,"1895":13500,"Ġgrade":13501,"Ms":13502,"Ġtropical":13503,"ĠAddress":13504,"Ġsomewhat":13505,"ĠURI":13506,"ĠĠĠĠĠĠĠĠĠĠĠĠĠĠĠĠĠĠĠĠĠĠĠĠĠĠĠĠĠĠĠĠĠĠĠĠ":13507,"Ġcy":13508,"Ġtrivial":13509,"Ġinherited":13510,"Ġ(%":13511,"Ġshock":13512,"ceived":13513,"Ġblog":13514,"ickets":13515,"idad":13516,"door":13517,"kernel":13518,"isen":13519,"Ġclim":13520,"ĠDol":13521,"Ġ'-":13522,"ERS":13523,"ĠEV":13524,"Ġbirds":13525,"Ġabort":13526,"ĠComponent":13527,"Ġpup":13528,"igious":13529,"Ġsurg":13530,"Dat":13531,"linux":13532,"ĠConvert":13533,"Ġstability":13534,"Ġreceiver":13535,"Finally":13536,"javax":13537,"Ġpayment":13538,"Na":13539,"1897":13540,"Ġfaster":13541,"Available":13542,"ĠTool":13543,"Japanese":13544,"Ġcomic":13545,"cribed":13546,"Running":13547,"Ġdefinitions":13548,"Ã³w":13549,"incorporated":13550,"Ġdisappe":13551,"iop":13552,"enezuel":13553,"ĠOpera":13554,"Ġprecision":13555,"ĠBowl":13556,"Ġdeleted":13557,"Ġslot":13558,"ĠHarvard":13559,"comb":13560,"Ġresigned":13561,"azines":13562,"Decimal":13563,"ĠMrs":13564,"linked":13565,"amount":13566,"ĠVolume":13567,"BASE":13568,"ĠGarden":13569,"chunk":13570,"Ġchair":13571,"ĠSP":13572,"Ġham":13573,"Feed":13574,"Ġvm":13575,"ĠFALSE":13576,"ĠLegislative":13577,"Ġsentence":13578,"Ġ'''":13579,"icide":13580,"Ġ[\\":13581,"Ġintent":13582,"Ġdiscovery":13583,"sson":13584,"ĠPap":13585,"Pane":13586,"concurrent":13587,"anÃ§":13588,"Ġobjective":13589,"islation":13590,"ĠDave":13591,"Ġcompliance":13592,"Ġpatch":13593,"1896":13594,"fragment":13595,"DTD":13596,"ĠLore":13597,"ste":13598,"father":13599,"avis":13600,"members":13601,"ailand":13602,"ĠAfghan":13603,"Features":13604,"Ġhired":13605,"ĠMes":13606,"Ġcastle":13607,"ORK":13608,"URN":13609,"appendChild":13610,"Ġcapable":13611,"Supported":13612,"ĠDead":13613,"Ġaccum":13614,"getClass":13615,"__,":13616,"hour":13617,"Execute":13618,"Ġopinion":13619,"Reason":13620,"Side":13621,"GIN":13622,"ptic":13623,"lips":13624,"Ġstatements":13625,"ĠDeath":13626,"Where":13627,"aaaa":13628,"Asset":13629,"ibration":13630,"loss":13631,"atibility":13632,"Ġanyone":13633,"bara":13634,"ĠCole":13635,"ĠNum":13636,"Ġexcess":13637,"Ġsubsid":13638,"itempty":13639,"qual":13640,"ensitive":13641,"beans":13642,"Ġgoods":13643,"ovo":13644,"ĠHug":13645,"ĠIllegalArgumentException":13646,"Ġ&#":13647,"mix":13648,"omitempty":13649,"Ġturb":13650,"ĠKevin":13651,"sects":13652,"__[\"":13653,"Ġowners":13654,"ĠPA":13655,"ĠTab":13656,"ĠPlease":13657,"ĠAbd":13658,"ĠNob":13659,"listener":13660,"Month":13661,"Qt":13662,"cls":13663,"live":13664,"ĠSn":13665,"uh":13666,"Ġdescend":13667,"ĠĠčĊ":13668,"Ġclassified":13669,"ĠDefense":13670,"Ġengaged":13671,"ĪĴ":13672,"Ġsegments":13673,"Ùħ":13674,"Ġinvestment":13675,"Ġbusinesses":13676,"ĠSamuel":13677,"ĠOrchestra":13678,"Ġconsequence":13679,"Ġrenew":13680,"ĠLP":13681,"ĠDNA":13682,"RESS":13683,"ĠIR":13684,"Ġmort":13685,"Ġapplying":13686,"Analy":13687,"ocom":13688,"Ġcanonical":13689,".',":13690,"Ġhal":13691,"Rules":13692,"Ġdesigns":13693,"Ġexceed":13694,"Ġdescriptor":13695,"ĠGall":13696,"ourier":13697,"Ġpreferred":13698,"ĠInvalid":13699,"ĠReserve":13700,"Ġcollapse":13701,"alink":13702,"rang":13703,"oments":13704,"zed":13705,"!</":13706,"Ġdial":13707,"Fix":13708,"Ġsupposed":13709,"ĠInternal":13710,"Loading":13711,"Ġjunior":13712,"}}$.":13713,"Ġimplicit":13714,"Ġranges":13715,"who":13716,"Ġclassic":13717,"ĠDebug":13718,"Ġinhabitants":13719,"ĠDraw":13720,"Ġclosure":13721,"SUC":13722,"uble":13723,"Servlet":13724,"HOUT":13725,"Commit":13726,"Ġpossess":13727,"IMIT":13728,"Ġcompete":13729,"ENABLE":13730,"Ġgoogle":13731,">${":13732,"Ġpixels":13733,"Works":13734,"away":13735,"Ġbranches":13736,"extensions":13737,"Ġbiggest":13738,"Origin":13739,"Lang":13740,"Ġanth":13741,"tection":13742,"åŃ":13743,"Ġterror":13744,"oche":13745,"roph":13746,"amazonaws":13747,"Ġexcell":13748,"Ġcoefficient":13749,"AVE":13750,"sea":13751,"Ġintelligence":13752,"forcement":13753,"Ġ'_":13754,"Ġwrites":13755,"flush":13756,"()\">":13757,"care":13758,"Live":13759,"uki":13760,"Italian":13761,"Schedule":13762,"ĠMayor":13763,":=":13764,"Created":13765,"Ġdynasty":13766,")+\\":13767,"Ġfeedback":13768,"Ġboot":13769,"Ġsatisfied":13770,"Ġastr":13771,"Doctrine":13772,"Ġoccas":13773,"ĠSingh":13774,"addClass":13775,"æķ":13776,"ĠWorks":13777,"INSERT":13778,"Ġconvention":13779,"Ġrestricted":13780,"Ġcriteria":13781,"ĠBE":13782,"ĠÐ½":13783,"Villages":13784,"Ġdrawing":13785,"ĠChart":13786,"AE":13787,"Ġassignment":13788,"pipe":13789,"Suppress":13790,"mel":13791,"ĠTel":13792,"React":13793,"ĠEu":13794,"Changes":13795,"('./":13796,"theless":13797,"ĠGiven":13798,"Enumerable":13799,"Ġmes":13800,"})$,":13801,"ĠMPs":13802,"Ġaccused":13803,"ÃŃn":13804,"Ġprintf":13805,"Ġequality":13806,"ĠUtil":13807,"FLAG":13808,"Ġdecade":13809,")}_{":13810,"icky":13811,"ĠLaure":13812,"Fac":13813,"Ġresponsibility":13814,"iry":13815,"borough":13816,"ĠTraining":13817,"currency":13818,"ĠNull":13819,"ĠMalaysia":13820,"Ġtack":13821,"Railway":13822,"Ġpercentage":13823,"Ġparticipate":13824,"Ġdies":13825,"Ġconvex":13826,"Ġinvestigate":13827,"ĠFinland":13828,"eness":13829,"Ġdiscrete":13830,"Mass":13831,"Ġdescribing":13832,"OLD":13833,"Effect":13834,"Recip":13835,"Visual":13836,"Score":13837,"Ġmining":13838,"ebr":13839,"Vec":13840,"ĠMol":13841,"Ġkid":13842,"ĠBarn":13843,"million":13844,"Ġintermediate":13845,"White":13846,"ĠLanc":13847,"Ġrecordings":13848,"Ġease":13849,"ĠMust":13850,"ĠCommander":13851,"Ġquantity":13852,"hbar":13853,"Ġbug":13854,"MenuItem":13855,"Ġaccommod":13856,"Ġconclusion":13857,"verage":13858,"plicity":13859,"Ġpretty":13860,"ivated":13861,"rett":13862,"dst":13863,"localhost":13864,"Ġcanvas":13865,"Ġreads":13866,"ĠAgency":13867,"Ġappre":13868,"Ġentropy":13869,"Ġqueries":13870,"ĠTrib":13871,"bone":13872,"Ġconcrete":13873,"clip":13874,"amond":13875,"Ġbot":13876,"Ġlift":13877,"Ġsecretary":13878,"irt":13879,"Chunk":13880,"Ġhappens":13881,"may":13882,"Ġ\"${":13883,"104":13884,"Break":13885,"ĠStore":13886,"Ġformally":13887,"ĠProfile":13888,"ĠIron":13889,"Ġscores":13890,"LOAD":13891,"Medal":13892,"imize":13893,"BOOL":13894,"Ġmanifest":13895,"endpoint":13896,"ĠBou":13897,"Did":13898,"ĠPalace":13899,"James":13900,"Ġexped":13901,"Lines":13902,"|_{":13903,"Ġscr":13904,"ĠTar":13905,"Ġtwelve":13906,"Circ":13907,"Ġpatient":13908,"Ġrelationships":13909,"ĠTele":13910,"iah":13911,"cop":13912,")-\\":13913,"Ġwarn":13914,"except":13915,"}}$,":13916,"egas":13917,"sis":13918,"tikz":13919,"POS":13920,"foreach":13921,",.":13922,"Ġconservation":13923,"Ip":13924,"negative":13925,"Ġdense":13926,"Ġbom":13927,"statsmodels":13928,"itics":13929,"Ġcrash":13930,"aze":13931,"Primary":13932,"Ġderivative":13933,"/(":13934,"Ġbias":13935,"ĠCensus":13936,"delay":13937,"ĠTru":13938,"IDE":13939,"Ġframes":13940,"COM":13941,"aire":13942,"assador":13943,"Ġfra":13944,"publish":13945,"Ġprepare":13946,"bug":13947,"Ġmarg":13948,"ĠLawrence":13949,"ishops":13950,"arios":13951,"orus":13952,"secondary":13953,"9999":13954,"frames":13955,"Ġsyntax":13956,"eclipse":13957,"works":13958,"Ġpara":13959,"stances":13960,"ExternalTask":13961,"Ġlands":13962,"ĠAtlanta":13963,"×ķ×":13964,"Ġorientation":13965,"&=&":13966,"kar":13967,"Ġvolumes":13968,"Ġproposal":13969,"ĠChem":13970,"ĠSmall":13971,"stud":13972,"ĠMarshall":13973,"/***/":13974,"ĠEver":13975,"GBT":13976,"Ġmanage":13977,"Ġcommunic":13978,"Ġassets":13979,"toc":13980,"ĠWelsh":13981,"utdown":13982,"Ġec":13983,"enz":13984,"ĠPeters":13985,"atherine":13986,"Models":13987,"Bridge":13988,"Monitor":13989,"Paul":13990,"chell":13991,"sport":13992,"gov":13993,"metic":13994,"Ġdesigner":13995,"Ġ*,":13996,"Ġarmed":13997,"1893":13998,"ĠSeattle":13999,"erred":14000,"ĠKnow":14001,"olves":14002,"Ġroads":14003,"Ġexperienced":14004,"Ġexplos":14005,"ĠHistorical":14006,"Ġcellpadding":14007,"Ġcub":14008,"Bg":14009,"ĠMission":14010,"idal":14011,"compar":14012,"awesome":14013,"Ġresolved":14014,"spector":14015,"strument":14016,"Ġplatforms":14017,"Ġmob":14018,"wbr":14019,"Ġaddr":14020,"ĠAccount":14021,"Tok":14022,"proc":14023,"requency":14024,"ExternalTaskPojo":14025,"Contract":14026,"gow":14027,"Ġstroke":14028,"googleapis":14029,"ĠActive":14030,"ege":14031,"Ġcourses":14032,"ĠPsi":14033,"elcome":14034,"$),":14035,"ĠCP":14036,"Ġearliest":14037,"ĠML":14038,"March":14039,"1889":14040,"WI":14041,"decode":14042,"eron":14043,"ĠPear":14044,"')->":14045,"Ġpartially":14046,"fav":14047,"Pan":14048,"Ġhelps":14049,"ĠMountains":14050,"Ã¦":14051,"vironments":14052,"omas":14053,"Ġvirt":14054,"Ġsubgroup":14055,"ĠÃł":14056,"Ð¹":14057,"ĠMS":14058,"103":14059,"Mutable":14060,"Ġiteration":14061,"Ġneutral":14062,"}{|":14063,"ĠDim":14064,"Ġwx":14065,"Labels":14066,"Scott":14067,"Ġlob":14068,"take":14069,"ĠLook":14070,"Ġspr":14071,"Ġwat":14072,"ĠTig":14073,"TableRow":14074,"tile":14075,"Ġdream":14076,"Ġpractices":14077,"Delay":14078,"cle":14079,"Ġimpr":14080,"ĠFood":14081,"Ġthousands":14082,"Ġdt":14083,"Extra":14084,"ĠFarm":14085,"Ġrelax":14086,"Ñĸ":14087,"Ġjustice":14088,"Ġdoll":14089,"Ġcls":14090,"Formatter":14091,"ĠBart":14092,"quisition":14093,"Ġfluid":14094,"Round":14095,"ĠAdditionally":14096,"cline":14097,"running":14098,"August":14099,"Ġcrisis":14100,"Ġtuple":14101,"Ġfalls":14102,"Ġcle":14103,"aments":14104,"Ġperiods":14105,"Geometry":14106,"gs":14107,"Ġinfrastructure":14108,"matches":14109,"elihood":14110,"ĠKnight":14111,"isations":14112,"))$":14113,"1892":14114,"AST":14115,"features":14116,"ĠDeputy":14117,"stion":14118,"Ġthin":14119,"Russian":14120,"Ġbishop":14121,"ĠManager":14122,"Ġphilosophy":14123,"EVENT":14124,"ipedia":14125,"Ġcomputational":14126,"Ġshooting":14127,">`":14128,"Der":14129,"Calendar":14130,"ĠĠĠĠĠĠĠĠĠĠĠĠĠĠĠĠĠĠĠĠĊ":14131,"Ġparticipants":14132,"izard":14133,"ĠAngel":14134,"Ġaw":14135,"Ġdenoted":14136,"Ġirre":14137,"ĠTrack":14138,"onian":14139,"Typ":14140,"ographics":14141,"maps":14142,"ju":14143,"Ġinterpretation":14144,"cycle":14145,"rink":14146,"ÅĦ":14147,"Metric":14148,"toctree":14149,"Lookup":14150,"ĠDog":14151,"ĠFal":14152,"Ġregularly":14153,"'].":14154,"refresh":14155,"ĠPublished":14156,"Ã©n":14157,"Ġrestored":14158,"PREF":14159,"Ġ$|\\":14160,"Ġconstituency":14161,"Ġbid":14162,"ĠUP":14163,"Ġdiver":14164,"Ġcellspacing":14165,"payload":14166,"ĠERR":14167,"(--":14168,"geometry":14169,"rollers":14170,"ĠEditor":14171,"ĠMean":14172,"MEM":14173,"Ġmoder":14174,"reduce":14175,"ĠOk":14176,"blast":14177,"yers":14178,"Ġdeleg":14179,"CLA":14180,"Ġrespective":14181,"}$)":14182,"\\/":14183,"ĠFrame":14184,"Ġboundaries":14185,"ĠNatural":14186,"ĠAustrian":14187,"you":14188,"ĠRetri":14189,"ĠFi":14190,"Ġcomputing":14191,"ĠPC":14192,"Ġskin":14193,"Ġarrival":14194,"hibition":14195,"Therefore":14196,"Ġmatched":14197,"%\"><":14198,"Ġconcentration":14199,"************************************************************************":14200,"RET":14201,"ĠScient":14202,"tiny":14203,"ĠPublishing":14204,"Ġlosses":14205,"ĠSingle":14206,"Stud":14207,"xsd":14208,"rent":14209,"ulo":14210,"tail":14211,"ĠGon":14212,"Ġplain":14213,"Ġchecks":14214,"Alias":14215,"ipage":14216,"Ġdefaults":14217,"upper":14218,"Ġsigning":14219,"ĠLock":14220,"Ġ---":14221,"analysis":14222,"ughters":14223,"Ġresidence":14224,"mf":14225,"ĠArgument":14226,"Ġrestrict":14227,"cmp":14228,"gate":14229,"Ġflying":14230,"Ġdx":14231,"rig":14232,"Ġprize":14233,"ĠTry":14234,"ĠDatabase":14235,"Green":14236,"via":14237,"ĠPun":14238,"Ġpraised":14239,"oca":14240,"ipl":14241,"Ġfilters":14242,"ĠMontreal":14243,"Ġcompris":14244,"Ġassociate":14245,"Period":14246,"TOM":14247,"===":14248,"Ġlemma":14249,"Ġdominated":14250,"Paint":14251,"Ġveter":14252,"Ġtot":14253,"bigl":14254,"ĠBruce":14255,"Ġsucceed":14256,"ugosl":14257,"city":14258,"casting":14259,"ĠColumn":14260,"Ġwaters":14261,"datetime":14262,"ĠBed":14263,"Ġcharacterized":14264,"Must":14265,"Ġcompiled":14266,"continue":14267,"ativ":14268,"umbn":14269,"Ġsufficiently":14270,"ĠItem":14271,"Modified":14272,"Ġcards":14273,"ĠAnna":14274,"ĠMAX":14275,"Bus":14276,"Priority":14277,"ĠSecret":14278,")}}":14279,"enix":14280,"etal":14281,"Later":14282,"Ġintensity":14283,"listed":14284,"ĠPHP":14285,"âĶĢ":14286,"Ġgraduate":14287,"stood":14288,"ĠChairman":14289,"esture":14290,"Ġegg":14291,"vars":14292,"Ġsender":14293,"itative":14294,"Ġscholars":14295,"`:":14296,"ĠNep":14297,"bow":14298,"labels":14299,"ĠFried":14300,"Pixel":14301,"isely":14302,"Tracker":14303,"peg":14304,"ĠĠĠĠĠĠĠĠĠĠĠĠĠĠĠĠĠĠĠĠĠĠĠĠĠĠĠĠĠĠĠĠĠĠĠĠĠĠ":14305,"NONE":14306,"ĠKit":14307,"Ġentertain":14308,"ĠDance":14309,"Ġneither":14310,"Based":14311,"DED":14312,"Tri":14313,"overty":14314,"ĠIgn":14315,"adv":14316,"Ġredirect":14317,"ĠShould":14318,"ĠNash":14319,"Given":14320,"inea":14321,"404":14322,"gre":14323,"Ġdominant":14324,"]->":14325,"Ġtruck":14326,"urrence":14327,"inners":14328,"Ġpublishing":14329,"ĉĉĉĉĉĉĉĉĉĉĉ":14330,"locale":14331,"Ġretail":14332,"lope":14333,"Ġtank":14334,"Ġlit":14335,"heel":14336,"sr":14337,"Ġduty":14338,"ĠHungarian":14339,"ARRAY":14340,"delegate":14341,"Ġinduct":14342,"Cannot":14343,"*,":14344,"ĠAlliance":14345,"=\"{{":14346,"noframe":14347,"redirect":14348,"ĠRailroad":14349,"\"])":14350,"Ġinvolves":14351,"Und":14352,"ĠArkansas":14353,"ĠRugby":14354,"iso":14355,"ĠShah":14356,"CUR":14357,":}":14358,"1894":14359,"Ġswe":14360,"sure":14361,"Ġcustomer":14362,"1891":14363,"ĠFight":14364,"Ġå":14365,"Ġmit":14366,"anean":14367,"Ġ(#":14368,"Ġintention":14369,"ĠCommunist":14370,"ilst":14371,"Ġsynd":14372,"larg":14373,"Ġproducers":14374,"best":14375,"Ġadaptation":14376,"Ġknew":14377,"cpu":14378,"Li":14379,"ishing":14380,"Ġcarrying":14381,"Ġcustomers":14382,"medium":14383,"DITION":14384,"tv":14385,"ĠSeason":14386,"ĠThailand":14387,"Ġpassengers":14388,"traits":14389,"iverpool":14390,"ÏĢ":14391,"Ġisinstance":14392,"Please":14393,"Ġoffering":14394,"Ġunus":14395,"Ġuniversal":14396,"Ġclients":14397,"translate":14398,"endment":14399,"Ġmac":14400,"HashMap":14401,"elasticsearch":14402,"Ġconnecting":14403,"Ġpenalty":14404,"apolis":14405,"ĠPlant":14406,"Ġsinging":14407,"dispatch":14408,"popup":14409,"anian":14410,"etr":14411,"Ġtokens":14412,"UA":14413,"Ġvictims":14414,"Ġscientists":14415,"reason":14416,"ategor":14417,"Ġcaref":14418,"ĠTamil":14419,"1885":14420,"Ġseventh":14421,"ĠRio":14422,"Ġequals":14423,"1860":14424,"Ġboys":14425,"graphics":14426,"ĠMetro":14427,"Ġoperates":14428,"Ġarchae":14429,"Topic":14430,"oustic":14431,"Bitmap":14432,"Ġrepresentations":14433,"Ġcricketers":14434,"ĠBush":14435,"identity":14436,"Ġdivisions":14437,"eding":14438,"ĠINTO":14439,"algebra":14440,"updated":14441,"ĠOCaml":14442,"ÐµÑĤ":14443,"orizon":14444,"perimental":14445,"ĠGirls":14446,"getAttribute":14447,"nl":14448,"Ġsatisfying":14449,"wallet":14450,"Functions":14451,"Ġ^{":14452,"Ġdependency":14453,"ĠMorris":14454,"parallel":14455,"cx":14456,"Ġbes":14457,"ĠDean":14458,"ĠSeveral":14459,"ustries":14460,"Ġaccompl":14461,"ĠOttoman":14462,"ĠLower":14463,"Ġrooms":14464,"Ġmanip":14465,"Ġpopulations":14466,"Ġuncertainty":14467,"arith":14468,"Ġrein":14469,"Occ":14470,"ĠKelly":14471,"INCRE":14472,"failed":14473,"ĠTOP":14474,"three":14475,"oxy":14476,"Ġessentially":14477,"Sets":14478,"setAttribute":14479,"ĠBull":14480,"oser":14481,"tfrac":14482,"Ġassault":14483,"Ġgravity":14484,"Ġmedicine":14485,"fam":14486,"ViewController":14487,"ĠMetropolitan":14488,"plemented":14489,"Ġlegislation":14490,"Ġhero":14491,"Ġmanuscript":14492,"mutex":14493,"ĠRoger":14494,"eva":14495,"Country":14496,"alph":14497,"Ġdepict":14498,"bach":14499,"both":14500,"ĠUpper":14501,"Ġmolecular":14502,"Ġkeeping":14503,"Ġsteam":14504,"ĠUtah":14505,"Robert":14506,"Ġstudying":14507,"Ġwrapper":14508,"castle":14509,"NON":14510,"Ġemotion":14511,"bigr":14512,"multip":14513,"ĠWard":14514,"Ġretained":14515,"ĠStewart":14516,"çĶ¨":14517,"Ġmine":14518,"paragraph":14519,"}{(":14520,"Ġapplies":14521,"ĠMcG":14522,"Lat":14523,"Ġrevers":14524,"Il":14525,"ĠBetween":14526,"erialize":14527,"Received":14528,"Ġsubstantial":14529,"ĠHampshire":14530,"Ġpremiered":14531,"Ġuniversities":14532,"Ġnearest":14533,"marshall":14534,"ĠWITHOUT":14535,"ĠGlas":14536,"Ð¾Ð»":14537,"mate":14538,"Ġcloser":14539,"Ġinstruments":14540,"ĠBaltimore":14541,"half":14542,"ĠChampion":14543,"Ġgrounds":14544,"cv":14545,"ĠWol":14546,"prepare":14547,"ÑĨ":14548,"Ġperspective":14549,"ĠHungary":14550,"ĠCF":14551,"Ġarranged":14552,"Ġwasn":14553,"EXPORT":14554,"minipage":14555,"cached":14556,"Political":14557,"audi":14558,"Ġsnow":14559,"ĠChamber":14560,"ĠTs":14561,"rban":14562,"ĠKon":14563,"ĠFel":14564,"Ġflu":14565,"ADDING":14566,"ĠCrown":14567,"ĠMorgan":14568,"ĠPad":14569,"Proof":14570,"ĠMcK":14571,"attach":14572,"Ġvision":14573,"Ġpackages":14574,"Ġequipped":14575,"ĠMIT":14576,"evens":14577,"uffalo":14578,"Ġinstructions":14579,"ĠRussell":14580,"ĠCooper":14581,"Ġsevere":14582,"Ġmacro":14583,"ivia":14584,"panic":14585,"Previous":14586,"iterr":14587,"istogram":14588,"ĠSR":14589,"ĠPatri":14590,"jor":14591,"1888":14592,"Station":14593,"ĠHerm":14594,"Ġmail":14595,"Health":14596,"Ã¨re":14597,"ĠSchools":14598,"Ġtf":14599,"ĠNelson":14600,"ĠMargaret":14601,"Ġaccompanied":14602,"Secret":14603,"ĠSystems":14604,"ributed":14605,"chat":14606,"Ġassistance":14607,"Ġpractical":14608,"Ġrestore":14609,"Mix":14610,"SPAC":14611,"Camera":14612,"ĠCampbell":14613,"Ġdeclare":14614,"bai":14615,"ĠKings":14616,"ĠJosÃ©":14617,"Ġremainder":14618,"LAB":14619,"ĠJohann":14620,"SUB":14621,"aneous":14622,"ĠOd":14623,"Ġagricultural":14624,"ĠBoys":14625,"Ġselling":14626,"lee":14627,"Ġkw":14628,"erset":14629,"ĠWebsite":14630,"opam":14631,"Ġcertificate":14632,"_-":14633,"ĠBY":14634,"Ġexposed":14635,"Ġfear":14636,"Ġradial":14637,"ĠRomania":14638,"ĠFive":14639,"Ġequilibrium":14640,"Ġnormalized":14641,"ĠHit":14642,"ĠGenerated":14643,"kan":14644,"notification":14645,"Ġlogin":14646,"Ġteen":14647,"segment":14648,"âĢĿ.":14649,"argv":14650,"Distribution":14651,"ĠOrganization":14652,"orce":14653,"(\".":14654,"ĠYan":14655,"gun":14656,"Structure":14657,"codec":14658,"Hol":14659,"ĠAlfred":14660,"ĠAP":14661,"insula":14662,"Seq":14663,"ĠThor":14664,"ĠStand":14665,"idi":14666,"opol":14667,"spi":14668,"toEqual":14669,"asis":14670,"Push":14671,"ĠPittsburgh":14672,"ĠBasic":14673,"Ġmarine":14674,"jackson":14675,"Ġha":14676,"ĠOP":14677,"Ġshadow":14678,"Ġvalley":14679,"ĠTrade":14680,"bre":14681,
[...]
