#version: 0.2
Ġ Ġ
Ġ t
ĠĠ ĠĠ
i n
e r
Ġ a
o n
h e
r e
a t
Ġt he
e n
o r
s t
a l
a n
i t
Ġ c
a r
Ġ o
Ġ s
e d
i on
e s
Ġ w
i s
Ġ f
l e
Ġ p
in g
ĠĠ Ġ
n d
i c
Ġ b
Ġ in
r o
Ġo f
ĠĠĠĠ ĠĠĠĠ
a s
Ġ d
Ġ m
c t
e t
Ġa nd
o u
en t
Ġt o
e l
a m
i l
Ġ h
Ġ re
Ġt h
o m
Ġ n
i g
o l
Ġ S
Ġ \
i d
Ġ (
a c
at ion
i m
Ġ e
Ġ T
Ġ $
u r
Ġ l
o t
u t
Ġ C
Ġ A
a d
s e
i v
ĠĠĠĠ ĠĠĠ
Ġ is
Ġ =
u l
c e
Ġ g
t h
o d
Ġf or
i f
o w
u n
a y
Ġ M
Ġ I
e m
a g
c h
ĉ ĉ
l y
Ġ st
u m
a b
u s
er s
Ġ on
Ġ v
â Ģ
Ġb e
it h
Ġ {
) ;
p e
q u
Ġ P
i r
i st
at e
Ġ B
a p
Ġc on
t er
- -
Ġa s
Ġth at
Ġ <
2 0
ct ion
v er
o c
e x
č Ċ
Ġ R
Ġ H
en d
Ġw ith
Ġ D
Ġ F
Ġ *
_ {
r i
h t
/ /
a v
an d
= "
re s
ĠĠĠĠĠĠĠĠ ĠĠĠ
e st
Ġ L
Ġa l
o p
Ġw h
u p
Ġa n
at h
e w
Ġp ro
a in
u b
Ġ N
ĠT he
am e
e f
Ġ W
es s
as s
o s
Ġ G
Ġ "
1 9
p t
or t
Ġb y
< /
Ġ E
Ġw as
it y
ro m
er e
Ġ }
u e
t r
Ġ it
e g
Ġe x
o re
ar t
Ġc om
Ġ r
Ġa t
p l
ou r
e ct
{ \
al l
in e
ig ht
il l
m ent
Ġ or
e c
u re
ag e
n t
a k
Ġ &
i es
Ġa re
Ġ Ċ
Ġf rom
Ġth is
Ġc l
i z
i al
Ġ O
an t
Ġ$ \
Ġ J
ur n
iv e
o g
Ġ y
l d
ac k
u d
ĠĠĠĠĠĠĠĠ ĠĠĠĠĠĠĠĠ
ul t
g e
ex t
e p
ĠĠĠĠ Ġ
* *
Ġ he
( )
b er
c l
m ath
Ġw e
p er
Ġt r
p ort
an s
0 0
a st
" >
Ġ U
re f
or m
Ġc h
ar y
t urn
ab le
a ct
el l
. .
u nd
in t
' s
ar d
it e
st r
i p
o v
at ed
Ġ if
Ġs h
âĢ Ļ
T he
Ġn ot
a re
y pe
p h
f f
ic h
-- --
av e
Ġs e
} \
20 1
ig n
ion s
Ġ '
k e
ac e
c on
Ġ -
od e
I n
in d
Ġ le
o st
i re
} $
as e
s p
or d
= =
) ,
^ {
Ġ K
e v
ic al
g et
u g
i a
p ro
Ġ âĢ
f t
ou t
t o
i le
on g
an g
m a
u st
Ġp l
ĠI n
im e
Ġcom p
c om
en s
or k
at a
id e
ic e
) .
it ion
Ġcl ass
Ġ us
Ġ V
j ect
un ction
en ce
ĠĠĠĠĠĠĠĠ ĠĠĠĠĠĠĠ
f r
t ext
er v
i b
il d
c c
ation s
i an
Ġre s
Ġh ave
Ġc an
ub l
Ġ //
o k
Ġ j
Ġre turn
} }
Ġwh ich
ĠS t
e ar
ou ld
th er
ĠT h
s o
Ġ un
d u
( \
Ġ k
Ġh as
Ġal l
Ġa r
c al
al ue
f orm
ac h
t a
an ce
or y
r a
er t
Ġa d
Ġh is
en c
Ġ im
Ġn ew
eg in
Ġ |
Ġa b
Ġa p
Ġ +
ro w
ar am
l i
ou s
Ġcon t
o b
u se
e qu
b egin
- >
he n
res s
ent s
20 0
en er
Ġ @
C on
ĠC h
: :
ubl ic
on e
oc k
ĉĉ ĉĉ
is h
a il
) $
_{ \
ow n
l l
S t
on d
" ,
f ig
} ,
Ġst r
ri b
Ġ [
f er
ou nt
ou nd
p le
o ver
ir st
1 0
s et
er m
ab el
ul l
ol l
iz e
Ġf unction
re e
el f
i el
Ġon e
er r
u al
m er
om e
} {
or s
r ight
Ġal so
cl ud
o se
ic t
ol d
Ġ /
Ġo ut
Ġb ut
Ġy ou
ar k
Ġw ere
at es
t e
Ġp art
Ġd ef
1 8
E x
pt ion
et h
Ġd is
Ġ< /
iel d
Ġs u
Ġw ill
in k
p ut
our ce
ot h
c he
Ġo b
ter n
fr ac
e q
Ġd e
in al
Ġe v
r ay
p s
( "
( );
Ġ up
Ġd o
w o
s s
y st
w e
pe ct
el y
r it
Ġs et
Ġm e
Ġ ro
Ġthe ir
Ġp r
le ct
Ġv ar
Ġ* /
t he
n e
o int
Ġs p
Ġ qu
' ,
r y
---- ----
Ġin t
r ap
Ġ Y
ic s
c k
Ġm od
s um
pe c
o ok
ic k
ak e
o ol
ing s
Ġ :
l abel
r m
Ġp er
s h
i x
Ġit s
s c
i ew
Ġf irst
er y
Ġp re
Ġn ame
math b
en g
** **
n g
Ġ .
tr ing
ro up
ĠU n
yst em
p r
ig h
ĠI t
f ter
Ġm ore
Ġp ublic
Ġm an
.. /
l ine
Ġo ver
Ġwh o
Ġa g
Ġthe y
c ite
âĢ Ŀ
a w
t y
m b
Ġh ad
le ft
l o
es c
ĠH e
at or
um ber
) )
i o
Ġ| |
l es
Ġg et
Ġt ime
i ed
et a
ation al
at er
Ġt wo
Ġw ork
a x
th is
m l
is s
d iv
P ro
Ġin ter
$ .
y s
Ġo ther
1 2
$ ,
Ġs c
o id
math cal
, \
Ġbe en
Ġs o
ess age
E R
ĉĉ ĉ
ĠĠĠĠĠĠĠĠ ĠĠĠĠĠĠĠĠĠĠĠ
u ct
Ġn e
he d
rib ut
Ġt e
p os
ul ar
ĠĠĠĠĠĠĠĠ Ġ
Ġw hen
le ment
i e
} )
} .
( '
Ġ _
t t
equ ation
p aram
em ber
n ame
o f
Ġpl ay
== ==
T h
N ame
rap h
ar g
ĠâĢ ĵ
Ġy ear
r am
Ġ und
Ġh er
on s
at ch
at ive
an c
Ġre c
if ic
ro und
v e
ov e
Ġg o
ap p
am b
Ġres ult
an ge
eth od
Ġs up
Ġcom m
Ġs ub
} (
âĢ ĵ
m s
on t
i ent
19 9
sp an
re turn
oll ow
Ġin to
Ġan y
d ef
I N
Ġon ly
im es
Ġre g
v ar
an n
Ġ en
Ġtr ans
T ype
} ^
Ġth ere
ke y
O N
Ġ i
Ġd ata
am es
Ġad d
Ġab out
1 6
ĠTh is
as ed
Ġv alue
Ġb et
Ġc ol
op le
ou g
> </
ay s
o x
ad e
re d
ug h
Ġp e
al s
~ \
Ġth an
is e
} _
at ic
c ol
Ġas s
ph a
t ain
Ġwh ere
ar ch
ou n
Ġin clud
u es
at ing
y n
ĠâĢ ľ
Ġ end
Ġof f
i ous
1 5
Ġ #
it ed
e b
d a
Ġre l
res ent
Ġl i
s ub
u ild
er n
id ent
Ġw ould
Ġa cc
Ġd if
Ġp os
t on
Ġs ome
ĠC om
ur re
Ġ !
Ġt ype
id th
al pha
Ġa ct
w ard
Ġf ollow
> <
c re
im port
l and
Ġn o
Ġfor m
enc es
Ġsu ch
f o
Ġund er
Ġk n
it s
S tring
Ġf il
Ġcon s
1 1
Ġin d
am p
Ġ el
al se
in ed
Ġd ec
Ġthe n
ar s
Ġo ur
ol og
Ġcon st
C h
d er
it ies
le t
Ġl oc
c ent
o y
S T
or n
R E
l ock
I d
ire ct
v ent
Ġc all
Ġa fter
ĠA r
el s
c ess
as h
Ġ use
el ta
Ġre qu
mer ic
il ity
in ce
e ad
al ly
Ġl ine
C om
u res
) \
h o
Ġo p
we en
Ġd ist
t ype
ĠW e
id er
Ġg ener
Ġ err
Ġus ed
c ed
ĠN ew
../ ../
_ _
iv ers
Ġs ec
em ent
Ġs pec
ĠP ro
a ult
d d
amb da
Ġpro v
ur ing
Ġs he
ib le
R es
Ġat t
Ġs elf
ab l
1 7
a id
ow er
$ \
Ġc o
Ġp ol
Ġf e
ĠS e
m in
le ction
ri pt
Ġsh ow
at ure
Ġp h
ac he
Ġf l
w n
re ad
ist s
or ld
h at
Ġm ay
Ġre m
t s
urre nt
ht ml
: //
pl ic
1 3
R ef
an k
Ġbet ween
Ġs im
ce ption
A T
ro ugh
am ma
Ġv al
s on
as k
f l
p on
ad d
ut h
Ġ `
v al
a ir
Ġb ack
Ġpe ople
Ġn umber
1 4
tr ans
ic es
ut ion
Ġ x
Ġc ase
Ġbe c
Ġc re
y le
ĠA l
C l
Ġd ev
_ \
erv ice
A r
b le
t d
il y
Ġ= =
Ġdif fer
a use
eng th
Ġin st
ar n
mathb b
um ent
m u
b ar
Ġd et
2 5
i er
iz ed
Ġ ent
ers ion
b ack
Ġpro du
= \
ag es
Ġthe m
ot s
Ġn ull
u le
Ġ\ \
it em
Ġst ud
re n
Ġh igh
} _{
cl ass
19 8
} ^{
Ġm ost
Ġ >
Ġor g
p i
at t
L ist
Ġthe se
is ion
Ġt est
s ource
in es
Ġa c
in s
Ġs ystem
Ġh ref
oug h
c ode
m essage
ot e
Ġg iv
it t
Ġe ach
Ġg r
Ġch ar
is hed
Ġv oid
an y
ig ma
Ġp oint
A R
Ġ Q
o ot
Ġe qu
eg a
o le
ĠS h
O R
ep end
y m
r ic
f or
) :
Ġth rough
- \
ĠA meric
Ġc or
Ġ= >
Ġin v
.. .
tern al
Ġa m
e ver
ch ool
3 0
Ġ )
L E
e y
oc i
iv ate
Ġtr ue
am ple
as on
r r
ht t
w h
se ction
Ġe ff
ĠF or
l ation
ph i
al ign
o h
Ġo per
p ress
m od
I D
us s
T r
ment s
m an
Ġ Z
b ject
Ġs m
y p
/ >
# #
^ {\
ap t
Ġe st
str ing
ĠT r
Ġw ell
ĠC on
Ġs ign
et er
Ġd es
a z
A L
) );
a ction
b f
3 2
T o
ĠA n
Ġh im
ut e
iz ation
re at
Ġh ow
Ġel se
Ġs aid
I t
e k
h ip
l og
it le
l ambda
Ġf ield
n er
Ġf inal
iv er
**** ****
Ġ{ \
Ġli ke
Ġag ain
-------- --------
Ġ ed
Ġg roup
00 0
or g
Ġst ate
Ġe ver
a h
Ġyear s
ĠĠĠĠĠĠĠĠĠĠĠĠĠĠĠĠ ĠĠĠĠĠĠĠĠĠĠĠĠĠĠĠĠ
od y
// //
if e
Ġre p
ire d
s elf
W e
Ġs ame
u c
ĠC l
is m
Ref er
ĠA s
Ġs er
2 1
i k
op t
el op
Ġst art
per ty
Ġm ethod
oth er
\ \
Ġm in
E N
Ġstr ing
Ġf ound
u ff
Ġe m
" />
et s
c es
w ork
Ġb r
Ġus ing
mathb f
Ġj ust
um n
19 7
s er
p art
b y
il on
Ġex t
Ġf alse
Ġc ent
ar get
S S
Ġ X
Ġne ed
Ġd esc
re am
d ata
g y
5 0
Ġmod el
f ore
ot t
Ġsh ould
ĠE x
D ata
ou se
Ġwh at
u ch
2 2
v iew
ivers ity
Ġs ol
Ġ& &
V alue
p re
w w
Ġl ist
f ul
Ġwh ile
ce pt
ical ly
Ġdiffer ent
w ay
" );
ers on
ep s
Ġl ong
e le
Ġap pro
Ġob ject
Ġy our
b r
v alue
Ġb oth
n ot
ĠĠĠĠ ĠĠ
are nt
w idth
Ġp aram
Ġs ur
or th
ĠI nd
b all
are d
ar ray
Ġsec ond
Ġ/ **
Ġn on
al e
over n
Ġbe ing
cc ess
if ied
. _
' t
form ation
n ew
Ġo pt
e e
a j
Ġth ree
l oc
ant s
ild e
c d
Ġc ould
m ary
Ġd r
S et
Ġr ight
Ġm y
Ġpart ic
b eta
ion al
at us
Ġ --
ĠĠĠĠĠĠĠĠĠĠĠĠĠĠĠĠ ĠĠĠĠĠĠĠ
ou th
s igma
Ġs ing
Ġn ow
Refer ences
ist er
ang le
Ġle ad
Ġman y
E rr
if y
^{ -
r on
str uct
Ġgiv en
2 4
Ġbe fore
re m
] ;
" )
g er
Ġd irect
Ġr un
Ġper form
Ġ( \
f ace
ur y
t il
s erv
} {\
pl ay
Ġor der
t en
in clud
ro ll
Ġar t
en se
t est
U n
Ġ! =
O bject
ro p
ath er
Ġsup port
Ġ// /
he ck
Ġfollow ing
r u
v el
Ġh and
C ol
Ġre ad
"> <
Ġb l
ak ing
Ġt erm
Ġd uring
ĠC ol
as es
19 6
d ate
a f
enc y
con t
F or
I T
ro l
Ġf am
ro ss
Ġm ade
S E
l er
ir c
Ġm at
A N
* }
Ġdis c
b ers
Ġf act
t ing
it ions
f ile
Ġ z
g ram
re qu
Ġb el
ĠĠĠĠĠĠĠĠ ĠĠĠĠĠ
iv ed
av a
ain s
h er
+ \
Ġbec ause
fig ure
tr y
B y
ar ly
g amma
al ity
ĠS c
Ġever y
Ġs erv
==== ====
. "
math rm
' )
ĠI f
Ex ception
Ġm on
trans lation
Ġse e
o od
C T
E n
m ed
p ar
Ġdo es
Ġo wn
an e
A s
Ġc urrent
ur al
. ,
p x
s y
Ġm ed
o ad
ent ial
olog y
( $
Ġar g
Ġm ake
ĠI s
ĠF r
] ,
Ġw rit
Ġl ink
D E
l ed
Ã ©
T est
re g
ĠAmeric an
ect or
Ġ id
] {
1 00
G et
Ġpr ivate
in ter
c o
Ġre le
Ġpro cess
f unction
Ġl ast
Ġm em
r al
Ġdev elop
Ġte am
ow s
qu e
n ing
Ġre sp
Ġcons ider
ra w
d ay
d elta
ual ly
ĠUn iversity
ain ing
t ime
ord er
A n
Ġap p
s ize
et work
Ġ %
the ta
I nd
) }
Ġcont in
iv ely
^ \
ĠD e
O n
iss ion
un c
Ġm ain
iv es
l ob
Ġg u
Err or
Ġev en
g round
it ial
2 3
ĠUn ited
ul ation
Ġ key
Ġex per
4 0
us ic
sum mary
Ġst atic
Ġex pect
se c
Ġm ov
Ġstr uct
f ield
ist ory
Ġe lement
Ġv ery
le q
Ġd id
Ġim port
Ġp ass
I m
l p
} ;
Ġb uild
Con t
et ers
ta u
le x
Ġb o
ver t
mb ol
sp ace
ar row
$ -
ar ge
ĠO n
Ġf ind
Ġf in
ect ed
M E
r ho
p m
r ite
Ġ u
in a
com m
i ence
Ġp op
ch n
d is
us h
ĠS tring
ĠL e
Ġeff ect
g r
Ġa v
p p
Th is
Ġs ince
oh n
ction s
Ġev ent
ab ility
() .
oc ument
b ig
er ing
re ak
}$ ,
Ġs l
' );
}$ .
Ġor ig
lo ad
Ġsm all
Ġbe g
() );
ĠM ar
} (\
ĠCom m
om en
m e
Ġw ay
M od
t imes
eq ref
he ad
og raph
ĠA nd
al th
ag er
Ġto p
i or
p ace
port s
al k
Ġerr or
ch i
20 19
b e
o ber
ord s
Ġvar i
Ġth ose
Ġap pe
ri x
uth or
Ġm et
Ġloc al
en n
ĠS he
iv ing
ac es
201 8
Ġch ild
Ġresult s
Ġb ro
Ġinclud ing
ur l
Ġop en
ĠP h
a u
it al
ut il
Ġcon d
Ġs ize
le y
a pe
Cl ass
S h
v ious
re en
ĠP l
ri ption
n ess
t able
Ġc r
un e
ĠE ng
g o
Ġp resent
op y
C O
K ey
Ġhe ad
6 4
Ġf our
Ġagain st
ist r
part ial
it or
col or
u str
Ġrep resent
ef ore
qu ad
Ġw orld
A C
Ġt em
Ġin formation
l ess
m p
ĠP r
Ġm ult
act er
Ġp res
ĠR es
ĠH ow
R equ
l ist
Ġd own
os s
Ġprov id
ar m
ft y
Ġre f
P h
Ġkn ow
U L
n b
ind ex
2 8
ag n
2 7
ur s
lect ed
Ġle ft
ĠM ay
Ġpos s
um er
Ġc ar
ur ation
ak es
n u
t op
in fty
Ġf r
it er
. âĢĿ
t ies
ang u
Ġcomm un
Ġan al
b o
om ega
Ġkn own
r c
t ilde
p ath
htt p
Ġf ile
201 7
p or
at s
u i
i um
Ġc oun
201 6
u ro
in ess
Ġ/ *
| \
2 6
Ġin cre
/ **
s ide
Ġv is
Ġ: =
R O
Ġre ce
l ength
] .
E lement
id d
se arch
o pe
Ġm ust
() ,
ĠĠ Ċ
g or
res p
F ile
Ġg overn
o ff
Ġcall ed
" .
D elta
Ġ$ (
Ġm uch
Ġp ar
u ck
v en
ĉĉĉĉ ĉ
ĠSt ates
ir d
Ġm ark
3 3
Ġl ook
Ġre fer
re t
Ġl ater
iv al
Ġb ased
Ġs chool
m et
ain ed
/ *
l ink
ĠA d
Ġl im
E vent
com e
ĠB r
Ġfil m
Ġa ut
uff er
Ġ ,
N ode
Ġdes ign
[ '
Ġ );
le ar
Ġb ound
Ġh ere
end s
D ef
nb sp
ens ion
Ġpro ble
ĠO r
et y
I nt
a i
Ġre al
sc ript
che d
ribut e
it ive
Ġdesc rib
tr act
A l
19 4
201 5
ord ing
Q u
" ;
ific ation
in c
I C
Ġc ount
ĠA ss
P E
Ġob tain
le m
ĠW h
in ation
Ġn ext
Ġex p
ĠJ ohn
Ġd ep
is ed
Ġval ues
W ith
2 9
ĠA ll
Ġass ert
tern ational
Ġst and
con st
Ġst ill
ĠâĢ Ķ
wh ere
Ġ ?
ol v
if t
Ġ ident
Ġth row
Â ł
Ġpro gram
Ġa round
. </
s q
T ime
Ġl ife
âĢ ľ
Ġex pl
201 4
Ġt yp
ĠĠĠĠ Ċ
S e
E qu
oot ball
Ġob serv
Ġhe lp
Ġar ray
am ed
en e
ri es
Ġme as
ol ution
Ġl arge
r ist
ĠJ ul
od es
ition al
c m
" :
x i
t ab
pt y
c it
H e
Ġser ies
v ir
ĠS p
cal e
Ġp ower
eq n
Ġgo od
n ode
r t
s l
I ON
T E
pon se
19 5
ur ther
ro id
Ġdist ribut
N ot
P I
Ġt itle
b um
pos ition
se e
\ ,
at ely
V iew
L A
Ġse ver
Ġp erson
P ath
Ġrequ est
f il
Ġg ame
ur ch
Ġse ason
ar i
ĠG r
g roup
b l
us iness
Ġw ant
th s
p ed
Ġl aw
ap s
Ġb ook
P aram
Ġd i
In fo
che s
end ed
Ġfam ily
orm al
ole an
A dd
ĠB l
Ġp ost
Ġ ke
ĠA t
Ġt ake
Ġlink s
Ġp ath
ain t
ore m
Ġplay ers
' ]
ent ly
Ġp at
ĠC an
ĠY ou
cd ot
av ing
Requ est
s k
b ox
Ġwith in
b ut
Ġsing le
ac y
am pl
og le
is on
our ces
ĠW orld
Ġres pect
du ct
Ġsp ace
$ $
ĠN ational
Ġc our
lob al
Ġo cc
Ind ex
ĠR e
Ġt ext
per ties
Ġan n
} [
Ġc are
p ublic
j s
eps ilon
Ġpl ace
Ġpro t
ĠC ent
6 0
Ġt arget
Ġre port
8 0
ict ion
Ġex ample
M an
T R
} }\
P l
at ors
loc ation
St ate
s im
201 3
b s
Ar ray
aj or
ĠM an
Ġm ass
u f
Ġpro ject
ĠC ar
i od
Ġv iew
Ġd on
ib r
' :
)$ .
om et
n o
ast er
ĠJ an
p oint
ener gy
ess ion
ag ue
Ġr ad
p ack
T ext
plic ation
er o
Ġgener al
Ġ} ,
Ġorg an
angu age
he s
ust om
ore d
Ġo ld
pl oy
Ġorig inal
a im
w it
resp ond
Ġle t
Ġl og
O r
Ġbe st
i ans
Con fig
ail able
201 2
Ġ( !
ug g
tt p
Ġwith out
Ġun til
A S
ĠThe y
ĠY ork
Ġ= ==
ĠC ount
Ġad v
201 0
ic y
Ex ternal
ward s
F ield
Ġis s
ill ion
Ġpol it
a it
Ġsu ccess
ro du
il ar
R e
Ġc ap
M ap
ind ow
anc es
oc us
} _{\
st ance
Ġbe h
Ġd em
Ġm ax
Ġn ear
() )
Ġn il
Ġest abl
Ġal ong
ap i
ĠU S
w ith
Ġare a
um e
"> </
Ġd ay
at ures
A ll
ĠN ov
201 1
l im
U R
ĠR ep
Con text
Ġch ang
um p
O m
Ġall ow
Ġte chn
pos ed
Ġs um
a ut
F il
Ġm usic
Ġc heck
m at
Ġd ue
def ine
//// ////
ps i
Ġn ode
res ult
m ap
Ġd el
Ġan other
3 5
Ġc al
i j
our n
O ver
Ġab ove
ames pace
Ġ} );
w ays
m y
Ġin put
press ion
Ġn etwork
Ġrec ord
ert ain
Ġv ersion
r ide
err or
str u
+ +
Ġoff ic
ma x
Ġth ink
I S
raph ics
Ġinter est
v oid
Ġto t
le g
ĠW est
Ġe lect
i am
ix ed
N ew
em s
op er
Ġdef ault
ap er
Ġas sum
ail s
ar r
Ġb lock
s m
iv ity
Ġin itial
ĠS chool
a ff
` `
ag s
ĠB ut
Ġsever al
ĠG e
A D
ul es
Ġal bum
F orm
ĠT o
w are
Ġle g
Ġs k
ĠB rit
Ġt ri
Ġ/ >
Ġtr y
ĠF ig
L O
ĠHow ever
S ervice
u ary
text bf
im al
us er
ĠR eg
Ġint eg
ĠO ct
ass ert
Om ega
******** ********
Ġchar acter
oc ial
c apt
ĠA ug
re l
ĠP ol
Ġ et
ĠE n
im ate
Ġb as
Ġex ist
' ;
l ing
ĠB e
ic le
ĠW ar
on y
u k
S c
Ġwe ek
et urn
um an
Ġcre ate
Ġpartic ular
Ġs ource
3 4
i que
ens ure
, âĢĿ
Ġus er
E D
ple ment
Ġinclud e
ur ity
f in
um ents
Ġb ase
^ *
am ent
9 0
Ġ energy
ic on
pl it
Ġcon text
Ġbec ame
M A
com p
pl ate
ĠS outh
ĠĠĠĠĠĠĠĠĠĠĠĠĠĠĠĠ ĠĠĠĠĠĠĠĠĠĠĠ
Ġst at
Ġw in
ĠM in
Ġst yle
nd er
Ġs pe
om an
a us
)$ ,
ap ache
Ġs ay
Ġpre vious
ide o
O f
htt ps
Ġcor respond
S ystem
ĠA pr
ww w
b old
abl ed
f rom
G amma
I s
Ġs ervice
uro pe
Ġre t
Ġpos ition
Ġ enc
u ed
Ġd epend
re ate
ĠM arch
V al
ps ilon
vir on
Ġdef ined
pro t
A tt
U T
pon ent
val id
Ġd om
st ate
ith er
in put
pt ember
Ġb reak
in ition
erm an
yn c
Ġle arn
S ize
s up
eqn array
tr ue
ĠCount y
Ġass oci
Ġh ome
Ġ_ _
o o
and s
ustr al
c all
Ġl arg
ĠT e
Ġs ong
ĠN o
Ġle vel
Ġde ath
Ġind ex
ob ject
n av
ĠJul y
il t
ĠJ une
Ġcont ent
Ġcomp ut
sub section
ay er
Ġinst ance
H and
Ġb u
ou ble
ĠSt ate
I G
Ġ eng
gor ith
Ġf ew
Ġp o
ial ly
C ode
Ġ} ;
sq rt
F F
at ter
Ġch ange
Ġin s
ĠP ar
Ġinv est
Ġf ootball
Res ult
ne ction
[ ]
C H
id es
ist or
200 9
h old
capt ion
Ġsh ort
Ġa ff
Ġf ull
ys is
m ber
yn am
Ġd en
" "
ĠG u
d om
ab les
sy mbol
l in
Ġr ange
ef f
Ġ Ð
9 9
Ġt urn
Ġgovern ment
m d
ure d
3 1
Ġpro m
im ent
ĠC al
Ġh old
Ġopt ions
Ġs at
Ġl a
d e
ac ed
Ġcont rol
con fig
ard s
p ose
ign ed
u x
ic a
Ġe arly
ail ed
o in
c ast
m ember
ev e
âĢ Ķ
ann el
200 8
b m
st it
al f
end er
en u
read y
4 5
un g
Ġtot al
Ġc ur
A t
Ġm ap
Ġ$ {\
ent ion
ĠB y
Ġre du
Ġav ailable
Ġpoint s
ate g
F rom
Ġcl os
Ġc ode
ĠTh ere
Ġc ity
le ge
ĠCh rist
v are
7 5
ay out
Ġdet erm
Ġc rit
il it
Ġb ir
al es
^{ (
ĠC ity
st yle
Ġmem bers
Ġcon fig
f unc
! --
Ġa ction
Ġsim ilar
cre ate
ĠApr il
Ġm ajor
ĠE d
ight s
lo at
ne y
Ġstud y
Ġl ow
ĠSe ptember
E T
st and
f ess
ĠAug ust
ĠS ec
d own
Ġv ol
b ody
def ault
oug ht
3 6
Ġ čĊ
ĠâĢ ĺ
n on
m m
Ġw omen
pro v
ur g
ĠC o
Ġcomp let
Ġre st
Ġm atch
g ress
Ġpro b
Ġse ction
B uild
Ġp ubl
t es
se mb
Ġp ort
Ġl ess
vare psilon
Ġacc ess
IN G
Ġm ar
0 1
k en
ĠOct ober
Ġproble m
im um
}^ {\
end ing
Ġ\ ,
b it
cent er
p en
ĠE urope
i us
ĠJan uary
E S
Ġper iod
' '
=" ../../
ĠG et
ist ic
O ut
Ġme an
l ish
M P
ut ure
I f
Ġcomp any
s w
R eg
Ġposs ible
ĠF l
A nd
Ġimport ant
Ġw on
Ġb usiness
stru ction
ce mber
Ġd iv
ĠS ystem
ĠM ed
Ġfor mer
and om
w ord
Ġch o
} =
ĠS up
ĠN orth
b lock
eg raphics
includ egraphics
In ter
ĠĠĠĠĠĠĠĠ ĠĠĠĠ
Ġback ground
ic ro
ĠA ir
M essage
U S
Ġcomp on
ĠW ill
ra ft
a e
Ġp ot
i ents
Tr ans
M L
Ġrequ ire
le v
in ary
Ġg row
Ġprodu ct
Ġs ide
ott om
right arrow
U N
Ġcom b
c er
ĠA b
z e
ĠF eb
viron ment
re w
C all
Ġt imes
ip le
Ġ ide
200 7
3 8
A B
It em
3 9
ater ial
Ġshow s
) (
id ual
Ġsh own
ag ed
L oc
Ġw he
li ent
) =
3 7
ab ly
itt le
on es
Ġcon f
Ġc ell
ĠA ustral
Ġf ore
Ġdisc uss
Ġpro perty
is ing
.. ..
em ph
Ġ( )
âĢ ¦
Qu ery
includ e
U p
---------------- ----------------
Ġchild ren
G roup
Ġin c
D is
ir t
S er
con om
Ġre search
ĠP art
ear ch
le te
r angle
on se
h am
re c
Ġstr ong
e ction
= '
ok en
se qu
ĠI I
20 20
Ġ( $
Ġf ree
ri ed
ĠD r
v ersion
w id
Ġpre d
0 5
Com m
Ġint rodu
C ell
er efore
pt ions
Ġl and
Ġresp onse
t ings
Ġterm s
Ġim age
ad a
Ġmod els
B ig
Ġd at
Ġsup er
m ult
in o
ther n
ĠNov ember
if f
R ec
Ġd er
esc ription
Ġa uthor
UL L
Ġh istory
ec ut
u ation
Ð ¾
th ers
epend ent
ĠM c
b t
st er
Ġd ocument
Ġexpect ed
Ġl ength
Ġg reat
Ġp ut
tain er
our s
L og
ampl es
d ev
ru ary
ge q
st art
P r
ĉĉĉĉ ĉĉ
200 6
k s
ĠDe cember
an a
Ġcon c
amp ions
th ough
, "
Ġto o
ens ity
c ul
Ġs it
ib ility
## ##
bold symbol
ou d
Ġle ast
Ġs om
ud e
ri or
t itle
im ation
ĠR ec
ĠB o
Ġcomp et
cl us
in fo
var phi
if ier
Ġs y
R ead
Ġplay ed
Ġfollow s
ot ype
Ġqu est
Ġg l
ac hed
Ġrele ased
Ġd eg
20 00
Ġj ava
op s
roll er
Ġgo ing
Ġreg ion
pro of
Ġph ot
y l
ag ement
. ~\
Ġm ember
Ġind ic
Ġs pect
opt ions
Ġf urther
Ġadd ress
Ġal ready
Ġc over
n ow
Ġcor re
Ð °
Ġne ver
Ġout put
Ġparam eters
7 0
fr ak
Ġre pl
Ar g
or ies
Ġspec ial
tr a
C ount
m ethod
Ġcol or
p ly
[ \
ep ar
Ġp arent
Ġe p
Ġm essage
che ck
ed er
Pro perty
Man ager
ak en
ĠS et
Ð µ
Ġsign ific
ĠK ing
ograph y
Ġh app
v es
I P
Ġro le
v ers
Ġperform ance
p arent
n ect
ap an
ĠL ist
or ph
Ġtr ack
T H
ug ht
y d
ew ork
ur b
Ġal ways
m ark
Ġbel i
. }
over line
Ġbet ter
um b
Ġcoun try
A d
Ġh ost
ver age
ĠS o
ĠA p
g es
Ġt able
Ġstruct ure
ĠC or
Ġb ool
an ch
C E
Ġto ok
ĠBrit ish
Ġparam eter
is f
} ).
}, \
e ed
ĠA fter
Res ponse
Ġdescrib ed
& \
a ul
Ġqu ant
Mod el
I L
Ġfe ature
Ġev ents
ĠĠĠĠĠĠĠĠ ĠĠ
=" +
ref er
| -
Ġlim it
re st
ĠB ar
Ġe ither
Ġl ate
c ount
gorith m
er ed
ĠA ct
Ġst ates
Ġrequ ired
Ġof ten
ĠFeb ruary
ĠP res
6 6
O D
Ġse qu
Ġb and
d f
L et
h and
Ġpot ential
E nd
ener al
Ġf ive
Ġc oll
re et
Ġcomm on
Ġ-- >
i i
======== ========
Ġ q
Ġc ou
) ^
ĠW hen
5 5
4 8
ic ient
r ad
Ġf ac
as c
Ġst ory
olog ical
C lient
Ġam ong
Ġar r
Ġw idth
N A
Ġc ost
b ase
F l
id ed
id ence
s i
ĠW ith
Ġl abel
ad em
art ment
00 00
F r
i ol
Ġan t
T able
ing ton
Ġm ight
Ġ Â
Ġh ouse
Ġw ater
id ge
Ġcl aim
we b
Ġph ys
ĠThe se
cont ent
c il
al d
c le
og n
Ġprov ide
al t
ĠS er
ĠE l
con d
Ġcomp lex
M ethod
Ġh ttp
con text
Ġme ans
Ġth ird
O T
Ġre ally
as ing
Ġh ard
Ġbe come
ic ense
Ġc amp
re ed
Ġdistribut ion
200 5
ĠM e
EN T
Ġre d
ĠH is
ibr ary
Ġl ight
Ġm illion
ĠR uss
et ic
g ed
Ġrece ived
Ġs ays
er a
us ing
Ġcl ose
Ġacc ount
O S
Ġin du
Ġgr ad
Ġin div
op h
Ġm ot
em pt
d oc
ĠQ u
h line
Ġd est
Ġn ational
ip s
qu ot
Ġfunction s
Ġf und
math frak
Ġinv olv
0 4
Ġh aving
Ġb ig
Ġmeas ure
ond on
Ġappe ar
Ġto wn
Ġval id
B ut
ust er
Ġf ocus
L ambda
m ost
Ġs ix
ĠThe n
d t
Ġa ge
s f
c ell
f alse
ĠI m
ĠO ne
In put
Ġb ody
A ss
Ġpr act
act ory
Ġrel ations
ev ent
Ġhe ld
ab or
Ġe as
ĠCom p
] (
ym met
Ġa ir
St atus
c y
Ġf ar
Ġt ask
n a
Ġed uc
Ġhe alth
l t
] )
Ġatt ack
itt ed
Ġm om
S ee
Ġsu ff
Ġab s
im ens
l ang
r ation
l s
Ġst d
Ġn amed
200 4
Ã ¡
b orn
Ġcare er
ĠC ont
ĠT est
ren ch
il le
Ġcont ribut
Ġwhe ther
ĠC oun
ĠA fr
i ke
E d
ugg est
r ing
pr int
Ġg ames
Ġar ch
Ġcommun ity
} }$
t em
ĠA g
v ec
ĠH igh
ĠD av
im ary
Ġsignific ant
S ub
go ogle
n own
Ġcre ated
Ġto get
an el
Ġv ert
ĠO ff
g t
Ġs ent
th ing
Ġtoget her
Ġdif f
Ġac ross
ĠA rm
ĠCh ar
( (
0 8
Ġmethod s
A P
Ġg raph
Ġse en
Ġin fl
Ġpop ulation
Ġbeg an
4 4
un k
Ġf ri
Ġc irc
Over ride
Ġtr ad
Ġs epar
ĠLe ague
im age
B e
es e
Ġindiv idual
ĠS ch
w ise
W h
T oken
em ents
ec ess
ĠAr t
Ġl ower
arg in
eth ing
Ġc ult
s pec
Ġyou ng
e lement
Ġim plement
l angle
Ġh uman
St ream
ĉ Ċ
b ook
ĠEng lish
S P
Ġappro x
~ ~
Ġdevelop ment
Ġr ate
ld ots
Ph i
Ġinclud ed
Ġp ay
c ore
Ġb order
c irc
ĠP ark
i et
w ide
Ġm en
m it
Ġs ocial
T D
x y
E X
d raw
or age
ith ub
Ġs rc
> (
ut ions
> &
Ġvar ious
Ġw ar
Ġprovid ed
Ġg ot
Ġd ays
Ġpl an
ampions hip
in it
pack age
Ġp aper
pl ied
ill ed
C C
Ġn eg
en ame
Ġab le
Ġn um
0 7
Ġtr aining
fer ence
ĠE ast
o op
i ation
ĠH ouse
st atic
ĠJ apan
Ġli k
d b
0 2
n et
idd le
U ser
al y
ĠA dd
Ġm agn
c urrent
I R
Ġcom e
Ġfe atures
ensure math
d ec
Ġann oun
Im age
Ġc he
Ġsystem s
Ġg ive
at ural
Ġsat isf
med i
ĠL ondon
Ġbu ilt
iv en
mod el
Ġbl ack
Ġc ases
Ġappro ach
Ġconsider ed
6 5
ic an
e ople
Ġm aking
row n
Ġanal ysis
m ar
ĠI nt
Ġs ite
A meric
Ġ` `
h as
Ġelement s
U til
Ġpro perties
ĠP er
f ord
Ġbuild ing
Ġ< <
Equ al
Ġwrit ten
Ġd one
ĠB ro
Ġbel ow
b uild
one y
Col or
ĠD ep
ab ase
H E
} ),
O per
abl a
app a
) {
ilit ary
Ġc ross
Ġr a
ĠD ef
Ġv ia
ateg ory
H ead
ĠL et
Ġcon struct
S tr
b ased
O ff
ĠM on
Ġfil ms
av es
Ġassoci ated
Ġc ame
Ġpubl ished
g ithub
am a
N o
Ġp air
b or
text it
\ |
Ġmat rix
S ource
Ġwork s
r un
Ð ¸
Ġt re
P ol
S p
Ġp age
n abla
Ġre view
O ptions
Ġs che
l ight
ce ed
ĠH ar
oc r
Ġ row
Ġf uture
Ġwork ing
. \
at form
ourn al
Build er
ire ction
Ġhow ever
ex p
ĠN ot
cit ep
St yle
Ġb i
Ġcond itions
Ġloc ated
n ext
ord in
ĠA ng
il ities
ĠD is
Ġhigh er
mb ox
Ġcol umn
act ive
0 3
Ġconst ant
Ġstand ard
j ava
ĠN ULL
Ġcont ain
Ġadd ition
0 6
Ġbeg in
Ġdis play
Ġgroup s
ĠL a
ens or
Ġim p
O P
pect ed
Ġestabl ished
In stance
Ġe mb
Ġa verage
20 21
Ġon ce
prot otype
Ġs uggest
Ġcomp os
F A
lection s
Ġsol ution
Ġg en
Ġal ign
Ġl ittle
Ġme et
N ull
Ġm er
9 5
ac ing
Ġt w
Ġh om
ma il
Ġg e
wit ch
} )$
Ġem ploy
N S
is es
r up
lect or
cl ient
Ġe conom
d o
Ġm iss
ĠV al
Ġe ar
id s
i res
ĠR ev
Ġobtain ed
Ġke ep
B lock
ĠIn ternational
ĠA m
Ġbo olean
M S
ut es
Ġof fer
200 3
av el
os p
ir m
ĠCol lege
Ġc ertain
Ġs em
h ib
ĠWill iam
sub set
Ġcons ist
Ġp ack
Ġa way
Ġcomm and
( {
Ġthe ory
Ġcl ub
c ase
Ġp ast
fo ot
qu ery
ch ange
d r
ĠR eturn
Ġth ough
ian ce
S ec
oci ety
ag ing
Ġh alf
d ir
Ġplay er
D ec
Ġc ustom
Ġc lear
n s
\ %
n ull
ĠTh at
Ġl oad
o on
ch ild
Ġst ation
O L
ĠS m
ly ing
0 9
Ġcond ition
requ est
he ight
R un
iz ing
Ġn ormal
Ġv ideo
so ft
y ear
Ġc le
Ġst ep
Ġl anguage
Ġl oss
ill s
ar ing
Ġspec ific
cent ury
Ġstart ed
Ġas k
un ic
ĠG o
n ers
ĠH er
p c
ig ation
opt ion
ĠS w
B ase
Ġsom ething
t x
Ġb en
Ġg lobal
B C
g en
k appa
Y PE
min istr
ot imes
ist ry
att le
G L
Ġstud ents
but ton
p ing
P os
Ġt aken
I M
ĠTr ans
Ġre ason
Ġj ob
action s
ar ies
arg s
Ġ es
* /
ĠAmeric a
C K
Ġm aterial
Ġs cal
ĠPres ident
ch an
ĠI N
o ke
L ine
pro p
Ñ Ĥ
\ !
s ing
ĠĠĠĠĠĠĠĠĠĠĠĠĠĠĠĠ Ġ
Ġen ough
200 1
I I
Ġth ings
A A
rit er
Ġprodu ction
Ġp ress
Ġmark et
D ate
c ss
ĠM od
Ġc aus
Ġv ill
Ġbir ths
Americ an
fl ow
ul a
iz er
p ol
S pec
="../../ ../../
Ġserv ices
ĠPh il
Ġest im
ĠM ich
4 9
oc ol
e h
Ġinst ead
i ant
l ib
ĠS im
Ġd ensity
; &
Ġcent ury
Ġsim ple
ish ing
E L
Ġr andom
Ġa chi
g ing
Ġk ind
irt ual
ch o
c ap
ele te
Ġw rite
R A
Ġadd ed
Ġan g
200 2
Ġcorrespond ing
eb ug
Ġf requ
istr ict
Ġst atus
Ġo thers
Ġc y
ro y
Ġb it
7 8
t arget
B uffer
wid et
u el
Ġacc ording
ev ed
Ġw ent
ch ar
Ġcont ains
Ġmed ia
/ \
ĠI r
m on
Ġact iv
B ar
A ct
p age
Hand ler
c or
=" #
Ġrespect ively
n amespace
F ig
if orn
el ine
Ġpro fess
Ġreturn ed
a el
i ef
ser ver
S igma
av y
h ost
ĠM ore
ĠD o
Ġcal cul
A p
Ġl ines
ĠĠĠĠĠĠĠĠĠĠĠĠĠĠĠĠ ĠĠĠĠĠĠĠĠĠĠĠĠĠĠĠ
Ġg round
Ġbe com
Ġse arch
is k
F unction
}} {
d et
ug in
v is
Ġ ill
ĠF rench
; </
Ġbeh av
Ġ+ =
Com p
pl ace
ast ic
ver se
Ġit em
ĠCl ass
\ [
ON T
mod ule
widet ilde
ad ata
dis play
Ġdef ine
{ -
Ġfield s
ĠA c
plic it
AT E
U E
it es
Ġex press
Ġro und
app end
Cont ent
od ing
ĉ ĠĠĠ
Ġpolit ical
ĠM y
H T
Ġreg ular
ĠD ev
8 8
ak er
p ng
Ð ½
iforn ia
semb ly
E E
A pp
O M
Ġin ternational
4 7
Def ault
Ġ ...
ĠC our
S up
ĠN or
add ing
Ġsub ject
Ġp erm
du c
ĠS an
Res ource
Ġst op
pl ies
Ġchang es
iv il
op en
Ġf ail
Th ere
R ep
Ġn ov
at al
Ġmod ule
S C
Ġm ove
Ġserv ed
ac ity
it ect
Ġcan not
Ġeng ine
i ber
he l
sm all
Ġatt empt
ĠĠĠĠĠĠĠĠ ĠĠĠĠĠĠ
ho od
non umber
Fil ter
Ġen vironment
A fter
app ing
and id
ell ing
ot ed
Ġpos itive
Com ponent
Ġ" ""
Ġv er
Ġdist r
d ots
Ġf ig
Ġt reat
eg er
Ġs w
oci ation
Ġtem per
Ġev al
or ge
und er
ĠM ark
Ġadd itional
Ġmult iple
Ġrel ated
Ġc opy
Ġd ynam
ĠIn ter
Ġoffic ial
i qu
ic o
A G
pt r
Ġh istor
Ġn ecess
Ġb orn
Ġp ur
end if
Ġreport ed
P art
Ġth us
Ġr ather
h a
Ġl ive
Att ribute
j son
F I
ar a
ĠR ed
Ġspec ies
Ġmom ent
Ã ³
Ġo ption
i ers
Ġv ector
Ġn umer
Ch ar
Ġph ase
Ġso ft
cent ering
li ke
Ġd ate
Ġpartic ip
c an
ĠO bject
] [
Ġl ed
4 6
Ġl ot
ov ed
Ġs cale
it te
f ont
wh ich
Ġunder stand
D e
Ġcour se
s g
Ġhe ight
ribut es
al le
ram ework
Ġc ut
ĠSt ud
ĠF irst
l en
b ra
us ed
Ġm akes
Ġpr int
Ġline ar
Ġmult i
Ġcon v
V ersion
Ġ url
St art
Ġst ar
un ch
ad es
om b
s u
ars er
Ġ( (
ache s
k nown
Ġac cept
Ġcl ient
Ġt alk
ĠH am
Ġcontin u
d ot
Ġent ire
use um
Ġequ ation
. )
Ġfe el
Ġprot ected
Ex t
Ġex ists
p ush
ial og
ĠSe ction
r l
ĠInd ian
il es
Ġoper ator
Ġf all
Ġd ouble
Ġun it
ist ics
Ġb ar
le ase
Ġresp ons
b b
ĠRep ublic
ub e
ot a
Ġcall back
and roid
Ġth ought
ph p
un ity
idd en
ic les
Ġs on
ap ter
} );
ĠCal ifornia
ĠInd ia
Ġs s
Ġtyp es
Ġa ud
Ġte lev
Ġl iter
at ives
N umber
Ġam ount
ind ows
ef ined
F actory
iz es
V ER
th m
ĠS tr
a ign
Ġoper ation
P oint
itt ing
tab ular
Ġcol lection
Ġwh ose
at ory
Ġthrow s
Ñ Ģ
Ġdistr ict
f irst
ĠE m
Ġspec ified
ĠG erman
Ġbro ad
} -
Ġsuccess ful
ĠS k
Ġset s
Tr ue
Ġs ound
pro perty
Ġv iol
ĠG L
Ġl ove
G ener
le vel
O b
Ġal most
ob j
Ġp rior
in st
Ġde al
Ġpro posed
ed d
ĠD istrict
af e
Ġim prov
Ġcompon ent
Ġpro of
8 5
in n
Ġcomp lete
Equ als
T P
Ġtrans form
Ġrec ogn
ĠC r
ic ation
Ġ{ @
\ ]
w rite
ou ch
Ġz ero
o ch
an ies
head er
land s
Ġprodu ced
st ream
Ġcent er
H ow
Ġst ream
sh ip
Ġ- >
Ġcon str
Pro v
ĠS ince
ĠU p
r s
c os
ĠEng land
rup t
Ġrefer ence
L oad
ĠF rom
ĠP al
Ġper cent
Ġcon tr
ĠD on
Ġquest ion
en ed
9 6
Ġrele ase
Ġd ied
) ]
m ore
5 00
p ost
7 7
; \
ĠD em
199 9
Ġwe bs
ĠC up
enc ies
l ong
h an
ul ations
Ġ! ==
bo ard
O ne
Ġtelev ision
Ã Ń
A ction
Ġto day
Ġpres ident
oy al
ig ger
4 2
comm and
//////// ////////
ĠP ort
Ġinfl u
b urg
Ġpol icy
A cc
( &
ab s
Ġex act
s rc
ĠD es
ĠAustral ia
Ġn orth
am ily
ĠCent er
ĠL em
Ġr ank
Ġc apt
Ġup date
Ġal gorithm
ĠG overn
str act
ĠS ub
Ġsur face
ĠA cc
Ġcontin ue
Ġd a
ell ow
ĠCoun cil
ic ult
L ink
st atus
T ask
x ml
ĠP at
S y
Ġs old
C reate
Ġwh y
P re
ĠL aw
ul ated
9 8
qu are
Ġres ource
f ind
Ġy et
ol ic
n ected
oper ator
Ġloc ation
it ory
ock et
L abel
Ġpop ular
s in
in ing
anc ed
ĠR ef
in ated
ri ef
l a
ens ive
Ġpro p
C heck
o res
ĠEurope an
Ch ild
ig en
ol ve
Ġare as
ER T
" ).
Ġright s
return s
Ġap plication
ro te
Ġf em
Ġ ir
Ġch all
Ġexper ience
loc al
Ġvis it
Ġc atch
Ġt aking
_ .
s igned
ĠCh ampionship
Ġlearn ing
Ġap plic
ot o
" ),
ĠDav id
stit ute
sk ip
und le
Ġin ternal
pr ime
Ġsequ ence
Ġdist ance
Ġinclud es
. $
ict ed
Ġ[ ]
l ast
) </
row ser
Ġfr ont
ĠD iv
Ġs ure
ĠS en
ot es
ul ly
ĠSt reet
Ġb ox
Ġf ather
ag on
u id
ĠG roup
se lect
A M
g l
b ound
F irst
ain ts
Ġex ecut
ref ix
Ġannoun ced
s cale
Ã ¼
ĠP aul
Ġh or
Ġpart y
: "
Ġm ode
Ġf ixed
C L
c ing
ĠR iver
Ġext ends
Ġit er
ĠG eneral
5 6
om orph
Ġte ach
m ing
ct or
> >
Ġmon ths
Ġmov ed
W hen
\ {
a ur
[ "
Ġand roid
Ġcon duct
led ge
Ġdeg ree
D esc
L ength
IN T
un n
Ġinst all
} +
=" ../
un t
b ottom
o z
ĠJ ames
I V
Ġn atural
Y ou
ĠF il
c el
str y
G r
Ġreturn s
Ġobject s
yp es
Ġ ]
act ers
Ġlead ing
Ġf av
n umber
' re
ĠCh urch
ĠM al
Ġp ers
Ġind ependent
Ġdoes n
M em
Ġse lected
G e
199 0
ĠCh ina
ang ed
ĠCan ada
ol s
Ġact ive
y les
Ġn ight
b uf
Ġep is
at tr
Ġequ al
s plit
Ġw ords
Ġt ax
bt n
7 6
Ġin it
ve y
Ġw indow
Ġneed ed
y r
Ġfact or
Ġ& =
ly mp
Ġits elf
Ġob j
P C
Ġconc ern
H el
Ġact ually
Ġdec l
Ġr at
pr ivate
Ġpre c
ĠThe orem
str ong
ĠH ol
pro cess
l or
col umn
P er
Ġform at
) =\
ĠU K
Ð¾ Ð
Out put
Ġreg ard
f e
M et
S I
Ġnew s
Ġwork ed
Ġne igh
Ġrec ent
el t
itte e
Ñ ģ
il i
Ġlarg er
Ġprovid es
Ġiss ue
199 8
A b
Ġfl ow
{ (
Val id
ate gy
Ġro ad
Ġfor ce
N O
if orm
t ag
E m
} ]
ĠN e
Ġobserv ed
S ON
arn ing
ĠNew s
Ġdevelop ed
om s
ĠA nt
Ġm ilitary
Ġs outh
ĠPart y
rem ove
Ġt akes
}\ ,
W eb
Ġed ge
Form at
row s
C D
y a
Ġst age
} =\
ĠO b
Ġinter face
ĠBl ack
ri p
imens ional
< !--
im ately
z eta
Ġrun ning
i as
Ġdet ails
eder al
Ġrelations hip
ĠR ober
Ġexper iment
Ġcomp ar
d at
Ġun ique
p df
fil ter
it ude
Ġequ ival
ber g
Ġh on
Ġde ep
f ill
m t
ash ington
Ġl ost
Ġs ample
d en
m ain
e in
k a
Ġa ward
ĠB er
Ġsh all
st d
A ut
ĠE q
P age
T O
Ġm ag
r um
B ack
Ġw est
$ {
ĠN one
ex pected
Ġwh ite
Ġm id
ER R
Ġcon tract
Ġex cept
Ġiss ues
Ġn ames
at rix
++ )
ĠĠĠĠĠĠĠĠ Ċ
ict ure
as ons
p y
8 6
ent ry
Ġwe ight
ĠTh om
Ġcurrent ly
9 7
Ġeffect s
ĠD irect
av en
o e
ist ance
wo od
AB LE
an ish
Ġfil ter
Ġincre ase
Ġcon struction
w in
Ġre v
b a
r is
ic ol
ĠCour t
Ġm oney
ag o
Ġser ver
Ġdid n
n um
Ġwho le
Ġgiv es
Comm and
ol ume
Ġup on
) ^{
g ener
Ġperform ed
ach ine
N av
Ġw rote
v ille
List ener
Ġc andid
P RO
p ite
Ġfin ite
che ma
pec ially
Ġeduc ation
ĠR ich
Ġcorre ct
d escription
Ġmat ter
m es
ar ily
Ġs ymmet
V ert
b and
Ġme chan
Ġst re
lo od
em pty
( -
B U
Ġdirect ly
T YPE
ĠG od
Ġcon nection
Ġneed s
UR L
Ġdiff icult
ĠB el
err y
Ġpart s
Ġdev ice
4 3
Ġd raw
Ġf ace
n ote
ip al
ĠE X
m em
ĠG erm
d ep
ĠI D
Ġclos ed
id a
Ġj o
ed ia
ĠDep artment
ĠA ward
h space
n ce
U I
Ġcou pl
H istory
ra el
Ġpr inc
Ġcomp anies
Ġ Ã
f inal
cd ots
ĠFr ance
at ively
al ax
o ice
Ġus es
Ġeff ort
}^ \
Ġwebs ite
" ]
| |
icro soft
on ly
C ON
ad ian
form at
out put
ra z
Ġlik ely
gr ad
ĠSe e
st ant
lem ma
Ġt ell
Ġqu ery
id get
Ġf ire
R em
4 1
Ġimp act
Ġgo al
Ġproble ms
ry pt
ri an
i os
8 7
it ar
up date
Ġs ex
$ )
Ġd irection
ĠQ ue
{ }
or ing
Ġocc ur
Ġwrit ing
ĠS y
j av
Ġex pression
ĠT V
Ġd ig
ri ate
Ġv ict
Ġgener ated
Ġw ord
Ġdef inition
Ġim ages
et t
20 22
}_ \
N ext
el ves
v an
Ġout side
ĠT ype
Ġvill age
Ġt im
Ġch annel
Ġset ting
and er
Ġto ld
Ġim m
Ġe lection
anc ial
u ate
u z
Ġpat tern
ĠW eb
ĠAr ch
à ¤
Ġarg uments
Ġtrans fer
ec k
Ġdirect or
enc ed
LA SS
Ġmon th
) }\
param s
ge bra
a res
S U
con tainer
Ġin j
Ġv irtual
ri a
, -
Ġacc ur
back ground
R eturn
S D
Ġanal y
Ġcent ral
Ġben ef
ĠO ut
ber t
Ġsupport ed
5 7
Ġallow ed
Ġd im
Ġcomp ared
z er
Ġdem on
ĠGe orge
Ġent ry
ver y
Ġarg ument
RE F
Ġnot e
ĠC he
R ow
o oth
n es
ar io
text width
ĠL icense
Ġre str
Ġcamp aign
D ev
ĠH all
w est
Ġm argin
Ġth ing
ĠR em
st on
ar ter
li er
Ġoff ice
Ġdisc over
Ġhim self
y ing
Ġc red
P si
erv e
Ġe ast
C ase
Ġdat as
}} (
Ġpresent ed
Ġs ens
ĠS um
Ġchar acters
ag ram
wide hat
vent ion
D r
so le
y per
m enu
Ġin f
Ġl en
ĠW hat
k it
Ġt ree
I O
res h
// /
math sf
Off set
Ġad j
Ġf ight
pre t
Ġmem ory
Ġestabl ish
N D
inal ly
M ode
^ +
. ~
u a
Ġbeh ind
ĠAss ociation
Ġro ck
Ġcom es
Ġth erefore
pro ject
I F
Ġu int
Ġstud ies
C ache
pro x
ou l
off set
im g
ĠJ ust
it ch
fin ished
W idth
Ġassum e
Ġoper ations
Ġindu stry
Ġ\ {
( _
Ġbas is
ĠFig ure
ĠG reen
Ġes pecially
}) \
} /
el se
ir it
Ġeffect ive
ind ing
Ġall ows
ĠD i
ĠW ashington
Ġd rop
199 7
am s
Ġarch itect
ĠArm y
ĠP ublic
c up
ĉĉĉĉ ĉĉĉĉ
q l
ou thern
C P
Ġpass ed
Ġt en
ĠW ork
P eople
Ġfor ward
Ġperson al
Ġs us
ĠS pec
en ing
Cont roller
Ġintrodu ced
in ner
A g
Col umn
ous ly
in i
Ġprob ability
Ġn one
r d
ed ge
ĠS ervice
199 6
Ġro t
Ġnum bers
Ġm ale
Ġc ast
Ġrepresent ation
L ast
at ur
Ġmax imum
Ġsec urity
ugh ter
cl ose
Ġlead ers
ĠA PI
T op
ann ing
Ġide a
5 8
Ġb ank
il er
Ġt our
6 7
ĠWh ile
ac c
Ġd oc
Ġinvolv ed
Ġs ense
Ġp ick
ĠC ons
e al
M M
F e
p ass
Ġfri end
ĠS ome
ĠM usic
T em
ĠM art
} |
q quad
ĠReturn s
Ġj ud
Ġco ordin
u int
k i
x space
re ater
] );
Ġrel ative
Ġcon sum
Con tainer
ĠM et
Ġcount ries
W hat
Ġmod ern
ĠD ata
Ġaut o
Ġcom ment
E nt
198 0
Ġl iving
Ġaut om
f loat
Ġal though
**************** ****************
Ġqu al
F ONT
ĠĠĠĠĠĠĠĠ ĠĠĠĠĊ
th at
ĠUn ion
Ġw alk
Ġs eg
ĠD ay
ro s
ant ic
Ġpol ice
res ponse
ĠFr anc
if act
Ġim medi
ĠO F
ot al
Ġv ers
requ ire
Ġf ood
Ġdec ision
Ġg as
Add ress
tt ps
he t
Ser ver
Ġinteg r
m id
Up date
S O
Ġro ot
T ag
ĠL ou
Ġtemper ature
Ġopt im
sc r
B l
Ġad ministr
ĠP ress
m eta
ĉ Ġ
on ic
Ġnov el
Ġcour t
W ork
d ated
ob ile
p o
ic ate
Ġapp oint
Ġreg ister
C A
ess ages
Ġpr imary
Ġre ve
an i
ĠIn stitute
a ud
Ġm ention
S im
S o
Ġt ro
Ġplay ing
ang er
B A
ind ent
Ġoff set
) -
B ox
Ġag re
Ġdiffer ence
ĠHe alth
Ã ¶
Ġdemon str
ĠP e
Ġinvest ig
Ġr ule
est ival
it ing
Ġlong er
Ġse lect
Ġle v
5 9
Ġun c
d l
ript or
Ġhold s
D O
is ions
ann ot
Ġapp ly
Ġsp in
sh ould
f g
ĠE nd
ĠJ ack
he et
Ġ ess
Ġsc en
ĠJ ew
Ġsign al
tem plate
Ġpro te
D at
Ġrem ove
i ences
ĠComp any
Ġrad io
ĠR oman
Ġbr ing
st ack
ĠN ote
} :
l ate
ĠA pp
' ).
Ġcon ver
ĠC ong
oc al
ĠAir port
{ {\
M ax
Ġrel ig
( [
Ġst ars
P ar
Ġb ad
ct x
clus ion
Ġon line
ev el
Ġh ttps
g in
Ġthrough out
Ġtrans ition
Ġsc reen
omet ry
st ar
Ġ ~
ĠB ook
Ġac qu
ĠAss ert
Prov ider
ex ample
equ iv
Ġs ort
B o
T arget
Ġre ach
Ġav oid
Ġarg s
Ġb all
Ġcompon ents
ĠF ound
Ġfil es
U s
Ġdesign ed
Th at
n ormal
Ġset t
Ġap plied
ched ul
ĠAr ray
osp ital
Ġcomplet ed
Ġvari able
val ues
ĠG l
NA ME
od er
ines e
z on
im ents
in stance
p at
ĠD ec
m atch
Ġin side
V is
id ing
Ġchang ed
P S
Ġsh are
Ġart icle
Ġphys ical
ĠO lymp
L e
Ġs il
ify ing
O O
s ervice
un it
Ġlarg est
L ayout
Ġf ailed
Ġdo ing
}^{ (
Ġdesc ription
? :
ĠTh us
Ġr ace
t hen
Ġus ually
ro ot
h ing
Ġ( "
ĠGerm any
ĠC ap
Ġincre asing
ree k
Ġcontin ued
L iving
ĠR oad
ĠH T
C R
Ġbehav ior
Ġteam s
199 5
D et
& =
E ng
ain e
P ost
h i
Param s
Ġde but
ark s
C an
ĠS ing
D F
Ġs ources
Ġ ;
ig r
Ġfollow ed
Ġsim ply
Ġev idence
Un it
Ġopen ed
Ġprofess ional
se y
Ġqu ick
Ġse em
Ġconfig uration
Ġsol id
Ġnecess ary
ill ing
Head er
el oc
Ġup per
u it
S ince
Ġd am
g n
b reak
m ission
Ġop port
operator name
u ge
Ġm other
ĠRes earch
il ies
Ġcont act
Ġspe ed
ĠM ary
8 9
ar p
Ġjo ined
g s
ĠM or
Ġde b
iz ations
un finished
air s
om ic
ef t
ĠB ay
J son
U rl
g le
5 4
g reg
Ġf a
Ġ$ (\
ĠS l
Ġem pty
n ov
Ġbound ary
S A
D B
Ġal tern
Ġbook s
d esc
Ġh ours
Ġdeath s
T I
ĠLem ma
ĠIs rael
Ġb re
ĠO pen
ail y
ĠM ount
Ġtechn ology
T ypes
u ated
lo or
Ġtrans port
ĠMich ael
A ccess
ĠR oyal
P P
Ġn or
M in
Ġexist ing
C o
ĠM ex
al ian
is ation
Ġc am
P ort
Ġfr ame
5 2
Ġdom ain
Ġh it
Ġpl atform
par se
O p
ri al
5 1
Ġs aw
he st
Ġst ore
ir l
nt ax
Ġch arg
os en
Ġg ave
Ġw ife
ĠDem ocr
ĠChrist ian
omet imes
Ġch urch
Inter face
Ġexp and
Ġb uffer
ĠA lex
Ġqu ality
ic ial
Ġpolit ic
Config uration
R L
Pro cess
ĠAng el
Ġe y
Ġ* *
Ġn uc
in ct
ri er
Ġ& \
Ġm ix
Ġhand le
Ġb g
Ġl o
Ġbecom es
Ġsy mbol
Ġus ers
R ange
Ġto wards
P i
N N
c a
Ġa x
ĠS ociety
erv ed
W rite
But ton
Ġpro gress
199 4
ele br
rap per
En try
Ġt ag
ĠL eg
c s
Ġsong s
Ġe mer
g ate
Ġl ayer
us ion
al let
Ġsign ed
w ell
ĠS am
ar th
ans ion
Ġsoft ware
ĠWh ite
an o
ĠĠĠĠĠĠĠĠĠĠĠĠĠĠĠĠ ĠĠĠĠĠĠĠĠĠĠĠĠĠĠĠĠĠĠĠ
Ġw ait
< ?
( {\
ĠT ime
197 0
ĠP re
Ġlev els
Ġy ield
Ġc a
Call back
ĠT able
}\ \
Ġquant um
ol ar
c i
d s
Ġr isk
ĠM ac
5 3
ĠV ir
ĠM r
Ġman agement
ĠPro v
ip p
for ce
Ġrel ation
erv ices
ed y
Ġro b
ay ers
im ages
Ġag o
Ġf ont
Ġsol utions
Ġsmall er
ĠDiv ision
Ġcho ice
rib e
id ents
Ġh ot
' ),
6 8
r ule
Ġpred ict
il ton
S H
b on
Ġsh ip
Ġqu e
Ġbo ard
a uthor
Ġmar ried
ĠAc adem
Ġst aff
al ed
sh ow
Ġclass es
ĠT ex
Ġmain tain
ĠJ er
l n
b our
al a
refer ence
UL T
b ool
ĠM iss
Ġhe art
ĠM ag
Ġvari ables
re y
ic i
en umer
ĠAfr ica
Ġf it
Ġc ause
Ġh ous
Ġan sw
fil es
Ã ¤
Ġex ception
Ġex hib
mer c
Ġj oin
ĠG old
Ġm us
d i
Ġdef e
li ament
He ight
ail way
Ġe ight
Ġproduct s
Ġa w
Ġ ign
en a
Ġstart ing
Ġread ing
f it
Ġgrow th
Ġact ual
| ^
ĠSc ience
3 00
ĠT ur
ĠY ear
ty p
ad o
Ġlook ing
P R
Ġor d
Ġr ules
ĠM at
ĠM er
f s
Ġcon cept
ĠL og
Ġn odes
he nt
ĠO per
Ġcon nect
ap prox
Ġvol ume
Ġ{ }
b in
old er
Ġschool s
nav bar
' $
ov ers
Ġn av
ĠK e
ĠAustral ian
ĠR ead
f ect
ec ute
Ġw atch
199 2
AR T
ĠB est
et ch
F T
c r
cit et
ĠF orm
com ple
Ġpro ve
Ġprevious ly
Ġstat ement
l ayout
ate gor
Ġelect ron
r ics
yn ch
R el
ang es
uf act
Ġqu ite
Ġrec ently
a fter
ĠIs land
ĠN ow
ĠO ur
Oper ation
Ġother wise
Ġsur v
ĠF ile
Ġm ind
oun ter
Ġcrit ical
Fr ame
ĠM us
ĠD uring
Ġro om
ĠO f
ern el
e ch
Ġv eh
ĠB en
K E
e es
ĠE v
ect ors
Ġs n
id ay
D irect
() ->
comm on
oc ation
ĠRober t
Ġrem ains
} +\
Ġg alax
ĠTr ump
Ġ< !--
ec ution
Ġso on
pro to
ie ce
j ection
ro ad
Ġw oman
Ġlim ited
ĠIn c
Ġbg color
Param eter
& &
Ġwrit er
Ġm ount
Ġp ain
N et
ĠO ther
Ġform ed
line ar
por ary
Ġ> =
t ask
9 2
Ġcon nected
Ġrecord ed
ms elves
clud e
ask et
Ġun its
9 4
Ġse ems
Ġden ote
K ind
Ġcom ing
f ort
ĠCl ub
Ġknow ledge
E Q
ĠT om
ult ure
F L
iss ions
sc ope
Ġconst it
199 3
AT ION
] $
ĠTe chn
Util s
Ġbeli eve
fr ame
m as
Ġear lier
ĠAfr ican
t ree
Ġpract ice
M ar
ĠP ost
Ġnot hing
Ġse lection
ens ions
ist an
Ġext rem
Ġfinal ly
Ġget ting
ĠM ad
S l
all s
Ġf un
Ġit ems
E l
Ġst e
Ġco ach
d rop
Ġprob ably
Ġthe mselves
Ġ ensure
Ġsh ape
v ant
Ġfor ces
9 3
Ġtem plate
b uffer
`` `
g u
Ġwe ak
Ġund efined
Ġ util
T ree
B r
Ġtr avel
ĠM em
Ġinst it
ĠM useum
ter m
b ed
Ġsc ient
ĠC heck
Ġw or
Ġhe l
ĠR ad
7 2
ĠC reate
. /
ĠO ver
Ġn om
Ġl ack
ec ause
Ġstre ng
{ {
v ed
we ight
ĠH en
Ġex tra
}} {\
Ġcap ital
Ġne ut
Ġappe ared
s ign
od ed
M O
mat rix
ĉĉĉĉ ĉĉĉ
Loc al
Mod ule
Ġad apt
ĠW il
re a
ĠCent ral
Ġd ark
CO L
ens us
Th read
k y
L I
ĠD an
Ġc ivil
ĠR ob
p atch
' m
IN E
anc y
ĠSc ott
eth er
ã ģ
Ġcoun ter
ĠS T
t ex
fo o
Ġequ ations
P O
ĠRuss ian
ul ate
l anguage
o om
tr ack
ĠC ath
Ġask ed
C opy
res ents
Ġk m
d est
h r
M atch
ing u
P ack
X X
Ġv eloc
ad ow
om ial
8 4
Ġsub sequ
Ġs ession
Ġf ra
ĠThom as
ĠS al
Ġdec re
duc ation
ĠD et
ĠMin ister
Ġn ature
} -\
asc ript
A V
ĠD el
Em pty
Ġ\ |
\ "
AN D
OR T
op l
it able
ĠH istory
Ġex plicit
ĠCh inese
Ġpro per
f ree
ot ic
O pen
Ġerr ors
Ġdeterm ined
Ġill ustr
Ġrem ain
Ġcult ure
d ocument
N E
alle l
Ġleg al
ol ute
9 1
Ġbir th
6 3
ĠC LASS
ag ger
n eq
ĠT own
math scr
" ))
Ġext ension
Ġim plies
Ġse ven
Ġd ed
ig hest
Ġwant ed
C urrent
iction ary
en ge
ex ports
Ġre pe
Ġth reat
ĠCan adian
struct or
Ġtreat ment
Ġf ix
$ (
c ache
cl os
ĠSm ith
ot ion
d ist
or ig
ĠA tt
m itted
Ġbegin ning
Ġpro ced
r ong
Ġchar ge
ĠĠĠĠĠĠĠĠĠĠĠĠĠĠĠĠ ĠĠĠĠĠ
az ine
AL L
] \
199 1
Ġet c
ĠB ill
#### ####
U M
Pro perties
Ġtr ade
as ic
PE CT
l am
d imensional
N ow
ic ens
Ġdirect ed
ĠK ore
ph ere
ĠKing dom
ĠTex as
Ġpl aces
H ash
Ġ- \
Ġs witch
Ġa uth
ĠH ere
res ource
Ġdis e
Ġst ri
Loc ation
g raph
Ġres ources
Ġj ournal
Ġa im
it z
1 000
The n
A PI
Ġmov ie
d epend
Ġfin ancial
ĠAn n
w indow
v space
Ġd ram
merc ial
Ġ esc
Ġs en
v est
Ġmiss ing
mult icol
ĠI S
ĠF ore
ĠG reat
e an
g an
Ġpr im
ĠH REF
Ġco eff
Ġc ore
H ost
multicol umn
ĠGr and
Z E
elop ment
Ġcont aining
M ore
Ġf ast
at re
p op
) }{
ir ing
ĠFranc is
ent al
V AL
( *
Ġf loat
Ġrun s
Ġwe b
N ote
ill er
Ġfig ure
out e
Col lection
M ult
D ir
D escription
\ ,\
the orem
O ption
ĠE rr
8 2
j oy
ĠComm ission
ĠF in
Ġpre vent
= {
ĠT or
on om
ur a
ĠD E
.... ....
Ġev olution
act or
Ġincre ased
4 00
ĠWest ern
v as
Ġatt ention
Ġneg ative
Ġmin utes
enumer ate
ĠTh erefore
Ġtr ain
Ġk illed
Q L
C S
D ocument
ĠC O
Ġsc ience
iver se
Ex pression
Cont rol
g ence
Ġpe ak
ĠV er
ann ed
Ġf ully
re q
F O
P T
h ad
Ġn amespace
res hold
to ken
s v
Ġ* )
K e
6 2
var iant
in y
ict or
Ġm iddle
az z
Ġfor ms
Ġb ur
N one
equ al
W indow
ĠFr ank
Ġeas y
ĠF e
Ġmean ing
Ġcl uster
P L
ind er
Ġc op
Ġant i
6 1
Ġcom pl
fl ict
Ġs af
item ize
Ġsc ope
am l
Ġepis ode
Ġparam s
Ġequival ent
Ġfam ilies
a o
ĠJapan ese
Ġst ay
Ġany thing
sup port
Ġre comm
P A
Ġgener ally
Ġbro ught
olv ed
Ġresult ing
tain s
Ġinter view
ur t
Ġsc ore
Ġest imate
Ġover all
ST R
M y
Ġcon vert
M on
Ġreg ions
ĠR el
Ġstruct ures
Set tings
Ġbel ong
n orm
ĠLou is
ill a
E v
ĠR E
Ġdescrib e
Ġpres ence
as hed
ĠP o
S he
Pos ition
ĠB ase
ic ago
ĠV ol
Ġappe ars
se cond
Ġinterest ing
St at
Ġs end
Ġh ol
c at
a a
ol f
pon ents
Ġtry ing
Ġmagn etic
ĠH el
no indent
ĠCar ol
% %
Ġrequ ires
urs or
Ġeconom ic
F C
I ter
7 4
Ġact ivity
Ġparticular ly
s d
Ġx ml
Ġorig in
is l
~ $
Ġt err
: (
pro ve
En c
Ġw ide
ĠS ur
ĠM ont
om a
196 0
z a
ĠSup er
Ġr ap
D o
Ġchall eng
v ector
Ġc elebr
Ġcell s
Ġdeterm ine
ĠĠĠ Ċ
Tr ack
set s
Ġman ager
rel ated
cre te
AC K
) }$
Ġover ride
Ġb ottom
Ġle ave
' ve
Ġsh ift
Ġstud ied
re land
Ġdr ug
Ġdec ided
th on
Ġfin ished
D A
L evel
Ġrat io
Ġre ached
ick et
tern et
Id ent
Ġcol lect
Param eters
ic ated
ĠAcadem y
ĠP eter
H O
B S
uss ian
d im
Ġda ughter
s pect
m ode
ib ly
ĠG ames
Ġgr ant
d ebug
et ime
ĠB uild
w rit
ev al
Ġre con
Ġpl ant
Ġde ad
t ml
Ġdest roy
c over
ĠO R
rom ise
Ġs ports
it a
ĠB ank
Ġcontain er
ã ĥ
Ġmeet ing
CO DE
Ġto ken
ĠVir gin
Con nection
Ġp urch
\ '
Ġfe ed
198 9
um in
ac ement
Ġc it
c p
Ġatt ribute
ĠM o
ĠCong ress
8 3
ĠEx ception
ĠR ock
ĠFound ation
re al
}} _
Ġal gebra
8 1
$ }
-- -
Ġch art
h ash
if ies
Ġpre p
7 9
Ch ange
}} }
re ct
ur i
ĠGovern ment
Ġw ays
Ġg reater
Ser ial
N ames
s cal
Ġbas ic
St ore
Ġfem ale
Ġmov ement
r ange
ĠAcc ording
P o
ud d
Ġlead er
re es
al ysis
M C
Ġspect rum
ĠFl or
Ġfrequ ency
Ġp anel
r or
ĠB ig
b ind
at in
ĠChar les
Ġappro p
web kit
ĠComm ittee
Ġin sp
Ġmin imum
W idget
j oin
Ġon es
ĠPro gram
ĠA ut
et te
Ġan im
Ġ â
Ġm ut
t im
Ġrepl aced
Sc ript
Ġh ighest
Ġrec over
Ġst ated
ĠR un
Ġpre m
ĠW omen
Ġpat ients
Ġrepresent ed
Ġstr ict
Ġsc ript
ĠT HE
Ġevent ually
ĠReg ister
M D
Ġdistribut ed
As ync
el er
Ð »
S earch
ĠRich ard
ĠF ield
Ġp en
umn i
Ġre nder
T C
ĠJ ose
M eta
wit ter
Ġrem oved
ĠH ill
asket ball
t ers
ing er
ond s
Ġmed ical
Ġident ity
Ġad opt
in em
G o
con f
c ard
} '
Ġg old
Ġab ility
ym pt
i pl
) +
7 3
ĠEX PECT
" ));
Ġc ard
Ġm is
) /
ph er
_ ;
ĠN S
ĠRuss ia
Ġdim ension
Ġh um
Ġart ists
Ġl ives
> ,
Ġsec ret
Ġsome one
ress ion
ollow ing
Pro t
B ody
jav ascript
s ystem
G B
or ation
Ġass ist
Ġlist ed
D es
u an
ick er
Ġocc up
Ġbl ue
Ġimplement ation
Ġfri ends
Ġpress ure
ĠH istor
Ġap i
Ġpro file
=" _
ĠL ong
Ġse ek
Ġf ramework
iz ont
Ġn orm
ound s
c ur
Ġrep resents
Ġstud ent
ell a
% ;
Ġtrad itional
Ġex am
P at
Ġp adding
7 1
Ġc ache
T ER
Ġs amples
Pol icy
ĠC re
k m
ol t
Ġm icro
Ġext ended
Ġe lected
\ }$
Hand le
ĠRec ords
trans form
Ġre li
ĠM ass
ul let
yd ro
ĠL os
Ġcle an
: </
Ġuse ful
Ġtest s
Ġth read
rom e
Ġle ague
Ġorgan ization
H ttp
Ġh yp
b efore
198 8
* {
Ġmet ric
Ġman ufact
Ġ ::
Ġsit uation
Ġprodu ce
Ġed itor
h igh
ick s
D D
Ġin fo
ut y
R ev
^ -
Ġun iform
ĠN ame
Ġ{ };
ot ing
Q ue
or por
Ġt it
6 9
ĠM ap
Ġs ometimes
Ġfl ag
cont rol
k er
ĠBo ard
ĠSt ar
c opy
IG N
Ġredu ced
Ġsuff icient
D om
Ġget s
Ġapplic ations
Ġnear ly
Ġl atter
Ġpl aced
ĠPro ject
th let
T im
ig er
au ge
ole c
l ines
D own
Ġactiv ities
Ġh ope
f n
ond er
as er
Ġsp ent
Ġprogram s
ourn ament
ĠGo ogle
is ms
P tr
Ġfound ed
Refer ence
Ġche m
Ġvari ety
Ġhigh ly
Ġgo es
Ġagre ement
j o
L S
app ed
Ġgener ate
Ġsche me
ĠM el
d el
i able
in ternal
ĠSec ond
Ġsay ing
Ġrem aining
ĠZ eal
w ar
Ġm ur
Ġevery thing
Ġb us
ab ilities
Ġb al
ĠB rown
ĠIt alian
Ġart ist
R ight
R I
Ġneigh bor
ĠC amp
Ġset tings
25 5
Ġrece ive
Ġmat ches
est ed
Ġsl ow
Ġimmedi ately
Ġc ategory
cl es
L eft
Ġis n
Ġfav or
or a
Ġeas ily
b i
k in
() :
d x
irc raft
Ent ity
ĠG a
ms g
ĠPar is
il ation
Ġsh ared
Ġra ise
iqu es
Ġweek s
Ġen joy
ĠĠĠĠĠĠĠĠĠĠĠĠĠĠĠĠ ĠĠĠĠ
ĠC all
ĠZeal and
he ast
Ġinter pret
Ġn et
Ġequ ip
wh ile
sh ift
b order
Ġstr ategy
med ia
ERR OR
Ġe arn
Ass ert
Ġp ark
ant a
Ġcho ose
Ġch ain
p ers
ĠDirect or
M ark
ĠU nder
il s
Ġsm ooth
ĠT wo
ĠAr g
E M
ĠT im
Ġal t
Ġcol lege
under line
Ġin str
Ġro ute
Ġf air
x x
at ically
agn ost
Ġder ived
Ġveloc ity
ĠC ON
Ġ er
Ġquest ions
Ġappoint ed
L P
Result s
or ter
sh ire
reed om
util s
Ġp ull
ev en
k r
Ġpre t
CT ION
Ġsl ight
Ġalbum s
Pro ject
hand le
Ġsc ene
Ġbe y
" `
Ġcomplet ely
ĠSec ret
Ġcaus ed
Ġv an
G ET
ĠA v
Ġdatas et
__ __
Int eger
Ġl if
ĠM ost
typ es
198 7
uct ure
Ġgu itar
Ġex amples
Ġexact ly
ig an
Ġh yper
pro d
by te
av ed
Or der
Ġsh ot
T e
Ġa ctions
et ri
ad y
ĠG ener
se ct
ĠFor ce
orn ing
Ġ( '
E O
ĠD en
Ġbey ond
ĠT imes
ĠCh icago
================ ================
co pe
ert ific
ĠSt ep
Ġgr and
d irect
m ut
}} ,
Ġpar se
Ġat tr
Ġparent s
con s
sy ch
ĠAl so
Ġs ch
ell ig
os ing
Ġnot ed
Ġch osen
param eter
Ġd ou
izont al
ĠI reland
Ġbuild ings
F ont
H ere
ĠCath olic
Ġlead s
Ġhas h
Ġg un
Ġst ra
Ġunc ertain
198 6
ak ers
Com ple
ĠC D
S L
Ġfour th
st yles
ĉĉ Ċ
h aps
Ġcompet ition
erv ation
Ġmin or
Im pl
Ġcon sequ
art ifact
Ġp aint
Ġess ential
Hel per
ro t
S ession
il ed
yn omial
$ _
Ġsum mer
B undle
Ġcall s
Ġcoll abor
. [
Ġapprox imately
V ari
S ign
ĠP y
Ġdiscuss ed
Ġst ack
a uth
Ġno ise
Ġim prove
Ġmot ion
Ġexp ansion
h ouse
L ong
Ġfore ign
Rec ord
Ġw ave
Ġst eps
and a
Ġdel iver
Ġproject s
Ġst ories
: \
Ġsepar ate
Ġaff ect
ĠM ath
Ġbro ther
P ass
er ies
s ort
ĠL ake
Ġopen ing
U RE
ag ment
T V
E C
Ġelect ric
Arg ument
Ġturn ed
Ġcomput er
le ep
Ġprot ect
ĠL ife
k g
Ġ _{
In valid
O ur
bl ack
Ġclass ical
ynch ron
ĠFil m
ĠOff ice
Ġdat abase
Def inition
os h
Ġcrit ic
R ender
tr m
ig ration
ĠAl though
By tes
bit r
d elete
Ġrec ords
Ġident ified
Ġn ative
call back
ĠI ll
Ġsur round
Ġl ock
ol k
du ction
Ġg reen
Ġcons ists
ĠM ax
' ll
al i
Ġgener ation
Ġestim ated
U B
Ġe igen
dev ice
U P
ĠU s
min us
Ġredu ce
com ing
Val ues
= #
Ġoriginal ly
Ġinter action
Ġcompar ison
P op
Ġc orn
198 4
ĠL and
Ġf oot
Ġmov ing
c ut
Ġfact ors
ore t
ĠA ust
Read er
all ery
ar l
= (
er c
Ġpur pose
ĠP eople
Ġl ibrary
ã Ĥ
Ġmajor ity
p resent
Ġv s
is hes
Ġgiv ing
W E
Ġa mb
re nder
i h
bo olean
end ar
u ke
tex trm
ĠC am
ĠAr ts
ĠRev iew
inter face
ĠAngel es
at o
f ound
}^{ -
Ġoper ators
Ġpo or
s ite
ĠS und
ĠA L
Ġper fect
Ġpr ice
198 5
Ġinflu ence
es h
Ġw orth
Ġent er
ro om
The ta
T ool
ul s
ar ant
Ġnetwork s
roll ed
Ġser ious
f a
leg al
t ure
ĠSer ies
ann els
ist ent
Ġm achine
Ġplay s
ell ed
ĠS un
ix el
Ġstra ight
Ġl oop
Ġpl ans
l ers
Ġin fin
ĠSum mer
Ġde lete
Ġthe orem
un ched
ĠT op
ĠFlor ida
ow ers
Ġbe aut
as y
Ġprocess es
OR D
ĠB re
d eg
N on
ĠIr an
C ore
ĠF estival
Ġvert ex
point s
ĠIn st
Ġder iv
Ġtr a
ĠAt l
Ġemb edd
Ġman if
A m
( :
Ġm aps
c ar
ĠSp anish
ĠD ate
' .
Ġcar ry
ĠP an
{ $
d es
ĠC ast
Ġp ri
Ġe mail
g lobal
Ġshow ed
up le
su ccess
Ġw rong
und red
Ġf ederal
Ġrele vant
h or
}} _{
ĠÂ £
pos es
p g
G E
ed s
f aces
ad er
ĠE ducation
Ġcontinu ous
Ġbr anch
Ġin ner
Ġc ref
E ach
Style ID
ĠMex ico
Ġmention ed
Ġr ates
i en
urre n
Ġpr iv
S u
B O
ĠV ictor
Ġinteg er
F alse
ĉ ĠĠĠĠĠĠĠ
ĠP enn
Ġvis ual
P arent
gr id
if ically
fr am
Ġj oint
C al
Ġas pect
ĠIt s
Ġres olution
ac cess
y an
Ġex tract
wh ite
du le
Ġcomp act
to String
Ġindividual s
s ession
est amp
Ġt ouch
ap se
ĠU se
ĠJ ournal
Ġs ociety
! !
ĠS ocial
ĠS il
Ð º
ew idth
ĠN etwork
Ġs quare
ent y
Ġhe avy
or ial
Ġb rief
ar ian
SE T
Ġass ign
ap ers
mod els
< \
Ġ( *
Ġp refer
ĠG en
ribut ion
ri age
Ġ+ +
Ġh op
Ġ$\ {
text tt
Ġcur ve
w s
Ġprovid ing
Ġdi agram
Ġcom mercial
O ther
f ocus
Arg s
Ġw id
' >
re place
cont in
Ġhe nce
ab it
S ing
Sy mbol
raz il
ĠTr ue
ven ue
ĠM ethod
Ġcou ple
Ġpr ison
en v
Ġf if
c lear
M e
Ġdem and
P RE
Ġp ert
Ġgr av
wid get
Ġ( -
al o
z ero
N e
field s
COL OR
s ur
Ġobserv ations
Ġag ent
ĠF urther
Ġcon cent
Ġcap acity
v ision
Ġby tes
Ġcandid ate
D oc
ĠT em
k ind
Ġexper iments
foot note
Ġliter ature
D ep
equ als
R ed
Wh ile
V ar
ut ch
ĠE vent
Ġfail ure
` .
Ġst ations
ĠF ootball
Ġquick ly
Ġs plit
Ġ> >
Ġrem ained
ĠK n
it ors
ĠAr ab
Ġc os
Ġsur pr
ĠGe org
Ġst orage
ĠM ur
Ġqu arter
as ure
h s
ĠT ra
ol a
ag raph
Ġv ote
Ġpol y
Ġ\ ;
ĠErr or
Ġ$ .
ĠF unction
id ers
198 3
ynam ic
org an
Dat abase
c oll
Ġhead er
ĠP et
ĠHam ilton
Ġpl ot
align ed
ul y
Ġm ission
19 50
Ġpart ners
ĠT re
c ript
ik i
ĠU N
Ġun known
aw s
type of
ĠB ur
) |
V ector
atal og
ĠL ine
S cope
Ġw ind
ic ons
Ġpl ane
ĠVirgin ia
R ect
ĠSh ow
ploy ment
def inition
pl ugin
Ġcontr ast
ĠHen ry
ist ers
il arly
Ġs ave
n y
s end
ir ls
stit ution
com ponent
Ġwh om
ategor ies
Ġun signed
-------------------------------- --------------------------------
Ex p
ĠCh ild
Ġac adem
Ġrespons ible
n el
put e
~~ ~~
ip eline
Ġhouse hold
Ġown er
ĠAs sembly
ĠO h
Ġbroad cast
Ġ$ {
Ġex ternal
M ock
_ *
Ġp i
ang ular
D I
ĠY our
ic ies
ud get
Ġapprop riate
N G
it ation
ir al
j a
t og
Ġtest ing
Ġim ag
hen s
ĠOr der
Ġm aster
im a
ĠEng ine
Ġ eth
How ever
ĠIt aly
Dev ice
Ġref lect
Tem plate
Ġn ation
Ġcre ating
ish op
St orage
Ġpartic les
ian a
Ġseg ment
ir med
Ar t
P H
Ġun ion
result s
Ġ[ '
J ohn
Ġform ation
Ġby te
Ġcommun ities
Ġth erm
omorph ism
ĠL O
Ã ¨
Ġcontribut ion
ov iet
Ġin form
Ġa ircraft
AT A
Ġv oice
reg ister
ast e
S chema
or al
198 2
Ġconsist ent
D on
Ġdist inct
s pe
ĠO ld
Ġh arm
m ake
Ġtrans l
opl us
Ġass ess
A c
Ġcomp ute
cl ick
ĠMart in
D elete
artifact Id
Ġevery one
Ġdise ase
M enu
ĠE ach
Ġfeature d
ĠSc ot
def ined
Ġ ut
et ry
oot str
Ġin line
O K
V er
Ġex c
Ġann ual
Ġre ports
ĠE arth
Ob j
N um
ĠR equ
In st
st ore
subset eq
W riter
Ġd u
lin ewidth
Ġform ula
ĠV alue
Ġwork ers
st ep
On ly
ĠI O
ar c
od ay
Ġpol ynomial
p ool
at ial
h over
ĠB usiness
Ġto ol
Ġv oc
Time out
ĠT our
Ġsignificant ly
OR M
D L
Bo olean
ug ins
ĠD om
Ġun ivers
ĠPro fess
en um
W S
dis abled
Ġ< =
ĠV is
Ġf ine
in ations
Ġins ert
Ġmost ly
ific ations
Ġf elt
Ġm ill
Ġtr aff
EX T
Ġsp aces
Ġcl oud
Ġf irm
15 0
Ġar bitr
j i
Ġexist ence
Ġmeas ured
Ġo il
Ġdes pite
Ġb illion
Ġpack age
u ations
ĠJ un
sh ot
Ġh ar
Ġdep th
pos ite
m iss
Ġen h
Ġadv ant
Ġlate st
Ġdig ital
hes is
Ġdepend s
ĠG ood
olog ies
Ġend ed
ĠS pr
Ġgo als
T S
fram ework
ĠF ace
Ġb attle
Ġ$ |
Ø §
By te
Ġwin ning
ĠO p
U se
ĠF ort
ĠDev elopment
im inal
se ud
ĠUS A
Ġp od
Ġcit iz
ĠIs lam
v m
Ġser ial
ĠSw ed
ĠM a
Ġfl ux
Ġoff ers
Ġf arm
Ġr ul
ĠJ ud
R C
Ġon to
li e
Ġtr ust
oc key
add ress
Ġsp read
Met adata
doc s
ĠH and
in itial
Ġar m
ici ency
St ack
Ġcon flict
Ġ\ (
ĠĠĠĠĠĠĠĠĠĠĠĠĠĠĠĠ ĠĠ
ish er
Ġm unic
n am
Ġar rest
ĠM il
Ġcar ried
in ant
Ġra ised
Ġbound ed
197 9
r ich
Ġ( $\
as ion
if fer
Ġpos itions
Ġg auge
Ñ ĥ
Ġassert Equals
att ice
Ġrad ius
Ġcomp are
all ow
AC E
imens ions
mult i
ĠK ey
Ġdet ection
ke ys
ell ar
Ġal leg
H as
ĠL ibrary
Ġcomb ined
w a
En abled
Ġal umni
ĠYou ng
k o
Ġch ief
Ġserv e
Ġin come
ank s
class es
Ġro ut
Ġrelig ious
Ġph il
Ġm ixed
ĠOlymp ics
Ġp iece
set minus
Ġauth ors
al g
__ (
Ġcomb ination
Ġro ll
Ġown ers
ĠMed ia
g est
Ã³ n
Ġsit es
ĠO l
anc ing
Ġinit i
Ġb inary
ov a
group Id
uck et
m os
=" -
ĠA wards
Ġ" \
omet ric
c ient
S M
n eg
Ġenc our
Ġdynam ics
he m
rop y
Ġfootball ers
P od
F ound
Ġopport unity
' \
R ule
Ġold er
ĠL ee
Ġke ys
ĠTe am
ĠCh ief
^{ -\
ĠL in
Ġdiscuss ion
Ap plication
Ġdr iver
r b
Ġe lem
Ġact or
ĠJ SON
ĠB i
anc er
Ġsh oot
Se lect
' ],
st op
Ġdet ail
w edge
ol ver
iv ial
ĠM ov
ri end
Ġaward ed
v a
198 1
ian o
ootstr ap
com ment
Ġsing er
Ġmus ical
ev es
ook s
m ann
Ġlet ter
="../../../../ ../
ang ing
Ġ ),
R oot
f ull
Ġaccur acy
Ġeffort s
Ġp ush
S k
Ã §
Ġgr id
ĠP ac
cl aim
Ġpartic le
in f
ul k
ĠL ove
Ġt ensor
The se
Ġse a
Ġdev ices
ĠH ot
est s
ĠE qu
ins ert
ck now
ĠPar liament
set tings
Ġin her
ĠVal ley
sub figure
in ate
Ġth r
ĠN O
J ob
Ġunderstand ing
Ġla unched
Ġconstruct ed
Ġs ector
k l
Ġw ild
gorith ms
Ġmur der
Desc riptor
z ing
rem e
_ ,
S um
ĠH aw
w rap
Ġex change
Ġansw er
Ġpol ar
Ġco ast
Ġpart ial
Ġsp irit
EN D
C re
Ġhelp ed
IT Y
Ġh us
SS ERT
Pro p
Ġm ock
Ġth ous
ĠJ im
} "
ic ine
on ym
_{ (
d ouble
Ġexperiment al
Ġsaf ety
Ġstr ateg
Ġcent re
ĠW ood
equ ality
st ein
ud io
Ġmeas ures
1 20
c f
Ġp oll
Ġabs olute
' ))
D ebug
Ġb lood
ĠS pe
> .
Ġrel atively
Ġpro ceed
ex port
ust rial
os oph
im it
M ed
Ġgrow ing
D i
ak a
Ġdis k
Ġ$ [
we et
angu ages
S m
Ġo s
Ġtyp ically
Ġp le
Ġr ing
app ly
Ġhand ler
B efore
Ġdirect ory
P arser
\ }
Ġresp ond
Se ction
G u
in et
ĠI P
stand ing
> ();
g a
Ġla unch
sc ription
Ġ} )
` ,
Ġ[ ];
V olume
ost on
ful ly
ple ments
_ +
Ġsus p
Ġident ify
he lp
Ġc at
Ġsymmet ry
Ġproced ure
ĠĠĠĠĠĠĠĠĠĠĠĠĠĠĠĠĠĠĠĠĠĠĠĠĠĠĠĠĠĠĠĠ ĠĠĠĠĠĠĠ
ĠB ob
C or
Ġm olec
Con str
Ġrem ov
ĠS ol
Ġed ges
Ġnot ice
Ġpret ty
ĠH ome
W indows
Ġfil ename
Ġsen ior
Ġdiv ision
ĠB G
i ro
Ġconstr aints
n ap
Ġwas n
M B
ic ity
st at
vir t
T itle
l ig
ĠCarol ina
b its
Ġe cho
ĠRep ort
Ġfor ced
Ext ension
Ġac com
Ġoffic er
_{ {\
Ġs al
Ġw ood
Field s
ell er
he mat
Ġhand s
Ġsc atter
Ġbecom ing
it an
L a
ĠM os
Ġal one
b al
ĠJ o
ĠL iber
cl oud
ĠL ord
ar ia
lim its
Ġd ual
Ġpo inter
197 8
ĠE mp
at i
Ġre ject
p ower
In it
Ġcle arly
Ġopt imal
Ġread y
on a
Ġapprox imation
ĠJohn son
Ġang le
m en
Ġinstance of
Ġsc ored
Ġf unc
ĠMan agement
AG E
ĠThe ir
Ġ$ -
Ġfl at
d ates
Ġtr igger
y er
Ġdec ay
ele gate
ĠE p
Fig ure
ent er
Ġh undred
ash ion
ans as
Dec l
form s
el i
Ġun less
att ribute
ult ural
TE ST
c ustom
d agger
Ġat tract
Ġpart ies
ard en
st one
= -
fr ont
) ">
pe ople
n ames
Ġshow ing
Ġbut ton
D uring
Ġrem ember
Ġtask s
Ġappear ance
Ġre asons
item s
ay lor
Ġmaterial s
ĠJew ish
197 6
Ġrefer red
Ġstreng th
ĠII I
Ġdel ay
oth ing
AT H
Ġarchitect ure
Ġcan cer
Ġem ission
Ġf ans
Ġslight ly
Ġj av
Ġtechn iques
at ers
ĠSt and
ex ception
l ook
ne ctions
Que ue
con nect
Ġt ournament
r ate
s che
ty ped
Ġin tr
ĠĠĠĠĠĠĠĠĠĠĠĠĠĠĠĠ ĠĠĠĠĠĠĠĠĠ
Ġc ook
rodu ction
Ġmoment um
Ġs ampl
ult s
197 2
Ġdec om
Ġm sg
sec ut
P erson
ĠA N
oll ary
ĠC opy
Ġincre ases
Ġwrit ers
clus ive
ĠE r
ĠJose ph
ĠN OT
g ers
-> _
bl ue
ĠS ar
S w
ĠG ets
Ġcalcul ated
I A
Ġdet ect
un ct
ap ed
Ġvert ices
ul f
van ia
h y
ĠU RL
ĠW ell
ograph ic
ament al
ic ed
Ġag reed
Ġpair s
Ġbr and
Ġcom ments
D raw
ĠP ak
Ġprocess ing
Ġaltern ative
p adding
Ġcoupl ing
ĠCol or
hold er
L ock
Ġle aving
ma zon
Ġup dated
Ġnuc lear
D C
ĠG ame
Ġax is
. '
Ġed ition
Ġcommun ication
rec ated
ĠC ode
ĠM iddle
ott ed
Ġcl ust
Ġmed al
pos s
Y ear
F ramework
Ġd raft
e ach
ĠJ ones
Nav Bar
ĠS aint
\! \!
A pi
Ġprot ocol
ad ium
Ġst ock
m argin
Ġk ing
Ġ' /
ĠCent re
Ġany one
Ġman aged
to ol
ĠM icrosoft
ĠHe ad
ä ¸
In itial
ĠI d
ĠW ales
ĠS ervices
c ases
Ġinc orpor
ĠSund ay
Ġform al
Ġprop ag
197 7
Ġh idden
ĠBrit ain
clud ed
ab y
all oc
r ical
sh ape
Ġis land
ĠL i
Ġdr ive
Ġp ool
Ġob vious
S end
Ġmin im
G S
F urther
Ġl ived
Ġblock s
ĠM P
197 4
Ġs ales
atur day
Ġw all
ic ients
Ġfra ction
197 5
ĠIr ish
), \
ĉ ĠĠĠĠĠ
it o
ĠB razil
ĠAs ia
Ġexpress ed
Ġb ill
er g
Mem bers
ĠNor thern
ĠMod el
ĠSpec ial
I B
Ġth reshold
ĠCor por
Ġg irl
ĠPl ay
Ġch ance
Ġview s
Ġtri al
Acc ording
Ġp ages
big g
Ġeff icient
ĠEx t
f amily
Ch annel
Ġcost s
Ġpert urb
CH E
ce an
sq l
OD O
Ġoffer ed
ĠJ ac
Ġcal c
aut o
go ing
Dis play
if ul
196 8
Ġnumer ical
rad ius
Ġcontribut ions
Ġr are
are t
st o
; "
Ġhe ard
sh ort
N etwork
S ION
Ġstud io
Ġpro pos
air man
Ġsatisf ies
Ġprodu cer
ĠS u
ĠB et
Ġnumer ous
O wn
Ġatt ributes
Ġ ul
ĠMore over
Ġhistor ical
Ġin fr
Ġall oc
Ġfam ous
Ġs afe
S ome
ĠS ir
Ġhus band
w an
Ġv ac
ĠPro position
Ġdis s
ĠDef ault
Ġpro test
Ġrepl ace
] ]
I con
add r
ĠN avy
Ġcont ained
Ġgu arant
ĠCol umb
sy l
Ġindic ates
ĠSp ain
Ġm orning
ĠV iew
ĠEn ter
an es
im s
Ġent ered
197 3
cm d
Ġinterest ed
D P
u er
Ġb asketball
w ait
pt on
A F
)) )
Ġmod ified
are n
Ä ģ
Ġp urs
od ies
Iter ator
âĢĿ .
Ġorgan izations
In ternal
ĠH ence
sup er
Se lector
Ġr ise
ĠĠĠĠĠĠĠĠĠĠĠĠĠĠĠĠĠĠĠĠĠĠĠĠĠĠĠĠĠĠĠĠ ĠĠĠĠĠĠĠĠĠĠĠĠĠĠĠĠĠĠĠĠĠĠĠĠĠĠĠĠĠĠĠĠ
ertific ate
import ant
ĠP op
Ġex cit
Ġpolitic ian
Ġcre ation
Ġ| \
m ock
Ġclass ification
text sc
HT ML
Ġstr ugg
Ġadd ing
F unc
am ing
ĠWe ek
Ġp hen
* )
k et
j ust
ir a
Ġs chedul
Ġrap id
im b
}} (\
Ġclaim s
Ġcall ing
Ġadministr ation
u ous
ĠC ross
Ġinitial ly
M ain
D S
not ation
FI LE
Ġind epend
_ ->
z en
ĠK h
pro duct
Ġm ask
istr ation
Ġcy cle
n amed
Ġcorrespond s
Ġsem i
Ġnew sp
ĠJ es
d ict
Ġappro aches
s ol
Act ive
Ġhapp en
Ġscal ar
Ġc ities
ĠP oint
it ness
="../../../../ ../../
Ġdet ailed
ĠH uman
Ġp ure
art s
Ġtrans action
Ġor ient
J SON
Ġst able
press ed
pect ive
um s
Ġcover ed
D R
_{ -
Ġachi eve
Ġpro f
ĠB oth
Ġcl in
ĠB ack
Ġke pt
Ġgalax ies
k ins
Ġp p
Ġcomput ed
in ity
ock er
ĠSec urity
w ords
urren cy
in v
Ġc ool
Ġcomm it
Ġdiffer ences
Ġcomm ission
FA ULT
25 6
syl vania
M sg
Ġsu c
sc ape
Ġt or
' _
//////////////// ////////////////
} %
Ġs qu
Ġact ress
## #
est er
Ġr an
ellig ence
had oop
KE Y
197 1
Ñ ı
t ri
Ġassum ed
Ġin equality
X ml
p anel
gy pt
W ill
ĠN umber
r ick
)\ ,
TE X
Ġassum ption
ed it
g g
~ $\
ĠM ain
un signed
Not Null
) ).
h om
' d
medi ate
b ad
Ġwe ap
Ġsy nt
Ġinter val
Ġspect ral
Ġr iver
H S
ĠW ay
B R
C ap
Ġown ed
ĠS oviet
Ġocc urs
id ae
ĠM any
D IR
ad or
ĠL ie
Ev ents
E arly
Ġn ine
Ġcult ural
D ialog
Con d
m ond
ĠE ven
ĠWilliam s
b u
reg ion
Ġinteg ral
An y
Ġm essages
Ġmain ly
col on
) ),
E q
c ategory
Ġp aid
ĠC y
_ (
Ġtri ed
os a
urb an
us es
196 9
y e
Ġsur vey
ĠR o
ug by
Ġh ospital
ĠP ri
Ġ" /
ĠP ower
F S
I X
ann er
ĠCon ference
Cl ick
r im
ĠF red
ar ation
Ġoper ating
amp ion
sub subsection
Ġstart s
ĠIn itial
Ġcirc le
Ġst ress
Ġintrodu ce
ĠC ivil
em porary
in ion
ĠHT ML
w er
C ustom
Ġp an
M ay
ĠS and
Ġ} \
Ġam plit
Ġvis ible
Ġtr uth
Ġs outhern
Ġsuc ceed
It ems
ĠSt at
Ġsim ulation
Ġtraff ic
assert Equal
ĠFace book
Ġmeasure ments
igh ter
ĠR am
os is
T ab
Ġpart ner
ĠN ode
Ġachi eved
Ġindic ate
ta il
iter ator
z z
) _{
Ch anged
ition ally
Ġofficial s
Ġto ols
Ġr ac
ad r
Ġass igned
Ġpower ful
od d
Ġset up
ax is
ap plication
s el
ĠT ele
Ġdep artment
sc roll
by tes
F ail
Ġorder ed
str a
c hen
w riter
new command
ĠT ext
ec es
Ġbehav i
ell i
Ġp icture
Ġattack s
C I
Ġ ice
Ġrestr ict
Ġlook s
ĠA R
ur ies
ĠH or
ĠT ask
mod al
) }(
G raph
Ġv ary
ĠG al
p a
h ere
ĠTechn ology
Ġide as
i ate
ĠOn ly
ĠW al
Ġvers ions
Ġprov ed
el ess
A v
Ð° Ð
Run time
Ġo dd
ĠP ubl
ĠComm unity
Reg ister
ĠW all
d ependent
Ġp il
Ġnor thern
b ury
ĠA ff
aw a
Ġmag azine
ĠH on
Ġtype of
ra wn
' }
Ġestim ates
C ast
as i
Ġsim pl
Ġreve aled
Ġmet al
N amed
Ġapp end
ĠE conom
Ġ" "
St ep
ĠFr iday
Ġatt ended
L L
ĠC ard
ĠM A
Ġsim ulations
m aster
Ġcor por
. __
Ġh ydro
Ġrec all
Sup port
Ġsex ual
anc el
fl ags
ĠBl ue
al ing
ĠG lobal
as is
M edia
are er
est ic
Or ig
ĠN av
Ġanaly t
Ġread er
Ġpart ition
ĠIn formation
Ġmechan ism
D el
Ġkn ew
assert Equals
c am
ĠDemocr atic
Ġ icon
19 40
r ices
ĠS outhern
Ġtrack s
Ġdiscover ed
ĠBG COLOR
Ġvert ical
Ġtr ained
ĠB oston
The y
het ic
ap es
Ġregard ing
Ġcount y
ce ived
gr ade
Ġlaw s
Ġfore st
Ġcl imate
ev ents
ĠG i
; ->
Ä ĩ
196 7
ĠP M
ast r
and on
u ing
in line
Ġal gorithms
P ool
ĠMc C
ĠSecret ary
styles heet
}$ -
Ġsecond s
M ENT
ĠEmp ire
Ġchall enge
spec ial
) ^{\
ĠL ab
W A
Ġf reedom
Ġj son
Ġspe ak
h av
Ġto ward
Ġoffic ers
it age
Ġse asons
j e
Ġclaim ed
ĠĠĠĠĠĠĠĠĠĠĠĠĠĠĠĠ ĠĠĠĠĠĠĠĠ
Ġadj ust
Ġconduct ed
for all
,\ ,
ĠM en
em y
Ġent ity
Ġtrans formation
Ġen able
Ġex port
194 5
Ġvict ory
th read
ĠC amb
Ġse ctions
ad ing
ac ro
Ġcontin ues
Ġ( _
A ME
og ene
ion e
Ġallow ing
Ġdynam ic
c uss
call ed
Ġcoeff icients
ĠMus lim
ĠV ersion
T A
ĠG reek
um es
P U
25 0
Ġen abled
que ue
ĠSen ate
Not es
em on
b re
Ġapp arent
Ġd ream
Ġrequest s
ent h
ĠM ond
am m
ĠL uc
Eng lish
ri um
Ġiss ued
N amespace
ĠFrancis co
H R
R est
Ġanal og
Ġint ended
ĠB ow
19 30
Ġfind ing
ner gy
Ġex tr
ier arch
; <
Ġ il
pr imary
Ġeconom y
Ġc tx
Con st
od ec
oper ation
ĠCar l
Ġa ware
ult y
M at
Ġpar allel
ĠPenn sylvania
Ġmod es
param eters
Ġdef in
Ġ ult
r idge
ad min
un ities
Ġbu y
ud es
Ġtyp ical
ab il
P ublic
ĠPl an
ĠRad io
SI ZE
ac le
l as
Ġarbitr ary
Ġs pl
r id
Ġabs or
m c
H igh
ĠO x
Mem ory
Ġl ies
Ġ Î
Ġfact ory
LO G
tog gle
Ġun iversity
ĠĠĠĠĠĠĠĠĠĠĠĠĠĠĠĠ ĠĠĠĠĠĠ
ĠPac ific
proto buf
se lected
E CT
A uth
plic ations
ĠAn y
ĠV AL
Ġexecut ive
Acc ount
ĠM ult
Ġhe at
m i
Ġd ir
ĠThe atre
is er
typed ef
Ġin valid
b el
H z
Ġel im
12 8
rec ord
Ġcol on
}^ *
Sec urity
Ġh tml
Ġf le
Ġh uge
ĠB ecause
Ġrepresent ing
t mp
ĠA li
Aut o
il ing
ph one
Ġrequire ments
ang o
Ġp m
Ġcon ference
ist ical
Ġdistribut ions
ĠS O
Ġveh icle
C F
p an
Ġcrit er
ĠU ser
MA X
r ons
ap pe
ff ect
Ġret ri
ell o
ĠA ND
ent ity
Ġle tt
Ġch ampionship
RO M
n etwork
16 0
Ġt al
b ot
Ġbound s
hent ication
U ID
Ġimport ance
t ion
Ġenc oding
ele ase
r an
t n
ĠMich igan
" /
Ġar my
ad s
Ġmass ive
Ġconstr aint
ĠF ree
Ġleaders hip
ob s
196 4
Ġcoordin ates
Ġw ants
ch annel
ino is
S R
Ġadvant age
Pat tern
I E
Ġw rap
Ġs ust
N R
Ġse at
ĠV an
R ad
Fe ature
he ll
Ed itor
Ġcan cell
a ver
TE D
Ġd og
Ġres idents
enn is
Ġin nov
ĠChampionship s
ad el
Ġ$ $
Ġstr ings
ly ph
I ST
Ġcam era
ĠP ass
Ġ ens
con nection
Ġbeli eved
Ġreg ime
iz able
ĠE lect
ĠQue en
[ $
Ġestablish ments
Ġcorre lation
Ġthe oret
Ġth ick
Ġ+ \
Ġl abor
g reen
pm atrix
Ġf ru
Ġb oy
Ġdram a
Ġsup ply
il ib
Ġph one
Cl ose
++ ;
Ġre ct
Ġstat istics
Ġden otes
ĠA M
Class es
ĠJer sey
Ġp et
ĠL ead
ĠU kr
8 00
Ke ys
ĠW ater
Ġe lections
ph y
Ġstrong ly
Ġimplement ed
aw n
A uthor
Ġfocus ed
Ġhe ar
ĠPol ice
b rief
Ġag ree
is is
Ġme ant
ĠM u
Ġb log
Ġcon sole
ĠB ern
P AR
Ġvoc als
) ^{-
ro ke
Ġad m
Ġredu ction
t wo
ĠB u
h ar
ĠN ight
Ġsuggest ed
Ġtr av
Ġper haps
Ġsub set
l ife
Ġch annels
Ġext end
Ġmark ed
s ince
agon al
Com par
Ġl attice
6 00
Ġf ill
( !
form ance
ĠJ on
W orld
ident ifier
a ught
ĠS aturday
on to
F loat
Ġart icles
"> &
Ġdoc uments
dom ain
depend ency
et es
Ġinvest igation
Ġmar riage
Ġhapp ened
ĠJust ice
ch er
Ġin variant
Ġis ol
Ġp sych
l ow
Ġr ail
G en
Ġm apping
Pro xy
Ġcur ves
F ull
Ġsuccessful ly
b ullet
v in
ĠS ong
\| _{
Ġoccur red
196 5
Ġd b
il a
p icture
eff ect
Ġf loor
ach ing
Ġlearn ed
ĠAnd rew
sec urity
Ġcomp r
Ġsom ew
m ove
Ġg ain
Ġh our
ĠB attle
ĠJ eff
RE S
Ġatt end
i y
im pl
Ġloc ations
up s
k es
ab eth
Ġide al
ĠAs ian
Ġinter actions
burg h
? âĢĿ
Ġg ap
s ave
are a
Ġcandid ates
ip ality
Ġaud ience
c b
d y
ib li
ĠSt e
Ġb att
Ġj Query
ĠP ath
Ġrec ording
eng er
Ġey es
ĠScot land
Pack age
Ġneighbor hood
Ġcitiz ens
ĠSe a
AR Y
ĠSt an
Ġpl anning
annot ation
Ġp lease
for ward
pro perties
Ġm iles
st able
per p
ĠCo ast
[ :
Ġf ish
l ay
Ġt end
n n
ĠC oll
sp ring
Ġcoun cil
on ical
ĠT H
ĠA ction
Att ributes
ĉ ĠĠĠĠĠĠĠĠĠĠĠ
ĠF ederal
us et
Ġact s
Ġmatch ing
ĠH ospital
lo op
19 20
Char acter
Ġro ugh
Ġt ab
Ġre ality
Ġprote ction
ĠOh io
Ġk ernel
and ra
el a
ĠE gypt
Ġde leg
ic ip
o ir
at ible
ĠW ild
ĠM id
V D
Ġconf irmed
Ġcont roller
Fl ags
sc reen
Ġsh op
Ġst reet
ol es
Par se
Ġserv ing
Ġent ries
M ember
ke ep
Ġsp atial
196 6
C M
ĠComm on
Ġdep art
ex ists
ĠOr gan
Ġdist ingu
^{ +
og en
{ $\
Ġded icated
}} ^
Ġhyp ot
Ġmon itor
Ġle aves
Ġlabel s
uck y
Ġaccept ed
ribut ed
) _
old s
) "
Ġdepend ing
Ġd aily
: #
Ġtechn ical
Ġm orph
Ġbo ost
Ġl ayers
un te
ist ed
ĠP rem
m ic
Test s
ĠT ro
ĠE very
drop down
ĠW he
Ġl at
Ġreg ional
Log ger
ĠD own
at uring
id el
Trans form
Ġconc ert
Ġf ear
Ġre q
Ġpol icies
ime q
child ren
T wo
Ġr aw
ĠM ah
Ġthem e
Ġab stract
Ġear th
w hen
ĠU sing
Ġdown load
ra q
Ġsing ular
Ġchem ical
) },
Ġpolit ics
n one
ĠC a
Ġb udget
F IG
s imeq
)) );
B E
Ġregister ed
Ġexpl ained
Ġlim its
Ġdeg rees
Ġcapt ure
ĠCh ris
ĠH arr
ĠM ajor
oun try
Sh ow
R R
1 10
Ġbe at
IC E
S Y
Ġspe ech
tain ed
Ġcl ick
Ġequip ment
Ġadopt ed
ft ware
Ġsign ature
h u
Ġs ister
Ġbuild er
Ġdam age
el d
P erm
Ġfin ish
Ġl icense
ind s
ip her
B it
is c
ĠT w
Ġobserv e
ĠKore a
Ġm obile
ors hip
Ġ io
ĠA uthor
ub y
am in
z one
ĠJ r
Ġact ing
% ,
Ġpro min
Ġoption al
Ġmeasure ment
ĠPol it
Ġpro port
ĠK en
M icrosoft
reate st
.~ (\
Ġn g
Ġinstr ument
$ $\
t otal
Ġconsider ing
Ġf n
Ġinv oke
ĠB as
Ġtre nd
ut s
Ġz one
il ly
Ġcolumn s
dep th
inst all
ential s
Ġad vert
or ney
T erm
Ġp y
urs day
Reg ion
cknow led
e z
ĠJ oe
ĠT aylor
Ġem ph
Ġs ides
ĠF und
Ġl ab
ĠF ar
ĠM ike
p et
Ġr ich
Ġexpl ain
Ġpl us
ĠR ay
Po inter
$ ).
iv ation
ut able
c oh
ĠAd ministr
ĠComm and
Ġtyp ename
uz z
pro file
ST AT
Ġbr idge
bo ost
Direct ory
web pack
N T
sh all
ing ham
ĠW ed
ON E
en ant
ĠHistor ic
iv ery
Ġs ell
ord ers
ram es
ĠF alse
ird s
Ġfund amental
Ġcr ime
Ex pr
ĠL ocal
met adata
ĠH a
O pt
Ġd ie
ĠĠĠĠĠĠĠĠĠĠĠĠĠĠĠĠ ĠĠĠĠĠĠĠĠĠĠ
Ġbenef it
Ġl anguages
V M
Ġc row
)\ \
th rows
r f
Ġsub stant
H ome
ro vers
ĠT ODO
ĠC ro
Th us
art ers
Ġsecond ary
Ġsh ock
ĠPhil ipp
ĠBro ad
l aw
tr igger
G lobal
R oute
Element s
Ġcompos ed
Ġc ars
U sing
Ġmed ium
ĠPol icy
D T
CHE CK
f ix
ĠJ ava
ĠI l
ĠR h
Ġtre es
ĠL y
print f
Ġc ensus
Ġsp ot
B I
ĠEd ward
Ġtr ail
ĠL u
) }{\
ĠUp date
ath an
$ ^{-
Ġfund ing
Ġf re
ĠMed ical
Ġphen omen
P ORT
Ġunder lying
virt ual
R AN
Ġa head
Ġcy cl
Ġ[ [
rem ark
Ġ ^
ĠDes ign
Ġfe et
Ġphot ograph
ĠM ot
ar se
Ġact ors
Ġhigh light
Sing le
d iff
} )$.
N odes
Ġimprov ed
Ġyou th
ĠS ports
av or
ĠI mm
er ial
Ġm useum
Ġcon vers
Ġsett lement
Ġend s
Ġfac ilities
f ail
ron ic
Ġfa ith
ex pr
Ġaff ected
s afe
ĠDan iel
hand ler
ĠP age
In s
ĠK ong
Ġo k
Ġdr ink
Fil es
ĠP aram
on al
Ġrecomm end
() ));
ĠRepublic an
Ġwid ely
Ġnot es
ĠJack son
Ġlist en
pro du
Ġcorn er
Ġord ers
Ġopt ical
ĠK ent
ĠAmeric ans
l ayer
Ġfig ures
ĠO ption
ag ers
t ik
Ġpur poses
ict ures
f i
Ġcr iminal
ĠA re
Ġd imensions
or ough
Ġsum mary
ach uset
ĠT ri
achuset ts
ĠW in
s uch
Ġdefe ated
ĠIll inois
Ġang ular
Ġf ellow
che ster
Ġd anger
}} ^{
Ðµ Ð
Ġfor t
Ġli ber
Ġque ue
am ber
ĠL ittle
Ġb rowser
Ġe q
Ġchang ing
ĠL ast
Ġdescrib es
Ġacc eler
Back ground
Ġsupport s
ĠF amily
h ow
B B
ĠRep resent
op ed
ch or
-- >
Ġrest aur
v s
Ġr ailway
ĠPh ys
="../../ ../
inal s
Ġviol ence
stru ctions
Ġdepend ence
ĠA mazon
mod ules
let ed
Pl ugin
ay a
N ational
ĠF inally
Ġinvest ment
n umer
ap os
) {\
Sy ntax
ĠIO Exception
Å ¡
Ġcons ult
Ġturn s
ĠF our
ĠA ri
ĠIn ternet
astr ucture
Ġf lex
Ġpre v
ĠN Y
ĠW ho
ĠS U
par a
J S
Ġcharg ed
ĠProfess or
Ġdes ired
Ġcom edy
omorph ic
Ġwest ern
em ic
sk y
Sec ond
em ail
p ir
Ġmin imal
Ġmat rices
Ġpre par
Col lections
ĠProv ince
Ġ ×
res et
ing ly
in her
Pro ps
Ġl ayout
tx t
Ġenvironment al
Ġp refix
Ġs port
Ġfl ags
ĠS pace
Ġd oll
At tr
() ).
Ġtell s
Ġbr ain
Å į
Head ers
Ġtw ice
Load er
ĠCorpor ation
ĠW alk
V ideo
int on
Ġg ather
Ġst ored
ch mark
D em
Ġdiv ided
ĠD ig
Ġk ill
( __
ĠK enn
Ġrefer ences
Ġdevelop ing
\\ \\
Ġb ass
ver b
Ġprofess or
à ¸
Ġex ecution
Ġth er
Ġbeg ins
G eneral
b en
Ġdr iving
b ell
N ULL
Ġsymmet ric
Ġautom atically
ĠB BC
ĠStud ies
196 3
. *
âĢĿ ,
Ä ±
ĠL atin
ST ATE
Ġman ner
Ġlook ed
ur er
Ġcon ven
foot er
pl ugins
Ġarr ived
p red
196 2
Ġfunction al
S eg
Ġgrad ient
B i
Ġjob s
Ġap pre
Ġsuggest s
Pr int
pl us
og ram
h ard
") ]
Ġim plements
n ic
M atrix
Ġdo or
Ġpat ient
ĠEast ern
own er
Ġh ole
Ġc er
ues day
ĠBro ok
Ġprom ise
s en
le an
ĠOb serv
b ro
G C
Ġjav ax
[ (
dec l
ĠGeorg ia
Ġeval uation
to ols
RE AD
w ater
ĠS om
Ġt error
ĠPr ince
Ġro les
Ġperform ing
Ġrem ark
\ _
Ġyield s
Rem ove
Ġrepe ated
Ġcover age
W R
or row
Ġassoci ation
Ġnear by
ĠM ic
Ġp al
Ġw onder
ĠC A
Ġsatisf y
f d
if iers
Ġan cient
ĠSup reme
r ase
Ġf lo
Ġspect ra
Ġposs ibly
u v
ĠEx ecut
Ġtrans parent
S F
Ġag greg
semb le
ĠSt art
Ġpred iction
Ġv ectors
Ġbenef its
Ġsk ills
ĠS D
od ot
Ġb in
cont roller
âĢ ĺ
w orld
if er
Ġind eed
te en
Ġtechn ique
Ġhous ing
Ġacadem ic
IV E
ur ance
Ġn arrow
Ġ era
ĠL ight
Ġwin ner
ĠCon fig
poss ible
Ġcustom ers
the me
nes day
Ġcirc um
L IC
Ġconver gence
ilib rium
ic er
Ġscen ario
OO ST
S pace
ĠT witter
ap y
n i
Ġus ual
Ġdec ades
Ġb right
T ags
Ġaud io
Gener ic
m ask
pon ential
Ġprim arily
S ch
Ġearn ed
un a
Ġd ro
ĠâĢ ¢
ĠW indows
nd ef
Ġb its
M T
Ġres on
Ġinc ident
Gr id
et ing
iz abeth
Ġacqu ired
it ivity
g ment
p erson
ĠMond ay
Ġprinc ipal
ach ment
VER SION
Ġauthor ity
if def
tik z
Ġcred it
ch ain
a ug
map sto
Ġeff iciency
Ġlarg ely
Ġscient ific
ĠC H
ĠK r
ĠPr ime
Ġoptim ization
m o
pass word
Ġrot ation
up l
ĠB ell
erv ative
Ġpass ing
am ely
Ġpath s
Ġex cell
our ney
( @
10 1
att ers
C ar
BU G
en abled
Ġid x
> ::
con tains
cond ition
Ġexpand ed
Ġshe ll
lim it
Ġsp an
Ġ= \
Tr ace
Ã ±
s chema
Ġrem ote
on ia
Ġf resh
man ager
id x
% )
ĠInd ex
M R
Ġ ip
Ġsh ut
F ix
Ġcol lected
ap h
Ġex erc
icens ed
ĠAn other
Ġextrem ely
ĠB ang
Ġobserv ation
ĠF ire
Ġthink ing
ĠR ights
if ts
z ure
)$ -
ide os
Sc roll
Ġemploy ees
y g
Ġpolitic ians
Con s
() {
r ine
ĠĠĠĠĠĠ Ċ
C areer
Ġge ometry
ĠL im
ĠI raq
Ġdis pl
Ġcharg es
Ġmot or
ĠOx ford
Ġinst ances
ĠRe al
' (
t an
Ġdef ense
S ocket
iven ess
ĠCopy right
Ġoper ated
Ġus age
display style
Ġinstall ed
ĠGovern or
yd ney
Ġport ion
v ing
anc ell
Ġhous es
Ñ ĭ
Trans action
Ġs un
Ġver ify
Ġac comp
Ġpl anned
Ġas ympt
Ġachi ev
Ġthan k
i pe
ĠE lement
sing le
Prot ocol
Ġspec ifically
ĠMass achusetts
Å Ĥ
194 4
ĠWil son
Ġco al
ĠW is
Ġpr ime
Ġ' <
ĠD utch
co in
ign ment
sc ill
Cl uster
Ġ[ ],
Ġw arn
Ġ{ {
Ġfl ight
Ġf ashion
ĠB lock
o es
ook ie
ĠGa ussian
at io
The orem
Ġl ie
ĠSup port
) [
UT F
Ġsh ips
ĠD O
Ġplan et
W rapper
Ġtre ated
Ġbig gest
X ML
Ġmagn itude
p refix
Ġtrans lation
Ġorgan ized
ĠOr ig
Ġadv ance
} &
ĠM ake
pl ot
Ġp seud
In v
Ġf ell
Ġgen us
h idden
Ġdi am
18 0
ĠB a
Ġag ents
ack s
ĠR om
D ist
ac count
ĠS E
Ġsubsequ ent
Ġinvolv ing
Ġnuc le
B P
ĠAlex ander
t w
Con n
Ġf an
not es
Ġpattern s
comple te
ĠFurther more
To String
Stat ement
ag r
Ġd ance
sv g
Ġst ellar
f ire
Ġdef end
ĠD ar
Ġcon j
Ġs an
Ġfind s
ĠA sh
ĠR etri
Ġbal ance
S pe
ĠE st
ĠR os
Ġteach er
ĠB oy
Ġdet ected
pro gress
IT E
Ed it
h ol
P anel
Ġa wards
ĠS ym
Ġcaus es
Ġhon or
ĠD aily
Ġas ync
pos itory
ĠC ase
in son
Ġtyp ed
br id
Ġb urn
Ġadv anced
Ġreview s
Ġdecl ared
Ġstand ards
IN D
Ġmass es
Ġnew ly
ĠIm age
ou red
s witch
] :
r andom
ps on
ĠPro cess
und efined
L C
Ġk ids
Ġinstit utions
ĠF I
196 1
ĠP en
ĠN on
Ġfac ility
Ġcommon ly
Ġveh icles
am i
ĠR og
Ġr g
Ġdifferent ial
Ġsk ip
G R
Ġexper i
D ouble
ĠChrist mas
Ġpe ace
L in
se x
ul ator
Ġr ain
Ġphys ics
> \
ul pt
Ġb ands
ĠPak istan
Comm on
Ġnot ation
s id
ak i
ly wood
out heast
Ġcompos ition
pro ps
ĠCol lection
Ġey e
P refix
Ġsing les
Ġcoordin ate
ĠColumb ia
ĠĠĠĠĠĠĠĠĠĠĠĠĠĠĠĠ ĠĠĠĠĠĠĠĠĠĠĠĠĠ
Ġexper t
i ated
Ġw aves
ĠTh ree
li k
Ġtop ic
Ġhapp ens
cc cc
Ġfif th
ff ff
Ġv en
W est
ĠS ign
Ġ{ '
p ot
Ġd uration
Ġprinc iple
T T
Ġmay be
ĠâĢ ¦
ĠL ike
Ã £
ĠPort ug
D est
Ġg rew
ĠF air
ĠK ar
= >
Ġp itch
ĠÂ »
h ab
pro position
en ess
ĠL ink
F ailed
Ġconstruct or
or i
Ġesc ape
Ġsubsequ ently
ag g
Ġre action
Pro file
ri e
Ġcon nections
Ġw el
Ġs quad
f ony
sum er
Ġte le
J ECT
Ġtr ace
ĠAb out
| _{
Ġcomplex ity
eder ation
ĠGu ard
ĠV iet
y o
el ly
ĠCont rol
arg ument
Ġp ars
ĠL ew
Ġpl ants
ĠI R
Ġcapt ured
F ind
ĠS i
l an
ĠN ext
ac ent
Ġsol ve
Ab stract
Su ccess
Ġbeaut iful
Ġepis odes
ph ia
ĠS us
ĠK im
Ġpen al
M I
equ ence
Ġinsp ired
grad ient
Ġw ish
th ur
ĠOb ama
ĠB on
m ass
Ġc ov
Ġexplicit ly
Pro duct
Ġs yn
eng ine
Ġwhere as
Ad apter
ĠC orn
orig inal
Ġchalleng es
Ġcertain ly
AL SE
HT TP
Ġfund s
ap ol
ok es
he im
S che
Ġp owers
Ġmin ister
Ġf uel
olog ist
n il
rop ol
per iment
cre en
Fil ms
ĠPol and
c ref
j ar
fil ename
act ic
ir ror
Ġperson nel
Ġaw ait
ĠTr ust
ĠH ong
Ġop posite
Ġex it
- $
ĠM ember
ĠSt ation
Ġindu ced
B rit
Ġinteg ration
Ġrow s
ed itor
Un ited
let s
z ed
Ag ent
V E
ĠBe ach
$ ;
Ġprogram ming
Se lected
U SE
p res
k w
Ġp erman
col lection
Ġlist ener
ĠB and
Ġinst ant
Ġexpl an
f old
ost er
n ob
Ġh ers
us hed
aly t
$ ~
os itory
an th
Ġrecogn ition
B ound
Ġsu itable
ĠS uch
Ġsupport ing
al so
Ġphot o
V ID
Ġret ired
Ġ&= &
\ )
Ġelectron ic
im ated
ĠR en
iv ated
ĠL ive
Ġserv es
& #
Ġ% }
S ync
Ġcop ies
Ġcalcul ate
'] )
Ġcon clude
adel phia
Ġrece iving
ĠC at
Ġg one
Go ogle
p ay
Ġalong side
195 8
Ġbro ken
Ġauthor ities
Ġd ialog
T ra
Ġcre w
Ġsurround ing
Rep ort
Ġout er
C red
Ġrob ust
Ġcl ock
Ġst uff
ĠA rea
Ġentire ly
ev in
ĠE U
ĠT O
F inally
: =
n odes
Ġtem por
it ter
ĠR od
194 8
Ġtheoret ical
l arge
ĠJ ean
Ġres olve
ĠMin istry
ess ions
Ġeval uate
Ġhold ing
ĠC irc
Ġrecogn ized
as et
Ġanim als
ĠAl b
con n
195 9
Ġgl ass
O UT
ov es
F LA
it led
ist ing
Ġpi eces
Ġobject ive
ĠM aster
Ġind ustrial
w all
p icker
g ency
ro le
ĠEn vironment
ult ane
S cale
ĠV ill
A CT
est ion
Ġhe av
L INE
LO CK
Ġas sembly
ĠTh ursday
Ġo scill
Ġm eta
ex pect
N C
t or
Ġs ym
ĠF C
ĠSc iences
ĠH om
Ġfe aturing
index Of
m ma
- (
block List
put er
Ġrec ip
Ġcon vent
Ġl ib
Ġgener ic
. ;
ĠAp ple
cre t
Ġtro ops
Ġadv oc
Ġsold iers
Ġhapp y
var i
os ity
get Name
\ {\
Ġposs ibility
P y
Ġbe am
ip se
k ens
Ġ rom
ĠSt eve
ord an
Ġinter section
By Id
Ġtherm al
Ġm ys
ĠC EO
Ġcont rolled
H P
h l
ĠRes ource
Ġg irls
ist ence
is a
195 6
ist ant
ĠInt eger
Sim ple
Ġcomm ittee
Ġc e
Ġsum mar
Ġen v
N OT
12 3
Ġmet adata
ig gs
ĠScott ish
ĠW rit
Res ources
con v
y es
pre v
Ġapplic able
Ġw itness
Ġphil osoph
oc cer
Ġaspect s
Ġcont rovers
Vari able
end ix
Ġvalid ation
r ated
Ġn arr
Ġwe ights
ate ver
Ġtalk ing
12 5
Ġgalax y
Ġbeli ef
agnost ic
Ġal ter
Ġinfin ite
ĠP ers
ok ed
ĠN ations
Ġengine ering
Ġinj ury
W rit
} )$,
IN S
ĠD at
19 39
Ġ ener
Ġm yst
D uration
ĠE nergy
Ar ch
UR I
enc ing
Ġex pos
Ġan imation
T ABLE
ĠIn vest
Ġat mos
j pg
194 2
Eng ine
ĉĉĉ Ċ
Ġmed ian
Ident ifier
Ġgraph s
Ġsup erv
act s
Ġreturn ing
ix els
Com ment
=" /
Ġconcern s
ast ers
Ġloc ally
ĠL o
g it
W N
w orth
Ġop inion
Ġclub s
G A
Ġover l
Ġm ist
ĠB ad
M OD
Ġex ports
ĠBer lin
f riend
L ayer
p u
Ġprov ider
Ġsize of
Ġuncertain ty
Ġc m
L en
erv es
Al though
ag a
b ec
rit ical
Ġp arser
Ġthous ands
c pp
in ator
h ome
-------- ----
Ġcon version
Ġw arm
Ġgrant ed
195 7
Ġconf irm
ind u
Ġa ver
enn es
clus ions
Ġemploy ed
Ġres ident
sh al
an z
pr ise
ĠR est
ul i
Sh ort
op her
Ġdestroy ed
Ñ Į
Ġunder st
ore st
U LE
Ġsp ring
Dom ain
, $
U ri
con g
Ġtime out
ub ble
ĠTor onto
S ervices
TEX T
prot ected
Mult i
ĠM essage
em an
clos ed
Ġ urban
Ġs and
Ġcomput ation
' ));
Ġbase ball
ĠIs lands
ĠH ard
Ġsm art
b ootstrap
Ġbusiness es
ĠN et
ymmet ric
B rowser
ĠF re
ĠSh ort
Ġaccur ate
Ġin n
U D
Ġt ail
Ġd ict
ble m
Ġse lector
re pe
194 3
Ġdesc ent
ĠReg ion
TI ME
c are
Ġre form
test ing
if ndef
Ġneg ot
R T
Ġc ategories
Ġb ed
A re
Trans port
Ġpro jection
ĠCh annel
Ġst ability
st ats
ress ed
ĠAd v
d one
s ys
A ng
TR UE
ĠÐ ¿
Ġf ant
in valid
Ġsol ar
p air
Ġv on
Ã ¢
ĠH ash
es ian
er al
Ġf mt
}( {\
au x
ĠP ack
Ġteach ing
Ġag ency
Ġex ceed
) +\
) -\
Ġhistor ic
ĠS ydney
ĠH ung
Ġest ate
Ġopport unities
P ATH
ĠAn th
Ġdest ination
up load
ĠA T
Int roduction
ĠN C
ou ter
? "
ĠA venue
T otal
group s
Ġv ision
eg o
Ġm enu
ĠO s
} }$.
ĠG ar
", "
Ðµ Ð½
######## ########
Ġw ire
Ġf illed
un ately
Ġg lob
S ym
S ER
op ic
Ġli qu
b rowser
Ġattempt s
Ġp ra
ĠM S
F in
av id
Ġcalc ulation
Ġdis abled
B est
ĠT R
End point
Ġcould n
ĠVal id
ĠT uesday
O B
Ġu i
Ġ ).
ph ys
Ġ" ,
ĠBel g
h ide
Ġrepresent ative
Ġappro ved
ak ed
M apping
Ġv ir
ĠA ccess
ent ed
ĠHamilton ian
) )$
Pl ay
| }
ĠVictor ia
S QL
Con f
play er
Ġjud ge
Ġgu ide
v c
com ponents
ĠEl izabeth
onom y
Ġwait ing
Ġvari ation
Ġnewsp aper
Ã£ o
Ġneut r
E V
ĠAd am
p kg
ĠA D
v olume
} }$,
IN FO
Ġ> >>
ĠE ll
P M
En um
D elegate
Ġtra ject
Ġb undle
less sim
con sin
Ġapp lying
%% %%
Ġacc ident
Ġa thlet
ann a
Ġir re
Ġdrop ped
t c
tem p
j unit
Ġb omb
H ER
ĠB al
ask a
Ġsp ons
ĠW ars
L em
sh adow
ĠWed nesday
P ER
op ts
Ġext ent
Ġc old
Ġhers elf
Ġindic ated
ĠF ox
Ġar ms
ĠL ater
Ġhead ers
m oz
Ġstat ements
n ight
md c
C ategory
ir k
M er
M any
mon th
ĠS em
agn etic
ĠĠĠĠĠĠĠĠĠĠĠĠĠĠĠĠĠĠĠĠĠĠĠĠĠĠĠĠĠĠĠĠ ĠĠĠĠĠĠĠĠĠĠĠ
Ġdatas ets
ether lands
ĠS at
Se lection
194 1
ĠA ge
d em
Ð ²
ty pen
st orage
ĠR a
I MP
) ->
Ġj ump
H L
Ġ ion
ĠA k
ĠR ailway
] }
ĠA S
iss ues
) }_{
Ġclos ely
N ov
ra ham
Ġe le
og y
Th erefore
Ġtransfer red
194 6
ĠG ro
Ġun able
ogene ous
ĠD er
Ġdem ocr
ĠHT TP
f all
Ä į
ĠC ur
par agraph
Ġperform ances
H is
Ġm al
igr ants
ĠR ome
D iv
Un iversity
ĠB C
w atch
un es
Ġsol o
ow a
CE SS
ï ¼
Fl ow
s a
Ġgu ard
Ġin ject
Ġprep ared
ĠAg ain
Ġfight ing
Ġd rawn
Ġamplit ude
Pro gress
Error f
195 5
Ġs ale
head ers
Ġmat hemat
Ġpartners hip
Ġconvert ed
U nder
ut f
Ġxml ns
ĠH un
Ġsc roll
Ġthan ks
; /
Ġbehavi our
Event Listener
ad ed
ĠD im
ĠKore an
ĠN E
Ġcomput ational
Ġcon figure
iss ue
Ġign ore
ĠR oute
Ġsee ing
IT ION
Ġcontrol s
FF FF
force ment
ire ment
g ame
av ity
Ġrad iation
build er
ç ļ
ĠS a
Act ivity
config uration
Ġpromin ent
rior ity
C B
nt ario
}{ |
f ast
ĠV en
Ġh air
s ch
ĠC ustom
op es
: }
Ġexpl o
t ed
s ample
z h
Ġeast ern
ipl es
ar ity
ĠD ist
Ġin vent
ĠT am
typen ame
Ġag ric
ĠB ul
Ġ ],
cuss ion
A li
ext end
Ġs leep
pat tern
Ġatt ached
j Query
ĠW AR
Ġwe ather
J ust
Ġd ust
ĠM arg
}{ (
ur ations
Ġcharacter istic
B ook
Ġinterest s
195 2
time out
Ġc overs
pl atform
Ġtri p
Ġlink ed
d ialog
ĠDav is
ĠJew s
Ġscatter ing
iffer ent
Ġlist ing
Ġscal es
ĠF ollowing
att ributes
ĠR ail
194 7
ot ional
per ial
is ely
Ġcomm itted
Ġcr isis
ant om
Ġcont ents
Ġ_ ,
st ances
Ġap art
at ar
ĠĠĠĠĠĠĠĠĠĠĠĠĠĠĠĠ ĠĠĠĠĠĠĠĠĠĠĠĠ
arr ing
ĠM ill
T F
f ly
Ġ{ $
Ġ[ \
unn el
in ating
r g
ze ch
sl ice
Ġassist ant
ap ore
195 4
ĠC reek
Ġw allet
ĠR on
ĠC are
LE CT
ĠL abor
IP T
EN SE
Ġr ural
ĠE nt
Ġpers pective
P e
ater n
ip age
rib ed
Const ants
çļ Ħ
Ġcont emporary
Ġv otes
ĠCor ps
Reg istry
e cho
Ġse ed
Ġwe alth
ME TH
Ġfootball er
ĠUn ivers
Ġclust ers
ĠCom ple
ou ri
Ġtrans late
ch anged
per t
}$ )
Ġ\ !
Ġe lev
m ad
Ġs izes
Ġdisc rim
Ġcl ients
Ġ( [
circ le
et ween
h bar
S ports
Ġg ender
y al
Ġalleg ed
Ġexpl ore
Gener ator
Ġb atter
Ġpred icted
Ġintrodu ction
ir ation
Ġent r
Ġcalcul ations
as p
ĠOn ce
Ġsil ver
S cal
ĠW at
Ġdou b
l g
Ġtit les
ibr aries
d p
al gorithm
ab ric
__ _
ĠS ant
ĠC ub
includ ing
ĠP RO
p arser
Ġsign als
Ġm ach
t ons
Ġco inc
rop ical
ĠOlymp ic
ĠDon ald
Ġconf idence
ĠStep hen
M ath
on ce
ĠSo ftware
ĠD ocument
M usic
Ġen um
ĠI V
tain ment
Ġinvestig ate
ĠDes pite
Ġscal ing
ĠN iger
Ġrequest ed
Ġtrans mission
Ġconst ants
a is
ĠG reg
b as
ĠS M
plic ated
Ġsup posed
Ġsampl ing
F UN
ĠPri ze
ĠArg ent
F ree
az y
Ġ ..
cl uster
Ġw arning
Ġparticip ants
L ook
Ġfrequ ently
Ġr ig
zon a
ott en
it ative
s ome
} </
Ġeffect ively
L eg
II I
P D
tab s
en able
g overn
Ġload ed
Ġlett ers
F act
ĠChild ren
Ġ Å
Ġsequ ences
Ġbi as
Ġpublic ation
Ġh ockey
== =
d ig
194 9
S em
Ġres erved
ĠOff icial
y cle
ext ension
key word
Ġs ynchron
ĠSpr ing
Ġn amely
Ġf iction
ĠJes us
ĠB all
Ġca ref
che stra
L imit
ul ating
ĠCon f
C RE
c ert
log ger
Ġb atch
{ "
Ġor bit
Ġsec ure
Ġtem p
w ing
S V
agnost ics
ĠT oday
AD D
F R
Ġr ational
h ire
D epend
Ġ\ (\
Ġext ensive
METH OD
195 3
Ġmet rics
Ġkn ows
int eg
Det ails
ve e
Ġend ing
$ ),
Ġclass ic
in er
ow ed
Ġd ire
at on
Ġt mp
min ipage
En umer
ĠD oug
ĠL ear
RE G
Ġopt s
s b
Ġ" -
R et
Str uct
ĠH ay
ag an
IG HT
An other
iz on
Ġpl ugin
Ġhel ps
ic ing
j oint
Ġfl uct
unn y
Ġstand s
ĠBook s
un ique
ĠCoun try
Vert ex
Ġcomplet ion
ear s
ĠCamb ridge
Ġfav our
i Äĩ
Ġjust ice
Ġdo ctor
Ġsatisf ying
=" @
Ġar ts
err ors
qu arters
ct ic
ex ec
p ull
ĠMin nes
P ay
gener ated
Ġor th
Ġrelig ion
th row
ĠT ok
um my
Ġresult ed
Ġdom estic
Ġdec isions
ĠF inal
m n
ĠEngine ering
ĠD u
Ġarrest ed
an try
y ard
int ell
uc ial
ĠPal est
ĠP erson
Ġperm ission
ĠL at
Ġsim ultane
is or
N V
ĠL ady
Ġdis crete
ex tern
ĠRev olution
"/ ></
ation Token
im m
Oper ator
Ġpass word
Ġstat istical
f ol
Ġc art
VAL UE
C am
om ent
S outh
ig a
Ġex ecute
Ġde ploy
Ġsp ac
Child ren
ort ed
k ing
C apt
........ ........
ĠWh y
Ġs ac
Ġschedul ed
per or
Ġspec ify
eng ers
Ġne ural
Brit ish
Ġcommun ic
w ill
Ġmount ain
Ġg ate
art icle
Ġleg isl
Ġb odies
Ġ$ |\
Ġj et
out s
Ġrepresent ations
L ibrary
Ġex ponential
intell ij
ĠMinnes ota
195 1
s heet
Ġad vent
Ġl osing
fl ag
y brid
Ġl umin
Ġpro xy
; }
Ġst orm
Ġprov ince
b p
Â °
res ources
ĠD am
ex ecute
Ġv ent
Ġconv ex
F E
ly n
Ġproper ly
ĠH as
l ibrary
ĠPro perty
ĠPhil adelphia
ĠW el
Ġult imately
Ġmom ents
ĠE th
Ġpract ices
ĠSt ory
P res
g eneral
ud den
m aterial
trans ition
ak h
Ġcomput ing
iter al
J ava
Ġup dates
ĠAnt on
ĠAN Y
à ¥
bour ne
Ġkeep ing
ser ial
ĠS anta
s n
Ġc ab
P ers
Ġintegr ated
Ġclos er
Ġconstit u
M ost
ro ut
(' .
t ensor
Ġb ulk
Ã¡ n
are st
Ġk ick
B egin
ĠT y
Ġoffic ially
Ġg reatest
Ġenc ounter
{ %
plic ity
Ġc md
Ġnecess arily
ĠInst ead
Ġdr ag
$ &
ĠPol ish
Ġmusic ians
ĠT urn
sim ple
Ġf aster
Ex ecut
Ġstop ped
opt ional
) }}
ĠI E
Ġv ess
ĠCon nect
Ġsh ares
onym ous
Ġweap ons
Ġv ot
B asic
Pro to
Ex ample
ur d
ul se
ĠN a
ĠLO G
b d
Ġhom es
p od
con str
ĠN etherlands
Ġh abit
t i
ĠRec ord
Ġappear ances
Ġhost ed
Ġcamp us
u um
init ely
Ġaccount s
Ġare n
ort heast
ĠRequ est
M ask
il bert
Ġk id
Ġsepar ated
ma zing
L anguage
ĠGold en
se lector
Ġrel ax
ĠBr idge
as m
ĠL es
w rapper
B M
ĠD C
Ġab andon
=" ">
M iss
Ġrelationship s
ĠS ab
ar ry
prot ocol
J an
Ġsc ulpt
Q U
res olve
Ġyoung er
Ġarr ang
spec ific
ĠExecut ive
ĠH o
Ġpro ps
Ġc ert
Ġexecut ed
ĠBo olean
Ġest imation
Ġcharacter istics
math op
inem a
ĠGu ide
ol ut
Ġres et
ĠR aj
ĠH ttp
ot on
os es
Ġinput s
f x
j ango
Ġst ores
Ġequ ality
Ġconsist ing
Ġn ice
ch art
ER S
Ġfavor ite
ts d
Ġgu ess
Ġprom ote
A ustral
f ixed
Ġresearch ers
Ġpost ed
Ġconsequ ence
D ay
s at
T ube
p in
Ġcoeff icient
. <
det ails
aps ed
Ġconcern ed
Ġtyped ef
Ġpre ced
Ñģ ÑĤ
p ur
rupt ion
}} _{\
Ġoffer ing
Ġmys elf
Ġdisplay ed
w t
Valid ation
Ġf estival
and y
19 18
struct ure
B L
ĠT erm
Ġtarget s
det ail
f c
Ġl ists
L java
Ġm el
ĠN ick
ĠR ose
j query
A nt
Ġqu adr
Ġm ental
g ies
ĠIn f
ĠR ow
Ġv ideos
u ce
com es
', '
Ġsufficient ly
St ats
Ġres c
ur able
t ags
Ġindic ating
ĠWis consin
ĠS af
Ġweek end
ic ian
ĠO ntario
v als
ord on
ades h
Ġcrow d
Ġan imal
ĠB ru
An imation
ĠS on
ĠSt ock
am az
Ġref ers
. ");
33 33
NavBar Cell
ĠS QL
Ġhot el
Ġexper iences
Ġprof ession
00 1
I gn
Ġdec or
Sum mary
ĠG iven
Ġident ical
ual ity
e lect
Ġn ob
Ab out
Ġprote in
Ġseem ed
Ġden oted
Ġprom oted
exp and
TR Y
i ations
$ };
ĠTrans port
ĠB efore
ell ite
Ġch ampion
)) \
ik a
ĠTh rough
Ġthe ories
âĢ ¢
Ġinfr astructure
ub ern
Ġdocument ation
Ġbre aking
Ġca ught
Ġ ];
B ind
Ġr aces
Ġa id
Ġsuff ered
Ġcan cel
ur ches
h ave
j ob
Rep ository
ĠC R
Ġin verse
Ġw ins
ĠM ir
}\ ,\
Ġar c
ĠU I
ret ch
Ġb uf
ĠG er
put ation
Ġvis ited
ou rier
N ative
ow nt
Ġt aught
) --
Ġend point
G O
0000 0000
ĠBr ad
Ġfore ach
F N
Ch rist
er ior
ĠInd eed
b log
Ġsche ma
ĠFore st
R ole
ĠB udd
check ed
Ġinter ior
S ur
Ġfound er
Ġpurch ase
ĠT al
e en
ĠPl aces
Ġb ow
ĠN az
u ating
Ġab und
mer ce
Ġocc asion
Ġop position
Ġint elligence
Ġ' \
sh ared
ĠDe ath
Ġfeel ing
icens es
ĠL ow
Ġsk y
Sh ape
Ġg ained
ĠTur key
Ġvol unte
t frac
ĉ ĠĠĠĠ
Ġcre ates
ast y
v ard
ĠB it
Ġprom pt
Ġj ourney
Ġprec ision
G N
ĠD eb
Ġwin ners
Ġequ ilibrium
Ġdec ade
w iki
ĠP R
Ñ ĩ
Ġrec ru
13 0
ack et
Ġrespons ibility
Ġterr itory
Ġp ed
19 36
t le
Ġadministr ative
ĠG ree
b c
Ġmin ute
Ġb inding
Ġcar bon
Ġc as
Ġmov ies
ĠStand ard
Ġm and
Ġmov es
Ġcontr ad
Ġcon clusion
eli hood
Ġle mma
Ġt ight
v ideo
Ġmod ules
b matrix
ĠM att
Ġm ent
ĠFore ign
Ġdeb ate
er ence
ĠS ource
En vironment
Ã© e
7 00
Ġdo ct
Post ed
Ġtest ed
ĠC urrent
w eg
new s
% .
Ġlow est
P air
ch a
Ġw a
un ing
cle an
l f
ĠComm unic
Ġscen es
Ġsche dule
ĠL ev
ĠV ideo
N ET
Ġv ice
Ġm ort
ĠC ost
reg on
be an
Ġse ats
ĠColor ado
B al
j an
iv als
Ġfeed back
pl om
igh th
pl an
p ubl
Ġsust ain
Ġ ing
edd ing
Ġinstit ution
En ter
Ġsatisf ied
ele m
Ġrg ba
Ġcirc uit
run time
h box
Ġdepend ent
sk i
^* $
> ()
=" "
ĠL td
se ason
ĠRe act
S equence
ĠK ansas
Ġexperi enced
&= &
Ã ¸
is lation
ov ing
Ġeas ier
ivers ary
ens es
Ġnav igation
Ġad min
Ġs ql
Ġcol our
r ank
m ix
ĠG allery
enn a
Ġp un
br ace
F ORM
ĠP lease
ĠB ol
Ġtemper atures
Ġmark ets
Ġexp at
ï »
Ġlog ic
Ġhor se
ce ive
Ġcont est
ĠLew is
ug s
Ġpers ons
ĠD or
Ġpract ical
tr ace
/ (
Ġstand ing
ĠC hen
Ġgu y
ul ner
W ait
j et
J oin
Wh y
Ġw ing
ĉĉĉĉ ĉĉĉĉĉ
St op
Ġop posed
Ġtw enty
Ġhe aring
Ġm arg
Ġgu est
Ġin fer
Ġab use
Ġdefe at
s ym
Ġconsum er
re ll
in os
19 38
ĠIn put
v ol
D M
ick ets
Ġhelp ing
ur st
Ġcap able
ub b
Ġdep os
Ġexpress ions
end or
Ġs we
ï» ¿
Ġ Ø
ĠGr ant
ĠD ir
ag en
Ġst one
ĠT ai
Ġdef ines
Ġmult ip
E P
ĠAss oci
Ġexcell ent
ili ar
Ġw ww
Ġannoun ce
ce st
ex ternal
ĠUn it
Ġcover ing
ĠB OOST
In ternational
ĠSt aff
Ġint ent
$ :
F ollowing
Ġpr ices
Ġcom fort
Ġind ices
l ia
y cl
Ġassum ptions
et ies
Ġessential ly
Ġcriter ia
_ -
Ġs ending
Ġclin ical
w p
Ġ[ "
\ }$.
ĠQue ens
Ġabs ence
reg ular
Ġsent ence
o or
F n
Ġassert That
ro g
Ġh all
Ġsomew hat
******************************** ********************************
Ġw at
C G
ĠF ood
ac cept
, {\
sign ature
[ -
ten ance
or ient
ut enant
M ill
ĠX ML
ĠAff airs
Ġpro to
B en
ag ues
ob serv
Text ure
C r
C oll
Ġprogram me
re lation
i em
rel ations
Ġp apers
dest roy
Ġsp end
iz z
c ow
Method s
ĠS earch
] $.
RE Q
Ġnot able
ĠInd ones
ĠM oh
p are
el le
Inter val
Ġpurch ased
tr im
ĠD uke
sc ribe
requ ired
Ġdocument ary
ic ator
ibr ation
sc ious
pro b
ĠC art
ĠSt adium
Pass word
Named Cell
Ġphot os
pl ates
dr iver
Ġcustom er
D ictionary
L ower
Ġstrateg ies
Ġmunic ipality
Ġvers us
ã Ģ
Ġ ^{
con structor
Ġb ind
Ġb an
}} )
Ġeven ing
d frac
}[ \
Ġmax im
Ġ" <
F amily
ĠF ord
Ġimmedi ate
Ġpredict ions
ĠAtl antic
ar on
l u
s es
Ġtrad ition
Ġc odes
Ġp ref
ĠS av
H C
Group Name
ĠT ony
ed u
ĠC as
Ġsch olar
Ġunivers al
Ġm es
ile y
C ALL
Ġenh ance
se m
St and
Ġl es
el astic
Be an
ĠP ut
ĠA SSERT
t k
Ġgrad uated
Ġinter act
Ġimprov ement
Ġc atalog
Ġfl uid
re port
ierarch y
er os
nap shot
$ /
Ġprior ity
Ġdeliver ed
Ġop acity
if est
_ );
ĠHar ry
it i
ad i
Ob serv
pl ane
ari os
Ġun iverse
Ġmarket ing
our se
CO MP
cept ions
secut ive
Ġadv ice
ĠAdministr ation
ĠO t
Ġcol ors
ĠR ight
ĠSwed en
ĠF OR
Ġmix ing
ak s
Ġdemonstr ate
Ġa st
Ġval ign
Im port
Ġpass es
in ction
it ational
Ġrun time
ĠPro t
Ġb ought
Ġw inter
Ph ys
Con structor
ĠD ark
ĠN ever
Ġgener ator
um a
Ġch apter
Pol it
b g
Ġdeb ug
ĠI ss
ĠAnd erson
Filter Database
19 37
pro xy
ĠH ou
support ed
hed ral
Requ ired
Ġprec isely
Ġh its
Fl ag
=" ${
Ġs aved
Ġex cess
Ġinterpret ation
Ġsk in
Ġwould n
Ð ¼
ĠPr inc
Ġlog ger
10 5
Bl ack
ĠMem orial
ĠN AS
ĠM iller
Ġcr yst
G iven
Ġres istance
Not ification
Ġint ensity
Ġport ray
prov ider
A E
off s
Ġy ards
ĠMount ain
m ouse
INT ER
Ġk illing
Ġsur g
se par
Test Case
the less
Ġc ub
Ġdecom position
Ġspe aking
Cond ition
Ġcho ices
New ton
Ġtr uly
ĠDe ep
Ġadj acent
c ers
Ġd imensional
ail ability
ĠPrem ier
Ġworld wide
Ġcomp re
dev elop
, ...
Ġa f
W atch
as ync
Ġcollabor ation
re ens
Ġso le
Ġsc ores
ĠCh ange
ĠMed icine
Ġfac ulty
ĠH al
Ġpar liament
Vis ible
Ġf ake
ap l
Ġhum ans
an ia
m k
ic ular
Ġsign s
us ers
arg uments
ĠAp ache
B atch
check box
Cl oud
ĠIndian a
Ġread only
Ġir on
com b
d ash
E ST
Re al
Constr aint
re v
d c
ĠA mb
ĠN orm
Ġrough ly
Ġoper ate
Ġac id
ĠA h
O ct
s quare
at omic
ĠIn s
St ar
ennes see
Ġst yles
ĠH art
. ",
M ouse
Ġcomm ut
ĠSur vey
ĠE ric
ĠV i
Ġpro pose
ĠJac ob
ĠO N
Ġdel ivery
ĠP ot
ĠAri zona
is ode
ĠC ab
ĠN FL
Ġent ropy
ĠD NA
ĠN ative
ĠS C
Ġf ails
es ides
}} .
ĠSing apore
pl es
Fail ure
const ant
em et
ĠA ud
ĠB rian
y y
Ġt ags
con nected
Ġ' ';
Ġf erm
ĠD a
ĠLe on
pl oad
ĠS I
atur ally
ir ms
Ġdemonstr ated
Ġbring ing
Ġwor st
Ġw alls
ĠHol lywood
res ize
Ġcont ribute
se q
Ġre new
ropol itan
@ {
et al
MO DE
p ub
ĠE P
Ġent ertain
Ġpropos al
Ġfil ed
ĠI T
On ce
Ġhousehold s
ĠR oll
view s
Ġman age
Ġst ages
ic ide
Ġparticip ated
ry ption
Ġdiscover y
Ġne ither
ĠEx ample
ĠOff icer
Ġpotential ly
\ /
ĠW inter
ip ped
ĠF ac
Ġdou bt
nob r
Date Time
] $,
Ã º
Ĥ ¬
Sp an
long rightarrow
19 00
fe ature
Ġprodu cing
ub le
s r
ser ies
ang ers
Ġg ene
,\ \
@ "
Ġ' '
S W
Ġc ru
ist ogram
ro it
Ġtr ivial
DE F
ig ate
plement ation
Ġderiv ative
D IS
Ġc ash
ach er
g ood
R elease
Ġb tn
Ġd iver
con struct
Ġy ellow
empty set
F P
Ġleg end
w ik
Pr ivate
Ġv eter
| }{
bu ilt
ĠT err
T x
fg han
Ġaccom pl
ĠCap tain
item pty
ren ce
Ġpercent age
Pro gram
fort unately
um ps
Ġd ry
ĠM ilitary
Ġcan onical
im its
= .
Ġle ct
ĠJ ordan
om itempty
igen ous
not ations
pt ic
cl one
Ġhand ling
ĠIslam ic
ĠCl oud
Ġ{ "
A ug
Ġsens itive
Person al
ordin ate
A rea
k t
'] ['
Ġmunic ipal
P lease
Ass ociation
Ġm ouse
ĠS ets
an imation
Ġp ixel
k ish
Ġse vent
Ġlimit ations
Ġl ose
ĠD ead
ĠApp endix
pre c
OR Y
! "
Ġunderst ood
ang a
19 19
serv ices
Ġad ult
: [
h ref
comp are
Ġeval uated
DE FAULT
the mes
Ġreason able
F inal
Z one
P ubl
! [
Ġsc oring
ĠT er
ĠSe ason
ĠF ROM
ĠO cean
ou st
E p
() ))
Ġfr agment
ĠFr ont
ro ute
ĠRetri eved
ab out
ir th
e ast
Ġdr iven
ĠSk y
l ower
t iny
ĠB ishop
ann y
Ġconcent ration
ĠPhilipp ines
Ġc ursor
Ġpain ting
Label s
big l
" },
i Ã³n
ĠSim on
Ġrank ed
ĠF ull
Al so
ĠBuild ing
rad io
ch ant
Ġcre ative
Ġmod ify
Ġhypot hesis
ut ies
ĠR oss
Ġdis p
ĠCon stitution
;\ ;\
ĠB att
ĠF A
Ġiter ation
B IT
ĠMag azine
Ġt x
Ġdrug s
Ġaddress es
ib ilities
ĠW IT
ĠG R
E very
Ġdis appe
Ġcompet ed
olv ing
hav ior
Dr iver
}_{ -
and o
}) }
ĠMiss ouri
Return s
W ord
ĠW rite
ĠP C
est abl
\ ;
AN T
test s
sh op
Ġcomp lement
Ġb os
pol icy
ĠL ook
Ġcaus ing
ĠC ulture
H er
Ġr is
Ġreject ed
VAL ID
Ġindepend ence
Ġnot ion
ĠMod ern
Ġexplan ation
v o
W ORD
Ġd ense
ĠL oad
ĠA thlet
Ġexc ited
ag ent
19 17
ĠP A
U C
Ġinvolv es
ĠM O
j u
ph ase
b atch
Ġsh aring
d on
Ġshoot ing
big r
ant e
iam i
ĠF ind
ĠRem ove
ĠR yan
Ġlo an
Ġup load
rypt o
assert True
form er
19 33
ĠSh er
br as
l ass
col n
az a
Ã© s
Ġ" $
Ġwh atever
Ġpresident ial
Ġextrem e
Str ategy
å ı
19 35
hens ive
user name
Ù Ħ
ĠHol y
ĠF all
Ġrece iver
Ġpl ate
qu es
t f
ĠC ond
Wh ere
Ġvalid ate
ĠDig ital
c ross
Ġcomb at
ĠN AME
Ġl ay
ĠL anguage
Ġfl u
Hel p
Ġman ip
Ġyour self
Ġre nt
qu ote
Ġs udden
u able
ĠO regon
Ġdi agn
om y
12 7
c ountry
Ġdefin itions
ĠAr thur
th rough
Ġas sets
ĠM it
sequ ently
y ers
ĠĠĠĠĠĠĠĠĠĠĠĠĠĠĠĠ ĠĠĠĠĠĠĠĠĠĠĠĠĠĠ
19 14
B ased
Ġf aces
Ġcorrect ly
Ġgener ating
Ġgovern or
rupt ed
DE BUG
Ġte en
object s
D avid
Ġhor izontal
ĠS ound
och astic
f actory
Ġdecre ase
Ġl ift
os ed
N ormal
Ġleg islation
Ġrespect ive
Sh ared
P UT
T ax
Ġtit led
Ġquant ity
re p
ass ets
Ġsound s
g i
th ere
Ġacc used
ĠJ oh
B inary
Ġf ly
emet ery
Ġd ates
Ġins urance
ĠSwed ish
Ġscient ists
ows ki
Ġrecomm ended
els on
Ġgrav ity
stand ard
Ġrev olution
comm it
Ġeduc ational
SS L
Ġembedd ing
ail ing
s ig
ĠP ier
Ġ= ====
Ġexhib ition
Ġdec ide
Pro of
Ġstri ke
coh ol
Ġp ray
P romise
Ġre verse
D ATA
Ġread ers
ok ing
C ent
Ġth in
fl at
Ġro ots
ĠAnd roid
ubern etes
Ġbro ke
Ed ge
neg ative
$ _{
Render er
Ġm o
ri k
Ġ{ },
em ony
ĠJ am
n p
ĠP it
Ġprodu ces
! <
ĠP ay
c ounter
Ġvict ims
w ho
Ġmax imal
B Y
w as
Ġwatch ing
ah oma
Ġcompos er
Ġbr ings
Ġcon secutive
An alysis
Group s
Ġexpos ure
ĠB ush
Ġhundred s
av al
Ġim possible
Ġdr ivers
. âĢĻ
ĠMal ays
ĠIsrael i
clud es
Ġsub group
Ġal ert
ur is
al ion
G ame
Ġpres ents
Id s
ĠC ore
a ired
Ġpo et
Ġsp r
az e
Ġl yr
Ġfind ings
Ġcompl iance
ĠEnter tainment
EL D
ure au
Ġt er
avel ength
Ġn p
Ġd x
Ġst ead
ĠWh ere
con tain
function s
ĠH an
amaz on
Ġcomp ens
Ġemph as
Ġwrit es
Ġperman ent
ic ians
ĠL ind
math it
U ES
el lect
Ġs in
Ġexpl os
p end
F ocus
re du
Con vert
Ġder ive
Ġ à¤
ĠF uture
Ġnov els
weg ian
u y
def er
W omen
ab br
ene z
Ġrepl acement
Ġt ack
Ġt on
ĠCast le
ĠUkr aine
Ð¾Ð ²
ĠSt atus
ĠS che
Ġsymbol s
ĠReg ional
}} }\
ĠK al
hel per
Map per
Ġs ought
te ction
Ġjournal ist
ymmet ry
ov en
Ġfl ows
Ġdi agonal
Ġv irt
ang el
b us
Argument Exception
comple x
Ġp iano
ð Ł
ĠB ox
ĠMar ia
RES ULT
Ġfac ilit
osp it
L Y
19 29
v ature
Ġcon n
Ġv o
Ġmanif old
A x
Ġappe al
b asic
' ];
Ġmod er
ĠC zech
ĠT ag
Ġsubject s
mem ory
Ġap plies
Ġdet ector
writ ten
Ġdire ctions
Ġp ipeline
ef e
r ift
Ġincreasing ly
Ġ\ ]
ĠLab our
Pl ayer
Ġbound aries
ac on
Ġm it
Ġw rest
}) =
w ick
# {
M ove
is ition
ap is
fig ures
Ġacc um
ĠG h
es ome
Ġinter mediate
set up
ĠViet nam
_ )
Ġbrief ly
ĠS quare
ĠO S
part s
Ġag encies
e a
ĠS V
(' /
ĠAg ency
ĠOption al
uck s
Ġqual ified
AN CE
Ġro yal
os l
f lex
us al
ĠD ream
19 34
Ġliqu id
Ġteach ers
W in
an ches
C ONT
aw are
var iable
Ġconstit ution
Ġwork er
Ð ´
M IN
er on
? >
o a
Ġmer ge
P G
ĠS H
Ġnormal ized
om m
hor izontal
per m
MOD ULE
Ġtown s
vis ible
Ġs pher
n ie
Ġcons ervation
ĠReg iment
Ġelect ro
al gebra
Ġpay ment
Ġw indows
Ġvar iance
itor ies
Ġm ob
ĠR oy
l at
Ġp atch
u ction
Ġm atters
Ġbelong s
ĠW atch
(' #
Î ±
stit ut
M s
Ġthe atre
ĠK at
ens ities
sl ash
ort ion
M ich
Ġpriv acy
Ġattempt ed
Ġengine er
s ocket
sh ips
Ġref used
tr ivial
Ġign ored
Ġposs ess
Ġassum ing
Ġrestr icted
Ġacc ord
D b
Ġcheck ed
ĠV ector
l ights
Gener ated
viron ments
Ġor b
Ġcopy right
ic ious
Ġin h
ĠC lient
Ġdistrict s
M c
Ġv ocal
uth er
a ire
Cons ider
n ol
ul us
re lease
s ync
d uration
Ġv acc
comp iler
ĠSe ver
ibli ography
Ġcon form
rop ic
Ġaff ili
Ġdis miss
Sh ould
Ġperiod s
y ou
19 32
Ġ" ",
ĠH op
id al
Ġl it
Ġch ose
inher it
w d
Ġdef orm
ĠV ari
olut ely
A SSERT
L ife
: `
Ġent itled
L ike
Ġpubl ish
b at
ĠArray List
orig in
Ġcontribut ed
ĠMary land
as ma
ĠDis ney
1 15
ĠMex ican
S ources
Ġ\ "
Ġwor se
ĠPro p
Ġcr ucial
spring framework
Ġfr anch
Ġarg ued
O F
$ {\
qu ant
M ake
as sembly
ĠV ice
con sole
ĠB or
c fg
valid ate
Ġgood s
m f
Ġpil ot
, '
Ġheav ily
ĠB at
Ġass ault
por ter
g ov
h d
M r
Ġreach ing
PO ST
i ota
ON G
Ġtem porary
pos ing
ĠP O
ĠNor way
Ġsn ap
m aps
ge bras
Con stant
uff ers
ĠOn line
Ġ" %
cl ine
ĠSen ior
U K
h us
19 10
ĠT ennessee
Comp iler
at ivity
Ġre tail
b urn
Ġdom inant
\ |\
d am
ĠJ ane
14 0
m ay
Null able
Ġ_ .
fol io
ĠK han
ĠI L
ĠB an
ĠAm ong
Ġcorpor ate
ĠM oon
sc ss
Ġreport ing
Ġseek ing
Ġh ide
19 28
Ġd iverse
}) ^
enn y
ĠPhil ip
Ġbank s
ĠR eb
Ġrecover y
ĠD OM
D rop
Ġthrow n
ver ter
Ġsu it
." ""
____ ____
lo om
Ġcoupl ed
aj ax
Ġan om
tikz picture
ĠMan chester
Ġre nd
U ST
get Element
ĠMed al
wit zer
G LE
Ġpoint ed
Ġs ync
S ame
Ġen emy
Ġ urg
Ġt urb
ĠL eb
11 1
alle st
ĠSt ream
AT CH
Ġcl ip
Ġnull ptr
get Value
Ġre named
Ġexerc ise
Ġorient ation
le ton
aw ay
Ð° Ð½
k h
ĠS ix
Ġref uge
Ġphot on
Ġfem ales
Ġsp ending
Ph one
ol i
A pr
o is
W ell
str ings
Ġf aced
f eed
f red
w ich
con vert
Ġl oved
Ġt ables
iss ip
ĠHot el
X i
ĠPh ot
co q
Lem ma
+ (
ĠSt one
Ġt rib
Ġs oci
T ele
? ?
Ġher o
Ġrequire ment
Ġb ond
Ġim press
Ġmolec ular
Ġsepar ation
multi row
Ġch airman
Ġcomp atible
olog ists
m aven
es is
Ġr acing
Ġpack et
cover y
INS ERT
ound ed
Ġc raft
Ġsc r
Ġour s
ĠCons ider
ĠBr ig
Ġcos m
inst ein
Ġass istance
Ġread s
E ffect
ĠB urn
ownt own
Ġener gies
ĠP os
Ġrespons es
S erv
ĠM un
__ )
ĠF ederation
z ip
Ġ= ========
Ġre venue
ut r
ist a
B el
do or
ĠPl ace
ĠBar on
> '
Ġadd s
} ))
ĠHe art
Ġa cknowled
element s
Ġdesign ated
Ġdi plom
ĠE u
Ġbo ys
ip h
ache lor
pro gram
ĠZ end
}$ }
not ag
Ġa mazing
in ian
Ġparticip ate
Ġpar ish
Un known
column width
ac o
ĠT el
Ġ\ ,\
Ġfe e
ĠS to
west ern
Ġext ensions
Ġk il
Ġquant ities
D en
ĠCol on
L i
1 12
N orth
Ġapprox imate
D ig
ĠC ru
ĠU l
Ġre ward
Ġrad ial
text color
Ġon going
Ġfound ation
ĠMe an
AR D
Ġhard ware
witzer land
og ether
Ġde bt
ĠD ue
ĠMar c
sp irit
r ig
Ġtri ple
19 31
ĠM rs
"" "
Ġf at
Ġtalk s
In ner
ĠÂ ·
Ġnon linear
Ġaff ord
d k
Ġse es
fl u
Ġtechn ologies
ta h
Ġim ply
ĠDi ego
ĠK evin
Ġv ulner
ĠA fghan
al ias
print ln
Ġk in
de ep
agr ang
is Empty
ĠE s
ĠArt icle
Ġair port
Ġp ixels
Ġexp ensive
Ġth ir
v art
ab ama
Ġjoin ing
Ġfact s
C ur
Ġil legal
Ġm ile
Ġex posed
Ex ecution
side bar
ĠGree ce
O ld
ĠF ix
G ER
od ge
at iv
ĠSer ver
Ġsp oke
l ot
ĠB alt
= [
E st
ĠSer b
Add r
CH AR
aud i
R aw
AT ED
Ġwill ing
ĠG ib
Ġim plicit
Ġcircum stances
over ty
dis able
(" /
Ġ\ &
me an
ĠI owa
Ġmaintain ed
qu ir
ĠOper ation
l oss
Ġv ast
ĠCl ark
ĠLeg isl
Ġprefer red
ĠM L
sp in
Ġvari ations
M ount
Ġin ternet
Pl an
in cess
Ġaccom mod
Ġemer gency
Ġto wer
Ġsever e
ĠA P
iz ers
Ġlaw yer
19 24
LO W
amb ig
ĠK a
Ġasympt otic
Ġcr ash
Ġconvent ional
ĠB ab
av ailable
v ia
pro fit
Ġfew er
w arning
Ar r
et ary
Ġg od
Ġbro thers
Ġcomp ilation
Ġ} {
st an
Ġowners hip
Ġm outh
}} ^{\
B inding
ĠL ib
Ġsup pose
Ġput ting
Pre vious
Ġqu ark
Ins ert
F rench
S ave
l ad
Ġh ybrid
ĠT a
Ġpresent ation
All oc
H ence
py thon
N P
Ġres olved
comp ile
Ġpop ulations
Ġsch ol
ĠAll en
Ġin struction
Ġident ification
Ġstrong er
st ates
in ch
q q
Ġfam iliar
Ġgeneral ized
\ }$,
sl ant
clos ure
ii i
Ġout come
requ ency
end ment
Ġdef initely
bound s
all as
Ġw idget
Ġr ugby
t l
ag u
G erman
Ġplatform s
19 22
log in
Ġperm issions
Ġtop ological
ĠL iter
E mail
Ġloss es
z y
Ident ity
Ġdom inated
UN D
ĠH AL
Ġe ase
Ġs elling
anch or
ĠSc ient
Ġsw im
ĠRes ponse
LO C
int eger
Ġident ifier
" ],
Ġmembers hip
) }_
ast s
Ġb id
face book
P red
om ot
ĠMos cow
ĠCont in
P al
) &
Comple te
ol id
ĠD un
R ate
19 27
Ġbr on
t body
ĠG ram
Ġdanger ous
Ġappear ing
Ġf olk
Ġexpat riate
coll apse
Ġrestaur ant
ĠH y
Ġpass ion
Ġstre ets
st age
ĠS ite
Ad min
re present
Ġfr ag
cl ip
f mt
Ġg iant
In formation
mer ge
ĠAb stract
ĠB arn
Ġcharacter ized
A udio
Ġrapid ly
olt ip
we alth
Ġ? >
kl ahoma
Will iam
Ġillustr ated
ug ar
Ġen umer
Us age
en ers
J apan
Ph oto
Ġdescrib ing
mut able
put ed
Ġprep are
Ġdep ict
an im
Ġro of
Ġre tain
Ġsix th
/ .
Ġoccup ied
app oint
z o
ĠÐ ¸
R S
Ġeng aged
Ġinv ited
re pre
Ġpart ially
Ġf ired
Ġinc red
i at
Arg uments
] ))
for Each
Ġold est
Ġre in
Ġn a
ĠR et
ĠK now
Object s
En v
OR TED
M F
Ġf ib
Ø ±
ĠHou ston
! \
Ġ} }
el and
ick ing
ĠM as
c red
am ps
Ġperiod ic
STR ING
Ġt ries
Ġsubstant ial
Ġs now
Ġbur ied
ig ious
or er
10 2
ĠT en
ĠC op
Ġs ight
ĠHarr is
Ġc ro
Ġchalleng ing
Ġsur ve
3 60
Inst all
ĠMat the
Ġsucceed ed
el ve
ud a
Ġgovern ing
Ġe at
ĠHigh way
ĠPat rick
S ample
Ġh aven
ip edia
ex pression
per iod
SE LECT
Ġregard ed
Ġturn ing
Ġin clusion
Ġl ob
Ġf rames
Ġsimultane ously
Ġsup plied
i ary
ĠCh all
Th row
ĠSystem s
Ġdraw ing
Ġembedd ed
c od
Ġpro files
olv es
Ġoff ices
ĠSim ple
S creen
Ġcoll apse
er as
Ġreal ized
Ġcrit ics
ĠS quad
ell s
Ġcorre ction
Ġv oted
Ġland scape
Ġexpl ains
ib l
Ġpost s
Ġneut ral
t ar
Ġ ri
M essages
script size
ass andra
repre ne
n an
S ong
12 34
ĠWAR RAN
g ar
Ġro utes
G M
Ġfall s
Ġstudy ing
s pl
Ġmagn et
ĠR ab
lo pe
it udes
Ġconsum ption
p b
Ġaccess ible
arg o
Ġcon cluded
Ġst rip
urre nce
AT TR
ĠJ ay
in th
ĠF ellow
ĠHow ard
Ġdeleg ate
Ġsub sid
nt il
Ġun us
ĠL android
ĠB ry
Ġd uty
us cript
Ġpe er
ri ers
Ġ$ ,
S ql
ĠM ock
em pl
ĠT reat
ish ment
ĠLin coln
Ġal ias
he ta
od ox
19 25
Ġco her
vert ical
Ġview ed
) >
E val
ers hip
DE X
u j
^ ^
ĠAnth ony
Ġrestr iction
ĠH iggs
o i
eg as
Ġste el
Pl ace
ĠMo ore
ĠIN TO
Ġrepl acing
ĠCont ent
x s
Ġgu ys
hold ers
ĠC ape
ĠM unic
rt l
AS K
Ġman agers
ass ign
fin ite
Valid ator
< !
U pload
Ġre ar
Ġneigh bour
Ġph ases
or ous
m ount
Ġhead s
Ġpro spect
} |\
ĠCh ap
Ġf ault
Ch ain
^{ *
Ph il
ĠSar ah
Ġmat ched
ĠYou Tube
end a
ĠTh ird
Ġcol lections
ĠPe ak
Ġredu ces
ou pl
con duct
Ġd ashed
C ard
Ġr ating
C LASS
ill ery
arn er
Ġm ess
ĠC S
ĠÐ ²
ĠAp plication
Ġtop ics
ic ut
V AR
iss on
Ġclos ure
) })
Ġl aid
Ġ-- -
m ont
ĠMel bourne
Ġcon crete
L oop
Ġm acro
sequ ence
Ð ¿
Ġsett led
10 4
Ġseg ments
il k
go og
F uture
ĠA C
ĠSh ould
Ġh un
MA P
ĠD ouble
Ġask ing
Ġ| =
iv acy
ex it
19 16
Ġadapt ed
tri angle
Ġvary ing
Ġad ults
Ġscen arios
T L
ĠG ab
d istance
Ġrob ot
che ll
Ġfor th
ĠL oc
ĠC le
Ġterm inal
M al
M en
ĠEd itor
s un
cont ents
Ġp it
ous es
ĠPr ivate
Ġbas eline
Ġdesc riptor
Ġexper ts
ur ric
Ġn aturally
ec l
He alth
} ~
Ġis omorphism
Ġm igr
P resent
Ġim pl
ĠB E
eg et
ph ony
ig e
Ġload ing
t p
19 21
ĠMark et
Ġadv ers
Ġhost s
Ġch air
19 12
ynam ics
Ġcoll ision
Ġprec ise
Ġsim ilarly
I AL
Ġj un
Ġdesign s
is ations
ĠCl inton
Ġj azz
Ġl ang
Ġs ed
Ġim plied
oun ce
ĠD VD
Ġnom inated
ane ous
l ined
om er
F M
ific ial
N Unit
Ġprov ision
] {\
More over
Ġag ed
Ġinj ured
Ġp ending
An notation
ut ation
Ġisol ated
Ġpan els
Ġsens itivity
**** **
Ġdr um
EN TRY
ĠE uro
Ġ@ "
ĠMan ager
Ġmer ged
ĠF a
l ab
Ġdoll ars
Input Stream
Ġmanufact uring
Ġvari ant
ĠD ick
ĠAr k
il st
^{ (\
ĠS ep
Ġpro fit
> ;
O h
AR N
Ġmed i
M aster
Ġst ood
Ġiter ator
Sup pose
Ġprem ier
ĠM iami
Ġn an
ins ic
Ġequival ence
19 26
ĠA st
ĠEx press
ĠB ah
ĠF ri
ust ries
Ġr anges
Ã ¥
ĠSil ver
g oto
Ġassess ment
Ġtal ent
Ġb aby
ĠA z
r as
Ġl ens
ID TH
Ġem pir
Ġb old
agrang ian
act ual
ĠComm un
In f
Ġvisit ors
Ġprinc iples
> )
Ġmed icine
load er
Ġamount s
ĠD B
">< !--
Ġtrad ing
Ġat omic
Ġsit uations
ĠO ak
inc ial
Ġprom otion
Ġcarry ing
Ġben chmark
^* \
/ {
Ġm m
Ġ' ',
Ġd t
Ġchar set
E urope
Ġgr ade
T Y
ĠD esc
ĠP a
Pl atform
d ag
h ang
}\ |
Ġc ards
19 15
][ ]{
ĠOut put
ĠF ame
Ġmechan isms
ĠG ard
ĠV ar
Sk ip
script style
ĠDo ctor
ĠAdd itionally
Ġmiss ed
Ġconfig urations
Ġredu cing
ĠBase ball
SC R
ĠCre ates
Ġst ochastic
Ġcross ing
chedul er
Ġcap tain
ĠC SS
Ġemploy ment
Serial izer
Ġ Ñģ
ard o
Ġattack ed
19 23
ĠM and
Ġre vers
Ġinvestig ated
Ġqu asi
erv ing
Ġpre gn
re ement
< <
Ġcompet itive
C md
ĠDef ense
int end
Seg ment
se lection
Ġpenal ty
is ons
Ġr id
Ġfac ing
Ġcom plicated
Ġanal ys
Ġtr ains
ĠChe m
Ġconvers ation
EE EE
F older
Ġpo etry
Ġshort ly
ĠN ev
Ġgrad uate
Ġdecl are
og onal
Ġbo at
Ġin tern
J uly
ic ates
! âĢĿ
ĠJun ior
N UM
}} =
Ġhead quarters
et ric
Ġcut s
f ake
Ġregular ly
Ġp up
G P
Ġcent uries
ubl in
Ġd ress
ĠP i
Ġrecon struction
ĠG ordon
ĠC EL
ĠAl bert
od a
\ }\
ĠPro du
ĠP DF
ĠK elly
âĢĻ .
App end
po inter
ĠS A
Ġwhe el
ub er
ĠG all
S an
Ġcommunic ations
Ġgrow n
ĠB ureau
pro duction
vert ex
ID E
Ġcur vature
ĠV o
RE D
work s
Ġd iversity
Ġclass ified
Ġfor g
ĠIl legal
IO Exception
Ġm ine
ĠAcc ount
ĠDet roit
Ġdynam ical
clud ing
Ġfe els
Ġf ought
Ġpay load
ĠS witzerland
ar ith
V ICE
Ġwhen ever
ĠSe lect
ĠDemocr ats
B AR
; ">
Ġsche mes
Ġm ales
ĠS P
Ġdiscuss ions
() ),
w ave
¿ ½
Ġappro val
ĠE arly
ĠTown ship
Ġneigh b
ĠRepresent atives
ĠN ich
Ġf lood
ĠD al
Ġapparent ly
Ġmonitor ing
( .
Ġs ocket
iv a
Ġf iber
Ġsur faces
ĠJ os
ru ction
J une
ĠFor ces
ĠL ore
g ather
ĠHaw ai
ĠB os
ick y
i est
Con nect
is set
ĠAn alysis
sub sec
form ing
Ġcent ers
bl ank
urn ame
t re
D OM
Ġcont roll
ĠEx pl
issip pi
ĠS ri
âĢ¦ âĢ¦
Ġappre ci
Ġa ug
Ġcomm ands
Ġdirect ors
C V
ĠT ree
1 16
ĠH ans
on i
Run ner
Ġ" ";
ĠTr aining
Ġan chor
ĠTem ple
med skip
equ ations
ĠE V
Ġt ang
Con tains
Bi ography
ce il
Ġal pha
ĠC red
ic he
ĠAl abama
w ild
Ġw aste
Ġcer emony
O C
Ġcol le
Ġreg istration
st e
ĠKent ucky
Fe atures
ĠD M
LE D
ĠFred er
ĠK y
h our
Ġs i
Ġord inary
M ac
] +
d irection
Ġst im
ĠY es
ĠCap ital
c atch
Ġre produ
M arch
C lear
Ġs ys
Ġcons ervative
w arn
ĠN ob
pol y
Ġtop ology
br idge
STAT US
Ġvac uum
Ã¼ r
A bs
ĠC P
ĠD ur
ĠD ave
Ġch unk
Ġcount s
w en
s is
S ort
to Be
Ġpro hib
R ob
ĠĠĠĠĠĠĠĠĠĠĠĠĠĠĠĠĠĠĠĠĠĠĠĠĠĠĠĠĠĠĠĠ Ġ
pre vious
enez uel
Ġst arring
Cont ents
Ġlyr ics
Ġret irement
Ġo x
ĠL L
0000 00
ĠL A
Ex pected
ĠG irl
itect ure
ellect ual
! ]
Ġt elling
CO M
Ġbe ar
ĠWh it
Ġin structions
Ġmay or
n ed
Ġm d
G a
Ġfor get
se a
en berg
Ġgrav itational
Ġconcern ing
ĠWhe ther
ĠMar ine
Ġtrack ing
ors es
Ġvot ers
Ġcom ic
ĠTok yo
ĠY outh
we ek
Ġregard less
ph antom
Ġatmos phere
Ġinflu enced
Ġproced ures
ĠTh ose
Ġchart s
it ely
Ob server
Ġred shift
P Y
Ġ' .
Res olver
ex tra
Ġfrequ encies
Ġexpect ation
F ore
Ġkn ock
ĠTr ade
ac er
ĠB Y
d ers
p f
Ġ ----------------------------------------------------------------
Ġle af
li est
F eb
Î ¿
Ġroad s
cept or
ĠB eng
ĠD escription
ĠSch olar
( /
Ġenjoy ed
ï ¿½
ram a
ĠVAL UES
ra it
Ġsup ers
ĠHer itage
Ġvill ages
ain er
vart heta
Ġclos ing
ĠF arm
R a
Ġgo ogle
" |
Ġwalk ing
19 13
Ġp ictures
end point
repe at
Ġstruct ural
ĠĠ čĊ
ÃŃ a
ar o
ĠR ound
Ġsat ellite
Ġocc as
il ty
Ġdis order
Ġf old
ĠTh read
ĠS port
V irtual
ĠM D
Ġsh r
ong o
par allel
W IN
Ġcon vention
ict ional
class Name
Ġlog ging
ĠAn ne
d ynamic
Ġbl ow
level and
: =\
Ġl ake
duc ible
op ol
Ġrepe at
ĠC ook
gress ive
Ġexhib it
ĠAut o
Rem ote
Ġcl one
Ġassign ment
) ",
Ġstrict ly
ĠB ra
Ġ( ;
ĠSe attle
u h
in ject
es a
li x
Ġgu id
ĠRober ts
an alysis
A UT
Ġs ons
Ġn ations
ir cles
ĠD elete
ĠS in
ĠP romise
act ivity
Ġcheck s
H tml
em it
mit ter
ĠSim ilarly
Cont in
}{ *
ĠPr int
Ġestablish ment
h ook
Ġf itting
A zure
Ġliter ary
d st
Ġcol span
col Last
Ġpres c
iam ond
Ġnorm ally
HE AD
F OR
Ġ( {\
Ġb rown
Ġcorre ctions
h ot
Ġhon est
Ġf asc
ĠE ND
C ounter
9 00
ĠLa ure
Ġreve als
ĠV olume
Ġad mitted
CT YPE
Ġconsider ation
se p
z i
Ġfil ters
app y
is ec
Ġr ide
um ption
Ġentertain ment
Ġge ometric
Ġaccomp an
ol ly
{ },
Ġtrans actions
1 18
read er
down load
g lyph
enc ode
s he
L ight
Ġdom ains
dep recated
cy cl
tern oon
P aul
NS String
Ġdef ining
ĠS W
ĠAust ria
ĠP ur
ink ing
F ace
ues e
ĠD est
Ġpick ed
Ġf lying
Ġw avelength
Ġadvert ising
R ich
Ġ ur
Ġcontinu ing
d ocker
lo yd
Ġd ies
ĠC G
att ing
ul atory
ex pl
Y es
3 50
sub ject
~~~~ ~~~~
at ibility
Ġmanif est
Ġsub mitted
ĠE ver
ĠM C
OP T
Ġsol ving
ke e
as hes
ĠQu ery
EEEE FF
R ober
Ġco aches
ĠĠĠĠĠĠĠĠĠĠĠĠĠĠĠĠ Ċ
Ä ĥ
method s
Ġmodel ing
S pr
Ġb ug
ank a
ren a
lik ely
Ġr u
Ġco ff
Process or
Ġsus pect
B D
Ġdef ect
ĠI ter
Ġtot ally
ĠWal ter
Newton soft
Ġcour ses
Ġeduc ated
Ġro oms
ĠSm all
em b
Ġbig ger
Ġb ott
ĠO klahoma
Err ors
Ġen vironments
sh a
Ġincorpor ated
n ative
ĠN atural
Ġg ro
Ġqu ot
add Class
ĠEconom ic
ograph ical
ĠPro duct
Ġs ympt
Ġwe ar
ĠPh ill
Ġabs olutely
Ġp ione
Ex ists
ĠCon text
Ġsurpr ising
Ġar med
ĠWalk er
Ù Ĩ
D im
Not Found
) ^\
Ġd elta
ĠV in
Can adian
d ays
ĠB ible
ust ed
Ġgun s
m ag
Ġphilosoph y
ĠMay or
h al
uer to
re tt
ĠP ed
im ore
Ġto ler
ĠKenn edy
apol is
l b
ate ur
col First
}{ {\
yn asty
Ġs ensor
Ġdev iation
or ne
Ġpolar ization
Ġarr ival
f p
ĠP as
ustr y
Ġhealth y
Ġh am
St atic
B ottom
on na
h pp
20 23
Ġis ot
Ġ' %
ĠPl ayer
\! \
10 3
Ġcompre hensive
R ules
b est
Dr ag
Ġtransl ated
Ġpl ain
Ġslow ly
Ġmain tenance
Ġal cohol
ĠSy ria
'] );
m oment
= $
foot notes
Met rics
Ġpro ud
upl icate
urs ive
rel ative
Ġinstr uments
P OS
Ġann iversary
H om
l iving
Ġsignific ance
Ġshe et
Ġbeli eves
ain ian
Ġreg ulations
Ġ$\ {\
Ġdepend encies
Ġg ift
Ġmusic ian
Ġproport ional
Cont act
let ter
Ġassoci ate
Ġdes ire
Ġen semble
FI ELD
ĠA le
Man agement
m aking
Ġmag ic
B ro
ĠTur kish
W arning
Ġformer ly
top ic
ĠE ag
ol o
ĠP ope
N or
Ġsl ot
R ows
Ġextract ed
b lob
B ecause
p rom
Ġr ival
De ath
er k
ra ise
Ġrul ed
Ġs oul
Ġw aters
qu al
ĠE mer
Ġk it
if ting
is ot
ĠDoug las
Ġ/* !<
19 11
Ġqu iet
Tim er
US ER
Ġcompet e
ĠVill age
f b
r ules
ĠB ron
ik h
valid ation
S witch
ĠEm peror
spe ed
Ġent ering
Ġconsequ ences
Sym fony
Ġch urches
ä »
( -\
Ġw ine
Ġinter pol
Ġa str
Ġguarant ee
. $$
re act
Ġg ar
Ġoper a
Ġst ats
Ġb are
load ing
arch ive
ag ination
high light
Ġv oting
EX PORT
Ðµ ÑĢ
Ġprov en
Ġadapt ation
Ġtrans itions
11 7
Ġconcept s
Ġlumin osity
Ġuniform ly
Ġc ached
tr l
ac ht
can vas
A SE
Ġdeal ing
form ed
k ernel
Ġut ility
Ex port
Pl ot
Ġcommit ment
H or
Ġparticip ation
Ġdist ances
oun ced
B ool
ĠD og
Ġcour ts
Fil m
sc opic
/ "
Ð ·
Ġfranch ise
Ġt el
up per
Ġy es
Ġem otional
ĠLaw rence
ff f
Ġm art
H D
l arg
Ġ" ${
Des ign
ĠN ap
Ġel if
Ġvict im
Ġg ang
F ALSE
HER E
ri ber
Di agnostics
O lymp
h fill
Ġto kens
ĠOr th
ers et
Ġabandon ed
Ġdis able
ĉĉ ĠĠĠ
Ġdeg ener
Ġtempor al
IN ST
ĉ ĠĠĠĠĠĠĠĠ
pp ed
10 6
Ġenc oded
ĠSup pose
GB T
Ġreg ression
Ġfluct uations
Ġsystem atic
Ġequ als
R andom
Ġcan vas
ĠAuthor ity
m ac
ĠG arden
Ġmin ing
Ġ" '
AT OR
ĠSt ore
Ġs b
str ict
ĠS n
j ax
Ġ å
Ġperturb ation
B ad
Ġtem ple
kw args
Ġ' "
h alf
G reen
Ġre pository
Ġleg acy
ĠAl an
V ol
ĠGe V
Ġpublic ations
ur ers
A wards
ĠO P
ĠW y
Ġat oms
Ġground s
Ġeigen values
ĠK am
cy cle
Apr il
ub s
DO CTYPE
Ġex clusive
\% $
Ġatt orney
. \\
ce iver
Ġb on
> :
text up
Ġassert True
b ing
Ġf its
mat htt
ĠCh airman
Ġb irds
Fr agment
Ġint ention
Ġsurg ery
ĠPar se
Ġp in
ather ine
Ġim g
St ud
Ġrece ives
Ġde leted
Set ting
SP ACE
gener ate
ĠTele vision
ĠH ad
âĢĻ ,
Ġoutput s
Ġan th
ĠHar vard
Ġaim s
ĠH um
Ġh a
b one
Ġsy nd
J ames
Ġs av
ĠL as
Ġperform s
ĠA I
ĠOper a
ĠÐ ½
ym n
Ġcommand er
We ek
Ġbron ze
t witter
Ġf i
Ġbatter y
B ounds
Ġhol es
Ġb ars
U AL
pl ier
ĠB us
or rect
ĠRes ult
Ġsum m
Ġdisc ipl
Ġconnect ing
ĠPh oto
al ia
Ġsing ing
footnotes ize
ĠL am
Ġst abil
Th rough
m essages
æ ľ
Ġsurpr ise
Ġs itting
ĠH ug
Ġover flow
riter ia
RA Y
pt o
P ut
des ign
Ġvol umes
CON FIG
Ġent ities
Ġarg ue
We ight
Ġb ath
n c
Ġun iqu
er red
Ġed it
NavBar Font
ear ing
i ac
ĠM organ
ol ph
est yle
Ġ" .
Ġpublic ly
ĉ čĊ
ĠP rom
bar a
Ġdesc ript
Sup er
ĠJ ason
ĠT ake
Ġindepend ently
ject ure
Ġequip ped
Ġs phere
periment al
ĠS el
ĠNor wegian
Ġstrugg le
ab c
Ġentr ance
xy gen
ĠBe at
ĠYear s
Ġep och
ex amples
Ġsh arp
ens itive
cre ated
AC H
Ġinitial ize
Ġt um
E ven
N a
× ķ
ĠSI ZE
Ġabsor ption
ĠConfig uration
ĠAd vent
... )
ĠSt ew
Ġanim ated
Constr aints
L R
Copy right
Ġstrateg ic
Ġbeh alf
ĠN ik
Ġmeet ings
ĠT ax
i ors
Ġemb od
ili ary
we ak
ĠC ow
Ġm or
FF ER
Ġed ited
ĠOther wise
t ip
Ġstreng then
oc a
S plit
v et
com par
Ġbr anches
G overn
cor ollary
ĠCh ile
Ġre ly
ĠF ourier
Ġanaly ze
ĠPe ace
char acter
ORD ER
rypt ed
all classes
Ġkind s
× Ļ
; )
ĠTr ack
ĉĉĉĉĉĉ Ċ
com pute
Ġstraight forward
K S
ari ant
19 08
k top
Ġp overty
ĠC NN
in us
it is
C ity
Ġtransport ation
S elf
Ġrep orter
ĠRes ults
Tim estamp
Ġther apy
Ġtext ure
ĠH u
Ġdr ums
RE E
S ite
ĠP od
ĠN eed
G rad
ov ak
al ert
Ðµ ÑĤ
Ġspirit ual
Ġmill ions
Ġsit uated
Ù ħ
ant ed
Ġform ally
Ġg ay
k ov
E ast
B N
Ġt ank
/ _
p ad
Ġa ux
ul um
Ġal ive
D id
D iff
ĠCo oper
Ġreli ef
Ġcomp aring
Ġme ets
ĠC HE
iv ia
v i
nav List
ĠRes erve
ĠN ash
br ane
e ah
ĠTh ough
Ġman uscript
ts burgh
ul p
Over view
r uby
RE SS
Ġp uls
th ree
Ġen ables
ĠPy thon
ur se
ĠMem bers
Ġpl asma
Ġpro be
, .
Ġconven ient
H ub
Ġen forcement
Ġreve al
struct ed
Ġt ip
Ġh ook
oust ic
Ġmark s
I Z
Ġf ul
im itive
ĠAl bum
Ġ ĉ
em bed
Ġdiam eter
id ges
Ġaut hent
H ar
Ġweight ed
=\ "
ĠCon stant
Ġdec line
ext ensions
C enter
Ġneutr ino
Ġro se
g ments
at ile
LI ST
Ġimprov ements
Ġmach ines
Ġrandom ly
re ason
B F
Ġrele ases
ri ent
M ajor
ĠDe an
Compar ison
st ory
cont rib
ĠI ron
m ill
itar ian
Decl aration
ĠG raph
ur ities
Ġ ,\
ĠU tah
) }.
ĠL P
10 24
ĠEd ition
iv idual
cal endar
ail and
P ower
Ġsecret ary
Ġtri als
T ex
b ow
Ġre plic
Ġderiv atives
ĠIndones ia
Ġpass enger
Ġcompar able
s ass
om as
p aper
Ġt ough
(" %
ĠConnect icut
end ers
Sh arp
r ame
in ces
Aug ust
ĠB h
b inary
n m
Ġval uable
ĠM ission
Ġev il
ĠBr un
Ext ensions
Ġpubl ishing
Ġfound ing
Con sumer
ia h
ĠRes ources
Enc oding
{ |
leg es
ĠMiss issippi
ĠH ills
Or gan
PRO C
Ġm ail
ine ar
Ġfair ly
and al
FLA G
Ġdecre ases
cam el
t ures
Ġc od
Ġfall ing
Ġgovern ments
Ġalign ment
Ġgreat ly
ĠBy te
Ġoff ensive
Ġfle et
ĠLouis iana
in cre
10 7
Ġqu eries
am er
Ġdesign er
ĠH D
Ġe c
Ġre b
ro b
New s
t ouch
Con tract
ĠAb b
Ġfru it
Ġd ictionary
Ġform ulation
Ġ$ _
Ġconj ug
ĠQueens land
nol imits
Rev iew
ĠN eg
f ef
] ->
ĠMc K
con cat
Task s
Ġlist ening
ĠD ak
ĠTai wan
ĠFin ancial
Ġre aches
ĠD A
Ġne uro
c ursor
Ã© t
text normal
ĠB ull
ir i
over view
ĠAll iance
u is
ro ck
Ġs essions
ĠStud y
Ġf s
l on
Ġgen etic
Ġrad i
ĠInd ependent
Point s
Ġtim estamp
LIC ENSE
Ġlif etime
direct ory
Ġc yl
govern or
en ix
H on
ash i
ĠAl ice
oth s
inter pret
M ag
ul er
Ġpres erve
Ġpar agraph
$. }
Column s
Û Į
ĠT ool
Ġund ert
Ġel ig
^* (
create Element
Stand ard
Ġres idual
As sembly
ter y
,\ ,\
st ers
S G
Ġuncertain ties
Ġvol t
Ġsh adow
Ġt ied
... </
Us ers
ic ode
ĠS R
Ġ- =
n it
ĠAnton io
ĠThom pson
Ġcollect ive
Ġeng ines
f ather
Ġmov ements
k ubernetes
Ġsign ing
TI ES
f etch
Ġunivers ities
ĠDE FAULT
Ġmy th
g ent
patch er
out ing
Ġrestrict ions
Don ald
bel ow
ra ig
ĠAtl anta
Ġr ising
or ce
Ġg arden
Part ition
Ġpr on
Ġpass engers
Ġl aser
Ġm ilit
Ġl ands
Spec ial
ens is
Ġbeaut y
Ġo vers
Ġin hib
idel ines
V C
iss ance
ĠH ell
ĠDef inition
T ok
ĠBow l
th ick
Ġstr uck
ass ador
ĠP ear
ch arge
Ġres erve
ĠAl gorithm
el ines
* \
Z ero
Ġinh abit
ĠF le
Ġform ing
Ġmet all
ĠLear ning
ĠL ate
ĠE arl
Ġas c
Ġback ing
Ġh al
Ġaddress ed
c u
pop up
ĠW ord
ĠChrist ians
*} [
Ġne arest
ĠCol umn
ĠC it
Olymp ic
Re ason
alyt ics
ah n
ĠĠĠĠĠĠĠĠĠĠĠĠĠĠĠĠĠĠĠĠĠĠĠĠĠĠĠĠĠĠĠĠ ĠĠ
aud io
Ġtr im
Ġelect rons
Ġconv olution
Ġthous and
CH AN
c raft
et he
av is
ĠH it
d n
ĠF ive
Ġcap abilities
D er
ĠH oll
i ere
ĠRuss ell
ĠBelg ium
Ġprodu cers
sub mit
ĠF er
ĠEx change
Ġh ired
Ġhand led
Ġwel come
Ġout comes
Mich ael
ĠF M
Ġdistingu ish
~ (\
Ġf urn
get s
Ġgen re
A I
ar ial
ĠS ud
St ub
Ġrun ner
Ġpull ed
ĠB art
Ġim pr
Ġaf ternoon
ĠO tt
% "
Ġhor ror
ĠArgent ina
he el
ant on
Ġden ied
ĠM ust
as a
Ġchild hood
T ile
Ġd ial
ob i
tool bar
W rap
Serial ization
RA M
Ġd ip
UN T
decl are
ry ing
Dec imal
Ġhistor ian
Ġhe ter
Sec ret
ĠN ag
rom agnetic
Ġcon front
ab stract
loc ale
10 8
del ay
M o
Ġquadr atic
c ancel
ĠBru ce
ĠT rib
dat abase
Ġdesc end
Ġpri ze
ĠÂ ©
Ġn ortheast
Ġexpl oration
ĠRef erence
18 90
ĠCommon wealth
ĠC OL
ĠNew ton
ĠTe ch
Ġd st
col lect
Form er
ĠNC AA
Ġtr unc
Ġpain ter
Ġinj uries
Ġc b
ĠHand le
Ġinher it
ĠOrgan ization
ĠO pt
h ist
T uple
FI X
al ph
B its
Austral ian
Ġconsum ers
Ġin duct
m ates
Ġdise ases
Ġc ertificate
Ġris ks
Ġpaint ings
Dep th
Ġis lands
Ġcirc ular
Sign ature
Ġop ens
ol as
Ġs ad
ĠY an
h istory
ar iance
ĠArm en
p aren
Ġap ps
Ġtraject ory
m atic
Own Property
: '
ĠH erm
ĠWARRAN TIES
ĠAd ams
C ursor
ĠB asic
Ġl ots
Ġremov ing
L ive
EN ABLE
enc oding
ĠI gn
Res p
Ġprocess ed
ĠMon te
n est
if i
column s
oc he
pher ic
Ġref lection
l icenses
ĠD ictionary
Ġf etch
ĠK ings
Ġres id
t b
ĠR ic
ĠSt ill
Ġh alo
Ġequ ally
s ong
lim inary
ĠD allas
Ġreli able
ĠChrist opher
i op
Ġ` ``
Ġinter vals
Ġb one
ĠL eft
load ed
Ġant icip
Ge ography
ĠJ osh
Ag greg
Ġe g
ĠCon vert
am an
y ll
ĠStud ios
u on
Ġdef ensive
os ph
iver pool
Id x
Ġmedal ists
ĠN BA
Ġcond itional
)-- (
G EN
n ik
Ã ł
B ibliography
Ġj uris
part y
ĠT ab
ĠAL IGN
ĠN ation
ĠIn v
Ġb reed
ĠS audi
ĠOr chestra
Ġ\ |\
ĠAust in
d ark
ĠL ang
ĠNiger ia
Ġfriend ly
ĠCon vention
T X
Com b
m iddle
Ġt ennis
Ġcr imes
IM IT
Ġeth nic
IL D
De ep
ĠS oc
r v
Ġalgebra ic
) (\
Ġtransform ed
Ġ{ $\
rb an
ĠR O
Perm ission
Ġaccompan ied
Ġlik elihood
Ġin aug
Ġlabel ed
Ġinterpret ed
ĠC C
Ġhead ed
Ġcritic ism
Ġoper ates
Enumer able
Ġremov al
FN GL
ĠSw iss
M us
ester day
Ġb acter
ĠB ased
Y Y
Ġwith draw
Ġfl ash
Ġgr ass
ĠD ublin
ĠR ule
Ġvisit ing
Ġconfigure d
ĠL ock
ĠCent ury
ĠMalays ia
s z
Ġs occer
Ġconsider able
l icense
R PC
ĠK az
r at
Ġh at
ch anges
ĠG ulf
ann on
ĠCol omb
T yp
B order
Ġimprov ing
ag ma
d in
Ġfocus es
us p
Ġremain der
Ġthought s
Ġmechan ical
ut ter
Ġst ating
Ġc ited
B uf
m outh
PH P
am ents
Ġprot otype
Del ay
C ref
in burgh
ul ous
Ġst adium
ĉ ĠĠ
Ġsuff ering
A lex
ĠM ars
m apping
L D
ç Ķ
Ġdifficult y
stack rel
ĠWork s
ex ecut
att ed
ĠM aur
Ġinvest ors
ourn als
ĠR ange
ĠM E
ĠG C
ĠJ ob
Ġag es
Ġn ick
} >
Ġpseud o
Ġat om
& =\
left arrow
Ġobvious ly
ac ew
ĠB eck
ĠAg ric
Ġgener ates
Ġacqu isition
Ġjun ior
ey ond
ĠMov ie
claim ed
A K
Ġenc ode
Ġup coming
Ax is
ist ol
{ (\
elastic search
Ġre act
Ġdevelop ers
Ġweek ly
Ġorgan isation
ol utions
19 05
ĠC leveland
Ġt all
ĠV enezuel
| $
Ġclass Name
Ġdest ruction
numer us
H ave
ĠI F
ign ore
p ref
\| _
numerus form
Ġdis appoint
Res et
m ate
G ood
ap ing
Ġbreak s
Ġcommission ed
ĠCh apter
ab ad
sp ir
Ġun expected
}^ +
" ].
Ġoper ational
om ing
AR B
Ġmet res
] =
ĠO k
Ġfem in
W ho
Ġelse where
C ancel
X Y
/** */
le ading
SO UR
Ġd ensities
br and
5 12
Ġenh anced
ĠJud ge
Ser ies
cal cul
back slash
Ġorder ing
u uid
Ġsepar ately
Orig in
ĠC OM
Ġfe as
Y our
ĠAl ber
ĠCl in
50 9
H am
ĠHon or
ĠK it
Ĩ Ĵ
Ġch a
Ġcr ick
F ac
em en
Ġwe aring
fore ach
er en
Ġarr ive
Ġrecogn ize
N I
Ġsem antic
le e
Ġm oral
ĠR ap
b oth
ss on
fef efe
ĠL agrangian
T ouch
ĠĠĠĠĠĠĠĠĠĠĠĠĠĠĠĠĠĠĠĠĠĠĠĠĠĠĠĠĠĠĠĠ ĠĠĠĠĠĠĠĠĠĠĠĠĠĠĠ
' _{
ĠAct ive
Ġher itage
Ġh ospit
or o
Ġhe ll
bl ing
ĠAdd ress
Ġsimilar ity
Ī Ĵ
ĉ ĠĠĠĠĠĠĠĠĠĠĠĠĠĠĠ
ĠC ole
raz y
Ġv eget
XX XX
10 9
ĠP HP
Ġneut ron
ig ator
Ġsub mit
Ġreal ize
Ġsim ulated
ul ates
ad v
| ^{
Ġsuper ior
$ ^
Ġmin i
Ġfant asy
ip art
ut t
Ġpro x
ĠDen mark
Ġdiff usion
Ġre ign
ne ut
p mb
Ġrul ing
mem bers
SCR IPT
ĠSchool s
IL ITY
Ġconf ident
Ġd il
ĠOrig inal
ĠN ic
Depend ency
Ġs wit
hy thm
oid s
Ġinv olve
L IN
le arning
19 07
Ġh ate
oc ese
back s
sect s
M ix
ĠJ uan
L ib
Draw ing
ĠN ep
ĠE ffect
AV E
ĠHistor ical
P ress
ial s
() </
Ġrank ing
ĠLiber al
Ġrep ly
ĠCHE CK
ĠCh ampions
Ġsol ved
S epar
int s
ĠAtt orney
19 09
$ '
Pop ulated
Capt ure
Ġrest ore
Ġactiv ation
Ġsp arse
ĠE mb
19 2
Ġcontinu um
Ġrest ored
Ġaim ed
Ġt icket
UE ST
ĠG re
rem arks
Ġpars ed
. (
b etween
Ġun like
ĠA BC
Requ ire
Ġconsist ed
Ġpri est
ĠBul g
Ac cept
ĠIn ternal
Mark er
Ġencour age
Ġiniti ative
Ġsm allest
> "
Ġ _{\
plement ed
Ġexam ine
Qu ant
Ġsub section
RE CT
ĠK itt
bor ough
f ac
LE TE
Wh ite
ul ative
cl s
ĠAb d
et ition
ĠRob inson
ex cept
Ġre putation
ĠLim ited
Å «
ambig uation
al ink
rib le
Ġput s
ter ior
Ġm ath
Ġt d
ct rine
ĠW ard
cast ing
Ġpriv ile
Ġdiagram s
ĠDep uty
Oct ober
ĠC F
= }
Ġexcit ing
$\ ,
og a
p ages
w hat
19 06
Ġaccord ance
Ġunus ual
R ot
D an
ĠW oman
trans action
Ġm igration
ĠNav al
* ,
ĠN othing
ev a
Ġf itted
ĠAfghan istan
Ġde ployment
L icense
contin ue
Ġm ac
Î ¹
ĠRel ations
ĠB ed
ĠV irtual
B ER
re le
Ġbe ach
B ucket
Ġaware ness
f actor
ĠM eg
Ġours elves
Ġ elli
C he
ĠP ho
ĠAd vis
Ġaug ment
**************************************************************** ********
ĠF inn
c ill
Ġphenomen on
ĠD ance
Ġj s
r uct
ĠU r
(' ./
ĠWith out
Ġsing ers
ĠCh amber
= %
rem ote
Ġs weet
usal em
ĠO wn
11 4
Ġrepresent atives
ab i
ug u
Ġsc an
Ġinv asion
Lin q
$ ^{
Mon th
or ry
ĠP ap
Ġt unnel
000 1
Ġstead y
AS H
ĠS ac
Ġhom ogeneous
st rip
C LA
ro se
op ter
getElement ById
ĠE ss
s ure
le ans
ou ver
B orn
Ġliter al
alax y
Ġover se
ĠPal ace
get Id
Ġorth ogonal
C ulture
Ġs a
ĠC os
ĠU V
eb r
W allet
Ġso il
t m
Ġemploy ee
Ġun f
2 20
Vis ual
Ver ify
Sports people
Ġdepend ency
f ailed
ut ed
B oth
ĠPortug al
å ®
Ġst retch
Ġrecover ed
w ig
================================ ================================
Ġinform ed
elf are
}$ \
T M
. -
ĠDom in
Ġt uple
Ġfin ishing
Des pite
ĠTh er
type param
Ġin ference
d ale
Ġgu ilty
Ġmark er
Ġrac ial
Ġrad ical
Ġst ake
Ġ Ä
Ġnarr ative
Ġexpect ations
M ass
Ġart ifact
is o
ĠIm perial
p ars
Ġout standing
Ġf est
ab e
ant i
Ġpolynomial s
av ia
Enc oded
b inding
c ost
ĠQue bec
ĠG il
ĠG irls
Ġautom atic
if ference
ĠB uffer
le tt
W H
ĠImm utable
re ts
ĠPer formance
F ixed
Ġresc ue
Ġhigh way
Ġprepar ation
ĠS end
Ġman aging
ab a
i ot
ĠW as
ate way
Ġcl ar
ĠG un
ĠSy ntax
ĠP uerto
Ġmod al
Ġjud ges
} /\
in x
Ġv m
se gment
ĠI C
Ġhor izon
ĠMatthe w
Type Def
ĠPolit ical
ĠRog er
en h
Ġse ar
Ġtro uble
sp acing
in variant
Ġstr ange
ac ef
Ġd s
ĠB log
$\ \
ĠSp irit
ĠMar shall
ĠGr ad
ĠSever al
M art
Ġt ropical
Ex pect
Ġorb ital
;\ ;
=" $
U nd
13 5
Ġph arm
ĠVer ify
ol ished
Ġ' ''
annot ations
ps hire
ĠRef orm
Ġf ol
et o
Con sole
ĠAn na
Ġsl ice
Ġserious ly
Ġschol ars
Ġd ating
Ġcal endar
D ynamic
ĠCro at
Ġdis cre
abl ing
/* !
Ġcheck ing
Ġprint ed
ĠF ried
get Instance
Ġfin ance
Ġelectric ity
Ġh ill
ir ates
Ġinnov ation
Ġcomb ine
æ ĸ
small skip
b oy
Ġw ider
Ġear liest
ĠPro tection
Con verter
Ġinteg ers
å Ī
Ġvis ibility
Ġsy ntax
Av ailable
b ul
Ġrecord ings
ĠSen ator
Ġc up
Ġill ness
inter val
ot ions
ss l
I l
fl ush
ĠJ enn
ĠInf antry
AR G
] ^
Ġs lope
Ġinc orrect
Ġcomp an
ĠTh ailand
var iance
re nt
Ġindu ction
m akers
Ġp sy
ĠM atch
Ġb ul
Ġpopular ity
(' <
Ġpres erved
sc ar
pr iv
CO MM
Ġirre ducible
L android
ĠĠĠĠĠĠĠĠĠĠĠĠĠĠĠĠĠĠĠĠĠĠĠĠĠĠĠĠĠĠĠĠ ĠĠĠĠ
With out
E ducation
Ġperson ality
Ġsupport ers
Rel ated
ĠMult i
á »
Ġent ang
f our
ĠCommunic ations
Ġinter ference
a que
ĠS ex
f ish
W I
Ġelement ary
Per iod
ĠMc G
ecl ipse
w alk
ab ove
Ġd owntown
ĠB O
M aterial
Ġcho osing
Ġthe ater
Ġp ushed
Q ual
.* ;
D ATE
vel ope
Ġlocal ized
> $
uk i
Ġagric ultural
Ġprovid ers
Ġarr anged
ĠK o
Ġt ur
Ġr aid
d ensity
Ind ian
comm ons
ĠÐ º
Ġempir ical
it ure
Ġtw elve
trans port
ĠSt op
ĠSquad ron
ĠK er
N umer
ĠG ray
G G
j amin
ge on
Ġform ul
ĠM I
Å ¾
ĠPubl ishing
Ġdep icted
ĠUs ed
ĠEx pression
Ġm ir
ĠAp pe
M achine
ĠN elson
ï¼ Į
OR K
ĠM achine
Ġreson ance
Ð¾Ð »
ĠD ub
19 04
Ġcomp iler
int ro
Ġs outheast
Ġdisp ersion
Ġ ðŁ
id i
order ed
Ġdeterm ines
U V
Se ptember
c n
Can vas
if old
hip s
ugg ing
ĠC lear
Ġg ram
writ ing
Ġcompet itions
ick en
en z
ort ex
Ġo cean
Ġp ole
ĠBill board
h ill
iff s
Ġke eps
h yper
ĠN ature
Ġm eters
ĠAl tern
ĠF ern
ber ry
Ġas set
sc ore
Ġelect rical
HO UT
qu est
ĠM agn
ater al
Ġinvolv ement
ĠDo es
L at
g iven
eth yl
Ġde let
Ġround s
Ġs oph
ĠG P
Ġmer ely
min ute
Tr igger
Th ree
Ġinfl ation
st ud
Ġresident ial
ĠS N
ops is
ay an
ĠY et
Ġcub ic
Ġhapp ening
)} (\
ĠN i
Ġthem es
ĠP sych
Ġsu icide
m aker
ĠTra il
B lob
ĠSam uel
ĠS S
ĠH ockey
erv oir
Ġd uties
ĠKn ight
ill o
ribut ions
el ian
19 0
ĠCar ter
Ġsympt oms
Ġres ign
ĠSer ial
Ġsurv ive
onom ous
}. }
ĠSing h
ock s
bo ards
H A
irm ingham
ed a
uc lear
66 66
U CT
ĠH ope
Ġst em
ĠCom par
Ġviol ation
Ġcelebr ated
ud son
Ġsim plicity
Ġw av
ĠL iving
int o
Ġne ur
Option al
or us
BA SE
ĠPortug uese
Execut or
Ġdeterm in
Ġacc ret
ĠP eters
Ġ< -
trans parent
ĠK E
Ġsp okes
win ning
BU FFER
Read y
Ġwonder ful
Ġm esh
up arrow
Ġiter ations
Ġc ircles
th rift
Ġtrans verse
ĠM ort
Ġ\ [
Ġspect ro
ĠR y
Ù Ī
Ġmorph ism
ĠG ary
Ġl ibraries
um ing
LA Y
ĠB uff
cl ide
h h
24 0
F i
ĠCor ollary
iem ann
19 01
ĠF ather
Ġdist urb
\\\\ \\\\
ĠBatt alion
H older
Ġgot o
Ġfra ud
Ġrequ iring
ĠL ower
mult line
{ .
Ġn s
Ġanalyt ic
Miss ing
Ġweap on
ĠH ost
Be en
Ġtouch down
Support ed
Ġa ired
Status Code
Ġfarm ers
ĠĠĠĠĠĠĠĠĠĠĠĠĠĠĠĠĠĠĠĠĠĠĠĠĠĠĠĠĠĠĠĠ ĠĠĠĠĠ
F RA
p ic
Ġd ot
Ġins ight
B reak
x html
Ġall ocation
Ġrep air
En able
H istor
ĠF ant
un ning
ĠP S
ĠV egas
Ġcr icket
Nav igation
Cre ated
Ġent reprene
Ġimm igration
Ġpay ing
set ting
m al
Ign ore
Ġinstall ation
( --
Jan uary
Ã ´
ag h
ĠD CHECK
ĠPart ners
ĠF al
Ġs ep
nov ation
Down load
Ġ' _
Ġaff airs
un iform
Ġbelong ing
ĠBalt imore
be at
enc er
Ġ' -
ĠL ane
i ang
Ġch rom
Ġman ual
ĠS ho
Ġpost erior
id o
pl acement
Ġb ases
ĠC L
bound ed
mid rule
Ġinf ection
Line ar
in ery
t ol
ĠRes p
ch arg
Ġres idence
ĠW right
Ġc rown
ĠStew art
V I
ĠG raham
T om
p n
Own er
clus ively
attr s
Ġang les
Ġsurv ived
Ġclose st
Ġexp ed
ĠN AV
Con tain
Ï Ħ
Log in
is y
ĠP resent
ĠNAS A
az ines
Ġprocess or
ĠPolit ics
Ġf abric
ĠBrook lyn
ĠI mp
keep er
ĠE RR
K it
Ġf oo
Ġpar ad
ĠO K
u ity
ĠChar lie
ĠL anc
Ġex pr
st eps
pan ic
14 4
Ġmix ture
Ġre ception
Ġhas n
ĠAnd y
Ġqu as
Ġcast le
ĠBet ween
ĠP rix
Ġs ke
def n
H AL
Ġc um
Ġoccup ation
" ];
Ġrel ating
ĠBang l
down arrow
equ ate
Ġimpress ive
Ġtransform ations
ast ro
p al
Ġint ellectual
De cember
u ates
Ġv it
Ge V
ĠB uck
Ġreal istic
Ġeng age
Ġfund ed
=\ {
j or
Ġarch ae
ox y
Ġmod ification
Ġleg it
ĠMarg aret
ĠEd inburgh
Ġdispl ays
Ġestim ator
Output Stream
hat tan
ĠDat abase
LE MENT
Ġh ip
Ġsp oken
Array List
pro pto
Scal ar
} ",
p id
ĠC emetery
bold math
ĠOr leans
Ġmolec ules
ĠJon athan
ĠN ull
EE E
O FF
Ġver b
l ive
Ġtax es
Ġinher ited
Ġtarget ed
im p
b n
Ġdis ag
ab et
ĠWeb site
Ġmarg inal
Â ©
Ġde als
(" #
) *
Ġt ort
Ġim aging
Ġliber al
Ġas semb
Ġprov isions
Dis k
ĠL icensed
Ġexpand ing
Ġmathemat ical
ĠFrank lin
ious ly
TER N
Ġev ident
ĠC ensus
Ġfrequ ent
ĠF ight
sl ide
iv an
ĠP L
Ġpl enty
spect or
Ġbi ological
ĠMor ris
Ġr anging
str ument
A ctions
F eed
Ġcorrespond ence
em ed
Rober t
S ever
Ġs ick
ĠPr act
um ped
Ġcomp ression
A ir
tr ain
ard ed
iz ard
ĠK ir
met ic
cast le
Ð° ÑĤ
Ġansw ers
ĠL evel
Ġb ird
19 03
Ġ' ./
Ġm oth
Tele vision
Ġgrow s
ĠMod ule
urric ane
ĠSt ars
p ending
Ġviol ent
å ħ
ĠRun time
ĠStud io
Ġo xygen
Ġcomp iled
B usiness
ĠC E
Ġconsist ency
anc ouver
Ġdeterm ining
ĠInt eg
s hell
C annot
Ġsk ill
File Name
om atic
op les
et c
Ġdem ands
un ks
pl ain
Ġathlet es
Ġto x
ĠC ancer
: @"
dis ambiguation
ĠBrazil ian
V P
Ġsevent h
Ġpass age
label s
Ġw orship
Ġsurv ival
j ack
Ġsynt hetic
Ġc oc
Ġcoff ee
Ġpl astic
S en
p us
e u
lot te
Ġt sd
Ġch ampions
ĠFin land
,... ,
17 0
ĠR oom
Ġencour aged
Ġthere by
app ings
l int
ĠL ot
ai ro
su it
ĠAnn ual
ĠF ish
Ã ª
ĠT alk
Ġsusp ended
ĠBo ys
Ġcl im
Ġimag ine
ĠB ou
ĠOrth odox
clide an
dis k
Å Ł
Ge ometry
ĠJer usalem
ĠBro thers
ĠCamp bell
ĠPit tsburgh
Ġt ie
Ġob lig
ev ens
ĠMuslim s
var rho
ĠL iverpool
Ġart istic
um ar
Ġspl itting
Ġwh ilst
Ġbe er
ĠT arget
R oman
Ġb ag
ident ity
Pre v
Ġfocus ing
Î ½
ens ively
. :
ĠT ry
Ġhelp ful
Ġch ains
ĠH old
sub equations
resp ons
Ġbur st
ush ing
Ġm irror
Ġh ack
Ġdeterm ination
Ġs urre
c ity
Ġproject ed
Ġob server
ĠD anish
Ġcent ered
M a
Ġretri eve
Ġ( ),
ĠSy mbol
z es
display Name
grad uate
Ġl icensed
qu ality
Ġdialog ue
im edia
Ġguid ance
Ġrot ate
B T
ĠLem mon
12 2
ĠG ill
ph rase
Ġjournal ists
Ġbre ath
ĠC ell
Ġstream ing
as ant
âĢ ī
fe atures
ĠU til
Ġcy cles
NO DE
b rew
Ġmar ine
p d
ĠBroad way
Ġ\ {\
build ing
Ġsort ed
Ġbl ind
c assandra
18 80
Mod ified
local host
ĠL abel
Ġas ks
var s
id en
um ed
Nov ember
Ġatt ributed
Ġ uri
Ġb om
ĠMur ray
CRE ATE
ĠFin ance
A rm
m illion
Ġsub space
ok er
Ġland ing
Ġperm itted
Ġdefault s
Ġapprox im
Ġ" [
TR AN
Ġlog ical
ĠP ad
Run ning
ĠM icro
Ġstay ed
Ġneg lig
ect ure
&= &\
S am
ĠV ik
Ġbus y
h ai
ĠMot or
Ġgu ests
Ġf ishing
Int eg
ĠD id
f are
Ġn urs
Ġknow ing
Ġre tained
( ['
Y S
Ġhel per
d jango
Ġappoint ment
ĠWel sh
Ġb il
ĠM IT
ĠGr id
Ġtri angle
res pect
Ġdam aged
v y
opt im
Ġsub str
ĠC PU
ĠStan ley
Ġsurround ed
_{ +
text sf
Look up
ĠK ath
ĠInd ustry
ĠPat ri
ĠElect ric
T oday
h ou
op ens
The me
Trans ition
ĠMont real
W arn
ij ing
Ġpl ots
Ġspe aker
Ġrat ios
Ġanaly zed
to oltip
ĠT ar
Ġbl ank
& &\
c op
ist ically
sc riber
mat ches
Ġtext s
p aces
ic it
ĠC arn
ĠW ik
Ġtr uck
19 02
Ġbox es
oth y
ĠSh ar
IN VALID
Ġp ulse
ĠMic hel
g un
an ne
Ġrender ed
}{ }
ĠCom ponent
T ensor
ĠArk ansas
ĠMethod s
list ed
tim estamp
ĉĉĉĉ ĉĉĉĉĉĉ
Ġcon scious
Ġsac r
Ġhop es
J ack
Ġd war
ĠR elease
log ging
p read
ev ing
Ġgener ators
Ġthreat ened
Ġd y
T ri
Ġemer ged
per ature
Ġg olf
u its
Ġvolt age
cond itions
ĠSt age
ĠY ang
Ġch amber
pe ction
bin om
ĠJ u
list ener
ĠP si
ĠCom ment
ĠF ro
ĠH ave
ĠB aker
A SS
\ [\
ĠMet ro
Ġobtain ing
ĠP un
H AND
Ġal gebras
Pro position
Ġs alt
Det ail
se cret
part icle
Ġent hus
Ġcor relations
ch unk
comm unic
L and
ĠD J
AA AA
ach i
ĠM ess
Ġalloc ated
Ġval ley
Ġinhabit ants
M ilitary
ĠL I
Ġco operation
Ø ¯
OL D
ĠT IM
ig g
ang les
D ITION
H ol
Ġfun ctor
Ġf ro
Ġla ugh
Ġr um
ĠCO VID
= &
ane an
ĠÐ ´
Hash Map
Ġident ifying
Ġinterview s
L iteral
ke ley
ĠEv ents
Ġt ens
apt ers
C ross
Ġamong st
PRO P
s an
Ġcut ting
Ġref lected
b es
ard ing
ĠB ody
Ġc able
ĠSing le
M ean
ĠDel hi
te am
head ing
Ġdeploy ed
L ead
ĠS eg
Ġperfect ly
Ġto w
in ates
Feb ruary
ann es
Ġpark ing
Ġproport ion
Ġgo og
Vis itor
sp aces
det erm
ĠA qu
Ġsub scription
run ning
ĠCr ime
dest ination
Ġs urname
Ġany where
Ġcompet ing
ĠW IDTH
Ġ( ,
Ġemer ging
Ġto m
ĠJ S
Loc ale
Ġf irms
g ray
ĠThe ater
> [
ä º
ĠComm ander
Ġm s
Ġrom antic
ib ling
od o
ĠF L
Te am
Ġdistingu ished
ĠSh ah
ĠP ast
å Ĳ
Ġwat ched
BP ACK
red ited
ĠB reak
P an
T AG
ig o
sh arp
Ġhealth care
G IN
gener ator
BO OL
link s
Ġbre ast
Pr imary
ĠH ero
Ġfe es
ĠZ one
Ġlaw yers
Ġaver aged
Ġperm it
met ric
ograph er
prov ed
Ġw et
Ġn eck
ĠR ick
ĠSt orm
Ġar ise
esc ope
ĠUn iverse
ĠO d
Ġim posed
trans l
Ġhol iday
P riority
\ }.
ĠK on
Ġan notation
Ġarray s
Ġb le
Ġdecl aration
}}\ ,
qu et
ĠArg ument
Ġhe x
Met ric
Ġin vert
ĠC er
Error Code
Ġstation ary
Ġl oyal
g if
Ġarrang ement
Ġn ested
ĠC atal
ĠDr ive
Ġprison ers
ĠR and
: -
Ġw rapper
Ġf inger
Ġneighb ors
Ġun likely
Ġintrodu cing
ancell ationToken
Ġdecre asing
in itions
ec ycle
cd n
at able
Ġb ucket
ĠEqu ation
) _{\
ho le
Ġra ising
Not able
Ġw arr
12 4
Ġcoun sel
Ġt act
Further more
Ġphot ons
Ġexcept ions
Ġpubl isher
ul u
11 3
TH ER
ĠSp acew
Ġdeep ly
Ġcolon ial
Ġcaref ully
process ing
ĠM s
own ed
ĠT ob
Valid ate
Ġsh orter
Ġnot ably
ĠIm ages
Ġ\ }
ĠC rown
ĠWIT HOUT
ĠAss istant
ĠM i
A ff
sh are
Ġhead ing
ĠMar ie
get Class
V ill
d ating
Ġc urrency
Ġstream s
ME M
op acity
Ġul tr
Ġre actions
Ġoverl ap
sh aped
t own
Ġfunction ality
G l
Ġrank s
z oom
Ch art
n l
v ect
ath ers
Block ly
ĠA V
ĠM aj
ĠDak ota
Ġsu ite
Ġw edding
Ġf older
h op
ĠP aper
ĠMet ropolitan
ĠL GBT
_{ [
ĠL E
w ind
c ord
m aml
sw arm
ĠMA X
Ġinnov ative
Ġreg ulation
Ġm ic
}) ^{
Ġcook ies
ĠCar ib
with out
Ġp ump
ul o
27 0
Ġp ub
h arm
C ertificate
Ġel der
th an
Ġrout ine
book s
Ġhydro gen
Ġte ch
Ġant ib
fr ag
Ġprofession als
et r
×ķ ×
P DF
ion ed
dec ode
Ġeffect iveness
ĠU RI
c v
Us ed
ĠL ess
Ġh ierarchy
Ġre ven
Ġimpr ison
Ġcontrovers ial
J o
ĠBuild er
on ed
Ġco oper
Ġflo ating
ath on
ĠRepublic ans
Up dated
uff ix
re ck
ĠR ot
}} ,\
Ġlength s
. ',
ĠU pon
ne e
Ġvir us
\ },
ache l
Ġleg s
sur face
Ġlisten ers
ĠFe ature
ĠSpacew atch
cons istent
D irection
Ġgen es
) }$.
Ġf usion
Ġcl imb
S ide
pi res
ĠM obile
T IM
Ġover view
Ġdev oted
Ġinter vention
Ġferm ion
Ġqu ote
IN DEX
un ed
Ġgrad ually
3 20
ä ½
Ġt issue
ĠPr ice
Sc ott
ĠS cal
for ced
j k
ĠEp isode
ac les
ĠEnvironment al
Ġs ends
Ġb at
Ġ( +
Ġpack ages
. ),
Ġing red
ren ew
or ate
ĠI an
ĠJ azz
Ġbr ands
Ġdo ors
Ġsp ark
ĠUp per
Ġout line
Ġsup plies
contain ers
So ft
qu er
Ġdef ence
ĠUkr ainian
u et
g ow
fr ames
ch t
D a
Ġaggreg ate
ampl ing
scal a
ĠIm port
it err
ĠMay be
ins ula
Ġtrans c
B ur
ĠCom ics
ĠPr incess
Ġcomb ining
ĠW ang
Ġ' #
ĠEv ans
re pository
ĠW ind
LO AD
add ed
IL L
O k
ĠS ize
Big g
b ai
[ ]{
f ar
DE D
out ube
V O
Ġsh apes
Off icial
s ame
ĠF erm
Ġw ond
A ST
Ġex ha
c z
ĠM other
ĠR ain
ĠEx per
or se
S al
Ġb ot
inn ed
un ion
Al gorithm
Pack et
Aut hentication
Ġabund ance
F ootball
ĠVis ual
get Type
Ġpeak s
r pc
ĠBrig ade
im ir
en o
ĠMov ement
cont act
ĠE dd
Ġg allery
Ġemb r
Ġvis its
m r
ĠK l
Ac adem
^+ $
em ale
ĠMit chell
Ġmer ger
ĠF reedom
ĠStud ents
refer red
ĠS r
ĠT ower
text ure
ides pread
Ġadm its
pro c
c urrency
Ġadvent ure
ĠT ol
$- $
Ġnot ification
}[ !
Ġph rase
Dep recated
UR N
Ġremark able
is cal
Ñ ħ
Ġste am
ĠL INE
Ġst ops
ĠT ig
ĠStud ent
unk nown
Al pha
ĠT an
ãĢ Ĥ
ĠBar ry
ĠPl ant
ĠSaf ety
on z
F ake
ĠEx p
ĠLog ger
ĠPro file
Ġart ificial
Ġrec re
Ġshe l
Ġb oss
oc ent
ĠUn less
Ġ ig
Ġrare ly
PRO JECT
deg ree
2 10
Ġmid field
ĠR io
ĠJ son
P ixel
Ġbas ically
Ġav ailability
S uch
ĠGu y
or b
In struction
Ġins pect
I r
ĠAl aska
og ue
ĠPark er
Ġcom ed
pre pare
Ġnot iced
ch at
ĠJim my
Ġp and
Ġnot ing
ĠH end
Am ount
ill iant
Ġpar a
Ch anges
}{* }{
Ġdecl ined
Ġpay ments
Ġincre ment
Ġactiv ist
dr ag
u art
Ġens ures
File Path
Ġres ort
ID S
tr aining
erv ised
ĠPort land
Ġ$ ^{
ĠF ly
uff icient
Ġpropag ation
Ġlong est
Ġwrap ped
sl ider
-------- --
final s
RE T
f act
ĠIn valid
Ġplace holder
w i
ĠR ub
ĠL com
Lower Case
ĠWar ren
Ch o
ĠLie utenant
ĠMem ory
ĠD ie
Ġ// !
ym an
ĠM aine
Ġcontract s
leq slant
isec onds
ĠS pect
Ġdep uty
AP P
4 50
Ġap artment
Def ined
Orig inal
d ere
ov o
Ġgener ations
Ġcons ent
Ġdevelop ments
A MP
ĠIran ian
tim er
Ġcoupl es
Ġres igned
w hel
%%%% %%%%
S i
C irc
ĠKe ep
Ġp ip
Ġcolle agues
ol ia
Ġlik ed
it ime
Ġar row
ĠM aterial
ĠBr and
ass oci
Ġun ity
Ġcomp ound
ĠOr ange
j d
ĠPh D
e lection
t uple
ant ly
2 30
to Equal
Ġt one
Ġref resh
Ġt iny
ish ops
Ġpaint ed
ĠOper ations
ĠChall enge
N eed
AR RAY
Ġsudden ly
}^{ +
ĠPr imary
pr agma
Ġs le
ĠFreder ick
Ġcon e
U psilon
ĠJ ess
k n
ĠP red
ĠAr n
Ġrespond ed
S el
Work er
SOUR CE
Ġspec ification
ĠÃ ł
nav igation
Ġth orough
second ary
ĠDev ice
Ġrail road
B ACK
Ġh orses
ĠBl ues
Europe an
ĠW ol
Ġchar ity
omorph isms
WE BPACK
T or
Im mutable
Ġkin etic
ĠCom puter
Ġext ending
orn er
B u
Z Z
ol en
Ġan cest
Ġvess el
A fr
t v
ĠB irmingham
Ġsuggest ing
Ġf er
Ġb io
ĠH E
Ġp ose
SP AN
SH A
Ġarch ive
b ecause
ĠCons ervative
Ġ ~\
at om
ĠA rena
epend ence
r and
ig s
Ġmount ains
Ġsil ent
Ġshift ed
Ġcon gress
Ġgeneral ization
c mp
ĠB lood
Ġg ray
d m
à ®
ativ istic
b ie
Ġfl av
Ġcond ens
Ġminor ity
Ali as
ĠM all
phys ical
Pers istent
dist ribution
Ġpo em
val ued
apt ist
Ġt ends
Ġm apped
ĠB illy
sp i
ink s
Ph ase
Ġdemocr acy
S napshot
ed ed
ĠH ind
ĠV iol
ĠÐ ¾
Ġshop ping
ĠD ays
ĠS elf
Ġex clusively
r atio
ĠL ag
Ġexpl ored
Ġan ten
Ġind igenous
Ġbar rier
Ġaut hentication
our t
Work s
_{ -\
Ġenc oder
ĠMan hattan
ĠHam pshire
( []
Pro fess
Ġcompos ite
d ing
Rad io
Ġt ill
ine a
Ġprim itive
pro blem
Ġloc omot
ME SS
Ġcelebr ate
L ow
Ġtrend s
Ġob st
redu ce
b ucket
ĠF el
ĠArch ives
\ -
Ġdiv isions
I ss
grad ed
M W
Ġst roke
oc om
gle w
C SS
cc c
ict ions
du al
Ġevery where
get Attribute
Ġf unny
Ġprov es
en vironment
}) =\
Ġconsist ently
Ġmaintain ing
d elegate
Ġinflu ential
cor respond
Ġw ake
Ġpos it
Ġeng agement
ĠN ad
SS ION
ĠComm ons
Ġc ogn
ue z
establ ished
\ }_{
ĠTh ings
Ġt ar
ĠF ALSE
Ã «
ĠEn c
Ġinsp iration
Pres ident
ĠB ound
Ġmut ual
Ġorgan isations
ĠW olf
N eg
Data Type
ĠK arl
Ġcomb inations
ot er
Ġt ou
N ONE
ĠM ind
ĠNAV BAR
C ountry
the y
ĠS SL
K ernel
Ġspec ifies
ĠG ra
18 98
__ ,
l r
h is
Key word
ĠIt em
ĠK IND
Ġaut orest
C UR
big cup
Ġas ide
ĠT ABLE
ĠC ass
ord inary
R ound
Ġpro position
Ġpra ised
Oper ations
cl ock
Ge orge
) '
ter ed
I ES
Ġt ension
Ġdis contin
Ġin coming
Ġcl ause
C ut
Form atter
c ov
con current
Ġfru str
ST M
Ġvari ants
b ach
Ġ} ).
ĠColl ins
< >();
s amples
Comp are
ĠJ e
ham mad
00 2
ro oms
Ġany way
\| ^
ĠB AS
Ġphot ography
Ġattempt ing
ĠWay ne
ĠClass ic
ĠĠĠĠĠĠĠĠĠĠĠĠĠĠĠĠĠĠĠĠĠĠĠĠĠĠĠĠĠĠĠĠ ĠĠĠĠĠĠ
b undle
Ġreported ly
D MA
Ġd ated
Ġco ins
wild fly
Track er
get Message
ĠBar bara
ut down
ĠL anka
Ġcr ack
Al bum
ĠP ref
Ġup grade
Rec all
ĠI ce
ĠId ent
ĠCh air
p iece
EV ENT
iv ities
ĠFor um
Ġem issions
ĠS ide
IP S
mark s
R F
ĠK u
rout er
T ry
Ġcriter ion
G old
ĠU rban
append Child
ok a
ĠW ait
e enth
E lect
qu is
ĠMP s
Ġpat ent
ond a
Ġactiv ists
d iction
Ġcar rier
Ġt y
Ġsustain able
Ġrestaur ants
ver ify
Ġab road
ĠAl fred
or ro
Ġcap ability
new line
fil ters
Ġcred its
Ġb orders
Ġprote ins
Ġdram atic
99 99
Ġillustr ate
Ġposs ession
ĠPro perties
Ġperson ally
R ussian
Ġimm igrants
Ġthreat s
ind ependent
ĠR ugby
Ġsuff er
cite alt
Ġexist ed
M AN
ĠF i
G RO
ĠF un
Ġcoll isions
Ġannounce ment
K L
ĠHun ter
Ġuser name
ĠD ebug
c odec
k ar
| _
ĠMar vel
esc ape
ĠR andom
re ach
Ġ ere
ĠLegisl ative
D one
ĠHung ary
ĠCar lo
ÃŃ n
vious ly
ĠM yst
iterr anean
S afe
ĠP oll
ĠCh ron
(" \
Ġbeg un
set Attribute
ele g
H ello
c ached
Ġind irect
Ġred irect
iss a
F B
Î µ
Ex it
Ġpet ition
ri ors
Ġclust ering
C ost
ĠE C
M ut
Ġcool ing
i ology
/ ">
Ġinitial ized
ĠMad rid
Ġserv ers
w right
Ġlook up
Ġ æ
Ġs ail
o ys
over flow
Ġam pl
not ify
Ġall Classes
18 70
Ġcancell ed
ĠSc ript
Ġr c
ĠBern ard
Ġlog arith
Ref lection
Ġpart ly
Ġconver ges
ĠC ultural
Ġt ies
ĠThe ory
Ð¾Ð ´
f uture
ĠDef ine
b olic
ĠArab ia
Ġac oustic
Ġfor cing
r ac
Ġpurs ue
Ġactress es
MM ARY
ret val
Ġim plications
Ġg all
ĠR ace
ĠNever theless
Ġelig ible
om eter
Ġencounter ed
ĠSh ip
Ġg enu
Ġconstant ly
Ġintr insic
100 00
12 1
}} )$
Ġdog s
glyph icon
id ad
ĠAd m
IC ATION
le in
ĠDate Time
ĠCl ar
Ġguarant eed
Ġc ous
ĠC T
Ġturb ul
Ġover come
ĠCh ampion
Str ucture
Ġw idespread
Bl ue
pl er
AT URE
Ġcoast al
ught ers
Ġattr s
Ġcontrad iction
o il
ith uan
Ġven ue
is i
Ġd ynasty
c as
S chool
Ex tra
id ity
Sh ader
mut ex
\, {\
Ġsports people
N orm
Ġcosm ological
en ium
au er
N EL
res olution
ival ent
W ARN
Ġex cluded
Ġrel oc
ĠH IV
Ġdelay ed
dr iven
] ).
aw t
ĠallClasses Link
re nd
ĠP rior
Ġmoder ate
ĠF ast
Ġind ustries
ĠCommun ist
? )
Set up
og ical
me asure
ĠLeb an
oc aml
ĠP ictures
Ġdrink ing
Ġdec ays
je ctions
ĠTr avel
ĠRail road
ĠPol y
n ecess
ge ometry
ĠSt ein
B bb
Con v
Ġmiss ions
re po
Ġfeel ings
ĠM ix
Ġl ad
ad apter
An n
Ġg host
A X
Ġvess els
ĠR ud
Ġorgan ic
ro d
met rics
Ġc c
Japan ese
ar ound
av ers
over e
TH E
Dist ribution
F it
ĠG ot
Ġâ ĨĴ
ĠBangl adesh
ograph ics
est ing
Ġrecip ient
ĠA WS
W D
eg e
L ines
up dated
St age
path s
ant ics
h w
V ec
ĠVi enna
Mon itor
Ġanalyt ical
ĠB rew
P ub
oid al
ĠGl as
ĠF ine
ĠZ e
Comple tion
Ġoccasion ally
F ire
ĠT ib
Ġgr ab
18 99
ST ART
sol id
Ġcor ruption
Up per
inem at
umb n
Sche dule
Serv let
ĠV ancouver
Ġadd r
run ner
P ane
m ers
iv o
Ġestabl ishing
}) _{
] ),
ult an
Ġspher ical
if le
Ġ' ,
Ġpure ly
ĠM ack
Ġ& $
5 000
ĠCh o
Â ®
P rom
ĠP il
ĠTam il
Ġaccret ion
Ġw ounded
Ġshould n
Ġwalk ed
Ġre semb
ĠInt elligence
ar ance
Ġdeep er
sp ark
z ym
ipher al
on line
L aw
Ġmem orial
W alk
ĠÃ ī
Ġâ Ĥ¬
ext ends
pos itions
ĠB egin
ĠCh art
}) (
ĠInd ians
Ġagre ements
Ġprom ising
Ġsurv iv
Ġt ickets
2 13
Sup press
chi at
Ġliter ally
ĠHawai i
Ġdifficult ies
) }$,
is an
op edia
ĠNaz i
F actor
m und
ou b
em ies
Match er
m ade
ĠSte el
Ġhabit at
row th
ĠC arm
ĠA ld
ĠK an
ĠL ad
Ġp or
Ġreview ed
quir y
n ia
v dots
aut ore
ĠF ab
ĠChristian ity
Ġl os
P ush
Ġsound track
dom inant
Ġdoct ors
Mod els
Ġphotograph s
IN IT
refer ences
m ust
ĠH im
ĠParam eters
ile vel
ĠMin or
f requency
ĠAust rian
tr action
ĠM B
ĠM ak
f am
_ [
be ans
d ashed
S il
und les
Ġcar ries
f lix
ig gers
Ġinv oked
Ġacceler ation
UB LIC
ĠCommission er
Ġsurpr ised
g p
parent Node
ĠA B
s yn
Ġnewsp apers
ĠU g
Ġg rey
ĠN ord
Ġhand les
Ġgather ed
ĠObserv able
F etch
Ġwith d
ĠSm art
ĠA udio
Ġclaim ing
Ġaffect s
Ġl ights
ĠH indu
Ġprob abilities
Ġcloud s
Ġven ues
ĠCred it
Ġmonth ly
bor ne
default s
' ].
tr ight
Ġking dom
trans late
Sec onds
est ure
ou p
Ġcount ies
Ġb ull
andid ate
cor rect
Ġin vention
Ġflow ers
ĠH ilbert
Ch unk
Ġex ponent
ĠĠĠĠĠĠĠĠ ĠĠĊ
zer bai
Ï ģ
ĠSt even
comp act
ĠT ak
ĠLin ux
Link ed
Ġpro secut
om on
Ġch iral
St ation
ĠMount ains
att ach
Ġnormal ization
ĠC ache
Ġkey board
ĠLead er
I ME
script ions
Ġmem or
Ġb es
p k
Ġdis aster
log o
Ġtim er
Ġst ick
Ġqu ad
Ġint ense
Ġmeas uring
ac re
Ġdepart ure
gr pc
S n
add le
ey er
ĠBr anch
{ })
if iable
ĠD raw
Ġdes ert
( ()
ĠJohn ny
Ġcas ual
Ġor bits
17 5
cp u
ĠBen jamin
V R
Re pe
ĠB enn
get String
s ocial
Class Name
Res earch
Ġinter rupt
Ġcontrovers y
LA B
Ġthir ty
ĠUn like
ĠCarib bean
L o
Ġcontribut ing
Ġs ectors
Ġcaref ul
ĠMark ov
Ġass ass
ĠS outheast
Ġsc oped
Ġrecommend ations
to LowerCase
ing e
Ġd rew
Ġtim ing
Ġc aps
P ipeline
ĠC raig
Ġprotest s
Ġspe akers
Ġnom ination
Ġbirth day
Ġreg istry
ĠDef ence
ĠH unt
Test ing
Ġ# {
ĠWeek ly
ĠCl ose
L ater
Ġloc ale
Ġcons iders
olog ically
F D
ĠW H
Ġcon clusions
ĠSpe ed
Ġinstrument al
p romise
Ġlik es
Ġ/** <
ĉĉĉĉ Ċ
dis patch
Ġmount ed
18 95
j b
Ġaccomp any
Ñ Ĩ
cel ona
Ġattract ed
ref resh
y t
et on
ĠC BS
ĠU E
ĠElement ary
Ġsuccess or
gener ic
Ġv ital
ĠPubl ished
le f
iv ic
Ġcoupl ings
ĠCom b
Ġanalog ous
med ium
ĠMon th
ĠP erm
Bit map
Ġreflect s
t ake
Ġis omorphic
Tem p
ap ps
Ġme at
Ġprom oting
C odec
ump y
ĠV I
Ġvar ies
Pi pe
IMP ORTED
ĠMean while
Ġ ../../
Ġdo i
×Ļ ×
D istance
Ġanalys es
R UN
. ]
Ġcomp ile
lock ed
MA GE
A Y
an Ã§
' },
ĠO cc
ur ring
over y
in ions
reg istry
Ġm os
Sche me
ĠDr agon
ab olic
Ġt ub
P N
ik es
Ġcompens ation
sec ution
> `
has OwnProperty
dere q
Ġthread s
ĠBe ijing
Ä «
Ġcon fer
M obile
Ġ! !
Ġaltern ate
Ġeigen value
MP L
ob a
Ex ecute
pay load
ĠN am
B us
Ġphys ically
Ġfl avor
Ġdevelop er
S K
ĠKE Y
Ġco q
ĠCon struct
osp el
b ug
d v
ĠT otal
Ġda ughters
n od
inc orpor
Ġamplit udes
Ð¾ ÑĢ
ĠWith in
ic ht
N Y
Pro duction
re view
Ġl ux
Ġlo ops
ĠR iemann
ĠD oc
ix on
task s
ĠK i
Ġsl a
Ġh urt
M utable
18 96
ch rome
ĠOl iver
Ġc rypt
t bl
12 6
* >(
Sc ore
Ġconv icted
Ġcov ariance
40 4
R M
An im
Ġlabor atory
ĠT s
ot hes
d ied
18 97
Dis c
Ġscreen ing
ĠT i
Ġg ross
r ides
b ib
om p
uch y
Event Args
Ġadv is
En code
rg b
ig ion
Ġrepeated ly
SU C
ĠF err
Ġsh ifts
Ġconstr ained
ĠProfess ional
ĠCamp aign
Ġ( %
he x
Ġcond em
Ġdiscrim ination
Ã© n
sw ing
l m
Ġexam ined
Ġsomew here
ac co
eff icient
ĠL uther
not in
Ġcampaign s
Ġal igned
H ook
S ets
G raphics
ĠUnivers al
ĠĠĠĠ ĠĊ
Ġg ent
ĠW a
Ġis instance
Ġelim inated
Ġy esterday
Ġatt ach
ĠS now
Ġaff ine
ĠCon nection
Ġagric ulture
look up
ĠGi ants
Ġ Ø§
Ġatt ending
indu ced
us c
Ġcol leges
Ġview ers
Ġb ishop
ĠW i
Ġl ic
Ġrend ering
****** /
Ġem it
AN G
FA IL
Ġsnap shot
Ġcount ing
Ġc rop
ĠHung arian
S at
Cl ub
Ġlat ent
ĠJ en
s qu
ĠTh ank
ĠT oy
Ġsequ el
Ġunit ary
us ive
, (
N ER
t ile
Ġm oon
Ġpl otted
Ġconven ience
is Array
Mult iple
Ġ) {
uk a
ep h
ĠIllegal ArgumentException
uss ia
ĠD IS
ĠT oken
ad oc
Ġf oss
Re ceived
& $
e or
ĠH orn
It alian
om es
Ġl ip
ĠSt re
ĠR ank
An notations
ĠCon n
| &
Ġsampl ed
Ġr ivers
Ke ep
sc an
Ġste ep
Ġ{ %
f older
Ġcam eras
Ad v
Ġj unction
] ['
Ġhigh lights
Ġrefer ring
ĠCarl os
Ġsearch ing
ĠNorm an
ĠC old
Ġplan ets
link ed
Sm all
ĠM oz
en ario
Ġt ube
hol m
@ {}
Ġsl ave
FORM AT
Ġad mit
[ [
ĠR ico
The lia
Ġb orrow
Ġl ying
T ur
ĠS ay
J ew
ĠValid ate
se en
Ġst y
UT C
Ġl in
sub string
Ġparticip ating
Ġthink s
ĠV a
ĠS ave
ĠF am
Dec oder
IN LINE
ĠD I
Pro du
Ġcons ensus
ites pace
ĠSU MMARY
G D
Ġb rew
process or
Ġtr ump
Ġcryst al
ot ton
ĠPho enix
allow ed
ĠNot ice
Ġattract ive
ĠChar lotte
ĠPhys ics
Ġmedi eval
ĠMag ic
ĠDir ac
18 60
Ġ( #
Ġsole ly
P ad
Ġdep ression
Ġann ually
ex isting
neut ral
ĠSpec ifically
Ġ& #
M AC
ap ple
Ġinc idents
Ġrem ind
ĠG round
Ġtraject ories
Ġconform al
Ġ" >
Ġun stable
Ġrest oration
Sh are
tright arrow
Mer ge
ri el
H H
ĠS ession
ter rit
Ġearth qu
. ")
vis it
ier ra
ĠV erm
ur u
Ġr ab
be ing
Ph aser
C lean
ĠA x
Ġge odes
Ġlimit ing
a ac
Re ception
Control s
G T
igh bor
Ġforest s
ow ell
Ġlog o
V A
Un ivers
desc ribe
Ġo ct
h n
OR S
T imes
ĠO il
amp ed
lin ux
Ġcl othing
sche me
am ount
ĠS F
S rc
Ġph on
ĠRoman ia
ĠĠĠĠĠĠĠĠĠĠĠĠĠĠĠĠ ĠĠĠĠĊ
R etry
U ntil
Ġcompr ises
ĠM ans
Ġtrans it
Ã© r
el o
Ġlock ed
Ġev olved
ab ul
Z oom
row se
th a
U Int
ĠAnd re
ĠDev elop
ĠE li
in fl
Ġsub sets
Ġdis joint
g z
s per
S eq
ĠPalest inian
enn ial
Ġsup plement
Ġn it
g on
Ġlog in
A cknowled
ar us
ĠAg reement
F our
x it
Ġg ard
att en
Un iform
ĠVAL IGN
Un ique
ĠL java
ĠL uke
) |\
part ition
ann ah
Ġc inema
Ġwebs ites
Ġc ategor
FUN CTION
WA RE
ĠTest s
} ~\
Ġsh ots
ĠEgypt ian
ĠDen ver
Ġcritic ized
Ġadmin ister
b x
ad ic
ĠTR UE
ari ate
Ø ª
Ġv ic
Ġinsert ed
S ig
t ot
og s
Su ite
i q
Ġst ere
he alth
File System
ĠP ic
Ġsl ide
B s
Ġover whel
ĠFl ore
ĠF BI
K ing
ast ery
Ġunder ground
ĠHarr ison
Ġport s
ĠN um
ĠT YPE
an ian
d or
ĠB ond
tr ained
ĠFil ter
ĠM atrix
ous ing
C at
ĠH RESULT
ĠF alls
Att empt
view port
tes y
ĠR av
C amp
} &\
Ġm ilk
eg u
M ust
renew command
F ill
Path s
Ġvar ied
ential ly
| _{\
Ġtrigger ed
Ġ. =
uff le
' $.
ĠÐ¿ ÑĢ
Ġi i
="../../../../../../ ../
Ġindic ator
ĠNev ada
ov ich
f iction
ĠDet erm
` )
f loor
ĠH O
ĠClass es
B H
f un
ĠU SS
Ù ĩ
et ics
cel and
Ġmain stream
Ġj u
P eter
Ġp our
ĠO ptions
S ocial
' +
ĠQ CD
ĠB ud
"> (
Ġbelief s
13 6
Ġvulner able
å ¤
ĠM ach
pi pe
Ġpred ecess
Dis abled
pe g
Ġscient ist
Ġpoint ing
Ġsub mar
Ġanal yst
trans fer
Ġflex ible
Pop up
ĠJos Ã©
ect ive
Object Meta
18 00
Ġlab our
m obile
includ es
Ġcomput ers
U int
i per
in vert
ĠC hel
L T
Ġcoal ition
ĠM ut
ass y
ĠR aw
ick ed
7 50
dat etime
lim ited
ĠJ oy
ĠB asketball
Ġcoher ent
r h
man agement
ĠCon sole
ĠPl us
ĠSal v
Rec ip
amazon aws
ĠPl anning
ĠAss ume
ĠFri ends
L uc
Ġal ph
Ġ-- ></
he art
Ġcor related
ordin ates
Ġver ified
Ġr ub
Comm it
Ġd inner
Ġdis pute
Ġfail ing
ĠSt yle
ĠPr ivacy
Ġjud gment
Ġb ary
te chn
1 19
desc riptor
REQ UEST
Ġcross ed
Ġaw s
ĠSu ccess
T y
ro v
Ã ½
ta x
": "
Ap J
ĠBer keley
Ġcook ie
m icrosoft
ĠSt orage
Re place
ĠK irk
Ġmyst ery
o j
remove Class
h uman
Ġarrang ements
G F
ĠR ing
Ġswim ming
Ġ ell
Ġt ile
ĠDer by
Ġanom al
ĠA y
Ġsent ences
Found ation
Ġinflu ences
Ġa ria
ĠL yn
ak u
Ġiniti ated
ish ments
ĠEq s
ĠM ong
am ination
ĠN at
AR GET
Ex pat
Ġgu idelines
;" |
Ġch ronic
Ġdocument ed
ĠG reater
Ġnorth west
S N
ob e
Ġqu oted
ĠF O
d z
) !
ĠW arner
Ġfore cast
C art
L ear
ĠF riend
sd k
ĠCo al
Ġperturb ations
ĠC row
Ġemph asis
ĠT yp
ĠIn n
18 92
Ġdiss ip
st roke
In jection
Ġdist inction
Ġgr ants
al tern
ĠE T
Polit ical
Ġo mitted
ĠCon struction
ynchron ous
} <
ĠB ag
EN CE
Ù Ĭ
, âĢĻ
= -\
IE W
u cc
script s
P ref
Ġcl s
B etween
ĠS yn
erial ize
Ġt ape
yst al
By Name
Ġg lyph
ĠS even
Ġmon ot
CO UNT
ĠPo isson
late st
t z
Trans fer
R ank
ĠT erry
Ġconcent r
NAME SPACE
C N
Ġinfin ity
ĠF itz
di ag
Z end
sim ilar
ĠL LC
ĠSt ories
-------------------------------- ----------------
pos itive
MESS AGE
ĠK os
Sub ject
Ġconstitu ency
Ġproject ive
f ers
Ġg raphics
Ġbatt les
ĠKe ith
J ul
Int o
ĠT ournament
Ġl l
stat ement
Ġport folio
Top ic
Ġwire less
P ending
Ġpi pe
te ch
dat aset
Ġclass ifier
Ġ' $
ĠS aints
ced ure
Ġaux iliary
h um
ear ly
ĠG T
aus es
ĠDr ag
Ġsegment ation
pre ter
' ',
Ġharm onic
Ġj ail
16 8
// !
Ġmeaning ful
us k
Ġinitial ization
Ġinst ability
Ġ} {\
Ġpre liminary
ĠCat hedral
Form s
Ġefficient ly
Cal endar
x f
Ġdis patch
it ud
Ġs aving
Ġb read
Ġop ponents
ĠPl atform
Ġsold ier
develop er
m any
b ishop
." ;
ĠS ad
id ency
ĠArch ive
ĠS K
ĠN BC
nt z
Ã¨ re
Rel ative
Dat aset
red irect
Ġg ains
C tx
br anch
ĠMu hammad
Ġloc ality
Ġmon ument
Function s
ĠA uth
ĠExt ension
ĠNS String
F oo
w ang
enc il
ĠG as
ĠMat hemat
Ġc ul
ust ers
Ġb eta
ĠPro f
Ġhop ing
Ġexception al
ĠâĢ ł
D ue
15 5
z ier
** *
ĠBe aut
s chool
i ator
ex act
Ġcult ures
18 89
Q A
~ (
ik o
ever y
Ġcomm em
And roid
Expat riate
Ġ$\ |
Ġel abor
16 5
Ġextr action
Ġcontr ary
inc inn
sup ervised
ĠInitial ize
territ ory
â Ĩ
ir able
18 94
Load ing
a ho
it ual
Ġful fill
Ġc p
Ġprint f
Ġbr ick
Ð ±
18 85
| =
b ian
Ass ignment
comp ass
Ġd ub
List eners
18 93
Ġexam ination
Ġr ings
e ctions
m g
Ġind ent
Ġcancell ationToken
Ġbu ying
}} =\
Ġscal ed
in formation
I p
Ġmanufact urer
ĠAnt i
^* _
Ġnegot iations
p ixel
AB ILITY
ment ioned
Ġbr illiant
Ġdec ent
ĠCom ments
Ġassum es
M esh
æ ķ
Ġden om
Ġfl ights
i u
hell o
ĠT itle
ĠPhil osoph
st ock
Ġ} ),
Ġinter active
b idden
ĠInst all
Ġmot ivated
ĠOtt oman
Ġwood en
18 65
13 3
ĠN ar
S B
Ġop ponent
Un expected
Ass ume
Sl ice
L ou
Ġobserv able
ĠB loom
mark er
Ġsub stitute
incorpor ated
duc ational
For ce
A ud
lib s
Ġcompos ers
Ġvolunte ers
Str ings
ent ries
Ġutil s
Ġm as
ĠL ion
Ġback up
Ass ign
ĠN icol
Ġmem ories
ĠSh a
ĠVenezuel a
3 000
ĠW rest
pt s
ĠV eter
ĠPro test
initial ize
Ġconflict s
ĠSy rian
Ġmag azines
ĠJava Script
Ġveter an
ast ed
}. \
Sim ilarly
ster dam
C a
Ġc ow
ĠĠĠĠĠĠĠĠĠĠĠĠĠĠĠĠĠĠĠĠĠĠĠĠĠĠĠĠĠĠĠĠ ĠĠĠĠĠĠĠĠ
Ġaccept able
ew ise
12 9
at en
col ogy
bre aking
L ate
ĠC rit
ia o
d ifferent
Ġre fr
ro tt
Ġprepar ing
sub stack
ĠLeg al
Ġnav al
Ġexpert ise
ĠHash Map
Ġan isot
ref lect
ĠUn fortunately
U A
ert on
value Of
Is rael
M ASK
ĠL ost
Fr ank
Ġprov incial
ierarch ical
che str
Ġcitiz en
ĠFac ulty
Ġexhib its
chedul ed
á ĥ
ĠJ a
Ġhighlight ed
Song s
ĠT ogether
Ġdel iber
pos er
M LE
stit u
ĠE instein
inc ipal
Ġor ange
sc ience
ĠH em
incinn ati
Se ason
Ġout per
Ġsp ots
ĠColomb ia
g h
Ġt aste
Ġmechan ics
B road
Ġere ct
res olved
Ġstr ain
O cc
? (
th ird
Ġact ively
Ġatt itude
Ġt s
Ġhon our
akes pe
ind ices
ug osl
AS C
ace ut
Ġwind s
ĠW ing
ill ance
Ġcos mic
Ġj ury
. }\
Ġh az
ĠF T
Ġelect oral
//////////////////////////////// ////////////////////////////////
on ian
ri en
ĠLINE AR
C ookie
Ġany more
Ġb ullet
lin ing
ĠEd ge
Meta Data
f m
H en
re z
ley ball
Ġp reference
Table Row
ĠF if
Ġcred ited
SD L
Ġfacilit ate
ĠR ender
Ġreg ulatory
' }\
F at
Ġacqu ire
Ġvent ure
ĠP arent
ess ment
Ġc fg
Ġe ating
ĠEu clidean
l it
k ip
ĠT it
ĠM asters
Ġpo ems
R ay
Ġcontinu ously
ĠTurn er
press ions
Ġdig it
Ġde emed
14 7
Ġpropos als
Ġact ed
T ake
00 5
start s
ĠH aving
Ġfeas ible
ĠS Y
us r
success ful
Stat istics
d anger
Ġtalk ed
ex tract
Th omas
Ġdel ight
Ġlegisl ative
Ġcomfort able
Build ings
google apis
Ï ĥ
Ġm arch
writ ers
C ould
lo ating
Ġ rib
Im ages
P aint
me as
Ġmanufact urers
cos ystem
om ed
ĠMed iterranean
od el
not ification
ĠR u
z b
ĠB right
ĠG alaxy
ĠCon tract
ter ms
Ġcred entials
EN V
Ġsent enced
ft en
ĠSer ge
Ġdemonstr ates
ĠSoc orro
SU PP
ĠGlas gow
ĠRob in
Ġterr itories
W ar
ĠHel p
ĠĠĠĠĠĠĠĠĠĠĠĠĠĠĠĠĠĠĠĠĠĠĠĠĠĠĠĠĠĠĠĠ ĠĠĠĠĠĠĠĠĠ
Ġ" #
Cl aim
Ġess ay
T LS
amp a
Ġhospit als
list ing
Ġcontinu ity
ate ful
Ġapprop ri
pert urb
Ġin cl
Ġbl ess
Add itional
CE PT
18 88
ebr aska
f und
Ġad s
Ġglob ally
Big r
B ob
Ġtravel ing
j ud
ĠT OP
ĠCON DITION
ĠColon el
ur red
ĠG lob
Ġaccess ed
ĠO scar
14 5
Dest roy
2 25
render er
Ġcomment ed
\, ,
ĠFerm i
ĠMad ison
t oc
ah l
ĠR ural
Ġ( âĢľ
ĠU TC
Ġform ats
Conn ector
Rich ard
' )$
Ġrout er
US A
autore f
ĠEconom ics
() [
ĠTre as
yg on
Ġaccur ately
AR K
st ad
ĠB urg
Ġhe ating
Big l
ĠE D
Ġcomplet es
ĠP erry
Com ponents
Reg istration
Ġf atal
ĠM oney
ips ch
ĠArt ist
Cred entials
ĠR acing
Back end
ens en
Ġminim ize
ical s
ĠEn able
gu ide
Ġem otion
Ġguitar ist
ĠAthlet ic
Ã¶ r
ĠAlex and
Ġincred ible
pack et
Rec ords
Ġt f
B LOCK
Ġan onymous
Ġm i
Ġr s
Ġtrad itions
Cam era
Ġafter wards
Ġpremier ed
ĠM is
w allet
acc ur
CON ST
Ġsurve ys
ĠShe l
Ġjuris diction
ir ts
Ġrect angle
Ġ( @
ĠE val
13 4
Ġgr an
Ġw eren
L arge
c ern
re str
Ġorig ins
Ġoccas ions
u u
Ġob sc
do es
Ġsynd rome
Ġsynchron ized
Ġext ensively
ĠRich mond
h ind
Call ed
ĠVin cent
ĠF isher
ci pl
ĠST ART
Y P
hen g
ĠT E
ĠB achelor
Ġpred icate
ĠLiter ature
Ġfl ower
: %
He ap
ĠCont ainer
ĠD MA
the ory
F oot
Ġh ang
ash a
. ).
sat isf
l ies
TE S
Ġcom ics
Ġun w
For ward
ĠSh ang
ĠMil an
ĠM ol
ĠSh op
art z
Ġnon zero
ĠC ov
id ays
Ġsome how
$ }}
G uid
og gle
An chor
ĠI o
Ġhom ot
LE S
Ġstar red
Ġinj ection
ĠL arry
Ġesc aped
W el
Ent ries
e ing
Ġt ons
Ġal ien
Ġfinal s
Ġv ibr
13 2
D TD
Ġindu ces
:: $
Pol y
ĠU SE
Ġcall er
db c
effect ive
I ll
Ġ[ #
W W
Ġsusp ension
" }
ĠSim ilar
Ġnot ify
Ġre normal
ĠConf eder
akespe are
im er
ĠT F
Ã³ w
Ġchem istry
R oll
18 91
Ġen emies
Ġm ild
Ġp arks
Ġd otted
Ġprom ised
m usic
p ent
size of
Ġqual ifying
ĠCon sequently
n os
Ġg ear
co ordinate
ĠB R
Ġcons olid
Ġj oy
ĠAdv anced
it ol
Ġdec ides
Ġweak ly
Ġpro c
ĠBar celona
Ġ$ [\
Ġhard er
ĠJust in
Ġout break
Data Source
Ġ" _
ĠPro duction
bour g
Ġp ace
s outh
STR UCT
Ġquot ient
Ġg al
Ġcelebr ation
E r
ust ain
ĠN an
ull ivan
uck er
block s
Ġconf usion
ric ulum
Ġ* ,
Sl ot
Ġamb ig
us a
ĠCom put
qu estion
ĠJ oint
depend encies
ars on
op ing
ace ae
ĠCirc uit
J ac
s ent
Ġb anned
Ġ' ')
Ġprogress ive
ĠO UT
Ġc ss
Exp and
bre v
Ġs ig
cl i
Sc ene
ĠO C
Ġmathemat ics
Ġsup press
Ġcompr ising
Ġvalid ity
Spe ed
Ġoff ense
ĠCh rome
Ġconj unction
Ġj ets
Ġcy ber
Ġthe at
ĠJ erry
)= (
ĠCub a
ĠFI FA
Ġcam ps
Ġdecre ased
Ġz oom
Ġver ification
ac a
ĠTh or
help ers
Ġ(! (
F ollow
ipsch itz
Ġb ike
Ġcon jecture
Ġt ale
ellig ent
] *
int f
H ard
ĠSV G
Ġaccept ance
Mill is
Ġsec ured
qu arter
pos able
ĠP in
Ġs ender
ĠSus an
ĠR angers
Ġless ons
d al
B er
Sur face
ĠCONDITION S
C MD
Ġed iting
place holder
L ite
Publ ished
ĠA f
ĠSpr ings
U UID
Ġsubstant ially
/ )
Ġr hs
; |&
HO ME
az ure
E lem
Ġge omet
sur ance
ĠYork shire
Right arrow
ĠInd ustrial
Ġsynt hesis
Ġreg iment
jav ax
Ġsurv iving
Pay load
S printf
ph oton
ma jor
Ġdec oder
ing ers
Ġl iv
Ġprem iere
ancell or
RE NT
Ġelim inate
Ġrel ies
m other
Ġ$ <
Ġe ighth
Sub scription
sp ot
Ġoverse as
un ches
g om
Ġvan ishes
ĠMed ic
m is
Ġvari eties
os c
Ġex ec
Ġtw in
Ġengine ers
% "><
ĠPer u
Ġcommun icate
he ld
Ġassert ion
Ġagre es
> %
Ġl ung
ĠK rist
Access or
Cl os
F rames
ĠP ick
cam era
Ġcomplet ing
ex ecution
ĠN GC
Ġpreced ing
ose x
Ñ İ
Ġimplement ing
ĠB ird
ĠC ant
ab ol
ore ms
ĠM uch
18 50
ĠF ont
ĠLeg end
Ġap ilevel
mult iple
ĠK ap
Array s
Ġaud iences
Ġf ictional
ator ial
ĠC u
ĠS ax
ĠC M
Ġcomp atibility
cknow ledge
20 2
pos al
Ġ} .
Re act
Ġch ip
ĠTh row
15 00
pre vent
Ġr ay
Ġsh ore
Ġabs ent
R G
ec on
D ict
ĠQu ant
Ġcoach ing
end um
R IGHT
V EL
Ġr ally
Ġdeg rad
Ġinvestig ations
Ġg it
h p
ĠK ind
ocr atic
m issions
Ġdismiss ed
Ġte a
Ġex clude
power ed
ĠBAS IS
Ġep id
ep age
. },
l c
Ġp ill
ĠL loyd
Ġdial ect
{ [
Has Been
Ġrest art
ĠMur phy
Ġl ap
add EventListener
Ġp s
ĠI van
Ġult imate
Ġspac etime
ĠM ason
f olk
oc o
sche mas
Ġthick ness
s ources
Ġ' @
Ġend if
ÐµÐ½ Ð¸
constr aint
Ġim per
Ġ[ {
sub scribe
Ġle x
umb ent
vent ions
acef ul
ĠCont act
Ġmod ifications
13 8
om ething
ĠTechn ical
R o
Ch ina
P icker
al one
ĠGr an
ra h
Ġsqu ares
Character Offset
S ender
Ã ¦
Å Ħ
am ic
ra f
k ern
all ing
Ġsouth west
ert s
hes es
ĠTr ad
Ġsuff ix
Load ed
cho ice
ĠR T
itt ers
Ġh unt
Ġded uce
to kens
b oot
Ġco hom
Ġvo ices
Ġprint ing
Ġharm ony
ĠG ay
Ġobject ives
Ġphenomen a
q a
Ġfilter ed
ot ypes
un lock
ĠB orn
H I
fr agment
] </
Ġ âĢĻ
em a
act ed
ĠPier re
ith metic
ro at
l ag
ĠP FNGL
Ġman ually
ĠA GN
Ġspecial ized
, [
18 64
ĠNich olas
Ġi Phone
Ġsub stance
cent ral
ĠWrit ing
(" .
OB JECT
M ad
Ġent ers
ĠS ony
ĠA ws
Ġ\ #
ab ases
ĠA aron
ĠRead ing
, ~
ĠG arc
ĠT u
' $,
Ġr iding
L ondon
l ua
le af
ĠEx amples
Ġoccur ring
ĠX ml
sm ooth
Ġpand emic
Ġw elfare
ĠY u
Ġwor ry
ĠAgain st
et ta
log ic
ĠDemocr at
ĠA zerbai
ĠB aptist
ĠN HL
Ġch ap
Ġun e
Ġs ugar
Ġpre val
Ġc ust
ĠI de
ĠPr adesh
Ġto String
}\ !
Ġb unch
$ _{\
Ġ" );
Ġfavour ite
om i
sub str
Ġpe oples
Ġfore ver
Ġphys ician
Ġhar vest
c ookie
r age
ĠCom merce
Ġvol can
Ġt ribute
App ly
ĠCru z
SUC CESS
h yp
De ployment
ĠLabor atory
ĠSt evens
ac ular
ĠGL int
ĠQ ual
Ġdiv ide
Ġrefuge es
ĠProt ocol
ĠGr ace
ĠPerson al
Ġportray ed
Ð ¹
Ġintegr ity
asc ade
N EXT
S ound
Ġf ighter
Pe er
Pro c
Un mar
im od
r x
/ ******/
Ġhel ic
Ġsup ern
Te chn
ĠMer c
g lob
Ġr hythm
Ġwalk s
Ġveloc ities
Ġneighbor ing
ĠCol lections
vis ibility
Ġrel ay
Ġmulti plication
atern al
ĠCon structor
look ing
ĠSym phony
ĠG olf
Ġnom ine
18 87
ĠVictor ian
RO OT
rf loor
âĢ¦ .
ĠWork ing
Ġdifferent ly
ĠEnt ity
18 61
Ġshe ar
Ġf d
Ġviol in
* {-
ĠBr istol
ĠCo hen
SER VER
li ed
project s
ĠOver all
Ġinn ings
ĠB og
LO AT
L F
) |^
Ġimpact s
Ġbon us
g re
Ġfl ip
h aus
ack ets
ĠC V
ĠD R
f w
Ġpre st
AT O
'' '
iz en
Ġdon ated
ĠB S
Ġas h
33 3
Ġpod cast
ent e
Ext ended
)} _{\
Ġsuper conduct
Ġport rait
ĠE N
M el
ĠG it
Reg ular
Ġeconom ics
= (\
NE W
Ġscript s
ĠCl ay
m ir
Ġco in
Ġsub div
Ġdebut ed
aval ry
ĠL en
ĠFl ight
no ise
F un
ĠA zure
') ->
Ġgovern ed
ĠBelg ian
Ġc ock
Ġauthor ized
E mb
p el
b et
st orm
as ia
Ġg ates
. ');
Ġsuff ices
ĠSe pt
Ġtack le
ĠB our
ĠW HERE
v r
Ġformul as
Ġgraph ic
Ġguarant ees
Ġrock s
ĠP le
Ġtour ism
Ġcab inet
or ia
Ġtro ubl
ord ination
Ġalleg ations
Ġl oud
}\ ;
Ġshall ow
C ritical
ĠB ass
Ġ" )
Ġperm utation
ir s
ant ine
M ov
Ġvis itor
WR ITE
Ġdr ift
OPT ION
Ġmed ic
Comp ilation
ĠAdd ed
ĠNe il
^ +\
am ine
Th reshold
ĠR ules
df s
M or
ĠStat istics
Ġdiagn osis
Ex tract
B ooks
ĠC over
Ġpers u
im o
ĠCon st
Ġen zym
i ating
ff ic
Ġblock ed
ĠNot es
ĠL ud
Ġv e
an imate
ri o
ĠAb u
18 86
ĠJ ama
Sc an
Ġ$ $\
ĠC ome
( |
ĠEd wards
Ġwav ef
ĠSong s
Ġprom ises
ĠTransport ation
ĠK ate
Ġop inions
ĠS id
fl uid
om eters
M ail
con figure
Ġtrans mitted
ĠSym fony
ph an
oc hem
N ever
PRE FIX
arg v
aly zer
Ġgr pc
per cent
g em
ĠSe an
edd ed
Ġst eal
ĠGuard ian
P s
ĠAlber ta
al ter
lf loor
or ious
Ġar ises
Ġsens ors
re verse
LO B
ĠM es
ĠTig ers
Ġag enda
ĠC apt
Ġstop ping
Over flow
R ailway
equal ities
w oman
prec ision
Ġback ward
sol r
All owed
ul ators
à¤ ¾
}) -
Char les
il ia
' -
h aw
Ġw x
Ġrelax ation
AR CH
gr avity
Ð» Ð¸
c ritical
Ġhyper bolic
Ġq q
Ġterror ist
Oper and
Ġinter faces
paren cy
Ġst ub
em in
ĠC lean
Ġdi et
c ourse
14 3
ĠForm ula
Ġd w
Ġrem arks
Ġsum mit
m ov
ĠO bl
ĠH udson
Ġres ervoir
ĠComple x
Ä Ł
est imate
Ġhuman ity
Ġben ch
Ġper pet
Ġs ink
ĠInst agram
ĠCh and
Ġlaw suit
Ġdi agnostic
Ġposs ibilities
Menu Item
Ġwhere in
open api
ĠS occer
Ġtr ap
Ġremov es
Ġpop ulated
Ġhand ed
HasBeen Set
F ar
è ¯
Ġexpl oring
Ġline arly
Us es
h skip
99 9
ĠMark eting
vari ants
hib ition
>( <
Ġcomp ress
ĠCl are
ĠPar ish
intend o
in ced
Request s
Ġens uring
ĠP ent
ĠScient ific
ĠB omb
ok u
K K
spir acy
f ive
Ġal umin
ĠĠĠĠ čĊ
Ġfr act
Ġtravel ed
ĠAtt ribute
Al ign
Ġins ights
S un
Ġmus cle
ĠF actory
Log ging
orient ed
// ----------------------------------------------------------------
hand ed
Ġspons ored
Ġ( `
Ġinter cept
ĠR AF
Ġcan n
Ġout door
Cre ation
Ġw ings
Th an
Ġtele phone
ĠV ert
Ġfil med
Ġdes per
Bal ancer
F ast
>< !--
au kee
umbn ail
Ġmod ular
Comple ted
Ġspeak s
b age
ĠC ob
R atio
15 2
ĠSerb ia
d ie
ĠT on
ĠS L
Ġmin isters
Part s
it on
C trl
Ġm g
16 9
Ġdeform ation
l ater
us age
U G
ĠI da
re ject
PI O
Ġre try
In line
Ġtrad ed
Ġarchitect ural
LI B
ĠGh ana
Ex cel
ĠV lad
Tool s
Ġp ian
Ġconst expr
Ġel astic
ĠJeff erson
publ ished
B ill
inem atic
o ard
Ġsp ell
= {\
ĉĉ Ġ
Ġl ingu
ĠB ir
amb ers
Ġbusiness man
Dest ination
Ġche st
im iter
T OM
Ġtw ist
Ġj e
ĠV ent
S ent
ĠS olar
ĠT un
az el
ĠRem ark
ĠKen ya
Ġsh a
Block s
com ments
ĠE ug
CR IPT
Ġpl acing
ĠCam eron
ab etes
Ġreprodu ce
L ONG
Ġint u
tab les
ĠF ed
$ (\
ĠS eb
ĠI celand
st ation
ĠW indow
ĉĉĉĉĉĉĉĉ ĉĉĉ
ĠRe yn
ĠArab ic
g ender
ene ath
uck land
/ #
ĠW onder
Re plic
itte es
ag ation
Ġtherm od
sy ntax
ah a
T own
FT WARE
oupl ing
b ank
å Ĭ
Ġdef ending
sc opy
av an
Ang le
C AC
Ġintrodu ces
d w
Â »
Ġs id
Ġh itting
v v
por al
aj a
Ġpower ed
ĠAdd itional
ĠM end
ro c
ĠS ET
ĠL ithuan
################ ################
Ġst uck
Ġpo ison
Part y
Ġlight ing
ro gen
Ġorgan ised
ĠTh anks
Ġrev ised
Tr ump
Ġaccount ing
Ġch ron
ĠE ston
Ġdoub les
Ġf ur
Ġf iring
ĠN ormal
scal ar
Rad ius
ĠRog ers
il o
Ġche ap
SU B
vari ables
at z
Ġappro ached
m ys
Ġband width
Ġcompl aint
Ġmem brane
ĠEn cycl
Ġcompan ion
ĠTib et
ĠC ut
ĠTro phy
ĠHor se
Ġse eds
uc le
ett i
ĠGu inea
Ġlocal ization
Ġconstitution al
Ġkit chen
Ġpl acement
am o
Ġen orm
Ġadvant ages
Ġparliament ary
T ON
work er
car bon
T w
ĠF oot
sign al
Ġdetermin istic
ĠLa ura
oc c
Con figure
Ġh istogram
ta wa
Ġfoot age
Ġfl ed
All ow
od s
Ġ" ;
18 63
Ġenc ryption
ĠG O
Mod ifier
Ġequ ity
ip per
Al tern
ic z
B as
Ġgr ain
Ġoptim ized
Ġt ut
Ġs hed
con ver
]( #
im ony
od ic
Ġper ceived
serv let
M IT
Ġcell padding
rip ple
Ġenter prise
c py
Ġdisc ount
Ġbo ats
Gener ate
on ing
Ġadjust ed
Ġbe ating
'] ))
input s
ĠField s
Ġch at
over ride
Ġident ities
Ġp tr
Type Name
Vill ages
im ity
Ġmin istry
Ġuniqu ely
Ġfast est
Ġab ilities
Tra its
al og
et erm
Ġem p
LA S
ĠBro ther
m el
Ġpush ing
ĠCr icket
Ġrat ings
ak ov
Ġr ated
ĠD raft
13 7
> ${
Ġpre dominant
Ġs ake
oc co
Ġbut tons
Ġsh ops
& -
Christ ian
Ġnav bar
è ¿
', \
ĠFl ag
S PE
Ġqual ify
std err
Ġgener a
Ġcancell ation
O W
ac ies
Ġal i
prot ect
ent o
Ġrecru it
ock ets
Ġpotential s
script scriptstyle
g raphics
ec ca
ĠCost a
Ex amples
ep he
Be havior
Ġ ì
ĠL isa
ag ar
Ġph osph
am pton
Ġcomp ounds
ĠF IG
ĠV as
necess ary
ĠG PU
Ġview ing
. (\
A W
to o
Ġcous in
w aukee
ĠNep al
mod ified
ĠAct or
sh ore
ĠBe ing
ĠHigh er
S yn
Def ine
ĠC ad
ag i
miss ing
Fix ture
Med al
ĠĠĠĠĠĠĠĠĠĠĠĠĠĠĠĠĠĠĠĠĠĠĠĠĠĠĠĠĠĠĠĠ ĠĠĠĠĠĠĠĠĠĠĠĠĠĠĠĠĠĠĠ
" ?>
ĠF iction
ĠSh aw
gu ard
}_ +
ew ay
Ġr h
In ject
Ġconv inced
Ġseek s
Ġel ite
ĠNov a
Ġcivil ian
Ġretri eved
B ag
Q t
As set
ING S
date picker
Ä Ļ
P adding
j q
er ious
ĠV k
sw er
Ġpaint ers
ĠS TD
is se
am y
Ġcontroll ing
N d
Ġbroad er
if ice
ĠAl ong
Ġillustr ates
Are Equal
oss ible
Ġdu o
Fore ign
ethe less
ĠQu est
B in
Ġor al
w heel
ĠL ux
$& $
H F
Ġfest ivals
Ġk w
x t
Ġar ising
Al ignment
Ġiniti atives
Ġh int
NG TH
ĠW es
rot ate
ĠMunic ipal
Ġj ew
ĠB ot
Ġun ve
vel oc
Ġburn ing
Ġsh ield
Ġt weet
ge o
im eter
ov an
> .</
Ġgr ave
o ons
Ġb ubble
ort s
ĠY O
Ed m
overs et
Ġor chestra
13 1
Ġswe ep
ĠS ales
Ġcl othes
Ġev ac
Ġread ily
ĠFinn ish
Ġswitch ing
Ġdemocr atic
ari ans
Ġdepart ments
Ġj ournals
Ġscholar ship
dem o
Ġmon arch
ĠIss ue
Ġa fr
ĠD ise
Ġplay offs
ĠCar r
define Property
up id
ent i
---- ---
Ġwarr ant
ĠG rey
Ġassoci ations
ĠGener ated
Ġf iscal
N U
ĠN ebraska
ort on
CL U
Ġport ions
Pr imitive
sc rib
pack ages
Ġ\, ,
ĠAthlet ics
er gy
16 4
do i
ĠE le
M ot
> {
ĠSh akespeare
Ġhun ting
ad ows
Sp anish
over lay
Ġimag inary
Ġpro l
Ġ{ {\
ĠG ET
18 84
dir name
Ġa cknowledge
n orth
Ġadvert is
C over
fail ure
P ages
ĠH ob
Ġyoung est
Ġrel ate
Ġlast ed
ĠCons ervation
Volume Source
Ġg aming
Ġdefe ating
ĠFle et
Default s
bound ary
Ġtr ick
ĠCont emporary
Ġstri king
ÐµÐ ´
r us
Ġfall en
pl ant
}_{ {\
Ġtang ent
ĠC atherine
Ġmurder ed
Ġmist ake
Ġs el
te enth
ĠÂ §
Ġconnect s
ĠBuff alo
L SP
Ġut ter
Ġpers istent
Ġm ad
sp ired
Ġrele g
ADD ING
L M
Ġover head
Ġpo ets
Ġexped ition
18 82
ĠCal cul
ĠS alt
s ized
ĠC ox
ĠWh ich
ĠArch itecture
. #
Re ceive
ĠQu arter
separ ator
itud inal
Prot otype
se ed
W ORK
æ ĺ
Ġhistor ians
comp atible
Ġsimpl ified
Ġalleged ly
' }$
18 62
ĠPos ition
Ġsoph istic
Ġsus cept
v p
ĠD elta
p ipeline
Ġasympt ot
af ka
cho ose
s it
ph ot
ĠF u
Ñ Ħ
ĠCl imate
Ġf ert
Ġachiev ing
ist ani
L ab
ĠM orning
Enc oder
ĠJenn ifer
Ġentreprene ur
cur ve
Ġdream s
Ġp ounds
Ġorient ed
M iddle
ĠWat son
Ġbal anced
ct rl
asc ular
Ġgold en
Ġembedd ings
ĠPro gress
Ġp uzz
Ġnom inations
Ġpe ers
sub scription
ĠA str
ovak ia
d ump
l ift
ĠR ele
ĠK il
Ġbr ig
Ġh ub
Ġbos on
x c
Ġship ping
ĠFil ms
L ittle
Ġdirect ive
ĠV ery
anc ers
ĠCons erv
ut ton
Th anks
ĠD S
fil er
IT LE
ĠEl li
}= (
az i
p riority
Govern ment
L ove
M ur
cal c
) )$.
R ock
is ch
Ġmake up
Ġfin itely
Ġreason ing
ĠRepresent ative
\| _{\
alt Color
Ġdoll ar
Ġelli ptic
Desc ribe
ĠForm er
Ġ' </
ĠV el
Ġdr ives
Warn ings
p oll
)} =
ĠG onz
Ġt orn
Ġl oves
Ġ===== ==
is b
Ġcal ibration
Ġhand lers
Ġgener ality
Ġvirt ually
Mod ules
ĠStan ford
__ .
ĠB arr
ĠS oul
Ġaccompl ished
R GB
Ġintegr als
Ġc argo
ĠRequ ired
Ġthe sis
Ġdist ant
Ġconsider ably
iz a
am med
Ġentang lement
Ġd ose
Ñ Ī
Ġt ribe
Ġr itual
Ġsp ir
ich i
Ġplan es
18 81
CD ATA
uls ion
M icro
A H
ĠP AR
ĠY am
Mat ches
EN C
ĠAm endment
È Ļ
ĠB aby
ĠU lt
table block
Ġdro ps
v skip
Ġconc urrent
ĠEth iop
pe er
sw ap
R en
Ġall ies
Ġm eth
Ġconf used
Ġdo zen
est im
Ġjo ins
! )
ĠString Builder
sub float
ĠTH IS
Ġele ven
Per cent
Ġ\| _{
E LEMENT
ĠTreat y
ĠSh are
ĠD epend
os hi
Ġ ÑĤ
che m
ĠInter face
ig ue
ath y
less ly
Ġprov ing
Ġac res
second s
AUT H
ãģ ®
}( -
d ue
æ Ī
ĠCons ult
ĠL apl
Ġcorn ers
w ire
}_{ (
ĠNO TE
Ġpars ing
ĠR ole
leg end
L ang
Ġexplos ion
set Text
P K
ash ing
Ġd ad
Ġbank ing
K n
st ri
t ility
ĠBer g
Ġrec urs
ad just
String Builder
e ur
Ġball s
ĠP E
n ational
lev ant
Ġfraction al
ĠL ions
ĠDec l
ast ing
Sm ith
Ġsup pressed
r in
Ġpro ton
ĠW W
s elling
Ġsc rap
ub a
Ġfun eral
ĠĠĠĠĠĠĠ Ċ
ĠLu is
M X
ĠH R
Ġig et
ĠS PI
Ġin cent
Ġown s
ĠFI LE
á º
Read Only
ĠInter est
ĠMe V
^- $
ĠGener ate
Ġpregn ant
J ose
in ance
Ġc avity
ĠCurrent ly
ĠV ic
V IEW
Ġz ones
Ġun em
Ġsurre nder
HAND LE
Ġt ours
ĠTerr itory
Ġp ic
Al t
pp ing
Ġall iance
Ġper ception
Ġdev ast
ah an
ĠCh a
Ġs overe
Ġrev ision
Ġs isters
ĠAr c
man ifest
b urst
ĠS ER
ĠC urt
! =
ertific ates
Ġin ev
Ġscr atch
erm ark
al is
c aster
ch rom
ver ts
N ON
ĠStr ateg
Ġnumer ically
ĠSum mary
O s
v endor
H a
Ä ħ
Ġen abling
Ġfit ness
tim eline
um ann
Name Link
Dec ode
ject ive
D eb
ĠB ear
ĠG host
In cre
Fr ont
it ious
sh ops
ĠAv iation
J P
Ġshould er
Not ice
M argin
ĠMe chan
d eb
Art icle
ĠS oph
Ġinteract ing
G ateway
ĠS witch
Ġelect romagnetic
dev elopment
Ġb onds
ĠA w
çĶ ¨
P ACK
Ġf illing
Not ify
Ġimprov es
Ġsus pected
------------ -
utr ition
Ġpsych ological
G allery
28 0
C oin
aus ed
Ġinternational ly
n pm
Ġsust ained
ĠK id
] ^{
ĠW alt
Br idge
G reat
ĠRes et
Ġtown ship
ĠS creen
m ot
p agination
ĠIn surance
Ġdec ode
ĠI MP
Ġs v
uch i
Sever al
}} }}
Ġh yd
oc y
Ġt une
H idden
ĠAm sterdam
Ġproceed ings
ĠHoll and
k k
ĠGener ic
Ġbl ob
ĠB esides
\!\! \!\!
ĠM ail
var pi
ad ers
Fil ename
St d
ĠB orough
I BU
Ġten ure
Ġwe ird
Ex ec
Ġf ed
Ġg amma
Ġcontain ers
Ġneglig ible
Â ·
ĠHe brew
AC ING
Ġrefer enced
Ġwarn ings
ĠE SP
Ġad option
Ind eed
f ollow
Ġin equalities
Ġam ateur
is ible
Ġphotograph er
M ont
ind a
vent ory
FRA ME
Ġtr aces
reg ex
ĠTr inity
Ġmunicipal ities
Ġfl ush
20 5
RO W
Ph ot
ĠS z
+ |
g ap
C AP
Ġsaf ely
ĠLore ntz
Ġcontrad ict
... "
Ġro ster
oth ic
ĠAt hens
tem perature
Le ave
ĠComple te
Separ ator
om o
Ġderiv ation
TEXT URE
Ġhar ass
ĠW R
ij i
20 4
Part ial
b ird
tr on
Ġcert ified
ela ide
Ġa qu
Ġbuild s
LE VEL
ĠW orth
ffff ff
Ġe cosystem
Ġimm une
M id
he ther
fr action
Ġbar rel
TO OL
ĠAt omic
m icro
Do es
ed ges
ĠO O
ĠT ed
ĠPh arm
Ġrad ar
ĠH alf
g c
T ick
ĠM ann
ĠM ade
hab ilit
ĠRec all
Ġcell spacing
Ġt ick
ĠK el
ĠK ill
ra ction
ĠK ay
Ġconcert s
Ġw ars
Ġte eth
Ġland ed
ĠForm at
J im
TR A
ĠB ath
). }
amp ing
Ġappreci ate
Ġcard inal
Ġtempor arily
Ġelev ation
Ġg rap
Ġachiev ement
ĠY e
â Ķ
Ġsure ly
opt imal
ish a
the ad
Ġbo ards
Ġunc lear
Ġchampionship s
Rep resent
F ort
ar an
end ering
ĠFil ip
S ir
F s
el ing
ĠE state
i ov
ins ky
Ġbr idges
ĠDr ug
olt z
op al
Ġbr ut
sec ure
Ġsk etch
Ġc razy
Ġmodel ed
ĠF ixed
Ġan ime
Ġevery body
av i
Fig ures
Ġprotocol s
ĠM ode
H ot
Ġcollect ing
S PI
ĠK ur
Vari ant
Observ able
st own
Ġocc urrence
ĠV oice
Ġc url
ĠO ri
Ġcle ared
Ġd ivers
Ġstat ue
Ġfant astic
ĠC ategory
Ï Ĥ
ĠD ennis
Th ird
Ġrep ublic
Ġcompos itions
Ġgather ing
is p
min ster
le ave
Ġex terior
Ġrecommend ation
ĠS uz
Ġharm on
R oyal
Ġim pression
ĠS ent
ac l
g al
ens on
". /
ĠVis it
' )\
/ '
ou x
mult ip
Ġag gressive
c art
Ġb oot
f v
ĠK ol
ĠSO FTWARE
TableRow Color
}} }{
back end
sm art
ism atch
resource GroupName
th al
ĠP H
Ġselect ing
Ġwealth y
Ġinvest ments
y outube
}\ }$
ĠD ol
Ġdro ve
og g
ĠA round
ĠB H
Ġ' {
bal ance
Ġsummar ized
Ġe arning
BU ILD
se ek
Ġdescript ions
ĠCom edy
Ġeng aging
St yles
Ġexha ust
Ġ ^{\
ĠF E
Ġrom ance
w so
gom ery
Ġd ump
Ġreal m
ĠReview s
}} }$
ĠC incinnati
Ġaccommod ate
Ġdis cret
Ġf o
qu ire
Ġim pose
ĠCom pute
Ġadvers arial
c ategories
Ġle ak
ĠLead ership
St ates
ple ctic
ĠParam eter
Ġam id
ĠUS B
Ġmer chant
com press
ĠL ex
adem ark
[ _
in ology
Add ed
iv ariate
equ e
en ue
Ġ[ -
Ġsubsid iary
Ġman ages
W ords
tensor flow
Ġvan ishing
Ġbehavi ors
) <
Ġconduct ing
G s
Ġdiver gence
18 78
agon ist
ĠD rama
ĠG W
Ġexcit ation
F IL
Ġhost ing
Ġsc andal
Ġ$- $
ĠY ugosl
Ġhon ors
$ --
N L
Ġachi eves
ĠAnt ar
Ġaffect ing
pro j
ec raft
pr ises
Ġun s
ĠP icture
ĠS ultan
ĠVerm ont
an che
Ġgrad uating
ĠSud an
14 6
post s
Ġroll ing
ĠW u
Ġp ad
x e
( `
13 9
ĠPhilipp ine
Ġm amm
log ical
ev ille
ĠB eth
ĠB ORDER
Ġins pection
Ġfail ures
Ġstruct ured
Ġadapt ive
z ens
Back up
C lock
Ġsimpl er
l ip
og an
PA SS
Rev ision
Ġlett ing
ĠEag les
le man
av ier
Ġass ists
Ð¾Ð ¼
Ġcrick eters
â ĪĴ
ĠP T
chi ev
ĠBeng al
Ġeg gs
Check ed
A U
ol ine
Ġvari ability
c ott
ol ition
Leg acy
Ġvolunte er
Ġa uction
um i
Ġdet ectors
inv oke
oll o
^{ [
Ð¾Ð ³
Ġpeak ed
ad apt
ĠD iamond
d yn
Ġinter sect
Ġs ax
ĠP ra
in ar
ĠF loat
Ġmolec ule
Ġb ay
ĠD rop
Ġback ed
Ġan not
pot ential
Ġlob by
ĠH at
! </
Ġwrest ling
! (
W M
Ġtrib es
S cheduler
Ñ ĸ
Get String
ĠCl aim
x ff
ell ers
Hor izontal
) ',
Ġdiff ers
g ls
Ġhard ly
ĠWrest ling
ĠA G
ĠD eg
ĠCre ative
ĠAgric ulture
\' {
ĠInd ependence
DE VICE
et e
un its
Ġbl ues
Ġfol ks
ack ed
âĢ ĭ
Ġactiv ated
ĠS TR
n r
und erset
xi ety
th lete
Ġwarn ed
INST ANCE
LE N
Ġmed als
Ġi OS
Ġob l
14 1
ĠAdm iral
ams ung
fl ash
CP U
Ġregular ization
Ġutil ized
rows ers
ĉ ĠĠĠĠĠĠĠĠĠĠĠĠ
ĠA my
ĠMont ana
ibl ings
ĠAs ync
CL I
ĠCh i
ĠL ov
Le ague
Ġobserv ing
Ġdis orders
Ġblock ing
w indows
ous el
Ġmot ivation
ĠHel en
Ġformal ism
Ġn ic
ex per
Ġfilter ing
Ġsynt hes
ĠS ox
itt est
Ġh orn
â Ĥ¬
Ġst olen
Part icip
Ġ Ã©
ĠMunic ipality
å Ń
Ġextra ordinary
T i
us hes
ĠPer haps
Ġconcent rated
Ġhold er
center line
55 5
em ption
ĠP el
ĠR ivers
ore l
ĠSw ift
Thread ing
................ ................
Ġswit ched
ĠC elebr
act ing
ĠAng l
ĠIn iti
Ġarr ives
Ġdec k
ĠFlore nce
Ġsp y
L ie
Ġaccept s
ĠN athan
Ġun cle
pect ives
Inst ances
ĠCON FIG
Ġbut ter
s izing
ĠWik ipedia
ĠN A
en os
Ġload er
Ġt ap
ĠK ids
Ġl unch
ĠT ang
Ġsw ing
miss ible
ĠBut ler
Ġgrand father
Ġim perial
v ectors
ĠR at
ĠG len
uss els
n om
ĠT EST
H uman
W P
ĠNet flix
ĠM ove
ĠPr im
Ġcompet itors
Ġvacc ine
h istor
s leep
15 1
MA IN
und a
Ġburn ed
abs olute
ĠStr uct
di agram
} "/>
16 6
ĠP D
ina e
---- -
LE NGTH
friend ly
Ġtrail er
Americ a
S ar
Ġc ave
ph ones
ĠCirc le
ĠERR OR
Ġcontact s
Ġpar ity
Ġd ying
ern ess
ĠO THER
Pr ice
Ġth rew
Ġinterpol ation
HO ST
ĠS chema
dim ension
g ie
n atural
20 3
18 76
<? >
View Controller
Ð¸ ÑĤ
Ġsk i
C op
Ġfollow ers
Ã Ĺ
ĠDis play
el ia
26 0
E conom
Ġmuseum s
respect ively
ist ency
ar ms
Ġadvoc ate
ov y
Ġad equate
' ):
h all
Ġrecogn ised
vis ual
pr ice
Comp at
Ex pl
ĠB eyond
ÑĢ Ð°Ð
media wiki
() ">
ĠB und
Ġalter ed
ast rop
Ġneighbour hood
Ġ ib
un s
Ġtem plates
Ã ī
ĠL ocation
ĠV ict
Ġer up
-- ;
land o
)\ ,\
ĠCall ed
Ġpat rol
Ġmaintain s
ĠStr ategy
button Element
Ġcon vey
eg an
Ġstart up
Cent ral
20 8
Ġdiscuss ing
fin ity
ĠT odd
ĠH us
Ġmar ry
ĠB ald
ĠDi agnostic
in verse
Ġident ifies
ĠType Error
eng u
TR ACT
3 30
ĠB uch
ĠLink ed
Ġimm un
Ġcor rel
th reshold
2 11
s olution
ĠD od
Ġgrad ients
sh ots
Jew ish
Dem ographics
cons ider
ĠIn it
18 83
UN K
Ġrot ating
Ġacknowled ged
ĠC OP
ĠGr ade
Ġconver ge
m acro
m eter
Ġbound ing
igr ant
Ġintegr ate
ref ox
ow der
ind icator
Ġfor um
FFFF FF
S ink
ĠS ierra
ĠFa ith
Ġanom aly
Ġen compass
Ġquant itative
ym p
ipp et
b an
ps y
we ets
d td
Ġast ro
Dim ension
Cap acity
ĠE sp
W ild
Ġincorpor ate
ĠWild life
Ġarg ues
ent ric
RE AM
Ġbel t
Ġpray er
Ġf uck
ĠE ar
Sh adow
ĠCor p
ch ing
Ġcaus al
Ġdraw s
it ian
io let
Ġremember ed
ym ph
W il
ĠN HS
Ġan ger
off icial
m art
s il
ĠNash ville
22 4
Ġchar ter
Ġep ic
l ap
Ġt anks
g mail
u ator
ĠL arge
}, {\
Ref resh
ĠRe ed
; ,
at um
ĠF ramework
Ġspecial ist
ĠT X
ĠT ensor
\, .
ĠR osen
br ains
ĠDet ails
L ists
IT H
ĠRes erved
war z
h m
ĠLe o
mark et
Ġutil ize
ĠA uckland
Ġcent res
Ġloc als
Att rib
Ġc ad
Ġm ature
g ements
ann i
Ġinter fer
Ġproceed s
Ġattend ance
ov iÄĩ
j ab
Ġf ut
) }^
ĠB order
Ġres ist
ĠG A
ĠIns ert
Ġfrag ments
Ġext inction
Ġcomment ary
Author ization
Ġart illery
Ind ia
ĠWell s
veloc ity
ĠHar vey
ent ine
e i
ĠK in
ĠPer iod
Ġ[] *
Ġenthus i
Ġs q
atter y
ĠEnter prise
uet ooth
ĠDel aware
}$ ).
Ġpsych ology
18 75
Ġjoint ly
Ġsettlement s
eg al
Ġmethod ology
{ };
ah u
Ġcop per
Ġv ec
Ġneg lect
Ġpick s
y aml
Ã Ł
Ġ\ :
Ġdwar f
fig s
18 79
ĠHis panic
Ġdispl acement
ia z
sl ot
Ġap pl
Ġstrugg ling
C s
n ear
ĠCh ang
Rec ent
aa aa
Ass oci
B ay
ĠV AR
15 7
Ġc ig
if rame
ĠM ET
Ġ{ *}
ĠVal ues
")) );
as se
Ġfre ely
' =
F ROM
ĠAg ent
@{ }}
Ġup dating
Per formance
Ġcompar isons
b is
Ġ um
00 3
ĠK un
Ġen velope
Ġiter ate
Ġartifact s
J s
or ange
LIN K
Ġa est
n x
Ġp ng
Ġaff air
Ġexhib ited
ĠLe ave
Ġcallback s
Ġprotect ing
Ġseem ingly
Ġlimit ation
ĠBob by
ĠL IC
Ġr ape
Cl ip
ĠU P
Ï Ģ
M N
Over lay
Tag Name
CO PY
ĠE lection
ĠR alph
r ain
w m
Ġf ram
() `
Ġg ri
Ġsear ches
14 2
Dis patcher
' })
ĠIn cre
Ñģ Ðº
Ġre write
15 3
sy nt
Ġbright ness
T ARGET
ĠH ugh
ĠR idge
Ġrender er
m itting
Ġin set
Ġrecon structed
Ġd ancing
ag greg
Ġprogram mes
Ġinvestig ating
Ġab ortion
display math
Ġaddress ing
non atomic
Ġbare ly
Ġb ell
f av
ĠMun ich
size i
Ġimport ed
it zer
Ġquarter back
form al
Ġcop ied
Ġpract ition
Ġ$ ('#
em e
Ð½ Ñĭ
Ġmart ial
ch annels
Ġobserv ational
ĠI SO
ĠY ellow
B ank
ĠGL enum
Ġassist ed
S IGN
(" <
sc all
Ġple ased
18 71
M G
ĠP UBLIC
Ġcross es
gener ation
Ġl ambda
Ġsm oke
H ex
art et
ud o
Ġt ent
he v
ge om
ific ant
ut ers
Ġevery day
Ġc oding
Ġimplement ations
Check er
k u
0000 000
ĠHit ler
Ġsc iences
G LA
un ate
=" {{
Ġco at
Ġ(! $
hem atic
spec ified
Ġpoll ution
ĠĠĠĠĠĠĠĠĠĠĠĠĠĠĠĠĠĠĠĠĠĠĠĠĠĠĠĠĠĠĠĠ ĠĠĠĠĠĠĠĠĠĠĠĠ
P rior
Ġ" (
Ġann ih
Ġpre vention
ĠAnd r
M ary
l st
Serial izable
c in
Ġtrad itionally
L ess
Ch apter
Ġchalleng ed
Ġb ins
Ġcre ator
" =>
14 9
ĠLeon ard
Ġple asure
l iteral
ĠĠĠĠĠĠĠĠĠĠĠĠĠĠĠĠĠĠĠĠĠĠĠĠĠĠĠĠĠĠĠĠ ĠĠĠĠĠĠĠĠĠĠ
Ġ\ }$
ĠAbb ey
Ġeval uating
Ġpoor ly
g ui
v or
ĠSch w
T our
ian ces
Ġlo ose
Trans lation
k an
top rule
Th rows
ĠJ ar
b ur
Ġbank rupt
ĠAir lines
Ġwild life
MS G
hash Code
ĠI BM
Ġcon greg
ĠF oster
ĠG ov
N ested
m un
... ]
Ġrecall ed
Ġf ate
ig m
ĠM R
ĠEx cell
Ġserial ized
ĠA ber
itor ial
ĠPalest ine
Ġexp enses
ĠSo on
Ġtour ist
ĠL an
Ġdep recated
numer ic
pre view
Ġfriend ship
Vert ical
+ "
OP EN
ĠA UT
Ġpart itions
Ġdef erred
Ġpresent ing
W ater
Gr and
Ġdecor ated
Ġap par
Ġter rible
Ġprem ium
Ġadv ances
Ġto mb
Ġrow span
Ġres erves
Ġton ight
Equal To
ĠWork ers
ĠR C
jet brains
am ation
P ac
ĠU nd
Ġsub tle
Ġtom orrow
P ars
Ġt rem
ĠTr ain
Ġin variance
================================================================ ========
Ġun ions
ãĥ ¼
ab is
act iv
C ert
15 6
ĠPhill ips
Ġattr action
ct l
Con version
Ġun changed
ĠCan al
ter min
Al umni
Pl us
Ġcou p
ĠStr ucture
ĠPet e
Ġaver aging
ĠArt ists
Ġbacter ia
ĠM aced
Ġtoler ance
m x
PROP ERT
ĠB io
Fil ters
ad vant
Am ong
She ll
R outer
\ ":
T ables
con j
ĠCl uster
Ġlearn s
re b
sl ashed
B and
Ġx si
ĠGerm ans
ĠP anel
b ibli
p q
Sh ift
ugg ed
Ġlog s
Ġprefer ences
Ġd ash
Ġan notations
tra its
Ġsoci eties
ogn ition
Ġconsider ations
ĠR F
}] $
B G
Res olve
Ġaffili ated
Ġed itors
M ex
ĠL is
ill es
ourn aments
Ġtal ented
lect ric
ut o
FLA GS
L ev
ff ield
Ġcol ony
Ġtw isted
Ġn ose
Un lock
Ġaut onomous
ube let
w x
ĠP ars
ĠSt ef
Ġsub stitut
ĠC elt
DE LETE
ĠLiber ty
P t
ener ate
Ar n
Ġn inth
F IN
ĠS yl
iv ot
}} ^{(
Ġ/// <
Ġbi ography
LP ADDING
n io
ape ut
Ġcomput ations
section s
Ġdistinct ive
ĠBy z
Ġcogn itive
ĠL IMIT
ĠEn try
Un ion
add y
ĠF at
gr av
Ġle ts
Ġn ut
ĉ ĠĠĠĠĠĠĠĠĠ
Ġcharacter ization
mid t
Al ert
ĠPen insula
ĠR achel
ĠCl iff
ĠBenn ett
Rep ublic
R pc
ĠW E
Ġfight ers
ĠB A
Ġpack ets
ĠFant asy
ĠHe avy
UP DATE
Ġun con
ĠMar x
Ġl ov
18 77
N il
per formance
sup p
ĠAb raham
d og
Ġpro jections
ĠZ hang
iber n
Ġparam etri
ĠG ene
oc on
ov al
Ġm im
ĠB rowser
Ġfix ture
ur ated
flu ence
Ġb ills
Ġk iss
ĠBudd hist
ĠCEL LSP
ĠCELLSP ACING
) ?
ĠSt uart
Ġper ipheral
14 8
ĠLuc as
ĠCEL LPADDING
i pt
ar in
2 64
Ar row
Ġcontext s
Ġlux ury
40 1
rel ax
ĠÐ ¼
Ġoptim ize
Ġad mission
Ġplay off
t cp
ers ions
Ġse q
qu ick
Ġper f
Ø ³
Stack Trace
Ġem otions
dec oration
ĠD anny
Ġpat ri
18 67
18 72
Com pute
r ink
sc apes
15 8
s ess
Ġb eneath
Ġch ances
Ġse aled
Ġobserv ables
Ġhop ed
Ġafr aid
Ch inese
umb ai
mathbb m
Ġproof s
ĠN ancy
ĠN g
bo ys
Ġsuperv ised
ĠPh ase
ĠA F
S heet
ĠN om
oph one
MA G
ĠPers ian
ĠArn old
Ġf ires
ĠSp encer
36 5
pol ar
ist le
und ef
Ġcol ours
Ġdiplom atic
ĠP av
Ġdis ks
Ġrout ing
Ġorig inated
ĠR uth
Ġatmos pheric
p ine
vel t
ĠInter view
ĠSh adow
E nergy
G it
it us
ĠM ills
ĠE uler
3 75
Ġt ips
Ġn od
Ġsw ap
Ġ| ___
Cl ause
Ġthrow ing
Ġkey word
pred ict
Ġlegit imate
* .
ĠS or
ber ger
ĠAn cient
Ġg aps
ok o
M U
it ations
MP TY
ĠD oll
Ġr ice
ij k
Ġir regular
r ically
at ra
Ġin clusive
: &
Ġlif estyle
Ġwe igh
V s
ond e
Ġmanufact ured
} ],
ĠOak land
Ġm ast
ĠZ ero
Ġmob ility
let ion
d id
Ġdr ain
ĠB P
get Key
Com ments
ĠJer emy
ç »
Ġsum s
ĠH amb
× Ķ
Ġc attle
Ġor chestr
), (
Ġarr iving
Ġattack ing
cs v
18 74
Ã¡ s
Ġtransform s
Ġcohom ology
V T
Ġ ions
m agn
Ġ" --
ocol ate
inter action
Ġingred ients
bro ok
im an
ĠHug hes
rele ased
ĠPack age
Ġem itted
}} -
Ġdec oding
Ġwork shop
ar as
set length
Ġre forms
ĠF R
Ġe leg
ĠSp ider
18 68
Ġsign atures
aff e
ĠSh ared
Ġexp ense
ĠCr iminal
Comple x
ĠRon ald
Ġsh aped
ĠP ont
G al
text area
Co ord
un ting
Ġdim in
WARN ING
^^ ^^
Ġoscill ations
r ab
ĠB ach
ĠGro ve
ĠPro blem
Afr ican
Ġ( ((
ĠTh under
ĠInitial izes
Ġbi ology
Un able
v iol
com puter
S and
Ġin ches
im en
n ested
ing o
ĠIn novation
ĠPro of
18 5
Ġreg ex
Ġhum or
Ġaccompany ing
ĠC oul
Ġab elian
ĠMus ical
Ġenorm ous
qu ark
15 4
ĠFl ash
Ġp c
Ġgenu ine
Ġ\\ [
x sd
Vis ibility
ĠS EC
Ġimportant ly
ĠCommunic ation
v ance
Ġconnect ivity
Austral ia
Ġtor us
2 12
Ġc f
D ash
Ġsc reens
ĠGl ass
Ġferm ions
Ġcycl ic
è ®
col one
Ġearthqu ake
Ġ{ !
ĠClar ke
S ol
Ġdiv orce
ĠHar per
ĠLeban on
Re ceiver
Ġs its
big skip
Ġlo ans
c id
um m
Ġvol unt
Ġ* _
Ġper cussion
man uel
m ixed
è ¡
Util ities
h art
tr ation
22 2
ĠChap el
c amp
ĠC ould
T ip
au i
Ġsub t
her o
S aint
Ġmod uli
Ġrig id
sen al
Person nel
Ġcart oon
ĠReyn olds
Int ent
R X
ĠY ale
ic ism
ik ing
T OP
Ġad apter
in ely
ĠGreg ory
Ġs ou
Ġbroadcast ing
Ġcounter part
re ply
Ġmiss ile
ĠR oche
enc ia
K O
Ġsymmet ries
________ ________
Ġ@ {
ĠAd elaide
* >
Ġin fe
ĠS ah
W C
ĠC atalog
ĠE ld
ĠBl ake
Ġsculpt ure
ĠJul ian
H ung
Ġcorrect ed
ĠCo ach
ĠDirect ory
Ġinaug ural
ĠCroat ia
ĠR af
Ġhom omorphism
x rightarrow
vers ions
Ġsurve illance
IC K
Ġmer ch
ĠCh ern
OT TOM
Ġair line
Ġl uck
Opt im
D ER
Ġconstruct ing
Ġresource GroupName
Dan iel
Fr ance
ĠPref ecture
Ġl ady
Ġpat ches
DI RECT
spec ies
[ ];
Ġre nown
ator ies
ena issance
Ġsh ar
Ġexpl aining
ĠAdvis ory
f eld
/ $
Ġdesign ers
H aving
ĉĉ čĊ
Ġt ear
Ġsec ular
Ġred und
ĠLat ino
ĠY uk
IF T
m achine
ĠK ash
}} +
Att achment
ĠS ometimes
Ġp ale
Ġle ase
F LOAT
Ã± a
is en
Ġprodu ctions
Ġcon ce
Ġh o
Ġend emic
ĠChar acter
Ġjust ify
ĠOt tawa
g ement
big oplus
Ġ ].
ke es
ĠPlan et
> /
C ss
Ġpat ron
Ġen force
| }{\
Mod al
Pred icate
H ide
Ġa u
Ġattr actions
Ġax es
' "
B a
uck ets
ĠS old
st mt
Ġcap ac
Ġsub mission
Ġtr act
ĠGener ation
Art ifact
Fat alf
Ð½ Ð°
Ġexplo it
ĠBre xit
ĠC ord
ĠAssoci ate
Ġval ued
Alloc ator
Ġalph abet
}}\ \
v b
be it
const ants
L if
Ġx hr
}| ^
Ġconduct or
O rient
) /\
he ets
on er
form ula
yl um
ĠIN T
Ġbl ame
ĠEm ily
ar ations
D ark
ĠP ain
ob ar
4 80
sc or
play ing
Hand lers
ĠM ul
Ġa ster
ĠNew castle
ess a
pars ed
Sign al
Ġhistor ically
Ġm anga
AME TER
---- --
Ġam endment
h orn
ĠH ousing
Ġno isy
im plementation
Ġtreat ments
Ġgr ateful
18 73
string ify
Ġz ip
ĠSet tings
Ġf t
b az
Ġend points
ĠLIC ENSE
the se
Ġc ry
Ġsl aves
N F
R D
ĠFour th
ĠDis covery
ĠB lo
Ġare na
St mt
so lete
IC S
ond o
ĠBay esian
IT S
Ġeditor ial
18 40
Ġmyst erious
J ournal
20 6
Me asure
Ġc s
_{ {
ĠShang hai
Ġprevent ed
get Text
Ġviol ations
Ġexecut ives
Ġcompl aints
Mix in
be am
ling ton
ingu ished
Ġatt achment
Ġw orn
Act or
Ġsuggest ions
work ing
ĠSerb ian
h ydro
r ice
Ġd ish
k ill
mes h
ex clude
ĠR TC
Ġfl our
ĠPl ayers
ĠTre k
Tok ens
ĠHer bert
Ġtr apped
CON NE
MLE lement
Ġsophistic ated
ĠST AT
al am
Ġprevent ing
abul ary
/ %
Ġw ard
Ġref ere
Ġpack ed
h im
ment al
Con struct
Ag ain
Ġdist ribute
Vari ables
is co
Ġle an
Ġpre view
H ouse
Th ank
ĠMe eting
ĠHar bor
ool s
oper ations
Spr ing
Ġph ones
' (\
] _{
Ġsub graph
Ġpair ing
Ġfarm ing
ĠRod rig
ĠColumb us
ĠG ilbert
Ġunder go
no frame
ĠG ate
ra ising
od ash
ĠR ey
ĠN ak
ask at
30 4
ack ing
Ġevolution ary
Comm ands
Ġl azy
ĠR ams
Ġd Ã©
EO F
Ġst er
ĠNe uro
Ġsingular ity
idel ity
H PP
Ch ris
f its
ht bp
ose velt
ER Y
PAR AM
ach ers
) ~\
ĠComp etition
Ġexc av
Ġdiscre p
11 11
Ġthr iller
Ġelev ated
Ex change
Ã¼ n
ĠVen ice
d type
un i
Ġch apters
GRO UP
Ġsurviv ors
Ġt uning
ĠCong o
Ġbur den
iz ar
Ġspeed s
min imum
17 6
ĠInt el
C y
Ġw age
compar ison
Ġembod iment
Ġe cc
ĠDown load
other apy
Ġvol atile
ple te
Ġsimpl ify
Ge o
Link s
em p
Ġhom eless
J ud
ĠMar io
J on
R N
Ġhad n
Cl osed
Ġn m
Ġo ps
Ġb ootstrap
Ġh ur
Ġmanif olds
Ġqu arks
ĠWall ace
Ġgl ad
ĠSt ri
Ġbranch ing
E mitter
ĠStr ong
found er
ĠAdd s
Ġbus es
cut s
ĠEdd ie
er ie
Con clusion
ĠJo an
Conf irm
Ġsub tract
U r
Ġart work
Ġcurrent s
Ġ< ?
ĠJul ia
ĠMax well
est rian
ĠTh r
ĠN y
Ġtreat y
quant um
G AN
IS H
Ġback end
Ġsett le
Ġed itions
bottom rule
Ġc ele
ĠAl ger
heim er
' =>
Ġd ressed
Ġang ry
ĠTem plate
{ }{
ĠTechn ologies
Ġab ort
Ġcyl inder
pr ising
fill draw
st ellar
ev t
\\ \
andid ates
Ġscatter ed
ĠLi u
Ġincred ibly
ĠProdu ctions
al go
ĠUE FA
ĠS oci
Elements By
Ġ===== ===
Ġaccess key
Ġconstit ute
serial ize
Ġn ights
Ġtour ing
ex ist
Ġmod est
ab b
Ġcell ular
PRO TO
c x
à ¦
e lected
Ġ )$
he size
ĠM az
ĠAl t
Ġg amb
ob y
ĠCl ick
Ġlegend ary
Ġm ood
Ġ} $
Ġindex ed
Ġconvers ations
Ġflex ibility
H o
P atch
Ġcontin uation
ph ant
Ġstep ped
Ġbenef icial
alyt ic
ĠV M
Ġdem olished
Ġhol omorphic
el ist
ur istic
Ġk iller
ĠTh an
18 66
ĠStat ement
P oll
g tr
Ġsav ings
ĠC raw
iz ens
Å Ľ
ors ion
L ee
mat ched
Ð» Ñı
ibl ical
ĠF oo
Ġcol ored
grad le
Ġautom ated
Album s
US Y
Ġcoll apsed
Ġicon ic
Ġpl ates
Ġfif teen
colone qq
La unch
Ġhomot opy
Ġexpect s
Ġ( );
Cl one
ĠPark s
Ġpoly mer
}) }\
up iter
Ġnucle i
ĠAmb assador
but tons
Ġer g
raise box
ĠAzerbai jan
row ing
conv ex
Ġterror ism
olec ular
PO INT
Ġreg isters
ĠC K
Ġw ishes
ĠA bs
ĠR ou
In clude
Ġdis pers
ĠAl pha
In her
Direct ive
system s
Ġdemand ing
ĠW ag
Ġsk ew
!! !!
ĠL amb
pr us
15 9
Ġdir ty
é Ģ
are l
ĠR PC
d an
Academ ic
Q UE
ĠM eta
ĠG M
clos ing
Ġpy thon
lef trightarrow
air y
Java Script
ext ype
() ]
t ls
Ġgeodes ic
at ype
cr im
O H
Key words
N s
inner HTML
C le
å ľ
Ġsymbol ic
Ġ( {
Ġrun ners
cont rolled
Ġy ard
+ $
ĠT D
Ġcapt ures
Ġdec imal
+ -
ĠN intendo
ĠWood s
( %
> ');
ĠGal actic
}^{ (\
go al
b ay
act ivate
M u
Con flict
Ġ! (
Ġm a
ĠN ear
ĠG ang
): =\
ĠL if
Ġrobust ness
Ġd ots
Ġsim ulate
__ ["
Ġ{ })
Typ ed
ov sky
ĠMil waukee
Ġc ipher
Reg ex
VER R
Can ada
m ak
) ~
Ġh ung
a verage
t ick
Ġ iv
Ġg a
Ġcon cludes
Ġal arm
Ġk nee
unc an
æķ °
Ġbe ars
ne ed
g gle
Ġn erv
Res ize
G od
ed ly
Ġsp ont
ĠSl oven
ĠRoman ian
In c
ht m
TE GER
ĠArch itect
Ġisol ation
(' ../
Ġexponential ly
r ating
ĠMont gomery
a uc
Ġqu it
K im
R eq
or bit
RE C
ast ore
Ġset Timeout
Ġmort ality
ie u
K EN
ot he
Ġra ises
Rep ly
Ġout lined
Ġd ock
O G
- ,
I ts
Ġcomb ines
I LED
Ġre un
Ġpregn ancy
ap or
ĠFl ow
spl ice
ĠC WE
r ors
16 7
P OL
` :
ĠCon vers
Ġthr one
ĠPhys ical
[ ],
B razil
fr astructure
" ])
ĠTh ai
sc ene
Write Line
w yn
Ġd jango
Ġshut down
Ġcalcul ating
Ġpal ace
os er
Ġo w
ap prop
Ġin complete
ĠW riter
is ol
Ġa z
ĠTy ler
}} +\
Ġdip ole
Ġpl ugins
17 7
Ġanth rop
Ġsubstr ate
k el
end region
5 50
pro ach
STAT IC
ĠPhilosoph y
Ġ} ));
Ġprov inces
'' .
Ġg fx
: **
ĠL oss
ex c
ogen ic
im on
um per
ĠAll ow
ĠLe eds
S to
comm ut
ĠR ice
Ġav iation
Ġref in
Ġalt itude
w al
ĠSt ack
Ġk ern
Ġen roll
mark down
Red irect
ĠHar old
correspond ing
Ġo c
jack son
Ġpredecess or
riter ion
comm ands
Ġpress ed
Ġa fore
AB C
ac iÃ³n
ĠSet up
ĠEm ma
ĠD ifferent
ĠS ter
Ġ# #
leg iate
ĠS eq
Ġsent iment
ĠQu estion
ĠSocial ist
ac ements
ĠIn fo
NotFound Exception
Ġgard ens
per mission
pol it
ĠM otion
F X
Î »
Ġstay ing
ordin ator
DO WN
Ġf ame
sc atter
Ġansw ered
A IN
ĠThe od
Ġj er
ry s
itt en
Ġrecip ients
A mb
ĠDec ision
pack ed
Ġl ane
Ġpass ive
ĠSp ot
Ġfif ty
DIS ABLE
ĠPal mer
ĠC IA
Ġreal ization
node Type
Ġim pressed
Ġr iders
Ġid s
Ġrel ativistic
Ġm ere
ĠS ou
Callback s
Ġclean up
x d
ĠS ullivan
ĠAv ailable
node Name
Ġwe aker
Ġent ert
get Property
Ġaw esome
b usiness
id ually
Ġmot iv
ĠAng lo
Ġp ink
bor o
Ġtra its
Ġpun ishment
ĠR M
Ġnob ody
prevent Default
K nown
Ġtransl ations
T urn
Ġtrav els
Ġpro sper
Ġar ithmetic
N ING
g ot
ĠE ST
std out
ress es
Ġdescend ants
Profess ional
ct ree
ĠSo ft
NO WN
ĠEncycl opedia
erm al
ott ing
Ġm ines
At l
Ġdraft ed
Ġveter ans
yst yle
Ġpres erving
Ġaccording ly
ph oto
mod ifier
cur r
Ġcommut ative
ag ic
Att ach
Rel ation
c ock
ĠL iga
Ġencour aging
Ġst reak
ĠD h
g ro
Ġmand atory
ĠS ak
Ġneur ons
Ġafford able
4 000
ĠN ATO
ĠP sy
Ġv in
Ġlink ing
Ġto ll
Ġcomm une
Ġstri kes
Ġst ret
CON F
Ġbar riers
Ġ/ ></
ep per
18 48
C U
r ag
pe st
fil m
Ġtarget ing
V ir
Å Ļ
M oths
Ġin ad
Ġachiev ements
ĠG az
Ġb uff
qu o
Ġnucle us
Ġsl ower
IR T
Ġl icenses
Ġrad ii
arr ison
Ġsimple st
ĠBroad casting
Ġemploy er
ĠAL L
}$ ;
in z
}} _\
ĠE R
I o
Ġtri ps
Ġoverwhel ming
oca ust
Ġher oes
moment um
ass o
ĠG amb
Sw ed
ĠIda ho
v ation
ark er
Off ice
Ġdem o
Ġfor wards
man aged
Ġabsor bed
Ġre lying
Ġs ang
Ġex empl
ĠÐ ·
ĠTr uth
Ġdual ity
â Ħ
Ġmind s
resize box
alth ough
stream ing
ass et
ĠE ve
Ġcomp ressed
Ġadd itive
Ġund ers
orient ation
Ġsc ar
Ġpil ots
ur as
Ġsuperv ision
Ġwe aken
Ġw ound
Ġrel ates
ĠCamp us
Ġemp ire
Ġdefin ite
Ġre nov
harm onic
y ellow
Produ cer
18 69
RO C
B re
ĠCond ition
ĠP rest
TH READ
Ġparse Int
ĠB ak
A ust
T oggle
ĠObl ast
Ġh ull
Ġre actor
Ġillustr ation
Ġup set
Ġsal ary
âĶ Ģ
Ġrec ycl
Ġgovern ance
assert False
Ġindic ation
ĠBulg aria
ap a
Ġcur riculum
Ġdead line
shall er
B on
im id
ĠNorth west
A ge
Get ter
Start ing
Ġrele asing
V S
Json Property
Ġint elligent
ĠCon v
Ġtrav ers
ĠLet ter
Ġb ra
ĠHer z
ĠHer ald
m itt
ĠD ATA
d h
st ead
ĠH ub
Ġpres erves
ST EM
b ars
Ġvic inity
W ire
}] \
up les
Ġm ari
ĠB inary
Ġfilm ing
s ymmetric
V oid
aw i
Ġadv ised
Ġastr onom
ĠS ang
Ġaggreg ation
Ġch ore
Ap pe
Recip ients
0 10
arn ess
User name
Ġcoinc ides
ĠImp act
F all
aged y
Ind ices
Ġdeliver ing
Ġresearch er
Ġwant ing
ĠCard inals
ĠG ent
ĠCon cert
Perm issions
r k
Ġh alt
_{ (\
duct or
al ways
Operation Exception
Ġtr acing
ĠCab inet
wik ipedia
ĠH av
ĠO w
âĢĿ )
Abs olute
fl ink
W ashington
Ġnumer ic
ĠSum mit
H it
ĠB irth
ĠCol lect
Ġintegr ating
Ġhot els
Ġ" :
Tag ged
Ġconsequ ently
Ġdrum mer
pro per
Ġcounter parts
Ġg otten
aut orest
Ġdat etime
Ð½ Ð¾
ĠCon sumer
Ġepoch s
C odes
++ ++
23 5
Ġavoid ed
cu ador
Ġex tern
Ġconc aten
w ent
Ġpron ounced
Ġcollabor ative
Ġfaith ful
m ile
r ise
ros so
ĠE ight
ĠR us
ĠInvest ment
root Scope
or f
00 4
Ġsil ence
Ġd ys
Ġas ymmetry
ĠCour se
Ġbad ly
ben ch
ĠD y
Ġrepl ied
B OOST
b id
ĠS erv
u o
Ġdrop ping
ĠM ig
get Time
Ġfoss il
Ġb ol
Ġr am
}\ )
Ġprof its
um ably
Ġv anish
ul in
Ġsuccess ive
Ġneutr inos
ish i
A mazon
Ind icator
Arch ive
16 2
R eb
st ub
ĠSc ar
ĠC I
ĠP ART
ĠPar ad
-------- ---
Ġtest imony
D ot
Ġspec ifying
ex tr
Ġconcentr ations
open ed
17 2
Ġv ig
Ġul tra
Ġecc entric
ic ia
Ġrot ational
9 78
With in
ĠNor folk
18 30
SE C
g b
Ġf reed
Cal cul
ĠClin ical
ĠArm ed
n ell
um ble
seud o
Ġpres ervation
Http Request
im ag
Ġac ute
ĠMarc us
Ġtre ating
aur us
Ġcoinc ide
ol esc
00 7
g ue
AD DR
Ġgu ided
Ġpitch er
s napshot
Ġanticip ated
ign ite
Ġcont ested
Ġlie utenant
ĠS ig
Vis it
ĠC inema
Ġw is
Ġun lock
Ġbackground s
Ġcount ed
Ġinf ected
}$ $
ĠBet ter
Ġdel ays
Ġdemonstr ation
ĠB B
Ġdoc s
Ġll vm
6 50
Ġan ce
Ch arts
> ';
T s
Na N
ĠN P
Ġcro ps
Ġcon spiracy
Sim ilar
" </
E t
j ournal
Ġb ab
Ġar rows
Ġb rowsers
em ia
ĠD aw
30 1
Inv ocation
Ġor n
g ary
Ġjournal ism
ĠG em
Ġadminister ed
M ah
m v
Ġcommand ed
ĠU C
ĠHe at
Ġqu otes
ĠQ uality
ĠCh oice
1 200
ĠD in
ĠJ oin
Ġcivil ians
\ }}
G erm
Ġ( <
ĠSD K
Ġthere after
sl f
Ġcitizens hip
ĠM IN
Ġrenown ed
Cred it
L U
}, \\
Ġde ce
min a
ĠSet ting
Ġf ulf
Ġcapt ion
Ġrock et
hen e
ju ana
Ġh ills
Ġto ggle
u pe
ĠN ine
bibli ograph
z ig
Det ector
Ġrob ots
ĠSher iff
al ong
ĠM ask
Ġch rome
Ġd type
Ġh i
ert y
y ang
Ġsm oking
ĠP rec
ent on
ĠB ug
RET URN
ĠTerm s
Ġrid ic
Ġafore mentioned
ĠIter ator
Th ough
he nd
to k
Ð¾ ÑĤ
Ġball ot
Ġcyl ind
art icles
Ġexp ans
copy right
ĠP att
Ġland mark
integ ration
c url
y arn
anc ies
ĠUg anda
ble ms
ĠQ String
Ġbomb ing
A CTION
ĠG uild
Ġinfer red
ĠIP v
ĠAssoci ated
Ġt ournaments
Ġparticip ant
bibliograph ystyle
ĠEvery thing
I MAGE
Ġle ver
Ġenhance ment
ĠAh med
U TE
ĠR ever
ĠIn stance
control s
F K
Ġvari ational
hel m
Ġjud icial
æ Ĺ
ĠR an
ĠK umar
ĠProgram me
Ġnorm s
In side
ap id
[] )
ĠTrans form
ub ect
ĠAng els
Nd Ex
ield s
E ll
ĠSp ark
ĠS ans
Ġ" ")
ack now
Ġprox imity
f ri
Ġr amp
Ġlong itudinal
or um
out line
yl an
Do ctrine
ĠSpe aker
Ġmod elling
names e
ĠD ame
conf irm
Ġen rolled
Ġs word
ĠTh ir
ĠFellow ship
s ix
Ġde alt
ĠO thers
Ġsever ely
Ġtrans mit
P AC
Ġm ice
ĠS uff
ast ian
Ġdig its
ubect l
w y
GLE W
Ġn inet
ĠS DL
ĠVol unte
ĠAn imation
ĠRo osevelt
Ġpredominant ly
DE P
dat as
-------- -
Ġstrong est
Ġle agues
ĠBrook s
Ġcontribut es
Ġep it
ĠTo o
Mart in
Ġindu ce
or ic
CT RL
ĠA ve
âĢ¦ ]
h dr
Ġp unct
ĠMet al
isb ane
udd y
sc ribed
ro e
fin ish
We ak
all ed
Ġre bell
{- }
R endering
Ġby pass
Ġmetall icity
30 2
ĠR ah
ang ered
Ġg aining
Ġdiscuss es
Ġnormal ize
ot yp
icy cle
ĠGard ens
L y
Ġwrit ings
rest ore
Ġcer emon
Ġtum or
ĠPeters burg
F W
ĠT ell
24 5
Ġt et
Ġdefend ers
R h
Ġhe ap
Res olution
ST O
Ġab oard
Ġd upl
Ġbelong ed
ĠRE G
b org
ĠPr ison
L es
Ġrec ursive
c atalog
Ġcomplex es
I EEE
d g
Ġmer c
roll ers
former ly
ph al
AS P
Ġl iver
Ġdemand ed
ĠEr nest
capt ure
Ġdiv isor
Ġc iting
2 32
Ġconsult ant
Ġun set
ĠE ye
Ġsp anning
H int
16 1
ATTR IBU
ion ic
ag ain
Is Null
m ans
Ġport al
parent s
Ġwor ried
Initial ize
ig roup
Ġl y
se ver
Ġinf antry
C atalog
Ġtrans ient
Ġsec urities
Ġexceed s
ĠCal endar
ym atrix
Ġgrad ed
Ġwitness es
ĠR ather
io x
eb ox
with in
Ġfro zen
Ġh anging
pl ots
Dis able
Im p
ĠBr isbane
Ġapproxim ations
Ġprest igious
it ic
ĠL oop
ov ic
á ŀ
Ġcor rupt
ĠIs aac
ĠÃ Ĺ
N OS
ÐµÐ ¼
m ms
ON LY
Ġcust ody
man ifold
View s
Ġfor ty
ull ah
icens ing
g age
}; \
ĠId entity
$ }\
ĠU ntil
r ans
fl ux
nit method
ct ors
ĠRay mond
Mean while
Ġreason ably
ĠJ in
Ġerect ed
al in
re ction
ass er
Ġap olog
Ġret reat
ĠR ac
Ġdown stream
ĠAll oc
Br anch
18 57
v t
$ =
R etri
ĠAct ivity
Ġsan ctions
ĠO wen
Ġperform ers
t ec
Â ½
k now
] \\
te le
Ġsur f
Call ing
Ġfle w
Ġdef ended
Ġsquad ron
ĠT as
Ġsc ream
Ġhon ored
Ġtox ic
Ġan xiety
ĠDe al
associ ated
it atively
ĠHol mes
Ġb undles
GLA PI
ic ans
Ġodd s
ĠIraq i
ĠWIT H
I sl
ĠChel sea
col ors
Ġro ok
Ġcha os
or p
Pay ment
pre ced
Rel ations
Ġtechn ological
Ġnation wide
Ġshel ter
Ġunder graduate
list en
ĠIn stitution
Qu ota
ENT S
F G
Ġs ung
Ġrem n
Ġcour age
Ġbeat en
ard i
Ġdisappe ared
D X
ĠBro s
C AR
GL enum
zh ou
ĠC AN
pl iers
You ng
Ġsla very
ĠUp dated
n ick
che z
ĠMan uel
× ¨
Byte Array
Ġre built
role um
ĠM umbai
Ġdat abases
Ġp t
Ġmark ers
Man aged
it ars
W O
Ġli ability
ĠCheck s
ular ity
~~ ~
Ġun successful
=' #
ĠPed ro
en es
Ġpro found
Ġrele vance
On line
s ender
ĠL it
ĠB ened
Ġ' [
mix in
Ġsem antics
ong ue
ĠP ink
Ġcont our
ĠDirect ors
ĠIn side
p ared
Ġconsum ed
Im plementation
ĠV ision
Ġcompr ised
Ġd ummy
ell ows
ĠArmen ian
Ġfeed ing
ĠShe ffield
Ġamb ient
O ps
log y
Ġcharacter ize
ĠGab riel
ĠJ ung
Ġemploy ers
Ġr m
18 43
Ġrespons ibilities
' }),
ĠMar shal
pro port
ĠCont roller
Attr s
EN S
Ġreloc ated
18 7
Ġsm ile
Ġcorpor ation
ĠM om
con tract
ement ia
Ġto b
Ġweak ness
End points
Ġco res
Ġbe ings
ha o
IF Y
% );
P ot
Ġb ail
Ġ$ -\
Ġp ig
Ġdiscipl ine
n or
Start ed
Iss ue
Ġsp iral
Ġenc rypted
com put
ĠRh ode
18 59
ĠRE AD
ĠIniti ative
16 3
Ġin ert
ĠL ik
Inv oke
Ġw ore
Ġlift ed
ĠP P
Pro b
Ġobtain s
y u
Ġn aming
Ġtour ists
Ġtrav elling
Ġperman ently
ĠF lo
S a
ĠHe aven
g uid
ct uary
ĠW ald
le arn
ĠM aking
the ir
ĠM ouse
}{ !
SE D
ĠF ail
Ġanten na
at em
AC CESS
Ġsong writer
Ġline up
Ġh ierarchical
ĠGu id
ĠTom my
Ġemphas ize
Face book
Ġconjug ate
s ens
ĠCre ated
* (
Ġarchitect ures
Ġinstitution al
Writ ten
ĠS weet
ĠA part
ĠW ire
Ġpresc ribed
D ead
Ġconscious ness
Ã§ Ã£o
ĠR isk
Ġver se
h it
F red
ĠF an
Ġ" +
IS O
SD K
c aret
ĠD NS
Ġan ch
NUM BER
Jose ph
18 2
mod ern
ĠWest minster
Ġsett lers
ĠB U
Ġprev ents
b road
Ġc ant
ĠT aking
Com posite
Ġp orn
Ġprop ri
R TC
ĠO m
USE D
respons ive
Ġl ucky
ĠPat tern
Ġh ooks
url s
DEF IN
Ġchap el
Ġsqu ared
ĠM ik
charg ed
ple t
ĠBrad ley
p ix
con sum
Ġcontribut or
ĠInd igenous
ack er
ĠParliament ary
orne ys
min imal
Ġpra ise
ĠR enaissance
ur ious
M ale
Ġun ified
ĠProtest ant
? </
f ollowing
ced es
> ',
ĠL ayout
cl ipse
J un
ĠDom ain
F atal
Ġcl an
St rip
ĠWar riors
Ġload s
Ġ( ).
Ġtrust ed
Ġpick ing
Disc ography
er i
Hon ours
ĠL ak
ĠCol in
n ut
G UI
ĠG ust
Ġrefer endum
ĠBut ton
{ }\
Col lector
Ġlegisl ature
ev olution
ĠE mail
Ġam end
ĠEag le
il iation
ĠCom mercial
Ġide als
und ers
Direct or
ch arts
ab we
Ġdo zens
Ġ( .
ĠCy cl
] ];
inter op
ĠArt illery
Ġcomp ly
Ġgrad es
Ġtrail ing
ĠEll is
ĠSh ir
ip es
Un its
ch air
IC AL
CHAN NEL
Ġd uplicate
Ġg ig
West ern
Ġgu ards
Fl ora
ĠDur ham
ĠBO OL
ur bs
}) ^{\
Medal ists
ĠOr lando
tt es
Ġsl ip
ol in
Ġthere in
ĠR ES
Ġglob e
VERR IDE
ĠChe ster
ess el
Ġbl end
on so
ĠN amed
ht b
Ġtrav elled
Ġab brev
Ġre interpret
Ġaccept ing
Ġz eros
Ġm eter
Ġkid n
Ġappar atus
IT ER
* }\
Ġform ations
Tax a
th in
Ġdram atically
ĠA ub
. (*
Ġst upid
ott ingham
Ġinfr ared
-> ]
C ached
abil istic
stitu ency
ID s
ed e
ĠF erg
Ġcons erv
ĠCap itol
). $$
Ġterm inated
esc o
phys ics
Ġexhib itions
Ġlic ence
Ġdraw ings
Ġearn ings
å Ľ
Ġl on
Ġres ume
en za
Ġche ss
ĠHen ri
ĠUs ers
Suppress Warnings
Ġleg ally
Ġbott le
May be
ĠMult iple
Ġresign ation
ar u
ĠMod els
}) :
reed y
f urt
ag le
ch anging
ĠR S
Ġstrugg les
ĠKn ights
loc als
ro gate
Ġvar s
ast ics
at is
Ġpol es
Err s
un al
Ġdesign ation
Ġindex es
ĠK as
Ġlocomot ives
ĠS ame
ĠRel igion
23 4
Ġclass room
Im plemented
Ġt ier
oy le
sm ith
g as
Ġp unk
="@ +
ĠCo q
Ġreport ers
ĠArch bishop
en i
ĠC ec
ĠS ustain
we i
Ġround ed
ĠObserv atory
Ġcol lector
ĠApp ly
ĠMov ies
ian e
Ġmem oir
Ġcare ers
C LE
ĠIndian apolis
Ġun used
ĠGrand e
++ ]
Ġpod s
Ġd ans
ĠH ur
3 80
x l
IN PUT
, }
M ike
ĠHe ader
GEN ER
q ed
ĠEn sure
po i
os cal
Ġco arse
ens ely
Ġfood s
Ġa thlete
ĠP owell
Ġke V
ĠMc Donald
P ull
Ġinter change
Ġdiagn osed
iffer ential
Ġfasc inating
Ġso ap
Clos ure
F inder
Ġbe aring
Ġrep o
ĠPract ice
ere k
D istrict
M Q
b rit
ĠW inds
Fr anc
- ">
z el
ĠN uclear
ĠPrinc ipal
ĠP ush
ĠB ears
ĠAn imal
Ġstreng ths
p ick
ENT ER
å ¼
aceut ical
x a
Ġqu bit
Ra ises
Ġpost er
Ġnob le
ĠM ine
ĠL or
Opt s
Event Handler
Ġproto buf
ĠCh an
der iv
ĠBr ussels
habilit ation
M ic
Get Type
ĠMic he
Ġsol ver
ĠValue Error
Ġwork shops
load s
ĠV e
Ġk ills
ĠâĢ Ŀ
^* (\
R outing
enc oded
Ġmark ing
Ġemer ge
Ġque en
C LO
Mar shal
Ġm k
ĠRec on
cipl inary
ĠSand ers
Ġmanip ulation
F ACE
l ov
imb abwe
ĠPh one
sh ake
tem plates
à¥ į
se g
18 4
Ġneg lected
ĠDE BUG
Ġdegener ate
GL uint
ĠNob el
C ategories
Ġpost ing
El se
Ġh iding
chi ef
ĠPear l
Mus ical
we bs
ĠB L
Ġd ign
ĠS ic
Î ¼
ib a
ĠH ass
ĠF LA
Ġhous ed
atin um
Im ports
PI X
Ġsql ite
] ^{\
HEAD ER
Ġs orry
el m
Ġmin eral
cover ed
ĠNap ole
S us
Ġsup pression
× ª
W T
en burg
Ġcent r
f illed
Ġplay wright
Col lege
Ġover r
="# "
Phys ical
ĠCoun ter
Ġform ulated
we ights
Ġdefect s
ĠC av
}} )\
ĠCart esian
Ġcast ing
ĠR ol
Pl ayers
Ġend orse
l ists
A thlet
ĠK or
Ġcur r
yst er
f aster
Ġcharg ing
Ġsummar ize
Lou is
OFF SET
an mar
oy age
ĠS askat
ĠP and
Ġb lo
ch ip
ĠEm ploy
ĠBat man
ID ENT
Ġpsy chiat
> =
}$ ),
}{ $
Ġdis ability
Ġo l
ud ed
** :
Ġb orough
y our
dec om
>() </
Ġme al
Ġspread ing
pend icular
Ġpl ug
- {\
ĠDis c
member NameLink
Ġc emetery
ĠR s
a qu
ĠP K
Ġapproach ing
in as
Ġe uro
min or
ĠRes olution
Ġsym plectic
Ġrevolution ary
Ġsequ ential
Ġhar sh
B AD
r ases
Ġreli ability
Icon Error
A h
Ġb ishops
Ġtel escope
focus ed
Ġis set
ĠBry an
ore n
Initial ized
Cast le
ans wer
U i
Ġb er
Ġphys ic
Ġcomp ass
Max imum
am ous
les h
Ġqual itative
Ġ/ ><
And rew
pl aced
ol er
ĠN urs
draw able
M ON
Ġcapt uring
ĠV illa
Ġfurn iture
ST AR
... ,
am as
ĠF ocus
ĠE S
m ind
ĠS ql
ĠF ut
LE FT
ĠRem ember
Ġstrugg led
Ġwar fare
Ġ* */
=" '
Ġce ased
Ġb is
Ġflux es
verb ose
% ),
r ison
Rec omm
Ġrevers ed
ĠSe lection
Ġs ew
ĠThrough out
50 1
on aut
Ġwhe els
ĠSw an
ĠĠĠĠĠĠĠĠĠĠĠĠĠĠĠĠĠĠĠĠĠĠĠĠĠĠĠĠĠĠĠĠ ĠĠĠĠĠĠĠĠĠĠĠĠĠ
ĠConfeder ate
A verage
Ġdev iations
Ġrenew ed
for rest
I CT
Ġsh it
ĠB ert
ĠFr ame
intend ent
MA KE
Ġl ig
t alk
Aut om
- }
Ø ¨
l iter
s al
valid ator
G i
Ġset Up
Ġadministr ator
over ed
dis c
sk in
Ġassess ed
ĠE t
Ġrel atives
Ġmod ulation
ĠM enu
ĠF eder
CONT RO
ad os
eh icle
Work space
ĠJ i
sh ine
Ġdon ations
to ctree
agg able
K B
ĠShe ll
Ġinterview ed
ĠAl lied
ampl er
ĠReport s
20 7
Ġ\, .
IconError Encoded
m eth
is cher
http Request
ĠPrinc eton
ĠK re
H W
x ymatrix
ĠM ull
18 55
Ġsport ing
Ġmari juana
ĠS ob
ĠSing les
; "><
Ġauthor ization
V IS
scal ebox
C NN
ĠCh ain
Ġindiv idually
ĠC ONT
ĠSpec ifies
pot ent
ĠHop kins
ed uc
ĠBa iley
ST REAM
ro ph
ĠM T
Scott ish
v d
at ics
Ġm u
Ġg ymn
ĠF ollow
ĠN ames
ĠE M
sh ifts
Ġkey boards
end ors
ĠMin i
ĠCy prus
Ġon set
Ġamb assador
Ġsuggest ion
Contain ers
oupl ed
enti eth
Ġ' ../
fl ows
ĠTrans action
Com puter
Or d
ĠF ake
FO RE
b read
Ġ\ '
17 8
Ġhand ful
ĠHill ary
Ġment ions
represent ation
it ary
ĠR ush
es ar
Ġcre am
Ġrul er
Hen ry
}. $
Ġavoid ing
Ġclean ing
ic ers
DB LP
Ġaltern atives
ĠT all
Ġ"- //
Ġsac red
Ġkw args
Il legal
Ġs iblings
ĠGL sizei
Ġcatalog ue
Ġless er
"> '
Ch at
ĠCh anges
18 58
ĠEx ternal
Ġnew er
e igen
Ġpione er
ape st
Ġinvent ed
by ter
Ġdes irable
ĠDev on
ĠF ashion
ĠEd it
Ġtrem end
Ġdef ender
kin son
Spr ite
38 4
ĠFe atures
get Data
Ġreg ards
direct ive
u ced
Ġimport s
cos ity
su ite
ret ty
char set
}} }{\
Ġ* (
ing ing
Ġequal To
Ġschedul ing
J eff
in ja
ext ended
Ġstud ios
ĠN N
ĠInt roduction
ĠWell ington
Ġv ortex
ĠAdvent ure
Ġnerv ous
Pr incipal
Ġconfer ences
TIME OUT
c odes
Ġb esides
20 9
ĠR out
ĠAc cept
Ġbre ach
Ġad verse
max imum
emph is
elect ron
Ġn u
] _
Ġind oor
Ġdesign ing
Ġtag ged
Ġneighborhood s
Ġcirc ulation
Ġsingular ities
}{ $\
Ġregular ity
Ġpri ests
ĠSecond ary
Ġphil anth
G ui
CT L
18 8
Key board
lev ard
ĠTh ink
Ġcul min
30 3
ĠX XX
as ive
at im
=" {
ĠGL uint
& +
k ers
Man ifest
ĠPal m
unt ed
st ed
Ġback wards
h agen
com fort
l ived
in ite
(@ "
D G
Ġl as
ĠK aren
C riteria
ĠIS BN
Ġhe aven
ĠR aid
con e
') ).
Ġcorpor ations
et ched
27 5
t lement
in tr
ri ans
Text View
Ġeth n
J oe
ĠReg Exp
rec ords
Ġreg imes
ĠAr r
Head ing
Ġhyp ers
ĠS ale
Ġle verage
Ġcomb inator
ĠØ§ ÙĦ
All ocation
weight ed
Ġaud it
ĠS ample
Ġ$\ |\
ĠPro b
Ġapprox imated
Cal ifornia
ĠCoal ition
ĠT iger
An swer
Ġrac ism
T ech
] /
Ġp ension
ĠSc i
] }\
ĠJ et
Ġcut off
av o
DE C
Ġret ro
he ap
ig i
g art
comp ilation
as ide
Ġt idal
ĠMor occo
ĠWars aw
ĠEmer gency
RO P
M aps
Ġb uffers
Ġconfirm ation
P ak
col head
al most
H i
de ploy
NE SS
str ategy
(" [
Ġ ----------------
Ġn ons
ĠL ipschitz
Ġun safe
Ġpr ide
Ġtact ics
ĠU int
Po jo
ĠGen eva
pl ays
Ġkern els
ra its
ĠL ip
stats models
transl ated
Ġthere of
act ical
Ġinvent ory
D U
ĠH yper
FIL TER
Ġif f
ĠArgent ine
18 3
c rit
rec v
ĠH ir
ars ity
Ġun necessary
Ġop posing
ĠJ ake
ish ers
ĠVlad imir
ri z
ang led
Ġh ab
High light
(" -
le igh
Qu ote
Ġpropag anda
F ive
ron es
Dep artment
g ol
Ġdi abetes
Ġmet ropolitan
( ",
Ġv iable
Sc ience
field set
song writer
ĠSh in
Ġsh oes
ĠW ant
ĠBr ain
Ġemail s
' }(
err ing
Ġwithdraw al
contin uous
path y
Ġgrad uation
Ġl p
Ġcook ing
ell ites
mon itor
p ure
sw ick
Ġshe ep
Null Exception
D AT
Ġinter ven
17 1
algorithm ic
d ater
dec ay
UD ING
int age
ĠH AVE
Lin ux
Ġr ays
acknow led
Ġconf ined
Ġmulti plic
ĠPo etry
âĦ ¢
text style
c orner
n ai
Î ·
Ġexpect ing
Ġre vel
]{ ./
Ġox id
Ġcar riers
ĠTun is
m ons
Ġcon fess
ĠIll ustr
Ġdepict s
Ġoccas ional
is ers
ant o
gr and
ĠPresident ial
o ct
os phere
ĠJam ie
ĠZ ion
Ġem peror
OP ER
col s
read only
k le
Ġalloc ate
elect ric
CO RE
Ġpur ple
Op code
Ã ¯
Ġsp ite
math ds
Ġsp ins
Ġwarm ing
ĠT ouch
ĠBit coin
CL UDING
ĠTr ace
Ġdest ruct
ĠF S
17 4
Pre view
Ġsp acing
Th m
B ern
on ne
Ġcour tesy
l brace
Ġdiam ond
Ġtrans fers
IR ST
av g
[ {\
Ġsome body
Desc ript
n as
Ġf ingers
com ed
\\\\\\\\ \\\\\\\\
ĠGr iff
Ġforg otten
Ġtob acco
b os
ĠP om
sp r
ĠK yle
b v
ĠS afe
ĠL akes
l uc
US H
Ġt oured
Ġl akes
Ġintern ally
ĠÂ «
Fin ished
k al
ĠInd ividual
Ġlaunch ing
Ġelabor ate
Ġnumber ed
Ġpar as
Ġl un
un safe
Ge org
if fin
ĠF olk
ĠMon itor
O l
Content Type
ĠO z
Con struction
Ġtre as
Ġpurs uit
Ġprivile ge
G Hz
Ġev olve
al bum
EX CEPT
) },\
ĠS aw
d ynamics
ĠDes ert
Ġw are
M il
iv odes
est one
Ġlogarith mic
ol ics
omet own
V an
â ĸ
Ġexpl ores
Ġelder ly
C arl
Ġnon trivial
T ITLE
ĠC B
Ġdam ages
+ }
ĠSur v
ĠH urricane
á ¹
ĠD ES
ĠCa uc
/ ************************************************************************
Ġsem if
S port
Ġe ager
ĠU TF
Ġe gg
ĠAr ctic
To o
Ġst om
Ġelectron ics
Ï ħ
18 54
Ġoblig ations
ĠL iv
Ġprec ip
Ant i
l ayers
LOB AL
ĠT ampa
ĠAn a
Ġmulti plicity
ĠValid ation
Ġfar ms
Ġinject ed
Ġdoct rine
ENABLE D
st aging
Ar c
R P
] ));
Ġinc umbent
Ġok ay
T ODO
ow ards
Con cept
ĠRichard son
ĠB ec
class ic
Ġbr acket
char At
Def unct
Ġdis advant
d ummy
ĠM iles
Ġst unning
Ġres ize
be zier
cell s
S ep
te k
LOC AL
_{ |
ĠMichel le
ĠI con
Ġcal m
Ġlat ency
Process ing
Ġhash Code
Ġassemb led
l ceil
St udio
Ġag gress
under brace
18 9
Trans l
ĠPan ama
Ġb t
col m
Ġke en
Ġnational ly
put es
ĠAcadem ic
add on
rid or
Ch oice
ĠS leep
ĠL ac
ĠAss umption
Ġmill iseconds
Ġschedul er
Ġwitness ed
ow ing
di agonal
Ġfavor able
Ġflo oding
ĠA ST
Ġinvest ed
ĠY emen
ĠD ialog
add itional
ĠDr iver
ed ing
the m
17 9
Ġprem ises
Ġcum ulative
Mod ern
t pl
ĠArm strong
Ġestim ating
ĉĉĉĉĉĉĉĉ ĉĉĉĉ
Ġin quiry
Ġinf ect
ĠĠĠĠĠĠĠĠĠĠĠĠĠĠĠĠĠĠĠĠĠĠĠĠĠĠĠĠĠĠĠĠ ĠĠĠĠĠĠĠĠĠĠĠĠĠĠ
Instance Of
k ed
ĠN as
Ġmist akes
Ġacc us
Ġtim ber
K HR
Ä Ľ
K a
ĠSh im
R V
Ġcontribut ors
ĠJ ak
}) ^{-
gtr sim
interop Require
Ġarbitr arily
H op
ĠA CT
^{ *}
ĠRe id
18 56
ill on
Sh ard
ocom plete
G PU
Ġkil ometers
ĠD uncan
Ġsub urb
ĠIm prov
ĠC yr
ĠF est
Ġview er
Ġs sl
Ġp ec
Ġf ool
" ):
Ġhom ology
ĠAut om
S hip
che l
}. $$
ĠPer th
à¤ °
ä¸ Ń
ĠG B
Ġmet abol
ut a
ĠDav ies
m ong
Ch ars
ĠX X
Ġre ceptor
St e
Ġgate way
Bu ilt
ol ith
ĠIn spector
1234 56
Ġgirl friend
ĠG and
Ġout s
Ã© d
19 3
ĠWe yl
Ġgram mar
ĠS urre
00 000
ĠM ob
ew ard
orm s
Ġmot ions
child node
Ġadj oint
Writ able
ĠHe ights
ĠDefault s
ĠSTD METHOD
Ġst ays
Ga ussian
h int
ĠS part
Ġper pendicular
rot ation
ĠĠĠĠĠĠĠĠ čĊ
Orient ation
Ġemb ark
og o
h b
Ġs od
H aw
ij a
å ¯
ag ne
Ġnom inal
ĠCle arly
ĠT error
be havior
Ġinher ent
Ġstock s
Ġdis established
big gr
ĠB ee
ĠM M
ĠE ff
Ġdig est
)} =\
ĠF iles
tr unc
eg el
ĠAngl ican
Ġc ord
ĠCh ase
ĠGe off
r ceil
ĠN umer
Ġurg ed
ĠP ul
Ġcomp elling
az ar
Ġp ocket
Âł Âł
Ġsubmar ine
J O
Ġ" ./
ĠV ern
ĠNiger ian
ph on
Ġtensor flow
Im plicit
et ches
ĠNetwork s
ĠPsych ology
Ġb other
}$ :
hand lers
ĠRead er
ĠMot ors
Ġre organ
ĠF lying
UL AR
ĠW inn
o auth
Ġcru ise
B rown
ĠTest ament
Ġarg uing
Through out
ĠL HC
ĠHe ath
ĠB in
Ġun ited
\\ [
ĠD as
col ogical
Ġl ag
17 3
Ġposition ed
Und efined
ĠESP N
assert Raises
Ġmat hematic
ĠEvent ually
ä¸ Ģ
ĠTrans fer
ĠB UT
param ref
ĠPar al
rec ogn
Ġbreed ing
av in
tr ad
Ġsimilar ities
ĠSus sex
det ect
Ġexecut ing
Ġterr ain
print s
Ġfin ancing
Ġp ap
Ġh ire
ĠE c
L ag
R NA
BU F
ĠLeg acy
Ġspl its
CK ET
Ġt ribut
Ġspecific ations
o ak
rodu ced
Ġform atted
Inter faces
ĠEngine ers
Ġwis dom
G reg
b uffers
Ġd ancer
ivodes hip
ĠArch ae
R oom
bad ge
^ *}
yl on
Ġ' )
Ġp ul
Ġplan ar
Ġaddition ally
Ġmut ation
The ir
ib e
Ġmet av
Ġse ized
Ġtrunc ated
ĠDise ase
row Color
Spec ific
ĠDev il
= |
ĠM aps
ĠP ool
s ided
P in
ĠGl enn
scrib ers
Ġsu ck
Ġun anim
t u
Ġathlet ic
/ -
Ġm p
ĠW or
Ġfib ers
ĠMan ufact
Ġpull ing
ceed ed
Ð½ Ð¸
iz ational
sche dule
D ao
Î º
ĠQ t
Code Analysis
ĠWe ather
ĠB row
ĠS ed
Ġsec rets
Ġtri o
W at
Ġnomine e
p se
ĠB erry
Ġless on
W ang
Dec or
Ġin struct
in el
Ġins ufficient
Ġst iff
ĠR GB
ok i
Ġtrans parency
Ġa xi
Ġinn ocent
ĠPr ague
and ro
ĠJess ica
r ational
ject ed
SE CON
AL LOW
iff e
ĠI g
Ġbl ast
ĠLeg ion
Ġc ere
us on
Ġpe aceful
sub Nav
Ġminim izing
Ġasymptot ically
OO K
f u
Ġmet als
ĠDi ocese
get ElementsBy
Ġbro ker
Mut ex
is ive
Ġcirc uits
Ġcomplement ary
Grad ient
v ary
ĠSim pson
ĠH arm
AT IVE
Pre par
Dev elopment
ĠSol utions
ac ian
G lob
Ġst ones
equ ivalent
Ġto y
list eners
ĠBank s
Ġwithd rew
ĠH ait
Ġprompt ed
ĠB ever
Ġdevelop s
ĠR uby
ĠV A
ĠPop ular
e eq
N i
ĠF lem
Dis covery
ĠV II
ĠGrad uate
os opher
Ġdom inate
Ġtend ency
Ġspokes man
(' \
Ġrespect ed
Ġrecon struct
P et
s ound
ĠD ocker
) _\
host name
ab atic
Ġv el
ĠByz antine
stan bul
eb ook
Ġanaly zing
T reat
aj i
Ir ish
> }
L iber
un til
function al
ĠRem ote
ĠS NR
Ġconvent ions
uis ine
ĠB udget
get Default
ĠGlob e
le ad
ĠE cuador
}\, ,
Al g
Ch ief
Ġmin us
Ġcancel ed
ist on
à ¹
er als
st ones
ar ag
ide a
Ġref ined
I ran
DE CL
ĠDis able
ĠG or
ĠYan kees
b asis
Ġundert aken
Ġloc ate
INTER N
re ne
eg en
Ġnovel ist
w br
Sub mit
Ġpr ince
Ġequival ently
b k
3 40
B IN
ib us
Ġann ex
N ick
ĠL ynch
ount ers
ĠJo el
initial ized
Debug ger
C ong
Ġlog ged
Ġconv iction
ĠPak istani
ĠF ighter
que z
imm ers
| .
Ġrel uct
Ġb out
Ġtri angular
Ġemer gence
ĠKaz akh
ĠBl u
custom er
ĠM illion
Ġstr at
ici ary
Ġb ipart
ĠFor ward
ĠIndones ian
ĠJeff rey
ĠRh odes
E scape
Ġvol leyball
× ľ
idd ing
ĠÃ ģ
Ġincorpor ating
ĠA ges
dig est
2 15
ne apolis
ĠÐ ±
arth y
track s
Ġ. /
big gl
Ġ ../
ex istence
arr ass
Ġsort s
ch ard
Ġjust ified
CL K
ans on
Ġmoment a
Ġout going
W all
Ġreg ret
Ġdefend ant
L ex
ĠHel per
eck er
Ġreve aling
Ġre cept
Ġhe aling
Ġsacr ifice
N othing
Ñ ī
url ing
ĠExper ience
Ġin variants
Ġtr iggers
SY S
w char
Ġpresc ription
Ġel dest
ĠĠĠĠĠĠĠĠĠĠĠĠĠĠĠĠĠĠĠĠĠĠĠĠĠĠĠĠĠĠĠĠ ĠĠĠĠĠĠĠĠĠĠĠĠĠĠĠĠĠĠĠĠĠĠĠ
R out
sp arse
ER O
ĠB ullet
Ġhom osex
Ġmaxim ize
Ġaffili ate
Im g
re ng
ĠS pi
ĠC ork
sin h
ĠProduct s
id y
any on
Ġch lor
ll a
ent ropy
ĠPl ugin
effect s
p ane
im als
ys ide
In spector
Ġarg v
ĠVo ivodeship
Th ose
Ġprohib ited
Wel come
r brace
Ġf ung
ĠLind a
an ol
Ġrac ist
n of
Ġ[ (
ĠLet ters
ĠStand ards
Ġisot ropic
ĠN u
verb atim
av ian
ĠEx ecute
reg ation
Pol icies
h base
im i
18 6
)$ }
Part icle
Ġintr ig
------------ --
Â ±
document ation
ĠPut in
ĠGr ass
Field Value
cap acity
ĠI v
ĠLuc y
ĠR A
ĠH app
m or
ĠW o
ĠP orter
Ġten ant
Ġcor ps
}} ;
Ġf u
Ġlack ing
76 8
Ġen larg
ĠAct ress
ĠA ur
NR AS
ĠTreas ury
c ook
st ars
ĠMathemat ics
Ġg reet
Ġcan al
cor relation
rosso ver
prov ided
conf irmed
Ġcert ification
> *
s and
ast ically
ĠEconom y
R oad
ĠP NG
ĠD L
8 50
t el
18 1
get Current
Ġexperiment ally
Ġpre y
M arg
ĠH aven
P rec
cos h
Ġtow ers
ĠH ip
ĠToy ota
p es
le ys
Ġmeas urable
Ã¶ n
ĠAndrew s
oc cup
W ay
Ġbreak down
E F
el ong
Ġb ones
period ic
ĠF eed
Ġund erm
ĠT anz
ĠAuth ors
l v
m are
Ġd ocker
ĠA A
60 1
Ġperm its
Ġd in
ĠG y
Ġquant ization
ĠBar ack
int ent
ĠCO MP
are ttes
Fl ush
Ġtransport ed
m and
Ġevent ual
ari us
Doc uments
ĠE sc
Ġpl aint
ĠC off
R B
ĠB OTTOM
ĠF P
Ġreflect ing
PRO G
ĠR FC
ĠX box
P en
Ġd f
Ġwork space
Ġdynam ically
ĠH off
ĠTri ple
un stable
Ġcre atures
> )</
Ġt u
ĠBi ology
um en
Ġc ube
font s
Ġtim eline
ĠCr isis
es ign
RE L
PROPERT Y
E mit
ĠG ren
ĠP IX
ĠCamb od
Ġdies el
ar ab
ĠJama ica
f itting
he y
ĠP ir
Pod s
ĠS Ã£o
sup ers
Ġn est
op r
Ġ| ____
Ġopen ly
ĠPot ter
Ġsl opes
ĠCh ad
B log
Ġr ivals
Ġassign ments
produ ced
amp ire
30 5
Ġexp ose
ĠTrans itional
ĠR ut
ĠRuntime Exception
AT T
is Valid
ĠR L
Ġcho ir
Ġarchae ological
Ġbas in
!! !
Ġn ephe
Ġstat istic
B all
Ġm aj
ri ages
S af
i ago
Ġworld s
l tr
D utch
ĠSalv ador
- $\
Rest r
ĠAr gs
Ġinfe ctions
s cheduler
ex ceptions
18 51
e o
p it
Ġmer ging
t one
ov ina
Ġ" {
Ġa pt
">( </
t ou
ob server
Ġdr illing
P a
H K
Ġv i
Ch rome
re li
Ġsc rew
' /
Ġgod s
St eve
AR M
Ġnon profit
Ġcl arity
E u
ĠS tra
ADD RESS
Ġpath way
asc ii
Ġsh ifting
Ġk ings
T CP
ĠFig ures
Aut hent
ĠOpt im
n at
Ġradi ative
S ys
Custom er
Ġb achelor
Ġn erve
ĠBo eing
Ġs ulf
="# ">
che wan
Ġpolit ically
Ġenc ounters
ĠL odge
Dis patch
Ġ nd
Ġsh ower
ĠGram my
nt on
man ual
iz za
Ġtr ademark
ĠD j
ĠMethod ist
Ġreplic a
ĠStock holm
ab lo
la unch
widget s
PAR AMETER
3 25
ĠF IX
ĠNY C
Ġre ass
Ġcan on
ro ots
ĠKr ish
ap on
Ġ) );
Ġmon ster
Ġadv isor
} '$
Ġfear s
() }
Ġse al
ubb les
C AL
Ġdis band
): =
ĠFr anÃ§
Ġinc idence
Ġhonor ary
d ed
Ġdepart ed
der ived
ĠĠ ĉ
br anes
ĠD ynamic
v id
ĠK err
ats u
Ġappend ix
make box
ĠSol omon
Ġ ))
roll ing
ĠSk ip
ĠPaul o
st retch
ĠW ould
Ġcab in
cond itional
Ġfix es
REQ UI
ĠR B
Request ed
Ġ( __
ĠE L
Pl umb
ĠCr ystal
ĠStart ing
FE ATURE
is che
Ġlast ing
request s
i w
A MS
Ġj oke
Ġcoordin ator
Numer ic
Ġlab elled
Ġem power
Ġn urse
pe x
Ġw ages
Ġgen res
ĠSh ape
Ġconcept ual
Ġdon ation
Ġqual ification
u ant
Ġsub stitution
Ġcons erved
h urst
del im
iat ric
ern er
spe aking
ĠResp ons
il ian
ir us
({ },
S uggest
other wise
ĠPun jab
D K
æ ī
18 52
ĠPo inter
B ot
Ġoffset s
ad j
(" ./
Ġspect acular
L os
file Name
inher ited
Ġcom plications
Ġunem ployment
ass umption
Pr iv
Ġt iles
at ta
Ġinter im
ed o
Ġrev ival
Ġreven ge
Ġat tain
ĠOrig inally
[...]
