{"[UNK]":0,"!":1,"\"":2,"#":3,"$":4,"%":5,"&":6,"'":7,"(":8,")":9,"*":10,"+":11,",":12,"-":13,".":14,"/":15,"0":16,"1":17,"2":18,"3":19,"4":20,"5":21,"6":22,"7":23,"8":24,"9":25,":":26,";":27,"<":28,"=":29,">":30,"?":31,"@":32,"A":33,"B":34,"C":35,"D":36,"E":37,"F":38,"G":39,"H":40,"I":41,"J":42,"K":43,"L":44,"M":45,"N":46,"O":47,"P":48,"Q":49,"R":50,"S":51,"T":52,"U":53,"V":54,"W":55,"X":56,"Y":57,"Z":58,"[":59,"\\":60,"]":61,"^":62,"_":63,"`":64,"a":65,"b":66,"c":67,"d":68,"e":69,"f":70,"g":71,"h":72,"i":73,"j":74,"k":75,"l":76,"m":77,"n":78,"o":79,"p":80,"q":81,"r":82,"s":83,"t":84,"u":85,"v":86,"w":87,"x":88,"y":89,"z":90,"{":91,"|":92,"}":93,"~":94,"¡":95,"¢":96,"£":97,"¤":98,"¥":99,"¦":100,"§":101,"¨":102,"©":103,"ª":104,"«":105,"¬":106,"®":107,"¯":108,"°":109,"±":110,"²":111,"³":112,"´":113,"µ":114,"¶":115,"·":116,"¸":117,"¹":118,"º":119,"»":120,"¼":121,"½":122,"¾":123,"¿":124,"Â":125,"Ã":126,"Ä":127,"Å":128,"Æ":129,"Ç":130,"È":131,"É":132,"Ê":133,"Ë":134,"Ì":135,"Í":136,"Î":137,"Ï":138,"Ð":139,"Ñ":140,"Ò":141,"Ó":142,"Ô":143,"Õ":144,"Ö":145,"×":146,"Ø":147,"Ù":148,"Ú":149,"Û":150,"Ü":151,"Ý":152,"Þ":153,"ß":154,"à":155,"á":156,"â":157,"ã":158,"ä":159,"å":160,"æ":161,"ç":162,"è":163,"é":164,"ê":165,"ë":166,"ì":167,"í":168,"î":169,"ï":170,"ð":171,"ò":172,"ó":173,"ô":174,"Ā":175,"ā":176,"Ă":177,"ă":178,"Ą":179,"ą":180,"Ć":181,"ć":182,"Ĉ":183,"ĉ":184,"Ċ":185,"ċ":186,"Č":187,"č":188,"Ď":189,"ď":190,"Đ":191,"đ":192,"Ē":193,"ē":194,"Ĕ":195,"ĕ":196,"Ė":197,"ė":198,"Ę":199,"ę":200,"Ě":201,"ě":202,"Ĝ":203,"ĝ":204,"Ğ":205,"ğ":206,"Ġ":207,"ġ":208,"Ģ":209,"ģ":210,"Ĥ":211,"ĥ":212,"Ħ":213,"ħ":214,"Ĩ":215,"ĩ":216,"Ī":217,"ī":218,"Ĭ":219,"ĭ":220,"Į":221,"į":222,"İ":223,"ı":224,"Ĳ":225,"ĳ":226,"Ĵ":227,"ĵ":228,"Ķ":229,"ķ":230,"ĸ":231,"Ĺ":232,"ĺ":233,"Ļ":234,"ļ":235,"Ľ":236,"ľ":237,"Ŀ":238,"ŀ":239,"Ł":240,"ł":241,"Ń":242,"ĠĠ":243,"Ġt":244,"ĠĠĠĠ":245,"in":246,"er":247,"Ġa":248,"on":249,"he":250,"re":251,"at":252,"Ġthe":253,"en":254,"or":255,"st":256,"al":257,"an":258,"it":259,"Ġc":260,"ar":261,"Ġo":262,"Ġs":263,"ed":264,"ion":265,"es":266,"Ġw":267,"is":268,"Ġf":269,"le":270,"Ġp":271,"ing":272,"ĠĠĠ":273,"nd":274,"ic":275,"Ġb":276,"Ġin":277,"ro":278,"Ġof":279,"ĠĠĠĠĠĠĠĠ":280,"as":281,"Ġd":282,"Ġm":283,"ct":284,"et":285,"Ġand":286,"ou":287,"ent":288,"Ġto":289,"el":290,"am":291,"il":292,"Ġh":293,"Ġre":294,"Ġth":295,"om":296,"Ġn":297,"ig":298,"ol":299,"ĠS":300,"Ġ\\":301,"id":302,"Ġ(":303,"ac":304,"ation":305,"im":306,"Ġe":307,"ĠT":308,"Ġ$":309,"ur":310,"Ġl":311,"ot":312,"ut":313,"ĠC":314,"ĠA":315,"ad":316,"se":317,"iv":318,"ĠĠĠĠĠĠĠ":319,"Ġis":320,"Ġ=":321,"ul":322,"ce":323,"Ġg":324,"th":325,"od":326,"Ġfor":327,"if":328,"ow":329,"un":330,"ay":331,"ĠM":332,"ĠI":333,"em":334,"ag":335,"ch":336,"ĉĉ":337,"ly":338,"Ġst":339,"um":340,"ab":341,"us":342,"ers":343,"Ġon":344,"Ġv":345,"âĢ":346,"Ġbe":347,"ith":348,"Ġ{":349,");":350,"pe":351,"qu":352,"ĠP":353,"ir":354,"ist":355,"ate":356,"ĠB":357,"ap":358,"Ġcon":359,"ter":360,"--":361,"Ġas":362,"Ġthat":363,"Ġ<":364,"20":365,"ction":366,"ver":367,"oc":368,"ex":369,"čĊ":370,"ĠR":371,"ĠH":372,"end":373,"Ġwith":374,"ĠD":375,"ĠF":376,"Ġ*":377,"_{":378,"ri":379,"ht":380,"//":381,"av":382,"and":383,"=\"":384,"res":385,"ĠĠĠĠĠĠĠĠĠĠĠ":386,"est":387,"ĠL":388,"Ġal":389,"op":390,"Ġwh":391,"up":392,"Ġan":393,"ath":394,"ew":395,"Ġpro":396,"ain":397,"ub":398,"ĠN":399,"ĠThe":400,"ame":401,"ef":402,"ĠW":403,"ess":404,"ass":405,"os":406,"ĠG":407,"Ġ\"":408,"19":409,"pt":410,"ort":411,"Ġby":412,"</":413,"ĠE":414,"Ġwas":415,"ity":416,"rom":417,"ere":418,"Ġ}":419,"ue":420,"tr":421,"Ġit":422,"eg":423,"Ġex":424,"ore":425,"art":426,"Ġcom":427,"Ġr":428,"Ġat":429,"pl":430,"our":431,"ect":432,"{\\":433,"all":434,"ine":435,"ight":436,"ill":437,"ment":438,"Ġor":439,"ec":440,"ure":441,"age":442,"nt":443,"ak":444,"Ġ&":445,"ies":446,"Ġare":447,"ĠĊ":448,"Ġfrom":449,"Ġthis":450,"Ġcl":451,"iz":452,"ial":453,"ĠO":454,"ant":455,"Ġ$\\":456,"ĠJ":457,"urn":458,"ive":459,"og":460,"Ġy":461,"ld":462,"ack":463,"ud":464,"ĠĠĠĠĠĠĠĠĠĠĠĠĠĠĠĠ":465,"ult":466,"ge":467,"ext":468,"ep":469,"ĠĠĠĠĠ":470,"**":471,"Ġhe":472,"()":473,"ber":474,"cl":475,"math":476,"Ġwe":477,"per":478,"Ġtr":479,"port":480,"ans":481,"00":482,"ast":483,"\">":484,"ĠU":485,"ref":486,"orm":487,"Ġch":488,"ary":489,"turn":490,"able":491,"act":492,"ell":493,"..":494,"und":495,"int":496,"'s":497,"ard":498,"ite":499,"str":500,"ip":501,"ov":502,"ated":503,"Ġif":504,"Ġsh":505,"âĢĻ":506,"The":507,"Ġnot":508,"are":509,"ype":510,"ph":511,"ff":512,"ich":513,"----":514,"ave":515,"Ġse":516,"}\\":517,"201":518,"ign":519,"ions":520,"Ġ'":521,"ke":522,"ace":523,"con":524,"Ġ-":525,"ode":526,"In":527,"ind":528,"Ġle":529,"ost":530,"ire":531,"}$":532,"ase":533,"sp":534,"ord":535,"==":536,"),":537,"^{":538,"ĠK":539,"ev":540,"ical":541,"get":542,"ug":543,"ia":544,"pro":545,"ĠâĢ":546,"ft":547,"out":548,"to":549,"ile":550,"ong":551,"ang":552,"ma":553,"ust":554,"Ġpl":555,"ĠIn":556,"ime":557,"Ġcomp":558,"com":559,"ens":560,"ork":561,"ata":562,"ide":563,"ice":564,").":565,"ition":566,"Ġclass":567,"Ġus":568,"ĠV":569,"ject":570,"unction":571,"ence":572,"ĠĠĠĠĠĠĠĠĠĠĠĠĠĠĠ":573,"fr":574,"text":575,"erv":576,"ib":577,"ild":578,"cc":579,"ations":580,"ian":581,"Ġres":582,"Ġhave":583,"Ġcan":584,"ubl":585,"Ġ//":586,"ok":587,"Ġj":588,"Ġreturn":589,"}}":590,"Ġwhich":591,"ĠSt":592,"ear":593,"ould":594,"ther":595,"ĠTh":596,"so":597,"Ġun":598,"du":599,"(\\":600,"Ġk":601,"Ġhas":602,"Ġall":603,"Ġar":604,"cal":605,"alue":606,"form":607,"ach":608,"ta":609,"ance":610,"ory":611,"ra":612,"ert":613,"Ġad":614,"Ġhis":615,"enc":616,"Ġim":617,"Ġnew":618,"egin":619,"Ġ|":620,"Ġab":621,"Ġap":622,"Ġ+":623,"row":624,"aram":625,"li":626,"ous":627,"Ġcont":628,"ob":629,"use":630,"equ":631,"begin":632,"->":633,"hen":634,"ress":635,"ents":636,"200":637,"ener":638,"Ġ@":639,"Con":640,"ĠCh":641,"::":642,"ublic":643,"one":644,"ock":645,"ĉĉĉĉ":646,"ish":647,"ail":648,")$":649,"_{\\":650,"own":651,"ll":652,"St":653,"ond":654,"\",":655,"fig":656,"},":657,"Ġstr":658,"rib":659,"Ġ[":660,"fer":661,"ount":662,"ound":663,"ple":664,"over":665,"irst":666,"10":667,"set":668,"erm":669,"abel":670,"ull":671,"oll":672,"ize":673,"Ġfunction":674,"ree":675,"elf":676,"iel":677,"Ġone":678,"err":679,"ual":680,"mer":681,"ome":682,"}{":683,"ors":684,"right":685,"Ġalso":686,"clud":687,"ose":688,"ict":689,"old":690,"Ġ/":691,"Ġout":692,"Ġbut":693,"Ġyou":694,"ark":695,"Ġwere":696,"ates":697,"te":698,"Ġpart":699,"Ġdef":700,"18":701,"Ex":702,"ption":703,"eth":704,"Ġdis":705,"Ġ</":706,"ield":707,"Ġsu":708,"Ġwill":709,"ink":710,"put":711,"ource":712,"oth":713,"che":714,"Ġob":715,"tern":716,"frac":717,"eq":718,"Ġde":719,"inal":720,"Ġev":721,"ray":722,"ps":723,"(\"":724,"();":725,"Ġup":726,"Ġdo":727,"wo":728,"ss":729,"yst":730,"we":731,"pect":732,"ely":733,"rit":734,"Ġset":735,"Ġme":736,"Ġro":737,"Ġtheir":738,"Ġpr":739,"lect":740,"Ġvar":741,"Ġ*/":742,"the":743,"ne":744,"oint":745,"Ġsp":746,"Ġqu":747,"',":748,"ry":749,"--------":750,"Ġint":751,"rap":752,"ĠY":753,"ics":754,"ck":755,"Ġmod":756,"sum":757,"pec":758,"ook":759,"ick":760,"ake":761,"ool":762,"ings":763,"Ġ:":764,"label":765,"rm":766,"Ġper":767,"sh":768,"ix":769,"Ġits":770,"sc":771,"iew":772,"Ġfirst":773,"ery":774,"Ġpre":775,"Ġname":776,"mathb":777,"eng":778,"****":779,"ng":780,"Ġ.":781,"tring":782,"roup":783,"ĠUn":784,"ystem":785,"pr":786,"igh":787,"ĠIt":788,"fter":789,"Ġmore":790,"Ġpublic":791,"Ġman":792,"../":793,"line":794,"Ġover":795,"Ġwho":796,"Ġag":797,"Ġthey":798,"cite":799,"âĢĿ":800,"aw":801,"ty":802,"mb":803,"Ġhad":804,"left":805,"lo":806,"esc":807,"ĠHe":808,"ator":809,"umber":810,"))":811,"io":812,"Ġ||":813,"les":814,"Ġget":815,"Ġtime":816,"ied":817,"eta":818,"ational":819,"ater":820,"Ġtwo":821,"Ġwork":822,"ax":823,"this":824,"ml":825,"iss":826,"div":827,"Pro":828,"Ġinter":829,"$.":830,"ys":831,"Ġother":832,"12":833,"$,":834,"Ġsc":835,"oid":836,"mathcal":837,",\\":838,"Ġbeen":839,"Ġso":840,"essage":841,"ER":842,"ĉĉĉ":843,"ĠĠĠĠĠĠĠĠĠĠĠĠĠĠĠĠĠĠĠ":844,"uct":845,"Ġne":846,"hed":847,"ribut":848,"Ġte":849,"pos":850,"ular":851,"ĠĠĠĠĠĠĠĠĠ":852,"Ġwhen":853,"lement":854,"ie":855,"})":856,"}.":857,"('":858,"Ġ_":859,"tt":860,"equation":861,"param":862,"ember":863,"name":864,"of":865,"Ġplay":866,"====":867,"Th":868,"Name":869,"raph":870,"arg":871,"ĠâĢĵ":872,"Ġyear":873,"ram":874,"Ġund":875,"Ġher":876,"ons":877,"atch":878,"ative":879,"anc":880,"Ġrec":881,"ific":882,"round":883,"ve":884,"ove":885,"Ġgo":886,"app":887,"amb":888,"Ġresult":889,"ange":890,"ethod":891,"Ġsup":892,"Ġcomm":893,"Ġsub":894,"}(":895,"âĢĵ":896,"ms":897,"ont":898,"ient":899,"199":900,"span":901,"return":902,"ollow":903,"Ġinto":904,"Ġany":905,"def":906,"IN":907,"Ġonly":908,"imes":909,"Ġreg":910,"var":911,"ann":912,"Ġen":913,"Ġtrans":914,"Type":915,"}^":916,"Ġthere":917,"key":918,"ON":919,"Ġi":920,"Ġdata":921,"ames":922,"Ġadd":923,"Ġabout":924,"16":925,"ĠThis":926,"ased":927,"Ġvalue":928,"Ġbet":929,"Ġcol":930,"ople":931,"oug":932,"></":933,"ays":934,"ox":935,"ade":936,"red":937,"ugh":938,"Ġpe":939,"als":940,"~\\":941,"Ġthan":942,"ise":943,"}_":944,"atic":945,"col":946,"Ġass":947,"pha":948,"tain":949,"Ġwhere":950,"arch":951,"oun":952,"Ġinclud":953,"ues":954,"ating":955,"yn":956,"ĠâĢľ":957,"Ġend":958,"Ġoff":959,"ious":960,"15":961,"Ġ#":962,"ited":963,"eb":964,"da":965,"Ġrel":966,"resent":967,"Ġli":968,"sub":969,"uild":970,"ern":971,"ident":972,"Ġwould":973,"Ġacc":974,"Ġdif":975,"Ġpos":976,"ton":977,"Ġsome":978,"ĠCom":979,"urre":980,"Ġ!":981,"Ġtype":982,"idth":983,"alpha":984,"Ġact":985,"ward":986,"Ġfollow":987,"><":988,"cre":989,"import":990,"land":991,"Ġno":992,"Ġform":993,"ences":994,"Ġsuch":995,"fo":996,"Ġunder":997,"Ġkn":998,"its":999,"String":1000,"Ġfil":1001,"Ġcons":1002,"11":1003,"Ġind":1004,"amp":1005,"Ġel":1006,"alse":1007,"ined":1008,"Ġdec":1009,"Ġthen":1010,"ars":1011,"Ġour":1012,"olog":1013,"Ġconst":1014,"Ch":1015,"der":1016,"ities":1017,"let":1018,"Ġloc":1019,"cent":1020,"oy":1021,"ST":1022,"orn":1023,"RE":1024,"lock":1025,"Id":1026,"irect":1027,"vent":1028,"Ġcall":1029,"Ġafter":1030,"ĠAr":1031,"els":1032,"cess":1033,"ash":1034,"Ġuse":1035,"elta":1036,"Ġrequ":1037,"meric":1038,"ility":1039,"ince":1040,"ead":1041,"ally":1042,"Ġline":1043,"Com":1044,"ures":1045,")\\":1046,"ho":1047,"Ġop":1048,"ween":1049,"Ġdist":1050,"type":1051,"ĠWe":1052,"ider":1053,"Ġgener":1054,"Ġerr":1055,"Ġused":1056,"ced":1057,"ĠNew":1058,"../../":1059,"__":1060,"ivers":1061,"Ġsec":1062,"ement":1063,"Ġspec":1064,"ĠPro":1065,"ault":1066,"dd":1067,"ambda":1068,"Ġprov":1069,"uring":1070,"Ġshe":1071,"ible":1072,"Res":1073,"Ġatt":1074,"Ġself":1075,"abl":1076,"17":1077,"aid":1078,"ower":1079,"$\\":1080,"Ġco":1081,"Ġpol":1082,"Ġfe":1083,"ĠSe":1084,"min":1085,"lection":1086,"ript":1087,"Ġshow":1088,"ature":1089,"Ġph":1090,"ache":1091,"Ġfl":1092,"wn":1093,"read":1094,"ists":1095,"orld":1096,"hat":1097,"Ġmay":1098,"Ġrem":1099,"ts":1100,"urrent":1101,"html":1102,"://":1103,"plic":1104,"13":1105,"Ref":1106,"ank":1107,"Ġbetween":1108,"Ġsim":1109,"ception":1110,"AT":1111,"rough":1112,"amma":1113,"Ġval":1114,"son":1115,"ask":1116,"fl":1117,"pon":1118,"add":1119,"uth":1120,"Ġ`":1121,"val":1122,"air":1123,"Ġback":1124,"Ġpeople":1125,"Ġnumber":1126,"14":1127,"trans":1128,"ices":1129,"ution":1130,"Ġx":1131,"Ġcase":1132,"Ġbec":1133,"Ġcre":1134,"yle":1135,"ĠAl":1136,"Cl":1137,"Ġdev":1138,"_\\":1139,"ervice":1140,"Ar":1141,"ble":1142,"td":1143,"ily":1144,"Ġ==":1145,"Ġdiffer":1146,"ause":1147,"ength":1148,"Ġinst":1149,"arn":1150,"mathbb":1151,"ument":1152,"mu":1153,"bar":1154,"Ġdet":1155,"25":1156,"ier":1157,"ized":1158,"Ġent":1159,"ersion":1160,"back":1161,"Ġprodu":1162,"=\\":1163,"ages":1164,"Ġthem":1165,"ots":1166,"Ġnull":1167,"ule":1168,"Ġ\\\\":1169,"item":1170,"Ġstud":1171,"ren":1172,"Ġhigh":1173,"}_{":1174,"class":1175,"198":1176,"}^{":1177,"Ġmost":1178,"Ġ>":1179,"Ġorg":1180,"pi":1181,"att":1182,"List":1183,"Ġthese":1184,"ision":1185,"Ġtest":1186,"source":1187,"ines":1188,"Ġac":1189,"ins":1190,"Ġsystem":1191,"Ġhref":1192,"ough":1193,"code":1194,"message":1195,"ote":1196,"Ġgiv":1197,"itt":1198,"Ġeach":1199,"Ġgr":1200,"Ġchar":1201,"ished":1202,"Ġvoid":1203,"any":1204,"igma":1205,"Ġpoint":1206,"AR":1207,"ĠQ":1208,"oot":1209,"Ġequ":1210,"ega":1211,"ole":1212,"ĠSh":1213,"OR":1214,"epend":1215,"ym":1216,"ric":1217,"for":1218,"):":1219,"Ġthrough":1220,"-\\":1221,"ĠAmeric":1222,"Ġcor":1223,"Ġ=>":1224,"Ġinv":1225,"...":1226,"ternal":1227,"Ġam":1228,"ever":1229,"chool":1230,"30":1231,"Ġ)":1232,"LE":1233,"ey":1234,"oci":1235,"ivate":1236,"Ġtrue":1237,"ample":1238,"ason":1239,"rr":1240,"htt":1241,"wh":1242,"section":1243,"Ġeff":1244,"ĠFor":1245,"lation":1246,"phi":1247,"align":1248,"oh":1249,"Ġoper":1250,"press":1251,"mod":1252,"ID":1253,"uss":1254,"Tr":1255,"ments":1256,"man":1257,"ĠZ":1258,"bject":1259,"Ġsm":1260,"yp":1261,"/>":1262,"##":1263,"^{\\":1264,"apt":1265,"Ġest":1266,"string":1267,"ĠTr":1268,"Ġwell":1269,"ĠCon":1270,"Ġsign":1271,"eter":1272,"Ġdes":1273,"az":1274,"AL":1275,"));":1276,"action":1277,"bf":1278,"32":1279,"To":1280,"ĠAn":1281,"Ġhim":1282,"ute":1283,"ization":1284,"reat":1285,"Ġhow":1286,"Ġelse":1287,"Ġsaid":1288,"It":1289,"ek":1290,"hip":1291,"log":1292,"itle":1293,"lambda":1294,"Ġfield":1295,"ner":1296,"Ġfinal":1297,"iver":1298,"********":1299,"Ġ{\\":1300,"Ġlike":1301,"Ġagain":1302,"----------------":1303,"Ġed":1304,"Ġgroup":1305,"000":1306,"org":1307,"Ġstate":1308,"Ġever":1309,"ah":1310,"Ġyears":1311,"ĠĠĠĠĠĠĠĠĠĠĠĠĠĠĠĠĠĠĠĠĠĠĠĠĠĠĠĠĠĠĠĠ":1312,"ody":1313,"////":1314,"ife":1315,"Ġrep":1316,"ired":1317,"self":1318,"We":1319,"Ġsame":1320,"uc":1321,"ĠCl":1322,"ism":1323,"Refer":1324,"ĠAs":1325,"Ġser":1326,"21":1327,"ik":1328,"opt":1329,"elop":1330,"Ġstart":1331,"perty":1332,"Ġmethod":1333,"other":1334,"\\\\":1335,"Ġmin":1336,"EN":1337,"Ġstring":1338,"Ġfound":1339,"uff":1340,"Ġem":1341,"\"/>":1342,"ets":1343,"ces":1344,"work":1345,"Ġbr":1346,"Ġusing":1347,"mathbf":1348,"Ġjust":1349,"umn":1350,"197":1351,"ser":1352,"part":1353,"by":1354,"ilon":1355,"Ġext":1356,"Ġfalse":1357,"Ġcent":1358,"arget":1359,"SS":1360,"ĠX":1361,"Ġneed":1362,"Ġdesc":1363,"ream":1364,"data":1365,"gy":1366,"50":1367,"Ġmodel":1368,"fore":1369,"ott":1370,"Ġshould":1371,"ĠEx":1372,"Data":1373,"ouse":1374,"Ġwhat":1375,"uch":1376,"22":1377,"view":1378,"iversity":1379,"Ġsol":1380,"Ġ&&":1381,"Value":1382,"pre":1383,"ww":1384,"Ġlist":1385,"ful":1386,"Ġwhile":1387,"cept":1388,"ically":1389,"Ġdifferent":1390,"way":1391,"\");":1392,"erson":1393,"eps":1394,"Ġlong":1395,"ele":1396,"Ġappro":1397,"Ġobject":1398,"Ġyour":1399,"br":1400,"value":1401,"Ġboth":1402,"not":1403,"ĠĠĠĠĠĠ":1404,"arent":1405,"width":1406,"Ġparam":1407,"Ġsur":1408,"orth":1409,"ĠInd":1410,"ball":1411,"ared":1412,"array":1413,"Ġsecond":1414,"Ġ/**":1415,"Ġnon":1416,"ale":1417,"overn":1418,"Ġbeing":1419,"ccess":1420,"ified":1421,"._":1422,"'t":1423,"formation":1424,"new":1425,"Ġopt":1426,"ee":1427,"aj":1428,"Ġthree":1429,"loc":1430,"ants":1431,"ilde":1432,"cd":1433,"Ġcould":1434,"mary":1435,"Ġdr":1436,"Set":1437,"Ġright":1438,"Ġmy":1439,"Ġpartic":1440,"beta":1441,"ional":1442,"atus":1443,"Ġ--":1444,"ĠĠĠĠĠĠĠĠĠĠĠĠĠĠĠĠĠĠĠĠĠĠĠ":1445,"outh":1446,"sigma":1447,"Ġsing":1448,"Ġnow":1449,"References":1450,"ister":1451,"angle":1452,"Ġlead":1453,"Ġmany":1454,"Err":1455,"ify":1456,"^{-":1457,"ron":1458,"struct":1459,"Ġgiven":1460,"24":1461,"Ġbefore":1462,"rem":1463,"];":1464,"\")":1465,"ger":1466,"Ġdirect":1467,"Ġrun":1468,"Ġperform":1469,"Ġ(\\":1470,"face":1471,"ury":1472,"til":1473,"serv":1474,"}{\\":1475,"play":1476,"Ġorder":1477,"ten":1478,"includ":1479,"roll":1480,"Ġart":1481,"ense":1482,"test":1483,"Un":1484,"Ġ!=":1485,"Object":1486,"rop":1487,"ather":1488,"Ġsupport":1489,"Ġ///":1490,"heck":1491,"Ġfollowing":1492,"ru":1493,"vel":1494,"Ġhand":1495,"Col":1496,"Ġread":1497,"\"><":1498,"Ġbl":1499,"aking":1500,"Ġterm":1501,"Ġduring":1502,"ĠCol":1503,"ases":1504,"196":1505,"date":1506,"af":1507,"ency":1508,"cont":1509,"For":1510,"IT":1511,"rol":1512,"Ġfam":1513,"ross":1514,"Ġmade":1515,"SE":1516,"ler":1517,"irc":1518,"Ġmat":1519,"AN":1520,"*}":1521,"Ġdisc":1522,"bers":1523,"Ġfact":1524,"ting":1525,"itions":1526,"file":1527,"Ġz":1528,"gram":1529,"requ":1530,"Ġbel":1531,"ĠĠĠĠĠĠĠĠĠĠĠĠĠ":1532,"ived":1533,"ava":1534,"ains":1535,"her":1536,"+\\":1537,"Ġbecause":1538,"figure":1539,"try":1540,"By":1541,"arly":1542,"gamma":1543,"ality":1544,"ĠSc":1545,"Ġevery":1546,"Ġserv":1547,"========":1548,".\"":1549,"mathrm":1550,"')":1551,"ĠIf":1552,"Exception":1553,"Ġmon":1554,"translation":1555,"Ġsee":1556,"ood":1557,"CT":1558,"En":1559,"med":1560,"par":1561,"Ġdoes":1562,"Ġown":1563,"ane":1564,"As":1565,"Ġcurrent":1566,"ural":1567,".,":1568,"px":1569,"sy":1570,"Ġmed":1571,"oad":1572,"ential":1573,"ology":1574,"($":1575,"Ġarg":1576,"Ġmake":1577,"ĠIs":1578,"ĠFr":1579,"],":1580,"Ġwrit":1581,"Ġlink":1582,"DE":1583,"led":1584,"Ã©":1585,"Test":1586,"reg":1587,"ĠAmerican":1588,"ector":1589,"Ġid":1590,"]{":1591,"100":1592,"Get":1593,"Ġprivate":1594,"inter":1595,"co":1596,"Ġrele":1597,"Ġprocess":1598,"function":1599,"Ġlast":1600,"Ġmem":1601,"ral":1602,"Ġdevelop":1603,"Ġteam":1604,"ows":1605,"que":1606,"ning":1607,"Ġresp":1608,"Ġconsider":1609,"raw":1610,"day":1611,"delta":1612,"ually":1613,"ĠUniversity":1614,"aining":1615,"time":1616,"order":1617,"An":1618,"Ġapp":1619,"size":1620,"etwork":1621,"Ġ%":1622,"theta":1623,"Ind":1624,")}":1625,"Ġcontin":1626,"ively":1627,"^\\":1628,"ĠDe":1629,"On":1630,"ission":1631,"unc":1632,"Ġmain":1633,"ives":1634,"lob":1635,"Ġgu":1636,"Error":1637,"Ġeven":1638,"ground":1639,"itial":1640,"23":1641,"ĠUnited":1642,"ulation":1643,"Ġkey":1644,"Ġexper":1645,"40":1646,"usic":1647,"summary":1648,"Ġstatic":1649,"Ġexpect":1650,"sec":1651,"Ġmov":1652,"Ġstruct":1653,"field":1654,"istory":1655,"Ġelement":1656,"Ġvery":1657,"leq":1658,"Ġdid":1659,"Ġimport":1660,"Ġpass":1661,"Im":1662,"lp":1663,"};":1664,"Ġbuild":1665,"Cont":1666,"eters":1667,"tau":1668,"lex":1669,"Ġbo":1670,"vert":1671,"mbol":1672,"space":1673,"arrow":1674,"$-":1675,"arge":1676,"ĠOn":1677,"Ġfind":1678,"Ġfin":1679,"ected":1680,"ME":1681,"rho":1682,"pm":1683,"rite":1684,"Ġu":1685,"ina":1686,"comm":1687,"ience":1688,"Ġpop":1689,"chn":1690,"dis":1691,"ush":1692,"ĠString":1693,"ĠLe":1694,"Ġeffect":1695,"gr":1696,"Ġav":1697,"pp":1698,"This":1699,"Ġsince":1700,"ohn":1701,"ctions":1702,"Ġevent":1703,"ability":1704,"().":1705,"ocument":1706,"big":1707,"ering":1708,"reak":1709,"}$,":1710,"Ġsl":1711,"');":1712,"}$.":1713,"Ġorig":1714,"load":1715,"Ġsmall":1716,"Ġbeg":1717,"());":1718,"ĠMar":1719,"}(\\":1720,"ĠComm":1721,"omen":1722,"me":1723,"Ġway":1724,"Mod":1725,"times":1726,"eqref":1727,"head":1728,"ograph":1729,"ĠAnd":1730,"alth":1731,"ager":1732,"Ġtop":1733,"ior":1734,"pace":1735,"ports":1736,"alk":1737,"Ġerror":1738,"chi":1739,"2019":1740,"be":1741,"ober":1742,"ords":1743,"Ġvari":1744,"Ġthose":1745,"Ġappe":1746,"rix":1747,"uthor":1748,"Ġmet":1749,"Ġlocal":1750,"enn":1751,"ĠShe":1752,"iving":1753,"aces":1754,"2018":1755,"Ġchild":1756,"Ġresults":1757,"Ġbro":1758,"Ġincluding":1759,"url":1760,"Ġopen":1761,"ĠPh":1762,"au":1763,"ital":1764,"util":1765,"Ġcond":1766,"Ġsize":1767,"ley":1768,"ape":1769,"Class":1770,"Sh":1771,"vious":1772,"reen":1773,"ĠPl":1774,"ription":1775,"ness":1776,"table":1777,"Ġcr":1778,"une":1779,"ĠEng":1780,"go":1781,"Ġpresent":1782,"opy":1783,"CO":1784,"Key":1785,"Ġhead":1786,"64":1787,"Ġfour":1788,"Ġagainst":1789,"istr":1790,"partial":1791,"itor":1792,"color":1793,"ustr":1794,"Ġrepresent":1795,"efore":1796,"quad":1797,"Ġworld":1798,"AC":1799,"Ġtem":1800,"Ġinformation":1801,"less":1802,"mp":1803,"ĠPr":1804,"Ġmult":1805,"acter":1806,"Ġpres":1807,"ĠRes":1808,"ĠHow":1809,"Requ":1810,"list":1811,"Ġdown":1812,"oss":1813,"Ġprovid":1814,"arm":1815,"fty":1816,"Ġref":1817,"Ph":1818,"Ġknow":1819,"UL":1820,"nb":1821,"index":1822,"28":1823,"agn":1824,"27":1825,"urs":1826,"lected":1827,"Ġleft":1828,"ĠMay":1829,"Ġposs":1830,"umer":1831,"Ġcar":1832,"uration":1833,"akes":1834,"nu":1835,"top":1836,"infty":1837,"Ġfr":1838,"iter":1839,".âĢĿ":1840,"ties":1841,"angu":1842,"Ġcommun":1843,"Ġanal":1844,"bo":1845,"omega":1846,"Ġknown":1847,"rc":1848,"tilde":1849,"path":1850,"http":1851,"Ġfile":1852,"2017":1853,"por":1854,"ats":1855,"ui":1856,"ium":1857,"Ġcoun":1858,"2016":1859,"uro":1860,"iness":1861,"Ġ/*":1862,"|\\":1863,"26":1864,"Ġincre":1865,"/**":1866,"side":1867,"Ġvis":1868,"Ġ:=":1869,"RO":1870,"Ġrece":1871,"length":1872,"].":1873,"Element":1874,"idd":1875,"search":1876,"ope":1877,"Ġmust":1878,"(),":1879,"ĠĠĊ":1880,"gor":1881,"resp":1882,"File":1883,"Ġgovern":1884,"off":1885,"Ġcalled":1886,"\".":1887,"Delta":1888,"Ġ$(":1889,"Ġmuch":1890,"Ġpar":1891,"uck":1892,"ven":1893,"ĉĉĉĉĉ":1894,"ĠStates":1895,"ird":1896,"Ġmark":1897,"33":1898,"Ġlook":1899,"Ġrefer":1900,"ret":1901,"Ġlater":1902,"ival":1903,"Ġbased":1904,"Ġschool":1905,"met":1906,"ained":1907,"/*":1908,"link":1909,"ĠAd":1910,"Ġlim":1911,"Event":1912,"come":1913,"ĠBr":1914,"Ġfilm":1915,"Ġaut":1916,"uffer":1917,"Ġ,":1918,"Node":1919,"Ġdesign":1920,"['":1921,"Ġ);":1922,"lear":1923,"Ġbound":1924,"Ġhere":1925,"ends":1926,"Def":1927,"nbsp":1928,"ension":1929,"Ġproble":1930,"ĠOr":1931,"ety":1932,"Int":1933,"ai":1934,"Ġreal":1935,"script":1936,"ched":1937,"ribute":1938,"itive":1939,"Ġdescrib":1940,"tract":1941,"Al":1942,"194":1943,"2015":1944,"ording":1945,"Qu":1946,"\";":1947,"ification":1948,"inc":1949,"IC":1950,"Ġcount":1951,"ĠAss":1952,"PE":1953,"Ġobtain":1954,"lem":1955,"ĠWh":1956,"ination":1957,"Ġnext":1958,"Ġexp":1959,"ĠJohn":1960,"Ġdep":1961,"ised":1962,"Ġvalues":1963,"With":1964,"29":1965,"ĠAll":1966,"Ġassert":1967,"ternational":1968,"Ġstand":1969,"const":1970,"Ġstill":1971,"ĠâĢĶ":1972,"where":1973,"Ġ?":1974,"olv":1975,"ift":1976,"Ġident":1977,"Ġthrow":1978,"Âł":1979,"Ġprogram":1980,"Ġaround":1981,".</":1982,"sq":1983,"Time":1984,"Ġlife":1985,"âĢľ":1986,"Ġexpl":1987,"2014":1988,"Ġtyp":1989,"ĠĠĠĠĊ":1990,"Se":1991,"Equ":1992,"ootball":1993,"Ġobserv":1994,"Ġhelp":1995,"Ġarray":1996,"amed":1997,"ene":1998,"ries":1999,"Ġmeas":2000,"olution":2001,"Ġlarge":2002,"rist":2003,"ĠJul":2004,"odes":2005,"itional":2006,"cm":2007,"\":":2008,"xi":2009,"tab":2010,"pty":2011,"cit":2012,"He":2013,"Ġseries":2014,"vir":2015,"ĠSp":2016,"cale":2017,"Ġpower":2018,"eqn":2019,"Ġgood":2020,"node":2021,"rt":2022,"sl":2023,"ION":2024,"TE":2025,"ponse":2026,"195":2027,"urther":2028,"roid":2029,"Ġdistribut":2030,"Not":2031,"PI":2032,"Ġtitle":2033,"bum":2034,"position":2035,"see":2036,"\\,":2037,"ately":2038,"View":2039,"LA":2040,"Ġsever":2041,"Ġperson":2042,"Path":2043,"Ġrequest":2044,"fil":2045,"Ġgame":2046,"urch":2047,"Ġseason":2048,"ari":2049,"ĠGr":2050,"group":2051,"bl":2052,"usiness":2053,"Ġwant":2054,"ths":2055,"ped":2056,"Ġlaw":2057,"aps":2058,"Ġbook":2059,"Param":2060,"Ġdi":2061,"Info":2062,"ches":2063,"ended":2064,"Ġfamily":2065,"ormal":2066,"olean":2067,"Add":2068,"ĠBl":2069,"Ġpost":2070,"Ġke":2071,"ĠAt":2072,"Ġtake":2073,"Ġlinks":2074,"Ġpath":2075,"aint":2076,"orem":2077,"Ġplayers":2078,"']":2079,"ently":2080,"Ġpat":2081,"ĠCan":2082,"ĠYou":2083,"cdot":2084,"aving":2085,"Request":2086,"sk":2087,"box":2088,"Ġwithin":2089,"but":2090,"Ġsingle":2091,"acy":2092,"ampl":2093,"ogle":2094,"ison":2095,"ources":2096,"ĠWorld":2097,"Ġrespect":2098,"duct":2099,"Ġspace":2100,"$$":2101,"ĠNational":2102,"Ġcour":2103,"lobal":2104,"Ġocc":2105,"Index":2106,"ĠRe":2107,"Ġtext":2108,"perties":2109,"Ġann":2110,"}[":2111,"Ġcare":2112,"public":2113,"js":2114,"epsilon":2115,"Ġplace":2116,"Ġprot":2117,"ĠCent":2118,"60":2119,"Ġtarget":2120,"Ġreport":2121,"80":2122,"iction":2123,"Ġexample":2124,"Man":2125,"TR":2126,"}}\\":2127,"Pl":2128,"ators":2129,"location":2130,"State":2131,"sim":2132,"2013":2133,"bs":2134,"Array":2135,"ajor":2136,"ĠMan":2137,"Ġmass":2138,"uf":2139,"Ġproject":2140,"ĠCar":2141,"iod":2142,"Ġview":2143,"Ġdon":2144,"ibr":2145,"':":2146,")$.":2147,"omet":2148,"no":2149,"aster":2150,"ĠJan":2151,"point":2152,"energy":2153,"ession":2154,"ague":2155,"Ġrad":2156,"pack":2157,"Text":2158,"plication":2159,"ero":2160,"Ġgeneral":2161,"Ġ},":2162,"Ġorgan":2163,"anguage":2164,"hes":2165,"ustom":2166,"ored":2167,"Ġold":2168,"ploy":2169,"Ġoriginal":2170,"aim":2171,"wit":2172,"respond":2173,"Ġlet":2174,"Ġlog":2175,"Or":2176,"Ġbest":2177,"ians":2178,"Config":2179,"ailable":2180,"2012":2181,"Ġ(!":2182,"ugg":2183,"ttp":2184,"Ġwithout":2185,"Ġuntil":2186,"AS":2187,"ĠThey":2188,"ĠYork":2189,"Ġ===":2190,"ĠCount":2191,"Ġadv":2192,"2010":2193,"icy":2194,"External":2195,"wards":2196,"Field":2197,"Ġiss":2198,"illion":2199,"Ġpolit":2200,"ait":2201,"Ġsuccess":2202,"rodu":2203,"ilar":2204,"Re":2205,"Ġcap":2206,"Map":2207,"indow":2208,"ances":2209,"ocus":2210,"}_{\\":2211,"stance":2212,"Ġbeh":2213,"Ġdem":2214,"Ġmax":2215,"Ġnear":2216,"())":2217,"Ġnil":2218,"Ġestabl":2219,"Ġalong":2220,"api":2221,"ĠUS":2222,"with":2223,"Ġarea":2224,"ume":2225,"\"></":2226,"Ġday":2227,"atures":2228,"All":2229,"ĠNov":2230,"2011":2231,"lim":2232,"UR":2233,"ĠRep":2234,"Context":2235,"Ġchang":2236,"ump":2237,"Om":2238,"Ġallow":2239,"Ġtechn":2240,"posed":2241,"Ġsum":2242,"aut":2243,"Fil":2244,"Ġmusic":2245,"Ġcheck":2246,"mat":2247,"Ġdue":2248,"define":2249,"////////":2250,"psi":2251,"Ġnode":2252,"result":2253,"map":2254,"Ġdel":2255,"Ġanother":2256,"35":2257,"Ġcal":2258,"ij":2259,"ourn":2260,"Over":2261,"Ġabove":2262,"amespace":2263,"Ġ});":2264,"ways":2265,"my":2266,"Ġinput":2267,"pression":2268,"Ġnetwork":2269,"Ġrecord":2270,"ertain":2271,"Ġversion":2272,"ride":2273,"error":2274,"stru":2275,"++":2276,"Ġoffic":2277,"max":2278,"Ġthink":2279,"IS":2280,"raphics":2281,"Ġinterest":2282,"void":2283,"Ġtot":2284,"leg":2285,"ĠWest":2286,"Ġelect":2287,"iam":2288,"ixed":2289,"New":2290,"ems":2291,"oper":2292,"Ġdefault":2293,"aper":2294,"Ġassum":2295,"ails":2296,"arr":2297,"Ġblock":2298,"sm":2299,"ivity":2300,"Ġinitial":2301,"ĠSchool":2302,"aff":2303,"``":2304,"ags":2305,"ĠBut":2306,"Ġseveral":2307,"ĠGe":2308,"AD":2309,"ules":2310,"Ġalbum":2311,"Form":2312,"ĠTo":2313,"ware":2314,"Ġleg":2315,"Ġsk":2316,"ĠBrit":2317,"Ġtri":2318,"Ġ/>":2319,"Ġtry":2320,"ĠFig":2321,"LO":2322,"ĠHowever":2323,"Service":2324,"uary":2325,"textbf":2326,"imal":2327,"user":2328,"ĠReg":2329,"Ġinteg":2330,"ĠOct":2331,"assert":2332,"Omega":2333,"****************":2334,"Ġcharacter":2335,"ocial":2336,"capt":2337,"ĠAug":2338,"rel":2339,"ĠPol":2340,"Ġet":2341,"ĠEn":2342,"imate":2343,"Ġbas":2344,"Ġexist":2345,"';":2346,"ling":2347,"ĠBe":2348,"icle":2349,"ĠWar":2350,"ony":2351,"uk":2352,"Sc":2353,"Ġweek":2354,"eturn":2355,"uman":2356,"Ġcreate":2357,"Ġparticular":2358,"Ġsource":2359,"34":2360,"ique":2361,"ensure":2362,",âĢĿ":2363,"Ġuser":2364,"ED":2365,"plement":2366,"Ġinclude":2367,"urity":2368,"fin":2369,"uments":2370,"Ġbase":2371,"^*":2372,"ament":2373,"90":2374,"Ġenergy":2375,"icon":2376,"plit":2377,"Ġcontext":2378,"Ġbecame":2379,"MA":2380,"comp":2381,"plate":2382,"ĠSouth":2383,"ĠĠĠĠĠĠĠĠĠĠĠĠĠĠĠĠĠĠĠĠĠĠĠĠĠĠĠ":2384,"Ġstat":2385,"Ġwin":2386,"ĠMin":2387,"Ġstyle":2388,"nder":2389,"Ġspe":2390,"oman":2391,"aus":2392,")$,":2393,"apache":2394,"Ġsay":2395,"Ġprevious":2396,"ideo":2397,"Of":2398,"https":2399,"Ġcorrespond":2400,"System":2401,"ĠApr":2402,"www":2403,"bold":2404,"abled":2405,"from":2406,"Gamma":2407,"Is":2408,"Ġservice":2409,"urope":2410,"Ġret":2411,"Ġposition":2412,"Ġenc":2413,"ued":2414,"Ġdepend":2415,"reate":2416,"ĠMarch":2417,"Val":2418,"psilon":2419,"viron":2420,"Ġdefined":2421,"prot":2422,"Att":2423,"UT":2424,"ponent":2425,"valid":2426,"Ġdom":2427,"state":2428,"ither":2429,"input":2430,"ptember":2431,"Ġbreak":2432,"inition":2433,"erman":2434,"ync":2435,"Ġlearn":2436,"Size":2437,"sup":2438,"eqnarray":2439,"true":2440,"ĠCounty":2441,"Ġassoci":2442,"Ġhome":2443,"Ġ__":2444,"oo":2445,"ands":2446,"ustral":2447,"call":2448,"Ġlarg":2449,"ĠTe":2450,"Ġsong":2451,"ĠNo":2452,"Ġlevel":2453,"Ġdeath":2454,"Ġindex":2455,"object":2456,"nav":2457,"ĠJuly":2458,"ilt":2459,"ĠJune":2460,"Ġcontent":2461,"Ġcomput":2462,"subsection":2463,"ayer":2464,"Ġinstance":2465,"Hand":2466,"Ġbu":2467,"ouble":2468,"ĠState":2469,"IG":2470,"Ġeng":2471,"gorith":2472,"Ġfew":2473,"Ġpo":2474,"ially":2475,"Code":2476,"Ġ};":2477,"sqrt":2478,"FF":2479,"atter":2480,"Ġchange":2481,"Ġins":2482,"ĠPar":2483,"Ġinvest":2484,"Ġfootball":2485,"Result":2486,"nection":2487,"[]":2488,"CH":2489,"ides":2490,"istor":2491,"2009":2492,"hold":2493,"caption":2494,"Ġshort":2495,"Ġaff":2496,"Ġfull":2497,"ysis":2498,"mber":2499,"ynam":2500,"Ġden":2501,"\"\"":2502,"ĠGu":2503,"dom":2504,"ables":2505,"symbol":2506,"lin":2507,"Ġrange":2508,"eff":2509,"ĠÐ":2510,"99":2511,"Ġturn":2512,"Ġgovernment":2513,"md":2514,"ured":2515,"31":2516,"Ġprom":2517,"iment":2518,"ĠCal":2519,"Ġhold":2520,"Ġoptions":2521,"Ġsat":2522,"Ġla":2523,"de":2524,"aced":2525,"Ġcontrol":2526,"config":2527,"ards":2528,"pose":2529,"igned":2530,"ux":2531,"ica":2532,"Ġearly":2533,"ailed":2534,"oin":2535,"cast":2536,"member":2537,"eve":2538,"âĢĶ":2539,"annel":2540,"2008":2541,"bm":2542,"stit":2543,"alf":2544,"ender":2545,"enu":2546,"ready":2547,"45":2548,"ung":2549,"Ġtotal":2550,"Ġcur":2551,"At":2552,"Ġmap":2553,"Ġ${\\":2554,"ention":2555,"ĠBy":2556,"Ġredu":2557,"Ġavailable":2558,"Ġpoints":2559,"ateg":2560,"From":2561,"Ġclos":2562,"Ġcode":2563,"ĠThere":2564,"Ġcity":2565,"lege":2566,"ĠChrist":2567,"vare":2568,"75":2569,"ayout":2570,"Ġdeterm":2571,"Ġcrit":2572,"ilit":2573,"Ġbir":2574,"ales":2575,"^{(":2576,"ĠCity":2577,"style":2578,"Ġmembers":2579,"Ġconfig":2580,"func":2581,"!--":2582,"Ġaction":2583,"Ġsimilar":2584,"create":2585,"ĠApril":2586,"Ġmajor":2587,"ĠEd":2588,"ights":2589,"loat":2590,"ney":2591,"Ġstudy":2592,"Ġlow":2593,"ĠSeptember":2594,"ET":2595,"stand":2596,"fess":2597,"ĠAugust":2598,"ĠSec":2599,"down":2600,"Ġvol":2601,"body":2602,"default":2603,"ought":2604,"36":2605,"ĠčĊ":2606,"ĠâĢĺ":2607,"non":2608,"mm":2609,"Ġwomen":2610,"prov":2611,"urg":2612,"ĠCo":2613,"Ġcomplet":2614,"Ġrest":2615,"Ġmatch":2616,"gress":2617,"Ġprob":2618,"Ġsection":2619,"Build":2620,"Ġpubl":2621,"tes":2622,"semb":2623,"Ġport":2624,"Ġless":2625,"varepsilon":2626,"Ġaccess":2627,"ING":2628,"Ġmar":2629,"01":2630,"ken":2631,"ĠOctober":2632,"Ġproblem":2633,"imum":2634,"}^{\\":2635,"ending":2636,"Ġ\\,":2637,"bit":2638,"center":2639,"pen":2640,"ĠEurope":2641,"ius":2642,"ĠJanuary":2643,"ES":2644,"Ġperiod":2645,"''":2646,"=\"../../":2647,"ĠGet":2648,"istic":2649,"Out":2650,"Ġmean":2651,"lish":2652,"MP":2653,"uture":2654,"If":2655,"Ġcompany":2656,"sw":2657,"Reg":2658,"Ġpossible":2659,"ĠFl":2660,"And":2661,"Ġimportant":2662,"Ġwon":2663,"Ġbusiness":2664,"struction":2665,"cember":2666,"Ġdiv":2667,"ĠSystem":2668,"ĠMed":2669,"Ġformer":2670,"andom":2671,"word":2672,"Ġcho":2673,"}=":2674,"ĠSup":2675,"ĠNorth":2676,"block":2677,"egraphics":2678,"includegraphics":2679,"Inter":2680,"ĠĠĠĠĠĠĠĠĠĠĠĠ":2681,"Ġbackground":2682,"icro":2683,"ĠAir":2684,"Message":2685,"US":2686,"Ġcompon":2687,"ĠWill":2688,"raft":2689,"ae":2690,"Ġpot":2691,"ients":2692,"Trans":2693,"ML":2694,"Ġrequire":2695,"lev":2696,"inary":2697,"Ġgrow":2698,"Ġproduct":2699,"Ġside":2700,"ottom":2701,"rightarrow":2702,"UN":2703,"Ġcomb":2704,"cer":2705,"ĠAb":2706,"ze":2707,"ĠFeb":2708,"vironment":2709,"rew":2710,"Call":2711,"Ġtimes":2712,"iple":2713,"Ġide":2714,"2007":2715,"38":2716,"AB":2717,"Item":2718,"39":2719,"aterial":2720,"Ġshows":2721,")(":2722,"idual":2723,"Ġshown":2724,"aged":2725,"Loc":2726,"Ġwhe":2727,"lient":2728,")=":2729,"37":2730,"ably":2731,"ittle":2732,"ones":2733,"Ġconf":2734,"Ġcell":2735,"ĠAustral":2736,"Ġfore":2737,"Ġdiscuss":2738,"Ġproperty":2739,"ising":2740,"....":2741,"emph":2742,"Ġ()":2743,"âĢ¦":2744,"Query":2745,"include":2746,"Up":2747,"--------------------------------":2748,"Ġchildren":2749,"Group":2750,"Ġinc":2751,"Dis":2752,"irt":2753,"Ser":2754,"conom":2755,"Ġresearch":2756,"ĠPart":2757,"earch":2758,"lete":2759,"rangle":2760,"onse":2761,"ham":2762,"rec":2763,"Ġstrong":2764,"ection":2765,"='":2766,"oken":2767,"sequ":2768,"ĠII":2769,"2020":2770,"Ġ($":2771,"Ġfree":2772,"ried":2773,"ĠDr":2774,"version":2775,"wid":2776,"Ġpred":2777,"05":2778,"Comm":2779,"Ġintrodu":2780,"Cell":2781,"erefore":2782,"ptions":2783,"Ġland":2784,"Ġresponse":2785,"tings":2786,"Ġterms":2787,"Ġimage":2788,"ada":2789,"Ġmodels":2790,"Big":2791,"Ġdat":2792,"Ġsuper":2793,"mult":2794,"ino":2795,"thern":2796,"ĠNovember":2797,"iff":2798,"Rec":2799,"Ġder":2800,"escription":2801,"Ġauthor":2802,"ULL":2803,"Ġhistory":2804,"ecut":2805,"uation":2806,"Ð¾":2807,"thers":2808,"ependent":2809,"ĠMc":2810,"bt":2811,"ster":2812,"Ġdocument":2813,"Ġexpected":2814,"Ġlength":2815,"Ġgreat":2816,"Ġput":2817,"tainer":2818,"ours":2819,"Log":2820,"amples":2821,"dev":2822,"ruary":2823,"geq":2824,"start":2825,"Pr":2826,"ĉĉĉĉĉĉ":2827,"2006":2828,"ks":2829,"ĠDecember":2830,"ana":2831,"Ġconc":2832,"ampions":2833,"though":2834,",\"":2835,"Ġtoo":2836,"ensity":2837,"cul":2838,"Ġsit":2839,"ibility":2840,"####":2841,"boldsymbol":2842,"oud":2843,"Ġleast":2844,"Ġsom":2845,"ude":2846,"rior":2847,"title":2848,"imation":2849,"ĠRec":2850,"ĠBo":2851,"Ġcompet":2852,"clus":2853,"info":2854,"varphi":2855,"ifier":2856,"Ġsy":2857,"Read":2858,"Ġplayed":2859,"Ġfollows":2860,"otype":2861,"Ġquest":2862,"Ġgl":2863,"ached":2864,"Ġreleased":2865,"Ġdeg":2866,"2000":2867,"Ġjava":2868,"ops":2869,"roller":2870,"Ġgoing":2871,"Ġregion":2872,"proof":2873,"Ġphot":2874,"yl":2875,"agement":2876,".~\\":2877,"Ġmember":2878,"Ġindic":2879,"Ġspect":2880,"options":2881,"Ġfurther":2882,"Ġaddress":2883,"Ġalready":2884,"Ġcover":2885,"now":2886,"Ġcorre":2887,"Ð°":2888,"Ġnever":2889,"Ġoutput":2890,"Ġparameters":2891,"70":2892,"frak":2893,"Ġrepl":2894,"Arg":2895,"ories":2896,"Ġspecial":2897,"tra":2898,"Count":2899,"method":2900,"Ġcolor":2901,"ply":2902,"[\\":2903,"epar":2904,"Ġparent":2905,"Ġep":2906,"Ġmessage":2907,"check":2908,"eder":2909,"Property":2910,"Manager":2911,"aken":2912,"ĠSet":2913,"Ðµ":2914,"Ġsignific":2915,"ĠKing":2916,"ography":2917,"Ġhapp":2918,"ves":2919,"IP":2920,"Ġrole":2921,"vers":2922,"Ġperformance":2923,"parent":2924,"nect":2925,"apan":2926,"ĠList":2927,"orph":2928,"Ġtrack":2929,"TH":2930,"ught":2931,"yd":2932,"ework":2933,"urb":2934,"Ġalways":2935,"mark":2936,"Ġbeli":2937,".}":2938,"overline":2939,"Ġbetter":2940,"umb":2941,"Ġcountry":2942,"Ad":2943,"Ġhost":2944,"verage":2945,"ĠSo":2946,"ĠAp":2947,"ges":2948,"Ġtable":2949,"Ġstructure":2950,"ĠCor":2951,"Ġbool":2952,"anch":2953,"CE":2954,"Ġtook":2955,"ĠBritish":2956,"Ġparameter":2957,"isf":2958,"}).":2959,"},\\":2960,"eed":2961,"ĠAfter":2962,"Response":2963,"Ġdescribed":2964,"&\\":2965,"aul":2966,"Ġquant":2967,"Model":2968,"IL":2969,"Ġfeature":2970,"Ġevents":2971,"ĠĠĠĠĠĠĠĠĠĠ":2972,"=\"+":2973,"refer":2974,"|-":2975,"Ġlimit":2976,"rest":2977,"ĠBar":2978,"Ġeither":2979,"Ġlate":2980,"count":2981,"gorithm":2982,"ered":2983,"ĠAct":2984,"Ġstates":2985,"Ġrequired":2986,"Ġoften":2987,"ĠFebruary":2988,"ĠPres":2989,"66":2990,"OD":2991,"Ġsequ":2992,"Ġband":2993,"df":2994,"Let":2995,"hand":2996,"Ġpotential":2997,"End":2998,"eneral":2999,"Ġfive":3000,"Ġcoll":3001,"reet":3002,"Ġcommon":3003,"Ġ-->":3004,"ii":3005,"================":3006,"Ġq":3007,"Ġcou":3008,")^":3009,"ĠWhen":3010,"55":3011,"48":3012,"icient":3013,"rad":3014,"Ġfac":3015,"asc":3016,"Ġstory":3017,"ological":3018,"Client":3019,"Ġamong":3020,"Ġarr":3021,"Ġwidth":3022,"NA":3023,"Ġcost":3024,"base":3025,"Fl":3026,"ided":3027,"idence":3028,"si":3029,"ĠWith":3030,"Ġlabel":3031,"adem":3032,"artment":3033,"0000":3034,"Fr":3035,"iol":3036,"Ġant":3037,"Table":3038,"ington":3039,"Ġmight":3040,"ĠÂ":3041,"Ġhouse":3042,"Ġwater":3043,"idge":3044,"Ġclaim":3045,"web":3046,"Ġphys":3047,"ĠThese":3048,"content":3049,"cil":3050,"ald":3051,"cle":3052,"ogn":3053,"Ġprovide":3054,"alt":3055,"ĠSer":3056,"ĠEl":3057,"cond":3058,"Ġcomplex":3059,"Method":3060,"Ġhttp":3061,"context":3062,"Ġmeans":3063,"Ġthird":3064,"OT":3065,"Ġreally":3066,"asing":3067,"Ġhard":3068,"Ġbecome":3069,"icense":3070,"Ġcamp":3071,"reed":3072,"Ġdistribution":3073,"2005":3074,"ĠMe":3075,"ENT":3076,"Ġred":3077,"ĠHis":3078,"ibrary":3079,"Ġlight":3080,"Ġmillion":3081,"ĠRuss":3082,"etic":3083,"ged":3084,"Ġreceived":3085,"Ġsays":3086,"era":3087,"using":3088,"Ġclose":3089,"Ġaccount":3090,"OS":3091,"Ġindu":3092,"Ġgrad":3093,"Ġindiv":3094,"oph":3095,"Ġmot":3096,"empt":3097,"doc":3098,"ĠQu":3099,"hline":3100,"Ġdest":3101,"Ġnational":3102,"ips":3103,"quot":3104,"Ġfunctions":3105,"Ġfund":3106,"mathfrak":3107,"Ġinvolv":3108,"04":3109,"Ġhaving":3110,"Ġbig":3111,"Ġmeasure":3112,"ondon":3113,"Ġappear":3114,"Ġtown":3115,"Ġvalid":3116,"But":3117,"uster":3118,"Ġfocus":3119,"Lambda":3120,"most":3121,"Ġsix":3122,"ĠThen":3123,"dt":3124,"Ġage":3125,"sf":3126,"cell":3127,"false":3128,"ĠIm":3129,"ĠOne":3130,"Input":3131,"Ġbody":3132,"Ass":3133,"Ġpract":3134,"actory":3135,"Ġrelations":3136,"event":3137,"Ġheld":3138,"abor":3139,"Ġeas":3140,"ĠComp":3141,"](":3142,"ymmet":3143,"Ġair":3144,"Status":3145,"cy":3146,"Ġfar":3147,"Ġtask":3148,"na":3149,"Ġeduc":3150,"Ġhealth":3151,"lt":3152,"])":3153,"Ġattack":3154,"itted":3155,"Ġmom":3156,"See":3157,"Ġsuff":3158,"Ġabs":3159,"imens":3160,"lang":3161,"ration":3162,"ls":3163,"Ġstd":3164,"Ġnamed":3165,"2004":3166,"Ã¡":3167,"born":3168,"Ġcareer":3169,"ĠCont":3170,"ĠTest":3171,"rench":3172,"ille":3173,"Ġcontribut":3174,"Ġwhether":3175,"ĠCoun":3176,"ĠAfr":3177,"ike":3178,"Ed":3179,"uggest":3180,"ring":3181,"print":3182,"Ġgames":3183,"Ġarch":3184,"Ġcommunity":3185,"}}$":3186,"tem":3187,"ĠAg":3188,"vec":3189,"ĠHigh":3190,"ĠDav":3191,"imary":3192,"Ġsignificant":3193,"Sub":3194,"google":3195,"nown":3196,"Ġcreated":3197,"Ġtoget":3198,"anel":3199,"Ġvert":3200,"ĠOff":3201,"gt":3202,"Ġsent":3203,"thing":3204,"Ġtogether":3205,"Ġdiff":3206,"Ġacross":3207,"ĠArm":3208,"ĠChar":3209,"((":3210,"08":3211,"Ġmethods":3212,"AP":3213,"Ġgraph":3214,"Ġseen":3215,"Ġinfl":3216,"Ġpopulation":3217,"Ġbegan":3218,"44":3219,"unk":3220,"Ġfri":3221,"Ġcirc":3222,"Override":3223,"Ġtrad":3224,"Ġsepar":3225,"ĠLeague":3226,"image":3227,"Be":3228,"ese":3229,"Ġindividual":3230,"ĠSch":3231,"wise":3232,"Wh":3233,"Token":3234,"ements":3235,"ecess":3236,"ĠArt":3237,"Ġlower":3238,"argin":3239,"ething":3240,"Ġcult":3241,"spec":3242,"Ġyoung":3243,"element":3244,"Ġimplement":3245,"langle":3246,"Ġhuman":3247,"Stream":3248,"ĉĊ":3249,"book":3250,"ĠEnglish":3251,"SP":3252,"Ġapprox":3253,"~~":3254,"Ġdevelopment":3255,"Ġrate":3256,"ldots":3257,"Phi":3258,"Ġincluded":3259,"Ġpay":3260,"core":3261,"Ġborder":3262,"circ":3263,"ĠPark":3264,"iet":3265,"wide":3266,"Ġmen":3267,"mit":3268,"Ġsocial":3269,"TD":3270,"xy":3271,"EX":3272,"draw":3273,"orage":3274,"ithub":3275,"Ġsrc":3276,">(":3277,"utions":3278,">&":3279,"Ġvarious":3280,"Ġwar":3281,"Ġprovided":3282,"Ġgot":3283,"Ġdays":3284,"Ġplan":3285,"ampionship":3286,"init":3287,"package":3288,"Ġpaper":3289,"plied":3290,"illed":3291,"CC":3292,"Ġneg":3293,"ename":3294,"Ġable":3295,"Ġnum":3296,"07":3297,"Ġtraining":3298,"ference":3299,"ĠEast":3300,"oop":3301,"iation":3302,"ĠHouse":3303,"static":3304,"ĠJapan":3305,"Ġlik":3306,"db":3307,"02":3308,"net":3309,"iddle":3310,"User":3311,"aly":3312,"ĠAdd":3313,"Ġmagn":3314,"current":3315,"IR":3316,"Ġcome":3317,"Ġfeatures":3318,"ensuremath":3319,"dec":3320,"Ġannoun":3321,"Image":3322,"Ġche":3323,"Ġsystems":3324,"Ġgive":3325,"atural":3326,"Ġsatisf":3327,"medi":3328,"ĠLondon":3329,"Ġbuilt":3330,"iven":3331,"model":3332,"Ġblack":3333,"Ġcases":3334,"Ġapproach":3335,"Ġconsidered":3336,"65":3337,"ican":3338,"eople":3339,"Ġmaking":3340,"rown":3341,"Ġanalysis":3342,"mar":3343,"ĠInt":3344,"Ġsite":3345,"Americ":3346,"Ġ``":3347,"has":3348,"Ġelements":3349,"Util":3350,"Ġproperties":3351,"ĠPer":3352,"ford":3353,"Ġbuilding":3354,"Ġ<<":3355,"Equal":3356,"Ġwritten":3357,"Ġdone":3358,"ĠBro":3359,"Ġbelow":3360,"build":3361,"oney":3362,"Color":3363,"ĠDep":3364,"abase":3365,"HE":3366,"}),":3367,"Oper":3368,"abla":3369,"appa":3370,"){":3371,"ilitary":3372,"Ġcross":3373,"Ġra":3374,"ĠDef":3375,"Ġvia":3376,"ategory":3377,"Head":3378,"ĠLet":3379,"Ġconstruct":3380,"Str":3381,"based":3382,"Off":3383,"ĠMon":3384,"Ġfilms":3385,"aves":3386,"Ġassociated":3387,"Ġcame":3388,"Ġpublished":3389,"github":3390,"ama":3391,"No":3392,"Ġpair":3393,"bor":3394,"textit":3395,"\\|":3396,"Ġmatrix":3397,"Source":3398,"Ġworks":3399,"run":3400,"Ð¸":3401,"Ġtre":3402,"Pol":3403,"Sp":3404,"Ġpage":3405,"nabla":3406,"Ġreview":3407,"Options":3408,"Ġsche":3409,"light":3410,"ceed":3411,"ĠHar":3412,"ocr":3413,"Ġrow":3414,"Ġfuture":3415,"Ġworking":3416,".\\":3417,"atform":3418,"ournal":3419,"Builder":3420,"irection":3421,"Ġhowever":3422,"exp":3423,"ĠNot":3424,"citep":3425,"Style":3426,"Ġbi":3427,"Ġconditions":3428,"Ġlocated":3429,"next":3430,"ordin":3431,"ĠAng":3432,"ilities":3433,"ĠDis":3434,"Ġhigher":3435,"mbox":3436,"Ġcolumn":3437,"active":3438,"03":3439,"Ġconstant":3440,"Ġstandard":3441,"java":3442,"ĠNULL":3443,"Ġcontain":3444,"Ġaddition":3445,"06":3446,"Ġbegin":3447,"Ġdisplay":3448,"Ġgroups":3449,"ĠLa":3450,"ensor":3451,"Ġimp":3452,"OP":3453,"pected":3454,"Ġestablished":3455,"Instance":3456,"Ġemb":3457,"Ġaverage":3458,"2021":3459,"Ġonce":3460,"prototype":3461,"Ġsuggest":3462,"Ġcompos":3463,"FA":3464,"lections":3465,"Ġsolution":3466,"Ġgen":3467,"Ġalign":3468,"Ġlittle":3469,"Ġmeet":3470,"Null":3471,"Ġmer":3472,"95":3473,"acing":3474,"Ġtw":3475,"Ġhom":3476,"mail":3477,"Ġge":3478,"witch":3479,"})$":3480,"Ġemploy":3481,"NS":3482,"ises":3483,"rup":3484,"lector":3485,"client":3486,"Ġeconom":3487,"do":3488,"Ġmiss":3489,"ĠVal":3490,"Ġear":3491,"ids":3492,"ires":3493,"ĠRev":3494,"Ġobtained":3495,"Ġkeep":3496,"Block":3497,"ĠInternational":3498,"ĠAm":3499,"Ġboolean":3500,"MS":3501,"utes":3502,"Ġoffer":3503,"2003":3504,"avel":3505,"osp":3506,"irm":3507,"ĠCollege":3508,"Ġcertain":3509,"Ġsem":3510,"hib":3511,"ĠWilliam":3512,"subset":3513,"Ġconsist":3514,"Ġpack":3515,"Ġaway":3516,"Ġcommand":3517,"({":3518,"Ġtheory":3519,"Ġclub":3520,"case":3521,"Ġpast":3522,"foot":3523,"query":3524,"change":3525,"dr":3526,"ĠReturn":3527,"Ġthough":3528,"iance":3529,"Sec":3530,"ociety":3531,"aging":3532,"Ġhalf":3533,"dir":3534,"Ġplayer":3535,"Dec":3536,"Ġcustom":3537,"Ġclear":3538,"ns":3539,"\\%":3540,"null":3541,"ĠThat":3542,"Ġload":3543,"oon":3544,"child":3545,"Ġstation":3546,"OL":3547,"ĠSm":3548,"lying":3549,"09":3550,"Ġcondition":3551,"request":3552,"height":3553,"Run":3554,"izing":3555,"Ġnormal":3556,"Ġvideo":3557,"soft":3558,"year":3559,"Ġcle":3560,"Ġstep":3561,"Ġlanguage":3562,"Ġloss":3563,"ills":3564,"aring":3565,"Ġspecific":3566,"century":3567,"Ġstarted":3568,"Ġask":3569,"unic":3570,"ĠGo":3571,"ners":3572,"ĠHer":3573,"pc":3574,"igation":3575,"option":3576,"ĠSw":3577,"Base":3578,"Ġsomething":3579,"tx":3580,"Ġben":3581,"Ġglobal":3582,"BC":3583,"gen":3584,"kappa":3585,"YPE":3586,"ministr":3587,"otimes":3588,"istry":3589,"attle":3590,"GL":3591,"Ġstudents":3592,"button":3593,"ping":3594,"Pos":3595,"Ġtaken":3596,"IM":3597,"ĠTrans":3598,"Ġreason":3599,"Ġjob":3600,"actions":3601,"aries":3602,"args":3603,"Ġes":3604,"*/":3605,"ĠAmerica":3606,"CK":3607,"Ġmaterial":3608,"Ġscal":3609,"ĠPresident":3610,"chan":3611,"ĠIN":3612,"oke":3613,"Line":3614,"prop":3615,"ÑĤ":3616,"\\!":3617,"sing":3618,"ĠĠĠĠĠĠĠĠĠĠĠĠĠĠĠĠĠ":3619,"Ġenough":3620,"2001":3621,"II":3622,"Ġthings":3623,"AA":3624,"riter":3625,"Ġproduction":3626,"Ġpress":3627,"Ġmarket":3628,"Date":3629,"css":3630,"ĠMod":3631,"Ġcaus":3632,"Ġvill":3633,"Ġbirths":3634,"American":3635,"flow":3636,"ula":3637,"izer":3638,"pol":3639,"Spec":3640,"=\"../../../../":3641,"Ġservices":3642,"ĠPhil":3643,"Ġestim":3644,"ĠMich":3645,"49":3646,"ocol":3647,"eh":3648,"Ġinstead":3649,"iant":3650,"lib":3651,"ĠSim":3652,"Ġdensity":3653,";&":3654,"Ġcentury":3655,"Ġsimple":3656,"ishing":3657,"EL":3658,"Ġrandom":3659,"Ġachi":3660,"ging":3661,"Ġkind":3662,"irtual":3663,"cho":3664,"cap":3665,"elete":3666,"Ġwrite":3667,"RA":3668,"Ġadded":3669,"Ġang":3670,"2002":3671,"Ġcorresponding":3672,"ebug":3673,"Ġfrequ":3674,"istrict":3675,"Ġstatus":3676,"Ġothers":3677,"Ġcy":3678,"roy":3679,"Ġbit":3680,"78":3681,"target":3682,"Buffer":3683,"widet":3684,"uel":3685,"Ġaccording":3686,"eved":3687,"Ġwent":3688,"char":3689,"Ġcontains":3690,"Ġmedia":3691,"/\\":3692,"ĠIr":3693,"mon":3694,"Ġactiv":3695,"Bar":3696,"Act":3697,"page":3698,"Handler":3699,"cor":3700,"=\"#":3701,"Ġrespectively":3702,"namespace":3703,"Fig":3704,"iforn":3705,"eline":3706,"Ġprofess":3707,"Ġreturned":3708,"ael":3709,"ief":3710,"server":3711,"Sigma":3712,"avy":3713,"host":3714,"ĠMore":3715,"ĠDo":3716,"Ġcalcul":3717,"Ap":3718,"Ġlines":3719,"ĠĠĠĠĠĠĠĠĠĠĠĠĠĠĠĠĠĠĠĠĠĠĠĠĠĠĠĠĠĠĠ":3720,"Ġground":3721,"Ġbecom":3722,"Ġsearch":3723,"isk":3724,"Function":3725,"}}{":3726,"det":3727,"ugin":3728,"vis":3729,"Ġill":3730,"ĠFrench":3731,";</":3732,"Ġbehav":3733,"Ġ+=":3734,"Comp":3735,"place":3736,"astic":3737,"verse":3738,"Ġitem":3739,"ĠClass":3740,"\\[":3741,"ONT":3742,"module":3743,"widetilde":3744,"adata":3745,"display":3746,"Ġdefine":3747,"{-":3748,"Ġfields":3749,"ĠAc":3750,"plicit":3751,"ATE":3752,"UE":3753,"ites":3754,"Ġexpress":3755,"Ġround":3756,"append":3757,"Content":3758,"oding":3759,"ĉĠĠĠ":3760,"Ġpolitical":3761,"ĠMy":3762,"HT":3763,"Ġregular":3764,"ĠDev":3765,"88":3766,"aker":3767,"png":3768,"Ð½":3769,"ifornia":3770,"sembly":3771,"EE":3772,"App":3773,"OM":3774,"Ġinternational":3775,"47":3776,"Default":3777,"Ġ...":3778,"ĠCour":3779,"Sup":3780,"ĠNor":3781,"adding":3782,"Ġsubject":3783,"Ġperm":3784,"duc":3785,"ĠSan":3786,"Resource":3787,"Ġstop":3788,"plies":3789,"Ġchanges":3790,"ivil":3791,"open":3792,"Ġfail":3793,"There":3794,"Rep":3795,"Ġnov":3796,"atal":3797,"Ġmodule":3798,"SC":3799,"Ġmove":3800,"Ġserved":3801,"acity":3802,"itect":3803,"Ġcannot":3804,"Ġengine":3805,"iber":3806,"hel":3807,"small":3808,"Ġattempt":3809,"ĠĠĠĠĠĠĠĠĠĠĠĠĠĠ":3810,"hood":3811,"nonumber":3812,"Filter":3813,"Ġenvironment":3814,"After":3815,"apping":3816,"andid":3817,"elling":3818,"oted":3819,"Ġpositive":3820,"Component":3821,"Ġ\"\"\"":3822,"Ġver":3823,"Ġdistr":3824,"dots":3825,"Ġfig":3826,"Ġtreat":3827,"eger":3828,"Ġsw":3829,"ociation":3830,"Ġtemper":3831,"Ġeval":3832,"orge":3833,"under":3834,"ĠMark":3835,"Ġadditional":3836,"Ġmultiple":3837,"Ġrelated":3838,"Ġcopy":3839,"Ġdynam":3840,"ĠInter":3841,"Ġofficial":3842,"iqu":3843,"ico":3844,"AG":3845,"ptr":3846,"Ġhistor":3847,"Ġnecess":3848,"Ġborn":3849,"Ġpur":3850,"endif":3851,"Ġreported":3852,"Part":3853,"Ġthus":3854,"Ġrather":3855,"ha":3856,"Ġlive":3857,"Attribute":3858,"json":3859,"FI":3860,"ara":3861,"ĠRed":3862,"Ġspecies":3863,"Ġmoment":3864,"Ã³":3865,"Ġoption":3866,"iers":3867,"Ġvector":3868,"Ġnumer":3869,"Char":3870,"Ġphase":3871,"Ġsoft":3872,"centering":3873,"like":3874,"Ġdate":3875,"Ġparticip":3876,"can":3877,"ĠObject":3878,"][":3879,"Ġled":3880,"46":3881,"Ġlot":3882,"oved":3883,"Ġscale":3884,"itte":3885,"font":3886,"which":3887,"Ġunderstand":3888,"De":3889,"Ġcourse":3890,"sg":3891,"Ġheight":3892,"ributes":3893,"alle":3894,"ramework":3895,"Ġcut":3896,"ĠStud":3897,"ĠFirst":3898,"len":3899,"bra":3900,"used":3901,"Ġmakes":3902,"Ġprint":3903,"Ġlinear":3904,"Ġmulti":3905,"Ġconv":3906,"Version":3907,"Ġurl":3908,"Start":3909,"Ġstar":3910,"unch":3911,"ades":3912,"omb":3913,"su":3914,"arser":3915,"Ġ((":3916,"aches":3917,"known":3918,"Ġaccept":3919,"Ġclient":3920,"Ġtalk":3921,"ĠHam":3922,"Ġcontinu":3923,"dot":3924,"Ġentire":3925,"useum":3926,"Ġequation":3927,".)":3928,"Ġfeel":3929,"Ġprotected":3930,"Ext":3931,"Ġexists":3932,"push":3933,"ialog":3934,"ĠSection":3935,"rl":3936,"ĠIndian":3937,"iles":3938,"Ġoperator":3939,"Ġfall":3940,"Ġdouble":3941,"Ġunit":3942,"istics":3943,"Ġbar":3944,"lease":3945,"Ġrespons":3946,"bb":3947,"ĠRepublic":3948,"ube":3949,"ota":3950,"Ġcallback":3951,"android":3952,"Ġthought":3953,"php":3954,"unity":3955,"idden":3956,"icles":3957,"Ġson":3958,"apter":3959,"});":3960,"ĠCalifornia":3961,"ĠIndia":3962,"Ġss":3963,"Ġtypes":3964,"Ġaud":3965,"Ġtelev":3966,"Ġliter":3967,"atives":3968,"Number":3969,"Ġamount":3970,"indows":3971,"efined":3972,"Factory":3973,"izes":3974,"VER":3975,"thm":3976,"ĠStr":3977,"aign":3978,"Ġoperation":3979,"Point":3980,"itting":3981,"tabular":3982,"Ġcollection":3983,"Ġwhose":3984,"atory":3985,"Ġthrows":3986,"ÑĢ":3987,"Ġdistrict":3988,"first":3989,"ĠEm":3990,"Ġspecified":3991,"ĠGerman":3992,"Ġbroad":3993,"}-":3994,"Ġsuccessful":3995,"ĠSk":3996,"Ġsets":3997,"True":3998,"Ġsound":3999,"property":4000,"Ġviol":4001,"ĠGL":4002,"Ġlove":4003,"Gener":4004,"level":4005,"Ob":4006,"Ġalmost":4007,"obj":4008,"Ġprior":4009,"inst":4010,"Ġdeal":4011,"Ġproposed":4012,"edd":4013,"ĠDistrict":4014,"afe":4015,"Ġimprov":4016,"Ġcomponent":4017,"Ġproof":4018,"85":4019,"inn":4020,"Ġcomplete":4021,"Equals":4022,"TP":4023,"Ġtransform":4024,"Ġrecogn":4025,"ĠCr":4026,"ication":4027,"Ġ{@":4028,"\\]":4029,"write":4030,"ouch":4031,"Ġzero":4032,"och":4033,"anies":4034,"header":4035,"lands":4036,"Ġproduced":4037,"stream":4038,"Ġcenter":4039,"How":4040,"Ġstream":4041,"ship":4042,"Ġ->":4043,"Ġconstr":4044,"Prov":4045,"ĠSince":4046,"ĠUp":4047,"rs":4048,"cos":4049,"ĠEngland":4050,"rupt":4051,"Ġreference":4052,"Load":4053,"ĠFrom":4054,"ĠPal":4055,"Ġpercent":4056,"Ġcontr":4057,"ĠDon":4058,"Ġquestion":4059,"ened":4060,"96":4061,"Ġrelease":4062,"Ġdied":4063,")]":4064,"more":4065,"500":4066,"post":4067,"77":4068,";\\":4069,"ĠDem":4070,"1999":4071,"Ġwebs":4072,"ĠCup":4073,"encies":4074,"long":4075,"han":4076,"ulations":4077,"Ġ!==":4078,"board":4079,"One":4080,"Ġtelevision":4081,"ÃŃ":4082,"Action":4083,"Ġtoday":4084,"Ġpresident":4085,"oyal":4086,"igger":4087,"42":4088,"command":4089,"////////////////":4090,"ĠPort":4091,"Ġinflu":4092,"burg":4093,"Ġpolicy":4094,"Acc":4095,"(&":4096,"abs":4097,"Ġexact":4098,"src":4099,"ĠDes":4100,"ĠAustralia":4101,"Ġnorth":4102,"amily":4103,"ĠCenter":4104,"ĠLem":4105,"Ġrank":4106,"Ġcapt":4107,"Ġupdate":4108,"Ġalgorithm":4109,"ĠGovern":4110,"stract":4111,"ĠSub":4112,"Ġsurface":4113,"ĠAcc":4114,"Ġcontinue":4115,"Ġda":4116,"ellow":4117,"ĠCouncil":4118,"icult":4119,"Link":4120,"status":4121,"Task":4122,"xml":4123,"ĠPat":4124,"Sy":4125,"Ġsold":4126,"Create":4127,"Ġwhy":4128,"Pre":4129,"ĠLaw":4130,"ulated":4131,"98":4132,"quare":4133,"Ġresource":4134,"find":4135,"Ġyet":4136,"olic":4137,"nected":4138,"operator":4139,"Ġlocation":4140,"itory":4141,"ocket":4142,"Label":4143,"Ġpopular":4144,"sin":4145,"ining":4146,"anced":4147,"ĠRef":4148,"inated":4149,"rief":4150,"la":4151,"ensive":4152,"Ġprop":4153,"Check":4154,"ores":4155,"ĠEuropean":4156,"Child":4157,"igen":4158,"olve":4159,"Ġareas":4160,"ERT":4161,"\").":4162,"Ġrights":4163,"returns":4164,"Ġapplication":4165,"rote":4166,"Ġfem":4167,"Ġir":4168,"Ġchall":4169,"Ġexperience":4170,"local":4171,"Ġvisit":4172,"Ġcatch":4173,"Ġtaking":4174,"_.":4175,"signed":4176,"ĠChampionship":4177,"Ġlearning":4178,"Ġapplic":4179,"oto":4180,"\"),":4181,"ĠDavid":4182,"stitute":4183,"skip":4184,"undle":4185,"Ġinternal":4186,"prime":4187,"Ġsequence":4188,"Ġdistance":4189,"Ġincludes":4190,".$":4191,"icted":4192,"Ġ[]":4193,"last":4194,")</":4195,"rowser":4196,"Ġfront":4197,"ĠDiv":4198,"Ġsure":4199,"ĠSen":4200,"otes":4201,"ully":4202,"ĠStreet":4203,"Ġbox":4204,"Ġfather":4205,"agon":4206,"uid":4207,"ĠGroup":4208,"select":4209,"AM":4210,"gl":4211,"bound":4212,"First":4213,"aints":4214,"Ġexecut":4215,"refix":4216,"Ġannounced":4217,"scale":4218,"Ã¼":4219,"ĠPaul":4220,"Ġhor":4221,"Ġparty":4222,":\"":4223,"Ġmode":4224,"Ġfixed":4225,"CL":4226,"cing":4227,"ĠRiver":4228,"Ġextends":4229,"Ġiter":4230,"ĠGeneral":4231,"56":4232,"omorph":4233,"Ġteach":4234,"ming":4235,"ctor":4236,">>":4237,"Ġmonths":4238,"Ġmoved":4239,"When":4240,"\\{":4241,"aur":4242,"[\"":4243,"Ġandroid":4244,"Ġconduct":4245,"ledge":4246,"Ġdegree":4247,"Desc":4248,"Length":4249,"INT":4250,"unn":4251,"Ġinstall":4252,"}+":4253,"=\"../":4254,"unt":4255,"bottom":4256,"oz":4257,"ĠJames":4258,"IV":4259,"Ġnatural":4260,"You":4261,"ĠFil":4262,"cel":4263,"stry":4264,"Gr":4265,"Ġreturns":4266,"Ġobjects":4267,"ypes":4268,"Ġ]":4269,"acters":4270,"Ġleading":4271,"Ġfav":4272,"number":4273,"'re":4274,"ĠChurch":4275,"ĠMal":4276,"Ġpers":4277,"Ġindependent":4278,"Ġdoesn":4279,"Mem":4280,"Ġselected":4281,"Ge":4282,"1990":4283,"ĠChina":4284,"anged":4285,"ĠCanada":4286,"ols":4287,"Ġactive":4288,"yles":4289,"Ġnight":4290,"buf":4291,"Ġepis":4292,"attr":4293,"Ġequal":4294,"split":4295,"Ġwords":4296,"Ġtax":4297,"btn":4298,"76":4299,"Ġinit":4300,"vey":4301,"Ġwindow":4302,"Ġneeded":4303,"yr":4304,"Ġfactor":4305,"Ġ&=":4306,"lymp":4307,"Ġitself":4308,"Ġobj":4309,"PC":4310,"Ġconcern":4311,"Hel":4312,"Ġactually":4313,"Ġdecl":4314,"Ġrat":4315,"private":4316,"Ġprec":4317,"ĠTheorem":4318,"strong":4319,"ĠHol":4320,"process":4321,"lor":4322,"column":4323,"Per":4324,"Ġformat":4325,")=\\":4326,"ĠUK":4327,"Ð¾Ð":4328,"Output":4329,"Ġregard":4330,"fe":4331,"Met":4332,"SI":4333,"Ġnews":4334,"Ġworked":4335,"Ġneigh":4336,"Ġrecent":4337,"elt":4338,"ittee":4339,"Ñģ":4340,"ili":4341,"Ġlarger":4342,"Ġprovides":4343,"Ġissue":4344,"1998":4345,"Ab":4346,"Ġflow":4347,"{(":4348,"Valid":4349,"ategy":4350,"Ġroad":4351,"Ġforce":4352,"NO":4353,"iform":4354,"tag":4355,"Em":4356,"}]":4357,"ĠNe":4358,"Ġobserved":4359,"SON":4360,"arning":4361,"ĠNews":4362,"Ġdeveloped":4363,"oms":4364,"ĠAnt":4365,"Ġmilitary":4366,"Ġsouth":4367,"ĠParty":4368,"remove":4369,"Ġtakes":4370,"}\\,":4371,"Web":4372,"Ġedge":4373,"Format":4374,"rows":4375,"CD":4376,"ya":4377,"Ġstage":4378,"}=\\":4379,"ĠOb":4380,"Ġinterface":4381,"ĠBlack":4382,"rip":4383,"imensional":4384,"<!--":4385,"imately":4386,"zeta":4387,"Ġrunning":4388,"ias":4389,"Ġdetails":4390,"ederal":4391,"Ġrelationship":4392,"ĠRober":4393,"Ġexperiment":4394,"Ġcompar":4395,"dat":4396,"Ġunique":4397,"pdf":4398,"filter":4399,"itude":4400,"Ġequival":4401,"berg":4402,"Ġhon":4403,"Ġdeep":4404,"fill":4405,"mt":4406,"ashington":4407,"Ġlost":4408,"Ġsample":4409,"den":4410,"main":4411,"ein":4412,"ka":4413,"Ġaward":4414,"ĠBer":4415,"Ġshall":4416,"std":4417,"Aut":4418,"ĠEq":4419,"Page":4420,"TO":4421,"Ġmag":4422,"rum":4423,"Back":4424,"Ġwest":4425,"${":4426,"ĠNone":4427,"expected":4428,"Ġwhite":4429,"Ġmid":4430,"ERR":4431,"Ġcontract":4432,"Ġexcept":4433,"Ġissues":4434,"Ġnames":4435,"atrix":4436,"++)":4437,"ĠĠĠĠĠĠĠĠĊ":4438,"icture":4439,"asons":4440,"py":4441,"86":4442,"entry":4443,"Ġweight":4444,"ĠThom":4445,"Ġcurrently":4446,"97":4447,"Ġeffects":4448,"ĠDirect":4449,"aven":4450,"oe":4451,"istance":4452,"wood":4453,"ABLE":4454,"anish":4455,"Ġfilter":4456,"Ġincrease":4457,"Ġconstruction":4458,"win":4459,"Ġrev":4460,"ba":4461,"ris":4462,"icol":4463,"ĠCourt":4464,"Ġmoney":4465,"ago":4466,"Ġserver":4467,"Ġdidn":4468,"num":4469,"Ġwhole":4470,"Ġgives":4471,"Command":4472,"olume":4473,"Ġupon":4474,")^{":4475,"gener":4476,"Ġperformed":4477,"achine":4478,"Nav":4479,"Ġwrote":4480,"ville":4481,"Listener":4482,"Ġcandid":4483,"PRO":4484,"pite":4485,"Ġfinite":4486,"chema":4487,"pecially":4488,"Ġeducation":4489,"ĠRich":4490,"Ġcorrect":4491,"description":4492,"Ġmatter":4493,"mes":4494,"arily":4495,"Ġsymmet":4496,"Vert":4497,"band":4498,"Ġmechan":4499,"Ġstre":4500,"lood":4501,"empty":4502,"(-":4503,"BU":4504,"Ġdirectly":4505,"TYPE":4506,"ĠGod":4507,"Ġconnection":4508,"Ġneeds":4509,"URL":4510,"Ġdifficult":4511,"ĠBel":4512,"erry":4513,"Ġparts":4514,"Ġdevice":4515,"43":4516,"Ġdraw":4517,"Ġface":4518,"note":4519,"ipal":4520,"ĠEX":4521,"mem":4522,"ĠGerm":4523,"dep":4524,"ĠID":4525,"Ġclosed":4526,"ida":4527,"Ġjo":4528,"edia":4529,"ĠDepartment":4530,"ĠAward":4531,"hspace":4532,"nce":4533,"UI":4534,"Ġcoupl":4535,"History":4536,"rael":4537,"Ġprinc":4538,"Ġcompanies":4539,"ĠÃ":4540,"final":4541,"cdots":4542,"ĠFrance":4543,"atively":4544,"alax":4545,"oice":4546,"Ġuses":4547,"Ġeffort":4548,"}^\\":4549,"Ġwebsite":4550,"\"]":4551,"||":4552,"icrosoft":4553,"only":4554,"CON":4555,"adian":4556,"format":4557,"output":4558,"raz":4559,"Ġlikely":4560,"grad":4561,"ĠSee":4562,"stant":4563,"lemma":4564,"Ġtell":4565,"Ġquery":4566,"idget":4567,"Ġfire":4568,"Rem":4569,"41":4570,"Ġimpact":4571,"Ġgoal":4572,"Ġproblems":4573,"rypt":4574,"rian":4575,"ios":4576,"87":4577,"itar":4578,"update":4579,"Ġsex":4580,"$)":4581,"Ġdirection":4582,"ĠQue":4583,"{}":4584,"oring":4585,"Ġoccur":4586,"Ġwriting":4587,"ĠSy":4588,"jav":4589,"Ġexpression":4590,"ĠTV":4591,"Ġdig":4592,"riate":4593,"Ġvict":4594,"Ġgenerated":4595,"Ġword":4596,"Ġdefinition":4597,"Ġimages":4598,"ett":4599,"2022":4600,"}_\\":4601,"Next":4602,"elves":4603,"van":4604,"Ġoutside":4605,"ĠType":4606,"Ġvillage":4607,"Ġtim":4608,"Ġchannel":4609,"Ġsetting":4610,"ander":4611,"Ġtold":4612,"Ġimm":4613,"Ġelection":4614,"ancial":4615,"uate":4616,"uz":4617,"Ġpattern":4618,"ĠWeb":4619,"ĠArch":4620,"à¤":4621,"Ġarguments":4622,"Ġtransfer":4623,"eck":4624,"Ġdirector":4625,"enced":4626,"LASS":4627,"Ġmonth":4628,")}\\":4629,"params":4630,"gebra":4631,"ares":4632,"SU":4633,"container":4634,"Ġinj":4635,"Ġvirtual":4636,"ria":4637,",-":4638,"Ġaccur":4639,"background":4640,"Return":4641,"SD":4642,"Ġanaly":4643,"Ġcentral":4644,"Ġbenef":4645,"ĠOut":4646,"bert":4647,"Ġsupported":4648,"57":4649,"Ġallowed":4650,"Ġdim":4651,"Ġcompared":4652,"zer":4653,"Ġdemon":4654,"ĠGeorge":4655,"Ġentry":4656,"very":4657,"Ġargument":4658,"REF":4659,"Ġnote":4660,"ĠChe":4661,"Row":4662,"ooth":4663,"nes":4664,"ario":4665,"textwidth":4666,"ĠLicense":4667,"Ġrestr":4668,"Ġcampaign":4669,"Dev":4670,"ĠHall":4671,"west":4672,"Ġmargin":4673,"Ġthing":4674,"ĠRem":4675,"ston":4676,"arter":4677,"lier":4678,"Ġoffice":4679,"Ġdiscover":4680,"Ġhimself":4681,"ying":4682,"Ġcred":4683,"Psi":4684,"erve":4685,"Ġeast":4686,"Case":4687,"Ġdatas":4688,"}}(":4689,"Ġpresented":4690,"Ġsens":4691,"ĠSum":4692,"Ġcharacters":4693,"agram":4694,"widehat":4695,"vention":4696,"Dr":4697,"sole":4698,"yper":4699,"menu":4700,"Ġinf":4701,"Ġlen":4702,"ĠWhat":4703,"kit":4704,"Ġtree":4705,"IO":4706,"resh":4707,"///":4708,"mathsf":4709,"Offset":4710,"Ġadj":4711,"Ġfight":4712,"pret":4713,"Ġmemory":4714,"Ġestablish":4715,"ND":4716,"inally":4717,"Mode":4718,"^+":4719,".~":4720,"ua":4721,"Ġbehind":4722,"ĠAssociation":4723,"Ġrock":4724,"Ġcomes":4725,"Ġtherefore":4726,"project":4727,"IF":4728,"Ġuint":4729,"Ġstudies":4730,"Cache":4731,"prox":4732,"oul":4733,"offset":4734,"img":4735,"ĠJust":4736,"itch":4737,"finished":4738,"Width":4739,"Ġassume":4740,"Ġoperations":4741,"Ġindustry":4742,"Ġ\\{":4743,"(_":4744,"Ġbasis":4745,"ĠFigure":4746,"ĠGreen":4747,"Ġespecially":4748,"})\\":4749,"}/":4750,"else":4751,"irit":4752,"Ġeffective":4753,"inding":4754,"Ġallows":4755,"ĠDi":4756,"ĠWashington":4757,"Ġdrop":4758,"1997":4759,"ams":4760,"Ġarchitect":4761,"ĠArmy":4762,"ĠPublic":4763,"cup":4764,"ĉĉĉĉĉĉĉĉ":4765,"ql":4766,"outhern":4767,"CP":4768,"Ġpassed":4769,"Ġten":4770,"ĠWork":4771,"People":4772,"Ġforward":4773,"Ġpersonal":4774,"Ġsus":4775,"ĠSpec":4776,"ening":4777,"Controller":4778,"Ġintroduced":4779,"inner":4780,"Ag":4781,"Column":4782,"ously":4783,"ini":4784,"Ġprobability":4785,"Ġnone":4786,"rd":4787,"edge":4788,"ĠService":4789,"1996":4790,"Ġrot":4791,"Ġnumbers":4792,"Ġmale":4793,"Ġcast":4794,"Ġrepresentation":4795,"Last":4796,"atur":4797,"Ġmaximum":4798,"Ġsecurity":4799,"ughter":4800,"close":4801,"Ġleaders":4802,"ĠAPI":4803,"Top":4804,"anning":4805,"Ġidea":4806,"58":4807,"Ġbank":4808,"iler":4809,"Ġtour":4810,"67":4811,"ĠWhile":4812,"acc":4813,"Ġdoc":4814,"Ġinvolved":4815,"Ġsense":4816,"Ġpick":4817,"ĠCons":4818,"eal":4819,"MM":4820,"Fe":4821,"pass":4822,"Ġfriend":4823,"ĠSome":4824,"ĠMusic":4825,"Tem":4826,"ĠMart":4827,"}|":4828,"qquad":4829,"ĠReturns":4830,"Ġjud":4831,"Ġcoordin":4832,"uint":4833,"ki":4834,"xspace":4835,"reater":4836,"]);":4837,"Ġrelative":4838,"Ġconsum":4839,"Container":4840,"ĠMet":4841,"Ġcountries":4842,"What":4843,"Ġmodern":4844,"ĠData":4845,"Ġauto":4846,"Ġcomment":4847,"Ent":4848,"1980":4849,"Ġliving":4850,"Ġautom":4851,"float":4852,"Ġalthough":4853,"********************************":4854,"Ġqual":4855,"FONT":4856,"ĠĠĠĠĠĠĠĠĠĠĠĠĊ":4857,"that":4858,"ĠUnion":4859,"Ġwalk":4860,"Ġseg":4861,"ĠDay":4862,"ros":4863,"antic":4864,"Ġpolice":4865,"response":4866,"ĠFranc":4867,"ifact":4868,"Ġimmedi":4869,"ĠOF":4870,"otal":4871,"Ġvers":4872,"require":4873,"Ġfood":4874,"Ġdecision":4875,"Ġgas":4876,"Address":4877,"ttps":4878,"het":4879,"Server":4880,"Ġintegr":4881,"mid":4882,"Update":4883,"SO":4884,"Ġroot":4885,"Tag":4886,"ĠLou":4887,"Ġtemperature":4888,"Ġoptim":4889,"scr":4890,"Bl":4891,"Ġadministr":4892,"ĠPress":4893,"meta":4894,"ĉĠ":4895,"onic":4896,"Ġnovel":4897,"Ġcourt":4898,"Work":4899,"dated":4900,"obile":4901,"po":4902,"icate":4903,"Ġappoint":4904,"Ġregister":4905,"CA":4906,"essages":4907,"Ġprimary":4908,"Ġreve":4909,"ani":4910,"ĠInstitute":4911,"aud":4912,"Ġmention":4913,"Sim":4914,"So":4915,"Ġtro":4916,"Ġplaying":4917,"anger":4918,"BA":4919,"indent":4920,"Ġoffset":4921,")-":4922,"Box":4923,"Ġagre":4924,"Ġdifference":4925,"ĠHealth":4926,"Ã¶":4927,"Ġdemonstr":4928,"ĠPe":4929,"Ġinvestig":4930,"Ġrule":4931,"estival":4932,"iting":4933,"Ġlonger":4934,"Ġselect":4935,"Ġlev":4936,"59":4937,"Ġunc":4938,"dl":4939,"riptor":4940,"Ġholds":4941,"DO":4942,"isions":4943,"annot":4944,"Ġapply":4945,"Ġspin":4946,"should":4947,"fg":4948,"ĠEnd":4949,"ĠJack":4950,"heet":4951,"Ġess":4952,"Ġscen":4953,"ĠJew":4954,"Ġsignal":4955,"template":4956,"Ġprote":4957,"Dat":4958,"Ġremove":4959,"iences":4960,"ĠCompany":4961,"Ġradio":4962,"ĠRoman":4963,"Ġbring":4964,"stack":4965,"ĠNote":4966,"}:":4967,"late":4968,"ĠApp":4969,"').":4970,"Ġconver":4971,"ĠCong":4972,"ocal":4973,"ĠAirport":4974,"{{\\":4975,"Max":4976,"Ġrelig":4977,"([":4978,"Ġstars":4979,"Par":4980,"Ġbad":4981,"ctx":4982,"clusion":4983,"Ġonline":4984,"evel":4985,"Ġhttps":4986,"gin":4987,"Ġthroughout":4988,"Ġtransition":4989,"Ġscreen":4990,"ometry":4991,"star":4992,"Ġ~":4993,"ĠBook":4994,"Ġacqu":4995,"ĠAssert":4996,"Provider":4997,"example":4998,"equiv":4999,"Ġsort":5000,"Bo":5001,"Target":5002,"Ġreach":5003,"Ġavoid":5004,"Ġargs":5005,"Ġball":5006,"Ġcomponents":5007,"ĠFound":5008,"Ġfiles":5009,"Us":5010,"Ġdesigned":5011,"That":5012,"normal":5013,"Ġsett":5014,"Ġapplied":5015,"chedul":5016,"ĠArray":5017,"ospital":5018,"Ġcompleted":5019,"Ġvariable":5020,"values":5021,"ĠGl":5022,"NAME":5023,"oder":5024,"inese":5025,"zon":5026,"iments":5027,"instance":5028,"pat":5029,"ĠDec":5030,"match":5031,"Ġinside":5032,"Vis":5033,"iding":5034,"Ġchanged":5035,"PS":5036,"Ġshare":5037,"Ġarticle":5038,"Ġphysical":5039,"ĠOlymp":5040,"Le":5041,"Ġsil":5042,"ifying":5043,"OO":5044,"service":5045,"unit":5046,"Ġlargest":5047,"Layout":5048,"Ġfailed":5049,"Ġdoing":5050,"}^{(":5051,"Ġdescription":5052,"?:":5053,"ĠThus":5054,"Ġrace":5055,"then":5056,"Ġusually":5057,"root":5058,"hing":5059,"Ġ(\"":5060,"ĠGermany":5061,"ĠCap":5062,"Ġincreasing":5063,"reek":5064,"Ġcontinued":5065,"Living":5066,"ĠRoad":5067,"ĠHT":5068,"CR":5069,"Ġbehavior":5070,"Ġteams":5071,"1995":5072,"Det":5073,"&=":5074,"Eng":5075,"aine":5076,"Post":5077,"hi":5078,"Params":5079,"Ġdebut":5080,"arks":5081,"Can":5082,"ĠSing":5083,"DF":5084,"Ġsources":5085,"Ġ;":5086,"igr":5087,"Ġfollowed":5088,"Ġsimply":5089,"Ġevidence":5090,"Unit":5091,"Ġopened":5092,"Ġprofessional":5093,"sey":5094,"Ġquick":5095,"Ġseem":5096,"Ġconfiguration":5097,"Ġsolid":5098,"Ġnecessary":5099,"illing":5100,"Header":5101,"eloc":5102,"Ġupper":5103,"uit":5104,"Since":5105,"Ġdam":5106,"gn":5107,"break":5108,"mission":5109,"Ġopport":5110,"operatorname":5111,"uge":5112,"Ġmother":5113,"ĠResearch":5114,"ilies":5115,"Ġcontact":5116,"Ġspeed":5117,"ĠMary":5118,"89":5119,"arp":5120,"Ġjoined":5121,"gs":5122,"ĠMor":5123,"Ġdeb":5124,"izations":5125,"unfinished":5126,"airs":5127,"omic":5128,"eft":5129,"ĠBay":5130,"Json":5131,"Url":5132,"gle":5133,"54":5134,"greg":5135,"Ġfa":5136,"Ġ$(\\":5137,"ĠSl":5138,"Ġempty":5139,"nov":5140,"Ġboundary":5141,"SA":5142,"DB":5143,"Ġaltern":5144,"Ġbooks":5145,"desc":5146,"Ġhours":5147,"Ġdeaths":5148,"TI":5149,"ĠLemma":5150,"ĠIsrael":5151,"Ġbre":5152,"ĠOpen":5153,"aily":5154,"ĠMount":5155,"Ġtechnology":5156,"Types":5157,"uated":5158,"loor":5159,"Ġtransport":5160,"ĠMichael":5161,"Access":5162,"ĠRoyal":5163,"PP":5164,"Ġnor":5165,"Min":5166,"Ġexisting":5167,"Co":5168,"ĠMex":5169,"alian":5170,"isation":5171,"Ġcam":5172,"Port":5173,"Ġframe":5174,"52":5175,"Ġdomain":5176,"Ġhit":5177,"Ġplatform":5178,"parse":5179,"Op":5180,"rial":5181,"51":5182,"Ġsaw":5183,"hest":5184,"Ġstore":5185,"irl":5186,"ntax":5187,"Ġcharg":5188,"osen":5189,"Ġgave":5190,"Ġwife":5191,"ĠDemocr":5192,"ĠChristian":5193,"ometimes":5194,"Ġchurch":5195,"Interface":5196,"Ġexpand":5197,"Ġbuffer":5198,"ĠAlex":5199,"Ġquality":5200,"icial":5201,"Ġpolitic":5202,"Configuration":5203,"RL":5204,"Process":5205,"ĠAngel":5206,"Ġey":5207,"Ġ**":5208,"Ġnuc":5209,"inct":5210,"rier":5211,"Ġ&\\":5212,"Ġmix":5213,"Ġhandle":5214,"Ġbg":5215,"Ġlo":5216,"Ġbecomes":5217,"Ġsymbol":5218,"Ġusers":5219,"Range":5220,"Ġtowards":5221,"Pi":5222,"NN":5223,"ca":5224,"Ġax":5225,"ĠSociety":5226,"erved":5227,"Write":5228,"Button":5229,"Ġprogress":5230,"1994":5231,"elebr":5232,"rapper":5233,"Entry":5234,"Ġtag":5235,"ĠLeg":5236,"cs":5237,"Ġsongs":5238,"Ġemer":5239,"gate":5240,"Ġlayer":5241,"usion":5242,"allet":5243,"Ġsigned":5244,"well":5245,"ĠSam":5246,"arth":5247,"ansion":5248,"Ġsoftware":5249,"ĠWhite":5250,"ano":5251,"ĠĠĠĠĠĠĠĠĠĠĠĠĠĠĠĠĠĠĠĠĠĠĠĠĠĠĠĠĠĠĠĠĠĠĠ":5252,"Ġwait":5253,"<?":5254,"({\\":5255,"ĠTime":5256,"1970":5257,"ĠPre":5258,"Ġlevels":5259,"Ġyield":5260,"Ġca":5261,"Callback":5262,"ĠTable":5263,"}\\\\":5264,"Ġquantum":5265,"olar":5266,"ci":5267,"ds":5268,"Ġrisk":5269,"ĠMac":5270,"53":5271,"ĠVir":5272,"ĠMr":5273,"Ġmanagement":5274,"ĠProv":5275,"ipp":5276,"force":5277,"Ġrelation":5278,"ervices":5279,"edy":5280,"Ġrob":5281,"ayers":5282,"images":5283,"Ġago":5284,"Ġfont":5285,"Ġsolutions":5286,"Ġsmaller":5287,"ĠDivision":5288,"Ġchoice":5289,"ribe":5290,"idents":5291,"Ġhot":5292,"'),":5293,"68":5294,"rule":5295,"Ġpredict":5296,"ilton":5297,"SH":5298,"bon":5299,"Ġship":5300,"Ġque":5301,"Ġboard":5302,"author":5303,"Ġmarried":5304,"ĠAcadem":5305,"Ġstaff":5306,"aled":5307,"show":5308,"Ġclasses":5309,"ĠTex":5310,"Ġmaintain":5311,"ĠJer":5312,"ln":5313,"bour":5314,"ala":5315,"reference":5316,"ULT":5317,"bool":5318,"ĠMiss":5319,"Ġheart":5320,"ĠMag":5321,"Ġvariables":5322,"rey":5323,"ici":5324,"enumer":5325,"ĠAfrica":5326,"Ġfit":5327,"Ġcause":5328,"Ġhous":5329,"Ġansw":5330,"files":5331,"Ã¤":5332,"Ġexception":5333,"Ġexhib":5334,"merc":5335,"Ġjoin":5336,"ĠGold":5337,"Ġmus":5338,"di":5339,"Ġdefe":5340,"liament":5341,"Height":5342,"ailway":5343,"Ġeight":5344,"Ġproducts":5345,"Ġaw":5346,"Ġign":5347,"ena":5348,"Ġstarting":5349,"Ġreading":5350,"fit":5351,"Ġgrowth":5352,"Ġactual":5353,"|^":5354,"ĠScience":5355,"300":5356,"ĠTur":5357,"ĠYear":5358,"typ":5359,"ado":5360,"Ġlooking":5361,"PR":5362,"Ġord":5363,"Ġrules":5364,"ĠMat":5365,"ĠMer":5366,"fs":5367,"Ġconcept":5368,"ĠLog":5369,"Ġnodes":5370,"hent":5371,"ĠOper":5372,"Ġconnect":5373,"approx":5374,"Ġvolume":5375,"Ġ{}":5376,"bin":5377,"older":5378,"Ġschools":5379,"navbar":5380,"'$":5381,"overs":5382,"Ġnav":5383,"ĠKe":5384,"ĠAustralian":5385,"ĠRead":5386,"fect":5387,"ecute":5388,"Ġwatch":5389,"1992":5390,"ART":5391,"ĠBest":5392,"etch":5393,"FT":5394,"cr":5395,"citet":5396,"ĠForm":5397,"comple":5398,"Ġprove":5399,"Ġpreviously":5400,"Ġstatement":5401,"layout":5402,"ategor":5403,"Ġelectron":5404,"rics":5405,"ynch":5406,"Rel":5407,"anges":5408,"ufact":5409,"Ġquite":5410,"Ġrecently":5411,"after":5412,"ĠIsland":5413,"ĠNow":5414,"ĠOur":5415,"Operation":5416,"Ġotherwise":5417,"Ġsurv":5418,"ĠFile":5419,"Ġmind":5420,"ounter":5421,"Ġcritical":5422,"Frame":5423,"ĠMus":5424,"ĠDuring":5425,"Ġroom":5426,"ĠOf":5427,"ernel":5428,"ech":5429,"Ġveh":5430,"ĠBen":5431,"KE":5432,"ees":5433,"ĠEv":5434,"ectors":5435,"Ġsn":5436,"iday":5437,"Direct":5438,"()->":5439,"common":5440,"ocation":5441,"ĠRobert":5442,"Ġremains":5443,"}+\\":5444,"Ġgalax":5445,"ĠTrump":5446,"Ġ<!--":5447,"ecution":5448,"Ġsoon":5449,"proto":5450,"iece":5451,"jection":5452,"road":5453,"Ġwoman":5454,"Ġlimited":5455,"ĠInc":5456,"Ġbgcolor":5457,"Parameter":5458,"&&":5459,"Ġwriter":5460,"Ġmount":5461,"Ġpain":5462,"Net":5463,"ĠOther":5464,"Ġformed":5465,"linear":5466,"porary":5467,"Ġ>=":5468,"task":5469,"92":5470,"Ġconnected":5471,"Ġrecorded":5472,"mselves":5473,"clude":5474,"asket":5475,"Ġunits":5476,"94":5477,"Ġseems":5478,"Ġdenote":5479,"Kind":5480,"Ġcoming":5481,"fort":5482,"ĠClub":5483,"Ġknowledge":5484,"EQ":5485,"ĠTom":5486,"ulture":5487,"FL":5488,"issions":5489,"scope":5490,"Ġconstit":5491,"1993":5492,"ATION":5493,"]$":5494,"ĠTechn":5495,"Utils":5496,"Ġbelieve":5497,"frame":5498,"mas":5499,"Ġearlier":5500,"ĠAfrican":5501,"tree":5502,"Ġpractice":5503,"Mar":5504,"ĠPost":5505,"Ġnothing":5506,"Ġselection":5507,"ensions":5508,"istan":5509,"Ġextrem":5510,"Ġfinally":5511,"Ġgetting":5512,"ĠMad":5513,"Sl":5514,"alls":5515,"Ġfun":5516,"Ġitems":5517,"El":5518,"Ġste":5519,"Ġcoach":5520,"drop":5521,"Ġprobably":5522,"Ġthemselves":5523,"Ġensure":5524,"Ġshape":5525,"vant":5526,"Ġforces":5527,"93":5528,"Ġtemplate":5529,"buffer":5530,"```":5531,"gu":5532,"Ġweak":5533,"Ġundefined":5534,"Ġutil":5535,"Tree":5536,"Br":5537,"Ġtravel":5538,"ĠMem":5539,"Ġinstit":5540,"ĠMuseum":5541,"term":5542,"bed":5543,"Ġscient":5544,"ĠCheck":5545,"Ġwor":5546,"Ġhel":5547,"ĠRad":5548,"72":5549,"ĠCreate":5550,"./":5551,"ĠOver":5552,"Ġnom":5553,"Ġlack":5554,"ecause":5555,"Ġstreng":5556,"{{":5557,"ved":5558,"weight":5559,"ĠHen":5560,"Ġextra":5561,"}}{\\":5562,"Ġcapital":5563,"Ġneut":5564,"Ġappeared":5565,"sign":5566,"oded":5567,"MO":5568,"matrix":5569,"ĉĉĉĉĉĉĉ":5570,"Local":5571,"Module":5572,"Ġadapt":5573,"ĠWil":5574,"rea":5575,"ĠCentral":5576,"Ġdark":5577,"COL":5578,"ensus":5579,"Thread":5580,"ky":5581,"LI":5582,"ĠDan":5583,"Ġcivil":5584,"ĠRob":5585,"patch":5586,"'m":5587,"INE":5588,"ancy":5589,"ĠScott":5590,"ether":5591,"ãģ":5592,"Ġcounter":5593,"ĠST":5594,"tex":5595,"foo":5596,"Ġequations":5597,"PO":5598,"ĠRussian":5599,"ulate":5600,"language":5601,"oom":5602,"track":5603,"ĠCath":5604,"Ġasked":5605,"Copy":5606,"resents":5607,"Ġkm":5608,"dest":5609,"hr":5610,"Match":5611,"ingu":5612,"Pack":5613,"XX":5614,"Ġveloc":5615,"adow":5616,"omial":5617,"84":5618,"Ġsubsequ":5619,"Ġsession":5620,"Ġfra":5621,"ĠThomas":5622,"ĠSal":5623,"Ġdecre":5624,"ducation":5625,"ĠDet":5626,"ĠMinister":5627,"Ġnature":5628,"}-\\":5629,"ascript":5630,"AV":5631,"ĠDel":5632,"Empty":5633,"Ġ\\|":5634,"\\\"":5635,"AND":5636,"ORT":5637,"opl":5638,"itable":5639,"ĠHistory":5640,"Ġexplicit":5641,"ĠChinese":5642,"Ġproper":5643,"free":5644,"otic":5645,"Open":5646,"Ġerrors":5647,"Ġdetermined":5648,"Ġillustr":5649,"Ġremain":5650,"Ġculture":5651,"document":5652,"NE":5653,"allel":5654,"Ġlegal":5655,"olute":5656,"91":5657,"Ġbirth":5658,"63":5659,"ĠCLASS":5660,"agger":5661,"neq":5662,"ĠTown":5663,"mathscr":5664,"\"))":5665,"Ġextension":5666,"Ġimplies":5667,"Ġseven":5668,"Ġded":5669,"ighest":5670,"Ġwanted":5671,"Current":5672,"ictionary":5673,"enge":5674,"exports":5675,"Ġrepe":5676,"Ġthreat":5677,"ĠCanadian":5678,"structor":5679,"Ġtreatment":5680,"Ġfix":5681,"$(":5682,"cache":5683,"clos":5684,"ĠSmith":5685,"otion":5686,"dist":5687,"orig":5688,"ĠAtt":5689,"mitted":5690,"Ġbeginning":5691,"Ġproced":5692,"rong":5693,"Ġcharge":5694,"ĠĠĠĠĠĠĠĠĠĠĠĠĠĠĠĠĠĠĠĠĠ":5695,"azine":5696,"ALL":5697,"]\\":5698,"1991":5699,"Ġetc":5700,"ĠBill":5701,"########":5702,"UM":5703,"Properties":5704,"Ġtrade":5705,"asic":5706,"PECT":5707,"lam":5708,"dimensional":5709,"Now":5710,"icens":5711,"Ġdirected":5712,"ĠKore":5713,"phere":5714,"ĠKingdom":5715,"ĠTexas":5716,"Ġplaces":5717,"Hash":5718,"Ġ-\\":5719,"Ġswitch":5720,"Ġauth":5721,"ĠHere":5722,"resource":5723,"Ġdise":5724,"Ġstri":5725,"Location":5726,"graph":5727,"Ġresources":5728,"Ġjournal":5729,"Ġaim":5730,"itz":5731,"1000":5732,"Then":5733,"API":5734,"Ġmovie":5735,"depend":5736,"Ġfinancial":5737,"ĠAnn":5738,"window":5739,"vspace":5740,"Ġdram":5741,"mercial":5742,"Ġesc":5743,"Ġsen":5744,"vest":5745,"Ġmissing":5746,"multicol":5747,"ĠIS":5748,"ĠFore":5749,"ĠGreat":5750,"ean":5751,"gan":5752,"Ġprim":5753,"ĠHREF":5754,"Ġcoeff":5755,"Ġcore":5756,"Host":5757,"multicolumn":5758,"ĠGrand":5759,"ZE":5760,"elopment":5761,"Ġcontaining":5762,"More":5763,"Ġfast":5764,"atre":5765,"pop":5766,")}{":5767,"iring":5768,"ĠFrancis":5769,"ental":5770,"VAL":5771,"(*":5772,"Ġfloat":5773,"Ġruns":5774,"Ġweb":5775,"Note":5776,"iller":5777,"Ġfigure":5778,"oute":5779,"Collection":5780,"Mult":5781,"Dir":5782,"Description":5783,"\\,\\":5784,"theorem":5785,"Option":5786,"ĠErr":5787,"82":5788,"joy":5789,"ĠCommission":5790,"ĠFin":5791,"Ġprevent":5792,"={":5793,"ĠTor":5794,"onom":5795,"ura":5796,"ĠDE":5797,"........":5798,"Ġevolution":5799,"actor":5800,"Ġincreased":5801,"400":5802,"ĠWestern":5803,"vas":5804,"Ġattention":5805,"Ġnegative":5806,"Ġminutes":5807,"enumerate":5808,"ĠTherefore":5809,"Ġtrain":5810,"Ġkilled":5811,"QL":5812,"CS":5813,"Document":5814,"ĠCO":5815,"Ġscience":5816,"iverse":5817,"Expression":5818,"Control":5819,"gence":5820,"Ġpeak":5821,"ĠVer":5822,"anned":5823,"Ġfully":5824,"req":5825,"FO":5826,"PT":5827,"had":5828,"Ġnamespace":5829,"reshold":5830,"token":5831,"sv":5832,"Ġ*)":5833,"Ke":5834,"62":5835,"variant":5836,"iny":5837,"ictor":5838,"Ġmiddle":5839,"azz":5840,"Ġforms":5841,"Ġbur":5842,"None":5843,"equal":5844,"Window":5845,"ĠFrank":5846,"Ġeasy":5847,"ĠFe":5848,"Ġmeaning":5849,"Ġcluster":5850,"PL":5851,"inder":5852,"Ġcop":5853,"Ġanti":5854,"61":5855,"Ġcompl":5856,"flict":5857,"Ġsaf":5858,"itemize":5859,"Ġscope":5860,"aml":5861,"Ġepisode":5862,"Ġparams":5863,"Ġequivalent":5864,"Ġfamilies":5865,"ao":5866,"ĠJapanese":5867,"Ġstay":5868,"Ġanything":5869,"support":5870,"Ġrecomm":5871,"PA":5872,"Ġgenerally":5873,"Ġbrought":5874,"olved":5875,"Ġresulting":5876,"tains":5877,"Ġinterview":5878,"urt":5879,"Ġscore":5880,"Ġestimate":5881,"Ġoverall":5882,"STR":5883,"My":5884,"Ġconvert":5885,"Mon":5886,"Ġregions":5887,"ĠRel":5888,"Ġstructures":5889,"Settings":5890,"Ġbelong":5891,"norm":5892,"ĠLouis":5893,"illa":5894,"Ev":5895,"ĠRE":5896,"Ġdescribe":5897,"Ġpresence":5898,"ashed":5899,"ĠPo":5900,"She":5901,"Position":5902,"ĠBase":5903,"icago":5904,"ĠVol":5905,"Ġappears":5906,"second":5907,"Ġinteresting":5908,"Stat":5909,"Ġsend":5910,"Ġhol":5911,"cat":5912,"aa":5913,"olf":5914,"ponents":5915,"Ġtrying":5916,"Ġmagnetic":5917,"ĠHel":5918,"noindent":5919,"ĠCarol":5920,"%%":5921,"Ġrequires":5922,"ursor":5923,"Ġeconomic":5924,"FC":5925,"Iter":5926,"74":5927,"Ġactivity":5928,"Ġparticularly":5929,"sd":5930,"Ġxml":5931,"Ġorigin":5932,"isl":5933,"~$":5934,"Ġterr":5935,":(":5936,"prove":5937,"Enc":5938,"Ġwide":5939,"ĠSur":5940,"ĠMont":5941,"oma":5942,"1960":5943,"za":5944,"ĠSuper":5945,"Ġrap":5946,"Do":5947,"Ġchalleng":5948,"vector":5949,"Ġcelebr":5950,"Ġcells":5951,"Ġdetermine":5952,"ĠĠĠĊ":5953,"Track":5954,"sets":5955,"Ġmanager":5956,"related":5957,"crete":5958,"ACK":5959,")}$":5960,"Ġoverride":5961,"Ġbottom":5962,"Ġleave":5963,"'ve":5964,"Ġshift":5965,"Ġstudied":5966,"reland":5967,"Ġdrug":5968,"Ġdecided":5969,"thon":5970,"Ġfinished":5971,"DA":5972,"Level":5973,"Ġratio":5974,"Ġreached":5975,"icket":5976,"ternet":5977,"Ident":5978,"Ġcollect":5979,"Parameters":5980,"icated":5981,"ĠAcademy":5982,"ĠPeter":5983,"HO":5984,"BS":5985,"ussian":5986,"dim":5987,"Ġdaughter":5988,"spect":5989,"mode":5990,"ibly":5991,"ĠGames":5992,"Ġgrant":5993,"debug":5994,"etime":5995,"ĠBuild":5996,"writ":5997,"eval":5998,"Ġrecon":5999,"Ġplant":6000,"Ġdead":6001,"tml":6002,"Ġdestroy":6003,"cover":6004,"ĠOR":6005,"romise":6006,"Ġsports":6007,"ita":6008,"ĠBank":6009,"Ġcontainer":6010,"ãĥ":6011,"Ġmeeting":6012,"CODE":6013,"Ġtoken":6014,"ĠVirgin":6015,"Connection":6016,"Ġpurch":6017,"\\'":6018,"Ġfeed":6019,"1989":6020,"umin":6021,"acement":6022,"Ġcit":6023,"cp":6024,"Ġattribute":6025,"ĠMo":6026,"ĠCongress":6027,"83":6028,"ĠException":6029,"ĠRock":6030,"ĠFoundation":6031,"real":6032,"}}_":6033,"Ġalgebra":6034,"81":6035,"$}":6036,"---":6037,"Ġchart":6038,"hash":6039,"ifies":6040,"Ġprep":6041,"79":6042,"Change":6043,"}}}":6044,"rect":6045,"uri":6046,"ĠGovernment":6047,"Ġways":6048,"Ġgreater":6049,"Serial":6050,"Names":6051,"scal":6052,"Ġbasic":6053,"Store":6054,"Ġfemale":6055,"Ġmovement":6056,"range":6057,"ĠAccording":6058,"Po":6059,"udd":6060,"Ġleader":6061,"rees":6062,"alysis":6063,"MC":6064,"Ġspectrum":6065,"ĠFlor":6066,"Ġfrequency":6067,"Ġpanel":6068,"ror":6069,"ĠBig":6070,"bind":6071,"atin":6072,"ĠCharles":6073,"Ġapprop":6074,"webkit":6075,"ĠCommittee":6076,"Ġinsp":6077,"Ġminimum":6078,"Widget":6079,"join":6080,"Ġones":6081,"ĠProgram":6082,"ĠAut":6083,"ette":6084,"Ġanim":6085,"Ġâ":6086,"Ġmut":6087,"tim":6088,"Ġreplaced":6089,"Script":6090,"Ġhighest":6091,"Ġrecover":6092,"Ġstated":6093,"ĠRun":6094,"Ġprem":6095,"ĠWomen":6096,"Ġpatients":6097,"Ġrepresented":6098,"Ġstrict":6099,"Ġscript":6100,"ĠTHE":6101,"Ġeventually":6102,"ĠRegister":6103,"MD":6104,"Ġdistributed":6105,"Async":6106,"eler":6107,"Ð»":6108,"Search":6109,"ĠRichard":6110,"ĠField":6111,"Ġpen":6112,"umni":6113,"Ġrender":6114,"TC":6115,"ĠJose":6116,"Meta":6117,"witter":6118,"Ġremoved":6119,"ĠHill":6120,"asketball":6121,"ters":6122,"inger":6123,"onds":6124,"Ġmedical":6125,"Ġidentity":6126,"Ġadopt":6127,"inem":6128,"Go":6129,"conf":6130,"card":6131,"}'":6132,"Ġgold":6133,"Ġability":6134,"ympt":6135,"ipl":6136,")+":6137,"73":6138,"ĠEXPECT":6139,"\"));":6140,"Ġcard":6141,"Ġmis":6142,")/":6143,"pher":6144,"_;":6145,"ĠNS":6146,"ĠRussia":6147,"Ġdimension":6148,"Ġhum":6149,"Ġartists":6150,"Ġlives":6151,">,":6152,"Ġsecret":6153,"Ġsomeone":6154,"ression":6155,"ollowing":6156,"Prot":6157,"Body":6158,"javascript":6159,"system":6160,"GB":6161,"oration":6162,"Ġassist":6163,"Ġlisted":6164,"Des":6165,"uan":6166,"icker":6167,"Ġoccup":6168,"Ġblue":6169,"Ġimplementation":6170,"Ġfriends":6171,"Ġpressure":6172,"ĠHistor":6173,"Ġapi":6174,"Ġprofile":6175,"=\"_":6176,"ĠLong":6177,"Ġseek":6178,"Ġframework":6179,"izont":6180,"Ġnorm":6181,"ounds":6182,"cur":6183,"Ġrepresents":6184,"Ġstudent":6185,"ella":6186,"%;":6187,"Ġtraditional":6188,"Ġexam":6189,"Pat":6190,"Ġpadding":6191,"71":6192,"Ġcache":6193,"TER":6194,"Ġsamples":6195,"Policy":6196,"ĠCre":6197,"km":6198,"olt":6199,"Ġmicro":6200,"Ġextended":6201,"Ġelected":6202,"\\}$":6203,"Handle":6204,"ĠRecords":6205,"transform":6206,"Ġreli":6207,"ĠMass":6208,"ullet":6209,"ydro":6210,"ĠLos":6211,"Ġclean":6212,":</":6213,"Ġuseful":6214,"Ġtests":6215,"Ġthread":6216,"rome":6217,"Ġleague":6218,"Ġorganization":6219,"Http":6220,"Ġhyp":6221,"before":6222,"1988":6223,"*{":6224,"Ġmetric":6225,"Ġmanufact":6226,"Ġ::":6227,"Ġsituation":6228,"Ġproduce":6229,"Ġeditor":6230,"high":6231,"icks":6232,"DD":6233,"Ġinfo":6234,"uty":6235,"Rev":6236,"^-":6237,"Ġuniform":6238,"ĠName":6239,"Ġ{};":6240,"oting":6241,"Que":6242,"orpor":6243,"Ġtit":6244,"69":6245,"ĠMap":6246,"Ġsometimes":6247,"Ġflag":6248,"control":6249,"ker":6250,"ĠBoard":6251,"ĠStar":6252,"copy":6253,"IGN":6254,"Ġreduced":6255,"Ġsufficient":6256,"Dom":6257,"Ġgets":6258,"Ġapplications":6259,"Ġnearly":6260,"Ġlatter":6261,"Ġplaced":6262,"ĠProject":6263,"thlet":6264,"Tim":6265,"iger":6266,"auge":6267,"olec":6268,"lines":6269,"Down":6270,"Ġactivities":6271,"Ġhope":6272,"fn":6273,"onder":6274,"aser":6275,"Ġspent":6276,"Ġprograms":6277,"ournament":6278,"ĠGoogle":6279,"isms":6280,"Ptr":6281,"Ġfounded":6282,"Reference":6283,"Ġchem":6284,"Ġvariety":6285,"Ġhighly":6286,"Ġgoes":6287,"Ġagreement":6288,"jo":6289,"LS":6290,"apped":6291,"Ġgenerate":6292,"Ġscheme":6293,"ĠMel":6294,"del":6295,"iable":6296,"internal":6297,"ĠSecond":6298,"Ġsaying":6299,"Ġremaining":6300,"ĠZeal":6301,"war":6302,"Ġmur":6303,"Ġeverything":6304,"Ġbus":6305,"abilities":6306,"Ġbal":6307,"ĠBrown":6308,"ĠItalian":6309,"Ġartist":6310,"Right":6311,"RI":6312,"Ġneighbor":6313,"ĠCamp":6314,"Ġsettings":6315,"255":6316,"Ġreceive":6317,"Ġmatches":6318,"ested":6319,"Ġslow":6320,"Ġimmediately":6321,"Ġcategory":6322,"cles":6323,"Left":6324,"Ġisn":6325,"Ġfavor":6326,"ora":6327,"Ġeasily":6328,"bi":6329,"kin":6330,"():":6331,"dx":6332,"ircraft":6333,"Entity":6334,"ĠGa":6335,"msg":6336,"ĠParis":6337,"ilation":6338,"Ġshared":6339,"Ġraise":6340,"iques":6341,"Ġweeks":6342,"Ġenjoy":6343,"ĠĠĠĠĠĠĠĠĠĠĠĠĠĠĠĠĠĠĠĠ":6344,"ĠCall":6345,"ĠZealand":6346,"heast":6347,"Ġinterpret":6348,"Ġnet":6349,"Ġequip":6350,"while":6351,"shift":6352,"border":6353,"Ġstrategy":6354,"media":6355,"ERROR":6356,"Ġearn":6357,"Assert":6358,"Ġpark":6359,"anta":6360,"Ġchoose":6361,"Ġchain":6362,"pers":6363,"ĠDirector":6364,"Mark":6365,"ĠUnder":6366,"ils":6367,"Ġsmooth":6368,"ĠTwo":6369,"ĠArg":6370,"EM":6371,"ĠTim":6372,"Ġalt":6373,"Ġcollege":6374,"underline":6375,"Ġinstr":6376,"Ġroute":6377,"Ġfair":6378,"xx":6379,"atically":6380,"agnost":6381,"Ġderived":6382,"Ġvelocity":6383,"ĠCON":6384,"Ġer":6385,"Ġquestions":6386,"Ġappointed":6387,"LP":6388,"Results":6389,"orter":6390,"shire":6391,"reedom":6392,"utils":6393,"Ġpull":6394,"even":6395,"kr":6396,"Ġpret":6397,"CTION":6398,"Ġslight":6399,"Ġalbums":6400,"Project":6401,"handle":6402,"Ġscene":6403,"Ġbey":6404,"\"`":6405,"Ġcompletely":6406,"ĠSecret":6407,"Ġcaused":6408,"Ġvan":6409,"GET":6410,"ĠAv":6411,"Ġdataset":6412,"____":6413,"Integer":6414,"Ġlif":6415,"ĠMost":6416,"types":6417,"1987":6418,"ucture":6419,"Ġguitar":6420,"Ġexamples":6421,"Ġexactly":6422,"igan":6423,"Ġhyper":6424,"prod":6425,"byte":6426,"aved":6427,"Order":6428,"Ġshot":6429,"Te":6430,"Ġactions":6431,"etri":6432,"ady":6433,"ĠGener":6434,"sect":6435,"ĠForce":6436,"orning":6437,"Ġ('":6438,"EO":6439,"ĠDen":6440,"Ġbeyond":6441,"ĠTimes":6442,"ĠChicago":6443,"================================":6444,"cope":6445,"ertific":6446,"ĠStep":6447,"Ġgrand":6448,"direct":6449,"mut":6450,"}},":6451,"Ġparse":6452,"Ġattr":6453,"Ġparents":6454,"cons":6455,"sych":6456,"ĠAlso":6457,"Ġsch":6458,"ellig":6459,"osing":6460,"Ġnoted":6461,"Ġchosen":6462,"parameter":6463,"Ġdou":6464,"izontal":6465,"ĠIreland":6466,"Ġbuildings":6467,"Font":6468,"Here":6469,"ĠCatholic":6470,"Ġleads":6471,"Ġhash":6472,"Ġgun":6473,"Ġstra":6474,"Ġuncertain":6475,"1986":6476,"akers":6477,"Comple":6478,"ĠCD":6479,"SL":6480,"Ġfourth":6481,"styles":6482,"ĉĉĊ":6483,"haps":6484,"Ġcompetition":6485,"ervation":6486,"Ġminor":6487,"Impl":6488,"Ġconsequ":6489,"artifact":6490,"Ġpaint":6491,"Ġessential":6492,"Helper":6493,"rot":6494,"Session":6495,"iled":6496,"ynomial":6497,"$_":6498,"Ġsummer":6499,"Bundle":6500,"Ġcalls":6501,"Ġcollabor":6502,".[":6503,"Ġapproximately":6504,"Vari":6505,"Sign":6506,"ĠPy":6507,"Ġdiscussed":6508,"Ġstack":6509,"auth":6510,"Ġnoise":6511,"Ġimprove":6512,"Ġmotion":6513,"Ġexpansion":6514,"house":6515,"Long":6516,"Ġforeign":6517,"Record":6518,"Ġwave":6519,"Ġsteps":6520,"anda":6521,"Ġdeliver":6522,"Ġprojects":6523,"Ġstories":6524,":\\":6525,"Ġseparate":6526,"Ġaffect":6527,"ĠMath":6528,"Ġbrother":6529,"Pass":6530,"eries":6531,"sort":6532,"ĠLake":6533,"Ġopening":6534,"URE":6535,"agment":6536,"TV":6537,"EC":6538,"Ġelectric":6539,"Argument":6540,"Ġturned":6541,"Ġcomputer":6542,"leep":6543,"Ġprotect":6544,"ĠLife":6545,"kg":6546,"Ġ_{":6547,"Invalid":6548,"Our":6549,"black":6550,"Ġclassical":6551,"ynchron":6552,"ĠFilm":6553,"ĠOffice":6554,"Ġdatabase":6555,"Definition":6556,"osh":6557,"Ġcritic":6558,"Render":6559,"trm":6560,"igration":6561,"ĠAlthough":6562,"Bytes":6563,"bitr":6564,"delete":6565,"Ġrecords":6566,"Ġidentified":6567,"Ġnative":6568,"callback":6569,"ĠIll":6570,"Ġsurround":6571,"Ġlock":6572,"olk":6573,"duction":6574,"Ġgreen":6575,"Ġconsists":6576,"ĠMax":6577,"'ll":6578,"ali":6579,"Ġgeneration":6580,"Ġestimated":6581,"UB":6582,"Ġeigen":6583,"device":6584,"UP":6585,"ĠUs":6586,"minus":6587,"Ġreduce":6588,"coming":6589,"Values":6590,"=#":6591,"Ġoriginally":6592,"Ġinteraction":6593,"Ġcomparison":6594,"Pop":6595,"Ġcorn":6596,"1984":6597,"ĠLand":6598,"Ġfoot":6599,"Ġmoving":6600,"cut":6601,"Ġfactors":6602,"oret":6603,"ĠAust":6604,"Reader":6605,"allery":6606,"arl":6607,"=(":6608,"erc":6609,"Ġpurpose":6610,"ĠPeople":6611,"Ġlibrary":6612,"ãĤ":6613,"Ġmajority":6614,"present":6615,"Ġvs":6616,"ishes":6617,"Ġgiving":6618,"WE":6619,"Ġamb":6620,"render":6621,"ih":6622,"boolean":6623,"endar":6624,"uke":6625,"textrm":6626,"ĠCam":6627,"ĠArts":6628,"ĠReview":6629,"interface":6630,"ĠAngeles":6631,"ato":6632,"found":6633,"}^{-":6634,"Ġoperators":6635,"Ġpoor":6636,"site":6637,"ĠSund":6638,"ĠAL":6639,"Ġperfect":6640,"Ġprice":6641,"1985":6642,"Ġinfluence":6643,"esh":6644,"Ġworth":6645,"Ġenter":6646,"room":6647,"Theta":6648,"Tool":6649,"uls":6650,"arant":6651,"Ġnetworks":6652,"rolled":6653,"Ġserious":6654,"fa":6655,"legal":6656,"ture":6657,"ĠSeries":6658,"annels":6659,"istent":6660,"Ġmachine":6661,"Ġplays":6662,"elled":6663,"ĠSun":6664,"ixel":6665,"Ġstraight":6666,"Ġloop":6667,"Ġplans":6668,"lers":6669,"Ġinfin":6670,"ĠSummer":6671,"Ġdelete":6672,"Ġtheorem":6673,"unched":6674,"ĠTop":6675,"ĠFlorida":6676,"owers":6677,"Ġbeaut":6678,"asy":6679,"Ġprocesses":6680,"ORD":6681,"ĠBre":6682,"deg":6683,"Non":6684,"ĠIran":6685,"Core":6686,"ĠFestival":6687,"Ġvertex":6688,"points":6689,"ĠInst":6690,"Ġderiv":6691,"Ġtra":6692,"ĠAtl":6693,"Ġembedd":6694,"Ġmanif":6695,"Am":6696,"(:":6697,"Ġmaps":6698,"car":6699,"ĠSpanish":6700,"ĠDate":6701,"'.":6702,"Ġcarry":6703,"ĠPan":6704,"{$":6705,"des":6706,"ĠCast":6707,"Ġpri":6708,"Ġemail":6709,"global":6710,"Ġshowed":6711,"uple":6712,"success":6713,"Ġwrong":6714,"undred":6715,"Ġfederal":6716,"Ġrelevant":6717,"hor":6718,"}}_{":6719,"ĠÂ£":6720,"poses":6721,"pg":6722,"GE":6723,"eds":6724,"faces":6725,"ader":6726,"ĠEducation":6727,"Ġcontinuous":6728,"Ġbranch":6729,"Ġinner":6730,"Ġcref":6731,"Each":6732,"StyleID":6733,"ĠMexico":6734,"Ġmentioned":6735,"Ġrates":6736,"ien":6737,"urren":6738,"Ġpriv":6739,"Su":6740,"BO":6741,"ĠVictor":6742,"Ġinteger":6743,"False":6744,"ĉĠĠĠĠĠĠĠ":6745,"ĠPenn":6746,"Ġvisual":6747,"Parent":6748,"grid":6749,"ifically":6750,"fram":6751,"Ġjoint":6752,"Cal":6753,"Ġaspect":6754,"ĠIts":6755,"Ġresolution":6756,"access":6757,"yan":6758,"Ġextract":6759,"white":6760,"dule":6761,"Ġcompact":6762,"toString":6763,"Ġindividuals":6764,"session":6765,"estamp":6766,"Ġtouch":6767,"apse":6768,"ĠUse":6769,"ĠJournal":6770,"Ġsociety":6771,"!!":6772,"ĠSocial":6773,"ĠSil":6774,"Ðº":6775,"ewidth":6776,"ĠNetwork":6777,"Ġsquare":6778,"enty":6779,"Ġheavy":6780,"orial":6781,"Ġbrief":6782,"arian":6783,"SET":6784,"Ġassign":6785,"apers":6786,"models":6787,"<\\":6788,"Ġ(*":6789,"Ġprefer":6790,"ĠGen":6791,"ribution":6792,"riage":6793,"Ġ++":6794,"Ġhop":6795,"Ġ$\\{":6796,"texttt":6797,"Ġcurve":6798,"ws":6799,"Ġproviding":6800,"Ġdiagram":6801,"Ġcommercial":6802,"Other":6803,"focus":6804,"Args":6805,"Ġwid":6806,"'>":6807,"replace":6808,"contin":6809,"Ġhence":6810,"abit":6811,"Sing":6812,"Symbol":6813,"razil":6814,"ĠTrue":6815,"venue":6816,"ĠMethod":6817,"Ġcouple":6818,"Ġprison":6819,"env":6820,"Ġfif":6821,"clear":6822,"Me":6823,"Ġdemand":6824,"PRE":6825,"Ġpert":6826,"Ġgrav":6827,"widget":6828,"Ġ(-":6829,"alo":6830,"zero":6831,"Ne":6832,"fields":6833,"COLOR":6834,"sur":6835,"Ġobservations":6836,"Ġagent":6837,"ĠFurther":6838,"Ġconcent":6839,"Ġcapacity":6840,"vision":6841,"Ġbytes":6842,"Ġcandidate":6843,"Doc":6844,"ĠTem":6845,"kind":6846,"Ġexperiments":6847,"footnote":6848,"Ġliterature":6849,"Dep":6850,"equals":6851,"Red":6852,"While":6853,"Var":6854,"utch":6855,"ĠEvent":6856,"Ġfailure":6857,"`.":6858,"Ġstations":6859,"ĠFootball":6860,"Ġquickly":6861,"Ġsplit":6862,"Ġ>>":6863,"Ġremained":6864,"ĠKn":6865,"itors":6866,"ĠArab":6867,"Ġcos":6868,"Ġsurpr":6869,"ĠGeorg":6870,"Ġstorage":6871,"ĠMur":6872,"Ġquarter":6873,"asure":6874,"hs":6875,"ĠTra":6876,"ola":6877,"agraph":6878,"Ġvote":6879,"Ġpoly":6880,"Ġ\\;":6881,"ĠError":6882,"Ġ$.":6883,"ĠFunction":6884,"iders":6885,"1983":6886,"ynamic":6887,"organ":6888,"Database":6889,"coll":6890,"Ġheader":6891,"ĠPet":6892,"ĠHamilton":6893,"Ġplot":6894,"aligned":6895,"uly":6896,"Ġmission":6897,"1950":6898,"Ġpartners":6899,"ĠTre":6900,"cript":6901,"iki":6902,"ĠUN":6903,"Ġunknown":6904,"aws":6905,"typeof":6906,"ĠBur":6907,")|":6908,"Vector":6909,"atalog":6910,"ĠLine":6911,"Scope":6912,"Ġwind":6913,"icons":6914,"Ġplane":6915,"ĠVirginia":6916,"Rect":6917,"ĠShow":6918,"ployment":6919,"definition":6920,"plugin":6921,"Ġcontrast":6922,"ĠHenry":6923,"isters":6924,"ilarly":6925,"Ġsave":6926,"ny":6927,"send":6928,"irls":6929,"stitution":6930,"component":6931,"Ġwhom":6932,"ategories":6933,"Ġunsigned":6934,"----------------------------------------------------------------":6935,"Exp":6936,"ĠChild":6937,"Ġacadem":6938,"Ġresponsible":6939,"nel":6940,"pute":6941,"~~~~":6942,"ipeline":6943,"Ġhousehold":6944,"Ġowner":6945,"ĠAssembly":6946,"ĠOh":6947,"Ġbroadcast":6948,"Ġ${":6949,"Ġexternal":6950,"Mock":6951,"_*":6952,"Ġpi":6953,"angular":6954,"DI":6955,"ĠYour":6956,"icies":6957,"udget":6958,"Ġappropriate":6959,"NG":6960,"itation":6961,"iral":6962,"ja":6963,"tog":6964,"Ġtesting":6965,"Ġimag":6966,"hens":6967,"ĠOrder":6968,"Ġmaster":6969,"ima":6970,"ĠEngine":6971,"Ġeth":6972,"However":6973,"ĠItaly":6974,"Device":6975,"Ġreflect":6976,"Template":6977,"Ġnation":6978,"Ġcreating":6979,"ishop":6980,"Storage":6981,"Ġparticles":6982,"iana":6983,"Ġsegment":6984,"irmed":6985,"Art":6986,"PH":6987,"Ġunion":6988,"results":6989,"Ġ['":6990,"John":6991,"Ġformation":6992,"Ġbyte":6993,"Ġcommunities":6994,"Ġtherm":6995,"omorphism":6996,"ĠLO":6997,"Ã¨":6998,"Ġcontribution":6999,"oviet":7000,"Ġinform":7001,"Ġaircraft":7002,"ATA":7003,"Ġvoice":7004,"register":7005,"aste":7006,"Schema":7007,"oral":7008,"1982":7009,"Ġconsistent":7010,"Don":7011,"Ġdistinct":7012,"spe":7013,"ĠOld":7014,"Ġharm":7015,"make":7016,"Ġtransl":7017,"oplus":7018,"Ġassess":7019,"Ac":7020,"Ġcompute":7021,"click":7022,"ĠMartin":7023,"Delete":7024,"artifactId":7025,"Ġeveryone":7026,"Ġdisease":7027,"Menu":7028,"ĠEach":7029,"Ġfeatured":7030,"ĠScot":7031,"defined":7032,"Ġut":7033,"etry":7034,"ootstr":7035,"Ġinline":7036,"OK":7037,"Ver":7038,"Ġexc":7039,"Ġannual":7040,"Ġreports":7041,"ĠEarth":7042,"Obj":7043,"Num":7044,"ĠRequ":7045,"Inst":7046,"store":7047,"subseteq":7048,"Writer":7049,"Ġdu":7050,"linewidth":7051,"Ġformula":7052,"ĠValue":7053,"Ġworkers":7054,"step":7055,"Only":7056,"ĠIO":7057,"arc":7058,"oday":7059,"Ġpolynomial":7060,"pool":7061,"atial":7062,"hover":7063,"ĠBusiness":7064,"Ġtool":7065,"Ġvoc":7066,"Timeout":7067,"ĠTour":7068,"Ġsignificantly":7069,"ORM":7070,"DL":7071,"Boolean":7072,"ugins":7073,"ĠDom":7074,"Ġunivers":7075,"ĠProfess":7076,"enum":7077,"WS":7078,"disabled":7079,"Ġ<=":7080,"ĠVis":7081,"Ġfine":7082,"inations":7083,"Ġinsert":7084,"Ġmostly":7085,"ifications":7086,"Ġfelt":7087,"Ġmill":7088,"Ġtraff":7089,"EXT":7090,"Ġspaces":7091,"Ġcloud":7092,"Ġfirm":7093,"150":7094,"Ġarbitr":7095,"ji":7096,"Ġexistence":7097,"Ġmeasured":7098,"Ġoil":7099,"Ġdespite":7100,"Ġbillion":7101,"Ġpackage":7102,"uations":7103,"ĠJun":7104,"shot":7105,"Ġhar":7106,"Ġdepth":7107,"posite":7108,"miss":7109,"Ġenh":7110,"Ġadvant":7111,"Ġlatest":7112,"Ġdigital":7113,"hesis":7114,"Ġdepends":7115,"ĠGood":7116,"ologies":7117,"Ġended":7118,"ĠSpr":7119,"Ġgoals":7120,"TS":7121,"framework":7122,"ĠFace":7123,"Ġbattle":7124,"Ġ$|":7125,"Ø§":7126,"Byte":7127,"Ġwinning":7128,"ĠOp":7129,"Use":7130,"ĠFort":7131,"ĠDevelopment":7132,"iminal":7133,"seud":7134,"ĠUSA":7135,"Ġpod":7136,"Ġcitiz":7137,"ĠIslam":7138,"vm":7139,"Ġserial":7140,"ĠSwed":7141,"ĠMa":7142,"Ġflux":7143,"Ġoffers":7144,"Ġfarm":7145,"Ġrul":7146,"ĠJud":7147,"RC":7148,"Ġonto":7149,"lie":7150,"Ġtrust":7151,"ockey":7152,"address":7153,"Ġspread":7154,"Metadata":7155,"docs":7156,"ĠHand":7157,"initial":7158,"Ġarm":7159,"iciency":7160,"Stack":7161,"Ġconflict":7162,"Ġ\\(":7163,"ĠĠĠĠĠĠĠĠĠĠĠĠĠĠĠĠĠĠ":7164,"isher":7165,"Ġmunic":7166,"nam":7167,"Ġarrest":7168,"ĠMil":7169,"Ġcarried":7170,"inant":7171,"Ġraised":7172,"Ġbounded":7173,"1979":7174,"rich":7175,"Ġ($\\":7176,"asion":7177,"iffer":7178,"Ġpositions":7179,"Ġgauge":7180,"Ñĥ":7181,"ĠassertEquals":7182,"attice":7183,"Ġradius":7184,"Ġcompare":7185,"allow":7186,"ACE":7187,"imensions":7188,"multi":7189,"ĠKey":7190,"Ġdetection":7191,"keys":7192,"ellar":7193,"Ġalleg":7194,"Has":7195,"ĠLibrary":7196,"Ġcombined":7197,"wa":7198,"Enabled":7199,"Ġalumni":7200,"ĠYoung":7201,"ko":7202,"Ġchief":7203,"Ġserve":7204,"Ġincome":7205,"anks":7206,"classes":7207,"Ġrout":7208,"Ġreligious":7209,"Ġphil":7210,"Ġmixed":7211,"ĠOlympics":7212,"Ġpiece":7213,"setminus":7214,"Ġauthors":7215,"alg":7216,"__(":7217,"Ġcombination":7218,"Ġroll":7219,"Ġowners":7220,"ĠMedia":7221,"gest":7222,"Ã³n":7223,"Ġsites":7224,"ĠOl":7225,"ancing":7226,"Ġiniti":7227,"Ġbinary":7228,"ova":7229,"groupId":7230,"ucket":7231,"mos":7232,"=\"-":7233,"ĠAwards":7234,"Ġ\"\\":7235,"ometric":7236,"cient":7237,"SM":7238,"neg":7239,"Ġencour":7240,"Ġdynamics":7241,"hem":7242,"ropy":7243,"Ġfootballers":7244,"Pod":7245,"Found":7246,"Ġopportunity":7247,"'\\":7248,"Rule":7249,"Ġolder":7250,"ĠLee":7251,"Ġkeys":7252,"ĠTeam":7253,"ĠChief":7254,"^{-\\":7255,"ĠLin":7256,"Ġdiscussion":7257,"Application":7258,"Ġdriver":7259,"rb":7260,"Ġelem":7261,"Ġactor":7262,"ĠJSON":7263,"ĠBi":7264,"ancer":7265,"Ġshoot":7266,"Select":7267,"'],":7268,"stop":7269,"Ġdetail":7270,"wedge":7271,"olver":7272,"ivial":7273,"ĠMov":7274,"riend":7275,"Ġawarded":7276,"va":7277,"1981":7278,"iano":7279,"ootstrap":7280,"comment":7281,"Ġsinger":7282,"Ġmusical":7283,"eves":7284,"ooks":7285,"mann":7286,"Ġletter":7287,"=\"../../../../../":7288,"anging":7289,"Ġ),":7290,"Root":7291,"full":7292,"Ġaccuracy":7293,"Ġefforts":7294,"Ġpush":7295,"Sk":7296,"Ã§":7297,"Ġgrid":7298,"ĠPac":7299,"claim":7300,"Ġparticle":7301,"inf":7302,"ulk":7303,"ĠLove":7304,"Ġtensor":7305,"These":7306,"Ġsea":7307,"Ġdevices":7308,"ĠHot":7309,"ests":7310,"ĠEqu":7311,"insert":7312,"cknow":7313,"ĠParliament":7314,"settings":7315,"Ġinher":7316,"ĠValley":7317,"subfigure":7318,"inate":7319,"Ġthr":7320,"ĠNO":7321,"Job":7322,"Ġunderstanding":7323,"Ġlaunched":7324,"Ġconstructed":7325,"Ġsector":7326,"kl":7327,"Ġwild":7328,"gorithms":7329,"Ġmurder":7330,"Descriptor":7331,"zing":7332,"reme":7333,"_,":7334,"Sum":7335,"ĠHaw":7336,"wrap":7337,"Ġexchange":7338,"Ġanswer":7339,"Ġpolar":7340,"Ġcoast":7341,"Ġpartial":7342,"Ġspirit":7343,"END":7344,"Cre":7345,"Ġhelped":7346,"ITY":7347,"Ġhus":7348,"SSERT":7349,"Prop":7350,"Ġmock":7351,"Ġthous":7352,"ĠJim":7353,"}\"":7354,"icine":7355,"onym":7356,"_{(":7357,"double":7358,"Ġexperimental":7359,"Ġsafety":7360,"Ġstrateg":7361,"Ġcentre":7362,"ĠWood":7363,"equality":7364,"stein":7365,"udio":7366,"Ġmeasures":7367,"120":7368,"cf":7369,"Ġpoll":7370,"Ġabsolute":7371,"'))":7372,"Debug":7373,"Ġblood":7374,"ĠSpe":7375,">.":7376,"Ġrelatively":7377,"Ġproceed":7378,"export":7379,"ustrial":7380,"osoph":7381,"imit":7382,"Med":7383,"Ġgrowing":7384,"Di":7385,"aka":7386,"Ġdisk":7387,"Ġ$[":7388,"weet":7389,"anguages":7390,"Sm":7391,"Ġos":7392,"Ġtypically":7393,"Ġple":7394,"Ġring":7395,"apply":7396,"Ġhandler":7397,"Before":7398,"Ġdirectory":7399,"Parser":7400,"\\}":7401,"Ġrespond":7402,"Section":7403,"Gu":7404,"inet":7405,"ĠIP":7406,"standing":7407,">();":7408,"ga":7409,"Ġlaunch":7410,"scription":7411,"Ġ})":7412,"`,":7413,"Ġ[];":7414,"Volume":7415,"oston":7416,"fully":7417,"plements":7418,"_+":7419,"Ġsusp":7420,"Ġidentify":7421,"help":7422,"Ġcat":7423,"Ġsymmetry":7424,"Ġprocedure":7425,"ĠĠĠĠĠĠĠĠĠĠĠĠĠĠĠĠĠĠĠĠĠĠĠĠĠĠĠĠĠĠĠĠĠĠĠĠĠĠĠ":7426,"ĠBob":7427,"Cor":7428,"Ġmolec":7429,"Constr":7430,"Ġremov":7431,"ĠSol":7432,"Ġedges":7433,"Ġnotice":7434,"Ġpretty":7435,"ĠHome":7436,"Windows":7437,"Ġfilename":7438,"Ġsenior":7439,"Ġdivision":7440,"ĠBG":7441,"iro":7442,"Ġconstraints":7443,"nap":7444,"Ġwasn":7445,"MB":7446,"icity":7447,"stat":7448,"virt":7449,"Title":7450,"lig":7451,"ĠCarolina":7452,"bits":7453,"Ġecho":7454,"ĠReport":7455,"Ġforced":7456,"Extension":7457,"Ġaccom":7458,"Ġofficer":7459,"_{{\\":7460,"Ġsal":7461,"Ġwood":7462,"Fields":7463,"eller":7464,"hemat":7465,"Ġhands":7466,"Ġscatter":7467,"Ġbecoming":7468,"itan":7469,"La":7470,"ĠMos":7471,"Ġalone":7472,"bal":7473,"ĠJo":7474,"ĠLiber":7475,"cloud":7476,"ĠLord":7477,"aria":7478,"limits":7479,"Ġdual":7480,"Ġpointer":7481,"1978":7482,"ĠEmp":7483,"ati":7484,"Ġreject":7485,"power":7486,"Init":7487,"Ġclearly":7488,"Ġoptimal":7489,"Ġready":7490,"ona":7491,"Ġapproximation":7492,"ĠJohnson":7493,"Ġangle":7494,"men":7495,"Ġinstanceof":7496,"Ġscored":7497,"Ġfunc":7498,"ĠManagement":7499,"AGE":7500,"ĠTheir":7501,"Ġ$-":7502,"Ġflat":7503,"dates":7504,"Ġtrigger":7505,"yer":7506,"Ġdecay":7507,"elegate":7508,"ĠEp":7509,"Figure":7510,"enter":7511,"Ġhundred":7512,"ashion":7513,"ansas":7514,"Decl":7515,"forms":7516,"eli":7517,"Ġunless":7518,"attribute":7519,"ultural":7520,"TEST":7521,"custom":7522,"dagger":7523,"Ġattract":7524,"Ġparties":7525,"arden":7526,"stone":7527,"=-":7528,"front":7529,")\">":7530,"people":7531,"names":7532,"Ġshowing":7533,"Ġbutton":7534,"During":7535,"Ġremember":7536,"Ġtasks":7537,"Ġappearance":7538,"Ġreasons":7539,"items":7540,"aylor":7541,"Ġmaterials":7542,"ĠJewish":7543,"1976":7544,"Ġreferred":7545,"Ġstrength":7546,"ĠIII":7547,"Ġdelay":7548,"othing":7549,"ATH":7550,"Ġarchitecture":7551,"Ġcancer":7552,"Ġemission":7553,"Ġfans":7554,"Ġslightly":7555,"Ġjav":7556,"Ġtechniques":7557,"aters":7558,"ĠStand":7559,"exception":7560,"look":7561,"nections":7562,"Queue":7563,"connect":7564,"Ġtournament":7565,"rate":7566,"sche":7567,"typed":7568,"Ġintr":7569,"ĠĠĠĠĠĠĠĠĠĠĠĠĠĠĠĠĠĠĠĠĠĠĠĠĠ":7570,"Ġcook":7571,"roduction":7572,"Ġmomentum":7573,"Ġsampl":7574,"ults":7575,"1972":7576,"Ġdecom":7577,"Ġmsg":7578,"secut":7579,"Person":7580,"ĠAN":7581,"ollary":7582,"ĠCopy":7583,"Ġincreases":7584,"Ġwriters":7585,"clusive":7586,"ĠEr":7587,"ĠJoseph":7588,"ĠNOT":7589,"gers":7590,"->_":7591,"blue":7592,"ĠSar":7593,"Sw":7594,"ĠGets":7595,"Ġcalculated":7596,"IA":7597,"Ġdetect":7598,"unct":7599,"aped":7600,"Ġvertices":7601,"ulf":7602,"vania":7603,"hy":7604,"ĠURL":7605,"ĠWell":7606,"ographic":7607,"amental":7608,"iced":7609,"Ġagreed":7610,"Ġpairs":7611,"Ġbrand":7612,"Ġcomments":7613,"Draw":7614,"ĠPak":7615,"Ġprocessing":7616,"Ġalternative":7617,"padding":7618,"Ġcoupling":7619,"ĠColor":7620,"holder":7621,"Lock":7622,"Ġleaving":7623,"mazon":7624,"Ġupdated":7625,"Ġnuclear":7626,"DC":7627,"ĠGame":7628,"Ġaxis":7629,".'":7630,"Ġedition":7631,"Ġcommunication":7632,"recated":7633,"ĠCode":7634,"ĠMiddle":7635,"otted":7636,"Ġclust":7637,"Ġmedal":7638,"poss":7639,"Year":7640,"Framework":7641,"Ġdraft":7642,"each":7643,"ĠJones":7644,"NavBar":7645,"ĠSaint":7646,"\\!\\!":7647,"Api":7648,"Ġprotocol":7649,"adium":7650,"Ġstock":7651,"margin":7652,"Ġking":7653,"Ġ'/":7654,"ĠCentre":7655,"Ġanyone":7656,"Ġmanaged":7657,"tool":7658,"ĠMicrosoft":7659,"ĠHead":7660,"ä¸":7661,"Initial":7662,"ĠId":7663,"ĠWales":7664,"ĠServices":7665,"cases":7666,"Ġincorpor":7667,"ĠSunday":7668,"Ġformal":7669,"Ġpropag":7670,"1977":7671,"Ġhidden":7672,"ĠBritain":7673,"cluded":7674,"aby":7675,"alloc":7676,"rical":7677,"shape":7678,"Ġisland":7679,"ĠLi":7680,"Ġdrive":7681,"Ġpool":7682,"Ġobvious":7683,"Send":7684,"Ġminim":7685,"GS":7686,"Further":7687,"Ġlived":7688,"Ġblocks":7689,"ĠMP":7690,"1974":7691,"Ġsales":7692,"aturday":7693,"Ġwall":7694,"icients":7695,"Ġfraction":7696,"1975":7697,"ĠIrish":7698,"),\\":7699,"ĉĠĠĠĠĠ":7700,"ito":7701,"ĠBrazil":7702,"ĠAsia":7703,"Ġexpressed":7704,"Ġbill":7705,"erg":7706,"Members":7707,"ĠNorthern":7708,"ĠModel":7709,"ĠSpecial":7710,"IB":7711,"Ġthreshold":7712,"ĠCorpor":7713,"Ġgirl":7714,"ĠPlay":7715,"Ġchance":7716,"Ġviews":7717,"Ġtrial":7718,"According":7719,"Ġpages":7720,"bigg":7721,"Ġefficient":7722,"ĠExt":7723,"family":7724,"Channel":7725,"Ġcosts":7726,"Ġperturb":7727,"CHE":7728,"cean":7729,"sql":7730,"ODO":7731,"Ġoffered":7732,"ĠJac":7733,"Ġcalc":7734,"auto":7735,"going":7736,"Display":7737,"iful":7738,"1968":7739,"Ġnumerical":7740,"radius":7741,"Ġcontributions":7742,"Ġrare":7743,"aret":7744,"sto":7745,";\"":7746,"Ġheard":7747,"short":7748,"Network":7749,"SION":7750,"Ġstudio":7751,"Ġpropos":7752,"airman":7753,"Ġsatisfies":7754,"Ġproducer":7755,"ĠSu":7756,"ĠBet":7757,"Ġnumerous":7758,"Own":7759,"Ġattributes":7760,"Ġul":7761,"ĠMoreover":7762,"Ġhistorical":7763,"Ġinfr":7764,"Ġalloc":7765,"Ġfamous":7766,"Ġsafe":7767,"Some":7768,"ĠSir":7769,"Ġhusband":7770,"wan":7771,"Ġvac":7772,"ĠProposition":7773,"Ġdiss":7774,"ĠDefault":7775,"Ġprotest":7776,"Ġreplace":7777,"]]":7778,"Icon":7779,"addr":7780,"ĠNavy":7781,"Ġcontained":7782,"Ġguarant":7783,"ĠColumb":7784,"syl":7785,"Ġindicates":7786,"ĠSpain":7787,"Ġmorning":7788,"ĠView":7789,"ĠEnter":7790,"anes":7791,"ims":7792,"Ġentered":7793,"1973":7794,"cmd":7795,"Ġinterested":7796,"DP":7797,"uer":7798,"Ġbasketball":7799,"wait":7800,"pton":7801,"AF":7802,")))":7803,"Ġmodified":7804,"aren":7805,"Äģ":7806,"Ġpurs":7807,"odies":7808,"Iterator":7809,"âĢĿ.":7810,"Ġorganizations":7811,"Internal":7812,"ĠHence":7813,"super":7814,"Selector":7815,"Ġrise":7816,"ĠĠĠĠĠĠĠĠĠĠĠĠĠĠĠĠĠĠĠĠĠĠĠĠĠĠĠĠĠĠĠĠĠĠĠĠĠĠĠĠĠĠĠĠĠĠĠĠĠĠĠĠĠĠĠĠĠĠĠĠĠĠĠĠ":7817,"ertificate":7818,"important":7819,"ĠPop":7820,"Ġexcit":7821,"Ġpolitician":7822,"Ġcreation":7823,"Ġ|\\":7824,"mock":7825,"Ġclassification":7826,"textsc":7827,"HTML":7828,"Ġstrugg":7829,"Ġadding":7830,"Func":7831,"aming":7832,"ĠWeek":7833,"Ġphen":7834,"*)":7835,"ket":7836,"just":7837,"ira":7838,"Ġschedul":7839,"Ġrapid":7840,"imb":7841,"}}(\\":7842,"Ġclaims":7843,"Ġcalling":7844,"Ġadministration":7845,"uous":7846,"ĠCross":7847,"Ġinitially":7848,"Main":7849,"DS":7850,"notation":7851,"FILE":7852,"Ġindepend":7853,"_->":7854,"zen":7855,"ĠKh":7856,"product":7857,"Ġmask":7858,"istration":7859,"Ġcycle":7860,"named":7861,"Ġcorresponds":7862,"Ġsemi":7863,"Ġnewsp":7864,"ĠJes":7865,"dict":7866,"Ġapproaches":7867,"sol":7868,"Active":7869,"Ġhappen":7870,"Ġscalar":7871,"Ġcities":7872,"ĠPoint":7873,"itness":7874,"=\"../../../../../../":7875,"Ġdetailed":7876,"ĠHuman":7877,"Ġpure":7878,"arts":7879,"Ġtransaction":7880,"Ġorient":7881,"JSON":7882,"Ġstable":7883,"pressed":7884,"pective":7885,"ums":7886,"Ġcovered":7887,"DR":7888,"_{-":7889,"Ġachieve":7890,"Ġprof":7891,"ĠBoth":7892,"Ġclin":7893,"ĠBack":7894,"Ġkept":7895,"Ġgalaxies":7896,"kins":7897,"Ġpp":7898,"Ġcomputed":7899,"inity":7900,"ocker":7901,"ĠSecurity":7902,"words":7903,"urrency":7904,"inv":7905,"Ġcool":7906,"Ġcommit":7907,"Ġdifferences":7908,"Ġcommission":7909,"FAULT":7910,"256":7911,"sylvania":7912,"Msg":7913,"Ġsuc":7914,"scape":7915,"Ġtor":7916,"'_":7917,"////////////////////////////////":7918,"}%":7919,"Ġsqu":7920,"Ġactress":7921,"###":7922,"ester":7923,"Ġran":7924,"elligence":7925,"hadoop":7926,"KEY":7927,"1971":7928,"Ñı":7929,"tri":7930,"Ġassumed":7931,"Ġinequality":7932,"Xml":7933,"panel":7934,"gypt":7935,"Will":7936,"ĠNumber":7937,"rick":7938,")\\,":7939,"TEX":7940,"Ġassumption":7941,"edit":7942,"gg":7943,"~$\\":7944,"ĠMain":7945,"unsigned":7946,"NotNull":7947,")).":7948,"hom":7949,"'d":7950,"mediate":7951,"bad":7952,"Ġweap":7953,"Ġsynt":7954,"Ġinterval":7955,"Ġspectral":7956,"Ġriver":7957,"HS":7958,"ĠWay":7959,"BR":7960,"Cap":7961,"Ġowned":7962,"ĠSoviet":7963,"Ġoccurs":7964,"idae":7965,"ĠMany":7966,"DIR":7967,"ador":7968,"ĠLie":7969,"Events":7970,"Early":7971,"Ġnine":7972,"Ġcultural":7973,"Dialog":7974,"Cond":7975,"mond":7976,"ĠEven":7977,"ĠWilliams":7978,"bu":7979,"region":7980,"Ġintegral":7981,"Any":7982,"Ġmessages":7983,"Ġmainly":7984,"colon":7985,")),":7986,"Eq":7987,"category":7988,"Ġpaid":7989,"ĠCy":7990,"_(":7991,"Ġtried":7992,"osa":7993,"urban":7994,"uses":7995,"1969":7996,"ye":7997,"Ġsurvey":7998,"ĠRo":7999,"ugby":8000,"Ġhospital":8001,"ĠPri":8002,"Ġ\"/":8003,"ĠPower":8004,"FS":8005,"IX":8006,"anner":8007,"ĠConference":8008,"Click":8009,"rim":8010,"ĠFred":8011,"aration":8012,"Ġoperating":8013,"ampion":8014,"subsubsection":8015,"Ġstarts":8016,"ĠInitial":8017,"Ġcircle":8018,"Ġstress":8019,"Ġintroduce":8020,"ĠCivil":8021,"emporary":8022,"inion":8023,"ĠHTML":8024,"wer":8025,"Custom":8026,"Ġpan":8027,"May":8028,"ĠSand":8029,"Ġ}\\":8030,"Ġamplit":8031,"Ġvisible":8032,"Ġtruth":8033,"Ġsouthern":8034,"Ġsucceed":8035,"Items":8036,"ĠStat":8037,"Ġsimulation":8038,"Ġtraffic":8039,"assertEqual":8040,"ĠFacebook":8041,"Ġmeasurements":8042,"ighter":8043,"ĠRam":8044,"osis":8045,"Tab":8046,"Ġpartner":8047,"ĠNode":8048,"Ġachieved":8049,"Ġindicate":8050,"tail":8051,"iterator":8052,"zz":8053,")_{":8054,"Changed":8055,"itionally":8056,"Ġofficials":8057,"Ġtools":8058,"Ġrac":8059,"adr":8060,"Ġassigned":8061,"Ġpowerful":8062,"odd":8063,"Ġsetup":8064,"axis":8065,"application":8066,"sel":8067,"ĠTele":8068,"Ġdepartment":8069,"scroll":8070,"bytes":8071,"Fail":8072,"Ġordered":8073,"stra":8074,"chen":8075,"writer":8076,"newcommand":8077,"ĠText":8078,"eces":8079,"Ġbehavi":8080,"elli":8081,"Ġpicture":8082,"Ġattacks":8083,"CI":8084,"Ġice":8085,"Ġrestrict":8086,"Ġlooks":8087,"ĠAR":8088,"uries":8089,"ĠHor":8090,"ĠTask":8091,"modal":8092,")}(":8093,"Graph":8094,"Ġvary":8095,"ĠGal":8096,"pa":8097,"here":8098,"ĠTechnology":8099,"Ġideas":8100,"iate":8101,"ĠOnly":8102,"ĠWal":8103,"Ġversions":8104,"Ġproved":8105,"eless":8106,"Av":8107,"Ð°Ð":8108,"Runtime":8109,"Ġodd":8110,"ĠPubl":8111,"ĠCommunity":8112,"Register":8113,"ĠWall":8114,"dependent":8115,"Ġpil":8116,"Ġnorthern":8117,"bury":8118,"ĠAff":8119,"awa":8120,"Ġmagazine":8121,"ĠHon":8122,"Ġtypeof":8123,"rawn":8124,"'}":8125,"Ġestimates":8126,"Cast":8127,"asi":8128,"Ġsimpl":8129,"Ġrevealed":8130,"Ġmetal":8131,"Named":8132,"Ġappend":8133,"ĠEconom":8134,"Ġ\"\"":8135,"Step":8136,"ĠFriday":8137,"Ġattended":8138,"LL":8139,"ĠCard":8140,"ĠMA":8141,"Ġsimulations":8142,"master":8143,"Ġcorpor":8144,".__":8145,"Ġhydro":8146,"Ġrecall":8147,"Support":8148,"Ġsexual":8149,"ancel":8150,"flags":8151,"ĠBlue":8152,"aling":8153,"ĠGlobal":8154,"asis":8155,"Media":8156,"areer":8157,"estic":8158,"Orig":8159,"ĠNav":8160,"Ġanalyt":8161,"Ġreader":8162,"Ġpartition":8163,"ĠInformation":8164,"Ġmechanism":8165,"Del":8166,"Ġknew":8167,"assertEquals":8168,"cam":8169,"ĠDemocratic":8170,"Ġicon":8171,"1940":8172,"rices":8173,"ĠSouthern":8174,"Ġtracks":8175,"Ġdiscovered":8176,"ĠBGCOLOR":8177,"Ġvertical":8178,"Ġtrained":8179,"ĠBoston":8180,"They":8181,"hetic":8182,"apes":8183,"Ġregarding":8184,"Ġcounty":8185,"ceived":8186,"grade":8187,"Ġlaws":8188,"Ġforest":8189,"Ġclimate":8190,"events":8191,"ĠGi":8192,";->":8193,"Äĩ":8194,"1967":8195,"ĠPM":8196,"astr":8197,"andon":8198,"uing":8199,"inline":8200,"Ġalgorithms":8201,"Pool":8202,"ĠMcC":8203,"ĠSecretary":8204,"stylesheet":8205,"}$-":8206,"Ġseconds":8207,"MENT":8208,"ĠEmpire":8209,"Ġchallenge":8210,"special":8211,")^{\\":8212,"ĠLab":8213,"WA":8214,"Ġfreedom":8215,"Ġjson":8216,"Ġspeak":8217,"hav":8218,"Ġtoward":8219,"Ġofficers":8220,"itage":8221,"Ġseasons":8222,"je":8223,"Ġclaimed":8224,"ĠĠĠĠĠĠĠĠĠĠĠĠĠĠĠĠĠĠĠĠĠĠĠĠ":8225,"Ġadjust":8226,"Ġconducted":8227,"forall":8228,",\\,":8229,"ĠMen":8230,"emy":8231,"Ġentity":8232,"Ġtransformation":8233,"Ġenable":8234,"Ġexport":8235,"1945":8236,"Ġvictory":8237,"thread":8238,"ĠCamb":8239,"Ġsections":8240,"ading":8241,"acro":8242,"Ġcontinues":8243,"Ġ(_":8244,"AME":8245,"ogene":8246,"ione":8247,"Ġallowing":8248,"Ġdynamic":8249,"cuss":8250,"called":8251,"Ġcoefficients":8252,"ĠMuslim":8253,"ĠVersion":8254,"TA":8255,"ĠGreek":8256,"umes":8257,"PU":8258,"250":8259,"Ġenabled":8260,"queue":8261,"ĠSenate":8262,"Notes":8263,"emon":8264,"bre":8265,"Ġapparent":8266,"Ġdream":8267,"Ġrequests":8268,"enth":8269,"ĠMond":8270,"amm":8271,"ĠLuc":8272,"English":8273,"rium":8274,"Ġissued":8275,"Namespace":8276,"ĠFrancisco":8277,"HR":8278,"Rest":8279,"Ġanalog":8280,"Ġintended":8281,"ĠBow":8282,"1930":8283,"Ġfinding":8284,"nergy":8285,"Ġextr":8286,"ierarch":8287,";<":8288,"Ġil":8289,"primary":8290,"Ġeconomy":8291,"Ġctx":8292,"Const":8293,"odec":8294,"operation":8295,"ĠCarl":8296,"Ġaware":8297,"ulty":8298,"Mat":8299,"Ġparallel":8300,"ĠPennsylvania":8301,"Ġmodes":8302,"parameters":8303,"Ġdefin":8304,"Ġult":8305,"ridge":8306,"admin":8307,"unities":8308,"Ġbuy":8309,"udes":8310,"Ġtypical":8311,"abil":8312,"Public":8313,"ĠPlan":8314,"ĠRadio":8315,"SIZE":8316,"acle":8317,"las":8318,"Ġarbitrary":8319,"Ġspl":8320,"rid":8321,"Ġabsor":8322,"mc":8323,"High":8324,"ĠOx":8325,"Memory":8326,"Ġlies":8327,"ĠÎ":8328,"Ġfactory":8329,"LOG":8330,"toggle":8331,"Ġuniversity":8332,"ĠĠĠĠĠĠĠĠĠĠĠĠĠĠĠĠĠĠĠĠĠĠ":8333,"ĠPacific":8334,"protobuf":8335,"selected":8336,"ECT":8337,"Auth":8338,"plications":8339,"ĠAny":8340,"ĠVAL":8341,"Ġexecutive":8342,"Account":8343,"ĠMult":8344,"Ġheat":8345,"mi":8346,"Ġdir":8347,"ĠTheatre":8348,"iser":8349,"typedef":8350,"Ġinvalid":8351,"bel":8352,"Hz":8353,"Ġelim":8354,"128":8355,"record":8356,"Ġcolon":8357,"}^*":8358,"Security":8359,"Ġhtml":8360,"Ġfle":8361,"Ġhuge":8362,"ĠBecause":8363,"Ġrepresenting":8364,"tmp":8365,"ĠAli":8366,"Auto":8367,"iling":8368,"phone":8369,"Ġrequirements":8370,"ango":8371,"Ġpm":8372,"Ġconference":8373,"istical":8374,"Ġdistributions":8375,"ĠSO":8376,"Ġvehicle":8377,"CF":8378,"pan":8379,"Ġcriter":8380,"ĠUser":8381,"MAX":8382,"rons":8383,"appe":8384,"ffect":8385,"Ġretri":8386,"ello":8387,"ĠAND":8388,"entity":8389,"Ġlett":8390,"Ġchampionship":8391,"ROM":8392,"network":8393,"160":8394,"Ġtal":8395,"bot":8396,"Ġbounds":8397,"hentication":8398,"UID":8399,"Ġimportance":8400,"tion":8401,"Ġencoding":8402,"elease":8403,"ran":8404,"tn":8405,"ĠMichigan":8406,"\"/":8407,"Ġarmy":8408,"ads":8409,"Ġmassive":8410,"Ġconstraint":8411,"ĠFree":8412,"Ġleadership":8413,"obs":8414,"1964":8415,"Ġcoordinates":8416,"Ġwants":8417,"channel":8418,"inois":8419,"SR":8420,"Ġadvantage":8421,"Pattern":8422,"IE":8423,"Ġwrap":8424,"Ġsust":8425,"NR":8426,"Ġseat":8427,"ĠVan":8428,"Rad":8429,"Feature":8430,"hell":8431,"Editor":8432,"Ġcancell":8433,"aver":8434,"TED":8435,"Ġdog":8436,"Ġresidents":8437,"ennis":8438,"Ġinnov":8439,"ĠChampionships":8440,"adel":8441,"Ġ$$":8442,"Ġstrings":8443,"lyph":8444,"IST":8445,"Ġcamera":8446,"ĠPass":8447,"Ġens":8448,"connection":8449,"Ġbelieved":8450,"Ġregime":8451,"izable":8452,"ĠElect":8453,"ĠQueen":8454,"[$":8455,"Ġestablishments":8456,"Ġcorrelation":8457,"Ġtheoret":8458,"Ġthick":8459,"Ġ+\\":8460,"Ġlabor":8461,"green":8462,"pmatrix":8463,"Ġfru":8464,"Ġboy":8465,"Ġdrama":8466,"Ġsupply":8467,"ilib":8468,"Ġphone":8469,"Close":8470,"++;":8471,"Ġrect":8472,"Ġstatistics":8473,"Ġdenotes":8474,"ĠAM":8475,"Classes":8476,"ĠJersey":8477,"Ġpet":8478,"ĠLead":8479,"ĠUkr":8480,"800":8481,"Keys":8482,"ĠWater":8483,"Ġelections":8484,"phy":8485,"Ġstrongly":8486,"Ġimplemented":8487,"awn":8488,"Author":8489,"Ġfocused":8490,"Ġhear":8491,"ĠPolice":8492,"brief":8493,"Ġagree":8494,"isis":8495,"Ġmeant":8496,"ĠMu":8497,"Ġblog":8498,"Ġconsole":8499,"ĠBern":8500,"PAR":8501,"Ġvocals":8502,")^{-":8503,"roke":8504,"Ġadm":8505,"Ġreduction":8506,"two":8507,"ĠBu":8508,"har":8509,"ĠNight":8510,"Ġsuggested":8511,"Ġtrav":8512,"Ġperhaps":8513,"Ġsubset":8514,"life":8515,"Ġchannels":8516,"Ġextend":8517,"Ġmarked":8518,"since":8519,"agonal":8520,"Compar":8521,"Ġlattice":8522,"600":8523,"Ġfill":8524,"(!":8525,"formance":8526,"ĠJon":8527,"World":8528,"identifier":8529,"aught":8530,"ĠSaturday":8531,"onto":8532,"Float":8533,"Ġarticles":8534,"\">&":8535,"Ġdocuments":8536,"domain":8537,"dependency":8538,"etes":8539,"Ġinvestigation":8540,"Ġmarriage":8541,"Ġhappened":8542,"ĠJustice":8543,"cher":8544,"Ġinvariant":8545,"Ġisol":8546,"Ġpsych":8547,"low":8548,"Ġrail":8549,"Gen":8550,"Ġmapping":8551,"Proxy":8552,"Ġcurves":8553,"Full":8554,"Ġsuccessfully":8555,"bullet":8556,"vin":8557,"ĠSong":8558,"\\|_{":8559,"Ġoccurred":8560,"1965":8561,"Ġdb":8562,"ila":8563,"picture":8564,"effect":8565,"Ġfloor":8566,"aching":8567,"Ġlearned":8568,"ĠAndrew":8569,"security":8570,"Ġcompr":8571,"Ġsomew":8572,"move":8573,"Ġgain":8574,"Ġhour":8575,"ĠBattle":8576,"ĠJeff":8577,"RES":8578,"Ġattend":8579,"iy":8580,"impl":8581,"Ġlocations":8582,"ups":8583,"kes":8584,"abeth":8585,"Ġideal":8586,"ĠAsian":8587,"Ġinteractions":8588,"burgh":8589,"?âĢĿ":8590,"Ġgap":8591,"save":8592,"area":8593,"Ġcandidates":8594,"ipality":8595,"Ġaudience":8596,"cb":8597,"dy":8598,"ibli":8599,"ĠSte":8600,"Ġbatt":8601,"ĠjQuery":8602,"ĠPath":8603,"Ġrecording":8604,"enger":8605,"Ġeyes":8606,"ĠScotland":8607,"Package":8608,"Ġneighborhood":8609,"Ġcitizens":8610,"ĠSea":8611,"ARY":8612,"ĠStan":8613,"Ġplanning":8614,"annotation":8615,"Ġplease":8616,"forward":8617,"properties":8618,"Ġmiles":8619,"stable":8620,"perp":8621,"ĠCoast":8622,"[:":8623,"Ġfish":8624,"lay":8625,"Ġtend":8626,"nn":8627,"ĠColl":8628,"spring":8629,"Ġcouncil":8630,"onical":8631,"ĠTH":8632,"ĠAction":8633,"Attributes":8634,"ĉĠĠĠĠĠĠĠĠĠĠĠ":8635,"ĠFederal":8636,"uset":8637,"Ġacts":8638,"Ġmatching":8639,"ĠHospital":8640,"loop":8641,"1920":8642,"Character":8643,"Ġrough":8644,"Ġtab":8645,"Ġreality":8646,"Ġprotection":8647,"ĠOhio":8648,"Ġkernel":8649,"andra":8650,"ela":8651,"ĠEgypt":8652,"Ġdeleg":8653,"icip":8654,"oir":8655,"atible":8656,"ĠWild":8657,"ĠMid":8658,"VD":8659,"Ġconfirmed":8660,"Ġcontroller":8661,"Flags":8662,"screen":8663,"Ġshop":8664,"Ġstreet":8665,"oles":8666,"Parse":8667,"Ġserving":8668,"Ġentries":8669,"Member":8670,"keep":8671,"Ġspatial":8672,"1966":8673,"CM":8674,"ĠCommon":8675,"Ġdepart":8676,"exists":8677,"ĠOrgan":8678,"Ġdistingu":8679,"^{+":8680,"ogen":8681,"{$\\":8682,"Ġdedicated":8683,"}}^":8684,"Ġhypot":8685,"Ġmonitor":8686,"Ġleaves":8687,"Ġlabels":8688,"ucky":8689,"Ġaccepted":8690,"ributed":8691,")_":8692,"olds":8693,")\"":8694,"Ġdepending":8695,"Ġdaily":8696,":#":8697,"Ġtechnical":8698,"Ġmorph":8699,"Ġboost":8700,"Ġlayers":8701,"unte":8702,"isted":8703,"ĠPrem":8704,"mic":8705,"Tests":8706,"ĠTro":8707,"ĠEvery":8708,"dropdown":8709,"ĠWhe":8710,"Ġlat":8711,"Ġregional":8712,"Logger":8713,"ĠDown":8714,"aturing":8715,"idel":8716,"Transform":8717,"Ġconcert":8718,"Ġfear":8719,"Ġreq":8720,"Ġpolicies":8721,"imeq":8722,"children":8723,"Two":8724,"Ġraw":8725,"ĠMah":8726,"Ġtheme":8727,"Ġabstract":8728,"Ġearth":8729,"when":8730,"ĠUsing":8731,"Ġdownload":8732,"raq":8733,"Ġsingular":8734,"Ġchemical":8735,")},":8736,"Ġpolitics":8737,"none":8738,"ĠCa":8739,"Ġbudget":8740,"FIG":8741,"simeq":8742,")));":8743,"BE":8744,"Ġregistered":8745,"Ġexplained":8746,"Ġlimits":8747,"Ġdegrees":8748,"Ġcapture":8749,"ĠChris":8750,"ĠHarr":8751,"ĠMajor":8752,"ountry":8753,"Show":8754,"RR":8755,"110":8756,"Ġbeat":8757,"ICE":8758,"SY":8759,"Ġspeech":8760,"tained":8761,"Ġclick":8762,"Ġequipment":8763,"Ġadopted":8764,"ftware":8765,"Ġsignature":8766,"hu":8767,"Ġsister":8768,"Ġbuilder":8769,"Ġdamage":8770,"eld":8771,"Perm":8772,"Ġfinish":8773,"Ġlicense":8774,"inds":8775,"ipher":8776,"Bit":8777,"isc":8778,"ĠTw":8779,"Ġobserve":8780,"ĠKorea":8781,"Ġmobile":8782,"orship":8783,"Ġio":8784,"ĠAuthor":8785,"uby":8786,"amin":8787,"zone":8788,"ĠJr":8789,"Ġacting":8790,"%,":8791,"Ġpromin":8792,"Ġoptional":8793,"Ġmeasurement":8794,"ĠPolit":8795,"Ġproport":8796,"ĠKen":8797,"Microsoft":8798,"reatest":8799,".~(\\":8800,"Ġng":8801,"Ġinstrument":8802,"$$\\":8803,"total":8804,"Ġconsidering":8805,"Ġfn":8806,"Ġinvoke":8807,"ĠBas":8808,"Ġtrend":8809,"uts":8810,"Ġzone":8811,"illy":8812,"Ġcolumns":8813,"depth":8814,"install":8815,"entials":8816,"Ġadvert":8817,"orney":8818,"Term":8819,"Ġpy":8820,"ursday":8821,"Region":8822,"cknowled":8823,"ez":8824,"ĠJoe":8825,"ĠTaylor":8826,"Ġemph":8827,"Ġsides":8828,"ĠFund":8829,"Ġlab":8830,"ĠFar":8831,"ĠMike":8832,"pet":8833,"Ġrich":8834,"Ġexplain":8835,"Ġplus":8836,"ĠRay":8837,"Pointer":8838,"$).":8839,"ivation":8840,"utable":8841,"coh":8842,"ĠAdministr":8843,"ĠCommand":8844,"Ġtypename":8845,"uzz":8846,"profile":8847,"STAT":8848,"Ġbridge":8849,"boost":8850,"Directory":8851,"webpack":8852,"NT":8853,"shall":8854,"ingham":8855,"ĠWed":8856,"ONE":8857,"enant":8858,"ĠHistoric":8859,"ivery":8860,"Ġsell":8861,"orders":8862,"rames":8863,"ĠFalse":8864,"irds":8865,"Ġfundamental":8866,"Ġcrime":8867,"Expr":8868,"ĠLocal":8869,"metadata":8870,"ĠHa":8871,"Opt":8872,"Ġdie":8873,"ĠĠĠĠĠĠĠĠĠĠĠĠĠĠĠĠĠĠĠĠĠĠĠĠĠĠ":8874,"Ġbenefit":8875,"Ġlanguages":8876,"VM":8877,"Ġcrow":8878,")\\\\":8879,"throws":8880,"rf":8881,"Ġsubstant":8882,"Home":8883,"rovers":8884,"ĠTODO":8885,"ĠCro":8886,"Thus":8887,"arters":8888,"Ġsecondary":8889,"Ġshock":8890,"ĠPhilipp":8891,"ĠBroad":8892,"law":8893,"trigger":8894,"Global":8895,"Route":8896,"Elements":8897,"Ġcomposed":8898,"Ġcars":8899,"Using":8900,"Ġmedium":8901,"ĠPolicy":8902,"DT":8903,"CHECK":8904,"fix":8905,"ĠJava":8906,"ĠIl":8907,"ĠRh":8908,"Ġtrees":8909,"ĠLy":8910,"printf":8911,"Ġcensus":8912,"Ġspot":8913,"BI":8914,"ĠEdward":8915,"Ġtrail":8916,"ĠLu":8917,")}{\\":8918,"ĠUpdate":8919,"athan":8920,"$^{-":8921,"Ġfunding":8922,"Ġfre":8923,"ĠMedical":8924,"Ġphenomen":8925,"PORT":8926,"Ġunderlying":8927,"virtual":8928,"RAN":8929,"Ġahead":8930,"Ġcycl":8931,"Ġ[[":8932,"remark":8933,"Ġ^":8934,"ĠDesign":8935,"Ġfeet":8936,"Ġphotograph":8937,"ĠMot":8938,"arse":8939,"Ġactors":8940,"Ġhighlight":8941,"Single":8942,"diff":8943,"})$.":8944,"Nodes":8945,"Ġimproved":8946,"Ġyouth":8947,"ĠSports":8948,"avor":8949,"ĠImm":8950,"erial":8951,"Ġmuseum":8952,"Ġconvers":8953,"Ġsettlement":8954,"Ġends":8955,"Ġfacilities":8956,"fail":8957,"ronic":8958,"Ġfaith":8959,"expr":8960,"Ġaffected":8961,"safe":8962,"ĠDaniel":8963,"handler":8964,"ĠPage":8965,"Ins":8966,"ĠKong":8967,"Ġok":8968,"Ġdrink":8969,"Files":8970,"ĠParam":8971,"onal":8972,"Ġrecommend":8973,"()));":8974,"ĠRepublican":8975,"Ġwidely":8976,"Ġnotes":8977,"ĠJackson":8978,"Ġlisten":8979,"produ":8980,"Ġcorner":8981,"Ġorders":8982,"Ġoptical":8983,"ĠKent":8984,"ĠAmericans":8985,"layer":8986,"Ġfigures":8987,"ĠOption":8988,"agers":8989,"tik":8990,"Ġpurposes":8991,"ictures":8992,"fi":8993,"Ġcriminal":8994,"ĠAre":8995,"Ġdimensions":8996,"orough":8997,"Ġsummary":8998,"achuset":8999,"ĠTri":9000,"achusetts":9001,"ĠWin":9002,"such":9003,"Ġdefeated":9004,"ĠIllinois":9005,"Ġangular":9006,"Ġfellow":9007,"chester":9008,"Ġdanger":9009,"}}^{":9010,"ÐµÐ":9011,"Ġfort":9012,"Ġliber":9013,"Ġqueue":9014,"amber":9015,"ĠLittle":9016,"Ġbrowser":9017,"Ġeq":9018,"Ġchanging":9019,"ĠLast":9020,"Ġdescribes":9021,"Ġacceler":9022,"Background":9023,"Ġsupports":9024,"ĠFamily":9025,"how":9026,"BB":9027,"ĠRepresent":9028,"oped":9029,"chor":9030,"-->":9031,"Ġrestaur":9032,"vs":9033,"Ġrailway":9034,"ĠPhys":9035,"=\"../../../":9036,"inals":9037,"Ġviolence":9038,"structions":9039,"Ġdependence":9040,"ĠAmazon":9041,"modules":9042,"leted":9043,"Plugin":9044,"aya":9045,"National":9046,"ĠFinally":9047,"Ġinvestment":9048,"numer":9049,"apos":9050,"){\\":9051,"Syntax":9052,"ĠIOException":9053,"Å¡":9054,"Ġconsult":9055,"Ġturns":9056,"ĠFour":9057,"ĠAri":9058,"ĠInternet":9059,"astructure":9060,"Ġflex":9061,"Ġprev":9062,"ĠNY":9063,"ĠWho":9064,"ĠSU":9065,"para":9066,"JS":9067,"Ġcharged":9068,"ĠProfessor":9069,"Ġdesired":9070,"Ġcomedy":9071,"omorphic":9072,"Ġwestern":9073,"emic":9074,"sky":9075,"Second":9076,"email":9077,"pir":9078,"Ġminimal":9079,"Ġmatrices":9080,"Ġprepar":9081,"Collections":9082,"ĠProvince":9083,"Ġ×":9084,"reset":9085,"ingly":9086,"inher":9087,"Props":9088,"Ġlayout":9089,"txt":9090,"Ġenvironmental":9091,"Ġprefix":9092,"Ġsport":9093,"Ġflags":9094,"ĠSpace":9095,"Ġdoll":9096,"Attr":9097,"()).":9098,"Ġtells":9099,"Ġbrain":9100,"Åį":9101,"Headers":9102,"Ġtwice":9103,"Loader":9104,"ĠCorporation":9105,"ĠWalk":9106,"Video":9107,"inton":9108,"Ġgather":9109,"Ġstored":9110,"chmark":9111,"Dem":9112,"Ġdivided":9113,"ĠDig":9114,"Ġkill":9115,"(__":9116,"ĠKenn":9117,"Ġreferences":9118,"Ġdeveloping":9119,"\\\\\\\\":9120,"Ġbass":9121,"verb":9122,"Ġprofessor":9123,"à¸":9124,"Ġexecution":9125,"Ġther":9126,"Ġbegins":9127,"General":9128,"ben":9129,"Ġdriving":9130,"bell":9131,"NULL":9132,"Ġsymmetric":9133,"Ġautomatically":9134,"ĠBBC":9135,"ĠStudies":9136,"1963":9137,".*":9138,"âĢĿ,":9139,"Ä±":9140,"ĠLatin":9141,"STATE":9142,"Ġmanner":9143,"Ġlooked":9144,"urer":9145,"Ġconven":9146,"footer":9147,"plugins":9148,"Ġarrived":9149,"pred":9150,"1962":9151,"Ġfunctional":9152,"Seg":9153,"Ġgradient":9154,"Bi":9155,"Ġjobs":9156,"Ġappre":9157,"Ġsuggests":9158,"Print":9159,"plus":9160,"ogram":9161,"hard":9162,"\")]":9163,"Ġimplements":9164,"nic":9165,"Matrix":9166,"Ġdoor":9167,"Ġpatient":9168,"ĠEastern":9169,"owner":9170,"Ġhole":9171,"Ġcer":9172,"uesday":9173,"ĠBrook":9174,"Ġpromise":9175,"sen":9176,"lean":9177,"ĠObserv":9178,"bro":9179,"GC":9180,"Ġjavax":9181,"[(":9182,"decl":9183,"ĠGeorgia":9184,"Ġevaluation":9185,"tools":9186,"READ":9187,"water":9188,"ĠSom":9189,"Ġterror":9190,"ĠPrince":9191,"Ġroles":9192,"Ġperforming":9193,"Ġremark":9194,"\\_":9195,"Ġyields":9196,"Remove":9197,"Ġrepeated":9198,"Ġcoverage":9199,"WR":9200,"orrow":9201,"Ġassociation":9202,"Ġnearby":9203,"ĠMic":9204,"Ġpal":9205,"Ġwonder":9206,"ĠCA":9207,"Ġsatisfy":9208,"fd":9209,"ifiers":9210,"Ġancient":9211,"ĠSupreme":9212,"rase":9213,"Ġflo":9214,"Ġspectra":9215,"Ġpossibly":9216,"uv":9217,"ĠExecut":9218,"Ġtransparent":9219,"SF":9220,"Ġaggreg":9221,"semble":9222,"ĠStart":9223,"Ġprediction":9224,"Ġvectors":9225,"Ġbenefits":9226,"Ġskills":9227,"ĠSD":9228,"odot":9229,"Ġbin":9230,"controller":9231,"âĢĺ":9232,"world":9233,"ifer":9234,"Ġindeed":9235,"teen":9236,"Ġtechnique":9237,"Ġhousing":9238,"Ġacademic":9239,"IVE":9240,"urance":9241,"Ġnarrow":9242,"Ġera":9243,"ĠLight":9244,"Ġwinner":9245,"ĠConfig":9246,"possible":9247,"Ġcustomers":9248,"theme":9249,"nesday":9250,"Ġcircum":9251,"LIC":9252,"Ġconvergence":9253,"ilibrium":9254,"icer":9255,"Ġscenario":9256,"OOST":9257,"Space":9258,"ĠTwitter":9259,"apy":9260,"ni":9261,"Ġusual":9262,"Ġdecades":9263,"Ġbright":9264,"Tags":9265,"Ġaudio":9266,"Generic":9267,"mask":9268,"ponential":9269,"Ġprimarily":9270,"Sch":9271,"Ġearned":9272,"una":9273,"Ġdro":9274,"ĠâĢ¢":9275,"ĠWindows":9276,"ndef":9277,"Ġbits":9278,"MT":9279,"Ġreson":9280,"Ġincident":9281,"Grid":9282,"eting":9283,"izabeth":9284,"Ġacquired":9285,"itivity":9286,"gment":9287,"person":9288,"ĠMonday":9289,"Ġprincipal":9290,"achment":9291,"VERSION":9292,"Ġauthority":9293,"ifdef":9294,"tikz":9295,"Ġcredit":9296,"chain":9297,"aug":9298,"mapsto":9299,"Ġefficiency":9300,"Ġlargely":9301,"Ġscientific":9302,"ĠCH":9303,"ĠKr":9304,"ĠPrime":9305,"Ġoptimization":9306,"mo":9307,"password":9308,"Ġrotation":9309,"upl":9310,"ĠBell":9311,"ervative":9312,"Ġpassing":9313,"amely":9314,"Ġpaths":9315,"Ġexcell":9316,"ourney":9317,"(@":9318,"101":9319,"atters":9320,"Car":9321,"BUG":9322,"enabled":9323,"Ġidx":9324,">::":9325,"contains":9326,"condition":9327,"Ġexpanded":9328,"Ġshell":9329,"limit":9330,"Ġspan":9331,"Ġ=\\":9332,"Trace":9333,"Ã±":9334,"schema":9335,"Ġremote":9336,"onia":9337,"Ġfresh":9338,"manager":9339,"idx":9340,"%)":9341,"ĠIndex":9342,"MR":9343,"Ġip":9344,"Ġshut":9345,"Fix":9346,"Ġcollected":9347,"aph":9348,"Ġexerc":9349,"icensed":9350,"ĠAnother":9351,"Ġextremely":9352,"ĠBang":9353,"Ġobservation":9354,"ĠFire":9355,"Ġthinking":9356,"ĠRights":9357,"ifts":9358,"zure":9359,")$-":9360,"ideos":9361,"Scroll":9362,"Ġemployees":9363,"yg":9364,"Ġpoliticians":9365,"Cons":9366,"(){":9367,"rine":9368,"ĠĠĠĠĠĠĊ":9369,"Career":9370,"Ġgeometry":9371,"ĠLim":9372,"ĠIraq":9373,"Ġdispl":9374,"Ġcharges":9375,"Ġmotor":9376,"ĠOxford":9377,"Ġinstances":9378,"ĠReal":9379,"'(":9380,"tan":9381,"Ġdefense":9382,"Socket":9383,"iveness":9384,"ĠCopyright":9385,"Ġoperated":9386,"Ġusage":9387,"displaystyle":9388,"Ġinstalled":9389,"ĠGovernor":9390,"ydney":9391,"Ġportion":9392,"ving":9393,"ancell":9394,"Ġhouses":9395,"Ñĭ":9396,"Transaction":9397,"Ġsun":9398,"Ġverify":9399,"Ġaccomp":9400,"Ġplanned":9401,"Ġasympt":9402,"Ġachiev":9403,"Ġthank":9404,"ipe":9405,"ĠElement":9406,"single":9407,"Protocol":9408,"Ġspecifically":9409,"ĠMassachusetts":9410,"ÅĤ":9411,"1944":9412,"ĠWilson":9413,"Ġcoal":9414,"ĠWis":9415,"Ġprime":9416,"Ġ'<":9417,"ĠDutch":9418,"coin":9419,"ignment":9420,"scill":9421,"Cluster":9422,"Ġ[],":9423,"Ġwarn":9424,"Ġ{{":9425,"Ġflight":9426,"Ġfashion":9427,"ĠBlock":9428,"oes":9429,"ookie":9430,"ĠGaussian":9431,"atio":9432,"Theorem":9433,"Ġlie":9434,"ĠSupport":9435,")[":9436,"UTF":9437,"Ġships":9438,"ĠDO":9439,"Ġplanet":9440,"Wrapper":9441,"Ġtreated":9442,"Ġbiggest":9443,"XML":9444,"Ġmagnitude":9445,"prefix":9446,"Ġtranslation":9447,"Ġorganized":9448,"ĠOrig":9449,"Ġadvance":9450,"}&":9451,"ĠMake":9452,"plot":9453,"Ġpseud":9454,"Inv":9455,"Ġfell":9456,"Ġgenus":9457,"hidden":9458,"Ġdiam":9459,"180":9460,"ĠBa":9461,"Ġagents":9462,"acks":9463,"ĠRom":9464,"Dist":9465,"account":9466,"ĠSE":9467,"Ġsubsequent":9468,"Ġinvolving":9469,"Ġnucle":9470,"BP":9471,"ĠAlexander":9472,"tw":9473,"Conn":9474,"Ġfan":9475,"notes":9476,"Ġpatterns":9477,"complete":9478,"ĠFurthermore":9479,"ToString":9480,"Statement":9481,"agr":9482,"Ġdance":9483,"svg":9484,"Ġstellar":9485,"fire":9486,"Ġdefend":9487,"ĠDar":9488,"Ġconj":9489,"Ġsan":9490,"Ġfinds":9491,"ĠAsh":9492,"ĠRetri":9493,"Ġbalance":9494,"Spe":9495,"ĠEst":9496,"ĠRos":9497,"Ġteacher":9498,"ĠBoy":9499,"Ġdetected":9500,"progress":9501,"ITE":9502,"Edit":9503,"hol":9504,"Panel":9505,"Ġawards":9506,"ĠSym":9507,"Ġcauses":9508,"Ġhonor":9509,"ĠDaily":9510,"Ġasync":9511,"pository":9512,"ĠCase":9513,"inson":9514,"Ġtyped":9515,"brid":9516,"Ġburn":9517,"Ġadvanced":9518,"Ġreviews":9519,"Ġdeclared":9520,"Ġstandards":9521,"IND":9522,"Ġmasses":9523,"Ġnewly":9524,"ĠImage":9525,"oured":9526,"switch":9527,"]:":9528,"random":9529,"pson":9530,"ĠProcess":9531,"undefined":9532,"LC":9533,"Ġkids":9534,"Ġinstitutions":9535,"ĠFI":9536,"1961":9537,"ĠPen":9538,"ĠNon":9539,"Ġfacility":9540,"Ġcommonly":9541,"Ġvehicles":9542,"ami":9543,"ĠRog":9544,"Ġrg":9545,"Ġdifferential":9546,"Ġskip":9547,"GR":9548,"Ġexperi":9549,"Double":9550,"ĠChristmas":9551,"Ġpeace":9552,"Lin":9553,"sex":9554,"ulator":9555,"Ġrain":9556,"Ġphysics":9557,">\\":9558,"ulpt":9559,"Ġbands":9560,"ĠPakistan":9561,"Common":9562,"Ġnotation":9563,"sid":9564,"aki":9565,"lywood":9566,"outheast":9567,"Ġcomposition":9568,"props":9569,"ĠCollection":9570,"Ġeye":9571,"Prefix":9572,"Ġsingles":9573,"Ġcoordinate":9574,"ĠColumbia":9575,"ĠĠĠĠĠĠĠĠĠĠĠĠĠĠĠĠĠĠĠĠĠĠĠĠĠĠĠĠĠ":9576,"Ġexpert":9577,"iated":9578,"Ġwaves":9579,"ĠThree":9580,"lik":9581,"Ġtopic":9582,"Ġhappens":9583,"cccc":9584,"Ġfifth":9585,"ffff":9586,"Ġven":9587,"West":9588,"ĠSign":9589,"Ġ{'":9590,"pot":9591,"Ġduration":9592,"Ġprinciple":9593,"TT":9594,"Ġmaybe":9595,"ĠâĢ¦":9596,"ĠLike":9597,"Ã£":9598,"ĠPortug":9599,"Dest":9600,"Ġgrew":9601,"ĠFair":9602,"ĠKar":9603,"=>":9604,"Ġpitch":9605,"ĠÂ»":9606,"hab":9607,"proposition":9608,"eness":9609,"ĠLink":9610,"Failed":9611,"Ġconstructor":9612,"ori":9613,"Ġescape":9614,"Ġsubsequently":9615,"agg":9616,"Ġreaction":9617,"Profile":9618,"rie":9619,"Ġconnections":9620,"Ġwel":9621,"Ġsquad":9622,"fony":9623,"sumer":9624,"Ġtele":9625,"JECT":9626,"Ġtrace":9627,"ĠAbout":9628,"|_{":9629,"Ġcomplexity":9630,"ederation":9631,"ĠGuard":9632,"ĠViet":9633,"yo":9634,"elly":9635,"ĠControl":9636,"argument":9637,"Ġpars":9638,"ĠLew":9639,"Ġplants":9640,"ĠIR":9641,"Ġcaptured":9642,"Find":9643,"ĠSi":9644,"lan":9645,"ĠNext":9646,"acent":9647,"Ġsolve":9648,"Abstract":9649,"Success":9650,"Ġbeautiful":9651,"Ġepisodes":9652,"phia":9653,"ĠSus":9654,"ĠKim":9655,"Ġpenal":9656,"MI":9657,"equence":9658,"Ġinspired":9659,"gradient":9660,"Ġwish":9661,"thur":9662,"ĠObama":9663,"ĠBon":9664,"mass":9665,"Ġcov":9666,"Ġexplicitly":9667,"Product":9668,"Ġsyn":9669,"engine":9670,"Ġwhereas":9671,"Adapter":9672,"ĠCorn":9673,"original":9674,"Ġchallenges":9675,"Ġcertainly":9676,"ALSE":9677,"HTTP":9678,"Ġfunds":9679,"apol":9680,"okes":9681,"heim":9682,"Sche":9683,"Ġpowers":9684,"Ġminister":9685,"Ġfuel":9686,"ologist":9687,"nil":9688,"ropol":9689,"periment":9690,"creen":9691,"Films":9692,"ĠPoland":9693,"cref":9694,"jar":9695,"filename":9696,"actic":9697,"irror":9698,"Ġpersonnel":9699,"Ġawait":9700,"ĠTrust":9701,"ĠHong":9702,"Ġopposite":9703,"Ġexit":9704,"-$":9705,"ĠMember":9706,"ĠStation":9707,"Ġinduced":9708,"Brit":9709,"Ġintegration":9710,"Ġrows":9711,"editor":9712,"United":9713,"lets":9714,"zed":9715,"Agent":9716,"VE":9717,"ĠBeach":9718,"$;":9719,"Ġprogramming":9720,"Selected":9721,"USE":9722,"pres":9723,"kw":9724,"Ġperman":9725,"collection":9726,"Ġlistener":9727,"ĠBand":9728,"Ġinstant":9729,"Ġexplan":9730,"fold":9731,"oster":9732,"nob":9733,"Ġhers":9734,"ushed":9735,"alyt":9736,"$~":9737,"ository":9738,"anth":9739,"Ġrecognition":9740,"Bound":9741,"Ġsuitable":9742,"ĠSuch":9743,"Ġsupporting":9744,"also":9745,"Ġphoto":9746,"VID":9747,"Ġretired":9748,"Ġ&=&":9749,"\\)":9750,"Ġelectronic":9751,"imated":9752,"ĠRen":9753,"ivated":9754,"ĠLive":9755,"Ġserves":9756,"&#":9757,"Ġ%}":9758,"Sync":9759,"Ġcopies":9760,"Ġcalculate":9761,"'])":9762,"Ġconclude":9763,"adelphia":9764,"Ġreceiving":9765,"ĠCat":9766,"Ġgone":9767,"Google":9768,"pay":9769,"Ġalongside":9770,"1958":9771,"Ġbroken":9772,"Ġauthorities":9773,"Ġdialog":9774,"Tra":9775,"Ġcrew":9776,"Ġsurrounding":9777,"Report":9778,"Ġouter":9779,"Cred":9780,"Ġrobust":9781,"Ġclock":9782,"Ġstuff":9783,"ĠArea":9784,"Ġentirely":9785,"evin":9786,"ĠEU":9787,"ĠTO":9788,"Finally":9789,":=":9790,"nodes":9791,"Ġtempor":9792,"itter":9793,"ĠRod":9794,"1948":9795,"Ġtheoretical":9796,"large":9797,"ĠJean":9798,"Ġresolve":9799,"ĠMinistry":9800,"essions":9801,"Ġevaluate":9802,"Ġholding":9803,"ĠCirc":9804,"Ġrecognized":9805,"aset":9806,"Ġanimals":9807,"ĠAlb":9808,"conn":9809,"1959":9810,"Ġglass":9811,"OUT":9812,"oves":9813,"FLA":9814,"itled":9815,"isting":9816,"Ġpieces":9817,"Ġobjective":9818,"ĠMaster":9819,"Ġindustrial":9820,"wall":9821,"picker":9822,"gency":9823,"role":9824,"ĠEnvironment":9825,"ultane":9826,"Scale":9827,"ĠVill":9828,"ACT":9829,"estion":9830,"Ġheav":9831,"LINE":9832,"LOCK":9833,"Ġassembly":9834,"ĠThursday":9835,"Ġoscill":9836,"Ġmeta":9837,"expect":9838,"NC":9839,"tor":9840,"Ġsym":9841,"ĠFC":9842,"ĠSciences":9843,"ĠHom":9844,"Ġfeaturing":9845,"indexOf":9846,"mma":9847,"-(":9848,"blockList":9849,"puter":9850,"Ġrecip":9851,"Ġconvent":9852,"Ġlib":9853,"Ġgeneric":9854,".;":9855,"ĠApple":9856,"cret":9857,"Ġtroops":9858,"Ġadvoc":9859,"Ġsoldiers":9860,"Ġhappy":9861,"vari":9862,"osity":9863,"getName":9864,"\\{\\":9865,"Ġpossibility":9866,"Py":9867,"Ġbeam":9868,"ipse":9869,"kens":9870,"Ġrom":9871,"ĠSteve":9872,"ordan":9873,"Ġintersection":9874,"ById":9875,"Ġthermal":9876,"Ġmys":9877,"ĠCEO":9878,"Ġcontrolled":9879,"HP":9880,"hl":9881,"ĠResource":9882,"Ġgirls":9883,"istence":9884,"isa":9885,"1956":9886,"istant":9887,"ĠInteger":9888,"Simple":9889,"Ġcommittee":9890,"Ġce":9891,"Ġsummar":9892,"Ġenv":9893,"NOT":9894,"123":9895,"Ġmetadata":9896,"iggs":9897,"ĠScottish":9898,"ĠWrit":9899,"Resources":9900,"conv":9901,"yes":9902,"prev":9903,"Ġapplicable":9904,"Ġwitness":9905,"Ġphilosoph":9906,"occer":9907,"Ġaspects":9908,"Ġcontrovers":9909,"Variable":9910,"endix":9911,"Ġvalidation":9912,"rated":9913,"Ġnarr":9914,"Ġweights":9915,"atever":9916,"Ġtalking":9917,"125":9918,"Ġgalaxy":9919,"Ġbelief":9920,"agnostic":9921,"Ġalter":9922,"Ġinfinite":9923,"ĠPers":9924,"oked":9925,"ĠNations":9926,"Ġengineering":9927,"Ġinjury":9928,"Writ":9929,"})$,":9930,"INS":9931,"ĠDat":9932,"1939":9933,"Ġener":9934,"Ġmyst":9935,"Duration":9936,"ĠEnergy":9937,"Arch":9938,"URI":9939,"encing":9940,"Ġexpos":9941,"Ġanimation":9942,"TABLE":9943,"ĠInvest":9944,"Ġatmos":9945,"jpg":9946,"1942":9947,"Engine":9948,"ĉĉĉĊ":9949,"Ġmedian":9950,"Identifier":9951,"Ġgraphs":9952,"Ġsuperv":9953,"acts":9954,"Ġreturning":9955,"ixels":9956,"Comment":9957,"=\"/":9958,"Ġconcerns":9959,"asters":9960,"Ġlocally":9961,"ĠLo":9962,"git":9963,"WN":9964,"worth":9965,"Ġopinion":9966,"Ġclubs":9967,"GA":9968,"Ġoverl":9969,"Ġmist":9970,"ĠBad":9971,"MOD":9972,"Ġexports":9973,"ĠBerlin":9974,"friend":9975,"Layer":9976,"pu":9977,"Ġprovider":9978,"Ġsizeof":9979,"Ġuncertainty":9980,"Ġcm":9981,"Len":9982,"erves":9983,"Although":9984,"aga":9985,"bec":9986,"ritical":9987,"Ġparser":9988,"Ġthousands":9989,"cpp":9990,"inator":9991,"home":9992,"------------":9993,"Ġconversion":9994,"Ġwarm":9995,"Ġgranted":9996,"1957":9997,"Ġconfirm":9998,"indu":9999,"Ġaver":10000,"ennes":10001,"clusions":10002,"Ġemployed":10003,"Ġresident":10004,"shal":10005,"anz":10006,"prise":10007,"ĠRest":10008,"uli":10009,"Short":10010,"opher":10011,"Ġdestroyed":10012,"ÑĮ":10013,"Ġunderst":10014,"orest":10015,"ULE":10016,"Ġspring":10017,"Domain":10018,",$":10019,"Uri":10020,"cong":10021,"Ġtimeout":10022,"ubble":10023,"ĠToronto":10024,"Services":10025,"TEXT":10026,"protected":10027,"Multi":10028,"ĠMessage":10029,"eman":10030,"closed":10031,"Ġurban":10032,"Ġsand":10033,"Ġcomputation":10034,"'));":10035,"Ġbaseball":10036,"ĠIslands":10037,"ĠHard":10038,"Ġsmart":10039,"bootstrap":10040,"Ġbusinesses":10041,"ĠNet":10042,"ymmetric":10043,"Browser":10044,"ĠFre":10045,"ĠShort":10046,"Ġaccurate":10047,"Ġinn":10048,"UD":10049,"Ġtail":10050,"Ġdict":10051,"blem":10052,"Ġselector":10053,"repe":10054,"1943":10055,"Ġdescent":10056,"ĠRegion":10057,"TIME":10058,"care":10059,"Ġreform":10060,"testing":10061,"ifndef":10062,"Ġnegot":10063,"RT":10064,"Ġcategories":10065,"Ġbed":10066,"Are":10067,"Transport":10068,"Ġprojection":10069,"ĠChannel":10070,"Ġstability":10071,"stats":10072,"ressed":10073,"ĠAdv":10074,"done":10075,"sys":10076,"Ang":10077,"TRUE":10078,"ĠÐ¿":10079,"Ġfant":10080,"invalid":10081,"Ġsolar":10082,"pair":10083,"Ġvon":10084,"Ã¢":10085,"ĠHash":10086,"esian":10087,"eral":10088,"Ġfmt":10089,"}({\\":10090,"aux":10091,"ĠPack":10092,"Ġteaching":10093,"Ġagency":10094,"Ġexceed":10095,")+\\":10096,")-\\":10097,"Ġhistoric":10098,"ĠSydney":10099,"ĠHung":10100,"Ġestate":10101,"Ġopportunities":10102,"PATH":10103,"ĠAnth":10104,"Ġdestination":10105,"upload":10106,"ĠAT":10107,"Introduction":10108,"ĠNC":10109,"outer":10110,"?\"":10111,"ĠAvenue":10112,"Total":10113,"groups":10114,"Ġvision":10115,"ego":10116,"Ġmenu":10117,"ĠOs":10118,"}}$.":10119,"ĠGar":10120,"\",\"":10121,"ÐµÐ½":10122,"################":10123,"Ġwire":10124,"Ġfilled":10125,"unately":10126,"Ġglob":10127,"Sym":10128,"SER":10129,"opic":10130,"Ġliqu":10131,"browser":10132,"Ġattempts":10133,"Ġpra":10134,"ĠMS":10135,"Fin":10136,"avid":10137,"Ġcalculation":10138,"Ġdisabled":10139,"Best":10140,"ĠTR":10141,"Endpoint":10142,"Ġcouldn":10143,"ĠValid":10144,"ĠTuesday":10145,"OB":10146,"Ġui":10147,"Ġ).":10148,"phys":10149,"Ġ\",":10150,"ĠBelg":10151,"hide":10152,"Ġrepresentative":10153,"Ġapproved":10154,"aked":10155,"Mapping":10156,"Ġvir":10157,"ĠAccess":10158,"ented":10159,"ĠHamiltonian":10160,"))$":10161,"Play":10162,"|}":10163,"ĠVictoria":10164,"SQL":10165,"Conf":10166,"player":10167,"Ġjudge":10168,"Ġguide":10169,"vc":10170,"components":10171,"ĠElizabeth":10172,"onomy":10173,"Ġwaiting":10174,"Ġvariation":10175,"Ġnewspaper":10176,"Ã£o":10177,"Ġneutr":10178,"EV":10179,"ĠAdam":10180,"pkg":10181,"ĠAD":10182,"volume":10183,"}}$,":10184,"INFO":10185,"Ġ>>>":10186,"ĠEll":10187,"PM":10188,"Enum":10189,"Delegate":10190,"Ġtraject":10191,"Ġbundle":10192,"lesssim":10193,"consin":10194,"Ġapplying":10195,"%%%%":10196,"Ġaccident":10197,"Ġathlet":10198,"anna":10199,"Ġirre":10200,"Ġdropped":10201,"tc":10202,"temp":10203,"junit":10204,"Ġbomb":10205,"HER":10206,"ĠBal":10207,"aska":10208,"Ġspons":10209,"ĠWars":10210,"Lem":10211,"shadow":10212,"ĠWednesday":10213,"PER":10214,"opts":10215,"Ġextent":10216,"Ġcold":10217,"Ġherself":10218,"Ġindicated":10219,"ĠFox":10220,"Ġarms":10221,"ĠLater":10222,"Ġheaders":10223,"moz":10224,"Ġstatements":10225,"night":10226,"mdc":10227,"Category":10228,"irk":10229,"Mer":10230,"Many":10231,"month":10232,"ĠSem":10233,"agnetic":10234,"ĠĠĠĠĠĠĠĠĠĠĠĠĠĠĠĠĠĠĠĠĠĠĠĠĠĠĠĠĠĠĠĠĠĠĠĠĠĠĠĠĠĠĠ":10235,"Ġdatasets":10236,"etherlands":10237,"ĠSat":10238,"Selection":10239,"1941":10240,"ĠAge":10241,"dem":10242,"Ð²":10243,"typen":10244,"storage":10245,"ĠRa":10246,"IMP":10247,")->":10248,"Ġjump":10249,"HL":10250,"Ġion":10251,"ĠAk":10252,"ĠRailway":10253,"]}":10254,"ĠAS":10255,"issues":10256,")}_{":10257,"Ġclosely":10258,"Nov":10259,"raham":10260,"Ġele":10261,"ogy":10262,"Therefore":10263,"Ġtransferred":10264,"1946":10265,"ĠGro":10266,"Ġunable":10267,"ogeneous":10268,"ĠDer":10269,"Ġdemocr":10270,"ĠHTTP":10271,"fall":10272,"Äį":10273,"ĠCur":10274,"paragraph":10275,"Ġperformances":10276,"His":10277,"Ġmal":10278,"igrants":10279,"ĠRome":10280,"Div":10281,"University":10282,"ĠBC":10283,"watch":10284,"unes":10285,"Ġsolo":10286,"owa":10287,"CESS":10288,"ï¼":10289,"Flow":10290,"sa":10291,"Ġguard":10292,"Ġinject":10293,"Ġprepared":10294,"ĠAgain":10295,"Ġfighting":10296,"Ġdrawn":10297,"Ġamplitude":10298,"Progress":10299,"Errorf":10300,"1955":10301,"Ġsale":10302,"headers":10303,"Ġmathemat":10304,"Ġpartnership":10305,"Ġconverted":10306,"Under":10307,"utf":10308,"Ġxmlns":10309,"ĠHun":10310,"Ġscroll":10311,"Ġthanks":10312,";/":10313,"Ġbehaviour":10314,"EventListener":10315,"aded":10316,"ĠDim":10317,"ĠKorean":10318,"ĠNE":10319,"Ġcomputational":10320,"Ġconfigure":10321,"issue":10322,"Ġignore":10323,"ĠRoute":10324,"Ġseeing":10325,"ITION":10326,"Ġcontrols":10327,"FFFF":10328,"forcement":10329,"irement":10330,"game":10331,"avity":10332,"Ġradiation":10333,"builder":10334,"çļ":10335,"ĠSa":10336,"Activity":10337,"configuration":10338,"Ġprominent":10339,"riority":10340,"CB":10341,"ntario":10342,"}{|":10343,"fast":10344,"ĠVen":10345,"Ġhair":10346,"sch":10347,"ĠCustom":10348,"opes":10349,":}":10350,"Ġexplo":10351,"ted":10352,"sample":10353,"zh":10354,"Ġeastern":10355,"iples":10356,"arity":10357,"ĠDist":10358,"Ġinvent":10359,"ĠTam":10360,"typename":10361,"Ġagric":10362,"ĠBul":10363,"Ġ],":10364,"cussion":10365,"Ali":10366,"extend":10367,"Ġsleep":10368,"pattern":10369,"Ġattached":10370,"jQuery":10371,"ĠWAR":10372,"Ġweather":10373,"Just":10374,"Ġdust":10375,"ĠMarg":10376,"}{(":10377,"urations":10378,"Ġcharacteristic":10379,"Book":10380,"Ġinterests":10381,"1952":10382,"timeout":10383,"Ġcovers":10384,"platform":10385,"Ġtrip":10386,"Ġlinked":10387,"dialog":10388,"ĠDavis":10389,"ĠJews":10390,"Ġscattering":10391,"ifferent":10392,"Ġlisting":10393,"Ġscales":10394,"ĠFollowing":10395,"attributes":10396,"ĠRail":10397,"1947":10398,"otional":10399,"perial":10400,"isely":10401,"Ġcommitted":10402,"Ġcrisis":10403,"antom":10404,"Ġcontents":10405,"Ġ_,":10406,"stances":10407,"Ġapart":10408,"atar":10409,"ĠĠĠĠĠĠĠĠĠĠĠĠĠĠĠĠĠĠĠĠĠĠĠĠĠĠĠĠ":10410,"arring":10411,"ĠMill":10412,"TF":10413,"fly":10414,"Ġ{$":10415,"Ġ[\\":10416,"unnel":10417,"inating":10418,"rg":10419,"zech":10420,"slice":10421,"Ġassistant":10422,"apore":10423,"1954":10424,"ĠCreek":10425,"Ġwallet":10426,"ĠRon":10427,"ĠCare":10428,"LECT":10429,"ĠLabor":10430,"IPT":10431,"ENSE":10432,"Ġrural":10433,"ĠEnt":10434,"Ġperspective":10435,"Pe":10436,"atern":10437,"ipage":10438,"ribed":10439,"Constants":10440,"çļĦ":10441,"Ġcontemporary":10442,"Ġvotes":10443,"ĠCorps":10444,"Registry":10445,"echo":10446,"Ġseed":10447,"Ġwealth":10448,"METH":10449,"Ġfootballer":10450,"ĠUnivers":10451,"Ġclusters":10452,"ĠComple":10453,"ouri":10454,"Ġtranslate":10455,"changed":10456,"pert":10457,"}$)":10458,"Ġ\\!":10459,"Ġelev":10460,"mad":10461,"Ġsizes":10462,"Ġdiscrim":10463,"Ġclients":10464,"Ġ([":10465,"circle":10466,"etween":10467,"hbar":10468,"Sports":10469,"Ġgender":10470,"yal":10471,"Ġalleged":10472,"Ġexplore":10473,"Generator":10474,"Ġbatter":10475,"Ġpredicted":10476,"Ġintroduction":10477,"iration":10478,"Ġentr":10479,"Ġcalculations":10480,"asp":10481,"ĠOnce":10482,"Ġsilver":10483,"Scal":10484,"ĠWat":10485,"Ġdoub":10486,"lg":10487,"Ġtitles":10488,"ibraries":10489,"dp":10490,"algorithm":10491,"abric":10492,"___":10493,"ĠSant":10494,"ĠCub":10495,"including":10496,"ĠPRO":10497,"parser":10498,"Ġsignals":10499,"Ġmach":10500,"tons":10501,"Ġcoinc":10502,"ropical":10503,"ĠOlympic":10504,"ĠDonald":10505,"Ġconfidence":10506,"ĠStephen":10507,"Math":10508,"once":10509,"ĠSoftware":10510,"ĠDocument":10511,"Music":10512,"Ġenum":10513,"ĠIV":10514,"tainment":10515,"Ġinvestigate":10516,"ĠDespite":10517,"Ġscaling":10518,"ĠNiger":10519,"Ġrequested":10520,"Ġtransmission":10521,"Ġconstants":10522,"ais":10523,"ĠGreg":10524,"bas":10525,"ĠSM":10526,"plicated":10527,"Ġsupposed":10528,"Ġsampling":10529,"FUN":10530,"ĠPrize":10531,"ĠArgent":10532,"Free":10533,"azy":10534,"Ġ..":10535,"cluster":10536,"Ġwarning":10537,"Ġparticipants":10538,"Look":10539,"Ġfrequently":10540,"Ġrig":10541,"zona":10542,"otten":10543,"itative":10544,"some":10545,"}</":10546,"Ġeffectively":10547,"Leg":10548,"III":10549,"PD":10550,"tabs":10551,"enable":10552,"govern":10553,"Ġloaded":10554,"Ġletters":10555,"Fact":10556,"ĠChildren":10557,"ĠÅ":10558,"Ġsequences":10559,"Ġbias":10560,"Ġpublication":10561,"Ġhockey":10562,"===":10563,"dig":10564,"1949":10565,"Sem":10566,"Ġreserved":10567,"ĠOfficial":10568,"ycle":10569,"extension":10570,"keyword":10571,"Ġsynchron":10572,"ĠSpring":10573,"Ġnamely":10574,"Ġfiction":10575,"ĠJesus":10576,"ĠBall":10577,"Ġcaref":10578,"chestra":10579,"Limit":10580,"ulating":10581,"ĠConf":10582,"CRE":10583,"cert":10584,"logger":10585,"Ġbatch":10586,"{\"":10587,"Ġorbit":10588,"Ġsecure":10589,"Ġtemp":10590,"wing":10591,"SV":10592,"agnostics":10593,"ĠToday":10594,"ADD":10595,"FR":10596,"Ġrational":10597,"hire":10598,"Depend":10599,"Ġ\\(\\":10600,"Ġextensive":10601,"METHOD":10602,"1953":10603,"Ġmetrics":10604,"Ġknows":10605,"integ":10606,"Details":10607,"vee":10608,"Ġending":10609,"$),":10610,"Ġclassic":10611,"iner":10612,"owed":10613,"Ġdire":10614,"aton":10615,"Ġtmp":10616,"minipage":10617,"Enumer":10618,"ĠDoug":10619,"ĠLear":10620,"REG":10621,"Ġopts":10622,"sb":10623,"Ġ\"-":10624,"Ret":10625,"Struct":10626,"ĠHay":10627,"agan":10628,"IGHT":10629,"Another":10630,"izon":10631,"Ġplugin":10632,"Ġhelps":10633,"icing":10634,"joint":10635,"Ġfluct":10636,"unny":10637,"Ġstands":10638,"ĠBooks":10639,"unique":10640,"ĠCountry":10641,"Vertex":10642,"Ġcompletion":10643,"ears":10644,"ĠCambridge":10645,"Ġfavour":10646,"iÄĩ":10647,"Ġjustice":10648,"Ġdoctor":10649,"Ġsatisfying":10650,"=\"@":10651,"Ġarts":10652,"errors":10653,"quarters":10654,"ctic":10655,"exec":10656,"pull":10657,"ĠMinnes":10658,"Pay":10659,"generated":10660,"Ġorth":10661,"Ġreligion":10662,"throw":10663,"ĠTok":10664,"ummy":10665,"Ġresulted":10666,"Ġdomestic":10667,"Ġdecisions":10668,"ĠFinal":10669,"mn":10670,"ĠEngineering":10671,"ĠDu":10672,"Ġarrested":10673,"antry":10674,"yard":10675,"intell":10676,"ucial":10677,"ĠPalest":10678,"ĠPerson":10679,"Ġpermission":10680,"ĠLat":10681,"Ġsimultane":10682,"isor":10683,"NV":10684,"ĠLady":10685,"Ġdiscrete":10686,"extern":10687,"ĠRevolution":10688,"\"/></":10689,"ationToken":10690,"imm":10691,"Operator":10692,"Ġpassword":10693,"Ġstatistical":10694,"fol":10695,"Ġcart":10696,"VALUE":10697,"Cam":10698,"oment":10699,"South":10700,"iga":10701,"Ġexecute":10702,"Ġdeploy":10703,"Ġspac":10704,"Children":10705,"orted":10706,"king":10707,"Capt":10708,"................":10709,"ĠWhy":10710,"Ġsac":10711,"Ġscheduled":10712,"peror":10713,"Ġspecify":10714,"engers":10715,"Ġneural":10716,"British":10717,"Ġcommunic":10718,"will":10719,"Ġmountain":10720,"Ġgate":10721,"article":10722,"Ġlegisl":10723,"Ġbodies":10724,"Ġ$|\\":10725,"Ġjet":10726,"outs":10727,"Ġrepresentations":10728,"Library":10729,"Ġexponential":10730,"intellij":10731,"ĠMinnesota":10732,"1951":10733,"sheet":10734,"Ġadvent":10735,"Ġlosing":10736,"flag":10737,"ybrid":10738,"Ġlumin":10739,"Ġproxy":10740,";}":10741,"Ġstorm":10742,"Ġprovince":10743,"bp":10744,"Â°":10745,"resources":10746,"ĠDam":10747,"execute":10748,"Ġvent":10749,"Ġconvex":10750,"FE":10751,"lyn":10752,"Ġproperly":10753,"ĠHas":10754,"library":10755,"ĠProperty":10756,"ĠPhiladelphia":10757,"ĠWel":10758,"Ġultimately":10759,"Ġmoments":10760,"ĠEth":10761,"Ġpractices":10762,"ĠStory":10763,"Pres":10764,"general":10765,"udden":10766,"material":10767,"transition":10768,"akh":10769,"Ġcomputing":10770,"iteral":10771,"Java":10772,"Ġupdates":10773,"ĠAnton":10774,"ĠANY":10775,"à¥":10776,"bourne":10777,"Ġkeeping":10778,"serial":10779,"ĠSanta":10780,"sn":10781,"Ġcab":10782,"Pers":10783,"Ġintegrated":10784,"Ġcloser":10785,"Ġconstitu":10786,"Most":10787,"rout":10788,"('.":10789,"tensor":10790,"Ġbulk":10791,"Ã¡n":10792,"arest":10793,"Ġkick":10794,"Begin":10795,"ĠTy":10796,"Ġofficially":10797,"Ġgreatest":10798,"Ġencounter":10799,"{%":10800,"plicity":10801,"Ġcmd":10802,"Ġnecessarily":10803,"ĠInstead":10804,"Ġdrag":10805,"$&":10806,"ĠPolish":10807,"Ġmusicians":10808,"ĠTurn":10809,"simple":10810,"Ġfaster":10811,"Execut":10812,"Ġstopped":10813,"optional":10814,")}}":10815,"ĠIE":10816,"Ġvess":10817,"ĠConnect":10818,"Ġshares":10819,"onymous":10820,"Ġweapons":10821,"Ġvot":10822,"Basic":10823,"Proto":10824,"Example":10825,"urd":10826,"ulse":10827,"ĠNa":10828,"ĠLOG":10829,"bd":10830,"Ġhomes":10831,"pod":10832,"constr":10833,"ĠNetherlands":10834,"Ġhabit":10835,"ti":10836,"ĠRecord":10837,"Ġappearances":10838,"Ġhosted":10839,"Ġcampus":10840,"uum":10841,"initely":10842,"Ġaccounts":10843,"Ġaren":10844,"ortheast":10845,"ĠRequest":10846,"Mask":10847,"ilbert":10848,"Ġkid":10849,"Ġseparated":10850,"mazing":10851,"Language":10852,"ĠGolden":10853,"selector":10854,"Ġrelax":10855,"ĠBridge":10856,"asm":10857,"ĠLes":10858,"wrapper":10859,"BM":10860,"ĠDC":10861,"Ġabandon":10862,"=\"\">":10863,"Miss":10864,"Ġrelationships":10865,"ĠSab":10866,"arry":10867,"protocol":10868,"Jan":10869,"Ġsculpt":10870,"QU":10871,"resolve":10872,"Ġyounger":10873,"Ġarrang":10874,"specific":10875,"ĠExecutive":10876,"ĠHo":10877,"Ġprops":10878,"Ġcert":10879,"Ġexecuted":10880,"ĠBoolean":10881,"Ġestimation":10882,"Ġcharacteristics":10883,"mathop":10884,"inema":10885,"ĠGuide":10886,"olut":10887,"Ġreset":10888,"ĠRaj":10889,"ĠHttp":10890,"oton":10891,"oses":10892,"Ġinputs":10893,"fx":10894,"jango":10895,"Ġstores":10896,"Ġequality":10897,"Ġconsisting":10898,"Ġnice":10899,"chart":10900,"ERS":10901,"Ġfavorite":10902,"tsd":10903,"Ġguess":10904,"Ġpromote":10905,"Austral":10906,"fixed":10907,"Ġresearchers":10908,"Ġposted":10909,"Ġconsequence":10910,"Day":10911,"sat":10912,"Tube":10913,"pin":10914,"Ġcoefficient":10915,".<":10916,"details":10917,"apsed":10918,"Ġconcerned":10919,"Ġtypedef":10920,"Ġpreced":10921,"ÑģÑĤ":10922,"pur":10923,"ruption":10924,"}}_{\\":10925,"Ġoffering":10926,"Ġmyself":10927,"Ġdisplayed":10928,"wt":10929,"Validation":10930,"Ġfestival":10931,"andy":10932,"1918":10933,"structure":10934,"BL":10935,"ĠTerm":10936,"Ġtargets":10937,"detail":10938,"fc":10939,"Ġlists":10940,"Ljava":10941,"Ġmel":10942,"ĠNick":10943,"ĠRose":10944,"jquery":10945,"Ant":10946,"Ġquadr":10947,"Ġmental":10948,"gies":10949,"ĠInf":10950,"ĠRow":10951,"Ġvideos":10952,"uce":10953,"comes":10954,"','":10955,"Ġsufficiently":10956,"Stats":10957,"Ġresc":10958,"urable":10959,"tags":10960,"Ġindicating":10961,"ĠWisconsin":10962,"ĠSaf":10963,"Ġweekend":10964,"ician":10965,"ĠOntario":10966,"vals":10967,"ordon":10968,"adesh":10969,"Ġcrowd":10970,"Ġanimal":10971,"ĠBru":10972,"Animation":10973,"ĠSon":10974,"ĠStock":10975,"amaz":10976,"Ġrefers":10977,".\");":10978,"3333":10979,"NavBarCell":10980,"ĠSQL":10981,"Ġhotel":10982,"Ġexperiences":10983,"Ġprofession":10984,"001":10985,"Ign":10986,"Ġdecor":10987,"Summary":10988,"ĠGiven":10989,"Ġidentical":10990,"uality":10991,"elect":10992,"Ġnob":10993,"About":10994,"Ġprotein":10995,"Ġseemed":10996,"Ġdenoted":10997,"Ġpromoted":10998,"expand":10999,"TRY":11000,"iations":11001,"$};":11002,"ĠTransport":11003,"ĠBefore":11004,"ellite":11005,"Ġchampion":11006,"))\\":11007,"ika":11008,"ĠThrough":11009,"Ġtheories":11010,"âĢ¢":11011,"Ġinfrastructure":11012,"ubern":11013,"Ġdocumentation":11014,"Ġbreaking":11015,"Ġcaught":11016,"Ġ];":11017,"Bind":11018,"Ġraces":11019,"Ġaid":11020,"Ġsuffered":11021,"Ġcancel":11022,"urches":11023,"have":11024,"job":11025,"Repository":11026,"ĠCR":11027,"Ġinverse":11028,"Ġwins":11029,"ĠMir":11030,"}\\,\\":11031,"Ġarc":11032,"ĠUI":11033,"retch":11034,"Ġbuf":11035,"ĠGer":11036,"putation":11037,"Ġvisited":11038,"ourier":11039,"Native":11040,"ownt":11041,"Ġtaught":11042,")--":11043,"Ġendpoint":11044,"GO":11045,"00000000":11046,"ĠBrad":11047,"Ġforeach":11048,"FN":11049,"Christ":11050,"erior":11051,"ĠIndeed":11052,"blog":11053,"Ġschema":11054,"ĠForest":11055,"Role":11056,"ĠBudd":11057,"checked":11058,"Ġinterior":11059,"Sur":11060,"Ġfounder":11061,"Ġpurchase":11062,"ĠTal":11063,"een":11064,"ĠPlaces":11065,"Ġbow":11066,"ĠNaz":11067,"uating":11068,"Ġabund":11069,"merce":11070,"Ġoccasion":11071,"Ġopposition":11072,"Ġintelligence":11073,"Ġ'\\":11074,"shared":11075,"ĠDeath":11076,"Ġfeeling":11077,"icenses":11078,"ĠLow":11079,"Ġsky":11080,"Shape":11081,"Ġgained":11082,"ĠTurkey":11083,"Ġvolunte":11084,"tfrac":11085,"ĉĠĠĠĠ":11086,"Ġcreates":11087,"asty":11088,"vard":11089,"ĠBit":11090,"Ġprompt":11091,"Ġjourney":11092,"Ġprecision":11093,"GN":11094,"ĠDeb":11095,"Ġwinners":11096,"Ġequilibrium":11097,"Ġdecade":11098,"wiki":11099,"ĠPR":11100,"Ñĩ":11101,"Ġrecru":11102,"130":11103,"acket":11104,"Ġresponsibility":11105,"Ġterritory":11106,"Ġped":11107,"1936":11108,"tle":11109,"Ġadministrative":11110,"ĠGree":11111,"bc":11112,"Ġminute":11113,"Ġbinding":11114,"Ġcarbon":11115,"Ġcas":11116,"Ġmovies":11117,"ĠStandard":11118,"Ġmand":11119,"Ġmoves":11120,"Ġcontrad":11121,"Ġconclusion":11122,"elihood":11123,"Ġlemma":11124,"Ġtight":11125,"video":11126,"Ġmodules":11127,"bmatrix":11128,"ĠMatt":11129,"Ġment":11130,"ĠForeign":11131,"Ġdebate":11132,"erence":11133,"ĠSource":11134,"Environment":11135,"Ã©e":11136,"700":11137,"Ġdoct":11138,"Posted":11139,"Ġtested":11140,"ĠCurrent":11141,"weg":11142,"news":11143,"%.":11144,"Ġlowest":11145,"Pair":11146,"cha":11147,"Ġwa":11148,"uning":11149,"clean":11150,"lf":11151,"ĠCommunic":11152,"Ġscenes":11153,"Ġschedule":11154,"ĠLev":11155,"ĠVideo":11156,"NET":11157,"Ġvice":11158,"Ġmort":11159,"ĠCost":11160,"regon":11161,"bean":11162,"Ġseats":11163,"ĠColorado":11164,"Bal":11165,"jan":11166,"ivals":11167,"Ġfeedback":11168,"plom":11169,"ighth":11170,"plan":11171,"publ":11172,"Ġsustain":11173,"Ġing":11174,"edding":11175,"Ġinstitution":11176,"Enter":11177,"Ġsatisfied":11178,"elem":11179,"Ġrgba":11180,"Ġcircuit":11181,"runtime":11182,"hbox":11183,"Ġdependent":11184,"ski":11185,"^*$":11186,">()":11187,"=\"\"":11188,"ĠLtd":11189,"season":11190,"ĠReact":11191,"Sequence":11192,"ĠKansas":11193,"Ġexperienced":11194,"&=&":11195,"Ã¸":11196,"islation":11197,"oving":11198,"Ġeasier":11199,"iversary":11200,"enses":11201,"Ġnavigation":11202,"Ġadmin":11203,"Ġsql":11204,"Ġcolour":11205,"rank":11206,"mix":11207,"ĠGallery":11208,"enna":11209,"Ġpun":11210,"brace":11211,"FORM":11212,"ĠPlease":11213,"ĠBol":11214,"Ġtemperatures":11215,"Ġmarkets":11216,"Ġexpat":11217,"ï»":11218,"Ġlogic":11219,"Ġhorse":11220,"ceive":11221,"Ġcontest":11222,"ĠLewis":11223,"ugs":11224,"Ġpersons":11225,"ĠDor":11226,"Ġpractical":11227,"trace":11228,"/(":11229,"Ġstanding":11230,"ĠChen":11231,"Ġguy":11232,"ulner":11233,"Wait":11234,"jet":11235,"Join":11236,"Why":11237,"Ġwing":11238,"ĉĉĉĉĉĉĉĉĉ":11239,"Stop":11240,"Ġopposed":11241,"Ġtwenty":11242,"Ġhearing":11243,"Ġmarg":11244,"Ġguest":11245,"Ġinfer":11246,"Ġabuse":11247,"Ġdefeat":11248,"sym":11249,"Ġconsumer":11250,"rell":11251,"inos":11252,"1938":11253,"ĠInput":11254,"vol":11255,"DM":11256,"ickets":11257,"Ġhelping":11258,"urst":11259,"Ġcapable":11260,"ubb":11261,"Ġdepos":11262,"Ġexpressions":11263,"endor":11264,"Ġswe":11265,"ï»¿":11266,"ĠØ":11267,"ĠGrant":11268,"ĠDir":11269,"agen":11270,"Ġstone":11271,"ĠTai":11272,"Ġdefines":11273,"Ġmultip":11274,"EP":11275,"ĠAssoci":11276,"Ġexcellent":11277,"iliar":11278,"Ġwww":11279,"Ġannounce":11280,"cest":11281,"external":11282,"ĠUnit":11283,"Ġcovering":11284,"ĠBOOST":11285,"International":11286,"ĠStaff":11287,"Ġintent":11288,"$:":11289,"Following":11290,"Ġprices":11291,"Ġcomfort":11292,"Ġindices":11293,"lia":11294,"ycl":11295,"Ġassumptions":11296,"eties":11297,"Ġessentially":11298,"Ġcriteria":11299,"_-":11300,"Ġsending":11301,"Ġclinical":11302,"wp":11303,"Ġ[\"":11304,"\\}$.":11305,"ĠQueens":11306,"Ġabsence":11307,"regular":11308,"Ġsentence":11309,"oor":11310,"Fn":11311,"ĠassertThat":11312,"rog":11313,"Ġhall":11314,"Ġsomewhat":11315,"****************************************************************":11316,"Ġwat":11317,"CG":11318,"ĠFood":11319,"accept":11320,",{\\":11321,"signature":11322,"[-":11323,"tenance":11324,"orient":11325,"utenant":11326,"Mill":11327,"ĠXML":11328,"ĠAffairs":11329,"Ġproto":11330,"Ben":11331,"agues":11332,"observ":11333,"Texture":11334,"Cr":11335,"Coll":11336,"Ġprogramme":11337,"relation":11338,"iem":11339,"relations":11340,"Ġpapers":11341,"destroy":11342,"Ġspend":11343,"izz":11344,"cow":11345,"Methods":11346,"ĠSearch":11347,"]$.":11348,"REQ":11349,"Ġnotable":11350,"ĠIndones":11351,"ĠMoh":11352,"pare":11353,"elle":11354,"Interval":11355,"Ġpurchased":11356,"trim":11357,"ĠDuke":11358,"scribe":11359,"required":11360,"Ġdocumentary":11361,"icator":11362,"ibration":11363,"scious":11364,"prob":11365,"ĠCart":11366,"ĠStadium":11367,"Password":11368,"NamedCell":11369,"Ġphotos":11370,"plates":11371,"driver":11372,"Ġcustomer":11373,"Dictionary":11374,"Lower":11375,"Ġstrategies":11376,"Ġmunicipality":11377,"Ġversus":11378,"ãĢ":11379,"Ġ^{":11380,"constructor":11381,"Ġbind":11382,"Ġban":11383,"}})":11384,"Ġevening":11385,"dfrac":11386,"}[\\":11387,"Ġmaxim":11388,"Ġ\"<":11389,"Family":11390,"ĠFord":11391,"Ġimmediate":11392,"Ġpredictions":11393,"ĠAtlantic":11394,"aron":11395,"lu":11396,"ses":11397,"Ġtradition":11398,"Ġcodes":11399,"Ġpref":11400,"ĠSav":11401,"HC":11402,"GroupName":11403,"ĠTony":11404,"edu":11405,"ĠCas":11406,"Ġscholar":11407,"Ġuniversal":11408,"Ġmes":11409,"iley":11410,"CALL":11411,"Ġenhance":11412,"sem":11413,"Stand":11414,"Ġles":11415,"elastic":11416,"Bean":11417,"ĠPut":11418,"ĠASSERT":11419,"tk":11420,"Ġgraduated":11421,"Ġinteract":11422,"Ġimprovement":11423,"Ġcatalog":11424,"Ġfluid":11425,"report":11426,"ierarchy":11427,"eros":11428,"napshot":11429,"$/":11430,"Ġpriority":11431,"Ġdelivered":11432,"Ġopacity":11433,"ifest":11434,"_);":11435,"ĠHarry":11436,"iti":11437,"adi":11438,"Observ":11439,"plane":11440,"arios":11441,"Ġuniverse":11442,"Ġmarketing":11443,"ourse":11444,"COMP":11445,"ceptions":11446,"secutive":11447,"Ġadvice":11448,"ĠAdministration":11449,"ĠOt":11450,"Ġcolors":11451,"ĠRight":11452,"ĠSweden":11453,"ĠFOR":11454,"Ġmixing":11455,"aks":11456,"Ġdemonstrate":11457,"Ġast":11458,"Ġvalign":11459,"Import":11460,"Ġpasses":11461,"inction":11462,"itational":11463,"Ġruntime":11464,"ĠProt":11465,"Ġbought":11466,"Ġwinter":11467,"Phys":11468,"Constructor":11469,"ĠDark":11470,"ĠNever":11471,"Ġgenerator":11472,"uma":11473,"Ġchapter":11474,"Polit":11475,"bg":11476,"Ġdebug":11477,"ĠIss":11478,"ĠAnderson":11479,"FilterDatabase":11480,"1937":11481,"proxy":11482,"ĠHou":11483,"supported":11484,"hedral":11485,"Required":11486,"Ġprecisely":11487,"Ġhits":11488,"Flag":11489,"=\"${":11490,"Ġsaved":11491,"Ġexcess":11492,"Ġinterpretation":11493,"Ġskin":11494,"Ġwouldn":11495,"Ð¼":11496,"ĠPrinc":11497,"Ġlogger":11498,"105":11499,"Black":11500,"ĠMemorial":11501,"ĠNAS":11502,"ĠMiller":11503,"Ġcryst":11504,"Given":11505,"Ġresistance":11506,"Notification":11507,"Ġintensity":11508,"Ġportray":11509,"provider":11510,"AE":11511,"offs":11512,"Ġyards":11513,"ĠMountain":11514,"mouse":11515,"INTER":11516,"Ġkilling":11517,"Ġsurg":11518,"separ":11519,"TestCase":11520,"theless":11521,"Ġcub":11522,"Ġdecomposition":11523,"Ġspeaking":11524,"Condition":11525,"Ġchoices":11526,"Newton":11527,"Ġtruly":11528,"ĠDeep":11529,"Ġadjacent":11530,"cers":11531,"Ġdimensional":11532,"ailability":11533,"ĠPremier":11534,"Ġworldwide":11535,"Ġcompre":11536,"develop":11537,",...":11538,"Ġaf":11539,"Watch":11540,"async":11541,"Ġcollaboration":11542,"reens":11543,"Ġsole":11544,"Ġscores":11545,"ĠChange":11546,"ĠMedicine":11547,"Ġfaculty":11548,"ĠHal":11549,"Ġparliament":11550,"Visible":11551,"Ġfake":11552,"apl":11553,"Ġhumans":11554,"ania":11555,"mk":11556,"icular":11557,"Ġsigns":11558,"users":11559,"arguments":11560,"ĠApache":11561,"Batch":11562,"checkbox":11563,"Cloud":11564,"ĠIndiana":11565,"Ġreadonly":11566,"Ġiron":11567,"comb":11568,"dash":11569,"EST":11570,"Real":11571,"Constraint":11572,"rev":11573,"dc":11574,"ĠAmb":11575,"ĠNorm":11576,"Ġroughly":11577,"Ġoperate":11578,"Ġacid":11579,"ĠAh":11580,"Oct":11581,"square":11582,"atomic":11583,"ĠIns":11584,"Star":11585,"ennessee":11586,"Ġstyles":11587,"ĠHart":11588,".\",":11589,"Mouse":11590,"Ġcommut":11591,"ĠSurvey":11592,"ĠEric":11593,"ĠVi":11594,"Ġpropose":11595,"ĠJacob":11596,"ĠON":11597,"Ġdelivery":11598,"ĠPot":11599,"ĠArizona":11600,"isode":11601,"ĠCab":11602,"ĠNFL":11603,"Ġentropy":11604,"ĠDNA":11605,"ĠNative":11606,"ĠSC":11607,"Ġfails":11608,"esides":11609,"}}.":11610,"ĠSingapore":11611,"ples":11612,"Failure":11613,"constant":11614,"emet":11615,"ĠAud":11616,"ĠBrian":11617,"yy":11618,"Ġtags":11619,"connected":11620,"Ġ'';":11621,"Ġferm":11622,"ĠDa":11623,"ĠLeon":11624,"pload":11625,"ĠSI":11626,"aturally":11627,"irms":11628,"Ġdemonstrated":11629,"Ġbringing":11630,"Ġworst":11631,"Ġwalls":11632,"ĠHollywood":11633,"resize":11634,"Ġcontribute":11635,"seq":11636,"Ġrenew":11637,"ropolitan":11638,"@{":11639,"etal":11640,"MODE":11641,"pub":11642,"ĠEP":11643,"Ġentertain":11644,"Ġproposal":11645,"Ġfiled":11646,"ĠIT":11647,"Once":11648,"Ġhouseholds":11649,"ĠRoll":11650,"views":11651,"Ġmanage":11652,"Ġstages":11653,"icide":11654,"Ġparticipated":11655,"ryption":11656,"Ġdiscovery":11657,"Ġneither":11658,"ĠExample":11659,"ĠOfficer":11660,"Ġpotentially":11661,"\\/":11662,"ĠWinter":11663,"ipped":11664,"ĠFac":11665,"Ġdoubt":11666,"nobr":11667,"DateTime":11668,"]$,":11669,"Ãº":11670,"Ĥ¬":11671,"Span":11672,"longrightarrow":11673,"1900":11674,"feature":11675,"Ġproducing":11676,"uble":11677,"sr":11678,"series":11679,"angers":11680,"Ġgene":11681,",\\\\":11682,"@\"":11683,"Ġ''":11684,"SW":11685,"Ġcru":11686,"istogram":11687,"roit":11688,"Ġtrivial":11689,"DEF":11690,"igate":11691,"plementation":11692,"Ġderivative":11693,"DIS":11694,"Ġcash":11695,"acher":11696,"good":11697,"Release":11698,"Ġbtn":11699,"Ġdiver":11700,"construct":11701,"Ġyellow":11702,"emptyset":11703,"FP":11704,"Ġlegend":11705,"wik":11706,"Private":11707,"Ġveter":11708,"|}{":11709,"built":11710,"ĠTerr":11711,"Tx":11712,"fghan":11713,"Ġaccompl":11714,"ĠCaptain":11715,"itempty":11716,"rence":11717,"Ġpercentage":11718,"Program":11719,"fortunately":11720,"umps":11721,"Ġdry":11722,"ĠMilitary":11723,"Ġcanonical":11724,"imits":11725,"=.":11726,"Ġlect":11727,"ĠJordan":11728,"omitempty":11729,"igenous":11730,"notations":11731,"ptic":11732,"clone":11733,"Ġhandling":11734,"ĠIslamic":11735,"ĠCloud":11736,"Ġ{\"":11737,"Aug":11738,"Ġsensitive":11739,"Personal":11740,"ordinate":11741,"Area":11742,"kt":11743,"']['":11744,"Ġmunicipal":11745,"Please":11746,"Association":11747,"Ġmouse":11748,"ĠSets":11749,"animation":11750,"Ġpixel":11751,"kish":11752,"Ġsevent":11753,"Ġlimitations":11754,"Ġlose":11755,"ĠDead":11756,"ĠAppendix":11757,"prec":11758,"ORY":11759,"!\"":11760,"Ġunderstood":11761,"anga":11762,"1919":11763,"services":11764,"Ġadult":11765,":[":11766,"href":11767,"compare":11768,"Ġevaluated":11769,"DEFAULT":11770,"themes":11771,"Ġreasonable":11772,"Final":11773,"Zone":11774,"Publ":11775,"![":11776,"Ġscoring":11777,"ĠTer":11778,"ĠSeason":11779,"ĠFROM":11780,"ĠOcean":11781,"oust":11782,"Ep":11783,"()))":11784,"Ġfragment":11785,"ĠFront":11786,"route":11787,"ĠRetrieved":11788,"about":11789,"irth":11790,"east":11791,"Ġdriven":11792,"ĠSky":11793,"lower":11794,"tiny":11795,"ĠBishop":11796,"anny":11797,"Ġconcentration":11798,"ĠPhilippines":11799,"Ġcursor":11800,"Ġpainting":11801,"Labels":11802,"bigl":11803,"\"},":11804,"iÃ³n":11805,"ĠSimon":11806,"Ġranked":11807,"ĠFull":11808,"Also":11809,"ĠBuilding":11810,"radio":11811,"chant":11812,"Ġcreative":11813,"Ġmodify":11814,"Ġhypothesis":11815,"uties":11816,"ĠRoss":11817,"Ġdisp":11818,"ĠConstitution":11819,";\\;\\":11820,"ĠBatt":11821,"ĠFA":11822,"Ġiteration":11823,"BIT":11824,"ĠMagazine":11825,"Ġtx":11826,"Ġdrugs":11827,"Ġaddresses":11828,"ibilities":11829,"ĠWIT":11830,"ĠGR":11831,"Every":11832,"Ġdisappe":11833,"Ġcompeted":11834,"olving":11835,"havior":11836,"Driver":11837,"}_{-":11838,"ando":11839,"})}":11840,"ĠMissouri":11841,"Returns":11842,"Word":11843,"ĠWrite":11844,"ĠPC":11845,"establ":11846,"\\;":11847,"ANT":11848,"tests":11849,"shop":11850,"Ġcomplement":11851,"Ġbos":11852,"policy":11853,"ĠLook":11854,"Ġcausing":11855,"ĠCulture":11856,"Her":11857,"Ġris":11858,"Ġrejected":11859,"VALID":11860,"Ġindependence":11861,"Ġnotion":11862,"ĠModern":11863,"Ġexplanation":11864,"vo":11865,"WORD":11866,"Ġdense":11867,"ĠLoad":11868,"ĠAthlet":11869,"Ġexcited":11870,"agent":11871,"1917":11872,"ĠPA":11873,"UC":11874,"Ġinvolves":11875,"ĠMO":11876,"ju":11877,"phase":11878,"batch":11879,"Ġsharing":11880,"don":11881,"Ġshooting":11882,"bigr":11883,"ante":11884,"iami":11885,"ĠFind":11886,"ĠRemove":11887,"ĠRyan":11888,"Ġloan":11889,"Ġupload":11890,"rypto":11891,"assertTrue":11892,"former":11893,"1933":11894,"ĠSher":11895,"bras":11896,"lass":11897,"coln":11898,"aza":11899,"Ã©s":11900,"Ġ\"$":11901,"Ġwhatever":11902,"Ġpresidential":11903,"Ġextreme":11904,"Strategy":11905,"åı":11906,"1935":11907,"hensive":11908,"username":11909,"ÙĦ":11910,"ĠHoly":11911,"ĠFall":11912,"Ġreceiver":11913,"Ġplate":11914,"ques":11915,"tf":11916,"ĠCond":11917,"Where":11918,"Ġvalidate":11919,"ĠDigital":11920,"cross":11921,"Ġcombat":11922,"ĠNAME":11923,"Ġlay":11924,"ĠLanguage":11925,"Ġflu":11926,"Help":11927,"Ġmanip":11928,"Ġyourself":11929,"Ġrent":11930,"quote":11931,"Ġsudden":11932,"uable":11933,"ĠOregon":11934,"Ġdiagn":11935,"omy":11936,"127":11937,"country":11938,"Ġdefinitions":11939,"ĠArthur":11940,"through":11941,"Ġassets":11942,"ĠMit":11943,"sequently":11944,"yers":11945,"ĠĠĠĠĠĠĠĠĠĠĠĠĠĠĠĠĠĠĠĠĠĠĠĠĠĠĠĠĠĠ":11946,"1914":11947,"Based":11948,"Ġfaces":11949,"Ġcorrectly":11950,"Ġgenerating":11951,"Ġgovernor":11952,"rupted":11953,"DEBUG":11954,"Ġteen":11955,"objects":11956,"David":11957,"Ġhorizontal":11958,"ĠSound":11959,"ochastic":11960,"factory":11961,"Ġdecrease":11962,"Ġlift":11963,"osed":11964,"Normal":11965,"Ġlegislation":11966,"Ġrespective":11967,"Shared":11968,"PUT":11969,"Tax":11970,"Ġtitled":11971,"Ġquantity":11972,"rep":11973,"assets":11974,"Ġsounds":11975,"gi":11976,"there":11977,"Ġaccused":11978,"ĠJoh":11979,"Binary":11980,"Ġfly":11981,"emetery":11982,"Ġdates":11983,"Ġinsurance":11984,"ĠSwedish":11985,"Ġscientists":11986,"owski":11987,"Ġrecommended":11988,"elson":11989,"Ġgravity":11990,"standard":11991,"Ġrevolution":11992,"commit":11993,"Ġeducational":11994,"SSL":11995,"Ġembedding":11996,"ailing":11997,"sig":11998,"ĠPier":11999,"Ġ=====":12000,"Ġexhibition":12001,"Ġdecide":12002,"Proof":12003,"Ġstrike":12004,"cohol":12005,"Ġpray":12006,"Promise":12007,"Ġreverse":12008,"DATA":12009,"Ġreaders":12010,"oking":12011,"Cent":12012,"Ġthin":12013,"flat":12014,"Ġroots":12015,"ĠAndroid":12016,"ubernetes":12017,"Ġbroke":12018,"Edge":12019,"negative":12020,"$_{":12021,"Renderer":12022,"Ġmo":12023,"rik":12024,"Ġ{},":12025,"emony":12026,"ĠJam":12027,"np":12028,"ĠPit":12029,"Ġproduces":12030,"!<":12031,"ĠPay":12032,"counter":12033,"Ġvictims":12034,"who":12035,"Ġmaximal":12036,"BY":12037,"was":12038,"Ġwatching":12039,"ahoma":12040,"Ġcomposer":12041,"Ġbrings":12042,"Ġconsecutive":12043,"Analysis":12044,"Groups":12045,"Ġexposure":12046,"ĠBush":12047,"Ġhundreds":12048,"aval":12049,"Ġimpossible":12050,"Ġdrivers":12051,".âĢĻ":12052,"ĠMalays":12053,"ĠIsraeli":12054,"cludes":12055,"Ġsubgroup":12056,"Ġalert":12057,"uris":12058,"alion":12059,"Game":12060,"Ġpresents":12061,"Ids":12062,"ĠCore":12063,"aired":12064,"Ġpoet":12065,"Ġspr":12066,"aze":12067,"Ġlyr":12068,"Ġfindings":12069,"Ġcompliance":12070,"ĠEntertainment":12071,"ELD":12072,"ureau":12073,"Ġter":12074,"avelength":12075,"Ġnp":12076,"Ġdx":12077,"Ġstead":12078,"ĠWhere":12079,"contain":12080,"functions":12081,"ĠHan":12082,"amazon":12083,"Ġcompens":12084,"Ġemphas":12085,"Ġwrites":12086,"Ġpermanent":12087,"icians":12088,"ĠLind":12089,"mathit":12090,"UES":12091,"ellect":12092,"Ġsin":12093,"Ġexplos":12094,"pend":12095,"Focus":12096,"redu":12097,"Convert":12098,"Ġderive":12099,"Ġà¤":12100,"ĠFuture":12101,"Ġnovels":12102,"wegian":12103,"uy":12104,"defer":12105,"Women":12106,"abbr":12107,"enez":12108,"Ġreplacement":12109,"Ġtack":12110,"Ġton":12111,"ĠCastle":12112,"ĠUkraine":12113,"Ð¾Ð²":12114,"ĠStatus":12115,"ĠSche":12116,"Ġsymbols":12117,"ĠRegional":12118,"}}}\\":12119,"ĠKal":12120,"helper":12121,"Mapper":12122,"Ġsought":12123,"tection":12124,"Ġjournalist":12125,"ymmetry":12126,"oven":12127,"Ġflows":12128,"Ġdiagonal":12129,"Ġvirt":12130,"angel":12131,"bus":12132,"ArgumentException":12133,"complex":12134,"Ġpiano":12135,"ðŁ":12136,"ĠBox":12137,"ĠMaria":12138,"RESULT":12139,"Ġfacilit":12140,"ospit":12141,"LY":12142,"1929":12143,"vature":12144,"Ġconn":12145,"Ġvo":12146,"Ġmanifold":12147,"Ax":12148,"Ġappeal":12149,"basic":12150,"'];":12151,"Ġmoder":12152,"ĠCzech":12153,"ĠTag":12154,"Ġsubjects":12155,"memory":12156,"Ġapplies":12157,"Ġdetector":12158,"written":12159,"Ġdirections":12160,"Ġpipeline":12161,"efe":12162,"rift":12163,"Ġincreasingly":12164,"Ġ\\]":12165,"ĠLabour":12166,"Player":12167,"Ġboundaries":12168,"acon":12169,"Ġmit":12170,"Ġwrest":12171,"})=":12172,"wick":12173,"#{":12174,"Move":12175,"isition":12176,"apis":12177,"figures":12178,"Ġaccum":12179,"ĠGh":12180,"esome":12181,"Ġintermediate":12182,"setup":12183,"ĠVietnam":12184,"_)":12185,"Ġbriefly":12186,"ĠSquare":12187,"ĠOS":12188,"parts":12189,"Ġagencies":12190,"ea":12191,"ĠSV":12192,"('/":12193,"ĠAgency":12194,"ĠOptional":12195,"ucks":12196,"Ġqualified":12197,"ANCE":12198,"Ġroyal":12199,"osl":12200,"flex":12201,"usal":12202,"ĠDream":12203,"1934":12204,"Ġliquid":12205,"Ġteachers":12206,"Win":12207,"anches":12208,"CONT":12209,"aware":12210,"variable":12211,"Ġconstitution":12212,"Ġworker":12213,"Ð´":12214,"MIN":12215,"eron":12216,"?>":12217,"oa":12218,"Ġmerge":12219,"PG":12220,"ĠSH":12221,"Ġnormalized":12222,"omm":12223,"horizontal":12224,"perm":12225,"MODULE":12226,"Ġtowns":12227,"visible":12228,"Ġspher":12229,"nie":12230,"Ġconservation":12231,"ĠRegiment":12232,"Ġelectro":12233,"algebra":12234,"Ġpayment":12235,"Ġwindows":12236,"Ġvariance":12237,"itories":12238,"Ġmob":12239,"ĠRoy":12240,"lat":12241,"Ġpatch":12242,"uction":12243,"Ġmatters":12244,"Ġbelongs":12245,"ĠWatch":12246,"('#":12247,"Î±":12248,"stitut":12249,"Ms":12250,"Ġtheatre":12251,"ĠKat":12252,"ensities":12253,"slash":12254,"ortion":12255,"Mich":12256,"Ġprivacy":12257,"Ġattempted":12258,"Ġengineer":12259,"socket":12260,"ships":12261,"Ġrefused":12262,"trivial":12263,"Ġignored":12264,"Ġpossess":12265,"Ġassuming":12266,"Ġrestricted":12267,"Ġaccord":12268,"Db":12269,"Ġchecked":12270,"ĠVector":12271,"lights":12272,"Generated":12273,"vironments":12274,"Ġorb":12275,"Ġcopyright":12276,"icious":12277,"Ġinh":12278,"ĠClient":12279,"Ġdistricts":12280,"Mc":12281,"Ġvocal":12282,"uther":12283,"aire":12284,"Consider":12285,"nol":12286,"ulus":12287,"release":12288,"sync":12289,"duration":12290,"Ġvacc":12291,"compiler":12292,"ĠSever":12293,"ibliography":12294,"Ġconform":12295,"ropic":12296,"Ġaffili":12297,"Ġdismiss":12298,"Should":12299,"Ġperiods":12300,"you":12301,"1932":12302,"Ġ\"\",":12303,"ĠHop":12304,"idal":12305,"Ġlit":12306,"Ġchose":12307,"inherit":12308,"wd":12309,"Ġdeform":12310,"ĠVari":12311,"olutely":12312,"ASSERT":12313,"Life":12314,":`":12315,"Ġentitled":12316,"Like":12317,"Ġpublish":12318,"bat":12319,"ĠArrayList":12320,"origin":12321,"Ġcontributed":12322,"ĠMaryland":12323,"asma":12324,"ĠDisney":12325,"115":12326,"ĠMexican":12327,"Sources":12328,"Ġ\\\"":12329,"Ġworse":12330,"ĠProp":12331,"Ġcrucial":12332,"springframework":12333,"Ġfranch":12334,"Ġargued":12335,"OF":12336,"${\\":12337,"quant":12338,"Make":12339,"assembly":12340,"ĠVice":12341,"console":12342,"ĠBor":12343,"cfg":12344,"validate":12345,"Ġgoods":12346,"mf":12347,"Ġpilot":12348,",'":12349,"Ġheavily":12350,"ĠBat":12351,"Ġassault":12352,"porter":12353,"gov":12354,"hd":12355,"Mr":12356,"Ġreaching":12357,"POST":12358,"iota":12359,"ONG":12360,"Ġtemporary":12361,"posing":12362,"ĠPO":12363,"ĠNorway":12364,"Ġsnap":12365,"maps":12366,"gebras":12367,"Constant":12368,"uffers":12369,"ĠOnline":12370,"Ġ\"%":12371,"cline":12372,"ĠSenior":12373,"UK":12374,"hus":12375,"1910":12376,"ĠTennessee":12377,"Compiler":12378,"ativity":12379,"Ġretail":12380,"burn":12381,"Ġdominant":12382,"\\|\\":12383,"dam":12384,"ĠJane":12385,"140":12386,"may":12387,"Nullable":12388,"Ġ_.":12389,"folio":12390,"ĠKhan":12391,"ĠIL":12392,"ĠBan":12393,"ĠAmong":12394,"Ġcorporate":12395,"ĠMoon":12396,"scss":12397,"Ġreporting":12398,"Ġseeking":12399,"Ġhide":12400,"1928":12401,"Ġdiverse":12402,"})^":12403,"enny":12404,"ĠPhilip":12405,"Ġbanks":12406,"ĠReb":12407,"Ġrecovery":12408,"ĠDOM":12409,"Drop":12410,"Ġthrown":12411,"verter":12412,"Ġsuit":12413,".\"\"\"":12414,"________":12415,"loom":12416,"Ġcoupled":12417,"ajax":12418,"Ġanom":12419,"tikzpicture":12420,"ĠManchester":12421,"Ġrend":12422,"UST":12423,"getElement":12424,"ĠMedal":12425,"witzer":12426,"GLE":12427,"Ġpointed":12428,"Ġsync":12429,"Same":12430,"Ġenemy":12431,"Ġurg":12432,"Ġturb":12433,"ĠLeb":12434,"111":12435,"allest":12436,"ĠStream":12437,"ATCH":12438,"Ġclip":12439,"Ġnullptr":12440,"getValue":12441,"Ġrenamed":12442,"Ġexercise":12443,"Ġorientation":12444,"leton":12445,"away":12446,"Ð°Ð½":12447,"kh":12448,"ĠSix":12449,"Ġrefuge":12450,"Ġphoton":12451,"Ġfemales":12452,"Ġspending":12453,"Phone":12454,"oli":12455,"Apr":12456,"ois":12457,"Well":12458,"strings":12459,"Ġfaced":12460,"feed":12461,"fred":12462,"wich":12463,"convert":12464,"Ġloved":12465,"Ġtables":12466,"issip":12467,"ĠHotel":12468,"Xi":12469,"ĠPhot":12470,"coq":12471,"Lemma":12472,"+(":12473,"ĠStone":12474,"Ġtrib":12475,"Ġsoci":12476,"Tele":12477,"??":12478,"Ġhero":12479,"Ġrequirement":12480,"Ġbond":12481,"Ġimpress":12482,"Ġmolecular":12483,"Ġseparation":12484,"multirow":12485,"Ġchairman":12486,"Ġcompatible":12487,"ologists":12488,"maven":12489,"esis":12490,"Ġracing":12491,"Ġpacket":12492,"covery":12493,"INSERT":12494,"ounded":12495,"Ġcraft":12496,"Ġscr":12497,"Ġours":12498,"ĠConsider":12499,"ĠBrig":12500,"Ġcosm":12501,"instein":12502,"Ġassistance":12503,"Ġreads":12504,"Effect":12505,"ĠBurn":12506,"owntown":12507,"Ġenergies":12508,"ĠPos":12509,"Ġresponses":12510,"Serv":12511,"ĠMun":12512,"__)":12513,"ĠFederation":12514,"zip":12515,"Ġ=========":12516,"Ġrevenue":12517,"utr":12518,"ista":12519,"Bel":12520,"door":12521,"ĠPlace":12522,"ĠBaron":12523,">'":12524,"Ġadds":12525,"}))":12526,"ĠHeart":12527,"Ġacknowled":12528,"elements":12529,"Ġdesignated":12530,"Ġdiplom":12531,"ĠEu":12532,"Ġboys":12533,"iph":12534,"achelor":12535,"program":12536,"ĠZend":12537,"}$}":12538,"notag":12539,"Ġamazing":12540,"inian":12541,"Ġparticipate":12542,"Ġparish":12543,"Unknown":12544,"columnwidth":12545,"aco":12546,"ĠTel":12547,"Ġ\\,\\":12548,"Ġfee":12549,"ĠSto":12550,"western":12551,"Ġextensions":12552,"Ġkil":12553,"Ġquantities":12554,"Den":12555,"ĠColon":12556,"Li":12557,"112":12558,"North":12559,"Ġapproximate":12560,"Dig":12561,"ĠCru":12562,"ĠUl":12563,"Ġreward":12564,"Ġradial":12565,"textcolor":12566,"Ġongoing":12567,"Ġfoundation":12568,"ĠMean":12569,"ARD":12570,"Ġhardware":12571,"witzerland":12572,"ogether":12573,"Ġdebt":12574,"ĠDue":12575,"ĠMarc":12576,"spirit":12577,"rig":12578,"Ġtriple":12579,"1931":12580,"ĠMrs":12581,"\"\"\"":12582,"Ġfat":12583,"Ġtalks":12584,"Inner":12585,"ĠÂ·":12586,"Ġnonlinear":12587,"Ġafford":12588,"dk":12589,"Ġsees":12590,"flu":12591,"Ġtechnologies":12592,"tah":12593,"Ġimply":12594,"ĠDiego":12595,"ĠKevin":12596,"Ġvulner":12597,"ĠAfghan":12598,"alias":12599,"println":12600,"Ġkin":12601,"deep":12602,"agrang":12603,"isEmpty":12604,"ĠEs":12605,"ĠArticle":12606,"Ġairport":12607,"Ġpixels":12608,"Ġexpensive":12609,"Ġthir":12610,"vart":12611,"abama":12612,"Ġjoining":12613,"Ġfacts":12614,"Cur":12615,"Ġillegal":12616,"Ġmile":12617,"Ġexposed":12618,"Execution":12619,"sidebar":12620,"ĠGreece":12621,"Old":12622,"ĠFix":12623,"GER":12624,"odge":12625,"ativ":12626,"ĠServer":12627,"Ġspoke":12628,"lot":12629,"ĠBalt":12630,"=[":12631,"Est":12632,"ĠSerb":12633,"Addr":12634,"CHAR":12635,"audi":12636,"Raw":12637,"ATED":12638,"Ġwilling":12639,"ĠGib":12640,"Ġimplicit":12641,"Ġcircumstances":12642,"overty":12643,"disable":12644,"(\"/":12645,"Ġ\\&":12646,"mean":12647,"ĠIowa":12648,"Ġmaintained":12649,"quir":12650,"ĠOperation":12651,"loss":12652,"Ġvast":12653,"ĠClark":12654,"ĠLegisl":12655,"Ġpreferred":12656,"ĠML":12657,"spin":12658,"Ġvariations":12659,"Mount":12660,"Ġinternet":12661,"Plan":12662,"incess":12663,"Ġaccommod":12664,"Ġemergency":12665,"Ġtower":12666,"Ġsevere":12667,"ĠAP":12668,"izers":12669,"Ġlawyer":12670,"1924":12671,"LOW":12672,"ambig":12673,"ĠKa":12674,"Ġasymptotic":12675,"Ġcrash":12676,"Ġconventional":12677,"ĠBab":12678,"available":12679,"via":12680,"profit":12681,"Ġfewer":12682,"warning":12683,"Arr":12684,"etary":12685,"Ġgod":12686,"Ġbrothers":12687,"Ġcompilation":12688,"Ġ}{":12689,"stan":12690,"Ġownership":12691,"Ġmouth":12692,"}}^{\\":12693,"Binding":12694,"ĠLib":12695,"Ġsuppose":12696,"Ġputting":12697,"Previous":12698,"Ġquark":12699,"Insert":12700,"French":12701,"Save":12702,"lad":12703,"Ġhybrid":12704,"ĠTa":12705,"Ġpresentation":12706,"Alloc":12707,"Hence":12708,"python":12709,"NP":12710,"Ġresolved":12711,"compile":12712,"Ġpopulations":12713,"Ġschol":12714,"ĠAllen":12715,"Ġinstruction":12716,"Ġidentification":12717,"Ġstronger":12718,"states":12719,"inch":12720,"qq":12721,"Ġfamiliar":12722,"Ġgeneralized":12723,"\\}$,":12724,"slant":12725,"closure":12726,"iii":12727,"Ġoutcome":12728,"requency":12729,"endment":12730,"Ġdefinitely":12731,"bounds":12732,"allas":12733,"Ġwidget":12734,"Ġrugby":12735,"tl":12736,"agu":12737,"German":12738,"Ġplatforms":12739,"1922":12740,"login":12741,"Ġpermissions":12742,"Ġtopological":12743,"ĠLiter":12744,"Email":12745,"Ġlosses":12746,"zy":12747,"Identity":12748,"Ġdominated":12749,"UND":12750,"ĠHAL":12751,"Ġease":12752,"Ġselling":12753,"anchor":12754,"ĠScient":12755,"Ġswim":12756,"ĠResponse":12757,"LOC":12758,"integer":12759,"Ġidentifier":12760,"\"],":12761,"Ġmembership":12762,")}_":12763,"asts":12764,"Ġbid":12765,"facebook":12766,"Pred":12767,"omot":12768,"ĠMoscow":12769,"ĠContin":12770,"Pal":12771,")&":12772,"Complete":12773,"olid":12774,"ĠDun":12775,"Rate":12776,"1927":12777,"Ġbron":12778,"tbody":12779,"ĠGram":12780,"Ġdangerous":12781,"Ġappearing":12782,"Ġfolk":12783,"Ġexpatriate":12784,"collapse":12785,"Ġrestaurant":12786,"ĠHy":12787,"Ġpassion":12788,"Ġstreets":12789,"stage":12790,"ĠSite":12791,"Admin":12792,"represent":12793,"Ġfrag":12794,"clip":12795,"fmt":12796,"Ġgiant":12797,"Information":12798,"merge":12799,"ĠAbstract":12800,"ĠBarn":12801,"Ġcharacterized":12802,"Audio":12803,"Ġrapidly":12804,"oltip":12805,"wealth":12806,"Ġ?>":12807,"klahoma":12808,"William":12809,"Ġillustrated":12810,"ugar":12811,"Ġenumer":12812,"Usage":12813,"eners":12814,"Japan":12815,"Photo":12816,"Ġdescribing":12817,"mutable":12818,"puted":12819,"Ġprepare":12820,"Ġdepict":12821,"anim":12822,"Ġroof":12823,"Ġretain":12824,"Ġsixth":12825,"/.":12826,"Ġoccupied":12827,"appoint":12828,"zo":12829,"ĠÐ¸":12830,"RS":12831,"Ġengaged":12832,"Ġinvited":12833,"repre":12834,"Ġpartially":12835,"Ġfired":12836,"Ġincred":12837,"iat":12838,"Arguments":12839,"]))":12840,"forEach":12841,"Ġoldest":12842,"Ġrein":12843,"Ġna":12844,"ĠRet":12845,"ĠKnow":12846,"Objects":12847,"Env":12848,"ORTED":12849,"MF":12850,"Ġfib":12851,"Ø±":12852,"ĠHouston":12853,"!\\":12854,"Ġ}}":12855,"eland":12856,"icking":12857,"ĠMas":12858,"cred":12859,"amps":12860,"Ġperiodic":12861,"STRING":12862,"Ġtries":12863,"Ġsubstantial":12864,"Ġsnow":12865,"Ġburied":12866,"igious":12867,"orer":12868,"102":12869,"ĠTen":12870,"ĠCop":12871,"Ġsight":12872,"ĠHarris":12873,"Ġcro":12874,"Ġchallenging":12875,"Ġsurve":12876,"360":12877,"Install":12878,"ĠMatthe":12879,"Ġsucceeded":12880,"elve":12881,"uda":12882,"Ġgoverning":12883,"Ġeat":12884,"ĠHighway":12885,"ĠPatrick":12886,"Sample":12887,"Ġhaven":12888,"ipedia":12889,"expression":12890,"period":12891,"SELECT":12892,"Ġregarded":12893,"Ġturning":12894,"Ġinclusion":12895,"Ġlob":12896,"Ġframes":12897,"Ġsimultaneously":12898,"Ġsupplied":12899,"iary":12900,"ĠChall":12901,"Throw":12902,"ĠSystems":12903,"Ġdrawing":12904,"Ġembedded":12905,"cod":12906,"Ġprofiles":12907,"olves":12908,"Ġoffices":12909,"ĠSimple":12910,"Screen":12911,"Ġcollapse":12912,"eras":12913,"Ġrealized":12914,"Ġcritics":12915,"ĠSquad":12916,"ells":12917,"Ġcorrection":12918,"Ġvoted":12919,"Ġlandscape":12920,"Ġexplains":12921,"ibl":12922,"Ġposts":12923,"Ġneutral":12924,"tar":12925,"Ġri":12926,"Messages":12927,"scriptsize":12928,"assandra":12929,"reprene":12930,"nan":12931,"Song":12932,"1234":12933,"ĠWARRAN":12934,"gar":12935,"Ġroutes":12936,"GM":12937,"Ġfalls":12938,"Ġstudying":12939,"spl":12940,"Ġmagnet":12941,"ĠRab":12942,"lope":12943,"itudes":12944,"Ġconsumption":12945,"pb":12946,"Ġaccessible":12947,"argo":12948,"Ġconcluded":12949,"Ġstrip":12950,"urrence":12951,"ATTR":12952,"ĠJay":12953,"inth":12954,"ĠFellow":12955,"ĠHoward":12956,"Ġdelegate":12957,"Ġsubsid":12958,"ntil":12959,"Ġunus":12960,"ĠLandroid":12961,"ĠBry":12962,"Ġduty":12963,"uscript":12964,"Ġpeer":12965,"riers":12966,"Ġ$,":12967,"Sql":12968,"ĠMock":12969,"empl":12970,"ĠTreat":12971,"ishment":12972,"ĠLincoln":12973,"Ġalias":12974,"heta":12975,"odox":12976,"1925":12977,"Ġcoher":12978,"vertical":12979,"Ġviewed":12980,")>":12981,"Eval":12982,"ership":12983,"DEX":12984,"uj":12985,"^^":12986,"ĠAnthony":12987,"Ġrestriction":12988,"ĠHiggs":12989,"oi":12990,"egas":12991,"Ġsteel":12992,"Place":12993,"ĠMoore":12994,"ĠINTO":12995,"Ġreplacing":12996,"ĠContent":12997,"xs":12998,"Ġguys":12999,"holders":13000,"ĠCape":13001,"ĠMunic":13002,"rtl":13003,"ASK":13004,"Ġmanagers":13005,"assign":13006,"finite":13007,"Validator":13008,"<!":13009,"Upload":13010,"Ġrear":13011,"Ġneighbour":13012,"Ġphases":13013,"orous":13014,"mount":13015,"Ġheads":13016,"Ġprospect":13017,"}|\\":13018,"ĠChap":13019,"Ġfault":13020,"Chain":13021,"^{*":13022,"Phil":13023,"ĠSarah":13024,"Ġmatched":13025,"ĠYouTube":13026,"enda":13027,"ĠThird":13028,"Ġcollections":13029,"ĠPeak":13030,"Ġreduces":13031,"oupl":13032,"conduct":13033,"Ġdashed":13034,"Card":13035,"Ġrating":13036,"CLASS":13037,"illery":13038,"arner":13039,"Ġmess":13040,"ĠCS":13041,"ĠÐ²":13042,"ĠApplication":13043,"Ġtopics":13044,"icut":13045,"VAR":13046,"isson":13047,"Ġclosure":13048,")})":13049,"Ġlaid":13050,"Ġ---":13051,"mont":13052,"ĠMelbourne":13053,"Ġconcrete":13054,"Loop":13055,"Ġmacro":13056,"sequence":13057,"Ð¿":13058,"Ġsettled":13059,"104":13060,"Ġsegments":13061,"ilk":13062,"goog":13063,"Future":13064,"ĠAC":13065,"ĠShould":13066,"Ġhun":13067,"MAP":13068,"ĠDouble":13069,"Ġasking":13070,"Ġ|=":13071,"ivacy":13072,"exit":13073,"1916":13074,"Ġadapted":13075,"triangle":13076,"Ġvarying":13077,"Ġadults":13078,"Ġscenarios":13079,"TL":13080,"ĠGab":13081,"distance":13082,"Ġrobot":13083,"chell":13084,"Ġforth":13085,"ĠLoc":13086,"ĠCle":13087,"Ġterminal":13088,"Mal":13089,"Men":13090,"ĠEditor":13091,"sun":13092,"contents":13093,"Ġpit":13094,"ouses":13095,"ĠPrivate":13096,"Ġbaseline":13097,"Ġdescriptor":13098,"Ġexperts":13099,"urric":13100,"Ġnaturally":13101,"ecl":13102,"Health":13103,"}~":13104,"Ġisomorphism":13105,"Ġmigr":13106,"Present":13107,"Ġimpl":13108,"ĠBE":13109,"eget":13110,"phony":13111,"ige":13112,"Ġloading":13113,"tp":13114,"1921":13115,"ĠMarket":13116,"Ġadvers":13117,"Ġhosts":13118,"Ġchair":13119,"1912":13120,"ynamics":13121,"Ġcollision":13122,"Ġprecise":13123,"Ġsimilarly":13124,"IAL":13125,"Ġjun":13126,"Ġdesigns":13127,"isations":13128,"ĠClinton":13129,"Ġjazz":13130,"Ġlang":13131,"Ġsed":13132,"Ġimplied":13133,"ounce":13134,"ĠDVD":13135,"Ġnominated":13136,"aneous":13137,"lined":13138,"omer":13139,"FM":13140,"ificial":13141,"NUnit":13142,"Ġprovision":13143,"]{\\":13144,"Moreover":13145,"Ġaged":13146,"Ġinjured":13147,"Ġpending":13148,"Annotation":13149,"utation":13150,"Ġisolated":13151,"Ġpanels":13152,"Ġsensitivity":13153,"******":13154,"Ġdrum":13155,"ENTRY":13156,"ĠEuro":13157,"Ġ@\"":13158,"ĠManager":13159,"Ġmerged":13160,"ĠFa":13161,"lab":13162,"Ġdollars":13163,"InputStream":13164,"Ġmanufacturing":13165,"Ġvariant":13166,"ĠDick":13167,"ĠArk":13168,"ilst":13169,"^{(\\":13170,"ĠSep":13171,"Ġprofit":13172,">;":13173,"Oh":13174,"ARN":13175,"Ġmedi":13176,"Master":13177,"Ġstood":13178,"Ġiterator":13179,"Suppose":13180,"Ġpremier":13181,"ĠMiami":13182,"Ġnan":13183,"insic":13184,"Ġequivalence":13185,"1926":13186,"ĠAst":13187,"ĠExpress":13188,"ĠBah":13189,"ĠFri":13190,"ustries":13191,"Ġranges":13192,"Ã¥":13193,"ĠSilver":13194,"goto":13195,"Ġassessment":13196,"Ġtalent":13197,"Ġbaby":13198,"ĠAz":13199,"ras":13200,"Ġlens":13201,"IDTH":13202,"Ġempir":13203,"Ġbold":13204,"agrangian":13205,"actual":13206,"ĠCommun":13207,"Inf":13208,"Ġvisitors":13209,"Ġprinciples":13210,">)":13211,"Ġmedicine":13212,"loader":13213,"Ġamounts":13214,"ĠDB":13215,"\"><!--":13216,"Ġtrading":13217,"Ġatomic":13218,"Ġsituations":13219,"ĠOak":13220,"incial":13221,"Ġpromotion":13222,"Ġcarrying":13223,"Ġbenchmark":13224,"^*\\":13225,"/{":13226,"Ġmm":13227,"Ġ'',":13228,"Ġdt":13229,"Ġcharset":13230,"Europe":13231,"Ġgrade":13232,"TY":13233,"ĠDesc":13234,"ĠPa":13235,"Platform":13236,"dag":13237,"hang":13238,"}\\|":13239,"Ġcards":13240,"1915":13241,"][]{":13242,"ĠOutput":13243,"ĠFame":13244,"Ġmechanisms":13245,"ĠGard":13246,"ĠVar":13247,"Skip":13248,"scriptstyle":13249,"ĠDoctor":13250,"ĠAdditionally":13251,"Ġmissed":13252,"Ġconfigurations":13253,"Ġreducing":13254,"ĠBaseball":13255,"SCR":13256,"ĠCreates":13257,"Ġstochastic":13258,"Ġcrossing":13259,"cheduler":13260,"Ġcaptain":13261,"ĠCSS":13262,"Ġemployment":13263,"Serializer":13264,"ĠÑģ":13265,"ardo":13266,"Ġattacked":13267,"1923":13268,"ĠMand":13269,"Ġrevers":13270,"Ġinvestigated":13271,"Ġquasi":13272,"erving":13273,"Ġpregn":13274,"reement":13275,"<<":13276,"Ġcompetitive":13277,"Cmd":13278,"ĠDefense":13279,"intend":13280,"Segment":13281,"selection":13282,"Ġpenalty":13283,"isons":13284,"Ġrid":13285,"Ġfacing":13286,"Ġcomplicated":13287,"Ġanalys":13288,"Ġtrains":13289,"ĠChem":13290,"Ġconversation":13291,"EEEE":13292,"Folder":13293,"Ġpoetry":13294,"Ġshortly":13295,"ĠNev":13296,"Ġgraduate":13297,"Ġdeclare":13298,"ogonal":13299,"Ġboat":13300,"Ġintern":13301,"July":13302,"icates":13303,"!âĢĿ":13304,"ĠJunior":13305,"NUM":13306,"}}=":13307,"Ġheadquarters":13308,"etric":13309,"Ġcuts":13310,"fake":13311,"Ġregularly":13312,"Ġpup":13313,"GP":13314,"Ġcenturies":13315,"ublin":13316,"Ġdress":13317,"ĠPi":13318,"Ġreconstruction":13319,"ĠGordon":13320,"ĠCEL":13321,"ĠAlbert":13322,"oda":13323,"\\}\\":13324,"ĠProdu":13325,"ĠPDF":13326,"ĠKelly":13327,"âĢĻ.":13328,"Append":13329,"pointer":13330,"ĠSA":13331,"Ġwheel":13332,"uber":13333,"ĠGall":13334,"San":13335,"Ġcommunications":13336,"Ġgrown":13337,"ĠBureau":13338,"production":13339,"vertex":13340,"IDE":13341,"Ġcurvature":13342,"ĠVo":13343,"RED":13344,"works":13345,"Ġdiversity":13346,"Ġclassified":13347,"Ġforg":13348,"ĠIllegal":13349,"IOException":13350,"Ġmine":13351,"ĠAccount":13352,"ĠDetroit":13353,"Ġdynamical":13354,"cluding":13355,"Ġfeels":13356,"Ġfought":13357,"Ġpayload":13358,"ĠSwitzerland":13359,"arith":13360,"VICE":13361,"Ġwhenever":13362,"ĠSelect":13363,"ĠDemocrats":13364,"BAR":13365,";\">":13366,"Ġschemes":13367,"Ġmales":13368,"ĠSP":13369,"Ġdiscussions":13370,"()),":13371,"wave":13372,"¿½":13373,"Ġapproval":13374,"ĠEarly":13375,"ĠTownship":13376,"Ġneighb":13377,"ĠRepresentatives":13378,"ĠNich":13379,"Ġflood":13380,"ĠDal":13381,"Ġapparently":13382,"Ġmonitoring":13383,"(.":13384,"Ġsocket":13385,"iva":13386,"Ġfiber":13387,"Ġsurfaces":13388,"ĠJos":13389,"ruction":13390,"June":13391,"ĠForces":13392,"ĠLore":13393,"gather":13394,"ĠHawai":13395,"ĠBos":13396,"icky":13397,"iest":13398,"Connect":13399,"isset":13400,"ĠAnalysis":13401,"subsec":13402,"forming":13403,"Ġcenters":13404,"blank":13405,"urname":13406,"tre":13407,"DOM":13408,"Ġcontroll":13409,"ĠExpl":13410,"issippi":13411,"ĠSri":13412,"âĢ¦âĢ¦":13413,"Ġappreci":13414,"Ġaug":13415,"Ġcommands":13416,"Ġdirectors":13417,"CV":13418,"ĠTree":13419,"116":13420,"ĠHans":13421,"oni":13422,"Runner":13423,"Ġ\"\";":13424,"ĠTraining":13425,"Ġanchor":13426,"ĠTemple":13427,"medskip":13428,"equations":13429,"ĠEV":13430,"Ġtang":13431,"Contains":13432,"Biography":13433,"ceil":13434,"Ġalpha":13435,"ĠCred":13436,"iche":13437,"ĠAlabama":13438,"wild":13439,"Ġwaste":13440,"Ġceremony":13441,"OC":13442,"Ġcolle":13443,"Ġregistration":13444,"ste":13445,"ĠKentucky":13446,"Features":13447,"ĠDM":13448,"LED":13449,"ĠFreder":13450,"ĠKy":13451,"hour":13452,"Ġsi":13453,"Ġordinary":13454,"Mac":13455,"]+":13456,"direction":13457,"Ġstim":13458,"ĠYes":13459,"ĠCapital":13460,"catch":13461,"Ġreprodu":13462,"March":13463,"Clear":13464,"Ġsys":13465,"Ġconservative":13466,"warn":13467,"ĠNob":13468,"poly":13469,"Ġtopology":13470,"bridge":13471,"STATUS":13472,"Ġvacuum":13473,"Ã¼r":13474,"Abs":13475,"ĠCP":13476,"ĠDur":13477,"ĠDave":13478,"Ġchunk":13479,"Ġcounts":13480,"wen":13481,"sis":13482,"Sort":13483,"toBe":13484,"Ġprohib":13485,"Rob":13486,"ĠĠĠĠĠĠĠĠĠĠĠĠĠĠĠĠĠĠĠĠĠĠĠĠĠĠĠĠĠĠĠĠĠ":13487,"previous":13488,"enezuel":13489,"Ġstarring":13490,"Contents":13491,"Ġlyrics":13492,"Ġretirement":13493,"Ġox":13494,"ĠLL":13495,"000000":13496,"ĠLA":13497,"Expected":13498,"ĠGirl":13499,"itecture":13500,"ellectual":13501,"!]":13502,"Ġtelling":13503,"COM":13504,"Ġbear":13505,"ĠWhit":13506,"Ġinstructions":13507,"Ġmayor":13508,"ned":13509,"Ġmd":13510,"Ga":13511,"Ġforget":13512,"sea":13513,"enberg":13514,"Ġgravitational":13515,"Ġconcerning":13516,"ĠWhether":13517,"ĠMarine":13518,"Ġtracking":13519,"orses":13520,"Ġvoters":13521,"Ġcomic":13522,"ĠTokyo":13523,"ĠYouth":13524,"week":13525,"Ġregardless":13526,"phantom":13527,"Ġatmosphere":13528,"Ġinfluenced":13529,"Ġprocedures":13530,"ĠThose":13531,"Ġcharts":13532,"itely":13533,"Observer":13534,"Ġredshift":13535,"PY":13536,"Ġ'.":13537,"Resolver":13538,"extra":13539,"Ġfrequencies":13540,"Ġexpectation":13541,"Fore":13542,"Ġknock":13543,"ĠTrade":13544,"acer":13545,"ĠBY":13546,"ders":13547,"pf":13548,"Ġ----------------------------------------------------------------":13549,"Ġleaf":13550,"liest":13551,"Feb":13552,"Î¿":13553,"Ġroads":13554,"ceptor":13555,"ĠBeng":13556,"ĠDescription":13557,"ĠScholar":13558,"(/":13559,"Ġenjoyed":13560,"ï¿½":13561,"rama":13562,"ĠVALUES":13563,"rait":13564,"Ġsupers":13565,"ĠHeritage":13566,"Ġvillages":13567,"ainer":13568,"vartheta":13569,"Ġclosing":13570,"ĠFarm":13571,"Ra":13572,"Ġgoogle":13573,"\"|":13574,"Ġwalking":13575,"1913":13576,"Ġpictures":13577,"endpoint":13578,"repeat":13579,"Ġstructural":13580,"ĠĠčĊ":13581,"ÃŃa":13582,"aro":13583,"ĠRound":13584,"Ġsatellite":13585,"Ġoccas":13586,"ilty":13587,"Ġdisorder":13588,"Ġfold":13589,"ĠThread":13590,"ĠSport":13591,"Virtual":13592,"ĠMD":13593,"Ġshr":13594,"ongo":13595,"parallel":13596,"WIN":13597,"Ġconvention":13598,"ictional":13599,"className":13600,"Ġlogging":13601,"ĠAnne":13602,"dynamic":13603,"Ġblow":13604,"leveland":13605,":=\\":13606,"Ġlake":13607,"ducible":13608,"opol":13609,"Ġrepeat":13610,"ĠCook":13611,"gressive":13612,"Ġexhibit":13613,"ĠAuto":13614,"Remote":13615,"Ġclone":13616,"Ġassignment":13617,")\",":13618,"Ġstrictly":13619,"ĠBra":13620,"Ġ(;":13621,"ĠSeattle":13622,"uh":13623,"inject":13624,"esa":13625,"lix":13626,"Ġguid":13627,"ĠRoberts":13628,"analysis":13629,"AUT":13630,"Ġsons":13631,"Ġnations":13632,"ircles":13633,"ĠDelete":13634,"ĠSin":13635,"ĠPromise":13636,"activity":13637,"Ġchecks":13638,"Html":13639,"emit":13640,"mitter":13641,"ĠSimilarly":13642,"Contin":13643,"}{*":13644,"ĠPrint":13645,"Ġestablishment":13646,"hook":13647,"Ġfitting":13648,"Azure":13649,"Ġliterary":13650,"dst":13651,"Ġcolspan":13652,"colLast":13653,"Ġpresc":13654,"iamond":13655,"Ġnormally":13656,"HEAD":13657,"FOR":13658,"Ġ({\\":13659,"Ġbrown":13660,"Ġcorrections":13661,"hot":13662,"Ġhonest":13663,"Ġfasc":13664,"ĠEND":13665,"Counter":13666,"900":13667,"ĠLaure":13668,"Ġreveals":13669,"ĠVolume":13670,"Ġadmitted":13671,"CTYPE":13672,"Ġconsideration":13673,"sep":13674,"zi":13675,"Ġfilters":13676,"appy":13677,"isec":13678,"Ġride":13679,"umption":13680,"Ġentertainment":13681,"Ġgeometric":13682,"Ġaccompan":13683,"olly":13684,"{},":13685,"Ġtransactions":13686,"118":13687,"reader":13688,"download":13689,"glyph":13690,"encode":13691,"she":13692,"Light":13693,"Ġdomains":13694,"deprecated":13695,"cycl":13696,"ternoon":13697,"Paul":13698,"NSString":13699,"Ġdefining":13700,"ĠSW":13701,"ĠAustria":13702,"ĠPur":13703,"inking":13704,"Face":13705,"uese":13706,"ĠDest":13707,"Ġpicked":13708,"Ġflying":13709,"Ġwavelength":13710,"Ġadvertising":13711,"Rich":13712,"Ġur":13713,"Ġcontinuing":13714,"docker":13715,"loyd":13716,"Ġdies":13717,"ĠCG":13718,"atting":13719,"ulatory":13720,"expl":13721,"Yes":13722,"350":13723,"subject":13724,"~~~~~~~~":13725,"atibility":13726,"Ġmanifest":13727,"Ġsubmitted":13728,"ĠEver":13729,"ĠMC":13730,"OPT":13731,"Ġsolving":13732,"kee":13733,"ashes":13734,"ĠQuery":13735,"EEEEFF":13736,"Rober":13737,"Ġcoaches":13738,"ĠĠĠĠĠĠĠĠĠĠĠĠĠĠĠĠĊ":13739,"Äĥ":13740,"methods":13741,"Ġmodeling":13742,"Spr":13743,"Ġbug":13744,"anka":13745,"rena":13746,"likely":13747,"Ġru":13748,"Ġcoff":13749,"Processor":13750,"Ġsuspect":13751,"BD":13752,"Ġdefect":13753,"ĠIter":13754,"Ġtotally":13755,"ĠWalter":13756,"Newtonsoft":13757,"Ġcourses":13758,"Ġeducated":13759,"Ġrooms":13760,"ĠSmall":13761,"emb":13762,"Ġbigger":13763,"Ġbott":13764,"ĠOklahoma":13765,"Errors":13766,"Ġenvironments":13767,"sha":13768,"Ġincorporated":13769,"native":13770,"ĠNatural":13771,"Ġgro":13772,"Ġquot":13773,"addClass":13774,"ĠEconomic":13775,"ographical":13776,"ĠProduct":13777,"Ġsympt":13778,"Ġwear":13779,"ĠPhill":13780,"Ġabsolutely":13781,"Ġpione":13782,"Exists":13783,"ĠContext":13784,"Ġsurprising":13785,"Ġarmed":13786,"ĠWalker":13787,"ÙĨ":13788,"Dim":13789,"NotFound":13790,")^\\":13791,"Ġdelta":13792,"ĠVin":13793,"Canadian":13794,"days":13795,"ĠBible":13796,"usted":13797,"Ġguns":13798,"mag":13799,"Ġphilosophy":13800,"ĠMayor":13801,"hal":13802,"uerto":13803,"rett":13804,"ĠPed":13805,"imore":13806,"Ġtoler":13807,"ĠKennedy":13808,"apolis":13809,"lb":13810,"ateur":13811,"colFirst":13812,"}{{\\":13813,"ynasty":13814,"Ġsensor":13815,"Ġdeviation":13816,"orne":13817,"Ġpolarization":13818,"Ġarrival":13819,"fp":13820,"ĠPas":13821,"ustry":13822,"Ġhealthy":13823,"Ġham":13824,"Static":13825,"Bottom":13826,"onna":13827,"hpp":13828,"2023":13829,"Ġisot":13830,"Ġ'%":13831,"ĠPlayer":13832,"\\!\\":13833,"103":13834,"Ġcomprehensive":13835,"Rules":13836,"best":13837,"Drag":13838,"Ġtranslated":13839,"Ġplain":13840,"Ġslowly":13841,"Ġmaintenance":13842,"Ġalcohol":13843,"ĠSyria":13844,"']);":13845,"moment":13846,"=$":13847,"footnotes":13848,"Metrics":13849,"Ġproud":13850,"uplicate":13851,"ursive":13852,"relative":13853,"Ġinstruments":13854,"POS":13855,"Ġanniversary":13856,"Hom":13857,"living":13858,"Ġsignificance":13859,"Ġsheet":13860,"Ġbelieves":13861,"ainian":13862,"Ġregulations":13863,"Ġ$\\{\\":13864,"Ġdependencies":13865,"Ġgift":13866,"Ġmusician":13867,"Ġproportional":13868,"Contact":13869,"letter":13870,"Ġassociate":13871,"Ġdesire":13872,"Ġensemble":13873,"FIELD":13874,"ĠAle":13875,"Management":13876,"making":13877,"Ġmagic":13878,"Bro":13879,"ĠTurkish":13880,"Warning":13881,"Ġformerly":13882,"topic":13883,"ĠEag":13884,"olo":13885,"ĠPope":13886,"Nor":13887,"Ġslot":13888,"Rows":13889,"Ġextracted":13890,"blob":13891,"Because":13892,"prom":13893,"Ġrival":13894,"Death":13895,"erk":13896,"raise":13897,"Ġruled":13898,"Ġsoul":13899,"Ġwaters":13900,"qual":13901,"ĠEmer":13902,"Ġkit":13903,"ifting":13904,"isot":13905,"ĠDouglas":13906,"Ġ/*!<":13907,"1911":13908,"Ġquiet":13909,"Timer":13910,"USER":13911,"Ġcompete":13912,"ĠVillage":13913,"fb":13914,"rules":13915,"ĠBron":13916,"ikh":13917,"validation":13918,"Switch":13919,"ĠEmperor":13920,"speed":13921,"Ġentering":13922,"Ġconsequences":13923,"Symfony":13924,"Ġchurches":13925,"ä»":13926,"(-\\":13927,"Ġwine":13928,"Ġinterpol":13929,"Ġastr":13930,"Ġguarantee":13931,".$$":13932,"react":13933,"Ġgar":13934,"Ġopera":13935,"Ġstats":13936,"Ġbare":13937,"loading":13938,"archive":13939,"agination":13940,"highlight":13941,"Ġvoting":13942,"EXPORT":13943,"ÐµÑĢ":13944,"Ġproven":13945,"Ġadaptation":13946,"Ġtransitions":13947,"117":13948,"Ġconcepts":13949,"Ġluminosity":13950,"Ġuniformly":13951,"Ġcached":13952,"trl":13953,"acht":13954,"canvas":13955,"ASE":13956,"Ġdealing":13957,"formed":13958,"kernel":13959,"Ġutility":13960,"Export":13961,"Plot":13962,"Ġcommitment":13963,"Hor":13964,"Ġparticipation":13965,"Ġdistances":13966,"ounced":13967,"Bool":13968,"ĠDog":13969,"Ġcourts":13970,"Film":13971,"scopic":13972,"/\"":13973,"Ð·":13974,"Ġfranchise":13975,"Ġtel":13976,"upper":13977,"Ġyes":13978,"Ġemotional":13979,"ĠLawrence":13980,"fff":13981,"Ġmart":13982,"HD":13983,"larg":13984,"Ġ\"${":13985,"Design":13986,"ĠNap":13987,"Ġelif":13988,"Ġvictim":13989,"Ġgang":13990,"FALSE":13991,"HERE":13992,"riber":13993,"Diagnostics":13994,"Olymp":13995,"hfill":13996,"Ġtokens":13997,"ĠOrth":13998,"erset":13999,"Ġabandoned":14000,"Ġdisable":14001,"ĉĉĠĠĠ":14002,"Ġdegener":14003,"Ġtemporal":14004,"INST":14005,"ĉĠĠĠĠĠĠĠĠ":14006,"pped":14007,"106":14008,"Ġencoded":14009,"ĠSuppose":14010,"GBT":14011,"Ġregression":14012,"Ġfluctuations":14013,"Ġsystematic":14014,"Ġequals":14015,"Random":14016,"Ġcanvas":14017,"ĠAuthority":14018,"mac":14019,"ĠGarden":14020,"Ġmining":14021,"Ġ\"'":14022,"ATOR":14023,"ĠStore":14024,"Ġsb":14025,"strict":14026,"ĠSn":14027,"jax":14028,"Ġå":14029,"Ġperturbation":14030,"Bad":14031,"Ġtemple":14032,"kwargs":14033,"Ġ'\"":14034,"half":14035,"Green":14036,"Ġrepository":14037,"Ġlegacy":14038,"ĠAlan":14039,"Vol":14040,"ĠGeV":14041,"Ġpublications":14042,"urers":14043,"Awards":14044,"ĠOP":14045,"ĠWy":14046,"Ġatoms":14047,"Ġgrounds":14048,"Ġeigenvalues":14049,"ĠKam":14050,"cycle":14051,"April":14052,"ubs":14053,"DOCTYPE":14054,"Ġexclusive":14055,"\\%$":14056,"Ġattorney":14057,".\\\\":14058,"ceiver":14059,"Ġbon":14060,">:":14061,"textup":14062,"ĠassertTrue":14063,"bing":14064,"Ġfits":14065,"mathtt":14066,"ĠChairman":14067,"Ġbirds":14068,"Fragment":14069,"Ġintention":14070,"Ġsurgery":14071,"ĠParse":14072,"Ġpin":14073,"atherine":14074,"Ġimg":14075,"Stud":14076,"Ġreceives":14077,"Ġdeleted":14078,"Setting":14079,"SPACE":14080,"generate":14081,"ĠTelevision":14082,"ĠHad":14083,"âĢĻ,":14084,"Ġoutputs":14085,"Ġanth":14086,"ĠHarvard":14087,"Ġaims":14088,"ĠHum":14089,"Ġha":14090,"bone":14091,"Ġsynd":14092,"James":14093,"Ġsav":14094,"ĠLas":14095,"Ġperforms":14096,"ĠAI":14097,"ĠOpera":14098,"ĠÐ½":14099,"ymn":14100,"Ġcommander":14101,"Week":14102,"Ġbronze":14103,"twitter":14104,"Ġfi":14105,"Ġbattery":14106,"Bounds":14107,"Ġholes":14108,"Ġbars":14109,"UAL":14110,"plier":14111,"ĠBus":14112,"orrect":14113,"ĠResult":14114,"Ġsumm":14115,"Ġdiscipl":14116,"Ġconnecting":14117,"ĠPhoto":14118,"alia":14119,"Ġsinging":14120,"footnotesize":14121,"ĠLam":14122,"Ġstabil":14123,"Through":14124,"messages":14125,"æľ":14126,"Ġsurprise":14127,"Ġsitting":14128,"ĠHug":14129,"Ġoverflow":14130,"riteria":14131,"RAY":14132,"pto":14133,"Put":14134,"design":14135,"Ġvolumes":14136,"CONFIG":14137,"Ġentities":14138,"Ġargue":14139,"Weight":14140,"Ġbath":14141,"nc":14142,"Ġuniqu":14143,"erred":14144,"Ġedit":14145,"NavBarFont":14146,"earing":14147,"iac":14148,"ĠMorgan":14149,"olph":14150,"estyle":14151,"Ġ\".":14152,"Ġpublicly":14153,"ĉčĊ":14154,"ĠProm":14155,"bara":14156,"Ġdescript":14157,"Super":14158,"ĠJason":14159,"ĠTake":14160,"Ġindependently":14161,"jecture":14162,"Ġequipped":14163,"Ġsphere":14164,"perimental":14165,"ĠSel":14166,"ĠNorwegian":14167,"Ġstruggle":14168,"abc":14169,"Ġentrance":14170,"xygen":14171,"ĠBeat":14172,"ĠYears":14173,"Ġepoch":14174,"examples":14175,"Ġsharp":14176,"ensitive":14177,"created":14178,"ACH":14179,"Ġinitialize":14180,"Ġtum":14181,"Even":14182,"Na":14183,"×ķ":14184,"ĠSIZE":14185,"Ġabsorption":14186,"ĠConfiguration":14187,"ĠAdvent":14188,"...)":14189,"ĠStew":14190,"Ġanimated":14191,"Constraints":14192,"LR":14193,"Copyright":14194,"Ġstrategic":14195,"Ġbehalf":14196,"ĠNik":14197,"Ġmeetings":14198,"ĠTax":14199,"iors":14200,"Ġembod":14201,"iliary":14202,"weak":14203,"ĠCow":14204,"Ġmor":14205,"FFER":14206,"Ġedited":14207,"ĠOtherwise":14208,"tip":14209,"Ġstrengthen":14210,"oca":14211,"Split":14212,"vet":14213,"compar":14214,"Ġbranches":14215,"Govern":14216,"corollary":14217,"ĠChile":14218,"Ġrely":14219,"ĠFourier":14220,"Ġanalyze":14221,"ĠPeace":14222,"character":14223,"ORDER":14224,"rypted":14225,"allclasses":14226,"Ġkinds":14227,"×Ļ":14228,";)":14229,"ĠTrack":14230,"ĉĉĉĉĉĉĊ":14231,"compute":14232,"Ġstraightforward":14233,"KS":14234,"ariant":14235,"1908":14236,"ktop":14237,"Ġpoverty":14238,"ĠCNN":14239,"inus":14240,"itis":14241,"City":14242,"Ġtransportation":14243,"Self":14244,"Ġreporter":14245,"ĠResults":14246,"Timestamp":14247,"Ġtherapy":14248,"Ġtexture":14249,"ĠHu":14250,"Ġdrums":14251,"REE":14252,"Site":14253,"ĠPod":14254,"ĠNeed":14255,"Grad":14256,"ovak":14257,"alert":14258,"ÐµÑĤ":14259,"Ġspiritual":14260,"Ġmillions":14261,"Ġsituated":14262,"Ùħ":14263,"anted":14264,"Ġformally":14265,"Ġgay":14266,"kov":14267,"East":14268,"BN":14269,"Ġtank":14270,"/_":14271,"pad":14272,"Ġaux":14273,"ulum":14274,"Ġalive":14275,"Did":14276,"Diff":14277,"ĠCooper":14278,"Ġrelief":14279,"Ġcomparing":14280,"Ġmeets":14281,"ĠCHE":14282,"ivia":14283,"vi":14284,"navList":14285,"ĠReserve":14286,"ĠNash":14287,"brane":14288,"eah":14289,"ĠThough":14290,"Ġmanuscript":14291,"tsburgh":14292,"ulp":14293,"Overview":14294,"ruby":14295,"RESS":14296,"Ġpuls":14297,"three":14298,"Ġenables":14299,"ĠPython":14300,"urse":14301,"ĠMembers":14302,"Ġplasma":14303,"Ġprobe":14304,",.":14305,"Ġconvenient":14306,"Hub":14307,"Ġenforcement":14308,"Ġreveal":14309,"structed":14310,"Ġtip":14311,"Ġhook":14312,"oustic":14313,"Ġmarks":14314,"IZ":14315,"Ġful":14316,"imitive":14317,"ĠAlbum":14318,"Ġĉ":14319,"embed":14320,"Ġdiameter":14321,"idges":14322,"Ġauthent":14323,"Har":14324,"Ġweighted":14325,"=\\\"":14326,"ĠConstant":14327,"Ġdecline":14328,"extensions":14329,"Center":14330,"Ġneutrino":14331,"Ġrose":14332,"gments":14333,"atile":14334,"LIST":14335,"Ġimprovements":14336,"Ġmachines":14337,"Ġrandomly":14338,"reason":14339,"BF":14340,"Ġreleases":14341,"rient":14342,"Major":14343,"ĠDean":14344,"Comparison":14345,"story":14346,"contrib":14347,"ĠIron":14348,"mill":14349,"itarian":14350,"Declaration":14351,"ĠGraph":14352,"urities":14353,"Ġ,\\":14354,"ĠUtah":14355,")}.":14356,"ĠLP":14357,"1024":14358,"ĠEdition":14359,"ividual":14360,"calendar":14361,"ailand":14362,"Power":14363,"Ġsecretary":14364,"Ġtrials":14365,"Tex":14366,"bow":14367,"Ġreplic":14368,"Ġderivatives":14369,"ĠIndonesia":14370,"Ġpassenger":14371,"Ġcomparable":14372,"sass":14373,"omas":14374,"paper":14375,"Ġtough":14376,"(\"%":14377,"ĠConnecticut":14378,"enders":14379,"Sharp":14380,"rame":14381,"inces":14382,"August":14383,"ĠBh":14384,"binary":14385,"nm":14386,"Ġvaluable":14387,"ĠMission":14388,"Ġevil":14389,"ĠBrun":14390,"Extensions":14391,"Ġpublishing":14392,"Ġfounding":14393,"Consumer":14394,"iah":14395,"ĠResources":14396,"Encoding":14397,"{|":14398,"leges":14399,"ĠMississippi":14400,"ĠHills":14401,"Organ":14402,"PROC":14403,"Ġmail":14404,"inear":14405,"Ġfairly":14406,"andal":14407,"FLAG":14408,"Ġdecreases":14409,"camel":14410,"tures":14411,"Ġcod":14412,"Ġfalling":14413,"Ġgovernments":14414,"Ġalignment":14415,"Ġgreatly":14416,"ĠByte":14417,"Ġoffensive":14418,"Ġfleet":14419,"ĠLouisiana":14420,"incre":14421,"107":14422,"Ġqueries":14423,"amer":14424,"Ġdesigner":14425,"ĠHD":14426,"Ġec":14427,"Ġreb":14428,"rob":14429,"News":14430,"touch":14431,"Contract":14432,"ĠAbb":14433,"Ġfruit":14434,"Ġdictionary":14435,"Ġformulation":14436,"Ġ$_":14437,"Ġconjug":14438,"ĠQueensland":14439,"nolimits":14440,"Review":14441,"ĠNeg":14442,"fef":14443,"]->":14444,"ĠMcK":14445,"concat":14446,"Tasks":14447,"Ġlistening":14448,"ĠDak":14449,"ĠTaiwan":14450,"ĠFinancial":14451,"Ġreaches":14452,"ĠDA":14453,"Ġneuro":14454,"cursor":14455,"Ã©t":14456,"textnormal":14457,"ĠBull":14458,"iri":14459,"overview":14460,"ĠAlliance":14461,"uis":14462,"rock":14463,"Ġsessions":14464,"ĠStudy":14465,"Ġfs":14466,"lon":14467,"Ġgenetic":14468,"Ġradi":14469,"ĠIndependent":14470,"Points":14471,"Ġtimestamp":14472,"LICENSE":14473,"Ġlifetime":14474,"directory":14475,"Ġcyl":14476,"governor":14477,"enix":14478,"Hon":14479,"ashi":14480,"ĠAlice":14481,"oths":14482,"interpret":14483,"Mag":14484,"uler":14485,"Ġpreserve":14486,"Ġparagraph":14487,"$.}":14488,"Columns":14489,"ÛĮ":14490,"ĠTool":14491,"Ġundert":14492,"Ġelig":14493,"^*(":14494,"createElement":14495,"Standard":14496,"Ġresidual":14497,"Assembly":14498,"tery":14499,",\\,\\":14500,"sters":14501,"SG":14502,"Ġuncertainties":14503,"Ġvolt":14504,"Ġshadow":14505,"Ġtied":14506,"...</":14507,"Users":14508,"icode":14509,"ĠSR":14510,"Ġ-=":14511,"nit":14512,"ĠAntonio":14513,"ĠThompson":14514,"Ġcollective":14515,"Ġengines":14516,"father":14517,"Ġmovements":14518,"kubernetes":14519,"Ġsigning":14520,"TIES":14521,"fetch":14522,"Ġuniversities":14523,"ĠDEFAULT":14524,"Ġmyth":14525,"gent":14526,"patcher":14527,"outing":14528,"Ġrestrictions":14529,"Donald":14530,"below":14531,"raig":14532,"ĠAtlanta":14533,"Ġrising":14534,"orce":14535,"Ġgarden":14536,"Partition":14537,"Ġpron":14538,"Ġpassengers":14539,"Ġlaser":14540,"Ġmilit":14541,"Ġlands":14542,"Special":14543,"ensis":14544,"Ġbeauty":14545,"Ġovers":14546,"Ġinhib":14547,"idelines":14548,"VC":14549,"issance":14550,"ĠHell":14551,"ĠDefinition":14552,"Tok":14553,"ĠBowl":14554,"thick":14555,"Ġstruck":14556,"assador":14557,"ĠPear":14558,"charge":14559,"Ġreserve":14560,"ĠAlgorithm":14561,"elines":14562,"*\\":14563,"Zero":14564,"Ġinhabit":14565,"ĠFle":14566,"Ġforming":14567,"Ġmetall":14568,"ĠLearning":14569,"ĠLate":14570,"ĠEarl":14571,"Ġasc":14572,"Ġbacking":14573,"Ġhal":14574,"Ġaddressed":14575,"cu":14576,"popup":14577,"ĠWord":14578,"ĠChristians":14579,"*}[":14580,"Ġnearest":14581,"ĠColumn":14582,"ĠCit":14583,"Olympic":14584,"Reason":14585,"alytics":14586,"ahn":14587,"ĠĠĠĠĠĠĠĠĠĠĠĠĠĠĠĠĠĠĠĠĠĠĠĠĠĠĠĠĠĠĠĠĠĠ":14588,"audio":14589,"Ġtrim":14590,"Ġelectrons":14591,"Ġconvolution":14592,"Ġthousand":14593,"CHAN":14594,"craft":14595,"ethe":14596,"avis":14597,"ĠHit":14598,"dn":14599,"ĠFive":14600,"Ġcapabilities":14601,"Der":14602,"ĠHoll":14603,"iere":14604,"ĠRussell":14605,"ĠBelgium":14606,"Ġproducers":14607,"submit":14608,"ĠFer":14609,"ĠExchange":14610,"Ġhired":14611,"Ġhandled":14612,"Ġwelcome":14613,"Ġoutcomes":14614,"Michael":14615,"ĠFM":14616,
[...]
