#version: 0.2
Ġ t
i n
h e
Ġ a
o n
e r
Ġt he
r e
a t
e n
Ġ Ġ
o r
Ġ s
a l
a n
Ġ o
i t
i s
e s
e d
Ġ w
a r
Ġ c
Ġ f
i on
Ġo f
n d
Ġ in
Ġ p
Ġ b
i c
in g
l e
r o
a s
Ġa nd
Ġ d
Ġ m
Ġ \
Ġt o
o u
e l
en t
c t
Ġ $
e t
i l
ĠĠ ĠĠ
i g
Ġ h
o m
s t
a m
Ġ S
Ġ re
Ġt h
o l
Ġ T
at ion
r a
Ġ C
Ġ e
i m
Ġ A
Ġ (
Ġ n
o t
Ġ l
Ġ is
i d
i v
c e
c h
u r
Ġf or
{ \
Ġ M
u t
u s
Ġ g
l y
o w
Ġ on
Ġ I
u l
a d
Ġ B
er s
it h
Ġ P
2 0
e m
Ġb e
i r
u m
Ġs t
a b
q u
Ġa s
â Ģ
a y
u n
Ġ H
t er
Ġth at
Ġw ith
v er
s e
_ {
Ġc on
1 9
Ġ R
Ġ F
is t
t h
o d
Ġ L
Ġ D
ĠT he
Ġa l
i f
e g
a g
at h
he r
Ġw as
an d
en d
Ġa n
Ġb y
Ġ$ \
Ġ W
v e
Ġp ro
ig h
Ġ N
Ġ G
r i
Ġ v
Ġ Ċ
a c
o s
re s
ct ion
o p
es t
it y
Ġw h
Ġ E
ro m
Ġa t
m ath
p p
at e
p h
t a
Ġc om
o c
Ġd e
ĠĠ Ġ
ĠĠĠĠ ĠĠĠĠ
č Ċ
ar t
igh t
Ġe x
Ġ it
Ġa re
o re
Ġf rom
i es
u b
Ġ &
u re
p e
} \
Ġ J
il l
Ġs e
} $
in e
t e
^ {
i al
al l
p t
Ġ he
es s
Ġw e
g e
e w
u d
an t
Ġ O
Ġ or
iv e
it e
m a
u p
or t
T he
Ġ r
a k
' s
m ent
b er
l d
ic h
re f
p l
ar d
ou r
at ed
Ġ K
i an
o g
Ġ y
el l
Ġ U
} }
Ġ =
ra c
( \
ic al
f t
20 1
Ġc h
i z
Ġs h
u nd
p er
n t
ar y
r an
i a
Ġp l
x t
in t
as s
Ġ "
eg in
Ġ le
Ġ us
f er
ul t
u st
ig n
a ve
b egin
c l
0 0
Ġcom p
it ion
Ġth is
ĠI n
i p
u e
am e
or m
âĢ ĵ
on g
) $
as t
Ġn ot
c al
_ {\
a re
f f
u g
en s
a p
) ,
e ct
e ar
Ġ k
Ġwh ich
Ġ -
d u
ation s
d e
Ġc l
} {
o st
Ġre s
Ġ V
ag e
k s
i re
Ġs u
a v
o v
or d
20 0
en ce
s o
a in
t her
ĠS t
Ġc an
f rac
Ġh is
Ġh ave
e q
r m
Ġw he
c c
er e
a ce
en c
Ġ un
t o
id e
ac k
âĢ Ļ
r ight
r ic
c on
p s
) .
} ,
l ow
ou s
im e
e qu
ĠC h
i b
Ġh as
ab le
is h
Ġ |
te xt
an g
c ite
r u
ion s
as e
Ġal so
a ct
a ch
r y
ab el
Ġa b
1 8
om e
t he
i e
or k
m er
math b
Ġa pp
Ġ im
Ġa d
Ġw ere
ĠT h
en er
ou ld
$ ,
ic e
ou t
f orm
o ver
ir st
er v
Ġs p
w o
l abel
et a
I n
, \
$ .
Ġp art
ow n
ou nd
1 0
k e
Ġ j
er m
or y
Ġon e
ĠĠĠĠ ĠĠĠ
ol d
in d
re e
ter n
Ġal l
math cal
el y
ent s
equ ation
Ġcon t
at es
or s
ĉ ĉ
le ft
} )
o k
an ce
al ly
Ġa r
cl ud
Ġ ro
r it
Ġd is
} .
Ġm od
i le
ta in
Ġthe ir
Ġb ut
} (
p ort
Ġn e
Ġ Y
ri b
o se
ou nt
w e
Ġf irst
Ġp er
n e
res s
Ġm e
Ġt e
am b
ĠH e
ro w
ic s
} ^
. .
Ġt wo
Ġit s
ĠU n
f ig
Ġ qu
~ \
am p
he d
ĠI t
p ro
ar k
Ġ| |
l l
} _
ran s
Ġo ut
Ġo b
ph a
l ine
Ġpl ay
Ġe v
c om
ation al
o b
d a
on e
c ent
al pha
pe ct
19 9
Ġh ad
f ter
R e
Ġp re
v el
n g
Ġo ther
Ġs c
Ġ âĢĵ
ul ar
l ic
im es
Ġ âĢ
s um
at er
ar i
Ġs y
Ġm an
) \
Ġw ill
Ġ {
o int
ur n
e p
Ġ <
Ġa g
Ġ +
ug h
Ġwh o
Ġd es
Ġo ver
ol low
i el
= "
on d
- -
s s
Ġm ore
enc es
Ġbe en
is s
ut ion
l es
Ġt ime
y s
Ġ up
amb da
l i
ĠS e
h o
a w
$ \
ra ph
il d
Ġy ou
el ta
le ct
1 2
Ġ if
or n
Ġs et
Ġthe y
s p
pe c
as ed
ing s
l and
Ġin ter
on s
Ġ her
) ;
Ġb et
und er
j ect
Ġn ew
Ġin t
am ma
Ġde f
Ġd o
un ction
c a
Ġf ollow
Ġt ra
Ġ en
Ġy ear
c ed
at a
v i
Ġs ub
iel d
Ġwhe re
g h
_ \
o f
op le
mathb b
o ol
at ive
Ġcon s
r am
um ber
Ġfor m
an s
ĠĠĠĠĠĠĠĠ ĠĠĠĠĠĠĠĠ
m u
iv ers
Ġs o
al s
c re
Ġd if
} _{
= \
ak e
ot h
h at
d ition
Ġsu ch
it ed
Ġ ra
Ġre g
Ġon ly
Ġin to
m b
Ġp e
d ot
i x
Ġcom m
i ed
ra y
Ġin clud
res ent
Ġ\ \
ig ma
} ^{
pt ion
Ġc ol
ic t
mer ic
Ġw ork
ol og
e x
w ard
Ġthe re
ĠW e
- \
ver y
1 5
if ic
Ġwhe n
in ed
Ġd ist
c k
Ġa cc
s ub
st em
Ġre l
ĠR e
Ġth an
eg a
we en
Ġt rans
ar g
in ce
Ġc o
em ber
a il
ph i
^ {\
ro und
a pp
Ġthe n
1 7
Ġmod el
p r
t il
Ġres ult
1 6
ur ing
le t
us e
ĠTh is
ou gh
ro up
19 8
at ing
u al
r al
Ġ under
Ġl oc
p os
d er
o od
Ġ [
Ġg ener
ĠD e
et h
it ies
fer ences
c es
a x
2 1
Ġp h
l ambda
Ġcl ass
Ġp os
Ġs im
o y
Ġbet ween
s h
/ /
Ġs ome
Ġp ol
i o
Ġf in
Ġsh ow
Ġk n
p art
Ġof f
il m
o ot
Ġv al
an n
Ġre c
Ġ {\
ĠN ew
Ġa fter
Ġo ur
ro ugh
ĠC om
s c
Ġcon st
Ġw ould
r on
Ġf unction
ay s
id ent
Ġab out
Ġa ct
Ġan y
u res
od e
iz e
o x
is e
Ġe qu
ic k
re d
le m
âĢ Ŀ
ĠA l
< /
mathb f
b f
il on
in s
ist s
Ġin v
Ġs he
Ġ }
t t
c he
Ġst ud
ou n
Ġpro du
it s
il ity
ps ilon
ad e
al ign
Ġf e
Ġc or
ub lic
1 3
w id
p i
Re ferences
re n
ar ch
oc k
i ent
Ġat t
1 4
o ok
o ve
il y
Ġpro v
Ġ est
or ld
con d
meric an
Ġas s
Ġus ed
Ġp r
Ġdif fer
Ġn o
s igma
i k
id er
at ure
ĠP ro
ru ct
Ġp ar
Ġsy stem
19 7
ch ool
ment s
u es
Ġpe ople
c ess
ĠL e
r t
p ar
ab l
Ġe ach
^{ -
Ġthe se
Ġ( \
us s
Ġl in
Ġm at
Ġg iv
b all
1 1
Ġm ost
ib le
ow er
a ir
is ion
Ġ Z
se ction
Ġf l
w n
b eta
\ \
} {\
Ġp oint
t y
Ġe ff
s et
Ġthe m
is m
W e
t on
Ġs m
oc i
as on
Ġb l
Ġ *
ul l
o h
Ġn umber
2 2
Ġus e
it t
is hed
+ \
ĠF or
b ar
Ġre t
Ġm ay
math rm
Ġb u
g amma
an y
g an
Ġs pec
Ġin d
E x
e ver
p ut
m in
* }
iz ed
Ġ Q
Ġth rough
Ġex t
ire ct
h ip
am es
Ġw ell
Ġsu pp
re at
r ho
ivers ity
Ġpro b
n ing
r ing
em ent
ĠĠĠĠ Ġ
y n
ction s
Ġd ata
as h
Ġs ol
Ġs ign
i ke
Ġs erv
Ġex p
el f
T h
he re
Ġ ent
ot e
Ġf ilm
3 0
c ol
Ġl ine
Ġv ari
a h
^ \
19 6
Ġc ent
ar ray
2 5
Ġapp ro
at or
Ġa m
or th
p end
p le
] {
a id
ra ct
the ta
ĠS h
ou th
ur y
an ge
le q
d elta
) }
Ġag ain
ĠC on
Ġdiffer ent
m an
S t
Ġ ed
Ġs ur
he n
Ġ end
ĠĠĠĠĠĠĠĠ ĠĠĠ
en g
if e
Ġth ree
Ġs ame
ar s
Ġc ur
al e
Ġc ase
Ġo per
ĠâĢ ľ
c dot
Ġre p
$ -
u ch
Ġin st
er n
Ġf ound
t s
Ġa c
Ġh im
ĠA n
Ġg roup
Ġb oth
Ġg o
et s
em b
ta u
ĠI nd
Ġs ing
Ġn on
Ġm in
iz ation
Ġpart ic
Ġ x
Ġh igh
}$ ,
vel op
s y
at t
Ġyear s
}$ .
Ġs er
ical ly
ow ever
ut e
w ay
Ġse cond
ion al
u c
i er
Ġ '
ar ge
Ġ i
Ġfollow ing
wid th
a z
n er
ic es
Ġ X
fig ure
b ig
} (\
f ore
eq ref
tern al
ĠC ol
Ġt erm
ar ly
ĠA s
ĠA merican
Ġb ack
Ġt y
Ġst ate
in al
Ġd uring
g y
Ġus ing
er t
Ġc all
it em
5 0
Ġle ad
ar row
n u
a j
Ġf ield
e e
qu ad
Ġe le
Ġper form
part ial
t imes
et er
Ġe m
Ġor der
ir c
Ã ©
ĠC l
ric t
ou se
ft y
Ġcons ider
Ġf am
Ġwh ile
til de
m m
Ġte am
t en
Ġ .
Ġgiv en
g et
ot her
amp le
in fty
in es
iv er
as es
ur al
ro ss
Ġde c
ag es
f or
Ġdis c
00 0
ĠUn iversity
iv ely
at her
p en
Ġbe ing
Ġdes c
om ega
Ġd et
Ġar t
eth od
Ġbe c
19 4
f ul
ot s
ul ation
eq n
ers on
Ġf act
over n
" ,
. ,
an k
in ing
Ġm ade
ut h
Ġre le
2 4
ĠS c
olog y
Ġman y
ĠUn ited
p m
Ġsm all
e y
| \
al ity
ant s
in k
" >
Ġst r
ca use
a u
Ġret urn
v al
Ġm on
at ic
Ġre qu
Ġse e
ire d
Ġd irect
Ġc re
iv ed
ent ial
Ġm ed
v ar
form ation
Ġ z
in a
us ic
s erv
oot ball
Ġl ike
en e
Ġg et
Ġb el
Ġin f
2 3
ran g
Ġeff ect
D elta
re nt
ore m
v ed
Ġl ong
Ġs aid
b y
o ber
se c
Ġc a
Ġc ount
r id
el s
l ed
Ġde velop
he s
x i
le y
Ġch ar
Ġn ow
cent er
Ġp op
v ent
Â ł
Ġst art
oh n
v en
ĠE ng
are d
de f
\ ,
Ġc ould
vi ew
iv ing
Ġbe fore
Ġex per
* *
ot t
Ġt r
ĠA r
l o
m e
ak ing
Ġw rit
s im
Ġs ince
Ġcont in
Ġne ed
Ġf our
iss ion
ver t
Ġkn own
Ġm ain
ch n
Ġe very
Ġj ust
Ġplay ers
Ġp ublic
ist ory
Ġresult s
)$ .
om en
Ġlin ks
Ġan al
ab ility
ĠI s
ĠS he
th s
Ġ$ (
an c
Ġob tain
sp ace
ĠO n
Ġsupp ort
ri x
ct or
} }\
enc y
. "
an e
our ce
i or
19 5
ĠM ar
iv es
on t
$ $
Ġ u
ff ic
w here
en n
ra d
Ġm ov
i qu
v ers
ro p
p ond
Ġinclud ing
g ram
} [
Ġg u
Ġd r
e b
y le
Ġp resent
Ġb ound
ce pt
Ġr ight
ĠA d
Ġex pl
Ġwh at
Ġpar am
og raph
er r
Ġrep resent
un e
Ġin cre
Ġm ethod
eqn array
Ġme as
Ġn ame
Ġe lect
ĠP h
e psilon
le x
iv al
Ġl ater
Ġrec ord
Ġo wn
ĠCom m
s q
Ġbe cause
b m
Ġor ig
i ence
e c
if ied
Ex ternal
Ġse ason
b um
ĠSt ates
Ġ very
Ġpro cess
um n
ĠC ount
Ġm et
Ġr un
ĠP l
Ġad d
ar ri
it al
C h
ĠS p
ĠB l
Ġl arge
o o
O m
s on
Ġagain st
u ally
Ġm ass
ar n
m p
ro du
Ġdesc rib
ag n
Ġev en
} _{\
Ġs chool
ener gy
2 7
Ġser ies
Ġp res
.. .
c er
in clud
Ġb ased
Ġ ,
u ro
n ess
Ġ /
2 8
c o
Ġm ult
ĠB e
2 6
) )
ps i
re l
ar m
os s
Ġcon dition
Ġo pen
Ġf ind
or ks
Ġpos s
ra w
Om ega
ir d
ĠM ay
P h
Ġdes ign
Ġval ue
Ġst ruct
a f
)$ ,
Ġdist rib
Ġres pect
ub l
Ġpro per
as k
Ġloc al
Th is
a i
n ot
is ter
mb ol
t ing
Ġchar act
ĠJ ohn
Ġ :
ag ue
ang le
vi ous
Ġy our
^ *
et w
ur ther
al th
ĠF ig
Ġ$ {\
Ġgener al
ĠF ran
Ġob serv
Ġsp ace
s k
r ation
Ġv i
sq rt
r and
Ġprob lem
g er
Ġse ver
re ad
b e
ĠN ational
Ġbu ild
1 00
I t
et y
Ġdo es
Ġh ow
Ġin de
Ġest abl
G amma
Ġcomm un
" .
Ġto p
res pond
an u
in c
v are
ĠW orld
F or
ol ution
Ġre ce
-- --
Ġsh ould
ĠT e
Ġl im
ĠA ust
Ġth ose
4 0
20 21
id ed
i am
ro l
Ġl ast
r is
v es
Ġf ootball
Ġfam ily
it ive
r ist
m ed
20 20
Ġra d
Ġpro f
vare psilon
d ay
ĠĠ Ċ
19 3
id es
Ġd id
Ġm y
ut ions
ial ly
Ġre st
overn ment
Ġh and
2 9
ĠA nd
Ġst and
Ġal bum
Ġw ay
e k
i um
tern ational
Ġal low
Ġp a
201 6
p or
Ġt est
201 8
ur ch
at eg
rac k
Ġm ake
b l
Ġas sum
Ġ\ ,
Ġd ue
Ġre ma
Ġl ist
201 0
ĠâĢ Ķ
Ġre al
Ġg ame
Ġre m
raph ics
sub section
Ġb ro
201 7
) =
ĠC an
Ġ čĊ
^{ (
ĠC ar
Ġre port
ri pt
Ġcall ed
is ed
right arrow
A s
ian s
201 5
e f
cc ess
ac es
}^ {\
Ġd en
Ġp ower
ĠE x
Ġ energy
} =
text bf
in ess
b s
Ġst at
20 19
Ġhe l
201 4
ward s
im ens
at ely
f ra
Ġn ear
Ġa round
Ġcon tain
l ess
ĠN ov
Ġb ir
Ġsing le
Ġ ident
re t
Ġl ife
il ar
o le
r um
ĠCount y
um er
Ġcor respond
ĠC ent
i ous
b old
Ġc are
ĠA t
at ch
Ġal ong
ĠW ar
Ġle vel
Ġt em
ĠS chool
O n
Ġw orld
Ġre ad
Ġo pt
Ġd own
aj or
Ġle ft
om et
Ġbec ame
Ġg ra
Ġad dition
Ġo cc
201 3
ĠO r
Ġ ve
emb ers
Ġest im
er o
201 2
Ġa v
Ġim port
Ġ el
ĠB rit
ĠH owever
201 1
ĠJ u
ĠW h
ĠA ll
Ġpro gram
Ġp ass
ĠG e
if y
Ġs cal
ith m
eg raphics
includ egraphics
Ġw in
Ġwith in
Ġsever al
ak es
Ġun til
i j
Ġcur rent
rang le
ĠS outh
Ġkn ow
Ġab ove
um b
Ġor gan
Ġm uch
re en
Ġare a
ch i
Ġmeas ure
s ide
n on
Ġc al
Ġde ath
up er
Ġin formation
c m
ĠY ork
ug ust
ve c
y m
Ġin it
ca ption
Ġs ong
anu ary
i od
Ġv is
am ed
Ġpol it
l og
Ġc ap
Ġg l
Ġch ild
Ġt ri
P ro
Ġpl ace
' '
ĠO ct
Ġan n
er y
Ġst ill
pt ember
g or
av ing
Ġm usic
C on
= =
Ġd i
var phi
ĠP ol
col or
Ġre f
Ġint eg
ord ing
o ard
il t
Ġcon f
Ġv ers
at ors
em ph
re m
am ent
Ġs um
' t
ĠP ar
en se
l im
ĠThe y
6 0
Ġs at
| -
ge q
pos ition
Ġapp ear
Ġty pe
a e
ĠG erm
us iness
ĠR es
ĠA ss
Ġl aw
Ġoff ic
le ction
od y
Ġp at
C om
Ġc he
w h
Ġre fer
m od
Ġl arg
Ġ `
et ers
Ġhe ad
ĉĉ ĉĉ
in ation
pro of
Ġte chn
ĠM arch
m ber
ĠP r
Ġpartic ular
al k
pr il
t ab
Ġto t
200 9
ur s
Ġs l
end ed
os ed
ĠĠĠĠĠĠĠĠ ĠĠĠĠĠĠĠ
Ġb est
e ction
Ġt ake
orm al
Ġcontin u
ĠI f
Ġd em
200 8
. ~\
amp ions
ist or
ĠJ anuary
om an
x im
ĠA ugust
ens ity
E R
l ing
Ġcharact er
Ġbe h
ang u
p on
ĠSe ptember
over line
Ġh y
Ġex ample
Ġf re
ens ure
Ġfin al
sy mbol
ĠM an
Ġhel p
if t
ĠG u
Ġp erson
A l
che s
re g
S T
Ġm ark
am pl
o id
etw ork
Ġp ost
ĠM in
Ġs pect
ĠOct ober
ce mber
) ^
& \
- >
a im
at s
le ge
Ġb and
( )
l ish
Ġcomp ut
H e
is on
Ġsim ilar
uth or
Ġsh own
gor ithm
B ig
ref ore
ĠI I
. }
ific ation
ĠAust ral
le v
ĠE uro
ug g
c or
Ġev ent
ĠJ une
Ġfollow s
ĠU S
Ġb as
A R
un g
as ter
g round
pl ay
Ġpoint s
Ġstud y
Ġre du
Ġh ig
Ġval ues
: //
Ġe arly
bold symbol
se e
Ġfor mer
ore d
im ent
Ġc our
or ies
Ġl ow
200 7
or ph
fra k
im al
Ġg ood
Ġde pend
Ġpre vious
Ġinter est
g es
}, \
[ \
ĠA pril
ĠJu ly
t r
l u
at ures
ord s
c ul
200 6
Ġhe re
f ace
Ġc rit
ĠN orth
Ġqu ant
8 0
at ter
Ġd er
ill ion
eng th
l er
Ġ et
} ).
Ġad v
Ġm ap
ĠC ity
an ces
Ġse ction
I N
ĠC al
Ġle t
Ġass oci
3 3
n ect
Ġh ome
ĠSt ate
Ġint rodu
L et
Ġshow s
Ġd om
it er
al es
Ġob ject
op e
Ġw on
9 0
Ġpos ition
Ġwith out
Ġen g
ĠC o
Ġex pect
ist ic
Ġpro ject
Ġc ar
ĠA rt
ĠNov ember
ys is
Ġim p
um ent
id d
Ġplay ed
b ra
st it
A n
ĠDe cember
ĠS te
Ġtot al
Ġp ubl
b le
Ġd ay
Ġmodel s
Ġdet erm
com m
Ġrele ased
4 5
h line
ĠY ou
Ġm ust
Ġh old
il it
mm et
} }$
Ġp ot
le ar
Ġdef ined
Ġth ough
eta il
in ition
ograph y
ur b
op er
Ġper iod
Ġterm s
Ġsh ort
w ith
Ġc ity
Ġd el
Ġl and
Ġsu ccess
g in
c ur
Ġis s
Ġne xt
Ġan other
in o
math frak
u le
) :
w w
h am
z e
b orn
3 5
A T
Ġle g
Ġm embers
ĠE d
ne y
oc ial
Ġdisc uss
et ic
l angle
ld ots
Ġm ajor
Ġst re
ĠW ill
ru ction
Ġa ff
Ġt it
Ġinv est
Ġs pe
pl oy
ĠEuro pe
or g
ac ed
ol l
Ġd eg
eb ru
Ġch o
Ġdescrib ed
Ġg overnment
ent ion
ĠA f
ebru ary
ĠR eg
e ad
Ġcom b
os p
is f
yn am
Ġstr ong
l or
Ġcomp et
ap an
ir on
b ack
ad a
ĠT o
iv ity
Ġ //
Ġcomp let
Ġb re
Ġs k
A S
ĠBrit ish
n o
ri es
Ġl a
app a
L ambda
Ġw omen
S ee
i ents
um an
th ough
ix ed
Ġcomp any
19 0
Ġdistrib ution
Ġex ist
Ġch ang
ĠB y
Ġo ld
Ġo pp
Ġt urn
Ġinclud e
Ġme an
Ġstruct ure
Ġman ag
pos ed
u k
st er
' ,
Ph i
ampions hip
a ction
i pp
al f
20 00
Ġcont rib
il le
Ġs ize
od es
se qu
m ult
olog ical
st r
Ġpre d
Ġa ver
ĠLe ague
f ield
200 5
ĠCh rist
Ġf ew
Ġimport ant
u pp
Ġph ot
ĠThe re
Ġposs ible
us ed
iv id
ent ly
I D
Ġreg ion
d is
ĠK ing
Ġ @
pl it
ĠP art
an a
Ġf ull
âĢ ľ
iqu e
7 0
Ġprodu ct
it her
7 5
ĠM ed
our n
du ct
pl ic
our ces
er ing
Ġt imes
n ew
ot imes
y l
Ġ err
ĠF ebruary
us h
Ġst ates
Ġbir ths
ĠR ep
mb ox
Ġs ide
Ġty p
ĠA fter
Ġexp ress
cite p
ight s
Ġv ol
Ġsign ific
ide o
k appa
e ps
ud e
Ġe as
w ays
Ġre se
Ġc ou
] $
ra g
: :
ra ft
cent ury
. âĢĿ
ĠM c
ic le
s elf
Ġpot ential
on y
ĠN o
Ġe p
ĠThe n
n abl
em pt
O N
Ġf urther
ĠB ar
Ġvi ew
ri end
ĠH ar
s m
Ġg row
Ġm agn
Ġ >
Ġpro m
sub set
U n
ie f
Ġcont rol
con om
h t
ĠC or
3 2
Ġto wn
oun c
Ġfilm s
ren ch
Ġappro xim
Ġcare er
3 1
Ġl ess
\ |
lect ed
ail able
ĠW est
Ġb usiness
es e
} )$
Ġm ax
t ies
Ġd iv
Ġph ys
Ġpop ulation
Ġinv ol
o ad
Ġ< /
angu age
non umber
Ġse qu
200 4
ĠN e
Ġs it
. \
ĠS w
Ġc over
Ġk e
âĢ Ķ
are nt
Ġl ook
Ġ #
Ġstand ard
ĠA rm
ĠS y
Ġp o
ess age
m at
Ġ ide
nabl a
ke y
lev ision
ac ks
Ġj o
o ff
text it
ĠL et
Ġsat isf
w ide
Ġto ok
Ġa ut
ensure math
Ġg ames
ĠM e
ict ion
} ),
Ġcomp lex
Ã ¡
cl us
Ġf ree
Ġm ember
Ġth ird
T o
on es
b it
Ġim pro
st and
Ġpa per
Ġf ive
ond on
im um
Ġcomp on
Ġhe ld
Ġm ot
u x
op t
a int
f ord
Ġobtain ed
Ġperform ance
Ġd ensity
20 22
ĠD ist
9 9
Ġorig inal
ot es
i us
\ [
Ġthe ory
}} {
il es
a ul
Ġh istory
P s
re w
Ġw ant
il de
Ġh ouse
c irc
Ġs ay
B y
ĠH is
ĠA b
Ġs elf
s f
\ %
Ġbe gan
Ġ )
Ġloc ated
Ġn amed
Ġg reat
ĠB ut
ĠJ apan
i i
c ap
Ġinde pend
Ġre d
ĠEng lish
oo ks
c it
Ġestabl ished
op h
ad em
ĠThe se
Ġal gorithm
l ation
Ġn etwork
Ġr ange
ur g
ord er
Ġsol ution
Ġ es
n a
Ġch ange
Ġcl ub
ener al
in ally
ra in
Ġam ong
Ġfe ature
Ġde b
Ġa ge
Ġb ook
our s
A merican
Ġind ic
ed er
t ime
u ck
ĠS an
e ople
S igma
c hed
3 6
ab les
Ġst ation
Ġfunction s
ab ly
u ation
is ing
Ġl ight
Ġin s
ro ll
Ġre pl
~ ~
it or
Ġpro te
} ;
Ġd etail
Ġsignific ant
al d
Ġanal ysis
t able
ĠA m
ĠAf ric
Ġle ast
Ġw ater
y pe
Ġof ten
Ġprof ess
ĠR uss
3 4
ip le
.. /
\ !
Ġspec ial
dot s
n ow
ĠE n
Ġrece ived
Ġav ailable
as ing
Ġv ill
h old
Ġal ign
d raw
Ġar g
Ġmat rix
ut ed
Ġl ower
Ġs ix
Ġan t
Ġlim it
p d
Ġa ction
ric k
Ġr ate
Ġchild ren
Ġa ir
s er
m l
Ġa uthor
Ġsystem s
ĠE l
Ġparam eters
Ġconsider ed
wid et
Ġapp lic
v iron
ĠS ch
Ġ- -
id ence
Ġg raph
ak en
Ġequ ation
ĠL ondon
Ġconst ant
Ġserv ice
C l
Ġf ac
Ġappro ach
Ġc ross
sp an
b ox
itt le
Ġrel ations
ĠL a
Ġcomm on
Ġed uc
ab or
Ġpubl ished
fer ence
ra p
ut es
le ment
Ġvari ous
Ġar ch
at ural
ob al
Ġre cent
Ġbu ilt
4 8
Ġpr iv
Ġw orks
Ġm om
Ġinclud ed
Ġs w
Ġw ar
al y
ĠA ir
Ġrespect ively
200 3
ĠO ne
re st
Ġvers ion
Ġc ases
ĉĉ ĉ
Ġf ore
Ġc er
Ġ enc
ial s
ron t
ĠA meric
A N
d om
Ġst ar
row n
Ġn ational
Ġro le
widet ilde
F ig
Ġaver age
Ġdif f
ch ie
Ġcol l
Ġm en
Ġcl aim
ĠD av
ĠCol lege
arri ed
Ġd on
e v
if f
Ġp ri
Ġind ivid
Ġp ract
ampl es
ĠH igh
ounc il
Ġc amp
w are
Ġp air
t rans
9 5
r ary
ĠĠĠĠ ĠĠ
/ \
Ġ q
Ġhig her
ure d
Ġfe atures
ĠA pp
i ber
ĠS er
Ġse par
con t
d iv
3 8
ĠM on
} -
ing ton
g ed
Ġcount ry
Ġ` `
Ġbec ome
Ġc ost
6 5
ĠCh ar
Ġc irc
{ -
Ġtem per
m ost
6 4
ort s
c ast
Ġh aving
op s
Ġf oc
b or
I f
d d
A C
i et
ĠĠĠĠĠĠĠĠ Ġ
R E
ĠĠĠĠĠĠĠĠĠĠĠĠĠĠĠĠ ĠĠĠĠĠĠĠĠĠĠĠĠĠĠĠĠ
l in
Ġc ell
z eta
ĠH ouse
th m
Ġf low
ĠP res
a ugh
ĠA g
Ġspec ies
Ġse en
Ġtra ining
Ġcorrespond ing
\ ]
Ġbuild ing
b r
ad d
a ut
ĠWill iam
and om
st yle
Ġcons ist
ĠH er
pr ime
200 2
a ult
ĠP ark
0 5
es tern
200 1
arg et
Ġqu est
Ġcondition s
Ġh owever
Ġprov ide
Ġann oun
Ġ ver
ilit ary
h a
S S
in ter
Ġrese arch
ut ure
Ġf und
Ġwrit ten
get her
Ġbet ter
Ġto gether
Ġinit ial
Ġb i
in ary
Ġc r
ĠD ep
Ġcommun ity
ul a
) (
ĠCom p
Ġg en
er ed
Ġg e
R es
cre t
Ġst yle
0 1
ĠL em
ip s
ĠW ith
ugg est
ĠF rench
Ġac ross
Ġh om
ly ing
h ib
Ġph ase
Ġpr im
Ġn eg
h tt
center ing
Ġcal cul
Ġbl ack
ar ian
3 7
ĠThe orem
Ġev ents
ĠB ro
Ġs uper
Ġcon nect
I I
iv en
ĠQ u
am s
om orph
\ {
ĠG l
Ġplay er
) =\
Ġe ar
Ġpl an
pp er
Ġcent ury
he ad
} +
av y
ĠA ng
ic y
Ġl oss
ac y
Ġe ither
Ġt w
Ġbel ow
al t
Ġd imens
le te
Ġpro of
Ġfre qu
ard s
e xt
Ġw id
ce ption
rid ge
Ġp ath
u f
Ġserv ed
Ġpos itive
og n
Ġs em
al le
ĠP er
Ġb orn
em s
Ġab s
Ġgroup s
ĠC he
un ic
Ġdevelop ment
ĠCh ampionship
b ased
ri ption
Ġc ult
Ġmat ch
Ġtr ue
Ġp ort
Ġm illion
du c
Ġs ite
Ġa rm
ĠW hen
ourn al
Ġyou ng
Ġme ans
ar ies
ĠâĢ ĺ
o on
Ġth us
Ġc y
Ġth ink
Ġ( $
con st
tab ular
is c
ĠH am
r ant
ĠE q
v ing
Ġs uggest
4 4
Ġl ay
Ġk ey
Ġwe ek
an ish
att le
B C
Ġre view
ĠIn ternational
ĠPh il
ĠRe c
ĠDist rict
S e
; \
Ġassoci ated
} =\
Ġprodu ction
viron ment
ma x
Ġk ill
Ġacc ess
oci ety
cl ass
] ,
Ġtit le
ot ed
Ġhe alth
ĠGerm an
Ġd ays
sc ript
ch an
a ff
Ġt re
ul es
am a
) }\
Ġacc ount
Ġst ory
Ġh ard
a pt
Ġparam eter
ly mp
) ^{
Ġp ut
u ed
ffic ient
ar a
if orn
P l
Ġv ia
n ers
Ġl ik
ĠS m
Ġto o
Ġem ploy
Ġa chie
es c
Ġh alf
er a
Ġbe com
Ġin c
il ities
um e
Ġline ar
read y
5 5
Ġde v
A r
18 8
s cal
Ġg ive
Ġde p
---- ----
Ġlin es
ite ct
ĠM ich
, âĢĿ
r ig
b b
wh ich
O R
Ġro und
itt ed
Ġm ater
Ġte levision
( );
Ġs ocial
( "
s w
Ġne ver
ĠSe ction
iforn ia
t op
c os
et t
oci ation
ĠC up
Ġd at
ĠInd ian
Ġim age
c le
3 9
A L
Ġr andom
Ġg round
Ġreg ular
c y
ib ility
{ (
Ġt aken
Ġfin ite
Ġ& =
e al
Ġd ou
end ing
ann el
Ġab le
Ġs ent
Ġn ov
Ġsy mmet
Ã ³
s in
Ġs ource
Ġv ideo
o ch
Ġ ill
ex p
Ġh ost
land s
r ite
ĠSt re
S h
ĠA ct
ĠM ore
ĠEng land
Ġve ctor
Ġm aking
Ġf ail
Ġan g
Ġd ynam
or ge
l oc
in ated
Ġc ame
Ġm iss
Ġh uman
Ġd ied
ir m
Ġl og
Ġn umer
pon se
. ~
Ġte xt
Ġn orth
Ġprodu ced
Ġbeh av
ĠS ince
Ġcl ose
ho od
Ġl ength
I C
al ax
Ġf riend
Ġmethod s
th is
ĠT ra
use um
ac hed
ul ations
Ġal ways
** **
Ġs on
ig en
oy al
Ġstart ed
Ġcor re
$ )
um p
ĠC O
min ist
om b
Ġb ase
Ġn ormal
m on
Ġpro posed
Ġf ar
}^ \
cdot s
ĠA c
Ġl ed
a pe
Ġproper ties
Ġind ust
Ġof fer
Ġm ight
Ġact iv
port s
4 9
Ġh istor
Ġobserv ed
ge bra
m ar
Ġl ate
ĠCal ifornia
Ġinvest ig
ĠR iver
em ents
p re
her s
Ġm er
ĠAustral ia
Ġp ress
Ġmom ent
m id
Ġcre ated
4 7
ic o
Ġal ready
ition s
6 6
Ġe mb
ĠInd ia
Ġsur face
Ġserv ices
Ġd ire
Ġreport ed
med i
o e
Ġw ind
> </
ell ow
ir l
Ġmult i
Ġd oc
199 9
Ġstud ents
}\ ,
ĠD iv
u ild
E N
Ġeng ine
r ated
ple ment
ic a
} |
Ġindepend ent
Ġcon c
Ġsc he
g en
Ġrequ ire
Ġ _
Ġrel ated
}_ \
Ġestabl ish
bs ite
ol ic
C ol
her n
s ing
Ġvill age
I nd
Ġfact or
A M
Ġme et
Ġs om
Ġh app
par am
g o
Ġconst ruct
iv il
Ġa way
c is
g ress
ac hes
D e
it ch
it z
Ġwork ing
Ã Ń
Ġcomp ar
Ã ¼
ĠS o
Ġbro ad
ic ro
v ille
Ġf ig
Ġproper ty
ce ed
Ġgo ing
lem ma
wide hat
Ġs outh
n ame
ĠV al
18 9
ĠE ast
Ġw ent
ord in
one y
v an
Ġequ ival
ĠRep ublic
t est
av es
199 0
and er
in n
Ġl o
ĠF irst
Ġr at
ĠAmeric a
ill s
I S
te e
h y
a el
Ġdeg ree
Ġannoun ced
Ġin put
ĠD r
Ġbel ie
}} (
q quad
Ġf uture
ot a
al se
op y
, "
Ġsim ple
ear ch
ĠB er
L iving
Ġex ists
id ing
Ġdef ine
Ġe conom
w ise
Ġun it
& =
sh ip
ĠT r
}) \
Ġpred ict
c ell
ĠC our
Ġag re
f oot
k n
ĠS im
Ġ\ {
ĠM y
Ġacc ording
âĢ ¦
om s
Ġz ero
Ġlarg er
Ġprov ided
s pec
Ġele ments
iz ing
Ġrequ ired
t d
L ist
l a
Ġerr or
Ġcl os
ed d
P eople
idd le
s ource
at ives
ul ated
ĠSt ud
Ġcou pl
c up
Ġt rack
Ġcer tain
} ]
text width
Ġf ather
Ġmov ed
Ps i
ac he
Ġexpect ed
Ġother s
Ġb ig
Ġpartic ip
g l
Ġset t
ens ion
ĠPres ident
it ing
k ing
> <
^ +
Ġs old
Ġf em
I T
ap s
o or
{ {\
ĠF rom
ult s
199 8
Ġt reat
il i
ist ics
Ġatt ack
Ġexper iment
Ġle ar
Ġmark et
Ġb o
com p
re am
Ġn atural
E C
Ġ Â
Ġbe gin
y ear
alle l
p oint
ĠFig ure
Ġanal y
li ke
nd er
li ed
Ġinf lu
ĠPart y
Ġdef inition
Ġpro p
0 8
Ġwh ose
Ġep is
Ġdist ance
cc ording
i res
Ġcomp os
ĠH ol
ell ing
4 6
u el
Ġc ut
Ġl abel
Ġcl ust
Ġp erm
N ew
Ġaddition al
ht ml
Ġf ixed
Ġdet ect
E S
Ġcomp an
d own
The re
Ġex act
ĠB el
app ro
p ons
Ġdist rict
}^{ (
qu are
A A
Ġsequ ence
le g
Ġin ternational
Ġpriv ate
itt ing
Ġtemper ature
Ġt arget
te x
ad ian
k y
b and
Ġpop ular
Ġele ment
Ġprob ability
qu e
Ġen ough
Ġpolit ical
ĠM or
ve y
, -
s l
ĠM ark
oun ter
Ġp ay
Ġscal e
0 7
Ġr ather
Ġcom e
ĠC ouncil
ĠA ward
Ġm ale
ĠA nt
ĠP ort
Ġon ce
ou d
id s
Ġp ur
at ory
Ġb ody
at rix
ĠS erv
0 6
stit ute
Ġdeath s
Ġconst ruction
ĠEurope an
ac c
Ġev al
Ġa ward
e le
Ġperform ed
Ġdevelop ed
ra int
ra ction
ur ation
ĠCan ada
k ed
Ġim pl
E D
Ġd est
Ġatt empt
ul let
Ġex ec
ty pe
ĠLem ma
Ġm em
Ġne igh
Ġcent ral
Ġs ens
Ġp ast
Ġp an
Ġl iter
../ ../
Ġquant um
L e
Ġ$ (\
Ġgiv es
ĠD es
ens ive
ĠO lymp
H istory
ber g
Ġal most
7 8
Ġne cess
Ġcontain s
) ]
Ġ* /
Ġre ason
A t
Ġare as
Ġsp in
ĠP aul
ain ed
sm all
Ġfoc us
Ġlear ning
ĠFran ce
Ġlead ing
ĠP al
A P
ĠD em
}\ \
ĠStre et
ĠJ ames
Ġtra dition
rac y
art ment
ic les
Ġeffect s
Ġent ire
A fter
Ġl anguage
Ġr ank
and id
oc r
ic ol
ast ic
ĠR ober
Ġassum e
all s
ĠCh urch
oun tain
ic ult
ĠM al
g color
r im
it es
Ġst ep
' $
ir t
0 4
Ġl ittle
m ore
ort hern
ro te
pd f
ĠG eneral
0 9
end s
Ġoper ator
ĠP at
ĠR ed
Ġc ateg
ĠTh om
ĠArm y
pro p
0 2
d en
ĠTh at
Ġc le
on ic
S c
Ġs ays
m y
199 6
ber t
im ate
u ra
Ġele ction
ĠF l
Ġmult iple
ĠP e
ĠI m
Ġn ode
a ign
B e
199 7
Ġg alax
ĠDav id
cit et
math sf
in f
ĠS en
Ġh or
Ġt aking
Ġrec ogn
Ġinst ead
Ġl ive
Ġwork ed
s el
Ġro ad
r r
Ġme chan
Ġcomp lete
y a
ar c
ĠM a
ĠL aw
6 8
Ġim plement
Ġcl osed
) -
198 0
} +\
st e
Ġcont ract
Ġspec ific
ĠCent er
ag o
Ġke ep
( {\
Ġbound ary
Ġunder stand
Ġdi ag
Ġt ry
ain s
Ġwhe ther
an i
Ġst ars
Ġintrodu ced
ta ct
u ff
Ġb gcolor
ĠD i
ort un
at ively
Ġpresent ed
7 7
equ iv
ĠTh us
if orm
Ġfield s
st ar
Ġm id
Ġc lear
f ill
Ġthe refore
Ġvi ol
ut ive
Ġ& \
Ġwe ight
5 8
Ġback ground
0 3
ĠR ich
ress ion
en ed
k en
ust om
ther n
ĠG roup
d imens
C O
wo od
Ġarch itect
Ġh ref
Ġwe bsite
| |
ĠCh ina
o res
Ġsub ject
ar ily
ran ch
ĠQ ue
Ġocc ur
Ġcomp ared
Ġchang es
Ġd one
m ark
i ers
oper at
Ġar r
h space
ĠBl ack
Ġg as
k a
umb ers
ĠS um
Ġm ag
m ing
ou l
ĠR oman
Ġequ ations
kn own
Ġs ound
u it
Ġen vironment
operat orn
sk ip
m essage
Ġl ost
ri ate
Ġbl ock
as ons
ĠGe orge
ĠB ra
ĠT rans
ari ant
end er
Ġso ft
s ize
ou thern
Ġpres ident
ĠAss ociation
x space
ari o
Ġpri or
sc r
Ġinclud es
ĠE m
o oth
h an
ĠĠĠĠĠĠĠĠĠĠĠĠĠĠĠĠ ĠĠĠ
Ġpolit ic
} :
Ġbre ak
Ġle arn
operatorn ame
p ol
== ==
Ġpart y
A d
Ġs ample
199 5
Ġincre ase
Ġden ote
th ing
il ton
Ġadd ed
ind ent
4 2
p ite
Ġm ilitary
ĠM od
Ġcor rel
Ġeffect ive
Ġ rac
Ġapp oint
Ġgo al
Ġ Ã
Ġrele ase
ish ing
Ġla un
Ġstud ies
. )
Ġmed ia
ri an
Ġsol utions
al ian
Ġstr ateg
W ith
Ġcan not
id a
e ff
Ġpr inc
c ode
ĠDep artment
Ġed ge
val ue
Ġmon ths
ĠU K
6 7
ĠH all
Ġgl obal
Ġcour se
y ing
led ge
is k
on al
ag ed
ĠG o
Ġcon duct
n eq
ip al
) }{
Ġset s
}} {\
Ã ¶
n ode
p a
lo ad
Ġca pt
u z
st ate
Ġbas is
I nt
G e
Ġres pons
Ġm akes
it tee
ash ington
st on
Ġst age
ree k
} -\
Ġhold s
el oc
Ġre ally
Ġch all
C C
n ote
t ic
| ^
ĠCour t
Ġtrans fer
5 00
ed ge
Ġcent er
Ġdire ction
N ame
Ġadd ress
Ġw rote
v olution
p ot
Ġteam s
it ude
9 8
and s
in i
A ll
Ġsuccess ful
ĠDiv ision
he l
r ast
ĠR oyal
r d
ict ure
Ġeff ic
ĠT V
ul ly
5 7
Ġeduc ation
Ġdiff icult
the orem
M S
Ġnov el
Ġf ront
li er
ad es
199 2
g roup
ar ing
Ġcompan ies
Ġg ot
199 4
T ype
Ġgra du
ĠD on
Ġ vert
a ctions
ow s
ct ors
Ġreturn ed
Ġindivid ual
Ġc ode
I d
Ġmat ter
Ġprov ides
vers e
ĠL ou
Ġdirect or
ott om
c ing
cur ity
S ince
' )
Ġ- \
ign ed
Ġs up
scal e
is es
O S
Ġreg ard
ĠAustral ian
Ġc andid
ra b
un n
Ġal though
Ġdem on
Ġf il
ĠGerm any
ĠM art
F rom
Ġquest ion
r ame
Ġm ar
Ġjo ined
ĠL ist
Ġnot e
Ġprofess ional
Ġm arried
Ġam ount
\ ,\
4 3
e ared
umer ate
Ġin j
ĠB ay
Ġra il
Ġh on
Ġwe ak
Ġde cl
U S
un t
Ġche ck
( '
Ġac cept
ĠIn ter
ĠN or
ĠUn ion
A nd
Ġmet ric
Ġf av
iz es
ww w
p ly
ĠC ons
Ġk m
Ġdiffer ence
c ial
Ġrad io
_ _
Ġv ict
ĠB r
n es
eth ing
ĠR oad
dimens ional
Ġde al
Ġst e
Ġimp act
Ġim ages
] \
ĠCon t
ib rary
Ġequ al
Ġres ponse
4 1
c an
Ġt en
Ġimpl ies
Ġdat as
S p
Ġrelations hip
f in
Ġa ud
eder al
Ġtrans form
en umerate
op p
Ġs af
Ġdef e
T e
P S
Ġv eloc
Ġphys ical
n ce
5 6
197 0
Ġp ers
Ġpro ve
Ġpart s
Ġt akes
L E
Ġproblem s
omorph ism
i os
ĠIn stitute
Ġel se
th at
pec ially
ach ing
op l
ĠM usic
Ġfl u
d ag
f unction
pp ed
Ġcon ver
ĠS ing
Ġg re
Ġcon text
5 9
Ġrest rict
199 3
Ġcontinu ed
Ġk ind
ous ly
l ight
Ġqu al
ma p
Ġcre ate
at al
im port
ar ter
) }$
) {
Ġup d
Ġwh ite
Ġun ique
Ġn ight
D E
Ġu pper
b ullet
b oard
Ġdirect ly
Ġaff ect
Ġad j
Ġsong s
Ġco e
ĠD o
k er
Ġf ram
Ġcont ent
Ġoff ice
Ġconst raint
item ize
I m
e an
est ival
Ġal gebra
ĠM ary
Ġopen ed
ĠS ociety
Ġdisc over
Ġincre asing
Ġra ce
ĠD uring
ch ange
h i
Ġpa int
ĠV ir
Ġs ources
Ġlarg est
ĠG reen
ĠWh ile
as c
Ġass ist
Ġh tt
Ġdeb ut
Ġw ords
Ġbecom es
ĠW ashington
Ġon line
os en
r ate
Ġb ene
math scr
ĠAc adem
Ġexper ience
Ġcompon ent
on a
Ġp arent
ĠComp any
Ġin du
b re
$ }
no indent
Ġn umbers
ines e
ask et
at form
Ġits elf
s up
ĠI nt
Ġup on
m it
ĠDe f
i ences
Ġre ve
Ġ ess
Ġd augh
Ġl ove
Ġform ed
Ġsmall er
clus ion
Ġdoc ument
b ound
ĠIs land
Ġac qu
ist ry
Ġcamp aign
ĠCl ub
Ġcompon ents
Ġrecord ed
ed y
199 1
Ġrel ation
Ġmagn etic
Ġde part
Ġdesign ed
ru le
Ġcomplet ed
osp ital
Ġm ention
Ġev olution
Ġ ~
im ents
or ing
us es
Ġbro ther
an ks
Ġmax imum
Ġch urch
ĠM ex
ĠV ol
W h
C D
umn i
Ġfor ce
in de
re c
8 8
Ġsign al
Ġlik ely
Ġdirect ed
it ar
Ġmod ern
ĉ Ċ
Ġf ire
Ġe ver
er ve
Ġout put
Ġro t
Ġhim self
Ġw ave
ĠP ress
Ġco ordin
Ġsc en
Ġinde x
ent al
f rom
" )
Ġf ight
ĠG ra
Ġw rite
ĠC ap
Ġ ut
Ġad minist
Ġv oc
Ġthrough out
Ġfollow ed
Ġm other
Ġus ually
Ġpol icy
Ġse arch
Ġb ar
Ġinvol ved
\ }$
b urg
Ġrepresent ation
/ >
ĠB est
Ġy ield
Ġplay ing
Ġst ri
ro y
v space
Ġpe ak
he st
ĠNew s
Ġn uc
ĠS am
Ġout side
enc ies
ĠH en
ĠAr ch
ĠN ot
V al
ĠM at
ĠS ur
Ġtrans ition
Ġw ife
Ġthe orem
Ġex hib
av a
Ġopt im
Ġt able
Ġelect ron
~ $
g ra
Ġst ring
Ġcrit ical
Ġoffic ial
Ġrem ov
ĠT own
ro s
Ġm ove
all ed
Ġ und
Ġd ig
appro x
Ġl iving
b ook
il s
Ġtra vel
Ġgener ated
ĠPro v
Ġes pecially
ĠM et
ĠM iss
al a
Ġfe el
W hen
Ġ( )
Ġb ox
Ġb oard
Ġapp lied
ĠE ar
Ġj ob
}} _
Ġre n
ĠG a
le vel
enc ed
ĠAng el
ĠO b
i ation
Ġcol umn
ĠThe refore
ĠG ames
6 9
Ġde cre
E T
ĠAfric a
ĠL eg
au ge
Ġiss ues
li ament
ref er
ĠT ex
b our
Ġth ings
ens us
P i
f l
Ġnew s
is ions
5 1
Ġus es
Ġdetail s
l ong
uss ian
Ġne ut
( -
in ct
Ġro w
Ġact ive
= #
ov ers
ĠG old
ĠA lex
Ġestim ate
g s
ĠWh ite
Ġsign ed
V ID
il ies
ag ing
Ġd raw
ol f
ĠD ay
Ġ Ð
w rit
Ġstud ied
m ary
Ġ\ |
Ġs us
k i
Ġt ro
Ġ _{
iz ations
Ġspect rum
Ġp ric
Ġwho le
ans ion
Ġcho ice
ĠSc ience
Ġto wards
ĠM r
f it
ĠY ear
Ġto day
Ġcol or
is ation
Ġs il
a ur
Ġbeh ind
Ġsom ething
Ġus er
Ġres id
g ence
& &
o z
B l
Ġe ight
A D
Ġcol lection
Ġprote ct
] .
Ġch annel
f ess
ot ic
Ġun its
Ġh ous
Ġindust ry
Ġallow s
Ġd am
Ġcurrent ly
Ġspe ed
Ġschool s
en a
Ġcon ne
) +
Ġro ck
ĠCan adian
Ġun ivers
Ġtyp es
ing u
Ġcon fig
Ġapp eared
Ġf ood
w ell
Ġreg ions
Ġright s
7 6
anc ial
O ne
r ish
ĠM useum
ĠT ur
Ġal tern
5 4
k m
Ġs ense
ret urn
ĠM ad
ra el
ĠF re
ĠRober t
Ġdemon str
Ġto ur
d ist
5 2
Ġc ast
g ing
Ġy et
Ġcour t
Ġim m
7 9
Ġf alse
ĠM ag
ĠG reat
t ra
Ġconnect ed
Ġl ot
Ġrema ins
Ġrequ est
ĠCent ral
Ġf all
mult icol
ĠRes earch
ĠH ow
Ġf ace
per p
um ents
Ġ$ -
Ġf it
Ġg ave
Ġo p
t urb
Ġsub sequ
ĠC ong
Ġdeterm ined
N N
}} }
ĠS l
Ġbehav ior
us ion
Ġthough t
ĠJapan ese
Ġe mer
Ġt er
Ġpol ice
ic it
ri a
ĠAfric an
Ġim medi
ann ing
Ġiss ue
Ġstruct ures
ĠKing dom
f fer
Ġ id
Ġ= >
St ring
Ġe igen
ĠD irect
ĠJ ust
The n
ĠMich ael
multicol umn
ĠM er
ĠR ad
Ġn ull
a res
196 0
Ġallow ed
a it
I R
Ġad apt
Ġloc ation
Ġper cent
us ing
^ -
Ġval id
M od
Ġj ud
Ġmater ial
ĠT able
5 3
ste in
ĠThom as
Ġacc om
at ur
Ġobject s
198 9
ĠM ac
ĠĠĠĠ Ċ
el ine
d ata
Ġill ust
Ġequival ent
p ret
o ice
Ġsh all
Ġrat io
ac ing
ĠH istor
ĠRuss ian
en ing
Ġm oney
Ġt ax
) {\
u als
The ta
Ġset ting
Ġcount ries
yn om
Ġperson al
Ġcom es
Ġdou ble
Ġprevious ly
Ġbir th
asket ball
Ġb ooks
Ġvari ables
Ġp ie
Ġconst it
Ġlead ers
Ġsupport ed
Ġde ep
s plit
ĠG rand
Ġwh y
under line
ĠO ff
ak er
Ġwid th
ĠD an
Ġor d
Ġneed ed
ol ar
ĠSc ott
" />
Ġse lected
Ġcommun ic
ĠHe alth
Ġch arg
ad o
ĠSy stem
ict or
Ġpat tern
ĠCl ass
ub e
d s
I M
line ar
Ġinst ance
ĠS al
Ġc ustom
ĠW il
ĠF ilm
Ġp ack
duc ation
ĠC ath
htt ps
Ġfor ces
Ġtrans port
Ġev idence
ĠT om
Ġn om
Ġst aff
oc ks
et her
ant ic
Ġw ord
Ġad m
198 8
ough t
p an
ol s
y e
ĠO ur
Ġmon th
D ef
Ġcon clud
Ġlevel s
Ġsur v
Ġ ir
9 6
ens or
ew ork
V ert
ĠF in
ify ing
ĠTex as
d ro
Ġd ram
trans lation
Ġcon cept
Ġstre ng
Ġalbum s
F L
in os
ran ge
Ġpro t
sel ves
Ġrun ning
Ġdom ain
un k
Ġveloc ity
Ġge omet
{ }
R O
Ġlong er
Ġepis ode
n s
Ġprim ary
Ġse x
Ġfound ed
ĠS ome
7 2
Ġm us
ĠS ub
Ġ$\ {
Ġpl aces
ĠW estern
Ġ !
Ġdec ision
Ġoper ations
ĠK ore
Ġro b
Ġide a
C ont
Ġsim ply
az ine
ĠAcadem y
ĠN ote
ĠJ ew
em ic
ĠG od
Ġd ark
ĠD el
Ġeval u
F F
Ġlim ited
}^{ -
v a
A pp
Ġb all
ĠMin ister
it a
Ġle ague
I s
# #
emb ly
ac ity
Ġd ate
Ġcorre ct
text rm
le ase
w est
Ġent er
198 7
Ġclass ical
el t
ĠIt alian
an o
Ġfrequ ency
th let
Ġact ually
ĠRec ords
Ġelect ed
L L
Ġg rad
ĠTe chn
ĠZ eal
Ġqu ality
Ġch arge
Ġpro ced
N ote
i ew
Ġrel ative
ĠCar ol
Ġse ven
ĠCh inese
ĠChrist ian
Ġd ed
Ġm ach
Ġart icle
y r
ĠVir gin
} /
Ġdaugh ter
Ġt ell
Ġs aw
ĠH ere
ĠS uper
Ġsp orts
Ġresult ing
Ġgrow th
z a
ri ef
Ġe ast
ag er
am ily
P ar
Ġw est
Ġdimens ion
Ġj ournal
w in
l n
ĠR ail
ĠZeal and
ĠS pec
Ġ\ ;
i ra
re land
ri al
ollow ing
pl ace
N ot
Ġrepresent ed
ĠF e
ab s
F ilm
Ġpre c
f ect
ĠLou is
omet imes
l ist
min us
re me
Ġproduct s
Ġt rac
ĠĠĠĠĠĠĠĠ ĠĠĠĠĠ
t ical
Ġst ated
Ġappoint ed
S P
Ġad opt
Ġre v
Ġdel iver
ĠDem ocr
Ġh ol
ĠF ound
ĠB o
in y
Ġpract ice
b on
d t
subset eq
] [
air s
Ġexpress ion
y p
b o
n orm
Ġover all
Ġl atter
Ġconc ern
Ġsu fficient
A B
Ġve h
ĠChar les
Ġh ours
Ġcharact ers
Ġmain tain
Ġun iform
Ġwrit ing
ĠPl ay
Ġear lier
pro d
w ar
6 3
< \
at re
l am
Ġh ot
om a
v ant
Ġf un
Ġpres ence
ol it
etw orks
d i
Ġfl ux
Ġext ended
Ġgener ally
Ġder iv
rough t
ĠSum mer
ta int
Ġnecess ary
r as
Ġun cer
Ġt ask
it ter
re y
Ġinst it
8 5
Ġfor ward
Ġincre ased
Ġa x
ĠR ob
Ġ: =
and ed
m s
ess ion
ĠSm ith
Ġrel ig
ĠM us
ĠT or
9 7
dis play
Ġcon tact
Ġgu itar
Ġfootball ers
Ġ$ |
198 6
Ġtechn ology
ĠF ore
Ġappear s
Ġqu ick
Ġrepl aced
Ġco ach
Ġneed s
ĠO ther
Ġin equ
Ġl at
Ġpl atform
ĠB ill
Ġstart ing
Ġpl ant
ĠFran cis
F A
a per
ot o
ĠL at
Ġg overn
F C
Ġp age
Ġlist ed
Ġst ra
b ur
Ġsm ooth
Ġn ature
W hat
ĠHam ilton
6 2
ĠF lor
Ġredu ced
Q u
Ġaut om
Ġkill ed
Ġbel ong
Ġg auge
foot note
198 4
irc raft
p ose
Ġobserv ations
ĠComm ission
os ing
ĠCO VID
ĠO ut
ĠB en
E ng
Ġapplic ation
Ġoper ators
Ġfig ure
Ġno ise
Ġa im
opl us
^{ -\
Ġal umni
Ġb ring
Ġneg ative
Ã ¤
Ġknow ledge
ĠĠ ĠĊ
Ġsc ore
Ġpol ynom
Ġsc ient
erm an
Ġcontinu ous
h ire
Ġfem ale
Ġin side
Ġhe nce
htt p
Ġs en
ĠK e
rodu ction
ic ago
comm and
Ġhig hest
text tt
Ġg old
ro ad
ĠW hat
O b
ĠF ootball
Ġgra v
ell a
Ġt ree
Ġc ivil
ĠOlymp ics
ĠJ ose
ell ar
Ġc red
Ġform s
it ors
c her
big g
Ġs eg
ro id
ĠP ublic
Ġrun s
Ġfam ilies
ĠB ur
ĠH istory
Ġs low
Ġbuild ings
Ġinf in
Ġinter action
_ *
if old
Ġto ld
6 1
vent ion
m es
Ġ( -
as tern
Ġb ur
198 5
ĠC D
Ġcur ve
cre te
M A
Ġhy per
ĠM el
ĠSe cond
Ġart ists
Ġ %
as hed
Ġorig in
Ġdis play
i h
ĠP eter
x y
Ġ& &
_ +
set minus
Ġapp ly
Ġtreat ment
Ġcomp act
Y ou
Ġ( $\
7 4
ar p
i pl
Ġevent ually
Ġso on
B S
Ġw ide
Ġmanag ement
ĠH ill
ĠRich ard
o ke
dag ger
og le
Ġreve al
Ġapproxim ately
Ġsche me
Ġocc up
Ġclass es
Ġtra in
ĠD is
er ia
Ġre ached
v is
ĠN ow
Ġan im
ri e
ed s
Ġcol lect
Ġch osen
ĠPar is
Ġdiag ram
Ġf ully
Ġb r
ĠM ass
F T
Ġh it
O r
ol a
Ġdiscuss ed
ĠS aint
Ġrecent ly
) |
à ¤
Ġpress ure
Ġthe rm
Ġsc reen
} '
Ġ er
Ġexp ansion
ĠS upp
ri z
Ġfin ished
Ġsh are
Ġlead s
ĠAn n
Ġrec over
Ġder ived
w edge
ĠIs rael
ĠSt ar
p ers
ian ce
Ġread ing
7 3
is l
O T
ĠO f
P r
\ }
ĠM ont
u a
al o
_{ (
Ġcontin ue
att ice
z il
ĠA ccording
c el
Ġrefer ence
Ġoper ation
Ġmot ion
B A
Ġg irl
Ġto urn
st ant
Ġcons ists
Ġmiss ing
Ġneigh bor
Ġem ission
Ġbound ed
Ġfour th
Ġst ations
Ġpat ients
Ġant i
Ġsh ip
Ġopp ortun
Ġ$ [
Ġsc ience
Ġvol ume
M C
u ge
art s
ann ed
f ile
Ġr ule
Ġorig inally
f e
os m
Ġn orm
c ome
ĠComm un
ist an
ir al
Ġexpl icit
S O
ĠL os
por ary
}} ,
Ġbegin ning
r at
ĠC amp
ig an
Ġdis e
cl es
Ġcom mer
Ġpl aced
{ $
Ġcon sum
Ġsymmet ry
g ent
Ġus ers
S I
ar an
ĠP o
Ġmap s
ĠFran k
Ġc ele
Ġmean ing
Ġpre m
iqu es
Ġform ation
b ody
N A
ĠL ake
Ġatt ention
ĠW omen
ol k
Ġcap ital
Ġbl ue
B ut
Ġche m
D ata
ĠV ictor
E E
ĠI reland
7 1
Ġinter pret
198 3
Ġmod e
u racy
Ġv oid
N o
line width
Ġ ens
ĠServ ice
Ġcult ure
uf act
d et
Ġn ames
Ġqu ite
}} _{
Ġp urch
8 9
19 50
T V
Ġestim ated
S C
Ð °
Ġmechan ism
ĠD en
Ġpan el
r ich
ca pe
Ġl ack
ĠD u
f lo
ruct ure
Ġvari able
ĠB rown
col on
Ġr isk
Ġdec ided
ĠG overnment
p ath
ĠO ffic
ĠB re
ĠT w
Ġparticular ly
ind er
Ġc am
Ġro om
Ġst atic
Ð ¾
Ġ= =
Ġvari ety
Ġd u
e ks
Ġin n
198 2
Ġf arm
ud d
k et
r ative
Ġw oman
ou ri
Ġnot ed
Ġf ast
ĠCath olic
Ġchang ed
Ġse curity
Ġsl ight
ĠR ock
M an
3 00
ir ing
Ġcon v
Ġeas ily
Ġt alk
Ġm unic
v ement
and a
anc y
par allel
Ġs amples
Ġart ist
ĠSp anish
Ġman ufact
et te
Ġsc atter
Ġcompet ition
Ġb rought
Ġmed al
Ġform ula
ĠT wo
ing er
Ġan sw
Ġrema ining
Ġit er
Ġgalax ies
ĠU nder
Ġdynam ics
Ġtradition al
Ġcon sequ
err or
ul s
il arly
ĠT er
Ġeas y
Ġr ules
$ _
Ġagre ement
st ring
m as
Ġc ounter
v est
sk i
b a
ail y
spec ial
uth ors
Ġmin utes
is hes
Ġcontrib ution
), \
oc key
mod el
N ow
av al
Ġse em
Ġinterest ing
ĠIt s
p at
.. ..
ĠP an
Ġopp os
Ġprodu ce
Ġst ay
Ġlay er
Ġmeasure d
in em
d o
ĠL and
Ã ¨
mult i
Ġmin imum
Ġhigh ly
oll ary
Ġb ank
)\ ,
Ġw alk
ĠP enn
Ġp en
n el
ot ion
Ġcont roll
Ġident ity
arian ce
Ġex cept
pt ions
Ġplay s
iv ial
ren ce
Ġess ential
ur t
ĠComm ittee
A ss
Ġtra de
ĠAl though
Ġb it
Ġcateg ory
d r
Ġthem selves
Ġm icro
un c
Ġelect ric
b an
Ġcell s
Ġ ult
Ġs quare
Ġemb edd
ĠCh icago
Ġar bit
Ġchall eng
Ġcho ose
Ġp ick
Re c
Ġsy mbol
ĠSer ies
Ġcons erv
197 9
Ġwrit er
in ant
id ae
ĠPro position
Ġlead er
Ġf ill
rop y
ult ure
Ġpro gress
Ġapplic ations
ĠF urther
el er
Ġp ark
ĠP ri
S he
lim its
Ġexper iments
Ġliter ature
Ġmov ement
Ġrema ined
s u
M P
ut ch
H ere
ag ement
Ġprocess es
ov iet
Ġfact ors
Ġsit uation
Ġcom ing
ish op
Ġcompar ison
cret ary
S et
Ġav oid
Ġc op
velop ment
ĠAt l
Ġpartic les
Ġsub set
Ġm ur
Ä ģ
p id
at us
N e
ĠVirgin ia
Ġver tex
ĠFlor ida
ĠArt s
O ur
S E
ob ile
Ġcol lege
Ġn etworks
ven ue
pe ople
ĠRe f
Ġpl ane
Ġcoll abor
Ġpartic le
Ġca used
ĠFor ce
M ore
Ġon es
ress ed
en ge
ap ter
Ġs ch
_{ {\
ĠHen ry
T rans
E n
Ġsh ot
sy ch
S im
it able
Ġper turb
198 1
ĠS un
Ġfin ancial
Ġdeterm ine
ĠG r
Ġmoment um
H E
Ġcon cent
Ġg un
ĠA re
ib ly
Ġtrans l
) }(
Ġ }\
Ġcrit ic
Ġg rand
ed om
Ġuncer taint
Ġf ile
Ġmed ical
Ġin cor
m ission
ĠK n
ĠM o
ir it
Ġhe avy
9 3
\! \!
Ġcom ment
Ġspect ral
Ġa ircraft
e es
\ '
res ents
Ġleg al
Ġex amples
Ġpol ar
def inition
Ġsh ape
F irst
Ġm ix
Ġinter view
an ced
Ġ| \
ĠI ll
ĠSw ed
ĠAngel es
Ġin sp
Ġfeature d
es h
ĠB i
ĠCong ress
ĠIt aly
ill a
m ann
* {
b ut
F orm
ad y
Ġident ified
t ers
Ġdid n
ĠP ost
Ġcont rast
Ġapproxim ation
bl ack
ĠP re
**** ****
ĠGe org
Ġexp on
Ġorgan ization
8 6
ma in
Ġre ach
Ġsp at
or ial
' _
Ġstat ement
ĠM il
al i
ĠRuss ia
S U
k in
Ġan c
ĠO ver
ag s
Ġ ...
Ġdatas et
Ġex am
re es
Ġmin or
Ġcoupl ing
p resent
ĠF estival
Ġe arn
Ġactiv ities
Ġse ems
Ġre pe
Ġsur round
n y
p ublic
Ġb ad
_{ -
Ġv s
Ġth reat
oc al
os h
H owever
Ġhouse hold
app ing
ĠMex ico
ill er
Ġact ivity
Ġaward ed
ĠE v
or al
197 6
ĠOr der
az z
ĠB oard
Ġmention ed
i ro
m en
) /
197 2
Ġsoft ware
p c
n ormal
Ġpolitic ian
sub figure
ĠO pen
ĠL u
9 4
Ġs ometimes
Ġsim pl
197 8
ĠK h
ĠM ost
Ġstud ent
Ġnumer ical
Ġca use
( $
Ġstat us
ĠSc ot
I P
ĠH ence
ĠC ast
Ġd ro
Ġs ure
Ġprof ile
he mat
j ection
Ġb rand
Ġc ore
Ġsol id
Ġmin im
L O
ĠL ife
Ġnear ly
-------- --------
Ġstra ight
Ġas ked
ic an
Ġpr int
Ġw or
Ġcomm and
9 2
Ġwe eks
' \
ĠE mp
ĠO h
Ġinst rum
s ol
d eg
b i
ul ed
ĠJ an
U T
}$ \
ma il
ĠT our
Ġg rant
Ġdescrib e
Ġhe art
ĠK ar
Ġshow ed
Ġf irm
Ġsignificant ly
ĠS up
Ġf if
Ġopt imal
ĠO l
Ġd ual
st ra
Ġsatisf ies
Ġrequ ires
Ġfin ally
l ink
Ġsc ored
Ġc ry
Ġext ra
ot ing
Ġm iddle
Ġuse ful
ĠSp ace
Ġmem ory
Ġb rief
ffic ients
Ġconsist ent
ĠPro fess
p ng
Ġre comm
Ġb al
Ġc it
}} (\
Ġrad ius
for ce
F urther
align ed
ĠIn st
w a
Ġcomplet ely
Ġexperiment al
Ġm ind
Ġr ates
8 4
ĠB ig
C o
Ġsp aces
Ġbroad cast
Ġc ard
Ġdist inct
Ġfram ework
Ġv an
Ġexact ly
Ġexist ence
hes is
Ġinflu ence
ĠC a
ian o
Ġj oint
197 7
at o
Ġfe ed
Ġse lect
Ġprogram s
Ġmeet ing
197 4
8 7
Ġsim ulations
C H
ap ers
Ġsh ift
Ġrep resents
or a
in it
ut ing
ĠT imes
Ġconstruct ed
h ouse
197 5
St ate
is her
I G
C an
ĠE ducation
Ð µ
r ong
Ġgo als
ĠH aw
Ġsing er
) _{
ĠS il
Ġt im
Ġet c
Ġmeasure ments
k o
Ġdec ay
we ight
ĠR em
Ġun ion
' re
S o
Ġh um
i en
Ġres olution
Ġmajor ity
ac her
E arly
P C
f low
Ġdo ing
as ks
ĠL ie
Ġtourn ament
m et
end ix
Ġlook ing
ĠO per
Ġv ar
Ġle ave
om y
Ġconne ction
) ^{\
= -
ian a
inde x
Ġse lection
con s
sh ift
h ing
Ġexist ing
Ġsum mer
ĠV er
Ġint ers
{ $\
Ġeconom ic
Ġdesc ription
E q
Ġg reen
Ġth ing
s pect
Ġacc uracy
Ġam plit
i ency
ug by
ĠFound ation
Ġprob ably
Ġgre ater
y an
if ically
are er
Ġt rib
M ar
z y
res hold
G B
Ġsp ent
Ġinteg ral
ĠT ime
Ã³ n
w ork
ric es
Ġclust er
= (
for all
ym pt
ĠP et
l ength
e ch
h and
197 3
ĠH el
ab it
Ġob ser
he m
ĠR o
Ġ\ (
Ġrepl ace
ĠA wards
in ations
Ġimpro ve
ĠMore over
Ġbe y
Ġestablish ments
T r
Ġsp read
Ġb ranch
Ġab ility
196 8
ell ed
Ġse c
Ġcorrespond s
ĠAl so
Ġbas ic
,\ ,
Ġst eps
Ġinequ ality
est s
l ig
ul ate
ĠM ur
ĠS ta
8 2
ang er
Ġpre vent
Ġopen ing
Ġac adem
Ġappro p
ĠL ove
Ġrele vant
"> <
Ġvert ices
Ġc arried
S ub
ĠChampionship s
P R
Ġn odes
Ġassum ption
= {
Ġpo or
Ġv irt
Ġimmedi ately
Ġbey ond
ĠL y
Ġch ain
ĠCarol ina
Ġsu ffer
ĠDirect or
j oy
pro du
ĠC am
Ġ+ \
og ene
og ue
Ġst op
ĠB ank
ad ium
Ġs n
Ġf raction
9 1
Ġb asketball
: \
Ġext ension
Ġstrateg y
} %
O ver
ĠF orm
g u
Ġl attice
Ġsepar ate
Ð ¸
il ed
Ġwin ning
Ġcalcul ated
ĠW ood
id ers
Ġm ole
i ant
Ġw ays
Ġdiv ision
ĠEng ine
; "
}$ -
ĠYou ng
ĠR el
ĠJ ournal
M L
le ctions
ic ated
ĠS ol
as ion
I V
ĠO ld
ĠMart in
r c
Ġhe ight
ĠII I
ĠN avy
Ġwrit ers
Ġ ensure
ĠIn c
A G
M ed
Ġproced ure
av en
Ġarg ument
J ohn
re qu
ĠS a
ĠPro gram
.~ (\
se ud
f ree
Ġp refer
le an
Ġ( "
Ä ĩ
Ġmov ing
Ġmost ly
u ations
Ġqu arter
Ġde ad
z ero
ĠH y
8 3
ab ilities
Ġbelie ve
Ġwant ed
f act
Ġed ges
re al
ell i
Ġf rame
Ġindivid uals
Ġincre ases
pm atrix
ĠH ot
Ġre b
Ġ â
Ġcent re
all ery
sub subsection
ĠP ac
Ġa mb
Ġredu ce
de pend
sim eq
Ġdoes n
O ther
Ġw ood
Ġlin k
197 1
sy l
Ġm ission
b in
N otes
c ases
Ġc ru
ma z
ĠBra zil
ĠJ o
u an
8 1
Ġcar ry
Ġl ic
ĠPar liament
C E
Ġed ition
4 00
Cl ass
pr int
Ġa uthors
N et
Ġper fect
am ing
Ġcoe fficients
ĠW ork
k es
h om
ĠS ocial
Ġin ternal
ell ig
y mmet
k l
A b
$ (
ĠH a
os c
g g
ĠOff ice
D F
Ġpl ot
ic on
Ġpass ed
Ġpr ison
Ġcomb ined
Ġgener ation
Ġsit es
ad er
Ġr ing
Ġpol y
Ġform al
Ġrel atively
Ġb order
ĠD ou
Ġact ress
Ġgo es
I ON
as i
196 9
ĠW ales
Ġarchitect ure
Ġv ac
Ġcap acity
Ġcandid ate
) ^{-
Ġatt rib
Ġfriend s
Ġappear ance
Ġl ives
Ġmov ie
Ġrema in
Ġh arm
Ġc orn
A F
ĠM ount
Ġmeas ures
van ia
ĠB ook
ĠCh ief
U R
loc ation
Ġconstraint s
Ġmanag er
Ġact or
Ġlaun ched
Ġhor iz
Ġcommun ities
Ġcomp ute
w an
Ġcur ves
Ġco ast
ĠH on
or ter
Ġgiv ing
ri ed
Ġmat ches
bl ue
)\ \
Eng lish
S te
ĠEar th
j o
ĠB ob
or b
Ġend ed
g n
ĠĠĠĠĠĠĠĠ ĠĠ
Ġsem i
Ġcontain ing
j a
ĠI rish
$ $\
194 0
Ġag o
ern el
ult ural
ve x
Ġbe g
$ ).
ru pt
ĠLe e
or ation
ip ality
Fig ure
Ġst ories
the n
Ġget ting
im a
Ġdet ection
Ġf air
ĠT op
H ow
ĠL ong
il ib
Ġsim ulation
e ed
Ġcorrel ation
^{ +
Ġth ick
Ġst able
Ġr an
ĠM ax
ad ing
Ġclass ification
text sc
Ġcontrib utions
al g
ter m
ĠL iber
Ġl oad
T S
Ġdepend s
ĠJ ac
Ġcomb ination
ri um
ĠP eople
stit ution
tern et
c ase
Ġadv ant
194 5
Ġsay ing
ent y
Ġch ief
Ġdr ug
$ ^{-
Ġdest roy
p ass
Ġscal ar
che ck
Ġr iver
Ġcomput er
ĠCol umb
it ation
Ġis land
Ġparent s
st o
ĠJose ph
st ack
Ġvis ual
Ġtyp ically
Ġph il
ir us
Ġfav or
at i
// //
Ġpur pose
ans as
1 10
Ġprop ag
D uring
ĠC ur
ĠTe am
Ġ= \
r ons
Ġcommer cial
Ġstreng th
) }{\
us band
ĠRe view
Ġproject s
Ġse asons
Ġm ut
rum p
Ġtechn iques
k ins
Ġf oot
ĠL in
Ġslight ly
Ġinit ially
vi ation
pt on
Ġw atch
ow ers
}} ^
Val ue
ĠĠĠĠĠĠĠĠ ĠĠĠĠ
ament al
Ġdig ital
Ġpl ans
Ġang le
196 7
Ġden otes
idd en
s ur
Ġwh om
r ical
ĠVal ley
ic ks
s ch
L S
ĠS und
Ġse a
b t
Ġn ation
esc ription
r or
ay er
iz er
che n
R eg
ĠA rab
ĠĠĠĠĠĠĠĠĠĠĠĠĠĠĠĠ ĠĠĠĠĠĠĠ
Ġintrodu ce
Ġfore st
ĠG al
Ġg r
Ġrefer red
Ġturn ed
Ġmus ical
Ġb attle
ĠS oviet
The se
y es
Ġstud io
im b
Ġext ract
ĠN orthern
omorph ic
Ġc at
Ġsy n
ĠJ im
Ġquick ly
Ġmod es
19 30
Ġquest ions
it le
u i
ĠC E
Ġv acc
Ġt or
Ġ&= &
Ġmain ly
P P
ĠW ind
ĠUn ivers
ĠJ ack
Ġar rang
Ġassum ed
Ġb ottom
ir med
ĠProv ince
Ġro ute
oc ol
Ġsing ular
Ġprov ed
Ġother wise
C S
Ġc osm
Ġfl at
ĠJ ul
ad r
p ace
ers e
Ġsh oot
Ġt ensor
\| _{
Ġvoc als
Ġ ;
new command
er ry
n et
ck now
Ġdes pite
Ġas pect
ĠS k
Ġch ampionship
Ġdistrib utions
res h
Ġpart ners
l anguage
a o
ro t
Ġinv ariant
Ġdiscuss ion
" );
196 4
ĠC ross
Wh ile
ĠL ine
syl vania
ĠA tt
Ġres ources
ar ks
ĠG ood
amp ion
Ġth row
und red
ĠÂ £
N R
orn ing
Ġprov iding
E d
ic ity
C T
Ġa st
Ġm orph
G et
Ġm arg
D A
Ġp hen
Å į
IN G
Ġm essage
Ġestim ates
ĠHistor ic
Ġrespons ible
Ġp ain
ist ical
Ġincor por
Ġatt ended
ĠE ach
Ġcele br
Ġpair s
act ive
Ġann ual
Ġrecord s
Ġold er
}^ *
Ġappro aches
Ġm is
tain ment
ĠB as
Ġposition s
em porary
Ġon to
C ar
Ġpric e
Ġm aster
Ġf ederal
Ġoff ers
Ġn orthern
Ġt al
ĠJ ud
Ġs outhern
Ġg ain
Ġdise ase
Ġl if
m ond
et ime
ĉĉĉĉ ĉ
Ġun known
ic ine
ĠSp ain
ĠAss embly
ĠG overn
Ġed itor
if ier
Ġthe ore
Ġsen ior
Ġk ing
Ġprodu cer
as y
Ġvis it
com ing
Ġexpress ed
Ġdepend ence
com position
)$ -
ĠL i
ĠThe ir
ĠS ir
ĠG re
or age
Ġb ul
aw a
ay lor
Ġra pid
C A
} )$.
196 5
Ġhy dro
Ġp ure
j i
ib li
in et
Ġatt ract
un ch
Ġpo et
A ccording
Ġcl oud
Ġag ent
ost on
od ing
Ġwork ers
The orem
Ġass ess
Ġsc ene
in v
Ġbecom ing
I L
Ġcomm ission
' m
Th us
vers ion
ĠI ran
Ġoffic er
Ġhtt ps
ak a
ur l
per ty
ro ph
pp ing
Ġtra d
ard en
Ġst ellar
arri age
ĠE r
Ġor b
ĠE qu
ers ey
C areer
Ġmur der
d x
ĠB et
ĠS pr
Ġ ice
Ġspect ra
y er
ĠCent re
om ic
Ġrail way
ĠL ibrary
] ;
Ġsymmet ric
ce an
ĠT im
S upp
g a
Ġfor ced
Ġalgorithm s
un ct
ov a
ĠE lect
Ġen joy
Ġmach ine
if fer
Ġin ner
ĠEmp ire
P T
Ġnew sp
Ġfail ed
C L
D on
ĠW in
un ior
back ground
H z
Ġse ctor
Ġext rem
Ġs plit
Ġremov ed
Ġv ote
Ġnumer ous
Ġachie ved
196 6
mat rix
19 20
Ġinter actions
st ream
ud es
ch o
Ġcom pl
Ġcy cle
z er
Ġspat ial
Ġdis k
ĠS ar
Ġeffic ient
rel ated
Ġtrans formation
Ġs ampl
ĠP ak
ut y
rem ark
U N
Ġl ived
at ers
ĠIn f
multi row
B ar
Ġin form
Ġf a
Ġs ociety
ĠSte p
P erson
Ġa ctions
S er
Ġpres erv
Ġmat rices
oc ation
ĠR et
Ġw orth
Ġar rest
os oph
val ues
Ġcle arly
el i
P er
ĠH ig
}$ }
ĠB usiness
ĠJohn son
Ġfore ign
Ġs qu
Ġreg ime
pos es
ĠReg ister
Ġabs ol
Ġ eth
ĠC re
Ġh usband
Ġser ve
Ġle aving
Ġgen us
S R
ent h
ĠR am
Ġm ixed
air man
t ri
Ġth reshold
T R
Ġst ore
ĠD om
map sto
Ġbe aut
Ġcomput ed
olog ies
Film s
In ter
Ġident ify
Ġarbit rary
wh ile
Com m
Ġc ensus
am ely
Ġra ised
Ġmag azine
Ġbene f
ĠU k
S pec
ult y
w er
ĠDe velopment
Ġcou ple
' (
ĠF ort
ĠPenn sylvania
15 0
ĠAs ia
) _
Ġcirc le
Ġyield s
Ġdram a
p ost
P A
Ġtyp ical
Ġpolynom ial
en ch
Ġnot hing
Ġex c
Ġopt ical
Ġas ympt
l ies
Ġpar allel
A rt
d im
rib ution
ĠP rem
t rack
Ġv ary
~ $\
ĠCh ild
ĠB oth
ĠPhil ipp
ĠJ ones
ĠG reek
n eg
Ġdif ferences
Ġrece ive
Ġ$ $
Ġref lect
Ġter rit
n b
I A
g reg
Ġown ed
S M
S y
ĠB or
ĠT re
ĠCar l
Ġcontain ed
rr or
C ons
Ġex change
ĠA ut
ĠL ord
Ġconfig uration
Ġ/ **
Ġm ountain
ĠB attle
ĠH ome
h ost
h aps
Ġpro ceed
Ġh ospital
ĠGa ussian
Ġl ies
ric s
Ġex cit
ĠBrit ain
A m
B uild
Ġmet al
Ġor ient
Ġcy cl
Ġtest ing
p x
Ġhelp ed
ĠM em
Ġn ine
Ġhy pot
Ġaltern ative
b ury
ĠCon ference
g raph
Ã §
Ġlaw s
l ines
Ġclaim ed
p icture
Ġdistrib uted
od ot
i xt
anc ing
Ġdepart ment
i as
ĠMich igan
ind ing
ĠO x
E M
Ġcal c
j e
Ġerr ors
Ġs al
ab ase
1 20
ĠT est
Ġvict ory
cont in
Ġsaf ety
Ġc opy
% )
Ġsur vey
Ġre const
Ġstrong ly
Ġc ool
Ġg ets
s en
Ġdr um
Ġcon vert
Ġmeasure ment
h ar
ĠEx p
Ġser ious
Ġcover ed
i y
ĠM en
ĠC amb
enn is
in ate
ĠSh ow
ĠM ov
u er
v in
pro position
Ġacc ur
ĠT ri
ann els
ab il
" :
Ġmater ials
Ġcount y
Ġstat istics
c ript
Ġbl ood
Ġo il
Ġp il
el a
t ik
ott ed
ĠC ivil
Ġr ise
Ġjo in
ro om
Ġor g
A ust
ĠS outhern
Ġdefe ated
ĠDemocr atic
Ġlet ter
Ġfil ter
Ġo ption
Ġexpl ain
g ener
ex ample
he ight
Ġocc urs
ĠPac ific
ist ers
Ġinc ome
Ġunderstand ing
Ġass ert
r un
Ġtry ing
ĠE nd
$ ;
ĠC y
ĠD et
ash ion
Ġdetail ed
und le
P re
Ġachie ve
Ġapprop riate
F e
acks on
Ġdev ice
Ġreport s
Ġoffer ed
T ime
ay a
ĠPro ject
sk y
ino is
ĠS pe
ĠY our
ĠS ong
sc ill
ific ations
ilib rium
ĠH or
O ut
l aw
Ġpart ies
ĠF ield
w ord
\ _
ĠW ay
S ch
Ġc rick
angu ages
E nd
Ð ½
Ġsh ared
ĠM ountain
ĠRad io
L P
et ts
ang es
igh ter
Ġopt ions
ol ved
Ġhistor ical
ĠR os
Ġf ine
Ġmass ive
Ġfam ous
Ġent ered
ĠB ow
ĠOh io
Ġtra ined
Ġse ctions
Ġdep th
196 3
Ġv oice
stand ing
\ "
\ {\
Ġshow ing
ĠAs ian
In f
Ġeff orts
Ġredu ction
Ġcomp osed
Ġto uch
}{ *
Ob ject
ĠT em
Ġobser ve
Ġspe ak
ĠSt ring
Ġtrac ks
urb an
196 2
Ġsome one
Ġreveal ed
Ġbehav i
N S
Ġh ope
Ġenc ou
ound s
B ack
Ġarm y
p ir
ar ia
E qu
ru ck
Ġse at
Ġcit iz
Ġp ull
Ġact ual
Ġsing les
ear s
B i
ĠG en
ep end
Ġcoordin ates
in put
ĠS u
M M
Ġth r
Ġim ag
Ġb us
ograph ic
Ġinit i
Ġpie ce
M e
at ically
Ġorgan izations
Ġsur pr
Ġent ry
00 1
bur gh
il a
Ġconduct ed
p age
Ġneighbor hood
pro b
ell er
}} ^{
Ġpre p
Ġconver gence
ĠB ern
Ġrelig ious
tain ed
ĠWilliam s
Ġcomp are
Ġdem and
" ;
Ġide al
ib r
Ġun iversity
ĠE conom
Ġorder ed
display style
Ġst rict
og rap
Ġdiscover ed
ĠQue en
Ġo dd
_ -
$ ~
il ing
ĠPl an
Ġseg ment
ĠB ase
ĠF C
as ure
c r
Ġal one
ĠW al
P op
ĠFrancis co
en ess
ĠS and
and emic
Ġdis s
Ġreg ister
ĠB u
D P
ĠC r
Ġele ctions
m iss
tik z
ĠE ll
Ġf ix
ing ham
ĠScot land
ĠTechn ology
c ular
ris on
194 4
Ġ ?
ach us
ĠM ah
iv ate
c ong
Ġtri al
Ġconf irmed
o ir
Ex ception
Ġpro port
' }
1 000
ĠM any
Ġra re
Ġgener ate
| _{
Ġve ctors
al ysis
Ġel im
ran ce
ip ment
Ġar ray
Ġnuc lear
Ġo scill
Ġgalax y
V iew
Ġex ternal
in st
ĠHamilton ian
K ey
ad or
Ġut il
so ft
Ġdep ict
ĠC ro
Ġw all
ĠUS A
a ver
Ġro ugh
ĠGeorg ia
Ġdist ingu
Ġc ities
it age
l t
Ġb att
Ġgrow ing
ĠT rump
Ġinter val
ot al
Ġh ole
Ġcommunic ation
` `
ĠSpec ial
T able
ĠU r
Ġpro test
ab eth
ĠG ame
N ational
. $
ĠBl ue
ĠK ent
ĠW ell
Ġs quad
Ġres ist
Ġdifferent ial
f aces
ĠM ajor
) +\
Ġman ifold
Ġhe at
Ġindic ates
) -\
ra wn
Ġcan cer
ĠB oston
Ġindic ate
col umn
Ġsatisf y
Ġnuc le
Ġpro min
Ġobserv ation
Ġres erv
Ġwe b
}( {\
Ġoffic ers
ĠA v
ĠEn ter
g rad
ag raph
gy pt
b acks
ĠDe v
achus etts
Ch ar
Ġ// /
ĠC ard
Ġres on
C P
Ġdr ive
Ġm ill
Ġadopt ed
m ma
l s
Ġl um
ĠD ata
l ie
Ġany thing
el d
ul f
&= &
} ~~
Ġcol on
R A
ĠSen ate
196 1
ĠG ar
L a
h ol
H S
Ġf le
od ay
act er
ĠRep resent
Ġrecord ing
ĠM u
ĠSe e
art ers
ĠG i
ĠIs lam
Ġh undred
Ġoper ated
Ġ ign
ĠCo ast
ĠJ ersey
Ġsy nt
M y
Ġphen omen
Ġb inary
ipp ed
ad el
at uring
Ġor th
s uch
O f
( (
st one
Ġh ar
Ġmin imal
ĠPol ice
os is
ĠEd ward
ĠR h
ers ion
op ic
ran e
Ġinteg er
Ġb ass
) },
Ġcomput ation
d es
Ġob vious
Ġcre w
Ġconf lic
ĠS T
Ġs ister
Ġwind ow
Ġindu ced
Ġw ild
ond er
T est
) );
Ġmagn itude
c d
od ies
ĠIll inois
Ġfre edom
ion e
Ġeff ort
Ġover l
ĠJew ish
Ġmass es
v ol
ĠK ong
c ks
==== ====
let s
ĠF ar
ĠHe ad
Ġlo op
ĠL ab
t em
Ġscatter ing
og en
Ġh op
Ġle aves
h bar
es ter
er c
Ġinterest ed
ur ies
m ass
Ñ Ģ
ĠThe atre
og s
Ġform at
av el
Ġth ous
loc al
Ġa part
h u
Ġcl in
Ġact ors
Ġfunction al
Ġbelie ved
Ġinteg r
ibli ography
ĠF inally
cl aim
} &
Ġpart ner
Ġsuggest ed
Ġevery thing
ĠCor por
L em
M R
Ġserv ing
Ġfund amental
tr ue
} }$,
ĠM id
ĠV i
} }$.
Ġn ative
Ġf elt
od d
Ġw estern
D S
ĠL ag
} )$,
Ġdeg rees
Ġtherm al
ful ly
Ġs ales
as er
ogene ous
ĠH uman
Ġc ouncil
Ġoper ating
j s
Ġres pond
opp ing
Ġw a
il ation
| }
ĠK en
s upp
pect ed
Ġg ap
ĠW ater
Ġnot ation
st ract
b el
ĠB al
Ġp p
Ġhtt p
Ġnear by
Ġre asons
p ack
Ġconsider ing
Ġchem ical
h box
pos s
ĠPr ince
c f
ĠM ot
Ġdes cent
Ġcl imate
Ñ Ĥ
ph as
Ġpolitic ians
pt y
P art
' ve
Ġtr ust
Ġro ot
in ner
Ġown ers
Ġresid ents
Ġcult ural
ĠV an
195 8
ig ation
ĠN etwork
od er
195 9
Ġcle an
Ġconclud e
Ġass igned
Ġgu aran
c ount
ĠD utch
il er
C or
Ġallow ing
Ġcompos ition
ĠR ou
n am
O M
P E
B rit
ĠJ oe
Ġp urs
L T
Ġb ill
194 2
ĠN ight
{ {
195 6
Ġtheore tical
Ġacqu ired
emb le
Res ults
ĠM iddle
Ġc ov
Ġcom edy
ĠP ower
is er
ch ar
on to
}$ )
ĠJ r
g est
ĠDe c
Ġsh ips
Ġass ign
ĠPol and
he t
ĠSt an
ĠGovern or
ig er
Ġadvant age
ner gy
p ower
eng er
c s
[ (
Ġdiv ided
P ol
ird s
ĠAnd rew
}) ;
go ing
Ġ ener
ĠSt and
on ia
che ster
ĠSe cretary
ĠB ang
f irst
194 8
Ġro ll
Ġch annels
Ġ~ ~\
Ġtechn ical
bre ak
Ġimport ance
ĠG et
ĠMass achusetts
Ġ$ |\
ĠR ay
Ġact ing
ĠB a
ĠS et
in als
ĠE astern
ou the
Ġf ans
Ġwid ely
Com p
) )$
Ġus ual
ip age
S w
ut en
Ġch art
if ies
ĠFurther more
Ġp le
ĠW all
Ġimpro ved
ĠL im
193 9
Ġtechn ique
Ġfootball er
Ġiss ued
p o
Ġmanag ed
min ipage
ed ia
id el
ĠOx ford
Ġreg ional
ĠMed ia
Ġcont est
Ġacc eler
Ġded icated
Ġanal og
s he
ĠSund ay
it ivity
C R
ĠPh ys
ab y
Ġqu e
Ġp sych
Int roduction
Ġapp arent
Ġsubsequ ently
m itted
pon ent
Ġadminist ration
ra ge
Ġcon j
Ġplan et
te en
Ġax is
ĠSe a
Ġdepend ing
ll ap
Ġeffic iency
Ġflu ct
Col or
Ġclust ers
ĠCommun ity
cknow led
Ġs pl
text bullet
in ity
D es
Ġpart ial
Ġke pt
Ġ ]
ud get
L A
Ġphys ics
ĠW ild
w ater
g r
am m
we et
ĠP op
Ġpart ition
Ġc arri
m osp
Ġm useum
Ġp icture
Ġp andemic
Ġsc hed
Ġt asks
Å ¡
Ġb illion
Ġopportun ity
Ġact s
ĠPort ug
$ ),
Ġis ol
Ġtra ffic
ĠA sh
195 7
N ext
ĠSc iences
ellig ence
194 3
m c
Ġv on
I F
ĠKore a
Ġclub s
Ġb right
S ports
Ġg rid
Ġhand s
ĠH ospital
ĠT aylor
ĠL uc
Ġansw er
Ġexpl ained
Ġlay ers
Ġb ridge
ĠServ ices
Ġd iam
Ġret ired
g ies
}{ (
Ġbe am
it ness
ĠB ol
dition al
cur rent
Ġlaun ch
Ġsub t
Ġpred iction
Ġfind ing
Ġprofess or
Ġtre nd
Ġcost s
ĠU sing
ĠRail way
Ġloc ations
Ġdimens ions
ĠA cc
Ã ±
u ing
) }_{
Ġlim its
Ġord ers
g ers
h as
Ġst ress
ĠS i
195 2
Ġ$ {
pl ate
uck y
u ous
ĠB uild
Ġd rop
Ġclaim s
Ġamplit ude
pect ive
Ġexec utive
ĠA ff
omet ric
194 1
ĠJ es
ang ing
Ġatt acks
C M
ust ain
E l
Ġfl ight
ĠC at
he tic
Ġpro pos
d y
Ġre form
Ġf ellow
Ġland s
Ġscal es
Ġupd ate
flo or
ph ant
or i
T hat
Ġart icles
t wo
ĠWil son
Ġstr ugg
Ġtest s
ĠI N
Ġfor t
( ).
ĠS oc
Ġle tt
est ic
Ġsu c
() );
ĠB ell
ran k
il ly
Ġfl oor
Ġcontin ues
Ġimplement ation
sh ire
Ġal le
ĠL ittle
Ġprim arily
}{ |
a fter
ic ed
ĠW is
ĠJust ice
ĠLat in
Ġwe ap
b as
itz er
194 6
Ġwhere as
id ents
ĠJ ackson
ĠS ports
ĠU p
Ġtre es
ĠL o
ĠD ar
Ġit ems
cc cc
Ġqu adr
com ple
em y
ĠE p
Ġwin ner
Ġk ernel
Ġinfin ite
195 5
Ġequ ipment
Ġt end
Ġn arrow
on ical
Ġp seud
ig ration
ul pt
agn etic
Ġmark ed
The refore
G u
R el
P ost
: }
Ġdel ay
Ġyou th
t frac
Ġs ides
b ot
ĠA M
Ġregard ing
ric ts
Ġpower ful
ĠBro ad
Ġsecond ary
Ġl anguages
c ref
z z
ĠProfess or
ins on
un a
d ney
f ort
Ġl abor
on ly
Ġcalcul ations
ĠF our
ĠD isc
am ber
Ġperson nel
Ġm arriage
Ġgraph s
Ġdev ices
Ġsp ort
S D
t an
Ġband s
Ġrem ark
are n
am i
ĠJ on
iz abeth
ĠG irl
Ġcommon ly
Ġd raft
Ġsuc ceed
Ġsuggest s
Ġcre ating
if ul
Ġuncertaint y
}{* }{
c ore
G C
Ġcalc ulation
Ġl ab
Ġexp and
Ġveh icle
sy stem
Ġide as
Ġdis app
if ts
st ruct
Ġorgan ized
t w
Ġex ception
ĠMod el
Ġse cret
ig r
F inally
S A
us er
Un ited
Ġd aily
Ġp aid
ĠScott ish
ĠB C
Ġrec all
ĠE gypt
ron ic
Ġadd ing
ĠColumb ia
Ġint ended
abl ed
less sim
olog ist
an ta
) }}
E L
Ġpol ic
Ġsu ff
Ġexp at
ro vers
Ġfig ures
rid ay
ĠH ung
S L
ĠH ong
Ġ! =
- $
Ġinvestig ation
Ġfif th
Y ear
Ġprinc iple
Ġhous es
a ug
Ġepis odes
oc ument
ĠBer lin
ĠPl aces
Ġt ail
194 7
n av
Ġmod ified
Ġevery one
W ill
Ġlat est
P I
}\ ,\
Ġearn ed
ĠDan iel
us al
Ġbound s
ĠMan agement
Ġ Î
~~ ~~
Ġcon ference
Ġl ie
ĠWe ek
ĠL ight
Ġcon vex
Ġdef ault
mid rule
ĠAlex ander
Ñ ģ
sum mary
ĠBe cause
Ġ ion
dis c
om er
i ate
Ġ\ !
Ġassoci ation
Ġcandid ates
Ġa wards
ĠF ace
+ +
S erv
c ar
ĠM ike
Ġdam age
ru it
ĠJ ean
ĠRepublic an
big l
Ġrot ation
: #
rop ical
Ġmed ian
Ġaccept ed
Ġgrad ient
Ġfac ilities
ĠSt ation
ub b
Ġim plic
y o
Ġinst all
S ome
ĠS M
Ġinde ed
Ġmed ium
Ġsub group
op en
Ġsp irit
Ġown er
Ġcomplex ity
Ġcoe fficient
ĠF ederal
ĠCol or
Ġrequire ments
tt y
Ġloc ally
Ġde composition
th ur
Ġoffic ials
Ġatt end
ĠCons erv
ant ry
Ġdescrib es
ĠJ eff
ĠU N
195 4
Ġd ust
Ġc ars
ĠA N
Ġexpon ential
here nt
ĠE ven
Ġor bit
ĠOr gan
Ġh ockey
ĠC reek
Ġsupp ly
E rror
ath an
M embers
in er
atur day
A ct
Ġbe at
Ġtri ed
ve e
Ġstart s
Ġstre et
G L
Ġem phas
195 3
ĠE st
il bert
ĠV ill
ĠVictor ia
Ġp et
in du
Ġvari ation
194 9
Ġacadem ic
M on
Ġnot ice
: =
Ġs ort
Ġcre ation
ĠJ er
E xt
Ġgeomet ry
Ġaffect ed
Ġrest aur
Ġ Å
l ers
ĠTh ree
Ġir re
Ġle mma
A tt
Ġto ward
Ġl ibrary
Brit ish
Ġvers ions
Ġoptim ization
B ox
Ġsol ve
ĠB oy
Ġarr ived
ĠB ul
big r
ĠCh ris
A dd
enn es
T ext
Ġstat istical
^* $
Ġreview s
ĠĠĠĠĠĠĠĠ ĠĠĠĠĠĠ
U sing
Ġden oted
O D
Ġm iles
ĠA st
Ġtw ice
Ġmod ule
T E
Ġto ols
Ġpe ace
u um
Ġcon d
Ġpr ime
bl ock
ĠL ater
b ase
ĠT am
Ġlarg ely
Ġang ular
b rid
ĠP en
Ġscen ario
ĠB BC
ĠInd ust
Ġanc ient
u ated
Ġm ess
A c
re ct
Ġinteg ration
Ġcharacter istic
ult ane
pro cess
Ġ\ ]
ĠIn formation
ĠF ree
Ġinvol ving
S m
195 1
for ward
ĠMed ical
c at
Ġtra ject
Ġcol lected
Ġst ability
up s
clus ive
Ġfoc used
Un iversity
Ġth in
. </
ĠP ubl
z en
V D
ĠSt at
Ġsatisf ying
Ġturn s
ĠAn other
ĠBel g
i Äĩ
ust er
al so
Ġstre am
hen s
ect s
Ġalong side
D isc
Ġmulti plic
Ġcharg ed
Ġl ov
os es
Ġchall enge
ĠGo ogle
ĠMin istry
ĠIs lands
em an
Ġm orning
Ġcapt ured
] }
M ay
Ġto ol
C he
Ġdis crete
eder ation
Ġsol ar
] (
ak i
Ġprocess ing
Ġprinc ipal
) --
Ġc ert
ag on
Ġeval uation
r s
Ġs le
ĠChrist mas
T ra
un te
C ur
The y
ob ject
ĠMus lim
Ġsom ew
Ġfe aturing
ad s
t es
ta il
se y
nb sp
ps on
S ection
ig a
O P
Ġw rong
R equ
l ife
Ġinc ident
ĠM ic
Ġvict im
Ġp ra
Ġleaders hip
ĠStud ies
25 0
ĠA D
] $.
Ġpl anned
D em
$ :
Ġb in
\ }$.
st able
medi ate
$ _{
con nect
G eneral
k h
Ġch ance
Ġpl ants
Ġn amely
du le
F ile
ĠF ollowing
ĠP oint
ze ch
Ġd ial
( ))
Ġent ropy
Ġvert ical
Ġrob ust
Ġco inc
=" +
Ġ[ \
G roup
b al
Ġbu y
Ġ era
ris is
ĠS om
Ġpl anning
Ġb oy
, $
ow a
Ġear th
ĠD ig
Ġprogram ming
Ġlearn ed
Ġperform ing
e z
IN E
Ġrad iation
O C
Ġtransfer red
Ġv en
Ġcon ven
Ġeas tern
Ġrepresent ing
im ately
ok en
Ġp ix
}~~ {
in ion
Ġemploy ed
Ġco ok
ĠC orn
ur er
ĠSup reme
ĠL ew
Ġcapt ure
Ġcor por
ĠPr ime
ak h
ĠCor ps
str ong
Ġab und
Ġfail ure
ĠR aj
' ll
Ġn et
ĠB on
Ġbase ball
Ġcall s
E vent
00 00
lement ary
Ġsex ual
a us
ĠR en
ĠO s
Ġdr iving
ĠMc C
Ġad vert
ĠM aster
ĠB rad
ĠJac ob
clus ions
Ġext end
;\ ;\
Aust ral
ĠF amily
ph ia
Ġsub stant
ĠO nt
ĠI R
bra ce
Ġtr uth
b ottom
Ġbeg ins
uss ion
f ound
Ġfe et
Ġcom plic
Ġp it
Ġmot or
) )\
ac ent
C ount
ĠSy dney
ĠPol ish
c alled
In st
Ġis omorphism
Ġsp ot
Ġat mosp
D ist
ĠComm on
pt o
Ġst rain
ĠD own
t iny
math op
Ã ¢
Ġhe ard
ĠMin nes
ĠDes ign
ĠV is
ĠRe v
bour ne
ect ed
Ġmunic ipality
Ġengine ering
b ro
Ġconsequ ence
ject ed
Ġend s
Ġunder lying
se ct
ĠK enn
Ġscal ing
ether lands
"> </
}} _{\
c ut
ĠOlymp ic
Ġtell s
Ġcompet ed
Ġreturn s
Ġinn ov
w ing
Ġmat hemat
Ġb ond
ĠK im
ra ine
ĠGu ard
Ġman ner
Ġtro ops
Ġp al
Ġb ra
193 6
ĠM icro
ĠMinnes ota
Ġbl ocks
W orld
Ġappear ances
Ġveh icles
Ġtri p
f old
Ġscient ific
ĠKore an
Ġpl us
Ġj ump
ect or
Å Ĥ
] {\
' :
Ġoppos ite
Ġposs ibly
a ud
Ġshe ll
ke e
Ġagre ed
ost er
Ġpro jection
ĠS ant
ict ures
Ġme ant
Ġsufficient ly
,\ \
Ġtem por
S F
ĠAr gent
D o
Ġsubsequ ent
Ġp ages
M usic
ĠR un
Ġa thlet
Ġfl ag
di ag
II I
Al though
ad i
Ġequ ilibrium
am in
av ed
writ er
Ġcalcul ate
Ġb omb
Ã¡ n
ĠV iet
ĠC as
ĠAd minist
Ġrepresent ations
Ġsurround ing
AT E
oo lean
adel phia
O L
p g
Ġeconom y
B M
Ġoccur red
Ð¾ Ð
ĠB and
Ġadj ust
p ed
ĠR od
' .
Ġcoordin ate
osoph y
an th
con sin
Ġneut r
if er
P U
Ġsu itable
ĠW alk
Ġhon or
on ed
eg o
Ġsw itch
Mod el
Ġpredict ed
Ġfind s
19 18
Ġcitiz ens
ĠU s
ĠEl izabeth
ve ctor
Ġconstit u
Ġpromin ent
ang ed
oc ated
Ġemploy ees
Ġis n
ĠPak istan
Ġro les
ĠAs sum
Ġnewsp aper
$ &
ĠF air
g ency
Ġen h
ĠS her
ĠR og
Ġsum mar
Ġspe ech
ing ly
Ġcr ime
ĠAir port
d frac
Ġdetect ed
\ ;
ĠM arg
Ġcon vent
ĠS uch
s pe
Ġhous ing
Ġte acher
mod ule
Ġdis pers
Ġst ock
z h
Ġhe av
et al
ĠF und
em eter
ĠD un
H L
ĠN a
ax is
}~~{ }$\
Ġ/ >
ent ed
j oint
ol is
T C
Ġcon sec
] $,
ĠE xt
Ġtrans lation
Ġfin ish
il ter
Ġc row
oth ing
or ney
}} }\
.. .,
[ -
Ġf ashion
ĠR a
os a
ĠS us
H C
he im
s at
Ġprov ince
Ġnot es
Ġl y
ĠN C
][ ]{
Ġpre par
Ġn or
Ġlum inos
Ġco al
Ġprom oted
Ġinter face
b ell
uten ant
Ġs ail
193 8
ĠM ain
Ġt urb
ar se
Ġassist ant
Ġwe ights
$ {\
ors hip
Ġvirt ual
Ġa ware
Ġsh ock
Ġ );
Ġestim ation
Ġprote ction
ro g
Ġmot iv
Ġinstit utions
Ġsold iers
ont al
Ġcorn er
Ġthe ories
,\ ,\
ol es
Ġenvironment al
Ġgrav it
Ġg rew
ĠP M
Ġtr ig
Ġsil ver
à ¸
Ġinsp ired
Ġres ource
Ġexp anded
Ġspec ifically
Ġdimens ional
ol i
F ield
Ġview s
Ġpolit ics
Ġtrans mission
w atch
script style
h ab
ric e
ĠB ack
let on
Ġcr im
Ġpattern s
n ames
ort he
Ġinj ury
ĠCorpor ation
Ġfund ing
Ġapp lying
Ġrepresent ative
Ġposs ibility
Ġrese arc
ok es
, {\
ap ore
D r
wh ite
dition ally
ynam ic
el ess
int eg
Ġaud ience
ĠWe b
ĠR ome
Ġaccur ate
Ġcomm it
Ġag ents
ad ow
Ġsc ulpt
Ġc m
u v
ĠV en
res ult
Ġobject ive
ĠM ond
Ġde ploy
ĠA venue
Ġinvestig ate
ul er
script size
pt ic
ĠP ass
as te
p ool
n i
ugh t
Ġmin ister
S outh
l ock
ra q
w eg
Ġdatas ets
ly n
Ġcover age
ĠT ok
ron ze
Ġserv es
Ġrecogn ition
Ġperm an
Ġextrem ely
ateg ory
Ġprotect ed
}) }
Ġadv anced
Ġcateg ories
Ġindic ated
ĠInd eed
ĠPrem ier
or ption
ĠR om
Ġag ree
ĠPro du
Ġpen al
ys et
ĠInd epend
Ġ ^{
6 00
Ġa head
Ġc old
ĠReg ion
ask a
ĠT y
ĠTor onto
Ġre ality
Ġele v
ĠOnt ario
Ġcom ments
Ġinv erse
ĠN Y
s ign
Ġindust rial
Ġre action
Ġr ural
per or
ar r
cis ely
b uild
och astic
Ġd ance
ĠPri ze
Ġb os
N ov
act ic
def ined
( ),
Ġp owers
Ġclos ely
ĠF er
Ġre li
193 7
P olit
ĠSe c
G l
ĠG ro
ism s
res ults
ĠSan ta
ĠF ire
Ġrepe ated
ĠN ations
our ney
H is
Ġre ct
ĠCol l
w orth
long rightarrow
Ġb urn
Ġwin ners
Ġag ric
Ġmod ul
ĠEngine ering
h igh
Ġassum ptions
ĠSt adium
}) ^
ĠF riday
sc he
ĠGl obal
}[ \
ĠBe ach
Ġsc ript
L C
ide os
Ġsequ ences
Ġres ident
Ġany one
ann a
ĠFore st
ĠH ard
T rack
Ġd iver
Ġm apping
ĠAn th
ĠCamb ridge
Ġf rag
che stra
p ur
ĠQue ens
v o
ĠCon f
Ġrel ax
Re f
ĠK el
Ġf erm
Ġf ish
ens ions
}} .
ĠPol it
Ġconsist ing
T op
Ġex cell
are t
. _
v ature
h ard
âĢĿ .
ĠA R
ĠL og
Ġst orage
Ġimplement ed
Ġevalu ate
Ġpass ing
ord an
h l
Ġdiag onal
he ta
D R
! --
D is
Ġcharg es
D M
se x
Ġdr iver
}) =
Ġl iber
Ġ rom
Ġal t
Ġper haps
y ard
f inal
ĠD er
Ġchang ing
M ap
con fig
Ġhistor ic
ĠH un
Ġbul k
ian g
Ġ iron
Ġcol le
Ġsuccessful ly
Ġbehavi our
Ġcont rad
Ind ex
Ġn one
ĠEx ec
ap se
Ġsim ultane
Ġbi as
Ä ±
Ä į
Ġperform ances
ĠN etherlands
Ġr ich
empt yset
Ġh uge
Ġdevelop ing
Ġdes ired
ĠO t
it ative
m i
Ġw ing
rap y
Ġs oc
Ġcont rovers
}} )
Ġcon cer
y les
Ġexper i
' );
ap ed
g al
Ġexpat riate
Ġcons ult
Ġmax imal
Ġanim als
ĠAnt on
Ġexplicit ly
ĠS aturday
ĠOffic ial
ĠA ud
Ġj et
ist ed
ĠC ub
Ġintrodu ction
ĠC irc
ĠE very
Ġsaf e
ĠApp endix
ĠB ad
qu arters
Ġmusic ians
ĠL ive
rast ructure
ĠL es
Ġadv ance
Ġrem ove
Ġcam era
Ġgl ass
ĠDes pite
Ġnew ly
ic ip
Ġest ate
R ight
l ash
Ã© e
Ġpur poses
Ġarg uments
T T
or ig
not es
Ġderiv ative
n ic
Pro of
Ġcustom ers
ĠA k
form ance
v art
Ġdou b
Ġadminist rative
G N
ĠRe volution
d ate
Ġit em
an es
Ġinteg rated
T wo
p arent
Ġd ivers
def ine
at on
Ġv otes
x x
ut t
omet ry
od ed
ob e
Ġtemper atures
ĠWis consin
Ġbusiness es
iven ess
ot ype
it led
Ġoffic ially
Ġ{ $
Ġrecogn ized
ĠB att
Ġc atch
Ġrem ember
Ġ urban
=" ../../
ĠK ir
ĠD am
Ġdi agn
Ġelectron ic
Ġmix ing
Ġtre ated
Ġsp ring
Ġc e
Ġas k
Ġf resh
re ll
ĠSt r
S ing
Person al
Ġgener ic
Ġm obile
Ġl iqu
app ed
T H
Ġgradu ated
Ġc overs
i em
C al
Ġinter ior
8 00
ĠPe ak
Ġpolic ies
Ġabsol ute
Ġs ell
Ġread y
se cond
j an
a is
ĠH ay
Ã ¸
Ġsol o
Ġrecomm end
ĠG er
Ġconf irm
ĠB ridge
Ġl ooks
Ġcirc um
v ements
Ġsw im
Ġdynam ic
A ut
Ġf ell
et ing
Ġnot able
Ġfac ility
ord ers
h r
b ec
Ġb rain
ĠE nergy
Ġgrav ity
Ġa p
br as
Inf o
al gebra
| }{
row s
riz ona
v ari
Ġout er
Ġcomput ing
ĠW ho
ang a
ĠSte ve
ĠT al
int on
Ġexpl o
ĠSe curity
Ġdestroy ed
Ġport ion
G o
Ġh our
Ġne ural
au x
est abl
w art
" |
ouri er
Ġbene fit
Ġexper t
Ġbro ken
Ã £
per ial
) }_
ĠL ind
193 5
Ġw aves
ag a
Ġrac es
og ether
ĠB ooks
ro sc
augh t
Ġd ie
ĠB rig
ĠI V
Ġcontroll ed
Ġs end
Ġcomm ittee
al gorithm
Ġconst ants
Ġch ampion
ĠS ab
Ġprote in
Ġd ens
rit ical
' ]
Ġ$ .
Ġ ^
or gan
Ġs ave
Ġs un
ĠAmeric ans
Ġsupport ing
is a
Ġint ensity
ĠW rit
isl ative
out s
Ġaspect s
$ };
Ġpie ces
Ġb ow
qu ot
Â °
Ġresult ed
Ġw arm
Ġener gies
c i
eli hood
um es
Ġfl o
Ġdef ense
Ġz one
ĠW inter
olit an
Ġf ib
C ast
ĠP ers
tr ivial
Ġdec ades
= .
Ġtr ivial
ĠR on
Lem ma
ĠCom put
Ġca uses
P M
im age
ĠTr ust
Ġtit les
Ġthem e
ĠW at
ĠL ady
ast ers
reg on
}_{ -
ol ve
y al
ĠB udd
en z
Ġspec ified
Ġsp ons
pl ane
Ġs ession
Ġentire ly
Ġex pos
ĠDu ke
ĠL abor
op her
Ġsampl ing
Ġp ool
Ġb udget
ĠF ox
rom e
ĠA thlet
Ġsat ell
rop ic
B I
Ġcop ies
Ġsk ills
19 14
Ġdo or
depend ent
Ġpre cisely
19 19
Ġarm s
In ternational
\ )
ĠOn ly
emeter y
Ġinvest ment
ĠRe al
Ġthan k
ac hers
ens es
ap es
Ġinters ection
ĠA uthor
b u
Ġrad ial
se ason
Ġsub s
n umber
Ġf uel
p es
Ġauthor ities
i ota
l vec
M B
ĠSwed ish
Ġhost ed
igh th
ĠW ars
ĠB all
R em
M in
r ide
form al
t itle
ut or
ĠâĢ ¢
Ġhypot hesis
Ġmon itor
Ġsatisf ied
Ġpredict ions
ge bras
ĠSur vey
Ġder ive
al ion
Ġext ensive
it o
Ġcont emporary
Ġr ig
Ġred shift
m n
Ġinter act
are st
Ġphot on
F ollowing
P ath
Ġcharacter istics
Ġe yes
}} ^{\
Ġident ical
l ov
per ties
tikz picture
Ġdecl ared
Ġdef end
ĠStep hen
Ġlist ing
Ġ }{
b et
bm atrix
19 28
ĠM ill
Ġd rawn
Ġembedd ing
H ar
193 4
EN T
P L
Ġg ained
ier arch
Ġy ards
Ġmax im
st art
19 29
Ġgeneral ized
ĠT ai
Ġst one
193 3
Ġlow est
Ġsett lement
s es
Ġapp eal
19 00
19 17
d f
Ġsign als
l av
Ġext ends
Ġag greg
pl es
Ġf iction
Ġlabel s
ur ity
Ġasympt otic
Ġparticip ated
Ġsup erv
Ġmunic ipal
Ġv ess
/ (
Ġp ush
Ġfrequ ently
Ġsecond s
Ġchalleng es
ĠPhil adelphia
Ġ$ ,
D av
Ġconflic t
Ġr ational
ĠGold en
ly wood
A V
ĠReg iment
Ġl osing
Ġcer em
Ġpublic ation
te ct
H ence
ef e
st ep
cal e
d el
ĠEx per
on ym
Ġacc ident
Ġcon clusion
[ '
ink ing
Ġpurch ased
Ġcan onical
ĠS on
ĠL ike
and y
Ġc atal
Ġg ar
Ġhigh light
sequ ently
iffer ent
Ass ociation
ĠCE O
m ethod
ĠFace book
ast y
ĠDav is
ĠT ype
ĠH o
P D
Ġcar bon
Ġem pty
par agraph
Ġflu id
Ġrec ip
Ġexpl ore
ell o
ĠE u
Ġab and
Ġaff ili
Ġre ferences
Ġtop ological
ik i
ur i
Ġc art
Ġfound er
f riend
B est
ist ent
Ġhousehold s
ĠB ru
âĢ ĺ
ĠPr im
Ġquant ities
\ }\
hed ral
Ġbenef its
Ġsy m
Ġar c
ĠW el
c over
et ies
com es
ic ian
Ġstandard s
h op
ennes see
ĠAb out
em i
f i
Ġte le
19 10
Ġviol ence
ĠInd ones
ĠM ult
Ġeffect ively
ĠL ast
A p
ĠA li
Ġyoung er
ur ations
Ġcover ing
Ġdefe at
\ }$,
ap i
}} =
Cons ider
Ġvers us
-- -
Ġc ab
ad ed
ĠI raq
e lect
st atic
Ġnon linear
R et
l ay
weg ian
vart heta
Ġfac ulty
phant om
ĠS at
ĠIn vest
Ġpat ient
enn a
F R
Ġvis ible
Ġmatch ing
Ġcomp at
ject ive
ĠMar sh
Ġabs ence
t i
Ġattempt s
ĠRe port
anc er
ĠSwed en
ĠG allery
Ġte aching
Ġwe ather
Ġt ru
er al
12 5
ord on
Ġex clud
p he
Ġphot o
Ġfa ith
Ġqu ark
ĠCount ry
E X
de c
ill ing
Ġunivers al
Ġt ick
poss ible
Ġdoc uments
Ġrece iving
Ġconcern s
ĠT ro
: =\
k ers
Ġr ugby
( {
ĠK al
G iven
unn el
Ġref ers
ĠSpr ing
ĠE th
Ġph one
Ġco oper
! !
om ot
193 2
Ġse ats
sl ant
Ġrough ly
Ġe ye
ur ches
ic ular
ob s
^{ *
m ad
D B
ĠSing apore
Ġst orm
Ġw ants
Ġv ent
con dition
vent h
Ġm ac
ĠIn ternet
Ġappro ved
reg ular
v ard
Ġdocument ary
ir ty
uf fer
ur ance
Ġh idden
Ġdo ctor
Ġcon vers
Ġhe ro
Ġstand s
Ġse ed
Ġpartners hip
ĠH art
column width
ĠMiss ouri
ĠColor ado
av or
Pl ay
par ison
Ġd anger
ĠH and
c oh
ĠM P
G erman
ĠAre a
Ġcomm ut
ĠA T
ĠM oh
includ ing
Ġcomput ational
ĠPol icy
Ġb ran
Ġcomp ris
ĠOr ig
ĠG ree
li k
Ġposs ess
E nt
ĠE s
/ *
19 24
Ġtown s
Ġf an
Ġconf idence
Ġe mail
=" #
a a
ĠIndian a
Ġcl ient
un es
ĠM ethod
D T
con f
ĠC ase
Ġfund s
Ġcry st
in us
the less
ĠC ov
N ode
Ġsuffer ed
Ġprop ose
} ~
Ġar ts
W omen
ĠAg ain
in ction
Ġ },
ĠCap tain
ĠN on
ĠA h
ph one
M en
Ġdisc rim
Ġp iano
} |\
ĠP C
z ed
Ġp apers
Ġadj acent
ĠR oss
ĠD C
ĠTur key
m d
10 1
ger y
ĠB an
Ġbrief ly
id i
Ġun able
Ġauthor ity
un ing
Ġm el
Ġw itness
Ġp ul
Ġsc oring
ĠM att
Ġb ench
ĠK ansas
Ġh abit
S ec
g eneral
D C
Ġessential ly
ipl es
ĠAl f
Ġren amed
" ).
ĠA maz
ĠN az
m ers
G A
Ġbal ance
igr ants
193 1
lo op
Ġflow s
A g
F rench
ĠB ishop
ĠMar ia
ĠLew is
k ish
ĠS C
ĠMed al
ra ined
eng ers
st ic
ĠH an
Ġhapp en
19 27
Ġkn ew
Ġwas n
Ġdynam ical
ĠRou te
ĠM ember
Ġterrit ory
) })
Ġw ins
ĠS quad
ĠO p
d iff
ĠL ore
ĠC zech
Back ground
Ġinterpret ation
Ġh air
Ġre ar
Ġgrant ed
ĠJ oh
Ġnov els
Ġdro pped
Ġm ist
Ġcol our
\ |\
med skip
19 22
et ric
Ġequ ality
Ġf estival
S um
st ood
ĠTh rough
M at
iv als
Ġequival ence
ĠAtl antic
ĠCon nect
18 0
Ġhapp ened
Ġent ries
ĠBro ok
Ġbre aking
Con text
Ġpre tty
Supp ose
Ġk ick
ĠO regon
ĠO F
Ġluminos ity
Ġfl ood
Ġsepar ated
Ġs urn
R ed
^{ (\
outhe ast
Ġcamp us
Ġfight ing
Serv ice
Ġ( {\
Ġtit led
ĠM un
Ġc reat
L ine
Ġnecess arily
the re
ĠG h
Ġy ellow
Ġjud ge
Ġcur vature
L og
Ġlett ers
c are
& =\
ĠComm and
+ (
ĠT el
Ġpar ish
Ġpract ical
O lymp
Ġtra ce
id ge
Ġgirl s
ĠO cean
Ġwin ter
ĠAd am
Ġsett ings
R C
19 25
ic ation
ĠF inal
Ġend ing
Ġret ire
Ġre produ
f s
ã ģ
p op
Ġv ariance
ĠM ilitary
Ã£ o
Ġh all
ĠC all
ĠLe on
ru ctions
ĠTown ship
Ġhold ing
ĠMond ay
in ating
ag en
uz z
ar ity
Ġengine er
ĠS av
ĠS ky
Bi ography
ĠAr thur
b at
Ġmole cular
G M
Ġmagn et
n ight
Ġv ice
ĠCast le
B B
iss on
ĠB h
Ġult imately
Ġn av
ĠS N
Ġtest ed
not ag
ĠC are
\\ \
Ġnot ion
Ġdepend ent
Ġes cape
Ġhe ar
Ġarrest ed
f lu
ĠL ow
H and
Ġqu asi
Ġv ideos
S ong
w orld
Ġan om
ĠIn n
ĠT HE
rop olitan
Ġbig gest
ĠT urn
ev in
U E
ĠA rizona
An other
Ġapproxim ate
Ã º
ĠSer b
ĠM ach
Ġsim plic
iss ions
Ġconcent ration
ĠL ear
ĠSt ock
Ġdemonstr ate
Ġbel ief
Ġsp ac
' d
g t
ĠH ou
form s
Ġpath s
un it
Ġ- ->
i able
Ġs ale
act ory
Ġm and
Ġdi pl
Ġher self
Ġw alls
Ġrank ed
Ġdecre ase
Ġw rest
ĠE U
Ġd ashed
ĠAnd erson
Ġt ight
Ġdemonstr ated
sub sec
Ġ\ &
Ġexpl an
Ġex ceed
Ġm es
ou red
Requ est
S ource
Ġf iles
Ġden se
Ġsch olar
ĉĉ Ċ
cont ent
" ),
ed nes
ĠL td
Ġdom inant
Ġad vent
Ġsum mary
Ġneut ral
Ġe q
ĠG iven
Ġcompos er
Ġconc ert
es ian
id en
Ġex cess
Ġpar liament
off s
ĠF ellow
k ov
ĠD ue
19 12
Ġmom ents
19 21
ch ron
Ġvac uum
Ġassum ing
inf o
enc ing
ixt ure
W rit
Ġd oll
rib ed
Ġupd ated
ĠG ener
ve ct
ĠW he
Ġun less
Ġquant ity
in ite
ĠC ost
o is
Ġimpro vement
19 26
ĠPhilipp ines
ne ver
Ġt aught
or ough
ĠMem orial
ĠT ennessee
\\ &
ĠS af
12 8
ĠChild ren
ĠK a
Ġb odies
ĠR ights
Ġinter mediate
form ed
amb ig
og onal
Ġgu ide
Ġfluct uations
X i
Ġcollabor ation
p res
Ġb undle
p erson
Ġwe alth
in stein
' ;
Ġfeed back
g reen
aw n
Ġpl as
ymmet ric
Ġfem ales
duc ible
Ġk in
us hed
Ġag ency
Ġcap tain
Ġparticip ants
R S
Ġdom estic
ik a
Ġst ochastic
s ort
Ġcred it
ĠA z
Ġprogram me
B O
Ġtw enty
******** ********
Ġdetect or
ĠEn vironment
ĠSt ory
pl ot
Ġeigen values
Ġb atter
Ġmult ip
g ather
le ments
Ġsomew hat
Ġdist ricts
Ġsepar ation
r ins
Ġconsec utive
> \
atur ally
Ġdat abase
L i
ĠI D
Ġreturn ing
ĠF ord
Ġhand le
ĠM iller
ul ating
O per
ĠG rant
Ġocc asion
Ġis ot
ĠP ier
Ġsk y
ens ed
Ġcorre ctions
Ġd x
Ġded u
Ġf ra
Ġelect ro
H T
ĠTw itter
Ġs ustain
F l
Ġs izes
osc ow
Ġc risis
More over
Ġpaint ing
Ġthan ks
ub ble
19 23
v oid
ph y
ĠIn it
ect ive
ĠâĢ ¦
h fill
pro duct
16 0
ĠK at
ĠI owa
qu es
Ġ\ (\
rang ian
ĠAd d
Ġf aster
gra de
it ely
Ġlo an
ĠSta ff
Ch rist
ĠZ h
opp ed
ĠP ot
equ ations
cre en
ĠChar l
ĠC ab
Ġst ages
ĠMel bourne
n um
ĠH al
g ar
Ġjournal ist
Ġcall ing
re hens
ang ular
i ated
Ġalle ged
Ġqu ery
Ġs an
val id
Ġin fer
ĠHig gs
Ġoppos ition
ĠS U
Ġrestrict ed
/ **
Ġgu ard
ĠM ir
\% $
ĠCol on
P ublic
w estern
ot ional
Ġsched uled
ĠT a
rag on
ĠN ick
Ġcharacter ized
Ġopportun ities
Ġbeaut iful
low er
Ġser ver
Ġv anish
Se cond
Ġdire ctions
ur d
Ġclos er
( -\
Ġopp osed
Ġal ter
Ġread er
Ġpol l
Ġdown load
ow ski
Ġinst ant
Ġcorre ction
E P
Ġhot el
ak ed
Ġlook ed
20 23
W est
ĠA mb
O W
Olymp ic
ĠĠĠĠĠĠĠĠĠĠĠĠĠĠĠĠ ĠĠĠĠĠĠĠĠĠĠĠ
eng ths
ĠExec utive
ĠS D
rack et
}\ |
Ġillust r
Ġext ent
ou pl
F I
ul ing
st an
ĠH op
ak s
$ ^{
ograp her
ĠSh ort
el le
er ies
Ġcoupl ed
Ġpost er
lic ation
Ġcirc uit
Ġpl ate
urs day
ĠB at
19 16
ĠJew s
itzer land
Ġc as
ĠN FL
Ġvari ations
ĠUk raine
l ang
we alth
D escription
R R
A wards
Ġdom inated
ĠN ever
ens is
Ġgravit ational
ag ues
Ġc ir
ĠB rand
and ra
Ġw ish
ari os
Ġrac ing
Ġb ought
ĠBro ther
ĠAff airs
Ġhom es
e h
Ġb ed
ile y
Ġcan cell
Ġmedal ists
ch ild
u y
at iv
l iving
l an
Ġg ene
E m
M ost
Ġcontrol s
[ ]
Ġv ision
Ġs and
Ġp ref
Ġconvert ed
ĠEnter tainment
tain ing
ĠW orks
AS S
ĠHigh way
ĠI d
Ġ$\ {\
es ides
Ġmov es
Ġf lex
Par am
ĠMod ern
neg ative
^* \
ĠF ederation
param eter
ffic ial
ĠGe V
n n
ers et
ĠMed icine
Ġext reme
Ġindepend ence
ad ers
Ġgovern or
ĠC ru
lic k
Ġclin ical
Ġp ed
ues day
ĠMary land
ĠM it
B L
Ġneg ot
Ġregister ed
ĠN orm
he nt
rib e
Ġopp on
ĠM unic
S ize
Ġn ob
Ġ\ ,\
z o
Ġsc ores
Ġevalu ated
ednes day
ĠNor way
ĠSl ov
the w
Ġenh ance
ym ph
P o
Can adian
i Ã³n
f ef
st ruction
on i
Ġa id
M ark
ĠMag azine
Ġfill ed
ĠHar ry
Ġw avel
ĠOn ce
19 15
ĠD or
he red
H er
ĠR oy
h or
ch a
f ont
Ġprodu cing
Ġpers pective
Ġhor se
or row
Ġjob s
ĠE ric
ĠK itt
Ġro yal
c raft
Ġan imal
ĠM as
ĠMex ican
ĠF I
Ġsupp ose
Ġgu est
ma ke
Ġprot ocol
Ġw el
ĠSe ver
ĠRepresent atives
e en
p y
Ġvis ited
ĠFore ign
ĠL ocal
Ġthous ands
ĠT oday
Ġp un
Ġunivers e
n ol
Ġstrateg ies
U nder
Ġprof iles
ĠTrans port
Ġlin ked
ic ians
Ġg ate
âĢĿ ,
ĠBar on
Ġredu ces
^* (
ĠF ac
Ġat oms
Ġ ,\
s i
we b
Ġinvol ves
A nt
Ġsens itive
ĠE nt
ĠJ am
M ethod
op es
ĠJ ane
Ġb low
A E
ill ery
Ġconserv ation
Ġph ases
Will iam
B E
fig ures
ĠN S
d at
cor ollary
J apan
ĠCons ider
ĠSim on
Ġtra ins
ĠMon te
r ust
Ġprep ared
arg ets
13 0
Con fig
ĠPr inc
w ich
Im age
Ġproport ional
ch or
Ġcontrib ute
ortun ately
ĠNe xt
force ment
ic ial
Ġencou rag
Ġaut o
ĠCh annel
j ust
def ault
Ġres c
Ġexpress ions
if act
F M
ĠĠĠĠĠĠĠĠĠĠĠĠĠĠĠĠ Ġ
Ġp ip
ĠA p
ĠP y
v als
Ã¼ r
ĠMal ays
Ġkeep ing
{ |
ivers ary
ro it
Ġresist ance
ak ers
ĠG ib
Ġvoc al
Ġa w
Ġdr iven
Ġperturb ation
Ġ/ *
Ġ( !
Ġac id
ĠN AS
Ġsur faces
Ġdesign ated
ĠK han
v s
Ã© s
Ġclass ic
ã ĥ
Ġgeomet ric
point s
col n
ĠP itt
Ġso le
C ent
ow nt
e ctions
d on
ĠG reg
id ay
Ġhapp ens
Ġ _{\
fef efe
ĠBe fore
ĠR ose
EC T
Ġthe atre
Ġpil ot
Ġop inion
Ġbur ied
ar o
Ġhum ans
D i
om ent
edd ing
Ġpract ices
ĠApp le
ah oma
form er
ĠSupp ose
ĠJ unior
Ġneigh bour
Ġscen es
P ort
ĠT an
Ġperiod ic
ab ama
Ġpack age
olog ists
L ast
ĠJ ordan
H ome
Ġto wer
ĠB ab
- (
um a
Ġaud io
Ġs ac
s ince
cl ip
ud den
d b
ĠF ood
ĠG all
al ing
M ax
t z
ĠS ri
Ġdeg ener
is or
Ġsim ilarly
Ġpop ulations
Ġgener ating
Ġca ref
Ġprofess ion
Ġcrim inal
osp it
Ġg ender
ound ed
N E
Ġexperi enced
l arge
Ġrespect ive
id al
Ġin clusion
if est
Ġpan els
% .
ĠE P
ĠV o
ĠA ge
ĠBuild ing
com b
L ife
Ġro ots
og ram
ĠMan chester
Ġtrig ger
Ġcolumn s
Ġpass es
om atic
Ġexper iences
Ġprodu ces
Ġm ent
Ġabs orption
G R
ĠT ony
ĠD ark
Ġconne ctions
Ġadapt ed
Ġin tern
form ing
Ġprom ote
Ġcru cial
els on
Ġst ead
ra it
Ar ray
cl osed
Ġro of
inc ial
. \\
Ġoffer ing
iam i
ĠN E
Ġillust rated
C re
Ġrelationship s
n ie
du ate
= '
ĠM oscow
N on
og y
ĠP a
ĠOffic er
Ġra ise
Ġresearc hers
Ġprem ier
Ġm ask
in cess
ag h
Ġimmedi ate
ĠInst ead
ĠB rian
Ġhel ps
i pe
ĠS ound
M c
m al
Ġmanag ers
Ġt ack
de v
Ġalgebra ic
z ing
Ġcross ing
ĠS ign
Ġconj ug
kl ahoma
## ##
Ġvill ages
Ġpurch ase
Ġre aching
Ġaccount s
Sports people
ĠComm unic
Ġadv oc
ib ration
ÃŃ a
Ġvol unte
Ġgreat est
Ġl ift
) ^\
Ġpolar ization
ĠAm ong
ant asy
! \
Ġch airman
Ex p
ist ant
Ġinf rastructure
d l
ep ing
ill ed
Ġj ourney
st ances
at in
ĠL iter
T A
Ġcomb at
Ġins ert
It em
Ġarg ued
@ {
ii i
Ġunder stood
bold math
19 13
Ġsc ope
ĠAr k
ous es
ĠBase ball
Ġin h
yp es
w ick
. ;
Ġcomm itted
R L
Ġsec ure
Ġinstit ution
Ġint elligence
Ġag ed
igen ous
sh ips
ĠSupp ort
Ġweap ons
ce ived
ri p
w rite
Ġvari ant
G en
ru ption
ĠW olf
Ġstrict ly
Ġexcell ent
ure au
ĠD M
Ġoccup ied
en ance
Ġt error
w all
ĠM L
B ibliography
Ġliqu id
~ (\
backs lash
Ġsupport s
ĠU l
Ġuniform ly
G a
$. }
Ġfrequ encies
var rho
As sum
Ġcap able
v y
Ġst ret
! ]
\! \
ĠAn ne
Ġm ort
Ġinst alled
ĠTok yo
ict ional
Ġhoriz ontal
//// ////
Ġmet all
Ġsix th
{ (\
Ġhy brid
R I
ag an
ut her
ĠViet nam
Ġg one
Ġdec or
' _{
im its
inem a
Sy stem
ard o
Ġsever e
Ġinterest s
Ġf er
ĠDig ital
Ġly rics
14 0
Ġthink ing
Ġnom inated
19 11
down arrow
Ġsm art
Ġexhib ition
w ave
Ġca using
Ġfav our
ot ers
Ġpres ents
Pop ulated
Ġb ronze
E uro
Ġworld wide
Ġp lease
Ġk id
ues e
ĠAl bert
is ot
od ge
cl ine
Ġcrow d
ne ction
Ġw onder
Ġcertain ly
Ġprec ision
Ġeduc ated
Ġdeliver ed
ipp ing
ĠFre der
per t
ĠT en
ĠN et
v ens
her ical
Ġprec ise
ass ert
a uthor
R ad
gh an
Ġregard ed
ĠB os
Ġmod er
Ġsign s
Ġheav ily
C ode
Ġperman ent
H om
Ġperiod s
ĠH ur
ĠJ os
Ġle ct
Ġre new
Ġstand ing
ĠB alt
T ax
) (\
Ġrapid ly
us cript
ĠSw itzerland
c ers
Ġt ag
ĠF a
text normal
Ð º
Ġcrit eria
Ġbro ke
re present
ĠS che
erc ise
Ġattempt ed
te es
190 8
rel ation
ubl in
w ind
Ġd ry
Ġpre ced
Ġl ists
er on
Ġconfig urations
A f
ĠKent ucky
Ġsupp osed
ĠAn y
ĠSt one
Ġch ose
Ġkill ing
B el
is en
Ġm ental
ĠS em
}_{ {
N orth
Ġdec ade
ject ure
d am
Ġport ray
Ġset up
ache lor
Ġco aches
ĠC H
Ġjust ice
ĠQueens land
ar ithm
pos it
ĠF red
gl as
text up
Ġsens itivity
Ġenc ounter
Ġh alo
ict ed
Ġsimultane ously
Ġsup ers
| $
Ġ\ [
Ġelect rons
ĠHot el
ĠS quare
w as
Ġb arri
ĠAust ria
Ġsee ing
ith ub
art ing
ro b
c u
Ġf ear
Ġloss es
ĠN ig
Ġdec isions
Ġbound aries
) }.
Ġrepl acing
ĠF ront
ĠC ape
Ġatt ached
l ast
ĠGree ce
ĠL ic
Ġb an
Ġsche mes
ĠH ans
Austral ian
p et
H igh
in ator
Ġd im
$ ^
ĠGu ide
Ġ ille
Ġclass ified
ĠF ourier
it udes
ĠAdminist ration
ĠB urn
flo at
t ag
Ġcontrib uted
Ġmark ets
r ine
pr ise
oy d
orthe ast
Ġc ro
Ġsystem atic
ĠSen ior
etail s
Ġoper ate
Ġste el
ĠG R
mod els
Ġf itting
Ġn il
Ġsus p
up arrow
Ġair port
Ġconvent ional
Ġsubject s
Ġquadr atic
ĠĠĠĠĠĠĠĠĠĠĠĠĠĠĠĠĠĠĠĠĠĠĠĠĠĠĠĠĠĠĠĠ ĠĠĠĠĠĠĠĠĠĠĠĠĠĠĠĠĠĠĠĠĠĠĠĠĠĠĠĠĠĠĠĠ
Ġbl og
P O
ĠHol y
Ġreason able
ic ut
Ġcrit ics
Ġem pir
K e
n m
ag u
ys ical
Ġstar ring
Ġinvestig ated
ĠDi ego
Ġinstrum ent
Ġ elli
ĠC er
iam ond
Ġad ult
ar ma
Ġf aced
Ġacc ret
Ġsh ut
M ult
ic ide
Ī Ĵ
ĠM C
Ġp m
Ġstrong er
ib ilities
ant um
F S
in ch
Ġch a
Ġstraight forward
Ġmodel ing
ĠB ah
rac ks
Ġh ierarch
Ġold est
C all
B R
Ġpart ially
ĠCh all
Ġsol ving
Ġpric es
rib ute
Ġtra v
m o
Ġdis put
S che
pro v
ĠW y
M essage
ĠC ra
text color
Ġdef ines
Ġsent ence
M E
Ġaccom mod
ann er
n ull
N C
el ve
ĠâĢ ł
Ġstudy ing
stack rel
d irect
ynam ics
ĠC art
sy mmet
Ġreconst ruction
ab et
Ġs we
Ar ch
ub er
ĠMar c
in th
l en
s g
Ġderiv atives
P at
De ath
Ġanal ys
ot on
cre ate
&= &\
S ources
Ge ography
Ġconcern ed
Ġprom otion
E v
Ġun f
Ġstri ke
Ġnormal ized
Ġp uls
Ġst ores
Ġhapp y
Ġdrum s
Ġe c
| ^{
Ġc odes
Ġref used
Ġrelig ion
ĠHou ston
Ġbelong s
Ġvary ing
Ġcor on
ĠLem mon
Ġeduc ational
M T
ĠH om
ĠHe art
Ġd ates
ag ram
Ġp od
inv ariant
Ġw ire
li ent
)} (\
ĠC L
ĠLab our
um ps
G S
ĠDo ctor
Ġcho ices
ĠSim ilarly
ĠV ideo
Ġuncertaint ies
iv a
ik h
Ġbrother s
? "
Ġm ount
bin om
T ube
s quare
ĠI S
Ġexpl os
H on
put ation
Ġpropos al
St ar
ĠReg ional
b p
ap el
ipp i
et ch
Ġident ification
ĠRet urn
U C
Ġorb ital
] )
Ġde viation
ĠMe an
ud i
Ġappear ing
ene z
Ġhom ogeneous
Ġdr ivers
L ong
)-- (
ĠAl abama
Ð »
Ġt ang
Ġsh ares
z i
Ġtop ology
Ġind ices
ĠB arn
ĠC atal
Ġf old
Ġrequire ment
ic ate
ĠR yan
su ccess
C ase
g i
Ġf olk
Ġrecover y
Ġn aturally
Bl ack
Ġhelp ing
ĠG ab
Ġsch ol
Ġisol ated
ĠAss oci
ĠV iew
un s
Ġch arts
M ich
ud a
fin ished
Ġsett led
Ġexpos ure
se arch
Ġpriv acy
l ad
ĠSe ason
D ep
Ġpotential ly
ĠS port
rid ges
ĠDon ald
Ġshort ly
Ġview ed
Ġlaw yer
ĠHaw ai
ĠM S
ĠC R
ock et
ĠAmaz on
P res
Ġhoriz on
math tt
Ġs ought
Ġm ales
ĠK ey
ĠB ry
Ġdist ances
Ġcontinu um
ĠCo oper
ta h
yn asty
r in
Ġ });
H O
av irus
ĠJ un
han ced
? âĢĿ
Cur rent
Be fore
U K
Ġfac ilit
is lation
Ġdiff usion
Ġexec ution
Ġpolynom ials
ĠCont rol
an ia
roll er
Ġsh aring
Ġt argets
P oint
Ġdecre ases
Ġne ither
Ġf ly
Ġhead quarters
enn y
Ġdens ities
iment al
i ot
Ġd og
Ġformer ly
ĠB ir
ĠS P
ĠCon stitution
ate ur
ut ies
ĠSil ver
Ġtop ic
( [
i ative
u able
ĠTh ird
Ġmaintain ed
unn y
Ġs now
Ġk il
Ġneutr ino
Ġaccom pl
" "
ĠB eng
Ġo vers
Ġpain ter
ĠD NA
ym n
Ġjo ining
cul es
\| _
="../../ ../../
Ġdesign s
ĠDis ney
ĉĉĉĉ ĉĉ
ĠI r
Ġoff set
ul ner
Ġre ward
Ġcol ors
ĠS ix
Ge V
ER T
re a
Ġdis order
ĠMo ore
Ġsign ature
az a
Ġbring ing
pl an
Ġsy mp
Ġequ ipped
Ġconclud ed
ĠC ode
Å «
ch ain
Ġm ir
rins ic
Ġf ranch
ĠWind ows
Ġform ulation
aw are
Dav id
f ast
ĠJ ay
Ph il
Ġv o
ĠDe ath
Ġpresident ial
ĠM ap
L eg
ĠAll en
Ġrestrict ion
oc racy
ist a
ĠPat rick
ĠSpace watch
Ġscen arios
O ct
ĠR est
ĠMr s
ut il
Ġbo at
ĠSquad ron
res p
eg et
ĠLin coln
Ġexc ited
$\ ,
Ġoff ices
ash i
Ġdiscover y
e vent
ĠAnth ony
Ġl es
ĠJes us
el ian
Ġst opped
st at
mult line
f rame
g ithub
rain ian
Ġcomm ander
Ġautom atically
$- $
Ġcomplet ion
j u
iction ary
Ġs oci
Ġdis pl
oc a
ĠG ard
Ġent itled
ĠWh it
Ġaccom pan
Ġsit uated
Ġv irus
Ġdescrib ing
Ġg ather
Ġmarket ing
Ġf iber
Ġk ids
tain er
ĠNor wegian
act or
] ^
} /\
Ġmusic ian
V ideo
am an
ĠL ank
Ġsur ve
ĠCl ark
m t
18 90
includ e
Ġmin ute
ort ion
Ġdiam eter
Ġens emble
y ers
ĠW ednesday
ili ar
circ le
Ġw ait
Ġstat ements
f ull
Ġwor st
v ia
Ġc yl
r l
ĠHar ris
ĠV ice
f alse
ĠWal ter
Ġ$ ^{
roll ed
ol o
Ġmay or
Ġattack ed
Ġca ught
Ġl ake
Ġsucceed ed
Ġqual ified
D D
O ff
Ġad vers
Ġpost ed
Ġmetric s
t or
ĠF arm
ĠD aily
Ġiter ation
Ġfind ings
ar on
Ġmarg in
ĠAg ency
Ġs ons
Ġen emy
ta ch
GB T
ĠT uesday
yn c
erm i
Ġspe aking
con text
ĠEm peror
Ġweight ed
ut s
Ġirre ducible
7 00
empt y
ook ing
ĠM oon
pro pto
E lement
h ow
ĠPl ace
Ġanaly tic
Ġemer gency
ĠAd ditionally
ĠHow ard
Ġmorph ism
ed ition
Ġsk in
iss ue
ĠN ich
ple x
Ġre volution
Ġqu as
ĠF riend
ambig uation
iss ippi
o a
Ġfound ation
B ase
Ġre in
e ven
0 10
Ġform ally
ĠO klahoma
Ġhol es
E ach
ĠTh ursday
Ġdiscuss ions
Ġb rown
Ġre nd
Ġshoot ing
ĠR ab
N O
Ġch apter
Ġorth ogonal
ra ble
rom agnetic
d oc
Ġprom pt
_{ +
her ic
ĠFor ces
d ash
Ġ{ };
ĠH u
Ġ( ,
Ġcomp ens
c ard
Ġorient ation
M D
S H
*} [
ĠM A
w hen
Ġvacc ine
Ġassist ance
ĠM and
Ġannoun ce
ed ing
Ġgood s
tain s
comple te
Ġexhib it
Al so
W ind
Ġpoint ed
M ain
cre d
ĠStand ard
ĠN ative
G r
Ġh its
Ġen able
R ail
d oor
Ġbo ost
Ġdeliver y
ĠK y
ĠV in
G ener
p red
Ġst ack
ar ry
c ross
J ust
Ġeven ing
ot te
is ations
left arrow
Ġw at
cy cle
Ġadv ice
Ġscient ists
ou stic
Ġat omic
ĠN av
Ġdefinition s
ĠIsrael i
all as
ĠE dition
ire ction
Ġra in
Ġt all
ex pected
I ST
k g
Ġbas eline
hy thm
ĠCh ile
a ire
Ġconstit ution
Ġpercent age
is ition
Ġqu ot
Ġsatell ite
che ll
Ø §
op ter
ed u
190 5
Ġread s
Ġcomp rehens
. $$
ĠY outh
Ġrestrict ions
---------------- ----------------
ent ry
ĠCol omb
Ġm ob
Ġplatform s
ĠSing h
Ġdisplay ed
Ġtrans itions
ra ys
ĠTem ple
Ġexpect ation
Ġinv ited
d em
Ġtempor al
ob serv
Ġparticip ate
ĠMar ine
ug u
ĠChe m
J u
ĠLag rangian
=\ {
pd ate
ĠC ulture
ĠCol lection
h ave
Ġinflu enced
uer to
Ġmechanism s
l ades
ĠRec ord
& &\
b urn
Ġr ating
h av
ĠP erson
cy cl
Ġincreasing ly
D ate
Ġtem ple
Pl ot
ĠK now
ĠSw iss
. /
ap ache
im ation
ĠR E
ĠCor ollary
Ġliter ary
ĠDe ad
ress ive
en ia
Te levision
Ġt el
}. }
Ġout come
Ġinj ured
Ġg iant
ĠPal est
Ġdiagram s
Ġreplace ment
ĠO ak
ĠHol lywood
Ġmess ages
T D
ĠF ame
ĠB ou
1 12
Ġrespons ibility
âĢ ¢
Ġd a
c lear
ph p
ĠK am
Ġstruct ural
ĠN ag
Ġm il
ĠF all
ne xt
Ġst abil
ĠG ram
Res ult
ĠR y
Ġcompar able
ess ions
ĠEar l
Ġ( ;
ĠD a
ĠIslam ic
ĠOn line
Ġdispers ion
own ed
j pg
O rig
190 9
Ġtrans verse
u j
w en
Ġtro ub
ĠTur kish
Ä ĥ
on om
ĠPh ill
Ġsym pt
Ġeas ier
Ind ian
Ġf alls
Ġj ur
od a
gress ive
Ġindepend ently
Ġleg end
eg er
du ctor
ĠS n
Ġdom ains
Ġre tail
190 6
Ġcoll ision
or ous
th rough
Ġre nt
ĠPh ot
B ra
Ġpoet ry
ĠF ull
St ud
d ale
Ġab stract
190 7
M et
ĠA ction
Ġgun s
Ġl aser
V ol
Ġro ut
ĠG ordon
Ġinst ances
est ed
Ġretire ment
Ġsymbol s
ĠLa ure
ĠBill board
Ġf ought
ĠArch itect
Ġincorpor ated
Ġsp here
ĠD ur
ĠN ik
Ġeng aged
ĠSc ient
Ġcon volution
) _{\
Ġw al
oc y
Ġrestaur ant
Ġcom fort
ific ial
ĠRober ts
ĠK evin
Ġindu ction
ss on
Ġmembers hip
Ġarr ival
n ik
aint enance
Ġj azz
ug ar
Ġclos ure
Ġsignific ance
ie val
Ġcorrel ations
Ġa f
$\ \
Ã© t
ĠM iami
ĠI mm
m ic
ĠP age
me an
Ġs udden
ĠInf antry
ane ous
H el
ck er
ĠTe levision
ĠE arly
ĠAl gorithm
Ġd uration
Ġs ight
ĠR ic
Ġdivers e
ĠM i
ĠI l
}) ^{
st s
oc ese
Ġchalleng ing
Ġre con
ĠR ight
j ava
ĠD ak
w ill
foot notes
ual ity
viron ments
Ġun s
Ġweek end
ĠHer itage
Ġsee k
Ġfun ctor
Ġa u
ativ istic
ab ad
1 15
ang el
ist ence
ac le
ou ble
th ick
ĠK az
ĠA le
on omy
ĠRe ad
ĠB ureau
ĠL am
ram a
w ho
Ġf ilt
R ober
ta ke
H am
arg o
Ġmin ing
ro ke
Ġdirect ors
Ġacc used
Ġ} ;
10 5
$ }}
b es
Ġf itted
Ġindic ating
ĠVill age
iem ann
we ak
re tt
Ġcomplic ated
ocr atic
O pen
Ġim possible
ren cy
l arg
ĠAl bum
ĠBr un
cknowled g
s is
or ro
Ġl aid
ã Ĥ
ymmet ry
$ '
Ġn ar
Ġ\ |\
od s
ort ed
il st
ĠTra ining
R un
et ary
Ġsh op
ĠT it
small skip
f a
r ase
Ġt ropical
Ġpublic ations
ograph ical
ĠH as
Ġte achers
ĠConnect icut
Ġin her
Ġsum m
footnotes ize
Ġun iqu
Ġsing ers
Ġsu it
ĠCommon wealth
oth s
Ġver ify
Ġsche dule
Ġv eter
Ġ ri
Ġsl ope
Ġm al
Ġredu cing
Ġabs orb
fin ite
ann y
Ġreg ul
Ġhistor ian
B orn
ĠMat thew
Ġplas ma
ph ase
ĠE ag
Ġf aces
Ġsub space
m ode
ĠT reat
ĠDet roit
Ġfact ory
Ġm ine
Ġform ul
ast s
ĠH erm
ver age
ors es
Ġp ione
Ġphot ograph
Ġh am
ic ious
es is
12 3
Ġsurn ame
ie ce
inde pend
connect ed
d ie
Ġcompet itions
Ġhe aring
Ġcent uries
Ġs elling
oc he
ut r
Ġv oted
ail and
ig ious
ĠPro te
ownt own
L R
}{ {\
ĠMark et
A cc
Ġpers ons
Ġatmosp here
ĠL as
E p
ist ration
> >
Ġapp rec
Ġgener ator
dis ambiguation
ĠBow l
Ġcl ients
ĠAf ghan
Ġent rance
Ġs rc
Ġb irds
t age
sh ow
Ġmed icine
Ġ Ä
Ġfound ing
ruct ed
ut ation
Ġm it
Ġ- --
ell s
E ducation
ĠAl ice
ĠP as
Ġmet res
11 1
V ill
ĠF inn
ect ure
ens ing
ĠC le
Ġform ing
V er
ĠIndepend ent
al ed
Ġstre ets
Ġlic ense
Ġbran ches
Ġcon crete
Ġgra de
ĠC NN
Ġpro position
Ġconsist ed
Ġch air
Ġcent ers
ear ing
Ġr uled
ĠBatt alion
U s
D irect
Ġd ip
f all
\ },
Ġj ava
Ġag encies
ra ce
ĠC emetery
Ġcarry ing
Ġanaly ze
ĠUn it
ĠOb serv
Ġse es
er ion
Ġinstrum ents
Ġcre ative
Ġun us
Ġcounter part
Ġman uscript
Man ager
al ities
Ġleg islation
Ġshe l
Ġtop ics
am ents
Ġtransl ated
Ġcommission ed
ĠN atural
Ġcerem ony
M any
Pro position
ĠS el
\ }.
% ,
ĠS O
Ġdeb ate
ĠV ari
ĠMicro soft
Ġm outh
Ġc ub
Ġh a
Ġlik elihood
nol imits
Ġre cept
Ap J
ĠC hen
ang ers
se a
Ġord inary
st ructure
eg as
Ġoper a
Ġf its
Ġfavor ite
D ec
Ġrat ios
Ġsim ulated
b ul
level and
Ġpenal ty
e ast
U L
pre c
od ox
Ġt ennis
25 6
ĠYou Tube
Ġlands cape
190 4
ish ment
Ġc ash
ĠD ave
im ore
d esc
Ġa ired
Ġr ival
ĠCh ampions
Ġb anks
Ġmer ch
Ġ( ),
Ġcompet e
Ġde leg
Ġfeel ing
ol ished
ĠK er
Ġcompat ible
Re ad
angle ment
ĠS in
Ġl ose
ĠExp ress
ĠAd vent
ce il
aw ay
Ġaband oned
om as
ĠWh y
b c
ap olis
pack age
ĠAl an
Ġte en
est yle
Ġsoc cer
X X
ĠPro b
ĠP ed
Ġmov ies
ĠO tt
Ġtechn ologies
Ġtouch down
Ġsh arp
Ġadapt ation
Ġmer ged
r Ã©
F ootball
Ġvictim s
Ġhe ter
Ġregular ly
Ġreve als
P aul
d ensity
ĠC A
at ics
go ogle
b ey
in burgh
el and
Ġtalk ing
m aster
ail ed
c ss
cl ose
M O
ĠR ub
ĠDou glas
Ġextract ed
Ġrandom ly
v ity
Ġmechan ical
ate ver
con duct
Ġestablish ment
Ġmod ules
ĠTai wan
Ġrecomm ended
ĠH ilbert
Ġh un
Ġmanufact uring
ĠOb ama
ĠP rix
190 1
Ġb ars
Ġrec ur
li est
Ġa er
ĠLouis iana
al ia
ri k
Ġhundred s
ĠC ook
Ġimp ly
) }$.
ug ment
Ġkey board
Ġanc est
ĠCro at
and o
ĠB lo
f amily
er g
Ġphot os
in ian
ip art
190 3
ĠT ar
Ġelement ary
pl us
ĠMiss issippi
ĠB ox
A ng
irt ual
> &
Ġocc as
Ġinh abit
Ġ{ $\
ch t
ĠNC AA
ĠR ow
over y
ĠHon or
Ġass ault
o es
Ġsimplic ity
Ġaccret ion
all ow
ĠBelg ium
Ġcour ses
Ġon going
Ġst ating
ili ary
sh ot
iss ance
Ġre vers
ĠG L
ĠF le
Ġpass enger
ct ic
Ġc raft
ĠC op
com put
Ġeng ines
Ġwind ows
I O
sub equations
Ġreal ized
Le ft
i ac
Ġr anges
Ġknow s
is ode
end ar
Ġth read
ĠG arden
Ġ ..
Ġexec uted
Ġtri es
ĠN ob
\ [\
ĠDen mark
row ser
Ġsol ved
Ġr is
Ġacc ord
ĠArgent ina
Ġpaint ings
ĠAnton io
M ilitary
ĠP ra
Ġtransform ations
W hy
ac on
Ġdis miss
V is
Ġreson ance
Ġst im
Not able
ĠL ang
ather ine
ĠI T
Ġf lying
ĠE mer
ĠCont in
ig e
A ction
Ġsp end
function s
ĠAl b
ĠD al
Ġconven ient
ol y
Ġcompet itive
Ġinter vals
Ġr u
ĠL yn
ĠN ash
F unction
ĠTh ough
Ġne arest
ĠN aval
Ġbo ys
s a
ĠD VD
ĠL INE
Ġconsum ption
G E
ĠBrazil ian
D en
Ġc ards
Ġch urches
in ces
Ġw arn
ĠU V
ĠĠĠĠĠĠĠĠ ĠĠĠĠĊ
Ġman age
ĠP rom
re pre
Ġ ~\
int end
ĠC ow
s em
Ġhigh way
writ ten
Ġdis establ
ĠP ay
ĠD ublin
Ġsports people
S an
ĠStud ios
, ...,
i eg
Ġexp ensive
at ivity
Ġab use
Ġinf lation
Ġcompar ing
Ġcosm ological
Ġis lands
18 80
Ġm m
Ġembedd ed
ĠH ills
M F
ĠHar vard
Form er
Ġf at
L abel
Ġre jected
ĠIndones ia
Ġis omorphic
Ġfil ed
ĠSo ft
P os
ĠA L
B H
ĠMay or
Ġphot ons
ĠCap ital
ĠL anc
Ġin duct
Ġsmall est
cl os
iver pool
S ty
F inal
Ġsubstant ial
ĠSystem s
Cl ub
ay an
m ember
ĠK o
im ages
ĠE ver
Ġsit uations
ĠS E
) ).
big cup
Ġn a
hib ition
t ed
Ġres erve
Ġturb ul
os ph
Ġass embly
ĠR ound
Ġbr ings
Ġre aches
ps hire
repre ne
el lect
. '
Ġcirc ular
Ġwa iting
Ġloc k
Ġcoll apse
Ġan th
ug s
ĠH ockey
Big g
ĠE vent
ah n
190 2
Ġproper ly
s burgh
Ġd uty
ĠBul g
ĠE ff
ĠKel ly
Ġdistingu ish
sp in
Ġh al
ĠAl ber
Ġrem ote
ĠM anu
H D
Ġd iversity
Ġtraject ory
Ġp y
Ġw aters
Ġneigh b
d est
ĠF A
Ġroad s
ic i
sh ort
à ¥
or ient
ab ric
__ __
Ġcustom er
ĠQue bec
Ĥ ¬
ĠPortug uese
ĠBudd h
ĠR ace
iv ation
Ġrecover ed
ĠF ried
ĠP ur
\ }_{
at en
Ġdef ining
y cl
Ġloc omot
ĠWalk er
or ne
por ated
ĠC ry
Ġst adium
ĠRes ults
Ġro oms
ĠP ack
Ġreg ression
ourn als
ĠEconom ic
Ġd ies
Ġhead s
Euro pe
Ġb id
Pro v
Ġturn ing
Ġapp lies
Ġstation ary
ĠNew ton
hip s
ĠSchool s
ol ph
res pect
Ġ\ {\
ĠF M
ĠPhil ip
Ġgradu ate
ĠA P
ĠB us
M us
Ġconnect ing
ĠH um
Ġal gebras
) }$,
cor respond
k ern
Ġen vironments
Ġre venue
ĠĠ čĊ
Ġupd ates
ĠA C
Ġvis itors
th an
Ġdec ide
ura ble
Ġp itch
M arch
f ather
re ams
Ġaccess ible
Ġcom ic
st ery
Ġcon vention
Ġhard ware
lem an
}{*}{ $
G P
inc or
Ġ\ }
cent ral
Ġman ip
Ġst ored
Ġin aug
Ġwe ar
ĠSe attle
Ġsimilar ity
t ree
H P
Pro perty
ĠAtl anta
Ġconcer ning
;\ ;
U ser
Ġn ice
Ste p
Ġep och
J ames
Ġret rie
Ġsur gery
Ġinv ent
pro fit
Ġread ers
Ġre plic
uk i
ĠLiber al
Ġposter ior
) "
) >
ĠC ond
Ġamount s
cl ide
Ġast ron
Ġconsider ation
ĠAb d
ĠDef ense
C ap
Ġfin ishing
mathbb m
ĠZ e
AT ION
ĠW ard
ol id
Ġsy nd
ĠD ick
Ġwas te
ĠĠĠĠĠĠĠĠ Ċ
Ġf ruit
our se
m outh
Ġkn ock
os lav
az e
b ach
Ġfle et
Ġexplan ation
Ġfram es
ĠJu an
Ġv ast
ĠD anish
Ġinput s
ant on
ĠM ath
over ty
Ġacc um
ĠHistor ical
Ġmid field
ater ial
Ġdecre asing
Ġadm itted
se lect
Ġcrick et
ĠP ap
Ġsus pend
ĠSoc orro
)= (
ater n
ĠF ern
Ġl it
bor ough
Ġphil osophy
ph an
col l
g ets
ĠMor gan
ĠLINE AR
ĠP ope
Ġst d
Ġtri als
Ġslow ly
ĠH ug
R ich
ĠBrig ade
b ed
de p
Ġm eta
du al
ubl ished
ĠI ron
Ġpass engers
Ġv ulner
field s
Ã ¥
qu est
ur ers
W S
ĠOr th
ĠDef inition
sc ription
Ġexpl ains
f ront
ĠOr chestra
ĠTer rit
leq slant
ĠB ull
Ã ´
Ġpresent ation
ĠS R
1 14
init ely
ĠDe an
Ġst ood
Ġexper ts
c hers
} >
Ġref uge
Ġh ired
Ġex ercise
Ġs oul
1 13
Ġass ets
t arget
cite alt
ick ing
ĠCom mer
ĠPortug al
d escription
A ugust
et ry
ĠAg ric
}) =\
ĠR ick
Ġme ets
Ġeigen value
if ting
H y
Ġassoci ate
Ġd ress
ĠRuss ell
Ġsound s
ĠB art
ordin ate
so le
oun ced
se p
ĠF il
Ġaver aged
Ġprinc iples
ant ine
Ġtrad ing
Ġabund ance
Ġgu ess
ĠD E
ĠL ib
^+ $
L ocal
ĠPlay er
b ad
}^{ +
Ġre ign
ut ely
}^ +
ĠA I
ĠAn na
Ġhost s
Ġcondition al
Ä «
h us
Ġp ron
o om
Ġferm ion
M I
ĠMc K
Ġut ility
] =
Ġseem ed
ĠP uerto
o i
place ment
ĠSever al
or f
Ġsp ending
Ġent ering
}} ,\
be an
m ag
ĠTh ailand
ĠRes erve
Ġde put
ma king
N umber
B bb
ex per
l oss
Ġwhe never
Be cause
ĠMat hemat
Ġb ath
Ġgrow n
l ights
ir ation
m f
Ġmiss ed
Ġpri ze
end ment
um in
ĠSar ah
ĠF uture
ol ves
ĠG ene
ĠT erm
Ġcl imb
bar a
u h
el se
ĠBang lades
f ol
Ġch ampions
spec ific
Ġconserv ative
Ġwhe el
l on
Ġground s
ĠK ings
ĠI P
T em
prob lem
clide an
W E
Ġcon version
Ġdis contin
ou ch
ĠP eters
opt ion
Ġsc r
Ġn an
Ġdepict ed
ĠP ear
ass um
Ġrow s
Ġmat ters
he rence
W orks
1 17
ff ee
Ġcl er
ĠEd inburgh
Ġse cretary
U p
text sf
math it
ĠLaw rence
vious ly
Ch ild
{ .
ĠT ig
Ġdrug s
Ġinv asion
az ines
Ġround s
Ġj unior
Ġenter tainment
M ajor
ĠP A
Ġat om
Ġd rag
pro tect
Ġt ank
Ġconcept s
Ġus age
E very
Ġdef ensive
ĠMark ov
B ur
Ġcool ing
Ġcut s
Ġf ul
Ġfranch ise
Ġpl ots
Ġcorrespond ence
Ġb inding
d ied
f unc
Ġwor se
ch anged
ĠU tah
3 60
u on
ĠC it
Ġad ults
Ġcollect ive
ser ies
Trans port
F lor
st ates
or us
Ac adem
F O
Ġv eget
Ġempir ical
Ġand roid
Ġpro sec
Ġfact s
re ement
Ġunit ary
ĠAust in
Ġst uff
Ġch iral
! "
part icle
\ -
er as
b ridge
ĠG on
Ġpre gn
Ġinterpret ed
Ġf ault
Ġp ray
Ġsepar ately
ĠEq s
N av
Ġlog arithm
Ġhydro gen
V I
Ġtru ly
Ġaim s
red it
_{ [
ol as
Ġne ur
Ġa ux
B r
enez uel
Ġrecord ings
co in
ĠEqu ation
ĠM ission
R oman
Ġmer ger
Ġ }}
Ġan not
Ġc av
ren a
Ġcast le
t re
un finished
ĠMalays ia
ĠTra de
Ġlabel ed
Ġaccompan ied
J o
ys elf
Ġconsider able
ĠF ive
ĠYear s
Ġactress es
ĠR ol
param eters
Ġgrow s
M al
Ġrema inder
ĠPe ace
ĠD at
Ġ= ==
as a
_{ -\
ĠN ar
W ork
Ġcir cles
F amily
;" |
ĠLie utenant
Ġso il
Ġsee king
Ġarm ed
R T
ĠEx pl
ot er
Res ponse
Ġgreat ly
Ġcorpor ate
ĠB ush
fin als
Ġa cknowled
ter ior
ĠAd ams
i at
ĠPal ace
Ġcl ock
Ġconver ges
ob by
) [
ĠS ud
Ġoff ensive
St at
val ued
c all
ĠAn alysis
ĠP un
Rec all
ĠD ream
Ġv oting
th ree
ob i
ĠI mp
Ġins urance
Ġdesc ript
ter y
ĠU se
bet ween
Ġrob ot
Ġprodu cers
Ġdifficult y
Ġgener ators
Ġapplic able
l b
P e
ad ata
Ġc od
ĠM os
Ġh ospit
ver b
at hered
ĠCh airman
\, {\
* \
ok ing
g ment
ĠN one
Ġmathemat ical
ex ists
en ian
ot he
Ġinter ference
cast ing
Ġo x
Ġro utes
Ġfe as
Ex pat
ĠM es
Re ception
ĠSam uel
Ġk it
ĠCon c
ĠQ CD
Build er
Ġtw elve
| _
ĠOb ject
Ġt unnel
U LL
Big r
Ġal coh
Ġgr ass
Further more
ĠC P
Ġn ick
def n
Big l
ol ving
Ġkin etic
d ir
Ġreport ing
Ġcol lections
Ġent ity
}[ !
u is
Ġunivers ities
ot ten
Ġrank ing
M a
Ġsing ing
v as
ĠT O
li x
ĠF ermi
St ream
ĠB uck
Ġstead y
Ġsub section
g ame
ĠF ight
In put
Ġcon formal
Ġser ial
Ġoper ates
Ġinteg ers
Ġcomprehens ive
Ġdou bt
up le
script scriptstyle
Re v
Ġle af
Ġint ent
A pril
em en
Ġ( +
ĠA ccess
Ġp ump
p air
roph y
Ġfam iliar
y stem
c ription
Ġb ool
K S
Ġproced ures
Ġang les
ĠD ie
Expat riate
Ġsp herical
Ġpeak s
B N
Ġel ig
G ra
ĠH old
ĠM ol
Ġfac ing
J une
ir i
Ġcould n
pro perty
Ġsp r
ĠH ind
Ġval ley
Ġpseud o
r ations
ĠDom in
f ire
Ġt um
Ġg arden
Ġback ing
lect ic
ĠAll iance
ĠIm perial
Ġen hanced
xy gen
Ġappro val
Ġcho osing
D I
' $.
Ġed ited
Ġdesign er
Ġann iversary
189 8
Ġm art
ĠL anguage
C lient
Ġde vi
ĠNig eria
per iod
Q ue
Ġarrang ed
Ġpix el
Ġpay ment
Ġhe lic
Ġin ternet
oun sel
ist ing
ĠFin land
Ġcommunic ations
Ġd t
ĠA S
Ġlog ic
Ġb ott
C ref
ho en
u ity
Ġinter pol
Ġsp oke
Ġspl itting
10 2
) ),
ir ates
sc ope
ĠAuthor ity
Ġrel ief
E st
P an
Ġres idence
Ġ urg
qu ir
Ġvol umes
Ġdraw ing
Ġgl ob
Ġcount s
m oment
ĠT s
ul us
Ġassess ment
ĠP ref
Ġgeneral ization
Ġweek ly
p ress
ĠE ss
un ity
ĠBet ween
Ġthe rapy
C ell
Qu ery
| _{\
ath y
ĠD ub
ĠW here
ĠArk ansas
Ġcr ash
ĠAd v
Ġagric ultural
Ġmar ine
ĠThom pson
ĠH ell
le e
& $
Ġprefer red
Ġt on
ĠI ss
ĠS ac
Ġcircum stances
W ar
ĠMc G
ĠDep uty
Ġcontrad iction
Ġste am
Ġne uro
ĠP ut
AR T
ĠN umber
Ġresident ial
esc ope
Ġa maz
F ran
ro se
ĠLeg islative
Ġm ixture
Ġmay be
Ġarr ive
Ġren ormal
am ps
C N
ĠC S
ĠĠĠĠĠĠĠĠĠĠĠĠĠĠĠĠ ĠĠĠĠĠĠĠĠĠĠĠĠĠĠĠ
g on
ho le
Ġestim ator
i op
10 4
m illion
In it
ĠÃ ī
Ġc ited
ib l
T im
Ġorb its
ĠSm all
ĠY an
Ġp ole
uch y
Ġcontinu ing
ĠS ite
Ġpl otted
new line
ĠBru ce
Ġaff ord
Ġphenomen on
Ġreli able
Ġsympt oms
Ġge odes
Ġpubl ishing
iz able
Ġsp an
Ġoccup ation
Ġpro spect
= -\
Ġd ream
Ġpreserv ed
Ġf ired
ĠLim ited
18 99
W A
g ood
k ar
\, ,
appro xim
ĠM ars
ail s
Ġbe ar
not in
at ar
ĠDe ep
o ks
ou ver
Ġimpro vements
Ġlist en
g ow
Ġtra il
ri or
Ġreal istic
t b
F E
Ġb on
B P
Ġm ilit
s uper
pon ents
Ġarg ue
Ġal leg
Ġh ur
Ġmy th
Ġput ting
ĠVol ume
ĠPubl ishing
ĠCur rent
ĠF isher
Ġbelong ing
D om
ul um
is hers
m ove
Ġout comes
ĠCar lo
ĠN eb
i ere
Ġes cap
ĠD allas
ĠL iverpool
ĠY ang
Ġa ugment
b ow
ens ively
ĠP ad
il ine
Ġspect rosc
ourn ament
im p
Ġathlet es
Ġpropag ation
V ER
Ġaff ine
18 95
ĠA BC
ĉ Ġ
ĠN ic
ĠKenn edy
ĠPo isson
n or
G O
J anuary
] ^{
Ġmarg inal
ĠW right
Ġm aintenance
Ġ_ _
Ġd il
Ġcon e
Ġneut ron
ar ial
im ir
is ons
ĠDel hi
e lement
names pace
ĠL ane
18 70
it is
d ers
P rop
ill o
Ġar ise
g ate
ĠTam il
Ġamplit udes
Ġapparent ly
Ġin vert
ĠP rad
189 7
id ance
ĠUnivers e
Ju ly
Ġseg ments
add ing
Ġd war
ass ador
ĠNe v
Ġadvert ising
3 50
Ġdecl ine
ĠV ik
ĠA y
Ġoper ational
Bl ock
Ġcent ered
Ġprov en
ĠM Ps
189 6
Ġsurpr ising
ĠO d
Ġres igned
Ġob lig
Sc ott
Ġmonitor ing
Ġguaran tee
Build ings
j k
Ġex posed
Ġ- >
It alian
Ġear liest
Ñ ĥ
Ġg ang
ith uan
Ġneg lig
ĠLear ning
L M
ma ker
if iers
Ġcy cles
ok a
th a
h al
ĠC leveland
ra ctions
Ġwrit es
ĠJ osh
M ac
Ġt ied
ĠC ensus
Ġw ine
d ashed
Ġmov ements
ĠJ ason
Ġschol ars
ĠD ance
Ã «
Ret urn
alax y
Ġtem porary
Ġro se
Ġdisc ipl
Ġperform s
oid al
ĠP S
ĠSte wart
& -
anc ell
Ġse venth
ist ically
ĠMic hel
ĠFreder ick
Japan ese
Ġb are
l ined
nt z
Ġra w
ĠMont real
s ong
Ġinhabit ants
ĠBo ys
Oct ober
ĠGirl s
Song s
n est
old s
ch arge
ĠPat ri
ĠMarg aret
H istor
Ġval uable
Ġspac etime
Ġowners hip
'' ,
og a
ĠAust rian
l ib
ĠB uff
Ġcoupl ings
an im
ĠTra il
ĠH D
Ġorgan isation
incor porated
com ponent
independ ent
au ra
Ġfew er
Ġr ide
Right arrow
um ar
b olic
Ġsh r
ĠM agn
Ġre verse
Ġanaly zed
Ġw ww
, .
Ġb ary
ĠR ugby
ĠCh amber
ia h
ĠDemocr ats
ĠC rown
Ġas king
~ (
Ġfocus es
Ġtri ple
Ġtransport ation
ig m
O h
Ġp ictures
Ġadm its
ĠL ower
Ġille gal
ĠRob inson
Ġanim ated
Ġv ir
ĠDak ota
Ġtri angle
ÃŃ n
}} =\
ĠCamp bell
Ġg ro
ov ation
ĠK ra
og g
Ġemploy ment
st ers
Ã ł
Def inition
ĠW ang
S k
ĠY e
Ġc rown
al ph
Ġfor th
> (
or er
ĠG ill
Ġh ill
Ġpublic ly
D own
Ġher itage
ĠR iemann
ĠBe at
Ġpul se
ibr aries
. :
ĠSh ah
i est
Ġattrib uted
ĠM D
ĠW atch
Ġchild hood
Ġcan cel
Ġcoll isions
irm ingham
Ġdistingu ished
Ġin g
ĠMa ine
n ed
Ġent anglement
B o
ĠTe ch
ĠCar ter
ĠN ep
Ġcomp lement
Ġnorm ally
ĠL GBT
Ġdam aged
Ġtal ent
af e
ĠKn ight
f ly
p ing
Ġprob abilities
Ġeth nic
ific ate
Ġclust ering
Ġgen etic
D el
Ġwatch ing
Ġdeterm in
ĠF al
M art
} <
ĠK r
Ġmet ers
ĠC ass
Ġharm onic
Ġf est
int ro
}{ }
Ġj unction
Ġfem in
Ph ys
Ġinvol ve
Ġrece ption
ĠMa ur
Ġhead ed
Ġpopular ity
D an
ĠUk rainian
ch annel
' )$
iv ated
ĠK an
ĠStud y
Ġpra ised
u ary
^* _
1 16
h arm
D ev
le ased
ĠS S
T O
Ġm o
Ġst ruck
B et
ĠN elson
C F
ag ger
Ġtrack ing
Don ald
Ð ²
Ġim aging
pro t
Se ptember
Ġin ference
ĠN ation
Ġstr ings
ploy ment
ĠChrist opher
ĠT ak
k t
ĠA GN
Ġvan ishes
s d
Ġint rinsic
ĠR ain
Ġr ising
Mich ael
W id
th on
ĠPr incess
ĠB ased
ann on
ro d
ĠK on
qu ery
Ġb oot
ĠHung ary
ish ops
ĠAss istant
s n
im g
Ġhom ot
Ġrac ial
Ġdis joint
je ctions
O fficial
Ġ ur
ram ework
ĠRog er
U V
et ition
ĠB ed
ok ed
Ġm ile
' $,
ĠPitt sburgh
Ġwavel ength
Ġmeet ings
app y
ran ean
S ur
m atch
Ġch rom
ab i
ĠJud ge
Ex per
Ġ( (
t own
Ġconsequ ences
ine a
re v
10 3
f n
l m
Ġmar ks
p in
Ġv oters
sh aped
W in
Ġrequ iring
j av
Ġcl ar
10 8
Ġre ly
Ġanaly tical
Ġd ating
ĠP sych
Ġwalk ing
end a
Ġsuper ior
Ġc up
ĠComm ander
Ġrest ored
ort on
; </
Ġbe ach
Ġland ing
Ġprob e
Ġcomp ilation
m ate
ab out
Ġs in
C a
ent er
C ON
M r
Ġleg isl
Ġcour ts
Ġprepar ation
Ġch ains
ĠWel sh
ĠE instein
g ray
ĠT ake
b oth
Ġtot ally
rick et
Ġdanger ous
Ġnot ably
Ġarch ae
ĉĉĉĉ ĉĉĉĉ
Ġt ie
ĠCent ury
Pro fess
Ġlif etime
ĠK it
Ġpick ed
ĠC ON
Ġproject ive
}} }$}
ĠCh ampion
Ġcompet ing
Ġco herent
ĠSe cret
Ġcov ariance
l ayer
| =
G reen
ĠGl as
ab ove
est im
ĠW oman
Ġoverl ap
ĠAr n
tri angle
ĠN ap
Ġterm inal
=" ../
st ud
C am
ĠT ag
Ġ ),
Ġperturb ations
Ġdis cret
) |\
ĠBalt imore
Ġ< <
Ġsurv ived
ĠAN D
Ġun like
ĠWe bsite
Ġdiss ip
}_{ {\
v dots
mar ks
ĠVi enna
Ġare n
Ġn ations
le ans
Ġref lection
Ġag es
ĠMar ie
Des pite
Ġhealth y
Ġinf ection
Ġbatter y
Ġparticip ation
R ob
} ~\
Sty le
f ind
Ġful fill
Ġm yself
Ġpass ion
A v
Ġb aby
Ġweak ly
1 18
Ġrepresent atives
Ġdec ays
Ġsw it
Ġad min
ĠC arn
Rober t
Ġb its
á »
ĠP DF
sub stack
ĠN ature
Ġres ign
Ġaddress ed
Ġanalog ous
Ġintrodu cing
Ġpost s
ĠO ri
sh ape
Ġo cean
Ġjud ges
De cember
Ġre tained
Ġhor ror
iv an
Ġcons c
ĠS ho
\ /
f ish
C I
ĠO k
Ġenjoy ed
anc ouver
ĠGra ham
c ategory
ĠT ol
Ġdise ases
ĠR an
Ġparam et
ĠJoh ann
ĠMot or
pr im
Ġvis iting
Ġev ident
An y
< !--
\| ^
ĠG ran
r floor
Ab out
l floor
Ġtr unc
Ġen ables
cont rol
Ġwith draw
w t
e lection
ail ability
Ġequ ally
b ai
}} )$
) </
uc lear
ĠOrgan ization
ĠPr iv
or o
Ġbeaut y
Ġr anging
B F
Ġg ift
ĠStr ateg
oc us
Ġsubset s
Ġpre v
V M
Ġb ases
ma kers
ge on
ST ATE
l at
Ġman ifest
and al
Ġtraject ories
comple x
ĠN i
Ġn urs
Vill ages
S ign
9 00
ent ric
ul i
ĠSen ator
ant i
Ġproject ed
Ġinj uries
ĠR io
Ġv ic
ĠG ulf
Å Ł
Ġcritic ism
il ty
i ors
Ġd ynasty
b its
IN T
R ussian
ograph ics
ĠDi rac
Ġmach ines
f our
H ol
ĠMountain s
Ġmin i
Ġacqu isition
Ġaim ed
Ġill ness
Ġex port
Î ±
Ġcolon ial
B D
B ook
j amin
Ġatt orney
Ġiter ations
Ġf urn
h ai
dist ance
Ġexpon ent
ĠO bl
orig inal
f ortunately
' }\
m ay
ĠH ad
ĠA qu
ĠCommun ist
Ġte ach
Ġmole cules
is d
equ ival
ĠMet ropolitan
pro ject
Ġdiv isions
ĠAlf red
Ġh at
ple te
pot ential
b one
Ġtem plate
ĠHam pshire
======== ========
A lex
claim ed
ĠD J
opy right
ĠMor ris
idel ines
ĠMarsh all
L ink
ĠP i
A U
Ġrec urs
H M
sh arp
U til
Th rough
Ġelect rical
F ree
ĠBanglades h
Ġprov es
B as
Ġrele ases
pr ison
comm on
n amed
onom ous
S u
Ġfall ing
let ed
Ġb ishop
c p
ĠHung arian
Rail way
Ġtransform ed
ĠBrook lyn
Ġwill ing
Ġm ic
rand om
Ġrespons es
in ates
S N
Ġac oustic
Ġan isot
Ġp overty
10 6
Ġint ention
K E
f r
Ġcomb ining
Ġdes ire
ĠV I
Ġsens or
cent ly
Ġexam ine
eth yl
) |^
ĠOper a
st d
Ġcrit erion
Ġfair ly
ĠL l
Ġvari ants
Ġconsum er
ĠBrother s
ĠÂ »
ab ul
b d
Ġun ity
Ġjournal ists
Ġdesc end
E lect
Med al
c z
ar ation
Ġreg ulations
Ġk inem
g iven
ĠTh ose
Ġpri est
Over ride
V ari
elf are
ug in
Ġven ues
t ically
ĠCommission er
em or
$ {
Ġw ider
Ġorder ing
Ġsh orter
Ġre putation
Ġt ens
ĠF ather
ĠU pper
mod ules
189 3
Al bum
ic he
math ds
ĠBe ck
Ġpix els
Ġtal ks
Ġre act
Ġwith d
Ġgovern ments
Ġrec ru
ĠB aker
y ou
Ġthous and
per ature
ov o
' =
ĠH it
ĠB ey
ĠS ep
Ġun stable
Ġassign ment
id ity
Ġcele b
ar us
Ġunus ual
Ġresid ual
ĠL P
ĠAl ban
ĠCl in
w he
Nov ember
Ġc ust
ĠN eg
18 60
Ġloc ality
le in
ĠH end
ĠK u
Ġnot ing
ĠEv ans
ĠCov id
Ġch amber
w ig
Ġgu y
189 2
Ġactiv ist
Ġto ler
Ġlov ed
M ass
Ġcre ates
man ifold
Ġsyn chron
Ġconstitu ency
ĠLank a
ins ula
ĠW rest
D et
it ro
ĠCar ib
h s
Ġimpro ving
el ines
P al
Ġ$\ |
ĠTe xt
Ġprov ision
Ġthere by
det erm
Ġmon ot
ij ing
ĠRail road
Ġsurround ed
[ {\
cc a
iz z
Ġexpand ing
ĠL ink
ab olic
ĠSt ars
Ġexpl oration
Ġnormal ization
ĠTr ue
Ġfrag ment
S i
ov ing
iz ers
ĠR ural
ĠĠĠĠĠĠĠĠĠĠĠĠĠĠĠĠ ĠĠĠĠ
ĠOr leans
Ġkind s
L and
ĠT rib
Ġfrequ ent
c ounter
Ġsign ing
b ib
ĠN BA
Ġrece iver
Ġsle ep
ĠM eg
ĠCh apter
ĠMur ray
bel ow
ĠM aj
}\ ;
Ġnon zero
Ġappoint ment
u its
Ġd y
Sc ript
Ġo xygen
ha ust
ister ed
Ġn ortheast
Ġ\, ,
f ilter
Ġattrib ute
indu ced
Ġthrow s
Ã³ w
ĠJim my
Ġvol tage
ul u
Ġpres erve
Ġcompl aint
Ġd uties
B er
ĠLe ban
ĠMad rid
N T
W here
ĠN ad
T ag
ĠPol y
re du
Ġdeal ing
Ġpre lim
int o
Ġanom al
l as
188 9
ĠA rena
gra duate
Ġs ending
ĠElect ric
Tr ue
ĠNever theless
Ge orge
Ġtherm od
ĠC el
Ġindu ces
ĠM ind
Ġcatal og
Ġgre y
an aly
Ġgradu ally
ĠIm age
ĠFrank lin
Ġfe e
F P
Ġpremier ed
ĠAssum e
A cknowledg
EE E
Ġfe els
ĠChall enge
w ords
S am
et he
e a
St atus
lik ely
ĠV enezuel
B re
bound ed
im pl
Ġsub mitted
ĠU pon
list ed
n ia
ĠP R
Ġf asc
et o
ĠG ary
O p
Ġco hom
r ator
Ġpaint ed
ĠH orn
hoen ix
Ġdef ence
ĠM ess
Ġpure ly
V P
e per
an alysis
Ġillust rate
d z
Ġh ist
ĠCl inton
ĠJos Ã©
188 5
Ġcelebr ated
out put
j ar
ĠCom ics
Ġstrateg ic
Ġwe aring
n an
on ian
Ġrom antic
ĠMet ro
Ġsynt hetic
Ġre actions
$ _{\
ex pl
Assum e
G old
Ġo verse
Ġdedu ce
Ġtri ang
per turb
ĠOper ation
ĠK ur
ro ck
Ġactiv ation
ĠH ero
ĠBern ard
189 4
. },
p read
Ġbi ological
opt ions
Ġant icip
ob a
ĠMan ager
Ġint ellect
ĠG un
fact or
. (\
b oy
ĠC rit
ĠQu est
ĠFin ancial
ĠPro cess
Ġanalys es
Ġdeterm ines
iter ranean
Ġtrans action
Ġex clusive
Ġfriend ly
Ġt ends
Ġ$ $\
ri el
um ul
Ġdeb t
it ure
ĠRoman ia
Ġsurv ival
Ġfund ed
ad ic
Ġforest s
Ġin hib
Ġsus pect
ug oslav
ĠI ce
H A
Ġ }$
ĠWith out
est one
h n
clus ively
ĠStan ley
Ġb ird
ĠSt ra
Ã¨ re
Ġflow ers
P age
au er
ĠN ame
Ġgen re
display math
Ġshift ed
ĠC her
f are
serv ice
Ġdist urb
ĠGu y
} &\
Ġk ee
win ning
y ll
Ġwould n
Ġthe ater
w orks
Ġwh ilst
Or der
) &
D O
Ġdiv or
Ġinform ed
t x
Polit ical
Ġcorrel ated
w right
enc er
ĠAfghan istan
Ġ$ [\
B T
P roduction
}) _{
ĠAnd y
Ġcomb inations
Ġveloc ities
Ġlo ops
ĠSt age
gl obal
Ġult ra
Ġel der
ĠAtt orney
ley ball
Ġ$ <
Ġdeput y
i u
pl er
Ġyour self
Ġcoron avirus
e enth
. }\
Ġpass age
ĠV egas
l ate
Ġcosm ic
tern oon
Ġart ificial
ĠPri or
Ġart istic
Ġplan ets
L o
V ersion
ĠBl ood
Ġrequest ed
Ġinvest ors
ĠChar lie
Ġ à¤
ĠJ e
in ance
pol y
10 7
Ġgener a
ĠP ath
ĠT rack
A ir
G s
)} _{\
Ġelim inated
ab a
Ġregard less
Ġv aries
Ġc ous
ĠW as
ä ¸
Ġg host
ĠJ azz
" ]
S al
Ġsuff ices
ĠN ord
dom ain
orks hire
189 1
ol utions
Ġkil omet
ĠIndust ry
Ġaut hent
Ġrail road
ĠPort land
Ã© n
Ġstrugg le
Ġem otional
ĠSt orm
st ance
Ġsurv ive
Ġbreak s
ĠKar l
Ġprison ers
ĠE X
Ġinvol vement
Ġa de
st ory
s ome
Ġrece ives
Ġimplic it
let t
Ġbu ffer
refer ence
h alf
Ġacceler ation
Ġalign ment
ĠM ack
ĠO R
Af ric
Ġbeh alf
Ġres emb
Ġcompos ers
er os
Ġpo em
ĠM other
Ġinst ability
Ġstay ed
overs et
}) )
Ġcom ed
ne e
U M
Ġsu icide
Ġ{ {\
Ġperm ission
n ell
ol t
ĠR and
Ġsuspend ed
ĠN O
Ġse p
c ient
q q
Ġr ivers
Ġcrick eters
um s
Ġsuffer ing
ĠJ enn
ion ed
the ory
Ġas ks
U psilon
Ġwh atever
ĠB irmingham
ĠR acing
L ocation
van ced
Ġline arly
Ġperson ality
188 8
Ġexpl ored
}} }{
s ite
Ġvess els
ĠEu clidean
Ġl engths
Ġim posed
â ĪĴ
Ġs itting
lear ning
Ġhabit at
ĠT ax
zer bai
Ġden ied
ĠCh a
Ġst em
Ġbelie ves
Ġse ar
ĠCon vention
ĠR ud
S chool
Ġto w
ĠPer formance
ĠFin ance
Ġcon jecture
ĠW a
Ġcoast al
Ġmeas uring
ost ic
g b
Ġg ay
Ġfarm ers
Ġarrang ement
Pro b
ĠMov ement
13 5
ĠEd itor
ĠLic ense
Ġcap abilities
h our
ĠB ud
ĠOrth odox
È Ļ
Ġbrand s
ĠPolit ical
is y
cons ider
ab e
Ġfl av
Ġpar ad
ĠM O
Ġw ides
Ġt ables
ĠCommunic ations
Ġvalid ation
Ġr id
Ġcryst al
Cont ent
iv ia
le ading
Ġremov al
T om
Ġsp arse
Ġnorth west
an te
Ġpotential s
Ġcorrect ly
Ġdev oted
Ġt elling
Ġout break
ow ed
Ġinfin ity
)} =
ĠL iving
Ġfail s
Ġpos it
B oth
d rop
ro v
Ġrelax ation
ĠC ultural
f iction
ĠB iden
ip her
deg ree
rist ol
Ġelse where
Ġcon sp
Ġan ten
Ġde formation
Ã ª
ot ton
ĠS pect
g ov
ĠT H
Ġincre d
Ġquot ient
ĠL O
Ġs ed
um i
Ġing red
olog ically
ir k
cc c
âĢ ī
f requ
ĠStud io
E ven
Ġs essions
We b
Ġpaint ers
ĠM embers
Ġattrib utes
Ġemer ged
ob j
S uper
AM E
ĠA the
Ġref lected
hy per
st age
Ġabsol utely
{ [
con v
Ġs oph
St art
Sim ilarly
ĠBl ues
M er
Ġcoupl es
rupt ed
Ġdeterm ination
ch arg
m ates
ĠSt ill
Ġrad ical
S pe
ĠĠĠĠĠĠĠĠĠĠĠĠĠĠĠĠ ĠĠ
ue z
Ġf ishing
Ġtext s
' }$
B ased
ĠF el
Ġb oolean
ĠTe le
b n
an ne
en ame
v able
Ġr uling
Ġconst rained
Ġf oss
Ġhom omorphism
tri ang
ĠNorm an
pr ivate
ĠI an
Ġemploy ee
Ġrel ating
Ġmountain s
Ġs ke
ĠInd ians
St ation
oth y
âĢĻ ,
ĠMov ie
ĠD ra
Ġde pos
AN D
Ġdoll ars
Ġstret ch
o il
Ġf ol
w s
L ater
Ġaff airs
op les
ta x
Ġcontroll er
Ġdispl ays
Ġconvers ation
Ġiniti ative
Ġrep air
Ġdest ination
b est
Ġthem es
ul ator
Ġb rick
Ġan nu
fl at
ĠGlas gow
com ment
Ġres olved
Ġconsist ency
ĠAl aska
em ale
ĠG il
Ġlong est
Ġsurpr ise
hold ers
Or gan
h ill
Ġautom atic
ari ate
Ġcon clusions
Ġbos on
ĠT ob
ĠR ap
ish ments
ĠBl ock
as ant
ch itz
ĠMit chell
Ġelectric ity
Ġg ram
aw s
Ġpl astic
C V
Ġ} {\
ann ot
Ġadd s
ĠP ictures
ĠE mb
ĠPrim ary
Ġelli ptic
ĠA ug
Ġst yles
ĠSp irit
er ts
Ġclos ing
H I
ric ane
Ġnegot i
in ement
Ġex it
ut ors
ĠOtt oman
ĠNev ada
sol id
Europe an
ok er
P rodu
S l
Ġim prison
Ġt ur
Ġ{ }
ĠGr iff
Ġup coming
Ġ& $
Ġen velop
N L
Ġext ending
und erset
Ġpro hib
Ġsuggest ing
Ġsuccess or
ĠV ancouver
}= (
ter ed
it ime
e val
Ġf usion
Ġins ight
Ġr anks
ĠA ld
Ġs av
ĠSte el
ĠK il
ĠCarl os
hol m
Ġamong st
Ġprint ed
Ġleg s
ĠD ate
ĠP il
nt il
usal em
or ia
K L
ĠConserv ative
Ġeffect iveness
18 65
ĠHun ter
On ce
Ġext ensions
Ġoutput s
Ġgu idance
F re
ĠWay ne
ivid ual
ĠR u
2 20
ĠB asketball
Ġremov ing
Ġcomb ine
Ġqual ifying
b ishop
ov ed
= (\
Ġfocus ing
b ug
me as
Ġbig ger
T M
cl ient
Ġalcoh ol
m ill
sat isf
Ġasympt ot
apt ist
ĠDef ence
A rm
ush ing
Ġcritic ized
ĠPrad esh
Ġt ruck
ot an
Ġmag ic
Å ¾
Ġprote ins
sh ould
Ġw et
}) -
Ġr hythm
ĠP ract
Ġinter fer
Ġm emb
^{ [
Ġdem ands
Ġhe ating
ol ia
10 9
Ġprep are
f am
ĠM all
Ġen forcement
Ġobtain ing
Ġmut ual
ĠB omb
Å Ħ
Ġd owntown
ĠB ible
Ġpred om
ĠY orkshire
ĠT u
Ġhelp ful
ĠN GC
ĠPh oto
ĠD O
Ġtrend s
ry pt
Ġop ens
Ġprov incial
Ġcontinu ity
sing le
ĠG ray
L ay
ot ions
ĠU E
Ġcommit ment
Ġnar rative
l ag
$& $
Ġlimit ing
Ġd ict
Ġenc oding
ĠB illy
ĠJon athan
ĠW ing
m und
Ġam pl
Ġlaw yers
des ign
a use
Ġl i
re p
ĠMe V
Ġpip eline
m em
L oad
b ian
ips chitz
Ġ ^{\
Ġsp oken
et on
ĠS earch
Ġ ĉ
AL L
Ġfra ud
if le
\| _{\
? ?
Th ree
ĠT ournament
id o
cre asing
Ġtrans it
Ġtrans mit
ĠAd vis
int ers
ĠPl ant
ĠBar ry
im od
Ġintegr als
ĠWar ren
Ġpull ed
ĠPh D
ĠR ico
ĠColon el
aval ry
ud son
ult an
188 7
ĠB H
Ġe g
ĠBroad way
ĠCl oud
Ġcontract s
}^{ (\
Ġto x
ĠLore ntz
Ġto ken
N P
ĠP os
Ġrun ner
Ġpubl isher
add le
Ġhol iday
Ġmiss ions
\, .
Ġinstrum ental
Ġcr imes
t otal
ĠF ine
Ġdest ruction
}. \
Ġlimit ations
ĠClass ic
ĠN am
Ġmechan ics
Ġob st
Ġmoder ate
mon th
Ġdepart ure
ĠCon sequently
Ġaux iliary
em ed
Ġfin itely
Ġn aval
18 50
hat tan
w ang
Ġwides pread
Ġsub div
Ġwind s
ater al
ĠS r
ĠP aper
Ġsupp lies
se par
Ġh orses
Ġencourag ed
Ġdeb uted
188 6
ĠThe ater
Ġun con
ĠT ower
st rap
ĠSpe ed
Ġtarget ed
l ass
Ġattract ed
Ġexhib its
pt ical
e ach
.... ....
Ġvess el
ĠT R
bor ne
Ġdef initely
Ġrestaur ants
ĠCarib bean
ov iÄĩ
ĠNAS A
ĠI C
ĠSpec ifically
ĠC ou
Ġent reprene
m iral
G G
ĠH ope
Ġdeterm ining
Q L
ur u
Ġnewsp apers
ling ton
Ġw ounded
om on
Ġbench mark
) )$.
Ġspe aker
D ue
ĠBar bara
ĠCl ar
ĠProfess ional
Ġgener ates
Ġcount ies
ĠAthlet ic
Ġdeploy ed
Post ed
B s
is p
it ud
M or
Ġcarri es
Ġproport ion
dr iven
un ed
k ind
ĠC C
ĠCh ange
Ġnumer ically
Ĩ Ĵ
D esc
Ġhon est
rict ion
Ġmir ror
be cause
25 5
ĠEnvironment al
Ġpart ly
ĠW or
Ġs aved
Ġb old
c ov
l ia
Ġcal ibration
ĠPhys ics
Ġb ag
ĠThe ory
de ep
ĠĠĠĠĠĠĠĠĠĠĠĠĠĠĠĠ ĠĠĠĠĠ
}( -
Ġout per
stand ard
Ġmag azines
up date
ĠR AF
Ġass ass
r h
Ġph on
$ (\
play er
ĠÂ ·
Ġweap on
Che ck
Ġd ated
Ġformul as
Ġgener ality
M ag
Ġfin als
ĠM ak
Ġaccord ance
Ġg ran
Ġqu iet
Ġb atch
Ġjur isd
) !
fol io
M iss
N or
K n
Ġlat ent
Ġmulti pl
us k
ĠRem ark
arg s
ĠH unt
ĠPark er
Ġst ake
ĠHawai i
Ġdecl ined
ĠN at
our t
Ġsh ifts
v skip
sc ar
Ġstri p
Ġbox es
Ġcontrib uting
Ġthreat ened
Ġcarri er
Ġne ck
cast le
ĠProte ction
qu ality
ĠFac ulty
}} }$
Com ponent
Ġen abled
ĠT ogether
ĠR equ
ham mad
it i
Ġcl ick
ĠJ ava
Comm and
Ġorgan isations
Ġinflu ential
ĠEconom ics
Ġestablish ing
L in
s un
Ġbl ind
Ġex clusively
Ġequ als
Ġview ers
reg ion
v v
ĠC ricket
F ebruary
Ġar ises
ĠNaz i
cons istent
Ġaware ness
Ġprov ider
ĠU g
ĠD R
ĠJohn ny
ov ich
but ton
. âĢĻ
$ --
em pl
Ġhand ling
Ġass emb
Ñ ı
ĠM ari
ĠCon stant
ic ing
ĠO range
ĠInd ex
ĠAthlet ics
ĠAl tern
Ġdaugh ters
Ġp atch
sy m
id ad
ore f
Ġsupport ers
ĠB it
ĠP ic
Ġgu ests
Ġhyper bolic
Ġt act
Ġemer ging
Ġprotest s
Ġderiv ation
Ã¶ r
Ġearth qu
ĠD ays
ess ed
ĠSa udi
P RO
c oupl
ĠPref ecture
ĠL ithuan
Ġsouth west
min ute
ĠT rophy
ĠR ot
Ġr ings
ĠE li
ard ed
Ġste ep
Ġbarri er
ĠS ymph
18 61
st op
Ġh ip
Ġcred ited
ĠS oul
ra ise
Ġresc ue
ett i
en berg
lim it
ow ell
] ]
duc ational
ĠLe ft
ĠChe l
ĠFre edom
ĠF alls
Ġfor g
ĠB ron
um ed
Ġphot ography
ĠP rice
ĠR av
Ġexcit ation
M o
m ont
Ġviol ation
Ġshe ar
Ġout standing
do i
4 50
J ew
Ġmill ions
m atic
ĠM ust
ĠRec all
S ever
Ġswim ming
par ams
ĠY u
Ġrest oration
ĠS F
Ġmer ely
Un ivers
r aska
Ġencou rage
ĠChe ck
ĠComput er
ĠB ond
ĠC BS
Ġcheck ed
Ġev olved
Ġsub mar
ut o
Ġs outheast
). }
uk a
Ġsampl ed
Ġnom ination
Ġsegment ation
ĠCr ime
T own
}\ }$
um ann
Ġguitar ist
Ġdisapp oint
equ al
ant ly
H R
Ġlay out
Ġc able
G ame
ateg ories
Ġex haust
ĠL ud
Ġformal ism
h ot
Ġreg ulation
Ġt ension
Ġw ra
Ġal ive
ina e
ĠObl ast
Ġpeak ed
Th omas
umer ical
Ġc os
Ġm or
app end
ĠFl ore
ĠO pp
Ġagric ulture
op ed
\ }}
am ination
respect ively
Ġdis ag
Ġpro ton
Ġdifficult ies
h skip
t im
ĠPart ners
ĠTig ers
Inst ance
over ning
)\ ,\
Ġcooper ation
ber ry
Ġt ub
ĠSoc cer
d in
Ġelig ible
Ġamaz ing
Ġmed ieval
Ġinv ariance
ress es
Ġobvious ly
Ġprior ity
Ġspirit ual
ĠTurn er
ĠMunic ipality
p ush
Ġcontrovers ial
Ġrequest s
ĠGi ants
Ġmultiplic ation
T or
ð Ł
Ġcav ity
Ġb rig
ĠCh art
erv ised
ĠMil an
Ġre cre
Ġc ul
o ys
Ġshe et
Ġmem or
ĠCat hedral
T Y
f an
Wh ite
ĠF am
ĠFI FA
Ġext ensively
or tex
st ad
ĠBe ijing
Ġdr ift
P G
Ġbusiness man
ĠF r
Cont rol
st ore
. ),
ey er
Ġr um
18 64
St r
ĠUr ban
ĠC arm
ĠJ ess
ĠC rim
Ġcut ting
Ġt issue
H en
ĠG as
Re al
, ~
ĠEx change
ĠRes ources
Ġstar red
}}\ ,
end ers
uc ks
ant ed
Ġneighb ors
Ġun success
t ensor
âĢĻ .
Ġprom ising
v it
Ġmanag ing
ã Ģ
Ġent ities
ĠM ans
ĠColl ins
Ġcloud s
Ġunder ground
ĠC u
ation ally
G ood
Ġlabor atory
188 4
ĠZ one
p mb
Ġf ro
Ġvis its
head er
Ġactiv ists
ĠM ake
ST M
Ġsh ots
Ġsurve ys
k u
Ġs weet
}| ^
spe ed
ĠV erm
ĠS W
U I
ator ial
Ġrele g
ĠB ranch
ĠF eb
ĠN icol
Ġconsum ers
on line
Ġf ictional
188 1
Ġst ick
rel im
as m
Ġreported ly
ĠPar am
Ġwood en
ĠS now
ig s
ĠH indu
ĠJer usalem
* /
Ġl oyal
bl ing
big skip
Ġcolle ges
umb ent
Ġoccasion ally
] _{
f g
ang o
Ġris ks
ĠL ad
) }^
}_ +
ĠS yn
iline ar
ĠR T
ĠS eg
Ġover view
kee per
un ning
U P
Ġexist ed
Ġsubs idi
= {\
writ ers
Ġcount ing
Ġade qu
Ġg olf
Ġd ose
Ġfin ance
ac re
D raw
Ġab elian
d ifferent
t ot
Ġbre ath
V ar
Ġf antasy
M icro
ĠPier re
th y
Ġs ick
Ġmod ification
ik o
Ġfor cing
em a
c ule
ĠI van
m eta
plic it
Ġde als
ĠY am
Ġg ard
Ġident ifying
Ġdevelop ers
}, {\
ĠGre ater
ĠS A
it arian
Ġclos est
Ġthick ness
Ġneglig ible
Ġinnov ation
ak u
Â ½
v ision
Ġp ian
Ġsequ el
Ġt ip
Ġhealth care
c ussion
Ġdo ors
Ġdr ink
z es
ĠS I
Ġcons iders
ia o
ĠPro duct
Ð ´
ĠSal v
d ocument
ac o
bound s
ĠApp ro
Ġphenomen a
re nd
Ġcompos ite
dist ribution
^- $
ĠSerb ia
Ġp up
ĠU lt
ĠP ant
Ġwork er
Ġcancell ed
ĠC T
Sp anish
d ig
Ġs alt
ĠCh ron
upp er
Ġadvent ure
Ġapart ment
ĠV ic
Ġconsist ently
s rc
s ample
ĠF u
Ġking dom
ĠB achelor
ĠPro test
qu er
Ġinst ruct
Ġwar ning
E ast
comm unic
F ound
L ou
Ġfor get
ĠMean while
ĠA PI
sub float
clos ure
ĠBelg ian
Ġg all
Ġfl ights
Ġphys ically
Ġimag inary
ver tex
Ġsub stitute
ĠIn s
Ġpl ain
D at
ĠSaf ety
ĠE sp
em ark
sim ilar
Ġrecogn ize
Ġprelim inary
pos ing
Ġe cho
24 0
Ġsqu ares
Ġcap s
ens en
ĠBen jamin
ĠB enn
ĠF itz
Ġvanish ing
Ġext raction
Ġven ue
Ġsh opping
ĠF lo
Ġagre es
writ ing
Ġw edding
Ġup grad
}\ !
char acter
ĠN BC
; &
Ġdefe ating
18 00
om ing
Ġover come
Ġeng agement
ĠP od
ĠWith in
Ġin cl
Ġsub stit
om i
Ġremark able
o ft
ĠSe ven
Ġclaim ing
Ġm oral
Ġgen es
Ġrepe at
Ġpo ems
Ġinequ alities
17 0
Ġprof it
A ccess
Pre vious
Ġvari ed
ard ing
ĠGu inea
Ġelect oral
requ est
Ġaf ternoon
d ing
Ġreg istration
L ike
un iform
Ġse ctors
18 63
D ay
ĠAnd roid
Ġvari eties
ĠB rew
Ġannu ally
Pl ace
ĠS ax
ak ia
ĠFinn ish
a ft
Ġm igration
ĠR angers
B uffer
ĠSy ria
ĠTra vel
B en
Ġm esh
ĠR at
u art
ER S
ĠW ol
ĠR ank
Ġmon ument
ĠStud ents
ĠVictor ian
F ore
Ġdevelop ments
hem atic
et ta
ĠS L
O ptions
ĠK os
ĠWrest ling
met ric
let ion
188 2
m ir
ha us
Ġpark ing
b us
ll i
ag ar
let ter
Ġab road
Ġansw ers
Ġcontrovers y
Ġfilm ed
18 62
new s
Ġimp ressive
Ġobserv ables
cel and
K K
f iles
ĠDr ive
ĠSong s
Ã Ł
ĠE uler
Com parison
oun ce
u ct
ĠInt eg
Ġp ushed
iss a
comp act
aut oref
ĠP lease
Ġstre aming
p us
27 0
Ġj ets
Ġhomot opy
ĠR oll
Ġreserv oir
Ġf abric
ĠP hoenix
ĠUn like
row th
Ġrect angle
Ġgu ilty
ĠCharl otte
d ays
aly mp
B U
Ġev il
ĠShe l
op al
as et
ast rop
J ac
On ly
E u
Ġtor us
Se lected
P N
ĠMed iterranean
ik ip
Ġcontinu ously
ĠStud ent
uc le
M ean
on na
H H
M oths
Ġl ap
}$ ).
Ġth irty
ĠJ ama
Ġ ×
Ġf ont
Ġ$- $
ĠG ot
Ġconf ident
Ex ample
ĠBar cel
al og
Ġdelay ed
ro ot
Ġe at
ĠJ oy
ĠD ol
Ġwe bs
ĠL A
Ġco ffee
Ġrare ly
el ing
ed a
Ġefficient ly
Al umni
Ġsup ern
form at
ren ew
ĠAnd re
ut ter
P ass
Ġclass ifier
ĠCap it
Te am
Ġm ild
we ek
she ll
Ġviol ent
amp ed
Ġinterview s
ig ate
Ġcross ed
V E
Ġbre ast
hes es
ro oms
Col umn
Ġc ra
Ġgu ys
St and
S il
V A
Ex ec
ential ly
Ġp or
med ia
ĠN iger
Ġ{ {
m arg
k k
\!\! \!\!
Ġdiver gence
Ġcry pt
Ġrespond ed
Ġg al
W ell
Ġinstall ation
ĠAlber ta
i ar
init ial
We ek
ĠNot ice
Ġcas ual
ig o
Ġant ib
Ġpro xim
S ym
Ġreal ize
b racket
et ics
Ġem issions
ĠG round
Ġc ogn
cess or
const ant
Ġcond ens
( |
l ook
Ġsound track
he res
as hes
Le ague
chi at
Ġm ail
te chn
l ab
Ġexpect ations
g io
ĠOl iver
ĠRo om
Ġind igenous
om at
Ġre ven
ĠMan hattan
u ke
Ġsh apes
ĠSte ven
ment ioned
ĠT ree
Ġpo ets
ĠA zerbai
Ù Ħ
Ġtown ship
Ġ+ =
Ġorgan ic
): =\
New s
Ġsil ent
ĠV el
r if
Ġperfect ly
Ġmaintain ing
O ld
ĠF ab
ĠFran ces
sim ple
G D
Ġbeg un
p aren
Ġcred its
Ġ ic
ors ion
^ +\
Ġ rib
x ml
ĠSer ge
Ġl ens
p ay
}} +
ĠB ristol
d ouble
Ġens ures
Ġperm utation
ops is
j et
K ing
Ġcaref ully
T ur
oc ols
Ġun likely
Ġmathemat ics
ĠF err
Ġme at
ĠMar vel
Ġas c
ĠG ate
Ġphotograph s
be ing
Ġinter vention
ĠRel ations
me asure
Ġmotiv ated
Ġserious ly
ĠT un
ĠAnn ual
Ġvari ability
st al
Ġfeas ible
Ġg allery
Ġviol in
Ġconv icted
s v
Ð ¼
Ġl ad
' )\
Ġf ur
amp a
ĠIran ian
ĠB og
ĠMuslim s
L y
ounc ill
ore l
ed ed
Ġcommut ative
cred ited
ĠUnivers al
ĠR ing
ĠLiter ature
ĠEgypt ian
ĠJ a
ĠCh o
ke ley
res ponse
pt r
Ġel astic
pan ic
S earch
}$ $
ict ions
av an
Ġreview ed
' (\
188 3
Ġinst ruction
ent ity
Ġent hus
Ġsem antic
Ġfore cast
war z
Ġoppon ents
os hi
Ġchar ity
Ġaut omorphism
Ġminor ity
Ġmanufact urer
ĠD ragon
Ġattract ive
e u
g un
Ġindust ries
Ġt rick
enn ial
iz on
w p
ĠS ay
il ia
ĠY ugoslav
F i
ĠBor ough
Dem ographics
ne x
Ġdial ogue
ĠComm ons
S en
ĠM ong
Ġd rew
Ġleg acy
iv ities
Ġcohom ology
Ġposs ession
Ġke ys
Ġdiam ond
ĠT oy
Ġfl avor
op ing
ĠRich mond
Ġlic ensed
Ġsingular ity
ol en
h ad
cre p
ĠAcc ount
ub s
ĠF ind
ĠY es
om eter
the y
Ġpurs ue
Ġpro ud
ĠCon struction
ĠMin or
pro perties
Ġcons ensus
ĠT ib
ag ers
onym ous
Ġsurv iving
Ġg ates
Ġsp ots
re nder
ĠPar ish
S W
r ise
Ġsp okes
b ane
ious ly
Sum mary
Ġorient ed
* {-
re z
con ver
Ġtw in
Ġl ying
b en
Ġre un
Ar g
t ar
Ġres olve
/ .
Ġthough ts
hold er
Ġb oss
ĠW u
Ġinflu ences
r ating
Rec ord
ĠChrist ians
ĠCost a
Ġcon gress
Ġpre de
st atus
Ġexclud ed
ĠE C
ro c
Ġembedd ings
}_{ (
Ġreg iment
Ġmin isters
ĠFle et
Ġent ers
Ġobserv able
Ġrem ind
Ġinst ructions
ĠSoft ware
! âĢĿ
inc inn
Album s
no ise
ĠRes erv
Ġg od
Ġsold ier
Ġt ort
eg u
Rich ard
Def ault
uch i
co ordinate
ĠCra ig
Ġcomm une
ĠB orn
Ġe ighth
ster dam
ĠE lementary
ĠInt elligence
Ġimplic ations
ĠNov a
Form at
m el
O K
ĠC ore
12 7
ĠG P
18 75
Ġcomp ound
ikip edia
' ).
ĠS id
Ġes c
Ġaddress es
ĠBeng al
ĠCh air
Ġneighbour hood
L aw
ĠVin cent
Ġbut ton
ĠLeg end
Ġtang ent
pos itive
ĠWar ner
Ġprim itive
ĠL ess
o ons
Ġcycl ic
Re lease
Ġbatt les
ier ra
t urn
ass y
Ġaccur ately
x ym
ent i
Ġexam ined
Ġfilt ers
Ġ{ @
Ġsh ore
}) (
ĠC oul
ov es
G raph
Ġmon arch
Ġsymmet ries
Ġb orders
ĠH ann
ĠBarcel ona
Ġthe at
- {\
itud inal
Ġoscill ations
ĠSpr ings
ĠL ock
18 76
Ġtroub le
AC T
ĠHar rison
x rightarrow
ĠIs a
ĠG rey
ir th
Ġsustain able
Ġcateg or
op edia
aster y
Ġ\ #
Ġth orough
ĠN HL
ĠSaint s
Ġreflect s
ĠKen ya
and roid
ĠE ug
ich i
w al
}} +\
r ically
Ġsk ill
ĉ ĠĠĠ
Ġtick et
Ġw ings
Ġinc idents
Ġmunicipal ities
Ġsynt hes
Ġhospit als
P eter
ĠKir k
M ad
ĠY et
ela ide
Ġpe er
// /
ĠProb lem
j son
te ed
incinn ati
Se lect
Ġmodul i
Ġmonth ly
l ive
L oc
arri ors
Ġj ournals
T ask
Ġst range
ĠIndust rial
Ġm i
Ġcompan ion
ĠD rag
ĠFl ight
Ġnot iced
Ġkee ps
ĠÃ ł
L ie
R oyal
ĠEx ample
ĠMu hammad
e fficient
ĠL uther
center line
ĠRe yn
Ġaffect s
ĠBuff alo
ĠS z
ĠMach ine
18 78
s or
Ġprofession als
ins ky
ract ed
Le vel
ĠSh ang
Ġinsp iration
ph al
ache l
Ġscient ist
Se ason
Person nel
ĠC M
ent e
Ġlab our
) <
ĠTechn ical
Ġc inema
ĠRob in
ĠCom b
Ġspeak ers
ĠP ast
ro at
Ġeng age
Ġext inction
r us
Ġliber al
18 67
ĠR ange
Ġele ven
Ġcomplet ing
Ġs ends
ĠC old
ĠNeb raska
Ġpar ks
Ġchampionship s
ĠTh or
ĠV as
Ġt ill
Ġfe es
ĠM ix
ĠD est
h aw
est on
ĠL oc
ĠB our
Ġcl othing
Ġproof s
Sp ace
ĠG arc
Ġparticip ating
Ġqu art
Ġgener ations
Ġexcit ing
Ġcom ics
Ġcub ic
Ġl ingu
ĠOper ations
Ġcolle agues
ĠB right
res olution
ew ise
W F
ĠB urg
D iv
ĠArt icle
ĠOver all
Re view
Ġneighbor ing
Ġm ock
Ġoppon ent
Ġmar ry
sup ervised
uss ia
' ),
ĠE ston
Ġcampaign s
Ġelev ation
Ġra ising
Ġinn ings
ĠJ en
am er
ĠSch olar
od ic
ĠColomb ia
ĠF unction
Ġst ops
Ġcook ies
qu et
non ym
ĠPr ivate
Hand ler
i racy
ĠPro p
ĠD og
Ind eed
Ġmanufact urers
Ġmetall icity
Ġrel ay
A uthor
ĠT ab
Ġarchitect ural
ric ks
Ġdep ression
Ġint ense
} ]$
ĠP el
ĠCh and
d or
ĠL ions
12 4
Ġfirm s
ĠB ass
Ġinnov ative
Cre ate
Ġco aching
set s
Ġat tach
st ellar
Ġdon ated
ĠPer u
opt imal
. -
ĠLe ader
ĠNich olas
ro le
Ġor chestra
Ġatt ending
I B
Ġiniti ated
ĠMag ic
Ġdis placement
ĠS ad
Ġla ugh
ĠD elta
Ġhol omorphic
Ġp ose
Ġmount ed
re ction
Ġg ray
ĠMor oc
C ond
Ġportray ed
Ġcous in
Ġl os
Ġoccas ions
Ġan ime
Ġs ad
F actory
sequ ence
OR T
Sh ort
cos ystem
Ġend emic
al am
17 5
ĠMathemat ics
18 68
ĠAlex and
ĠSim ilar
l ater
Ġd ogs
ĠS elf
Th m
oid s
Medal ists
}$ ;
Ġexp edition
F ilter
left rightarrow
Ġelect romagnetic
ine e
$ =
Ġam ateur
Ġb one
Ġor ange
ĠRoman ian
m ade
18 79
ĠO il
sy chiat
nav bar
Ġchem istry
S yn
Ġf inger
R ow
ath on
ain ing
n one
l r
Pro ject
Ġterrit ories
supp ort
Ġminim ize
is an
Ġcomp iled
Ġart ifact
Ġmod ular
Ġpredom inant
iv o
f olk
Ġt ube
Ġtr im
18 71
u in
ĠV lad
Ġhistor ians
7 50
ĠW es
Pl an
b ie
t ics
á ĥ
Char les
Ġdram atic
ĠP le
Ġm as
Ġengine ers
ĠLe vel
ĠC ole
Ġh aven
Ġinteract ing
18 77
al is
g rid
Ġsupp lement
ĠRepublic ans
Ġfl ash
h ig
Ġco ord
Ġd s
Ġd otted
ix on
Ġr ub
D L
ar l
ĠC F
ace ae
Ġsummar ized
ĠB ris
xym atrix
Ġevery where
Ġpay ing
Ġrel ies
em e
pol ar
12 2
Ġcons ent
ĠL an
T F
Ġf ighter
ĠL en
e or
ĠA B
J an
_{ (\
ĠK l
Ġel abor
Ġinj ection
symmet ric
ĠArt ist
mid t
Ġsurv iv
Ġt et
te enth
ĠHe b
f un
Ġsole ly
N ull
Ġ" ""
h um
Ġsupp ressed
Ġver ified
amp ing
Ġour selves
c ost
Ġphys ician
Ġrel ativistic
ĠG alaxy
ass oci
Ġact ed
Ġannounce ment
inn ed
sp aces
Ġanim ation
Ġdecre ased
j or
Ġar ising
Ġleg it
Ġt one
hel m
Ġcont rary
im it
ĠR idge
ef ined
ull ivan
Ġferm ions
Ġmodel ed
ĠS ide
Rec ip
ĠGh ana
ĠO cc
ĠSe x
Ġprov iders
posit ory
Ġmed als
ĠGal actic
ĠO bs
am o
ĠL ate
Ġcab inet
12 1
Ġwel come
ĠCl ay
Ġsimpl ified
Ph oto
Ġl ots
ac cess
rad ius
F our
ĠHol land
ĠCirc uit
ĠScient ific
Ġl ux
rib utions
Ġprom oting
Ġf ract
ash a
Ġo ct
Ġav ailability
ĠD iamond
Ġdeg rad
Ġind irect
Ġf rust
@ {}
Ġbo ats
Ġhierarch y
ij i
Ġc s
Ġcl ip
ĠConf eder
Ġdoub les
Ġt ies
is ers
Ġmanifold s
igh bor
ist ani
A re
Ġphil os
Ġm anga
Ġintrodu ces
for ced
Ġw ick
C ho
Ġobserv ational
ĠM asters
ĠD raft
Ġcoal ition
Pres ident
Ġb es
u ilt
ĠJ erry
cho ose
Ã ¦
ĠP ick
ĠFor um
Ġlocal ization
Ġsynt hesis
Ġde eper
B usiness
Ġsent enced
Ġparliament ary
Ġ\ }$
Ġoccur ring
Ġt orn
Ġhon our
ĠS ah
ĠV ersion
Ġafter wards
ar th
à ¦
st ration
ri en
Ġconf ront
ĠL ost
V R
' ,\
ĠN OT
G F
c ritical
ĠAnt ar
Ġre ject
ĠMun ich
18 74
utr ition
ĠB ird
act eria
Ġhy p
Ġcomm emor
ĠInst agram
Ġaggreg ate
ir s
Ġden om
Z h
ĠMur phy
tr im
15 00
ĠSymph ony
Ġabs ent
ĠPhil osophy
frequ ency
ĠAnt i
G overnment
ĠN ear
ĠDen ver
ho ok
2 30
Ġdis aster
Ġs ax
Ġprom ise
E s
Ġrep orter
Ġdist inction
ĠCo al
qu is
all ing
b uf
ach i
ĠEd wards
}}\ \
Ġin sect
Ġmem orial
Ġreserv ed
Com put
ĠT on
h anded
ĠForm ula
ĠK ath
Ġinf o
Ġcomp ression
p ine
U se
W ho
ĠH ave
ĠL ux
ty pes
ser ver
}] \
ĠFriend s
Ġorgan ised
Ġconver ge
ĠS H
Ġsus cept
ĠD ocument
ĠSte vens
correspond ing
12 6
ĠCamp aign
res ize
r f
Ġknow ing
ol in
ĠPro of
ĠH udson
Ġmat ched
con j
H a
Ġsub str
ĠG W
Dist ribution
ord inary
14 4
ĠM oz
Ġg athered
us p
var pi
ĉĉĉ Ċ
Ġaltern ate
' -
id ency
Ġfeel ings
ĠSh aw
Ġc ache
Ġsol it
R ou
ĠMer c
ĠN ULL
Ġdes ert
ik es
ta wa
Ġnucle i
ph ys
re view
Ġprem iere
Ġdetermin istic
Ġph rase
Ġband width
Out put
ĠCub a
) /\
G al
Ġperm itted
iff s
S ON
Ġfraction al
L ive
Flor a
Ġ\, .
Ġre tain
as ia
M el
Ġun expected
D eb
Ġhas h
Ġann ih
Ġqual ify
pa per
T oday
ĠI da
uls ion
Ġd ot
ĠS ource
Ġaver aging
ĠLabor atory
Ġident ities
Ġfast est
Ġb ridges
im eter
uck er
Tax a
re ck
Ġyoung est
Ġdu o
ĠBe aut
ĠM ason
ĉ čĊ
ak ov
+ |
Ġte a
p f
ĠB und
lic ations
u u
em ies
Ġlast ed
ij k
ĠCl are
ĠTr inity
Ġsens ors
Ġscreen ing
Ġdual ity
Ġint ens
C at
Ġall ocation
T w
ĠB R
F in
ĠĠĠĠ ĠĊ
Ġbirth day
aps ed
f lix
fra ction
Ġparamet riz
ĠSh ar
ĠF ile
Ġsquad ron
_{ {
qu al
ĠE c
b ibliography
Rad io
Academ ic
Ġregular ization
art icle
Ġrad ii
ĠLl oyd
st ation
Ġdec ides
Ġcard inal
is ch
ist ance
umb le
V C
Ġvol can
Ġcomment ed
dep th
Ġm g
ĠE le
Ġlocal ized
2 10
ĠK un
Ġuniqu ely
F ull
ĠGon z
Con f
Ġquant itative
ĠZh ang
M W
Ġnom inations
be fore
ĠEth iop
Ġsuper conduct
ĠTerrit ory
ĠAl ong
m ut
ĠC atherine
Ġunder ta
f eld
Ġg ross
Ġint u
oph one
ĠSh a
ari ants
ĠMont ana
m itt
), (
Ġgeodes ic
Hon ours
L ondon
k an
Ġ( '
Ġcross es
rat io
Ġsh adow
pro file
qu arter
ic z
ĠM ann
Ġb io
arm ac
18 73
ĠC ancer
um m
port ed
uck land
tem perature
ĠM I
ĠW i
Ġcharacter ization
ĠTer ry
ĠP ul
on ies
ĠB ath
18 66
T oken
Ġ\ :
Ġdeep ly
, (
S em
Ġnav igation
abl ing
f und
ĠB uch
ĠPer ry
Ġprov ing
ĠM obile
] _
ĠH em
ĠL iga
oc hem
Ġconsider ably
Ġorig ins
ĠCont emporary
ĠHig her
d if
Ġsl ot
ĠF un
Ġcor ruption
ancell or
> $
ĠO S
ĠLu ke
ĠRepresent ative
ĠC ob
Ġreconst ructed
ĠKe ith
ring ton
Ġread ily
renew command
tra ined
ĠPun j
Ġm oth
ĠQu arter
Ġess ay
class es
Ġtax es
Ġguaran tees
Ġcomp rom
18 72
ĠS or
Ġca usal
Ġtrib e
ri er
aj a
Ġwebs ites
ro e
ick en
duc ing
text style
Ġgradu ating
Ġc argo
Ġfacilit ate
] ^{\
p any
Ġc rack
Ġsusp ension
Ġtw ist
Ġcelebr ate
Ġdip ole
ur st
T otal
Ġdetect ors
Ġ )$
Ġph osph
ĠC row
Ġcomput ers
H F
ĠInter est
ric ulum
Ġplay offs
K O
Ġrefer ring
ĠI celand
Ġconcent rated
Ġer g
ĠRog ers
ampl ing
f il
ĠF R
Ġfest ivals
om es
Ġep id
fig s
const ruction
ograp hers
Disc ography
ab ol
Ġb at
ĠAm sterdam
[ "
Ġexception al
Ġlocomot ives
Ġconven ience
Ġm os
Ġout door
ĠL is
ĠGra ce
Ġglob ally
Ġadapt ive
ĠD id
Ġb le
che m
g tr
Ġ ).
us c
Com mon
Ġtravel ing
ĠProdu ction
Y es
ĠG T
s yn
18 40
Ġun cle
ĠDe ut
moment um
h ome
Z Z
Ġdef ending
$ ^\
Ġuncer tain
miss ions
Ġtravel ed
iv odes
cc entric
Res ource
Ġconj unction
au kee
Ġqu ad
ĠSt ories
ira ble
at z
IC E
Ġcomput ations
ĠComp an
P ack
d ynamic
Ġvalid ity
i w
Ġâ Ĥ¬
ĠB aptist
Com b
Ġrepeated ly
ĠLe aders
st re
Ġhigh lights
ĠAd elaide
ke ys
Sh ow
. ).
M ode
Ġto ugh
V s
ov en
ĠM idd
Ġse eds
Ġdo ctors
b ast
ĠN y
k ens
ĠBay esian
Ġign ored
Ġmicro sc
ma xim
Ġpower ed
Ġcap ability
ĠAb u
ĠO wn
ir ts
Ġst ere
Ġtim ing
Ġover w
U pdate
om ial
m usic
iv ariate
Ġsudden ly
Ġvent ure
ĠC ad
Ġexhib ited
over e
Ġbright ness
Ġflex ible
d n
Ġsubstant ially
Ġcontrad ict
cal cul
Ġswitch ing
ac a
asc ript
lay out
Rel ated
15 5
Ġsynd rome
ex act
Ġinter cept
ĠSerb ian
Ġplan es
Ġrat ings
Ġl ights
O O
ĠCan al
Ġobser ver
Ġspons ored
ĠT alk
Ġstat ue
ĠK rist
ann i
Ġg overning
b ooks
ĠF if
Ġcol span
Ġgra in
Ġachie ves
Ġqu eries
ĠG ay
Ġb anned
ON T
Ġcomp ounds
Ġg ear
J ose
ĠW ord
ĠHe avy
Ġstre ams
E ff
Ġr it
Ġdis sol
ĠT as
ĠOrig inal
ĠTre as
top rule
Ġmil k
Ġadvers arial
Sever al
~~~~ ~~~~
u cc
Ġart illery
ĠArab ic
ĠH amb
ĠSt ore
g ie
s outh
v c
C oll
Ġpod cast
}) }\
ĠLu is
ĠA viation
Equ al
vert ed
big oplus
ol ation
Ġsk i
apt ers
Ġinvestig ations
Ġex terior
al id
ĠS uz
Ev ents
Ġh az
m other
ĠN an
v m
ĠC PU
ĠSus an
ĠArch ive
B ro
Spec ial
Ġp in
W il
ig ion
^ *}
g as
An n
Ġcol ony
ĠWat son
Ġc umul
A I
ĠK ay
Ġcont ents
}. $
R a
ĠBer keley
Not ice
s qu
Ġmy ster
Ġcoinc ides
ĠS olar
Ġstr at
S aint
Ġhop es
ew ay
Ġgr ants
}} ^{(
g om
Ġsec ured
Ġreprodu ce
ĠJ oint
E Q
ĠB ert
ivodes hip
Ġmod ify
Ġgu idelines
Ġconstant ly
Ġten ure
Ġexplos ion
Ġd eter
min a
ĠĠĠĠĠĠĠĠĠĠĠĠĠĠĠĠ ĠĠĠĠĠĠĠĠ
ĠArab ia
Re public
Ġan chor
L D
}, \\
Ġvulner able
Ġarrang ements
Ġguaran teed
T ree
Ġrecommend ations
n etwork
Ġpoint ing
Ġdisput e
C ity
om o
Ġe ase
ĠGra de
it atively
Ġflux es
Ġwrest ling
ĠMunic ipal
O pt
Ġout flow
Afric an
Ġrev ised
ex ec
p iece
18 69
Ġapp s
Is rael
Ġdemonstr ates
ig roup
Ġ\\ [
He ad
rib le
ĠTh anks
Ġv ital
ĠT ask
ĠSte in
Bl ue
Ġexam ination
Ġconnect s
Ġspecial ized
Ġfl ed
Ġgrad ed
Ġ$ -\
l brace
D er
ĠL arry
Ġt ons
lev ant
ĠPro perty
Ġdis crep
ĠS oph
A thlet
ne cess
Ġrot ating
ener ate
Ġpay ments
ĠArch ives
Ch inese
Ġpropos als
Ġposs ibilities
Ġobserv ing
ĠCru z
bra ham
ĠNep al
ĠM end
ĠA ra
Ġs ust
Med ia
Ġper cussion
Ä Ł
ĠM aced
'' .
Ġco ins
F rank
Ġcond em
Ġport rait
h all
) ~
Ġcurrent s
ĠTreat y
Ġde emed
set length
Ġthe sis
te am
ĠPro file
C y
Ġc ounsel
oth ic
ĠPolit ics
] }\
Ġcop per
ĠAthe ns
Î ¿
w aukee
Ġemphas is
M em
th lete
Ġconsc ious
Ġev ac
Ġtrad ed
E conom
N Y
RE F
ĠL ion
Ġsymp lectic
ool s
P rim
Ġhon ors
ial og
Ġg ains
Ġstreng then
ĠC urt
ĠM uch
}{ $
Fig ures
Ã¡ s
Ġenc oded
D ou
qu antum
osp here
Ġattempt ing
sm ooth
ry s
P rior
Ġqu bit
akes pe
Ġpet ition
ĠAg reement
Ġy es
Ġman ual
ars on
N D
Ġr ated
Ġalign ed
e als
R ound
Ġmod ifications
ch anges
ĠS ett
ĠF L
& +
iv ic
Ġbut ter
ĠM ig
Ġtack le
Ġcam ps
Ġp ace
ĠK ol
Ġact ively
Ġamb ig
Jew ish
Ġmuseum s
n ear
sh ifts
}} -
Ġb ull
Ġpl acing
ĠSt ri
d p
Profess ional
Ġres ort
om ed
Ġsupp lied
_ .
Ġcompos itions
ĠP av
13 6
Ġtradition s
Ġmain stream
Ġadvant ages
Ġcomplet es
eff ective
S ir
ĠAd miral
ĠHor se
Ġpl enty
ĠIn stit
Ġins pe
Ġvolunte ers
). $$
Ġdis ks
ĠMad ison
Ġw ake
AG E
et e
ous ing
ĠSe an
Ġc ow
B a
ĠVo ivodeship
in ology
Ġm amm
Ġsimpl er
W al
Ph one
T our
f ers
Ġin comp
ve ctors
Ġsh ield
old er
AC K
am y
part y
ĠMax well
p q
Ġleg islative
ĠS ak
ĠS alt
14 5
ĠMe chan
Ġsett lements
on ing
ĠGl en
Ġob sc
qu ant
H ung
ang led
Ġneg lect
Recip ients
Ġassum es
ĠL HC
ĠR ivers
Ġstri king
N a
ub a
ĠAd vanced
ER R
Ġg rate
Def unct
t n
ĠNe il
ĠPhilipp ine
F ix
ĠB S
und les
ur ated
eq q
inst ance
Con clusion
Ġ ions
hy dro
Ġmart ial
w alk
en os
Ġcyl inder
Ġh int
ĠC ox
Ġbon us
Ġconjug ate
ill iant
a ude
Com pan
ĠK in
Ġconf usion
le ep
Ġcompet itors
Ġscatter ed
Ġacqu ire
Ġimpact s
Ġdiscrim ination
Ġanom aly
in formation
Ġcopy right
Ġin ches
Ġappro ached
) ~\
f m
c est
j ud
ĠAir lines
Ġj u
ach t
Ġaccom pany
sin h
Ġro ster
sum er
ĠAb bey
P H
ĠH aving
se en
ran es
ester day
Ġfor b
Ġcam eras
Ġsub sc
3 000
N G
Pro perties
Ġdem olished
ĠDemocr at
B ooks
ĠArchitect ure
Ġconsider ations
ĠUE FA
Ġsum s
E A
val uation
Ġb alls
h m
Ġad mit
ĠW alt
Ġj ury
ĠM ut
Ġr iding
Ġcaref ul
L ove
Ġeconom ics
agon ist
ro us
Ġtrans actions
Ġg ent
ard i
ĠE SP
ĠT otal
ars ity
sur face
od ore
ĠO pt
ig rated
ĠVenezuel a
ov an
Ġelim inate
ĠBer g
om pass
col head
Ġmemb rane
v or
Ġspec ify
Ġpriv ile
Ġport folio
* }\
Ġcal endar
C r
Ġw orship
Ġins ights
J im
Ġhighlight ed
ĠStan ford
ĠS ultan
Ġprot otype
ond o
Ġdiv ide
sp ring
ĠS hip
is cal
Ġb rowser
Te chn
Ġassist ed
Ġnucle us
}} }{\
Ġdr inking
Ġs ugar
ct rine
ĠG olf
Ġb ins
the se
ĠI L
Ġinf ra
Ġcoinc ide
F OR
Ġpair ing
ĠQ ual
f ixed
Ġlog ical
Ġenc oder
Ġprot ocols
s creen
Ġatmosp heric
Ġwat ched
Ġtra p
ph abet
sk a
Ġad s
Lay out
is i
ĠY uk
Over view
ĠK ate
Ġdist ant
bre aking
á ¹
se q
ht bp
Ġdwar f
est imate
c rit
ĠJeff erson
b x
ĠA x
Ġthreat s
S ocial
produ ction
Ġqu arks
ĠA round
ĠLe v
Ġl ibraries
ĠC ert
Ġg raphics
Ġcl ot
Ġflo at
ĠHer z
C amp
ĠLi u
li ers
ĠGuard ian
fra g
Ġau ction
akespe are
Ġbe ating
ater ials
Ġt ab
con vex
Ġsingular ities
Ġfill ing
amb ers
ĠC ele
ĠD ir
Ġin herent
d al
ail ing
Ġch ronic
Sm ith
ĠS ony
Bra zil
Mus ical
Ġput s
Ġan xi
c am
á º
Ġe cosystem
ĠB aby
M s
ĠEd ge
ĠPl anning
hav ior
Ġassoci ations
ĠSt art
Ġimm igrants
Ġh unt
lic an
ac co
1 19
Ġâ ĨĴ
Des ign
Ġexponential ly
Ġscal ed
ind a
Ġimm igration
quir y
5 12
Ġdevelop er
Ġra y
Ġintellect ual
Ġachie ving
Ġst opping
ĠN ak
com ponents
Ġreason ing
aut o
v ideo
18 48
Ġmus cle
Ġperm it
lim ited
am ic
ac les
pend icular
Ġde ck
ĠTh ings
M ale
Att ribute
Ġaffili ated
ĠB A
Ġhar vest
ĠR F
Ġdismiss ed
ĠChristian ity
Ġmurder ed
Ġrad iative
): =
av ier
ĠStat istics
f its
Ġsimpl est
ĠDou ble
Ġlie utenant
Ġmeaning ful
Ġdiff ers
Ġhead ing
Ġcompl iance
Ġcompens ation
Ġbroadcast ing
idel ity
Ġt iny
big gl
Ġweak er
\' {
Ġdevi ations
it ations
ĠP in
count ry
Sw ed
M ot
am ine
e lected
id ation
Ġimpro ves
NR AS
s ay
Ġcert ified
ĠL aura
ĠV ent
Ġmin es
harm onic
Ġte ch
ĠI F
ĠL ot
with out
ĠVal ue
ĠSm art
v et
Ġ* *
ĠEn cycl
Ġjoint ly
C ritical
bt n
Ġa qu
ĠEag les
~ {\
Ġt aste
ĠS NR
Ġvic inity
Ġgrand father
Ġlist ening
q ed
ĠA uckland
Ġoverse as
pro to
R ock
Ġscholar ship
ĠF ro
Cont roller
vers ely
ant astic
ĠH ob
Ġsh ops
Ġsub graph
)$ $
ĠB esides
AC E
Ġperson ally
Ġpreced ing
Ġpat rol
ber ger
ĠSing les
Ġs hed
Con st
EN D
Ġtrib es
d g
Ġsent ences
Ġ< !--
ĠBut ler
Ġrecip ient
bibliography style
ĠD ennis
Ġbranch ing
. [
s ens
par se
Ġveter an
ĠVerm ont
gener ated
ĠBuddh ist
Ġbond s
ethe less
Ġdisestabl ished
Ġ ell
ie ve
Ġlearn s
ĠR oche
Ġed itions
d ue
i ya
Ġconcer ts
gtr sim
ĠJust in
r brace
Ġeg gs
ĠK id
}$ ),
C ross
4 000
ĠMah ar
Ġevolution ary
ai ro
cur ve
Ġdem ocracy
ĠB ald
Ġaccept ance
ress ing
r ates
Ġadd itive
Ġrem arks
Ġb om
ĠS ox
ĠF low
att r
Ġcent res
Ġany where
ĠG host
in ions
ell ers
ĠRe ading
tra ining
process ing
Ġpers u
Ġadj oint
Ġf ake
ĠC incinnati
ĠCam eron
ap est
}. $$
ht b
Ġign ore
th al
is o
rac le
Ġb read
Ġobtain s
b ank
Ġatt ractions
ark ed
c b
18 59
bigg r
ĠCroat ia
Ġl iv
}\, ,
Ġcontain er
hom ogeneous
at ra
rel ax
Ã ī
He alth
. ]
Ġ Ø
b oot
ĠHer bert
Ġdegener ate
pp e
^{ {\
Ġsp iral
ut ton
az i
ia z
Ġregular ity
i ology
m g
ĠT ang
Ġcompris es
U D
Ġtour ism
ill ance
ĠPeters burg
bottom rule
Ġdepart ments
ĠJ ar
+ }
Ġbelief s
Ġb ullet
ĠAl ger
G re
r arily
s ized
Ġcivil ian
Ġro cks
Ġhy pers
ĠWork ing
Ġpreserv es
ĠConserv ation
m un
st yles
Ġimp ose
Ġburn ing
ĠSing le
Ġmerch ant
Scott ish
ĠK ap
ĠG C
ĠBy z
Ġphot ographer
Ġexec ut
Ġrad ar
E W
}{ $\
ĠPriv acy
Ġbal anced
_{ |
ĠD od
ĠD ise
umb ai
Ġpe oples
Gl obal
Ġwire less
T ags
ubb ed
row ing
ĠHel en
Ġisot ropic
Ġsubsidi ary
Ġinf antry
AT A
abil istic
ĠBre ak
Ġrem n
18 30
ke ep
Ġpro l
Ġobject ives
vol ume
ĠNor folk
ĠNash ville
Ġs a
Christ ian
ĠArt illery
Equ als
Ġnegoti ations
iz a
ĠH av
Ġsearch ing
Ġtick ets
Ġmon op
U r
ens on
men u
d irection
Ġdig it
Ġplay off
ĠWork ers
Ġh orn
ack now
Ġsy nonym
Ġcontest ed
ĠLe o
Ġincor rect
12 9
]{ ./
ĠFil ip
el o
ĠG y
Ġnon trivial
Ġcyl ind
Ġw elfare
Ġp ill
Ġto m
ol ition
ĠM orning
Ġvirt ually
Ġtrib ute
ok u
Ġtrac es
ĠLe eds
p atch
ĠCy cl
18 57
Ġto urs
Ġn ut
Ġt anks
ĠH IV
//////// ////////
Ġdel iber
ĠE M
Ġdro ps
ĠMon th
Ġhun ting
ar ound
Ġpre val
ĠA ber
ur se
Ġarr ives
Ġh ate
I E
ĠAgric ulture
Ġch ron
Ġprocess ed
T erm
Ġun clear
Ġsk etch
Ġn inth
ĠW onder
Ġinher ited
Ġend ors
arm s
form ations
S B
ĠBob by
ĠArm enian
ĠB ee
ĠP red
Ġmy stery
Ġpl ates
Ġcon ductor
ĠPl us
Ġinaug ural
Ġwal ks
cknow ledge
Ġcitiz en
v ance
ĠHar vey
Ġliter ally
f ar
ĠArt ists
Ġhapp ening
cl uster
Ġgovern ed
}$ :
Ġpack et
ĠArn old
ĠSt uart
Ġpar agraph
Ġ\| _{
ask at
iffer ential
ĠH at
Ġfail ing
H ig
he ro
Ġenc ompass
c n
Ġp uzz
P ower
Ġcomplex es
Ġhe m
ĠC ant
ces ter
Ġjurisd iction
o j
ĠDel aware
G rand
Ġ icon
Ġprogress ive
former ly
Ġi i
e V
Ġcol ours
ow der
Ġpro jections
lect ric
16 5
ĠBris bane
en burg
F rame
oper ator
mod al
S port
ingu ished
Ġl ung
te ch
Ġass ists
Ġear ning
Ġneur ons
Ġlogarithm ic
ĠK ash
ĠL ook
Ġb ay
}; \
Ġmin istry
ul ates
Ġp ale
Ġmoment a
Ġaccommod ate
ĠIn v
ĠF OR
Ġencounter ed
ĠM ort
osp el
Ġl ib
Ġir regular
Ġreal ization
( &
Ġpro s
Ġam id
G reat
as p
ĠTransport ation
Ġunder go
Ġd ivid
Ġorig inated
ĠFlore nce
Ġas ymmetry
Ġsp ont
^* (\
Ġche cks
ĠS outheast
ĠUn fortunately
ĠĠĠĠ ĠĠĊ
Ġapprop ri
at om
Ġim per
ĠLeg al
ĠCommer ce
Ġcons olid
ĠH ugh
ĠPen insula
Ġ )\
ĠForm er
ĠC hern
Ġhand led
Ġb orrow
Ġper ceived
ĠP or
Ġv ortex
Ġmed ic
Ġbe er
end if
Ġincorpor ate
ĠSocial ist
Ġform ations
Ġwonder ful
ĠT i
el ly
ĠY ale
L ee
asc ular
ĠGerm ans
ĠPhill ips
Ġs ake
Ġas ide
G allery
ĠF act
A meric
ĠH im
ĠH ale
Ġenvelop e
< ?
S uch
ĠE ld
C AR
ĠB eth
Ġen emies
13 4
ĠR aw
ĠReyn olds
Ġmethod ology
pp ers
Ġtra ct
ĠMult i
or bit
Ġsculpt ure
resize box
J ack
Ġs isters
ĠAzerbai jan
ĠR ena
)} =\
Ã± a
L ength
Ġe ating
M ah
m ix
ig rant
AB LE
Ġpar ity
= }
h agen
Res earch
3 20
gom ery
rag ue
intend o
ĠB ag
En c
Ġn arr
Ġpres c
IT Y
Ġw ard
Ġarr iving
Ġdef inite
Ġdiagn osis
Ġer ected
Ġe V
Ġlong itudinal
Ġmen u
h is
ill es
Ġinteg rate
Ġde com
vel oc
ĠAl t
Ġvo ices
orient ed
ĠS yl
Austral ia
ap or
Ġno isy
g us
Ġdr ives
Ġrun ners
Ġmake up
Ġswit ched
Ġapproxim ations
Ġprov isions
Ġasymptot ically
Ġrel ate
+ $
L ittle
Ġturbul ence
Z E
ĠCh ang
Ġphot ometric
ĠCh i
Ġrig id
ĠĠĠĠĠĠĠĠĠĠĠĠĠĠĠĠ ĠĠĠĠĠĠ
ON E
Ġp ic
k it
ĠTe V
c ott
leg iate
ĠBroad casting
13 2
ut er
ĠN athan
ĠG ust
ib n
augh ter
}) ^{\
ĠT ed
ab atic
ĠDef ine
rem ove
Ġsl ave
Film ography
ĠCom plex
5 000
E r
return s
ff ield
Ġgold en
b les
Ġpre st
Ġoptim ized
s olution
ĠGe or
Y our
ĠR alph
b is
Ġa cknowledge
Ġl iver
ĠD rum
ĠNew castle
Ġimag ine
Ġsn ap
ĠBlo om
ph ot
ap ing
Ġsp ell
ĠEd die
ĠIm ages
Ġlog o
diag ram
build ing
ĠOt tawa
ĠAng lo
Ġland ed
ĠChe ster
c aster
Ġmultiplic ity
im s
acknow led
Ġh ide
ĠProdu ctions
ĠP ent
Ġcut off
Ġcult ures
But ton
our g
G Hz
Ġmotiv ation
ĠPr int
Ġfun eral
Ġcharacter ize
ĠPlan ck
con c
ĠT odd
ĠCo hen
Ġm arch
ĠWrit ing
Ġmod elling
bo at
th in
Ġpat ron
M ur
jav ascript
Ġab ilities
ish a
Ġregul atory
Ġa xi
cos h
pl ain
| {\
Ġe ccentric
Ġval ued
ĠS ang
rib uted
Ñ ĭ
ĠHug hes
Ġass et
ST R
Ġtradition ally
Ġbi ography
ĠB E
Ġac res
d ra
AN T
] \\
ĠM oney
ĠAr ray
)) =
Ġtempor arily
d c
Ġindic ator
it ian
ĠAut o
Ġintegr ating
n orth
st ock
Ġaccount ing
ĠCl imate
18 58
Ġqu oted
P lease
make box
ĠPar alymp
Ġpal ace
Ġequival ently
ĠF ish
ĠD h
ĠC redit
}} _\
R est
T arget
Ġlaws uit
S n
ĠSp ider
Ġtourn aments
il ateral
gl s
Ġthr iller
Ġbu ying
ĠY ellow
ĠF iction
W W
s elling
Ġun re
Ġb eta
ĠU ser
T ypes
Ġob s
Ġcorrect ed
Ġquarter back
Ġn m
ĠG ilbert
Ġlik es
Ġexc av
22 5
ĠHis panic
Ġutil ized
Ġhand ed
Ġcol ored
ĠTh under
) },\
ĠAr c
ĠM ills
sh ore
Ġdefend ers
Ġc ave
ĠW ag
il o
D ig
+ {\
h uman
Ġsc iences
Ġneutr inos
b order
13 8
Ġd inner
ix el
Ġmeas urable
Ġfavour ite
Ġbus y
Ġexpl oring
Ġillustr ates
Ġpreserv ing
ĠC ell
g re
Ġcon sole
Ġdel ays
U RE
ol ly
Ġrecogn ised
ĠR ah
Ġtrans mitted
Ġkeyboard s
iss ible
in ery
Ġ( .
n l
er en
ul ous
rie ved
Ġexpert ise
Ġfarm ing
Ġover head
Ġgraph ic
G AN
h istor
ĠL isa
ph oton
Ġmem ories
ub ert
Ġco in
M NRAS
ĠB ear
ĠLeon ard
const raint
ie v
f ive
eff ect
ĠH az
ĠC ustom
n c
ĠArgent ine
Ġs or
Ġall iance
Ġintern ationally
Ġwealth y
ĠI de
ĠY a
ĠN A
ĠCo ach
raph ic
Ġearthqu ake
ĠM E
Ġinfra red
Ġsp ins
Ġlight ing
Ġdocument ed
ĠWell s
T ab
t ask
Ġceleb ration
ĠF ast
rec ord
}) }{
Ġabsorb ed
Ġsh ipping
{ |\
Ġqu bits
De cl
colon eqq
Ġoverw hel
ĠHen ri
Ġpo ison
ĠD rama
ĠSh akespeare
Ġ( ).
ĠR osen
ĠK ill
Ġt ape
ĠBulg aria
Ġfoot age
S un
Ġmanufact ured
b os
ĠM ade
R ay
ĠAgain st
ĠWeek ly
ĠS oon
G T
Ġg ymn
ĠCh ap
ĠM az
Ġbas ically
w oman
ov sky
Ġsust ained
ĠL ex
K im
ĠR af
Ġrec ruit
ĠE ve
Ñ Į
ent o
}) ^{-
ĠAn cient
m agn
eg an
19 2
}= -
B al
under brace
ĠSy rian
ĠVen ice
in z
Ġbel t
ĠT rain
n atural
ĠHeb rew
ys on
Ġless ons
( $\
Â ©
Ġrout ine
Ġprov inces
ĠLeban on
$ }\
**************** ****************
ol ine
ĠĠĠĠĠĠĠĠĠĠĠĠĠĠĠĠ ĠĠĠĠĠĠĠĠĠ
Ġvari ational
Ġj ew
ut ical
gra vity
s end
Ġin ert
Ġbu ck
Ġke V
F rance
ĠPers ian
ĠFilm s
st own
ĠA er
Ġgrad ients
ï ¼
are a
F W
18 55
Ġtw isted
Ġill um
Ġto mb
us ive
Ġor al
ĠInter view
y y
Ġg amma
UR L
Ġoccur rence
ĠB ach
Football ers
ros so
Ã¼ n
ex cept
Ġun ve
: (
Ġoff ense
Ġkid n
em in
par a
Ġfollow ers
ik ing
Ġconduct ing
ĠV oice
is ors
cu ador
oc ate
Wid th
c op
ĠN R
ĠW orth
B undle
ĠL ipschitz
ĠO scar
bound ary
Ġt ale
Ġelev ated
ĠM atch
w ait
T ok
p it
ole cular
ag i
Ġsum mit
ID S
off set
13 3
Ġpoor ly
am ation
18 54
Ġinters ect
Ġr ice
Ġinf ected
z ig
ĠHar old
ĠL oss
cess ion
g rim
ĠN N
ĠPh ase
ĠL LC
Ġbroad er
} '$
Ġj ack
bo ys
Sing le
h ash
ĠA ctor
or ious
Ġpat ent
Ġfor wards
Ġkit chen
Ġstructure d
\" {
Ġens uring
Ġhost ing
sen al
ĠCh apel
Ġh ang
Ġatt raction
Ġtri angular
Ġh itting
comm ut
ĠF ly
ĠF at
lu ence
Ġdistinct ive
Ġbehavi ors
spec ies
13 7
Ġ url
Ġconsequ ently
q l
R ivers
ĠP eng
Ġutil ize
Am ong
Ġar row
s ys
Ġtrib ut
c in
f re
Ġconf used
A K
Ġp our
W el
ĠCh an
Ġdrum mer
Ġcon greg
P a
M ary
it ious
ĠK rish
}) :
da pt
Ġrec alled
Ġcomm anded
ĠV ict
ĠG or
Mult i
act ing
] _{\
c ence
ĠPerson al
ĠAst ron
h orn
Ġth ir
ĠB ak
Ġentreprene ur
ĠPro t
l ift
jo in
Ġdeterm inant
ĠTh ai
T ake
Ġ[ ]
Ġview ing
Ġimpl ied
Ġprodu ctions
ĠL ac
Ġcl im
Ġreb uilt
it us
f ilm
ipp er
osoph ical
F G
}} )\
ĠP L
eg al
Ġl ip
Ġm asks
ah an
z one
Ġrobust ness
Ġz ones
Ġfit ness
ellig ent
ĠWood s
ou x
Ġim perial
e eq
Ġhard er
el astic
Ġsus pected
N ames
Ġtra pped
Ġburn ed
ĠShang hai
h h
ĠIndepend ence
Ġbe et
Ġdi et
Ġin coming
Ġsoph istic
Cent ral
W R
Ġw ond
F ar
ĠCard inals
ĠTib et
ĠA aron
Ġcollect ing
ĠC ome
le igh
ĠI SO
du ction
Ġrot ational
M ex
eb ox
ich let
Ġshall ow
Ġb ipart
MS E
de velop
ĉĉĉĉ ĉĉĉ
18 56
Ġcomb inator
ac ular
Ġequ ity
Ġem igrants
Ġd ots
I ts
Ã Ĺ
Ġse vent
sw ick
Ġapproxim ated
Ġhom ology
Ch ina
Ġch apel
ĠF ra
Ġrest ore
L ight
ĠG az
D ocument
end um
ĠPlay ers
Ġconnect ivity
Ġco res
ly ph
st ead
ĠObserv atory
el ia
Go ogle
ĠR ams
ie u
Ġstand ings
h im
Ġinter active
rel ations
ĠGreg ory
Ġdisapp ear
Ġbelong ed
ĠC ut
Ġrel ocated
ĠM ul
imens ion
I ll
}} }}
ĠF BI
M N
ĠP RO
im en
rib utes
ran o
Ġdef ect
Ġdecor ated
ose x
ĠN ott
Ġthr one
requ ire
Ġimm un
ph ysical
Ġharm on
us a
Ġele g
Ġfight ers
Ġjo ins
ch ing
in ced
ĠFig s
Ġc oding
ator ies
Ġprom ised
R ange
he ld
Ġem otion
ĠWall ace
Ġb ol
ĠH T
arma ce
Ġatt itude
ĠCit iz
art ifact
Ġindu ce
ĠNet flix
ter ms
- $\
ĠKn ights
uss els
Ġpref ix
Ġadmin istered
Ġpol es
Ġc ock
Ġf ed
}$ ~
ut a
ĠBenn ett
ar u
ĠAm y
Ġsub mit
ĠR O
ĠE state
T reat
ĠBl u
Ġconstruct ing
mic ron
ĠFellow ship
Ġd elta
ĠR uth
Ġ$\ |\
Ġprogram mes
fer red
Ġj oy
un i
Ġexperiment ally
ĠWell ington
Ġth rown
I rish
ĠL arge
Ġle agues
am med
Ġren ov
Ġb is
Ġarbit rarily
Ġsp anning
ĠP resent
Ġm oon
Ġb ubble
ĠSD SS
}, $
Ġa z
ĠP ont
ĠÃ Ĺ
ĠS ierra
Ġinv ariants
List ener
C K
ĠM Ã©
ĠVal ent
B ill
Ġc attle
ĠO m
ĠPar ks
Ġhist ogram
isc her
ĠGro ve
wind ow
J ud
Ġm apped
Ġpredominant ly
) )$,
es ome
Ġfre ely
n ov
ess a
ĠM s
Ġcomfort able
ha o
Ġn est
)$ }
ĠB orel
it ars
urs or
ans k
Ġt uning
Ġcrick eter
Ġer u
Ġadopt ion
atter ing
Ġsk ew
Ġco arse
i ast
16 8
e very
Ġj ail
H or
ĠF ighter
Ġf iring
ĠL amb
b org
Ġb uses
ĠSc ar
ĠD anny
Ġconstitution al
ĠE mm
Ġpsych ological
ĠB egin
Ġco at
ĠG ang
ĠPal mer
Ġalleged ly
scal ebox
Ġgard ens
Ġcan n
ĠDi ocese
if ill
: </
ic us
pr ises
Ġbur st
AT O
xt on
ĠV ar
Ġdes k
ĠB oe
ern els
an che
O bs
Ġto uring
Ġarch ive
Add ress
tt p
ah a
Ġtel escope
land o
ant ics
cons ist
Ġmole cule
Ġalleg ations
ats u
in ks
Ġh ook
w ent
ĠP on
g art
ĠEx cell
at ial
Ġaff air
L ear
Ġpron ounced
ĠLat ino
ĠU pdate
Ġdro ve
ĠImp act
-> ]
Ġprepar ing
im er
ĠNe uro
Ġrad i
ĠF ed
Ġproceed s
Ġso ap
Ġtr ump
L at
ĠReturn s
ĠÃ ģ
$ ^{\
g ments
ĠB av
Ġbl ues
Cont in
Ġprint ing
ĠEp isode
Ġneg lected
ĠV illa
Ã© r
aur us
ĠNe ed
Ġinterpol ation
Ġfif teen
ĠGl ass
Ġa viation
ĠK umar
Ġce ased
ĠR C
ĠÂ ©
ĠS Ã£o
Param eter
ĠRe ed
Ġdeploy ment
ra v
Ġbar rel
Ġre write
Ñģ ÑĤ
I X
ĠT ong
ĠP O
21 3
H ost
b ird
al ong
Un it
min ster
}{ !
der iv
sp ired
p her
power ed
B ound
Ġaccept able
Ġdis orders
Ġexplo it
ĠA braham
Ġcalcul ating
ĠArch bishop
Ġenhance ment
Ġun w
d ict
g ap
B G
child ren
ï ¿
Ġspeed s
Ġpar a
Ġboard s
load s
Ġconserv ed
Ġtim ber
Ġd up
Ġa est
Ġrom ance
w hat
ĠSp encer
Ġform ulated
ff bb
Ġfoss il
ĠCar r
Ġart work
Ġaut onomous
Ġcomplet eness
ĠO w
ĠClar ke
pl ac
Ġepoch s
H as
cor rect
ah u
iz ard
13 9
Col lege
h art
ĠS askat
Ã¶ n
Ġdraft ed
oc ent
, }
C le
ixt ures
b ol
b eq
Ġs aint
)} }\
pot ent
ĠJ in
Ġ( @
Ga ussian
Ġaccompl ished
Ġattend ance
ĠS ob
ur as
Ġper pendicular
ĠM ine
Ġcl an
Ġqual itative
ĠV e
Ġsurpr ised
ĠE lection
ĠDiv is
CO L
Ġrow span
Ġcontroll ing
Ġaud iences
Ġcont our
Ġun ions
' }(
ra pe
Ï Ħ
00 5
ill on
ĠDer by
Ġwalk ed
oc on
er ie
Ġra ys
Ġr ally
equ ilibrium
ast ics
Ġattack ing
Ġthere in
uth ored
Ġsummar ize
14 3
ĠS ou
ĠA F
ĠBel arus
con tainer
ash ing
ĠG PU
ter min
Ġsuperv ised
diag onal
Ġar rows
Ġconv inced
Ġevalu ating
ĠR oc
Ġpubl ish
Ġclot hes
B ob
ig ue
Ch ange
const ruct
ĠEr nest
Ġcommer c
ĠFe ature
Ġt idal
Ġillust ration
Ġemphas ize
ĠF O
), \\
ĠC osm
op a
Ġspecial ist
h in
At l
B ay
armace utical
ĠM R
l st
Ġreserv es
ĠS ect
Ġsupp ression
Ġload ed
Ġexp ans
18 52
Ġsubgroup s
Ġa fore
ĠSe bast
Ġcompar isons
ĠPlan et
eng ine
Ġche st
w yn
he et
T P
ups ilon
Ġinter change
clip se
is ible
Death s
im o
Ġchar ter
cell color
ĠCoul omb
Ġvol leyball
| }{\
bro ok
p ire
h ops
ess el
vel t
P rom
AR S
ore n
^{ *}
as is
Ġperturb ative
Ġdifferent ly
Ġpen et
u ine
ĠH R
ĠF i
enc ia
* {\
)$ )
AP I
Ġbackground s
Ġthere after
ĠS oci
am pton
ï¿ ½
Ġc ad
Ġ\ )
ĠH E
Ġst eal
W C
d v
ĠR S
Ġal ien
M ont
Ġhe ll
Ind ia
Bet ween
Re ference
itt en
v dash
J ul
Ġ å
ĠR us
ĠD y
m aterial
ĠĠĠĠĠĠĠĠĠĠĠĠĠĠĠĠĠĠĠĠĠĠĠĠĠĠĠĠĠĠĠĠ ĠĠĠ
Ġsimpl ify
F ONT
he art
Ġconclud es
Ġn erv
c od
set t
ĠBe ing
period ic
Ġproxim ity
ĠCong o
Ġplan ar
Ġ\\ \
ĠI o
att ices
ass o
Ġcap ac
ps y
Ġingred ients
Ġsure ly
}} ^\
Ġdipl omatic
Ġlett ing
Ġdisc ount
sch ild
ĠCa uchy
r k
Ġsear ches
ĠEm ily
Ġop inions
ĠM umbai
ĠAh med
Ġco herence
S at
R NA
ĠJo an
Ġind oor
Ġed itors
Ch arts
ĠV eter
Ġbos ons
Ġmod ulation
Ġcontrib utes
system s
ĠCol lect
add y
ĠCre ate
ĠRh ode
cor relation
Compan ies
Ġsett lers
ĠMil waukee
Ġgl uon
Ġfilm ing
ĠDo es
ĠCL ASS
28 0
hab ilit
Ġcon g
ty p
Ġinvestig ating
Ġult imate
ĠM ario
Ġfactor ization
}}{ (
}\, .
Ġcur rency
Ġair line
Ġin cent
ĠB ent
ĠHar bor
Ġisol ation
Ġwor ry
raise box
ĠBey ond
Ġsem if
H ard
ĠG amb
Ġwithd rew
ĠS old
Ġtour ist
Ġdis band
Ġr iders
Ġadjust ed
ick er
in j
ern ess
class ical
Ġper pet
Ġc emetery
arri er
ĠNorth west
ĠA u
14 7
Ġdescript ions
ĠK as
ĠP att
Ġvacc ines
h ind
Ġen abling
D utch
Ġsc an
US A
ĠAng lican
Ġt une
Ġadvoc ate
ĠBro oks
oc ene
Ġg aps
Ġbi ology
Ġcon vey
ĠM ik
Ġsub urb
Ġthermod ynamic
Ġshould er
ĠPro f
Ġinspe ction
{ %
ĠAll ied
ĠA pr
Ġdis abled
Ġquant ization
ĠS ic
ĠP rison
ĠLiber ty
outhe astern
M il
18 51
ĠTom my
Ġp orts
en o
ce q
ĠComp etition
Ġa thlete
ĠUg anda
Ġm ice
ing en
Ġplay wright
B on
Ġsong writer
Ġdel ight
re b
Ġsh aped
Ġsp ur
Ġall ies
Ġsign atures
Ġbank ing
P Y
n p
Ġcorn ers
Ġrecommend ation
par ing
Ġmaintain s
in as
Ġun changed
Ġt ent
ĠFried rich
ĠCirc le
Ġm im
ĠW ald
Ġad op
Ser ies
ĠD ame
Ġpsych ology
ĠWars aw
00 2
a qu
Ġcompris ing
ok o
Ġsoci eties
f ix
und a
Ġconcent rations
Ġrecept or
ach ment
ĠD aw
Ġy ard
Ġmat hematic
Ġhistor ically
Ġon set
Ġext rap
ĠÅ ł
ĠJ ung
Ġout lined
che l
g ue
Ġmob ility
com parison
ĠEs sex
ot ypes
Ġh urt
T ri
ĠRay mond
ĠAn aly
and ro
ĠA w
ĠWe yl
ĠK or
Ġdocument ation
es y
Ġte eth
Ġsuccess ive
ari us
geq slant
ĠTas man
Ġpop ulated
ĠBl ake
ĠW ake
Ġh ull
13 1
Ġlik ed
Ġbank rupt
Ġv ib
f ollowing
iss ues
it ic
ĠF oster
ĠN ancy
ĠFa ith
Ġp icks
ĠCle arly
Ġanth rop
Ġpre t
ĠMet al
Ch apter
Ġprefer ence
Ġcounterpart s
ĠI BM
Ġor che
ĠB ody
Ġfall en
ol ith
ish i
ĠSi eg
zh ou
Ġafore mentioned
Ġb orough
] }$
d an
y u
Ġab bre
ĠG M
Ham ilton
im mer
anc el
Jose ph
Con clusions
@ \
por al
found er
Ġmagn itudes
ĠChel sea
Ġp ounds
ur c
cl oud
ĠD ale
Ġo k
asc ade
sat z
Ġst roke
ĠR aid
ĠGu ild
weight ed
anc ies
FF FF
Ġadequ ate
ĠSud an
ĠB ears
)- (
c ro
ĠAssum ption
r b
Ġpart itions
Ġtrav elled
18 49
H ash
ĠP aint
W rite
ari um
Ġto ll
Ġreg imes
33 33
ĠRev ival
leg raph
18 47
b uffer
ĠKaz akh
ĠArm ed
lig a
$ /
ern er
Ġm ouse
ĠMont gomery
bor o
= $
ĠO N
ak ar
Ġassert ion
Ġrefuge es
pro j
ho e
ĠRena issance
pd ated
Ġw orn
\, $
ĠPed ro
alth ough
l attice
Ġdiff e
pect ives
Ġtreat y
Ġel ite
Ġexhib itions
cre ts
Ġpract ition
ĠE sc
opt im
W ang
Ġrenormal ization
pan el
bu ilt
Ġf ate
n as
Ġcou p
e igen
ĠFran Ã§
Ġcert ificate
ĠF oot
^* ,
ĠCl aim
Ġconflic ts
Play ers
ĠPunj ab
Ġnorm s
`` `
A BC
ĠLuc as
ĠIsa ac
ĠM T
ĠC ork
Ġhop ing
ĠS ent
Ġtele phone
ĠIda ho
Ġs ang
ĠGab riel
Ġm ad
Ġactiv ated
ĠS of
pr ising
ÑĢ Ð°
Ġl en
Ġcart oon
ĠH ost
m icro
Ġto ured
Ġper ception
Ġst rang
n al
Ġpil ots
Ġreli ability
l ceil
Oper ation
Ġimm une
ĠA G
Ġal phabet
is che
sur ance
ll a
K ar
Ġb ind
Ġarg ues
Ġwe aken
ĠCons ult
Ġhous ed
M ill
ada pt
B V
ĠC over
Â ®
ĠC raw
Â ·
ĠEag le
ĠOther wise
Î ½
ĠT aking
Ġinteg rable
Ġcomment ary
ĠJenn ifer
Ġanomal ous
Ġunsuccess ful
Ġn inet
ĠRon ald
ĠMot ors
Ġde ce
clud ing
Ġen rolled
Ġcon ce
Ã ¯
Ġb ishops
ĠHol mes
pl ates
tem plate
ĠL ov
L u
\\ [
Ġtravel s
ĠH alf
vent ions
IV E
ĠD A
ĠESP N
Ġcommunic ate
ĠR oth
ĠCom edy
15 2
Ġmod est
Ġtrans parent
ĠDat abase
W ater
p rom
Ġre organ
be it
C ard
S a
ĠS ter
st ed
p ic
Ent ity
ĠBrun swick
Ġthin ks
, '
ĠLin ux
( (\
r ceil
ĠCl if
Ġreb ell
}) +
Ġinfer red
l g
ex pect
ER E
Ð¾Ð ²
ac ional
Ġconvolution al
ĠP rest
ĠP icture
ĠD raw
DB LP
ĠPalest inian
Ġtransform s
b ay
ĠC N
ĠRod rig
H aw
Ġf aint
bl og
P y
Ġh ills
ĠV ery
Ġphys ic
Ġport ions
Ġaffect ing
). $
arri or
th ird
ĠK ids
Ġsqu ared
Ġl akes
ist le
Ġhe x
Ġsp ir
ĠNot able
ed o
ers hire
Ġcell ular
m ac
Ġred shifts
ĠMus ical
S ol
f c
f urt
Ġpregn ant
ig g
Ġs aving
ĠK err
id y
ĠSw an
Ġh ind
Ġalter ed
Ġmot ions
Ġint ra
unt ary
en um
Ġsl opes
pr us
Ġcheck ing
veloc ity
ĠC inema
N ever
} --
Ðµ Ð½
Ġb undles
Ġg est
ĠL or
Ġel dest
ĠT at
Sing les
l iter
{- }
Ġfle w
Ġk ernels
Ġchalleng ed
ĠJul ia
ĠBat man
Ġab oard
Ġapp endix
k w
Ġdiscuss ing
Ġoption al
names e
Ġc iting
Ġall ocated
Ġbas in
ogen ic
Ġal ert
ogene ity
Ġfriend ship
Ġed iting
comp are
plement ation
ĠF lying
Ġsee ks
18 53
ĠPar ad
15 6
ĠS ullivan
cor r
Ġb ike
Ġ: :
associ ated
Ġvolunte er
ĠCapit ol
V ir
Ġg aming
d ynamics
ab c
ieg e
ĠIn stitution
Ġdef ended
Ġbr illiant
ĠW als
ĠSt rong
14 6
Init ial
ra h
Ġlux ury
Ġwe igh
og an
Ġd ish
Ġmorph isms
O l
Ġp ist
pt ons
Ġselect ing
Ġmetall ic
ĠD ictionary
Ġturbul ent
Produ ct
Q ual
Ġth rew
Ġcro ps
Ġgather ing
Ġre nder
ĠManu el
14 8
Ġiniti atives
Ġver ification
Ġblock ed
Ġf unny
flu x
b ool
group s
ac ial
ĠCab inet
Ġpresent ing
Ġalt itude
av ia
Ġ ],
ber y
ĠAn a
ĠClass ical
Ġdev ast
l ived
Dan iel
Ñ ĩ
. (
B ad
ĠS par
Mart in
ĠFour th
Ġbe ams
Ġk nee
ĠL E
I EEE
ĠAd ditional
Ġsever ely
al gebras
u ate
sp ot
Ġdesign ation
Ġstrong est
ĠO g
ĠColumb us
Ġb if
Ġc inem
T itle
Ġor n
Ġinc umbent
ĠL az
ĠI sh
ul in
ust ers
L arge
Ġfib ers
m r
Ġp unct
F ont
ĠN P
represent ation
Ġst olen
qu ark
}$ &
.\ ]
Ġdim in
K A
S ett
ithm etic
Ġconf ined
Dev ice
W estern
oy age
Def ine
b rand
ĠCamp us
s ig
Ġun em
Ġdef ender
N orm
ĠE rror
Ġpoly mer
assum ption
="../../../../ ../
Ġ âĢĻ
Ġcatal ogue
ĠD oll
sup set
)$ ;
Ġabund ances
Ġsl aves
ĠVis ual
ĠE ight
ĠMar x
b ers
est rian
ĠIndones ian
ĠDav ies
res ource
Ġcont raction
i ol
20 5
arc sec
Î ¹
Ġdiv isor
ĠInn ovation
M aster
ll er
ĠF an
ot yp
Ġch ip
Ġflow er
tra ce
Ġt ram
Ġle ak
c v
ad ows
umber land
h ou
Ġh ack
ap a
rosc opic
ĠSh adow
Hen ry
Ġf r
In v
He ight
ĠG and
Ġsub stance
ĠOak land
n is
ur bs
erv ation
Comm unes
Ġresign ation
Ġprede cessor
h p
ĠGard ens
ĠHop kins
t racks
y t
Ġev olve
Me V
Through out
ĠAm endment
un credited
oc c
Ġman ages
ĠM ull
Ġinvert ible
elect ric
Ġsc re
Ġeditor ial
ĠV II
ĠPer th
I J
ĠC e
od ium
ĠK i
Ġ })
che wan
W he
Ġl obby
H uman
Ġup grade
al in
ĠWild life
Ġlist ings
ĠMarc us
L ead
ĠEm ma
hook rightarrow
Ġflex ibility
Ġconstit ute
er k
ov ic
Ġ }(
na issance
Ġcirc ulation
ath i
Ġenter prise
ĠHamb urg
Ad ditional
ĠNap ole
s ame
Ġem peror
zy me
the ir
Ġen orm
Ġext inct
C lick
Ġin jective
pl ant
ĠHer ald
ĠPaul o
Ġfilter ing
oy le
ĠB ened
to o
. ][]{
ĠP and
Ġbl ank
U k
You ng
Ph ot
14 9
., ][]{
H ouse
be ck
man uel
m us
qu ote
Sim ilar
be k
Ġun anim
Ġvis cos
ĠNiger ian
algorithm ic
H aving
Ġmer ge
th us
Ġcomm ands
Ġpat ches
N etwork
Ġdesign ers
Ġdest ro
Ġvacc ination
ere k
ĠShe ffield
ffic iency
ĠThrough out
Ġachie vement
ĠGr ass
@{ }}
ab we
Ġimplement ing
ose velt
ĠA j
Ġfl our
Ġhuman ity
Ġmidfield er
Ġpit cher
at em
Ġpres um
no align
ĠF olk
un ivers
ĠProtest ant
own er
play ing
Ġdraw s
Ġestim ating
iff e
ĠScot ia
trans ition
reg ation
Ġl oud
ĠN g
ĠSom erset
_{\ {
s it
che z
isc opal
Ġb racket
abet es
ine es
Ent ry
in ternal
ĠPet e
cal ar
Ġdef ects
N one
ced es
ĠBl og
Ġimp ression
Ġgu ided
z el
ath a
Ġload ing
C rit
Ø ±
++ )
vi o
f ollow
Ġt orsion
ĠD j
cur ities
as ta
Ġtrav elling
ĠJ ur
Ġstreng ths
ĠS ED
Ġback ward
Ġacknowled ged
ul se
P ac
R ugby
Ġb acteria
Ġdepict s
ific ant
Ġwar rant
ĠKer ala
ĠT D
if iable
ark er
Ġhead er
Ġdemon stration
ĠD eg
air y
AS E
i ov
ĠFran co
Ġexecut ives
Ġcapt ures
ĠSecond ary
R o
ĠC B
ĠF ix
Ġv in
Ġep ic
rosso ver
Ġr am
Ġhonor ary
Ä Ļ
Ù ħ
Ġfl ags
con nection
Ġoscill ation
Ġcomp lementary
produ ced
Ġcontact s
ph ones
ĠOut standing
) _\
Ġslow er
ĠHar per
un ar
equival ent
Ġv ort
c ity
D u
Prov ider
g auge
ĠK om
R en
ounc ing
Ġspeak s
$ ~\
mult ip
M id
Ġsh ar
Ġcontinu ation
S pr
ĠLeg isl
26 0
ĠO ber
ov ina
ĠDes ert
heim er
over rightarrow
ĠL ar
C B
Ġinfin itely
Ġa pert
Ġspread ing
ed i
C ache
Ġdown stream
Ġt ier
ars er
ĠL akes
Ġn ights
Ġgrad es
Ġl ag
P et
r ators
spect or
B ern
S oviet
Å Ļ
Ġsomew here
Ġgrate ful
F ictional
ĠBulg arian
Ġnovel ist
Ġred und
ĠM is
f p
Ġuniqu eness
Ġdo zen
ĠR ice
Ġcomb ines
Ġbene ath
Ġescap ed
Ġtreat ments
ĠVlad imir
AS H
in ar
Ġcur riculum
Ġsequ ential
Lou is
ĠEv ents
Ġcall back
P RE
}{ -
ĠTh an
Ġgain ing
Inter face
Ġtest im
ĠC ec
Ġne phe
Ġ[ -
open hagen
Ġsl ice
ad vant
Ġch apters
ĠM ail
Ġtriang les
Th ird
Ġphot ometry
Ġcogn itive
ĠAd S
H o
Ġfaith ful
imb abwe
Ġque ue
song writer
Ġpat ri
Ġche ap
OR D
Ġanten na
p ublished
Ġag gressive
Ġs its
ĠBro s
Ġtransl ate
Ġin complete
Ġd ying
Ġcancell ation
, ...
ĠSus sex
X Y
Ġseem ingly
Ġartifact s
W ashington
ĠS aw
flu id
M atch
Ġauthor ized
Ġwavel engths
Ġw ore
rack ets
trans form
Ġd ancing
16 7
ing ers
Ġsaf ely
ph on
Ġinf ections
per m
Ġcount ed
J on
ĠO wen
d dot
2 15
ĠEx hibition
% ),
ĠN om
l c
Ġcov ariant
n ai
ĠĠĠĠĠĠ ĠĊ
ĠJama ica
3 30
Ġsc andal
Ġspec ification
)) ^
Ġv it
ĠSh ould
Ġwrit ings
Ser ver
Ġle ver
H ot
ĠWil helm
elect ron
necess ary
L iter
B ol
#### ####
ĠE cuador
ĠR ules
Ġautom ated
Ġpione er
Ġs overe
ur istic
ĠChem ical
F ind
atin um
Ġcan al
ĠTun is
A ud
m art
Ġsophistic ated
ĠJul ian
Transport ation
' +
> ,
\% ,
gener ation
Ġinvest ments
Ġdebut s
Ġplace ment
Wind ow
Ġmes on
W alk
C NN
Ġche ss
Ġpair wise
V S
Ġb ell
ĠB io
Ġ ðŁ
che t
Ġmodul o
ĠCrim inal
Ù Ĩ
ib a
G er
Ġunder graduate
ĠW inn
ĠK arn
Ġwild life
ĠAct ress
App lication
S to
ĠT all
ĠR achel
Th read
f b
v anish
ĠAmb assador
anc ers
Ġintegr ity
ĠP rague
ĠEncycl opedia
Ġlab elled
V ector
Ġins pect
Ġant is
ĠCor on
ĠPlay Station
marg in
}\ )
f d
S eg
Ġinv ersion
ĠCre ative
S ha
in aries
it an
). \
ĠTy ler
Ġpar abolic
Ġd rain
Ġstat istic
)\ |_{
Ġmet ropolitan
Ġout line
Ġrefer ee
s r
she et
Ġw ars
Ġeth n
Cor ollary
ĠStock holm
Ġmort ality
Ġadv ances
Ġdissip ation
Ġdec oder
ĠM W
ĠHit ler
ĠS ales
ĠAn im
Ġsubmar ine
Ġret reat
im m
B rown
ĠP owell
Ġal umin
Ġdimension less
o ided
Ġminim izing
tw itter
Ġadm issible
an ch
Ġlegisl ature
Ġroll ing
L ow
Ġmem oir
Ġsuperv ision
Ġf atal
orthe astern
im an
Ġf isher
Ġdemand ing
oc o
ĠM B
Can ada
18 5
Ġs id
ĠEll is
Ġlov es
ĠLore n
s ided
re ach
Ġpredict s
ĠPalest ine
F s
Writ ers
Ġachie vements
ĠAng els
en i
emph is
18 46
Ġkill er
pro gram
ĠDec ision
;\;\ ;\;\
Ġarchitect ures
Ġas h
ve ction
Ġsim ulate
m iddle
ĠS ul
ĠSe lect
Ġmass less
less ly
Ġque en
ĠByz antine
Ġn ose
ĠGener ation
k al
à ´
Ġif f
Ġreform s
Ġsatell ites
ĠHind i
Pos ition
Ar gent
Ġh ub
i ago
ĠInd ies
ĠH arm
Ġto kens
Ġp ink
Col umb
Ġsport ing
ow ards
ĠMoroc co
d etails
Ġd ressed
ĠEx amples
Ġtri ps
l ated
Ġdes per
Ġcur ved
O s
ĠB od
i q
b ys
Ġgra ve
g ender
w y
L ab
) )}
ing o
ps frag
ĠDev on
A z
ĠMer it
Ġconduct ivity
Ġanal ogue
at ta
ĠP om
ĠN u
Ġown s
20 2
ĠLeg ion
S up
Ġide als
ĠNott ingham
ĠT E
m ot
p b
H ouses
ĠVol unte
ĠBry an
Ġv end
ph ib
Ġagre ements
Ġcirc uits
Ġbe ars
ĠW ikipedia
Ġflo ating
Ġkn ot
Ġtransl ations
Ġprevent ed
Ġline up
Ġt enth
Ġexplain ing
T s
H u
f red
Ġlo ose
Ġdisestabl ishments
Ġback ed
lev ard
}= -\
ĠAndrew s
ĠN intendo
ev olution
Ġrem ix
Ġhas n
ĠProgram me
ĠInd igenous
, $$
ĠCon tact
out ing
up iter
ĠS weet
un ting
Ġob j
ĠGrand e
Ġfif ty
}: \
ch air
Ġen larg
Ð ·
l ene
ĠN as
Ġlater al
ĠH ass
Ġz eros
Ġconsp iracy
rest rial
Ġan onymous
Ġb ills
Ġspectrosc opic
ĠRh odes
ant om
ĠM BA
Public ations
ĠBaron et
erv ing
Ġeng aging
Ġbe aring
Ġgu itars
Ġpoll ution
Ġt ips
the ore
à¤ ¾
h ist
ĠA part
ĠS qu
ĠHe aven
ĠCroat ian
ĠM N
k el
Ġd ictionary
ĠFig ures
C ore
m ans
ole v
ĠB row
ĠD as
H op
ĠDou g
ant o
ero id
Ġrob ots
Ġmiss ile
Ġincred ible
ĠB ene
IS E
ĠGu itar
Ġrenew ed
ĠS creen
Ġfunction ality
ĠPhys ical
| }\
Disc ussion
d ens
t ry
}} -\
oc ur
() ->
ca pt
Ġbatt alion
V AL
Ġ> =
Ġmon astery
ae v
Ï ģ
ĠCour se
14 1
ah l
Ġlift ed
= [
Ġrele asing
In s
Ġr uler
ĠMal ay
Ġl ady
ĠC ann
contin uous
Ġup set
ĠMig uel
s pl
Ag ain
ĠRe form
Reg ular
ĠOt to
Ġsal ary
S ep
he ng
Ġfrag ments
Ġneighborhood s
k ip
l it
ĠD ifferent
ry ption
Ġnot ations
Ġmist ake
s b
Sche dule
T ER
Ġproceed ings
T er
ĠExper ience
ĠH ir
ĠGe off
by ter
Ġaccess ed
ĠW W
Ġsett le
f itting
ĠJac ques
Ġstud ios
Ġfra ctions
P ublished
F IG
Ġav oided
found ed
F D
K M
ĠIndian apolis
Ġresearc her
ĠN L
pos al
Com ment
ĠL iv
Ġin ev
con e
int rodu
ĠA ur
g age
ĠEngine ers
Fe ature
aver age
Ġviscos ity
ĠR ush
Ġmin eral
Ġen roll
G reek
Ġare na
g it
Ġm ature
Ġlif estyle
Ġbr ut
Con nect
Ġs ung
Ġd ys
S ar
C hen
Ġs lic
Å Ľ
f ramework
F low
ĠPear l
Ġcollabor ated
or ic
Ġun ified
U rl
}^{ *
ĠE ye
ĠL ok
ĠN ine
ĠCh oice
hab ited
ĠG ol
ĠRo osevelt
ĠRes ource
\ @
Ġpush ing
}$ \\
Ġdem anded
os lov
ocol ate
Th ough
ĠReview s
ĠT iger
Ġdevelop s
o fficial
15 8
Car l
Ġdescend ants
ĠS ustain
Ġperman ently
impl ies
p ref
Ġk iss
plac ian
ĠA ub
em ail
18 37
ĠHe ights
Ġtum or
ron es
ĠInt el
av i
ook ie
Ġ }_{
Ġprob abilistic
Ġathlet ic
Ġstrugg ling
ĠDur ham
ĠSu ccess
Ġreconst ruct
ĠRe id
ĠC MB
ĠV ision
ĠIn surance
ĠMc L
16 6
ĠFran z
ĠEmer gency
uis ine
ĠConfeder ate
et ed
ĠSher iff
stan bul
ĠCommunic ation
dot ted
Ġsw ing
ĠIll ust
c ock
ed ges
d ark
ĠH i
ĠCom ment
Ġaddition ally
bas ic
Ġfor ty
ĠN urs
ĠMethod s
Ġment ions
Ð ¹
load ed
ĠE T
Ġhierarch ical
ĠF ul
Ġprotect ing
I reland
Ġ Ã©
Ġhop ed
on so
ĠD oc
cont rolled
y i
Ġb icy
B road
ĠL ands
R N
Ġhar ass
15 7
de cor
Ġexcit ations
'' $
Ġren owned
20 8
io x
17 6
ang ered
5 50
Ġp ipe
Ġd reams
ĠB L
Ġpreserv ation
Ġserv ers
ĠA ires
Ġvers e
prot otype
Ġsec ular
ac cept
Ġh o
whe el
arch ive
Ġiter ative
Ġi Phone
ĠRevolution ary
bat im
Pr ivate
ĠR ut
ĠEnter prise
}} ;
Ġp ub
Ġde lete
ĠJohann es
Ġcon ferences
let te
Ġball ot
Ġdom inate
Ġsurviv ors
as ive
Ġgeneral ize
Ġst uck
Ġsubstr ate
Ġnumber ed
Ġnation wide
ra its
ĠPan ama
ĠB anks
ams ung
ĠDun can
ĠX X
Ġion ization
ple ments
Ġan ger
ĠA chie
ĠLet ter
Ġt weet
D ir
am as
ĠT yp
ĠJ unction
Ġqual ification
bur st
Ġun e
ĠPo etry
ign ment
Ġ[ [
Ġep it
Ġref ined
ĠSp ot
Ġax es
ct x
Ġremember ed
ĠRet rieved
el in
Ġut ter
ĠB rid
}: =\
Ġpre vention
import ant
____ ____
~~ ~
J P
Ġle pton
ĠSh in
Ġexec ute
ĠL ak
Ġtext ure
[ $
ĠR andom
it ance
00 3
ĠSh ield
Ġanaly zing
abul ary
E nergy
Ġcl ause
14 2
17 2
ra k
RO M
Ġpregn ancy
ass er
ynam ical
Un incorporated
ent ropy
ĠO z
ĠMan ila
Ġfavor able
Ġsc ar
Ġinv alid
- )
p al
Ġdem ocratic
ĠI v
av ailable
Ġany way
ĠAdvent ure
Ġtrans ient
ĠĠĠĠĠĠĠĠĠĠĠĠĠĠĠĠ ĠĠĠĠĠĠĠĠĠĠĠĠ
Ġcompris ed
rape ut
ott i
Ġpolar ized
Ġres umed
ĠL ik
m ount
ĠBir th
Ġad i
ĠMal ta
Ġdissol ved
any on
Ġadv ised
ĠU ntil
18 45
iz ontal
ad joint
)} ]
ĠR L
il ian
Ġfound ers
ĠW id
Ġexp ense
Ġb out
ĠM ead
}), \
ĠRiemann ian
ĠMan it
ĠF actory
ĠG ren
ĠBr ussels
ĠW H
Al tern
â Ħ
Ġbre eding
ĠAdvis ory
A h
ĠCol in
p ie
y ang
Ġb achelor
ĠR A
Ġbarri ers
C ities
sc apes
Ġmyster ious
es a
R F
Ġhe li
paren cy
18 41
Ġdivor ce
ast ed
pm od
Ġdepart ed
17 9
Ġy esterday
ĠWe ather
Ġmaxim ize
Ġcumul ative
n ut
Ġp unk
Ġterm inus
Ġrele vance
Ch ris
ĠOrig inally
Ġbomb ing
M ic
ĠB G
ke es
Ġem pire
18 42
ĠCon test
Ġf ru
an z
symmet ry
Pro cess
ĠIraq i
ĠEngine er
av ian
Ġsm oke
ĠMark eting
Ġsail ed
18 39
ĠCy prus
er ver
ress ions
ĠG Hz
ad al
intend ent
ĠK em
ĠIm pro
ĠDisc overy
Ġloc ked
L ag
Ġshel ter
ĠL ay
Sm all
ĠP D
ĠJ ets
em ia
Ġkilomet ers
P DF
at ile
ĠT ru
ĠC openhagen
app er
Ġdisapp eared
v ary
Ġf ires
mon ton
24 5
Ġjournal ism
Ġsimilar ities
the o
ĠP apers
Supp ort
Ġw ishes
ĠM ob
ed e
Ġterm inology
Ġemer ge
Ġstat istically
ĠOr lando
Ġjud gment
ĠPak istani
ugg ing
. \,
T aking
Ġaddress ing
ĠBr as
Ġwarn ed
Ġcat aly
Ġr ises
ĠP it
ĠG ent
ull ah
M Hz
ĠH ousing
Ġincorpor ating
Ġprevent ing
im pro
ĠAb b
Ġpass ive
stit u
A mb
Ġfurn iture
ĠSaskat chewan
Ġconc aten
ĠA A
kins on
Ġbeat en
inc ar
ĠM ang
Ġr ifle
ĠI gn
Ġres cal
Ser ial
ash ire
}) }{\
Ġevery day
AT H
15 4
Ġdepos its
Ch ief
ad ier
itect ure
Ġathlet ics
ab is
Th anks
Ġsem igroup
ĠG ov
small er
ĠIm port
Ġacceler ated
| $.
ne ut
Ġcivil ians
Ġsurve illance
ĠH ubble
ĠK lein
ĠCh ase
Ġhard ly
Ġdies el
I mp
ĠPol l
erv ed
Ġform ats
ĠD ob
O H
r ific
Ġprem ium
Ġsur f
Ġlegend ary
ĠInt roduction
ĠBos nia
ĠM iles
ther mal
Ġgu ards
Ġspat ially
Ġstay ing
Ġ$ ^
Ġgen uine
Ġrect angular
M u
Ġf ame
Ġfarm s
spect rum
Ġpropag ator
ĠBan ach
n ucle
Ġcor ps
Swed ish
le z
? :
r v
Ġs addle
Ġl ob
de bug
Ġlin king
Ġfle e
ess ment
og o
Ġre op
ĠTr uth
Ġsens ing
Ġd Ã©
scal ar
Ġperform ers
ĠS uff
ĠHe at
}-- \
15 9
Ġconstitu encies
B attle
fer m
18 35
Ġtra iler
Ġpit ched
J ean
ten eg
Ġreleg ated
Ġp sychiat
id ays
Ġbenef icial
So ft
ĠInit ially
t ons
ĠPrinc eton
Ġste pped
P ress
Ġgradu ation
Ġfeed ing
Ġrel ates
a ired
Ġpian ist
part icular
Ġas ymmetric
ĠC av
16 2
ĠCorn wall
Ġf iscal
){ $
ex istence
Ġlock down
Ġfix ing
ĠSw ift
ĠSch warz
ac er
ĠAssoci ate
Mod ern
Ġrecip ients
X T
Ġ\ %
is ory
15 3
Ġapproach ing
K h
Ġh alt
Ġpri ests
que z
Ġop acity
ĠNe umann
ĠF antasy
Ġacadem y
Equ ation
Ġnom inal
ĠF lem
6 50
)) )
Ġsp ite
an chor
Ġworks hop
ĠMethod ist
Ġf o
d m
Ġred es
Ch annel
Ġcho ir
ĠBa iley
21 1
M ountain
P ay
ĠU RL
^* _{
Ġhot els
Ġem otions
En ter
Ġamb assador
Ġp ond
pt s
vers al
Con struction
Child ren
ĠÐ ¿
Ġdesign ing
T ex
16 9
emb ourg
Ġp ap
Ġincre ment
Ġc ens
ar in
Ġprocess or
Ġins u
Rou te
ĠEn s
Ġu int
IM E
Ġpray er
ĠR ule
Ġbary on
al most
L uc
c ats
Ġun incorporated
Ġhypot heses
ĠEvent ually
ibl ical
V V
cre ation
c ia
Ġin clusive
18 12
ins ki
ĠB elf
triang leq
! }
Ġdiscrep ancy
^+ (
15 1
ĠAbd ul
Ġcharg ing
ĠTw enty
Ġpra ise
C lim
Ġgra ins
Ġo w
com pos
Ġtheorem s
ĠWy oming
ch in
Ġpun ishment
re ne
Ġan nex
Ġf ung
Ġreson ant
I ter
US Y
e i
Ġac ute
Ġphil anth
Ã ½
ĠB Y
ĠBrad ley
ĠMaur ice
18 20
om ar
v ir
Ġcont amination
IN D
small matrix
.\ ,\
ĠForm ation
Ġâ ĪĴ
od or
h ref
ĠE t
ĠLet ters
Ġextra ordinary
Ġfore ver
Ġcarri ers
ĠV ern
18 38
ar re
Ġv ow
Ġfer til
P ak
ĠP orter
ae us
Ġsur ge
Ġprec ip
Ġident ifies
Sc ience
Ġm eth
As ian
Ġassess ed
ras er
he ll
enti eth
ett es
on ne
ĠP ink
ag onal
HT ML
ĠH REF
ĠPer iod
c ir
ĠDe cl
Ġrock et
Ġb unch
Ġe gg
Ġcre am
Ġar ithmetic
ne um
ĠPublic ations
Ġp ig
ĠM om
ĠAn imal
ĠDir ichlet
M ike
cl ick
ĠPop ular
math ord
Ġimportant ly
F K
ĠLind a
Ġpredict ive
ĠP T
be at
Ġstri kes
ĠW arriors
Ex amples
F oot
ĠRef s
c amp
ĠO rt
Ġbare ly
ĠRe ference
Ġpack ages
dec ay
ĠT rad
Ġconsult ant
Ġch lor
es ar
c yl
to ken
ĠC opyright
m ons
Ġfre ight
Ġl ar
Ġterror ist
L es
ĠHard y
Ġin ad
sec urity
ĠRichard son
=" -
Ġinv ented
ĠS V
Ġkill s
ĠInit ial
oca ust
or um
% ;
co e
Ġk pc
Ġrefer endum
Ġoptim ize
Ġc f
per formance
rid or
Ġelim ination
ma ps
Ġrecon c
j ee
( _
m ind
he v
ĠV ers
aw i
ma jor
ĠD in
mark et
el ong
ĠDivis iÃ³n
Ġimp ressed
Ġsome how
ĠPl ate
. }}
^* $.
ĠWest minster
ĠRe ich
Ġconst rain
ĠAcadem ic
! ,
ĠIn side
ij a
N AS
ĠK ind
Ġwhe els
18 44
t rain
ĠIs le
Ġs s
on ial
3 75
Ġpro xy
Ġemploy ing
Ġcontext s
m ology
omorphism s
' }{
Ġmorph ology
ol ute
ĠR NA
Ġarchitect s
W atch
Ġs ulf
Ġv ig
ĠArch ae
Ġsubt le
atter y
Dem ocratic
Ġadvert is
sh a
Ġanalog y
Ġcreat or
ĠGi ov
Ġrecru ited
C ategory
Ġc ouncill
taint y
Ġpath way
ĠF o
Ġneighbour ing
ĠC rist
ct uary
ĠSch r
pol it
ĠDomin ican
ibl ings
' _{\
MA X
ÅĤ aw
Ġanisot ropy
u pe
Ġsu ite
T y
Ġto y
Ġsup erm
oy a
Ġprior i
ĠG em
Ġm a
ĠG O
Pro gram
ĠEll i
R oad
s al
ĠRe lease
en v
Ġener get
ch ief
Ġcont ours
ĠCub an
23 5
Ġmot if
Tax onomy
Ġs iege
W ood
Ġrel atives
act ers
P tr
Ġelectron ics
ĠN ormal
ĠT ampa
Ġst ones
Ġch ore
Ġnob le
z ens
Ġpr ince
other wise
Ġlo ans
oun s
Ġbox ing
Ġcomplaint s
Ġag enda
F ort
J oe
est e
ĠNad u
app rop
ĠV a
App endix
tz mann
- ,
ĠCurrent ly
es se
sh i
Ġarchae ological
{ }\
Ġcul min
ob tained
yn man
Te ch
Ġnon negative
inf all
Ġre ass
Pro t
Ġoscill ator
] :
form ula
Ġvocal ist
ad j
Ġinstit ute
ĠBu enos
ĠE R
Ġsimultane ous
all a
ĠN etworks
ĠA ges
ol ics
Ġmark ing
og on
Ġb er
18 36
ĠDe velop
app endix
Ġmin us
ĠB P
ĠH ack
ĠMe eting
ĠT itle
| ,
Ġp iv
Ġamb ient
Mean while
c ot
r n
Ġhypers ur
eg ovina
Ġple asure
Ġ æ
[ ]{
Ġsuccess ion
condition s
F ac
22 4
ĠDist inguished
ĠSalv ador
b g
sq cup
Ġcab in
Ġinc idence
ĠI g
ĠAr ctic
Ġc rop
Polit icians
Ġfl ank
hand le
Ġanticip ated
Ġg a
ub le
ĠM uk
ĠN otes
Ġdifferent iable
ĠB O
pl ots
Ġany more
Ġcor ollary
AR D
ĠEd mund
ĠConc ert
Ġm ood
Ġro ok
Ġmet als
Ġdram atically
Ġadm ission
ĠYugoslav ia
ĠSh op
v irtual
ĠMar in
ĠU tt
be cca
] );
m any
Ġtransport ed
ĠKenn eth
Ġaer ial
ĠP E
Ġmet abol
Ġgra phe
ĠH ait
ter bury
Ġd amping
Ġmodul us
um my
Ġemer gence
res olved
Ġdro pping
Config uration
Ġen act
ĠV irtual
sup ers
m itting
Sche ma
w ere
Ġindivid ually
fe ature
Ġcolon ies
ĠT ick
ĠBer ry
bas is
ĠM ale
Ġb otan
Ġmagnet ization
Ġdiscipl ine
S ession
00 4
Ġcollabor ative
Ġr amp
ĠHe ath
ĠDr ug
Ġrevolution ary
y g
Ġv iral
Ġdisc overs
Ġn ons
Ġcomm enced
Ġaffili ate
Ġ( âĢľ
em er
Ġdef in
Ġnick name
Ġs ou
Ġpuls es
j j
ĠV il
Ġhum or
Polit ics
ĠX box
g ary
st ars
ĠSe pt
depend ence
Ġreb uild
ĠJer emy
ch ant
ĠDev il
do es
ĠH aven
Ġn od
V ictor
ĠH us
ne apolis
ĠT es
ĠT ales
Ġres iding
M sg
c ache
ĠH ess
ĠNob el
Ġoutper forms
ĠLeaders hip
ĠLegisl ature
Ġra pe
s chool
Ġint rig
ubb ard
Q U
dev ice
charg ed
Ġevent ual
Ġgirl friend
Ġinduct ed
Ġassemb led
Ġspectrosc opy
Spec ies
Ġencourag ing
t p
aj i
ential s
ĠArm enia
ĠL R
ĠB order
) }}{
Ġcon current
S om
Ġspec imens
ĠSur v
sc ore
And rew
A x
âĢ ĭ
ract ing
ĠQu art
ĠK re
am oto
math ring
ĠJam ie
c orn
Ġdiscuss es
g ard
t v
st en
ĠJ ob
Ed itor
ĠLou ise
Ġtrigger ed
ĠPrinc ipal
ig i
Ġ( #
Off set
ĠProv incial
IT E
ĠA ri
ĠL odge
Ġfar mer
le en
Ġph ones
Ġw ound
ĠK yle
Eng ine
Ġtarget ing
Ġdiagn osed
N orthern
Id ent
n om
Ġtouchdown s
Ġdepend ency
Ġob ey
Ġsub script
V an
ĠJ ake
Ġdirect ory
Ġt rem
Ġl unch
Ġdes irable
F ellow
er i
E ducational
Ġbad ly
ĠW end
spe aking
is le
à ®
16 3
Ġpur ple
Ġle x
.. ."
ĠMed ic
ch anging
ys h
ĠFin als
Ġstre ak
ĠLithuan ia
Ġcapt uring
L iber
ĠS ym
ta king
ke V
Ġmidfield ers
Ġnot ions
Ġo mitted
ar is
Ġstrugg led
Ġtox ic
l um
Ġb ats
=\ ,
ĠA ch
Ġreson ances
P ool
col m
un ov
ĠUr ugu
Ġg amb
ĠK aren
Ġsp anned
Ġfluct uation
Ġal pha
$\ %
ipl inary
16 00
I mm
ĠBor is
Ġprest igious
ĠN uclear
Ġsumm ation
P ers
out ube
fra id
}\ |\
Ġvict ories
p ent
Ġr idge
Ġh ab
Val id
ĠSim pson
ĠDub ai
rel ativistic
ĠAdvent ures
we ets
at omic
ess ing
ĠApp lied
Phys Rev
ian e
Ġ! ==
Par ams
Ġb ij
ĠClin ical
M arg
Ġde alt
Ġelabor ate
ac iÃ³n
Orig inal
aid en
ĠPal m
Ġenorm ous
N I
e ur
ĠSpe aker
Ġbrig ade
n ick
Ġch ances
Ġindic ation
sche me
lic t
Ġtow ers
F ace
ĠH ull
P red
Ġfe ud
ĠC lear
Ġprop ri
abl o
Ġc otton
P V
Ġan ch
TY PE
u int
Ġrec ycl
p se
c opy
Ġunder went
Ġdeliver ing
n umer
Ġcler gy
22 2
Pl ayer
M G
itro gen
, âĢĻ
pe z
Ġbreak down
An alysis
ĠViet namese
ĠSt rat
ĠDi pl
Ġn um
Ġtri o
enn ium
Ob serv
CL A
ĠCh ad
Ġell ip
Ã¨ s
Ġcru ise
Ġdial ect
am on
ĠP H
36 5
De velopment
Ġb rane
omet own
t m
Ġrep ublic
Ġliter acy
ĠGram my
se lected
Micro soft
ell ite
Ġd ock
Ġpar as
rit z
Ġlimit ation
D iff
Ġreflect ing
ordin ates
ĠCom plete
c ourse
Ġconvers ations
ĠMc Donald
n ob
ĠA way
ĠAg ent
Ġcook ing
Ġre bounds
Ġwar fare
Ġgovern ance
ĠIn g
ag ain
G od
Ġr h
m ask
ĠAl pha
g overnment
N atural
Ġap olog
Ġsur pass
ĠGib son
The ir
Con tainer
ĠBet ter
ĠSol omon
Ġf i
Ġdist ortion
Ġadv isor
ili ation
Ġman s
Ġl ig
Ġref inement
ox y
Ġrep ly
Ġsw ord
Ġcan on
ip ur
B ul
Ġjud icial
Ġd ubbed
Ġmer c
Ġm ath
itt ers
ĠAlbum s
Ġcomplic ations
Ġbound ing
Ġsepar able
Ġreason ably
Ġtre ating
ĠManu fact
Q CD
Ġtoler ance
Char acter
ĠArm strong
ĠSant iago
M ember
r ors
ĠSum mit
Ġrev ival
Ġtheat rical
Ġw are
ĠC yr
ĠNS W
vari able
rif ice
? )
ĠB ever
em ption
Ġbuild er
Ġsuggest ions
Ġem itted
C ert
G W
utt le
Wind ows
ĠH od
S ound
Ġst iff
Ġcombinator ial
Ġviol ations
im uth
Ġlegit imate
j in
ĠCommer cial
Ġworks hops
Col lection
Ġb esides
) ]{
18 43
ĠDe b
coupl ing
Ġax ial
not ation
ĠB rain
Ġvi able
Ġdraw ings
Ġpost pon
sing ular
M AP
N F
inter action
Ġrend ered
âĦ ¢
@ {\
ĠT ennis
Ġwid ow
E V
ab ases
}\ |_{
Ġen zyme
Ġmicrosc opic
pol lo
Ġnephe w
Ġelder ly
ret ch
ugg ed
ut able
ĠSh ore
g rand
ĠBou levard
}$ };
Ġcoll apsed
T L
k le
ĠE volution
St age
Ġacknowled ges
Ġless er
ĠH off
Ġcle ared
Ġodd s
en ius
Cal ifornia
ĠG rad
ess es
Ġcal ib
Ġic onic
K ind
Ġexp enses
^* )
fam ilies
24 7
ĠInvest ment
ĠS pi
Ġby pass
ĠE V
ex amples
s z
v p
ian i
[ [
}}( {\
Ġbin aries
Ġj umps
Ġb acks
ĠEthiop ia
Rem ark
ĠC SS
ĠN H
Ġdis par
ĠWrit ers
Ġland mark
Ġanxi ety
ron ts
Ġnation ally
Pol ish
ĠZ imbabwe
ĠBi ography
ĠS K
ĠHe in
Ġmer gers
ĠT oo
ir ie
Ġcon form
ĠZ ag
^* $,
Ġcy ber
Ġsqu ee
integ ral
s ix
ĠN ATO
Ġreg ret
ĠAll an
Ġvis ibility
ĠC anyon
ĠSl av
Ġn ic
y on
Ġs i
Ġshe af
ĠGra duate
Ġtalk ed
ĠS hen
ĠD ow
Ġl as
S V
Ġpl ug
boot strap
ĠB ran
ĠR overs
ash tra
ĠBas ic
us ers
20 3
ĠWh ich
Ġnovel ists
ĠLes lie
) *
ĠM old
us hes
pred ict
Ġpurs uit
ĠW ool
ĠG Ã¶
ĠG ross
, +
Ġb acter
ab stract
Ġpup ils
am ous
ĠP f
Ġansw ered
Ġc ere
Ġsubdiv ision
L os
Ġdom inates
ĠPract ice
Ġavoid ing
Ġimprison ed
Ù Ī
enz ie
ĠHend erson
x s
Ġast roph
1 200
Ġsail ing
Ġemploy er
R ank
Ġprefer ences
Ġvacc inated
ĠLanc ashire
ĠGl ou
ĠT ir
un ion
G erm
ĠM ink
as an
by e
Ġaccording ly
Ġwitness es
18 2
ĠG raph
Ġr ic
18 32
pr inc
A sh
inter est
ĠRoberts on
n st
Ġcomed ian
o que
Ġal arm
Ġhelic opter
ut ils
Ġ" [
ĠK urt
Ġper ipher
ĠGl obe
$ ]
ĠCl aud
ĠB il
ĠZ ar
az ar
g iving
^+ _
Ġshell s
tabular newline
P resent
ly mouth
vanish ing
un ique
Ġst ays
ev ents
Ġn aming
Ġupgrad ed
c ry
s emi
Ã© g
Ġst y
Ġquant ify
Ġpa ired
Ġse ized
Ġk ings
Ġacc red
ĠHerz egovina
sc ience
16 4
with in
Ġtrans c
ĠRail ways
ĠR ib
ĠU FC
rest rict
C G
ĠIss ue
Ġinf lam
ĠExcell ence
App ro
Ġdoll ar
nd ez
ĠMor rison
ed itor
S ta
om ical
od ia
ag ent
Ġf riction
rac es
ĠV eh
er als
ĠApp lication
if ax
_+ $
yl an
Ġkinem atic
ĠP iano
Brazil ian
Ġc ant
|\ ,
Ġtour ists
var sigma
ah ler
P ad
m orph
ĠDise ase
Ġsculpt or
h ra
hen ce
Ġqu ote
ĠA U
ring e
ĠOr d
B rien
ĠM otion
ĠF emale
ĠEx ception
T a
17 8
ĠMay be
ĠS ig
}} }(
)}\ \
g ae
ier i
ount ers
ĠTan z
Ġsp acing
ott ing
en es
ĠEX P
L AS
E t
it ory
uls ive
ĠW ant
Ġcha os
ack ed
Ġmur ders
ĠR i
Ġemploy ers
ĠA FC
Ġoccas ional
ron ics
ĠGa uss
Ġsu ited
á ¸
Ge org
Con nection
Ġflood ing
Ġl ighter
St an
Ġr ivals
l p
ĠH ash
Ġc avalry
Ġcasual ties
2 12
e ah
h urst
ĠBi ology
Ġprot agonist
Im port
he alth
ĠB ullet
Ġ& -
Ġra p
Ġsat uration
ĠGene va
Ġw age
) }^{
{ -\
ĠH il
Ġsculpt ures
ĠK ab
Ġlocomot ive
Ġdiscontin ued
: "
U LT
ĠS ale
ĠCal gary
ri ans
ĠAd rian
Â Ń
ĠK end
Ġun cover
G overn
Ġsub mission
Ġhe ir
habilit ation
ĠÂ ±
ra de
Ġcommun ist
Ġtend ency
inter pret
iv ially
C s
Param eters
k ernel
Ġtack les
ĠPatri ots
17 7
Ġpurs ued
Ġpresc ribed
r ar
=" _
Ġra pper
w ould
Ġscre ens
ĠK ang
ĠPl atform
ĠTrans it
ĠZ ero
Ġ' '
Ġp ion
Ġang ry
Ġhon ored
ĠInit iative
Ġdeter ior
A st
t xt
ĠW ick
unt ed
commut ative
ĠPro gress
Ġround ed
Ġgraphe ne
g ang
ĠM TV
Ġdec oding
in cre
Ġmand atory
ĠManit oba
ĠG ur
inter face
Ġle ase
Ġphilos opher
Republic an
Ġ$( {\
| <
17 4
ins ert
Ġt uned
ĠRe cently
ast ing
Ġsub stitution
Ġpro gen
Ġinf ect
ĠCa uc
ap ur
at ible
check mark
prim ary
j ournal
&& &&
oot s
ĠChem istry
'' '
B ody
In formation
ĠCurt is
Ġad verse
ĠMod els
ĠCel tic
ĠOther s
Ġfro zen
k ok
Ġutil izing
Ġ" \
En vironment
Leg acy
ĠP irates
ĠR iv
21 4
ĠShort ly
u ating
C ost
ĠGl enn
r ina
Ġaltern ating
3 25
ĠM aterials
Ġpers istent
ĠP erm
= |
Ġrelax ed
ĠS FR
oper ative
Ġab olished
Ġcosm ology
sub script
P arent
ĠR s
Ġestim ators
ĠCond ition
Ġinsu fficient
ĠSt okes
im i
Ġrank ings
ĠSt yle
20 4
ĠM emphis
ĠCon st
Ġtor ped
( :
8 50
ĠD etails
ĠKing ston
al go
Pro file
ĠFern ando
17 1
Ġanaly tically
Ġmain land
en able
Ġed it
Ġtem ples
l ore
prop ag
ĠH ern
Ġpros per
d h
app lication
Ar thur
Ġsur jective
] ,\
Ġter rain
st orm
)\, ,
byter ian
N um
c ue
Ġver b
Ġaugment ed
Ġmer ging
Ġtra ff
Ġreveal ing
ĠAud io
Athlet es
E ll
Em pty
Ġarg uing
r ational
w i
Ġbur den
Ġnever theless
comb ination
ĠF eder
Ġb rackets
Ġannih ilation
Ġjust ified
ĠPubl ished
ĠC V
Ġen force
ag ne
ĠFl ash
var iance
ĠGer ald
ĠB oolean
Ġfin ale
amm ad
a uc
Ġover ride
ine q
ĠÃ ĸ
I ES
ell ation
ort ium
t ml
Ġtrunc ated
Ġflo ors
ogn ition
Ġparticip ant
! )
Ġd ining
Ġh ung
... ]
en za
ail ure
ĠUS S
Ġinstitution al
. }.
}=\ {
Ġpe cul
Ġshe ep
bi ased
Ġgrand son
ĠStrateg y
Ġt ong
ric ia
Util s
Ġrac ism
ĠAssoci ated
Ġbif urc
ĠL if
Ġbroadcast s
m agnetic
ĠĠĠĠĠĠĠĠĠĠĠĠĠĠĠĠ ĠĠĠĠĠĠĠĠĠĠ
16 1
ĠA post
Ġsem antics
ĠBur ton
in ia
ĠC ay
Ġvo iced
b ind
ĠH appy
ĠPop ulation
N M
ĠYan kees
vi Äĩ
c as
ut z
Ġle verage
P F
ĠAgric ultural
ant le
c ke
ĠC ool
ĠH ab
Al gorithm
Ġev olving
ĠSol id
t u
ĠA bs
Ġreven ge
zh ang
3 40
Ġcap ita
Ġra id
ĠAr senal
Ġfood s
ho o
fill ed
Ġr ul
cl ock
)^{ -\
Ġprison er
ut ations
Act ive
P b
Ġdepend encies
U ST
iling ual
roll ing
Ġwal let
Ġplanet ary
e conom
ic iency
Ġinsert ed
Ġtre as
ĠWag ner
ĠC ord
ur an
ĠQ uality
ms g
Y S
ĠAb original
G ET
ed ar
Ġdegener acy
B it
Ġra infall
ĠFif th
ed it
im edia
wh ose
ĠLuc y
Ġtra ils
Ġmut ation
Ġf antastic
ĠExp edition
Pol y
ĠT rent
ident ified
ud ed
the m
Ġtor que
ere f
uk u
ric a
000 1
Ġenc ounters
ug a
F lo
Ġinter im
Mod ule
hel p
Ġdisband ed
ĠSt arting
conver gence
lu x
Ġhom eless
oc cup
Ġinter faces
il ion
am l
ĠCh in
Ġtechn ological
pl oys
ĠY O
ĠCon cer
ern ame
ri o
ĠFilip ino
D ouble
ĠR ather
ho ff
Ġan satz
Ġsub scription
Ġprompt ed
Ġc of
v ac
w ald
ĠTechn ologies
20 7
ĠAnd ers
g irl
Ġcontract ed
Ġconcept ual
ĠS ag
* ,
Ġab ortion
' ))
' ^
Ġint elligent
ĠCard inal
Ġnurs ing
Ġfermion ic
D etails
Ġinterview ed
Ġim plements
ien ne
He ader
et erm
Ġshort est
ig ator
ĠT ropical
Ġtens ors
w u
run ning
ĠM aking
ĠS ons
Ġaut umn
Ġtru cks
m ith
on ts
i ary
18 4
Ġoverwhel ming
ĠL L
ĠBrown ian
Ġpl aus
Ġunderta ken
d k
Ġex empl
Ġdon ations
b h
Ġ( [
sw itch
De ep
Ġapprec iate
U B
ft en
ĠP rec
Ġapert ure
ar am
Ġd ump
ĠNew man
ĠCarol ine
Ġper cept
Ġtransmit ter
ĠAr g
Ġpar se
ar ians
Ġj e
Ġpres cription
Ġparad igm
M arc
Ġg ods
ĠM IT
Ġst up
d ia
en ic
Val ues
Ġple ased
d ou
Ġw is
ĠHop f
ĠL t
Ġby tes
18 7
ĠCom ments
pre ced
){ $\
Ġexclud e
ĠWhe ther
Ġsac red
P ier
Ġre written
E th
ĠFl ag
Ġcycl ing
Ġexpl ores
}\ {
trans fer
ĠTri ple
Ġwithdraw al
ĠBel grade
G H
ĠB CE
un al
rom atic
Â »
Ġadminist rator
Ġposit ively
Ġaccompany ing
Cle arly
D oc
z ier
at um
Ġhero es
Ġw eren
config uration
Ġconvent ions
Ġsymbol ic
ĠG othic
Ġc rossover
Ġat tained
Ġconscious ness
Ġblock chain
hard t
est amp
]{ $
Ġsched uling
Ġl ith
Ġrepl ied
om al
ĠAss ert
ĠRic ci
M atrix
Ġt ar
ma ils
Ġyield ing
Ï Ĥ
St re
\ ).
Ġimp lying
Ġthrow ing
] =\
ll ll
az y
)$ :
ra f
Ġs ink
Ġs iblings
ĠAh mad
Ġd ancer
ĠML B
Ġdiff use
ra pper
ĠChe ss
deg enerate
U pon
or p
ĠRes ponse
Ġfre estyle
ĠC I
20 9
On line
al p
C itations
ĠJ i
ĠBoe ing
ĠC ategory
Ġpe ers
Ġc uisine
Ġ$ %
equ als
Int eg
ill ary
ĠF ay
Ġminim ization
ĠGu ards
ĠInter ior
ĠCont ent
observ ed
Ġmo ist
ĠHT ML
amb a
ram ento
product ive
c ustom
ou rable
)\ ;
Ġstrugg les
Ġnucle on
_* (
ĠD um
Ġgame play
ices ter
ĠContin ental
as ympt
Ġmand ate
Ġlect ures
* )
ĠIn spector
ĠLyn n
Ġwitness ed
J eff
an mar
Ġm uon
Ġby te
ĠFrank furt
Ġb ones
M eta
_* $
ĠG B
Ġqu ar
Ġc ig
ĠP ine
Ġtal ented
ris k
Ġtribut ary
N i
}^{ -\
ĠCor p
Ġce iling
Ġspl its
ag le
Ġres pir
be am
Ġsav ings
ĠL av
Ġcryst all
ĠCoal ition
AR Y
Ġp c
)+ (
establ ished
)} +
Ġexpon ents
ĠMem ory
ĠL il
asc ar
Ġcust ody
is ure
Ġcl ay
ĠCar roll
ĠL ives
Ġw ors
Ġsupp ress
ĠF ashion
$ ^{+
bre ve
Ġleg ally
ym es
Ġadi abatic
Ġe uro
Ġrespons ibilities
ograph ies
ĠE RA
ibr ations
Ġle an
Ġmyth ology
Ġrevers ed
Ġweak ness
ĠD S
Ġfil ename
Sett ings
ra ising
ĠSta kes
Î µ
Ġco ached
ĠK oh
Ġfin ishes
Ġbipart ite
C u
N OT
Ġhad ronic
I sl
T HE
}{ .
ĠZ amb
A li
17 3
L ower
sp here
Ġh anging
os ion
pl anes
ĠTr in
pat tern
row ave
communic ations
Ġafford able
Int eger
ĠMerc ury
ĠTre k
ĠPresident ial
ĠElli ott
z yn
Per formance
Ġm all
10 24
Ġpre y
Ġserv ant
et z
ĠCry stal
Ġtorn ado
Ġrun time
ä º
ĠHy per
/ {\
O ption
om ers
ĠP am
Writ er
ĠDirect ors
Ġel ong
ram es
Ġbi ased
ĠG rim
Over all
ĠC risis
ĠMy anmar
at aka
al an
ĠAmeric as
Ġd oses
Ġreg ards
Ġincl ination
ĠCh uck
ĠSh ir
ĠSp in
Ġra bb
up ta
Ġb ug
ĠL ip
Ġn urse
Ġbatter ies
ed uc
ĠB ound
ĠHa us
op hers
With out
K en
L U
ĠSur rey
olog ic
ĠSant os
ĠEv angel
Ġurg ed
Ġl attices
Ġpro c
ĠId ent
Ġm eter
Ġon wards
fra red
Ġresid ue
Ġback up
Ġaccept ing
Ġviol ated
ĠSc i
v ae
Ġf ier
he y
ĠR isk
ĠV A
Ġspace craft
Ġarg s
Ġh oney
ab b
Ġcl arity
ĠSol utions
er cis
Ġqu it
arg ument
Ġopp osing
}) \\
Ġrel uct
is se
ĠRe ports
ĠW A
Ġcoord ination
Ġbow l
D IR
ĠE k
Ġret iring
Ġgl obe
Ġ umb
Ġhousehold er
S pect
ĠGu ang
Ġexcept ions
n at
ope z
tikz cd
I l
ĠL S
Ġaltern atives
Ġconcent rate
ĠW D
ĠBel le
C ov
re ma
Ġnom inee
ĠColl abor
Ġsh ifting
rac ing
ol an
grad ient
re leased
29 0
mod ern
styles heet
ĠD L
Ġapp ar
ĠEug ene
ĠJo el
k now
P ut
ĠB oh
ĠH ood
St ore
27 5
la us
edd y
Ch icago
a very
R h
\% .
â Ĥ¬
ĠR as
scal ing
Ġdecl aration
Ġvalid ate
Ġmac ro
dimens ion
ĠB un
Ġ\ ,\,
ch oice
Ġm ere
Ġcon qu
ĠJ upiter
Ġse al
Ġ= &
if les
ant is
ĠBur ke
W I
ĠK illing
ĠT ry
V ec
Ġsup rem
Ġsimplic ial
] +
Ï ĥ
ĠR he
alo is
Ġme al
Ġprem ises
din and
Ġgal actic
Te V
3 80
as aki
ly m
ĠK ad
}^{ {\
che ss
Ġrandom ized
n h
Ġthe or
ĠFight ing
18 34
\% )
ĠPy thon
s ed
ra z
ĠMin neapolis
Ġdis advant
_* \
ĠGib bs
> .
Ġc ube
Ġtact ics
stad t
bal ance
on ormal
Ġtrans cription
ill ation
Ġro d
Ġloc us
M ath
friend ly
lim sup
Ġaut obi
ĠK aw
ĠHe y
ju ana
ĠP ere
AR E
Ġbos onic
Ġmonot onic
Ġclean ing
em on
ĠRol ling
sc ious
ĠPl aza
emb les
ĠTest ament
33 3
Ù Ĭ
COL OR
ĠFer gus
Ġf Ã¼r
Ġde comp
20 6
Ġatt en
Ġsur render
ĠA ve
CD M
Ġinvest ed
ĠNot re
Ġg ri
Ġparam etric
ĠCan terbury
r ases
Ġret ro
99 9
ĠJes se
Ġsk ip
ĠHur ricane
ĠQu antum
rac ed
Ġvirt ue
Ġdemonstr ating
ĠSte phan
)= -
ĠD awn
ast ro
Ġunve iled
g p
m ile
Ġdam ages
Ġexceed s
Ġl uck
Music ians
ĠMichel le
ĠVi ol
ĠBarn es
P rem
ĠM illion
Ġp ent
st eps
ĠBas in
F alse
Base ball
v id
18 3
Ġtrans fers
Ġb ore
ĠRe in
$ _\
J ones
ĠC os
Ġh ometown
ĠIndust ries
Ġpriv ately
' >
ĠN othing
Ġcitizens hip
n Ã©e
Ġn g
}} |
ĠLe ad
Ġpropag anda
Ġre he
Ġsl avery
position s
Ġaver ages
ĠPot ter
Ġman ually
C ath
ĠGu atem
ĠLiter ary
Re cent
Ġaccount ed
s il
re q
Ġf ights
Ġpack ets
Re cently
ĠK ot
li o
="../../../../ ../../
ĠD esc
Ġmet adata
ĠI stanbul
Pop ulation
quarter ed
am ar
Ġst ocks
D a
b inding
Ġlack ing
c ool
ann ah
È Ľ
st roke
B egin
exp ansion
ĠCr us
K er
Ġ{ (
sh own
n othing
pl aced
Ġch orus
Ġst yl
Ġwarm ing
dor ff
}} },
Q A
=\ !
ighbor hood
l ap
Ġquestion ed
ĠJess ica
Ġ ...,
Ġres il
a ine
ta ine
-\ !
Ġlast ing
ĠS ometimes
ĠTh r
p seud
ĠC ash
ĠR ica
Ex pl
ar ag
ĠSt op
18 33
ĠOs lo
Ġto b
T urn
b rane
E F
ee k
Ġcare ers
Ġp adding
× Ļ
ip eg
Ġcomp ress
Ġ> >
Ġp el
ew ard
Comb ining
k pc
ĠSand ers
Ġillustr ations
ĠSch midt
Ġbur ial
( |\
ĠB rent
in line
Ġcongress ional
ĠD B
ĠCh arg
Ġund efined
rot ate
Ġhal os
ĠElect ronic
Ġo wing
Ġrig orous
Ġthir teen
ĠKazakh stan
Ġprogress ion
ĠEmm y
ĠJul ie
ĠBelf ast
ĠSlov enia
big cap
Men u
ĠEm ploy
ĠP arent
pe x
ĠO st
ERR OR
J ournal
ĠPer haps
Ġfin anc
Ġreal m
F il
Ġgen res
b ons
rel ative
w on
Ġport al
ĠG A
ĠRaid ers
ĠMin i
approxim ation
K B
ros se
Ġaccommod ation
Ġpubl ishers
Ġrit ual
ĠV III
ĠLog an
online cite
ĠS EC
Ġshe ets
Ġhon ours
Ġbuild s
Ġcomp ly
en ko
ĠMc N
p ole
ĠH app
Ġabbre vi
ĠSer ver
ĠTour ism
Ġfilt ration
18 6
Ġcert ification
), $
Ġprof its
ĠC i
Com mer
ĠEd monton
Ġmore over
Ġx ml
th ouse
Ġdivid ing
ĠRe y
Ġl ane
ver batim
Ġinsect s
} ''
Ġd ra
Sp in
ĠEll en
Ġclass ify
R am
if a
Ġfre ed
Ġbu ff
Ġim posing
Ġparam s
Ã °
Ġex otic
Ab stract
Ġtestim ony
ercis es
col span
]{ @{}
Bel g
Ġwant ing
ĠSil va
cf c
SS M
al one
Ġveget ation
Ġw reck
it Ã©
ĠF on
ĠTreas ury
ĠChief s
ogg le
f orth
ĠN atal
ma ch
Ġveter ans
ĠBit coin
le ys
min o
dis k
Ġpract ically
Ġconst ructions
w rap
Ġf erry
clud e
Ġcr ashed
cent ric
Ġgrand mother
ĠI O
Ġinter pre
Ġcha otic
Ġdegrad ation
ĠA id
ĠB ac
oy e
ĠW ave
Ġfemin ist
Ġdis ability
ĠAnd rea
Im pl
ĠBrand on
ĠLux embourg
ĠCom bat
ers hip
ĠInst rum
Ġa fraid
18 15
Clim ate
Ġdiagn ostic
ĠStaff ord
P ot
oc om
Ġle ather
Zh ang
Ġro uting
ced ure
= &
ĠT roy
Ġfl ip
Ġout going
role um
F uture
hy p
isen berg
4 80
ĠE W
Pr inc
Ġdipl omat
t ens
at io
Ġ& =\
ĠM eyer
ĠL ines
Ġdo zens
unic ipal
Ġcorpor ation
ĠLud wig
orne ys
Pol icy
ĠBened ict
Â Ģ
les h
ely n
ĠAp ache
doc s
Ġsurn ames
ĠDe al
ch ard
ho f
Ġsix teen
Ġpossess es
ĠCub s
Ste ve
ĠBurn s
Ġacc idents
ĠRe cent
Ġpredict ing
Ġmultiplic ative
Ġaggreg ation
ĠD ong
amp ire
Ġcrit ically
S elf
Ġspont aneous
ou ter
d etail
Ġfilter ed
Ġcreat ures
X iv
Ġin ject
Ġen closed
Ġdetect ing
Ġg odd
ĠSh im
Ġun fold
ĠHead quarters
ĠEston ia
S G
ĠLy on
iel sen
\, (
ĠN acional
ĠE L
With in
ĠW on
$\ {
UT C
M att
d B
rell a
at ility
)}{ (
ĠPsych ology
Cl oud
ĠTel escope
Hung arian
P relim
con serv
ĠX I
lass ical
3 70
ĠCompan ies
and ez
ĠK iss
Ġtub es
f u
Ġsustain ability
ĠAntar ctic
ĠChar ter
ĠU til
w ild
ĠC ul
Ġphys icians
Acknowledg ements
th ood
Ġfol ks
b v
Con tact
F a
ov i
ur ally
ĠMon teneg
New ton
ĠMer cedes
ĠRel igion
an ium
ĠEconom y
ĠCard iff
Ġoverl apping
ĠHel p
Ġf u
oper ation
ĠBright on
f o
Ġgen ome
,\ ;
Ġtimes cale
Exp ression
Ġm oll
Ġhold er
-- >
Ġclass room
Hand le
ins k
Ġfa una
Ġn utrition
Ġuns igned
Ġp orn
B us
Ġout lets
Ġwid ths
L ock
ba um
Ġh iding
Ġl on
ĠMy stery
ĠCont ract
ĠGeorg ian
he nd
ĠE D
Ġqual ities
ĠUtt ar
Ġg y
ĠMar ri
ĠK um
and i
rac use
iat ric
C ulture
preced ented
23 4
C zech
ĠT ell
add ress
Ġrebell ion
ĠB ot
ud er
ĠDen ote
au f
ĠAn at
sh ine
ow itz
i ating
el ike
ĠC avalry
| +
Ġperform er
ne z
ĠRem ix
ÂĢ Â
n ar
> :
Ġt u
Ġpres idency
Ġbeet le
ĠG ael
ac ier
Ġreg ulated
Ġsent iment
ĠR az
leg al
ĠCzech oslov
ĠS B
n od
ĠF W
Ġsuperconduct ing
Ġtransl ates
d w
n ational
A u
Ġcomp ares
ĠGiov anni
Ġste ering
Ġsol ves
ION S
ĠSh are
Ġpresum ably
M ake
ĠC IA
ĠH iro
Ġcor pus
Ġgram mar
âĢ¦ .
t f
ĠF DA
Ġcan vas
ĠReg ulations
Ġo s
CO VID
Que en
ext ension
b k
an an
ĠC apt
Ġbl ame
Ġmach inery
ĠM ales
ĠD iana
iz za
Ad S
Ġlaunch ing
der ived
23 1
ĠNew port
{ #
histor ic
Ġvin yl
ram id
ĠVari ous
ĠR M
Ġmark er
t el
order ed
In c
le af
land ers
Ġent angled
Ġafter math
Ġhand ful
Ġresemb les
spect ral
olith ic
Ġfor um
uz zy
il ogy
ĠB ronze
Ġres olutions
ĠDem ocracy
Ġess ays
Ġorgan isms
Ġcompat ibility
Ġfl are
Ġdec oupl
ĠHug o
ĠAlban ia
Ġin scription
Ġst aged
Ġre min
Ã¡ r
com ed
Ġint ensive
ĠJohn s
sw orth
Ġpick ing
C art
ĠO K
Ġperm its
ĠEm irates
O F
V en
ĠE g
Ġsm oking
Ġmut ually
ĠPubl ishers
Ġgener als
Ġprob able
ĠM am
Ġsing let
Ġfour teen
Ġf ut
ĠParalymp ics
ĠF raser
Ġfound ations
ĠCath olics
Ð ¿
ĠP lymouth
ib an
ĠKe ep
ĠS Ne
)}\ ,
K a
00 7
Ġsp ans
l ord
Ġmanufact ure
ov al
acc ount
d ar
Ġrend ering
Ġru ins
Ġblock ing
Ġto pped
ad ors
Ġsub spaces
^ -\
Ġimport ed
omet ime
Ġplant ed
ĠP ale
ĠLe op
Ġmonot one
Ġst air
ĠF est
Ġre wards
any a
)} +\
ĠL ah
E U
)= -\
ĠBuddh ism
rop a
Ä ħ
nt hesis
ĠHol ocaust
Ġd ash
ak is
R ule
B asketball
N ormal
ĠLaw s
Ġtrib al
ĠMax im
Ġmon ster
ge ometric
Ġprom ises
50 1
ast ically
ura i
ĠA pollo
ĠB end
Ġsem ic
ĠLiber ation
perturb ative
Ġsepar ating
e o
Ġsol ver
Ġspons or
ĠGriff in
Ġbe ings
ir ate
ĠG av
Ġhom osex
Nov els
ĠAnn ie
Ġp owder
ph or
on de
ĠR egin
Ġenc ode
Germ any
ĠL it
Ġopen ly
Ġmotor cycle
17 75
Ġfib re
Ġimprison ment
ĠS cal
a q
im ath
ĠH I
ĠV it
ĠSer ie
ĠG ates
ID E
r ub
}$. }
Ġexperi encing
ici ary
} <\
Nor wegian
Ġw orm
ĠH MS
ele ments
Ġassign ments
de en
vi ol
Ġeduc ator
l is
ĠSlov akia
d iamond
ĠN W
& #
ĠH els
ĠD w
Ep isode
ĠM ing
Ġ ibn
26 4
TT P
B esides
ĠG mina
min imum
Ġannoun ces
)\, .
Ġcomm ute
Ġconfirm s
Ġcomp ass
Art icles
Ġhar sh
Ġst er
Ġgoal keeper
res on
Ġdat abases
Ġaband on
design ated
Ġprohib ited
% ).
ĠR ash
en ary
Ġforb idden
math rel
ĠF ut
Ġdead line
ĠC areer
gl ass
Ġp upp
int age
ĠT error
label ed
in ous
ĠBas il
ĠL enn
DE s
Ġpric ing
Ġorigin ating
" ))
an ian
Ġcal m
Ä Ľ
I ran
ĠB j
Ġpl a
ĠSe oul
ra ges
artifact Id
print s
ĠW aters
ut i
Ġval uation
ĠĠĠĠĠĠĠĠĠĠĠĠĠĠĠĠ ĠĠĠĠĠĠĠĠĠĠĠĠĠ
}^{ [
Ġhaz ard
act ivity
ĠLa placian
Ġsax ophone
set up
Ġtrad emark
leg ate
Ġbott le
Ġsl ide
\ `
g ins
C as
m or
}^ -
Ġhad ron
ĠDra ke
ĠCl aire
Ġp ocket
Desc ript
N H
Ġloc als
Ġl oses
od rom
Ġmark ers
Ġwrest ler
P AR
ĠP Ã©
M useum
Ġst om
Ġtrac ed
ne ys
da ugh
ĠRich ards
ĠGarc ia
ĠWes ley
ma re
h d
ob ic
ident ial
ĠField s
Ġplate au
ĠSh i
Ã± o
ĠMar co
ĠHar bour
Ġstation ed
T i
Ġbeh ave
Ġthrough put
tr ig
y en
Ġhe aling
ip zig
Ġsuggest ion
ant es
Ġacc us
ĠL ed
ĠLand au
Ġem ploys
Ġg i
Ġqu arters
cy cles
at op
ri pp
}) +\
Ġdi abetes
An im
Ġwithd rawn
ĠF ur
ĠBel ow
im ming
,- .
Ġcomputation ally
Ad ditionally
Ġrecurs ive
Ġanisot ropic
ĠÂ «
Ġch at
Ġpost ing
N AME
Ġd ans
I con
Ġund ers
Ġcooper ative
ĠColon ial
ĠSing er
ĠD iet
ogen esis
We ight
}}{ {\
ĠBrown s
ĠSebast ian
Ġimplement ations
ĠBar b
head ed
u ons
ĠCh al
{- .
ĠRoche ster
Ġf are
Ġsh oes
Ġexpans ions
es ch
Ġl ensing
Ġsmooth ing
in vest
ign er
Qu est
Ġsm oot
f x
ad ia
Ġbankrupt cy
ĠMal colm
ĠHy dro
clud ed
Ġcelebr ity
Ġprof ound
m and
Ġcra zy
Ġge ographical
ic ates
I ce
Ġb ab
ĠM ick
Ġcardinal ity
ford shire
ĠP u
ĠAnn iversary
Ġs our
^{- (
Car thy
Ġtob acco
Ġflow ing
ract ive
D id
Ġn erve
Ġexcess ive
ĠS it
Ġdo i
ĠC lean
Ġst ems
ĠW R
Ġpersonal ities
B and
j ah
Ġter rible
s an
t bl
enc il
T I
rit ies
Ġexpress ing
es pecially
Ġm ism
Ġle ts
ip eline
ĠT arget
Ġsk et
IG HT
C opyright
os ity
ĠBud apest
il is
Ġca ution
ĠUS D
\ ),
el ic
Ġke en
ĠD ew
ĠA ircraft
Part icip
Ġsupers ymmetric
qu bit
ĠR out
Ġdis rupt
R os
30 1
Ġswim mers
W N
ĠSuper ior
ĠG ul
ĠProduct s
æ ľ
ĠSte fan
ĠMar tha
ĠMe h
ĠV ij
18 31
Sc ient
ĠTh ink
Ġsk ull
Ġex ile
Ġreb els
rog ate
ĠNik ol
Ġcast ing
Ġj av
Ġperm utations
hig her
is ive
Ġm aj
Ġin tact
Ġac ids
isp here
Ġpenal ties
Ġindic ators
Ġh olog
Ġseason al
ĠPres byterian
ĠGre ene
by te
Ġfail ures
Ġirre levant
Ġmanuscript s
Ġrecur rent
Ġbij ection
ĠM atter
Ġg ifts
Ġl ymph
ĠL on
othe rapy
r ants
ĠPo incar
U ntil
it ches
Dep artment
ĠEvery thing
can onical
Ġph armac
Ġbreak fast
h ouses
Re ader
") );
F B
IG N
ĠZ en
eqn o
ĠMon roe
ce y
Ġsp ark
Ġdeb ris
ĠC W
const rained
Ġaz imuth
Ġi OS
Ġproceed ed
Ġm ud
Ġf ears
Ġex changes
ighth ouse
Ġc ater
ograph s
Ġnerv ous
Ġadvoc acy
Ġpecul iar
con tains
de lete
Ġp ending
Ġre de
Ġal beit
ĠWals h
osp ace
=" ">
G I
. ",
K T
ĠI X
Ġwra pped
C ong
dist rict
Ġdepict ing
Pac ific
ĠPan el
Ġsystem atically
ĠM AR
Ġincorpor ates
Ġform ulate
rop olis
Ġf ran
An th
Port ug
Stand ard
W ild
Ġ$ +
ĠS isters
com mer
Ġinv oke
Ġbre ed
analy tic
all i
## #
uff le
over ed
Ġexplan ations
ĠP ione
} &=&
wart z
O wn
30 3
ĠSouth west
N ick
Ġper f
ĠPoint s
ĠF alse
H ttp
ĠE aster
Ġdis hes
rad io
Ġspecific ations
Ġh i
30 5
Ġevery body
ĠEd gar
Ġhur ricane
ĠR ole
ide a
Ġrot ate
ly de
Ġlect ure
ĠLanc aster
ĠW ire
v ation
Ġb ot
Ġapp rent
Ġfun ctors
Ġlat ency
Ġeth ics
Ġin quiry
ĠP ars
}= {\
Ġh ire
ĠHay es
A bs
poss ibly
C ustom
ĠK ane
Bur ials
ĠA sc
ro ve
p ark
ch urch
Ġl over
list ing
ĠSw itch
ĠV iv
c ies
ĠMar ion
Ġ\ ;\;
rt imes
Ġchrom os
Ġinstruct or
cont roller
r p
Ġ( {
ĠE N
AM P
Ġearn ings
Ġout s
Ġsupp orter
Ġam mun
to String
und ers
Ġsp ike
ak o
Ġfac ial
ĠU z
Ġ+ +
22 6
Re p
ĠRos a
et imes
ĠCh ancellor
Sec urity
}} %
Ġpresent er
R oy
hold s
ĠDar win
Ġclimb ing
le ad
id uc
66 66
r Vert
ĠP ain
ĠMur der
as se
Ġpoly t
Econom y
ĠR GB
av g
Ġart ic
Ġcondens ate
M i
Ù İ
Ġlif ting
Ġdivor ced
Y M
hed ron
Ġheav ier
Ġprev ents
Ġorgan ize
sm outh
ĠB in
Ġsp otted
}_{ +
ato es
Ġg ig
18 28
ĠWrit er
ĠD erek
C ycl
Ġsurprising ly
ĠV or
Ġtra its
Ġcust oms
ag ascar
rol ogy
Exper imental
Cond ition
Ġtrust ed
ĠAtt ack
g lu
et itive
ad h
ĠH ert
Ġab st
\, $\
p adding
ĠJosh ua
z t
Ġd z
ĠL omb
ĠAlban ian
C ultural
Ġeigen vectors
Ġorth onormal
ĠAchie vement
A H
ce ive
Ġdisc s
ĠN HS
ĠCorn ell
Ġo mit
ew orks
ĠBrad ford
Ġdom inance
ĠCraw ford
ĠJ et
vis ible
Ġn u
h istory
are l
}} ^{-
18 25
Ġsuscept ibility
ĠD ock
Un ion
cest ershire
iz ational
ĠTe h
comm ission
IF AR
ot ics
ĠToy ota
ke eping
)} -
ic ism
ĠR R
board s
Ġv oyage
Ġro oted
Un like
Ġstat s
F ollow
Ġen umer
Ġstory line
ĠHun ting
S und
ĠT M
Ġend ings
ĠKn ox
ĠFl oyd
um en
ĠU C
Ġsupers ymmetry
Ġcou rage
ĠDep ression
Ġl aps
ĠQ atar
Ġref uses
imod al
ĠBund es
oh an
30 4
ĠS ara
we i
ch apter
ĠGu jar
Ġthreshold s
ĠR G
Tem plate
Ġcancel ed
or ers
Ġshould n
co le
Ġscr atch
ĠConstant in
ĠChar acter
| $,
ĠU P
Ġjust ify
andid ates
Inst ead
Ġpractition ers
Ġre pro
b undle
ĠWin ners
od i
ĠLe vi
ST AR
Ġ }^{
ill i
25 9
ĠInter state
l ar
Ġdifferent iation
ĠAtl as
Ġpress ures
W H
ĠWind sor
prob ability
ĠPro gressive
ĠWe i
eg ie
Ġ* )
St arting
Ġqual itatively
f oo
Ġhol idays
Ġt ags
ĠM ell
}: =
40 1
Ġindex ed
Ġn itrogen
Ã© m
Ġsen ators
Ġdece ased
ĠTh ank
Ġsp heres
Ġboard ing
ĠJ ourney
li pped
Ġtra ged
pher d
22 7
id ian
Ġcar ved
Fellow s
3 10
ĠRe becca
Ġchar m
Ġabund ant
ol er
(\ {
ĠW WE
Re port
Ġg ly
Ġmanip ulation
ĠPrest on
ĠD I
Ex pr
min imal
Ġra ises
Ġammun ition
B ell
Ġend point
Ġprotest ers
function al
B or
ĠM ilton
Ġrespect ed
Ġar rays
ĠHero es
ic ion
Ġinv ention
pol ynom
ĠV ale
ĠSch w
P od
atic an
Dig ital
Ġcomp ressed
Ġac claimed
Ġb eds
roph ic
ul atory
Ġhe ated
ĠChe ng
ĠB T
ĠE ducational
d ated
ĠB har
em ann
udd y
Ġtunnel ing
ĠS amsung
Ġretrie val
00 6
text subscript
Ġpolit ically
ĠUlt imate
m eter
3 45
ol ver
k r
C red
Ġg aug
ĠM oses
ĠBul ld
28 8
tem p
Prob lem
Ġspec imen
ĠBra h
Ġkick ed
Ġcongreg ation
og ical
Ø§ ÙĦ
Ġin line
Ġ$( -
Ġant iqu
Ġfore ground
Ġmet eor
}} [
Bas ic
Ġmon uments
Met adata
B J
St ructure
ĠApp eals
S us
ĠK ann
Ġsil ence
Ġdis charge
Pr int
n il
å ¤
Ġpro poses
Ġtrans parency
Con sequently
Histor ic
}{ (\
22 8
Ġcoordin ator
im ag
Al g
Ġwrest lers
Ġtrans cript
ent a
Ġenthus i
al and
Ġeffic acy
Ġjump ing
ord ial
ĠParliament ary
Ñģ Ðº
ĠAlb any
F ire
23 2
ra j
Ġess ence
ĠLuther an
Ġt uple
Ġflag ship
ic ia
vi k
F ive
Ġl ord
Ġpract iced
ĠC ities
2 16
op us
Ph ase
Ġconv ince
graph s
T aylor
c ourt
cl ed
Ġpers pectives
erv es
Dist rict
method s
to ok
Ġf idelity
n odes
rm k
ĠJohn ston
ĠE yes
Ġacadem ics
R ic
Nav Bar
ik er
Ġpass word
ud s
N umerical
Ġst int
vent ional
stit uting
re pe
ĠPart icip
Ġprom otional
A rab
an ol
E G
Ġm arri
Ġinv itation
ĠSte am
Ġbatt ing
Ġrenew able
Ġreprodu ced
ĠChron icle
Ġun ited
Ġsur g
ĠWin ner
od el
Ġterm ed
ĠAd ult
l ooking
ent on
con clusion
ĠQ ing
fore ach
ĠMar ian
ĠGriff ith
os i
Ġsem icon
ĠDay ton
ĠW ings
M unicipal
Ġfin ancing
ĠMid lands
ĠDod gers
Ġmag ical
G rad
ĠÐ ²
Ġcor rupt
\ ;\
Ġcommission er
ip es
Ġre vel
ĠH ours
pol icy
proto buf
pe ak
18 10
â Ĩ
Ġserv ants
ĠĠĠĠĠĠĠĠĠĠĠĠĠĠĠĠĠĠĠĠĠĠĠĠĠĠĠĠĠĠĠĠ ĠĠĠĠĠĠĠ
\ },\
f ried
Ġbom bs
Ġpl ural
ĠStat istical
Ġknock ed
Ġche ese
Ġcomm od
th read
ĠNE AT
}) _
ĠJ SON
ĠCom pos
ut ers
ĠG an
Ġmar sh
Ġassass ination
Ġin habited
ile e
h aul
Ġcorpor ations
ĠCl ose
23 6
Ġrook ie
Ġeth ical
) ||
U pper
m ixed
ott age
group Id
m ation
ĠT ucker
Ġp ension
k j
Ġaccum ulated
ĠAlger ia
ĠE y
ĠD ud
est ock
Jo in
Ġpeace ful
Line ar
C opy
ĠSh annon
Ġport raits
Ad am
F un
Ġun precedented
Ġam endment
ĠFer dinand
y c
ĠD und
li u
Ġeng ra
os o
ĠH ag
cl air
Ġworld s
ĠStand ards
P erm
Ġcho oses
Ed ge
Ġde leted
ap o
Ġgra ce
Ñ ħ
pl ays
Ġimm ers
Ġb ilinear
ta iled
cle an
9 78
ĠAut om
ĠComput ing
Ġcomprom ise
Spr ing
b il
Alex ander
ĠD rew
Ġpr ide
Ġeigen states
ĠBang kok
Stat istics
ĠCon sumer
l ot
ĠEp iscopal
ed ly
Ġm akers
Ġlabel ing
iers hip
ĠH ers
ĠN J
Ġvers a
sm ash
estim ated
ĠWe bb
Ġincred ibly
pl ugin
Ġpath ways
is odes
- |
F N
Aut o
ĠGR B
Ġcondem ned
C ivil
T ests
n ice
com fort
ĠFor bes
Ġ il
Ġrun way
Israel i
Ġdestro ying
est y
leg end
ĠSub sequently
rapeut ic
ĠL STM
sub ject
Ġinfin ites
S on
Ġwe ird
18 14
Ġd well
Ġfin est
Sim ple
approp riate
Ġpostpon ed
D est
ĠB B
Ġemphas ized
ĠH our
Ġdel ivers
St ack
ĠBut ter
ram er
Ġcon figure
ote chn
à ¹
ĠV otes
oul os
m kern
G h
EX T
iver y
cm d
Ġsubject ed
( *
os ition
ĠIn ternal
ĠLyn ch
Ġfulfill ed
over view
ĠCol umn
ĠT ank
Ġdon ation
M AT
B rand
ra pped
Ġdem o
Ġb ump
ĠH ubbard
Ġar cs
ĠMidd les
ĠBre nd
D ar
mat ory
m ust
ĠB ren
}^* $
Ġsac rifice
f ine
K P
se lection
Ġam end
ad os
Ġdo ctrine
arri e
) &=
Ġconsum ed
Ġk g
Ġarch ives
ĠTh ir
rob enius
}\ ]
Ġdetect ive
ĠHal ifax
Ġbroad ly
ĠNapole on
ĠE du
ĠS ed
Ġtet ra
ĠEff ect
ac cur
z on
Ġcontin ent
Ġsignal ing
Ġexplo ited
ĠKrish na
Treat ies
ĠRock y
Ġg ases
exp ression
tect ed
W at
and in
ĠCh andra
ĠArm s
Ġmut ations
Ġcount able
ĠSpeed way
ĠTanz ania
art e
us ually
ĠB rom
ç ļ
Ã¼ ller
L B
ir ling
ĠMahar ashtra
Ġwork place
S ide
ĠBl air
Ind ividual
,\,\ ,\,\
p ure
IM P
n r
Ġpro long
T am
ĠD P
P ic
S outhern
ĠCom pton
Ġend e
int roduction
l vert
Ġinters ects
}{* }{\
w ear
Ġt ap
ĠC airo
× ķ
Ġposition ed
ES CO
ĠCele br
Ġpuls ar
P aint
ĠD ylan
load ing
Ġth roat
Ġse am
ĠKnow ledge
Ġvol untary
re lease
Ġnecess ity
Ġinters ections
Ġc ement
ik k
year s
ĠL uck
ĠStrateg ic
M ock
23 8
âĢĿ )
Ġhead quartered
Ġsk illed
Ġdest inations
}) ]
Ġaest hetic
ĠGre ens
Ð ±
ar ab
Ġcr ust
ĠSac ramento
c ology
g ic
Ġsatisf action
ĠBel t
ru ce
å ı
ia e
Ġadop ting
l Ã©
ĠH P
As ync
Ġmes ons
Ad minist
Ġcat hedral
S hips
ĠW E
Ġrecur ring
ĠN in
ch y
Ġaccident ally
Ġm aker
18 1
ex port
ĠPr ide
ĠDist ribution
Ġteam mate
z an
Ġreport ers
Ġwel comed
Ġs ne
ĠT rial
ĠI SM
E rr
h size
Ġadv ancing
ĠAssum ing
m k
ast ings
Ġobserv ers
Ġb apt
Ġtri um
Ġin jected
18 26
ian ces
Ġconf inement
Ind epend
ĠV id
ĠOcc up
oc aly
Ġag ing
Ġmob il
N ET
ĠAnd rÃ©
Ġsen ator
ĠMar qu
O k
ĠSe ctions
amb o
18 29
Ġ Ñģ
Ġp ine
ok i
Ġpr imal
r vert
if i
Americ a
b oolean
ex ception
26 5
ass ets
Label s
Ġestabl ishes
up les
part ition
d ifferential
Ġex ercises
` .
Ġem power
Ġdeleg ate
S ix
ĠC raft
rob ust
end e
ĠSup erman
Ġcryst als
ĠR um
Ġmans ion
l Vert
Ġen rich
Ġ< =
Ġwork force
Con ver
y ellow
ĠB alk
op rano
Ġcylind rical
Ġv oter
Ġcalcul us
ĠMink owski
Ġv ault
ul k
Ġex clusion
Ġmater nal
ans on
nt on
Ġca us
ĠMaced onia
O x
c ert
{ +
Ġfoc al
ĠJeff rey
Ġrel ativity
Ġconv iction
0 25
Su ccess
Ġde cent
vio let
ast on
Ġbas elines
ĠS tern
ĠS ugar
Ġphil osophical
Ġmind s
ĠHerm itian
ĠO P
Play ing
ev o
Ġd ancers
ta ker
ie ved
Ġdep ths
âĢ ²
| ^{\
ĠG ian
Ġrep airs
Ġint im
ĠS equ
st rain
ĠReg ular
quest ion
ink i
ĠCar p
à¥ į
ass is
) <\
ĠU nd
z c
ĠZ ion
ion ization
uit ively
ĠSab ha
th row
Ġterror ism
f air
ven ile
ign e
i ph
Ġgeomet rical
ĠPal omar
ĠW IT
yl on
section s
ĠUS SR
oc ide
18 21
Ġbusiness people
Ġsc rew
idd ing
N U
ĠCo leman
ĠLeg acy
ĠD ynasty
ne ider
Ġag gress
Ġd os
Ġre lying
Ġsil icon
ĠPant hers
Ġr ush
24 8
Ġsuff ix
ad just
Ġdec iding
A k
Ġf ool
ĠTasman ia
Ġfru its
Tex as
Ġr ider
de composition
Ġbre ach
y x
Ġspr int
2 17
ĠSc out
Ġanaly st
ĠC ould
b age
Ġsur rend
desc ribed
Ġterrit orial
NN s
J y
es que
Ġtheore tically
Ġfe ver
fl ies
R ot
t ier
}} ]
Ġnew er
ĠLa place
Ġdecl are
ĠL ords
() :
Ġamb itious
Ġscreen writer
Ġwor ried
00 8
ĠW ords
ĠL af
ĠE isen
W D
v ie
it he
Ġcon ceived
pi res
Ġpil grim
Ġthe rap
Al t
B BC
Ġsy ll
Ð° Ð½
Ġlect urer
Ġretrie ve
d iam
ain es
vit ational
Ġb arg
Ġcomp elling
_+ (
ĠTit an
block List
Ġwick ets
Ġt a
Ġco h
Ġpo inter
ĠNa ples
j p
u o
ĠMin isters
ĠHol iday
ĠMov ies
Ġappropri ately
b atch
Ġen listed
ray ed
osp heric
Ġtrip let
ĠM Äģ
' })
Ġscal ars
Ġdiscret ization
Ġt err
ass adors
19 1
ĠCl ara
ĠTrib une
ĠAct ive
Ġthread s
ĠCow boys
Ġo re
ĠH M
sc ribe
Ġpack ed
e ither
Ġr ushing
Ġdynam ically
ĠFranÃ§ ois
ĠT ours
Ġperturb ed
t uning
Ġe ject
18 01
ĠR ise
ĠBe a
ĠKarn ataka
ĠC od
ĠLe icester
disc uss
'' (
By te
Ġtom orrow
ĠM au
ans en
Call back
Ġf ingers
t abl
Ġs outheastern
ĠK L
Ġdoub led
M iddle
Ġobst acles
ĠAT P
Method s
rot ron
ĠMalays ian
Ġdispl aced
Ġexclud ing
ĠA CT
22 3
Ġforg otten
Ġc ats
ĠAll ah
ĠWinn ipeg
18 13
ĠL C
te in
)$ \
\| _\
ĠTheorem s
head s
Ġcritic ised
al ore
ĠBeaut y
H i
Ġm s
ĠRec ording
ĠBet ty
Ġsh aft
ĠKash mir
Ġkn ots
att i
Class es
Ġunem ployment
Ġmist akes
Û Į
Ġstar ter
Ġs ab
ĠH oll
Ġinvent ory
ys ics
Ġinter ventions
arm acy
ĠPear son
lem en
Ġind ie
ĠTri p
Ġch icken
o ine
Ġf uck
res pons
ĠEst abl
Ġsl ip
Art s
Ġbas ement
S equ
Ġmission ary
ĠIm ag
Ġd ella
Ã¡ ndez
Ġmamm als
on ce
ploy ed
Î »
ĠFran c
re place
ĠC ort
App lying
ta k
orig in
Ġninet eenth
m ock
Ġvisual ization
anth a
ĠProdu cer
B all
b inary
ĠW rite
Th ank
M as
Ġt ilt
ound ing
A ff
Li u
C orn
at u
ct ica
t k
ex ternal
Ġex ports
In vest
ĠLa ur
Ġpos ed
found land
Ġtra vers
Ġconstit utes
ref n
Ġd ent
Ġb ust
Ġimplicit ly
st retch
ĠI z
- }
Ġdisput es
ĠH ank
op pler
Ġoff line
Ġaccept s
Ġexam ining
6 25
ĠB eg
ĠB erm
}) -\
f bb
bra him
ĠMar cel
Ġload s
ad min
}| $
v d
Ġpost hum
Ġbreak through
Ġt ender
Ġge ographic
/ _
ak k
Ġfilm maker
ĠT X
Ġli ability
Ġrecre ational
ĠBald win
t c
Ġbl ast
f ocus
ĠChe v
ear ly
ĠHon da
yn es
Ġbl ur
set counter
Ġorgan izing
B ank
Ġdr inks
ĠRes Net
Ġapp end
ĠWol ver
l ich
ure n
tt i
ĠMy r
}}$ -
Ġfort une
Ġgar ner
Ġfe at
Ġd iving
ĠTerm s
Ġanomal ies
Ġs el
ĠC ock
ĠM oss
17 90
Ġrub ber
Ġf action
ul ent
Ġca ption
ĠStre am
Ġplaus ible
ĠF resh
) &=&
ch rotron
to ol
Ġsh irt
ĠMil ky
ĠR ac
r put
Ġt iles
SI ON
Columb ia
Ġe y
cl iffe
Ġimpact ed
ĠCy ber
{ }{
Ġl anes
od o
orth y
Ġinitial ization
ĠR B
ĠF ollow
Ġcommit tees
p u
ine z
Ġfair ness
Ġintu ition
Ġhe aven
}) _{\
I refn
Ġup stream
Ġoccup y
acknowled gments
ĠFergus on
R on
Ġsp y
J son
R andom
pon ential
stud y
u ction
p n
ĠVict ory
Ġt ile
Ġlocal ities
Ġcost ume
Ed ward
Ġg rat
ath am
Ġpos es
Ġshow er
ĠMon ument
ĠClif ford
Ġre jection
Ġend angered
Ġminim a
ĠJane iro
å ®
nt hetic
Ġterm inated
E astern
f ony
Ġtra uma
F act
cur ring
Ġd ign
Ġl ucky
ixt y
daugh ter
Ġab normal
ĠC ounsel
se at
Ġspec ially
Sw iss
te au
Ã¤ r
Ġshock ed
ĠRest aur
23 9
Ġdipl om
ĠMad agascar
ĠJen kins
bal anced
ĠTe legraph
sh ots
End emic
Ġapart ments
Ġt ales
ĠAlexand ria
Ġcon ject
Ġde posit
Ġmod elled
ist o
con tact
ĠBra ves
ĠLear n
ot ive
ĠB ug
ĠW er
Ġdirect ing
Ã ®
st a
Ġaccum ulation
Obs erve
st rom
Ġval ence
Ġcompan ions
em por
let cher
ĠAdv ance
min im
Ġb ush
ĠL abel
Ġro pe
Ġgradu ates
J S
Ġce ase
ĠC lement
RE E
Ġfold ed
in creasing
Ġfl att
ĠPre vention
Ġna ive
B rian
ĠSt atus
Ġcontin ental
ĠB le
sm ith
ĠSch ol
Ġdef icit
Ġhigh ways
Ġexpect s
ide al
ĠKenn y
Ġretrie ved
Ġsubsequ ence
Ġremn ants
ĠS ave
Town s
g reat
urg ical
RE S
ĠN LO
Ġinn ocent
Ġadjust ment
os ely
ĠMan or
Ġprotect ive
Ġattack er
Ġpre view
Ġ[ ...]
22 9
Ġarm ies
ubb les
ri ates
Ġident ically
disc ussion
ĠSerge ant
ĠFe ynman
ĠM atrix
Ġred ist
ĠF alk
ĠL iz
ĠGreat est
ĠEv il
Ġimag ery
ax ter
23 7
Ġpers ec
Ġaugment ation
Fl ags
w ara
Ġthe ology
print ed
ri ot
ĠSc ore
ĠB ian
ĠV ick
Ġren ovation
ĠM ile
Ġlong time
ĠN orton
Ġcont ra
âĢ Ĥ
Ġter restrial
18 24
40 4
Im ages
Ġtong ue
ĠCl aude
ĠBrad y
Ġesc ort
Ġtrem end
ul o
ĠA V
Ġres et
ogen ous
Ġcar b
ĠV oc
Ġsh aded
ĠCharl eston
al tern
cor related
H all
Ġfil ament
Ġrid ic
an as
ĠD escription
Ġpol ym
Ġdup lic
ĠA FL
Ġun bounded
af a
+ {
, -\
ĠC lem
Ġ[ (
foot er
Ġa rose
Ġd orm
ĠIs ing
Ã§ a
ass ic
pro port
Ġreal izes
Ġun necessary
V i
ĠMes a
ĠN ode
ateg or
Ġscreen ed
ĠHann ah
' ],
t l
ĠR ican
Hel per
ĠF E
ĠX ML
ĠG rowth
ĠK erry
s ocial
)\ |
ĠLe ipzig
ĠMar itime
Ġcomput es
Ġselect ive
Acknowledg ments
col sep
press ure
Ġmos que
Ġhe ights
Ġadv isory
Ġres emble
Ġest ates
ceed ings
Ġrac ist
Ġdwar fs
ĠAltern ative
oph on
ĠTreat ment
Ġpull ing
ĠH its
ĠF ear
ĠLouis ville
ĠU TC
v ine
haus en
ĠD reams
im ar
ex ports
ah i
Count ry
Ġcong ru
Ġdi ocese
Ġsocial ist
hor se
ĠP all
en ario
urs ion
unn els
Ġeduc ators
Ġrev ision
in verse
Ġd ad
ĠC ult
ĠSpring field
Ġre med
ĠBav aria
18 18
Ġauthent ic
ĠP ool
ĠK ob
Ġcollect or
ĠLithuan ian
y log
ĠY emen
Ġpar ade
Ġhol y
ĠJ ag
Ġ" "
iod iversity
Ġhabit ats
Ġun lock
, [
Ġproduct ivity
Ġlength y
2 21
ĠBo at
Ġle mm
em ission
Ġnetwork ing
Ġlaun ches
bo xt
Ġwh is
Sim on
Ġlic ence
G ar
H ong
ĠK le
ĠTh ames
yl um
$ }.
28 4
ĠQu inn
ĠJul ius
redu ced
ĠD ust
consist ency
Ġcourt esy
ĠGust av
ĠM ining
ren ces
Ġmiss iles
ĠEr nst
ĠAsh ley
Ġadvent ures
Ġp neum
lo o
gener ic
Ġw ages
ĠSat urn
Ġupd ating
Ġkilomet res
d ad
ĠThe odore
Ġdemonstr ations
29 3
Ġbass ist
R od
it ated
ĠR AM
pres erving
T en
et les
Ġan arch
ĠPl at
ĠV acc
valid ation
Ġas pir
ĠChap man
Ġre pository
ĠTe en
ĠBeat les
pl ess
sh an
Ġnames pace
Ġmac roscopic
Ġhe d
ĠSim ple
Ġsp are
Ġconsult ing
Ġmed i
ĠSpec ies
Ġpartnership s
dis crete
ĠHaw ks
Ġtrunc ation
Ġal ike
sh aw
ĠEm il
n k
S ample
b right
ĠCase y
ĠC and
lyn n
ĠThom son
tr uth
Ġgeomet ries
ĠNAS CAR
Mem ory
Ġbelie ving
ĠProt ocol
Ġinvest or
ĠMe asure
Ġ\ }$.
ari at
âĢ¦ ]
CO DE
Ġnob ody
ĠChile an
Ġ Âł
fe ed
Ġher b
Ġdeleg ation
el man
Direct or
Ġremin is
c ategories
ens itive
P ark
am az
24 3
ad ays
Ġ& &\
Ġmilit ia
ĠS ame
ĠBrun o
ĠR V
ĠE ST
Ġrul ers
Den ote
Ġsurg ical
S lov
Ġfav ored
Ġwis dom
uk h
Ġadvers ary
Ġn ortheastern
Ġhistor ies
Vol ume
G i
ĠX V
Ġsur geon
ĠQuest ion
mathb in
ng th
arr ass
'' )
struct ures
link ed
-------------------------------- --------------------------------
}) /
Eng land
R oot
Ġst unning
av our
ĠCon v
Ġla pt
inf inite
ĠPaul i
ĠK ick
work ing
por a
Ġhe ct
ĠH ond
arting ale
Ġproblem atic
Ġp av
Ġoblig ations
ros pective
Ġtr ivially
C irc
ĠI EEE
L im
ĠIn tern
Ġwhere by
Ġpol ls
ari ous
Ġexp end
Ġsp o
ĠF P
ĠF ri
Ġspect acular
ĠConstitution al
Ġfe ather
Ġsac rific
ĠCom parison
h alo
opl an
Ġcommerc ially
Ġequ iv
opter a
Ġins isted
Ġgroup ed
ĠCrit ics
ĠR iley
Ġconfirm ation
p are
Ġcomm utes
ĠInd ividual
ĠBal let
cccc cccc
Ġenerget ic
m atter
pl atform
Ġkn ife
Ġvac ant
ĠDrag ons
ig ating
ĠLe af
play ed
ĠH O
ĠExper imental
dat aset
Ġreven ues
ĠO ption
Ġdistrib ute
re port
al ions
o ise
Ġ\ ;\
Ġg ras
Art icle
Ġpartner ed
Ġadvoc ates
d ong
r gb
Ġprot ons
s sec
Ġsub manifold
23 3
AN G
p ull
Ġmass acre
f ootball
Ġsub algebra
R P
ov sk
Ġbes ide
protect ed
ĠT ate
ĠFel ix
Ġto ile
Ġflow n
4 60
C amb
ĠB attery
ĠWin ston
ĠRh ine
Ġalt ogether
x it
ĠB uc
ĠG lor
S K
Ġa mino
_{ *
ĠN ames
Com plete
Bel ow
Ġtim eline
ĠFre eman
Ġspin or
lik elihood
M ach
ĠP oss
chan ical
Ġswe ep
Ġrival ry
Ġin def
j un
K it
Ġall oc
Ġtrain er
çļ Ħ
Ġdon or
F und
Ġre taining
min ent
Ġcontrib utor
ĠR ough
Ġcont ing
}= (\
ĠAss essment
F ood
Ġc ree
Ġab rupt
Ch art
i ens
Cl ose
Ġscreen play
v b
rang er
aff e
ĠSof ia
Ġh aul
ĠC ritical
ĠSu ite
ion ic
ĠRes cue
the ning
Ġens embles
17 58
}{ |\
Ġs odium
ĠS ach
Ġinform al
Ġord ained
ĠBol tzmann
ĠHonor ary
ĠR ally
ĠG ospel
LO G
Ġepid emic
ĠApp eal
Ġl acks
supp orted
- .
H al
ĠG PS
Ġse iz
ĠProv idence
ĠSher man
Ġgar age
ĠE ra
S cale
le f
B Y
c ous
ĠV all
Y PE
Ġelli ptical
R M
w itz
Field s
0 12
Ġdiv ine
Ġpast or
ĠMoh ammed
ĠH ear
Ġcontact ed
Ġsub urbs
Ġmon oidal
ĠLad ies
Ġder ives
ĠChurch ill
Ġh orm
Ġpar ishes
sign al
3 90
}} /
q a
Ġparameter ized
part s
ĠDor othy
H erm
å ħ
ord ering
Ġboy friend
Ġprosec ution
and an
Ġcelebr ating
ee per
dom inated
K al
ang les
ĠPort smouth
Ar gs
m inton
}\ }
ĠAdminist rative
Ġdeleg ates
F ederal
ĠBro ck
ĠP omer
Ġfl ies
Ġvis itor
Ġancest ors
ĠS kin
ĠK ub
ĠRed s
================ ================
P en
ro cal
ĠW ong
ST AT
ĠEd win
H K
Ġspons orship
ĠMar ÃŃa
Ġenlarg ed
ĠNov el
hor izontal
vect ive
18 22
Ġvis ually
atern al
ĠCitiz ens
for cing
ĠGram mar
Ġd ors
object s
Ġec ological
ĠV atican
ĠH C
ell ular
ĠSuff olk
ĠR ag
ĠR ao
ann ers
agn et
Ġresid uals
Ġdead ly
ĠRom ans
Ġremov es
te br
me ans
Ġwhe at
4 20
US E
Ġheli um
Ġanth ology
ĠP ub
Ġclin ic
ĠZ hu
Ġgl ad
tan h
Ġte lev
Ġ( -\
v ich
st ats
Ġdram at
ĠVen us
Ġfact ories
ĠMe et
Ġres ume
Ġsn ake
Ġover night
c A
Ġcontest ants
: [
St orage
ĠSupport ing
Ġex empt
Ne ill
Ġsail ors
Ġin consistent
art on
ĠH z
ĠLaure nt
Ġca f
Ġthreat ening
ĠR ising
ĠG DP
Ġoffer ings
Th ose
f ac
ĠY uan
Ġmet ast
Ġbl end
Ġexpat riates
Ġ$< $
Ġambig uity
$ },
b rown
ic ons
)\ )
Ġdis ruption
Ġlad der
Ġch ord
sh all
att ing
Ġgot ten
zz o
Ġdie lectric
> ();
Ġgraph ical
g m
ĠAm ateur
ĠCon cept
Ġcondition ing
ĠSc ots
Ð ³
Ġassoci ates
lym pi
in en
ĠF uj
ri que
Ġsub urban
Ġpurs uing
Ġair ports
Ġtransl ator
Tur kish
ĠC ust
h idden
ĠM M
Cent er
R og
ĠÐ ¸
mod es
M ov
w at
op ath
ĠPro perties
Ġunder going
Ġinduct ive
Ġfragment ation
ĠAn imation
boxt imes
ĠB oss
erm o
ĠLeban ese
Ġrespir atory
Ġexp elled
att ention
ch art
Ġres ur
H ub
Ġback bone
Fore ign
ĠParad ise
ĠS ue
ĠM ental
Ġmar ble
0 15
ĠC anton
ib i
ĠRab bi
P ref
Ġcross ings
Ġsm ile
Ġrecur rence
ric hed
ĠRes ort
Ġsouth western
Ġtraff icking
Ġtem plates
Ġb ail
ell es
ĠG E
Ob j
Ġbuy ers
S and
Ġreview er
m om
ĠH ook
ĠMc Carthy
ĠL ing
Ġnews letter
ĠYuk awa
ĠÎ ¼
Ġes cal
c F
Ġswit ches
m ov
s om
Î ¼
ĠL und
18 09
Ġtail s
Ant i
Ġsu cc
Ġend owed
ĠBol ivia
Ġswe pt
ĠIs abel
Ġpr imes
Ġb il
Ġund erm
D ark
ĠEXP ECT
Ġst ance
Ġsh ocks
cer y
Ġloc ate
Ġe mails
ĠG alois
Ġair ing
ĠY osh
ĠGaz ette
app ings
Ġbehavior al
ograp hed
ĠH erman
Sc ot
ĠRel igious
ĠB ose
Ġbe aches
Vir gin
Ġske leton
_ ;
Ġpart on
ĠCon versely
Ġcler k
I AL
Ġd w
Ġdecom posed
cl ub
ĠMar l
ĠGard ner
L en
ĠTit ans
Ġrein force
cal c
=" /
Ġn avy
ens pace
Sh are
un ched
Phil ipp
B u
ĠWill ie
Ġthorough ly
un ks
it ored
gra ined
get own
Ġmathematic ian
18 27
30 8
nabl ed
ot ta
pe i
Ġrev ived
it as
Ġland scapes
J K
-- (
Ġpurch asing
ĠMon itor
Ġcrow ds
ĠBry ant
x p
Ġp ier
Ġmon ks
E mb
Ġrece ivers
ĠS ard
Ġtw entieth
UN D
ylog en
ĠDef ault
ĠP ray
ĠJan et
ut ory
W T
Ġmot ors
ingu ish
A rea
y z
Ġ ^{-
Ġman eu
Ch anged
ac s
Ġlar vae
Ġbe ats
17 00
bes gue
' },
th reshold
Ġcrim inals
ĠV ander
Ġtel esc
Ġbicy cle
or ange
ĠGuatem ala
ĠCol ony
pr iv
Ġ\| _
) ^{(
ĠE b
Ġdepos ited
ĠRe ver
ĠD olph
Ġm ol
ĠS USY
ĠĠĠĠĠĠĠĠĠĠĠĠĠĠĠĠ ĠĠĠĠĠĠĠĠĠĠĠĠĠĠ
w d
ĠLe ave
ĠInd o
Ġo ak
Ġ" <
ĠT ian
ĠEn c
Ġheter ogeneous
q n
Ġdoctor ate
ĠJoh an
aut s
ĠCorpor ate
ĠPap ua
ĠS ister
Ġsuper hero
Ġstri ps
Win ners
Ġadv ocated
ĠSand y
rit is
' /
p rior
Ġendors ed
Ġsat urated
Ġsle eping
L ook
ĠUnder ground
Ġly ric
Ġluminos ities
24 9
ch at
ĠMor se
ĠS Ã©
Ġph rases
ateg y
Ġlingu istic
ĠU T
ĠNew foundland
rag ed
n ings
ĠÄ Į
Ġc ascade
Ġ\ [\
Ġlight weight
Ġdiscipl ines
ĠWhit ney
Ġn aked
)/ (
N ative
ĠOffic ers
Ġrec ount
)} )$
Q C
ĠProgram s
Ġgl uc
ĠCD P
ical s
Ġrot ations
Ġcrypt ocur
w ings
E arth
Ġbroad caster
AN S
pre ceq
d word
\, ,\
27 3
Ġneighb ours
ĠBron cos
ry n
Ġmult ivariate
Ġbal let
Ġwhere in
ĠCol lections
ĠExt ra
' }}
at ro
)) =\
Ġcollect ively
ĠK Ã¶
C are
ĠRoman ized
ĠCh ain
Argent ine
ĠB ard
Ġresc ued
Ġp unch
ĠMult iple
ĠS cre
ir ical
) &\
ĠRom ance
Ġingred ient
r ÃŃ
Ġen jo
osp in
ĠMic he
Ġsear ched
Î ²
Ġun m
In valid
C er
r ink
ĠCar bon
Ext ension
ĠUrugu ay
S end
cl amation
mem ory
- {
24 6
ĠWe ight
Ġvoc abulary
al us
ĠM Hz
Ï Ģ
ul ators
Ġde formations
annot ation
ĠM eta
ĠN K
ĠStri ke
ĠOpt im
ist on
ĠE OS
in ative
Ġsuff ers
Ġpreval ence
G rid
y ield
Ġbi ases
Orig inally
ĠC FT
Ġsoc io
Ġpuzz le
G irl
ĠT C
Ġdis abilities
Ġfl ora
[...]
