{
  "version": "1.0",
  "truncation": null,
  "padding": null,
  "added_tokens": [
    {
      "id": 0,
      "content": "[UNK]",
      "single_word": false,
      "lstrip": false,
      "rstrip": false,
      "normalized": false,
      "special": true
    }
  ],
  "normalizer": null,
  "pre_tokenizer": {
    "type": "Sequence",
    "pretokenizers": [
      {
        "type": "Digits",
        "individual_digits": false
      },
      {
        "type": "ByteLevel",
        "add_prefix_space": false,
        "trim_offsets": true,
        "use_regex": true
      }
    ]
  },
  "post_processor": null,
  "decoder": null,
  "model": {
    "type": "BPE",
    "dropout": null,
    "unk_token": "[UNK]",
    "continuing_subword_prefix": null,
    "end_of_word_suffix": null,
    "fuse_unk": false,
    "byte_fallback": false,
    "vocab": {
      "[UNK]": 0,
      "!": 1,
      "\"": 2,
      "#": 3,
      "$": 4,
      "%": 5,
      "&": 6,
      "'": 7,
      "(": 8,
      ")": 9,
      "*": 10,
      "+": 11,
      ",": 12,
      "-": 13,
      ".": 14,
      "/": 15,
      "0": 16,
      "1": 17,
      "2": 18,
      "3": 19,
      "4": 20,
      "5": 21,
      "6": 22,
      "7": 23,
      "8": 24,
      "9": 25,
      ":": 26,
      ";": 27,
      "<": 28,
      "=": 29,
      ">": 30,
      "?": 31,
      "@": 32,
      "A": 33,
      "B": 34,
      "C": 35,
      "D": 36,
      "E": 37,
      "F": 38,
      "G": 39,
      "H": 40,
      "I": 41,
      "J": 42,
      "K": 43,
      "L": 44,
      "M": 45,
      "N": 46,
      "O": 47,
      "P": 48,
      "Q": 49,
      "R": 50,
      "S": 51,
      "T": 52,
      "U": 53,
      "V": 54,
      "W": 55,
      "X": 56,
      "Y": 57,
      "Z": 58,
      "[": 59,
      "\\": 60,
      "]": 61,
      "^": 62,
      "_": 63,
      "`": 64,
      "a": 65,
      "b": 66,
      "c": 67,
      "d": 68,
      "e": 69,
      "f": 70,
      "g": 71,
      "h": 72,
      "i": 73,
      "j": 74,
      "k": 75,
      "l": 76,
      "m": 77,
      "n": 78,
      "o": 79,
      "p": 80,
      "q": 81,
      "r": 82,
      "s": 83,
      "t": 84,
      "u": 85,
      "v": 86,
      "w": 87,
      "x": 88,
      "y": 89,
      "z": 90,
      "{": 91,
      "|": 92,
      "}": 93,
      "~": 94,
      "¡": 95,
      "¢": 96,
      "£": 97,
      "¤": 98,
      "¥": 99,
      "¦": 100,
      "§": 101,
      "¨": 102,
      "©": 103,
      "ª": 104,
      "«": 105,
      "¬": 106,
      "®": 107,
      "¯": 108,
      "°": 109,
      "±": 110,
      "²": 111,
      "³": 112,
      "´": 113,
      "µ": 114,
      "¶": 115,
      "·": 116,
      "¸": 117,
      "¹": 118,
      "º": 119,
      "»": 120,
      "¼": 121,
      "½": 122,
      "¾": 123,
      "¿": 124,
      "Â": 125,
      "Ã": 126,
      "Ä": 127,
      "Å": 128,
      "Æ": 129,
      "Ç": 130,
      "È": 131,
      "É": 132,
      "Ê": 133,
      "Ë": 134,
      "Ì": 135,
      "Í": 136,
      "Î": 137,
      "Ï": 138,
      "Ð": 139,
      "Ñ": 140,
      "Ò": 141,
      "Ó": 142,
      "Ô": 143,
      "Õ": 144,
      "Ö": 145,
      "×": 146,
      "Ø": 147,
      "Ù": 148,
      "Ú": 149,
      "Û": 150,
      "Ü": 151,
      "Ý": 152,
      "Þ": 153,
      "ß": 154,
      "à": 155,
      "á": 156,
      "â": 157,
      "ã": 158,
      "ä": 159,
      "å": 160,
      "æ": 161,
      "ç": 162,
      "è": 163,
      "é": 164,
      "ê": 165,
      "ë": 166,
      "ì": 167,
      "í": 168,
      "î": 169,
      "ï": 170,
      "ð": 171,
      "ó": 172,
      "ô": 173,
      "Ā": 174,
      "ā": 175,
      "Ă": 176,
      "ă": 177,
      "Ą": 178,
      "ą": 179,
      "Ć": 180,
      "ć": 181,
      "Ĉ": 182,
      "ĉ": 183,
      "Ċ": 184,
      "ċ": 185,
      "Č": 186,
      "č": 187,
      "Ď": 188,
      "ď": 189,
      "Đ": 190,
      "đ": 191,
      "Ē": 192,
      "ē": 193,
      "Ĕ": 194,
      "ĕ": 195,
      "Ė": 196,
      "ė": 197,
      "Ę": 198,
      "ę": 199,
      "Ě": 200,
      "ě": 201,
      "Ĝ": 202,
      "ĝ": 203,
      "Ğ": 204,
      "ğ": 205,
      "Ġ": 206,
      "ġ": 207,
      "Ģ": 208,
      "ģ": 209,
      "Ĥ": 210,
      "ĥ": 211,
      "Ħ": 212,
      "ħ": 213,
      "Ĩ": 214,
      "ĩ": 215,
      "Ī": 216,
      "ī": 217,
      "Ĭ": 218,
      "ĭ": 219,
      "Į": 220,
      "į": 221,
      "İ": 222,
      "ı": 223,
      "Ĳ": 224,
      "ĳ": 225,
      "Ĵ": 226,
      "ĵ": 227,
      "Ķ": 228,
      "ķ": 229,
      "ĸ": 230,
      "Ĺ": 231,
      "ĺ": 232,
      "Ļ": 233,
      "ļ": 234,
      "Ľ": 235,
      "ľ": 236,
      "Ŀ": 237,
      "ŀ": 238,
      "Ł": 239,
      "ł": 240,
      "Ń": 241,
      "Ġt": 242,
      "in": 243,
      "he": 244,
      "Ġa": 245,
      "on": 246,
      "er": 247,
      "Ġthe": 248,
      "re": 249,
      "at": 250,
      "en": 251,
      "ĠĠ": 252,
      "or": 253,
      "Ġs": 254,
      "al": 255,
      "an": 256,
      "Ġo": 257,
      "it": 258,
      "is": 259,
      "es": 260,
      "ed": 261,
      "Ġw": 262,
      "ar": 263,
      "Ġc": 264,
      "Ġf": 265,
      "ion": 266,
      "Ġof": 267,
      "nd": 268,
      "Ġin": 269,
      "Ġp": 270,
      "Ġb": 271,
      "ic": 272,
      "ing": 273,
      "le": 274,
      "ro": 275,
      "as": 276,
      "Ġand": 277,
      "Ġd": 278,
      "Ġm": 279,
      "Ġ\\": 280,
      "Ġto": 281,
      "ou": 282,
      "el": 283,
      "ent": 284,
      "ct": 285,
      "Ġ$": 286,
      "et": 287,
      "il": 288,
      "ĠĠĠĠ": 289,
      "ig": 290,
      "Ġh": 291,
      "om": 292,
      "st": 293,
      "am": 294,
      "ĠS": 295,
      "Ġre": 296,
      "Ġth": 297,
      "ol": 298,
      "ĠT": 299,
      "ation": 300,
      "ra": 301,
      "ĠC": 302,
      "Ġe": 303,
      "im": 304,
      "ĠA": 305,
      "Ġ(": 306,
      "Ġn": 307,
      "ot": 308,
      "Ġl": 309,
      "Ġis": 310,
      "id": 311,
      "iv": 312,
      "ce": 313,
      "ch": 314,
      "ur": 315,
      "Ġfor": 316,
      "{\\": 317,
      "ĠM": 318,
      "ut": 319,
      "us": 320,
      "Ġg": 321,
      "ly": 322,
      "ow": 323,
      "Ġon": 324,
      "ĠI": 325,
      "ul": 326,
      "ad": 327,
      "ĠB": 328,
      "ers": 329,
      "ith": 330,
      "ĠP": 331,
      "20": 332,
      "em": 333,
      "Ġbe": 334,
      "ir": 335,
      "um": 336,
      "Ġst": 337,
      "ab": 338,
      "qu": 339,
      "Ġas": 340,
      "âĢ": 341,
      "ay": 342,
      "un": 343,
      "ĠH": 344,
      "ter": 345,
      "Ġthat": 346,
      "Ġwith": 347,
      "ver": 348,
      "se": 349,
      "_{": 350,
      "Ġcon": 351,
      "19": 352,
      "ĠR": 353,
      "ĠF": 354,
      "ist": 355,
      "th": 356,
      "od": 357,
      "ĠL": 358,
      "ĠD": 359,
      "ĠThe": 360,
      "Ġal": 361,
      "if": 362,
      "eg": 363,
      "ag": 364,
      "ath": 365,
      "her": 366,
      "Ġwas": 367,
      "and": 368,
      "end": 369,
      "Ġan": 370,
      "Ġby": 371,
      "Ġ$\\": 372,
      "ĠW": 373,
      "ve": 374,
      "Ġpro": 375,
      "igh": 376,
      "ĠN": 377,
      "ĠG": 378,
      "ri": 379,
      "Ġv": 380,
      "ĠĊ": 381,
      "ac": 382,
      "os": 383,
      "res": 384,
      "ction": 385,
      "op": 386,
      "est": 387,
      "ity": 388,
      "Ġwh": 389,
      "ĠE": 390,
      "rom": 391,
      "Ġat": 392,
      "math": 393,
      "pp": 394,
      "ate": 395,
      "ph": 396,
      "ta": 397,
      "Ġcom": 398,
      "oc": 399,
      "Ġde": 400,
      "ĠĠĠ": 401,
      "ĠĠĠĠĠĠĠĠ": 402,
      "čĊ": 403,
      "art": 404,
      "ight": 405,
      "Ġex": 406,
      "Ġit": 407,
      "Ġare": 408,
      "ore": 409,
      "Ġfrom": 410,
      "ies": 411,
      "ub": 412,
      "Ġ&": 413,
      "ure": 414,
      "pe": 415,
      "}\\": 416,
      "ĠJ": 417,
      "ill": 418,
      "Ġse": 419,
      "}$": 420,
      "ine": 421,
      "te": 422,
      "^{": 423,
      "ial": 424,
      "all": 425,
      "pt": 426,
      "Ġhe": 427,
      "ess": 428,
      "Ġwe": 429,
      "ge": 430,
      "ew": 431,
      "ud": 432,
      "ant": 433,
      "ĠO": 434,
      "Ġor": 435,
      "ive": 436,
      "ite": 437,
      "ma": 438,
      "up": 439,
      "ort": 440,
      "The": 441,
      "Ġr": 442,
      "ak": 443,
      "'s": 444,
      "ment": 445,
      "ber": 446,
      "ld": 447,
      "ich": 448,
      "ref": 449,
      "pl": 450,
      "ard": 451,
      "our": 452,
      "ated": 453,
      "ĠK": 454,
      "ian": 455,
      "og": 456,
      "Ġy": 457,
      "ell": 458,
      "ĠU": 459,
      "}}": 460,
      "Ġ=": 461,
      "rac": 462,
      "(\\": 463,
      "ical": 464,
      "ft": 465,
      "201": 466,
      "Ġch": 467,
      "iz": 468,
      "Ġsh": 469,
      "und": 470,
      "per": 471,
      "nt": 472,
      "ary": 473,
      "ran": 474,
      "ia": 475,
      "Ġpl": 476,
      "xt": 477,
      "int": 478,
      "ass": 479,
      "Ġ\"": 480,
      "egin": 481,
      "Ġle": 482,
      "Ġus": 483,
      "fer": 484,
      "ult": 485,
      "ust": 486,
      "ign": 487,
      "ave": 488,
      "begin": 489,
      "cl": 490,
      "00": 491,
      "Ġcomp": 492,
      "ition": 493,
      "Ġthis": 494,
      "ĠIn": 495,
      "ip": 496,
      "ue": 497,
      "ame": 498,
      "orm": 499,
      "âĢĵ": 500,
      "ong": 501,
      ")$": 502,
      "ast": 503,
      "Ġnot": 504,
      "cal": 505,
      "_{\\": 506,
      "are": 507,
      "ff": 508,
      "ug": 509,
      "ens": 510,
      "ap": 511,
      "),": 512,
      "ect": 513,
      "ear": 514,
      "Ġk": 515,
      "Ġwhich": 516,
      "Ġ-": 517,
      "du": 518,
      "ations": 519,
      "de": 520,
      "Ġcl": 521,
      "}{": 522,
      "ost": 523,
      "Ġres": 524,
      "ĠV": 525,
      "age": 526,
      "ks": 527,
      "ire": 528,
      "Ġsu": 529,
      "av": 530,
      "ov": 531,
      "ord": 532,
      "200": 533,
      "ence": 534,
      "so": 535,
      "ain": 536,
      "ther": 537,
      "ĠSt": 538,
      "Ġcan": 539,
      "frac": 540,
      "Ġhis": 541,
      "Ġhave": 542,
      "eq": 543,
      "rm": 544,
      "Ġwhe": 545,
      "cc": 546,
      "ere": 547,
      "ace": 548,
      "enc": 549,
      "Ġun": 550,
      "to": 551,
      "ide": 552,
      "ack": 553,
      "âĢĻ": 554,
      "right": 555,
      "ric": 556,
      "con": 557,
      "ps": 558,
      ").": 559,
      "},": 560,
      "low": 561,
      "ous": 562,
      "ime": 563,
      "equ": 564,
      "ĠCh": 565,
      "ib": 566,
      "Ġhas": 567,
      "able": 568,
      "ish": 569,
      "Ġ|": 570,
      "text": 571,
      "ang": 572,
      "cite": 573,
      "ru": 574,
      "ions": 575,
      "ase": 576,
      "Ġalso": 577,
      "act": 578,
      "ach": 579,
      "ry": 580,
      "abel": 581,
      "Ġab": 582,
      "18": 583,
      "ome": 584,
      "the": 585,
      "ie": 586,
      "ork": 587,
      "mer": 588,
      "mathb": 589,
      "Ġapp": 590,
      "Ġim": 591,
      "Ġad": 592,
      "Ġwere": 593,
      "ĠTh": 594,
      "ener": 595,
      "ould": 596,
      "$,": 597,
      "ice": 598,
      "out": 599,
      "form": 600,
      "over": 601,
      "irst": 602,
      "erv": 603,
      "Ġsp": 604,
      "wo": 605,
      "label": 606,
      "eta": 607,
      "In": 608,
      ",\\": 609,
      "$.": 610,
      "Ġpart": 611,
      "own": 612,
      "ound": 613,
      "10": 614,
      "ke": 615,
      "Ġj": 616,
      "erm": 617,
      "ory": 618,
      "Ġone": 619,
      "ĠĠĠĠĠĠĠ": 620,
      "old": 621,
      "ind": 622,
      "ree": 623,
      "tern": 624,
      "Ġall": 625,
      "mathcal": 626,
      "ely": 627,
      "ents": 628,
      "equation": 629,
      "Ġcont": 630,
      "ates": 631,
      "ors": 632,
      "ĉĉ": 633,
      "left": 634,
      "})": 635,
      "ok": 636,
      "ance": 637,
      "ally": 638,
      "Ġar": 639,
      "clud": 640,
      "Ġro": 641,
      "rit": 642,
      "Ġdis": 643,
      "}.": 644,
      "Ġmod": 645,
      "ile": 646,
      "tain": 647,
      "Ġtheir": 648,
      "Ġbut": 649,
      "}(": 650,
      "port": 651,
      "Ġne": 652,
      "ĠY": 653,
      "rib": 654,
      "ose": 655,
      "ount": 656,
      "we": 657,
      "Ġfirst": 658,
      "Ġper": 659,
      "ne": 660,
      "ress": 661,
      "Ġme": 662,
      "Ġte": 663,
      "amb": 664,
      "ĠHe": 665,
      "row": 666,
      "ics": 667,
      "}^": 668,
      "..": 669,
      "Ġtwo": 670,
      "Ġits": 671,
      "ĠUn": 672,
      "fig": 673,
      "Ġqu": 674,
      "~\\": 675,
      "amp": 676,
      "hed": 677,
      "ĠIt": 678,
      "pro": 679,
      "ark": 680,
      "Ġ||": 681,
      "ll": 682,
      "}_": 683,
      "rans": 684,
      "Ġout": 685,
      "Ġob": 686,
      "pha": 687,
      "line": 688,
      "Ġplay": 689,
      "Ġev": 690,
      "com": 691,
      "ational": 692,
      "ob": 693,
      "da": 694,
      "one": 695,
      "cent": 696,
      "alpha": 697,
      "pect": 698,
      "199": 699,
      "Ġhad": 700,
      "fter": 701,
      "Re": 702,
      "Ġpre": 703,
      "vel": 704,
      "ng": 705,
      "Ġother": 706,
      "Ġsc": 707,
      "ĠâĢĵ": 708,
      "ular": 709,
      "lic": 710,
      "imes": 711,
      "ĠâĢ": 712,
      "sum": 713,
      "ater": 714,
      "ari": 715,
      "Ġsy": 716,
      "Ġman": 717,
      ")\\": 718,
      "Ġwill": 719,
      "Ġ{": 720,
      "oint": 721,
      "urn": 722,
      "ep": 723,
      "Ġ<": 724,
      "Ġag": 725,
      "Ġ+": 726,
      "ugh": 727,
      "Ġwho": 728,
      "Ġdes": 729,
      "Ġover": 730,
      "ollow": 731,
      "iel": 732,
      "=\"": 733,
      "ond": 734,
      "--": 735,
      "ss": 736,
      "Ġmore": 737,
      "ences": 738,
      "Ġbeen": 739,
      "iss": 740,
      "ution": 741,
      "les": 742,
      "Ġtime": 743,
      "ys": 744,
      "Ġup": 745,
      "ambda": 746,
      "li": 747,
      "ĠSe": 748,
      "ho": 749,
      "aw": 750,
      "$\\": 751,
      "raph": 752,
      "ild": 753,
      "Ġyou": 754,
      "elta": 755,
      "lect": 756,
      "12": 757,
      "Ġif": 758,
      "orn": 759,
      "Ġset": 760,
      "Ġthey": 761,
      "sp": 762,
      "pec": 763,
      "ased": 764,
      "ings": 765,
      "land": 766,
      "Ġinter": 767,
      "ons": 768,
      "Ġher": 769,
      ");": 770,
      "Ġbet": 771,
      "under": 772,
      "ject": 773,
      "Ġnew": 774,
      "Ġint": 775,
      "amma": 776,
      "Ġdef": 777,
      "Ġdo": 778,
      "unction": 779,
      "ca": 780,
      "Ġfollow": 781,
      "Ġtra": 782,
      "Ġen": 783,
      "Ġyear": 784,
      "ced": 785,
      "ata": 786,
      "vi": 787,
      "Ġsub": 788,
      "ield": 789,
      "Ġwhere": 790,
      "gh": 791,
      "_\\": 792,
      "of": 793,
      "ople": 794,
      "mathbb": 795,
      "ool": 796,
      "ative": 797,
      "Ġcons": 798,
      "ram": 799,
      "umber": 800,
      "Ġform": 801,
      "ans": 802,
      "ĠĠĠĠĠĠĠĠĠĠĠĠĠĠĠĠ": 803,
      "mu": 804,
      "ivers": 805,
      "Ġso": 806,
      "als": 807,
      "cre": 808,
      "Ġdif": 809,
      "}_{": 810,
      "=\\": 811,
      "ake": 812,
      "oth": 813,
      "hat": 814,
      "dition": 815,
      "Ġsuch": 816,
      "ited": 817,
      "Ġra": 818,
      "Ġreg": 819,
      "Ġonly": 820,
      "Ġinto": 821,
      "mb": 822,
      "Ġpe": 823,
      "dot": 824,
      "ix": 825,
      "Ġcomm": 826,
      "ied": 827,
      "ray": 828,
      "Ġinclud": 829,
      "resent": 830,
      "Ġ\\\\": 831,
      "igma": 832,
      "}^{": 833,
      "ption": 834,
      "Ġcol": 835,
      "ict": 836,
      "meric": 837,
      "Ġwork": 838,
      "olog": 839,
      "ex": 840,
      "ward": 841,
      "Ġthere": 842,
      "ĠWe": 843,
      "-\\": 844,
      "very": 845,
      "15": 846,
      "ific": 847,
      "Ġwhen": 848,
      "ined": 849,
      "Ġdist": 850,
      "ck": 851,
      "Ġacc": 852,
      "sub": 853,
      "stem": 854,
      "Ġrel": 855,
      "ĠRe": 856,
      "Ġthan": 857,
      "ega": 858,
      "ween": 859,
      "Ġtrans": 860,
      "arg": 861,
      "ince": 862,
      "Ġco": 863,
      "ember": 864,
      "ail": 865,
      "phi": 866,
      "^{\\": 867,
      "round": 868,
      "app": 869,
      "Ġthen": 870,
      "17": 871,
      "Ġmodel": 872,
      "pr": 873,
      "til": 874,
      "Ġresult": 875,
      "16": 876,
      "uring": 877,
      "let": 878,
      "use": 879,
      "ĠThis": 880,
      "ough": 881,
      "roup": 882,
      "198": 883,
      "ating": 884,
      "ual": 885,
      "ral": 886,
      "Ġunder": 887,
      "Ġloc": 888,
      "pos": 889,
      "der": 890,
      "ood": 891,
      "Ġ[": 892,
      "Ġgener": 893,
      "ĠDe": 894,
      "eth": 895,
      "ities": 896,
      "ferences": 897,
      "ces": 898,
      "ax": 899,
      "21": 900,
      "Ġph": 901,
      "lambda": 902,
      "Ġclass": 903,
      "Ġpos": 904,
      "Ġsim": 905,
      "oy": 906,
      "Ġbetween": 907,
      "sh": 908,
      "//": 909,
      "Ġsome": 910,
      "Ġpol": 911,
      "io": 912,
      "Ġfin": 913,
      "Ġshow": 914,
      "Ġkn": 915,
      "part": 916,
      "Ġoff": 917,
      "ilm": 918,
      "oot": 919,
      "Ġval": 920,
      "ann": 921,
      "Ġrec": 922,
      "Ġ{\\": 923,
      "ĠNew": 924,
      "Ġafter": 925,
      "Ġour": 926,
      "rough": 927,
      "ĠCom": 928,
      "sc": 929,
      "Ġconst": 930,
      "Ġwould": 931,
      "ron": 932,
      "Ġfunction": 933,
      "ays": 934,
      "ident": 935,
      "Ġabout": 936,
      "Ġact": 937,
      "Ġany": 938,
      "ures": 939,
      "ode": 940,
      "ize": 941,
      "ox": 942,
      "ise": 943,
      "Ġequ": 944,
      "ick": 945,
      "red": 946,
      "lem": 947,
      "âĢĿ": 948,
      "ĠAl": 949,
      "</": 950,
      "mathbf": 951,
      "bf": 952,
      "ilon": 953,
      "ins": 954,
      "ists": 955,
      "Ġinv": 956,
      "Ġshe": 957,
      "Ġ}": 958,
      "tt": 959,
      "che": 960,
      "Ġstud": 961,
      "oun": 962,
      "Ġprodu": 963,
      "its": 964,
      "ility": 965,
      "psilon": 966,
      "ade": 967,
      "align": 968,
      "Ġfe": 969,
      "Ġcor": 970,
      "ublic": 971,
      "13": 972,
      "wid": 973,
      "pi": 974,
      "References": 975,
      "ren": 976,
      "arch": 977,
      "ock": 978,
      "ient": 979,
      "Ġatt": 980,
      "14": 981,
      "ook": 982,
      "ove": 983,
      "ily": 984,
      "Ġprov": 985,
      "Ġest": 986,
      "orld": 987,
      "cond": 988,
      "merican": 989,
      "Ġass": 990,
      "Ġused": 991,
      "Ġpr": 992,
      "Ġdiffer": 993,
      "Ġno": 994,
      "sigma": 995,
      "ik": 996,
      "ider": 997,
      "ature": 998,
      "ĠPro": 999,
      "ruct": 1000,
      "Ġpar": 1001,
      "Ġsystem": 1002,
      "197": 1003,
      "chool": 1004,
      "ments": 1005,
      "ues": 1006,
      "Ġpeople": 1007,
      "cess": 1008,
      "ĠLe": 1009,
      "rt": 1010,
      "par": 1011,
      "abl": 1012,
      "Ġeach": 1013,
      "^{-": 1014,
      "Ġthese": 1015,
      "Ġ(\\": 1016,
      "uss": 1017,
      "Ġlin": 1018,
      "Ġmat": 1019,
      "Ġgiv": 1020,
      "ball": 1021,
      "11": 1022,
      "Ġmost": 1023,
      "ible": 1024,
      "ower": 1025,
      "air": 1026,
      "ision": 1027,
      "ĠZ": 1028,
      "section": 1029,
      "Ġfl": 1030,
      "wn": 1031,
      "beta": 1032,
      "\\\\": 1033,
      "}{\\": 1034,
      "Ġpoint": 1035,
      "ty": 1036,
      "Ġeff": 1037,
      "set": 1038,
      "Ġthem": 1039,
      "ism": 1040,
      "We": 1041,
      "ton": 1042,
      "Ġsm": 1043,
      "oci": 1044,
      "ason": 1045,
      "Ġbl": 1046,
      "Ġ*": 1047,
      "ull": 1048,
      "oh": 1049,
      "Ġnumber": 1050,
      "22": 1051,
      "Ġuse": 1052,
      "itt": 1053,
      "ished": 1054,
      "+\\": 1055,
      "ĠFor": 1056,
      "bar": 1057,
      "Ġret": 1058,
      "Ġmay": 1059,
      "mathrm": 1060,
      "Ġbu": 1061,
      "gamma": 1062,
      "any": 1063,
      "gan": 1064,
      "Ġspec": 1065,
      "Ġind": 1066,
      "Ex": 1067,
      "ever": 1068,
      "put": 1069,
      "min": 1070,
      "*}": 1071,
      "ized": 1072,
      "ĠQ": 1073,
      "Ġthrough": 1074,
      "Ġext": 1075,
      "irect": 1076,
      "hip": 1077,
      "ames": 1078,
      "Ġwell": 1079,
      "Ġsupp": 1080,
      "reat": 1081,
      "rho": 1082,
      "iversity": 1083,
      "Ġprob": 1084,
      "ning": 1085,
      "ring": 1086,
      "ement": 1087,
      "ĠĠĠĠĠ": 1088,
      "yn": 1089,
      "ctions": 1090,
      "Ġdata": 1091,
      "ash": 1092,
      "Ġsol": 1093,
      "Ġsign": 1094,
      "ike": 1095,
      "Ġserv": 1096,
      "Ġexp": 1097,
      "elf": 1098,
      "Th": 1099,
      "here": 1100,
      "Ġent": 1101,
      "ote": 1102,
      "Ġfilm": 1103,
      "30": 1104,
      "col": 1105,
      "Ġline": 1106,
      "Ġvari": 1107,
      "ah": 1108,
      "^\\": 1109,
      "196": 1110,
      "Ġcent": 1111,
      "array": 1112,
      "25": 1113,
      "Ġappro": 1114,
      "ator": 1115,
      "Ġam": 1116,
      "orth": 1117,
      "pend": 1118,
      "ple": 1119,
      "]{": 1120,
      "aid": 1121,
      "ract": 1122,
      "theta": 1123,
      "ĠSh": 1124,
      "outh": 1125,
      "ury": 1126,
      "ange": 1127,
      "leq": 1128,
      "delta": 1129,
      ")}": 1130,
      "Ġagain": 1131,
      "ĠCon": 1132,
      "Ġdifferent": 1133,
      "man": 1134,
      "St": 1135,
      "Ġed": 1136,
      "Ġsur": 1137,
      "hen": 1138,
      "Ġend": 1139,
      "ĠĠĠĠĠĠĠĠĠĠĠ": 1140,
      "eng": 1141,
      "ife": 1142,
      "Ġthree": 1143,
      "Ġsame": 1144,
      "ars": 1145,
      "Ġcur": 1146,
      "ale": 1147,
      "Ġcase": 1148,
      "Ġoper": 1149,
      "ĠâĢľ": 1150,
      "cdot": 1151,
      "Ġrep": 1152,
      "$-": 1153,
      "uch": 1154,
      "Ġinst": 1155,
      "ern": 1156,
      "Ġfound": 1157,
      "ts": 1158,
      "Ġac": 1159,
      "Ġhim": 1160,
      "ĠAn": 1161,
      "Ġgroup": 1162,
      "Ġboth": 1163,
      "Ġgo": 1164,
      "ets": 1165,
      "emb": 1166,
      "tau": 1167,
      "ĠInd": 1168,
      "Ġsing": 1169,
      "Ġnon": 1170,
      "Ġmin": 1171,
      "ization": 1172,
      "Ġpartic": 1173,
      "Ġx": 1174,
      "Ġhigh": 1175,
      "}$,": 1176,
      "velop": 1177,
      "sy": 1178,
      "att": 1179,
      "Ġyears": 1180,
      "}$.": 1181,
      "Ġser": 1182,
      "ically": 1183,
      "owever": 1184,
      "ute": 1185,
      "way": 1186,
      "Ġsecond": 1187,
      "ional": 1188,
      "uc": 1189,
      "ier": 1190,
      "Ġ'": 1191,
      "arge": 1192,
      "Ġi": 1193,
      "Ġfollowing": 1194,
      "width": 1195,
      "az": 1196,
      "ner": 1197,
      "ices": 1198,
      "ĠX": 1199,
      "figure": 1200,
      "big": 1201,
      "}(\\": 1202,
      "fore": 1203,
      "eqref": 1204,
      "ternal": 1205,
      "ĠCol": 1206,
      "Ġterm": 1207,
      "arly": 1208,
      "ĠAs": 1209,
      "ĠAmerican": 1210,
      "Ġback": 1211,
      "Ġty": 1212,
      "Ġstate": 1213,
      "inal": 1214,
      "Ġduring": 1215,
      "gy": 1216,
      "Ġusing": 1217,
      "ert": 1218,
      "Ġcall": 1219,
      "item": 1220,
      "50": 1221,
      "Ġlead": 1222,
      "arrow": 1223,
      "nu": 1224,
      "aj": 1225,
      "Ġfield": 1226,
      "ee": 1227,
      "quad": 1228,
      "Ġele": 1229,
      "Ġperform": 1230,
      "partial": 1231,
      "times": 1232,
      "eter": 1233,
      "Ġem": 1234,
      "Ġorder": 1235,
      "irc": 1236,
      "Ã©": 1237,
      "ĠCl": 1238,
      "rict": 1239,
      "ouse": 1240,
      "fty": 1241,
      "Ġconsider": 1242,
      "Ġfam": 1243,
      "Ġwhile": 1244,
      "tilde": 1245,
      "mm": 1246,
      "Ġteam": 1247,
      "ten": 1248,
      "Ġ.": 1249,
      "Ġgiven": 1250,
      "get": 1251,
      "other": 1252,
      "ample": 1253,
      "infty": 1254,
      "ines": 1255,
      "iver": 1256,
      "ases": 1257,
      "ural": 1258,
      "ross": 1259,
      "Ġdec": 1260,
      "ages": 1261,
      "for": 1262,
      "Ġdisc": 1263,
      "000": 1264,
      "ĠUniversity": 1265,
      "ively": 1266,
      "ather": 1267,
      "pen": 1268,
      "Ġbeing": 1269,
      "Ġdesc": 1270,
      "omega": 1271,
      "Ġdet": 1272,
      "Ġart": 1273,
      "ethod": 1274,
      "Ġbec": 1275,
      "194": 1276,
      "ful": 1277,
      "ots": 1278,
      "ulation": 1279,
      "eqn": 1280,
      "erson": 1281,
      "Ġfact": 1282,
      "overn": 1283,
      "\",": 1284,
      ".,": 1285,
      "ank": 1286,
      "ining": 1287,
      "Ġmade": 1288,
      "uth": 1289,
      "Ġrele": 1290,
      "24": 1291,
      "ĠSc": 1292,
      "ology": 1293,
      "Ġmany": 1294,
      "ĠUnited": 1295,
      "pm": 1296,
      "Ġsmall": 1297,
      "ey": 1298,
      "|\\": 1299,
      "ality": 1300,
      "ants": 1301,
      "ink": 1302,
      "\">": 1303,
      "Ġstr": 1304,
      "cause": 1305,
      "au": 1306,
      "Ġreturn": 1307,
      "val": 1308,
      "Ġmon": 1309,
      "atic": 1310,
      "Ġrequ": 1311,
      "Ġsee": 1312,
      "ired": 1313,
      "Ġdirect": 1314,
      "Ġcre": 1315,
      "ived": 1316,
      "ential": 1317,
      "Ġmed": 1318,
      "var": 1319,
      "formation": 1320,
      "Ġz": 1321,
      "ina": 1322,
      "usic": 1323,
      "serv": 1324,
      "ootball": 1325,
      "Ġlike": 1326,
      "ene": 1327,
      "Ġget": 1328,
      "Ġbel": 1329,
      "Ġinf": 1330,
      "23": 1331,
      "rang": 1332,
      "Ġeffect": 1333,
      "Delta": 1334,
      "rent": 1335,
      "orem": 1336,
      "ved": 1337,
      "Ġlong": 1338,
      "Ġsaid": 1339,
      "by": 1340,
      "ober": 1341,
      "sec": 1342,
      "Ġca": 1343,
      "Ġcount": 1344,
      "rid": 1345,
      "els": 1346,
      "led": 1347,
      "Ġdevelop": 1348,
      "hes": 1349,
      "xi": 1350,
      "ley": 1351,
      "Ġchar": 1352,
      "Ġnow": 1353,
      "center": 1354,
      "Ġpop": 1355,
      "vent": 1356,
      "Âł": 1357,
      "Ġstart": 1358,
      "ohn": 1359,
      "ven": 1360,
      "ĠEng": 1361,
      "ared": 1362,
      "def": 1363,
      "\\,": 1364,
      "Ġcould": 1365,
      "view": 1366,
      "iving": 1367,
      "Ġbefore": 1368,
      "Ġexper": 1369,
      "**": 1370,
      "ott": 1371,
      "Ġtr": 1372,
      "ĠAr": 1373,
      "lo": 1374,
      "me": 1375,
      "aking": 1376,
      "Ġwrit": 1377,
      "sim": 1378,
      "Ġsince": 1379,
      "Ġcontin": 1380,
      "Ġneed": 1381,
      "Ġfour": 1382,
      "ission": 1383,
      "vert": 1384,
      "Ġknown": 1385,
      "Ġmain": 1386,
      "chn": 1387,
      "Ġevery": 1388,
      "Ġjust": 1389,
      "Ġplayers": 1390,
      "Ġpublic": 1391,
      "istory": 1392,
      "Ġresults": 1393,
      ")$.": 1394,
      "omen": 1395,
      "Ġlinks": 1396,
      "Ġanal": 1397,
      "ability": 1398,
      "ĠIs": 1399,
      "ĠShe": 1400,
      "ths": 1401,
      "Ġ$(": 1402,
      "anc": 1403,
      "Ġobtain": 1404,
      "space": 1405,
      "ĠOn": 1406,
      "Ġsupport": 1407,
      "rix": 1408,
      "ctor": 1409,
      "}}\\": 1410,
      "ency": 1411,
      ".\"": 1412,
      "ane": 1413,
      "ource": 1414,
      "ior": 1415,
      "195": 1416,
      "ĠMar": 1417,
      "ives": 1418,
      "ont": 1419,
      "$$": 1420,
      "Ġu": 1421,
      "ffic": 1422,
      "where": 1423,
      "enn": 1424,
      "rad": 1425,
      "Ġmov": 1426,
      "iqu": 1427,
      "vers": 1428,
      "rop": 1429,
      "pond": 1430,
      "Ġincluding": 1431,
      "gram": 1432,
      "}[": 1433,
      "Ġgu": 1434,
      "Ġdr": 1435,
      "eb": 1436,
      "yle": 1437,
      "Ġpresent": 1438,
      "Ġbound": 1439,
      "cept": 1440,
      "Ġright": 1441,
      "ĠAd": 1442,
      "Ġexpl": 1443,
      "Ġwhat": 1444,
      "Ġparam": 1445,
      "ograph": 1446,
      "err": 1447,
      "Ġrepresent": 1448,
      "une": 1449,
      "Ġincre": 1450,
      "Ġmethod": 1451,
      "eqnarray": 1452,
      "Ġmeas": 1453,
      "Ġname": 1454,
      "Ġelect": 1455,
      "ĠPh": 1456,
      "epsilon": 1457,
      "lex": 1458,
      "ival": 1459,
      "Ġlater": 1460,
      "Ġrecord": 1461,
      "Ġown": 1462,
      "ĠComm": 1463,
      "sq": 1464,
      "Ġbecause": 1465,
      "bm": 1466,
      "Ġorig": 1467,
      "ience": 1468,
      "ec": 1469,
      "ified": 1470,
      "External": 1471,
      "Ġseason": 1472,
      "bum": 1473,
      "ĠStates": 1474,
      "Ġvery": 1475,
      "Ġprocess": 1476,
      "umn": 1477,
      "ĠCount": 1478,
      "Ġmet": 1479,
      "Ġrun": 1480,
      "ĠPl": 1481,
      "Ġadd": 1482,
      "arri": 1483,
      "ital": 1484,
      "Ch": 1485,
      "ĠSp": 1486,
      "ĠBl": 1487,
      "Ġlarge": 1488,
      "oo": 1489,
      "Om": 1490,
      "son": 1491,
      "Ġagainst": 1492,
      "ually": 1493,
      "Ġmass": 1494,
      "arn": 1495,
      "mp": 1496,
      "rodu": 1497,
      "Ġdescrib": 1498,
      "agn": 1499,
      "Ġeven": 1500,
      "}_{\\": 1501,
      "Ġschool": 1502,
      "energy": 1503,
      "27": 1504,
      "Ġseries": 1505,
      "Ġpres": 1506,
      "...": 1507,
      "cer": 1508,
      "includ": 1509,
      "Ġbased": 1510,
      "Ġ,": 1511,
      "uro": 1512,
      "ness": 1513,
      "Ġ/": 1514,
      "28": 1515,
      "co": 1516,
      "Ġmult": 1517,
      "ĠBe": 1518,
      "26": 1519,
      "))": 1520,
      "psi": 1521,
      "rel": 1522,
      "arm": 1523,
      "oss": 1524,
      "Ġcondition": 1525,
      "Ġopen": 1526,
      "Ġfind": 1527,
      "orks": 1528,
      "Ġposs": 1529,
      "raw": 1530,
      "Omega": 1531,
      "ird": 1532,
      "ĠMay": 1533,
      "Ph": 1534,
      "Ġdesign": 1535,
      "Ġvalue": 1536,
      "Ġstruct": 1537,
      "af": 1538,
      ")$,": 1539,
      "Ġdistrib": 1540,
      "Ġrespect": 1541,
      "ubl": 1542,
      "Ġproper": 1543,
      "ask": 1544,
      "Ġlocal": 1545,
      "This": 1546,
      "ai": 1547,
      "not": 1548,
      "ister": 1549,
      "mbol": 1550,
      "ting": 1551,
      "Ġcharact": 1552,
      "ĠJohn": 1553,
      "Ġ:": 1554,
      "ague": 1555,
      "angle": 1556,
      "vious": 1557,
      "Ġyour": 1558,
      "^*": 1559,
      "etw": 1560,
      "urther": 1561,
      "alth": 1562,
      "ĠFig": 1563,
      "Ġ${\\": 1564,
      "Ġgeneral": 1565,
      "ĠFran": 1566,
      "Ġobserv": 1567,
      "Ġspace": 1568,
      "sk": 1569,
      "ration": 1570,
      "Ġvi": 1571,
      "sqrt": 1572,
      "rand": 1573,
      "Ġproblem": 1574,
      "ger": 1575,
      "Ġsever": 1576,
      "read": 1577,
      "be": 1578,
      "ĠNational": 1579,
      "Ġbuild": 1580,
      "100": 1581,
      "It": 1582,
      "ety": 1583,
      "Ġdoes": 1584,
      "Ġhow": 1585,
      "Ġinde": 1586,
      "Ġestabl": 1587,
      "Gamma": 1588,
      "Ġcommun": 1589,
      "\".": 1590,
      "Ġtop": 1591,
      "respond": 1592,
      "anu": 1593,
      "inc": 1594,
      "vare": 1595,
      "ĠWorld": 1596,
      "For": 1597,
      "olution": 1598,
      "Ġrece": 1599,
      "----": 1600,
      "Ġshould": 1601,
      "ĠTe": 1602,
      "Ġlim": 1603,
      "ĠAust": 1604,
      "Ġthose": 1605,
      "40": 1606,
      "2021": 1607,
      "ided": 1608,
      "iam": 1609,
      "rol": 1610,
      "Ġlast": 1611,
      "ris": 1612,
      "ves": 1613,
      "Ġfootball": 1614,
      "Ġfamily": 1615,
      "itive": 1616,
      "rist": 1617,
      "med": 1618,
      "2020": 1619,
      "Ġrad": 1620,
      "Ġprof": 1621,
      "varepsilon": 1622,
      "day": 1623,
      "ĠĠĊ": 1624,
      "193": 1625,
      "ides": 1626,
      "Ġdid": 1627,
      "Ġmy": 1628,
      "utions": 1629,
      "ially": 1630,
      "Ġrest": 1631,
      "overnment": 1632,
      "Ġhand": 1633,
      "29": 1634,
      "ĠAnd": 1635,
      "Ġstand": 1636,
      "Ġalbum": 1637,
      "Ġway": 1638,
      "ek": 1639,
      "ium": 1640,
      "ternational": 1641,
      "Ġallow": 1642,
      "Ġpa": 1643,
      "2016": 1644,
      "por": 1645,
      "Ġtest": 1646,
      "2018": 1647,
      "urch": 1648,
      "ateg": 1649,
      "rack": 1650,
      "Ġmake": 1651,
      "bl": 1652,
      "Ġassum": 1653,
      "Ġ\\,": 1654,
      "Ġdue": 1655,
      "Ġrema": 1656,
      "Ġlist": 1657,
      "2010": 1658,
      "ĠâĢĶ": 1659,
      "Ġreal": 1660,
      "Ġgame": 1661,
      "Ġrem": 1662,
      "raphics": 1663,
      "subsection": 1664,
      "Ġbro": 1665,
      "2017": 1666,
      ")=": 1667,
      "ĠCan": 1668,
      "ĠčĊ": 1669,
      "^{(": 1670,
      "ĠCar": 1671,
      "Ġreport": 1672,
      "ript": 1673,
      "Ġcalled": 1674,
      "ised": 1675,
      "rightarrow": 1676,
      "As": 1677,
      "ians": 1678,
      "2015": 1679,
      "ef": 1680,
      "ccess": 1681,
      "aces": 1682,
      "}^{\\": 1683,
      "Ġden": 1684,
      "Ġpower": 1685,
      "ĠEx": 1686,
      "Ġenergy": 1687,
      "}=": 1688,
      "textbf": 1689,
      "iness": 1690,
      "bs": 1691,
      "Ġstat": 1692,
      "2019": 1693,
      "Ġhel": 1694,
      "2014": 1695,
      "wards": 1696,
      "imens": 1697,
      "ately": 1698,
      "fra": 1699,
      "Ġnear": 1700,
      "Ġaround": 1701,
      "Ġcontain": 1702,
      "less": 1703,
      "ĠNov": 1704,
      "Ġbir": 1705,
      "Ġsingle": 1706,
      "Ġident": 1707,
      "ret": 1708,
      "Ġlife": 1709,
      "ilar": 1710,
      "ole": 1711,
      "rum": 1712,
      "ĠCounty": 1713,
      "umer": 1714,
      "Ġcorrespond": 1715,
      "ĠCent": 1716,
      "ious": 1717,
      "bold": 1718,
      "Ġcare": 1719,
      "ĠAt": 1720,
      "atch": 1721,
      "Ġalong": 1722,
      "ĠWar": 1723,
      "Ġlevel": 1724,
      "Ġtem": 1725,
      "ĠSchool": 1726,
      "On": 1727,
      "Ġworld": 1728,
      "Ġread": 1729,
      "Ġopt": 1730,
      "Ġdown": 1731,
      "ajor": 1732,
      "Ġleft": 1733,
      "omet": 1734,
      "Ġbecame": 1735,
      "Ġgra": 1736,
      "Ġaddition": 1737,
      "Ġocc": 1738,
      "2013": 1739,
      "ĠOr": 1740,
      "Ġve": 1741,
      "embers": 1742,
      "Ġestim": 1743,
      "ero": 1744,
      "2012": 1745,
      "Ġav": 1746,
      "Ġimport": 1747,
      "Ġel": 1748,
      "ĠBrit": 1749,
      "ĠHowever": 1750,
      "2011": 1751,
      "ĠJu": 1752,
      "ĠWh": 1753,
      "ĠAll": 1754,
      "Ġprogram": 1755,
      "Ġpass": 1756,
      "ĠGe": 1757,
      "ify": 1758,
      "Ġscal": 1759,
      "ithm": 1760,
      "egraphics": 1761,
      "includegraphics": 1762,
      "Ġwin": 1763,
      "Ġwithin": 1764,
      "Ġseveral": 1765,
      "akes": 1766,
      "Ġuntil": 1767,
      "ij": 1768,
      "Ġcurrent": 1769,
      "rangle": 1770,
      "ĠSouth": 1771,
      "Ġknow": 1772,
      "Ġabove": 1773,
      "umb": 1774,
      "Ġorgan": 1775,
      "Ġmuch": 1776,
      "reen": 1777,
      "Ġarea": 1778,
      "chi": 1779,
      "Ġmeasure": 1780,
      "side": 1781,
      "non": 1782,
      "Ġcal": 1783,
      "Ġdeath": 1784,
      "uper": 1785,
      "Ġinformation": 1786,
      "cm": 1787,
      "ĠYork": 1788,
      "ugust": 1789,
      "vec": 1790,
      "ym": 1791,
      "Ġinit": 1792,
      "caption": 1793,
      "Ġsong": 1794,
      "anuary": 1795,
      "iod": 1796,
      "Ġvis": 1797,
      "amed": 1798,
      "Ġpolit": 1799,
      "log": 1800,
      "Ġcap": 1801,
      "Ġgl": 1802,
      "Ġchild": 1803,
      "Ġtri": 1804,
      "Pro": 1805,
      "Ġplace": 1806,
      "''": 1807,
      "ĠOct": 1808,
      "Ġann": 1809,
      "ery": 1810,
      "Ġstill": 1811,
      "ptember": 1812,
      "gor": 1813,
      "aving": 1814,
      "Ġmusic": 1815,
      "Con": 1816,
      "==": 1817,
      "Ġdi": 1818,
      "varphi": 1819,
      "ĠPol": 1820,
      "color": 1821,
      "Ġref": 1822,
      "Ġinteg": 1823,
      "ording": 1824,
      "oard": 1825,
      "ilt": 1826,
      "Ġconf": 1827,
      "Ġvers": 1828,
      "ators": 1829,
      "emph": 1830,
      "rem": 1831,
      "ament": 1832,
      "Ġsum": 1833,
      "'t": 1834,
      "ĠPar": 1835,
      "ense": 1836,
      "lim": 1837,
      "ĠThey": 1838,
      "60": 1839,
      "Ġsat": 1840,
      "|-": 1841,
      "geq": 1842,
      "position": 1843,
      "Ġappear": 1844,
      "Ġtype": 1845,
      "ae": 1846,
      "ĠGerm": 1847,
      "usiness": 1848,
      "ĠRes": 1849,
      "ĠAss": 1850,
      "Ġlaw": 1851,
      "Ġoffic": 1852,
      "lection": 1853,
      "ody": 1854,
      "Ġpat": 1855,
      "Com": 1856,
      "Ġche": 1857,
      "wh": 1858,
      "Ġrefer": 1859,
      "mod": 1860,
      "Ġlarg": 1861,
      "Ġ`": 1862,
      "eters": 1863,
      "Ġhead": 1864,
      "ĉĉĉĉ": 1865,
      "ination": 1866,
      "proof": 1867,
      "Ġtechn": 1868,
      "ĠMarch": 1869,
      "mber": 1870,
      "ĠPr": 1871,
      "Ġparticular": 1872,
      "alk": 1873,
      "pril": 1874,
      "tab": 1875,
      "Ġtot": 1876,
      "2009": 1877,
      "urs": 1878,
      "Ġsl": 1879,
      "ended": 1880,
      "osed": 1881,
      "ĠĠĠĠĠĠĠĠĠĠĠĠĠĠĠ": 1882,
      "Ġbest": 1883,
      "ection": 1884,
      "Ġtake": 1885,
      "ormal": 1886,
      "Ġcontinu": 1887,
      "ĠIf": 1888,
      "Ġdem": 1889,
      "2008": 1890,
      ".~\\": 1891,
      "ampions": 1892,
      "istor": 1893,
      "ĠJanuary": 1894,
      "oman": 1895,
      "xim": 1896,
      "ĠAugust": 1897,
      "ensity": 1898,
      "ER": 1899,
      "ling": 1900,
      "Ġcharacter": 1901,
      "Ġbeh": 1902,
      "angu": 1903,
      "pon": 1904,
      "ĠSeptember": 1905,
      "overline": 1906,
      "Ġhy": 1907,
      "Ġexample": 1908,
      "Ġfre": 1909,
      "ensure": 1910,
      "Ġfinal": 1911,
      "symbol": 1912,
      "ĠMan": 1913,
      "Ġhelp": 1914,
      "ift": 1915,
      "ĠGu": 1916,
      "Ġperson": 1917,
      "Al": 1918,
      "ches": 1919,
      "reg": 1920,
      "ST": 1921,
      "Ġmark": 1922,
      "ampl": 1923,
      "oid": 1924,
      "etwork": 1925,
      "Ġpost": 1926,
      "ĠMin": 1927,
      "Ġspect": 1928,
      "ĠOctober": 1929,
      "cember": 1930,
      ")^": 1931,
      "&\\": 1932,
      "->": 1933,
      "aim": 1934,
      "ats": 1935,
      "lege": 1936,
      "Ġband": 1937,
      "()": 1938,
      "lish": 1939,
      "Ġcomput": 1940,
      "He": 1941,
      "ison": 1942,
      "Ġsimilar": 1943,
      "uthor": 1944,
      "Ġshown": 1945,
      "gorithm": 1946,
      "Big": 1947,
      "refore": 1948,
      "ĠII": 1949,
      ".}": 1950,
      "ification": 1951,
      "ĠAustral": 1952,
      "lev": 1953,
      "ĠEuro": 1954,
      "ugg": 1955,
      "cor": 1956,
      "Ġevent": 1957,
      "ĠJune": 1958,
      "Ġfollows": 1959,
      "ĠUS": 1960,
      "Ġbas": 1961,
      "AR": 1962,
      "ung": 1963,
      "aster": 1964,
      "ground": 1965,
      "play": 1966,
      "Ġpoints": 1967,
      "Ġstudy": 1968,
      "Ġredu": 1969,
      "Ġhig": 1970,
      "Ġvalues": 1971,
      "://": 1972,
      "Ġearly": 1973,
      "boldsymbol": 1974,
      "see": 1975,
      "Ġformer": 1976,
      "ored": 1977,
      "iment": 1978,
      "Ġcour": 1979,
      "ories": 1980,
      "Ġlow": 1981,
      "2007": 1982,
      "orph": 1983,
      "frak": 1984,
      "imal": 1985,
      "Ġgood": 1986,
      "Ġdepend": 1987,
      "Ġprevious": 1988,
      "Ġinterest": 1989,
      "ges": 1990,
      "},\\": 1991,
      "[\\": 1992,
      "ĠApril": 1993,
      "ĠJuly": 1994,
      "tr": 1995,
      "lu": 1996,
      "atures": 1997,
      "ords": 1998,
      "cul": 1999,
      "2006": 2000,
      "Ġhere": 2001,
      "face": 2002,
      "Ġcrit": 2003,
      "ĠNorth": 2004,
      "Ġquant": 2005,
      "80": 2006,
      "atter": 2007,
      "Ġder": 2008,
      "illion": 2009,
      "ength": 2010,
      "ler": 2011,
      "Ġet": 2012,
      "}).": 2013,
      "Ġadv": 2014,
      "Ġmap": 2015,
      "ĠCity": 2016,
      "ances": 2017,
      "Ġsection": 2018,
      "IN": 2019,
      "ĠCal": 2020,
      "Ġlet": 2021,
      "Ġassoci": 2022,
      "33": 2023,
      "nect": 2024,
      "Ġhome": 2025,
      "ĠState": 2026,
      "Ġintrodu": 2027,
      "Let": 2028,
      "Ġshows": 2029,
      "Ġdom": 2030,
      "iter": 2031,
      "ales": 2032,
      "Ġobject": 2033,
      "ope": 2034,
      "Ġwon": 2035,
      "90": 2036,
      "Ġposition": 2037,
      "Ġwithout": 2038,
      "Ġeng": 2039,
      "ĠCo": 2040,
      "Ġexpect": 2041,
      "istic": 2042,
      "Ġproject": 2043,
      "Ġcar": 2044,
      "ĠArt": 2045,
      "ĠNovember": 2046,
      "ysis": 2047,
      "Ġimp": 2048,
      "ument": 2049,
      "idd": 2050,
      "Ġplayed": 2051,
      "bra": 2052,
      "stit": 2053,
      "An": 2054,
      "ĠDecember": 2055,
      "ĠSte": 2056,
      "Ġtotal": 2057,
      "Ġpubl": 2058,
      "ble": 2059,
      "Ġday": 2060,
      "Ġmodels": 2061,
      "Ġdeterm": 2062,
      "comm": 2063,
      "Ġreleased": 2064,
      "45": 2065,
      "hline": 2066,
      "ĠYou": 2067,
      "Ġmust": 2068,
      "Ġhold": 2069,
      "ilit": 2070,
      "mmet": 2071,
      "}}$": 2072,
      "Ġpot": 2073,
      "lear": 2074,
      "Ġdefined": 2075,
      "Ġthough": 2076,
      "etail": 2077,
      "inition": 2078,
      "ography": 2079,
      "urb": 2080,
      "oper": 2081,
      "Ġperiod": 2082,
      "Ġterms": 2083,
      "Ġshort": 2084,
      "with": 2085,
      "Ġcity": 2086,
      "Ġdel": 2087,
      "Ġland": 2088,
      "Ġsuccess": 2089,
      "gin": 2090,
      "cur": 2091,
      "Ġiss": 2092,
      "Ġnext": 2093,
      "Ġanother": 2094,
      "ino": 2095,
      "mathfrak": 2096,
      "ule": 2097,
      "):": 2098,
      "ww": 2099,
      "ham": 2100,
      "ze": 2101,
      "born": 2102,
      "35": 2103,
      "AT": 2104,
      "Ġleg": 2105,
      "Ġmembers": 2106,
      "ĠEd": 2107,
      "ney": 2108,
      "ocial": 2109,
      "Ġdiscuss": 2110,
      "etic": 2111,
      "langle": 2112,
      "ldots": 2113,
      "Ġmajor": 2114,
      "Ġstre": 2115,
      "ĠWill": 2116,
      "ruction": 2117,
      "Ġaff": 2118,
      "Ġtit": 2119,
      "Ġinvest": 2120,
      "Ġspe": 2121,
      "ploy": 2122,
      "ĠEurope": 2123,
      "org": 2124,
      "aced": 2125,
      "oll": 2126,
      "Ġdeg": 2127,
      "ebru": 2128,
      "Ġcho": 2129,
      "Ġdescribed": 2130,
      "Ġgovernment": 2131,
      "ention": 2132,
      "ĠAf": 2133,
      "ebruary": 2134,
      "ĠReg": 2135,
      "ead": 2136,
      "Ġcomb": 2137,
      "osp": 2138,
      "isf": 2139,
      "ynam": 2140,
      "Ġstrong": 2141,
      "lor": 2142,
      "Ġcompet": 2143,
      "apan": 2144,
      "iron": 2145,
      "back": 2146,
      "ada": 2147,
      "ĠTo": 2148,
      "ivity": 2149,
      "Ġ//": 2150,
      "Ġcomplet": 2151,
      "Ġbre": 2152,
      "Ġsk": 2153,
      "AS": 2154,
      "ĠBritish": 2155,
      "no": 2156,
      "ries": 2157,
      "Ġla": 2158,
      "appa": 2159,
      "Lambda": 2160,
      "Ġwomen": 2161,
      "See": 2162,
      "ients": 2163,
      "uman": 2164,
      "though": 2165,
      "ixed": 2166,
      "Ġcompany": 2167,
      "190": 2168,
      "Ġdistribution": 2169,
      "Ġexist": 2170,
      "Ġchang": 2171,
      "ĠBy": 2172,
      "Ġold": 2173,
      "Ġopp": 2174,
      "Ġturn": 2175,
      "Ġinclude": 2176,
      "Ġmean": 2177,
      "Ġstructure": 2178,
      "Ġmanag": 2179,
      "posed": 2180,
      "uk": 2181,
      "ster": 2182,
      "',": 2183,
      "Phi": 2184,
      "ampionship": 2185,
      "action": 2186,
      "ipp": 2187,
      "alf": 2188,
      "2000": 2189,
      "Ġcontrib": 2190,
      "ille": 2191,
      "Ġsize": 2192,
      "odes": 2193,
      "sequ": 2194,
      "mult": 2195,
      "ological": 2196,
      "str": 2197,
      "Ġpred": 2198,
      "Ġaver": 2199,
      "ĠLeague": 2200,
      "field": 2201,
      "2005": 2202,
      "ĠChrist": 2203,
      "Ġfew": 2204,
      "Ġimportant": 2205,
      "upp": 2206,
      "Ġphot": 2207,
      "ĠThere": 2208,
      "Ġpossible": 2209,
      "used": 2210,
      "ivid": 2211,
      "ently": 2212,
      "ID": 2213,
      "Ġregion": 2214,
      "dis": 2215,
      "ĠKing": 2216,
      "Ġ@": 2217,
      "plit": 2218,
      "ĠPart": 2219,
      "ana": 2220,
      "Ġfull": 2221,
      "âĢľ": 2222,
      "ique": 2223,
      "70": 2224,
      "Ġproduct": 2225,
      "ither": 2226,
      "75": 2227,
      "ĠMed": 2228,
      "ourn": 2229,
      "duct": 2230,
      "plic": 2231,
      "ources": 2232,
      "ering": 2233,
      "Ġtimes": 2234,
      "new": 2235,
      "otimes": 2236,
      "yl": 2237,
      "Ġerr": 2238,
      "ĠFebruary": 2239,
      "ush": 2240,
      "Ġstates": 2241,
      "Ġbirths": 2242,
      "ĠRep": 2243,
      "mbox": 2244,
      "Ġside": 2245,
      "Ġtyp": 2246,
      "ĠAfter": 2247,
      "Ġexpress": 2248,
      "citep": 2249,
      "ights": 2250,
      "Ġvol": 2251,
      "Ġsignific": 2252,
      "ideo": 2253,
      "kappa": 2254,
      "eps": 2255,
      "ude": 2256,
      "Ġeas": 2257,
      "ways": 2258,
      "Ġrese": 2259,
      "Ġcou": 2260,
      "]$": 2261,
      "rag": 2262,
      "::": 2263,
      "raft": 2264,
      "century": 2265,
      ".âĢĿ": 2266,
      "ĠMc": 2267,
      "icle": 2268,
      "self": 2269,
      "Ġpotential": 2270,
      "ony": 2271,
      "ĠNo": 2272,
      "Ġep": 2273,
      "ĠThen": 2274,
      "nabl": 2275,
      "empt": 2276,
      "ON": 2277,
      "Ġfurther": 2278,
      "ĠBar": 2279,
      "Ġview": 2280,
      "riend": 2281,
      "ĠHar": 2282,
      "sm": 2283,
      "Ġgrow": 2284,
      "Ġmagn": 2285,
      "Ġ>": 2286,
      "Ġprom": 2287,
      "subset": 2288,
      "Un": 2289,
      "ief": 2290,
      "Ġcontrol": 2291,
      "conom": 2292,
      "ht": 2293,
      "ĠCor": 2294,
      "32": 2295,
      "Ġtown": 2296,
      "ounc": 2297,
      "Ġfilms": 2298,
      "rench": 2299,
      "Ġapproxim": 2300,
      "Ġcareer": 2301,
      "31": 2302,
      "Ġless": 2303,
      "\\|": 2304,
      "lected": 2305,
      "ailable": 2306,
      "ĠWest": 2307,
      "Ġbusiness": 2308,
      "ese": 2309,
      "})$": 2310,
      "Ġmax": 2311,
      "ties": 2312,
      "Ġdiv": 2313,
      "Ġphys": 2314,
      "Ġpopulation": 2315,
      "Ġinvol": 2316,
      "oad": 2317,
      "Ġ</": 2318,
      "anguage": 2319,
      "nonumber": 2320,
      "Ġsequ": 2321,
      "2004": 2322,
      "ĠNe": 2323,
      "Ġsit": 2324,
      ".\\": 2325,
      "ĠSw": 2326,
      "Ġcover": 2327,
      "Ġke": 2328,
      "âĢĶ": 2329,
      "arent": 2330,
      "Ġlook": 2331,
      "Ġ#": 2332,
      "Ġstandard": 2333,
      "ĠArm": 2334,
      "ĠSy": 2335,
      "Ġpo": 2336,
      "essage": 2337,
      "mat": 2338,
      "Ġide": 2339,
      "nabla": 2340,
      "key": 2341,
      "levision": 2342,
      "acks": 2343,
      "Ġjo": 2344,
      "off": 2345,
      "textit": 2346,
      "ĠLet": 2347,
      "Ġsatisf": 2348,
      "wide": 2349,
      "Ġtook": 2350,
      "Ġaut": 2351,
      "ensuremath": 2352,
      "Ġgames": 2353,
      "ĠMe": 2354,
      "iction": 2355,
      "}),": 2356,
      "Ġcomplex": 2357,
      "Ã¡": 2358,
      "clus": 2359,
      "Ġfree": 2360,
      "Ġmember": 2361,
      "Ġthird": 2362,
      "To": 2363,
      "ones": 2364,
      "bit": 2365,
      "Ġimpro": 2366,
      "stand": 2367,
      "Ġpaper": 2368,
      "Ġfive": 2369,
      "ondon": 2370,
      "imum": 2371,
      "Ġcompon": 2372,
      "Ġheld": 2373,
      "Ġmot": 2374,
      "ux": 2375,
      "opt": 2376,
      "aint": 2377,
      "ford": 2378,
      "Ġobtained": 2379,
      "Ġperformance": 2380,
      "Ġdensity": 2381,
      "2022": 2382,
      "ĠDist": 2383,
      "99": 2384,
      "Ġoriginal": 2385,
      "otes": 2386,
      "ius": 2387,
      "\\[": 2388,
      "Ġtheory": 2389,
      "}}{": 2390,
      "iles": 2391,
      "aul": 2392,
      "Ġhistory": 2393,
      "Ps": 2394,
      "rew": 2395,
      "Ġwant": 2396,
      "ilde": 2397,
      "Ġhouse": 2398,
      "circ": 2399,
      "Ġsay": 2400,
      "By": 2401,
      "ĠHis": 2402,
      "ĠAb": 2403,
      "Ġself": 2404,
      "sf": 2405,
      "\\%": 2406,
      "Ġbegan": 2407,
      "Ġ)": 2408,
      "Ġlocated": 2409,
      "Ġnamed": 2410,
      "Ġgreat": 2411,
      "ĠBut": 2412,
      "ĠJapan": 2413,
      "ii": 2414,
      "cap": 2415,
      "Ġindepend": 2416,
      "Ġred": 2417,
      "ĠEnglish": 2418,
      "ooks": 2419,
      "cit": 2420,
      "Ġestablished": 2421,
      "oph": 2422,
      "adem": 2423,
      "ĠThese": 2424,
      "Ġalgorithm": 2425,
      "lation": 2426,
      "Ġnetwork": 2427,
      "Ġrange": 2428,
      "urg": 2429,
      "order": 2430,
      "Ġsolution": 2431,
      "Ġes": 2432,
      "na": 2433,
      "Ġchange": 2434,
      "Ġclub": 2435,
      "eneral": 2436,
      "inally": 2437,
      "rain": 2438,
      "Ġamong": 2439,
      "Ġfeature": 2440,
      "Ġdeb": 2441,
      "Ġage": 2442,
      "Ġbook": 2443,
      "ours": 2444,
      "American": 2445,
      "Ġindic": 2446,
      "eder": 2447,
      "time": 2448,
      "uck": 2449,
      "ĠSan": 2450,
      "eople": 2451,
      "Sigma": 2452,
      "ched": 2453,
      "36": 2454,
      "ables": 2455,
      "Ġstation": 2456,
      "Ġfunctions": 2457,
      "ably": 2458,
      "uation": 2459,
      "ising": 2460,
      "Ġlight": 2461,
      "Ġins": 2462,
      "roll": 2463,
      "Ġrepl": 2464,
      "~~": 2465,
      "itor": 2466,
      "Ġprote": 2467,
      "};": 2468,
      "Ġdetail": 2469,
      "Ġsignificant": 2470,
      "ald": 2471,
      "Ġanalysis": 2472,
      "table": 2473,
      "ĠAm": 2474,
      "ĠAfric": 2475,
      "Ġleast": 2476,
      "Ġwater": 2477,
      "ype": 2478,
      "Ġoften": 2479,
      "Ġprofess": 2480,
      "ĠRuss": 2481,
      "34": 2482,
      "iple": 2483,
      "../": 2484,
      "\\!": 2485,
      "Ġspecial": 2486,
      "dots": 2487,
      "now": 2488,
      "ĠEn": 2489,
      "Ġreceived": 2490,
      "Ġavailable": 2491,
      "asing": 2492,
      "Ġvill": 2493,
      "hold": 2494,
      "Ġalign": 2495,
      "draw": 2496,
      "Ġarg": 2497,
      "Ġmatrix": 2498,
      "uted": 2499,
      "Ġlower": 2500,
      "Ġsix": 2501,
      "Ġant": 2502,
      "Ġlimit": 2503,
      "pd": 2504,
      "Ġaction": 2505,
      "rick": 2506,
      "Ġrate": 2507,
      "Ġchildren": 2508,
      "Ġair": 2509,
      "ser": 2510,
      "ml": 2511,
      "Ġauthor": 2512,
      "Ġsystems": 2513,
      "ĠEl": 2514,
      "Ġparameters": 2515,
      "Ġconsidered": 2516,
      "widet": 2517,
      "Ġapplic": 2518,
      "viron": 2519,
      "ĠSch": 2520,
      "Ġ--": 2521,
      "idence": 2522,
      "Ġgraph": 2523,
      "aken": 2524,
      "Ġequation": 2525,
      "ĠLondon": 2526,
      "Ġconstant": 2527,
      "Ġservice": 2528,
      "Cl": 2529,
      "Ġfac": 2530,
      "Ġapproach": 2531,
      "Ġcross": 2532,
      "span": 2533,
      "box": 2534,
      "ittle": 2535,
      "Ġrelations": 2536,
      "ĠLa": 2537,
      "Ġcommon": 2538,
      "Ġeduc": 2539,
      "abor": 2540,
      "Ġpublished": 2541,
      "ference": 2542,
      "rap": 2543,
      "utes": 2544,
      "lement": 2545,
      "Ġvarious": 2546,
      "Ġarch": 2547,
      "atural": 2548,
      "obal": 2549,
      "Ġrecent": 2550,
      "Ġbuilt": 2551,
      "48": 2552,
      "Ġpriv": 2553,
      "Ġworks": 2554,
      "Ġmom": 2555,
      "Ġincluded": 2556,
      "Ġsw": 2557,
      "Ġwar": 2558,
      "aly": 2559,
      "ĠAir": 2560,
      "Ġrespectively": 2561,
      "2003": 2562,
      "ĠOne": 2563,
      "rest": 2564,
      "Ġversion": 2565,
      "Ġcases": 2566,
      "ĉĉĉ": 2567,
      "Ġfore": 2568,
      "Ġcer": 2569,
      "Ġenc": 2570,
      "ials": 2571,
      "ront": 2572,
      "ĠAmeric": 2573,
      "AN": 2574,
      "dom": 2575,
      "Ġstar": 2576,
      "rown": 2577,
      "Ġnational": 2578,
      "Ġrole": 2579,
      "widetilde": 2580,
      "Fig": 2581,
      "Ġaverage": 2582,
      "Ġdiff": 2583,
      "chie": 2584,
      "Ġcoll": 2585,
      "Ġmen": 2586,
      "Ġclaim": 2587,
      "ĠDav": 2588,
      "ĠCollege": 2589,
      "arried": 2590,
      "Ġdon": 2591,
      "ev": 2592,
      "iff": 2593,
      "Ġpri": 2594,
      "Ġindivid": 2595,
      "Ġpract": 2596,
      "amples": 2597,
      "ĠHigh": 2598,
      "ouncil": 2599,
      "Ġcamp": 2600,
      "ware": 2601,
      "Ġpair": 2602,
      "trans": 2603,
      "95": 2604,
      "rary": 2605,
      "ĠĠĠĠĠĠ": 2606,
      "/\\": 2607,
      "Ġq": 2608,
      "Ġhigher": 2609,
      "ured": 2610,
      "Ġfeatures": 2611,
      "ĠApp": 2612,
      "iber": 2613,
      "ĠSer": 2614,
      "Ġsepar": 2615,
      "cont": 2616,
      "div": 2617,
      "38": 2618,
      "ĠMon": 2619,
      "}-": 2620,
      "ington": 2621,
      "ged": 2622,
      "Ġcountry": 2623,
      "Ġ``": 2624,
      "Ġbecome": 2625,
      "Ġcost": 2626,
      "65": 2627,
      "ĠChar": 2628,
      "Ġcirc": 2629,
      "{-": 2630,
      "Ġtemper": 2631,
      "most": 2632,
      "64": 2633,
      "orts": 2634,
      "cast": 2635,
      "Ġhaving": 2636,
      "ops": 2637,
      "Ġfoc": 2638,
      "bor": 2639,
      "If": 2640,
      "dd": 2641,
      "AC": 2642,
      "iet": 2643,
      "ĠĠĠĠĠĠĠĠĠ": 2644,
      "RE": 2645,
      "ĠĠĠĠĠĠĠĠĠĠĠĠĠĠĠĠĠĠĠĠĠĠĠĠĠĠĠĠĠĠĠĠ": 2646,
      "lin": 2647,
      "Ġcell": 2648,
      "zeta": 2649,
      "ĠHouse": 2650,
      "thm": 2651,
      "Ġflow": 2652,
      "ĠPres": 2653,
      "augh": 2654,
      "ĠAg": 2655,
      "Ġspecies": 2656,
      "Ġseen": 2657,
      "Ġtraining": 2658,
      "Ġcorresponding": 2659,
      "\\]": 2660,
      "Ġbuilding": 2661,
      "br": 2662,
      "add": 2663,
      "aut": 2664,
      "ĠWilliam": 2665,
      "andom": 2666,
      "style": 2667,
      "Ġconsist": 2668,
      "ĠHer": 2669,
      "prime": 2670,
      "2002": 2671,
      "ault": 2672,
      "ĠPark": 2673,
      "05": 2674,
      "estern": 2675,
      "2001": 2676,
      "arget": 2677,
      "Ġquest": 2678,
      "Ġconditions": 2679,
      "Ġhowever": 2680,
      "Ġprovide": 2681,
      "Ġannoun": 2682,
      "Ġver": 2683,
      "ilitary": 2684,
      "ha": 2685,
      "SS": 2686,
      "inter": 2687,
      "Ġresearch": 2688,
      "uture": 2689,
      "Ġfund": 2690,
      "Ġwritten": 2691,
      "gether": 2692,
      "Ġbetter": 2693,
      "Ġtogether": 2694,
      "Ġinitial": 2695,
      "Ġbi": 2696,
      "inary": 2697,
      "Ġcr": 2698,
      "ĠDep": 2699,
      "Ġcommunity": 2700,
      "ula": 2701,
      ")(": 2702,
      "ĠComp": 2703,
      "Ġgen": 2704,
      "ered": 2705,
      "Ġge": 2706,
      "Res": 2707,
      "cret": 2708,
      "Ġstyle": 2709,
      "01": 2710,
      "ĠLem": 2711,
      "ips": 2712,
      "ĠWith": 2713,
      "uggest": 2714,
      "ĠFrench": 2715,
      "Ġacross": 2716,
      "Ġhom": 2717,
      "lying": 2718,
      "hib": 2719,
      "Ġphase": 2720,
      "Ġprim": 2721,
      "Ġneg": 2722,
      "htt": 2723,
      "centering": 2724,
      "Ġcalcul": 2725,
      "Ġblack": 2726,
      "arian": 2727,
      "37": 2728,
      "ĠTheorem": 2729,
      "Ġevents": 2730,
      "ĠBro": 2731,
      "Ġsuper": 2732,
      "Ġconnect": 2733,
      "II": 2734,
      "iven": 2735,
      "ĠQu": 2736,
      "ams": 2737,
      "omorph": 2738,
      "\\{": 2739,
      "ĠGl": 2740,
      "Ġplayer": 2741,
      ")=\\": 2742,
      "Ġear": 2743,
      "Ġplan": 2744,
      "pper": 2745,
      "Ġcentury": 2746,
      "head": 2747,
      "}+": 2748,
      "avy": 2749,
      "ĠAng": 2750,
      "icy": 2751,
      "Ġloss": 2752,
      "acy": 2753,
      "Ġeither": 2754,
      "Ġtw": 2755,
      "Ġbelow": 2756,
      "alt": 2757,
      "Ġdimens": 2758,
      "lete": 2759,
      "Ġproof": 2760,
      "Ġfrequ": 2761,
      "ards": 2762,
      "ext": 2763,
      "Ġwid": 2764,
      "ception": 2765,
      "ridge": 2766,
      "Ġpath": 2767,
      "uf": 2768,
      "Ġserved": 2769,
      "Ġpositive": 2770,
      "ogn": 2771,
      "Ġsem": 2772,
      "alle": 2773,
      "ĠPer": 2774,
      "Ġborn": 2775,
      "ems": 2776,
      "Ġabs": 2777,
      "Ġgroups": 2778,
      "ĠChe": 2779,
      "unic": 2780,
      "Ġdevelopment": 2781,
      "ĠChampionship": 2782,
      "based": 2783,
      "ription": 2784,
      "Ġcult": 2785,
      "Ġmatch": 2786,
      "Ġtrue": 2787,
      "Ġport": 2788,
      "Ġmillion": 2789,
      "duc": 2790,
      "Ġsite": 2791,
      "Ġarm": 2792,
      "ĠWhen": 2793,
      "ournal": 2794,
      "Ġyoung": 2795,
      "Ġmeans": 2796,
      "aries": 2797,
      "ĠâĢĺ": 2798,
      "oon": 2799,
      "Ġthus": 2800,
      "Ġcy": 2801,
      "Ġthink": 2802,
      "Ġ($": 2803,
      "const": 2804,
      "tabular": 2805,
      "isc": 2806,
      "ĠHam": 2807,
      "rant": 2808,
      "ĠEq": 2809,
      "ving": 2810,
      "Ġsuggest": 2811,
      "44": 2812,
      "Ġlay": 2813,
      "Ġkey": 2814,
      "Ġweek": 2815,
      "anish": 2816,
      "attle": 2817,
      "BC": 2818,
      "Ġreview": 2819,
      "ĠInternational": 2820,
      "ĠPhil": 2821,
      "ĠRec": 2822,
      "ĠDistrict": 2823,
      "Se": 2824,
      ";\\": 2825,
      "Ġassociated": 2826,
      "}=\\": 2827,
      "Ġproduction": 2828,
      "vironment": 2829,
      "max": 2830,
      "Ġkill": 2831,
      "Ġaccess": 2832,
      "ociety": 2833,
      "class": 2834,
      "],": 2835,
      "Ġtitle": 2836,
      "oted": 2837,
      "Ġhealth": 2838,
      "ĠGerman": 2839,
      "Ġdays": 2840,
      "script": 2841,
      "chan": 2842,
      "aff": 2843,
      "Ġtre": 2844,
      "ules": 2845,
      "ama": 2846,
      ")}\\": 2847,
      "Ġaccount": 2848,
      "Ġstory": 2849,
      "Ġhard": 2850,
      "apt": 2851,
      "Ġparameter": 2852,
      "lymp": 2853,
      ")^{": 2854,
      "Ġput": 2855,
      "ued": 2856,
      "fficient": 2857,
      "ara": 2858,
      "iforn": 2859,
      "Pl": 2860,
      "Ġvia": 2861,
      "ners": 2862,
      "Ġlik": 2863,
      "ĠSm": 2864,
      "Ġtoo": 2865,
      "Ġemploy": 2866,
      "Ġachie": 2867,
      "esc": 2868,
      "Ġhalf": 2869,
      "era": 2870,
      "Ġbecom": 2871,
      "Ġinc": 2872,
      "ilities": 2873,
      "ume": 2874,
      "Ġlinear": 2875,
      "ready": 2876,
      "55": 2877,
      "Ġdev": 2878,
      "Ar": 2879,
      "188": 2880,
      "scal": 2881,
      "Ġgive": 2882,
      "Ġdep": 2883,
      "--------": 2884,
      "Ġlines": 2885,
      "itect": 2886,
      "ĠMich": 2887,
      ",âĢĿ": 2888,
      "rig": 2889,
      "bb": 2890,
      "which": 2891,
      "OR": 2892,
      "Ġround": 2893,
      "itted": 2894,
      "Ġmater": 2895,
      "Ġtelevision": 2896,
      "();": 2897,
      "Ġsocial": 2898,
      "(\"": 2899,
      "sw": 2900,
      "Ġnever": 2901,
      "ĠSection": 2902,
      "ifornia": 2903,
      "top": 2904,
      "cos": 2905,
      "ett": 2906,
      "ociation": 2907,
      "ĠCup": 2908,
      "Ġdat": 2909,
      "ĠIndian": 2910,
      "Ġimage": 2911,
      "cle": 2912,
      "39": 2913,
      "AL": 2914,
      "Ġrandom": 2915,
      "Ġground": 2916,
      "Ġregular": 2917,
      "cy": 2918,
      "ibility": 2919,
      "{(": 2920,
      "Ġtaken": 2921,
      "Ġfinite": 2922,
      "Ġ&=": 2923,
      "eal": 2924,
      "Ġdou": 2925,
      "ending": 2926,
      "annel": 2927,
      "Ġable": 2928,
      "Ġsent": 2929,
      "Ġnov": 2930,
      "Ġsymmet": 2931,
      "Ã³": 2932,
      "sin": 2933,
      "Ġsource": 2934,
      "Ġvideo": 2935,
      "och": 2936,
      "Ġill": 2937,
      "exp": 2938,
      "Ġhost": 2939,
      "lands": 2940,
      "rite": 2941,
      "ĠStre": 2942,
      "Sh": 2943,
      "ĠAct": 2944,
      "ĠMore": 2945,
      "ĠEngland": 2946,
      "Ġvector": 2947,
      "Ġmaking": 2948,
      "Ġfail": 2949,
      "Ġang": 2950,
      "Ġdynam": 2951,
      "orge": 2952,
      "loc": 2953,
      "inated": 2954,
      "Ġcame": 2955,
      "Ġmiss": 2956,
      "Ġhuman": 2957,
      "Ġdied": 2958,
      "irm": 2959,
      "Ġlog": 2960,
      "Ġnumer": 2961,
      "ponse": 2962,
      ".~": 2963,
      "Ġtext": 2964,
      "Ġnorth": 2965,
      "Ġproduced": 2966,
      "Ġbehav": 2967,
      "ĠSince": 2968,
      "Ġclose": 2969,
      "hood": 2970,
      "Ġlength": 2971,
      "IC": 2972,
      "alax": 2973,
      "Ġfriend": 2974,
      "Ġmethods": 2975,
      "this": 2976,
      "ĠTra": 2977,
      "useum": 2978,
      "ached": 2979,
      "ulations": 2980,
      "Ġalways": 2981,
      "****": 2982,
      "Ġson": 2983,
      "igen": 2984,
      "oyal": 2985,
      "Ġstarted": 2986,
      "Ġcorre": 2987,
      "$)": 2988,
      "ump": 2989,
      "ĠCO": 2990,
      "minist": 2991,
      "omb": 2992,
      "Ġbase": 2993,
      "Ġnormal": 2994,
      "mon": 2995,
      "Ġproposed": 2996,
      "Ġfar": 2997,
      "}^\\": 2998,
      "cdots": 2999,
      "ĠAc": 3000,
      "Ġled": 3001,
      "ape": 3002,
      "Ġproperties": 3003,
      "Ġindust": 3004,
      "Ġoffer": 3005,
      "Ġmight": 3006,
      "Ġactiv": 3007,
      "ports": 3008,
      "49": 3009,
      "Ġhistor": 3010,
      "Ġobserved": 3011,
      "gebra": 3012,
      "mar": 3013,
      "Ġlate": 3014,
      "ĠCalifornia": 3015,
      "Ġinvestig": 3016,
      "ĠRiver": 3017,
      "ements": 3018,
      "pre": 3019,
      "hers": 3020,
      "Ġmer": 3021,
      "ĠAustralia": 3022,
      "Ġpress": 3023,
      "Ġmoment": 3024,
      "mid": 3025,
      "Ġcreated": 3026,
      "47": 3027,
      "ico": 3028,
      "Ġalready": 3029,
      "itions": 3030,
      "66": 3031,
      "Ġemb": 3032,
      "ĠIndia": 3033,
      "Ġsurface": 3034,
      "Ġservices": 3035,
      "Ġdire": 3036,
      "Ġreported": 3037,
      "medi": 3038,
      "oe": 3039,
      "Ġwind": 3040,
      "></": 3041,
      "ellow": 3042,
      "irl": 3043,
      "Ġmulti": 3044,
      "Ġdoc": 3045,
      "1999": 3046,
      "Ġstudents": 3047,
      "}\\,": 3048,
      "ĠDiv": 3049,
      "uild": 3050,
      "EN": 3051,
      "Ġengine": 3052,
      "rated": 3053,
      "plement": 3054,
      "ica": 3055,
      "}|": 3056,
      "Ġindependent": 3057,
      "Ġconc": 3058,
      "Ġsche": 3059,
      "gen": 3060,
      "Ġrequire": 3061,
      "Ġ_": 3062,
      "Ġrelated": 3063,
      "}_\\": 3064,
      "Ġestablish": 3065,
      "bsite": 3066,
      "olic": 3067,
      "Col": 3068,
      "hern": 3069,
      "sing": 3070,
      "Ġvillage": 3071,
      "Ind": 3072,
      "Ġfactor": 3073,
      "AM": 3074,
      "Ġmeet": 3075,
      "Ġsom": 3076,
      "Ġhapp": 3077,
      "param": 3078,
      "go": 3079,
      "Ġconstruct": 3080,
      "ivil": 3081,
      "Ġaway": 3082,
      "cis": 3083,
      "gress": 3084,
      "aches": 3085,
      "De": 3086,
      "itch": 3087,
      "itz": 3088,
      "Ġworking": 3089,
      "ÃŃ": 3090,
      "Ġcompar": 3091,
      "Ã¼": 3092,
      "ĠSo": 3093,
      "Ġbroad": 3094,
      "icro": 3095,
      "ville": 3096,
      "Ġfig": 3097,
      "Ġproperty": 3098,
      "ceed": 3099,
      "Ġgoing": 3100,
      "lemma": 3101,
      "widehat": 3102,
      "Ġsouth": 3103,
      "name": 3104,
      "ĠVal": 3105,
      "189": 3106,
      "ĠEast": 3107,
      "Ġwent": 3108,
      "ordin": 3109,
      "oney": 3110,
      "van": 3111,
      "Ġequival": 3112,
      "ĠRepublic": 3113,
      "test": 3114,
      "aves": 3115,
      "1990": 3116,
      "ander": 3117,
      "inn": 3118,
      "Ġlo": 3119,
      "ĠFirst": 3120,
      "Ġrat": 3121,
      "ĠAmerica": 3122,
      "ills": 3123,
      "IS": 3124,
      "tee": 3125,
      "hy": 3126,
      "ael": 3127,
      "Ġdegree": 3128,
      "Ġannounced": 3129,
      "Ġinput": 3130,
      "ĠDr": 3131,
      "Ġbelie": 3132,
      "}}(": 3133,
      "qquad": 3134,
      "Ġfuture": 3135,
      "ota": 3136,
      "alse": 3137,
      "opy": 3138,
      ",\"": 3139,
      "Ġsimple": 3140,
      "earch": 3141,
      "ĠBer": 3142,
      "Living": 3143,
      "Ġexists": 3144,
      "iding": 3145,
      "Ġdefine": 3146,
      "Ġeconom": 3147,
      "wise": 3148,
      "Ġunit": 3149,
      "&=": 3150,
      "ship": 3151,
      "ĠTr": 3152,
      "})\\": 3153,
      "Ġpredict": 3154,
      "cell": 3155,
      "ĠCour": 3156,
      "Ġagre": 3157,
      "foot": 3158,
      "kn": 3159,
      "ĠSim": 3160,
      "Ġ\\{": 3161,
      "ĠMy": 3162,
      "Ġaccording": 3163,
      "âĢ¦": 3164,
      "oms": 3165,
      "Ġzero": 3166,
      "Ġlarger": 3167,
      "Ġprovided": 3168,
      "spec": 3169,
      "Ġelements": 3170,
      "izing": 3171,
      "Ġrequired": 3172,
      "td": 3173,
      "List": 3174,
      "la": 3175,
      "Ġerror": 3176,
      "Ġclos": 3177,
      "edd": 3178,
      "People": 3179,
      "iddle": 3180,
      "source": 3181,
      "atives": 3182,
      "ulated": 3183,
      "ĠStud": 3184,
      "Ġcoupl": 3185,
      "cup": 3186,
      "Ġtrack": 3187,
      "Ġcertain": 3188,
      "}]": 3189,
      "textwidth": 3190,
      "Ġfather": 3191,
      "Ġmoved": 3192,
      "Psi": 3193,
      "ache": 3194,
      "Ġexpected": 3195,
      "Ġothers": 3196,
      "Ġbig": 3197,
      "Ġparticip": 3198,
      "gl": 3199,
      "Ġsett": 3200,
      "ension": 3201,
      "ĠPresident": 3202,
      "iting": 3203,
      "king": 3204,
      "><": 3205,
      "^+": 3206,
      "Ġsold": 3207,
      "Ġfem": 3208,
      "IT": 3209,
      "aps": 3210,
      "oor": 3211,
      "{{\\": 3212,
      "ĠFrom": 3213,
      "ults": 3214,
      "1998": 3215,
      "Ġtreat": 3216,
      "ili": 3217,
      "istics": 3218,
      "Ġattack": 3219,
      "Ġexperiment": 3220,
      "Ġlear": 3221,
      "Ġmarket": 3222,
      "Ġbo": 3223,
      "comp": 3224,
      "ream": 3225,
      "Ġnatural": 3226,
      "EC": 3227,
      "ĠÂ": 3228,
      "Ġbegin": 3229,
      "year": 3230,
      "allel": 3231,
      "point": 3232,
      "ĠFigure": 3233,
      "Ġanaly": 3234,
      "like": 3235,
      "nder": 3236,
      "lied": 3237,
      "Ġinflu": 3238,
      "ĠParty": 3239,
      "Ġdefinition": 3240,
      "Ġprop": 3241,
      "08": 3242,
      "Ġwhose": 3243,
      "Ġepis": 3244,
      "Ġdistance": 3245,
      "ccording": 3246,
      "ires": 3247,
      "Ġcompos": 3248,
      "ĠHol": 3249,
      "elling": 3250,
      "46": 3251,
      "uel": 3252,
      "Ġcut": 3253,
      "Ġlabel": 3254,
      "Ġclust": 3255,
      "Ġperm": 3256,
      "New": 3257,
      "Ġadditional": 3258,
      "html": 3259,
      "Ġfixed": 3260,
      "Ġdetect": 3261,
      "ES": 3262,
      "Ġcompan": 3263,
      "down": 3264,
      "There": 3265,
      "Ġexact": 3266,
      "ĠBel": 3267,
      "appro": 3268,
      "pons": 3269,
      "Ġdistrict": 3270,
      "}^{(": 3271,
      "quare": 3272,
      "AA": 3273,
      "Ġsequence": 3274,
      "leg": 3275,
      "Ġinternational": 3276,
      "Ġprivate": 3277,
      "itting": 3278,
      "Ġtemperature": 3279,
      "Ġtarget": 3280,
      "tex": 3281,
      "adian": 3282,
      "ky": 3283,
      "band": 3284,
      "Ġpopular": 3285,
      "Ġelement": 3286,
      "Ġprobability": 3287,
      "que": 3288,
      "Ġenough": 3289,
      "Ġpolitical": 3290,
      "ĠMor": 3291,
      "vey": 3292,
      ",-": 3293,
      "sl": 3294,
      "ĠMark": 3295,
      "ounter": 3296,
      "Ġpay": 3297,
      "Ġscale": 3298,
      "07": 3299,
      "Ġrather": 3300,
      "Ġcome": 3301,
      "ĠCouncil": 3302,
      "ĠAward": 3303,
      "Ġmale": 3304,
      "ĠAnt": 3305,
      "ĠPort": 3306,
      "Ġonce": 3307,
      "oud": 3308,
      "ids": 3309,
      "Ġpur": 3310,
      "atory": 3311,
      "Ġbody": 3312,
      "atrix": 3313,
      "ĠServ": 3314,
      "06": 3315,
      "stitute": 3316,
      "Ġdeaths": 3317,
      "Ġconstruction": 3318,
      "ĠEuropean": 3319,
      "acc": 3320,
      "Ġeval": 3321,
      "Ġaward": 3322,
      "ele": 3323,
      "Ġperformed": 3324,
      "Ġdeveloped": 3325,
      "raint": 3326,
      "raction": 3327,
      "uration": 3328,
      "ĠCanada": 3329,
      "ked": 3330,
      "Ġimpl": 3331,
      "ED": 3332,
      "Ġdest": 3333,
      "Ġattempt": 3334,
      "ullet": 3335,
      "Ġexec": 3336,
      "type": 3337,
      "ĠLemma": 3338,
      "Ġmem": 3339,
      "Ġneigh": 3340,
      "Ġcentral": 3341,
      "Ġsens": 3342,
      "Ġpast": 3343,
      "Ġpan": 3344,
      "Ġliter": 3345,
      "../../": 3346,
      "Ġquantum": 3347,
      "Le": 3348,
      "Ġ$(\\": 3349,
      "Ġgives": 3350,
      "ĠDes": 3351,
      "ensive": 3352,
      "ĠOlymp": 3353,
      "History": 3354,
      "berg": 3355,
      "Ġalmost": 3356,
      "78": 3357,
      "Ġnecess": 3358,
      "Ġcontains": 3359,
      ")]": 3360,
      "Ġ*/": 3361,
      "Ġreason": 3362,
      "At": 3363,
      "Ġareas": 3364,
      "Ġspin": 3365,
      "ĠPaul": 3366,
      "ained": 3367,
      "small": 3368,
      "Ġfocus": 3369,
      "Ġlearning": 3370,
      "ĠFrance": 3371,
      "Ġleading": 3372,
      "ĠPal": 3373,
      "AP": 3374,
      "ĠDem": 3375,
      "}\\\\": 3376,
      "ĠStreet": 3377,
      "ĠJames": 3378,
      "Ġtradition": 3379,
      "racy": 3380,
      "artment": 3381,
      "icles": 3382,
      "Ġeffects": 3383,
      "Ġentire": 3384,
      "After": 3385,
      "Ġlanguage": 3386,
      "Ġrank": 3387,
      "andid": 3388,
      "ocr": 3389,
      "icol": 3390,
      "astic": 3391,
      "ĠRober": 3392,
      "Ġassume": 3393,
      "alls": 3394,
      "ĠChurch": 3395,
      "ountain": 3396,
      "icult": 3397,
      "ĠMal": 3398,
      "gcolor": 3399,
      "rim": 3400,
      "ites": 3401,
      "Ġstep": 3402,
      "'$": 3403,
      "irt": 3404,
      "04": 3405,
      "Ġlittle": 3406,
      "more": 3407,
      "orthern": 3408,
      "rote": 3409,
      "pdf": 3410,
      "ĠGeneral": 3411,
      "09": 3412,
      "ends": 3413,
      "Ġoperator": 3414,
      "ĠPat": 3415,
      "ĠRed": 3416,
      "Ġcateg": 3417,
      "ĠThom": 3418,
      "ĠArmy": 3419,
      "prop": 3420,
      "02": 3421,
      "den": 3422,
      "ĠThat": 3423,
      "Ġcle": 3424,
      "onic": 3425,
      "Sc": 3426,
      "Ġsays": 3427,
      "my": 3428,
      "1996": 3429,
      "bert": 3430,
      "imate": 3431,
      "ura": 3432,
      "Ġelection": 3433,
      "ĠFl": 3434,
      "Ġmultiple": 3435,
      "ĠPe": 3436,
      "ĠIm": 3437,
      "Ġnode": 3438,
      "aign": 3439,
      "Be": 3440,
      "1997": 3441,
      "Ġgalax": 3442,
      "ĠDavid": 3443,
      "citet": 3444,
      "mathsf": 3445,
      "inf": 3446,
      "ĠSen": 3447,
      "Ġhor": 3448,
      "Ġtaking": 3449,
      "Ġrecogn": 3450,
      "Ġinstead": 3451,
      "Ġlive": 3452,
      "Ġworked": 3453,
      "sel": 3454,
      "Ġroad": 3455,
      "rr": 3456,
      "Ġmechan": 3457,
      "Ġcomplete": 3458,
      "ya": 3459,
      "arc": 3460,
      "ĠMa": 3461,
      "ĠLaw": 3462,
      "68": 3463,
      "Ġimplement": 3464,
      "Ġclosed": 3465,
      ")-": 3466,
      "1980": 3467,
      "}+\\": 3468,
      "ste": 3469,
      "Ġcontract": 3470,
      "Ġspecific": 3471,
      "ĠCenter": 3472,
      "ago": 3473,
      "Ġkeep": 3474,
      "({\\": 3475,
      "Ġboundary": 3476,
      "Ġunderstand": 3477,
      "Ġdiag": 3478,
      "Ġtry": 3479,
      "ains": 3480,
      "Ġwhether": 3481,
      "ani": 3482,
      "Ġstars": 3483,
      "Ġintroduced": 3484,
      "tact": 3485,
      "uff": 3486,
      "Ġbgcolor": 3487,
      "ĠDi": 3488,
      "ortun": 3489,
      "atively": 3490,
      "Ġpresented": 3491,
      "77": 3492,
      "equiv": 3493,
      "ĠThus": 3494,
      "iform": 3495,
      "Ġfields": 3496,
      "star": 3497,
      "Ġmid": 3498,
      "Ġclear": 3499,
      "fill": 3500,
      "Ġtherefore": 3501,
      "Ġviol": 3502,
      "utive": 3503,
      "Ġ&\\": 3504,
      "Ġweight": 3505,
      "58": 3506,
      "Ġbackground": 3507,
      "03": 3508,
      "ĠRich": 3509,
      "ression": 3510,
      "ened": 3511,
      "ken": 3512,
      "ustom": 3513,
      "thern": 3514,
      "ĠGroup": 3515,
      "dimens": 3516,
      "CO": 3517,
      "wood": 3518,
      "Ġarchitect": 3519,
      "Ġhref": 3520,
      "Ġwebsite": 3521,
      "||": 3522,
      "ĠChina": 3523,
      "ores": 3524,
      "Ġsubject": 3525,
      "arily": 3526,
      "ranch": 3527,
      "ĠQue": 3528,
      "Ġoccur": 3529,
      "Ġcompared": 3530,
      "Ġchanges": 3531,
      "Ġdone": 3532,
      "mark": 3533,
      "iers": 3534,
      "operat": 3535,
      "Ġarr": 3536,
      "hspace": 3537,
      "ĠBlack": 3538,
      "Ġgas": 3539,
      "ka": 3540,
      "umbers": 3541,
      "ĠSum": 3542,
      "Ġmag": 3543,
      "ming": 3544,
      "oul": 3545,
      "ĠRoman": 3546,
      "Ġequations": 3547,
      "known": 3548,
      "Ġsound": 3549,
      "uit": 3550,
      "Ġenvironment": 3551,
      "operatorn": 3552,
      "skip": 3553,
      "message": 3554,
      "Ġlost": 3555,
      "riate": 3556,
      "Ġblock": 3557,
      "asons": 3558,
      "ĠGeorge": 3559,
      "ĠBra": 3560,
      "ĠTrans": 3561,
      "ariant": 3562,
      "ender": 3563,
      "Ġsoft": 3564,
      "size": 3565,
      "outhern": 3566,
      "Ġpresident": 3567,
      "ĠAssociation": 3568,
      "xspace": 3569,
      "ario": 3570,
      "Ġprior": 3571,
      "scr": 3572,
      "Ġincludes": 3573,
      "ĠEm": 3574,
      "ooth": 3575,
      "han": 3576,
      "ĠĠĠĠĠĠĠĠĠĠĠĠĠĠĠĠĠĠĠ": 3577,
      "Ġpolitic": 3578,
      "}:": 3579,
      "Ġbreak": 3580,
      "Ġlearn": 3581,
      "operatorname": 3582,
      "pol": 3583,
      "====": 3584,
      "Ġparty": 3585,
      "Ad": 3586,
      "Ġsample": 3587,
      "1995": 3588,
      "Ġincrease": 3589,
      "Ġdenote": 3590,
      "thing": 3591,
      "ilton": 3592,
      "Ġadded": 3593,
      "indent": 3594,
      "42": 3595,
      "pite": 3596,
      "Ġmilitary": 3597,
      "ĠMod": 3598,
      "Ġcorrel": 3599,
      "Ġeffective": 3600,
      "Ġrac": 3601,
      "Ġappoint": 3602,
      "Ġgoal": 3603,
      "ĠÃ": 3604,
      "Ġrelease": 3605,
      "ishing": 3606,
      "Ġlaun": 3607,
      "Ġstudies": 3608,
      ".)": 3609,
      "Ġmedia": 3610,
      "rian": 3611,
      "Ġsolutions": 3612,
      "alian": 3613,
      "Ġstrateg": 3614,
      "With": 3615,
      "Ġcannot": 3616,
      "ida": 3617,
      "eff": 3618,
      "Ġprinc": 3619,
      "code": 3620,
      "ĠDepartment": 3621,
      "Ġedge": 3622,
      "value": 3623,
      "Ġmonths": 3624,
      "ĠUK": 3625,
      "67": 3626,
      "ĠHall": 3627,
      "Ġglobal": 3628,
      "Ġcourse": 3629,
      "ying": 3630,
      "ledge": 3631,
      "isk": 3632,
      "onal": 3633,
      "aged": 3634,
      "ĠGo": 3635,
      "Ġconduct": 3636,
      "neq": 3637,
      "ipal": 3638,
      ")}{": 3639,
      "Ġsets": 3640,
      "}}{\\": 3641,
      "Ã¶": 3642,
      "node": 3643,
      "pa": 3644,
      "load": 3645,
      "Ġcapt": 3646,
      "uz": 3647,
      "state": 3648,
      "Ġbasis": 3649,
      "Int": 3650,
      "Ge": 3651,
      "Ġrespons": 3652,
      "Ġmakes": 3653,
      "ittee": 3654,
      "ashington": 3655,
      "ston": 3656,
      "Ġstage": 3657,
      "reek": 3658,
      "}-\\": 3659,
      "Ġholds": 3660,
      "eloc": 3661,
      "Ġreally": 3662,
      "Ġchall": 3663,
      "CC": 3664,
      "note": 3665,
      "tic": 3666,
      "|^": 3667,
      "ĠCourt": 3668,
      "Ġtransfer": 3669,
      "500": 3670,
      "edge": 3671,
      "Ġcenter": 3672,
      "Ġdirection": 3673,
      "Name": 3674,
      "Ġaddress": 3675,
      "Ġwrote": 3676,
      "volution": 3677,
      "pot": 3678,
      "Ġteams": 3679,
      "itude": 3680,
      "98": 3681,
      "ands": 3682,
      "ini": 3683,
      "All": 3684,
      "Ġsuccessful": 3685,
      "ĠDivision": 3686,
      "hel": 3687,
      "rast": 3688,
      "ĠRoyal": 3689,
      "rd": 3690,
      "icture": 3691,
      "Ġeffic": 3692,
      "ĠTV": 3693,
      "ully": 3694,
      "57": 3695,
      "Ġeducation": 3696,
      "Ġdifficult": 3697,
      "theorem": 3698,
      "MS": 3699,
      "Ġnovel": 3700,
      "Ġfront": 3701,
      "lier": 3702,
      "ades": 3703,
      "1992": 3704,
      "group": 3705,
      "aring": 3706,
      "Ġcompanies": 3707,
      "Ġgot": 3708,
      "1994": 3709,
      "Type": 3710,
      "Ġgradu": 3711,
      "ĠDon": 3712,
      "Ġvert": 3713,
      "actions": 3714,
      "ows": 3715,
      "ctors": 3716,
      "Ġreturned": 3717,
      "Ġindividual": 3718,
      "Ġcode": 3719,
      "Id": 3720,
      "Ġmatter": 3721,
      "Ġprovides": 3722,
      "verse": 3723,
      "ĠLou": 3724,
      "Ġdirector": 3725,
      "ottom": 3726,
      "cing": 3727,
      "curity": 3728,
      "Since": 3729,
      "')": 3730,
      "Ġ-\\": 3731,
      "igned": 3732,
      "Ġsup": 3733,
      "scale": 3734,
      "ises": 3735,
      "OS": 3736,
      "Ġregard": 3737,
      "ĠAustralian": 3738,
      "Ġcandid": 3739,
      "rab": 3740,
      "unn": 3741,
      "Ġalthough": 3742,
      "Ġdemon": 3743,
      "Ġfil": 3744,
      "ĠGermany": 3745,
      "ĠMart": 3746,
      "From": 3747,
      "Ġquestion": 3748,
      "rame": 3749,
      "Ġmar": 3750,
      "Ġjoined": 3751,
      "ĠList": 3752,
      "Ġnote": 3753,
      "Ġprofessional": 3754,
      "Ġmarried": 3755,
      "Ġamount": 3756,
      "\\,\\": 3757,
      "43": 3758,
      "eared": 3759,
      "umerate": 3760,
      "Ġinj": 3761,
      "ĠBay": 3762,
      "Ġrail": 3763,
      "Ġhon": 3764,
      "Ġweak": 3765,
      "Ġdecl": 3766,
      "US": 3767,
      "unt": 3768,
      "Ġcheck": 3769,
      "('": 3770,
      "Ġaccept": 3771,
      "ĠInter": 3772,
      "ĠNor": 3773,
      "ĠUnion": 3774,
      "And": 3775,
      "Ġmetric": 3776,
      "Ġfav": 3777,
      "izes": 3778,
      "www": 3779,
      "ply": 3780,
      "ĠCons": 3781,
      "Ġkm": 3782,
      "Ġdifference": 3783,
      "cial": 3784,
      "Ġradio": 3785,
      "__": 3786,
      "Ġvict": 3787,
      "ĠBr": 3788,
      "nes": 3789,
      "ething": 3790,
      "ĠRoad": 3791,
      "dimensional": 3792,
      "Ġdeal": 3793,
      "Ġste": 3794,
      "Ġimpact": 3795,
      "Ġimages": 3796,
      "]\\": 3797,
      "ĠCont": 3798,
      "ibrary": 3799,
      "Ġequal": 3800,
      "Ġresponse": 3801,
      "41": 3802,
      "can": 3803,
      "Ġten": 3804,
      "Ġimplies": 3805,
      "Ġdatas": 3806,
      "Sp": 3807,
      "Ġrelationship": 3808,
      "fin": 3809,
      "Ġaud": 3810,
      "ederal": 3811,
      "Ġtransform": 3812,
      "enumerate": 3813,
      "opp": 3814,
      "Ġsaf": 3815,
      "Ġdefe": 3816,
      "Te": 3817,
      "PS": 3818,
      "Ġveloc": 3819,
      "Ġphysical": 3820,
      "nce": 3821,
      "56": 3822,
      "1970": 3823,
      "Ġpers": 3824,
      "Ġprove": 3825,
      "Ġparts": 3826,
      "Ġtakes": 3827,
      "LE": 3828,
      "Ġproblems": 3829,
      "omorphism": 3830,
      "ios": 3831,
      "ĠInstitute": 3832,
      "Ġelse": 3833,
      "that": 3834,
      "pecially": 3835,
      "aching": 3836,
      "opl": 3837,
      "ĠMusic": 3838,
      "Ġflu": 3839,
      "dag": 3840,
      "function": 3841,
      "pped": 3842,
      "Ġconver": 3843,
      "ĠSing": 3844,
      "Ġgre": 3845,
      "Ġcontext": 3846,
      "59": 3847,
      "Ġrestrict": 3848,
      "1993": 3849,
      "Ġcontinued": 3850,
      "Ġkind": 3851,
      "ously": 3852,
      "light": 3853,
      "Ġqual": 3854,
      "map": 3855,
      "Ġcreate": 3856,
      "atal": 3857,
      "import": 3858,
      "arter": 3859,
      ")}$": 3860,
      "){": 3861,
      "Ġupd": 3862,
      "Ġwhite": 3863,
      "Ġunique": 3864,
      "Ġnight": 3865,
      "DE": 3866,
      "Ġupper": 3867,
      "bullet": 3868,
      "board": 3869,
      "Ġdirectly": 3870,
      "Ġaffect": 3871,
      "Ġadj": 3872,
      "Ġsongs": 3873,
      "Ġcoe": 3874,
      "ĠDo": 3875,
      "ker": 3876,
      "Ġfram": 3877,
      "Ġcontent": 3878,
      "Ġoffice": 3879,
      "Ġconstraint": 3880,
      "itemize": 3881,
      "Im": 3882,
      "ean": 3883,
      "estival": 3884,
      "Ġalgebra": 3885,
      "ĠMary": 3886,
      "Ġopened": 3887,
      "ĠSociety": 3888,
      "Ġdiscover": 3889,
      "Ġincreasing": 3890,
      "Ġrace": 3891,
      "ĠDuring": 3892,
      "change": 3893,
      "hi": 3894,
      "Ġpaint": 3895,
      "ĠVir": 3896,
      "Ġsources": 3897,
      "Ġlargest": 3898,
      "ĠGreen": 3899,
      "ĠWhile": 3900,
      "asc": 3901,
      "Ġassist": 3902,
      "Ġhtt": 3903,
      "Ġdebut": 3904,
      "Ġwords": 3905,
      "Ġbecomes": 3906,
      "ĠWashington": 3907,
      "Ġonline": 3908,
      "osen": 3909,
      "rate": 3910,
      "Ġbene": 3911,
      "mathscr": 3912,
      "ĠAcadem": 3913,
      "Ġexperience": 3914,
      "Ġcomponent": 3915,
      "ona": 3916,
      "Ġparent": 3917,
      "ĠCompany": 3918,
      "Ġindu": 3919,
      "bre": 3920,
      "$}": 3921,
      "noindent": 3922,
      "Ġnumbers": 3923,
      "inese": 3924,
      "asket": 3925,
      "atform": 3926,
      "Ġitself": 3927,
      "sup": 3928,
      "ĠInt": 3929,
      "Ġupon": 3930,
      "mit": 3931,
      "ĠDef": 3932,
      "iences": 3933,
      "Ġreve": 3934,
      "Ġess": 3935,
      "Ġdaugh": 3936,
      "Ġlove": 3937,
      "Ġformed": 3938,
      "Ġsmaller": 3939,
      "clusion": 3940,
      "Ġdocument": 3941,
      "bound": 3942,
      "ĠIsland": 3943,
      "Ġacqu": 3944,
      "istry": 3945,
      "Ġcampaign": 3946,
      "ĠClub": 3947,
      "Ġcomponents": 3948,
      "Ġrecorded": 3949,
      "edy": 3950,
      "1991": 3951,
      "Ġrelation": 3952,
      "Ġmagnetic": 3953,
      "Ġdepart": 3954,
      "Ġdesigned": 3955,
      "rule": 3956,
      "Ġcompleted": 3957,
      "ospital": 3958,
      "Ġmention": 3959,
      "Ġevolution": 3960,
      "Ġ~": 3961,
      "iments": 3962,
      "oring": 3963,
      "uses": 3964,
      "Ġbrother": 3965,
      "anks": 3966,
      "Ġmaximum": 3967,
      "Ġchurch": 3968,
      "ĠMex": 3969,
      "ĠVol": 3970,
      "Wh": 3971,
      "CD": 3972,
      "umni": 3973,
      "Ġforce": 3974,
      "inde": 3975,
      "rec": 3976,
      "88": 3977,
      "Ġsignal": 3978,
      "Ġlikely": 3979,
      "Ġdirected": 3980,
      "itar": 3981,
      "Ġmodern": 3982,
      "ĉĊ": 3983,
      "Ġfire": 3984,
      "Ġever": 3985,
      "erve": 3986,
      "Ġoutput": 3987,
      "Ġrot": 3988,
      "Ġhimself": 3989,
      "Ġwave": 3990,
      "ĠPress": 3991,
      "Ġcoordin": 3992,
      "Ġscen": 3993,
      "Ġindex": 3994,
      "ental": 3995,
      "from": 3996,
      "\")": 3997,
      "Ġfight": 3998,
      "ĠGra": 3999,
      "Ġwrite": 4000,
      "ĠCap": 4001,
      "Ġut": 4002,
      "Ġadminist": 4003,
      "Ġvoc": 4004,
      "Ġthroughout": 4005,
      "Ġfollowed": 4006,
      "Ġmother": 4007,
      "Ġusually": 4008,
      "Ġpolicy": 4009,
      "Ġsearch": 4010,
      "Ġbar": 4011,
      "Ġinvolved": 4012,
      "\\}$": 4013,
      "burg": 4014,
      "Ġrepresentation": 4015,
      "/>": 4016,
      "ĠBest": 4017,
      "Ġyield": 4018,
      "Ġplaying": 4019,
      "Ġstri": 4020,
      "roy": 4021,
      "vspace": 4022,
      "Ġpeak": 4023,
      "hest": 4024,
      "ĠNews": 4025,
      "Ġnuc": 4026,
      "ĠSam": 4027,
      "Ġoutside": 4028,
      "encies": 4029,
      "ĠHen": 4030,
      "ĠArch": 4031,
      "ĠNot": 4032,
      "Val": 4033,
      "ĠMat": 4034,
      "ĠSur": 4035,
      "Ġtransition": 4036,
      "Ġwife": 4037,
      "Ġtheorem": 4038,
      "Ġexhib": 4039,
      "ava": 4040,
      "Ġoptim": 4041,
      "Ġtable": 4042,
      "Ġelectron": 4043,
      "~$": 4044,
      "gra": 4045,
      "Ġstring": 4046,
      "Ġcritical": 4047,
      "Ġofficial": 4048,
      "Ġremov": 4049,
      "ĠTown": 4050,
      "ros": 4051,
      "Ġmove": 4052,
      "alled": 4053,
      "Ġund": 4054,
      "Ġdig": 4055,
      "approx": 4056,
      "Ġliving": 4057,
      "book": 4058,
      "ils": 4059,
      "Ġtravel": 4060,
      "Ġgenerated": 4061,
      "ĠProv": 4062,
      "Ġespecially": 4063,
      "ĠMet": 4064,
      "ĠMiss": 4065,
      "ala": 4066,
      "Ġfeel": 4067,
      "When": 4068,
      "Ġ()": 4069,
      "Ġbox": 4070,
      "Ġboard": 4071,
      "Ġapplied": 4072,
      "ĠEar": 4073,
      "Ġjob": 4074,
      "}}_": 4075,
      "Ġren": 4076,
      "ĠGa": 4077,
      "level": 4078,
      "enced": 4079,
      "ĠAngel": 4080,
      "ĠOb": 4081,
      "iation": 4082,
      "Ġcolumn": 4083,
      "ĠTherefore": 4084,
      "ĠGames": 4085,
      "69": 4086,
      "Ġdecre": 4087,
      "ET": 4088,
      "ĠAfrica": 4089,
      "ĠLeg": 4090,
      "auge": 4091,
      "Ġissues": 4092,
      "liament": 4093,
      "refer": 4094,
      "ĠTex": 4095,
      "bour": 4096,
      "Ġthings": 4097,
      "ensus": 4098,
      "Pi": 4099,
      "fl": 4100,
      "Ġnews": 4101,
      "isions": 4102,
      "51": 4103,
      "Ġuses": 4104,
      "Ġdetails": 4105,
      "long": 4106,
      "ussian": 4107,
      "Ġneut": 4108,
      "(-": 4109,
      "inct": 4110,
      "Ġrow": 4111,
      "Ġactive": 4112,
      "=#": 4113,
      "overs": 4114,
      "ĠGold": 4115,
      "ĠAlex": 4116,
      "Ġestimate": 4117,
      "gs": 4118,
      "ĠWhite": 4119,
      "Ġsigned": 4120,
      "VID": 4121,
      "ilies": 4122,
      "aging": 4123,
      "Ġdraw": 4124,
      "olf": 4125,
      "ĠDay": 4126,
      "ĠÐ": 4127,
      "writ": 4128,
      "Ġstudied": 4129,
      "mary": 4130,
      "Ġ\\|": 4131,
      "Ġsus": 4132,
      "ki": 4133,
      "Ġtro": 4134,
      "Ġ_{": 4135,
      "izations": 4136,
      "Ġspectrum": 4137,
      "Ġpric": 4138,
      "Ġwhole": 4139,
      "ansion": 4140,
      "Ġchoice": 4141,
      "ĠScience": 4142,
      "Ġtowards": 4143,
      "ĠMr": 4144,
      "fit": 4145,
      "ĠYear": 4146,
      "Ġtoday": 4147,
      "Ġcolor": 4148,
      "isation": 4149,
      "Ġsil": 4150,
      "aur": 4151,
      "Ġbehind": 4152,
      "Ġsomething": 4153,
      "Ġuser": 4154,
      "Ġresid": 4155,
      "gence": 4156,
      "&&": 4157,
      "oz": 4158,
      "Bl": 4159,
      "Ġeight": 4160,
      "AD": 4161,
      "Ġcollection": 4162,
      "Ġprotect": 4163,
      "].": 4164,
      "Ġchannel": 4165,
      "fess": 4166,
      "otic": 4167,
      "Ġunits": 4168,
      "Ġhous": 4169,
      "Ġindustry": 4170,
      "Ġallows": 4171,
      "Ġdam": 4172,
      "Ġcurrently": 4173,
      "Ġspeed": 4174,
      "Ġschools": 4175,
      "ena": 4176,
      "Ġconne": 4177,
      ")+": 4178,
      "Ġrock": 4179,
      "ĠCanadian": 4180,
      "Ġunivers": 4181,
      "Ġtypes": 4182,
      "ingu": 4183,
      "Ġconfig": 4184,
      "Ġappeared": 4185,
      "Ġfood": 4186,
      "well": 4187,
      "Ġregions": 4188,
      "Ġrights": 4189,
      "76": 4190,
      "ancial": 4191,
      "One": 4192,
      "rish": 4193,
      "ĠMuseum": 4194,
      "ĠTur": 4195,
      "Ġaltern": 4196,
      "54": 4197,
      "km": 4198,
      "Ġsense": 4199,
      "return": 4200,
      "ĠMad": 4201,
      "rael": 4202,
      "ĠFre": 4203,
      "ĠRobert": 4204,
      "Ġdemonstr": 4205,
      "Ġtour": 4206,
      "dist": 4207,
      "52": 4208,
      "Ġcast": 4209,
      "ging": 4210,
      "Ġyet": 4211,
      "Ġcourt": 4212,
      "Ġimm": 4213,
      "79": 4214,
      "Ġfalse": 4215,
      "ĠMag": 4216,
      "ĠGreat": 4217,
      "tra": 4218,
      "Ġconnected": 4219,
      "Ġlot": 4220,
      "Ġremains": 4221,
      "Ġrequest": 4222,
      "ĠCentral": 4223,
      "Ġfall": 4224,
      "multicol": 4225,
      "ĠResearch": 4226,
      "ĠHow": 4227,
      "Ġface": 4228,
      "perp": 4229,
      "uments": 4230,
      "Ġ$-": 4231,
      "Ġfit": 4232,
      "Ġgave": 4233,
      "Ġop": 4234,
      "turb": 4235,
      "Ġsubsequ": 4236,
      "ĠCong": 4237,
      "Ġdetermined": 4238,
      "NN": 4239,
      "}}}": 4240,
      "ĠSl": 4241,
      "Ġbehavior": 4242,
      "usion": 4243,
      "Ġthought": 4244,
      "ĠJapanese": 4245,
      "Ġemer": 4246,
      "Ġter": 4247,
      "Ġpolice": 4248,
      "icit": 4249,
      "ria": 4250,
      "ĠAfrican": 4251,
      "Ġimmedi": 4252,
      "anning": 4253,
      "Ġissue": 4254,
      "Ġstructures": 4255,
      "ĠKingdom": 4256,
      "ffer": 4257,
      "Ġid": 4258,
      "Ġ=>": 4259,
      "String": 4260,
      "Ġeigen": 4261,
      "ĠDirect": 4262,
      "ĠJust": 4263,
      "Then": 4264,
      "ĠMichael": 4265,
      "multicolumn": 4266,
      "ĠMer": 4267,
      "ĠRad": 4268,
      "Ġnull": 4269,
      "ares": 4270,
      "1960": 4271,
      "Ġallowed": 4272,
      "ait": 4273,
      "IR": 4274,
      "Ġadapt": 4275,
      "Ġlocation": 4276,
      "Ġpercent": 4277,
      "using": 4278,
      "^-": 4279,
      "Ġvalid": 4280,
      "Mod": 4281,
      "Ġjud": 4282,
      "Ġmaterial": 4283,
      "ĠTable": 4284,
      "53": 4285,
      "stein": 4286,
      "ĠThomas": 4287,
      "Ġaccom": 4288,
      "atur": 4289,
      "Ġobjects": 4290,
      "1989": 4291,
      "ĠMac": 4292,
      "ĠĠĠĠĊ": 4293,
      "eline": 4294,
      "data": 4295,
      "Ġillust": 4296,
      "Ġequivalent": 4297,
      "pret": 4298,
      "oice": 4299,
      "Ġshall": 4300,
      "Ġratio": 4301,
      "acing": 4302,
      "ĠHistor": 4303,
      "ĠRussian": 4304,
      "ening": 4305,
      "Ġmoney": 4306,
      "Ġtax": 4307,
      "){\\": 4308,
      "uals": 4309,
      "Theta": 4310,
      "Ġsetting": 4311,
      "Ġcountries": 4312,
      "ynom": 4313,
      "Ġpersonal": 4314,
      "Ġcomes": 4315,
      "Ġdouble": 4316,
      "Ġpreviously": 4317,
      "Ġbirth": 4318,
      "asketball": 4319,
      "Ġbooks": 4320,
      "Ġvariables": 4321,
      "Ġpie": 4322,
      "Ġconstit": 4323,
      "Ġleaders": 4324,
      "Ġsupported": 4325,
      "Ġdeep": 4326,
      "split": 4327,
      "ĠGrand": 4328,
      "Ġwhy": 4329,
      "underline": 4330,
      "ĠOff": 4331,
      "aker": 4332,
      "Ġwidth": 4333,
      "ĠDan": 4334,
      "Ġord": 4335,
      "Ġneeded": 4336,
      "olar": 4337,
      "ĠScott": 4338,
      "\"/>": 4339,
      "Ġselected": 4340,
      "Ġcommunic": 4341,
      "ĠHealth": 4342,
      "Ġcharg": 4343,
      "ado": 4344,
      "ĠSystem": 4345,
      "ictor": 4346,
      "Ġpattern": 4347,
      "ĠClass": 4348,
      "ube": 4349,
      "ds": 4350,
      "IM": 4351,
      "linear": 4352,
      "Ġinstance": 4353,
      "ĠSal": 4354,
      "Ġcustom": 4355,
      "ĠWil": 4356,
      "ĠFilm": 4357,
      "Ġpack": 4358,
      "ducation": 4359,
      "ĠCath": 4360,
      "https": 4361,
      "Ġforces": 4362,
      "Ġtransport": 4363,
      "Ġevidence": 4364,
      "ĠTom": 4365,
      "Ġnom": 4366,
      "Ġstaff": 4367,
      "ocks": 4368,
      "ether": 4369,
      "antic": 4370,
      "Ġword": 4371,
      "Ġadm": 4372,
      "1988": 4373,
      "ought": 4374,
      "pan": 4375,
      "ols": 4376,
      "ye": 4377,
      "ĠOur": 4378,
      "Ġmonth": 4379,
      "Def": 4380,
      "Ġconclud": 4381,
      "Ġlevels": 4382,
      "Ġsurv": 4383,
      "Ġir": 4384,
      "96": 4385,
      "ensor": 4386,
      "ework": 4387,
      "Vert": 4388,
      "ĠFin": 4389,
      "ifying": 4390,
      "ĠTexas": 4391,
      "dro": 4392,
      "Ġdram": 4393,
      "translation": 4394,
      "Ġconcept": 4395,
      "Ġstreng": 4396,
      "Ġalbums": 4397,
      "FL": 4398,
      "inos": 4399,
      "range": 4400,
      "Ġprot": 4401,
      "selves": 4402,
      "Ġrunning": 4403,
      "Ġdomain": 4404,
      "unk": 4405,
      "Ġvelocity": 4406,
      "Ġgeomet": 4407,
      "{}": 4408,
      "RO": 4409,
      "Ġlonger": 4410,
      "Ġepisode": 4411,
      "ns": 4412,
      "Ġprimary": 4413,
      "Ġsex": 4414,
      "Ġfounded": 4415,
      "ĠSome": 4416,
      "72": 4417,
      "Ġmus": 4418,
      "ĠSub": 4419,
      "Ġ$\\{": 4420,
      "Ġplaces": 4421,
      "ĠWestern": 4422,
      "Ġ!": 4423,
      "Ġdecision": 4424,
      "Ġoperations": 4425,
      "ĠKore": 4426,
      "Ġrob": 4427,
      "Ġidea": 4428,
      "Cont": 4429,
      "Ġsimply": 4430,
      "azine": 4431,
      "ĠAcademy": 4432,
      "ĠNote": 4433,
      "ĠJew": 4434,
      "emic": 4435,
      "ĠGod": 4436,
      "Ġdark": 4437,
      "ĠDel": 4438,
      "Ġevalu": 4439,
      "FF": 4440,
      "Ġlimited": 4441,
      "}^{-": 4442,
      "va": 4443,
      "App": 4444,
      "Ġball": 4445,
      "ĠMinister": 4446,
      "ita": 4447,
      "Ġleague": 4448,
      "Is": 4449,
      "##": 4450,
      "embly": 4451,
      "acity": 4452,
      "Ġdate": 4453,
      "Ġcorrect": 4454,
      "textrm": 4455,
      "lease": 4456,
      "west": 4457,
      "Ġenter": 4458,
      "1987": 4459,
      "Ġclassical": 4460,
      "elt": 4461,
      "ĠItalian": 4462,
      "ano": 4463,
      "Ġfrequency": 4464,
      "thlet": 4465,
      "Ġactually": 4466,
      "ĠRecords": 4467,
      "Ġelected": 4468,
      "LL": 4469,
      "Ġgrad": 4470,
      "ĠTechn": 4471,
      "ĠZeal": 4472,
      "Ġquality": 4473,
      "Ġcharge": 4474,
      "Ġproced": 4475,
      "Note": 4476,
      "iew": 4477,
      "Ġrelative": 4478,
      "ĠCarol": 4479,
      "Ġseven": 4480,
      "ĠChinese": 4481,
      "ĠChristian": 4482,
      "Ġded": 4483,
      "Ġmach": 4484,
      "Ġarticle": 4485,
      "yr": 4486,
      "ĠVirgin": 4487,
      "}/": 4488,
      "Ġdaughter": 4489,
      "Ġtell": 4490,
      "Ġsaw": 4491,
      "ĠHere": 4492,
      "ĠSuper": 4493,
      "Ġsports": 4494,
      "Ġresulting": 4495,
      "Ġgrowth": 4496,
      "za": 4497,
      "rief": 4498,
      "Ġeast": 4499,
      "ager": 4500,
      "amily": 4501,
      "Par": 4502,
      "Ġwest": 4503,
      "Ġdimension": 4504,
      "Ġjournal": 4505,
      "win": 4506,
      "ln": 4507,
      "ĠRail": 4508,
      "ĠZealand": 4509,
      "ĠSpec": 4510,
      "Ġ\\;": 4511,
      "ira": 4512,
      "reland": 4513,
      "rial": 4514,
      "ollowing": 4515,
      "place": 4516,
      "Not": 4517,
      "Ġrepresented": 4518,
      "ĠFe": 4519,
      "abs": 4520,
      "Film": 4521,
      "Ġprec": 4522,
      "fect": 4523,
      "ĠLouis": 4524,
      "ometimes": 4525,
      "list": 4526,
      "minus": 4527,
      "reme": 4528,
      "Ġproducts": 4529,
      "Ġtrac": 4530,
      "ĠĠĠĠĠĠĠĠĠĠĠĠĠ": 4531,
      "tical": 4532,
      "Ġstated": 4533,
      "Ġappointed": 4534,
      "SP": 4535,
      "Ġadopt": 4536,
      "Ġrev": 4537,
      "Ġdeliver": 4538,
      "ĠDemocr": 4539,
      "Ġhol": 4540,
      "ĠFound": 4541,
      "ĠBo": 4542,
      "iny": 4543,
      "Ġpractice": 4544,
      "bon": 4545,
      "dt": 4546,
      "subseteq": 4547,
      "][": 4548,
      "airs": 4549,
      "Ġexpression": 4550,
      "yp": 4551,
      "bo": 4552,
      "norm": 4553,
      "Ġoverall": 4554,
      "Ġlatter": 4555,
      "Ġconcern": 4556,
      "Ġsufficient": 4557,
      "AB": 4558,
      "Ġveh": 4559,
      "ĠCharles": 4560,
      "Ġhours": 4561,
      "Ġcharacters": 4562,
      "Ġmaintain": 4563,
      "Ġuniform": 4564,
      "Ġwriting": 4565,
      "ĠPlay": 4566,
      "Ġearlier": 4567,
      "prod": 4568,
      "war": 4569,
      "63": 4570,
      "<\\": 4571,
      "atre": 4572,
      "lam": 4573,
      "Ġhot": 4574,
      "oma": 4575,
      "vant": 4576,
      "Ġfun": 4577,
      "Ġpresence": 4578,
      "olit": 4579,
      "etworks": 4580,
      "di": 4581,
      "Ġflux": 4582,
      "Ġextended": 4583,
      "Ġgenerally": 4584,
      "Ġderiv": 4585,
      "rought": 4586,
      "ĠSummer": 4587,
      "taint": 4588,
      "Ġnecessary": 4589,
      "ras": 4590,
      "Ġuncer": 4591,
      "Ġtask": 4592,
      "itter": 4593,
      "rey": 4594,
      "Ġinstit": 4595,
      "85": 4596,
      "Ġforward": 4597,
      "Ġincreased": 4598,
      "Ġax": 4599,
      "ĠRob": 4600,
      "Ġ:=": 4601,
      "anded": 4602,
      "ms": 4603,
      "ession": 4604,
      "ĠSmith": 4605,
      "Ġrelig": 4606,
      "ĠMus": 4607,
      "ĠTor": 4608,
      "97": 4609,
      "display": 4610,
      "Ġcontact": 4611,
      "Ġguitar": 4612,
      "Ġfootballers": 4613,
      "Ġ$|": 4614,
      "1986": 4615,
      "Ġtechnology": 4616,
      "ĠFore": 4617,
      "Ġappears": 4618,
      "Ġquick": 4619,
      "Ġreplaced": 4620,
      "Ġcoach": 4621,
      "Ġneeds": 4622,
      "ĠOther": 4623,
      "Ġinequ": 4624,
      "Ġlat": 4625,
      "Ġplatform": 4626,
      "ĠBill": 4627,
      "Ġstarting": 4628,
      "Ġplant": 4629,
      "ĠFrancis": 4630,
      "FA": 4631,
      "aper": 4632,
      "oto": 4633,
      "ĠLat": 4634,
      "Ġgovern": 4635,
      "FC": 4636,
      "Ġpage": 4637,
      "Ġlisted": 4638,
      "Ġstra": 4639,
      "bur": 4640,
      "Ġsmooth": 4641,
      "Ġnature": 4642,
      "What": 4643,
      "ĠHamilton": 4644,
      "62": 4645,
      "ĠFlor": 4646,
      "Ġreduced": 4647,
      "Qu": 4648,
      "Ġautom": 4649,
      "Ġkilled": 4650,
      "Ġbelong": 4651,
      "Ġgauge": 4652,
      "footnote": 4653,
      "1984": 4654,
      "ircraft": 4655,
      "pose": 4656,
      "Ġobservations": 4657,
      "ĠCommission": 4658,
      "osing": 4659,
      "ĠCOVID": 4660,
      "ĠOut": 4661,
      "ĠBen": 4662,
      "Eng": 4663,
      "Ġapplication": 4664,
      "Ġoperators": 4665,
      "Ġfigure": 4666,
      "Ġnoise": 4667,
      "Ġaim": 4668,
      "oplus": 4669,
      "^{-\\": 4670,
      "Ġalumni": 4671,
      "Ġbring": 4672,
      "Ġnegative": 4673,
      "Ã¤": 4674,
      "Ġknowledge": 4675,
      "ĠĠĠĊ": 4676,
      "Ġscore": 4677,
      "Ġpolynom": 4678,
      "Ġscient": 4679,
      "erman": 4680,
      "Ġcontinuous": 4681,
      "hire": 4682,
      "Ġfemale": 4683,
      "Ġinside": 4684,
      "Ġhence": 4685,
      "http": 4686,
      "Ġsen": 4687,
      "ĠKe": 4688,
      "roduction": 4689,
      "icago": 4690,
      "command": 4691,
      "Ġhighest": 4692,
      "texttt": 4693,
      "Ġgold": 4694,
      "road": 4695,
      "ĠWhat": 4696,
      "Ob": 4697,
      "ĠFootball": 4698,
      "Ġgrav": 4699,
      "ella": 4700,
      "Ġtree": 4701,
      "Ġcivil": 4702,
      "ĠOlympics": 4703,
      "ĠJose": 4704,
      "ellar": 4705,
      "Ġcred": 4706,
      "Ġforms": 4707,
      "itors": 4708,
      "cher": 4709,
      "bigg": 4710,
      "Ġseg": 4711,
      "roid": 4712,
      "ĠPublic": 4713,
      "Ġruns": 4714,
      "Ġfamilies": 4715,
      "ĠBur": 4716,
      "ĠHistory": 4717,
      "Ġslow": 4718,
      "Ġbuildings": 4719,
      "Ġinfin": 4720,
      "Ġinteraction": 4721,
      "_*": 4722,
      "ifold": 4723,
      "Ġtold": 4724,
      "61": 4725,
      "vention": 4726,
      "mes": 4727,
      "Ġ(-": 4728,
      "astern": 4729,
      "Ġbur": 4730,
      "1985": 4731,
      "ĠCD": 4732,
      "Ġcurve": 4733,
      "crete": 4734,
      "MA": 4735,
      "Ġhyper": 4736,
      "ĠMel": 4737,
      "ĠSecond": 4738,
      "Ġartists": 4739,
      "Ġ%": 4740,
      "ashed": 4741,
      "Ġorigin": 4742,
      "Ġdisplay": 4743,
      "ih": 4744,
      "ĠPeter": 4745,
      "xy": 4746,
      "Ġ&&": 4747,
      "_+": 4748,
      "setminus": 4749,
      "Ġapply": 4750,
      "Ġtreatment": 4751,
      "Ġcompact": 4752,
      "You": 4753,
      "Ġ($\\": 4754,
      "74": 4755,
      "arp": 4756,
      "ipl": 4757,
      "Ġeventually": 4758,
      "Ġsoon": 4759,
      "BS": 4760,
      "Ġwide": 4761,
      "Ġmanagement": 4762,
      "ĠHill": 4763,
      "ĠRichard": 4764,
      "oke": 4765,
      "dagger": 4766,
      "ogle": 4767,
      "Ġreveal": 4768,
      "Ġapproximately": 4769,
      "Ġscheme": 4770,
      "Ġoccup": 4771,
      "Ġclasses": 4772,
      "Ġtrain": 4773,
      "ĠDis": 4774,
      "eria": 4775,
      "Ġreached": 4776,
      "vis": 4777,
      "ĠNow": 4778,
      "Ġanim": 4779,
      "rie": 4780,
      "eds": 4781,
      "Ġcollect": 4782,
      "Ġchosen": 4783,
      "ĠParis": 4784,
      "Ġdiagram": 4785,
      "Ġfully": 4786,
      "Ġbr": 4787,
      "ĠMass": 4788,
      "FT": 4789,
      "Ġhit": 4790,
      "Or": 4791,
      "ola": 4792,
      "Ġdiscussed": 4793,
      "ĠSaint": 4794,
      "Ġrecently": 4795,
      ")|": 4796,
      "à¤": 4797,
      "Ġpressure": 4798,
      "Ġtherm": 4799,
      "Ġscreen": 4800,
      "}'": 4801,
      "Ġer": 4802,
      "Ġexpansion": 4803,
      "ĠSupp": 4804,
      "riz": 4805,
      "Ġfinished": 4806,
      "Ġshare": 4807,
      "Ġleads": 4808,
      "ĠAnn": 4809,
      "Ġrecover": 4810,
      "Ġderived": 4811,
      "wedge": 4812,
      "ĠIsrael": 4813,
      "ĠStar": 4814,
      "pers": 4815,
      "iance": 4816,
      "Ġreading": 4817,
      "73": 4818,
      "isl": 4819,
      "OT": 4820,
      "ĠOf": 4821,
      "Pr": 4822,
      "\\}": 4823,
      "ĠMont": 4824,
      "ua": 4825,
      "alo": 4826,
      "_{(": 4827,
      "Ġcontinue": 4828,
      "attice": 4829,
      "zil": 4830,
      "ĠAccording": 4831,
      "cel": 4832,
      "Ġreference": 4833,
      "Ġoperation": 4834,
      "Ġmotion": 4835,
      "BA": 4836,
      "Ġgirl": 4837,
      "Ġtourn": 4838,
      "stant": 4839,
      "Ġconsists": 4840,
      "Ġmissing": 4841,
      "Ġneighbor": 4842,
      "Ġemission": 4843,
      "Ġbounded": 4844,
      "Ġfourth": 4845,
      "Ġstations": 4846,
      "Ġpatients": 4847,
      "Ġanti": 4848,
      "Ġship": 4849,
      "Ġopportun": 4850,
      "Ġ$[": 4851,
      "Ġscience": 4852,
      "Ġvolume": 4853,
      "MC": 4854,
      "uge": 4855,
      "arts": 4856,
      "anned": 4857,
      "file": 4858,
      "Ġrule": 4859,
      "Ġoriginally": 4860,
      "fe": 4861,
      "osm": 4862,
      "Ġnorm": 4863,
      "come": 4864,
      "ĠCommun": 4865,
      "istan": 4866,
      "iral": 4867,
      "Ġexplicit": 4868,
      "SO": 4869,
      "ĠLos": 4870,
      "porary": 4871,
      "}},": 4872,
      "Ġbeginning": 4873,
      "rat": 4874,
      "ĠCamp": 4875,
      "igan": 4876,
      "Ġdise": 4877,
      "cles": 4878,
      "Ġcommer": 4879,
      "Ġplaced": 4880,
      "{$": 4881,
      "Ġconsum": 4882,
      "Ġsymmetry": 4883,
      "gent": 4884,
      "Ġusers": 4885,
      "SI": 4886,
      "aran": 4887,
      "ĠPo": 4888,
      "Ġmaps": 4889,
      "ĠFrank": 4890,
      "Ġcele": 4891,
      "Ġmeaning": 4892,
      "Ġprem": 4893,
      "iques": 4894,
      "Ġformation": 4895,
      "body": 4896,
      "NA": 4897,
      "ĠLake": 4898,
      "Ġattention": 4899,
      "ĠWomen": 4900,
      "olk": 4901,
      "Ġcapital": 4902,
      "Ġblue": 4903,
      "But": 4904,
      "Ġchem": 4905,
      "Data": 4906,
      "ĠVictor": 4907,
      "EE": 4908,
      "ĠIreland": 4909,
      "71": 4910,
      "Ġinterpret": 4911,
      "1983": 4912,
      "Ġmode": 4913,
      "uracy": 4914,
      "Ġvoid": 4915,
      "No": 4916,
      "linewidth": 4917,
      "Ġens": 4918,
      "ĠService": 4919,
      "Ġculture": 4920,
      "ufact": 4921,
      "det": 4922,
      "Ġnames": 4923,
      "Ġquite": 4924,
      "}}_{": 4925,
      "Ġpurch": 4926,
      "89": 4927,
      "1950": 4928,
      "TV": 4929,
      "Ġestimated": 4930,
      "SC": 4931,
      "Ð°": 4932,
      "Ġmechanism": 4933,
      "ĠDen": 4934,
      "Ġpanel": 4935,
      "rich": 4936,
      "cape": 4937,
      "Ġlack": 4938,
      "ĠDu": 4939,
      "flo": 4940,
      "ructure": 4941,
      "Ġvariable": 4942,
      "ĠBrown": 4943,
      "colon": 4944,
      "Ġrisk": 4945,
      "Ġdecided": 4946,
      "ĠGovernment": 4947,
      "path": 4948,
      "ĠOffic": 4949,
      "ĠBre": 4950,
      "ĠTw": 4951,
      "Ġparticularly": 4952,
      "inder": 4953,
      "Ġcam": 4954,
      "Ġroom": 4955,
      "Ġstatic": 4956,
      "Ð¾": 4957,
      "Ġ==": 4958,
      "Ġvariety": 4959,
      "Ġdu": 4960,
      "eks": 4961,
      "Ġinn": 4962,
      "1982": 4963,
      "Ġfarm": 4964,
      "udd": 4965,
      "ket": 4966,
      "rative": 4967,
      "Ġwoman": 4968,
      "ouri": 4969,
      "Ġnoted": 4970,
      "Ġfast": 4971,
      "ĠCatholic": 4972,
      "Ġchanged": 4973,
      "Ġsecurity": 4974,
      "Ġslight": 4975,
      "ĠRock": 4976,
      "Man": 4977,
      "300": 4978,
      "iring": 4979,
      "Ġconv": 4980,
      "Ġeasily": 4981,
      "Ġtalk": 4982,
      "Ġmunic": 4983,
      "vement": 4984,
      "anda": 4985,
      "ancy": 4986,
      "parallel": 4987,
      "Ġsamples": 4988,
      "Ġartist": 4989,
      "ĠSpanish": 4990,
      "Ġmanufact": 4991,
      "ette": 4992,
      "Ġscatter": 4993,
      "Ġcompetition": 4994,
      "Ġbrought": 4995,
      "Ġmedal": 4996,
      "Ġformula": 4997,
      "ĠTwo": 4998,
      "inger": 4999,
      "Ġansw": 5000,
      "Ġremaining": 5001,
      "Ġiter": 5002,
      "Ġgalaxies": 5003,
      "ĠUnder": 5004,
      "Ġdynamics": 5005,
      "Ġtraditional": 5006,
      "Ġconsequ": 5007,
      "error": 5008,
      "uls": 5009,
      "ilarly": 5010,
      "ĠTer": 5011,
      "Ġeasy": 5012,
      "Ġrules": 5013,
      "$_": 5014,
      "Ġagreement": 5015,
      "string": 5016,
      "mas": 5017,
      "Ġcounter": 5018,
      "vest": 5019,
      "ski": 5020,
      "ba": 5021,
      "aily": 5022,
      "special": 5023,
      "uthors": 5024,
      "Ġminutes": 5025,
      "ishes": 5026,
      "Ġcontribution": 5027,
      "),\\": 5028,
      "ockey": 5029,
      "model": 5030,
      "Now": 5031,
      "aval": 5032,
      "Ġseem": 5033,
      "Ġinteresting": 5034,
      "ĠIts": 5035,
      "pat": 5036,
      "....": 5037,
      "ĠPan": 5038,
      "Ġoppos": 5039,
      "Ġproduce": 5040,
      "Ġstay": 5041,
      "Ġlayer": 5042,
      "Ġmeasured": 5043,
      "inem": 5044,
      "do": 5045,
      "ĠLand": 5046,
      "Ã¨": 5047,
      "multi": 5048,
      "Ġminimum": 5049,
      "Ġhighly": 5050,
      "ollary": 5051,
      "Ġbank": 5052,
      ")\\,": 5053,
      "Ġwalk": 5054,
      "ĠPenn": 5055,
      "Ġpen": 5056,
      "nel": 5057,
      "otion": 5058,
      "Ġcontroll": 5059,
      "Ġidentity": 5060,
      "ariance": 5061,
      "Ġexcept": 5062,
      "ptions": 5063,
      "Ġplays": 5064,
      "ivial": 5065,
      "rence": 5066,
      "Ġessential": 5067,
      "urt": 5068,
      "ĠCommittee": 5069,
      "Ass": 5070,
      "Ġtrade": 5071,
      "ĠAlthough": 5072,
      "Ġbit": 5073,
      "Ġcategory": 5074,
      "dr": 5075,
      "Ġthemselves": 5076,
      "Ġmicro": 5077,
      "unc": 5078,
      "Ġelectric": 5079,
      "ban": 5080,
      "Ġcells": 5081,
      "Ġult": 5082,
      "Ġsquare": 5083,
      "Ġembedd": 5084,
      "ĠChicago": 5085,
      "Ġarbit": 5086,
      "Ġchalleng": 5087,
      "Ġchoose": 5088,
      "Ġpick": 5089,
      "Rec": 5090,
      "Ġsymbol": 5091,
      "ĠSeries": 5092,
      "Ġconserv": 5093,
      "1979": 5094,
      "Ġwriter": 5095,
      "inant": 5096,
      "idae": 5097,
      "ĠProposition": 5098,
      "Ġleader": 5099,
      "Ġfill": 5100,
      "ropy": 5101,
      "ulture": 5102,
      "Ġprogress": 5103,
      "Ġapplications": 5104,
      "ĠFurther": 5105,
      "eler": 5106,
      "Ġpark": 5107,
      "ĠPri": 5108,
      "She": 5109,
      "limits": 5110,
      "Ġexperiments": 5111,
      "Ġliterature": 5112,
      "Ġmovement": 5113,
      "Ġremained": 5114,
      "su": 5115,
      "MP": 5116,
      "utch": 5117,
      "Here": 5118,
      "agement": 5119,
      "Ġprocesses": 5120,
      "oviet": 5121,
      "Ġfactors": 5122,
      "Ġsituation": 5123,
      "Ġcoming": 5124,
      "ishop": 5125,
      "Ġcomparison": 5126,
      "cretary": 5127,
      "Set": 5128,
      "Ġavoid": 5129,
      "Ġcop": 5130,
      "velopment": 5131,
      "ĠAtl": 5132,
      "Ġparticles": 5133,
      "Ġsubset": 5134,
      "Ġmur": 5135,
      "Äģ": 5136,
      "pid": 5137,
      "atus": 5138,
      "Ne": 5139,
      "ĠVirginia": 5140,
      "Ġvertex": 5141,
      "ĠFlorida": 5142,
      "ĠArts": 5143,
      "Our": 5144,
      "SE": 5145,
      "obile": 5146,
      "Ġcollege": 5147,
      "Ġnetworks": 5148,
      "venue": 5149,
      "people": 5150,
      "ĠRef": 5151,
      "Ġplane": 5152,
      "Ġcollabor": 5153,
      "Ġparticle": 5154,
      "Ġcaused": 5155,
      "ĠForce": 5156,
      "More": 5157,
      "Ġones": 5158,
      "ressed": 5159,
      "enge": 5160,
      "apter": 5161,
      "Ġsch": 5162,
      "_{{\\": 5163,
      "ĠHenry": 5164,
      "Trans": 5165,
      "En": 5166,
      "Ġshot": 5167,
      "sych": 5168,
      "Sim": 5169,
      "itable": 5170,
      "Ġperturb": 5171,
      "1981": 5172,
      "ĠSun": 5173,
      "Ġfinancial": 5174,
      "Ġdetermine": 5175,
      "ĠGr": 5176,
      "Ġmomentum": 5177,
      "HE": 5178,
      "Ġconcent": 5179,
      "Ġgun": 5180,
      "ĠAre": 5181,
      "ibly": 5182,
      "Ġtransl": 5183,
      ")}(": 5184,
      "Ġ}\\": 5185,
      "Ġcritic": 5186,
      "Ġgrand": 5187,
      "edom": 5188,
      "Ġuncertaint": 5189,
      "Ġfile": 5190,
      "Ġmedical": 5191,
      "Ġincor": 5192,
      "mission": 5193,
      "ĠKn": 5194,
      "ĠMo": 5195,
      "irit": 5196,
      "Ġheavy": 5197,
      "93": 5198,
      "\\!\\!": 5199,
      "Ġcomment": 5200,
      "Ġspectral": 5201,
      "Ġaircraft": 5202,
      "ees": 5203,
      "\\'": 5204,
      "resents": 5205,
      "Ġlegal": 5206,
      "Ġexamples": 5207,
      "Ġpolar": 5208,
      "definition": 5209,
      "Ġshape": 5210,
      "First": 5211,
      "Ġmix": 5212,
      "Ġinterview": 5213,
      "anced": 5214,
      "Ġ|\\": 5215,
      "ĠIll": 5216,
      "ĠSwed": 5217,
      "ĠAngeles": 5218,
      "Ġinsp": 5219,
      "Ġfeatured": 5220,
      "esh": 5221,
      "ĠBi": 5222,
      "ĠCongress": 5223,
      "ĠItaly": 5224,
      "illa": 5225,
      "mann": 5226,
      "*{": 5227,
      "but": 5228,
      "Form": 5229,
      "ady": 5230,
      "Ġidentified": 5231,
      "ters": 5232,
      "Ġdidn": 5233,
      "ĠPost": 5234,
      "Ġcontrast": 5235,
      "Ġapproximation": 5236,
      "black": 5237,
      "ĠPre": 5238,
      "********": 5239,
      "ĠGeorg": 5240,
      "Ġexpon": 5241,
      "Ġorganization": 5242,
      "86": 5243,
      "main": 5244,
      "Ġreach": 5245,
      "Ġspat": 5246,
      "orial": 5247,
      "'_": 5248,
      "Ġstatement": 5249,
      "ĠMil": 5250,
      "ali": 5251,
      "ĠRussia": 5252,
      "SU": 5253,
      "kin": 5254,
      "Ġanc": 5255,
      "ĠOver": 5256,
      "ags": 5257,
      "Ġ...": 5258,
      "Ġdataset": 5259,
      "Ġexam": 5260,
      "rees": 5261,
      "Ġminor": 5262,
      "Ġcoupling": 5263,
      "present": 5264,
      "ĠFestival": 5265,
      "Ġearn": 5266,
      "Ġactivities": 5267,
      "Ġseems": 5268,
      "Ġrepe": 5269,
      "Ġsurround": 5270,
      "ny": 5271,
      "public": 5272,
      "Ġbad": 5273,
      "_{-": 5274,
      "Ġvs": 5275,
      "Ġthreat": 5276,
      "ocal": 5277,
      "osh": 5278,
      "However": 5279,
      "Ġhousehold": 5280,
      "apping": 5281,
      "ĠMexico": 5282,
      "iller": 5283,
      "Ġactivity": 5284,
      "Ġawarded": 5285,
      "ĠEv": 5286,
      "oral": 5287,
      "1976": 5288,
      "ĠOrder": 5289,
      "azz": 5290,
      "ĠBoard": 5291,
      "Ġmentioned": 5292,
      "iro": 5293,
      "men": 5294,
      ")/": 5295,
      "1972": 5296,
      "Ġsoftware": 5297,
      "pc": 5298,
      "normal": 5299,
      "Ġpolitician": 5300,
      "subfigure": 5301,
      "ĠOpen": 5302,
      "ĠLu": 5303,
      "94": 5304,
      "Ġsometimes": 5305,
      "Ġsimpl": 5306,
      "1978": 5307,
      "ĠKh": 5308,
      "ĠMost": 5309,
      "Ġstudent": 5310,
      "Ġnumerical": 5311,
      "Ġcause": 5312,
      "($": 5313,
      "Ġstatus": 5314,
      "ĠScot": 5315,
      "IP": 5316,
      "ĠHence": 5317,
      "ĠCast": 5318,
      "Ġdro": 5319,
      "Ġsure": 5320,
      "Ġprofile": 5321,
      "hemat": 5322,
      "jection": 5323,
      "Ġbrand": 5324,
      "Ġcore": 5325,
      "Ġsolid": 5326,
      "Ġminim": 5327,
      "LO": 5328,
      "ĠLife": 5329,
      "Ġnearly": 5330,
      "----------------": 5331,
      "Ġstraight": 5332,
      "Ġasked": 5333,
      "ican": 5334,
      "Ġprint": 5335,
      "Ġwor": 5336,
      "Ġcommand": 5337,
      "92": 5338,
      "Ġweeks": 5339,
      "'\\": 5340,
      "ĠEmp": 5341,
      "ĠOh": 5342,
      "Ġinstrum": 5343,
      "sol": 5344,
      "deg": 5345,
      "bi": 5346,
      "uled": 5347,
      "ĠJan": 5348,
      "UT": 5349,
      "}$\\": 5350,
      "mail": 5351,
      "ĠTour": 5352,
      "Ġgrant": 5353,
      "Ġdescribe": 5354,
      "Ġheart": 5355,
      "ĠKar": 5356,
      "Ġshowed": 5357,
      "Ġfirm": 5358,
      "Ġsignificantly": 5359,
      "ĠSup": 5360,
      "Ġfif": 5361,
      "Ġoptimal": 5362,
      "ĠOl": 5363,
      "Ġdual": 5364,
      "stra": 5365,
      "Ġsatisfies": 5366,
      "Ġrequires": 5367,
      "Ġfinally": 5368,
      "link": 5369,
      "Ġscored": 5370,
      "Ġcry": 5371,
      "Ġextra": 5372,
      "oting": 5373,
      "Ġmiddle": 5374,
      "Ġuseful": 5375,
      "ĠSpace": 5376,
      "Ġmemory": 5377,
      "Ġbrief": 5378,
      "fficients": 5379,
      "Ġconsistent": 5380,
      "ĠProfess": 5381,
      "png": 5382,
      "Ġrecomm": 5383,
      "Ġbal": 5384,
      "Ġcit": 5385,
      "}}(\\": 5386,
      "Ġradius": 5387,
      "force": 5388,
      "Further": 5389,
      "aligned": 5390,
      "ĠInst": 5391,
      "wa": 5392,
      "Ġcompletely": 5393,
      "Ġexperimental": 5394,
      "Ġmind": 5395,
      "Ġrates": 5396,
      "84": 5397,
      "ĠBig": 5398,
      "Co": 5399,
      "Ġspaces": 5400,
      "Ġbroadcast": 5401,
      "Ġcard": 5402,
      "Ġdistinct": 5403,
      "Ġframework": 5404,
      "Ġvan": 5405,
      "Ġexactly": 5406,
      "Ġexistence": 5407,
      "hesis": 5408,
      "Ġinfluence": 5409,
      "ĠCa": 5410,
      "iano": 5411,
      "Ġjoint": 5412,
      "1977": 5413,
      "ato": 5414,
      "Ġfeed": 5415,
      "Ġselect": 5416,
      "Ġprograms": 5417,
      "Ġmeeting": 5418,
      "1974": 5419,
      "87": 5420,
      "Ġsimulations": 5421,
      "CH": 5422,
      "apers": 5423,
      "Ġshift": 5424,
      "Ġrepresents": 5425,
      "ora": 5426,
      "init": 5427,
      "uting": 5428,
      "ĠTimes": 5429,
      "Ġconstructed": 5430,
      "house": 5431,
      "1975": 5432,
      "State": 5433,
      "isher": 5434,
      "IG": 5435,
      "Can": 5436,
      "ĠEducation": 5437,
      "Ðµ": 5438,
      "rong": 5439,
      "Ġgoals": 5440,
      "ĠHaw": 5441,
      "Ġsinger": 5442,
      ")_{": 5443,
      "ĠSil": 5444,
      "Ġtim": 5445,
      "Ġetc": 5446,
      "Ġmeasurements": 5447,
      "ko": 5448,
      "Ġdecay": 5449,
      "weight": 5450,
      "ĠRem": 5451,
      "Ġunion": 5452,
      "'re": 5453,
      "So": 5454,
      "Ġhum": 5455,
      "ien": 5456,
      "Ġresolution": 5457,
      "Ġmajority": 5458,
      "acher": 5459,
      "Early": 5460,
      "PC": 5461,
      "flow": 5462,
      "Ġdoing": 5463,
      "asks": 5464,
      "ĠLie": 5465,
      "Ġtournament": 5466,
      "met": 5467,
      "endix": 5468,
      "Ġlooking": 5469,
      "ĠOper": 5470,
      "Ġvar": 5471,
      "Ġleave": 5472,
      "omy": 5473,
      "Ġconnection": 5474,
      ")^{\\": 5475,
      "=-": 5476,
      "iana": 5477,
      "index": 5478,
      "Ġselection": 5479,
      "cons": 5480,
      "shift": 5481,
      "hing": 5482,
      "Ġexisting": 5483,
      "Ġsummer": 5484,
      "ĠVer": 5485,
      "Ġinters": 5486,
      "{$\\": 5487,
      "Ġeconomic": 5488,
      "Ġdescription": 5489,
      "Eq": 5490,
      "Ġgreen": 5491,
      "Ġthing": 5492,
      "spect": 5493,
      "Ġaccuracy": 5494,
      "Ġamplit": 5495,
      "iency": 5496,
      "ugby": 5497,
      "ĠFoundation": 5498,
      "Ġprobably": 5499,
      "Ġgreater": 5500,
      "yan": 5501,
      "ifically": 5502,
      "areer": 5503,
      "Ġtrib": 5504,
      "Mar": 5505,
      "zy": 5506,
      "reshold": 5507,
      "GB": 5508,
      "Ġspent": 5509,
      "Ġintegral": 5510,
      "ĠTime": 5511,
      "Ã³n": 5512,
      "work": 5513,
      "rices": 5514,
      "Ġcluster": 5515,
      "=(": 5516,
      "forall": 5517,
      "ympt": 5518,
      "ĠPet": 5519,
      "length": 5520,
      "ech": 5521,
      "hand": 5522,
      "1973": 5523,
      "ĠHel": 5524,
      "abit": 5525,
      "Ġobser": 5526,
      "hem": 5527,
      "ĠRo": 5528,
      "Ġ\\(": 5529,
      "Ġreplace": 5530,
      "ĠAwards": 5531,
      "inations": 5532,
      "Ġimprove": 5533,
      "ĠMoreover": 5534,
      "Ġbey": 5535,
      "Ġestablishments": 5536,
      "Tr": 5537,
      "Ġspread": 5538,
      "Ġbranch": 5539,
      "Ġability": 5540,
      "1968": 5541,
      "elled": 5542,
      "Ġsec": 5543,
      "Ġcorresponds": 5544,
      "ĠAlso": 5545,
      "Ġbasic": 5546,
      ",\\,": 5547,
      "Ġsteps": 5548,
      "Ġinequality": 5549,
      "ests": 5550,
      "lig": 5551,
      "ulate": 5552,
      "ĠMur": 5553,
      "ĠSta": 5554,
      "82": 5555,
      "anger": 5556,
      "Ġprevent": 5557,
      "Ġopening": 5558,
      "Ġacadem": 5559,
      "Ġapprop": 5560,
      "ĠLove": 5561,
      "Ġrelevant": 5562,
      "\"><": 5563,
      "Ġvertices": 5564,
      "Ġcarried": 5565,
      "Sub": 5566,
      "ĠChampionships": 5567,
      "PR": 5568,
      "Ġnodes": 5569,
      "Ġassumption": 5570,
      "={": 5571,
      "Ġpoor": 5572,
      "Ġvirt": 5573,
      "Ġimmediately": 5574,
      "Ġbeyond": 5575,
      "ĠLy": 5576,
      "Ġchain": 5577,
      "ĠCarolina": 5578,
      "Ġsuffer": 5579,
      "ĠDirector": 5580,
      "joy": 5581,
      "produ": 5582,
      "ĠCam": 5583,
      "Ġ+\\": 5584,
      "ogene": 5585,
      "ogue": 5586,
      "Ġstop": 5587,
      "ĠBank": 5588,
      "adium": 5589,
      "Ġsn": 5590,
      "Ġfraction": 5591,
      "91": 5592,
      "Ġbasketball": 5593,
      ":\\": 5594,
      "Ġextension": 5595,
      "Ġstrategy": 5596,
      "}%": 5597,
      "Over": 5598,
      "ĠForm": 5599,
      "gu": 5600,
      "Ġlattice": 5601,
      "Ġseparate": 5602,
      "Ð¸": 5603,
      "iled": 5604,
      "Ġwinning": 5605,
      "Ġcalculated": 5606,
      "ĠWood": 5607,
      "iders": 5608,
      "Ġmole": 5609,
      "iant": 5610,
      "Ġways": 5611,
      "Ġdivision": 5612,
      "ĠEngine": 5613,
      ";\"": 5614,
      "}$-": 5615,
      "ĠYoung": 5616,
      "ĠRel": 5617,
      "ĠJournal": 5618,
      "ML": 5619,
      "lections": 5620,
      "icated": 5621,
      "ĠSol": 5622,
      "asion": 5623,
      "IV": 5624,
      "ĠOld": 5625,
      "ĠMartin": 5626,
      "rc": 5627,
      "Ġheight": 5628,
      "ĠIII": 5629,
      "ĠNavy": 5630,
      "Ġwriters": 5631,
      "Ġensure": 5632,
      "ĠInc": 5633,
      "AG": 5634,
      "Med": 5635,
      "Ġprocedure": 5636,
      "aven": 5637,
      "Ġargument": 5638,
      "John": 5639,
      "requ": 5640,
      "ĠSa": 5641,
      "ĠProgram": 5642,
      ".~(\\": 5643,
      "seud": 5644,
      "free": 5645,
      "Ġprefer": 5646,
      "lean": 5647,
      "Ġ(\"": 5648,
      "Äĩ": 5649,
      "Ġmoving": 5650,
      "Ġmostly": 5651,
      "uations": 5652,
      "Ġquarter": 5653,
      "Ġdead": 5654,
      "zero": 5655,
      "ĠHy": 5656,
      "83": 5657,
      "abilities": 5658,
      "Ġbelieve": 5659,
      "Ġwanted": 5660,
      "fact": 5661,
      "Ġedges": 5662,
      "real": 5663,
      "elli": 5664,
      "Ġframe": 5665,
      "Ġindividuals": 5666,
      "Ġincreases": 5667,
      "pmatrix": 5668,
      "ĠHot": 5669,
      "Ġreb": 5670,
      "Ġâ": 5671,
      "Ġcentre": 5672,
      "allery": 5673,
      "subsubsection": 5674,
      "ĠPac": 5675,
      "Ġamb": 5676,
      "Ġreduce": 5677,
      "depend": 5678,
      "simeq": 5679,
      "Ġdoesn": 5680,
      "Other": 5681,
      "Ġwood": 5682,
      "Ġlink": 5683,
      "1971": 5684,
      "syl": 5685,
      "Ġmission": 5686,
      "bin": 5687,
      "Notes": 5688,
      "cases": 5689,
      "Ġcru": 5690,
      "maz": 5691,
      "ĠBrazil": 5692,
      "ĠJo": 5693,
      "uan": 5694,
      "81": 5695,
      "Ġcarry": 5696,
      "Ġlic": 5697,
      "ĠParliament": 5698,
      "CE": 5699,
      "Ġedition": 5700,
      "400": 5701,
      "Class": 5702,
      "print": 5703,
      "Ġauthors": 5704,
      "Net": 5705,
      "Ġperfect": 5706,
      "aming": 5707,
      "Ġcoefficients": 5708,
      "ĠWork": 5709,
      "kes": 5710,
      "hom": 5711,
      "ĠSocial": 5712,
      "Ġinternal": 5713,
      "ellig": 5714,
      "ymmet": 5715,
      "kl": 5716,
      "Ab": 5717,
      "$(": 5718,
      "ĠHa": 5719,
      "osc": 5720,
      "gg": 5721,
      "ĠOffice": 5722,
      "DF": 5723,
      "Ġplot": 5724,
      "icon": 5725,
      "Ġpassed": 5726,
      "Ġprison": 5727,
      "Ġcombined": 5728,
      "Ġgeneration": 5729,
      "Ġsites": 5730,
      "ader": 5731,
      "Ġring": 5732,
      "Ġpoly": 5733,
      "Ġformal": 5734,
      "Ġrelatively": 5735,
      "Ġborder": 5736,
      "ĠDou": 5737,
      "Ġactress": 5738,
      "Ġgoes": 5739,
      "ION": 5740,
      "asi": 5741,
      "1969": 5742,
      "ĠWales": 5743,
      "Ġarchitecture": 5744,
      "Ġvac": 5745,
      "Ġcapacity": 5746,
      "Ġcandidate": 5747,
      ")^{-": 5748,
      "Ġattrib": 5749,
      "Ġfriends": 5750,
      "Ġappearance": 5751,
      "Ġlives": 5752,
      "Ġmovie": 5753,
      "Ġremain": 5754,
      "Ġharm": 5755,
      "Ġcorn": 5756,
      "AF": 5757,
      "ĠMount": 5758,
      "Ġmeasures": 5759,
      "vania": 5760,
      "ĠBook": 5761,
      "ĠChief": 5762,
      "UR": 5763,
      "location": 5764,
      "Ġconstraints": 5765,
      "Ġmanager": 5766,
      "Ġactor": 5767,
      "Ġlaunched": 5768,
      "Ġhoriz": 5769,
      "Ġcommunities": 5770,
      "Ġcompute": 5771,
      "wan": 5772,
      "Ġcurves": 5773,
      "Ġcoast": 5774,
      "ĠHon": 5775,
      "orter": 5776,
      "Ġgiving": 5777,
      "ried": 5778,
      "Ġmatches": 5779,
      "blue": 5780,
      ")\\\\": 5781,
      "English": 5782,
      "Ste": 5783,
      "ĠEarth": 5784,
      "jo": 5785,
      "ĠBob": 5786,
      "orb": 5787,
      "Ġended": 5788,
      "gn": 5789,
      "ĠĠĠĠĠĠĠĠĠĠ": 5790,
      "Ġsemi": 5791,
      "Ġcontaining": 5792,
      "ja": 5793,
      "ĠIrish": 5794,
      "$$\\": 5795,
      "1940": 5796,
      "Ġago": 5797,
      "ernel": 5798,
      "ultural": 5799,
      "vex": 5800,
      "Ġbeg": 5801,
      "$).": 5802,
      "rupt": 5803,
      "ĠLee": 5804,
      "oration": 5805,
      "ipality": 5806,
      "Figure": 5807,
      "Ġstories": 5808,
      "then": 5809,
      "Ġgetting": 5810,
      "ima": 5811,
      "Ġdetection": 5812,
      "Ġfair": 5813,
      "ĠTop": 5814,
      "How": 5815,
      "ĠLong": 5816,
      "ilib": 5817,
      "Ġsimulation": 5818,
      "eed": 5819,
      "Ġcorrelation": 5820,
      "^{+": 5821,
      "Ġthick": 5822,
      "Ġstable": 5823,
      "Ġran": 5824,
      "ĠMax": 5825,
      "ading": 5826,
      "Ġclassification": 5827,
      "textsc": 5828,
      "Ġcontributions": 5829,
      "alg": 5830,
      "term": 5831,
      "ĠLiber": 5832,
      "Ġload": 5833,
      "TS": 5834,
      "Ġdepends": 5835,
      "ĠJac": 5836,
      "Ġcombination": 5837,
      "rium": 5838,
      "ĠPeople": 5839,
      "stitution": 5840,
      "ternet": 5841,
      "case": 5842,
      "Ġadvant": 5843,
      "1945": 5844,
      "Ġsaying": 5845,
      "enty": 5846,
      "Ġchief": 5847,
      "Ġdrug": 5848,
      "$^{-": 5849,
      "Ġdestroy": 5850,
      "pass": 5851,
      "Ġscalar": 5852,
      "check": 5853,
      "Ġriver": 5854,
      "Ġcomputer": 5855,
      "ĠColumb": 5856,
      "itation": 5857,
      "Ġisland": 5858,
      "Ġparents": 5859,
      "sto": 5860,
      "ĠJoseph": 5861,
      "stack": 5862,
      "Ġvisual": 5863,
      "Ġtypically": 5864,
      "Ġphil": 5865,
      "irus": 5866,
      "Ġfavor": 5867,
      "ati": 5868,
      "////": 5869,
      "Ġpurpose": 5870,
      "ansas": 5871,
      "110": 5872,
      "Ġpropag": 5873,
      "During": 5874,
      "ĠCur": 5875,
      "ĠTeam": 5876,
      "Ġ=\\": 5877,
      "rons": 5878,
      "Ġcommercial": 5879,
      "Ġstrength": 5880,
      ")}{\\": 5881,
      "usband": 5882,
      "ĠReview": 5883,
      "Ġprojects": 5884,
      "Ġseasons": 5885,
      "Ġmut": 5886,
      "rump": 5887,
      "Ġtechniques": 5888,
      "kins": 5889,
      "Ġfoot": 5890,
      "ĠLin": 5891,
      "Ġslightly": 5892,
      "Ġinitially": 5893,
      "viation": 5894,
      "pton": 5895,
      "Ġwatch": 5896,
      "owers": 5897,
      "}}^": 5898,
      "Value": 5899,
      "ĠĠĠĠĠĠĠĠĠĠĠĠ": 5900,
      "amental": 5901,
      "Ġdigital": 5902,
      "Ġplans": 5903,
      "Ġangle": 5904,
      "1967": 5905,
      "Ġdenotes": 5906,
      "idden": 5907,
      "sur": 5908,
      "Ġwhom": 5909,
      "rical": 5910,
      "ĠValley": 5911,
      "icks": 5912,
      "sch": 5913,
      "LS": 5914,
      "ĠSund": 5915,
      "Ġsea": 5916,
      "bt": 5917,
      "Ġnation": 5918,
      "escription": 5919,
      "ror": 5920,
      "ayer": 5921,
      "izer": 5922,
      "chen": 5923,
      "Reg": 5924,
      "ĠArab": 5925,
      "ĠĠĠĠĠĠĠĠĠĠĠĠĠĠĠĠĠĠĠĠĠĠĠ": 5926,
      "Ġintroduce": 5927,
      "Ġforest": 5928,
      "ĠGal": 5929,
      "Ġgr": 5930,
      "Ġreferred": 5931,
      "Ġturned": 5932,
      "Ġmusical": 5933,
      "Ġbattle": 5934,
      "ĠSoviet": 5935,
      "These": 5936,
      "yes": 5937,
      "Ġstudio": 5938,
      "imb": 5939,
      "Ġextract": 5940,
      "ĠNorthern": 5941,
      "omorphic": 5942,
      "Ġcat": 5943,
      "Ġsyn": 5944,
      "ĠJim": 5945,
      "Ġquickly": 5946,
      "Ġmodes": 5947,
      "1930": 5948,
      "Ġquestions": 5949,
      "itle": 5950,
      "ui": 5951,
      "ĠCE": 5952,
      "Ġvacc": 5953,
      "Ġtor": 5954,
      "Ġ&=&": 5955,
      "Ġmainly": 5956,
      "PP": 5957,
      "ĠWind": 5958,
      "ĠUnivers": 5959,
      "ĠJack": 5960,
      "Ġarrang": 5961,
      "Ġassumed": 5962,
      "Ġbottom": 5963,
      "irmed": 5964,
      "ĠProvince": 5965,
      "Ġroute": 5966,
      "ocol": 5967,
      "Ġsingular": 5968,
      "Ġproved": 5969,
      "Ġotherwise": 5970,
      "CS": 5971,
      "Ġcosm": 5972,
      "Ġflat": 5973,
      "ĠJul": 5974,
      "adr": 5975,
      "pace": 5976,
      "erse": 5977,
      "Ġshoot": 5978,
      "Ġtensor": 5979,
      "\\|_{": 5980,
      "Ġvocals": 5981,
      "Ġ;": 5982,
      "newcommand": 5983,
      "erry": 5984,
      "net": 5985,
      "cknow": 5986,
      "Ġdespite": 5987,
      "Ġaspect": 5988,
      "ĠSk": 5989,
      "Ġchampionship": 5990,
      "Ġdistributions": 5991,
      "resh": 5992,
      "Ġpartners": 5993,
      "language": 5994,
      "ao": 5995,
      "rot": 5996,
      "Ġinvariant": 5997,
      "Ġdiscussion": 5998,
      "\");": 5999,
      "1964": 6000,
      "ĠCross": 6001,
      "While": 6002,
      "ĠLine": 6003,
      "sylvania": 6004,
      "ĠAtt": 6005,
      "Ġresources": 6006,
      "arks": 6007,
      "ĠGood": 6008,
      "ampion": 6009,
      "Ġthrow": 6010,
      "undred": 6011,
      "ĠÂ£": 6012,
      "NR": 6013,
      "orning": 6014,
      "Ġproviding": 6015,
      "Ed": 6016,
      "icity": 6017,
      "CT": 6018,
      "Ġast": 6019,
      "Ġmorph": 6020,
      "Get": 6021,
      "Ġmarg": 6022,
      "DA": 6023,
      "Ġphen": 6024,
      "Åį": 6025,
      "ING": 6026,
      "Ġmessage": 6027,
      "Ġestimates": 6028,
      "ĠHistoric": 6029,
      "Ġresponsible": 6030,
      "Ġpain": 6031,
      "istical": 6032,
      "Ġincorpor": 6033,
      "Ġattended": 6034,
      "ĠEach": 6035,
      "Ġcelebr": 6036,
      "Ġpairs": 6037,
      "active": 6038,
      "Ġannual": 6039,
      "Ġrecords": 6040,
      "Ġolder": 6041,
      "}^*": 6042,
      "Ġapproaches": 6043,
      "Ġmis": 6044,
      "tainment": 6045,
      "ĠBas": 6046,
      "Ġpositions": 6047,
      "emporary": 6048,
      "Ġonto": 6049,
      "Car": 6050,
      "Ġprice": 6051,
      "Ġmaster": 6052,
      "Ġfederal": 6053,
      "Ġoffers": 6054,
      "Ġnorthern": 6055,
      "Ġtal": 6056,
      "ĠJud": 6057,
      "Ġsouthern": 6058,
      "Ġgain": 6059,
      "Ġdisease": 6060,
      "Ġlif": 6061,
      "mond": 6062,
      "etime": 6063,
      "ĉĉĉĉĉ": 6064,
      "Ġunknown": 6065,
      "icine": 6066,
      "ĠSpain": 6067,
      "ĠAssembly": 6068,
      "ĠGovern": 6069,
      "Ġeditor": 6070,
      "ifier": 6071,
      "Ġtheore": 6072,
      "Ġsenior": 6073,
      "Ġking": 6074,
      "Ġproducer": 6075,
      "asy": 6076,
      "Ġvisit": 6077,
      "coming": 6078,
      "Ġexpressed": 6079,
      "Ġdependence": 6080,
      "composition": 6081,
      ")$-": 6082,
      "ĠLi": 6083,
      "ĠTheir": 6084,
      "ĠSir": 6085,
      "ĠGre": 6086,
      "orage": 6087,
      "Ġbul": 6088,
      "awa": 6089,
      "aylor": 6090,
      "Ġrapid": 6091,
      "CA": 6092,
      "})$.": 6093,
      "1965": 6094,
      "Ġhydro": 6095,
      "Ġpure": 6096,
      "ji": 6097,
      "ibli": 6098,
      "inet": 6099,
      "Ġattract": 6100,
      "unch": 6101,
      "Ġpoet": 6102,
      "According": 6103,
      "Ġcloud": 6104,
      "Ġagent": 6105,
      "oston": 6106,
      "oding": 6107,
      "Ġworkers": 6108,
      "Theorem": 6109,
      "Ġassess": 6110,
      "Ġscene": 6111,
      "inv": 6112,
      "Ġbecoming": 6113,
      "IL": 6114,
      "Ġcommission": 6115,
      "'m": 6116,
      "Thus": 6117,
      "version": 6118,
      "ĠIran": 6119,
      "Ġofficer": 6120,
      "Ġhttps": 6121,
      "aka": 6122,
      "url": 6123,
      "perty": 6124,
      "roph": 6125,
      "pping": 6126,
      "Ġtrad": 6127,
      "arden": 6128,
      "Ġstellar": 6129,
      "arriage": 6130,
      "ĠEr": 6131,
      "Ġorb": 6132,
      "ĠEqu": 6133,
      "ersey": 6134,
      "Career": 6135,
      "Ġmurder": 6136,
      "dx": 6137,
      "ĠBet": 6138,
      "ĠSpr": 6139,
      "Ġice": 6140,
      "Ġspectra": 6141,
      "yer": 6142,
      "ĠCentre": 6143,
      "omic": 6144,
      "Ġrailway": 6145,
      "ĠLibrary": 6146,
      "];": 6147,
      "Ġsymmetric": 6148,
      "cean": 6149,
      "ĠTim": 6150,
      "Supp": 6151,
      "ga": 6152,
      "Ġforced": 6153,
      "Ġalgorithms": 6154,
      "unct": 6155,
      "ova": 6156,
      "ĠElect": 6157,
      "Ġenjoy": 6158,
      "Ġmachine": 6159,
      "iffer": 6160,
      "Ġinner": 6161,
      "ĠEmpire": 6162,
      "PT": 6163,
      "Ġnewsp": 6164,
      "Ġfailed": 6165,
      "CL": 6166,
      "Don": 6167,
      "ĠWin": 6168,
      "unior": 6169,
      "background": 6170,
      "Hz": 6171,
      "Ġsector": 6172,
      "Ġextrem": 6173,
      "Ġsplit": 6174,
      "Ġremoved": 6175,
      "Ġvote": 6176,
      "Ġnumerous": 6177,
      "Ġachieved": 6178,
      "1966": 6179,
      "matrix": 6180,
      "1920": 6181,
      "Ġinteractions": 6182,
      "stream": 6183,
      "udes": 6184,
      "cho": 6185,
      "Ġcompl": 6186,
      "Ġcycle": 6187,
      "zer": 6188,
      "Ġspatial": 6189,
      "Ġdisk": 6190,
      "ĠSar": 6191,
      "Ġefficient": 6192,
      "related": 6193,
      "Ġtransformation": 6194,
      "Ġsampl": 6195,
      "ĠPak": 6196,
      "uty": 6197,
      "remark": 6198,
      "UN": 6199,
      "Ġlived": 6200,
      "aters": 6201,
      "ĠInf": 6202,
      "multirow": 6203,
      "Bar": 6204,
      "Ġinform": 6205,
      "Ġfa": 6206,
      "Ġsociety": 6207,
      "ĠStep": 6208,
      "Person": 6209,
      "Ġactions": 6210,
      "Ser": 6211,
      "Ġpreserv": 6212,
      "Ġmatrices": 6213,
      "ocation": 6214,
      "ĠRet": 6215,
      "Ġworth": 6216,
      "Ġarrest": 6217,
      "osoph": 6218,
      "values": 6219,
      "Ġclearly": 6220,
      "eli": 6221,
      "Per": 6222,
      "ĠHig": 6223,
      "}$}": 6224,
      "ĠBusiness": 6225,
      "ĠJohnson": 6226,
      "Ġforeign": 6227,
      "Ġsqu": 6228,
      "Ġregime": 6229,
      "poses": 6230,
      "ĠRegister": 6231,
      "Ġabsol": 6232,
      "Ġeth": 6233,
      "ĠCre": 6234,
      "Ġhusband": 6235,
      "Ġserve": 6236,
      "Ġleaving": 6237,
      "Ġgenus": 6238,
      "SR": 6239,
      "enth": 6240,
      "ĠRam": 6241,
      "Ġmixed": 6242,
      "airman": 6243,
      "tri": 6244,
      "Ġthreshold": 6245,
      "TR": 6246,
      "Ġstore": 6247,
      "ĠDom": 6248,
      "mapsto": 6249,
      "Ġbeaut": 6250,
      "Ġcomputed": 6251,
      "ologies": 6252,
      "Films": 6253,
      "Inter": 6254,
      "Ġidentify": 6255,
      "Ġarbitrary": 6256,
      "while": 6257,
      "Comm": 6258,
      "Ġcensus": 6259,
      "amely": 6260,
      "Ġraised": 6261,
      "Ġmagazine": 6262,
      "Ġbenef": 6263,
      "ĠUk": 6264,
      "Spec": 6265,
      "ulty": 6266,
      "wer": 6267,
      "ĠDevelopment": 6268,
      "Ġcouple": 6269,
      "'(": 6270,
      "ĠFort": 6271,
      "ĠPennsylvania": 6272,
      "150": 6273,
      "ĠAsia": 6274,
      ")_": 6275,
      "Ġcircle": 6276,
      "Ġyields": 6277,
      "Ġdrama": 6278,
      "post": 6279,
      "PA": 6280,
      "Ġtypical": 6281,
      "Ġpolynomial": 6282,
      "ench": 6283,
      "Ġnothing": 6284,
      "Ġexc": 6285,
      "Ġoptical": 6286,
      "Ġasympt": 6287,
      "lies": 6288,
      "Ġparallel": 6289,
      "Art": 6290,
      "dim": 6291,
      "ribution": 6292,
      "ĠPrem": 6293,
      "track": 6294,
      "Ġvary": 6295,
      "~$\\": 6296,
      "ĠChild": 6297,
      "ĠBoth": 6298,
      "ĠPhilipp": 6299,
      "ĠJones": 6300,
      "ĠGreek": 6301,
      "neg": 6302,
      "Ġdifferences": 6303,
      "Ġreceive": 6304,
      "Ġ$$": 6305,
      "Ġreflect": 6306,
      "Ġterrit": 6307,
      "nb": 6308,
      "IA": 6309,
      "greg": 6310,
      "Ġowned": 6311,
      "SM": 6312,
      "Sy": 6313,
      "ĠBor": 6314,
      "ĠTre": 6315,
      "ĠCarl": 6316,
      "Ġcontained": 6317,
      "rror": 6318,
      "Cons": 6319,
      "Ġexchange": 6320,
      "ĠAut": 6321,
      "ĠLord": 6322,
      "Ġconfiguration": 6323,
      "Ġ/**": 6324,
      "Ġmountain": 6325,
      "ĠBattle": 6326,
      "ĠHome": 6327,
      "host": 6328,
      "haps": 6329,
      "Ġproceed": 6330,
      "Ġhospital": 6331,
      "ĠGaussian": 6332,
      "Ġlies": 6333,
      "rics": 6334,
      "Ġexcit": 6335,
      "ĠBritain": 6336,
      "Am": 6337,
      "Build": 6338,
      "Ġmetal": 6339,
      "Ġorient": 6340,
      "Ġcycl": 6341,
      "Ġtesting": 6342,
      "px": 6343,
      "Ġhelped": 6344,
      "ĠMem": 6345,
      "Ġnine": 6346,
      "Ġhypot": 6347,
      "Ġalternative": 6348,
      "bury": 6349,
      "ĠConference": 6350,
      "graph": 6351,
      "Ã§": 6352,
      "Ġlaws": 6353,
      "lines": 6354,
      "Ġclaimed": 6355,
      "picture": 6356,
      "Ġdistributed": 6357,
      "odot": 6358,
      "ixt": 6359,
      "ancing": 6360,
      "Ġdepartment": 6361,
      "ias": 6362,
      "ĠMichigan": 6363,
      "inding": 6364,
      "ĠOx": 6365,
      "EM": 6366,
      "Ġcalc": 6367,
      "je": 6368,
      "Ġerrors": 6369,
      "Ġsal": 6370,
      "abase": 6371,
      "120": 6372,
      "ĠTest": 6373,
      "Ġvictory": 6374,
      "contin": 6375,
      "Ġsafety": 6376,
      "Ġcopy": 6377,
      "%)": 6378,
      "Ġsurvey": 6379,
      "Ġreconst": 6380,
      "Ġstrongly": 6381,
      "Ġcool": 6382,
      "Ġgets": 6383,
      "sen": 6384,
      "Ġdrum": 6385,
      "Ġconvert": 6386,
      "Ġmeasurement": 6387,
      "har": 6388,
      "ĠExp": 6389,
      "Ġserious": 6390,
      "Ġcovered": 6391,
      "iy": 6392,
      "ĠMen": 6393,
      "ĠCamb": 6394,
      "ennis": 6395,
      "inate": 6396,
      "ĠShow": 6397,
      "ĠMov": 6398,
      "uer": 6399,
      "vin": 6400,
      "proposition": 6401,
      "Ġaccur": 6402,
      "ĠTri": 6403,
      "annels": 6404,
      "abil": 6405,
      "\":": 6406,
      "Ġmaterials": 6407,
      "Ġcounty": 6408,
      "Ġstatistics": 6409,
      "cript": 6410,
      "Ġblood": 6411,
      "Ġoil": 6412,
      "Ġpil": 6413,
      "ela": 6414,
      "tik": 6415,
      "otted": 6416,
      "ĠCivil": 6417,
      "Ġrise": 6418,
      "Ġjoin": 6419,
      "room": 6420,
      "Ġorg": 6421,
      "Aust": 6422,
      "ĠSouthern": 6423,
      "Ġdefeated": 6424,
      "ĠDemocratic": 6425,
      "Ġletter": 6426,
      "Ġfilter": 6427,
      "Ġoption": 6428,
      "Ġexplain": 6429,
      "gener": 6430,
      "example": 6431,
      "height": 6432,
      "Ġoccurs": 6433,
      "ĠPacific": 6434,
      "isters": 6435,
      "Ġincome": 6436,
      "Ġunderstanding": 6437,
      "Ġassert": 6438,
      "run": 6439,
      "Ġtrying": 6440,
      "ĠEnd": 6441,
      "$;": 6442,
      "ĠCy": 6443,
      "ĠDet": 6444,
      "ashion": 6445,
      "Ġdetailed": 6446,
      "undle": 6447,
      "Pre": 6448,
      "Ġachieve": 6449,
      "Ġappropriate": 6450,
      "Fe": 6451,
      "ackson": 6452,
      "Ġdevice": 6453,
      "Ġreports": 6454,
      "Ġoffered": 6455,
      "Time": 6456,
      "aya": 6457,
      "ĠProject": 6458,
      "sky": 6459,
      "inois": 6460,
      "ĠSpe": 6461,
      "ĠYour": 6462,
      "ĠSong": 6463,
      "scill": 6464,
      "ifications": 6465,
      "ilibrium": 6466,
      "ĠHor": 6467,
      "Out": 6468,
      "law": 6469,
      "Ġparties": 6470,
      "ĠField": 6471,
      "word": 6472,
      "\\_": 6473,
      "ĠWay": 6474,
      "Sch": 6475,
      "Ġcrick": 6476,
      "anguages": 6477,
      "End": 6478,
      "Ð½": 6479,
      "Ġshared": 6480,
      "ĠMountain": 6481,
      "ĠRadio": 6482,
      "LP": 6483,
      "etts": 6484,
      "anges": 6485,
      "ighter": 6486,
      "Ġoptions": 6487,
      "olved": 6488,
      "Ġhistorical": 6489,
      "ĠRos": 6490,
      "Ġfine": 6491,
      "Ġmassive": 6492,
      "Ġfamous": 6493,
      "Ġentered": 6494,
      "ĠBow": 6495,
      "ĠOhio": 6496,
      "Ġtrained": 6497,
      "Ġsections": 6498,
      "Ġdepth": 6499,
      "1963": 6500,
      "Ġvoice": 6501,
      "standing": 6502,
      "\\\"": 6503,
      "\\{\\": 6504,
      "Ġshowing": 6505,
      "ĠAsian": 6506,
      "Inf": 6507,
      "Ġefforts": 6508,
      "Ġreduction": 6509,
      "Ġcomposed": 6510,
      "Ġtouch": 6511,
      "}{*": 6512,
      "Object": 6513,
      "ĠTem": 6514,
      "Ġobserve": 6515,
      "Ġspeak": 6516,
      "ĠString": 6517,
      "Ġtracks": 6518,
      "urban": 6519,
      "1962": 6520,
      "Ġsomeone": 6521,
      "Ġrevealed": 6522,
      "Ġbehavi": 6523,
      "NS": 6524,
      "Ġhope": 6525,
      "Ġencou": 6526,
      "ounds": 6527,
      "Back": 6528,
      "Ġarmy": 6529,
      "pir": 6530,
      "aria": 6531,
      "Equ": 6532,
      "ruck": 6533,
      "Ġseat": 6534,
      "Ġcitiz": 6535,
      "Ġpull": 6536,
      "Ġactual": 6537,
      "Ġsingles": 6538,
      "ears": 6539,
      "Bi": 6540,
      "ĠGen": 6541,
      "epend": 6542,
      "Ġcoordinates": 6543,
      "input": 6544,
      "ĠSu": 6545,
      "MM": 6546,
      "Ġthr": 6547,
      "Ġimag": 6548,
      "Ġbus": 6549,
      "ographic": 6550,
      "Ġiniti": 6551,
      "Ġpiece": 6552,
      "Me": 6553,
      "atically": 6554,
      "Ġorganizations": 6555,
      "Ġsurpr": 6556,
      "Ġentry": 6557,
      "001": 6558,
      "burgh": 6559,
      "ila": 6560,
      "Ġconducted": 6561,
      "page": 6562,
      "Ġneighborhood": 6563,
      "prob": 6564,
      "eller": 6565,
      "}}^{": 6566,
      "Ġprep": 6567,
      "Ġconvergence": 6568,
      "ĠBern": 6569,
      "Ġreligious": 6570,
      "tained": 6571,
      "ĠWilliams": 6572,
      "Ġcompare": 6573,
      "Ġdemand": 6574,
      "\";": 6575,
      "Ġideal": 6576,
      "ibr": 6577,
      "Ġuniversity": 6578,
      "ĠEconom": 6579,
      "Ġordered": 6580,
      "displaystyle": 6581,
      "Ġstrict": 6582,
      "ograp": 6583,
      "Ġdiscovered": 6584,
      "ĠQueen": 6585,
      "Ġodd": 6586,
      "_-": 6587,
      "$~": 6588,
      "iling": 6589,
      "ĠPlan": 6590,
      "Ġsegment": 6591,
      "ĠBase": 6592,
      "ĠFC": 6593,
      "asure": 6594,
      "cr": 6595,
      "Ġalone": 6596,
      "ĠWal": 6597,
      "Pop": 6598,
      "ĠFrancisco": 6599,
      "eness": 6600,
      "ĠSand": 6601,
      "andemic": 6602,
      "Ġdiss": 6603,
      "Ġregister": 6604,
      "ĠBu": 6605,
      "DP": 6606,
      "ĠCr": 6607,
      "Ġelections": 6608,
      "miss": 6609,
      "tikz": 6610,
      "ĠEll": 6611,
      "Ġfix": 6612,
      "ingham": 6613,
      "ĠScotland": 6614,
      "ĠTechnology": 6615,
      "cular": 6616,
      "rison": 6617,
      "1944": 6618,
      "Ġ?": 6619,
      "achus": 6620,
      "ĠMah": 6621,
      "ivate": 6622,
      "cong": 6623,
      "Ġtrial": 6624,
      "Ġconfirmed": 6625,
      "oir": 6626,
      "Exception": 6627,
      "Ġproport": 6628,
      "'}": 6629,
      "1000": 6630,
      "ĠMany": 6631,
      "Ġrare": 6632,
      "Ġgenerate": 6633,
      "|_{": 6634,
      "Ġvectors": 6635,
      "alysis": 6636,
      "Ġelim": 6637,
      "rance": 6638,
      "ipment": 6639,
      "Ġarray": 6640,
      "Ġnuclear": 6641,
      "Ġoscill": 6642,
      "Ġgalaxy": 6643,
      "View": 6644,
      "Ġexternal": 6645,
      "inst": 6646,
      "ĠHamiltonian": 6647,
      "Key": 6648,
      "ador": 6649,
      "Ġutil": 6650,
      "soft": 6651,
      "Ġdepict": 6652,
      "ĠCro": 6653,
      "Ġwall": 6654,
      "ĠUSA": 6655,
      "aver": 6656,
      "Ġrough": 6657,
      "ĠGeorgia": 6658,
      "Ġdistingu": 6659,
      "Ġcities": 6660,
      "itage": 6661,
      "lt": 6662,
      "Ġbatt": 6663,
      "Ġgrowing": 6664,
      "ĠTrump": 6665,
      "Ġinterval": 6666,
      "otal": 6667,
      "Ġhole": 6668,
      "Ġcommunication": 6669,
      "``": 6670,
      "ĠSpecial": 6671,
      "Table": 6672,
      "ĠUr": 6673,
      "Ġprotest": 6674,
      "abeth": 6675,
      "ĠGame": 6676,
      "National": 6677,
      ".$": 6678,
      "ĠBlue": 6679,
      "ĠKent": 6680,
      "ĠWell": 6681,
      "Ġsquad": 6682,
      "Ġresist": 6683,
      "Ġdifferential": 6684,
      "faces": 6685,
      "ĠMajor": 6686,
      ")+\\": 6687,
      "Ġmanifold": 6688,
      "Ġheat": 6689,
      "Ġindicates": 6690,
      ")-\\": 6691,
      "rawn": 6692,
      "Ġcancer": 6693,
      "ĠBoston": 6694,
      "Ġindicate": 6695,
      "column": 6696,
      "Ġsatisfy": 6697,
      "Ġnucle": 6698,
      "Ġpromin": 6699,
      "Ġobservation": 6700,
      "Ġreserv": 6701,
      "Ġweb": 6702,
      "}({\\": 6703,
      "Ġofficers": 6704,
      "ĠAv": 6705,
      "ĠEnter": 6706,
      "grad": 6707,
      "agraph": 6708,
      "gypt": 6709,
      "backs": 6710,
      "ĠDev": 6711,
      "achusetts": 6712,
      "Char": 6713,
      "Ġ///": 6714,
      "ĠCard": 6715,
      "Ġreson": 6716,
      "CP": 6717,
      "Ġdrive": 6718,
      "Ġmill": 6719,
      "Ġadopted": 6720,
      "mma": 6721,
      "ls": 6722,
      "Ġlum": 6723,
      "ĠData": 6724,
      "lie": 6725,
      "Ġanything": 6726,
      "eld": 6727,
      "ulf": 6728,
      "&=&": 6729,
      "}~~": 6730,
      "Ġcolon": 6731,
      "RA": 6732,
      "ĠSenate": 6733,
      "1961": 6734,
      "ĠGar": 6735,
      "La": 6736,
      "hol": 6737,
      "HS": 6738,
      "Ġfle": 6739,
      "oday": 6740,
      "acter": 6741,
      "ĠRepresent": 6742,
      "Ġrecording": 6743,
      "ĠMu": 6744,
      "ĠSee": 6745,
      "arters": 6746,
      "ĠGi": 6747,
      "ĠIslam": 6748,
      "Ġhundred": 6749,
      "Ġoperated": 6750,
      "Ġign": 6751,
      "ĠCoast": 6752,
      "ĠJersey": 6753,
      "Ġsynt": 6754,
      "My": 6755,
      "Ġphenomen": 6756,
      "Ġbinary": 6757,
      "ipped": 6758,
      "adel": 6759,
      "aturing": 6760,
      "Ġorth": 6761,
      "such": 6762,
      "Of": 6763,
      "((": 6764,
      "stone": 6765,
      "Ġhar": 6766,
      "Ġminimal": 6767,
      "ĠPolice": 6768,
      "osis": 6769,
      "ĠEdward": 6770,
      "ĠRh": 6771,
      "ersion": 6772,
      "opic": 6773,
      "rane": 6774,
      "Ġinteger": 6775,
      "Ġbass": 6776,
      ")},": 6777,
      "Ġcomputation": 6778,
      "des": 6779,
      "Ġobvious": 6780,
      "Ġcrew": 6781,
      "Ġconflic": 6782,
      "ĠST": 6783,
      "Ġsister": 6784,
      "Ġwindow": 6785,
      "Ġinduced": 6786,
      "Ġwild": 6787,
      "onder": 6788,
      "Test": 6789,
      "));": 6790,
      "Ġmagnitude": 6791,
      "cd": 6792,
      "odies": 6793,
      "ĠIllinois": 6794,
      "Ġfreedom": 6795,
      "ione": 6796,
      "Ġeffort": 6797,
      "Ġoverl": 6798,
      "ĠJewish": 6799,
      "Ġmasses": 6800,
      "vol": 6801,
      "ĠKong": 6802,
      "cks": 6803,
      "========": 6804,
      "lets": 6805,
      "ĠFar": 6806,
      "ĠHead": 6807,
      "Ġloop": 6808,
      "ĠLab": 6809,
      "tem": 6810,
      "Ġscattering": 6811,
      "ogen": 6812,
      "Ġhop": 6813,
      "Ġleaves": 6814,
      "hbar": 6815,
      "ester": 6816,
      "erc": 6817,
      "Ġinterested": 6818,
      "uries": 6819,
      "mass": 6820,
      "ÑĢ": 6821,
      "ĠTheatre": 6822,
      "ogs": 6823,
      "Ġformat": 6824,
      "avel": 6825,
      "Ġthous": 6826,
      "local": 6827,
      "Ġapart": 6828,
      "hu": 6829,
      "Ġclin": 6830,
      "Ġactors": 6831,
      "Ġfunctional": 6832,
      "Ġbelieved": 6833,
      "Ġintegr": 6834,
      "ibliography": 6835,
      "ĠFinally": 6836,
      "claim": 6837,
      "}&": 6838,
      "Ġpartner": 6839,
      "Ġsuggested": 6840,
      "Ġeverything": 6841,
      "ĠCorpor": 6842,
      "Lem": 6843,
      "MR": 6844,
      "Ġserving": 6845,
      "Ġfundamental": 6846,
      "true": 6847,
      "}}$,": 6848,
      "ĠMid": 6849,
      "ĠVi": 6850,
      "}}$.": 6851,
      "Ġnative": 6852,
      "Ġfelt": 6853,
      "odd": 6854,
      "Ġwestern": 6855,
      "DS": 6856,
      "ĠLag": 6857,
      "})$,": 6858,
      "Ġdegrees": 6859,
      "Ġthermal": 6860,
      "fully": 6861,
      "Ġsales": 6862,
      "aser": 6863,
      "ogeneous": 6864,
      "ĠHuman": 6865,
      "Ġcouncil": 6866,
      "Ġoperating": 6867,
      "js": 6868,
      "Ġrespond": 6869,
      "opping": 6870,
      "Ġwa": 6871,
      "ilation": 6872,
      "|}": 6873,
      "ĠKen": 6874,
      "supp": 6875,
      "pected": 6876,
      "Ġgap": 6877,
      "ĠWater": 6878,
      "Ġnotation": 6879,
      "stract": 6880,
      "bel": 6881,
      "ĠBal": 6882,
      "Ġpp": 6883,
      "Ġhttp": 6884,
      "Ġnearby": 6885,
      "Ġreasons": 6886,
      "pack": 6887,
      "Ġconsidering": 6888,
      "Ġchemical": 6889,
      "hbox": 6890,
      "poss": 6891,
      "ĠPrince": 6892,
      "cf": 6893,
      "ĠMot": 6894,
      "Ġdescent": 6895,
      "Ġclimate": 6896,
      "ÑĤ": 6897,
      "phas": 6898,
      "Ġpoliticians": 6899,
      "pty": 6900,
      "Part": 6901,
      "'ve": 6902,
      "Ġtrust": 6903,
      "Ġroot": 6904,
      "inner": 6905,
      "Ġowners": 6906,
      "Ġresidents": 6907,
      "Ġcultural": 6908,
      "ĠVan": 6909,
      "1958": 6910,
      "igation": 6911,
      "ĠNetwork": 6912,
      "oder": 6913,
      "1959": 6914,
      "Ġclean": 6915,
      "Ġconclude": 6916,
      "Ġassigned": 6917,
      "Ġguaran": 6918,
      "count": 6919,
      "ĠDutch": 6920,
      "iler": 6921,
      "Cor": 6922,
      "Ġallowing": 6923,
      "Ġcomposition": 6924,
      "ĠRou": 6925,
      "nam": 6926,
      "OM": 6927,
      "PE": 6928,
      "Brit": 6929,
      "ĠJoe": 6930,
      "Ġpurs": 6931,
      "LT": 6932,
      "Ġbill": 6933,
      "1942": 6934,
      "ĠNight": 6935,
      "{{": 6936,
      "1956": 6937,
      "Ġtheoretical": 6938,
      "Ġacquired": 6939,
      "emble": 6940,
      "Results": 6941,
      "ĠMiddle": 6942,
      "Ġcov": 6943,
      "Ġcomedy": 6944,
      "ĠPower": 6945,
      "iser": 6946,
      "char": 6947,
      "onto": 6948,
      "}$)": 6949,
      "ĠJr": 6950,
      "gest": 6951,
      "ĠDec": 6952,
      "Ġships": 6953,
      "Ġassign": 6954,
      "ĠPoland": 6955,
      "het": 6956,
      "ĠStan": 6957,
      "ĠGovernor": 6958,
      "iger": 6959,
      "Ġadvantage": 6960,
      "nergy": 6961,
      "power": 6962,
      "enger": 6963,
      "cs": 6964,
      "[(": 6965,
      "Ġdivided": 6966,
      "Pol": 6967,
      "irds": 6968,
      "ĠAndrew": 6969,
      "});": 6970,
      "going": 6971,
      "Ġener": 6972,
      "ĠStand": 6973,
      "onia": 6974,
      "chester": 6975,
      "ĠSecretary": 6976,
      "ĠBang": 6977,
      "first": 6978,
      "1948": 6979,
      "Ġroll": 6980,
      "Ġchannels": 6981,
      "Ġ~~\\": 6982,
      "Ġtechnical": 6983,
      "break": 6984,
      "Ġimportance": 6985,
      "ĠGet": 6986,
      "ĠMassachusetts": 6987,
      "Ġ$|\\": 6988,
      "ĠRay": 6989,
      "Ġacting": 6990,
      "ĠBa": 6991,
      "ĠSet": 6992,
      "inals": 6993,
      "ĠEastern": 6994,
      "outhe": 6995,
      "Ġfans": 6996,
      "Ġwidely": 6997,
      "Comp": 6998,
      "))$": 6999,
      "Ġusual": 7000,
      "ipage": 7001,
      "Sw": 7002,
      "uten": 7003,
      "Ġchart": 7004,
      "ifies": 7005,
      "ĠFurthermore": 7006,
      "Ġple": 7007,
      "ĠWall": 7008,
      "Ġimproved": 7009,
      "ĠLim": 7010,
      "1939": 7011,
      "Ġtechnique": 7012,
      "Ġfootballer": 7013,
      "Ġissued": 7014,
      "po": 7015,
      "Ġmanaged": 7016,
      "minipage": 7017,
      "edia": 7018,
      "idel": 7019,
      "ĠOxford": 7020,
      "Ġregional": 7021,
      "ĠMedia": 7022,
      "Ġcontest": 7023,
      "Ġacceler": 7024,
      "Ġdedicated": 7025,
      "Ġanalog": 7026,
      "she": 7027,
      "ĠSunday": 7028,
      "itivity": 7029,
      "CR": 7030,
      "ĠPhys": 7031,
      "aby": 7032,
      "Ġque": 7033,
      "Ġpsych": 7034,
      "Introduction": 7035,
      "Ġapparent": 7036,
      "Ġsubsequently": 7037,
      "mitted": 7038,
      "ponent": 7039,
      "Ġadministration": 7040,
      "rage": 7041,
      "Ġconj": 7042,
      "Ġplanet": 7043,
      "teen": 7044,
      "Ġaxis": 7045,
      "ĠSea": 7046,
      "Ġdepending": 7047,
      "llap": 7048,
      "Ġefficiency": 7049,
      "Ġfluct": 7050,
      "Color": 7051,
      "Ġclusters": 7052,
      "ĠCommunity": 7053,
      "cknowled": 7054,
      "Ġspl": 7055,
      "textbullet": 7056,
      "inity": 7057,
      "Des": 7058,
      "Ġpartial": 7059,
      "Ġkept": 7060,
      "Ġ]": 7061,
      "udget": 7062,
      "LA": 7063,
      "Ġphysics": 7064,
      "ĠWild": 7065,
      "water": 7066,
      "gr": 7067,
      "amm": 7068,
      "weet": 7069,
      "ĠPop": 7070,
      "Ġpartition": 7071,
      "Ġcarri": 7072,
      "mosp": 7073,
      "Ġmuseum": 7074,
      "Ġpicture": 7075,
      "Ġpandemic": 7076,
      "Ġsched": 7077,
      "Ġtasks": 7078,
      "Å¡": 7079,
      "Ġbillion": 7080,
      "Ġopportunity": 7081,
      "Ġacts": 7082,
      "ĠPortug": 7083,
      "$),": 7084,
      "Ġisol": 7085,
      "Ġtraffic": 7086,
      "ĠAsh": 7087,
      "1957": 7088,
      "Next": 7089,
      "ĠSciences": 7090,
      "elligence": 7091,
      "1943": 7092,
      "mc": 7093,
      "Ġvon": 7094,
      "IF": 7095,
      "ĠKorea": 7096,
      "Ġclubs": 7097,
      "Ġbright": 7098,
      "Sports": 7099,
      "Ġgrid": 7100,
      "Ġhands": 7101,
      "ĠHospital": 7102,
      "ĠTaylor": 7103,
      "ĠLuc": 7104,
      "Ġanswer": 7105,
      "Ġexplained": 7106,
      "Ġlayers": 7107,
      "Ġbridge": 7108,
      "ĠServices": 7109,
      "Ġdiam": 7110,
      "Ġretired": 7111,
      "gies": 7112,
      "}{(": 7113,
      "Ġbeam": 7114,
      "itness": 7115,
      "ĠBol": 7116,
      "ditional": 7117,
      "current": 7118,
      "Ġlaunch": 7119,
      "Ġsubt": 7120,
      "Ġprediction": 7121,
      "Ġfinding": 7122,
      "Ġprofessor": 7123,
      "Ġtrend": 7124,
      "Ġcosts": 7125,
      "ĠUsing": 7126,
      "ĠRailway": 7127,
      "Ġlocations": 7128,
      "Ġdimensions": 7129,
      "ĠAcc": 7130,
      "Ã±": 7131,
      "uing": 7132,
      ")}_{": 7133,
      "Ġlimits": 7134,
      "Ġorders": 7135,
      "gers": 7136,
      "has": 7137,
      "Ġstress": 7138,
      "ĠSi": 7139,
      "1952": 7140,
      "Ġ${": 7141,
      "plate": 7142,
      "ucky": 7143,
      "uous": 7144,
      "ĠBuild": 7145,
      "Ġdrop": 7146,
      "Ġclaims": 7147,
      "Ġamplitude": 7148,
      "pective": 7149,
      "Ġexecutive": 7150,
      "ĠAff": 7151,
      "ometric": 7152,
      "1941": 7153,
      "ĠJes": 7154,
      "anging": 7155,
      "Ġattacks": 7156,
      "CM": 7157,
      "ustain": 7158,
      "El": 7159,
      "Ġflight": 7160,
      "ĠCat": 7161,
      "hetic": 7162,
      "Ġpropos": 7163,
      "dy": 7164,
      "Ġreform": 7165,
      "Ġfellow": 7166,
      "Ġlands": 7167,
      "Ġscales": 7168,
      "Ġupdate": 7169,
      "floor": 7170,
      "phant": 7171,
      "ori": 7172,
      "That": 7173,
      "Ġarticles": 7174,
      "two": 7175,
      "ĠWilson": 7176,
      "Ġstrugg": 7177,
      "Ġtests": 7178,
      "ĠIN": 7179,
      "Ġfort": 7180,
      "().": 7181,
      "ĠSoc": 7182,
      "Ġlett": 7183,
      "estic": 7184,
      "Ġsuc": 7185,
      "());": 7186,
      "ĠBell": 7187,
      "rank": 7188,
      "illy": 7189,
      "Ġfloor": 7190,
      "Ġcontinues": 7191,
      "Ġimplementation": 7192,
      "shire": 7193,
      "Ġalle": 7194,
      "ĠLittle": 7195,
      "Ġprimarily": 7196,
      "}{|": 7197,
      "after": 7198,
      "iced": 7199,
      "ĠWis": 7200,
      "ĠJustice": 7201,
      "ĠLatin": 7202,
      "Ġweap": 7203,
      "bas": 7204,
      "itzer": 7205,
      "1946": 7206,
      "Ġwhereas": 7207,
      "idents": 7208,
      "ĠJackson": 7209,
      "ĠSports": 7210,
      "ĠUp": 7211,
      "Ġtrees": 7212,
      "ĠLo": 7213,
      "ĠDar": 7214,
      "Ġitems": 7215,
      "cccc": 7216,
      "Ġquadr": 7217,
      "comple": 7218,
      "emy": 7219,
      "ĠEp": 7220,
      "Ġwinner": 7221,
      "Ġkernel": 7222,
      "Ġinfinite": 7223,
      "1955": 7224,
      "Ġequipment": 7225,
      "Ġtend": 7226,
      "Ġnarrow": 7227,
      "onical": 7228,
      "Ġpseud": 7229,
      "igration": 7230,
      "ulpt": 7231,
      "agnetic": 7232,
      "Ġmarked": 7233,
      "Therefore": 7234,
      "Gu": 7235,
      "Rel": 7236,
      "Post": 7237,
      ":}": 7238,
      "Ġdelay": 7239,
      "Ġyouth": 7240,
      "tfrac": 7241,
      "Ġsides": 7242,
      "bot": 7243,
      "ĠAM": 7244,
      "Ġregarding": 7245,
      "ricts": 7246,
      "Ġpowerful": 7247,
      "ĠBroad": 7248,
      "Ġsecondary": 7249,
      "Ġlanguages": 7250,
      "cref": 7251,
      "zz": 7252,
      "ĠProfessor": 7253,
      "inson": 7254,
      "una": 7255,
      "dney": 7256,
      "fort": 7257,
      "Ġlabor": 7258,
      "only": 7259,
      "Ġcalculations": 7260,
      "ĠFour": 7261,
      "ĠDisc": 7262,
      "amber": 7263,
      "Ġpersonnel": 7264,
      "Ġmarriage": 7265,
      "Ġgraphs": 7266,
      "Ġdevices": 7267,
      "Ġsport": 7268,
      "SD": 7269,
      "tan": 7270,
      "Ġbands": 7271,
      "Ġremark": 7272,
      "aren": 7273,
      "ami": 7274,
      "ĠJon": 7275,
      "izabeth": 7276,
      "ĠGirl": 7277,
      "Ġcommonly": 7278,
      "Ġdraft": 7279,
      "Ġsucceed": 7280,
      "Ġsuggests": 7281,
      "Ġcreating": 7282,
      "iful": 7283,
      "Ġuncertainty": 7284,
      "}{*}{": 7285,
      "core": 7286,
      "GC": 7287,
      "Ġcalculation": 7288,
      "Ġlab": 7289,
      "Ġexpand": 7290,
      "Ġvehicle": 7291,
      "system": 7292,
      "Ġideas": 7293,
      "Ġdisapp": 7294,
      "ifts": 7295,
      "struct": 7296,
      "Ġorganized": 7297,
      "tw": 7298,
      "Ġexception": 7299,
      "ĠModel": 7300,
      "Ġsecret": 7301,
      "igr": 7302,
      "Finally": 7303,
      "SA": 7304,
      "user": 7305,
      "United": 7306,
      "Ġdaily": 7307,
      "Ġpaid": 7308,
      "ĠScottish": 7309,
      "ĠBC": 7310,
      "Ġrecall": 7311,
      "ĠEgypt": 7312,
      "ronic": 7313,
      "Ġadding": 7314,
      "ĠColumbia": 7315,
      "Ġintended": 7316,
      "abled": 7317,
      "lesssim": 7318,
      "ologist": 7319,
      "anta": 7320,
      ")}}": 7321,
      "EL": 7322,
      "Ġpolic": 7323,
      "Ġsuff": 7324,
      "Ġexpat": 7325,
      "rovers": 7326,
      "Ġfigures": 7327,
      "riday": 7328,
      "ĠHung": 7329,
      "SL": 7330,
      "ĠHong": 7331,
      "Ġ!=": 7332,
      "-$": 7333,
      "Ġinvestigation": 7334,
      "Ġfifth": 7335,
      "Year": 7336,
      "Ġprinciple": 7337,
      "Ġhouses": 7338,
      "aug": 7339,
      "Ġepisodes": 7340,
      "ocument": 7341,
      "ĠBerlin": 7342,
      "ĠPlaces": 7343,
      "Ġtail": 7344,
      "1947": 7345,
      "nav": 7346,
      "Ġmodified": 7347,
      "Ġeveryone": 7348,
      "Will": 7349,
      "Ġlatest": 7350,
      "PI": 7351,
      "}\\,\\": 7352,
      "Ġearned": 7353,
      "ĠDaniel": 7354,
      "usal": 7355,
      "Ġbounds": 7356,
      "ĠManagement": 7357,
      "ĠÎ": 7358,
      "~~~~": 7359,
      "Ġconference": 7360,
      "Ġlie": 7361,
      "ĠWeek": 7362,
      "ĠLight": 7363,
      "Ġconvex": 7364,
      "Ġdefault": 7365,
      "midrule": 7366,
      "ĠAlexander": 7367,
      "Ñģ": 7368,
      "summary": 7369,
      "ĠBecause": 7370,
      "Ġion": 7371,
      "disc": 7372,
      "omer": 7373,
      "iate": 7374,
      "Ġ\\!": 7375,
      "Ġassociation": 7376,
      "Ġcandidates": 7377,
      "Ġawards": 7378,
      "ĠFace": 7379,
      "++": 7380,
      "Serv": 7381,
      "car": 7382,
      "ĠMike": 7383,
      "Ġdamage": 7384,
      "ruit": 7385,
      "ĠJean": 7386,
      "ĠRepublican": 7387,
      "bigl": 7388,
      "Ġrotation": 7389,
      ":#": 7390,
      "ropical": 7391,
      "Ġmedian": 7392,
      "Ġaccepted": 7393,
      "Ġgradient": 7394,
      "Ġfacilities": 7395,
      "ĠStation": 7396,
      "ubb": 7397,
      "Ġimplic": 7398,
      "yo": 7399,
      "Ġinstall": 7400,
      "Some": 7401,
      "ĠSM": 7402,
      "Ġindeed": 7403,
      "Ġmedium": 7404,
      "Ġsubgroup": 7405,
      "open": 7406,
      "Ġspirit": 7407,
      "Ġowner": 7408,
      "Ġcomplexity": 7409,
      "Ġcoefficient": 7410,
      "ĠFederal": 7411,
      "ĠColor": 7412,
      "Ġrequirements": 7413,
      "tty": 7414,
      "Ġlocally": 7415,
      "Ġdecomposition": 7416,
      "thur": 7417,
      "Ġofficials": 7418,
      "Ġattend": 7419,
      "ĠConserv": 7420,
      "antry": 7421,
      "Ġdescribes": 7422,
      "ĠJeff": 7423,
      "ĠUN": 7424,
      "1954": 7425,
      "Ġdust": 7426,
      "Ġcars": 7427,
      "ĠAN": 7428,
      "Ġexponential": 7429,
      "herent": 7430,
      "ĠEven": 7431,
      "Ġorbit": 7432,
      "ĠOrgan": 7433,
      "Ġhockey": 7434,
      "ĠCreek": 7435,
      "Ġsupply": 7436,
      "Error": 7437,
      "athan": 7438,
      "Members": 7439,
      "iner": 7440,
      "aturday": 7441,
      "Act": 7442,
      "Ġbeat": 7443,
      "Ġtried": 7444,
      "vee": 7445,
      "Ġstarts": 7446,
      "Ġstreet": 7447,
      "GL": 7448,
      "Ġemphas": 7449,
      "1953": 7450,
      "ĠEst": 7451,
      "ilbert": 7452,
      "ĠVill": 7453,
      "ĠVictoria": 7454,
      "Ġpet": 7455,
      "indu": 7456,
      "Ġvariation": 7457,
      "1949": 7458,
      "Ġacademic": 7459,
      "Mon": 7460,
      "Ġnotice": 7461,
      ":=": 7462,
      "Ġsort": 7463,
      "Ġcreation": 7464,
      "ĠJer": 7465,
      "Ext": 7466,
      "Ġgeometry": 7467,
      "Ġaffected": 7468,
      "Ġrestaur": 7469,
      "ĠÅ": 7470,
      "lers": 7471,
      "ĠThree": 7472,
      "Ġirre": 7473,
      "Ġlemma": 7474,
      "Att": 7475,
      "Ġtoward": 7476,
      "Ġlibrary": 7477,
      "British": 7478,
      "Ġversions": 7479,
      "Ġoptimization": 7480,
      "Box": 7481,
      "Ġsolve": 7482,
      "ĠBoy": 7483,
      "Ġarrived": 7484,
      "ĠBul": 7485,
      "bigr": 7486,
      "ĠChris": 7487,
      "Add": 7488,
      "ennes": 7489,
      "Text": 7490,
      "Ġstatistical": 7491,
      "^*$": 7492,
      "Ġreviews": 7493,
      "ĠĠĠĠĠĠĠĠĠĠĠĠĠĠ": 7494,
      "Using": 7495,
      "Ġdenoted": 7496,
      "OD": 7497,
      "Ġmiles": 7498,
      "ĠAst": 7499,
      "Ġtwice": 7500,
      "Ġmodule": 7501,
      "TE": 7502,
      "Ġtools": 7503,
      "Ġpeace": 7504,
      "uum": 7505,
      "Ġcond": 7506,
      "Ġprime": 7507,
      "block": 7508,
      "ĠLater": 7509,
      "base": 7510,
      "ĠTam": 7511,
      "Ġlargely": 7512,
      "Ġangular": 7513,
      "brid": 7514,
      "ĠPen": 7515,
      "Ġscenario": 7516,
      "ĠBBC": 7517,
      "ĠIndust": 7518,
      "Ġancient": 7519,
      "uated": 7520,
      "Ġmess": 7521,
      "Ac": 7522,
      "rect": 7523,
      "Ġintegration": 7524,
      "Ġcharacteristic": 7525,
      "ultane": 7526,
      "process": 7527,
      "Ġ\\]": 7528,
      "ĠInformation": 7529,
      "ĠFree": 7530,
      "Ġinvolving": 7531,
      "Sm": 7532,
      "1951": 7533,
      "forward": 7534,
      "ĠMedical": 7535,
      "cat": 7536,
      "Ġtraject": 7537,
      "Ġcollected": 7538,
      "Ġstability": 7539,
      "ups": 7540,
      "clusive": 7541,
      "Ġfocused": 7542,
      "University": 7543,
      "Ġthin": 7544,
      ".</": 7545,
      "ĠPubl": 7546,
      "zen": 7547,
      "VD": 7548,
      "ĠStat": 7549,
      "Ġsatisfying": 7550,
      "Ġturns": 7551,
      "ĠAnother": 7552,
      "ĠBelg": 7553,
      "iÄĩ": 7554,
      "uster": 7555,
      "also": 7556,
      "Ġstream": 7557,
      "hens": 7558,
      "ects": 7559,
      "Ġalongside": 7560,
      "Disc": 7561,
      "Ġmultiplic": 7562,
      "Ġcharged": 7563,
      "Ġlov": 7564,
      "oses": 7565,
      "Ġchallenge": 7566,
      "ĠGoogle": 7567,
      "ĠMinistry": 7568,
      "ĠIslands": 7569,
      "eman": 7570,
      "Ġmorning": 7571,
      "Ġcaptured": 7572,
      "]}": 7573,
      "May": 7574,
      "Ġtool": 7575,
      "Che": 7576,
      "Ġdiscrete": 7577,
      "ederation": 7578,
      "Ġsolar": 7579,
      "](": 7580,
      "aki": 7581,
      "Ġprocessing": 7582,
      "Ġprincipal": 7583,
      ")--": 7584,
      "Ġcert": 7585,
      "agon": 7586,
      "Ġevaluation": 7587,
      "rs": 7588,
      "Ġsle": 7589,
      "ĠChristmas": 7590,
      "Tra": 7591,
      "unte": 7592,
      "Cur": 7593,
      "They": 7594,
      "object": 7595,
      "ĠMuslim": 7596,
      "Ġsomew": 7597,
      "Ġfeaturing": 7598,
      "ads": 7599,
      "tes": 7600,
      "tail": 7601,
      "sey": 7602,
      "nbsp": 7603,
      "pson": 7604,
      "Section": 7605,
      "iga": 7606,
      "OP": 7607,
      "Ġwrong": 7608,
      "Requ": 7609,
      "life": 7610,
      "Ġincident": 7611,
      "ĠMic": 7612,
      "Ġvictim": 7613,
      "Ġpra": 7614,
      "Ġleadership": 7615,
      "ĠStudies": 7616,
      "250": 7617,
      "ĠAD": 7618,
      "]$.": 7619,
      "Ġplanned": 7620,
      "Dem": 7621,
      "$:": 7622,
      "Ġbin": 7623,
      "\\}$.": 7624,
      "stable": 7625,
      "mediate": 7626,
      "$_{": 7627,
      "connect": 7628,
      "General": 7629,
      "kh": 7630,
      "Ġchance": 7631,
      "Ġplants": 7632,
      "Ġnamely": 7633,
      "dule": 7634,
      "File": 7635,
      "ĠFollowing": 7636,
      "ĠPoint": 7637,
      "zech": 7638,
      "Ġdial": 7639,
      "())": 7640,
      "Ġentropy": 7641,
      "Ġvertical": 7642,
      "Ġrobust": 7643,
      "Ġcoinc": 7644,
      "=\"+": 7645,
      "Ġ[\\": 7646,
      "Group": 7647,
      "bal": 7648,
      "Ġbuy": 7649,
      "Ġera": 7650,
      "risis": 7651,
      "ĠSom": 7652,
      "Ġplanning": 7653,
      "Ġboy": 7654,
      ",$": 7655,
      "owa": 7656,
      "Ġearth": 7657,
      "ĠDig": 7658,
      "Ġprogramming": 7659,
      "Ġlearned": 7660,
      "Ġperforming": 7661,
      "ez": 7662,
      "INE": 7663,
      "Ġradiation": 7664,
      "OC": 7665,
      "Ġtransferred": 7666,
      "Ġven": 7667,
      "Ġconven": 7668,
      "Ġeastern": 7669,
      "Ġrepresenting": 7670,
      "imately": 7671,
      "oken": 7672,
      "Ġpix": 7673,
      "}~~{": 7674,
      "inion": 7675,
      "Ġemployed": 7676,
      "Ġcook": 7677,
      "ĠCorn": 7678,
      "urer": 7679,
      "ĠSupreme": 7680,
      "ĠLew": 7681,
      "Ġcapture": 7682,
      "Ġcorpor": 7683,
      "ĠPrime": 7684,
      "akh": 7685,
      "ĠCorps": 7686,
      "strong": 7687,
      "Ġabund": 7688,
      "Ġfailure": 7689,
      "ĠRaj": 7690,
      "'ll": 7691,
      "Ġnet": 7692,
      "ĠBon": 7693,
      "Ġbaseball": 7694,
      "Ġcalls": 7695,
      "Event": 7696,
      "0000": 7697,
      "lementary": 7698,
      "Ġsexual": 7699,
      "aus": 7700,
      "ĠRen": 7701,
      "ĠOs": 7702,
      "Ġdriving": 7703,
      "ĠMcC": 7704,
      "Ġadvert": 7705,
      "ĠMaster": 7706,
      "ĠBrad": 7707,
      "ĠJacob": 7708,
      "clusions": 7709,
      "Ġextend": 7710,
      ";\\;\\": 7711,
      "Austral": 7712,
      "ĠFamily": 7713,
      "phia": 7714,
      "Ġsubstant": 7715,
      "ĠOnt": 7716,
      "ĠIR": 7717,
      "brace": 7718,
      "Ġtruth": 7719,
      "bottom": 7720,
      "Ġbegins": 7721,
      "ussion": 7722,
      "found": 7723,
      "Ġfeet": 7724,
      "Ġcomplic": 7725,
      "Ġpit": 7726,
      "Ġmotor": 7727,
      "))\\": 7728,
      "acent": 7729,
      "Count": 7730,
      "ĠSydney": 7731,
      "ĠPolish": 7732,
      "called": 7733,
      "Inst": 7734,
      "Ġisomorphism": 7735,
      "Ġspot": 7736,
      "Ġatmosp": 7737,
      "Dist": 7738,
      "ĠCommon": 7739,
      "pto": 7740,
      "Ġstrain": 7741,
      "ĠDown": 7742,
      "tiny": 7743,
      "mathop": 7744,
      "Ã¢": 7745,
      "Ġheard": 7746,
      "ĠMinnes": 7747,
      "ĠDesign": 7748,
      "ĠVis": 7749,
      "ĠRev": 7750,
      "bourne": 7751,
      "ected": 7752,
      "Ġmunicipality": 7753,
      "Ġengineering": 7754,
      "bro": 7755,
      "Ġconsequence": 7756,
      "jected": 7757,
      "Ġends": 7758,
      "Ġunderlying": 7759,
      "sect": 7760,
      "ĠKenn": 7761,
      "Ġscaling": 7762,
      "etherlands": 7763,
      "\"></": 7764,
      "}}_{\\": 7765,
      "cut": 7766,
      "ĠOlympic": 7767,
      "Ġtells": 7768,
      "Ġcompeted": 7769,
      "Ġreturns": 7770,
      "Ġinnov": 7771,
      "wing": 7772,
      "Ġmathemat": 7773,
      "Ġbond": 7774,
      "ĠKim": 7775,
      "raine": 7776,
      "ĠGuard": 7777,
      "Ġmanner": 7778,
      "Ġtroops": 7779,
      "Ġpal": 7780,
      "Ġbra": 7781,
      "1936": 7782,
      "ĠMicro": 7783,
      "ĠMinnesota": 7784,
      "Ġblocks": 7785,
      "World": 7786,
      "Ġappearances": 7787,
      "Ġvehicles": 7788,
      "Ġtrip": 7789,
      "fold": 7790,
      "Ġscientific": 7791,
      "ĠKorean": 7792,
      "Ġplus": 7793,
      "Ġjump": 7794,
      "ector": 7795,
      "ÅĤ": 7796,
      "]{\\": 7797,
      "':": 7798,
      "Ġopposite": 7799,
      "Ġpossibly": 7800,
      "aud": 7801,
      "Ġshell": 7802,
      "kee": 7803,
      "Ġagreed": 7804,
      "oster": 7805,
      "Ġprojection": 7806,
      "ĠSant": 7807,
      "ictures": 7808,
      "Ġmeant": 7809,
      "Ġsufficiently": 7810,
      ",\\\\": 7811,
      "Ġtempor": 7812,
      "SF": 7813,
      "ĠArgent": 7814,
      "Do": 7815,
      "Ġsubsequent": 7816,
      "Ġpages": 7817,
      "Music": 7818,
      "ĠRun": 7819,
      "Ġathlet": 7820,
      "Ġflag": 7821,
      "diag": 7822,
      "III": 7823,
      "Although": 7824,
      "adi": 7825,
      "Ġequilibrium": 7826,
      "amin": 7827,
      "aved": 7828,
      "writer": 7829,
      "Ġcalculate": 7830,
      "Ġbomb": 7831,
      "Ã¡n": 7832,
      "ĠViet": 7833,
      "ĠCas": 7834,
      "ĠAdminist": 7835,
      "Ġrepresentations": 7836,
      "Ġsurrounding": 7837,
      "ATE": 7838,
      "oolean": 7839,
      "adelphia": 7840,
      "OL": 7841,
      "pg": 7842,
      "Ġeconomy": 7843,
      "BM": 7844,
      "Ġoccurred": 7845,
      "Ð¾Ð": 7846,
      "ĠBand": 7847,
      "Ġadjust": 7848,
      "ped": 7849,
      "ĠRod": 7850,
      "'.": 7851,
      "Ġcoordinate": 7852,
      "osophy": 7853,
      "anth": 7854,
      "consin": 7855,
      "Ġneutr": 7856,
      "ifer": 7857,
      "PU": 7858,
      "Ġsuitable": 7859,
      "ĠWalk": 7860,
      "Ġhonor": 7861,
      "oned": 7862,
      "ego": 7863,
      "Ġswitch": 7864,
      "Model": 7865,
      "Ġpredicted": 7866,
      "Ġfinds": 7867,
      "1918": 7868,
      "Ġcitizens": 7869,
      "ĠUs": 7870,
      "ĠElizabeth": 7871,
      "vector": 7872,
      "Ġconstitu": 7873,
      "Ġprominent": 7874,
      "anged": 7875,
      "ocated": 7876,
      "Ġemployees": 7877,
      "Ġisn": 7878,
      "ĠPakistan": 7879,
      "Ġroles": 7880,
      "ĠAssum": 7881,
      "Ġnewspaper": 7882,
      "$&": 7883,
      "ĠFair": 7884,
      "gency": 7885,
      "Ġenh": 7886,
      "ĠSher": 7887,
      "ĠRog": 7888,
      "Ġsummar": 7889,
      "Ġspeech": 7890,
      "ingly": 7891,
      "Ġcrime": 7892,
      "ĠAirport": 7893,
      "dfrac": 7894,
      "Ġdetected": 7895,
      "\\;": 7896,
      "ĠMarg": 7897,
      "Ġconvent": 7898,
      "ĠSuch": 7899,
      "spe": 7900,
      "Ġhousing": 7901,
      "Ġteacher": 7902,
      "module": 7903,
      "Ġdispers": 7904,
      "Ġstock": 7905,
      "zh": 7906,
      "Ġheav": 7907,
      "etal": 7908,
      "ĠFund": 7909,
      "emeter": 7910,
      "ĠDun": 7911,
      "HL": 7912,
      "ĠNa": 7913,
      "axis": 7914,
      "}~~{}$\\": 7915,
      "Ġ/>": 7916,
      "ented": 7917,
      "joint": 7918,
      "olis": 7919,
      "TC": 7920,
      "Ġconsec": 7921,
      "]$,": 7922,
      "ĠExt": 7923,
      "Ġtranslation": 7924,
      "Ġfinish": 7925,
      "ilter": 7926,
      "Ġcrow": 7927,
      "othing": 7928,
      "orney": 7929,
      "}}}\\": 7930,
      "...,": 7931,
      "[-": 7932,
      "Ġfashion": 7933,
      "ĠRa": 7934,
      "osa": 7935,
      "ĠSus": 7936,
      "HC": 7937,
      "heim": 7938,
      "sat": 7939,
      "Ġprovince": 7940,
      "Ġnotes": 7941,
      "Ġly": 7942,
      "ĠNC": 7943,
      "][]{": 7944,
      "Ġprepar": 7945,
      "Ġnor": 7946,
      "Ġluminos": 7947,
      "Ġcoal": 7948,
      "Ġpromoted": 7949,
      "Ġinterface": 7950,
      "bell": 7951,
      "utenant": 7952,
      "Ġsail": 7953,
      "1938": 7954,
      "ĠMain": 7955,
      "Ġturb": 7956,
      "arse": 7957,
      "Ġassistant": 7958,
      "Ġweights": 7959,
      "${\\": 7960,
      "orship": 7961,
      "Ġvirtual": 7962,
      "Ġaware": 7963,
      "Ġshock": 7964,
      "Ġ);": 7965,
      "Ġestimation": 7966,
      "Ġprotection": 7967,
      "rog": 7968,
      "Ġmotiv": 7969,
      "Ġinstitutions": 7970,
      "Ġsoldiers": 7971,
      "ontal": 7972,
      "Ġcorner": 7973,
      "Ġtheories": 7974,
      ",\\,\\": 7975,
      "oles": 7976,
      "Ġenvironmental": 7977,
      "Ġgravit": 7978,
      "Ġgrew": 7979,
      "ĠPM": 7980,
      "Ġtrig": 7981,
      "Ġsilver": 7982,
      "à¸": 7983,
      "Ġinspired": 7984,
      "Ġresource": 7985,
      "Ġexpanded": 7986,
      "Ġspecifically": 7987,
      "Ġdimensional": 7988,
      "oli": 7989,
      "Field": 7990,
      "Ġviews": 7991,
      "Ġpolitics": 7992,
      "Ġtransmission": 7993,
      "watch": 7994,
      "scriptstyle": 7995,
      "hab": 7996,
      "rice": 7997,
      "ĠBack": 7998,
      "leton": 7999,
      "Ġcrim": 8000,
      "Ġpatterns": 8001,
      "names": 8002,
      "orthe": 8003,
      "Ġinjury": 8004,
      "ĠCorporation": 8005,
      "Ġfunding": 8006,
      "Ġapplying": 8007,
      "Ġrepresentative": 8008,
      "Ġpossibility": 8009,
      "Ġresearc": 8010,
      "okes": 8011,
      ",{\\": 8012,
      "apore": 8013,
      "Dr": 8014,
      "white": 8015,
      "ditionally": 8016,
      "ynamic": 8017,
      "eless": 8018,
      "integ": 8019,
      "Ġaudience": 8020,
      "ĠWeb": 8021,
      "ĠRome": 8022,
      "Ġaccurate": 8023,
      "Ġcommit": 8024,
      "Ġagents": 8025,
      "adow": 8026,
      "Ġsculpt": 8027,
      "Ġcm": 8028,
      "uv": 8029,
      "ĠVen": 8030,
      "result": 8031,
      "Ġobjective": 8032,
      "ĠMond": 8033,
      "Ġdeploy": 8034,
      "ĠAvenue": 8035,
      "Ġinvestigate": 8036,
      "uler": 8037,
      "scriptsize": 8038,
      "ptic": 8039,
      "ĠPass": 8040,
      "aste": 8041,
      "pool": 8042,
      "ni": 8043,
      "ught": 8044,
      "Ġminister": 8045,
      "South": 8046,
      "lock": 8047,
      "raq": 8048,
      "weg": 8049,
      "Ġdatasets": 8050,
      "lyn": 8051,
      "Ġcoverage": 8052,
      "ĠTok": 8053,
      "ronze": 8054,
      "Ġserves": 8055,
      "Ġrecognition": 8056,
      "Ġperman": 8057,
      "Ġextremely": 8058,
      "ategory": 8059,
      "Ġprotected": 8060,
      "})}": 8061,
      "Ġadvanced": 8062,
      "Ġcategories": 8063,
      "Ġindicated": 8064,
      "ĠIndeed": 8065,
      "ĠPremier": 8066,
      "orption": 8067,
      "ĠRom": 8068,
      "Ġagree": 8069,
      "ĠProdu": 8070,
      "Ġpenal": 8071,
      "yset": 8072,
      "ĠIndepend": 8073,
      "Ġ^{": 8074,
      "600": 8075,
      "Ġahead": 8076,
      "Ġcold": 8077,
      "ĠRegion": 8078,
      "aska": 8079,
      "ĠTy": 8080,
      "ĠToronto": 8081,
      "Ġreality": 8082,
      "Ġelev": 8083,
      "ĠOntario": 8084,
      "Ġcomments": 8085,
      "Ġinverse": 8086,
      "ĠNY": 8087,
      "sign": 8088,
      "Ġindustrial": 8089,
      "Ġreaction": 8090,
      "Ġrural": 8091,
      "peror": 8092,
      "arr": 8093,
      "cisely": 8094,
      "build": 8095,
      "ochastic": 8096,
      "Ġdance": 8097,
      "ĠPrize": 8098,
      "Ġbos": 8099,
      "Nov": 8100,
      "actic": 8101,
      "defined": 8102,
      "(),": 8103,
      "Ġpowers": 8104,
      "Ġclosely": 8105,
      "ĠFer": 8106,
      "Ġreli": 8107,
      "1937": 8108,
      "Polit": 8109,
      "ĠSec": 8110,
      "Gl": 8111,
      "ĠGro": 8112,
      "isms": 8113,
      "results": 8114,
      "ĠSanta": 8115,
      "ĠFire": 8116,
      "Ġrepeated": 8117,
      "ĠNations": 8118,
      "ourney": 8119,
      "His": 8120,
      "Ġrect": 8121,
      "ĠColl": 8122,
      "worth": 8123,
      "longrightarrow": 8124,
      "Ġburn": 8125,
      "Ġwinners": 8126,
      "Ġagric": 8127,
      "Ġmodul": 8128,
      "ĠEngineering": 8129,
      "high": 8130,
      "Ġassumptions": 8131,
      "ĠStadium": 8132,
      "})^": 8133,
      "ĠFriday": 8134,
      "sche": 8135,
      "ĠGlobal": 8136,
      "}[\\": 8137,
      "ĠBeach": 8138,
      "Ġscript": 8139,
      "LC": 8140,
      "ideos": 8141,
      "Ġsequences": 8142,
      "Ġresident": 8143,
      "Ġanyone": 8144,
      "anna": 8145,
      "ĠForest": 8146,
      "ĠHard": 8147,
      "Track": 8148,
      "Ġdiver": 8149,
      "Ġmapping": 8150,
      "ĠAnth": 8151,
      "ĠCambridge": 8152,
      "Ġfrag": 8153,
      "chestra": 8154,
      "pur": 8155,
      "ĠQueens": 8156,
      "vo": 8157,
      "ĠConf": 8158,
      "Ġrelax": 8159,
      "Ref": 8160,
      "ĠKel": 8161,
      "Ġferm": 8162,
      "Ġfish": 8163,
      "ensions": 8164,
      "}}.": 8165,
      "ĠPolit": 8166,
      "Ġconsisting": 8167,
      "Top": 8168,
      "Ġexcell": 8169,
      "aret": 8170,
      "._": 8171,
      "vature": 8172,
      "hard": 8173,
      "âĢĿ.": 8174,
      "ĠAR": 8175,
      "ĠLog": 8176,
      "Ġstorage": 8177,
      "Ġimplemented": 8178,
      "Ġevaluate": 8179,
      "Ġpassing": 8180,
      "ordan": 8181,
      "hl": 8182,
      "Ġdiagonal": 8183,
      "heta": 8184,
      "DR": 8185,
      "!--": 8186,
      "Dis": 8187,
      "Ġcharges": 8188,
      "DM": 8189,
      "sex": 8190,
      "Ġdriver": 8191,
      "})=": 8192,
      "Ġliber": 8193,
      "Ġrom": 8194,
      "Ġalt": 8195,
      "Ġperhaps": 8196,
      "yard": 8197,
      "final": 8198,
      "ĠDer": 8199,
      "Ġchanging": 8200,
      "Map": 8201,
      "config": 8202,
      "Ġhistoric": 8203,
      "ĠHun": 8204,
      "Ġbulk": 8205,
      "iang": 8206,
      "Ġiron": 8207,
      "Ġcolle": 8208,
      "Ġsuccessfully": 8209,
      "Ġbehaviour": 8210,
      "Ġcontrad": 8211,
      "Index": 8212,
      "Ġnone": 8213,
      "ĠExec": 8214,
      "apse": 8215,
      "Ġsimultane": 8216,
      "Ġbias": 8217,
      "Ä±": 8218,
      "Äį": 8219,
      "Ġperformances": 8220,
      "ĠNetherlands": 8221,
      "Ġrich": 8222,
      "emptyset": 8223,
      "Ġhuge": 8224,
      "Ġdeveloping": 8225,
      "Ġdesired": 8226,
      "ĠOt": 8227,
      "itative": 8228,
      "mi": 8229,
      "Ġwing": 8230,
      "rapy": 8231,
      "Ġsoc": 8232,
      "Ġcontrovers": 8233,
      "}})": 8234,
      "Ġconcer": 8235,
      "yles": 8236,
      "Ġexperi": 8237,
      "');": 8238,
      "aped": 8239,
      "gal": 8240,
      "Ġexpatriate": 8241,
      "Ġconsult": 8242,
      "Ġmaximal": 8243,
      "Ġanimals": 8244,
      "ĠAnton": 8245,
      "Ġexplicitly": 8246,
      "ĠSaturday": 8247,
      "ĠOfficial": 8248,
      "ĠAud": 8249,
      "Ġjet": 8250,
      "isted": 8251,
      "ĠCub": 8252,
      "Ġintroduction": 8253,
      "ĠCirc": 8254,
      "ĠEvery": 8255,
      "Ġsafe": 8256,
      "ĠAppendix": 8257,
      "ĠBad": 8258,
      "quarters": 8259,
      "Ġmusicians": 8260,
      "ĠLive": 8261,
      "rastructure": 8262,
      "ĠLes": 8263,
      "Ġadvance": 8264,
      "Ġremove": 8265,
      "Ġcamera": 8266,
      "Ġglass": 8267,
      "ĠDespite": 8268,
      "Ġnewly": 8269,
      "icip": 8270,
      "Ġestate": 8271,
      "Right": 8272,
      "lash": 8273,
      "Ã©e": 8274,
      "Ġpurposes": 8275,
      "Ġarguments": 8276,
      "TT": 8277,
      "orig": 8278,
      "notes": 8279,
      "Ġderivative": 8280,
      "nic": 8281,
      "Proof": 8282,
      "Ġcustomers": 8283,
      "ĠAk": 8284,
      "formance": 8285,
      "vart": 8286,
      "Ġdoub": 8287,
      "Ġadministrative": 8288,
      "GN": 8289,
      "ĠRevolution": 8290,
      "date": 8291,
      "Ġitem": 8292,
      "anes": 8293,
      "Ġintegrated": 8294,
      "Two": 8295,
      "parent": 8296,
      "Ġdivers": 8297,
      "define": 8298,
      "aton": 8299,
      "Ġvotes": 8300,
      "xx": 8301,
      "utt": 8302,
      "ometry": 8303,
      "oded": 8304,
      "obe": 8305,
      "Ġtemperatures": 8306,
      "ĠWisconsin": 8307,
      "Ġbusinesses": 8308,
      "iveness": 8309,
      "otype": 8310,
      "itled": 8311,
      "Ġofficially": 8312,
      "Ġ{$": 8313,
      "Ġrecognized": 8314,
      "ĠBatt": 8315,
      "Ġcatch": 8316,
      "Ġremember": 8317,
      "Ġurban": 8318,
      "=\"../../": 8319,
      "ĠKir": 8320,
      "ĠDam": 8321,
      "Ġdiagn": 8322,
      "Ġelectronic": 8323,
      "Ġmixing": 8324,
      "Ġtreated": 8325,
      "Ġspring": 8326,
      "Ġce": 8327,
      "Ġask": 8328,
      "Ġfresh": 8329,
      "rell": 8330,
      "ĠStr": 8331,
      "Sing": 8332,
      "Personal": 8333,
      "Ġgeneric": 8334,
      "Ġmobile": 8335,
      "Ġliqu": 8336,
      "apped": 8337,
      "TH": 8338,
      "Ġgraduated": 8339,
      "Ġcovers": 8340,
      "iem": 8341,
      "Cal": 8342,
      "Ġinterior": 8343,
      "800": 8344,
      "ĠPeak": 8345,
      "Ġpolicies": 8346,
      "Ġabsolute": 8347,
      "Ġsell": 8348,
      "Ġready": 8349,
      "second": 8350,
      "jan": 8351,
      "ais": 8352,
      "ĠHay": 8353,
      "Ã¸": 8354,
      "Ġsolo": 8355,
      "Ġrecommend": 8356,
      "ĠGer": 8357,
      "Ġconfirm": 8358,
      "ĠBridge": 8359,
      "Ġlooks": 8360,
      "Ġcircum": 8361,
      "vements": 8362,
      "Ġswim": 8363,
      "Ġdynamic": 8364,
      "Aut": 8365,
      "Ġfell": 8366,
      "eting": 8367,
      "Ġnotable": 8368,
      "Ġfacility": 8369,
      "orders": 8370,
      "hr": 8371,
      "bec": 8372,
      "Ġbrain": 8373,
      "ĠEnergy": 8374,
      "Ġgravity": 8375,
      "Ġap": 8376,
      "bras": 8377,
      "Info": 8378,
      "algebra": 8379,
      "|}{": 8380,
      "rows": 8381,
      "rizona": 8382,
      "vari": 8383,
      "Ġouter": 8384,
      "Ġcomputing": 8385,
      "ĠWho": 8386,
      "anga": 8387,
      "ĠSteve": 8388,
      "ĠTal": 8389,
      "inton": 8390,
      "Ġexplo": 8391,
      "ĠSecurity": 8392,
      "Ġdestroyed": 8393,
      "Ġportion": 8394,
      "Go": 8395,
      "Ġhour": 8396,
      "Ġneural": 8397,
      "aux": 8398,
      "establ": 8399,
      "wart": 8400,
      "\"|": 8401,
      "ourier": 8402,
      "Ġbenefit": 8403,
      "Ġexpert": 8404,
      "Ġbroken": 8405,
      "Ã£": 8406,
      "perial": 8407,
      ")}_": 8408,
      "ĠLind": 8409,
      "1935": 8410,
      "Ġwaves": 8411,
      "aga": 8412,
      "Ġraces": 8413,
      "ogether": 8414,
      "ĠBooks": 8415,
      "rosc": 8416,
      "aught": 8417,
      "Ġdie": 8418,
      "ĠBrig": 8419,
      "ĠIV": 8420,
      "Ġcontrolled": 8421,
      "Ġsend": 8422,
      "Ġcommittee": 8423,
      "algorithm": 8424,
      "Ġconstants": 8425,
      "Ġchampion": 8426,
      "ĠSab": 8427,
      "Ġprotein": 8428,
      "Ġdens": 8429,
      "ritical": 8430,
      "']": 8431,
      "Ġ$.": 8432,
      "Ġ^": 8433,
      "organ": 8434,
      "Ġsave": 8435,
      "Ġsun": 8436,
      "ĠAmericans": 8437,
      "Ġsupporting": 8438,
      "isa": 8439,
      "Ġintensity": 8440,
      "ĠWrit": 8441,
      "islative": 8442,
      "outs": 8443,
      "Ġaspects": 8444,
      "$};": 8445,
      "Ġpieces": 8446,
      "Ġbow": 8447,
      "quot": 8448,
      "Â°": 8449,
      "Ġresulted": 8450,
      "Ġwarm": 8451,
      "Ġenergies": 8452,
      "ci": 8453,
      "elihood": 8454,
      "umes": 8455,
      "Ġflo": 8456,
      "Ġdefense": 8457,
      "Ġzone": 8458,
      "ĠWinter": 8459,
      "olitan": 8460,
      "Ġfib": 8461,
      "Cast": 8462,
      "ĠPers": 8463,
      "trivial": 8464,
      "Ġdecades": 8465,
      "=.": 8466,
      "Ġtrivial": 8467,
      "ĠRon": 8468,
      "Lemma": 8469,
      "ĠComput": 8470,
      "Ġcauses": 8471,
      "PM": 8472,
      "image": 8473,
      "ĠTrust": 8474,
      "Ġtitles": 8475,
      "Ġtheme": 8476,
      "ĠWat": 8477,
      "ĠLady": 8478,
      "asters": 8479,
      "regon": 8480,
      "}_{-": 8481,
      "olve": 8482,
      "yal": 8483,
      "ĠBudd": 8484,
      "enz": 8485,
      "Ġspecified": 8486,
      "Ġspons": 8487,
      "plane": 8488,
      "Ġsession": 8489,
      "Ġentirely": 8490,
      "Ġexpos": 8491,
      "ĠDuke": 8492,
      "ĠLabor": 8493,
      "opher": 8494,
      "Ġsampling": 8495,
      "Ġpool": 8496,
      "Ġbudget": 8497,
      "ĠFox": 8498,
      "rome": 8499,
      "ĠAthlet": 8500,
      "Ġsatell": 8501,
      "ropic": 8502,
      "BI": 8503,
      "Ġcopies": 8504,
      "Ġskills": 8505,
      "1914": 8506,
      "Ġdoor": 8507,
      "dependent": 8508,
      "Ġprecisely": 8509,
      "1919": 8510,
      "Ġarms": 8511,
      "International": 8512,
      "\\)": 8513,
      "ĠOnly": 8514,
      "emetery": 8515,
      "Ġinvestment": 8516,
      "ĠReal": 8517,
      "Ġthank": 8518,
      "achers": 8519,
      "enses": 8520,
      "apes": 8521,
      "Ġintersection": 8522,
      "ĠAuthor": 8523,
      "bu": 8524,
      "Ġradial": 8525,
      "season": 8526,
      "Ġsubs": 8527,
      "number": 8528,
      "Ġfuel": 8529,
      "pes": 8530,
      "Ġauthorities": 8531,
      "iota": 8532,
      "lvec": 8533,
      "MB": 8534,
      "ĠSwedish": 8535,
      "Ġhosted": 8536,
      "ighth": 8537,
      "ĠWars": 8538,
      "ĠBall": 8539,
      "Rem": 8540,
      "Min": 8541,
      "ride": 8542,
      "formal": 8543,
      "title": 8544,
      "utor": 8545,
      "ĠâĢ¢": 8546,
      "Ġhypothesis": 8547,
      "Ġmonitor": 8548,
      "Ġsatisfied": 8549,
      "Ġpredictions": 8550,
      "gebras": 8551,
      "ĠSurvey": 8552,
      "Ġderive": 8553,
      "alion": 8554,
      "Ġextensive": 8555,
      "ito": 8556,
      "Ġcontemporary": 8557,
      "Ġrig": 8558,
      "Ġredshift": 8559,
      "mn": 8560,
      "Ġinteract": 8561,
      "arest": 8562,
      "Ġphoton": 8563,
      "Following": 8564,
      "Path": 8565,
      "Ġcharacteristics": 8566,
      "Ġeyes": 8567,
      "}}^{\\": 8568,
      "Ġidentical": 8569,
      "lov": 8570,
      "perties": 8571,
      "tikzpicture": 8572,
      "Ġdeclared": 8573,
      "Ġdefend": 8574,
      "ĠStephen": 8575,
      "Ġlisting": 8576,
      "Ġ}{": 8577,
      "bet": 8578,
      "bmatrix": 8579,
      "1928": 8580,
      "ĠMill": 8581,
      "Ġdrawn": 8582,
      "Ġembedding": 8583,
      "Har": 8584,
      "1934": 8585,
      "ENT": 8586,
      "PL": 8587,
      "Ġgained": 8588,
      "ierarch": 8589,
      "Ġyards": 8590,
      "Ġmaxim": 8591,
      "start": 8592,
      "1929": 8593,
      "Ġgeneralized": 8594,
      "ĠTai": 8595,
      "Ġstone": 8596,
      "1933": 8597,
      "Ġlowest": 8598,
      "Ġsettlement": 8599,
      "ses": 8600,
      "Ġappeal": 8601,
      "1900": 8602,
      "1917": 8603,
      "df": 8604,
      "Ġsignals": 8605,
      "lav": 8606,
      "Ġextends": 8607,
      "Ġaggreg": 8608,
      "ples": 8609,
      "Ġfiction": 8610,
      "Ġlabels": 8611,
      "urity": 8612,
      "Ġasymptotic": 8613,
      "Ġparticipated": 8614,
      "Ġsuperv": 8615,
      "Ġmunicipal": 8616,
      "Ġvess": 8617,
      "/(": 8618,
      "Ġpush": 8619,
      "Ġfrequently": 8620,
      "Ġseconds": 8621,
      "Ġchallenges": 8622,
      "ĠPhiladelphia": 8623,
      "Ġ$,": 8624,
      "Dav": 8625,
      "Ġconflict": 8626,
      "Ġrational": 8627,
      "ĠGolden": 8628,
      "lywood": 8629,
      "AV": 8630,
      "ĠRegiment": 8631,
      "Ġlosing": 8632,
      "Ġcerem": 8633,
      "Ġpublication": 8634,
      "tect": 8635,
      "Hence": 8636,
      "efe": 8637,
      "step": 8638,
      "cale": 8639,
      "del": 8640,
      "ĠExper": 8641,
      "onym": 8642,
      "Ġaccident": 8643,
      "Ġconclusion": 8644,
      "['": 8645,
      "inking": 8646,
      "Ġpurchased": 8647,
      "Ġcanonical": 8648,
      "ĠSon": 8649,
      "ĠLike": 8650,
      "andy": 8651,
      "Ġcatal": 8652,
      "Ġgar": 8653,
      "Ġhighlight": 8654,
      "sequently": 8655,
      "ifferent": 8656,
      "Association": 8657,
      "ĠCEO": 8658,
      "method": 8659,
      "ĠFacebook": 8660,
      "asty": 8661,
      "ĠDavis": 8662,
      "ĠType": 8663,
      "ĠHo": 8664,
      "PD": 8665,
      "Ġcarbon": 8666,
      "Ġempty": 8667,
      "paragraph": 8668,
      "Ġfluid": 8669,
      "Ġrecip": 8670,
      "Ġexplore": 8671,
      "ello": 8672,
      "ĠEu": 8673,
      "Ġaband": 8674,
      "Ġaffili": 8675,
      "Ġreferences": 8676,
      "Ġtopological": 8677,
      "iki": 8678,
      "uri": 8679,
      "Ġcart": 8680,
      "Ġfounder": 8681,
      "friend": 8682,
      "Best": 8683,
      "istent": 8684,
      "Ġhouseholds": 8685,
      "ĠBru": 8686,
      "âĢĺ": 8687,
      "ĠPrim": 8688,
      "Ġquantities": 8689,
      "\\}\\": 8690,
      "hedral": 8691,
      "Ġbenefits": 8692,
      "Ġsym": 8693,
      "Ġarc": 8694,
      "ĠWel": 8695,
      "cover": 8696,
      "eties": 8697,
      "comes": 8698,
      "ician": 8699,
      "Ġstandards": 8700,
      "hop": 8701,
      "ennessee": 8702,
      "ĠAbout": 8703,
      "emi": 8704,
      "fi": 8705,
      "Ġtele": 8706,
      "1910": 8707,
      "Ġviolence": 8708,
      "ĠIndones": 8709,
      "ĠMult": 8710,
      "Ġeffectively": 8711,
      "ĠLast": 8712,
      "Ap": 8713,
      "ĠAli": 8714,
      "Ġyounger": 8715,
      "urations": 8716,
      "Ġcovering": 8717,
      "Ġdefeat": 8718,
      "\\}$,": 8719,
      "api": 8720,
      "}}=": 8721,
      "Consider": 8722,
      "Ġversus": 8723,
      "---": 8724,
      "Ġcab": 8725,
      "aded": 8726,
      "ĠIraq": 8727,
      "elect": 8728,
      "static": 8729,
      "Ġnonlinear": 8730,
      "Ret": 8731,
      "lay": 8732,
      "wegian": 8733,
      "vartheta": 8734,
      "Ġfaculty": 8735,
      "phantom": 8736,
      "ĠSat": 8737,
      "ĠInvest": 8738,
      "Ġpatient": 8739,
      "enna": 8740,
      "FR": 8741,
      "Ġvisible": 8742,
      "Ġmatching": 8743,
      "Ġcompat": 8744,
      "jective": 8745,
      "ĠMarsh": 8746,
      "Ġabsence": 8747,
      "ti": 8748,
      "Ġattempts": 8749,
      "ĠReport": 8750,
      "ancer": 8751,
      "ĠSweden": 8752,
      "ĠGallery": 8753,
      "Ġteaching": 8754,
      "Ġweather": 8755,
      "Ġtru": 8756,
      "eral": 8757,
      "125": 8758,
      "ordon": 8759,
      "Ġexclud": 8760,
      "phe": 8761,
      "Ġphoto": 8762,
      "Ġfaith": 8763,
      "Ġquark": 8764,
      "ĠCountry": 8765,
      "EX": 8766,
      "dec": 8767,
      "illing": 8768,
      "Ġuniversal": 8769,
      "Ġtick": 8770,
      "possible": 8771,
      "Ġdocuments": 8772,
      "Ġreceiving": 8773,
      "Ġconcerns": 8774,
      "ĠTro": 8775,
      ":=\\": 8776,
      "kers": 8777,
      "Ġrugby": 8778,
      "({": 8779,
      "ĠKal": 8780,
      "Given": 8781,
      "unnel": 8782,
      "Ġrefers": 8783,
      "ĠSpring": 8784,
      "ĠEth": 8785,
      "Ġphone": 8786,
      "Ġcooper": 8787,
      "!!": 8788,
      "omot": 8789,
      "1932": 8790,
      "Ġseats": 8791,
      "slant": 8792,
      "Ġroughly": 8793,
      "Ġeye": 8794,
      "urches": 8795,
      "icular": 8796,
      "obs": 8797,
      "^{*": 8798,
      "mad": 8799,
      "DB": 8800,
      "ĠSingapore": 8801,
      "Ġstorm": 8802,
      "Ġwants": 8803,
      "Ġvent": 8804,
      "condition": 8805,
      "venth": 8806,
      "Ġmac": 8807,
      "ĠInternet": 8808,
      "Ġapproved": 8809,
      "regular": 8810,
      "vard": 8811,
      "Ġdocumentary": 8812,
      "irty": 8813,
      "uffer": 8814,
      "urance": 8815,
      "Ġhidden": 8816,
      "Ġdoctor": 8817,
      "Ġconvers": 8818,
      "Ġhero": 8819,
      "Ġstands": 8820,
      "Ġseed": 8821,
      "Ġpartnership": 8822,
      "ĠHart": 8823,
      "columnwidth": 8824,
      "ĠMissouri": 8825,
      "ĠColorado": 8826,
      "avor": 8827,
      "Play": 8828,
      "parison": 8829,
      "Ġdanger": 8830,
      "ĠHand": 8831,
      "coh": 8832,
      "ĠMP": 8833,
      "German": 8834,
      "ĠArea": 8835,
      "Ġcommut": 8836,
      "ĠAT": 8837,
      "ĠMoh": 8838,
      "including": 8839,
      "Ġcomputational": 8840,
      "ĠPolicy": 8841,
      "Ġbran": 8842,
      "Ġcompris": 8843,
      "ĠOrig": 8844,
      "ĠGree": 8845,
      "lik": 8846,
      "Ġpossess": 8847,
      "Ent": 8848,
      "ĠEs": 8849,
      "/*": 8850,
      "1924": 8851,
      "Ġtowns": 8852,
      "Ġfan": 8853,
      "Ġconfidence": 8854,
      "Ġemail": 8855,
      "=\"#": 8856,
      "aa": 8857,
      "ĠIndiana": 8858,
      "Ġclient": 8859,
      "unes": 8860,
      "ĠMethod": 8861,
      "DT": 8862,
      "conf": 8863,
      "ĠCase": 8864,
      "Ġfunds": 8865,
      "Ġcryst": 8866,
      "inus": 8867,
      "theless": 8868,
      "ĠCov": 8869,
      "Node": 8870,
      "Ġsuffered": 8871,
      "Ġpropose": 8872,
      "}~": 8873,
      "Ġarts": 8874,
      "Women": 8875,
      "ĠAgain": 8876,
      "inction": 8877,
      "Ġ},": 8878,
      "ĠCaptain": 8879,
      "ĠNon": 8880,
      "ĠAh": 8881,
      "phone": 8882,
      "Men": 8883,
      "Ġdiscrim": 8884,
      "Ġpiano": 8885,
      "}|\\": 8886,
      "ĠPC": 8887,
      "zed": 8888,
      "Ġpapers": 8889,
      "Ġadjacent": 8890,
      "ĠRoss": 8891,
      "ĠDC": 8892,
      "ĠTurkey": 8893,
      "md": 8894,
      "101": 8895,
      "gery": 8896,
      "ĠBan": 8897,
      "Ġbriefly": 8898,
      "idi": 8899,
      "Ġunable": 8900,
      "Ġauthority": 8901,
      "uning": 8902,
      "Ġmel": 8903,
      "Ġwitness": 8904,
      "Ġpul": 8905,
      "Ġscoring": 8906,
      "ĠMatt": 8907,
      "Ġbench": 8908,
      "ĠKansas": 8909,
      "Ġhabit": 8910,
      "Sec": 8911,
      "general": 8912,
      "DC": 8913,
      "Ġessentially": 8914,
      "iples": 8915,
      "ĠAlf": 8916,
      "Ġrenamed": 8917,
      "\").": 8918,
      "ĠAmaz": 8919,
      "ĠNaz": 8920,
      "mers": 8921,
      "GA": 8922,
      "Ġbalance": 8923,
      "igrants": 8924,
      "1931": 8925,
      "loop": 8926,
      "Ġflows": 8927,
      "Ag": 8928,
      "French": 8929,
      "ĠBishop": 8930,
      "ĠMaria": 8931,
      "ĠLewis": 8932,
      "kish": 8933,
      "ĠSC": 8934,
      "ĠMedal": 8935,
      "rained": 8936,
      "engers": 8937,
      "stic": 8938,
      "ĠHan": 8939,
      "Ġhappen": 8940,
      "1927": 8941,
      "Ġknew": 8942,
      "Ġwasn": 8943,
      "Ġdynamical": 8944,
      "ĠRoute": 8945,
      "ĠMember": 8946,
      "Ġterritory": 8947,
      ")})": 8948,
      "Ġwins": 8949,
      "ĠSquad": 8950,
      "ĠOp": 8951,
      "diff": 8952,
      "ĠLore": 8953,
      "ĠCzech": 8954,
      "Background": 8955,
      "Ġinterpretation": 8956,
      "Ġhair": 8957,
      "Ġrear": 8958,
      "Ġgranted": 8959,
      "ĠJoh": 8960,
      "Ġnovels": 8961,
      "Ġdropped": 8962,
      "Ġmist": 8963,
      "Ġcolour": 8964,
      "\\|\\": 8965,
      "medskip": 8966,
      "1922": 8967,
      "etric": 8968,
      "Ġequality": 8969,
      "Ġfestival": 8970,
      "Sum": 8971,
      "stood": 8972,
      "ĠThrough": 8973,
      "Mat": 8974,
      "ivals": 8975,
      "Ġequivalence": 8976,
      "ĠAtlantic": 8977,
      "ĠConnect": 8978,
      "180": 8979,
      "Ġhappened": 8980,
      "Ġentries": 8981,
      "ĠBrook": 8982,
      "Ġbreaking": 8983,
      "Context": 8984,
      "Ġpretty": 8985,
      "Suppose": 8986,
      "Ġkick": 8987,
      "ĠOregon": 8988,
      "ĠOF": 8989,
      "Ġluminosity": 8990,
      "Ġflood": 8991,
      "Ġseparated": 8992,
      "Ġsurn": 8993,
      "Red": 8994,
      "^{(\\": 8995,
      "outheast": 8996,
      "Ġcampus": 8997,
      "Ġfighting": 8998,
      "Service": 8999,
      "Ġ({\\": 9000,
      "Ġtitled": 9001,
      "ĠMun": 9002,
      "Ġcreat": 9003,
      "Line": 9004,
      "Ġnecessarily": 9005,
      "there": 9006,
      "ĠGh": 9007,
      "Ġyellow": 9008,
      "Ġjudge": 9009,
      "Ġcurvature": 9010,
      "Log": 9011,
      "Ġletters": 9012,
      "care": 9013,
      "&=\\": 9014,
      "ĠCommand": 9015,
      "+(": 9016,
      "ĠTel": 9017,
      "Ġparish": 9018,
      "Ġpractical": 9019,
      "Olymp": 9020,
      "Ġtrace": 9021,
      "idge": 9022,
      "Ġgirls": 9023,
      "ĠOcean": 9024,
      "Ġwinter": 9025,
      "ĠAdam": 9026,
      "Ġsettings": 9027,
      "RC": 9028,
      "1925": 9029,
      "ication": 9030,
      "ĠFinal": 9031,
      "Ġending": 9032,
      "Ġretire": 9033,
      "Ġreprodu": 9034,
      "fs": 9035,
      "ãģ": 9036,
      "pop": 9037,
      "Ġvariance": 9038,
      "ĠMilitary": 9039,
      "Ã£o": 9040,
      "Ġhall": 9041,
      "ĠCall": 9042,
      "ĠLeon": 9043,
      "ructions": 9044,
      "ĠTownship": 9045,
      "Ġholding": 9046,
      "ĠMonday": 9047,
      "inating": 9048,
      "agen": 9049,
      "uzz": 9050,
      "arity": 9051,
      "Ġengineer": 9052,
      "ĠSav": 9053,
      "ĠSky": 9054,
      "Biography": 9055,
      "ĠArthur": 9056,
      "bat": 9057,
      "Ġmolecular": 9058,
      "GM": 9059,
      "Ġmagnet": 9060,
      "night": 9061,
      "Ġvice": 9062,
      "ĠCastle": 9063,
      "BB": 9064,
      "isson": 9065,
      "ĠBh": 9066,
      "Ġultimately": 9067,
      "Ġnav": 9068,
      "ĠSN": 9069,
      "Ġtested": 9070,
      "notag": 9071,
      "ĠCare": 9072,
      "\\\\\\": 9073,
      "Ġnotion": 9074,
      "Ġdependent": 9075,
      "Ġescape": 9076,
      "Ġhear": 9077,
      "Ġarrested": 9078,
      "flu": 9079,
      "ĠLow": 9080,
      "Hand": 9081,
      "Ġquasi": 9082,
      "Ġvideos": 9083,
      "Song": 9084,
      "world": 9085,
      "Ġanom": 9086,
      "ĠInn": 9087,
      "ĠTHE": 9088,
      "ropolitan": 9089,
      "Ġbiggest": 9090,
      "ĠTurn": 9091,
      "evin": 9092,
      "UE": 9093,
      "ĠArizona": 9094,
      "Another": 9095,
      "Ġapproximate": 9096,
      "Ãº": 9097,
      "ĠSerb": 9098,
      "ĠMach": 9099,
      "Ġsimplic": 9100,
      "issions": 9101,
      "Ġconcentration": 9102,
      "ĠLear": 9103,
      "ĠStock": 9104,
      "Ġdemonstrate": 9105,
      "Ġbelief": 9106,
      "Ġspac": 9107,
      "'d": 9108,
      "gt": 9109,
      "ĠHou": 9110,
      "forms": 9111,
      "Ġpaths": 9112,
      "unit": 9113,
      "Ġ-->": 9114,
      "iable": 9115,
      "Ġsale": 9116,
      "actory": 9117,
      "Ġmand": 9118,
      "Ġdipl": 9119,
      "Ġherself": 9120,
      "Ġwalls": 9121,
      "Ġranked": 9122,
      "Ġdecrease": 9123,
      "Ġwrest": 9124,
      "ĠEU": 9125,
      "Ġdashed": 9126,
      "ĠAnderson": 9127,
      "Ġtight": 9128,
      "Ġdemonstrated": 9129,
      "subsec": 9130,
      "Ġ\\&": 9131,
      "Ġexplan": 9132,
      "Ġexceed": 9133,
      "Ġmes": 9134,
      "oured": 9135,
      "Request": 9136,
      "Source": 9137,
      "Ġfiles": 9138,
      "Ġdense": 9139,
      "Ġscholar": 9140,
      "ĉĉĊ": 9141,
      "content": 9142,
      "\"),": 9143,
      "ednes": 9144,
      "ĠLtd": 9145,
      "Ġdominant": 9146,
      "Ġadvent": 9147,
      "Ġsummary": 9148,
      "Ġneutral": 9149,
      "Ġeq": 9150,
      "ĠGiven": 9151,
      "Ġcomposer": 9152,
      "Ġconcert": 9153,
      "esian": 9154,
      "iden": 9155,
      "Ġexcess": 9156,
      "Ġparliament": 9157,
      "offs": 9158,
      "ĠFellow": 9159,
      "kov": 9160,
      "ĠDue": 9161,
      "1912": 9162,
      "Ġmoments": 9163,
      "1921": 9164,
      "chron": 9165,
      "Ġvacuum": 9166,
      "Ġassuming": 9167,
      "info": 9168,
      "encing": 9169,
      "ixture": 9170,
      "Writ": 9171,
      "Ġdoll": 9172,
      "ribed": 9173,
      "Ġupdated": 9174,
      "ĠGener": 9175,
      "vect": 9176,
      "ĠWhe": 9177,
      "Ġunless": 9178,
      "Ġquantity": 9179,
      "inite": 9180,
      "ĠCost": 9181,
      "ois": 9182,
      "Ġimprovement": 9183,
      "1926": 9184,
      "ĠPhilippines": 9185,
      "never": 9186,
      "Ġtaught": 9187,
      "orough": 9188,
      "ĠMemorial": 9189,
      "ĠTennessee": 9190,
      "\\\\&": 9191,
      "ĠSaf": 9192,
      "128": 9193,
      "ĠChildren": 9194,
      "ĠKa": 9195,
      "Ġbodies": 9196,
      "ĠRights": 9197,
      "Ġintermediate": 9198,
      "formed": 9199,
      "ambig": 9200,
      "ogonal": 9201,
      "Ġguide": 9202,
      "Ġfluctuations": 9203,
      "Xi": 9204,
      "Ġcollaboration": 9205,
      "pres": 9206,
      "Ġbundle": 9207,
      "person": 9208,
      "Ġwealth": 9209,
      "instein": 9210,
      "';": 9211,
      "Ġfeedback": 9212,
      "green": 9213,
      "awn": 9214,
      "Ġplas": 9215,
      "ymmetric": 9216,
      "Ġfemales": 9217,
      "ducible": 9218,
      "Ġkin": 9219,
      "ushed": 9220,
      "Ġagency": 9221,
      "Ġcaptain": 9222,
      "Ġparticipants": 9223,
      "RS": 9224,
      "Ġdomestic": 9225,
      "ika": 9226,
      "Ġstochastic": 9227,
      "sort": 9228,
      "Ġcredit": 9229,
      "ĠAz": 9230,
      "Ġprogramme": 9231,
      "BO": 9232,
      "Ġtwenty": 9233,
      "****************": 9234,
      "Ġdetector": 9235,
      "ĠEnvironment": 9236,
      "ĠStory": 9237,
      "plot": 9238,
      "Ġeigenvalues": 9239,
      "Ġbatter": 9240,
      "Ġmultip": 9241,
      "gather": 9242,
      "lements": 9243,
      "Ġsomewhat": 9244,
      "Ġdistricts": 9245,
      "Ġseparation": 9246,
      "rins": 9247,
      "Ġconsecutive": 9248,
      ">\\": 9249,
      "aturally": 9250,
      "Ġdatabase": 9251,
      "Li": 9252,
      "ĠID": 9253,
      "Ġreturning": 9254,
      "ĠFord": 9255,
      "Ġhandle": 9256,
      "ĠMiller": 9257,
      "ulating": 9258,
      "Oper": 9259,
      "ĠGrant": 9260,
      "Ġoccasion": 9261,
      "Ġisot": 9262,
      "ĠPier": 9263,
      "Ġsky": 9264,
      "ensed": 9265,
      "Ġcorrections": 9266,
      "Ġdx": 9267,
      "Ġdedu": 9268,
      "Ġfra": 9269,
      "Ġelectro": 9270,
      "HT": 9271,
      "ĠTwitter": 9272,
      "Ġsustain": 9273,
      "Fl": 9274,
      "Ġsizes": 9275,
      "oscow": 9276,
      "Ġcrisis": 9277,
      "Moreover": 9278,
      "Ġpainting": 9279,
      "Ġthanks": 9280,
      "ubble": 9281,
      "1923": 9282,
      "void": 9283,
      "phy": 9284,
      "ĠInit": 9285,
      "ective": 9286,
      "ĠâĢ¦": 9287,
      "hfill": 9288,
      "product": 9289,
      "160": 9290,
      "ĠKat": 9291,
      "ĠIowa": 9292,
      "ques": 9293,
      "Ġ\\(\\": 9294,
      "rangian": 9295,
      "ĠAdd": 9296,
      "Ġfaster": 9297,
      "grade": 9298,
      "itely": 9299,
      "Ġloan": 9300,
      "ĠStaff": 9301,
      "Christ": 9302,
      "ĠZh": 9303,
      "opped": 9304,
      "ĠPot": 9305,
      "equations": 9306,
      "creen": 9307,
      "ĠCharl": 9308,
      "ĠCab": 9309,
      "Ġstages": 9310,
      "ĠMelbourne": 9311,
      "num": 9312,
      "ĠHal": 9313,
      "gar": 9314,
      "Ġjournalist": 9315,
      "Ġcalling": 9316,
      "rehens": 9317,
      "angular": 9318,
      "iated": 9319,
      "Ġalleged": 9320,
      "Ġquery": 9321,
      "Ġsan": 9322,
      "valid": 9323,
      "Ġinfer": 9324,
      "ĠHiggs": 9325,
      "Ġopposition": 9326,
      "ĠSU": 9327,
      "Ġrestricted": 9328,
      "/**": 9329,
      "Ġguard": 9330,
      "ĠMir": 9331,
      "\\%$": 9332,
      "ĠColon": 9333,
      "Public": 9334,
      "western": 9335,
      "otional": 9336,
      "Ġscheduled": 9337,
      "ĠTa": 9338,
      "ragon": 9339,
      "ĠNick": 9340,
      "Ġcharacterized": 9341,
      "Ġopportunities": 9342,
      "Ġbeautiful": 9343,
      "lower": 9344,
      "Ġserver": 9345,
      "Ġvanish": 9346,
      "Second": 9347,
      "Ġdirections": 9348,
      "urd": 9349,
      "Ġcloser": 9350,
      "(-\\": 9351,
      "Ġopposed": 9352,
      "Ġalter": 9353,
      "Ġreader": 9354,
      "Ġpoll": 9355,
      "Ġdownload": 9356,
      "owski": 9357,
      "Ġinstant": 9358,
      "Ġcorrection": 9359,
      "EP": 9360,
      "Ġhotel": 9361,
      "aked": 9362,
      "Ġlooked": 9363,
      "2023": 9364,
      "West": 9365,
      "ĠAmb": 9366,
      "OW": 9367,
      "Olympic": 9368,
      "ĠĠĠĠĠĠĠĠĠĠĠĠĠĠĠĠĠĠĠĠĠĠĠĠĠĠĠ": 9369,
      "engths": 9370,
      "ĠExecutive": 9371,
      "ĠSD": 9372,
      "racket": 9373,
      "}\\|": 9374,
      "Ġillustr": 9375,
      "Ġextent": 9376,
      "oupl": 9377,
      "FI": 9378,
      "uling": 9379,
      "stan": 9380,
      "ĠHop": 9381,
      "aks": 9382,
      "$^{": 9383,
      "ographer": 9384,
      "ĠShort": 9385,
      "elle": 9386,
      "eries": 9387,
      "Ġcoupled": 9388,
      "Ġposter": 9389,
      "lication": 9390,
      "Ġcircuit": 9391,
      "Ġplate": 9392,
      "ursday": 9393,
      "ĠBat": 9394,
      "1916": 9395,
      "ĠJews": 9396,
      "itzerland": 9397,
      "Ġcas": 9398,
      "ĠNFL": 9399,
      "Ġvariations": 9400,
      "ĠUkraine": 9401,
      "lang": 9402,
      "wealth": 9403,
      "Description": 9404,
      "RR": 9405,
      "Awards": 9406,
      "Ġdominated": 9407,
      "ĠNever": 9408,
      "ensis": 9409,
      "Ġgravitational": 9410,
      "agues": 9411,
      "Ġcir": 9412,
      "ĠBrand": 9413,
      "andra": 9414,
      "Ġwish": 9415,
      "arios": 9416,
      "Ġracing": 9417,
      "Ġbought": 9418,
      "ĠBrother": 9419,
      "ĠAffairs": 9420,
      "Ġhomes": 9421,
      "eh": 9422,
      "Ġbed": 9423,
      "iley": 9424,
      "Ġcancell": 9425,
      "Ġmedalists": 9426,
      "child": 9427,
      "uy": 9428,
      "ativ": 9429,
      "living": 9430,
      "lan": 9431,
      "Ġgene": 9432,
      "Em": 9433,
      "Most": 9434,
      "Ġcontrols": 9435,
      "[]": 9436,
      "Ġvision": 9437,
      "Ġsand": 9438,
      "Ġpref": 9439,
      "Ġconverted": 9440,
      "ĠEntertainment": 9441,
      "taining": 9442,
[...]
