#version: 0.2
Ġ Ġ
Ġ t
i n
h e
Ġ a
o n
e r
r e
ĠĠ ĠĠ
Ġt he
a t
e n
o r
Ġ s
a n
a l
i s
e s
i t
Ġ o
a r
e d
Ġ c
Ġ w
i on
Ġ f
Ġo f
Ġ in
n d
Ġ p
i c
Ġ b
in g
l e
a s
r o
Ġa nd
Ġ d
Ġ m
Ġt o
en t
c t
o u
e t
e l
ĠĠ Ġ
i l
s t
a m
ĠĠĠĠ ĠĠĠĠ
o m
Ġ S
Ġ h
Ġ re
Ġ \
i g
o l
Ġ T
at ion
Ġ C
Ġ n
Ġ (
Ġt h
Ġ A
Ġ $
a c
i m
Ġ l
i d
o t
Ġ e
u r
i v
a d
u t
Ġ is
Ġ M
s e
Ġf or
u l
c e
Ġ g
Ġ I
o w
c h
a y
l y
Ġ B
Ġ on
t er
Ġ P
e m
u s
i r
u n
a g
u m
Ġs t
2 0
v er
o d
a b
it h
Ġb e
i f
1 9
Ġ H
Ġa s
is t
q u
t h
{ \
â Ģ
Ġ R
er s
a p
ĠĠĠĠ ĠĠĠ
Ġc on
Ġ F
Ġ D
Ġ =
Ġ L
Ġth at
Ġw as
Ġw ith
at e
an d
ĠT he
Ġ v
Ġa l
r i
p e
he r
es t
o c
Ġ N
en d
a v
Ġ W
Ġ G
Ġb y
ct ion
h t
re s
Ġa n
č Ċ
o p
a in
Ġp ro
o s
Ġ E
Ġd e
ro m
u p
ĉ ĉ
u b
Ġ Ċ
it y
Ġw h
e x
at h
Ġa t
Ġ <
e w
_ {
e g
ar t
es s
= "
Ġc om
) ;
Ġ r
or t
as s
Ġ "
Ġ J
al l
Ġ it
Ġe x
Ġf rom
i es
o re
- -
p t
am e
ig ht
Ġ {
il l
Ġ O
in e
Ġ$ \
Ġ he
a k
n t
Ġ or
u re
p l
Ġs e
Ġa re
i al
an t
u d
ou r
m ent
< /
u e
b er
g e
Ġ &
' s
iv e
e ct
o g
l d
ag e
Ġ U
Ġc l
ĠĠĠĠĠĠĠĠ ĠĠĠ
t r
m ath
i z
e f
c l
i an
T he
ar d
ic h
Ġ K
at ed
/ /
i p
Ġ *
ar y
ac k
it e
ul t
0 0
re f
20 1
Ġc h
i a
u nd
Ġw e
o v
p er
Ġt r
el l
Ġ }
p h
Ġth is
} \
^ {
c on
p ort
an s
) ,
ic al
Ġp l
Ġ y
u st
} $
âĢ ĵ
ex t
ĠI n
or m
a ct
ig n
Ġs h
a re
on g
it ion
u g
Ġ le
as t
or d
f f
Ġn ot
i re
av e
in t
ĠS t
ur n
an g
o st
Ġcom p
Ġ k
f t
ĠĠĠĠĠĠĠĠ ĠĠĠĠĠĠĠĠ
Ġ V
m a
ab le
" >
) .
e p
ac e
Ġh is
Ġre s
Ġwh ich
20 0
or k
u c
f r
en s
Ġ -
ation s
s o
. .
I n
en c
im e
t o
} }
e ar
Ġ |
ou t
p ro
r a
ĠĠĠĠ Ġ
as e
ĠC h
( \
id e
en ce
er e
is h
er v
e c
ic e
t a
i b
Ġ un
in d
Ġw he
t her
ion s
1 8
o k
m er
il d
eg in
c om
i le
* *
c al
Ġ us
r y
Ġh as
b egin
Ġh ave
ou s
Ġcon t
Ġa r
s p
st r
Ġcl ass
or y
Ġ if
l ow
ub l
ter n
Ġc an
ou nt
Ġal so
Ġa p
e y
Ġ j
Ġw ere
ac h
Ġa d
o ver
_ {\
an ce
t urn
) $
âĢ Ļ
ir st
l i
od e
Ġa b
f orm
e qu
y pe
Ġ im
en er
ou ld
e v
g et
ĠT h
ow n
c c
ic t
r it
u se
er m
ou nd
f er
ent s
Ġp art
Ġ '
res s
} {
ro w
at a
re e
t ext
j ect
r ight
at es
( )
o b
-- --
w o
he d
ĠU n
ri b
Ġon e
cl ud
ol d
or s
am p
Ġ| |
ab el
1 0
t he
fr ac
} ,
a il
= =
ar k
u al
ĠH e
e q
r m
om e
Ġd is
Ġal l
Ġn ew
ubl ic
t e
u ch
Ġf irst
l l
Ġ Y
un ction
o se
19 9
Ġ ro
in al
ation al
i el
Ġ +
oc k
el y
ĠI t
Ġb ut
Ġthe ir
w e
u ct
Ġs p
c ite
ic s
n g
Ġit s
Ġh ad
f ig
Ġpl ay
s s
er t
i k
f ter
Ġre turn
ĠĠĠĠĠĠĠĠ ĠĠĠĠĠĠĠ
in k
r ap
on e
iel d
Ġst r
Ġe v
Ġp r
at er
al ue
o ol
Ġo ut
Ġ âĢĵ
le ct
Ġt wo
a w
l abel
Ġs c
Ġp er
Ġ qu
Ġwh o
or n
s h
Ġo b
Ġo ther
Ġt e
Ġde f
an y
p s
Ġ [
E x
math b
enc es
o int
l es
Ġm e
ic k
is s
on t
pe ct
re d
Ġm od
Ġa g
" ,
$ ,
ar i
ing s
$ .
Ġd es
Ġ up
Ġ âĢ
, \
Ġs et
Ġo ver
c ent
le ft
p on
i ed
s c
Ġw ork
equ ation
s et
pe c
l and
el f
y st
ar am
iz e
Ġin d
ic an
an c
Ġbe en
- >
i x
ul l
am b
p r
Ġ //
r ay
ig h
} )
et a
op le
Ġin t
S t
i e
Ġy ear
our ce
1 2
em ber
o ot
n e
it ed
ak e
Ġ en
ul ar
m b
ro up
Ġ her
Ġt ime
Ġin ter
: :
Ġd o
Ġc ol
math cal
p ut
Ġw ill
s um
o ok
Ġthe y
pt ion
Ġcom m
as ed
et h
} .
l ine
um ber
Ġ< /
i o
ut ion
ol low
Ġm ore
Ġ und
Ġf unction
ĉĉ ĉĉ
} (
yst em
Ġp e
p os
at ive
m s
i ew
c ess
ad e
Ġin clud
rap h
im es
R ef
iv ers
19 8
r am
Ġ .
ug h
o y
v el
Ġs ub
w ard
\ \
Ġ ver
.. /
a x
1 6
an n
} ^
d a
Ġp re
Ġf il
Ġre g
ph a
o od
ro und
le t
Ġb et
Ġwhe re
on s
Ġ @
le ment
Ġin to
if ic
} _
Ġon ly
Ġs up
d er
1 7
1 5
Ġwhe n
ur ing
ĠC om
o f
ou g
res ent
ol og
al pha
Ġn e
Ġs o
ĠA r
Ġre l
ĠN ew
Ref er
Ġf ollow
Ġtr ans
Ġp ublic
ar g
ĠS e
~ \
Ġre c
Ġ /
Ġy ou
Ġfor m
in ce
Ġcon s
Ġp ol
al s
t y
id ent
Ġres ult
ar ch
Ġof f
ĠTh is
Ġs uch
Ġa ct
Ġl oc
Ġund er
con d
c re
Ġthe re
Ġa fter
o x
mer ican
am es
it ies
at ing
Refer ences
Ġn ame
an k
r al
we en
m l
re n
ĠA l
Ġc o
19 7
Ġd if
ist s
Ġd ist
el ta
er r
Ġthe n
( "
ot h
amb da
Ġw ould
Ġp os
e b
at or
i ent
Ġk n
Ġpro v
( );
ess age
t on
ch ool
is hed
ap p
or ld
c ol
ab l
w ay
an ge
Ġab out
$ \
ov e
is e
ar s
sp an
e e
) \
Ġs he
Ġpe ople
Ġad d
' ,
Ġa cc
Ġbet ween
am ma
c he
is ion
Ġat t
b all
Ġg ener
1 3
u es
Ġth an
Ġas s
y s
Ġs ome
ut e
d uc
Ġs erv
Ġp h
ire ct
ĠP ro
Ġbe c
s ub
1 4
l o
Ġan y
C on
âĢ Ŀ
h at
il y
w n
en g
Ġ :
Ġb u
it s
in ed
d iv
Ġ end
Ġl ine
u res
m in
Ġo p
Ġin v
_ \
y n
tr ing
Ġus ed
Ġst ud
s on
m u
t ain
---- ----
u ction
at ure
em ent
Ġsh ow
c k
g an
at ic
Ġs pec
ivers ity
Ġn o
ro ugh
as h
o h
id er
t t
a ir
Ġ est
Ġg et
h ip
19 6
oc i
> </
1 1
P ro
al ly
Ġs im
t s
eg a
h o
** **
il ity
Ġmod el
Ġd ata
Ġre m
= \
tern al
Ġ Z
ou n
as on
o id
m an
d ot
ig ma
r ic
) )
} ^{
le ction
ib le
Ġm ost
in es
Ġb l
Ġa c
i ous
Ġ\ \
p art
} _{
Ġf e
2 1
ur y
Ġm at
Ġ* /
Ġg r
ow er
on d
mathb b
eth od
us s
Ġ Q
i er
iz ed
2 5
b ar
Ġe qu
Ġdif fer
Ġ ent
Ġn umber
n ing
> <
E R
- \
Ġ use
e ver
ou th
Ġm an
id th
re nt
p i
Ġm ay
v e
a h
oug h
Ġc all
Ġ i
Ġc ent
or th
Ġs ystem
in s
ĠS h
ph i
^ {\
Ġc or
Ġ {\
ĠĠĠĠĠĠĠĠ Ġ
y m
a z
Ġc ur
../ ../
ĠA merican
Ġthe se
l ambda
Ġ ed
Ġth rough
if e
ĉĉ ĉ
Ġg iv
T h
ĠâĢ ľ
ĠW e
Ġd et
Ġyear s
Ġf ound
ĠC ol
re at
Ġo ur
Ġag ain
3 0
er n
u ary
er y
Ġcon st
ĠF or
d ef
it t
al ign
Ġv alue
2 2
ĠI nd
at t
Ġe ach
ri pt
Ġh im
ĠĠĠĠĠĠĠĠ ĠĠĠĠĠĠĠĠĠĠĠ
th is
l ation
b le
Ġthe m
m all
ĠA s
al e
ut h
== ==
Ġt ype
Ġre qu
n ot
is m
Ġch ar
a use
a id
Ġp oint
Ġc ase
Ġw ell
Ġe ff
se ction
ic es
a j
Ġo per
ou se
he n
Ġc re
over n
Ã ©
( '
Ġs ign
ht ml
Ġa m
b f
ĠUn iversity
00 0
Ġl ink
tr ans
Ġg roup
19 4
Ġs er
pl ic
ĠC l
ĠL e
I N
C h
Ġre p
Ġf l
Ġin st
iv er
Ġth ree
y le
Ġb ack
ag es
ĠT r
ĠUn ited
v ent
as k
ĠC on
19 5
O N
Ġst ate
ĠD e
Ġs ing
Ġ x
ay s
s ource
ik e
Ġse cond
ion al
Ġex p
ap t
g y
Ġv ari
Ġs ame
Ġd uring
r on
Ġ #
C om
d d
n ame
Ġg o
m essage
ĠA n
_ _
N ame
iz ation
Ġh ref
Ġ el
it em
t en
Ġf am
n er
il on
Ġs ur
Ġm in
ire d
ment s
Ġf ield
Ġb oth
T ype
Ġ( \
ar ly
ĠF r
et er
p ar
Ġar t
mathb f
Ġm on
ow ever
ers on
is ter
ar ray
p aram
Ġle ad
Ġpart ic
u le
ac he
Ġc ount
Ġv al
Ġe m
. "
Ġdes c
Ġap pro
ir c
im port
iv ed
Â ł
Ġte am
ĠS c
^{ -
f or
ang le
Ġwh ile
Ġd irect
v ar
Ġs ol
Ġre le
oot ball
ical ly
p le
s igma
b y
b eta
Ġm ade
Ġh igh
} {\
amp le
Ġde c
at her
re ad
o le
Ġb r
Ġbe ing
a ction
ur al
Ġf inal
um ent
f ore
al se
Ġfollow ing
Ġn on
I d
us ic
in a
ild e
Ġ X
b ers
Ġdiffer ent
Ġs elf
Ġex t
o ber
e ad
ist ory
ant s
2 4
S T
Ġt erm
u ff
s erv
Ġm ed
it le
k e
Ġcon d
S tring
Ġm any
g amma
Ġw rit
ot e
he re
ep s
Ġst art
et s
c es
oh n
Ġor der
ot her
m od
ĠI s
are d
Ġper form
ĠE ng
f l
Ġlink s
y p
ul ation
ot t
R es
olog y
R E
ro ss
Ġp op
Ġl ong
W e
Ġ `
um n
iv ing
ce ption
om en
C l
ĠSt ates
re turn
ad d
Ġfil m
f ul
+ \
ĠS he
: //
Ġbe fore
2 3
math rm
t d
ain s
w ork
Ġus ing
cl ass
ro p
el s
en n
Ġgiv en
ce pt
Ġe ver
ic a
A T
v al
ition s
. ,
t il
Ġdis c
b ack
at ch
vel op
a ult
r ho
A r
Ġm ain
m e
Ġ= >
Ġplay ers
v iew
Ex ternal
^ \
b l
Ġde velop
ter s
g ram
I t
an e
b r
* }
5 0
iss ion
ĠCom m
es c
Ġkn own
c ode
le y
if ied
Ġm ov
d elta
Ġpro d
Ġcons ider
as es
Ġap pe
ist r
b um
L ist
Ġb el
ĠB r
Ġl ater
Ġrec ord
m p
Ġf act
eng th
a u
# #
Ġd r
/ >
ĠO n
enc y
og raph
un e
Ġf in
Ġl ist
Ġf our
Ġm em
al ity
c ed
Ġr ight
ak ing
A R
" .
iv ate
Ġt est
) }
Ġinclud ing
s elf
T r
Ġb ro
s y
Ġs mall
iv es
Ġr un
or g
ĠE x
Ġ !
) :
ĠC ount
e k
iv ely
s ion
Ġ z
form ation
Ġcont in
ĠM ar
Ġ _
Ġo wn
ar ge
Ġor ig
t ype
Ġs chool
l ed
ual ly
ta u
Ġap p
w idth
ag ue
Ġs ince
the ta
Ġsup port
$ -
od y
Ġbu ild
] {
ar n
ent ial
ch i
ar ri
fig ure
b ig
Ġm ethod
c dot
ĠP r
u ro
ar row
Ġn ow
trans lation
Ġagain st
th s
qu ad
Ġc ould
i or
Ġs aid
" />
ĠP h
rib ut
Ġ err
l og
c o
Ġse ason
O n
ĠJ ohn
Ġb ir
ĠS p
ain ing
tern ational
Ġ >
l oc
le q
19 3
overn ment
g er
}$ .
ĠM ay
Ġne ed
ot s
Ġl ike
Ġp aram
ĠP l
ĠN ational
se c
Ġj ust
}$ ,
m ed
a f
Ġde p
Ġbec ause
i qu
ch n
Ġ )
Ġcon str
Ġe lect
n u
p or
t imes
ep end
a i
Ġeff ect
} (\
Ġser ies
ac es
ĠW orld
Ġest abl
Ġp res
Ġg u
ĠO r
Ġf ootball
t ing
Ġc r
part ial
ur ch
I D
ro l
ĠĠĠĠĠĠĠĠĠĠĠĠĠĠĠĠ ĠĠĠĠĠĠĠĠĠĠĠĠĠĠĠĠ
om ega
s k
Ġm et
er ing
e le
en se
ĠB l
Ġwh at
ĠĠ Ċ
ht t
Ġal bum
it al
Ġn ull
2 7
Ġv ar
2 6
Ġ --
Ġpro per
pl ay
Ġ= =
eq n
Ġim p
f o
duc ed
i ence
Ġsh ould
2 8
le x
Ġrep resent
Ġloc al
ĠA ust
O R
Ġp resent
Ġex per
Ġop en
p re
S S
p m
ĠW ar
re am
if y
s er
ain ed
ra w
l er
ĠY ork
in clud
Ġf r
Ġbec ame
Ġpro cess
1 00
Ġcur rent
U n
ĠJ an
Ġdesc rib
ian s
Ġtr ue
Ġst at
L E
in c
re g
F or
Ġstr uct
Ġre ce
i am
T o
Ġfam ily
uc cess
Ġever y
res pon
iv al
Ġ ,
Ġpol it
Ġse ver
ĠC ar
ft y
Ġchar act
Ġch ild
ĠC an
ĠJ ul
v en
Ġcall ed
Ġcomm un
Ġb ased
Ġim port
Ġver y
in fty
et y
ĠB rit
Ġv oid
Ġp ass
Ġre ad
Ġpro f
4 0
A L
Ġdes ign
op t
eq ref
am ed
g round
201 0
ĠS chool
Ġh and
ĠA d
os s
Ġd id
ab ility
ar get
id ed
t ilde
et work
are nt
port s
ĠCount y
al th
Ġl ast
r r
Ġto p
Ġc are
n ew
" )
Ġresult s
f ield
2 9
re en
r ist
ri x
ang u
20 19
D elta
A s
g r
C ol
f ace
i um
v ious
ĠN ov
ag n
ĠG r
ĠA nd
201 6
ĠC ent
con t
Ġbe com
it ial
ĠS outh
Ġl arge
aj or
is ed
o ard
\ ,
u ild
sp ace
n ess
Ġob ject
Ġev en
Ġl ife
Ġse e
Ġun til
ect ed
Ġl aw
w w
Ġth ose
201 5
re m
ĠâĢ Ķ
Ġdo es
201 7
col or
uth or
v alue
str ing
Ġin cre
x i
Ġpro gram
201 4
201 8
ir d
"> <
re qu
Ġs ong
Ġde ath
Ġf alse
ĠA t
c ur
Ġm ake
Ġev ent
o ad
Ġpos s
ward s
Ġp ar
id es
Ġre fer
ĠĠĠĠĠĠĠĠ ĠĠĠĠĠ
ro ll
ug ust
Ġw orld
Ġan n
Ġor gan
Ġal low
Ġob tain
ver t
Ġf ind
Th is
w here
201 1
ĠG erm
Ġhe l
ar m
ĠG e
Ġle ft
Ġan al
Ġo pt
pt ember
201 3
**** ****
3 2
d is
b e
E N
Ġre f
al k
201 2
Ġm ult
av a
Ġa v
Ġm usic
Ġres pon
A l
ol v
Ġ$ (
Ġhe ad
he s
end ed
ur ther
ĠO ct
p ed
s ide
m et
| \
is on
in ess
.. .
ol ution
Ġoff ic
O b
Ġo cc
Ġw in
ĠR e
ord er
am ent
uc k
ect or
ĠP ol
Ġb ound
Ġare a
Ġgener al
| -
Ġt em
ist or
Ġb ook
at s
Ġc he
Ġsever al
um er
Ġn ear
k ey
Ġm ass
Ġl im
P h
en e
m ber
C ont
Ġel se
-------- --------
om an
ĠM arch
com m
et ers
Ġr ad
at ely
Ġw on
ĠA ss
d ata
id d
le ge
Ġme as
Ġob serv
ĠW h
Ġst and
ĠA ll
ore m
d ay
ain t
' )
Ġsing le
Ġorig inal
ĠA ugust
pr il
ak es
l ob
ĠSe ptember
Ġal ong
end s
Ġ id
Ġ u
un c
eqn array
Ġw ay
b orn
Ġp ower
i od
s q
ĠR es
ener gy
Ġd ue
$ $
as ter
Ġpr ivate
ĠJan uary
amp ions
ĠĠĠĠ ĠĠ
rib ution
Ġc ap
Ġar g
ĠP ar
Ġpro ble
Ġh ow
us h
mb ol
u ed
ĠE uro
Ġpl ace
l ish
ĠThe y
tr act
Ġwith in
Ġv is
ĠOct ober
it ive
Ġle vel
Ġg ame
ĠI f
200 9
ĠM in
Ġa round
r t
ĠJ une
a e
Ġt itle
t ime
Ġres pect
g or
)$ .
Ġe lement
ce mber
ĠSt ate
Ġc our
Ġm y
av ing
ord ing
ĠJul y
l ing
' t
Ġp erson
l ess
200 8
Ġfor mer
Ġre al
D ata
" );
ction s
ri es
Ġre d
Ġk ey
} }\
her n
V alue
ĠH owever
O m
Ġsp ace
ition al
it er
in ation
Ġ ident
eb r
il it
Ġm ark
o ff
S E
ord s
sc ript
t est
A n
Ġex pect
he ad
Ġex pl
ap e
respon d
H e
Ġg overnment
s im
Ġd own
il t
st it
ore d
us iness
ag er
le m
ps i
ĠAust ral
ĠA pril
ĠI I
Ġstr ing
a im
20 20
v ision
ĠC al
ĠN orth
ĠR eg
S e
ific ation
w h
pos ition
at ors
in ter
6 0
Ġs ize
B y
} [
re ak
ĠĠĠĠĠĠĠĠĠĠĠĠĠĠĠĠ ĠĠĠĠĠĠĠ
om et
Ġe arly
ac y
le ar
ĠM an
200 7
ill ion
ĠC ity
Ġs uccess
p p
Ġin formation
ur g
Ġp ubl
Om ega
if t
I nd
Ġplay ed
ac ed
ĠNov ember
our n
anc es
i j
S et
Ġm uch
b s
D E
Ġ& &
ĠDe cember
Ġrele ased
il ar
Ġle g
ĠG u
ri ption
eps ilon
Ġle t
200 6
u k
Ġst ill
un g
o pe
A N
d ate
// //
3 3
angu age
I T
Ġc ity
Ġl arg
Ġs l
ar r
ĠEuro pe
Ġw omen
Ġd em
ĠB e
A C
on y
ĠBrit ish
Ġ/ **
Ġmem bers
g in
im ens
Ġs um
G amma
al es
pl oy
b ut
} _{\
er o
se arch
ict ion
Ġd i
r ite
c m
6 4
oc ument
Ġp ost
l im
Ġkn ow
Ġto t
ĠE d
Ġm ust
Ġpro ject
it or
19 0
Ġb and
( $
oc ial
pos ed
Ġs cal
p x
Ġis s
a us
se e
ebr uary
a ff
u ce
h am
Ġex ample
Ġ energy
m ary
ĠU S
Ġre port
Ġcharact er
ĠW ill
le g
) );
ap er
Ġ$ {\
Ġo ld
ĠT e
] ,
S ee
Ġm ajor
ĠR ep
^ *
od es
ress ion
s ize
ograph y
Ġc al
Ġl and
8 0
ĠCan ad
lect ed
Ġt ri
z e
n o
Ġval ues
ĠCh rist
Ġas sum
ug g
orm al
ure d
Ġ čĊ
ap an
Ġad v
Ex ception
Ġen g
S h
Ġc rit
em pt
Ġab ove
ĠF ig
w ith
Ġn ext
um an
our ces
ĠLe ague
)$ ,
re t
t able
Ġa ut
ur s
che s
ĠK ing
Ġte chn
Ġpartic ular
Ġst atic
Ġbe h
E rr
re l
Ġbir ths
op er
ĠC o
pl es
Ġcor respond
] ;
v ir
Ġt ake
at ter
Ġinclud e
Ġp at
ampions hip
t ies
Ġint eg
Ġh ome
Ġcomp et
t ab
cent er
Ġpre vious
ps ilon
im ent
20 00
Ġsh ort
9 0
Ġinter est
Ġ\ ,
cent ury
ro id
C O
sq rt
ĠP art
l in
ĠS tring
Ġm ember
Ġy our
ial ly
m y
Ġb est
==== ====
ĠF ebruary
n on
Ġan other
loc ation
Ġ %
erv ice
l or
Ġb as
Ġcare er
in o
Ġd ay
ind ow
n b
t op
Ġd iv
m at
Ã ¡
Ġfil ms
ib r
Ġt yp
Ġper iod
Ġwith out
Ġcl os
M E
Ob ject
ren ch
Ġch ang
con om
Ġd en
oun c
epend ent
ad em
ra ft
Ġass oci
er ed
4 5
Ġto wn
Ġtot al
P l
Ġin itial
M od
} =
f ile
Ġp o
g o
ĠY ou
im ate
Ġpro t
Ġcomp let
f in
v are
ĠA rm
200 5
Ġcomp any
^{ (
Ġst yle
raph ics
Ġv iew
l ist
Ġm ap
} ;
ĠA fter
N ot
d e
Ġc ar
ĠS up
c apt
Ġa ff
at ures
Ġd om
ide o
Ġhe ld
an a
Ġ! =
T est
Ġl a
Ġdescrib ed
es e
ĠA b
ed er
ef f
Ġc over
u it
Ġsim ilar
Ġint ro
}^ {\
Ġpro m
lo ad
th ough
Ġn etwork
u x
Ġbe gan
ĠM c
ĠW est
Ġn amed
ĠH is
f unction
r angle
sub section
ĠN o
Ġse ction
Ġs k
Ġver sion
Ġ// /
3 5
Ġex ist
ĠM ed
Ġh istory
Ġh ig
C T
Ġd el
vare psilon
ix ed
Ġs pe
re w
lob al
( ).
ic le
Ġ et
ur ation
op y
Ġpop ulation
Ġs at
os p
ent ion
ĠĠĠĠ Ċ
ĠThe re
b ox
Ġh old
Ġg ood
S c
Ġn ational
ĠS w
R e
al f
I m
ĠA fr
se qu
ut il
com p
right arrow
Ġre t
A merican
im al
ert ain
i us
Ġpos ition
Ġte le
Ġto ok
iv ity
Ġpoint s
ĠB y
b old
nb sp
iqu e
) =
Ġj o
c ul
ĠEng lish
ist ic
() );
h old
rib ute
Ġestabl ished
Ġd er
capt ion
ver s
Ġhe re
oc us
ĠE n
G et
Ġserv ice
Ġinv est
g roup
ur b
Ġcomp ut
' '
se mb
Ġl ow
ĠR uss
Ġrece ived
l ink
ing ton
end ing
e ople
7 5
Ġed uc
Ġstud y
Ġh ouse
ĠA mer
a ul
200 4
pl it
I C
ens ity
Ġv ol
Cl ass
Ġor g
" ;
Ġt ext
id ual
Ġchild ren
text bf
ond on
ener al
row n
Ġdet erm
Ġdef ined
s l
Ġloc ated
r c
ĠJ apan
v ec
il es
d om
ĠE l
. âĢĿ
\\ \\
st er
ref ore
it her
3 1
Ġs ide
E n
ail able
Ġprof ess
Ġimport ant
ol l
id ge
Err or
I nt
Ġt urn
way s
ĠP res
Ġcl ub
Ġm ax
Ġre st
ĠC or
K ey
Ġreg ion
c or
um p
7 0
ag ed
Ġa uthor
Ġerr or
Ġa ge
um e
ĠB ar
L L
ind ex
a ut
olog ical
âĢ Ķ
Ġc amp
Ġb usiness
f ord
] .
ĠCol lege
il le
istr ict
Ġstr ong
Ġf ull
ilit ary
str uct
Ġp ort
Ġm en
Ġe p
Ġsh own
ens ure
A S
Ġcom b
Ġterm s
9 9
em ph
oug ht
Ġf ew
Ġv ill
ight s
Ġshow s
on es
n av
ĠD r
var phi
Ġt imes
B ig
Ġf ive
Ġpubl ished
Ġro le
Ġf ile
Ġw ar
R O
Ġappe ar
ĠT o
Ġal ign
at us
ard s
ol ic
i ev
Ġbu ilt
ent ly
htt p
Ġth ird
Ġs ix
plic ation
al d
Ġe lection
Ġcount ry
ĠR ec
Ġ enc
yn am
Ġre pl
Ġst ation
Ġl og
ĠS er
Ġp ot
p ublic
includ eg
gor ith
includeg raphics
Ġf ore
ounc il
Ġb ase
Ġp red
u ation
fr ak
Ġcont rol
Ġqu ant
m m
c ast
i ber
vir on
Ġs pect
n a
Ġde v
or ies
ys is
Ġde g
Ġst ates
Ġf ail
ĠAr t
. _
ud e
i et
Ġcon f
Ġwe ek
re et
ĠL ondon
Ġpro b
Ġg ames
Ġl ook
Ġcent ury
Ġhel p
u f
Ġserv ed
Ġt arget
s w
Ġfollow s
Ġs it
Ġp ath
Ġw ant
g es
p ath
Ġin s
Ġproble m
Ġs w
W ith
Ġdisc uss
Ġph ot
ĠH igh
x im
Ġa ction
Ġa ver
arri ed
op h
Ġof ten
Ġinclud ed
st and
ĠCh ar
v es
ĠP ark
[ '
is ing
c irc
A P
j s
200 3
Ġme an
es tern
or ph
ĠWill iam
over line
Ġgr ad
Ġb orn
in ition
ĠH ouse
um b
re st
ĠB ut
Ġch ange
Ġposs ible
Ġam ong
ĠM e
ak en
b it
20 21
Ġ ide
Ġr ange
i ef
"> </
. </
a it
Ġl ess
op s
3 4
O r
Ġar ch
ay er
iv idual
w are
V iew
Ġbl ock
Ġf ac
ĠA ct
ge q
em s
& \
ĠF rench
ĠA ir
st yle
ĠD av
. ~\
Ġch o
Ġtr ack
} ).
ym met
Ġph ys
Ġg reat
Ġfe ature
6 5
Ġf urther
pro of
ĠA m
n ow
Ġmodel s
Ġinv olv
ater ial
Ġspec ial
Ġsign ific
M an
ur l
Ġcomm on
m ap
ate g
Ġstruct ure
row s
i ol
ab les
p ace
per ty
un ic
ĠCom p
.. ..
Ġprod uct
D ef
Ġdist r
Ġbuild ing
Ġar r
p ose
Ġe as
nd er
ĉĉĉĉ ĉ
st ate
Ġmat ch
Ġcl aim
ab or
200 1
s up
. }
) ^
ĠH er
Ġrequ est
an ch
c her
sy mbol
Ġcomp os
ĠThe se
Ġk e
200 2
sum mary
Ġb o
Ã ³
ĠS ch
' );
ab ly
ul es
Ġbecom e
ip le
Ġc ou
re ed
ĠA ng
[ \
ĠB ro
sh ip
18 9
Ġw ater
Ġf ree
R equ
if f
T E
ĠD istrict
Ġspec ies
Ġwrit ten
Ġp ri
math frak
in ary
im um
Ġcon c
cl us
Ġrel ations
L et
I S
Ġcomp on
Ġatt ack
( ),
ec ut
F F
Ġvari ous
Ġs ay
et ic
ĠIn ternational
F ile
p oint
ĠM on
ĠD ep
oci ety
ĠO ne
P E
ust om
ĠL a
Ġa ir
ĠIt al
ĠGerm an
) (
ĠH ar
Ġm ot
i i
y l
I ON
Ġdistr ict
Ġplay er
ac hed
ĠC he
oc r
og n
our s
ma x
ĠCh ampionship
Ġcor re
A t
id ence
Ġev ents
Ġs ource
is f
i ents
con st
ail s
3 8
ou ble
}, \
18 8
ĠP er
Ġtele vision
n ode
ĠA g
ann el
Ġtr ad
Ġav ailable
Q u
Ġm illion
Ġs uff
al t
L ambda
ack age
T ime
f rom
mb ox
Ġc ult
Ġconsider ed
y d
Ġsup er
ut ure
Ġre search
ĠO ff
' ]
L A
Ġan t
ev el
Ġpr act
ug ht
oci ation
itt le
it ch
ign ed
l angle
viron ment
le te
Ġdist ribution
pro v
ĠQ u
3 6
ourn al
4 8
Ġpr im
qu ot
Ġass ert
er a
Ġcommun ity
F il
` `
ly mp
" :
Ġcre ated
am a
Ġk ill
if orn
Ġh aving
Ġthe ory
! --
ĠPh il
Ġpot ential
Ġd on
Ġg en
b m
B l
Ġdevelop ment
um ents
ic ient
F ield
Ġcol l
r ation
d t
av y
Ġl ight
Ġf und
Ġind ic
Ġh owever
Ġmeas ure
Ġd ied
St ate
N ew
ct or
fl u
ĠC up
=" +
Ġind ividual
Ġprod uction
Ġacc ess
Ġcomp lex
Ġh ost
Ġle ast
iforn ia
=" ../../
} }$
att le
Ġperform ance
Ġs y
Ġyou ng
w ide
ĠC our
3 7
Ġre cent
Ph i
Ġse par
Ġ ?
T ext
d own
w id
and om
iv il
read y
h line
Ġproper ty
ĠW hen
res ult
A dd
Ġann oun
Ġse qu
Ġin put
end er
A ll
Ġs ent
Ġin ternational
Ġt w
ĠL ist
is c
o on
O ver
3 9
or ge
ĠM ich
as ing
min istr
app a
Ġn ode
l ength
Ġl ength
ess ion
Ġs ocial
Ã Ń
am ples
at ural
in n
ĠI r
Ġwork s
Ġc ross
Ġe ar
4 4
E vent
ĠInd ian
Ġs ite
m ost
5 5
ic o
m ult
ear ch
Ġsignific ant
Ġ( $
Ġcon n
Ġn orth
Ġh istor
g ress
use um
ld ots
an ish
Ġcomm and
B C
/ *
e ction
Ġcont ent
ens ion
err or
ut ions
og le
Ġlim it
Ġ( )
ĠO b
Ġs on
Ġpolit ical
ĠPres ident
av es
T R
u el
ag ement
199 9
Ġl ed
Ġm agn
ĠA c
F orm
h ib
ĠS ec
Ġcre ate
Ġest im
st ance
Ġche ck
Ġst ory
Ġb reak
itt ed
Ġem ploy
r ing
Ġtr y
Ġc irc
. \
get her
ar a
Ġto gether
Ġrequ ire
oy al
fer ence
Ġc ell
Ġgroup s
199 0
Ġc ame
ĠCal ifornia
Ġdif f
ib ility
l s
as c
Ġfunction s
ĠEng land
m on
bold symbol
ul a
ĠD iv
ĠRep ublic
Ġ q
I I
ne ction
ĠS an
Ġe conom
ĠS ystem
Ġbl ack
Ġadd ition
F rom
ole an
Ġaver age
Ġth ink
Ġn ov
k s
Ġro und
b urg
P s
, "
Ġh uman
d uction
6 6
Ġqu est
non umber
re c
Ġf ocus
Ġe ither
Ġback ground
E qu
Res ult
P ath
qu e
Ġparam eters
ĠAmer ica
Ġc ost
ĠThe n
Ġl ower
Ġ );
Ġacc ount
Ġh tt
Ġobtain ed
Ġn eg
N ode
land s
ugg est
p en
ot imes
i ation
Ġp aper
ĠC r
Ġ: =
A D
Ġcont ext
Ġd ensity
pon ent
Ġcons ist
m ark
I s
Ã ¼
Ġd est
it ect
em ents
Ġc ases
gorith m
Ġset t
Ġstart ed
Ġp ut
Ġse en
âĢ ľ
om b
k en
I f
ex p
n own
Ġg row
M ap
Ġne ver
ĠR iver
Ġar ray
Ġim age
In fo
ĠW ith
Ġpro duced
idd le
chi ev
0 1
ot ed
L iving
Ġvill age
Ġm er
ĠR ev
Ġs outh
Ġsystem s
Ġf low
() )
us er
b ody
Ġstud ents
ic y
ĠE ast
e h
Ġf ri
htt ps
} ),
A d
Ġpl an
A cc
Ġsat isf
ĠAustral ia
r ide
c y
abl a
ĠA p
b or
ĠPart y
Ġestabl ish
E lement
199 8
et t
u i
ww w
s f
art ment
Ġprov ide
Ġb i
Ġr ate
Ġg e
/ **
Tr ans
c le
Ġtr aining
Ġappro xim
P eople
Ġl ate
ar ies
s cal
Ġoffic ial
it te
M P
a el
Ġf ather
ell ow
k appa
Ġab s
ott om
Requ est
D e
ce ed
P r
U R
tr a
Ġc ode
Con text
ec ess
ĠV al
Ġmov ed
Ġs em
Ġh alf
Ġ Ã
n abla
g ed
Ġm om
Ġfe atures
ĠCh urch
ly ing
Ġeng ine
Ġd at
e ed
Ġw ent
ĠA cc
ĠB er
Ġme ans
' :
Ind ex
in ing
ad es
ver sion
ress ed
Ġac ross
Con fig
Ġd ocument
av el
P aram
Ġm iss
Ġ/ >
H istory
Ġrequ ired
0 5
Ġver t
Ġs old
Ġsh ip
Ġv ideo
E S
ĠL et
Ġimp lement
} )$
sub set
ir t
Ġcon fig
d f
, âĢĿ
Ġd ays
ĠInd ia
ic on
Ġconst ant
ap s
Ġl abel
Ġappro ach
Ġh om
Ġinst ance
a ugh
A tt
ĠĠĠĠĠĠĠĠĠĠĠĠĠĠĠĠ ĠĠĠĠĠĠĠĠĠĠĠ
m ing
ap i
R ec
Ġre view
Ġserv ices
S ervice
4 9
F r
Ġhig her
con fig
S igma
ou d
ay out
Ġwork ing
Ġf em
Ġhe alth
Ġal ready
20 22
L O
in ated
Ġcol or
ag s
Ġus er
Ġind ust
Ġb ody
Ġc aus
Ġ` `
Ġsur v
Ġp arent
Ġp air
Ġs uggest
Ġt aken
Ġind ex
il ities
ĠC ouncil
Ġparam eter
he l
Ġstand ard
ĠP al
pr ime
Ġanal ysis
id ing
Ġg raph
n ey
v oid
ensure math
B uild
in put
ĠA ward
Ġind ependent
Ġbel ow
m ar
Ġcond itions
Ġg round
m d
y r
y ear
Ġp erm
ĠP ort
ĠEurope an
tr ue
A ss
Ġprov ided
Ġbro ad
Ġ( !
Ġm aking
C C
Ġrespon se
ĠH ol
ap ache
oc al
b ra
d raw
Ġact iv
iv en
ames pace
Ġs m
Ġmat rix
Ġbe gin
Ġl anguage
Ġf ar
Ġpartic ip
Ġf requ
Ġcon v
oun ter
Ġexpect ed
Ġassoci ated
Ġa ward
Ġ Ð
p ly
Ġcl ose
g en
Ġsol ution
Ġconstr uct
h a
ibr ary
Ġab le
Ġg l
Ġpres ident
med i
c it
ers hip
******** ********
U T
ĠF l
c er
Ġt re
Ġannoun ced
ĠIn stit
Ġatt empt
cite p
Ġm ale
abl ed
Ġm ilitary
ĠA nt
/ \
ĠD em
c ell
A fter
pl ied
ĠG eneral
E D
Ġrespect ively
ĠF irst
ĠS en
Ġdef ault
ĠR ed
Ġreturn ed
199 6
Ġbel iev
\ %
Ġdeath s
ĠCour t
Ġa chiev
Ġreg ular
Ġv ia
ĠCanad a
ĠFr ance
ĠArm y
n s
l t
Ġbet ter
Ġ/ *
Ġcal cul
esc ription
\ [
Ġth us
Ar ray
ĠO lymp
Ġpro duc
o ch
199 7
Ġwork ed
ac ing
Ġme et
Ġal ways
ob ject
et urn
b ased
Ġn umer
com e
Ġl oss
4 7
~ ~
at ives
bl ock
18 7
ĠS im
ro te
M A
ĠM al
198 0
ĠP aul
Ġ-- >
ĠSt ud
m it
= '
I G
and id
Ġcond ition
Ġequ ation
text it
ĠB el
}} {
ill s
Ġtem per
ĠS o
U S
Ġl ik
m en
ĠR ober
ch an
Ġh ard
E T
ort hern
Ġr a
Ġst ar
Ġto o
it z
Ġ ill
C H
ut es
Ġ} ,
c ap
Ġdep end
ĠJ ames
' ;
c all
ire ction
M L
ic ro
Ġother s
ĠL aw
y a
and s
## ##
ian ce
Ġpop ular
Ġl ines
Ġcorrespond ing
r ad
It em
ĠS m
\ !
Ġ es
h ood
at al
O ut
t itle
Ġs om
Ġl o
ĠR oman
ref er
un k
Ġin flu
ĠC ont
A B
S er
A nd
ot a
[ ]
ĠTh om
Ġde cl
ag o
Ġm aterial
ak er
ĠH am
ash ington
ĠM or
f il
pl ate
Ġ} );
Ġh app
Ġreport ed
Ġproper ties
Ġv iol
Ġapp oint
Ġg ive
wh ich
ĠTr ans
l ang
+ +
b t
" "
v ille
ĠE m
Ġinvest ig
ĠQ ue
Ġof fer
ist ry
Ġr ank
g color
6 7
an ies
r is
i res
ĠSt reet
lo at
u z
itte e
Ġelement s
O f
Ġan g
Ġc ertain
\ |
yn c
i ers
wid et
Ġn ormal
Ġd imens
ĠGe orge
f oot
Ð °
S ize
Ġt able
Ġth ough
it ar
und er
Ġpolit ic
Ġmethod s
Ġph ase
s in
a ign
ord in
Ġgo ing
Ġp ay
Ġm ight
ĠI m
Ġdeg ree
Ġc y
Ġadd ress
ĠAss ociation
199 5
Ġf ig
Ã ¶
ass ert
Ġep is
ĠF il
Ġeduc ation
ĠCh ina
out hern
Ġl iter
ĠCent er
Ġconstr uction
Ġrel ated
ĠDav id
ĠR ich
ic les
Ġpos itive
Ġrec ogn
Ġon ce
e al
Ġcontin u
Ġpart y
o e
iz ing
w ise
ĠM od
s mall
Ġde but
ĠS um
ĠS tr
ok e
Ġp ur
9 5
ache s
ail way
widet ilde
ro y
Ġa way
Ġwhe ther
w ord
ĠĠĠĠĠĠĠĠ ĠĠ
ĠD ef
c ount
semb ly
ĉ Ċ
ĠD es
ĠS ince
A A
H and
Ġare as
V al
Ġf uture
id a
ip al
C ode
eder al
ree k
ber g
b oard
Ġt ask
an i
ist ics
ĠâĢ ĺ
action s
Ġe mb
M S
{ -
ĠĠĠĠĠĠĠĠ ĠĠĠĠ
ĠL em
Ġh on
g t
Ġb gcolor
R eg
Ġdevelop ed
ĠP at
ateg ory
ul ated
6 8
an ia
r up
0 8
pl ies
ad o
ĠF rom
IN G
Ġp ast
Ġsub ject
//// ////
Ġw rote
Ġwh ose
ar ning
} -
ch ange
Ġcol lection
dot s
b b
ul ations
an el
ust er
ĠM ark
Ġb order
In ter
F ig
l ight
Ġbeh av
ĠG l
Ġjo ined
sh ire
at ory
en ed
ra z
Ġv ector
Com p
Ġcont ains
Ġwe bs
Ġm arried
Ġn um
cent ering
Ġmed ia
ri an
F A
Ġacc ording
ar ing
Ġinst ead
c os
mod el
Ġcont ribut
ĠUn ion
ell ing
Ġsuccess ful
U N
Ġdirect or
uff er
Ġr ather
ĠDep artment
un n
O S
199 4
ew ork
and er
th m
Ġw idth
str uction
Ġl ive
Ġb en
Ġfield s
ber t
ĠR oyal
Ġp ress
li ke
ĠDiv ision
che ck
om orph
Ġright s
197 0
Ġ Â
Ġt reat
cre ate
) {
ĠH all
ers ion
Ġl ost
, -
Ġout put
Ġcond uct
| |
ot es
ĠI nt
k y
sk ip
Ġcon tr
r d
Ġlead ing
s ing
c hed
\ ]
Ġadd ed
G e
M essage
ĠIn ter
id s
g s
Ġadd itional
ĠGerm any
S p
h and
us ing
as ons
S ystem
k nown
Ġd one
5 8
ĠD on
Ġrespon s
b o
Ġre ason
all s
Ġmark et
ĠG roup
ĠFr anc
Ġm id
Ġin f
Ġrele ase
Com m
k a
N A
Ġpro of
pr int
Ð ¾
a ur
ĠW ashington
Ġent ire
The re
Ġun it
Ġmom ent
wo od
Ġperform ed
Ġin c
h an
def ault
ĠL ou
pro p
I R
is es
Ġsur face
e in
Ġcent ral
Ġpro posed
Ġro ad
4 6
b and
0 7
ag on
Ġm ag
199 2
ĠBl ack
z eta
ict ed
ver se
ĠM ore
qu are
Ġdef e
ĠM ount
Ġcon tract
Ġg lobal
ĠE q
Ġline ar
Ġcent er
Ġd ynam
us ed
ĠG et
4 2
Ġst ep
Ġn ecess
Ġac cept
ri ate
ig en
C ount
d o
Ġspec ific
="../../ ../../
Ġch urch
Ġc ut
U p
ens ive
ish ing
ĠM y
Ġj ava
Ġval id
\ {
} +
L og
p ing
ach ing
. )
Ġc lear
it es
Ġscal e
al ax
ra el
Ġ& =
ĠJ er
Ġs ymmet
Ġcom e
o z
ĠM art
w rit
r ated
il i
ĠP e
st on
ĠN e
Ġocc ur
U LL
Ġc apt
st art
I P
Ġmult i
Ġprofess ional
ĠM ary
ag ing
ĠTh at
Ġn atural
Ġb ig
ĠInstit ute
b ase
ĠSe ction
r um
in fo
Ġlarg er
roll er
ri a
ari o
ic ult
Ġne igh
ĠAustral ian
def ine
Ġcol umn
Ġinclud es
T able
) ]
Ġc andid
Ġen vironment
) =\
Ġr andom
199 3
Ġarch itect
G roup
cont ent
Man ager
Ġsim ple
Ġcontin ued
Ġal most
p ite
Mod el
> &
Ġpr inc
Ġc le
ĠD o
Ġt en
5 7
pro d
0 6
S P
ĠCl ass
b ook
O T
ĠD i
ĠAc adem
Ġv ict
( -
; \
Ġopen ed
ĠD uring
x y
0 9
Ġoff ice
pro t
Ġdef ine
Ġst age
ines e
dis play
if ier
Ġsong s
ĠComp any
ĠM ex
Ġre v
Ġas k
ĠAr ch
ĠG o
Ġ __
t es
Ġr at
li ament
m ore
Ġchang es
E nt
5 00
tab ular
e an
Ġmult iple
Ġintro duced
le vel
Ġad ministr
ĠRober t
Ġex ists
0 2
val id
Ġcomplet ed
ar ily
E d
---------------- ----------------
Ġfin ite
Ġz ero
ĠC ong
umn i
) ^{
pt ions
Col or
ĠM usic
ĠS ociety
Ġ ir
ge bra
Ġwebs ite
ain e
Ġnov el
ĠV ir
enc ies
ch o
Ġbro ther
ir m
199 1
ast ic
ĠG reen
om s
at form
E nd
in i
ĠThe orem
Ġl ittle
Ġj ob
Ġj ud
itt ing
Ġm essage
Ġfr ont
includ e
} =\
ur ity
0 4
B ar
9 8
is k
Ġcomp anies
B ut
ic ial
S ub
Ġcan not
Ġqu al
Ġs rc
Ġclos ed
T D
$ )
con text
ef ore
Ġm ove
Ġpri or
Ġd augh
ok en
Ġteam s
Ġm other
0 3
Ġal though
Ġex ecut
Ġro ck
Ġ= ==
Ġfact or
Ġa ud
Ġtrans fer
Ġdisc over
Ġam ount
Ġsc he
Ġen ough
un ity
Ġp ain
Ġs ound
ĠR ef
Ġw ife
ĠC ath
pon se
ĠP ress
ĠR oad
ĠH en
ail ed
}\ ,
c ss
j ava
=" #
Ġg ot
ĠU K
Ġdist ribut
Ġcomp lete
Ġmon ths
Ġobserv ed
W h
Ġcour se
ĠN or
Ġexper iment
Ġso ft
ĠAfr ican
b uild
Ġh or
ask et
C E
ou l
9 7
Ġw rite
s pec
O ff
anc ed
an o
O D
Ġde part
Ġoper ator
Ġsign ed
Ġrad io
Ġd ate
Ġass ist
ari ant
plic it
Ġp age
Ġreg ard
Ġunder stand
Ġdirect ed
Ġact ive
ĠM at
u ated
pt y
Ð µ
th ing
d s
ank s
Ġhim self
Ġopt ions
ec k
Ġfor ce
o res
Ġn il
ĠT est
Ġdist ance
d et
ed d
g l
enc ed
Ġdis play
li ent
} ]
ens us
un t
i os
T H
Ġmod ern
ĠT ex
ĠA dd
re y
Ġequ ival
N o
ĠS am
n et
ĠJ ack
Ġt aking
b our
est ival
Ġup on
ens or
Ġk m
led ge
Ġr ace
^ +
el ine
I L
pl ing
Ġform ed
Ġcamp aign
Ġrel ig
Ġex act
ĠCl ub
ĠT V
ĠPro v
Ġl iving
196 0
Ġits elf
ĠJ ew
Ġc ast
Ġwh ite
ad a
Ġke ep
ĠN ot
Ġrelations hip
4 1
ol it
Ġrecord ed
ac her
ĠIs land
Ġcour t
C all
4 3
}_ \
ĠMin ister
ĠDem ocr
if orm
ar ter
Ġde al
d en
A p
C D
ĠAfr ica
Ġcount ries
ĠB ay
ĠV ol
Ġt ax
overn or
cur rent
Ġal gorithm
Ġrem ov
Ġstat us
l ong
EN T
Ġlarg est
act ive
Ġev al
se y
ĠT ur
Ġconst it
\\\\ \\\\
{ (
ri p
ĠG od
Ġeffect s
Ġf ixed
ĠCanad ian
g ing
ĠS ing
eth ing
al a
S up
Ġpart s
ĠM et
ĠM iss
re ate
Ġschool s
Ex p
Ġst op
Ġinvolv ed
Ġsequ ence
cre t
( (
st atic
Ġpol icy
ic ense
Ġim prov
Ġk ind
Ġpresent ed
}^ \
arg in
iz es
c el
al le
=" ../
is ions
l a
Ġcont ain
Ġthe refore
cdot s
8 8
Ġgo al
Ġpro p
ĉĉĉĉ ĉĉ
. ~
c ore
Ġac qu
am ily
Ġin j
Ġcurrent ly
Ġappe ared
ĠW il
ĠT own
ĠRuss ian
n es
Ġd ouble
at ively
198 9
Ġear li
t em
u a
5 6
ĠM useum
ĠAng el
ĠChrist ian
oc ol
Ġst re
Ġf av
wide hat
Ġpr int
p ackage
act ory
on ic
ĠC ap
ĠM r
Ġquest ion
ĠKing dom
E E
Ġb oard
Ġ} ;
h i
ev ent
ĠCent ral
Ġgiv es
o o
Ġse arch
oc ation
y t
ĠC ons
m ethod
we b
Ġelect ed
Ps i
Ġsp in
Ð ¸
Ġstud ies
Ġt ro
Ġdiff icult
) }\
ĠWh ile
p c
Ġtrans form
Ġf ire
p arent
Ġloc ation
osp ital
on a
Ġre ally
il ies
; </
ac ity
f ill
ict or
ĠL eg
and roid
Ġn om
pec ially
= #
inal ly
oot h
{ {\
Ġthrough out
ĠD irect
en a
Ġeff ort
not e
ĠG ames
Ġbas is
Ġfollow ed
Ġp ers
ĠA lex
Ġb ool
ĠIs rael
il ton
it ude
rup t
Ġle arn
Ġfound ed
d r
U ser
q quad
ĠS l
5 9
Ġch all
& =
198 8
u ate
d ev
ĠH istor
Ġiss ues
Ġme chan
r un
is l
Ġequ al
; &
( {\
ip p
M ethod
app ing
ĠC O
E ng
ĠThom as
Ġappoint ed
he ight
ĠM ad
f low
und le
con tain
Ġincre ase
ĠM ont
f alse
Ġe ight
it ing
ed y
lem ma
Ġiss ue
Ġprov ides
opt ion
ĠB est
Over ride
Ġper cent
ĠG old
Ġinst it
ĠAcadem y
c up
Ġb ox
Ġm akes
Ġquant um
Ġbir th
d oc
ĠJapan ese
Ġalbum s
Ġdesign ed
Ġse lected
i ences
ĠWh ite
ĠG reat
ĠW estern
ul ly
Ġre str
Ġd raw
ĠM ac
Ġtyp es
ir it
Pro perty
iz ations
n ext
Ã ¤
N S
G r
anc ial
Ġh ous
Ġset s
R A
he st
Ġth ought
Ġs ays
Ġallow ed
Ġle arning
ĠTex as
st ant
scal e
ol ar
Ġplay ing
equ iv
Ġtemper ature
S tr
ain ts
ic ol
p age
Ġd irection
s m
ĠS et
evel op
id ents
R ead
Ġm ar
asket ball
ab ase
c an
ĠMich ael
Ġinst all
Ġwe ight
Ġg as
ri ef
Ġd am
ĠY ear
Ġcompon ent
Ġst ars
j o
Ġbook s
d imens
Ġout side
el t
ĠSc ott
in it
Ġfor ces
Ġg ave
âĢ ¦
w in
ĠE ar
ĠJ ust
Ġeffect ive
ĠK ore
ĠVir gin
Ġc ivil
ĠCh inese
ap pro
ĠS al
Ġc ustom
a ud
Ġus ually
ict ure
go ogle
he t
ab s
Ġs ex
O ne
ed ge
F irst
erv e
Ġcomp ar
Ġhtt p
ĠS ome
d b
ĠĠĠĠĠĠĠĠĠĠĠĠĠĠĠĠ Ġ
Qu ery
} |
Ġg alax
plic ations
c ase
ĠB ook
Ġag re
ĠR ad
Ġproble ms
ĠZ eal
er rit
ĠGr and
Ġw ords
f ess
}) \
air s
9 6
duc ation
st ar
Ġdirect ly
7 7
Ġst d
ap ter
Ġsupport ed
ĠItal ian
ith ub
Ġhe ight
ĠS ub
ĠU p
======== ========
198 7
Ġim m
Ġsub sequ
Ġ row
Ġmat ter
ĠZeal and
Ġth row
ous ly
on str
Ġex hib
ro s
Ġpre c
Ġbound ary
or ing
Ġwrit ing
ĠD ay
] (
Res ponse
Ġt akes
ĠRec ords
5 1
w est
ĠCar ol
ic ation
Ġpol ice
w ell
y les
) {\
h as
ĠM ag
Ġe ast
ant ic
ĠTh us
Build er
Ġs il
e es
b ound
ĠLou is
Ġs af
Ġus es
Ġhold s
ĠChar les
Ġes pecially
Ġw indow
> (
S C
P I
Ġcharact ers
th at
Ġfootball ers
Ġprob ability
Ġw est
ma il
Ġj ournal
am s
Ġf all
or age
ot o
ind ent
ĠM er
5 2
Ġcomp ared
Ġ\ {
ĠĠĠĠĠĠĠĠĠĠĠĠĠĠĠĠ ĠĠĠĠĠĠĠĠĠĠĠĠĠĠĠ
Ġc red
Ġan im
v is
ĠF ound
ĠM us
re me
a res
Ġs ample
az ine
ĠB ill
th let
St ream
Ġth ings
ing u
Ġun its
5 4
Ġle ague
Ġprim ary
im age
Ġb ar
Ġto ur
198 6
ro ad
g ent
b a
Ġoper ations
Ġdef inition
m id
el oc
Ġassum e
Ġdaugh ter
text width
* {
re land
Ġun c
h ost
Ġ( "
Ġd ram
Ġver s
iz er
ĠT om
Im age
ĠCath olic
ĠS ur
Ġrun ning
ĠP ublic
ĠFig ure
Ġed ge
mer c
Ġpl aces
S pec
Ġn ight
st ream
Ġoper ation
Ġexper ience
00 00
Ġre ve
Ġsh all
I M
os en
Ġn uc
S ince
Ġl oad
Ġm ention
W hen
ĠSc ience
Ġro t
Ġup per
ĠSum mer
un ch
C lient
Ġperson al
g ithub
ĠL at
Ġ ess
d l
Ġsom ething
d ir
Ġre n
Ġdec ision
m ain
198 4
Ġincre asing
}^{ (
is ation
en ame
y ing
Ġphys ical
ĠS ervice
ri al
Ġal umni
ĠComm ission
p ass
at re
ol f
Ġun ique
] )
Ġindust ry
pre t
Ġkill ed
O P
pl ace
Ġmon ey
ur a
Ġap plication
comm and
ans ion
E C
Ġ$ (\
198 5
Ġs ports
}} (
Ġfri end
< !--
Ġev idence
Ġprevious ly
ĠB en
M em
el ves
on om
] [
irc raft
Ġf ram
p df
C he
ĠH istory
ang ed
ĠD an
f unc
un s
Ġs us
Ġimp act
n ull
k r
ist an
Ġpro te
Ġm us
Ġobject s
n amespace
in ct
ser ver
Ġnum bers
Ġrefer ence
Ġlik ely
ig ation
ĠI N
Ġand roid
Ġrepl aced
y per
ver y
Ġcontin ue
In put
Ġgu itar
A ct
Ġse ven
) </
Ġbecom es
D ate
Ġnot e
Ġw ord
av en
Ġf ight
ĠW ork
ĠF ore
Ġin it
ĠJ ose
5 3
as tern
ĠB o
n ce
por ary
Ġto wards
ĠOlymp ics
Ġst ated
Ġto day
ag ram
Ġs ources
gr ad
ĠN ULL
Ġelect ron
Ġacc ur
ĠFr ank
Ġbeh ind
omet imes
ĠFranc is
Ġn ames
Ġim medi
art s
f inal
Ġdem onstr
c a
Ġbuild ings
Ġwho le
it a
Ġchang ed
clus ion
Ġs en
idd en
ĠF ootball
ĠS pec
Ġl ove
ĠSm ith
p ng
A pp
Ġstud ied
Ġsmall er
D is
Ġad j
ann ing
ĠO ther
k m
Ġch annel
qu ery
Ġco ach
Ġfem ale
Ġt alk
Ġart ists
ĠO ut
Ġex cept
7 8
L ine
Ġequ ations
ĠE v
F I
ĠAcc ording
ĠT or
ĠRes earch
S ource
ĠPar is
erm an
ĠF lor
Ġor d
Ġ< <
ch ild
ĠR ock
Ġneed ed
Ġd ig
Ġm ount
Ġs aw
Ġy et
6 3
}\ \
Ġfin ished
L e
Ġco ordin
in st
fin ished
ĠRich ard
G L
n ers
Ġcap ital
Ġgener ated
Ġal tern
Ġdet ails
Ġwrit er
ol s
Ġrem ains
ON T
Ġmain tain
Ġst aff
195 0
Ġtrans l
Bl ock
Ġmax imum
vent ion
re ater
198 3
B e
ĠS y
Ġsc ient
Ġr ule
o ice
Ġben ef
G ener
6 9
k i
Ch ar
St atus
er ia
Ġ- >
ip s
ĠComm ittee
ark s
ĠM ass
C A
} :
ĠSup er
lect or
f irst
Ġcrit ical
d ec
ph p
U til
Ġtrans port
B ack
d ist
B A
Ġepis ode
ĠLem ma
Ġrepresent ation
cl ient
Att ribute
uf act
Ġap plied
Ġevent ually
S U
ĠP eter
en ing
ollow ing
H ead
le v
ĠH ow
y e
str ong
Ġrepresent ed
O per
but ton
ĠCong ress
U E
Ġse cur
Ġtrans ition
ic ago
ial og
Ġcon cept
et her
Ġv eloc
Ġst ream
ell s
i as
Ġim ages
Ġe mer
ĠD is
Ġlong er
ify ing
I V
B ase
Ġlist ed
ate gy
Ġcorre ct
ang er
C o
ar ian
ĠD el
ub e
ĠW omen
Ġl ot
n ect
Ġexp and
Ġpat tern
Ġto urn
b on
( {
Ġstruct ures
back ground
l v
pect ed
Ġm unic
6 2
od ing
) -
om a
ur rent
Ġs ens
Ġf ood
F l
ch ar
Ġpract ice
Ġcompon ents
Ġch arg
Ġin ternal
ĠSe cond
A G
Ð ½
Ġad m
Ġt it
Ġfam ilies
requ est
Ġmon th
tr ack
Ġconc ern
s plit
Ġpe ak
Ġ& \
Ġc opy
e lement
Ġst ations
Ġcon ver
av al
math sf
l ib
] $
Ġoriginal ly
opt ions
merc ial
ĠOr der
Ġdiffer ence
198 2
ach ine
Ġd rop
6 1
ov iet
Ġst e
Ġide a
F C
Ġset ting
Ġv irt
raz il
ĠH ill
u an
mod ule
or ial
P os
ĠL os
Ġact ually
ĠSp anish
ug in
z a
Ġre ached
Ġad apt
ish op
Ġsc reen
Ġrel ation
ir l
ĠTe chn
eg er
ĠR ob
ĠM el
Ġt ree
Ġprot ected
id ae
Ġocc up
Ġfe el
ol k
app end
In stance
Res ource
Ġnew s
ant a
h space
x space
Ġread ing
M ed
v ed
t x
Ġallow s
Ġart ist
Ġb ur
Ġf a
S he
ĠG overnment
Ġm ix
ĠP ri
Ġsc en
Ġmiss ing
j av
dimens ional
Ġm ode
P art
Ġrel ative
ĠI reland
ig an
ĠP o
}} {\
P er
arg s
Ġsign al
AT E
F L
is her
ic i
lo or
ĠHe alth
m es
T O
oper at
ult ure
Ġtr avel
Ġgener ally
Ġbegin ning
Ġde ep
ann ed
Ġmed al
Ġs ense
197 9
} /
ĠGe org
Ġleg al
ĠV ictor
E X
Ġlim ited
l n
Y PE
} +\
l anguage
loc al
Ġbehav ior
Ġearli er
im ents
' $
ar p
Ñ Ĥ
ĠHen ry
op l
Ġo ption
operat orn
Ġd ed
Ġspe ed
ĠW eb
Ġden ote
add ing
Ġcol lege
pe ople
l am
Ġs ch
Ġ er
Ġg old
Ġcult ure
Ġf ace
it iz
ĠFor ce
Ġsc ience
ig r
Ġpl ant
a o
i h
operatorn ame
d at
ĠVirgin ia
A M
g ener
Ġcon nection
S O
Ġy ield
ĠĠĠĠĠĠĠĠ ĠĠĠĠĠĠ
Ġmov ement
" ).
Ġne ut
Ġexp ression
ĠP enn
ĠM em
Ġbo olean
ĠNew s
Ġev olution
ĠC amp
ĠR em
Ġnecess ary
ele br
t arget
ay ers
n el
w rite
au ge
ol ve
ĠB ur
ag ger
ĠRuss ia
Ġman agement
ent al
Ġprov e
Ġpl aced
A ction
Ġrem ained
al ed
eb ug
Ġ- \
Ġexp ress
C an
ell a
198 1
Ġcrit ic
8 7
un finished
Ġaut om
Ġsol utions
d i
Ġbel ong
ĠB oard
Ġh it
Ġl ack
ĠA pp
R ep
Ġform at
cit et
Ġfour th
Ġdec ided
ut ch
Ġlead er
Ġrun s
at ur
ĠFil m
& &
f e
8 5
Ġeconom ic
b ottom
Ġhig hest
} -\
Ñ Ģ
ĠL ake
| ^
p ost
no indent
Ġsim ply
us ion
Ġb ank
ribut es
op en
Ġs eg
Ġchar ge
ĠO per
Ġpass ed
Ġbro ught
Ġfail ed
al let
Ġorgan ization
Ã ¨
Ġdesc ription
Ġaward ed
Ġun s
Ġart icle
ill a
n eq
Ġal gebra
H T
re p
Ġdeterm ined
Ġcon clud
Ġ ...
Ġn ature
oy s
Ġsecur ity
Ġpre m
Ġrem ain
Ġav oid
Ġl atter
u ge
Ġconn ected
B r
om ial
ĠF in
ĠMex ico
Ġfor ms
Ġdom ain
it ors
Ġit em
l en
Ġdest roy
ick et
uss ian
az z
N ull
ĠAr ts
Ġcompet ition
Ġstre ng
Ġw id
ot ion
Ġappe ars
Ġdat as
Ġb it
Ġto ld
Ġreg ions
ev e
P C
Ġde cre
ock ey
197 2
Ġv oc
Ġhouse hold
ĠS k
S I
Ġfeature d
ĠĠĠĠĠĠĠĠ Ċ
) }{
" ),
N av
A b
en umer
L T
Ġill ust
Ġapproxim ately
ĠSec ret
ĠAn n
ĠO pen
the orem
Ġlevel s
Ġant i
197 6
Ġb all
H E
at rix
ER T
Ġstart ing
Ġco eff
ĠI ll
ot ype
Ġt im
Ġpolitic ian
Ġim plies
Ġgr ant
\ ,\
per ties
Ġa x
ĠCh icago
Ġw oman
Ã³ n
Ġgrow th
Ġorig in
Ġfor ward
Ġneed s
Ġcho ice
197 8
T oken
ĠSw ed
Ġcom es
ĠSc ot
C ell
ĠE mp
w ar
omet ry
Ġqu ick
Ġa ircraft
head er
Ġso on
Ġclass ical
alle l
Ġ" ""
Ġtechn ology
Ä ģ
Ġon line
Ġv eh
Ġbr ing
Ġmean ing
ĠD en
Ġcom ment
om in
ud d
ĠAt l
ot ic
Ġsy mbol
and a
Ġnot ed
Ġtr ade
ĠFlor ida
Ġincre ased
S im
Ġpro ced
Ġr ules
ec ause
Ġm ur
Hand ler
evelop ment
Ġb re
$ }
ms elves
we ight
$ {
.... ....
ĠAs sembly
Ġfin ancial
b in
ob ile
u ke
p ol
ĠAngel es
r l
ĠB rown
Ġwh y
Ġ esc
Ġstud ent
P S
Ġover all
str act
ĠM o
ĠItal y
3 00
Ġsh are
ann er
Ġan c
197 4
col umn
ĠIt s
Ġwe ak
Ġ _{
fl ict
T V
Ġext ended
Ġclass es
Ġr ap
Ġparticular ly
in em
g n
t ex
Ġmagn etic
) }$
197 5
Ġtr ain
ars er
197 7
Ġsing er
i en
Ġresult ing
Ġ+ =
Ġp urch
Ġthe mselves
Ġin side
Ġext ends
ĠN ote
Ġsc ore
M ar
Ġvari ables
Ġmin or
ĠC ast
res h
ad ata
Com ponent
Ġsol id
Ġknow ledge
b ul
Ġac adem
D O
8 9
Ġgr and
ĠT wo
Ġh ot
ĠL and
Ġop port
et te
Ġw ide
Ġres ource
ĠP ost
pro ject
B S
Ġmed ical
Ġc a
ĠSer ies
Ġpres ence
Ġe arn
St art
g u
Ġf ra
E arly
ĠF orm
empt y
; "
iver se
Ġequival ent
Ġf it
m as
F T
Ġd ark
Ġh ours
Ġ ]
appro x
ĠK h
ĠAl though
ĠV er
ĠThe refore
Ġtrad itional
Ġopt im
line ar
p at
f ind
ur t
Ġapp ly
Ġvari able
if act
ie ce
196 8
H el
Ġse lection
for ce
f ont
ian a
Ġc op
Ġsp ent
Ġc ounter
V ert
v ant
m ember
Cont ent
t ings
Ġinter view
ĠT able
ul ed
Ġw alk
Ġspect rum
ol a
Ġman ager
Ġent ry
ab it
O ptions
Ġfig ure
Ġarg ument
reed om
Ġit er
Ġcont act
ir ing
Ġre con
nav bar
Ġc ause
197 3
Ġprogram s
ĠT ime
Equ al
ĠT imes
Ġplay s
Ġst ri
pt r
on ly
M M
in os
ĠU nder
}} _
Ġconn ect
{ }
are er
Ġproduct s
Ġqu ality
Ġrecent ly
ĠSt ar
i Ä
Ġde b
Ġreg ister
Ġvol ume
Ġth reat
im s
[ "
anc y
Ġth rows
ic ated
l ock
Ġp en
enumer ate
R un
Ġsc ored
re a
Ġcl ient
ĠH on
ĠFound ation
Ġro b
ĠS aint
Ġh ol
Ġrat io
ri z
Ġv ac
ĠF estival
W ork
ĠOb ject
ĠC D
in ner
erv ation
x ml
ill er
Ġf if
Ġrec over
g reg
P re
Ġpr ison
Ġp ick
Ġs ometimes
Ġcon sum
n umber
F unction
at o
Ġtourn ament
ob j
Ġestablish ments
ĠL iber
B uffer
ou ri
ĠPar liament
item ize
ĠR eturn
Ġed itor
pro cess
ad y
E m
Ġsc hed
Ġin cor
Ġpl atform
ate gor
Ġmajor ity
j son
ĠN avy
Ġcaus ed
] \
p y
Ġman ufact
sc r
ian o
Ġrem aining
Ġbroad cast
Ġmod ule
Ġcons ists
4 00
en ge
Ġveloc ity
e ch
RE F
ent ry
il s
Ġneigh bor
Pro v
8 6
ug by
the n
Ġ ;
Ġad opt
ĠCarol ina
ict ions
ĠHam ilton
Ġactiv ities
Ġagre ement
Ġin n
Ġf ederal
197 1
ĠO ver
ĠReg ister
P oint
P i
Ġspec ified
mat rix
ĠP et
Ġmem ory
ĠO h
Not es
all ery
N umber
v space
n um
N ote
Ġpro gress
Ġwrit ers
pro perty
$ (
yp es
unc hed
Ġf ill
9 4
i ro
p ress
194 0
ĠM ur
LA SS
ĠE ducation
9 2
ĠB ank
Ġatt ention
ĠH el
= {
^ -
Ġse cret
Ġmat ches
Ġfinal ly
not her
Ġ\ ;
Ġc atch
r ule
Ġest imate
ĠE r
re al
Ġfr ame
Ġneg ative
Ġre duced
ot al
Ex t
B ox
s g
196 9
ĠM a
F actory
ĠAr ab
Ġche m
P R
9 3
Ġm iddle
ig ger
Ġvari ety
ĠChampionship s
P ar
Ġact or
St yle
h ouse
ã ĥ
ĠS il
it ter
O L
c s
cre te
U s
Ġp ark
ir al
ĠM il
Ġdis e
st ack
ry pt
ĠIn c
L ink
Ġre pe
Comm and
Ġb asketball
7 2
D et
ĠB razil
ed s
c r
Ġin str
Ġc elebr
Ġ ~
ĠG a
Ġequ ip
ĠA wards
194 5
M et
Ġim pro
ĠA tt
Ġp ack
un it
yd ro
or a
ind ing
R eturn
Ġw ave
sk i
m em
im a
Ġact ress
erv ed
st atus
ĠS oviet
ĠM ost
ail y
ĠD et
L oad
ĠMart in
Ġwin ning
k o
Ġsur round
Ñ ģ
Ġsoft ware
ĠN one
* /
Ġpre vent
as ion
Ġun ion
ĠL ong
g ence
Def ault
Ġex plicit
Ġd u
ĠK e
Ġs n
Ġm argin
Ġcol lect
196 7
ĠT w
Ġexist ing
re es
pr ivate
sy ch
ĠA v
Ġinflu ence
Ġfrequ ency
Ġfore ign
k in
ĠPro fess
Ġder ived
N N
V ersion
Ġstat ement
ee k
ĠF ield
Ġph il
ĠB ase
ing er
}} }
Ġs low
r ate
Ġwh om
ĠO ld
olv ed
Ġte acher
is hes
Ġcoll abor
d ep
L abel
Ġtreat ment
19 30
st ra
Ġro om
ĉĉĉĉ ĉĉĉĉ
ĠB ig
ĠDirect or
Ġdiv ision
Ġsuff icient
rel ated
cl es
O ther
ĠO f
Ġup date
Ġexp ansion
Ġch osen
The n
ĠW ales
os ing
ĠL ife
ock et
ĠK ar
Ar g
is ms
Ġsh ot
Ġident ity
ĠM os
ym pt
p ack
Ġm ission
Ġ{ @
Ġmov ie
val ues
p o
Ġh um
in y
Ġprod uce
b reak
ip ality
C L
ĠĠĠĠĠĠĠĠ ĠĠĠĠĊ
C P
ĠIr an
// /
\ }$
ven ue
ĠJ ud
Ġb ad
ev en
Ġinter pret
Ġin sp
t ag
ang es
ell ed
ĠS ocial
bt n
Ġdimens ion
ore t
ĠO ur
Ġro ute
Eng lish
l ast
so le
ĠJose ph
Ġn one
Ġcom mercial
Ġre li
ĠK n
Ġsche me
P RO
Ġs yn
Ġf ully
N D
Ġend ed
j ection
ult ural
Ġmeet ing
Tr ue
Y ou
Ġse lect
Ġ( (
d escription
D r
196 4
row ser
Ġestim ated
Ġfil ter
id ers
Ġl at
Ð¾ Ð
ĠO l
N O
P erson
Ġg auge
or al
ĠJ ournal
W indow
or ation
ĠF e
in v
p ush
Ġa uth
end if
ĠN ow
S w
Ã §
ul ate
ĠC E
ĠP an
} );
Ġsh ape
Ġnear ly
he ast
Ġcandid ate
ĠT our
ĠCol umb
m eta
ap ers
) +
Ġsum mer
Ġhe avy
form at
ĠEng ine
Ġun iform
ad ow
n y
ĠIr ish
s rc
Ġst ay
J ohn
u id
Ġthe orem
stit ution
. $
iqu es
ĠW ood
Ġcon sequ
Ġmot ion
ĠP ac
ad ium
ell ig
Ġask ed
Ġst ore
A ut
Ġs ociety
under line
D uring
Ġatt ended
ĠR el
7 6
ĠII I
Ġsit uation
P age
S ec
Ġk ing
ans as
ĠF ort
Ġro ot
res ents
Ġc itiz
Ġh yp
h r
im g
ter m
ren ce
sy lv
Ġbr anch
Ġconfig uration
se lect
ĠĠĠ Ċ
os h
Ġaut o
le ase
F ONT
R ow
Ġb rief
Ġliter ature
il er
Ġed ition
8 2
m ission
Ġinter action
Tr ack
Ġse c
Ġwant ed
8 4
M en
ĠYou ng
w a
Ġext ension
Ġopen ing
al i
ic ate
Ġmus ical
Ġrelig ious
T e
S D
Ġelect ric
AB LE
ĠCh ief
Ġco ast
Ġform ation
Ġnew sp
Ġlaw s
ĠOff ice
as hed
sh ow
Ġhigh ly
ĠW hat
j a
ã ģ
L ast
Che ck
Ġdo ing
f ect
Å į
c i
u er
}^{ -
Ġt errit
sc he
Ġparent s
ele te
ĠN orthern
so ft
sylv ania
k er
Ġse em
Ġstud io
) /
Ġe igen
ĠEmp ire
cl ose
Ġgo als
m t
ĠB as
Ġl ives
Ġqu ite
it ation
ĠProv ince
ĠS un
196 6
al o
9 1
Ġoper ators
ĠT ype
Ġsepar ate
Ġrecord s
y an
196 5
Ġvoc als
ĠD ev
Ġc ore
Ġdescrib e
ĠHistor ic
Ġindividual s
ĠH ere
Ġle ave
Ġs quare
w an
Ġs ister
Ġch ief
ĠE nd
em porary
ĠJ o
S A
R em
f ort
ĠR o
Ġpress ure
E L
ĠP eople
A m
Ġn orthern
Ġf arm
Ġv ote
Ġis land
ĠC am
N e
in et
Ġder iv
Ġcommun ities
Ġdiscuss ed
19 20
ĠH aw
m ann
at riate
Ġr isk
Ġappear ance
Ġan sw
Ġproduc er
Ġchall eng
asc ript
P op
ĠS ir
Ġdid n
ĠD ec
Ġun ivers
il ed
Ġs outhern
Ġse asons
yn omial
Ġmin utes
C areer
ib ly
et ime
Ġr iver
Ġreturn s
ad er
Ġex am
~ $
mult icol
F urther
Ġlead s
att ice
Ġpo or
Ġdeterm ine
v ey
Ġ( -
Equ als
Ġl ived
Ġm aster
ĠM ax
Ġmet ric
ĠS pr
ĠTr ump
Ġprob ably
Out put
Ch ild
Ġoffic er
us band
Ġin fin
T op
Ġprof ile
Ġg reater
D F
at i
Ġa mb
Ġother wise
Ġn odes
tr m
ĠT im
Ġbl ue
n orm
ĠL ee
arri age
ĠG en
ĠL ove
b i
Ġconstruct ed
M on
Ġp ert
r ich
out e
f g
M C
Ġin come
Ġre ach
set s
Ġmost ly
r idge
Ġla unched
N ow
multicol umn
Ġcont ribution
Ġtr a
r s
Ġdoes n
act er
serv ice
s pect
Ġc arried
Ġd oc
Ġs ure
{ $
Ġf ast
circ le
Ġres ources
con s
er c
Ġcom ing
Ġcomm ission
m ond
Ġcent re
Ġman if
Ġrequ ires
Ġv an
Ġmin imum
\ "
tex trm
Ġhe nce
ĠG reek
ĠG i
ig inal
Ġact ivity
Ġc ensus
d epend
Ġc ategory
T P
se ct
ĠF red
Ġgr av
ĠU kr
Ġet c
ak a
F e
Ġcont aining
Ġinter face
B U
Ġann ual
Ġbu ff
ĠSp ain
ĠR h
Ġse ek
Ġrespons ible
Ġb attle
Ġsl ight
Ġmention ed
Ġl ayer
ĠP re
Ġbe g
Ġpo et
r or
Ġj oint
ect ors
Ġch ampionship
ac ement
Ġn orm
ĠL ine
Ġbas ic
ĠC ivil
Ġsm ooth
z er
ĠJ im
h ing
a fter
Ġsen ior
Ġhe art
Ġr ailway
Ġhtt ps
Ġact ual
IN T
air man
N ext
} '
ĠD ata
amp ion
min us
rib e
l ayout
g raph
T ask
Ġdr ug
Ġimmedi ately
Ġd ou
" ]
7 3
Ġw ood
st ein
ut y
Ġold er
Ġnumer ous
ĠW al
Ġ eth
ĠVal ley
tern et
Ġc ard
M in
od er
ĠB uild
Ġremov ed
Ġelection s
ex ample
C reate
Ġsymmet ry
ent h
ĠSe e
r ick
Ġex tra
ref ix
V ER
Ġinitial ly
Ġre comm
Ġ â
erv ices
W eb
ĠPro gram
q l
Ġweek s
iss ions
roll ed
ĠL ie
Ġb ul
8 1
Ġbecom ing
Ġappro p
ĠDemocr atic
b ed
Ġrefer red
Ġproject s
Ġon es
Ġh yper
< \
uc ed
ĠPenn sylvania
ar c
ĠB ob
Ġf un
Ġus ers
Ġex amples
ef t
8 3
Ġmur der
up date
The ta
Ġser ver
Ġcar ry
Ġident ified
Ġbeliev e
D B
ol t
omorph ism
Ġfram ework
ĠA ut
ĠC ross
U I
Ġess ential
Ġsh ift
Ġeas ily
' re
ĠH ot
contain er
ĠL ibrary
ost on
Ġin equ
pt on
Ġdefe ated
Ġfil es
refer ence
ĠC amb
G B
Ġse ems
ĠL og
Ġmin ister
at tr
D es
Fil ms
Ġpl ane
Ġg overn
Ġpart ies
Ġno ise
D escription
à ¤
Ġown ed
ĠIs lam
fil ter
Ġent ered
Ġdev ice
ad or
Ġp anel
ĠTe am
ult y
Ġst ories
E l
Ġfl ux
R el
7 4
Ġmag azine
el se
math scr
S o
ic ans
Ġab ility
Ġrep resents
Ġcomplet ely
( &
Ġqu ery
f ree
Ġcontinu ous
pon ents
$ _
ĠBrit ain
bit r
`` `
und red
ĠAl so
ov a
he mat
im inal
Ġar rest
Ġm icro
196 3
ĠI D
he et
subset eq
gy pt
por ation
Ġcl uster
7 1
Ġobserv ations
ent y
ain er
Ġsay ing
ir med
Ġexist ence
am l
Ġb us
ir ls
Ġserv e
ã Ĥ
Ġn ative
ĠJ ac
Ġinterest ing
ĠL in
P ost
k l
Ġform ula
angu ages
Ġdi agram
Ġs ort
lection s
Ġcon vert
ĠAs ia
Ġqu arter
Ġ ign
Ġcur ve
n am
Ġqu e
Ġpartic le
196 2
ĠG L
respon se
Ġdis s
b ury
Ġ$ |
Ġst ra
Ġde ad
Ġcontr ast
Ġc os
Y ear
ĠS outhern
P ort
Ġpur pose
el er
ot ing
ind s
Ġcomp act
Ġcon cent
c d
Fil ter
ow ers
em ic
Ġcomput er
Ġfor ced
Ġra ised
ĠP ak
ĠL ord
foot note
ĠF urther
ell ar
Cont roller
ĠJew ish
Ġh usband
b uf
y es
men u
W rit
v ector
Ġcount y
L ength
Ġup d
ĠM en
or ter
Ġa ctions
v a
Ġsc atter
ĠT op
Ġ$\ {
Ġs uc
param s
Ġar my
Ġmov ing
st d
Ġ$ -
Ġpos itions
Ġun known
pos es
D esc
Ġth ing
ir a
n ormal
Ġcon flict
li e
S L
}} _{
Form at
Ġw ays
il arly
Ġpartic les
om ic
Ġm is
Ġprocess es
Ġdist inct
7 9
}} ,
w edge
un ior
Ġdepart ment
ak ers
Ġex ception
Ġrem ove
id ay
u is
ĠPro ject
Ġgalax ies
jav ascript
Ġl if
T em
Ġfact ors
P O
Ġorgan izations
ann ot
Ġm ut
C ON
Ġf ix
ĠG al
Ġfri ends
Ġs uit
ple te
Ġbe y
Ġal leg
Ġhistor ical
im in
d x
ro t
if ically
ĠB i
Ġp aint
er ry
Ar t
Ġsc ene
Ġf ont
Result s
ĠSh ow
Ġb al
ĠB attle
194 4
ess ages
est ed
{ {
g le
Ġn ation
Ġsp read
Ġvirt ual
iÄ ĩ
Ġsurv ey
Ġap plications
Ġturn ed
ef ined
I O
et ts
IN E
Ġhel ped
Ġdram a
ino is
sec ut
in stance
ĠEar th
Ġuse ful
M B
cl os
Ġmap s
th on
Col umn
Ġcap acity
Ġse a
ig a
ar ia
S ON
List ener
Ġsing les
Ġpl ans
ĠSt ep
Ġc am
opl us
Ġc orn
Val id
//////// ////////
Ġcho ose
Ġbey ond
ĠMich igan
> >
enn is
_ +
Ġr an
at ers
ĠF ri
tt p
< ?
ol ute
Ġ< !--
he m
Ġdes pite
ĠSen ate
res hold
ĠO F
wh ile
Ġas pect
ĠT em
st yles
act or
ib li
\ }
y er
196 1
Ġarg uments
Ġmoment um
C S
ĠB ul
sh ift
Ġ( $\
Ġf oot
Ġs plit
f loat
ur i
1 000
sc ope
Ġpol ar
ĠSecret ary
ĠT ele
ach us
ec ution
iz ont
Ġpre p
Acc ording
Ġmain ly
M ode
ma z
Ġdistribut ed
Ġar m
u ations
aw a
ific ations
a ver
Ġfore st
ĠS ol
Ġsc ript
ĠCent re
Ġvert ex
d agger
Ġ\ |
Ġsh oot
os oph
Ġg reen
f it
ĠCh ild
urb an
s ign
ĠOh io
ay a
Ġ util
Ġvis it
C R
d es
ĠS ong
Ġ url
i ate
Ġclaim ed
Ġgiv ing
p ers
Ġfav or
Ġn av
ic ine
Ġgen us
or se
Ġprot ect
ĠRad io
ĠJ ones
ĠS ar
Ġstr ategy
Ġarchitect ure
Ġlet ter
out put
Ġun iversity
ĠThe ir
Ġal t
Ġcomb ined
s ur
_{ {\
ĠO x
Ġpol ynomial
Ġre b
\ '
Ġrece ive
se ud
Ġsy nt
Ġf air
Ġthe rm
ĠJer sey
ound s
uct ure
Ġ ensure
Ġwork ers
P A
Ġm ixed
Ġeas y
ab ilities
Ġcompar ison
a uthor
ern el
ĠScot land
ic ens
Ġres olution
M ax
Ġn ine
Ġch ain
Ġwe b
Ġstra ight
ER R
pl ed
cher s
ĠAs ian
Ġem ission
set minus
Ġnetwork s
: #
D on
Ġgener ation
um s
ard en
Ġerr ors
omet ric
Ġcontribut ions
es h
ĠD evelopment
Ġlead ers
g ate
l ines
Ġdom in
= (
) |
Ġshow ed
Ġb ottom
ĠRep resent
Ġaff ect
av ed
og rap
k ins
ĠN etwork
Add ress
ĠCar l
wh ite
Ġcol on
i ated
ist ance
l ers
Ġs amples
Ġgo es
l as
ĠĠĠĠĠĠĠĠĠĠĠĠĠĠĠĠ ĠĠĠĠĠĠĠĠĠĠĠĠĠĠĠĠĠĠĠ
ĠCon ference
ĠC LASS
ĠJohn son
f a
ĠEd ward
Mem bers
Å ¡
Ġinteg r
Ġbound ed
atal og
Ġr ates
Ġmeas ured
ĠL uc
N et
Ġrele vant
T ag
H owever
^{ -\
Ġtyp ically
rem ove
Ġcom pl
Ġvict ory
c ript
Off set
Ġsem i
Ġfe ed
Ġpro ceed
ĠPac ific
old er
achus etts
ĠB re
ĠH REF
ex pected
Ġexperiment al
M ore
Ġle aving
r ical
C ase
sk y
S l
ĠC ro
But ton
d eg
ell er
Ġsit es
el a
et ween
_{ (
hes is
I A
Ġar bitr
ĠS und
A ust
Ġeffort s
ew idth
Ġrad ius
burg h
ĠG ood
194 8
Ġserv ing
ĠQue en
en ant
UR L
un ct
T S
ind er
v est
194 2
d esc
r ics
ig ration
ĠWilliam s
: </
P at
ĠM iddle
ĠT ro
' ).
text tt
ĠJ es
ĠK ent
D ec
**************** ****************
rop y
ĉĉ Ċ
ĠS pe
Ġpl ot
Ġ[ ]
Ġsim pl
Ġred uce
195 6
A V
Ġform al
ament al
r ong
Ġag ent
Ġprov iding
C urrent
Ġconsist ent
Ġimpro ve
al y
Ġv s
op ed
Ġs ession
ell i
g a
t ree
Ġc ities
Ġr ail
Ġh ar
Ġse at
B i
fr ame
Ġt ag
f s
Ġbeliev ed
Ġpolitic ians
Ġexact ly
C ar
Ġoffic ers
Ġh arm
Ġsett lement
ĠFrancis co
Ġnot hing
j i
Ġfam ous
ĠPol and
p op
Ġexper iments
se cond
iv ial
w er
Ġrel atively
Ġdem and
A c
od ed
Ġo il
Ġcell s
ĠE X
ĠL i
ad el
Ġcult ural
195 9
Ġjo in
ĠT re
ĠD utch
ĠK ong
ĠR am
Ġp il
Ġl ibrary
I F
app ed
Ġcou pling
W hat
)\ ,
ĠIll inois
it ory
Ġpro min
cont in
Ġs u
Ġpert urb
. /
z ero
Ġth r
195 8
Ġdynam ics
s ystem
ĠM ov
193 9
Ġf irm
Ġser ious
ĠAl b
Ġa im
Ġquick ly
il ation
ĠGeorg ia
Ġre form
stand ing
j e
ĠN S
ar ant
w s
Ġact ors
h ar
ip age
ay lor
ĠB oston
port ed
Ġent er
ĉ ĠĠĠ
w ait
_ .
he nt
ens ions
ĠH T
Ġ ice
D ev
il a
re ct
ĠE gypt
N ational
Ġorder ed
it age
Ġex change
Ġprofess or
Ġstr ict
ad r
\\\\\\\\ \\\\\\\\
i y
Ġsc ope
H ere
ap se
( [
T hat
ĠP y
V is
as ure
at ically
Ġcompos ed
Ġen j
orn ey
ĠM ajor
Ġw estern
ag ment
Ġsp aces
ĠP rem
ab eth
Ġtrack s
ĠM any
Ġpr iv
ic ity
Ġ\ !
min ipage
izont al
Ġproced ure
ĠC re
ur ies
ty p
ĠI S
= -
Ġm ole
Ġoffer ed
Ġemb edd
orn ing
Ġp urs
Ġvis ual
M D
in ations
Ġapproxim ation
big g
et ch
C ache
Ġch art
c at
Ġcover ed
b as
t ask
Ġem pty
15 0
ĠB ern
A g
Ġp p
Ġfootball er
CO L
Ġat tract
ĠL icense
iction ary
Ġsh ared
194 1
Ġret ired
ĠH uman
E v
Ġadministr ation
ul s
ĠB oth
Ġin form
Ġoper ated
ce an
ri ev
as tr
ĠJust ice
Ġtr aff
s ite
194 3
est s
Ġse ctor
s d
Ġrecord ing
Ġdis k
T arget
d rop
ĠO p
ĠMass achusetts
Ġsignificant ly
Ġm ind
per p
Ġb att
ĠÂ £
195 7
Wh ile
Ġ* *
Ġtri al
l aw
194 6
Ġin ner
Ġincor por
ĠThe atre
Ġship s
Ġw ait
u v
Ġprop ag
Ġt or
Ġac com
ann els
S che
cl aim
i ant
Ġc ouncil
Ġassum ed
B undle
NA ME
ĠSup reme
lim its
Ġh ospital
comm on
ĠG overnor
Ġm useum
ĠR ead
Ġdel iver
Ġag o
P P
ĠS and
at ial
Ġreg ional
im er
ĠE ach
ĠCol or
Ġ$ [
ograph ic
ĠM ah
T YPE
} %
Ġinteg ral
Ġdep ends
Ġst eps
M y
S ing
col on
epend ence
Ã ±
Ġl attice
Ġr ing
ĠSpec ial
Ġlook ing
: \
ro duction
Ġdiscover ed
ĠB ow
anc he
A F
Ġs quad
Ġd ual
Ġb ass
k it
che n
ĠH a
Ġexecut ive
ĠPhil ipp
B rit
L ayout
Ġsw itch
ĠEn ter
ĠPr ince
im ary
ĠJ r
Ġit ems
ick s
Ġsuc ceed
ĠE astern
ĠE p
P o
H O
lin ewidth
Ġl ies
p g
ro om
Ġfl ag
ĠP op
Ġcre ation
R L
oot str
ap ed
E M
w rap
ĠM u
ĠT ra
Ġcl ust
Ġexp ressed
r id
as y
r ons
ĠV an
Ġs end
ud get
ĠE conom
++ )
Ġenc our
ĠPort ug
ĠF C
Ġcitiz ens
ĠCo ast
ĠL ab
ĠHe ad
M e
Å Ĥ
Ġdec ay
Ġd raft
bl ack
ion e
ck now
Ġmeas ures
a a
ph y
writ er
ĠR os
ig er
Ġp i
ĠA ff
Ġdise ase
195 5
ĠSt e
con f
T ypes
Ġtry ing
Ġex ternal
r ange
t ure
pos ite
Ġpol y
oll ary
od ay
ĠSt an
Ġadv ant
Ġm achine
194 7
ĠS T
as er
ĠF ederal
), \
Ġcom edy
Ġang le
Ġf le
ic ients
o ir
ĠW ay
' .
Ġh undred
if ies
f ri
Ġdatas et
on to
s ort
ĠL y
Ġu int
Ġiss ued
ĠU N
ĠKore a
st one
if fer
Ġm arriage
ategor ies
C al
Ser ver
Ġ! ==
_{ -
Ġsubsequ ently
anc ing
S ports
Ġref lect
Ġsus p
Ġ| \
as i
195 2
Up date
ĠG ame
ĠW all
Ġcou ple
M at
ĠColumb ia
ĠLat in
Ġv oice
Ġauth ors
Ġm ill
com ing
Ġ} \
Ġspect ral
S y
ĠBl ue
param eter
f ound
Ġquest ions
k et
Ġman aged
Prov ider
Ġearn ed
ec ute
Ġto uch
ĠC ard
Ġachiev ed
Acc ess
ĠRepublic an
Ġnuc lear
Ġnumer ical
ĠRev iew
C K
Ġcomb ination
Ġprov ed
Ġrap id
ra q
let s
c ar
ici ency
Ġconduct ed
Ġs al
Ġstreng th
igh ter
ellig ence
def inition
Ġadopt ed
ĠScott ish
Ġcalcul ated
U rl
Ġam plit
ĠB usiness
: "
__ __
B o
Ġf ellow
r u
ĠMus lim
ant ry
d uct
Ġre ports
Ġdiscuss ion
ĠH ence
tem plate
ar ters
Ġocc urs
Ġass igned
ST R
Ġget ting
( _
' ),
Ġfl at
Ġext rem
Un ited
ĠE qu
Ġslight ly
ition ally
ĠB ang
Ġfe at
Ġcorrespond s
Ġimplement ation
O ur
Ġre tain
Ġacqu ired
Ġ Î
ĠM id
Ġex tract
Fr ame
a is
al ysis
Ġed ges
Ġon to
195 4
Ġth ous
Ġoff set
Ġcont ained
Ġpol ic
class es
Ġfor t
ĠAr ray
f aces
te en
d uce
par se
Ġvert ices
Ġsp irit
#### ####
Ġtechn iques
Ġc ert
195 3
E q
Ġf reedom
ul pt
-- -
h om
Ġn et
Ġstat istics
er ies
AT ION
The se
ĠĠĠĠĠĠĠĠĠĠĠĠĠĠĠĠ ĠĠĠĠĠ
ic ed
h aps
Ġhand le
b ool
ĠOx ford
Ġconc ert
olog ies
) }(
ĠP ubl
St at
Ġor ient
Ġb ill
Ġcall back
ootstr ap
L ocation
h igh
ĠH ong
ĠR ay
Ġreg ime
ag raph
Ġacadem ic
ro ot
e z
pro to
off set
Ġres idents
,\ ,
d ocument
Ġown er
on ia
R ev
Ġapprop riate
ĠH ome
Ġl anguages
B O
ĠPro position
1 20
it ness
Ġpro pos
ĠAnd rew
c ard
' _
194 9
Ġ&= &
Ġconstr aints
ra wn
or ough
Ġunderstand ing
D irect
Ġanal y
Ġcomp ute
art ifact
ĠTechn ology
Ġ$ {
Ġb illion
' \
D A
r an
ĠH ig
L S
in f
ĠC y
Ġincre ases
Ġinteg er
Ġperson nel
ĠC all
and on
g g
ĠH arr
ĠW is
on ym
el d
Ġr are
am m
Ġcle an
D o
olog ist
Ġ Å
Ġyou th
Ã £
Ġdes cent
ple x
Ġmet al
ul er
align ed
p ool
Ġgrow ing
b al
Ġaltern ative
Ġc at
M O
Ġv on
Ġscal ar
Ġw all
Ġen h
L P
Ġad ult
ĠR ailway
n eg
erv ative
D em
ĠBro ad
Ġclaim s
ĠJ ean
T I
ĠMed ia
olic y
Ġreve aled
Ġr ise
à ¸
ĠR un
D D
Ġcre ating
Ġgener ate
ĠMore over
Ġr ac
Ġnear by
Ġsatisf ies
ĠH ung
Ġclub s
ĠUS A
_ *
O p
ĠJack son
r b
Ġbl ood
Ġw atch
ri um
Ġtest s
Un it
Ġag reed
w indow
="../../../../ ../
ograp her
ĠS oc
ĠH ospital
Ġal one
inal s
O pen
ĠC reek
ĠC a
ry st
m itted
m i
Ġdig ital
Ġin fr
W idth
ĠProfess or
Ġint ended
b ro
Ġbuff er
W ill
eng er
ang ing
Ġdist ingu
L ocal
Ġob j
ĠA PI
Ġmaterial s
Ġst able
Ġlo op
d irect
s i
leg al
ĠSe a
L a
eder ation
ĠSt and
Ġp iece
Ġass ign
op her
Z E
are t
Ġa wards
d el
{ $\
ĠM ain
ĠM ot
ĠPl ay
Ġanal yt
fr ont
ĠComm on
Ġart icles
Ġdiv ided
Ġc er
Ġbr idge
Ġarg s
ĠK ey
195 1
ĠPl aces
Ġcal c
duc ing
c f
il ly
sh ould
ĠR et
s en
ĠK enn
mod els
R ight
Ġpair s
Ġsome one
Ġre asons
Ġra ise
Ġact ing
un a
Ġsex ual
F O
Ġl abor
ĠWil son
Ġdep th
ĠPol ish
Brit ish
return s
u int
Ġfail ure
ag ers
Ġmeasure ments
Ġprim arily
bul let
th ur
s pe
Ġassum ption
uck y
ĠP oint
ud es
Ent ity
Ġf re
Ġg un
an es
Ġtro ops
Ġofficial s
prot otype
Cont rol
Ġfra ction
em y
ul y
Ġf elt
Ġse ctions
Ġ ens
Ġsim ulations
ime q
ĠIn st
h or
st o
19 18
Ġt ensor
requ ire
im ation
d est
Ġlead ership
iz abeth
Ġoff ers
Ġh ydro
s imeq
ĠG ener
cont rol
od ies
Ġsuggest ed
Ġsup p
Ġcy cl
() ->
oc ated
Ġstr ateg
N on
D i
ĠL ater
Ġhous es
}} (\
Ġp ure
ĠBer lin
Ġaccept ed
Config uration
d im
Ġenj oy
D isc
Ġcorre lation
Q L
Pro cess
Ġcl imate
Ġoper ating
Ġconf irmed
Ġclass ification
ze ch
Ġp ull
) _{
am ber
se ar
T ree
Ġopt imal
Ġarr ived
ĠW ild
Ġinequ ality
S H
W rite
ph as
m ic
Ġs am
Cont ainer
Ġattack s
rom e
Ġded icated
ĠPol ice
ĠF our
AR T
ĠL ittle
t w
Ġabs or
Ġwid ely
Ġass ess
ĠF ile
ĠN ight
Ġcan cer
enn es
Ġl iber
Ġseg ment
Param eter
00 000
c ut
M ult
K E
m atch
Ġtr ust
ĠSt at
hen omen
og ene
Ġw orth
le ep
ock s
Ġany thing
Ġin tr
Ġinstit utions
ĠJ eff
Ġf loat
Ġcle arly
L ong
] );
ash ion
st ep
ĠE lect
h y
Ġwe ap
Ġhon or
ĠK en
ĠAlex ander
Ġaccur acy
Ġ{ }
f n
V AL
Ġp sych
Ð º
U P
ric es
Ġ+ \
p ower
Ġpart ner
Ġinv ariant
Ġ\ (
ĠCor ps
Ġh ockey
ĉ Ġ
.~ (\
Ġle aves
ĠV iet
ĠBro ok
P ol
Ġpat ients
Ġmin im
ĠK r
Ġmod es
' m
W orld
Ġanal og
od d
itz er
193 6
S R
Ent ry
Ġstrong ly
yd ney
Ġwin ner
Ġn am
t ml
ĠB ir
Ġpar allel
ĠW ater
Ġtyp ical
v ol
b re
sub figure
Ġatt ribute
C ons
t ri
Ġorgan ized
Ġstr ugg
Ġcoeff icients
}$ -
Ġact s
Ġl en
Ġmark ed
ĠF ar
Ġ ult
Ġp refer
Ġv ary
Ġthe oret
Ġneighbor hood
ist ical
Ġper fect
in ity
ĠAr gent
u ing
al g
ol es
ĠDan iel
Sc ript
Ġpro test
Ġdiffer ences
Ġor b
ul f
to ken
Ġoccur red
ĠM as
\! \!
Ġover l
Ġvers ions
Util s
ĠSt ation
Ġpolit ics
ors hip
Ġp et
Ġred uction
let on
ĠVictor ia
est ic
gorith ms
Ġeas tern
v in
% %
Ġre ject
G u
end ar
ĠI raq
Head er
ĠMod el
D at
Ġfif th
Ġcall s
ĠP en
ĠOr gan
ĠM ap
Ġget s
ript or
se x
er g
n ic
ĠB BC
ĠB a
Ġprov ince
ĉĉĉĉ ĉĉĉ
% )
ad ing
ĠComm unity
Ġanc ient
ĠS i
Ġcon ference
Ġrec all
Ġunc ertain
ĠIs lands
L I
Ġdat abase
util s
z o
Ġtest ing
Ġt a
Ġim ag
Ġpred ict
Ġat tr
agon al
Ġ* )
ĠP ower
ent ity
ĠW in
Ġmunic ipality
Se ction
Ġsaf ety
us es
Ġsim ulation
are n
G o
Ġcandid ates
=" -
ab y
Ġbe aut
c ases
R ange
Ġp aid
a ug
D S
ĠPr ime
Ġcompet ed
artifact Id
Ġs ales
g lobal
ec es
Ġpr ice
Ġth ick
icro soft
Ġnewsp aper
p an
M ark
ĠG ar
s ol
l ig
Ġdet ail
Ġappro aches
b ec
ĠS om
ĠMin istry
G eneral
pos s
> ,
ĠBel g
x x
Ġshow ing
Ġbase ball
L evel
Ġke pt
ĠGu ard
Inter face
193 8
b ot
im ages
ĠL im
Ġtransfer red
m ake
Ġrespon d
Ġlarg ely
Ġx ml
ĠN ations
Ġappear ances
Ġatt end
u ous
ĠM ethod
Ġcur ves
Ġsold iers
~~ ~~
Ġf ine
Ġinstr ument
ĠR og
Ġro les
il ib
N E
ĠD ar
R ed
mult i
go ing
Ġs qu
Ġdef end
ph ia
Rec ord
Ġintro duce
Ġdepend ence
Ġco al
nt ario
ch ron
Ġident ify
Ġallow ing
Ã¡ n
ĠStud ies
ut enant
Q ue
Ġ era
Ġpart ial
ĠOlymp ic
Ġtr ained
ĠB ell
) ^{\
Ã£ o
or i
ĠC at
Ġre sear
y o
con n
ĠT am
Ġcy cle
Ġopport unity
re nder
Ġepis odes
Ġdet ailed
ĠJ on
Ġb inary
an th
Ġex c
Ġimport ance
CO DE
Ġ ut
p a
Ġcr ime
Ġprom oted
}^ *
m iss
D ir
il ing
el i
ĠE st
Ġcommon ly
ĠJ oe
U M
Ġassoci ation
ĠU s
Ġrepresent ing
ĠB oy
ĠKore an
Back ground
Ð »
Ġs port
c ache
ĠT aylor
$ ).
Mod ule
ĠSec urity
Ġarbitr ary
Ġbehav i
Ġapp arent
ĠL ew
Ġ= \
Ġh ope
Ġl ab
Call back
op es
ĠC orn
Ġdet ection
Pro t
per or
all ow
Ġro ugh
Ġsing ular
Ġmed ian
T C
D P
Ġalong side
Ġeconom y
new command
b uffer
Ġassist ant
Ġl i
adel phia
Ġconstit u
ĠA k
ĠCor poration
Ġr ural
am i
ĠT ri
Ø §
ĠOff icial
Ġfund amental
193 7
Un iversity
) ^{-
Ġg irl
ĠAmer icans
Ġden otes
C or
Ġc arri
Ġex tr
ĠSc iences
ĠR ail
result s
omorph ic
Ġfac ilities
Ġdeg rees
Ġprinc ipal
b efore
Ġcontin ues
Ġg rew
text sc
Ġpower ful
Ġw ild
Ġachiev e
af e
cal e
Ġsur pr
AP I
ur er
Ġsecond ary
g est
Ġindic ates
ĠL ight
Or der
put e
ath an
Ġax is
group Id
V er
Ġcr iminal
m ode
ĠV ill
un te
t wo
ĠL o
Ġinvestig ation
it led
ĠMan agement
Ġgrad uated
ĠH and
Ġj ourn
M usic
ap pe
ĠRev olution
ĠR ome
Ġinterest ed
sub subsection
Ġdel ay
Ġindic ate
ĠReg iment
per ial
im b
Ġpro port
ĠAss ert
Ġp ra
dev ice
Ġinter actions
ĠB and
ynam ic
Ġst reet
ĠB ecause
h s
P L
ĠL es
it o
$ ^{-
ĠMed ical
S ome
im ately
Ġtrans formation
ĠPri ze
P ass
ĠAd ministr
z h
ĠReturn s
N one
old s
ĠM aster
C ast
ak i
Ġcoordin ates
Ġp le
Ġcapt ured
ĠS ant
g ers
for all
isl ative
Ġtraff ic
C opy
Ä ±
v ari
al so
call ed
ĠReg ion
Ġs ave
Ġop in
ad s
ĠPh ys
ĠR om
IG N
up le
S ch
Ġide as
am in
" ))
Ġcommun ication
ĠTh ree
ĠB C
S earch
ether lands
con sin
16 0
Ġem phas
Ġcl oud
Ġregard ing
Ġfig ures
v an
Ġw ind
Ġequip ment
ĠB on
Ġn arrow
ĠS ports
}} ^
Ġestim ates
ĠComm and
Em pty
ĠPak istan
p resent
Ġtri ed
Ġserv es
Ġmod ified
s uch
Ġevery thing
Ġpromin ent
Ġfeat uring
' >
Pos ition
ĠS ervices
eg o
Ġv en
D ep
Ġs ides
Ġnuc le
ĠM ir
ap es
ĠIn f
Ġp adding
H z
a uth
Ġth reshold
ades h
Th us
Ġt ell
struct or
Ġsett ings
ĠF ollowing
S um
Ġf loor
ĠD E
Con nection
Se cond
Ġcont ro
Ġprogram ming
ĠA venue
Ġa thlet
Fig ure
ĠS ydney
Ġcomput ed
ĠAir port
ab il
ĠF I
res ource
Ġpl anned
Ġp henomen
Aust ral
z en
Ġchem ical
pect ive
Ġeff icient
' }
ect ive
ĠCamb ridge
ott ed
is is
Ġscient ific
Ġro ll
ner gy
Ġfocus ed
Ġdecl ared
col l
Ġexpand ed
ĠEl izabeth
D own
sh all
Ġbr and
prod uct
Ġcirc le
He ight
trans form
Ġt end
pm atrix
r ine
ĠP ass
d ependent
19 14
Ġadministr ative
t an
end ix
ĠA nother
Ġm orph
Ġmass ive
N R
ĠCl ark
on ical
ĠMc C
Ġw rong
Ġb oy
w ater
Ġdam age
M R
ron ze
Ġin h
Ġex cit
Ġdistribut ions
^{ +
ĠV is
P ublic
Ġdr iver
Ġcre w
ploy ment
Ġcomp are
ĠĠĠĠĠĠĠĠĠĠĠĠĠĠĠĠ ĠĠĠĠ
Ġtechn ical
Ser ial
sh ot
Ġcost s
n ership
19 19
Ġrecogn ized
ĠI d
ĠPol it
ĠW alk
we et
Ġtem plate
) _
ag a
193 5
t og
Ġhyp ot
F ont
che stra
ĠC reate
Ġhous ing
P T
Ġto ward
Ġag ric
b el
bour ne
ou ch
Ġm iles
rop ical
Pro ject
Ġsil ver
Ġprote ction
ä ¸
Ġtw ice
M ay
Ġgu arant
ĠInd ust
1 10
s v
Ã ¸
ĠO ntario
H ash
al ing
m ut
="../../../../ ../../
Ġthem e
ĠTor onto
ack et
h ol
ĠC irc
Ġblock s
ĠM ike
Ġ> =
Ã© e
ow a
25 0
Ġ$ .
f iles
ĠY our
) }{\
u y
Ġrepl ace
Ġlist ing
olit an
ĠO s
W E
V D
Ġspect ra
Set tings
os is
ne ctions
Ġob vious
st able
Ġac comp
Ġauthor ity
ĠS a
Ġloc ations
S ign
ĠGo ogle
Ġperm an
if er
Ġsc ulpt
Ġsol o
Ġengine ering
Ġabs olute
AC K
J son
s el
$ $\
Ġview s
ĠA R
Ġide al
ask a
P olit
Ġp icture
ct x
ĠB al
ack s
Oper ation
Ġdr ive
Ġgr id
Ġord ers
or gan
Ġla unch
ĠAnt on
Th read
ĠO t
ik i
l ife
qu arters
in son
Person al
Ġinter val
arr ing
Ġhand s
on al
Ass ociation
Ġexp atriate
Ġ$ $
het ic
Ġsub stant
Ġsp atial
ĠStep hen
ly n
ĠUn ivers
ĠM arg
sc ape
H is
Ġis ol
19 17
ell o
ĠSund ay
Ġspe ech
Ġdescrib es
Ġinc ident
Ġphys ics
w eg
Ġp it
ĠR od
i ative
Ġdestroy ed
Ġcomm ittee
p ir
Ġhistor ic
ĠTur k
Ġg ap
Ġl ie
ĠS us
ĠQue ens
Ġnot es
6 00
Ġg ain
ĠIn formation
E Q
% ;
ĠN C
Ġsuccessful ly
ĠCh ris
display style
Ġsubsequ ent
En c
Ġv otes
ĠA sh
Ġdef in
Ġnot ice
ĠS her
u ilt
Ġte aching
Ġest ate
Ġsymmet ric
ist ent
ĠO R
ĠC ub
Ġear th
)$ -
E ach
Ġinvolv ing
P H
Ġme ant
Ġb omb
Ġp ackage
Ġs ust
ad ian
193 3
f ull
| }
Ġc ool
ĠF ree
Ġtre es
Ġfl ight
Ġp an
G E
em et
Ġreview s
Ġp al
ob s
ak h
Ġbeg ins
c ular
ĠB G
duc es
int on
Param s
T ER
ĠE ven
Ġmechan ism
} )$.
ym p
ur ches
oth ing
rem ark
ĠF air
v as
. [
ĠR en
cknow led
mod al
Ġauthor ities
equ al
O ption
Ġadvant age
Ġc ars
agn ost
Ch ange
Ġyield s
Ġ il
D ocument
medi ate
ĠM ath
Ġmass es
Ġmeasure ment
Ġnew ly
Ġopt ical
osoph y
S outh
M ain
ud io
ug ins
y al
Ġindust rial
Ġfind ing
Ġparticip ated
ov ed
Ġe cho
Ġo dd
Ġlim its
Ġoffic ially
semb le
map sto
: (
ĠHamilton ian
ĠM ember
Ġd aily
ĠBr ig
ĠC ur
ict ures
Ġmunic ipal
Ġansw er
ĠW eek
ic er
Ġpl ants
field s
H ttp
styles heet
Pro perties
' ve
um es
COL OR
Ġres on
Ġgrant ed
ĠMin nes
Ġal gorithms
Ġsub set
d ebug
Ġstart s
19 29
Ġmusic ians
clus ive
AL L
Ġemploy ed
s ch
Ġexpl ained
Ġ urban
Ġst orage
ĠS anta
Ġcharg ed
=" _
est amp
est abl
Ġro ut
H S
19 28
ĠWis consin
Ġsurround ing
ĠR aj
L eft
Ġaff ected
ĠA D
os a
De cl
G S
Ġch annels
ĠD isc
s end
ac cess
ĠN etherlands
y ard
pl om
tr y
25 5
Ġtask s
Ġde com
Ġ" \
; ->
ĠMinnes ota
Ġins ert
Ġover ride
ost er
Ġshe ll
ĠT ok
ĠK im
an z
Ġbe at
19 10
Ġr aces
ĠSp ace
ĠB ack
ĠK ir
Ġpur poses
_ -
19 00
ful ly
Ġadd ing
Ġpolic ies
Ġperform ing
Ġvert ical
Ġvis ible
Ġdifferent ial
ilib rium
193 4
ĠF re
al ion
ĠFore st
Ġcons ult
AT A
Ġw or
ick er
w orth
Ġser ial
ac ent
b order
ce ived
ip eline
gr ade
p icture
Ġprinc iple
Ġprocess ing
Ġc m
ĠChe ck
Ġfac ulty
Ġd ance
ĠG lobal
u j
Ġrequire ments
Ġmed ium
ecut ive
Ġfa ith
Ġgalax y
ĠOn ly
emet ery
id el
Ġnot able
os l
Ġband s
ĠA li
m osp
Ġpr ime
ic ip
193 2
ĠDes pite
Ġrem ark
ibli ography
Ġmagn itude
S ession
oper ation
Ġp ool
un ities
Ġp owers
L oc
Ġdep ending
ĠF amily
II I
Ġap plic
ord ers
) "
ĠAn th
Ġcomm it
Ġcompos ition
Ġ ul
st ro
sc ill
ĠB ol
ra ham
Ġwin ners
Ġmot or
ĠTr ue
Exp ression
ĠL ag
ĠW ars
In ternational
ĠEx ception
ĠD oug
ĠV en
ol is
ac le
Ġst ellar
ĠB ad
~ $\
h ard
Ġst ock
Ġfin ish
en ess
k es
Ġin struction
Ġend s
u h
m ass
Ġ ::
Ġcapt ure
c opy
bl ue
ĠTr ust
ĠPhil adelphia
G C
Ġimprov ed
ix el
Ġf ans
Ġp ages
ĠE nt
Ġl ock
ĠC ode
ĠSwed ish
Ġb udget
ap ore
C ent
en v
ĠE vent
") );
ac c
ĠG ro
ĠH ay
Ġdec ades
Ġtr av
ef e
Ġpl anning
ent ed
ĠC ON
Ġse ats
&= &
ur d
ut t
As ync
ĠB att
Col lection
Ġhe av
Ġhousehold s
igr ants
ĠBe ach
st at
Ġre ality
od ot
Ġenvironment al
Ġinsp ired
Ġdis pl
Ġpart ition
w ing
Ġterrit ory
ak s
Ġt ells
iam ond
S k
V ID
h ash
ĠCon stitution
ĠN az
ook s
in ternal
ĠA uthor
com ponent
Ġdevelop ing
k ind
P tr
m c
ĠS ab
Ġcl in
m aster
inter face
Men u
B I
Ġ ..
Ġveh icle
Ġfund ing
Ġpar liament
def ined
Ġdev ices
Ġtit les
ĠD uke
p et
Ġtechn ique
ĠSt adium
fr am
Ġtrans lation
D R
Ġpe ace
Ġcer em
Ã º
Ġdimens ions
ĠF inally
ĠK el
V ol
ier arch
ĠD own
V ari
Ġcont emporary
Ġs pl
Ġviol ence
Ġdoc uments
Ġhe at
Ġch ampion
B efore
19 22
Ġtr uth
Ġscatter ing
Ġun less
Ġg ained
Ġbe am
Ġcompos er
m o
n i
Ġchall enge
Ġsuggest s
ĠR ights
Ġrec ip
Ġb in
Ġrepresent ative
ct ors
c over
Ġaud ience
ta il
Ġhe ard
Ġent r
ĠL ady
Ġto ol
c p
ire ment
ĠS em
Ġcon j
Ġprot ocol
ĠW at
Ġto ken
Ġp seud
ĠSer b
Ġsom ew
ĠD ig
Ġobserv ation
ĠB udd
Ġst ress
ĠA thlet
ĠE ll
Ġa ware
Ġas ympt
Ġe lev
## #
Ġres ident
Ġobserv e
Ġc e
Ġw aves
U LT
Ġresult ed
ang ular
Ġren amed
jo in
b ootstrap
Ġcop ies
riz ona
typ es
Ġh ole
Ġn or
ĠDav is
Ġsatisf y
ann a
G ET
ĠH un
ĠCol l
Ġmin imal
ist ed
ribut ed
onom y
t im
Ġlearn ed
N ov
ym ph
ĠJew s
Ġadv anced
em an
Ġmat rices
if ul
19 27
ron ic
ĠR oute
it able
ps on
ĠW rit
ĠPrem ier
25 6
o is
ĠG er
Ġfil ename
Ġh idden
Ġmount ain
ar ation
ĠMed al
Ġw ing
ian g
Nav Bar
In st
$ ;
M T
act ic
O K
ĠE rr
}} ^{
Sche ma
ĠP ers
h bar
Ġcol lected
b ind
Ġperform ances
Al though
Ġhas h
ĠF ire
AN D
Ġpen al
ĠM ill
ĠT ai
Refer ence
ri e
ĠDes ign
ĠEngine ering
ĠI l
point s
Ġcirc um
ĠL abor
Def inition
c ow
Ġmat hemat
193 1
ĠL ev
Ġsup ply
B R
form ance
Ġl um
sh ort
19 24
Ġhost ed
) \\
Ġspec ifically
ĠCon f
Ġsh op
h box
ennes see
Ġrecogn ition
Ġn arr
s he
ĠH ind
z y
Ġta ught
Ġparam s
Ġdefe at
ĠBr idge
s ive
Ġintro duction
ĠC zech
Ġtheoret ical
Ġjud ge
Ġar ts
and ra
ĠInd ones
PE CT
C I
ul i
}( {\
v ard
Ġinter section
au x
ĠTur key
Ġo scill
s id
Ġtrans action
Ġsuff ered
el ess
ĠG ree
Ġth read
$ ~
es ter
Ġf ell
p ot
Ġrepe ated
Ġad vert
ater n
ast y
n ames
ĠF ox
Ġ ener
" |
Ġang ular
pon ential
Hel per
Ġb ond
un es
Ġpre par
H ow
Ġfac ility
R ad
s es
& #
The orem
ĠFurther more
Ġnot ation
v ing
Ġcontain er
ĠH o
Ġr ugby
hed ral
Ġemploy ees
D raw
Ġfind s
Ġadv ance
I ter
anc er
Ġcharg es
he rent
Ġport ion
med ia
ĠB ishop
Ġop posite
Ġsch olar
pro position
Ġsecond s
Ġst ack
for ward
rop olitan
D om
reg on
Ġm orning
Ġfunction al
ĠR on
Ġp iano
Ġpar ish
Ġcap tain
ĠD er
Ġcalcul ations
Ġf iction
Ġveh icles
Ġposs ibly
weg ian
st ore
ill ing
s or
P U
ik a
R I
in er
r im
ĠM ilitary
Ġc ache
R et
ĠCount ry
add ress
Ġt al
ect s
W omen
U se
ĠSwed en
p atch
ĠSt eve
ĠF und
8 00
Int eger
let ed
Ġplan et
up s
sc ription
ĠGa ussian
Ġfound er
Ġent ity
ĠA rea
ear s
Ġus ual
s n
In valid
19 21
Ġpurch ased
igh th
Ġcall ing
ly wood
ord an
19 25
Ġwhere as
ol i
Ġv ess
og en
agn etic
G erman
l an
Ä į
Ġdef ense
ang a
X X
Im pl
Ġv ectors
ms g
H ost
ĠI V
19 12
at on
ĠN ame
re q
Ġtown s
m ad
Ġ{ };
Ġconsider ing
ĠMiss ouri
h over
lement ary
St ore
il bert
19 23
Ġpass ing
ĠUkr aine
Ġdo ctor
Ġc art
r at
Ġext end
Ġm anner
Ġto ols
Ġsp ons
Ġdocument ary
Ġrefer ences
Ġcalc ulation
ERR OR
Ġh abit
12 8
ĠIndian a
ĠĠĠĠĠĠĠĠĠĠĠĠĠĠĠĠ ĠĠ
ĠN Y
Ġcamp us
ĠA z
F rench
f amily
Ġanim als
Ġfe et
ĠS on
enn a
T wo
Ġz one
Ġrest aur
Ġor bit
Ġin her
Ġpre t
12 3
ic ian
ĠChrist mas
ĠD am
ĠW ell
ĠU sing
ĠĠĠĠĠĠĠĠĠĠĠĠĠĠĠĠĠĠĠĠĠĠĠĠĠĠĠĠĠĠĠĠ ĠĠĠĠĠĠĠ
ĠAtl antic
c lear
d ouble
at ible
' (
Ġsw im
19 15
P RE
ĠGold en
Ġge ometry
Ġturn s
B L
N ames
d elete
Ġcon vent
Ġinstall ed
Bi ography
ymmet ric
ĠW el
ĠCap tain
cl ip
V ector
Ġop position
O M
out heast
Ġtit led
ur ance
Ġsum mary
Ġinteg ration
Ġcont est
ĠH om
ĠPe ak
re ll
not es
T ele
ĠG reg
t n
Ġinn ov
ĠAff airs
Ġab andon
Ġcor por
Ġb right
ĠC as
Ñ ĥ
Ġre ct
F ound
Ġrot ation
} &
ĠIn ternet
Ġpublic ation
Ġnov els
10 1
Ġattempt s
Ġimplement ed
Ġin fo
Ġp ush
ĠPal est
ĠW inter
ĠV AL
Ġcorn er
ĠW he
\ {\
og s
ĠK ansas
rit ical
op ic
Ġrece iving
ĠR E
ĠH ard
Ġfund s
pl ugin
Ġt error
Ġsp ring
fram ework
Ġsup erv
ĠRe al
Ġs urn
Ġengine er
ĠA h
uss ion
ĠM ic
U sing
19 26
id get
H L
ord on
w all
b en
ult ane
Ġcon ven
amb ig
Ġport ray
Ġst one
ĠPl an
Ġevery one
ag an
ill ery
ĠFore ign
ĠSpr ing
Ġrem ember
ĠK al
ĠB all
Ġconstit ution
ĠLew is
âĢĿ .
Ġyoung er
atur day
ĠJ oh
Ġsupport ing
Ġs an
and y
", "
j an
D I
Ġex erc
[ (
g ies
ĠF inal
ph one
Ġper haps
ern ame
Ġd ie
sup port
19 16
Ġconclud e
Ġneg ot
Ġind eed
Ġind uced
Ġe q
Ġscal es
Ġacc ident
Ġext ensive
Ġstand ards
ĠT y
ĠL ive
C F
Ġinfin ite
Ġdem ocr
astr ucture
F alse
\ _
R S
Ġloc ally
ĠT HE
Ġfrequ ently
ĠF ellow
Ġclos ely
C ore
ĠM oh
m ma
Ġtre nd
ĠT al
aw n
m ers
com ment
Hand le
r ase
Ġde leg
Ar ch
Ġse vent
Ġar ms
Ġfl uct
g reen
ĠL O
Ġtri p
Ġcaus es
Ġf ish
h u
d y
i pl
Ġfem ales
Ġamplit ude
Ġacc eler
' ],
ad ed
Ġbound s
Ġf ashion
Ġregister ed
equ als
Ġw rest
ok es
f ly
ĠS quad
Ġtw enty
Ġhe ro
Ġcover age
ĠS uch
Ġ rom
S ong
Ġreturn ing
Ġtherm al
Ġinj ury
Ġelectron ic
Ġun able
Â °
Ġaspect s
ĠM ari
ĠAr thur
f i
v m
M I
Ġcan cell
Ġconstr aint
Ġtem por
l iving
ch a
lo op
Ġch ance
ĠColor ado
e en
se ason
Ġexpl ain
Ġg overnor
cl ick
Ġv ice
. '
Ġl osing
O lymp
Ġarrest ed
ĠG allery
Ġ ion
ogene ous
OR T
b ad
Ġc ov
Ġbel ief
ĠTown ship
Ã ¢
ĠRepresent atives
Ġjournal ist
ac ro
if ts
Class es
ĠT ennessee
) +\
\| _{
i ples
F ollowing
Ġj av
Ġb urn
Ġl ayers
ĠBook s
Ġ+ +
Ġposs ibility
Ġn amespace
i able
() :
Ġco inc
f loor
Ġentire ly
Ġw itness
i Ã³n
Ġpain ting
u um
V ideo
per t
av ity
is a
Ġinterest s
Ġfight ing
fo o
OR D
) }_{
ĠMex ican
Ġ ),
ĠP it
form s
T ool
ĠS U
B B
Ġre action
Ġag greg
Ġrelig ion
ĠBro ther
Ġinvest ment
ing ly
( *
ĠSur vey
ĠF ace
Ġeff iciency
k g
Ġrad iation
Ġm ask
Ġpi eces
ĠSh ort
rom ise
Ġuns igned
H igh
Ġr ich
ĠMary land
Ġref ers
Ġcover s
ĠMem orial
Ġconsist ing
Ġread er
Ġchang ing
ĠR equ
ĠH y
j ust
T itle
R C
` .
================ ================
Ġexper i
Ġappro ved
ĠG h
Ġrank ed
f ocus
b at
ĠMar ia
o or
X ml
s ince
cl oud
p erson
t ik
are st
er al
Ġc row
in itial
Ġe mail
T im
) ).
ĠV i
ĠL ocal
Ġis n
Ġp y
ri or
wid get
Ġb ow
Ġ$ |\
co in
Ġdr iving
hand le
Ġex clud
Ġdistrict s
) },
ĠE th
ĠN orm
bo olean
doc s
Ġlet ters
tain ment
Ġc ab
12 5
ĠR ose
ist ant
Se lect
p anel
ĠAl f
s ession
Ġextrem ely
g ency
Ġwe alth
ĠC H
Ġterm in
Ġr ain
Ġult imately
Int roduction
ĠF ederation
ĠH art
Ġ ^
Ġcharacter istic
Param eters
ĠCol on
Ġclust ers
19 13
Ġk ernel
ĠA rizona
W A
D IR
Ġm apping
ĠH an
Ġhold ing
to String
ul ing
Ġconver gence
aw s
hold er
S m
ĠHol y
Dev ice
Ġat mosp
Ġcont rolled
A wards
Ġesc ape
ĠH or
ĠO regon
om ot
erv es
c ategory
ĠSt ock
ĠD ate
ĠBG COLOR
Ġconvert ed
Ġinstit ution
we alth
ig in
iv ation
Ġbenef it
col n
Ġch ap
Ġ( '
( :
Ġmatch ing
ĠCon nect
ĠCast le
Ġcoordin ate
ren cy
Ġunder lying
Ġfact ory
D av
ut her
r ang
i pe
Ġsp ot
B E
Ġbro ken
cc cc
} )$,
18 0
ad min
St ack
Ġy ards
vir t
depend ency
Ġend ing
b les
ĠBr ad
unn el
ĠS at
ar ry
con g
ĠD om
) -\
Ġop posed
ĠLe on
ĠR a
rib ed
Ġsol ar
Ap plication
u ating
ĠSing apore
iv ated
}{ (
Ġ ^{
Ġs oc
ĠL ike
> ();
Ġpl us
Ġvari ation
p ur
} }$.
-- >
ĠM ult
ax is
con nect
Ġsaf e
qu es
ĠPhilipp ines
Ġpart nership
k h
Ġcom ments
Ġv ir
w estern
Ġvis ited
oc ate
p res
ĠN a
$ {\
Ġalleg ed
ĠN ative
clus ions
Ġd rawn
Ġh our
ĠW ho
includ ing
ĠAd am
F inally
Ġlo an
ant ly
Ġout er
$ ),
Olymp ic
Ġcr ick
ĠJac ob
Tem plate
ĠEx ecutive
ĠR oss
Ġund efined
ĠM iller
Ġupd ated
w ick
Ġcolumn s
Ġadj ust
dis abled
ĠMount ain
` ,
Ġmedal ists
ĠH al
T A
Ġnam ely
Ġre nd
ĠF ord
ĠE nergy
ĠS av
} }$,
D oc
ph ys
Ġdynam ic
ĠT er
ĠBar on
Ġcam era
ĠW indow
it ivity
ĠU se
secut ive
Ġeval uation
Ġag ree
Ġjob s
L em
Ġro yal
ĠAd v
ĠĠĠĠĠĠĠĠĠĠĠĠĠĠĠĠ ĠĠĠĠĠĠĠĠĠ
inc ial
ĠMos cow
ĠViet nam
iv als
et ies
> .
Ġ icon
A pi
j ar
Ġd anger
Ġtrad ition
ĠAnd erson
L eg
ĠJes us
Ġdrop ped
e lect
Ġw rap
Ġexplicit ly
B est
ĠM un
H as
ir ty
r as
ĠE very
av or
ĠM P
Ġlabel s
St ep
li k
Ġcalcul ate
S ources
The y
ĠP ier
ĠPr inc
Ġsol ve
Ġtre ated
Ġag ents
Ġread y
co pe
) )$
ĠChar l
en um
C ap
ĠD or
ail ing
U nder
Ġlat est
D C
D L
ĠFred er
Ġdom estic
ĠSl ov
ĠHigh way
Ġthe ories
r ub
Ġpar se
Ġor th
ĠM unic
Ġf estival
per iment
Ġag ency
reg ister
Ġ\ &
Ġj ur
reg ion
ĠL ast
Ass ert
T ax
ut ed
Ġocc asion
A v
Ġc ook
ĠEX PECT
Ġbur ied
ur r
Val ues
ure au
}$ )
out s
ĠI P
ĠN on
Ġindic ated
ĠRe port
Ġuncertain ty
Ġ[ '
mod ules
Ġcomplex ity
sh ape
Ġsub stit
Ġconsequ ence
Ġre nder
ĠCh annel
ĠEn vironment
Ġsuit able
Ġsk ills
Ġnom inated
,\ ,\
ĠAb out
ele ase
Ġin line
ivers ary
iv ery
Ġind ependence
Ġch airman
In itial
ĠA ction
The refore
Ġinter ior
Ġarr ang
Ġl yr
Ġd oll
ĠMal ays
ĠV iew
}{ |
Ġthe atre
Ġjust ice
Ġsc oring
W est
itzer land
b ell
ÃŃ a
Ġg irls
ad i
ed ia
tik z
D ebug
ens is
Ġm ir
Ġde lete
foot er
N um
\ ;
19 11
Ġh all
ar se
ag en
Ġt ail
ict ional
sup er
- $
ĠN A
ang o
sp ring
ĠT urn
Ġbr ain
ĠB h
ĠChild ren
Ġl iqu
Ġgl ass
Ġst ability
Ġn ob
Ġle ct
re place
Ġpresident ial
ĠNor way
Ġscal ing
ĠD ist
ĠAr k
R ect
Ġtr igger
ĠD C
ĠC le
Ġhapp ened
Ġhead er
anche ster
Ġa head
Will iam
ĠU l
ĠI O
Can adian
Ġf uel
oc ese
el le
P res
ag h
f all
] ]
J an
Arg ument
Ġposs ess
ĠH ou
ific ate
Ġdet ect
is lation
Met adata
OR M
g ment
Ġbenef its
ĠA N
S M
Ġab und
B ibliography
G en
ĠB at
Ġdesign ated
Ġl icense
t i
Ġmix ing
Ġe c
ĠA mb
% ,
Ġinv oke
ache lor
maz on
Ġgraph s
P arent
web kit
Ã© s
Ġobject ive
Ġconcern s
-------------------------------- --------------------------------
ol ver
ĠIsrael i
set tings
olog ists
eng ers
ap plication
Ġc ategories
ĠS ri
L C
Ch rist
ĠC ab
Ġpred iction
ĠS O
Ġsch ol
20 23
Ġsepar ated
ĠComm un
Ġdi plom
S ION
ĠA re
Ġgu ard
Ġpattern s
Ġcomm itted
ĠĠĠĠĠĠĠĠĠĠĠĠĠĠĠĠĠĠĠĠĠĠĠĠĠĠĠĠĠĠĠĠ ĠĠĠĠĠĠĠĠĠĠĠĠĠĠĠĠĠĠĠĠĠĠĠĠĠĠĠĠĠĠĠĠ
ah oma
ĠB et
........ ........
Ġf resh
st op
im p
Ġopin ion
Ġsupport s
Ġf erm
ro it
) }}
ĠB arn
' ll
Ġm and
Ġh uge
ĠMel bourne
Ġm obile
ĠHar ry
poss ible
ĠK han
Ġarg ued
ĠV alue
Ġtr ace
Sports people
ide os
ĠPhil ip
P olicy
riev ed
P arser
Ġdr ink
s uccess
Ġeduc ated
Pat tern
ou red
Ġbal ance
Ġy ellow
Read er
ĠCh ap
Ġaff ili
by te
Ġexper t
Ġdec or
T T
Ġex cell
Ġstat istical
Ġsched uled
Ġb odies
ĠE s
w orld
al id
ĠP age
ues e
D ist
Ġg ender
Ġhigh light
ĠM A
Ġdes ired
Ġst arring
ĠTh rough
ĠTrans port
Ġhapp en
ev in
ain ian
Ġrecomm end
Ġv ent
', '
Ġent ries
Ar gs
ĠSt aff
Ġcr isis
Ġm ock
ach ment
in ction
bold math
Ġkn ew
J apan
) ),
Ġcon nections
A nt
f ef
H on
Ġdirect ory
Ġbrief ly
ex ports
ic ians
iss ip
Ġm yst
y ers
ĠI owa
Med ia
U RE
ĠBase ball
c ustom
Ġcrit ics
| _{
Ġd a
C re
Ġexpl an
Fil m
Ġscen ario
T ab
Ġatt ributes
ĠEnter tainment
Ġref used
igen ous
enc ing
E CT
uck et
Ġw ins
ot on
ĠL ind
rec ord
Ġcoeff icient
low er
ĠDon ald
off s
B ody
Ġm essages
Ġb ronze
D el
Ġsim ultane
Ġe le
f ix
% .
ap h
d iff
ĠM it
Ġs s
Ġfl ood
big l
ĠT ext
RO M
ab ama
od s
Ġdet ected
Ġmon itor
c oh
Ġcon vers
Ġattempt ed
gr id
Pop ulated
, $
Ġres c
Ġeduc ational
ĠIn itial
f old
Ġbehavi our
ĠMod ern
ĠC ase
Ġst orm
ĠL td
ĠĠĠĠ ĠĠĊ
ĠE U
W S
ĠL ow
Ġadv is
ic ons
Ġany one
Ġsh ock
Ġo s
n ight
at in
ant e
Ġset up
Ġs ac
yn asty
Ge ography
H er
Ġbul k
Ġap art
Ġa id
By tes
i ations
} "
ĠL iter
iven ess
Ġcon secutive
ant on
fg han
K ind
Ġstand s
ur st
istr ation
ĠEx t
iz on
con v
ac ew
Ġfav our
V ar
Ġv ocal
Ġ} )
ĠT a
ort heast
U K
G A
00000 1
Ġaud io
ĠR ow
ing ham
190 8
tog gle
Ġwas n
Ġher self
Ġv ot
Ġcon clusion
Ġsucceed ed
ĠL eb
us hed
Ġr ational
force ment
ĠIslam ic
it ational
Ġvill ages
ĠJ unior
ag ues
ex port
ĠPol icy
Ġbusiness es
âĢĿ ,
Ġent itled
Ġgu est
inem a
is ely
ur ations
Ġadj acent
á »
uer to
st ances
ang el
Ġm ach
ĠB ah
ĠCol lection
Ġd ust
ĠGree ce
z i
Ġhor se
P AT
Ġoccup ied
ant om
Ġl icens
Ġpro jection
ic ut
Ġden oted
d em
es ian
ĠAdministr ation
Ã¼ r
um a
ĠAg ain
Ġext ent
Ġp un
Ġt rib
Ġexpl o
ĠB efore
Ġb undle
kl ahoma
Ġqual ified
fef efe
ĠC ape
Ġpol l
Ġgrad ient
ĠKent ucky
n umer
R oot
Ġaccur ate
ch annel
u its
g ar
Ġprem ier
: =
ĠB os
Ġpath s
ĠFr ont
Ġen able
S F
Ġprom ote
ĠCom put
ĠN O
Ġp apers
int eg
Ġqu adr
ĠSe ver
d on
Ġold est
$ :
and o
Ġs ought
ĠAl bert
us al
j oint
Ġex ponential
Ġb ought
Ev ents
Ġbrother s
ĠV ice
ĠJ ane
ĠN umber
Ġneut r
w hen
ous es
Ġrob ust
i em
Ġtrans mission
Ġir on
Ġex ceed
Ð° Ð
dom ain
Ġeffect ively
ĠSt ory
Se lected
Ġsum mar
form er
ym n
v o
c ert
Ġm el
ro g
Ġthous ands
En abled
M ember
ĠA L
ĠB alt
ĠAn y
p red
Ġman agers
ile y
l arge
Ġcontribut ed
big r
Ġc as
rel ations
Ġcred it
Ġperman ent
Ġrepresent ations
Ġse ed
On ly
the less
iz able
Ġar c
ĠC ost
Ġm ist
Trans port
Ġpred icted
Ġtra ject
ĠCE O
W rap
Ġt urb
ĠIn vest
Ġex ecution
Ġlow est
Ġr acing
not ation
Ġle mma
Ġcar bon
Ġcomb at
Ġ' /
aut o
Ġtemper atures
An y
ĠOff icer
ĠBuild ing
ĠAust ria
anc hes
at ar
ĠSim on
Ġinvestig ate
HT ML
Ġab stract
Ġweap ons
Ġrough ly
Ġint elligence
ĠC art
Ġ[ \
v ee
ĠM ond
ĠP ot
De ath
ĠN ap
Ġby te
Ġpre ced
L ife
Ġd iver
og ram
E uro
Ġw alls
ship s
Ġprofess ion
ĠO cean
Ġmay or
ĠV o
ĠLin coln
ound ed
Ġm ales
ĠFor ces
st an
ch ant
Ġsign ature
Ġcomput ational
ĠS aturday
ell ite
Ġinteg rated
he im
Ġdis crete
Field s
Ġprogram me
Ġcommand er
ot ional
Ġsix th
Ġconst ants
Ġrev olution
ass ets
Ġal ter
Ġkill ing
Ġcomput ation
_ ;
Ġformer ly
Ġm ent
Ġto wer
Ġabs ence
Ġillust r
' ))
Ġinterpret ation
ene z
h l
ĠĠĠĠĠĠĠĠĠĠĠĠĠĠĠĠ ĠĠĠĠĠĠĠĠ
Ġdec ade
Ġgener ic
pl ane
ĠT ony
g eneral
F ram
el ve
ĠT oday
rupt ion
Ġoptim ization
ĠJ os
Ġsufficient ly
ut ies
block List
Ġvol unte
ĠF ame
ĠMag azine
ĠL ank
Dis play
Ġexhib ition
script style
um in
er ial
Pro p
Writ er
Ġr ig
Ġ( ;
] }
or row
ĠSw itzerland
plic ity
) [
Ġs un
om er
Ġwin ter
inst all
Ġhead quarters
Ġsub group
Ġphot o
Ġdo or
pl ugins
om ent
ble m
ambig uation
br id
Ġj et
n ie
am ing
m aterial
Ġprom otion
key s
ĠT el
Ġl ists
ĠG re
end ment
ĠN ick
Ġby tes
Ġlaw yer
iffer ent
Ġapp lying
Ġinter act
ĠHT ML
ym f
á ĥ
Ġgreat est
it ative
Ġj son
ĠLab our
ĠS ky
Pl ay
in th
m ont
ual ity
B M
ĠOb ama
Ġso le
Ġj ump
Cl ick
qu est
ĠB ab
ow nt
annot ation
Ġchalleng es
st ood
ĠSt one
ĠAm ong
ĠInd eed
Ġwe ights
Ġcon sole
FF FF
Ġen abled
c raft
FA ULT
ĠF ac
Å «
=" /
M eta
Ġsett led
Ġpil ot
Ġident ical
C M
ĠK itt
ymf ony
P ool
ĠRec ord
N orth
od ox
Ġs oci
Ġst rip
ĠOb serv
Ġcover ing
Ġequ ilibrium
Ġtr ains
B as
Ġhot el
Ġs ale
EN D
Ġsatisf ying
sc reen
y g
Ġcontr ad
pl ot
Ġb os
w ich
ĠErr or
ĠCol omb
Ġhe ar
Ġd ire
Ġent ropy
ĠB an
az a
ĠA ge
ex ists
em ail
I con
Ġhom es
B el
Ġscen es
Con st
Ġs ons
Ġf olk
o a
ar iance
ĠD ue
Ġs ell
ĠSen ior
Ġbro ke
sequ ently
Ġproduc ing
Ġleg islation
ĠTurk ish
ĠB urn
v s
ĠB rian
E p
ĠS ound
c b
l ad
clos ed
ubl in
M ock
Ġatt ached
ic ular
Bo olean
Ġbig gest
e ach
ĠEm peror
c are
F inal
Ġequ ality
ĠJ ordan
ut s
Ġan imal
ĠInf antry
p adding
ĠComm unic
R ender
ĠQueens land
Ġrespons ibility
ĠDi ego
IT Y
! !
Ġf aced
ĠG ib
Pl ot
18 90
iam i
v ature
ĠH ans
00 5
virt ual
sq l
Con n
anc ell
Ġw ants
R ule
? :
ĠS ix
Austral ian
Ġlink ed
ĠW y
par ison
$ _{
Ġpain ter
Ġp ed
, {\
Î ±
Ġworld wide
Ġpers ons
long rightarrow
Ob j
^* $
ag u
ĠR oy
call back
d ict
Ġconv ex
com plete
Ġd ro
C ustom
190 5
plic ated
t or
param eters
Ġeval uate
Ġcollabor ation
Ġcr uc
M ost
ĠK y
ouri er
k ing
or iginal
ĠCh ile
AG E
ĠAl abama
Ġmusic ian
ĠAss oci
}\ ,\
d am
ou st
By te
rec ated
rad ius
in cess
AC T
ĠHow ard
ĠJ am
AC E
sec urity
Test s
Ġsomew hat
ĠM anchester
Ġunivers al
Ġ Ä
ĠIn n
Ġv ision
ymmet ry
: }
Ġ< =
ĠD ark
fri end
Ġth ank
Ġdr ums
Act ive
ub ble
be an
n one
Ġco aches
in ian
N C
Ġregard ed
Ġdepend ent
ĠT en
ĠReg ional
Ġcan onical
> \
D elete
ĠMar c
sp irit
ĠR est
ĠN ever
issip pi
Ġconclud ed
M any
ate ur
d frac
F S
Ġjo ining
N etwork
Ġflow s
Ġst ages
ĠDo ctor
our se
Ġdown load
ĠH op
H C
Ġpract ices
Ġc atalog
Ġcharacter istics
ra it
ĠGr ant
ĠS D
Ġex cess
Ġsequ ences
n etwork
Ġe ye
Ġkey s
Ġpass es
Ġben ch
ĠOn ce
ĠJ SON
ĠTok yo
A nother
A ng
Ġ( ,
Ġh op
190 9
ĠV ersion
Ġqu ark
Ġopport unities
ĠZ h
at z
Ġbre aking
Ġdirect ors
Ġheav ily
ĠE c
ĠWal ter
13 0
Ġres istance
Ġin fer
Ġ( ),
ly ph
Ġassert Equals
ĠC A
F M
b urn
Ġl ay
M atch
ĠD eb
Ġcent uries
Ġwe ather
Ġch arts
Ġdimens ional
ĠD ick
pro file
w ords
ag g
Ġprep ared
ĠA ND
ĠAll en
ul ating
Ġcos m
G N
Ġhistor ian
ist a
ĠMed icine
ĠP aram
ee per
190 7
ĠSquad ron
ĠR eb
Ġmanif old
ĠB eng
; <
I E
ĠO tt
Ġc ryst
con nection
ins ert
D ialog
ĠSo ft
ĠC ook
ĠNor wegian
ock er
J o
Ġhum ans
Ġlyr ics
el son
190 6
import ant
Ġsatisf ied
Ġ\ ]
att ribute
ĠEar l
ĠS u
ĠTele vision
pt ic
al ian
Ġcaus ing
;\ ;\
Ä ĥ
ĠE P
Ġf an
ak ed
ul se
ĠB ureau
ex ception
Ġen emy
Ġs and
In v
ar o
Ġm arg
Ġadapt ed
Ġvers us
cre en
Ġener gies
\ }$.
Ġret irement
ĠE ric
ĠP ope
Ġm sg
cond ition
ĠN ev
7 00
h ome
ĠN av
en ia
,\ \
ĠD ir
Ġrelationship s
Ġstat ements
Ġessential ly
Ġc old
ic ide
ĠA fghan
ĠPat rick
Ġd ens
Ġde ploy
Ġcol our
at iv
Ġlum inos
Ã© t
Ġcomm ut
Ġshort ly
ĠU ser
Ġaccount s
ĠB ra
ĠBill board
ĠB ush
Ġoff ices
Ġsit uated
ne ver
cm d
pos ing
j pg
t otal
}} )
Ġderiv ative
Ġcon form
on i
ap shot
Ġphot on
dis ambiguation
m n
vent ure
; /
Ġre new
ro le
ĠC are
Ġr aw
ĠRes ult
Ġun iverse
od a
Ġel im
Ġfr anch
Ġspe ak
Ġresear chers
Ġsp an
Ġfill ed
Ġfound ing
B it
ess ions
ĠS che
Ġatt orney
Ġre aching
ĠC ond
ĠCont rol
Ġch apter
ĠM and
im it
Ġf ought
Ġmaintain ed
Ġexecut ed
Ġv oted
a ired
ch or
ĠI mp
Ġver ify
ĠS quare
Ġinflu enced
Ġprote in
ĠN FL
Ġm ental
") ]
ĠG ram
Ġestablish ment
Ġch urches
ĠInst ead
Ġinst ances
Ġdeb ate
ĠN AS
arg ument
ang ers
ĠN OT
SE T
Ġattack ed
ĠMar ine
__ (
ig ious
ĠS n
Ġph one
ĠHe art
ĠD ream
Ġconcern ed
ĠO klahoma
al gebra
W idget
S cope
Ġb an
rop ic
mer ce
in ces
ĠC opy
$ &
c ing
m argin
ĠT ask
Sh ow
Ġfound ation
ĠFr iday
pro perties
Ġpre v
ĠTh ird
Ġstri ke
ĠSt art
ĠN ich
Ġliter ary
i ary
Î ¿
ĠG ab
Ġd ream
Ġsup posed
Ġch ose
OD O
ĠMark et
Ġd ates
e a
J ob
anc el
R est
Ã ¥
drop down
Tele vision
Ġenc ounter
Ġnecess arily
ĠD u
Ġbi as
ard o
ĠJ ava
ĠF a
ĠB u
G O
ill ed
ado op
ow ski
SS ERT
ĠS M
less sim
er ior
ens es
Ġautom atically
us cript
ort ion
oth s
ĠB or
Ġag ed
Ġh air
pr ise
B orn
Ġtem ple
Ġg lob
ik h
aw are
] $.
l ate
Ġin verse
ĠD un
ĠS C
iev al
ĠC op
Ġstr ings
Ġ( *
Ġenc oding
avel ength
ĠL u
r ig
Ġparticip ants
Ġmer ged
Ġoper ate
Ġdec isions
Ġneut ral
ĠSil ver
Ġcons ervation
h ab
k ov
end or
ist ence
ĠConnect icut
is en
spec ial
ĠCommon wealth
Ġthe rap
Ġjourn ey
ĠL ore
Ġreject ed
\ )
Ġstand ing
Ġd ict
i ota
Ġro of
et al
ĠU RL
Ġcontrol s
Ġw allet
put ation
Ġg ar
Ġpers pective
s a
Ġexperi enced
par a
ant asy
pl us
St orage
Ch anged
c ref
ĠHol lywood
Ġk il
}) }
Ġcommun ic
ĠS ign
Ġt ab
Ġimmedi ate
Ġdecom position
reg ular
t frac
}[ \
St ar
190 4
ĠM oon
CT ION
X T
Ġexper iences
F amily
ĠI mm
f ire
Ġdr um
Ġj azz
Ġf ear
over ty
lim it
Ġassum ptions
arri er
Ġs izes
ĠR ey
se lected
Ġwon der
Ch annel
ĠHou ston
Ġas sembly
ĠD omin
ĠSp acew
ta h
Ġcomplet ion
Ġeng aged
Ġw arm
od ge
Ġint ensity
Bl ack
or ro
Ġrel ax
}} _{\
V M
art icle
ĠMo ore
S em
ĠDef ense
Ġm es
Ġtop ic
Ġscient ists
ĠBul g
ĠW olf
pass word
w as
ug u
Ġv eter
om y
Ġk ick
el lect
l ook
ct rine
Ġaccom pl
ĠV ari
Ġinv ited
enn y
ĠSpacew atch
Ġgrad uate
bum s
TE D
ĠHarr is
are a
ĠStand ard
Ġg ene
ĠAn ne
uns igned
ĠP a
up l
ĠCh all
Ġestim ation
M c
R R
ĠJ ay
Ġg ate
Ġvict ims
Ġl ake
od ec
Ġl es
an im
Ph il
ĠH amp
Ġsing ers
ov es
ĠF unction
Ġacc used
str aint
ĠP uerto
oy d
ĠS ud
ers et
Ġprec isely
Ġf lex
par agraph
Ġe yes
ĠG all
el and
Ġrad ial
m al
av ia
Ġtr ivial
Ġdom inated
Ġcharacter ized
l at
/ (
P ackage
iv a
uz z
Ġcommission ed
ac on
Ġg uns
Trans action
ĠN ext
id al
ĠM att
Ġdis miss
Ġpurch ase
Ġquant ities
[ $
Com mon
ĠD at
Ġro ots
Ġrestr icted
ĠLem mon
Id ent
Ġparticip ate
ĠG ard
Ġpropos al
small skip
v als
br as
is d
r ank
sc ious
\\\\\\\\\\\\\\\\ \\\\\\\\\\\\\\\\
eng ine
Ġfl uid
math op
Ext ension
ann y
Ġneigh bour
L o
ential s
ĠAg ency
ĠDis ney
ĠD a
ĠN et
Ġsign als
Ġdi agonal
Ġoper a
Ġmembers hip
ĠBatt alion
="../../ ../
ĠG ordon
Ġh un
ĠQue bec
Ġair port
Ġpat ient
Ġpoet ry
ĠN ig
Acc ount
Ġpract ical
Ġref uge
c pp
ĠCO VID
IN S
ĠO ak
ĠS in
Ġst ored
P erm
z one
Ġanc est
Ġp od
ĠN E
ĠR ab
ol ished
Ġsent ence
Ġinh abit
it als
ĠHar vard
Ġsup por
ĠN aval
m ock
ĠĠĠĠĠĠĠĠĠĠĠĠĠĠĠĠ ĠĠĠĠĠĠ
ĠH as
co q
Ġcompet itions
eli hood
ĠArgent ina
P AR
t iny
l ay
Ġexpress ions
Ġinvolv es
Ġsurn ame
qu ant
ĠTem ple
O ct
if iers
Ġcomput ing
Ġent ertain
ĠA ud
Ġlook s
ĠHaw ai
un ately
] $,
@ "
sl ash
EC K
Ġinfr astructure
Ġcross ing
B P
Ġm ort
Ġstudy ing
n n
Ġincorpor ated
ĠPh ill
Ġgood s
Ġdis appe
. *
ĠPro duction
FI LE
ĠHon or
Ġsub sid
Ġw arn
Ġhypot hesis
ĠDoug las
ibr aries
EX T
ish ment
Ġcirc uit
E ducation
ĠAnth ony
) )\
[ -
ul us
br ace
ev al
all as
ĠHot el
ĠBr un
al yt
ĠP ath
}) =
he red
Ġv ideos
Ġw ire
Ġa ired
Ġdomin ant
ri k
Ġd ialog
ĠLiber al
ĠY outh
v art
ĠB uck
190 1
ĠN ik
ref ect
Ġsur g
Ġd b
' d
Ġch air
ĠSw iss
Ġconf idence
C r
Ġde put
ĠF inn
ol o
) }_
G raph
ĠF er
Ġrem ote
Ġthink ing
Ġag encies
ograph ical
] {\
Ġsp r
Ġd uration
w ill
res p
190 3
in line
un ing
iss on
atter y
ĠP as
ĠA M
Ġdatas ets
Ġv o
Ġext reme
port ing
ot te
Sc hed
ĠInd ex
Ġmult ip
ĠMiss issippi
th read
Ġcap able
Ġex it
Ġgrav ity
ab et
ĠMr s
Ġst ores
Ġsk y
Ġrequest s
Ġprom pt
Ġl ib
Ġquant ity
rep resent
Ġbut ton
ĠWh it
man ager
Gener ic
Ġpubl isher
Ġr uled
ĠDet roit
Ġder ive
item s
f ol
Ġpublic ations
Ġl it
In it
Ġd uty
D T
Ġdeliver ed
Ġp ione
ab ad
=" ">
Ġclass ic
os es
Ġsepar ation
ï ¼
}) ^
empty set
Ġcerem ony
ĠDe ath
play er
Ġconsist ed
Ġm art
ĠF M
g ame
ĠL INE
190 2
Ġphot ograph
Ġ$ ,
ĠD ur
hent ication
ĠApp endix
ĠFace book
ĠOr th
Ġt ennis
ib ilities
Ġpop ulations
d ated
Ġteacher s
ĠNC AA
Ind ian
Ġmet res
ĠCro at
Ġmov es
Con d
Ġassist ance
ĠF alse
w ho
Not able
Ġl aid
oun sel
Ġdemonstr ated
LO G
ĠC ulture
Ġclos er
er on
ĠI R
Ñ ı
Ġsports people
add r
che ll
ĠWindow s
Ġstop ped
TE ST
Ġus age
Ġcour ts
Ġunder stood
ĠLouis iana
L ock
tr ivial
c am
)) )
Ġmax im
Sec urity
Ġsec ure
ist ing
Ġsh ut
ĠS af
Ġproduc es
ĠT reat
al gorithm
Ġrepl acing
ĠP erson
over s
G R
Ġk id
G M
ĠAr g
ĠK am
ĠC emetery
ar on
ĠUn it
ab ric
arg o
gress ive
Ġdis establ
Ġtransl ated
Ġst ret
Ġjav ax
M ich
Ġclass ified
18 80
es ides
Ġfil ed
Ġappear ing
Ġl ayout
ĠD ak
Ġass ault
ĠG iven
ĠPortug uese
F ix
Que ue
Ġd iam
I ST
atur ally
Ġhapp ens
R ober
G iven
Ġmax imal
ĉĉĉ Ċ
ownt own
sc roll
Ġb ed
Ġleg end
x imate
Ġfr ag
Ġid x
Dav id
or ient
^{ *
Ġinj ured
ĠGu ide
H ome
Ġcont ribute
V ill
}} .
ĠHer itage
ĠE u
d p
ĠB ry
ĠTai wan
Ġdef ines
Ġw ish
ĠĠĠĠĠĠĠĠĠĠĠĠĠĠĠĠ ĠĠĠĠĠĠĠĠĠĠĠĠĠ
Pro of
the re
ast e
ĠK er
Ġ{ $
-> _
F ootball
l ayer
ON E
Ġhapp y
Ġkey board
hel p
Ġdisplay ed
Ġh tml
en z
Ġar med
Ġconcent ration
Ã ´
Ġdest r
child ren
ul ator
Ġf lo
Ġcl ar
Ġste el
ĠP rix
as ters
Ġexpl os
Ġd ense
ĠP ed
N G
MA X
Ġcom ic
Ġbring ing
Ġbu y
ibr ation
Ġw el
Ġnot ion
Ġincreasing ly
act s
L i
Ġdr ivers
Ġpred ictions
ir ation
Ġdr iven
est yle
ĠR ub
Ġexpl ore
KE Y
ud a
Ġne ither
ĠT errit
Ġmed icine
Ġt ack
p ay
Ġa str
AR Y
Ġf n
Ġsubject s
Ġcomp r
J ECT
Ġinter mediate
F R
Ġcertain ly
Ġimprov ement
ĠMat the
ĠArch itect
Ġne ural
ĠS el
Ġmom ents
pro b
Ġpaint ings
Ġint ent
Ġdiscover y
pro fit
Ġrestr ict
S end
[ :
L java
l arg
Ġpret ty
ili ar
ĠN ob
h ave
og ether
ram a
ten ance
over y
Ġdecre ase
ge bras
M ilitary
Ġmark ets
Ġmole cular
ac ht
Ġmod er
i eg
ĠDig ital
f ast
H R
S pace
Ġoption al
Ġin aug
ĠAl ber
Ġpl ate
M al
ĠAnton io
$ };
Ġcl er
a ire
ĠVill age
Ġcomp re
Ġh y
Time out
urr ican
Ġkeep ing
re lation
z z
Ġrespect ive
Ġform ally
av i
id ges
Ġown ers
Ġsecret ary
Ġaccomp an
ub er
Ġ" /
Ġabandon ed
w en
Ġg one
sche ma
edd ing
Ġsoc cer
F in
Ġsh ares
Ġh its
int ro
ĠWalk er
Ġbound aries
Ġphil osophy
Ġhelp ing
ri ed
Ġst ating
red uc
Desc riptor
ĠA le
Ġview ed
Cl ub
enez uel
Ġind ices
P e
Ġth in
X i
ĠK az
Ġbl og
Ġmat ters
S n
ĠL am
D M
ĠS E
Ġunivers ities
ĠF le
h ist
Ġab use
Ġrepl acement
Euro pe
Ġ rows
in burgh
aud i
Ġca ught
ic ing
op ter
ĠK o
N T
ev ents
f ather
Ġcustom ers
h adoop
m outh
ib l
- (
ĠM icrosoft
Ġtest ed
H P
O pt
Ġbelong s
G ame
Work s
h ow
ĠM iami
ĠIndones ia
Ġis omorphism
Ġ" "
Ġcur vature
ĠBelg ium
im ore
ĠL yn
Ġinstance of
inst ein
b p
och astic
ch anged
Ġh ierarch
Gr id
Ġwrit es
leg es
Ġtr ail
M iss
b ey
Ġaccom mod
Ġtop ological
H ence
Ġre ign
Ġmin ute
proto buf
Ġ} {
Ġappe al
cy cl
Prot ocol
ĠPl ayer
Ġregular ly
ele gate
Ġcr icket
he ta
Ġca ref
ĠD VD
ts burgh
1 15
ĠD al
ĠBrig ade
cond uct
ĠAb d
por ated
ĠIm age
Ġliqu id
ĠCh ampions
print f
Ġdis p
ab out
Ġconc er
Ġan th
Ġdemonstr ate
ĠL ink
Ġshoot ing
k w
Ġ( {\
=" @
Ġmagn et
ĠP ap
Ġred shift
Ġ io
iss ance
ĠDef ault
Ġorient ation
10 5
Ġcol ors
writ ten
ĠT ag
ol id
v ia
ĠDen mark
tx t
Ġm ob
is ations
T ABLE
Ġdeterm in
Fl ags
Ġbo at
Ġst ead
Ġr ival
Ġb rown
ĠE ag
ĠL anguage
Ġcorre ctions
Reg ister
ĠE arly
Ġvac uum
A uth
Ġsever e
ĠBrazil ian
}_{ -
Ġsam pling
Ġrapid ly
s quare
ĠA mazon
iss ue
Ġsust ain
ĠEx press
S pe
ĠÃ ĥ
Ġt all
ĠM L
}$ }
cont roller
ĠN ag
Cons ider
( !
Ġex pos
ĠAl an
Ġgu ide
Ġinv alid
GB T
ĠSoc orro
ĠL ib
Ġperiod s
) &
inc or
Ġinv asion
l on
or er
Ġentr ance
ĠK a
Ġgeneral ized
ĠB ox
Ġspe aking
Ġf ly
b its
Ġcomp ens
Ġdescrib ing
Ġd ry
level and
hen sive
Ed itor
ar ith
ed itor
ĠBang l
) --
ĠF all
ĠLINE AR
ĠF ood
d ers
ay an
G P
Ġw a
Ġdesign s
Ġpart ially
ĠA S
ird s
}} ^{\
Ġnon linear
ĠB ou
Ġcrow d
ug ar
Ġf ul
Ġenh ance
Ġcl ients
Ġins urance
Ġrequest ed
Ġconf irm
oc a
d ied
r ift
ĠH ug
P y
Ġoffer ing
ĠJ uan
ĠSt ew
Ġf aster
ip er
Ġground s
Ġh ired
IC E
Ã ł
m ove
in ch
Ġcrit eria
sum er
struct ure
Ġreason able
im pl
th rows
Ġcorre ction
A E
J SON
} ~
Ġs ud
ap olis
ĠâĢ ł
Ġap i
Ġim pr
Ġth anks
C am
ĠPl ace
irt ual
ĠD ublin
ac count
y cl
ig e
Ġbeaut iful
Ġlist en
Ġcol span
s ave
ass ador
Ġfr agment
ro c
lo pe
ĠHig gs
Ġin ject
Ġdire ctions
Ġ ).
ĠPortug al
Ġpercent age
F ull
is ition
ĠMay or
Ġeth nic
re nd
ather ine
Ġanaly z
Ġcour ses
Ġd x
ash i
St and
ĠC ow
U L
Ġschol ars
I mp
Ġis lands
Ġl ob
Ġte en
S ur
Ġproport ional
Ġgr ade
Ġloss es
r andom
Ġvari ations
p ubl
M us
Ġprinc iples
Ġcon version
Ð ´
! [
{ |
eg as
==== ==
Ġocc as
struct ed
g it
Ġhand ler
\ }\
med skip
ren a
Ġasympt otic
Ġpoint ed
Ġb low
Ġdynam ical
B egin
ĠKenn edy
Pl ugin
ĠH ills
n amed
ĠStud ios
s ample
Ġad min
ĠInd ependent
Ġb anks
re pre
Ġassum ing
n est
s ong
ĠC ensus
j query
ĠAdd itionally
Ġcompet e
Ġprov ision
ĠCh airman
R oman
ok ed
10 2
Ġn g
u able
Ġre in
Ġ\ (\
F loat
red it
o om
] :
ent er
Ġapplic able
M er
Ġpro hib
ĠIm perial
"> &
l ass
Ġcoll apse
189 8
ĠFreder ick
14 0
ĠBl ock
Ġcarry ing
F iles
Ġn a
st ats
ob serv
ĠK at
Ġbuild er
ĠOr chestra
ail and
ĠSc ient
Ġstre ets
ĠF A
ĠMe an
ed it
Ġ} }
Ġcomp ilation
Ġsp ac
ĠLaw rence
ĠUkr ainian
Ġhe aring
Ġcont roller
Ġanim ated
Ġann iversary
nt ax
Ġqu asi
Ġcou pled
? "
Ġsc ores
Ġhel ps
w ig
W R
r g
ct ic
ĠR ol
repre ne
It ems
Ġun us
pl er
que ue
Ġsubstant ial
ĠN atural
Dat abase
ĠD anish
ĠR yan
T erm
sing le
let ion
Ġembedd ing
ors es
Ġp up
ĠN am
pos itory
Ġrequire ment
Ġn ations
Ġloc omot
ĠDep uty
M ajor
Ġimplement s
Ġre ar
Ġdis order
Ġillust rated
red ited
ĠMc K
int end
Ġr ating
Ġcon crete
ĠC urrent
ĠL ear
ĠB us
l u
Ġtarget s
Ġm al
ĠM aur
Sh ort
1 12
_ ->
Ġcent ers
G lobal
ic he
Ġfac ilit
VER SION
final s
Ġl ift
ĠW ed
Ġcollection s
Ġhor izontal
ty ped
ĠV in
F unc
Ġman uscript
isl ature
Ġm ilit
Window s
Ġback ing
Ġhigh way
ĠLie utenant
ĠV ideo
Ġph ases
ĠLa ure
Ġsee ing
ST ATE
Ġsched ule
ĠOper ation
Ac adem
ĠC hen
Lem ma
ĠN ash
Ġsign s
Ġsens itive
BU G
Ġst adium
ĠSam uel
olv ing
ĠArk ansas
ĠE ver
pr imary
l g
ĠG irl
Ġadm itted
de cl
H ER
| }{
Ġland s
18 99
ĠHistor ical
Ġrecon struction
ĠEconom ic
S eg
Ġcontro vers
Ġemploy ment
Ġa cknowled
Ġch ampions
c ross
Ġres erve
ĠGe V
t k
Ġg ather
Char acter
ĠB ible
Ġfluct uations
ĠDe ad
th rough
neg ative
Ġcon vention
ari os
ov ing
Ġread s
s is
eg et
d ale
Ġcl ock
Ġtem porary
ĠP ut
ĠRes erve
type of
ĠA P
Ġbo ost
ke ep
e lection
config uration
Ġfle et
e ast
ĠPro t
Ġbr anches
ĠM S
Ġsim ilarly
ah n
Ġgrav itational
script size
ĠK evin
Log ger
bor ough
Re ception
Ġro utes
Ġindic ating
Ġtw elve
I B
ĠG arden
O C
ĠR ight
ĠP ur
Form er
Ġw at
Sing le
Ġfin ishing
Ġin clusion
Ġpenal ty
Ġcons ervative
ĠH ockey
com b
Ġluminos ity
Ġt ight
ĠD ave
ĠB uff
ĠMalays ia
Ġex port
am ents
Ġpro pose
R T
ĠL as
ol ly
ellect ual
Ġappro ximate
ĠK now
Con f
Ġind uct
bar a
Ġexplan ation
pl an
Ġk in
os itory
Ġcast le
P aul
() ));
Ġactress es
Ġgener ating
ĠP C
br idge
F E
vol ume
Ġhundred s
Ġassoci ate
Ġnav igation
ĠComm ander
re v
ac o
ĠLeg islative
Ġpass enger
Ġinv ent
Ġac id
ch ain
Ġtouch down
Ġwindow s
Ġarr ival
oc he
Ġmov ies
Ġat oms
Pr int
R ich
ish ops
Ġstrateg ies
sc opic
Ġroad s
Ġproper ly
) })
do or
to ol
ĠU r
cept ions
Ġj unior
ĠKel ly
Ġsimultane ously
az ines
ip ped
J ames
ĠĠĠĠĠĠĠĠĠĠĠĠĠĠĠĠĠĠĠĠĠĠĠĠĠĠĠĠĠĠĠĠ ĠĠĠĠĠĠĠĠĠĠĠ
ĠEd inburgh
Ġt ries
ĠPe ace
Ġcircum stances
ol ph
}} }\
Ġb oys
Ġd og
he astern
Ġagric ultural
Ġacc ord
ĠTr ade
ĠBow l
Ġv anish
ÃŃ n
Ġperm ission
= .
Ġp overty
Exp atriate
Ġres idence
Ġs elling
Ġf ired
j u
.. .,
ace ae
Ġsup ers
Ġ ip
Ġelect rons
ĠF ern
. __
M sg
Ġfl u
Ġconvent ional
Ġs leep
cul es
Ġres igned
Ġcruc ial
Ġadapt ation
contain s
n ik
T ube
qu ir
Ġf alls
A uthor
00 1
Sum mary
Ġdi agn
ç ļ
Ã «
p air
ix els
il st
18 70
En um
Ġinhabit ants
H ar
Ġt ropical
er ion
Ġs we
mon th
Ġdep ict
() {
re tt
o i
ii i
ĠÃ ī
Ġcorpor ate
Ġh am
Ġn ick
b matrix
um ps
ĠT s
Fe ature
assert Equals
Ex pr
Ġinstr uments
Ġpost ed
ĠR ound
Ġown ership
M arch
Ġmin ing
Ġconfig urations
ir ms
ĠH um
Ġsignific ance
com es
en ian
SI ZE
)) );
ĠS N
Ġfranch ise
+ (
ph an
ĠS I
n il
og onal
Ġil legal
Pro file
At tr
ul ner
bl ed
y ll
R oute
is ot
M ount
ĠĠĠĠĠĠĠĠĠĠĠĠĠĠĠĠ ĠĠĠĠĠĠĠĠĠĠ
! "
In ternal
Ġp and
T otal
ug s
ã Ģ
om as
Ġform ing
Ġan om
ĠT it
ĠH erm
ĠCap ital
Ġexp ed
Ġm ine
Ġf unc
ĠAll iance
Ġeven ing
Ġa wait
P ay
log ger
Ġjud ges
189 5
ĠCh amber
an ian
d in
! \
t ar
Ġs ter
Ġas sets
Ġc ited
1 17
P D
ĠB art
Load er
ĠPal ace
is ode
Ġw aters
D en
O wn
c ussion
ĠTw itter
ĠMc G
ĠMon te
man if
ĠS ite
ific ial
Ġde pos
ol as
11 1
Ġrecomm ended
Ġisol ated
ĠFin land
ĠP ear
com ponents
Ġmy th
Ä «
ĠBr uce
H istor
ĠP i
ĠAg ric
Ġpres ents
Ġ ,\
}} =
is p
Ġarch ae
189 7
Ġemer gency
m illion
ĠI ron
ĠD NA
ĠCont in
form ing
^* \
ip her
ĠT R
Ġanim ation
Ġmid field
ĠCommun ist
Ġconcer ning
Ġf ib
R elease
Ġsp ending
rang ian
Ġlook ed
ĠAtl anta
ĠD aily
function s
Ġp refix
Ġd ynasty
//////////////// ////////////////
Ġre nt
189 6
Ph ys
Ġpri ze
as et
ĠSe attle
ia h
ĠPro cess
ĠE mer
is er
Ġsing ing
Ġfeed back
Ġearli est
Ġeng ines
Se lector
() ).
ĠP M
ĠJud ge
Ġw avelength
v ect
gener ated
çļ Ħ
ĠEx p
Ġvot ers
sh al
ap l
F lor
ĠL anc
aw ay
ĠVol ume
A ugust
Ed it
vart heta
Ġdrug s
es is
tri angle
conn ected
M atrix
it udes
ourn ament
N ULL
J ust
Ġd iverse
;" |
F IG
li ed
U ID
Ġc ref
Sy mbol
Ġt ank
Ġequip ped
Ġrecord ings
st ates
18 60
Ġcolon ial
D ouble
ick ing
Not Null
ĠF arm
se a
uk i
P M
ĠTr aining
ĠW ard
Ġvar iance
ĠM ission
usal em
ĠB O
sh op
Ġperiod ic
Ġeval uated
Ġsur faces
Ġbir ds
Ġadv ice
Ġis ot
Ġclos ure
^{ (\
ordin ate
Ġf lying
ĠDe an
ĠRef orm
ĠAuthor ity
\ }$,
1 13
Ġcre ative
Ġ% }
ĠCon vention
Ġs aved
Ġproduc ers
ĠP eters
ook ie
Ġed ited
Ġsymbol s
By Id
Ġmarket ing
os ed
over ning
_ ,
em en
Build ings
Act ivity
ĠG on
X ML
Ð ²
in her
ĠT O
ĠArt icle
Ġperturb ation
Ġjur isd
ĠFri ed
ex pr
ĠAust in
C ategory
S QL
w ave
ĠSing h
Ġdefin itions
Ġvary ing
Ġgovern ments
E V
F ore
Ġt err
Ġge ometric
Ġhost s
ĠMor gan
ĠUp date
d ash
Ġfl ags
Ġpart ners
Ġmet rics
Ġre duces
ĠJ un
ate ver
form ed
ĠAtt orney
column width
Ġmet all
ĠR ot
Sup pose
][ ]{
v i
Ġt el
sl ant
og y
ĠSe ason
et ary
E st
Ġb tn
Ġst ood
Ġmanufact uring
& &\
ist ol
Off icial
Ġf ee
Ġaccompan ied
as m
D iv
In s
ĠSy ria
Ġim possible
S an
oun ced
Ġr aid
Ġseek ing
H om
Ġord inary
Ġstrict ly
Ġ Ø
Pro xy
ĠMond ay
b ach
sw itch
g i
s ys
Ġcomp atible
il k
Ġ[ ];
ir i
ĠAn na
Ġexhib it
Ġr u
ĠOrth odox
le an
ĠT erm
ĠH u
Ġpolar ization
ĠU tah
ĠAust rian
Ġs ed
ĠCo oper
Ġland scape
Direct ory
Ġpotential ly
Ġd ashed
Ġpubl ishing
Ġtr uck
ĠR ick
Ġde bt
ins ic
ĠO ption
ĠBe at
assert Equal
pt o
Ġstrong er
incor porated
Ġcan cel
$ }}
ator ial
L R
ĠB ull
Ġdest ination
Ġc odes
or ous
Ġdiscuss ions
math it
Ġre pro
NavBar Cell
or us
ĠSever al
Ġb ishop
ĠRuss ell
Ġsyn chron
e cho
s ome
Ġb inding
w ild
Cl ose
id ency
ĠAl ice
Song s
Aut o
f ail
sp in
t mp
ut f
1 14
Ġexcell ent
unn y
1 16
Ġman ip
erv ing
Ġt er
Ġb its
Rober t
Ġe lem
P rior
Ġoper ates
ĠC ustom
Ġv ast
Ġ-- -
az e
ĠTh ailand
ĠI ss
M ac
hor izontal
ĠRes ource
Ġc ub
to ols
Ġnormal ized
More over
ĠMont real
rupt ed
Ġprec ision
ver sy
Att ributes
Ġrecover y
Ġm o
Ġdraw ing
up load
W N
aint ies
Ġfrequ encies
ĠC ole
duc er
ĠRog er
Ġrac ial
Ġpri est
ĠC atal
Ġb reed
th a
m ag
Ġent ering
Ġcoll ision
Ad apter
it ely
Ġparticip ation
Ġtalk ing
Ġs ight
Col l
Ġgener ator
w t
D est
se m
Ġoccup ation
ĠF ull
ynam ics
Ġqu ot
ĠD ocument
her ical
ĠW right
P al
ĠC R
Ġcho ices
P ER
M ENT
Ġdesc end
Ġsud den
Ġvari ant
e o
Eng ine
ser ies
ast s
onym ous
Ġwor st
ĠR io
Ġ urg
Ġprof iles
ĠT ig
ĠN ode
ĠM ake
ĠMet ropolitan
} |\
Ġeigen values
ane ous
Å Ł
Ġr g
Ġres ign
me an
ĠH it
m ask
Ġvol umes
ĠCons ider
Ġdisc ipl
Ġcol le
us ers
Ġre vers
urs day
ĠAcc ess
ĠA T
i op
ĠAd ams
Iter ator
ĠAp ple
Ġn aturally
ĠP A
Ġon going
te ction
C ur
ĠSar ah
Ġclin ical
as a
cast ing
Ġconsider able
Ġexerc ise
sh adow
ov o
Ġabsor ption
Ġpass engers
ig inally
U D
clud e
B ook
ut ing
u on
ĠC S
Ġro oms
ob i
Ġd ip
ex ternal
Ġst yles
S am
Ġpra ised
, '
fl ags
Ġfem in
Ġsurv ived
ĠChe m
ĠHamp shire
fin ite
ĠP ay
Ġident ification
It alian
Ġmov ements
Ġdet ector
d ag
Ġprec ise
Stat ement
++ ;
ol y
ut r
Ī Ĵ
ĠYear s
L in
Ġannoun ce
oust ic
ĠK ings
R ussian
ĠOrgan ization
ĠM Ps
ĠF ather
ĠSen ator
~ (\
ĠMarg aret
Japan ese
ĠPubl ishing
ĠB etween
ick ets
ĠWel sh
Ġden ied
ĠT ar
ĠC P
Ġsevent h
ĠWork s
stack rel
m oment
Ġconj ug
Ġd ial
app ly
Ġen v
Ġlog ic
itar ian
ĠG ulf
ub le
189 3
ĠDemocr ats
un ique
ĠThom pson
Ġdeput y
Ġwait ing
im its
ĠW on
ĠAlf red
Ġreal ized
M apping
Ġsystem atic
olv es
ir cles
ĠU rb
Ġcritic ism
Ġs in
188 9
Ġsp here
ug osl
Ġen semble
S ER
inv ariant
ĠD allas
Ġs now
Ġappro val
ĠSim ilarly
Ġhead s
ine a
ut able
aps ed
ĠV enezuel
Ġdec ide
fig ures
Ġsche mes
h idden
Ġt ang
Ġin fl
Ñ Į
H am
ĠMar shall
Ġne arest
Ġequival ence
Ġl ose
######## ########
ĠLe ad
ph ase
Ġal coh
Ġr anges
10 3
nes day
ex pect
equ ations
Ġrest ored
amp s
Ġsat ellite
Ġres olve
Ġat omic
ĠTh ough
iter ator
par allel
J une
Ġstruct ural
ĠC rown
fort unately
h us
Ġp ub
ĠW oman
Ð ¼
ĠG il
D ay
ĠD ance
Ġv oting
Ġcr imes
Ġsk in
se par
ĠCom ics
Ï Ħ
=" "
Ġconstitu ency
tr igger
Ġelement ary
Mem ory
Ġb id
Ġd ies
ĠChrist opher
Ġdiam eter
ĠF uture
ĠB lo
al ia
Ġjournal ists
ĠN elson
Ġapp rec
ĠVi enna
Ġm it
ĠM es
ĠB oys
Ġel imin
Ġse es
ĠĠĠĠĠĠĠĠĠĠĠĠĠĠĠĠ ĠĠĠĠĠĠĠĠĠĠĠĠ
prot ected
Ġcontinu um
sect s
b d
Ġb rowser
j amin
br and
Ġalgebra ic
ĠC rit
h ill
Ġle af
Ġshe l
Ġreg ulations
r in
Ġque ue
ĠLank a
CO MP
tr ace
Ġpan els
Ġd uties
Ġthe ater
Ġacc um
Å ¾
back slash
Ġtransl ate
ĠAfghan istan
ort ed
Ġ( _
ĠHung ary
rom agnetic
Ġr uling
Ġsup pose
Ġrestr iction
M ath
Ġinvestig ated
d ig
Ġdesign er
ĠF ive
189 2
ant i
pre c
av ior
Ġste am
tikz picture
) ^\
as p
Ã³ w
S Y
ĠL ang
roll ing
cl ine
end a
ĠRoman ia
Ġmod ules
ĠPri or
Ġsp oke
" `
Ġsp end
IP T
O F
ĠT rib
ĠPro p
ĠIO Exception
Ġc raft
Sc ott
Ġretain ed
an Ã§
Ġsy nd
ĠG irls
ins ula
ces ter
iver pool
ĠCl inton
Const ants
ĠC leveland
om ing
Ġtop ics
U C
ĠH ash
Ġre verse
Ġpr on
Ġrestaur ant
b ai
Ġre venue
Ġnot ably
Ġdiv isions
ĠT H
ĠJer usalem
ĠKn ight
dep th
J uly
Ġdel ivery
ĠTam il
ĠN eg
r f
ĠPh ot
Ġdecl ine
Ġap plies
Ġval ley
et he
ĠCent ury
Ã© n
Ġremain der
ĠPit tsburgh
Ġathlet es
i ere
Ġeas ier
Ġman age
ST AT
Ġre ception
ĠM agn
ili ary
multi row
/ .
ĠOper a
s u
Ġ{ {
Ġf aces
Ġte ach
Det ails
ul um
ĠR ugby
B N
umb ent
b c
Ġcr ash
Ġamount s
Ġimpr ison
Ġg rown
Ġs ending
Ġtop ology
Ġp lease
Ġcre ates
ĠT ODO
ĠSh ah
m ate
Re al
Ġpay ment
ar us
ĠSchool s
ĠC er
Ġarr anged
nt il
ĠBrother s
ĠR ace
m ay
Ġ elli
Ġre tail
ev a
ograph ics
k ee
Ġprison ers
vious ly
____ ____
ĠStew art
Ġrun ner
Ġdistingu ished
ĠB ed
b ing
ert ainties
Ġfind ings
Ġturn ing
Ġre ward
t ed
U ES
ĠS ac
ĠD ub
dist ance
res et
ĠS hip
st age
Ġre ducing
as ma
å ı
189 4
ues day
Ġm ys
I MP
M r
ĠBangl adesh
Ġo k
ĠN ic
f ixed
Ġpublic ly
ĠDak ota
ĠRail road
re ement
c ounter
Ġelect ro
spec ific
UT F
Ġdeg ener
not ag
Ġgreat ly
Ġsh aring
ev ens
ĠF al
n ol
Ġcontinu ing
Ġpo inter
C ity
ĠM ong
J S
l ab
Ġfact s
U LE
189 1
Ġmar ine
ort on
ro ck
Mult i
Ġdam aged
at en
Ġwith draw
is ons
ill o
To String
Ġorgan isation
agnost ic
Ġ ri
ĠS mall
ĠDe ep
Ġstr uck
ĠCon fig
Ġg ang
Ġconnect ing
Ġparam et
ĠH ell
ĠC arn
\% $
Or gan
M F
ĠHung arian
Med al
ĠJoh ann
Vill ages
pat tern
Ġher itage
um my
sub sec
A pril
ĠCar ter
ĠA BC
ane an
ro se
ĠE ff
en able
grad uate
Ġplatform s
th an
ĠBalt imore
Ġpr ices
Ġd ir
ho en
F ree
ject ure
head ers
Ġreport ing
Ġh osp
&= &\
R ailway
Ġresident ial
ph antom
ĠM aine
ĠR ico
Pro duct
Key s
Ġcompet itive
P anel
ĠMov ement
e enth
st ory
sim ple
am an
Ġt ied
Ġp itch
Ġaff airs
Ġpopular ity
prot ocol
g ow
S uccess
ĠMari e
ĠL ith
ĠSystem s
Ġcon front
Ġsit uations
get Name
le ans
ĠK u
188 5
viron ments
: =\
Ġdis abled
Ġsub t
ĠP un
Î ¹
Ġpres erved
m el
b ow
Ġwith d
ĠE ss
Ġme ets
lement s
ming ham
Ġ ×
Ġchild hood
b oth
Ġinput s
Ġfail s
Ġactiv ist
op les
Ġanalyt ic
Ġtechn ologies
Ġcom plicated
Ġaccess ible
Ġf itting
Pl ayer
." );
im ir
ĠOtt oman
m aking
Ġ[ [
10 4
hand ler
B bb
B en
Ġk ids
@ {
Ġa f
Ġprov ider
k t
ign ment
id x
PAT H
Ġkn ock
v ideo
is or
Ġc rown
Ġhead ed
ĠF ROM
Ġp ars
Ġentertain ment
Ġ _{\
i at
th ree
Ġfr uit
ĠCon stant
Ġdiv or
Ġpremier ed
fe ature
ur able
ĠH orn
Ġspec ify
ĠMount ains
Ġmeet ings
Ġc yl
ymph ony
Ġindependent ly
ĠM C
Ġrank ing
Ġreli ef
M s
iz ers
J ava
ĠR ap
reduc ible
Ġcont ents
L en
Ġloc ality
ĠF ourier
Ġst ochastic
Ġwar ning
det ails
ĠN ation
Ġn ortheast
Pl ace
IN D
ĠInt eger
Ã ª
U SE
= >
L ayer
Gener ated
%% %%
F ail
Ġres erved
Ġc ards
INS ERT
B ur
D uration
ĠCopy right
Ġhol es
typed ef
il ty
m iral
Pro fess
E P
ativ istic
Ġrec ur
Ġrail road
ĠK on
Ġrecover ed
d u
Ġc ash
Ġf itted
claim ed
ĠCh ange
b one
Ġtransport ation
Ġas ync
ĠO bl
Ġover se
188 8
ĠPolit ical
ĠNew ton
f are
ĠO ri
Ġseg ments
pro ps
Ġprefer red
ĠD ie
Ġorb ital
Oct ober
ĠR y
b ishop
Jan uary
Ab stract
Ġvis itors
Ġwork er
id o
th row
ĠV ik
Ġatmosp here
Ġwhe el
T F
Ġfram es
p u
Run time
Ġl ens
Ġbeh alf
Ġvalid ation
erv oir
ĠL ower
Over view
ĠPat ri
ĠCamp bell
Element s
Ġp sy
lim inary
ĠCh ampion
ĠYou Tube
ver b
Ġel ig
ĠFrank lin
b us
ĠMor ris
\! \
Ġg iant
ĠSoft ware
Ġconsum er
Ġbe ar
Pro duction
S ymfony
refect ure
Ġrepresent atives
G a
d ensity
M ag
Ġex posed
hat tan
cor ollary
ĠSup pose
ab i
ĠG ray
ĠK l
b rief
Ġh ill
ĠP ad
n ia
it err
Ġfam iliar
Ġatt ributed
ĠRet rieved
Ġconsider ation
E ff
ial s
Ġdist ances
ĠCar ib
l ined
ĠK it
list ed
Ġp m
erm i
Ġneigh b
ĠBrook lyn
Ġstraight forward
A fr
ĠÂ §
Ġbelong ing
Ex ample
an ion
ĠMet ro
n an
own er
Ġpand emic
3 50
Ġcommunic ations
ol ut
ou ver
Ñ ĭ
Ġint ention
Ġp uls
K e
IV E
Ġ$\ {\
Ġpro xy
Ġiter ation
Po inter
al ph
Don ald
Ġcut s
O UT
ĠR ud
( -\
Ġtrans verse
Ġmet ers
Ġexpect ation
ut er
Ġreve als
Ġre q
apt ist
fol io
Ġdef ensive
Ġneutr ino
ĠL l
B rowser
ir ates
ĠR ic
Ġren ov
R ob
n m
Ġcollect ive
Ġb atch
Ġapparent ly
fil ename
ĠS R
part s
r uit
ĠMur ray
pl atform
Ġm outh
Ġsound track
Ġp ole
or o
Ġem pir
AN T
Ġprom ise
Ġadult s
ĠT ol
Ġpre gn
ĠAr n
fl at
ĠH end
igh ters
'] )
Ġmechan ical
y y
Al so
Polit ical
ley ball
ĠNig eria
Se ptember
Ġexpos ure
Ġgr ass
on ian
ĠJos Ã©
tab s
Ġcrick eters
ur ers
Ġoff ensive
Ã¨ re
elf are
Ġso il
build er
ĠP R
M OD
Vari able
Ġaddress es
Ġform ul
ĠAp pe
ĠLeb an
Å Ħ
j ob
Ge V
Vol ume
Ġappoint ment
Ġdef ining
Ġout come
Ġstrugg le
ĠNaz i
IT E
R ole
h al
Ġdou bt
oper ator
ss on
com plex
Ġadv oc
t ensor
Ġconcept s
ĠMem bers
mark s
m ates
ĠG raham
Ġb om
Ġ= ========
T ra
{ %
âĢ ¢
ig ate
ĠA rena
Ġre aches
Ġsub mitted
ĠOr leans
Ġp ref
ĠKar l
Ġ" ,
Ġf est
12 7
Sim ple
Ġprov incial
ĠRef er
Ab out
A rm
Ġapp end
ĠO d
Ġrestr ictions
Ġnewsp apers
br ane
w right
ĠA C
ter y
and al
Ġexpl ains
inn ers
ĠL ane
ĠR ural
Ġm ile
Ġro se
ĠPro perty
N OT
i ac
3 60
Ġcom ed
Ġdens ities
k ens
Ġcelebr ated
ĠN ep
Ġpresent ation
per iod
S N
Ġw ounded
Ġtype of
ĠC ass
Ġa w
um ed
Ġdep icted
| $
ĠS ource
Ġre putation
Ġcritic ized
g ather
Ġd iversity
Ġfac ing
Ġd ating
Ġ> >
h ai
Ġund ert
Ġseem ed
ra ig
ĠM other
ĠUp per
Ġround s
Ġt unnel
ĠS audi
Ġg ay
ĠU pon
Ġsm art
Ġmodel ing
ver age
Ġsol ving
=" ${
ĠRob inson
Ġfeel ing
Ge orge
le e
Ġtrans itions
Ġsign ing
S equ
| ^{
A re
urrican e
Ġcirc ular
Ġen forcement
ĠT an
Ġinst ant
Ġqu as
G reen
des ign
Ġsum m
ob a
ĠS earch
h fill
$\ ,
ann on
az y
Ġinvolv ement
et ition
b es
Ġsurg ery
Cl uster
Ġproced ures
ĠP rom
18 65
Ġa ux
F ailed
Ġacc ret
$. }
. \\
CH ECK
Ġart istic
zer bai
r ish
f x
Ġxml ns
Ġterm inal
Ġfocus es
p refix
Ġmem orial
ĠL android
work s
Ġsub mar
ĠOr iginal
w p
Ġinterpret ed
ĠĠ čĊ
Ġb ars
b rowser
L ater
Ġdr ag
M art
Ġ ĉ
Ġ{ '
aval ry
Ġfavor ite
Ġexp ensive
t ons
De cember
te am
ĠBern ard
ĠIN TO
Ġv ic
Î ½
ĠB orn
Sc roll
cy cle
by tes
ail ability
V P
Ġpass word
Ġign ore
ĠG R
Ġmain tenance
h ref
Ġmet adata
Ġspirit ual
Ġf old
her ic
Ġlimit ations
iv an
Ġd ress
coll apse
B ecause
Ġmechan isms
Ġcompar able
Ġweek end
B ound
Ġform ulation
ĠMic hel
ish ments
Rep ository
part icle
hib ition
AD D
S cale
ĠT ak
Ġderiv atives
ov iÄĩ
pan ic
Ġdistingu ish
ĠâĢ ¦
Ġ" -
t c
it i
ĠLim ited
ĠPr incess
LE CT
ter ior
Ġtrans parent
app oint
Ġin tern
et o
ĠG ill
V E
f am
ĠC os
C ho
Ġcount s
Ġunc ertainties
ĠW rest
ĠMot or
Ġ\ ,\
app y
id ad
Ġc od
ĠJ ason
Ġdom ains
Ġdecre ases
ip h
Ġpriv acy
ig o
Ġsuccess or
ĠMad rid
Ġven ues
v c
ch t
pl ings
Ġdes ire
Ġinj uries
Ġweek ly
M ill
Ġhy brid
ĠM aj
p read
Ġc reat
g ot
O B
requ ency
sp ir
os opher
d ialog
on ce
Ġtempor al
com put
Ġnorth west
Ġ" <
AL SE
\ |\
Ġill ness
Ġoper ational
ol ia
Res ources
Com ment
ĠWeb site
um ption
Ġhor ror
el ian
Ġconsequ ences
Ġsu icide
cl uster
Ġcompos ers
ĠStan ley
ĠA qu
Ġst abil
th ick
Ġstay ed
Ġknow s
g ood
Ġcompre hensive
ĠL iverpool
ĠCons ervative
Ġanal ys
ic ht
f our
Ġgener a
Ġg arden
iterr anean
Ġchalleng ing
Ġv eget
cent ral
Ġhom ogeneous
ul p
Ġthous and
Par se
ĠPr ivate
text up
Ġ ],
Ġpain ters
Ġg overning
Ġsens itivity
Ġvis iting
m ill
ĠWar ren
Ø ±
f ish
O ld
i est
em pl
Ġfor th
188 7
ĠAss istant
$ ^{
Ġgen re
l ights
Ġp ipeline
W in
Col lections
Ġtrad ing
^* (
ĠEv ans
Ġad vers
met adata
Ġimp ress
b etween
Ġliber al
Ġr is
ĠY ang
ĠSup port
Ġdis contin
if ting
ĠOn line
ij ing
Des ign
Ġpaint ed
Nov ember
RE AD
ĠGl as
Th rough
Ġembedd ed
s at
) (\
n odes
ri el
et on
ĠC ultural
Ġdocument ation
d c
Ġn aval
m und
Ġs ympt
9 00
$ /
ĠâĢ ¢
Ġne uro
Ġexc ited
Ġr ivers
-------- ----
ĠP os
ult an
lement ation
Ġf ault
Ġs lope
C ert
et ing
Ġuniform ly
Ġent ang
Ù Ħ
sc ar
ĠB aker
us p
Ġprior ity
stand ard
10 7
á º
$ ^
h our
pro pto
18 61
Ġv ulner
Ġcould n
VAL UE
og ue
TI ME
Ġb ases
ĠCh art
Ġpo em
Ġat om
at hered
Ġst im
Ġsub section
Ġconstruct or
) }.
Ġstrateg ic
ops is
Ġc ous
Ġpres c
ac cept
ĠN i
Ġcompet ing
ed a
) >
Reg ion
Mich ael
Ġb on
Ġnorm ally
Ġvict im
> :
ĠB eck
Gener ator
ĠB ey
os c
Ġp ixel
ĠV ector
cor respond
Ġass ass
Ġf urn
Ġvess els
Ġthem es
\ /
ĠF reedom
Reg istry
d one
ĠMatthe w
N odes
err ors
ĠColon el
ok a
Ġreg iment
Ġful fill
it ime
var rho
att ributes
et ry
ĠW here
ge on
ok ing
Ġcount ies
oth y
ĠM ack
Ġint ellectual
ĠY e
Ġquadr atic
ĠE dd
Ġsuff ering
iv ia
Ġcom fort
Ġwill ing
Ġdanger ous
Ġdiagram s
ĠSt age
av ailable
Ġinflu ential
Ġscen arios
Ġdoll ars
o j
em or
ĠS port
ch arge
ĠE lementary
Ġw ides
ĠJim my
Ġd t
ĠAd vis
down arrow
18 64
ex ecute
hold ers
Ġt ables
, .
188 6
ĠL P
18 50
ĠS S
s un
Ġpe er
}{ *
Ġread ers
Ġdestr uction
ĠDef ence
Ġcred ited
ĠJ u
ar an
web pack
ĠR ain
Ġactiv ists
at ivity
pre v
Ġcou ples
ou ter
fl ag
! ]
C ard
s ig
Ġun iqu
Ġs ail
Ġc ro
Ġst uff
ĠL ock
n l
ĠS P
ĠBroad way
Ġf asc
Ġcoast al
cle an
w he
ĠM ars
ens ively
iss ues
Go ogle
Rem ove
mult line
Ġdebut ed
St ud
Ġnom ination
ĠSp irit
count ry
10 6
{ (\
er os
Ġdev iation
Ġmanif est
ab a
qu al
ab e
vert ed
p in
t ags
W here
') );
Ġelect oral
Ġadvert ising
L anguage
Ġelim inated
ĠTr ack
* )
t re
Ġweight ed
h ide
Ġh al
ĠO S
ĠA the
Ġas c
ĠZ e
Ġsound s
Ġ? >
_ (
Ġarg ue
g iven
key word
Ġlaw yers
ĠN ord
ĠL GBT
id en
)} (\
n ed
_{ +
yn chron
anc ouver
Ġpres erve
Ġprep are
ĠT ob
ĠInd ians
}) ^{
Ġadd ressed
Ġg rows
ĠThe ater
Ġpolynomial s
ĠChrist ians
Ġst ro
Ġinter pol
Ġenjoy ed
periment al
Ġsize of
Ġj unction
Europe an
Ġperson ality
trans ition
RE Q
ĠM essage
Ġunus ual
Ġpass ion
Ġaim ed
Ġm or
Ġm acro
Ġn an
} </
Ġvac c
ĠP O
rim ination
back s
res pect
Ġthreat ened
E very
ik ip
Ġgen etic
On ce
og a
Ġpass age
Ġhand ling
ĠT ower
inem at
ĠD M
È Ļ
Cl oud
nav List
Ġdifficult y
$ '
S ocket
ĠB ud
ĠNorm an
Ġrad ical
Ġdaugh ters
Sup er
Ġferm ion
ĠPort land
b oy
Ġbr ings
ĠBir mingham
Ġsurround ed
H D
it ations
Ġbeliev es
ĠGu y
h arm
Ġmed ieval
d ark
Î µ
" /
op al
f iction
) ">
ĠO k
Ġsh arp
ĠCat hedral
ĠL uther
agnost ics
Ġh a
Ġfund ed
Child ren
se q
Ġin ternet
res ize
Ġex ecute
Ġrom antic
Ġep och
ĠMan hattan
Ġexist ed
Ġconsum ption
Ġmer ger
Ġaff ord
Ġb old
Ġtri als
Ġreson ance
Ġg ift
188 4
m aven
ĠCarl os
ĠN ad
Ġcor relations
Ġphot ographer
ĠB illy
sh a
ac re
ext ension
y cle
Ġslow ly
10 8
f c
Ġent reprene
est one
ĠSal v
ĠT ournament
t own
T ags
ĠCarib bean
m ir
ĠVAL UES
j unit
ĠA st
Ġcorrect ly
Ġm oral
li er
onom ous
Ġc tx
Pro gram
. $$
Ġmark s
Ġa ims
ĠC ore
} >
Ġmiss ed
ham mad
Ġwe ar
sh aped
x is
k ern
em ale
Ġking dom
ĠK um
Ġphenomen on
ĠWh y
. ),
W eek
or f
iem ann
Ġsol ved
Ġdiff usion
Ġdeal ing
ĠWed nesday
iz z
S ync
Ġwhe never
ĠSerb ia
Ġh alo
det ail
ĠV I
ĠEx pl
$- $
ĠTh ose
Ġhe ter
if le
} /\
Sup port
S al
Ġs outheast
Ġprint ed
Tr ace
Ġd owntown
ĠP ictures
ĠN ature
Ġdecl ined
se p
ĠH ero
Ġfrequ ent
Ġ$ ^{
Ġmen u
Ġelse where
B AR
ab ul
ĠG ets
ĠU V
En vironment
Ġphot os
l oss
const ant
S ervices
es ome
ĠAl aska
ĠBl ues
B al
ĠMan ager
ĉ čĊ
Ġextract ed
ĠM i
u art
ident ifier
Ġign ored
Ġhabit at
m aker
re ck
ling ton
ĠTro phy
ĠF ight
ĠBo olean
Ġres idual
ud son
Ġres olved
Ġsepar ately
F N
Ġsp oken
Ġrece iver
hoen ix
sh ared
ĠTh ursday
Pass word
test ing
Ġrg ba
Ġt ort
ĠB achelor
u ity
ĠPark er
Ġsouth west
Des pite
18 63
qu ote
Ġcol leges
ff ff
text sf
Ġuns uccess
f d
ĠMit chell
Ġrob ot
Ġclos ing
ĠRe act
Ġj Query
ĠEgypt ian
Ġh at
Ġupd ates
ĠMuslim s
ĠSh ar
Ġmathemat ical
Ġf iber
ĠL iving
win ning
ĠR and
h alf
Ġgrad ually
Ġprov en
ĠAthlet ic
Ġstar red
ĠConf eder
Ġdisp ersion
c z
Ġrele ases
ĠIn v
Ġf its
ĠK an
ĠEd ition
ĠG ary
Ġconv icted
. :
ĠH ad
eff ect
ĠT ree
ul atory
Ġlif etime
Ġlong est
Ġcorrespond ence
ĠBar bara
L ook
bound s
Ġsw it
Ġorth ogonal
st ud
A li
Ġt ie
Ġleg acy
Ġcustom er
Ġel der
Ġab road
ĠAng l
Ġp ian
col lection
ĠLag rangian
spring framework
Ġd ated
Ġind igenous
writ ers
ul u
re z
nd ef
ĠCommunic ations
r imin
ĠJ azz
ĠIran ian
Ġrece ives
ĠB asketball
Ġcon gress
vert ex
if def
ĠP sych
Ġbusiness man
ĠHawai i
ĠE mb
ĠJ osh
Ġm eta
ĠPro test
Ġim plicit
ĠElect ric
J ew
ĠL ud
j et
Ġsuppor ters
Ġexper ts
Ġcopy right
Ġref lection
Ġf at
Ġland ing
Ġtal ent
Ġhor izon
Ġp ictures
ĠObl ast
T x
Ġe g
ĠUn iverse
Ġmay be
ĠGr ad
Ġdise ases
ĠWay ne
ĠPr adesh
foot notes
Ġr ising
ater al
Ġfair ly
ĠCar lo
Ġpost s
ĠU E
Ġload ed
ĠS ax
Ġo cean
AR N
Ġassess ment
ĠL eft
Ġfinal s
duc ational
ĠChall enge
Ġcontrovers ial
ĠChar lie
ebr aska
uk a
Ġfall ing
en berg
ap os
Ġbr ick
re ens
Ġhard ware
ĠK ath
Ġneut ron
ĠBen jamin
Rec ip
ĠJ e
ro v
Ġpick ed
ĠYork shire
188 1
ikip edia
Ġun like
Ġj s
= [
n p
Ġwides pread
ĠPl ant
em ed
Ġpro spect
Ġconven ient
D an
clus ively
Ġminor ity
Ġen vironments
Ġsup plied
prov ider
; }
Ġtext s
Ġcontro versy
ĠFI FA
ĠY ugosl
us ername
Ġmag azines
S W
Se lection
Ġimprov ements
Ġencour aged
ĠH old
hol m
Ġw ine
hip s
DE BUG
Ġqual ifying
Ġsmall est
T own
ĠK os
ĠP RO
Ġ= ======
IT ION
Ġs essions
Ġs oul
Ġcommit ment
ow s
re le
ina e
ĠW ang
Ġlog ger
t b
g ov
10 9
ĠEd itor
oped ia
pl ier
Wh ite
M ass
ri eve
Ġprotest s
Ġtr uly
Ġimp ly
Ġmount ains
int o
Ġrel ating
ug ment
ĠSt ein
Ġemer ged
it ure
ĠM ess
Ġsuper ior
ĠNA ME
ce ive
Ġsusp ended
Ġput ting
Ġguitar ist
Ġc up
ĠStud io
18 62
Ġw orship
Ġco operation
Ġdefe ating
ĠL ook
ĠNov a
an alysis
he ll
Ġmiss ions
W ar
Ġcon fer
st e
ĠCl oud
ĠN BA
spe ed
Ðµ Ð½
Ġlicens ed
ĠAthlet ics
xy gen
Fram ework
c ient
)-- (
ue z
Pr ivate
ter ed
Ġemploy ee
ink ing
Ġl aser
im ated
ser ial
ĠPh D
Ġb ot
ĠS A
33 33
Ġdev oted
ĠW ing
li x
g ments
Ġarrang ement
uc es
b ian
Ġinstrument al
wrap per
b est
Ġmon ument
' _{
all classes
enc er
J ack
C rit
ĠCon n
ĠPr im
Ġf ishing
ĠJon athan
Ġs ym
A ir
Ġbr ig
ĠSt ars
ĠT uesday
Ġnarr ative
v y
Ġmer ge
Ġ\ [
pro xy
k ar
ĠDel hi
Ġsk ip
ol utions
ak ia
we ek
æ ľ
Ġviol in
be h
clos ure
init ely
er as
ed u
C red
p ull
ĠF ine
Ġtown ship
an ne
Ġf ictional
H en
ĠW ind
ocr atic
Ġanaly ze
ĠJ enn
ĠCommission er
ĠS H
Ġang les
Ġdef ence
Ġinv olve
Ġgu ilty
Ġacqu isition
Ġinit iative
m f
Ġvol t
S chool
Ġcond ens
ĠM ak
Ġtransform ations
Trans form
y ou
Ġir reducible
h ot
188 2
Ġforest s
Ġask ing
ĠBr anch
ĠT ax
Ġphot ons
Ġ ur
Ġmod ify
& =\
cast le
Ġphot ography
ik o
pol y
Wrap per
log in
ĠJ S
Ġviol ation
Ġcommand s
footnotes ize
Ã© r
she ll
UR I
Ġch amber
Ð¾Ð ²
Ġb aby
Ident ifier
Ġent ities
}^{ +
Ġtransform ed
Ġto ler
Ġflow ers
Ġterrit ories
N amespace
b n
Ġc ircles
ĠA ld
ut ation
o es
Ġresc ue
nol imits
ĠFin ancial
L iter
au er
Ġal ert
I X
Ġbe ach
à ¥
end ers
ĠB it
uc lear
f eed
Ġres et
Ġprepar ation
">< !--
Ġsub space
ĠSer ge
Ġagric ulture
cel and
x s
col Last
Ġann ually
over e
Ġo x
ok er
Ġsc r
h um
? >
Ġfew er
ĠI ce
Ġval uable
ĠSong s
Ġcl ip
Ġprov isions
ĠE ston
ĠM D
Ġmach ines
ĠM ust
Dem ographics
L ike
p ub
Ġd il
ĠU g
S pr
ĠStud y
ĠV erm
aj ax
ĠJohn ny
Ġem otional
ĠG un
ĠF el
Ġm m
ĠColl ins
n c
Ġarr ive
qu er
bin om
ĠA y
S cal
ass y
M a
pl ates
ĠPro tection
ĠI E
ĠEx change
ĠBelg ian
ĠMunic ipality
ess ed
tem p
Ġcoal ition
ĠAnd y
Ġrequ iring
Ġaver aged
ĠColomb ia
Ñģ ÑĤ
it is
sequ ence
A gent
C RE
ĠProfess ional
t body
Ġg ram
Ġbas eline
at omic
L ou
m ount
ĠI an
Ġlik elihood
| _
Ġt ur
âĢ ĺ
pro gress
ĠT ab
Ġref lected
al ymp
D epend
grad ed
Ġattract ed
Ġmorph ism
Ġlog arith
Ġrat ios
Ġag es
ĠS r
ĠBar ry
up arrow
ac er
. ;
group s
ĉ ĠĠĠĠĠ
Ġfin ance
Ġparliament ary
Al umni
Ġconstitution al
ĠD J
fr ag
Ġf ake
ke ley
Ġdesc ript
13 5
Ġw ider
Ġorb its
Ġour s
ind ependent
Ġmys elf
st ers
bour g
N ative
let t
TE XT
Ġrec re
requ ired
Ġcomp aring
Ġext ensions
Ġr hy
ro d
Ġcancell ed
Ġr anging
Ġgu id
the me
C G
Sp anish
Ġestablish ing
Ġim posed
Ġpart ly
Im port
Ġsimilar ity
D IS
en abled
ĠS W
187 8
Ġremov al
Ġguarant ee
script scriptstyle
Ġth irty
ĠNev ada
Ġaccret ion
ĠH ilbert
Ġtrans actions
Ġind uction
ĉĉĉĉ ĉĉĉĉĉ
ĠFin ance
Ġvess el
st orage
ak u
Ġsim plicity
Ġinher ited
Ġwh ilst
Ġmarg inal
ĠAcc ount
Ġpl ugin
Ġcent ered
Ġren ormal
Ġtri angle
Ġinf lation
Ġcl ick
am az
Ġpar agraph
ĠM ans
ĠD ouble
cept or
Ġalcoh ol
Ġc oc
Vis ible
Û Į
ts d
ĠV egas
ĠMil an
ĠGlas gow
z ant
" ],
em b
Le ague
Ã ¦
col First
ĠM eg
ĠSt orm
ĠS ett
os ph
Ġinter vals
ĠHe b
( __
Ġgener ators
our t
Ġcl im
ĠT un
ĠL ad
188 3
Ġassign ment
ĠF err
Ġb are
ĠP refecture
Ġspect ro
P ers
Ġpeak ed
Ġrank s
Ġinter ference
ĠZ one
^+ $
Ĥ ¬
ĠCub a
Ġf oss
F P
l ibrary
Ġch iral
Ġd war
ĠI T
Ġsent enced
ĠAlber ta
Ġw orse
her s
ĠH ope
ey er
Hel p
Ġb ath
Th omas
L and
ĠD est
F ind
ĠG ra
Ġtri ple
lik ely
sw arm
P refix
. <
cel ona
m atic
ĠMin or
sup ported
Ġ[ "
ĠB ron
Dom ain
ex pl
ĠCirc uit
Ġar ise
Ġrespons es
(' #
Ġout standing
LO CK
m oz
Ġun ity
Ġkind s
il ine
Ġregard less
th rift
Bas ic
Ġt ip
lect ic
Ġtrans mit
Ġperform s
Ġleg islative
Ġelect rical
om on
187 6
ust ed
Str uct
Ġg rey
ĠA zerbai
B ased
1 18
p arser
ĠHun ter
Ġpl ain
ĠHind u
Ġ å
d k
}. }
Ĩ Ĵ
Ġre semb
h ook
ĠD O
ĠRich mond
ĠS eg
ĠP ack
Ġth rown
ĠFac ulty
Ġoccasion ally
esc ope
ĠBe ijing
Ġpred omin
Ġsurv ive
min ute
Ġswim ming
A lex
Ġmunicipal ities
Ġsh adow
Ġb at
Ġco ins
Ġhistor ians
ĠF alls
ĠP il
Ġhead ers
ĠCr ime
Ġp atch
det erm
] ^
ĠUrb an
Ï ģ
re pe
Ġtraject ory
ry ption
f act
d ays
G old
p icker
Ġfilm ed
Ġev ident
ĠPier re
ĠPer u
ĠC her
as hes
Ġinteg ers
Ġwh atever
ot ton
ĠSoc cer
? âĢĿ
wild fly
Ġcheck ed
En ter
Ġconv olution
new s
Ġsurpr ising
un ion
act ical
ĠFinn ish
Ġviol ent
side bar
Ġdecre asing
ĠTig ers
Ġp ixels
view s
et ta
p aper
Ġmin i
Ġp arser
A z
H ol
per ature
av an
ĠN icol
Ġelectric ity
Ġstead y
ĠCor ollary
L ight
ĠRel ations
u ates
Ġtem p
Ġrecip ient
=\ {
ĠIndust ry
comm unic
Ġpseud o
F ebruary
ĠGu inea
el astic
18 75
Ġut ility
B D
Ġrele g
iff s
le in
ĠB urg
ĠS QL
Con ver
Ð° Ð½
Ġexpand ing
L ower
Pro ps
Ġequ ally
born e
T om
Ġ ~\
ĠS even
Ġh ip
b g
ĠCh apter
C apt
Ġjurisd iction
Ġt elling
18 67
ĠAlex and
Ġl oyal
ear ing
B er
ĠH ttp
}^ +
chi at
Ġpeak s
E ast
Ġst em
Ġfra ud
ide an
Ġminister s
Big l
Ġsold ier
ĠAnd re
ĠCr icket
ow ed
Ġportray ed
Ġhydro gen
Ġneg lig
D elegate
cont rib
ov ich
St ation
12 4
Ġthere by
ĠU I
Ġl ang
Ġrandom ly
ĠP ant
R ound
Ġun con
ĠF itz
ĠAn alysis
tr im
Ġfriend ly
Ġphotograph s
âĢ¦ .
ĠBl ood
bel ow
ĠNever theless
ĠK ur
ĠIs a
d n
d irection
Ġpo ems
ĠOr ange
Ġg allery
aster y
ĠResult s
Ġd rew
ĠSte el
æ ĸ
char acter
ĠCh ron
Ġbi ological
oid s
ĠRequ est
ĠTurn er
Ġrecogn ize
IG HT
Ġabund ance
Ġre ly
Ġh orses
ĠM ind
ard ed
ĠCh air
Ġorgan isations
) ->
Ġpo ets
Ġex clusive
< !
ĠF ro
Pro gress
F LA
v et
Ġc inema
Ġc ounsel
Ġact ed
al is
oc aml
ar as
> ::
st ad
e lected
ĠFl ore
oun ters
ĠEx ample
T ur
eb ox
ĠRes ources
Ġcou plings
Ġsim ulated
ĠTe ch
ĠPol y
Ġreve al
ĠBe h
equ ate
text color
Ï ĥ
k an
Ġdeploy ed
Ġd ub
Ġbatt les
Ġclaim ing
Ġw ww
ĠS aints
Ġunit ary
Big g
display Name
( @
M oths
ĠV ancouver
Ob serv
Ġop acity
Ġdepart ure
S ql
bl og
Ġend emic
de ep
*} [
ME TH
P od
Ġj ury
187 1
Ġnot ing
St op
Ġpl asma
ang les
() </
Ġamong st
Ġn urs
Ġcomp iled
sec ution
Th ree
Ġmer ely
ĠPy thon
Rad io
ar ity
Ġtrack ing
ant ed
bo ost
ĠJ ama
Ġco oper
Ġob lig
comp iler
Ġinform ed
Ġan chor
Se ason
Ġenh anced
Ġor chestra
N a
ĠF am
Ġequ als
Ġlab our
ĠS id
in valid
S ep
Ġkin etic
Ġfore ach
vis ible
ĠW atch
ĠMed iterranean
Ġtax es
ĠU SS
ow ell
Ġb orders
Ġr ub
Ġimm igrants
ho le
Ġcor ruption
Ġpurs ue
c ou
() ))
Con stant
Ġtalk s
N or
18 00
ic ious
Ġdemocr acy
Ġconform al
Ġal gebras
serv ices
index Of
Ġsurv iving
S il
iv ic
ĠV as
187 9
ĠPer formance
olut ely
ix on
Ġpet ition
(' .
em on
Ġgrad uating
Ġinc idents
Ġt x
or ia
writ ing
Ġimprov ing
Ġwas te
ĠComput er
ĠRober ts
Ex ecut
ĠPr int
Ġch rom
Ġt mp
Ġsup plies
Ġu i
ĠWith out
vari able
Ġorder ing
TR UE
P ORT
ĠMu hammad
ĠTra il
ĠLO G
ĠH D
Ġb ind
Ġexped ition
Ġco ff
Big r
ĠN BC
Ġwood en
Ġfocus ing
Ġreli able
Ġcom ics
ce il
ĠChristian ity
Ġphil osopher
ĠC BS
aj a
ĠH ub
Ġc um
ĠB ased
Ġadd s
R AN
ph oton
ĠWrest ling
Ġbeg un
Ġhon our
ed ed
uch y
ym e
Al bums
ip art
Ġwalk ing
us k
ĠC NN
Ġac oustic
H ub
18 68
ĠR ange
Ġart ificial
( --
Ġleg it
, ...,
t f
h aus
Ġare n
Ġt on
Ġres ort
Ġb ott
ĠIn s
g overnor
ur u
}{ {\
ĠShe l
Ġearth qu
ex tern
Ġcosm ological
Ġch a
uc c
ĠN ebraska
Ġdem ands
ĠI van
ĠDer by
Ġout break
le ading
Ġas semb
Ġre act
te enth
ĠKir k
as sembly
Ġmon arch
cl idean
Ġ' <
Ġfarm ers
ĠAp ache
Dist ribution
M o
_{ -\
comp are
und efined
Ġman aging
Ġaware ness
Ġmed als
ĠSh a
le f
ĠMar vel
ĠPr imary
ĠHarr ison
Ġpack et
p b
Ġh ide
ĠI L
P red
f ar
ĠB omb
Ġto w
ĠĠĠĠĠĠĠĠĠĠĠĠĠĠĠĠ Ċ
l ater
Ġpl ots
ul o
ir th
A rea
is o
l iter
Ġrep air
ĠQu est
ĠClass ic
Ġin g
Ġinit i
own ed
Ġconvers ation
re str
d ing
ĠSerb ian
ĠG reater
Ġe ase
ch ing
ĠV lad
ĠBr and
omorph isms
Ġmonitor ing
Ġdeterm ines
Pro position
Ġdifficult ies
Ġex clusively
S ever
al ities
Ġlabel ed
Ġt um
ister s
ĠQ CD
ĠE li
l b
Ġpriv ile
Ġcontribut ing
EL D
ĠTreat y
Person nel
ĠInt elligence
Ġs ke
ĠVictor ian
l ag
Ġsp herical
ĠÃ ł
Ġbreak s
enn ial
maz ing
;\ ;
Ġbeaut y
Ġl oved
res ources
Ù Ĩ
ast rop
F low
EE EE
Ġ\ }
2 20
ier ra
}$ \
Ġspe aker
Ġrest oration
um ing
P ubl
\, {\
ĠSpe ed
ac ef
i ors
Ġsus pect
P an
ĠGr an
Ġsil ent
Ġdis put
ĠB enn
Ġreal istic
sh arp
Ġre plic
oun ce
ĠE ug
in cre
ĠP S
ĠWar ner
ĠT u
Ġimm igration
om p
Ġreg istration
Ġsympt oms
dr iver
ag ent
Ġvalid ate
Ġcomm une
Ġautom atic
Ġcond itional
Ġrespond ed
Vert ex
B oth
ach i
Ã Ł
as ync
Ġmathemat ics
ĠMov ie
Ġcompl iance
Ġsubstit ute
ĠM all
ĠD ictionary
object s
) _{\
qu et
ĠAd miral
ĠEq s
Ġan not
Ġpred ecess
Ġcred its
op ts
tr ight
ĠCharl otte
ĠL uis
Ġb ary
j ango
ĠNich olas
Ġre ven
ĠPar ish
Ġim plied
Ġindust ries
i u
ent e
at om
187 7
D ig
Ġe ighth
ID TH
ch anges
Ġtr unc
ĠM O
\ }.
ĠC ov
Ġthe at
Ġse ar
\ },
Ġnom inations
Ġmix ture
24 0
) }$.
iz ard
check box
ĠG ot
Ġsh orter
r v
Ġaggreg ate
ort ex
ĠAnd roid
Ġph on
IN FO
L ive
ĠAl bum
d ynamic
Ġap artment
ĠB aptist
build ing
Ġven ue
ĠMat hemat
ĠB ond
STR ING
Ġal ive
Ġweap on
Ġs itting
ER S
Ġne ur
Ġobtain ing
P UT
Ġdis ag
L INE
ĠF ermi
ð Ł
ot ions
ĠDef inition
ĠEnvironment al
******************************** ********************************
ĠC SS
pro gram
Ġ( [
dis c
b ie
ster dam
D b
ĠH em
K S
ush ing
ĠHT TP
ber ry
Ġdeb ug
ĠD og
Ġw et
Ġg olf
ĠBer g
Char les
Ġs oph
je ctions
osp el
ath on
Ġtherap y
Ġscient ist
ï »
Ġco q
Ġcomp lement
m issions
187 2
ĠArray List
ĠComm ons
Ġcho osing
Ġintro ducing
u in
ä »
ĠJer ry
Fl ag
Ġchampionship s
Ġres id
ĠS z
ac les
Ġstation ary
ĠR angers
Ġele ven
W allet
\| _
Ġpro secut
nt z
ĠS ep
Ġtime out
ĠR acing
Ġcond em
Ġdeterm ination
Ġload ing
ĠB orough
ĠGh ana
N P
ĠP ic
Ġph rase
Ñ ĩ
Ġspl itting
Ġalign ment
L D
Ġposs ession
B ro
Ġunder ground
Ã¶ r
METH OD
Ġcon figure
Ġcomm emor
Pres ident
Ġas ks
j or
ĠÐ ¿
ch arg
Ġcab inet
clip se
Ġart ifact
Ġperm itted
inc inn
ĠW as
EN SE
Ġtravel ed
sv g
Ġart illery
Ġnull ptr
Ġexam ine
] =
arch ive
Ġam ateur
Ġcool ing
... </
Ġmole cules
ĠFle et
M aster
j k
Ġchar set
Ġrow span
ĠP hoenix
Ġturb ul
rel ative
ï» ¿
Ġrep orter
us form
ĠW or
ĠF ind
AR D
ĠUnivers al
Ġdou bles
Ġg od
numer usform
B ad
Ġempir ical
Method s
Medal ists
ap ing
ĠC old
ĠCE LL
cal cul
ĠSh ang
( .
Ġrec ruit
tright arrow
Q U
ĠT ake
Ġproject ed
sur face
Ġwe aring
Ġdis cret
ur se
Ġadm its
vent ures
Ġb io
ĠR oll
ast ro
Ġreg ression
Ġremov ing
ry ing
St ats
Ġreported ly
Ġcous in
I gn
Ġread only
Ġcas ual
H tml
bl ank
Ġw av
187 4
Ġk it
Ġarchitect ural
ĠThe ory
s am
Ġwatch ing
Post ed
Ġpro be
Ġsche ma
Ġm igr
all oc
187 3
a uc
Ġatt ending
Ġc md
ion ed
Ġ' '
Sk ip
U ri
ĠAl gorithm
get s
t ures
17 0
Ġshift ed
M ask
Ġtot ally
LE TE
ic it
Ġt ies
Ġ{ $\
Ġbir d
ĠV el
ĠĠĠĠĠĠĠĠĠĠĠĠĠĠĠĠ ĠĠĠĠĠĠĠĠĠĠĠĠĠĠ
Ġpro ps
Ġinstruction s
Ġdevelop ments
ĠGi ants
ig s
ĠM ason
Ġm ail
Ġqu eries
ĠLiter ature
alax y
HT TP
Ġintr insic
P resent
V I
Un ivers
ĠA I
Ġr ide
ep he
ĠPro duct
Ġlast ed
Ġphys ician
Ġev olved
Ġdon ated
el ines
ĠRoman ian
. (\
ĠIn put
ĠS ymphony
Ġext ensively
ĠBar celona
ĠArt ist
Ġext ending
ĠSt evens
Inst all
ĠR AF
phys ical
ĠE instein
incinn ati
An imation
r h
ro ute
Ġfe as
Sh ape
B T
amp a
AN CE
get Value
Ġcal endar
Ġdispl ays
at ibility
ag ar
B F
Further more
ĠArt illery
oc ent
Ġaccord ance
Ġsequ el
ĠArab ia
im m
ĠPro file
ĠAl tern
p olicy
up per
DE FAULT
P Y
Ġant icip
O h
Ġst ake
ĠF ab
Ġdes ert
Ġg ard
Ġyoung est
Ġ\ {\
anc k
Ġrest ore
ĠG ate
Ġis omorphic
Ġdis pute
N amed
ĠSt ill
ĠWith in
con struct
sub ject
ĠR ing
18 66
ĠS ide
is b
ĠP ast
B Y
Ġev il
Ġmer chant
ar ial
ĠA SSERT
ag i
ĠMean while
ab ove
Str ategy
Ġsl ave
Ġinterview s
Ġcarri es
ĠB arr
Hon ours
ĠB our
Ġf er
ĠI F
Ġclos est
as is
CT YPE
uck land
Ġcoll isions
f actor
Ġop ponents
sc ribe
Ġp or
cd n
ĠUn like
Ġn p
Ġa ugment
ĠU C
ĠC raig
B ind
Ġoverl ap
Ġm igration
ĠW rite
A mer
il ia
ĠS now
uff icient
g un
{ .
il iation
ĠN ar
ĠJ a
sl ice
Ġvir us
ĠTr inity
Ù ħ
ell ion
val ued
Ġmut ual
iss a
Ġdisc rimination
Ġc able
ĠM yst
ĠArab ic
Ġul tr
R a
ĠB og
as ant
ĠTre as
Ġr id
ĠI celand
Ġdist urb
| _{\
Ġfun ctor
ĠO N
$ \\
Ġmir ror
ĠP ont
we ak
Fr agment
ĠLear ning
Ġelig ible
load ed
B ean
EEEE FF
Ġjourn als
Ġparticip ating
or igin
ĠVal id
ĠEn cycl
me asure
om es
OR Y
Flor a
ĠCons erv
d al
ĠL iga
am o
Ġge odes
ĠBeng al
(' /
ĠD ays
ut o
set up
ĠM aced
Ġco herent
ĠTerrit ory
Ġvar ies
Ġencour age
ĠAnt ar
Ġrepe at
f olk
Stand ard
big cup
ĠAnd r
ĠT E
Date Time
Ġdepend encies
Ġprote ins
z ip
W ait
ĠM achine
ĠF isher
Ġcon scious
at io
Ġoccas ions
ache l
L aw
ounc ill
Ġt ens
Ġeigen value
Ġqu ad
ĠPo isson
Ġprom oting
18 40
Spec ial
Ġcross ed
Ġinit iated
Ġsurv iv
P G
ĠĠĠĠĠĠĠĠĠĠĠĠĠĠĠĠĠĠĠĠĠĠĠĠĠĠĠĠĠĠĠĠ Ġ
Ġop ens
Ġdec ays
Ġcarri er
å ®
Ġl ibraries
: [
Ġan ime
Ġm anga
Ġg all
K ing
os hi
uss ia
ĠRes ponse
. -
Ġafter wards
h n
Ġfil ters
\, ,
Tax a
ID S
Ġs alt
is an
ĠCo al
oph one
T or
ĠCan al
Ġexpl oration
Ġall oc
Ġdialog ue
ĠFl ight
pre p
Ġdeterm ining
Ġb attery
In formation
check ed
Ġf antasy
PO ST
ĠW es
ĠOl iver
ĠVenezuel a
; )
c ov
rub y
is i
ĠW a
Ġm ac
te chn
Text ure
ne e
str aints
s b
S en
ĠCl are
tern oon
14 4
opt ional
ro b
ĠStud ents
p us
Ġpost erior
D er
t p
i ology
Ġg rap
md c
ig rated
ĠN iger
Ġmill ions
ĠPalest inian
ĠEconom ics
D ictionary
ĠH MS
Re port
cre ated
al og
ĠBr istol
Ġ[ ],
Ġpe oples
py thon
ĠL A
ĠCost a
ĠS ay
est on
olog ically
m usic
Ġrare ly
ĠPr iv
ĠArch ives
ĠOper ations
cl one
Ġs ax
bas ic
if ndef
Ġprof it
imens ion
S ave
ĠSpr ings
Ġ\ :
Requ ired
E mail
Ġinstall ation
Ġn ice
am pton
G overnment
he rence
g om
ĠV ic
ĠMas ters
is ch
Ġra ising
time out
f p
cons istent
hem atic
Ġp ushed
ist ani
Ġsac r
s per
ĠL en
Ġl ap
"" "
P ower
l ia
Ġpl otted
bound ed
/ {
EE E
V C
Ġpro position
che ster
ĠBer keley
ĠNAS A
Ġco ord
Ġun stable
Ġsettlement s
Academ ic
Ġlist ener
= $
p aren
Ġfl ed
oth ic
: `
Ġgeneral ization
Ġchar ity
Return s
B ul
iv id
Ġdist inction
Ġpropag ation
ĠB und
Ġview ers
Ġhon ors
ĠAnn ual
ĠVin cent
Ġinflu ences
it ro
? ?
ĠR u
ĠC ob
for ced
B usiness
ĠB A
Ser ies
Ġp ump
ĠH ur
Afr ican
ĠCon struction
ĠSt atus
En umer
ĠTechn ical
Ġm ouse
Ġtrans c
b olic
ĠStud ent
G ER
k n
Us ers
ich i
Ġshe et
Is rael
" ].
Ġs ql
Ġl ingu
ta wa
part y
Ġconsist ency
F uture
ĠE sp
ĠJ oy
Ġreg ulation
ĠBuff alo
Ġleg s
Ġcontrad iction
18 69
ancell or
Ġsh ore
ĠV iol
US ER
DO CTYPE
qu arter
comm ons
NavBar Font
Ġco aching
Ġamplit udes
ĠG round
Ġo xygen
Ġv align
Rich ard
Ġcap abilities
SC R
ĠG arc
Ġcampaign s
ĠTh or
Ġex ponent
new line
ĠF if
ĠS ad
av is
p ine
L at
leq slant
ĠM oz
Ġcivil ian
id i
C ritical
ĠS pect
met ic
Ġtrib es
ĠJeff erson
over view
quir y
in us
Ã¡ s
ĠI da
Ġcomb ining
Ġg ross
Ġcontract s
Ġharm onic
ĠN eed
ri en
ĠS ex
Ġch ains
hel m
def n
ĠMor oc
ĠDir ac
Ġpure ly
res olve
d ashed
mark et
ĠT ib
ĠCh and
che str
C amp
exp ression
Q ual
exp and
ĠEth iop
ĠEqu ation
Ġelev ation
Ġenc oded
VAL ID
ĠE ND
an alyt
Ġt ends
Ġen ables
h is
S ample
ĠCl ay
print ln
cur sor
c ity
ĠH orse
}} ,\
Ġfe els
Ġen um
E ven
bre v
N ET
e ctions
ĠRo om
Ġvan ishes
R oyal
et r
ĠC row
Ġprem iere
RE G
ĠRepublic ans
ig ion
Ġp ulse
d z
re ction
ĠN an
ĠK ap
lyph icon
l m
_{ [
\ [\
ick en
}) =\
ĠMun ich
m ix
Ġ{ "
ĠS F
Ġvis its
Ġbo ats
Head ers
å ħ
V A
Ġm oth
ĠS ah
ĠC F
ribut ions
qu is
Disc ography
12 1
C ross
lect ric
h op
ĠS or
it ual
on ies
Sequ ence
D ue
Ġmeas uring
ela ide
Ġanalyt ical
Ġcon e
% "
ĠIndust rial
Ġcrit erion
Ġdep ression
Ġmod ification
ash a
ĠPhys ics
Ġcl othing
ir k
ĠDen ver
H M
ĠF OR
Ġpat ent
Ġvolt age
Ġstat ue
Ġcons iders
Ġin ference
ĠHol land
Ġmount ed
4 50
Ġinter vention
Ġt ribe
Ġw inds
g ray
ĠSt ore
ĠLl oyd
Com parison
rad io
in x
Ġmag ic
Ġvari ants
Ġsquad ron
l ive
Ã© d
ĠMont ana
e or
ĠAN Y
Ġd elta
A udio
b uilt
Ġf is
Ġpar ad
~~~~ ~~~~
cite alt
Ġbur st
'] ['
ĠT ogether
Ġcolle agues
Ġout comes
ĠB ot
Ġpat rol
L imit
Ġc ogn
s ync
ar ance
Ġm ess
Ġmaintain ing
Ġincor rect
M ake
Ġan isot
P air
Ġaltern ate
}\ ;
Ġste ep
G allery
C N
x html
Recip ients
^* _
Ġserious ly
ol en
re lease
P eter
E val
ĠSt ream
Id s
method s
ĠF u
Ġbl ind
Ġnom ine
i w
Ġdef ending
en os
Valid ation
Ġm os
Ġtarget ed
w atch
ĠT on
}[ !
cess ion
Ġeng age
h ad
ĠP el
ĠR ank
Ġim perial
ĠRepresent ative
Ġlie utenant
Ġfest ivals
ose x
ĠG ay
Ġeconom ics
ĠL oad
Ġfl ash
Ġmechan ics
d ual
G l
pro duction
Ġwrest ling
c rit
Ġcomment ed
M IN
Ġsurpr ise
} <
Ġgener ations
uck er
Ġinher it
F ac
ol ition
IC ENSE
T y
ĠLe ader
Fr ank
Ġre actions
Ġcy cles
Ġcitiz en
ĠM ix
ul ative
ad ic
Ġnormal ization
INT ER
ĠSt re
un iform
Ġlength s
ĠAp plication
Ġscholar ship
ent o
iv odes
N U
Ġcomplet ing
Ġsynt hetic
Ġb arrier
Ġgu ess
ĠĠĠĠ ĠĊ
ĠK il
ĠL ions
Ġt icket
ĠS yn
atern al
m ac
vert ical
Ġnegot iations
00 2
ĠFor um
Ġsc roll
S u
Ġmoder ate
Ġsub div
ĠP ra
Ġattempt ing
ist ically
Con nect
) }$,
Ġneighbor ing
ĠMunic ipal
Ġproport ion
L android
F act
ĠJ ess
Ġsuggest ing
ĠO wn
I AL
Ġtrad itions
Ġexpl ored
ĠH udson
Te am
ĠAnt i
ĠP le
C ref
Wh y
Ġdiss ip
Ġf ighter
ĠL ost
con sole
Jew ish
ĠBy zant
Ġremark able
Ġlocomot ives
Ġf abric
Ġbroadcast ing
Ġten ure
sub equations
ĠGon z
m other
SS L
ĠInt eg
at che
Ġ" [
Ġph arm
ĠIn it
z b
dist ribution
Ġs av
Ġ' \
Inter val
Ġdo ors
Rep ublic
ĠK un
ĠSocial ist
get Element
ack ed
ĠB ass
F OR
ĠD B
act ivity
Ġchem istry
ĠKe ith
MOD ULE
Ġdismiss ed
Ġim aging
ĠH amb
Ġh ist
ur as
ĠO il
Ġwould n
M ont
ĠAm sterdam
greg ation
arri ors
Ġinnov ation
AS H
Ġcomp ound
ĠL arry
sh are
ival ent
ĠUE FA
Event Listener
ĠC atherine
Ġorig ins
Ġmuseum s
B eh
m akers
test s
ĠCont emporary
' ];
Ġhand led
Ġtyp ed
Ġse ctors
f actory
Ġmon ot
ĠHer bert
Ġanalog ous
ĠT erry
ĠO pt
c ule
Ġcon clusions
ir s
ĠH ann
Ġinn ings
b atch
Rec all
Ġd s
ĠKen ya
ov sky
Ġc rypt
Ġw edding
Ġp arks
Ġ\ |\
run time
Ġport rait
Ġper cussion
Ġdelay ed
m ouse
ĠR iemann
18 48
Ġemphas is
Ġw ings
Ġcomb ine
ĠW ord
ĠGuard ian
M AP
DE F
ĠB rew
ĠG rey
ĠSh aw
ç Ķ
ĠD raft
pro blem
Ġmain stream
Ġinvest ors
ĠRog ers
Ġengine ers
D ATA
ĠCar r
akes pe
Ġlabor atory
{ "
Ġqual ify
Ġtrans it
Con straint
ins ky
Comp iler
ut ter
ĠL ion
ĠMad ison
Ġneighb ors
Ġm ic
Ġg ray
ĠP lease
Ġguid ance
Ġemer ging
ĠH ob
ĠDr ive
ĠS elf
Ġhel ic
ĠY u
Argument Exception
The me
Ġ ^{\
c ott
ĠY am
pos itions
Ġg ro
Ġpos it
ĠO cc
ac a
ia o
Ġdis appoint
' $.
pert urb
Ġqu iet
w arning
ĠL ate
B H
Object s
Ġmat ched
Def unct
ingu ished
ĠSt even
}) )
Ġassert That
ent i
Ġtyp ename
it ol
Ġdram atic
ivodes hip
18 59
inher it
Ġspons ored
Ġinsp iration
ä º
Ġdem olished
ĠSy rian
Ġaff ine
ĠB E
ĠCl in
ĠY ank
ub a
B razil
v skip
Ġmart ial
ens itive
Ġadmin ister
ull ivan
ĠDemocr at
Ġg host
Ġorgan ised
Ġrun time
aud io
in ery
Ġoutput s
. ",
Ġdis aster
Ġcert ificate
Ch inese
Ġb anned
idel ines
Ġdeep ly
ric ulum
. ).
ĠG lob
ij i
Un known
We ight
IO Exception
Ġrepeated ly
Ġsec ured
M or
Ġall iance
J ac
ĠN AV
27 0
Ġclust ering
ĠHeb rew
str ument
Ġpull ed
ĠB ath
Ġsl ot
au kee
Ġprob abilities
am er
Ġun cle
Ġreal ize
ĠAm endment
G ood
ĠM ach
OR TED
= -\
ĠDel aware
) ",
ĠM ann
ĠJ oint
th y
Ġ@ "
Ġstat s
a que
ĠGr ace
w alk
End point
ĠCamp aign
ĠF ix
el ia
ĠB ird
Ġrefer ring
m iddle
w ang
R PC
Ġhealth care
ĠS ultan
Ġdisestabl ished
Ġob st
Ġris ks
ĠHis panic
Ġconver ges
] +
Ġr um
Ġhierarch y
Ġs ensor
S ir
ĠG P
Ġob server
Ġess ay
ĠL uke
N V
ov an
the ory
ĠM ol
Com plete
18 57
hel per
C ulture
Ġsynt hes
Ġind irect
N ormal
Ġ" $
Ġpre liminary
ĠHer z
Ġjud gment
MO DE
Scott ish
SE LECT
anch or
Ġdisc rimin
Ġman ual
p f
A thlet
Ġde emed
s ocket
se lection
i ya
ĠB uch
Ġend point
ex cept
arg uments
ĠAb stract
ĠAb u
ex it
ĠFri ends
Ġex ports
Ġt ags
19 2
ĠForm ula
i ot
ul ates
b undle
b ast
ro oms
Ġgener ates
Ġbr idges
iv ities
Ġestim ator
Ġsurv ival
B etween
ce iver
ĠPr ice
ic z
w d
Ġ ];
Ġexclud ed
Ġ ib
S creen
ĠEd wards
i ref
Ġanalyz ed
ĠL is
sc hed
Ġdo ctors
Ġpre st
Ġf usion
$ --
ĠVo ivodeship
load er
Ġtr im
Ġbig ger
ĠPhilipp ine
Ġcol ony
re port
Ġexhib its
Ġpay load
T w
he res
ĠA ug
ĠJ en
ĠY et
Ġaux iliary
Ġsp arse
ars on
ĠChe l
h yper
ĠA uckland
Ġbu f
at ri
ĠB reak
Ġrec ru
Profess ional
ark ed
ĠMag ic
ĠG T
sol id
. âĢĻ
ĉ ĠĠĠĠĠĠĠ
ĠRob in
S i
Ad min
cc c
IN ST
Ġex ha
ĠStan ford
Ġfl av
Ġcryst al
H ung
e per
mer ge
Ġprov es
Ġt orn
akespe are
ens en
Ã ½
mem ory
Ġintegr als
U V
ĠAthe ns
Ġlog ging
ĠPers ian
ĠC ad
end um
ĠAut o
ĠScient ific
ĠI C
dat abase
ĠMc L
Ġphys ically
K n
m un
Ġrel ay
ĠDi ocese
ĠSI ZE
Ed ge
Ġinf antry
Ġprot otype
Ġaffili ated
Ġm as
Ġfor cing
ĠGerm ans
Ġstream s
ĠM icro
ĠDat abase
| =
Ġgr ants
Ġarrang ements
M el
Ġgu ests
ic ates
ĠC urt
/ _
Ġplan ets
ĠH unt
âĢĻ ,
ĠD esc
U ST
Ġover s
Sw ed
he ro
ĠM end
Ġeng agement
R aw
f lex
ĠO scar
stit u
Ġ\ "
ab olic
ong o
out ing
Ġgrand father
lear ning
ĠM E
Ġrhy thm
Ġconsist ently
iv o
ann i
ĠL ux
ph al
iss et
Ġbelief s
ĠT ang
ord inary
ĠOver all
Ġaccomp any
olt ip
ĠD iamond
M ove
Oper ator
th lete
Ġtw in
Ġperturb ations
Sched ule
ĠMur phy
T ex
n ative
d uration
Ex ecution
ĠBroad casting
om atic
Ġel abor
in ate
E conom
ĠSe lect
ĠDr agon
ĠPer ry
it r
Ġd y
Ġb es
Christ ian
s heet
ĠA GN
Ġc ul
Ġn eck
Ġcont ested
T oday
s ym
Ġm d
ab c
Ġev ac
Ġent hus
Ġcut ting
Ġoverse as
Ġf mt
Ġcons ent
Ġvent ure
Ġiter ations
r and
ĠE le
Ġcancell ation
ft en
Ġf irms
min a
Ġsk i
Ġsole ly
J ose
c ost
w aukee
G rad
b ecause
ĠR ou
ĠCr uz
Ġc argo
ov en
}{ }
Ġup coming
F ocus
ĠC G
iz a
Null able
abl ing
Ġp ose
Ġpubl ish
Mus ical
not in
Ġprofession als
) *
Ġover view
Ġdu o
Ġprim itive
z es
me as
He alth
Ġver b
Ġobvious ly
Ġent ers
az i
Ä ĩ
' ',
ĠCon sequently
b u
ĠSus an
Ġspecial ized
Ġde als
let ter
ĠPolit ics
Ġall Classes
ĠW IT
C lear
Ġcur sor
Ġlist ening
ĠBudd hist
ĠAct or
ĠWon der
Ġth orough
Ġcub ic
S V
Ġres ervoir
2 13
Ins ert
Ġmurder ed
Ġpers u
ev ille
ĠallClasses Link
å Ī
Ġp in
ĠMer c
ĉ ĠĠ
Ġquot ient
v ance
ĠMark ov
Ġl os
bl ing
et ric
it ud
ĠT alk
Ġbi ography
Ġproject ive
7 50
ĠAl ger
Ġprov inces
en o
ĠA str
M ust
; ">
ĠN ear
Ġ rib
Ġmanufact urer
H F
F ar
Ġhosp itals
Ġpl astic
Ġconcert s
15 00
Ġshop ping
ey n
ĠÃ Ĺ
F ORM
ĠC ox
ĠCons ervation
is y
od o
18 30
Ġhealth y
Ġo ct
Ġt ension
Ġspe akers
ĠPen insula
e u
ard ing
Ġsp okes
Ä Ł
12 2
ĠBe aut
Ġtreat y
Input Stream
I ss
ĠAb bey
ĠL L
Ġillust rate
ĠS ets
Ġcomb inations
Ġcard inal
ĠP od
dest roy
Ġd ictionary
ĠRefer ence
ĠLeg end
w ind
H A
ĠR aw
Ġem issions
In f
Ġcos mic
Ġear ning
)} _{\
Ġhon est
ĠD escription
Ġde ck
ĠVerm ont
ĠL com
ĠFil ip
h skip
add le
Ġcl imb
2 10
R ate
ĠL ess
5 000
ĠWat son
ĠG as
Ġspac etime
ĠSh adow
F our
left arrow
um ann
ĠB right
Ġreview ed
ĠSaf ety
Ġsk ill
Ġveloc ities
å ¤
ĠP DF
ett i
Ġl ad
Ph one
ĠS Ã£o
Ġdepart ments
Ġhol iday
h all
gom ery
Ġgu y
M ale
c atch
Ġinfin ity
ĠCroat ia
ĠF is
ĠL oc
Ġaut hent
int eger
ĠV ar
Ġvari ed
17 5
Ġen umer
s pl
Ġ} {\
ra h
B ooks
ĠArm enian
Ġp ip
vel ope
Ġmin istry
om o
ĠAd elaide
ĠCon c
sk a
an imation
ph abet
ĠAb raham
Âł Âł
. (
op ing
Ġs ick
C V
und erset
ĠC u
ĠInd ependence
y c
ĠI gn
ap is
leg iate
ĠT as
ĠDe ut
Ġg athered
down load
u ador
ĠAl ong
Ġdec ides
Ġm esh
NS String
ĠArch ive
k top
ai ro
M ouse
Ġcheck s
ĠEl li
ĠY ale
Ġsub mit
up t
Ġ" ",
S ocial
Ġt ons
g oto
om eters
Ġst ops
rele ased
T our
Ġd ot
Ġsubsid iary
Ġâ ĨĴ
Ġins ight
Ġdevelop ers
f b
C AL
X Y
ĠGr ade
Ġcap s
S aint
ĠBut ler
evel oper
Ġse p
Ġobserv able
ex amples
v ars
Ġconflict s
ORD ER
Ġco hom
Ġtravel ing
Ġinst ability
Ġident ifying
Ã ī
valid ate
Ġcompos ite
ĠBulg aria
spect or
}{* }{
Ġt ill
ĠM idd
element s
Ġcompens ation
ĠAng lo
Ġcamp s
ĠP in
ac co
ĠPhill ips
Bl ue
Ġprocess ed
amaz on
Right arrow
ĠArchitect ure
un ning
sim ilar
Ġinternational ly
ĠHig her
R ot
}} )$
Ġsuper conduct
Ġchap el
act ed
Ġinaug ural
C B
Ġsh r
2 30
ĠW W
read er
ĠN HL
S te
Ġabs olutely
ĠF BI
ĠIl legal
Ġdemocr atic
Ġplay offs
Ġqu art
ĠArgent ine
Ġen z
Ġmake up
Ġphenomen a
d ifferent
ĠLabor atory
Ġlimit ing
Ġcontr ary
Ġagre es
ĠC lient
Ġun likely
ĠGl en
book s
ĠL an
ĠPalest ine
\ }_{
Ġrestaur ants
en burg
em ies
Ġop ponent
Ġconf ident
(" /
Ġf ro
Ġfeel ings
Ġer ected
ĠCom merce
Com put
prod uce
pot ential
ĠNe il
ĠA ber
ut ton
A I
ĠForm er
Ġar ises
Ã± a
Ġprogress ive
Ġcou p
tr l
12 6
p ag
Ġgr ain
ĠAzerbai jan
Ġed it
Ġ( ).
Ġpro ud
ĠR idge
j sp
Ġs overe
Ġdis joint
ĠRes pon
qu ality
over set
Ġinc umbent
Ġg al
Ġgr an
rypt ed
ymp lectic
F oot
appro xim
ĠP aper
F n
Ġrefuge es
Ġcons ensus
Ġun expected
RE D
ĠQu arter
ĠArch bishop
Ð ¿
18 54
ĠNor folk
Ġ& $
com pute
Ġh ook
row th
Ġpotential s
deg ree
Ġgr ave
Ġing red
f ake
ĠDe cl
Ġperm it
Ġs ends
Ġstr ain
Ġinf ection
ĠSim ple
urs or
q q
o ons
ĠS alt
ans k
amp ed
ĠR ule
Ġfe es
V AR
ore ms
ĠSt uart
ĠF low
is Empty
Ġto x
Ġpat ron
ĠH ugh
ĠHug hes
eg u
con ver
ĠW AR
on na
A cknowled
ro at
ĠThe od
Ã¶ n
} ~\
5 12
ĠT oy
ext end
ĠN at
18 58
Ġover come
W arning
t ot
Football ers
Ġbox es
ĠNep al
ĠHel en
r ac
Ġin cl
ĠEag les
on ed
Ġed itions
Ġlocal ized
Ġge omet
Ġbirth day
C LASS
Ġad venture
al am
K ar
con struction
ey l
Ġw elfare
itte es
W il
Ġgovern ed
å Ĳ
Not ification
Ġrev ised
und les
Ġstreng then
T uple
=\ "
ĠSing les
M icrosoft
om eter
Ġan ten
Ġtext ure
Ġstro ke
Ġaf ternoon
Ġcomput ers
Ø ¯
ĠHe avy
Ġdeleg ate
ĠK ay
Ġinvestig ations
f und
Ġint ense
ĠM uch
i ating
ĠW u
ĠC incinnati
ress es
igh bor
Ġp ending
v endor
Ġch ron
sp aces
Ġbos on
Cond ition
Ñ ĸ
Ġsub sets
Ġnon zero
Ġwealth y
Ġinc red
se lector
j ack
Ġcon jecture
' )$
ĠA f
Film ography
f mt
}} =\
L ondon
Ġtrad ed
ĠM obile
B ob
}, {\
Ġsister s
Ġ" %
An n
ĠD IS
Ġfl ights
Al low
id ity
ĠCong o
ĠS ak
S ame
Ġpar a
ĠPar alymp
ra is
Ġappro ached
Sec ret
# {
Ġ" ";
Ġreflect s
B ottom
à ¬
act eria
Ġyour self
uch i
met ric
Ġdecl are
Ġse lector
Ġthreat s
Ġcompos itions
Ġprov iders
con structor
Rev iew
Ġact ively
ĠM ut
arr ison
Ġhe ating
rat io
Ġfail ing
ĠM ick
Ġgen es
V ec
Com b
ĠLeban on
ĠX ML
ĠNash ville
em e
ĠF oot
Ġentreprene ur
Ġam pl
\\\\\\\\\\\\\\\\\\\\\\\\\\\\\\\\ \\\\\\\\\\\\\\\\\\\\\\\\\\\\\\\\
Ġhom ot
OP T
ĠSer ver
ĠAL IGN
h aw
ĠNAV BAR
Ġvari eties
Ġorgan ic
c aster
om ed
Ġform ations
at ra
un ed
Ġr iding
ri er
Ġjud icial
Ġcontinu ity
ĠS outheast
ject ive
ĠD ennis
Ġind uces
em a
Ġformul as
3 000
h istor
14 5
Ġassist ed
Ġbr ands
Ġastr onom
b ib
ĠB Y
âĢĻ .
Ġto mb
L ie
M ean
K O
ĠS ox
Ġaffect s
face book
d m
P OS
18 55
Us age
ĠCom b
Ġput s
Or iginal
() ),
Ï Ģ
Ġn inth
ĠA round
Ġchar ter
w art
Ġdefend ers
c oc
o il
Ġencounter ed
D iff
vel t
p rom
Ġorig inated
ĠD A
Ġfast est
et ics
m ade
Ġdel iber
Ġfor b
j ud
Ġmanufact urers
Ġsl aves
Ġm ines
Ġdou b
Ġexpect ations
Map per
R andom
th ird
ĠM ort
Ġt ribute
Ġall ies
tr action
F UN
Ġopt s
ic ator
Ġpay ing
ĠLe o
Ġmem or
h ig
with out
Ġw arr
D rop
l ies
ĠC L
if ference
Â Ń
Ġâ Ĥ¬
Ġcert ified
Ġcommand ed
kw args
Ġr ings
ĠSh akespeare
C a
Ġsh apes
grad ient
om pass
18 56
Ġeffect iveness
ĠSud an
ah an
ig ator
ĠPh oto
Ġrecogn ised
ĠLat ino
raz y
ĠWeek ly
}) _{
ĠK ol
j ax
Ġcor related
am ation
Ġth ir
ĠL ov
ĠLore ntz
ĠD ou
Ġthe sis
ill es
Ġqu oted
Ġtro uble
ĠPeters burg
ĠAv iation
Ġthr one
& $
Ġpropos als
uck s
En v
ĠPro f
spec ies
Ġm arch
ĠU lt
Ġweak ly
ĠBas ic
ens on
Ġbre ast
Ġcomp anion
ele m
h istory
Ġrel ocated
ĠSh ould
Ġconstr ained
Ġmonth ly
="../../../../../../ ../
> )
ĠPun j
E ar
Ġsup ern
à ®
r ain
ew ay
Ġexhib ited
Ġveter an
ĠMar x
Ġpal ace
Jo in
â ĪĴ
ex tra
Id entity
pl ain
Ġall ocated
sc ore
A X
St age
Ù Ī
Ġpay ments
ic us
Ġd upl
)= (
N orm
ĠB ald
W ashington
Ġb ishops
AT O
Ġdocument ed
ĠB H
Ġg ymn
f air
' }\
ĠK rist
um i
p iece
comp act
Ġexc av
ĠEr nest
: @"
C at
ena issance
ĠV irtual
Ġcons olid
Ġkeyboard s
Ġmot ivated
Ġsculpt ure
ĠPed ro
ĠWork ers
ĠDr ag
Ġim plications
Ġanom al
ex ec
Ġem igrants
Ġtrad itionally
Ġall ocation
ĠC ert
Ġob sc
g ression
he ld
comp ile
c ourse
or b
Ġident ifier
Ġtraject ories
uc le
Ġrec urs
pe ction
ĠN ak
O ST
tr ain
A bs
h ou
assert True
T M
T L
Not Found
Ġr itual
Ġfun eral
Ġnob le
int s
hand ed
f requency
Qu ant
ĠR alph
Ch arts
\| ^
ĠS uz
Ġr ated
Ġvalid ity
Ġor ange
former ly
HER E
} &\
Ġfr ust
Ġelli ptic
cons ider
ĠOt tawa
Ġhun ting
il ateral
Ġreb uilt
ĠF ram
Ġannounce ment
$ _{\
hes es
An alysis
ind a
ryst al
em in
ass oci
Ġabs ent
ĠN um
ĠCont ent
spir acy
Ġt y
ĠC C
ĠM ock
f ac
Ġin comp
Ġs a
ĠR O
Seg ment
Ġlo ops
ĠC ant
R ay
ew ise
l icens
Ġa st
Ġsustain able
amb ers
f ers
ĠLeon ard
ĠHe in
oid al
Ġas set
V R
ĠM IT
c od
c ass
Ġlog ical
st ation
Ġalleg ations
trans action
ab we
ĠT otal
Ġl ying
am ination
Ġassoci ations
Ġpsych ology
M ad
Ġr ab
ĠMe chan
Ġsub str
ad itional
ĠHit ler
Ġperm issions
Ġcross es
ĠB ach
Ġexcit ation
in formation
Ġpl acing
on line
prot ect
ĠAgric ulture
Ġs b
re ason
N umer
Ġt anks
\, .
Sever al
Ġcontinu ously
Ġexam ination
ĠY es
' $,
] ^{
f ive
Ġc ategor
ĠArn old
H or
Ġover w
Ġac res
Ġactiv ation
Ġ' ';
PH P
Ġb orough
Ġrun ners
Ġconduct or
Ġme at
ĠB egin
Ġfor wards
ph rase
ĠBob by
Ġt ube
ĠChap el
Ġt ribut
Ġcl an
ar ound
Pl ayers
ĠC itiz
Ġsynt hesis
K K
ĠB ak
Sm ith
M ex
ĠP ent
ul sion
dr iven
Ġsett lers
he v
ĠEx per
Ġdecl aration
Con sole
Cent er
ty pen
k u
ĠCh o
z ig
Ġperson ally
Ġt ub
c x
Ġexam ined
B uff
ĠM ul
Ġb orrow
Ġ( .
p mb
Ġprom ising
Ġcount ing
Ġrelax ation
Ġco in
FI ELD
Ġoccur ring
ĠProduction s
[ ]{
Ġdiplom atic
ĠT i
v dots
ĠTransport ation
Ġleg islature
Ġse eds
Ġc emetery
cond itions
ĠH at
ĠDE FAULT
}_{ {\
An notation
Ġemb r
Ġde formation
ĠM Ã¼
ĠHar old
Ġlaws uit
$ (\
the y
ĠM ig
^- $
Ġcelebr ate
Ġdef initely
Ġcompet itors
min ster
Ġ_ ,
ĠW ells
ĠQ ual
Ġal ias
Ass ume
" },
il o
Ġre fr
if i
Ġa qu
Ġansw ers
Ġun ions
Pl an
Ġcomp ression
M W
ĠHar vey
im o
Ġconnect s
be ing
Ġcov ariance
Com par
ĠAdv anced
Ġsuff er
Copy right
Ġtrend s
ĠR ivers
RE E
W ord
Ġacceler ation
ĠN GC
D istrict
Ġneighbour hood
SO UR
ĠJ ob
ĠM s
high light
Ph oto
respect ively
Style ID
Gr and
ĠRey n
= &
Ġtourn aments
imb abwe
Ġbelong ed
isher s
Ġ{ {\
Ġdraft ed
s outh
I ll
ĠH av
ak ov
act ing
Ġline arly
Ġreform s
ut a
all ing
So ft
In ner
ĠProtest ant
Ġper ceived
Ġproduction s
ĠH IV
ĠS ask
und a
sign ature
AT ED
Ġce ased
Ġconcent rated
Ġsurvey s
L uc
T ri
ir ts
Ġt one
Comp at
á ¹
ĠD od
Ġvolunte ers
r ations
= (\
et e
S erv
ĠOther wise
Ġde ployment
ĠCh i
inn ed
T reat
m k
tt ing
prov ed
cur rency
Ġhelp ful
ĠSch olar
Ap J
ĠB eth
F older
int ell
ĠĠĠĠĠĠĠĠĠĠĠĠĠĠĠĠĠĠĠĠĠĠĠĠĠĠĠĠĠĠĠĠ ĠĠĠĠĠĠĠĠĠĠĠĠĠĠĠ
im ony
ĠVen ice
ĠArm ed
agon ist
ĠEu clidean
ĠInn ov
Ġanalys es
Ġ$ _
ĠS oul
Ġtr ick
Ġbe ating
ve ill
ĠGreg ory
th in
E r
Det ail
Ġimpress ive
18 52
Ġh aven
ur ated
." ""
ĠG ilbert
Ġland ed
Ġfor get
orient ed
AT OR
ĠT ool
Ġcur rency
Sim ilarly
g h
Ġc avity
Sh ould
Ġtherm od
ĠV ent
mid rule
res olution
Ġr ay
ĠSt ories
, (
ose velt
Å Ľ
Ġplan es
ĠArt ists
Ġshe ar
Ġaccept ance
ĠHen ri
t z
ï¼ Į
Ġinnov ative
Label s
gener ate
Z Z
M ot
r age
Pl atform
> $
Ġsc iences
Dr iver
M ary
am ic
Ġlog o
S ite
Ġamb ig
ond o
ĠSe an
ĠS oph
Ġconsum ers
Ġe at
ĠPubl ished
B inary
do i
mult ip
uss els
Ġsh ifts
Pre vious
ĠCo hen
Ġrecall ed
r ating
Ġh opes
Ġ' ./
ĠFil ms
/ "
I l
Ġst ick
ĠMe V
ĠG ust
ĠD elta
Di agnostics
n ear
Ġref ere
ĠH aving
typen ame
) !
ĠSing le
Ġcult ures
TR Y
ĠK ash
Ġf ert
Ġj ail
Test Case
ĠSi eg
isc opal
gr avity
tem perature
Ġesc aped
R ivers
'] );
C ONT
Ġf ur
Ġpro ton
ĠLeg al
h orn
ic as
Sp an
um ped
sw ick
Ġagre ements
ĠM ik
ĠL ot
Ġderiv ation
ok u
ĠFlore nce
Ġproceed ings
ĠAg reement
Ġsc rap
Ġknow ing
ĠCam eron
) |\
ĠOption al
Pro to
G G
s qu
Fr ance
r floor
ĠS ierra
av ier
. },
Cont in
st own
ĠF un
sl ide
Ġpark ing
Ġrep ublic
t ip
Fail ure
ĠS oci
sp acing
g on
Ġdrum mer
Ġacqu ire
us c
ĠN athan
Ġbank rupt
ben ch
Ġstr ange
Ġem peror
=" $
L ead
Ġep id
Ġenc ompass
ĠRem ove
W ORD
k k
sup erv
Ġav ailability
Point s
Ġrecommend ations
Ġens ures
Am ount
p end
Ï Ĥ
ĠS ey
18 51
Ġplay wright
Ġb one
Ġal ien
ap est
Death s
Group s
ĠAr c
= {\
ment ioned
Ġde leted
st ock
no ise
it on
St atic
Ġconj unction
ous ing
Ġbl ues
B road
Ġass ists
Line ar
Ġrend ered
B ool
ry s
13 6
W ell
uct ive
ĠJ ar
ip per
ĠD ol
sc ience
Ġdecor ated
Ġours elves
sup p
a very
Ġl ic
dis able
Ġtim estamp
veill ance
Ġs ocket
Con structor
Ġattr actions
( |
isb ane
ĠD h
ant ics
Ġpop ulated
Ġn inet
10 24
AC H
c n
ari e
gr av
Ġarch ive
eff ective
ĠPr act
ob tain
ert on
ĠD id
Ġmulti plication
Ġpsych ological
im eter
ĠL evel
Ġb ay
ĠM az
Ġl iv
Ġb oss
ĠG raph
ĠM orning
intell ij
Ġmat hematic
ris es
J ud
st rip
ĠM I
load ing
ser vers
PRO JECT
Ġconsider ably
ĠÐ ²
ĠSpec ifically
Ġs ugar
Ġke eps
Ġto urs
ĠCom plex
ĠAss ume
Ġhonor ary
ĠWhe ther
Cont ents
~ (
ĠScot ia
Ġf iring
ĠBr isbane
u ition
Y Y
ON G
ĠTh ai
ĠIn ternal
Ġsupp ressed
Serial izer
Ġ$ <
off icial
ĠWars aw
Ġcan vas
Ġthere after
S uch
p ire
ĠH im
Ġv ital
Ġfif teen
v or
Stat istics
Ġim pl
Ġsp ots
ĠAl lied
13 2
valid ation
ĠT ed
eg al
Ġsong writer
text normal
osoph ical
ari ate
Ġcaref ully
ĠShang hai
Ġcan n
ĠWall ace
ĠQu ant
_ );
h uman
Ġb le
ĠN y
ĠS ou
Ġcrick eter
Ġaccount ing
ĠS oon
Ġadv ocate
> "
ĠF L
Ġ} $
ĠLi u
Ġwithd rew
\ -
tim estamp
U psilon
eth yl
Ðµ ÑĢ
2 25
Ġimag inary
Ġanth rop
publ ished
project s
ĠCol umn
Ġper pet
ĠDiv is
ĠC lear
h in
h agen
run ning
ĠFe ature
S yn
f eld
ĠR osen
script ions
ĠSt ef
Ġpower ed
ĠAngl ican
head ing
Ġexhib itions
ĠÃ ģ
Ġkid n
ĠMont gomery
Ġtour ism
Ġbench mark
Cent ral
M essages
B inding
P rom
por al
Ġeg gs
Ġh orn
Arg uments
ĠBulg arian
Ġsoci eties
ĠÂ »
ĠD raw
rib le
Ġprint ing
Ġmar ry
t l
Ġunsuccess ful
Ġin hib
Ġattract ive
ĠC oul
re view
ĠB av
Ġsum mit
ĠSpe aker
in ced
ĠConfeder ate
l floor
ĠC elt
ĠAdd ress
w oman
SCR IPT
ĠMan uel
ff f
Ġ ðŁ
ex act
ĠP av
Ġelect romagnetic
Err ors
Ġsem antic
< <
R ock
Render er
M ur
ĠTun is
t v
Ġext inction
cont ents
Ġexplos ion
F W
t ouch
Ġarg ues
Ġapprop ri
tr aining
F K
Ġab ortion
Ġw ars
ĠS ang
Set ting
ot he
Ġ )$
Ġc ust
ij k
* \
Ġto uring
Ġdrink ing
sub mit
ĠLe eds
ĠB ody
Ġconf usion
n ecess
ec ca
ĠV ict
Ġin coming
U B
Ġsusp ension
Ġcent res
Ġentang lement
1 19
Ġto ured
C ounter
ĠFr anÃ§
ass ign
ĠP ain
ĠS ony
u et
pl oad
Ġcoff ee
Ð ¹
Ġmanufact ured
ĠRead ing
Ġhead ing
Ġstand ings
Î »
Ġs le
center line
B ill
s r
ĠCh a
Ġrad ar
ber ger
el ing
Ġstream ing
Ġover flow
Th row
iline ar
Ġcap ability
mid t
ID E
AN G
ĠS yl
I SE
T yp
log o
DO M
Ġtempor arily
Ġcelebr ation
al ert
ĠAir lines
re b
Ġ ig
Ġw ard
ch art
Ġdis band
Ġ æ
ish a
ĠÅ ł
Ġguarant eed
tr on
Ġarr iving
Ġattend ance
Ġs ad
ĠN R
L Y
ah l
Te chn
ĠLa ura
Ġvol leyball
Ġhistor ically
Ġprom ised
Z ero
ot er
Reg ular
Ġvulner able
ĠAn cient
Ġearthqu ake
ĠY a
ox y
Ġ" '
}( -
Process or
Ġc attle
ĠAp pro
Ġd ivers
Ġs hed
ĠS ic
b x
ĠE uler
ff ield
Ġconstant ly
. }\
Ġprogram mes
Ġdig it
L ittle
b inary
Ġun em
Rel ated
w hat
ub ern
ĠLuc as
stro ke
Ġfacilit ate
ist le
E SS
ĠSt op
W alk
Ġburn ed
ĠNot ice
Count ry
ĠJ ur
}) (
Ġsam pled
Austral ia
Ġg ates
Ġwav ef
it us
om i
ĠM ills
sub stack
ĠPaul o
Î ·
18 49
Ġst y
pr us
c v
bre aking
ĠO C
ĠE SP
Ġscreen ing
intend o
b ank
ĠAmb assador
Ġnumer ically
et ter
Ġen rolled
direct ory
3 20
Valid ator
Ġunder graduate
Ġpreced ing
Ġ à¤
Ġ< -
^ +\
ĠP ick
j Query
ĠL java
Ġtang ent
Ġbond s
Ġcloud s
Ġalign ed
ĠR oche
ĠBel arus
Ġf ighters
Ġhyper bolic
Z one
Ġs ang
Ġex terior
th al
s z
ĠA B
Ġj u
pos itive
+ $
m apping
Ġw ake
Ġdist ant
Ġ" .
Ġferm ions
ĠG host
Ġauthor ized
ing e
ac ional
Ġbl ank
Ġthick ness
Ġterror ist
augh ter
it an
ĠLiber ty
Ġorient ed
ical s
Ġfarm ing
Ġde eper
H a
Ġt uple
Ġassum es
CH AR
Ġsubstant ially
Ġa z
Ġmyst ery
Ġformal ism
ĠH az
sc ss
LE D
eff icient
Ġexcept ions
Ġswit ched
, ~
b inding
ĠG ang
ĠR andom
im od
] ))
l p
P ut
Ġh ub
ĠH ost
UN T
make box
Ġsust ained
ĠK ill
Tim estamp
ĠColumb us
ĠEncycl opedia
Part icip
ĠJo an
}| ^
p ages
Ġsuff ices
Ġal pha
Ġrel ativistic
ro e
ĠSim ilar
ĠFri end
ieg e
Ġbe et
w arn
Con sumer
Ġsubmar ine
12 9
r ules
ig ue
Ġp ale
ĠK id
getElement ById
Ġcop per
P lease
ĠB ear
he ets
Ġelimin ate
out heastern
dep recated
link s
Ġsudden ly
HE AD
}\ !
Ġd im
Ġle agues
B IT
C art
Ġachiev ement
ack ets
ĠV eter
Ġdesign ation
ĠEc uador
Ġsymmet ries
Ġ ----------------------------------------------------------------
ĠL ex
Ġdiv ide
mat htt
Ġwrit ings
Ġsynd rome
st eps
am ount
Ġsub urb
UN D
ĠP L
Ġsh ield
Ġen emies
D utch
us ive
18 47
Ġout line
Ġel astic
S oviet
Ġbut ter
Ġar ising
Ġab ilities
Ġf atal
ĠG olf
Ġatt itude
pr iv
g z
ĠPhil osophy
Ġthr iller
B s
ĠSc ript
Ġident ities
aut ore
re ach
Ġmod ifications
j d
ĠR ah
ĠG uild
vel oc
Comp anies
itud inal
Ex amples
New s
S ide
oot s
io let
co ordinate
w yn
ĠCirc le
aur us
Ð ·
ĠRo osevelt
Ġinteract ing
b ird
ĠE C
Ġrat ings
I rish
Ġ$ [\
Ġtr ap
L ib
ent in
roll ers
Ġasympt ot
ink s
del ay
ĠHar bor
im an
arri ers
is che
om m
Ġir re
Ġconv inced
Ġm ild
ath y
S elf
Ġs ync
ĠPal mer
Ġgraph ic
re act
ĠS tra
ĠRe ed
C AR
big gl
Ġrem arks
Sy ntax
oy age
Per iod
ĠGro ve
ĠS uff
Row s
Ġc ow
Sing les
as ia
Ġcomp ounds
Ġinitial ize
Ġar row
S ound
Ġliter ally
Ġinv ariance
Ġs weet
) |^
by ter
Ġobject ives
}= (
Ġnot iced
ate ful
13 4
Ġfoot age
for Each
p al
ĠR us
Ġhe x
Ġcl ause
Ġbon us
sub float
/* !
inem atic
Ġl ights
L ibrary
on ing
Ġf ol
ol ics
Ġout door
Ġel dest
ĠWell ington
enc ia
× ķ
ĠF eb
names e
Ġj ets
rem arks
refer red
process ing
ĠPr ague
Ġcomp rises
or um
Ġded uce
Ġchalleng ed
at um
i q
Ġm amm
d ue
ore l
ĠR uth
em it
Ġsupp lement
ĠIda ho
Ġdescend ants
K it
L ove
Ġaud iences
ĠV oice
Ġre pository
Ġ' .
Ġdevelop er
ĠC hern
Ġor chestr
ĠMax well
Ġphys ic
' }$
ĠN ancy
cal endar
LI ST
15 5
ĠK ate
ok o
ic ia
Ġplay off
W he
Ġsup press
Ġconduct ing
Ġdef ended
Ġto kens
ĠWild life
column s
ĠBrun swick
s ized
RA M
inter pret
ll a
al ias
G al
Ġb read
er en
Ġtrav elled
or ious
Ġp ill
ugg ing
Hen ry
d ates
Ġport ions
lef trightarrow
pl acement
Ġre un
ĠRon ald
ĠW IDTH
it ious
get Id
Ġpack ages
Ġs ys
App end
Ġpract ition
US A
Ġhighlight ed
or ate
ĠEdd ie
ĠF ast
Ġdepend ency
Ġevery where
Ġre organ
ĠP red
Ġvirt ually
CON FIG
opt im
Ġver ified
Ġfl avor
Ġaff air
Ġresign ation
Ġinter pre
mem bers
Ġnucle us
Ġfilm ing
Ġ Ñģ
Ġel if
å Ń
ĉĉĉĉ ĉĉĉĉĉĉ
ĠStat istics
over ed
14 7
ac cur
ĠPl anning
r ically
ĠT itle
Ġpo ison
ĠB aby
in ters
Ġneglig ible
J im
Ġres erves
UT H
b ug
ĠBlo om
K A
ĠG ene
cont act
ie u
ĠK re
ad oc
ra f
Ġ\, ,
s ame
ĠE sc
all ed
18 53
Ġpro to
ff bb
Ġaccur ately
Ġpredomin antly
Ġinequ alities
ĠRev ival
Ġextr action
Ġsh ops
vers ely
Ġthought s
Ġshall ow
Ġstri king
it ars
Nav igation
ĠF ont
13 3
$& $
ow der
Ġa uction
ack ing
Ġtr aces
ĠByzant ine
' +
ĠS old
Ġrock s
Ġboard s
F B
ethe less
Ġc rop
flu id
R ank
er k
Ġg raphics
Ġcaref ul
ort s
Ġsent ences
Ġmod al
st ellar
Ġtr ump
ĠMon th
Ġins pect
Lou is
Ġf inger
Ġas ide
ĠN g
w ent
ĠE ld
S G
p d
Run ner
Ġcitizens hip
Ġel ite
ĠL amb
ĠKer ala
ov ina
i ast
ĠInd ies
Ġpri ests
ĠD ame
m essages
ĠNot able
ĠW ag
ĠGab riel
ĠC T
Ġhous ed
c ritical
Ã© g
Ġg ent
od ic
ĠRevolution ary
Ġpredecess or
ĠS cal
Ġa er
ĠM ade
Ġtor us
ĠClark e
Fr anc
ĠRem ark
Ġint ens
Ġfin itely
ĠS V
ĠNew castle
{ [
ĠTh under
col lect
correspond ing
song writer
n ell
l it
Ġread ily
Res earch
en eg
ĠR at
Ġunc lear
er ious
ile vel
cor rect
B G
Ġvanish ing
ĠOut put
ĠNap ole
enc ode
bro ok
ĠNorth west
Ġp our
om ar
ĠRay mond
ĠP U
olt z
Ġexception al
ĠIsa ac
W IN
Ġarr ives
fore ach
ĠB ened
ĠP rest
ĠD rama
ĠBuild er
tw itter
V ICE
ĠFellow ship
ĠL if
Ġm ilk
acher s
Ġd ogs
Ġany where
ä ½
b urst
ices ter
AP P
ĠQu ery
C md
13 7
u ise
Ġin herent
................ ................
n os
l r
st ed
b oys
se en
Ġqu arks
ig m
Ġro ster
ĠIndones ian
w al
ĠG az
Ġsqu ares
ĠFour th
Ġdispl acement
ir able
Ġav iation
ĠCard inals
p olar
Ġm ath
Res olver
Ġsl ice
ĠMil waukee
ad ers
Ġcohom ology
ĠCh ang
Ġconven ience
ĠMult i
Ġv e
Col lege
Ġt ape
50 9
0000 00
ĠC ancer
ind uced
Ġdistinct ive
Ġcomp iler
Ġgener ality
ĠTr avel
ĠSp encer
che m
Ġdwar f
ard i
se gment
hab ilit
B us
c red
l iga
ĠS end
lim ited
Ġconv ey
Ġdiff ers
b is
Ġanal yst
ĠZh ang
ĠI SO
ĠWrit ing
ĠFa ith
ibl ical
At l
f urt
Ġsp ell
Decl aration
FI X
Ġwel come
/ ">
m art
ĠJ in
ĠChe ster
ĠR av
inter val
ul ous
Ġed itors
at able
Ġpat ri
Ġachiev ing
Ġpro l
Ġun w
g ender
at em
ĠM aterial
C ursor
Ġg ains
Ġbank ing
Ġab brev
f uture
text style
PRO P
oc hem
ĠÂ ©
ĠH ave
}} }$
Ġalleged ly
F ictional
if inals
zh ou
ĠIraq i
is se
ĠTib et
Ġrout ine
Form s
ĠRh ode
Ġinter change
Ġart work
Ġsimpl ified
Ġgold en
B atch
Ġhol omorphic
gr pc
Ġnucle i
ĠR enaissance
13 8
ĠA ires
po inter
Ġdecre ased
ĠĠĠĠĠĠĠĠĠĠĠĠĠĠĠĠĠĠĠĠĠĠĠĠĠĠĠĠĠĠĠĠ ĠĠ
Ġport s
am y
nav igation
Ġjoint ly
) )$.
t ol
Ġa thlete
Ġvolunte er
b an
ĠF actory
Ġa mazing
power ed
Ġperfect ly
act ers
Pr inc
(" #
J ul
Ġbroad er
Ġmem oir
acef ul
m any
ĠBenn ett
big skip
Ġreason ing
Am ong
bl ob
ĠĠĠĠĠĠĠĠ ĠĠĊ
b ard
Ġhapp ening
harm onic
ess a
ep age
}\ |
Ġt issue
U CT
ĠCr iminal
}) -
Ġaccommod ate
ĠC ec
Ġrel ies
Ġz ones
unc redited
Ġnav bar
Ġtour ist
Ġmod uli
Ġpian ist
ĠF iction
Ġneg lect
ĠW i
Ġsh ots
ĠVis ual
ĠC raw
di ag
16 5
Lo op
F ace
ĠOak land
I Z
c fg
ĠF oster
Ġab elian
Ġaccess ed
get Type
n ov
ĠC IA
Ġdemonstr ates
ĠPrinc eton
Ġhand ed
f etch
Ġreg ulatory
ĠConfig uration
s afe
Ġn est
ĠF ighter
Str ucture
sh ore
ott ingham
40 4
ĠTh ings
Ġl ots
im en
Ġr uler
ĠJust in
s yn
Ġobserv ables
Ġa ster
Ġoverw hel
Ġ' %
Ġdepart ed
Ġnovel ist
ĠW ald
Ġvic inity
ren ew
Rem ote
Ġinsert ed
ĠF ish
Ġim per
g art
ĠF at
Ġcl one
h ang
Ġmaintain s
ĠK as
}\ }$
te le
Ġbomb ing
Ġs ou
ĠStock holm
ĠFried rich
av ian
ĠVlad imir
dis k
Ġpun ishment
b ur
z ing
el o
ri ke
Enc oding
igr ant
Ġb achelor
Cont act
PRO C
Ġtim ber
Ch art
ĠC ou
16 8
enti eth
Ġsc an
Ġpoint ing
ĠC inema
ac ies
Ar gent
ĠM atch
label s
Ġres p
' },
W el
f m
Ġi i
Ġ ell
atche wan
play ing
Ġrep ly
ĠAgain st
Ġuniqu ely
t ake
ĠJ ak
ĠJ ung
tr ained
ĠUn fortunately
ĠHar per
n ob
d an
Ġd iamond
L M
Ġhigh lights
xim ity
unk nown
Ġann ih
ĠY uk
W estern
Pr imary
ap ol
Ġor n
p rior
Leg acy
ack er
u o
14 3
Ġcart oon
ĠL apl
ĠAl t
D ATE
Ġch ronic
l icense
âĢ¦. âĢ¦.
i ago
ĠE ight
ĠA w
oun s
sc opy
ĠP resent
Ġsus pected
Int eg
unc an
' -
UE ST
ĠSe bast
Ġgard ens
ari um
ith metic
Ġmet ropolitan
ĠT ong
Ġsem ic
ĠS creen
Ġimp ose
form al
Ġr ice
Writ ers
Sign ature
sh ops
Ġintro duces
ur bs
ep ing
ter ms
Ġcomment ary
Perm ission
r pc
Ġwat ched
Ġfr act
cos ystem
c op
Ġdiver gence
Ġp reference
ol ine
Ob server
Jose ph
ĠE lection
el ly
pr ises
Ġiniti atives
ĠGrand e
p kg
Ġw x
osl ov
}}\ ,
Ġtrans mitted
ĠO w
20 2
ish i
Dep th
ĠY ellow
Ġvo ices
Sh ared
Ġchap ters
Ġcor rel
as se
umb ai
; |
Ġelev ated
18 46
ĠT odd
H ig
Ġir regular
Comm unes
Ch ina
Ġad option
re pository
ĠR an
Ġcl ot
Ġlob by
}$ ).
& -
Ġver se
Ġrecon structed
ĠO g
ÅĤ aw
g lyphicon
Ġlocal ization
ĠJ son
Ġbatt alion
ĠCon text
ĠMal ay
Ġb ull
p el
Ġvol unt
T ok
L ow
al in
Ġc iting
ĠSh in
Ġconf used
Ġeditor ial
DE LETE
uc he
Ġaccompl ished
Ġmetall icity
if ice
Ġscatter ed
Ġrot ate
Ġrefer endum
ĠCo ach
Ġpit cher
the se
sur ance
G T
Ġ$ $\
Ġal phabet
moment um
orn e
war z
h yp
Ġtele phone
Part y
Ġ' ',
ĠHamb urg
W ater
Ġattr action
ĠSc hed
30 1
trans port
ĠU P
Ġrot ating
Ġsc andal
j b
ull ah
ĠTh read
ik es
Ġmon astery
}. \
ential ly
v n
Ġh az
ĠD R
Ġblock ed
Ġc ave
ĠJul ian
ĠDur ham
ĠR af
fil m
ind ed
Ġinduct ed
**** **
Ġsus cept
ĠEngine ers
H older
Ġtor ped
ĠDist inguished
v p
Ġcivil ians
ĠOut standing
u ania
)} =
ĠAct ive
ĠEs sex
ĠSer ial
Vis ual
Ġacknowled ged
Ġglob ally
asc ade
A U
M aterial
ĠYugosl avia
Ġre produce
Ã Ĺ
Ġ> >>
pt s
ĠPl ayers
ĠBro s
Ġmer ch
Ġed iting
Y our
he art
ĠLin ux
ĠR ams
G reek
ĠPan ama
ĠTom my
A xis
a qu
h im
ĠMon ey
Ġcheck ing
ĠA my
ill iant
Ġpione er
ĠM ario
Ġtrav els
BP ACK
ars ity
ĠAh med
ĠTas man
S plit
ĠA aron
ĠV II
ĠT yp
ĠN othing
ort heastern
at ile
quant um
ĠK ra
ĠEn c
ĠInter est
ber y
ĠPro of
Q t
Ġb ag
land o
MM ARY
ĠL or
ĠS ter
à ¦
Ġenc ode
Ġh r
ĠK i
ĠSh ir
Ġflo ating
* ,
ĠEx cell
Ġ\ #
found er
Fe atures
ĠCab inet
atin um
f red
Ġm apped
Ġbas ically
Ġc ad
ĠMethod ist
Ġdis cre
ene ath
ĠS olar
sp ot
ĠW alt
ĠUg anda
ĠOt to
Ġg ear
Ġcollect ing
Ġsec ular
ac iÃ³n
\ }}
Ġconstitu encies
ĠB R
Ġco at
ĠInstit ution
Ġmodel ed
ĠF ly
ind ices
ĠMus ical
ĠBos nia
ĠD im
e i
h p
Ġsearch ing
N I
Ġpoor ly
ar u
Ġinter fer
Array List
Ġmanif olds
Ġre nown
Ñ ħ
Ġann ex
us a
amp ing
order ed
Ġfif ty
A SSERT
Draw ing
Ġsegment ation
ĠPerson al
ĠZ imbabwe
if iable
ĠD oc
ĠCroat ian
Ġdro ve
T AG
' )\
G EN
e ur
ĠPet e
ĠP icture
Add itional
ĠDes ert
Ġeth n
ĠL isa
Ġcan al
ĠReyn olds
ator ies
Ġprevent ed
Ġsub stance
ĠSalv ador
Ġad mit
CO MM
Ġproof s
pi res
CD ATA
Ġefficient ly
act ual
cho ose
ĠCy prus
Ø ª
Ġs ailed
ĠPr ison
Ġhuman ity
Ġto ll
ĠCl imate
or p
na issance
Ġmark er
Ġsl avery
Log in
Ġdev ast
= %
~ {\
Us es
Ġch unk
Ġtack le
Ġbi ology
aus es
Ġsuff ix
k ernel
Ġfis cal
ĠD aw
Ġv ibr
Ġsingular ity
Man agement
Ġl ux
L ee
ch at
n orth
Ġla ugh
ĠSc ar
IM IT
Ġburn ing
B a
Ġliter al
Ġinj ection
H ouses
g ems
con j
gener ator
Ġamb assador
ĠMer it
Ġrecip ients
F eed
fl ush
âĢ ł
ĠIm port
.* ;
Ġdis pers
Ġlearn s
he x
Ġann ounc
Ġfor ty
ĠL ak
As sembly
ĠG amb
Ġspec ification
math ds
Ġport folio
Ġche ss
Ġbas in
ĠS ullivan
esc o
Ġstret ch
Ġdivor ce
g ary
ĠG or
Ch ain
Ġprepar ing
× Ļ
oe ing
Ġj ew
Ġfl our
ĠRe ich
te ch
AT TR
Ġmeaning ful
al tern
ill on
ĠK in
ĠV illa
Ġless ons
ĠKn ights
G erm
ust ain
Ġposs ibilities
Ġabsor bed
Ġem pire
Ġ( #
app ings
Ã© m
Spec ies
Ġwebs ites
Ġfollow ers
ĠCl if
Ġphil anth
A mb
Ġclass Name
Ġfall en
am med
V irtual
im mer
bor o
ma jor
ĠC PU
b org
Ġsummar ized
r k
ĠWil helm
ĠL LC
ĠSe pt
ĠP eng
13 1
R ugby
G reat
Ġm oon
m ot
act ics
Ġsk etch
ch itz
cknow ledge
Sep ar
Ġdisestabl ishments
Ġdetermin istic
Ġwe aken
Ġden omin
stan bul
Ġcontrad ict
Ġlight ing
Ġfeas ible
C ities
Ġcor on
lev ard
ĠRh odes
s al
man uel
Ġ$\ |
Ġhar ass
Down load
ĠP ub
Ġto ugh
18 45
FF ER
Ġd otted
ĠCh an
ever y
Ġship ping
16 9
Pre v
fl ux
superv ised
um m
}_{ (
Ġab oard
LA Y
Ġachiev ements
Ġ( +
Ġtro ubl
ar ians
.. ."
ĠG overn
Ġexcit ing
ĠHop kins
U ntil
ĠC M
Ġadvert is
( ['
ia z
Ġminim ize
g p
ros so
Ġpil ots
Ġaver aging
big gr
Ġret rieve
con c
Ġman ages
ĠAssoci ate
ic ism
ĠBu enos
map s
Å Ļ
ĠDev on
Ġmiss ile
Ġl in
ĠD anny
Ġobserv ing
Ġdo ctrine
t uple
ĠP romise
us r
Ġinv ari
Ġtim ing
view port
Ġopin ions
ĠAdvis ory
UR N
g ements
ĠBaron et
ĠComp etition
ĠMethod s
ĠOr iginally
Ġresear cher
). }
ĠDef ine
Ġdebut s
Public ations
ĠSh op
Ġde fer
D irection
Ġt ar
i ator
ĠO wen
Ġfrag ments
ed o
ĠS part
pr im
sche me
g overnment
Ġguarant ees
H ouse
ĠIt em
Ġexpert ise
ar ms
a ude
Ġn ephe
ĠL ac
Ġdr ift
66 66
M ah
ĉĉ ĠĠĠ
ĠB ert
Ġhe m
ern ess
rep o
ĠT all
Ġattack ing
Ġarchae ological
F ort
Ġsever ely
S un
S mall
Ġprov ing
ace ut
ĠClass es
ĠV il
Ġl akes
c as
Column s
Ġqual ification
s ocial
ĠC ork
en ers
ĠPer th
Ġm s
ag ma
Ġlat ent
m ans
op ened
Depend ency
ed uc
n st
get Instance
Ġdis able
( ()
Ġdial ect
ĠSw an
l ain
Ã ¯
Ġt enth
H uman
gener ic
S ol
lector al
ust ers
al ong
ĠH ir
n ick
ĠV ern
Ġret reat
Ġa est
Ex pected
L ab
> [
Add r
Ġa stro
Ġsh aped
app le
Ġinstit ute
S at
Ġs aving
ener ate
T ouch
ap a
comm it
ou x
ĠB esides
Ġb alls
Ġcollabor ated
Ġenc oder
Ġmon op
H I
ĠK E
Ġsp ir
ĠNob el
Ġback up
ĠAct ress
Ġt ut
flu ence
str ings
umber land
18 37
ĠTest ament
ĠSus sex
Ġwalk s
le igh
W ho
] ->
C irc
}} }{
Ġgrad uation
Ġor al
Ġob ey
ĠE state
ĠR ever
Ġrevolution ary
Ġs ymplectic
d istrict
Ġfoss il
cl ock
Ġconsider ations
Ġcal ibration
es p
em bourg
ĠĠĠĠĠĠĠĠĠĠĠĠĠĠĠĠĠĠĠĠĠĠĠĠĠĠĠĠĠĠĠĠ ĠĠĠĠ
S a
ent ric
ĠEx amples
P ac
Ġo w
ĠCon cert
itect ure
Ġincre ment
Ġfle w
d v
Ġgeodes ic
Ð° ÑĤ
ab stract
Ġv m
Ġbright ness
G s
Ġout per
d ie
ĠW ait
Ġleg isl
ĠC atalog
m ust
ĠJama ica
ĠCom ment
2 15
}^{ (\
Ġseek s
Ġpsy chiat
mathbb m
% ),
ex ecut
Ġt ale
Ġr ally
Ġcor poration
Ġnick name
M il
Ġb atter
anc ers
Ġrem n
Ġc atal
ĠS ig
Ġen orm
Ġfill ing
Y es
ac ular
With out
Ex port
Ġinter sect
Ġobserv ational
Col umb
ign ore
ĠPark s
ĠW orth
P ress
ĠWood s
Ġsu ite
Error f
AS K
Ġt f
Ġexecut ives
ĠJac ques
Ġspecial ist
Ġatmosp heric
c ano
ĠHer ald
)\ ,\
V ir
w i
Ġathlet ics
Ġproceed s
Ġalter ed
ent on
ĠK or
STAT US
p her
ph ot
et es
l ived
Ġret riev
ĠTr ain
ĠF lying
Th ird
ĠF olk
Ġvari ability
e conom
tract ed
b os
Ġs iege
Ind eed
MB ER
ob e
run ner
ĠTh anks
Fram es
g ie
enc oding
Ï ħ
ĠHol mes
M AT
ĠEll is
Ġform ats
Ġpl ates
ad ier
Ġare na
ibl ings
Ġconfer ences
Ġsp iral
ĠSom erset
in itions
ĠW ikipedia
Ġadvant ages
Ġt iny
h art
ĠMem ory
ĠR ice
Ġintegr ity
WE BPACK
es ters
ĠN ATO
Ġout flow
display math
Ġoscill ations
veloc ity
c orn
Ġaccept able
RA Y
A K
Ñ Ĩ
ĠG alaxy
Swed ish
ĠShe ffield
Ġquarter back
Ġdesc riptor
ĠR aid
oca ust
ats u
Ver ify
chi ef
Ġstop ping
ĠE V
can vas
SOUR CE
Ext ensions
ĠPar ad
Ġown s
Ġcoinc ide
ĠBr ussels
T ake
ĠS ho
ĠPlan et
> ()
B ounds
Ġplace holder
Pr im
Ġband width
Ġtyped ef
AC CE
rypt o
S ort
ĠP and
Run ning
ĠObserv atory
Ġscal ed
Ġt et
Ġrel ate
serv let
28 0
il ian
ĠE ve
ĠLeg islature
styles heets
f av
Ġy es
C ost
D id
F red
Ġdis orders
h d
Can ada
iber n
ĠCurrent ly
TR AN
ĠRod rig
Ġval ued
oc ene
Ġem otion
O l
ĠI ter
ĠP ul
I ts
ĠJenn ifer
ĠO z
r ame
F ire
Ġb ug
ĠEag le
sm ooth
per m
ath a
Ġpro sper
Ġcomplet es
J ean
ch air
Ġpron ounced
pre vious
G F
Ġw orn
Ġf s
20 3
ĠAp ost
ĠCard inal
ĠAng els
ri o
Ġbus y
U kr
trans fer
Al tern
Ġunder go
ordin ates
Ġpre val
ĠJ unction
clud ed
ĠArm enia
pat cher
ĠD eg
Ġremember ed
S B
ĠSU MMARY
ident ity
att ed
Ġwar fare
ĠWork ing
Ġcam eras
set ting
Ġpres ervation
ãĢ Ĥ
ĠS ul
Ġgrad es
ĠDec ision
open hagen
Ġens uring
LO W
ĠK em
ĠMarc us
Ġinh ab
are l
Ġartifact s
Ġjournal ism
az ar
ĠLeg ion
' =
on so
18 20
Ġrig id
ips chitz
ast ics
Miss ing
C ALL
m agn
to Be
Ġevolution ary
ĠCre ates
Ġbel t
Ġaut onomous
Not ice
Ġmem ories
Ġcycl ic
in as
work ing
Ġcounter part
Ġup grade
I reland
Ġcoll apsed
ĠT arget
ĠM ail
(" \
Ġref in
ĠKaz akh
p ic
p id
Ġsimpl er
alth ough
Ġlist ings
Ġcro ps
ĠP erm
Ä Ļ
ĠMig uel
ĠO m
ab ol
ĠS L
Ġregular ization
i ens
reg ation
ĠSm art
Ġbus es
osp here
repe at
Ġ\ }$
est rian
st ead
Ġd imin
Ġtermin us
Transport ation
H ello
ff ic
IMP ORTED
u ine
Or igin
T imer
Ġsp ur
Ġg aining
Ġmoment a
Dem ocratic
iff e
ĠW inn
Ġh ills
ici ary
Ac cept
Ġfriend ship
v iol
Ġr h
ĠPear l
ĠSecond ary
Ġsurviv ors
Ġcurrent s
Ġacadem y
0000 000
â Ķ
oy le
Ġimpact s
ĠGen eva
eg ovina
An im
Un incorporated
ĠEd ge
H H
ra its
RE T
ĠD as
ps y
Ġh ang
Ġparamet riz
ĠVol unte
ĠH alf
Ġmidfield er
^ ^
c ancel
Ġ Ø§
ĠGram my
ov anni
Ġdis ks
ĠB ag
F D
18 44
Ġcur riculum
Ġant ib
ĠP ir
ĠO ber
Ġh yd
Ġgu ys
ĠMed ic
ellig ent
ĠBat man
ced ure
ij a
N ever
Ġs ung
Ġsum s
Tax onomy
A SE
ass o
Ġsuccess ive
;| &
ĠFr anz
ath i
n ai
Ġa cknowledge
op a
Ġequ ity
top ic
Ġimprison ed
Ġ{ },
ĠA ur
pro j
Ġ$- $
en h
ĠS of
ĠStr ateg
Cont ains
L iber
er i
Ġst reak
Up per
U nd
Ġcler gy
ol in
ĠPol l
14 8
Al gorithm
Ġun incorporated
F RA
Ġback ed
A ST
am as
og an
Ġdescript ions
ĠD OM
ĠG and
Ġ ions
Ġcyl ind
ĠBey ond
ae us
ĠWest minster
Ġm il
and ro
Ġmed ic
p olit
Ġf ame
15 2
refer ences
Ġdip ole
Ġfre ely
Character Offset
f lix
un al
am ine
ĠT ry
ang ered
ond e
Ġv ow
uan ian
g ap
ors ion
Ġjo ins
: '
33 3
Ġt une
f un
* {-
Ġconsequ ently
Ġdemand ed
found ed
ar in
Ġun anim
Ġdiss olved
ĠBudd h
Ġsuperv ision
f ollow
ĠGal actic
ĠG y
_ )
ĉĉĉĉ Ċ
Ġrad ii
r n
ĠCub an
M id
track s
ĠPo etry
T ile
Ġcirc ulation
r ag
Ġt d
Ġswitch ing
ah u
se cret
'' .
N L
est imate
emph is
ĠArch ae
pos al
^{ {\
oc o
ĠCO L
Ġincorpor ate
Ġa ria
Ġst olen
Ġviol ations
Ġcompr ising
ou cester
Be en
Ġfraction al
Ġres ist
ĠMan it
Output Stream
licens es
En able
Ġres iding
includ es
Ġfle e
Ġconstit ute
Ġdefend ant
] _{
ĠCamp us
Ġpe ers
ĠEnt ry
26 0
Ġcommun icate
E lect
Ġf reed
18 41
ĠThrough out
utr ition
Ġdef ender
O k
BU IL
ĠSl av
Ġfore cast
Met rics
ĠGard ens
sat isf
Ġspe aks
ĠH ait
Ġhom omorphism
ĠG ent
ĠMot ors
es a
lev ant
ĠCo q
di agram
Ġsp ont
ar v
ĠA ges
Ġp ap
ik ing
Ġrem ix
Ġcho ir
lib s
ĠH ass
on aut
ĠM umbai
Ġmod ular
Ġle ase
Ġgu idelines
whe el
Conver ter
ĠI de
Ġhost ing
Un ion
Ġbe ars
en i
ourn ey
ter bury
Ġtest imony
Ġprest igious
m obile
n ational
Ġpar ity
sp ired
Ġstud ios
qu ark
- {\
ĠR T
ĠAbd ul
pro duced
D evelopment
Ġbre ath
Ġun ve
u u
ell ers
Ġtransl ations
Ġen roll
Ch ief
Ġcomm enced
ĠC yr
ĠM B
æ ķ
G IN
ĠA chiev
Ġm ature
Ġr ul
in ating
ant astic
Ġper ception
ĠSask atchewan
Ġres umed
'' '
Ã© l
Ġconsult ant
Ġwire less
ĠL akes
Dan iel
aw esome
ĠI v
Ġsimpl est
ĠPunj ab
Ġad equate
Ġdr ives
ĠV e
ĠM ull
ĠF lem
F ixed
N UM
) <
Ġt ier
O cc
ĠCom edy
Ġbal anced
d or
ĠHe ights
Option al
un i
Ġarchitect s
Ġph osph
abul ary
ĠF ed
ĠDivis iÃ³n
ed ges
ing o
G ate
t m
Ġcont rolling
ĠL icens
M achine
or bit
SP AN
add y
uis ine
ĠF lo
ĠST ART
or ters
ĠF ul
ne ut
Ġfound ers
Ġimplement ing
ĠMal ta
Mod els
Ġharm on
ib a
Ġdo zen
u pe
uct or
M ix
ĠW inds
18 38
Ġn s
Ġ{ %
ĠGe off
Mart in
Ġj e
yl um
j in
Ġo mitted
Ġth rew
ark er
Dr ag
ĠGener ation
Ġpregn ant
Ġcon spiracy
Ġquant itative
ĠDav ies
ĠD in
Ġperm utation
Ġsport ing
on ne
Ġpres erving
fam ilies
andid ate
18 43
fig s
è ¯
Ġcol ours
Ġrot ational
Ġrenown ed
Ä ħ
ĠMoroc co
Ġremov es
18 35
uzz le
decl are
AR GET
Ġf etch
intend ent
Ġf ate
Ġn ut
ĠIndian apolis
m g
Ġte eth
Al t
Ġbehavi ors
ph ib
Ġap ilevel
& +
be it
w allet
yl an
Ġhomot opy
ĠRe id
Ġult imate
big oplus
> %
Ġpr ayer
ol lo
ĠIn surance
ĠViet namese
Ġair line
Ge org
M iddle
18 39
Ġrenew ed
ĠSant iago
Ġtw ist
cell color
Ġwonder ful
Ġ\\ [
Ġche st
ĠA ub
Ex ists
ĠU til
\, $
ĠJohann es
ĠRec all
log ging
ĠSp ider
ĠN ine
H ard
OR K
Ġcommun ist
Ġbackground s
F ALSE
M ir
14 6
Ġch ore
P romise
ĠEvent ually
ĠL arge
ĠR achel
oot ing
bound ary
m aml
Ar thur
spe aking
Ġexha ust
n om
Ġcon current
14 2
14 1
Ġp unk
byter ian
) }^
L ICENSE
ĠInitial ly
ĠGl ass
al ter
ic ode
Ġ" >
N Y
Ġl ung
ĠB order
Ñģ Ðº
Ġdifferent ly
art a
Spr ing
ari us
Ġcorrect ed
h m
pr ising
Ġcre ator
O s
Ġcol ored
ĠLith uania
ĠĠĠĠĠĠĠĠĠĠĠĠĠĠĠĠ ĠĠĠĠĊ
ĠP owell
cl s
Ġc ouncill
Ġtrigger ed
c mp
rem ote
eg an
}} +
13 9
ĠReg ulations
Ġcoinc ides
class Name
Fore ign
Ġimag ine
Ġlogarith mic
ĠP ink
ĠPro perties
Ġmot ivation
ĠL oss
18 12
Ġver ification
Ġque en
ĠM ine
ĠV at
s igned
Ġrecon c
ĠBe ing
Ġr ape
Ġb ins
pi pe
ĠÃ ĸ
Ġe ating
}$ $
or ers
Ind ia
": "
arri or
ĠC ell
Mod ern
er ie
Ġsoph istic
Ġto uc
18 42
he nd
ĠE lement
Ġred irect
) /\
ce ased
sen al
Ġadminister ed
ĠBr as
E ducational
Ġrecommend ation
Group Name
at ics
Ġc ant
ed e
ĠMaur ice
Ġd Ã©
Ġnam ing
W W
Ġcut off
ĠM old
S K
Ġpro ximity
Qu est
Ġas ymmetry
Ġan notation
do es
ĠIs le
ma xim
Ġmidfield ers
Ġs id
F i
ĠAn a
l ov
on ial
ĠBrook s
he ng
elect ron
Î ¼
est ure
Ġdraw s
s olution
ĠB ears
@ {}
Ġst eal
Ġhold er
ĠCap itol
ĠC rist
Ġe cc
con straint
ĠDe lete
Ġan onymous
Ġ_ .
ĠLe icester
ĠN ottingham
def er
Ġgu itars
OL D
L ists
B order
Ġam endment
Ge ometry
ĠB elf
Ġg amma
Ġpro c
ĠEx hibition
Ġ$ -\
der r
N ER
n atural
H ot
Ġh oped
Ġcharacter ization
ĠS uccess
W arn
Ġsl opes
ĠDirect ors
ĠĠĠĠĠĠĠ Ċ
"> (
der iv
ĠC ut
ĠMor r
Ġenter prise
Ġd ancer
Ġalt itude
Ġperman ently
scal ar
ĠH us
Ġassert ion
ĠPro gress
IC ATION
Ġrev ival
Ġadministr ator
Ġsuperv ised
ĠDomin ican
Ġh ur
\\ \
Pol ish
Ġgather ing
Ch anges
Ġliter acy
Ġcasual ties
Ġd inner
Ġun e
Ġinter active
Ġsynt ax
ĠG ir
att en
ĠCath olics
A ff
ĠM TV
Ġc ached
Ġy ard
ĠR ules
Ġfunction ality
Ġag enda
Ġutil ized
ĠC ategory
con e
Ġsort ed
Ġwid ow
ĠEv ents
fe atures
ĠM is
15 1
Ġpresent ing
Ġw ore
Ġpr ince
Ġrespons ibilities
Ġd ying
Ġinvestig ating
ĠMod ule
[ {\
ĠId ent
Del ay
Ġred es
DE X
ĠFl ag
Ġcor ps
Ġqu ote
18 36
RE SS
Ġrecru ited
anc a
ĠNiger ian
ĠS weet
ĠG ren
Ġh itting
Ġcongress ional
Ġc avalry
Ġp ace
ĠB row
P en
Ġconver ge
ĠShort ly
ĠU ntil
is co
RE CT
ĠStr uct
ole cular
Ġveter ans
ĠN intendo
22 4
Ġassert True
s ix
ex per
Ġcontin uation
z el
ĠCamb od
Ġdiscipl ine
Ġbr ut
op r
Ġb ell
Ġh ull
Ġindic ator
ĠJul ia
Ġrend ering
d anger
ge o
ĠF O
Ã§ Ã£o
Ġmyst erious
ĠHerz egovina
ĠCh oice
br anch
A ME
erg us
p q
Ġ( âĢľ
ha o
Ġflex ible
St ub
Ap pe
Ġcap ita
Ġprison er
ĠG Ã¶
String Builder
orm s
Ġkil ometers
ĠMan ila
if est
Ġreal ization
ĠCom ponent
Ġaffect ing
fr action
ĠPrinc ipal
represent ation
Ġwhe at
Ġcul min
Ġpars ed
p ars
ĠUr ugu
x rightarrow
Pro c
g ins
S port
Ġs ake
ĠStr ong
Ġ' #
Ġhon ored
pos er
Ġbreed ing
ĠL iv
55 5
V O
De ep
} ",
path s
Ġclass ifier
ST M
create Element
ĠN as
ĠW ol
ĠAd ult
Dep recated
Polit icians
be at
dat aset
N eg
Ġb rew
}} ^{(
ad vant
ĠMet al
^{ *}
ĠFranc o
ĠKenn eth
ash ire
Ġag gressive
Ġdual ity
M ut
Ġgovern ance
Brazil ian
cons ist
Execut or
Ġment ions
Ġf older
Ġb arr
Ġnomine e
Ġhe ll
Ġab olished
ĠC apt
Rep resent
ĠBa iley
. ]
18 32
Ġvis ibility
Ġview ing
Ġf ed
el ong
M u
Ġpl acement
C le
20 5
ett es
20 8
Ġnational ly
ĠPak istani
Ġdefin ite
Ġterror ism
elect ric
ĠArm strong
Ġcyl inder
\| _{\
R ules
( $\
c ock
14 9
Ġaffili ate
ĠAdd itional
ĠSol omon
Ġinfr ared
g al
ĠSh ield
ĠRail ways
IL ITY
Ġb ucket
Ġmem brane
Ġconjug ate
Ġwrap ped
}$ ;
R en
to oltip
mod ern
ĠD y
sm ith
Ġhom osex
Ġreleg ated
Ġen abling
R UN
As ian
×ķ ×
ĠEm ma
ĠVAL IGN
Ġim g
ĠL ok
gr and
ĠBy te
P ak
ĠRichard son
Ġpi pe
TI ES
Ù ĩ
Sc ore
ĠProt ocol
fr agment
Ġext inct
ĠL E
Ġdi et
ht bp
U pload
ĠProv incial
15 4
ĠD uncan
Ġcomed ian
ARN ING
Ġperform ers
Ġfavour ite
ĠEx ped
ĠH ale
Ġdesign ers
Ġins pection
ah a
æ ĺ
Ġd ancing
R oad
LE MENT
and ed
Ġmain land
Ġcomput ations
ex isting
Ġadj oint
Ġlock ed
C ath
] _
Ġtr apped
Ġrect angle
s ymmetric
Ġadvers arial
to o
ĠAndrew s
è ¿
ig i
script s
C ancel
ot ypes
ĠInd igenous
Ġinterpol ation
ĠBl ake
manif old
pend icular
s an
idel ity
it ian
Ġadvis or
ĠKum ar
g lob
ĠPhys ical
Ġwe aker
Ġevent ual
en vironment
Ġgl ac
pro c
Ġexpl oring
Con struction
ĠP D
al one
Ġte a
scal a
Ġprotect ing
ĠD ise
part ition
he imer
Art icle
cass andra
RE SU
Ġind oor
iss ible
ĠForm ation
Ġas h
Ġb ubble
Ġmod est
kin son
Ġshel ter
Ġtr act
Ġlik ed
ĠCl ose
Ġlisten ers
Ġimp ression
w iki
Ġig et
ĠGr iff
B its
ĠB S
B reak
uff ix
Ġw age
Ġdet ectors
ĠLore n
con vert
sh i
Ġadv ances
ĠC openhagen
ĠO P
Ġinvest ments
BO OL
Ġso ap
Ġdisappe ared
es ar
Ġcompl aint
cho ice
set length
Ġgu ards
unt ed
Ġ& #
Ġster e
Ġimport ed
ĠEnter prise
res olved
ĠLog ger
Ġvocal ist
ri ent
Ġnation wide
= }
Co in
ĠKr ish
r ise
od el
Ġ' "
Ġsuccess ion
Ġsett le
Ġactiv ated
ct uary
ĠS aw
Ġtri angular
Ġ' _
ĠHe aven
Ġtheat rical
ĠT ir
ĠSh im
Ġmole cule
Republic an
W at
Ġe cosystem
CC ESS
ĠR ut
L F
Ġb acteria
Ġnumber ed
ĠE M
Ġide als
Ġm a
ĠCorn wall
ĠBou levard
(" %
Ex tra
Ġpair ing
ĠĠĠĠĠĠĠĠĠĠĠĠĠĠĠĠĠĠĠĠĠĠĠĠĠĠĠĠĠĠĠĠ ĠĠĠĠĠ
ad v
ĠM ead
ist on
ĠEm ily
le ys
ĠPar se
it atively
Ġrel atives
second ary
ĠA ch
Ġsp anning
ĠCommunic ation
ĠBry an
v ation
Ġrad iative
allow ed
P ack
col span
ĠTw enty
p ent
pect ives
Ign ore
ĠG othic
ĠSim pson
ĠB ec
Ġr ifle
Ġflow er
Ġin cur
Ġcon qu
Ġbeat en
16 6
ãģ ®
ĠB od
Serv let
ĠP ars
ĠCa uc
ĠLead ership
+ |
Ġa xi
fr ames
Ġhousehold er
Ġconf ined
B ay
Ġdef ect
inter action
Ġt ickets
Ġneg lected
link ed
sign al
Ġinv ented
Ġser vers
ĠÐ ½
Ġdiagn osis
Aut hentication
B rown
ĠG em
ĠRol ling
got ten
ĠSt yle
Ġqu bit
Ġin cent
Sw itch
Ġconstruct ing
ĠBi ography
F ellow
ĠL abel
ĠT ampa
id ays
ĉĉ Ġ
ĠPop ular
K h
ĠCy cl
Ġimprison ment
ĠExp ression
ĠGlob e
ĠN N
mont on
aw i
c amp
Ð¾ ÑĢ
Ġcogn itive
i ab
Load ing
le z
ĠAb b
mut able
W atch
Ġh ate
Ġpurs ued
Ġclot hes
Ġv in
ĠPl anck
ĠY an
r ant
ĠP sy
C SS
rel ax
ĠChar ter
Ġin ad
20 4
ĠS Y
ĠA ri
And roid
ĠDo es
L y
G i
Ġun changed
row ing
vent ions
Ġpres erves
3 30
Ġsens ors
Ġwitness es
Ġgot o
br acket
Ġpoll ution
Ġre write
og o
ian ces
add ed
ĠAcadem ic
S om
s elling
v ectors
ĠAb original
re ts
trans l
Ġobtain s
Ġprocess or
ap ur
' (\
at ta
ag in
en es
Mon th
BL IC
b ibli
\' {
ild a
Ġstri kes
Ġcolon ies
pl ant
RAN TIES
c u
ĠD iana
ĠL I
ĠPl ate
Ġin ert
Ã¨ s
it ic
ĠBrad ley
Ġstrong est
ap y
16 7
Ġb ills
Ġfe ud
icy cle
ous el
Ġdiscre p
u uid
ĠV ers
aj i
$ =
Ġinteg rate
Ġoff ense
99 99
Ġdiscuss ing
Ġdepict s
z ier
ĠH urricane
Ġtel escope
Ġlegit imate
T Y
Ġsk ew
Ġdegener ate
P N
Ġadapt ive
Ġnovel ists
f ollowing
Ġathlet ic
Ġwalk ed
Ġpit ched
ĠCol in
Ġlo ans
av o
Ġconclud es
sol r
sd k
Ġl y
ere k
l st
Ġback ward
ĠEd mund
ĠLet ters
I p
li um
ĠCon nection
L icense
w y
d eb
Ġdraw ings
man agement
omet own
ĠW eyl
D eb
ĠM iles
Ġgrad ed
Trans lation
u ins
__ )
ĠP orter
ht b
Ġle x
Ġsp ins
Ġh alt
Ġlong itudinal
ĠWAR RANTIES
ta x
Ġ uri
s amples
ĠAl bums
bo at
Â ½
ore n
Ġpres idency
Re ason
Ġoccur rence
ll er
itt en
Ġb ra
m os
Ã °
ern er
ĠU RI
Ġrock et
Ġbe er
Ġneutr inos
Ġgrand son
ĠS ession
s chool
ur ities
Sn apshot
ĠG ol
ump y
Ġharm ony
Ġdisband ed
Ġrele asing
In c
c art
ess ment
ific ant
Ġf ung
necess ary
Ġsur veillance
ĠTy ler
Ġecc entric
Ġs its
15 6
] ).
Ġin complete
Ġb eta
ĠGib son
ĠMathemat ics
Ġch ip
ĠK arn
mat ches
Ġball ot
ĠLes lie
EN V
ĠW ool
th ood
Ġavoid ed
Av ailable
Ġstruct ured
Sup ported
Ġdiv is
g io
Ġisol ation
> ${
db c
Ġbe aring
p ref
Con v
Ġsurpr ised
l ic
Con vert
Ġemploy er
ĠT at
Ġbar rel
Ġtrav elling
ĠH od
ĠH arm
M ov
EN ABLE
Ġbox ing
Ġt sd
Ġem it
ĠSher iff
}] \
in ite
Task s
in ject
g auge
Ġinter cept
Ġdr ain
%%%% %%%%
Ġwarr ant
ĠAll an
ĠFif th
B rien
ĠD I
Ġneighbour ing
m ov
ĠDemocr acy
RESU LT
You ng
R o
opt imal
t bl
Ġover head
ĠL t
Ġ| =
Art icles
Exp ress
x sd
ĠPal m
G od
15 7
air y
cor relation
Ġbrig ade
Ġt ile
ĠGl oucester
por ate
ise cond
ĠD oll
Ġin vert
ĠV ert
Ġexp ense
Ġcontact s
pe g
Ġpol es
Ġvict ories
s it
quest ion
get String
Ġmob ility
Ġsyn onym
Ġsculpt or
< >();
Ġt ent
Ġb is
n ut
ĠI BM
cur ve
ĠG ael
Ð¾Ð »
Ġmethod ology
list ing
Ġpra ise
e eq
alt Color
Ġlect ures
all a
UT C
dimens ion
ul ators
ĠCre ative
sc apes
Ġexp enses
d evelop
Ġsub sc
K im
Ġreal m
Ġsub scription
Ġan ger
ĠV a
ic ers
unn ers
ar is
ĠTr uth
ĠHind i
Ġinstitution al
}}\ \
ĠGl enn
) ~
K L
Ġen larg
Ð ±
ĠGer ald
ĠPresident ial
ĠC V
ĠDisc overy
t oc
ĠL ect
Ġleg ally
ĠPer iod
ĠWy oming
Ġpl aint
Ġanom aly
Ġcon ce
Ġus ername
ĠIm ages
Ġc oding
Ġf ires
rest rial
it ary
? )
renew command
Ġnephe w
ro uter
Ġar ithmetic
ĠHigh land
P DF
å Ĭ
Ġh urt
CO M
h urst
Ġgl uon
G LE
Ġdemonstr ation
n Ã©e
Ġ- =
ĠCom plete
Res et
ir us
ĠTh an
Ġaut obi
ĠD ale
enc il
Ġscript s
ĠRun time
atern ity
be ans
P aint
(' <
Ġreb ellion
Ù Ĭ
process or
Ġcommut ative
ĠCelt ic
Ġm im
Ġcount ed
Ġembedd ings
Ġr ays
in j
Ġb eneath
ĠN otes
ĠF inals
Ġsh a
ĠC ann
ĠM ob
ĠF ut
Ġachiev es
que z
Ġen velope
pl oma
15 8
): =\
Ġer g
Ġv it
') ->
cam el
H aw
ov al
Ġbr acket
ST AR
ĠWar wick
ad apt
Ġcan on
med ium
y u
ĠAl pha
col m
l c
clud ing
M AN
not ify
ĠEngine er
Ġhist ogram
ess el
ĠCh uck
Ġsupp ression
Ġam end
}} +\
Ġtouchdown s
Dec imal
system s
" ];
ag le
Data Type
Ġlik es
M N
Ġout lined
ĠClass ical
g tr
Ġm eth
ĠIll ust
p es
ĠGrad uate
Ġaccompany ing
ĠW ak
enn ium
R h
ĠMar in
ur an
ĠOr lando
Ġc b
Ġse ized
ĠIn spector
B on
ĠC av
ĠG W
ian i
ĠIn g
ĠU t
Ġfar ms
ĠMat rix
T urn
get Message
ab is
Ġret iring
ĠT rip
Ind ividual
ĠTrans it
' ,\
ĠVal ent
ĠR overs
Control s
Serial ization
D ynamic
ĠH E
Ġ ì
Enc oded
is le
Ġsear ches
ap or
Ġke V
L es
enz ie
Ġprevent ing
ĠK om
eck er
Ġlegend ary
ĠT ennis
b ay
Ġ[ -
ab ases
Ġcompr ised
ĠTreas ury
Ġib n
Ġtri ps
Ġin ev
Sh ift
Ġbot an
ĠM otion
Ġper pendicular
Ġexclud e
Ġenhance ment
ĠT iger
ĠA er
un ks
ĠCour se
or ic
Ġfavor able
Ġde alt
C itations
k al
E mb
ĠR elease
p ad
et erm
18 34
ĠA A
Ġsl ide
I sl
V ictor
Ġpropag anda
ĠEp isode
ĠCr us
est im
Ġnot ification
ĠGu ards
Ġadv ised
Ġthread s
Ġd ish
Ġ! !
Ġre vision
Ġ-- ></
Ġref resh
ĠTre k
adem ark
Ġeduc ator
Ġcle ared
\!\! \!\!
H o
Ġrest art
ĠLou ise
ĠEthiop ia
ographer s
Ġextra ordinary
ĠLet ter
> ;
ĠA x
Ġep ic
}} _\
Polit ics
Ġmyth ology
Ġ )\
jsp x
ĠK ids
Ġ# {
ĠA part
din and
ol ith
Ex ecute
en ary
Ġb er
Ph ase
ss l
au i
ĠRobert son
Ġfaith ful
ĠAh mad
Ġdro ps
ĠA udio
Ã¡ nd
d st
ĠBur ke
Ġrenormal ization
autore f
Ad v
ĠB ever
est e
Ġinter ven
Ġatt ach
per cent
Ġfl ank
loc ale
tract or
ĠL ip
ĠManit oba
ĠS EC
cont rolled
ĠAlb ania
ar re
ĠCon v
Ġadjust ed
andid ates
ĠProgram me
Ġcust ody
ĠP arent
Ġsculpt ures
ĠCh ase
Ġcomp ress
}} -
18 5
class ical
ĠS NR
ĠCom par
Ġpod cast
Ġs iblings
ĠIn valid
Ġco ached
ĠK aren
ĠBer k
ien ne
ĠN ormal
Ġ" ${
q ed
N orthern
ĠE g
Name Link
o que
iffer ential
Ġtr ig
Ġinter faces
get Class
ron es
BU FFER
}, \\
ec a
W ood
he ne
ĠInnov ation
or ange
ph ant
Mon itor
ĠMont eneg
) '
Ġkill s
ĠBir th
Ġdiplom at
Prior ity
L IN
ĠX X
re ne
Ġthink s
clud es
NO DE
ĠP or
ar ag
ĠL enn
l ane
ĠTr in
Ġland mark
ĠĠĠĠ čĊ
ack now
L ines
Ġtribut ary
ad os
Ġmark ing
em ption
Ġco res
ĠK urt
Ġbranch ing
ĠAg ent
Ġre lying
Ġs ender
Ġin scription
ri ans
Ġmur ders
iv ariate
in verse
paren cy
BA SE
Ġsp ite
Ġin quiry
ĠH ousing
un ches
Ġintegr ating
ĠT anz
Ġimpro ves
æ Ī
ĠH off
ĠAppe als
ĠU tt
18 15
Oper ations
sc an
Ġbu ying
Ġsingular ities
S to
ĠQu art
ĠPublic ations
ĠLanc ashire
ĠN u
section s
Ġwild life
w ire
ierarch y
ĠLux embourg
ĠS ave
Ġl ag
ĠP om
ĠYank ees
ĠCan terbury
AV E
ĠE val
dis cover
F ri
ĠB anks
~~ ~
Ġinf ected
C s
Ġwork shops
A MP
ĠEston ia
q a
s ent
Ġneighborhood s
R M
Ġtalk ed
m ms
ĠI stanbul
ad h
ell ites
ne z
ĠS hen
Ġemphas ize
H aving
ĠS ob
ĠGu ang
z ed
ĠR ole
Ġinter im
m r
ĠN atal
k le
ĠCal gary
ĠO K
osp ace
Ġprec ip
ian e
Ġ\, .
P ier
Az ure
15 3
Ġk ings
Ġtransport ed
Th m
aff e
Ġhard er
Ġdepos its
Ġenorm ous
Ġcontribut es
Ġspr int
comm ut
ĠD ob
ĠC ome
ĠB ound
Def ine
Ġby pass
ĠS SL
um ably
Ġcap ac
ĠMc Donald
Ġen force
Ġoptim ized
oc cup
Ġw ishes
ĠHe ath
ĠWrit ers
any on
ĠV III
Ġc ock
iv ot
Ġseem ingly
Ġto m
im i
ĠH aven
AR G
dec ode
Ġb out
Table Row
Through out
Ġarray s
ĠCons ult
ew ard
Ep isode
DE C
ĠLind a
ĠCoal ition
ĠAr ctic
U A
ing ing
ĠC i
Ġd ots
Ġexpl aining
Im ages
Ġpoly mer
ĠDev il
ĠC redit
Ġtow ers
Ġthe ology
17 2
anc o
Ġaddress ing
ĠF eder
Ġillustr ates
Ġcomplex es
Ph ot
L arge
ĠR ush
atter ing
Ġprotocol s
ĠY emen
ell ation
Ġpresent er
Ġrap per
l ift
w x
ĠE RA
Ġlink ing
b age
Ġbr illiant
ĠEm my
Ġp ounds
}) :
( /
Ġpolit ically
ret ch
ĠCon st
ĠK err
Re act
ĠCzech oslov
ĠMA X
ep per
Ġwork shop
E c
Ġlif estyle
Ġcontext s
m ology
$ }\
N atural
ĠN om
ĠZ ero
h pp
^{ [
ĠW arriors
con cat
Ġkill er
ĠInter view
Athlet es
Ġsal ary
Ġcl ay
greg ate
ĠH els
ĠN acional
m itt
Ġbad ly
Ġ âĢĻ
ĠNot re
Ġbur ial
Ġpup ils
m eter
ĠS ym
ĠD j
ĠInter ior
st en
Tem p
Ġexponential ly
}] $
ĠT ABLE
ĠL omb
Ġsn apshot
am ar
ick ed
Ġreg imes
Ġdev iations
ĠCont est
ĠM Ã©
Ġparticip ant
File Name
es ch
ĠM ales
att ing
Ġdiagn osed
á Ģ
Ġsign atures
Ġvo iced
Ġdemand ing
ĠChel sea
Ġthe or
ext ensions
ĠS qu
Car l
Fig ures
Ġh ind
Ġsomew here
, }
Cre ated
ac ion
Ġapproxim ations
D ITION
vers al
}_ +
Ġfl ip
ĠF ALSE
E th
R F
ĠW end
Ġcounter parts
Ġprohib ited
Ġgu ided
ograph ies
ĠS ize
à ¹
Ġh o
ĠAmer icas
ĠPop ulation
Ġinterview ed
ĠESP N
ĠC avalry
Ġarg uing
ĠD um
Ġwarn ed
un ting
ĠT OP
ĠFern ando
s ources
ĠP T
s il
Ġe ject
Ġex ile
ogn ition
ĠBened ict
I ce
Ġb ats
ĠField s
pr inc
Spe ed
Ġthir teen
gener ation
in ia
ĠS K
50 1
iling ual
k ip
ĠHe at
r ice
Ġse cre
ĠK lein
ĠR as
Ġam id
On line
ĠS ons
IN VALID
Base ball
m ys
ne apolis
A ctions
Ġc f
Ġan ch
ĠPh arm
ĠSt akes
Ġant is
Ġspeed s
Ġ( %
Ġcat hedral
ĠCoul omb
ap prop
Ġtem ples
Ġprompt ed
Ham ilton
Ġbankrupt cy
Un iform
ond s
Ġident ifies
HO UT
k el
ĠT I
ĠInter state
Ġperturb ative
ex tr
alk eeper
h h
Ch apter
================================ ================================
Ġhop ing
sh ifts
Ġtre as
ĠGu itar
Ġadm ission
ge ometry
Ġt uning
ĠG O
ib ling
ĠCol lections
Ġwe igh
ĠFilip ino
Ġg a
ym atrix
if s
TH E
18 31
Menu Item
Ġe V
ĠSh ore
Ġsur render
) ~\
Ġdoll ar
annot ations
}) ^{-
ĠGr ass
ĠBurn s
' "
Ġhe ir
oy a
g as
ĠR iv
W C
ĠWor cester
CRE ATE
ĠContin ental
}$ ),
Ġg aps
Ġcalcul ating
Ġrom ance
Ġterr ain
Ġpurs uit
Ġmer c
rid or
ĠIss ue
16 4
Ġp ink
Ġfre estyle
Ġeng aging
ĠSw ift
e V
FFFF FF
Ġwithdraw al
Ġiter ator
ĠOther s
Ġrefere e
Ġunder went
en stein
Con clusion
ĠM ang
z ens
Ġexp ans
Ġtw isted
ĠHol ocaust
Ġtermin ology
ĠPres byterian
Ġeval uating
ĠLiber ation
Ġmod elling
Ġserv ant
ĠUs ed
ott i
c ia
ĠM emphis
ash ing
sin h
SS ION
Ġpick s
ĠH ab
Ġsac red
Ġlocomot ive
ĠPh ase
tim eline
ĠBarn es
á ¸
ĠR ather
Ġisot ropic
Ġsymbol ic
3 65
Ġun ified
Cal endar
ide a
ĠD ew
Ġa fore
th umb
Part ition
le af
] </
." )
ĠJer emy
ced es
0000 0000
ĠCh ad
Ġcr ashed
Ġreb els
g m
Ġpro jections
Ġmin eral
unit Pattern
Ġelim ination
pr agma
Ġtrib al
Ġfit ness
Ġbe ings
ass er
Trans ition
Ġmand atory
c ategories
Ġmus cle
Ġhead quarter
Ġsimilar ities
Ġdis patch
Rec ent
ĠSur rey
IT LE
Ġd ressed
Ġspread ing
if fin
40 1
Sh ader
g if
Ġrel ates
Re pe
Ġcy ber
ĠR ib
ht ra
ĠS event
Ġsw ord
ĠSum mit
Ġb undles
li o
Ġhom eless
H ave
J on
pr ice
Ġshould er
if a
Ġform ulated
aged y
' ].
Ġneur ons
k ok
Eff ect
T imes
und ers
>< !--
n od
**************************************************************** ********
ev o
å ľ
oy e
abl o
ĠPsych ology
Ġcr uis
Ġhon ours
Ġtour ists
Ġax es
ivid ually
B and
ĠT error
Det ector
og g
Ġfemin ist
ĠR M
Ġafter math
Ġcatalog ue
es se
Ġv ault
the ir
Work er
n is
P K
g ue
00 3
ik er
log ical
Ġless er
ãĥ ¼
: /
Ġs ew
ĠEp iscopal
Ġconscious ness
f older
ĠB allet
Ġstr at
Con tract
Ġmulti plic
Ġmist ake
Ġkit chen
red uce
22 2
local host
it Hub
Ġbroadcast s
Ġundert aken
Tur k
B ern
h ydro
Â »
Ġe gg
Ġins ights
Ġt aste
Ġp ec
ĠT rent
Ġep it
Ġv ig
Ġgram mar
I ES
In struction
Ġs or
Ġgrad ients
ĠPlay Station
an mar
let te
p aces
ĠAnd ers
ĠGu atem
Pop ulation
}$ :
ĠV ision
L ev
ĠNe uro
5 50
Ġgen uine
Ġr iders
Ġcorn ers
ĠK ind
ĠFrank furt
ĠEv angel
ĠHend erson
C lean
as ive
Ġd st
Ġsaf ely
}\, ,
ĠAgric ultural
Ġsix teen
\\ [
Ġillust ration
ĠA uth
Ġhum or
ĠCh in
r ab
Ġind uce
With in
G D
Ġoverl ook
TER N
D TD
ĠIn side
Ġk nee
ĠChe ss
Ġn ested
Ġround ed
acknow led
l ar
Ġl ip
Ex pect
-------- --
ĠKE Y
Ġplan ar
Ð ³
}) }\
att i
ĠWag ner
16 3
ay e
18 33
Rec ords
cos h
f erm
TO M
Ġrevers ed
ly m
be am
cl i
Ġdis ability
Ġpriv ately
] ^{\
ĠParalymp ics
conv ex
p n
im ming
D a
ĠN uclear
Ġimp ressed
Mod ified
M obile
g ang
}} ^\
Ġcomm ittees
Ġsur pass
Ä Ľ
Ġinvari ants
), (
ĠInit iative
Ġcons erv
Ġtri o
charg ed
{- }
ĠAd rian
Ġconv iction
Ġg amb
Ġch orus
ric ia
gu ide
g ement
ĠE ye
ĠAssoci ated
S ar
er als
ĠF R
ord e
Me V
Ġst ones
Ġt rem
Ã± o
Ġinfer red
P a
b eq
ÑĢ Ðµ
he y
habilit ation
c ats
}{ $
Mark er
ĠF emale
ĠD epend
Ġequival ently
Ġtransform s
ĠB io
Ġadd itive
Ġmot iv
ĠBelf ast
c us
Ġdiscover s
oc om
ĠCon sole
Ġsophistic ated
ĠB il
ĠI sh
Ġ* ,
Ġ` ``
ĠÐ º
C AC
Loc ale
C trl
ĠP HP
ĠF ergus
Ġrect angular
Ġre bounds
ĠNad u
utt le
un ate
ĠM ilton
ĠStr ucture
n h
v iv
Ġf o
Ġob l
Ġshe ep
Ġ um
iev e
bal ance
ĠExcell ence
ĠF antasy
Ġsent iment
Ġcomb in
P ad
ĠL it
Ġan s
ĠK iss
col head
ĠFight ing
! ,
P et
l if
3 75
Ġdiscontin ued
ĠArg ument
uc ci
ig nt
Ġinitial ized
== =
ĠCl aim
r ases
ĠIllegal ArgumentException
) },\
p k
() ]
Ġassemb led
it Ã©
^ *}
- $\
Ġspec imens
Ġevery day
Music ians
Ġcorpor ations
C zech
ant le
ins ki
Ġtechn ological
Ag IC
Ġdub bed
ref resh
1 200
po i
rg b
un lock
ĠL odge
Ġsh ar
Ġreg istry
Ġcomp atibility
Ġutil ize
ĠS equ
Ġflux es
ĠA ws
U AL
ver ify
Ġcons erved
Ġgener als
ĠAchiev ement
on ey
Ġfar mer
Ġar rows
establ ished
ĠF an
Ġnorm s
Ġred und
ink i
Sc ience
var pi
Ġrefer enced
il ion
Ã¤ r
ĠC elebr
f u
l ore
}} }{\
stit ute
hom ogeneous
ĠInd ividual
resize box
| {\
le en
ĠEll en
Ġm oll
ĠRel igion
Ġdevelop s
Ġdes per
log y
Ġlimit ation
m icro
Ġd ign
30 4
2 12
C AP
ĠB alk
Ġb ol
Ġpregn ancy
Ġcompar isons
ĠSy mbol
Ġpl enty
An not
Ġfre ight
ĠBar b
ĠMorr ison
Ġcon gregation
ĠMy anmar
Mat cher
communic ations
Ġd ock
). $$
ĠExped ition
B uf
Br idge
ĠC e
Ġw reck
23 5
w on
Ġs ink
ho o
ĠAlexand ria
w ald
Ġqual itative
ex ecution
Ġstation ed
Ġquestion ed
Ġacc us
ann ers
aid en
ĠEmer gency
Look up
amb o
Ġa erial
ig roup
ag ic
Ġdet erior
ĠE t
Ñ Ī
Ġop posing
w ik
un ar
rais ebox
br anes
th us
ĠZ ion
Ġh ometown
Ġcred entials
ĠStaff ord
am on
ĠBel grade
ĠÂ ·
d ad
Ali as
M Hz
b eck
Ġterrit orial
Ġ' ,
ĠCom mercial
ĠTe V
Set up
Ġd w
d ocker
ĠM ing
up iter
rosso ver
ĠB log
ĠCar roll
Ġdam ages
d ynamics
Ġh i
ĠM uk
ĠMar tha
Ġaccept ing
Ġhelic opter
ĠR out
the m
hard t
amm ad
ĠH ey
Ġline up
Ġelabor ate
_{ (\
Ġend ors
unic ipal
v t
Al pha
ĠLyn n
not ification
Ġpl ural
anc ies
en za
Ġcharacter ize
pos able
ĠBer ry
Ġafore mentioned
E nergy
Id x
desc ribe
ĠT err
Ġpre vention
... ]
ow ards
erm ark
Ġoccas ional
P rem
uff le
ĠCurt is
tr ation
16 2
Ġem otions
Ġe leg
ard e
Ġup set
Ġc uisine
gtr sim
ĠPl aza
17 7
en ic
St an
ĠPro blem
com parison
Ġpre y
}} )\
ĠGeorg ian
ĠInt roduction
gu ard
Ġaut hentication
20 9
Al ert
L ear
ier i
ĠR ele
ĠVat ican
U pon
con current
Ġf Ã¼r
Ġup graded
V an
ĠJohn s
ĠAd ventures
Ġhard ly
Ġnon trivial
]{ ./
Int ent
! </
hold s
! âĢĿ
Ġsp y
' }(
Ġfail ures
ĠBel le
Ġshell s
Ġexplo it
he alth
Ġthere in
ĠB AS
ĠLuc y
Ġmanuscript s
Ġselect ing
ĠLud wig
ad ors
Ġsurn ames
F s
ĠGr id
ĠA G
ĠK ab
ĠCarol ine
ing ers
ĠSlov enia
r us
ro ph
pl aced
Ġfound ations
abet es
ĠI g
ug a
Ġw are
Ġkil omet
ĠWe ather
block s
ĠSum mary
ester day
ĠH AL
ĠR um
Ġc otton
Ġess ays
head ed
Ġw ound
ess es
Ġprint f
Ġcaus al
ĠZ ag
ĠLe op
cl ub
Ġprot agonist
fil ters
Ġj oy
lin ux
di agonal
Ġsimpl ify
ĠR N
Ġfour teen
ĠNew port
EN TRY
asc ar
Ġgr ab
Ġdies el
Ġg ods
Ġlift ed
20 6
27 5
ĠD ow
Ġqu it
AT URE
ĠMaced onia
ĠPl atform
in ar
Ġs ailing
Ġemploy ers
H K
H op
Ġstep ped
ĠChem istry
Ġ' -
SE C
99 9
23 4
pt ical
Ġslow er
Ġfurn iture
Ġbul let
Ġb arriers
ĠC ay
Ġcarri ers
Ġa fr
am ous
Ġmon uments
Ġdiv isor
Ġlog in
EV ENT
Ġcondem ned
Ġrel uct
DE D
ĠEug ene
Ġin clusive
ad al
ĠL HC
Ġstrugg led
Bel g
Ġb ipart
Ġlo ose
ĠCor p
Ġacadem ics
Ġsub graph
US Y
Ġmission ary
ĠLy on
Ġ Ã©
Ġcare ers
Th ough
ĠConstitution al
g em
Ġon wards
ĠCh al
Ġbur den
E t
Ġhand les
Que en
ĠBe a
Ġdeleg ation
ĠV ery
ĠS erv
ip es
Ġtreat ments
Ġreven ge
15 9
Ad ministr
with in
ĠSlov akia
FLA G
ly mouth
âĢ ĭ
+ }
ct r
ĠN urs
Ġflo ors
ĠElli ott
l is
ĠP iano
ev olution
fe at
ĠMar shal
Cal ifornia
}} }}
16 00
ath am
Ġperform er
Ġasymptot ically
Ġto b
ĠBas il
Ġr ivals
Ġstrugg ling
pay load
Hung arian
ancell ation
xi ety
aver age
ĠC ort
con tr
Ġr idge
17 6
Ġfor um
grad le
ĠGi ovanni
Access or
Ġtack les
m ons
ĠÐ ¸
18 25
È Ľ
m itting
ĠR ica
fin ity
Ġreflect ing
ĠT D
im edia
ĠE k
Ġaccept s
l ap
ĠU nd
Ġroll ing
ĠH err
ĠP am
Sim ilar
ĠNik ol
Ġt actics
t one
ĠC el
ĠNap les
ĠK ang
ag ne
Do ctrine
ĠC od
ĠHand le
Ġm ood
Ġb apt
rt l
Ġcomfort able
Ġprof its
Ðµ ÑĤ
Ġl oves
yst yle
g ls
ĠM ale
Ġp unct
red irect
sw orth
Ġmulti plicity
rot ate
ĠR ican
ĠPl at
All oc
Ex ec
y ang
ov i
ĠAntar ctic
Ġs el
Ġassass ination
D isk
ĠL ar
jack son
Up dated
Beh avior
ble ms
Ġco arse
Ġl ig
ĠG ospel
l um
ra ise
amb a
St ates
Ġprem ises
Ġarbitr arily
Ch ris
Ġimm une
che l
30 3
ĠKing ston
ĠLuther an
ĠBay esian
Ġh int
ram id
ĠGre ens
L os
Ġcomb ines
Ġb oot
ĠK yle
c atalog
x ymatrix
S eq
4 80
Ġpro secution
And rew
Ġper f
Ġconvent ions
am oto
ip ur
Ġtend ency
Ġloc als
ĠX I
> '
ole y
t ile
Ġdec oder
AC ING
Ġdream s
Ġincorpor ating
Sche me
re cur
Ġstreng ths
ev es
ĠB in
Ġflood ing
/ )
Ġl oud
ĠDr um
asc ular
mult iple
A BC
ĠL ik
26 4
Ġprop ri
100 00
Ġtri angles
F actor
Ġb if
ve ction
Ġpat ches
Mar shall
Ġlab elled
M IT
w at
equ ilibrium
__ ,
Ġjust ify
Ġsummar ize
Ã µ
Ġgen res
Liter al
ĠColon ial
3 40
ight ed
! (
Ġn ights
ac ements
Amer ica
ĠN ull
W ild
16 1
Ġspec ifies
^* (\
}= -
Ġdisput es
ĠC ord
Ġdi agnostic
se ed
Ġsub mission
ĠRich ards
Ġconcept ual
ĠFr aser
Ġdown stream
W F
r ates
G AN
ĠP rec
Ġgrand mother
ho e
Ġexperiment ally
Ġconfigure d
ĠB oeing
ĠG ross
pro port
Re ceived
6 50
Ġmot ions
Ġvari ational
Ġoverwhel ming
g re
Ġcustom s
Ġdetermin ant
t imer
Start ing
Ġal umin
ĠI o
ĠCom bat
Ġphot ometric
ĠA V
Ġcont our
Ġenz yme
s om
ĠTh r
integ ration
Ġst aged
ĠFl ash
ĠĠĠĠĠĠĠĠĠĠĠĠĠĠĠĠĠĠĠĠĠĠĠĠĠĠĠĠĠĠĠĠ ĠĠĠĠĠĠ
Ġv oyage
Ġencour aging
role um
Ġr amp
18 29
Ġrain fall
add Class
17 8
Ġrele vance
ĠLiter ary
ĠA way
if ax
Ġmes on
ADD ING
og gle
str ict
Ġil leg
ĠImm utable
design ated
Ġe uro
LO C
en ario
18 24
Read y
cal c
Ġsome how
Ġmass acre
end point
to ok
Track er
STR UCT
Ġsuppor ter
Ġfin anc
18 28
equ ivalent
ĠC anyon
ip zig
i ership
ĠQ ing
Hash Map
P acket
Ġany way
Ġvirt ue
an ions
ĠT ales
Ġadvoc acy
Ġf unny
ĠBas in
* }\
Ġem itted
ĠD ud
ĠS isters
Port ug
ant o
iz ational
ĠDr ug
ĠBur ton
Ġhar vest
Ġapproach ing
stad t
ĠJul ie
Ġli ability
Ġru ins
ĠR oc
ast ed
ĠFer dinand
e clipse
ĠR oth
ess ing
Ġcur ved
Ġhot els
C annot
ĠBeat les
form ula
s ided
ĠUSS R
bibli ograph
Sc an
ĠLicens ed
Ġjust ified
Ġquant ization
Treat ies
ĠS ed
ĠH ood
Top ic
ĠA bs
ĠV iv
}\, .
Ġfix ture
ĠD ylan
Ġsqu ared
J ournal
Ġapproxim ated
Ġins ufficient
ĠLyn ch
ĠE T
Ġsen ators
G er
rend ered
Ġun ited
Ġsocial ist
Ġtoler ance
et c
ĠK end
17 3
ĠA ircraft
ĠConstant in
ĠV id
vari ables
Pe er
p ixel
Ġp c
Ġir r
associ ated
com ments
ĠDep ression
ak o
ge ons
K ernel
ne um
ĠP si
Ġr ises
Play ing
L ang
s ure
Ġhas n
Test ing
LO AD
Ġviol ated
ĠParliament ary
Ġdomin ate
us hes
Ġemer gence
Ġs ulf
Ġeth ics
m us
Ġcell padding
Ġpar as
Pr iv
al an
Ġdeleg ates
Ġm eter
Ġsc ar
ĠBl u
rit z
Ġman ually
D istance
)} =\
ros se
f ailed
ĠL ed
ĠHead quarters
Ġstrugg les
Ġingred ients
no frame
list ener
ĠÐ ´
n as
)) =
bibliograph ystyle
Ġfa una
âĶ Ģ
lat est
ĠT aking
Ġmetall ic
k now
Ġon set
ĠAnd rea
B ir
ĠH ull
Ġr am
S ig
For ce
Histor ic
esc u
uk u
op acity
C over
I EEE
Pr ice
Ġdram atically
ol an
Ġacc idents
à ´
ĠP on
ipe g
ĠD w
Ġpract iced
Ġlect ure
ĠS ales
` )
Ġp ension
Ġmod ulation
sh ots
A ud
M utable
ol ate
Ġgirl friend
ĠSw itch
g raphics
m ile
Ġc c
Ġninet eenth
Ġinvest ed
Ġproceed ed
Ġn ose
ĠP Ã©
Ex it
Ġdefault s
Sc ot
Ġc ere
Sub ject
ĠDub ai
è ¡
Ġen listed
get Attribute
Ġm arri
l int
{ |\
New ton
google apis
c ookie
ĠR ac
oret ical
found land
Ġpush ing
Ġrobust ness
Ġopen ly
Bur ials
Ġcapt uring
Mult iple
Own er
aras htra
ann ah
Ġfeed ing
ur c
Ġaut umn
Ġl ady
fr astructure
ĠPl us
car bon
Ġpropag ator
P ADDING
Ġap olog
ins k
Ġmin us
): =
ĠW H
inter est
Ġcompl aints
up dated
ĠUn less
C y
v v
Ġâ ĪĴ
ĠMar ion
and i
att ices
% ).
ĠP ret
ĠR egin
ĠTri ple
st ars
}. $$
CO UNT
ur istic
ĠCon vert
Ġnever theless
Ġhyp ers
we ather
Ġn erv
ĠK aw
Ġprot esters
ĠAn at
Cl imate
ĠP irates
um en
Ġnom inal
ĠBra h
ĠT F
ĠG ates
or get
Nov els
ĠOs lo
Ġwrest ler
T ensor
Ġ' ''
N ONE
r ors
Ø ³
an ic
Ġsur f
Ġmet als
ĠParam eters
E mit
Ġ. =
um per
Ġsuggest ion
Ġin version
ĠC ounsel
Ġsax ophone
U r
part icular
ion ic
ain es
Ġlux ury
B asketball
)$ }
b rit
Ġt idal
Ġpers istent
au f
ĠWinds or
Ch unk
Ġle ak
ĠS ET
ch urch
Ġcon gr
Nor wegian
ĠNew man
Per formance
Function s
ĠWes ley
k ers
ĠT roy
ĠÂ «
av in
Ġtr am
Ġtrail er
Ġ$ ^
ĠN L
ĠAlb any
)$ $
Ġprom ises
Ġis instance
ĠB ORDER
ĠE isen
. ',
ĉĉ čĊ
id an
d h
Scal ar
Ġstay ing
y i
ĠPubl ishers
ĠL il
eg ie
Ġdisc ount
ĠInvest ment
ĠN ames
ad just
if les
Ġvis cos
Ġm ere
ĠMe eting
ĠSch r
B ank
}}{ (
Ġdivor ced
ĠTh ir
Ġvacc ine
se ver
Ġcell spacing
bat im
Ġle tting
ĠSac ram
Ġextr apol
S ym
é Ģ
Ġwithd rawn
eyn man
Î º
Ġend ings
ĠNet flix
Ġunem ployment
g iving
Ġbos ons
Ġelder ly
Ġn urse
Ġarch ives
ĠT ell
ĠCh ancellor
Ġlast ing
ĠCr isis
ĠS ometimes
ĠSe oul
Ġterm inated
Ġmeas urable
Ġsan ctions
ro tt
ĠĠĠĠĠĠĠĠĠĠĠĠĠĠĠĠĠĠĠĠĠĠĠĠĠĠĠĠĠĠĠĠ ĠĠĠĠĠĠĠĠĠĠĠĠĠĠĠĠĠĠĠ
Trans fer
pack et
depend encies
Ġlect urer
il ogy
ĠMar sh
Ġin struct
m ixed
Å ¼
Ġtorped o
ĠH ern
Ġwrest lers
Ġh urricane
ray s
e igen
Ġsynchron ized
33 5
Ġvis itor
Ġpolar ized
Ġwitness ed
Ġpass ive
Ġcapt ures
2 11
ĠJam ie
Ġmass less
Ġde grad
ĠImp act
Ġ} (
Ġm ad
attr s
Ġcol lector
ĠBed ford
Pol y
ĠMar l
abil istic
ĠJo el
hell o
ĠC over
ph ony
Ġany more
S in
ĠM BA
os er
Ġphys icians
FN GL
w ere
}; \
ĠMinister s
Enumer able
File Path
ĠT C
Ġro ok
Ġhero es
ĠG mina
ort ium
ĠFranÃ§ ois
20 7
Ġrespect ed
ĠV ale
ĠIndust ries
op ens
os ion
Ġap ps
ĠSh i
FA IL
ĠD ong
ĠPal omar
ĠSant os
3 80
et z
Ġam ended
Ġbuild s
Ġin ches
ĠR oh
ĠPro gressive
Ġdon ations
Ġtw entieth
ĠWIT HOUT
G ui
Ġret rieved
ĠG A
Sur face
lement ed
Ag ain
edd ed
ĠE R
Ġad vent
yr ac
x it
Ġs i
Ġrank ings
ĠT ot
th ouse
pl ays
ĠAn imal
ĠMin neapolis
ĠGener ated
Ġm i
MA GE
Ġgr ains
Ġregular ity
Ġ\ )
Ġsm oke
ĠEu rop
P ub
Ġindic ation
Ġport al
She et
Ġbeet le
Ġover r
ĠB ee
ĠJ i
ĠDar win
le ad
Ġcast ing
C orn
' })
REQ UEST
Ġ Âł
18 14
ĠC ly
ra ising
por ter
The ir
Ġno isy
Ġcov ariant
Ġt s
ĠBor is
ĠH R
Ġprof ound
Com mit
ĠJava Script
________ ________
af a
aa aa
ĠML B
ĠLib ya
Ġcon fin
ach y
Ġlook up
Ġpenal ties
A h
ab ic
ĠR F
cf c
ĠMos es
ia e
ox el
ĉĉĉĉĉĉĉĉ ĉĉĉ
histor ic
P ush
Cam era
work er
Ġemer ge
ĠRom ans
Ġapp endix
L ag
Ġaccording ly
Ġoblig ations
B attle
ĠAn imation
Ġl as
Ġant iqu
pot ent
Ġf erry
DB LP
ious ly
> {
ĠC MB
Ġreg ards
Fellow s
Ġthrow ing
spect rum
stitu ency
h ra
ac ian
Ġadd r
b il
os ity
}$ ~
Ġret ire
ing en
stats models
E u
Ġ[ (
Ġz eros
Ġcirc uits
ĠLanc aster
ter min
N eed
17 90
met rics
ident ified
View Controller
}{ !
s ens
ar ations
}\ )
Ġconcent rations
b ucket
__ ["
Ġdem o
ACT ION
ĠChem ical
D ict
l vert
ir ie
ĠCol lect
Ġapp rent
ĠCitiz ens
ĠQ atar
M G
P ane
+ {\
C ycl
d g
da ugh
Ġp ig
ĠK ot
Econom y
ĠO ptions
Ġdrop ping
ĠH iro
phys ics
Ġinv oked
Ġrac ism
ĠPrest on
HO ME
AR CH
ĠCle arly
Comp et
ĠFr ances
ĠT YPE
un its
ant es
}{ $\
CR IPT
ĠJane iro
E ll
Ġcor rupt
ĠMod els
\" {
ĠF ra
h w
ĠH aus
dis patch
ĠR S
ĠTest s
ignt y
Ġdoctor ate
Ġlit igation
Ġfore ver
Ġpost hum
S on
ĠCart esian
Ġcl s
){ $
ĠJeff rey
18 10
we ets
ĠNapole on
I ran
esc ape
18 2
M arg
=" {{
Ġch lor
opr ano
ĠD ifferent
Ġb allet
d ens
il is
l brace
ĠK urd
ov ic
= |
ĠFig s
ĠI X
ERT Y
] \\
17 1
ĠR i
ak is
Ġdepict ing
ĠOC aml
ĠFor bes
Ġord ained
W ang
AR RAY
ĠMar ri
ĠMax im
R eb
Ġun lock
çĶ ¨
Ġpersonal ities
ĠBud apest
g ae
jav ax
ĠR C
Ġtob acco
T ARGET
Ġre he
n ucle
Ġout lets
oc ide
less ly
st reet
top rule
Ġc ens
Ġam mun
{- .
ĠC airo
Ġob s
ĠEd monton
Has Been
ĠUtt ar
g reat
ĠCorn ell
ch unk
at ro
ri ber
oc on
sw ing
ot yp
Ġhon ey
Ġdist ribute
ĠP ool
ok i
17 9
Ġdef ects
Ġgo alkeeper
Ġdel ays
O H
Ġcom plications
ĠNE AT
}) ^{\
ari at
ĠInitial ize
ĠStart ing
Ġheadquarter ed
ĠC rystal
Ġenc ryption
> `
ount ain
Ġturbul ence
] ['
ĠĠĠĠĠĠĠĠĠĠĠĠĠĠĠĠĠĠĠĠĠĠĠĠĠĠĠĠĠĠĠĠ ĠĠĠĠĠĠĠĠ
ĠH ook
Ġsim ulate
Me asure
ĠCle an
Ġmob il
M unicipal
sh an
ĠBrad ford
t el
ick y
Ġinitial ization
Ġb esides
Ġcr ack
Ġhar sh
W I
Ġreason ably
Ġtre ating
ĠInt el
SP ACING
Ġac claimed
sl ider
Ġport raits
ĠExt ension
ĠHug o
Ġang ry
manif est
od ium
ĠDet erm
n or
ic her
Ġap pl
depend ence
C odec
}. $
ĠAd S
ĠM R
ĠBl air
è ®
re ports
as aki
Ġscreen writer
ag ain
00 4
f aster
ĠDay ton
; ,
Ġcrit ically
ĠKos ovo
Ġhel per
ĠB oh
LA B
E s
h it
×Ļ ×
ĠAlb anian
: -
io x
Ġcontin ent
Ġfilm maker
^* _{
Ġf ut
Ġrul ers
ĠHar bour
ĠA FL
Ġind ividually
fill ed
cles iast
ĠJ ourney
ĠEd gar
Ġpe aceful
H y
Ġl on
ĠB ac
Ġund ers
Ġdi ocese
ĠSerge ant
M ixed
c ot
ĠA FC
ĠW HERE
Ġ} ).
ĠC ool
ans on
ĠL az
Ġle pton
ĠJes se
Ġsub stitution
Fr ont
Ġcoordin ator
ĠLaw s
S hips
Ġl iver
ĠB CE
ich let
T ip
Ġb ore
C ultural
o ft
Ġdis advant
Ġev olve
17 4
uc a
ĠEnt ity
T s
ĠSer ie
ĠRaid ers
+ "
Ġfood s
ĠB end
Ġrob ots
ĠSem inary
Ġanticip ated
r ans
ĠK ad
ĠI z
Ġwrap per
weight ed
Ġrecon struct
G RO
ĠA F
ĠU TC
stat ement
f w
Ġst ub
ĠW aters
Ġaddition ally
ĠMal colm
Israel i
d jango
all i
contin ue
Ġurg ed
O x
Ġsem antics
Ġdirect ing
st orm
ĠBund es
Ġgr ateful
G reg
Pac ific
Ġammun ition
b uff
yg on
le man
Ġab ort
Ġbare ly
qu ick
pre ced
Ġfilter ing
Ġinhab ited
Ġg ig
ĠSup p
st ri
SH A
Ġv ortex
ib an
can ic
Ġdis par
sh aw
Ġdesign ing
p it
al most
sh own
ĠZ ar
ĠKu wait
AgIC AgIC
ĠSand ers
ĠSte phan
ular ity
dem o
S and
Ġspace craft
Error Code
rell a
m ud
IN IT
r vert
Con clusions
Ġcoord ination
Ġsat ellites
M ike
ĠVer ify
B re
B all
ĠAp plied
G H
Ġmanufact ure
24 5
T X
Ġn m
ap on
4 000
P V
ĠL ey
ĠG ur
Ġtim er
Ġg odd
ĠSol id
ĠNS String
Y S
as an
text ure
Ġtorn ado
ES CO
Ġautom ated
pack ages
ĠC areer
18 26
] }\
ĠNS W
ĠTR UE
K en
Pro b
ho ff
item pty
ĠB agh
Ġwhe els
St rip
Ġcab in
ad joint
ĠPart ners
Ġ' @
Ġsure ly
per formance
omet ime
c ourt
ĠE N
Ġtort ure
Ã© ric
Ch icago
Ġlocal ities
d w
ur ai
Ġex empl
Ġorgan ize
ĠM eyer
Ġsen ator
, </
ĠCard iff
ĠH i
Ġple asure
ak k
Ġbenef icial
post s
T i
Ġthe olog
ant is
18 3
ĠAt omic
T a
om itempty
Ġtransl ator
n r
ĠR anch
Ġup load
Ġfin ancing
Ġ" #
ĠE ducational
ĠB rent
sub string
ĠChron icle
Ġcar ved
Ġsuggest ions
Ġge ographical
Ġbom bs
, +
Sc ene
OT TOM
prop ag
ĠAndr Ã©
Cath olic
ific ates
ĠMon roe
Ġbreak down
Ġcontract ed
Ġin structor
ĠRec ording
Ġelectron ics
Ġexceed s
hook rightarrow
Sup press
ĠAp ollo
g c
anish ing
> .</
Ġpart itions
Ġbound ing
Ġfib ers
C ookie
F a
ul in
ugg ed
18 18
ĠJud a
ĠBol ivia
j ournal
ĠD CHECK
Ð° ÑĢ
ufact uring
P ipeline
ĠS ER
EN CE
Ġsp at
ĠC ounter
oc y
IE W
Germ any
Ġtri ang
ĠCraw ford
ut down
File System
Ap pro
ĠSuper ior
>( <
Ġstory line
B lob
Ġclass room
Ġnational ist
Town s
D ry
ĠD ynasty
ĠV eh
pred ict
b oot
Ġ} .
Ġstat ute
w ould
Ġin sects
App Compat
amazon aws
F ast
m acro
Can vas
ĠAlger ia
per ture
Ġper ipher
Ġcour age
Form atter
Ġconnect ivity
ĠEv olution
ĠHay es
Ġmilit ia
A SS
ĠG ut
amp ire
æ Ĺ
"/ ></
M useum
Ġimplement ations
OR S
Ġdiscuss es
ĠAd venture
ME SS
pag ination
Ġsc reens
Ġf ier
ĠMay be
ĠCal cul
Ġpast or
ch in
cs v
ĠKazakh stan
Ġnurs ing
let es
Ġcomplet eness
Ġcler k
m x
Ġkn ot
ĠA pr
Ġ======= =
Ã ®
ĠPract ice
ĠL on
################ ################
Ġf action
ĠB j
ĠE D
r ina
under brace
can onical
ĠAl low
Ġpost pon
ĠHash Map
Ġm aj
ĠSD SS
arri e
Ġviscos ity
Ġblock ing
ĠHonor ary
ĠS uk
ig ins
J P
RE S
Ġfinal e
S hip
st re
Ġcontribut or
p od
Ġpresc ribed
ĠS tern
ĠB orel
M ic
ast ings
aint ed
Â ©
ĠH ert
Ġdo zens
Ġb ail
ht m
Fix ture
prec ision
prep are
ic ion
Ġpractition ers
ong s
sh ine
ph on
ĠStr at
ĠRos a
ĠBuddh ism
B ot
Ġw eren
Ġmach inery
Ġd ans
Ġcycl ing
h ouses
ĠCl ara
ĠSing er
ĠBright on
HasBeen Set
p ark
18 4
dat etime
Ġcert ification
Ġanomal ous
_{ {
ĠB ronze
Cert ificate
" ?>
m ak
Ġw ages
Ġturbul ent
18 01
)$ )
Ġl ith
Ġexp end
18 21
Ġm all
Ġex pr
ely n
Ġfilter ed
Publ ished
yrac use
M ail
ĠDate Time
ĠGram mar
ĠH ond
ĠChurch ill
ĠDor othy
Ġcon ceived
WA RE
ft s
ĠCon struct
Ġconduct ivity
3 25
L ite
ib us
Pay ment
ĠN ixon
ĠEston ian
b ands
Ġbary on
ĠBr ain
Ġreve aling
Ġgrad uates
Ġnew er
Ġrecur ring
ĠC ed
ploy ed
Ġepoch s
ĠT ank
mod ified
N ON
Dest roy
Ġpur ple
Ġswim mers
SU CCESS
nt hesis
ed ing
ĠBul let
Ġspons or
un ivers
Ġcomp lementary
J ones
ST ART
ĠJul ius
ĠBO OST
ĠCELL PADDING
G Hz
ĠCELL SPACING
J eff
Ã¡ r
Ġpol ls
d td
ĠHun ting
{ }\
Ġenc ounters
Ġmand ate
Ġb ones
Ġserv ants
Ġlater al
ĠEconom y
ott ing
in aries
ĠP E
Rel ative
Ġsub urban
ups ilon
Ġcon sec
ĠAber de
ĠSil va
Ġeth ical
ĠR he
Ġadvis ory
SP ACE
bas is
An th
r brace
ct ree
Ġexp elled
ĠElect ronic
Ġsp acing
dec ay
P F
d yn
\ @
S ta
it ches
Ġhuman itarian
un til
ĠBi ology
n at
W D
ĠRab bi
Ġrep orters
Ġhierarch ical
Ġpr ay
Ġconv oy
Ġadvoc ates
8 50
... )
oc es
18 1
Ġreli ability
Ġt iles
ref lect
S outhern
Ġs ab
j j
Ġfactor ization
ĠPot ter
Ġatt ained
ĠK IND
Ġk w
Ġimportant ly
ĠE aster
Dat aset
ĠMar co
dec om
Ġtra its
Ġmo ist
P ot
Ġde ceased
start s
Ġst uck
an ium
Ġinv itation
in z
Ġte ch
Ġbe ams
Ġwid get
( `
ĠH ess
Ġend if
Ġbusiness people
d dot
Ġdist ortion
ĠD S
Ġcontin ental
Ġrecurs ive
ĠS ustain
St udio
y en
ĠS it
Ġsl ip
Ġemploy ing
C ivil
ĠW R
Ġref uses
task s
Ġtarget ing
) )$,
eq q
ex ist
ĠMar ÃŃa
ĠDecl aration
ĠDe al
re li
ĠSouth west
Ġtal ented
ogen ic
qual ified
atri ates
min ent
Ġtop ped
Separ ator
ter rit
Mod ifier
D ark
L im
comm ission
tab les
ĠMon ument
Ġwavelength s
ĠJen kins
Ġwh ites
ĠMar cel
ĠHard y
ĠMichel le
s leep
yl on
Ġ< ?
Ġcal ibr
ĠTo o
ock ets
Ġpack ed
d iamond
g rom
Ġre cept
Ġh iding
ĠP lymouth
ĠThom son
C MD
ik k
Ġrout ing
$ ~\
ĠCrit ics
ap o
second s
Ġdet ention
Ġl od
ag ascar
ĠM aking
ĠNew foundland
Ġnot ify
Ġgo ogle
ĠW ant
ĠSebast ian
H u
ass adors
dis ci
Ġimm igrant
Ġâ Ķ
min imum
ĠZ en
Pay load
C op
Ġd ump
ĠB ug
any a
Ġdiff e
Ġadm issible
p ure
Ġexcit ations
ĠRoche ster
ĠM W
ch annels
ys on
is odes
Ġcop ied
NR AS
V V
Ġesc ort
at aka
Ġ( {
Ġacceler ated
Ġpen et
Ġc ig
N F
Ġn od
ocol ate
ĠRem ix
c ro
go al
J oe
p ipeline
Ġmotor cycle
Ġillustr ations
ĠPro ducer
path y
Ġshort est
ĠArm s
ile e
ĠRe in
Ġavoid ing
ĠD ebug
ĠL av
ĠL ah
Ġpar abolic
Ġpost er
Ġcomp ly
ĠKn ox
ĠC B
ĠW im
End emic
ĠBet ty
separ ator
Ġp ic
Ð° Ð»
ĠRh ine
Ġstat istic
ä¸ Ń
ĠDom ain
ct ica
ĠGarc ia
Ġcell ular
sub Nav
Ġcontr action
ĠC I
Ġsp ans
Ġund erm
Ġs outheastern
Ġst air
en ue
board s
Ã¡nd ez
Ġint elligent
Ass et
Ġcritic ised
ĠL ut
product ive
Com ponents
Ġsk ull
Sh arp
Ġide ology
ĠChile an
and in
ĠZ amb
an an
ur ally
ĠL ub
ĠG DP
ex istence
(' ./
Ġbr ackets
pop up
) ||
op ting
Ġre print
Ð¸ ÑĤ
Ġut ter
rop olis
ĠNe umann
Ġsav ings
ĠP ere
Ġdes irable
aceut ical
al bum
Ġdef icit
Ġanten na
ĠCast ro
i ov
å į
com ed
Mean while
Ġret ro
Ġb acter
ĠG C
ograph s
Ġmagn itudes
0 10
Ġa u
Ġqu arters
Ġemphas ized
pres ident
z on
con figure
S ets
Ġsub urbs
econom ic
d elegate
Ġ" _
arch y
ĠStrateg ic
Columb ia
Ġtax p
ob ar
iÄ į
ĠJ ake
st ub
23 2
ĠGreat est
Ġsn ap
ĠD awn
Ġse al
disci pl
al gebras
Ġdec ou
Ġunve iled
Ex pl
Ġevery body
Ġphil osophical
ad j
Ġr hs
oph ys
os i
ĠK erry
TableRow Color
å Ľ
ĠW A
Ġcollabor ative
period ic
âĢ¦ âĢ¦
f itting
Ar ts
Direct or
ĠPar agu
Ġcryst all
Ġre ceptor
Ġansw ered
ĠJosh ua
ac l
ĠN iel
ĠV oc
() [
oid es
MP L
Ġs ubl
Ġcomp ressed
="@ +
Ġtruck s
ĠGriff ith
cl air
oph yll
other apy
Ent ries
Ġamb ient
ven ile
Ġlack ing
l f
Ġtraff icking
Ġarm ies
c yl
p pe
ĠR az
Ġdestroy ing
ro ve
se at
Ġlong time
ĠTour ism
ĠP anel
Ġpublisher s
ĠBald win
Ġul tra
arg v
ĠCon sumer
Mat ches
INST ANCE
Ġ" ;
Cl aim
, [
Ġanalog y
Ã¼ ck
ch rome
Ġtrans ient
Ä ĵ
Ġa rose
is ive
ĠLog an
Ġprev ents
Ġpec uli
D one
s ass
ĠL ines
$ ^{\
ĠP ine
Ġweak ness
les h
sup set
Ġqu bits
ĠEd it
ĠRem arks
Argent ine
Ġt ap
fri ed
Ġtransmit ter
Ġn ortheastern
dr ag
ĠAnn iversary
Ġrenov ation
ow itz
ist o
spec ified
Block s
Ġmission aries
ĠMalays ian
Ġgar ner
ĠD und
ĠM orm
est y
est ock
Ġconsult ing
v card
Ġtr aced
D oug
em por
Ġ" );
Ġre vel
cam era
ĠPriv acy
ĠMah arashtra
orget own
act iv
ĠFil ter
Ġanalyz ing
Ġart ic
Ġassign ments
ĠM ask
ĠP ione
ĠG ov
zo om
B ACK
ig raph
ĠK w
Ġconsum ed
hr an
Ġl ord
' ^
Ġdimension less
b ol
V ariant
Ġre written
cor r
Sw iss
() ">
Ġhom ology
S ent
ĠMerc ury
ĠH ubble
W T
Ġsw ing
Ġk iss
ĠCl uster
Ġshould n
Sl ot
Ġv iable
Ġexcess ive
Ġt orsion
C ould
000 1
Ġexp atriates
Ġabund ances
H ook
Ġp orn
Ġte aches
bit coin
Ġoscill ation
Ġthermod ynamic
: %
Ġbatt ing
ord ering
se ek
ĠHel p
cl amation
ov y
ph ones
Ġpresc ription
% "><
ĠD ynam
LE S
Ġh ung
ĠK ann
O O
ĠM ell
ĠString Builder
Ġpy thon
ĠVict ory
Equ ation
Ġox id
ĠA sc
ĠB om
ĠS ent
St eve
ĠD iet
Ġsp anned
Pop up
Ġm ansion
ighth ouse
ĠB ent
ĠMar ian
ĠEst abl
Ġ\| _{
Ġsubgroup s
Ga ussian
ĠOr d
ĠGael ic
A sh
ay ette
Ġad iab
ym es
ato es
ĠTasman ia
f ootball
ĠLe ipzig
Ġanalog ue
ĠÄ Į
à¤ ¾
ut ory
look up
ĠG an
ĠChar acter
Ġprefer ences
Ġexpl ores
ĠT ropical
l ord
Ġorigin ating
Car thy
Ġinject ive
Ġst ems
Ġend orse
ĠC lement
ĠAn im
Ġsur geon
trans late
ĠBar ack
Ġref ined
ĠStr ategy
ĠB erm
ĠG M
out ube
Ġtrans fers
C amb
Ġf ights
ĠĠĠĠĠĠĠĠĠĠĠĠĠĠĠĠĠĠĠĠĠĠĠĠĠĠĠĠĠĠĠĠ ĠĠĠĠĠĠĠĠĠ
Ġpair wise
Dec oder
ĠNetwork s
ĉ ĠĠĠĠ
ĠW E
keep ing
Ġint act
max cdn
Ġplant ed
ĠStef an
ĠH yper
ĠVari ous
desc riptor
Ġscreen play
ĠWal sh
In jection
Ġfact ories
Ġest ates
contin uous
ĠW inners
Ġmer ging
ĠP ackage
ace ous
Debug ger
Ġvolunt ary
y ellow
Ġmiss iles
ĠEm il
Ġsimultane ous
Ġscr atch
Ġmathematic ian
Ġend e
E astern
Ġaut omorphism
Ġins isted
: &
Ġl ac
ĠCon cer
ĠA j
ĠW inner
Ġpar ishes
ĠAg u
ch anging
od i
ibern ate
Ġconvers ations
Ġdis charge
ĠH ank
Ġprom otional
Ġbatter ies
m and
Ġsubt le
ed ged
ĠV ij
obtain ed
ĠGreen e
Ġ$ ('#
Ð¾Ð ´
et les
ab ar
ĠB har
Ġk ern
Ġind ent
ĠSp ot
ĠWin ston
ĠA IDS
ote chn
N ick
us ually
å °
C ut
stitution al
Ġener get
di ocese
Su ite
e ut
ĠJ et
ĠWeb b
Ġrecre ational
Ġex empt
Ġdis abilities
ir ling
ĠK illing
}) }{
leg end
b ons
ĠM oss
C hen
ĠEm ploy
Ġv i
inc ar
ĠChief s
Ġancest or
th reshold
Ġaccount ed
ĠB eg
( (\
p enter
dot ted
Ġim pe
vent ory
it ated
ĠRel igious
Ġde pr
Ġ" )
Ġpil gr
Opt im
the o
Ġt weet
18 22
Q CD
Ġtox ic
] ),
Ġpar ade
S afe
Ġl ighter
Ġconfirm ation
Ġsacr ifice
ole v
Ġaccident ally
ĠInd o
Turk ish
Ġflex ibility
isecond s
ĠMar qu
Check ed
Ġm u
ĠH appy
-- \
ĠCD P
ĠIn cre
cur l
17 75
ĠP apers
Ġadv ocated
Tr igger
Ġbr ane
Comm unic
udd y
str ained
ĠB ren
Ġout s
[ <
art e
C as
Ġcommission er
r ink
Ġinfin itely
et ches
Ġorgan izing
Ġaccommod ation
. }}
K al
Ġap par
ĠRock y
ud er
v dash
Ġpredict s
erial ize
Ġincred ible
ĠT oken
Ġestim ating
Ġrelig ions
Att empt
ĠSab ha
Tool s
Ġp ent
ĠEm irates
ĠMarket ing
ĠE RR
Ġmanip ulation
Ġadv ancing
Ġh anging
Ġreven ues
Ġo wing
ĠP AR
o op
}) +
C hat
Ġcon quest
Sh adow
ĠN umer
ĠAr senal
Ġcontest ants
Ġancest ors
Ġd ys
tri ang
18 6
Ġvin yl
Ġconc aten
Part ial
ĠC ache
Ġdat abases
Ġbass ist
ap ps
Ġend angered
ĠWrit er
ĠWhit ney
[ [
Ġto y
min o
ĠC anton
ĠChe ng
ĠH our
Ġfin ishes
Ġg arrison
ĠCre ated
Ġveget ation
Ġatt achment
Ġcancel ed
Ġnon profit
arc sec
Ġforb idden
ĠAl leg
Bit map
Ġell ip
Ġob servers
ordin ator
ĠSpring field
set Text
Ġpack ets
B ucket
ĠCarn egie
ĠE b
Ġle ver
ĠPatri ots
Ġsubmar ines
ĠIs abel
Ġce iling
ĠN orton
ĠG ul
ĠAss umption
ĠB org
rib es
Ġsubstr ate
ĠSch midt
ĠTheod ore
Ġ( `
ĠL ob
ec hes
S ix
ĠR ifle
value Of
unc her
Ġfro zen
Mill is
Ġ\ \\
r x
ĠSch ol
M X
29 0
or ig
ĠH il
Path s
She ll
- }
ĠH ack
ch ard
pl iers
erv ille
ĠPU BLIC
em i
Write Line
Ġd ancers
OB JECT
Ġl oses
Ġatt ain
ĠRe agan
ell es
vent h
ĠAut om
isp here
F all
ous and
Ġrepl ied
ynchron ous
Ġco herence
Ġicon ic
u en
ope z
Ġre ass
Ġfr iction
daugh ter
cha ft
arv ae
22 3
Ġche ap
ĠSt ro
18 16
Ed ward
Gate way
ĠU FC
sc ribed
az ure
F ill
j ee
ĠTh ames
Ġf u
Ġac claim
Ġoptim ize
ma ha
ĠN in
elastic search
Ġsn ake
Ġpurs uing
ĠA stro
Ġmorph isms
hen s
ĠF alk
ĠCl aude
pe i
18 27
Ġm aternal
ĠS v
qu in
,\,\ ,\,\
Ġf t
ĠCon tract
Ġmet eor
Ġreson ant
Ġz oom
ĠJohn ston
28 8
ĠG aza
n x
Ã ²
os o
bottom rule
ĠKe ep
G h
Ġperm its
ĠEr nst
pe z
Ġen acted
ĠVeter ans
log ic
ĠK oh
merc ially
Ġintegr able
ĠShe ll
Ġenroll ment
exp ress
Ġnob ility
Ġdig its
J er
ĠLith uanian
Ġendors ed
U int
sp ark
Ġaltern ating
om al
Ġrev olt
M AC
ĠKenn y
Ġminim izing
ĠMur der
ĠM Äģ
ĠY uan
ĠSuff olk
) _\
ĠSub sequently
lym pi
18 13
Ġbeliev ing
FLA GS
ĠH O
ĠCambod ia
ac i
ĠBang kok
Ver b
c ence
Ġcook ing
up p
ĠT yr
19 1
pher d
* .
ĠAppe al
Î ¯
Ġcomp ile
18 23
ĠTechn ologies
ĠD rew
Ġout going
Ġindex ed
bra him
97 8
; %
pl anes
c ool
ah ler
im uth
initial ize
eg en
Ġboard ing
Ġent ert
22 6
ĠReg ular
ĠMidd les
ta iled
_{ |
Ġhigh ways
ĠCharl eston
app ers
ĠHein rich
ju ana
Ġp ion
ĠL ives
ĠG lor
ĠAtl as
ĠFig ures
Ġamb itious
Rel ations
zb ek
ĠHels inki
Ġ" (
ĠTanz ania
! =
Ġdissip ation
ĠBre nd
ĠPoint s
v ary
Ġorgan isms
em er
P ending
art on
Ġcomp ass
ĠHal ifax
Ġreplic a
ighbor hood
el ic
ĠAr r
mar ine
Arch itecture
sche mas
ĠMar itime
vers ions
ĠBav aria
ĠFergus on
ĠC ash
ĠTrib une
Ġprivile ge
ad ia
ĠP omer
Disc ussion
ĠPer haps
ĠAnn ie
Ġfort ress
T ry
order item
uet ooth
o ine
stream ing
Ġcha os
Ġdeliver ing
Ġg it
RO OT
ĠGard ner
Ġbre ach
cp u
ĠM ey
Ġtrunc ated
Ukr ainian
O FF
Res pon
al p
, âĢĻ
Ġen closed
seud o
Ġflow n
friend ly
Ø ¨
ĠFram ework
m achine
ĠLouis ville
ĠB uffer
38 4
Ġconv ince
Ġcre am
Ġc ivic
ĠM N
). $
]] ></
: .
ĠL ipschitz
Ġse aled
let cher
)- (
Ġrev ived
ĠS ect
ĠH erman
Ġde form
Comp are
Ġsp ark
clesiast ical
v ac
Ġac ute
RE NT
Ġqual ities
} '$
Ġw is
Ġion ization
Ġcomm od
pe x
ĠQu int
Ġcolon el
w m
Ġoscill ator
ĠR NA
ĠL ords
Ġre min
oph on
ansk rit
[...]
