{"[UNK]":0,"!":1,"\"":2,"#":3,"$":4,"%":5,"&":6,"'":7,"(":8,")":9,"*":10,"+":11,",":12,"-":13,".":14,"/":15,"0":16,"1":17,"2":18,"3":19,"4":20,"5":21,"6":22,"7":23,"8":24,"9":25,":":26,";":27,"<":28,"=":29,">":30,"?":31,"@":32,"A":33,"B":34,"C":35,"D":36,"E":37,"F":38,"G":39,"H":40,"I":41,"J":42,"K":43,"L":44,"M":45,"N":46,"O":47,"P":48,"Q":49,"R":50,"S":51,"T":52,"U":53,"V":54,"W":55,"X":56,"Y":57,"Z":58,"[":59,"\\":60,"]":61,"^":62,"_":63,"`":64,"a":65,"b":66,"c":67,"d":68,"e":69,"f":70,"g":71,"h":72,"i":73,"j":74,"k":75,"l":76,"m":77,"n":78,"o":79,"p":80,"q":81,"r":82,"s":83,"t":84,"u":85,"v":86,"w":87,"x":88,"y":89,"z":90,"{":91,"|":92,"}":93,"~":94,"¡":95,"¢":96,"£":97,"¤":98,"¥":99,"¦":100,"§":101,"¨":102,"©":103,"ª":104,"«":105,"¬":106,"®":107,"¯":108,"°":109,"±":110,"²":111,"³":112,"´":113,"µ":114,"¶":115,"·":116,"¸":117,"¹":118,"º":119,"»":120,"¼":121,"½":122,"¾":123,"¿":124,"Â":125,"Ã":126,"Ä":127,"Å":128,"Æ":129,"Ç":130,"È":131,"É":132,"Ê":133,"Ë":134,"Ì":135,"Í":136,"Î":137,"Ï":138,"Ð":139,"Ñ":140,"Ò":141,"Ó":142,"Ô":143,"Õ":144,"Ö":145,"×":146,"Ø":147,"Ù":148,"Ú":149,"Û":150,"Ü":151,"Ý":152,"Þ":153,"ß":154,"à":155,"á":156,"â":157,"ã":158,"ä":159,"å":160,"æ":161,"ç":162,"è":163,"é":164,"ê":165,"ë":166,"ì":167,"í":168,"î":169,"ï":170,"ð":171,"ò":172,"ó":173,"ô":174,"Ā":175,"ā":176,"Ă":177,"ă":178,"Ą":179,"ą":180,"Ć":181,"ć":182,"Ĉ":183,"ĉ":184,"Ċ":185,"ċ":186,"Č":187,"č":188,"Ď":189,"ď":190,"Đ":191,"đ":192,"Ē":193,"ē":194,"Ĕ":195,"ĕ":196,"Ė":197,"ė":198,"Ę":199,"ę":200,"Ě":201,"ě":202,"Ĝ":203,"ĝ":204,"Ğ":205,"ğ":206,"Ġ":207,"ġ":208,"Ģ":209,"ģ":210,"Ĥ":211,"ĥ":212,"Ħ":213,"ħ":214,"Ĩ":215,"ĩ":216,"Ī":217,"ī":218,"Ĭ":219,"ĭ":220,"Į":221,"į":222,"İ":223,"ı":224,"Ĳ":225,"ĳ":226,"Ĵ":227,"ĵ":228,"Ķ":229,"ķ":230,"ĸ":231,"Ĺ":232,"ĺ":233,"Ļ":234,"ļ":235,"Ľ":236,"ľ":237,"Ŀ":238,"ŀ":239,"Ł":240,"ł":241,"Ń":242,"ĠĠ":243,"Ġt":244,"in":245,"he":246,"Ġa":247,"on":248,"er":249,"re":250,"ĠĠĠĠ":251,"Ġthe":252,"at":253,"en":254,"or":255,"Ġs":256,"an":257,"al":258,"is":259,"es":260,"it":261,"Ġo":262,"ar":263,"ed":264,"Ġc":265,"Ġw":266,"ion":267,"Ġf":268,"Ġof":269,"Ġin":270,"nd":271,"Ġp":272,"ic":273,"Ġb":274,"ing":275,"le":276,"as":277,"ro":278,"Ġand":279,"Ġd":280,"Ġm":281,"Ġto":282,"ent":283,"ct":284,"ou":285,"et":286,"el":287,"ĠĠĠ":288,"il":289,"st":290,"am":291,"ĠĠĠĠĠĠĠĠ":292,"om":293,"ĠS":294,"Ġh":295,"Ġre":296,"Ġ\\":297,"ig":298,"ol":299,"ĠT":300,"ation":301,"ĠC":302,"Ġn":303,"Ġ(":304,"Ġth":305,"ĠA":306,"Ġ$":307,"ac":308,"im":309,"Ġl":310,"id":311,"ot":312,"Ġe":313,"ur":314,"iv":315,"ad":316,"ut":317,"Ġis":318,"ĠM":319,"se":320,"Ġfor":321,"ul":322,"ce":323,"Ġg":324,"ĠI":325,"ow":326,"ch":327,"ay":328,"ly":329,"ĠB":330,"Ġon":331,"ter":332,"ĠP":333,"em":334,"us":335,"ir":336,"un":337,"ag":338,"um":339,"Ġst":340,"20":341,"ver":342,"od":343,"ab":344,"ith":345,"Ġbe":346,"if":347,"19":348,"ĠH":349,"Ġas":350,"ist":351,"qu":352,"th":353,"{\\":354,"âĢ":355,"ĠR":356,"ers":357,"ap":358,"ĠĠĠĠĠĠĠ":359,"Ġcon":360,"ĠF":361,"ĠD":362,"Ġ=":363,"ĠL":364,"Ġthat":365,"Ġwas":366,"Ġwith":367,"ate":368,"and":369,"ĠThe":370,"Ġv":371,"Ġal":372,"ri":373,"pe":374,"her":375,"est":376,"oc":377,"ĠN":378,"end":379,"av":380,"ĠW":381,"ĠG":382,"Ġby":383,"ction":384,"ht":385,"res":386,"Ġan":387,"čĊ":388,"op":389,"ain":390,"Ġpro":391,"os":392,"ĠE":393,"Ġde":394,"rom":395,"up":396,"ĉĉ":397,"ub":398,"ĠĊ":399,"ity":400,"Ġwh":401,"ex":402,"ath":403,"Ġat":404,"Ġ<":405,"ew":406,"_{":407,"eg":408,"art":409,"ess":410,"=\"":411,"Ġcom":412,");":413,"Ġr":414,"ort":415,"ass":416,"Ġ\"":417,"ĠJ":418,"all":419,"Ġit":420,"Ġex":421,"Ġfrom":422,"ies":423,"ore":424,"--":425,"pt":426,"ame":427,"ight":428,"Ġ{":429,"ill":430,"ĠO":431,"ine":432,"Ġ$\\":433,"Ġhe":434,"ak":435,"nt":436,"Ġor":437,"ure":438,"pl":439,"Ġse":440,"Ġare":441,"ial":442,"ant":443,"ud":444,"our":445,"ment":446,"</":447,"ue":448,"ber":449,"ge":450,"Ġ&":451,"'s":452,"ive":453,"ect":454,"og":455,"ld":456,"age":457,"ĠU":458,"Ġcl":459,"ĠĠĠĠĠĠĠĠĠĠĠ":460,"tr":461,"math":462,"iz":463,"ef":464,"cl":465,"ian":466,"The":467,"ard":468,"ich":469,"ĠK":470,"ated":471,"//":472,"ip":473,"Ġ*":474,"ary":475,"ack":476,"ite":477,"ult":478,"00":479,"ref":480,"201":481,"Ġch":482,"ia":483,"und":484,"Ġwe":485,"ov":486,"per":487,"Ġtr":488,"ell":489,"Ġ}":490,"ph":491,"Ġthis":492,"}\\":493,"^{":494,"con":495,"port":496,"ans":497,"),":498,"ical":499,"Ġpl":500,"Ġy":501,"ust":502,"}$":503,"âĢĵ":504,"ext":505,"ĠIn":506,"orm":507,"act":508,"ign":509,"Ġsh":510,"are":511,"ong":512,"ition":513,"ug":514,"Ġle":515,"ast":516,"ord":517,"ff":518,"Ġnot":519,"ire":520,"ave":521,"int":522,"ĠSt":523,"urn":524,"ang":525,"ost":526,"Ġcomp":527,"Ġk":528,"ft":529,"ĠĠĠĠĠĠĠĠĠĠĠĠĠĠĠĠ":530,"ĠV":531,"ma":532,"able":533,"\">":534,").":535,"ep":536,"ace":537,"Ġhis":538,"Ġres":539,"Ġwhich":540,"200":541,"ork":542,"uc":543,"fr":544,"ens":545,"Ġ-":546,"ations":547,"so":548,"..":549,"In":550,"enc":551,"ime":552,"to":553,"}}":554,"ear":555,"Ġ|":556,"out":557,"pro":558,"ra":559,"ĠĠĠĠĠ":560,"ase":561,"ĠCh":562,"(\\":563,"ide":564,"ence":565,"ere":566,"ish":567,"erv":568,"ec":569,"ice":570,"ta":571,"ib":572,"Ġun":573,"ind":574,"Ġwhe":575,"ther":576,"ions":577,"18":578,"ok":579,"mer":580,"ild":581,"egin":582,"com":583,"ile":584,"**":585,"cal":586,"Ġus":587,"ry":588,"Ġhas":589,"begin":590,"Ġhave":591,"ous":592,"Ġcont":593,"Ġar":594,"sp":595,"str":596,"Ġclass":597,"ory":598,"Ġif":599,"low":600,"ubl":601,"tern":602,"Ġcan":603,"ount":604,"Ġalso":605,"Ġap":606,"ey":607,"Ġj":608,"Ġwere":609,"ach":610,"Ġad":611,"over":612,"_{\\":613,"ance":614,"turn":615,")$":616,"âĢĻ":617,"irst":618,"li":619,"ode":620,"Ġab":621,"form":622,"equ":623,"ype":624,"Ġim":625,"ener":626,"ould":627,"ev":628,"get":629,"ĠTh":630,"own":631,"cc":632,"ict":633,"rit":634,"use":635,"erm":636,"ound":637,"fer":638,"ents":639,"Ġpart":640,"Ġ'":641,"ress":642,"}{":643,"row":644,"ata":645,"ree":646,"text":647,"ject":648,"right":649,"ates":650,"()":651,"ob":652,"----":653,"wo":654,"hed":655,"ĠUn":656,"rib":657,"Ġone":658,"clud":659,"old":660,"ors":661,"amp":662,"Ġ||":663,"abel":664,"10":665,"the":666,"frac":667,"},":668,"ail":669,"==":670,"ark":671,"ual":672,"ĠHe":673,"eq":674,"rm":675,"ome":676,"Ġdis":677,"Ġall":678,"Ġnew":679,"ublic":680,"te":681,"uch":682,"Ġfirst":683,"ll":684,"ĠY":685,"unction":686,"ose":687,"199":688,"Ġro":689,"inal":690,"ational":691,"iel":692,"Ġ+":693,"ock":694,"ely":695,"ĠIt":696,"Ġbut":697,"Ġtheir":698,"we":699,"uct":700,"Ġsp":701,"cite":702,"ics":703,"ng":704,"Ġits":705,"Ġhad":706,"fig":707,"Ġplay":708,"ss":709,"ert":710,"ik":711,"fter":712,"Ġreturn":713,"ĠĠĠĠĠĠĠĠĠĠĠĠĠĠĠ":714,"ink":715,"rap":716,"one":717,"ield":718,"Ġstr":719,"Ġev":720,"Ġpr":721,"ater":722,"alue":723,"ool":724,"Ġout":725,"ĠâĢĵ":726,"lect":727,"Ġtwo":728,"aw":729,"label":730,"Ġsc":731,"Ġper":732,"Ġqu":733,"Ġwho":734,"orn":735,"sh":736,"Ġob":737,"Ġother":738,"Ġte":739,"Ġdef":740,"any":741,"ps":742,"Ġ[":743,"Ex":744,"mathb":745,"ences":746,"oint":747,"les":748,"Ġme":749,"ick":750,"iss":751,"ont":752,"pect":753,"red":754,"Ġmod":755,"Ġag":756,"\",":757,"$,":758,"ari":759,"ings":760,"$.":761,"Ġdes":762,"Ġup":763,"ĠâĢ":764,",\\":765,"Ġset":766,"Ġover":767,"cent":768,"left":769,"pon":770,"ied":771,"sc":772,"Ġwork":773,"equation":774,"set":775,"pec":776,"land":777,"elf":778,"yst":779,"aram":780,"ize":781,"Ġind":782,"ican":783,"anc":784,"Ġbeen":785,"->":786,"ix":787,"ull":788,"amb":789,"pr":790,"Ġ//":791,"ray":792,"igh":793,"})":794,"eta":795,"ople":796,"Ġint":797,"St":798,"ie":799,"Ġyear":800,"ource":801,"12":802,"ember":803,"oot":804,"ne":805,"ited":806,"ake":807,"Ġen":808,"ular":809,"mb":810,"roup":811,"Ġher":812,"Ġtime":813,"Ġinter":814,"::":815,"Ġdo":816,"Ġcol":817,"mathcal":818,"put":819,"Ġwill":820,"sum":821,"ook":822,"Ġthey":823,"ption":824,"Ġcomm":825,"ased":826,"eth":827,"}.":828,"line":829,"umber":830,"Ġ</":831,"io":832,"ution":833,"ollow":834,"Ġmore":835,"Ġund":836,"Ġfunction":837,"ĉĉĉĉ":838,"}(":839,"ystem":840,"Ġpe":841,"pos":842,"ative":843,"ms":844,"iew":845,"cess":846,"ade":847,"Ġinclud":848,"raph":849,"imes":850,"Ref":851,"ivers":852,"198":853,"ram":854,"Ġ.":855,"ugh":856,"oy":857,"vel":858,"Ġsub":859,"ward":860,"\\\\":861,"Ġver":862,"../":863,"ax":864,"16":865,"ann":866,"}^":867,"da":868,"Ġpre":869,"Ġfil":870,"Ġreg":871,"pha":872,"ood":873,"round":874,"let":875,"Ġbet":876,"Ġwhere":877,"ons":878,"Ġ@":879,"lement":880,"Ġinto":881,"ific":882,"}_":883,"Ġonly":884,"Ġsup":885,"der":886,"17":887,"15":888,"Ġwhen":889,"uring":890,"ĠCom":891,"of":892,"oug":893,"resent":894,"olog":895,"alpha":896,"Ġne":897,"Ġso":898,"ĠAr":899,"Ġrel":900,"ĠNew":901,"Refer":902,"Ġfollow":903,"Ġtrans":904,"Ġpublic":905,"arg":906,"ĠSe":907,"~\\":908,"Ġrec":909,"Ġ/":910,"Ġyou":911,"Ġform":912,"ince":913,"Ġcons":914,"Ġpol":915,"als":916,"ty":917,"ident":918,"Ġresult":919,"arch":920,"Ġoff":921,"ĠThis":922,"Ġsuch":923,"Ġact":924,"Ġloc":925,"Ġunder":926,"cond":927,"cre":928,"Ġthere":929,"Ġafter":930,"ox":931,"merican":932,"ames":933,"ities":934,"ating":935,"References":936,"Ġname":937,"ank":938,"ral":939,"ween":940,"ml":941,"ren":942,"ĠAl":943,"Ġco":944,"197":945,"Ġdif":946,"ists":947,"Ġdist":948,"elta":949,"err":950,"Ġthen":951,"(\"":952,"oth":953,"ambda":954,"Ġwould":955,"Ġpos":956,"eb":957,"ator":958,"ient":959,"Ġkn":960,"Ġprov":961,"();":962,"essage":963,"ton":964,"chool":965,"ished":966,"app":967,"orld":968,"col":969,"abl":970,"way":971,"ange":972,"Ġabout":973,"$\\":974,"ove":975,"ise":976,"ars":977,"span":978,"ee":979,")\\":980,"Ġshe":981,"Ġpeople":982,"Ġadd":983,"',":984,"Ġacc":985,"Ġbetween":986,"amma":987,"che":988,"ision":989,"Ġatt":990,"ball":991,"Ġgener":992,"13":993,"ues":994,"Ġthan":995,"Ġass":996,"ys":997,"Ġsome":998,"ute":999,"duc":1000,"Ġserv":1001,"Ġph":1002,"irect":1003,"ĠPro":1004,"Ġbec":1005,"sub":1006,"14":1007,"lo":1008,"Ġany":1009,"Con":1010,"âĢĿ":1011,"hat":1012,"ily":1013,"wn":1014,"eng":1015,"Ġ:":1016,"Ġbu":1017,"its":1018,"ined":1019,"div":1020,"Ġend":1021,"Ġline":1022,"ures":1023,"min":1024,"Ġop":1025,"Ġinv":1026,"_\\":1027,"yn":1028,"tring":1029,"Ġused":1030,"Ġstud":1031,"son":1032,"mu":1033,"tain":1034,"--------":1035,"uction":1036,"ature":1037,"ement":1038,"Ġshow":1039,"ck":1040,"gan":1041,"atic":1042,"Ġspec":1043,"iversity":1044,"Ġno":1045,"rough":1046,"ash":1047,"oh":1048,"ider":1049,"tt":1050,"air":1051,"Ġest":1052,"Ġget":1053,"hip":1054,"196":1055,"oci":1056,"></":1057,"11":1058,"Pro":1059,"ally":1060,"Ġsim":1061,"ts":1062,"ega":1063,"ho":1064,"****":1065,"ility":1066,"Ġmodel":1067,"Ġdata":1068,"Ġrem":1069,"=\\":1070,"ternal":1071,"ĠZ":1072,"oun":1073,"ason":1074,"oid":1075,"man":1076,"dot":1077,"igma":1078,"ric":1079,"))":1080,"}^{":1081,"lection":1082,"ible":1083,"Ġmost":1084,"ines":1085,"Ġbl":1086,"Ġac":1087,"ious":1088,"Ġ\\\\":1089,"part":1090,"}_{":1091,"Ġfe":1092,"21":1093,"ury":1094,"Ġmat":1095,"Ġ*/":1096,"Ġgr":1097,"ower":1098,"ond":1099,"mathbb":1100,"ethod":1101,"uss":1102,"ĠQ":1103,"ier":1104,"ized":1105,"25":1106,"bar":1107,"Ġequ":1108,"Ġdiffer":1109,"Ġent":1110,"Ġnumber":1111,"ning":1112,"><":1113,"ER":1114,"-\\":1115,"Ġuse":1116,"ever":1117,"outh":1118,"Ġman":1119,"idth":1120,"rent":1121,"pi":1122,"Ġmay":1123,"ve":1124,"ah":1125,"ough":1126,"Ġcall":1127,"Ġi":1128,"Ġcent":1129,"orth":1130,"Ġsystem":1131,"ins":1132,"ĠSh":1133,"phi":1134,"^{\\":1135,"Ġcor":1136,"Ġ{\\":1137,"ĠĠĠĠĠĠĠĠĠ":1138,"ym":1139,"az":1140,"Ġcur":1141,"../../":1142,"ĠAmerican":1143,"Ġthese":1144,"lambda":1145,"Ġed":1146,"Ġthrough":1147,"ife":1148,"ĉĉĉ":1149,"Ġgiv":1150,"Th":1151,"ĠâĢľ":1152,"ĠWe":1153,"Ġdet":1154,"Ġyears":1155,"Ġfound":1156,"ĠCol":1157,"reat":1158,"Ġour":1159,"Ġagain":1160,"30":1161,"ern":1162,"uary":1163,"ery":1164,"Ġconst":1165,"ĠFor":1166,"def":1167,"itt":1168,"align":1169,"Ġvalue":1170,"22":1171,"ĠInd":1172,"att":1173,"Ġeach":1174,"ript":1175,"Ġhim":1176,"ĠĠĠĠĠĠĠĠĠĠĠĠĠĠĠĠĠĠĠ":1177,"this":1178,"lation":1179,"ble":1180,"Ġthem":1181,"mall":1182,"ĠAs":1183,"ale":1184,"uth":1185,"====":1186,"Ġtype":1187,"Ġrequ":1188,"not":1189,"ism":1190,"Ġchar":1191,"ause":1192,"aid":1193,"Ġpoint":1194,"Ġcase":1195,"Ġwell":1196,"Ġeff":1197,"section":1198,"ices":1199,"aj":1200,"Ġoper":1201,"ouse":1202,"hen":1203,"Ġcre":1204,"overn":1205,"Ã©":1206,"('":1207,"Ġsign":1208,"html":1209,"Ġam":1210,"bf":1211,"ĠUniversity":1212,"000":1213,"Ġlink":1214,"trans":1215,"Ġgroup":1216,"194":1217,"Ġser":1218,"plic":1219,"ĠCl":1220,"ĠLe":1221,"IN":1222,"Ch":1223,"Ġrep":1224,"Ġfl":1225,"Ġinst":1226,"iver":1227,"Ġthree":1228,"yle":1229,"Ġback":1230,"ages":1231,"ĠTr":1232,"ĠUnited":1233,"vent":1234,"ask":1235,"ĠCon":1236,"195":1237,"ON":1238,"Ġstate":1239,"ĠDe":1240,"Ġsing":1241,"Ġx":1242,"ays":1243,"source":1244,"ike":1245,"Ġsecond":1246,"ional":1247,"Ġexp":1248,"apt":1249,"gy":1250,"Ġvari":1251,"Ġsame":1252,"Ġduring":1253,"ron":1254,"Ġ#":1255,"Com":1256,"dd":1257,"name":1258,"Ġgo":1259,"message":1260,"ĠAn":1261,"__":1262,"Name":1263,"ization":1264,"Ġhref":1265,"Ġel":1266,"item":1267,"ten":1268,"Ġfam":1269,"ner":1270,"ilon":1271,"Ġsur":1272,"Ġmin":1273,"ired":1274,"ments":1275,"Ġfield":1276,"Ġboth":1277,"Type":1278,"Ġ(\\":1279,"arly":1280,"ĠFr":1281,"eter":1282,"par":1283,"Ġart":1284,"mathbf":1285,"Ġmon":1286,"owever":1287,"erson":1288,"ister":1289,"array":1290,"param":1291,"Ġlead":1292,"Ġpartic":1293,"ule":1294,"ache":1295,"Ġcount":1296,"Ġval":1297,"Ġem":1298,".\"":1299,"Ġdesc":1300,"Ġappro":1301,"irc":1302,"import":1303,"ived":1304,"Âł":1305,"Ġteam":1306,"ĠSc":1307,"^{-":1308,"for":1309,"angle":1310,"Ġwhile":1311,"Ġdirect":1312,"var":1313,"Ġsol":1314,"Ġrele":1315,"ootball":1316,"ically":1317,"ple":1318,"sigma":1319,"by":1320,"beta":1321,"Ġmade":1322,"Ġhigh":1323,"}{\\":1324,"ample":1325,"Ġdec":1326,"ather":1327,"read":1328,"ole":1329,"Ġbr":1330,"Ġbeing":1331,"action":1332,"ural":1333,"Ġfinal":1334,"ument":1335,"fore":1336,"alse":1337,"Ġfollowing":1338,"Ġnon":1339,"Id":1340,"usic":1341,"ina":1342,"ilde":1343,"ĠX":1344,"bers":1345,"Ġdifferent":1346,"Ġself":1347,"Ġext":1348,"ober":1349,"ead":1350,"istory":1351,"ants":1352,"24":1353,"ST":1354,"Ġterm":1355,"uff":1356,"serv":1357,"Ġmed":1358,"itle":1359,"ke":1360,"Ġcond":1361,"String":1362,"Ġmany":1363,"gamma":1364,"Ġwrit":1365,"ote":1366,"here":1367,"eps":1368,"Ġstart":1369,"ets":1370,"ces":1371,"ohn":1372,"Ġorder":1373,"other":1374,"mod":1375,"ĠIs":1376,"ared":1377,"Ġperform":1378,"ĠEng":1379,"fl":1380,"Ġlinks":1381,"yp":1382,"ulation":1383,"ott":1384,"Res":1385,"ology":1386,"RE":1387,"ross":1388,"Ġpop":1389,"Ġlong":1390,"We":1391,"Ġ`":1392,"umn":1393,"iving":1394,"ception":1395,"omen":1396,"Cl":1397,"ĠStates":1398,"return":1399,"add":1400,"Ġfilm":1401,"ful":1402,"+\\":1403,"ĠShe":1404,"://":1405,"Ġbefore":1406,"23":1407,"mathrm":1408,"td":1409,"ains":1410,"work":1411,"Ġusing":1412,"class":1413,"rop":1414,"els":1415,"enn":1416,"Ġgiven":1417,"cept":1418,"Ġever":1419,"ica":1420,"AT":1421,"val":1422,"itions":1423,".,":1424,"til":1425,"Ġdisc":1426,"back":1427,"atch":1428,"velop":1429,"ault":1430,"rho":1431,"Ar":1432,"Ġmain":1433,"me":1434,"Ġ=>":1435,"Ġplayers":1436,"view":1437,"External":1438,"^\\":1439,"bl":1440,"Ġdevelop":1441,"ters":1442,"gram":1443,"It":1444,"ane":1445,"br":1446,"*}":1447,"50":1448,"ission":1449,"ĠComm":1450,"esc":1451,"Ġknown":1452,"code":1453,"ley":1454,"ified":1455,"Ġmov":1456,"delta":1457,"Ġprod":1458,"Ġconsider":1459,"ases":1460,"Ġappe":1461,"istr":1462,"bum":1463,"List":1464,"Ġbel":1465,"ĠBr":1466,"Ġlater":1467,"Ġrecord":1468,"mp":1469,"Ġfact":1470,"ength":1471,"au":1472,"##":1473,"Ġdr":1474,"/>":1475,"ĠOn":1476,"ency":1477,"ograph":1478,"une":1479,"Ġfin":1480,"Ġlist":1481,"Ġfour":1482,"Ġmem":1483,"ality":1484,"ced":1485,"Ġright":1486,"aking":1487,"AR":1488,"\".":1489,"ivate":1490,"Ġtest":1491,")}":1492,"Ġincluding":1493,"self":1494,"Tr":1495,"Ġbro":1496,"sy":1497,"Ġsmall":1498,"ives":1499,"Ġrun":1500,"org":1501,"ĠEx":1502,"Ġ!":1503,"):":1504,"ĠCount":1505,"ek":1506,"ively":1507,"sion":1508,"Ġz":1509,"formation":1510,"Ġcontin":1511,"ĠMar":1512,"Ġ_":1513,"Ġown":1514,"arge":1515,"Ġorig":1516,"type":1517,"Ġschool":1518,"led":1519,"ually":1520,"tau":1521,"Ġapp":1522,"width":1523,"ague":1524,"Ġsince":1525,"theta":1526,"Ġsupport":1527,"$-":1528,"ody":1529,"Ġbuild":1530,"]{":1531,"arn":1532,"ential":1533,"chi":1534,"arri":1535,"figure":1536,"big":1537,"Ġmethod":1538,"cdot":1539,"ĠPr":1540,"uro":1541,"arrow":1542,"Ġnow":1543,"translation":1544,"Ġagainst":1545,"ths":1546,"quad":1547,"Ġcould":1548,"ior":1549,"Ġsaid":1550,"\"/>":1551,"ĠPh":1552,"ribut":1553,"Ġerr":1554,"log":1555,"co":1556,"Ġseason":1557,"On":1558,"ĠJohn":1559,"Ġbir":1560,"ĠSp":1561,"aining":1562,"ternational":1563,"Ġ>":1564,"loc":1565,"leq":1566,"193":1567,"overnment":1568,"ger":1569,"}$.":1570,"ĠMay":1571,"Ġneed":1572,"ots":1573,"Ġlike":1574,"Ġparam":1575,"ĠPl":1576,"ĠNational":1577,"sec":1578,"Ġjust":1579,"}$,":1580,"med":1581,"af":1582,"Ġdep":1583,"Ġbecause":1584,"iqu":1585,"chn":1586,"Ġ)":1587,"Ġconstr":1588,"Ġelect":1589,"nu":1590,"por":1591,"times":1592,"epend":1593,"ai":1594,"Ġeffect":1595,"}(\\":1596,"Ġseries":1597,"aces":1598,"ĠWorld":1599,"Ġestabl":1600,"Ġpres":1601,"Ġgu":1602,"ĠOr":1603,"Ġfootball":1604,"ting":1605,"Ġcr":1606,"partial":1607,"urch":1608,"ID":1609,"rol":1610,"ĠĠĠĠĠĠĠĠĠĠĠĠĠĠĠĠĠĠĠĠĠĠĠĠĠĠĠĠĠĠĠĠ":1611,"omega":1612,"sk":1613,"Ġmet":1614,"ering":1615,"ele":1616,"ense":1617,"ĠBl":1618,"Ġwhat":1619,"ĠĠĊ":1620,"htt":1621,"Ġalbum":1622,"ital":1623,"Ġnull":1624,"27":1625,"Ġvar":1626,"26":1627,"Ġ--":1628,"Ġproper":1629,"play":1630,"Ġ==":1631,"eqn":1632,"Ġimp":1633,"fo":1634,"duced":1635,"ience":1636,"Ġshould":1637,"28":1638,"lex":1639,"Ġrepresent":1640,"Ġlocal":1641,"ĠAust":1642,"OR":1643,"Ġpresent":1644,"Ġexper":1645,"Ġopen":1646,"pre":1647,"SS":1648,"pm":1649,"ĠWar":1650,"ream":1651,"ify":1652,"ser":1653,"ained":1654,"raw":1655,"ler":1656,"ĠYork":1657,"includ":1658,"Ġfr":1659,"Ġbecame":1660,"Ġprocess":1661,"100":1662,"Ġcurrent":1663,"Un":1664,"ĠJan":1665,"Ġdescrib":1666,"ians":1667,"Ġtrue":1668,"Ġstat":1669,"LE":1670,"inc":1671,"reg":1672,"For":1673,"Ġstruct":1674,"Ġrece":1675,"iam":1676,"To":1677,"Ġfamily":1678,"uccess":1679,"Ġevery":1680,"respon":1681,"ival":1682,"Ġ,":1683,"Ġpolit":1684,"Ġsever":1685,"ĠCar":1686,"fty":1687,"Ġcharact":1688,"Ġchild":1689,"ĠCan":1690,"ĠJul":1691,"ven":1692,"Ġcalled":1693,"Ġcommun":1694,"Ġbased":1695,"Ġimport":1696,"Ġvery":1697,"infty":1698,"ety":1699,"ĠBrit":1700,"Ġvoid":1701,"Ġpass":1702,"Ġread":1703,"Ġprof":1704,"40":1705,"AL":1706,"Ġdesign":1707,"opt":1708,"eqref":1709,"amed":1710,"ground":1711,"2010":1712,"ĠSchool":1713,"Ġhand":1714,"ĠAd":1715,"oss":1716,"Ġdid":1717,"ability":1718,"arget":1719,"ided":1720,"tilde":1721,"etwork":1722,"arent":1723,"ports":1724,"ĠCounty":1725,"alth":1726,"Ġlast":1727,"rr":1728,"Ġtop":1729,"Ġcare":1730,"new":1731,"\")":1732,"Ġresults":1733,"field":1734,"29":1735,"reen":1736,"rist":1737,"rix":1738,"angu":1739,"2019":1740,"Delta":1741,"As":1742,"gr":1743,"Col":1744,"face":1745,"ium":1746,"vious":1747,"ĠNov":1748,"agn":1749,"ĠGr":1750,"ĠAnd":1751,"2016":1752,"ĠCent":1753,"cont":1754,"Ġbecom":1755,"itial":1756,"ĠSouth":1757,"Ġlarge":1758,"ajor":1759,"ised":1760,"oard":1761,"\\,":1762,"uild":1763,"space":1764,"ness":1765,"Ġobject":1766,"Ġeven":1767,"Ġlife":1768,"Ġsee":1769,"Ġuntil":1770,"ected":1771,"Ġlaw":1772,"ww":1773,"Ġthose":1774,"2015":1775,"rem":1776,"ĠâĢĶ":1777,"Ġdoes":1778,"2017":1779,"color":1780,"uthor":1781,"value":1782,"string":1783,"Ġincre":1784,"xi":1785,"Ġprogram":1786,"2014":1787,"2018":1788,"ird":1789,"\"><":1790,"requ":1791,"Ġsong":1792,"Ġdeath":1793,"Ġfalse":1794,"ĠAt":1795,"cur":1796,"Ġmake":1797,"Ġevent":1798,"oad":1799,"Ġposs":1800,"wards":1801,"Ġpar":1802,"ides":1803,"Ġrefer":1804,"ĠĠĠĠĠĠĠĠĠĠĠĠĠ":1805,"roll":1806,"ugust":1807,"Ġworld":1808,"Ġann":1809,"Ġorgan":1810,"Ġallow":1811,"Ġobtain":1812,"vert":1813,"Ġfind":1814,"This":1815,"where":1816,"2011":1817,"ĠGerm":1818,"Ġhel":1819,"arm":1820,"ĠGe":1821,"Ġleft":1822,"Ġanal":1823,"Ġopt":1824,"ptember":1825,"2013":1826,"********":1827,"32":1828,"dis":1829,"be":1830,"EN":1831,"Ġref":1832,"alk":1833,"2012":1834,"Ġmult":1835,"ava":1836,"Ġav":1837,"Ġmusic":1838,"Ġrespon":1839,"Al":1840,"olv":1841,"Ġ$(":1842,"Ġhead":1843,"hes":1844,"ended":1845,"urther":1846,"ĠOct":1847,"ped":1848,"side":1849,"met":1850,"|\\":1851,"ison":1852,"iness":1853,"...":1854,"olution":1855,"Ġoffic":1856,"Ob":1857,"Ġocc":1858,"Ġwin":1859,"ĠRe":1860,"order":1861,"ament":1862,"uck":1863,"ector":1864,"ĠPol":1865,"Ġbound":1866,"Ġarea":1867,"Ġgeneral":1868,"|-":1869,"Ġtem":1870,"istor":1871,"Ġbook":1872,"ats":1873,"Ġche":1874,"Ġseveral":1875,"umer":1876,"Ġnear":1877,"key":1878,"Ġmass":1879,"Ġlim":1880,"Ph":1881,"ene":1882,"mber":1883,"Cont":1884,"Ġelse":1885,"----------------":1886,"oman":1887,"ĠMarch":1888,"comm":1889,"eters":1890,"Ġrad":1891,"ately":1892,"Ġwon":1893,"ĠAss":1894,"data":1895,"idd":1896,"lege":1897,"Ġmeas":1898,"Ġobserv":1899,"ĠWh":1900,"Ġstand":1901,"ĠAll":1902,"orem":1903,"day":1904,"aint":1905,"')":1906,"Ġsingle":1907,"Ġoriginal":1908,"ĠAugust":1909,"pril":1910,"akes":1911,"lob":1912,"ĠSeptember":1913,"Ġalong":1914,"ends":1915,"Ġid":1916,"Ġu":1917,"unc":1918,"eqnarray":1919,"Ġway":1920,"born":1921,"Ġpower":1922,"iod":1923,"sq":1924,"ĠRes":1925,"energy":1926,"Ġdue":1927,"$$":1928,"aster":1929,"Ġprivate":1930,"ĠJanuary":1931,"ampions":1932,"ĠĠĠĠĠĠ":1933,"ribution":1934,"Ġcap":1935,"Ġarg":1936,"ĠPar":1937,"Ġproble":1938,"Ġhow":1939,"ush":1940,"mbol":1941,"ued":1942,"ĠEuro":1943,"Ġplace":1944,"lish":1945,"ĠThey":1946,"tract":1947,"Ġwithin":1948,"Ġvis":1949,"ĠOctober":1950,"itive":1951,"Ġlevel":1952,"Ġgame":1953,"ĠIf":1954,"2009":1955,"ĠMin":1956,"Ġaround":1957,"rt":1958,"ĠJune":1959,"ae":1960,"Ġtitle":1961,"time":1962,"Ġrespect":1963,"gor":1964,")$.":1965,"Ġelement":1966,"cember":1967,"ĠState":1968,"Ġcour":1969,"Ġmy":1970,"aving":1971,"ording":1972,"ĠJuly":1973,"ling":1974,"'t":1975,"Ġperson":1976,"less":1977,"2008":1978,"Ġformer":1979,"Ġreal":1980,"Data":1981,"\");":1982,"ctions":1983,"ries":1984,"Ġred":1985,"Ġkey":1986,"}}\\":1987,"hern":1988,"Value":1989,"ĠHowever":1990,"Om":1991,"Ġspace":1992,"itional":1993,"iter":1994,"ination":1995,"Ġident":1996,"ebr":1997,"ilit":1998,"Ġmark":1999,"off":2000,"SE":2001,"ords":2002,"script":2003,"test":2004,"An":2005,"Ġexpect":2006,"head":2007,"Ġexpl":2008,"ape":2009,"respond":2010,"He":2011,"Ġgovernment":2012,"sim":2013,"Ġdown":2014,"ilt":2015,"stit":2016,"ored":2017,"usiness":2018,"ager":2019,"lem":2020,"psi":2021,"ĠAustral":2022,"ĠApril":2023,"ĠII":2024,"Ġstring":2025,"aim":2026,"2020":2027,"vision":2028,"ĠCal":2029,"ĠNorth":2030,"ĠReg":2031,"Se":2032,"ification":2033,"wh":2034,"position":2035,"ators":2036,"inter":2037,"60":2038,"Ġsize":2039,"By":2040,"}[":2041,"reak":2042,"ĠĠĠĠĠĠĠĠĠĠĠĠĠĠĠĠĠĠĠĠĠĠĠ":2043,"omet":2044,"Ġearly":2045,"acy":2046,"lear":2047,"ĠMan":2048,"2007":2049,"illion":2050,"ĠCity":2051,"Ġsuccess":2052,"pp":2053,"Ġinformation":2054,"urg":2055,"Ġpubl":2056,"Omega":2057,"ift":2058,"Ind":2059,"Ġplayed":2060,"aced":2061,"ĠNovember":2062,"ourn":2063,"ances":2064,"ij":2065,"Set":2066,"Ġmuch":2067,"bs":2068,"DE":2069,"Ġ&&":2070,"ĠDecember":2071,"Ġreleased":2072,"ilar":2073,"Ġleg":2074,"ĠGu":2075,"ription":2076,"epsilon":2077,"Ġlet":2078,"2006":2079,"uk":2080,"Ġstill":2081,"ung":2082,"ope":2083,"AN":2084,"date":2085,"////":2086,"33":2087,"anguage":2088,"IT":2089,"Ġcity":2090,"Ġlarg":2091,"Ġsl":2092,"arr":2093,"ĠEurope":2094,"Ġwomen":2095,"Ġdem":2096,"ĠBe":2097,"AC":2098,"ony":2099,"ĠBritish":2100,"Ġ/**":2101,"Ġmembers":2102,"gin":2103,"imens":2104,"Ġsum":2105,"Gamma":2106,"ales":2107,"ploy":2108,"but":2109,"}_{\\":2110,"ero":2111,"search":2112,"iction":2113,"Ġdi":2114,"rite":2115,"cm":2116,"64":2117,"ocument":2118,"Ġpost":2119,"lim":2120,"Ġknow":2121,"Ġtot":2122,"ĠEd":2123,"Ġmust":2124,"Ġproject":2125,"itor":2126,"190":2127,"Ġband":2128,"($":2129,"ocial":2130,"posed":2131,"Ġscal":2132,"px":2133,"Ġiss":2134,"aus":2135,"see":2136,"ebruary":2137,"aff":2138,"uce":2139,"ham":2140,"Ġexample":2141,"Ġenergy":2142,"mary":2143,"ĠUS":2144,"Ġreport":2145,"Ġcharacter":2146,"ĠWill":2147,"leg":2148,"));":2149,"aper":2150,"Ġ${\\":2151,"Ġold":2152,"ĠTe":2153,"],":2154,"See":2155,"Ġmajor":2156,"ĠRep":2157,"^*":2158,"odes":2159,"ression":2160,"size":2161,"ography":2162,"Ġcal":2163,"Ġland":2164,"80":2165,"ĠCanad":2166,"lected":2167,"Ġtri":2168,"ze":2169,"no":2170,"Ġvalues":2171,"ĠChrist":2172,"Ġassum":2173,"ugg":2174,"ormal":2175,"ured":2176,"ĠčĊ":2177,"apan":2178,"Ġadv":2179,"Exception":2180,"Ġeng":2181,"Sh":2182,"Ġcrit":2183,"empt":2184,"Ġabove":2185,"ĠFig":2186,"with":2187,"Ġnext":2188,"uman":2189,"ources":2190,"ĠLeague":2191,")$,":2192,"ret":2193,"table":2194,"Ġaut":2195,"urs":2196,"ches":2197,"ĠKing":2198,"Ġtechn":2199,"Ġparticular":2200,"Ġstatic":2201,"Ġbeh":2202,"Err":2203,"rel":2204,"Ġbirths":2205,"oper":2206,"ĠCo":2207,"ples":2208,"Ġcorrespond":2209,"];":2210,"vir":2211,"Ġtake":2212,"atter":2213,"Ġinclude":2214,"Ġpat":2215,"ampionship":2216,"ties":2217,"Ġinteg":2218,"Ġhome":2219,"Ġcompet":2220,"tab":2221,"center":2222,"Ġprevious":2223,"psilon":2224,"iment":2225,"2000":2226,"Ġshort":2227,"90":2228,"Ġinterest":2229,"Ġ\\,":2230,"century":2231,"roid":2232,"CO":2233,"sqrt":2234,"ĠPart":2235,"lin":2236,"ĠString":2237,"Ġmember":2238,"Ġyour":2239,"ially":2240,"my":2241,"Ġbest":2242,"========":2243,"ĠFebruary":2244,"non":2245,"Ġanother":2246,"location":2247,"Ġ%":2248,"ervice":2249,"lor":2250,"Ġbas":2251,"Ġcareer":2252,"ino":2253,"Ġday":2254,"indow":2255,"nb":2256,"top":2257,"Ġdiv":2258,"mat":2259,"Ã¡":2260,"Ġfilms":2261,"ibr":2262,"Ġtyp":2263,"Ġperiod":2264,"Ġwithout":2265,"Ġclos":2266,"ME":2267,"Object":2268,"rench":2269,"Ġchang":2270,"conom":2271,"Ġden":2272,"ounc":2273,"ependent":2274,"adem":2275,"raft":2276,"Ġassoci":2277,"ered":2278,"45":2279,"Ġtown":2280,"Ġtotal":2281,"Pl":2282,"Ġinitial":2283,"Mod":2284,"}=":2285,"file":2286,"Ġpo":2287,"go":2288,"ĠYou":2289,"imate":2290,"Ġprot":2291,"Ġcomplet":2292,"fin":2293,"vare":2294,"ĠArm":2295,"2005":2296,"Ġcompany":2297,"^{(":2298,"Ġstyle":2299,"raphics":2300,"Ġview":2301,"list":2302,"Ġmap":2303,"};":2304,"ĠAfter":2305,"Not":2306,"de":2307,"Ġcar":2308,"ĠSup":2309,"capt":2310,"Ġaff":2311,"atures":2312,"Ġdom":2313,"ideo":2314,"Ġheld":2315,"ana":2316,"Ġ!=":2317,"Test":2318,"Ġla":2319,"Ġdescribed":2320,"ese":2321,"ĠAb":2322,"eder":2323,"eff":2324,"Ġcover":2325,"uit":2326,"Ġsimilar":2327,"Ġintro":2328,"}^{\\":2329,"Ġprom":2330,"load":2331,"though":2332,"Ġnetwork":2333,"ux":2334,"Ġbegan":2335,"ĠMc":2336,"ĠWest":2337,"Ġnamed":2338,"ĠHis":2339,"function":2340,"rangle":2341,"subsection":2342,"ĠNo":2343,"Ġsection":2344,"Ġsk":2345,"Ġversion":2346,"Ġ///":2347,"35":2348,"Ġexist":2349,"ĠMed":2350,"Ġhistory":2351,"Ġhig":2352,"CT":2353,"Ġdel":2354,"varepsilon":2355,"ixed":2356,"Ġspe":2357,"rew":2358,"lobal":2359,"().":2360,"icle":2361,"Ġet":2362,"uration":2363,"opy":2364,"Ġpopulation":2365,"Ġsat":2366,"osp":2367,"ention":2368,"ĠĠĠĠĊ":2369,"ĠThere":2370,"box":2371,"Ġhold":2372,"Ġgood":2373,"Sc":2374,"Ġnational":2375,"ĠSw":2376,"Re":2377,"alf":2378,"Im":2379,"ĠAfr":2380,"sequ":2381,"util":2382,"comp":2383,"rightarrow":2384,"Ġret":2385,"American":2386,"imal":2387,"ertain":2388,"ius":2389,"Ġposition":2390,"Ġtele":2391,"Ġtook":2392,"ivity":2393,"Ġpoints":2394,"ĠBy":2395,"bold":2396,"nbsp":2397,"ique":2398,")=":2399,"Ġjo":2400,"cul":2401,"ĠEnglish":2402,"istic":2403,"());":2404,"hold":2405,"ribute":2406,"Ġestablished":2407,"Ġder":2408,"caption":2409,"vers":2410,"Ġhere":2411,"ocus":2412,"ĠEn":2413,"Get":2414,"Ġservice":2415,"Ġinvest":2416,"group":2417,"urb":2418,"Ġcomput":2419,"''":2420,"semb":2421,"Ġlow":2422,"ĠRuss":2423,"Ġreceived":2424,"link":2425,"ington":2426,"ending":2427,"eople":2428,"75":2429,"Ġeduc":2430,"Ġstudy":2431,"Ġhouse":2432,"ĠAmer":2433,"aul":2434,"2004":2435,"plit":2436,"IC":2437,"ensity":2438,"Ġvol":2439,"Class":2440,"Ġorg":2441,"\";":2442,"Ġtext":2443,"idual":2444,"Ġchildren":2445,"textbf":2446,"ondon":2447,"eneral":2448,"rown":2449,"Ġdeterm":2450,"Ġdefined":2451,"sl":2452,"Ġlocated":2453,"rc":2454,"ĠJapan":2455,"vec":2456,"iles":2457,"dom":2458,"ĠEl":2459,".âĢĿ":2460,"\\\\\\\\":2461,"ster":2462,"refore":2463,"ither":2464,"31":2465,"Ġside":2466,"En":2467,"ailable":2468,"Ġprofess":2469,"Ġimportant":2470,"oll":2471,"idge":2472,"Error":2473,"Int":2474,"Ġturn":2475,"ways":2476,"ĠPres":2477,"Ġclub":2478,"Ġmax":2479,"Ġrest":2480,"ĠCor":2481,"Key":2482,"Ġregion":2483,"cor":2484,"ump":2485,"70":2486,"aged":2487,"Ġauthor":2488,"Ġerror":2489,"Ġage":2490,"ume":2491,"ĠBar":2492,"LL":2493,"index":2494,"aut":2495,"ological":2496,"âĢĶ":2497,"Ġcamp":2498,"Ġbusiness":2499,"ford":2500,"].":2501,"ĠCollege":2502,"ille":2503,"istrict":2504,"Ġstrong":2505,"Ġfull":2506,"ilitary":2507,"struct":2508,"Ġport":2509,"Ġmen":2510,"Ġep":2511,"Ġshown":2512,"ensure":2513,"AS":2514,"Ġcomb":2515,"Ġterms":2516,"99":2517,"emph":2518,"ought":2519,"Ġfew":2520,"Ġvill":2521,"ights":2522,"Ġshows":2523,"ones":2524,"nav":2525,"ĠDr":2526,"varphi":2527,"Ġtimes":2528,"Big":2529,"Ġfive":2530,"Ġpublished":2531,"Ġrole":2532,"Ġfile":2533,"Ġwar":2534,"RO":2535,"Ġappear":2536,"ĠTo":2537,"Ġalign":2538,"atus":2539,"ards":2540,"olic":2541,"iev":2542,"Ġbuilt":2543,"ently":2544,"http":2545,"Ġthird":2546,"Ġsix":2547,"plication":2548,"ald":2549,"Ġelection":2550,"Ġcountry":2551,"ĠRec":2552,"Ġenc":2553,"ynam":2554,"Ġrepl":2555,"Ġstation":2556,"Ġlog":2557,"ĠSer":2558,"Ġpot":2559,"public":2560,"includeg":2561,"gorith":2562,"includegraphics":2563,"Ġfore":2564,"ouncil":2565,"Ġbase":2566,"Ġpred":2567,"uation":2568,"frak":2569,"Ġcontrol":2570,"Ġquant":2571,"mm":2572,"cast":2573,"iber":2574,"viron":2575,"Ġspect":2576,"na":2577,"Ġdev":2578,"ories":2579,"ysis":2580,"Ġdeg":2581,"Ġstates":2582,"Ġfail":2583,"ĠArt":2584,"._":2585,"ude":2586,"iet":2587,"Ġconf":2588,"Ġweek":2589,"reet":2590,"ĠLondon":2591,"Ġprob":2592,"Ġgames":2593,"Ġlook":2594,"Ġcentury":2595,"Ġhelp":2596,"uf":2597,"Ġserved":2598,"Ġtarget":2599,"sw":2600,"Ġfollows":2601,"Ġsit":2602,"Ġpath":2603,"Ġwant":2604,"ges":2605,"path":2606,"Ġins":2607,"Ġproblem":2608,"Ġsw":2609,"With":2610,"Ġdiscuss":2611,"Ġphot":2612,"ĠHigh":2613,"xim":2614,"Ġaction":2615,"Ġaver":2616,"arried":2617,"oph":2618,"Ġoften":2619,"Ġincluded":2620,"stand":2621,"ĠChar":2622,"ves":2623,"ĠPark":2624,"['":2625,"ising":2626,"circ":2627,"AP":2628,"js":2629,"2003":2630,"Ġmean":2631,"estern":2632,"orph":2633,"ĠWilliam":2634,"overline":2635,"Ġgrad":2636,"Ġborn":2637,"inition":2638,"ĠHouse":2639,"umb":2640,"rest":2641,"ĠBut":2642,"Ġchange":2643,"Ġpossible":2644,"Ġamong":2645,"ĠMe":2646,"aken":2647,"bit":2648,"2021":2649,"Ġide":2650,"Ġrange":2651,"ief":2652,"\"></":2653,".</":2654,"ait":2655,"Ġless":2656,"ops":2657,"34":2658,"Or":2659,"Ġarch":2660,"ayer":2661,"ividual":2662,"ware":2663,"View":2664,"Ġblock":2665,"Ġfac":2666,"ĠAct":2667,"geq":2668,"ems":2669,"&\\":2670,"ĠFrench":2671,"ĠAir":2672,"style":2673,"ĠDav":2674,".~\\":2675,"Ġcho":2676,"Ġtrack":2677,"}).":2678,"ymmet":2679,"Ġphys":2680,"Ġgreat":2681,"Ġfeature":2682,"65":2683,"Ġfurther":2684,"proof":2685,"ĠAm":2686,"now":2687,"Ġmodels":2688,"Ġinvolv":2689,"aterial":2690,"Ġspecial":2691,"Ġsignific":2692,"Man":2693,"url":2694,"Ġcommon":2695,"map":2696,"ateg":2697,"Ġstructure":2698,"rows":2699,"iol":2700,"ables":2701,"pace":2702,"perty":2703,"unic":2704,"ĠComp":2705,"....":2706,"Ġproduct":2707,"Def":2708,"Ġdistr":2709,"Ġbuilding":2710,"Ġarr":2711,"pose":2712,"Ġeas":2713,"nder":2714,"ĉĉĉĉĉ":2715,"state":2716,"Ġmatch":2717,"Ġclaim":2718,"abor":2719,"2001":2720,"sup":2721,".}":2722,")^":2723,"ĠHer":2724,"Ġrequest":2725,"anch":2726,"cher":2727,"symbol":2728,"Ġcompos":2729,"ĠThese":2730,"Ġke":2731,"2002":2732,"summary":2733,"Ġbo":2734,"Ã³":2735,"ĠSch":2736,"');":2737,"ably":2738,"ules":2739,"Ġbecome":2740,"iple":2741,"Ġcou":2742,"reed":2743,"ĠAng":2744,"[\\":2745,"ĠBro":2746,"ship":2747,"189":2748,"Ġwater":2749,"Ġfree":2750,"Requ":2751,"iff":2752,"TE":2753,"ĠDistrict":2754,"Ġspecies":2755,"Ġwritten":2756,"Ġpri":2757,"mathfrak":2758,"inary":2759,"imum":2760,"Ġconc":2761,"clus":2762,"Ġrelations":2763,"Let":2764,"IS":2765,"Ġcompon":2766,"Ġattack":2767,"(),":2768,"ecut":2769,"FF":2770,"Ġvarious":2771,"Ġsay":2772,"etic":2773,"ĠInternational":2774,"File":2775,"point":2776,"ĠMon":2777,"ĠDep":2778,"ociety":2779,"ĠOne":2780,"PE":2781,"ustom":2782,"ĠLa":2783,"Ġair":2784,"ĠItal":2785,"ĠGerman":2786,")(":2787,"ĠHar":2788,"Ġmot":2789,"ii":2790,"yl":2791,"ION":2792,"Ġdistrict":2793,"Ġplayer":2794,"ached":2795,"ĠChe":2796,"ocr":2797,"ogn":2798,"ours":2799,"max":2800,"ĠChampionship":2801,"Ġcorre":2802,"At":2803,"idence":2804,"Ġevents":2805,"Ġsource":2806,"isf":2807,"ients":2808,"const":2809,"ails":2810,"38":2811,"ouble":2812,"},\\":2813,"188":2814,"ĠPer":2815,"Ġtelevision":2816,"node":2817,"ĠAg":2818,"annel":2819,"Ġtrad":2820,"Ġavailable":2821,"Qu":2822,"Ġmillion":2823,"Ġsuff":2824,"alt":2825,"Lambda":2826,"ackage":2827,"Time":2828,"from":2829,"mbox":2830,"Ġcult":2831,"Ġconsidered":2832,"yd":2833,"Ġsuper":2834,"uture":2835,"Ġresearch":2836,"ĠOff":2837,"']":2838,"LA":2839,"Ġant":2840,"evel":2841,"Ġpract":2842,"ught":2843,"ociation":2844,"ittle":2845,"itch":2846,"igned":2847,"langle":2848,"vironment":2849,"lete":2850,"Ġdistribution":2851,"prov":2852,"ĠQu":2853,"36":2854,"ournal":2855,"48":2856,"Ġprim":2857,"quot":2858,"Ġassert":2859,"era":2860,"Ġcommunity":2861,"Fil":2862,"``":2863,"lymp":2864,"\":":2865,"Ġcreated":2866,"ama":2867,"Ġkill":2868,"iforn":2869,"Ġhaving":2870,"Ġtheory":2871,"!--":2872,"ĠPhil":2873,"Ġpotential":2874,"Ġdon":2875,"Ġgen":2876,"bm":2877,"Bl":2878,"Ġdevelopment":2879,"uments":2880,"icient":2881,"Field":2882,"Ġcoll":2883,"ration":2884,"dt":2885,"avy":2886,"Ġlight":2887,"Ġfund":2888,"Ġindic":2889,"Ġhowever":2890,"Ġmeasure":2891,"Ġdied":2892,"State":2893,"New":2894,"ctor":2895,"flu":2896,"ĠCup":2897,"=\"+":2898,"Ġindividual":2899,"Ġproduction":2900,"Ġaccess":2901,"Ġcomplex":2902,"Ġhost":2903,"Ġleast":2904,"ifornia":2905,"=\"../../":2906,"}}$":2907,"attle":2908,"Ġperformance":2909,"Ġsy":2910,"Ġyoung":2911,"wide":2912,"ĠCour":2913,"37":2914,"Ġrecent":2915,"Phi":2916,"Ġsepar":2917,"Ġ?":2918,"Text":2919,"down":2920,"wid":2921,"andom":2922,"ivil":2923,"ready":2924,"hline":2925,"Ġproperty":2926,"ĠWhen":2927,"result":2928,"Add":2929,"Ġannoun":2930,"Ġsequ":2931,"Ġinput":2932,"ender":2933,"All":2934,"Ġsent":2935,"Ġinternational":2936,"Ġtw":2937,"ĠList":2938,"isc":2939,"oon":2940,"Over":2941,"39":2942,"orge":2943,"ĠMich":2944,"asing":2945,"ministr":2946,"appa":2947,"Ġnode":2948,"length":2949,"Ġlength":2950,"ession":2951,"Ġsocial":2952,"ÃŃ":2953,"amples":2954,"atural":2955,"inn":2956,"ĠIr":2957,"Ġworks":2958,"Ġcross":2959,"Ġear":2960,"44":2961,"Event":2962,"ĠIndian":2963,"Ġsite":2964,"most":2965,"55":2966,"ico":2967,"mult":2968,"earch":2969,"Ġsignificant":2970,"Ġ($":2971,"Ġconn":2972,"Ġnorth":2973,"Ġhistor":2974,"gress":2975,"useum":2976,"ldots":2977,"anish":2978,"Ġcommand":2979,"BC":2980,"/*":2981,"ection":2982,"Ġcontent":2983,"ension":2984,"error":2985,"utions":2986,"ogle":2987,"Ġlimit":2988,"Ġ()":2989,"ĠOb":2990,"Ġson":2991,"Ġpolitical":2992,"ĠPresident":2993,"aves":2994,"TR":2995,"uel":2996,"agement":2997,"1999":2998,"Ġled":2999,"Ġmagn":3000,"ĠAc":3001,"Form":3002,"hib":3003,"ĠSec":3004,"Ġcreate":3005,"Ġestim":3006,"stance":3007,"Ġcheck":3008,"Ġstory":3009,"Ġbreak":3010,"itted":3011,"Ġemploy":3012,"ring":3013,"Ġtry":3014,"Ġcirc":3015,".\\":3016,"gether":3017,"ara":3018,"Ġtogether":3019,"Ġrequire":3020,"oyal":3021,"ference":3022,"Ġcell":3023,"Ġgroups":3024,"1990":3025,"Ġcame":3026,"ĠCalifornia":3027,"Ġdiff":3028,"ibility":3029,"ls":3030,"asc":3031,"Ġfunctions":3032,"ĠEngland":3033,"mon":3034,"boldsymbol":3035,"ula":3036,"ĠDiv":3037,"ĠRepublic":3038,"Ġq":3039,"II":3040,"nection":3041,"ĠSan":3042,"Ġeconom":3043,"ĠSystem":3044,"Ġblack":3045,"Ġaddition":3046,"From":3047,"olean":3048,"Ġaverage":3049,"Ġthink":3050,"Ġnov":3051,"ks":3052,"Ġround":3053,"burg":3054,"Ps":3055,",\"":3056,"Ġhuman":3057,"duction":3058,"66":3059,"Ġquest":3060,"nonumber":3061,"rec":3062,"Ġfocus":3063,"Ġeither":3064,"Ġbackground":3065,"Equ":3066,"Result":3067,"Path":3068,"que":3069,"Ġparameters":3070,"ĠAmerica":3071,"Ġcost":3072,"ĠThen":3073,"Ġlower":3074,"Ġ);":3075,"Ġaccount":3076,"Ġhtt":3077,"Ġobtained":3078,"Ġneg":3079,"Node":3080,"lands":3081,"uggest":3082,"pen":3083,"otimes":3084,"iation":3085,"Ġpaper":3086,"ĠCr":3087,"Ġ:=":3088,"AD":3089,"Ġcontext":3090,"Ġdensity":3091,"ponent":3092,"Ġconsist":3093,"mark":3094,"Is":3095,"Ã¼":3096,"Ġdest":3097,"itect":3098,"ements":3099,"Ġcases":3100,"gorithm":3101,"Ġsett":3102,"Ġstarted":3103,"Ġput":3104,"Ġseen":3105,"âĢľ":3106,"omb":3107,"ken":3108,"If":3109,"exp":3110,"nown":3111,"Ġgrow":3112,"Map":3113,"Ġnever":3114,"ĠRiver":3115,"Ġarray":3116,"Ġimage":3117,"Info":3118,"ĠWith":3119,"Ġproduced":3120,"iddle":3121,"chiev":3122,"01":3123,"oted":3124,"Living":3125,"Ġvillage":3126,"Ġmer":3127,"ĠRev":3128,"Ġsouth":3129,"Ġsystems":3130,"Ġflow":3131,"())":3132,"user":3133,"body":3134,"Ġstudents":3135,"icy":3136,"ĠEast":3137,"eh":3138,"Ġfri":3139,"https":3140,"}),":3141,"Ad":3142,"Ġplan":3143,"Acc":3144,"Ġsatisf":3145,"ĠAustralia":3146,"ride":3147,"cy":3148,"abla":3149,"ĠAp":3150,"bor":3151,"ĠParty":3152,"Ġestablish":3153,"Element":3154,"1998":3155,"ett":3156,"ui":3157,"www":3158,"sf":3159,"artment":3160,"Ġprovide":3161,"Ġbi":3162,"Ġrate":3163,"Ġge":3164,"/**":3165,"Trans":3166,"cle":3167,"Ġtraining":3168,"Ġapproxim":3169,"People":3170,"Ġlate":3171,"aries":3172,"scal":3173,"Ġofficial":3174,"itte":3175,"MP":3176,"ael":3177,"Ġfather":3178,"ellow":3179,"kappa":3180,"Ġabs":3181,"ottom":3182,"Request":3183,"De":3184,"ceed":3185,"Pr":3186,"UR":3187,"tra":3188,"Ġcode":3189,"Context":3190,"ecess":3191,"ĠVal":3192,"Ġmoved":3193,"Ġsem":3194,"Ġhalf":3195,"ĠÃ":3196,"nabla":3197,"ged":3198,"Ġmom":3199,"Ġfeatures":3200,"ĠChurch":3201,"lying":3202,"Ġengine":3203,"Ġdat":3204,"eed":3205,"Ġwent":3206,"ĠAcc":3207,"ĠBer":3208,"Ġmeans":3209,"':":3210,"Index":3211,"ining":3212,"ades":3213,"version":3214,"ressed":3215,"Ġacross":3216,"Config":3217,"Ġdocument":3218,"avel":3219,"Param":3220,"Ġmiss":3221,"Ġ/>":3222,"History":3223,"Ġrequired":3224,"05":3225,"Ġvert":3226,"Ġsold":3227,"Ġship":3228,"Ġvideo":3229,"ES":3230,"ĠLet":3231,"Ġimplement":3232,"})$":3233,"subset":3234,"irt":3235,"Ġconfig":3236,"df":3237,",âĢĿ":3238,"Ġdays":3239,"ĠIndia":3240,"icon":3241,"Ġconstant":3242,"aps":3243,"Ġlabel":3244,"Ġapproach":3245,"Ġhom":3246,"Ġinstance":3247,"augh":3248,"Att":3249,"ĠĠĠĠĠĠĠĠĠĠĠĠĠĠĠĠĠĠĠĠĠĠĠĠĠĠĠ":3250,"ming":3251,"api":3252,"Rec":3253,"Ġreview":3254,"Ġservices":3255,"Service":3256,"49":3257,"Fr":3258,"Ġhigher":3259,"config":3260,"Sigma":3261,"oud":3262,"ayout":3263,"Ġworking":3264,"Ġfem":3265,"Ġhealth":3266,"Ġalready":3267,"2022":3268,"LO":3269,"inated":3270,"Ġcolor":3271,"ags":3272,"Ġuser":3273,"Ġindust":3274,"Ġbody":3275,"Ġcaus":3276,"Ġ``":3277,"Ġsurv":3278,"Ġparent":3279,"Ġpair":3280,"Ġsuggest":3281,"Ġtaken":3282,"Ġindex":3283,"ilities":3284,"ĠCouncil":3285,"Ġparameter":3286,"hel":3287,"Ġstandard":3288,"ĠPal":3289,"prime":3290,"Ġanalysis":3291,"iding":3292,"Ġgraph":3293,"ney":3294,"void":3295,"ensuremath":3296,"Build":3297,"input":3298,"ĠAward":3299,"Ġindependent":3300,"Ġbelow":3301,"mar":3302,"Ġconditions":3303,"Ġground":3304,"md":3305,"yr":3306,"year":3307,"Ġperm":3308,"ĠPort":3309,"ĠEuropean":3310,"true":3311,"Ass":3312,"Ġprovided":3313,"Ġbroad":3314,"Ġ(!":3315,"Ġmaking":3316,"CC":3317,"Ġresponse":3318,"ĠHol":3319,"apache":3320,"ocal":3321,"bra":3322,"draw":3323,"Ġactiv":3324,"iven":3325,"amespace":3326,"Ġsm":3327,"Ġmatrix":3328,"Ġbegin":3329,"Ġlanguage":3330,"Ġfar":3331,"Ġparticip":3332,"Ġfrequ":3333,"Ġconv":3334,"ounter":3335,"Ġexpected":3336,"Ġassociated":3337,"Ġaward":3338,"ĠÐ":3339,"ply":3340,"Ġclose":3341,"gen":3342,"Ġsolution":3343,"Ġconstruct":3344,"ha":3345,"ibrary":3346,"Ġable":3347,"Ġgl":3348,"Ġpresident":3349,"medi":3350,"cit":3351,"ership":3352,"****************":3353,"UT":3354,"ĠFl":3355,"cer":3356,"Ġtre":3357,"Ġannounced":3358,"ĠInstit":3359,"Ġattempt":3360,"citep":3361,"Ġmale":3362,"abled":3363,"Ġmilitary":3364,"ĠAnt":3365,"/\\":3366,"ĠDem":3367,"cell":3368,"After":3369,"plied":3370,"ĠGeneral":3371,"ED":3372,"Ġrespectively":3373,"ĠFirst":3374,"ĠSen":3375,"Ġdefault":3376,"ĠRed":3377,"Ġreturned":3378,"1996":3379,"Ġbeliev":3380,"\\%":3381,"Ġdeaths":3382,"ĠCourt":3383,"Ġachiev":3384,"Ġregular":3385,"Ġvia":3386,"ĠCanada":3387,"ĠFrance":3388,"ĠArmy":3389,"ns":3390,"lt":3391,"Ġbetter":3392,"Ġ/*":3393,"Ġcalcul":3394,"escription":3395,"\\[":3396,"Ġthus":3397,"Array":3398,"ĠOlymp":3399,"Ġproduc":3400,"och":3401,"1997":3402,"Ġworked":3403,"acing":3404,"Ġmeet":3405,"Ġalways":3406,"object":3407,"eturn":3408,"based":3409,"Ġnumer":3410,"come":3411,"Ġloss":3412,"47":3413,"~~":3414,"atives":3415,"block":3416,"187":3417,"ĠSim":3418,"rote":3419,"MA":3420,"ĠMal":3421,"1980":3422,"ĠPaul":3423,"Ġ-->":3424,"ĠStud":3425,"mit":3426,"='":3427,"IG":3428,"andid":3429,"Ġcondition":3430,"Ġequation":3431,"textit":3432,"ĠBel":3433,"}}{":3434,"ills":3435,"Ġtemper":3436,"ĠSo":3437,"US":3438,"Ġlik":3439,"men":3440,"ĠRober":3441,"chan":3442,"Ġhard":3443,"ET":3444,"orthern":3445,"Ġra":3446,"Ġstar":3447,"Ġtoo":3448,"itz":3449,"Ġill":3450,"CH":3451,"utes":3452,"Ġ},":3453,"cap":3454,"Ġdepend":3455,"ĠJames":3456,"';":3457,"call":3458,"irection":3459,"ML":3460,"icro":3461,"Ġothers":3462,"ĠLaw":3463,"ya":3464,"ands":3465,"####":3466,"iance":3467,"Ġpopular":3468,"Ġlines":3469,"Ġcorresponding":3470,"rad":3471,"Item":3472,"ĠSm":3473,"\\!":3474,"Ġes":3475,"hood":3476,"atal":3477,"Out":3478,"title":3479,"Ġsom":3480,"Ġlo":3481,"ĠRoman":3482,"refer":3483,"unk":3484,"Ġinflu":3485,"ĠCont":3486,"AB":3487,"Ser":3488,"And":3489,"ota":3490,"[]":3491,"ĠThom":3492,"Ġdecl":3493,"ago":3494,"Ġmaterial":3495,"aker":3496,"ĠHam":3497,"ashington":3498,"ĠMor":3499,"fil":3500,"plate":3501,"Ġ});":3502,"Ġhapp":3503,"Ġreported":3504,"Ġproperties":3505,"Ġviol":3506,"Ġappoint":3507,"Ġgive":3508,"which":3509,"ĠTrans":3510,"lang":3511,"++":3512,"bt":3513,"\"\"":3514,"ville":3515,"ĠEm":3516,"Ġinvestig":3517,"ĠQue":3518,"Ġoffer":3519,"istry":3520,"Ġrank":3521,"gcolor":3522,"67":3523,"anies":3524,"ris":3525,"ires":3526,"ĠStreet":3527,"loat":3528,"uz":3529,"ittee":3530,"Ġelements":3531,"Of":3532,"Ġang":3533,"Ġcertain":3534,"\\|":3535,"ync":3536,"iers":3537,"widet":3538,"Ġnormal":3539,"Ġdimens":3540,"ĠGeorge":3541,"foot":3542,"Ð°":3543,"Size":3544,"Ġtable":3545,"Ġthough":3546,"itar":3547,"under":3548,"Ġpolitic":3549,"Ġmethods":3550,"Ġphase":3551,"sin":3552,"aign":3553,"ordin":3554,"Ġgoing":3555,"Ġpay":3556,"Ġmight":3557,"ĠIm":3558,"Ġdegree":3559,"Ġcy":3560,"Ġaddress":3561,"ĠAssociation":3562,"1995":3563,"Ġfig":3564,"Ã¶":3565,"assert":3566,"Ġepis":3567,"ĠFil":3568,"Ġeducation":3569,"ĠChina":3570,"outhern":3571,"Ġliter":3572,"ĠCenter":3573,"Ġconstruction":3574,"Ġrelated":3575,"ĠDavid":3576,"ĠRich":3577,"icles":3578,"Ġpositive":3579,"Ġrecogn":3580,"Ġonce":3581,"eal":3582,"Ġcontinu":3583,"Ġparty":3584,"oe":3585,"izing":3586,"wise":3587,"ĠMod":3588,"small":3589,"Ġdebut":3590,"ĠSum":3591,"ĠStr":3592,"oke":3593,"Ġpur":3594,"95":3595,"aches":3596,"ailway":3597,"widetilde":3598,"roy":3599,"Ġaway":3600,"Ġwhether":3601,"word":3602,"ĠĠĠĠĠĠĠĠĠĠ":3603,"ĠDef":3604,"count":3605,"sembly":3606,"ĉĊ":3607,"ĠDes":3608,"ĠSince":3609,"AA":3610,"Hand":3611,"Ġareas":3612,"Val":3613,"Ġfuture":3614,"ida":3615,"ipal":3616,"Code":3617,"ederal":3618,"reek":3619,"berg":3620,"board":3621,"Ġtask":3622,"ani":3623,"istics":3624,"ĠâĢĺ":3625,"actions":3626,"Ġemb":3627,"MS":3628,"{-":3629,"ĠĠĠĠĠĠĠĠĠĠĠĠ":3630,"ĠLem":3631,"Ġhon":3632,"gt":3633,"Ġbgcolor":3634,"Reg":3635,"Ġdeveloped":3636,"ĠPat":3637,"ategory":3638,"ulated":3639,"68":3640,"ania":3641,"rup":3642,"08":3643,"plies":3644,"ado":3645,"ĠFrom":3646,"ING":3647,"Ġpast":3648,"Ġsubject":3649,"////////":3650,"Ġwrote":3651,"Ġwhose":3652,"arning":3653,"}-":3654,"change":3655,"Ġcollection":3656,"dots":3657,"bb":3658,"ulations":3659,"anel":3660,"uster":3661,"ĠMark":3662,"Ġborder":3663,"Inter":3664,"Fig":3665,"light":3666,"Ġbehav":3667,"ĠGl":3668,"Ġjoined":3669,"shire":3670,"atory":3671,"ened":3672,"raz":3673,"Ġvector":3674,"Comp":3675,"Ġcontains":3676,"Ġwebs":3677,"Ġmarried":3678,"Ġnum":3679,"centering":3680,"Ġmedia":3681,"rian":3682,"FA":3683,"Ġaccording":3684,"aring":3685,"Ġinstead":3686,"cos":3687,"model":3688,"Ġcontribut":3689,"ĠUnion":3690,"elling":3691,"Ġsuccessful":3692,"UN":3693,"Ġdirector":3694,"uffer":3695,"Ġrather":3696,"ĠDepartment":3697,"unn":3698,"OS":3699,"1994":3700,"ework":3701,"ander":3702,"thm":3703,"Ġwidth":3704,"struction":3705,"Ġlive":3706,"Ġben":3707,"Ġfields":3708,"bert":3709,"ĠRoyal":3710,"Ġpress":3711,"like":3712,"ĠDivision":3713,"check":3714,"omorph":3715,"Ġrights":3716,"1970":3717,"ĠÂ":3718,"Ġtreat":3719,"create":3720,"){":3721,"ĠHall":3722,"ersion":3723,"Ġlost":3724,",-":3725,"Ġoutput":3726,"Ġconduct":3727,"||":3728,"otes":3729,"ĠInt":3730,"ky":3731,"skip":3732,"Ġcontr":3733,"rd":3734,"Ġleading":3735,"sing":3736,"ched":3737,"\\]":3738,"Ġadded":3739,"Ge":3740,"Message":3741,"ĠInter":3742,"ids":3743,"gs":3744,"Ġadditional":3745,"ĠGermany":3746,"Sp":3747,"hand":3748,"using":3749,"asons":3750,"System":3751,"known":3752,"Ġdone":3753,"58":3754,"ĠDon":3755,"Ġrespons":3756,"bo":3757,"Ġreason":3758,"alls":3759,"Ġmarket":3760,"ĠGroup":3761,"ĠFranc":3762,"Ġmid":3763,"Ġinf":3764,"Ġrelease":3765,"Comm":3766,"ka":3767,"NA":3768,"Ġproof":3769,"print":3770,"Ð¾":3771,"aur":3772,"ĠWashington":3773,"Ġentire":3774,"There":3775,"Ġunit":3776,"Ġmoment":3777,"wood":3778,"Ġperformed":3779,"Ġinc":3780,"han":3781,"default":3782,"ĠLou":3783,"prop":3784,"IR":3785,"ises":3786,"Ġsurface":3787,"ein":3788,"Ġcentral":3789,"Ġproposed":3790,"Ġroad":3791,"46":3792,"band":3793,"07":3794,"agon":3795,"Ġmag":3796,"1992":3797,"ĠBlack":3798,"zeta":3799,"icted":3800,"verse":3801,"ĠMore":3802,"quare":3803,"Ġdefe":3804,"ĠMount":3805,"Ġcontract":3806,"Ġglobal":3807,"ĠEq":3808,"Ġlinear":3809,"Ġcenter":3810,"Ġdynam":3811,"used":3812,"ĠGet":3813,"42":3814,"Ġstep":3815,"Ġnecess":3816,"Ġaccept":3817,"riate":3818,"igen":3819,"Count":3820,"do":3821,"Ġspecific":3822,"=\"../../../../":3823,"Ġchurch":3824,"Ġcut":3825,"Up":3826,"ensive":3827,"ishing":3828,"ĠMy":3829,"Ġjava":3830,"Ġvalid":3831,"\\{":3832,"}+":3833,"Log":3834,"ping":3835,"aching":3836,".)":3837,"Ġclear":3838,"ites":3839,"Ġscale":3840,"alax":3841,"rael":3842,"Ġ&=":3843,"ĠJer":3844,"Ġsymmet":3845,"Ġcome":3846,"oz":3847,"ĠMart":3848,"writ":3849,"rated":3850,"ili":3851,"ĠPe":3852,"ston":3853,"ĠNe":3854,"Ġoccur":3855,"ULL":3856,"Ġcapt":3857,"start":3858,"IP":3859,"Ġmulti":3860,"Ġprofessional":3861,"ĠMary":3862,"aging":3863,"ĠThat":3864,"Ġnatural":3865,"Ġbig":3866,"ĠInstitute":3867,"base":3868,"ĠSection":3869,"rum":3870,"info":3871,"Ġlarger":3872,"roller":3873,"ria":3874,"ario":3875,"icult":3876,"Ġneigh":3877,"ĠAustralian":3878,"define":3879,"Ġcolumn":3880,"Ġincludes":3881,"Table":3882,")]":3883,"Ġcandid":3884,"Ġenvironment":3885,")=\\":3886,"Ġrandom":3887,"1993":3888,"Ġarchitect":3889,"Group":3890,"content":3891,"Manager":3892,"Ġsimple":3893,"Ġcontinued":3894,"Ġalmost":3895,"pite":3896,"Model":3897,">&":3898,"Ġprinc":3899,"Ġcle":3900,"ĠDo":3901,"Ġten":3902,"57":3903,"prod":3904,"06":3905,"SP":3906,"ĠClass":3907,"book":3908,"OT":3909,"ĠDi":3910,"ĠAcadem":3911,"Ġvict":3912,"(-":3913,";\\":3914,"Ġopened":3915,"ĠDuring":3916,"xy":3917,"09":3918,"Ġoffice":3919,"prot":3920,"Ġdefine":3921,"Ġstage":3922,"inese":3923,"display":3924,"ifier":3925,"Ġsongs":3926,"ĠCompany":3927,"ĠMex":3928,"Ġrev":3929,"Ġask":3930,"ĠArch":3931,"ĠGo":3932,"Ġ__":3933,"tes":3934,"Ġrat":3935,"liament":3936,"more":3937,"Ġchanges":3938,"Ent":3939,"500":3940,"tabular":3941,"ean":3942,"Ġmultiple":3943,"Ġintroduced":3944,"level":3945,"Ġadministr":3946,"ĠRobert":3947,"Ġexists":3948,"02":3949,"valid":3950,"Ġcompleted":3951,"arily":3952,"Ed":3953,"--------------------------------":3954,"Ġfinite":3955,"Ġzero":3956,"ĠCong":3957,"umni":3958,")^{":3959,"ptions":3960,"Color":3961,"ĠMusic":3962,"ĠSociety":3963,"Ġir":3964,"gebra":3965,"Ġwebsite":3966,"aine":3967,"Ġnovel":3968,"ĠVir":3969,"encies":3970,"cho":3971,"Ġbrother":3972,"irm":3973,"1991":3974,"astic":3975,"ĠGreen":3976,"oms":3977,"atform":3978,"End":3979,"ini":3980,"ĠTheorem":3981,"Ġlittle":3982,"Ġjob":3983,"Ġjud":3984,"itting":3985,"Ġmessage":3986,"Ġfront":3987,"include":3988,"}=\\":3989,"urity":3990,"04":3991,"Bar":3992,"98":3993,"isk":3994,"Ġcompanies":3995,"But":3996,"icial":3997,"Sub":3998,"Ġcannot":3999,"Ġqual":4000,"Ġsrc":4001,"Ġclosed":4002,"TD":4003,"$)":4004,"context":4005,"efore":4006,"Ġmove":4007,"Ġprior":4008,"Ġdaugh":4009,"oken":4010,"Ġteams":4011,"Ġmother":4012,"03":4013,"Ġalthough":4014,"Ġexecut":4015,"Ġrock":4016,"Ġ===":4017,"Ġfactor":4018,"Ġaud":4019,"Ġtransfer":4020,"Ġdiscover":4021,"Ġamount":4022,"Ġsche":4023,"Ġenough":4024,"unity":4025,"Ġpain":4026,"Ġsound":4027,"ĠRef":4028,"Ġwife":4029,"ĠCath":4030,"ponse":4031,"ĠPress":4032,"ĠRoad":4033,"ĠHen":4034,"ailed":4035,"}\\,":4036,"css":4037,"java":4038,"=\"#":4039,"Ġgot":4040,"ĠUK":4041,"Ġdistribut":4042,"Ġcomplete":4043,"Ġmonths":4044,"Ġobserved":4045,"Wh":4046,"Ġcourse":4047,"ĠNor":4048,"Ġexperiment":4049,"Ġsoft":4050,"ĠAfrican":4051,"build":4052,"Ġhor":4053,"asket":4054,"CE":4055,"oul":4056,"97":4057,"Ġwrite":4058,"spec":4059,"Off":4060,"anced":4061,"ano":4062,"OD":4063,"Ġdepart":4064,"Ġoperator":4065,"Ġsigned":4066,"Ġradio":4067,"Ġdate":4068,"Ġassist":4069,"ariant":4070,"plicit":4071,"Ġpage":4072,"Ġregard":4073,"Ġunderstand":4074,"Ġdirected":4075,"Ġactive":4076,"ĠMat":4077,"uated":4078,"pty":4079,"Ðµ":4080,"thing":4081,"ds":4082,"anks":4083,"Ġhimself":4084,"Ġoptions":4085,"eck":4086,"Ġforce":4087,"ores":4088,"Ġnil":4089,"ĠTest":4090,"Ġdistance":4091,"det":4092,"edd":4093,"gl":4094,"enced":4095,"Ġdisplay":4096,"lient":4097,"}]":4098,"ensus":4099,"unt":4100,"ios":4101,"TH":4102,"Ġmodern":4103,"ĠTex":4104,"ĠAdd":4105,"rey":4106,"Ġequival":4107,"No":4108,"ĠSam":4109,"net":4110,"ĠJack":4111,"Ġtaking":4112,"bour":4113,"estival":4114,"Ġupon":4115,"ensor":4116,"Ġkm":4117,"ledge":4118,"Ġrace":4119,"^+":4120,"eline":4121,"IL":4122,"pling":4123,"Ġformed":4124,"Ġcampaign":4125,"Ġrelig":4126,"Ġexact":4127,"ĠClub":4128,"ĠTV":4129,"ĠProv":4130,"Ġliving":4131,"1960":4132,"Ġitself":4133,"ĠJew":4134,"Ġcast":4135,"Ġwhite":4136,"ada":4137,"Ġkeep":4138,"ĠNot":4139,"Ġrelationship":4140,"41":4141,"olit":4142,"Ġrecorded":4143,"acher":4144,"ĠIsland":4145,"Ġcourt":4146,"Call":4147,"43":4148,"}_\\":4149,"ĠMinister":4150,"ĠDemocr":4151,"iform":4152,"arter":4153,"Ġdeal":4154,"den":4155,"Ap":4156,"CD":4157,"ĠAfrica":4158,"Ġcountries":4159,"ĠBay":4160,"ĠVol":4161,"Ġtax":4162,"overnor":4163,"current":4164,"Ġalgorithm":4165,"Ġremov":4166,"Ġstatus":4167,"long":4168,"ENT":4169,"Ġlargest":4170,"active":4171,"Ġeval":4172,"sey":4173,"ĠTur":4174,"Ġconstit":4175,"\\\\\\\\\\\\\\\\":4176,"{(":4177,"rip":4178,"ĠGod":4179,"Ġeffects":4180,"Ġfixed":4181,"ĠCanadian":4182,"ging":4183,"ĠSing":4184,"ething":4185,"ala":4186,"Sup":4187,"Ġparts":4188,"ĠMet":4189,"ĠMiss":4190,"reate":4191,"Ġschools":4192,"Exp":4193,"Ġstop":4194,"Ġinvolved":4195,"Ġsequence":4196,"cret":4197,"((":4198,"static":4199,"Ġpolicy":4200,"icense":4201,"Ġimprov":4202,"Ġkind":4203,"Ġpresented":4204,"}^\\":4205,"argin":4206,"izes":4207,"cel":4208,"alle":4209,"=\"../":4210,"isions":4211,"la":4212,"Ġcontain":4213,"Ġtherefore":4214,"cdots":4215,"88":4216,"Ġgoal":4217,"Ġprop":4218,"ĉĉĉĉĉĉ":4219,".~":4220,"core":4221,"Ġacqu":4222,"amily":4223,"Ġinj":4224,"Ġcurrently":4225,"Ġappeared":4226,"ĠWil":4227,"ĠTown":4228,"ĠRussian":4229,"nes":4230,"Ġdouble":4231,"atively":4232,"1989":4233,"Ġearli":4234,"tem":4235,"ua":4236,"56":4237,"ĠMuseum":4238,"ĠAngel":4239,"ĠChristian":4240,"ocol":4241,"Ġstre":4242,"Ġfav":4243,"widehat":4244,"Ġprint":4245,"package":4246,"actory":4247,"onic":4248,"ĠCap":4249,"ĠMr":4250,"Ġquestion":4251,"ĠKingdom":4252,"EE":4253,"Ġboard":4254,"Ġ};":4255,"hi":4256,"event":4257,"ĠCentral":4258,"Ġgives":4259,"oo":4260,"Ġsearch":4261,"ocation":4262,"yt":4263,"ĠCons":4264,"method":4265,"web":4266,"Ġelected":4267,"Psi":4268,"Ġspin":4269,"Ð¸":4270,"Ġstudies":4271,"Ġtro":4272,"Ġdifficult":4273,")}\\":4274,"ĠWhile":4275,"pc":4276,"Ġtransform":4277,"Ġfire":4278,"parent":4279,"Ġlocation":4280,"ospital":4281,"ona":4282,"Ġreally":4283,"ilies":4284,";</":4285,"acity":4286,"fill":4287,"ictor":4288,"ĠLeg":4289,"android":4290,"Ġnom":4291,"pecially":4292,"=#":4293,"inally":4294,"ooth":4295,"{{\\":4296,"Ġthroughout":4297,"ĠDirect":4298,"ena":4299,"Ġeffort":4300,"note":4301,"ĠGames":4302,"Ġbasis":4303,"Ġfollowed":4304,"Ġpers":4305,"ĠAlex":4306,"Ġbool":4307,"ĠIsrael":4308,"ilton":4309,"itude":4310,"rupt":4311,"Ġlearn":4312,"Ġfounded":4313,"dr":4314,"User":4315,"qquad":4316,"ĠSl":4317,"59":4318,"Ġchall":4319,"&=":4320,"1988":4321,"uate":4322,"dev":4323,"ĠHistor":4324,"Ġissues":4325,"Ġmechan":4326,"run":4327,"isl":4328,"Ġequal":4329,";&":4330,"({\\":4331,"ipp":4332,"Method":4333,"apping":4334,"ĠCO":4335,"Eng":4336,"ĠThomas":4337,"Ġappointed":4338,"height":4339,"ĠMad":4340,"flow":4341,"undle":4342,"contain":4343,"Ġincrease":4344,"ĠMont":4345,"false":4346,"Ġeight":4347,"iting":4348,"edy":4349,"lemma":4350,"Ġissue":4351,"Ġprovides":4352,"option":4353,"ĠBest":4354,"Override":4355,"Ġpercent":4356,"ĠGold":4357,"Ġinstit":4358,"ĠAcademy":4359,"cup":4360,"Ġbox":4361,"Ġmakes":4362,"Ġquantum":4363,"Ġbirth":4364,"doc":4365,"ĠJapanese":4366,"Ġalbums":4367,"Ġdesigned":4368,"Ġselected":4369,"iences":4370,"ĠWhite":4371,"ĠGreat":4372,"ĠWestern":4373,"ully":4374,"Ġrestr":4375,"Ġdraw":4376,"ĠMac":4377,"Ġtypes":4378,"irit":4379,"Property":4380,"izations":4381,"next":4382,"Ã¤":4383,"NS":4384,"Gr":4385,"ancial":4386,"Ġhous":4387,"Ġsets":4388,"RA":4389,"hest":4390,"Ġthought":4391,"Ġsays":4392,"Ġallowed":4393,"Ġlearning":4394,"ĠTexas":4395,"stant":4396,"scale":4397,"olar":4398,"Ġplaying":4399,"equiv":4400,"Ġtemperature":4401,"Str":4402,"aints":4403,"icol":4404,"page":4405,"Ġdirection":4406,"sm":4407,"ĠSet":4408,"evelop":4409,"idents":4410,"Read":4411,"Ġmar":4412,"asketball":4413,"abase":4414,"can":4415,"ĠMichael":4416,"Ġinstall":4417,"Ġweight":4418,"Ġgas":4419,"rief":4420,"Ġdam":4421,"ĠYear":4422,"Ġcomponent":4423,"Ġstars":4424,"jo":4425,"Ġbooks":4426,"dimens":4427,"Ġoutside":4428,"elt":4429,"ĠScott":4430,"init":4431,"Ġforces":4432,"Ġgave":4433,"âĢ¦":4434,"win":4435,"ĠEar":4436,"ĠJust":4437,"Ġeffective":4438,"ĠKore":4439,"ĠVirgin":4440,"Ġcivil":4441,"ĠChinese":4442,"appro":4443,"ĠSal":4444,"Ġcustom":4445,"aud":4446,"Ġusually":4447,"icture":4448,"google":4449,"het":4450,"abs":4451,"Ġsex":4452,"One":4453,"edge":4454,"First":4455,"erve":4456,"Ġcompar":4457,"Ġhttp":4458,"ĠSome":4459,"db":4460,"ĠĠĠĠĠĠĠĠĠĠĠĠĠĠĠĠĠ":4461,"Query":4462,"}|":4463,"Ġgalax":4464,"plications":4465,"case":4466,"ĠBook":4467,"Ġagre":4468,"ĠRad":4469,"Ġproblems":4470,"ĠZeal":4471,"errit":4472,"ĠGrand":4473,"Ġwords":4474,"fess":4475,"})\\":4476,"airs":4477,"96":4478,"ducation":4479,"star":4480,"Ġdirectly":4481,"77":4482,"Ġstd":4483,"apter":4484,"Ġsupported":4485,"ĠItalian":4486,"ithub":4487,"Ġheight":4488,"ĠSub":4489,"ĠUp":4490,"================":4491,"1987":4492,"Ġimm":4493,"Ġsubsequ":4494,"Ġrow":4495,"Ġmatter":4496,"ĠZealand":4497,"Ġthrow":4498,"ously":4499,"onstr":4500,"Ġexhib":4501,"ros":4502,"Ġprec":4503,"Ġboundary":4504,"oring":4505,"Ġwriting":4506,"ĠDay":4507,"](":4508,"Response":4509,"Ġtakes":4510,"ĠRecords":4511,"51":4512,"west":4513,"ĠCarol":4514,"ication":4515,"Ġpolice":4516,"well":4517,"yles":4518,"){\\":4519,"has":4520,"ĠMag":4521,"Ġeast":4522,"antic":4523,"ĠThus":4524,"Builder":4525,"Ġsil":4526,"ees":4527,"bound":4528,"ĠLouis":4529,"Ġsaf":4530,"Ġuses":4531,"Ġholds":4532,"ĠCharles":4533,"Ġespecially":4534,"Ġwindow":4535,">(":4536,"SC":4537,"PI":4538,"Ġcharacters":4539,"that":4540,"Ġfootballers":4541,"Ġprobability":4542,"Ġwest":4543,"mail":4544,"Ġjournal":4545,"ams":4546,"Ġfall":4547,"orage":4548,"oto":4549,"indent":4550,"ĠMer":4551,"52":4552,"Ġcompared":4553,"Ġ\\{":4554,"ĠĠĠĠĠĠĠĠĠĠĠĠĠĠĠĠĠĠĠĠĠĠĠĠĠĠĠĠĠĠĠ":4555,"Ġcred":4556,"Ġanim":4557,"vis":4558,"ĠFound":4559,"ĠMus":4560,"reme":4561,"ares":4562,"Ġsample":4563,"azine":4564,"ĠBill":4565,"thlet":4566,"Stream":4567,"Ġthings":4568,"ingu":4569,"Ġunits":4570,"54":4571,"Ġleague":4572,"Ġprimary":4573,"image":4574,"Ġbar":4575,"Ġtour":4576,"1986":4577,"road":4578,"gent":4579,"ba":4580,"Ġoperations":4581,"Ġdefinition":4582,"mid":4583,"eloc":4584,"Ġassume":4585,"Ġdaughter":4586,"textwidth":4587,"*{":4588,"reland":4589,"Ġunc":4590,"host":4591,"Ġ(\"":4592,"Ġdram":4593,"Ġvers":4594,"izer":4595,"ĠTom":4596,"Image":4597,"ĠCatholic":4598,"ĠSur":4599,"Ġrunning":4600,"ĠPublic":4601,"ĠFigure":4602,"Ġedge":4603,"merc":4604,"Ġplaces":4605,"Spec":4606,"Ġnight":4607,"stream":4608,"Ġoperation":4609,"Ġexperience":4610,"0000":4611,"Ġreve":4612,"Ġshall":4613,"IM":4614,"osen":4615,"Ġnuc":4616,"Since":4617,"Ġload":4618,"Ġmention":4619,"When":4620,"ĠScience":4621,"Ġrot":4622,"Ġupper":4623,"ĠSummer":4624,"unch":4625,"Client":4626,"Ġpersonal":4627,"github":4628,"ĠLat":4629,"Ġess":4630,"dl":4631,"Ġsomething":4632,"dir":4633,"Ġren":4634,"Ġdecision":4635,"main":4636,"1984":4637,"Ġincreasing":4638,"}^{(":4639,"isation":4640,"ename":4641,"ying":4642,"Ġphysical":4643,"ĠService":4644,"rial":4645,"Ġalumni":4646,"ĠCommission":4647,"pass":4648,"atre":4649,"olf":4650,"Ġunique":4651,"])":4652,"Ġindustry":4653,"pret":4654,"Ġkilled":4655,"OP":4656,"place":4657,"Ġmoney":4658,"ura":4659,"Ġapplication":4660,"command":4661,"ansion":4662,"EC":4663,"Ġ$(\\":4664,"1985":4665,"Ġsports":4666,"}}(":4667,"Ġfriend":4668,"<!--":4669,"Ġevidence":4670,"Ġpreviously":4671,"ĠBen":4672,"Mem":4673,"elves":4674,"onom":4675,"][":4676,"ircraft":4677,"Ġfram":4678,"pdf":4679,"Che":4680,"ĠHistory":4681,"anged":4682,"ĠDan":4683,"func":4684,"uns":4685,"Ġsus":4686,"Ġimpact":4687,"null":4688,"kr":4689,"istan":4690,"Ġprote":4691,"Ġmus":4692,"Ġobjects":4693,"namespace":4694,"inct":4695,"server":4696,"Ġnumbers":4697,"Ġreference":4698,"Ġlikely":4699,"igation":4700,"ĠIN":4701,"Ġandroid":4702,"Ġreplaced":4703,"yper":4704,"very":4705,"Ġcontinue":4706,"Input":4707,"Ġguitar":4708,"Act":4709,"Ġseven":4710,")</":4711,"Ġbecomes":4712,"Date":4713,"Ġnote":4714,"Ġword":4715,"aven":4716,"Ġfight":4717,"ĠWork":4718,"ĠFore":4719,"Ġinit":4720,"ĠJose":4721,"53":4722,"astern":4723,"ĠBo":4724,"nce":4725,"porary":4726,"Ġtowards":4727,"ĠOlympics":4728,"Ġstated":4729,"Ġtoday":4730,"agram":4731,"Ġsources":4732,"grad":4733,"ĠNULL":4734,"Ġelectron":4735,"Ġaccur":4736,"ĠFrank":4737,"Ġbehind":4738,"ometimes":4739,"ĠFrancis":4740,"Ġnames":4741,"Ġimmedi":4742,"arts":4743,"final":4744,"Ġdemonstr":4745,"ca":4746,"Ġbuildings":4747,"Ġwhole":4748,"ita":4749,"Ġchanged":4750,"clusion":4751,"Ġsen":4752,"idden":4753,"ĠFootball":4754,"ĠSpec":4755,"Ġlove":4756,"ĠSmith":4757,"png":4758,"App":4759,"Ġstudied":4760,"Ġsmaller":4761,"Dis":4762,"Ġadj":4763,"anning":4764,"ĠOther":4765,"km":4766,"Ġchannel":4767,"query":4768,"Ġcoach":4769,"Ġfemale":4770,"Ġtalk":4771,"Ġartists":4772,"ĠOut":4773,"Ġexcept":4774,"78":4775,"Line":4776,"Ġequations":4777,"ĠEv":4778,"FI":4779,"ĠAccording":4780,"ĠTor":4781,"ĠResearch":4782,"Source":4783,"ĠParis":4784,"erman":4785,"ĠFlor":4786,"Ġord":4787,"Ġ<<":4788,"child":4789,"ĠRock":4790,"Ġneeded":4791,"Ġdig":4792,"Ġmount":4793,"Ġsaw":4794,"Ġyet":4795,"63":4796,"}\\\\":4797,"Ġfinished":4798,"Le":4799,"Ġcoordin":4800,"inst":4801,"finished":4802,"ĠRichard":4803,"GL":4804,"ners":4805,"Ġcapital":4806,"Ġgenerated":4807,"Ġaltern":4808,"Ġdetails":4809,"Ġwriter":4810,"ols":4811,"Ġremains":4812,"ONT":4813,"Ġmaintain":4814,"Ġstaff":4815,"1950":4816,"Ġtransl":4817,"Block":4818,"Ġmaximum":4819,"vention":4820,"reater":4821,"1983":4822,"Be":4823,"ĠSy":4824,"Ġscient":4825,"Ġrule":4826,"oice":4827,"Ġbenef":4828,"Gener":4829,"69":4830,"ki":4831,"Char":4832,"Status":4833,"eria":4834,"Ġ->":4835,"ips":4836,"ĠCommittee":4837,"arks":4838,"ĠMass":4839,"CA":4840,"}:":4841,"ĠSuper":4842,"lector":4843,"first":4844,"Ġcritical":4845,"dec":4846,"php":4847,"Util":4848,"Ġtransport":4849,"Back":4850,"dist":4851,"BA":4852,"Ġepisode":4853,"ĠLemma":4854,"Ġrepresentation":4855,"client":4856,"Attribute":4857,"ufact":4858,"Ġapplied":4859,"Ġeventually":4860,"SU":4861,"ĠPeter":4862,"ening":4863,"ollowing":4864,"Head":4865,"lev":4866,"ĠHow":4867,"ye":4868,"strong":4869,"Ġrepresented":4870,"Oper":4871,"button":4872,"ĠCongress":4873,"UE":4874,"Ġsecur":4875,"Ġtransition":4876,"icago":4877,"ialog":4878,"Ġconcept":4879,"ether":4880,"Ġveloc":4881,"Ġstream":4882,"ells":4883,"ias":4884,"Ġimages":4885,"Ġemer":4886,"ĠDis":4887,"Ġlonger":4888,"ifying":4889,"IV":4890,"Base":4891,"Ġlisted":4892,"ategy":4893,"Ġcorrect":4894,"anger":4895,"Co":4896,"arian":4897,"ĠDel":4898,"ube":4899,"ĠWomen":4900,"Ġlot":4901,"nect":4902,"Ġexpand":4903,"Ġpattern":4904,"Ġtourn":4905,"bon":4906,"({":4907,"Ġstructures":4908,"background":4909,"lv":4910,"pected":4911,"Ġmunic":4912,"62":4913,"oding":4914,")-":4915,"oma":4916,"urrent":4917,"Ġsens":4918,"Ġfood":4919,"Fl":4920,"char":4921,"Ġpractice":4922,"Ġcomponents":4923,"Ġcharg":4924,"Ġinternal":4925,"ĠSecond":4926,"AG":4927,"Ð½":4928,"Ġadm":4929,"Ġtit":4930,"Ġfamilies":4931,"request":4932,"Ġmonth":4933,"track":4934,"Ġconcern":4935,"split":4936,"Ġpeak":4937,"Ġ&\\":4938,"Ġcopy":4939,"element":4940,"Ġstations":4941,"Ġconver":4942,"aval":4943,"mathsf":4944,"lib":4945,"]$":4946,"Ġoriginally":4947,"options":4948,"mercial":4949,"ĠOrder":4950,"Ġdifference":4951,"1982":4952,"achine":4953,"Ġdrop":4954,"61":4955,"oviet":4956,"Ġste":4957,"Ġidea":4958,"FC":4959,"Ġsetting":4960,"Ġvirt":4961,"razil":4962,"ĠHill":4963,"uan":4964,"module":4965,"orial":4966,"Pos":4967,"ĠLos":4968,"Ġactually":4969,"ĠSpanish":4970,"ugin":4971,"za":4972,"Ġreached":4973,"Ġadapt":4974,"ishop":4975,"Ġscreen":4976,"Ġrelation":4977,"irl":4978,"ĠTechn":4979,"eger":4980,"ĠRob":4981,"ĠMel":4982,"Ġtree":4983,"Ġprotected":4984,"idae":4985,"Ġoccup":4986,"Ġfeel":4987,"olk":4988,"append":4989,"Instance":4990,"Resource":4991,"Ġnews":4992,"anta":4993,"hspace":4994,"xspace":4995,"Ġreading":4996,"Med":4997,"ved":4998,"tx":4999,"Ġallows":5000,"Ġartist":5001,"Ġbur":5002,"Ġfa":5003,"She":5004,"ĠGovernment":5005,"Ġmix":5006,"ĠPri":5007,"Ġscen":5008,"Ġmissing":5009,"jav":5010,"dimensional":5011,"Ġmode":5012,"Part":5013,"Ġrelative":5014,"ĠIreland":5015,"igan":5016,"ĠPo":5017,"}}{\\":5018,"Per":5019,"args":5020,"Ġsignal":5021,"ATE":5022,"FL":5023,"isher":5024,"ici":5025,"loor":5026,"ĠHealth":5027,"mes":5028,"TO":5029,"operat":5030,"ulture":5031,"Ġtravel":5032,"Ġgenerally":5033,"Ġbeginning":5034,"Ġdeep":5035,"anned":5036,"Ġmedal":5037,"Ġsense":5038,"1979":5039,"}/":5040,"ĠGeorg":5041,"Ġlegal":5042,"ĠVictor":5043,"EX":5044,"Ġlimited":5045,"ln":5046,"YPE":5047,"}+\\":5048,"language":5049,"local":5050,"Ġbehavior":5051,"Ġearlier":5052,"iments":5053,"'$":5054,"arp":5055,"ÑĤ":5056,"ĠHenry":5057,"opl":5058,"Ġoption":5059,"operatorn":5060,"Ġded":5061,"Ġspeed":5062,"ĠWeb":5063,"Ġdenote":5064,"adding":5065,"Ġcollege":5066,"people":5067,"lam":5068,"Ġsch":5069,"Ġer":5070,"Ġgold":5071,"Ġculture":5072,"Ġface":5073,"itiz":5074,"ĠForce":5075,"Ġscience":5076,"igr":5077,"Ġplant":5078,"ao":5079,"ih":5080,"operatorname":5081,"dat":5082,"ĠVirginia":5083,"AM":5084,"gener":5085,"Ġconnection":5086,"SO":5087,"Ġyield":5088,"ĠĠĠĠĠĠĠĠĠĠĠĠĠĠ":5089,"Ġmovement":5090,"\").":5091,"Ġneut":5092,"Ġexpression":5093,"ĠPenn":5094,"ĠMem":5095,"Ġboolean":5096,"ĠNews":5097,"Ġevolution":5098,"ĠCamp":5099,"ĠRem":5100,"Ġnecessary":5101,"elebr":5102,"target":5103,"ayers":5104,"nel":5105,"write":5106,"auge":5107,"olve":5108,"ĠBur":5109,"agger":5110,"ĠRussia":5111,"Ġmanagement":5112,"ental":5113,"Ġprove":5114,"Ġplaced":5115,"Action":5116,"Ġremained":5117,"aled":5118,"ebug":5119,"Ġ-\\":5120,"Ġexpress":5121,"Can":5122,"ella":5123,"1981":5124,"Ġcritic":5125,"87":5126,"unfinished":5127,"Ġautom":5128,"Ġsolutions":5129,"di":5130,"Ġbelong":5131,"ĠBoard":5132,"Ġhit":5133,"Ġlack":5134,"ĠApp":5135,"Rep":5136,"Ġformat":5137,"citet":5138,"Ġfourth":5139,"Ġdecided":5140,"utch":5141,"Ġleader":5142,"Ġruns":5143,"atur":5144,"ĠFilm":5145,"&&":5146,"fe":5147,"85":5148,"Ġeconomic":5149,"bottom":5150,"Ġhighest":5151,"}-\\":5152,"ÑĢ":5153,"ĠLake":5154,"|^":5155,"post":5156,"noindent":5157,"Ġsimply":5158,"usion":5159,"Ġbank":5160,"ributes":5161,"open":5162,"Ġseg":5163,"Ġcharge":5164,"ĠOper":5165,"Ġpassed":5166,"Ġbrought":5167,"Ġfailed":5168,"allet":5169,"Ġorganization":5170,"Ã¨":5171,"Ġdescription":5172,"Ġawarded":5173,"Ġuns":5174,"Ġarticle":5175,"illa":5176,"neq":5177,"Ġalgebra":5178,"HT":5179,"rep":5180,"Ġdetermined":5181,"Ġconclud":5182,"Ġ...":5183,"Ġnature":5184,"oys":5185,"Ġsecurity":5186,"Ġprem":5187,"Ġremain":5188,"Ġavoid":5189,"Ġlatter":5190,"uge":5191,"Ġconnected":5192,"Br":5193,"omial":5194,"ĠFin":5195,"ĠMexico":5196,"Ġforms":5197,"Ġdomain":5198,"itors":5199,"Ġitem":5200,"len":5201,"Ġdestroy":5202,"icket":5203,"ussian":5204,"azz":5205,"Null":5206,"ĠArts":5207,"Ġcompetition":5208,"Ġstreng":5209,"Ġwid":5210,"otion":5211,"Ġappears":5212,"Ġdatas":5213,"Ġbit":5214,"Ġtold":5215,"Ġregions":5216,"eve":5217,"PC":5218,"Ġdecre":5219,"ockey":5220,"1972":5221,"Ġvoc":5222,"Ġhousehold":5223,"ĠSk":5224,"SI":5225,"Ġfeatured":5226,"ĠĠĠĠĠĠĠĠĊ":5227,")}{":5228,"\"),":5229,"Nav":5230,"Ab":5231,"enumer":5232,"LT":5233,"Ġillust":5234,"Ġapproximately":5235,"ĠSecret":5236,"ĠAnn":5237,"ĠOpen":5238,"theorem":5239,"Ġlevels":5240,"Ġanti":5241,"1976":5242,"Ġball":5243,"HE":5244,"atrix":5245,"ERT":5246,"Ġstarting":5247,"Ġcoeff":5248,"ĠIll":5249,"otype":5250,"Ġtim":5251,"Ġpolitician":5252,"Ġimplies":5253,"Ġgrant":5254,"\\,\\":5255,"perties":5256,"Ġax":5257,"ĠChicago":5258,"Ġwoman":5259,"Ã³n":5260,"Ġgrowth":5261,"Ġorigin":5262,"Ġforward":5263,"Ġneeds":5264,"Ġchoice":5265,"1978":5266,"Token":5267,"ĠSwed":5268,"Ġcomes":5269,"ĠScot":5270,"Cell":5271,"ĠEmp":5272,"war":5273,"ometry":5274,"Ġquick":5275,"Ġaircraft":5276,"header":5277,"Ġsoon":5278,"Ġclassical":5279,"allel":5280,"Ġ\"\"\"":5281,"Ġtechnology":5282,"Äģ":5283,"Ġonline":5284,"Ġveh":5285,"Ġbring":5286,"Ġmeaning":5287,"ĠDen":5288,"Ġcomment":5289,"omin":5290,"udd":5291,"ĠAtl":5292,"otic":5293,"Ġsymbol":5294,"anda":5295,"Ġnoted":5296,"Ġtrade":5297,"ĠFlorida":5298,"Ġincreased":5299,"Sim":5300,"Ġproced":5301,"Ġrules":5302,"ecause":5303,"Ġmur":5304,"Handler":5305,"evelopment":5306,"Ġbre":5307,"$}":5308,"mselves":5309,"weight":5310,"${":5311,"........":5312,"ĠAssembly":5313,"Ġfinancial":5314,"bin":5315,"obile":5316,"uke":5317,"pol":5318,"ĠAngeles":5319,"rl":5320,"ĠBrown":5321,"Ġwhy":5322,"Ġesc":5323,"Ġstudent":5324,"PS":5325,"Ġoverall":5326,"stract":5327,"ĠMo":5328,"ĠItaly":5329,"300":5330,"Ġshare":5331,"anner":5332,"Ġanc":5333,"1974":5334,"column":5335,"ĠIts":5336,"Ġweak":5337,"Ġ_{":5338,"flict":5339,"TV":5340,"Ġextended":5341,"Ġclasses":5342,"Ġrap":5343,"Ġparticularly":5344,"inem":5345,"gn":5346,"tex":5347,"Ġmagnetic":5348,")}$":5349,"1975":5350,"Ġtrain":5351,"arser":5352,"1977":5353,"Ġsinger":5354,"ien":5355,"Ġresulting":5356,"Ġ+=":5357,"Ġpurch":5358,"Ġthemselves":5359,"Ġinside":5360,"Ġextends":5361,"ĠNote":5362,"Ġscore":5363,"Mar":5364,"Ġvariables":5365,"Ġminor":5366,"ĠCast":5367,"resh":5368,"adata":5369,"Component":5370,"Ġsolid":5371,"Ġknowledge":5372,"bul":5373,"Ġacadem":5374,"DO":5375,"89":5376,"Ġgrand":5377,"ĠTwo":5378,"Ġhot":5379,"ĠLand":5380,"Ġopport":5381,"ette":5382,"Ġwide":5383,"Ġresource":5384,"ĠPost":5385,"project":5386,"BS":5387,"Ġmedical":5388,"Ġca":5389,"ĠSeries":5390,"Ġpresence":5391,"Ġearn":5392,"Start":5393,"gu":5394,"Ġfra":5395,"Early":5396,"ĠForm":5397,"empty":5398,";\"":5399,"iverse":5400,"Ġequivalent":5401,"Ġfit":5402,"mas":5403,"FT":5404,"Ġdark":5405,"Ġhours":5406,"Ġ]":5407,"approx":5408,"ĠKh":5409,"ĠAlthough":5410,"ĠVer":5411,"ĠTherefore":5412,"Ġtraditional":5413,"Ġoptim":5414,"linear":5415,"pat":5416,"find":5417,"urt":5418,"Ġapply":5419,"Ġvariable":5420,"ifact":5421,"iece":5422,"1968":5423,"Hel":5424,"Ġselection":5425,"force":5426,"font":5427,"iana":5428,"Ġcop":5429,"Ġspent":5430,"Ġcounter":5431,"Vert":5432,"vant":5433,"member":5434,"Content":5435,"tings":5436,"Ġinterview":5437,"ĠTable":5438,"uled":5439,"Ġwalk":5440,"Ġspectrum":5441,"ola":5442,"Ġmanager":5443,"Ġentry":5444,"abit":5445,"Options":5446,"Ġfigure":5447,"Ġargument":5448,"reedom":5449,"Ġiter":5450,"Ġcontact":5451,"iring":5452,"Ġrecon":5453,"navbar":5454,"Ġcause":5455,"1973":5456,"Ġprograms":5457,"ĠTime":5458,"Equal":5459,"ĠTimes":5460,"Ġplays":5461,"Ġstri":5462,"ptr":5463,"only":5464,"MM":5465,"inos":5466,"ĠUnder":5467,"}}_":5468,"Ġconnect":5469,"{}":5470,"areer":5471,"Ġproducts":5472,"Ġquality":5473,"Ġrecently":5474,"ĠStar":5475,"iÄ":5476,"Ġdeb":5477,"Ġregister":5478,"Ġvolume":5479,"Ġthreat":5480,"ims":5481,"[\"":5482,"ancy":5483,"Ġthrows":5484,"icated":5485,"lock":5486,"Ġpen":5487,"enumerate":5488,"Run":5489,"Ġscored":5490,"rea":5491,"Ġclient":5492,"ĠHon":5493,"ĠFoundation":5494,"Ġrob":5495,"ĠSaint":5496,"Ġhol":5497,"Ġratio":5498,"riz":5499,"Ġvac":5500,"ĠFestival":5501,"Work":5502,"ĠObject":5503,"ĠCD":5504,"inner":5505,"ervation":5506,"xml":5507,"iller":5508,"Ġfif":5509,"Ġrecover":5510,"greg":5511,"Pre":5512,"Ġprison":5513,"Ġpick":5514,"Ġsometimes":5515,"Ġconsum":5516,"number":5517,"Function":5518,"ato":5519,"Ġtournament":5520,"obj":5521,"Ġestablishments":5522,"ĠLiber":5523,"Buffer":5524,"ouri":5525,"ĠParliament":5526,"itemize":5527,"ĠReturn":5528,"Ġeditor":5529,"process":5530,"ady":5531,"Em":5532,"Ġsched":5533,"Ġincor":5534,"Ġplatform":5535,"ategor":5536,"Ġmajority":5537,"json":5538,"ĠNavy":5539,"Ġcaused":5540,"]\\":5541,"py":5542,"Ġmanufact":5543,"scr":5544,"iano":5545,"Ġremaining":5546,"Ġbroadcast":5547,"Ġmodule":5548,"Ġconsists":5549,"400":5550,"enge":5551,"Ġvelocity":5552,"ech":5553,"REF":5554,"entry":5555,"ils":5556,"Ġneighbor":5557,"Prov":5558,"86":5559,"ugby":5560,"then":5561,"Ġ;":5562,"Ġadopt":5563,"ĠCarolina":5564,"ictions":5565,"ĠHamilton":5566,"Ġactivities":5567,"Ġagreement":5568,"Ġinn":5569,"Ġfederal":5570,"1971":5571,"ĠOver":5572,"ĠRegister":5573,"Point":5574,"Pi":5575,"Ġspecified":5576,"matrix":5577,"ĠPet":5578,"Ġmemory":5579,"ĠOh":5580,"Notes":5581,"allery":5582,"Number":5583,"vspace":5584,"num":5585,"Note":5586,"Ġprogress":5587,"Ġwriters":5588,"property":5589,"$(":5590,"ypes":5591,"unched":5592,"Ġfill":5593,"94":5594,"iro":5595,"press":5596,"1940":5597,"ĠMur":5598,"LASS":5599,"ĠEducation":5600,"92":5601,"ĠBank":5602,"Ġattention":5603,"ĠHel":5604,"={":5605,"^-":5606,"Ġsecret":5607,"Ġmatches":5608,"Ġfinally":5609,"nother":5610,"Ġ\\;":5611,"Ġcatch":5612,"rule":5613,"Ġestimate":5614,"ĠEr":5615,"real":5616,"Ġframe":5617,"Ġnegative":5618,"Ġreduced":5619,"otal":5620,"Ext":5621,"Box":5622,"sg":5623,"1969":5624,"ĠMa":5625,"Factory":5626,"ĠArab":5627,"Ġchem":5628,"PR":5629,"93":5630,"Ġmiddle":5631,"igger":5632,"Ġvariety":5633,"ĠChampionships":5634,"Par":5635,"Ġactor":5636,"Style":5637,"house":5638,"ãĥ":5639,"ĠSil":5640,"itter":5641,"OL":5642,"cs":5643,"crete":5644,"Us":5645,"Ġpark":5646,"iral":5647,"ĠMil":5648,"Ġdise":5649,"stack":5650,"rypt":5651,"ĠInc":5652,"Link":5653,"Ġrepe":5654,"Command":5655,"Ġbasketball":5656,"72":5657,"Det":5658,"ĠBrazil":5659,"eds":5660,"cr":5661,"Ġinstr":5662,"Ġcelebr":5663,"Ġ~":5664,"ĠGa":5665,"Ġequip":5666,"ĠAwards":5667,"1945":5668,"Met":5669,"Ġimpro":5670,"ĠAtt":5671,"Ġpack":5672,"unit":5673,"ydro":5674,"ora":5675,"inding":5676,"Return":5677,"Ġwave":5678,"ski":5679,"mem":5680,"ima":5681,"Ġactress":5682,"erved":5683,"status":5684,"ĠSoviet":5685,"ĠMost":5686,"aily":5687,"ĠDet":5688,"Load":5689,"ĠMartin":5690,"Ġwinning":5691,"ko":5692,"Ġsurround":5693,"Ñģ":5694,"Ġsoftware":5695,"ĠNone":5696,"*/":5697,"Ġprevent":5698,"asion":5699,"Ġunion":5700,"ĠLong":5701,"gence":5702,"Default":5703,"Ġexplicit":5704,"Ġdu":5705,"ĠKe":5706,"Ġsn":5707,"Ġmargin":5708,"Ġcollect":5709,"1967":5710,"ĠTw":5711,"Ġexisting":5712,"rees":5713,"private":5714,"sych":5715,"ĠAv":5716,"Ġinfluence":5717,"Ġfrequency":5718,"Ġforeign":5719,"kin":5720,"ĠProfess":5721,"Ġderived":5722,"NN":5723,"Version":5724,"Ġstatement":5725,"eek":5726,"ĠField":5727,"Ġphil":5728,"ĠBase":5729,"inger":5730,"}}}":5731,"Ġslow":5732,"rate":5733,"Ġwhom":5734,"ĠOld":5735,"olved":5736,"Ġteacher":5737,"ishes":5738,"Ġcollabor":5739,"dep":5740,"Label":5741,"Ġtreatment":5742,"1930":5743,"stra":5744,"Ġroom":5745,"ĉĉĉĉĉĉĉĉ":5746,"ĠBig":5747,"ĠDirector":5748,"Ġdivision":5749,"Ġsufficient":5750,"related":5751,"cles":5752,"Other":5753,"ĠOf":5754,"Ġupdate":5755,"Ġexpansion":5756,"Ġchosen":5757,"Then":5758,"ĠWales":5759,"osing":5760,"ĠLife":5761,"ocket":5762,"ĠKar":5763,"Arg":5764,"isms":5765,"Ġshot":5766,"Ġidentity":5767,"ĠMos":5768,"ympt":5769,"pack":5770,"Ġmission":5771,"Ġ{@":5772,"Ġmovie":5773,"values":5774,"po":5775,"Ġhum":5776,"iny":5777,"Ġproduce":5778,"break":5779,"ipality":5780,"CL":5781,"ĠĠĠĠĠĠĠĠĠĠĠĠĊ":5782,"CP":5783,"ĠIran":5784,"///":5785,"\\}$":5786,"venue":5787,"ĠJud":5788,"Ġbad":5789,"even":5790,"Ġinterpret":5791,"Ġinsp":5792,"tag":5793,"anges":5794,"elled":5795,"ĠSocial":5796,"btn":5797,"Ġdimension":5798,"oret":5799,"ĠOur":5800,"Ġroute":5801,"English":5802,"last":5803,"sole":5804,"ĠJoseph":5805,"Ġnone":5806,"Ġcommercial":5807,"Ġreli":5808,"ĠKn":5809,"Ġscheme":5810,"PRO":5811,"Ġsyn":5812,"Ġfully":5813,"ND":5814,"Ġended":5815,"jection":5816,"ultural":5817,"Ġmeeting":5818,"True":5819,"You":5820,"Ġselect":5821,"Ġ((":5822,"description":5823,"Dr":5824,"1964":5825,"rowser":5826,"Ġestimated":5827,"Ġfilter":5828,"iders":5829,"Ġlat":5830,"Ð¾Ð":5831,"ĠOl":5832,"NO":5833,"Person":5834,"Ġgauge":5835,"oral":5836,"ĠJournal":5837,"Window":5838,"oration":5839,"ĠFe":5840,"inv":5841,"push":5842,"Ġauth":5843,"endif":5844,"ĠNow":5845,"Sw":5846,"Ã§":5847,"ulate":5848,"ĠCE":5849,"ĠPan":5850,"});":5851,"Ġshape":5852,"Ġnearly":5853,"heast":5854,"Ġcandidate":5855,"ĠTour":5856,"ĠColumb":5857,"meta":5858,"apers":5859,")+":5860,"Ġsummer":5861,"Ġheavy":5862,"format":5863,"ĠEngine":5864,"Ġuniform":5865,"adow":5866,"ny":5867,"ĠIrish":5868,"src":5869,"Ġstay":5870,"John":5871,"uid":5872,"Ġtheorem":5873,"stitution":5874,".$":5875,"iques":5876,"ĠWood":5877,"Ġconsequ":5878,"Ġmotion":5879,"ĠPac":5880,"adium":5881,"ellig":5882,"Ġasked":5883,"Ġstore":5884,"Aut":5885,"Ġsociety":5886,"underline":5887,"During":5888,"Ġattended":5889,"ĠRel":5890,"76":5891,"ĠIII":5892,"Ġsituation":5893,"Page":5894,"Sec":5895,"Ġking":5896,"ansas":5897,"ĠFort":5898,"Ġroot":5899,"resents":5900,"Ġcitiz":5901,"Ġhyp":5902,"hr":5903,"img":5904,"term":5905,"rence":5906,"sylv":5907,"Ġbranch":5908,"Ġconfiguration":5909,"select":5910,"ĠĠĠĊ":5911,"osh":5912,"Ġauto":5913,"lease":5914,"FONT":5915,"Row":5916,"Ġbrief":5917,"Ġliterature":5918,"iler":5919,"Ġedition":5920,"82":5921,"mission":5922,"Ġinteraction":5923,"Track":5924,"Ġsec":5925,"Ġwanted":5926,"84":5927,"Men":5928,"ĠYoung":5929,"wa":5930,"Ġextension":5931,"Ġopening":5932,"ali":5933,"icate":5934,"Ġmusical":5935,"Ġreligious":5936,"Te":5937,"SD":5938,"Ġelectric":5939,"ABLE":5940,"ĠChief":5941,"Ġcoast":5942,"Ġformation":5943,"Ġnewsp":5944,"Ġlaws":5945,"ĠOffice":5946,"ashed":5947,"show":5948,"Ġhighly":5949,"ĠWhat":5950,"ja":5951,"ãģ":5952,"Last":5953,"Check":5954,"Ġdoing":5955,"fect":5956,"Åį":5957,"ci":5958,"uer":5959,"}^{-":5960,"Ġterrit":5961,"sche":5962,"Ġparents":5963,"elete":5964,"ĠNorthern":5965,"soft":5966,"sylvania":5967,"ker":5968,"Ġseem":5969,"Ġstudio":5970,")/":5971,"Ġeigen":5972,"ĠEmpire":5973,"close":5974,"Ġgoals":5975,"mt":5976,"ĠBas":5977,"Ġlives":5978,"Ġquite":5979,"itation":5980,"ĠProvince":5981,"ĠSun":5982,"1966":5983,"alo":5984,"91":5985,"Ġoperators":5986,"ĠType":5987,"Ġseparate":5988,"Ġrecords":5989,"yan":5990,"1965":5991,"Ġvocals":5992,"ĠDev":5993,"Ġcore":5994,"Ġdescribe":5995,"ĠHistoric":5996,"Ġindividuals":5997,"ĠHere":5998,"Ġleave":5999,"Ġsquare":6000,"wan":6001,"Ġsister":6002,"Ġchief":6003,"ĠEnd":6004,"emporary":6005,"ĠJo":6006,"SA":6007,"Rem":6008,"fort":6009,"ĠRo":6010,"Ġpressure":6011,"EL":6012,"ĠPeople":6013,"Am":6014,"Ġnorthern":6015,"Ġfarm":6016,"Ġvote":6017,"Ġisland":6018,"ĠCam":6019,"Ne":6020,"inet":6021,"Ġderiv":6022,"Ġcommunities":6023,"Ġdiscussed":6024,"1920":6025,"ĠHaw":6026,"mann":6027,"atriate":6028,"Ġrisk":6029,"Ġappearance":6030,"Ġansw":6031,"Ġproducer":6032,"Ġchalleng":6033,"ascript":6034,"Pop":6035,"ĠSir":6036,"Ġdidn":6037,"ĠDec":6038,"Ġunivers":6039,"iled":6040,"Ġsouthern":6041,"Ġseasons":6042,"ynomial":6043,"Ġminutes":6044,"Career":6045,"ibly":6046,"etime":6047,"Ġriver":6048,"Ġreturns":6049,"ader":6050,"Ġexam":6051,"~$":6052,"multicol":6053,"Further":6054,"Ġleads":6055,"attice":6056,"Ġpoor":6057,"Ġdetermine":6058,"vey":6059,"Ġ(-":6060,"Equals":6061,"Ġlived":6062,"Ġmaster":6063,"ĠMax":6064,"Ġmetric":6065,"ĠSpr":6066,"ĠTrump":6067,"Ġprobably":6068,"Output":6069,"Child":6070,"Ġofficer":6071,"usband":6072,"Ġinfin":6073,"Top":6074,"Ġprofile":6075,"Ġgreater":6076,"DF":6077,"ati":6078,"Ġamb":6079,"Ġotherwise":6080,"Ġnodes":6081,"trm":6082,"ĠTim":6083,"Ġblue":6084,"norm":6085,"ĠLee":6086,"arriage":6087,"ĠGen":6088,"ĠLove":6089,"bi":6090,"Ġconstructed":6091,"Mon":6092,"Ġpert":6093,"rich":6094,"oute":6095,"fg":6096,"MC":6097,"Ġincome":6098,"Ġreach":6099,"sets":6100,"Ġmostly":6101,"ridge":6102,"Ġlaunched":6103,"Now":6104,"multicolumn":6105,"Ġcontribution":6106,"Ġtra":6107,"rs":6108,"Ġdoesn":6109,"acter":6110,"service":6111,"spect":6112,"Ġcarried":6113,"Ġdoc":6114,"Ġsure":6115,"{$":6116,"Ġfast":6117,"circle":6118,"Ġresources":6119,"cons":6120,"erc":6121,"Ġcoming":6122,"Ġcommission":6123,"mond":6124,"Ġcentre":6125,"Ġmanif":6126,"Ġrequires":6127,"Ġvan":6128,"Ġminimum":6129,"\\\"":6130,"textrm":6131,"Ġhence":6132,"ĠGreek":6133,"ĠGi":6134,"iginal":6135,"Ġactivity":6136,"Ġcensus":6137,"depend":6138,"Ġcategory":6139,"TP":6140,"sect":6141,"ĠFred":6142,"Ġgrav":6143,"ĠUkr":6144,"Ġetc":6145,"aka":6146,"Fe":6147,"Ġcontaining":6148,"Ġinterface":6149,"BU":6150,"Ġannual":6151,"Ġbuff":6152,"ĠSpain":6153,"ĠRh":6154,"Ġseek":6155,"Ġresponsible":6156,"Ġbattle":6157,"Ġslight":6158,"Ġmentioned":6159,"Ġlayer":6160,"ĠPre":6161,"Ġbeg":6162,"Ġpoet":6163,"ror":6164,"Ġjoint":6165,"ectors":6166,"Ġchampionship":6167,"acement":6168,"Ġnorm":6169,"ĠLine":6170,"Ġbasic":6171,"ĠCivil":6172,"Ġsmooth":6173,"zer":6174,"ĠJim":6175,"hing":6176,"after":6177,"Ġsenior":6178,"Ġheart":6179,"Ġrailway":6180,"Ġhttps":6181,"Ġactual":6182,"INT":6183,"airman":6184,"Next":6185,"}'":6186,"ĠData":6187,"ampion":6188,"minus":6189,"ribe":6190,"layout":6191,"graph":6192,"Task":6193,"Ġdrug":6194,"Ġimmediately":6195,"Ġdou":6196,"\"]":6197,"73":6198,"Ġwood":6199,"stein":6200,"uty":6201,"Ġolder":6202,"Ġnumerous":6203,"ĠWal":6204,"Ġeth":6205,"ĠValley":6206,"ternet":6207,"Ġcard":6208,"Min":6209,"oder":6210,"ĠBuild":6211,"Ġremoved":6212,"Ġelections":6213,"example":6214,"Create":6215,"Ġsymmetry":6216,"enth":6217,"ĠSee":6218,"rick":6219,"Ġextra":6220,"refix":6221,"VER":6222,"Ġinitially":6223,"Ġrecomm":6224,"Ġâ":6225,"ervices":6226,"Web":6227,"ĠProgram":6228,"ql":6229,"Ġweeks":6230,"issions":6231,"rolled":6232,"ĠLie":6233,"Ġbul":6234,"81":6235,"Ġbecoming":6236,"Ġapprop":6237,"ĠDemocratic":6238,"bed":6239,"Ġreferred":6240,"Ġprojects":6241,"Ġones":6242,"Ġhyper":6243,"<\\":6244,"uced":6245,"ĠPennsylvania":6246,"arc":6247,"ĠBob":6248,"Ġfun":6249,"Ġusers":6250,"Ġexamples":6251,"eft":6252,"83":6253,"Ġmurder":6254,"update":6255,"Theta":6256,"Ġserver":6257,"Ġcarry":6258,"Ġidentified":6259,"Ġbelieve":6260,"DB":6261,"olt":6262,"omorphism":6263,"Ġframework":6264,"ĠAut":6265,"ĠCross":6266,"UI":6267,"Ġessential":6268,"Ġshift":6269,"Ġeasily":6270,"'re":6271,"ĠHot":6272,"container":6273,"ĠLibrary":6274,"oston":6275,"Ġinequ":6276,"pton":6277,"Ġdefeated":6278,"Ġfiles":6279,"reference":6280,"ĠCamb":6281,"GB":6282,"Ġseems":6283,"ĠLog":6284,"Ġminister":6285,"attr":6286,"Des":6287,"Films":6288,"Ġplane":6289,"Ġgovern":6290,"Ġparties":6291,"Ġnoise":6292,"Description":6293,"à¤":6294,"Ġowned":6295,"ĠIslam":6296,"filter":6297,"Ġentered":6298,"Ġdevice":6299,"ador":6300,"Ġpanel":6301,"ĠTeam":6302,"ulty":6303,"Ġstories":6304,"El":6305,"Ġflux":6306,"Rel":6307,"74":6308,"Ġmagazine":6309,"else":6310,"mathscr":6311,"So":6312,"icans":6313,"Ġability":6314,"Ġrepresents":6315,"Ġcompletely":6316,"(&":6317,"Ġquery":6318,"free":6319,"Ġcontinuous":6320,"ponents":6321,"$_":6322,"ĠBritain":6323,"bitr":6324,"```":6325,"undred":6326,"ĠAlso":6327,"ova":6328,"hemat":6329,"iminal":6330,"Ġarrest":6331,"Ġmicro":6332,"1963":6333,"ĠID":6334,"heet":6335,"subseteq":6336,"gypt":6337,"poration":6338,"Ġcluster":6339,"71":6340,"Ġobservations":6341,"enty":6342,"ainer":6343,"Ġsaying":6344,"irmed":6345,"Ġexistence":6346,"aml":6347,"Ġbus":6348,"irls":6349,"Ġserve":6350,"ãĤ":6351,"Ġnative":6352,"ĠJac":6353,"Ġinteresting":6354,"ĠLin":6355,"Post":6356,"kl":6357,"Ġformula":6358,"anguages":6359,"Ġdiagram":6360,"Ġsort":6361,"lections":6362,"Ġconvert":6363,"ĠAsia":6364,"Ġquarter":6365,"Ġign":6366,"Ġcurve":6367,"nam":6368,"Ġque":6369,"Ġparticle":6370,"1962":6371,"ĠGL":6372,"response":6373,"Ġdiss":6374,"bury":6375,"Ġ$|":6376,"Ġstra":6377,"Ġdead":6378,"Ġcontrast":6379,"Ġcos":6380,"Year":6381,"ĠSouthern":6382,"Port":6383,"Ġpurpose":6384,"eler":6385,"oting":6386,"inds":6387,"Ġcompact":6388,"Ġconcent":6389,"cd":6390,"Filter":6391,"owers":6392,"emic":6393,"Ġcomputer":6394,"Ġforced":6395,"Ġraised":6396,"ĠPak":6397,"ĠLord":6398,"footnote":6399,"ĠFurther":6400,"ellar":6401,"Controller":6402,"ĠJewish":6403,"Ġhusband":6404,"buf":6405,"yes":6406,"menu":6407,"Writ":6408,"vector":6409,"Ġcounty":6410,"Length":6411,"Ġupd":6412,"ĠMen":6413,"orter":6414,"Ġactions":6415,"va":6416,"Ġscatter":6417,"ĠTop":6418,"Ġ$\\{":6419,"Ġsuc":6420,"params":6421,"Ġarmy":6422,"Ġmoving":6423,"std":6424,"Ġ$-":6425,"Ġpositions":6426,"Ġunknown":6427,"poses":6428,"Desc":6429,"Ġthing":6430,"ira":6431,"normal":6432,"Ġconflict":6433,"lie":6434,"SL":6435,"}}_{":6436,"Format":6437,"Ġways":6438,"ilarly":6439,"Ġparticles":6440,"omic":6441,"Ġmis":6442,"Ġprocesses":6443,"Ġdistinct":6444,"79":6445,"}},":6446,"wedge":6447,"unior":6448,"Ġdepartment":6449,"akers":6450,"Ġexception":6451,"Ġremove":6452,"iday":6453,"uis":6454,"ĠProject":6455,"Ġgalaxies":6456,"javascript":6457,"Ġlif":6458,"Tem":6459,"Ġfactors":6460,"PO":6461,"Ġorganizations":6462,"annot":6463,"Ġmut":6464,"CON":6465,"Ġfix":6466,"ĠGal":6467,"Ġfriends":6468,"Ġsuit":6469,"plete":6470,"Ġbey":6471,"Ġalleg":6472,"Ġhistorical":6473,"imin":6474,"dx":6475,"rot":6476,"ifically":6477,"ĠBi":6478,"Ġpaint":6479,"erry":6480,"Art":6481,"Ġscene":6482,"Ġfont":6483,"Results":6484,"ĠShow":6485,"Ġbal":6486,"ĠBattle":6487,"1944":6488,"essages":6489,"ested":6490,"{{":6491,"gle":6492,"Ġnation":6493,"Ġspread":6494,"Ġvirtual":6495,"iÄĩ":6496,"Ġsurvey":6497,"Ġapplications":6498,"Ġturned":6499,"efined":6500,"IO":6501,"etts":6502,"INE":6503,"Ġhelped":6504,"Ġdrama":6505,"inois":6506,"secut":6507,"instance":6508,"ĠEarth":6509,"Ġuseful":6510,"MB":6511,"clos":6512,"Ġmaps":6513,"thon":6514,"Column":6515,"Ġcapacity":6516,"Ġsea":6517,"iga":6518,"aria":6519,"SON":6520,"Listener":6521,"Ġsingles":6522,"Ġplans":6523,"ĠStep":6524,"Ġcam":6525,"oplus":6526,"Ġcorn":6527,"Valid":6528,"////////////////":6529,"Ġchoose":6530,"Ġbeyond":6531,"ĠMichigan":6532,">>":6533,"ennis":6534,"_+":6535,"Ġran":6536,"aters":6537,"ĠFri":6538,"ttp":6539,"<?":6540,"olute":6541,"Ġ<!--":6542,"hem":6543,"Ġdespite":6544,"ĠSenate":6545,"reshold":6546,"ĠOF":6547,"while":6548,"Ġaspect":6549,"ĠTem":6550,"styles":6551,"actor":6552,"ibli":6553,"\\}":6554,"yer":6555,"1961":6556,"Ġarguments":6557,"Ġmomentum":6558,"CS":6559,"ĠBul":6560,"shift":6561,"Ġ($\\":6562,"Ġfoot":6563,"Ġsplit":6564,"float":6565,"uri":6566,"1000":6567,"scope":6568,"Ġpolar":6569,"ĠSecretary":6570,"ĠTele":6571,"achus":6572,"ecution":6573,"izont":6574,"Ġprep":6575,"According":6576,"Ġmainly":6577,"Mode":6578,"maz":6579,"Ġdistributed":6580,"Ġarm":6581,"uations":6582,"awa":6583,"ifications":6584,"aver":6585,"Ġforest":6586,"ĠSol":6587,"Ġscript":6588,"ĠCentre":6589,"Ġvertex":6590,"dagger":6591,"Ġ\\|":6592,"Ġshoot":6593,"osoph":6594,"Ġgreen":6595,"fit":6596,"ĠChild":6597,"urban":6598,"sign":6599,"ĠOhio":6600,"aya":6601,"Ġutil":6602,"Ġvisit":6603,"CR":6604,"des":6605,"ĠSong":6606,"Ġurl":6607,"iate":6608,"Ġclaimed":6609,"Ġgiving":6610,"pers":6611,"Ġfavor":6612,"Ġnav":6613,"icine":6614,"Ġgenus":6615,"orse":6616,"Ġprotect":6617,"ĠRadio":6618,"ĠJones":6619,"ĠSar":6620,"Ġstrategy":6621,"Ġarchitecture":6622,"Ġletter":6623,"output":6624,"Ġuniversity":6625,"ĠTheir":6626,"Ġalt":6627,"Ġcombined":6628,"sur":6629,"_{{\\":6630,"ĠOx":6631,"Ġpolynomial":6632,"Ġreb":6633,"\\'":6634,"Ġreceive":6635,"seud":6636,"Ġsynt":6637,"Ġfair":6638,"Ġtherm":6639,"ĠJersey":6640,"ounds":6641,"ucture":6642,"Ġensure":6643,"Ġworkers":6644,"PA":6645,"Ġmixed":6646,"Ġeasy":6647,"abilities":6648,"Ġcomparison":6649,"author":6650,"ernel":6651,"ĠScotland":6652,"icens":6653,"Ġresolution":6654,"Max":6655,"Ġnine":6656,"Ġchain":6657,"Ġweb":6658,"Ġstraight":6659,"ERR":6660,"pled":6661,"chers":6662,"ĠAsian":6663,"Ġemission":6664,"setminus":6665,"Ġnetworks":6666,":#":6667,"Don":6668,"Ġgeneration":6669,"ums":6670,"arden":6671,"Ġerrors":6672,"ometric":6673,"Ġcontributions":6674,"esh":6675,"ĠDevelopment":6676,"Ġleaders":6677,"gate":6678,"lines":6679,"Ġdomin":6680,"=(":6681,")|":6682,"Ġshowed":6683,"Ġbottom":6684,"ĠRepresent":6685,"Ġaffect":6686,"aved":6687,"ograp":6688,"kins":6689,"ĠNetwork":6690,"Address":6691,"ĠCarl":6692,"white":6693,"Ġcolon":6694,"iated":6695,"istance":6696,"lers":6697,"Ġsamples":6698,"Ġgoes":6699,"las":6700,"ĠĠĠĠĠĠĠĠĠĠĠĠĠĠĠĠĠĠĠĠĠĠĠĠĠĠĠĠĠĠĠĠĠĠĠ":6701,"ĠConference":6702,"ĠCLASS":6703,"ĠJohnson":6704,"fa":6705,"ĠEdward":6706,"Members":6707,"Å¡":6708,"Ġintegr":6709,"Ġbounded":6710,"atalog":6711,"Ġrates":6712,"Ġmeasured":6713,"ĠLuc":6714,"Net":6715,"Ġrelevant":6716,"Tag":6717,"However":6718,"^{-\\":6719,"Ġtypically":6720,"remove":6721,"Ġcompl":6722,"Ġvictory":6723,"cript":6724,"Offset":6725,"Ġsemi":6726,"Ġfeed":6727,"Ġproceed":6728,"ĠPacific":6729,"older":6730,"achusetts":6731,"ĠBre":6732,"ĠHREF":6733,"expected":6734,"Ġexperimental":6735,"More":6736,"Ġleaving":6737,"rical":6738,"Case":6739,"sky":6740,"Sl":6741,"ĠCro":6742,"Button":6743,"deg":6744,"eller":6745,"Ġsites":6746,"ela":6747,"etween":6748,"_{(":6749,"hesis":6750,"IA":6751,"Ġarbitr":6752,"ĠSund":6753,"Aust":6754,"Ġefforts":6755,"ewidth":6756,"Ġradius":6757,"burgh":6758,"ĠGood":6759,"1948":6760,"Ġserving":6761,"ĠQueen":6762,"enant":6763,"URL":6764,"unct":6765,"TS":6766,"inder":6767,"vest":6768,"1942":6769,"desc":6770,"rics":6771,"igration":6772,"ĠWilliams":6773,":</":6774,"Pat":6775,"ĠMiddle":6776,"ĠTro":6777,"').":6778,"texttt":6779,"ĠJes":6780,"ĠKent":6781,"Dec":6782,"********************************":6783,"ropy":6784,"ĉĉĊ":6785,"ĠSpe":6786,"Ġplot":6787,"Ġ[]":6788,"Ġsimpl":6789,"Ġreduce":6790,"1956":6791,"AV":6792,"Ġformal":6793,"amental":6794,"rong":6795,"Ġagent":6796,"Ġproviding":6797,"Current":6798,"Ġconsistent":6799,"Ġimprove":6800,"aly":6801,"Ġvs":6802,"oped":6803,"Ġsession":6804,"elli":6805,"ga":6806,"tree":6807,"Ġcities":6808,"Ġrail":6809,"Ġhar":6810,"Ġseat":6811,"Bi":6812,"frame":6813,"Ġtag":6814,"fs":6815,"Ġbelieved":6816,"Ġpoliticians":6817,"Ġexactly":6818,"Car":6819,"Ġofficers":6820,"Ġharm":6821,"Ġsettlement":6822,"ĠFrancisco":6823,"Ġnothing":6824,"ji":6825,"Ġfamous":6826,"ĠPoland":6827,"pop":6828,"Ġexperiments":6829,"second":6830,"ivial":6831,"wer":6832,"Ġrelatively":6833,"Ġdemand":6834,"Ac":6835,"oded":6836,"Ġoil":6837,"Ġcells":6838,"ĠEX":6839,"ĠLi":6840,"adel":6841,"Ġcultural":6842,"1959":6843,"Ġjoin":6844,"ĠTre":6845,"ĠDutch":6846,"ĠKong":6847,"ĠRam":6848,"Ġpil":6849,"Ġlibrary":6850,"IF":6851,"apped":6852,"Ġcoupling":6853,"What":6854,")\\,":6855,"ĠIllinois":6856,"itory":6857,"Ġpromin":6858,"contin":6859,"Ġsu":6860,"Ġperturb":6861,"./":6862,"zero":6863,"Ġthr":6864,"1958":6865,"Ġdynamics":6866,"system":6867,"ĠMov":6868,"1939":6869,"Ġfirm":6870,"Ġserious":6871,"ĠAlb":6872,"Ġaim":6873,"Ġquickly":6874,"ilation":6875,"ĠGeorgia":6876,"Ġreform":6877,"standing":6878,"je":6879,"ĠNS":6880,"arant":6881,"ws":6882,"Ġactors":6883,"har":6884,"ipage":6885,"aylor":6886,"ĠBoston":6887,"ported":6888,"Ġenter":6889,"ĉĠĠĠ":6890,"wait":6891,"_.":6892,"hent":6893,"ensions":6894,"ĠHT":6895,"Ġice":6896,"Dev":6897,"ila":6898,"rect":6899,"ĠEgypt":6900,"National":6901,"Ġordered":6902,"itage":6903,"Ġexchange":6904,"Ġprofessor":6905,"Ġstrict":6906,"adr":6907,"\\\\\\\\\\\\\\\\\\\\\\\\\\\\\\\\":6908,"iy":6909,"Ġscope":6910,"Here":6911,"apse":6912,"([":6913,"That":6914,"ĠPy":6915,"Vis":6916,"asure":6917,"atically":6918,"Ġcomposed":6919,"Ġenj":6920,"orney":6921,"ĠMajor":6922,"Ġwestern":6923,"agment":6924,"Ġspaces":6925,"ĠPrem":6926,"abeth":6927,"Ġtracks":6928,"ĠMany":6929,"Ġpriv":6930,"icity":6931,"Ġ\\!":6932,"minipage":6933,"izontal":6934,"Ġprocedure":6935,"ĠCre":6936,"uries":6937,"typ":6938,"ĠIS":6939,"=-":6940,"Ġmole":6941,"Ġoffered":6942,"Ġembedd":6943,"orning":6944,"Ġpurs":6945,"Ġvisual":6946,"MD":6947,"inations":6948,"Ġapproximation":6949,"bigg":6950,"etch":6951,"Cache":6952,"Ġchart":6953,"cat":6954,"Ġcovered":6955,"bas":6956,"task":6957,"Ġempty":6958,"150":6959,"ĠBern":6960,"Ag":6961,"Ġpp":6962,"Ġfootballer":6963,"COL":6964,"Ġattract":6965,"ĠLicense":6966,"ictionary":6967,"Ġshared":6968,"1941":6969,"Ġretired":6970,"ĠHuman":6971,"Ev":6972,"Ġadministration":6973,"uls":6974,"ĠBoth":6975,"Ġinform":6976,"Ġoperated":6977,"cean":6978,"riev":6979,"astr":6980,"ĠJustice":6981,"Ġtraff":6982,"site":6983,"1943":6984,"ests":6985,"Ġsector":6986,"sd":6987,"Ġrecording":6988,"Ġdisk":6989,"Target":6990,"drop":6991,"ĠOp":6992,"ĠMassachusetts":6993,"Ġsignificantly":6994,"Ġmind":6995,"perp":6996,"Ġbatt":6997,"ĠÂ£":6998,"1957":6999,"While":7000,"Ġ**":7001,"Ġtrial":7002,"law":7003,"1946":7004,"Ġinner":7005,"Ġincorpor":7006,"ĠTheatre":7007,"Ġships":7008,"Ġwait":7009,"uv":7010,"Ġpropag":7011,"Ġtor":7012,"Ġaccom":7013,"annels":7014,"Sche":7015,"claim":7016,"iant":7017,"Ġcouncil":7018,"Ġassumed":7019,"Bundle":7020,"NAME":7021,"ĠSupreme":7022,"limits":7023,"Ġhospital":7024,"common":7025,"ĠGovernor":7026,"Ġmuseum":7027,"ĠRead":7028,"Ġdeliver":7029,"Ġago":7030,"PP":7031,"ĠSand":7032,"atial":7033,"Ġregional":7034,"imer":7035,"ĠEach":7036,"ĠColor":7037,"Ġ$[":7038,"ographic":7039,"ĠMah":7040,"TYPE":7041,"}%":7042,"Ġintegral":7043,"Ġdepends":7044,"Ġsteps":7045,"My":7046,"Sing":7047,"colon":7048,"ependence":7049,"Ã±":7050,"Ġlattice":7051,"Ġring":7052,"ĠSpecial":7053,"Ġlooking":7054,":\\":7055,"roduction":7056,"Ġdiscovered":7057,"ĠBow":7058,"anche":7059,"AF":7060,"Ġsquad":7061,"Ġdual":7062,"Ġbass":7063,"kit":7064,"chen":7065,"ĠHa":7066,"Ġexecutive":7067,"ĠPhilipp":7068,"Brit":7069,"Layout":7070,"Ġswitch":7071,"ĠEnter":7072,"ĠPrince":7073,"imary":7074,"ĠJr":7075,"Ġitems":7076,"icks":7077,"Ġsucceed":7078,"ĠEastern":7079,"ĠEp":7080,"Po":7081,"HO":7082,"linewidth":7083,"Ġlies":7084,"pg":7085,"room":7086,"Ġflag":7087,"ĠPop":7088,"Ġcreation":7089,"RL":7090,"ootstr":7091,"aped":7092,"EM":7093,"wrap":7094,"ĠMu":7095,"ĠTra":7096,"Ġclust":7097,"Ġexpressed":7098,"rid":7099,"asy":7100,"rons":7101,"ĠVan":7102,"Ġsend":7103,"udget":7104,"ĠEconom":7105,"++)":7106,"Ġencour":7107,"ĠPortug":7108,"ĠFC":7109,"Ġcitizens":7110,"ĠCoast":7111,"ĠLab":7112,"ĠHead":7113,"Me":7114,"ÅĤ":7115,"Ġdecay":7116,"Ġdraft":7117,"black":7118,"ione":7119,"cknow":7120,"Ġmeasures":7121,"aa":7122,"phy":7123,"writer":7124,"ĠRos":7125,"iger":7126,"Ġpi":7127,"ĠAff":7128,"Ġdisease":7129,"1955":7130,"ĠSte":7131,"conf":7132,"Types":7133,"Ġtrying":7134,"Ġexternal":7135,"range":7136,"ture":7137,"posite":7138,"Ġpoly":7139,"ollary":7140,"oday":7141,"ĠStan":7142,"Ġadvant":7143,"Ġmachine":7144,"1947":7145,"ĠST":7146,"aser":7147,"ĠFederal":7148,"),\\":7149,"Ġcomedy":7150,"Ġangle":7151,"Ġfle":7152,"icients":7153,"oir":7154,"ĠWay":7155,"'.":7156,"Ġhundred":7157,"ifies":7158,"fri":7159,"Ġdataset":7160,"onto":7161,"sort":7162,"ĠLy":7163,"Ġuint":7164,"Ġissued":7165,"ĠUN":7166,"ĠKorea":7167,"stone":7168,"iffer":7169,"Ġmarriage":7170,"ategories":7171,"Cal":7172,"Server":7173,"Ġ!==":7174,"_{-":7175,"Ġsubsequently":7176,"ancing":7177,"Sports":7178,"Ġreflect":7179,"Ġsusp":7180,"Ġ|\\":7181,"asi":7182,"1952":7183,"Update":7184,"ĠGame":7185,"ĠWall":7186,"Ġcouple":7187,"Mat":7188,"ĠColumbia":7189,"ĠLatin":7190,"Ġvoice":7191,"Ġauthors":7192,"Ġmill":7193,"coming":7194,"Ġ}\\":7195,"Ġspectral":7196,"Sy":7197,"ĠBlue":7198,"parameter":7199,"found":7200,"Ġquestions":7201,"ket":7202,"Ġmanaged":7203,"Provider":7204,"Ġearned":7205,"ecute":7206,"Ġtouch":7207,"ĠCard":7208,"Ġachieved":7209,"Access":7210,"ĠRepublican":7211,"Ġnuclear":7212,"Ġnumerical":7213,"ĠReview":7214,"CK":7215,"Ġcombination":7216,"Ġproved":7217,"Ġrapid":7218,"raq":7219,"lets":7220,"car":7221,"iciency":7222,"Ġconducted":7223,"Ġsal":7224,"Ġstrength":7225,"ighter":7226,"elligence":7227,"definition":7228,"Ġadopted":7229,"ĠScottish":7230,"Ġcalculated":7231,"Url":7232,"Ġamplit":7233,"ĠBusiness":7234,":\"":7235,"____":7236,"Bo":7237,"Ġfellow":7238,"ru":7239,"ĠMuslim":7240,"antry":7241,"duct":7242,"Ġreports":7243,"Ġdiscussion":7244,"ĠHence":7245,"template":7246,"arters":7247,"Ġoccurs":7248,"Ġassigned":7249,"STR":7250,"Ġgetting":7251,"(_":7252,"'),":7253,"Ġflat":7254,"Ġextrem":7255,"United":7256,"ĠEqu":7257,"Ġslightly":7258,"itionally":7259,"ĠBang":7260,"Ġfeat":7261,"Ġcorresponds":7262,"Ġimplementation":7263,"Our":7264,"Ġretain":7265,"Ġacquired":7266,"ĠÎ":7267,"ĠMid":7268,"Ġextract":7269,"Frame":7270,"ais":7271,"alysis":7272,"Ġedges":7273,"Ġonto":7274,"1954":7275,"Ġthous":7276,"Ġoffset":7277,"Ġcontained":7278,"Ġpolic":7279,"classes":7280,"Ġfort":7281,"ĠArray":7282,"faces":7283,"teen":7284,"duce":7285,"parse":7286,"Ġvertices":7287,"Ġspirit":7288,"########":7289,"Ġtechniques":7290,"Ġcert":7291,"1953":7292,"Eq":7293,"Ġfreedom":7294,"ulpt":7295,"---":7296,"hom":7297,"Ġnet":7298,"Ġstatistics":7299,"eries":7300,"ATION":7301,"These":7302,"ĠĠĠĠĠĠĠĠĠĠĠĠĠĠĠĠĠĠĠĠĠ":7303,"iced":7304,"haps":7305,"Ġhandle":7306,"bool":7307,"ĠOxford":7308,"Ġconcert":7309,"ologies":7310,")}(":7311,"ĠPubl":7312,"Stat":7313,"Ġorient":7314,"Ġbill":7315,"Ġcallback":7316,"ootstrap":7317,"Location":7318,"high":7319,"ĠHong":7320,"ĠRay":7321,"Ġregime":7322,"agraph":7323,"Ġacademic":7324,"root":7325,"ez":7326,"proto":7327,"offset":7328,"Ġresidents":7329,",\\,":7330,"document":7331,"Ġowner":7332,"onia":7333,"Rev":7334,"Ġappropriate":7335,"ĠHome":7336,"Ġlanguages":7337,"BO":7338,"ĠProposition":7339,"120":7340,"itness":7341,"Ġpropos":7342,"ĠAndrew":7343,"card":7344,"'_":7345,"1949":7346,"Ġ&=&":7347,"Ġconstraints":7348,"rawn":7349,"orough":7350,"Ġunderstanding":7351,"Direct":7352,"Ġanaly":7353,"Ġcompute":7354,"artifact":7355,"ĠTechnology":7356,"Ġ${":7357,"Ġbillion":7358,"'\\":7359,"DA":7360,"ran":7361,"ĠHig":7362,"LS":7363,"inf":7364,"ĠCy":7365,"Ġincreases":7366,"Ġinteger":7367,"Ġpersonnel":7368,"ĠCall":7369,"andon":7370,"gg":7371,"ĠHarr":7372,"ĠWis":7373,"onym":7374,"eld":7375,"Ġrare":7376,"amm":7377,"Ġclean":7378,"Do":7379,"ologist":7380,"ĠÅ":7381,"Ġyouth":7382,"Ã£":7383,"Ġdescent":7384,"plex":7385,"Ġmetal":7386,"uler":7387,"aligned":7388,"pool":7389,"Ġgrowing":7390,"bal":7391,"Ġalternative":7392,"Ġcat":7393,"MO":7394,"Ġvon":7395,"Ġscalar":7396,"Ġwall":7397,"Ġenh":7398,"LP":7399,"Ġadult":7400,"ĠRailway":7401,"neg":7402,"ervative":7403,"Dem":7404,"ĠBroad":7405,"Ġclaims":7406,"ĠJean":7407,"TI":7408,"ĠMedia":7409,"olicy":7410,"Ġrevealed":7411,"Ġrise":7412,"à¸":7413,"ĠRun":7414,"DD":7415,"Ġcreating":7416,"Ġgenerate":7417,"ĠMoreover":7418,"Ġrac":7419,"Ġnearby":7420,"Ġsatisfies":7421,"ĠHung":7422,"Ġclubs":7423,"ĠUSA":7424,"_*":7425,"Op":7426,"ĠJackson":7427,"rb":7428,"Ġblood":7429,"Ġwatch":7430,"rium":7431,"Ġtests":7432,"Unit":7433,"Ġagreed":7434,"window":7435,"=\"../../../../../":7436,"ographer":7437,"ĠSoc":7438,"ĠHospital":7439,"Ġalone":7440,"inals":7441,"Open":7442,"ĠCreek":7443,"ĠCa":7444,"ryst":7445,"mitted":7446,"mi":7447,"Ġdigital":7448,"Ġinfr":7449,"Width":7450,"ĠProfessor":7451,"Ġintended":7452,"bro":7453,"Ġbuffer":7454,"Will":7455,"enger":7456,"anging":7457,"Ġdistingu":7458,"Local":7459,"Ġobj":7460,"ĠAPI":7461,"Ġmaterials":7462,"Ġstable":7463,"Ġloop":7464,"direct":7465,"si":7466,"legal":7467,"ĠSea":7468,"La":7469,"ederation":7470,"ĠStand":7471,"Ġpiece":7472,"Ġassign":7473,"opher":7474,"ZE":7475,"aret":7476,"Ġawards":7477,"del":7478,"{$\\":7479,"ĠMain":7480,"ĠMot":7481,"ĠPlay":7482,"Ġanalyt":7483,"front":7484,"ĠCommon":7485,"Ġarticles":7486,"Ġdivided":7487,"Ġcer":7488,"Ġbridge":7489,"Ġargs":7490,"ĠKey":7491,"1951":7492,"ĠPlaces":7493,"Ġcalc":7494,"ducing":7495,"cf":7496,"illy":7497,"should":7498,"ĠRet":7499,"sen":7500,"ĠKenn":7501,"models":7502,"Right":7503,"Ġpairs":7504,"Ġsomeone":7505,"Ġreasons":7506,"Ġraise":7507,"Ġacting":7508,"una":7509,"Ġsexual":7510,"FO":7511,"Ġlabor":7512,"ĠWilson":7513,"Ġdepth":7514,"ĠPolish":7515,"British":7516,"returns":7517,"uint":7518,"Ġfailure":7519,"agers":7520,"Ġmeasurements":7521,"Ġprimarily":7522,"bullet":7523,"thur":7524,"spe":7525,"Ġassumption":7526,"ucky":7527,"ĠPoint":7528,"udes":7529,"Entity":7530,"Ġfre":7531,"Ġgun":7532,"anes":7533,"Ġtroops":7534,"Ġofficials":7535,"prototype":7536,"Control":7537,"Ġfraction":7538,"emy":7539,"uly":7540,"Ġfelt":7541,"Ġsections":7542,"Ġens":7543,"Ġsimulations":7544,"imeq":7545,"ĠInst":7546,"hor":7547,"sto":7548,"1918":7549,"Ġtensor":7550,"require":7551,"imation":7552,"dest":7553,"Ġleadership":7554,"izabeth":7555,"Ġoffers":7556,"Ġhydro":7557,"simeq":7558,"ĠGener":7559,"control":7560,"odies":7561,"Ġsuggested":7562,"Ġsupp":7563,"Ġcycl":7564,"()->":7565,"ocated":7566,"Ġstrateg":7567,"Non":7568,"Di":7569,"ĠLater":7570,"Ġhouses":7571,"}}(\\":7572,"Ġpure":7573,"ĠBerlin":7574,"Ġaccepted":7575,"Configuration":7576,"dim":7577,"Ġenjoy":7578,"Disc":7579,"Ġcorrelation":7580,"QL":7581,"Process":7582,"Ġclimate":7583,"Ġoperating":7584,"Ġconfirmed":7585,"Ġclassification":7586,"zech":7587,"Ġpull":7588,")_{":7589,"amber":7590,"sear":7591,"Tree":7592,"Ġoptimal":7593,"Ġarrived":7594,"ĠWild":7595,"Ġinequality":7596,"SH":7597,"Write":7598,"phas":7599,"mic":7600,"Ġsam":7601,"Container":7602,"Ġattacks":7603,"rome":7604,"Ġdedicated":7605,"ĠPolice":7606,"ĠFour":7607,"ART":7608,"ĠLittle":7609,"tw":7610,"Ġabsor":7611,"Ġwidely":7612,"Ġassess":7613,"ĠFile":7614,"ĠNight":7615,"Ġcancer":7616,"ennes":7617,"Ġliber":7618,"Ġsegment":7619,"Parameter":7620,"00000":7621,"cut":7622,"Mult":7623,"KE":7624,"match":7625,"Ġtrust":7626,"ĠStat":7627,"henomen":7628,"ogene":7629,"Ġworth":7630,"leep":7631,"ocks":7632,"Ġanything":7633,"Ġintr":7634,"Ġinstitutions":7635,"ĠJeff":7636,"Ġfloat":7637,"Ġclearly":7638,"Long":7639,"]);":7640,"ashion":7641,"step":7642,"ĠElect":7643,"hy":7644,"Ġweap":7645,"Ġhonor":7646,"ĠKen":7647,"ĠAlexander":7648,"Ġaccuracy":7649,"Ġ{}":7650,"fn":7651,"VAL":7652,"Ġpsych":7653,"Ðº":7654,"UP":7655,"rices":7656,"Ġ+\\":7657,"power":7658,"Ġpartner":7659,"Ġinvariant":7660,"Ġ\\(":7661,"ĠCorps":7662,"Ġhockey":7663,"ĉĠ":7664,".~(\\":7665,"Ġleaves":7666,"ĠViet":7667,"ĠBrook":7668,"Pol":7669,"Ġpatients":7670,"Ġminim":7671,"ĠKr":7672,"Ġmodes":7673,"'m":7674,"World":7675,"Ġanalog":7676,"odd":7677,"itzer":7678,"1936":7679,"SR":7680,"Entry":7681,"Ġstrongly":7682,"ydney":7683,"Ġwinner":7684,"Ġnam":7685,"tml":7686,"ĠBir":7687,"Ġparallel":7688,"ĠWater":7689,"Ġtypical":7690,"vol":7691,"bre":7692,"subfigure":7693,"Ġattribute":7694,"Cons":7695,"tri":7696,"Ġorganized":7697,"Ġstrugg":7698,"Ġcoefficients":7699,"}$-":7700,"Ġacts":7701,"Ġlen":7702,"Ġmarked":7703,"ĠFar":7704,"Ġult":7705,"Ġprefer":7706,"Ġvary":7707,"Ġtheoret":7708,"Ġneighborhood":7709,"istical":7710,"Ġperfect":7711,"inity":7712,"ĠArgent":7713,"uing":7714,"alg":7715,"oles":7716,"ĠDaniel":7717,"Script":7718,"Ġprotest":7719,"Ġdifferences":7720,"Ġorb":7721,"ulf":7722,"token":7723,"Ġoccurred":7724,"ĠMas":7725,"\\!\\!":7726,"Ġoverl":7727,"Ġversions":7728,"Utils":7729,"ĠStation":7730,"Ġpolitics":7731,"orship":7732,"Ġpet":7733,"Ġreduction":7734,"leton":7735,"ĠVictoria":7736,"estic":7737,"gorithms":7738,"Ġeastern":7739,"vin":7740,"%%":7741,"Ġreject":7742,"Gu":7743,"endar":7744,"ĠIraq":7745,"Header":7746,"ĠModel":7747,"Dat":7748,"Ġfifth":7749,"Ġcalls":7750,"ĠPen":7751,"ĠOrgan":7752,"ĠMap":7753,"Ġgets":7754,"riptor":7755,"sex":7756,"erg":7757,"nic":7758,"ĠBBC":7759,"ĠBa":7760,"Ġprovince":7761,"ĉĉĉĉĉĉĉ":7762,"%)":7763,"ading":7764,"ĠCommunity":7765,"Ġancient":7766,"ĠSi":7767,"Ġconference":7768,"Ġrecall":7769,"Ġuncertain":7770,"ĠIslands":7771,"LI":7772,"Ġdatabase":7773,"utils":7774,"zo":7775,"Ġtesting":7776,"Ġta":7777,"Ġimag":7778,"Ġpredict":7779,"Ġattr":7780,"agonal":7781,"Ġ*)":7782,"ĠPower":7783,"entity":7784,"ĠWin":7785,"Ġmunicipality":7786,"Section":7787,"Ġsafety":7788,"uses":7789,"Ġsimulation":7790,"aren":7791,"Go":7792,"Ġcandidates":7793,"=\"-":7794,"aby":7795,"Ġbeaut":7796,"cases":7797,"Range":7798,"Ġpaid":7799,"aug":7800,"DS":7801,"ĠPrime":7802,"Ġcompeted":7803,"artifactId":7804,"Ġsales":7805,"global":7806,"eces":7807,"Ġprice":7808,"Ġthick":7809,"icrosoft":7810,"Ġnewspaper":7811,"pan":7812,"Mark":7813,"ĠGar":7814,"sol":7815,"lig":7816,"Ġdetail":7817,"Ġapproaches":7818,"bec":7819,"ĠSom":7820,"ĠMinistry":7821,"General":7822,"poss":7823,">,":7824,"ĠBelg":7825,"xx":7826,"Ġshowing":7827,"Ġbaseball":7828,"Level":7829,"Ġkept":7830,"ĠGuard":7831,"Interface":7832,"1938":7833,"bot":7834,"images":7835,"ĠLim":7836,"Ġtransferred":7837,"make":7838,"Ġrespond":7839,"Ġlargely":7840,"Ġxml":7841,"ĠNations":7842,"Ġappearances":7843,"Ġattend":7844,"uous":7845,"ĠMethod":7846,"Ġcurves":7847,"Ġsoldiers":7848,"~~~~":7849,"Ġfine":7850,"Ġinstrument":7851,"ĠRog":7852,"Ġroles":7853,"ilib":7854,"NE":7855,"ĠDar":7856,"Red":7857,"multi":7858,"going":7859,"Ġsqu":7860,"Ġdefend":7861,"phia":7862,"Record":7863,"Ġintroduce":7864,"Ġdependence":7865,"Ġcoal":7866,"ntario":7867,"chron":7868,"Ġidentify":7869,"Ġallowing":7870,"Ã¡n":7871,"ĠStudies":7872,"utenant":7873,"Que":7874,"Ġera":7875,"Ġpartial":7876,"ĠOlympic":7877,"Ġtrained":7878,"ĠBell":7879,")^{\\":7880,"Ã£o":7881,"ori":7882,"ĠCat":7883,"Ġresear":7884,"yo":7885,"conn":7886,"ĠTam":7887,"Ġcycle":7888,"Ġopportunity":7889,"render":7890,"Ġepisodes":7891,"Ġdetailed":7892,"ĠJon":7893,"Ġbinary":7894,"anth":7895,"Ġexc":7896,"Ġimportance":7897,"CODE":7898,"Ġut":7899,"pa":7900,"Ġcrime":7901,"Ġpromoted":7902,"}^*":7903,"miss":7904,"Dir":7905,"iling":7906,"eli":7907,"ĠEst":7908,"Ġcommonly":7909,"ĠJoe":7910,"UM":7911,"Ġassociation":7912,"ĠUs":7913,"Ġrepresenting":7914,"ĠBoy":7915,"ĠKorean":7916,"Background":7917,"Ð»":7918,"Ġsport":7919,"cache":7920,"ĠTaylor":7921,"$).":7922,"Module":7923,"ĠSecurity":7924,"Ġarbitrary":7925,"Ġbehavi":7926,"Ġapparent":7927,"ĠLew":7928,"Ġ=\\":7929,"Ġhope":7930,"Ġlab":7931,"Callback":7932,"opes":7933,"ĠCorn":7934,"Ġdetection":7935,"Prot":7936,"peror":7937,"allow":7938,"Ġrough":7939,"Ġsingular":7940,"Ġmedian":7941,"TC":7942,"DP":7943,"Ġalongside":7944,"Ġeconomy":7945,"newcommand":7946,"buffer":7947,"Ġassistant":7948,"Ġli":7949,"adelphia":7950,"Ġconstitu":7951,"ĠAk":7952,"ĠCorporation":7953,"Ġrural":7954,"ami":7955,"ĠTri":7956,"Ø§":7957,"ĠOfficial":7958,"Ġfundamental":7959,"1937":7960,"University":7961,")^{-":7962,"Ġgirl":7963,"ĠAmericans":7964,"Ġdenotes":7965,"Cor":7966,"Ġcarri":7967,"Ġextr":7968,"ĠSciences":7969,"ĠRail":7970,"results":7971,"omorphic":7972,"Ġfacilities":7973,"Ġdegrees":7974,"Ġprincipal":7975,"before":7976,"Ġcontinues":7977,"Ġgrew":7978,"textsc":7979,"Ġpowerful":7980,"Ġwild":7981,"Ġachieve":7982,"afe":7983,"cale":7984,"Ġsurpr":7985,"API":7986,"urer":7987,"Ġsecondary":7988,"gest":7989,"Ġindicates":7990,"ĠLight":7991,"Order":7992,"pute":7993,"athan":7994,"Ġaxis":7995,"groupId":7996,"Ver":7997,"Ġcriminal":7998,"mode":7999,"ĠVill":8000,"unte":8001,"two":8002,"ĠLo":8003,"Ġinvestigation":8004,"itled":8005,"ĠManagement":8006,"Ġgraduated":8007,"ĠHand":8008,"Ġjourn":8009,"Music":8010,"appe":8011,"ĠRevolution":8012,"ĠRome":8013,"Ġinterested":8014,"subsubsection":8015,"Ġdelay":8016,"Ġindicate":8017,"ĠRegiment":8018,"perial":8019,"imb":8020,"Ġproport":8021,"ĠAssert":8022,"Ġpra":8023,"device":8024,"Ġinteractions":8025,"ĠBand":8026,"ynamic":8027,"Ġstreet":8028,"ĠBecause":8029,"hs":8030,"PL":8031,"ĠLes":8032,"ito":8033,"$^{-":8034,"ĠMedical":8035,"Some":8036,"imately":8037,"Ġtransformation":8038,"ĠPrize":8039,"Pass":8040,"ĠAdministr":8041,"zh":8042,"ĠReturns":8043,"None":8044,"olds":8045,"ĠMaster":8046,"Cast":8047,"aki":8048,"Ġcoordinates":8049,"Ġple":8050,"Ġcaptured":8051,"ĠSant":8052,"gers":8053,"forall":8054,"islative":8055,"Ġtraffic":8056,"Copy":8057,"Ä±":8058,"vari":8059,"also":8060,"called":8061,"ĠRegion":8062,"Ġsave":8063,"Ġopin":8064,"ads":8065,"ĠPhys":8066,"ĠRom":8067,"IGN":8068,"uple":8069,"Sch":8070,"Ġideas":8071,"amin":8072,"\"))":8073,"Ġcommunication":8074,"ĠThree":8075,"ĠBC":8076,"Search":8077,"etherlands":8078,"consin":8079,"160":8080,"Ġemphas":8081,"Ġcloud":8082,"Ġregarding":8083,"Ġfigures":8084,"van":8085,"Ġwind":8086,"Ġequipment":8087,"ĠBon":8088,"Ġnarrow":8089,"ĠSports":8090,"}}^":8091,"Ġestimates":8092,"ĠCommand":8093,"Empty":8094,"ĠPakistan":8095,"present":8096,"Ġtried":8097,"Ġserves":8098,"Ġmodified":8099,"such":8100,"Ġeverything":8101,"Ġprominent":8102,"Ġfeaturing":8103,"'>":8104,"Position":8105,"ĠServices":8106,"ego":8107,"Ġven":8108,"Dep":8109,"Ġsides":8110,"Ġnucle":8111,"ĠMir":8112,"apes":8113,"ĠInf":8114,"Ġpadding":8115,"Hz":8116,"auth":8117,"Ġthreshold":8118,"adesh":8119,"Thus":8120,"Ġtell":8121,"structor":8122,"Ġsettings":8123,"ĠFollowing":8124,"Sum":8125,"Ġfloor":8126,"ĠDE":8127,"Connection":8128,"Second":8129,"Ġcontro":8130,"Ġprogramming":8131,"ĠAvenue":8132,"Ġathlet":8133,"Figure":8134,"ĠSydney":8135,"Ġcomputed":8136,"ĠAirport":8137,"abil":8138,"ĠFI":8139,"resource":8140,"Ġplanned":8141,"Ġphenomen":8142,"Austral":8143,"zen":8144,"Ġchemical":8145,"pective":8146,"Ġefficient":8147,"'}":8148,"ective":8149,"ĠCambridge":8150,"otted":8151,"isis":8152,"Ġscientific":8153,"Ġroll":8154,"nergy":8155,"Ġfocused":8156,"Ġdeclared":8157,"coll":8158,"Ġexpanded":8159,"ĠElizabeth":8160,"Down":8161,"shall":8162,"Ġbrand":8163,"product":8164,"Ġcircle":8165,"Height":8166,"transform":8167,"Ġtend":8168,"pmatrix":8169,"rine":8170,"ĠPass":8171,"dependent":8172,"1914":8173,"Ġadministrative":8174,"tan":8175,"endix":8176,"ĠAnother":8177,"Ġmorph":8178,"Ġmassive":8179,"NR":8180,"ĠClark":8181,"onical":8182,"ĠMcC":8183,"Ġwrong":8184,"Ġboy":8185,"water":8186,"Ġdamage":8187,"MR":8188,"ronze":8189,"Ġinh":8190,"Ġexcit":8191,"Ġdistributions":8192,"^{+":8193,"ĠVis":8194,"Public":8195,"Ġdriver":8196,"Ġcrew":8197,"ployment":8198,"Ġcompare":8199,"ĠĠĠĠĠĠĠĠĠĠĠĠĠĠĠĠĠĠĠĠ":8200,"Ġtechnical":8201,"Serial":8202,"shot":8203,"Ġcosts":8204,"nership":8205,"1919":8206,"Ġrecognized":8207,"ĠId":8208,"ĠPolit":8209,"ĠWalk":8210,"weet":8211,"Ġtemplate":8212,")_":8213,"aga":8214,"1935":8215,"tog":8216,"Ġhypot":8217,"Font":8218,"chestra":8219,"ĠCreate":8220,"Ġhousing":8221,"PT":8222,"Ġtoward":8223,"Ġagric":8224,"bel":8225,"bourne":8226,"ouch":8227,"Ġmiles":8228,"ropical":8229,"Project":8230,"Ġsilver":8231,"Ġprotection":8232,"ä¸":8233,"Ġtwice":8234,"May":8235,"Ġguarant":8236,"ĠIndust":8237,"110":8238,"sv":8239,"Ã¸":8240,"ĠOntario":8241,"Hash":8242,"aling":8243,"mut":8244,"=\"../../../../../../":8245,"Ġtheme":8246,"ĠToronto":8247,"acket":8248,"hol":8249,"ĠCirc":8250,"Ġblocks":8251,"ĠMike":8252,"Ġ>=":8253,"Ã©e":8254,"owa":8255,"250":8256,"Ġ$.":8257,"files":8258,"ĠYour":8259,")}{\\":8260,"uy":8261,"Ġreplace":8262,"Ġlisting":8263,"olitan":8264,"ĠOs":8265,"WE":8266,"VD":8267,"Ġspectra":8268,"Settings":8269,"osis":8270,"nections":8271,"Ġobvious":8272,"stable":8273,"Ġaccomp":8274,"Ġauthority":8275,"ĠSa":8276,"Ġlocations":8277,"Sign":8278,"ĠGoogle":8279,"Ġperman":8280,"ifer":8281,"Ġsculpt":8282,"Ġsolo":8283,"Ġengineering":8284,"Ġabsolute":8285,"ACK":8286,"Json":8287,"sel":8288,"$$\\":8289,"Ġviews":8290,"ĠAR":8291,"Ġideal":8292,"aska":8293,"Polit":8294,"Ġpicture":8295,"ctx":8296,"ĠBal":8297,"acks":8298,"Operation":8299,"Ġdrive":8300,"Ġgrid":8301,"Ġorders":8302,"organ":8303,"Ġlaunch":8304,"ĠAnton":8305,"Thread":8306,"ĠOt":8307,"iki":8308,"life":8309,"quarters":8310,"inson":8311,"Personal":8312,"Ġinterval":8313,"arring":8314,"Ġhands":8315,"onal":8316,"Association":8317,"Ġexpatriate":8318,"Ġ$$":8319,"hetic":8320,"Ġsubstant":8321,"Ġspatial":8322,"ĠStephen":8323,"lyn":8324,"ĠUnivers":8325,"ĠMarg":8326,"scape":8327,"His":8328,"Ġisol":8329,"1917":8330,"ello":8331,"ĠSunday":8332,"Ġspeech":8333,"Ġdescribes":8334,"Ġincident":8335,"Ġphysics":8336,"weg":8337,"Ġpit":8338,"ĠRod":8339,"iative":8340,"Ġdestroyed":8341,"Ġcommittee":8342,"pir":8343,"Ġhistoric":8344,"ĠTurk":8345,"Ġgap":8346,"Ġlie":8347,"ĠSus":8348,"ĠQueens":8349,"Ġnotes":8350,"600":8351,"Ġgain":8352,"ĠInformation":8353,"EQ":8354,"%;":8355,"ĠNC":8356,"Ġsuccessfully":8357,"ĠChris":8358,"displaystyle":8359,"Ġsubsequent":8360,"Enc":8361,"Ġvotes":8362,"ĠAsh":8363,"Ġdefin":8364,"Ġnotice":8365,"ĠSher":8366,"uilt":8367,"Ġteaching":8368,"Ġestate":8369,"Ġsymmetric":8370,"istent":8371,"ĠOR":8372,"ĠCub":8373,"Ġearth":8374,")$-":8375,"Each":8376,"Ġinvolving":8377,"PH":8378,"Ġmeant":8379,"Ġbomb":8380,"Ġpackage":8381,"Ġsust":8382,"adian":8383,"1933":8384,"full":8385,"|}":8386,"Ġcool":8387,"ĠFree":8388,"Ġtrees":8389,"Ġflight":8390,"Ġpan":8391,"GE":8392,"emet":8393,"Ġreviews":8394,"Ġpal":8395,"obs":8396,"akh":8397,"Ġbegins":8398,"cular":8399,"ĠBG":8400,"duces":8401,"inton":8402,"Params":8403,"TER":8404,"ĠEven":8405,"Ġmechanism":8406,"})$.":8407,"ymp":8408,"urches":8409,"othing":8410,"remark":8411,"ĠFair":8412,"vas":8413,".[":8414,"ĠRen":8415,"cknowled":8416,"modal":8417,"Ġauthorities":8418,"equal":8419,"Option":8420,"Ġadvantage":8421,"Ġcars":8422,"agnost":8423,"Change":8424,"Ġyields":8425,"Ġil":8426,"Document":8427,"mediate":8428,"ĠMath":8429,"Ġmasses":8430,"Ġmeasurement":8431,"Ġnewly":8432,"Ġoptical":8433,"osophy":8434,"South":8435,"Main":8436,"udio":8437,"ugins":8438,"yal":8439,"Ġindustrial":8440,"Ġfinding":8441,"Ġparticipated":8442,"oved":8443,"Ġecho":8444,"Ġodd":8445,"Ġlimits":8446,"Ġofficially":8447,"semble":8448,"mapsto":8449,":(":8450,"ĠHamiltonian":8451,"ĠMember":8452,"Ġdaily":8453,"ĠBrig":8454,"ĠCur":8455,"ictures":8456,"Ġmunicipal":8457,"Ġanswer":8458,"ĠWeek":8459,"icer":8460,"Ġplants":8461,"fields":8462,"Http":8463,"stylesheet":8464,"Properties":8465,"'ve":8466,"umes":8467,"COLOR":8468,"Ġreson":8469,"Ġgranted":8470,"ĠMinnes":8471,"Ġalgorithms":8472,"Ġsubset":8473,"debug":8474,"Ġstarts":8475,"1929":8476,"Ġmusicians":8477,"clusive":8478,"ALL":8479,"Ġemployed":8480,"sch":8481,"Ġexplained":8482,"Ġurban":8483,"Ġstorage":8484,"ĠSanta":8485,"Ġcharged":8486,"=\"_":8487,"estamp":8488,"establ":8489,"Ġrout":8490,"HS":8491,"1928":8492,"ĠWisconsin":8493,"Ġsurrounding":8494,"ĠRaj":8495,"Left":8496,"Ġaffected":8497,"ĠAD":8498,"osa":8499,"Decl":8500,"GS":8501,"Ġchannels":8502,"ĠDisc":8503,"send":8504,"access":8505,"ĠNetherlands":8506,"yard":8507,"plom":8508,"try":8509,"255":8510,"Ġtasks":8511,"Ġdecom":8512,"Ġ\"\\":8513,";->":8514,"ĠMinnesota":8515,"Ġinsert":8516,"Ġoverride":8517,"oster":8518,"Ġshell":8519,"ĠTok":8520,"ĠKim":8521,"anz":8522,"Ġbeat":8523,"1910":8524,"Ġraces":8525,"ĠSpace":8526,"ĠBack":8527,"ĠKir":8528,"Ġpurposes":8529,"_-":8530,"1900":8531,"fully":8532,"Ġadding":8533,"Ġpolicies":8534,"Ġperforming":8535,"Ġvertical":8536,"Ġvisible":8537,"Ġdifferential":8538,"ilibrium":8539,"1934":8540,"ĠFre":8541,"alion":8542,"ĠForest":8543,"Ġconsult":8544,"ATA":8545,"Ġwor":8546,"icker":8547,"worth":8548,"Ġserial":8549,"acent":8550,"border":8551,"ceived":8552,"ipeline":8553,"grade":8554,"picture":8555,"Ġprinciple":8556,"Ġprocessing":8557,"Ġcm":8558,"ĠCheck":8559,"Ġfaculty":8560,"Ġdance":8561,"ĠGlobal":8562,"uj":8563,"Ġrequirements":8564,"Ġmedium":8565,"ecutive":8566,"Ġfaith":8567,"Ġgalaxy":8568,"ĠOnly":8569,"emetery":8570,"idel":8571,"Ġnotable":8572,"osl":8573,"Ġbands":8574,"ĠAli":8575,"mosp":8576,"Ġprime":8577,"icip":8578,"1932":8579,"ĠDespite":8580,"Ġremark":8581,"ibliography":8582,"Ġmagnitude":8583,"Session":8584,"operation":8585,"Ġpool":8586,"unities":8587,"Ġpowers":8588,"Loc":8589,"Ġdepending":8590,"ĠFamily":8591,"III":8592,"Ġapplic":8593,"orders":8594,")\"":8595,"ĠAnth":8596,"Ġcommit":8597,"Ġcomposition":8598,"Ġul":8599,"stro":8600,"scill":8601,"ĠBol":8602,"raham":8603,"Ġwinners":8604,"Ġmotor":8605,"ĠTrue":8606,"Expression":8607,"ĠLag":8608,"ĠWars":8609,"International":8610,"ĠException":8611,"ĠDoug":8612,"ĠVen":8613,"olis":8614,"acle":8615,"Ġstellar":8616,"ĠBad":8617,"~$\\":8618,"hard":8619,"Ġstock":8620,"Ġfinish":8621,"eness":8622,"kes":8623,"Ġinstruction":8624,"Ġends":8625,"uh":8626,"mass":8627,"Ġ::":8628,"Ġcapture":8629,"copy":8630,"blue":8631,"ĠTrust":8632,"ĠPhiladelphia":8633,"GC":8634,"Ġimproved":8635,"ixel":8636,"Ġfans":8637,"Ġpages":8638,"ĠEnt":8639,"Ġlock":8640,"ĠCode":8641,"ĠSwedish":8642,"Ġbudget":8643,"apore":8644,"Cent":8645,"env":8646,"ĠEvent":8647,"\"));":8648,"acc":8649,"ĠGro":8650,"ĠHay":8651,"Ġdecades":8652,"Ġtrav":8653,"efe":8654,"Ġplanning":8655,"ented":8656,"ĠCON":8657,"Ġseats":8658,"&=&":8659,"urd":8660,"utt":8661,"Async":8662,"ĠBatt":8663,"Collection":8664,"Ġheav":8665,"Ġhouseholds":8666,"igrants":8667,"ĠBeach":8668,"stat":8669,"Ġreality":8670,"odot":8671,"Ġenvironmental":8672,"Ġinspired":8673,"Ġdispl":8674,"Ġpartition":8675,"wing":8676,"Ġterritory":8677,"aks":8678,"Ġtells":8679,"iamond":8680,"Sk":8681,"VID":8682,"hash":8683,"ĠConstitution":8684,"ĠNaz":8685,"ooks":8686,"internal":8687,"ĠAuthor":8688,"component":8689,"Ġdeveloping":8690,"kind":8691,"Ptr":8692,"mc":8693,"ĠSab":8694,"Ġclin":8695,"master":8696,"interface":8697,"Menu":8698,"BI":8699,"Ġ..":8700,"Ġvehicle":8701,"Ġfunding":8702,"Ġparliament":8703,"defined":8704,"Ġdevices":8705,"Ġtitles":8706,"ĠDuke":8707,"pet":8708,"Ġtechnique":8709,"ĠStadium":8710,"fram":8711,"Ġtranslation":8712,"DR":8713,"Ġpeace":8714,"Ġcerem":8715,"Ãº":8716,"Ġdimensions":8717,"ĠFinally":8718,"ĠKel":8719,"Vol":8720,"ierarch":8721,"ĠDown":8722,"Vari":8723,"Ġcontemporary":8724,"Ġspl":8725,"Ġviolence":8726,"Ġdocuments":8727,"Ġheat":8728,"Ġchampion":8729,"Before":8730,"1922":8731,"Ġtruth":8732,"Ġscattering":8733,"Ġunless":8734,"Ġgained":8735,"Ġbeam":8736,"Ġcomposer":8737,"mo":8738,"ni":8739,"Ġchallenge":8740,"Ġsuggests":8741,"ĠRights":8742,"Ġrecip":8743,"Ġbin":8744,"Ġrepresentative":8745,"ctors":8746,"cover":8747,"Ġaudience":8748,"tail":8749,"Ġheard":8750,"Ġentr":8751,"ĠLady":8752,"Ġtool":8753,"cp":8754,"irement":8755,"ĠSem":8756,"Ġconj":8757,"Ġprotocol":8758,"ĠWat":8759,"Ġtoken":8760,"Ġpseud":8761,"ĠSerb":8762,"Ġsomew":8763,"ĠDig":8764,"Ġobservation":8765,"ĠBudd":8766,"Ġstress":8767,"ĠAthlet":8768,"ĠEll":8769,"Ġaware":8770,"Ġasympt":8771,"Ġelev":8772,"###":8773,"Ġresident":8774,"Ġobserve":8775,"Ġce":8776,"Ġwaves":8777,"ULT":8778,"Ġresulted":8779,"angular":8780,"Ġrenamed":8781,"join":8782,"bootstrap":8783,"Ġcopies":8784,"rizona":8785,"types":8786,"Ġhole":8787,"Ġnor":8788,"ĠDavis":8789,"Ġsatisfy":8790,"anna":8791,"GET":8792,"ĠHun":8793,"ĠColl":8794,"Ġminimal":8795,"isted":8796,"ributed":8797,"onomy":8798,"tim":8799,"Ġlearned":8800,"Nov":8801,"ymph":8802,"ĠJews":8803,"Ġadvanced":8804,"eman":8805,"Ġmatrices":8806,"iful":8807,"1927":8808,"ronic":8809,"ĠRoute":8810,"itable":8811,"pson":8812,"ĠWrit":8813,"ĠPremier":8814,"256":8815,"ois":8816,"ĠGer":8817,"Ġfilename":8818,"Ġhidden":8819,"Ġmountain":8820,"aration":8821,"ĠMedal":8822,"Ġwing":8823,"iang":8824,"NavBar":8825,"Inst":8826,"$;":8827,"MT":8828,"actic":8829,"OK":8830,"ĠErr":8831,"}}^{":8832,"Schema":8833,"ĠPers":8834,"hbar":8835,"Ġcollected":8836,"bind":8837,"Ġperformances":8838,"Although":8839,"Ġhash":8840,"ĠFire":8841,"AND":8842,"Ġpenal":8843,"ĠMill":8844,"ĠTai":8845,"Reference":8846,"rie":8847,"ĠDesign":8848,"ĠEngineering":8849,"ĠIl":8850,"points":8851,"Ġcircum":8852,"ĠLabor":8853,"Definition":8854,"cow":8855,"Ġmathemat":8856,"1931":8857,"ĠLev":8858,"Ġsupply":8859,"BR":8860,"formance":8861,"Ġlum":8862,"short":8863,"1924":8864,"Ġhosted":8865,")\\\\":8866,"Ġspecifically":8867,"ĠConf":8868,"Ġshop":8869,"hbox":8870,"ennessee":8871,"Ġrecognition":8872,"Ġnarr":8873,"she":8874,"ĠHind":8875,"zy":8876,"Ġtaught":8877,"Ġparams":8878,"Ġdefeat":8879,"ĠBridge":8880,"sive":8881,"Ġintroduction":8882,"ĠCzech":8883,"Ġtheoretical":8884,"Ġjudge":8885,"Ġarts":8886,"andra":8887,"ĠIndones":8888,"PECT":8889,"CI":8890,"uli":8891,"}({\\":8892,"vard":8893,"Ġintersection":8894,"aux":8895,"ĠTurkey":8896,"Ġoscill":8897,"sid":8898,"Ġtransaction":8899,"Ġsuffered":8900,"eless":8901,"ĠGree":8902,"Ġthread":8903,"$~":8904,"ester":8905,"Ġfell":8906,"pot":8907,"Ġrepeated":8908,"Ġadvert":8909,"atern":8910,"asty":8911,"names":8912,"ĠFox":8913,"Ġener":8914,"\"|":8915,"Ġangular":8916,"ponential":8917,"Helper":8918,"Ġbond":8919,"unes":8920,"Ġprepar":8921,"How":8922,"Ġfacility":8923,"Rad":8924,"ses":8925,"&#":8926,"Theorem":8927,"ĠFurthermore":8928,"Ġnotation":8929,"ving":8930,"Ġcontainer":8931,"ĠHo":8932,"Ġrugby":8933,"hedral":8934,"Ġemployees":8935,"Draw":8936,"Ġfinds":8937,"Ġadvance":8938,"Iter":8939,"ancer":8940,"Ġcharges":8941,"herent":8942,"Ġportion":8943,"media":8944,"ĠBishop":8945,"Ġopposite":8946,"Ġscholar":8947,"proposition":8948,"Ġseconds":8949,"Ġstack":8950,"forward":8951,"ropolitan":8952,"Dom":8953,"regon":8954,"Ġmorning":8955,"Ġfunctional":8956,"ĠRon":8957,"Ġpiano":8958,"Ġparish":8959,"Ġcaptain":8960,"ĠDer":8961,"Ġcalculations":8962,"Ġfiction":8963,"Ġvehicles":8964,"Ġpossibly":8965,"wegian":8966,"store":8967,"illing":8968,"sor":8969,"PU":8970,"ika":8971,"RI":8972,"iner":8973,"rim":8974,"ĠMilitary":8975,"Ġcache":8976,"Ret":8977,"ĠCountry":8978,"address":8979,"Ġtal":8980,"ects":8981,"Women":8982,"Use":8983,"ĠSweden":8984,"patch":8985,"ĠSteve":8986,"ĠFund":8987,"800":8988,"Integer":8989,"leted":8990,"Ġplanet":8991,"ups":8992,"scription":8993,"ĠGaussian":8994,"Ġfounder":8995,"Ġentity":8996,"ĠArea":8997,"ears":8998,"Ġusual":8999,"sn":9000,"Invalid":9001,"1921":9002,"Ġpurchased":9003,"ighth":9004,"Ġcalling":9005,"lywood":9006,"ordan":9007,"1925":9008,"Ġwhereas":9009,"oli":9010,"Ġvess":9011,"ogen":9012,"agnetic":9013,"German":9014,"lan":9015,"Äį":9016,"Ġdefense":9017,"anga":9018,"XX":9019,"Impl":9020,"Ġvectors":9021,"msg":9022,"Host":9023,"ĠIV":9024,"1912":9025,"aton":9026,"ĠName":9027,"req":9028,"Ġtowns":9029,"mad":9030,"Ġ{};":9031,"Ġconsidering":9032,"ĠMissouri":9033,"hover":9034,"lementary":9035,"Store":9036,"ilbert":9037,"1923":9038,"Ġpassing":9039,"ĠUkraine":9040,"Ġdoctor":9041,"Ġcart":9042,"rat":9043,"Ġextend":9044,"Ġmanner":9045,"Ġtools":9046,"Ġspons":9047,"Ġdocumentary":9048,"Ġreferences":9049,"Ġcalculation":9050,"ERROR":9051,"Ġhabit":9052,"128":9053,"ĠIndiana":9054,"ĠĠĠĠĠĠĠĠĠĠĠĠĠĠĠĠĠĠ":9055,"ĠNY":9056,"Ġcampus":9057,"ĠAz":9058,"French":9059,"family":9060,"Ġanimals":9061,"Ġfeet":9062,"ĠSon":9063,"enna":9064,"Two":9065,"Ġzone":9066,"Ġrestaur":9067,"Ġorbit":9068,"Ġinher":9069,"Ġpret":9070,"123":9071,"ician":9072,"ĠChristmas":9073,"ĠDam":9074,"ĠWell":9075,"ĠUsing":9076,"ĠĠĠĠĠĠĠĠĠĠĠĠĠĠĠĠĠĠĠĠĠĠĠĠĠĠĠĠĠĠĠĠĠĠĠĠĠĠĠ":9077,"ĠAtlantic":9078,"clear":9079,"double":9080,"atible":9081,"'(":9082,"Ġswim":9083,"1915":9084,"PRE":9085,"ĠGolden":9086,"Ġgeometry":9087,"Ġturns":9088,"BL":9089,"Names":9090,"delete":9091,"Ġconvent":9092,"Ġinstalled":9093,"Biography":9094,"ymmetric":9095,"ĠWel":9096,"ĠCaptain":9097,"clip":9098,"Vector":9099,"Ġopposition":9100,"OM":9101,"outheast":9102,"Ġtitled":9103,"urance":9104,"Ġsummary":9105,"Ġintegration":9106,"Ġcontest":9107,"ĠHom":9108,"ĠPeak":9109,"rell":9110,"notes":9111,"Tele":9112,"ĠGreg":9113,"tn":9114,"Ġinnov":9115,"ĠAffairs":9116,"Ġabandon":9117,"Ġcorpor":9118,"Ġbright":9119,"ĠCas":9120,"Ñĥ":9121,"Ġrect":9122,"Found":9123,"Ġrotation":9124,"}&":9125,"ĠInternet":9126,"Ġpublication":9127,"Ġnovels":9128,"101":9129,"Ġattempts":9130,"Ġimplemented":9131,"Ġinfo":9132,"Ġpush":9133,"ĠPalest":9134,"ĠWinter":9135,"ĠVAL":9136,"Ġcorner":9137,"ĠWhe":9138,"\\{\\":9139,"ogs":9140,"ĠKansas":9141,"ritical":9142,"opic":9143,"Ġreceiving":9144,"ĠRE":9145,"ĠHard":9146,"Ġfunds":9147,"plugin":9148,"Ġterror":9149,"Ġspring":9150,"framework":9151,"Ġsuperv":9152,"ĠReal":9153,"Ġsurn":9154,"Ġengineer":9155,"ĠAh":9156,"ussion":9157,"ĠMic":9158,"Using":9159,"1926":9160,"idget":9161,"HL":9162,"ordon":9163,"wall":9164,"ben":9165,"ultane":9166,"Ġconven":9167,"ambig":9168,"Ġportray":9169,"Ġstone":9170,"ĠPlan":9171,"Ġeveryone":9172,"agan":9173,"illery":9174,"ĠForeign":9175,"ĠSpring":9176,"Ġremember":9177,"ĠKal":9178,"ĠBall":9179,"Ġconstitution":9180,"ĠLewis":9181,"âĢĿ.":9182,"Ġyounger":9183,"aturday":9184,"ĠJoh":9185,"Ġsupporting":9186,"Ġsan":9187,"andy":9188,"\",\"":9189,"jan":9190,"DI":9191,"Ġexerc":9192,"[(":9193,"gies":9194,"ĠFinal":9195,"phone":9196,"Ġperhaps":9197,"ername":9198,"Ġdie":9199,"support":9200,"1916":9201,"Ġconclude":9202,"Ġnegot":9203,"Ġindeed":9204,"Ġinduced":9205,"Ġeq":9206,"Ġscales":9207,"Ġaccident":9208,"Ġextensive":9209,"Ġstandards":9210,"ĠTy":9211,"ĠLive":9212,"CF":9213,"Ġinfinite":9214,"Ġdemocr":9215,"astructure":9216,"False":9217,"\\_":9218,"RS":9219,"Ġlocally":9220,"ĠTHE":9221,"Ġfrequently":9222,"ĠFellow":9223,"Ġclosely":9224,"Core":9225,"ĠMoh":9226,"mma":9227,"Ġtrend":9228,"ĠTal":9229,"awn":9230,"mers":9231,"comment":9232,"Handle":9233,"rase":9234,"Ġdeleg":9235,"Arch":9236,"Ġsevent":9237,"Ġarms":9238,"Ġfluct":9239,"green":9240,"ĠLO":9241,"Ġtrip":9242,"Ġcauses":9243,"Ġfish":9244,"hu":9245,"dy":9246,"ipl":9247,"Ġfemales":9248,"Ġamplitude":9249,"Ġacceler":9250,"'],":9251,"aded":9252,"Ġbounds":9253,"Ġfashion":9254,"Ġregistered":9255,"equals":9256,"Ġwrest":9257,"okes":9258,"fly":9259,"ĠSquad":9260,"Ġtwenty":9261,"Ġhero":9262,"Ġcoverage":9263,"ĠSuch":9264,"Ġrom":9265,"Song":9266,"Ġreturning":9267,"Ġthermal":9268,"Ġinjury":9269,"Ġelectronic":9270,"Ġunable":9271,"Â°":9272,"Ġaspects":9273,"ĠMari":9274,"ĠArthur":9275,"fi":9276,"vm":9277,"MI":9278,"Ġcancell":9279,"Ġconstraint":9280,"Ġtempor":9281,"living":9282,"cha":9283,"loop":9284,"Ġchance":9285,"ĠColorado":9286,"een":9287,"season":9288,"Ġexplain":9289,"Ġgovernor":9290,"click":9291,"Ġvice":9292,".'":9293,"Ġlosing":9294,"Olymp":9295,"Ġarrested":9296,"ĠGallery":9297,"Ġion":9298,"ogeneous":9299,"ORT":9300,"bad":9301,"Ġcov":9302,"Ġbelief":9303,"ĠTownship":9304,"Ã¢":9305,"ĠRepresentatives":9306,"Ġjournalist":9307,"acro":9308,"ifts":9309,"Classes":9310,"ĠTennessee":9311,")+\\":9312,"\\|_{":9313,"iples":9314,"Following":9315,"Ġjav":9316,"Ġburn":9317,"Ġlayers":9318,"ĠBooks":9319,"Ġ++":9320,"Ġpossibility":9321,"Ġnamespace":9322,"iable":9323,"():":9324,"Ġcoinc":9325,"floor":9326,"Ġentirely":9327,"Ġwitness":9328,"iÃ³n":9329,"Ġpainting":9330,"uum":9331,"Video":9332,"pert":9333,"avity":9334,"isa":9335,"Ġinterests":9336,"Ġfighting":9337,"foo":9338,"ORD":9339,")}_{":9340,"ĠMexican":9341,"Ġ),":9342,"ĠPit":9343,"forms":9344,"Tool":9345,"ĠSU":9346,"BB":9347,"Ġreaction":9348,"Ġaggreg":9349,"Ġreligion":9350,"ĠBrother":9351,"Ġinvestment":9352,"ingly":9353,"(*":9354,"ĠSurvey":9355,"ĠFace":9356,"Ġefficiency":9357,"kg":9358,"Ġradiation":9359,"Ġmask":9360,"Ġpieces":9361,"ĠShort":9362,"romise":9363,"Ġunsigned":9364,"High":9365,"Ġrich":9366,"ĠMaryland":9367,"Ġrefers":9368,"Ġcovers":9369,"ĠMemorial":9370,"Ġconsisting":9371,"Ġreader":9372,"Ġchanging":9373,"ĠRequ":9374,"ĠHy":9375,"just":9376,"Title":9377,"RC":9378,"`.":9379,"================================":9380,"Ġexperi":9381,"Ġapproved":9382,"ĠGh":9383,"Ġranked":9384,"focus":9385,"bat":9386,"ĠMaria":9387,"oor":9388,"Xml":9389,"since":9390,"cloud":9391,"person":9392,"tik":9393,"arest":9394,"eral":9395,"Ġcrow":9396,"initial":9397,"Ġemail":9398,"Tim":9399,")).":9400,"ĠVi":9401,"ĠLocal":9402,"Ġisn":9403,"Ġpy":9404,"rior":9405,"widget":9406,"Ġbow":9407,"Ġ$|\\":9408,"coin":9409,"Ġdriving":9410,"handle":9411,"Ġexclud":9412,"Ġdistricts":9413,")},":9414,"ĠEth":9415,"ĠNorm":9416,"boolean":9417,"docs":9418,"Ġletters":9419,"tainment":9420,"Ġcab":9421,"125":9422,"ĠRose":9423,"istant":9424,"Select":9425,"panel":9426,"ĠAlf":9427,"session":9428,"Ġextremely":9429,"gency":9430,"Ġwealth":9431,"ĠCH":9432,"Ġtermin":9433,"Ġrain":9434,"Ġultimately":9435,"Introduction":9436,"ĠFederation":9437,"ĠHart":9438,"Ġ^":9439,"Ġcharacteristic":9440,"Parameters":9441,"ĠColon":9442,"Ġclusters":9443,"1913":9444,"Ġkernel":9445,"ĠArizona":9446,"WA":9447,"DIR":9448,"Ġmapping":9449,"ĠHan":9450,"Ġholding":9451,"toString":9452,"uling":9453,"Ġconvergence":9454,"aws":9455,"holder":9456,"Sm":9457,"ĠHoly":9458,"Device":9459,"Ġatmosp":9460,"Ġcontrolled":9461,"Awards":9462,"Ġescape":9463,"ĠHor":9464,"ĠOregon":9465,"omot":9466,"erves":9467,"category":9468,"ĠStock":9469,"ĠDate":9470,"ĠBGCOLOR":9471,"Ġconverted":9472,"Ġinstitution":9473,"wealth":9474,"igin":9475,"ivation":9476,"Ġbenefit":9477,"coln":9478,"Ġchap":9479,"Ġ('":9480,"(:":9481,"Ġmatching":9482,"ĠConnect":9483,"ĠCastle":9484,"Ġcoordinate":9485,"rency":9486,"Ġunderlying":9487,"Ġfactory":9488,"Dav":9489,"uther":9490,"rang":9491,"ipe":9492,"Ġspot":9493,"BE":9494,"Ġbroken":9495,"cccc":9496,"})$,":9497,"180":9498,"admin":9499,"Stack":9500,"Ġyards":9501,"virt":9502,"dependency":9503,"Ġending":9504,"bles":9505,"ĠBrad":9506,"unnel":9507,"ĠSat":9508,"arry":9509,"cong":9510,"ĠDom":9511,")-\\":9512,"Ġopposed":9513,"ĠLeon":9514,"ĠRa":9515,"ribed":9516,"Ġsolar":9517,"Application":9518,"uating":9519,"ĠSingapore":9520,"ivated":9521,"}{(":9522,"Ġ^{":9523,"Ġsoc":9524,"ĠLike":9525,">();":9526,"Ġplus":9527,"Ġvariation":9528,"pur":9529,"}}$.":9530,"-->":9531,"ĠMult":9532,"axis":9533,"connect":9534,"Ġsafe":9535,"ques":9536,"ĠPhilippines":9537,"Ġpartnership":9538,"kh":9539,"Ġcomments":9540,"Ġvir":9541,"western":9542,"Ġvisited":9543,"ocate":9544,"pres":9545,"ĠNa":9546,"${\\":9547,"Ġalleged":9548,"ĠNative":9549,"clusions":9550,"Ġdrawn":9551,"Ġhour":9552,"ĠWho":9553,"including":9554,"ĠAdam":9555,"Finally":9556,"Ġloan":9557,"antly":9558,"Ġouter":9559,"$),":9560,"Olympic":9561,"Ġcrick":9562,"ĠJacob":9563,"Template":9564,"ĠExecutive":9565,"ĠRoss":9566,"Ġundefined":9567,"ĠMiller":9568,"Ġupdated":9569,"wick":9570,"Ġcolumns":9571,"Ġadjust":9572,"disabled":9573,"ĠMountain":9574,"`,":9575,"Ġmedalists":9576,"ĠHal":9577,"TA":9578,"Ġnamely":9579,"Ġrend":9580,"ĠFord":9581,"ĠEnergy":9582,"ĠSav":9583,"}}$,":9584,"Doc":9585,"phys":9586,"Ġdynamic":9587,"ĠTer":9588,"ĠBaron":9589,"Ġcamera":9590,"ĠWindow":9591,"itivity":9592,"ĠUse":9593,"secutive":9594,"Ġevaluation":9595,"Ġagree":9596,"Ġjobs":9597,"Lem":9598,"Ġroyal":9599,"ĠAdv":9600,"ĠĠĠĠĠĠĠĠĠĠĠĠĠĠĠĠĠĠĠĠĠĠĠĠĠ":9601,"incial":9602,"ĠMoscow":9603,"ĠVietnam":9604,"ivals":9605,"eties":9606,">.":9607,"Ġicon":9608,"Api":9609,"jar":9610,"Ġdanger":9611,"Ġtradition":9612,"ĠAnderson":9613,"Leg":9614,"ĠJesus":9615,"Ġdropped":9616,"elect":9617,"Ġwrap":9618,"Ġexplicitly":9619,"Best":9620,"ĠMun":9621,"Has":9622,"irty":9623,"ras":9624,"ĠEvery":9625,"avor":9626,"ĠMP":9627,"Ġlabels":9628,"Step":9629,"lik":9630,"Ġcalculate":9631,"Sources":9632,"They":9633,"ĠPier":9634,"ĠPrinc":9635,"Ġsolve":9636,"Ġtreated":9637,"Ġagents":9638,"Ġready":9639,"cope":9640,"))$":9641,"ĠCharl":9642,"enum":9643,"Cap":9644,"ĠDor":9645,"ailing":9646,"Under":9647,"Ġlatest":9648,"DC":9649,"DL":9650,"ĠFreder":9651,"Ġdomestic":9652,"ĠSlov":9653,"ĠHighway":9654,"Ġtheories":9655,"rub":9656,"Ġparse":9657,"Ġorth":9658,"ĠMunic":9659,"Ġfestival":9660,"periment":9661,"Ġagency":9662,"register":9663,"Ġ\\&":9664,"Ġjur":9665,"region":9666,"ĠLast":9667,"Assert":9668,"Tax":9669,"uted":9670,"Ġoccasion":9671,"Av":9672,"Ġcook":9673,"ĠEXPECT":9674,"Ġburied":9675,"urr":9676,"Values":9677,"ureau":9678,"}$)":9679,"outs":9680,"ĠIP":9681,"ĠNon":9682,"Ġindicated":9683,"ĠReport":9684,"Ġuncertainty":9685,"Ġ['":9686,"modules":9687,"Ġcomplexity":9688,"shape":9689,"Ġsubstit":9690,"Ġconsequence":9691,"Ġrender":9692,"ĠChannel":9693,"ĠEnvironment":9694,"Ġsuitable":9695,"Ġskills":9696,"Ġnominated":9697,",\\,\\":9698,"ĠAbout":9699,"elease":9700,"Ġinline":9701,"iversary":9702,"ivery":9703,"Ġindependence":9704,"Ġchairman":9705,"Initial":9706,"ĠAction":9707,"Therefore":9708,"Ġinterior":9709,"Ġarrang":9710,"Ġlyr":9711,"Ġdoll":9712,"ĠMalays":9713,"ĠView":9714,"}{|":9715,"Ġtheatre":9716,"Ġjustice":9717,"Ġscoring":9718,"West":9719,"itzerland":9720,"bell":9721,"ÃŃa":9722,"Ġgirls":9723,"adi":9724,"edia":9725,"tikz":9726,"Debug":9727,"ensis":9728,"Ġmir":9729,"Ġdelete":9730,"footer":9731,"Num":9732,"\\;":9733,"1911":9734,"Ġhall":9735,"arse":9736,"agen":9737,"Ġtail":9738,"ictional":9739,"super":9740,"-$":9741,"ĠNA":9742,"ango":9743,"spring":9744,"ĠTurn":9745,"Ġbrain":9746,"ĠBh":9747,"ĠChildren":9748,"Ġliqu":9749,"Ġglass":9750,"Ġstability":9751,"Ġnob":9752,"Ġlect":9753,"replace":9754,"Ġpresidential":9755,"ĠNorway":9756,"Ġscaling":9757,"ĠDist":9758,"ĠArk":9759,"Rect":9760,"Ġtrigger":9761,"ĠDC":9762,"ĠCle":9763,"Ġhappened":9764,"Ġheader":9765,"anchester":9766,"Ġahead":9767,"William":9768,"ĠUl":9769,"ĠIO":9770,"Canadian":9771,"Ġfuel":9772,"ocese":9773,"elle":9774,"Pres":9775,"agh":9776,"fall":9777,"]]":9778,"Jan":9779,"Argument":9780,"Ġpossess":9781,"ĠHou":9782,"ificate":9783,"Ġdetect":9784,"islation":9785,"Metadata":9786,"ORM":9787,"gment":9788,"Ġbenefits":9789,"ĠAN":9790,"SM":9791,"Ġabund":9792,"Bibliography":9793,"Gen":9794,"ĠBat":9795,"Ġdesignated":9796,"Ġlicense":9797,"ti":9798,"Ġmixing":9799,"Ġec":9800,"ĠAmb":9801,"%,":9802,"Ġinvoke":9803,"achelor":9804,"mazon":9805,"Ġgraphs":9806,"Parent":9807,"webkit":9808,"Ã©s":9809,"Ġobjective":9810,"Ġconcerns":9811,"----------------------------------------------------------------":9812,"olver":9813,"ĠIsraeli":9814,"settings":9815,"ologists":9816,"engers":9817,"application":9818,"Ġcategories":9819,"ĠSri":9820,"LC":9821,"Christ":9822,"ĠCab":9823,"Ġprediction":9824,"ĠSO":9825,"Ġschol":9826,"2023":9827,"Ġseparated":9828,"ĠCommun":9829,"Ġdiplom":9830,"SION":9831,"ĠAre":9832,"Ġguard":9833,"Ġpatterns":9834,"Ġcommitted":9835,"ĠĠĠĠĠĠĠĠĠĠĠĠĠĠĠĠĠĠĠĠĠĠĠĠĠĠĠĠĠĠĠĠĠĠĠĠĠĠĠĠĠĠĠĠĠĠĠĠĠĠĠĠĠĠĠĠĠĠĠĠĠĠĠĠ":9836,"ahoma":9837,"ĠBet":9838,"................":9839,"Ġfresh":9840,"stop":9841,"imp":9842,"Ġopinion":9843,"Ġsupports":9844,"Ġferm":9845,"roit":9846,")}}":9847,"ĠBarn":9848,"'ll":9849,"Ġmand":9850,"Ġhuge":9851,"ĠMelbourne":9852,"Ġmobile":9853,"ĠHarry":9854,"possible":9855,"ĠKhan":9856,"Ġargued":9857,"ĠValue":9858,"Ġtrace":9859,"Sportspeople":9860,"ideos":9861,"ĠPhilip":9862,"Policy":9863,"rieved":9864,"Parser":9865,"Ġdrink":9866,"success":9867,"Ġeducated":9868,"Pattern":9869,"oured":9870,"Ġbalance":9871,"Ġyellow":9872,"Reader":9873,"ĠChap":9874,"Ġaffili":9875,"byte":9876,"Ġexpert":9877,"Ġdecor":9878,"TT":9879,"Ġexcell":9880,"Ġstatistical":9881,"Ġscheduled":9882,"Ġbodies":9883,"ĠEs":9884,"world":9885,"alid":9886,"ĠPage":9887,"uese":9888,"Dist":9889,"Ġgender":9890,"Ġhighlight":9891,"ĠMA":9892,"Ġdesired":9893,"Ġstarring":9894,"ĠThrough":9895,"ĠTransport":9896,"Ġhappen":9897,"evin":9898,"ainian":9899,"Ġrecommend":9900,"Ġvent":9901,"','":9902,"Ġentries":9903,"Args":9904,"ĠStaff":9905,"Ġcrisis":9906,"Ġmock":9907,"achment":9908,"inction":9909,"boldmath":9910,"Ġknew":9911,"Japan":9912,")),":9913,"Ġconnections":9914,"Ant":9915,"fef":9916,"Hon":9917,"Ġdirectory":9918,"Ġbriefly":9919,"exports":9920,"icians":9921,"issip":9922,"Ġmyst":9923,"yers":9924,"ĠIowa":9925,"Media":9926,"URE":9927,"ĠBaseball":9928,"custom":9929,"Ġcritics":9930,"|_{":9931,"Ġda":9932,"Cre":9933,"Ġexplan":9934,"Film":9935,"Ġscenario":9936,"Tab":9937,"Ġattributes":9938,"ĠEntertainment":9939,"Ġrefused":9940,"igenous":9941,"encing":9942,"ECT":9943,"ucket":9944,"Ġwins":9945,"oton":9946,"ĠLind":9947,"record":9948,"Ġcoefficient":9949,"lower":9950,"ĠDonald":9951,"offs":9952,"Body":9953,"Ġmessages":9954,"Ġbronze":9955,"Del":9956,"Ġsimultane":9957,"Ġele":9958,"fix":9959,"%.":9960,"aph":9961,"diff":9962,"ĠMit":9963,"Ġss":9964,"Ġflood":9965,"bigl":9966,"ĠText":9967,"ROM":9968,"abama":9969,"ods":9970,"Ġdetected":9971,"Ġmonitor":9972,"coh":9973,"Ġconvers":9974,"Ġattempted":9975,"grid":9976,"Populated":9977,",$":9978,"Ġresc":9979,"Ġeducational":9980,"ĠInitial":9981,"fold":9982,"Ġbehaviour":9983,"ĠModern":9984,"ĠCase":9985,"Ġstorm":9986,"ĠLtd":9987,"ĠĠĠĠĠĠĊ":9988,"ĠEU":9989,"WS":9990,"ĠLow":9991,"Ġadvis":9992,"icons":9993,"Ġanyone":9994,"Ġshock":9995,"Ġos":9996,"night":9997,"atin":9998,"ante":9999,"Ġsetup":10000,"Ġsac":10001,"ynasty":10002,"Geography":10003,"Her":10004,"Ġbulk":10005,"Ġapart":10006,"Ġaid":10007,"Bytes":10008,"iations":10009,"}\"":10010,"ĠLiter":10011,"iveness":10012,"Ġconsecutive":10013,"anton":10014,"fghan":10015,"Kind":10016,"Ġstands":10017,"urst":10018,"istration":10019,"ĠExt":10020,"izon":10021,"conv":10022,"acew":10023,"Ġfavour":10024,"Var":10025,"Ġvocal":10026,"Ġ})":10027,"ĠTa":10028,"ortheast":10029,"UK":10030,"GA":10031,"000001":10032,"Ġaudio":10033,"ĠRow":10034,"ingham":10035,"1908":10036,"toggle":10037,"Ġwasn":10038,"Ġherself":10039,"Ġvot":10040,"Ġconclusion":10041,"Ġsucceeded":10042,"ĠLeb":10043,"ushed":10044,"Ġrational":10045,"forcement":10046,"ĠIslamic":10047,"itational":10048,"Ġvillages":10049,"ĠJunior":10050,"agues":10051,"export":10052,"ĠPolicy":10053,"Ġbusinesses":10054,"âĢĿ,":10055,"Ġentitled":10056,"Ġguest":10057,"inema":10058,"isely":10059,"urations":10060,"Ġadjacent":10061,"á»":10062,"uerto":10063,"stances":10064,"angel":10065,"Ġmach":10066,"ĠBah":10067,"ĠCollection":10068,"Ġdust":10069,"ĠGreece":10070,"zi":10071,"Ġhorse":10072,"PAT":10073,"Ġoccupied":10074,"antom":10075,"Ġlicens":10076,"Ġprojection":10077,"icut":10078,"Ġdenoted":10079,"dem":10080,"esian":10081,"ĠAdministration":10082,"Ã¼r":10083,"uma":10084,"ĠAgain":10085,"Ġextent":10086,"Ġpun":10087,"Ġtrib":10088,"Ġexplo":10089,"ĠBefore":10090,"Ġbundle":10091,"klahoma":10092,"Ġqualified":10093,"fefefe":10094,"ĠCape":10095,"Ġpoll":10096,"Ġgradient":10097,"ĠKentucky":10098,"numer":10099,"Root":10100,"Ġaccurate":10101,"channel":10102,"uits":10103,"gar":10104,"Ġpremier":10105,":=":10106,"ĠBos":10107,"Ġpaths":10108,"ĠFront":10109,"Ġenable":10110,"SF":10111,"Ġpromote":10112,"ĠComput":10113,"ĠNO":10114,"Ġpapers":10115,"integ":10116,"Ġquadr":10117,"ĠSever":10118,"don":10119,"Ġoldest":10120,"$:":10121,"ando":10122,"Ġsought":10123,"ĠAlbert":10124,"usal":10125,"joint":10126,"Ġexponential":10127,"Ġbought":10128,"Events":10129,"Ġbrothers":10130,"ĠVice":10131,"ĠJane":10132,"ĠNumber":10133,"Ġneutr":10134,"when":10135,"ouses":10136,"Ġrobust":10137,"iem":10138,"Ġtransmission":10139,"Ġiron":10140,"Ġexceed":10141,"Ð°Ð":10142,"domain":10143,"Ġeffectively":10144,"ĠStory":10145,"Selected":10146,"Ġsummar":10147,"former":10148,"ymn":10149,"vo":10150,"cert":10151,"Ġmel":10152,"rog":10153,"Ġthousands":10154,"Enabled":10155,"Member":10156,"ĠAL":10157,"ĠBalt":10158,"ĠAny":10159,"pred":10160,"Ġmanagers":10161,"iley":10162,"large":10163,"Ġcontributed":10164,"bigr":10165,"Ġcas":10166,"relations":10167,"Ġcredit":10168,"Ġpermanent":10169,"Ġrepresentations":10170,"Ġseed":10171,"Only":10172,"theless":10173,"izable":10174,"Ġarc":10175,"ĠCost":10176,"Ġmist":10177,"Transport":10178,"Ġpredicted":10179,"Ġtraject":10180,"ĠCEO":10181,"Wrap":10182,"Ġturb":10183,"ĠInvest":10184,"Ġexecution":10185,"Ġlowest":10186,"Ġracing":10187,"notation":10188,"Ġlemma":10189,"Ġcarbon":10190,"Ġcombat":10191,"Ġ'/":10192,"auto":10193,"Ġtemperatures":10194,"Any":10195,"ĠOfficer":10196,"ĠBuilding":10197,"ĠAustria":10198,"anches":10199,"atar":10200,"ĠSimon":10201,"Ġinvestigate":10202,"HTML":10203,"Ġabstract":10204,"Ġweapons":10205,"Ġroughly":10206,"Ġintelligence":10207,"ĠCart":10208,"Ġ[\\":10209,"vee":10210,"ĠMond":10211,"ĠPot":10212,"Death":10213,"ĠNap":10214,"Ġbyte":10215,"Ġpreced":10216,"Life":10217,"Ġdiver":10218,"ogram":10219,"Euro":10220,"Ġwalls":10221,"ships":10222,"Ġprofession":10223,"ĠOcean":10224,"Ġmayor":10225,"ĠVo":10226,"ĠLincoln":10227,"ounded":10228,"Ġmales":10229,"ĠForces":10230,"stan":10231,"chant":10232,"Ġsignature":10233,"Ġcomputational":10234,"ĠSaturday":10235,"ellite":10236,"Ġintegrated":10237,"heim":10238,"Ġdiscrete":10239,"Fields":10240,"Ġprogramme":10241,"Ġcommander":10242,"otional":10243,"Ġsixth":10244,"Ġconstants":10245,"Ġrevolution":10246,"assets":10247,"Ġalter":10248,"Ġkilling":10249,"Ġcomputation":10250,"_;":10251,"Ġformerly":10252,"Ġment":10253,"Ġtower":10254,"Ġabsence":10255,"Ġillustr":10256,"'))":10257,"Ġinterpretation":10258,"enez":10259,"hl":10260,"ĠĠĠĠĠĠĠĠĠĠĠĠĠĠĠĠĠĠĠĠĠĠĠĠ":10261,"Ġdecade":10262,"Ġgeneric":10263,"plane":10264,"ĠTony":10265,"general":10266,"Fram":10267,"elve":10268,"ĠToday":10269,"ruption":10270,"Ġoptimization":10271,"ĠJos":10272,"Ġsufficiently":10273,"uties":10274,"blockList":10275,"Ġvolunte":10276,"ĠFame":10277,"ĠMagazine":10278,"ĠLank":10279,"Display":10280,"Ġexhibition":10281,"scriptstyle":10282,"umin":10283,"erial":10284,"Prop":10285,"Writer":10286,"Ġrig":10287,"Ġ(;":10288,"]}":10289,"orrow":10290,"ĠSwitzerland":10291,"plicity":10292,")[":10293,"Ġsun":10294,"omer":10295,"Ġwinter":10296,"install":10297,"Ġheadquarters":10298,"Ġsubgroup":10299,"Ġphoto":10300,"Ġdoor":10301,"plugins":10302,"oment":10303,"blem":10304,"ambiguation":10305,"brid":10306,"Ġjet":10307,"nie":10308,"aming":10309,"material":10310,"Ġpromotion":10311,"keys":10312,"ĠTel":10313,"Ġlists":10314,"ĠGre":10315,"endment":10316,"ĠNick":10317,"Ġbytes":10318,"Ġlawyer":10319,"ifferent":10320,"Ġapplying":10321,"Ġinteract":10322,"ĠHTML":10323,"ymf":10324,"áĥ":10325,"Ġgreatest":10326,"itative":10327,"Ġjson":10328,"ĠLabour":10329,"ĠSky":10330,"Play":10331,"inth":10332,"mont":10333,"uality":10334,"BM":10335,"ĠObama":10336,"Ġsole":10337,"Ġjump":10338,"Click":10339,"quest":10340,"ĠBab":10341,"ownt":10342,"annotation":10343,"Ġchallenges":10344,"stood":10345,"ĠStone":10346,"ĠAmong":10347,"ĠIndeed":10348,"Ġweights":10349,"Ġconsole":10350,"FFFF":10351,"Ġenabled":10352,"craft":10353,"FAULT":10354,"ĠFac":10355,"Å«":10356,"=\"/":10357,"Meta":10358,"Ġsettled":10359,"Ġpilot":10360,"Ġidentical":10361,"CM":10362,"ĠKitt":10363,"ymfony":10364,"Pool":10365,"ĠRecord":10366,"North":10367,"odox":10368,"Ġsoci":10369,"Ġstrip":10370,"ĠObserv":10371,"Ġcovering":10372,"Ġequilibrium":10373,"Ġtrains":10374,"Bas":10375,"Ġhotel":10376,"Ġsale":10377,"END":10378,"Ġsatisfying":10379,"screen":10380,"yg":10381,"Ġcontrad":10382,"plot":10383,"Ġbos":10384,"wich":10385,"ĠError":10386,"ĠColomb":10387,"Ġhear":10388,"Ġdire":10389,"Ġentropy":10390,"ĠBan":10391,"aza":10392,"ĠAge":10393,"exists":10394,"email":10395,"Icon":10396,"Ġhomes":10397,"Bel":10398,"Ġscenes":10399,"Const":10400,"Ġsons":10401,"Ġfolk":10402,"oa":10403,"ariance":10404,"ĠDue":10405,"Ġsell":10406,"ĠSenior":10407,"Ġbroke":10408,"sequently":10409,"Ġproducing":10410,"Ġlegislation":10411,"ĠTurkish":10412,"ĠBurn":10413,"vs":10414,"ĠBrian":10415,"Ep":10416,"ĠSound":10417,"cb":10418,"lad":10419,"closed":10420,"ublin":10421,"Mock":10422,"Ġattached":10423,"icular":10424,"Boolean":10425,"Ġbiggest":10426,"each":10427,"ĠEmperor":10428,"care":10429,"Final":10430,"Ġequality":10431,"ĠJordan":10432,"uts":10433,"Ġanimal":10434,"ĠInfantry":10435,"padding":10436,"ĠCommunic":10437,"Render":10438,"ĠQueensland":10439,"Ġresponsibility":10440,"ĠDiego":10441,"ITY":10442,"!!":10443,"Ġfaced":10444,"ĠGib":10445,"Plot":10446,"1890":10447,"iami":10448,"vature":10449,"ĠHans":10450,"005":10451,"virtual":10452,"sql":10453,"Conn":10454,"ancell":10455,"Ġwants":10456,"Rule":10457,"?:":10458,"ĠSix":10459,"Australian":10460,"Ġlinked":10461,"ĠWy":10462,"parison":10463,"$_{":10464,"Ġpainter":10465,"Ġped":10466,",{\\":10467,"Î±":10468,"Ġworldwide":10469,"Ġpersons":10470,"longrightarrow":10471,"Obj":10472,"^*$":10473,"agu":10474,"ĠRoy":10475,"callback":10476,"dict":10477,"Ġconvex":10478,"complete":10479,"Ġdro":10480,"Custom":10481,"1905":10482,"plicated":10483,"tor":10484,"parameters":10485,"Ġevaluate":10486,"Ġcollaboration":10487,"Ġcruc":10488,"Most":10489,"ĠKy":10490,"ourier":10491,"king":10492,"original":10493,"ĠChile":10494,"AGE":10495,"ĠAlabama":10496,"Ġmusician":10497,"ĠAssoci":10498,"}\\,\\":10499,"dam":10500,"oust":10501,"Byte":10502,"recated":10503,"radius":10504,"incess":10505,"ACT":10506,"ĠHoward":10507,"ĠJam":10508,"ACE":10509,"security":10510,"Tests":10511,"Ġsomewhat":10512,"ĠManchester":10513,"Ġuniversal":10514,"ĠÄ":10515,"ĠInn":10516,"Ġvision":10517,"ymmetry":10518,":}":10519,"Ġ<=":10520,"ĠDark":10521,"friend":10522,"Ġthank":10523,"Ġdrums":10524,"Active":10525,"ubble":10526,"bean":10527,"none":10528,"Ġcoaches":10529,"inian":10530,"NC":10531,"Ġregarded":10532,"Ġdependent":10533,"ĠTen":10534,"ĠRegional":10535,"Ġcanonical":10536,">\\":10537,"Delete":10538,"ĠMarc":10539,"spirit":10540,"ĠRest":10541,"ĠNever":10542,"issippi":10543,"Ġconcluded":10544,"Many":10545,"ateur":10546,"dfrac":10547,"FS":10548,"Ġjoining":10549,"Network":10550,"Ġflows":10551,"Ġstages":10552,"ĠDoctor":10553,"ourse":10554,"Ġdownload":10555,"ĠHop":10556,"HC":10557,"Ġpractices":10558,"Ġcatalog":10559,"Ġcharacteristics":10560,"rait":10561,"ĠGrant":10562,"ĠSD":10563,"Ġexcess":10564,"Ġsequences":10565,"network":10566,"Ġeye":10567,"Ġkeys":10568,"Ġpasses":10569,"Ġbench":10570,"ĠOnce":10571,"ĠJSON":10572,"ĠTokyo":10573,"Another":10574,"Ang":10575,"Ġ(,":10576,"Ġhop":10577,"1909":10578,"ĠVersion":10579,"Ġquark":10580,"Ġopportunities":10581,"ĠZh":10582,"atz":10583,"Ġbreaking":10584,"Ġdirectors":10585,"Ġheavily":10586,"ĠEc":10587,"ĠWalter":10588,"130":10589,"Ġresistance":10590,"Ġinfer":10591,"Ġ(),":10592,"lyph":10593,"ĠassertEquals":10594,"ĠCA":10595,"FM":10596,"burn":10597,"Ġlay":10598,"Match":10599,"ĠDeb":10600,"Ġcenturies":10601,"Ġweather":10602,"Ġcharts":10603,"Ġdimensional":10604,"ĠDick":10605,"profile":10606,"words":10607,"agg":10608,"Ġprepared":10609,"ĠAND":10610,"ĠAllen":10611,"ulating":10612,"Ġcosm":10613,"GN":10614,"Ġhistorian":10615,"ista":10616,"ĠMedicine":10617,"ĠParam":10618,"eeper":10619,"1907":10620,"ĠSquadron":10621,"ĠReb":10622,"Ġmanifold":10623,"ĠBeng":10624,";<":10625,"IE":10626,"ĠOtt":10627,"Ġcryst":10628,"connection":10629,"insert":10630,"Dialog":10631,"ĠSoft":10632,"ĠCook":10633,"ĠNorwegian":10634,"ocker":10635,"Jo":10636,"Ġhumans":10637,"Ġlyrics":10638,"elson":10639,"1906":10640,"important":10641,"Ġsatisfied":10642,"Ġ\\]":10643,"attribute":10644,"ĠEarl":10645,"ĠSu":10646,"ĠTelevision":10647,"ptic":10648,"alian":10649,"Ġcausing":10650,";\\;\\":10651,"Äĥ":10652,"ĠEP":10653,"Ġfan":10654,"aked":10655,"ulse":10656,"ĠBureau":10657,"exception":10658,"Ġenemy":10659,"Ġsand":10660,"Inv":10661,"aro":10662,"Ġmarg":10663,"Ġadapted":10664,"Ġversus":10665,"creen":10666,"Ġenergies":10667,"\\}$.":10668,"Ġretirement":10669,"ĠEric":10670,"ĠPope":10671,"Ġmsg":10672,"condition":10673,"ĠNev":10674,"700":10675,"home":10676,"ĠNav":10677,"enia":10678,",\\\\":10679,"ĠDir":10680,"Ġrelationships":10681,"Ġstatements":10682,"Ġessentially":10683,"Ġcold":10684,"icide":10685,"ĠAfghan":10686,"ĠPatrick":10687,"Ġdens":10688,"Ġdeploy":10689,"Ġcolour":10690,"ativ":10691,"Ġluminos":10692,"Ã©t":10693,"Ġcommut":10694,"Ġshortly":10695,"ĠUser":10696,"Ġaccounts":10697,"ĠBra":10698,"ĠBillboard":10699,"ĠBush":10700,"Ġoffices":10701,"Ġsituated":10702,"never":10703,"cmd":10704,"posing":10705,"jpg":10706,"total":10707,"}})":10708,"Ġderivative":10709,"Ġconform":10710,"oni":10711,"apshot":10712,"Ġphoton":10713,"disambiguation":10714,"mn":10715,"venture":10716,";/":10717,"Ġrenew":10718,"role":10719,"ĠCare":10720,"Ġraw":10721,"ĠResult":10722,"Ġuniverse":10723,"oda":10724,"Ġelim":10725,"Ġfranch":10726,"Ġspeak":10727,"Ġresearchers":10728,"Ġspan":10729,"Ġfilled":10730,"Ġfounding":10731,"Bit":10732,"essions":10733,"ĠSche":10734,"Ġattorney":10735,"Ġreaching":10736,"ĠCond":10737,"ĠControl":10738,"Ġchapter":10739,"ĠMand":10740,"imit":10741,"Ġfought":10742,"Ġmaintained":10743,"Ġexecuted":10744,"Ġvoted":10745,"aired":10746,"chor":10747,"ĠImp":10748,"Ġverify":10749,"ĠSquare":10750,"Ġinfluenced":10751,"Ġprotein":10752,"ĠNFL":10753,"Ġmental":10754,"\")]":10755,"ĠGram":10756,"Ġestablishment":10757,"Ġchurches":10758,"ĠInstead":10759,"Ġinstances":10760,"Ġdebate":10761,"ĠNAS":10762,"argument":10763,"angers":10764,"ĠNOT":10765,"SET":10766,"Ġattacked":10767,"ĠMarine":10768,"__(":10769,"igious":10770,"ĠSn":10771,"Ġphone":10772,"ĠHeart":10773,"ĠDream":10774,"Ġconcerned":10775,"ĠOklahoma":10776,"algebra":10777,"Widget":10778,"Scope":10779,"Ġban":10780,"ropic":10781,"merce":10782,"inces":10783,"ĠCopy":10784,"$&":10785,"cing":10786,"margin":10787,"ĠTask":10788,"Show":10789,"Ġfoundation":10790,"ĠFriday":10791,"properties":10792,"Ġprev":10793,"ĠThird":10794,"Ġstrike":10795,"ĠStart":10796,"ĠNich":10797,"Ġliterary":10798,"iary":10799,"Î¿":10800,"ĠGab":10801,"Ġdream":10802,"Ġsupposed":10803,"Ġchose":10804,"ODO":10805,"ĠMarket":10806,"Ġdates":10807,"ea":10808,"Job":10809,"ancel":10810,"Rest":10811,"Ã¥":10812,"dropdown":10813,"Television":10814,"Ġencounter":10815,"Ġnecessarily":10816,"ĠDu":10817,"Ġbias":10818,"ardo":10819,"ĠJava":10820,"ĠFa":10821,"ĠBu":10822,"GO":10823,"illed":10824,"adoop":10825,"owski":10826,"SSERT":10827,"ĠSM":10828,"lesssim":10829,"erior":10830,"enses":10831,"Ġautomatically":10832,"uscript":10833,"ortion":10834,"oths":10835,"ĠBor":10836,"Ġaged":10837,"Ġhair":10838,"prise":10839,"Born":10840,"Ġtemple":10841,"Ġglob":10842,"ikh":10843,"aware":10844,"]$.":10845,"late":10846,"Ġinverse":10847,"ĠDun":10848,"ĠSC":10849,"ieval":10850,"ĠCop":10851,"Ġstrings":10852,"Ġ(*":10853,"Ġencoding":10854,"avelength":10855,"ĠLu":10856,"rig":10857,"Ġparticipants":10858,"Ġmerged":10859,"Ġoperate":10860,"Ġdecisions":10861,"Ġneutral":10862,"ĠSilver":10863,"Ġconservation":10864,"hab":10865,"kov":10866,"endor":10867,"istence":10868,"ĠConnecticut":10869,"isen":10870,"special":10871,"ĠCommonwealth":10872,"Ġtherap":10873,"Ġjourney":10874,"ĠLore":10875,"Ġrejected":10876,"\\)":10877,"Ġstanding":10878,"Ġdict":10879,"iota":10880,"Ġroof":10881,"etal":10882,"ĠURL":10883,"Ġcontrols":10884,"Ġwallet":10885,"putation":10886,"Ġgar":10887,"Ġperspective":10888,"sa":10889,"Ġexperienced":10890,"para":10891,"antasy":10892,"plus":10893,"Storage":10894,"Changed":10895,"cref":10896,"ĠHollywood":10897,"Ġkil":10898,"})}":10899,"Ġcommunic":10900,"ĠSign":10901,"Ġtab":10902,"Ġimmediate":10903,"Ġdecomposition":10904,"regular":10905,"tfrac":10906,"}[\\":10907,"Star":10908,"1904":10909,"ĠMoon":10910,"CTION":10911,"XT":10912,"Ġexperiences":10913,"Family":10914,"ĠImm":10915,"fire":10916,"Ġdrum":10917,"Ġjazz":10918,"Ġfear":10919,"overty":10920,"limit":10921,"Ġassumptions":10922,"arrier":10923,"Ġsizes":10924,"ĠRey":10925,"selected":10926,"Ġwonder":10927,"Channel":10928,"ĠHouston":10929,"Ġassembly":10930,"ĠDomin":10931,"ĠSpacew":10932,"tah":10933,"Ġcompletion":10934,"Ġengaged":10935,"Ġwarm":10936,"odge":10937,"Ġintensity":10938,"Black":10939,"orro":10940,"Ġrelax":10941,"}}_{\\":10942,"VM":10943,"article":10944,"ĠMoore":10945,"Sem":10946,"ĠDefense":10947,"Ġmes":10948,"Ġtopic":10949,"Ġscientists":10950,"ĠBulg":10951,"ĠWolf":10952,"password":10953,"was":10954,"ugu":10955,"Ġveter":10956,"omy":10957,"Ġkick":10958,"ellect":10959,"look":10960,"ctrine":10961,"Ġaccompl":10962,"ĠVari":10963,"Ġinvited":10964,"enny":10965,"ĠSpacewatch":10966,"Ġgraduate":10967,"bums":10968,"TED":10969,"ĠHarris":10970,"area":10971,"ĠStandard":10972,"Ġgene":10973,"ĠAnne":10974,"unsigned":10975,"ĠPa":10976,"upl":10977,"ĠChall":10978,"Ġestimation":10979,"Mc":10980,"RR":10981,"ĠJay":10982,"Ġgate":10983,"Ġvictims":10984,"Ġlake":10985,"odec":10986,"Ġles":10987,"anim":10988,"Phil":10989,"ĠHamp":10990,"Ġsingers":10991,"oves":10992,"ĠFunction":10993,"Ġaccused":10994,"straint":10995,"ĠPuerto":10996,"oyd":10997,"ĠSud":10998,"erset":10999,"Ġprecisely":11000,"Ġflex":11001,"paragraph":11002,"Ġeyes":11003,"ĠGall":11004,"eland":11005,"Ġradial":11006,"mal":11007,"avia":11008,"Ġtrivial":11009,"Ġdominated":11010,"Ġcharacterized":11011,"lat":11012,"/(":11013,"Package":11014,"iva":11015,"uzz":11016,"Ġcommissioned":11017,"acon":11018,"Ġguns":11019,"Transaction":11020,"ĠNext":11021,"idal":11022,"ĠMatt":11023,"Ġdismiss":11024,"Ġpurchase":11025,"Ġquantities":11026,"[$":11027,"Common":11028,"ĠDat":11029,"Ġroots":11030,"Ġrestricted":11031,"ĠLemmon":11032,"Ident":11033,"Ġparticipate":11034,"ĠGard":11035,"Ġproposal":11036,"smallskip":11037,"vals":11038,"bras":11039,"isd":11040,"rank":11041,"scious":11042,"\\\\\\\\\\\\\\\\\\\\\\\\\\\\\\\\\\\\\\\\\\\\\\\\\\\\\\\\\\\\\\\\":11043,"engine":11044,"Ġfluid":11045,"mathop":11046,"Extension":11047,"anny":11048,"Ġneighbour":11049,"Lo":11050,"entials":11051,"ĠAgency":11052,"ĠDisney":11053,"ĠDa":11054,"ĠNet":11055,"Ġsignals":11056,"Ġdiagonal":11057,"Ġopera":11058,"Ġmembership":11059,"ĠBattalion":11060,"=\"../../../":11061,"ĠGordon":11062,"Ġhun":11063,"ĠQuebec":11064,"Ġairport":11065,"Ġpatient":11066,"Ġpoetry":11067,"ĠNig":11068,"Account":11069,"Ġpractical":11070,"Ġrefuge":11071,"cpp":11072,"ĠCOVID":11073,"INS":11074,"ĠOak":11075,"ĠSin":11076,"Ġstored":11077,"Perm":11078,"zone":11079,"Ġancest":11080,"Ġpod":11081,"ĠNE":11082,"ĠRab":11083,"olished":11084,"Ġsentence":11085,"Ġinhabit":11086,"itals":11087,"ĠHarvard":11088,"Ġsuppor":11089,"ĠNaval":11090,"mock":11091,"ĠĠĠĠĠĠĠĠĠĠĠĠĠĠĠĠĠĠĠĠĠĠ":11092,"ĠHas":11093,"coq":11094,"Ġcompetitions":11095,"elihood":11096,"ĠArgentina":11097,"PAR":11098,"tiny":11099,"lay":11100,"Ġexpressions":11101,"Ġinvolves":11102,"Ġsurname":11103,"quant":11104,"ĠTemple":11105,"Oct":11106,"ifiers":11107,"Ġcomputing":11108,"Ġentertain":11109,"ĠAud":11110,"Ġlooks":11111,"ĠHawai":11112,"unately":11113,"]$,":11114,"@\"":11115,"slash":11116,"ECK":11117,"Ġinfrastructure":11118,"Ġcrossing":11119,"BP":11120,"Ġmort":11121,"Ġstudying":11122,"nn":11123,"Ġincorporated":11124,"ĠPhill":11125,"Ġgoods":11126,"Ġdisappe":11127,".*":11128,"ĠProduction":11129,"FILE":11130,"ĠHonor":11131,"Ġsubsid":11132,"Ġwarn":11133,"Ġhypothesis":11134,"ĠDouglas":11135,"ibraries":11136,"EXT":11137,"ishment":11138,"Ġcircuit":11139,"Education":11140,"ĠAnthony":11141,"))\\":11142,"[-":11143,"ulus":11144,"brace":11145,"eval":11146,"allas":11147,"ĠHotel":11148,"ĠBrun":11149,"alyt":11150,"ĠPath":11151,"})=":11152,"hered":11153,"Ġvideos":11154,"Ġwire":11155,"Ġaired":11156,"Ġdominant":11157,"rik":11158,"Ġdialog":11159,"ĠLiberal":11160,"ĠYouth":11161,"vart":11162,"ĠBuck":11163,"1901":11164,"ĠNik":11165,"refect":11166,"Ġsurg":11167,"Ġdb":11168,"'d":11169,"Ġchair":11170,"ĠSwiss":11171,"Ġconfidence":11172,"Cr":11173,"Ġdeput":11174,"ĠFinn":11175,"olo":11176,")}_":11177,"Graph":11178,"ĠFer":11179,"Ġremote":11180,"Ġthinking":11181,"Ġagencies":11182,"ographical":11183,"]{\\":11184,"Ġspr":11185,"Ġduration":11186,"will":11187,"resp":11188,"1903":11189,"inline":11190,"uning":11191,"isson":11192,"attery":11193,"ĠPas":11194,"ĠAM":11195,"Ġdatasets":11196,"Ġvo":11197,"Ġextreme":11198,"porting":11199,"otte":11200,"Sched":11201,"ĠIndex":11202,"Ġmultip":11203,"ĠMississippi":11204,"thread":11205,"Ġcapable":11206,"Ġexit":11207,"Ġgravity":11208,"abet":11209,"ĠMrs":11210,"Ġstores":11211,"Ġsky":11212,"Ġrequests":11213,"Ġprompt":11214,"Ġlib":11215,"Ġquantity":11216,"represent":11217,"Ġbutton":11218,"ĠWhit":11219,"manager":11220,"Generic":11221,"Ġpublisher":11222,"Ġruled":11223,"ĠDetroit":11224,"Ġderive":11225,"items":11226,"fol":11227,"Ġpublications":11228,"Ġlit":11229,"Init":11230,"Ġduty":11231,"DT":11232,"Ġdelivered":11233,"Ġpione":11234,"abad":11235,"=\"\">":11236,"Ġclassic":11237,"oses":11238,"Ġseparation":11239,"ï¼":11240,"})^":11241,"emptyset":11242,"Ġceremony":11243,"ĠDeath":11244,"player":11245,"Ġconsisted":11246,"Ġmart":11247,"ĠFM":11248,"game":11249,"ĠLINE":11250,"1902":11251,"Ġphotograph":11252,"Ġ$,":11253,"ĠDur":11254,"hentication":11255,"ĠAppendix":11256,"ĠFacebook":11257,"ĠOrth":11258,"Ġtennis":11259,"ibilities":11260,"Ġpopulations":11261,"dated":11262,"Ġteachers":11263,"ĠNCAA":11264,"Indian":11265,"Ġmetres":11266,"ĠCroat":11267,"Ġmoves":11268,"Cond":11269,"Ġassistance":11270,"ĠFalse":11271,"who":11272,"Notable":11273,"Ġlaid":11274,"ounsel":11275,"Ġdemonstrated":11276,"LOG":11277,"ĠCulture":11278,"Ġcloser":11279,"eron":11280,"ĠIR":11281,"Ñı":11282,"Ġsportspeople":11283,"addr":11284,"chell":11285,"ĠWindows":11286,"Ġstopped":11287,"TEST":11288,"Ġusage":11289,"Ġcourts":11290,"Ġunderstood":11291,"ĠLouisiana":11292,"Lock":11293,"trivial":11294,"cam":11295,")))":11296,"Ġmaxim":11297,"Security":11298,"Ġsecure":11299,"isting":11300,"Ġshut":11301,"ĠSaf":11302,"Ġproduces":11303,"ĠTreat":11304,"algorithm":11305,"Ġreplacing":11306,"ĠPerson":11307,"overs":11308,"GR":11309,"Ġkid":11310,"GM":11311,"ĠArg":11312,"ĠKam":11313,"ĠCemetery":11314,"aron":11315,"ĠUnit":11316,"abric":11317,"argo":11318,"gressive":11319,"Ġdisestabl":11320,"Ġtranslated":11321,"Ġstret":11322,"Ġjavax":11323,"Mich":11324,"Ġclassified":11325,"1880":11326,"esides":11327,"Ġfiled":11328,"Ġappearing":11329,"Ġlayout":11330,"ĠDak":11331,"Ġassault":11332,"ĠGiven":11333,"ĠPortuguese":11334,"Fix":11335,"Queue":11336,"Ġdiam":11337,"IST":11338,"aturally":11339,"Ġhappens":11340,"Rober":11341,"Given":11342,"Ġmaximal":11343,"ĉĉĉĊ":11344,"owntown":11345,"scroll":11346,"Ġbed":11347,"Ġlegend":11348,"ximate":11349,"Ġfrag":11350,"Ġidx":11351,"David":11352,"orient":11353,"^{*":11354,"Ġinjured":11355,"ĠGuide":11356,"Home":11357,"Ġcontribute":11358,"Vill":11359,"}}.":11360,"ĠHeritage":11361,"ĠEu":11362,"dp":11363,"ĠBry":11364,"ĠTaiwan":11365,"Ġdefines":11366,"Ġwish":11367,"ĠĠĠĠĠĠĠĠĠĠĠĠĠĠĠĠĠĠĠĠĠĠĠĠĠĠĠĠĠ":11368,"Proof":11369,"there":11370,"aste":11371,"ĠKer":11372,"Ġ{$":11373,"->_":11374,"Football":11375,"layer":11376,"ONE":11377,"Ġhappy":11378,"Ġkeyboard":11379,"help":11380,"Ġdisplayed":11381,"Ġhtml":11382,"enz":11383,"Ġarmed":11384,"Ġconcentration":11385,"Ã´":11386,"Ġdestr":11387,"children":11388,"ulator":11389,"Ġflo":11390,"Ġclar":11391,"Ġsteel":11392,"ĠPrix":11393,"asters":11394,"Ġexplos":11395,"Ġdense":11396,"ĠPed":11397,"NG":11398,"MAX":11399,"Ġcomic":11400,"Ġbringing":11401,"Ġbuy":11402,"ibration":11403,"Ġwel":11404,"Ġnotion":11405,"Ġincreasingly":11406,"acts":11407,"Li":11408,"Ġdrivers":11409,"Ġpredictions":11410,"iration":11411,"Ġdriven":11412,"estyle":11413,"ĠRub":11414,"Ġexplore":11415,"KEY":11416,"uda":11417,"Ġneither":11418,"ĠTerrit":11419,"Ġmedicine":11420,"Ġtack":11421,"pay":11422,"Ġastr":11423,"ARY":11424,"Ġfn":11425,"Ġsubjects":11426,"Ġcompr":11427,"JECT":11428,"Ġintermediate":11429,"FR":11430,"Ġcertainly":11431,"Ġimprovement":11432,"ĠMatthe":11433,"ĠArchitect":11434,"Ġneural":11435,"ĠSel":11436,"Ġmoments":11437,"prob":11438,"Ġpaintings":11439,"Ġintent":11440,"Ġdiscovery":11441,"profit":11442,"Ġrestrict":11443,"Send":11444,"[:":11445,"Ljava":11446,"larg":11447,"Ġpretty":11448,"iliar":11449,"ĠNob":11450,"have":11451,"ogether":11452,"rama":11453,"tenance":11454,"overy":11455,"Ġdecrease":11456,"gebras":11457,"Military":11458,"Ġmarkets":11459,"Ġmolecular":11460,"acht":11461,"Ġmoder":11462,"ieg":11463,"ĠDigital":11464,"fast":11465,"HR":11466,"Space":11467,"Ġoptional":11468,"Ġinaug":11469,"ĠAlber":11470,"Ġplate":11471,"Mal":11472,"ĠAntonio":11473,"$};":11474,"Ġcler":11475,"aire":11476,"ĠVillage":11477,"Ġcompre":11478,"Ġhy":11479,"Timeout":11480,"urrican":11481,"Ġkeeping":11482,"relation":11483,"zz":11484,"Ġrespective":11485,"Ġformally":11486,"avi":11487,"idges":11488,"Ġowners":11489,"Ġsecretary":11490,"Ġaccompan":11491,"uber":11492,"Ġ\"/":11493,"Ġabandoned":11494,"wen":11495,"Ġgone":11496,"schema":11497,"edding":11498,"Ġsoccer":11499,"Fin":11500,"Ġshares":11501,"Ġhits":11502,"intro":11503,"ĠWalker":11504,"Ġboundaries":11505,"Ġphilosophy":11506,"Ġhelping":11507,"ried":11508,"Ġstating":11509,"reduc":11510,"Descriptor":11511,"ĠAle":11512,"Ġviewed":11513,"Club":11514,"enezuel":11515,"Ġindices":11516,"Pe":11517,"Ġthin":11518,"Xi":11519,"ĠKaz":11520,"Ġblog":11521,"Ġmatters":11522,"Sn":11523,"ĠLam":11524,"DM":11525,"ĠSE":11526,"Ġuniversities":11527,"ĠFle":11528,"hist":11529,"Ġabuse":11530,"Ġreplacement":11531,"Europe":11532,"Ġrows":11533,"inburgh":11534,"audi":11535,"Ġcaught":11536,"icing":11537,"opter":11538,"ĠKo":11539,"NT":11540,"events":11541,"father":11542,"Ġcustomers":11543,"hadoop":11544,"mouth":11545,"ibl":11546,"-(":11547,"ĠMicrosoft":11548,"Ġtested":11549,"HP":11550,"Opt":11551,"Ġbelongs":11552,"Game":11553,"Works":11554,"how":11555,"ĠMiami":11556,"ĠIndonesia":11557,"Ġisomorphism":11558,"Ġ\"\"":11559,"Ġcurvature":11560,"ĠBelgium":11561,"imore":11562,"ĠLyn":11563,"Ġinstanceof":11564,"instein":11565,"bp":11566,"ochastic":11567,"changed":11568,"Ġhierarch":11569,"Grid":11570,"Ġwrites":11571,"leges":11572,"Ġtrail":11573,"Miss":11574,"bey":11575,"Ġaccommod":11576,"Ġtopological":11577,"Hence":11578,"Ġreign":11579,"Ġminute":11580,"protobuf":11581,"Ġ}{":11582,"Ġappeal":11583,"cycl":11584,"Protocol":11585,"ĠPlayer":11586,"Ġregularly":11587,"elegate":11588,"Ġcricket":11589,"heta":11590,"Ġcaref":11591,"ĠDVD":11592,"tsburgh":11593,"115":11594,"ĠDal":11595,"ĠBrigade":11596,"conduct":11597,"ĠAbd":11598,"porated":11599,"ĠImage":11600,"Ġliquid":11601,"ĠChampions":11602,"printf":11603,"Ġdisp":11604,"about":11605,"Ġconcer":11606,"Ġanth":11607,"Ġdemonstrate":11608,"ĠLink":11609,"Ġshooting":11610,"kw":11611,"Ġ({\\":11612,"=\"@":11613,"Ġmagnet":11614,"ĠPap":11615,"Ġredshift":11616,"Ġio":11617,"issance":11618,"ĠDefault":11619,"Ġorientation":11620,"105":11621,"Ġcolors":11622,"written":11623,"ĠTag":11624,"olid":11625,"via":11626,"ĠDenmark":11627,"txt":11628,"Ġmob":11629,"isations":11630,"TABLE":11631,"Ġdetermin":11632,"Flags":11633,"Ġboat":11634,"Ġstead":11635,"Ġrival":11636,"Ġbrown":11637,"ĠEag":11638,"ĠLanguage":11639,"Ġcorrections":11640,"Register":11641,"ĠEarly":11642,"Ġvacuum":11643,"Auth":11644,"Ġsevere":11645,"ĠBrazilian":11646,"}_{-":11647,"Ġsampling":11648,"Ġrapidly":11649,"square":11650,"ĠAmazon":11651,"issue":11652,"Ġsustain":11653,"ĠExpress":11654,"Spe":11655,"ĠÃĥ":11656,"Ġtall":11657,"ĠML":11658,"}$}":11659,"controller":11660,"ĠNag":11661,"Consider":11662,"(!":11663,"Ġexpos":11664,"ĠAlan":11665,"Ġguide":11666,"Ġinvalid":11667,"GBT":11668,"ĠSocorro":11669,"ĠLib":11670,"Ġperiods":11671,")&":11672,"incor":11673,"Ġinvasion":11674,"lon":11675,"orer":11676,"Ġentrance":11677,"ĠKa":11678,"Ġgeneralized":11679,"ĠBox":11680,"Ġspeaking":11681,"Ġfly":11682,"bits":11683,"Ġcompens":11684,"Ġdescribing":11685,"Ġdry":11686,"leveland":11687,"hensive":11688,"Editor":11689,"arith":11690,"editor":11691,"ĠBangl":11692,")--":11693,"ĠFall":11694,"ĠLINEAR":11695,"ĠFood":11696,"ders":11697,"ayan":11698,"GP":11699,"Ġwa":11700,"Ġdesigns":11701,"Ġpartially":11702,"ĠAS":11703,"irds":11704,"}}^{\\":11705,"Ġnonlinear":11706,"ĠBou":11707,"Ġcrowd":11708,"ugar":11709,"Ġful":11710,"Ġenhance":11711,"Ġclients":11712,"Ġinsurance":11713,"Ġrequested":11714,"Ġconfirm":11715,"oca":11716,"died":11717,"rift":11718,"ĠHug":11719,"Py":11720,"Ġoffering":11721,"ĠJuan":11722,"ĠStew":11723,"Ġfaster":11724,"iper":11725,"Ġgrounds":11726,"Ġhired":11727,"ICE":11728,"Ãł":11729,"move":11730,"inch":11731,"Ġcriteria":11732,"sumer":11733,"structure":11734,"Ġreasonable":11735,"impl":11736,"throws":11737,"Ġcorrection":11738,"AE":11739,"JSON":11740,"}~":11741,"Ġsud":11742,"apolis":11743,"ĠâĢł":11744,"Ġapi":11745,"Ġimpr":11746,"Ġthanks":11747,"Cam":11748,"ĠPlace":11749,"irtual":11750,"ĠDublin":11751,"account":11752,"ycl":11753,"ige":11754,"Ġbeautiful":11755,"Ġlisten":11756,"Ġcolspan":11757,"save":11758,"assador":11759,"Ġfragment":11760,"roc":11761,"lope":11762,"ĠHiggs":11763,"Ġinject":11764,"Ġdirections":11765,"Ġ).":11766,"ĠPortugal":11767,"Ġpercentage":11768,"Full":11769,"isition":11770,"ĠMayor":11771,"Ġethnic":11772,"rend":11773,"atherine":11774,"Ġanalyz":11775,"Ġcourses":11776,"Ġdx":11777,"ashi":11778,"Stand":11779,"ĠCow":11780,"UL":11781,"Ġscholars":11782,"Imp":11783,"Ġislands":11784,"Ġlob":11785,"Ġteen":11786,"Sur":11787,"Ġproportional":11788,"Ġgrade":11789,"Ġlosses":11790,"random":11791,"Ġvariations":11792,"publ":11793,"Mus":11794,"Ġprinciples":11795,"Ġconversion":11796,"Ð´":11797,"![":11798,"{|":11799,"egas":11800,"======":11801,"Ġoccas":11802,"structed":11803,"git":11804,"Ġhandler":11805,"\\}\\":11806,"medskip":11807,"rena":11808,"Ġasymptotic":11809,"Ġpointed":11810,"Ġblow":11811,"Ġdynamical":11812,"Begin":11813,"ĠKennedy":11814,"Plugin":11815,"ĠHills":11816,"named":11817,"ĠStudios":11818,"sample":11819,"Ġadmin":11820,"ĠIndependent":11821,"Ġbanks":11822,"repre":11823,"Ġassuming":11824,"nest":11825,"song":11826,"ĠCensus":11827,"jquery":11828,"ĠAdditionally":11829,"Ġcompete":11830,"Ġprovision":11831,"ĠChairman":11832,"Roman":11833,"oked":11834,"102":11835,"Ġng":11836,"uable":11837,"Ġrein":11838,"Ġ\\(\\":11839,"Float":11840,"redit":11841,"oom":11842,"]:":11843,"enter":11844,"Ġapplicable":11845,"Mer":11846,"Ġprohib":11847,"ĠImperial":11848,"\">&":11849,"lass":11850,"Ġcollapse":11851,"1898":11852,"ĠFrederick":11853,"140":11854,"ĠBlock":11855,"Ġcarrying":11856,"Files":11857,"Ġna":11858,"stats":11859,"observ":11860,"ĠKat":11861,"Ġbuilder":11862,"ĠOrchestra":11863,"ailand":11864,"ĠScient":11865,"Ġstreets":11866,"ĠFA":11867,"ĠMean":11868,"edit":11869,"Ġ}}":11870,"Ġcompilation":11871,"Ġspac":11872,"ĠLawrence":11873,"ĠUkrainian":11874,"Ġhearing":11875,"Ġcontroller":11876,"Ġanimated":11877,"Ġanniversary":11878,"ntax":11879,"Ġquasi":11880,"Ġcoupled":11881,"?\"":11882,"Ġscores":11883,"Ġhelps":11884,"wig":11885,"WR":11886,"rg":11887,"ctic":11888,"ĠRol":11889,"reprene":11890,"Items":11891,"Ġunus":11892,"pler":11893,"queue":11894,"Ġsubstantial":11895,"ĠNatural":11896,"Database":11897,"ĠDanish":11898,"ĠRyan":11899,"Term":11900,"single":11901,"letion":11902,"Ġembedding":11903,"orses":11904,"Ġpup":11905,"ĠNam":11906,"pository":11907,"Ġrequirement":11908,"Ġnations":11909,"Ġlocomot":11910,"ĠDeputy":11911,"Major":11912,"Ġimplements":11913,"Ġrear":11914,"Ġdisorder":11915,"Ġillustrated":11916,"redited":11917,"ĠMcK":11918,"intend":11919,"Ġrating":11920,"Ġconcrete":11921,"ĠCurrent":11922,"ĠLear":11923,"ĠBus":11924,"lu":11925,"Ġtargets":11926,"Ġmal":11927,"ĠMaur":11928,"Short":11929,"112":11930,"_->":11931,"Ġcenters":11932,"Global":11933,"iche":11934,"Ġfacilit":11935,"VERSION":11936,"finals":11937,"Ġlift":11938,"ĠWed":11939,"Ġcollections":11940,"Ġhorizontal":11941,"typed":11942,"ĠVin":11943,"Func":11944,"Ġmanuscript":11945,"islature":11946,"Ġmilit":11947,"Windows":11948,"Ġbacking":11949,"Ġhighway":11950,"ĠLieutenant":11951,"ĠVideo":11952,"Ġphases":11953,"ĠLaure":11954,"Ġseeing":11955,"STATE":11956,"Ġschedule":11957,"ĠOperation":11958,"Academ":11959,"ĠChen":11960,"Lemma":11961,"ĠNash":11962,"Ġsigns":11963,"Ġsensitive":11964,"BUG":11965,"Ġstadium":11966,"ĠSamuel":11967,"olving":11968,"ĠArkansas":11969,"ĠEver":11970,"primary":11971,"lg":11972,"ĠGirl":11973,"Ġadmitted":11974,"decl":11975,"HER":11976,"|}{":11977,"Ġlands":11978,"1899":11979,"ĠHistorical":11980,"Ġreconstruction":11981,"ĠEconomic":11982,"Seg":11983,"Ġcontrovers":11984,"Ġemployment":11985,"Ġacknowled":11986,"Ġchampions":11987,"cross":11988,"Ġreserve":11989,"ĠGeV":11990,"tk":11991,"Ġgather":11992,"Character":11993,"ĠBible":11994,"Ġfluctuations":11995,"ĠDead":11996,"through":11997,"negative":11998,"Ġconvention":11999,"arios":12000,"oving":12001,"Ġreads":12002,"sis":12003,"eget":12004,"dale":12005,"Ġclock":12006,"Ġtemporary":12007,"ĠPut":12008,"ĠReserve":12009,"typeof":12010,"ĠAP":12011,"Ġboost":12012,"keep":12013,"election":12014,"configuration":12015,"Ġfleet":12016,"east":12017,"ĠProt":12018,"Ġbranches":12019,"ĠMS":12020,"Ġsimilarly":12021,"ahn":12022,"Ġgravitational":12023,"scriptsize":12024,"ĠKevin":12025,"Logger":12026,"borough":12027,"Reception":12028,"Ġroutes":12029,"Ġindicating":12030,"Ġtwelve":12031,"IB":12032,"ĠGarden":12033,"OC":12034,"ĠRight":12035,"ĠPur":12036,"Former":12037,"Ġwat":12038,"Single":12039,"Ġfinishing":12040,"Ġinclusion":12041,"Ġpenalty":12042,"Ġconservative":12043,"ĠHockey":12044,"comb":12045,"Ġluminosity":12046,"Ġtight":12047,"ĠDave":12048,"ĠBuff":12049,"ĠMalaysia":12050,"Ġexport":12051,"aments":12052,"Ġpropose":12053,"RT":12054,"ĠLas":12055,"olly":12056,"ellectual":12057,"Ġapproximate":12058,"ĠKnow":12059,"Conf":12060,"Ġinduct":12061,"bara":12062,"Ġexplanation":12063,"plan":12064,"Ġkin":12065,"ository":12066,"Ġcastle":12067,"Paul":12068,"()));":12069,"Ġactresses":12070,"Ġgenerating":12071,"ĠPC":12072,"bridge":12073,"FE":12074,"volume":12075,"Ġhundreds":12076,"Ġassociate":12077,"Ġnavigation":12078,"ĠCommander":12079,"rev":12080,"aco":12081,"ĠLegislative":12082,"Ġpassenger":12083,"Ġinvent":12084,"Ġacid":12085,"chain":12086,"Ġtouchdown":12087,"Ġwindows":12088,"Ġarrival":12089,"oche":12090,"Ġmovies":12091,"Ġatoms":12092,"Print":12093,"Rich":12094,"ishops":12095,"Ġstrategies":12096,"scopic":12097,"Ġroads":12098,"Ġproperly":12099,")})":12100,"door":12101,"tool":12102,"ĠUr":12103,"ceptions":12104,"Ġjunior":12105,"ĠKelly":12106,"Ġsimultaneously":12107,"azines":12108,"ipped":12109,"James":12110,"ĠĠĠĠĠĠĠĠĠĠĠĠĠĠĠĠĠĠĠĠĠĠĠĠĠĠĠĠĠĠĠĠĠĠĠĠĠĠĠĠĠĠĠ":12111,"ĠEdinburgh":12112,"Ġtries":12113,"ĠPeace":12114,"Ġcircumstances":12115,"olph":12116,"}}}\\":12117,"Ġboys":12118,"Ġdog":12119,"heastern":12120,"Ġagricultural":12121,"Ġaccord":12122,"ĠTrade":12123,"ĠBowl":12124,"Ġvanish":12125,"ÃŃn":12126,"Ġpermission":12127,"=.":12128,"Ġpoverty":12129,"Expatriate":12130,"Ġresidence":12131,"Ġselling":12132,"Ġfired":12133,"ju":12134,"...,":12135,"aceae":12136,"Ġsupers":12137,"Ġip":12138,"Ġelectrons":12139,"ĠFern":12140,".__":12141,"Msg":12142,"Ġflu":12143,"Ġconventional":12144,"Ġsleep":12145,"cules":12146,"Ġresigned":12147,"Ġcrucial":12148,"Ġadaptation":12149,"contains":12150,"nik":12151,"Tube":12152,"quir":12153,"Ġfalls":12154,"Author":12155,"001":12156,"Summary":12157,"Ġdiagn":12158,"çļ":12159,"Ã«":12160,"pair":12161,"ixels":12162,"ilst":12163,"1870":12164,"Enum":12165,"Ġinhabitants":12166,"Har":12167,"Ġtropical":12168,"erion":12169,"Ġswe":12170,"month":12171,"Ġdepict":12172,"(){":12173,"rett":12174,"oi":12175,"iii":12176,"ĠÃī":12177,"Ġcorporate":12178,"Ġham":12179,"Ġnick":12180,"bmatrix":12181,"umps":12182,"ĠTs":12183,"Feature":12184,"assertEquals":12185,"Expr":12186,"Ġinstruments":12187,"Ġposted":12188,"ĠRound":12189,"Ġownership":12190,"March":12191,"Ġmining":12192,"Ġconfigurations":12193,"irms":12194,"ĠHum":12195,"Ġsignificance":12196,"comes":12197,"enian":12198,"SIZE":12199,")));":12200,"ĠSN":12201,"Ġfranchise":12202,"+(":12203,"phan":12204,"ĠSI":12205,"nil":12206,"ogonal":12207,"Ġillegal":12208,"Profile":12209,"Attr":12210,"ulner":12211,"bled":12212,"yll":12213,"Route":12214,"isot":12215,"Mount":12216,"ĠĠĠĠĠĠĠĠĠĠĠĠĠĠĠĠĠĠĠĠĠĠĠĠĠĠ":12217,"!\"":12218,"Internal":12219,"Ġpand":12220,"Total":12221,"ugs":12222,"ãĢ":12223,"omas":12224,"Ġforming":12225,"Ġanom":12226,"ĠTit":12227,"ĠHerm":12228,"ĠCapital":12229,"Ġexped":12230,"Ġmine":12231,"Ġfunc":12232,"ĠAlliance":12233,"Ġevening":12234,"Ġawait":12235,"Pay":12236,"logger":12237,"Ġjudges":12238,"1895":12239,"ĠChamber":12240,"anian":12241,"din":12242,"!\\":12243,"tar":12244,"Ġster":12245,"Ġassets":12246,"Ġcited":12247,"117":12248,"PD":12249,"ĠBart":12250,"Loader":12251,"ĠPalace":12252,"isode":12253,"Ġwaters":12254,"Den":12255,"Own":12256,"cussion":12257,"ĠTwitter":12258,"ĠMcG":12259,"ĠMonte":12260,"manif":12261,"ĠSite":12262,"ificial":12263,"Ġdepos":12264,"olas":12265,"111":12266,"Ġrecommended":12267,"Ġisolated":12268,"ĠFinland":12269,"ĠPear":12270,"components":12271,"Ġmyth":12272,"Ä«":12273,"ĠBruce":12274,"Histor":12275,"ĠPi":12276,"ĠAgric":12277,"Ġpresents":12278,"Ġ,\\":12279,"}}=":12280,"isp":12281,"Ġarchae":12282,"1897":12283,"Ġemergency":12284,"million":12285,"ĠIron":12286,"ĠDNA":12287,"ĠContin":12288,"forming":12289,"^*\\":12290,"ipher":12291,"ĠTR":12292,"Ġanimation":12293,"Ġmidfield":12294,"ĠCommunist":12295,"Ġconcerning":12296,"Ġfib":12297,"Release":12298,"Ġspending":12299,"rangian":12300,"Ġlooked":12301,"ĠAtlanta":12302,"ĠDaily":12303,"functions":12304,"Ġprefix":12305,"Ġdynasty":12306,"////////////////////////////////":12307,"Ġrent":12308,"1896":12309,"Phys":12310,"Ġprize":12311,"aset":12312,"ĠSeattle":12313,"iah":12314,"ĠProcess":12315,"ĠEmer":12316,"iser":12317,"Ġsinging":12318,"Ġfeedback":12319,"Ġearliest":12320,"Ġengines":12321,"Selector":12322,"()).":12323,"ĠPM":12324,"ĠJudge":12325,"Ġwavelength":12326,"vect":12327,"generated":12328,"çļĦ":12329,"ĠExp":12330,"Ġvoters":12331,"shal":12332,"apl":12333,"Flor":12334,"ĠLanc":12335,"away":12336,"ĠVolume":12337,"August":12338,"Edit":12339,"vartheta":12340,"Ġdrugs":12341,"esis":12342,"triangle":12343,"connected":12344,"Matrix":12345,"itudes":12346,"ournament":12347,"NULL":12348,"Just":12349,"Ġdiverse":12350,";\"|":12351,"FIG":12352,"lied":12353,"UID":12354,"Ġcref":12355,"Symbol":12356,"Ġtank":12357,"Ġequipped":12358,"Ġrecordings":12359,"states":12360,"1860":12361,"Ġcolonial":12362,"Double":12363,"icking":12364,"NotNull":12365,"ĠFarm":12366,"sea":12367,"uki":12368,"PM":12369,"ĠTraining":12370,"ĠWard":12371,"Ġvariance":12372,"ĠMission":12373,"usalem":12374,"ĠBO":12375,"shop":12376,"Ġperiodic":12377,"Ġevaluated":12378,"Ġsurfaces":12379,"Ġbirds":12380,"Ġadvice":12381,"Ġisot":12382,"Ġclosure":12383,"^{(\\":12384,"ordinate":12385,"Ġflying":12386,"ĠDean":12387,"ĠReform":12388,"ĠAuthority":12389,"\\}$,":12390,"113":12391,"Ġcreative":12392,"Ġ%}":12393,"ĠConvention":12394,"Ġsaved":12395,"Ġproducers":12396,"ĠPeters":12397,"ookie":12398,"Ġedited":12399,"Ġsymbols":12400,"ById":12401,"Ġmarketing":12402,"osed":12403,"overning":12404,"_,":12405,"emen":12406,"Buildings":12407,"Activity":12408,"ĠGon":12409,"XML":12410,"Ð²":12411,"inher":12412,"ĠTO":12413,"ĠArticle":12414,"Ġperturbation":12415,"Ġjurisd":12416,"ĠFried":12417,"expr":12418,"ĠAustin":12419,"Category":12420,"SQL":12421,"wave":12422,"ĠSingh":12423,"Ġdefinitions":12424,"Ġvarying":12425,"Ġgovernments":12426,"EV":12427,"Fore":12428,"Ġterr":12429,"Ġgeometric":12430,"Ġhosts":12431,"ĠMorgan":12432,"ĠUpdate":12433,"dash":12434,"Ġflags":12435,"Ġpartners":12436,"Ġmetrics":12437,"Ġreduces":12438,"ĠJun":12439,"atever":12440,"formed":12441,"ĠAttorney":12442,"columnwidth":12443,"Ġmetall":12444,"ĠRot":12445,"Suppose":12446,"][]{":12447,"vi":12448,"Ġtel":12449,"slant":12450,"ogy":12451,"ĠSeason":12452,"etary":12453,"Est":12454,"Ġbtn":12455,"Ġstood":12456,"Ġmanufacturing":12457,"&&\\":12458,"istol":12459,"Official":12460,"Ġfee":12461,"Ġaccompanied":12462,"asm":12463,"Div":12464,"Ins":12465,"ĠSyria":12466,"Ġimpossible":12467,"San":12468,"ounced":12469,"Ġraid":12470,"Ġseeking":12471,"Hom":12472,"Ġordinary":12473,"Ġstrictly":12474,"ĠØ":12475,"Proxy":12476,"ĠMonday":12477,"bach":12478,"switch":12479,"gi":12480,"sys":12481,"Ġcompatible":12482,"ilk":12483,"Ġ[];":12484,"iri":12485,"ĠAnna":12486,"Ġexhibit":12487,"Ġru":12488,"ĠOrthodox":12489,"lean":12490,"ĠTerm":12491,"ĠHu":12492,"Ġpolarization":12493,"ĠUtah":12494,"ĠAustrian":12495,"Ġsed":12496,"ĠCooper":12497,"Ġlandscape":12498,"Directory":12499,"Ġpotentially":12500,"Ġdashed":12501,"Ġpublishing":12502,"Ġtruck":12503,"ĠRick":12504,"Ġdebt":12505,"insic":12506,"ĠOption":12507,"ĠBeat":12508,"assertEqual":12509,"pto":12510,"Ġstronger":12511,"incorporated":12512,"Ġcancel":12513,"$}}":12514,"atorial":12515,"LR":12516,"ĠBull":12517,"Ġdestination":12518,"Ġcodes":12519,"orous":12520,"Ġdiscussions":12521,"mathit":12522,"Ġrepro":12523,"NavBarCell":12524,"orus":12525,"ĠSeveral":12526,"Ġbishop":12527,"ĠRussell":12528,"Ġsynchron":12529,"echo":12530,"some":12531,"Ġbinding":12532,"wild":12533,"Close":12534,"idency":12535,"ĠAlice":12536,"Songs":12537,"Auto":12538,"fail":12539,"spin":12540,"tmp":12541,"utf":12542,"114":12543,"Ġexcellent":12544,"unny":12545,"116":12546,"Ġmanip":12547,"erving":12548,"Ġter":12549,"Ġbits":12550,"Robert":12551,"Ġelem":12552,"Prior":12553,"Ġoperates":12554,"ĠCustom":12555,"Ġvast":12556,"Ġ---":12557,"aze":12558,"ĠThailand":12559,"ĠIss":12560,"Mac":12561,"horizontal":12562,"ĠResource":12563,"Ġcub":12564,"tools":12565,"Ġnormalized":12566,"Moreover":12567,"ĠMontreal":12568,"rupted":12569,"Ġprecision":12570,"versy":12571,"Attributes":12572,"Ġrecovery":12573,"Ġmo":12574,"Ġdrawing":12575,"upload":12576,"WN":12577,"ainties":12578,"Ġfrequencies":12579,"ĠCole":12580,"ducer":12581,"ĠRoger":12582,"Ġracial":12583,"Ġpriest":12584,"ĠCatal":12585,"Ġbreed":12586,"tha":12587,"mag":12588,"Ġentering":12589,"Ġcollision":12590,"Adapter":12591,"itely":12592,"Ġparticipation":12593,"Ġtalking":12594,"Ġsight":12595,"Coll":12596,"Ġgenerator":12597,"wt":12598,"Dest":12599,"sem":12600,"Ġoccupation":12601,"ĠFull":12602,"ynamics":12603,"Ġquot":12604,"ĠDocument":12605,"herical":12606,"ĠWright":12607,"Pal":12608,"ĠCR":12609,"Ġchoices":12610,"PER":12611,"MENT":12612,"Ġdescend":12613,"Ġsudden":12614,"Ġvariant":12615,"eo":12616,"Engine":12617,"series":12618,"asts":12619,"onymous":12620,"Ġworst":12621,"ĠRio":12622,"Ġurg":12623,"Ġprofiles":12624,"ĠTig":12625,"ĠNode":12626,"ĠMake":12627,"ĠMetropolitan":12628,"}|\\":12629,"Ġeigenvalues":12630,"aneous":12631,"ÅŁ":12632,"Ġrg":12633,"Ġresign":12634,"mean":12635,"ĠHit":12636,"mask":12637,"Ġvolumes":12638,"ĠConsider":12639,"Ġdiscipl":12640,"Ġcolle":12641,"users":12642,"Ġrevers":12643,"ursday":12644,"ĠAccess":12645,"ĠAT":12646,"iop":12647,"ĠAdams":12648,"Iterator":12649,"ĠApple":12650,"Ġnaturally":12651,"ĠPA":12652,"Ġongoing":12653,"tection":12654,"Cur":12655,"ĠSarah":12656,"Ġclinical":12657,"asa":12658,"casting":12659,"Ġconsiderable":12660,"Ġexercise":12661,"shadow":12662,"ovo":12663,"Ġabsorption":12664,"Ġpassengers":12665,"iginally":12666,"UD":12667,"clude":12668,"Book":12669,"uting":12670,"uon":12671,"ĠCS":12672,"Ġrooms":12673,"obi":12674,"Ġdip":12675,"external":12676,"Ġstyles":12677,"Sam":12678,"Ġpraised":12679,",'":12680,"flags":12681,"Ġfemin":12682,"Ġsurvived":12683,"ĠChem":12684,"ĠHampshire":12685,"finite":12686,"ĠPay":12687,"Ġidentification":12688,"Italian":12689,"Ġmovements":12690,"Ġdetector":12691,"dag":12692,"Ġprecise":12693,"Statement":12694,"++;":12695,"oly":12696,"utr":12697,"ĪĴ":12698,"ĠYears":12699,"Lin":12700,"Ġannounce":12701,"oustic":12702,"ĠKings":12703,"Russian":12704,"ĠOrganization":12705,"ĠMPs":12706,"ĠFather":12707,"ĠSenator":12708,"~(\\":12709,"ĠMargaret":12710,"Japanese":12711,"ĠPublishing":12712,"ĠBetween":12713,"ickets":12714,"ĠWelsh":12715,"Ġdenied":12716,"ĠTar":12717,"ĠCP":12718,"Ġseventh":12719,"ĠWorks":12720,"stackrel":12721,"moment":12722,"Ġconjug":12723,"Ġdial":12724,"apply":12725,"Ġenv":12726,"Ġlogic":12727,"itarian":12728,"ĠGulf":12729,"uble":12730,"1893":12731,"ĠDemocrats":12732,"unique":12733,"ĠThompson":12734,"Ġdeputy":12735,"Ġwaiting":12736,"imits":12737,"ĠWon":12738,"ĠAlfred":12739,"Ġrealized":12740,"Mapping":12741,"Ġsystematic":12742,"olves":12743,"ircles":12744,"ĠUrb":12745,"Ġcriticism":12746,"Ġsin":12747,"1889":12748,"Ġsphere":12749,"ugosl":12750,"Ġensemble":12751,"SER":12752,"invariant":12753,"ĠDallas":12754,"Ġsnow":12755,"Ġapproval":12756,"ĠSimilarly":12757,"Ġheads":12758,"inea":12759,"utable":12760,"apsed":12761,"ĠVenezuel":12762,"Ġdecide":12763,"figures":12764,"Ġschemes":12765,"hidden":12766,"Ġtang":12767,"Ġinfl":12768,"ÑĮ":12769,"Ham":12770,"ĠMarshall":12771,"Ġnearest":12772,"Ġequivalence":12773,"Ġlose":12774,"################":12775,"ĠLead":12776,"phase":12777,"Ġalcoh":12778,"Ġranges":12779,"103":12780,"nesday":12781,"expect":12782,"equations":12783,"Ġrestored":12784,"amps":12785,"Ġsatellite":12786,"Ġresolve":12787,"Ġatomic":12788,"ĠThough":12789,"iterator":12790,"parallel":12791,"June":12792,"Ġstructural":12793,"ĠCrown":12794,"fortunately":12795,"hus":12796,"Ġpub":12797,"ĠWoman":12798,"Ð¼":12799,"ĠGil":12800,"Day":12801,"ĠDance":12802,"Ġvoting":12803,"Ġcrimes":12804,"Ġskin":12805,"separ":12806,"ĠComics":12807,"ÏĦ":12808,"=\"\"":12809,"Ġconstituency":12810,"trigger":12811,"Ġelementary":12812,"Memory":12813,"Ġbid":12814,"Ġdies":12815,"ĠChristopher":12816,"Ġdiameter":12817,"ĠFuture":12818,"ĠBlo":12819,"alia":12820,"Ġjournalists":12821,"ĠNelson":12822,"Ġapprec":12823,"ĠVienna":12824,"Ġmit":12825,"ĠMes":12826,"ĠBoys":12827,"Ġelimin":12828,"Ġsees":12829,"ĠĠĠĠĠĠĠĠĠĠĠĠĠĠĠĠĠĠĠĠĠĠĠĠĠĠĠĠ":12830,"protected":12831,"Ġcontinuum":12832,"sects":12833,"bd":12834,"Ġbrowser":12835,"jamin":12836,"brand":12837,"Ġalgebraic":12838,"ĠCrit":12839,"hill":12840,"Ġleaf":12841,"Ġshel":12842,"Ġregulations":12843,"rin":12844,"Ġqueue":12845,"ĠLanka":12846,"COMP":12847,"trace":12848,"Ġpanels":12849,"Ġduties":12850,"Ġtheater":12851,"Ġaccum":12852,"Å¾":12853,"backslash":12854,"Ġtranslate":12855,"ĠAfghanistan":12856,"orted":12857,"Ġ(_":12858,"ĠHungary":12859,"romagnetic":12860,"Ġruling":12861,"Ġsuppose":12862,"Ġrestriction":12863,"Math":12864,"Ġinvestigated":12865,"dig":12866,"Ġdesigner":12867,"ĠFive":12868,"1892":12869,"anti":12870,"prec":12871,"avior":12872,"Ġsteam":12873,"tikzpicture":12874,")^\\":12875,"asp":12876,"Ã³w":12877,"SY":12878,"ĠLang":12879,"rolling":12880,"cline":12881,"enda":12882,"ĠRomania":12883,"Ġmodules":12884,"ĠPrior":12885,"Ġspoke":12886,"\"`":12887,"Ġspend":12888,"IPT":12889,"OF":12890,"ĠTrib":12891,"ĠProp":12892,"ĠIOException":12893,"Ġcraft":12894,"Scott":12895,"Ġretained":12896,"anÃ§":12897,"Ġsynd":12898,"ĠGirls":12899,"insula":12900,"cester":12901,"iverpool":12902,"ĠClinton":12903,"Constants":12904,"ĠCleveland":12905,"oming":12906,"Ġtopics":12907,"UC":12908,"ĠHash":12909,"Ġreverse":12910,"Ġpron":12911,"Ġrestaurant":12912,"bai":12913,"Ġrevenue":12914,"Ġnotably":12915,"Ġdivisions":12916,"ĠTH":12917,"ĠJerusalem":12918,"ĠKnight":12919,"depth":12920,"July":12921,"Ġdelivery":12922,"ĠTamil":12923,"ĠNeg":12924,"rf":12925,"ĠPhot":12926,"Ġdecline":12927,"Ġapplies":12928,"Ġvalley":12929,"ethe":12930,"ĠCentury":12931,"Ã©n":12932,"Ġremainder":12933,"ĠPittsburgh":12934,"Ġathletes":12935,"iere":12936,"Ġeasier":12937,"Ġmanage":12938,"STAT":12939,"Ġreception":12940,"ĠMagn":12941,"iliary":12942,"multirow":12943,"/.":12944,"ĠOpera":12945,"su":12946,"Ġ{{":12947,"Ġfaces":12948,"Ġteach":12949,"Details":12950,"ulum":12951,"ĠRugby":12952,"BN":12953,"umbent":12954,"bc":12955,"Ġcrash":12956,"Ġamounts":12957,"Ġimprison":12958,"Ġgrown":12959,"Ġsending":12960,"Ġtopology":12961,"Ġplease":12962,"Ġcreates":12963,"ĠTODO":12964,"ĠShah":12965,"mate":12966,"Real":12967,"Ġpayment":12968,"arus":12969,"ĠSchools":12970,"ĠCer":12971,"Ġarranged":12972,"ntil":12973,"ĠBrothers":12974,"ĠRace":12975,"may":12976,"Ġelli":12977,"Ġretail":12978,"eva":12979,"ographics":12980,"kee":12981,"Ġprisoners":12982,"viously":12983,"________":12984,"ĠStewart":12985,"Ġrunner":12986,"Ġdistinguished":12987,"ĠBed":12988,"bing":12989,"ertainties":12990,"Ġfindings":12991,"Ġturning":12992,"Ġreward":12993,"ted":12994,"UES":12995,"ĠSac":12996,"ĠDub":12997,"distance":12998,"reset":12999,"ĠShip":13000,"stage":13001,"Ġreducing":13002,"asma":13003,"åı":13004,"1894":13005,"uesday":13006,"Ġmys":13007,"IMP":13008,"Mr":13009,"ĠBangladesh":13010,"Ġok":13011,"ĠNic":13012,"fixed":13013,"Ġpublicly":13014,"ĠDakota":13015,"ĠRailroad":13016,"reement":13017,"counter":13018,"Ġelectro":13019,"specific":13020,"UTF":13021,"Ġdegener":13022,"notag":13023,"Ġgreatly":13024,"Ġsharing":13025,"evens":13026,"ĠFal":13027,"nol":13028,"Ġcontinuing":13029,"Ġpointer":13030,"City":13031,"ĠMong":13032,"JS":13033,"lab":13034,"Ġfacts":13035,"ULE":13036,"1891":13037,"Ġmarine":13038,"orton":13039,"rock":13040,"Multi":13041,"Ġdamaged":13042,"aten":13043,"Ġwithdraw":13044,"isons":13045,"illo":13046,"ToString":13047,"Ġorganisation":13048,"agnostic":13049,"Ġri":13050,"ĠSmall":13051,"ĠDeep":13052,"Ġstruck":13053,"ĠConfig":13054,"Ġgang":13055,"Ġconnecting":13056,"Ġparamet":13057,"ĠHell":13058,"ĠCarn":13059,"\\%$":13060,"Organ":13061,"MF":13062,"ĠHungarian":13063,"Medal":13064,"ĠJohann":13065,"Villages":13066,"pattern":13067,"Ġheritage":13068,"ummy":13069,"subsec":13070,"April":13071,"ĠCarter":13072,"ĠABC":13073,"anean":13074,"rose":13075,"ĠEff":13076,"enable":13077,"graduate":13078,"Ġplatforms":13079,"than":13080,"ĠBaltimore":13081,"Ġprices":13082,"Ġdir":13083,"hoen":13084,"Free":13085,"jecture":13086,"headers":13087,"Ġreporting":13088,"Ġhosp":13089,"&=&\\":13090,"Railway":13091,"Ġresidential":13092,"phantom":13093,"ĠMaine":13094,"ĠRico":13095,"Product":13096,"Keys":13097,"Ġcompetitive":13098,"Panel":13099,"ĠMovement":13100,"eenth":13101,"story":13102,"simple":13103,"aman":13104,"Ġtied":13105,"Ġpitch":13106,"Ġaffairs":13107,"Ġpopularity":13108,"protocol":13109,"gow":13110,"Success":13111,"ĠMarie":13112,"ĠLith":13113,"ĠSystems":13114,"Ġconfront":13115,"Ġsituations":13116,"getName":13117,"leans":13118,"ĠKu":13119,"1885":13120,"vironments":13121,":=\\":13122,"Ġdisabled":13123,"Ġsubt":13124,"ĠPun":13125,"Î¹":13126,"Ġpreserved":13127,"mel":13128,"bow":13129,"Ġwithd":13130,"ĠEss":13131,"Ġmeets":13132,"lements":13133,"mingham":13134,"Ġ×":13135,"Ġchildhood":13136,"both":13137,"Ġinputs":13138,"Ġfails":13139,"Ġactivist":13140,"oples":13141,"Ġanalytic":13142,"Ġtechnologies":13143,"Ġcomplicated":13144,"Ġaccessible":13145,"Ġfitting":13146,"Player":13147,".\");":13148,"imir":13149,"ĠOttoman":13150,"making":13151,"Ġ[[":13152,"104":13153,"handler":13154,"Bbb":13155,"Ben":13156,"Ġkids":13157,"@{":13158,"Ġaf":13159,"Ġprovider":13160,"kt":13161,"ignment":13162,"idx":13163,"PATH":13164,"Ġknock":13165,"video":13166,"isor":13167,"Ġcrown":13168,"Ġheaded":13169,"ĠFROM":13170,"Ġpars":13171,"Ġentertainment":13172,"Ġ_{\\":13173,"iat":13174,"three":13175,"Ġfruit":13176,"ĠConstant":13177,"Ġdivor":13178,"Ġpremiered":13179,"feature":13180,"urable":13181,"ĠHorn":13182,"Ġspecify":13183,"ĠMountains":13184,"Ġmeetings":13185,"Ġcyl":13186,"ymphony":13187,"Ġindependently":13188,"ĠMC":13189,"Ġranking":13190,"Ġrelief":13191,"Ms":13192,"izers":13193,"Java":13194,"ĠRap":13195,"reducible":13196,"Ġcontents":13197,"Len":13198,"Ġlocality":13199,"ĠFourier":13200,"Ġstochastic":13201,"Ġwarning":13202,"details":13203,"ĠNation":13204,"Ġnortheast":13205,"Place":13206,"IND":13207,"ĠInteger":13208,"Ãª":13209,"USE":13210,"=>":13211,"Layer":13212,"Generated":13213,"%%%%":13214,"Fail":13215,"Ġreserved":13216,"Ġcards":13217,"INSERT":13218,"Bur":13219,"Duration":13220,"ĠCopyright":13221,"Ġholes":13222,"typedef":13223,"ilty":13224,"miral":13225,"Profess":13226,"EP":13227,"ativistic":13228,"Ġrecur":13229,"Ġrailroad":13230,"ĠKon":13231,"Ġrecovered":13232,"du":13233,"Ġcash":13234,"Ġfitted":13235,"claimed":13236,"ĠChange":13237,"bone":13238,"Ġtransportation":13239,"Ġasync":13240,"ĠObl":13241,"Ġoverse":13242,"1888":13243,"ĠPolitical":13244,"ĠNewton":13245,"fare":13246,"ĠOri":13247,"Ġsegments":13248,"props":13249,"Ġpreferred":13250,"ĠDie":13251,"Ġorbital":13252,"October":13253,"ĠRy":13254,"bishop":13255,"January":13256,"Abstract":13257,"Ġvisitors":13258,"Ġworker":13259,"ido":13260,"throw":13261,"ĠVik":13262,"Ġatmosphere":13263,"Ġwheel":13264,"TF":13265,"Ġframes":13266,"pu":13267,"Runtime":13268,"Ġlens":13269,"Ġbehalf":13270,"Ġvalidation":13271,"ervoir":13272,"ĠLower":13273,"Overview":13274,"ĠPatri":13275,"ĠCampbell":13276,"Elements":13277,"Ġpsy":13278,"liminary":13279,"ĠChampion":13280,"ĠYouTube":13281,"verb":13282,"Ġelig":13283,"ĠFranklin":13284,"bus":13285,"ĠMorris":13286,"\\!\\":13287,"Ġgiant":13288,"ĠSoftware":13289,"Ġconsumer":13290,"Ġbear":13291,"Production":13292,"Symfony":13293,"refecture":13294,"Ġrepresentatives":13295,"Ga":13296,"density":13297,"Mag":13298,"Ġexposed":13299,"hattan":13300,"corollary":13301,"ĠSuppose":13302,"abi":13303,"ĠGray":13304,"ĠKl":13305,"brief":13306,"Ġhill":13307,"ĠPad":13308,"nia":13309,"iterr":13310,"Ġfamiliar":13311,"Ġattributed":13312,"ĠRetrieved":13313,"Ġconsideration":13314,"Eff":13315,"ials":13316,"Ġdistances":13317,"ĠCarib":13318,"lined":13319,"ĠKit":13320,"listed":13321,"Ġpm":13322,"ermi":13323,"Ġneighb":13324,"ĠBrooklyn":13325,"Ġstraightforward":13326,"Afr":13327,"ĠÂ§":13328,"Ġbelonging":13329,"Example":13330,"anion":13331,"ĠMetro":13332,"nan":13333,"owner":13334,"Ġpandemic":13335,"350":13336,"Ġcommunications":13337,"olut":13338,"ouver":13339,"Ñĭ":13340,"Ġintention":13341,"Ġpuls":13342,"Ke":13343,"IVE":13344,"Ġ$\\{\\":13345,"Ġproxy":13346,"Ġiteration":13347,"Pointer":13348,"alph":13349,"Donald":13350,"Ġcuts":13351,"OUT":13352,"ĠRud":13353,"(-\\":13354,"Ġtransverse":13355,"Ġmeters":13356,"Ġexpectation":13357,"uter":13358,"Ġreveals":13359,"Ġreq":13360,"aptist":13361,"folio":13362,"Ġdefensive":13363,"Ġneutrino":13364,"ĠLl":13365,"Browser":13366,"irates":13367,"ĠRic":13368,"Ġrenov":13369,"Rob":13370,"nm":13371,"Ġcollective":13372,"Ġbatch":13373,"Ġapparently":13374,"filename":13375,"ĠSR":13376,"parts":13377,"ruit":13378,"ĠMurray":13379,"platform":13380,"Ġmouth":13381,"Ġsoundtrack":13382,"Ġpole":13383,"oro":13384,"Ġempir":13385,"ANT":13386,"Ġpromise":13387,"Ġadults":13388,"ĠTol":13389,"Ġpregn":13390,"ĠArn":13391,"flat":13392,"ĠHend":13393,"ighters":13394,"'])":13395,"Ġmechanical":13396,"yy":13397,"Also":13398,"Political":13399,"leyball":13400,"ĠNigeria":13401,"September":13402,"Ġexposure":13403,"Ġgrass":13404,"onian":13405,"ĠJosÃ©":13406,"tabs":13407,"Ġcricketers":13408,"urers":13409,"Ġoffensive":13410,"Ã¨re":13411,"elfare":13412,"Ġsoil":13413,"builder":13414,"ĠPR":13415,"MOD":13416,"Variable":13417,"Ġaddresses":13418,"Ġformul":13419,"ĠAppe":13420,"ĠLeban":13421,"ÅĦ":13422,"job":13423,"GeV":13424,"Volume":13425,"Ġappointment":13426,"Ġdefining":13427,"Ġoutcome":13428,"Ġstruggle":13429,"ĠNazi":13430,"ITE":13431,"Role":13432,"hal":13433,"Ġdoubt":13434,"operator":13435,"sson":13436,"complex":13437,"Ġadvoc":13438,"tensor":13439,"Ġconcepts":13440,"ĠMembers":13441,"marks":13442,"mates":13443,"ĠGraham":13444,"Ġbom":13445,"Ġ=========":13446,"Tra":13447,"{%":13448,"âĢ¢":13449,"igate":13450,"ĠArena":13451,"Ġreaches":13452,"Ġsubmitted":13453,"ĠOrleans":13454,"Ġpref":13455,"ĠKarl":13456,"Ġ\",":13457,"Ġfest":13458,"127":13459,"Simple":13460,"Ġprovincial":13461,"ĠRefer":13462,"About":13463,"Arm":13464,"Ġappend":13465,"ĠOd":13466,"Ġrestrictions":13467,"Ġnewspapers":13468,"brane":13469,"wright":13470,"ĠAC":13471,"tery":13472,"andal":13473,"Ġexplains":13474,"inners":13475,"ĠLane":13476,"ĠRural":13477,"Ġmile":13478,"Ġrose":13479,"ĠProperty":13480,"NOT":13481,"iac":13482,"360":13483,"Ġcomed":13484,"Ġdensities":13485,"kens":13486,"Ġcelebrated":13487,"ĠNep":13488,"Ġpresentation":13489,"period":13490,"SN":13491,"Ġwounded":13492,"Ġtypeof":13493,"ĠCass":13494,"Ġaw":13495,"umed":13496,"Ġdepicted":13497,"|$":13498,"ĠSource":13499,"Ġreputation":13500,"Ġcriticized":13501,"gather":13502,"Ġdiversity":13503,"Ġfacing":13504,"Ġdating":13505,"Ġ>>":13506,"hai":13507,"Ġundert":13508,"Ġseemed":13509,"raig":13510,"ĠMother":13511,"ĠUpper":13512,"Ġrounds":13513,"Ġtunnel":13514,"ĠSaudi":13515,"Ġgay":13516,"ĠUpon":13517,"Ġsmart":13518,"Ġmodeling":13519,"verage":13520,"Ġsolving":13521,"=\"${":13522,"ĠRobinson":13523,"Ġfeeling":13524,"George":13525,"lee":13526,"Ġtransitions":13527,"Ġsigning":13528,"Sequ":13529,"|^{":13530,"Are":13531,"urricane":13532,"Ġcircular":13533,"Ġenforcement":13534,"ĠTan":13535,"Ġinstant":13536,"Ġquas":13537,"Green":13538,"design":13539,"Ġsumm":13540,"oba":13541,"ĠSearch":13542,"hfill":13543,"$\\,":13544,"annon":13545,"azy":13546,"Ġinvolvement":13547,"etition":13548,"bes":13549,"Ġsurgery":13550,"Cluster":13551,"Ġprocedures":13552,"ĠProm":13553,"1865":13554,"Ġaux":13555,"Failed":13556,"Ġaccret":13557,"$.}":13558,".\\\\":13559,"CHECK":13560,"Ġartistic":13561,"zerbai":13562,"rish":13563,"fx":13564,"Ġxmlns":13565,"Ġterminal":13566,"Ġfocuses":13567,"prefix":13568,"Ġmemorial":13569,"ĠLandroid":13570,"works":13571,"Ġsubmar":13572,"ĠOriginal":13573,"wp":13574,"Ġinterpreted":13575,"ĠĠčĊ":13576,"Ġbars":13577,"browser":13578,"Later":13579,"Ġdrag":13580,"Mart":13581,"Ġĉ":13582,"Ġ{'":13583,"avalry":13584,"Ġfavorite":13585,"Ġexpensive":13586,"tons":13587,"December":13588,"team":13589,"ĠBernard":13590,"ĠINTO":13591,"Ġvic":13592,"Î½":13593,"ĠBorn":13594,"Scroll":13595,"cycle":13596,"bytes":13597,"ailability":13598,"VP":13599,"Ġpassword":13600,"Ġignore":13601,"ĠGR":13602,"Ġmaintenance":13603,"href":13604,"Ġmetadata":13605,"Ġspiritual":13606,"Ġfold":13607,"heric":13608,"Ġlimitations":13609,"ivan":13610,"Ġdress":13611,"collapse":13612,"Because":13613,"Ġmechanisms":13614,"Ġcomparable":13615,"Ġweekend":13616,"Bound":13617,"Ġformulation":13618,"ĠMichel":13619,"ishments":13620,"Repository":13621,"particle":13622,"hibition":13623,"ADD":13624,"Scale":13625,"ĠTak":13626,"Ġderivatives":13627,"oviÄĩ":13628,"panic":13629,"Ġdistinguish":13630,"ĠâĢ¦":13631,"Ġ\"-":13632,"tc":13633,"iti":13634,"ĠLimited":13635,"ĠPrincess":13636,"LECT":13637,"terior":13638,"Ġtransparent":13639,"appoint":13640,"Ġintern":13641,"eto":13642,"ĠGill":13643,"VE":13644,"fam":13645,"ĠCos":13646,"Cho":13647,"Ġcounts":13648,"Ġuncertainties":13649,"ĠWrest":13650,"ĠMotor":13651,"Ġ\\,\\":13652,"appy":13653,"idad":13654,"Ġcod":13655,"ĠJason":13656,"Ġdomains":13657,"Ġdecreases":13658,"iph":13659,"Ġprivacy":13660,"igo":13661,"Ġsuccessor":13662,"ĠMadrid":13663,"Ġvenues":13664,"vc":13665,"cht":13666,"plings":13667,"Ġdesire":13668,"Ġinjuries":13669,"Ġweekly":13670,"Mill":13671,"Ġhybrid":13672,"ĠMaj":13673,"pread":13674,"Ġcreat":13675,"got":13676,"OB":13677,"requency":13678,"spir":13679,"osopher":13680,"dialog":13681,"once":13682,"Ġtemporal":13683,"comput":13684,"Ġnorthwest":13685,"Ġ\"<":13686,"ALSE":13687,"\\|\\":13688,"Ġillness":13689,"Ġoperational":13690,"olia":13691,"Resources":13692,"Comment":13693,"ĠWebsite":13694,"umption":13695,"Ġhorror":13696,"elian":13697,"Ġconsequences":13698,"Ġsuicide":13699,"cluster":13700,"Ġcomposers":13701,"ĠStanley":13702,"ĠAqu":13703,"Ġstabil":13704,"thick":13705,"Ġstayed":13706,"Ġknows":13707,"good":13708,"Ġcomprehensive":13709,"ĠLiverpool":13710,"ĠConservative":13711,"Ġanalys":13712,"icht":13713,"four":13714,"Ġgenera":13715,"Ġgarden":13716,"iterranean":13717,"Ġchallenging":13718,"Ġveget":13719,"central":13720,"Ġhomogeneous":13721,"ulp":13722,"Ġthousand":13723,"Parse":13724,"ĠPrivate":13725,"textup":13726,"Ġ],":13727,"Ġpainters":13728,"Ġgoverning":13729,"Ġsensitivity":13730,"Ġvisiting":13731,"mill":13732,"ĠWarren":13733,"Ø±":13734,"fish":13735,"Old":13736,"iest":13737,"empl":13738,"Ġforth":13739,"1887":13740,"ĠAssistant":13741,"$^{":13742,"Ġgenre":13743,"lights":13744,"Ġpipeline":13745,"Win":13746,"Collections":13747,"Ġtrading":13748,"^*(":13749,"ĠEvans":13750,"Ġadvers":13751,"metadata":13752,"Ġimpress":13753,"between":13754,"Ġliberal":13755,"Ġris":13756,"ĠYang":13757,"ĠSupport":13758,"Ġdiscontin":13759,"ifting":13760,"ĠOnline":13761,"ijing":13762,"Design":13763,"Ġpainted":13764,"November":13765,"READ":13766,"ĠGlas":13767,"Through":13768,"Ġembedded":13769,"sat":13770,")(\\":13771,"nodes":13772,"riel":13773,"eton":13774,"ĠCultural":13775,"Ġdocumentation":13776,"dc":13777,"Ġnaval":13778,"mund":13779,"Ġsympt":13780,"900":13781,"$/":13782,"ĠâĢ¢":13783,"Ġneuro":13784,"Ġexcited":13785,"Ġrivers":13786,"------------":13787,"ĠPos":13788,"ultan":13789,"lementation":13790,"Ġfault":13791,"Ġslope":13792,"Cert":13793,"eting":13794,"Ġuniformly":13795,"Ġentang":13796,"ÙĦ":13797,"scar":13798,"ĠBaker":13799,"usp":13800,"Ġpriority":13801,"standard":13802,"107":13803,"áº":13804,"$^":13805,"hour":13806,"propto":13807,"1861":13808,"Ġvulner":13809,"Ġcouldn":13810,"VALUE":13811,"ogue":13812,"TIME":13813,"Ġbases":13814,"ĠChart":13815,"Ġpoem":13816,"Ġatom":13817,"athered":13818,"Ġstim":13819,"Ġsubsection":13820,"Ġconstructor":13821,")}.":13822,"Ġstrategic":13823,"opsis":13824,"Ġcous":13825,"Ġpresc":13826,"accept":13827,"ĠNi":13828,"Ġcompeting":13829,"eda":13830,")>":13831,"Region":13832,"Michael":13833,"Ġbon":13834,"Ġnormally":13835,"Ġvictim":13836,">:":13837,"ĠBeck":13838,"Generator":13839,"ĠBey":13840,"osc":13841,"Ġpixel":13842,"ĠVector":13843,"correspond":13844,"Ġassass":13845,"Ġfurn":13846,"Ġvessels":13847,"Ġthemes":13848,"\\/":13849,"ĠFreedom":13850,"Registry":13851,"done":13852,"ĠMatthew":13853,"Nodes":13854,"errors":13855,"ĠColonel":13856,"oka":13857,"Ġregiment":13858,"Ġfulfill":13859,"itime":13860,"varrho":13861,"attributes":13862,"etry":13863,"ĠWhere":13864,"geon":13865,"oking":13866,"Ġcounties":13867,"othy":13868,"ĠMack":13869,"Ġintellectual":13870,"ĠYe":13871,"Ġquadratic":13872,"ĠEdd":13873,"Ġsuffering":13874,"ivia":13875,"Ġcomfort":13876,"Ġwilling":13877,"Ġdangerous":13878,"Ġdiagrams":13879,"ĠStage":13880,"available":13881,"Ġinfluential":13882,"Ġscenarios":13883,"Ġdollars":13884,"oj":13885,"emor":13886,"ĠSport":13887,"charge":13888,"ĠElementary":13889,"Ġwides":13890,"ĠJimmy":13891,"Ġdt":13892,"ĠAdvis":13893,"downarrow":13894,"1864":13895,"execute":13896,"holders":13897,"Ġtables":13898,",.":13899,"1886":13900,"ĠLP":13901,"1850":13902,"ĠSS":13903,"sun":13904,"Ġpeer":13905,"}{*":13906,"Ġreaders":13907,"Ġdestruction":13908,"ĠDefence":13909,"Ġcredited":13910,"ĠJu":13911,"aran":13912,"webpack":13913,"ĠRain":13914,"Ġactivists":13915,"ativity":13916,"prev":13917,"Ġcouples":13918,"outer":13919,"flag":13920,"!]":13921,"Card":13922,"sig":13923,"Ġuniqu":13924,"Ġsail":13925,"Ġcro":13926,"Ġstuff":13927,"ĠLock":13928,"nl":13929,"ĠSP":13930,"ĠBroadway":13931,"Ġfasc":13932,"Ġcoastal":13933,"clean":13934,"whe":13935,"ĠMars":13936,"ensively":13937,"issues":13938,"Google":13939,"Remove":13940,"multline":13941,"Ġdebuted":13942,"Stud":13943,"Ġnomination":13944,"ĠSpirit":13945,"country":13946,"106":13947,"{(\\":13948,"eros":13949,"Ġdeviation":13950,"Ġmanifest":13951,"aba":13952,"qual":13953,"abe":13954,"verted":13955,"pin":13956,"tags":13957,"Where":13958,"'));":13959,"Ġelectoral":13960,"Ġadvertising":13961,"Language":13962,"Ġeliminated":13963,"ĠTrack":13964,"*)":13965,"tre":13966,"Ġweighted":13967,"hide":13968,"Ġhal":13969,"ĠOS":13970,"ĠAthe":13971,"Ġasc":13972,"ĠZe":13973,"Ġsounds":13974,"Ġ?>":13975,"_(":13976,"Ġargue":13977,"given":13978,"keyword":13979,"Ġlawyers":13980,"ĠNord":13981,"ĠLGBT":13982,"iden":13983,")}(\\":13984,"ned":13985,"_{+":13986,"ynchron":13987,"ancouver":13988,"Ġpreserve":13989,"Ġprepare":13990,"ĠTob":13991,"ĠIndians":13992,"})^{":13993,"Ġaddressed":13994,"Ġgrows":13995,"ĠTheater":13996,"Ġpolynomials":13997,"ĠChristians":13998,"Ġstro":13999,"Ġinterpol":14000,"Ġenjoyed":14001,"perimental":14002,"Ġsizeof":14003,"Ġjunction":14004,"European":14005,"Ġpersonality":14006,"transition":14007,"REQ":14008,"ĠMessage":14009,"Ġunusual":14010,"Ġpassion":14011,"Ġaimed":14012,"Ġmor":14013,"Ġmacro":14014,"Ġnan":14015,"}</":14016,"Ġvacc":14017,"ĠPO":14018,"rimination":14019,"backs":14020,"respect":14021,"Ġthreatened":14022,"Every":14023,"ikip":14024,"Ġgenetic":14025,"Once":14026,"oga":14027,"Ġpassage":14028,"Ġhandling":14029,"ĠTower":14030,"inemat":14031,"ĠDM":14032,"ÈĻ":14033,"Cloud":14034,"navList":14035,"Ġdifficulty":14036,"$'":14037,"Socket":14038,"ĠBud":14039,"ĠNorman":14040,"Ġradical":14041,"Ġdaughters":14042,"Super":14043,"Ġfermion":14044,"ĠPortland":14045,"boy":14046,"Ġbrings":14047,"ĠBirmingham":14048,"Ġsurrounded":14049,"HD":14050,"itations":14051,"Ġbelieves":14052,"ĠGuy":14053,"harm":14054,"Ġmedieval":14055,"dark":14056,"Îµ":14057,"\"/":14058,"opal":14059,"fiction":14060,")\">":14061,"ĠOk":14062,"Ġsharp":14063,"ĠCathedral":14064,"ĠLuther":14065,"agnostics":14066,"Ġha":14067,"Ġfunded":14068,"Children":14069,"seq":14070,"Ġinternet":14071,"resize":14072,"Ġexecute":14073,"Ġromantic":14074,"Ġepoch":14075,"ĠManhattan":14076,"Ġexisted":14077,"Ġconsumption":14078,"Ġmerger":14079,"Ġafford":14080,"Ġbold":14081,"Ġtrials":14082,"Ġresonance":14083,"Ġgift":14084,"1884":14085,"maven":14086,"ĠCarlos":14087,"ĠNad":14088,"Ġcorrelations":14089,"Ġphotographer":14090,"ĠBilly":14091,"sha":14092,"acre":14093,"extension":14094,"ycle":14095,"Ġslowly":14096,"108":14097,"fc":14098,"Ġentreprene":14099,"estone":14100,"ĠSalv":14101,"ĠTournament":14102,"town":14103,"Tags":14104,"ĠCaribbean":14105,"mir":14106,"ĠVALUES":14107,"junit":14108,"ĠAst":14109,"Ġcorrectly":14110,"Ġmoral":14111,"lier":14112,"onomous":14113,"Ġctx":14114,"Program":14115,".$$":14116,"Ġmarks":14117,"Ġaims":14118,"ĠCore":14119,"}>":14120,"Ġmissed":14121,"hammad":14122,"Ġwear":14123,"shaped":14124,"xis":14125,"kern":14126,"emale":14127,"Ġkingdom":14128,"ĠKum":14129,"Ġphenomenon":14130,"ĠWhy":14131,".),":14132,"Week":14133,"orf":14134,"iemann":14135,"Ġsolved":14136,"Ġdiffusion":14137,"Ġdealing":14138,"ĠWednesday":14139,"izz":14140,"Sync":14141,"Ġwhenever":14142,"ĠSerbia":14143,"Ġhalo":14144,"detail":14145,"ĠVI":14146,"ĠExpl":14147,"$-$":14148,"ĠThose":14149,"Ġheter":14150,"ifle":14151,"}/\\":14152,"Support":14153,"Sal":14154,"Ġsoutheast":14155,"Ġprinted":14156,"Trace":14157,"Ġdowntown":14158,"ĠPictures":14159,"ĠNature":14160,"Ġdeclined":14161,"sep":14162,"ĠHero":14163,"Ġfrequent":14164,"Ġ$^{":14165,"Ġmenu":14166,"Ġelsewhere":14167,"BAR":14168,"abul":14169,"ĠGets":14170,"ĠUV":14171,"Environment":14172,"Ġphotos":14173,"loss":14174,"constant":14175,"Services":14176,"esome":14177,"ĠAlaska":14178,"ĠBlues":14179,"Bal":14180,"ĠManager":14181,"ĉčĊ":14182,"Ġextracted":14183,"ĠMi":14184,"uart":14185,"identifier":14186,"Ġignored":14187,"Ġhabitat":14188,"maker":14189,"reck":14190,"lington":14191,"ĠTrophy":14192,"ĠFight":14193,"ĠBoolean":14194,"Ġresidual":14195,"udson":14196,"Ġresolved":14197,"Ġseparately":14198,"FN":14199,"Ġspoken":14200,"Ġreceiver":14201,"hoenix":14202,"shared":14203,"ĠThursday":14204,"Password":14205,"testing":14206,"Ġrgba":14207,"Ġtort":14208,"ĠBachelor":14209,"uity":14210,"ĠParker":14211,"Ġsouthwest":14212,"Despite":14213,"1863":14214,"quote":14215,"Ġcolleges":14216,"ffff":14217,"textsf":14218,"Ġunsuccess":14219,"fd":14220,"ĠMitchell":14221,"Ġrobot":14222,"Ġclosing":14223,"ĠReact":14224,"ĠjQuery":14225,"ĠEgyptian":14226,"Ġhat":14227,"Ġupdates":14228,"ĠMuslims":14229,"ĠShar":14230,"Ġmathematical":14231,"Ġfiber":14232,"ĠLiving":14233,"winning":14234,"ĠRand":14235,"half":14236,"Ġgradually":14237,"Ġproven":14238,"ĠAthletic":14239,"Ġstarred":14240,"ĠConfeder":14241,"Ġdispersion":14242,"cz":14243,"Ġreleases":14244,"ĠInv":14245,"Ġfits":14246,"ĠKan":14247,"ĠEdition":14248,"ĠGary":14249,"Ġconvicted":14250,".:":14251,"ĠHad":14252,"effect":14253,"ĠTree":14254,"ulatory":14255,"Ġlifetime":14256,"Ġlongest":14257,"Ġcorrespondence":14258,"ĠBarbara":14259,"Look":14260,"bounds":14261,"Ġswit":14262,"Ġorthogonal":14263,"stud":14264,"Ali":14265,"Ġtie":14266,"Ġlegacy":14267,"Ġcustomer":14268,"Ġelder":14269,"Ġabroad":14270,"ĠAngl":14271,"Ġpian":14272,"collection":14273,"ĠLagrangian":14274,"springframework":14275,"Ġdated":14276,"Ġindigenous":14277,"writers":14278,"ulu":14279,"rez":14280,"ndef":14281,"ĠCommunications":14282,"rimin":14283,"ĠJazz":14284,"ĠIranian":14285,"Ġreceives":14286,"ĠBasketball":14287,"Ġcongress":14288,"vertex":14289,"ifdef":14290,"ĠPsych":14291,"Ġbusinessman":14292,"ĠHawaii":14293,"ĠEmb":14294,"ĠJosh":14295,"Ġmeta":14296,"ĠProtest":14297,"Ġimplicit":14298,"ĠElectric":14299,"Jew":14300,"ĠLud":14301,"jet":14302,"Ġsupporters":14303,"Ġexperts":14304,"Ġcopyright":14305,"Ġreflection":14306,"Ġfat":14307,"Ġlanding":14308,"Ġtalent":14309,"Ġhorizon":14310,"Ġpictures":14311,"ĠOblast":14312,"Tx":14313,"Ġeg":14314,"ĠUniverse":14315,"Ġmaybe":14316,"ĠGrad":14317,"Ġdiseases":14318,"ĠWayne":14319,"ĠPradesh":14320,"footnotes":14321,"Ġrising":14322,"ateral":14323,"Ġfairly":14324,"ĠCarlo":14325,"Ġposts":14326,"ĠUE":14327,"Ġloaded":14328,"ĠSax":14329,"Ġocean":14330,"ARN":14331,"Ġassessment":14332,"ĠLeft":14333,"Ġfinals":14334,"ducational":14335,"ĠChallenge":14336,"Ġcontroversial":14337,"ĠCharlie":14338,"ebraska":14339,"uka":14340,"Ġfalling":14341,"enberg":14342,"apos":14343,"Ġbrick":14344,"reens":14345,"Ġhardware":14346,"ĠKath":14347,"Ġneutron":14348,"ĠBenjamin":14349,"Recip":14350,"ĠJe":14351,"rov":14352,"Ġpicked":14353,"ĠYorkshire":14354,"1881":14355,"ikipedia":14356,"Ġunlike":14357,"Ġjs":14358,"=[":14359,"np":14360,"Ġwidespread":14361,"ĠPlant":14362,"emed":14363,"Ġprospect":14364,"Ġconvenient":14365,"Dan":14366,"clusively":14367,"Ġminority":14368,"Ġenvironments":14369,"Ġsupplied":14370,"provider":14371,";}":14372,"Ġtexts":14373,"Ġcontroversy":14374,"ĠFIFA":14375,"ĠYugosl":14376,"username":14377,"Ġmagazines":14378,"SW":14379,"Selection":14380,"Ġimprovements":14381,"Ġencouraged":14382,"ĠHold":14383,"holm":14384,"Ġwine":14385,"hips":14386,"DEBUG":14387,"Ġqualifying":14388,"Ġsmallest":14389,"Town":14390,"ĠKos":14391,"ĠPRO":14392,"Ġ=======":14393,"ITION":14394,"Ġsessions":14395,"Ġsoul":14396,"Ġcommitment":14397,"ows":14398,"rele":14399,"inae":14400,"ĠWang":14401,"Ġlogger":14402,"tb":14403,"gov":14404,"109":14405,"ĠEditor":14406,"opedia":14407,"plier":14408,"White":14409,"Mass":14410,"rieve":14411,"Ġprotests":14412,"Ġtruly":14413,"Ġimply":14414,"Ġmountains":14415,"into":14416,"Ġrelating":14417,"ugment":14418,"ĠStein":14419,"Ġemerged":14420,"iture":14421,"ĠMess":14422,"Ġsuperior":14423,"ĠNAME":14424,"ceive":14425,"Ġsuspended":14426,"Ġputting":14427,"Ġguitarist":14428,"Ġcup":14429,"ĠStudio":14430,"1862":14431,"Ġworship":14432,"Ġcooperation":14433,"Ġdefeating":14434,"ĠLook":14435,"ĠNova":14436,"analysis":14437,"hell":14438,"Ġmissions":14439,"War":14440,"Ġconfer":14441,"ste":14442,"ĠCloud":14443,"ĠNBA":14444,"speed":14445,"ÐµÐ½":14446,"Ġlicensed":14447,"ĠAthletics":14448,"xygen":14449,"Framework":14450,"cient":14451,")--(":14452,"uez":14453,"Private":14454,"tered":14455,"Ġemployee":14456,"inking":14457,"Ġlaser":14458,"imated":14459,"serial":14460,"ĠPhD":14461,"Ġbot":14462,"ĠSA":14463,"3333":14464,"Ġdevoted":14465,"ĠWing":14466,"lix":14467,"gments":14468,"Ġarrangement":14469,"uces":14470,"bian":14471,"Ġinstrumental":14472,"wrapper":14473,"best":14474,"Ġmonument":14475,"'_{":14476,"allclasses":14477,"encer":14478,"Jack":14479,"Crit":14480,"ĠConn":14481,"ĠPrim":14482,"Ġfishing":14483,"ĠJonathan":14484,"Ġsym":14485,"Air":14486,"Ġbrig":14487,"ĠStars":14488,"ĠTuesday":14489,"Ġnarrative":14490,"vy":14491,"Ġmerge":14492,"Ġ\\[":14493,"proxy":14494,"kar":14495,"ĠDelhi":14496,"Ġskip":14497,"olutions":14498,"akia":14499,"week":14500,"æľ":14501,"Ġviolin":14502,"beh":14503,"closure":14504,"initely":14505,"eras":14506,"edu":14507,"Cred":14508,"pull":14509,"ĠFine":14510,"Ġtownship":14511,"anne":14512,"Ġfictional":14513,"Hen":14514,"ĠWind":14515,"ocratic":14516,"Ġanalyze":14517,"ĠJenn":14518,"ĠCommissioner":14519,"ĠSH":14520,"Ġangles":14521,"Ġdefence":14522,"Ġinvolve":14523,"Ġguilty":14524,"Ġacquisition":14525,"Ġinitiative":14526,"mf":14527,"Ġvolt":14528,"School":14529,"Ġcondens":14530,"ĠMak":14531,"Ġtransformations":14532,"Transform":14533,"you":14534,"Ġirreducible":14535,"hot":14536,"1882":14537,"Ġforests":14538,"Ġasking":14539,"ĠBranch":14540,"ĠTax":14541,"Ġphotons":14542,"Ġur":14543,"Ġmodify":14544,"&=\\":14545,"castle":14546,"Ġphotography":14547,"iko":14548,"poly":14549,"Wrapper":14550,"login":14551,"ĠJS":14552,
[...]
