#version: 0.2
Ġ Ġ
Ġ t
i n
ĠĠ ĠĠ
e r
Ġ a
o n
h e
r e
a t
Ġt he
e n
o r
s t
a n
a l
i t
Ġ c
a r
Ġ o
Ġ s
e d
e s
Ġ w
i on
i s
Ġ f
Ġ p
in g
l e
n d
i c
Ġ in
Ġ b
Ġo f
r o
ĠĠ Ġ
ĠĠĠĠ ĠĠĠĠ
a s
Ġ d
Ġ m
Ġa nd
o u
e t
c t
Ġt o
en t
e l
a m
i l
Ġ h
o m
Ġ re
Ġt h
Ġ S
Ġ n
o l
i g
i d
at ion
Ġ T
a c
i m
Ġ C
Ġ (
Ġ e
Ġ l
Ġ A
o t
u r
u t
Ġ \
i v
a d
Ġ $
s e
ĠĠĠĠ ĠĠĠ
Ġ is
c e
u l
Ġ M
Ġ g
Ġf or
t h
â Ģ
o w
a y
a g
Ġ I
o d
c h
Ġ =
er s
e m
u n
l y
i f
u s
Ġ on
Ġ st
Ġ P
a b
Ġ B
u m
it h
i r
Ġ v
< /
Ġb e
ĉ ĉ
i st
q u
= "
2 0
a p
at e
t er
p e
Ġc on
Ġa s
Ġ R
Ġ H
o c
Ġ D
v er
) ;
Ġ F
Ġth at
a v
Ġw ith
h t
č Ċ
Ġ {
r i
Ġ <
an d
Ġ L
- -
ct ion
en d
Ġa l
e x
o p
re s
Ġ N
as s
e st
u p
Ġa n
Ġw h
Ġ W
e w
Ġp ro
es s
Ġ G
a in
1 9
u b
_ {
ĠT he
ĠĠĠĠĠĠĠĠ ĠĠĠ
o s
Ġ E
Ġw as
at h
or t
Ġd e
Ġb y
er e
it y
am e
ou r
ro m
/ /
t r
p t
Ġ "
Ġ it
Ġc om
Ġa t
ar t
o re
Ġ r
Ġ *
Ġe x
u e
il l
p l
in e
al l
ag e
Ġc l
i es
e g
ig ht
m ent
a k
e ct
Ġ or
Ġ J
Ġ y
Ġ O
Ġ }
Ġa re
Ġf rom
u re
n t
" >
an t
o g
iv e
i al
u d
Ġs e
{ \
i z
ac k
Ġ Ċ
Ġ he
c l
l d
Ġ &
g e
an s
ĠĠĠĠĠĠĠĠ ĠĠĠĠĠĠĠĠ
Ġth is
p ort
b er
ul t
e f
a st
c on
p er
Ġt r
ex t
Ġ$ \
Ġw e
0 0
âĢ Ļ
Ġ U
ar d
. .
ur n
ĠĠĠĠ Ġ
o v
i p
Ġc h
ar y
or m
re f
at ed
u nd
u st
a ct
' s
T he
( )
el l
it e
Ġs h
m ath
ab le
a re
Ġ K
s p
ic h
Ġ âĢ
f f
in t
av e
i a
Ġn ot
Ġcl ass
ig n
p h
* *
u g
Ġ le
Ġp l
o st
or d
k e
ic al
it ion
20 1
i re
Ġ -
in d
ĠI n
on g
ac e
c om
as e
Ġ if
l i
y pe
e p
an g
t urn
ou t
I n
od e
) ,
Ġcom p
t o
id e
i le
g et
im e
Ġ V
Ġ '
or k
p ro
} \
-- --
^ {
st r
= =
ic e
f t
m a
} $
i an
en s
ĠS t
e ar
c c
Ġ us
en ce
ation s
o k
er v
ub l
ion s
at a
) .
Ġc an
il d
Ġh ave
s o
ĠT h
r a
Ġ j
Ġcon t
e c
Ġre s
Ġwh ich
en c
Ġh as
th er
i b
Ġ un
ĠĠĠĠĠĠĠĠ ĠĠĠĠĠĠĠ
d u
Ġ k
f orm
Ġa d
Ġh is
an ce
ou ld
Ġal l
j ect
ac h
or y
f r
ĠC h
ou s
e v
Ġa r
Ġa b
Ġ |
Ġ im
Ġa p
er t
o b
Ġn ew
20 0
he n
} }
is h
u se
ro w
res s
on e
Ġre turn
a il
ent s
( \
ubl ic
t ext
al ue
ow n
c al
Ġ [
en er
Ġ </
Ġy ou
un ction
Ġ //
oc k
t a
m er
l l
eg in
c ri
our ce
ou nt
1 0
r y
ir st
ĉĉ ĉĉ
.. /
e qu
: :
Ġal so
f er
om e
Ġ +
ou nd
b egin
o ver
ol l
re e
or s
1 8
- >
er m
Ġw ere
ar k
C on
u al
ic t
p le
o se
Ġon e
in k
Ġb ut
ol d
cl ud
el f
Ġo ut
S t
_{ \
ter n
Ġp art
ul l
Ġw ill
Ġst r
he d
s s
n e
at es
Ġd is
i el
) $
Ġthe ir
ot h
ar am
r it
t e
ab el
Ġ ro
Ġ Y
f ig
p s
" ,
Ġ up
s et
in al
d iv
Ġs u
iz e
w o
Ġp r
el y
w e
r ight
i ew
ic k
} ,
E x
Ġm e
Ġ @
Ġd o
Ġ /
Ġs p
Ġe v
iel d
pt ion
m l
o ok
et h
Ġ qu
ak e
ess age
ic s
Ġde f
le ct
y st
Ġit s
s h
o ol
b ut
Ġs et
ing s
pe ct
c k
} {
n g
Ġp er
ĠI t
c re
p ut
ĠU n
r ap
o int
Ġf irst
Ġin t
ig h
âĢ Ŀ
( "
ĠH e
Ġm an
at er
f ter
Ġo b
Ġm ore
pe c
( );
Ġ en
Ġp re
i o
> </
Ġm od
Ġt e
l es
a w
Ġ .
sp an
p r
e q
fr ac
Ġwh o
i x
Ġa g
Ġf unction
ro up
t he
Ġo ver
r ay
' ,
Ġthe y
ation al
er y
ĠâĢ ĵ
Ġpl ay
Ġn ame
Ġw ork
Ġh ad
l o
Ġ| |
r m
is s
yst em
1 2
Ġp ublic
> <
Ġd es
c he
i e
Ġt wo
Ġt ime
y s
s um
âĢ ĵ
l abel
c ite
l ine
i ed
Ġh er
Ġo ther
Ġbe en
Ġg et
---- ----
Ġs o
Ġv ar
tr ing
../ ../
Ġy ear
c ent
math b
Ġin ter
on d
a x
Ġn e
t t
on s
er r
r am
um ber
v el
Ġ :
an c
m b
Ġcom m
p os
et a
Ġw hen
ul ar
le ft
at or
if ic
on t
T h
em ber
at ive
ro und
ar g
19 9
v e
Ġs up
Ġg o
as ed
ri but
Ġth ere
Ġ und
E R
P ro
rap h
op le
t y
l ation
Ġs c
n ame
ĠĠĠĠĠĠĠĠ ĠĠĠĠĠĠĠĠĠĠĠ
o id
ug h
m s
u ct
Ġin to
ad e
$ .
$ ,
Ġ* /
an n
ap p
ht ml
ar ch
== ==
ay s
1 6
) )
oll ow
e b
s ource
, \
Ġc ol
Ġin clud
Ġab out
Ġp e
Ġs ub
Ġb et
tr ans
at ch
ov e
Ġad d
** **
Ġtr ans
o ot
1 5
enc es
an ge
ou g
ĉĉ ĉ
Ġh ref
Ġof f
c ol
ĠâĢ ľ
Ġre g
Ġon ly
m essage
ĠĠĠĠĠĠĠĠ Ġ
i ent
Ġl ine
al s
( '
ĠTh is
am p
ou n
o f
20 2
math cal
am es
it ed
l and
at ing
Ġan y
am b
} )
Ġth an
Ġd ata
le t
equ ation
u ild
en g
o x
i ous
im es
} .
is e
Ġ #
Ġres ult
w ard
O N
at ic
ol og
Ġl i
ĠC om
Ġin d
Ġwh ere
Ġa cc
ur re
le ment
or n
o y
th is
er n
Ġt ype
I N
cri pt
t d
u es
Ġa ct
it ies
Ġ end
Ġs ome
Ġf il
id ent
iv ers
Ġo ur
y n
ĠA r
Ġd if
Ġk n
1 1
res ent
Ġas s
ĠN ew
Ġp os
ke y
eth od
Ġre c
ĠS e
mer ic
Ġcon s
Ġf ollow
Ġw ould
ar s
t ain
t on
Ġv alue
Ġa fter
d d
ĠP ro
} (
Ġund er
Ġl oc
ur ing
N ame
Ġfor m
Ġn o
Ġ= >
con d
Ġc re
it s
d er
Ġsu ch
} ^
as h
Ġf e
Ġre l
al se
d a
l ock
il ity
Ġs he
u res
Ġo p
R ef
c ed
1 7
Ġc o
im port
T ype
Ġthe n
Ġin v
: //
ire ct
in ce
Ġ _
ph a
or ld
I d
em ent
h o
~ \
we en
Ġpro v
ĠA l
ow er
} _
al ly
Ġ use
m in
Ġ i
an k
Ġd ist
/ >
ĠW e
ro ugh
c ode
Ġst ud
Ġp h
is hed
1 3
in s
s ub
Ġs pec
a id
d ef
1 4
p aram
c ess
h at
Ġat t
ib le
t s
C om
w n
Ġre qu
at ure
# #
id er
id th
el s
ab l
Ġs erv
Ġus ed
Ġf l
ist s
Ġcon st
Ġsh ow
Ġpe ople
Ġre m
Ġg ener
S tring
ic es
al pha
Ġp ol
R E
in ed
Ġpro du
il y
f ore
an y
Ġbet ween
Ġ el
e ad
C h
r al
Ġs elf
a ir
19 8
le ction
ĠS h
trans lation
ar n
Ġm ay
" />
ut h
2 5
Ġc all
Ġb ack
Ġa c
S T
Ġh igh
Ġ ent
i er
is ion
urre nt
Ġthe m
A T
s c
Ġm ost
re turn
Ġbe c
re ad
pl ic
re n
Ġs im
ag es
in es
v ent
ch ool
el ta
b le
b ar
) \
ers ion
Ġy our
amb da
v ar
Ġdif fer
ut ion
a ult
Ġin st
iz ed
ad d
Ġth rough
R es
as k
as on
s on
cl ass
3 0
at t
p on
tern al
it le
oug h
r u
re d
m od
Ġn umber
Ġs ystem
Ġthe se
ĠA meric
f l
a use
Ġ Z
Ġ Q
it t
g an
m an
ac he
o h
y le
Ġg r
Ġd et
oc i
C l
e e
ht t
r ic
L ist
h ip
Ġa m
Ref er
l oc
ment s
ĠA n
Ġv al
um ent
Ġc ase
t ype
ce ption
e ver
a h
ot e
am ma
us s
a z
Ġch ar
ot s
$ \
Ġ !
ĠC l
Ġe ff
Ġe ach
Ġc or
it em
ĠF or
f o
y m
Ġ x
re at
Ġs m
if e
Ġs ign
A R
ĠT r
Ġw ell
i k
mathb b
Ġp oint
) :
_ \
Ġg iv
Ġe st
A r
Ġ `
Ġh ow
a ction
v iew
Ġe qu
Ġb r
= \
ivers ity
b ack
19 7
iv ate
Ġag ain
iv er
b all
00 0
v al
Ġli ke
o le
ĠC on
Ġh im
Ġ >
Ġ ed
Ġ= =
n er
.. .
I D
e k
p art
eg a
ap t
ig ma
Ġt est
Ġyear s
p ress
e y
Ġe ver
Ġo per
Ġs aid
Ġf ound
p i
Ġs er
ut e
Ġf inal
b r
Refer ences
Ġ\ \
O R
w h
I t
p ar
or g
T r
Ġst art
et s
ĠI nd
_ _
al ign
Ġm in
l og
m u
ers on
f or
oth er
Ġ --
ire d
Ġg roup
} _{
eng th
c es
Ġn ull
ou se
w ay
} ^{
ot t
Ġe m
am ple
s er
od y
5 0
p re
ĠA s
Ġne ed
Ġc ent
y p
a j
iz ation
or th
et er
"> <
al e
s elf
s erv
^ {\
- \
Ġs ol
u c
Ġs ur
f ul
L E
Ġst ate
Ġv oid
is m
Ġj ust
g y
b e
Ġs ame
Ġf alse
se ction
ĠE x
u ch
ĠĠĠĠĠĠĠĠĠĠĠĠĠĠĠĠ ĠĠĠĠĠĠĠĠĠĠĠĠĠĠĠĠ
w ork
b y
Ġth ree
Ġwh ile
Ġtr ue
ou th
Ġre p
Ġl ong
ĠĠĠĠĠĠĠĠ ĠĠĠĠĠ
Ġus ing
ant s
2 4
ce pt
ph i
w w
ur y
form ation
Ġwh at
Ġex t
Ġ err
str ing
l ambda
Ġse cond
b f
W e
Ġb oth
Ġar t
ath er
ĠC ol
c o
ical ly
ĠD e
u le
op t
Ġd r
Ġ X
Ġl ist
S S
over n
T o
Ġbe ing
Ġdiffer ent
Ġte am
ion al
E N
Ġap pro
Ġ )
Ġle ad
Ġf ield
are d
um n
Ġd uring
" )
cc ess
Ġsh ould
19 6
Ġman y
Ġmod el
o od
ar get
re am
Ã ©
A L
per ty
Ġf am
Ġs ing
con t
m e
Ġn ow
Ġ{ \
3 2
Ġc ould
Ġsup port
ro ss
Ġm ed
ĠĠĠĠ ĠĠ
Ġde c
Ġl ink
t en
Ġm on
Ġr ight
ak ing
Ġbe fore
olog y
r on
u ff
a f
Ġm y
// //
b ers
ro p
. "
if ied
il on
g ram
Ġpart ic
enc y
Ġr un
Ġm ade
Ġd irect
-------- --------
pl ay
ĠS c
ro l
Ġn on
mathb f
av a
ĠF r
Ġ id
if y
b ject
Ġre le
e le
vel op
g er
n ot
Ġel se
Ġper form
Ġm ethod
as es
ep s
ar ly
Ġb l
t ing
r r
C ol
ĠAmeric an
ur al
Ġde velop
d ata
are nt
ĠUn iversity
D ata
Ġfollow ing
. ,
t il
d ay
ĠĠĠĠĠĠĠĠĠĠĠĠĠĠĠĠ ĠĠĠĠĠĠĠ
v alue
ar ray
Ġever y
2 2
an e
Ġb el
en se
w idth
ch n
n ew
c d
ist er
iv ed
i ence
Ġo wn
al ity
in a
h er
Ġre ad
f ace
ir c
ain s
" );
Ġdis c
ro ll
ition s
ĠL e
m ed
Ġ z
Ġor der
U n
Ġex per
n ing
l p
ĠI s
s igma
V alue
l ed
1 00
al th
Ġt erm
' )
Ġg u
**** ****
d ate
' t
Ġh and
iv es
Ġm ake
p x
tr y
Ġw rit
Ġp aram
Ġgiv en
ra w
Ġm ain
ent ial
us ic
loc ation
4 0
ang le
ĠM ar
ild e
Ġse e
n b
iss ion
qu e
Ġm at
b eta
f ile
ĠO n
Ġb uild
Ġcont in
Ġf act
\ \
o ad
2 1
Ġstr ing
Ġdo es
Ġo pt
Ġbec ause
Ġc urrent
ĠP l
Ġm em
it al
s cript
O n
2 3
Ġap p
ist ory
F or
^{ -
ord er
Ġl ast
A N
re g
ul ation
at us
Ġ( \
ual ly
Ġpro cess
l er
re qu
Ġp op
Ġm ov
ĠUn ited
Ġc he
str uct
Ġ/ **
o ber
p p
og raph
ect or
ow s
Ġre sp
ro id
t est
l ob
Ġa v
iv ing
ĠP h
oh n
m ary
Ġf in
ĠA nd
B y
S et
Ġev en
in clud
A s
ĠS he
Ġpr ivate
Ġcons ider
Ġf ind
he ad
iv ely
ain ing
Ġob ject
C T
} {\
Ġim port
Ġdes cri
I T
Ġp ass
math rm
ar m
in ess
f ield
Ġs l
le x
A n
ĠE ng
nb sp
Th is
Ġinclud ing
Ġd id
ĠP r
lo ad
en n
et work
om en
==== ====
ĠR es
S E
ar ge
i or
ĠCom m
D E
( $
port s
com m
Ġrec ord
ĠI f
s y
le y
g round
g r
* }
ĠR e
Ġv ery
g amma
E n
] ;
) );
Ġeff ect
ist r
Ġcomm un
Ġsm all
ab ility
it ial
a u
Ġb o
Ġb ro
Ġs ince
ction s
+ \
Ġap pe
Ġ& &
Ġop en
m p
Ġm et
Ġto p
Ġc ar
Ġst atic
ep end
Ġin cre
2 7
in ter
ac es
al k
ect ed
Ġf our
d is
Con t
Ex ception
Ġw ay
t ime
n ess
s ize
re m
ĠH ow
] {
un e
us h
at s
Ġor ig
er ing
2 6
ĠS p
i um
] ,
Ġagain st
Ġd own
os s
Ġf r
oot ball
fig ure
se arch
end s
Ġw orld
2 8
202 2
uth or
se c
Ġth ose
Ġex pect
Ġ %
Ġ// /
i ev
3 3
Ġv is
ĠM ay
d elta
Â ł
u ro
Ġloc al
ĠĠĠĠ Ċ
^ \
ver t
l ink
ĠB r
Ġm ark
Ġ u
Ġhe ad
Ġch ild
v ious
rr or
Ġg ame
C O
ak es
Ġvar i
Ġkn own
Ġdes ign
âĢ ľ
t op
a i
ir d
. âĢĿ
M E
ĠO r
col or
) }
O bject
Ġs chool
id es
Ġstr uct
I nd
ĠA d
oc ument
T est
Ġp resent
ĠâĢ Ķ
re ak
Ġplay ers
ĠJ an
us iness
ag er
ĠS tring
Ġev ent
r c
ur s
b s
Ġin formation
v en
com e
r ho
s ide
Ġre ce
ar i
et y
Ġse ason
Ġlink s
Ġhe lp
n av
19 4
le q
g o
Ġar g
Ġcon d
Ġde p
M od
l ess
Ġan al
p or
"> </
Ġ key
V iew
ount y
Ġt itle
lect ed
S h
j s
Ġp res
Ġchar act
Ġl ook
$ -
Ġl ater
Ġkn ow
I m
G et
Ġresult s
ta u
b ig
Ġe lement
ar row
r ite
ang u
id ed
th s
Ġpos s
Ġm ult
ĠW h
ri x
Ġ! =
20 20
Ġle ft
Ġfil m
id d
it or
ĠY ou
u ck
() .
the ta
} (\
t imes
en e
l ist
Ġre f
Ex ternal
p ublic
() );
ind ex
tern ational
2 9
ut il
Ġp at
Ġt em
S e
eq ref
ĠSt ates
Ġc oun
Ġb ased
iv al
b o
p m
Ġpro gram
Ġg overn
ur l
19 5
Ġa ut
ĠB l
Ġle vel
ag n
ap e
t able
ĠJ ohn
ate g
Ġrep resent
Ġser ies
A l
}$ ,
}$ .
et ers
Ġm uch
qu ad
b um
Ġt ri
un c
Ġa round
Cl ass
Ġl ife
" .
Ġ ,
it ive
in c
b ed
ain ed
ĠC ar
Ġcall ed
ĠC an
ur ch
A C
htt p
6 4
. </
o ff
is ed
" ;
ĠA t
ft y
Ġan n
Ġs ize
ĠW orld
Ġex p
Ġp ost
f unction
[ '
Ġh ere
Ġst and
Ġse ver
um er
Ġst ill
Ġf ile
Ġc are
ag ue
Ġfam ily
ĠA ll
201 6
202 1
u ary
Ġc r
op y
ĠG r
in fty
tr act
ĠĠ Ċ
it er
Ġre al
Ġex pl
Ġm ust
201 7
qu ot
i am
ĠN ational
v ir
ĠN ov
P h
ĠC ent
in ation
o pe
erv ice
mb ol
ĠA ss
=" +
R O
sum mary
! --
ol v
ific ation
Ġp ower
Ġl im
Ġp ar
Ġp erson
] .
og le
E rror
ĉĉĉĉ ĉ
res p
ĠJ ul
Ġor gan
ition al
r ist
g roup
Ġt ake
ĠM an
20 19
. _
Ġme as
ur ation
201 8
ac y
Ġn ext
Ġgo od
201 5
Ġpl ace
t ies
6 0
at ely
Ġ/ >
Ġre port
H e
n u
end ed
ust om
le ar
Ġ ident
Ġor g
Ġbe st
if t
Ġpro ject
ĠA ust
che s
Ġl arge
sp ace
ack age
t ilde
Ġpro ble
du ct
K ey
Ġb ook
Ġre fer
av ing
om ega
Ġc ap
ur ther
w it
ast er
ord s
aj or
I C
' );
ĠTh ere
Ġwith in
our n
f in
Ġ ke
Ġte chn
R e
Ġ$ (
=" ../../
part ial
L L
our ces
201 4
pl oy
I ON
Ġo cc
Ġc our
Ġw ant
ĠThe y
p ath
lob al
ward s
Ġl aw
Ġd el
f ess
Ġest abl
ord ing
ribut e
htt ps
ĠY ork
is on
ill ion
m et
s k
b l
Ġad v
ail able
Ġob tain
wh ere
Ġsing le
Ġun til
am ed
| \
ol ution
or ies
R equ
âĢ ¦
Ġob serv
Ġb ound
' ]
Ġpro t
i od
Ġd ay
at ors
A P
he s
orm al
ĠO ct
ĠA ug
Ġb u
Ġare a
P l
ĠS chool
ore d
p ace
p ed
anc es
() ,
Ġsp ace
f il
ri es
ĠT e
a ff
i ans
cal e
Ġcont ent
ĠU S
ens ion
oc ial
ĠC ounty
plic ation
us er
s m
Ġn ear
Ġle t
3 5
d e
Ġt ext
ain t
Ġt yp
ug g
ĠW est
Ġal ong
Ġd em
Ġoff ic
ĠB e
Ġo ld
s q
Ġv iew
iv ity
Ġwe ek
con st
201 0
F ile
ĠP ol
8 0
angu age
I nt
Ġval ues
D elta
Ġdist ribut
Ġt arget
Ġm usic
201 2
Ġis s
Ġwith out
Ġd ue
Ġc ount
Ġf ootball
} ;
Ġal bum
oc us
ĠJan uary
T ime
Ġ ener
od es
cri ption
w are
ide o
m ber
n o
W ith
201 3
om et
E D
, âĢĿ
x i
at ures
ĠG e
Ġr ad
ĠW ar
ic le
pt ember
ĠM in
Ġv ersion
Ġw in
Ġsu ccess
Ġs k
Ġbe h
Ġd on
on y
d es
pos ition
ĠG u
ĠT o
ict ion
Ġch ang
Ġpol it
am pl
Ġres pect
Ġerr or
Ġh tt
uff er
Ġorig inal
201 1
ĠM arch
eq n
le m
om an
Ġsever al
a ut
ail s
d t
b ox
ĠS outh
Ġh ome
N ot
Ġl og
Ġgener al
un g
pr il
er o
ore m
a im
L A
em pt
P E
Ġall ow
ro du
Ġst yle
Ġan other
Ġd i
il t
M an
ap s
Ġde ath
` `
Ġth row
Ġ-- >
" :
op er
Ġrequ est
ap er
Ġle g
com p
Ġl a
Ġex ample
pon se
ĠC o
ĠE n
r t
Ġre t
l ing
Q u
le g
A dd
ar r
Ġbec ame
D ef
Ġto t
il ar
m y
m d
le ge
Ġe lect
w ays
Ġs um
t ab
s l
Ġp ath
im ate
' :
ĠB rit
Ġf ull
resp ond
a it
ic on
Ġ et
T ext
ĠHow ever
Ġp ort
ĠB ut
Ġs ong
erm an
g in
ic a
Ġ ?
Ġen g
Ġm ass
i j
Ġb ir
Ġinv est
4 5
ert ain
ce mber
Ġcomp any
ater ial
ĠF eb
Ġb lock
em s
se e
ĠM ed
l im
uro pe
Ġc al
âĢ Ķ
ul es
end ing
i que
al es
cd ot
Ġb usiness
In fo
ĠC al
9 9
Ġinclud e
and s
per ties
ĠSt ate
am ent
ard s
str u
m at
Ġs pe
O m
ind ow
Ġinter est
A ll
O r
E vent
w ith
Ġ čĊ
ĠSe ptember
ĠJ une
ĠR eg
a us
ĠAug ust
ur g
um an
3 1
i ents
ic y
Ġm ax
## ##
u ed
\ ,
Ġn etwork
u f
$ $
eps ilon
D es
T R
Ġsh ort
Ġg re
ne y
Ġserv ice
vir on
} }\
Ġin itial
ĠOct ober
ur ity
A S
Requ est
pos ed
)$ .
Ġcharact er
s im
Ġde v
ĠA pril
P ath
Ġab ove
ĠE d
c ast
ĠP ar
St ate
O ver
a e
Ġus er
re l
Ġe arly
ure d
st ance
F ield
d own
/ *
ib r
E lement
ear ch
ac ed
ru ary
Ġprodu ct
I S
ĠF l
ĠâĢ ĺ
9 0
ĠC ity
Ġener gy
ĠĠĠĠĠĠĠĠĠĠĠĠĠĠĠĠ ĠĠĠĠĠĠĠĠĠĠĠ
N ode
Ġstud y
ĠJul y
Ġl arg
ay out
Ġst at
3 7
m ap
l ength
Ġint eg
ma x
con om
ist or
Ġche ck
ww w
Ġpre vious
U R
Ġb as
ight s
ial ly
f rom
Ġle arn
s w
Ġav ailable
ole an
en u
Ġin s
con fig
Ġtr y
Om ega
Ġt urn
3 6
Ġf ew
st it
at ter
re t
ĠN o
Ġch ange
Ġacc ess
ix ed
b lock
im al
Ġass oci
Ġ );
u x
er ed
ĠNov ember
Ġass ert
Ġb ase
Ġa ff
u i
Ġmem bers
200 9
l ish
u k
} [
Ġp ubl
() )
Ġg row
F orm
} _{\
ple ment
Ġm ar
Ġth ink
ĠDe cember
ĠS up
Ġw on
ys is
Ġc ity
U T
3 4
c er
/ **
um p
A D
press ion
Ġpos ition
pl it
Ġpartic ular
ĠN orth
ent ion
Ġcre ate
200 8
ĠA b
Ġar ray
Ġm ajor
b ody
amp ions
Ġpro m
il it
r ide
ad a
Ġc rit
ap i
in o
h old
Ġgovern ment
ra ft
ou ble
ay er
raph ics
tr ue
Ġre du
p oint
Ġtot al
Ġre st
ess ion
z e
Ġfor mer
ĠW ill
3 9
Ġs ay
Ġas sum
Ġ enc
b t
pro v
Ġw omen
Ġcont rol
n ode
ĠE urope
Ġex ist
Ind ex
t itle
ev el
Ġc ode
ag s
Con fig
al f
our s
ĠAust ral
ĠR ep
um e
ĠF ig
E qu
Ġd om
Ġp o
P aram
Ġre search
se mb
' ;
ef f
Ġ es
w ord
//// ////
l t
ith er
Ġcomp let
V ert
le v
Ġcl os
on es
Con text
s up
err or
ĠFeb ruary
ĠB y
ps i
^ *
ĠS ystem
O T
7 5
an a
st and
Ġh old
st ate
oug ht
ut ure
Ġs ide
N ew
Ġl ow
3 8
v oid
im ent
ri ed
I s
0 1
o in
ĠP art
ĠCh rist
ĠD r
Ġper iod
pon ent
Ġpoint s
Ġv ol
in put
ĠI I
res ult
read y
l in
Ġ( !
c apt
M ap
st yle
Ġs at
Ġimport ant
Ġcomp et
Ġl ess
ĠI m
ail ed
i us
c m
Ġrele ased
cent er
h am
ott om
Ġcor respond
p en
Ġdef ault
Ġcomp ut
ab les
v ersion
Ġf ree
is ing
d om
0 8
st er
ne ction
id ual
Ġp ot
Ġb reak
E S
Ġd iv
ag ed
Ġch o
g or
Ġ} );
end er
g ress
ther n
ames pace
ps ilon
le te
et urn
Ġl and
Ġa ction
ist ic
Ġt imes
viron ment
ĠM c
in ition
eqn array
abl ed
Ġin put
Ar ray
Ġc ur
B uild
Ġplay ed
ag ement
yn am
Ġs ource
Res ult
Ġr ange
Ġme an
Ġsim ilar
F F
ent ly
IN G
" "
I f
Com m
Ġc ell
pl ate
200 7
ign ed
)$ ,
nd er
Ġcom b
Ġ} ,
C H
| -
Ġcon f
Ġf ore
Ġd en
k s
200 6
Ġposs ible
th ers
Ġs it
Ġchild ren
F il
stru ction
itt le
n ow
S ervice
ograph y
Ġrequ ire
Tr ans
g t
ĠA p
Ġm atch
Ã ¡
im um
I G
E T
6 6
A t
b it
F rom
ann el
G amma
Ġpro b
Ġc over
c or
Ġro le
Ġstr ong
Ġ Ð
Ġdet erm
C ode
ch i
Ġhe alth
Ġadd ress
It em
v are
ap an
="../../ ../../
Ġw ater
= '
Ġ ide
ĠB o
Ġdef ined
0 5
n ect
Ġl ate
Ġh istory
ens ure
ĠS er
A nd
capt ion
M P
p ose
Ġshow s
sq rt
ab ly
S ee
A tt
ĠE l
gor ith
yn c
Ġg reat
ĠC O
y d
S ize
ip le
S c
b old
M L
Ġn ode
O f
Ġph ot
Ġcol or
k en
Ġg ames
Ġa uthor
Ġe p
ĠA fter
Ġl ength
lo at
Ġproble m
A B
L O
cl us
20 00
M essage
Ġcont ext
ob ject
um ents
Ġm ap
Ġse ction
text bf
Ġ$ {\
vare psilon
ĠC or
th ough
n on
Ġint rodu
ir t
Ġp ut
ap ache
Ġsign ific
Ġdisc uss
ad em
ĠM e
al t
p ly
A d
5 5
se qu
u ation
ĠK ing
op s
Ġqu est
A G
Ġm ember
r ing
ass ert
ĠA g
re c
[ ]
Ġto o
ĠW ith
Ġback ground
> &
and om
Ġspec ial
Ġto ok
def ault
op h
7 0
ud e
ed er
Ġg l
Ġf ac
y l
v ers
sub section
L oc
in fo
ib ility
^{ (
ĠB ar
l ang
Ġtr ack
e ction
Ġcon c
if f
ec ut
ab or
P r
ĠC he
Ġsh own
ĠR ec
Ġs rc
ri or
Ġre cent
+ +
Ġbet ter
Ġpro perty
Ġmod els
ĠR uss
on se
Ġsup er
ĠBrit ish
cont ent
an ch
cre ate
Ġre pl
Ġcon fig
Ġinst ance
re et
}^ {\
Ġc ost
ref er
ug ht
******** ********
ak en
ver age
Ġind ex
n a
Ġf ive
in ary
Ġw he
olog ical
Ġd er
ener al
Ġth ird
Ġf urther
Ġ: =
id ge
ic ro
c ul
U S
Ġ/ *
tr a
Ġh ouse
Ġcommun ity
epend ent
Ð °
ĠS o
er a
Ġan t
Ġle ast
ou d
Ġresp onse
a ul
Ġof ten
Ġa ir
v es
b orn
Ġam ong
ĠL ist
Ġe as
Ġj ava
} =
ĠLe ague
Ġprov ide
r ation
F r
Ġcomp on
ampions hip
' '
ĠQ u
Ġal ready
sy mbol
ens ity
id ence
4 8
Ġs om
il le
Ġ( )
ĠO ff
Ġcare er
b ase
ĠG et
c ss
Ġim age
Ġpro fess
Ġfe ature
um b
ĠThe se
Ġc oll
ip s
Ġreg ion
V al
Ġpr act
U N
Ġterm s
ren ch
Ġd ocument
Ġc amp
Ġdescri bed
T H
i ke
ac c
em ph
t ings
Ġcomm on
Ġh app
Ġgo ing
ĠH is
Ġed uc
H and
al d
U p
Ġcoun try
Ġf und
ĠH igh
200 5
Ġl ight
Ġrece ived
ond on
Ġann oun
Ġne ver
I P
Ġb and
ampl es
Ġac ross
Ġind ic
Ġa ge
Ġh ost
) =
es e
cre en
S er
c il
re st
og n
Ġpre d
ĠP res
Ġto wn
Ġs ix
Ġperform ance
C E
ĠC ont
Ġin div
ĠS ch
202 3
Ġpot ential
var phi
B ut
ĠW hen
ĠAr t
ĠA ct
O ut
; &
Ġhe ld
b m
Ġs pect
Ġse c
eg raphics
includ egraphics
Ġacc ount
Ġev ents
Ġs y
r angle
c all
Ġd at
Ġcor re
Ġst ory
ing ton
Col or
Ġp arent
Ġm illion
ĠP er
Ġappe ar
In ter
Ġs ocial
ĠA m
Ġbe come
R ec
Ġopt ions
i ef
Ġ( $
Ġp ay
ĠA fr
an el
Ġn ational
Ġb ig
D e
c le
Ġn amed
ĠO ne
Ġal ways
ĠA rm
D is
Ġ\ ,
W h
, "
at form
Ġdevelop ment
i ol
Ġd ays
b ook
e ed
li ent
c y
t es
Ġph ys
Ġqu ant
Ġar r
ac hed
Ġs ite
mod el
Ġc ult
Ġrequ ired
Ġf ocus
Ġh ard
Ð ¾
d f
Ġm ight
Ġpop ulation
ĠP ark
4 4
Ġre d
i i
Ġsignific ant
i et
ĠĠĠĠĠĠĠĠ ĠĠĠĠ
Ġyou ng
ĠD es
as ing
ourn al
Ġt able
Ġbe gan
ĠC oun
ĠCol lege
L og
T E
c ell
Ġfollow s
A meric
Ġto get
S ystem
ĠD av
ĠĠĠĠĠĠĠĠ ĠĠ
Ġst ates
Ġf ri
ĠEng lish
Ġof fer
U ser
Ġtoget her
p ackage
ĠCom p
Ġh aving
Ġ_ _
e ople
ĠCh ar
ĠR ev
roll er
; </
Ġm ot
pro of
n own
Ġf ar
ma il
Ġse qu
Ġtr ad
---------------- ----------------
Ġde g
go ogle
Ġcl aim
Ġinv olv
av es
Ġre view
Ġstruct ure
Ġbu ilt
us ing
Ġindiv idual
Ġinclud ed
av el
ĠJ apan
Ġrel ations
w id
g es
or ph
. ~\
R eg
Ġbuild ing
re ate
T D
Ġfil ms
che ck
0 7
n ers
f alse
Ġind ust
ir l
Ġpr im
ur b
B ig
A ss
200 4
is f
m ost
ĉĉĉĉ ĉĉ
Ġc ou
right arrow
Ġem ploy
Ġar ch
Ġe ither
ic ient
T able
EN T
I R
Ġcl ose
Ġmeas ure
e h
ĠM on
N A
ĠL a
Ġatt ack
ut ions
Ġexpect ed
Ġb order
Ġmark et
Ġs ays
f ord
D O
Ġgr ad
includ e
Ġ= ==
re w
Ġl abel
G roup
ig ation
Ġfe atures
ĠD ep
Ġb ody
Ġdif f
st art
Ġim p
Ġc ustom
one y
ugg est
th ing
ĠL ondon
Ġme ans
et ic
=" #
al y
cent ury
j ava
m ark
l ight
Ġloc ated
and roid
ĠH ouse
tain er
Ġcre ated
re en
Ġm aking
opt ion
Ġv ideo
Ar g
ill s
Ġpubl ished
Man ager
& \
Ġvar ious
Ġ q
Ġt re
=" ../
m m
con text
row n
0 4
Ġcl ub
ge q
ĠD is
Ġplay er
if ier
pr int
ĠB ro
ĠG o
ĠE ast
d o
Ġbir ths
Ġpl an
itt ed
g ed
Ġab le
Ġm en
re ed
val id
L et
ic an
Ġparam eters
6 5
Mod el
Ġserv ices
Ġestabl ished
Ġ} ;
im ation
0 9
fl u
Ġse en
Ġcomp lex
at ural
Ġm essage
Ġli k
ĠH ar
Ġm om
over line
Ġw idth
Ġc ases
Ġstud ents
os p
Th ere
Ġp age
v ec
n et
em ents
Ġab s
ith ub
Ġwork ing
d oc
Ġal ign
Ġ Â
}, \
Ġlim it
Ġb i
ĠA ng
ill ed
Ġbel ow
Ġsystem s
< !--
Ġd est
Ġcont ribut
Ġre ally
fer ence
Ġs ent
r ad
ĠS m
def ine
istr ict
ateg ory
Ġv ia
Ð µ
w ide
Ġh uman
Ġr ate
I L
il ities
ir m
Ġsu ff
Ġdistribut ion
Ġcom e
b or
b ased
) </
F l
Ġc irc
c ap
n ext
S P
i ation
Ġv ill
U LL
M A
p arent
. }
idd le
Ġl ower
Ġn um
ĠS w
arg in
h and
ut es
b uild
g en
Ġw ar
id s
ĠH er
Ġse par
act ive
Ġst ation
B ar
Ã ³
ilit ary
ĠM od
Ġanal ysis
~ ~
ew ork
Ġe ar
un ic
Americ an
Ġme et
ĠS an
Ġg en
pt y
oc r
[ \
fr ak
Ġf uture
st atic
C all
am a
h ib
N o
m ethod
att le
un k
} ).
00 00
0 2
ĠThe n
pt ions
Ġst d
ec ess
Ġadd ition
ĠIn ternational
Ġg ive
bold symbol
eth ing
ĠS et
Ġc ross
ĠWill iam
Ġstart ed
C C
Ġout put
ĠI nt
Ġc ame
Ġconsider ed
9 5
Ġm iss
gorith m
d raw
Ġand roid
Ġwrit ten
Ġmed ia
s i
ĠA ir
is k
g ithub
we b
Ġv ert
S ub
Ġwork s
Ġr a
ag ing
Ġt w
im ens
iv en
Ġe lection
ac ing
y ear
Ġprov ided
Ġp ast
R ead
ĠĠĠĠĠĠĠĠĠĠĠĠĠĠĠĠ ĠĠĠĠĠĠĠĠĠĠĠĠĠĠĠ
Ġke ep
Ġhigh er
0 6
] (
ĠM ich
x y
Ġp ress
ĠTr ans
A p
Ġa verage
Ġspec ies
d ev
o on
ok en
r s
Ġb ool
ar ing
Ġbl ack
med i
Ġappro ach
Ġcomp os
Ġgroup s
Ġa way
Ġb en
fin ished
Ġn eg
Ã Ń
ic ense
ĠV al
f oot
o ke
Ġappro x
Ġparam eter
Ġm er
p ing
ĠS ec
pro t
======== ========
d b
Ġh alf
Ġhow ever
Ġtr aining
Ġp aper
id ing
oci ety
C lient
Pro perty
Ġs uggest
Ġbe gin
ĉ Ċ
ch iev
Ġg ot
c ore
Ġe conom
im age
if orn
ĠSt ud
Ġro und
Ġassoci ated
ar a
is es
H ow
M ethod
ĠN ot
en ame
ĠPh il
Ġprodu ction
ĠA c
min istr
Ġval id
Over ride
act ory
Ġim plement
in it
m it
O S
art ment
i res
Ġs ym
Ġcomm and
Ġm aterial
Ġt ask
m ult
Ġcond itions
Ġfunction s
200 1
E d
Ġon ce
ĠA dd
c hed
ar ies
Ġin f
n s
action s
Ġn il
math frak
ch o
r ict
F A
Ġd one
Ġstand ard
) ^
Ġl ittle
200 3
Ġbel iev
Ġc y
ĠM ark
4 7
pl ied
Ġm agn
ĠTh at
C ount
ev ent
Ġwe bs
ĠF rench
iforn ia
Ġwhe ther
Build er
Ġh om
Ġl anguage
Qu ery
n ull
Ġas k
ĠL et
u el
) (
h a
abl a
d l
Ġact iv
ĠCl ass
ish ing
du c
} }$
ef ore
> (
ce ed
B C
it es
un ch
M S
Ġsat isf
ust er
ph p
Ġdis play
Ġsol ution
Ġg lobal
av y
ld ots
m on
bt n
Ġinst all
L ambda
ĠD o
Ġj ob
E E
c urrent
wit ch
oci ation
Ġeng ine
Ġb orn
D ate
ly ing
Ġth ough
ist ry
ul a
Ð ¸
it ing
an ies
n abla
Ġl oss
un finished
O P
4 9
Ġc le
Ġo thers
ic o
ĠM ore
Ġelement s
Ġc aus
j av
Ġl o
he ight
c irc
6 7
Ġcent ury
S p
Ġt reat
ĠM y
ch an
Ġg e
Ġg raph
Ġmethod s
E nd
s f
h line
p age
Res ponse
Ġcons ist
Ġp air
ak er
ire ction
ĠInd ia
0 3
w ise
Ġadd ed
. \
i ber
Ġst ep
Ġn ormal
ĠD ef
Ġc lear
app a
I I
Ġs che
m ar
ad es
Ġc ertain
ĠR ed
opt ions
Ġt aken
iz ing
ch ange
200 2
d ir
ft ware
H E
ĠD istrict
ell ing
Ġreport ed
t em
ad o
Ġw ent
ĠN or
oc ol
Im age
A pp
ĠAmeric a
l angle
Ġserv ed
Ġ` `
n amespace
or age
y les
Ġs w
un ity
Ġconst ant
sh ip
Ġoffic ial
Ġpartic ip
8 8
but ton
it ect
Ġn ov
Ġdist rict
Ġspec ific
ĠPres ident
ĠI r
Ġhtt p
ĠInd ian
Ġs em
ibr ary
g ing
r up
Ġcon struct
ĠS im
or ge
Ġexper ience
ot a
( (
Ġen ough
Ġg round
Ġin ternational
a el
P I
Ġl oad
el ine
ĠC our
qu ery
ĠCal ifornia
Ġl ive
Ġf requ
N S
Ġen vironment
] )
ho od
O ff
Ġse arch
Ġm ove
r un
Ġcol umn
semb ly
li b
Ġchang es
Ġthe ory
B e
s ing
ic les
Ġd ate
Ġa chiev
Ġsom ething
Ġ< <
Ġmat rix
Ġde cl
Ġobtain ed
t x
Ġacc ording
at al
St ream
Ġs af
Ġth ings
ĠA cc
A M
ord in
) {
ĠC up
at ory
Ġl ed
Ġdep end
ĠS tr
ĠCh ampionship
Ġbe com
Ġe mb
Ġcol lection
Ġcond ition
cl ient
s u
Ġs on
Ġpro perties
ĠE m
add ing
sm all
g le
arg s
B lock
d r
Ġte lev
ist ics
c ount
Ġrele ase
ĠIn ter
} ),
Ġreg ular
A A
a ur
In put
Ġsim ple
ĠRep ublic
ON T
ĠG erman
ĠT est
b urg
ĠĠĠĠĠĠĠĠĠĠĠĠĠĠĠĠ Ġ
ĠU p
A fter
ver se
Ġre ason
Ġinst ead
use um
C he
S tr
in n
ĠH am
Ġfe el
h as
g l
7 7
und le
Ġst op
ĠD em
Com p
Ġ ill
A ct
Ġannoun ced
cite p
rit er
a ign
ĠG roup
ĠP at
e lement
Ġp ur
Ġpr int
ĠF irst
Ġk ind
iv il
G L
ot ed
ab ase
Ġm akes
s pec
land s
Ġs ound
Ġ row
oy al
sub set
Ġd ied
ĠP ort
Ġcour se
\ |
requ est
v is
le ase
Ġl ines
P os
S ource
iz er
St atus
ache s
Ġbeh av
ast ic
8 5
Ġpos itive
Ġsub ject
ĠEng land
U til
Ġrel ated
ar ter
Ġatt empt
Ġest im
it te
at ives
en ed
Ġl ot
W hat
Ġbro ad
in st
i qu
ex p
Ġa ud
Ġd a
Ġtem per
i ers
N av
il es
ĠF rom
ĠCent er
ĠD iv
Ġv er
Ã ¼
Ġmult iple
4 6
ĠĠĠĠĠĠĠĠ Ċ
ens ive
k nown
ro y
Ġh istor
Ġf ig
} )$
om b
k appa
Ph i
Ġl ove
le vel
Ġadd itional
p ol
E X
Ġtelev ision
Ġf all
( {
Ġunder stand
Ġwebs ite
Ġd ensity
Ġcal cul
ĠI N
ĠNew s
ĠSt reet
dis play
Ġb ar
ĠAustral ia
Ġac cept
nav bar
bo ard
r is
o o
ĠL aw
Ġpop ular
y a
Ġc ut
P ol
Ġreturn ed
Ġs old
head er
Ñ Ĥ
Ġam ount
Y PE
Ġpolit ical
irt ual
S C
Ġresp ons
and id
ell ow
l ong
P re
Ġex press
ĠĠĠĠĠĠĠĠ ĠĠĠĠĊ
Ġent ire
Ġw rite
ly mp
Ġmon ths
Ġ ...
Ġrespect ively
ou ch
F ig
li ke
ch ild
Ġhtt ps
Ġr andom
f unc
Ġs cal
c ase
ĠBl ack
Y ou
in ated
Ġim prov
om s
Ġprodu ced
S up
P oint
Ġare as
ig ital
al le
h ost
Ġ- >
eb ug
ial og
Ġn orth
pl ace
Ġch all
Ġcont ain
Res ource
stit ute
ĠB er
ĠCan ada
ot o
Ġcont ains
lo od
enc ies
ĠS en
ĠN e
b ottom
ĠG overn
Ġn umer
p ng
Ġf em
ser ver
Ġp erm
Ġl iter
ot imes
A cc
Ġst atus
un t
Ġcent er
d et
ĠR iver
Ġun it
F irst
A b
à ¤
Ġn ecess
Ġsuccess ful
Ġd ouble
. )
Ġbo olean
Ġnew s
Ġo ption
m ember
ic ation
ov ed
ac ity
ĠA nt
Ð ½
H ead
Ġr ather
9 7
Ġit em
Ġf ather
4 2
Ġcomp lete
am ily
Ġcomp anies
he l
app end
anc ed
Ġ" ""
Ġev al
Ġp rior
B ase
Ġinclud es
In stance
5 00
r l
Ġth ought
Ġrec ogn
in ing
app ing
ĠD on
Ġro ad
Ġmom ent
Ġfr ont
pl ies
ĠS k
text it
ĠG l
Ġth us
Ġcorrespond ing
Ġep is
Ġto day
Ġhe ight
ĠEurope an
itt ing
H T
n es
t arget
P art
Ġcontin ue
ve y
S igma
Ġcontin u
h an
m ing
un n
p c
I M
Ġal most
Ġto ol
ens or
Ġmov ed
ic ult
f irst
U E
ĠG eneral
Ġin flu
9 8
ap ter
id a
pro p
199 9
b ra
ul ations
ĠB el
o e
AT E
ol ic
us ed
ĠĠĠĠĠĠĠĠ ĠĠĠĠĠĠ
Ġ Ã
ĉĉĉĉ ĉĉĉĉ
mb ox
ĠN ULL
Ġph ase
ĠCoun cil
ad ata
Ġb it
ĠP al
ĠM al
Ġcan not
\ %
y r
ug in
Ġte ach
op en
row ser
O D
c it
o res
Ġd ynam
Ġv iol
o z
ob ile
U L
Ġimp act
plic ations
Ġt alk
Ġy et
ain e
Ġcon v
Ġr ank
und er
ensure math
Ġa ward
ber g
/ \
l a
ĠF il
Ġn ight
A ction
ĠCh ina
ĠDav id
L ine
Ġs cale
Ġs outh
Ġb ox
Ġtyp es
qu are
F I
o ch
ul ated
c an
st ream
iz es
k a
d at
Ġon line
O ne
Ġmult i
Ġsur face
ag o
Ġap plication
Cont ent
Ġt aking
9 6
ars er
am s
idd en
O per
p ost
Ġin c
ry pt
Ġf av
Ġres ource
ul ly
Ġde al
Ġwh y
Ġloc ation
i os
c os
al let
Ġfield s
Ġwh ose
Ġc apt
Ġf ail
T oken
c ing
W hen
ub e
Ġact ive
Ġprot ected
Ġquest ion
Ġindust ry
ĠP aul
ĠPart y
Ġvill age
Ġlead ing
il i
Ġst ar
Ġm id
ĠM or
ĠJ ames
Ġcon tract
Ġdevelop ed
ĠDep artment
ra z
G ener
m ain
non umber
ĠH ol
b b
ag on
av en
ent ry
[ "
Com ponent
wo od
199 0
Ġpro of
wh ich
Ġn atural
ig en
C K
v ille
Ġst ream
eg er
Ġv ector
ro te
ĠT V
L ink
Ġpart y
led ge
Ġaut om
S pec
ad ian
Ġcon tr
Ġper cent
Ñ Ģ
Ġprov ides
ĠA ward
Ġf ood
ĠS um
ĠTh om
Ġmon th
H istory
St art
pect ed
fl ow
\ [
ĠS ince
Ġwork ed
Ġpres ident
i ences
ou l
B uffer
V ER
se lect
Ġincre ase
Ġcon duct
Ġl ost
Ġequ ation
ĠR ober
}} {
Ġw est
V ID
5 7
T O
wid et
ĠW hat
ĠHe alth
mod ule
an ish
ab s
ar ian
as ons
6 8
or iz
O ptions
Ġ ir
ind ows
l or
x ml
f ind
Ġj o
che ma
str ong
im ately
Ġ+ =
Ġrelations hip
Ġpol icy
P eople
ĠD i
Ġline ar
u z
ec k
pro perty
C D
d en
ĠR ef
Ġm ag
Ġwh ite
ĠG erm
Ġin j
Ġun ique
m ore
Ġright s
evel op
itte e
ash ington
Ġcurrent ly
H el
c el
Ġex act
Ġs ure
b a
Def ault
m eta
eder al
Ġcl ient
ĠN one
s g
j son
ĠU K
c ial
ĠC r
{ -
Ġeduc ation
gr ad
p ite
r ated
p y
ribut es
Ġc opy
d ots
Ġconc ern
Ġr at
Att ribute
Pro v
od ing
ĠCh urch
ĠW ork
Ġpl atform
Hand ler
Ġt ax
rup t
Ġc atch
Ġup date
Ġvis it
B ack
Ġst re
G r
ch ar
Ġdeg ree
widet ilde
L abel
Ġst age
Comm and
G e
anc ial
O L
arn ing
ĠR ich
im g
Ġin it
s in
Ġiss ues
th m
pec ially
ist ance
ĠL em
Ġlearn ing
Ġt akes
ĠFr ance
R A
ot es
4 1
) ]
e al
| |
ĠQ ue
199 8
et t
as cript
Ġeffect s
4 3
Ġex ecut
Ġm ale
v an
n ected
ip al
ĠR eturn
Ġex ists
L ast
pr ivate
ĠSe ction
Ġp ers
cl ose
st on
Ġh on
Ġne igh
b and
Ġeff ort
Ġreg ard
Ġneed s
Ġdef ine
Ġind ependent
Ġdist ance
ri a
ang ed
Equ al
s plit
R un
ĠAss ociation
Ġdoes n
it ude
if act
\ !
Ġm oney
as c
T ask
Ġperform ed
ri an
5 8
Tr ue
$ {
Ġre v
Ġm ilitary
Ġgo al
loc al
Ġteam s
Ġdet ails
V ersion
Ġoper ator
sk ip
ĠO bject
plic it
Ġoper ation
Ġlik ely
Ġsequ ence
N ull
N D
Ġe ast
Ġfl ow
ĠD irect
Ġlarg er
ict ed
f ont
Ġperson al
Ġben ef
ĠH all
ver y
Ġpro posed
Ġcom es
o ice
Ġtrans form
Ġse lected
s cale
res h
Ġpro te
Ġneed ed
ar io
RE F
or ing
ĠW eb
Ġrun ning
Ġcon struction
P C
G u
w rite
Ġpre c
g ener
Ġf ire
n ov
pr ime
an i
ct or
ĠO ut
r um
w est
Ġin ternal
Ġoff ice
Ġtechn ology
} -
Ġdeath s
ĠCour t
l ayout
Ġits elf
F unction
Ġiss ue
LA SS
Ġwe ight
Ġz ero
Ġmod ule
str act
ri ate
Ġd raw
ĠRes earch
ĠAr ch
ĠM art
Ġfor ce
ot ype
Ġn av
ĠD ay
ĠS ub
N umber
Ġf ace
Ġv ict
in i
cre t
Ġst ri
it ch
if orm
L iving
Ã ¶
Ġse lect
Ġdiff icult
and er
Ġestabl ish
a res
F actory
b ound
ock et
st d
R eturn
R ep
Ġpro p
ed d
" ]
des cription
5 6
st atus
Ġout side
Ġt our
Ġext ends
Ġstud ies
pro ject
M et
ar ily
Q L
Ġf ight
ĠGe orge
f inal
Ġobserv ed
ou thern
I V
} );
ber t
Ġbeh ind
Ġim m
enc ed
Ġcre d
Ġcent ral
el t
Ġcompon ent
ĠArm y
Ġthrow s
ĠM et
z on
Che ck
en a
f e
ugh ter
p ush
L oad
M M
ĠP re
ĠJ ust
l ast
Ġtrans fer
Ch ar
m em
Ġw ords
Ġro ck
Ġ{ @
ict ure
al ax
r d
Ġup on
Ġw rote
n ce
p ack
Ġm argin
D et
* /
ĠM at
k i
ĠC ons
Ġclos ed
ro s
ri ef
Ġcamp aign
p tr
ĠB est
Ġme chan
Ġus es
Ġcon sum
Ġact ually
li er
Ġc andid
Ġes pecially
cent ering
ig ger
un s
u ate
m t
h i
Ġt en
Ġal gorithm
ĠIn stitute
erv e
osp ital
P RO
Ġb all
ang er
P er
Ġset s
ĠO lymp
Ġ ]
E m
Ġart icle
he et
Ġprofess ional
p ass
Ġgiv es
Ġdirect or
Ġt ell
Ġaut o
Ġ< !--
Ġcon str
s rc
Ġlead ers
e in
Ġanal y
Ġw indow
Ġapp oint
Ġop port
ach ine
\ ]
B ox
ag ram
z er
ate gy
ain ts
" ).
.. ..
ann ing
18 8
Ġdisc over
ĠR em
7 8
ĠC ap
W eb
e es
at ur
Ġp ick
ĠWh ile
' re
Ġplay ing
Ġcomp ared
Ġwho le
Ġb ank
ĠI D
Ġre str
ĠS ing
w in
Ex t
Ġexper iment
B A
ĠR oad
E L
ram ework
Ġdesign ed
z eta
Ġpat ients
ĠY ear
en ing
Ġdirect ly
//////// ////////
Ġpart s
P age
ĠB ook
Ġde but
Ñ ģ
ĠW ashington
Ġproduct s
ĠJ ack
ĠD ata
Ġfact or
S ON
jav ascript
Ġbr ing
ĠM usic
Ġpr inc
el ves
Ġqu ick
ele te
Ġarch itect
ĠJ er
Ġr ace
Ġsec urity
Ġre ve
Ġr isk
199 6
Ġequ ival
Ġallow ed
M ed
y ing
M em
. ~
Ġh ours
E nt
Ġm ode
Ġproble ms
yp es
Ġus ers
at ively
Ġad j
Ġman agement
U I
Ġs us
Ġqu al
ol ve
ĠR oman
199 7
E ng
Ġs ample
ĠV ol
Ġcomp ar
Ġfri end
so le
198 0
Ġf ixed
Ġpat tern
Ġc ast
" ),
d ot
Ġl iving
col umn
Ġsh are
Ġn one
Ġex cept
ĠThe orem
Ġs ex
Ġcorre ct
Ġwrit ing
Ġs creen
i ant
Ġmat ter
ĠS ome
Ġto ld
P S
Ġhim self
ree k
ines e
ĠG reen
Ġdid n
y per
Ġrefer ence
Ġde part
\ {
F ONT
Ġinter face
Ġs ens
Ġdem on
Ġmod ern
ĠG L
ĠGerm any
T ER
Ġv ers
Ġform at
ĠE q
} +
ĠT ex
C reate
ĠL ou
o oth
Ġst aff
Ġre ach
Ġthrough out
imens ional
Ġp ack
ĠP e
Ð¾ Ð
Ġw alk
Ġcomplet ed
ã ģ
Ġnov el
Ġcon nection
Ġcharact ers
al ian
uf act
ĠTe chn
Ġfor ward
y e
5 9
ĠO F
ĠComp any
Ġac qu
est ival
iz ations
Ġg as
) =\
Ġcount ries
ic ial
] [
he t
Ġpol ice
Ġf a
Ġim ages
k r
Ġad ministr
Ġsupport ed
ĠP ress
p o
Ġt im
Ġn ames
form at
ĠO b
Ġpresent ed
ĠS pec
ol ar
ĠS ervice
Ġacc ur
Ġintrodu ced
D r
m enu
ĠDiv ision
d ated
Ġall ows
} =\
Ġd rop
st ant
Ġd am
Ġspec ified
Ġser ver
Ġnot e
Ġ ess
tab ular
st yles
oper ator
ob j
Ġs il
ĠV ir
B l
O b
Ġt ro
Ġinvolv ed
Ġsh ip
Ġjo ined
row s
Ġnum bers
ĠF ound
i as
ĠR oyal
Ġcont act
ĠUn ion
con tainer
on ic
ĠM ary
Ġspe ed
ĠA pp
ĠL eg
Ġcontin ued
N ext
ĠB ay
Ġ url
C o
Ġsol id
Ġch annel
Ġprim ary
Ġd irection
Ġqu ality
Ġlong er
Ġw ord
al a
ri al
Ġset ting
ĠS l
N O
in ner
S I
param s
: </
ĠM ag
ĠPro v
ar th
Ġim medi
Ġoper ations
ĠP ublic
Ġmar ried
serv ice
ĠAng el
ail way
Ch ild
( &
Ġgener ated
Ġopen ed
a ud
ĠM ac
ask et
b uf
ele br
ark s
g u
7 6
ĠFr anc
oc al
Ġequ al
; \
id ents
ĠM ount
ĠSc ience
Ġlarg est
} ]
an o
Ġal though
Ġe mer
b on
Ġ& =
Ġso ftware
il ies
n um
Ġset t
Ġtr avel
Ġfin ite
n umber
ĠĠĠĠĠĠĠĠĠĠĠĠĠĠĠĠ ĠĠĠĠĠĠĠĠĠĠĠĠĠĠĠĠĠĠĠ
Ġdec ision
Ġb g
) }\
5 2
Ġth ing
c i
se y
199 5
Ġlevel s
5 1
T em
on ly
Ġm other
ĠG od
empt y
ill ing
Ġgrow th
Ġm ention
ĠC ong
ĠS am
Ġed ge
res ponse
) ^{
p df
u a
ous ly
// /
Ġh it
But ton
Ġus ually
ge bra
b in
inal ly
em ic
Ġeffect ive
ify ing
C ell
ĠWh ite
Ġpolit ic
end if
ĠDem ocr
F T
Ġt ree
he st
pro cess
Ġd im
Ġbas is
il er
ĠS ociety
id ay
Ġbo ard
up date
Ġinvest ig
AB LE
ot al
U s
clus ion
Ġh ot
Ġtemper ature
Ġfollow ed
Ġobject s
Ġsign ed
ĠAfr ica
f ect
Ã ¤
ĠO pen
ĠA lex
T op
ĠM ex
fil ter
Ġent ry
C ON
wit ter
D B
om orph
Ġmax imum
Ġw oman
< ?
Ġdiffer ence
Ġfil es
5 4
C L
A ut
ĠE v
Ġrad io
Ġg irl
ĠM er
c up
ref ix
comm and
, -
Ġw ife
ĠAustral ian
Ġco ach
Ġf ont
ĠIs land
Ġj ud
R em
b our
Ġcom ment
y es
Ġincre asing
ip p
L e
Ġthere fore
ĠC E
c s
Ġse lection
ĠO ur
ĠG old
{ (
Ġcon nect
Ġdemon str
ĠAc adem
ĠB en
Ġun c
Ġde ep
Equ als
sh ow
Ġs ense
at tr
Cont roller
Ġsym met
P P
Ġsong s
ed y
ra el
Ġch urch
act er
Ġphys ical
p at
it ar
u ated
Ġv eh
q l
Ġag re
m id
ĠO f
I O
Ġcou pl
ĠM iss
Ġpro gress
is ions
Ġto wards
`` `
Ġ( (
l en
or se
Ġdef e
ann ot
ĠCl ub
ens us
ĠMich ael
m ission
S D
#### ####
Ġdef inition
ã ĥ
197 0
Ġfil ter
ind ing
Col umn
Ġlook ing
ĠD uring
Ġw atch
ic i
Ġide a
C an
Ġ â
refer ence
tt p
Ġin side
S U
Ġro t
u it
so ft
v est
un it
Ġhe art
Ġb ad
Ġbook s
199 4
ov ers
in stance
Ġexp and
lem ma
ĠD el
Ġschool s
all s
Ġs aw
Ġav oid
Ġg ave
ant ic
Ġm us
Col lection
List ener
P O
n ote
Ġsol utions
Ġrel ative
Ġtrans port
AT ION
Ġc am
Ġs ources
Ġh ous
lo or
ĠS al
ĠT ime
ĠT om
Ġsh all
Ġex pression
}_ \
m es
to ol
199 2
Ġcour t
$ )
g n
Ġn or
Ġdis e
u ge
ir it
ĠM ad
ĠTex as
Ġal tern
ol f
ĠH T
Ġev idence
S O
vent ion
omet imes
ult ure
f it
Ġdev ice
Ġrecord ed
air s
}^ \
ĠM us
ĠAn n
is ation
Ġchang ed
Ġro om
C A
Ġv irtual
ĠP ost
a o
P T
st ar
for ce
Ġ ;
Ġst ore
Ġtrans ition
e ch
f ort
a a
Ġp ain
wide hat
S im
Ġe ight
ĠT ur
pro to
fil es
Add ress
Ġmain tain
Form at
ER T
Ġbg color
ess ages
M ar
ĠC LASS
om a
Ġprob ability
5 3
Ġc a
Ġtreat ment
in ct
cd ots
r ate
Ġso on
d ec
g s
H O
ĠRuss ian
7 9
ĠA re
} /
P si
duc ation
' ).
ĠT ype
ay ers
ĠR ad
Ġse em
Ġcon cept
Ġread ing
}) \
Ġdo ing
Ġpl ant
B r
Ġr ule
F O
equ iv
Ġhold s
Ġs n
ĠFig ure
Ġsp in
ĠCO VID
ĠR ead
w ell
Ġassum e
UR L
n ormal
am l
P R
Ġst e
Ġst ars
M ode
A g
Ġb re
7 2
S o
erv ices
ĠN ow
ĠG ames
ĠW il
L ayout
ail y
Ġsur v
rem ove
Ġit er
Ġreturn s
Ġch arg
ie ce
Ġappe ared
ĠCent ral
Val id
Ġan sw
ĠH REF
ict or
el se
back ground
z a
U rl
Ġco ordin
Ġhe l
Ġsc en
k y
m as
Se lect
ĠR ob
ĠD an
Ġex hib
th at
iss ions
t ag
Ġsim ply
3 00
el oc
ev e
hed ul
Ġsign al
F e
Ġro ot
Ġnecess ary
Ġcompon ents
out put
Ġdescri ption
199 3
Ġpract ice
ĠH en
j oy
Ġcol lect
T P
Ġinst it
ĠL og
Ġj oin
ĠF ore
Ġopt im
Ġprevious ly
Ġstart ing
ĉ ĠĠĠ
ri er
b reak
Ġquant um
ed ge
W ork
l n
Ġpass ed
ĠThom as
Ġlim ited
ĠF in
il ton
Ġd oc
Ġap plied
ĠCar ol
Out put
Ġun its
ĠSup er
ro ad
we ight
ĠT own
P ost
ĠH ere
os en
Ġapp ly
Ġreg ister
Ġcrit ical
d epend
ent al
P ar
sup port
d s
w rap
Ġtrans l
u id
Ġpl aces
ĠRober t
6 9
Ġm ount
Ġm ix
du ction
d ep
( -
Ġd ark
Ġs ports
oot str
Ġf un
ĠCh inese
Ġm ind
F L
Ġf ailed
ĠSer ies
text width
St yle
Ġs eg
Ġup per
ĠK e
ĠF orm
Ġor d
val ues
Ġmin utes
h ing
t hen
Ġex c
ur a
Ġmem ory
Ġde b
Ġget ting
pro x
Ġstud io
Ġbehav ior
ĠGr and
Ġincre ased
Ġ( "
Ġbir th
F C
& &
ĠCan adian
he nt
Ġcom ing
Ġsub s
Ġrem ove
B undle
Ġst ay
="../../../../ ../
eth er
ĠS y
Ġ\ {
al ed
Ġcult ure
L ength
ill er
ĠAfr ican
mer cial
v ed
B U
Th at
Ġre comm
S ec
ĠN ote
} |
ĠM useum
ĠM ont
erv ed
sc ope
Ġrem ains
Fil ter
evelop ment
Ġd ram
S ince
> >
Ġrecent ly
Ġbound ary
T YPE
anc y
ĠO ver
ĠSc ott
az ine
Ġp urch
Ġqu ery
A V
por ary
ĠJ ew
Ġj ournal
ter m
c r
ic ate
Ġbecom es
ĠT or
Ġf it
ig hest
ĠTh us
ĠFl or
ĠSm ith
ĠS ur
Ġsmall er
Ġ ~
Ġcho ice
ri p
Ġc ause
D ev
{ {\
Ġag o
Ġwe b
od ed
_ .
Ġear lier
ar p
en ge
ĠChrist ian
at rix
Ġl ack
Ġform ed
q quad
Ġsc ient
omet ry
Ġdom ain
Ġw ait
M ax
Ġse ven
ang es
Ser ver
CO L
asket ball
ill a
it a
f loat
Ġy ield
9 4
d i
199 1
Ġn om
ĠB uild
ĠIn c
ic ol
u an
Ġcon ver
}} (
Ġres ources
Ġdirect ed
Ġs en
6 3
B o
ist an
Ġr ules
a uthor
ur t
us ion
ĠD et
ans ion
ĠO ther
util s
l s
Ġad apt
Ġk m
ĠH el
ĠG reat
Ġeas y
e an
li ament
O pen
os ph
Ġstre ng
M in
tr ack
ootstr ap
umn i
pre t
Ġexist ing
ĠGo ogle
ĠA tt
v ant
Ġf ast
Ġfin ancial
old er
it ory
9 3
Ġa im
st ack
S l
Ġd ed
. $
ĠH istory
Ġchall eng
ĠM em
g reg
Ġepis ode
ĠSe e
Ġsy mbol
re me
) -
c a
Ġcap ital
ms elves
ĠLem ma
o j
Ġknow ledge
9 2
ĠA PI
ĠD ec
Ġask ed
Ġt ag
ĠAcc ording
art ifact
Ġro b
Ġelect ron
et ch
f ill
Ġclass es
ick et
Ġfr ame
ĠVir gin
Ġrel ig
ĠFranc is
Up date
Ġan g
D F
ef t
6 2
pon ents
V is
ĠJapan ese
th let
OR T
ĠAr ray
++ )
Ġarg ument
Ġda ughter
Ġre li
ĠF e
Ġrem ain
ĠE X
ir ing
oriz ont
ĠWest ern
Ġthe mselves
ĠR E
K E
Ġwrit er
Ġn ature
at re
Ġvari able
S he
Ġleg al
s d
set s
=" -
Ġrepresent ation
Ġconst it
d rop
Prov ider
ĠMin ister
Ġman ufact
M y
id ers
Ġs ort
ian ce
k it
T ag
Ġde cre
Ġqu ite
Fr ame
ef ined
Ġ* *
Ġsc ience
D o
Ġover all
Ġ$ (\
ĠKing dom
Ġc ard
NA ME
Ġfor ces
or ial
Ġfe ed
ig er
ĠFr ank
ing u
Ġcall back
. /
ot ion
Ġsub sequ
}^{ (
C ase
Ġfinal ly
ĠR ock
ri b
ĠB ill
Ġc elebr
ĠL icense
ã Ĥ
{ }
G o
IN E
as et
& =
pro ve
{ {
Ġprob ably
9 1
Ġa x
ec ause
on om
R I
Ġfam ilies
ex pected
C ache
i h
S A
Ġstat ement
f a
ann ed
Ġmiss ing
Ġact ivity
tern et
ĠComm ission
Ġsc ore
mod els
ĠO per
Ġn uc
6 1
s ign
or a
M on
ĠM el
Ġ ensure
Ġbegin ning
Ġex tra
Ġinter view
o om
ĠF ile
Ġun s
Ġg alax
ĠPro gram
ind ent
Ġfin ished
ĠK ore
ic ago
R el
W idth
ĠJ ose
Ġv s
ĠS T
Ġ[ ]
^ +
Ġmed ical
Ġrun s
Ġf ra
Ġorgan ization
Ġrec over
Ġan im
Ġt er
ĠM r
Ġk illed
A ccess
P A
ĠC ath
Ġm icro
Ġth reat
Ġw ide
Ġbeliev e
Ġs end
Ġle ague
ot ic
ER R
Ġact ual
ĠH ill
Ġh ol
Ġmean ing
}\ ,
at in
( [
Ġcon nected
ic ated
d ocument
7 4
ĠAr g
ĠRev iew
is l
ul ate
Ġse ems
Cont rol
S H
ĉĉĉĉ ĉĉĉ
ĠT able
ĠA ut
it z
ĠAcadem y
ĠIn st
class es
196 0
cit et
Ġtr ain
Ġconfig uration
Ġw id
off set
Ġ& \
re land
comm on
Ġg old
tem plate
} :
Ġa uth
Ġass ist
Ġc ivil
Ġfem ale
th on
im ages
Ġf ully
ĠLou is
ĠE nd
Ġm iddle
Ġqu e
op l
ud d
Ġa w
Des cription
ell a
k m
Ġpro ve
Ġactiv ities
m atch
E l
Ġpred ict
re y
N ow
B S
c over
Ġvol ume
Ġet c
ĠIs rael
AP I
im ents
Ġvari ables
ourn ament
uct ure
ant a
ĠL ife
ĠC amp
Ġt it
S earch
ex ample
os ing
4 00
Ġwe ak
Ġd igital
Ġpre vent
orizont al
Ġweek s
R ow
S cript
ĠB ank
Ġs ession
iver se
Ġre lation
Ġpre m
Ġb ur
it able
198 9
Ġstud ent
t ree
oun ter
Ġequ ip
sh ould
1 000
}\ \
Ġfound ed
Ġbro ught
ĠIt alian
math sf
Ġr ap
Ġart ists
Ġin sp
Ġw ays
ĠH istor
rel ated
Ġpro ced
et te
ec ute
j ection
ple te
Un it
el er
ig inal
ĠB ig
N N
h r
fr ame
C R
ul let
ĠChar les
Ġst ated
Ġde ad
Ġre ached
Ġh ighest
Ġ ign
od er
h ouse
Ġqu arter
cript or
Ġcoll abor
' ),
7 3
Ġchar ge
8 6
U M
Off set
Ġnot hing
Ġrepl aced
b es
ĠRuss ia
Ġpe ak
ig an
r ong
Ġe mail
yn ch
Ġdel iver
yd ro
Ġh um
clud e
Ġpre p
and a
Ġstruct ures
Ġcoun ter
T e
ĠRec ords
f ree
O p
t ml
E M
Ġit ems
Ġtr ade
ĠBo ard
7 1
ĠL os
Ġab ility
() ->
G B
T ypes
ing er
Ġed itor
os h
cont rol
f s
ĠW omen
Ġp en
Ġpro per
ec ution
Ġgener ally
ĠY our
Ġtrad itional
requ ire
ĠZ eal
Ġhand le
Ġcell s
Ġsh ape
Ġlist ed
alle l
Ġappe ars
b ool
Ġf loat
Ġlead er
Ġem pty
Ġwant ed
Ġc op
R ev
par se
mat rix
ĠM ass
Ġart ist
Ġdec ided
az z
ag ger
Ġatt ention
( {\
P ort
Ġfri ends
ick s
Ġen joy
ĠR el
Ġ! ==
Ġfor ms
ĠP o
ak ers
Ġle ave
ĠC D
ad ow
I F
Ġv eloc
ect ors
Loc ation
**************** ****************
Ġmov ie
T arget
Ġrece ive
Ġparticular ly
c at
ĠP eter
198 8
Ġman ager
Ġdeterm ined
ĠJ ournal
Ġarg s
AR T
ĠV er
Ġant i
com ing
ĠSt ar
irc raft
ĠZeal and
ĠT O
im ary
con f
Ġre pe
Ġp ark
ĠSe cond
art s
Ġpart ners
Ġreg ions
Ġe lected
C P
l anguage
CO DE
} +\
s pect
Ġm is
= {
tt y
En c
Ġpres ence
Ġap plications
N E
T ree
Ġcom pl
in y
t og
g ate
Ġs witch
Ent ity
t ex
ĠFound ation
Ġfig ure
Ġl ives
Ġother wise
ĠFlor ida
Ġgr ant
operator name
om ial
h space
re es
Ġorig in
Ġneg ative
B O
Ġill ust
Ġpress ure
mod al
Ġe arn
Ġprogram s
Ġbuild ings
ĠM o
Ġmeet ing
ĠGovern ment
Ġeconom ic
C urrent
' $
ound s
Ġbel ong
umer ate
s ite
M ore
ĠF ield
UL T
N ote
ĠU nder
ro ot
ĠRich ard
ĠB ase
m itted
ro om
b efore
ĠA v
Ġb al
Ġstud ied
Ġalbum s
198 7
ĠN S
Ġpr ice
k ind
R L
Ġsh ot
ĠL ong
m ut
ĠCong ress
om ic
% ;
f g
b order
p atch
Ġche m
Ġproject s
cre te
Ġmov ement
D irect
Ġc ore
ad y
Ġtry ing
ĠPro ject
styles heet
p g
) /
v ector
Ġev olution
Ġ Î
re al
u int
N et
et ime
Ġvari ety
Ġsp ent
ur i
Ġquest ions
ollow ing
Ġcol lege
M D
r ics
Ġevent ually
Ġsl ow
ib ly
Ġex ception
Ġex am
En try
Ġbl ue
ĠL ake
artifact Id
icro soft
Util s
= #
Ġv an
p es
Ġdr ug
Ġoff set
Ġrequ ires
ĠD ev
Ġoff ers
] );
ĠB usiness
ĠM ost
Ġp anel
ĠI ll
Ġfav or
he ast
( _
o i
unc hed
Ġappoint ed
il s
Ġpro file
c ache
Ġu int
="../../../../ ../../
Ġprot ect
ac ement
Ġpl aced
Ġequ ations
w indow
Ġsc ope
D D
ĠPar is
a fter
ĠComm ittee
Ġm ut
ol ute
d ist
Inter face
] $
ĠT op
Ġrepresent ed
i en
Ġgu itar
Ġany thing
Loc al
ab it
| ^
ĠThere fore
ap prox
Ġcompet ition
Ġf ix
ĠSum mer
ole c
s cal
$ (
M ark
Ġcle an
i pl
ĠF ootball
ĠL and
Ġb us
Tr ack
Ġgre en
Ġext ension
d imensional
ĠT wo
Ġs ch
Ġdescri be
Ġob j
Ġocc up
Ġre con
Ġden ote
Ġbe aut
He ight
Ġf oot
Ġfour th
Pro cess
Ġevery thing
\ "
ap se
k er
b i
Ġgre ater
Ġst ories
Ġresult ing
A m
ic ens
ĠC re
ĠDirect or
M O
ĠU kr
if est
Ġhigh ly
res ents
Config uration
Ġl en
Ġim prove
olv ed
p op
Ġse ek
W indow
Ġsh ared
uss ian
all ery
ne q
er ry
Ġequival ent
Ġgo es
Ġs ometimes
Ġprodu ce
Ġl ayer
D ec
return s
C opy
Ġrat io
Ġb uffer
ell ig
w rit
Ġnear ly
Ġc it
Ġdest roy
ĠD en
Ġredu ced
ar l
Ġelect ric
oc ation
Ġsum mer
Ġon es
Head er
Ġad opt
8 4
Ġgr and
Ġn et
ĉĉ Ċ
Ã³ n
Ġcho ose
Pos ition
Ġcon vert
av ed
ĠGe org
Ġext ended
ari ant
ĠD E
or ation
Ġeas ily
ĠEng ine
ind er
ig r
I B
8 2
Ġs cript
prot otype
V AL
Ġm ur
The n
Ġbro ther
Ġch ain
Ġsit uation
ag ment
S chema
Param eter
in em
b uffer
g raph
ĠCh icago
Ġatt ribute
ir us
ev en
fl ict
Ġse cret
Mod ule
p ers
Ġarg uments
} -\
Z E
Ġin cor
ĠReturn s
ab ilities
sy ch
ed s
ĠT HE
Ġp aint
Ġparent s
t ask
198 6
ĠT imes
Rec ord
Ġb ottom
Ġcaus ed
Ġplay s
ĠAngel es
In st
ĠAt l
al ysis
Ġl ock
Ġ{ }
P L
group Id
ĠAl so
Ġsome one
ĠB rown
ĠI reland
8 9
ĠIt s
Pro ject
ru le
Ġneigh bor
l am
ĠD u
ĉ Ġ
C S
ĠG en
at o
Ġp adding
es h
Ġn odes
" ))
Ġinterest ing
ĠP an
ĠV ictor
Ġess ential
Ġh yp
Ġh ope
' m
Ġdise ase
B J
iction ary
ĠE ducation
Ġest imate
L evel
ate st
Ġget s
er c
}} {\
x space
out e
y an
198 4
Ġim plies
Ġnot ed
Ġfrequ ency
the orem
raz il
sh ire
Con tainer
Ġpl ans
Ġass ess
Ġstr ategy
ĠAr ts
O ur
Ġdeterm ine
cl es
ĠS il
Ġper fect
r or
w ar
Ġimmedi ately
Ġbas ic
D A
ven ue
ĠĠĠĠĠĠĠĠĠĠĠĠĠĠĠĠ ĠĠĠĠĠ
h igh
Ġn orm
re p
Ġoriginal ly
sc r
ĠT im
ĠC am
to ken
a uth
t im
am ing
Ġ ::
IN T
Ġst ations
ĠN ame
erv ation
H ash
Ġlate st
Ġco eff
c ar
ĠVirgin ia
ol a
orn ing
ern el
ent ity
se cond
Ġappro p
Ġc ategory
ĠS ocial
ĠB i
Ġne ut
Ġcont aining
doc s
act or
] \
or ter
IG N
ĠP enn
er g
ĠC ast
Ġro ute
Ġapprox imately
res ource
Ä ģ
ĠFil m
Ġbe y
Ġgo als
it ors
ap ers
ish er
S y
ol k
ĠK n
iqu es
Ġspect rum
ĠU s
Ġdem and
ĠS und
ĠPro fess
ug ins
Ġquick ly
P at
Ġfact ors
198 5
is ms
Ġp ackage
or al
Ġsh oot
Ġindividual s
ĠM ax
Ġagre ement
Ġp ull
ĠFor ce
8 7
Ġst ra
Ġmin or
Ġent er
line ar
Ġsur round
ĠT our
Ġbey ond
Em pty
Ġmin imum
Ġis n
roll ed
Ġcommun ities
Ġrem aining
at ically
ĠOff ice
Ġrecord s
P i
ick er
Ġcomplet ely
J son
Ġsl ight
Ġopen ing
M N
T V
Ġrem oved
Ġsay ing
Ġin str
j a
Ġmat ches
W rite
AL L
Ġbr and
Ġident ity
Ġmagn etic
ĠS pr
ateg ories
Ġshow ed
Ġun iform
tain s
Ġal t
ic ine
Ġuse ful
Ġc ook
Ġra ise
en umerate
Ġtest s
ĠAs sembly
Ð »
Ġerr ors
dev ice
ar ant
E v
su ccess
Ġr ates
Th read
ĠC reate
ic ons
ĠSp anish
ĠChe ck
Ġw ave
Ġt ouch
Ġwork ers
ut ch
H ttp
ĠHe ad
Ġ- \
Ġcom mercial
d im
c ard
v ision
ĠS un
Ġf arm
olog ies
b ootstrap
cl os
du le
Ġl atter
ond er
d ebug
Ġsp read
Ġc orn
Ã ¨
ific ations
ĠOr der
rom e
COL OR
Ġal umni
Ġex plicit
Ġs al
Ch ange
ĠAl though
> ,
r ange
Ġsh ift
res hold
' ve
il ed
ĠTe am
ĠN etwork
se ct
ir med
ent y
ĠF re
ens ions
ple t
c z
D own
Ġcrit ic
le ep
ĠM ur
Ġw orth
ot ing
h ash
Ġcomput er
Param s
re ct
um in
ĠT re
Ġturn ed
n el
ĠO h
ĠM a
Ġfootball ers
Ġmov ing
ĠIt aly
Call back
H ere
ĠG ener
Ġd u
T C
ĠMex ico
Ġm ission
cri be
app ed
item ize
as ion
N one
I ST
Ġl ibrary
-- -
Ġtem plate
Ġredu ce
R ight
ĠSh ow
Ġident ified
f ound
S L
Ġno ise
g ence
: (
Ġbe g
ĠOlymp ics
K e
c oll
m aterial
Ġ* )
ra it
Ã §
wh ile
as y
Ġh yper
Ġgiv ing
Result s
af e
Ġsc ene
oc key
m ake
Ġa ctions
AC K
R ange
ĠCath olic
ĠP et
end ar
d el
Ġ util
Ġcap acity
am m
ĠF estival
Ġf air
n orm
Set tings
Ġsaf ety
") );
Pro t
Ġdistribut ed
ĠSec ret
as hed
Ġp ri
ĠTr ump
ĠP eople
Ġprov iding
x x
P op
t f
Ġal gebra
P ass
ĠĠĠ Ċ
s ystem
co pe
Ġsm ooth
St at
Ġsuff icient
ĠO R
Ġbroad cast
Ġaff ect
Ġin fo
Ġpo or
ĠB re
Ġprocess es
al i
Ġstra ight
Ġset tings
it ation
198 3
ĠS ol
equ al
Con nection
Ġd ou
im a
Ġpur pose
Ġv oc
Ġhouse hold
M C
ĠPl ay
reed om
ĠB as
Ġac adem
urre n
Ġs amples
T I
19 50
Ġtest ing
Ar t
Ġdim ension
Ġre ports
b ing
Ġcon cent
Ġa mb
Ġw ind
Ġm unic
Ġmajor ity
Ġfeature d
ĠM ap
M ult
Ġst eps
Ġv acc
ĠC all
M enu
ĠD evelopment
Ġrep resents
A c
anc ing
ĠF ace
Ġrem ained
Ġlead s
Ġs ave
Ġsepar ate
t n
ĠT em
ĠO l
Ġf if
ĠB ur
D ir
Ġunc ertain
Ġf ramework
ĠH ot
) +
Ġpr iv
h over
is hes
Ġvis ual
Ġcl uster
Ġestim ated
hen s
Ġdat abase
d irect
ust ain
) }{
n y
Ð º
Ġla unch
b al
Ġc ert
k in
od ay
ĠL ine
ĠHen ry
c p
ĠĠĠĠĠĠĠĠĠĠĠĠĠĠĠĠĠĠĠĠĠĠĠĠĠĠĠĠĠĠĠĠ ĠĠĠĠĠĠĠ
Ġcons ists
D on
Ġveloc ity
ĠO ld
Ġch osen
Ġun known
ĠE conom
Ġsche me
Ġgener ation
() :
k ins
ĠCh ild
N e
' .
ĠG ame
pe ople
Ġin form
Ġcar ry
Ġfil ename
Ġsit es
ĠR un
i able
ast e
Ġclass ical
Ġ> =
Ġcl in
Ġhe avy
O ther
ĠCarol ina
ĠI S
on a
Ġcou ple
Ġla unched
Ġold er
Ġf ederal
Ġa ircraft
Ġresp ond
d est
atal og
) }$
Ġ" \
i ro
F ont
% %
w a
urs or
and emic
Ġmention ed
Ġinter pret
if ies
ĠYou ng
O ption
Ġimplement ation
D ep
8 3
ell ed
D IR
Ġevery one
Ġexact ly
ĠCh ief
wh ite
C al
co in
p anel
f ocus
\ ,\
8 1
Ġb rief
Wh ile
k o
Ġann ual
S ign
$ }
Ġm achine
I A
M e
r ich
U se
ĠG a
ĠMart in
ĠK h
ĠD ate
ian a
U P
ak a
s v
198 2
ĠB G
ri age
v space
ä ¸
no indent
J ohn
Ġinter action
ad s
ĠSc ot
Ġx ml
Ġfl ag
Ġc ru
Ġe cho
Ġwin ning
m ode
as ure
con s
AN D
( :
ann els
os is
Ġas pect
Ġser ious
und red
Ġbr anch
ig ration
ĠH ome
ĠMed ia
inter face
Ġ\ |
ar c
M atch
ul s
Ġinflu ence
Ġex amples
Pro perties
ĠL ee
AT A
struct or
ĠG ood
Ġse a
AG E
A re
ri end
Ġhas h
Ġn ative
Ġparam s
h aps
: "
al o
Ġcall s
Ġcon sequ
s ur
L ong
w s
Ġ eth
ĠL u
en v
we et
ĠUS A
Ġsy nt
ĠSw ed
Ġsc ored
Ġv oice
Ġover ride
Ser ial
t ure
ĠP y
foot er
i pe
Ġrespons ible
Ġcre ating
ĠM il
Ġgener ate
' ll
Ġexp ansion
Ġp refer
25 5
Ġoper ators
ac ific
c opy
Ġw ood
Y ear
ĠL ove
As ync
ĠAss ert
Ġs quare
ĠA wards
b as
Ġth r
Ġag ent
Oper ation
D ocument
E CT
ro t
? :
Ġrele vant
c ient
ĠEx ception
Ġen h
in ations
ow ers
Ġder ived
ĠN OT
Ġf irm
Ġh op
Ġun ion
ĠSt e
Ġth read
D at
N on
ct x
Ġocc ur
ribut ion
E C
g est
Ġaward ed
ĠV is
ĠJ un
ank s
T itle
c ur
T im
Ġj oint
Ġv ote
Ġmot ion
}} _
ud get
Ġopport unity
197 9
ĠF ort
j oin
Ġstr ict
ĠM ethod
Ġtr aff
Ġtr a
Ġend ed
Ġh ar
ĠE arth
Im pl
st ep
Ġsur pr
Ġ _{
d x
Ġdes pite
Int eger
Nav Bar
ore t
ult ural
L eft
Ġmost ly
c are
Ġfore ign
ĠL ibrary
Ġcl imate
! !
ĠHam ilton
Ġp oll
s end
if ically
15 0
v as
\ }$
Ġtrans action
ĠM ov
ac cess
Ġb illion
Ġb attle
Ġdiscuss ed
ish op
ĠB et
Ġinit i
S u
b ind
en um
ici ency
ult s
Ġe igen
Ġto ken
Ġserv e
ĠTr ue
as er
pos es
P erson
Ġro ll
au ge
w an
Ġsignificant ly
Ġdr ive
Ġmeas ures
m ann
Ġpr ison
ov iet
S ession
Ġbu y
Def inition
Ġmed al
ard en
ir al
Ġadv ant
ĠH aw
Ġco ast
} '
Ġstr ateg
ĠReg ister
; "
Ġwh om
ul y
at i
Ġenc our
leg al
Ġlet ter
aw s
P o
in ternal
c ut
Ġliter ature
cl ick
stit ution
f aces
yn omial
Ġdist inct
ĠS ervices
W E
Ġb asketball
av ity
=" /
Ġref lect
ĠL in
Ġtr ust
Ġj av
ĠP ubl
Ġs ociety
ist ers
v a
dis abled
Ġcontr ast
add ress
Ġcompar ison
~~ ~~
Ġeffort s
ĠS pe
id ae
Ġat tr
Ex pression
ma zon
Ġorgan izations
Ġch ief
R ed
Q ue
D S
z ing
ad ium
us band
block List
Ġed ition
ĠJ im
St ore
198 1
ĠU se
ĠE r
h y
Ġar m
X ml
ut y
est ed
com ponent
Ġsen ior
Ġnetwork s
ĠIr an
Ġs ales
Ġappear ance
Ġf ans
## #
ĠE qu
Ġsing er
Ġmaterial s
}} }
ĠTechn ology
trans form
Ġm aster
& #
' >
Ġb lood
Ġact or
ĠB ob
Ġcandid ate
ĠCol or
L S
Ġ[ '
P H
du ced
ce an
Ġm ill
bit r
Ġcontinu ous
S k
tr m
ĠE ach
Ġdiv ision
ĠSt ep
l ines
Ġw ild
ĠĠĠĠĠĠ Ċ
S m
Ġsp aces
Ġra ised
Ġgrow ing
est s
ul k
ĠVal ley
Ġs plit
Ġpl ot
wid get
p ower
ĠF urther
Ø §
li e
he m
ĠM os
d elete
ĠW ood
Ġ er
im inal
ĠS u
ĠU N
D raw
ic ity
Ġ( -
tex trm
ĠJ ud
ans as
g lobal
Ġh arm
D om
Ġform ation
urre d
Ġn ation
Ġw rong
ĠJ o
ĠE lect
ty pes
ĠThe ir
197 8
Ġcomb ined
Ġtool s
Ġthe orem
d eg
ex port
Ġt ournament
ĠW ell
Ġim ag
ĠEn ter
Ġhand s
S um
Ġst orage
Ġown er
197 2
ĠAr ab
ĠL i
L a
H ost
C ore
Ġmet ric
ĠO p
Ġhelp ed
Ġex ternal
U B
u ations
bl ack
Hel per
Ġm aps
at ers
Ġf elt
Or der
er ies
Ġw or
med ia
ĠĠĠĠĠĠĠĠĠĠĠĠĠĠĠĠ ĠĠĠĠ
ix el
os oph
=" _
Ġm ixed
ĠMod el
ang ing
if ul
ĠB razil
197 6
ol es
ian o
f ull
T ool
Ġex tract
' ],
Ġpart ner
fr am
Tem plate
Ġh ospital
un ities
p ool
ic ed
Ġobserv ations
Ġres olution
W S
Ġr ul
ĠJose ph
Ġauth ors
ĠD om
min us
Ġal leg
st one
ym met
The se
ĠE mp
Ġcustom ers
Ġar rest
Ġac com
ĠII I
are n
Ġp iece
Ġsup ply
text tt
Ġp an
ip eline
Ġph il
sh ift
stand ing
T S
How ever
Ġ ut
k l
ir a
cont in
ĠG lobal
ash ion
Ġs ector
Dev ice
ĠS aint
pl ugin
t ers
= (
Ġder iv
================ ================
Ġo il
ynch ron
Ġpl ane
Ġbecom ing
param eter
O K
ost on
S ing
Cl ick
ynam ic
Ġmus ical
Ġcar ried
D L
197 4
ograph ic
Ġin nov
. ;
clus ive
Ġcur ve
s pe
s ort
AT H
~ $
Ġwrit ers
Ġ} )
d ates
Ġcost s
s ession
V er
X X
ms g
Ġpol y
c lear
ĠAs ia
ple x
I l
ed ia
Ġass ign
ĠC ON
Ġp le
fr ont
Ġapprop riate
ST R
Ġin come
to String
Ġrem ov
ab y
Ġtri al
under line
on ym
Ġon to
j i
van ia
hand le
p adding
ot hes
Ġc at
Ġun ivers
Ġsus p
Ġc os
V ector
PE CT
Ġmeas ured
197 5
ad er
ĠE p
Acc ording
il arly
ĠR equ
ĠMan agement
ĠM ath
Ġcan cer
c ategory
subset eq
Ġis land
-- >
Met adata
Ġp andemic
ĠT ri
Ġhe nce
ĠP ower
Ġoffic er
et ry
ĠIn formation
ĠCent re
O M
ph one
il ation
ĠJohn son
P tr
field s
< \
Ġpos itions
Refer ence
s ol
D uring
v ol
atur day
Ġcent re
ob s
Ġtyp ically
Ġunderstand ing
Ġcl oud
Ġin fin
ul f
m ond
Ġown ers
ex ports
pro duct
ast r
Class es
Ġde lete
amp ion
l ers
ĠSund ay
Ġoffer ed
in ant
}} ,
Ġext rem
Ġmur der
Ġcomb ination
\ '
Ġcover ed
Ġcit iz
Ġdev ices
it an
pro d
ĠBG COLOR
ic ies
197 7
Ġfail ure
g a
ĠK ey
Ġinteg r
h s
m en
b an
equ als
ĠWe ek
rec ord
ĠH and
l ook
n ap
in et
E Q
Ġr iver
he mat
Ġfor ced
ĠSpec ial
Ġemb edd
ĠCon ference
= -
all ow
ov a
^ -
are er
C I
196 8
Ġconsist ent
Ġal one
Ġident ify
Ġdepart ment
c f
Ġr are
Ġent ered
fram ework
re q
Ġth ous
ub y
Ġinteg er
P RE
Ġcomp act
ell ar
ĠS ar
H ome
Ä ĩ
16 0
Ġro ut
Ġf ine
ĠV iew
E arly
ĠJ ones
Ġat tract
Ġp ages
I con
r ick
Ġdep ends
Ġansw er
ay lor
vir t
Ġdet ail
H as
S w
Ġp ush
v m
M ain
ĠJ ac
form s
An y
Ġ ice
con nect
}^{ -
inst all
erm al
se ud
197 3
Ġst ock
Ġsur vey
Ġpolitic ian
ĠC ross
ĠSt and
Ġin ner
Not es
ĠFace book
Ġin tr
math scr
ĠW al
CT ION
b u
Ġ icon
ERR OR
Ġconstruct ed
Ġprot ocol
l ig
Ġst ack
angu ages
he lp
n am
Ġle aving
um s
ĠP ak
c hen
Ñ ĥ
if fer
Ġsaf e
tog gle
Ġex change
Ġform ula
ult y
ĠB ack
ĠL iber
Ġm olec
Ġk ing
ĠIr ish
c ustom
opl us
; /
ĠJ SON
ĠT ra
ĠA R
ĠCol umb
G ET
N ames
Ġfore st
ĠBl ue
; ->
Ġr ing
Ġse asons
ĠN avy
sy l
St ack
ent er
in f
ful ly
ĠNor thern
I ter
ack et
E ach
Ġarchitect ure
est amp
r ical
OR D
R ect
Ġread y
ud io
ress ion
ĠH on
P arser
at ial
Ġshow ing
Ġl ived
Ġcontribut ion
C or
M ay
ap plication
Ġ$ {
ic ip
ug by
ne ctions
ĠP ri
ar ia
Ġc ool
ĠI P
Ġh usband
ĠB ow
depend ency
g ers
Ġact ress
1 20
ĠC ard
Ġl if
Ġup dated
ĠSp ain
Ġin her
Ġfam ous
put e
Ġcontain er
un ct
Ġnumer ous
Ġprodu cer
ĠT ele
ĠE vent
ĠR am
Ġar bitr
The ta
ĠB u
ellig ence
go ing
Ap plication
ĠPar liament
Ġr an
Ġrel atively
ĠA ND
and ra
F alse
sh ot
Ġlo op
in ate
Ġman aged
Ġpart ies
Ġst ress
Ġvert ex
ck now
ro ph
Ġdr iver
ĠMich igan
Ġinitial ly
C re
ĠC y
ĠU ser
co q
Ġrap id
f n
Ġrad ius
up s
Ġdynam ics
web kit
Eng lish
Ġh undred
Ġvert ical
Ġ$\ {
Ġw all
Ġslight ly
Ġmet al
OR M
ĠComm unity
Ġstreng th
mult icol
Ġser ial
cl aim
âĢĿ .
pl ugins
197 1
rop y
Ġfl ux
{ $
h ere
d ouble
ad or
Ġin fr
est er
omet ric
U RE
m iss
it ness
et ing
ĠF ree
por ate
Ġc ities
sec ut
por ation
Ġsh op
ino is
def inition
syl vania
Ġdi agn
196 9
st ein
pect ive
st ore
Ġestablish ments
ĠP op
ĠM ain
st at
pos ite
Ġdel ay
Ġreve aled
Ġcomm ission
ĠL im
ĠT witter
Ġexist ence
Ġcon flict
ĠM any
19 40
> ();
Ġdep th
ĠL O
Ġp ert
N G
r id
a ver
Param eters
Ġn ine
if old
urb an
ĠM ond
gr ade
Ġres idents
ĠChampionship s
ĠT er
il a
Ġown ed
Ġch ance
os a
Ġter rit
ĠW ales
ĠPol ice
Ġb ill
Ġstr ugg
air man
ac le
W ill
Ġc ache
Ġd og
ĠP oint
multicol umn
ĠS ir
M B
n amed
ec es
id get
od ies
ĠFr iday
Ġdiscuss ion
id el
Ġw aves
ed nes
ĠWilliam s
Ġsc atter
Ġch ampionship
Ġaltern ative
ik i
( *
ĠW ay
F urther
S R
Ġpro test
S ION
Ġnew sp
Ġund efined
ell er
Ġp aid
="../../ ../
Ġdat aset
Ġes c
em ail
Mem bers
ĠÂ £
Ġbut ton
igh ter
Ġnot ice
Ġ ×
ĠG i
g g
ĠH uman
Ġcontin ues
Ġblock s
Ġemploy ees
im s
fo o
Ġpol ynomial
ĠM en
Ġhead er
^{ -\
ĠMed ical
In valid
Ġexper iments
ann er
: \
Ġch art
Ġw rap
Ġrem ember
Ġhistor ical
$ _
Ġclaim s
Ġcommun ication
D I
Ġpar se
Ġatt ended
ploy ment
D ebug
] ]
Ġre asons
Ġpro ceed
set tings
S ome
Ġaccur acy
Ġany one
ur ies
sc ape
Ġoper ating
Ġseg ment
F ound
ry st
Ġincre ases
Ġdirect ory
Ġ ens
ner gy
Ġc ounty
ĠHT ML
ð Ł
Ġan gle
Ġs outhern
Ġo s
ĠPl an
K ind
Ġt or
m i
25 6
Ġrestr ict
ĠL ead
Ġh ydro
Ġrefer red
ĠL ord
y er
Ġbound ed
Ġtre nd
Ġsp irit
sh ort
ĠS ports
b re
Ġp il
foot note
Val ues
Ġw allet
ĠG al
Ġ ul
equ ality
iv ery
ĠB oth
al ing
z ero
urs day
as i
Ġpre tty
ĠA L
lim its
Ġpol ar
Ġtraff ic
Ġp lease
Ġd aily
re nder
f ly
Ġph one
Ġcomm it
Ġtechn iques
Ġn amespace
Ġdi agram
ke ys
Ġvict ory
clud ed
Ġr ise
Ġm ask
ĠW ater
p a
Ġlook s
Ġcle arly
Hand le
Ġpartic le
pt on
f amily
w er
Ġmain ly
ĠS outhern
ip ality
com ment
ĠRe port
Ġp urs
r an
u er
Ġdown load
ĠI d
Ġ( '
A pi
}} _{
Ġcomp are
Ġcy cle
; <
ĠP acific
hold er
Ġp ool
D oc
IT Y
Ġexperiment al
Ġpro pos
Ġcult ural
rom ise
Ġdram a
oth ing
Ġnor thern
Ġadd ing
ĠDemocr atic
Ġprocess ing
ĠV an
Ġfl at
V ar
Ġdis s
ang ular
j e
B ook
Ġun iversity
ĠCar l
Ġproced ure
em porary
} "
og en
Ġcom ments
Ġrest aur
Ġuns igned
ag raph
19 30
Ġdiffer ences
att ice
ĠP ass
Ġcre ation
Ġrequire ments
Ġpower ful
Ġd ual
Å ¡
ĠJ oe
Ġm orning
sp ring
ednes day
ĠM P
ott ed
Ġeff icient
ĠFrancis co
ĠN av
Ġm obile
ĠP rem
Ġconduct ed
Ġcomp ute
h om
hedul ed
-------------------------------- --------------------------------
ĠSt at
Ġ$ |
ent h
Ġform al
196 7
ĠM ah
P arent
ĠĠĠĠĠĠĠĠĠĠĠĠĠĠĠĠ ĠĠ
Ġpartic les
ap y
Ġoffic ers
ff ect
ĠB attle
Ġr ac
Ġh idden
ĠL uc
annot ation
ĠRad io
ad min
Ġun less
Ġmag azine
Ġvoc als
k g
> .
result s
Ġ$ .
eng er
ĠOr gan
set minus
Ġsem i
Ġg un
h ar
Ġd ig
ĠE ven
Ġfe et
Ġveh icle
Ġequip ment
Arg s
194 5
i y
Ġs qu
Ġdet ection
Ġth er
Ġexpress ed
ins ert
ĠC ode
Ġv ac
imens ions
Ġinterest ed
ĠEX PECT
it o
z en
ĠK en
G S
ĠV alue
Ġd raft
W orld
Ġrelig ious
Ġofficial s
Ġt al
z z
U l
and on
_ ;
Se ction
ĠPenn sylvania
Ġhe ard
ĠSec urity
De cl
Ġadministr ation
ition ally
ĠIs lam
A F
ĠS oviet
ĠDes ign
point s
Ġ( $\
Ġdis k
Ġag reed
Ġthem e
Ġl abor
Ġconf irmed
str a
ion e
b el
sq l
ĠG re
The y
urren cy
proto buf
Ġf le
Ġap plic
ĠS ong
âĢ ĺ
ist ent
Ass ert
arg ument
b ury
it age
p an
% )
ĠâĢ ¦
Ġregard ing
ri ev
Ġview s
Ġp y
eff ect
gy pt
enn is
Fig ure
ĠC ivil
ple ments
est ic
ĠAp ple
ĠM A
' ))
Ġstart s
T A
ĠSen ate
_ +
ay a
Ġvis ible
am in
B R
Ġp hen
ĠSc iences
Ġabs olute
Ġb att
ab eth
w ords
m aster
Ġke pt
Ġwe ap
\ }
Ġmeasure ments
ĠP M
R ule
Ġsecond s
Ġad vert
Ġ{ };
Ġachiev e
Ġmin im
N um
Sh ow
aw a
ĠG reek
ĠProv ince
rodu ction
Ġbehav i
ĠEmp ire
Ġse at
d agger
Se cond
By tes
iv ial
Ġclaim ed
Ġreg ional
ĠM ot
Ġanaly t
Ġallow ing
ĠD own
Ġcalcul ated
Ġin line
ig in
ell i
istr ation
j ust
Arg ument
s che
R ender
ĉĉĉ Ċ
Ġp p
D ialog
Ġ\ ;
ĠOh io
Ġc ensus
ĠHistor ic
ĠF amily
ram es
def ined
l as
n umer
D P
aut o
by te
Ġatt end
gorith ms
196 4
f ony
Ġr ail
let on
reg ister
Ġdet ect
Ġp i
od d
ĠB oston
Ġst able
Ġdet ailed
Ġem ission
ĠF I
ĠL ie
ĠThe atre
Ġins ert
our ney
Ġg auge
at ible
Ġ+ +
in ion
Ġf loor
Ġby tes
ly ph
ra wn
Ġa ware
c uss
el a
ĠMc C
19 20
Ġto ward
Ġdiscover ed
ĠInd ust
p erson
Ġiss ued
Ġide as
on to
k es
ĠBrit ain
reg ion
Ġtrack s
Ġby te
ĠL ab
ym fony
Ġtechn ical
ĠAs ian
Ġadj ust
at uring
ament al
Ġchall enge
ĠIll inois
) |
Ġel im
ĠJer sey
ĠC oll
Ġle aves
D i
Ġpart ial
Ġfl ight
Ġart icles
Ġeconom y
ĠN ight
: #
in itial
n eg
ch er
cl oud
AC E
Ġded icated
ĠE very
ĠGeorg ia
Ġcon sole
em y
Ġport rait
re place
d ict
Ġsp ot
R oot
ĠS and
196 5
D R
ĠW all
B efore
st op
Ġtask s
u ing
burg h
Ġob vious
Ġent ity
6 00
bo olean
Å į
Ġear th
Ġass igned
el ess
ĠS aturday
A ME
B ody
Ġdam age
Bo olean
sh all
ĠO x
Ġ ult
l ife
press ed
n one
id en
drop down
ew idth
Ġor ient
Ġocc urs
Ġbusiness es
ach us
ang o
ĠH a
Ġfra ction
Ġvers ions
_{ {\
Ġwas n
Ġsu c
Ð° Ð
Ġgu arant
uck y
Ġtri ed
i ate
il ly
Ġl ies
het ic
A ust
HT ML
Ġrecord ing
s en
astr ucture
ĠQue en
Read er
SE T
ĠW ild
Ġcam era
ĠOn ly
Ġcont ained
j o
Ã ±
call back
ĠCol lection
ĠA ri
Ġhapp en
Ġind epend
Ġleaders hip
ĠM iddle
EN D
Ġelection s
Ġinstall ed
Ġs ister
Ġserv ing
Ġp ure
up le
an es
Ġcon ference
Ġ' /
Back ground
D C
Ġp icture
Ġloc ations
ĠPol icy
` .
big g
et ts
Ġj son
Ġpl anning
Ġaccept ed
ĠM id
ĠC amb
Ġb inary
ad el
Ġgr id
R ad
el d
form ance
r im
Ġinvest ment
ce ived
P ackage
Ġint ended
ĠJ on
ĠJew ish
) "
Ġgalax ies
W riter
Ġpair s
mod ules
_ *
L P
Ġadvant age
Pol icy
Ġcontribut ions
Ġre ject
rad ius
ĠB ern
ĠF und
ide os
ĠL o
ĠMore over
al g
ru it
Ġs ph
ĠH arr
Ġa head
ĠU RL
ĠI O
C ustom
ĠPh ys
Ġre nder
Ġachiev ed
Ġfund ing
Ġm ock
Ġb oy
ĠM ajor
Ġsk ills
Ġopt imal
ĠCo ast
Ġconstr aints
j ar
ad ing
ĠT ext
Ġtr av
W A
ĠR h
ag ers
Ġst reet
ird s
Ġe yes
sh ape
In itial
Ġattack s
ĠM u
ĠM ult
align ed
w edge
' d
ĠM ike
Ġcl ust
r idge
D em
pos s
ĠSe a
b ullet
Ġv ary
Ġc ars
c pp
En abled
Ġle tt
ĠA ff
Ġh our
Ġpat ient
anc er
ĠC ro
ib li
ĠA mazon
Ġfind ing
Ġbe at
ĠR et
Ġed ges
Ġorder ed
ĠUkr aine
Ġmod ified
Ġfocus ed
ific ate
ĠK ong
Ġmon itor
Ġrepl ace
ĠJ r
Ġhe at
Ġf re
Ġap i
C ar
Ä ±
M I
196 6
Ġsuc ceed
e z
Ġf ish
ĠCE O
w riter
Ġcall ing
Ġs ampl
b ro
M ock
ĠN et
un a
Ġ ),
Ġsatisf ies
M ENT
a is
H z
Ġdes c
Ġm essages
Ġrecomm end
m ic
ass ets
25 0
ĠRepublic an
ues day
ĠIn itial
ĠJ eff
virt ual
V ari
Ġex tr
Ġexecut ive
Ġin equality
Ġprote ction
Ġindic ates
ĠCh ris
' \
ĠJust ice
al id
ĠK ent
Ġr ailway
Test s
Ġcl ick
Ġar my
ele ase
N ational
T ab
Ġt ensor
ĠAnd rew
ur er
Ġp et
w ater
D elete
ent ed
ĠL y
Ġspe ak
bl ue
Ġclass ification
Ġfin ish
Des criptor
Ġh uge
Ġapprox imation
"> &
Ġfac ilities
ell o
Ġnot es
H S
achus etts
Ġmoment um
ĠF ar
n ames
omorph ism
ad r
W rap
' _
Ġindic ate
ĠA N
On ly
ost er
Ġprop ag
pre c
il ing
ĠChrist mas
ĠH ospital
Ġsymmet ry
Ġappro aches
uz z
Ġstat istics
FA ULT
Ġw ants
By te
Ġide al
ĠEd ward
Ġ$ [
un te
ĠâĢ ¢
oll ary
Ġneighbor hood
ĠA uthor
ĠJ es
Ġyou th
M T
m argin
Ġ< =
St orage
Ġen able
pass word
b ot
Ġs port
ĠC a
__ (
ĠSt an
Ġaud ience
D Y
V ol
Ġp sych
ĠB ecause
Ġbenef its
en ant
us es
Ġsim pl
ĠDan iel
I E
pro perties
ĠL ight
EX T
h u
ĠF ederal
Ġsex ual
m osph
Ġtyp ical
E rr
Ġcrit er
g ency
r ine
aw n
Ġis ol
ĠAn y
k et
Ġso ft
ath an
Ġact ors
ap es
b ad
Ġg ain
ors hip
Ex p
cl ip
Ġs ell
h ome
ĠScot land
G E
Ġnumer ical
Ġpl ants
sec urity
ĠW alk
v in
Ġtre es
} %
Ġdefe ated
ab il
Ġimport ance
Ġassum ed
Ch anged
ph as
hent ication
Ġcol on
Ġtr uth
ĠW is
Ġcon vers
Ġprov ed
ĠW in
Ġsim ulations
gr id
? âĢĿ
Ġocc urred
Ġro ugh
Med ia
Ġredu ction
s el
ĠP age
. '
b its
ĠG irl
C areer
Ġsuccessful ly
Ġb tn
Ġcal c
A v
Ġo dd
ĠT w
Ġ\ (
o ir
t ri
St ep
ord ers
Ġrec all
ĠRep resent
Ġchem ical
Ġall oc
og y
ict ures
ic ients
ĠC opy
Ġcorrespond s
ĠL ink
ĠR o
con nection
Ġ$ -
Ġcy cl
Ġre ality
Ġbeliev ed
ĠRe al
P ublic
ĠH ence
H igh
B est
Field s
Ġlaw s
Ġestim ates
Ġenvironment al
ĠS O
Ġf resh
12 3
ins on
ĠW ho
Ġmass ive
ĠJack son
Ġapp arent
ic er
ĠW indows
Ġl ab
KE Y
ĠR ay
Ġcorre lation
c ases
Ġm iles
12 8
ear s
Ġl icense
ist ical
ap pe
Ġsuggest ed
art ers
Ġax is
ym pt
ĠTh ursday
in v
ĠPhil ipp
=" ">
Ġdr ink
in line
ĠF inal
st ats
cre d
s creen
Ġ| \
ed it
item s
r ices
Ġke ys
Ġme ant
ol ver
B i
Ġch annels
ĠK r
g reen
og ene
Ġth reshold
Ġp m
=" @
Ġs ustain
ind s
Ġt end
ĠE rror
}} (\
F R
Ġcons ult
ĠSecret ary
ĠMond ay
Ġb log
ĠSp ace
8 00
Ġspect ral
Ġh tml
), \
r ase
Acc ount
Ġm sg
ĠBro ok
ĠW ednesday
Ġabs or
p et
nt ario
Ġvert ices
ĠPro position
or gan
Ġsim ulation
Ġhe ar
ĠT aylor
ing ham
or ney
Ġexper t
j pg
! [
iz abeth
Ġinvest igation
Ġchalleng es
Ġ il
ĠU r
l ow
ĠA M
ï ¼
ĠAb out
Ġrepresent ing
Ġpro min
ĠF ire
* {
che ster
ĠB ang
Ġexper i
ud es
in ity
j query
Ġimprov ed
th read
oc cer
ĠA ction
ĠPr ince
ĠK ar
Ġinv oke
1 10
ĠIn vest
Ġb ass
C M
Ġg ather
Ġpar allel
Ġse ctions
b en
ĠF our
Ġc er
âĢĿ ,
Ġsol ar
Ġb udget
Ġwin ner
lin ewidth
ĠS U
Ġinteg ral
Ġcompos ed
Ġm useum
y o
ĠAd ministr
Ġwest ern
Ġf lex
Ġdo or
Ġsum mary
Ġf ill
sc roll
l g
ĠBro ad
Ġcirc le
M eta
Ġpl us
ĠE st
Ġc row
Ġtr igger
Ġcoun cil
or i
Ġintrodu ce
Ġcred it
u ous
Fil ms
ĠL ittle
Ġg ap
Ġgen us
ĠProfess or
D el
s he
ĠS E
Ġaff ected
not ation
Ġrem ote
Ġtrans formation
Ġhigh light
Ã £
Ġex cell
ron ic
up load
Ġad m
Ġconc ert
Ġdoc uments
196 3
uck et
ĠPort ug
Ġopport unities
ĠE gypt
Ġsett lement
196 2
ĠB or
l ay
a ught
Ġlearn ed
Ġdef ense
Ġpol icies
um es
Ġcom edy
Ob j
ĠL ast
Ġsecond ary
Ġth ick
Ġexpl ained
ĠMus lim
Sup port
L ock
Ġp al
at ar
Ġmark ed
Y k
Ġinter val
Ġacadem ic
pro file
ĠL atin
Ġassum ption
Ġf reedom
) }(
Ġstrong ly
,\ ,
Ġp od
[ :
Ġset up
Ġnuc lear
) ).
ĠGovern or
ach ing
if er
B I
SS ERT
el come
_{ -
Ġsm art
Ġf ellow
el i
Ġcoupl ing
Ġarbitr ary
Ġbr idge
Ġinstr ument
Ġveh icles
N OT
T wo
Ġdevelop ing
oper ation
ar ation
. *
Ġd ie
Ġdep ending
des c
Ġkn ew
Ġbal ance
ĠI l
Ġs quad
Ġd ream
Ġsh ut
Ġcandid ates
am i
ĠMass achusetts
Ġmot or
call ed
ĠStud ies
ĠĠĠĠĠĠĠĠĠĠĠĠĠĠĠĠ ĠĠĠĠĠĠĠĠĠ
$ /
Ġjav ax
att ribute
L C
ĠF C
uns igned
ĠV ersion
") ]
Ġag ree
ĠN Y
S end
Ġadopt ed
Ġatt ributes
ĠK im
N etwork
ĠC A
ĠU sing
Ġs un
sub figure
Ġr ich
J SON
Act ive
==== ==
Ġmar riage
Ġcr ime
G eneral
Ġreg ime
equ ence
Ġwid ely
Ġpre par
Ġcorn er
is c
ĠĠĠĠĠĠĠĠĠĠĠĠĠĠĠĠ ĠĠĠĠĠĠĠĠ
st able
sk y
Ġhapp ened
Ġcitiz ens
Ġassoci ation
ĠF alse
Ġacqu ired
Ġdr iving
Go ogle
w all
) ),
Ġbenef it
import ant
Ġsom ew
Id ent
Ġmod es
Ġcover age
Ġs pl
H R
Ġsing les
Ġfor t
ex ception
medi ate
Ġmed ium
Y i
Ġcr is
ĠL ocal
Ġbeg ins
Ã ¢
am ber
Ġv en
b ell
Ġphot ograph
Ġmeasure ment
Ch annel
Ġadv anced
add r
Ġam plit
Ġtr ained
FI LE
G en
Ġmechan ism
Ġadv ance
Ġact ing
Ġd b
D T
Ġinter actions
m ock
Ġnear by
f ix
rec ated
ack s
Ġdist ingu
ĠB ol
Ġreview s
ro vers
per p
ul pt
p ay
Ġoper ated
ĠUp date
ĠA sh
av or
g it
Ġl anguages
Ġregister ed
ri e
tain ed
Trans action
f old
ĠEast ern
Ġhous ing
Ġ Å
ĠSt art
Ġtr ail
o es
ĠB a
e per
Ġ} \
__ __
Ġend s
ĠL ive
J Q
Ġprofess or
Ġex port
Ġanim als
ado op
Ġro les
k w
Ġearn ed
Ġcre w
ĠComm on
Ġprim arily
Ġbr ain
Ġaud io
r ons
ĠS om
n i
` ,
X T
eg o
Ġjob s
Ġdeg rees
Ġper haps
Ġz one
% ,
Ġsh ips
an th
B E
Ġan cient
ĠN O
ĠSup port
atter y
for ward
ist ed
est ion
ĠKore a
VER SION
Ġexpand ed
194 4
Ġtell s
Ġbeaut iful
Ġdynam ic
}$ -
ĠS i
m I
te en
A uthor
l aw
st o
ĠEx t
ĠR os
Ġd ro
ĠB ell
Ġcol lected
ĠM ic
Ġact s
ak i
Ġinj ury
Ġcomput ed
it ical
Ġp ra
ĠM icrosoft
g ame
Ġb right
Ġb rowser
on ia
Ġk ids
ĠAre a
Ġsupport s
ur ance
Ġ rom
m o
h ol
Ä į
Ġarr ived
a ug
Ġm ac
ĠWil son
acc ount
M R
O e
Que ue
ĠR om
Ġfig ures
ĠN umber
Ġal gorithms
ĠS ign
Ġsp ring
Ġtw ice
on al
By Id
ĠB oy
are t
Ġacc eler
Ġs ides
ch ain
ts d
Ñ ı
//////////////// ////////////////
######## ########
S ch
ier arch
ĠTh ree
Ġpolitic ians
TE ST
Ġturn s
Ġd oll
Ġchang ing
sup er
Ġlim its
Ġf ashion
M at
à ¸
Ext ension
ag a
Ġplan et
Ġdec ay
pr imary
J an
Ġread er
196 1
W est
] :
Ev ents
' }
Con st
AR Y
Ġa wards
ĠD ar
B it
Ġ" /
ĠIn ternet
Ġfund s
c oh
_{ (
im b
ĠK enn
ĠD utch
sum er
ĠColumb ia
h orizontal
dom ain
Con s
ĠA k
Ġ era
W idget
Ġp itch
Ġre ct
F ull
f riend
Ġpartners hip
Ġmatch ing
ĠL ike
ĠH ong
Ġhous es
l ate
Dis play
Ġalong side
Ġr ain
p icture
Ġviol ence
Ġdef in
Ġcapt ure
Ġd anger
Ġdiv ided
Ġspe ech
V ideo
B rit
V D
Ġf an
Ġ% }
se lected
Ġinc ident
Ġn arr
ĠMin istry
Ġenc oding
ĠPol and
ĠE nergy
t ip
Ġbig gest
m c
C ap
Ġord ers
ĠC irc
com es
Ġw arm
Ġclin ical
ĠW he
le an
com ponents
s ch
ĠDef ault
p resent
ĠComm and
P ool
Î ±
Ġimplement ed
ĠR en
K oi
IN FO
M ember
Ġex erc
Ġperson nel
Ġd ance
Ġconsider ing
Ġr aw
) ^{\
Ġsign ature
Ġfact ory
Ġcoeff icients
ĠO ntario
h ab
ly n
Ġscient ific
ub V
ĠSt ation
RO M
A uth
not es
e ach
Ġgl ass
Ġsh ock
pos itory
}^ *
Ul I
c QL
JQ Yi
MN mI
tf Gu
Yk Koi
ubV tfGu
cQL BJ
YkKoi ubVtfGu
JQYi UlI
c ert
G C
Ġfe aturing
Ġe ye
ribut ed
Ġassert Equals
R est
Ġs yn
Ġpl anned
Ġ+ \
por ated
Ġ( *
Ġa thlet
Fe ature
Ġem phas
r f
key word
c md
YkKoiubVtfGu Oe
Ġpur poses
ĠGu ide
Act ivity
m ove
)\ ,
ĠEngine ering
ĠT uesday
Ġthe oret
ĠV ill
Ġinstit utions
Ġc as
ow a
ĠEn vironment
u v
f ol
ev in
Ġepis odes
t wo
all oc
Ġsub stant
du ce
Ġcr iminal
w ild
Ġf uel
ĠB ad
Pl ay
ĠP aram
ĠN iger
Ġfac ility
G R
Ġcustom er
Ġl attice
194 2
Ġscal ar
C ast
Ġclub s
E q
Ġsuggest s
ĠEx ecut
im pl
P ATH
mult i
ĠM ir
ĠP ath
Ġa f
Ġphot o
anc el
=" "
Ġcur ves
if ts
ĠE th
ing ly
Ġwe ather
Ġret ired
ĠOx ford
Ġcommon ly
Ġautom atically
ist ant
ast ers
Ġsupport ing
Ġb urn
ĠGu ard
Ġlook ed
ĠAn other
Ġrec ip
Ġlist ing
ĠT H
Ġsub set
ĠAmeric ans
ĠPr ime
ĠIn f
C F
Ġstand ards
Ġdec ades
Fil es
Ġexpl ain
Ġac comp
s uch
Ġcon ven
Ġm orph
out heast
Time out
ĠS us
Ġtechn ique
cknow led
ĠS em
ĠTr ust
)) )
Ġgu ide
Ġfif th
Ġpro port
ĠR od
ĠInd ex
Ġengine ering
Un ited
Con d
J ob
Ġt ab
ĠJ ean
ĠReg ion
S ports
ĠSup reme
Ġl at
Ġpolit ics
Ġcar bon
n etwork
t otal
Ġd ir
Ġk ill
Ġrece iving
is a
Ġn arrow
w ait
Ġb ond
Ġpattern s
aly t
Ġeff iciency
con sin
s ave
ĠBe ach
Ġf ell
ĠCont rol
Ġnew ly
ĠR og
ĠN C
is er
Ġd iam
Ġfunction al
Ġprote in
Ġen abled
ĠR est
w orld
Ġadv oc
P U
Ab out
Ġe lev
n ic
Ġlarg ely
ps on
Ġprinc ipal
h ow
Ġext end
olog ist
ap h
ex ternal
Ġs ale
ĠC H
ĠC orn
G O
ĠF unction
il ib
ĠPak istan
Ġh ers
\! \!
U sing
br id
ed itor
ĠN on
195 8
Ġhon or
Ġcolumn s
ax is
ĠP en
t w
Des c
Ġb in
Pat tern
Ġposs ibly
( !
Ed itor
v s
ĠEx per
Ġsing ular
Â °
ĠH ard
Trans form
Ġw onder
r at
Ġextrem ely
y ard
Ġspec ifically
Ġteach er
agon al
ach ment
ĠOff icial
Ġrequest s
Ġsp atial
Ġh or
ĠM aster
CH E
lim it
Ã£ o
c am
Ġcon nections
ĠAlex ander
S M
Ġat mosph
Con str
nes ota
Ġdis pl
195 6
Ġcoordin ates
Å Ĥ
ĠV iet
195 9
N ov
Ġinsp ired
() {
Ġde com
ann a
19 39
Ġus ual
Ġtri p
iven ess
Ġpi eces
ch annel
ĠL ear
yd ney
ĠB on
ĠA li
Ġdistribut ions
Ġindust rial
text sc
O pt
ri um
Ġprogram ming
i Äĩ
ĠC as
Ġte le
Ġhand ler
ĠAd v
P AR
sub subsection
@ "
10 1
ess ions
194 8
ĠA z
stru ctions
Un iversity
Ġpr ime
T ABLE
d em
P y
Ġmin imal
Ġsubsequ ently
Fl ags
Ġorgan ized
ĠC ur
ĠG ar
ĠC ount
reg on
iv ation
el ly
ĠE lement
ph ia
ou red
Ġopt ical
ĠC at
end ix
Ġgirl s
Ġdef end
h ard
ev ents
Ġp erman
ĠCor poration
Ġrepe ated
Ġdescri bes
and y
are a
A U
tx t
Ġag ric
for all
p ir
Ġm enu
semb le
Comm on
ig a
enc ing
al so
ĠH ung
} </
Ġhel ps
Ġab stract
ĠTor onto
er al
ĠB BC
it ivity
ĠMin nesota
ident ial
ĠL ew
att ers
G raph
33 33
ĠR ailway
ĠĠĠĠĠĠĠĠĠĠĠĠĠĠĠĠĠĠĠĠĠĠĠĠĠĠĠĠĠĠĠĠ ĠĠĠĠĠĠĠĠĠĠĠ
us hed
ĠF ood
ĠC are
Ġc old
Ġpen al
ĠD O
T ube
Ġfind s
pr ise
Ġeval uation
Ġ$ $
Ġcaus es
ĠĠĠĠĠĠĠĠĠĠĠĠĠĠĠĠ ĠĠĠĠĠĠ
Ġpass ing
c b
th ur
Pro duct
Ġgre w
Ġtre ated
Ġm apping
tab s
ĠS ant
Ġphen omen
ĠEl izabeth
iz able
on ical
Ġpract ices
W indows
w p
() ));
h l
Ġbase ball
Eng ine
ĠF inally
It ems
âĢ ī
Ġpart ition
ĠAir port
U ID
ĠT R
Direct ory
Ġshe ll
ON E
ĠB al
ly wood
194 1
enn es
ĠBer lin
eder ation
an z
Ġfund amental
ele gate
h adoop
ĠF air
in her
P M
Ġcris is
Ġc e
Ġrem ark
) _{
f i
ĠT am
ex ists
Ġpert urb
v ing
ĠN E
Ġcomp r
Ġent ries
Ġre nd
ra q
12 5
Ġinstance of
Ġperform ing
adel phia
195 7
) ">
Ġconf irm
R et
F loat
S cope
ĠUn ivers
o or
zon a
Ġs an
ĠB C
ĠR ights
se x
ap ore
ro ut
ap ol
rop ol
ur d
art icle
ĠMed icine
O wn
ost ic
ĠB ul
Ġnav igation
Ġv on
ĠC reek
end or
Ġv ision
col lection
Log ger
ut f
ĠA venue
Ġv ent
Ġden otes
ord an
Ġserv es
Ġdes cent
ĠH y
eng ine
Ġlist en
Ġrecogn ized
Ġt ail
Ġcapt ured
Ġcharg ed
G A
ĠVictor ia
ĠS a
ç ļ
Sec urity
Ġman ner
in er
s ime
Ġ ri
Ġ ^
Ġconcern s
d ependent
LO G
ĠD igital
im it
Ġl ie
w orth
s ince
Ġinv ariant
Ġm and
w hen
let s
the me
) ^{-
Pro p
MA X
col on
Ġsurround ing
ro le
que ue
Ġcompos ition
Ġlabel s
S N
G lobal
Ar ch
li k
er ial
Ã¡ n
or row
Ġh y
ic ing
Ġli ber
ĠIs lands
195 2
sime q
194 3
cont roller
ak ed
ĠAnd roid
M sg
B B
Ġl ayers
194 6
Ġsubsequ ent
tain ment
Ġsp ons
Ġcomm ittee
In ternal
i Ã³n
Ġe q
Ġh abit
à ¥
.~ (\
Ed it
D av
L IC
ĠT ask
Ġcont rolled
ok es
ĠN ext
ential s
s chema
Ġc ategories
Ġnuc le
Ġag greg
f ire
ch or
Ġex ecution
erv ative
Ġ urban
ĠScott ish
he im
N T
ï ¿
Ġcan cell
oun try
lo op
B rowser
out s
Ġb ed
ac ent
$ ).
çļ Ħ
Ġaw ait
ĠP erson
F S
ĠF ox
Ġoption al
ĠPl aces
Ġexper iences
In it
Ġfootball er
Ġtr ace
Ġw arn
) {\
ĠO ption
Ġag ents
ĠCon fig
int on
tool s
ĠM ember
Ġunder lying
Ġin n
B as
Ġhe av
ĠSt eve
H ER
Ġthink ing
H L
ĠE U
act s
Ġm ist
Ġexpl an
Ġcl ients
Ġre action
Ġhistor ic
ot on
ĠO s
ĠJ ava
ind u
Ġg lob
Ġest ate
L o
rop ical
Ġv ideos
J ava
pm atrix
ĠC R
Ġj ourney
id i
v i
Ad apter
Ġex pos
Cl ose
ĠM ake
Ġhapp y
Ġh ockey
Ġmed ian
ĠSpr ing
ĠL abor
Ġse ed
ĠIm age
Ġh air
ro ke
195 5
Ġthan k
Ġbound s
Ġw ish
Ġexpl ore
p ot
Ġsec ure
Ġinvolv ing
Ġtrans lation
Ġhold ing
ĠC ustom
ĠBel g
ĠE nt
osoph y
Ġc ov
de cl
ock er
ĠC ase
Ġ= \
ĠR on
Ġinteg ration
Ġmat rices
Ġres on
Ġinv alid
ĠCom put
Se lected
Ġ= ========
ask a
Ġtop ic
Î ¿
Ġco al
Ġw inter
Ġappro ved
ï¿ ½
Ġ[ ];
ĠV en
ĠAn th
n ight
os itory
Ġoffer ing
Ġn g
Ġyield s
ĠG ro
Ġprofess ion
Ġauthor ities
ĠT y
z ed
ra ham
ot ional
Ġm yst
ir k
ĠL ater
-> _
Ġhers elf
Ġk ernel
Ġcharg es
ĠP ers
Ġl ib
ĠP C
ĠT ok
Ġg one
T erm
Ġtit les
Ġobserv ation
B AG
ak h
b at
Th us
Ġret ail
Ġacc ident
assert Equal
Ġad vent
Ġaspect s
N C
Ġmarket ing
Ġfa ith
M any
f all
P ay
ĠArg ent
Ġag ency
Ġobserv e
In ternational
play er
Ġeast ern
ĠS on
k t
$ $\
Ġst ored
Ġbo ost
M usic
ĠR aj
In v
Ġvis ited
mer ce
Ġst orm
Ġsur g
Ġd imensions
Ġdepend ence
M atrix
sc ss
ĠB and
Ġf ant
config uration
SI ZE
col Last
ov es
Ġspect ra
Ġpr ices
ether lands
Ġsol ve
Ġpass word
H is
Ġpre v
Ġanal og
Ġ" <
Ġrot ation
Ġst ellar
ap ed
194 7
Ġver ify
es c
Ġind eed
ĠS I
Ġtransfer red
Ġtro ops
ĠWis consin
Ġdecl ared
Ġwhere as
Ġb ow
bour ne
Ġs leep
Ġcirc um
S pace
Ġsold iers
Ġelectron ic
> :
im ated
Ġbuild er
Ġr ural
IV E
rem ark
IC E
it led
ĠS anta
\| _{
Gr id
t mp
ĠA ccess
ĠB it
ĠR ail
pl ot
erv es
ĠI R
ĠM arg
ĠW at
par a
T ags
Ġb ands
Ġassist ant
Ġport ion
Ġ[ [
Ġpurch ase
ades h
Ġparticip ants
ĠV AL
J ECT
pl us
Ġd ress
Ġmin ister
Ðµ Ð
Ġ{ '
Ġben ch
e cho
ater n
ĠBook s
Ġsil ver
Ġ" "
D uration
Ġtest ed
an try
UT F
Ġteach ing
h idden
em on
St op
Ġde leg
l arge
* )
b rowser
_ ->
In s
ĠD am
l ayer
Ġentire ly
NavBar Cell
S pe
d p
Det ails
em an
DY BAG
Ġnewsp aper
Ĥ ¬
ST AT
Ġli qu
\ _
col First
assert Equals
ĠFurther more
ĠDav is
Ġh ole
s es
Wh y
Pro file
Brit ish
Ġcon j
t an
nt ax
Ġgu ard
195 4
f ail
Ġthan ks
[ $
ĠC hen
18 0
ĠR ome
li ance
IP T
ĠAnt on
cond ition
Ġcont rovers
Ġaccur ate
Ġinst ant
Aust ral
ĠH om
ĠH un
Ġbro ken
ĠS af
Ġconstr aint
Ġprep ared
Ġrecogn ition
Ġj ump
D ist
ĠS ydney
s witch
Ġcamp us
Ġreturn ing
ĠCor ps
Ġm ys
Ġprov ince
Ġent r
ou ri
rit ical
Ġv otes
param eters
op her
Ġrefer ences
Ġw itness
ze ch
Ġc overs
ĠPro cess
Ġhyp othes
h av
ĠT oday
S Y
S outh
} )$.
ĠO t
Ġc m
ĠA D
Ġp seud
W N
ĠSh ort
Ġex it
ar se
Element s
ĠPri ze
w ing
os es
Select or
Ġthous ands
P anel
Al though
ĠKore an
ĠM ill
h ire
ĠP R
nav List
S equence
ĠO regon
ĠColor ado
)) );
m ac
Ġd uration
Con n
ĠT erm
Ġcom fort
Ġsymmet ric
Ġk ick
', '
Ġm ental
ĠD C
RE AD
Ġpe ace
ik a
. __
ult ane
Ġim plements
Ġpath s
G ame
Ġinfr astructure
ĠF ollowing
type of
icens ed
th rows
() ).
% .
op ic
tr igger
ĠChild ren
Ġesc ape
iss ue
se ason
Ġhapp ens
}} ^
Ġop posite
poss ible
serv ices
Ġl ayout
Ġap pre
ĠD ist
pon ential
y cl
er ic
Ġloc ally
z one
ĠW rit
Pro xy
Ġcomplex ity
ĠFore st
Ġsatisf y
Ġdet ected
IN D
ĠV ideo
Ġindic ated
Ġfight ing
Ġauthor ity
ook s
ĠD at
Ġdrop ped
act ic
$ ^{-
ĠC ov
coll apse
Ġcomm itted
ad ed
S ymfony
Ġexp at
fl ags
Ġdes ired
Ġmagn itude
++ ;
ĠW ars
ĠL es
The orem
Ġan imal
Ġtem por
Ġsee ing
am ely
res et
ĠWh y
ĠS at
Ġm ir
195 3
ĠB O
Com par
ĠB all
c raft
Ġdestroy ed
con tains
ĠOlymp ic
um a
ĠOn ce
Ġpublic ation
Ġf unc
Ġc art
Ġsu itable
Ġmount ain
194 9
Att ributes
ĠH as
ee k
oc aml
ook ie
T T
Ġd ialog
Ġgrant ed
arr ing
Pr int
Ġmay be
Load er
X ML
Ġmark ets
L INE
new command
Ġcertain ly
ĉĉĉĉ ĉĉĉĉĉ
p red
com plete
Ġcop ies
Ġclos ely
ĠB lock
Ġprov ider
d iff
ĠH ay
Ġcould n
U nder
Ġy ards
Ġus age
}} ^{
ĠG er
ĠS ab
e en
Ġappear ances
Ġsol o
p icker
es ian
195 1
Ġpromin ent
ĠS earch
t ik
[ (
) }{\
D ouble
Ġc rypt
{ $\
ĠDes pite
Ġf lood
ã Ģ
en ess
ĠL at
Reg ister
) _
Ġhot el
un es
Hel p
au x
Ġm el
Ġc ab
m ad
Ġfound er
iv ated
ĠN ations
Ñ Į
ist ence
Ġsc ulpt
ĠGa ussian
Ġcon vent
Ġ ing
ag r
ilib rium
ĠI V
f ast
ĠE ll
)\ \
To String
ĠTh rough
omorph ic
ul i
Ġup dates
Ġop inion
ty ped
Ġfavor ite
Ġtrans mission
ĠPol ish
Po inter
cuss ion
Ġex ceed
man ager
un ately
om atic
our se
Ġm ach
inal s
b c
ĠĠĠĠĠĠĠĠĠĠĠĠĠĠĠĠĠĠĠĠĠĠĠĠĠĠĠĠĠĠĠĠ ĠĠĠĠĠĠĠĠĠĠĠĠĠĠĠĠĠĠĠĠĠĠĠĠĠĠĠĠĠĠĠĠ
ĠCon nect
v o
Ġhost ed
Ġv ectors
Ġar ms
F ix
ĠC ost
Su ccess
Ġattempt s
Ġco q
gener ated
Ġun able
Ġaccount s
child ren
h ide
Con f
Iter ator
Ġemploy ed
Ġfrequ ently
Ġf illed
)$ -
Ġcollabor ation
Ġinter section
Ġperform ances
Re port
ic ian
Ġr g
Ġposs ibility
Ġannoun ce
P erm
Ġas sembly
Ã© e
hand ler
Ġcont roller
ĠF ull
ul ator
Ġdifferent ial
ĠG reg
ick ets
Ġin duced
g i
F in
log ger
M ost
sc ill
S ER
Ġa ver
Ġoffic ially
Ġl osing
Ġcont emporary
l an
Ġclass ic
Ġf ear
ĠSt ory
ĠH o
_ ,
ĠSt adium
ĠC ub
Ġch ampion
ro it
ili ar
n p
z h
ĠI raq
Ġrelationship s
å ı
s ys
up l
D est
Ġhom es
Ph one
s a
Ġge ometry
=" $
W R
Ġeval uate
ĠB udd
Ġdel ivery
clos ed
force ment
ĠR a
) },
ĠGold en
Ġst uff
Ġscen ario
Ġleg isl
circ le
ĠL td
ĠTO DO
Gener ic
if iers
Prot ocol
Ġv ot
t ons
Ġrepresent ative
Ġhelp ing
Ġphys ics
Ġstr ings
Ġ ip
sw arm
? "
Ġk id
Ġlink ed
onom y
Ġm al
Ñ ĭ
qu arters
ir ation
map sto
Ġr aces
Ex pr
ĠStep hen
ast y
Ġar ts
Ġext ensive
p ur
Ġsw im
Ġbe am
J ust
ĠAg ain
Ġp owers
Ġw ins
y al
Ġprinc iple
Ġwin ners
T otal
ĠCoun try
Ġang ular
ĠT urn
ĠA S
Ġd ict
ĠL ev
=" ${
Ġexperi enced
Ġw ing
Ġas ync
00 1
Ġre pro
Ã ¸
S che
Ġf n
re port
Ġdec isions
d y
ud den
Ġconver gence
19 36
Ġyoung er
Ġneg ot
Ġcalcul ate
ab et
B P
includ ing
pro gress
", "
let ed
Sum mary
Ġst one
Ġcont est
ener gy
ĠSt ock
wild fly
Ġprom oted
Ġinst ances
ĠP ay
ch a
unn el
Inst all
b ec
eng ers
Ġv irus
Ġfl uid
od ot
wrap per
Ġm ent
ire ment
ort heast
ĠD oug
ĠPhil adelphia
r andom
Ġf iction
Ġst ability
Ġ" ,
ag en
- $
Ġgalax y
ĠH ou
per ial
Ġnot ation
Ġv ess
ten ance
Ġxml ns
Ġf aster
em et
Ġtalk ing
Pl ugin
ĠOb serv
Ġresult ed
Ġsp an
Pre vious
prot ected
L eg
R oute
Ġapplic able
Ġrob ust
and o
ĠComm unic
Ġg ender
'] )
Ġap art
Ġ io
Ġout er
D ay
om ent
ĠExecut ive
S QL
ĠCopy right
ct ic
Ġas ympt
Ġunder st
ĠL ow
ĠSo ftware
Ġl ay
Ã º
ĠW inter
by tes
ĠCh annel
Ġs izes
Ġresearch ers
ate ver
ĠRev olution
Ġpred iction
Ġpers pective
Ġfeed back
Ġd rawn
t i
Ġuncertain ty
ual ity
n il
BU G
ad i
ĠAd am
H P
Ġprom ote
ĠAri zona
iz z
Ġdom estic
ĠL ady
Aut o
Ġre form
Ġ&= &
ma zing
Ġs cre
Ġlett ers
Ġcontrol s
Ġdo ctor
Ġst ores
ĠBr idge
ĠT al
M apping
pl atform
Ġad min
ul ner
av it
ĠS uch
ph ant
cd n
Ġmunic ipality
con v
Ġwe alth
Ġsc heduled
ĠM oh
Ab stract
âĢ ¢
ĠMark et
og ram
Ġcharacter istics
ĠN etherlands
Ġ ðŁ
ar ry
Ġsche dule
ipl es
Mem ory
Ġsup erv
C ategory
ĠB ru
Ġbel ief
An other
Ġt error
Ġstand s
Ġadministr ative
ĠN ick
Ġac id
Ġman age
A ng
7 00
Ġm ort
am az
Ke ys
W rit
Ġpurch ased
ble m
Ġca ref
ĠA I
Ġbehavi our
ut enant
Ġload ed
group s
ul ating
Ġfav our
Ġinteg rated
ott en
j an
ĠOff icer
ĠA ge
sh op
it i
Ġ= ======
! "
Ġwait ing
ĠPrem ier
Ġc ref
Ġend ing
ist ing
ĠR oute
Ġal ter
w eg
Ġintrodu ction
Ġs and
pol y
V M
p u
ogene ous
prov ider
st ances
A nt
Ġmusic ians
t le
IG HT
Ġobject ive
iter ator
Sh ort
ĠN ode
ĠF ac
che stra
Ġab und
Ġexcell ent
R R
Ġvari ation
all classes
Ġconf idence
ro g
ign ment
aj ax
Ġeffect ively
ĠCon f
Ġeas ier
ev al
k ing
ir th
ff ff
Ġtrans parent
e a
or iginal
Ġtheoret ical
ab out
re ll
per or
Ag ent
ĠĠĠĠĠĠĠĠĠĠĠĠĠĠĠĠ Ċ
ĠN FL
m n
Ġconstit u
ang a
om y
Ġde ploy
ĠT ai
Ġdec or
Ġoptim ization
ĠM iller
Ġstat ements
ĠDu ke
do or
IT E
ĠSing apore
clus ions
Ġres c
Ġinter ior
B L
b g
Ġsp end
Ġplatform s
} &
fol io
ow nt
tik z
print f
» ¿
19 18
r uby
Ġf estival
Ġfac ulty
m ma
Ġult imately
Ġstri ke
Ġb odies
ĠCamb ridge
F inally
Ġman ifold
ĠA P
N ULL
ĠSe ason
19 38
Ġf lo
ĠR ose
pro position
Ch rist
AN T
ï »¿
unn y
g ov
ix els
es ome
it ative
> ::
M ut
x s
C red
p res
or ient
Ġstrateg ies
ĠMount ain
Ġth ermal
Ġse ats
C am
app ly
Ġg ained
as ets
, $
e lect
Ġjust ice
B M
Person al
_ (
ĠAss oci
ĠG ets
a ired
ell ite
ĠSt aff
f ixed
Ġ ..
Ġare n
get Name
Ġ{ {
Ġjud ge
pro ps
ut s
Ġkeep ing
Ġexpl o
at on
B ound
Ġcommun ic
Ġalleg ed
Ġfl ags
mon th
Ġdou b
Ġconvert ed
op ed
ret ch
' (
LE CT
Ġfe e
in ch
Ġsk in
Ġsch olar
Ġs ac
op es
ag ues
ĠP RO
Ġarrest ed
Ġw at
sk i
igh th
CHE CK
us ers
Ġ Ø
ĠA ud
Ġcon clude
Ġb an
Ġo scill
ĠF ord
enn a
L I
Ġprogram me
ag an
Ass ociation
Ġfeel ing
Ġocc asion
ĠQue ens
Ġo k
Ġworld wide
ĠG ree
ubl ished
comp iler
Ġent ertain
ĠTrans port
Ġd ust
M iss
met adata
en abled
iss ues
p refix
F ailed
ĠHamilton ian
II I
Ġnot able
Ġscal es
Ġe lem
b et
ĠA thlet
ĠM att
Ġweek end
Ġab andon
ĠG allery
Ġcoordin ate
Ġcre ative
att ributes
ĠB efore
Ġdr ivers
Ġgu est
Ġu i
Ġt x
Ġvol unte
L ayer
c ow
ĠBr ad
G N
ĠBuild ing
Ġque ue
Ġyour self
Ġg ene
Ġdeliver ed
Ġmass es
L in
Ġbring ing
fil ename
el le
Ġpay ment
display style
ar on
Ġm eta
Ġover l
Ġtyp ename
Ġmat hemat
Ġgrad ient
ĠS D
Ġd ry
ens es
Ġint elligence
ĠH al
ou ter
Ġmov ies
Run time
Ġp ed
Ġrel ax
plic ated
ĠIndian a
F IG
ord on
.... ....
Ġmin ute
L em
C ho
u y
Ġprom pt
ĠBr ig
Ġp ul
os ity
Ġclos er
t ags
Ġ? >
Ġrow s
Ġinfin ite
Ġsh aring
Ġgener ic
t or
Ġa id
Ġtarget s
ĠD er
off s
con n
19 37
li br
Ġh all
A CT
ĠPh ot
/ _
$ ;
Ġcompet ed
ĠE P
Com ment
Ġconsum er
ĠK ansas
iv als
Not Null
li x
Ġpost ed
Ġt aught
P res
ex tern
Ġre new
\ {\
Ġvers us
Ġterrit ory
sub s
iffer ent
Ġgrad uated
d ialog
Ġinterest s
Ġp refix
Sc roll
}( {\
Ġsk ip
ag ent
Ġe le
ĠRec ord
ĠN a
F ind
ok ed
cc cc
Ġinvestig ate
T x
ct rine
er os
ag g
? >
Ġres istance
b d
S ocket
, '
~ $\
T ele
Ġd ire
N V
pre ne
rupt ion
ur ations
Ġinstit ution
ĠEnter tainment
Ġstop ped
Ġsuff ered
Ġkn ows
ĠC ru
ĠOn line
ĠO cean
ym ph
il bert
ĠC urrent
pre v
g eneral
Ġpriv acy
Ġpro xy
Ġy ellow
">< !--
cept ions
Ġext ent
it ter
St and
ĠF uture
Ġexplicit ly
S G
ĠU l
ĠP lease
ĠAtl antic
cri bed
ir ms
Rem ove
ĠL iter
ĠPr inc
19 00
Ġmunic ipal
O ct
ĠI owa
ug s
Bl ack
S ong
Ġpo inter
ennes see
ed u
Ġhum ans
< !
osp it
ĠRes ource
ĠA h
Ġcalcul ations
v ideo
ĠAnd erson
Ï Ħ
Ġres erved
Ġdocument ation
re prene
Ġapp lying
agn etic
H C
Ġtr uck
log in
int eg
Ġmom ents
Ġrecomm ended
are st
Ġre q
Ġca ught
igr ants
} }$.
Pl ayer
Ġcrow d
ig ate
L java
ĠH art
Ġsim ultane
spring framework
E V
ĠI T
Ġw ire
Int roduction
Rep ository
Ġenh ance
con g
m aven
m ers
Ġ ion
S ync
{ %
in ating
ĠP it
u ating
ST ATE
t body
Ġr ational
Ġ ).
S eg
Sy mbol
P e
ĠG h
En um
igen ous
Ġdefe at
Collection s
m ass
CT YPE
ĠB att
Ġmet adata
Trans port
Ġt ight
Ġl ang
Ġad ult
Ġfl uct
Ġdec ade
ĠH an
c ers
CE SS
ĠInd ones
> \
Ġcol ors
ch anged
ĠP ot
^ ^
ĠE s
Ġcomp re
sv g
head ers
ĠMag azine
ĠLew is
ĠR oss
emet ery
Ġscatter ing
ĠFr ont
oj o
mut able
Ġref ers
ĠDis ney
Ġsh ares
B AR
Ġl ists
Ġmov es
Ġg ate
Ġcalc ulation
sh ips
Ġw ww
init ely
ĠW atch
fe ature
}{ (
ĠGr ant
ĠInst ead
ile y
requ ired
| _{
ĠYou Tube
Ġs we
Ġl es
ĠI E
Ġsup posed
iv acy
ĠEx pl
Ġsym pt
j d
Ġn ice
Ġs now
O UT
Ġclust ers
Cl uster
Dat abase
ĠStand ard
Const ants
Ġcharacter istic
ĠDi ego
Ġshoot ing
ĠD ocument
Ġemer gency
Ġcl ock
is or
ĠD ark
Ġstat istical
F ail
as m
ĠS ource
Par se
Ġw alls
AD D
Ġc tx
Ġan imation
Ġr is
Ġtechn ologies
ĠP ut
Ġgre atest
g lyph
Ġr ig
ivers ary
ĠK han
Ġv ice
Ġb ought
n n
od s
fl ag
Ã© s
Ġbi as
Ġcol our
ĠW AR
ĠSwed en
à ®
Ġparticip ated
ĠHar ry
Sim ple
Ġco inc
Ġenc ounter
- (
Ġatt ached
E mail
Ġcover ing
ĠSen ior
Ġb ulk
PRO JECT
sh adow
Ġs aved
Ġcriter ia
U SE
Ġint ent
ĠD a
F ree
ĠP O
ĠC art
| }
Ġstand ing
Ġarr ang
Ġsc oring
Ġdem ocr
Ġal ert
ĠS av
Ġex cess
RE S
or ough
" `
Ġphot os
Ġdest ination
var iant
be an
J S
un ique
Ġw a
Pass word
Ġor th
-------- ----
ĠIn s
Ġc ash
Ġsign s
av irus
ĠFore ign
ĠR ight
Ġas sets
is lation
P ORT
ĠSh er
eli hood
k ens
Ġrequest ed
Ġb omb
ĠP A
user name
E very
Ġwe ights
() </
ĠMod ern
ic ians
" |
ĠB rian
Ġpred icted
Ġreport ing
ĠK now
Ġlo an
ĠPro t
is ely
Ġpro jection
Ġin ternet
anc ell
ĠC ulture
19 17
Ġsp r
et ies
Ġpl ate
build er
est abl
Ġsever e
Ġsign als
Ð ²
ĠN orm
j ango
ur ches
ĠMar ia
Ġgraph s
g ment
Ġdis abled
ĠA T
} }$,
Ġd ates
ĠL android
ĠM essage
ĠH ash
D epend
pl es
om ot
19 35
Ġtype of
Ġdisplay ed
Ġn ob
Ġsepar ated
ĠE ric
ĠL ind
ĠK al
F ramework
(' .
U K
M er
c u
ĠZ h
F ollowing
m ask
Ġrecover y
^{ +
iam i
Ġaddress es
det ails
ĠD eb
ĠReg iment
H er
) [
ĠV i
us form
ĠCh ange
ĠÂ »
d one
ĠTur key
numer usform
ub ble
th row
g ies
Wh ere
v ard
; ">
ĠRe act
ĠC ond
secut ive
ĠS C
ĠOb ama
Ġint ensity
h bar
Pro gress
Ġpass es
Ġ à¤
ĠA mb
Ġoper ate
Ġweap ons
ar ity
Ġin fl
Ġpract ical
ĠM un
ryst al
Ġtw enty
} )$,
ist a
bu ilt
Ġhousehold s
con str
ĠĠĠĠĠĠĠĠĠĠĠĠĠĠĠĠ ĠĠĠĠĠĠĠĠĠĠĠĠĠ
Ġcomput ational
Gener ator
Im port
ĠR yan
N odes
TE XT
hens ive
P D
C oll
Ġsequ ences
ph y
Ġ{ "
Ġconstruct or
FF FF
ER S
ĠS ep
ymmet ric
Ġeven ing
Ġc atalog
Ġbr ings
w atch
." );
Ġproper ly
ĠMem orial
al ion
ĠS N
M ac
ĠAdministr ation
ĠUn it
Ġp apers
f d
ĠT ro
I MP
Ġperm ission
Ġtemper atures
ĠB ox
Ġv eg
Ġh orse
Ġhe aring
Ġfl u
Ġsubject s
Ġscen es
Ġ" -
F unc
ĠLe on
x html
is ode
B en
19 19
z o
Ġrespons ibility
ĠN AME
l ass
ĠIO Exception
Ġcomb at
ĠPro perty
V E
Ġeduc ational
Ġop position
i at
p ull
ĠAff airs
det ail
Ġir on
Reg istry
j unit
Ġexc ited
Ġb undle
Reg ion
Ġt ack
web pack
ĠHe art
A E
ĠSwed ish
S ur
19 33
sing le
t witter
Ġgood s
Ġadv ice
er d
Ġdisc rim
u able
ĠU I
S F
ĠĠĠĠĠĠĠĠĠĠĠĠĠĠĠĠ ĠĠĠĠĠĠĠĠĠĠ
Ġtr uly
Ġp ars
ou rier
er ior
in os
Ġ[ ],
ex ecute
Ġres olve
ĠN az
Ġdocument ary
Ġ ],
t ar
Ġconsist ing
inem a
Char acter
Ġre nt
ach er
Ġst ages
Ī Ĵ
Ex ecut
A ug
S cale
Ġcomplet ion
F inal
P refix
ys ical
Ġsum mar
L ook
ĠC ab
Ġimmedi ate
cle an
h ref
Ġamplit ude
b log
p ub
ĠS ound
Ġrg ba
s ample
ĠSur vey
Sing le
Ġpercent age
) --
ol i
M OD
ĠM ilitary
ic ide
Ġse vent
Ġcomput ation
k h
u j
ak s
weg ian
typed ef
Ġgu ess
$ ~
ibr ation
r as
19 34
ĠJ ordan
F ore
ĠS ix
Stat ement
') );
arian ce
id x
19 14
; }
rel ations
Ġlow est
Ġp un
et ary
w ill
U LE
ail ability
R ole
l f
? ?
view s
Ġf ly
Ġv eter
ĠN AS
Ġsk y
Ġir re
Ġmys elf
ĠB at
Ġtrad ition
Ġr acing
ĠI ss
Ġgovern or
y ers
j ob
Ġso le
Ġsc ores
Dav id
Ġrank ed
Ġ( _
ĠL anguage
Sk ip
sh ared
ĠChe m
St ud
ĠPhilipp ines
ov ing
Ġaccom pl
ĠMiss ouri
ch ant
et al
ibli ography
Ġexecut ed
Ġl ift
ich ol
Ġrad iation
Ġcomp atible
Ġident ical
ver b
pl ates
p arser
Ġtit led
Ġn amely
prot ocol
Ġcont ents
Ġconv ex
in ator
ĠB alt
Ġimprov ement
Se lection
ub le
D iv
ĠS quare
Ġtra ject
Ġteach ers
Mult i
Ġexpat riate
Ġscal ing
Ġinter act
v als
Ġm arg
ĠR oll
St ar
err ors
ĠCh all
Ġs ending
is ition
Ġh its
W omen
ĠK y
ĠP ier
Ġabs ence
ab ric
ĠE C
There fore
Ġcap able
ain ian
ĠK at
st orage
Ġl ose
es is
ol ut
P Y
ĠJ am
ĠSk y
B el
Ġsp ending
ail ing
Ġrestaur ant
print ln
rior ity
Ġleg end
ĠH or
) +\
s is
um my
19 29
Ġseem ed
19 10
Î ¹
En ter
ann y
k ish
Ġport ray
ĠEconom ic
ĠRequ est
Ġsatisf ying
ĠMary land
E p
Ġconcent ration
Ġfind ings
Ġcomput ing
ĠCast le
west ern
Ġpain ting
Ġon going
ĠT ony
ĠHot el
Ġdistrict s
dep th
Child ren
Ġ' <
ĠF A
ĠB iden
ur ric
Ġexplan ation
Ġconcern ed
Ġcor on
Ġlog ger
ib ilities
onym ous
ic ular
qu es
ĠHou ston
ĠD ead
Ġop posed
Ġengine er
O F
S ources
part y
ĠD ream
ĠJ ane
F rench
(' /
st e
1 15
Ġor bit
en able
. <
Ġsize of
Ġtrans actions
ant e
Ġrough ly
Wrap per
Ġmod er
ĠCap tain
ĠN ative
ort ion
Ġstre ets
Ġv o
ĠDon ald
Ġc ards
Ġw arning
Ġdi pl
13 0
o a
Ġsatisf ied
ers hip
ĠCont in
hed ral
ang ers
as sembly
iv a
Ġspec ify
down load
Ġtown s
M c
ser ial
Ġsampl ing
amaz on
ĠJew s
C r
Ġsomew hat
sim ple
Ġpotential ly
ĠPro p
Vari able
ĠN ever
Ðµ Ð½
ĠD NA
Ġprodu cing
ĠT ennessee
az e
Ġd iverse
Ġign ore
] }
r ift
st an
pl ane
ur able
Ġfac ilit
az a
Ġpil ot
il k
ĠF ind
Ġnov els
Ġadj acent
Ġcon clusion
Ġcon version
Ġexper ts
ic ious
Ġc ro
new s
w t
Ġdr ag
Ġthe ories
ĠJ oh
ĠĠĠĠĠĠĠĠĠĠĠĠĠĠĠĠ ĠĠĠĠĠĠĠĠĠĠĠĠ
ĠJac ob
wit zer
Ġbre aking
Ġre venue
Ġcaus ing
tr ace
) )$
ĠR eb
G erman
Ġs udden
l ights
Ġdemonstr ated
av al
S ervices
Ġcan cel
i ated
Ġ urg
ĠL ook
Ġman agers
L anguage
ab ama
Ident ifier
ip h
Ġvacc ine
edd ing
ap os
M ich
F E
plic ity
ident ifier
Ġillust r
Ġen v
Ġro of
19 28
ĠR ow
L ife
em ony
Ġdis crete
ropol itan
Ġjournal ist
Ġpo et
$ ),
ĠO N
Ġcont ribute
ĠSe ver
Ġconst ants
Tr ace
( __
ure au
Ġex ponential
Ġair port
Ġin ject
ĠF all
Ġm it
ĠB an
... </
az y
Ġnecess arily
pl an
Ġcre ates
ĠS che
els on
P ER
Ġfam iliar
ĠM O
Ġch apter
ĠD or
Ġim press
pro xy
u um
Ġdr iven
Ġaff ili
des ign
Gener ated
Ġqu adr
ow ed
Ġ$ |\
ĠPl ace
ul us
) -\
U D
ĠRef er
all as
ĠDe ath
Ġpropos al
um ps
Ġexpos ure
Ġl yr
less sim
Ġs ynchron
Ġparticip ate
Ġcompos er
ĠAr thur
plement ation
Ġ[ "
ov en
Ġconsequ ence
Ġre named
ĠB ab
Ġv ulner
spec ific
ĠF OR
Ġt urb
Ġwatch ing
se m
in us
ud a
rop ic
Ġass istance
i ac
Ġdeb ug
se par
= >
ex pect
ĠSystem s
On ce
br and
witzer land
Ġfr anch
ug ar
Ġar c
Method s
Ġth in
Ġj et
19 32
Ġtransl ate
C ert
p aper
Ġk illing
Ġex cit
aps ed
ĠViet nam
r ig
%% %%
St ats
Ġpre ced
in cess
Ġsufficient ly
d c
ĠOr iginal
Re al
Ġa st
ĠA C
Dom ain
ÃŃ a
lo om
Ġtop ics
Ġmax im
ta h
ĠC zech
Ġext reme
Ġbro ke
ag u
Ġcor porate
put ation
Ġcon secutive
d am
Ġle ct
IN TER
Q U
g ar
ĠMed al
ĠR oy
r b
Ġperman ent
R C
a ire
F amily
Pro ps
ry ption
ĠInt eger
Ġprior ity
}$ )
ef e
AL SE
) }_{
ip age
W allet
arg o
e ast
ĠB ishop
Ġcl im
Ġste el
u ction
spec ial
Ġaff ord
ou st
Ġdepend ent
ĠCl oud
: }
aw ay
Ġcho ices
j oint
res ources
N orth
bl ank
Ġl umin
Ġfem ales
ĠAn alysis
Ġro yal
ĠCol on
Ġp iano
th ere
ĠMan ager
ĠAg ency
Sub s
Î ½
ĠHigh way
ĠC ore
Ġr ating
enn y
C ent
ĠD aily
SC R
ĉ ĠĠĠĠĠ
Ġc raft
ut r
clud es
ME TH
Ġs oul
os ed
ĠMel bourne
Ġscient ists
Ġfr agment
pat tern
Ġinv ent
tem p
Ġsound s
an ches
19 24
ĠK evin
Ġf aced
Ġhead ers
olv ing
os l
Ġpar liament
Ġapp end
fg han
Ġf at
3 60
l u
Ġdecre ase
Ġsc roll
Ġqual ified
Ġessential ly
ĠMe an
Ġcoeff icient
ĠWh ere
i em
b p
ok ing
ĠB urn
T ax
Ġchar set
n odes
ĠMan chester
ĠLeg isl
Ġaccom mod
ĠMex ican
2 13
Ġcontribut ed
ĠHT TP
st ers
Res ources
ĠG iven
ific ial
Ġassess ment
Ġincreasing ly
ĠB h
Ġind ices
æ ľ
ĠÐ ¿
d on
Ġpers ons
ĠT el
ren ce
Ġrelig ion
ĠSim on
Ġw rest
ph an
ĠHol lywood
Ġmanufact uring
s quare
At tr
Ġcirc uit
Ġv ocal
i ations
ĠMos cow
Ġexhib ition
ĠCl in
&= &
l ot
ĠPro duct
col n
idel ines
DO CTYPE
n ie
ĠM it
w ich
ur st
let ter
C RE
Ġex ecute
Î µ
f red
S em
) ->
ĠV ice
ah oma
Ġpar ish
Ġm ile
min ipage
pro fit
l at
w arning
fort unately
ĠS quad
ĠD ir
ĠE mer
}{ |
Ð ´
ĠM as
Ġfr ag
Ġpost s
atur ally
Ġvari ant
Ġt on
Ġent ropy
Ġprec ision
per t
Will iam
Ġther apy
19 22
Ġwe ar
Ġhundred s
Ġs oci
Ġb inding
Ġcomp lement
R T
Ġm o
Ex ample
Ġgu y
Ġpres ents
Ġn p
ĠMar c
un ing
Ġprom ise
Ġfil ed
1 12
Ġb its
Ġspe aking
w ick
10 5
R elease
Ġoff ices
ĠB arn
Ġcomm ut
ĠSt one
Ġleg islation
M ath
uth er
ĠAr k
19 27
ĠEx press
ĠTe ch
trans ition
UR I
ĠJes us
Ġr ugby
Ġins urance
Ġb atch
own er
ill ery
Ġ} }
ĠSil ver
ĠT a
/ .
Ġpass ion
Ġincre d
check box
cl uster
Ġsent ence
S V
Ġc odes
Ġf old
PO ST
Enc oded
Ġmod ules
ĠPhil ip
Ġden oted
ard o
Ġreach ing
P G
19 31
Ġliqu id
ĠW el
Ġbr on
f x
iment al
S erv
Ġwor st
Ġinput s
es ides
om er
Ġv irt
Ġin h
s at
Ġfore ach
ac on
Ġtem p
Ġab use
ge o
R ob
s n
vis ible
Ġdou bt
Ġdec ide
/ (
Ġad ults
iss ip
Ġdrug s
Ġe at
s ome
Ġjoin ing
å Ī
'] ['
: =
ur is
ateg or
ĠG ab
Ġm ob
ĠB E
ĠPat rick
ĠF ederation
Ġ[ \
ĠInd eed
ous es
Al so
ĠMal ays
× ķ
Ġnull ptr
J apan
ĠL eb
fl at
f c
coh ol
Ġin verse
l ad
CO MP
Ġcons ervation
ĠS to
Ġindic ating
Ġle mma
Ġinterpret ation
per m
Ġdemonstr ate
Ġbo at
od a
Ġval ign
index Of
se q
apt ers
Ġdis appe
the less
S W
Ġs ought
Ġaccess ible
Ġp it
TI ME
METH OD
ĠS ri
S ave
Ġb attery
m ont
re lation
ol t
ĠAm ong
Post ed
Ġthe atre
ĠCl ark
Ġre ar
Ġmix ing
ĠD ue
Ġequ ality
Ù Ħ
ĠBar on
Ñģ ÑĤ
ä »
Ġland scape
ĠNor way
th rough
in ction
side bar
Ġheav ily
ache lor
Ġout come
Ġrespect ive
us cript
ast s
ĠSer b
W atch
19 25
Ġin fer
ĠReg ional
ĠT en
y ou
ĠF a
Ġdesign ated
B ased
eg as
Ġag encies
Ġm outh
r g
in valid
ĠTown ship
Ġseek ing
Ġgener ator
Ġsens itive
int end
ĠO S
Ġrepl acement
h box
Ġch ose
do i
ĠHol y
EE EE
Ã ¥
ĠGree ce
reg ular
u ce
od ge
U C
Ġvalid ation
ĠJ ay
ubl in
w as
M ake
or er
âĢ¦ âĢ¦
Ġbur ied
Ġall Classes
Ġinvolv es
Ð ¼
DE FAULT
Ġdesign s
con struct
ce ive
ĠÂ ©
ĠS M
Ġm m
ĠallClasses Link
ver ter
z ip
Ġp ref
Ġcl ip
Ġt um
G iven
Ġfound ation
w ho
Ġcomp ens
Ġexp ensive
Comp at
Ġ> >
ĠAll en
ierarch y
Text ure
pt ic
p air
Ġh orizontal
viron ments
Ġne ither
Ph oto
Ġcru cial
ĠCap ital
Date Time
Ġeng aged
ĠB ry
Ġa mazing
ell s
Ġequ ilibrium
Ġdeb ate
Ġte en
Ġexerc ise
Ġpro spect
i ors
ĠCh ap
Ġmolec ular
Ġread ers
Ġher o
icens es
olog ists
Ġst yles
ĠS ite
if def
Ġattempt ed
al gorithm
Ġs elling
Ġk it
aw are
T ra
ag h
rupt ed
ip her
struct ure
r ank
Ġj Query
Ġw indows
(' #
Ġtr ains
ĠAp plication
Ġd iver
ari os
Ġco aches
19 21
Ġassum ptions
ĠA SSERT
Ġprodu ces
ĠAcc ount
_ -
n ob
) }}
Ġeval uated
ri eve
act ivity
Ð° Ð½
Ġs urn
)) \
ĠAust in
el lect
Con nect
Ġst ead
Ġh un
ĠArray List
IT ION
sign ature
19 26
ĠF ellow
m oz
b rief
ownt own
H D
B egin
ĠG ib
19 12
Ġmet rics
Return s
ĠSc ient
Ġro ots
ibr aries
Ġquant ity
j u
Ġpre gn
ĠP ed
( @
Ġen emy
ĠTr aining
Str uct
end a
ĠJun ior
ĠM oon
Ġf ib
D elegate
Ġdiscover y
Ġman ifest
ĠE V
Ġbo ys
Ġcontr ad
ĠAnth ony
h ave
Ġsu it
ub er
Ġloss es
Ġb rown
Ġpop ulations
Over view
Ġold est
Ġbank s
Ġan ce
J oin
Ġrepresent ations
Ġhealth y
Ġbrief ly
Ġpan els
Ġpubl ish
Ġst im
19 23
Ġm d
amb ig
Ġrestrict ions
c ref
Pro gram
Ġsix th
ĠN AV
Ġhypothes is
ac ht
ĠYear s
Y our
ac cept
ic he
ĠTok yo
P lease
y cle
nd ef
Ġdat asets
ĠL oc
Ġreason able
ĠH ttp
Ġhand ling
Ġdepend encies
Ġposs ess
Ġl it
Ġpresident ial
Vert ex
function s
Ġtal ent
tr im
Ġro utes
Ġpl ugin
Ġvisit ors
Ġprep are
E P
Ġl oved
form ed
Ġpredict ions
Ġpresent ation
Ġacc used
Ġm ine
Ġprec isely
ĠRes ponse
F P
Ġexpress ions
^* $
al gebra
Ġcour ses
opt ional
E st
Ġrev olution
Ġperiod s
ĠPro te
in th
ĠMo ore
it ics
á »
A I
on ce
kl ahoma
ĠStud y
! âĢĿ
ĠA st
ĠEd itor
at omic
ĠHarr is
Ġwould n
Ġvict ims
Ġwrit es
Ġfl ows
ĠSch olar
Ġdis p
Ġk il
ĉ čĊ
par agraph
am ps
ĠPal est
ĠB ra
id ges
ar o
"" "
Ġprem ier
ĠV ector
Ġd iversity
com b
iter al
ĠArch itect
Ġrapid ly
Ġ{ $
ĠM iami
Ġt mp
ass andra
S an
Ñ ĩ
, ...
Ã¼ r
Ġadvert ising
ĠH op
Ġch air
Ġbro thers
Ġch airman
ig gs
nap shot
Ġh ist
ĠT reat
Ġw ound
ĠH ans
hes is
Ġne ural
un ior
ĠMar ine
ĠF ROM
l ower
Q UE
Ġm es
ĠAl abama
Ġp arser
Ġin clusion
Ø ±
oriz on
Ġsurg ery
Ġsur ve
Ġag ed
ri k
Be an
ig e
IN S
che ll
Ġt err
ĠM L
Ġm ess
Ġmaintain ed
Ġgr avity
Ġunivers al
ort ed
12 7
Ġreject ed
b us
Fl ag
Ġco ff
Vis ible
/ "
ĠG ard
ĠT E
C ard
hel per
VAL UE
I X
ĠR ound
Ġentertain ment
ick ing
ĠM D
Not ification
big l
Ġgr ade
Ġlog ic
it is
ĠMat the
Pr ivate
ri ers
Ġindepend ence
ĠCon stitution
Ġref used
Pro of
Ġadd s
ĠC op
resent ation
id al
11 1
ĠS port
Ġinv ited
Ġrestr icted
as ync
En vironment
Ġg iant
P air
Ġdef ines
ĠN ev
ex pr
Ġm atters
ĠS in
Ġg ro
test s
New s
T F
b urn
Can adian
M ill
ows ki
TR UE
ĠP ack
form er
ĠB os
Are a
ac o
f eed
Ġlaw yer
U ST
Ġs ight
Ġcol span
ser ies
[ -
Ġent itled
ĠN ik
Ġprom otion
ĠBow l
Ġest imation
Bi ography
Ġinj ured
Ġde pos
Ġder ive
Inter val
ic ut
Ġgu id
Ġre verse
ĠR O
Ġtem porary
ens is
Ġm ouse
or ne
get Element
ĠT ag
Ġinvest ors
ĠDet roit
Ġto wer
Ġup load
] $.
ĠE ND
Ġwhe el
Ġth ir
Ġsympt oms
ĠS witzerland
ĠC ape
inc ial
ues e
}} )
Ġn a
plet ion
du cer
py thon
U ri
14 0
ĠPl ayer
ĠAnd re
Ġexpl ains
ane ous
vol ume
ct ors
ĠB eng
Ġf aces
Ġfe els
Ph il
ĉ ĠĠ
ĠG ram
ĠS QL
Ġchalleng ing
ang el
10 2
C G
L ike
ĠKent ucky
F eb
Ġcompl iance
R AN
we alth
ĠB ah
Ġanal ys
Ġre in
Ġdom inant
st age
}) }
Ġre ward
Ð¾Ð ²
Ġpro fit
Ġv ast
ĠP a
Ġid x
Ġwh atever
urre nce
Ġmembers hip
Ġput ting
ĠAl bert
i est
Ġfac ing
Ġcap tain
con vert
ĠLO G
d ig
Ġsch ol
F M
ĠO ak
O lymp
Ġun iverse
Ġtime out
ĠM unic
Ġunderst ood
ĠHow ard
M r
H ub
v ia
cont rib
sl ash
ID TH
Ġim possible
ob serv
pos ing
math op
ut ies
Ġdecom position
pro b
Ġconsum ers
f lex
Ġmult ip
ol ly
EEEE FF
Ġturn ing
ri ends
Ġsy nd
Ġvill ages
h us
() ))
Ġwork er
Ġconsum ption
check ed
test ing
Ġh a
Ġneut ral
ĠD un
ĠS oc
19 15
Ġf ake
Ġcon figure
hold ers
! \
ĠIn put
Ġl ake
big r
er on
ĠBase ball
Ġlist ener
Ġg uns
ĠM and
t c
Ġcent ers
Ġacc um
h ot
ĠT ree
k top
t k
Ġf ails
ĠCE LL
á ĥ
Ġredu cing
Ġa cknowled
US ER
at ivity
qu ant
Pl ot
Ġso il
Ġcook ies
Ġfall s
W in
De ath
ĠWalk er
\ }$.
Ġconvers ation
cl ine
Ġm ales
Fr agment
Ġro oms
Ġdis miss
Pro to
sequ ently
lo yd
Ġw orse
con sole
Ġconstit ution
ke ep
over view
se a
Ġask ing
Ġp ub
GB T
im ore
is ations
op ts
Ġsph er
Ġres et
Point s
Ġmed icine
Ġrequire ment
M arch
Ġderiv ative
19 16
ĠTh ird
ĠFre der
ĠDef ense
Ġout comes
oun ce
ĠN atural
ĠJ os
ĠG all
LO CK
Ġcompet itive
CE PT
Ġprefer red
ĠE ag
Ġbr ands
ac er
ĠE arly
Ġd uty
el ve
ur ers
ene z
object s
Copy right
y g
Ġkn ock
on i
Ġex posed
L en
L ight
ĠV in
Ġemploy ee
Ġdr um
Ġf olk
Ġdep ict
ĠSm all
v c
ĠF arm
re pe
Ġtri es
Ġse es
Ġv oted
An imation
Ġnot ion
Ġmiss ed
Ġp ipeline
Ġde bt
ĠS H
ĠAdd itionally
ĠE u
Ġcan onical
B ind
Ġmod ify
support ed
time out
$ :
el and
Ġregular ly
M s
ĠC ow
qu ir
c ounter
ĠTem ple
Head ers
AR D
Ġb aby
Ġcon crete
Ġr ide
Ġhard ware
ĠY outh
Ġel ig
arn er
Ġstrong er
Ġpoint ed
const ant
ext ension
Ġdraw ing
S ep
ĠA fghan
avel ength
Ġmonitor ing
re ement
Ġpro files
stit ut
Ġadapt ed
ĠL oad
Ġgener ating
ĠD ave
me an
Ġnom inated
Ġb on
Ġl aid
Ġ" $
D ictionary
il st
cre ated
olut ely
ank a
ol o
Ġcr ash
ĠAN Y
Ġen um
re nd
ĠD og
æ ĸ
ĠH u
Ġass ault
Ġmin ing
re lease
AT CH
ĠE uro
br ace
ol id
Ġappe al
om as
F N
Ġdanger ous
ĠPe ak
ĠSt ream
Ġclass ified
Ġorient ation
}} _{\
ĠB ush
w en
con nected
ul atory
ate ur
Ġman ip
Ġg ift
Ġe ase
Ġarg ued
ĠEd ition
Ġhead s
Cl oud
Ġgrow n
ĠInst agram
re v
Ġap ps
Ġd imensional
ĠDo ctor
ĠL as
libr ary
NavBar Font
nav igation
9 00
e ctions
ĠP as
Ġdis order
}[ \
l iving
B et
lection s
Ġrespons es
A x
× Ļ
Ġhy brid
Ġcon cluded
Ġd ense
Ġbound aries
app oint
ĠC ook
Fil m
ĠRepresent atives
Ġcharacter ized
Ġread s
Ġvalid ate
Ġdire ctions
ĠD ur
we ek
O h
Ġ\ ]
or igin
Ġdef initely
ĠHaw ai
ĠB ureau
Ã ł
ĠM rs
Ġcoll apse
Ġsp oke
issip pi
AN G
A wards
ĠP ur
Ġoccup ied
w ik
\ ;
Ġ' '
y y
DE BUG
Ġsett led
Det ail
Ġinf lation
ĠPubl ished
ĠBo olean
Ġatmosph ere
ĠCons ider
ĠDemocr ats
writ ten
, {\
ĠV o
Ġmod al
Ġwill ing
Ġsymbol s
ick y
Ġb old
m ouse
set up
Ġtr ivial
ĠSt ore
In formation
Ġmain tenance
as p
ĠAust ria
Ġsc r
Ġbelong s
iz ers
Ġb irds
E urope
Ġgrad uate
ĠIsrael i
Ad min
h ist
Ġcrit ics
W arning
F LA
Å ¾
ĠLin coln
HT TP
us al
Ġrad ial
ĠNAV BAR
g ood
an ia
Ġload ing
alle st
Y Y
Ġmax imal
neg ative
Ġsn ap
Ġdecl are
comm ons
W ho
Ġcon n
rad io
Ġd ens
ĠSe attle
Ġwalk ing
iam ond
s ig
ĠP i
Ġcol le
Ġst ood
Ġexpl os
ĠW y
ĠPh ill
L Y
Ġvari ations
Us ers
Ġst arring
pl ier
ĠR ab
The me
Ġsepar ation
Ġre tain
er as
Ġhost s
Ġinter mediate
. âĢĻ
ĠIslam ic
Ġlimit ations
P ress
ĠDes cription
z y
Ġun us
Ġb id
Ġt ables
Ġap plies
ather ine
Down load
requ ency
Ġappro val
EN SE
d ark
Ġ( @
Ġr u
ap l
as ma
Ġcer emony
ĠD al
ro sc
Ġb ind
Ġor b
ĠVal id
Y es
ĠCont ent
Ġlyr ics
Vol ume
d ers
Ġveg et
F ORM
ĠL ib
Ġhead quarters
ish ment
Ġ' \
ict ional
hedul er
Ġpo etry
n c
ĠA le
ĠC le
R PC
Ġneut r
Ġw aste
ĠAn ne
sh al
Ġt ip
olv es
Jan uary
å ®
st ates
Ġshort ly
v ect
Ġdefin itions
Ġvot ers
Ġpenal ty
I gn
Ġv oting
ĠSh ould
Ġp up
Ġil legal
ç Ķ
ĠAd vent
ĠRes p
Ġcheck ed
ĠG ordon
ĠRes ults
G overn
Ġh am
is set
. ",
R S
ĠC red
Ġstudy ing
Ġch arts
L i
ĠE ver
Ġf ruit
S creen
or ous
ĠSar ah
Ġs ed
Ġappre ci
ul um
ĠLab our
ĠRober ts
ĠS P
L ower
,\ \
19 11
Ġcompre hensive
Ġpe er
ĠTr ade
Ġ\ "
Ġinf ection
s un
y ll
Ġb ars
sh a
app y
m oment
}\ ,\
Ġcompet e
yn asty
Ġroad s
N ET
s r
Ġour s
Sh ape
Ġf ired
iv idual
ĠNiger ia
Ġf lying
19 13
Ġd ies
comp ile
P UT
EL D
oid s
kw args
Cons ider
S cal
ĠT og
Ġproced ures
Olymp ic
Ġbe ar
Ġf ault
ĠW IT
ĠK elly
R ober
cept or
ĠAg ric
Ġt sd
Ġp ictures
ĠB us
Ġle af
10 4
Pl an
Ġcomm ands
VAL ID
' ];
en berg
Rev iew
Ġacc ord
D M
M en
clip se
res ize
}} ^{\
Ġs ons
Ġte ch
d ays
ĠComm un
Ġpro ps
Ġret irement
Ġnav bar
Ġdevelop ers
] $,
b atch
Ġs occer
Ġcarry ing
h ill
\ )
qu ote
ap is
av ailable
p in
M ask
i ota
R ich
Ġvar iance
ĠV irtual
ig ious
Ġcos m
Ġsche ma
1 16
sub ject
Ġgr avit
ĠN eed
ro ck
Ġdi agonal
iev al
Ġemploy ment
ĠT ool
Ġh aven
Ġcoupl ed
v art
grad le
Ġconvent ional
ĠSer ver
ĠLa ure
Û Į
cover y
Ġreg istration
vert ical
Lem ma
Ġregard ed
Ġbeaut y
Ġneigh bour
Ġsucceed ed
pre p
M al
Ġgr ass
Ġmer ged
Ġmedal ists
Ġeduc ated
Ġdom inated
Ġsubstant ial
ĠD ick
ĠL am
P ers
N amespace
ĠSt ew
ĠB ron
Ġcircum stances
C ity
ĠH um
D en
Ġl ob
or ce
empty set
ĠP os
66 66
Ġphot on
ĠStud ios
Ġrepl acing
ib l
}} .
C ross
lo pe
br idge
Ġbron ze
ĠR ap
ĠWh it
riev ed
E ffect
ĠT ake
m aking
Ġin hib
pl oad
ĠN ob
re tt
ĠPr int
Ġcross ing
Ä ĥ
ĠApp endix
level and
ĠM S
he ll
O ld
Ġign ored
Ġgu ys
M ouse
Ġmer ge
Ġcorrect ly
an alysis
ym n
: `
Ġembedd ing
Ġener gies
ĠL A
Ġsit uations
form ing
Un known
Ġpart ially
ĠFin ancial
h our
Ġw ine
f b
Ġsustain able
ĠTr ack
v ature
ro ute
p aren
ĠEx ample
Ġfranch ise
M F
ol y
method s
Ġcollection s
Ġcommit ment
f actory
Ġm ail
Ġamount s
Ġfor g
ke e
Ġocc as
N or
Ġtri als
ts burgh
ĠHer itage
ren a
script style
Or gan
ĠWal ter
Ġop acity
ĠH old
(" /
Ġcopy right
Id s
oth s
gress ive
sl ice
face book
Ġattack ed
Ġowners hip
Ġtrad ing
ĠL ore
ĠC lient
ĠSt atus
mark s
Ġf ought
evel oper
iss on
Ġdirect ors
Serial izer
ĠFor ces
al ert
ym p
Ġc ub
ug u
ĠI mp
g p
Ġident ification
J ames
ĠPh oto
ograph ical
b one
Ġnon linear
ĠK am
m ay
ĠP rom
ag ination
H on
Ġt ags
t p
ĠG arden
o is
und efined
Ġ Ä
Ġmay or
D IS
c ross
Ġ( ;
Ġc ursor
Ġcontinu ing
Ġequip ped
apol is
Ġh ide
Ġw aters
B Y
ops is
Ġsimultane ously
Ġtem ple
ĠS n
br as
g overn
glyph icon
por ter
Ġweek ly
nt il
M IN
Ġinnov ation
it udes
Ġpro pose
ĠO klahoma
dr iver
ĠB uck
Ù Ĩ
ĠAl bum
over ty
i op
Ġassum ing
P aul
an im
ĠVill age
S ample
Requ ired
alax y
Ġsh r
re act
ub b
long rightarrow
Ġformer ly
u h
d frac
SE LECT
Ġr ival
OR Y
Ġredu ces
get Value
N ormal
ĠV ar
D rop
ash i
ĠW rite
Fl ow
ĠN ichol
W ait
ĠBr un
Dr iver
l ab
Ġqu asi
NS String
m ag
Ġpublic ations
ist ol
spe ed
r ather
ĠRes ources
ĠS el
ram a
ĠAnton io
ho en
dat abase
ĠĠĠĠĠĠĠĠ ĠĠĊ
AN CE
Ġreve als
Ġinflu enced
O C
Ġres erve
Ġb ott
Bas ic
ĠCh ile
Ġris ks
ĠD B
Ġdescri bing
Ġcorre ction
" ],
H ar
Ġaim s
Ġex clusive
d ash
Ġaccomp an
Ġ ^{
Ġb reed
Ġarr ival
ĠMay or
ĠE ffect
l ined
âĢĻ ,
ĠSI ZE
å ħ
id o
z i
nov ation
19 08
L R
ost ics
ĠIndust ry
ĠC G
ĠF ame
% "
ĠD allas
part s
å Ĳ
Ġup coming
UN D
Ġcommunic ations
ĠSe lect
pl ant
ĠAl an
aud i
Ġc md
Ġview ed
Ġdr ums
Ġliter ary
ĠTele vision
L android
Ġes cap
)-- (
Ġref uge
Ġsur faces
Ï ĥ
t iny
f lix
w ig
Ġsign ing
m k
Ġm art
G a
li est
er k
Ġf iber
$ };
ĠT ax
Ġed it
ĠV ari
Ġs av
ĠW olf
Ġinstr uments
ĉ ĠĠĠĠĠĠĠ
ĠCo oper
Ġtalk s
ex per
Ġcom ic
Ġh ospit
Ġfact s
ĠOper ation
och astic
M ove
ors es
Ġj azz
xy gen
ĠTh ose
ĠAut o
ut ter
ĠTai wan
Ġp atch
Ġreal ized
Ġprinc iples
ex it
Ġtransport ation
oc he
A udio
Ġread only
Ġo x
ĠH ills
A pril
Ġreli ef
al ia
Ġr ising
W ell
op ter
Ġcent uries
clos ure
Ġem otional
S ql
Ġquant ities
Ġcap abilities
ĠM C
Ġmagn et
ĠD ouble
Ġentr ance
,\ ,\
ĠRes erve
P al
Austral ian
Ġk in
Ġsat ellite
Ġsub mitted
Ġst ake
is ons
Ġdiscuss ions
ii i
Ġ( [
Ġiter ation
ĠK a
Ġp ixel
ï¼ Į
Ġconnect ing
Ġp ione
Ġmechan isms
Ġn aturally
var iable
mem ory
ink ing
Ġin struction
: [
Ġco her
Ġ$ ,
Ġsit uated
Ġg arden
ĠN ap
j ack
^{ *
Ġlist ening
Aug ust
ĠVol ume
n ed
ĠĠĠĠĠĠĠĠĠĠĠĠĠĠĠĠ ĠĠĠĠĠĠĠĠĠĠĠĠĠĠ
ĠUkr ainian
Ġfor th
Ġst ats
res olve
He alth
ĠNor wegian
ĠB ull
m ate
Ġdesign er
j et
ĠSw iss
Pop ulated
Å «
Cont act
Ã© t
Ġconcept s
}) =
Ġsl ot
ĠD ak
ĠPr ivate
Ġf rames
J une
Ï ģ
Ġclos ure
od o
Ġpass engers
Ġestablish ment
ĠQueens land
ph ase
Ġreg ulations
Ġpro ud
Set ting
Input Stream
Ġdoll ars
Ġstruct ural
ĠH D
B al
Ġne uro
Ġenjoy ed
Ġval uable
ab ad
G ood
MO DE
w d
Ġsim ilarly
ordin ate
Con sumer
G reen
b matrix
Ġd ating
C ur
sp in
alyt ics
Ñ ĸ
Ġent reprene
Ġg ar
Ġsens itivity
Ġhealth care
c atch
="../../../../../../ ../
ĠIn v
Ġre vers
Ġt ank
tern oon
Ġcr ick
P ack
ov ak
ong o
ĠAtl anta
Ġisol ated
Ġdef ensive
ĠInd ependent
ĠJ ason
P N
form al
ĠU tah
Ġinj uries
resp ons
ik h
ve e
ĠAb stract
Ġ ];
0000 0000
Ġent ering
et ition
if ting
l b
Ġman uscript
Ġprov iders
IO Exception
Ġtransl ated
ty pen
" ].
ail and
high light
B ibliography
En umer
bar a
Ġt all
v y
Ġdes ire
getElement ById
c od
M ajor
rypt ed
Ġin tern
Ġd x
Ġqu iet
d k
F n
R aw
Ġro se
Ġn an
] {\
A K
b ow
cl one
Ġen vironments
Ġinvestig ated
ĠO k
ock s
Ġan chor
Ġr anges
par allel
Ġeng ines
Ġmusic ian
ol ph
inher it
Ġ" >
Ġreli able
ellect ual
Ġstreng then
Ġappear ing
dep recated
Ġelect ro
(" #
~~~~ ~~~~
ĠLear ning
Ġmeet ings
Ġslow ly
ĠLim ited
F uture
ĠAl ice
Ġpass enger
Ġtop ological
Ġs essions
ia h
ir i
Ġprec ise
tr ivial
D b
) }_
i eg
comp are
Ed ge
3 50
ear ing
Ġpick ed
ĠTur kish
End point
am an
A li
ĠPr act
Ġme ets
k ov
mer ge
ĠX ML
Ġrece iver
Sports people
it ro
ynam ics
ĠJ osh
Com plete
l oss
ĠO pt
LE D
AT ED
; )
L imit
ĠN ag
leg es
Ġbr anches
Ġinv asion
Â ©
ph oton
Ġillust rated
ĠN ash
stand ard
ĠMor gan
Ġanim ated
M aster
Nav igation
ile vel
log o
Ġprov ision
Ġoff ensive
erv ing
typen ame
uer to
n ik
ĠNC AA
Ġut ility
T ok
ĠF le
ĠB uff
phant om
ĠPl ant
Ġtouch down
con duct
$ _{
10 7
Ġcommand er
F ocus
Am ount
M obile
ĠB Y
Ġcom plicated
clud ing
Di agn
ĠK az
CH AR
Ġim ply
Ġmark s
Ġth erm
Ġhon est
re nt
ĠConnect icut
AC H
Ġopt s
Ġterm inal
Ġstrateg ic
Ġred shift
or b
Ġfound ing
ĠF ive
} ~
us p
I AL
ter ior
Ġnorm ally
Valid ation
Ġvary ing
Ġbig ger
h ook
ĠAb d
Ġapparent ly
ra ction
in ian
ĠO C
Ġtrack ing
Ġparticip ation
Ġad mitted
18 90
cal endar
ĠAuthor ity
B ecause
ĠH ug
Ġhor ror
ĠâĢ ł
ch arge
N ative
M us
Form er
ĠOption al
u is
sp acing
E val
ĠArgent ina
i ology
uk i
ĠArt icle
Ġf asc
ĠRuss ell
Ġan om
Ġsystem atic
ter y
ge bras
ĠM eg
ĠAp ache
ORD ER
ĠD ublin
Ġw elcome
ĠMiss issippi
Ġsub group
ĠC ole
ĠF ix
Ġb ath
Ġb acter
Ġl ens
pol icy
Ġdisc ipl
D ATA
s ocket
Ġa str
Ġs ys
C enter
ĠSing h
Ġsignific ance
Cond ition
C lear
Ġpro hib
ĠS ets
Ġphil osophy
}) ^
Ġgeneral ized
W eek
Ġp ixels
Ġc ir
ĠEm peror
Ġmach ines
ĠSchool s
f ish
âĢĻ .
med skip
Ġmag ic
******************************** ********************************
Ġb os
Ġdecl ine
Ġcont roll
bound s
select or
Ġapprox imate
Con vert
Pl ace
Ġdise ases
sub mit
oun ced
Ġembedd ed
Ġfor get
ĠPortug al
$ &
G P
/ ">
Sup er
or ia
work s
D an
ĠK it
ers et
Ġinstall ation
ĠOrgan ization
Ġnormal ized
'] );
Ġann iversary
Ġt elling
Ġfle et
ĠCh ampions
ĠDe ep
Ġaut hent
Ġconcern ing
g ather
Ġmill ions
el astic
ĠIndones ia
is Empty
var i
Ġis ot
iss ance
tr l
Ġprov en
ĠS W
ĠHon or
l arg
Ġrul ed
Ġt ied
Ġpain ter
ss on
Ġabandon ed
ant on
pp ed
} ))
ĠAl liance
Ġleg acy
H ence
S pr
in ces
ĠAl b
Ġvis iting
Ġs weet
bo ost
Ġstream ing
Ġrele ases
if ndef
m essages
ĠM obile
Ġg ang
valid ate
Ġcons ervative
es a
ĠCh airman
Ġthrow n
ĠC SS
Ġph ases
column width
Ġatt orney
/ {
l on
AR N
Ġsup pose
d istance
run time
og onal
exp and
it ely
ĠAl ber
ph rase
Ġ' ';
RE G
Stand ard
( .
ĠÂ ·
STR ING
ĠWeb site
Ġfriend ly
ins ic
H om
grad ient
Ġpack et
ĠDoug las
Ġsup plied
Ġin structions
Ġwhen ever
Ġincor porated
ĠDe an
Ġsurpr ise
Ġs itting
ĠN ature
od ox
E ast
ĠY es
Ġassoci ate
Th rough
Ġo cean
Ġpl astic
Ġcount s
B D
ĠTh ough
Ġbu f
ĠP ap
Ġcomp ilation
ĠAb b
b ors
link ed
ĠY e
Ġsus pect
Ġadapt ation
end ment
Ġbe ach
Ġan th
Ġdiam eter
ĠM ust
Ġunivers ities
= [
riter ia
Ġrob ot
ĠĠ čĊ
Ġexc iting
Ġs ql
Ġ ur
Ġcut s
Ġrestr iction
Ġord inary
ar ith
w hat
ĠStud io
Pre v
Ġwe aring
Ġsing ing
Ġe g
() ),
OP T
t frac
ĠM ission
ĉĉĉĉ ĉĉĉĉĉĉ
qu al
ĠD ub
RE D
ĠMc K
HER E
Mich ael
C ALL
Ġclos ing
Ġh al
19 07
Ob serv
Ġprodu cers
ä º
Ġis omorphism
ĠĠĠĠĠĠĠĠĠĠĠĠĠĠĠĠĠĠĠĠĠĠĠĠĠĠĠĠĠĠĠĠ ĠĠĠĠĠĠĠĠĠĠĠĠĠĠĠ
ĠCov id
Ge ography
Id entity
Ġlog ging
RE E
Ġoper ational
Sh ould
Ġsp ac
dest roy
10 3
M ount
Ġchild hood
n m
SCR IPT
Con stant
Ġconsider ation
ĠI ron
at iv
Ġfore cast
Ġn ortheast
Ġthought s
Ġj s
Ġant icip
Ġen ables
Ġem issions
Ġpay load
Ind ian
Ġimprov ements
og a
+ (
ut t
ĠH ell
hy thm
ge on
Ġop ens
Ġfrequ encies
Ù ħ
ĠWork s
\ }\
s ync
Ġb are
Label s
Ġsurpr ising
ĠO wn
Ġident ifier
ĠM ort
ha ust
Ġbas eline
ĠD VD
B ottom
ab a
Ġexhib it
ĠPart ners
ps hire
Ġcons c
Ġt icket
Ã ´
F i
ĠBelg ium
ĠLaw rence
Ġs in
ĠH ockey
ĠInf antry
ĠM aur
hip s
s pl
Ġcollect ive
> "
Ġpl ain
ĠBul g
Ġin aug
Ġt ennis
G ER
Pl atform
=\ "
Ġst adium
ick en
Ġres id
DE F
Ġvol umes
oc a
J uly
ĠOr th
P ower
t z
Ġd ashed
ĠA pr
ĠO tt
ĠF ern
arch ive
f ef
cy cle
ab ul
Ġbeliev es
P ojo
Ġfarm ers
ĠM icro
Ġmechan ical
am ents
ĠLouis iana
ĠMem bers
ext end
Ġcoll ision
Ġas set
con structor
Ġconfig urations
ic ator
Ġen forcement
Ġacqu isition
Don ald
ĠG on
Ġ' ',
ĠG R
ĠMov ie
int eger
Ġgen re
as hes
com put
1 18
å ¤
Ġar med
O ST
De cember
10 8
Ġf itting
Ġd ial
Ġseg ments
^* \
Ġsche mes
Ġal cohol
ect ure
Ġmy th
Ġ\ (\
E ven
W ord
Ġn ick
Ġround s
sp ir
Ġch urches
Ġpri ze
ar ance
Ġl ots
Ġcoff ee
Oct ober
{ "
ry ing
Ġscen arios
Con structor
ĠM aterial
E ducation
ĠE arl
R out
Ġel if
Ġreve al
Ġo vers
B order
f ather
ĠIm m
App end
assert True
sequ ence
Ġdom ains
Ġt ang
ĠW ard
Ġground s
Ġt ough
Ġperiod ic
n an
ĠI L
ĠS A
ur se
Ġpublic ly
head ing
Ġn urs
Ġathlet es
re pository
ĠQue bec
n l
}} }\
ater al
Ġs ensor
Ġtrend s
Ġ" ",
t re
Ġagric ultural
ĠJ son
Ġstrict ly
Ġill ness
v et
}_{ -
19 05
Ġâ Ĩ
ru ction
C ONT
ĠC rown
Ġhol iday
Ġed ited
r ules
as a
Ġmin i
Ġhigh way
Ġoper ates
ĠC emetery
w ave
ĠGirl s
= .
Ġassign ment
ĠJ uan
T L
Ġ' .
b est
ok er
Ġfall ing
Ġb ul
Cont in
Ġ' ./
; |
Ġpubl ishing
Ġinh abit
B N
ambig uation
Ġat omic
We ight
Ġinnov ative
Ġmov ements
ĠÐ ²
ĠP ope
ĠH ave
Ġtyp ed
Ġinform ed
ri ent
m ount
ĠK ings
Ġregard less
ĠP DF
ĠAn na
ĠK er
ĠAL IGN
hoen ix
Ġl ands
][ ]{
fin ite
M AP
Ġc up
ĠBang l
aud io
d ynamic
Ġto ler
Ġqu eries
Object s
Ġt ropical
ĠC P
Ġ} {
Ġat oms
Ġmodel ing
Sp an
i ot
Ġf erm
m aker
em pl
ĠO d
Ġph arm
H tml
ĠArm en
\ }$,
ne e
ĠL ane
ĠN BA
Ġext ensions
Ser ies
Ġh ired
Ġgu ests
ĠC NN
Ġfra ud
ĠH oll
Se ptember
ĠKenn edy
R h
Ġmar ine
enc er
}} =
ĠE ss
Ġgovern ments
m ates
Ġt d
19 09
\ |\
Ġaware ness
n ative
B T
ĠD est
Ġsh arp
A SE
Ġde put
Ġres olved
Ġrecon struction
ĠSte el
d uration
us r
Ġmet all
Ġst abil
ĠCo q
Ġf urn
$ {\
sect s
Ġc yl
Ġassert That
Ġimprov ing
ĠPer formance
Ġguarant ee
Ġvict im
ĠHar vard
Argument Exception
Ġcommission ed
Ġ_ ,
Ġguid ance
Ġund ert
Ġdet ector
Ġcheck s
ĠDel hi
Ġt el
St atic
10 6
cont ents
ĠRefer ence
SS L
LO C
ĠP rix
Ġabs olutely
is ot
Ġp sy
A lex
t ouch
ĠDen mark
z ym
um ar
iver pool
Ġem pir
Ġco ins
ch anges
per iod
Ġequival ence
load er
Ġcompet itions
ĠY an
Ġpaint ings
inst ein
Log in
Ġcon vention
ĠM agn
ĠW as
Ġs b
Rem ote
R ate
direct ory
ĠT ig
Ġfl ash
Ġiniti ative
ĠSquad ron
Ä «
ip edia
ĠJ ob
D id
Ġoper a
Ġconsequ ences
Ġbl ow
Ġperm issions
ĠP od
Ġfew er
ĠBatt alion
p rom
Ġ( ),
Ġprofession als
. :
ĠL anc
Ġf est
ĠB eck
ĠSim ple
Ġfin ishing
Ġeng agement
v ars
pro gram
B ad
ĠThom pson
Ġ@ "
le e
f its
h al
valid ation
ĠF inn
ĠS ac
ĠTr avel
ĠP ear
ĠPortug uese
ĠA BC
B ro
Ġaim ed
ĠBalt imore
ĠC C
Ġ" ";
Ġan not
CD ATA
oc ese
Ġtot ally
ĠC ensus
Ġbeh alf
M icrosoft
ac ew
G M
ĠR ain
t ensor
Ġsol ving
Â ®
ams ung
TR Y
C apt
ig o
ot ions
i ere
Ġres idential
Ġa ug
Ġfocus es
Ġn ations
im itive
cript ions
L ive
Ġd ip
back s
s b
ens itive
Ġl aser
Ġgen etic
ĠC it
Ġnarr ative
Ġfluct uations
in burgh
Ġform ally
p b
de ep
ĠCro at
ĠPal ace
Ġasympt otic
Ġcomp ress
f etch
Ġap ilevel
19 06
oust ic
Ġt ur
ĠSt ill
lik ely
ĠMot or
Å Ł
Ġent ities
Ġim plicit
R a
ĠM ess
col lect
ou ver
ĠSim ilarly
t ures
Ġa ired
trans action
ĠB ased
Ġrestaur ants
: @"
Ġs alt
ĠB art
he ta
y t
ĠV egas
Ġpull ed
Ġconven ient
ĠC os
im its
Oper ator
Ġencour age
ah n
st ud
Us age
ay an
cos ystem
Ġal ive
t ail
Ġfil ters
ĠMar shall
Event Listener
Ġhead ed
cy cl
ĠMethod s
Ġres idence
Ġkind s
ĠV ik
T ile
ub s
Ġw avelength
ĠDep uty
ĠCl inton
p ages
rypt o
urric ane
ĠD ance
MOD ULE
dis able
fig ures
he el
ĠEconom ics
ĠPubl ishing
X i
ĠR ace
bo ards
Ġre ly
Ġre aches
g re
Ġing red
ĠPr ivacy
Ġ( ,
Ġselect or
More over
ĠRob inson
ĠStud ent
old s
Ġsing ers
ra ig
: =\
Des ign
Ġst ating
Ġanaly ze
Ġdef ect
Ġgreat ly
ĠAdd ress
Draw ing
Ġback ing
em bed
ĠE mb
ious ly
ĠN eg
Ġaccompan ied
Ġprepar ation
ĠDo es
le tt
Ġint ention
Ġrepe at
B usiness
Ġconsist ed
Ġstrugg le
ĠFin ance
ĠF ried
ir ates
Ġenh anced
Ġj unior
Ġstr uck
ĠBrazil ian
| ^{
ff f
Ex ecution
Ins ert
an imation
Ġgovern ing
Ġsub mit
s ong
Data Type
S chool
Ġe c
Ġy es
Ġrecover ed
Ġw el
ĠC S
Ġautom atic
ĠM aine
Ġman aging
Ġcert ificate
ĠBet ween
Tele vision
B orn
d anger
un ning
Ġorgan isation
w br
ĠK ir
Cont ents
ĠCh apter
eb r
M art
ĠF M
Ġindepend ently
ey ond
Ġhistor ian
Ġtr im
com plex
Ġd elta
Ġis lands
Ġcour ts
Ġb ird
Ġst retch
c ity
St ation
at io
Ã ª
Ġfin ance
ĠAtt orney
enez uel
nob r
Ï Ģ
Ġpl enty
for Each
Ġag es
et he
ĠC leveland
ĠS ud
ĠF ight
I Z
Ġste am
element s
Control s
ĠSever al
' _{
An notation
Ch ain
t l
ĠCommon wealth
& =\
ĠBill board
ĠCol omb
te am
ĠL iving
ymmet ry
ĠWhe ther
} |\
ial s
ĠGr ad
ĠEnvironment al
ĠPit tsburgh
Ġform ing
ĠAnn ual
end ers
Wh ite
ĠIl legal
iv ia
ex tra
g oto
Ġrun ner
Ġs ocket
ĠW ord
d ag
ĠBru ce
Ġrun time
OR K
ĠTh ailand
ĠF al
st eps
19 01
t age
Ġmet res
ro oms
Comp iler
ĠSam uel
fef efe
ĠMalays ia
Ġher itage
Ġ-- -
win ning
Ġcur vature
or us
, .
Ġs outheast
Ġpay ments
Ġpod cast
ĠP eters
ĠRel ations
Ġaf ternoon
Ġsurv ival
et ric
Ġ( +
Ġrac ial
m obile
alt Color
DO M
Form s
19 04
Ġpr on
d irection
gener ate
bas ic
Ġh ook
av i
ĠL P
}$ }
av ia
ĠRem ove
Nov ember
Ġ( {\
ĠBr and
ĠT an
ĠD M
sub sec
Ġmet ers
Ġto x
ĠH ad
it ure
Ġent ang
l int
ĠTh er
m ix
n est
ou pl
ex ec
ĠBe at
ĠPat ri
ĠL ang
Ġex ports
P red
ĠC row
Ġ Ñģ
back slash
bor ough
Ð ¿
ĠPy thon
ĠArk ansas
Ġfe es
Ã «
plet ed
Ġcoron avirus
m atic
L D
F ootball
Ġwith draw
Ġdef ining
W H
tri angle
m outh
Ġsecret ary
Ġd t
ĠAd ams
Ġarr ive
ĠChrist opher
Ġdeal ing
Ġrece ives
Ġre putation
> )
Ġpack ages
su it
view port
ĠTer rit
Th row
ĠMon te
Ex per
ĠH it
T ex
Ġthem es
11 4
comm it
m f
Ġ$ _
ĠI C
ĠB ed
Ġre ign
ourn als
ĠPe ace
os c
Ġh ip
ĠStew art
âĢ ĭ
Group s
l ive
Ġ\ &
Ġimpress ive
ex pression
ĠSh ar
im m
g z
ab i
STAT US
Ġcon front
Rel ated
ath y
ĠH ero
Ġsound track
ĠRepublic ans
b ul
Sup pose
an ion
li bs
ĠL GBT
Ġreg ression
F older
Ġdist ances
p id
Ġproport ional
ĠR ic
F rames
Ġa ria
ĠL INE
ON G
ill o
il ty
ol ished
Ġen semble
ĠT ar
ĠM atch
| }{
And roid
M ag
ĠN ation
load ing
raz y
ĠStud ents
ch art
ĠMc G
Ġthous and
Ġc ited
Ġshop ping
\! \
refer red
ĠW ang
Ġvac uum
Ġend point
abl ing
Ġim plied
W B
Des pite
Ġdynam ical
." ""
roph y
F ace
met ic
ĠHistor ical
m iddle
f mt
R oman
Spec ial
rel ative
ĠD oc
ĠC er
ex pl
E lect
ĠN elson
at ibility
10 9
Ġbreak s
r ating
Ġsurn ame
dis ambiguation
scal a
ĠSh ah
Ġrec ru
) })
ĠCar ter
BU IL
q q
Ġpopular ity
re le
Ġinher it
External Task
Ġm oth
elf are
V ill
ĠY ang
ĠAd vis
m g
Ġrecord ings
ass ign
ev a
m ms
ĠEx change
C ounter
T om
ĠG il
ab c
ĠBo ys
Ġabsor ption
Ġresc ue
Ġman ual
ĠĠĠĠĠĠĠĠĠĠĠĠĠĠĠĠĠĠĠĠĠĠĠĠĠĠĠĠĠĠĠĠ Ġ
Ġtext ure
Ġpark ing
or ro
ĠF el
Ġj uris
Ġf itted
Ġrad i
Ġput s
Ġst ochastic
qu est
^{ (\
cent ral
ä ½
Ġdev iation
Ġhol es
ĠW right
ĠJud ge
ass ador
Ġansw ers
Ġch ampions
read er
;| &
Ġdeg ener
ĠDr ive
ĠF em
br ane
bl ing
ExternalTask Pojo
al ph
Ġg ay
qu ality
Ġflow ers
Ġs ad
Ġfair ly
Th ree
Ġ\ !
m illion
grad uate
Ġout standing
m akers
ĠT alk
ĠNav al
lim inary
l icense
Ac cept
Ġre b
Ġbi ological
and al
ĠCommunic ations
Ġcompar able
ĠC ert
Ġa ux
w arn
et o
Ġeigen values
= $
Ġcal endar
b oy
Ġsph ere
19 03
ĠD J
Ġexpect ations
ĠG ray
ĠBuild er
pt o
Ġcirc ular
Ġqu ot
ĠJ enn
UN T
ĠN i
^* (
Ġdifficult y
Ex port
st ory
ĠN ic
ĠInt eg
ir rep
ĠF red
Valid ator
du ces
tikz picture
Ġf mt
_ );
Ġto kens
Ġden ied
ush ing
Ġremov al
A ir
Ġrank ing
min ute
ul p
arg uments
struct ed
Ġs ync
Ġprocess ed
anch or
Ġc rown
ORT ED
duc ible
j amin
ĠP sych
Ġstraight forward
ĠP ad
S am
pre vious
Ġant ib
Ġf its
ane an
J ack
str y
T oday
Ġm ilit
Ġadvent ure
decl are
d n
UT H
R andom
row th
Ġun iqu
ĠÃ ł
@ {
CO MM
ann on
Ġtrans itions
ĠW IDTH
ĠPr ice
Ġc od
ĠK o
ĠDom in
Ġde als
Ġappoint ment
Ġh at
18 80
Ġelectric ity
B eh
Ġbre ath
h alf
ĠC F
24 0
Ġfant asy
Ġsuper ior
Ġw et
M essages
Ġfem in
ĠCon stant
Ġprint ed
Ġsk ill
Ġcr icket
L ibrary
claim ed
ĠSen ator
Ġuncertain ties
U pload
Ġcritic ism
m ill
Ġke eps
TER N
Ġrepresent atives
Pro fess
enc ode
az ines
S ort
Ġmid field
Ġany where
Ġsum m
ĠK l
M aterial
ĠNew ton
ĠPro file
ĠConfig uration
ĠMatthe w
Feb ruary
s ass
Ġinitial ize
LE MENT
Ġspirit ual
Ġ& #
Ġf irms
ele m
Ġch a
re str
AT TR
T ri
c ountry
Ġequ ally
Com put
M ilitary
× ª
Ġmat ched
Seg ment
equ ations
} >
Ġcut ting
Ġre act
Ġrecogn ize
ID E
Ġb io
Ġorgan ic
Ġaddress ed
Ġclass Name
ĠEx p
ĠAss istant
B inding
ĠWith out
tr ain
ig inally
A z
G EN
Ġp overty
aa aa
Constr aint
ĠM ock
ĠT arget
Ġun expected
as ant
# {
Ġr id
Ġp ushed
ĠProte ction
ĠB ou
Ġdis appoint
Ac adem
Ġlik elihood
id ad
ĠR ange
Ġenc oded
th ree
ĠClass es
ĠN um
Ġelig ible
H am
Ġas ks
ch arg
av is
ĠL com
}\ |
ĠR ub
Ġeng age
ĠSaf ety
le ans
she ll
ĠBrig ade
W I
Ġt unnel
Ġperson ality
ĠMar ie
i ang
Ġgravit ational
Ġ" .
Ġcomp aring
Ġlumin osity
FF ER
G l
ĠR y
Ġim pr
ĠOr chestra
Ġpolar ization
A ST
Ġr um
ĠSt age
ĠB log
Te am
Ġweap on
t v
ant i
ĠS elf
ĠIm perial
Ġne arest
19 02
A rm
iz ard
Ġeth nic
list ed
ĠM ars
ce iver
Ġextract ed
B ur
. -
S en
ro se
Ġge ometric
Ġtw elve
ili ary
cc a
Ġev il
Ġunus ual
B IT
Ġc ogn
ĠK itt
Ġsevent h
um ul
Ġb ot
Ġfrequ ent
ĠH erm
Ġtarget ed
ĠD id
Rober t
ĠF O
Con verter
K it
get s
ĠJon athan
ĠH ind
Ġpay ing
anc ouver
Ġsh ots
ĠL ock
ĠCh amber
Ġgu idelines
Ġconsider able
ĠCamp bell
Ġav ailability
Ġschol ars
se lection
Ġp or
Ġtri ple
Ġtop ology
z es
Ġrep air
multi row
Ġear liest
ĠP uerto
ox y
ĠR oom
P acket
Off icial
Ġf ishing
sp irit
14 4
Ġcl ar
Ġjud ges
j or
W ORD
Ġpri est
ĠEd inburgh
Ġl icensed
Ġ$\ {\
HE AD
Ġf inger
ĠChall enge
Ġgrow s
Sc ott
ĠFin land
Test Case
Ġs le
Err ors
Ġ æ
ĠW ind
IC ATION
Not able
;\ ;\
HO ME
id ity
ĠD anish
Ġearth qu
sh are
Ġexpect ation
Add r
Dep th
B inary
ĠMic hel
Ġmonth ly
H istor
Ġsurv ive
Ġlif etime
Ġsuff ering
Ġg ram
ĠH ope
Ġ" %
Ġrest ore
Ġw ider
All oc
Ġun like
ĠJ u
Ġpres erve
Res olver
T y
ĠS end
it err
Ġim aging
Ġpar a
b ach
ul er
Render er
ĠM achine
Ġjournal ists
Ġh ill
) ^\
vert ex
Ġcelebr ated
f are
ĠRog er
P od
ĠSp irit
Ġelect rons
ĠOut put
< <
or ry
Not Found
c v
Ġr aid
Ġstri p
Process or
ip art
ĠL evel
Ġarg ue
stats models
> '
vart heta
Ġelect rical
Ġb ag
Ġarr anged
A bs
ur ities
M a
ĠN ep
ĠG un
Ġcast le
K L
Ġs a
Ġuniform ly
ĠBrook lyn
Ġinvolv ement
se p
Ġsubs cription
Ġl ux
ĠComput er
Ġme at
Ġshe l
Ðµ ÑĢ
ĠElect ric
Ġexp ed
Sy ntax
ĠI ce
prov ed
K S
er en
Ġtro uble
iv ities
ĠS r
ĠL ower
m ir
on na
ĠM ut
Ġf ol
Ġrest ored
ĠM i
c ourse
act ual
Ġ' %
Ġm igration
Ġloc omot
Ġpro to
5 12
Ġequ als
Ġindust ries
ÃŃ n
per ature
ĠSh op
Ġex clus
ĠT ab
j ax
Ġover se
V C
Ġf i
N UM
con tain
Ġre ception
Ġd owntown
ol utions
Ġat om
Ġdecre ases
em it
è ¯
Ġ> >>
ro b
List en
Ġs wit
ĠW oman
Ġdem ands
ãĢ Ĥ
Ġemer ging
Ġto w
ĠLiber al
down arrow
Ġcho osing
In f
oth y
Ġcompet ing
ĠKn ight
ĠAp pe
ul u
Ġshe et
Ġg olf
ĠTh read
ĠF ourier
ĠPl us
Ġal pha
Ġdistingu ish
ĠL eft
Ġbl ind
> %
Ġrep ly
Ġsold ier
im p
EE E
Ġalign ment
Ġs ick
Ġart ificial
" },
Ġpl asma
re po
] ))
Ġins ight
ĠP ast
ĠI F
Ġre pository
Ġland ing
Ġdam aged
Ġn eck
LA Y
c ost
Ġent hus
ĠPr incess
ĠCon text
à ¦
â ĪĴ
Ġconj ug
Ġspe aker
ĠCr ime
p read
em ed
Ġremain der
ĠTra il
ester day
Lo op
link s
ĠN ord
ĠG ary
ĠMarg aret
Ġinterview s
ĠCent ury
AT OR
ic ode
ĠS ex
ĠSm art
S al
Ġs oph
Ġexpl oration
ject ure
ĠPh D
Song s
Ġdesc end
Ġt act
Ġr anging
FI ELD
S ite
ĠAfghan istan
inc or
r h
Ġprote ins
ĠCh ampion
Ġfund ed
ĠC ancer
> ;
T AG
ex cept
up per
Ġrom antic
Ġres ign
Ġhelp ful
Ġelse where
Ġse ar
ĠMar vel
Ġdis establ
ĠR elease
L ib
t own
Ġencour aged
Ġg aming
Ġdog s
ob i
Ġd il
Ġwh ilst
r uct
V A
Ġplace holder
e or
CON FIG
. \\
Ġthe ater
int o
A fr
agr ang
E Y
lot te
M o
cre ens
Enc oding
. [
C LASS
ĠS pect
Ġs ke
Ġd uties
ens ively
Ġo xygen
com pute
um ption
Work s
ad oc
Ġcan vas
ĠPol itical
ĠMad rid
ĠP un
ĠF ant
um ped
ĠHam pshire
ĠL iverpool
cont act
ĠP S
V P
ĠG ulf
n os
ĠMur ray
Ġsup plement
Ġrep orter
ĠL anka
Ġval ley
ĠSup pose
math it
ĠBangl adesh
Ġreal ize
Ġelement ary
ĠB aker
own ed
Ġ ----------------------------------------------------------------
Ġrequ iring
ig g
Ġhe ter
Ġhydro gen
Ġout door
Ġ âĢĻ
ab e
Ġtempor al
im ir
Ġt issue
Ġne ur
ĠPr imary
equ ate
Al bum
ath on
ĠG ill
top ic
Ġsurv ived
Ġt ie
Ġcomp iler
g ments
h ai
d ensity
Ù Ī
ĠF oot
( -\
ĠOr leans
Ġf ro
G G
ĠRef orm
ĠD ays
Ġfocus ing
Ġas semb
Ġin duct
ĠP aper
N Y
J o
V irtual
ĠK an
ĠA qu
Ġhe ll
Ġ< -
onom ous
ĠG alaxy
Ġsurround ed
ut ed
ĠST ART
D iff
D ATE
text up
Ġsepar ately
Ġwebs ites
Ġsusp ended
it arian
ĠE dd
Ġre plic
c assandra
Res earch
( ['
ort s
Ġinv olve
Ġw edding
ud son
Ġb ases
Z one
get Id
ex ecut
\ /
] +
B ool
irm ingham
Ġc able
Ġremov ing
Ġincor rect
ĠCar ib
MM ARY
M ust
not ag
{ .
Ġde leted
a ac
B atch
ĠM E
Ġarch ae
as is
iv an
Ġ{ %
Ġsup plies
ri ble
IN ST
v endor
Ġb le
ber ry
ĠDat abase
Perm ission
ĠFrank lin
en o
Ġderiv atives
rout er
ĠB reak
ĠL ag
ĠH end
ĠD ictionary
{ |
ĠRes ult
Ġdispl ays
column s
ĠZ one
Ġ ig
Ġoutput s
13 5
Ġb om
ĠG raham
Ġf oss
Ġsports people
p us
ĠDE FAULT
ĠHun ter
Ġrandom ly
Ġliter al
ac ef
iv o
C ountry
Line ar
Ġâ Ĥ¬
Ġp uls
ĠY et
Ġstead y
Ġpro x
Ġres idual
sl ant
Ġdiff usion
patch er
Ġcorre ctions
Ġsupport ers
rem ote
Qu ant
Ġsp okes
Dr ag
Ġcr imes
b lob
Ġ å
w i
Ġexpand ing
Ġp ending
F OR
ĠZ e
ĠH ost
ĠChar lie
int s
ĠP ref
) }.
erv oir
ine a
Ġun f
ĠDak ota
NO DE
ĠK on
ĠThe ater
ĠL E
Ġw ides
B oth
Ġ _{\
R ot
Ġrul ing
ĠB lood
g ray
. $$
eb ox
ĠP red
be ing
H A
ograph er
S ame
Ġb one
li ed
ĠMet ro
ĠS ide
Ġch ains
\% $
ĠAct ive
Ġweight ed
ard ing
Ġp ump
ĠC ell
Ġdo ors
ĠMon th
ĠMont real
Ġinter vals
ĠT ob
Tim er
e lection
int ell
ĠR io
Ġpres erved
p kg
mat htt
Ġover view
Ġref lection
Ġdis able
Ġvis its
ĠMor ris
ĠWork ing
ĠD ie
ben ch
Ġst em
Ġcons ent
Str ategy
Ġadv ers
be at
cor ollary
ag ma
Ġrecommend ations
ĠS R
Bl ue
H ave
Map per
M ean
Rad io
Ġours elves
Ġrec urs
ache l
Us es
Ġd ose
ex amples
Ġl oyal
ĠOper a
ĠCom par
Ġel der
Ġactiv ation
"> (
ith uan
Ġfr ust
im ension
Ġsu icide
if le
b n
ip ped
= %
Ġp ole
Ġexam ine
r ame
up t
Ġwonder ful
ĠG T
N a
Ġb at
upl icate
ĠD ise
ĠAnd y
ĠM ind
ur u
ĠL ess
Ġin duction
ev ens
.* ;
re ck
ol en
ĠB ible
n ia
ĠC arn
Ġdis contin
Ġperturb ation
in cre
Ġart istic
ĠM other
sc ar
ĠGu y
Ġim g
Miss ing
Ġde ck
sl ide
b oth
Ġres ident
ĠLie utenant
ĠP romise
Ġhapp ening
Cl ub
O k
}{ {\
L ear
Ġoccup ation
ĠR ot
char acter
Ġs lope
Ġe cosystem
our t
Ġbelong ing
n ol
ĠTam il
AS K
R UN
Ġvari ants
UB LIC
F eed
ĠPort land
V ICE
F ac
Mon itor
is o
ist ically
at ile
ue z
ĠG raph
Ġform ulation
ĠA y
ĠU til
0000 00
Ġart ifact
og ical
ĠSt ars
Ġs urre
ĠT ak
iterr anean
ĠJ e
Ġmount ains
Ġqu ark
H older
ĠTh ings
build ing
Ġorb ital
an Ã§
ĠC ass
ĠÃ ī
ĠAl tern
B ounds
r pc
Ġatt ributed
Array List
Q ual
Ġcy ber
del ay
Ph ys
Ġperform s
ut ral
sh arp
sol id
st rip
final s
Ġinhabit ants
Ġinter vention
Ġpubl isher
5 000
ĠIm port
Ġstay ed
R ows
Ġreg ulation
ĠUp per
u uid
ĠIm ages
Ġch rom
ĠProfess ional
Ġf etch
RA Y
Ġcomb ine
ij ing
ig s
ch t
Con sole
n ate
Ġb ug
grad ed
ĠMit chell
Ġbox es
Ð° ÑĤ
Ġcomp iled
ĠSpe ed
uff ers
ov o
book s
am ount
ik es
C amp
is cal
ro d
ĠF am
Ġcoast al
S ever
Ġb oot
18 98
gener ator
Ġul tr
ĠStan ley
Ġg rap
ĠSt orm
V AR
Ġre tained
k n
ĠCon vention
Ġannounce ment
Ġleg s
Ġcontract s
Ġf older
m al
ĠInst all
Ġserious ly
ĠNet flix
Ġex haust
ap ple
: '
Ġbl ank
) >
ĠP hoenix
ĠCol umn
ĠM asters
R ussian
u et
in x
ĠÐ ½
Ġsup ers
ik o
arr ant
Serv let
b inding
g h
m aps
ig ator
ab stract
ĠSh ip
En v
can vas
g ow
Null able
Ġtransform ed
i per
19 2
Dep recated
at om
r ations
Ġout break
Ġover flow
Ð ·
Pro duction
sc ore
Ġlaw yers
Ġsol ved
EN V
ĠComm ander
Ġfl ights
to Be
Ġhabit at
S elf
iss a
Up dated
g ems
op am
ul ates
ĠEv ents
u ity
writ ing
ĠK arl
Ġd ictionary
is an
Ġcelebr ate
P resent
ĠFreder ick
Ġphenomen on
12 1
Ã© n
ĠR and
Ġinterpret ed
Ġhand led
= &
Ġap artment
p al
f our
ĠClass ic
Ġmolec ules
ĠEv ans
Ġt iny
Ġre actions
ĠBro thers
$. }
Ġdest ruction
( ()
att ed
Ġm ath
ĠC T
b ib
Ġinher ited
ĠM ak
Sc ore
ĠFe ature
d ale
Ġqu as
Ge orge
Ġs ail
ĠH E
2 20
log ging
F act
ĠP ictures
Ġabund ance
mem bers
Ġh alo
text normal
ation Token
ic it
Ġamong st
en h
An n
Ġmer ger
w allet
Ġmix ture
w hel
pan ic
u ates
op les
ĠJ ess
Ġemer ged
agrang ian
ĠAl fred
Ġdevelop er
ĠF err
Ġalgebra ic
2 30
str ings
H I
c ov
ĠLegisl ative
tim estamp
b ie
ĠCh air
ok a
Ġhom ogeneous
F UN
Ġfl ower
Ġforest s
Ġh ate
th ick
ugg ing
ĠT s
Ġrespond ed
Ġport folio
k ar
ĠPerson al
D irection
ĠTog ether
ĠFl ore
Depend ency
Ø ¯
Ġf ul
Ġc oc
Ġ{ },
G ui
Ġep och
! ]
Ġtax es
ĠHung ary
ĠC atal
Ġcomp ound
ĠI an
ĠâĨ Ĵ
G old
Ġch unk
oper ative
ĠSt op
e u
ĠCarl os
Ġtext s
cel ona
Ġnot ably
U CT
Ġf er
AV E
ac les
ĠA rena
Ġdeleg ate
ic ht
Ob server
C ulture
ic ates
) ",
| $
le ading
ĠN ad
Ġob lig
l icenses
Ġperm itted
": "
intell ij
ed a
I r
Ġlog o
18 70
Ġdiagn osis
4 50
Ġcolle agues
Ġobvious ly
ast ery
or o
ĠCO L
ĠBern ard
ot ton
Ġfl av
Ġsh orter
Z ero
ĠQu ery
Ġperm it
Ġl os
rom agnetic
A Y
m issions
Ġpra ised
Ġlabel ed
ĠH iggs
ĠDef inition
Ġhop es
ĠF alls
Ġknow ing
Ġemb r
55 5
w alk
ĠMov ement
Ġcr ack
p ubl
Ġb oss
11 7
Ġactress es
Ex press
un lock
Ġuser name
Ġsim ulated
Ġsm allest
Name Link
ĠPl atform
g un
Ġad s
h yper
Ġdeploy ed
Ġup grade
acew atch
Ġm or
IL ITY
Ġcir cles
j Query
ĠSing le
ĠUn iverse
ĠSU MMARY
R ound
ĠInt elligence
f av
Ġint ellectual
ĠJim my
ob e
)} (\
C LA
el ian
Ġven ues
Ġrad ical
h istory
ham mad
ograph ics
Ġinter pol
g if
trans l
ĠM I
10 24
Ġrat ios
Ġpaint ed
Ġaff airs
f p
ĠT rib
M ass
Ġsc an
An alysis
è ¿
ĠS yn
Ġpo em
ĠV enezuel
Ġcorrespond ence
Ġdistingu ished
Sh ared
p ad
Task s
Ġanaly zed
Ġcred its
Japan ese
Ġorder ing
Ġagric ulture
Ġres igned
Ġm ilk
ĠP il
ĠPol y
ĠR ud
Ġcap s
Ġal ias
ĠH orn
c n
18 99
Ġp ip
ĠThe ory
Ġviol ent
Ġwides pread
um ed
ins ula
U ES
Column s
cast le
Ġinsp iration
ĠC ultural
ar us
Ġd ot
we ak
chi at
ĠLINE AR
ob a
pl acement
L and
d jango
ĠG olf
ĠS L
sur face
Ġpolynomial s
ĠR acing
asc ular
B u
Ġhead ing
Ġreported ly
ĠSp acewatch
ĠMult i
C over
P an
m ade
s afe
Ġr ivers
Sign ature
ĠCom ics
Ġanalys es
ĠSoc orro
bet ween
Ġcond itional
u its
Ġsh adow
em a
Ġgen es
ĠCh art
in formation
Ġrel ating
C ursor
**** **
ĠS audi
ĠD raw
V O
an ne
ĠIn ternal
It alian
Ġanalyt ic
Ġaug ment
ĠG P
Ġvess els
ĠM yst
ĠAr n
ĠL LC
C oin
> ()
Ġquadr atic
ang les
ĠT ol
ĠOC aml
ĠB asketball
QUE ST
Ġactiv ist
w iki
Ġra ising
Mon th
Ġtim estamp
12 4
he ets
DE X
ĠS oul
ĠDe lete
Ġf abric
Ġexpert ise
N I
ĠMount ains
Ġh ack
ĠR u
ĠP oll
SO UR
Ġbus y
Ġt ickets
str ument
Ġproject ed
Ġdens ities
Ġt ill
Ġform ul
}$ \
Col lect
Ġl ibraries
Ġ" [
Ġpl ots
ĠAl aska
Ġcool ing
th rift
Ġorth ogonal
Ġp in
f ake
ĠF ine
Ġc ous
Ġdisp ersion
Ġdiv isions
ĠM oz
foot notes
Ġmarg inal
Ġclose st
Ġpro be
ifest yle
Ġ\ [
ia o
Ġsudden ly
Ġsuggest ing
s z
ĠP ra
ann es
ĠM aj
Ġpost erior
ĠF isher
Av ailable
Ġang les
ĠMP s
Ġcor relations
Option al
ard ed
Ġphot ography
Ġperfect ly
S ocial
G rad
ĠĠĠĠĠĠĠĠĠĠĠĠĠĠĠĠĠĠĠĠĠĠĠĠĠĠĠĠĠĠĠĠ ĠĠ
ĠCl imate
Ġsim plicity
ch at
ĠT i
op ens
Ġreson ance
ou p
ĠS eg
b ai
d ied
Ġmer ely
Ġg allery
Ġrare ly
qu er
mit ter
. ),
SS ION
tes y
Ġexclus ively
Ġfe as
f actor
Ġwat ched
11 3
Ġcom ed
p iece
ĠF ather
el ines
t b
ĠSy ria
ĠOper ations
Ġ elli
Ġdep icted
ĠS ales
Ġpar ad
P ut
g ent
Ġtraject ory
ĠU pon
Ġcheck ing
d ing
em en
ĠG as
dr iven
T ouch
ĠF ast
ĠMet ropolitan
un ion
Ġ ĉ
Ġcampaign s
m und
Ġv m
Re ception
Ġreal istic
Ġreview ed
ĠF reedom
var rho
B its
Ġmaintain ing
~ (\
it ime
Ġsac r
Compar ison
au er
N eg
ĠN at
Con tains
ĠS now
Ġgrad ually
ĠFor um
ĠWel sh
Ġlong est
T or
b undle
Ġch amber
Ġdecl ined
Ġ ,\
it ol
V I
ĠLeb an
Al ert
ĠJ azz
LE TE
ĠO bl
comm unic
Ġdeput y
st mt
ĠR ick
Ġorgan isations
Ġco operation
Ġdeep ly
B ER
rem arks
ĠWay ne
Ġl ights
X Y
Ġaccord ance
( --
duc ational
Ġt ort
Ġbr ick
ĠUr ban
usal em
ĠOther wise
Ġstr ange
ĠSt ories
å Ĭ
ĠO K
Ġimag ine
sh aped
Int eg
Ġas c
Ġ ere
le arning
Ġpat ent
AS H
ort ex
Ġst ick
Res et
Ġre ven
Ġgre y
Ġinteg ers
ĠT ry
ĠTh ank
Ġcaref ully
m apping
Ġw ond
al ias
ĠWar ren
Fail ure
ĠN am
Ġnot iced
ĠHel p
Ġm ic
Arg uments
un ches
Dis c
Ġi Phone
ĠG ate
b ug
ĠĠĠĠĠĠĠĠĠĠĠĠĠĠĠĠĠĠĠĠĠĠĠĠĠĠĠĠĠĠĠĠ ĠĠĠĠ
17 0
ĠBroad way
ĠW orth
ĠĠĠĠĠĠĠĠĠĠĠĠĠĠĠĠ ĠĠĠĠĊ
Ġg all
Ġconstant ly
Sec ret
b inary
Ġpass age
u art
Ġd ynasty
Ġthreat ened
S plit
Ġfunction ality
in variant
script size
uc lear
Ch art
ĉĉ ĠĠĠ
Ġref lected
Ġt one
Ex pat
ad v
ĠU V
Execut or
ĠV ancouver
Ġven ue
ĠCred it
stack rel
ĠD R
ĠT ower
ĠPark er
ĠK u
18 97
Ġv it
Ch anges
Ġpseud o
ra id
Ġst y
th a
L ead
Ġst ops
ĠSt re
Ġsynd rome
ĠR ugby
C B
Ġrank s
W W
p d
Ġcancell ed
Run ner
ri el
ĠBr anch
ĠC lear
Ġg od
18 96
ond a
Ġcy cles
ĠBar bara
Ġs ectors
ĠMat hemat
oc hem
ĠMin or
unk nown
ĠCont act
Ġcas ual
Ġlabor atory
ĠS S
Ġstream s
ĠCh o
Ġcontinu um
Ġtrans it
ĠOr ange
S witch
qu et
ĠTh or
ĠCon vert
Ġview ers
hat tan
create Element
ĠR ural
Ġm oral
____ ____
Ġg raphics
Ġg host
Ġcomfort able
Ġlog in
ĠCamp aign
Ġth orough
og ue
Ax is
Ġdelay ed
h is
Ġb ull
Ġlog ical
(" %
Ġd ated
Ġhigh lights
ub ern
18 95
Ġperm ut
St age
Ġt ens
ĠĠĠĠĠĠĠĠĠĠĠĠĠĠĠĠĠĠĠĠĠĠĠĠĠĠĠĠĠĠĠĠ ĠĠĠĠĠ
Ï Ĥ
Ġref resh
ĠA ld
app ings
ĠBas ic
a que
G F
serv let
Ġleg it
Ġ" '
ĠB ud
ĠG ot
Ġident ifying
T Y
ce il
get Instance
w ind
ĠP ow
ey er
includ es
Ġc urrency
Ġdis ag
ĠMag ic
ab ol
Ġev ident
ĠAl gorithm
Ġprotest s
Mod els
en z
Part icip
Ġp ic
ĠCl ar
Ġdialog ue
ĠAl ban
ĠAg reement
ĠW a
L at
text color
}{ *
ol ia
ĠM ans
(' <
ĠF ro
og s
j k
ĠPl anning
Ġempir ical
ab olic
ath ers
Ġmanufact urer
ĠHawai i
Ġt y
12 2
Ġadmin ister
ĠAust rian
Î ·
Ġcolon ial
Ġsynt hetic
Ġnot ing
Aut hentication
RE CT
Output Stream
S il
{ (\
Ġcoun sel
ĠCommission er
out ube
Ġver b
footnotes ize
Ġvess el
G IN
Ġsp ark
w right
Ġdevelop ments
_ )
e enth
Ġequ ity
Ġm eth
A SSERT
s ocial
Ġm esh
Ġthere by
mult line
Ġv ital
c ill
ĠO P
Ġpriv ile
Ġsp oken
ĠMay be
Ġb il
ĠRail road
ĠCommun ist
ho le
ach i
ĠKe ep
Ġhas n
hen g
ĠM all
Expat riate
ĠCon n
Europe an
amazon aws
ir s
Ġs ust
ĠGl as
$- $
Ġdef ence
u ke
Ġl ad
fl ux
apt ist
in ar
is y
com par
ĠEp isode
ĠV ent
æ ķ
bor ne
ĠVi enna
class Name
Ġarrang ement
ul o
qu is
ĠGe V
ĠMark eting
und les
TH E
PRO C
Ġins ights
ĠB illy
ace ae
Ġde ployment
) (\
ĠU g
run ning
Ġred irect
em ies
Or iginal
bold math
]] ></
Ġmanufact urers
Ġm g
Ġ\ ,\
ri ors
ĠA f
Ġdes ert
flu id
re ason
ĠJ en
Ġacc ret
ĠT otal
amp a
L IST
re ach
> [
Ġsimilar ity
Sep ar
Ġgu ilty
Ġeffect iveness
ĠB ody
Pr imary
ĠSt even
Ġcent ered
ĠCh ron
P rom
Ġla ugh
h arm
Ġ` ``
ĠS ay
Ġturb ul
Ġf s
ĠF L
uss ia
ĠM IT
im edia
Ġsl ice
âĢ¦ ]
ĠR ank
Ġimpact s
ro v
OL D
ĠSal v
ĠG ra
ĠTechn ical
Se ason
if i
ĠCre ates
Ġd war
f act
Ġr ub
Det ector
ĠT OP
Ġvulner able
ur ring
L aw
Ġmir ror
Ġre semb
En able
Ġrail road
ĠSh a
ĠN BC
Ġoccasion ally
Ġrout ine
ĠM oney
Ġmoder ate
per cent
Ġbre ast
ĠPhys ics
ĠG round
Ġhospit als
Ġaggreg ate
] =
fore ach
us c
ĠCarib bean
Ġmem orial
Ġthreat s
Ġcon fer
ĠFac ulty
is ers
* ,
R ules
ĠI ter
Ver ify
3 20
et ri
Ġab road
P ublished
Ġbeg un
Menu Item
â Ĥ¬
S ide
ĠB irmingham
ĠCon struction
BU FFER
trans port
ĠInd ians
k ernel
ĠPro duction
C irc
Ġmeas uring
ĠJ oy
ous el
ĠColl ins
ught ers
Ã³ w
ed ed
T og
Ġdecre asing
M W
f iction
ĠCom ment
uck s
ish ops
Ġtr unc
inn ed
ĠL yn
Ġspe akers
Man agement
col ogy
Ġor al
L ater
om on
Ġw orship
Ã¨ re
Ġremov es
â Ħ
Ġar ise
Ġun likely
el ing
Build ings
Ġto m
h op
Ġann ually
Ġbu ying
ĠP arent
Ġprom oting
Ġconv olution
ĠBe aut
/* !
ĠT ournament
Ġprison ers
Ġrecip ient
ill iant
ĠBl ues
ĠVAL IGN
ĠArch ives
ĠBroad cast
c ancel
res pect
Ġsil ent
ĠB rew
Ġcontrovers ial
repe at
Ġh orizon
Ġob st
W IN
ĠNAS A
et es
Ġdepart ure
Ġj unction
ĠFI FA
ĠO il
ĠF er
be ans
ĠC BS
cal cul
ke eper
ĠS ession
PH P
Ġaver aged
ĠS witch
Ġg ard
Ġaut hentication
ĠComm ons
Ġind igenous
Ġcar ries
run ner
Ġall ocation
Ġt aste
Ġde eper
c ord
Ġfeel ings
c in
Ġb es
Ġflo ating
Ġsp ots
ĠN an
Sh are
Ġvis ibility
ĠIt em
lin ux
Ġswim ming
um ing
Ġint ense
Ð¾Ð »
Tim estamp
Ġgener ations
\| _
Ġlik es
B us
ĠV iol
A ctions
Ġgener ates
Ġconsist ently
g on
Ġ( %
Ġwith d
iff s
op ol
Be en
Ġse eds
int ro
ĠA B
Ġcount ies
} /\
Ġelim inated
oc om
Ġre cre
Ġdo ctors
h n
In ner
Ġop ponent
Ġposs ession
00 2
ion ed
et ics
ond s
Ġg ray
Ġcl one
W arn
ĠSu ccess
Ġgr ab
l r
TO M
Ġmathemat ical
G T
if ference
Ġliber al
Ġmod ification
rt l
Ġpurs ue
g lob
Ġdeterm ines
ĠM ack
av ers
ĠE li
Com b
et on
oc ent
18 60
Ġintrodu cing
part icle
ĠKen ya
ĠP rior
Ġde pression
ĠLead er
ĠV I
Ġs ends
incor porated
Own er
pl ain
p ent
Fe atures
ĠTig ers
for ced
D TD
Ġc rop
ĠBar ry
Table Row
Ġtri angle
ick ed
ĠO cc
Ġdis cret
Ñ ħ
Ġcl othing
Ġe ating
jav ax
C N
ĠF un
ier ra
ĠNorm an
cl ide
Ġscreen ing
P ad
Ġs ender
ĠRoman ia
Ġsubs idi
Ġdrink ing
Ġimpr ison
Ġ' "
au i
Ġb orders
Ġl ap
ĠHung arian
Ġneutr ino
App Compat
Ġbirth day
refer ences
Ġ' ''
ley ball
Ġ$ ^{
Î »
ĠĠĠĠ čĊ
Ġst roke
F ixed
Ġcomb ining
Ġpul se
Ġmiss ions
Ġobtain ing
ke ley
ant ly
Ġoverl ap
ish ments
Ġover come
Pr ice
Cre ated
Ġsp arse
C ancel
ĠS outheast
ĠMean while
h p
ink s
Ġh orses
vel ope
ess ment
Ġcoach ing
ĠH unt
ĠD OM
Del ay
iem ann
he alth
in ance
> ${
ĠP L
ĠUnivers al
ĠDr agon
O BJ
Ġcoupl es
un ed
ah a
Met rics
LO W
ĠLin ux
ac re
Ġserv ers
Ġclaim ing
ĠLeg al
ĠNev ada
ĠF erm
Ġqual ifying
sd k
ph ere
m ov
ĠU RI
pro duction
ĠJos Ã©
be hav
ĠBen jamin
ĠN ar
>< !--
Ġmus cle
j b
ĠC arm
ĠM ol
med ium
Ġ-- ></
ĠArt ist
igh bor
ous ing
Ġdev oted
aut ore
g iven
ak u
Ġevery where
Ġconsc ious
ĠOrth odox
S K
Ap pe
ĠB egin
ict ions
Ġinstrument al
ĠJohn ny
Ġnewsp apers
Ġg ear
18 93
Ġkey board
ĠK rist
3 000
Ġd inner
ign ore
Ġactiv ists
Ġsh apes
ĠCom ments
ĠM s
cl ock
=\ {
ou b
ĠA udio
opt im
Ġparticip ating
Ġ uri
f ac
ĠHand le
te chn
Ã© r
p ref
add le
Ġdram atic
ĠL ad
with out
c op
Ġprom ising
L icense
p ars
ĠT it
Ġthe sis
ann ah
Ġa apt
ĠB io
Ġviol ation
ep age
V ec
Ġt ub
Ġreg ulatory
×Ļ ×
ĠDef ence
ace ut
inter val
Ġor ange
ĠCor ollary
ĠG O
ĠLem mon
zer bai
D ynamic
Ġd ub
Ġm igr
ĠW ik
Ġdis aster
Ġtyped ef
ĠR T
Ġtrans verse
ok u
E r
Ġanal yst
Ġcontribut ing
max cdn
ĠT oy
po inter
em or
Ad v
l atest
qu estion
man agement
google apis
us k
Ġproport ion
Ðµ ÑĤ
ise cond
i u
ĠChe l
enn ial
Ġch ronic
dom inant
Ġunder ground
AP P
Ġda ughters
Run ning
epend ence
U V
Ġd s
18 92
d iction
el o
I ss
ĠEn c
../../ ../
RA ME
! </
on line
Ġ_ .
Ġgener ators
à¤ ¾
le in
Ġj oy
Ġnom ination
ĠGi ants
ĠElement ary
Ġprot otype
Or igin
Ġphotograph s
Ġsuccess or
Ġincred ible
ĠIn n
Ġtransform ations
s ym
b rew
at able
im o
Ñ Ĩ
in istic
Ġch at
$ ^{
Ġb ullet
}) ^{
Ġsub str
ĠI gn
ĠIran ian
ĉĉĉĉĉĉĉĉ ĉĉĉ
ine ar
$ '
Ġj u
re z
fr ag
40 4
I ES
Part y
Ġcar rier
ĠWith in
19 0
ĉĉĉĉ Ċ
Ġloc ality
he art
Ġatt ending
indu ced
ĠF ish
ĠMuslim s
Ġin ference
ĠB ound
Ġship ping
ĠR ing
Ġph rase
ĠT itle
Ġp ace
ĠJer usalem
ĠL ion
F B
ix on
ord inary
7 50
Ġover whel
Ġsub space
ĠId ent
C ost
N umer
Ġass ass
D er
am er
\ },
Ag greg
Ġwound ed
Ign ore
uk a
Ġirre ducible
*} [
ĠI da
te ch
Ġan ime
Ġremark able
th ird
not ify
P ubl
Ġco in
ĠMed iterranean
Ġb read
Ġconsist ency
Ġshift ed
uff icient
a ho
Ass et
h um
Ġsl ide
ĠB loom
om eter
St e
om ed
ĠCar lo
ĠMu hammad
E u
################ ################
Ġcaref ul
Ġ| =
me asure
Ġhar vest
ĠBar celona
Ġperson ally
ĠH IV
c fg
Ġext ending
P romise
Ġcol leges
Ġfor cing
ind ependent
ĠGre ater
th an
IM IT
Ġmut ual
enc oding
Ġm ild
bound ed
h fill
Part ition
[ ]{
Ġinter ference
ĠB uffer
Ġnot ification
it ual
F ire
Ġmed ieval
ĠB enn
st ation
Ġens ures
Ġpeak s
st ock
ĠJ a
Ġam id
lim ited
ribut ions
Decl aration
re view
Ġenter prise
A X
Ġflex ible
pro pto
f ar
L IN
ĠRead ing
Ġv ibr
Ġcritic ized
Ex tra
P ub
ĠBe ijing
C md
}. }
Rec ip
ĠChar lotte
Ġl ung
Pol itical
ĠW ing
ĠS creen
U AL
ect ive
Ġmount ed
ss l
T yp
ĠC raig
Ġinflu ential
un iform
Ġim posed
Ex pected
if iable
b ank
æ ĺ
Ġexpl ored
o il
ĠĠĠĠ ĠĊ
ĠH em
Th omas
ĠF itz
ĠIndust rial
ebr aska
T ur
Ġrel oc
Ġincor por
ĠL I
Ġattract ed
eg u
pr agma
Ġc inema
Ġ ~\
con current
ĠQ ual
in ions
ĠC over
in ject
ĠP ick
Sche dule
ĠW rest
ĠN othing
st or
Ġdeterm ining
Ġminor ity
Ġmark er
Error f
Ġep id
ĠW i
TR AN
Ġim plications
G s
ĠĠĠĠĠĠĠĠĠĠĠĠĠĠĠĠĠĠĠĠĠĠĠĠĠĠĠĠĠĠĠĠ ĠĠĠĠĠĠ
up arrow
Ex ists
L ow
f m
deg ree
SP AN
g raphics
ĠP ackage
=" {{
Ġbatt les
ĠUs ed
TI ES
bin om
Al pha
fe atures
abet es
Ġestabl ishing
Ġdemocr acy
at ics
188 9
18 94
Ġsearch ing
Ġn ut
ap ing
Ġsu ite
N R
ĠN ear
18 85
erm ont
Ġpremier ed
Å Ħ
Ġchar ity
Ġen zym
Ġche ap
D ig
Ġpos it
Ġdepend ency
clide an
ĠT u
ĠLiter ature
T l
ĠS even
Te chn
Ge ometry
load ed
ĠB achelor
17 5
ĠU TC
dis k
ing e
Ġop ponents
aceut ical
def n
Ġdiagram s
Ã ½
ĠSt ein
% "><
iber nate
AR G
Ġneigh bors
Ġl iv
Ġd rew
Str ucture
am ination
ic ul
ĠU E
&= &\
18 00
ar ound
ci pl
ĠC old
Ġbur st
ĠK EY
Ã ¦
Group Name
f ers
m x
ĠSer ial
Ġliter ally
Ġsequ el
on ed
Ġbut ter
vent ory
Ġw ake
Ġret rieve
Ġ á
Ġc rystal
Ġbon us
inc inn
c orn
t oc
ĠC M
the y
Ġprov incial
Ġo ct
ĠCirc uit
d z
ent e
Ġkit chen
ĠG lob
(" \
Ġexist ed
ĠF riends
Ġpar agraph
RES ULT
it Hub
def er
bel ow
18 91
ah l
Ġmem or
ĠT rophy
O s
bour g
Ex ecute
ĠLog ger
sol r
Ġgather ed
ĠE D
Ext ensions
c ursor
14 5
st ri
Ġas ide
sp aces
Ġbas ically
K ing
ĠS occer
aw esome
om ing
Ġ& $
ativ istic
Ġ' @
FI X
Ġthir ty
f und
Ġwood en
ĠS olar
cl i
Ġaccomp any
Ġoff ense
ĠCom b
ĠD raft
display Name
ĠPar se
ĠCo al
ĠBuff alo
Ġcomp ression
Dist ribution
Ġneg lig
ĠY u
ĠEd ge
Ġaltern ate
ĠBy te
is i
Ġattract ive
in ates
U nd
ĠMan hattan
L iteral
27 0
Ġconstitu ency
Ġiter ations
Ġpropag ation
Ġdeterm ination
ĠS ad
irl ines
oc c
,... ,
ĠM ix
v p
Ġc b
ĠSer ge
ĠEgypt ian
N amed
ĠMil an
Ġte a
âĦ ¢
ĠD I
Ġvent ure
Ġvol tage
Ġinn ings
Ġun lock
ĠP el
Ġdifficult ies
H en
Ġking dom
Ġdecre ased
< >();
Ġ( #
ĠAthlet ic
sw ing
Ġmag azines
Ġattempt ing
D ry
ĠCons ervative
ĠOl iver
RAN TIES
incinn ati
UR N
Ġqu ad
Ġgr ants
script ions
s yn
Ġev olved
ĠH indu
ĠV a
Ġac oustic
ĠSum mary
ĠL ot
Ġs ugar
Ġde fer
aj a
Ġcontrovers y
Ġ- =
Ġam pl
() ">
S i
up dated
L uc
U A
Ġp arks
Ġk w
ĠSpr ings
ĠH ilbert
m usic
th umb
Ġpart ly
ĠCom ponent
rep resent
Ġ{ $\
ĠA x
LE S
ĠV eter
Ġcon gress
ĠO ptions
Ġw av
comp act
C V
As sembly
Ġveter an
Ġact ively
Ġnorth west
ĠM uch
il ia
Î ¼
F ALSE
ĠL ost
">< ![
tr action
Ġexam ined
LIC ENSE
-------- --
Ġfun ctor
get Type
US A
pl er
ain er
oid al
> `
M achine
ĠR ule
ĠR ico
get Message
Ġj ury
d al
Ġcomput ers
Ù ĩ
18 88
Ġexam ination
F H
Y ER
Ġhe x
ĠPier re
ĠUn like
Ġind irect
iv ic
th al
ĠK irk
set ting
ĠM ach
Further more
ag ar
Ġb ishop
Ġcap ability
Ġpre val
ĠS ize
get String
çĶ ¨
ter ed
Ġin vert
Ġphys ically
ĠC u
ĠL uther
Ġimm un
ĠT ib
Ġob server
Ġvar ies
ĠWAR RANTIES
ĠE SP
Ġcons ensus
Ġguarant eed
Ġarch ive
no frame
ĠDen ver
ĠJ S
ul se
Med al
Ġt ies
18 65
m any
ĠShe l
jack son
Ġanalyt ical
ĠB ird
on ian
F our
Ġcam eras
Ġengine ers
ĠCr icket
Ġh unt
Ġt ends
Ġg enu
ĠC L
Ã¶ r
b olic
Ġan notation
Ġcan n
Ġinc idents
Ġsurv iv
ĠNot es
ĠF i
$ ^
T ake
uch y
Ġbench mark
Ġsh ore
æ Ī
or f
script scriptstyle
ass oci
P eter
S n
Rich ard
Ġbe er
Ġcell spacing
tool tip
Ġpo ems
Ġwalk ed
Ġreflect s
over y
Ġcompos ers
ĠStr ucture
ĠS ymph
cond itions
Ġh az
R ailway
Å Ļ
qu arter
? )
vious ly
ĠI van
Ġunit ary
ĠB ass
os hi
12 9
ĠNov a
Vill ages
RE T
Ġt ou
F W
Ġback up
t one
styles heets
Ġrend ered
ĠS cal
Ġcom ics
Ġdis pute
ĠVin cent
Ġw arrant
Ġrest oration
Ġcompens ation
add ed
ĠAnt i
ãģ ®
, âĢĻ
ast ed
om es
ĠÐ ¸
Ġro ster
ĠF ab
ĠAdv anced
ĠC rit
Icon Error
& &\
R ay
Ġglob ally
Ġpower ed
es cope
Ġl in
er gy
Al t
as ia
is ch
pr ice
Ġscient ist
ĠCost a
RE SS
ĠTurn er
ĠMod ule
Ġassert True
ĠPh arm
F actor
hib ition
ĠGlas gow
ĠNaz i
Ġcompos ite
ĠArch ive
_{ +
Ġadm its
Ġcell padding
Br idge
utr ition
000 1
res olution
Ġun ity
Ġport s
ĠK ath
BA SE
tog ether
Ġt ension
ĠK ap
Ġed iting
á º
å Ń
Un ivers
P OS
Ġc ul
Ġaffect s
ant ed
spect or
ĠL abel
Ġgr an
2 10
W ar
ĠU lt
Ġmeaning ful
Ġinter active
ith metic
Ġdes criptor
ĠColon el
Ġf ert
ĠB omb
Ġmed ic
ĠPr adesh
50 9
ĠDr ag
( /
× Ķ
Ġen umer
red irect
K n
cor rect
H ello
b ishop
ster dam
ĠYork shire
Ġvar ied
Ġphot ons
re duce
Ġg ross
ĠW H
project s
urch ase
C art
ĠNever theless
or ange
OT TOM
Ġdecl aration
ĠP ic
ate ful
ĠQu est
ĠN ull
om at
Ġiniti atives
et r
Ġintegr ity
Ġex cluded
ind ed
Ġprob abilities
ĠRob in
An im
Ġcred ited
Ġwind s
D ue
ĠCol lect
================================ ================================
writ ers
Ġver ified
ĠHarr ison
IconError Encoded
B ob
ill ance
B road
ĠMod al
Ð¾ ÑĢ
ro at
INS ERT
ac a
Ġentreprene ur
Ġmorph ism
Ġb orrow
Ġc ow
Ġ\ {\
L ou
Ġar row
ĠF u
Ġm os
ĠV lad
am ic
Ġdel ight
Ġrot ate
Ġcor ruption
Ġdisc ount
M esh
ph ones
Ġsurpr ised
Ġh ang
I ll
Ġmain stream
ĠForm ula
Ġapprox im
V R
ĠInter est
ĠN icol
ĠWrit ing
c amp
ant ics
olog ically
ĠAthlet ics
$\ \
Ġsub stitute
pi res
ĠJ ama
m iral
Ġintr insic
Ġg ent
ĠMA X
13 6
ecess ary
ĠPol itics
process ing
Id x
ass y
Ġvolunte ers
che str
' },
Ġnav al
je ctions
Ġstr ain
Ġconv icted
' +
f am
ĠLabor atory
draw able
f requency
ĠM es
oc y
S eq
Ġ\ |\
om i
Ġvo ices
ri en
Ġcomplet ing
12 6
ival ent
Ġp uzz
Ġspl itting
intend o
ich i
Ġdebut ed
ĠCat hedral
is co
Ġpe ers
Ġv ic
Ġ======= =
Ġsole ly
ut orial
Ġsuff er
Ġlength s
f older
ab ove
Ġre n
ĠMont ana
orient ed
J ew
pe ction
Ġexcept ions
N P
Ġent ers
Ġmyst ery
×ķ ×
ar an
ĠL ate
ug osl
Ġ' #
18 50
Ġw x
ĠBit coin
Ġan ten
ĠR andom
Ġd y
Ġalloc ated
Ġ< ?
ĠÐ º
cons istent
ĠG arc
ĠIn novation
__ )
ĠQu ant
S ound
e clipse
ĠL agrangian
ĠB ot
local host
h d
Ġere ct
Ġhe m
ust ed
="../ _
add Class
Ġcon e
Ġfacilit ate
ĠC ob
IN VALID
m ys
ĠI de
BP ACK
Ġb anned
ir ts
pos itions
sub Nav
annot ations
] ^
Ġpred ecess
Ġprint f
Spe ed
quir y
Ġ Ø§
O cc
p f
ĠChrist ians
Ġpars ed
Ġt uple
ĠS ax
nol imits
det erm
ĠAlber ta
ra h
Ġlaw suit
Ġtravel ing
100 00
Ġinflu ences
get Class
Ġcomb inations
Ġh urt
ĠGener ated
sm art
ref resh
Ġany way
ir ie
ĠL ithuan
hol m
ĠRun time
B F
ĠMem ory
Ġcook ie
du ctions
ĠL ux
Ġspec ification
Ġi OS
M AN
Dec imal
ol s
Ġre fr
paren cy
G ate
ĠKe ith
Ï ħ
power ed
us ive
Ġpro s
UT C
Ġprogress ive
Ġelect oral
Pro position
Ġtim ing
) *
ĠGr an
atern al
Ġcriter ion
Ġstation ary
Sm all
ĠSh ang
Con tract
Ġprim itive
} ",
sur ance
Ġdi et
ĠIn valid
$ }}
ĠS ony
Ġless ons
ĠF BI
ĠW arner
ĠRem arks
Ġpro secut
ĠT ru
dat etime
ĠPro perties
p agination
ov ich
Ġsc rap
AR K
Sub ject
trans fer
Ġens uring
i pt
ag i
Ġal gebras
ĠD elta
Ġres ort
W alk
he x
Ġsynt ax
Ġin ches
ĠS ave
en vironment
Ġf ur
ext ensions
Ø ª
ver ify
Ġgener a
b x
enc il
EN TRY
id ency
ash a
ĠRich mond
ĠR angers
uck er
ĠM is
Ġfinal s
\ }_{
/ )
C AR
p ixel
ĠEqu ation
ID S
) &
Ġg est
Ġch ip
Ġout line
Ġh o
Ġbar rier
ĠImp act
Ġspher ical
Ġb ucket
AT O
T own
ĠU P
ĠU SS
Ġe ighth
ĠZh ang
ĠJer ry
Ġc ryst
16 8
aval ry
big cup
ĠCons ult
ĠB right
dec ode
Tool s
ĠLu ke
ST ART
. ',
Ġver ification
Ġsort ed
Bit map
Ġa qu
Ġb atter
ĠC PU
por al
ĠStat istics
Ġpro c
Â ·
Ġs aving
ĠGh ana
h pp
cc c
Ġrepeated ly
Cam era
ident ity
ĠOtt oman
D ict
Ġcelebr ation
ĠE val
C UR
With out
respons ive
Ġf unny
ĠD iamond
188 7
gener ic
G RO
ĠE le
Res p
ĠAb u
Ġlab our
Ġc argo
f w
Ġprov es
" ];
Ä Ł
Ġguitar ist
16 5
Ġmem ories
Pres ident
ĠP le
Ġbl ess
ĠW u
list ener
Ġsurve ys
cel and
14 7
99 99
ĠIN TO
row se
ĠL ud
Ġun success
d ating
text sf
st ad
add y
Ġf usion
) }$.
se cret
m other
Ġh ierarchy
ĠÐ ´
Ġstar red
ult an
Ġrefer ring
Fr ank
Ġlock ed
M ad
Ġt ube
Ġpet ition
è ®
LO AD
id ays
ast ro
gu ide
ĠEth iop
in ery
M ix
ot he
00 5
code c
ĠS K
ric ulum
et c
IE W
Ġis instance
\ }.
] </
ĠL L
Ġt ips
xi ety
im er
pro c
ĠY am
Ġmon ument
ĠV oice
Re ceived
sh ots
left arrow
b ian
Do ctrine
ĠK el
Ġen emies
ĠY O
Ġimm une
ĠW ait
tr aining
S napshot
ac iÃ³n
Ġwrap per
ĠG C
_{ -\
Ġstart up
ig ue
man ifest
inter pret
ac co
s ources
Ġiniti ated
k u
ĠGu inea
Ġimm igration
File Name
ĠNe uro
ĠT on
Load ing
C at
Ġ( âĢľ
t m
! (
ĠMur phy
M ont
Ġg ains
M iddle
Ġgo ogle
sub equations
Ġthink s
Ġaccret ion
Ġn s
Ġsh ifts
CO M
\ [\
pos al
Ġeg gs
Ġig et
ĠE ug
iz a
l m
Ġcor related
Ġrat ings
ĠOver all
Ġcub ic
ĠL arry
Ġf ictional
ĠFl ight
cl s
ment al
}^{ +
ĠB A
ĠSong s
ĠE N
ĠJust in
ĠLeg end
' ].
ĠR ole
Ġf ighter
ĠVis ual
ĠS oph
stit u
BO OL
list en
Ġsec ured
') ->
Ġl ip
T uple
look ing
Ġhe ating
vent ions
Ġhighlight ed
ent i
) _{\
ĠS aints
Ġadd r
ĠVictor ian
h aw
row Color
cor respond
> {
Ġdist urb
c mp
Ġemphas is
H ard
Ġphil osoph
Ġhon our
ens en
uff ix
S ol
18 61
Sp anish
art z
Ġfr act
^* _
fl ush
Ġchem istry
Ġmac ro
Ġprov isions
Per iod
Ġconven ience
T ip
ĠK ate
UT E
Ġfail ing
ov iÄĩ
Loc ale
Ġm oon
ta wa
Ġdon ated
Ġre lying
ĠS ustain
o ys
Vis ual
Ġthread s
Ġlight ing
Ġfast est
pay load
l ia
pr ises
Trans ition
ĠScient ific
SOUR CE
u on
ĠR aw
Ġexpl oring
ro tt
Ġv e
Ġst ere
;& #
> ../
Ġinj ection
F ollow
Ġde let
ft en
S PE
all ing
Ġlog arith
188 6
h ad
Ġl ying
Ġin cl
15 00
ĠSe an
Ġcert ified
Ġ ../
Ġpaint ers
Ġcoal ition
ĠTr ad
Ġlegisl ative
Ġkin etic
Ġc ategor
Ġlik ed
ĠSus an
Ã Ĺ
SP ACE
Ġcross ed
Ġshould n
ĠS eb
ĠG ay
Al gorithm
;" |
J ul
^^ ^^
sl ider
ars on
Ġiter ator
V T
ĠSh aw
Su ite
over e
For ward
ĠP in
ĠGon z
ĠF if
Ġrec ruit
ĠEd wards
Ġmechan ics
dat aset
aus es
sp ot
S uch
ĠArab ia
15 5
t ake
c x
Ġr hythm
Ġdr ives
Ġw ings
Ġlimit ing
Ġ ib
DE D
Pr inc
Ġcond em
Ġhost ing
Ġab ilities
Ap is
Ġphys ician
Ġinvest ments
met ric
ĠM ong
HO UT
order ed
ta x
Ġt anks
et ta
Ġacqu ire
ty p
ĠTre as
f olk
Ġsub stance
Ġdig it
Ġcult ures
Ġsub section
Ġcond ens
Ġt ons
ion ic
}[ !
$\ ,
Re act
ĠGr ace
om o
ai ro
=- =-
Ġt ap
Ġeigen value
Ġsouth west
RE QUEST
l ies
un ks
Ġcons iders
R ock
Ġoccas ions
ew ise
Ġche st
f ailed
Ġhel per
Ġpl otted
CRE ATE
... )
Ġfl avor
dist ribution
ĠH aving
Ġde emed
Ġsub mar
Ġin coming
Ġcomment ed
Ġcompet itors
T i
b ecause
ĠH at
TableRow Color
Ġprepar ing
h h
Ġf atal
Ġpre liminary
Â ½
Ġabs ent
}) =\
ish a
ĠN HL
d st
Ġel abor
Code c
ĠLink ed
Mut able
P riority
Ġdiss ip
ĠDown load
ĠFr ances
it ud
ĠDe cl
Dis k
I ME
Ġfollow ers
ĠNot ice
ĠP E
Ġthe at
conom ic
Ġpure ly
Ge V
ĠG rey
Ġlocal ized
sec ution
Ġ' -
ĠM B
Ġcl ause
ĠC lean
Ġr ab
ub a
Ġsl ave
ĠN ebraska
Ġp ill
ĠF ed
Bet ween
att ing
ĠR ele
block s
op ing
sh ops
188 1
M el
div ision
ĠG host
che m
comp ass
A ud
ellig ent
ent o
less ly
ĠDemocr at
ĠS id
Ġhel ic
Ġtack le
ĠQu arter
tim eline
Ġprotocol s
ĠPer ry
script s
Ġv ir
Ġb eta
Re ason
Support ed
F oot
ape ut
ĠL is
oc o
Ġph on
Ġarrang ements
Ġneut ron
P s
Ġcommun icate
ĠRe yn
ĠB R
ge ometry
Ġprocess or
Ġsomew here
ĠF riend
Ġdis orders
ampl ing
ĠArg ument
RE L
ĠAlex and
ĠF actory
Ġp our
Ġspons ored
ĠNichol as
T w
pos itive
Ġ# {
Ġtw in
pro blem
Ġun ve
ĠB arr
Ġexception al
t ot
bre aking
Ġplan ets
p k
Ġhop ing
ĠB urg
A W
Ġhun ting
ort on
ĠB og
Ġste ep
c art
Sh ader
spir acy
ĠCre ative
Ġtour ism
un i
ĠC atalog
Ġ' _
ĠK ids
friend ly
Ġt ours
ĠArchitect ure
val ued
ĠMat rix
ĠFle et
con cat
Ġwor ry
H ol
Ġspect rosc
Ġarchitect ural
Ġpropos als
second ary
r in
Ġencounter ed
p end
C trl
s heet
Ġbusiness man
Ġm as
ĠAgric ulture
Ġsusp ension
ĠW E
Ġge odes
ĠProt ocol
Ġcoher ent
or ious
am o
Ġdec ides
met rics
Ġefficient ly
ind a
Ġtrad itions
ĠEnt ity
small skip
ãĥ ¼
Ġdu o
Work er
Ġgr ain
Ġrev ised
Ġult imate
ĠBelg ian
; %
Ġact ed
Ġqual ify
Ġr ings
" /
ĠS F
Ġj e
Ġvacc ines
An not
Ġdel iber
Stat istics
Ġfavour ite
d td
ĠCl ay
g om
A SS
Ġdocument ed
Â »
ĠBeng al
ĠL java
Ġelev ation
Ġscholar ship
ĠA GN
Ġcount ing
Ġp ose
ĠColomb ia
J ac
Text View
Ġsh ops
ĠV as
pe g
B ACK
Ch ina
Ġlux ury
* \
M ov
ĠK os
Ġagre es
B reak
Ġform ats
Ġillust rate
ĠK ay
av an
allow ed
s ized
ĠLa ura
Ġsp ell
I mp
mat ches
Fore ign
ĠA aron
ut down
Ġterrit ories
Ġh ub
ĠAl ong
Ġad option
Ġcontinu ously
ac ular
View Controller
rat io
B TH
Ġis omorphic
ĠMark ov
label s
Ex pl
fr agment
Ġsh ield
Ġt weet
br anch
Ġsubs cri
B er
ĠHigh er
Ġprem iere
ĠC atherine
Mod ifier
P ush
]( #
Ġdis put
Char les
Ġc ust
Ġfil med
Match er
pop up
Ġcrick eters
ĠB aby
ator ial
ĠT ABLE
Ġaud iences
Ġvari eties
I p
Ã Ł
(' ./
Ġdiscrim ination
C a
ĠFlore nce
RE NT
ĠH O
ent ine
ĠC ant
Ġmod ifications
mark et
ĠH orse
ĠW HERE
}^ +
Tr igger
ĠSerb ia
å ľ
âĢ¦ .
ential ly
Ġspecial ized
ĠS cript
s qu
Z oom
r and
Ġball s
ADD ING
he ld
C CESS
ĠM ann
ĠS amsung
Ġsustain ability
ĠMad ison
ull ivan
ĠEx pression
Ġplay offs
Test ing
Ġch ap
ocr atic
ĠBer keley
ĠReview s
Ġsk i
p ublished
ĠH udson
Ġal igned
Ġp s
Ġd st
ĠTransport ation
ne utral
ĠCom plex
ĠAr c
(" .
ĠS z
ĠL ions
ĠClin ical
Ġcomp ounds
[ <
oc co
ph abet
trans late
ĠM ason
Ġg it
Ġrom ance
ĠCl ose
k ern
Ġcon clusions
>( <
ĠJava Script
h aus
Ġrock s
C MD
L ondon
Ġ" )
Ġ[ âĢ¦]
Ġbo ats
ĠWh ich
Ġscre ens
ĠEl li
Ġpro position
o ons
AR CH
S at
Ġaccess ed
ĠK il
Ġwrap ped
ĠS ent
ĠM ade
s ame
ĠB ond
av ier
amp ed
Ġy esterday
ump y
i ov
Ġentang lement
Ġend emic
s amples
Int ent
H ot
ad ic
Ġh itting
ĠL ex
St ub
YER WB
BTH YERWB
C annot
18 64
EN CE
constr aint
ĠC ris
ĉĉ čĊ
ari ate
Ġr iding
Ġcl othes
ĠPar ish
Ġrest art
Ġex ponent
Ġshould er
Ġim per
Ġsl a
Ġqu ote
ĠVis it
ĠR at
== =
ĠObl ast
Ġmin isters
Ġa est
ina e
Ġcous in
Ġbr illiant
ĠCru z
Ġrout er
Ġel astic
Ġenc ode
Ġm s
Ġacceler ation
T X
ĠP UBLIC
pi pe
ĠEag les
l it
Ġen abling
h uman
188 4
ĠSt evens
Diagn ostics
end point
ĠC urt
ĠM orning
ĠInter view
eff icient
sche mas
ĠA zerbai
ĠSp ot
ĠFinn ish
Ġaff ine
Ġ" ;
ud o
sc ene
ĠMunic ipality
Ġpoint ing
R oyal
\, {\
Ġ" ${
Ġst eal
Ġbond s
Ġext ensively
Ġdis patch
Ġaccount ing
ĠT un
ĠCon nection
Ġfoot age
M ot
ĠB ear
ĠBe ing
ri o
Ġsurv iving
Ġcov ariance
Ġcrypt o
ĠC elebr
Ġatt itude
ĠĠĠĠĠĠĠĠĠĠĠĠĠĠĠĠĠĠĠĠĠĠĠĠĠĠĠĠĠĠĠĠ ĠĠĠĠĠĠĠĠĠĠĠĠĠĠĠĠĠĠĠ
Ġm apped
Add itional
] <
Ġess ay
}} ,\
Ġearthqu ake
ĠV el
sh ore
ĠH ob
Up per
cred ited
ud ge
ĠCre ated
m el
188 2
ĠK id
Ġvari ability
Ġdefe ating
se en
um i
__ ,
Ġt ale
Ġpro l
m ust
N ON
G allery
ĠDet ails
Ġlisten ers
fav icon
ĠS ox
ĠTh anks
ĠCo ach
B s
d m
cp u
16 9
ĠUn fortunately
Ġconfigure d
Ġins pect
ĠF ont
S yn
33 3
ert on
b oot
Ġpo ison
ĠS alt
ĠE state
Ġcred entials
ĠLu is
Ġr ice
H F
ĠAgain st
Ġrele g
ĠI M
Ġgeneral ization
] ->
Ġcal ibration
ĠCh and
ĠCub a
Ġ' ,
Ġprem ium
Ġestim ator
ĠCh i
Un ique
ĠStan ford
M or
ab ases
Ġbe ating
Ġpre t
] ).
Ġspr int
On line
" ?>
AC ING
ĠBO OST
Govern ment
K O
ĠAg ent
Hash Map
ac ion
ab is
ir able
Ġt orn
ĠPer u
Ġharm onic
ĠStr ateg
Ġdepart ments
contin ue
: &
ĠD ig
Ind ia
Ġingred ients
ac ies
ĠMe chan
am y
L ove
Ġexhib its
S un
ĠGr id
ĠB uch
umb ent
) }$,
Ġj ail
Ġun stable
ĠJ oint
Ġeng aging
C ould
id y
ari ans
bo ys
Book s
Y S
Ġp a
Ġc ock
Ġsent enced
f un
ĠM eta
J O
ĠCl are
Ġsaf ely
ĠCar r
Ġimplement ing
L ines
Ġcogn itive
Ġconf ident
ast rop
Ġp ian
Ġrel ay
ĠA LL
B ill
Ġviol in
WE BPACK
le f
Com plex
Ġr ated
s elling
AR S
Ġl oves
au kee
Ġmin istry
Ġvirt ually
ĠG ov
Ġsynt hesis
ĠE ld
Ġgold en
ia z
Ġfit ness
1 19
on ing
PRO P
D istance
al one
Ġl oud
Ġconver ges
tim er
row ing
Ġdef ending
Ġhard er
az ure
ĠCom merce
Ġl ic
ĠSe pt
ĠMer c
="@ +
ĠL loyd
ĠE ston
tool bar
andid ate
f aster
ĠA uth
ĠPref ecture
Ġim pl
cknow ledge
Ġgot o
Ġelim inate
Sc ene
ĠC ad
Ġe leg
th lete
. ).
A MP
W F
ĠB our
Ġenc ryption
int ent
â Ķ
du al
m un
act ers
ma jor
set Text
Ġj ew
ĠGr ade
È Ļ
Ġr itual
Ġatt ach
h ou
em e
ĠP erm
ast ing
process or
ĠC I
2 25
ĠNep al
Ġsub sets
Ġbelief s
ĠM end
Ġmunicipal ities
ĠL en
ĠSt yle
ar as
Ġassoci ations
Ġconnect s
G reat
æ Ĺ
ant ine
Ex pect
Ġ. =
adem ark
EV ENT
Ġpo ets
ĠIm mutable
Ġorig ins
fr ames
ord ination
Ġmathemat ics
13 3
Ġadv is
ĠAm sterdam
Read y
path s
ene ath
ĠDer by
ett i
%%%% %%%%
ĠAnt ar
Cent ral
ĠFil ip
ĠDel aware
prep are
_{ [
Ġt ile
Ġsnap shot
op edia
IMP ORTED
ĠB aptist
: -
ing ers
Ġbr ig
Ġcons olid
P aint
Ġobject ives
m art
ĠP HP
OR S
C SS
care t
overs et
W ater
he w
ĠH ub
Ġr ally
Ġaccept ance
ĠGuard ian
ex ecution
vis it
Ġwalk s
task s
m os
ĠB ath
osp el
ĠIss ue
P DF
P ipeline
ĠCons ervation
db c
Ġtrigger ed
Sm ith
ash ing
Ġwire less
ĠB ir
Ġj ournals
CR IPT
J ournal
ĠT yp
Ġ\ }
ĠH R
Ġprint ing
ĠWeek ly
Ġg al
im en
ĠWat son
is b
ĠIn iti
Ġinvestig ations
Ġl ingu
Ph ot
? </
13 7
Ġfore ver
O FF
ĠL isa
Ġgraph ic
at en
Ġm i
Ġal ien
ĠB ORDER
ĠAnd r
e ah
ĠA ws
^+ $
des criptor
Ġtravel ed
Ġjuris diction
AB C
enc ia
ancell or
l ater
Ġchampionship s
om eters
ĠMun ich
Ð ±
Ġmot ivated
Constr aints
Ġph osph
Ġauthor ized
Set up
se gment
Ġem otion
p ine
Ġextr action
ĠW ol
Ġnegot iations
Le ague
J im
upload s
P ADDING
b ird
Ġun w
depend encies
U ntil
Ġop inions
Ġpeak ed
Ġdoub les
new line
Ġoverse as
Q t
ĠR idge
the ory
Ġafter wards
ĠRog ers
Ġad mit
H ouse
vel oc
ĠK ind
Ġfest ivals
Ġtrad ed
ĠConf eder
ĠMed ic
Ġr ay
ĠA str
ocol ate
d ashed
fil ters
act ed
E LEMENT
Ġcomp anion
mut ex
IT LE
ĠM ail
Ġarray s
ĠT erry
Re pe
ĠA round
WA RE
Ġdiagn ostic
Ġanalog ous
Ġagre ements
N eed
Ð ¹
cite alt
ĠDate Time
Ġp ounds
... "
Ġor chestra
Ġoccur ring
ĠAdd itional
pre ter
ĠPo isson
ĠA irlines
not ification
ĠS urg
Ġam ateur
Ġaccur ately
Ġa z
ig ion
W C
' $.
eth yl
Ġpre dominant
Ġv ec
ind eq
Ġcop per
Ġr h
ip per
ĠS uz
Ġportray ed
ĠArab ic
ĠIn surance
}) (
} "/>
18 75
ĠE lection
pect ives
c as
AR RAY
Ġ} ).
Ġtr ick
ig m
ĠV ic
akes pe
ĠC ome
Ġview ing
N L
( `
Ġpre st
ph al
tr ight
Ä Ļ
Ġint ens
ic z
ust ers
Ex it
T imes
ĠAv iation
Ġpsych ological
Ġdream s
M ail
pr iv
14 3
Ġnot ify
Mod ified
c ern
Ap J
Ġcontrad iction
J ose
Ġprom ised
ĠC ut
Ġvalid ity
G H
Ġcoll isions
Ġpl acement
F ar
C ategories
ĠUn less
acc ur
Ġcosm ological
T M
ĠPro test
et e
Ġtri be
ew ay
nt z
ext ype
13 4
d w
g ender
ĠCh a
Ġn est
Ġcommun e
l ov
ps y
Ġev ac
c ence
Ġposs ibilities
Do es
te enth
Ġpre vention
end ors
Ġc ached
ik ing
Ġadvant ages
ĠA V
Form atter
loc ale
Ġsup press
Ġcitiz en
For ce
w aukee
Tem p
ĠCit iz
ĠR ivers
Ġpl acing
Ġdist inction
ĠNe il
ĠP apers
Ġeconom ics
w ang
ĠPh ase
ra f
s ure
Oper ations
mid t
effect ive
ĠBr istol
C AP
ĠH az
part ition
spec ies
ĠO ri
ff ic
] ['
Ġp reference
Ġan isot
ĠO scar
ĠSymph ony
Com pletion
ĠLi u
Big g
ĠResp ond
e ing
ĠBro ther
13 2
Ġs hed
Ġstat ue
ĠS or
u cc
é Ģ
Ġm arch
Ġag enda
P ane
ĠF ALSE
Com ponents
ah an
Ġnormal ization
18 63
pos er
Ġpick s
st own
ĠSch w
le af
Ġcomm emor
ĠAct or
d ed
ĠPl ayers
sen al
H a
v n
ĠA my
ct ree
ĠK ur
P ending
L arge
Ã¡ s
Ġ" #
` :
Ġsp ir
ĠK ill
M ary
Ġtempor arily
ĠBer g
Ġcloud s
Ġpush ing
Ġlast ed
à ¯
ĠA G
}{ }
Ġrend ering
p n
ex isting
Is rael
it ations
ĠC incinnati
Ġfor b
ĠB AS
Ġbroad er
Ġsens ors
plement ed
ĠSy rian
Ġele ven
. (
des cribe
Ġindic ator
Christ ian
er ious
Ġz oom
| _{\
Cal endar
D ITION
Ġp ow
Ġapprop ri
Ġmem brane
Ġminim ize
N orm
ter ms
Ġfun eral
Ġspeak s
mac ro
18 62
File Path
w heel
ad ows
ĠCollection s
dis patch
L ite
ĠEq s
ĠFerm i
ĠV ert
C lean
Ġaccept able
C ritical
ĠR s
ĠUS D
Ġx si
Rep ly
or acle
Ġin duces
Enumer able
Un iform
Ġw elfare
Ġshe ar
Ġbo ards
ĠW es
mod ifier
Ġafford able
Ġper ceived
Ġb ike
ar ial
Ġjo ins
18 78
All ow
188 3
nos cript
o ard
ĠTr inity
io let
Back up
s creens
Ġcontinu ity
S ent
Ġd ivers
Ġret riev
ĠCour se
Ġs isters
Ġbank ing
ut ton
Ġst uck
Ġb ills
18 68
f uture
Ð¸ ÑĤ
Ġstrugg ling
isecond s
m r
ĠR iemann
Ġdefault s
member NameLink
Ġamplit udes
um ann
ĠWork ers
Ġthick ness
Ġt ribute
ĠD ebug
Ġdes per
an che
en ue
Ġappro ached
Ġnom ine
Ġge omet
C op
ĠA w
to o
13 1
ĠM idd
Ġun n
IN IT
Ġconf usion
pack ages
Ġwid get
ou x
Ġc url
s ent
ĠI o
Ġden om
ĠCont emporary
ot ypes
ore ms
me as
Ġcollect ing
Ġp ipe
ĠK i
Ġmon arch
Ġstop ping
Rec all
uc le
Comp are
Ġrelax ation
ĠEx amples
ĠB und
GL enum
Ġaux iliary
n ail
am pton
umb ai
NE W
Ġorgan ised
Ġelev ated
Ġany more
Ġconj unction
ĠF ly
Ġyoung est
str ict
ac l
Ġfl ed
L ab
Ġclust ering
Ġmon ot
ĠJeff erson
ĠH im
Ġenthus i
ĠSpec ifically
akespe are
uch i
Ġw eren
Ġquarter back
ĠB eth
Ġten ure
F etch
Ġblock ed
at um
Ã ī
Ġin cent
ment ioned
hedul ing
ĠS V
Ġs id
ĠSt ri
c urrency
Ġor bits
Ġtown ship
Sup press
w oman
ĠE mail
Ġt f
Ġdro ps
T ON
\| ^
al ymp
ĠN A
Ġrel ies
Ġm ad
ĠW onder
M ur
p ipeline
s outh
Ġlo ops
AR B
Trans fer
ĠL icensed
Ġte eth
Ġband width
Ġexped ition
il o
="# "
Ġinst ability
ĠCo hen
Ġemploy er
ĠTh an
ed ly
MP L
get Attribute
ĠI celand
Ġstri king
ovak ia
ĠParam eters
acef ul
agon ist
Ġdismiss ed
ell ers
Ġcab inet
ĠGl en
in ology
Ġpl ates
Ġsuff ix
**************************************************************** ********
initial ize
Ġtro ubl
Ġle ts
Ġproject ive
ĠB orn
18 76
ĠAss ume
air y
Ġfarm ing
Ġph ones
99 9
Ġplay off
Ġass ists
Ġz ones
:: $
M IT
Ġrec ycl
ov an
com ments
Ġex terior
Ġmort ality
qu o
Ġfol ks
M oths
uck land
mb f
m itt
> .</
ĠWIT HOUT
w l
p ic
Ġvol can
Sc an
Ġin comp
ĠSub s
ass et
Ġconstr ained
Pay ment
Ġch ron
Ġc avity
Ġtr ap
ĠW alt
Ġag gressive
F D
hab ilit
ethe less
ĠCamp us
ĠDis play
Ġneighbor ing
Ġnom inations
Ġdemonstr ates
Ġt ar
aw t
ĠAt hens
Ġtum or
Ġbr idges
ĠE R
T ech
ĠSim ilar
ĠÐ ¾
tr on
ĠM az
ep ing
d ocker
ĠCons erv
prec ision
Ġburn ing
Al umni
tright arrow
Ġm ature
Ġevery day
W ORK
Ã± a
Ġseek s
it ious
ĠT oken
in verse
Ġqu oted
ĠHe avy
Ġac ute
en os
ĠR oche
ĠSt orage
stream ing
Ġl ifestyle
Ġimm igrants
ĠForm er
Ġweak ly
Ġscr atch
Ġn ested
ph ot
Ġown s
g ie
it us
Ġbehavi ors
Ġdial ect
Ġm anga
cam era
Ġtreat ments
in itions
umul ative
P ixel
ri bs
ĠComp etition
Ġl unch
Ġst er
ĠFil ms
ĠC ox
Ġachiev ing
Ġsust ained
esc ape
ĠCam eron
Ġ* ,
Ġdo i
work er
ĠĠĠĠĠĠĠĠĠĠĠĠĠĠĠĠĠĠĠĠĠĠĠĠĠĠĠĠĠĠĠĠ ĠĠĠĠĠĠĠĠ
ĠV ery
Fr ont
Ġcam ps
i ator
Ġh yd
ela ide
Ġ Ã©
Ġtalk ed
ĠWrest ling
Top ic
ĠBor ough
oth ic
ĠP H
Ġa cknowledge
Ġdis joint
ĠJenn ifer
Ġroll ing
autore f
Ġs ax
ĠMet al
Access or
Cert ificate
ĠB OTTOM
S B
Ġt s
Ġep ic
Ġin clusive
ut o
od el
ĠCirc le
ens on
K ernel
r us
20 8
Ġconflict s
e ur
SP ACING
ĠTh under
ĠN ak
i ating
k an
ro c
ogen ic
ĠR av
ins ky
s chool
ur bed
Ġmist ake
' ',
h base
Ġreg iment
ist ani
cat Desc
N ONE
Ù Ĭ
Reg ular
ĠHoll and
Lin q
Ġsal ary
Ġfoss il
T ry
Ġfant astic
ĠE sp
asc ade
er ie
sp ired
ordin ates
Ġmuseum s
ĠSt ef
Ġmask s
or um
Ġm amm
Ġsus pected
ĠTh r
L ittle
he ther
Ġc ave
Ġsampl ed
Ġcre ator
gom ery
Trans lation
ĠBut ler
Ġmer chant
Ġsoph istic
Art icle
Ġpregn ancy
ĠRoman ian
ra is
Ġswitch ing
and ed
poly mer
sub stack
the mes
mid rule
Ġinf ected
subs cribe
L IB
Ġappreci ate
Ġres ervoir
Ġdiv ide
ĠS ak
ad os
Met ric
Ġscript s
am ar
separ ator
Ġarr ives
Ġl l
ĠCan al
ĠCommunic ation
N U
Ġmed als
Ġshall ow
Ġmand atory
Ġanom al
op al
Ġintrodu ces
Mult iple
ĠN R
AB ILITY
} ~\
ĠLe o
Ġalleg ations
Sever al
B uf
n ear
RO OT
ĠIda ho
Ġsome how
CO UNT
Ġhuman ity
Sim ilarly
ĠTR UE
Ġpregn ant
Ġ$ ('#
Ġgather ing
F K
Ġe arning
Ġd ish
Ġunc lear
}} =\
os er
Block s
Ġhon ors
ĠE T
ĠCon sole
ĠK umar
dr ag
Open Tl
f ive
ĠDr ug
Ġm ast
b ucket
Ġdifferent ly
Has Been
ĠDef ine
18 67
Ġman ages
Ġmart ial
Ġair line
18 79
ĠD ennis
ĠFil ter
ĠDi agn
ĠEx cell
Z Z
ĠPro gress
! )
] ),
` )
Academ ic
D ao
r v
ĠM ig
Ġper pet
Ġspecial ist
Sl ot
Ġd w
ĠP ent
Ġel ite
ĠHel en
ĠIllegal ArgumentException
ĠB ak
} <
im eter
Ġdro ve
Ġ! !
Ġst olen
t ol
im ity
ced es
sim ilar
ĠDise ase
ĠL ov
ĠBet ter
. ")
Ġinternational ly
Ġhistor ians
T our
, (
H H
if ice
15 2
S ets
ib ling
Look up
AR GET
S ig
W D
ĠEnter prise
x f
C hat
L T
Ġhand ed
Ġsh a
ern ess
Ġab ortion
Ġpe oples
Ġadvoc ate
Album s
ĠSh im
Comm it
Ġadjust ed
Ġconcert s
not in
ĠD ol
Fix ture
ĠN y
eng u
16 6
> $
Ġdist ant
log y
ĠO m
-------------------------------- ----------------
ĠAl t
Ġphenomen a
the ad
Ġattr actions
ĠVenezuel a
Pop up
ĠHug hes
EN ABLE
Ġa uction
Rep ublic
Ġpers u
Ġalleged ly
Ġtim er
ĠRepresent ative
ubern etes
D one
ol ine
Ġy ard
Ġb ay
att en
c aster
}\ ;
k k
ĠRod rig
E mb
ĠNash ville
18 71
Ġline up
F re
Ġmer ch
Dem ographics
Ġinf ections
FN GL
$ --
Ġac res
ĠF iction
LA B
Ġk nee
con struction
>: ]<
Ġbel t
G re
is se
Ġgrad uating
Ġf ulf
ĠD od
ĠPlan et
In struction
olec ular
Big l
ĠT YPE
ph oto
Ġem p
Ġcontr ary
Ġatmosph eric
ĠTerrit ory
ĠF E
â Ĩ
Ġdoll ar
Ġf illing
st roke
Ġun em
Ġpract ition
A ff
ĠCh rome
Ġb ary
Ġplan es
æķ °
ĠS ET
ling ton
Ġint u
ĠCELL PADDING
first row
und ing
Ġun cle
Ġhand les
ĠH amb
in ced
Ġgr ave
sup erv
Ġsus cept
Ġicon ic
L M
Ġdev ast
Gr and
Ġt ape
Ġp ale
od ic
Â Ń
Ġcent res
Ġbr ut
ĉĉĉĉĉĉĉĉ ĉĉĉĉ
ĠCELL SPACING
Ġend if
S in
pack et
Java Script
Ġman ually
ĠN ames
Ġnon zero
ack ed
Al tern
Ġautom ated
ĠS ah
ĠEm ploy
ĠK un
ĠPhil osophy
Ġcl s
4 000
ĠB ald
t bl
Ġf iscal
Ġ// -->
ĠPhill ips
ĉĉ Ġ
Dan iel
Ġtw ist
Ġparliament ary
Ġtraject ories
S afe
ĠPhilipp ine
ul ators
ĠW I
Ġde formation
ĠB eyond
Ġdo zen
found er
' }\
Pe er
el ia
land o
ĠC ategory
ch unk
Ġsem antic
Rad ius
St rip
ar ms
Ġb rew
Ġm a
Ġg ates
Ġcon formal
30 4
Ġcharg ing
Ġlat ent
ĠCurrent ly
C y
ĠR aid
ĠCl ick
Ġl iver
leq slant
? (
ourn aments
ĠG M
Ġvolunte er
ĠLead ership
ĠT ed
ast ore
io x
ĠCon sequently
Ä Ľ
erm ark
cho ose
Ġpy thon
Austral ia
Ġas h
Ġsubstant ially
ĠÃ Ĺ
Ġpoll ution
Ġconf used
ab we
inter action
IN DEX
Âł Âł
arg v
Ġart work
_ [
Ġsur f
Ġcor por
to ctree
value Of
ĠPr im
Ġan onymous
Ġper f
ĠCap itol
uls ion
ĠK IND
ber ger
ĠM illion
}} )$
ĠA F
am med
ess a
Ġall ies
Ġpop ulated
ĠSo on
Ar r
ask at
13 8
uet ooth
! =
z oom
ex tract
Ġuniqu ely
Ġball ot
Ġphotograph er
Ġ$\ |
fr astructure
Ġassum es
ĠM ab
Ġfall en
A cknowled
Ġen orm
ĠCl aim
cs v
Ġrad ar
Q UI
Sl ice
Person nel
ĠL iga
Ch inese
res olved
ĠGl ass
è ¡
Ġrem arks
Ġassist ed
ĠR oot
ĠHash Map
ĠY ugosl
STR UCT
amb ers
ĠP ain
ĠF at
ĠR ey
ĠMe eting
c ookie
z b
Ġland ed
Ġn inth
15 7
ĠS ho
f ollow
end um
Ġart illery
ĠS ierra
ION S
Ġbuild s
15 9
ĠUS B
od b
** *
Ġquot ient
Ġsup ern
Ġs i
ĠT ang
ĠM ET
ĠMar io
f loor
d evelop
se ed
37 5
Ġtrail er
faster xml
Ġh orn
az i
ĠCon st
Ġconnect ivity
Ġover head
ĠL an
R ank
Ġsubsidi ary
Ġun e
Track er
lf loor
d ifferent
ĠD rop
ĠG ene
ĠIn cre
ĠOt tawa
- ">
ĠPhys ical
con figure
Ġconcent rations
= -\
ĠY ellow
F ort
do es
ĠDir ac
ĠN athan
Ġcos mic
inher ited
Ġob sc
ĠBob by
Ġt ent
Ġattend ance
SU CCESS
n om
min a
ĠW ag
" ])
O G
Ġsav ings
u o
v dots
| _
h all
t uple
Class Name
Ġport al
Separ ator
D a
am ation
Ġsc iences
Afr ican
. ]
ĠR ender
: %
Ġt une
Å Ľ
Ġcompr ises
G raphics
om ething
ĠSh are
ĠS yl
Ġar ithmetic
ĠCon tract
Ġdesign ers
HasBeen Set
+ "
Î º
log ical
ç »
Ġactiv ated
ĠT es
c ategories
Ġdeliver ing
ig rated
ĠV ision
Ġcon vey
h ang
ĠJ ar
Ġlook up
ĠR ah
Ġarr iving
ĠN ormal
18 72
ĠV ermont
Im ages
s it
Ġref ere
........ ........
am ine
Mark er
Ġorient ed
ĠG ang
Ġdr ift
Ġsum mit
ij i
ĠSp ider
2 24
Ġ" );
ĠWell s
18 74
Sur face
ij k
Ġres il
Ġaccompl ished
v r
3 30
H uman
ad ers
Ġgrand father
Ġprotect ing
Ġper ception
b age
Ġed itors
flu ence
Ġwarn ed
ĠD IS
Rel ative
B a
Ġport ions
ĠK ash
Ġbut tons
36 5
Ex amples
Ġaccommod ate
Ġseem ingly
ĠDev ice
B ucket
Ġlo ans
Ġescap ed
Ġ" _
AP PL
ĠNS String
Ġd ash
Ġinter faces
other apy
ING S
Ass ign
EX PORT
14 6
Sche me
Americ a
ert y
Ġback ed
Ġinitial ized
Ġwrest ling
20 4
imb abwe
c ritical
pro port
ĠStr ategy
Ġpers istent
Ġle an
Ġind oor
um per
ev ille
Br anch
Ġan xiety
ME M
al am
sc an
Mod al
ĠChristian ity
Ġaffili ated
post s
Ġf iring
Ġi i
Ġspeed s
att ach
Ġexhib ited
uff le
Ġcompl aint
ĠN intendo
B razil
ĠTerm s
Ch unk
Ġprogram mes
W il
Right arrow
ĠR ules
Valid ate
J s
ĠR osen
="# ">
ĠEm ily
equal ities
Ġb unch
ĠR achel
N F
M ah
Ġh int
cer pt
Ġ ell
sub string
Ġconstitution al
ĠTechn ologies
Ġcontroll ing
Ġbacter ia
F ill
R en
Ġth rew
Un ion
sm ooth
App ly
Ġtour ist
c ock
p ending
ĠInd igenous
ĠHar vey
Ġwild life
rf loor
ĠEmer gency
V S
Ġfin itely
op acity
Ġmanufact ured
Ġdistinct ive
Ġprefer ences
oph one
ĠAtt ribute
Ġflex ibility
Ġpat rol
ĠBudd hist
itud inal
ĠChar acter
0 100
off icial
Ġdraw s
Ġdes criptions
Ġp index
}_{ {\
Ġblock chain
Ġread ily
Ġmurder ed
B H
d ue
/ #
back end
Ã¼ n
Ġal liance
Ġconvers ations
Ġr hs
ĠPro ductions
| =
ĠH ugh
Ġconduct ing
look up
% ),
W ARN
Ch ris
Dest roy
ĠV ict
Ġsub mission
ĠVal ues
Ġded uce
Conf irm
p oll
ĠT odd
ĠPark s
anc ers
comp iled
18 77
Ġcomment ary
Ġdecor ated
g mail
Ġto ll
Ġwealth y
U UID
at ra
ĠF lo
w al
h im
ol ate
D eb
TH ER
Ġconv inced
Ġtherm od
Ġconsider ably
Ġfrag ments
\ -
ie u
Ġar ising
g al
Ġn ose
ĠZ ero
l ag
m icrosoft
it zer
ĠB H
Ġline arly
ĠB irth
Ġap pl
Ġo c
Ġf ed
Ġw ard
cript ors
ĠArt ists
start s
Ġim pression
d elegate
}{* }{
Ġachiev ement
ul in
ever y
) |\
ind ices
im ony
Ġmethod ology
)= (
Ġ/ ><
ĠRon ald
ĠN ancy
mark er
Ġinsert ed
Ġar ises
cho ice
ĠX box
ĠJ O
ose x
ys ics
ĠGro ve
al og
ĠC ould
R o
amp ing
pp ing
K K
18 73
Ġvan ishes
Ġsqu ares
ĠT X
Ġsub t
ing ing
Ġwork shop
Ġtri ps
Pr imitive
Ġcivil ian
Ġco at
ent ries
od al
Can vas
to k
ic us
Ġcon fess
pos able
ĠWall ace
14 9
c ott
h ind
ann i
Ġst ub
orph ism
Ġrect angle
inem atic
Ġse p
Ġper cussion
ool s
Ġmob ility
Ñ İ
× ¨
Ġhyper bolic
ach ers
ok o
Th anks
Ġrecip ients
ro e
20 5
we ather
v or
Ġfl our
ĠK re
Us ed
Ġd ancing
ĠL arge
Ġtr ig
ry s
ĠL ocation
Ex tract
Ġw ars
n ick
ĠO thers
26 0
Ġvis itor
ĠInvest ment
ex act
Ġformul as
Ġav iation
28 0
p aces
I ENT
Ġdead line
Profess ional
ilt ers
k le
ĠInitial ize
M ex
V IEW
Ġs its
= (\
ĠP ont
Ġpresent ing
ĠD CHECK
sw er
tr ained
Ġc s
ock ets
ogn ition
Ġbar rel
Ġf t
h istor
abul ary
Ġle x
}^{ (\
hem atic
ĠT as
z ens
Ñ Ī
Ġch ances
20 3
Data Source
ref lect
c ue
ĠL oss
ĠN urs
Ġcomplet es
ĠInt el
ĠE ve
ĠCy ber
n ai
Ġthr iller
ific ates
non atomic
Ġtri bes
30 1
shall er
ĠL amb
text ure
\, ,
ĠArt illery
al is
Ġwe igh
ist le
FLA G
18 66
De ep
s ender
Ġf oo
Ġrecogn ised
Ġd otted
Ġm ice
ell ows
un ting
no ise
ĠM R
Ġple ased
Ġswit ched
Ġad mission
Ġde prec
ĠSher iff
Mill is
ĠC raw
ibl ings
ĠK ol
ĠM aced
ĠTr ain
Ġl on
S a
hell o
ĠE instein
er i
Ġj ets
SH A
ynchron ous
rele ased
oll o
Ġocc urrence
Ġbal anced
ec ycle
C ookie
at z
et ed
dem o
Ġ$ <
ĠF an
ond e
ol ition
ĠCh ang
Ġscal ed
ĠLiber ty
ĠPer iod
ĠS SL
itte es
Ġreal m
Ġple asure
di ag
' $,
Ġre nown
Ph ase
' )$
ĠG amb
uss els
ĠExper ience
15 6
ĠCon vers
Ġmicro sc
R NA
gr avity
ĠGener ation
Ġst reak
ĠFl ag
hash Code
gu ard
ok ia
S ir
Ġad equate
ĠD rama
ĠG ET
ĠAd miral
ĠStr ong
Spr ing
Ä ħ
ĠTib et
ĠP T
H ook
Ġguarant ees
ĠS EC
Ġ ì
re b
Ġadminister ed
ĠAv ailable
ĠM ine
Ġpotential s
ffff ff
ĠSh akespeare
Ġsent ences
Subs cription
ä¸ Ń
Ġaddress ing
ct rl
Ġfriend ship
dir name
13 9
SS AGE
Pl ayers
Ġassert ion
math ds
Fr ance
Ġreason ing
append Child
Ġhom ot
Ġcoupl ings
oot ing
up id
om p
Ġgovern ance
ĠTri ple
Ġstri kes
ĠCroat ia
ĠSw ift
man ifold
× ľ
ĠD epend
Ġc razy
Ġperturb ations
ĠH ousing
Ġnation wide
itect ure
Ġl ady
f eld
omorph isms
Ġeditor ial
Ġg aps
Pro c
ĠE ar
M id
ĠM ills
Ġhar ass
ĠR isk
ĠS old
Ġveloc ities
Ġattr action
ĠR uth
Ass ume
Ġr iders
Are Equal
Ġse cre
Ġdis cre
ĠD eg
;\ ;
sign al
Ġfor um
ĠAz ure
L ists
go al
unt ary
; ]
ĠArn old
ĠP resent
Ġmulti plication
Ġbroadcast ing
H ung
Ġisol ation
ĠR alph
ur ated
Ġem it
r ain
Ġen compass
Ġcon greg
j ab
rg b
ard i
Ġem otions
h yp
ĠK in
ĠP av
Ġfl ip
Ġident ities
Ġp ink
ĠProgram me
Ġneighbour hood
Ġsettlement s
Ġsculpt ure
ĠF oster
Ġcro ps
Ġchar ter
ipp et
V s
ack ets
Ġaffect ing
FORM AT
ĠE RR
" </
st orm
ĠB esides
ĠSt uart
Ġsynt hes
ĠMus ical
ĠAssoci ate
Ġpass phrase
Ġharm on
ent ric
aur us
Ġlett ing
ack er
Ali as
Ġinvent ory
C s
ena issance
ĠTy ler
us hes
ĠW indow
ĠHer z
gener ation
Ġimag inary
Ġsh aped
Ġc attle
N ING
ex tr
& $
ĠA uckland
al tern
ĠS erv
Ġcol ony
ĠCon struct
P adding
ill es
ĠU nd
Sc heduler
18 5
x e
NG TH
ĠTh row
Ġsure ly
* (
product s
Ġstruct ured
m ans
Ġmake up
eg al
In cre
m ot
ack ing
}) _{
erial ize
ĠUE FA
Ġd ying
In ject
ĠCal cul
202 4
Medal ists
Ġclass ifier
V ote
Ġutil ized
Ġm ood
Ġobserv able
Sc heduled
mult iple
Ġconcent rated
Ġs ake
Ġco hom
ĠSc i
heim er
item pty
ĠD h
ĠD oll
Ġinaug ural
Ġtarget ing
Ġinvestig ating
Ġpack ed
ĠAd elaide
r ac
om itempty
Per formance
Ġinteg rate
x sd
ĠMunic ipal
) |^
} &\
Ġres erves
Ġbank rupt
Sh adow
Ġodd s
Ġrel ate
ĠEdd ie
At l
ĠHer bert
iz za
Ġtele phone
i ya
Ġlocomot ives
ĠLear n
Sh arp
Wh ich
F un
Ġg amb
M ir
Per cent
FFFF FF
com press
iz ar
ĠPro f
B ay
Ġorig inated
po i
ĠS Y
Any Ref
ĠG A
Ġspac etime
Ġwe ird
out ing
P rior
Ġ$ [\
ĠPract ice
Re place
ĠMaterial s
N ever
Ġb eneath
G al
Ġd ump
Appe arance
Ġcomp atibility
ĠPalest inian
Th ird
'' '
ĠN om
em ption
}_ +
ĠCr iminal
Cho ice
um m
ĠChem ical
) }^
Ã© d
ĠE M
car bon
ĠJ in
Ġlocal ization
ĠRequ ired
Ġmar ry
Ġdem o
U kr
Second s
ĠAn cient
Ġcontact s
Ġm im
Ġ/ ></
ĠBrook s
Rh ino
ĠStr uct
Th ank
Ġtr aces
Ġed itions
ĠAb raham
Ġimport ed
bro ok
Ġv iral
attr s
: /
Ġfeas ible
Ġnob le
Ġl uck
Ent ries
Ġf ate
Ġrecall ed
Ġgovern ed
Ġf o
Ġenc oder
ark er
'] ))
Ġhold er
18 40
um ble
ĠEn try
ÑĢ Ð°Ð
ĠC inema
14 8
R outer
r age
ur as
Ġbus es
Ġch iral
Ġaff air
Ġfood s
ĠF R
Ġcompos itions
Ð° Ð»
IT H
IC K
Ġbare ly
Ġd ys
iat ric
Ġstay ing
Ġsimpl ified
Ġr m
mod ified
F ast
Ġgr ateful
Ġcon jecture
Ġan ger
Ġquant itative
d eveloper
Add ed
Ġexecut ives
ĠSol utions
ĠESP N
Ġincor porate
sc apes
Pl us
==== =
Ġpoor ly
ak ov
ĠF ramework
Ġharm ony
ĠT D
ĠĠĠĠĠĠĠĠĠĠĠĠĠĠĠĠĠĠĠĠĠĠĠĠĠĠĠĠĠĠĠĠ ĠĠĠĠĠĠĠĠĠ
sl ot
Ġamb ig
ĠInd ependence
Ġcomp ile
Ġlo ose
ĠSp encer
Ġassess ed
ĠN g
Ġmaintain s
Jew ish
Ġl ov
Ġacknowled ged
ĠH alf
Ġcross es
Ġprom ises
Big r
ĠPh one
d eb
Ġjournal ism
G amm
âĢ ¯
18 69
w ent
ĠCom plete
ĠP anel
ĠUs ers
r ise
Ġoptim ized
ĠSerb ian
R oll
r ink
Ġadapt ive
emph is
ĠEu clidean
Ġg a
inter est
ad apter
Ġf ires
Ġrun ners
Ø ³
Scal ar
Ġa ster
S aint
as se
Ġexp enses
Ġun ions
Ġpat ron
ĠHar bor
b ur
Ġs s
ĠRe ed
ĠCor p
Ñģ Ðº
T urn
Ġattack ing
Ġspec ifies
is ible
ĠPlay Station
) <
p od
ĠLuc as
ok i
ator ies
Ġgard ens
Ġ[ {
123 45
ĠF ollow
ĠL if
ond o
A mazon
l ift
Ġexplos ion
end region
Stack Trace
Ġinfin ity
hel m
S rc
ĠN GC
Ġcook ing
Ġtrad itionally
second s
T s
Ġsynchron ized
tem perature
pl iers
hen e
r ans
t ility
TR A
ĠEn cycl
Ġinteract ing
af ka
Ġrev ision
Ġn ights
ĠP D
Hon ours
ĠFa ith
15 1
J on
ere k
ĠPen insula
Not ice
ĠY ale
ĠHe brew
ĠA WS
Ġk iss
Ġjud gment
Ġburn ed
ĠSh adow
Ġdr ain
Path s
ĠRem ark
M ale
Ġf ru
ĠDet erm
Ġpreced ing
Ġemploy ers
but tons
ĠShang hai
i q
ĠFant asy
Ġon click
ap ps
fo od
Ġtal ented
ĠThe od
Requ ire
T ensor
Ġ"- //
á ¹
Ġle ase
Ġdist ribute
St ates
bad ge
ĠHis panic
Ġc ele
ĠLeon ard
Ġb ubble
ĠD anny
Am ong
ĠD A
Ġbi ology
Ġm ines
Ġout per
Ġval ued
Ġ$ $\
ad j
ĠWe ather
ĠAn imal
ĠSy mbol
> ()</
ĠS oci
ĠPar ad
Ġinf ect
lect ric
sh iv
ĠReyn olds
Ġex clude
ĠLeban on
ced ure
fil m
Ġin ev
Ġlob by
ingu ished
Ġextra ordinary
t ile
Ġconsider ations
roll ers
ĠLe ave
w ire
em ia
ĠSum mit
L F
Ġshel ter
Ġsurve illance
stat ement
Ġrefuge es
Ġob l
ugg ed
Ġw orn
SD K
Ġk iller
ic ia
ff ield
Ġep it
leg iate
ring tone
Ġreli ability
ĠC elt
Dest ination
Lower Case
e i
Ġfre ely
im on
15 4
ĠInter face
Ġbright ness
Ġob s
Ġf ung
ĠRe ports
Fl ora
SER VER
im plementation
iv odes
Ġdiscuss ing
Warn ings
ĠCon sumer
ĠSet tings
Ġchalleng ed
h m
n ut
Sw ed
Ġfilter ed
Ġvacc ination
v d
ab b
Ġre nov
ĠB rowser
n orth
ep per
ĠG em
âĢĿ )
Ġsm oke
ĠR ut
ĠL ak
Ġsuper conduct
Ã§ Ã£o
}, {\
orne ys
O W
ĠMin i
ĠB ag
ĠO UT
rot ate
WR ITE
Pay load
ĠLet ter
( |
act iv
E s
Ġreg istry
Ġb ins
11 11
Array s
ĠR ou
14 1
0 10
] ^{
Back end
p el
Ġf ram
ĠM ob
ed ges
Ġdiver gence
Ġen roll
ĠP icture
ĠCard inals
Ġh ung
Ġex tern
date picker
fin ity
ĠQ CD
ĠC apt
osph ere
Ġcor rel
Ġrecommend ation
ĠCustom er
Ġin equalities
Ġcol ours
vari ables
Ð¾Ð ´
Ġcre am
im mer
R end
Tax a
Ġhistor ically
Ġexc av
Ġcard inal
ĠP sy
å Ľ
tr ation
//////////////////////////////// ////////////////////////////////
P K
Ġident ifies
DO CK
Oper and
Ġim perial
ĠW R
Vis ibility
Ġt rem
ĠChel sea
ĠM om
ĠH av
ren ew
ĠCl iff
ĠU SE
Ġimprov es
govern or
' "
iv ariate
---- -
ĠGreg ory
ĠProduct s
Ġrepro duce
Ġglob e
Ġprodu ctions
ĠM ul
cu ador
l c
Ġme al
ĠNorth west
ĠExt ension
Ġh ur
ĠMot ors
Gamm ac
Ġthrow ing
Ġdefend ers
b usiness
Ġal i
B G
ĠRes erved
FA IL
Stud ent
ĠB order
con sc
Ġincred ibly
ĠAbb ey
ĠTom my
over lay
over flow
Ġpoly mer
Ġkw args
A thlet
Ġutil ize
s igned
Ġ( `
15 3
p riority
ours es
ĠMont gomery
veloc ity
. },
In jection
EN C
ĠE ight
Rec ent
Ġtrans mitted
ĠString Builder
Col lege
ĠGab riel
ĠSi eg
m icro
ĠS weet
Ref resh
Ġto mb
Al ignment
Ġdiff ers
Ġd Ã©
Ġexp ense
ĠEvery thing
Ġadv ised
ĠCom edy
Conn ector
ierarch ical
S ar
Ġsub tle
ĠS ym
ĠR us
r n
Ġare na
Ġhot els
bal ena
Ġpr ayer
ĠT ik
AT URE
Ġmot ivation
ĠVen ice
ĠTreat y
Ġdem olished
ĠA ber
Ġc ad
ĠIs aac
work ing
Par cel
Ġbi ography
play ing
Ġcompr ising
Ġle ak
Ġlegend ary
[ [
Ġex pr
short cut
duc ing
Ġsoci eties
ĠPeters burg
W elcome
ot ics
ad just
Ġz ip
P ref
d h
Ġscatter ed
c ached
s il
ĠA bs
ĠBenn ett
16 7
Ġloc als
Ġ um
ĠAzerbai jan
Ġattr s
l ap
Ġad apter
Ġpsych ology
; -
14 2
ivodes hip
p referred
alyt ic
be it
ast ics
ĠWild life
ĠMod els
ĠB ert
Ġcur riculum
im an
at ype
udd y
"> &#
h ydro
Ġgu ided
AC CEPT
Ġinitial ization
Ġgame play
ĠSc ar
ĠCh oice
Gu id
Ġobserv ational
ĠAl pha
ch ing
H PP
ĠS ter
arth y
ĠField s
V ariant
re verse
Ġf ut
er es
ĠR af
Ġprov ing
Ġsimpl er
B re
Ġdispl acement
d an
sl f
ĠB lo
Ġaut onomous
ĠBy z
Ġb is
ĠD S
ĠDec ision
ĠAng lo
Can ada
) ?
tab les
ĠCor on
ĠLe eds
ĠN ATO
ĠD aw
Ġrow span
\| _{\
ad apt
Key word
act ing
Ġâ ĪĴ
ĠD evelop
ph ysical
gr pc
ĠR C
ĠIn stitution
ĠQ uality
Ġsuff ices
cal c
__ ["
any on
Ġachiev ements
Ġen rolled
Disc ography
U psilon
ĠTrans itional
Ġselect ing
. }\
Ġ" +
Ġmyst erious
ĠBroadcast ing
ĠE rr
ĠMar x
ĠEm ma
ĠP and
ĠJul ia
ath i
Ġcorn ers
Ġs ink
ĠTr igger
w y
ll a
St d
ad vant
Ġsk etch
Ġund ers
x r
Beh av
Ġnav igate
che z
Ġinter fer
Ġinv oked
av atar
ĠCh an
it ars
un ate
ĠG az
Ġpal ace
Ġlearn s
Load ed
ĠM umbai
Ġcont ested
ĠS ultan
Mus ical
18 48
Ġprov inces
Ġsquad ron
I ts
' ):
ĠR ams
ĠOak land
Ext ended
ĠEag le
ĠPal mer
{ [
H o
ĠForm at
ĠG ilbert
Ġre ceptor
ĠH yper
18 59
ĠIP v
per formance
ject ive
ĠMil waukee
ĠG OP
ĠHar old
T ables
en ario
K im
ap or
Ġmin eral
Ġbar riers
)} _{\
Ġfight ers
Ġcompl aints
ĠĠĠĠĠĠĠ Ċ
âĶ Ģ
Ġb ol
Ġe gg
Ġregular ity
Ġexpl aining
Ġins pection
Ġproceed s
ĠDirect ory
atin um
Recip ients
g ap
Ġrock et
Ġwav ef
el m
ĠBl ake
ĠHe in
N OS
H ex
man uel
ĠW C
W P
ĠI SO
ĠH ER
) '
ish i
Ġn erv
å ¯
Ġsur ge
Ġmet abol
Ġstep ped
arr ison
ore l
à¥ į
Ġb ell
PA SS
to Equal
ĠAn a
Ġw are
R IGHT
j ud
ĠAh med
N AS
und erset
B bb
G erm
e lected
Ġre normal
Ġcharacter ization
ĠB ach
Ġal arm
Ġcle ared
ĠTh ai
Ġp iv
Ġover r
Ġto String
2 11
ĠAdvent ure
ex clude
Ġprevent ing
BUIL D
ĠFellow ship
Ġrep o
U i
Ġadv ances
ĠGerm ans
b is
ch rome
ĠG ust
m itting
Function s
FT WARE
Ġfeed ing
Ġmodel ed
Ġf uck
ĠVo ivodeship
Ġn ep
leg end
> )</
aly zer
Ġt ier
ĠL iv
Ġeval uating
ĠBulg aria
CH AN
former ly
Ġdeterm inistic
Vis it
Ġrenown ed
Ġwarm ing
Ġfar ms
A h
}} }{
Ġcon spiracy
c g
og g
() [
E O
ĠInitial ized
l ists
s and
Own Property
Ġw age
Ġle agues
A UTH
in ely
Ġfif teen
ĠB ears
eg an
ov al
sw ick
ĠChap el
Ġent ert
Ġhard ly
ĠĠĠĠ ĉ
Ġor chestr
Ġsh ar
Ġfund ra
riter ion
G D
Ġt ournaments
H aving
Ġo d
am ous
' -
ĠCom mercial
Ġunder go
Ġarg ues
al ter
cont rolled
Ġblock ing
icy cle
Ġfilm ing
or ic
Ġobserv ing
pre ced
Ġpath way
Ġl apt
mathbb m
Ġtour ing
ĠPer haps
ĠDis covery
in as
Ġhe aling
String Builder
Ġc oding
im ag
ĠS askat
ow ing
Ġwork shops
Ġtrust ed
Ġaver aging
ĠAut om
2 12
Ġp orn
ĠIn side
ĠAdd ed
Ġbenef icial
Rec ords
ĠJo an
Mean while
OBJ ECT
Ġconc urrent
Ġwhe els
K h
ĠNor folk
col ors
Ġdat etime
Ġhom eless
Ġproof s
ĠDe ut
isb ane
ot er
Ġle ver
Ġdiv orce
ĠPed ro
* >(
ĠIniti ative
od ium
}= (
Ġg aining
as ive
ĠMarc us
ĠWell ington
s an
Ġinter sect
anc ies
15 8
Ġrele asing
ĠM ik
ĠWood s
Ġalter ed
is en
Ġsc andal
Ġter rible
Ġathlet ic
ĠC B
ips ch
est imate
Ġs el
ĠPre p
Ġoptim ize
u u
ur istic
Ġcomb ines
L ee
ĠR ice
P icker
Ġdiagn osed
M ike
ĠM enu
ĠAdvis ory
L ie
ĠIn fo
her o
Ġremember ed
D igital
key words
ĠPers ian
Ġsophistic ated
section s
est rian
O l
u ator
Ġbl ues
ĠAng l
00 3
}. \
d ump
ĠS ER
ĠT all
cons ider
ĠR ES
r ust
b ay
ig rate
ĠTest s
', \
hand ed
Ġ} {\
ĠSud an
ĠFe atures
ĠVAL UES
ĠTE ST
ĠTr uth
ĠBr isbane
C AC
parent Node
R GB
ĠSh in
=" ./
UP DATE
F s
ĠJ ung
Ġc ere
0 200
ic acy
Ġdi abetes
Ġaf raid
sub float
Ġloc ale
art et
Ġmod est
iev e
us a
U r
Î ¯
Ġdec ays
Ġsett le
Ġgrad es
ĠMus k
reg ex
ĠLore ntz
vers ions
. (\
ant om
Ġsup pressed
Ġlimit ation
en burg
h orn
q a
Ġsegment ation
idel ity
Ġexcit ation
w m
Pol y
Ġtox ic
ĠK yle
Ġ[ #
ĠUg anda
Ð¾Ð ¼
' }$
W ashington
Ġwarn ings
Ġlie utenant
Att empt
TEXT URE
] -->
Ġl akes
ĠGard ens
ĠV eh
Ġartifact s
17 6
Ġpat ri
\ ":
Ġv in
h agen
ĠRay mond
Ġt we
Ġd ining
Ġr c
Ġl y
Ġhum or
Request s
ĠSocial ist
ber y
ĠCong o
You ng
ĠMov ies
j obs
Qu estion
Ġsuggest ions
(" -
B lob
P ars
x rightarrow
Ass ignment
Ġanalyt ics
ĠPod cast
MA KE
V EL
und a
ĠMan uel
Ġtrav els
Ġfor wards
Ġanticip ated
ĠP att
Ġpredecess or
orient ation
ag ic
Ġw ore
L ev
ĠSl oven
Ġrot ating
ull ah
Ġc c
ĠC ache
' =>
Ġst ret
Ġclean ing
ĠMan ufact
Ġ} .
Ġres ist
unc an
r x
Ġa thlete
Ġn m
Ġformal ism
Ġin complete
ĠPro of
B on
_{ {
18 57
22 2
ĠCon cert
Ġencour aging
ing o
Ġred und
M X
o ct
are l
Prot os
Ġcart oon
ĠAm endment
Ġsear ches
ĠC off
over ride
XX XX
ific ant
Ġdel ays
b rit
ĠM ove
4 80
Reg istration
ĠTrans action
Ġnews letter
w ear
ĠW riter
Ġfix ture
Ġpitch er
ĠP rest
ĠMathemat ics
Ġbe et
E nergy
U int
p it
Ġl t
car ousel
ĠL akes
ge om
ĠG PU
elastic search
d g
Ã ¯
est yle
z el
=" <?
remove Class
Ġtem plates
ĠBi ology
Ġs oc
ĠNiger ian
Ġp ig
CON ST
Ġc ant
set Attribute
Ġut ter
Ġem power
v g
ĠDe al
und ers
& -
æ ī
ĠP rec
18 30
sup p
ĠSeb ast
help ers
ĠS ometimes
Ġevery body
Ġir regular
R G
Ġpermut ation
bound ary
wall paper
z ig
/ $
ĠE ST
Ġnumer ically
pre view
ĠClar ke
ĠÎ ¼
ĠLat ino
ĠA ve
ĠH urricane
ĠSing les
per mission
Ġtr act
Ġh ab
Over lay
Ġdis pers
Link ed
Ind eed
Ġad verse
Ġh ills
W ild
ĠD ame
Ġn ic
bit coin
cur ve
F RAME
Ġg lyph
ĠPow ell
ĠS ens
Ġastr onom
ĠFour th
Ġdemocr atic
ĠS ang
Ġcontrad ict
}} }$
Ġcol ored
Ġenorm ous
Ġwork force
St mt
Ġl as
( []
ĠP oss
v skip
m ile
size of
ĠCh arg
igr ant
ĠRet rieved
M ASK
Ġdon ations
. ');
---- ---
Enc oder
ĠSpe aker
ĠPet e
yl an
Ġt body
fil er
Ġproceed ings
ĠPrinc ipal
Ġbur den
Ġcou p
ĠÎ ±
Ġhop ed
Ġdemand ing
Ġspread ing
Ġcert ification
Ġjoint ly
Ġdwar f
Ġcount ed
F ROM
ĠT ampa
Ġ} ),
col ogical
Ġbl ame
rows ers
H idden
Q R
Ġdraft ed
l is
ĠOr d
ĠAll ah
Ġ' $
re a
Ġpre view
// !
ĠPro blem
Ġrecon structed
ĠBat man
ĠArmen ian
= }
reg istry
Ġco res
Al ign
Ġpro ton
ĠV K
User name
Ġd ots
ore n
ot yp
Ġre forms
Ġimportant ly
Ġinstitution al
Ñ Ħ
ill on
ott ing
Ġang ry
Ġfle w
Th reshold
ed ing
40 1
Scott ish
f on
Ġneglig ible
Ġinf antry
Ġsw ap
Ġresearch er
a qu
x t
Ġcounter part
ĠW ire
ĠâĢ Ŀ
ĠAct ivity
St yles
ĠTh ir
Dep artment
est im
opt imal
Ġd ad
Ġtang ent
ipsch itz
pred ict
Ġs overe
ĠV AR
Ġqu it
Ġinter change
Ġsummar ized
Ġmod ular
pr ising
min ster
ĠSh ir
ĠPr ison
Ġ( <
Ġful fill
ec a
ĠAssoci ated
as ide
se ver
Ġaccept s
d og
Ġr amp
ĠHop kins
)} =
Ġcorrect ed
eb ook
ĠR PC
Ġg ymn
Check ed
conf irm
Ġp t
Ġsm oking
it ary
Comp any
f urt
ĠMon itor
ÐµÐ½ Ð¸
s ap
ĠHol mes
Def unct
Ġtom orrow
ĠG and
Start ing
. &
ans k
Ġp ad
Ġout lined
or ig
Ġc ry
ĠE ye
ĠParam eter
Ġbreed ing
Ġcyl inder
b urst
}) -
Ġparticip ant
Ġim pressed
Ġon set
}\ !
mon itor
H AND
en i
intend ent
B and
APPL ICATION
Ġcell ular
ch annels
S heet
ĠS tra
Ġ' ')
ĠRec all
v ance
Ġab elian
Ġb lo
ĠH ur
op ened
Ap ple
ĠD ifferent
ĠBr ain
Ġre un
Ġlog s
at em
Ġch apters
Ġfin ancing
ĠJul ian
ij a
Ġprevent ed
b read
ĠV illa
Ver b
Opt im
ĠCond ition
ĠC HE
ĠP ink
Ġrefer enced
R atio
ap prop
Ġinter cept
ĠR an
Ġtr apped
Ġenc rypted
, ~
w b
cc entric
ĠZ imbabwe
Ġoverwhel ming
RO W
fold ing
Des cribe
ordin ator
con tract
' )\
Custom er
à¤ °
Ġcab in
Ġcompar isons
Ġdim in
Ġthr one
Ġanth rop
cipl inary
n pm
ĠQ String
Ġcour tesy
ĠP ars
Ġmolec ule
J P
w yn
Ġbe ars
comm ands
Ġret ro
Ġemail s
rit ic
Ġtoler ance
Ġwe aken
Ġbelong ed
ĠV ers
Ġsmart phone
2 32
n r
ĠPos ition
R M
Ġ ^{\
ĠW ant
Ġlift ed
Co ins
Ġcancell ation
Ġwork place
ĠHen ri
V ir
Ġv ig
External Project
Ġdrum mer
Az ure
dec oration
Ġtor us
Ġcon ce
Ġansw ered
5 50
oper ating
Ġelli ptic
st ed
to LowerCase
Ġ(! (
jav ase
ĠVlad imir
Ġa u
ĠJ oin
ĠC oul
... ]
Tog gle
Ġun changed
if rame
Ġterror ist
ĠTo o
custom er
G od
ut a
ĠFl ash
Ġdef ender
sche me
Ġtrav elling
Mart in
names e
Ġc iting
k al
) !
ors ion
ĠInd ividual
Ġcollabor ative
å °
ex press
Ġlock down
Ġal umin
ĠV M
Ġvan ishing
et erm
ĠD im
Re ceive
Ġcoll apsed
Ġsl ip
ol in
TO OL
Leg acy
" }
] >
Ġdisestabl ished
$ _{\
DITION S
d v
r ically
~ (
Ġunder graduate
j p
Ġ( ).
av in
ros so
ĠS ullivan
r ab
ĠD ATA
Ch apter
ĠBe hav
å ¼
Ġform ations
Ġh alt
Ġaccompany ing
and ro
Ġdress ed
ĠCont roller
B LOCK
Ġ ÑĤ
superv ised
ĠColumb us
Ġneighborhood s
ĠArgent ine
A mb
ĠM aking
ple ctic
bor o
1 200
6 50
ield s
Ġs ang
Ġcare ers
anc o
Ġext inction
ĠWik ipedia
ĠA part
) )$.
n ell
Ġprop ri
en es
ĠE uler
al bum
ne um
L y
Ġre built
Ġex ec
h w
ĠR F
Ġclass room
ĠO DI
aff e
N ER
Ġab bre
N ested
Ġpro jections
Cred entials
or r
con ver
Ġgener ality
}_{ (
; ,
ĠAl ger
Ð ³
ĠWar riors
g em
ĠHe aven
ĠRh ode
oc on
Ġres ume
ĠInd ies
FO RE
ĠSecond ary
ĠEconom y
Ġ{ {\
ermal ink
tab End
pro j
Ġret reat
bal ance
Ġs ew
E F
charg ed
ĠH arm
ĠG B
Ġab oard
Ġth umb
Ġpen et
cam el
pl aced
ĠGrad uate
Ġsign atures
ĠEr nest
ĠAcadem ic
: **
ĠS qu
ĠQ t
ĠKn ights
y outube
oxy gen
ĠM T
P rem
Ġsl ower
ĠAng els
$ (\
ĠBut ton
Ġerect ed
' =
J oe
P a
Event Args
ck er
Ġl ambda
ĠÂ ±
Ġtw isted
m and
IC S
TE X
Ġexhib itions
ĠVol unte
sc ience
pr us
16 2
log ic
ĠR ever
Ġcru ise
=" //
HO ST
Ġt ear
olog ic
Ġg amma
urs ive
Ġs word
> ("
Ġfail ures
respect ively
æĸ ĩ
Ġpredominant ly
C odes
v oc
av o
In c
Ġcer emon
ĠE ff
/** */
s ens
Ġher oes
lev ant
Ġprox imity
Ref lection
co ins
Vis itor
Ġp unct
Ġelect romagnetic
font s
ĠU ntil
ress es
Ġderiv ation
18 58
Ġgl ad
st ors
Ġm eter
ĠDes ert
Ġgenu ine
Def ine
ĠGu id
ĠR enaissance
Status Code
LE NGTH
ĠSte am
sw ap
Ġch icken
Ġmod elling
ĠL ac
B ot
Ġ( {
ĠOr lando
Ġfraction al
LO B
ĠA ur
Ġsh oes
H ide
og an
Ġevolution ary
act ical
ĠNew castle
cover ed
Jose ph
y ellow
re ply
un stable
Ġperm its
q s
ap a
Ġtr ump
Ġdis ability
ah u
ancell ationToken
Ġatt achment
Rel ations
Ġox id
Î ³
Ġkey boards
ĠT ell
im i
Ġsp ont
Ġrig id
Ġthere after
D X
che wan
ĠB ent
ĠChem istry
Ġup set
Part ial
Con v
F ake
Â «
Ġw ishes
Ġpr ay
reate st
PRE FIX
L ang
ĠE asy
M AC
ĠC areer
em p
Ġmot iv
Ch arts
Ġc f
ĠHar per
ol ith
Ġcal m
Ġnew er
Le ave
min is
display math
te le
Ġtechn ological
x ref
In line
pl ays
Ġro ok
ĠB ened
man aged
Ġpra ise
ĠCh ase
Ġtim ber
thread s
ĠM ull
organ ization
Ġreloc ated
y u
TO DO
inv oke
Ġstud ios
s ound
ĠAp plied
Ġpair ing
R oom
Ġcommand ed
ĠS ymfony
pro ach
Ġpar as
<? >
Ġcom plications
v v
ic ers
render er
Ġcust ody
B ank
ĠB ug
up iter
ĠK aren
Ġcirc ulation
ĠHe at
Ġ ions
Ġim pose
ong ue
Ġap olog
md i
H y
k ill
Ġqu otes
> ');
ar ma
ĠS ic
ib e
S port
a verage
__ .
Ġcontext s
Ġra ises
est one
text area
B log
Ġd ock
war z
place holder
ĠW o
Ġcyl ind
ĠW inn
for ge
ag greg
Ġa pt
Ġlegit imate
d yn
18 55
ĠJ ake
play back
ĠW ald
ac ements
Ġsp iral
apeut ic
Ġst unning
ĠN as
ĠFr ame
B g
iz ational
Block ly
Key words
ĠBro s
Ġnurs ing
ĠP ok
Ġwant ing
ĠCh ern
C tx
Block Index
Ġadvert is
Ġsport ing
subs cription
ip es
ener ate
Ġcon form
ĠSur v
Behav ior
ENT ER
ĠO wen
In clude
ĠAr r
Ġsong writer
ĠP ul
ut ers
ra ise
Ġde ce
ĠÃ ģ
ĠPop ular
associ ated
Ġ erg
ĠS urre
Ġl ig
Ġprec ip
Def ined
Ġrep ublic
ĠPut in
ĠB in
ĠP P
oupl ing
Serial ization
Ġsurviv ors
ĠD in
ĠL ED
hl js
W ay
gr ades
Ġround ed
f ee
19 3
ĠComp anies
LO AT
ĠL apl
ĠG rowth
C le
ac ional
n od
ST M
ĠK as
Ġ- &
ch anging
Ġtour ists
ern er
Ġdrop ping
ĠMax well
Ġbe aring
Ġment ions
Ġin ad
Ġinvest ed
ĠI g
url ing
ĠRem ember
g ary
art icles
Th ough
Un ity
sm ith
GEN ER
ĠA ub
Particip ant
Ġal phabet
Ġhous ed
Ġnucle i
Ġint elligent
ĠBel arus
Ge org
e cca
sec ure
Un able
Mer ge
à ½
Ġb out
Ġmiss ile
Ġfre ight
é ĩ
ĠTH IS
ha o
S IGN
ĠC anyon
Ġque en
ä¸ Ģ
Ġperman ently
ites pace
Ġtransl ations
ron ics
ĠD y
itt ers
Ã¶ n
ott ingham
W ire
mod ern
And rew
Ġfif ty
Ġexperi encing
ĉĉĉĉĉĉ Ċ
ĠFem ale
Ġinc idence
Hen ry
Ġpres erving
West ern
Ġf u
ph ony
ĠSt ack
ĠEngine er
ĠDr iver
Ġsever ely
Ġan ch
). }
ex ist
, </
Ch ief
Ġde cent
list ing
il ian
Ass oci
Ġexplo it
ĠB ullet
ag le
s ix
ĠDis c
ĠAmb assador
L ess
Ġh anging
An chor
ĠAr ctic
Ġpsy chiat
is cher
ĠAt omic
control s
ĠPo etry
Ġcan al
Ġtrans parency
Ġsm ile
Ġlegisl ature
MA IN
Ġintegr als
ĠBrun swick
int age
oy age
ĠPar alymp
å į
Ġ' ../
v ik
26 4
pe er
Ġviol ations
Ġax es
Ġhist ogram
ĠP AR
ĠR ol
ble ms
UT O
Ġbackground s
K T
Ġf ame
Author ization
Ġvol leyball
Ġw is
Ġmind s
ĠF ocus
ov sky
Ġtruck s
R ivers
ĠH ass
Ġcall er
CL U
ch air
Ġmet aph
ew ard
Ġdat abases
Ġstrugg led
ĠÅ ł
ĠJer emy
Ġ[ -
Ġstrong est
h it
cr im
ĠH P
Ġdipl omatic
ĠO g
Ġ" (
b org
g ement
M ic
Ġconduct or
ĠPal m
ĠP ere
ĠB S
el n
ĠRE AD
ĠMult iple
G UI
Ġneur ons
ĠKr ish
am as
Ġcor rupt
m agn
Ġton ight
ĠQu estion
Ġin set
ĠI MP
ĠO THER
Ġsc ar
ĠN u
k ers
sp i
ne apolis
LE T
ĠHit ler
oy le
24 5
Ġrespons ibilities
ĠBAS IS
">( </
g age
Ġcomp ly
P ages
ĠTreat ment
Ġsp y
default s
ĠW W
Ġstr at
Ġperform ers
Ġtra its
ĠDav ies
N ick
Ġco h
linked ExternalProject
D istrict
y arn
ĠThe me
pre vent
ĠPat tern
D evelopment
Ġpat ches
H op
ĠC ou
field set
oj i
habilit ation
}} +
Ġrac ism
un its
Ġgeodes ic
on aut
ĠDub ai
A ge
Ġneg lect
Ġstake holders
23 5
Ġveter ans
å Į
st ead
er als
aus ed
end o
Ġcontribut es
Ġkid n
chi ef
Ġret rieved
Ġdiscipl ine
g ements
}| ^
input s
ĠSw an
ĠCON DITIONS
pay ment
all ed
Ġfilter ing
17 7
ĠC ord
Ġhon ored
ĠEngine ers
Ġsurg ical
ĠC ec
Ġ\ )
ĠD as
ĠN ine
Ġnucle us
D ark
50 1
ĠMc Donald
Ġdiscuss es
r isk
Ġdef ended
ĠRest aur
Ġmark ers
Ġdesign ation
Ġstand ings
l iteral
H aw
Ġunsuccess ful
t ed
pe st
Ġqu bit
V an
i ago
ĠG W
mat ory
Head ing
ĠS ed
Ġconsult ant
ag ation
O O
Gener ate
Ġsp ins
Com pleted
Ġconscious ness
linkedExternalProject Path
E lem
erg i
Ġlaunch ing
Ġen force
ĠT ir
we bs
($ _
ĠH ir
ĠV A
ĠV R
Ġchap el
re ports
Ġ/ .
it ian
se ek
un ar
Ġe uro
Ġfound ers
Found ation
ct uary
ĠTh ink
ĠArch bishop
Ġweak ness
Ġn aming
Ġk ills
Con tain
Rep resentation
Ġn inet
itro gen
Listen ers
ĠH app
Me asure
ke es
= {\
ĠStat ement
ipher al
Ġemp ire
or p
Ġm k
us age
Ġbatter ies
sp ark
Ġl ucky
ĠV e
Ġg ig
Comp anies
' (\
Ġn u
Ġcha os
ĠA chiev
ur bs
Str ings
DI RECT
; =
h art
Draw able
ĠS ig
DO WN
Ġpil ots
Ġr ifle
Ġback ward
ĠCont ainer
ĠGener ate
ĠSO FTWARE
mem Item
ĠPalest ine
Ġsl aves
CO VID
Ġs our
Ġcontin uation
Ġdemonstr ation
Ġp c
Ġd jango
ĠFr anÃ§
ex c
\, .
x l
Ġsk ew
Py thon
Ġfurn iture
h ibernate
16 4
Ġrel atives
ish ers
ri z
' })
Un its
dest ination
Ġwe aker
Contin ue
+ |
ĠM ode
abs olute
Write Line
Record ed
C ref
r ag
Ġtreat y
Ġelder ly
K W
O rient
Ġpick ing
rid or
ĠI BM
pro per
er ver
Ġli ability
fl ows
Act or
------------ -
Ġdel ivers
Ġb er
ant is
Ġgu ards
al ink
Ġhash Code
R N
prot ect
ĠS Ã£o
id ually
}\ }$
Ġrepl ied
Ġe y
k el
{ },
az ar
Ġmem oir
Ġpro f
ell ites
ib a
Ġrenew ed
May be
Ġfro zen
en eg
Ġrout ing
ĠĠĠĠĠĠĠĠĠĠĠĠĠĠĠĠĠĠĠĠĠĠĠĠĠĠĠĠĠĠĠĠ ĠĠĠĠĠĠĠĠĠĠĠĠĠĠĠĠĠĠĠĠĠĠĠ
Ġche ese
md c
re ne
ĠF ixed
ĠĠĠĠĠĠĠĠĠĠĠĠĠĠĠĠĠĠĠĠĠĠĠĠĠĠĠĠĠĠĠĠ ĠĠĠĠĠĠĠĠĠĠ
}} -
D G
* .
C U
ĠG uild
Ġunc over
16 3
Ġavoid ed
Ġt ick
c ies
ĠIn it
Ġout s
Ġdiscre p
ME SSAGE
ĠCall ed
aged y
20 6
ud s
Ġalt itude
Ġc emetery
ĠF lying
Cover age
inem at
Ġpro fits
Ġprest igious
P acific
im iter
uis ine
Ġdevelop s
ATTR IB
com fort
na issance
f u
ĠB ee
Ġby pass
ĠPart icip
17 2
ter min
art en
F IN
Ind icator
co res
Ġconfer ences
ĠJ ak
Face book
he nd
if fin
All owed
FLA GS
Ġwor ried
Ġb ones
Ġmo ist
c py
g ro
Ġdon ation
W all
18 54
y our
ar u
min imum
Ġre bell
Th an
vis ibility
Ġen velope
Ġref in
yl um
Ġther ap
FUN CTION
ĠTre k
!! !!
ĠR AF
Ag ain
al in
ĠM emphis
Ġpun ishment
Direct or
Ġb ab
it ic
Ġs ulf
Ġimplement ations
ĠM ead
Ġshe ep
s leep
mys ql
os ure
Ġcompr ised
is le
ĠP ush
Ġload s
Ġtra uma
ĠGL enum
F ood
: @
ĠAl ert
DOCK ED
r ice
ĠG y
DE LETE
Ġpost ing
pot ential
Ġcomp ass
Ġbott le
Sim ilar
aw i
Ġst ones
let te
ĠT iger
ĠC ash
Ġembedd ings
Browser Detector
Ġg otten
Cred it
v ation
DE P
ĠS part
ĠCol in
andid ates
K EN
ĠH i
Ġc ss
Ġ\ }$
Ġo mitted
ĠCh ad
Ġdemand ed
sh ine
ĠJess ica
IS H
B IND
ĠMichel le
Ġdo zens
ĠEll is
pre tty
Ġcapt ures
J eff
Ġconstruct ing
Mod ern
h in
Ġt u
ĠHer ald
Ġobserv ables
ĠDi ocese
Tr ust
Ġaltern atives
La unch
}( -
Ġresign ation
âĢ ħ
Ġconstit ute
Ġabsor bed
ed o
Ġaccept ing
Ġpack ets
Ġtrav elled
Ġplay wright
ERT Y
Ġout lets
Ġinc umbent
R oad
Ġup dating
Ġs ig
ĠJama ica
ĠL ik
Perm issions
Ġc ig
Ġse aled
ĠArm ed
ĠCris is
ĠP ac
Rout ing
i ary
[ ];
min o
Ġearn ings
um ably
Ġpr icing
lev ard
Ġenhance ment
M icro
Ġo l
Ġp ap
Ġdies el
Ġfor ty
ĠC ool
16 1
ĠChe ster
Ġre write
=" {
T ITLE
h or
z ier
in ja
Ġce ased
ĠTas man
miss ible
ari us
Ġde grad
ĠDi pl
com ed
Ġparam etri
Ġjud icial
an mar
Ġprogress ion
Equal To
ur ious
Pro b
Ġg ifts
ang ered
Build ing
First Name
erg us
ĠF act
Ir ish
ĠH ait
add EventListener
â ĸ
Ġ" ")
Ġcl an
Ġshut down
Ġlist ings
< '
m ons
g c
nt on
EX TERN
Ð° ÑĢ
Ġpione er
preced ented
b ars
stitu ency
ĠBen ef
ĠMig uel
ĠK or
MS G
Ġt ribut
ĠR NA
Ġbe ings
ric ia
ĠGL int
Cap acity
Ġvic inity
r ors
Ġpros per
g allery
}) ^{\
ĠKaz akh
Cre ation
en za
Ġb undles
Ġ} $
Ð½ Ð¸
ĠWIT H
L es
Ġjust ify
ĠVer ify
Ġ{ })
ĠS ale
lock ed
Ġstock s
miss ing
is che
Ġdisappe ared
18 56
Ġver se
m us
ĠA A
cons ist
Ġsimpl ify
ĠHe ights
Cal cul
20 7
Ġbl end
Ġsac red
pr inc
rel ax
ĠB ever
cess ion
co ordinate
Ġb uff
ĠDur ham
IS O
pl iance
/ '
ĠPro b
17 8
n x
ĠUp dated
th reshold
Ġhar sh
Ġtim eline
Ġp unk
ext ends
ev es
ĠM otion
ĠSu ite
scal ar
ĠLind a
s olution
Ġv i
Ġdram atically
ĠR ush
op ath
Ġmetall icity
D utch
ĠScot ia
Ġachiev es
å º
Ġcomput ations
0000 000
F ive
Ġpress ed
Sign al
Ġ(! $
Film ography
D am
Ġsum s
ĠCart esian
SU B
Ġsil ence
Ġdesign ing
Ġexpect s
ĠN J
big oplus
oc ene
k ed
Ġc fg
Ar n
Lear n
c ially
ĠR ect
Ġpron ounced
r ates
ĠR out
ath a
Ġg em
Ġconver ge
Ġbos on
it on
d istrict
ĠF eed
ĠF ul
}$ ).
em ale
ĠC rist
ĠR ac
Input s
Ġar rows
ĠAn im
ĠCl uster
He ap
Ġcop ied
ĠE g
Ġserial ized
Ø ¨
In vest
Ġcap ac
ĠExcell ence
vel t
[ {\
ĠF ashion
itt en
ĠÐ ¼
ch arts
Ġind ent
Ġhand ful
ĠDirect ors
Lou is
T OP
std err
ĠBa iley
Ġre try
C orn
iff e
Ġle verage
Ġch lor
ĠHind i
Ġin ert
Ġnorm s
con j
ĠC V
Ġcl imb
ian e
Ġstrugg les
Ġbeat en
ĠCurt is
> ';
Ġn urse
2 15
Ġh ire
~~ ~
on ne
ĠEs sex
Ġsem if
Ġh iding
l iter
She ll
Ġcohom ology
Ġs ung
if s
20 9
Ġoccas ional
v ectors
R eb
] ];
Ge o
open hagen
m tx
w indows
ER Y
ĠBry an
Ġtrans ient
ide a
Dis patcher
ab lo
ĠB L
Sc ience
Ġtre ating
st ones
ĠQu ick
Ġexp ans
P ACK
Ġpass ive
Ġer upt
ĠE cuador
ST RE
ĠAss essment
pol ar
Ġbad ly
Cal ifornia
ap on
ĠL it
Ġcontain ers
ĠĠĠĠĠĠĠĠ čĊ
18 7
ĠBi ography
Bo ard
by ter
Ġul tra
): =\
ĠN L
ov ic
Ġg ods
zh ou
I FT
d id
ĠIndian apolis
C ut
][ <
ĠS of
ĠS hen
ĠF DA
Ġcon cludes
C ong
ĠBr andon
a uc
Ġsp anning
Ġcivil ians
ĠP ub
ĠD ob
ĠO w
icens ing
ist on
Ġsett lers
ĠWars aw
ĠCab inet
copy right
T reat
ed e
t odo
MS earch
unt u
Ġeth n
c atalog
ĠFl ow
GRO UP
an imate
ĠF ighter
ID s
Ġexpl ores
Ġnob ody
T er
ĠR M
Ġdescend ants
Ġwrit ings
Ġauthent ic
Ġt uning
ĠKer ala
ee per
ĠRe id
Ġa fore
Ġso ap
Thread ing
ĠG ir
Ġacc red
Sm art
S to
Ġcommut ative
re ts
yst er
sat isf
Ġs iblings
harm onic
Call ed
> -
the se
ĠBr ussels
Ġaddition ally
lig a
ag ne
ĠL ives
Ġflood ing
ĠPear l
ĠGe off
Ġhom omorphism
Ġin duce
Ġpur ple
ĠF ri
ĠPublic ations
numer ic
Ġrel ativistic
um ph
AG ES
ĠF olk
P oll
sub str
Over flow
Ġillustr ates
Ang le
ĠV ern
ĠRem ote
ĠEl se
Ġann ih
ĠPaul o
Last Name
Ġwoman DYBAG
Ġphil anth
integ ration
C arl
t lement
Ġnon profit
Football ers
ĠT err
Or g
Ġp ocket
ne ed
Ġem igrants
Ġtransform s
Art ifact
a ude
Ġrad ii
Ġdes ktop
ĠInt roduction
ĠY uk
p ark
ĠEthiop ia
W O
)) }
Ġbreak fast
ĠK nown
\ }}
Dec oder
Ġel dest
Ġrob ots
L ONG
ĠTrans it
E conom
M u
Ġrul er
Prov ince
Ġlink ing
ov ina
Ġsuperv ision
Ġrenew able
ar ag
ct l
Ġreport ers
Ġregular ization
ĠT ypes
Ke ep
Ġmist akes
ĠK om
Ġbreak down
ĠCon v
ĠC ork
ĠLa unch
Ġadministr ator
ĠH us
ĠPrinc eton
com merce
Att achment
s al
alth ough
Ġadvoc acy
ĠAr gs
Ġgrad uation
Gate way
." ;
m achine
u pe
Ġdepos its
Ġemer ge
Ġintegr ating
path y
ĠCoal ition
st en
ĠDev on
Ġmanifold s
el ong
18 49
Ġreal ization
capt ure
Ġtact ics
ĠCar bon
> /
Ġstreng ths
Ġpurs uit
L iber
ĠS aw
ĠF ut
ĠEx hibition
ĠDocument ation
Ġinv ention
ĠRh odes
ĠC e
em i
Ġr ises
Ġproduct ivity
IC AL
ĠÂ «
Ġf reed
gr and
Ġinv ari
al ong
Ġcapt ion
Com pute
ĠTem plate
' }),
Ġla unches
is ure
ĠT aking
Ġbas in
Ġdis rupt
amp ire
Ġdec oder
Ġapproach ing
Ġreason ably
IM AGE
ĠSand ers
ĠP orter
ĠV it
ĠSy ntax
b ibli
Ġtrans fers
Ġcre atures
Ġcounter parts
get Default
che l
ĠAl lied
Ġexceed s
() `
Ġl ar
Ġl ane
18 52
Ad apters
elect ric
Ġch ore
ex ceptions
18 51
ĠB av
Ġpars ing
Ġsub tract
SD L
n ational
ĠAg es
Ġcar riers
D U
Ġsw ing
ACCEPT ED
Ġmon astery
Ġaffili ate
ĠMe et
Ġ\, ,
Ġemb ark
ĠResp ons
re ction
Ġh ull
ĠObserv atory
Ġpar ity
) /\
ĠK ra
18 47
Ġsuccess ive
CON NE
ĠGrand e
ĠD ialog
ĠTw enty
Ã© g
Ġpres ervation
Ġaccording ly
Capt ure
ĠLet ters
ĠĠĠĠĠĠĠĠĠĠĠĠĠĠĠĠĠĠĠĠĠĠĠĠĠĠĠĠĠĠĠĠ ĠĠĠĠĠĠĠĠĠĠĠĠ
Ġconfirm ation
Ġ utils
y aml
ĠT ouch
}}\ \
Ġlong itudinal
27 5
Ġcour age
K AN
le ys
ĠBank s
Ġadv isor
Ġqual ification
Ġdiam ond
B rown
n P
Ġh iring
ĠU C
@ {}
Ġl ith
Ġr ape
() ]
ĠV II
Sh op
Ġdam ages
ibl ical
ç ½
à ¹
Ġf ears
screens aver
E U
Ġinter ventions
Ġconsum ed
Ġaw esome
ĠPop ulation
Ex cel
ĠCont est
Ġmon ster
Ġprior it
cos ity
C ss
Ġless er
Rev ision
ib us
18 2
Ġconcept ual
Ġsingular ity
am matory
loc als
> =
Ġinstit ute
Ġanom aly
ĠH appy
if a
ãĥ ³
O ps
ĠCh anges
Ġche ss
r p
N EL
ll er
col head
Ġsim ulate
ĠM iles
Ġm ere
ĠE S
ĠIraq i
t ick
Ġem peror
omet own
A verage
-> {
Ġoffer ings
Ġsuperv ised
port folio
ĠMe V
ĠD ocker
00 4
Ġpack aging
ed uc
Ġ' </
ĠThrough out
M il
(" <
Ġev olve
}{ $\
Ġsub urb
text style
ĠHamb urg
Ġdefin ite
Ġinvest ing
ĠTre nd
stan bul
Ġ( );
ĠR A
ĠSus sex
tem plates
ĠR uby
Ġnerv ous
Con struction
st ellar
es ar
ĠBrad ley
Ġce iling
Ġto y
t cp
or bit
Ġsimple st
Ġannoun ces
Ġre cept
Ġnational ly
ĠF loat
ĠT anz
Ġrem n
ĠOpt im
Ġse am
D ead
Ġt oured
Ġindic ation
Ġexponential ly
Ġpost er
00 7
ĠIn stance
ian ces
we i
il iation
Ġcatalog ue
æ Ŀ
F all
Re ceiver
ĠBay esian
l ived
ĠE L
ĠPr ague
vis ual
By Name
ĠTun is
nav Bar
Ġfar mer
ĠA ST
Ġdis ks
Ġsub stitut
Ġincre ment
NOT E
Ġwithd rew
Ġurg ed
Vert ical
year s
ĠC rystal
Ġinv ariance
ae us
en ium
Cho ose
ĠG or
C atalog
Ġsh it
ĠValue Error
ĠMor r
Ġoscill ations
Ġterr ain
Ġ$ ("#
ĠAbd ul
m ong
ĠBer ry
ĠPer th
ĠPre vention
ĠStand ards
ĠW inds
with in
E th
Ġavoid ing
Ġillust ration
Ġup graded
D ot
Ġcorpor ations
ĠDev il
N ear
load s
Ġgl ac
Ġpartnership s
P et
em b
NotFound Exception
Ġst ays
ĠHealth care
Ġfl ush
L if
g ue
( ",
ig i
ĠH aven
Ġnetwork ing
Ġir r
Ġf ingers
oy a
NOS CRIPT
I LED
ir atory
get Property
ĠStart ing
b ower
iod iversity
Ġcrypt oc
10 16
Ġtrav ers
e o
ak o
Ġpl ugins
ĠF ail
L com
ĠProgram s
Comput er
Death s
E ducational
comp ose
ĠCas ino
ĠI v
ag ain
em bourg
Ġtr ails
cri ber
Ġmark ing
Ġd in
il io
ose velt
So ftware
ĠH ip
With in
ĠMor occo
comm ut
ENT S
Ġf are
Ex change
ĠB il
ĠIn g
ĠE t
form ula
loc ations
ĠJam ie
ĠG ent
m ime
bib item
7 20
ĠAc cept
conf irmed
K G
ĠB od
N atural
18 6
Ġb ats
n io
F X
w at
ĠCh at
F ee
ĠV iv
Ġkil ometers
ĠML B
ĠĠĠĠĠĠĠĠĠĠĠĠĠĠ Ċ
Ġcurrent s
Ġcalcul ating
Ġdrink s
ĠIss ues
ĠL ar
Ġtre as
Ġib n
W ood
n or
st ub
Ġl ymph
H orizontal
23 4
Ġcomplex es
% ).
Ġn ec
ĠÐ ·
ĠPan ama
ĠQ atar
View s
Ġafore mentioned
ref ox
ro us
ĠH ern
brit ies
ĠH H
and ez
ĠE sc
Ġtri o
V ictor
Ġtr ademark
Ġdis band
38 4
s aved
} `
Ġprev ents
Ġbound ing
Ġcaus al
Ù İ
PO INT
el ist
Trans l
qu ick
ĠMethod ist
L os
ĠF iles
l st
all a
c ats
le igh
ins ki
30 5
Dat aset
ĠS TR
ap est
abil istic
Ġhad n
ĠAr senal
Ġload er
ĠNetwork s
dim ension
U Int
E ST
I J
17 9
Ġ. /
qual ified
b id
Ö ¼
ĠLuc y
umber land
ĠCal endar
ĠCy cl
hom ogeneous
lef trightarrow
Th ose
or ate
Ġf ights
Ġpl ural
}{ $
Ġworld s
song writer
Ġdis hes
mult ip
Ġgent le
AA AA
Ġautom ation
ĠWrit ers
The ir
ass o
j ournal
le en
add on
Ġh oney
ĠShe ffield
Ġmet ropolitan
ĠW end
Ġhol idays
ĠNOT E
W T
plement ary
ĠTool s
[] )
unt ed
Mod ules
Ðµ Ð»
Ġemb od
Ġdir ty
Ġpers pectives
S und
Ġc p
Ġb orough
Princ ipal
K A
Ġe ager
Ġv iable
ĠOp port
H it
Ġc ord
Ġcons erv
18 4
Ð½ Ñĭ
ol an
Link s
ĠTrans fer
ce q
ĠOut standing
Ġback end
idd ing
ĠG ren
Ind ividual
// ----------------------------------------------------------------
I EEE
Ar row
ope z
Ġmer c
Iss ue
Ġw ages
Ġkey word
Sub mit
Dis abled
le ad
Man aged
ĠBarn es
Ġspec ifying
ĠGr iff
ĠCoun sel
Ġb uck
Ġmet als
com position
Com ments
ĠAct ress
ĠP ir
Ġmag ical
Ġnick name
ur an
ĠN P
ats u
oh er
V V
ig ating
Ġsymbol ic
r ases
v iol
Ġst om
Ġpr ide
Ġt et
Ġp aired
Ġsem antics
^- $
Ġsup pression
Ġmat hematic
C AL
k now
Ġc otton
Ï ī
Ġflux es
Ġhomot opy
Ġb ail
ĠM ile
Ġ" ./
sh i
Ġdraw ings
D imension
ĠSol id
R etry
ĠP om
Ġpres erves
Ġmut ation
G reg
Collect or
I reland
P ak
Ġcycl ic
ĠBudd h
A CTION
Ġgirl friend
; ;
C riteria
Annot ations
ĠSaskat chewan
ĠRev ival
Ġrele vance
S hip
ĠOr iginally
ess el
Ġunder went
AT T
Ġconsequ ently
L atest
ĠC ort
th in
Ġlast ing
ĠIndust ries
Ġe ccentric
ĠD uncan
ĠFor ward
à¥ ĩ
y i
Ġb achelor
Ġcomp elling
ic ion
ieg e
found ed
ĠTest ing
ĠRec ent
Max imum
) ~
Ġdown stream
ĠLeg acy
ĠEv olution
Ġle ather
t ec
ĠTrans form
Ġcoinc ide
LE N
ĠEd it
> #
T witter
Im plementation
Ġsuggest ion
ãĤ Ĵ
Ġwitness ed
30 6
Ġbox ing
Ġmidfield er
****** /
ĠD ow
Ġchemical s
Ġcre ativity
serial ize
ĠSo ft
ob ic
Ġspec imens
act ivate
Ġleg ally
17 4
r k
Ġinvest or
ĠG ive
ĠRichard son
ĠGlob e
J ean
g ui
C ities
Ġre bounds
)\ ,\
Ġsl ots
r int
Ġse al
ĠIm prov
ĠSte phan
Ġinterpol ation
Ġin struct
ĠColl abor
T ick
it oba
LIN K
N i
w ed
Json Property
FH IR
ĠStock holm
p ure
ĠK arn
ĠUlt imate
consc ious
s ymmetric
ĠA U
ĠCoun ter
ver ts
ĠUn c
R AS
f illed
Ġd os
Ġauthor ization
Ġcoordin ator
Ġcancel ed
ĠSalv ador
ĠA way
Ġend orse
ĉĉĉĉĉ Ċ
center line
Ġd upl
ĠS afe
con sum
Ġsur pass
Ġdip ole
pt ical
18 53
IT S
ĠJ et
Ġad res
}}\ ,
Vari ables
ĠCh ain
Ġsan ctions
Ġto g
Ġr ays
ĠO z
ph ib
c id
Ġn erve
Ġgu itars
scal ebox
ĠGal actic
ar is
ĠN ortheast
Ġrevolution ary
les h
Ġinterview ed
ĠEvent ually
Ġexcess ive
g b
Ġh ind
Ġreg ards
F oo
Red irect
Ġ )$
Ġassemb led
3 40
const ants
++ ++
ĠElect ronic
ount ers
ys ide
ism atch
ar in
Ġm ari
Ġtransport ed
ĠCy prus
art a
Ġreve aling
ĠM ang
ä ¿
ĠR ather
Ġr ivals
Ġem itted
g io
Ġd oses
Ġphys ic
quant um
Ġcharacter ize
ĠLe ic
ĠRevolution ary
Ġqual itative
ĠTes la
Ġpro found
Ġtest imony
ob ar
File System
ĠKenn eth
Ġde alt
Ġcelebr ity
Ġdest inations
7 68
M LE
c ia
Ġadd itive
Ġop am
M argin
Ġb rowsers
sp ons
ism iss
Tra its
Ġsubmar ine
document ation
Cl ip
C ov
R eq
ĠC yr
Ġv anish
ĠMcC arthy
Ġde code
Ġno isy
Ġmand ate
V IS
t alk
ĠH ydro
ĠT error
SU PP
ĠTreas ury
ĠL ip
ne z
æ ł
Ġprompt ed
Ġun anim
ĠP ool
Ġag gress
P ot
P ermalink
la unch
Ġ# #
ĠDiv is
navBar Cell
ĠS ul
ĠNap ole
S and
c odes
Ġinv ented
Ġcal ibr
Ġj er
Ph ysical
K now
ram id
ĠB row
Ġreven ge
ject ed
Ġh i
eg en
Ġcul min
Î ²
min i
OD Y
aj i
ĠConfeder ate
Ġb ags
n is
Ġn ons
Ġsk illed
Ġ" --
le z
ĠK end
Ġcontribut or
ĠIndones ian
CC CC
Ġcrick eter
Ġindiv idually
IF Y
ĠB B
ĠS ample
Ġannot ations
Ġwithdraw al
á Ī
28 8
itor ies
Ġb ra
ĠIs le
Ġenzym e
Ġr am
18 9
17 1
Co ord
ĠGen eva
Ġb esides
Ġun precedented
ĠCert ificate
g tr
ĠS chema
__ _
Ġcycl ing
ĠB udget
Ġliter acy
I sl
Ġcollabor ated
ĠT ong
ĠOt to
ĠToy ota
ĠK oh
ĠS nap
Ġv endor
get Key
30 3
tt i
ĠLegisl ature
Ġr s
Ġdual ity
que z
Ġelectron ics
Ġor n
ĠM ate
Ġforg otten
ic ans
Ġst iff
Ġdis par
Ġid s
ĠH off
B rien
ĠM ask
to kens
Ġshe ets
vert ed
umin ate
ĠHol iday
be am
CL IENT
ĠTour ism
renew command
Ġal ike
Ġad her
Ġend points
ĠBulg arian
ĠD L
E t
ort ium
ip ment
Ġab ort
Ġc umulative
rest rial
Ġrecru ited
M Y
ĠC ay
arn ess
bo at
Ġam end
B ag
pers istence
Ġcoinc ides
oun ces
Ġunve iled
pend icular
get Data
Ġbel oved
ĠSet ting
ĠIll ust
Play ing
8 000
av ian
Ġtrem end
Ġcomm od
fail ure
Ġsp ite
Ġdepart ed
S ys
Ġland mark
Writ ten
Con clusion
ĠEx ped
C ycl
out line
P ur
orm s
ĠSche dule
le ave
Ġmod uli
'' .
Ġamb ient
Ġm akers
ĠD NS
LE VEL
ig raph
Ġke en
get Text
!! !
Ġindic ators
ĠSaf ari
Ġa er
ĠV il
Ġwel comed
In her
ĠH ours
Ġrel ates
ĠMin neapolis
( @"
ĠMar in
IP S
trans parent
rosso ver
Ġen larg
SE C
proport ion
Ġg onna
18 3
Ġbi om
ORM AL
Ġ\\ &\
Ġs ne
p mb
Ġsec ular
ĠF loyd
Ġnumber ed
Ġdead ly
Ġpol es
is ors
c ery
ĠIn spector
Ġeff icacy
Col umb
Ġfaith ful
Ġfasc inating
compar ison
Ġto b
Ġad oles
am on
.. ">
Pre p
Spec ies
an ions
Log ging
ĠBu y
Ġoff line
n h
ç Ľ
kins on
os opher
Qu ick
ĠBel ow
ĠArm strong
Ġconf ined
Ġless on
Ġm aj
AME TER
Ġr ush
ĠU FC
T ARGET
Ġ$- $
Ġpre y
Off ice
eck er
Ġwitness es
Ġpart itions
ĠMe asure
Ġfavor able
amm ad
Ġpit ched
Debug ger
ĠA ires
Ġ$ -\
Ġpassion ate
B all
N il
Ġb ishops
Ġcl arity
Ġnovel ist
Ġemphas ize
ĠL ayout
ĠB U
ĠCon structor
Ġgen res
Ġdet ectors
Ġisot ropic
H ist
Ġref ined
ĠGib son
oca ust
ĠS uff
Ġfe ver
ĠArch ae
ĠBu ilt
m eter
ĠT rip
Ġarchitect s
ĠAngl ican
ĠAn imation
æ İ
Ġsever ity
ĠJac ques
ĠFinal s
Ġenc ounters
avor ite
ĠPresident ial
m ixed
Ġreg imes
Ġpropag anda
Ġex empl
ĠNot able
H i
Ġ\ #
own ers
print s
ĠFried rich
verb ose
cor relation
con tr
× Ĳ
ĠByz antine
mont on
S ix
Ġrem ix
Ġsl opes
Ġimpact ed
ĠLore n
F ilters
v k
ĠF est
ĠKnow ledge
Ġv el
Ġ// !
set length
Ġm aid
un credited
Fil ename
v id
Ġcapt uring
Ġaccommod ation
Ġarchae ological
Ġ ÏĦ
ju ana
P en
Ġinter im
Ġaut umn
Ġamb assador
ĠC openhagen
Con serv
ĠBr ady
Ġanaly zing
Ġpr ince
ĠAd ult
ĠJoh annes
ĠLeg ion
Ġlack ing
17 3
Ġs orry
ĠEn able
Ġrot ational
e conomic
ote chn
S ink
Ġsubstr ate
C lock
un til
rot ation
Ġturbul ence
Ġroll ed
spec ified
S ym
Or d
}} }}
Ġpow der
Part s
ĠHend erson
Ġbr acket
V oid
Ġm eg
bat im
Ġcast ing
Ġrandom ized
it les
G reek
ĠCub an
Ġathlet ics
ĠSant iago
Ġhonor ary
Ġaest hetic
mes h
ĠGl enn
Ġspons or
ĠId entity
ack now
des cr
ogen esis
R F
ot ically
c ool
ampl er
Ġspect acular
St eve
ĠObserv able
Comm ands
Ġtow ers
ne ys
enti eth
ĠM ED
he e
Ġpreval ence
conv ex
F at
Ð Ł
Ch icago
ÐµÐ ´
M G
ĠI EEE
ĠSc ore
Ġprotect ive
Ġpri ests
f v
ac i
Ġgrad ients
Ġkick ed
18 46
ĠJo el
ĉ ĠĠĠĠ
Y P
D ER
Ġflo ors
by e
correspond ing
ĠN FT
ĠV acc
the m
NAME SPACE
ĠAgric ultural
Ġinfer red
ĠR iv
Ġpost al
le ston
Ġwar fare
s napshot
ĠS leep
ra its
Ġlater al
um en
ĠCatalog ue
Ġacc us
Ġrec ipe
Ġsqu ee
P ier
Ġin hab
Ġcor poration
google ads
Ġs ubl
the ir
Over all
^ +\
p se
ĠGr ass
Ġwis dom
b ours
ĠAn alytics
Ġpenal ties
ak t
D J
big skip
atter ing
ĠEncycl opedia
ĠG ross
Work ing
Initial ized
Ġeth ical
ĠP ART
16 00
ĠPun jab
C OR
G i
Ġb ipart
ĠIns ert
ĠMal ay
Ġoblig ations
ng th
Ġconjug ate
n at
Ġelabor ate
PAR AM
ĠS ob
ĠK urt
ĠCh uck
Ġhand lers
Ġp ent
auth ors
Ġtog gle
Ġrevers ed
Ġp el
ĠM old
ĠP irates
ĠÐ ±
Ep isode
l ar
il ion
ĠN H
ĠCow boys
ĠCa uc
g old
Ġpoll s
Ġop posing
Ġlog ged
Ġdev iations
ĠMic he
Ġunn ecessary
az el
Man ifest
ow ards
I ran
Ġrel uct
Ġs ailing
}} }{\
Ġc ater
Ġdis advant
Ġposition ed
ĠM atter
Ġun ified
ï ¸
seud o
ĠSac ram
Ġhelic opter
ĠPl aza
ĠAdvent ures
Ġo m
Ġrank ings
Ġanten na
ors che
av g
Ġ' {
Ġtouchdown s
an ol
}$ $
h ub
et itive
ĠW allet
Ġacc idents
Ġst upid
ĠD awn
Ġam endment
parent s
ĠViet namese
ĠD ES
sp h
ĠC IA
ular ity
ĠCarol ine
ĠF lem
pl aces
ĠAndrew s
Ġbomb ing
ĠT at
ĠC N
min or
Ġintr ig
Ġqu bits
design ated
ĠA ch
Ġpull ing
Ġreflect ing
B ol
ĠWy oming
Ġdig its
s izing
ĠPsych ology
it icians
Ġprot agonist
Ġl ag
ID ENT
Ġpurch asing
s nap
ĠK err
Inst ances
anc a
Serial izable
Ġimm ers
ĠC av
su ite
"> {
Ġco arse
ĠShe ll
ĠLou ise
? .
Ġstat istically
ak ef
ĠY ES
Fig ures
t elling
Ġ è
R ussia
ĠJ al
ĠX ml
ĠPart ner
Ġadvoc ates
Ġre ass
Ġpe aceful
Ġev olving
Aut om
es se
od ia
Ġterm inology
ĠG ut
Ġsymmet ries
Ġbow l
ĠA id
^{ [
reg ation
}] \
ĠAp plications
3 80
Ġre vel
Ġunem ployment
k ip
al ways
ĠP f
ĠJ ourney
Ġres umed
Ġin sects
ĠT rial
ĠYan kees
ĠC ONT
ĠA CT
Ġfinal e
Ġpres cribed
J ud
Ġmeas urable
Ġhaz ard
Ġpoll ing
+ }
ĠN uclear
ale z
ĠH ab
ĠO ber
ĠForm ation
+ -
K a
Ġd ent
Ġclin ic
K en
Ġdub bed
g as
Ġann ex
Ġmaxim ize
}) }\
ĠNob el
Ġcho ir
K B
Ġt enth
Ġacadem y
}$ ;
INST ANCE
Suppress Warnings
g irl
ĠUn ity
Ġca ution
Check er
\' {
Ġw reck
ĠPl ate
qu ire
Ġant is
w x
an alytics
A H
ĠMal ta
Ġdepict s
Ġas pir
inst on
feed back
ĠPak istani
Ã µ
25 3
ĠInter ior
rec ogn
ĠT ales
Ġac ids
for um
Tag Name
] _{
y en
Ġfl ank
Ġamb itious
at ility
ĠCam era
Ġclim bing
Ġ) {
ĠN ottingham
Ġdiss olved
Ġs ailed
ĠD iet
Ġa erial
}) +
Ġcur ious
K nown
ar ium
Ġg odd
Ġdisc overs
Ġdebut s
ĠAndre a
Ġd ign
ĠWag ner
ant o
ĠM N
Ġsp acing
Mat ches
id is
ĠR S
ĠHe ath
ain es
ĠApp ly
Ġdig est
ĠM aps
ch rom
(" [
Pos itive
ici ary
ĠFI LE
Writ ers
yl on
Sing les
arr ass
ĠBos nia
ĠP I
Con version
Ġint im
Ġspecific ations
Ġsatisf action
Ġprohib ited
3 45
), (
ĠA SC
Ġse q
Ġdec imal
ighbor hood
v t
* }\
ĠS ame
XML Schema
Ġg ly
ĠCor porate
) ~\
ĠR ate
access or
Ġvac ation
Ġt a
}} +\
ole y
Event Handler
Through out
Bu ilt
> @
ĠP or
Ġexpect ing
Comm unes
ou ce
ST EM
V ers
Ġnew est
ĠAs ync
Ġfin ishes
f ollowing
Ġse ized
Ġh orm
ur ai
all i
Ġk g
Ġdefect s
Tex as
B in
ĠE c
li um
Ġdet erior
\\ \
IL TER
Ġdeprec ated
Ġutil izing
ĠRo osevelt
Ġdegener ate
Ã °
in fl
Ġf ool
ĠGener ic
ew ater
ĠCHE CK
Linear Layout
L iter
Ġtri angular
ĠMer cedes
l ord
Ġundert aken
z k
ĠM ale
ĠPre Arg
Ġheart s
ĠChief s
iffer ential
p ick
ĠBas in
ant le
ĠZ end
ĠProtest ant
h ouses
Ġflag ship
oc cup
18 1
track s
m pi
Is Null
ĠCO M
Ġco ordination
Ġgr at
ret val
UL KAN
! ,
q ed
Ġf ade
ĠE RA
Inv oke
ĠG MT
ans wer
Ġcann abis
ĠGarc ia
author ized
ĠK w
Ex ec
unn able
ĠI sh
comp any
border ed
am oto
Ġexerc ises
ing en
] *
Cl aim
ro gate
Ġd ol
ĠA pi
ĠE E
ast ically
ys on
Ġpres cription
ĠPoint s
P F
j j
Ġrecon cil
Ġten ant
Sw ift
P ing
fl ash
6 40
ĠCard inal
m ess
Eu Script
Ġint ensive
Ġgrad ed
Ġbl ast
l uc
erd in
pro duced
re x
y ang
MP TY
Ġt ired
Ġneg lected
ĠJes se
Comm unity
Ad ministr
id ian
ĠSom erset
ĠHard y
Ġins ufficient
hold s
Ġtend ency
ĠRoll ing
ĠS B
ell ation
ĠAl ways
Ġf oster
ĠH ale
ĠVeter ans
spe aking
8 50
ul g
Ġrain fall
ĠSim pson
g ae
Ġvict ories
S ta
Pol itics
t abl
Project s
ĠPatri ots
ĠH od
max imum
ik er
std out
ĠF ergus
Ġsu ited
ĠH ook
Ġcontribut ors
Ġeth ics
cred it
ä» ¶
ĠJ ets
Rel ation
ĠG ates
[ _
moment um
Ġnomine e
Transport ation
G AN
i w
p q
Cl imate
ĠAdd s
c ro
t ier
---- --
ĠMer it
ĠL ed
Ġphys icians
ĠBou levard
A WS
duct or
p ow
string ify
dis c
Ġqual ities
Ġmetall ic
ĠDist ribution
rais ebox
S oviet
yg on
t pl
stit utions
df s
ĠCO MM
Ġinter ven
Ġg i
Ġacceler ated
Ġs au
class path
Cl osed
Ġdirect ive
ĠWest minster
Ġdefer red
it atively
Ġl azy
Ġreg ret
eloc ity
St udio
product ive
Ġresp iratory
sw ift
int rodu
I o
is ive
Ġs q
make box
get Elements
Ġveget ation
T wig
Ġretail ers
ans on
focus ed
ĠSant os
ĠMaur ice
Ġcor ps
Ġend e
Ġrem ind
atern ity
Ġg am
x ym
Ar c
ĠMyst ery
22 8
nt hesis
assert False
ĠÐ¿ ÑĢ
ou bt
Ġsacr ifice
ed ar
Ġterm inated
Ġpred icate
Ġsla very
ĠT itan
). $$
ĠRoberts on
ĠL odge
Ġ} ));
ĠUr ugu
N s
g d
k b
th us
m ol
ĠLyn n
9 11
ĠDom ain
Ġsecre ts
n as
ĠT F
lo ating
IN PUT
ĠX X
Ġcelebr ating
Ġconsult ation
fig s
Rend ering
[...]
