{
  "version": "1.0",
  "truncation": null,
  "padding": null,
  "added_tokens": [
    {
      "id": 0,
      "content": "[UNK]",
      "single_word": false,
      "lstrip": false,
      "rstrip": false,
      "normalized": false,
      "special": true
    }
  ],
  "normalizer": null,
  "pre_tokenizer": {
    "type": "Sequence",
    "pretokenizers": [
      {
        "type": "Digits",
        "individual_digits": false
      },
      {
        "type": "ByteLevel",
        "add_prefix_space": false,
        "trim_offsets": true,
        "use_regex": true
      }
    ]
  },
  "post_processor": null,
  "decoder": null,
  "model": {
    "type": "BPE",
    "dropout": null,
    "unk_token": "[UNK]",
    "continuing_subword_prefix": null,
    "end_of_word_suffix": null,
    "fuse_unk": false,
    "byte_fallback": false,
    "vocab": {
      "[UNK]": 0,
      "!": 1,
      "\"": 2,
      "#": 3,
      "$": 4,
      "%": 5,
      "&": 6,
      "'": 7,
      "(": 8,
      ")": 9,
      "*": 10,
      "+": 11,
      ",": 12,
      "-": 13,
      ".": 14,
      "/": 15,
      "0": 16,
      "1": 17,
      "2": 18,
      "3": 19,
      "4": 20,
      "5": 21,
      "6": 22,
      "7": 23,
      "8": 24,
      "9": 25,
      ":": 26,
      ";": 27,
      "<": 28,
      "=": 29,
      ">": 30,
      "?": 31,
      "@": 32,
      "A": 33,
      "B": 34,
      "C": 35,
      "D": 36,
      "E": 37,
      "F": 38,
      "G": 39,
      "H": 40,
      "I": 41,
      "J": 42,
      "K": 43,
      "L": 44,
      "M": 45,
      "N": 46,
      "O": 47,
      "P": 48,
      "Q": 49,
      "R": 50,
      "S": 51,
      "T": 52,
      "U": 53,
      "V": 54,
      "W": 55,
      "X": 56,
      "Y": 57,
      "Z": 58,
      "[": 59,
      "\\": 60,
      "]": 61,
      "^": 62,
      "_": 63,
      "`": 64,
      "a": 65,
      "b": 66,
      "c": 67,
      "d": 68,
      "e": 69,
      "f": 70,
      "g": 71,
      "h": 72,
      "i": 73,
      "j": 74,
      "k": 75,
      "l": 76,
      "m": 77,
      "n": 78,
      "o": 79,
      "p": 80,
      "q": 81,
      "r": 82,
      "s": 83,
      "t": 84,
      "u": 85,
      "v": 86,
      "w": 87,
      "x": 88,
      "y": 89,
      "z": 90,
      "{": 91,
      "|": 92,
      "}": 93,
      "~": 94,
      "¡": 95,
      "¢": 96,
      "£": 97,
      "¤": 98,
      "¥": 99,
      "¦": 100,
      "§": 101,
      "¨": 102,
      "©": 103,
      "ª": 104,
      "«": 105,
      "¬": 106,
      "®": 107,
      "¯": 108,
      "°": 109,
      "±": 110,
      "²": 111,
      "³": 112,
      "´": 113,
      "µ": 114,
      "¶": 115,
      "·": 116,
      "¸": 117,
      "¹": 118,
      "º": 119,
      "»": 120,
      "¼": 121,
      "½": 122,
      "¾": 123,
      "¿": 124,
      "Â": 125,
      "Ã": 126,
      "Ä": 127,
      "Å": 128,
      "Æ": 129,
      "Ç": 130,
      "È": 131,
      "É": 132,
      "Ê": 133,
      "Ë": 134,
      "Ì": 135,
      "Í": 136,
      "Î": 137,
      "Ï": 138,
      "Ð": 139,
      "Ñ": 140,
      "Ò": 141,
      "Ó": 142,
      "Ô": 143,
      "Õ": 144,
      "Ö": 145,
      "×": 146,
      "Ø": 147,
      "Ù": 148,
      "Ú": 149,
      "Û": 150,
      "Ü": 151,
      "Ý": 152,
      "Þ": 153,
      "ß": 154,
      "à": 155,
      "á": 156,
      "â": 157,
      "ã": 158,
      "ä": 159,
      "å": 160,
      "æ": 161,
      "ç": 162,
      "è": 163,
      "é": 164,
      "ê": 165,
      "ë": 166,
      "ì": 167,
      "í": 168,
      "î": 169,
      "ï": 170,
      "ð": 171,
      "ñ": 172,
      "ò": 173,
      "ó": 174,
      "ô": 175,
      "Ā": 176,
      "ā": 177,
      "Ă": 178,
      "ă": 179,
      "Ą": 180,
      "ą": 181,
      "Ć": 182,
      "ć": 183,
      "Ĉ": 184,
      "ĉ": 185,
      "Ċ": 186,
      "ċ": 187,
      "Č": 188,
      "č": 189,
      "Ď": 190,
      "ď": 191,
      "Đ": 192,
      "đ": 193,
      "Ē": 194,
      "ē": 195,
      "Ĕ": 196,
      "ĕ": 197,
      "Ė": 198,
      "ė": 199,
      "Ę": 200,
      "ę": 201,
      "Ě": 202,
      "ě": 203,
      "Ĝ": 204,
      "ĝ": 205,
      "Ğ": 206,
      "ğ": 207,
      "Ġ": 208,
      "ġ": 209,
      "Ģ": 210,
      "ģ": 211,
      "Ĥ": 212,
      "ĥ": 213,
      "Ħ": 214,
      "ħ": 215,
      "Ĩ": 216,
      "ĩ": 217,
      "Ī": 218,
      "ī": 219,
      "Ĭ": 220,
      "ĭ": 221,
      "Į": 222,
      "į": 223,
      "İ": 224,
      "ı": 225,
      "Ĳ": 226,
      "ĳ": 227,
      "Ĵ": 228,
      "ĵ": 229,
      "Ķ": 230,
      "ķ": 231,
      "ĸ": 232,
      "Ĺ": 233,
      "ĺ": 234,
      "Ļ": 235,
      "ļ": 236,
      "Ľ": 237,
      "ľ": 238,
      "Ŀ": 239,
      "ŀ": 240,
      "Ł": 241,
      "ł": 242,
      "Ń": 243,
      "ĠĠ": 244,
      "Ġt": 245,
      "in": 246,
      "ĠĠĠĠ": 247,
      "er": 248,
      "Ġa": 249,
      "on": 250,
      "he": 251,
      "re": 252,
      "at": 253,
      "Ġthe": 254,
      "en": 255,
      "or": 256,
      "st": 257,
      "an": 258,
      "al": 259,
      "it": 260,
      "Ġc": 261,
      "ar": 262,
      "Ġo": 263,
      "Ġs": 264,
      "ed": 265,
      "es": 266,
      "Ġw": 267,
      "ion": 268,
      "is": 269,
      "Ġf": 270,
      "Ġp": 271,
      "ing": 272,
      "le": 273,
      "nd": 274,
      "ic": 275,
      "Ġin": 276,
      "Ġb": 277,
      "Ġof": 278,
      "ro": 279,
      "ĠĠĠ": 280,
      "ĠĠĠĠĠĠĠĠ": 281,
      "as": 282,
      "Ġd": 283,
      "Ġm": 284,
      "Ġand": 285,
      "ou": 286,
      "et": 287,
      "ct": 288,
      "Ġto": 289,
      "ent": 290,
      "el": 291,
      "am": 292,
      "il": 293,
      "Ġh": 294,
      "om": 295,
      "Ġre": 296,
      "Ġth": 297,
      "ĠS": 298,
      "Ġn": 299,
      "ol": 300,
      "ig": 301,
      "id": 302,
      "ation": 303,
      "ĠT": 304,
      "ac": 305,
      "im": 306,
      "ĠC": 307,
      "Ġ(": 308,
      "Ġe": 309,
      "Ġl": 310,
      "ĠA": 311,
      "ot": 312,
      "ur": 313,
      "ut": 314,
      "Ġ\\": 315,
      "iv": 316,
      "ad": 317,
      "Ġ$": 318,
      "se": 319,
      "ĠĠĠĠĠĠĠ": 320,
      "Ġis": 321,
      "ce": 322,
      "ul": 323,
      "ĠM": 324,
      "Ġg": 325,
      "Ġfor": 326,
      "th": 327,
      "âĢ": 328,
      "ow": 329,
      "ay": 330,
      "ag": 331,
      "ĠI": 332,
      "od": 333,
      "ch": 334,
      "Ġ=": 335,
      "ers": 336,
      "em": 337,
      "un": 338,
      "ly": 339,
      "if": 340,
      "us": 341,
      "Ġon": 342,
      "Ġst": 343,
      "ĠP": 344,
      "ab": 345,
      "ĠB": 346,
      "um": 347,
      "ith": 348,
      "ir": 349,
      "Ġv": 350,
      "</": 351,
      "Ġbe": 352,
      "ĉĉ": 353,
      "ist": 354,
      "qu": 355,
      "=\"": 356,
      "20": 357,
      "ap": 358,
      "ate": 359,
      "ter": 360,
      "pe": 361,
      "Ġcon": 362,
      "Ġas": 363,
      "ĠR": 364,
      "ĠH": 365,
      "oc": 366,
      "ĠD": 367,
      "ver": 368,
      ");": 369,
      "ĠF": 370,
      "Ġthat": 371,
      "av": 372,
      "Ġwith": 373,
      "ht": 374,
      "čĊ": 375,
      "Ġ{": 376,
      "ri": 377,
      "Ġ<": 378,
      "and": 379,
      "ĠL": 380,
      "--": 381,
      "ction": 382,
      "end": 383,
      "Ġal": 384,
      "ex": 385,
      "op": 386,
      "res": 387,
      "ĠN": 388,
      "ass": 389,
      "est": 390,
      "up": 391,
      "Ġan": 392,
      "Ġwh": 393,
      "ĠW": 394,
      "ew": 395,
      "Ġpro": 396,
      "ess": 397,
      "ĠG": 398,
      "ain": 399,
      "19": 400,
      "ub": 401,
      "_{": 402,
      "ĠThe": 403,
      "ĠĠĠĠĠĠĠĠĠĠĠ": 404,
      "os": 405,
      "ĠE": 406,
      "Ġwas": 407,
      "ath": 408,
      "ort": 409,
      "Ġde": 410,
      "Ġby": 411,
      "ere": 412,
      "ity": 413,
      "ame": 414,
      "our": 415,
      "rom": 416,
      "//": 417,
      "tr": 418,
      "pt": 419,
      "Ġ\"": 420,
      "Ġit": 421,
      "Ġcom": 422,
      "Ġat": 423,
      "art": 424,
      "ore": 425,
      "Ġr": 426,
      "Ġ*": 427,
      "Ġex": 428,
      "ue": 429,
      "ill": 430,
      "pl": 431,
      "ine": 432,
      "all": 433,
      "age": 434,
      "Ġcl": 435,
      "ies": 436,
      "eg": 437,
      "ight": 438,
      "ment": 439,
      "ak": 440,
      "ect": 441,
      "Ġor": 442,
      "ĠJ": 443,
      "Ġy": 444,
      "ĠO": 445,
      "Ġ}": 446,
      "Ġare": 447,
      "Ġfrom": 448,
      "ure": 449,
      "nt": 450,
      "\">": 451,
      "ant": 452,
      "og": 453,
      "ive": 454,
      "ial": 455,
      "ud": 456,
      "Ġse": 457,
      "{\\": 458,
      "iz": 459,
      "ack": 460,
      "ĠĊ": 461,
      "Ġhe": 462,
      "cl": 463,
      "ld": 464,
      "Ġ&": 465,
      "ge": 466,
      "ans": 467,
      "ĠĠĠĠĠĠĠĠĠĠĠĠĠĠĠĠ": 468,
      "Ġthis": 469,
      "port": 470,
      "ber": 471,
      "ult": 472,
      "ef": 473,
      "ast": 474,
      "con": 475,
      "per": 476,
      "Ġtr": 477,
      "ext": 478,
      "Ġ$\\": 479,
      "Ġwe": 480,
      "00": 481,
      "âĢĻ": 482,
      "ĠU": 483,
      "ard": 484,
      "..": 485,
      "urn": 486,
      "ĠĠĠĠĠ": 487,
      "ov": 488,
      "ip": 489,
      "Ġch": 490,
      "ary": 491,
      "orm": 492,
      "ref": 493,
      "ated": 494,
      "und": 495,
      "ust": 496,
      "act": 497,
      "'s": 498,
      "The": 499,
      "()": 500,
      "ell": 501,
      "ite": 502,
      "Ġsh": 503,
      "math": 504,
      "able": 505,
      "are": 506,
      "ĠK": 507,
      "sp": 508,
      "ich": 509,
      "ĠâĢ": 510,
      "ff": 511,
      "int": 512,
      "ave": 513,
      "ia": 514,
      "Ġnot": 515,
      "Ġclass": 516,
      "ign": 517,
      "ph": 518,
      "**": 519,
      "ug": 520,
      "Ġle": 521,
      "Ġpl": 522,
      "ost": 523,
      "ord": 524,
      "ke": 525,
      "ical": 526,
      "ition": 527,
      "201": 528,
      "ire": 529,
      "Ġ-": 530,
      "ind": 531,
      "ĠIn": 532,
      "ong": 533,
      "ace": 534,
      "com": 535,
      "ase": 536,
      "Ġif": 537,
      "li": 538,
      "ype": 539,
      "ep": 540,
      "ang": 541,
      "turn": 542,
      "out": 543,
      "In": 544,
      "ode": 545,
      "),": 546,
      "Ġcomp": 547,
      "to": 548,
      "ide": 549,
      "ile": 550,
      "get": 551,
      "ime": 552,
      "ĠV": 553,
      "Ġ'": 554,
      "ork": 555,
      "pro": 556,
      "}\\": 557,
      "----": 558,
      "^{": 559,
      "str": 560,
      "==": 561,
      "ice": 562,
      "ft": 563,
      "ma": 564,
      "}$": 565,
      "ian": 566,
      "ens": 567,
      "ĠSt": 568,
      "ear": 569,
      "cc": 570,
      "Ġus": 571,
      "ence": 572,
      "ations": 573,
      "ok": 574,
      "erv": 575,
      "ubl": 576,
      "ions": 577,
      "ata": 578,
      ").": 579,
      "Ġcan": 580,
      "ild": 581,
      "Ġhave": 582,
      "so": 583,
      "ĠTh": 584,
      "ra": 585,
      "Ġj": 586,
      "Ġcont": 587,
      "ec": 588,
      "Ġres": 589,
      "Ġwhich": 590,
      "enc": 591,
      "Ġhas": 592,
      "ther": 593,
      "ib": 594,
      "Ġun": 595,
      "ĠĠĠĠĠĠĠĠĠĠĠĠĠĠĠ": 596,
      "du": 597,
      "Ġk": 598,
      "form": 599,
      "Ġad": 600,
      "Ġhis": 601,
      "ance": 602,
      "ould": 603,
      "Ġall": 604,
      "ject": 605,
      "ach": 606,
      "ory": 607,
      "fr": 608,
      "ĠCh": 609,
      "ous": 610,
      "ev": 611,
      "Ġar": 612,
      "Ġab": 613,
      "Ġ|": 614,
      "Ġim": 615,
      "Ġap": 616,
      "ert": 617,
      "ob": 618,
      "Ġnew": 619,
      "200": 620,
      "hen": 621,
      "}}": 622,
      "ish": 623,
      "use": 624,
      "row": 625,
      "ress": 626,
      "one": 627,
      "Ġreturn": 628,
      "ail": 629,
      "ents": 630,
      "(\\": 631,
      "ublic": 632,
      "text": 633,
      "alue": 634,
      "own": 635,
      "cal": 636,
      "Ġ[": 637,
      "ener": 638,
      "Ġ</": 639,
      "Ġyou": 640,
      "unction": 641,
      "Ġ//": 642,
      "ock": 643,
      "ta": 644,
      "mer": 645,
      "ll": 646,
      "egin": 647,
      "cri": 648,
      "ource": 649,
      "ount": 650,
      "10": 651,
      "ry": 652,
      "irst": 653,
      "ĉĉĉĉ": 654,
      "../": 655,
      "equ": 656,
      "::": 657,
      "Ġalso": 658,
      "fer": 659,
      "ome": 660,
      "Ġ+": 661,
      "ound": 662,
      "begin": 663,
      "over": 664,
      "oll": 665,
      "ree": 666,
      "ors": 667,
      "18": 668,
      "->": 669,
      "erm": 670,
      "Ġwere": 671,
      "ark": 672,
      "Con": 673,
      "ual": 674,
      "ict": 675,
      "ple": 676,
      "ose": 677,
      "Ġone": 678,
      "ink": 679,
      "Ġbut": 680,
      "old": 681,
      "clud": 682,
      "elf": 683,
      "Ġout": 684,
      "St": 685,
      "_{\\": 686,
      "tern": 687,
      "Ġpart": 688,
      "ull": 689,
      "Ġwill": 690,
      "Ġstr": 691,
      "hed": 692,
      "ss": 693,
      "ne": 694,
      "ates": 695,
      "Ġdis": 696,
      "iel": 697,
      ")$": 698,
      "Ġtheir": 699,
      "oth": 700,
      "aram": 701,
      "rit": 702,
      "te": 703,
      "abel": 704,
      "Ġro": 705,
      "ĠY": 706,
      "fig": 707,
      "ps": 708,
      "\",": 709,
      "Ġup": 710,
      "set": 711,
      "inal": 712,
      "div": 713,
      "Ġsu": 714,
      "ize": 715,
      "wo": 716,
      "Ġpr": 717,
      "ely": 718,
      "we": 719,
      "right": 720,
      "iew": 721,
      "ick": 722,
      "},": 723,
      "Ex": 724,
      "Ġme": 725,
      "Ġ@": 726,
      "Ġdo": 727,
      "Ġ/": 728,
      "Ġsp": 729,
      "Ġev": 730,
      "ield": 731,
      "ption": 732,
      "ml": 733,
      "ook": 734,
      "eth": 735,
      "Ġqu": 736,
      "ake": 737,
      "essage": 738,
      "ics": 739,
      "Ġdef": 740,
      "lect": 741,
      "yst": 742,
      "Ġits": 743,
      "sh": 744,
      "ool": 745,
      "but": 746,
      "Ġset": 747,
      "ings": 748,
      "pect": 749,
      "ck": 750,
      "}{": 751,
      "ng": 752,
      "Ġper": 753,
      "ĠIt": 754,
      "cre": 755,
      "put": 756,
      "ĠUn": 757,
      "rap": 758,
      "oint": 759,
      "Ġfirst": 760,
      "Ġint": 761,
      "igh": 762,
      "âĢĿ": 763,
      "(\"": 764,
      "ĠHe": 765,
      "Ġman": 766,
      "ater": 767,
      "fter": 768,
      "Ġob": 769,
      "Ġmore": 770,
      "pec": 771,
      "();": 772,
      "Ġen": 773,
      "Ġpre": 774,
      "io": 775,
      "></": 776,
      "Ġmod": 777,
      "Ġte": 778,
      "les": 779,
      "aw": 780,
      "Ġ.": 781,
      "span": 782,
      "pr": 783,
      "eq": 784,
      "frac": 785,
      "Ġwho": 786,
      "ix": 787,
      "Ġag": 788,
      "Ġfunction": 789,
      "roup": 790,
      "the": 791,
      "Ġover": 792,
      "ray": 793,
      "',": 794,
      "Ġthey": 795,
      "ational": 796,
      "ery": 797,
      "ĠâĢĵ": 798,
      "Ġplay": 799,
      "Ġname": 800,
      "Ġwork": 801,
      "Ġhad": 802,
      "lo": 803,
      "Ġ||": 804,
      "rm": 805,
      "iss": 806,
      "ystem": 807,
      "12": 808,
      "Ġpublic": 809,
      "><": 810,
      "Ġdes": 811,
      "che": 812,
      "ie": 813,
      "Ġtwo": 814,
      "Ġtime": 815,
      "ys": 816,
      "sum": 817,
      "âĢĵ": 818,
      "label": 819,
      "cite": 820,
      "line": 821,
      "ied": 822,
      "Ġher": 823,
      "Ġother": 824,
      "Ġbeen": 825,
      "Ġget": 826,
      "--------": 827,
      "Ġso": 828,
      "Ġvar": 829,
      "tring": 830,
      "../../": 831,
      "Ġyear": 832,
      "cent": 833,
      "mathb": 834,
      "Ġinter": 835,
      "ond": 836,
      "ax": 837,
      "Ġne": 838,
      "tt": 839,
      "ons": 840,
      "err": 841,
      "ram": 842,
      "umber": 843,
      "vel": 844,
      "Ġ:": 845,
      "anc": 846,
      "mb": 847,
      "Ġcomm": 848,
      "pos": 849,
      "eta": 850,
      "Ġwhen": 851,
      "ular": 852,
      "left": 853,
      "ator": 854,
      "ific": 855,
      "ont": 856,
      "Th": 857,
      "ember": 858,
      "ative": 859,
      "round": 860,
      "arg": 861,
      "199": 862,
      "ve": 863,
      "Ġsup": 864,
      "Ġgo": 865,
      "ased": 866,
      "ribut": 867,
      "Ġthere": 868,
      "Ġund": 869,
      "ER": 870,
      "Pro": 871,
      "raph": 872,
      "ople": 873,
      "ty": 874,
      "lation": 875,
      "Ġsc": 876,
      "name": 877,
      "ĠĠĠĠĠĠĠĠĠĠĠĠĠĠĠĠĠĠĠ": 878,
      "oid": 879,
      "ugh": 880,
      "ms": 881,
      "uct": 882,
      "Ġinto": 883,
      "ade": 884,
      "$.": 885,
      "$,": 886,
      "Ġ*/": 887,
      "ann": 888,
      "app": 889,
      "html": 890,
      "arch": 891,
      "====": 892,
      "ays": 893,
      "16": 894,
      "))": 895,
      "ollow": 896,
      "eb": 897,
      "source": 898,
      ",\\": 899,
      "Ġcol": 900,
      "Ġinclud": 901,
      "Ġabout": 902,
      "Ġpe": 903,
      "Ġsub": 904,
      "Ġbet": 905,
      "trans": 906,
      "atch": 907,
      "ove": 908,
      "Ġadd": 909,
      "****": 910,
      "Ġtrans": 911,
      "oot": 912,
      "15": 913,
      "ences": 914,
      "ange": 915,
      "oug": 916,
      "ĉĉĉ": 917,
      "Ġhref": 918,
      "Ġoff": 919,
      "col": 920,
      "ĠâĢľ": 921,
      "Ġreg": 922,
      "Ġonly": 923,
      "message": 924,
      "ĠĠĠĠĠĠĠĠĠ": 925,
      "ient": 926,
      "Ġline": 927,
      "als": 928,
      "('": 929,
      "ĠThis": 930,
      "amp": 931,
      "oun": 932,
      "of": 933,
      "202": 934,
      "mathcal": 935,
      "ames": 936,
      "ited": 937,
      "land": 938,
      "ating": 939,
      "Ġany": 940,
      "amb": 941,
      "})": 942,
      "Ġthan": 943,
      "Ġdata": 944,
      "let": 945,
      "equation": 946,
      "uild": 947,
      "eng": 948,
      "ox": 949,
      "ious": 950,
      "imes": 951,
      "}.": 952,
      "ise": 953,
      "Ġ#": 954,
      "Ġresult": 955,
      "ward": 956,
      "ON": 957,
      "atic": 958,
      "olog": 959,
      "Ġli": 960,
      "ĠCom": 961,
      "Ġind": 962,
      "Ġwhere": 963,
      "Ġacc": 964,
      "urre": 965,
      "lement": 966,
      "orn": 967,
      "oy": 968,
      "this": 969,
      "ern": 970,
      "Ġtype": 971,
      "IN": 972,
      "cript": 973,
      "td": 974,
      "ues": 975,
      "Ġact": 976,
      "ities": 977,
      "Ġend": 978,
      "Ġsome": 979,
      "Ġfil": 980,
      "ident": 981,
      "ivers": 982,
      "Ġour": 983,
      "yn": 984,
      "ĠAr": 985,
      "Ġdif": 986,
      "Ġkn": 987,
      "11": 988,
      "resent": 989,
      "Ġass": 990,
      "ĠNew": 991,
      "Ġpos": 992,
      "key": 993,
      "ethod": 994,
      "Ġrec": 995,
      "ĠSe": 996,
      "meric": 997,
      "Ġcons": 998,
      "Ġfollow": 999,
      "Ġwould": 1000,
      "ars": 1001,
      "tain": 1002,
      "ton": 1003,
      "Ġvalue": 1004,
      "Ġafter": 1005,
      "dd": 1006,
      "ĠPro": 1007,
      "}(": 1008,
      "Ġunder": 1009,
      "Ġloc": 1010,
      "uring": 1011,
      "Name": 1012,
      "Ġform": 1013,
      "Ġno": 1014,
      "Ġ=>": 1015,
      "cond": 1016,
      "Ġcre": 1017,
      "its": 1018,
      "der": 1019,
      "Ġsuch": 1020,
      "}^": 1021,
      "ash": 1022,
      "Ġfe": 1023,
      "Ġrel": 1024,
      "alse": 1025,
      "da": 1026,
      "lock": 1027,
      "ility": 1028,
      "Ġshe": 1029,
      "ures": 1030,
      "Ġop": 1031,
      "Ref": 1032,
      "ced": 1033,
      "17": 1034,
      "Ġco": 1035,
      "import": 1036,
      "Type": 1037,
      "Ġthen": 1038,
      "Ġinv": 1039,
      "://": 1040,
      "irect": 1041,
      "ince": 1042,
      "Ġ_": 1043,
      "pha": 1044,
      "orld": 1045,
      "Id": 1046,
      "ement": 1047,
      "ho": 1048,
      "~\\": 1049,
      "ween": 1050,
      "Ġprov": 1051,
      "ĠAl": 1052,
      "ower": 1053,
      "}_": 1054,
      "ally": 1055,
      "Ġuse": 1056,
      "min": 1057,
      "Ġi": 1058,
      "ank": 1059,
      "Ġdist": 1060,
      "/>": 1061,
      "ĠWe": 1062,
      "rough": 1063,
      "code": 1064,
      "Ġstud": 1065,
      "Ġph": 1066,
      "ished": 1067,
      "13": 1068,
      "ins": 1069,
      "sub": 1070,
      "Ġspec": 1071,
      "aid": 1072,
      "def": 1073,
      "14": 1074,
      "param": 1075,
      "cess": 1076,
      "hat": 1077,
      "Ġatt": 1078,
      "ible": 1079,
      "ts": 1080,
      "Com": 1081,
      "wn": 1082,
      "Ġrequ": 1083,
      "ature": 1084,
      "##": 1085,
      "ider": 1086,
      "idth": 1087,
      "els": 1088,
      "abl": 1089,
      "Ġserv": 1090,
      "Ġused": 1091,
      "Ġfl": 1092,
      "ists": 1093,
      "Ġconst": 1094,
      "Ġshow": 1095,
      "Ġpeople": 1096,
      "Ġrem": 1097,
      "Ġgener": 1098,
      "String": 1099,
      "ices": 1100,
      "alpha": 1101,
      "Ġpol": 1102,
      "RE": 1103,
      "ined": 1104,
      "Ġprodu": 1105,
      "ily": 1106,
      "fore": 1107,
      "any": 1108,
      "Ġbetween": 1109,
      "Ġel": 1110,
      "ead": 1111,
      "Ch": 1112,
      "ral": 1113,
      "Ġself": 1114,
      "air": 1115,
      "198": 1116,
      "lection": 1117,
      "ĠSh": 1118,
      "translation": 1119,
      "arn": 1120,
      "Ġmay": 1121,
      "\"/>": 1122,
      "uth": 1123,
      "25": 1124,
      "Ġcall": 1125,
      "Ġback": 1126,
      "Ġac": 1127,
      "ST": 1128,
      "Ġhigh": 1129,
      "Ġent": 1130,
      "ier": 1131,
      "ision": 1132,
      "urrent": 1133,
      "Ġthem": 1134,
      "AT": 1135,
      "sc": 1136,
      "Ġmost": 1137,
      "return": 1138,
      "Ġbec": 1139,
      "read": 1140,
      "plic": 1141,
      "ren": 1142,
      "Ġsim": 1143,
      "ages": 1144,
      "ines": 1145,
      "vent": 1146,
      "chool": 1147,
      "elta": 1148,
      "ble": 1149,
      "bar": 1150,
      ")\\": 1151,
      "ersion": 1152,
      "Ġyour": 1153,
      "ambda": 1154,
      "var": 1155,
      "Ġdiffer": 1156,
      "ution": 1157,
      "ault": 1158,
      "Ġinst": 1159,
      "ized": 1160,
      "add": 1161,
      "Ġthrough": 1162,
      "Res": 1163,
      "ask": 1164,
      "ason": 1165,
      "son": 1166,
      "class": 1167,
      "30": 1168,
      "att": 1169,
      "pon": 1170,
      "ternal": 1171,
      "itle": 1172,
      "ough": 1173,
      "ru": 1174,
      "red": 1175,
      "mod": 1176,
      "Ġnumber": 1177,
      "Ġsystem": 1178,
      "Ġthese": 1179,
      "ĠAmeric": 1180,
      "fl": 1181,
      "ause": 1182,
      "ĠZ": 1183,
      "ĠQ": 1184,
      "itt": 1185,
      "gan": 1186,
      "man": 1187,
      "ache": 1188,
      "oh": 1189,
      "yle": 1190,
      "Ġgr": 1191,
      "Ġdet": 1192,
      "oci": 1193,
      "Cl": 1194,
      "ee": 1195,
      "htt": 1196,
      "ric": 1197,
      "List": 1198,
      "hip": 1199,
      "Ġam": 1200,
      "Refer": 1201,
      "loc": 1202,
      "ments": 1203,
      "ĠAn": 1204,
      "Ġval": 1205,
      "ument": 1206,
      "Ġcase": 1207,
      "type": 1208,
      "ception": 1209,
      "ever": 1210,
      "ah": 1211,
      "ote": 1212,
      "amma": 1213,
      "uss": 1214,
      "az": 1215,
      "Ġchar": 1216,
      "ots": 1217,
      "$\\": 1218,
      "Ġ!": 1219,
      "ĠCl": 1220,
      "Ġeff": 1221,
      "Ġeach": 1222,
      "Ġcor": 1223,
      "item": 1224,
      "ĠFor": 1225,
      "fo": 1226,
      "ym": 1227,
      "Ġx": 1228,
      "reat": 1229,
      "Ġsm": 1230,
      "ife": 1231,
      "Ġsign": 1232,
      "AR": 1233,
      "ĠTr": 1234,
      "Ġwell": 1235,
      "ik": 1236,
      "mathbb": 1237,
      "Ġpoint": 1238,
      "):": 1239,
      "_\\": 1240,
      "Ġgiv": 1241,
      "Ġest": 1242,
      "Ar": 1243,
      "Ġ`": 1244,
      "Ġhow": 1245,
      "action": 1246,
      "view": 1247,
      "Ġequ": 1248,
      "Ġbr": 1249,
      "=\\": 1250,
      "iversity": 1251,
      "back": 1252,
      "197": 1253,
      "ivate": 1254,
      "Ġagain": 1255,
      "iver": 1256,
      "ball": 1257,
      "000": 1258,
      "val": 1259,
      "Ġlike": 1260,
      "ole": 1261,
      "ĠCon": 1262,
      "Ġhim": 1263,
      "Ġ>": 1264,
      "Ġed": 1265,
      "Ġ==": 1266,
      "ner": 1267,
      "...": 1268,
      "ID": 1269,
      "ek": 1270,
      "part": 1271,
      "ega": 1272,
      "apt": 1273,
      "igma": 1274,
      "Ġtest": 1275,
      "Ġyears": 1276,
      "press": 1277,
      "ey": 1278,
      "Ġever": 1279,
      "Ġoper": 1280,
      "Ġsaid": 1281,
      "Ġfound": 1282,
      "pi": 1283,
      "Ġser": 1284,
      "ute": 1285,
      "Ġfinal": 1286,
      "br": 1287,
      "References": 1288,
      "Ġ\\\\": 1289,
      "OR": 1290,
      "wh": 1291,
      "It": 1292,
      "par": 1293,
      "org": 1294,
      "Tr": 1295,
      "Ġstart": 1296,
      "ets": 1297,
      "ĠInd": 1298,
      "__": 1299,
      "align": 1300,
      "Ġmin": 1301,
      "log": 1302,
      "mu": 1303,
      "erson": 1304,
      "for": 1305,
      "other": 1306,
      "Ġ--": 1307,
      "ired": 1308,
      "Ġgroup": 1309,
      "}_{": 1310,
      "ength": 1311,
      "ces": 1312,
      "Ġnull": 1313,
      "ouse": 1314,
      "way": 1315,
      "}^{": 1316,
      "ott": 1317,
      "Ġem": 1318,
      "ample": 1319,
      "ser": 1320,
      "ody": 1321,
      "50": 1322,
      "pre": 1323,
      "ĠAs": 1324,
      "Ġneed": 1325,
      "Ġcent": 1326,
      "yp": 1327,
      "aj": 1328,
      "ization": 1329,
      "orth": 1330,
      "eter": 1331,
      "\"><": 1332,
      "ale": 1333,
      "self": 1334,
      "serv": 1335,
      "^{\\": 1336,
      "-\\": 1337,
      "Ġsol": 1338,
      "uc": 1339,
      "Ġsur": 1340,
      "ful": 1341,
      "LE": 1342,
      "Ġstate": 1343,
      "Ġvoid": 1344,
      "ism": 1345,
      "Ġjust": 1346,
      "gy": 1347,
      "be": 1348,
      "Ġsame": 1349,
      "Ġfalse": 1350,
      "section": 1351,
      "ĠEx": 1352,
      "uch": 1353,
      "ĠĠĠĠĠĠĠĠĠĠĠĠĠĠĠĠĠĠĠĠĠĠĠĠĠĠĠĠĠĠĠĠ": 1354,
      "work": 1355,
      "by": 1356,
      "Ġthree": 1357,
      "Ġwhile": 1358,
      "Ġtrue": 1359,
      "outh": 1360,
      "Ġrep": 1361,
      "Ġlong": 1362,
      "ĠĠĠĠĠĠĠĠĠĠĠĠĠ": 1363,
      "Ġusing": 1364,
      "ants": 1365,
      "24": 1366,
      "cept": 1367,
      "phi": 1368,
      "ww": 1369,
      "ury": 1370,
      "formation": 1371,
      "Ġwhat": 1372,
      "Ġext": 1373,
      "Ġerr": 1374,
      "string": 1375,
      "lambda": 1376,
      "Ġsecond": 1377,
      "bf": 1378,
      "We": 1379,
      "Ġboth": 1380,
      "Ġart": 1381,
      "ather": 1382,
      "ĠCol": 1383,
      "co": 1384,
      "ically": 1385,
      "ĠDe": 1386,
      "ule": 1387,
      "opt": 1388,
      "Ġdr": 1389,
      "ĠX": 1390,
      "Ġlist": 1391,
      "SS": 1392,
      "overn": 1393,
      "To": 1394,
      "Ġbeing": 1395,
      "Ġdifferent": 1396,
      "Ġteam": 1397,
      "ional": 1398,
      "EN": 1399,
      "Ġappro": 1400,
      "Ġ)": 1401,
      "Ġlead": 1402,
      "Ġfield": 1403,
      "ared": 1404,
      "umn": 1405,
      "Ġduring": 1406,
      "\")": 1407,
      "ccess": 1408,
      "Ġshould": 1409,
      "196": 1410,
      "Ġmany": 1411,
      "Ġmodel": 1412,
      "ood": 1413,
      "arget": 1414,
      "ream": 1415,
      "Ã©": 1416,
      "AL": 1417,
      "perty": 1418,
      "Ġfam": 1419,
      "Ġsing": 1420,
      "cont": 1421,
      "me": 1422,
      "Ġnow": 1423,
      "Ġ{\\": 1424,
      "32": 1425,
      "Ġcould": 1426,
      "Ġsupport": 1427,
      "ross": 1428,
      "Ġmed": 1429,
      "ĠĠĠĠĠĠ": 1430,
      "Ġdec": 1431,
      "Ġlink": 1432,
      "ten": 1433,
      "Ġmon": 1434,
      "Ġright": 1435,
      "aking": 1436,
      "Ġbefore": 1437,
      "ology": 1438,
      "ron": 1439,
      "uff": 1440,
      "af": 1441,
      "Ġmy": 1442,
      "////": 1443,
      "bers": 1444,
      "rop": 1445,
      ".\"": 1446,
      "ified": 1447,
      "ilon": 1448,
      "gram": 1449,
      "Ġpartic": 1450,
      "ency": 1451,
      "Ġrun": 1452,
      "Ġmade": 1453,
      "Ġdirect": 1454,
      "----------------": 1455,
      "play": 1456,
      "ĠSc": 1457,
      "rol": 1458,
      "Ġnon": 1459,
      "mathbf": 1460,
      "ava": 1461,
      "ĠFr": 1462,
      "Ġid": 1463,
      "ify": 1464,
      "bject": 1465,
      "Ġrele": 1466,
      "ele": 1467,
      "velop": 1468,
      "ger": 1469,
      "not": 1470,
      "Ġelse": 1471,
      "Ġperform": 1472,
      "Ġmethod": 1473,
      "ases": 1474,
      "eps": 1475,
      "arly": 1476,
      "Ġbl": 1477,
      "ting": 1478,
      "rr": 1479,
      "Col": 1480,
      "ĠAmerican": 1481,
      "ural": 1482,
      "Ġdevelop": 1483,
      "data": 1484,
      "arent": 1485,
      "ĠUniversity": 1486,
      "Data": 1487,
      "Ġfollowing": 1488,
      ".,": 1489,
      "til": 1490,
      "day": 1491,
      "ĠĠĠĠĠĠĠĠĠĠĠĠĠĠĠĠĠĠĠĠĠĠĠ": 1492,
      "value": 1493,
      "array": 1494,
      "Ġevery": 1495,
      "22": 1496,
      "ane": 1497,
      "Ġbel": 1498,
      "ense": 1499,
      "width": 1500,
      "chn": 1501,
      "new": 1502,
      "cd": 1503,
      "ister": 1504,
      "ived": 1505,
      "ience": 1506,
      "Ġown": 1507,
      "ality": 1508,
      "ina": 1509,
      "her": 1510,
      "Ġread": 1511,
      "face": 1512,
      "irc": 1513,
      "ains": 1514,
      "\");": 1515,
      "Ġdisc": 1516,
      "roll": 1517,
      "itions": 1518,
      "ĠLe": 1519,
      "med": 1520,
      "Ġz": 1521,
      "Ġorder": 1522,
      "Un": 1523,
      "Ġexper": 1524,
      "ning": 1525,
      "lp": 1526,
      "ĠIs": 1527,
      "sigma": 1528,
      "Value": 1529,
      "led": 1530,
      "100": 1531,
      "alth": 1532,
      "Ġterm": 1533,
      "')": 1534,
      "Ġgu": 1535,
      "********": 1536,
      "date": 1537,
      "'t": 1538,
      "Ġhand": 1539,
      "ives": 1540,
      "Ġmake": 1541,
      "px": 1542,
      "try": 1543,
      "Ġwrit": 1544,
      "Ġparam": 1545,
      "Ġgiven": 1546,
      "raw": 1547,
      "Ġmain": 1548,
      "ential": 1549,
      "usic": 1550,
      "location": 1551,
      "40": 1552,
      "angle": 1553,
      "ĠMar": 1554,
      "ilde": 1555,
      "Ġsee": 1556,
      "nb": 1557,
      "ission": 1558,
      "que": 1559,
      "Ġmat": 1560,
      "beta": 1561,
      "file": 1562,
      "ĠOn": 1563,
      "Ġbuild": 1564,
      "Ġcontin": 1565,
      "Ġfact": 1566,
      "\\\\": 1567,
      "oad": 1568,
      "21": 1569,
      "Ġstring": 1570,
      "Ġdoes": 1571,
      "Ġopt": 1572,
      "Ġbecause": 1573,
      "Ġcurrent": 1574,
      "ĠPl": 1575,
      "Ġmem": 1576,
      "ital": 1577,
      "script": 1578,
      "On": 1579,
      "23": 1580,
      "Ġapp": 1581,
      "istory": 1582,
      "For": 1583,
      "^{-": 1584,
      "order": 1585,
      "Ġlast": 1586,
      "AN": 1587,
      "reg": 1588,
      "ulation": 1589,
      "atus": 1590,
      "Ġ(\\": 1591,
      "ually": 1592,
      "Ġprocess": 1593,
      "ler": 1594,
      "requ": 1595,
      "Ġpop": 1596,
      "Ġmov": 1597,
      "ĠUnited": 1598,
      "Ġche": 1599,
      "struct": 1600,
      "Ġ/**": 1601,
      "ober": 1602,
      "pp": 1603,
      "ograph": 1604,
      "ector": 1605,
      "ows": 1606,
      "Ġresp": 1607,
      "roid": 1608,
      "test": 1609,
      "lob": 1610,
      "Ġav": 1611,
      "iving": 1612,
      "ĠPh": 1613,
      "ohn": 1614,
      "mary": 1615,
      "Ġfin": 1616,
      "ĠAnd": 1617,
      "By": 1618,
      "Set": 1619,
      "Ġeven": 1620,
      "includ": 1621,
      "As": 1622,
      "ĠShe": 1623,
      "Ġprivate": 1624,
      "Ġconsider": 1625,
      "Ġfind": 1626,
      "head": 1627,
      "ively": 1628,
      "aining": 1629,
      "Ġobject": 1630,
      "CT": 1631,
      "}{\\": 1632,
      "Ġimport": 1633,
      "Ġdescri": 1634,
      "IT": 1635,
      "Ġpass": 1636,
      "mathrm": 1637,
      "arm": 1638,
      "iness": 1639,
      "field": 1640,
      "Ġsl": 1641,
      "lex": 1642,
      "An": 1643,
      "ĠEng": 1644,
      "nbsp": 1645,
      "This": 1646,
      "Ġincluding": 1647,
      "Ġdid": 1648,
      "ĠPr": 1649,
      "load": 1650,
      "enn": 1651,
      "etwork": 1652,
      "omen": 1653,
      "========": 1654,
      "ĠRes": 1655,
      "SE": 1656,
      "arge": 1657,
      "ior": 1658,
      "ĠComm": 1659,
      "DE": 1660,
      "($": 1661,
      "ports": 1662,
      "comm": 1663,
      "Ġrecord": 1664,
      "ĠIf": 1665,
      "sy": 1666,
      "ley": 1667,
      "ground": 1668,
      "gr": 1669,
      "*}": 1670,
      "ĠRe": 1671,
      "Ġvery": 1672,
      "gamma": 1673,
      "En": 1674,
      "];": 1675,
      "));": 1676,
      "Ġeffect": 1677,
      "istr": 1678,
      "Ġcommun": 1679,
      "Ġsmall": 1680,
      "ability": 1681,
      "itial": 1682,
      "au": 1683,
      "Ġbo": 1684,
      "Ġbro": 1685,
      "Ġsince": 1686,
      "ctions": 1687,
      "+\\": 1688,
      "Ġappe": 1689,
      "Ġ&&": 1690,
      "Ġopen": 1691,
      "mp": 1692,
      "Ġmet": 1693,
      "Ġtop": 1694,
      "Ġcar": 1695,
      "Ġstatic": 1696,
      "epend": 1697,
      "Ġincre": 1698,
      "27": 1699,
      "inter": 1700,
      "aces": 1701,
      "alk": 1702,
      "ected": 1703,
      "Ġfour": 1704,
      "dis": 1705,
      "Cont": 1706,
      "Exception": 1707,
      "Ġway": 1708,
      "time": 1709,
      "ness": 1710,
      "size": 1711,
      "rem": 1712,
      "ĠHow": 1713,
      "]{": 1714,
      "une": 1715,
      "ush": 1716,
      "ats": 1717,
      "Ġorig": 1718,
      "ering": 1719,
      "26": 1720,
      "ĠSp": 1721,
      "ium": 1722,
      "],": 1723,
      "Ġagainst": 1724,
      "Ġdown": 1725,
      "oss": 1726,
      "Ġfr": 1727,
      "ootball": 1728,
      "figure": 1729,
      "search": 1730,
      "ends": 1731,
      "Ġworld": 1732,
      "28": 1733,
      "2022": 1734,
      "uthor": 1735,
      "sec": 1736,
      "Ġthose": 1737,
      "Ġexpect": 1738,
      "Ġ%": 1739,
      "Ġ///": 1740,
      "iev": 1741,
      "33": 1742,
      "Ġvis": 1743,
      "ĠMay": 1744,
      "delta": 1745,
      "Âł": 1746,
      "uro": 1747,
      "Ġlocal": 1748,
      "ĠĠĠĠĊ": 1749,
      "^\\": 1750,
      "vert": 1751,
      "link": 1752,
      "ĠBr": 1753,
      "Ġmark": 1754,
      "Ġu": 1755,
      "Ġhead": 1756,
      "Ġchild": 1757,
      "vious": 1758,
      "rror": 1759,
      "Ġgame": 1760,
      "CO": 1761,
      "akes": 1762,
      "Ġvari": 1763,
      "Ġknown": 1764,
      "Ġdesign": 1765,
      "âĢľ": 1766,
      "top": 1767,
      "ai": 1768,
      "ird": 1769,
      ".âĢĿ": 1770,
      "ME": 1771,
      "ĠOr": 1772,
      "color": 1773,
      ")}": 1774,
      "Object": 1775,
      "Ġschool": 1776,
      "ides": 1777,
      "Ġstruct": 1778,
      "Ind": 1779,
      "ĠAd": 1780,
      "ocument": 1781,
      "Test": 1782,
      "Ġpresent": 1783,
      "ĠâĢĶ": 1784,
      "reak": 1785,
      "Ġplayers": 1786,
      "ĠJan": 1787,
      "usiness": 1788,
      "ager": 1789,
      "ĠString": 1790,
      "Ġevent": 1791,
      "rc": 1792,
      "urs": 1793,
      "bs": 1794,
      "Ġinformation": 1795,
      "ven": 1796,
      "come": 1797,
      "rho": 1798,
      "side": 1799,
      "Ġrece": 1800,
      "ari": 1801,
      "ety": 1802,
      "Ġseason": 1803,
      "Ġlinks": 1804,
      "Ġhelp": 1805,
      "nav": 1806,
      "194": 1807,
      "leq": 1808,
      "go": 1809,
      "Ġarg": 1810,
      "Ġcond": 1811,
      "Ġdep": 1812,
      "Mod": 1813,
      "less": 1814,
      "Ġanal": 1815,
      "por": 1816,
      "\"></": 1817,
      "Ġkey": 1818,
      "View": 1819,
      "ounty": 1820,
      "Ġtitle": 1821,
      "lected": 1822,
      "Sh": 1823,
      "js": 1824,
      "Ġpres": 1825,
      "Ġcharact": 1826,
      "Ġlook": 1827,
      "$-": 1828,
      "Ġlater": 1829,
      "Ġknow": 1830,
      "Im": 1831,
      "Get": 1832,
      "Ġresults": 1833,
      "tau": 1834,
      "big": 1835,
      "Ġelement": 1836,
      "arrow": 1837,
      "rite": 1838,
      "angu": 1839,
      "ided": 1840,
      "ths": 1841,
      "Ġposs": 1842,
      "Ġmult": 1843,
      "ĠWh": 1844,
      "rix": 1845,
      "Ġ!=": 1846,
      "2020": 1847,
      "Ġleft": 1848,
      "Ġfilm": 1849,
      "idd": 1850,
      "itor": 1851,
      "ĠYou": 1852,
      "uck": 1853,
      "().": 1854,
      "theta": 1855,
      "}(\\": 1856,
      "times": 1857,
      "ene": 1858,
      "list": 1859,
      "Ġref": 1860,
      "External": 1861,
      "public": 1862,
      "());": 1863,
      "index": 1864,
      "ternational": 1865,
      "29": 1866,
      "util": 1867,
      "Ġpat": 1868,
      "Ġtem": 1869,
      "Se": 1870,
      "eqref": 1871,
      "ĠStates": 1872,
      "Ġcoun": 1873,
      "Ġbased": 1874,
      "ival": 1875,
      "bo": 1876,
      "pm": 1877,
      "Ġprogram": 1878,
      "Ġgovern": 1879,
      "url": 1880,
      "195": 1881,
      "Ġaut": 1882,
      "ĠBl": 1883,
      "Ġlevel": 1884,
      "agn": 1885,
      "ape": 1886,
      "table": 1887,
      "ĠJohn": 1888,
      "ateg": 1889,
      "Ġrepresent": 1890,
      "Ġseries": 1891,
      "Al": 1892,
      "}$,": 1893,
      "}$.": 1894,
      "eters": 1895,
      "Ġmuch": 1896,
      "quad": 1897,
      "bum": 1898,
      "Ġtri": 1899,
      "unc": 1900,
      "Ġaround": 1901,
      "Class": 1902,
      "Ġlife": 1903,
      "\".": 1904,
      "Ġ,": 1905,
      "itive": 1906,
      "inc": 1907,
      "bed": 1908,
      "ained": 1909,
      "ĠCar": 1910,
      "Ġcalled": 1911,
      "ĠCan": 1912,
      "urch": 1913,
      "AC": 1914,
      "http": 1915,
      "64": 1916,
      ".</": 1917,
      "off": 1918,
      "ised": 1919,
      "\";": 1920,
      "ĠAt": 1921,
      "fty": 1922,
      "Ġann": 1923,
      "Ġsize": 1924,
      "ĠWorld": 1925,
      "Ġexp": 1926,
      "Ġpost": 1927,
      "function": 1928,
      "['": 1929,
      "Ġhere": 1930,
      "Ġstand": 1931,
      "Ġsever": 1932,
      "umer": 1933,
      "Ġstill": 1934,
      "Ġfile": 1935,
      "Ġcare": 1936,
      "ague": 1937,
      "Ġfamily": 1938,
      "ĠAll": 1939,
      "2016": 1940,
      "2021": 1941,
      "uary": 1942,
      "Ġcr": 1943,
      "opy": 1944,
      "ĠGr": 1945,
      "infty": 1946,
      "tract": 1947,
      "ĠĠĊ": 1948,
      "iter": 1949,
      "Ġreal": 1950,
      "Ġexpl": 1951,
      "Ġmust": 1952,
      "2017": 1953,
      "quot": 1954,
      "iam": 1955,
      "ĠNational": 1956,
      "vir": 1957,
      "ĠNov": 1958,
      "Ph": 1959,
      "ĠCent": 1960,
      "ination": 1961,
      "ope": 1962,
      "ervice": 1963,
      "mbol": 1964,
      "ĠAss": 1965,
      "=\"+": 1966,
      "RO": 1967,
      "summary": 1968,
      "!--": 1969,
      "olv": 1970,
      "ification": 1971,
      "Ġpower": 1972,
      "Ġlim": 1973,
      "Ġpar": 1974,
      "Ġperson": 1975,
      "].": 1976,
      "ogle": 1977,
      "Error": 1978,
      "ĉĉĉĉĉ": 1979,
      "resp": 1980,
      "ĠJul": 1981,
      "Ġorgan": 1982,
      "itional": 1983,
      "rist": 1984,
      "group": 1985,
      "Ġtake": 1986,
      "ĠMan": 1987,
      "2019": 1988,
      "._": 1989,
      "Ġmeas": 1990,
      "uration": 1991,
      "2018": 1992,
      "acy": 1993,
      "Ġnext": 1994,
      "Ġgood": 1995,
      "2015": 1996,
      "Ġplace": 1997,
      "ties": 1998,
      "60": 1999,
      "ately": 2000,
      "Ġ/>": 2001,
      "Ġreport": 2002,
      "He": 2003,
      "nu": 2004,
      "ended": 2005,
      "ustom": 2006,
      "lear": 2007,
      "Ġident": 2008,
      "Ġorg": 2009,
      "Ġbest": 2010,
      "ift": 2011,
      "Ġproject": 2012,
      "ĠAust": 2013,
      "ches": 2014,
      "Ġlarge": 2015,
      "space": 2016,
      "ackage": 2017,
      "tilde": 2018,
      "Ġproble": 2019,
      "duct": 2020,
      "Key": 2021,
      "Ġbook": 2022,
      "Ġrefer": 2023,
      "aving": 2024,
      "omega": 2025,
      "Ġcap": 2026,
      "urther": 2027,
      "wit": 2028,
      "aster": 2029,
      "ords": 2030,
      "ajor": 2031,
      "IC": 2032,
      "');": 2033,
      "ĠThere": 2034,
      "Ġwithin": 2035,
      "ourn": 2036,
      "fin": 2037,
      "Ġke": 2038,
      "Ġtechn": 2039,
      "Re": 2040,
      "Ġ$(": 2041,
      "=\"../../": 2042,
      "partial": 2043,
      "LL": 2044,
      "ources": 2045,
      "2014": 2046,
      "ploy": 2047,
      "ION": 2048,
      "Ġocc": 2049,
      "Ġcour": 2050,
      "Ġwant": 2051,
      "ĠThey": 2052,
      "path": 2053,
      "lobal": 2054,
      "wards": 2055,
      "Ġlaw": 2056,
      "Ġdel": 2057,
      "fess": 2058,
      "Ġestabl": 2059,
      "ording": 2060,
      "ribute": 2061,
      "https": 2062,
      "ĠYork": 2063,
      "ison": 2064,
      "illion": 2065,
      "met": 2066,
      "sk": 2067,
      "bl": 2068,
      "Ġadv": 2069,
      "ailable": 2070,
      "Ġobtain": 2071,
      "where": 2072,
      "Ġsingle": 2073,
      "Ġuntil": 2074,
      "amed": 2075,
      "|\\": 2076,
      "olution": 2077,
      "ories": 2078,
      "Requ": 2079,
      "âĢ¦": 2080,
      "Ġobserv": 2081,
      "Ġbound": 2082,
      "']": 2083,
      "Ġprot": 2084,
      "iod": 2085,
      "Ġday": 2086,
      "ators": 2087,
      "AP": 2088,
      "hes": 2089,
      "ormal": 2090,
      "ĠOct": 2091,
      "ĠAug": 2092,
      "Ġbu": 2093,
      "Ġarea": 2094,
      "Pl": 2095,
      "ĠSchool": 2096,
      "ored": 2097,
      "pace": 2098,
      "ped": 2099,
      "ances": 2100,
      "(),": 2101,
      "Ġspace": 2102,
      "fil": 2103,
      "ries": 2104,
      "ĠTe": 2105,
      "aff": 2106,
      "ians": 2107,
      "cale": 2108,
      "Ġcontent": 2109,
      "ĠUS": 2110,
      "ension": 2111,
      "ocial": 2112,
      "ĠCounty": 2113,
      "plication": 2114,
      "user": 2115,
      "sm": 2116,
      "Ġnear": 2117,
      "Ġlet": 2118,
      "35": 2119,
      "de": 2120,
      "Ġtext": 2121,
      "aint": 2122,
      "Ġtyp": 2123,
      "ugg": 2124,
      "ĠWest": 2125,
      "Ġalong": 2126,
      "Ġdem": 2127,
      "Ġoffic": 2128,
      "ĠBe": 2129,
      "Ġold": 2130,
      "sq": 2131,
      "Ġview": 2132,
      "ivity": 2133,
      "Ġweek": 2134,
      "const": 2135,
      "2010": 2136,
      "File": 2137,
      "ĠPol": 2138,
      "80": 2139,
      "anguage": 2140,
      "Int": 2141,
      "Ġvalues": 2142,
      "Delta": 2143,
      "Ġdistribut": 2144,
      "Ġtarget": 2145,
      "Ġmusic": 2146,
      "2012": 2147,
      "Ġiss": 2148,
      "Ġwithout": 2149,
      "Ġdue": 2150,
      "Ġcount": 2151,
      "Ġfootball": 2152,
      "};": 2153,
      "Ġalbum": 2154,
      "ocus": 2155,
      "ĠJanuary": 2156,
      "Time": 2157,
      "Ġener": 2158,
      "odes": 2159,
      "cription": 2160,
      "ware": 2161,
      "ideo": 2162,
      "mber": 2163,
      "no": 2164,
      "With": 2165,
      "2013": 2166,
      "omet": 2167,
      "ED": 2168,
      ",âĢĿ": 2169,
      "xi": 2170,
      "atures": 2171,
      "ĠGe": 2172,
      "Ġrad": 2173,
      "ĠWar": 2174,
      "icle": 2175,
      "ptember": 2176,
      "ĠMin": 2177,
      "Ġversion": 2178,
      "Ġwin": 2179,
      "Ġsuccess": 2180,
      "Ġsk": 2181,
      "Ġbeh": 2182,
      "Ġdon": 2183,
      "ony": 2184,
      "des": 2185,
      "position": 2186,
      "ĠGu": 2187,
      "ĠTo": 2188,
      "iction": 2189,
      "Ġchang": 2190,
      "Ġpolit": 2191,
      "ampl": 2192,
      "Ġrespect": 2193,
      "Ġerror": 2194,
      "Ġhtt": 2195,
      "uffer": 2196,
      "Ġoriginal": 2197,
      "2011": 2198,
      "ĠMarch": 2199,
      "eqn": 2200,
      "lem": 2201,
      "oman": 2202,
      "Ġseveral": 2203,
      "aut": 2204,
      "ails": 2205,
      "dt": 2206,
      "box": 2207,
      "ĠSouth": 2208,
      "Ġhome": 2209,
      "Not": 2210,
      "Ġlog": 2211,
      "Ġgeneral": 2212,
      "ung": 2213,
      "pril": 2214,
      "ero": 2215,
      "orem": 2216,
      "aim": 2217,
      "LA": 2218,
      "empt": 2219,
      "PE": 2220,
      "Ġallow": 2221,
      "rodu": 2222,
      "Ġstyle": 2223,
      "Ġanother": 2224,
      "Ġdi": 2225,
      "ilt": 2226,
      "Man": 2227,
      "aps": 2228,
      "Ġdeath": 2229,
      "``": 2230,
      "Ġthrow": 2231,
      "Ġ-->": 2232,
      "\":": 2233,
      "oper": 2234,
      "Ġrequest": 2235,
      "aper": 2236,
      "Ġleg": 2237,
      "comp": 2238,
      "Ġla": 2239,
      "Ġexample": 2240,
      "ponse": 2241,
      "ĠCo": 2242,
      "ĠEn": 2243,
      "rt": 2244,
      "Ġret": 2245,
      "ling": 2246,
      "Qu": 2247,
      "leg": 2248,
      "Add": 2249,
      "arr": 2250,
      "Ġbecame": 2251,
      "Def": 2252,
      "Ġtot": 2253,
      "ilar": 2254,
      "my": 2255,
      "md": 2256,
      "lege": 2257,
      "Ġelect": 2258,
      "ways": 2259,
      "Ġsum": 2260,
      "tab": 2261,
      "sl": 2262,
      "Ġpath": 2263,
      "imate": 2264,
      "':": 2265,
      "ĠBrit": 2266,
      "Ġfull": 2267,
      "respond": 2268,
      "ait": 2269,
      "icon": 2270,
      "Ġet": 2271,
      "Text": 2272,
      "ĠHowever": 2273,
      "Ġport": 2274,
      "ĠBut": 2275,
      "Ġsong": 2276,
      "erman": 2277,
      "gin": 2278,
      "ica": 2279,
      "Ġ?": 2280,
      "Ġeng": 2281,
      "Ġmass": 2282,
      "ij": 2283,
      "Ġbir": 2284,
      "Ġinvest": 2285,
      "45": 2286,
      "ertain": 2287,
      "cember": 2288,
      "Ġcompany": 2289,
      "aterial": 2290,
      "ĠFeb": 2291,
      "Ġblock": 2292,
      "ems": 2293,
      "see": 2294,
      "ĠMed": 2295,
      "lim": 2296,
      "urope": 2297,
      "Ġcal": 2298,
      "âĢĶ": 2299,
      "ules": 2300,
      "ending": 2301,
      "ique": 2302,
      "ales": 2303,
      "cdot": 2304,
      "Ġbusiness": 2305,
      "Info": 2306,
      "ĠCal": 2307,
      "99": 2308,
      "Ġinclude": 2309,
      "ands": 2310,
      "perties": 2311,
      "ĠState": 2312,
      "ament": 2313,
      "ards": 2314,
      "stru": 2315,
      "mat": 2316,
      "Ġspe": 2317,
      "Om": 2318,
      "indow": 2319,
      "Ġinterest": 2320,
      "All": 2321,
      "Or": 2322,
      "Event": 2323,
      "with": 2324,
      "ĠčĊ": 2325,
      "ĠSeptember": 2326,
      "ĠJune": 2327,
      "ĠReg": 2328,
      "aus": 2329,
      "ĠAugust": 2330,
      "urg": 2331,
      "uman": 2332,
      "31": 2333,
      "ients": 2334,
      "icy": 2335,
      "Ġmax": 2336,
      "####": 2337,
      "ued": 2338,
      "\\,": 2339,
      "Ġnetwork": 2340,
      "uf": 2341,
      "$$": 2342,
      "epsilon": 2343,
      "Des": 2344,
      "TR": 2345,
      "Ġshort": 2346,
      "Ġgre": 2347,
      "ney": 2348,
      "Ġservice": 2349,
      "viron": 2350,
      "}}\\": 2351,
      "Ġinitial": 2352,
      "ĠOctober": 2353,
      "urity": 2354,
      "AS": 2355,
      "Request": 2356,
      "posed": 2357,
      ")$.": 2358,
      "Ġcharacter": 2359,
      "sim": 2360,
      "Ġdev": 2361,
      "ĠApril": 2362,
      "Path": 2363,
      "Ġabove": 2364,
      "ĠEd": 2365,
      "cast": 2366,
      "ĠPar": 2367,
      "State": 2368,
      "Over": 2369,
      "ae": 2370,
      "Ġuser": 2371,
      "rel": 2372,
      "Ġearly": 2373,
      "ured": 2374,
      "stance": 2375,
      "Field": 2376,
      "down": 2377,
      "/*": 2378,
      "ibr": 2379,
      "Element": 2380,
      "earch": 2381,
      "aced": 2382,
      "ruary": 2383,
      "Ġproduct": 2384,
      "IS": 2385,
      "ĠFl": 2386,
      "ĠâĢĺ": 2387,
      "90": 2388,
      "ĠCity": 2389,
      "Ġenergy": 2390,
      "ĠĠĠĠĠĠĠĠĠĠĠĠĠĠĠĠĠĠĠĠĠĠĠĠĠĠĠ": 2391,
      "Node": 2392,
      "Ġstudy": 2393,
      "ĠJuly": 2394,
      "Ġlarg": 2395,
      "ayout": 2396,
      "Ġstat": 2397,
      "37": 2398,
      "map": 2399,
      "length": 2400,
      "Ġinteg": 2401,
      "max": 2402,
      "conom": 2403,
      "istor": 2404,
      "Ġcheck": 2405,
      "www": 2406,
      "Ġprevious": 2407,
      "UR": 2408,
      "Ġbas": 2409,
      "ights": 2410,
      "ially": 2411,
      "from": 2412,
      "Ġlearn": 2413,
      "sw": 2414,
      "Ġavailable": 2415,
      "olean": 2416,
      "enu": 2417,
      "Ġins": 2418,
      "config": 2419,
      "Ġtry": 2420,
      "Omega": 2421,
      "Ġturn": 2422,
      "36": 2423,
      "Ġfew": 2424,
      "stit": 2425,
      "atter": 2426,
      "ret": 2427,
      "ĠNo": 2428,
      "Ġchange": 2429,
      "Ġaccess": 2430,
      "ixed": 2431,
      "block": 2432,
      "imal": 2433,
      "Ġassoci": 2434,
      "Ġ);": 2435,
      "ux": 2436,
      "ered": 2437,
      "ĠNovember": 2438,
      "Ġassert": 2439,
      "Ġbase": 2440,
      "Ġaff": 2441,
      "ui": 2442,
      "Ġmembers": 2443,
      "2009": 2444,
      "lish": 2445,
      "uk": 2446,
      "}[": 2447,
      "Ġpubl": 2448,
      "())": 2449,
      "Ġgrow": 2450,
      "Form": 2451,
      "}_{\\": 2452,
      "plement": 2453,
      "Ġmar": 2454,
      "Ġthink": 2455,
      "ĠDecember": 2456,
      "ĠSup": 2457,
      "Ġwon": 2458,
      "ysis": 2459,
      "Ġcity": 2460,
      "UT": 2461,
      "34": 2462,
      "cer": 2463,
      "/**": 2464,
      "ump": 2465,
      "AD": 2466,
      "pression": 2467,
      "Ġposition": 2468,
      "plit": 2469,
      "Ġparticular": 2470,
      "ĠNorth": 2471,
      "ention": 2472,
      "Ġcreate": 2473,
      "2008": 2474,
      "ĠAb": 2475,
      "Ġarray": 2476,
      "Ġmajor": 2477,
      "body": 2478,
      "ampions": 2479,
      "Ġprom": 2480,
      "ilit": 2481,
      "ride": 2482,
      "ada": 2483,
      "Ġcrit": 2484,
      "api": 2485,
      "ino": 2486,
      "hold": 2487,
      "Ġgovernment": 2488,
      "raft": 2489,
      "ouble": 2490,
      "ayer": 2491,
      "raphics": 2492,
      "true": 2493,
      "Ġredu": 2494,
      "point": 2495,
      "Ġtotal": 2496,
      "Ġrest": 2497,
      "ession": 2498,
      "ze": 2499,
      "Ġformer": 2500,
      "ĠWill": 2501,
      "39": 2502,
      "Ġsay": 2503,
      "Ġassum": 2504,
      "Ġenc": 2505,
      "bt": 2506,
      "prov": 2507,
      "Ġwomen": 2508,
      "Ġcontrol": 2509,
      "node": 2510,
      "ĠEurope": 2511,
      "Ġexist": 2512,
      "Index": 2513,
      "title": 2514,
      "evel": 2515,
      "Ġcode": 2516,
      "ags": 2517,
      "Config": 2518,
      "alf": 2519,
      "ours": 2520,
      "ĠAustral": 2521,
      "ĠRep": 2522,
      "ume": 2523,
      "ĠFig": 2524,
      "Equ": 2525,
      "Ġdom": 2526,
      "Ġpo": 2527,
      "Param": 2528,
      "Ġresearch": 2529,
      "semb": 2530,
      "';": 2531,
      "eff": 2532,
      "Ġes": 2533,
      "word": 2534,
      "////////": 2535,
      "lt": 2536,
      "ither": 2537,
      "Ġcomplet": 2538,
      "Vert": 2539,
      "lev": 2540,
      "Ġclos": 2541,
      "ones": 2542,
      "Context": 2543,
      "sup": 2544,
      "error": 2545,
      "ĠFebruary": 2546,
      "ĠBy": 2547,
      "psi": 2548,
      "^*": 2549,
      "ĠSystem": 2550,
      "OT": 2551,
      "75": 2552,
      "ana": 2553,
      "stand": 2554,
      "Ġhold": 2555,
      "state": 2556,
      "ought": 2557,
      "uture": 2558,
      "Ġside": 2559,
      "New": 2560,
      "Ġlow": 2561,
      "38": 2562,
      "void": 2563,
      "iment": 2564,
      "ried": 2565,
      "Is": 2566,
      "01": 2567,
      "oin": 2568,
      "ĠPart": 2569,
      "ĠChrist": 2570,
      "ĠDr": 2571,
      "Ġperiod": 2572,
      "ponent": 2573,
      "Ġpoints": 2574,
      "Ġvol": 2575,
      "input": 2576,
      "ĠII": 2577,
      "result": 2578,
      "ready": 2579,
      "lin": 2580,
      "Ġ(!": 2581,
      "capt": 2582,
      "Map": 2583,
      "style": 2584,
      "Ġsat": 2585,
      "Ġimportant": 2586,
      "Ġcompet": 2587,
      "Ġless": 2588,
      "ĠIm": 2589,
      "ailed": 2590,
      "ius": 2591,
      "cm": 2592,
      "Ġreleased": 2593,
      "center": 2594,
      "ham": 2595,
      "ottom": 2596,
      "Ġcorrespond": 2597,
      "pen": 2598,
      "Ġdefault": 2599,
      "Ġcomput": 2600,
      "ables": 2601,
      "version": 2602,
      "Ġfree": 2603,
      "ising": 2604,
      "dom": 2605,
      "08": 2606,
      "ster": 2607,
      "nection": 2608,
      "idual": 2609,
      "Ġpot": 2610,
      "Ġbreak": 2611,
      "ES": 2612,
      "Ġdiv": 2613,
      "aged": 2614,
      "Ġcho": 2615,
      "gor": 2616,
      "Ġ});": 2617,
      "ender": 2618,
      "gress": 2619,
      "thern": 2620,
      "amespace": 2621,
      "psilon": 2622,
      "lete": 2623,
      "eturn": 2624,
      "Ġland": 2625,
      "Ġaction": 2626,
      "istic": 2627,
      "Ġtimes": 2628,
      "vironment": 2629,
      "ĠMc": 2630,
      "inition": 2631,
      "eqnarray": 2632,
      "abled": 2633,
      "Ġinput": 2634,
      "Array": 2635,
      "Ġcur": 2636,
      "Build": 2637,
      "Ġplayed": 2638,
      "agement": 2639,
      "ynam": 2640,
      "Ġsource": 2641,
      "Result": 2642,
      "Ġrange": 2643,
      "Ġmean": 2644,
      "Ġsimilar": 2645,
      "FF": 2646,
      "ently": 2647,
      "ING": 2648,
      "\"\"": 2649,
      "If": 2650,
      "Comm": 2651,
      "Ġcell": 2652,
      "plate": 2653,
      "2007": 2654,
      "igned": 2655,
      ")$,": 2656,
      "nder": 2657,
      "Ġcomb": 2658,
      "Ġ},": 2659,
      "CH": 2660,
      "|-": 2661,
      "Ġconf": 2662,
      "Ġfore": 2663,
      "Ġden": 2664,
      "ks": 2665,
      "2006": 2666,
      "Ġpossible": 2667,
      "thers": 2668,
      "Ġsit": 2669,
      "Ġchildren": 2670,
      "Fil": 2671,
      "struction": 2672,
      "ittle": 2673,
      "now": 2674,
      "Service": 2675,
      "ography": 2676,
      "Ġrequire": 2677,
      "Trans": 2678,
      "gt": 2679,
      "ĠAp": 2680,
      "Ġmatch": 2681,
      "Ã¡": 2682,
      "imum": 2683,
      "IG": 2684,
      "ET": 2685,
      "66": 2686,
      "At": 2687,
      "bit": 2688,
      "From": 2689,
      "annel": 2690,
      "Gamma": 2691,
      "Ġprob": 2692,
      "Ġcover": 2693,
      "cor": 2694,
      "Ġrole": 2695,
      "Ġstrong": 2696,
      "ĠÐ": 2697,
      "Ġdeterm": 2698,
      "Code": 2699,
      "chi": 2700,
      "Ġhealth": 2701,
      "Ġaddress": 2702,
      "Item": 2703,
      "vare": 2704,
      "apan": 2705,
      "=\"../../../../": 2706,
      "Ġwater": 2707,
      "='": 2708,
      "Ġide": 2709,
      "ĠBo": 2710,
      "Ġdefined": 2711,
      "05": 2712,
      "nect": 2713,
      "Ġlate": 2714,
      "Ġhistory": 2715,
      "ensure": 2716,
      "ĠSer": 2717,
      "And": 2718,
      "caption": 2719,
      "MP": 2720,
      "pose": 2721,
      "Ġshows": 2722,
      "sqrt": 2723,
      "ably": 2724,
      "See": 2725,
      "Att": 2726,
      "ĠEl": 2727,
      "gorith": 2728,
      "ync": 2729,
      "Ġgreat": 2730,
      "ĠCO": 2731,
      "yd": 2732,
      "Size": 2733,
      "iple": 2734,
      "Sc": 2735,
      "bold": 2736,
      "ML": 2737,
      "Ġnode": 2738,
      "Of": 2739,
      "Ġphot": 2740,
      "Ġcolor": 2741,
      "ken": 2742,
      "Ġgames": 2743,
      "Ġauthor": 2744,
      "Ġep": 2745,
      "ĠAfter": 2746,
      "Ġlength": 2747,
      "loat": 2748,
      "Ġproblem": 2749,
      "AB": 2750,
      "LO": 2751,
      "clus": 2752,
      "2000": 2753,
      "Message": 2754,
      "Ġcontext": 2755,
      "object": 2756,
      "uments": 2757,
      "Ġmap": 2758,
      "Ġsection": 2759,
      "textbf": 2760,
      "Ġ${\\": 2761,
      "varepsilon": 2762,
      "ĠCor": 2763,
      "though": 2764,
      "non": 2765,
      "Ġintrodu": 2766,
      "irt": 2767,
      "Ġput": 2768,
      "apache": 2769,
      "Ġsignific": 2770,
      "Ġdiscuss": 2771,
      "adem": 2772,
      "ĠMe": 2773,
      "alt": 2774,
      "ply": 2775,
      "Ad": 2776,
      "55": 2777,
      "sequ": 2778,
      "uation": 2779,
      "ĠKing": 2780,
      "ops": 2781,
      "Ġquest": 2782,
      "AG": 2783,
      "Ġmember": 2784,
      "ring": 2785,
      "assert": 2786,
      "ĠAg": 2787,
      "rec": 2788,
      "[]": 2789,
      "Ġtoo": 2790,
      "ĠWith": 2791,
      "Ġbackground": 2792,
      ">&": 2793,
      "andom": 2794,
      "Ġspecial": 2795,
      "Ġtook": 2796,
      "default": 2797,
      "oph": 2798,
      "70": 2799,
      "ude": 2800,
      "eder": 2801,
      "Ġgl": 2802,
      "Ġfac": 2803,
      "yl": 2804,
      "vers": 2805,
      "subsection": 2806,
      "Loc": 2807,
      "info": 2808,
      "ibility": 2809,
      "^{(": 2810,
      "ĠBar": 2811,
      "lang": 2812,
      "Ġtrack": 2813,
      "ection": 2814,
      "Ġconc": 2815,
      "iff": 2816,
      "ecut": 2817,
      "abor": 2818,
      "Pr": 2819,
      "ĠChe": 2820,
      "Ġshown": 2821,
      "ĠRec": 2822,
      "Ġsrc": 2823,
      "rior": 2824,
      "Ġrecent": 2825,
      "++": 2826,
      "Ġbetter": 2827,
      "Ġproperty": 2828,
      "Ġmodels": 2829,
      "ĠRuss": 2830,
      "onse": 2831,
      "Ġsuper": 2832,
      "ĠBritish": 2833,
      "content": 2834,
      "anch": 2835,
      "create": 2836,
      "Ġrepl": 2837,
      "Ġconfig": 2838,
      "Ġinstance": 2839,
      "reet": 2840,
      "}^{\\": 2841,
      "Ġcost": 2842,
      "refer": 2843,
      "ught": 2844,
      "****************": 2845,
      "aken": 2846,
      "verage": 2847,
      "Ġindex": 2848,
      "na": 2849,
      "Ġfive": 2850,
      "inary": 2851,
      "Ġwhe": 2852,
      "ological": 2853,
      "Ġder": 2854,
      "eneral": 2855,
      "Ġthird": 2856,
      "Ġfurther": 2857,
      "Ġ:=": 2858,
      "idge": 2859,
      "icro": 2860,
      "cul": 2861,
      "US": 2862,
      "Ġ/*": 2863,
      "tra": 2864,
      "Ġhouse": 2865,
      "Ġcommunity": 2866,
      "ependent": 2867,
      "Ð°": 2868,
      "ĠSo": 2869,
      "era": 2870,
      "Ġant": 2871,
      "Ġleast": 2872,
      "oud": 2873,
      "Ġresponse": 2874,
      "aul": 2875,
      "Ġoften": 2876,
      "Ġair": 2877,
      "ves": 2878,
      "born": 2879,
      "Ġamong": 2880,
      "ĠList": 2881,
      "Ġeas": 2882,
      "Ġjava": 2883,
      "}=": 2884,
      "ĠLeague": 2885,
      "Ġprovide": 2886,
      "ration": 2887,
      "Fr": 2888,
      "Ġcompon": 2889,
      "ampionship": 2890,
      "''": 2891,
      "ĠQu": 2892,
      "Ġalready": 2893,
      "symbol": 2894,
      "ensity": 2895,
      "idence": 2896,
      "48": 2897,
      "Ġsom": 2898,
      "ille": 2899,
      "Ġ()": 2900,
      "ĠOff": 2901,
      "Ġcareer": 2902,
      "base": 2903,
      "ĠGet": 2904,
      "css": 2905,
      "Ġimage": 2906,
      "Ġprofess": 2907,
      "Ġfeature": 2908,
      "umb": 2909,
      "ĠThese": 2910,
      "Ġcoll": 2911,
      "ips": 2912,
      "Ġregion": 2913,
      "Val": 2914,
      "Ġpract": 2915,
      "UN": 2916,
      "Ġterms": 2917,
      "rench": 2918,
      "Ġdocument": 2919,
      "Ġcamp": 2920,
      "Ġdescribed": 2921,
      "TH": 2922,
      "ike": 2923,
      "acc": 2924,
      "emph": 2925,
      "tings": 2926,
      "Ġcommon": 2927,
      "Ġhapp": 2928,
      "Ġgoing": 2929,
      "ĠHis": 2930,
      "Ġeduc": 2931,
      "Hand": 2932,
      "ald": 2933,
      "Up": 2934,
      "Ġcountry": 2935,
      "Ġfund": 2936,
      "ĠHigh": 2937,
      "2005": 2938,
      "Ġlight": 2939,
      "Ġreceived": 2940,
      "ondon": 2941,
      "Ġannoun": 2942,
      "Ġnever": 2943,
      "IP": 2944,
      "Ġband": 2945,
      "amples": 2946,
      "Ġacross": 2947,
      "Ġindic": 2948,
      "Ġage": 2949,
      "Ġhost": 2950,
      ")=": 2951,
      "ese": 2952,
      "creen": 2953,
      "Ser": 2954,
      "cil": 2955,
      "rest": 2956,
      "ogn": 2957,
      "Ġpred": 2958,
      "ĠPres": 2959,
      "Ġtown": 2960,
      "Ġsix": 2961,
      "Ġperformance": 2962,
      "CE": 2963,
      "ĠCont": 2964,
      "Ġindiv": 2965,
      "ĠSch": 2966,
      "2023": 2967,
      "Ġpotential": 2968,
      "varphi": 2969,
      "But": 2970,
      "ĠWhen": 2971,
      "ĠArt": 2972,
      "ĠAct": 2973,
      "Out": 2974,
      ";&": 2975,
      "Ġheld": 2976,
      "bm": 2977,
      "Ġspect": 2978,
      "Ġsec": 2979,
      "egraphics": 2980,
      "includegraphics": 2981,
      "Ġaccount": 2982,
      "Ġevents": 2983,
      "Ġsy": 2984,
      "rangle": 2985,
      "call": 2986,
      "Ġdat": 2987,
      "Ġcorre": 2988,
      "Ġstory": 2989,
      "ington": 2990,
      "Color": 2991,
      "Ġparent": 2992,
      "Ġmillion": 2993,
      "ĠPer": 2994,
      "Ġappear": 2995,
      "Inter": 2996,
      "Ġsocial": 2997,
      "ĠAm": 2998,
      "Ġbecome": 2999,
      "Rec": 3000,
      "Ġoptions": 3001,
      "ief": 3002,
      "Ġ($": 3003,
      "Ġpay": 3004,
      "ĠAfr": 3005,
      "anel": 3006,
      "Ġnational": 3007,
      "Ġbig": 3008,
      "De": 3009,
      "cle": 3010,
      "Ġnamed": 3011,
      "ĠOne": 3012,
      "Ġalways": 3013,
      "ĠArm": 3014,
      "Dis": 3015,
      "Ġ\\,": 3016,
      "Wh": 3017,
      ",\"": 3018,
      "atform": 3019,
      "Ġdevelopment": 3020,
      "iol": 3021,
      "Ġdays": 3022,
      "book": 3023,
      "eed": 3024,
      "lient": 3025,
      "cy": 3026,
      "tes": 3027,
      "Ġphys": 3028,
      "Ġquant": 3029,
      "Ġarr": 3030,
      "ached": 3031,
      "Ġsite": 3032,
      "model": 3033,
      "Ġcult": 3034,
      "Ġrequired": 3035,
      "Ġfocus": 3036,
      "Ġhard": 3037,
      "Ð¾": 3038,
      "df": 3039,
      "Ġmight": 3040,
      "Ġpopulation": 3041,
      "ĠPark": 3042,
      "44": 3043,
      "Ġred": 3044,
      "ii": 3045,
      "Ġsignificant": 3046,
      "iet": 3047,
      "ĠĠĠĠĠĠĠĠĠĠĠĠ": 3048,
      "Ġyoung": 3049,
      "ĠDes": 3050,
      "asing": 3051,
      "ournal": 3052,
      "Ġtable": 3053,
      "Ġbegan": 3054,
      "ĠCoun": 3055,
      "ĠCollege": 3056,
      "Log": 3057,
      "TE": 3058,
      "cell": 3059,
      "Ġfollows": 3060,
      "Americ": 3061,
      "Ġtoget": 3062,
      "System": 3063,
      "ĠDav": 3064,
      "ĠĠĠĠĠĠĠĠĠĠ": 3065,
      "Ġstates": 3066,
      "Ġfri": 3067,
      "ĠEnglish": 3068,
      "Ġoffer": 3069,
      "User": 3070,
      "Ġtogether": 3071,
      "package": 3072,
      "ĠComp": 3073,
      "Ġhaving": 3074,
      "Ġ__": 3075,
      "eople": 3076,
      "ĠChar": 3077,
      "ĠRev": 3078,
      "roller": 3079,
      ";</": 3080,
      "Ġmot": 3081,
      "proof": 3082,
      "nown": 3083,
      "Ġfar": 3084,
      "mail": 3085,
      "Ġsequ": 3086,
      "Ġtrad": 3087,
      "--------------------------------": 3088,
      "Ġdeg": 3089,
      "google": 3090,
      "Ġclaim": 3091,
      "Ġinvolv": 3092,
      "aves": 3093,
      "Ġreview": 3094,
      "Ġstructure": 3095,
      "Ġbuilt": 3096,
      "using": 3097,
      "Ġindividual": 3098,
      "Ġincluded": 3099,
      "avel": 3100,
      "ĠJapan": 3101,
      "Ġrelations": 3102,
      "wid": 3103,
      "ges": 3104,
      "orph": 3105,
      ".~\\": 3106,
      "Reg": 3107,
      "Ġbuilding": 3108,
      "reate": 3109,
      "TD": 3110,
      "Ġfilms": 3111,
      "check": 3112,
      "07": 3113,
      "ners": 3114,
      "false": 3115,
      "Ġindust": 3116,
      "irl": 3117,
      "Ġprim": 3118,
      "urb": 3119,
      "Big": 3120,
      "Ass": 3121,
      "2004": 3122,
      "isf": 3123,
      "most": 3124,
      "ĉĉĉĉĉĉ": 3125,
      "Ġcou": 3126,
      "rightarrow": 3127,
      "Ġemploy": 3128,
      "Ġarch": 3129,
      "Ġeither": 3130,
      "icient": 3131,
      "Table": 3132,
      "ENT": 3133,
      "IR": 3134,
      "Ġclose": 3135,
      "Ġmeasure": 3136,
      "eh": 3137,
      "ĠMon": 3138,
      "NA": 3139,
      "ĠLa": 3140,
      "Ġattack": 3141,
      "utions": 3142,
      "Ġexpected": 3143,
      "Ġborder": 3144,
      "Ġmarket": 3145,
      "Ġsays": 3146,
      "ford": 3147,
      "DO": 3148,
      "Ġgrad": 3149,
      "include": 3150,
      "Ġ===": 3151,
      "rew": 3152,
      "Ġlabel": 3153,
      "Group": 3154,
      "igation": 3155,
      "Ġfeatures": 3156,
      "ĠDep": 3157,
      "Ġbody": 3158,
      "Ġdiff": 3159,
      "start": 3160,
      "Ġimp": 3161,
      "Ġcustom": 3162,
      "oney": 3163,
      "uggest": 3164,
      "thing": 3165,
      "ĠLondon": 3166,
      "Ġmeans": 3167,
      "etic": 3168,
      "=\"#": 3169,
      "aly": 3170,
      "century": 3171,
      "java": 3172,
      "mark": 3173,
      "light": 3174,
      "Ġlocated": 3175,
      "android": 3176,
      "ĠHouse": 3177,
      "tainer": 3178,
      "Ġcreated": 3179,
      "reen": 3180,
      "Ġmaking": 3181,
      "option": 3182,
      "Ġvideo": 3183,
      "Arg": 3184,
      "ills": 3185,
      "Ġpublished": 3186,
      "Manager": 3187,
      "&\\": 3188,
      "Ġvarious": 3189,
      "Ġq": 3190,
      "Ġtre": 3191,
      "=\"../": 3192,
      "mm": 3193,
      "context": 3194,
      "rown": 3195,
      "04": 3196,
      "Ġclub": 3197,
      "geq": 3198,
      "ĠDis": 3199,
      "Ġplayer": 3200,
      "ifier": 3201,
      "print": 3202,
      "ĠBro": 3203,
      "ĠGo": 3204,
      "ĠEast": 3205,
      "do": 3206,
      "Ġbirths": 3207,
      "Ġplan": 3208,
      "itted": 3209,
      "ged": 3210,
      "Ġable": 3211,
      "Ġmen": 3212,
      "reed": 3213,
      "valid": 3214,
      "Let": 3215,
      "ican": 3216,
      "Ġparameters": 3217,
      "65": 3218,
      "Model": 3219,
      "Ġservices": 3220,
      "Ġestablished": 3221,
      "Ġ};": 3222,
      "imation": 3223,
      "09": 3224,
      "flu": 3225,
      "Ġseen": 3226,
      "Ġcomplex": 3227,
      "atural": 3228,
      "Ġmessage": 3229,
      "Ġlik": 3230,
      "ĠHar": 3231,
      "Ġmom": 3232,
      "overline": 3233,
      "Ġwidth": 3234,
      "Ġcases": 3235,
      "Ġstudents": 3236,
      "osp": 3237,
      "There": 3238,
      "Ġpage": 3239,
      "vec": 3240,
      "net": 3241,
      "ements": 3242,
      "Ġabs": 3243,
      "ithub": 3244,
      "Ġworking": 3245,
      "doc": 3246,
      "Ġalign": 3247,
      "ĠÂ": 3248,
      "},\\": 3249,
      "Ġlimit": 3250,
      "Ġbi": 3251,
      "ĠAng": 3252,
      "illed": 3253,
      "Ġbelow": 3254,
      "Ġsystems": 3255,
      "<!--": 3256,
      "Ġdest": 3257,
      "Ġcontribut": 3258,
      "Ġreally": 3259,
      "ference": 3260,
      "Ġsent": 3261,
      "rad": 3262,
      "ĠSm": 3263,
      "define": 3264,
      "istrict": 3265,
      "ategory": 3266,
      "Ġvia": 3267,
      "Ðµ": 3268,
      "wide": 3269,
      "Ġhuman": 3270,
      "Ġrate": 3271,
      "IL": 3272,
      "ilities": 3273,
      "irm": 3274,
      "Ġsuff": 3275,
      "Ġdistribution": 3276,
      "Ġcome": 3277,
      "bor": 3278,
      "based": 3279,
      ")</": 3280,
      "Fl": 3281,
      "Ġcirc": 3282,
      "cap": 3283,
      "next": 3284,
      "SP": 3285,
      "iation": 3286,
      "Ġvill": 3287,
      "ULL": 3288,
      "MA": 3289,
      "parent": 3290,
      ".}": 3291,
      "iddle": 3292,
      "Ġlower": 3293,
      "Ġnum": 3294,
      "ĠSw": 3295,
      "argin": 3296,
      "hand": 3297,
      "utes": 3298,
      "build": 3299,
      "gen": 3300,
      "Ġwar": 3301,
      "ids": 3302,
      "ĠHer": 3303,
      "Ġsepar": 3304,
      "active": 3305,
      "Ġstation": 3306,
      "Bar": 3307,
      "Ã³": 3308,
      "ilitary": 3309,
      "ĠMod": 3310,
      "Ġanalysis": 3311,
      "~~": 3312,
      "ework": 3313,
      "Ġear": 3314,
      "unic": 3315,
      "American": 3316,
      "Ġmeet": 3317,
      "ĠSan": 3318,
      "Ġgen": 3319,
      "pty": 3320,
      "ocr": 3321,
      "[\\": 3322,
      "frak": 3323,
      "Ġfuture": 3324,
      "static": 3325,
      "Call": 3326,
      "ama": 3327,
      "hib": 3328,
      "No": 3329,
      "method": 3330,
      "attle": 3331,
      "unk": 3332,
      "}).": 3333,
      "0000": 3334,
      "02": 3335,
      "ĠThen": 3336,
      "ptions": 3337,
      "Ġstd": 3338,
      "ecess": 3339,
      "Ġaddition": 3340,
      "ĠInternational": 3341,
      "Ġgive": 3342,
      "boldsymbol": 3343,
      "ething": 3344,
      "ĠSet": 3345,
      "Ġcross": 3346,
      "ĠWilliam": 3347,
      "Ġstarted": 3348,
      "CC": 3349,
      "Ġoutput": 3350,
      "ĠInt": 3351,
      "Ġcame": 3352,
      "Ġconsidered": 3353,
      "95": 3354,
      "Ġmiss": 3355,
      "gorithm": 3356,
      "draw": 3357,
      "Ġandroid": 3358,
      "Ġwritten": 3359,
      "Ġmedia": 3360,
      "si": 3361,
      "ĠAir": 3362,
      "isk": 3363,
      "github": 3364,
      "web": 3365,
      "Ġvert": 3366,
      "Sub": 3367,
      "Ġworks": 3368,
      "Ġra": 3369,
      "aging": 3370,
      "Ġtw": 3371,
      "imens": 3372,
      "iven": 3373,
      "Ġelection": 3374,
      "acing": 3375,
      "year": 3376,
      "Ġprovided": 3377,
      "Ġpast": 3378,
      "Read": 3379,
      "ĠĠĠĠĠĠĠĠĠĠĠĠĠĠĠĠĠĠĠĠĠĠĠĠĠĠĠĠĠĠĠ": 3380,
      "Ġkeep": 3381,
      "Ġhigher": 3382,
      "06": 3383,
      "](": 3384,
      "ĠMich": 3385,
      "xy": 3386,
      "Ġpress": 3387,
      "ĠTrans": 3388,
      "Ap": 3389,
      "Ġaverage": 3390,
      "Ġspecies": 3391,
      "dev": 3392,
      "oon": 3393,
      "oken": 3394,
      "rs": 3395,
      "Ġbool": 3396,
      "aring": 3397,
      "Ġblack": 3398,
      "medi": 3399,
      "Ġapproach": 3400,
      "Ġcompos": 3401,
      "Ġgroups": 3402,
      "Ġaway": 3403,
      "Ġben": 3404,
      "finished": 3405,
      "Ġneg": 3406,
      "ÃŃ": 3407,
      "icense": 3408,
      "ĠVal": 3409,
      "foot": 3410,
      "oke": 3411,
      "Ġapprox": 3412,
      "Ġparameter": 3413,
      "Ġmer": 3414,
      "ping": 3415,
      "ĠSec": 3416,
      "prot": 3417,
      "================": 3418,
      "db": 3419,
      "Ġhalf": 3420,
      "Ġhowever": 3421,
      "Ġtraining": 3422,
      "Ġpaper": 3423,
      "iding": 3424,
      "ociety": 3425,
      "Client": 3426,
      "Property": 3427,
      "Ġsuggest": 3428,
      "Ġbegin": 3429,
      "ĉĊ": 3430,
      "chiev": 3431,
      "Ġgot": 3432,
      "core": 3433,
      "Ġeconom": 3434,
      "image": 3435,
      "iforn": 3436,
      "ĠStud": 3437,
      "Ġround": 3438,
      "Ġassociated": 3439,
      "ara": 3440,
      "ises": 3441,
      "How": 3442,
      "Method": 3443,
      "ĠNot": 3444,
      "ename": 3445,
      "ĠPhil": 3446,
      "Ġproduction": 3447,
      "ĠAc": 3448,
      "ministr": 3449,
      "Ġvalid": 3450,
      "Override": 3451,
      "actory": 3452,
      "Ġimplement": 3453,
      "init": 3454,
      "mit": 3455,
      "OS": 3456,
      "artment": 3457,
      "ires": 3458,
      "Ġsym": 3459,
      "Ġcommand": 3460,
      "Ġmaterial": 3461,
      "Ġtask": 3462,
      "mult": 3463,
      "Ġconditions": 3464,
      "Ġfunctions": 3465,
      "2001": 3466,
      "Ed": 3467,
      "Ġonce": 3468,
      "ĠAdd": 3469,
      "ched": 3470,
      "aries": 3471,
      "Ġinf": 3472,
      "ns": 3473,
      "actions": 3474,
      "Ġnil": 3475,
      "mathfrak": 3476,
      "cho": 3477,
      "rict": 3478,
      "FA": 3479,
      "Ġdone": 3480,
      "Ġstandard": 3481,
      ")^": 3482,
      "Ġlittle": 3483,
      "2003": 3484,
      "Ġbeliev": 3485,
      "Ġcy": 3486,
      "ĠMark": 3487,
      "47": 3488,
      "plied": 3489,
      "Ġmagn": 3490,
      "ĠThat": 3491,
      "Count": 3492,
      "event": 3493,
      "Ġwebs": 3494,
      "ĠFrench": 3495,
      "ifornia": 3496,
      "Ġwhether": 3497,
      "Builder": 3498,
      "Ġhom": 3499,
      "Ġlanguage": 3500,
      "Query": 3501,
      "null": 3502,
      "Ġask": 3503,
      "ĠLet": 3504,
      "uel": 3505,
      ")(": 3506,
      "ha": 3507,
      "abla": 3508,
      "dl": 3509,
      "Ġactiv": 3510,
      "ĠClass": 3511,
      "ishing": 3512,
      "duc": 3513,
      "}}$": 3514,
      "efore": 3515,
      ">(": 3516,
      "ceed": 3517,
      "BC": 3518,
      "ites": 3519,
      "unch": 3520,
      "MS": 3521,
      "Ġsatisf": 3522,
      "uster": 3523,
      "php": 3524,
      "Ġdisplay": 3525,
      "Ġsolution": 3526,
      "Ġglobal": 3527,
      "avy": 3528,
      "ldots": 3529,
      "mon": 3530,
      "btn": 3531,
      "Ġinstall": 3532,
      "Lambda": 3533,
      "ĠDo": 3534,
      "Ġjob": 3535,
      "EE": 3536,
      "current": 3537,
      "witch": 3538,
      "ociation": 3539,
      "Ġengine": 3540,
      "Ġborn": 3541,
      "Date": 3542,
      "lying": 3543,
      "Ġthough": 3544,
      "istry": 3545,
      "ula": 3546,
      "Ð¸": 3547,
      "iting": 3548,
      "anies": 3549,
      "nabla": 3550,
      "Ġloss": 3551,
      "unfinished": 3552,
      "OP": 3553,
      "49": 3554,
      "Ġcle": 3555,
      "Ġothers": 3556,
      "ico": 3557,
      "ĠMore": 3558,
      "Ġelements": 3559,
      "Ġcaus": 3560,
      "jav": 3561,
      "Ġlo": 3562,
      "height": 3563,
      "circ": 3564,
      "67": 3565,
      "Ġcentury": 3566,
      "Sp": 3567,
      "Ġtreat": 3568,
      "ĠMy": 3569,
      "chan": 3570,
      "Ġge": 3571,
      "Ġgraph": 3572,
      "Ġmethods": 3573,
      "End": 3574,
      "sf": 3575,
      "hline": 3576,
      "page": 3577,
      "Response": 3578,
      "Ġconsist": 3579,
      "Ġpair": 3580,
      "aker": 3581,
      "irection": 3582,
      "ĠIndia": 3583,
      "03": 3584,
      "wise": 3585,
      "Ġadded": 3586,
      ".\\": 3587,
      "iber": 3588,
      "Ġstep": 3589,
      "Ġnormal": 3590,
      "ĠDef": 3591,
      "Ġclear": 3592,
      "appa": 3593,
      "II": 3594,
      "Ġsche": 3595,
      "mar": 3596,
      "ades": 3597,
      "Ġcertain": 3598,
      "ĠRed": 3599,
      "options": 3600,
      "Ġtaken": 3601,
      "izing": 3602,
      "change": 3603,
      "2002": 3604,
      "dir": 3605,
      "ftware": 3606,
      "HE": 3607,
      "ĠDistrict": 3608,
      "elling": 3609,
      "Ġreported": 3610,
      "tem": 3611,
      "ado": 3612,
      "Ġwent": 3613,
      "ĠNor": 3614,
      "ocol": 3615,
      "Image": 3616,
      "App": 3617,
      "ĠAmerica": 3618,
      "langle": 3619,
      "Ġserved": 3620,
      "Ġ``": 3621,
      "namespace": 3622,
      "orage": 3623,
      "yles": 3624,
      "Ġsw": 3625,
      "unity": 3626,
      "Ġconstant": 3627,
      "ship": 3628,
      "Ġofficial": 3629,
      "Ġparticip": 3630,
      "88": 3631,
      "button": 3632,
      "itect": 3633,
      "Ġnov": 3634,
      "Ġdistrict": 3635,
      "Ġspecific": 3636,
      "ĠPresident": 3637,
      "ĠIr": 3638,
      "Ġhttp": 3639,
      "ĠIndian": 3640,
      "Ġsem": 3641,
      "ibrary": 3642,
      "ging": 3643,
      "rup": 3644,
      "Ġconstruct": 3645,
      "ĠSim": 3646,
      "orge": 3647,
      "Ġexperience": 3648,
      "ota": 3649,
      "((": 3650,
      "Ġenough": 3651,
      "Ġground": 3652,
      "Ġinternational": 3653,
      "ael": 3654,
      "PI": 3655,
      "Ġload": 3656,
      "eline": 3657,
      "ĠCour": 3658,
      "query": 3659,
      "ĠCalifornia": 3660,
      "Ġlive": 3661,
      "Ġfrequ": 3662,
      "NS": 3663,
      "Ġenvironment": 3664,
      "])": 3665,
      "hood": 3666,
      "Off": 3667,
      "Ġsearch": 3668,
      "Ġmove": 3669,
      "run": 3670,
      "Ġcolumn": 3671,
      "sembly": 3672,
      "lib": 3673,
      "Ġchanges": 3674,
      "Ġtheory": 3675,
      "Be": 3676,
      "sing": 3677,
      "icles": 3678,
      "Ġdate": 3679,
      "Ġachiev": 3680,
      "Ġsomething": 3681,
      "Ġ<<": 3682,
      "Ġmatrix": 3683,
      "Ġdecl": 3684,
      "Ġobtained": 3685,
      "tx": 3686,
      "Ġaccording": 3687,
      "atal": 3688,
      "Stream": 3689,
      "Ġsaf": 3690,
      "Ġthings": 3691,
      "ĠAcc": 3692,
      "AM": 3693,
      "ordin": 3694,
      "){": 3695,
      "ĠCup": 3696,
      "atory": 3697,
      "Ġled": 3698,
      "Ġdepend": 3699,
      "ĠStr": 3700,
      "ĠChampionship": 3701,
      "Ġbecom": 3702,
      "Ġemb": 3703,
      "Ġcollection": 3704,
      "Ġcondition": 3705,
      "client": 3706,
      "su": 3707,
      "Ġson": 3708,
      "Ġproperties": 3709,
      "ĠEm": 3710,
      "adding": 3711,
      "small": 3712,
      "gle": 3713,
      "args": 3714,
      "Block": 3715,
      "dr": 3716,
      "Ġtelev": 3717,
      "istics": 3718,
      "count": 3719,
      "Ġrelease": 3720,
      "ĠInter": 3721,
      "}),": 3722,
      "Ġregular": 3723,
      "AA": 3724,
      "aur": 3725,
      "Input": 3726,
      "Ġsimple": 3727,
      "ĠRepublic": 3728,
      "ONT": 3729,
      "ĠGerman": 3730,
      "ĠTest": 3731,
      "burg": 3732,
      "ĠĠĠĠĠĠĠĠĠĠĠĠĠĠĠĠĠ": 3733,
      "ĠUp": 3734,
      "After": 3735,
      "verse": 3736,
      "Ġreason": 3737,
      "Ġinstead": 3738,
      "useum": 3739,
      "Che": 3740,
      "Str": 3741,
      "inn": 3742,
      "ĠHam": 3743,
      "Ġfeel": 3744,
      "has": 3745,
      "gl": 3746,
      "77": 3747,
      "undle": 3748,
      "Ġstop": 3749,
      "ĠDem": 3750,
      "Comp": 3751,
      "Ġill": 3752,
      "Act": 3753,
      "Ġannounced": 3754,
      "citep": 3755,
      "riter": 3756,
      "aign": 3757,
      "ĠGroup": 3758,
      "ĠPat": 3759,
      "element": 3760,
      "Ġpur": 3761,
      "Ġprint": 3762,
      "ĠFirst": 3763,
      "Ġkind": 3764,
      "ivil": 3765,
      "GL": 3766,
      "oted": 3767,
      "abase": 3768,
      "Ġmakes": 3769,
      "spec": 3770,
      "lands": 3771,
      "Ġsound": 3772,
      "Ġrow": 3773,
      "oyal": 3774,
      "subset": 3775,
      "Ġdied": 3776,
      "ĠPort": 3777,
      "Ġcourse": 3778,
      "\\|": 3779,
      "request": 3780,
      "vis": 3781,
      "lease": 3782,
      "Ġlines": 3783,
      "Pos": 3784,
      "Source": 3785,
      "izer": 3786,
      "Status": 3787,
      "aches": 3788,
      "Ġbehav": 3789,
      "astic": 3790,
      "85": 3791,
      "Ġpositive": 3792,
      "Ġsubject": 3793,
      "ĠEngland": 3794,
      "Util": 3795,
      "Ġrelated": 3796,
      "arter": 3797,
      "Ġattempt": 3798,
      "Ġestim": 3799,
      "itte": 3800,
      "atives": 3801,
      "ened": 3802,
      "Ġlot": 3803,
      "What": 3804,
      "Ġbroad": 3805,
      "inst": 3806,
      "iqu": 3807,
      "exp": 3808,
      "Ġaud": 3809,
      "Ġda": 3810,
      "Ġtemper": 3811,
      "iers": 3812,
      "Nav": 3813,
      "iles": 3814,
      "ĠFrom": 3815,
      "ĠCenter": 3816,
      "ĠDiv": 3817,
      "Ġver": 3818,
      "Ã¼": 3819,
      "Ġmultiple": 3820,
      "46": 3821,
      "ĠĠĠĠĠĠĠĠĊ": 3822,
      "ensive": 3823,
      "known": 3824,
      "roy": 3825,
      "Ġhistor": 3826,
      "Ġfig": 3827,
      "})$": 3828,
      "omb": 3829,
      "kappa": 3830,
      "Phi": 3831,
      "Ġlove": 3832,
      "level": 3833,
      "Ġadditional": 3834,
      "pol": 3835,
      "EX": 3836,
      "Ġtelevision": 3837,
      "Ġfall": 3838,
      "({": 3839,
      "Ġunderstand": 3840,
      "Ġwebsite": 3841,
      "Ġdensity": 3842,
      "Ġcalcul": 3843,
      "ĠIN": 3844,
      "ĠNews": 3845,
      "ĠStreet": 3846,
      "display": 3847,
      "Ġbar": 3848,
      "ĠAustralia": 3849,
      "Ġaccept": 3850,
      "navbar": 3851,
      "board": 3852,
      "ris": 3853,
      "oo": 3854,
      "ĠLaw": 3855,
      "Ġpopular": 3856,
      "ya": 3857,
      "Ġcut": 3858,
      "Pol": 3859,
      "Ġreturned": 3860,
      "Ġsold": 3861,
      "header": 3862,
      "ÑĤ": 3863,
      "Ġamount": 3864,
      "YPE": 3865,
      "Ġpolitical": 3866,
      "irtual": 3867,
      "SC": 3868,
      "Ġrespons": 3869,
      "andid": 3870,
      "ellow": 3871,
      "long": 3872,
      "Pre": 3873,
      "Ġexpress": 3874,
      "ĠĠĠĠĠĠĠĠĠĠĠĠĊ": 3875,
      "Ġentire": 3876,
      "Ġwrite": 3877,
      "lymp": 3878,
      "Ġmonths": 3879,
      "Ġ...": 3880,
      "Ġrespectively": 3881,
      "ouch": 3882,
      "Fig": 3883,
      "like": 3884,
      "child": 3885,
      "Ġhttps": 3886,
      "Ġrandom": 3887,
      "func": 3888,
      "Ġscal": 3889,
      "case": 3890,
      "ĠBlack": 3891,
      "You": 3892,
      "inated": 3893,
      "Ġimprov": 3894,
      "oms": 3895,
      "Ġproduced": 3896,
      "Sup": 3897,
      "Point": 3898,
      "Ġareas": 3899,
      "igital": 3900,
      "alle": 3901,
      "host": 3902,
      "Ġ->": 3903,
      "ebug": 3904,
      "ialog": 3905,
      "Ġnorth": 3906,
      "place": 3907,
      "Ġchall": 3908,
      "Ġcontain": 3909,
      "Resource": 3910,
      "stitute": 3911,
      "ĠBer": 3912,
      "ĠCanada": 3913,
      "oto": 3914,
      "Ġcontains": 3915,
      "lood": 3916,
      "encies": 3917,
      "ĠSen": 3918,
      "ĠNe": 3919,
      "bottom": 3920,
      "ĠGovern": 3921,
      "Ġnumer": 3922,
      "png": 3923,
      "Ġfem": 3924,
      "server": 3925,
      "Ġperm": 3926,
      "Ġliter": 3927,
      "otimes": 3928,
      "Acc": 3929,
      "Ġstatus": 3930,
      "unt": 3931,
      "Ġcenter": 3932,
      "det": 3933,
      "ĠRiver": 3934,
      "Ġunit": 3935,
      "First": 3936,
      "Ab": 3937,
      "à¤": 3938,
      "Ġnecess": 3939,
      "Ġsuccessful": 3940,
      "Ġdouble": 3941,
      ".)": 3942,
      "Ġboolean": 3943,
      "Ġnews": 3944,
      "Ġoption": 3945,
      "member": 3946,
      "ication": 3947,
      "oved": 3948,
      "acity": 3949,
      "ĠAnt": 3950,
      "Ð½": 3951,
      "Head": 3952,
      "Ġrather": 3953,
      "97": 3954,
      "Ġitem": 3955,
      "Ġfather": 3956,
      "42": 3957,
      "Ġcomplete": 3958,
      "amily": 3959,
      "Ġcompanies": 3960,
      "hel": 3961,
      "append": 3962,
      "anced": 3963,
      "Ġ\"\"\"": 3964,
      "Ġeval": 3965,
      "Ġprior": 3966,
      "Base": 3967,
      "Ġincludes": 3968,
      "Instance": 3969,
      "500": 3970,
      "rl": 3971,
      "Ġthought": 3972,
      "Ġrecogn": 3973,
      "ining": 3974,
      "apping": 3975,
      "ĠDon": 3976,
      "Ġroad": 3977,
      "Ġmoment": 3978,
      "Ġfront": 3979,
      "plies": 3980,
      "ĠSk": 3981,
      "textit": 3982,
      "ĠGl": 3983,
      "Ġthus": 3984,
      "Ġcorresponding": 3985,
      "Ġepis": 3986,
      "Ġtoday": 3987,
      "Ġheight": 3988,
      "ĠEuropean": 3989,
      "itting": 3990,
      "HT": 3991,
      "nes": 3992,
      "target": 3993,
      "Part": 3994,
      "Ġcontinue": 3995,
      "vey": 3996,
      "Sigma": 3997,
      "Ġcontinu": 3998,
      "han": 3999,
      "ming": 4000,
      "unn": 4001,
      "pc": 4002,
      "IM": 4003,
      "Ġalmost": 4004,
      "Ġtool": 4005,
      "ensor": 4006,
      "Ġmoved": 4007,
      "icult": 4008,
      "first": 4009,
      "UE": 4010,
      "ĠGeneral": 4011,
      "Ġinflu": 4012,
      "98": 4013,
      "apter": 4014,
      "ida": 4015,
      "prop": 4016,
      "1999": 4017,
      "bra": 4018,
      "ulations": 4019,
      "ĠBel": 4020,
      "oe": 4021,
      "ATE": 4022,
      "olic": 4023,
      "used": 4024,
      "ĠĠĠĠĠĠĠĠĠĠĠĠĠĠ": 4025,
      "ĠÃ": 4026,
      "ĉĉĉĉĉĉĉĉ": 4027,
      "mbox": 4028,
      "ĠNULL": 4029,
      "Ġphase": 4030,
      "ĠCouncil": 4031,
      "adata": 4032,
      "Ġbit": 4033,
      "ĠPal": 4034,
      "ĠMal": 4035,
      "Ġcannot": 4036,
      "\\%": 4037,
      "yr": 4038,
      "ugin": 4039,
      "Ġteach": 4040,
      "open": 4041,
      "rowser": 4042,
      "OD": 4043,
      "cit": 4044,
      "ores": 4045,
      "Ġdynam": 4046,
      "Ġviol": 4047,
      "oz": 4048,
      "obile": 4049,
      "UL": 4050,
      "Ġimpact": 4051,
      "plications": 4052,
      "Ġtalk": 4053,
      "Ġyet": 4054,
      "aine": 4055,
      "Ġconv": 4056,
      "Ġrank": 4057,
      "under": 4058,
      "ensuremath": 4059,
      "Ġaward": 4060,
      "berg": 4061,
      "/\\": 4062,
      "la": 4063,
      "ĠFil": 4064,
      "Ġnight": 4065,
      "Action": 4066,
      "ĠChina": 4067,
      "ĠDavid": 4068,
      "Line": 4069,
      "Ġscale": 4070,
      "Ġsouth": 4071,
      "Ġbox": 4072,
      "Ġtypes": 4073,
      "quare": 4074,
      "FI": 4075,
      "och": 4076,
      "ulated": 4077,
      "can": 4078,
      "stream": 4079,
      "izes": 4080,
      "ka": 4081,
      "dat": 4082,
      "Ġonline": 4083,
      "One": 4084,
      "Ġmulti": 4085,
      "Ġsurface": 4086,
      "ago": 4087,
      "Ġapplication": 4088,
      "Content": 4089,
      "Ġtaking": 4090,
      "96": 4091,
      "arser": 4092,
      "ams": 4093,
      "idden": 4094,
      "Oper": 4095,
      "post": 4096,
      "Ġinc": 4097,
      "rypt": 4098,
      "Ġfav": 4099,
      "Ġresource": 4100,
      "ully": 4101,
      "Ġdeal": 4102,
      "Ġwhy": 4103,
      "Ġlocation": 4104,
      "ios": 4105,
      "cos": 4106,
      "allet": 4107,
      "Ġfields": 4108,
      "Ġwhose": 4109,
      "Ġcapt": 4110,
      "Ġfail": 4111,
      "Token": 4112,
      "cing": 4113,
      "When": 4114,
      "ube": 4115,
      "Ġactive": 4116,
      "Ġprotected": 4117,
      "Ġquestion": 4118,
      "Ġindustry": 4119,
      "ĠPaul": 4120,
      "ĠParty": 4121,
      "Ġvillage": 4122,
      "Ġleading": 4123,
      "ili": 4124,
      "Ġstar": 4125,
      "Ġmid": 4126,
      "ĠMor": 4127,
      "ĠJames": 4128,
      "Ġcontract": 4129,
      "Ġdeveloped": 4130,
      "ĠDepartment": 4131,
      "raz": 4132,
      "Gener": 4133,
      "main": 4134,
      "nonumber": 4135,
      "ĠHol": 4136,
      "bb": 4137,
      "agon": 4138,
      "aven": 4139,
      "entry": 4140,
      "[\"": 4141,
      "Component": 4142,
      "wood": 4143,
      "1990": 4144,
      "Ġproof": 4145,
      "which": 4146,
      "Ġnatural": 4147,
      "igen": 4148,
      "CK": 4149,
      "ville": 4150,
      "Ġstream": 4151,
      "eger": 4152,
      "Ġvector": 4153,
      "rote": 4154,
      "ĠTV": 4155,
      "Link": 4156,
      "Ġparty": 4157,
      "ledge": 4158,
      "Ġautom": 4159,
      "Spec": 4160,
      "adian": 4161,
      "Ġcontr": 4162,
      "Ġpercent": 4163,
      "ÑĢ": 4164,
      "Ġprovides": 4165,
      "ĠAward": 4166,
      "Ġfood": 4167,
      "ĠSum": 4168,
      "ĠThom": 4169,
      "Ġmonth": 4170,
      "History": 4171,
      "Start": 4172,
      "pected": 4173,
      "flow": 4174,
      "\\[": 4175,
      "ĠSince": 4176,
      "Ġworked": 4177,
      "Ġpresident": 4178,
      "iences": 4179,
      "oul": 4180,
      "Buffer": 4181,
      "VER": 4182,
      "select": 4183,
      "Ġincrease": 4184,
      "Ġconduct": 4185,
      "Ġlost": 4186,
      "Ġequation": 4187,
      "ĠRober": 4188,
      "}}{": 4189,
      "Ġwest": 4190,
      "VID": 4191,
      "57": 4192,
      "TO": 4193,
      "widet": 4194,
      "ĠWhat": 4195,
      "ĠHealth": 4196,
      "module": 4197,
      "anish": 4198,
      "abs": 4199,
      "arian": 4200,
      "asons": 4201,
      "68": 4202,
      "oriz": 4203,
      "Options": 4204,
      "Ġir": 4205,
      "indows": 4206,
      "lor": 4207,
      "xml": 4208,
      "find": 4209,
      "Ġjo": 4210,
      "chema": 4211,
      "strong": 4212,
      "imately": 4213,
      "Ġ+=": 4214,
      "Ġrelationship": 4215,
      "Ġpolicy": 4216,
      "People": 4217,
      "ĠDi": 4218,
      "Ġlinear": 4219,
      "uz": 4220,
      "eck": 4221,
      "property": 4222,
      "CD": 4223,
      "den": 4224,
      "ĠRef": 4225,
      "Ġmag": 4226,
      "Ġwhite": 4227,
      "ĠGerm": 4228,
      "Ġinj": 4229,
      "Ġunique": 4230,
      "more": 4231,
      "Ġrights": 4232,
      "evelop": 4233,
      "ittee": 4234,
      "ashington": 4235,
      "Ġcurrently": 4236,
      "Hel": 4237,
      "cel": 4238,
      "Ġexact": 4239,
      "Ġsure": 4240,
      "ba": 4241,
      "Default": 4242,
      "meta": 4243,
      "ederal": 4244,
      "Ġclient": 4245,
      "ĠNone": 4246,
      "sg": 4247,
      "json": 4248,
      "ĠUK": 4249,
      "cial": 4250,
      "ĠCr": 4251,
      "{-": 4252,
      "Ġeducation": 4253,
      "grad": 4254,
      "pite": 4255,
      "rated": 4256,
      "py": 4257,
      "ributes": 4258,
      "Ġcopy": 4259,
      "dots": 4260,
      "Ġconcern": 4261,
      "Ġrat": 4262,
      "Attribute": 4263,
      "Prov": 4264,
      "oding": 4265,
      "ĠChurch": 4266,
      "ĠWork": 4267,
      "Ġplatform": 4268,
      "Handler": 4269,
      "Ġtax": 4270,
      "rupt": 4271,
      "Ġcatch": 4272,
      "Ġupdate": 4273,
      "Ġvisit": 4274,
      "Back": 4275,
      "Ġstre": 4276,
      "Gr": 4277,
      "char": 4278,
      "Ġdegree": 4279,
      "widetilde": 4280,
      "Label": 4281,
      "Ġstage": 4282,
      "Command": 4283,
      "Ge": 4284,
      "ancial": 4285,
      "OL": 4286,
      "arning": 4287,
      "ĠRich": 4288,
      "img": 4289,
      "Ġinit": 4290,
      "sin": 4291,
      "Ġissues": 4292,
      "thm": 4293,
      "pecially": 4294,
      "istance": 4295,
      "ĠLem": 4296,
      "Ġlearning": 4297,
      "Ġtakes": 4298,
      "ĠFrance": 4299,
      "RA": 4300,
      "otes": 4301,
      "41": 4302,
      ")]": 4303,
      "eal": 4304,
      "||": 4305,
      "ĠQue": 4306,
      "1998": 4307,
      "ett": 4308,
      "ascript": 4309,
      "Ġeffects": 4310,
      "43": 4311,
      "Ġexecut": 4312,
      "Ġmale": 4313,
      "van": 4314,
      "nected": 4315,
      "ipal": 4316,
      "ĠReturn": 4317,
      "Ġexists": 4318,
      "Last": 4319,
      "private": 4320,
      "ĠSection": 4321,
      "Ġpers": 4322,
      "close": 4323,
      "ston": 4324,
      "Ġhon": 4325,
      "Ġneigh": 4326,
      "band": 4327,
      "Ġeffort": 4328,
      "Ġregard": 4329,
      "Ġneeds": 4330,
      "Ġdefine": 4331,
      "Ġindependent": 4332,
      "Ġdistance": 4333,
      "ria": 4334,
      "anged": 4335,
      "Equal": 4336,
      "split": 4337,
      "Run": 4338,
      "ĠAssociation": 4339,
      "Ġdoesn": 4340,
      "itude": 4341,
      "ifact": 4342,
      "\\!": 4343,
      "Ġmoney": 4344,
      "asc": 4345,
      "Task": 4346,
      "Ġperformed": 4347,
      "rian": 4348,
      "58": 4349,
      "True": 4350,
      "${": 4351,
      "Ġrev": 4352,
      "Ġmilitary": 4353,
      "Ġgoal": 4354,
      "local": 4355,
      "Ġteams": 4356,
      "Ġdetails": 4357,
      "Version": 4358,
      "Ġoperator": 4359,
      "skip": 4360,
      "ĠObject": 4361,
      "plicit": 4362,
      "Ġoperation": 4363,
      "Ġlikely": 4364,
      "Ġsequence": 4365,
      "Null": 4366,
      "ND": 4367,
      "Ġeast": 4368,
      "Ġflow": 4369,
      "ĠDirect": 4370,
      "Ġlarger": 4371,
      "icted": 4372,
      "font": 4373,
      "Ġpersonal": 4374,
      "Ġbenef": 4375,
      "ĠHall": 4376,
      "very": 4377,
      "Ġproposed": 4378,
      "Ġcomes": 4379,
      "oice": 4380,
      "Ġtransform": 4381,
      "Ġselected": 4382,
      "scale": 4383,
      "resh": 4384,
      "Ġprote": 4385,
      "Ġneeded": 4386,
      "ario": 4387,
      "REF": 4388,
      "oring": 4389,
      "ĠWeb": 4390,
      "Ġrunning": 4391,
      "Ġconstruction": 4392,
      "PC": 4393,
      "Gu": 4394,
      "write": 4395,
      "Ġprec": 4396,
      "gener": 4397,
      "Ġfire": 4398,
      "nov": 4399,
      "prime": 4400,
      "ani": 4401,
      "ctor": 4402,
      "ĠOut": 4403,
      "rum": 4404,
      "west": 4405,
      "Ġinternal": 4406,
      "Ġoffice": 4407,
      "Ġtechnology": 4408,
      "}-": 4409,
      "Ġdeaths": 4410,
      "ĠCourt": 4411,
      "layout": 4412,
      "Ġitself": 4413,
      "Function": 4414,
      "Ġissue": 4415,
      "LASS": 4416,
      "Ġweight": 4417,
      "Ġzero": 4418,
      "Ġmodule": 4419,
      "stract": 4420,
      "riate": 4421,
      "Ġdraw": 4422,
      "ĠResearch": 4423,
      "ĠArch": 4424,
      "ĠMart": 4425,
      "Ġforce": 4426,
      "otype": 4427,
      "Ġnav": 4428,
      "ĠDay": 4429,
      "ĠSub": 4430,
      "Number": 4431,
      "Ġface": 4432,
      "Ġvict": 4433,
      "ini": 4434,
      "cret": 4435,
      "Ġstri": 4436,
      "itch": 4437,
      "iform": 4438,
      "Living": 4439,
      "Ã¶": 4440,
      "Ġselect": 4441,
      "Ġdifficult": 4442,
      "ander": 4443,
      "Ġestablish": 4444,
      "ares": 4445,
      "Factory": 4446,
      "bound": 4447,
      "ocket": 4448,
      "std": 4449,
      "Return": 4450,
      "Rep": 4451,
      "Ġprop": 4452,
      "edd": 4453,
      "\"]": 4454,
      "description": 4455,
      "56": 4456,
      "status": 4457,
      "Ġoutside": 4458,
      "Ġtour": 4459,
      "Ġextends": 4460,
      "Ġstudies": 4461,
      "project": 4462,
      "Met": 4463,
      "arily": 4464,
      "QL": 4465,
      "Ġfight": 4466,
      "ĠGeorge": 4467,
      "final": 4468,
      "Ġobserved": 4469,
      "outhern": 4470,
      "IV": 4471,
      "});": 4472,
      "bert": 4473,
      "Ġbehind": 4474,
      "Ġimm": 4475,
      "enced": 4476,
      "Ġcred": 4477,
      "Ġcentral": 4478,
      "elt": 4479,
      "Ġcomponent": 4480,
      "ĠArmy": 4481,
      "Ġthrows": 4482,
      "ĠMet": 4483,
      "zon": 4484,
      "Check": 4485,
      "ena": 4486,
      "fe": 4487,
      "ughter": 4488,
      "push": 4489,
      "Load": 4490,
      "MM": 4491,
      "ĠPre": 4492,
      "ĠJust": 4493,
      "last": 4494,
      "Ġtransfer": 4495,
      "Char": 4496,
      "mem": 4497,
      "Ġwords": 4498,
      "Ġrock": 4499,
      "Ġ{@": 4500,
      "icture": 4501,
      "alax": 4502,
      "rd": 4503,
      "Ġupon": 4504,
      "Ġwrote": 4505,
      "nce": 4506,
      "pack": 4507,
      "Ġmargin": 4508,
      "Det": 4509,
      "*/": 4510,
      "ĠMat": 4511,
      "ki": 4512,
      "ĠCons": 4513,
      "Ġclosed": 4514,
      "ros": 4515,
      "rief": 4516,
      "Ġcampaign": 4517,
      "ptr": 4518,
      "ĠBest": 4519,
      "Ġmechan": 4520,
      "Ġuses": 4521,
      "Ġconsum": 4522,
      "Ġactually": 4523,
      "lier": 4524,
      "Ġcandid": 4525,
      "Ġespecially": 4526,
      "centering": 4527,
      "igger": 4528,
      "uns": 4529,
      "uate": 4530,
      "mt": 4531,
      "hi": 4532,
      "Ġten": 4533,
      "Ġalgorithm": 4534,
      "ĠInstitute": 4535,
      "erve": 4536,
      "ospital": 4537,
      "PRO": 4538,
      "Ġball": 4539,
      "anger": 4540,
      "Per": 4541,
      "Ġsets": 4542,
      "ĠOlymp": 4543,
      "Ġ]": 4544,
      "Em": 4545,
      "Ġarticle": 4546,
      "heet": 4547,
      "Ġprofessional": 4548,
      "pass": 4549,
      "Ġgives": 4550,
      "Ġdirector": 4551,
      "Ġtell": 4552,
      "Ġauto": 4553,
      "Ġ<!--": 4554,
      "Ġconstr": 4555,
      "src": 4556,
      "Ġleaders": 4557,
      "ein": 4558,
      "Ġanaly": 4559,
      "Ġwindow": 4560,
      "Ġappoint": 4561,
      "Ġopport": 4562,
      "achine": 4563,
      "\\]": 4564,
      "Box": 4565,
      "agram": 4566,
      "zer": 4567,
      "ategy": 4568,
      "aints": 4569,
      "\").": 4570,
      "....": 4571,
      "anning": 4572,
      "188": 4573,
      "Ġdiscover": 4574,
      "ĠRem": 4575,
      "78": 4576,
      "ĠCap": 4577,
      "Web": 4578,
      "ees": 4579,
      "atur": 4580,
      "Ġpick": 4581,
      "ĠWhile": 4582,
      "'re": 4583,
      "Ġplaying": 4584,
      "Ġcompared": 4585,
      "Ġwhole": 4586,
      "Ġbank": 4587,
      "ĠID": 4588,
      "Ġrestr": 4589,
      "ĠSing": 4590,
      "win": 4591,
      "Ext": 4592,
      "Ġexperiment": 4593,
      "BA": 4594,
      "ĠRoad": 4595,
      "EL": 4596,
      "ramework": 4597,
      "Ġdesigned": 4598,
      "zeta": 4599,
      "Ġpatients": 4600,
      "ĠYear": 4601,
      "ening": 4602,
      "Ġdirectly": 4603,
      "////////////////": 4604,
      "Ġparts": 4605,
      "Page": 4606,
      "ĠBook": 4607,
      "Ġdebut": 4608,
      "Ñģ": 4609,
      "ĠWashington": 4610,
      "Ġproducts": 4611,
      "ĠJack": 4612,
      "ĠData": 4613,
      "Ġfactor": 4614,
      "SON": 4615,
      "javascript": 4616,
      "Ġbring": 4617,
      "ĠMusic": 4618,
      "Ġprinc": 4619,
      "elves": 4620,
      "Ġquick": 4621,
      "elete": 4622,
      "Ġarchitect": 4623,
      "ĠJer": 4624,
      "Ġrace": 4625,
      "Ġsecurity": 4626,
      "Ġreve": 4627,
      "Ġrisk": 4628,
      "1996": 4629,
      "Ġequival": 4630,
      "Ġallowed": 4631,
      "Med": 4632,
      "ying": 4633,
      "Mem": 4634,
      ".~": 4635,
      "Ġhours": 4636,
      "Ent": 4637,
      "Ġmode": 4638,
      "Ġproblems": 4639,
      "ypes": 4640,
      "Ġusers": 4641,
      "atively": 4642,
      "Ġadj": 4643,
      "Ġmanagement": 4644,
      "UI": 4645,
      "Ġsus": 4646,
      "Ġqual": 4647,
      "olve": 4648,
      "ĠRoman": 4649,
      "1997": 4650,
      "Eng": 4651,
      "Ġsample": 4652,
      "ĠVol": 4653,
      "Ġcompar": 4654,
      "Ġfriend": 4655,
      "sole": 4656,
      "1980": 4657,
      "Ġfixed": 4658,
      "Ġpattern": 4659,
      "Ġcast": 4660,
      "\"),": 4661,
      "dot": 4662,
      "Ġliving": 4663,
      "column": 4664,
      "Ġshare": 4665,
      "Ġnone": 4666,
      "Ġexcept": 4667,
      "ĠTheorem": 4668,
      "Ġsex": 4669,
      "Ġcorrect": 4670,
      "Ġwriting": 4671,
      "Ġscreen": 4672,
      "iant": 4673,
      "Ġmatter": 4674,
      "ĠSome": 4675,
      "Ġtold": 4676,
      "PS": 4677,
      "Ġhimself": 4678,
      "reek": 4679,
      "inese": 4680,
      "ĠGreen": 4681,
      "Ġdidn": 4682,
      "yper": 4683,
      "Ġreference": 4684,
      "Ġdepart": 4685,
      "\\{": 4686,
      "FONT": 4687,
      "Ġinterface": 4688,
      "Ġsens": 4689,
      "Ġdemon": 4690,
      "Ġmodern": 4691,
      "ĠGL": 4692,
      "ĠGermany": 4693,
      "TER": 4694,
      "Ġvers": 4695,
      "Ġformat": 4696,
      "ĠEq": 4697,
      "}+": 4698,
      "ĠTex": 4699,
      "Create": 4700,
      "ĠLou": 4701,
      "ooth": 4702,
      "Ġstaff": 4703,
      "Ġreach": 4704,
      "Ġthroughout": 4705,
      "imensional": 4706,
      "Ġpack": 4707,
      "ĠPe": 4708,
      "Ð¾Ð": 4709,
      "Ġwalk": 4710,
      "Ġcompleted": 4711,
      "ãģ": 4712,
      "Ġnovel": 4713,
      "Ġconnection": 4714,
      "Ġcharacters": 4715,
      "alian": 4716,
      "ufact": 4717,
      "ĠTechn": 4718,
      "Ġforward": 4719,
      "ye": 4720,
      "59": 4721,
      "ĠOF": 4722,
      "ĠCompany": 4723,
      "Ġacqu": 4724,
      "estival": 4725,
      "izations": 4726,
      "Ġgas": 4727,
      ")=\\": 4728,
      "Ġcountries": 4729,
      "icial": 4730,
      "][": 4731,
      "het": 4732,
      "Ġpolice": 4733,
      "Ġfa": 4734,
      "Ġimages": 4735,
      "kr": 4736,
      "Ġadministr": 4737,
      "Ġsupported": 4738,
      "ĠPress": 4739,
      "po": 4740,
      "Ġtim": 4741,
      "Ġnames": 4742,
      "format": 4743,
      "ĠOb": 4744,
      "Ġpresented": 4745,
      "ĠSpec": 4746,
      "olar": 4747,
      "ĠService": 4748,
      "Ġaccur": 4749,
      "Ġintroduced": 4750,
      "Dr": 4751,
      "menu": 4752,
      "ĠDivision": 4753,
      "dated": 4754,
      "Ġallows": 4755,
      "}=\\": 4756,
      "Ġdrop": 4757,
      "stant": 4758,
      "Ġdam": 4759,
      "Ġspecified": 4760,
      "Ġserver": 4761,
      "Ġnote": 4762,
      "Ġess": 4763,
      "tabular": 4764,
      "styles": 4765,
      "operator": 4766,
      "obj": 4767,
      "Ġsil": 4768,
      "ĠVir": 4769,
      "Bl": 4770,
      "Ob": 4771,
      "Ġtro": 4772,
      "Ġinvolved": 4773,
      "Ġship": 4774,
      "Ġjoined": 4775,
      "rows": 4776,
      "Ġnumbers": 4777,
      "ĠFound": 4778,
      "ias": 4779,
      "ĠRoyal": 4780,
      "Ġcontact": 4781,
      "ĠUnion": 4782,
      "container": 4783,
      "onic": 4784,
      "ĠMary": 4785,
      "Ġspeed": 4786,
      "ĠApp": 4787,
      "ĠLeg": 4788,
      "Ġcontinued": 4789,
      "Next": 4790,
      "ĠBay": 4791,
      "Ġurl": 4792,
      "Co": 4793,
      "Ġsolid": 4794,
      "Ġchannel": 4795,
      "Ġprimary": 4796,
      "Ġdirection": 4797,
      "Ġquality": 4798,
      "Ġlonger": 4799,
      "Ġword": 4800,
      "ala": 4801,
      "rial": 4802,
      "Ġsetting": 4803,
      "ĠSl": 4804,
      "NO": 4805,
      "inner": 4806,
      "SI": 4807,
      "params": 4808,
      ":</": 4809,
      "ĠMag": 4810,
      "ĠProv": 4811,
      "arth": 4812,
      "Ġimmedi": 4813,
      "Ġoperations": 4814,
      "ĠPublic": 4815,
      "Ġmarried": 4816,
      "service": 4817,
      "ĠAngel": 4818,
      "ailway": 4819,
      "Child": 4820,
      "(&": 4821,
      "Ġgenerated": 4822,
      "Ġopened": 4823,
      "aud": 4824,
      "ĠMac": 4825,
      "asket": 4826,
      "buf": 4827,
      "elebr": 4828,
      "arks": 4829,
      "gu": 4830,
      "76": 4831,
      "ĠFranc": 4832,
      "ocal": 4833,
      "Ġequal": 4834,
      ";\\": 4835,
      "idents": 4836,
      "ĠMount": 4837,
      "ĠScience": 4838,
      "Ġlargest": 4839,
      "}]": 4840,
      "ano": 4841,
      "Ġalthough": 4842,
      "Ġemer": 4843,
      "bon": 4844,
      "Ġ&=": 4845,
      "Ġsoftware": 4846,
      "ilies": 4847,
      "num": 4848,
      "Ġsett": 4849,
      "Ġtravel": 4850,
      "Ġfinite": 4851,
      "number": 4852,
      "ĠĠĠĠĠĠĠĠĠĠĠĠĠĠĠĠĠĠĠĠĠĠĠĠĠĠĠĠĠĠĠĠĠĠĠ": 4853,
      "Ġdecision": 4854,
      "Ġbg": 4855,
      ")}\\": 4856,
      "52": 4857,
      "Ġthing": 4858,
      "ci": 4859,
      "sey": 4860,
      "1995": 4861,
      "Ġlevels": 4862,
      "51": 4863,
      "Tem": 4864,
      "only": 4865,
      "Ġmother": 4866,
      "ĠGod": 4867,
      "empty": 4868,
      "illing": 4869,
      "Ġgrowth": 4870,
      "Ġmention": 4871,
      "ĠCong": 4872,
      "ĠSam": 4873,
      "Ġedge": 4874,
      "response": 4875,
      ")^{": 4876,
      "pdf": 4877,
      "ua": 4878,
      "ously": 4879,
      "///": 4880,
      "Ġhit": 4881,
      "Button": 4882,
      "Ġusually": 4883,
      "gebra": 4884,
      "bin": 4885,
      "inally": 4886,
      "emic": 4887,
      "Ġeffective": 4888,
      "ifying": 4889,
      "Cell": 4890,
      "ĠWhite": 4891,
      "Ġpolitic": 4892,
      "endif": 4893,
      "ĠDemocr": 4894,
      "FT": 4895,
      "Ġtree": 4896,
      "hest": 4897,
      "process": 4898,
      "Ġdim": 4899,
      "Ġbasis": 4900,
      "iler": 4901,
      "ĠSociety": 4902,
      "iday": 4903,
      "Ġboard": 4904,
      "update": 4905,
      "Ġinvestig": 4906,
      "ABLE": 4907,
      "otal": 4908,
      "Us": 4909,
      "clusion": 4910,
      "Ġhot": 4911,
      "Ġtemperature": 4912,
      "Ġfollowed": 4913,
      "Ġobjects": 4914,
      "Ġsigned": 4915,
      "ĠAfrica": 4916,
      "fect": 4917,
      "Ã¤": 4918,
      "ĠOpen": 4919,
      "ĠAlex": 4920,
      "Top": 4921,
      "ĠMex": 4922,
      "filter": 4923,
      "Ġentry": 4924,
      "CON": 4925,
      "witter": 4926,
      "DB": 4927,
      "omorph": 4928,
      "Ġmaximum": 4929,
      "Ġwoman": 4930,
      "<?": 4931,
      "Ġdifference": 4932,
      "Ġfiles": 4933,
      "54": 4934,
      "CL": 4935,
      "Aut": 4936,
      "ĠEv": 4937,
      "Ġradio": 4938,
      "Ġgirl": 4939,
      "ĠMer": 4940,
      "cup": 4941,
      "refix": 4942,
      "command": 4943,
      ",-": 4944,
      "Ġwife": 4945,
      "ĠAustralian": 4946,
      "Ġcoach": 4947,
      "Ġfont": 4948,
      "ĠIsland": 4949,
      "Ġjud": 4950,
      "Rem": 4951,
      "bour": 4952,
      "Ġcomment": 4953,
      "yes": 4954,
      "Ġincreasing": 4955,
      "ipp": 4956,
      "Le": 4957,
      "Ġtherefore": 4958,
      "ĠCE": 4959,
      "cs": 4960,
      "Ġselection": 4961,
      "ĠOur": 4962,
      "ĠGold": 4963,
      "{(": 4964,
      "Ġconnect": 4965,
      "Ġdemonstr": 4966,
      "ĠAcadem": 4967,
      "ĠBen": 4968,
      "Ġunc": 4969,
      "Ġdeep": 4970,
      "Equals": 4971,
      "show": 4972,
      "Ġsense": 4973,
      "attr": 4974,
      "Controller": 4975,
      "Ġsymmet": 4976,
      "PP": 4977,
      "Ġsongs": 4978,
      "edy": 4979,
      "rael": 4980,
      "Ġchurch": 4981,
      "acter": 4982,
      "Ġphysical": 4983,
      "pat": 4984,
      "itar": 4985,
      "uated": 4986,
      "Ġveh": 4987,
      "ql": 4988,
      "Ġagre": 4989,
      "mid": 4990,
      "ĠOf": 4991,
      "IO": 4992,
      "Ġcoupl": 4993,
      "ĠMiss": 4994,
      "Ġprogress": 4995,
      "isions": 4996,
      "Ġtowards": 4997,
      "```": 4998,
      "Ġ((": 4999,
      "len": 5000,
      "orse": 5001,
      "Ġdefe": 5002,
      "annot": 5003,
      "ĠClub": 5004,
      "ensus": 5005,
      "ĠMichael": 5006,
      "mission": 5007,
      "SD": 5008,
      "########": 5009,
      "Ġdefinition": 5010,
      "ãĥ": 5011,
      "1970": 5012,
      "Ġfilter": 5013,
      "inding": 5014,
      "Column": 5015,
      "Ġlooking": 5016,
      "ĠDuring": 5017,
      "Ġwatch": 5018,
      "ici": 5019,
      "Ġidea": 5020,
      "Can": 5021,
      "Ġâ": 5022,
      "reference": 5023,
      "ttp": 5024,
      "Ġinside": 5025,
      "SU": 5026,
      "Ġrot": 5027,
      "uit": 5028,
      "soft": 5029,
      "vest": 5030,
      "unit": 5031,
      "Ġheart": 5032,
      "Ġbad": 5033,
      "Ġbooks": 5034,
      "1994": 5035,
      "overs": 5036,
      "instance": 5037,
      "Ġexpand": 5038,
      "lemma": 5039,
      "ĠDel": 5040,
      "Ġschools": 5041,
      "alls": 5042,
      "Ġsaw": 5043,
      "Ġavoid": 5044,
      "Ġgave": 5045,
      "antic": 5046,
      "Ġmus": 5047,
      "Collection": 5048,
      "Listener": 5049,
      "PO": 5050,
      "note": 5051,
      "Ġsolutions": 5052,
      "Ġrelative": 5053,
      "Ġtransport": 5054,
      "ATION": 5055,
      "Ġcam": 5056,
      "Ġsources": 5057,
      "Ġhous": 5058,
      "loor": 5059,
      "ĠSal": 5060,
      "ĠTime": 5061,
      "ĠTom": 5062,
      "Ġshall": 5063,
      "Ġexpression": 5064,
      "}_\\": 5065,
      "mes": 5066,
      "tool": 5067,
      "1992": 5068,
      "Ġcourt": 5069,
      "$)": 5070,
      "gn": 5071,
      "Ġnor": 5072,
      "Ġdise": 5073,
      "uge": 5074,
      "irit": 5075,
      "ĠMad": 5076,
      "ĠTexas": 5077,
      "Ġaltern": 5078,
      "olf": 5079,
      "ĠHT": 5080,
      "Ġevidence": 5081,
      "SO": 5082,
      "vention": 5083,
      "ometimes": 5084,
      "ulture": 5085,
      "fit": 5086,
      "Ġdevice": 5087,
      "Ġrecorded": 5088,
      "airs": 5089,
      "}^\\": 5090,
      "ĠMus": 5091,
      "ĠAnn": 5092,
      "isation": 5093,
      "Ġchanged": 5094,
      "Ġroom": 5095,
      "CA": 5096,
      "Ġvirtual": 5097,
      "ĠPost": 5098,
      "ao": 5099,
      "PT": 5100,
      "star": 5101,
      "force": 5102,
      "Ġ;": 5103,
      "Ġstore": 5104,
      "Ġtransition": 5105,
      "ech": 5106,
      "fort": 5107,
      "aa": 5108,
      "Ġpain": 5109,
      "widehat": 5110,
      "Sim": 5111,
      "Ġeight": 5112,
      "ĠTur": 5113,
      "proto": 5114,
      "files": 5115,
      "Address": 5116,
      "Ġmaintain": 5117,
      "Format": 5118,
      "ERT": 5119,
      "Ġbgcolor": 5120,
      "essages": 5121,
      "Mar": 5122,
      "ĠCLASS": 5123,
      "oma": 5124,
      "Ġprobability": 5125,
      "53": 5126,
      "Ġca": 5127,
      "Ġtreatment": 5128,
      "inct": 5129,
      "cdots": 5130,
      "rate": 5131,
      "Ġsoon": 5132,
      "dec": 5133,
      "gs": 5134,
      "HO": 5135,
      "ĠRussian": 5136,
      "79": 5137,
      "ĠAre": 5138,
      "}/": 5139,
      "Psi": 5140,
      "ducation": 5141,
      "').": 5142,
      "ĠType": 5143,
      "ayers": 5144,
      "ĠRad": 5145,
      "Ġseem": 5146,
      "Ġconcept": 5147,
      "Ġreading": 5148,
      "})\\": 5149,
      "Ġdoing": 5150,
      "Ġplant": 5151,
      "Br": 5152,
      "Ġrule": 5153,
      "FO": 5154,
      "equiv": 5155,
      "Ġholds": 5156,
      "Ġsn": 5157,
      "ĠFigure": 5158,
      "Ġspin": 5159,
      "ĠCOVID": 5160,
      "ĠRead": 5161,
      "well": 5162,
      "Ġassume": 5163,
      "URL": 5164,
      "normal": 5165,
      "aml": 5166,
      "PR": 5167,
      "Ġste": 5168,
      "Ġstars": 5169,
      "Mode": 5170,
      "Ag": 5171,
      "Ġbre": 5172,
      "72": 5173,
      "So": 5174,
      "ervices": 5175,
      "ĠNow": 5176,
      "ĠGames": 5177,
      "ĠWil": 5178,
      "Layout": 5179,
      "aily": 5180,
      "Ġsurv": 5181,
      "remove": 5182,
      "Ġiter": 5183,
      "Ġreturns": 5184,
      "Ġcharg": 5185,
      "iece": 5186,
      "Ġappeared": 5187,
      "ĠCentral": 5188,
      "Valid": 5189,
      "Ġansw": 5190,
      "ĠHREF": 5191,
      "ictor": 5192,
      "else": 5193,
      "background": 5194,
      "za": 5195,
      "Url": 5196,
      "Ġcoordin": 5197,
      "Ġhel": 5198,
      "Ġscen": 5199,
      "ky": 5200,
      "mas": 5201,
      "Select": 5202,
      "ĠRob": 5203,
      "ĠDan": 5204,
      "Ġexhib": 5205,
      "that": 5206,
      "issions": 5207,
      "tag": 5208,
      "Ġsimply": 5209,
      "300": 5210,
      "eloc": 5211,
      "eve": 5212,
      "hedul": 5213,
      "Ġsignal": 5214,
      "Fe": 5215,
      "Ġroot": 5216,
      "Ġnecessary": 5217,
      "Ġcomponents": 5218,
      "output": 5219,
      "Ġdescription": 5220,
      "1993": 5221,
      "Ġpractice": 5222,
      "ĠHen": 5223,
      "joy": 5224,
      "Ġcollect": 5225,
      "TP": 5226,
      "Ġinstit": 5227,
      "ĠLog": 5228,
      "Ġjoin": 5229,
      "ĠFore": 5230,
      "Ġoptim": 5231,
      "Ġpreviously": 5232,
      "Ġstarting": 5233,
      "ĉĠĠĠ": 5234,
      "rier": 5235,
      "break": 5236,
      "Ġquantum": 5237,
      "edge": 5238,
      "Work": 5239,
      "ln": 5240,
      "Ġpassed": 5241,
      "ĠThomas": 5242,
      "Ġlimited": 5243,
      "ĠFin": 5244,
      "ilton": 5245,
      "Ġdoc": 5246,
      "Ġapplied": 5247,
      "ĠCarol": 5248,
      "Output": 5249,
      "Ġunits": 5250,
      "ĠSuper": 5251,
      "road": 5252,
      "weight": 5253,
      "ĠTown": 5254,
      "Post": 5255,
      "ĠHere": 5256,
      "osen": 5257,
      "Ġapply": 5258,
      "Ġregister": 5259,
      "Ġcritical": 5260,
      "depend": 5261,
      "ental": 5262,
      "Par": 5263,
      "support": 5264,
      "ds": 5265,
      "wrap": 5266,
      "Ġtransl": 5267,
      "uid": 5268,
      "Ġplaces": 5269,
      "ĠRobert": 5270,
      "69": 5271,
      "Ġmount": 5272,
      "Ġmix": 5273,
      "duction": 5274,
      "dep": 5275,
      "(-": 5276,
      "Ġdark": 5277,
      "Ġsports": 5278,
      "ootstr": 5279,
      "Ġfun": 5280,
      "ĠChinese": 5281,
      "Ġmind": 5282,
      "FL": 5283,
      "Ġfailed": 5284,
      "ĠSeries": 5285,
      "textwidth": 5286,
      "Style": 5287,
      "Ġseg": 5288,
      "Ġupper": 5289,
      "ĠKe": 5290,
      "ĠForm": 5291,
      "Ġord": 5292,
      "values": 5293,
      "Ġminutes": 5294,
      "hing": 5295,
      "then": 5296,
      "Ġexc": 5297,
      "ura": 5298,
      "Ġmemory": 5299,
      "Ġdeb": 5300,
      "Ġgetting": 5301,
      "prox": 5302,
      "Ġstudio": 5303,
      "Ġbehavior": 5304,
      "ĠGrand": 5305,
      "Ġincreased": 5306,
      "Ġ(\"": 5307,
      "Ġbirth": 5308,
      "FC": 5309,
      "&&": 5310,
      "ĠCanadian": 5311,
      "hent": 5312,
      "Ġcoming": 5313,
      "Ġsubs": 5314,
      "Ġremove": 5315,
      "Bundle": 5316,
      "Ġstay": 5317,
      "=\"../../../../../": 5318,
      "ether": 5319,
      "ĠSy": 5320,
      "Ġ\\{": 5321,
      "aled": 5322,
      "Ġculture": 5323,
      "Length": 5324,
      "iller": 5325,
      "ĠAfrican": 5326,
      "mercial": 5327,
      "ved": 5328,
      "BU": 5329,
      "That": 5330,
      "Ġrecomm": 5331,
      "Sec": 5332,
      "ĠNote": 5333,
      "}|": 5334,
      "ĠMuseum": 5335,
      "ĠMont": 5336,
      "erved": 5337,
      "scope": 5338,
      "Ġremains": 5339,
      "Filter": 5340,
      "evelopment": 5341,
      "Ġdram": 5342,
      "Since": 5343,
      ">>": 5344,
      "Ġrecently": 5345,
      "Ġboundary": 5346,
      "TYPE": 5347,
      "ancy": 5348,
      "ĠOver": 5349,
      "ĠScott": 5350,
      "azine": 5351,
      "Ġpurch": 5352,
      "Ġquery": 5353,
      "AV": 5354,
      "porary": 5355,
      "ĠJew": 5356,
      "Ġjournal": 5357,
      "term": 5358,
      "cr": 5359,
      "icate": 5360,
      "Ġbecomes": 5361,
      "ĠTor": 5362,
      "Ġfit": 5363,
      "ighest": 5364,
      "ĠThus": 5365,
      "ĠFlor": 5366,
      "ĠSmith": 5367,
      "ĠSur": 5368,
      "Ġsmaller": 5369,
      "Ġ~": 5370,
      "Ġchoice": 5371,
      "rip": 5372,
      "Ġcause": 5373,
      "Dev": 5374,
      "{{\\": 5375,
      "Ġago": 5376,
      "Ġweb": 5377,
      "oded": 5378,
      "_.": 5379,
      "Ġearlier": 5380,
      "arp": 5381,
      "enge": 5382,
      "ĠChristian": 5383,
      "atrix": 5384,
      "Ġlack": 5385,
      "Ġformed": 5386,
      "qquad": 5387,
      "Ġscient": 5388,
      "ometry": 5389,
      "Ġdomain": 5390,
      "Ġwait": 5391,
      "Max": 5392,
      "Ġseven": 5393,
      "anges": 5394,
      "Server": 5395,
      "COL": 5396,
      "asketball": 5397,
      "illa": 5398,
      "ita": 5399,
      "float": 5400,
      "Ġyield": 5401,
      "94": 5402,
      "di": 5403,
      "1991": 5404,
      "Ġnom": 5405,
      "ĠBuild": 5406,
      "ĠInc": 5407,
      "icol": 5408,
      "uan": 5409,
      "Ġconver": 5410,
      "}}(": 5411,
      "Ġresources": 5412,
      "Ġdirected": 5413,
      "Ġsen": 5414,
      "63": 5415,
      "Bo": 5416,
      "istan": 5417,
      "Ġrules": 5418,
      "author": 5419,
      "urt": 5420,
      "usion": 5421,
      "ĠDet": 5422,
      "ansion": 5423,
      "ĠOther": 5424,
      "utils": 5425,
      "ls": 5426,
      "Ġadapt": 5427,
      "Ġkm": 5428,
      "ĠHel": 5429,
      "ĠGreat": 5430,
      "Ġeasy": 5431,
      "ean": 5432,
      "liament": 5433,
      "Open": 5434,
      "osph": 5435,
      "Ġstreng": 5436,
      "Min": 5437,
      "track": 5438,
      "ootstrap": 5439,
      "umni": 5440,
      "pret": 5441,
      "Ġexisting": 5442,
      "ĠGoogle": 5443,
      "ĠAtt": 5444,
      "vant": 5445,
      "Ġfast": 5446,
      "Ġfinancial": 5447,
      "older": 5448,
      "itory": 5449,
      "93": 5450,
      "Ġaim": 5451,
      "stack": 5452,
      "Sl": 5453,
      "Ġded": 5454,
      ".$": 5455,
      "ĠHistory": 5456,
      "Ġchalleng": 5457,
      "ĠMem": 5458,
      "greg": 5459,
      "Ġepisode": 5460,
      "ĠSee": 5461,
      "Ġsymbol": 5462,
      "reme": 5463,
      ")-": 5464,
      "ca": 5465,
      "Ġcapital": 5466,
      "mselves": 5467,
      "ĠLemma": 5468,
      "oj": 5469,
      "Ġknowledge": 5470,
      "92": 5471,
      "ĠAPI": 5472,
      "ĠDec": 5473,
      "Ġasked": 5474,
      "Ġtag": 5475,
      "ĠAccording": 5476,
      "artifact": 5477,
      "Ġrob": 5478,
      "Ġelectron": 5479,
      "etch": 5480,
      "fill": 5481,
      "Ġclasses": 5482,
      "icket": 5483,
      "Ġframe": 5484,
      "ĠVirgin": 5485,
      "Ġrelig": 5486,
      "ĠFrancis": 5487,
      "Update": 5488,
      "Ġang": 5489,
      "DF": 5490,
      "eft": 5491,
      "62": 5492,
      "ponents": 5493,
      "Vis": 5494,
      "ĠJapanese": 5495,
      "thlet": 5496,
      "ORT": 5497,
      "ĠArray": 5498,
      "++)": 5499,
      "Ġargument": 5500,
      "Ġdaughter": 5501,
      "Ġreli": 5502,
      "ĠFe": 5503,
      "Ġremain": 5504,
      "ĠEX": 5505,
      "iring": 5506,
      "orizont": 5507,
      "ĠWestern": 5508,
      "Ġthemselves": 5509,
      "ĠRE": 5510,
      "KE": 5511,
      "Ġwriter": 5512,
      "Ġnature": 5513,
      "atre": 5514,
      "Ġvariable": 5515,
      "She": 5516,
      "Ġlegal": 5517,
      "sd": 5518,
      "sets": 5519,
      "=\"-": 5520,
      "Ġrepresentation": 5521,
      "Ġconstit": 5522,
      "drop": 5523,
      "Provider": 5524,
      "ĠMinister": 5525,
      "Ġmanufact": 5526,
      "My": 5527,
      "iders": 5528,
      "Ġsort": 5529,
      "iance": 5530,
      "kit": 5531,
      "Tag": 5532,
      "Ġdecre": 5533,
      "Ġquite": 5534,
      "Frame": 5535,
      "efined": 5536,
      "Ġ**": 5537,
      "Ġscience": 5538,
      "Do": 5539,
      "Ġoverall": 5540,
      "Ġ$(\\": 5541,
      "ĠKingdom": 5542,
      "Ġcard": 5543,
      "NAME": 5544,
      "Ġforces": 5545,
      "orial": 5546,
      "Ġfeed": 5547,
      "iger": 5548,
      "ĠFrank": 5549,
      "ingu": 5550,
      "Ġcallback": 5551,
      "./": 5552,
      "otion": 5553,
      "Ġsubsequ": 5554,
      "}^{(": 5555,
      "Case": 5556,
      "Ġfinally": 5557,
      "ĠRock": 5558,
      "rib": 5559,
      "ĠBill": 5560,
      "Ġcelebr": 5561,
      "ĠLicense": 5562,
      "ãĤ": 5563,
      "{}": 5564,
      "Go": 5565,
      "INE": 5566,
      "aset": 5567,
      "&=": 5568,
      "prove": 5569,
      "{{": 5570,
      "Ġprobably": 5571,
      "91": 5572,
      "Ġax": 5573,
      "ecause": 5574,
      "onom": 5575,
      "RI": 5576,
      "Ġfamilies": 5577,
      "expected": 5578,
      "Cache": 5579,
      "ih": 5580,
      "SA": 5581,
      "Ġstatement": 5582,
      "fa": 5583,
      "anned": 5584,
      "Ġmissing": 5585,
      "Ġactivity": 5586,
      "ternet": 5587,
      "ĠCommission": 5588,
      "Ġscore": 5589,
      "models": 5590,
      "ĠOper": 5591,
      "Ġnuc": 5592,
      "61": 5593,
      "sign": 5594,
      "ora": 5595,
      "Mon": 5596,
      "ĠMel": 5597,
      "Ġensure": 5598,
      "Ġbeginning": 5599,
      "Ġextra": 5600,
      "Ġinterview": 5601,
      "oom": 5602,
      "ĠFile": 5603,
      "Ġuns": 5604,
      "Ġgalax": 5605,
      "ĠProgram": 5606,
      "indent": 5607,
      "Ġfinished": 5608,
      "ĠKore": 5609,
      "icago": 5610,
      "Rel": 5611,
      "Width": 5612,
      "ĠJose": 5613,
      "Ġvs": 5614,
      "ĠST": 5615,
      "Ġ[]": 5616,
      "^+": 5617,
      "Ġmedical": 5618,
      "Ġruns": 5619,
      "Ġfra": 5620,
      "Ġorganization": 5621,
      "Ġrecover": 5622,
      "Ġanim": 5623,
      "Ġter": 5624,
      "ĠMr": 5625,
      "Ġkilled": 5626,
      "Access": 5627,
      "PA": 5628,
      "ĠCath": 5629,
      "Ġmicro": 5630,
      "Ġthreat": 5631,
      "Ġwide": 5632,
      "Ġbelieve": 5633,
      "Ġsend": 5634,
      "Ġleague": 5635,
      "otic": 5636,
      "ERR": 5637,
      "Ġactual": 5638,
      "ĠHill": 5639,
      "Ġhol": 5640,
      "Ġmeaning": 5641,
      "}\\,": 5642,
      "atin": 5643,
      "([": 5644,
      "Ġconnected": 5645,
      "icated": 5646,
      "document": 5647,
      "74": 5648,
      "ĠArg": 5649,
      "ĠReview": 5650,
      "isl": 5651,
      "ulate": 5652,
      "Ġseems": 5653,
      "Control": 5654,
      "SH": 5655,
      "ĉĉĉĉĉĉĉ": 5656,
      "ĠTable": 5657,
      "ĠAut": 5658,
      "itz": 5659,
      "ĠAcademy": 5660,
      "ĠInst": 5661,
      "classes": 5662,
      "1960": 5663,
      "citet": 5664,
      "Ġtrain": 5665,
      "Ġconfiguration": 5666,
      "Ġwid": 5667,
      "offset": 5668,
      "Ġ&\\": 5669,
      "reland": 5670,
      "common": 5671,
      "Ġgold": 5672,
      "template": 5673,
      "}:": 5674,
      "Ġauth": 5675,
      "Ġassist": 5676,
      "Ġcivil": 5677,
      "Ġfemale": 5678,
      "thon": 5679,
      "images": 5680,
      "Ġfully": 5681,
      "ĠLouis": 5682,
      "ĠEnd": 5683,
      "Ġmiddle": 5684,
      "Ġque": 5685,
      "opl": 5686,
      "udd": 5687,
      "Ġaw": 5688,
      "Description": 5689,
      "ella": 5690,
      "km": 5691,
      "Ġprove": 5692,
      "Ġactivities": 5693,
      "match": 5694,
      "El": 5695,
      "Ġpredict": 5696,
      "rey": 5697,
      "Now": 5698,
      "BS": 5699,
      "cover": 5700,
      "Ġvolume": 5701,
      "Ġetc": 5702,
      "ĠIsrael": 5703,
      "API": 5704,
      "iments": 5705,
      "Ġvariables": 5706,
      "ournament": 5707,
      "ucture": 5708,
      "anta": 5709,
      "ĠLife": 5710,
      "ĠCamp": 5711,
      "Ġtit": 5712,
      "Search": 5713,
      "example": 5714,
      "osing": 5715,
      "400": 5716,
      "Ġweak": 5717,
      "Ġdigital": 5718,
      "Ġprevent": 5719,
      "orizontal": 5720,
      "Ġweeks": 5721,
      "Row": 5722,
      "Script": 5723,
      "ĠBank": 5724,
      "Ġsession": 5725,
      "iverse": 5726,
      "Ġrelation": 5727,
      "Ġprem": 5728,
      "Ġbur": 5729,
      "itable": 5730,
      "1989": 5731,
      "Ġstudent": 5732,
      "tree": 5733,
      "ounter": 5734,
      "Ġequip": 5735,
      "should": 5736,
      "1000": 5737,
      "}\\\\": 5738,
      "Ġfounded": 5739,
      "Ġbrought": 5740,
      "ĠItalian": 5741,
      "mathsf": 5742,
      "Ġrap": 5743,
      "Ġartists": 5744,
      "Ġinsp": 5745,
      "Ġways": 5746,
      "ĠHistor": 5747,
      "related": 5748,
      "Ġproced": 5749,
      "ette": 5750,
      "ecute": 5751,
      "jection": 5752,
      "plete": 5753,
      "Unit": 5754,
      "eler": 5755,
      "iginal": 5756,
      "ĠBig": 5757,
      "NN": 5758,
      "hr": 5759,
      "frame": 5760,
      "CR": 5761,
      "ullet": 5762,
      "ĠCharles": 5763,
      "Ġstated": 5764,
      "Ġdead": 5765,
      "Ġreached": 5766,
      "Ġhighest": 5767,
      "Ġign": 5768,
      "oder": 5769,
      "house": 5770,
      "Ġquarter": 5771,
      "criptor": 5772,
      "Ġcollabor": 5773,
      "'),": 5774,
      "73": 5775,
      "Ġcharge": 5776,
      "86": 5777,
      "UM": 5778,
      "Offset": 5779,
      "Ġnothing": 5780,
      "Ġreplaced": 5781,
      "bes": 5782,
      "ĠRussia": 5783,
      "Ġpeak": 5784,
      "igan": 5785,
      "rong": 5786,
      "Ġemail": 5787,
      "ynch": 5788,
      "Ġdeliver": 5789,
      "ydro": 5790,
      "Ġhum": 5791,
      "clude": 5792,
      "Ġprep": 5793,
      "anda": 5794,
      "Ġstructures": 5795,
      "Ġcounter": 5796,
      "Te": 5797,
      "ĠRecords": 5798,
      "free": 5799,
      "Op": 5800,
      "tml": 5801,
      "EM": 5802,
      "Ġitems": 5803,
      "Ġtrade": 5804,
      "ĠBoard": 5805,
      "71": 5806,
      "ĠLos": 5807,
      "Ġability": 5808,
      "()->": 5809,
      "GB": 5810,
      "Types": 5811,
      "inger": 5812,
      "Ġeditor": 5813,
      "osh": 5814,
      "control": 5815,
      "fs": 5816,
      "ĠWomen": 5817,
      "Ġpen": 5818,
      "Ġproper": 5819,
      "ecution": 5820,
      "Ġgenerally": 5821,
      "ĠYour": 5822,
      "Ġtraditional": 5823,
      "require": 5824,
      "ĠZeal": 5825,
      "Ġhandle": 5826,
      "Ġcells": 5827,
      "Ġshape": 5828,
      "Ġlisted": 5829,
      "allel": 5830,
      "Ġappears": 5831,
      "bool": 5832,
      "Ġfloat": 5833,
      "Ġleader": 5834,
      "Ġempty": 5835,
      "Ġwanted": 5836,
      "Ġcop": 5837,
      "Rev": 5838,
      "parse": 5839,
      "matrix": 5840,
      "ĠMass": 5841,
      "Ġartist": 5842,
      "Ġdecided": 5843,
      "azz": 5844,
      "agger": 5845,
      "Ġattention": 5846,
      "({\\": 5847,
      "Port": 5848,
      "Ġfriends": 5849,
      "icks": 5850,
      "Ġenjoy": 5851,
      "ĠRel": 5852,
      "Ġ!==": 5853,
      "Ġforms": 5854,
      "ĠPo": 5855,
      "akers": 5856,
      "Ġleave": 5857,
      "ĠCD": 5858,
      "adow": 5859,
      "IF": 5860,
      "Ġveloc": 5861,
      "ectors": 5862,
      "Location": 5863,
      "********************************": 5864,
      "Ġmovie": 5865,
      "Target": 5866,
      "Ġreceive": 5867,
      "Ġparticularly": 5868,
      "cat": 5869,
      "ĠPeter": 5870,
      "1988": 5871,
      "Ġmanager": 5872,
      "Ġdetermined": 5873,
      "ĠJournal": 5874,
      "Ġargs": 5875,
      "ART": 5876,
      "ĠVer": 5877,
      "Ġanti": 5878,
      "coming": 5879,
      "ĠStar": 5880,
      "ircraft": 5881,
      "ĠZealand": 5882,
      "ĠTO": 5883,
      "imary": 5884,
      "conf": 5885,
      "Ġrepe": 5886,
      "Ġpark": 5887,
      "ĠSecond": 5888,
      "arts": 5889,
      "Ġpartners": 5890,
      "Ġregions": 5891,
      "Ġelected": 5892,
      "CP": 5893,
      "language": 5894,
      "CODE": 5895,
      "}+\\": 5896,
      "spect": 5897,
      "Ġmis": 5898,
      "={": 5899,
      "tty": 5900,
      "Enc": 5901,
      "Ġpresence": 5902,
      "Ġapplications": 5903,
      "NE": 5904,
      "Tree": 5905,
      "Ġcompl": 5906,
      "iny": 5907,
      "tog": 5908,
      "gate": 5909,
      "Ġswitch": 5910,
      "Entity": 5911,
      "tex": 5912,
      "ĠFoundation": 5913,
      "Ġfigure": 5914,
      "Ġlives": 5915,
      "Ġotherwise": 5916,
      "ĠFlorida": 5917,
      "Ġgrant": 5918,
      "operatorname": 5919,
      "omial": 5920,
      "hspace": 5921,
      "rees": 5922,
      "Ġorigin": 5923,
      "Ġnegative": 5924,
      "BO": 5925,
      "Ġillust": 5926,
      "Ġpressure": 5927,
      "modal": 5928,
      "Ġearn": 5929,
      "Ġprograms": 5930,
      "Ġbuildings": 5931,
      "ĠMo": 5932,
      "Ġmeeting": 5933,
      "ĠGovernment": 5934,
      "Ġeconomic": 5935,
      "Current": 5936,
      "'$": 5937,
      "ounds": 5938,
      "Ġbelong": 5939,
      "umerate": 5940,
      "site": 5941,
      "More": 5942,
      "ĠField": 5943,
      "ULT": 5944,
      "Note": 5945,
      "ĠUnder": 5946,
      "root": 5947,
      "ĠRichard": 5948,
      "ĠBase": 5949,
      "mitted": 5950,
      "room": 5951,
      "before": 5952,
      "ĠAv": 5953,
      "Ġbal": 5954,
      "Ġstudied": 5955,
      "Ġalbums": 5956,
      "1987": 5957,
      "ĠNS": 5958,
      "Ġprice": 5959,
      "kind": 5960,
      "RL": 5961,
      "Ġshot": 5962,
      "ĠLong": 5963,
      "mut": 5964,
      "ĠCongress": 5965,
      "omic": 5966,
      "%;": 5967,
      "fg": 5968,
      "border": 5969,
      "patch": 5970,
      "Ġchem": 5971,
      "Ġprojects": 5972,
      "crete": 5973,
      "Ġmovement": 5974,
      "Direct": 5975,
      "Ġcore": 5976,
      "ady": 5977,
      "Ġtrying": 5978,
      "ĠProject": 5979,
      "stylesheet": 5980,
      "pg": 5981,
      ")/": 5982,
      "vector": 5983,
      "Ġevolution": 5984,
      "ĠÎ": 5985,
      "real": 5986,
      "uint": 5987,
      "Net": 5988,
      "etime": 5989,
      "Ġvariety": 5990,
      "Ġspent": 5991,
      "uri": 5992,
      "Ġquestions": 5993,
      "ollowing": 5994,
      "Ġcollege": 5995,
      "MD": 5996,
      "rics": 5997,
      "Ġeventually": 5998,
      "Ġslow": 5999,
      "ibly": 6000,
      "Ġexception": 6001,
      "Ġexam": 6002,
      "Entry": 6003,
      "Ġblue": 6004,
      "ĠLake": 6005,
      "artifactId": 6006,
      "icrosoft": 6007,
      "Utils": 6008,
      "=#": 6009,
      "Ġvan": 6010,
      "pes": 6011,
      "Ġdrug": 6012,
      "Ġoffset": 6013,
      "Ġrequires": 6014,
      "ĠDev": 6015,
      "Ġoffers": 6016,
      "]);": 6017,
      "ĠBusiness": 6018,
      "ĠMost": 6019,
      "Ġpanel": 6020,
      "ĠIll": 6021,
      "Ġfavor": 6022,
      "heast": 6023,
      "(_": 6024,
      "oi": 6025,
      "unched": 6026,
      "Ġappointed": 6027,
      "ils": 6028,
      "Ġprofile": 6029,
      "cache": 6030,
      "Ġuint": 6031,
      "=\"../../../../../../": 6032,
      "Ġprotect": 6033,
      "acement": 6034,
      "Ġplaced": 6035,
      "Ġequations": 6036,
      "window": 6037,
      "Ġscope": 6038,
      "DD": 6039,
      "ĠParis": 6040,
      "after": 6041,
      "ĠCommittee": 6042,
      "Ġmut": 6043,
      "olute": 6044,
      "dist": 6045,
      "Interface": 6046,
      "]$": 6047,
      "ĠTop": 6048,
      "Ġrepresented": 6049,
      "ien": 6050,
      "Ġguitar": 6051,
      "Ġanything": 6052,
      "Local": 6053,
      "abit": 6054,
      "|^": 6055,
      "ĠTherefore": 6056,
      "approx": 6057,
      "Ġcompetition": 6058,
      "Ġfix": 6059,
      "ĠSummer": 6060,
      "olec": 6061,
      "scal": 6062,
      "$(": 6063,
      "Mark": 6064,
      "Ġclean": 6065,
      "ipl": 6066,
      "ĠFootball": 6067,
      "ĠLand": 6068,
      "Ġbus": 6069,
      "Track": 6070,
      "Ġgreen": 6071,
      "Ġextension": 6072,
      "dimensional": 6073,
      "ĠTwo": 6074,
      "Ġsch": 6075,
      "Ġdescribe": 6076,
      "Ġobj": 6077,
      "Ġoccup": 6078,
      "Ġrecon": 6079,
      "Ġdenote": 6080,
      "Ġbeaut": 6081,
      "Height": 6082,
      "Ġfoot": 6083,
      "Ġfourth": 6084,
      "Process": 6085,
      "Ġeverything": 6086,
      "\\\"": 6087,
      "apse": 6088,
      "ker": 6089,
      "bi": 6090,
      "Ġgreater": 6091,
      "Ġstories": 6092,
      "Ġresulting": 6093,
      "Am": 6094,
      "icens": 6095,
      "ĠCre": 6096,
      "ĠDirector": 6097,
      "MO": 6098,
      "ĠUkr": 6099,
      "ifest": 6100,
      "Ġhighly": 6101,
      "resents": 6102,
      "Configuration": 6103,
      "Ġlen": 6104,
      "Ġimprove": 6105,
      "olved": 6106,
      "pop": 6107,
      "Ġseek": 6108,
      "Window": 6109,
      "Ġshared": 6110,
      "ussian": 6111,
      "allery": 6112,
      "neq": 6113,
      "erry": 6114,
      "Ġequivalent": 6115,
      "Ġgoes": 6116,
      "Ġsometimes": 6117,
      "Ġproduce": 6118,
      "Ġlayer": 6119,
      "Dec": 6120,
      "returns": 6121,
      "Copy": 6122,
      "Ġratio": 6123,
      "Ġbuffer": 6124,
      "ellig": 6125,
      "writ": 6126,
      "Ġnearly": 6127,
      "Ġcit": 6128,
      "Ġdestroy": 6129,
      "ĠDen": 6130,
      "Ġreduced": 6131,
      "arl": 6132,
      "Ġelectric": 6133,
      "ocation": 6134,
      "Ġsummer": 6135,
      "Ġones": 6136,
      "Header": 6137,
      "Ġadopt": 6138,
      "84": 6139,
      "Ġgrand": 6140,
      "Ġnet": 6141,
      "ĉĉĊ": 6142,
      "Ã³n": 6143,
      "Ġchoose": 6144,
      "Position": 6145,
      "Ġconvert": 6146,
      "aved": 6147,
      "ĠGeorg": 6148,
      "Ġextended": 6149,
      "ariant": 6150,
      "ĠDE": 6151,
      "oration": 6152,
      "Ġeasily": 6153,
      "ĠEngine": 6154,
      "inder": 6155,
      "igr": 6156,
      "IB": 6157,
      "82": 6158,
      "Ġscript": 6159,
      "prototype": 6160,
      "VAL": 6161,
      "Ġmur": 6162,
      "Then": 6163,
      "Ġbrother": 6164,
      "Ġchain": 6165,
      "Ġsituation": 6166,
      "agment": 6167,
      "Schema": 6168,
      "Parameter": 6169,
      "inem": 6170,
      "buffer": 6171,
      "graph": 6172,
      "ĠChicago": 6173,
      "Ġattribute": 6174,
      "irus": 6175,
      "even": 6176,
      "flict": 6177,
      "Ġsecret": 6178,
      "Module": 6179,
      "pers": 6180,
      "Ġarguments": 6181,
      "}-\\": 6182,
      "ZE": 6183,
      "Ġincor": 6184,
      "ĠReturns": 6185,
      "abilities": 6186,
      "sych": 6187,
      "eds": 6188,
      "ĠTHE": 6189,
      "Ġpaint": 6190,
      "Ġparents": 6191,
      "task": 6192,
      "1986": 6193,
      "ĠTimes": 6194,
      "Record": 6195,
      "Ġbottom": 6196,
      "Ġcaused": 6197,
      "Ġplays": 6198,
      "ĠAngeles": 6199,
      "Inst": 6200,
      "ĠAtl": 6201,
      "alysis": 6202,
      "Ġlock": 6203,
      "Ġ{}": 6204,
      "PL": 6205,
      "groupId": 6206,
      "ĠAlso": 6207,
      "Ġsomeone": 6208,
      "ĠBrown": 6209,
      "ĠIreland": 6210,
      "89": 6211,
      "ĠIts": 6212,
      "Project": 6213,
      "rule": 6214,
      "Ġneighbor": 6215,
      "lam": 6216,
      "ĠDu": 6217,
      "ĉĠ": 6218,
      "CS": 6219,
      "ĠGen": 6220,
      "ato": 6221,
      "Ġpadding": 6222,
      "esh": 6223,
      "Ġnodes": 6224,
      "\"))": 6225,
      "Ġinteresting": 6226,
      "ĠPan": 6227,
      "ĠVictor": 6228,
      "Ġessential": 6229,
      "Ġhyp": 6230,
      "Ġhope": 6231,
      "'m": 6232,
      "Ġdisease": 6233,
      "BJ": 6234,
      "ictionary": 6235,
      "ĠEducation": 6236,
      "Ġestimate": 6237,
      "Level": 6238,
      "atest": 6239,
      "Ġgets": 6240,
      "erc": 6241,
      "}}{\\": 6242,
      "xspace": 6243,
      "oute": 6244,
      "yan": 6245,
      "1984": 6246,
      "Ġimplies": 6247,
      "Ġnoted": 6248,
      "Ġfrequency": 6249,
      "theorem": 6250,
      "razil": 6251,
      "shire": 6252,
      "Container": 6253,
      "Ġplans": 6254,
      "Ġassess": 6255,
      "Ġstrategy": 6256,
      "ĠArts": 6257,
      "Our": 6258,
      "Ġdetermine": 6259,
      "cles": 6260,
      "ĠSil": 6261,
      "Ġperfect": 6262,
      "ror": 6263,
      "war": 6264,
      "Ġimmediately": 6265,
      "Ġbasic": 6266,
      "DA": 6267,
      "venue": 6268,
      "ĠĠĠĠĠĠĠĠĠĠĠĠĠĠĠĠĠĠĠĠĠ": 6269,
      "high": 6270,
      "Ġnorm": 6271,
      "rep": 6272,
      "Ġoriginally": 6273,
      "scr": 6274,
      "ĠTim": 6275,
      "ĠCam": 6276,
      "token": 6277,
      "auth": 6278,
      "tim": 6279,
      "aming": 6280,
      "Ġ::": 6281,
      "INT": 6282,
      "Ġstations": 6283,
      "ĠName": 6284,
      "ervation": 6285,
      "Hash": 6286,
      "Ġlatest": 6287,
      "Ġcoeff": 6288,
      "car": 6289,
      "ĠVirginia": 6290,
      "ola": 6291,
      "orning": 6292,
      "ernel": 6293,
      "entity": 6294,
      "second": 6295,
      "Ġapprop": 6296,
      "Ġcategory": 6297,
      "ĠSocial": 6298,
      "ĠBi": 6299,
      "Ġneut": 6300,
      "Ġcontaining": 6301,
      "docs": 6302,
      "actor": 6303,
      "]\\": 6304,
      "orter": 6305,
      "IGN": 6306,
      "ĠPenn": 6307,
      "erg": 6308,
      "ĠCast": 6309,
      "Ġroute": 6310,
      "Ġapproximately": 6311,
      "resource": 6312,
      "Äģ": 6313,
      "ĠFilm": 6314,
      "Ġbey": 6315,
      "Ġgoals": 6316,
      "itors": 6317,
      "apers": 6318,
      "isher": 6319,
      "Sy": 6320,
      "olk": 6321,
      "ĠKn": 6322,
      "iques": 6323,
      "Ġspectrum": 6324,
      "ĠUs": 6325,
      "Ġdemand": 6326,
      "ĠSund": 6327,
      "ĠProfess": 6328,
      "ugins": 6329,
      "Ġquickly": 6330,
      "Pat": 6331,
      "Ġfactors": 6332,
      "1985": 6333,
      "isms": 6334,
      "Ġpackage": 6335,
      "oral": 6336,
      "Ġshoot": 6337,
      "Ġindividuals": 6338,
      "ĠMax": 6339,
      "Ġagreement": 6340,
      "Ġpull": 6341,
      "ĠForce": 6342,
      "87": 6343,
      "Ġstra": 6344,
      "Ġminor": 6345,
      "Ġenter": 6346,
      "linear": 6347,
      "Ġsurround": 6348,
      "ĠTour": 6349,
      "Ġbeyond": 6350,
      "Empty": 6351,
      "Ġminimum": 6352,
      "Ġisn": 6353,
      "rolled": 6354,
      "Ġcommunities": 6355,
      "Ġremaining": 6356,
      "atically": 6357,
      "ĠOffice": 6358,
      "Ġrecords": 6359,
      "Pi": 6360,
      "icker": 6361,
      "Ġcompletely": 6362,
      "Json": 6363,
      "Ġslight": 6364,
      "Ġopening": 6365,
      "MN": 6366,
      "TV": 6367,
      "Ġremoved": 6368,
      "Ġsaying": 6369,
      "Ġinstr": 6370,
      "ja": 6371,
      "Ġmatches": 6372,
      "Write": 6373,
      "ALL": 6374,
      "Ġbrand": 6375,
      "Ġidentity": 6376,
      "Ġmagnetic": 6377,
      "ĠSpr": 6378,
      "ategories": 6379,
      "Ġshowed": 6380,
      "Ġuniform": 6381,
      "tains": 6382,
      "Ġalt": 6383,
      "icine": 6384,
      "Ġuseful": 6385,
      "Ġcook": 6386,
      "Ġraise": 6387,
      "enumerate": 6388,
      "Ġtests": 6389,
      "ĠAssembly": 6390,
      "Ð»": 6391,
      "Ġerrors": 6392,
      "device": 6393,
      "arant": 6394,
      "Ev": 6395,
      "success": 6396,
      "Ġrates": 6397,
      "Thread": 6398,
      "ĠCreate": 6399,
      "icons": 6400,
      "ĠSpanish": 6401,
      "ĠCheck": 6402,
      "Ġwave": 6403,
      "Ġtouch": 6404,
      "Ġworkers": 6405,
      "utch": 6406,
      "Http": 6407,
      "ĠHead": 6408,
      "Ġ-\\": 6409,
      "Ġcommercial": 6410,
      "dim": 6411,
      "card": 6412,
      "vision": 6413,
      "ĠSun": 6414,
      "Ġfarm": 6415,
      "ologies": 6416,
      "bootstrap": 6417,
      "clos": 6418,
      "dule": 6419,
      "Ġlatter": 6420,
      "onder": 6421,
      "debug": 6422,
      "Ġspread": 6423,
      "Ġcorn": 6424,
      "Ã¨": 6425,
      "ifications": 6426,
      "ĠOrder": 6427,
      "rome": 6428,
      "COLOR": 6429,
      "Ġalumni": 6430,
      "Ġexplicit": 6431,
      "Ġsal": 6432,
      "Change": 6433,
      "ĠAlthough": 6434,
      ">,": 6435,
      "range": 6436,
      "Ġshift": 6437,
      "reshold": 6438,
      "'ve": 6439,
      "iled": 6440,
      "ĠTeam": 6441,
      "ĠNetwork": 6442,
      "sect": 6443,
      "irmed": 6444,
      "enty": 6445,
      "ĠFre": 6446,
      "ensions": 6447,
      "plet": 6448,
      "cz": 6449,
      "Down": 6450,
      "Ġcritic": 6451,
      "leep": 6452,
      "ĠMur": 6453,
      "Ġworth": 6454,
      "oting": 6455,
      "hash": 6456,
      "Ġcomputer": 6457,
      "Params": 6458,
      "rect": 6459,
      "umin": 6460,
      "ĠTre": 6461,
      "Ġturned": 6462,
      "nel": 6463,
      "ĠOh": 6464,
      "ĠMa": 6465,
      "Ġfootballers": 6466,
      "Ġmoving": 6467,
      "ĠItaly": 6468,
      "Callback": 6469,
      "Here": 6470,
      "ĠGener": 6471,
      "Ġdu": 6472,
      "TC": 6473,
      "ĠMexico": 6474,
      "Ġmission": 6475,
      "cribe": 6476,
      "apped": 6477,
      "itemize": 6478,
      "asion": 6479,
      "None": 6480,
      "IST": 6481,
      "Ġlibrary": 6482,
      "---": 6483,
      "Ġtemplate": 6484,
      "Ġreduce": 6485,
      "Right": 6486,
      "ĠShow": 6487,
      "Ġidentified": 6488,
      "found": 6489,
      "SL": 6490,
      "Ġnoise": 6491,
      "gence": 6492,
      ":(": 6493,
      "Ġbeg": 6494,
      "ĠOlympics": 6495,
      "Ke": 6496,
      "coll": 6497,
      "material": 6498,
      "Ġ*)": 6499,
      "rait": 6500,
      "Ã§": 6501,
      "while": 6502,
      "asy": 6503,
      "Ġhyper": 6504,
      "Ġgiving": 6505,
      "Results": 6506,
      "afe": 6507,
      "Ġscene": 6508,
      "ockey": 6509,
      "make": 6510,
      "Ġactions": 6511,
      "ACK": 6512,
      "Range": 6513,
      "ĠCatholic": 6514,
      "ĠPet": 6515,
      "endar": 6516,
      "del": 6517,
      "Ġutil": 6518,
      "Ġcapacity": 6519,
      "amm": 6520,
      "ĠFestival": 6521,
      "Ġfair": 6522,
      "norm": 6523,
      "Settings": 6524,
      "Ġsafety": 6525,
      "\"));": 6526,
      "Prot": 6527,
      "Ġdistributed": 6528,
      "ĠSecret": 6529,
      "ashed": 6530,
      "Ġpri": 6531,
      "ĠTrump": 6532,
      "ĠPeople": 6533,
      "Ġproviding": 6534,
      "xx": 6535,
      "Pop": 6536,
      "tf": 6537,
      "Ġalgebra": 6538,
      "Pass": 6539,
      "ĠĠĠĊ": 6540,
      "system": 6541,
      "cope": 6542,
      "Ġsmooth": 6543,
      "Stat": 6544,
      "Ġsufficient": 6545,
      "ĠOR": 6546,
      "Ġbroadcast": 6547,
      "Ġaffect": 6548,
      "Ġinfo": 6549,
      "Ġpoor": 6550,
      "ĠBre": 6551,
      "Ġprocesses": 6552,
      "ali": 6553,
      "Ġstraight": 6554,
      "Ġsettings": 6555,
      "itation": 6556,
      "1983": 6557,
      "ĠSol": 6558,
      "equal": 6559,
      "Connection": 6560,
      "Ġdou": 6561,
      "ima": 6562,
      "Ġpurpose": 6563,
      "Ġvoc": 6564,
      "Ġhousehold": 6565,
      "MC": 6566,
      "ĠPlay": 6567,
      "reedom": 6568,
      "ĠBas": 6569,
      "Ġacadem": 6570,
      "urren": 6571,
      "Ġsamples": 6572,
      "TI": 6573,
      "1950": 6574,
      "Ġtesting": 6575,
      "Art": 6576,
      "Ġdimension": 6577,
      "Ġreports": 6578,
      "bing": 6579,
      "Ġconcent": 6580,
      "Ġamb": 6581,
      "Ġwind": 6582,
      "Ġmunic": 6583,
      "Ġmajority": 6584,
      "Ġfeatured": 6585,
      "ĠMap": 6586,
      "Mult": 6587,
      "Ġsteps": 6588,
      "Ġvacc": 6589,
      "ĠCall": 6590,
      "Menu": 6591,
      "ĠDevelopment": 6592,
      "Ġrepresents": 6593,
      "Ac": 6594,
      "ancing": 6595,
      "ĠFace": 6596,
      "Ġremained": 6597,
      "Ġleads": 6598,
      "Ġsave": 6599,
      "Ġseparate": 6600,
      "tn": 6601,
      "ĠTem": 6602,
      "ĠOl": 6603,
      "Ġfif": 6604,
      "ĠBur": 6605,
      "Dir": 6606,
      "Ġuncertain": 6607,
      "Ġframework": 6608,
      "ĠHot": 6609,
      ")+": 6610,
      "Ġpriv": 6611,
      "hover": 6612,
      "ishes": 6613,
      "Ġvisual": 6614,
      "Ġcluster": 6615,
      "Ġestimated": 6616,
      "hens": 6617,
      "Ġdatabase": 6618,
      "direct": 6619,
      "ustain": 6620,
      ")}{": 6621,
      "ny": 6622,
      "Ðº": 6623,
      "Ġlaunch": 6624,
      "bal": 6625,
      "Ġcert": 6626,
      "kin": 6627,
      "oday": 6628,
      "ĠLine": 6629,
      "ĠHenry": 6630,
      "cp": 6631,
      "ĠĠĠĠĠĠĠĠĠĠĠĠĠĠĠĠĠĠĠĠĠĠĠĠĠĠĠĠĠĠĠĠĠĠĠĠĠĠĠ": 6632,
      "Ġconsists": 6633,
      "Don": 6634,
      "Ġvelocity": 6635,
      "ĠOld": 6636,
      "Ġchosen": 6637,
      "Ġunknown": 6638,
      "ĠEconom": 6639,
      "Ġscheme": 6640,
      "Ġgeneration": 6641,
      "():": 6642,
      "kins": 6643,
      "ĠChild": 6644,
      "Ne": 6645,
      "'.": 6646,
      "ĠGame": 6647,
      "people": 6648,
      "Ġinform": 6649,
      "Ġcarry": 6650,
      "Ġfilename": 6651,
      "Ġsites": 6652,
      "ĠRun": 6653,
      "iable": 6654,
      "aste": 6655,
      "Ġclassical": 6656,
      "Ġ>=": 6657,
      "Ġclin": 6658,
      "Ġheavy": 6659,
      "Other": 6660,
      "ĠCarolina": 6661,
      "ĠIS": 6662,
      "ona": 6663,
      "Ġcouple": 6664,
      "Ġlaunched": 6665,
      "Ġolder": 6666,
      "Ġfederal": 6667,
      "Ġaircraft": 6668,
      "Ġrespond": 6669,
      "dest": 6670,
      "atalog": 6671,
      ")}$": 6672,
      "Ġ\"\\": 6673,
      "iro": 6674,
      "Font": 6675,
      "%%": 6676,
      "wa": 6677,
      "ursor": 6678,
      "andemic": 6679,
      "Ġmentioned": 6680,
      "Ġinterpret": 6681,
      "ifies": 6682,
      "ĠYoung": 6683,
      "Option": 6684,
      "Ġimplementation": 6685,
      "Dep": 6686,
      "83": 6687,
      "elled": 6688,
      "DIR": 6689,
      "Ġeveryone": 6690,
      "Ġexactly": 6691,
      "ĠChief": 6692,
      "white": 6693,
      "Cal": 6694,
      "coin": 6695,
      "panel": 6696,
      "focus": 6697,
      "\\,\\": 6698,
      "81": 6699,
      "Ġbrief": 6700,
      "While": 6701,
      "ko": 6702,
      "Ġannual": 6703,
      "Sign": 6704,
      "$}": 6705,
      "Ġmachine": 6706,
      "IA": 6707,
      "Me": 6708,
      "rich": 6709,
      "Use": 6710,
      "ĠGa": 6711,
      "ĠMartin": 6712,
      "ĠKh": 6713,
      "ĠDate": 6714,
      "iana": 6715,
      "UP": 6716,
      "aka": 6717,
      "sv": 6718,
      "1982": 6719,
      "ĠBG": 6720,
      "riage": 6721,
      "vspace": 6722,
      "ä¸": 6723,
      "noindent": 6724,
      "John": 6725,
      "Ġinteraction": 6726,
      "ads": 6727,
      "ĠScot": 6728,
      "Ġxml": 6729,
      "Ġflag": 6730,
      "Ġcru": 6731,
      "Ġecho": 6732,
      "Ġwinning": 6733,
      "mode": 6734,
      "asure": 6735,
      "cons": 6736,
      "AND": 6737,
      "(:": 6738,
      "annels": 6739,
      "osis": 6740,
      "Ġaspect": 6741,
      "Ġserious": 6742,
      "undred": 6743,
      "Ġbranch": 6744,
      "igration": 6745,
      "ĠHome": 6746,
      "ĠMedia": 6747,
      "interface": 6748,
      "Ġ\\|": 6749,
      "arc": 6750,
      "Match": 6751,
      "uls": 6752,
      "Ġinfluence": 6753,
      "Ġexamples": 6754,
      "Properties": 6755,
      "ĠLee": 6756,
      "ATA": 6757,
      "structor": 6758,
      "ĠGood": 6759,
      "Ġsea": 6760,
      "AGE": 6761,
      "Are": 6762,
      "riend": 6763,
      "Ġhash": 6764,
      "Ġnative": 6765,
      "Ġparams": 6766,
      "haps": 6767,
      ":\"": 6768,
      "alo": 6769,
      "Ġcalls": 6770,
      "Ġconsequ": 6771,
      "sur": 6772,
      "Long": 6773,
      "ws": 6774,
      "Ġeth": 6775,
      "ĠLu": 6776,
      "env": 6777,
      "weet": 6778,
      "ĠUSA": 6779,
      "Ġsynt": 6780,
      "ĠSwed": 6781,
      "Ġscored": 6782,
      "Ġvoice": 6783,
      "Ġoverride": 6784,
      "Serial": 6785,
      "ture": 6786,
      "ĠPy": 6787,
      "footer": 6788,
      "ipe": 6789,
      "Ġresponsible": 6790,
      "Ġcreating": 6791,
      "ĠMil": 6792,
      "Ġgenerate": 6793,
      "'ll": 6794,
      "Ġexpansion": 6795,
      "Ġprefer": 6796,
      "255": 6797,
      "Ġoperators": 6798,
      "acific": 6799,
      "copy": 6800,
      "Ġwood": 6801,
      "Year": 6802,
      "ĠLove": 6803,
      "Async": 6804,
      "ĠAssert": 6805,
      "Ġsquare": 6806,
      "ĠAwards": 6807,
      "bas": 6808,
      "Ġthr": 6809,
      "Ġagent": 6810,
      "Operation": 6811,
      "Document": 6812,
      "ECT": 6813,
      "rot": 6814,
      "?:": 6815,
      "Ġrelevant": 6816,
      "cient": 6817,
      "ĠException": 6818,
      "Ġenh": 6819,
      "inations": 6820,
      "owers": 6821,
      "Ġderived": 6822,
      "ĠNOT": 6823,
      "Ġfirm": 6824,
      "Ġhop": 6825,
      "Ġunion": 6826,
      "ĠSte": 6827,
      "Ġthread": 6828,
      "Dat": 6829,
      "Non": 6830,
      "ctx": 6831,
      "Ġoccur": 6832,
      "ribution": 6833,
      "EC": 6834,
      "gest": 6835,
      "Ġawarded": 6836,
      "ĠVis": 6837,
      "ĠJun": 6838,
      "anks": 6839,
      "Title": 6840,
      "cur": 6841,
      "Tim": 6842,
      "Ġjoint": 6843,
      "Ġvote": 6844,
      "Ġmotion": 6845,
      "}}_": 6846,
      "udget": 6847,
      "Ġopportunity": 6848,
      "1979": 6849,
      "ĠFort": 6850,
      "join": 6851,
      "Ġstrict": 6852,
      "ĠMethod": 6853,
      "Ġtraff": 6854,
      "Ġtra": 6855,
      "Ġended": 6856,
      "Ġhar": 6857,
      "ĠEarth": 6858,
      "Impl": 6859,
      "step": 6860,
      "Ġsurpr": 6861,
      "Ġ_{": 6862,
      "dx": 6863,
      "Ġdespite": 6864,
      "Integer": 6865,
      "NavBar": 6866,
      "oret": 6867,
      "ultural": 6868,
      "Left": 6869,
      "Ġmostly": 6870,
      "care": 6871,
      "Ġforeign": 6872,
      "ĠLibrary": 6873,
      "Ġclimate": 6874,
      "!!": 6875,
      "ĠHamilton": 6876,
      "Ġpoll": 6877,
      "send": 6878,
      "ifically": 6879,
      "150": 6880,
      "vas": 6881,
      "\\}$": 6882,
      "Ġtransaction": 6883,
      "ĠMov": 6884,
      "access": 6885,
      "Ġbillion": 6886,
      "Ġbattle": 6887,
      "Ġdiscussed": 6888,
      "ishop": 6889,
      "ĠBet": 6890,
      "Ġiniti": 6891,
      "Su": 6892,
      "bind": 6893,
      "enum": 6894,
      "iciency": 6895,
      "ults": 6896,
      "Ġeigen": 6897,
      "Ġtoken": 6898,
      "Ġserve": 6899,
      "ĠTrue": 6900,
      "aser": 6901,
      "poses": 6902,
      "Person": 6903,
      "Ġroll": 6904,
      "auge": 6905,
      "wan": 6906,
      "Ġsignificantly": 6907,
      "Ġdrive": 6908,
      "Ġmeasures": 6909,
      "mann": 6910,
      "Ġprison": 6911,
      "oviet": 6912,
      "Session": 6913,
      "Ġbuy": 6914,
      "Definition": 6915,
      "Ġmedal": 6916,
      "arden": 6917,
      "iral": 6918,
      "Ġadvant": 6919,
      "ĠHaw": 6920,
      "Ġcoast": 6921,
      "}'": 6922,
      "Ġstrateg": 6923,
      "ĠRegister": 6924,
      ";\"": 6925,
      "Ġwhom": 6926,
      "uly": 6927,
      "ati": 6928,
      "Ġencour": 6929,
      "legal": 6930,
      "Ġletter": 6931,
      "aws": 6932,
      "Po": 6933,
      "internal": 6934,
      "cut": 6935,
      "Ġliterature": 6936,
      "click": 6937,
      "stitution": 6938,
      "faces": 6939,
      "ynomial": 6940,
      "Ġdistinct": 6941,
      "ĠServices": 6942,
      "WE": 6943,
      "Ġbasketball": 6944,
      "avity": 6945,
      "=\"/": 6946,
      "Ġreflect": 6947,
      "ĠLin": 6948,
      "Ġtrust": 6949,
      "Ġjav": 6950,
      "ĠPubl": 6951,
      "Ġsociety": 6952,
      "isters": 6953,
      "va": 6954,
      "disabled": 6955,
      "Ġcontrast": 6956,
      "address": 6957,
      "Ġcomparison": 6958,
      "~~~~": 6959,
      "Ġefforts": 6960,
      "ĠSpe": 6961,
      "idae": 6962,
      "Ġattr": 6963,
      "Expression": 6964,
      "mazon": 6965,
      "Ġorganizations": 6966,
      "Ġchief": 6967,
      "Red": 6968,
      "Que": 6969,
      "DS": 6970,
      "zing": 6971,
      "adium": 6972,
      "usband": 6973,
      "blockList": 6974,
      "Ġedition": 6975,
      "ĠJim": 6976,
      "Store": 6977,
      "1981": 6978,
      "ĠUse": 6979,
      "ĠEr": 6980,
      "hy": 6981,
      "Ġarm": 6982,
      "Xml": 6983,
      "uty": 6984,
      "ested": 6985,
      "component": 6986,
      "Ġsenior": 6987,
      "Ġnetworks": 6988,
      "ĠIran": 6989,
      "Ġsales": 6990,
      "Ġappearance": 6991,
      "Ġfans": 6992,
      "###": 6993,
      "ĠEqu": 6994,
      "Ġsinger": 6995,
      "Ġmaterials": 6996,
      "}}}": 6997,
      "ĠTechnology": 6998,
      "transform": 6999,
      "Ġmaster": 7000,
      "&#": 7001,
      "'>": 7002,
      "Ġblood": 7003,
      "Ġactor": 7004,
      "ĠBob": 7005,
      "Ġcandidate": 7006,
      "ĠColor": 7007,
      "LS": 7008,
      "Ġ['": 7009,
      "PH": 7010,
      "duced": 7011,
      "cean": 7012,
      "Ġmill": 7013,
      "bitr": 7014,
      "Ġcontinuous": 7015,
      "Sk": 7016,
      "trm": 7017,
      "ĠEach": 7018,
      "Ġdivision": 7019,
      "ĠStep": 7020,
      "lines": 7021,
      "Ġwild": 7022,
      "ĠĠĠĠĠĠĊ": 7023,
      "Sm": 7024,
      "Ġspaces": 7025,
      "Ġraised": 7026,
      "Ġgrowing": 7027,
      "ests": 7028,
      "ulk": 7029,
      "ĠValley": 7030,
      "Ġsplit": 7031,
      "Ġplot": 7032,
      "widget": 7033,
      "power": 7034,
      "ĠFurther": 7035,
      "Ø§": 7036,
      "lie": 7037,
      "hem": 7038,
      "ĠMos": 7039,
      "delete": 7040,
      "ĠWood": 7041,
      "Ġer": 7042,
      "iminal": 7043,
      "ĠSu": 7044,
      "ĠUN": 7045,
      "Draw": 7046,
      "icity": 7047,
      "Ġ(-": 7048,
      "textrm": 7049,
      "ĠJud": 7050,
      "ansas": 7051,
      "global": 7052,
      "Ġharm": 7053,
      "Dom": 7054,
      "Ġformation": 7055,
      "urred": 7056,
      "Ġnation": 7057,
      "Ġwrong": 7058,
      "ĠJo": 7059,
      "ĠElect": 7060,
      "types": 7061,
      "ĠTheir": 7062,
      "1978": 7063,
      "Ġcombined": 7064,
      "Ġtools": 7065,
      "Ġtheorem": 7066,
      "deg": 7067,
      "export": 7068,
      "Ġtournament": 7069,
      "ĠWell": 7070,
      "Ġimag": 7071,
      "ĠEnter": 7072,
      "Ġhands": 7073,
      "Sum": 7074,
      "Ġstorage": 7075,
      "Ġowner": 7076,
      "1972": 7077,
      "ĠArab": 7078,
      "ĠLi": 7079,
      "La": 7080,
      "Host": 7081,
      "Core": 7082,
      "Ġmetric": 7083,
      "ĠOp": 7084,
      "Ġhelped": 7085,
      "Ġexternal": 7086,
      "UB": 7087,
      "uations": 7088,
      "black": 7089,
      "Helper": 7090,
      "Ġmaps": 7091,
      "aters": 7092,
      "Ġfelt": 7093,
      "Order": 7094,
      "eries": 7095,
      "Ġwor": 7096,
      "media": 7097,
      "ĠĠĠĠĠĠĠĠĠĠĠĠĠĠĠĠĠĠĠĠ": 7098,
      "ixel": 7099,
      "osoph": 7100,
      "=\"_": 7101,
      "Ġmixed": 7102,
      "ĠModel": 7103,
      "anging": 7104,
      "iful": 7105,
      "ĠBrazil": 7106,
      "1976": 7107,
      "oles": 7108,
      "iano": 7109,
      "full": 7110,
      "Tool": 7111,
      "Ġextract": 7112,
      "'],": 7113,
      "Ġpartner": 7114,
      "fram": 7115,
      "Template": 7116,
      "Ġhospital": 7117,
      "unities": 7118,
      "pool": 7119,
      "iced": 7120,
      "Ġobservations": 7121,
      "Ġresolution": 7122,
      "WS": 7123,
      "Ġrul": 7124,
      "ĠJoseph": 7125,
      "Ġauthors": 7126,
      "ĠDom": 7127,
      "minus": 7128,
      "Ġalleg": 7129,
      "stone": 7130,
      "ymmet": 7131,
      "These": 7132,
      "ĠEmp": 7133,
      "Ġcustomers": 7134,
      "Ġarrest": 7135,
      "Ġaccom": 7136,
      "ĠIII": 7137,
      "aren": 7138,
      "Ġpiece": 7139,
      "Ġsupply": 7140,
      "texttt": 7141,
      "Ġpan": 7142,
      "ipeline": 7143,
      "Ġphil": 7144,
      "shift": 7145,
      "standing": 7146,
      "TS": 7147,
      "However": 7148,
      "Ġut": 7149,
      "kl": 7150,
      "ira": 7151,
      "contin": 7152,
      "ĠGlobal": 7153,
      "ashion": 7154,
      "Ġsector": 7155,
      "Device": 7156,
      "ĠSaint": 7157,
      "plugin": 7158,
      "ters": 7159,
      "=(": 7160,
      "Ġderiv": 7161,
      "================================": 7162,
      "Ġoil": 7163,
      "ynchron": 7164,
      "Ġplane": 7165,
      "Ġbecoming": 7166,
      "parameter": 7167,
      "OK": 7168,
      "oston": 7169,
      "Sing": 7170,
      "Click": 7171,
      "ynamic": 7172,
      "Ġmusical": 7173,
      "Ġcarried": 7174,
      "DL": 7175,
      "1974": 7176,
      "ographic": 7177,
      "Ġinnov": 7178,
      ".;": 7179,
      "clusive": 7180,
      "Ġcurve": 7181,
      "spe": 7182,
      "sort": 7183,
      "ATH": 7184,
      "~$": 7185,
      "Ġwriters": 7186,
      "Ġ})": 7187,
      "dates": 7188,
      "Ġcosts": 7189,
      "session": 7190,
      "Ver": 7191,
      "XX": 7192,
      "msg": 7193,
      "Ġpoly": 7194,
      "clear": 7195,
      "ĠAsia": 7196,
      "plex": 7197,
      "Il": 7198,
      "edia": 7199,
      "Ġassign": 7200,
      "ĠCON": 7201,
      "Ġple": 7202,
      "front": 7203,
      "Ġappropriate": 7204,
      "STR": 7205,
      "Ġincome": 7206,
      "toString": 7207,
      "Ġremov": 7208,
      "aby": 7209,
      "Ġtrial": 7210,
      "underline": 7211,
      "onym": 7212,
      "Ġonto": 7213,
      "ji": 7214,
      "vania": 7215,
      "handle": 7216,
      "padding": 7217,
      "othes": 7218,
      "Ġcat": 7219,
      "Ġunivers": 7220,
      "Ġsusp": 7221,
      "Ġcos": 7222,
      "Vector": 7223,
      "PECT": 7224,
      "Ġmeasured": 7225,
      "1975": 7226,
      "ader": 7227,
      "ĠEp": 7228,
      "According": 7229,
      "ilarly": 7230,
      "ĠRequ": 7231,
      "ĠManagement": 7232,
      "ĠMath": 7233,
      "Ġcancer": 7234,
      "category": 7235,
      "subseteq": 7236,
      "Ġisland": 7237,
      "-->": 7238,
      "Metadata": 7239,
      "Ġpandemic": 7240,
      "ĠTri": 7241,
      "Ġhence": 7242,
      "ĠPower": 7243,
      "Ġofficer": 7244,
      "etry": 7245,
      "ĠInformation": 7246,
      "ĠCentre": 7247,
      "OM": 7248,
      "phone": 7249,
      "ilation": 7250,
      "ĠJohnson": 7251,
      "Ptr": 7252,
      "fields": 7253,
      "<\\": 7254,
      "Ġpositions": 7255,
      "Reference": 7256,
      "sol": 7257,
      "During": 7258,
      "vol": 7259,
      "aturday": 7260,
      "Ġcentre": 7261,
      "obs": 7262,
      "Ġtypically": 7263,
      "Ġunderstanding": 7264,
      "Ġcloud": 7265,
      "Ġinfin": 7266,
      "ulf": 7267,
      "mond": 7268,
      "Ġowners": 7269,
      "exports": 7270,
      "product": 7271,
      "astr": 7272,
      "Classes": 7273,
      "Ġdelete": 7274,
      "ampion": 7275,
      "lers": 7276,
      "ĠSunday": 7277,
      "Ġoffered": 7278,
      "inant": 7279,
      "}},": 7280,
      "Ġextrem": 7281,
      "Ġmurder": 7282,
      "Ġcombination": 7283,
      "\\'": 7284,
      "Ġcovered": 7285,
      "Ġcitiz": 7286,
      "Ġdevices": 7287,
      "itan": 7288,
      "prod": 7289,
      "ĠBGCOLOR": 7290,
      "icies": 7291,
      "1977": 7292,
      "Ġfailure": 7293,
      "ga": 7294,
      "ĠKey": 7295,
      "Ġintegr": 7296,
      "hs": 7297,
      "men": 7298,
      "ban": 7299,
      "equals": 7300,
      "ĠWeek": 7301,
      "record": 7302,
      "ĠHand": 7303,
      "look": 7304,
      "nap": 7305,
      "inet": 7306,
      "EQ": 7307,
      "Ġriver": 7308,
      "hemat": 7309,
      "Ġforced": 7310,
      "ĠSpecial": 7311,
      "Ġembedd": 7312,
      "ĠConference": 7313,
      "=-": 7314,
      "allow": 7315,
      "ova": 7316,
      "^-": 7317,
      "areer": 7318,
      "CI": 7319,
      "1968": 7320,
      "Ġconsistent": 7321,
      "Ġalone": 7322,
      "Ġidentify": 7323,
      "Ġdepartment": 7324,
      "cf": 7325,
      "Ġrare": 7326,
      "Ġentered": 7327,
      "framework": 7328,
      "req": 7329,
      "Ġthous": 7330,
      "uby": 7331,
      "Ġinteger": 7332,
      "PRE": 7333,
      "Ġcompact": 7334,
      "ellar": 7335,
      "ĠSar": 7336,
      "Home": 7337,
      "Äĩ": 7338,
      "160": 7339,
      "Ġrout": 7340,
      "Ġfine": 7341,
      "ĠView": 7342,
      "Early": 7343,
      "ĠJones": 7344,
      "Ġattract": 7345,
      "Ġpages": 7346,
      "Icon": 7347,
      "rick": 7348,
      "Ġdepends": 7349,
      "Ġanswer": 7350,
      "aylor": 7351,
      "virt": 7352,
      "Ġdetail": 7353,
      "Has": 7354,
      "Sw": 7355,
      "Ġpush": 7356,
      "vm": 7357,
      "Main": 7358,
      "ĠJac": 7359,
      "forms": 7360,
      "Any": 7361,
      "Ġice": 7362,
      "connect": 7363,
      "}^{-": 7364,
      "install": 7365,
      "ermal": 7366,
      "seud": 7367,
      "1973": 7368,
      "Ġstock": 7369,
      "Ġsurvey": 7370,
      "Ġpolitician": 7371,
      "ĠCross": 7372,
      "ĠStand": 7373,
      "Ġinner": 7374,
      "Notes": 7375,
      "ĠFacebook": 7376,
      "Ġintr": 7377,
      "mathscr": 7378,
      "ĠWal": 7379,
      "CTION": 7380,
      "bu": 7381,
      "Ġicon": 7382,
      "ERROR": 7383,
      "Ġconstructed": 7384,
      "Ġprotocol": 7385,
      "lig": 7386,
      "Ġstack": 7387,
      "anguages": 7388,
      "help": 7389,
      "nam": 7390,
      "Ġleaving": 7391,
      "ums": 7392,
      "ĠPak": 7393,
      "chen": 7394,
      "Ñĥ": 7395,
      "iffer": 7396,
      "Ġsafe": 7397,
      "toggle": 7398,
      "Ġexchange": 7399,
      "Ġformula": 7400,
      "ulty": 7401,
      "ĠBack": 7402,
      "ĠLiber": 7403,
      "Ġmolec": 7404,
      "Ġking": 7405,
      "ĠIrish": 7406,
      "custom": 7407,
      "oplus": 7408,
      ";/": 7409,
      "ĠJSON": 7410,
      "ĠTra": 7411,
      "ĠAR": 7412,
      "ĠColumb": 7413,
      "GET": 7414,
      "Names": 7415,
      "Ġforest": 7416,
      "ĠBlue": 7417,
      ";->": 7418,
      "Ġring": 7419,
      "Ġseasons": 7420,
      "ĠNavy": 7421,
      "syl": 7422,
      "Stack": 7423,
      "enter": 7424,
      "inf": 7425,
      "fully": 7426,
      "ĠNorthern": 7427,
      "Iter": 7428,
      "acket": 7429,
      "Each": 7430,
      "Ġarchitecture": 7431,
      "estamp": 7432,
      "rical": 7433,
      "ORD": 7434,
      "Rect": 7435,
      "Ġready": 7436,
      "udio": 7437,
      "ression": 7438,
      "ĠHon": 7439,
      "Parser": 7440,
      "atial": 7441,
      "Ġshowing": 7442,
      "Ġlived": 7443,
      "Ġcontribution": 7444,
      "Cor": 7445,
      "May": 7446,
      "application": 7447,
      "Ġ${": 7448,
      "icip": 7449,
      "ugby": 7450,
      "nections": 7451,
      "ĠPri": 7452,
      "aria": 7453,
      "Ġcool": 7454,
      "ĠIP": 7455,
      "Ġhusband": 7456,
      "ĠBow": 7457,
      "dependency": 7458,
      "gers": 7459,
      "Ġactress": 7460,
      "120": 7461,
      "ĠCard": 7462,
      "Ġlif": 7463,
      "Ġupdated": 7464,
      "ĠSpain": 7465,
      "Ġinher": 7466,
      "Ġfamous": 7467,
      "pute": 7468,
      "Ġcontainer": 7469,
      "unct": 7470,
      "Ġnumerous": 7471,
      "Ġproducer": 7472,
      "ĠTele": 7473,
      "ĠEvent": 7474,
      "ĠRam": 7475,
      "Ġarbitr": 7476,
      "Theta": 7477,
      "ĠBu": 7478,
      "elligence": 7479,
      "going": 7480,
      "Application": 7481,
      "ĠParliament": 7482,
      "Ġran": 7483,
      "Ġrelatively": 7484,
      "ĠAND": 7485,
      "andra": 7486,
      "False": 7487,
      "shot": 7488,
      "Ġloop": 7489,
      "inate": 7490,
      "Ġmanaged": 7491,
      "Ġparties": 7492,
      "Ġstress": 7493,
      "Ġvertex": 7494,
      "cknow": 7495,
      "roph": 7496,
      "Ġdriver": 7497,
      "ĠMichigan": 7498,
      "Ġinitially": 7499,
      "Cre": 7500,
      "ĠCy": 7501,
      "ĠUser": 7502,
      "coq": 7503,
      "Ġrapid": 7504,
      "fn": 7505,
      "Ġradius": 7506,
      "ups": 7507,
      "Ġdynamics": 7508,
      "webkit": 7509,
      "English": 7510,
      "Ġhundred": 7511,
      "Ġvertical": 7512,
      "Ġ$\\{": 7513,
      "Ġwall": 7514,
      "Ġslightly": 7515,
      "Ġmetal": 7516,
      "ORM": 7517,
      "ĠCommunity": 7518,
      "Ġstrength": 7519,
      "multicol": 7520,
      "Ġserial": 7521,
      "claim": 7522,
      "âĢĿ.": 7523,
      "plugins": 7524,
      "1971": 7525,
      "ropy": 7526,
      "Ġflux": 7527,
      "{$": 7528,
      "here": 7529,
      "double": 7530,
      "ador": 7531,
      "Ġinfr": 7532,
      "ester": 7533,
      "ometric": 7534,
      "URE": 7535,
      "miss": 7536,
      "itness": 7537,
      "eting": 7538,
      "ĠFree": 7539,
      "porate": 7540,
      "Ġcities": 7541,
      "secut": 7542,
      "poration": 7543,
      "Ġshop": 7544,
      "inois": 7545,
      "definition": 7546,
      "sylvania": 7547,
      "Ġdiagn": 7548,
      "1969": 7549,
      "stein": 7550,
      "pective": 7551,
      "store": 7552,
      "Ġestablishments": 7553,
      "ĠPop": 7554,
      "ĠMain": 7555,
      "stat": 7556,
      "posite": 7557,
      "Ġdelay": 7558,
      "Ġrevealed": 7559,
      "Ġcommission": 7560,
      "ĠLim": 7561,
      "ĠTwitter": 7562,
      "Ġexistence": 7563,
      "Ġconflict": 7564,
      "ĠMany": 7565,
      "1940": 7566,
      ">();": 7567,
      "Ġdepth": 7568,
      "ĠLO": 7569,
      "Ġpert": 7570,
      "NG": 7571,
      "rid": 7572,
      "aver": 7573,
      "Parameters": 7574,
      "Ġnine": 7575,
      "ifold": 7576,
      "urban": 7577,
      "ĠMond": 7578,
      "grade": 7579,
      "Ġresidents": 7580,
      "ĠChampionships": 7581,
      "ĠTer": 7582,
      "ila": 7583,
      "Ġowned": 7584,
      "Ġchance": 7585,
      "osa": 7586,
      "Ġterrit": 7587,
      "ĠWales": 7588,
      "ĠPolice": 7589,
      "Ġbill": 7590,
      "Ġstrugg": 7591,
      "airman": 7592,
      "acle": 7593,
      "Will": 7594,
      "Ġcache": 7595,
      "Ġdog": 7596,
      "ĠPoint": 7597,
      "multicolumn": 7598,
      "ĠSir": 7599,
      "MB": 7600,
      "named": 7601,
      "eces": 7602,
      "idget": 7603,
      "odies": 7604,
      "ĠFriday": 7605,
      "Ġdiscussion": 7606,
      "idel": 7607,
      "Ġwaves": 7608,
      "ednes": 7609,
      "ĠWilliams": 7610,
      "Ġscatter": 7611,
      "Ġchampionship": 7612,
      "Ġalternative": 7613,
      "iki": 7614,
      "(*": 7615,
      "ĠWay": 7616,
      "Further": 7617,
      "SR": 7618,
      "Ġprotest": 7619,
      "SION": 7620,
      "Ġnewsp": 7621,
      "Ġundefined": 7622,
      "eller": 7623,
      "Ġpaid": 7624,
      "=\"../../../": 7625,
      "Ġdataset": 7626,
      "Ġesc": 7627,
      "email": 7628,
      "Members": 7629,
      "ĠÂ£": 7630,
      "Ġbutton": 7631,
      "ighter": 7632,
      "Ġnotice": 7633,
      "Ġ×": 7634,
      "ĠGi": 7635,
      "gg": 7636,
      "ĠHuman": 7637,
      "Ġcontinues": 7638,
      "Ġblocks": 7639,
      "Ġemployees": 7640,
      "ims": 7641,
      "foo": 7642,
      "Ġpolynomial": 7643,
      "ĠMen": 7644,
      "Ġheader": 7645,
      "^{-\\": 7646,
      "ĠMedical": 7647,
      "Invalid": 7648,
      "Ġexperiments": 7649,
      "anner": 7650,
      ":\\": 7651,
      "Ġchart": 7652,
      "Ġwrap": 7653,
      "Ġremember": 7654,
      "Ġhistorical": 7655,
      "$_": 7656,
      "Ġclaims": 7657,
      "Ġcommunication": 7658,
      "DI": 7659,
      "Ġparse": 7660,
      "Ġattended": 7661,
      "ployment": 7662,
      "Debug": 7663,
      "]]": 7664,
      "Ġreasons": 7665,
      "Ġproceed": 7666,
      "settings": 7667,
      "Some": 7668,
      "Ġaccuracy": 7669,
      "Ġanyone": 7670,
      "uries": 7671,
      "scape": 7672,
      "Ġoperating": 7673,
      "Ġsegment": 7674,
      "Found": 7675,
      "ryst": 7676,
      "Ġincreases": 7677,
      "Ġdirectory": 7678,
      "Ġens": 7679,
      "nergy": 7680,
      "Ġcounty": 7681,
      "ĠHTML": 7682,
      "ðŁ": 7683,
      "Ġangle": 7684,
      "Ġsouthern": 7685,
      "Ġos": 7686,
      "ĠPlan": 7687,
      "Kind": 7688,
      "Ġtor": 7689,
      "mi": 7690,
      "256": 7691,
      "Ġrestrict": 7692,
      "ĠLead": 7693,
      "Ġhydro": 7694,
      "Ġreferred": 7695,
      "ĠLord": 7696,
      "yer": 7697,
      "Ġbounded": 7698,
      "Ġtrend": 7699,
      "Ġspirit": 7700,
      "short": 7701,
      "ĠSports": 7702,
      "bre": 7703,
      "Ġpil": 7704,
      "footnote": 7705,
      "Values": 7706,
      "Ġwallet": 7707,
      "ĠGal": 7708,
      "Ġul": 7709,
      "equality": 7710,
      "ivery": 7711,
      "ĠBoth": 7712,
      "aling": 7713,
      "zero": 7714,
      "ursday": 7715,
      "asi": 7716,
      "Ġpretty": 7717,
      "ĠAL": 7718,
      "limits": 7719,
      "Ġpolar": 7720,
      "Ġtraffic": 7721,
      "Ġplease": 7722,
      "Ġdaily": 7723,
      "render": 7724,
      "fly": 7725,
      "Ġphone": 7726,
      "Ġcommit": 7727,
      "Ġtechniques": 7728,
      "Ġnamespace": 7729,
      "Ġdiagram": 7730,
      "keys": 7731,
      "Ġvictory": 7732,
      "cluded": 7733,
      "Ġrise": 7734,
      "Ġmask": 7735,
      "ĠWater": 7736,
      "pa": 7737,
      "Ġlooks": 7738,
      "Ġclearly": 7739,
      "Handle": 7740,
      "Ġparticle": 7741,
      "pton": 7742,
      "family": 7743,
      "wer": 7744,
      "Ġmainly": 7745,
      "ĠSouthern": 7746,
      "ipality": 7747,
      "comment": 7748,
      "ĠReport": 7749,
      "Ġpurs": 7750,
      "ran": 7751,
      "uer": 7752,
      "Ġdownload": 7753,
      "ĠId": 7754,
      "Ġ('": 7755,
      "Api": 7756,
      "}}_{": 7757,
      "Ġcompare": 7758,
      "Ġcycle": 7759,
      ";<": 7760,
      "ĠPacific": 7761,
      "holder": 7762,
      "Ġpool": 7763,
      "Doc": 7764,
      "ITY": 7765,
      "Ġexperimental": 7766,
      "Ġpropos": 7767,
      "Ġcultural": 7768,
      "romise": 7769,
      "Ġdrama": 7770,
      "othing": 7771,
      "Ġnorthern": 7772,
      "Ġadding": 7773,
      "ĠDemocratic": 7774,
      "Ġprocessing": 7775,
      "ĠVan": 7776,
      "Ġflat": 7777,
      "Var": 7778,
      "Ġdiss": 7779,
      "angular": 7780,
      "je": 7781,
      "Book": 7782,
      "Ġuniversity": 7783,
      "ĠCarl": 7784,
      "Ġprocedure": 7785,
      "emporary": 7786,
      "}\"": 7787,
      "ogen": 7788,
      "Ġcomments": 7789,
      "Ġrestaur": 7790,
      "Ġunsigned": 7791,
      "agraph": 7792,
      "1930": 7793,
      "Ġdifferences": 7794,
      "attice": 7795,
      "ĠPass": 7796,
      "Ġcreation": 7797,
      "Ġrequirements": 7798,
      "Ġpowerful": 7799,
      "Ġdual": 7800,
      "Å¡": 7801,
      "ĠJoe": 7802,
      "Ġmorning": 7803,
      "spring": 7804,
      "ednesday": 7805,
      "ĠMP": 7806,
      "otted": 7807,
      "Ġefficient": 7808,
      "ĠFrancisco": 7809,
      "ĠNav": 7810,
      "Ġmobile": 7811,
      "ĠPrem": 7812,
      "Ġconducted": 7813,
      "Ġcompute": 7814,
      "hom": 7815,
      "heduled": 7816,
      "----------------------------------------------------------------": 7817,
      "ĠStat": 7818,
      "Ġ$|": 7819,
      "enth": 7820,
      "Ġformal": 7821,
      "1967": 7822,
      "ĠMah": 7823,
      "Parent": 7824,
      "ĠĠĠĠĠĠĠĠĠĠĠĠĠĠĠĠĠĠ": 7825,
      "Ġparticles": 7826,
      "apy": 7827,
      "Ġofficers": 7828,
      "ffect": 7829,
      "ĠBattle": 7830,
      "Ġrac": 7831,
      "Ġhidden": 7832,
      "ĠLuc": 7833,
      "annotation": 7834,
      "ĠRadio": 7835,
      "admin": 7836,
      "Ġunless": 7837,
      "Ġmagazine": 7838,
      "Ġvocals": 7839,
      "kg": 7840,
      ">.": 7841,
      "results": 7842,
      "Ġ$.": 7843,
      "enger": 7844,
      "ĠOrgan": 7845,
      "setminus": 7846,
      "Ġsemi": 7847,
      "Ġgun": 7848,
      "har": 7849,
      "Ġdig": 7850,
      "ĠEven": 7851,
      "Ġfeet": 7852,
      "Ġvehicle": 7853,
      "Ġequipment": 7854,
      "Args": 7855,
      "1945": 7856,
      "iy": 7857,
      "Ġsqu": 7858,
      "Ġdetection": 7859,
      "Ġther": 7860,
      "Ġexpressed": 7861,
      "insert": 7862,
      "ĠCode": 7863,
      "Ġvac": 7864,
      "imensions": 7865,
      "Ġinterested": 7866,
      "ĠEXPECT": 7867,
      "ito": 7868,
      "zen": 7869,
      "ĠKen": 7870,
      "GS": 7871,
      "ĠValue": 7872,
      "Ġdraft": 7873,
      "World": 7874,
      "Ġreligious": 7875,
      "Ġofficials": 7876,
      "Ġtal": 7877,
      "zz": 7878,
      "Ul": 7879,
      "andon": 7880,
      "_;": 7881,
      "Section": 7882,
      "ĠPennsylvania": 7883,
      "Ġheard": 7884,
      "ĠSecurity": 7885,
      "Decl": 7886,
      "Ġadministration": 7887,
      "itionally": 7888,
      "ĠIslam": 7889,
      "AF": 7890,
      "ĠSoviet": 7891,
      "ĠDesign": 7892,
      "points": 7893,
      "Ġ($\\": 7894,
      "Ġdisk": 7895,
      "Ġagreed": 7896,
      "Ġtheme": 7897,
      "Ġlabor": 7898,
      "Ġconfirmed": 7899,
      "stra": 7900,
      "ione": 7901,
      "bel": 7902,
      "sql": 7903,
      "ĠGre": 7904,
      "They": 7905,
      "urrency": 7906,
      "protobuf": 7907,
      "Ġfle": 7908,
      "Ġapplic": 7909,
      "ĠSong": 7910,
      "âĢĺ": 7911,
      "istent": 7912,
      "Assert": 7913,
      "argument": 7914,
      "bury": 7915,
      "itage": 7916,
      "pan": 7917,
      "%)": 7918,
      "ĠâĢ¦": 7919,
      "Ġregarding": 7920,
      "riev": 7921,
      "Ġviews": 7922,
      "Ġpy": 7923,
      "effect": 7924,
      "gypt": 7925,
      "ennis": 7926,
      "Figure": 7927,
      "ĠCivil": 7928,
      "plements": 7929,
      "estic": 7930,
      "ĠApple": 7931,
      "ĠMA": 7932,
      "'))": 7933,
      "Ġstarts": 7934,
      "TA": 7935,
      "ĠSenate": 7936,
      "_+": 7937,
      "aya": 7938,
      "Ġvisible": 7939,
      "amin": 7940,
      "BR": 7941,
      "Ġphen": 7942,
      "ĠSciences": 7943,
      "Ġabsolute": 7944,
      "Ġbatt": 7945,
      "abeth": 7946,
      "words": 7947,
      "master": 7948,
      "Ġkept": 7949,
      "Ġweap": 7950,
      "\\}": 7951,
      "Ġmeasurements": 7952,
      "ĠPM": 7953,
      "Rule": 7954,
      "Ġseconds": 7955,
      "Ġadvert": 7956,
      "Ġ{};": 7957,
      "Ġachieve": 7958,
      "Ġminim": 7959,
      "Num": 7960,
      "Show": 7961,
      "awa": 7962,
      "ĠGreek": 7963,
      "ĠProvince": 7964,
      "roduction": 7965,
      "Ġbehavi": 7966,
      "ĠEmpire": 7967,
      "Ġseat": 7968,
      "dagger": 7969,
      "Second": 7970,
      "Bytes": 7971,
      "ivial": 7972,
      "Ġclaimed": 7973,
      "Ġregional": 7974,
      "ĠMot": 7975,
      "Ġanalyt": 7976,
      "Ġallowing": 7977,
      "ĠDown": 7978,
      "Ġcalculated": 7979,
      "Ġinline": 7980,
      "igin": 7981,
      "elli": 7982,
      "istration": 7983,
      "just": 7984,
      "Argument": 7985,
      "sche": 7986,
      "Render": 7987,
      "ĉĉĉĊ": 7988,
      "Ġpp": 7989,
      "Dialog": 7990,
      "Ġ\\;": 7991,
      "ĠOhio": 7992,
      "Ġcensus": 7993,
      "ĠHistoric": 7994,
      "ĠFamily": 7995,
      "rames": 7996,
      "defined": 7997,
      "las": 7998,
      "numer": 7999,
      "DP": 8000,
      "auto": 8001,
      "byte": 8002,
      "Ġattend": 8003,
      "gorithms": 8004,
      "1964": 8005,
      "fony": 8006,
      "Ġrail": 8007,
      "leton": 8008,
      "register": 8009,
      "Ġdetect": 8010,
      "Ġpi": 8011,
      "odd": 8012,
      "ĠBoston": 8013,
      "Ġstable": 8014,
      "Ġdetailed": 8015,
      "Ġemission": 8016,
      "ĠFI": 8017,
      "ĠLie": 8018,
      "ĠTheatre": 8019,
      "Ġinsert": 8020,
      "ourney": 8021,
      "Ġgauge": 8022,
      "atible": 8023,
      "Ġ++": 8024,
      "inion": 8025,
      "Ġfloor": 8026,
      "Ġbytes": 8027,
      "lyph": 8028,
      "rawn": 8029,
      "Ġaware": 8030,
      "cuss": 8031,
      "ela": 8032,
      "ĠMcC": 8033,
      "1920": 8034,
      "Ġtoward": 8035,
      "Ġdiscovered": 8036,
      "ĠIndust": 8037,
      "person": 8038,
      "Ġissued": 8039,
      "Ġideas": 8040,
      "onto": 8041,
      "kes": 8042,
      "ĠBritain": 8043,
      "region": 8044,
      "Ġtracks": 8045,
      "Ġbyte": 8046,
      "ĠLab": 8047,
      "ymfony": 8048,
      "Ġtechnical": 8049,
      "ĠAsian": 8050,
      "Ġadjust": 8051,
      "aturing": 8052,
      "amental": 8053,
      "Ġchallenge": 8054,
      "ĠIllinois": 8055,
      ")|": 8056,
      "Ġelim": 8057,
      "ĠJersey": 8058,
      "ĠColl": 8059,
      "Ġleaves": 8060,
      "Di": 8061,
      "Ġpartial": 8062,
      "Ġflight": 8063,
      "Ġarticles": 8064,
      "Ġeconomy": 8065,
      "ĠNight": 8066,
      ":#": 8067,
      "initial": 8068,
      "neg": 8069,
      "cher": 8070,
      "cloud": 8071,
      "ACE": 8072,
      "Ġdedicated": 8073,
      "ĠEvery": 8074,
      "ĠGeorgia": 8075,
      "Ġconsole": 8076,
      "emy": 8077,
      "Ġportrait": 8078,
      "replace": 8079,
      "dict": 8080,
      "Ġspot": 8081,
      "Root": 8082,
      "ĠSand": 8083,
      "1965": 8084,
      "DR": 8085,
      "ĠWall": 8086,
      "Before": 8087,
      "stop": 8088,
      "Ġtasks": 8089,
      "uing": 8090,
      "burgh": 8091,
      "Ġobvious": 8092,
      "Ġentity": 8093,
      "600": 8094,
      "boolean": 8095,
      "Åį": 8096,
      "Ġearth": 8097,
      "Ġassigned": 8098,
      "eless": 8099,
      "ĠSaturday": 8100,
      "AME": 8101,
      "Body": 8102,
      "Ġdamage": 8103,
      "Boolean": 8104,
      "shall": 8105,
      "ĠOx": 8106,
      "Ġult": 8107,
      "life": 8108,
      "pressed": 8109,
      "none": 8110,
      "iden": 8111,
      "dropdown": 8112,
      "ewidth": 8113,
      "Ġorient": 8114,
      "Ġoccurs": 8115,
      "Ġbusinesses": 8116,
      "achus": 8117,
      "ango": 8118,
      "ĠHa": 8119,
      "Ġfraction": 8120,
      "Ġversions": 8121,
      "_{{\\": 8122,
      "Ġwasn": 8123,
      "Ġsuc": 8124,
      "Ð°Ð": 8125,
      "Ġguarant": 8126,
      "ucky": 8127,
      "Ġtried": 8128,
      "iate": 8129,
      "illy": 8130,
      "Ġlies": 8131,
      "hetic": 8132,
      "Aust": 8133,
      "HTML": 8134,
      "Ġrecording": 8135,
      "sen": 8136,
      "astructure": 8137,
      "ĠQueen": 8138,
      "Reader": 8139,
      "SET": 8140,
      "ĠWild": 8141,
      "Ġcamera": 8142,
      "ĠOnly": 8143,
      "Ġcontained": 8144,
      "jo": 8145,
      "Ã±": 8146,
      "callback": 8147,
      "ĠCollection": 8148,
      "ĠAri": 8149,
      "Ġhappen": 8150,
      "Ġindepend": 8151,
      "Ġleadership": 8152,
      "ĠMiddle": 8153,
      "END": 8154,
      "Ġelections": 8155,
      "Ġinstalled": 8156,
      "Ġsister": 8157,
      "Ġserving": 8158,
      "Ġpure": 8159,
      "uple": 8160,
      "anes": 8161,
      "Ġconference": 8162,
      "Ġ'/": 8163,
      "Background": 8164,
      "DC": 8165,
      "Ġpicture": 8166,
      "Ġlocations": 8167,
      "ĠPolicy": 8168,
      "`.": 8169,
      "bigg": 8170,
      "etts": 8171,
      "Ġjson": 8172,
      "Ġplanning": 8173,
      "Ġaccepted": 8174,
      "ĠMid": 8175,
      "ĠCamb": 8176,
      "Ġbinary": 8177,
      "adel": 8178,
      "Ġgrid": 8179,
      "Rad": 8180,
      "eld": 8181,
      "formance": 8182,
      "rim": 8183,
      "Ġinvestment": 8184,
      "ceived": 8185,
      "Package": 8186,
      "Ġintended": 8187,
      "ĠJon": 8188,
      "ĠJewish": 8189,
      ")\"": 8190,
      "Ġgalaxies": 8191,
      "Writer": 8192,
      "Ġpairs": 8193,
      "modules": 8194,
      "_*": 8195,
      "LP": 8196,
      "Ġadvantage": 8197,
      "Policy": 8198,
      "Ġcontributions": 8199,
      "Ġreject": 8200,
      "radius": 8201,
      "ĠBern": 8202,
      "ĠFund": 8203,
      "ideos": 8204,
      "ĠLo": 8205,
      "ĠMoreover": 8206,
      "alg": 8207,
      "ruit": 8208,
      "Ġsph": 8209,
      "ĠHarr": 8210,
      "Ġahead": 8211,
      "ĠURL": 8212,
      "ĠIO": 8213,
      "Custom": 8214,
      "ĠPhys": 8215,
      "Ġrender": 8216,
      "Ġachieved": 8217,
      "Ġfunding": 8218,
      "Ġmock": 8219,
      "Ġboy": 8220,
      "ĠMajor": 8221,
      "Ġskills": 8222,
      "Ġoptimal": 8223,
      "ĠCoast": 8224,
      "Ġconstraints": 8225,
      "jar": 8226,
      "ading": 8227,
      "ĠText": 8228,
      "Ġtrav": 8229,
      "WA": 8230,
      "ĠRh": 8231,
      "agers": 8232,
      "Ġstreet": 8233,
      "irds": 8234,
      "Ġeyes": 8235,
      "shape": 8236,
      "Initial": 8237,
      "Ġattacks": 8238,
      "ĠMu": 8239,
      "ĠMult": 8240,
      "aligned": 8241,
      "wedge": 8242,
      "'d": 8243,
      "ĠMike": 8244,
      "Ġclust": 8245,
      "ridge": 8246,
      "Dem": 8247,
      "poss": 8248,
      "ĠSea": 8249,
      "bullet": 8250,
      "Ġvary": 8251,
      "Ġcars": 8252,
      "cpp": 8253,
      "Enabled": 8254,
      "Ġlett": 8255,
      "ĠAff": 8256,
      "Ġhour": 8257,
      "Ġpatient": 8258,
      "ancer": 8259,
      "ĠCro": 8260,
      "ibli": 8261,
      "ĠAmazon": 8262,
      "Ġfinding": 8263,
      "Ġbeat": 8264,
      "ĠRet": 8265,
      "Ġedges": 8266,
      "Ġordered": 8267,
      "ĠUkraine": 8268,
      "Ġmodified": 8269,
      "Ġfocused": 8270,
      "ificate": 8271,
      "ĠKong": 8272,
      "Ġmonitor": 8273,
      "Ġreplace": 8274,
      "ĠJr": 8275,
      "Ġheat": 8276,
      "Ġfre": 8277,
      "Ġapi": 8278,
      "Car": 8279,
      "Ä±": 8280,
      "MI": 8281,
      "1966": 8282,
      "Ġsucceed": 8283,
      "ez": 8284,
      "Ġfish": 8285,
      "ĠCEO": 8286,
      "writer": 8287,
      "Ġcalling": 8288,
      "Ġsampl": 8289,
      "bro": 8290,
      "Mock": 8291,
      "ĠNet": 8292,
      "una": 8293,
      "Ġ),": 8294,
      "Ġsatisfies": 8295,
      "MENT": 8296,
      "ais": 8297,
      "Hz": 8298,
      "Ġdesc": 8299,
      "Ġmessages": 8300,
      "Ġrecommend": 8301,
      "mic": 8302,
      "assets": 8303,
      "250": 8304,
      "ĠRepublican": 8305,
      "uesday": 8306,
      "ĠInitial": 8307,
      "ĠJeff": 8308,
      "virtual": 8309,
      "Vari": 8310,
      "Ġextr": 8311,
      "Ġexecutive": 8312,
      "Ġinequality": 8313,
      "Ġprotection": 8314,
      "Ġindicates": 8315,
      "ĠChris": 8316,
      "'\\": 8317,
      "ĠJustice": 8318,
      "alid": 8319,
      "ĠKent": 8320,
      "Ġrailway": 8321,
      "Tests": 8322,
      "Ġclick": 8323,
      "Ġarmy": 8324,
      "elease": 8325,
      "National": 8326,
      "Tab": 8327,
      "Ġtensor": 8328,
      "ĠAndrew": 8329,
      "urer": 8330,
      "Ġpet": 8331,
      "water": 8332,
      "Delete": 8333,
      "ented": 8334,
      "ĠLy": 8335,
      "Ġspeak": 8336,
      "blue": 8337,
      "Ġclassification": 8338,
      "Ġfinish": 8339,
      "Descriptor": 8340,
      "Ġhuge": 8341,
      "Ġapproximation": 8342,
      "\">&": 8343,
      "Ġfacilities": 8344,
      "ello": 8345,
      "Ġnotes": 8346,
      "HS": 8347,
      "achusetts": 8348,
      "Ġmomentum": 8349,
      "ĠFar": 8350,
      "names": 8351,
      "omorphism": 8352,
      "adr": 8353,
      "Wrap": 8354,
      "'_": 8355,
      "Ġindicate": 8356,
      "ĠAN": 8357,
      "Only": 8358,
      "oster": 8359,
      "Ġpropag": 8360,
      "prec": 8361,
      "iling": 8362,
      "ĠChristmas": 8363,
      "ĠHospital": 8364,
      "Ġsymmetry": 8365,
      "Ġapproaches": 8366,
      "uzz": 8367,
      "Ġstatistics": 8368,
      "FAULT": 8369,
      "Ġwants": 8370,
      "Byte": 8371,
      "Ġideal": 8372,
      "ĠEdward": 8373,
      "Ġ$[": 8374,
      "unte": 8375,
      "ĠâĢ¢": 8376,
      "ollary": 8377,
      "Ġneighborhood": 8378,
      "ĠAuthor": 8379,
      "ĠJes": 8380,
      "Ġyouth": 8381,
      "MT": 8382,
      "margin": 8383,
      "Ġ<=": 8384,
      "Storage": 8385,
      "Ġenable": 8386,
      "password": 8387,
      "bot": 8388,
      "Ġsport": 8389,
      "ĠCa": 8390,
      "__(": 8391,
      "ĠStan": 8392,
      "Ġaudience": 8393,
      "DY": 8394,
      "Vol": 8395,
      "Ġpsych": 8396,
      "ĠBecause": 8397,
      "Ġbenefits": 8398,
      "enant": 8399,
      "uses": 8400,
      "Ġsimpl": 8401,
      "ĠDaniel": 8402,
      "IE": 8403,
      "properties": 8404,
      "ĠLight": 8405,
      "EXT": 8406,
      "hu": 8407,
      "ĠFederal": 8408,
      "Ġsexual": 8409,
      "mosph": 8410,
      "Ġtypical": 8411,
      "Err": 8412,
      "Ġcriter": 8413,
      "gency": 8414,
      "rine": 8415,
      "awn": 8416,
      "Ġisol": 8417,
      "ĠAny": 8418,
      "ket": 8419,
      "Ġsoft": 8420,
      "athan": 8421,
      "Ġactors": 8422,
      "apes": 8423,
      "bad": 8424,
      "Ġgain": 8425,
      "orship": 8426,
      "Exp": 8427,
      "clip": 8428,
      "Ġsell": 8429,
      "home": 8430,
      "ĠScotland": 8431,
      "GE": 8432,
      "Ġnumerical": 8433,
      "Ġplants": 8434,
      "security": 8435,
      "ĠWalk": 8436,
      "vin": 8437,
      "Ġtrees": 8438,
      "}%": 8439,
      "Ġdefeated": 8440,
      "abil": 8441,
      "Ġimportance": 8442,
      "Ġassumed": 8443,
      "Changed": 8444,
      "phas": 8445,
      "hentication": 8446,
      "Ġcolon": 8447,
      "Ġtruth": 8448,
      "ĠWis": 8449,
      "Ġconvers": 8450,
      "Ġproved": 8451,
      "ĠWin": 8452,
      "Ġsimulations": 8453,
      "grid": 8454,
      "?âĢĿ": 8455,
      "Ġoccurred": 8456,
      "Ġrough": 8457,
      "Media": 8458,
      "Ġreduction": 8459,
      "sel": 8460,
      "ĠPage": 8461,
      ".'": 8462,
      "bits": 8463,
      "ĠGirl": 8464,
      "Career": 8465,
      "Ġsuccessfully": 8466,
      "Ġbtn": 8467,
      "Ġcalc": 8468,
      "Av": 8469,
      "Ġodd": 8470,
      "ĠTw": 8471,
      "Ġ\\(": 8472,
      "oir": 8473,
      "tri": 8474,
      "Step": 8475,
      "orders": 8476,
      "Ġrecall": 8477,
      "ĠRepresent": 8478,
      "Ġchemical": 8479,
      "Ġalloc": 8480,
      "ogy": 8481,
      "ictures": 8482,
      "icients": 8483,
      "ĠCopy": 8484,
      "Ġcorresponds": 8485,
      "ĠLink": 8486,
      "ĠRo": 8487,
      "connection": 8488,
      "Ġ$-": 8489,
      "Ġcycl": 8490,
      "Ġreality": 8491,
      "Ġbelieved": 8492,
      "ĠReal": 8493,
      "Public": 8494,
      "ĠHence": 8495,
      "High": 8496,
      "Best": 8497,
      "Fields": 8498,
      "Ġlaws": 8499,
      "Ġestimates": 8500,
      "Ġenvironmental": 8501,
      "ĠSO": 8502,
      "Ġfresh": 8503,
      "123": 8504,
      "inson": 8505,
      "ĠWho": 8506,
      "Ġmassive": 8507,
      "ĠJackson": 8508,
      "Ġapparent": 8509,
      "icer": 8510,
      "ĠWindows": 8511,
      "Ġlab": 8512,
      "KEY": 8513,
      "ĠRay": 8514,
      "Ġcorrelation": 8515,
      "cases": 8516,
      "Ġmiles": 8517,
      "128": 8518,
      "ears": 8519,
      "Ġlicense": 8520,
      "istical": 8521,
      "appe": 8522,
      "Ġsuggested": 8523,
      "arters": 8524,
      "Ġaxis": 8525,
      "ympt": 8526,
      "ĠThursday": 8527,
      "inv": 8528,
      "ĠPhilipp": 8529,
      "=\"\">": 8530,
      "Ġdrink": 8531,
      "inline": 8532,
      "ĠFinal": 8533,
      "stats": 8534,
      "cred": 8535,
      "screen": 8536,
      "Ġ|\\": 8537,
      "edit": 8538,
      "items": 8539,
      "rices": 8540,
      "Ġkeys": 8541,
      "Ġmeant": 8542,
      "olver": 8543,
      "Bi": 8544,
      "Ġchannels": 8545,
      "ĠKr": 8546,
      "green": 8547,
      "ogene": 8548,
      "Ġthreshold": 8549,
      "Ġpm": 8550,
      "=\"@": 8551,
      "Ġsustain": 8552,
      "inds": 8553,
      "Ġtend": 8554,
      "ĠError": 8555,
      "}}(\\": 8556,
      "FR": 8557,
      "Ġconsult": 8558,
      "ĠSecretary": 8559,
      "ĠMonday": 8560,
      "Ġblog": 8561,
      "ĠSpace": 8562,
      "800": 8563,
      "Ġspectral": 8564,
      "Ġhtml": 8565,
      "),\\": 8566,
      "rase": 8567,
      "Account": 8568,
      "Ġmsg": 8569,
      "ĠBrook": 8570,
      "ĠWednesday": 8571,
      "Ġabsor": 8572,
      "pet": 8573,
      "ntario": 8574,
      "Ġvertices": 8575,
      "ĠProposition": 8576,
      "organ": 8577,
      "Ġsimulation": 8578,
      "Ġhear": 8579,
      "ĠTaylor": 8580,
      "ingham": 8581,
      "orney": 8582,
      "Ġexpert": 8583,
      "jpg": 8584,
      "![": 8585,
      "izabeth": 8586,
      "Ġinvestigation": 8587,
      "Ġchallenges": 8588,
      "Ġil": 8589,
      "ĠUr": 8590,
      "low": 8591,
      "ĠAM": 8592,
      "ï¼": 8593,
      "ĠAbout": 8594,
      "Ġrepresenting": 8595,
      "Ġpromin": 8596,
      "ĠFire": 8597,
      "*{": 8598,
      "chester": 8599,
      "ĠBang": 8600,
      "Ġexperi": 8601,
      "udes": 8602,
      "inity": 8603,
      "jquery": 8604,
      "Ġimproved": 8605,
      "thread": 8606,
      "occer": 8607,
      "ĠAction": 8608,
      "ĠPrince": 8609,
      "ĠKar": 8610,
      "Ġinvoke": 8611,
      "110": 8612,
      "ĠInvest": 8613,
      "Ġbass": 8614,
      "CM": 8615,
      "Ġgather": 8616,
      "Ġparallel": 8617,
      "Ġsections": 8618,
      "ben": 8619,
      "ĠFour": 8620,
      "Ġcer": 8621,
      "âĢĿ,": 8622,
      "Ġsolar": 8623,
      "Ġbudget": 8624,
      "Ġwinner": 8625,
      "linewidth": 8626,
      "ĠSU": 8627,
      "Ġintegral": 8628,
      "Ġcomposed": 8629,
      "Ġmuseum": 8630,
      "yo": 8631,
      "ĠAdministr": 8632,
      "Ġwestern": 8633,
      "Ġflex": 8634,
      "Ġdoor": 8635,
      "Ġsummary": 8636,
      "Ġfill": 8637,
      "scroll": 8638,
      "lg": 8639,
      "ĠBroad": 8640,
      "Ġcircle": 8641,
      "Meta": 8642,
      "Ġplus": 8643,
      "ĠEst": 8644,
      "Ġcrow": 8645,
      "Ġtrigger": 8646,
      "Ġcouncil": 8647,
      "ori": 8648,
      "Ġintroduce": 8649,
      "Ġcredit": 8650,
      "uous": 8651,
      "Films": 8652,
      "ĠLittle": 8653,
      "Ġgap": 8654,
      "Ġgenus": 8655,
      "ĠProfessor": 8656,
      "Del": 8657,
      "she": 8658,
      "ĠSE": 8659,
      "Ġaffected": 8660,
      "notation": 8661,
      "Ġremote": 8662,
      "Ġtransformation": 8663,
      "Ġhighlight": 8664,
      "Ã£": 8665,
      "Ġexcell": 8666,
      "ronic": 8667,
      "upload": 8668,
      "Ġadm": 8669,
      "Ġconcert": 8670,
      "Ġdocuments": 8671,
      "1963": 8672,
      "ucket": 8673,
      "ĠPortug": 8674,
      "Ġopportunities": 8675,
      "ĠEgypt": 8676,
      "Ġsettlement": 8677,
      "1962": 8678,
      "ĠBor": 8679,
      "lay": 8680,
      "aught": 8681,
      "Ġlearned": 8682,
      "Ġdefense": 8683,
      "Ġpolicies": 8684,
      "umes": 8685,
      "Ġcomedy": 8686,
      "Obj": 8687,
      "ĠLast": 8688,
      "Ġsecondary": 8689,
      "Ġthick": 8690,
      "Ġexplained": 8691,
      "ĠMuslim": 8692,
      "Support": 8693,
      "Lock": 8694,
      "Ġpal": 8695,
      "atar": 8696,
      "Ġmarked": 8697,
      "Yk": 8698,
      "Ġinterval": 8699,
      "Ġacademic": 8700,
      "profile": 8701,
      "ĠLatin": 8702,
      "Ġassumption": 8703,
      "Ġfreedom": 8704,
      ")}(": 8705,
      "Ġstrongly": 8706,
      ",\\,": 8707,
      "Ġpod": 8708,
      "[:": 8709,
      "Ġsetup": 8710,
      "Ġnuclear": 8711,
      ")).": 8712,
      "ĠGovernor": 8713,
      "aching": 8714,
      "ifer": 8715,
      "BI": 8716,
      "SSERT": 8717,
      "elcome": 8718,
      "_{-": 8719,
      "Ġsmart": 8720,
      "Ġfellow": 8721,
      "eli": 8722,
      "Ġcoupling": 8723,
      "Ġarbitrary": 8724,
      "Ġbridge": 8725,
      "Ġinstrument": 8726,
      "Ġvehicles": 8727,
      "NOT": 8728,
      "Two": 8729,
      "Ġdeveloping": 8730,
      "operation": 8731,
      "aration": 8732,
      ".*": 8733,
      "Ġdie": 8734,
      "Ġdepending": 8735,
      "desc": 8736,
      "Ġknew": 8737,
      "Ġbalance": 8738,
      "ĠIl": 8739,
      "Ġsquad": 8740,
      "Ġdream": 8741,
      "Ġshut": 8742,
      "Ġcandidates": 8743,
      "ami": 8744,
      "ĠMassachusetts": 8745,
      "Ġmotor": 8746,
      "called": 8747,
      "ĠStudies": 8748,
      "ĠĠĠĠĠĠĠĠĠĠĠĠĠĠĠĠĠĠĠĠĠĠĠĠĠ": 8749,
      "$/": 8750,
      "Ġjavax": 8751,
      "attribute": 8752,
      "LC": 8753,
      "ĠFC": 8754,
      "unsigned": 8755,
      "ĠVersion": 8756,
      "\")]": 8757,
      "Ġagree": 8758,
      "ĠNY": 8759,
      "Send": 8760,
      "Ġadopted": 8761,
      "Ġattributes": 8762,
      "ĠKim": 8763,
      "Network": 8764,
      "ĠCA": 8765,
      "ĠUsing": 8766,
      "Ġsun": 8767,
      "subfigure": 8768,
      "Ġrich": 8769,
      "JSON": 8770,
      "Active": 8771,
      "======": 8772,
      "Ġmarriage": 8773,
      "Ġcrime": 8774,
      "General": 8775,
      "Ġregime": 8776,
      "equence": 8777,
      "Ġwidely": 8778,
      "Ġprepar": 8779,
      "Ġcorner": 8780,
      "isc": 8781,
      "ĠĠĠĠĠĠĠĠĠĠĠĠĠĠĠĠĠĠĠĠĠĠĠĠ": 8782,
      "stable": 8783,
      "sky": 8784,
      "Ġhappened": 8785,
      "Ġcitizens": 8786,
      "Ġassociation": 8787,
      "ĠFalse": 8788,
      "Ġacquired": 8789,
      "Ġdriving": 8790,
      "Google": 8791,
      "wall": 8792,
      ")),": 8793,
      "Ġbenefit": 8794,
      "important": 8795,
      "Ġsomew": 8796,
      "Ident": 8797,
      "Ġmodes": 8798,
      "Ġcoverage": 8799,
      "Ġspl": 8800,
      "HR": 8801,
      "Ġsingles": 8802,
      "Ġfort": 8803,
      "exception": 8804,
      "mediate": 8805,
      "Ġmedium": 8806,
      "Yi": 8807,
      "Ġcris": 8808,
      "ĠLocal": 8809,
      "Ġbegins": 8810,
      "Ã¢": 8811,
      "amber": 8812,
      "Ġven": 8813,
      "bell": 8814,
      "Ġphotograph": 8815,
      "Ġmeasurement": 8816,
      "Channel": 8817,
      "Ġadvanced": 8818,
      "addr": 8819,
      "Ġamplit": 8820,
      "Ġtrained": 8821,
      "FILE": 8822,
      "Gen": 8823,
      "Ġmechanism": 8824,
      "Ġadvance": 8825,
      "Ġacting": 8826,
      "Ġdb": 8827,
      "DT": 8828,
      "Ġinteractions": 8829,
      "mock": 8830,
      "Ġnearby": 8831,
      "fix": 8832,
      "recated": 8833,
      "acks": 8834,
      "Ġdistingu": 8835,
      "ĠBol": 8836,
      "Ġreviews": 8837,
      "rovers": 8838,
      "perp": 8839,
      "ulpt": 8840,
      "pay": 8841,
      "Ġoperated": 8842,
      "ĠUpdate": 8843,
      "ĠAsh": 8844,
      "avor": 8845,
      "git": 8846,
      "Ġlanguages": 8847,
      "Ġregistered": 8848,
      "rie": 8849,
      "tained": 8850,
      "Transaction": 8851,
      "fold": 8852,
      "ĠEastern": 8853,
      "Ġhousing": 8854,
      "ĠÅ": 8855,
      "ĠStart": 8856,
      "Ġtrail": 8857,
      "oes": 8858,
      "ĠBa": 8859,
      "eper": 8860,
      "Ġ}\\": 8861,
      "____": 8862,
      "Ġends": 8863,
      "ĠLive": 8864,
      "JQ": 8865,
      "Ġprofessor": 8866,
      "Ġexport": 8867,
      "Ġanimals": 8868,
      "adoop": 8869,
      "Ġroles": 8870,
      "kw": 8871,
      "Ġearned": 8872,
      "Ġcrew": 8873,
      "ĠCommon": 8874,
      "Ġprimarily": 8875,
      "Ġbrain": 8876,
      "Ġaudio": 8877,
      "rons": 8878,
      "ĠSom": 8879,
      "ni": 8880,
      "`,": 8881,
      "XT": 8882,
      "ego": 8883,
      "Ġjobs": 8884,
      "Ġdegrees": 8885,
      "Ġperhaps": 8886,
      "Ġzone": 8887,
      "%,": 8888,
      "Ġships": 8889,
      "anth": 8890,
      "BE": 8891,
      "Ġancient": 8892,
      "ĠNO": 8893,
      "ĠSupport": 8894,
      "attery": 8895,
      "forward": 8896,
      "isted": 8897,
      "estion": 8898,
      "ĠKorea": 8899,
      "VERSION": 8900,
      "Ġexpanded": 8901,
      "1944": 8902,
      "Ġtells": 8903,
      "Ġbeautiful": 8904,
      "Ġdynamic": 8905,
      "}$-": 8906,
      "ĠSi": 8907,
      "mI": 8908,
      "teen": 8909,
      "Author": 8910,
      "law": 8911,
      "sto": 8912,
      "ĠExt": 8913,
      "ĠRos": 8914,
      "Ġdro": 8915,
      "ĠBell": 8916,
      "Ġcollected": 8917,
      "ĠMic": 8918,
      "Ġacts": 8919,
      "aki": 8920,
      "Ġinjury": 8921,
      "Ġcomputed": 8922,
      "itical": 8923,
      "Ġpra": 8924,
      "ĠMicrosoft": 8925,
      "game": 8926,
      "Ġbright": 8927,
      "Ġbrowser": 8928,
      "onia": 8929,
      "Ġkids": 8930,
      "ĠArea": 8931,
      "Ġsupports": 8932,
      "urance": 8933,
      "Ġrom": 8934,
      "mo": 8935,
      "hol": 8936,
      "Äį": 8937,
      "Ġarrived": 8938,
      "aug": 8939,
      "Ġmac": 8940,
      "ĠWilson": 8941,
      "account": 8942,
      "MR": 8943,
      "Oe": 8944,
      "Queue": 8945,
      "ĠRom": 8946,
      "Ġfigures": 8947,
      "ĠNumber": 8948,
      "Ġalgorithms": 8949,
      "ĠSign": 8950,
      "Ġspring": 8951,
      "Ġtwice": 8952,
      "onal": 8953,
      "ById": 8954,
      "ĠBoy": 8955,
      "aret": 8956,
      "Ġacceler": 8957,
      "Ġsides": 8958,
      "chain": 8959,
      "tsd": 8960,
      "Ñı": 8961,
      "////////////////////////////////": 8962,
      "################": 8963,
      "Sch": 8964,
      "ierarch": 8965,
      "ĠThree": 8966,
      "Ġpoliticians": 8967,
      "TEST": 8968,
      "Ġturns": 8969,
      "Ġdoll": 8970,
      "Ġchanging": 8971,
      "super": 8972,
      "Ġlimits": 8973,
      "Ġfashion": 8974,
      "Mat": 8975,
      "à¸": 8976,
      "Extension": 8977,
      "aga": 8978,
      "Ġplanet": 8979,
      "Ġdecay": 8980,
      "primary": 8981,
      "Jan": 8982,
      "Ġreader": 8983,
      "1961": 8984,
      "West": 8985,
      "]:": 8986,
      "Events": 8987,
      "'}": 8988,
      "Const": 8989,
      "ARY": 8990,
      "Ġawards": 8991,
      "ĠDar": 8992,
      "Bit": 8993,
      "Ġ\"/": 8994,
      "ĠInternet": 8995,
      "Ġfunds": 8996,
      "coh": 8997,
      "_{(": 8998,
      "imb": 8999,
      "ĠKenn": 9000,
      "ĠDutch": 9001,
      "sumer": 9002,
      "ĠColumbia": 9003,
      "horizontal": 9004,
      "domain": 9005,
      "Cons": 9006,
      "ĠAk": 9007,
      "Ġera": 9008,
      "Widget": 9009,
      "Ġpitch": 9010,
      "Ġrect": 9011,
      "Full": 9012,
      "friend": 9013,
      "Ġpartnership": 9014,
      "Ġmatching": 9015,
      "ĠLike": 9016,
      "ĠHong": 9017,
      "Ġhouses": 9018,
      "late": 9019,
      "Display": 9020,
      "Ġalongside": 9021,
      "Ġrain": 9022,
      "picture": 9023,
      "Ġviolence": 9024,
      "Ġdefin": 9025,
      "Ġcapture": 9026,
      "Ġdanger": 9027,
      "Ġdivided": 9028,
      "Ġspeech": 9029,
      "Video": 9030,
      "Brit": 9031,
      "VD": 9032,
      "Ġfan": 9033,
      "Ġ%}": 9034,
      "selected": 9035,
      "Ġincident": 9036,
      "Ġnarr": 9037,
      "ĠMinistry": 9038,
      "Ġencoding": 9039,
      "ĠPoland": 9040,
      "ĠEnergy": 9041,
      "tip": 9042,
      "Ġbiggest": 9043,
      "mc": 9044,
      "Cap": 9045,
      "Ġorders": 9046,
      "ĠCirc": 9047,
      "comes": 9048,
      "Ġwarm": 9049,
      "Ġclinical": 9050,
      "ĠWhe": 9051,
      "lean": 9052,
      "components": 9053,
      "sch": 9054,
      "ĠDefault": 9055,
      "present": 9056,
      "ĠCommand": 9057,
      "Pool": 9058,
      "Î±": 9059,
      "Ġimplemented": 9060,
      "ĠRen": 9061,
      "Koi": 9062,
      "INFO": 9063,
      "Member": 9064,
      "Ġexerc": 9065,
      "Ġpersonnel": 9066,
      "Ġdance": 9067,
      "Ġconsidering": 9068,
      "Ġraw": 9069,
      ")^{\\": 9070,
      "Ġsignature": 9071,
      "Ġfactory": 9072,
      "Ġcoefficients": 9073,
      "ĠOntario": 9074,
      "hab": 9075,
      "lyn": 9076,
      "Ġscientific": 9077,
      "ubV": 9078,
      "ĠStation": 9079,
      "ROM": 9080,
      "Auth": 9081,
      "notes": 9082,
      "each": 9083,
      "Ġglass": 9084,
      "Ġshock": 9085,
      "pository": 9086,
      "}^*": 9087,
      "UlI": 9088,
      "cQL": 9089,
      "JQYi": 9090,
      "MNmI": 9091,
      "tfGu": 9092,
      "YkKoi": 9093,
      "ubVtfGu": 9094,
      "cQLBJ": 9095,
      "YkKoiubVtfGu": 9096,
      "JQYiUlI": 9097,
      "cert": 9098,
      "GC": 9099,
      "Ġfeaturing": 9100,
      "Ġeye": 9101,
      "ributed": 9102,
      "ĠassertEquals": 9103,
      "Rest": 9104,
      "Ġsyn": 9105,
      "Ġplanned": 9106,
      "Ġ+\\": 9107,
      "porated": 9108,
      "Ġ(*": 9109,
      "Ġathlet": 9110,
      "Feature": 9111,
      "Ġemphas": 9112,
      "rf": 9113,
      "keyword": 9114,
      "cmd": 9115,
      "YkKoiubVtfGuOe": 9116,
      "Ġpurposes": 9117,
      "ĠGuide": 9118,
      "Activity": 9119,
      "move": 9120,
      ")\\,": 9121,
      "ĠEngineering": 9122,
      "ĠTuesday": 9123,
      "Ġtheoret": 9124,
      "ĠVill": 9125,
      "Ġinstitutions": 9126,
      "Ġcas": 9127,
      "owa": 9128,
      "ĠEnvironment": 9129,
      "uv": 9130,
      "fol": 9131,
      "evin": 9132,
      "Ġepisodes": 9133,
      "two": 9134,
      "alloc": 9135,
      "Ġsubstant": 9136,
      "duce": 9137,
      "Ġcriminal": 9138,
      "wild": 9139,
      "Ġfuel": 9140,
      "ĠBad": 9141,
      "Play": 9142,
      "ĠParam": 9143,
      "ĠNiger": 9144,
      "Ġfacility": 9145,
      "GR": 9146,
      "Ġcustomer": 9147,
      "Ġlattice": 9148,
      "1942": 9149,
      "Ġscalar": 9150,
      "Cast": 9151,
      "Ġclubs": 9152,
      "Eq": 9153,
      "Ġsuggests": 9154,
      "ĠExecut": 9155,
      "impl": 9156,
      "PATH": 9157,
      "multi": 9158,
      "ĠMir": 9159,
      "ĠPath": 9160,
      "Ġaf": 9161,
      "Ġphoto": 9162,
      "ancel": 9163,
      "=\"\"": 9164,
      "Ġcurves": 9165,
      "ifts": 9166,
      "ĠEth": 9167,
      "ingly": 9168,
      "Ġweather": 9169,
      "Ġretired": 9170,
      "ĠOxford": 9171,
      "Ġcommonly": 9172,
      "Ġautomatically": 9173,
      "istant": 9174,
      "asters": 9175,
      "Ġsupporting": 9176,
      "Ġburn": 9177,
      "ĠGuard": 9178,
      "Ġlooked": 9179,
      "ĠAnother": 9180,
      "Ġrecip": 9181,
      "Ġlisting": 9182,
      "ĠTH": 9183,
      "Ġsubset": 9184,
      "ĠAmericans": 9185,
      "ĠPrime": 9186,
      "ĠInf": 9187,
      "CF": 9188,
      "Ġstandards": 9189,
      "Ġdecades": 9190,
      "Files": 9191,
      "Ġexplain": 9192,
      "Ġaccomp": 9193,
      "such": 9194,
      "Ġconven": 9195,
      "Ġmorph": 9196,
      "outheast": 9197,
      "Timeout": 9198,
      "ĠSus": 9199,
      "Ġtechnique": 9200,
      "cknowled": 9201,
      "ĠSem": 9202,
      "ĠTrust": 9203,
      ")))": 9204,
      "Ġguide": 9205,
      "Ġfifth": 9206,
      "Ġproport": 9207,
      "ĠRod": 9208,
      "ĠIndex": 9209,
      "Ġengineering": 9210,
      "United": 9211,
      "Cond": 9212,
      "Job": 9213,
      "Ġtab": 9214,
      "ĠJean": 9215,
      "ĠRegion": 9216,
      "Sports": 9217,
      "ĠSupreme": 9218,
      "Ġlat": 9219,
      "Ġpolitics": 9220,
      "Ġcarbon": 9221,
      "network": 9222,
      "total": 9223,
      "Ġdir": 9224,
      "Ġkill": 9225,
      "Ġreceiving": 9226,
      "isa": 9227,
      "Ġnarrow": 9228,
      "wait": 9229,
      "Ġbond": 9230,
      "Ġpatterns": 9231,
      "alyt": 9232,
      "Ġefficiency": 9233,
      "consin": 9234,
      "save": 9235,
      "ĠBeach": 9236,
      "Ġfell": 9237,
      "ĠControl": 9238,
      "Ġnewly": 9239,
      "ĠRog": 9240,
      "ĠNC": 9241,
      "iser": 9242,
      "Ġdiam": 9243,
      "Ġfunctional": 9244,
      "Ġprotein": 9245,
      "Ġenabled": 9246,
      "ĠRest": 9247,
      "world": 9248,
      "Ġadvoc": 9249,
      "PU": 9250,
      "About": 9251,
      "Ġelev": 9252,
      "nic": 9253,
      "Ġlargely": 9254,
      "pson": 9255,
      "Ġprincipal": 9256,
      "how": 9257,
      "Ġextend": 9258,
      "ologist": 9259,
      "aph": 9260,
      "external": 9261,
      "Ġsale": 9262,
      "ĠCH": 9263,
      "ĠCorn": 9264,
      "GO": 9265,
      "ĠFunction": 9266,
      "ilib": 9267,
      "ĠPakistan": 9268,
      "Ġhers": 9269,
      "\\!\\!": 9270,
      "Using": 9271,
      "brid": 9272,
      "editor": 9273,
      "ĠNon": 9274,
      "1958": 9275,
      "Ġhonor": 9276,
      "Ġcolumns": 9277,
      "axis": 9278,
      "ĠPen": 9279,
      "tw": 9280,
      "Desc": 9281,
      "Ġbin": 9282,
      "Pattern": 9283,
      "Ġpossibly": 9284,
      "(!": 9285,
      "Editor": 9286,
      "vs": 9287,
      "ĠExper": 9288,
      "Ġsingular": 9289,
      "Â°": 9290,
      "ĠHard": 9291,
      "Transform": 9292,
      "Ġwonder": 9293,
      "rat": 9294,
      "Ġextremely": 9295,
      "yard": 9296,
      "Ġspecifically": 9297,
      "Ġteacher": 9298,
      "agonal": 9299,
      "achment": 9300,
      "ĠOfficial": 9301,
      "Ġrequests": 9302,
      "Ġspatial": 9303,
      "Ġhor": 9304,
      "ĠMaster": 9305,
      "CHE": 9306,
      "limit": 9307,
      "Ã£o": 9308,
      "cam": 9309,
      "Ġconnections": 9310,
      "ĠAlexander": 9311,
      "SM": 9312,
      "Ġatmosph": 9313,
      "Constr": 9314,
      "nesota": 9315,
      "Ġdispl": 9316,
      "1956": 9317,
      "Ġcoordinates": 9318,
      "ÅĤ": 9319,
      "ĠViet": 9320,
      "1959": 9321,
      "Nov": 9322,
      "Ġinspired": 9323,
      "(){": 9324,
      "Ġdecom": 9325,
      "anna": 9326,
      "1939": 9327,
      "Ġusual": 9328,
      "Ġtrip": 9329,
      "iveness": 9330,
      "Ġpieces": 9331,
      "channel": 9332,
      "ĠLear": 9333,
      "ydney": 9334,
      "ĠBon": 9335,
      "ĠAli": 9336,
      "Ġdistributions": 9337,
      "Ġindustrial": 9338,
      "textsc": 9339,
      "Opt": 9340,
      "rium": 9341,
      "Ġprogramming": 9342,
      "iÄĩ": 9343,
      "ĠCas": 9344,
      "Ġtele": 9345,
      "Ġhandler": 9346,
      "ĠAdv": 9347,
      "PAR": 9348,
      "subsubsection": 9349,
      "@\"": 9350,
      "101": 9351,
      "essions": 9352,
      "1948": 9353,
      "ĠAz": 9354,
      "structions": 9355,
      "University": 9356,
      "Ġprime": 9357,
      "TABLE": 9358,
      "dem": 9359,
      "Py": 9360,
      "Ġminimal": 9361,
      "Ġsubsequently": 9362,
      "Flags": 9363,
      "Ġorganized": 9364,
      "ĠCur": 9365,
      "ĠGar": 9366,
      "ĠCount": 9367,
      "regon": 9368,
      "ivation": 9369,
      "elly": 9370,
      "ĠElement": 9371,
      "phia": 9372,
      "oured": 9373,
      "Ġoptical": 9374,
      "ĠCat": 9375,
      "endix": 9376,
      "Ġgirls": 9377,
      "Ġdefend": 9378,
      "hard": 9379,
      "events": 9380,
      "Ġperman": 9381,
      "ĠCorporation": 9382,
      "Ġrepeated": 9383,
      "Ġdescribes": 9384,
      "andy": 9385,
      "area": 9386,
      "AU": 9387,
      "txt": 9388,
      "Ġagric": 9389,
      "forall": 9390,
      "pir": 9391,
      "Ġmenu": 9392,
      "semble": 9393,
      "Common": 9394,
      "iga": 9395,
      "encing": 9396,
      "also": 9397,
      "ĠHung": 9398,
      "}</": 9399,
      "Ġhelps": 9400,
      "Ġabstract": 9401,
      "ĠToronto": 9402,
      "eral": 9403,
      "ĠBBC": 9404,
      "itivity": 9405,
      "ĠMinnesota": 9406,
      "idential": 9407,
      "ĠLew": 9408,
      "atters": 9409,
      "Graph": 9410,
      "3333": 9411,
      "ĠRailway": 9412,
      "ĠĠĠĠĠĠĠĠĠĠĠĠĠĠĠĠĠĠĠĠĠĠĠĠĠĠĠĠĠĠĠĠĠĠĠĠĠĠĠĠĠĠĠ": 9413,
      "ushed": 9414,
      "ĠFood": 9415,
      "ĠCare": 9416,
      "Ġcold": 9417,
      "Ġpenal": 9418,
      "ĠDO": 9419,
      "Tube": 9420,
      "Ġfinds": 9421,
      "prise": 9422,
      "Ġevaluation": 9423,
      "Ġ$$": 9424,
      "Ġcauses": 9425,
      "ĠĠĠĠĠĠĠĠĠĠĠĠĠĠĠĠĠĠĠĠĠĠ": 9426,
      "Ġpassing": 9427,
      "cb": 9428,
      "thur": 9429,
      "Product": 9430,
      "Ġgrew": 9431,
      "Ġtreated": 9432,
      "Ġmapping": 9433,
      "tabs": 9434,
      "ĠSant": 9435,
      "Ġphenomen": 9436,
      "ĠElizabeth": 9437,
      "izable": 9438,
      "onical": 9439,
      "Ġpractices": 9440,
      "Windows": 9441,
      "wp": 9442,
      "()));": 9443,
      "hl": 9444,
      "Ġbaseball": 9445,
      "Engine": 9446,
      "ĠFinally": 9447,
      "Items": 9448,
      "âĢī": 9449,
      "Ġpartition": 9450,
      "ĠAirport": 9451,
      "UID": 9452,
      "ĠTR": 9453,
      "Directory": 9454,
      "Ġshell": 9455,
      "ONE": 9456,
      "ĠBal": 9457,
      "lywood": 9458,
      "1941": 9459,
      "ennes": 9460,
      "ĠBerlin": 9461,
      "ederation": 9462,
      "anz": 9463,
      "Ġfundamental": 9464,
      "elegate": 9465,
      "hadoop": 9466,
      "ĠFair": 9467,
      "inher": 9468,
      "PM": 9469,
      "Ġcrisis": 9470,
      "Ġce": 9471,
      "Ġremark": 9472,
      ")_{": 9473,
      "fi": 9474,
      "ĠTam": 9475,
      "exists": 9476,
      "Ġperturb": 9477,
      "ving": 9478,
      "ĠNE": 9479,
      "Ġcompr": 9480,
      "Ġentries": 9481,
      "Ġrend": 9482,
      "raq": 9483,
      "125": 9484,
      "Ġinstanceof": 9485,
      "Ġperforming": 9486,
      "adelphia": 9487,
      "1957": 9488,
      ")\">": 9489,
      "Ġconfirm": 9490,
      "Ret": 9491,
      "Float": 9492,
      "Scope": 9493,
      "ĠUnivers": 9494,
      "oor": 9495,
      "zona": 9496,
      "Ġsan": 9497,
      "ĠBC": 9498,
      "ĠRights": 9499,
      "sex": 9500,
      "apore": 9501,
      "rout": 9502,
      "apol": 9503,
      "ropol": 9504,
      "urd": 9505,
      "article": 9506,
      "ĠMedicine": 9507,
      "Own": 9508,
      "ostic": 9509,
      "ĠBul": 9510,
[...]
