#version: 0.2
Ġ t
i n
h e
Ġ a
o n
e r
Ġ Ġ
Ġt he
r e
a t
e n
o r
Ġ s
a n
a l
Ġ o
i s
i t
e s
e d
a r
Ġ w
Ġ c
Ġ f
Ġo f
n d
Ġ in
i on
Ġ p
Ġ b
i c
in g
a s
l e
r o
Ġa nd
ĠĠ ĠĠ
Ġ d
Ġ m
Ġt o
o u
en t
e l
i l
c t
Ġ S
Ġ h
e t
a m
s t
o m
Ġ \
Ġ C
Ġ T
Ġ re
o l
Ġ A
i g
Ġt h
at ion
Ġ (
Ġ $
r a
Ġ n
Ġ l
i m
Ġ e
o t
Ġ M
i v
i d
u r
c e
Ġ is
c h
Ġf or
u t
u s
Ġ B
l y
a d
Ġ g
Ġ I
Ġ P
er s
Ġ on
2 0
o w
1 9
u l
i r
e m
Ġ H
it h
Ġb e
t er
a y
Ġa s
Ġs t
u n
â Ģ
u m
Ġ R
Ġw as
is t
Ġ F
{ \
Ġ D
Ġ L
t h
a b
Ġw ith
ĠT he
v er
Ġth at
s e
a g
ĠĠ Ġ
Ġc on
q u
Ġa l
o d
an d
he r
i f
ĠĠĠĠ ĠĠĠĠ
Ġ N
Ġ W
Ġ G
Ġb y
Ġ v
Ġa n
r i
a c
o p
Ġp ro
es t
Ġ E
at e
en d
re s
Ġa t
o s
ro m
Ġw h
ig h
o c
Ġd e
it y
e ct
a v
at h
Ġ Ċ
Ġ J
_ {
u p
a p
Ġc om
a in
e g
ar t
Ġf rom
u b
i es
Ġ it
al l
e w
il l
Ġ he
o re
Ġ O
Ġ$ \
Ġe x
e c
' s
or t
igh t
Ġa re
u d
es s
p h
an t
ct ion
u re
b er
i al
Ġ or
e x
in e
g e
č Ċ
a k
m ent
i an
m ath
iv e
Ġ U
Ġ "
Ġ K
l d
ic h
i p
ar d
T he
n t
r an
e p
i a
Ġ &
at ed
20 1
âĢ ĵ
o g
ou r
Ġ =
o v
ar y
p l
Ġp l
as s
Ġc h
} \
am e
el l
u nd
Ġw e
f er
ĠS t
} $
20 0
ic al
Ġ r
u e
ĠI n
i z
^ {
e ar
it e
u st
on g
c l
Ġs h
as t
Ġs p
Ġ y
Ġ le
ig n
u g
p t
Ġh is
ul t
p er
) ,
it ion
a re
Ġcom p
Ġc l
Ġ V
Ġs e
f t
or d
av e
i re
ag e
Ġwh ich
Ġn ot
k s
re f
Ġ us
or m
s p
f f
ra c
o st
Ġth is
ĠĠĠĠ ĠĠĠ
0 0
Ġ k
u c
Ġ |
s o
ĠC h
is h
en c
er e
ation s
ex t
t her
m a
en s
1 8
t a
m er
in t
} }
( \
p p
Ġ -
ac k
r ic
en ce
Ġ un
Ġw he
Ġal so
id e
ion s
Ġw ere
ou s
) .
r y
im e
er v
on d
t o
eg in
Ġh as
Ġcon t
a ce
ĉ ĉ
or k
Ġh ave
i b
b egin
i e
an g
c al
ter n
ab le
= "
l ow
p ort
ir st
il d
ou t
Ġa r
) $
om e
ic e
I n
Ġ| |
a ch
Ġc an
ou nt
Ġa d
_ {\
as e
Ġa b
or y
a ct
Ġ <
r it
c c
ĠT h
r u
ĠU n
âĢ Ļ
o k
o ver
Ġ j
ow n
ĠH e
) ;
Ġp art
} {
ou ld
Ġ im
w o
in d
er m
ou nd
at es
e y
re e
f orm
r ight
en er
Ġre s
Ġ {
he d
Ġon e
19 9
i le
ol d
Ġ ro
f rac
r m
ation al
Ġpl ay
Ġf irst
ent s
cl ud
or s
am p
ĠI t
Ġ Y
i k
e qu
ur n
an ce
e q
} ,
Ġthe ir
Ġh ad
1 0
u ch
Ġwh o
p e
t ext
u al
el y
Ġ âĢĵ
Ġit s
ub l
Ġd is
t he
res s
Ġa pp
Ġb ut
n g
Ġal l
- -
f ter
ab el
or n
ra d
ri b
Ġt e
at er
Ġp er
enc es
l l
w e
o b
ar k
Ġt wo
ic s
in al
< /
R e
math b
an y
s s
Ġre c
. .
ĠĠĠĠĠĠĠĠ ĠĠĠĠĠĠĠĠ
l and
t e
ro w
v el
a w
p ro
Ġo ther
on s
Ġa g
ic an
Ġs c
e f
ug h
Ġe v
e op
Ġp re
Ġo ut
et a
o se
$ ,
Ġm e
l es
j ect
is s
Ġd es
Ġ âĢ
l abel
c ite
o ol
on t
/ /
Ġm od
i ed
Ġy ear
it ed
eop le
Ġbe en
Ġ her
Ġbe c
Ġ qu
iv ers
$ .
, \
i el
Ġ up
le ft
math cal
ing s
Ġ *
Ġo ver
em ber
Ġn ew
as ed
19 8
on e
d u
le ct
o int
fer ences
ran s
equ ation
ar i
Ġo b
ul ar
o ot
am b
Ġcom m
Ġt ime
Ġthe y
Ġ if
il m
Ġin clud
g h
Ġs y
und er
f ig
ic t
p s
Ġ }
ol low
} .
w ard
Ġas s
Ġin d
o y
r am
Ġ en
Ġm ore
1 2
c ent
ra ph
Ġcl ass
} )
mer ican
i x
ur ing
iel d
Ġcon s
Ġs et
Ġde f
im es
at a
} (
ĠĠĠĠĠĠĠĠ ĠĠĠ
o od
Ġin t
ut ion
ak e
v i
Ġw ork
Ġc ol
Re ferences
s h
Ġb et
1 7
ĠN ew
Ġin ter
Ġre g
at ive
Ġin to
oc k
v e
an s
Ġs ub
~ \
re d
ol og
Ġwhe re
Ġw ill
l ine
ĠC om
a il
} ^
i o
ar g
r al
Ġ +
er t
an n
19 7
Ġre l
1 5
Ġfor m
Ġd o
} _
1 6
un ction
ĠA l
Ġre t
Ġwhe n
Ġf ollow
ro up
c om
a us
an c
ro und
Ġa fter
ph a
res ent
Ġ under
p r
um ber
e e
Ġp ol
Ġon ly
Ġof f
in ce
le t
b all
re n
ou gh
od e
Ġs uch
e ver
d a
Ġs up
if ic
t y
Ġc o
ch ool
Ġa ct
Ġl oc
al pha
it ies
Ġs o
we en
Ġa cc
ubl ic
E x
id ent
ĠM ar
Ġex p
Ġk n
Ġthe re
ra y
c ess
or ld
ot h
ad e
Ġd ist
et h
ist s
at ing
ro ugh
Ġp eople
" >
ic k
st em
Ġat t
) \
Ġp r
Ġw ould
w ay
Ġs he
a x
d er
Ġth an
ĠA r
Ġd if
ĠTh is
Ġthe n
Ġs ec
2 1
is ion
r ing
Ġ [
d uc
Ġs erv
Ġbet ween
al s
m b
ver y
ĠĠĠĠ Ġ
is hed
s c
l i
o f
Ġab out
19 6
il y
Ġf ilm
Ġl in
ou th
o h
n e
in ed
S t
w n
Ġp os
g an
ivers ity
Ġp h
Ġcon st
el ta
Ġst ud
e b
Ġg ener
Ġs ome
c on
Ġ est
am es
h ip
ab l
$ \
amb da
Ġres ult
Ġv al
Ġin v
ĠP ro
t t
e v
u res
t on
ur y
1 4
iz e
as on
Ġ '
y s
1 3
ĠA merican
p os
oc i
Ġsh ow
Ġb u
Ġy ou
âĢ Ŀ
am ma
Ġ Z
o ok
h at
in s
ul l
t s
Ġt ra
is e
he s
Ġpro v
it s
o x
el f
Ġus ed
mathb b
e ed
Ġt rans
al ly
a ir
Ġm ost
ire ct
ment s
Ġf unction
Ġan y
i ent
* *
ou n
a h
or th
_ \
d ition
m an
Ġs im
ect ion
= \
} _{
Ġre m
at ure
Ġsp ec
p art
ru ct
m u
ĠS h
Ġthe m
u es
is m
s ub
il ity
d ot
ov e
ig ma
ik e
Ġc ent
if e
Ġmod el
tern al
Ġ\ \
h o
Ġ ra
Ġn o
1 1
he n
c re
Ġm an
} ^{
ow er
Ġyear s
as h
em b
ĠI nd
ĠD e
re at
2 2
em ent
19 4
ce pt
" ,
Ġth rough
ĠC ol
id er
Ġp ar
- \
ĠL e
Ġh im
Ġ end
Ġf l
ap t
eg a
g et
Ġag ain
c ol
at t
Ġret urn
p ut
Ġa c
Ġ ed
le m
er n
a z
Ġn umber
Ġsy stem
over n
Ġe qu
19 5
al e
Ġ ent
m in
ĠUn ited
it t
Ġf ound
Ġb l
ap p
ib le
Ġ Q
in n
ph i
ĠUn iversity
^ {\
Ġf e
s et
ar n
Ġm ay
Ġthe se
iz ed
Ã ©
ĠF or
3 0
Ġth ree
us s
Ġw ell
en g
a j
Ġm at
Ġdif fer
ĠA n
Ġe ach
ĠW e
ion al
vel op
i er
Ġin st
Ġc or
er ies
ou se
Ġd uring
r on
2 5
al ign
p le
ut e
ar s
Ġre sp
Ġex t
le ction
at or
Ġg iv
l ambda
Ġs ing
Ġe ff
Ġs ign
a id
Ġp oint
y pe
Ġ .
ĠâĢ ľ
oot ball
ra ct
Ġf am
Ġte am
Ġa m
p i
Ġo ur
Ġs m
Ġsec ond
Ġg roup
ĠC l
= =
ĠS c
ric t
Â ł
Ġc all
Ġo per
ar ly
ay s
Ġ {\
aus e
t en
ĠS p
Ġre p
re t
Ġar t
Ġs ur
ers on
Ġm on
Ġl ine
in es
Ġg o
Ġre le
in a
mathb f
Ġb oth
us ic
b f
Ġle ad
ow ever
o ber
il on
Ġm ade
y n
Ġs ame
Ġc ur
Ġn ame
Ġp ublic
iv er
Ġus e
iv ed
s um
Ġv ari
Ġlin ks
ur al
Ġm in
ic es
Ġh igh
Ġst ate
ĠE ng
ri pt
oh n
at her
g y
T h
Ġch ar
ot her
Ġbe ing
id th
Ġde c
p en
ot e
Ġapp ro
et s
ĠA s
ut h
f l
Ġd ata
ist ory
Ġplay ers
Ġb ack
ain ed
Ġpart ic
Ġc ount
( )
p ar
Ġpro b
ĠC on
Ġc re
ĠSt ates
et er
Ġd irect
Ġwh ile
00 0
Ġm ed
s igma
Ex ternal
b ar
en n
le y
Ġp op
Ġfollow ing
Ġe m
re nt
iv ing
\ \
Ġm any
ical ly
ild e
se ction
ag es
ĠS he
Ġs ol
-- --
s y
f ore
Ġper form
om en
ire d
^{ -
iz ation
Ġw rit
Ġdiffer ent
b um
ant s
ĠI s
Ġc ase
Ġdes c
olog y
. "
at ic
ro ss
ul ation
ir c
Ġkn own
Ġ( \
s on
Ġdis c
c es
2 4
} {\
ĠCom m
Ġl ater
b eta
Ġde velop
ep t
Ġt erm
og raph
Ġn on
r id
b y
th s
Ġ X
Ġm ov
ĠC ount
Ġrec ord
+ \
un e
in k
ep s
Ġbe fore
Ġf our
math rm
a u
Ġst r
our ce
v al
Ġm ain
ect ed
* }
Ġor der
2 3
g amma
eth od
Ġse ason
Ġinclud ing
Ġs chool
" .
Ġt r
u ro
Ġf ield
Ġre qu
. ,
c k
oun c
ag ue
W e
v ent
ĠO n
ot t
iss ion
Ġb ir
he re
are d
r ho
Ġl ong
ĠA d
ĠB l
Ġpro du
Ġ ran
Ġf in
l ed
19 3
g ram
Ġcons ider
Ġ i
Ġst art
al ity
ĠF ran
v ed
Ġf ootball
Ġ x
C h
vi ew
m p
ĠJ ohn
ak ing
ar ri
is ter
iv es
ĠJ an
amp le
Ġb el
ĠĠĠĠĠĠĠĠ ĠĠĠĠĠĠĠ
ĠP h
ĠN ational
ain s
tern ational
ĠW orld
ĠM ay
Ġagain st
Ġsm all
Ġest abl
Ġal bum
ver t
Ġcont in
Ġor ig
5 0
Ġgiv en
Ġo wn
as es
ar ray
f ul
er r
o o
iv ely
^ \
Ġus ing
pl ic
the ta
le q
y le
f or
Ġs eries
] {
ial ly
ual ly
i or
Ġs ince
- >
el s
an k
) }
overn ment
ar ge
s erv
Ġsup port
Ġs aid
ur ch
d elta
Ġf act
ĠA ust
Ġ /
t il
Ġd et
ĠP l
m e
it em
qu ad
ch n
c dot
as k
Ġbec ame
Ġg et
a i
Ġbu ild
$ -
Ġg u
m m
ta u
le v
v ers
Ġr ight
Ġf inal
Ġc are
Ġe lect
Ġc ould
k e
se c
in c
r ist
y p
duc ed
it al
is c
ot s
Ġr un
P ro
Ġd r
}$ ,
Ġn ow
Ġfam ily
i am
ĠC ar
Ġ :
Ġp res
ian s
fig ure
}$ .
form ation
ĠB rit
an ge
enc y
ar ch
ĠC an
ĠCount y
b ig
Ġse ver
ĠW ar
ar row
if ied
eq ref
um n
i ence
Ġo pen
Ġpol it
} (\
r and
er y
iv al
Ġdes ign
ĠS chool
ĠâĢ Ķ
u ary
t imes
ĠY ork
Ġbec ause
ĠN ov
in ing
ĠR e
Ġcomm un
2 7
Ġse e
ĠJ u
201 0
ĠS outh
Ġl ike
ff ic
Ġan n
2 6
or ks
Ġj ust
| -
et y
ĠO r
2 8
Ġeff ect
Ġex per
p or
le x
Ġm et
Ġrep resent
ĠG erm
Ġv i
r is
Ġs ong
Ġre ce
Ġad d
Ġb ased
ĠA ss
a f
emb ers
Ġp resent
Ġ z
i qu
Ġb ro
Ġde ath
am ed
Ġdesc rib
Ġpro f
ug ust
ĠC ent
ĠE x
Ġ //
an e
o ad
al th
ro p
v ar
Ġde p
Ġl ist
ept ember
aj or
ft y
cent er
id ed
ĉĉ ĉĉ
Ġun til
v en
Ġcall ed
os s
Ġl ife
Ġwh at
part ial
ic a
O n
d ef
in fty
w idth
Ġloc al
ran g
Ġn eed
ĠP ar
Ġe very
t ilde
ward s
m ed
Ġchar act
ct ober
i um
ir d
ĠA t
t ing
Ġm usic
201 6
ĠA nd
Ġch ild
Ġd id
re ad
r ation
amp ions
Ġor gan
n u
201 5
ĠG e
201 4
Ġval ue
ĠMar ch
o id
Ġoff ic
Ġ very
Ġl arge
201 1
ĠT e
um ent
s k
m ber
Ġare a
n er
Ġpro cess
Ġ el
ra w
Ġpro gram
2 9
is ed
pr il
201 2
201 8
ĠA ugust
rib ut
Ġs uc
1 00
ĠS eptember
ist or
rac k
ep end
Ġ< /
om ega
Ġin cre
ĠP ol
I t
201 7
Ġn e
| \
um b
ĠE uro
o ard
Ġa p
Ġsever al
am ent
res p
ro l
20 20
Ġ @
le ge
p m
Ġl aw
ar m
Ġw orld
ab ility
201 3
om an
re en
le ment
i ous
C on
r t
il t
Ġm ethod
Ġn ear
b orn
ĠJan uary
ur ther
vi ous
eq n
Ġth ose
ĠO ctober
n ess
4 0
Ġ ,
in ess
Ġl ast
Ġp ass
C om
l ish
ĠA ll
Ġst at
) )
ce mber
.. /
Ġev en
a e
end ed
20 19
Ġhe l
Ġresult s
Ġre port
us e
ĠJ une
Ġo cc
ĠW h
Ġpro per
Ġto p
col or
Ġg ame
ĠP r
ore m
Ġst ruct
Ġpos s
200 8
' ,
: :
Ġre st
et w
ac es
ĠJu ly
Ġfor mer
ction s
Ġal ong
ri x
c he
Ġpl ace
ĠR ep
Ġorig inal
ĠAust ral
at ely
on y
Ġgener al
b l
ĠA pril
Ġob t
Ġd ue
200 9
Ġan al
at ch
sp an
ang u
Ġm ult
Ġal low
id es
ĠThe y
x i
D elta
u ed
Ġplay ed
Ġsing le
ĠN orth
Ġle ft
od y
v es
Ġob serv
ĠSt ate
Ġst and
Ġb ound
ag n
ĠNov ember
Ġp ower
en se
Ġme as
ĠG u
ĠC ity
ent ly
Ġim port
Ġa round
sp ace
Ġrele ased
il it
ĠI I
s ide
H e
en e
ol ution
Ġt est
Ġo pt
g er
ĠDe cember
Ġh and
ent ial
Ġcur rent
ord ing
ĠH owever
ĠC al
Ġw on
Ġhe ad
i od
Ġt ype
200 7
Ġm ake
200 6
Ġ rad
Ġpar am
d ay
Ġwith in
um er
Ġp erson
av ing
Ġe arly
uth or
ect or
ill ion
Ġp ubl
Ġv ers
or g
Ġsh ould
w here
Ġt it
ĠA f
Ġs u
u le
Ġre f
Ġf ind
o le
Ġapp ear
Ġ$ (
l er
\ ,
ak es
re l
re g
Ġpro t
c it
l ing
in clud
ĠBrit ish
ĠEuro pe
n ot
Ġcon dition
Ġc ity
Ġg overnment
Ġad dition
Ġre fer
Ġin c
Ġb us
ĠĠ Ċ
Ġdo es
ograph y
ĠB e
Ġev ent
ĠM an
19 0
Ġl im
our n
es c
un g
Ġpro ject
Ġprob lem
)$ .
eb ru
} }\
ĠS y
m l
ebru ary
Ġw ay
Th is
Ġre ad
ĠU S
b m
rib ution
as ter
at s
Ġb and
if y
Ġin it
Ġs l
ĠR eg
Ġw omen
20 21
ampions hip
Ġresp ect
Ġc our
ĠW ill
it ive
mb ol
Ġex pl
} [
Ġm ass
b s
Ġt ri
ĠLe ague
Ġa v
Ġh ow
Ġbir ths
S ee
a im
Ġm embers
A l
Ġre al
Ġt rad
ĠCan ad
al es
Ġsp ace
ap an
F or
om et
ore d
st it
g round
Ġl and
ener gy
cent ury
g or
Ġle vel
Ġd own
re m
d iv
E R
Ġm y
h i
Ġen g
e k
s q
$ $
om in
Ġl arg
ĠK ing
Ġle g
ĠE d
Ġc ap
Ġ ident
Ġd em
ain t
Ġt em
l or
h am
ur s
il ar
l ess
uc k
ition s
is on
um e
A s
Ġst ill
Ġm ajor
ord s
al k
os ed
it er
id d
Ġsuc cess
he m
Ġcomp et
u k
6 0
ĠR es
h t
Ġm uch
ĠF ebruary
A R
200 0
l in
Ġv is
Ġcare er
eps ilon
oc ial
Ġfilm s
f ield
Ġm ark
le g
ess age
I N
ĠCh rist
Ġh ome
O m
ĠM in
ĠP art
z e
ac ed
lev ision
c o
ren ch
200 5
eqn array
18 9
ĠC o
Ġad v
: //
Ġis s
Ġto t
resp ond
m od
Ġs um
Ġto wn
ĠA rm
ure d
s im
( );
Ġcharact er
at ors
Ġm ember
st er
Ġc rit
A merican
s elf
Ġp ost
Ġcomp any
Ġg l
ap er
Ġhel p
ĠS ec
i j
b ack
anc es
Ġte chn
a ugh
c hes
Om ega
Ã ¡
Ġ `
end s
Ġbe gan
U n
} _{\
ps ilon
Ġc ar
ĠA fter
in o
b e
Ġb est
Ġ #
es e
ĠW est
Ġman ag
S T
um an
.. .
eng th
Ġin formation
t r
Ġper iod
ra g
Ġo ld
8 0
)$ ,
Ġf re
) :
Ġsh ort
Ġkn ow
Ġhe ld
3 3
d e
Ġn amed
ĠH ar
ra ft
Ġpartic ular
ĠH is
ug g
ĠS e
Ġp at
ri es
Ġd ay
Ġob ject
( "
A n
ĠF ig
C l
Ġ$ {\
Ġinclud e
ps i
l og
Ġpre vious
200 4
ĠM c
Ġpop ulation
st r
Ġ energy
^ *
es p
etw ork
o or
v are
th ough
Ġt ake
Ġestabl ished
Ġcon n
Ġbe h
ific ation
Ġex ample
** **
er o
ĠB ar
sq rt
ĠD ist
Ġinter est
ru ction
ol l
Ġto ok
Ġn ational
w h
ie f
ĠEng lish
an a
Ġd iv
Ġdescrib ed
c ed
re am
ang le
im ent
Ġest im
ĠAf ric
pl oy
ĠS up
Ġo pp
Ġab ove
Ġcomp let
ad em
re w
os p
ĠS w
Ġs elf
Ġcl ub
ĠM ed
f ord
Ġan other
et ers
ur g
ĠN o
' t
G amma
ond on
ĠJ apan
angu age
Ġh istory
im ens
Ġloc ated
op e
ed er
raph ics
ra k
vare psilon
ĠA b
con om
if t
O N
oci ation
in ation
Ġa ff
Ġb as
Ġint ro
l im
are nt
Ġin f
Ġtot al
Ġd en
Ġde b
Ġal ign
Ġv ill
Ġcor respond
pl ay
Ġh ig
Ġth ough
A T
Ġj o
Ġsim ilar
Ġpro m
Ġh ouse
Ġint eg
ap e
em pt
text bf
Ġprof ess
Ġg rad
ĠR uss
== ==
Ġed uc
row n
Ġs cal
f ace
ch i
ĠĠĠĠĠĠĠĠ Ġ
Ġrece ived
x im
ĠR ec
iv ate
Ġd el
ĠThe re
Ġn ext
Ġs k
Ġst ation
4 5
e ad
ĠY ou
at ter
b le
> </
Ġwith out
a ul
Ġre se
Ġc al
ĠCol lege
ir on
sub section
) =
il le
ĉĉ ĉ
Ġ čĊ
Ġim p
Ġg ames
Ġe p
ĠI f
Ġpubl ished
al f
Ġa ge
Ġs at
Ġpoint s
ain ing
3 5
ent ion
ĠC or
ith m
^{ (
at ures
i et
Ġch ang
> <
er ing
Ġf ive
Ġ\ ,
Ġc amp
Ġ u
Ġh old
Ġc r
---- ----
Ġchild ren
A S
ear ch
Ġl a
ilit ary
ener al
ide o
c m
Ġcon f
Ġinv est
c apt
cept ion
Ġbus iness
ĠL ondon
Ġstud y
âĢ Ķ
Ġm ust
ĠA m
ra p
du ct
ĠB y
ĠE l
Ġbu ilt
al d
ing ton
Ġs ix
fer ence
g es
ist ic
op t
ur b
Ġserv ed
ounc il
lect ed
olog ical
b old
Ġb orn
our ces
ert ain
Ġth ird
Ġb ook
} =
id ual
o ff
right arrow
Ġde g
Ġg ood
ĠT r
us h
}^ {\
od es
se qu
Ġcent ury
Ġd er
Ġ* /
ĠWill iam
200 3
Ġl ow
le ar
ad d
ĠP res
Ġa uthor
ĠA ir
err or
Ġcomp ut
Ġb re
am pl
w w
Ġs ection
ric k
c hed
Ġinv ol
arri ed
a ult
se e
op er
Ġt urn
3 1
es tern
includ eg
includeg raphics
3 2
i us
7 0
ĠF rench
Ġe lection
on es
Ġact iv
Ġs ide
Ġreg ion
ard s
ord er
orm al
Ġcount ry
u f
Ġshow s
Ġex ist
ra in
Ġm en
in ter
ĠE n
Ġimport ant
../ ../
ĠH igh
capt ion
I D
Ġcom b
re et
Ġv ol
pos ed
ac ks
op h
rang le
Ġd i
ĠD av
epend ent
ict ion
e ak
Ġserv ice
Ġf ew
re st
it or
_ _
ĠH ouse
Ġvi ew
ĠCh ar
c ont
oo ks
Ġst yle
ref ore
em ph
im al
Ġ )
du ction
t ab
Ġw ar
200 1
Ġam ong
th is
il es
Ġbe g
Ġt imes
ĠCh ampionship
Ġle t
ĠAr t
ĠGerm an
200 2
Ġar ch
Ġinclud ed
ro ll
m y
7 5
Ġle arn
Ġof ten
Ġbuild ing
Ġsh own
ight s
ens ity
9 0
Ġspec ies
A r
a ction
Ġtit le
Ġa ver
l ation
ĠH er
Ġdet erm
il s
pos ition
Ġf r
Ġcon c
. âĢĿ
n ew
Ġstr ong
ĠCom p
Ġ et
Ġc over
ic le
Ġt yp
ĠA ct
Ġm ap
ĠIt al
Ġs ize
Ġ >
ens ure
Ġf ull
ot es
w ith
it her
ĠM e
Ġval ues
Ġpos ition
var phi
way s
Ġs it
un ic
Ġf ac
ly mp
Ġa ir
ĠĠĠĠĠĠĠĠĠĠĠĠĠĠĠĠ ĠĠĠ
ge q
Ġph ot
ĠD ep
a ff
ĠS ch
Ġfollow s
ĠDist rict
h old
Ġro le
ĠA ng
d d
n a
Ġte levision
n on
' '
Ġw ater
t ime
ĠP ark
iqu e
Ġre pl
18 8
ht ml
i ber
Ġa ut
cl ass
ix ed
sh ip
u ation
or ies
ort s
t rans
par am
Ġf ore
Ġfe ature
Ġar g
ak en
ĠIn ternational
u x
pro of
iv idual
ĠB ro
Ġf urther
Ġplay er
t d
inn ing
Ġterm s
Ġp ot
oc us
Ġst ates
L ist
ran sp
c ul
d om
end ing
Ġw orks
ab or
al t
et t
y l
Ġcont rol
sy mbol
Ġcomm on
gor ithm
al se
ĠPh il
Ġm illion
Ġpre d
Ġsign ific
um p
ress ion
Ġsp ect
ĠC up
or ph
Ġvers ion
6 4
T o
Ġcl aim
Ġg reat
Ġspec ial
Ã ³
Ġd ied
er ed
rid ge
if orn
Ġme an
oci ety
c ast
ĠG l
B ig
Ġl ess
Ġph ys
op s
n ing
Ġs w
Ġvari ous
ud e
Ġdef ined
ys is
Ġ ide
Ġhe re
. ~\
ĠT o
Ġbec ome
y m
iforn ia
ĠThe se
Ġdisc uss
n ame
st and
Ġc ult
ail able
Ġass oci
ĠA g
Ġqu ant
att le
Ġwrit ten
ĠO ne
R E
Ġch o
ĠM on
e al
over line
ip p
Ġcommun ity
ĠB ut
our s
ĠInd ian
Ġprodu ct
Ġn orth
ac he
Ġposs ible
n o
ĠEng land
20 22
& \
Ġp ort
Ġrel ations
Ġk ey
Ġp ri
Ġe as
Ġdevelop ment
Ġk ill
et ic
6 5
av y
am a
bold symbol
Ġin fl
or ge
Ġmult ip
S p
is ing
Ġmodel s
Ġh aving
Ġs ep
Ġconsider ed
ĠA mer
( '
Ġc ou
pl it
he ad
Ġp ract
Ġs on
Ġrese arch
ourn al
v iron
og n
id ence
Ġh ref
o on
ounc ed
Ġm ot
. }
ĠL a
) ^
if f
ĠD iv
n ow
ĠM ich
Ġyou ng
Ġin ternational
oy al
use um
Ġtr ue
Ġc he
ab ly
ol ic
3 4
P l
itt le
Ġstruct ure
ib r
ĠP er
Ġy our
ĠCal ifornia
yn am
iv il
N ame
v ec
ĠS an
f rak
Ġg row
min ist
ar a
er a
ĠB r
ĠR iver
Ġh istor
Ġw ant
Ġappro xim
ial s
Ġan t
Ġl ed
Ġcol l
t ies
Ġ enc
S h
Ġpr im
b r
Ġvill age
sc ript
Ġperform ance
Ġch ange
an ish
arg et
[ \
199 9
ac hed
Ġg en
}, \
om b
B y
ĠQ u
L iving
Ġh owever
is f
Ġim pro
L et
} ).
Ġind ividual
Ã Ń
Ġs ay
ut ions
Ġdist ribution
199 0
u ild
Ġf ree
at ural
land s
ĠĠĠĠĠĠĠĠĠĠĠĠĠĠĠĠ ĠĠĠĠĠĠĠĠĠĠĠĠĠĠĠĠ
on ent
h tt
Ġev ents
Ġs outh
Ġn ov
p ose
Ġf und
ic o
i ents
m on
h line
ĠPart y
Ġt w
ch ie
a ut
Ġc ame
] $
Ġm ax
mm et
T ype
ĠAustral ia
Ġran ge
Ġro und
ĠA c
Ġre d
C ol
it ect
Ã ¼
Ġn etwork
Ġmeas ure
Ġv ar
cl us
s m
P eople
on se
h ib
Ġa ction
Ġl ight
ĠE ast
Ġsignific ant
A C
ĠW hen
ĠInd ia
Ġle ast
Ġcomp lex
Ġestabl ish
w ide
} }$
Ġpolit ical
Ġav ailable
Ġs ocial
oc ument
Ġf ather
her n
Ġst ar
I d
m ult
ob al
im port
Ġs ent
g color
ĠC our
Ġpro duced
Ġcre ated
R es
Ġmov ed
Ġmat ch
B C
ĠS m
ĠPres ident
math frak
3 8
s ource
Ġaver age
Ġc ross
Ġc irc
r ant
b ra
d is
Ġstart ed
3 6
Ġsep ar
as ing
le te
Ġind ic
get her
Ġto gether
4 8
Ġs ite
ĠAmer ica
Ġgroup s
u el
Ġl ate
Ġse qu
Ġe conom
Ġprodu ction
Ġem ploy
in ition
m ost
Ġh ost
i i
t able
Ġst ory
b it
ate g
Ġpr ivate
Ġb i
Ġdist rict
I nd
oc al
and er
ul a
app a
Ġap plic
w are
Ġp o
ld ots
ty pe
l angle
im um
ĠV al
Ġs old
Ġdif f
k ey
Ġc ost
199 8
Ġb ase
Ġf ail
ut ure
H istory
ĠF l
Ġb gcolor
ot ed
ĠCh urch
a el
Ġw ent
ĠĠĠĠ ĠĠ
Ġf ri
Ġeng ine
ĠA ward
Ġf ocus
Ġe ar
3 7
ex p
Ġbl ack
Ġstud ents
Ġtra ining
o e
ĠD r
le ments
ĠO lymp
ell ow
~ ~
ĠB er
ĠEurope an
Ġthe ory
I I
b or
3 9
S S
her s
viron ment
Ġin s
A N
ple ment
Ġf em
Ġm ale
Ġann ounced
Ġc apt
Ġf low
} ;
Ġdeath s
ĠThe n
ab les
itt ed
Ġm agn
Ġac ross
L ambda
ĠW ith
Ġt ext
it te
Ġl ower
Ġsystem s
Ġp aper
Ġl ook
ĠC ouncil
ac y
Ġsur v
Ġh alf
Ġhe alth
Ġh uman
O R
Ġserv ices
Ġse en
ĠArm y
ec ut
n abl
P s
5 5
n ey
Ġa ward
Ġcons ist
m s
Ġind ust
âĢ ľ
Ġd ays
ĠP al
Ġv ideo
] ,
Ġass um
p d
ĠFran ce
em s
ir l
it ar
Ġfe atures
Ġd eta
Ġh om
Ġm iss
Ġc aus
ransp ort
Ġre view
Ġc ases
g ed
ĠH ol
Ġm er
Ġcon v
Ġacc ess
m ar
ay er
4 9
e ep
A L
\ |
St ring
ot imes
P hi
Ġpl an
ĠB el
ur ity
it z
e h
Ġobt ained
m essage
ĠCanad a
Ġset t
198 0
est s
ĠA nt
# #
Ġprov ide
Ġbro ad
Ġbec om
Ġn eg
18 7
idd le
ret urn
Ġm ater
Ġh y
k ed
il ities
" )
Ġr ate
c ode
h a
ort hern
c y
Ġd ensity
Ġn ever
Ġe ither
Ġd on
cc ording
Ġqu est
k appa
ul es
Ġs em
V al
cit ep
ro te
em ents
Ġpartic ip
ĠM al
Ġsat isf
ĠR ober
Ġwork ed
mb ox
ĠJ ames
oc r
ĠTh om
m ing
Ġm aking
o ch
st yle
d raw
Ġl oss
Ġpro duc
ript ion
Ġg round
Ġwork ing
Ġde v
ĠG eneral
Ġpol ic
ĠIn stit
6 6
4 4
Ġt aken
E C
199 6
Ġp ut
Ġfunction s
ĠM or
199 7
Ġsh ip
Ġm ilitary
y ear
sub set
ann el
, âĢĿ
ers hip
Ġhig her
v ing
ensure math
ly ing
Ġappro ach
ra b
ĠP ort
ce ed
Ġpop ular
v ille
ĠR oman
ampl es
E N
Ġacc ount
ind ow
s w
ĠC he
ĠS en
inc ip
it ing
Ġsup er
ĠSt ud
nabl a
r ite
ell s
nd er
t op
Ġpolit ic
Ġep is
Ġapp oint
in ary
ĠP aul
ther n
Ġa chie
ec ess
Ġs ugg
Ġpres ident
Ġd ou
ĠF irst
ĠD em
s f
Ġdeb ut
y a
text it
Ġbel ie
id ing
Ġ- -
Ġwe ek
ress ed
} )$
Ġp ath
Ġme et
art ment
Ġ= >
9 9
Ġpot ential
Ġatt ack
Ġreg ular
an ies
Ġab le
Ġg e
Ġinit ial
ĠR ed
ĠSt reet
Ġd est
ĠGe orge
Ġme ans
Ġstand ard
c er
Ġ ill
Ġanal ysis
ou thern
Ġatt empt
at ives
h ood
al le
Ġreport ed
c irc
w id
Ġag re
unic ip
c le
ra v
ĠQ ue
Ġal gorithm
Ġt re
g o
ib ility
\ [
ill s
ag o
Ġcondition s
ĠM y
Ġrespect ively
A fter
ar ies
id a
Ġg raph
air s
ĠCh ina
Ġfre qu
, "
b ased
Ġ _
. \
ĠCour t
il i
Ġc y
an ia
ĠDav id
ĠL et
n b
Ġinfl u
} ),
Ã ¶
Ġconst ant
ĠAss ociation
com p
Ġsol ution
Ġother s
r or
S c
pt ion
ĠL em
ĠR ich
Ġth ink
Ġof fer
read y
ap s
ash ington
ĠL aw
\ %
ĠDiv ision
Ġab s
il ed
val ue
g l
4 7
ĠL ou
199 5
ree k
Ġproper ty
Ġcomp os
r um
Ġ !
Ġth us
Ġs ource
qu e
n own
iv en
ec ial
Ġl ik
Ġare as
b ox
ĠS erv
I T
ĠR oyal
it ch
Ġv ia
itte e
Ġm arried
non umber
erm an
ĠM ount
Ġ vert
Ġeduc ation
}} {
av es
Ġh on
k y
Ġbet ter
a ign
Ġreturn ed
Ġl og
ĠUn ion
Ġh ard
Ġw rote
p ly
re c
l o
ĠCent er
Ġd om
Ġcl ose
Ġassoci ated
ch an
I C
ot a
Ġvi ol
ĠH am
ra z
199 4
ber g
Ġbel ow
Ġdevelop ed
N ew
A M
Ġtem per
Ġjo ined
Ġmat rix
ĠS im
ut es
Ġn umer
s up
Ġt rack
Ġparam eters
ĠGerm any
Ġdeg ree
av a
Ġm om
Ġwe bs
197 0
) (
S igma
Ġw in
ĠS um
Ġrec ogn
Ġdirect or
Ġb ody
e an
com m
0 5
A t
Ġl anguage
iv ity
at ory
Ġprov ided
ac hes
ĠP at
ul ated
ct or
s er
ĠH all
b and
Ġa way
Ġl ength
at rix
ĠL ist
Ġf ar
an i
ĠDep artment
Ġpart y
Ġm id
Ġn ull
c or
and om
r im
med i
ĠV ir
Ġobt ain
199 2
Ġro ad
eder al
oc ation
Ġl iter
Ġlim it
ri an
0 1
ens ion
ĠBl ack
Ġpos itive
ĠF rom
Ġra il
Ġcontin u
dot s
Ġlin es
ĠV ol
wo od
Ġdef e
ian ce
Ġl ost
im ate
ber t
Ġequ ation
Ġf ig
Ġ( )
Ġel se
Ġ rac
g en
Ġconst ruction
Ġch urch
ĠAustral ian
Ġinvest ig
\ !
th m
g ress
and id
as ons
st on
op y
end er
Ġs er
Ġrequ ire
b b
Ġ q
= #
Ġconst ruct
ĠA pp
Ġind ependent
Ġk m
I f
ĠE m
Ġp ress
Ġprofess ional
ĠS ince
Ġim age
Ġde cl
Ġm em
Ġcont ract
ic les
Ġg ive
ag az
ĠS o
ens ive
r ated
Ġarch itect
Ġcon duct
I S
r d
ĠW ashington
C ont
Ġl ive
om s
Ġ Ã
wid et
Ġmark et
ell ing
en ed
Ġe mb
Ġal ready
Ġp ast
Ġc ertain
he l
' )
Ġph ase
p ect
ĠC ont
g in
ĠM ary
Ġl o
Ġcontin ued
Ġgo ing
L E
ma x
Ġal ways
Ġacc ording
Ġto o
Ġf uture
ĠM art
Ġwho se
199 3
Ġsong s
nb sp
ist ics
Ġ` `
Ġcorrespond ing
Ġrequ ired
| |
Ġcl os
/ \
umn i
18 5
ĠG roup
Ġon ce
ign ed
i ers
Ġperform ed
Ġrel ated
ĠD uring
/ >
ĠI m
Ġpro posed
ish ing
ord in
un c
d own
ro y
Ġcent ral
Ġp ur
est ed
Ġopen ed
s ize
ĠComp any
ur ation
ĠM ark
ul ations
ĠM ex
all s
6 7
Ġtrad ition
Ġteam s
widet ilde
Ġre v
s cal
ad es
ou l
Ġl abel
du ce
A A
F ig
Ġ id
ar c
Ġv ict
Ġf alse
Ġar r
Ġt reat
Ġlead ing
s el
ask et
ran ch
} -
i res
li ament
Ġb en
Ġ error
s l
ĠAc adem
pl ied
Ġrele ase
Ġd ire
oun ter
\ ]
pl ies
Ġ= =
Ġp ay
ĠInstit ute
199 1
ffic ient
iz ing
Ġsub ject
{ -
Ġ( $
ĠS er
A d
e le
Ġbro ther
9 5
Ġent ire
6 8
un n
ult s
Ġd augh
ri ate
Ġs om
Ġwebs ite
l oad
Ġd imens
Ġt en
wh ich
a ur
qu are
Ġsuccess ful
ĠM ore
Ġnov el
Ġcal cul
Ġm ight
ec k
at al
Ġn atural
e in
Ġh app
ĠM usic
ĠN or
Ġm ar
Ġd at
Ġoff ice
Ġcomp anies
o res
ĠR oad
u ff
Ġcont ribut
it es
Ġt arget
ig en
Ġad minist
ines e
Ġmethod s
D E
Ġpro of
am s
ĠS ociety
The re
ar ing
om orph
C O
Ġapp e
ĠD on
Ġcol lection
Ġne igh
Ġcomplet ed
Ġst ring
Ġw ife
ag ed
le an
c ap
k a
center ing
L e
z eta
Ġr ather
ra el
A P
r ig
Ġinclud es
ĠH en
ic ult
Ġrecord ed
ĠD i
on ents
as c
ĠU K
ĠAr ch
est ival
ĠP ress
r up
ĠN e
ĠG reen
Ġresp ons
Ġdirect ed
alle l
W ith
ic ro
Ġintro duced
ĠThe orem
Ġaddition al
Ġe lements
D e
Ġright s
f o
Ġst re
Ġmon ths
Ġde part
Ġparam eter
Ġbre ak
\ {
ach ing
pr ime
k nown
st ate
Ġback ground
ĠPro v
ibr ary
Ġm other
ĠCl ub
ist ry
Ġst age
196 0
Ġe lement
Ġass ist
ĠAfric an
Ġmed ia
Ġal most
ĠC ons
Ġal though
Ġinst ead
Ġra ce
b urg
Ġproper ties
Ġbeh av
ĠS ection
p oint
" />
Ġan g
t ic
Ġp arent
Ġin put
ĠAfric a
P h
d en
ak er
Ġfr ont
Ġform ed
l ike
ens us
ĠT V
Ġcont ains
Ġcom e
ĠB ay
ari o
4 6
ĠIs land
Ġd ocument
u ra
ed y
d s
} +
b oard
Ġgo al
ĠC ath
ĠTh at
ĠâĢ ĺ
A ll
ĠCanad ian
Ġexp ected
ar ily
m ary
trans lation
Ġsign ed
ĠĠĠĠĠĠĠĠ ĠĠĠĠĠ
Ġocc ur
Ġdep end
Ġla un
Ġt ry
) =\
ol it
G e
in i
Ġrad io
Ġlarg er
ar ter
Ġun it
ĠK h
u z
Ġsur face
ĠT ex
ĠAng el
Ġmod ern
u ated
Ġline ar
ĠC ong
is es
ĠKing dom
st ring
re y
ĠJ ew
Ġv oid
Ġn ormal
c ell
Ġc ut
Ġn ecess
Ġhim self
Ġwhe ther
un t
Ġadd ed
Ġst ep
tab ular
D ata
rac y
Ġcour t
Ġqu al
ĠM iss
ĠG ames
u it
Ġcamp aign
Ġoffic ial
m id
Ġc andid
ĠIn ter
w ise
. )
Ġf ire
Ġg overn
Ġtrans fer
0 7
g roup
d ata
ĠT own
B l
ĠT ur
Ġr andom
Ġpr incip
**** ****
Ġcount ries
ĠS l
4 2
Ġb ig
M od
us ed
I nt
ĠRober t
Ġschool s
ect ions
198 9
Ġcent er
Ġappe ared
m ark
C C
id s
ĠS ing
Ġac cept
ess ion
198 8
Ġen vironment
Ġcor re
Ġfound ed
Ġalbum s
inn er
S E
ĠH istor
al a
Ġlarg est
ĠThom as
Ġmultip le
Ġj ud
asket ball
Ġl iving
Ġelect ed
Ġre ason
Ġcl osed
ĠM useum
Ġp ers
"> <
on a
} =\
ĠCent ral
Ġt aking
ort un
k en
O b
ri a
k ing
) }\
Ġac qu
Ġim plement
Ġv ector
ĠR ev
Ġr at
e es
Ġd ynam
A ss
ul let
Ġh ous
ir t
Ġl ittle
ĠE q
Ġcre ate
P ar
5 00
and s
port s
F F
ra ction
enc ed
ĠM od
ĠJapan ese
ĠRuss ian
ur rent
Ġs ound
ĠFran c
o z
ĠA lex
Ġpri or
Ġbl ock
Ġappoint ed
Ġc ast
Ġh or
ĠG reat
osp ital
i ew
itt ing
Ġ Â
w rit
Ġreg ard
Ġup on
I m
ar l
ĠM ont
ict or
ĠM ad
l ist
ĠS am
) ^{
li er
0 8
ec ially
Ġconst it
ĠM et
Ġh tt
Ġobserv ed
Ġfollow ed
e ff
ĠB est
.. ..
s ing
F rom
ĠL eg
Ġfin ite
Ġconc ern
Ġrelations hip
ĠG old
ac c
{ (
; \
ĠD ef
Ġplay ing
Ġb oard
ĠW estern
Ġequ ival
4 3
ĠMin ister
Ġro ck
R ec
f oot
con st
il ies
Ġinvol ved
ĠO b
Ġspec ific
Ġsy mmet
Ġe ight
ĠAcadem y
r ish
emb ly
Ġrel ig
ĠRec ords
ĠChrist ian
al ax
Ġwh ite
Ġen ough
ĠS al
Ġbir th
Ġthrough out
Ġf ight
ĠG rand
ĠItal ian
Ġa ud
ust om
Ġt er
c os
ĠC O
F ilm
r ast
W h
198 7
ĠWh ite
4 1
ĠĠĠĠ Ċ
ĠSc ott
Ġresp onse
Ġmom ent
ĠWh ile
ĠTex as
ĠR ail
Ġ und
Ġd one
i ences
Ġle ague
Ġdesign ed
ĠY ear
Ġde al
m ore
8 5
ad a
ad o
Ġcomp lete
Ġpresent ed
Ġstud ies
Ġex ists
th let
o at
Ġfootball ers
Ġt ro
Ġb ooks
ĠF ilm
Ġexper iment
b our
Ġc lear
i os
Ġn ode
Ġchang es
Ġsim ple
Ġ esp
on ic
Ġt ax
ĠLou is
Ġdisc over
Ġdiff icult
en a
Ġdist ance
ed d
Ġcour se
ch ange
ĠZ eal
Ġe ast
Ġ& =
ag er
ĠMich ael
ott om
g ing
anc ed
duc ation
ge bra
f unction
Ġpre c
ĠVir gin
ĠW il
Ġunder stand
rib ute
ĠChar les
ĠRep ublic
ĠG od
Ġpart s
he st
ough t
Ġfact or
is ions
Ġfor ce
w est
n ode
led ge
Ġg ave
ĠZeal and
all ed
ok e
Ġf av
op p
g rad
at ively
ĠPro f
ĠK ore
Ġw est
Ġk eep
id ents
Ġinst it
Ġcont ext
Ġch all
Ġun c
9 7
ĠCar ol
Ġdist ribut
umb ers
ĠF lor
Ġc ode
Ġcol or
Ġst ri
ĠD irect
Ġdaugh ter
E S
Com p
if orm
Ġ Ð
Ġp e
Ġal umni
Ġits elf
f fer
198 6
Ġcurrent ly
Ġscal e
Ġam ount
l a
ĠR ad
ĠCh inese
Ġfor ces
Ġp an
Ġdef ine
Ġpol ice
ast ic
Ġincre ase
ĠM r
ĠSum mer
ĠIs rael
ĠOlymp ics
9 8
agaz ine
ateg ory
ra int
ol f
}^ \
ap pro
an o
Ġex ecut
ĠD o
lem ma
Ġc ivil
Ġ& &
Ġgu itar
ĠG o
ir m
um ents
Ġ %
ol ar
$ )
Ġme chan
re land
Ġeffect s
Ġsequ ence
ĠDem ocr
Ġb ar
anc ial
un k
Ġlearn ing
ĠM at
Ġex hib
198 4
T e
wide hat
is l
Ġact ive
Ġpolic y
ĠT om
ro id
Ġcou pl
p x
ĠM er
ĠF ootball
is k
ĠM us
Ġgl obal
Ġso ft
0 6
cdot s
Ġd ram
Ġthe refore
Ġus ually
ĠM ac
Ġj ournal
at us
Ġs ens
ĠD ay
Ġsub sequ
. ~
inal ly
Ġgiv es
Ġcont ent
Ġex act
Ġanal y
Ġto ur
iz ations
mer c
0 2
ĠL at
Ġiss ues
Ġd am
c up
ĠJ ust
Ġpl aces
ĠB ill
ic ol
Ġf ixed
Ġs il
Ġz ero
Ġm us
a it
198 5
b re
Ã ¤
S e
at re
ĠI nt
m it
Ġg as
Ġcomm and
Val ue
Ġout side
Ġbas is
Ġbuild ings
p re
}_ \
Ġkill ed
Ġfield s
ĠSy stem
f rom
Ġg ot
irc raft
8 8
Ġper cent
Ġin j
Ġcl ust
u ate
k m
Ġco ach
oot h
ĠT ra
Ġse ven
as tern
ww w
0 3
A nd
Ġo p
E ng
ĠComm ission
Ġcan not
==== ====
r ate
Ġk ind
ist an
Ġun its
ing u
Ġrec ent
ant ic
enc ies
Ġquest ion
il ton
ĠS ur
Ġrem ov
ic ation
ĠJ ose
Ġdire ction
F A
ta ct
Ġst ars
Ġpro p
}\ ,
Ġtra vel
Ġpred ict
ĠCath olic
Ġd raw
Ġ ver
Ġesp ecially
N ot
Ġs ex
erv e
E D
Ġacc om
Ġp ain
0 9
5 7
Ġprov ides
D ef
Ġev al
}} (
it ude
ĠD an
ĠSm ith
Ġp air
sm all
Ġtemper ature
Ġproblem s
ĠB en
] .
Ġm ove
Ġindust ry
ĠO ff
ĠF ore
ar th
Ġst ated
u i
Ġn ight
Ġepis ode
text width
Ġwe ight
ĠSc ience
F L
le vel
Ġin sp
0 4
Ġm akes
M an
Ġimp act
Ġre ve
ĠPar is
iz es
ĠT or
-------- --------
t est
Ġj ob
vers e
ĠH istory
Ġdem on
Ġprob ability
Ġfem ale
Ġ\ {
M S
Ġe ver
195 0
re me
Ġart ists
Ġiss ue
f ill
Ġs ays
th ing
ĠCl ass
m ap
htt p
Ġto urn
ĠN ot
Ġst ations
w ell
a res
Ġm unicip
Ġdec ision
Ġcomp ared
Ġfri end
Ġe arn
ic ago
Ġallow ed
ous ly
o ice
Ġt able
am ily
ĠS ome
ro ad
} |
Ġim m
ĠSup er
uf act
ĠĠĠĠĠĠĠĠĠĠĠĠĠĠĠĠ ĠĠĠĠĠĠĠ
" );
O S
it a
U S
or ing
Ġmed al
Ġs af
198 3
6 9
6 3
at form
Ps i
E r
Ġset s
Ġs en
Ġexp ect
Ġhold s
ri al
m en
Ġcomp ar
Ġf ul
Ġprevious ly
S et
ĠL os
}) \
Ġf all
Ġoper ations
ov iet
ĠFig ure
q quad
ĠD el
ĠRich ard
Ġt akes
5 8
ĠC amp
Ġre ally
Ġs us
n s
eth ing
Ġro w
& =
ĠP eter
pro p
Ġ ess
ĠM ass
Ġc ell
k i
rough t
ĠTh us
il ter
Ġdirect ly
ĠF ound
Ġfin ished
av al
ĠSt e
Ġb ox
Ġrepl aced
Ġincre asing
Ġbeh ind
Ġto wards
Ġd ate
198 2
I s
ou d
Ġde ep
math sf
Ġevent ually
Ġquant um
Ġre b
st ruct
Ġm ention
Ġst aff
Ġperson al
l v
Ġs aw
7 7
ĠFran k
y ing
Ġre n
Ġprim ary
ĠM el
ĠW omen
os en
Ġoriginal ly
Ġw ords
ar ian
Ġstud ied
al y
Ġm ount
ĠP enn
et her
Ġbound ary
ĠP ublic
Ġp erm
Ġeffect ive
Ġoper ator
ĉ Ċ
Ġmon ey
l ight
ĠE v
ĠD es
}^{ (
Q u
omet imes
om a
L L
Ġloc ation
Ġsc ient
) {
6 2
Ġche ck
Ġad j
ov ers
st ar
ĠS ub
raz il
pd f
Ġadd ress
is ation
Ġpl ant
p a
in ct
ret ary
ĠRes earch
Ġus es
Ġlist ed
ĠFlor ida
^ +
} ]
ĠA ccording
ĠSp anish
ĠH ill
Ġcharact ers
ac ing
ĠL and
Ġwrit ing
a ctions
u ct
h y
Ġt ransport
Ġcap ital
O r
ĠV ictor
ant a
Ġse lected
ĠR ob
ann ing
ĠSec ond
Ġev idence
ĠLem ma
ro s
Ġs ources
Ġlik ely
ock ey
Ġexper ience
ict ure
u a
{ {\
Ġmat ter
S ince
ĠI reland
ish op
id ae
Ġfam ilies
ĠGe org
ĠP ri
197 9
n ce
n ote
Ġe mer
Ġequ al
y r
Ġrepresent ed
E T
ans ion
Ġn umbers
Ġ/ **
Ġg old
Ġun ivers
ol a
Ġphys ical
] ;
Ġind ex
Ġass ume
inal s
ĠComm ittee
Ġcol umn
ĠO ffic
ell a
S P
Ġim medi
Ġwrit er
ollow ing
Ġn ames
Ġrem ained
ig ital
Ġus er
Ġad apt
Ġup per
Ġart ist
Ġmater ial
Ġor d
}\ \
R O
E n
ĠHen ry
Ġed ge
, -
or por
p ret
I M
6 1
Ġto day
Ġsupport ed
W hen
ĠL ake
por ary
Ġorig in
Ġrem ains
i ra
Ġinst ance
Ġ ~
el t
ĠR ock
Ġl ove
Ġst atic
Ġ$ (\
Ġmain t
' $
p ath
Ġocc up
plic it
B A
z a
Ġbecom es
ĠTe chn
Ġsp in
Ġstruct ures
Ġ ut
198 1
Ġre ached
ag on
) );
ĠO ther
Ġben ef
ĠB ur
ĠFor ce
Ġthough t
F C
ĠG overnment
ent al
Ġtrans form
Ġf ood
Cl ass
y e
Ġg alax
Ġrest rict
ol k
Ġs ch
a ud
ri ef
Ġth ings
ut ch
x space
ĠT rans
Ġs ample
rup t
scal e
d t
Ġal tern
ĠVirgin ia
oc ks
Ġsh all
Ġc red
d ate
Ġd omin
Ġpolitic ian
Ġan im
Ġw idth
ig an
n el
art s
Ġb ur
Ġaward ed
Ġf ram
Ġcol lege
Ġwho le
b on
Ġad opt
Ġfour th
d imens
( $
ĠServ ice
Ġout put
ĠCong ress
ĠE r
197 2
Ġsmall er
ĠU p
ĠHe alth
ĠComm un
c her
vent ion
Ġpract ice
Ġcon fig
Ġn uc
Ġcon cept
Ġb order
ĠH ow
ac ity
Ġopp os
Ġp eak
rac ks
ĠT er
Ġw rite
ĠOr der
Ġw ord
ĠAr ts
Ġad m
Ġeff ic
Ġdef inition
g ent
197 6
ĠCh icago
b ullet
sel ves
Ġf ile
Ġcrit ic
Ġim ages
r ative
st ein
Ġco ordin
Ġv oc
g s
Ġun ique
Ġcult ure
Ġs earch
Ġtyp es
ed ia
Ġdec ided
b ur
r c
merc ial
Ġrun ning
197 8
Ġfeature d
) -
ĠMex ico
Ġmon th
Ġ err
Ġear lier
Ġpl aced
ur l
r ont
Ġgener ally
Ġbeg inning
ĠAngel es
ĠB rown
Ã ¨
Ġmov ement
cit et
ĠAn n
F orm
Ġsc ience
Ġon line
Ġb all
Ġd ed
ari ant
A D
f ile
ĠB oard
ĠAt l
b ody
a o
Ġlim ited
l am
oy s
re ater
pp ed
} +\
Ġnot e
T V
ann ed
Ġchang ed
ify ing
i en
Ð °
em ic
ran ge
Ġass ert
Ġp aint
Ġcompet ition
Ġa ircraft
Ġhig hest
Ġpre m
ol s
Ġdou ble
i ation
ĠSw ed
Ġ& \
ĠRuss ia
S y
Ġsc en
Ġmiss ing
Ġlong er
ĠItal y
clus ion
r as
Ġl ot
en ing
O ne
or ial
i h
Ġnew s
Ġsp eed
Ġlead er
197 4
Ġcrit ical
197 7
ind ex
ĠE mp
equ iv
el ine
ed ge
K ey
Ġb rought
sh ire
om m
Ġap plied
Ġex cept
st ant
ĠS eries
sk ip
ag ing
ĠP an
197 5
Ġh it
) ]
Ġch arg
ĠI ll
Ġapproxim ately
( {\
Ġexp and
Ġch annel
oper at
ubl ican
Ġhouse hold
ĠSc ot
Ä ģ
Ġelect ron
im ents
Ġrun s
Ġb ank
ĠNew s
ĠA p
Ġv eh
Ġl ay
ip s
an ks
// //
t ra
Ġestablish ments
Ġf ace
ew ork
E arly
Ġmax imum
P S
ĠIt s
ĠO ut
Ġden ote
ud d
operat orn
ric e
196 8
b ook
Ġm ur
Ġsing er
it iz
ult ure
l ong
ect s
Ġequ ations
Ġm ix
âĢ ¦
operatorn ame
Ġdiffer ence
Ġcomp onent
ĠD en
f in
it ors
ĠChampionship s
c el
Ġnot ed
Ġorgan ization
ĠF in
Ġsom ething
Ġeconom ic
Ð ¾
Ġsol utions
197 3
Ġp urch
Ġfe el
Ġide a
Ġread ing
et te
ĠC ast
per ty
} :
Ġincre ased
Ġg rand
ub e
ag ram
Ġtrans l
sy ch
Ġstat us
Ġsc ored
C D
Ġleg al
ĠSt ring
Ġval id
7 8
ĠN avy
ind ent
Ġbroad cast
and a
Ġw oman
Ġill ust
ĠSt ar
S I
Ġdemon str
Ġ er
Ġrem ain
Ġsc reen
Ġreg ions
Ġtourn ament
Ġ( "
ru le
Ġneed ed
ĠF estival
are er
w ar
ĠD u
Ġy et
Ġsc ore
re p
Ġg irl
Ġl atter
Ġso on
Ġmanag ement
Ġbel ong
ur t
ĠT wo
u ge
Ġover all
Ġor g
Ã³ n
ĠPar liament
Ġc ele
n eq
Ġn ature
s in
P r
Ġcon clud
Ġtrans ition
Ġv el
9 6
Ġcor rel
5 1
Ġdest roy
Ġsign al
velop ment
| ^
or al
O ver
St ate
Ġb asketball
Ġappear s
Ex ception
Ġdis play
Ġman ufact
Ġtrad e
Ġplay s
Ġart icle
Ġpat tern
Ġg un
G et
h space
ĠS aint
c an
ect ors
197 1
Ġform s
Ġoper ation
htt ps
ab it
Ġs ense
Ġcon ver
ip l
Ġmin or
es h
ian o
Ġrel ation
Ġm ach
l ink
ug by
re qu
Ġro t
op l
Ġr ule
ĠO h
ill a
Ġp ack
B S
Ġrepresent ation
Ġ ir
Ġf if
at o
Ġstre ng
194 0
Ġpro ve
; "
Ġtechn ology
Ġp age
Ġobject s
ar p
Ġallow s
Ġtradition al
it le
ĠS k
ĠB us
N otes
ĠCarol ina
Ġconn ected
Ġcontin ue
er ia
Ġant i
d ist
Ġfin ancial
the orem
Ġf arm
Ġd u
} -\
az z
at ur
Ġ: =
Ġtra in
Ġmed ical
Ġpr ison
Ob ject
}} {\
ian a
196 9
Ġto ld
us ion
194 5
ĠAl though
Ġpr int
ot o
th at
) }{
] [
Ġn omin
Ġan c
Ġw id
Ġcomp onents
Ġparticular ly
Ġw ide
c a
Ġset ting
he me
h and
Ġwrit ers
Ġg rant
ĠO l
ef ore
Ġsp ort
Ġgrow th
Ġext ended
Ġb ring
Ġac adem
Ġstud ent
ĠS oviet
Ġact ually
Ġstart ing
dimens ional
ĠC D
Ġlevel s
ĠK n
Ġde cre
Ġinter view
ĠT w
Ġl ack
Ġdat as
Ġact ress
Ġfor ward
ĠP e
Ġclass ical
5 2
Ġmet ric
p an
M A
umer ate
Ġdeterm ined
Ġprogram s
ot ion
ĠO per
Ġim plies
esc ription
Ġb o
Ġcom es
ĠM il
ad er
ĠU nder
Ġra p
Ġqu ick
ad y
i ro
Ġgener ated
" ;
sc r
Ġmean ing
ill er
ĠE ducation
Ġnecess ary
al ed
Ġcol lect
ĠB re
Ġev olution
ag s
ot ic
ĠM a
Ġt ask
ĠB razil
ĠR et
I R
n y
Ġdeta ils
196 7
Ä ĩ
Ġsp ent
S he
ĠSp ace
l ength
Ġconst raint
Ġact or
ad ium
Ġw ave
r ich
Ġp ark
Ġp en
Ġbehav ior
Ġchar ge
ans as
Ġst e
Ġd ark
ĠD is
Ġsim ply
19 30
d ro
Ġh ours
ent h
ĠT imes
Ġh ot
in it
i as
ĠA wards
] \
in em
Ġth reat
Ġproduct s
Ġdiv ision
ri z
Eng lish
Ġ- \
V iew
Ġactiv ities
Ġcho ice
ul ed
5 6
Ġvel oc
Ġa im
omorph ism
Ġcaus ed
Ġs ometimes
Ġresult ing
Ġsh ot
ap ter
ir it
ĠG r
erv ation
ĠW ales
Ġthem selves
( ).
Ġy ield
augh t
N o
en umerate
Ġcont ain
Ġgo als
Ġopp ortun
Ġwe ak
Ġ ens
Ġapplic ation
Ġ! =
og le
in y
ac her
Ġrec on
Ġcons ists
5 4
Ġneigh bor
ĠC ap
ĠM o
ĠJose ph
Ġ esc
Ġs eg
Ġmajor ity
A B
Ġsh are
Å į
S up
ĠP et
v ement
ĠProv ince
Ġcoll abor
ĠA rab
196 4
ou ri
ers ey
ĠThe refore
8 7
ĠL iber
Com m
Ġal gebra
5 9
Ġsp orts
isc o
ers ion
Ġw inning
Ġopt im
T R
Ġco e
Ġne ut
cl es
Ġsec urity
ĠM ost
Ġaut om
Ġdel iver
ĠP o
Ġsur round
5 3
S C
v is
Ġpl atform
Ġpres ence
Ġdis e
ĠS un
sk i
Ġun ion
im b
Ġend ed
Ġvoc als
ir ing
Ġc hem
sy lv
Ġro b
Ġin n
ic ated
per p
ven ue
Ġc ustom
Ġfig ure
Ġph il
ec ause
Ġknow ledge
Ġt ree
Ġpass ed
Ġse asons
w a
Ġthe orem
at riate
ĠMart in
ĠM os
ĠT our
ĠM ur
Ġw indow
) }$
\ ,\
ĠHistor ic
V ert
Ġsu ffer
as ion
ĠB ank
$ }
he ast
ĠP ac
Ġequival ent
Ġatt ended
ĠAss embly
Ġed ition
Ġh ol
Ġrem aining
Ġqu ality
Ġwh om
or a
ĠO ld
ĠProf ess
ĠIn c
Ġf ederal
ag ement
x y
ĠS il
Ġr iver
ĠCol umb
sp ecial
n av
sylv ania
ĠCh ief
C an
U T
ĠD ec
item ize
ĠH on
l anguage
ult ural
Ġrec over
Ġvari ety
Ġco ast
Ġagre ement
Ġth row
Ġmagn etic
S ec
J ohn
b ound
ĠL ife
3 00
ĠN orthern
ĠI rish
g ence
Ġstud io
ĠDirect or
Ġsum mer
en ge
ie ce
os ing
Ġpro ced
d i
Ġrec ently
Ġ// /
all ery
os h
ic on
ĠFound ation
O T
Ġin side
Ġch ampionship
d ag
N N
overn or
ĠS ocial
196 5
Ġc op
ens or
Ġmanag er
ed om
D uring
ĠO pen
R ep
ĠW ood
Ġrefer ence
Ġrail way
C areer
w an
ee k
t ical
im a
pl ace
Ġclass es
Ġmus ical
Ġcorre ct
ĠV er
k o
ĠA re
ĠB ig
Ġatt ention
ĠYou ng
196 6
Ġrequ est
st ance
Ġr ules
Ġk ing
in os
Ġinter pret
19 20
l ocation
Ġs outhern
s plit
8 9
ĠI ran
Ġm iddle
Ġsc hed
v ey
on om
ĠO ver
Ġdom ain
Ġmat ches
no indent
Ġneed s
fl ict
ĠEmp ire
Ġproduc er
Ġcon tact
. _
R eg
Ġb r
Ġrel ative
us band
Ġcomm ission
~ $
anc y
p ublic
ing er
Ġm ission
Ġexp ress
Ð µ
() );
Ġf it
Ġn orthern
Ġst ay
Ġre duced
Ġestim ate
T r
O C
Ġc ensus
e ks
Ġc ounter
for ce
ĠII I
Ġmeet ing
Ġelect ric
ĠD ou
Ġmov ie
ĠL ove
Ġ\ |
Ġopen ing
at i
Ġestim ated
ĠEng ine
Ġnew sp
ĠH aw
st ra
h ouse
ail y
ir al
is her
Ġl ic
Ġis land
ĠG ra
Ġ ult
Ġlaun ched
Ġsy mbol
ĠL u
v space
ĠW al
Ġc ause
Film s
Ġter rit
m ond
ab s
ĠS ir
B ut
ĠO f
Ġinflu ence
y an
amp ion
Ġoffic er
Ġst ra
ĠH el
C H
ĠL ee
Ġwh y
ĠW eb
Ġappear ance
Ð ¸
ĠP ost
au ge
b a
app ing
Ġ$ -
w ork
Ġtreat ment
it ation
av en
Ġcommun ities
Ġt alk
air man
is hes
E E
ap ers
Ġcom ment
etw orks
Ġdes p
ĠM ag
T est
back ground
ĠG reek
Ġnear ly
B uild
\ }$
( -
Ġw ood
ĠReg ister
Ġrat io
Ġspect rum
ĠOff ice
math scr
9 3
Ġun iform
ĠPenn sylvania
al o
7 2
M L
E d
Ġran k
Ġful ly
Ġl ived
P i
P erson
F urther
ĠF re
arri age
ric es
Ġch osen
al i
Ġs low
Ġliter ature
Ġparent s
Ġb rief
Ġfore ign
Ġmult i
F irst
ĠHam ilton
v ant
Ġge omet
ĠJ ournal
}} _
Ġpre vent
ĠG en
ĠSp ain
Ġcom mercial
ren ce
ĠJ o
k ins
Ġprodu ce
ell ed
Ġpress ure
Ġsp eak
ĠL ong
Ġcont roll
ĠL ord
Ġpo et
ĠJ ud
Ġro ute
Ġch ief
ĠM ain
Er ror
in et
ĠF orm
ect ive
ĠH ot
dis play
ĠR o
Ġneg ative
M ar
le ase
ĠT ime
O ther
d o
ang er
Ġb attle
ost on
Ġvari ables
inn ers
Ġd ro
9 2
Ġfinal ly
Ġwe eks
Ġs quare
& &
Ġs ociety
Ġsu fficient
ĠRep ublican
appro x
ĠT est
ĠS pr
Ġa x
ĠJ er
Ġed itor
ĠP eople
iqu es
N ote
Ġmin utes
l t
) +
Ġindividual s
E qu
ob ile
Ġas ked
Ġhigh ly
Ġmost ly
ĠC ross
{ }
Ġexp ansion
Ġm arg
Ġsen ior
Ġdefe ated
Ġhe avy
em porary
Ġh yp
ĠO ur
Ġrelig ious
cre te
st ruction
ĠP ak
ĠT able
vers ion
Ġdis s
Ġinit ially
ul s
E vent
Ġl ives
Ġro om
sp eople
M P
ĠDemocr atic
ĠF red
ĠĠĠĠĠĠĠĠ ĠĠĠĠ
Ġchall eng
ĠVal ley
Ġqu arter
ĠJ im
Ġm agazine
ĠC ivil
ĠB o
ĠR el
Ġsit uation
Ġcent re
ĠH ere
Ġsepar ate
196 3
Ex p
9 4
Ġre pe
Ġfail ed
T ime
ĠB attle
ĉĉĉĉ ĉ
ĠN ote
Ġwant ed
Ġsy n
j a
we ight
n orm
ĠF e
Ġann ual
it able
Ġc arried
d r
I P
Ġvol ume
A F
et ts
ĠN ow
d ec
Ġown ed
b t
196 2
Ġnumer ous
ĠBrit ain
S ub
ĠTe am
Ġform ation
) {\
ĠF ort
it ter
ĠU k
Ġh usband
Ġc le
Ġbecom ing
Ġar ray
un ior
Ġconstruct ed
ĠC amb
ĠB ob
Ġh um
Ġfrequ ency
Ġexp ression
Ġrefer red
i ography
The n
Ġc itiz
w in
yn om
g u
par allel
Ġhe ight
m ann
Ġf a
Ġsing les
8 6
Ġmur der
f low
line ar
hem at
Ġe igen
Ġar rang
ĠS outhern
ĠL y
Ġapp ly
Ġw ind
b ut
; &
Ġder ived
194 4
Ġlaw s
Ġrecord s
B e
r ants
v a
or ation
ate gor
og ue
U R
m as
b ury
Ġident ity
l ig
ann er
ĠPl ay
ef ul
un ct
n es
f ect
Ġar my
er c
Ã §
l n
ell ig
7 6
Ġav oid
Ġp oor
ĠL ine
Ġc rick
sum mary
Ġn orm
j s
Ġstat ement
Ġf ill
mod el
R equ
Ġdepart ment
ut y
ĠB as
I ON
9 1
Ġse a
ĠJ ac
Ġre ach
Ġle ave
Ġdram a
Ġsc heme
ĠB ook
Ġcandid ate
ĠAs ia
Ġc ategory
ult y
Ġv an
ino is
r at
Ġinc ome
Ġold er
ak a
Ġr isk
Ġj oint
w ord
ĠJew ish
aus s
Ġst ream
ĠC am
ĠOh io
O ut
M C
Ġcom ing
ĠC re
Ġex am
ĠS ar
ĠJ ack
h ire
mult icol
ist ers
ĠS ol
Ġar rest
ect ing
Ġfor ced
Ġcount y
ent y
ĠCon n
ĠCar l
ib ly
Ġcon sequ
Ġp ick
Ġmention ed
Ġrepl ace
ĠL in
ĠL ie
I G
Ġfore st
Ġw alk
Ġa mb
Ġactiv ity
}} }
m et
V ID
Ġse lection
Ġlead s
Ġcar ry
ĠA tt
Ġin equ
Ġent ered
Ġgen us
Ġbl ue
ĠSt ep
Ġident ified
ev en
Ġv ote
multicol umn
esp ite
ĠO x
8 2
ĠR em
under line
k er
Ġexist ing
196 1
Ġf ast
Ġg rav
} /
Ġb ranch
Ġconn ection
Ġsus p
8 4
at ers
Ġdimens ion
Ġst ories
Ġelection s
enn is
ach us
c ond
n et
id ers
re al
as hed
Ġa uth
Ġ eth
i y
Ġdr ug
ĠT ro
Ġra ised
ĠL ibrary
Ġveloc ity
ot ing
Ġcontinu ous
Ġproject s
us ing
S erv
Ġdr um
if ier
ĠM en
t urb
N A
ĠM ax
rad e
j o
os oph
ĠE arth
ow ers
Ġsl ight
Ġrespons ible
acks on
Ġb al
Ġmod e
P op
ĠJ ersey
Ġun iversity
E nd
Ġarchitect ure
Ġab ility
Ġm essage
ch o
Ġhe art
Ġl at
ĠF ri
"> </
Ġcon cent
ĠUn ivers
Ġm aster
Ġf eed
ĠG al
ĠPro gram
r un
ol ved
ĠM em
4 00
. </
ĠT ri
p ack
ĠIs lam
8 1
text rm
Ġse em
Ġhelp ed
Ġimmedi ately
ĠD ev
ĠPac ific
Ġsugg est
ĠF ield
re es
ib li
Ġt im
Ġhistor ical
A ust
ĠMich igan
ound s
p ed
ad or
` `
ĠScot land
gy pt
t rack
Ġsurv ey
In ter
Ġ _{
comm and
v est
^ -
im in
ĠW hat
Ġcap acity
ent ially
Ġmot ion
ĠB ase
ĠAs ian
194 2
Ġpl ans
Ġclaim ed
ard en
ĠCon ference
A G
achus etts
A pp
ov a
Ġsp read
C o
act ive
ĠT im
Ġvict ory
Ġorgan izations
ar ia
U N
Ġsoft ware
ĠEd ward
Ġder iv
B ar
Ġb ad
A ccording
Ġsay ing
Ġv irt
8 3
p ass
el er
Ġfri ends
( ),
Ġdist inct
Ġmain ly
ad el
ĠJ ul
Ġpart ies
ĠSec retary
G roup
Ġg reater
Ġb rand
n am
k in
Ġmem ory
T ext
Ġhe nce
S im
Ġsh oot
und red
bur gh
Ġserv e
min us
il ing
Ġar m
ĠA cc
" :
Ġn ine
ĠQue en
ĠC ro
Ġg reen
Ġqu ite
=" ../../
c ome
ĠT op
Ġsm ooth
ĠB C
ĠR h
Ġdo ing
195 6
epend ence
Ġm icro
ter m
ĠJ ones
stit ution
Ġdiscuss ed
Ġ$\ {
S O
ĠJohn son
Ġvari able
ĠS ong
195 9
ĠRad io
Ġde ad
Ġdesp ite
Ġwork ers
ĠDe velopment
' :
Ġs n
Ġmov ing
ab eth
ĠF urther
res ents
Ġc ard
ĠF C
ĠPol and
Ġturn ed
Ġb att
Ġinteg ral
aw a
st ream
subset eq
P R
Ġmechan ism
ild ren
g reg
Ġn ation
Ġsol id
Ġprob ably
Ġcele br
Ġpur pose
ĠK ent
Ġcont rast
Ġin ternal
u an
Ġobserv ations
Ġc orn
ul ate
r ary
pr int
Ġinc orpor
k l
ĠH y
m ission
194 8
ĠIll inois
7 3
og rap
Ġoffic ers
il a
ĠThe ir
i ant
res h
Ġ ...
pt ions
ĠW ork
ĠL uc
Ġsh ape
in put
if ically
195 8
p ol
urb an
ĠCent re
Y ear
ic ine
Ġst op
z er
Ġfootball er
Ġdeterm ine
g n
Ġpan el
Ġan sw
ĠRep resent
il arly
Ġex plicit
Ġcol on
angu ages
ĠFranc isco
}^{ -
r ong
Ġcomput er
ay a
Ġrec omm
7 9
B ack
ĠG ood
Ġal leg
193 9
Ġdid n
Ġ â
< \
tern et
Ġconf ir
A m
idd en
ĠR am
The ta
194 1
A tt
Ġserv ing
ĠB oston
Ġex amples
u er
ĠAl b
ĠC E
7 4
194 3
Ġcon flict
Ġpro gress
h ost
7 1
p ace
Ġfam ous
Ġse lect
Ġc ities
A dd
N e
in ity
N ational
Ġhy per
Ġf oot
Ġ\ ;
ic ks
Ġapplic ations
Ġ ?
O f
ĠB ow
! --
ĠĠĠĠĠĠĠĠ ĠĠ
os m
ĠAl so
Ġthe rm
Ġl ayer
Ġint ers
Ġit er
Ġexist ence
Ġle aving
ĠWilliam s
' );
ĠGeorg ia
uc ed
Ġs quad
ay lor
}$ \
ĠP rem
Ġfact ors
Ġpolitic ians
Ġmap s
Ġ ice
ĠĠĠ Ċ
e en
Ġb ass
Ġcomplet ely
ĠM ah
sp ec
por ation
S U
Ġact ors
ĠK ong
Ġpol ynom
Ġcomp act
Ġon es
ĠR ef
Ġship s
F ile
ĠE lect
ris on
Ġoper ators
Ġprof ile
Ġinter action
ĠMass achusetts
en ant
Ġdesc ription
Ġcont ribution
ĠS oc
Ġoper ated
Ġbas ic
Ġse at
Ġw ays
ĠSen ate
in f
195 7
ph y
Ġbelie ved
ĠC r
I V
ĠD utch
sk y
Ġres ources
Ġgiv ing
194 6
Ġpro min
r ical
Ġeas ily
Ġcon vert
Ġremov ed
Ġg auge
che ck
C L
Ġe lev
Ġmin imum
he ster
it age
Ġpart n
f e
Ġfl ux
Ġprofess or
Ġlead ers
F ield
j i
s en
Ġsem i
ĠP re
ĠSh ow
Y ou
ĠM ajor
Ġus ers
ĠG overnor
Ġno ise
^{ -\
abl ed
Ġeff orts
art ers
G B
Ġn ative
Ġret ired
us er
ĠM iddle
as y
Ġo il
Ġbelie ve
Ġshow ed
ew idth
Ġoffer ed
Ġw estern
Ġ/ >
Ġf un
Ġun known
T E
195 2
Ġpos itions
Ġtyp ically
Ġdem and
ĠCo ast
if old
Ġcur ve
ob ject
Ġp il
Ġcomb ined
ĠS and
Ġcomp osed
Ġl if
T rans
à ¤
Ġdef ault
B rit
D on
ĠS und
Ġn etworks
p c
tr ue
ce an
Ġm ind
am m
ĠU r
ĠRail way
text tt
oc ol
195 5
Ġet c
p ress
) |
Ġbound ed
ok en
Ġprocess es
Ġh ospital
ĠT em
Ġrequ ires
el a
pro d
Ġbe y
ĠR os
or ter
p ng
Ġs ister
Ġhtt ps
or age
/ *
Ġ );
Ð ½
ĠE astern
ĠB et
Ġc ouncil
ĠPhil ipp
A b
l ay
Ġ$ |
Ġrecord ing
Ġc ore
oo lean
ad ing
r ame
the n
Ġ Å
ell ar
Ġsc ene
big g
Ġl oad
c ons
ĠPr ince
N ode
sec ut
P C
Ġext ension
ĠJ es
Ġrep resents
P er
ate gy
ĠB ern
} '
Ġcult ural
Ġreg ional
ĠT re
erv ed
h an
m at
Ġgener ation
194 7
ur ies
Ġc am
ĠJ r
Ġsit es
Ġse ems
orn ing
Ġpl ane
ĠD et
ĠPort ug
Ġquick ly
Ġform ula
Ġbey ond
Ġstra ight
ric s
u racy
ĠE nd
ict ed
ĠThe atre
N S
Ġcom edy
y er
Ġf irm
ĠW ay
I L
vi ation
Ġm useum
ĠM any
d et
mult i
Ġfav or
m ain
Ġf le
Ġw or
ĠM ov
w er
stand ing
h ar
Ġst ore
Ġv s
foot note
opl us
ĠM u
ĠG et
ĠE ll
con n
Ġrel atively
Ġsh ift
ic ity
Ġt al
Ġb it
Ġform at
M ap
Ġp urs
Ġappro p
Ġreg ister
set minus
Ġlet ter
S er
Ġext ra
Ġre form
Ġdes cent
] )
Ġinit i
Ġcover ed
se ud
Ġdiscover ed
Ġt racks
Ġcont aining
Ġdescrib e
_ *
ĠPro ject
C ount
D F
ir us
Ġclub s
_{ (
a ver
Ġprov iding
Ġpro ceed
Ġsc atter
Ġem ission
+ +
Ġar bit
ĠLat in
Ġy outh
c ase
Ġiss ued
Ġearn ed
Ġpre p
ĠOx ford
\ }
ĠE gypt
Ġ( $\
as ks
out e
on to
col on
Ġa ctions
Ġinterest ing
Ġs amples
Ã ±
ĠB oth
b i
ĠH ung
ĠÂ £
iz er
Ġcho ose
Ġpro pos
ĠChar l
Ġf air
195 4
r ide
Ġ( -
Ġatt ract
Ġadminist ration
Ġdi agram
Ġm ixed
hes is
Ġsubsequ ently
ĠSt an
he t
Ġexecut ive
195 3
ĠV an
Ġas pect
Ġch art
ran ce
ĠH uman
P ath
pt on
ĠMc C
Å ¡
ĠColumb ia
Ġm ut
ĠScott ish
lin ewidth
Ġent ry
ĠM id
=" #
Ġarg ument
o ir
Ġs plit
Ġimpro ve
Ġin form
ĠL i
N ow
Ġjo in
l aw
Ġm arriage
Ġacqu ired
att ice
ĠCO VID
Ġr ates
Ġfe at
ĠB ang
w edge
Ind ex
ĠK e
Ġform al
s ch
[ '
194 9
H owever
Ġag ent
Ġexper iments
Ġfram ework
Ġorder ed
ĠJust ice
Ñ Ģ
M ed
Ġh arm
T able
Ġc opy
or b
qu ot
ĠE conom
{ $
pt y
Ġgo es
ĠB al
Ġcompar ison
Ġconduct ed
Ġh op
c ript
Ġres olution
H E
ĠC y
Ġmeas ures
u ations
T S
ĠA ut
}} ,
Ġ$ [
ĠV i
Ġm is
In fo
Ġstr ategy
Wh ile
Ġmeas ured
IN G
cont ent
Ġs al
Ġc ells
ĠPl aces
Ġperson nel
## ##
ar ant
Col or
ruct ure
Ġvis ual
M embers
Ġv on
}} _{
Ġeas y
Ġsp aces
ant ry
Ġre duce
ion e
Ġdise ase
Ġun s
ĠSe a
ĠSp ecial
Ġl ies
igh ter
Ġfr ame
iz abeth
ar ks
Un ited
e z
Ġth r
: #
te en
Ġadopt ed
A ct
ĠKore a
on ia
ul pt
ĠEn ter
Ġv oice
Ġv ac
Ġconc ert
ĠBl ue
Ġd igital
ĠL ab
c ount
ĠW all
ĠA ff
Ġother wise
Ġsignificant ly
' re
n ames
Ġtri al
ĠJ ackson
Ġsymmet ry
Å Ĥ
1 10
Ġb illion
Ġh ockey
ĠPol ice
ell er
orn ey
el d
Ġrece ive
ĠH ong
ĠF ar
195 1
ĠC ard
A rt
ĠSup reme
Brit ish
i ency
st one
ab ase
S R
rop y
Ġres idents
Ġs ector
ĠH ome
t itle
ĠC reek
Ġdynam ics
Ġp sych
il ly
Ġsuc ceed
ograph ic
Ġcre w
anc ing
S w
ĠH a
am in
ĠR ay
Ġvert ex
Ġus eful
ĠH or
Ġser ious
Ġhtt p
ony m
Ġth ing
Ġb ridge
Ġw inner
Ġopt ions
h ing
ĠPol ish
Ġd ual
pl ate
olog ist
Ġpl ot
ab ilities
ĠG i
Ġh ar
ĠF ederal
Ġch ain
IN E
Ġfor t
dag ger
Ġachie ved
Ġemb edd
Ġenc ou
_ +
ipp ed
ibli ography
Ġvis it
t es
I A
ĠIn f
Ch ar
Ġen j
ĠHe ad
ĠBro ad
et ime
ĠS et
a is
ĠE ach
Ġcontribut ions
Ġgalax ies
ric ts
d ney
Ġsub set
L O
Ġmet al
Ġpr iv
ĠMus lim
in ite
f it
Ġd raft
Ġpartic les
P E
c ar
ĠBer lin
b in
Ġauth ors
Ġa wards
ri e
ĠSt ation
ĠU N
ĠTechn ology
m iss
ĠAnd rew
ear s
Ġin h
Ġsy nt
he ight
ĠA v
u id
Ġc ry
19 18
Ġpol y
ind er
Ġmanag ed
ĠBel g
b ase
ĠK en
Ġent er
Ġr ing
Ġf ellow
ap ed
od ing
Ġhous es
Ġexperiment al
ĠBus iness
eng er
n ormal
ĠW ater
rel ated
c ore
iv ial
ig er
ific ations
b o
ro vers
Ġmunicip ality
pro t
W hat
ĠCor ps
Ġnear by
z y
ĠN ight
Ġcom pl
ĠM ot
Ġtro ops
Ġrap id
uck y
ĠK enn
Ġex change
Ġsim pl
th ur
Ġprov ed
or ough
Ġreve aled
Ġadv ant
ĠB ul
Ġ ensure
bl ock
Ġlin k
on ed
Ġm ole
S o
Ġcou ple
Ġexp ressed
ra q
/ **
Mod el
Ġc er
eder ation
ak ers
ph ia
Ġcy cl
ĠB i
oll ary
sh ift
Con fig
) /
ĠF our
Ġpartic le
ig ation
lim its
M ore
Ġass igned
itz er
193 6
ad ow
Ġh undred
Ġclass ification
ĠK ar
Ġacadem ic
Ġrele vant
i Äĩ
uc cess
******** ********
Con text
Ġprim arily
ĠH ospital
E l
v an
ament al
Ġpe ace
ĠP op
Ġwe ap
ĠL ater
Ġcl imate
Ġstat istics
il er
ĠW ild
ip ment
Ġth ous
Ġcitiz ens
ĠOlymp ic
$ _
ze ch
), \
Ġconsist ent
ĠComm on
est ic
d eg
Ġdiv ided
r ons
ĠL ittle
O D
Ġ ;
wh ile
ĠVictor ia
ĠProfess or
Ġbeg in
erv ative
oc ated
Ġtechn iques
at ial
= {
ri ev
Ġcompet ed
ĠAlex ander
Ġto uch
bl ack
Ġp p
ĠMin istry
Ġref lect
ĠG ar
Ġeas tern
ee ch
un a
E lement
Ñ Ĥ
S port
ra wn
() )
ĠJ oe
Ġspect ral
ro om
ud get
Ġfif th
g ener
Ġbase ball
Ġdatas et
adel phia
)\ ,
ol t
Ġst eps
l ines
Ġslight ly
bl ue
em y
Ġded icated
Ġpol ar
Ġl anguages
Requ est
ro duction
Ġ },
ĠA sh
ig a
Ġmach ine
Ġs ure
Ġ- ->
ma z
Ġstreng th
f ree
a ug
auss ian
193 8
Ġoff ers
Ġexact ly
Ġt rib
N et
Ġbl ood
ut enant
P re
v oid
Ġ }\
sub figure
A p
Ġlook ing
uf fer
Ġdistribut ed
Ġappear ances
Ã¡ n
O M
Ġra re
C E
as i
ĠC at
Ġpat ients
Ġreport s
Ġext rem
Ġcomb ination
Ġcont ained
Ġgrow ing
Ġass ess
ĠAr gent
inn es
Ġnuc lear
uild ing
P art
ĠG ame
ĠĠĠĠĠĠĠĠĠĠĠĠĠĠĠĠ ĠĠĠĠĠĠĠĠĠĠĠ
Ġb ottom
Ġoper ating
Ġtr ust
ĠPro position
ĠS ee
Ġarr ived
Ġhon or
Ġassum ed
am ber
C A
15 0
il ation
ĠB ra
Ġwid ely
ĠT od
ic ed
ĠDan iel
ĠH ence
Ġint ended
Ġa part
Ġmater ials
ĠPr ime
ĠMore over
Ġact ing
Ġn odes
ĠB ir
Ġm ill
ĠWil son
t em
enn es
con fig
ĠG irl
Ġepis odes
res hold
ins on
ĠB oy
Ġc at
C ons
ĠCol or
ĠJ eff
m d
Ġt or
od ies
ĠB BC
) }(
Ġproced ure
Ġth ick
Ġl abor
l ang
Ġconfir med
Ġmoment um
Ġdoes n
Ġnumer ical
Ġsh ared
Ġapproxim ation
al g
align ed
f irst
Ġon to
F l
Ġinequ ality
Ġb omb
H ere
Ġf elt
ĠV iet
Ġaltern ative
Ġb ill
Ġclust er
Ġtransfer red
ĠRe view
Ġact ual
( (
s ur
ra ge
g t
ĠIs lands
nt ario
act er
l ers
Ġoffic ials
Ġtry ing
Ġart icles
ful ly
ap i
Res ults
Ġneighbor hood
Ġanc ient
writ er
ĠE st
ĠL im
ĠE p
Ġopt imal
ĠUS A
Ġrad ius
ellig ence
innes ota
ig ration
D P
def inition
Ġg ra
Ġup d
Ġeff ort
h as
ĠF er
Ġ| \
st ack
Ġinstit utions
Ġres ist
cl aim
Ġdist ingu
Ġpart ner
Ġprov ince
ĠV ill
ul f
in fo
Ġf ix
Ġre ject
Ġstr ateg
Ġlead ership
Ġnewsp aper
Ġr ise
Ġorgan ized
ĠT am
C ode
ic y
193 7
Ġdis p
ĠN ations
Ġstr ugg
\! \!
ĠJ ean
R A
Ġal one
Ġprom oted
ors hip
ĠC a
Ġ era
Ġcons um
Ġex c
rop ical
1 20
v in
Ġassist ant
und le
' _
ĠT aylor
ĠB ell
ĠR ome
ĠEl izabeth
Ġaccept ed
ĠC orn
Ġsex ual
ash ion
Ġocc urs
ĠGu ard
ĠStud ies
ap ache
T D
y o
Con n
Ġresp ond
Ġacc uracy
D em
ĠSy dney
Ġfl at
ef e
Ġvict im
ĠSc iences
ĠN etwork
ĠPri ze
ĠPak istan
Ġincre ases
Ġclaim s
Ġown er
Ġget ting
Serv ice
f ri
ĠOr gan
Ġhy dro
A c
Ñ ģ
ĠC apt
Ġst able
Ġper turb
duc ing
Ġfac ilities
Ġsold iers
Ġsatisf ies
Ġdec ay
ĠJ on
ind ing
ĠKore an
now led
Ġcan cer
Ġsugg ested
Ġquest ions
Ġatt acks
Ġinst r
W ill
Ġsaf ety
st ead
_{ {\
Ġgrad uated
O ur
Un iversity
ĠE qu
Ġpro te
ĠS pe
Ġle aves
olog ies
Ġcommon ly
M usic
Ġpar allel
Ġalong side
Ġa thlet
Ġmin ister
we b
ch ar
Ġa st
ass ert
ĠR od
H and
Ġreg ime
r s
ĠL ight
Ġass ociation
ã ĥ
D ec
Ġmeasure ments
ffic ients
Ġagre ed
P A
Ġb ul
Ġp et
ĠCommun ity
t ain
Ġg rew
Ġen h
Ġunderstand ing
res ult
ether lands
Ġed ges
Aust ral
al ities
Ġassum ption
Ġcoupl ing
fer red
Ġtra ined
' \
Ġc ategor
ĠP ower
ĠP ubl
m es
k et
A cc
ed s
act ory
a fter
ĠS i
ound ed
ĠO s
}} (\
per or
ern el
ot al
Ġvert ices
Ġdev ice
Ġp aid
g a
Ġcre ation
F T
Ġp hen
ma il
Ġre asons
Ġs ales
ph as
Ġlarg ely
ĠAir port
Ġinstr ument
h aps
_{ -
} %
* {
ron ze
S ize
h u
The se
Ġw all
L S
d es
ĠD ar
ĠS ports
ĠL es
L a
= -
b ec
Ġcon ference
Ġl iber
ons in
Ġag o
Ġsp irit
Ġhor iz
it ness
or i
ann els
Ġp ra
ĠP en
: \
Ġfeat uring
Ġp iece
Ġinteg er
Ġw orth
ist ical
Ġprop ag
y es
} ~~
P I
ĠS om
ak h
end ix
Ġco al
isc onsin
Ġ( !
ro t
ĠS ant
ĠL ew
Ġconstit u
193 5
Ġexp atriate
og ene
g g
ĠO ntario
Ar ray
=" +
M M
Ġprot ected
bour ne
ĠB ab
Ġenj oy
ã ģ
Ġp rice
ĠRev olution
ĠM arg
Ġj ourn
ost er
Ġcorrespond s
ĠCor poration
pos es
l en
ĠTh ree
C T
w eg
u ing
G eneral
Ġfre edom
Ġdiscuss ion
Ġsc ulpt
Ġatt end
ĠTr ump
it led
W orld
Ġpolit ics
Ġc ert
an th
P T
ĠCamb ridge
19 19
Ġcapt ured
ud es
Ġmin im
ĠH ig
Ġst reet
ra ine
Ġcontin ues
ot ype
Ġf ilter
ĠSt and
ĠMed ia
op en
= (
m ethod
' ;
Ġf raction
ĠI raq
Ġadminist rative
bre ak
Ġk ept
Ġv en
) ^{\
Ġin ner
] (
ĠA k
Ġc arri
Ġpromin ent
Ġtyp ical
Ġmark ed
Ġn am
R et
Ġw ild
ĠD er
p age
c ases
Ġdep ends
Ġmed ian
T rack
ĠB u
Ġsome one
Ġfl oor
Ġallow ing
ĠB and
Ġcy cle
Ġcalcul ated
ath an
P olit
R el
ĠP oint
Ġr ural
Ġimport ance
i ec
ĠTor onto
) _{
Ġd oc
19 14
$ (
Ġl ibrary
Ġequ ipment
isl ative
y les
' m
Ġpl anned
as ure
for all
ĠReg ion
Ġbe aut
ĠB a
em an
ĠR og
ow a
multi row
Ġor ient
ĠReg iment
Ġw atch
ak i
Sp ec
ĠP eak
ut t
ĠF ollowing
ĠR en
Ġro ugh
Ġconfig uration
ers e
Ġsim ulations
ĠAd minist
Ġnot hing
ĠA venue
E q
che stra
z ero
he im
Ġsil ver
Ġcr ime
str ong
Ġte acher
l av
ol es
M y
1 000
g ers
ym pt
let s
Ġabs ol
M on
Ġunc ertain
E nt
Ġact s
Ġp airs
im ately
Ġs ail
ris is
com ing
Ġ ign
ĠStep hen
ĠN C
ĠB on
Ġengine ering
Ġv ary
ĠOffic ial
in v
Ġcommun ication
i ate
193 3
ĠInd ust
c hen
plic ation
ĠM ike
Ġachie ve
om er
Ġsecond ary
per ial
ĠM aster
19 17
H is
st ract
Ġper fect
D A
ĠS a
Ġp it
Ġm iles
Ġsec ret
Ġsc ript
Ġoccur red
{ $\
Ġcre ating
eter y
Ġwe b
ad ian
Ġle tt
Ġam plit
It em
Ġqu ad
Ġro les
ec ution
Ġ~ ~\
ĠR aj
Ġseg ment
Ġappro aches
l ic
olit an
Ġag ric
Ġhous ing
em etery
ĠB rad
S ch
D ist
Ġext ract
" "
ĠAmerican s
Ġident ify
og s
}$ -
' ]
Ġ/ *
Ġst rict
Ġs ections
F e
Ġdif ferences
Ġprogram ming
19 29
at ically
Ġeconom y
ĠBr ig
qu arters
ĠPhil adelphia
ĠB att
un ch
Ä į
Ġcirc le
ĠF ire
ip e
ĠQue ens
Ġfig ures
w atch
}$ }
are t
Ġdef end
Ġinst all
193 4
d y
Ġp ure
Person al
f ont
Ġmusic ians
" ),
Ġw inners
Ġsol o
Ġshow ing
Ġfl ag
ĠC ub
text bullet
% )
Ġopportun ity
Ġl attice
Ã ¸
am i
Ġtra ffic
ĠO t
Ġpl ants
Ġcamp us
G u
Ġcr im
ĠCh ris
Ġcandid ates
ll ap
Ġfl ight
if fer
osoph y
,\ ,
Ġvers ions
S outh
al ion
Ġcle arly
un te
ĠT ok
S M
S A
Ġscient ific
Ġstrong ly
Ġde com
Ġal t
om ic
O per
sub subsection
se x
el i
ond er
Ġserv es
Ġapprop riate
ĠMed ical
il ib
\ '
Ã £
ĠM innesota
Ġang le
Ġn arrow
Ġ+ \
Ass ociation
Ġthe ore
d b
l s
ĠMan agement
ex ample
ask a
Ġchem ical
ĠCon f
ur er
Ã© e
Ġcomp ute
Ġconstraint s
Ġs qu
n ext
ol is
ĠS her
ĠAnt on
ĠDu ke
19 28
P P
r ass
Ġmount ain
Ġc ars
Ġr ul
)\ \
Ġintro duce
w ater
ĠS anta
lection s
Ġtechn ical
Ġapp arent
Ġestim ates
Ġp le
p o
Ġs ides
Ġtest ing
l ocal
Ġm orph
ĠN etherlands
ĠL o
Ð¾ Ð
c i
se y
Ġp erman
ĠAn other
Ġcont rovers
Ġdet ection
est abl
Ġoffic ially
Ġcoe fficients
' .
m itted
V D
are n
Ġdam age
Ġtri ed
[ ]
col umn
Ġsim ulation
ĠS us
Ġp ull
eg o
Ġest ate
19 10
Ġsett lement
h r
Ġbe at
Ġreview s
ĠW isconsin
Ġcompos ition
Ġf ine
Ġv otes
and emic
Ġcur ves
Par am
Ġs ust
C he
Ġmot or
Ġhistor ic
Ġtw ice
ĠA thlet
Ġfocus ed
ur ches
ro g
Ġdecl ared
ri um
D isc
Ġatt ribut
Ġl y
Ġch ampion
Ġdestroy ed
Ġex ternal
Ä ±
\| _{
i able
ĠPol it
ĠSt adium
Ġ} );
ly n
b ottom
Ġro ot
p ower
Ġindust rial
Ġpower ful
Ġut il
so ft
Ġrecogn ized
f inal
n ic
os is
Ġnot able
ch ang
Ġden otes
go ing
}{ *
H z
ab il
H L
ĠFore st
N R
Ġparticip ated
Ġcomm ittee
Ġdep th
arn ing
yn c
s ite
Ġord ers
L og
val ues
Ġs oc
Ġw a
ran e
Ġeffic ient
b ot
g est
z o
19 00
l ock
193 2
" |
Ġem phas
ĠAn th
00 1
st art
on al
ĠD isc
emb le
ple te
ner gy
pm atrix
Ġm ag
ĠF air
ĠB ad
Ġloc ations
I F
S D
Ġexpand ed
Ġd ial
Ġregard ing
Ġg ets
ĠV en
) ^{-
Ġim ag
Ġlaun ch
Ġass ign
Ġprincip al
M en
Ġb oy
ĠL ady
ĠĠĠĠĠĠĠĠ ĠĠĠĠĠĠ
Ġp al
Ġinterest ed
Ġsp eech
= '
Ġsur pr
Ġdr ive
f alse
al so
Ġbeg ins
Ġmod es
ĠB ecause
ĠW alk
Ġ Î
ĠK im
Ġres ident
Ġcost s
Ex t
.~ (\
Ġg ain
b acks
ĠN az
ĠSt at
ĠServ ices
op her
ĠC irc
S m
t ri
p ool
Ġl ab
ime q
Ġhyp ot
ĠG er
Ġrac es
ĠPrem ier
st o
Ġviol ence
Ġdeg rees
ĠSund ay
Ġprot ection
Ġinvestig ation
Ġrepresent ing
ipl om
Ġ urban
c f
Ġerr ors
omorph ic
Ġw ing
ĠA st
le ep
Ġsurround ing
Ġfail ure
s imeq
ĠR om
st atic
M essage
S L
om ot
Ġauthor ities
Ġdeta iled
Ġren amed
Ġl ie
Ġhand s
M ay
ĠT y
Ġacc ur
ust er
ĠMed al
Ġtre es
ĠSwed ish
19 24
Ġd ance
Ġc osm
ur i
j an
ĠK ansas
ĠD espite
ott ed
ĠG ree
if ul
Ġtit les
Ġt end
Ġ= \
C ast
ĠH ind
ĠS u
Ġlist ing
Ġt ensor
Ġveh icle
19 22
Ġit ems
Ġcon d
G erman
Ġro ll
Ġme ant
Ġf ans
ĠM ember
Ġide as
Ġst ock
Ġear th
Ġdistribut ions
Ġscal ar
In ternational
Ġreturn s
Ġor b
Ġindic ate
y ard
Ġsup ply
Ġcorrel ation
text sc
| }
19 27
Ġbehav i
Ġpro port
L P
ain er
193 1
$ ).
ĠCl ark
Ġmass ive
Ġcer em
Ġhousehold s
T C
Ġindic ates
Ġop in
ru it
Ġhost ed
weg ian
Ġterm in
Ġnot es
ĠG ro
ĠO p
riz ona
ĠB udd
Ġfac ulty
Ġs ampl
Fig ure
E M
Ġsing ular
M e
os a
if ies
ĠD am
Ġauthor ity
ĠW ars
ain e
eg er
EC T
Ġenvironment al
) }{\
ĠBe ach
wh ite
ĠComm and
pos s
Ġinv ariant
opp ing
u ous
Ġperform ing
ut il
$ $\
ĠS ab
w orth
agon al
Ġinsp ired
Ġel imin
ag raph
Ġnew ly
Ġband s
Ġalgorithm s
00 00
ĠH ay
reg on
Ġto ward
ĠD ata
ig rants
d x
ĠF amily
Ġte aching
Ġr ugby
Ġtrans formation
ĠA D
l ife
igh th
ĠW eek
Sy stem
H S
ecut ive
Ġimplement ation
ĠTr ust
av el
Ġpar ish
ĠJac ob
ĠB ridge
ĠH un
ub b
ĠP ers
.... ....
ran k
Ġterrit ory
Ġs urn
" ).
D escription
ĠT al
S ing
id el
f ef
B iography
d ep
Ġperform ances
Ġsubsequ ent
19 21
U p
Ġc atal
cre ate
ĠI N
\ "
P ol
ĠB ishop
int on
ang a
ĠS quad
19 25
Ġhe at
def ine
ĠIndian a
$ ^{-
p g
D is
E L
Ġdel ay
ĠB ol
ĠPh ys
Ġsu ff
om y
ĠK ir
Ġf iction
Ġresult ed
Ġsp atial
p resent
c ow
ict ures
Ġaff ili
Ġgener ate
on ly
Ġg ained
b as
c s
Ġemploy ed
ĠJew s
ĠW inter
S ome
Ġt ells
Ġ\ (
hed ral
F rench
s uch
Ġdescrib es
ond s
t ure
ĠSwed en
Ġhe av
Ġs ort
19 12
ĠMar sh
Ġre duction
ĠPro t
ĠP ass
Ġgrant ed
B ox
N ov
Ġdefe at
Ġc lean
Ġcont emporary
og en
Ġover l
Ġcall s
Ġpurch ased
he tic
ĠTur key
new command
b ro
Ġpar liament
ple x
d im
T H
Ġphen omen
="../../ ../../
Ġany thing
ĠEngine ering
Ġit em
t an
Ġaff ected
c urrent
Ġadvant age
Ġpl anning
Ġimpro ved
ĠSec urity
ĠK el
c ur
rop olitan
======== ========
ps on
Ġc e
Ġfund ing
al ysis
Ġv ess
Ġinter actions
Ġrecogn ition
ent ed
Ġdis k
Ġrese arc
Ġsub stant
Ġfund amental
Ġth reshold
ian g
ĠMex ican
ap h
m ad
f aces
ĠGold en
n eg
P ost
let on
Ġcompos er
ĠY our
Ġp andemic
os ure
z en
Ġide al
fef efe
ĠC zech
ap ore
Ġinvol ving
ĠM ilitary
od er
ennes see
im age
val id
Ġcl in
ĠE ven
Ġ __
act or
ann a
Ġsuffer ed
Ġn one
W omen
19 26
Ġar ts
ã Ĥ
Ġd aily
}^ *
Ġexpl ained
as er
Ġdec ades
Ġnov els
ĠSur vey
Ġarbit rary
Ġdocument ary
ac ent
i ary
k ish
The orem
ĠL ind
sc ape
Th us
Ġp iano
Ġopt ion
s ort
Ġd iam
ĠDav is
y mmet
is a
Re f
}} ^
z h
ĠR oute
Ġfound er
Ġaud ience
ĠF ree
Ġmod ule
Ġrepresent ative
T op
ĠFranc is
ĠF ox
ĠMiss ouri
O lymp
Ġveh icles
ag a
c ular
Man ager
or ig
ĠInd ones
Ġinc ident
ic ian
n i
Ġopt ical
g raph
u v
ol i
out heast
s es
w ing
Ġend s
Ġcol lected
v ard
ĠS on
Ġf ell
Ġsymmet ric
25 0
li ent
EN T
def ault
M ethod
ĠAtl antic
Ġis ol
Ġc ool
o is
R C
Ġdepend ence
Ġfin ish
ĠSer b
Ġgu arant
Ġcal c
Ġsch olar
Ġn ar
Ġmat hemat
Ġrest aur
Ġs rc
h ol
Ġspec ified
19 23
Ġab and
}~~ {
Ġp owers
ĠM ill
y al
Ġtit led
Ġb udget
ig ger
Ġfind ing
l an
Ġup date
Ġdevelop ing
19 15
ast ers
)$ -
Ġch annels
Pro perty
Ã£ o
k es
Ġret ire
Ġt aught
m osp
Ġde ploy
ik a
ĠC ur
19 16
} )$.
Ġadv anced
r r
ast y
ĠR on
ord an
M in
Ġh abit
Ġengine er
Ġ ]
//// ////
ĠA h
Ġlearn ed
re ll
Ġmeasure ment
ĠR un
ĠSte ve
. $
Ġevery thing
Ġg ap
Ġcomput ed
ĠW el
Ġtest s
se ason
ĠF und
ra ce
N ext
urn s
ĠBro ok
Ġrequire ments
Ġcons ult
Ġsw im
Ġcont est
Ã º
Ġc atch
Ġfac ility
AS S
rem ark
> &
ĠN Y
ad s
or gan
includ e
Ġcoordin ates
c d
ĠAr thur
Ġsp ons
en ess
D av
Ġre pro
s ol
Ġmarg in
we et
Ġtechn ique
mod ule
b al
ĠChrist mas
ĠPl an
ĠL og
E m
ĠColor ado
Ġprincip le
Ġpolynom ial
Ġtown s
ev ent
S ong
ĠJ oh
if er
Ġpr ime
ord ers
ap es
ĠCol l
Al though
ĠD own
Ġport ion
ĠDes ign
iec es
Ġext ends
ĠL ag
ĠCol on
Ġyield s
Ġcharg ed
Ġo dd
av ed
ĠMem orial
Ġad vert
Ġmed ium
Ġre ality
m atrix
ac hers
Ġspect ra
Ġsugg ests
Ġw rest
O L
Ġp icture
sp ect
Ġadv ance
ron ic
c at
Ġspec ifically
Ġjud ge
ĠIn formation
ĠMar ia
Ġpublic ation
Ġj ava
ĠH an
Ġfe et
ĠB all
we alth
Ġst one
Ġpre par
ĠW at
f ort
ĠH and
ĠAre a
Ġsub s
Ġhe ard
p ost
Ġf ish
ĠH al
er al
duc es
ĠM ic
Ġlo op
Ġd rop
Ġpolic ies
Ġs ession
Ġt ell
^{ +
~ $\
Ġyoung er
it o
re ct
Ġm orning
Ġmat rices
enn a
h ard
ens es
Pl ay
ĠRepresent atives
Ġst ellar
Ġn et
Ġt ail
Ġinj ury
Ġdo ctor
Ġmedal ists
d isc
Ġphys ics
ĠTown ship
Ġthem e
ĠK al
ĠC as
Ġobserv e
Ġpur poses
S ource
ĠAl f
R esp
ĠB ooks
C all
Ġchall enge
Ġemploy ees
ĠL abor
) _
II I
T T
Ġsp ring
G l
Ġview s
ĠA uthor
ens is
ke ep
c alled
Ġdep ending
A wards
Ġapp eal
map sto
Ġse ats
Ġsuccessful ly
Back ground
ĠG allery
ĠG aussian
Ġl osing
ĠH ard
Ġex cit
ĠM oh
Ġstart s
un es
d ev
ĠG reg
Olymp ic
Ġprot ect
se ct
ĠM un
Ġrem ark
ĠL ive
Ġtrans lation
Ġdist ricts
Ġ} ;
ĠO regon
Â °
Ġport ray
ĠCapt ain
ĠW ell
AT E
ĠFore ign
ly wood
ĠAff airs
Ġgovern or
Ġmod ified
Ġ rom
ĠF inal
l ov
Ġas ympt
b an
ilib rium
O ff
Ġa ware
D r
Ġob vious
}~~{ }$\
Ġnot ice
Ġfa ith
ĠI V
Ġcapt ure
Ġse vent
Ġcirc um
ta il
}{* }{
Ġshe ll
Ġco oper
W rit
Ġjournal ist
row s
p et
ĠB ru
con text
ĠS em
ever al
ev in
Ġfem ales
Ġb inary
Ġres ource
amb ig
C P
T hat
ĠT ype
Ġplan et
Ġ&= &
G L
Ġn il
Ġran ked
j e
Ġ$ $
l iving
Ġcomp are
' (
pro cess
rast ructure
sc ill
ĠGl obal
pro b
ell o
Ġoppos ition
ĠOr ig
um es
ĠP it
ap se
Ġrec ip
ĠF inally
Ã ¢
ĠĠĠĠĠĠĠĠĠĠĠĠĠĠĠĠ Ġ
Ġor th
Ġlim its
L ine
B ase
Ġpart ial
w estern
ĠW rit
j ava
ĠK ey
Ġadd ing
out s
ens ions
Ġcommun ic
ur d
indow s
ĠMod el
Ġg rid
ĠH o
ĠT ennessee
oth ing
t ik
Ġb ow
g ency
ĠFurther more
sy stem
pro position
Ġfind s
app ed
Ġcop ies
Ġarrest ed
ĠM unicip
Ġm ess
ĠLew is
Ġdev ices
ĠCount ry
Ġar ms
ĠBar on
Ġinter face
ĠA rizona
ĠCast le
ĠB h
ĠMount ain
\ _
Ġp seud
Ġconver gence
ĠN orm
A ut
au x
ik i
Ġcl ient
Ġwhere as
Ġobserv ation
Ġpain ting
Ġy ards
ĠMary land
Ġnuc le
ĠAd dition
ĠA N
Ġpass ing
p icture
Ġch airman
Ġanim als
od ot
t wo
F ollowing
ain ts
Ġfrequ ently
ĠSt ock
6 00
Ġacc ident
Ġdr iver
Ġinn ov
ir ty
Ġc overs
Ġ il
ord on
U LL
b el
ĠâĢ ł
h om
Ġappro ved
C re
L A
ĠH art
Ġh ole
Ġsupport ing
ĠPhilipp ines
Ġst ress
C ar
Ġrem ove
c ss
19 13
ĠPr im
Ġencou rag
' ve
ĠB ack
Ġtw enty
H ar
es ter
Ġcorn er
og y
Ġfight ing
Ġoppos ite
ĠR ights
Ġconsist ing
rom e
r ator
k h
Can adian
ĠSpr ing
ill ery
Ġposs ibly
Ġres on
Ġsub t
Ġmagn itude
ĠLe on
Ġansw er
ĠF ellow
Ġex erc
ĠF ederation
Ġsc oring
mid rule
Ġconsider ing
Ġext ensive
( {
ĠG h
ĠE th
Ġfund s
o om
à ¸
ul i
Ġdom estic
Ġn or
tain ment
C M
Ġsw itch
ĠH ou
od ed
ĠK itt
Ġexper i
ith ub
is er
Ġte le
Ġbur ied
Ġt asks
Ġclos ely
ĠW in
Ġattempt s
Ġd ivers
plic ations
Ġf estival
Ġinter val
Ġneg ot
clus ive
in ations
ĠT a
per ties
ĠP ier
s he
Ġd ig
Ġdef ense
ĠCon stitution
hen s
' }
ri p
Ġtr uth
ĉĉĉĉ ĉĉ
~~ ~~
Ġsom ew
Ġc art
S ection
er ick
gh an
v ements
anc hester
iv als
m i
ĠV is
Ġacc eler
Ġdifferent ial
Ġn ob
ĠMos cow
Ġgalax y
P ublic
Ġsatisf y
Ġmin imal
\ {\
Ġ= ==
F I
ĠT ai
Ġinvest ment
ĠNor way
Ġm anner
Ġv ectors
m outh
ĠPal est
Ġrece iving
an es
Ġrepe ated
Sport speople
Ġf ashion
m ers
{ {
B ibliography
Ġcon j
Ġs pl
Ġcor por
Ġv acc
O P
Ġsup erv
ĠBro ther
Ġult imately
p at
Ġv ice
Ġj ump
Ġun able
ĠUk raine
ut ed
H ow
Ġcon vent
and y
P ort
ĠSl ov
il bert
b ell
itzer land
Pop ulated
oun ce
secut ive
uss ion
ol ve
atur day
Ġprocess ing
aw n
Ġthe atre
Ġintro duction
ing ham
Ġtheore tical
19 11
t x
Ġc ab
ĠAnd erson
Ġo scill
ĠS ri
ĠHigh way
ĠB at
Ġcharg es
i Ã³n
ĠR oss
ffic ial
E v
d oc
20 23
C R
ĠRe al
ra it
st ances
ĠF I
Ġstand ards
$ ;
tik z
ch a
col n
ad i
Ġbe am
ĠMel bourne
Ġtre nd
ĠK er
Ġst rain
R em
Ġax is
Ġnomin ated
Ġeffic iency
ograp her
Ġwe alth
Ġh ope
Ġman ifold
Ġloc ally
M et
g ar
U E
---------------- ----------------
al ing
8 00
Ġf uel
c ut
ĠViet nam
e aking
Ġcaus es
ob e
Ġlett ers
âĢĿ .
ult ane
Ġturn s
Ġvirt ual
ĠM iller
}} ^{
ĠBase ball
ĠS av
u y
Ġdou b
Ġlo an
inc ial
h igh
Ġbl ocks
J apan
Ġlay ers
Ġcomm it
Ġsp ot
ab ama
Ġp ages
Ġpartn ership
op ic
C al
ĠE U
Ġentire ly
Ġst orm
Ġl ov
Ã¼ r
ĠL eb
el ess
ĠD or
ĠR a
Ġw rong
| _{
Ġdesign ated
W est
ĠMal ays
c ard
Ġb ronze
or ro
Ġreturn ing
Ġpart ition
ĠAr k
Ġcrim inal
Ġb right
Ġvill ages
ĠI owa
Ġc ov
Ġhe ro
Ġtherm al
ĠJ unior
Ġn av
Ġref ers
r Ã©
st an
ĠEx ecutive
Ġus ual
Ġconstit ution
Ġh all
ap el
ĠOn ly
ĠA z
Ġdoc uments
p ur
ĠM ethod
Will iam
Ġdeta il
Ġc row
Ġeduc ated
ĠA ud
190 8
ent ry
qu es
ues e
. [
) +\
st able
Ġtri p
Ġopp osed
Ġl um
ĠA mb
Ġocc asion
Ġfunction al
display style
ict ional
g ithub
ÃŃ a
c ong
ĠSpace watch
t i
ĠSing apore
ĠL ike
ut her
f ound
ĠGree ce
ont al
C or
ĠS at
Ġp ieces
ad ed
Ġend ing
ow s
Ġbel ief
D B
ĠHol y
ĠG ener
Ġgirl s
T A
m ma
Ġv ocal
Ġpers pect
ĠPhil ip
Ġind ependence
iss ions
Ġre ct
ĠAl bert
Ġch ance
Ġdimens ions
G C
if ts
ĠIn ternet
m c
Ġconclud e
Ġcomp ris
Ġt error
Ġc risis
ĠU s
T ax
off s
Ġinterest s
Ġfl ood
$ ~
Ġstar ring
n umber
Ġarg uments
Ġcover age
Ġz one
; </
ure au
Ġto ols
) -\
Ġextrem ely
Ġnot ation
yp es
ĠIn it
Ġag ency
ur ance
Ġbusiness es
ĠAd d
Ġtra ins
Ġac k
roll er
ĠB arn
Ġcar bon
Ġre action
ache lor
T wo
ĠLem mon
Ġs an
> (
he rent
ro it
Ġb in
Ġd iplom
Ġv ent
ĠB alt
medi ate
R S
c r
Ġ$ {
Ġd rawn
Ġinstit ution
Ġ iron
Ġimplement ed
ph p
B est
ĠC ab
iss ip
Ġdr iving
pack age
Ġat mosp
Ġtem por
eng ers
os ition
Ge ography
z i
Ġregister ed
ĠKent ucky
Ġw ins
Ġprem ier
Ġind uced
R uss
Ġscal es
id ge
Ġr ich
ah oma
Ġf rag
rit ical
Ġcrit ics
Ġsch ol
Ġw itness
ĠS uch
erv es
Ġdro pped
Ġcontroll ed
ĠOffic er
Ġalleg ed
Ġelectron ic
b uild
ĠSh ort
Ġrelig ion
Ġag ents
ou red
Ġvert ical
ĠHar ry
ic ip
Ġp ool
ogene ous
- $
v o
p op
E X
ĠP y
fl oor
ĠCh annel
Ġvis ited
J an
ell ip
C S
ĠB os
Ġper haps
ĠE nergy
ĠEnter tainment
b rid
n um
Ġcon secutive
sec ond
) },
ĠM ir
Ġto ol
Ġaspect s
et ies
Ch rist
ĠV o
u ating
ous es
ĠW ho
Ġ ener
Ġsol ar
Ġext end
Ġevery one
se arch
L em
Ġor bit
ĠKh an
Ġy ellow
Ġgl ass
Ġess ential
if act
ag h
ĠT el
r ine
ĠM P
Ġmass es
Ġscatter ing
Ġadv oc
ĠSt aff
opt ion
ser ver
inem a
ock et
Ġexpl ain
f old
Ġinter ior
Ġbenef it
p ir
ag ues
ĠAd am
ant ly
Ġk ernel
Ġconvert ed
S ources
Ġto wer
Ġposs ibility
ĠR oy
Ġth in
Ġhold ing
Ġs ave
B M
ĠCh ildren
Res ult
ĠO cean
ĠJes us
kl ahoma
Ġent itled
Ġs end
ing ly
ens ed
Ġrac ing
Ġdi agn
}( {\
ivers ary
D S
Ġclust ers
ĠConn ect
olog ists
ism s
ĠT ransport
Ġsat ell
c ks
og ether
p arent
Ġind eed
ort heast
includ ing
oc ese
Ġold est
t w
ĠC all
Ġm and
ĠMod ern
Ġsched uled
ĠA M
d l
ĠSquad ron
ĠAust ria
d on
at in
ess ions
ĠG all
ĠM agazine
Ġre ferences
Ġj ur
s ign
) "
ĠL td
ĠM att
Ġcategor ies
ic ut
ic ial
ĠF ace
Ġsc ope
ic ians
Ġnam ely
Ġd ie
p y
ĠO ak
Ġbro ken
ren e
Ġformer ly
cc cc
ĠJ os
ĠC ape
ĠTh rough
ĠHamilton ian
Ġl ock
ĠF ord
Ġ ion
Ġcharacter istic
Ġattempt ed
Ġw inter
ist ed
Ġcon ven
Ġref used
ĠT urn
in er
ag en
Ġpain ter
ĠAd v
Ġa head
Ġst orage
Ġco inc
form ance
ĠM icro
Ġb urn
yn asty
ĠL iter
Ġb ought
Austral ian
Ġco aches
up s
ĠAb out
Ġdis put
E uro
Ġsy m
De ath
ĠT ony
G ener
ĠU sing
ĠI ss
Ġro yal
U ser
Ġweap ons
ĠJan e
n ull
Ġgu ard
Ġsecond s
Ġem pty
Ġcan on
Ġb rain
Ġconcern s
Ġsix th
ĠN S
ĠSw itzerland
Ġprot est
are st
A g
Ġsk ills
Ġ( ,
Ġag greg
ĠB an
Ġd anger
m ass
Ġgu est
Ġcomm ander
Ġbrief ly
not es
ambig uation
ĠSp ec
Ġmot iv
ĠSim on
Ġchang ing
B I
Ġexhib ition
ĠL INE
ĠQueens land
} )$,
Ġmanag ers
ĠCom put
ĠN ick
Im age
ĠD C
Ġdrum s
Ġinteg ration
Ġin ject
rain ian
} }$,
ĠN FL
Ġrem ember
Ġvari ation
f unc
Ġb odies
Ġex ception
C ent
Ġgeomet ry
ĠA R
Ġbrother s
ĠE arl
Ġeduc ational
the w
Ġt urb
Ġst ability
ag an
Ġf resh
Ġindic ated
} &
Ġexper t
Ġcomplex ity
igen ous
Ð º
d el
In put
Ġp ref
omet ric
ĠF ame
Ġesc ape
Ġmaint ain
=" ../
ĠC L
The y
Ġrec all
ĠL ow
and ra
leg al
Ġinf inite
ĠM as
Ġvis ible
ĠB ah
Ġv ot
Ġa id
ĠAl abama
gl as
} }$.
Ġp un
pro ject
ĠL ank
Int roduction
rid ay
g r
add ing
&= &
Ġsucceed ed
Ġobject ive
y ers
Ġv ide
S te
R ed
P oint
Ġoccup ied
ĠI D
ĠL ast
c oh
ĠN ev
Ġcomb at
ĠTok yo
iam i
Ġpattern s
ph ant
Ġs ac
oc racy
Ġaut o
agn etic
ĠIsrael i
Ġjust ice
ĠCE O
ĠAdminist ration
ĠE ric
Ġsum mar
in cess
Resp onse
h bar
Ġf iles
g ies
Ġcomm itted
}$ )
ĠSt ory
Ġhead quarters
Ġconv ex
pp ing
riev ed
ĠĠĠĠĠĠĠĠ ĠĠĠĠĊ
Ġh our
b at
Ġg od
d ir
ĠSoc orro
Ġarg ued
ile y
Ġgrad ient
a a
d at
Ġpred iction
H er
ĠH ur
Ġfl uct
ĠD omin
ĠM anchester
ene z
ĠFor ces
ĠG ib
ip age
Ġbound s
ĠS M
ĠIslam ic
H on
ĠM ach
v ol
ĠLINE AR
Ġ$ |\
unn el
Ġle ct
ink ing
n ight
it ivity
Ġhom es
D ate
ĠEn vironment
Ġsu itable
189 0
ĠS ky
ym n
Ġdisc rim
A nt
Qu ery
Ġprom ote
in th
[ (
L ife
ubl in
ĠF ront
C urrent
Ġprogram me
Ġadj acent
Ġcapt ain
ĠN ap
is lation
ĠC ost
ĠE very
f s
ĠK at
Ġra ise
and roid
ĠP ot
M at
al ian
ĠM ond
Ġpresident ial
min ipage
w ich
C lient
force ment
ĠS ix
D o
iven ess
ic ide
st ic
ĠĠĠĠĠĠĠĠ Ċ
w p
Ġcall ing
T Y
ĠCh ile
N av
l ast
Ġcontribut ed
ut ies
ĠLin coln
Ġstand s
d ependent
w ick
Ġuncertain ty
Ġstat istical
ag u
ra ined
Ġperman ent
w rite
ĠD rag
Ġmusic ian
) )$
m ember
ar o
) }_{
c all
Ġher self
l oc
Ġs ons
Ġs ought
Ġl iqu
ĠV ice
un it
Ġb ool
ik h
ĠAf ghan
Ġw alls
Ġbro ke
pd ate
ĠNor wegian
ĠBill board
ce ived
Ġb ran
Å «
ĠH op
190 5
ĠCol omb
ship s
ĠB uilding
ow nt
Ġsol ve
un s
ĠE P
190 9
Ġre ar
Ġag ed
p ot
ĠE s
St ream
in ction
Ġpl us
Ġh uge
Ġo vers
Ġm el
ta h
ĠSen ior
ĠR ose
Ġdirect ors
Ġre in
ĠG rant
ĠC atal
ĠEm peror
u um
issip pi
Ġprofess ion
v ector
ĠJ am
el ve
ĠD eb
Ġp apers
Ġm ales
Ġdis app
Ġbenef its
Te levision
ĠIn n
us al
ĠAm ong
) </
Ġ( ;
h op
Ġst d
Ġsett led
h or
Ġpil ot
Ġsepar ated
Ġd ust
ĠI d
op le
Ġthe ories
Ġprom otion
Ġgraph s
Ġd oll
ĠB efore
ate ur
c ref
ocr atic
v ari
ĠZ h
ĠWal ter
Ġtrans mission
ĠN on
Ġf aced
anc er
Ġexpl o
ĠB eng
less sim
ĠJ ordan
port ed
ĠW olf
us es
}{ |
Ġrad iation
r ating
Ġhapp ened
Ġdep ict
um a
Ġhistor ian
Ġsub group
á »
R ight
ĠDi ego
Ġro of
Ġex cell
Ġcam era
act ic
Ġpre t
Ġm ist
ab y
Ä ĥ
Ġinters ection
190 7
Ġres c
ar se
H C
Over ride
Ġsim ultane
R ail
Ġeval uation
190 6
dis ambiguation
Ġf olk
The refore
az a
ĠReg ional
d am
Ġcollabor ation
Ġpen al
ĠAg ain
F inally
F M
Ġmay or
âĢĿ ,
Ġch arts
r ations
ĠA ge
re hens
N orth
Ġoptim ization
Ġunder lying
Ġgreat est
Ġinst alled
Ġsit uated
Ġsaf e
12 5
Ġt ransp
ĠCommon wealth
Ġc old
B el
rib ed
ĠL ocal
Ġf ought
Ġ( ),
P L
: }
u ilt
Ġcover ing
ty p
Ġrough ly
Ġkill ing
Ġhor se
$ ),
Ġm ental
Ġconn ect
for ward
m ont
Ġamplit ude
Ġkn ew
ĠW y
ĠE nt
ĠN a
he nt
ant e
ynam ic
Ġs ale
ĠS ound
ill ing
ĠComm unic
oy d
Ġworld wide
Ġconsequ ence
< !--
ĠMar ine
ĠD ue
ĠAl i
B B
ĠW ind
Ġ< <
) }}
Ġdec or
Ġscen ario
A f
ĠO tt
l ik
G N
ĠIn vest
Ġproduc ing
ĠB rian
ĠN ative
Ġdec ade
Ġqual ified
Ġs un
Ġm ent
Ġchalleng es
ĠT en
D C
}{ (
ĠD un
Ġrev olution
form er
ĠD ream
P o
Ġabsol ute
Ġso le
et ch
Ġoff ices
iction ary
ĠTur kish
ĠTod ay
ĠHou ston
Ar ch
Ġk ick
Ġly rics
ĠG re
Ġshort ly
ĠDo ctor
Ġtre ated
l ades
Ġsur g
Ġg ender
ĠU l
enc ing
ĠS T
P at
Ġaff ect
Ġab und
ĠMar c
Ġopin ion
ĠC emetery
ot ional
A V
Ġt rac
uer to
Ġ Ä
Ġhigh light
Ġar c
ph one
Ġwe ather
s i
rid ges
Ġn om
Ġeffect ively
ĠInf antry
Ġag ree
ĠRep ort
go ogle
Ġp ed
Ġadj ust
ĠM it
U r
in ian
ĠSt one
Ġdis crete
Ġretire ment
G A
Ġout er
Ġadapt ed
Ġinteg rated
Ġattack ed
L ast
os es
Ġliter ary
n old
ĠF ac
ĠArm en
M R
Ġsh ock
G en
ĠB or
p res
ĠC ase
D ep
ĠW orks
B orn
Ġthous ands
Ġsurn ame
Ġand roid
ĠS aturday
Ġhot el
opp ed
Ġrot ation
Ġair port
ess ed
H el
Ġden oted
w all
Ġh idden
rap y
Ġser ver
Ġcalcul ations
Dav id
a uthor
us hed
Ġflow s
ie val
ĠLab our
Ġrecomm end
Ġscen es
Ġsing ers
10 1
Ġang ular
G o
u j
ĠHe art
Ġs ell
ĠEx t
ch ron
ĠN aval
Ġfound ing
ĠO klahoma
ĠTe levision
ĠF a
on i
ĠS quare
ĠT an
Ġc as
M ark
Ġex clud
ĠSt r
Pl ot
P U
% .
grad e
Ġe c
cal e
ĠB rand
ĠGo ogle
Ġan imal
P res
Ġcomput ational
Ġpass es
Ġconclud ed
j av
ell i
Ġcoe fficient
Ġp ix
Ġf ranch
Ġs and
ĠH ans
Ġsum mary
is ely
St art
l ad
F unction
con f
Ġdo or
st all
Ġcent uries
el son
D R
Ġcalc ulation
Ġbig gest
Ġre aching
k ov
Ġregard ed
Ġheav ily
t iny
ĠM ap
h box
Ġcon clusion
ĠHow ard
Ġs oci
L eg
Ġas k
Sec ond
iv a
Ġpre ced
od ox
Ġm obile
ch ant
bum s
S um
ĠG ab
Ġre new
Ġrob ust
ĠConnect icut
Ġstri ke
ĠBatt alion
ĠTem ple
Ġaccur ate
the less
Ġa ired
Ġmultip l
ĠG ard
ut ing
U sing
190 4
names pace
Build er
Ġcon vers
Ġcharacter istics
Ġext ent
ĠD ark
ĠĠĠĠĠĠĠĠĠĠĠĠĠĠĠĠ ĠĠĠĠĠĠĠĠĠĠĠĠĠĠĠ
P O
ĠN ich
ĠN AS
Ġcaus ing
ĠR eb
ĠO F
ĠTh ird
Ġtem ple
Ġde leg
r in
o a
R un
Ġinvestig ate
ĠMed icine
Ġmix ing
ĠAll en
Ġcred it
ve e
B O
rib e
ch or
Ġsub stit
ier arch
Ġp ush
t arget
Ġle mma
R ad
ug u
b urn
Ġlaw yer
M ost
Ġvol unte
Ġch urches
ĠK y
Ġlabel s
Ġk il
ĠS ud
ĠI S
ĠPat rick
ĠB ureau
Ġst ages
ĠH amp
Ph il
res ults
Ġen emy
Ġint elligence
Ġl ake
ĠI r
Ġcommission ed
Pro v
ĠAnth ony
ol ished
ĠG ram
Ġjo ining
ĠE c
190 1
Ġcoordin ate
clus ions
att ers
Ġad ult
Ġw aves
B L
ĠCo oper
}\ ,\
x x
In stance
Ġestablish ment
Ġcompet itions
Ġresist ance
c ing
Ġcr uc
i em
Ġal ter
Ġcomput ation
Ġ- >
St atus
ĠS C
Ġa f
Ġpers ons
Ġe ye
sequ ently
Ġpredict ed
Ġr ational
M ax
b en
190 3
f a
ist ent
end ment
_ -
Ġqu e
eed s
ĠMo ore
et ing
ĠC are
at on
16 0
Ġcan cell
ant on
ĠDon ald
Ġcol our
F R
ard o
ĠWh it
Ġdo ct
se lect
ĠI l
Ġdis establ
Ġch ose
ĠAn ne
Ġlow est
t ag
Ġj azz
ĠSy m
ĠF inn
Ġlat est
Ġabs ence
Ġleg islation
ĠR ey
Ġinflu enced
ant asy
Ġqu ery
Ġad vent
Ġsatisf ying
H T
Ġany one
it ational
ĠH om
A ction
Ġtemper atures
ĠOb ject
e lect
ĠM ult
um in
ĠB ou
Ġjob s
opt ions
Ġsufficient ly
ĠN one
Ġoper ate
Not able
ĠS af
fri end
Ġphot ograph
Ġdes ired
Ind ian
c are
ĠW he
ĠCro at
ar ry
ĠJ ay
an im
V ill
Ġmon itor
poss ible
Ġhand le
Ġpract ices
Ġinf rastructure
ĠL ore
l ib
Ġm ac
Ã© t
Ġt ick
L C
ĠL ic
Ġread y
t frac
F ootball
Ġpol l
Ġmaint ained
big l
Ġfound ation
Ġgener ic
Ġeng aged
cre t
Ġapp lying
i ated
Ġ\ ]
E ducation
Ġref uge
et ween
ro ph
s u
ĠBr un
Ġbehavi our
190 2
: =
Ġsubs id
so le
Ġgun s
ĠMiss issippi
Ġinv ited
Ġrepresent ations
Ġsport speople
Ġinh abit
Ġjourn ey
arn er
Ġm art
ĠAss oci
Ġproject ion
st al
U L
Ġc ru
Ġd ates
Ġv o
ĠDis ney
Ġprote in
ĠLouis iana
Ġun less
\\ &
d est
script size
ĠR ab
Ġdat abase
Ġf an
^* $
, $
Ġexperi enced
Ġcont rad
( [
ition al
Ġoper a
ĠY outh
Ð »
ig ious
it als
ĠNC AA
Ġtra ject
D i
Ġm ort
us cript
onom y
Ġatt ached
ĠArgent ina
h ab
Ġc reat
Ġv ision
im ore
aw are
ograph ical
Ġprep ared
ĠD om
Ġresearc hers
ĠK az
ak ed
U til
ĠSw iss
Ġident ical
ist ant
Ġcons ervation
Ġb an
ĠHar ris
Ġconsist ed
Ġbul k
t ers
Ġb oolean
ĠPh ill
Ġsequ ences
Ġbal ance
ĠInd eed
Ġent ropy
ist a
st ep
18 0
Ġm apping
form ed
Ġsoc cer
Ġdet ected
ow ski
ĠHon or
18 80
enn y
Ã© s
Ġste el
def ined
Ġhum ans
ap l
qu ery
ĠS el
ĠMr s
Ġv eter
ĠHer itage
ĠN ever
Ġcl oud
ang ular
exp ected
ĠQue bec
os lav
Ġdynam ic
Ġmet res
ĠM oon
ĠPol icy
Ġcom ments
Ġmer ged
ĠG ordon
ĠC ode
Ġequ ilibrium
ar iance
Ġb atter
}} }\
ol o
d irect
Ġr ig
Ġexplicit ly
Ġincorpor ated
omet ry
ĠTai wan
ĠP rix
ĠHol lywood
Ġopportun ities
f i
Ġanal og
Cl ub
ĠAg ency
ĠDet roit
Ġcalcul ate
ĠN ig
ĠR ang
Ġvers us
Ġgrad uate
ĠCh all
ĠRober ts
Ġent ertain
Ġlin ked
Ġscient ists
am ing
Ġgood s
fl oat
ĠB ry
ĠSil ver
im g
ĠCh ampions
Ġt ennis
Ġpublic ations
big r
over ty
Ġp ip
Ġv oted
] }
ab ad
& $
N on
Ġpaint ings
ĠBrig ade
Ġt ag
Ġfill ed
ĠPortug uese
cl ient
or row
Ġpurch ase
Ġw arm
ĠBul g
Ġinterpret ation
st ood
Ġfact ory
Ġrespons ibility
M E
ĠD ur
ĠA maz
H igh
Ġis omorphism
Ġex ceed
] $.
ĠN ag
Ġtra v
is en
g reen
ram a
m aster
-- -
ĠHot el
.. .,
in burgh
Ġse ed
che ll
Ġcerem ony
}} _{\
Ġin her
Ġh air
ect ure
D es
Ġloc omot
pro perty
N O
op ter
ĠP ope
ĠS port
ĠDou glas
ro ke
Ġvide os
Ġneigh bour
Ġstand ing
Ġl aid
Ġparticip ants
Ġassist ance
Ġconcern ed
Ġwas n
Ġd iver
ĠM iami
) )\
in ces
og g
ic ular
Ġst adium
ĠHar vard
M ilitary
re a
\ }$.
Ġacc used
Ġpoet ry
pro v
ĠHaw ai
Ġl ists
ĠBelg ium
N umber
ĠV in
end ar
j oint
leg es
Ġcomput ing
it ative
el and
Ġphot o
ail ed
cl ose
level and
Ġcomp at
form s
j pg
Ġunivers al
ill ed
Ġd a
M c
U nder
Ġdecom position
ob s
d ale
u h
ĠOn ce
Cont ent
Ġvictim s
li est
Ġsomew hat
P D
ĠN ik
Ġt all
ĠVill age
O rig
W eb
ĠD al
Ġp ione
Ġexper iences
ĠH ockey
Ġdef in
l ie
ĠD ak
ot te
G M
Ġdeliver ed
Ġw ants
oth s
Ġex cess
ĠR ow
he red
Ġv irus
ĠRec ord
An other
ar on
Ġde put
all as
iss ance
ĠF le
Ġ$ .
ĠA T
ĠF riday
Ġr uled
Ġbi as
c ious
\\ \
math op
Ġinj ured
Bl ack
ĉĉ Ċ
ra ctions
eli hood
d escription
ĠTer rit
Ġwe ights
ĠDen mark
ĠL ev
ĠM and
Ġpract ical
Ġcross ing
Ġscal ing
el le
Ġaccom pl
$ _{
Ġst ores
ĠEr n
V ideo
ĠA le
Ġp ul
Ġestim ation
ĠK am
Ġrelationship s
Ø §
Ġf il
Ġsett ings
Ġaccount s
Ġhapp en
Ġco ok
Ġparticip ate
ĠS D
ax is
ru ctions
Ġperspect ive
ĠC ulture
Ġaband oned
f amily
op es
Ġassum ptions
Ġf iled
en ame
mer ce
id en
T oken
lement ary
ĠBrazil ian
R ober
Ġch apter
Ġess entially
ok es
Ġis n
Ġmark ets
) --
w en
sh ow
Ġsk y
Ġin aug
Ġtransl ated
ĠLiber al
ul ating
bt n
Ġb oat
od ge
Ġimmedi ate
and o
Ġsee k
Ġcharacter ized
M ich
B efore
com mon
av or
Pro f
Ġb rown
ĠP a
ĠArch itect
ĠR yan
arg o
reg ular
Ġinv erse
p ing
rupt ion
Ġdec isions
Ġdis miss
$ :
Ġinter act
Ġown ers
bra ce
ĠT reat
i eg
er on
Ġ[ \
f rame
E p
ĠLie utenant
ĠD a
Ġcl er
R oman
ts burgh
Ġ\ !
ch t
L ong
Bl ock
Ġg ar
A E
Ġ{ $
Ġ ellip
ON T
Ġexpl an
d ied
' ll
Ġre nd
Ġint ensity
Ġf ear
Ġst ating
est yle
Ġsever e
Ġconcent ration
GB T
ĠC ru
Ġj et
Ġt ack
f ather
Ġins ert
ĠInd ependent
ĠCon c
ĠN av
Ġclass ic
Ġpop ulations
ownt own
per iment
ug in
ri k
ĠK arl
eb ox
13 0
Ġg ene
ĠIndones ia
Ġdr ivers
Ġsup posed
ĠD ick
ul us
Ġaccom mod
Ġsign als
ĠN ULL
Ġpropos al
Ġass ault
arg ets
U K
ang el
Ġexpl os
ĠK l
Ġnecess arily
or ption
ĠAb d
Ġent ries
put ation
ĠP uerto
d esc
Ġtouch down
ĠE ag
ĠE arly
ĠBang lades
Ġr ival
Ġequ ality
fin ished
ĠBow l
Ġderiv ative
Ġd uty
con v
Ġphil osophy
s g
Ã ´
w orld
ĠAnton io
Ġfav our
Ġupd ated
Ġsust ain
,\ \
St ar
ĠOr th
a ire
M us
Q ue
Ġa w
Ġstudy ing
ouri er
ĠD anish
R L
ĠB uck
Ġaccom pan
Ġbeaut iful
ĠB ush
Ġsubject s
Ġext reme
m n
Ġhypot hesis
ĠMat thew
Ġag encies
enez uel
ĠStud ios
ap olis
ĠBudd h
Ġmatch ing
Ġt ropical
is or
ĠD VD
Ġdomin ated
Ġneut r
Ġclass ified
ual ity
Re ception
Ġre ign
cl osed
Ġar med
S ty
Ġcrow d
Ġeval uate
red ited
Ġatt orney
Ġmembers hip
Ġhigh way
ĠF M
ĠN et
I O
ĠSt ew
Ġreject ed
plic ated
ash i
ys et
Ġd ry
Ġben ch
ĠPortug al
Ġd ream
ol id
Ġcirc uit
roll ed
Ġenc ounter
ĠPl ace
Comm and
ĠOb serv
ĠC ook
Ġcrick et
ĠOr chestra
ail and
Ġcap able
W E
ĠD ublin
T ransport
Ġkey board
12 8
m o
Ġdimens ional
Ġpat ient
cy cl
g eneral
c raft
ĠP as
189 8
Ġrepl acing
Ġhe ar
on ential
ta ch
t ree
Ġent rance
Ġpack age
ic ate
Ġpass enger
Ġread er
ĠMon te
och astic
Ġte achers
Ġne ural
M ain
Ġmed icine
arg s
Ġbre aking
Ġinv asion
Ã ¥
Ġcolumn s
ĠAb b
Ġunivers ities
ĠL anc
ĠN ob
s a
Ġdeb ate
ĠAl ber
N C
) })
] $,
Ġh its
Ġactress es
ish ment
Ġk id
ĠJu an
Ġh ired
ay an
ĠDe ath
Ġloss es
Ġdatas ets
Ġlum inos
ĠLa ure
Ġconf idence
Ġb ed
Ġch ampions
Ġdesign s
Ġsec retary
ont in
Ġac id
Ġsupport s
Ġcomplet ion
ann e
ĠG a
al gorithm
Ġcompet e
el lect
d frac
ĠP ap
ĠIn stead
Ġst ret
Ġregular ly
Ġdemonstr ated
St at
Ġform ally
ro c
ĠH ug
L abel
ĠAl an
f inals
it ory
Ac adem
Ġe yes
J u
ĠD igital
Ġneut ral
art he
Ġres erve
B E
Ġconn ections
id al
ĠN E
requ est
ĠSam uel
Euro pe
Ġappear ing
Ġprec isely
ĠL ang
in ch
V is
Ġgrav ity
iffer ent
Ġsh ares
ers et
X X
Ġhelp ing
Exp atriate
ĠEd inburgh
Ġis lands
ĠArk ansas
,\ ,\
Ġrel ax
ou ble
d ie
M ult
Ġoff set
u ction
ather ine
ĠMay or
ct ic
Ġsc hem
ch ild
189 9
Ġsatisf ied
N ull
Ġf ib
Ġmid field
F inal
Ġthrow s
Ġpl ate
ĠR est
Ġdepend ent
ĠH u
R T
Ġg ate
ĠMc G
agaz ines
Ġnot ion
or us
ĠT ig
Ġeng ines
Ġbring ing
Ġdomin ant
Ġstat ements
Form er
ĠL yn
eg et
inc orpor
head er
ĠDef ense
Ġsent ence
Ġperiod s
Ġch air
ĠP ed
eb ug
ĠPe ace
ĠRes erve
Ġshoot ing
ird s
Ġinvol ves
Ġleg end
Ġ ^{
Ġrestrict ed
ĠWalk er
ĠL am
ĠH ills
][ ]{
v ature
ut s
re tt
ar ation
ĠCh airman
Ġschol ars
Ġph one
ĠS in
oc a
Ġex ecution
ĠF arm
j ust
Ġcour ses
rop ic
ro sc
ĠLaw rence
;" |
ry pt
ĠF all
Ġsec ure
Ġm ilit
n ers
Ġan th
ĠÃ ī
gress ive
ss on
ĠM i
Tr ue
ad ata
ĠG arden
r atic
Ġlic ense
s ince
em en
ĠL as
ĠU tah
Ġclos er
bor ough
[ -
ah n
ĠM aur
ĠJ un
ĠFred erick
ort ion
ĠF il
pro fit
cont in
es ides
row ser
Ġexecut ed
Ġst opped
ĠEx press
Ġd ens
pl ane
Ġcustom ers
Ġp od
7 00
Ġcom ic
D irect
ĠMc K
ar ma
ĠAtl anta
long rightarrow
e ast
he astern
eg as
ĉ Ġ
Ġk e
et al
Ġanc est
Ġfin ishing
}[ \
ĠA ction
__ __
ub er
ĠLeg islative
Ġfle et
am ents
od a
is ations
Ġf ly
L ocal
ĠDe ad
f n
em i
Ġr ating
Ġunivers e
ĠAddition ally
Ġocc as
Ġincreasing ly
Ġro ots
ud a
D M
ipp ing
ĠE vent
uz z
18 70
Ġground s
ĠF ern
;\ ;\
ib l
ĠComm ander
ĠS ign
B uffer
Ġinst rum
}) }
Ġoffer ing
189 6
Ġinstrum ents
w ho
un ing
W orks
ĠP C
P an
Ġmax imal
ĠC art
Ġbu y
ĠC ow
Ġc m
Ġ( (
189 5
} );
T em
ĠT ar
ĠSc ient
ren a
Song s
Ġj unior
B R
ĠCol lection
Ġc aught
ors es
ĠD ave
Ġsup p
ĠPl ayer
ĠIm perial
Equ al
am an
is d
Build ings
Ġcomp ens
empt yset
In it
ĠMot or
ĠS n
ĠHistor ical
Pro of
Ġconst ants
ĠC ond
ri ed
ĠI mm
edd ing
Ġsampl ing
ĠC op
Ġdr iven
Ġmax im
ÃŃ n
is ition
Ġaud io
ot he
Ġfl uid
}} .
anc ell
F lor
Ġb anks
nowled g
int end
sc he
s at
Ġcarry ing
Ġinhabit ants
, {\
ĠGu ide
Comp onent
Ġf ont
ĠKenn edy
Ġproduc es
F amily
script style
C ase
ĠSup port
V ol
pr ise
ĠDep uty
Ġrespect ive
Ġbir ds
ĠApp endix
ten ance
Ġquant ities
Ġast ron
ĠMe an
Ġtest ed
Ġexpl ore
O p
ĠC hen
ĠR ub
ĠFri ed
Ġagric ultural
par ison
ĠM ath
Ġland s
ĠEconom ic
Ġab use
uc ks
ol ly
ĠCh ild
P M
Ġtr igger
D esc
ĠT s
n ik
M ajor
Ġsepar ation
ĠSing h
Ġd rag
ĠR y
Ġrapid ly
Ġpath s
\ ;
M al
iver pool
Ġmov es
en z
Ġdet ect
ĠM L
es ian
incorpor ated
Ä «
Ġdi agonal
P age
Ġder ive
}} )
Ġkeep ing
arri er
rack et
ĠK evin
Ġprom pt
% ,
Ġres igned
D D
pl es
Ġte en
ph ony
. '
ĠMalays ia
Ġrecord ings
Ġw aters
}_{ {
ĠCont rol
Hand ler
189 7
ĠN atural
Ġs elling
Ġp y
or f
Ġillust rated
ass ador
Ġf lex
Ġcour ts
Ġdemonstr ate
a ired
Ġb oys
ĠP ur
ĠP eters
ĠC ensus
Ġcast le
be an
Ġtw elve
Ġtra ce
ir ation
bm atrix
Ġview ed
ĠOb ama
Ġmod er
J ames
rehens ive
Ġl ift
Ġeth nic
empt y
U I
Ġdiscover y
Ġadm itted
N E
ĠP ref
ĠK o
Ġp up
Ġdis pl
ul er
ib ilities
Ġroad s
ann y
ĠAuthor ity
Ġcomm ut
Ġf er
ĠP rom
ol as
Ġgrad e
Ġcl ar
aud i
Ġstre ets
g i
Ġn ick
Ġback ing
b ach
ĠC M
ĠW ard
Ġinter mediate
Ġbound aries
Ġmunicip al
ub ble
al gebra
It alian
Ġcont ribute
our se
. /
uk i
ug ar
Ġdecre ase
ĠV ari
Ġde pos
ig e
Ġm ob
Ġpenal ty
ĠL ib
Ġb low
ol ph
Ġsc ores
app end
Ġtr ivial
p ers
Ġw el
Ã «
Ġres idence
ram ework
Ġimpro vement
Ġarr ival
H O
z ed
Ġmin ing
ur ations
ĠR ound
14 0
ĠN ext
tikz picture
ĠAd ams
G iven
Ġann iversary
Ġcent ers
Ġun us
Ġg one
Ġb os
ĠUk rainian
Ġre nt
ac on
Ġadapt ation
Ġexp ed
ĠSe attle
ĠAust rian
bar a
f ind
Ġpart ially
Ġpro hib
$ };
Ġn ations
w as
ĠN ash
ĠCommun ist
ol y
form ing
Ġtop ological
Ġm es
Ġener gies
Ġman uscript
ĠR ick
ĉ ĠĠĠ
H P
ĠF ood
Ġfranch ise
A ng
" ]
T ube
ĠFin land
param eter
Ġthink ing
ĠFace book
Ġemer gency
Ġl ooks
br as
int eg
St ud
Ġf lying
Ġsh ut
Ġunder stood
Ġmole cular
Ġgeneral ized
Ġh un
ĠM es
om as
ĠB art
Ġrad ial
Ġleg isl
Ġmin ute
ĠR ol
Ġf old
aw ay
ĠTh ailand
ĠG iven
Ġser ial
Ġd ense
Japan ese
u able
M arch
point s
ĠAg ric
p erson
Ġne ither
mod els
> \
os c
ĠB ull
) }_
id ay
Ġprot ocol
Ġun f
Ġpost er
red uc
Ġpercent age
ĠAn na
P aul
d iff
Ġreplace ment
Ġg ather
ourn ament
Ġass embly
Ġw ire
A ugust
ĠT it
Ġfac ilit
M any
ĠMor gan
ĠL ear
ĠM Ps
il st
sc ope
ĠT rade
oun sel
Ġequ ipped
Ġproduc ers
Ġ }{
G R
at ar
ĠH as
ĠC ole
Ġ" ""
$ {\
m illion
r ates
ĠHung ary
script ion
d oor
ia h
d in
Ġmanufact uring
Ġmov ies
ĠTra ining
amp s
ĠG on
Ġpredict ions
Ġsurv ived
ater n
ĠK now
ĠM ission
| }{
Ġliqu id
l on
ĠK a
ĠTh ough
Ġp ray
V ersion
par agraph
l ash
Ġsing ing
pr ivate
b ed
ud den
ish ops
du ctions
ĠAd vent
= .
Ġed ited
og ram
Ġmom ents
Ġear liest
ĠHung arian
$ {
Ġpro pose
atur ally
ou stic
ĠR ace
Ġrac ial
Ġin duct
Ġanim ated
Ġd ynasty
ĠI ron
Ġpra ised
j u
T im
\ )
Lem ma
Ġh am
ĠP rad
189 3
Ġred shift
qu est
ortun ately
ili ar
Ġa er
Ġl it
Ã ł
ĠRuss ell
ĠN am
Ī Ĵ
ĠC hem
O fficial
ĠMarg aret
ĉĉĉĉ ĉĉĉĉ
ĠPh ot
Ġm ine
Ġdescrib ing
init ely
ĠAll iance
Ġ ^
form at
Ġtri es
rep rene
ĠPal ace
ĠDe an
Ġsp eaking
ĠP ear
O pen
eng ths
i u
Ġsee ing
Ġbran ches
ĠĠĠĠĠĠĠĠĠĠĠĠĠĠĠĠĠĠĠĠĠĠĠĠĠĠĠĠĠĠĠĠ ĠĠĠĠĠĠĠĠĠĠĠĠĠĠĠĠĠĠĠĠĠĠĠĠĠĠĠĠĠĠĠĠ
R ich
Ġsign s
Ġpri ze
Ġsim ilarly
U s
z z
ĠC leveland
Ġmagn et
Ġsatell ite
ĠCon vention
e lection
ĠP M
Vill ages
x ml
Ġprincip les
H istor
i ota
ĠN eb
n n
ĠKel ly
ou ch
Ġf alls
Ġasympt otic
Ġst ead
it udes
st at
l arge
RE F
ER T
but ton
Cons ider
ĠB ox
Ġb ond
H ence
Ar g
Ġra in
Ġs leep
Ġvari ations
ĠAn y
}) =
Ġphot on
ĠStand ard
s ong
Ġthan k
ĠN ar
W ork
g ow
m al
L ink
Ġthan ks
fl u
ĠBalt imore
E ach
Ġf erm
Ġd ies
Ġcolon ial
Ġcollection s
Ġoper ates
Ġhe aring
pr ison
ĠE dition
low er
Ġt ight
Ġs ter
Ġ$ ,
Ġs izes
f ly
Ġpass engers
Ġb ishop
ĠK ings
Ġinv ent
ir i
189 2
Ġwindow s
th on
ine a
ĠS everal
ĠD aily
ĠCh amber
Ġathlet es
Ġeven ing
Ġassoci ate
R I
ĠAl ice
Ġnon linear
ast e
ĠMont real
cl ip
\ }\
\ /
ire ction
O ptions
ĠH erm
ul ner
ĠWel sh
s rc
e lement
Ġarch ae
S an
Ġconstitu ency
r ins
ĠCap ital
b ai
Ġcanon ical
ĠC rown
Ġaccompan ied
ĠLank a
Ġbelong s
ĠBet ween
Ġsy nd
¿ ½
ĠE ver
ĠBe at
Ġdown load
ist ration
}} ^{\
ĠC ov
/ (
Med al
Ġro utes
nav bar
ĠN ep
Ġdire ctions
el se
Pro t
Ġemploy ment
Ġmar ine
Ġembedd ing
Ġcon crete
Ġdiv isions
f all
ĠO bl
ab et
Ġcomp ilation
Ġp overty
Ġquant ity
ĠV ideo
Ġ ri
}) ^
j son
st atus
Ġresident ial
ĠAfghan istan
Ġoccup ation
ĠSe ason
Ġl es
h l
ug oslav
serv ice
}_{ -
usal em
AM E
B us
Rail way
le ans
Ġsimultane ously
Ġprison ers
Ġsevent h
Ġcrit eria
Ġpri est
int ro
AT ION
ĠF ight
F actory
hy thm
Ġdivers e
ĠMet ropolitan
ĠD ance
k ee
r ase
Ġf aster
Ġland scape
form al
ĠBru ce
ĠAust in
ï ¿½
if est
Ġpubl ishing
Sc ott
ĠPubl ishing
Ġste am
Ã³ w
Ġhundred s
pt r
ĠSar ah
iss on
ĠP age
Ġd og
ĠW right
f ull
' d
Ġacc ord
Ġsu it
Ġhel ps
Ġw ish
Ġdis order
Ġ+ =
Ġsignific ance
ĠAlf red
Ġgu ide
Ġc ited
ĠN ame
ĠCamp bell
Ġdeterm in
arthe ta
com es
Ġob lig
ĠBanglades h
Ġt ank
ĠR ight
ĠP ho
Ġstrateg ies
ge bras
Ġown ership
v artheta
ob j
af e
Ġs now
U M
ĠRail road
v als
Ġv oting
Ġpres ents
Ġenh ance
Ġrecover y
ĠE mer
Ġform ing
Ġt argets
ĠN elson
onym ous
ĠR ot
ĠYear s
l arg
189 4
F ran
18 60
ĠChrist opher
188 9
Ġclin ical
the re
B ur
Ġc rown
Ġcertain ly
ĠHamp shire
ĠG ulf
Ġsubstant ial
ĠH orn
Ġpremier ed
ad ers
ĠC arn
Ġcontrol s
ĠKn ight
Ġin clusion
i op
ĠMond ay
ĠThom pson
in stein
Ġcol ors
Res ource
le ased
ar us
Ġst ood
ĠTam il
ĠLeb an
ĠRog er
d rop
ran ean
ĠStew art
ming ham
ĠR oc
ator ial
ĠV enezuel
Ġjud ges
Ġhapp ens
Ġisol ated
d ers
Ġf ired
Ġprov ision
ĠR io
ĠB oys
ĠS hip
em or
Ġis ot
Ġent ity
as m
il k
\ }$,
Ġre tail
b ad
Ġcruc ial
Le ft
Ġ urg
ĠVi enna
Ġm atters
Ġsched ule
k g
eta ils
ĠE sp
ĠL ith
iss ue
ellect ual
im ages
ĠC ra
Ġcons ervative
Russ ian
Ġcorpor ate
Ġfl u
cul es
j ar
s is
im ation
ins ula
ĠPit tsburgh
Ġvari ant
ĠSchool s
f ilter
S H
ĠMount ains
Ġab stract
Ġelect ro
ĠP ad
ĠGirl s
ĠC H
b ridge
Ġequival ence
ren cy
Ġapproxim ate
ĠSh ah
$ ^{
ĠC er
Ġarrang ed
as a
Ġsp r
al ia
ĠF ive
column width
Ġdiam eter
Ġcircum stances
Ġpost ed
ĠR ugby
J une
ast s
Ġhost s
Ġrequire ment
Ġgovern ments
Ġvar iance
D I
or ous
Ġres ign
Ġins urance
ur ers
Ġassum ing
L ay
Ġdesign er
ĠS ac
ĠUn it
ĠA L
Ġcon vention
Ġk in
over y
A pril
ĠRet rieved
m ode
Ġvac uum
Ġdef ensive
Å Ł
field s
ac le
Ġwith d
Ġpoint ed
pr im
unn y
Ġb undle
1 12
}} =
Ġass ets
um ption
ĠL iverpool
ro se
ĠOrth odox
ph an
ov o
Ġnot ably
Ġm ask
Ġconvent ional
ĠMain e
Ġ es
ĠAtt orney
d em
ific ial
Ñ ĥ
Ġval ley
u is
n ia
Ġre ception
Or der
: =\
Ġro oms
Ġplatform s
188 5
Ġsens itive
n ie
E P
Ġb ra
Ġt y
Ġjournal ists
Att ribute
ari os
ĠJoh ann
m eta
ĠCont in
{ |
Ġc ro
Ġmov ements
Ġmarket ing
itar ian
189 1
ĠI R
cont rol
Ġind epend
Ġmy th
ĠR ic
er g
ĠH it
m t
ĠY e
ĠP sych
ĠD ie
Ġsy mp
f ront
S F
ĠV iew
ow ed
ou ver
ĠA BC
ĠD allas
e enth
[ "
se a
Ġw al
Ġconcern ing
Ġdisplay ed
Ġtop ic
id ency
Ġst ack
ĠH old
Ret urn
ograph ics
Ġexp onent
cast ing
Ġappro val
ter y
Ġpan els
Ġpartn ers
Ġmess ages
b us
v as
y cl
ĠB ed
ort on
Ġdam aged
Ġsp ending
Ġen able
Ġparticip ation
ĠRob inson
ĠMar ie
Ġe q
ĠF el
ĠCent ury
v s
Ġhead s
w hen
Ġre venue
j amin
Ġw arn
ĠW indows
ĠO ri
Ġg ang
] {\
Ġcur vature
+ (
ĠDak ota
Ġann ounce
ĠR ural
ĠP un
Ġm al
m iral
Ġp rices
Ġsh op
Ġdrug s
Ġcritic ism
g ment
o i
Ġrecon struction
Ġthe ater
Ġloc ality
Ġ\ (\
ĠG ill
Ġrail road
Ġd uties
up date
ĠG rad
ĠW ed
zer bai
U C
Ġconsider able
Ġrestaur ant
Ġrest ored
Ġent ering
ĠOrgan ization
f ire
Ġph ases
Ġoff ensive
ĠN BA
Ġlook ed
re nder
Ġtem porary
T ask
ĠF A
Ġjur isd
Ġdeput y
ĠJud ge
T O
B N
Ġcre ative
lo op
Ġactiv ist
Ġreason able
ĠL l
\ |\
Å Ħ
ĠH ell
Ġsign ature
Ġh ierarch
Ġn ortheast
um s
Ġrel ief
ĠPr incess
ĠD NA
eng ine
com plete
ĠCar ter
is ode
> >
ĠVol ume
Def ault
Ġal coh
ĠRoman ia
Ġgrav itational
y ll
Ġcompet itive
rick et
c hers
list ed
ĠL ower
on ian
Ġc ards
Ġw at
ĠFrank lin
ĠCh ampion
c ient
ĠOr leans
apt ist
Ġfem in
Ġher itage
i ac
Ġs oul
ĠMarsh all
Ġcrick eters
um ps
i ot
ĠBrother s
ĠP erson
Ġchild hood
es is
Ġcol le
ir ates
G S
p ush
Sup pose
Ġint ent
Ġgener ating
ĠPat ri
Ġon going
188 8
Ġsp ac
ific ate
Ġsim plic
n amed
Ġcoupl ed
ab ric
1 15
rep resent
ĠF al
ri or
ĠN ic
Ġexp osure
ĠV ik
t own
Ġdet ector
Ġc odes
Ġstrict ly
ĠYou Tube
ĠJos Ã©
Ġhy brid
Ġorgan isation
ĠB ible
st s
sub sec
ill o
ĠS N
ĠF ather
10 5
ĠT HE
Ġs udden
w right
is hers
pe ople
H ome
Ġs ed
Ġ{ @
ĠJer usalem
Ġexpress ions
Polit ical
Ġro ut
ĠGl as
Ġkn ock
ĠB uff
Ġwor st
ĠCh ang
V ari
Q L
fin ite
b ul
ĠG ray
Ġv ic
Ġdef ines
ra ble
Ġim prison
Ġcompos ers
m em
Ġh osp
ĠOper ation
ist ence
Ġvol umes
Ġluminos ity
i ere
h us
Ġm ir
Ġse es
col l
Ġpot entially
Ġc raft
ĠBrook lyn
Ġhoriz ontal
Ġinst ruct
Ġat oms
Ġhead ed
Ġven ues
Ġpopular ity
v ia
ĠA y
18 65
} |\
ĠOtt oman
Ġident ification
ĠT rib
erv oir
Ġentertain ment
L ocation
Sty le
ed ing
Ġfl o
out put
sl ant
Ġdecl ine
Ġsk in
Ġsee king
S k
ĠMor ris
Ġran king
ob a
r ub
^{ (\
pl ot
// /
Ġv ast
Ġme ets
v ision
Ġg rown
ĠSen ator
om ing
. :
Ġc a
at iv
ĠK an
Ġexerc ise
Ġmet ers
Ju ly
ĠNaz i
Che ck
Ġadv ice
og onal
Ġgener a
neg ative
ĠM S
Ġrecover ed
Ġsp oke
ĠH end
ĠSec ret
Ġret ained
om ent
Ġclos ure
Ġm outh
Ġ{ };
ĠE X
Col umn
Ġd ating
Ġt ied
O ctober
Ġremain der
Ġgeomet ric
Ġpaint ers
ĠA rena
Ġb id
ĠColon el
not ag
Ġsu icide
Ġcl imb
ĠL anguage
Ġren ov
men u
S l
ĠM C
Ġre cept
Ġaff airs
writ ten
Ġautom atically
ĠB urn
More over
Ġsur faces
ub le
Ġil legal
Pro duction
ĠT ol
t or
Ġqu asi
Ġwrit es
& =\
ä ¸
Ġset up
Ġexhib it
ĠCom ics
h ai
Rober t
Ġdistingu ished
Ġst ochastic
Ġstr uck
le e
I ST
ĠD at
ĠW oman
Ġv eget
iter ranean
g ate
Ġim possible
sh ot
grad uate
Ġsurg ery
Ġproport ional
aval ry
Ġinst ances
ĠApp le
1 17
Ġdynam ical
d epend
ĠW rest
Af ric
Ġschem es
b ishop
? "
Ġg rass
ĠGra ham
Don ald
ĠMur ray
th rough
Ġposs ess
g ather
Ġrestrict ions
Ġsh aring
Ġreg ulations
188 7
Ġw avel
J ust
Ġfeed back
Ġre ward
È Ļ
ys ical
Prof ess
ĠE ss
g ame
Ġl i
s d
} ~
ĠS U
^{ *
m aking
Ġd x
ĠM A
Ġcontinu ing
Ġpr on
Ġs ight
12 3
ĠSy ria
sh ort
Se lect
Ġcoll apse
Ġstrong er
p red
ip er
Ġh ang
ley ball
ĠL ane
Ġdiv or
S eptember
Ġrepresent atives
Ġt el
ĠOper a
Ġre duces
en ix
Re ad
Ġnorth west
Ġtransport ation
ĠT rad
ĠF ull
Ġrecomm ended
Ġgreat ly
Ġf est
urs day
w ill
av i
ĠMic hel
Ġindic ating
Ġre ducing
ĠMet ro
V ER
ĠR ap
ĠMov ement
ook ing
Ġabs orb
st ery
ubl ished
ĠP ack
ĠMad rid
Ge orge
Ġc yl
c over
ĠD E
med skip
Ġc ust
ĠK on
ĠSim ilarly
Ġdesc end
Ġr is
ĠR ud
ĠUp per
R R
\% $
ĠCons ider
et ry
Ġround s
Jan uary
im ir
ĠEv ans
F O
Ġf itted
Ġh ill
Ġcom ed
Ġwith draw
in us
it ations
ĠT ag
Ġvary ing
claim ed
Ġreg iment
Ġcritic ized
D own
ĠD ub
um ed
Ġw ounded
Ġg arden
or er
AR T
st rap
Ġl ose
Ġexcell ent
orks hire
Ġorient ation
Ã¨ re
Ġfluct uations
Ġnegot i
ĠN eg
Ġr ivers
il ty
ĠDef ence
F S
in ated
ec ute
ĠP ut
Ġne uro
ĠSo ft
ĠTw itter
ĠNig eria
u its
L oad
Ġcon version
i ative
Ġstri p
Ġd ashed
IN T
Ġcorre ction
Ġsymbol s
11 1
Ġturn ing
ĠO d
Ġf ruit
an ian
Ġc ash
ĠM agn
Ġpaint ed
Ġart istic
Ġsym pt
Ġan om
188 6
he w
Ġro se
D ev
Ġre putation
Out put
ĠPolit ical
ĠA C
ĠPr incip
Ġc od
AB LE
ĠPri or
Ġn aval
Ġtop ics
ĠCar ib
ish ments
Ġte ach
ĠM aj
}\ |
ĠB eck
ob by
phant om
ĠAmaz on
re ement
Ġden ied
ĠT ak
ij ing
Ġpublic ly
Ġhabit at
Ġexp onential
Ġappoint ment
ĠW ol
Ġvis itors
Ġweek ly
ul um
v y
Ġel ig
com put
H om
* /
Ġh ur
ĠLim ited
Ġre vers
ĠO k
Ġdeliver y
anc ouver
equ ations
qu ir
Ġmeet ings
ĠR E
Ġad ults
az e
ĠS ite
u in
Ġreg ul
Ġdiscuss ions
ra ud
Ã© n
Ġdraw ing
Form at
ĠSystem s
ak s
Off set
St ep
d f
Ġkil omet
ĠR an
Ġfind ings
18 50
Ġm ile
Ġperiod ic
TY PE
Ġp itch
ĠS R
Ġc ir
Ġtechn ologies
aw s
X i
ear ing
ĠN ation
ĠJ ason
Ġelement ary
Ġbl og
Ġreal ized
ĠR ico
Ġstruct ural
ĠG ran
ug s
eop les
Ġindepend ently
Ð ²
D raw
Ġpl as
ĠMark et
Ġhor ror
ĠN ord
Ġpre gn
Ġrem ote
ĠC ass
ĠUp on
ĠNew ton
Ġeval uated
Ġ( {\
Ġconf ront
ĠC el
Ġprov incial
Ã ª
Ġcr imes
l u
T ag
Ġoper ational
Ġprec ise
ĠP ay
tt p
it ime
m atch
Ġw ait
Ġd uration
- (
Ġattribut ed
}{*}{ $
fig ures
Ġint ention
s quare
Ġpres erved
iv ation
ĠK it
P RO
Ġmet all
Se lected
f iction
Ġinvestig ated
param s
ĠL ov
un finished
Ġapp rec
^* (
m aker
Ġcounter part
Ġrul ing
ĠTro phy
Ġcelebr ated
Î ±
E st
Ġatmosp here
u cl
ĠC urrent
st ory
Ġ\ &
w ig
Ġens emble
Ġbelong ing
Ġord inary
ĠD M
Ġbu ffer
Ġus age
Ġvess els
ĠN umber
ĠBir mingham
ĠMor oc
ĠS P
Ġne arest
Ġm it
Ġunder t
18 61
Ġnewsp apers
nes day
Ġth read
ĠK u
ĠObl ast
b p
ĠBern ard
W A
k it
ĠN i
s v
Ġmodel ing
Ġpret ty
her ic
red it
ĠJim my
Ġcompet ing
Ġconn ecting
D en
Ġill ness
Ġvot ers
Ġack nowled
ick ing
Ġt ang
Ġdebut ed
f ast
Ġmer ger
ĠC le
ĠJ enn
Ġprec ision
U pdate
ĠT erm
Ġc ous
Ġbe ar
Ġeigen values
ri el
or o
Ġem pir
ĠB orn
ok a
re nd
Rec ord
Ġdec ide
ou pl
Ġinvol vement
Ã¶ r
m ake
' ).
Ġfac ing
Ġg iant
Ġn aturally
ĠStan ley
Ġso il
f are
Ġwhe el
ĠDemocr ats
Ġad vers
and al
Ġreve als
resp onse
Ġt ru
ĠNev ada
et on
i at
18 64
Ġrec ru
ĠL GBT
ĠA qu
ĠAthlet ic
orig inal
Cre ate
ili ary
Ġinflu ential
ĠAss istant
Ġsp end
Ġbeh alf
Ġdeg ener
Ġtri als
Ġqu ark
188 4
@ {
Ġv anish
Å ¾
Ġsuccess or
Ġcred ited
th a
H am
ynam ics
et ric
oot strap
Ġm ig
1 13
reduc ible
Ġre aches
ric ane
h s
ĠMunicip ality
ii i
1 14
Ġcr ash
ĠS S
Ġtrad ing
25 6
Ġt ie
ĠPort land
Ġsp an
Ġread s
Ġaccess ible
Ġstay ed
hat tan
Ġd ress
ina e
Pro ject
Ġphot ography
Ġsystem atic
J o
ann ot
Ġdep icted
ĠTr ue
188 1
ibr aries
Ġfrequ encies
Ġcommunic ations
Ġshe l
Ġnomin ation
ĠF uture
ail s
ĠF r
ĠB ud
Ġalgebra ic
Ġle af
ĠDel hi
ĠA the
ĠC rit
aint ies
p read
Ġ url
Ġreport ing
ĠWeb site
ef ined
ĠF isher
Ġcoast al
Ġdeb t
ĠL ad
c ross
Ġcollect ive
elf are
á º
De cember
Ġland ing
ĠG ary
S ON
at hered
ĠDe ep
T ra
Ġf aces
asc ript
ĠY orkshire
Ġpo em
ĠC ultural
Ġprof iles
ĠCons ervative
pt o
ĠNorm an
o es
Ġexp ensive
ĠM ess
ĠFI FA
ĠW ing
Sc ript
et ition
18 63
ant um
Ġd iversity
text normal
ult an
ĠB asketball
ĠR ain
Ġmain tenance
ĠA P
Ġrec re
^* \
ĠN ad
ĠInd ians
Ġforest s
Ġacc ret
ens on
Ġrun ner
Ġen forcement
ĠAthlet ics
Ġcho ices
ert ainties
Ġsup pose
L ater
Ġsub mar
ot on
Ġmed ieval
Ġhapp y
Ġamount s
Ġfocus es
w ave
Ġ$\ {\
Ġgen re
u ce
ĠV I
Ġst ored
' ),
at en
Ġelect rons
Ġqual ifying
let ed
al ph
ham mad
or ient
Ġsit uations
f act
ĠM ack
iam ond
Ġran ges
Europe an
h al
sh aped
10 2
N ames
ĠJ azz
Ġinj uries
her ical
pro duct
Ġent ang
end if
cor ollary
Ġcol leges
Ġtalk ing
ul u
Ġabs orption
Ġfinal s
ĠB illy
Ġc ub
Ġtrans action
Mich ael
iv an
Ġass ass
P al
25 5
ĠOn line
ro ot
ate ver
Ġmechan ical
Ġst im
cy cle
Nov ember
Ġm agazines
Ġtop ology
ĠSup pose
Ġman age
Ġhol es
Ġsurround ed
Ġstrugg le
ĠP ictures
ĠCl inton
Ġdaugh ters
Ġelimin ated
Ġrom antic
aly mp
D el
rang ian
cre en
M art
S ports
Ġsign ing
ĠT ournament
ides pread
Ġsouth west
ĠBroad way
Ġbusiness man
if le
ĠSt ev
Ġs outheast
ĠGlas gow
G E
Ġcor on
i est
ĠGu y
Ġdist ances
ter ior
Ġuniform ly
Ġsuffer ing
ol ia
um ar
Ġthous and
ĠCon stant
#### ####
b es
L ength
ĠB aker
Ġout come
! "
Ġdesc ript
ĠCarl os
h fill
Ġ ),
ues day
Ġstrateg ic
e o
Ġdisc ontin
Ġweek end
ĠSp irit
Ġb rig
ok ed
Ġexp osed
Ġ\ ,\
ĠT ob
ane ous
ĠMit chell
Ġstar red
m ate
ĠCat hedral
m und
Ġst abil
erv ing
C ON
op al
Ġsol ving
Ġcele b
Ġconf irm
Ġqu ot
Ġexpl ains
J ew
ĠS audi
am l
Ġacc um
Ġconsum ption
c p
18 62
O K
B U
om p
Ġwe ar
List ener
( -\
C ell
e a
Ġat omic
vious ly
ymmet ric
z ing
Ġsup ers
d ash
O W
Ġcorre ctions
Ġh al
Ġfeel ing
Ġdefin itions
ent er
ĠB omb
Ġb on
rec ord
ro v
ĠC NN
end a
Equ als
load s
Ġv ulner
oth y
Ġt unnel
g on
Ġb rick
ĠB enn
Ġguitar ist
Ġflow ers
ĠM other
Ġdecl ined
ars er
ĠĠĠĠĠĠĠĠĠĠĠĠĠĠĠĠ ĠĠĠĠ
ĠM ind
ge on
r aska
ĠCharl ie
Ġvis iting
Ġapparent ly
ann on
f ol
Ġmiss ed
viron ments
in stance
Ġspirit ual
Ġap plies
ling ton
M ount
st d
Ġmechanism s
ĠGi ants
Ġdisc ip
0 10
ĠBl ues
ĠTig ers
Ġf itting
al am
( &
ĠJ osh
duc ational
Ġpre v
Ġelect oral
Ġman ip
Ġuns uccess
ĠP A
188 2
ject ure
T ree
Ġconsider ation
ress ive
ĠS ax
Ġking dom
ĠConf eder
ater ial
an ion
ĠB ey
Ġconcept s
Ġchalleng ing
rel ation
w inning
ĠSt art
Ġconfig urations
) ).
if ting
ĠWay ne
Ġrequ ested
Ġdef ence
Ġeas ier
ĠY ugoslav
cent ral
ĠL ud
ĠI mp
os ph
Ġaim ed
V er
ĠSm all
ĠPref ecture
Ġcom plicated
ĠThe ater
B r
ĠEx pl
AN D
T own
Ġadvert ising
ens ively
D an
Ġdefe ating
! ]
Ġcl ients
og a
Ġconj ug
Ġproper ly
h ow
ov iÄĩ
! \
Ġcomp rehensive
Ġsm art
) (\
ĠV ic
Ġrestrict ion
ĠCh art
ĠJ e
H y
ĠA zerbai
Ġo x
Ġperson ality
t im
ĠG R
ok ing
Ġassess ment
od d
) ^\
Ġgrow s
M O
Ġj unction
Ġver ify
verse as
Ġviol in
ĠZ e
Ġthreat ened
Ġd ated
Ġthem es
ĠU E
Ġk ids
olic y
Ġbo ost
ĠA ld
ĠPol y
Ġf ishing
if iers
ĠH ero
ot an
re v
Ġp uls
E lect
enc er
ĠChall enge
Al so
est one
ĠAng l
av an
Ġsp here
. \\
ĠL iving
pl us
is p
S chool
Ġf ictional
Ġproced ures
Ġad min
{ (\
ĠL uther
sh ould
M T
Ġdes ire
Ġdest ruction
Ġpriv acy
ib ration
S che
ordin ate
ĠPrad esh
ray s
188 3
ĠK ath
ĠY ang
prot otype
Ġperturb ation
Ġcl ock
sc ar
Ġneigh b
ĠFre edom
Al umni
Ġtext s
ue z
et ary
Ġelectric ity
w orks
Ġp ian
3 60
h ill
au ra
Ġexper ts
ro ck
ĠCommission er
rist ol
Ġexplan ation
ĠI ce
Ġfam iliar
xy gen
Ġrele g
Ġg ay
ĠS ev
Ġh alo
Ġf oss
Ġcount ies
ĠElect ric
Ġderiv atives
ĠC R
ĠB achelor
Ġel der
ĠHig gs
Ġind ices
ĠAl aska
D espite
ĠM ak
ĠSoc cer
hib ition
Ġsub mitted
Sp anish
Re v
Ġorb ital
Ġconv icted
ĠT ower
T ypes
k ind
Ġcompar able
Ġmount ains
Ġsusp ended
circ le
em ale
rem ove
$. }
B er
ĠJohn ny
Ġrecon struct
umb ent
Ġnorm ally
Ġseem ed
ut ation
ĠM embers
res ource
Ġf iber
Ġcooper ation
Ġf asc
Ġnormal ized
writ ers
ĠR and
rins ic
Ġpre ferred
Ġenjoy ed
Ġdistingu ish
Ġunus ual
Ġfact s
P ass
hem atic
ĠCarib bean
ĠHawai i
m ates
Ġdifficult y
f ish
Ġout break
d ocument
~ (\
ĠBelg ian
Ġcoll ision
Ġactiv ists
ar ithm
Ġf urn
Or gan
ak ia
ĠĠĠĠĠĠĠĠĠĠĠĠĠĠĠĠ ĠĠĠĠĠ
) }.
Ġb ars
ĠBen jamin
Ġaim s
ï¿½ ï¿½
ĠM eg
ĠAd vis
A ir
3 50
S ign
ĠPro b
Ġmon ument
m el
iv ated
ud son
\| _
M oths
ĠF ourier
ĠGu inea
im its
ĠSal v
Acc ess
ĠH um
ĠO ct
ĠI T
ens ing
Ġas c
var rho
Ġd owntown
ĠT ext
ĠGr iff
Ġsens itivity
Ġiter ation
ĠD J
Ġdise ases
M ac
Ġpay ment
A lex
ĠC ON
comp onent
F ONT
Ġlong est
er as
Ġprot ests
ĠC her
id ad
Ġpeak ed
ob serv
ĠSerb ia
text up
iv ia
Ġperm ission
Pro cess
Ġf ilt
ist ing
Ġw idespread
Ġfilm ed
Ġvess el
Ġemer ged
ĠBar bara
ĠWar ren
ĠV ancouver
om on
ĠM ong
Ġn urs
Ġtal ent
**************** ****************
Ġcirc ular
st ers
Ġr ising
Ġ[ ]
ĠPier re
B en
per t
Ġch amber
et he
ab i
Ġweight ed
ra ham
ĠLic ense
ĠB ranch
ĠL ock
Ġexist ed
187 8
chang ed
ĠPro test
f r
Dem ographics
Ġpubl isher
Ġb ases
Ġliber al
Ġcomm une
ĠIn sp
ĠMil an
ĠH REF
ĠV el
M r
ĠC ricket
ĠĠĠĠĠĠĠĠĠĠĠĠĠĠĠĠ ĠĠĠĠĠĠĠĠĠĠĠĠĠĠĠĠĠĠĠ
lay out
Ġmon arch
ĠC A
. ),
ĠMar s
K E
Ġstraight forward
Ġwa iting
Le ague
o ons
re z
Ġ ,\
ĠArt icle
Ġrad ical
ĠW ang
Ġanal ys
Ġd ict
Ġsw it
pan ic
onom ous
Ġtown ship
ux iliary
_ .
Ġscen arios
Ġprint ed
10 4
Ġgrad ually
ĠMan hattan
l ined
A rm
L R
Ġo cean
aster y
st ore
G reen
n an
Ã Ł
ĠN ature
Ġlist en
Ġfund ed
ar an
Ġst yles
Ġqu as
ĠSt ars
R ow
Ġpass age
b ow
en berg
M er
a uth
em ed
ch annel
Ġdom ains
born e
Ġdou bt
Ġterrit ories
ister ed
Ġquad ratic
ĠF ine
b oy
18 75
Ġde viation
Ġlaw yers
Ġinterpret ed
Ġsp oken
Val id
ĠMuslim s
o ks
ĠCommunic ations
Ġterm inal
backs lash
ĠV egas
M I
Ġl aser
Ġpresent ation
Ġmar ks
ĠSte el
n m
st ad
em ploy
ut r
is ot
ĠS id
Ġconsequ ences
Ġaff ord
ĠRes p
Ġfrequ ent
nt il
ĠMicro soft
ĠFle et
V I
ĠBe ijing
ĠRich mond
ast rop
ang o
ĠT un
ĠProfess ional
D et
ĠI P
Ġdiff usion
Ġform ulation
Ġhom ogeneous
ĠSer ge
ĠEgypt ian
ĠO pt
Ġann ually
ĠCL ASS
Ġ{ }
Ġbelie ves
Ġmed als
stack rel
ik o
Ġmod ules
' _{
down arrow
Ġmunicip alities
b efore
Ġdecre ases
u art
ant i
Ġstr ings
h arm
Ġgen etic
ĠâĢ ¦
Ġcol span
Ġdanger ous
Ġacqu isition
Ġcontrovers y
M ode
er ion
ĠH ad
187 6
ĠSt ein
ĠGe V
Ġ _{\
Ġfor th
Ch ild
1 16
ĠU g
F ilter
Ġpre fer
ĠI an
ĠSt age
ĠF itz
W S
Ġint ellectual
Ġw orship
up t
Un it
au er
Ġpolar ization
uk a
ĠFl ore
Ġhard ware
erm ont
ĠG un
ĠPark er
ac re
Al bums
Ġpolynom ials
Ġarrang ement
ab ul
ĠTurn er
ĠP ant
| $
ĠMed iterranean
ro d
ey er
ac cess
ĠIran ian
c ussion
uch y
ĠFinn ish
Ġelect rical
Ġmathemat ical
let t
duc er
Ġagric ulture
Ġwill ing
hol m
ĠF alls
Ġab road
hold ers
ĠStud y
th an
Ġsent enced
ot ton
Ġslow ly
b one
ur u
Ġ< !--
ĠP il
el ian
ĠS O
ĠK os
Ġra w
en ia
Ġcoupl es
Ġhistor ians
ĠDer by
jav ascript
Lay out
ĠW here
ab a
Ġtempor al
| ^{
Ġmin isters
Ġgener ator
ĠAnd y
Ġc up
Le vel
Ġchampionship s
Ġcontrovers ial
ĠTh ose
Th omas
Ġf at
Ġmiss ions
ĠBeng al
Ġsh arp
Ġw ine
ĠJon athan
rom agnetic
Ġiniti ative
ĠHe b
Ġsuper ior
our t
St ation
Ġsl ope
Ġinstrument al
Ġ\ [
ounc ill
Ġcompat ible
ĠN icol
me an
ĠBar ry
ĠHun ter
Ġw onder
hold er
G old
Ġran ks
G P
ow ell
app y
D T
Ġattribut es
ĠI van
equ al
conn ected
Ġseg ments
C ap
ev a
Ġphot os
Ġattract ed
it ure
on na
ĠRang ers
ĠO range
Ġcons umer
ver age
inc inn
Ġunc ertainties
ĠN BC
oid s
Ġhe ter
ab out
clus ively
But ton
ĠSt orm
Ġt ur
ĠO R
Ġexc ited
Ġpick ed
S am
Ġent reprene
ĠWrest ling
inv ariant
Ġatt ribute
um i
Ġac oustic
Ġcom fort
ĠUnivers e
Ġphotograph s
ĠColl ins
over e
Ġencourag ed
b c
Ġcon sp
ĠT ib
cl ine
}} }$}
Ġrele ases
18 67
Ġful fill
AL L
ĠG reater
Add ress
Ġsupport ers
l ater
Ġcontinu um
G O
ĠS aints
10 3
Ġf ee
Ġtem plate
mar ks
eta il
Ġsup plies
B ecause
ĠPro p
Ġbr ings
Con st
Ġestablish ing
Ġneutr ino
Ġwood en
ĠF ile
h our
Ġp ole
ĠMu hammad
ac o
ĠM all
iz able
ĠG il
Ġre verse
Ġsound track
ol ving
Person nel
ĠP ath
Ġapplic able
Ġparliament ary
)-- (
Medal ists
uc lear
ett ings
ĠSt re
Ġhoriz on
ĠChrist ians
Ġcan cel
187 1
Cont roller
ĠPer u
Ġconv olution
et ta
F rame
Ġpred omin
qu er
ĠCub a
Ġg ift
h ave
as p
bin om
Ġcomm emor
Ġpo ets
ribut es
Ġaver aged
Ġmetric s
Ġsmall est
ĠPl ant
Ġcut s
Ġgu ilty
H en
Ġw ider
Ġcommit ment
E very
187 9
ĠU se
st yles
hip s
ĠTh ursday
Ġin ternet
ĠJ ama
ĠB ron
$ ^
Pl ace
n ol
F ebruary
ĠColomb ia
N or
ĠS r
re ference
ĠP ra
Ġadd ressed
M iss
incinn ati
W indow
return s
cycl op
ĠS oul
ĠW or
Ġdef ining
Ġphenomen on
Ġh at
ĠE ston
ĠStud io
ĠP i
cont ainer
ura ble
ĠPh D
Ġpass ion
u on
Ġsympt oms
Ġrow s
Ġen vironments
ĠVictor ian
`` `
struct ure
ĠR acing
is ons
Ġsold ier
ak u
ir k
Ġfavor ite
)} (\
Ġphil os
ĠSong s
ĠA PI
ĠJ ava
s em
t ar
ĠBl ood
left arrow
ĠZ one
ĠIs a
. ;
cast le
off set
Ġdev oted
Ġun iqu
18 68
Ġwh ilst
Ch ang
ke ley
Ġembedd ed
us k
ĠFran ces
Ġmem or
Ġrel ating
b uf
st e
ĠNov a
ff ee
f il
z es
Ġdoll ars
Ġto w
Ġc inema
ĠNeb raska
ĠIndust ry
ĠE ug
Ġb inding
E ast
Ġput ting
Def inition
Ġfall ing
ĠHind u
Ġprepar ation
Ġun like
sy mmet
M ass
ace ae
Ġth irty
Ġminor ity
Ġbatt les
ĠAlber ta
) [
Ġfl oat
Ġimpro vements
S ur
ĠAlex and
Ġann ot
ĠTe le
Ġportray ed
Ġsub section
Ġf ault
ĠK r
ĠFin ance
) ),
Ġ( '
Ġarg ue
anc he
Oper ation
rupt ed
class es
Ġb ath
ĠL P
B as
Ġe g
b ian
< ?
A v
Ġres emb
Ġelse where
Ġconv inc
187 7
Ġir reducible
Ġre act
\! \
S al
C I
l ights
at ivity
mult line
9 00
L ou
id o
Ġpart ly
Ġexpect ation
n ed
ĠS even
á ĥ
g io
Ġe mail
UR L
Th rough
l ate
Ġ }}
od ay
Ġn a
s n
18 00
Ġdepart ure
Ġind igenous
Ġs essions
Ġlic ensed
un ity
it is
Ent ry
ĠRoman ian
ĠM ans
Ġfram es
Ġlog ic
Un ivers
ĠT u
ĠAd miral
ĠProt ection
Ġh ip
ĠUr ban
Ġthe at
ĠEx p
ĠB aptist
Ġin tern
Ġh a
L and
Ġearth qu
Ġfin ance
ix on
up arrow
Ġunder ground
h n
Ġgrad uating
ĠWed nesday
ĠE lementary
ass y
Ġbe ach
inem at
Ġg rey
Ġbi ological
Ġexped ition
id ance
cel and
st op
ĠE mb
Ġnar rative
C ache
ys elf
Ġamong st
V P
Ġsurv iving
te enth
] ^
Ġalcoh ol
f our
ĠW arner
Ġread ers
ĠW a
Ġpres c
ĠCh ron
ĠT rack
Ġp ictures
Ġoccasion ally
Ġag es
u int
ic ing
ĠPar ish
Ġh orses
Ġval uable
187 4
Ġclos ing
ĠFin ancial
ĠTra il
ĠC BS
Ġprov en
Flor a
ex ists
ĠS z
Ġorgan isations
S pe
rap per
ĠS I
Ġmathemat ics
Ġor chestra
Ġs aved
Ġcorrespond ence
ver b
Ġcon gress
L i
enn ial
Ġout standing
Ġfew er
Ġdeal ing
Ġswim ming
ĠF am
ag ger
um ing
Ġsurv ive
ier ra
187 2
Ġorth ogonal
Ġm oral
Ġknow s
Ġmin i
ĠFac ulty
ĠPho enix
ĠCirc uit
Ġlik elihood
Ġhydro gen
Ġcir cles
ĠC rim
Ĥ ¬
ĠClass ic
Ġran ging
&= &\
Tax a
Ġsepar ately
Ġpo ems
Ġgl ob
des ign
text color
} /\
M F
Ġas king
Ġsound s
ĠTe ch
iz ers
Ġg olf
ant ine
ial og
Ġres idual
ĠMin or
Ġlif etime
ĠComm ons
Ġre un
Ġtrans itions
Ġposs ession
ĠH unt
Ġbir d
Ġfriend ly
q l
Ġmorph ism
Ġweap on
Ġwork er
ĠEx change
O pt
$- $
Ġbeg un
Ġcred its
le in
iem ann
l oss
Ġrece ives
Ġe cho
ĠL iga
ch ing
ancell or
Ġact ed
bold math
Ġfor g
B i
ch arge
gl obal
Re lease
Pro p
ĠHar rison
Ġe ighth
spec ific
ĠB orough
L o
e ch
y stem
Ġanaly tic
ĠAl gorithm
*} [
U P
Ġcre ates
Ð ´
Ġdeploy ed
ĠTreat y
ag ar
Ñ ı
ĠAl bum
Ġp ump
ug ment
ĠBl ock
c ategory
Ad dition
Ġpres erve
% ;
ĠCharl otte
Ġwas te
ĠC ou
Ġform ul
$\ ,
Ġdens ities
param eters
T ur
ĠSt ra
ĠVin cent
b ie
Ġsol ved
Ġd ip
k ar
s eries
th ree
ĠSh ang
t ask
chi at
ĠSpe ed
Ġtra il
T om
Ġelev en
Ġarchitect ural
ĠCh air
Ġreported ly
18 66
Ġem otional
Ġcount s
Ġremov al
Ġam ateur
Ġart illery
Ġarr ive
av irus
M D
ĠR oll
Ġd rew
ig o
oc y
c z
R ob
Ġcomp aring
: (
Ġen abled
Ġchar ter
Ġb orders
Ġpurs ue
ĠNich olas
i ors
Ġmem orial
ĠPar am
ĠT ax
Ġut ility
s or
Ġclaim ing
ĠMat hemat
Ġsyn chron
187 3
H D
10 6
Ġlocomot ives
Ġrequ ests
ick er
oph one
Ġg ard
Sh ort
Ġtrans verse
ur ring
t re
or ia
keep er
ER R
Ġsimilar ity
ĠPer formance
ĠF ro
Ġin duction
Ġrequ iring
Ġdisp ersion
b oth
F ore
Ġmix ture
Hon ours
CO L
Ġbas eline
Î ¿
Ġim posed
Ġapart ment
: "
Ġinfl ation
Ġscient ist
R oyal
Rec ip
ĠF erm
ĠS E
ĠAnt ar
Ġsup plement
Ġs ending
Ġend emic
est on
al id
Ġsquad ron
//////// ////////
r ise
ed a
ster dam
Ġdes ert
S N
ĠCr ime
ĠC urt
dist ance
B P
math tt
Ġvol t
ov ich
Ġresc ue
Ġmarg inal
Ġyoung est
Ġinvol ve
iv odes
int ers
il ia
Ġfun ctor
D iv
Ġinform ed
Ġviol ent
Ġrob ot
Ġmach ines
l at
Ġfarm ers
h aus
Ġextract ed
Ġlast ed
Ġt ort
Ġphys ician
ĠRet urn
Ġposter ior
ok er
ip art
Ġleg acy
OR T
Disc ography
ĠTr inity
ĠTerrit ory
Ge V
Ġcous in
ĠV lad
ph ase
ĠArab ic
od s
vert ed
ĠC P
own ed
Ev ents
Ġperform s
g ood
et o
C amp
ĠF err
Ġk it
ĠInd ex
18 40
a uc
Ġtal ks
opy right
Ġcoal ition
ĠT uesday
us p
C F
Z E
it i
K ing
ĠLe ad
Ġm anga
irt ual
ĠCh apter
Ġprov isions
Ġcancell ed
Ġven ue
=\ {
ĠB ristol
ĠCar lo
Ġst eep
amp a
ĠE li
ol in
sh ape
ĠUnivers al
Ġt orn
Ġinput s
ĠLiter ature
Ġthere by
$\ \
Ġrest oration
ĠC ry
Se ason
ĠS eg
Ġtri ple
Ġjurisd iction
g rav
Param eter
Ġc ul
augh ter
st ates
min ute
ĠSh a
ĠN HL
ĠCor ollary
Ġdon ated
Ġleg islative
Ġwhen ever
Ġg all
Ġm oth
Ġthe rapy
p rec
we ak
Ġanaly ze
P ack
ĠB ass
Ġnomin ations
m ay
Ġbeaut y
ig ate
Ġg ram
10 7
ĠB uild
ela ide
Ġat om
ĠR equ
Ġmar ry
Ġs ax
ĠG ot
Ġc able
our g
Ġcent ered
function s
Ġtransform ed
reg ion
ĠBar cel
ort ed
ater al
Ġprep are
Ġc ache
Ġwalk ing
as ant
Ġinter ference
ĠWh y
B H
Ġr id
ĠR AF
Ġass emb
Ġ$ ^{
ĠSym phony
b ane
med ia
Ġ\ |\
T arget
ĠKir k
Ġrep air
ĠMov ie
ch ain
Char les
Ġinter vals
Ġ ur
W eek
ĠMan ager
Ġlay out
Ġreson ance
ĠE ff
G r
Ġinc idents
Ġg allery
ĠM D
p ay
Ġimp ly
ĠCan al
Ġn an
f olk
Ġsim ulated
10 8
ent ity
u ity
Ġex clusively
esc ope
Ġdef ic
ĠBe h
v ect
Ġdifficult ies
mon th
ĠB ased
ivodes hip
Ġplas ma
m ill
up le
Wh ite
ĠMun ich
Ġpre lim
Ġart ificial
Ġpred ecess
Ġf antasy
Ġref lected
ĠOl iver
Academ ic
sup er
Ġnot ing
end ers
ĠD ays
D ay
Ġkind s
Ġt on
FF FF
ĠK ur
Ġjourn als
Ġwor se
ĠC old
ab e
18 69
Ġdem ands
Ġp sy
ĠIm age
........ ........
}. }
Ġf ir
min a
Ġwe aring
ĠJ oy
Ġres id
Ġsurv iv
ic he
Ġstat ue
Ġcas ual
Ġl oyal
Ġst em
ĠNever theless
im p
ut ely
ĠEnvironment al
Ġhon our
ĠSerb ian
Ã ¦
u ke
ĠB und
Ġex port
ĠPrim ary
Mod ule
ul ator
Ġtru ly
sc reen
ĠR ank
Ġex it
R ange
m arg
Ġassign ment
all ow
Ġto ken
re ck
Ġm or
Sup er
Cont rol
Ġin fer
Ġcontribut ing
B undle
Ġs we
M or
ro le
comm unic
ĠShe l
S ched
Ġinst ruction
Ġdiagram s
Ġas ks
iff s
ĠCl are
Ġcab inet
Ġimpro ving
M a
ĠG rey
l ayer
\ -
ĠY am
Ser ver
Ġo xygen
Ġindust ries
ĠB rew
ot ten
C apt
Ġtravel ed
Ġatt ending
++ )
ĠAr ray
ĠKen ya
mathbb m
ĠBuff alo
m akers
ĠM ason
Ġsh ore
ip le
Def unct
S earch
Ġopp onents
ops is
ĠOper ations
Ġt act
ĠCost a
Ġm ock
Ġsc r
Ġaware ness
Ġrandom ly
Ġ{ $\
Ġsil ent
Ġtrib e
Ġt elling
N T
Ġfocus ing
ik ip
Ġmanag ing
writ ing
An y
ĠChristian ity
ĠHol land
ist ani
ĠV as
Ġdoub les
ĠSpr ings
L in
Ġexpand ing
oth ic
ĠU V
Afric an
set t
$ '
hel m
Ġl ingu
on ies
pro pto
ĠEn cyclop
}{ {\
ĠCh and
ĠMar vel
ĠVo ivodeship
Ġb ott
ĠP ic
com ment
m f
ĠK ap
ã Ģ
Ġsequ el
Ġre ven
ĠL ions
Ġr u
Ġrespond ed
S em
Ġdecre asing
Ġto ler
Ġex clusive
Ġcom ics
Ġlov ed
ĠMean while
ur ities
ativ istic
b n
l ag
place ment
Ġne ur
Ġep och
ĠRel ations
O ld
ĠGh ana
ĠL en
En c
Ġsub space
Ġcondition al
ĠI da
Ġrece iver
ĠW es
H A
Ġafter wards
Ġequ ally
Ġev ident
ĠLag rangian
ĠU lt
ĠA S
Ġanim ation
ĠPro cess
Ġcatal og
ĠVenezuel a
Ġelev ation
s end
ph al
Ġrat ios
Ġl en
_{ +
Ġcould n
k n
ĠWith out
uc c
Ġb aby
. $$
iz z
ĠF ab
ĠP el
ĠJ ess
Ġfrag ment
Ġlabel ed
ath on
Jew ish
ĠS eb
dom ain
Ġb are
am o
18 48
Ġfl ed
ĠS now
Ġb io
Ġun cle
Ġf its
Ġcustom er
ĠComput er
S en
Ġcorrel ations
ĠUE FA
Ġb old
ĠAnd re
Ġsub div
ĠM ix
ĠRes ults
Ġdest ination
D ocument
D om
r us
ĠCh ange
ent e
ĠBarcel ona
Ġs itting
Ġcoll aps
Config uration
equ ate
Ġfe as
is an
ĠD raft
Ġimm igrants
Ġst ake
Dist ribution
A thlet
G overnment
Ġoccas ions
ĠS ad
ĠĠĠĠĠĠĠĠĠĠĠĠĠĠĠĠ ĠĠ
ce il
ĠR ing
ĠRet urns
Ġconven ient
og an
ĠW as
Ġsett lements
Ġlab our
ĠIndust rial
Ġguarant ee
mod ules
Ġreve al
ĠFl ight
sp eed
L oc
Ġbatter y
Ġsus pect
Ġdist urb
Ĩ Ĵ
ĠLl oyd
o j
ich i
Ġelig ible
Ġco aching
Ġten ure
ĠMont ana
au kee
at che
Ġr ide
ol utions
Ġdis ag
it ual
Ġsimplic ity
Ġemploy ee
it ol
os hi
I B
\ },
ha ust
ĠR ou
b est
ĠG ate
ograp hers
Ġw et
g om
$ }}
Prov ider
g un
Ġlie utenant
b order
ĠChe l
h um
int o
W idth
ĠP ast
Ġinterview s
O h
he et
st age
Ġpet ition
th ick
ĠGerm ans
Ġconstitution al
trans form
ĠSt even
Ġext ensively
Ġsum m
Ġreg ulation
ĠS ah
foot notes
âĢ ĺ
Rich ard
ĠRe ad
K S
Ġhon ors
Ã¡ s
ĠWith in
\ }.
u ates
Ġfest ivals
g rid
P eter
ĠB ath
ĠC ob
ĠH amb
ush ing
Ġmonitor ing
Ġcarri er
Ġspeak er
\ [\
ĠArab ia
Ġb ridges
Ġin g
ikip edia
p ine
Ġd il
Ġpar ks
Ġsubstit ute
ĠJer ry
Ġreg ression
ine e
Ġempir ical
St and
Ġfair ly
el ines
ho le
Ġregard less
ĠCra ig
uc es
Ġj ury
i ya
r if
ĠEconom ics
Ġs in
ĠHer z
ly ph
ĠG round
w ords
ict ions
S il
ol en
B ook
Ap J
ta wa
ĠK un
Ġdisestabl ished
m usic
ĠT on
Ġpl ain
aj a
akes pe
ev al
ĠL ate
ĠArt ist
ĠH udson
Ġhel ic
Ġleg s
ĠEth iop
Ġrel iable
ĠLu is
ĠBer keley
Ġre ly
Ġtrib es
d ual
ell ion
Ġview ers
ĠTechn ical
ash a
Ġaut hent
Ġtransform ations
Ġexpl oration
() ->
ber ry
Ġsh orter
Ġnob le
ch arg
Ġs oph
Ġenh anced
to ken
ĠJeff erson
em pl
ĠF u
Ur l
ĠSocial ist
: </
Ġsurpr ising
m ag
l ia
typ es
ĠM aced
ĠM ig
Ġl ap
, ...,
ĠT ogether
ĠB urg
Ġrecogn ize
akespe are
ur st
ĠH ann
ĠO pp
ĠTre as
se p
ort ex
185 9
e ach
ot ions
Ġturb ul
Ġmer chant
Th ree
D at
Ġchar ity
ip her
Ġw arning
Ġis omorphic
ĠR u
ĠG arc
Ġcho osing
Ġ ..
Recip ients
Ġshift ed
Ġplay offs
Mus ical
Ġbo ats
Ġtax es
ag ers
sup port
Ġf ighter
as hes
ol ves
Ġinn ings
Ġstation ary
ĠF if
ĠCl ay
ĠM ann
Ġinf antry
ĠJ a
Ġcross ed
Ġant icip
ic ious
ĠB og
Ġdevelop ments
Ġcomp lement
) }$.
ĠLear ning
Ġcontract s
ĠN iger
Ġaccord ance
sub equations
ĠEd itor
Big g
Com mon
Ġtri angle
V M
ĠL ost
Ġpl ots
Ġdem olished
Ġg ross
Ġdem ocracy
Pres ident
footnotes ize
ĠTh or
Ġb its
Ġd t
ĠH MS
osp el
Ġun ity
Ġent ities
Ġcomp iled
Ġper cussion
Ġautom atic
r h
On ly
Ġt ies
requ ire
Ġaccom p
ĠCo al
ig s
Ġviol ation
f am
Sp ace
Ġmuseum s
Ġprem iere
à ¥
Ġparticip ating
Ġstead y
ir th
Ġdisput e
Ġg r
ĠH ilbert
Ġd war
& &\
w indow
ĠAn alysis
Ġem issions
f eld
ĠB ert
ĠSt ill
ĠT ask
Ġvis its
Ġprom oting
ar ity
tr ivial
d ensity
qu arter
prob lem
E Q
Ġf raud
ĠD ate
ĠChe ck
Ġenc oding
ĠAm sterdam
ins ky
Ġiniti ated
ĠS ay
Ġb il
Ġinflu ences
Ġphot ons
ĠB uch
Ġpeak s
ucl ide
Pro position
ĠM ust
est y
Ġconvers ation
ĠAthe ns
M edia
ĠInt elligence
Ġev olved
w aukee
Ġcomplet ing
oid al
ig m
Ġw ings
ĠUn like
ĠY u
ĠGon z
ĠRepresent ative
ĠâĢ ¢
ĠS earch
ĠP ract
get s
m ir
d ouble
f ocus
Ġext ending
) _{\
Ġcarri es
Ð ¼
ĠCons erv
Ġrare ly
Ġch rom
Ġport rait
ĠC ad
b uffer
Rad io
ĠC atherine
Ġproject ed
is ch
C ond
Ġvari ants
ĠEd wards
Ġaccret ion
H ung
pl an
it ro
ĠB ird
k t
ĠTer ry
Ġrecip ient
ĠThe ory
Ġwrest ling
Ġcond em
Ġneg lig
Ġleg it
ĠLe ader
Ġtraject ory
Ġintro ducing
Ġal ive
10 9
Ġp adding
ap ing
Ġpix el
Ġpost s
Ġabund ance
="../../../../ ../
Ġdu o
math it
per iod
lik ely
Ġmount ed
Ġmart ial
Ġqual ify
B ased
* \
ĠAzerbai jan
Ġst uff
tern oon
Ġcivil ian
F ound
s ome
h alf
Ġcontain er
e or
ĠDe ut
ĠDel aware
B T
he rence
ĠAd elaide
ĠC S
Ġ ).
Ġcosm ological
) }$,
ĠM asters
Ġar ise
N one
Ġw ick
18 30
Ġan ime
Ġproport ion
Ġdis cret
ĠPr ivate
Ġfail s
Ġcampaign s
ĠI celand
Ġpat rol
pro file
Ġinst ant
Ġcl othing
Profess ional
ple ments
ĠCont emporary
ĠH ope
Ġbroadcast ing
ew ay
Scott ish
uck land
Ġnegoti ations
od ore
Ġmer ely
13 5
ĠD est
b etween
ig ion
att r
ĠV ersion
ĠA I
Ġpseud o
ĠHer bert
ĠNep al
ĠQu est
ĠD og
B re
e lected
Ġ\ {\
Ġ ~\
ĠPhilipp ine
Ġcons cious
arri ors
)= (
ĠL is
ĠNAS A
ed ed
Ġdef ending
ĠL an
Ġperm itted
pro to
Ġp m
Ġcall back
Ä Ł
B D
we ek
g ray
st ud
Ġgu idance
Ġc ounsel
) >
Ġm yself
ol ition
ĠC incinnati
R ound
Ġ! ==
ĠLe ft
L aw
ST ATE
periment al
ĠRob in
t otal
Ġinteg ers
iss a
nol imits
ail ability
Ġgrand father
Ġt ens
Ġref lection
Ġunit ary
Ġmut ual
Ġp eoples
Ġl ib
Ġbreak s
ĠMach ine
tem plate
ĠCon struction
ĠPalest inian
f ortunately
ĠS ide
M ad
ĠA w
sp in
ĠSing les
ett i
Ġcontroll er
185 7
ris bane
l b
ĠY ank
T or
im ated
F P
ri en
F in
Ġprote ins
Ġreal istic
Ġengine ers
Ġencou rage
Ġtrans mit
ĠH D
small skip
}) ^{
ĠMer c
ĠDen ver
ĠSy rian
com plex
ĠAl ger
Ġdep ression
Ġcool ing
Ġn eck
Ġout comes
cond ition
Ġcou p
B razil
M ont
Ġpro position
Ġgener ators
big cup
ĠRog ers
Ġdiscrim ination
Ġhas h
Ġhosp itals
s ession
Ġtrans it
ar ial
ĠH em
ĠS ultan
ĠS ep
ĠCh ap
Ġmanufact urer
ĠP le
Ch inese
Ġcont ested
iv ic
ĠA viation
Ġtrad itions
ĠL arry
uclide an
oc ent
th lete
ĠIn v
ĠO il
Ġm ail
Ġaffili ated
T ab
ut ter
ach i
Ġch ains
H ol
P os
Ch ange
ĠS ex
P e
Ġprior ity
Ġinsp iration
Ġup grad
Ġcomment ed
resp ect
Ġdismiss ed
er os
Ġess ay
Ġdo ors
Ġu int
Ġc av
Ġrestaur ants
ens en
D ue
ia o
re ts
Ġbl ind
ĠW alt
ĠHeb rew
ĠArmen ian
Ġsl ave
Ġscholar ship
k w
ij i
lect ic
ann i
Ġb anned
ĠAnn ual
ĠPar alymp
init ial
ĠOver all
jo in
Ġs alt
ĠG L
Ġvar ies
Ġde vi
Ġcap s
Ġorgan ised
Ġra ising
fol io
ip per
ĠKe ith
ĠĠ čĊ
Ġreg istration
sect s
Inter face
Ġwh atever
Ġobt aining
] );
sing le
S ir
Ġm os
en os
ull ivan
olog ically
Ġang les
ject ion
p in
Pro perties
Ġpar ad
Ġinter pol
Ġev il
ost ic
Ġdist inction
b ool
ĠE mm
P rior
v et
C ref
Ġeconom ics
ĠForm ula
Ġto x
ch ildren
P osition
Ġcol ony
Ġconcert s
} >
ĠMur phy
Ġhand ling
Ġtr uck
ist ically
ĠAb u
ĉĉĉĉ ĉĉĉ
Ġc argo
Ġadm its
Ġwatch ing
Ġinvest ors
ĠW atch
Ġp lease
Ġs av
ĠStan ford
ĠCroat ia
Ġpe er
ĠT ree
Ġtarget ed
s per
Ġgovern ing
Ġsubsid iary
ĠL ion
Ġr hythm
Ġw edding
for ced
Ġvacc ine
ress es
Ġdispl ays
Ġrep orter
ĠCh i
ĠAng lo
ĠT ab
ĠGra ce
ĠPhys ics
h aw
Sw ed
ĠPer ry
Ġa ugment
art ifact
Ġexpl ored
Ġres olved
ion ed
ath y
Ġrespons es
ĠFri ends
? âĢĿ
Ġ\ }
\ }_{
ĠCamp aign
ĠPeters burg
St r
Is rael
ĠFil ip
P rim
mod al
Ġprof it
as man
Ġcons iders
C ritical
Ġmill ions
Ġmole cules
ĠS yn
ĠH T
ĠR at
S ym
ĠH ugh
Ġtrack ing
ĠM idd
ag i
Ġre actions
w al
Ġ- --
Ġob st
Ġde emed
> ,
T our
val ued
o ft
ark ed
ingu ished
apt ers
Ġspl itting
c est
ĠP ul
E conom
Ġev ac
ĠM ari
Ġlimit ations
ĠM oz
ĠPers ian
G ame
ĠMad ison
ĠG rade
ĠD ra
ard ed
em in
ub a
ĠBy z
Ġsup plied
idel ines
] =
ent i
te am
Film ography
Ġbi ography
cor respond
m other
Ġemer ging
pl ant
Ġorig ins
Ġestim ator
appro xim
S ettings
Ġt ables
ad ic
Ġspons ored
ra red
ĠL ink
ff bb
Ġdelay ed
ĠLeban on
M ale
Further more
ĠAl ong
Ġw ww
Ġwind s
G allery
p us
uck er
ir s
op ed
as ia
Ġcy cles
en burg
const ruct
w he
Ġcamp s
Ġeigen value
Ġdial ogue
Ġer ected
ĠB right
Ġsec ured
Ġd y
ĠScient ific
ĠBuddh ist
leg iate
Ġmurder ed
l ass
Ġarg s
Ġcolle agues
Ġm o
Ġman ifest
ĠM end
ic ons
Ġtrad ed
ĠArt illery
am er
At l
Ġcomb ining
Ġim perial
Ġkey s
ĠN y
Ġmaint aining
U se
ĠY ale
ĠAnt i
Ġsp herical
ĠG ay
ĠBroad casting
Ã± a
ymmet ry
iv id
12 7
ĠMag ic
ĠStud ents
Ġp ushed
ra pped
ĠO cc
ĠD ocument
ring ton
ĠL O
Ġupd ates
Ġg host
Ġopp onent
ĠN an
ĠHis panic
ĠPen insula
Ġ( ).
n one
Ġed itions
ĠSh akespeare
ĠBer g
ou ds
re ction
Ġinstall ation
ĠR idge
al is
k an
ĠN O
Ġc ogn
ĠW u
ĠGuard ian
Ġlabor atory
Football ers
k ern
d ing
Ġarrang ements
Ġan ten
Ġaggreg ate
Re al
AT A
AC K
1 18
Ġcomp ound
ĠPr uss
}^ +
ĠP rice
Ġmeas uring
$ &
Ġimm igration
requ ency
Ġinf ection
ut o
Ġorb its
rad ius
ie v
ov ed
fl at
Ġris ks
ĠRes ources
ĠAbb ey
Â ½
Ġrow span
Ġkin etic
b its
T I
vel t
Util s
Ġt ends
185 4
Ġdiscrim in
Ġchem istry
ĠHor se
Ġpip eline
Ġgener ations
J ose
ĠDr ive
Ġrel ay
Ġcor ruption
He ader
Ġal gebras
ĠH ob
Ġpull ed
Ġcorrect ly
H M
Ġres ervoir
ic us
ĠFor um
ĠArgent ine
ĠP R
Ġm ines
ar am
Ġop ens
Ġmanufact urers
ĠT ake
ĠL ux
B oth
ĠV ermont
ĠK ay
ĠB G
Ġ* *
Ġneut ron
ac a
Ġadv is
ĠDi ocese
Ġprov ider
V ar
Ġtw in
Ġearn ing
Ġsuggest ing
ĠAN D
_{ [
ĠT ang
ĠLu ke
Ġem igrants
Ġcitiz en
Conn ection
Ġcap abilities
sp ring
B F
d ebug
}) =\
Ġdec ides
sk a
d ict
2 20
ro b
ĠS ox
ĠDrag on
ĠMunicip al
Ġpriv ile
az i
Ġge odes
Rec all
ro at
Ġinaug ural
re b
ĠNor folk
ĠSh aw
4 50
F ont
Ġm m
ces ter
ĠG as
Ġin ference
ap pe
ĠAngl ican
Ġfor cing
Ġdeterm ination
Ġt um
qu et
Ġch a
Over view
ĠOrig inal
inc eton
Ġneighbor ing
Ġfl ights
C ur
ĠCh apel
Ã ī
Ġsurv ival
ĠAl tern
W al
Ġinnov ation
âĢ ¢
Ġeng agement
ĠAm endment
ĠRepublican s
s un
Ġb om
L ike
g b
ĠH av
18 55
us c
ĠA ber
Ġg ran
is cal
Ġconver ges
i racy
ĠMark ov
Ġo verseas
Ġhealth y
sh a
ric ks
K n
ro oms
Ġprob e
im er
Ġim plicit
185 8
Ġclos est
}^{ +
M el
Ġpro secut
ĠT oy
12 1
ĠHig her
Ġsh adow
ĠP ont
at ra
B o
par se
are a
Ġpers u
Ġremov ing
ĠT R
d ays
Ġlog arithm
Ġsurpr ise
ĠM ort
Ġmoder ate
W F
ĠC row
Ab out
ĠB ond
ĠK rist
Cont ainer
;\ ;
Ġattempt ing
ĠS outheast
Christ ian
Ent ity
Ġc um
ĠE instein
Ġprelim inary
former ly
ena issance
ĠS Ã£o
Ġm igration
Ġdepart ments
gom ery
Ġph rase
com b
ĠCru z
Ġpl astic
Ġdisapp oint
b u
Ġbrand s
H ash
ĠS alt
ĠArch ives
Ġsh opping
u ador
Ġcontrad iction
F ree
c lear
ĠJ oint
Ġt ab
ĠQu arter
alax y
ric ulum
EE E
ĠHe avy
Ġdis aster
Ġvent ure
Ġt ribut
Ġcommand ed
N D
M o
Ġx ml
ĠE C
ache l
_{ -\
leq slant
d al
F rank
Ġsens or
ĠEqu ation
C oll
ĠCre ate
D ou
om i
Ġt ons
rag ue
Ã¶ n
Ġm ic
r ators
Ġemphas is
Ġrec urs
ov sky
Ġcons ent
Ġinter cept
Ġexam ine
def n
L ive
C am
Ġkeyboard s
is i
Ġdoct ors
ĠHug hes
Ġcon e
ex pl
Ġnav igation
B ooks
ĠSt uart
ĠPun j
Ġinter vention
Ã© l
ck nowledg
Ġprov inces
Ġtreat y
Ġpul se
m oment
ĠBut ler
Ġs ear
ĠM ol
ĠDemocr at
Ġsculpt ure
Ġtot ally
ĠR ivers
ra h
Ġmain stream
ai ro
Ġgeneral ization
Ġch apel
Ġmin istry
ĠStud ent
Ġvalid ation
Ġmon ot
b d
Ġmechan ics
Ġspecial ized
Ġm as
qu al
Com put
W R
Ġrefuge es
Big r
R ivers
K O
Ġcon greg
^+ $
}[ !
an aly
ĠC u
C ore
Ġexhib ited
ĠWork ers
Ġoverl ap
Ġprofession als
Ġvolt age
Ġex haust
cl osure
Ġform ations
Ġs ectors
Ġent hus
Ġfe els
Ġreb uilt
m ut
ĠBulg aria
ĠSus an
Ġn inth
Ġpat ron
ĠB ald
W rite
Ġorder ing
Ġeng age
J ac
He ad
ĠHen ri
r ust
act eria
qu is
CO DE
Ġinf o
Ġim aging
Sum mary
Ġs isters
ĠI C
Ġd eter
h ot
Ġsynt hes
ĠDef inition
Ġmir ror
count ry
Ġinter fer
ĠSh adow
Ġrel ocated
Ġare n
now ledge
ĠLeg end
W ar
ĠD ennis
Ġdeterm ines
Ġaltern ate
Ġre nder
H ost
Ġhealth care
Ġinternational ly
Ġserious ly
ac co
Ġplan ets
L ondon
B ro
ĠP in
15 00
Ġdeterm ining
Big l
Ġellip tic
ĠArch bishop
Ġpure ly
it ely
! !
ĠA uckland
ĠHar old
Ġs ick
ĠInd ependence
ĠGl en
Ġaddress es
ĠSp ect
Ġpre st
Ġent ers
Ġext ensions
{ .
Ġb at
G raph
re leased
rand om
Ġinher ited
m ic
ĠP av
, .
Ġall iance
ut ton
C ity
se par
ĠH ond
ĠHel en
Ġexhib its
om es
185 6
Ġdram atic
w ang
Ġrefer ring
Ġpropag ation
iz a
F ix
ĠSud an
ĠProf ile
Ġcrick eter
b olic
Ġsk i
Ġadvent ure
Ġcompens ation
ĠC C
Ġret ain
================ ================
v or
Ġphot ographer
ĠPhill ips
ĠD od
inter face
Ġtourn aments
Ġ rib
ĠS or
Ġg athered
H R
w t
ĠG ust
ĠP od
ĠWat son
el ia
h ash
Ġspect rosc
Ġalign ment
em a
Ġmay be
Ġhom ot
c ache
Ġaff ine
j or
Ġt anks
Ġtr unc
Ġhol iday
ĠIn s
Ġbirth day
Ġpat ent
S aint
in ternal
ĠCom merce
ĠCons ervation
ĠS ask
cite alt
sh arp
ĠB risbane
ON E
Ġassist ed
ĠC ant
ĠM ake
Ġtrans c
Ġl engths
Ġen ables
Ġup coming
W here
33 33
Ġstreng then
ĠAcc ount
L y
Ġt ip
185 2
ĠNe il
a very
ĠMc L
over ed
Ġcompos itions
Ġmake up
ĠA round
ĠAct or
em ies
ĠN at
Ġmag ic
ĠÃ ł
Ġph on
Ġvar ied
Ġfir ms
id i
ĠC F
Ġwealth y
D L
Ġcons olid
Ġrev ised
Ġce ased
ĠR ange
y ou
Ġpl otted
ĠDiv is
ĠB our
ĠSc he
ĠTib et
ĠO scar
' $.
Ġr itual
ĠSh ar
de ep
al og
ĠD ol
7 50
Ġfun eral
ĠPolit ics
Ġdefend ers
ul o
}} ,\
t n
sw ick
M em
ĠPro duction
Ġto mb
Ġdeep ly
Ġb atch
Ġdis abled
ĠG ang
ov en
R est
f ilm
umb le
Ġcut ting
ĠLat ino
ĠÃ ģ
ĠS uz
Ġart ifact
Ġorigin ated
Ġt ribute
le ading
E ven
Ġreview ed
ov an
ĠBe aut
ĠAr nold
Ġpal ace
j k
um ann
ĠN ear
z one
Ġob j
ĠMah ar
N P
Ġsustain able
om o
Ġadd s
ĠCong o
w ait
Ġ icon
Ġthr one
r ors
ĠHar vey
new line
Bus iness
An n
Ġspeak ers
z b
ĠR alph
f ix
ĠN OT
oc ate
ĠErn est
ry s
Ġ Ø
Ã¼ n
Ph ys
ĠP S
let ion
Ġel abor
ĠOt tawa
Ġrepeated ly
uch i
w art
Ġf usion
Ġres olve
Ġt ension
Ġexc av
Ġco herent
Ġsynt hetic
ĠLabor atory
ars on
Ġeffect iveness
ĠM ick
Ġpro xim
Ġappro ached
ĠEq s
ord inary
ĠS ak
Em pty
Ġr ated
ript or
ul ative
Ġclust ering
24 0
Ġbelong ed
ĠMoroc co
Ġdraft ed
N G
te chn
ĠEag les
c ounter
L T
Ġrecogn ised
Ġmat hematic
ĠC ore
Ġg ymn
F our
ans k
Ġcoll isions
Ġaccomp any
Ġde als
ose velt
à ¦
Ġint ense
ĠRo om
& -
Ġf abric
ĠĠĠĠ ĠĠĊ
Ġcompet itors
ĠAb raham
Ġ* )
ĠArchitect ure
Ġplay off
old er
Ġcons ensus
Ġgu ests
f iles
Ġth ir
ĠBel arus
ic z
Ġanaly tical
V A
="../../../../ ../../
anc k
ST R
Ġremark able
Ġprob abilities
Ġcert ified
Ġp or
Ġdrum mer
Ġdiplom atic
det erm
Ġdiss ip
Ġm arch
ĠJ en
ĠM ut
t ically
On ce
il o
Ġr um
ĠL eeds
Ġsc iences
ang les
ĠHe in
ĠBob by
script scriptstyle
in ement
ĠAll ied
t urn
Ch arts
c aster
Ġst ops
Ġden omin
â ĪĴ
ap est
lim it
part icle
Ġcon sole
ib n
| _
Ġphys ically
ĠA x
ĠS A
Ġs overe
Ġbelief s
ĠM uch
17 0
Ġch iral
Im pl
nt ax
st own
Ġannounce ment
equ ival
He ight
ĠEX P
h all
18 49
Ġend ors
Ġint rinsic
ĠR iemann
Ġplay wright
Ġconsist ently
eth yl
Ġjud gment
Ġveter an
H F
Ġferm ion
Ġprov es
nt z
ĠForm er
/ .
Ġcomb ine
. ).
Ġun stable
Ġwavel ength
ĠFlore nce
Ġanalog ous
ose x
2 30
t ed
Ġorgan ic
Ġfast est
ĠB av
text sf
C AR
Ġ ĉ
Ġover come
ĠD elta
tri angle
Death s
P G
Dec l
d z
Ġe le
an alysis
ĠInt eg
Ï Ħ
Ġatt ractions
' =
Ġcrit erion
k u
V AL
Ġfeel ings
() :
ĠM ik
Ġac res
ob i
ĠWall ace
Ġass ists
Ġsong writer
Ġres erved
Ġp ale
not in
Ġproject ive
pro perties
f rag
ĠF oot
artifact Id
Ġg rants
ind s
Ġanaly zed
Ġw ard
ĠArt ists
os ity
add le
ĠPro ductions
ĠSoft ware
U V
ĠPalest ine
M ex
ĠS oph
ĠPhil osophy
z ig
Ġdis joint
" ))
( _
ab olic
om pass
Ġat tach
ĠF unction
Ġt ub
Ġact ively
ĠArch ive
Ġret ro
Ġweak ly
ĠWars aw
ist ance
sub stack
Ġspac etime
Ġmonth ly
Ġa qu
ĠK ol
ject ive
Ġstand ings
Ġbe ating
be ing
ĠC ox
t b
F ull
g ov
R ock
d ashed
o il
in ery
Ġwithd rew
=" -
ind ependent
G rand
. -
pan el
W C
ĠPro perty
bel ow
Ġrun ners
ĠLeon ard
Ġb arrier
iv ities
\| ^
Ġneighbour hood
agon ist
isc opal
Ġ> =
ĠHit ler
ĠAg reement
Ġaf ternoon
Ġsett lers
Ġhe ating
Ġcross es
at ri
Ġl os
Ġprom ise
ĠCh an
quir y
Ġentang lement
ĠÅ ł
Ġpos it
h agen
ĠT ed
ĠL ot
N L
Ġtour ism
Ġp atch
Re ference
ĠCon sequently
Ġa uxiliary
Ġneighb ors
Ġcontinu ity
ll i
Ġm emb
S ocial
ĠB eth
Ġle agues
Th read
G ood
Ġmanufact ured
ĠAgric ulture
D oc
el ing
Ġover ride
ĠS ierra
ur se
ĠG ilbert
G G
h ad
; ->
Ġbig ger
oot s
IC E
urs or
en v
Ġtravel ing
Ġconduct or
Ġident ifying
Ġpl acing
ĠProtest ant
ed u
Ġdis band
Ġbe et
Ġillust rate
Ġto ured
Ġsubset s
Ġcon formal
ĠPo isson
AC E
Char acter
S n
s outh
Des ign
ĠAl t
ach t
ĠFerm i
v ideo
Ġdr ink
ent o
ĠAn cient
Ġf ro
l ook
eg u
Ġland ed
Ġbut ton
l m
ind a
c ott
Ġthreat s
Ġprodu ctions
ĠAcc ess
D ir
ub ert
Ġsole ly
ĠMan uel
Ġharm onic
Ġme at
Ġprot otype
ĠSe an
= -\
ĠW ells
Ġagre es
Sp ecial
h istor
AG E
Ġto uring
Ġhonor ary
amp ed
Ġcry stal
ĠD ictionary
Ġconsum ers
Ġtick et
Ġind irect
ĠE SP
}} =\
18 47
ĠS F
Ġcal endar
Ġt ill
Ġiter ations
min ster
ĠTh under
\, ,
á ¹
} <
ran o
ep hew
Sm ith
out heastern
Ġt one
Ġre plic
Ġcomput ers
on ing
ĠH at
im it
Ġsp ots
Ġcont ents
ra f
Ġc emetery
Ġfl av
185 1
Ġrec alled
Wh y
D utch
Ġthr iller
Ġ: :
Ġassoci ations
Ġb orough
isc he
ĠJ ar
ĠS elf
Ġvari eties
T otal
am ination
Ġb ay
Ġqu iet
ĠNash ville
up loads
ĠY et
Ġcopy right
Ġpropos als
C y
m ade
ĠG T
ĠK i
Ġw elfare
Ġn inet
Ġpark ing
B bb
T itle
st ration
ĠEd die
rict ion
OR D
anc el
uss els
ĠSaf ety
? :
I rish
Ġfor wards
Ġexam ination
Ġbut ter
Ġg ray
und a
Ġro ster
ĠShang hai
' ',
ĠTransport ation
12 4
185 3
H as
] ]
ĠVen ice
Ġthe sis
Ġch ron
ĠRay mond
ab ove
d or
Ġtradition ally
W in
Ġearthqu ake
ogg le
Ġpro g
Ġentreprene ur
Ġreal ize
Int eger
im s
Ġsub urb
ĠFried rich
ĠF ighter
S everal
mid t
ĠN ak
Ġor ange
iz on
\, {\
g rim
Ġb ary
L ie
re q
Ġover w
Ġâ Ĥ¬
ĠR ah
ĠR eed
ill es
ĠFran Ã§
ĠL ess
ĠPr iv
ĠFilm s
ert on
ĠGreg ory
Ġb ull
all ing
pos ing
Ġc os
Ġman ual
AC T
ĠApp ro
ĠN athan
Ġth orough
uls ion
ĠM Ã©
inn ed
d n
Col lection
Ġhun ting
ĠW ag
ous ing
P rom
m ount
ï ¼
Ġcon clusions
Ġper ceived
Ġpar agraph
ĠP aper
ĠS ic
Ġsl aves
S i
ĠS oon
ĠCard inals
Ġb ishops
ĠBab y
Ġconn ects
Ġpower ed
Ġfif teen
ĠP ent
Ġcomb inations
ĠConfeder ate
ro us
ĠA GN
ĠB iden
Î ¹
h ome
F rance
ĠK ash
Ġlim iting
ĠRo osevelt
Ġsynd rome
Ġsp arse
b les
Ġvan ishes
ĠVal ue
ĠBrun swick
ĠMar x
Ġsum mit
Ġun ions
ĠLe o
Ġr ings
ĠM ills
ĠR av
Ġthere after
}{ }
Sing les
st ock
Ġdel iber
pol y
Ġa maz
Comm unes
web kit
az ar
Ob serv
' )$
Ġvol leyball
Ġexhib itions
ĠColumb us
Comp anies
] ^{
er i
Ġsk ill
ĠAr c
| _{\
Ġdirect ory
Ġover view
ĠInd ies
ir ts
Ġconcent rated
Ġamplit udes
ĠP ick
ĠCy cl
ĠSi eg
Ġm amm
ĠRev ival
) |\
ab we
Ġco ins
Ġtherm od
ĠV ent
ĠSt ef
Ġreflect s
Ġlaws uit
ff ield
Ġv isc
Ġcontinu ously
stand ard
Ġshe et
Ġprom ising
Ġqu art
St ack
re ens
ĠBl oom
ĠAir lines
Right arrow
Ġn um
Ġc oc
v dots
Ġbre ast
ak ov
ĠL ett
osoph ical
Ġun likely
Ġinst ructions
ĠMont gomery
Ġunsuccess ful
Sh ow
it ars
M ary
Ġcent res
he ro
is y
ĠK in
Ġl iv
Ġcov ariance
g us
ĠTh ai
amb ers
f und
op ing
Ġto urs
ut ils
ĠG host
Ġinc red
Ġsusp ension
Î ½
ov ina
Ġinst ability
Ġtro uble
he res
Ġpix els
Ġl ibraries
Ġan chor
Ä Ļ
Ñ Į
ov ing
Ġlegisl ature
group Id
math ds
ĠGro ve
ĠG az
g art
Ġcont rary
} ~\
ĠMil waukee
Ġh orn
om ar
ĠPed ro
un ning
L ove
Ġenc ompass
ah an
Ex ample
' $,
: -
ĠW onder
et e
Ġl ad
ĠSch olar
ĠM orning
P tr
Ġ å
^* _
Ġexclud ed
ĠS ang
Ġfl ash
ĠInn ov
Ġoccur ring
ĠRh ode
ic i
Ġd iet
ew ise
Ġphenomen a
| =
ĠSt ories
Ġsup ern
Ġcelebr ate
end um
27 0
ĠC itiz
ĠD iamond
IT Y
lig a
ĠKaz akh
Men u
s ample
Ġing red
Ù Ħ
ĠE ld
S ession
eg al
Ġabs ent
Ġen act
ĠL aura
") );
ĠR aw
ail ing
Ġtempor arily
Ġel dest
orn e
Ġcomp ounds
Ġexplos ion
g iven
ĠNew castle
COL OR
B etween
Play ers
Ġv ir
Ġfail ing
Ġkid n
~ (
as et
Ġarg ues
ing en
ex cept
Ġall ies
Ġvulner able
ĠO wn
Ġequ als
ieg e
Ġbon us
Ġreform s
Ġign ored
ĠA er
Par ams
am pton
Ġpro ud
int s
Ġprogress ive
ah l
Ã© r
ĠMe chan
ĠB ened
onom ic
M atch
Austral ia
ĠNot able
imb abwe
ĠRon ald
. âĢĻ
Ġt issue
ĠWell ington
ĠCom b
% %
Ġcl an
Ġn ice
ĠEncyclop edia
ĠQ CD
Ġdesign ation
ur ated
ĠPal mer
ĠT ong
ĠP DF
ĠPh oto
V ector
spec ies
Ġf ur
ĠR af
n umer
Ñ ĭ
ĠĠĠĠĠĠĠĠĠĠĠĠĠĠĠĠ ĠĠĠĠĠĠĠĠĠ
Ġsurvey s
ĠV ict
Ġperm it
b ind
ĠH aving
i ability
ond o
}} )$
Ġins ight
per ature
Ġsem if
w ent
Ġcomp rom
Ġpay ing
i ast
Ġcult ures
ĠR enaissance
AP I
Ġam pl
Ġl ying
ĠC ec
ĠD rama
Ġsh ots
Ġcompris es
ĠL A
Ġpsych ology
am ic
Pro b
3 000
AT O
Ġ$\ |
Ġactiv ation
ar r
ok u
Ġres ort
H ttp
Ġgu ess
b org
Ġtra ct
h is
L uc
de velop
Ġpsych ological
Ġr ub
ĠCl in
dev ice
J im
Ġarr iving
S oviet
Ġconf ident
Param eters
) |^
ĠS ony
abl ing
ĠTra vel
Ġrat ings
Ġfarm ing
Te am
Ġb es
ĠLi u
Ġacceler ation
)} _{\
ri er
K K
ard ing
av ier
em e
Ġem peror
ari ate
ic ia
Ġexpect ations
Ġb oss
ĠH im
Ġdem ocratic
ĠT asman
W il
ĠB ach
ĠGu ild
am y
am ation
Ġt ube
Ġro cks
it ud
Ġb orrow
ĠDou ble
arm s
ID S
g ie
M ean
Ġout door
> .
Ġinc umbent
Ġadvoc ate
Ġtrend s
r floor
om ed
Ġcon jecture
deg ree
Ġhop es
ph abet
l floor
Ġinnov ative
Cent ral
ĠK id
s uccess
ĠB ak
ĠHar bor
P y
Ġparam et
Ġlo ops
ie ve
unc redited
Ġdocument ed
ĠM ul
ĠP att
Ġimp ressive
Ġrepe at
Ġa viation
Ġa thlete
ĠLiber ty
nold s
Ġhous ed
ĠBenn ett
ĠR osen
ĠG overn
18 46
ĠS ource
Ġult ra
D er
Ġep id
Ġen velop
Ġint ens
Ġr iding
ur as
ĠNap ole
ĠG olf
Ġl ens
Ġdevelop ers
Ġin cl
Ġg ro
ĠV eter
ĠK il
it us
up per
ĠD h
um m
Ġre organ
Ġfr ust
Ġoutput s
ĠK ra
Ġvolunte ers
b ootstrap
F ictional
Ġnon zero
ĠQ ual
ĠArm ed
ct x
12 2
Ġbank rupt
ĠCam eron
ĠTun is
t ml
Ġabsol utely
Ġrad ar
Ġpit cher
key s
sp ort
Ġburn ed
Ġceleb ration
ut er
ord ination
Ġmod ification
Ġunder graduate
itte es
w yn
L ittle
Ġmet ropolitan
Ġhistor ically
M B
al in
ĠPaul o
ref ix
display math
Ġwould n
ĠB ear
ine ar
As ync
17 5
Ġcomp anion
ĠI F
atche wan
Ġwrit ings
ĠJust in
="../../ ../
Ġse eds
iv o
Ġcop per
Ġdr inking
h ou
it ious
ĠS oci
Ġnormal ization
Ġsoci eties
Ġtim ber
Ġconflict s
ubb ed
Ġmotiv ated
m itt
ĠR uth
Ġinv oke
hand ed
ott ingham
Ġtrav elled
Ġquot ient
ĠR ams
Ġeg gs
m un
R oute
am ep
ut a
C V
ĠP rest
ĠT H
Ġprogram mes
Ġtraject ories
Ġper pet
Ġperturb ations
ĠBulg arian
str ument
Ġbox es
ĠLe vel
ĠJ in
f ive
ĠIsa ac
vol ume
Ġm ild
ĠR us
ĠE sc
Ġgu y
he ld
ĠF ish
ĠIraq i
f ers
Ġs ang
Ġgener ates
ĠSpec ifically
em ark
Ġ" \
Ġun expected
ac ional
ug ins
Ġgraph ic
Ġalleg ations
w oman
Ġconj unction
ĠKn ights
Ġdec ays
Ġhead er
b uilt
or rect
c ov
ĠT alk
Ġt ram
new s
ĠF oster
Ġphys ic
Ġproceed ings
styles heet
Ġshel ter
id ity
ĠEx per
ard i
Ġswit ched
en eg
ĠF un
miss ions
Col lege
Ġfight ers
E A
Ġsust ained
ĠĠĠĠĠĠĠĠĠĠĠĠĠĠĠĠ ĠĠĠĠĠĠĠĠ
ĠW ald
Ġpay ments
Ġgard ens
ĠIda ho
Ġo ct
ĠRe ading
Ġcosm ic
Sim ilarly
âĢĻ ,
f urt
Ġco ffee
Ġattend ance
T reat
$ _{\
Ġsh ops
oy age
ish a
Ġbatt alion
Ġâ ĨĴ
Sing le
ie u
pr us
et ter
ĠD R
Ġh ist
j ud
Ġcan n
ĠGab riel
ĠFri end
Ġnovel ist
Ġstream ing
view s
ig g
ĠScot ia
Ġin hib
ĠAdv anced
Ġresign ation
J ud
ĠG y
ĠCo ach
M icro
ĠOut standing
l ab
Ass ume
sy m
ĠFour th
ĠM obile
ment ioned
B ill
el o
prim ary
names e
song writer
Ġv ital
row th
Ġcub ic
ĠEs sex
Ġsh ield
ro e
Ġdecor ated
umb ai
raz y
Ġc attle
av ior
ĠV oice
ĠBaron et
Ġtr ump
ĠClark e
Ġf ert
Ġfor b
ick en
omin ated
Ġgovern ed
L iter
ĠE uclidean
ĠAss ume
Ġob sc
Ġstream s
Ġ$ $\
ĠS ul
ĠRe form
ĠDi rac
ĠJo an
Ġrect angle
man ifold
Hen ry
Ġcom merc
ĠCroat ian
Ġs ends
J ack
ĠEc uador
Ġded uce
Ġor che
qu ality
Ġfilm ing
pos itions
ĠB ag
T erm
le arning
bound ed
found er
Ġsh apes
Ġfe es
Ġdef ended
b oys
h in
Ġmon astery
ĠCh a
ĠAss ert
Ġperson ally
ĠK ill
Ġbl ues
Ġfacilit ate
ber ger
ĠCom plex
' }\
om eter
ĠT O
ĠG ene
Ġres erves
ĠSp encer
Ġdistinct ive
ach ment
ok o
Ġtransl ate
Ġcheck ed
A cknowledg
ĠZh ang
B ody
Ġprov iders
ĠCab inet
ĠG P
r ity
ĠChe ster
ĠSt ore
L M
Ġen emies
Ġbus es
Ġfil ename
Ġstri king
ĠRevolution ary
ĠCh o
ob o
av ia
Ġe at
lin ary
i ago
ĠC inema
ĠB ent
Ġs ugar
by ter
Ġcoupl ings
ĠF ly
S yn
Ġan isot
Ġacqu ire
Ġpref ix
Ġb ag
ĠÂ §
Ġg rain
Ġsh ifts
Ġsubmar ine
B egin
Ġj u
ĠO w
c ano
igh bor
Ġim plications
ĠKer ala
b uilding
rate gy
ÅĤ aw
b ooks
ĠWeek ly
ĠĠĠĠĠĠĠĠĠĠĠĠĠĠĠĠ ĠĠĠĠĠĠ
Ġdisestabl ishments
ĠTod d
Ġb achelor
Com parison
th al
Ġann ounc
ers hire
l ies
rit ic
Ġlog o
b ird
ĠH IV
Ġtrans actions
ĠNorth west
ot hes
ĠEm ploy
Ġfoot age
ĠV II
ĠF ul
Ġaff ects
dr iven
Ġ }$
Bl ue
Ġt rick
c am
Ġexam ined
Ġconst rained
Ġar ises
ia z
Ġobvious ly
H ouses
R ugby
Ġen rolled
i ph
at z
ĠY ellow
er ver
ĠB it
hy per
p ire
ĠU ser
appe ared
aut o
Ġsynt hesis
Ġprom ised
sim ple
Ġinv alid
Ar gent
ĠHamb urg
} &\
ĠVir t
rec ated
Ġanalys es
import ant
ĠV illa
l ive
A ud
Ġconstant ly
isc her
hab ilit
Ġt et
ĠD O
Ġpop ulated
TT P
umber land
Ġpredecess or
Ġaccommod ate
om atic
f actor
w alk
ĠSp ider
cc c
Ġj ew
Ġprim itive
T w
P ool
Ġrest ore
Ġind uces
Ġinvestig ations
Ġaccount ing
ĠM az
ĠOt to
alt ies
Ġa uction
par a
ĠO g
. }\
n ell
por ter
Ġj ail
Ġencounter ed
ĠL ex
Ġconsider ably
Ġde formation
ur bs
ĠF low
Ġanth rop
ĠLuc as
eck er
Ġb one
Ġcl im
n etwork
RO M
T ER
ĠD ame
) &
ĠWil helm
g al
ĠP rague
h im
T oday
ĠPro duct
F alse
or um
Ġsuff ices
un ed
e u
Ġgen es
ĠBos nia
h ang
t ry
N um
Writ ers
ĠPl anning
14 4
ĠW orth
G D
Ġa ster
ĠM O
ut ical
l r
}_{ {\
Ġab ilities
M ur
ĠAmb assador
Ġconvinc ed
h over
Ġsub sc
oc ene
ch itz
Ġg ates
Ġaud iences
Ġpredomin antly
ĠMal ay
ĠA aron
ĠW inn
ĠMer it
ic as
Ġfoss il
ĠS ey
et ics
ĠSeb ast
Ġm esh
Ġn ephew
Ġrelax ation
W estern
Ġex terior
Ġknow ing
ĠTom my
Ġanom al
ou x
Ġb ullet
b ecause
ĠBro s
Ġaff air
Ġhierarch y
V C
s ized
M ill
ĠS part
land o
ĠProb lem
ĠPlay ers
ĠRh odes
Gl obal
marg in
Ġun employ
i ology
Ġparam s
H a
or ate
Ġor n
Ġb onds
ac les
Con f
Ġren ormal
Ġconduct ing
M ag
l iter
ential s
Ġb le
ĠMethod ist
Ġcorrel ated
ĠB egin
18 45
Ġhand led
p iece
ĠE le
Ġcare fully
ĠA j
Ġconsist ency
iz ard
char acter
d ess
ST M
ĠL ac
Ġdepart ed
Ġjud icial
st ed
Ġext inction
or ious
ĠEngine ers
Te chn
Ġg al
D IR
Ġmem oir
Ġdro ve
Ġcount ing
me as
os lov
ĠD anny
Ġarr ives
art icle
Ġvo ices
ĠUg anda
ract ed
Ġsegment ation
uc he
ĠT rav
Ġimm ig
Ġconf usion
ĠI O
U psilon
U D
}) _{
ĠVal ent
ĠOak land
N AME
ĠLeg isl
Ġh unt
Ġattract ive
ar v
ĠJ ak
Ġtour ist
ĠF at
ĠO m
ĠL amb
Ġesc aped
in st
Ġs hed
im o
t racks
Ġm i
Ġpotential s
Ġline arly
Ġsampl ed
doc s
N etwork
M ah
St ore
Sched ule
war z
Jose ph
Call back
In v
Ġhighlight ed
ĠP eng
Ġunc lear
Ġw ars
ĠK ate
b ank
ĠÃ Ĺ
p air
Ġinf inity
ĠAh med
Q ual
Ġmultipl ication
Ġcert ificate
C at
M W
12 6
ĠF lying
ĠMus ical
$ &$
overs et
Ġeth n
Ġpione er
ĠS of
~~~~ ~~~~
Ġdebut s
Ġgold en
Ġpro l
Ġpat ri
Transport ation
ĠB rid
Ġqu oted
Ġquarter back
ĠL oc
Ġcan al
Ġbench mark
chang es
M ot
ethe less
}^{ (\
Ġjoint ly
a qu
Ġpubl ish
Ġal ien
C ho
Ġconstitu encies
Ġplan es
a ude
at um
Ġ$ [\
set s
Ġcry pt
ĠByz antine
Public ations
Ġorient ed
Ġsh r
ars ity
Ġs weet
Ġbre ath
18 37
Ġfilt ers
oc ols
intend o
Ġ$ <
Ġab oard
ĠO ber
enti eth
ĠH az
Ġpo ison
Ġcompos ite
C r
ĠFran co
u ania
ats u
Ġth rown
Ġpreced ing
c od
ath a
T er
Ġd ogs
ĠPer th
Ġspec ify
unt ary
Ġmidfield er
Ġsusp ected
Ġscatter ed
Ġpl ates
ap a
ĠDomin ican
Ġlat ent
ĠP rison
Ġed itors
Nav Bar
Ġauthor ized
bor o
Ġdecre ased
ĠPan ama
Ġbas in
t z
}) )
n al
S eries
Ġrecommend ations
Ġ" [
ull ah
ĠSc ar
Ġsubstant ially
Ġdist ant
Id ent
ol ics
aur us
ĠT rain
Ġtele phone
Ġbank ing
ap plication
ĠVlad imir
in cre
Ġp ub
Ġsail ed
Ġsudden ly
Ġachie ving
Ġc ave
co in
od ic
Ġveloc ities
ĠM ario
ĠPar ks
Ġobject ives
ĠA ires
Ð¾Ð ²
ĠHop kins
j et
it ic
Ġinter change
Ġcollabor ated
ĠG amb
Ch ina
Un incorporated
Ġtr im
U k
ĠR oth
ĠE ight
part y
ort heastern
= (\
equ als
ĠIn st
c ule
Ġ& $
ĠD y
ĠEag le
sim ilar
Ġco hom
B al
ĠG or
Ġst range
own er
Ġtermin us
Ġformul as
t ensor
omorphism s
Ġmat ched
leg raph
Ġchalleng ed
ĠA B
Ġhelp ful
ĠN ancy
ĠSing le
Ġto ll
V E
Ġf ract
Ġin comp
ll a
ĠAct ress
ĠCo hen
r ically
lev ard
ĠYugoslav ia
ĠLeg ion
conn ection
Ġpri ests
b ib
Å Ļ
sp ective
ext ension
Ġdec k
pr ises
ĠC T
Ġl ights
Ġsl ot
ess a
Ġmer ch
arma ce
ĠLeg al
Ġlearn s
Ġsh ipping
ĠGrand e
d an
ar u
Ġdeg rad
un iform
Ġmy stery
ips chitz
st ation
ator ies
cos ystem
Ï ģ
2 10
at em
ook ie
enc ia
Ġvirt ually
bro ok
ĠY es
ĠFa ith
ĠBl u
Ġaccept ance
. (\
Ġc ow
emph is
orient ed
ĠEXP ECT
Ġp ill
ĠJac ques
uan ian
Ġre nown
ĠS L
Ġalleged ly
Ġe ase
ĠT i
Ġext raction
Ġg ent
ĠSw an
amep lay
Ġdr ift
rac le
ĠPr inceton
Ġcivil ians
^{ [
ĠC ert
ĠStat istics
ĠB oe
Am ong
Ġf inger
Ġc iting
ĠCirc le
Ġall ocation
zh ou
ĠJama ica
ĠSim ilar
1 19
m art
IG N
ĠEx ample
oc hem
unc an
D O
hand le
ĠC raw
Ġcart oon
Ã Ĺ
ĠB ears
ĠHT ML
Ġinduct ed
f ramework
Ġm ilk
ĠC ork
ĠS ett
ra is
Lou is
ster ious
Ġl akes
ĠS old
ern ess
ĠFellow ship
Ġbomb ing
ĠD aw
Ġprint ing
vert ex
Ġnot iced
cond uct
ĠHar per
ĠJ ung
und erset
In f
cl ick
E ff
Ġhyper bolic
const ant
Ġfle w
oun s
Ġdocument ation
cl oud
Ġj av
Ġboard s
n ob
Ġres iding
M ember
Ġathlet ics
B s
ĠD id
Ġob server
d p
tr im
C ities
R ay
Ġart work
oca ust
ĠK as
Ġdef initely
sup p
Ġansw ers
K L
sh ore
Ġhand ed
c ost
eg ovina
Ġby te
ul ous
ĠCar r
ĠS olar
Ġelev ated
ĠChar ter
ĠA ug
Ġequ ity
c ity
ĠR T
Ġh az
Ġachie vements
dep th
Ġcard inal
Ġenc oded
b racket
F ar
ond e
Ġund efined
en o
ra its
Ch annel
im od
ĠStock holm
Ġcompl iance
ĠIndones ian
c ustom
Ġrul er
ĠM ade
Ġaccur ately
ĠDist inguished
Ġhe m
h orn
ĠF olk
Ġtest im
ĠMig uel
Ġpian ist
Ġch ronic
P arent
ĠDes ert
ĠAgain st
ĠRe ich
Ġmiss ile
ĠMan it
Ġthick ness
18 44
Ġun incorporated
Ġs ad
I E
ĠSh in
18 12
ĠI v
h uman
ĠE lection
Ġshe ar
p end
ms g
Ġst ick
ve ill
Ġh ub
ĠSask atchewan
an ch
ĠSus sex
ĠC oul
ĠN GC
ĠBro oks
ĠInstit ution
Ġco at
Ġcl ouds
A uthor
18 20
I ter
ari us
Ġel ite
Ġ} {\
Ġliter ally
Ġsurviv ors
I con
bl og
and ro
he v
man uel
Ġhead ing
Ġachie vement
l as
h art
ad ier
4 000
Sche ma
ĠD ig
ĠF BI
Ġinc orrect
Ġthough ts
Ã ½
Ġb read
ĠDivis iÃ³n
Ġav ailability
ow der
am ine
Ġexcept ional
Ġoverw hel
Ġcap ability
ĠS H
\ }}
ĠW i
' }$
l ift
ph ib
pro duction
s ay
Ġvic inity
ul ates
ĠWrit ing
row ing
Pre vious
Ġann ex
Ġadopt ion
gener ated
Ġg raphics
ec a
Ġadmin istered
f red
Ġal le
le igh
Ġagre ements
ĠS W
Ġrem ix
C N
Ġfin itely
m ix
open hagen
rib le
ĠMal ta
G erm
Ġh ills
Ġbel t
Ġattack ing
Ġpract ition
) !
armace utical
Ġsp ell
S eg
Ġf iring
Ġmod ify
ĠEx cell
ibl ical
it an
ĠE ve
ĠV ern
. },
Ġw ake
n ov
Ġ\, ,
ĠOrig inally
ĠA ges
ĠW ey
ĠN R
ribut ions
Hand le
c b
Ñģ ÑĤ
ind uced
UL T
ĠT all
ik es
Ġsqu ares
Ġfl ags
ĠCap itol
Ġcomment ary
Ġdevelop er
Ġfollow ers
intend ent
Ġdescend ants
f ight
Ã ¯
ĠL ak
Ġatt itude
ari um
Ġcler gy
Ġdig it
ĠL if
ri ke
Ġcl ip
F ac
Ġident ities
ĠF iction
Ġal ert
18 41
Ġinh ab
Ġimpact s
Tax onomy
Ø ±
Ġelimin ate
ĠDav ies
Init ial
Ġamb assador
G reat
ĠHol mes
G al
arri ers
ĠEx ception
ĠL akes
im mer
ĠM atch
on so
ĠPlan et
Ġde lete
ĠCl oud
h ig
Ġterror ist
Ġt ape
ĠR aid
w ind
sequ ence
ĠO wen
Ġopt ional
Ġapprop ri
ĠSom erset
ĠAng els
ot er
ĠS ou
ĠJ ur
ĠFran z
ĠCub an
Ġiniti atives
ĠCy prus
Ġsub str
f ixed
Col umb
Ġtravel s
ĠB R
ategor ies
ĠL isa
ll er
Ġspecial ist
ĠW ord
)} =
18 39
ĠS ig
Ġc ad
il ian
let ter
14 5
ĠGard ens
harm onic
HT ML
Ġres umed
Ġnumer ically
the ory
Ġout per
ill on
Ġdev ast
Ġgra ve
ĠM umbai
Ġir regular
Ġby tes
ĠS ter
ĠMax well
Å Ľ
v irtual
Ġfor get
the y
P ac
}\ ;
Ġdeep er
Ġmaint ains
Ġh ide
Swed ish
Ġconf used
el ly
Ġtor ped
Ġconv ey
18 43
G rad
iss ues
Ġdeploy ment
ad r
f g
Ġens ures
ÑĢ Ð°
bre aking
ĠM ull
Ġqual ification
she ll
Ġas ide
Ġfif ty
o que
w i
play er
ĠL or
ath i
ira ble
ĠSecond ary
Ġcam eras
Ġreleg ated
Ġinequ alities
Ġlist ings
per turb
Ġs iege
Ġscreen ing
ĠLore ntz
ĠComp etition
ĠWood s
âĢĻ .
ĠRey nolds
Ġpro sec
power ed
Ġintegral s
d ig
am med
Ġt ale
X T
ĠPet e
iff e
Ġwebs ites
Ġfor ty
ĠWild life
im en
ĠB od
Ġdis placement
ĠN g
}) -
conn ect
veill ance
ĠBr ussels
Ġv e
ish i
Ġst roke
t ures
EN D
ĠK rish
Ġg ains
in as
Ġarchae ological
Ġrel ies
Ġbi ology
Post ed
Ġar ising
}. \
Ġg ear
er k
ĠShe ffield
Ġfeas ible
h ops
ĠBG COLOR
ĠT otal
C ategory
ys ics
Ġp ose
c opy
Ġtack le
Ġt enth
ĠTh ings
Ġfall en
ĠBu enos
G s
Ġcav ity
ĠV ar
sub float
Res earch
ĠGram my
I reland
Ġwe aken
ĠB ore
Ġall ocated
( *
U RE
ol ine
ust ain
Ġdiss olved
T ool
ĠO st
Ġr ice
ĠP on
dis abled
hes es
play ing
F re
K e
Ġless ons
Ġy ard
12 9
ĠAnd rÃ©
iz ontal
Ġ ^{\
F OR
at ics
ĠK re
uck et
Ġasympt ot
Ġsever ely
Ġc avalry
Ġguarant eed
Ġret reat
ĠCl imate
stan bul
Ġreconstruct ed
Ġpsy chiat
me asure
Ap plication
ĠMe V
h yp
Ġd ot
Ġacknowled ged
W indows
l ived
Ġrec ruit
Fe ature
ĠZ imbabwe
ĠIndian apolis
Ġph osph
ĠPear l
Ġaccompl ished
Ġpil ots
om ical
c ia
P olicy
inem atic
Ġcol ours
ĠAdvis ory
l g
ĠG and
est rian
Ġcomm enced
Ġgener ality
ra ve
}= (
Pl ayer
Ġregul atory
ĠG ent
dist ribution
Ġrem n
de lete
Ġfriend ship
Ġmidfield ers
AS E
Ġphil anth
Ġintro duces
er en
Ġpro ton
OC K
ĠMon th
k k
Ġm eta
Ġcoron avirus
, ~
ash ire
Writ er
emb ourg
ber y
ed o
Ġnick name
che m
ĠP os
Ġke eps
Ġaccess ed
Ġf ake
ĠDur ham
ĠH ale
Ġdiv ide
Ġgrad uation
Ġstud ios
Ġsem antic
}} }{
Ġefficient ly
Ġacadem y
Ġread ily
18 38
Ġex empt
ell ers
ĠHerz egovina
P ower
ĠH ave
ĠP icture
Ġport ions
F B
) )$.
S W
sp ot
fl ix
flu ence
Ġbroad er
Ind ia
ĠObserv atory
ĠSalv ador
ang ered
Ġhomot opy
Ġgu itars
ĠEr ror
ER S
Ġim per
yl um
\| _{\
Ġlist ening
ĠJul ian
Ġw orn
AT H
n orth
Ġch apters
Ġvers e
Ġair line
Ġarchitect s
ĠL oss
foot er
ĠE uler
B ad
Polit icians
I X
Ġcollect ing
Ġmod ifications
Ġmodel ed
ĠI gn
ĠAbd ul
er ie
Ġdis cre
5 000
Ġpod cast
Ġdef ender
Ġsport ing
ĠRod rig
ĠK or
ĠBre ak
p her
ĠCom edy
Ġde ce
ĠC ele
Ġcor ps
H or
ĠC hern
ĠAm y
olt z
Ġf isher
Ġsem ic
Ġsk etch
im eter
G reek
h m
ov anni
Ġche ss
ĠRem ark
; <
on ial
13 2
ij k
ĠPunj ab
re place
ĠPar ad
Ġg re
ec ca
ĠGl ass
Ġeditor ial
Dem ocratic
ĠNob el
R a
Ġhigh lights
ĠVol unte
ĠP ain
ĠD j
Ġderiv ation
Ġl ung
Ġab bre
Ġhon est
Ġem pire
18 35
add ress
S QL
ĠS ullivan
Ġcompris ing
tri ang
ĠF ed
ĠHer ald
sen al
ĠC SS
Ġburn ing
ĠESP N
Ġprevent ed
Ġcor poration
he ng
g overnment
Ġf iscal
Ġign ore
ĠS V
Ġsupp ressed
ĠEx ped
Ġsh aped
ĠAp oll
US A
ĠMarc us
erv ised
ar in
Exp ression
Ġexecut ives
{ [
co ordinate
ĠL ip
New s
Spec ies
Ġp orts
ĠMan ila
Ġatt raction
Rep ublican
Ġkilomet ers
ul ing
Ġprepar ing
Ġt ier
Ġathlet ic
Ġfl our
ar ians
Ġcur rency
18 36
Ġcomp ression
ist le
Ġwal ks
à ´
ĉ čĊ
Ġour selves
atin um
itud inal
Ġs ung
ĠR ice
Ġshall ow
Ġl ux
ast ics
ĠJ unction
p adding
ĠMaur ice
ĠN ottingham
\, .
ĠA chie
E ducational
ĠK umar
Ġun anim
Ġmer ge
b ey
ĠF R
Ġneglig ible
ĠS uff
Ġtrac es
p ublished
Ġperm utation
p aper
F red
Ġresearc her
ĠMon ey
ar ound
C ert
hy dro
ĠHe ights
Ġz ones
ĠM s
Pro file
is o
Ġimag inary
ĠEll is
Ð ¹
Ġgrad es
Ġpre val
Ġglob ally
th ird
arch ive
Ġinstit ute
W ater
ĠWest minster
Ġput s
C ross
P Y
ĠCl if
Ġproceed s
Ġp ap
ĠDec ision
Ġen roll
15 5
Ġdis orders
Ġc rack
sol id
Ġd up
ĠN eed
Ġsent ences
S u
F oot
ĠK arn
ĠCorn wall
ĠCrim inal
P RE
` .
] :
Ġche cks
W alk
Ġtransp arent
p atch
ter bury
$ /
lim ited
osp here
Ġa est
en i
A re
ov es
J son
Ġamb ig
t ot
T F
ĠAp ost
sp aces
Ġvalid ity
Ġto m
Ġg aining
em ail
Ġvolunte er
Ġwat ched
ĠInter est
Ġcal ibration
Class es
Val ues
Ġvocal ist
ĠEm ma
ĠUr ugu
ĠGe off
ĠV e
f c
He alth
Cl ick
ĠJul ia
Ã© g
}| ^
d ra
it on
Ġn est
v skip
v c
Pol ish
Ġcommun ist
Ġfound ers
Ġaver aging
F K
ĠDat abase
e fficient
add y
ĠBr as
% ),
M aster
ĠInd igenous
Ġf ame
ĠS ent
un i
ĠE state
ĠO S
be h
18 42
sett ings
ĠV il
Pro duct
Ġcho ir
ĠD in
aut ore
Ġremember ed
Ñ ĩ
Ġgu idelines
Ġport folio
____ ____
Ġp ist
Ġrenew ed
Ġprison er
ĠP resent
ĠC ancer
Ġmem ories
F lo
Ġrem arks
Ġcur riculum
Ġcirc ulation
Ġab olished
o fficial
ĠStr ateg
leg ate
Ġload ed
Ġin herent
Ġmon op
di ag
Ġrevolution ary
Ġswitch ing
, '
Ġdivor ce
3 20
P H
Ġfle e
Ġsec ular
ribut ed
ĠCamp us
Ġdecl aration
ig ue
In ternal
Ġyour self
ĠAst ron
sh i
ĠA ur
ĠArch ae
L D
Ġphilos opher
K ind
ĠEm ily
on ne
ĠS creen
an z
Ġin line
Ġexpert ise
ĠĠĠĠ ĠĊ
Ġalign ed
Ġabsorb ed
est amp
f ounded
ĠT iger
un al
eff ect
ĠD eg
W ashington
ĠArmen ia
K A
n ecess
e on
Ġobserv able
Ġth rew
ĠDev on
av ian
Ġhuman ity
' ],
Ġman ages
Eng ine
Ġel astic
Ġid x
Ġ à¤
Ġpun ishment
ĠAn a
ibl ings
ĠJohann es
Ġpost p
ĠM old
i ens
Ġ{ {
Ġcon g
Tem plate
he art
Ġexcit ation
Ġsc andal
Ġlight ing
ĠTest ament
sp eaking
Ġflow er
ĠH us
ĠEvent ually
ĠBl ake
ol ver
ĠLith uania
cl uster
ern ame
Ġdiff ers
B ob
Ġsl avery
Ġ( *
ĉĉĉ Ċ
$ (\
Ġare na
J ul
pro duced
Ġst olen
Ġnovel ists
h ook
ĠB elf
Ġadvert is
ĠC openhagen
Ġpregn ant
ĠP owell
he y
Ġd s
Ġhost ing
ock er
B road
ĠConc ert
ĠA ra
Ġpr ince
Ġbrig ade
Ġstret ch
Pr ivate
Ġcro ps
) }^
ĠE ar
Ġab elian
ĠY uk
Ġalt itude
by te
Ġcon ferences
Ge org
Ġb is
ol ation
se en
ugh t
Ser ial
Ġunder go
ĠF lem
Ġb alls
ĠN ine
Ġcitizens hip
Ġimprison ed
ĠB esides
Ġcasual ties
T ri
Ġto ugh
Ġcontrad ict
Ch ildren
d ifferent
Ġp unk
se lected
Ġl obby
Ġco in
ĠEx hibition
Ġw ore
Ġkit chen
ĠL iv
Ġpoor ly
ĠHe aven
Dan iel
oper ator
Ġun w
byter ian
respect ively
( |
M s
ĠSl av
Ġsimpl ified
Ġjo ins
ĠH ait
ĠD ob
Ġp ace
ĠL apl
Ġperfect ly
ĠAnd roid
Ġh aven
18 32
I ts
ĠF ind
ĠAut o
Ġab ortion
ĠRe id
Ch ief
Ġtro ubl
at ta
ĠLore n
ene ath
L ee
Ġsens ors
ĠJenn ifer
Î µ
)) )
ĠEd mund
ĠNot ice
Ġrefer endum
q q
Ġb ell
ĠO z
el in
ĠC PU
und les
). }
aw i
S V
ĠPak istani
Ġdisapp ear
ĠB iography
ĠThrough out
ens itive
Ġrev ival
16 5
ĠTw enty
as is
sec urity
pos itive
ĠL ook
F ellow
Ġuns igned
B a
ĠCommunic ation
Ġown s
arm ac
Ġwid ow
ĠEd ge
Ġun ve
ĠAndrew s
Ġqu een
p it
Ġpoint ing
Ġir re
Ġrenown ed
ol an
ĠInit ially
Ġc ouncill
ind ed
C arl
ĠLegisl ature
n ear
ĠRail ways
big skip
vari able
ib a
anc ers
Ġtang ent
Ġim plied
Ġsculpt or
Ġsub stance
Ġwar fare
L ight
ĠB H
ĠB ark
ix el
Reg ular
ĠSol omon
ĠP ep
ap ur
oc ity
Ġarch ive
ĠR ule
Ġdemand ed
Ġdemonstr ates
Ġperman ently
Ġdiver gence
Ġf ate
ĠIs le
con ver
Ġtra p
ar is
Ġevery where
Ġsee ks
ill iant
Ġs ke
ĠKenn eth
}} }$
ĠK em
P N
im ination
Ġformal ism
ĠShort ly
op ened
ĠFe ature
Ġem otion
e i
Ġor al
Ġrecip ients
ed itor
Ġ{ {\
comp act
Ġf ol
Ġext inct
Ġr ifle
Ġ ic
p olit
Sy mbol
Ġbos on
ĠW ant
Ġ[ '
Ġnucle us
ĠH arm
oy le
ĠH ass
Ġinject ion
T IM
ĠW W
Ġgl ac
s al
ae us
Ġcomm ands
Re ader
H ouse
ĠB O
Ġmod ular
a que
ĠF inals
ĠR ush
Ġal phabet
Ġc ant
ĠM TV
Ġminim ize
eg an
Ġdisp ers
Act ive
Ġind oor
ĠB ody
Ġnumber ed
As ian
Can ada
A pi
Ġproof s
Ġsup press
ĠR N
Ġnation wide
ĠĠĠĠĠĠĠĠĠĠĠĠĠĠĠĠĠĠĠĠĠĠĠĠĠĠĠĠĠĠĠĠ ĠĠĠĠĠĠĠ
Ġst eal
ĠSant iago
)\ ,\
ĠSh i
Ġcond ens
ado op
Ġalter ed
f requency
Ġcomed ian
Dev ice
ĠG othic
ct uary
us a
Ġhapp ening
Ġass et
ch y
Ġelect romagnetic
ĠProv incial
zy me
}}\ ,
oupl ing
ah u
b is
Ġsummar ized
W el
W ho
Ġ æ
Ġdial ect
Ġk ings
reg ation
p ent
ĠGl ou
ĠLou ise
Ġhar ass
13 3
Ġcyl inder
' >
Leg acy
f ar
ĠViet namese
u ition
Ġmed ic
Ġb otan
Ġh ull
}\ }$
Ðµ Ð½
ĠWork ing
13 6
ij a
Ġpack et
Ġaut onomous
ac ular
"> &
Ġval ued
Ġcon ce
ex port
le z
Ġprov ing
ren ew
ĠS aw
ĠU pdate
ĠF eb
pl ugin
mont on
Hel per
Ġdr ives
ĠCard inal
Ġadvant ages
uc le
ĠÂ »
ĠGen eva
Ġvari ability
ĠDirect ors
Ġcul min
pos itory
Ġpit ched
ĠBou levard
ĠY an
A z
Ġjournal ism
m ology
p rom
T M
Ġens uring
( :
ĠPol l
Ġhop ed
s z
ch ief
Com b
ĠReg ulations
Ġl ots
Brazil ian
he ll
eff ective
Ġprest igious
N a
it ary
Ġte a
ĠUn fortunately
uis ine
ĠR ut
Ġlocal ized
Ġharm on
ĠL ok
Ġtheat rical
ĠWy oming
ĠM BA
ĠG ren
Ġconven ience
Ġv in
ab ol
ĠNiger ian
v v
Ar thur
Ġsus cept
es ar
Ġinv ariance
^ +\
f oo
Ġvanish ing
$ --
Ġtim ing
ĠPr int
B ound
am as
ot ypes
ĠF actory
ĠCol lect
ĠF act
Ġo w
Ġrecru ited
Ġinvest ments
Ġte eth
Ġperform ers
ĠRes ource
C a
Ġh itting
Rel ated
Ġatmosp heric
Ġant ib
Ġreason ing
ĠA ub
ĠPo etry
Ġtrans mitted
ĠU RL
Ġvict ories
ed e
Ġen orm
Ġr ally
Ġj ets
ĠN A
ĠGener ation
ĠN as
t ex
ĠSh ield
ĠBat man
k ens
Ġnames pace
Ġopin ions
L at
Ġbre eding
Ġsearch ing
ĠAl bums
F E
c ourse
el ong
ĠP and
ĠW ool
Ġcat hedral
ps y
Ġdisband ed
ĠManit oba
Ġf atal
ik ing
S B
ĠLanc ashire
Ġguarant ees
ch air
Ġfore cast
Ġl iver
Ġdel ays
Ġpray er
n ai
S un
13 4
ĠD raw
ĠTy ler
ĠF ast
Ġd ancing
z el
hel p
Arg ument
Ġe cosystem
Ġdepict s
F IG
Ġnational ly
or p
Ġtra ff
ran es
ram es
Athlet es
R oot
ĠH aven
In valid
rie ve
arri or
ĠC ut
Ġbar rel
Ġproxim ity
Ġassum es
ĠB anks
ĠGl obe
Ġso ap
Ġred es
=" _
w y
Ġpron ounced
Ġdo zen
ĠCa uc
ĠM ang
Ġt ut
Ġbe ars
ent ric
Ġmus cle
19 2
fam ilies
any on
Ġgu ards
Ġobserv ational
ĠStev ens
Ġfe ud
Ġcommut ative
ere k
ĠGu ards
Ġprocess ed
O l
Ġuniqu ely
od or
ild a
M il
Ġimp ose
ĠC rist
Ġposs ibilities
Ġobserv ables
Ġm oon
ĠD as
G a
}_ +
14 3
T P
ĠIn sur
Ġra pe
Ġincorpor ate
ĠG alaxy
ĠK ab
Mod ern
ĠBey ond
th read
ĠSher iff
Ġlog ical
= {\
Ġv ow
S pr
p mb
Ġe leg
Ġer upt
ĠT ir
ur red
v able
Ġdesign ers
in formation
ĠU ntil
Ġsuccess ive
d irection
Ġcare ful
ĠBa iley
Ġpro sper
g rand
Ġcl ause
ĠÃ ĸ
13 7
rang er
Ġr iders
## #
r l
Ġvot er
A mb
nd ez
Ġconsider ations
Ġcycl ic
en um
ĠM ine
Ġ$- $
Ġany where
it ance
Ġaffili ate
ĠF alse
Ġmur ders
C ustom
oy a
Ġcolon ies
Ġconsult ant
ĠN ATO
Ġch ore
Ġbuild er
Ġtorn ado
P ers
Desc riptor
ĠDev il
Ġg rap
Ġmain land
. ]
ĠHind i
' (\
Ġfre ight
-- >
ĠP ink
ĠI de
Ġtribut ary
$ ^\
Ġcontroll ing
Ġcyl ind
Ġfl ank
Ġpres ervation
re view
): =\
Ġbroadcast s
] _{
Mart in
s ocial
ĠD um
m ac
ĠT at
ĠL t
Ġrel ate
L ead
Th ird
s ys
rest rial
ĠH ir
ĠG Ã¶
depend ency
R ender
ĠM ead
Ġneg lect
d ynamic
ern er
Ġhon ored
Ġver ified
al ong
stit u
ĠC ann
Ġrel atives
no ise
g age
}$ ).
m icro
ĠB A
ellig ent
Ġper ception
Ġveter ans
im an
Ġst opping
opt imal
Ġcol ored
plement ation
Ġqu eries
let te
ĠR overs
ors ion
De velopment
Ġfill ing
Ġv ibr
Ġutil ized
Ġgrand son
Ġlocomot ive
y st
Ġsub mit
Ã© m
aj i
Ġdwar f
T ok
Ġsuperv ision
n p
' )\
V ir
se q
Ġco ached
Ġrecon c
en ian
ĠD uncan
Ġse ized
ĠCol in
Ġd otted
he nd
pro f
Polit ics
Ġ\ #
ĠOr lando
ins ert
ĠMar in
ĠS weet
{ %
im pl
ra pe
omet own
ĠCh ase
Ġsuccess ion
es a
ĠIll ust
P ak
Ġ( [
ĠSt rong
Ġliter acy
Ġsuperv ised
Ġtouchdown s
ev ents
}( -
Ġoscill ations
E V
raph ic
Ġdiagn osis
L iber
ĠL ay
Ġsyn onym
C itations
Ġwire less
ourn ey
Ġad mit
od ia
ĠNad u
ol ith
Ġd ying
Ġrock et
c ock
Ġgovern ance
K im
Ġwel come
ĠIn g
M id
ĠLes lie
H uman
Ġclass ifier
O ption
ig i
Ġd imin
av ailable
}, {\
Ġcap ita
ĠExped ition
I ll
Ġim plements
Ġconstit ute
heim er
ĠArm strong
00 5
Ġbox ing
V ictor
In s
ĠBrad ley
ĠC ord
kins on
Ġfl avor
p f
ĠMathemat ics
ĠT ampa
^- $
ey n
Ġ} )
u ctor
ĠL az
Ġrele asing
ĠM emphis
ĠR achel
ĠPlay Station
ĠB order
Ġrout ine
Ġmemb rane
> $
L ock
ĠA ri
Ġvo iced
ly m
Base ball
Ġrend ered
Ġbeat en
> ();
ĠC ome
}) (
ĠTr in
Ġlocal ization
Ġdraw s
ĠRec all
C B
Ġpoll ution
Ġh alt
c ats
Ġadv isor
b oolean
Ġs id
J ean
Ġdis appeared
res olution
ĠD ale
Ġexcit ing
Ġinteract ing
Ġb er
N orm
Ġdies el
to String
W id
Ġsn ap
ex act
ĠPop ular
Ġtor us
N OT
x rightarrow
Ġb acteria
Ġball ot
l oy
Ġ\ }$
vi Äĩ
R oad
Ù ħ
18 34
Ġobserv ing
Ġam id
ĠCath olics
Ġret iring
En vironment
P ER
Ġb ats
Ġinv ented
}} +\
W ell
item s
Ġsingular ity
Ġgather ing
Ġen larg
Ġsculpt ures
C ath
Ġadapt ive
}} +
ĠBe ing
tx t
B rown
l ace
with out
ĠRichard son
d ue
ĠM iles
ĠEn s
ĠMet al
Ġ( âĢľ
Ġver b
Ġlo ans
din and
ĠC yr
R ect
is le
og o
sup ervised
ĠK eep
ĠRoberts on
ampl ing
S ep
ĠT ennis
Ġevent ual
22 5
ĠAb original
ĠPl ate
b eck
cho ose
Ġimprison ment
ont r
ah a
ĠEthiop ia
Ġrecommend ation
ĠPrincip al
ĠR ac
Ġpurs ued
Ġe ating
Ġemploy er
ass oci
ĠGal actic
n Ã©e
ĠCel tic
g ender
ĠD oll
T ags
Pro gram
ĠQu art
Ġhousehold er
group s
Ġfre estyle
Ġpen et
l ore
tra ined
is dom
Ġb rew
ĠB S
Ġpar se
Arch itect
pr ising
S a
Ġrot ating
Ġin vert
N Y
script ions
Ġamaz ing
ĠChel sea
ĠA A
Ġreb ounds
You ng
ĠS qu
enn ium
ĠForm ation
Ind eed
elect ric
ac iÃ³n
Ġartifact s
Ġcl ick
=" /
ĠFilip ino
ĠH alf
Ġdiplom at
ili ation
ros so
\!\! \!\!
Ġcl othes
P et
U B
up edia
ĠD ir
oy e
ĠClass ical
h urst
st ellar
Ġband width
ĠAll an
Ġprec ip
ĠH ash
ĠU tt
ĠB il
Ġmeaning ful
Ġin cent
}_{ (
á ¸
Ġinf ected
op a
Ġdetermin istic
ĠZ ag
A li
Ġ ray
ĠL arge
Ġcancell ation
ĠParalymp ics
ĠTrans it
pen ame
ĠD esc
Ġsl opes
n ut
Ġn ut
Ġtem ples
ĠPublic ations
G ET
val uation
Ġconsequ ently
}\ !
ĠHol ocaust
ĠGer ald
all a
'' .
Ġment ions
Ã¨ s
ĠC os
Ed itor
Ġd rain
Ġconsp iracy
Ġque ue
ĠCurrent ly
ĠS ons
atter y
Ġche st
Ġm ad
Ġsymmet ries
ĠD ise
ant astic
Field s
ĠF L
ĠF ras
ĠTh an
ar ag
Ġex ecute
ĠW ikipedia
Ġ ibn
ĠP red
5 12
var pi
ĠAssoci ate
Ġed iting
Ġmen u
Ġsp iral
ĠBened ict
S at
ĠGib son
Ġtra pped
Ġneighbour ing
be it
13 8
14 7
ic iary
ĠP orter
ĠAlb ania
ĠHe ath
Ġflex ible
ĠB ullet
ĠR ules
ĠW arriors
ĠFif th
) <
F low
Ġblock ed
Ġcap ac
Ġmicro sc
ĠHend erson
ĠH ousing
ĠGu ang
ien ne
Ġfraction al
pot ential
Ġspeak s
Ġto uc
ĠL odge
Ġoff ense
angel ical
Ġmy sterious
Ġfre ely
ack ed
b oat
ul g
Ġunder went
ĠF ut
Ġprot ecting
H H
Ġb rowser
s qu
y u
Ġadminist rator
ĠK ids
Ġsp ir
Ġs a
Ġp uzz
ERR OR
ĠL LC
Ġpra ise
Ġcurrent s
ĠF ix
Z Z
Ï Ĥ
ĠBry an
t oggle
Ġo s
sq l
H aw
Ï ĥ
Ġann ih
sm ooth
ĠInsp ector
col m
out ing
Ġpres idency
âĢ¦ âĢ¦
ign ment
Ġtri angular
Ġevolution ary
Ġsett le
C ard
m ove
Addition al
amp ing
Ġscal ed
ĠGrad uate
Ġdiscontin ued
Ġdiscip line
ĠM is
oot ing
ĠM IT
Ġ+ +
ĠInter ior
ĠFern ando
Ġimp ression
mark et
Ġmod uli
T ex
ĠCh ad
Ġgeodes ic
Ġh ook
ĠCan terbury
ian e
ĠVis ual
Ã¤ r
Ġ ions
ac cept
ĠE g
Ġreb ellion
Ġm il
Ġcon qu
s elling
ĠK urt
13 1
y y
ĠPal m
ĠChem ical
re ach
comp onents
' ))
Ġtransl ations
Ġra id
x ym
ch in
Ġconver ge
D ebug
inf all
Ġf ed
Ġcoinc ide
ĠMont eneg
ĠH ost
ĠE RA
Ġback ed
ĠDou g
c ert
@ {}
c ritical
Ġb out
Ġswe ep
Ġsum s
Ġtransport ed
Ġhol omorphic
ĠP iano
Ġdet ectors
ĠInit ial
Ġ< =
ĠX X
ĠEngine er
idel ity
Ġinv ari
Ġad op
center line
air y
Ġmotiv ation
ĠG W
Ġnam ing
Ġhon ours
alth ough
asc ar
ĠSe lect
Ġcharacter ization
Ġadvers arial
ne apolis
ed i
Ġd im
ĠAh mad
ri ans
Ġdraw ings
Ġbal anced
Music ians
vis ible
Ġtrav elling
Ġad equate
Ġrepro duce
pe z
Ġpresent ing
Ġpre ference
Ġnom inee
ĠInter view
Ġtow ers
Ġb ills
a ft
Ġmanifold s
20 2
Ġtri ps
ĠF an
ĠTan z
Ġgu ys
$ =
Ġstri kes
Ġas h
Ġt iny
M arg
R ule
Ġbr ut
do i
Ġview ing
om ial
Ġpres erving
p ip
v m
Ġle ase
Ġbas ically
quarter ed
t ics
op hers
Ġf ung
por al
Ass ert
ĠNE AT
ĠPsych ology
l it
g ard
raint s
, (
ograph ies
ĠPresident ial
ha o
Ġembedd ings
ĠN intendo
ener ate
Ġcollaps ed
cc entric
Ġd inner
t ons
j in
ĠW ak
Ġserv ant
Ġp in
ĠSpe aker
Ġsoph istic
art a
que z
autore f
Ġster e
ĠAr g
Ġsimpl er
Ġlegend ary
N atural
ing o
- {\
H ot
ar re
an mar
ĠA part
AR Y
ĠBir th
ĠHur ricane
Ġt ent
Ġrel ativistic
Ġin coming
ĠSim pson
ass o
che ster
Ġs iblings
} ]$
ĠCont est
Ù Ĩ
Ġmer c
Ġwar rant
le ys
ĠK aren
ĠH ab
Ġsp anning
Ġprot ocols
rit z
M arc
ag le
Ġâ ĪĴ
Ġsurn ames
Ġexpl oring
ĠG rim
CL A
Ġd elta
lev ant
n is
Ġd ancer
u ine
Ġdoct rine
I sl
Ġachie ves
ĠAcadem ic
Ġfavour ite
Ġinter im
Ġrespons ibilities
ĠR iv
ĠJ al
ato es
ĠLiber ation
Ġm ature
Ġdisc overs
s yn
Ġbehavi ors
Ġquant itative
rat io
ĠN u
ĠGl enn
Ġfarm s
ĠEp iscopal
ĠH od
cal cul
Ġcohom ology
ov i
æ ľ
Ġcompl aint
Ġland mark
ĠGeorg ian
Ġag gressive
tra ce
ĠP or
ĠContin ental
Ġbe aring
ĠAdvent ures
ĠM uk
P ay
Ġkn ee
ĠH ern
ĠFrank furt
Ġdepos its
Ġg rate
Ġv it
ĠYank ees
ol ence
Ġfre ed
ĠLett ers
ĠKazakh stan
Ġneighborhood s
N orthern
Ġan ger
ĠBel grade
ĠN urs
15 2
S ound
ĠProgram me
Ġdiscre p
us ive
Ġcommunic ate
ĠSm art
vers ely
load ed
B rien
ĠEug ene
es ome
Ġmetall icity
Ġs aving
ĠP lease
Ġdis ability
T ests
v ance
Ġep ic
ĠMc Donald
Ġult imate
Ġack nowledge
}} ^{(
ĠAmer icas
ball o
k al
Ġrap per
Ð ·
18 15
ĠN atal
oid es
Ġsur render
Ġcount ed
}}\ \
M unicip
Ġaccept able
as se
ĠCh oice
s r
in ate
ad vant
Ġinter active
Ġcaus al
cf c
Ġpurs uit
ĠWrit ers
Ġp icks
Ġb icy
P AR
Ġen v
Ġer g
È Ľ
ĠT D
Ġcomplex es
ĠMy anmar
Through out
Ġcongress ional
Ġt une
}$ $
Ġwild life
un ar
Ġcompris ed
w ald
Ġmethod ology
18 33
oc he
Ġin scription
ĠH ull
qu ant
Ġadv ances
Ġactiv ated
ĠDr um
Ġdemon stration
ĠCzech oslov
col span
Ġdifferent ly
ĠLud wig
Ġaff ecting
Ġfavor able
Ġm aid
ric ia
ĠTh anks
Ġs its
Hung arian
13 9
. (
g ang
Ġar row
Ġinvestig ating
i ership
Ġinc ons
EC K
ĠImp act
Ġover head
if ference
O wn
comp are
C zech
W ood
l ar
ĠSt akes
uk u
Ġconclud es
Ġmyth ology
` ,
Ġpro xy
w s
Ġeduc ator
i ott
in j
ĠAr ctic
Ġkill s
ĠC ustom
ĠP irates
ĉ ĠĠ
ĠCurt is
r b
Ġen abling
sur face
Ġin ad
ist o
ĠE t
enz ie
ĠT itle
Ġpres erves
Th m
rid or
Ġd ubbed
ot yp
ĠWag ner
ĠAddition al
Met adata
ol ute
ĠRol ling
Act ivity
Ġthir teen
ĠG mina
Ġbur ial
and ed
L es
Ġinsp ection
e als
ma xim
ĠV ision
us ers
ĠI sh
oc o
Ġep it
Ġload ing
ĠT ales
Nov els
h adoop
ĠA ch
Ġgrad ed
So ft
ĠF eder
Ġob ey
Ġisol ation
ant om
f un
Ġex ile
ĠEmm y
ĠKing ston
Ġoccur rence
ĠBas in
end or
Ġtack les
Ã °
Ġexp enses
Ġstruct ured
ĠPro of
Ġhelic opter
ĠM ales
16 8
ĠG em
g ary
Ġf ires
ĠA way
ĠBay esian
Ġdiagn osed
ox y
Ġh ind
if ax
18 31
Ġhe ir
Ġrad i
Ġcust ody
k el
Orig inal
MA X
ĠTr uth
), (
20 5
ĠV ers
Ġen listed
Ġcomput ations
o ided
not ation
ĠEp isode
Ġst ones
Ġc ock
ĠBur ton
Ġnucle i
Ġleg ally
cons ider
utr ition
-------------------------------- --------------------------------
Ġsal ary
ĠLux embourg
Ġrefer ee
Ġsp ont
sat isf
in ia
Ġcatal ogue
c op
ou p
Ġmin eral
top rule
ĠM E
ĠPres byterian
ĠL ar
rif ice
ĠS hen
ĠAgric ultural
Ġspec imens
xym atrix
Ġcons erv
at io
symmet ric
ĠN uclear
uc ci
Ġtick ets
S ar
F i
tem perature
ly mouth
left rightarrow
Ġlect ures
Ġup set
Ġp ink
Ġwe igh
ĠV id
ĠH i
Ġ\ :
bs erver
ian ces
b ibliography
ĠB ever
ĠPh ase
c ro
ĠT rent
Con struction
r ud
Ġgener als
Ġra bb
ĠI BM
Ġn g
Ġindic ator
Fl ags
Bel g
Ġstre ak
ĠV a
w rap
En ter
ĠNet flix
ĠD oc
Ch art
ĠAntar ctic
ĠT roy
ĠAn at
' ,\
ĠC avalry
ĠCh ancellor
ĠPhys ical
d etails
Ġp ounds
Ġsail ing
) /\
B ern
ĠTreas ury
ĠM ob
ĠC redit
Ġviol ations
I mm
j d
ĠChe ss
ĠEston ia
ĠE ye
anc a
Ġmark ing
SI ON
ĠI stanbul
A mer
id ation
Ġcomplet es
ĠGu atem
! ,
Ġdual ity
wp engine
Ġpup ils
ĠInsur ance
Cont in
Ġcounterpart s
Ġconc urrent
p u
act ers
r ific
Ġm oll
oc c
ĠLind a
Ġadv ised
ay ette
18 25
Ġtw ist
L INE
habilit ation
C ulture
oun ces
K h
ĠN acional
ĠPl aza
imens ion
car ballo
Ġtri o
ry ption
Ġstrugg led
Ġ ×
ĠLuc y
Ġprevent ing
Ġwitness es
ĠS ept
ĠPal omar
N umer
ric a
Ġfa una
Ġenter prise
Ġcoinc ides
Ġhe x
ĠGu itar
Ġhom omorphism
Ġa xi
ĠA G
Ġreb els
ett es
yl an
duct ive
ym ph
Ġcreat or
ad al
J on
Ġstation ed
66 66
wid get
ĠB ran
ĠCl aud
Pop ulation
ip eg
st roke
ĠT yp
vent ions
Ġmultip lic
F ort
16 7
il is
Ġkill er
cha ft
im m
fe ature
ĠOs lo
Ġcogn itive
ĠColon ial
Ġassemb led
+ |
Ġo k
Ġprot agonist
Ġconstruct ing
dist rict
H I
}$ ;
Ġaer ial
H ard
ĠCon v
ĠSh ore
ĠA FC
Ġfar mer
ip linary
Ġd ish
F ire
Ġgu ided
in ating
ĠP orts
Ġrom ance
ĠR i
Ġlik ed
Ġwalk ed
Ġpriv ately
Ġ( #
R en
ĠF emale
Ġinter ven
ne z
ĠWe ather
n c
ir ie
ĠE M
Ġm ouse
Ġbe er
le en
ad min
Ġinterview ed
ĠC i
ĠK w
J ECT
or ic
it ian
Ġs ake
d g
iss ible
Ġmod est
Ġb apt
}{ $
Ġav oided
Ġwe aker
abul ary
_{ (\
ĠH off
De lete
Ġp our
ole cular
Ġimplement ing
ant ics
ĠCar roll
amm ad
ins k
L os
ĠL eop
ĠInnov ation
Ġreal ization
ĠAlb anian
S uch
P resent
ĠBelf ast
Ġa u
ĠAnd ers
à ®
H ER
ĠC osm
Ġbus y
P ier
Ġ\, .
ĠC lear
ĠC anyon
ĠAssoci ated
ĠW end
Ġbackground s
Ġwrest ler
ĠCon st
Ġdescript ions
Ġm a
Ġfour teen
Ġtre as
Ġsac red
th ood
ĠTri ple
ass er
ĠQ atar
r ina
d c
28 0
15 6
Ext ension
Ar gs
Ġsax ophone
Ġneur ons
ĠSer ie
ĠLuther an
' -
Ġfit ness
Ġch lor
ĠDem ocracy
E nabl
e ur
ĠV at
stad t
design ated
Ġland sc
Ġe ccentric
ĠAl pha
m iddle
Ġh ometown
ra id
rag on
ĠCal gary
ĠC ort
Ġout flow
Ġform ats
Ġplace ment
y t
hard t
est e
b rand
_ ;
@ "
å ¤
ĠR ib
O s
ash tra
G ui
n atural
Ġ' /
Ġdiscuss ing
in is
Ġparamet riz
Ġrig id
correspond ing
ight ed
in ks
Ġl ob
ĠJer emy
ĠL av
Ġh ate
Ġillust rates
Ġline up
Ġshould er
Art icles
it Ã©
ĠFight ing
B asketball
ĠM I
Ã¡ r
pro gram
Ġinteg rate
}] \
h p
ig roup
fl ag
G od
amb a
14 1
aus es
ĠF ont
H op
P erm
ĠLiter ary
ug a
f p
Ġi i
ust ers
B ay
ĠIn ternal
J er
Ġspeed s
ĠR ican
18 28
Ġinstitution al
Ġextra ordinary
ĠEnter prise
Ġby pass
ĠSur rey
Ġdro ps
Ġfaith ful
Ġtestim ony
Ġafter math
ontr ivial
Ġhom osex
s ix
run ning
ĠH es
Ġundert aken
ant le
Ġlif estyle
Bur ials
_ (
ĠSt ream
Ġa fore
if les
ur an
By tes
ĠSlov akia
26 0
Ġf ru
un ique
Ġe ject
ĠB ess
ĠPop ulation
ĠLead ership
ĠV III
Ġaddress ing
L ab
bas ic
iv ariate
ĠJ i
abl o
ĠX I
Ġterror ism
en ic
il ion
ĠDef ault
I mp
ĠI SO
ig ator
ir med
St orage
B on
pos al
Ġconf ined
Ġw ishes
Ġre ass
ĠP Ã©
ĠOther s
D ouble
ĠEx amples
Ġimp ressed
Ġfrag ments
Ġb eneath
im i
Ġrad ii
ĠSlov enia
[ $
Nor wegian
man ager
Ġem ig
Ġbright ness
Ġstrugg ling
Ġwithdraw al
ĠG ael
Ġhold er
ĠM ail
bl ing
ĠFl ag
Ġtel escope
M u
b ay
ĠB ec
Ġprem ises
Ġstrong est
Ġprohib ited
Ġwarn ed
ĠG ross
Ġj oy
Ġexp ense
Ġdip ole
Ä ħ
in line
Ġj ack
Ġdef inite
v iv
Ġa pi
sc roll
Ġinteg rity
ĠNew port
}, \\
g it
ur ate
ater ials
ed uc
ĠBrad ford
ĠInd ividual
p olar
unn ers
acc ount
F W
ĠCom bat
ĠSh ir
Ġsurpr ised
FA ULT
ä º
ĠR egin
h skip
ov ic
Ġenc oder
G T
Ġd ictionary
Ġcontact s
S cal
Fig ures
ĠCour se
Ġs ew
K ar
ĠD ow
Ġen zyme
sch ild
ess ment
ĠSt rat
itt en
ĠUS S
Ind ividual
ĠRe ference
Ġlegit imate
um ph
Ġbl ank
ĠBar b
ĠK err
ĠCre ative
A x
ĠAd rian
Ġsix teen
ĠLaw s
ĠP O
Ġra infall
ĠNot re
Ġon wards
Ġro ok
ĠCarol ine
r ift
Ġconscious ness
Ġg est
Ġlik es
co q
b os
ed it
Ġterrit orial
ĠSc hed
Ġproject ions
ĠJo el
V i
trans ition
Ñģ Ðº
ĠHe at
Ġbeet le
Ġde alt
Ġc ens
ĠR F
Ġin complete
ĠAchie vement
Ġm all
TE ST
Ġam endment
ĠH ack
Ġdevelop s
m ons
text style
) *
ex ception
ĠExcell ence
ong o
Ġsw ord
Ġprompt ed
ices ter
n as
21 1
ipl oma
s pl
Ġthe or
ĠĠĠĠĠĠĠĠĠĠĠĠĠĠĠĠ ĠĠĠĠĠĠĠĠĠĠ
Ġspec ification
Ġm eth
ĠC opyright
ĠBud apest
Ġdefend ant
w ild
sw itch
qu ote
ĠC B
ĠChief s
Ġtrib al
Ġflo ors
rac use
es ch
c amp
Ġe gg
Ġqu bit
Ġsp ite
ogn ition
Ġfurn iture
ĠL ords
Ġc otton
Ġdis ks
Ġb ind
Ġr ivals
ĠCoal ition
Not ice
ĠDisc overy
Ġflood ing
15 3
ĠStaff ord
ier i
am az
Th ough
IN D
met ric
con j
Ġsimpl est
ĠHe y
Ã¸ r
Count ry
ĠHigh land
E c
ĠApp eals
ĠLyn n
h ra
s ig
5 50
ĠMor rison
p q
Ġpar as
Ġhum or
Ġmob ility
er als
ĠC e
Ph oto
ĠL L
th row
Ġv ig
ip zig
ĠNik ol
ĠB Y
ĠP L
St an
ĠRel igion
m ith
T y
T rad
Ġp unct
} "
Ġex ports
Ġupgrad ed
im edia
ĠJ SON
ound ing
ĠMed ic
Ġthe ology
ĠIm ages
ĠG C
Ġutil ize
Ġbranch ing
b g
ĠEll en
ĠW ick
Ġsur pass
ĠBC E
Ġlong itudinal
ip ur
Ġcongreg ation
renew command
S equ
Ġpresent er
Ġtext ure
Ġmanuscript s
ĠCr us
ne um
Ġregular ization
Ġm im
Ġhard er
ri o
S Y
utt le
Ġdeleg ate
Ġr ises
Ġnorm s
ĠP rec
Ġdeter ior
M ock
Ġpre vention
Ġmole cule
Ġperform er
Ġdemand ing
le man
E th
asc ular
g ae
Ġdiv is
g tr
Ġw age
Ġhand ler
an ions
Ġworks hops
Enabl ed
Ġarg uing
ĠSe oul
Ġstep ped
ĠI o
um ably
ĠBarn es
ç ļ
un ting
Ġrel uct
] ^{\
Ġafore mentioned
ĠFer dinand
Ġseem ingly
ĠC ly
ĠIn side
ĠInter state
Ä Ľ
ĠE isen
U ID
[ {\
Ġt aste
14 6
Ġf Ã¼r
ron ics
ĠSw ift
ĠDec l
v ens
process ing
ĠRoc hester
ys on
k ok
or bit
Ġc uisine
Ġsimilar ities
conv ex
n l
G er
M eta
ag ne
ever y
Ġm apped
3 30
ĠCh al
Ġoppos ing
Ġwrest lers
ev o
}) }\
ĠHead quarters
18 14
Sup port
Ġbu ying
ep age
Ġg amma
Ġcarri ers
Ġtermin ology
Ġal umin
Ġcomb in
ĠLet ter
Ġsatell ites
s b
Ab stract
ĠGi ovanni
ĠLanc aster
Ġto b
ĠMc N
Ġmot if
ĠBer ry
big oplus
ĠG ol
ĠH aus
Ġcontin uation
cont ains
ĠK lein
ap or
By te
em on
15 4
whe el
ĠZ amb
Ġimag ine
E W
st ats
Ġv oyage
Pr int
Ġdivor ced
ĠC IA
Ġins u
ĠCh uck
Ġfemin ist
Ġel imination
Ġgirl friend
ĠG ul
m aterial
Ġspread ing
Ġbankrupt cy
Fellow s
ĠB urns
g overnor
ail ure
ighth ouse
y i
ĠC av
Ġan onymous
M ath
ĠPro gress
Ġoccas ional
ĠBed ford
Ġenorm ous
mod ern
ul se
Ġexpl aining
el astic
16 00
add r
V R
h ref
est imate
ĠAlb any
ad ors
ht bp
Ġbad ly
Ġ$ -\
Ġferm ions
Ġlift ed
ĠB ot
] }\
ĠCons ult
14 2
Ġmon uments
D est
ash ing
communic ations
pend icular
fig s
ĠK ang
Ġout lined
Up on
ĠMar l
Ġtour ists
Ġmission ary
Ġg amb
J ob
c ached
ĠBas il
Ġthin ks
^ *}
ab is
Ġsuper conduct
Ġtreat ments
ĠCom mercial
on el
ĠN L
Ġreven ge
lect ric
ĠML B
Ġmod elling
Ġr idge
Ġb eta
Ġch orus
ĠParliament ary
ĠGr ass
Ġsymp lectic
ĠEd gar
ĠDep ression
ĠBoe ing
F il
å ı
ĠEll iott
Ġgoal keeper
Ġsh ar
ĠMin neapolis
V an
Ġs ulf
ord e
Ã± o
Ġrot ational
Ġhop ing
ĠS isters
Ġst aged
H ig
Ġcontribut es
Ġflux es
en es
C red
ĠR C
A uth
Ġcr ashed
da ugh
Ġcl ay
ĠEd monton
bottom rule
Ġaccompany ing
Sec urity
ĠĠĠĠĠĠĠĠĠĠĠĠĠĠĠĠ ĠĠĠĠĠĠĠĠĠĠĠĠ
ĠDef ine
Ġadd itive
he ne
ag ascar
Ġj son
ell ation
ĠR ica
pl ates
be at
ĠWes ley
Ġsur veillance
Ġend ings
Ġe uro
ĠSac ram
B attle
Ġn ights
ĠF antasy
Ġimpro ves
ĠNS W
ros se
Ġsc roll
ithm etic
ĠSerge ant
it atively
Ch ris
Ġrel ates
ph ot
Ġl ip
Ġred sh
Ġeng aging
Ġant is
14 8
Ġ rays
Com ment
abil istic
Ġless er
ĠPubl ishers
tra ining
18 10
Ġag enda
OD O
ĠInit iative
ĠH iro
14 9
Ġ\| _{
the se
ĠÐ ¿
Ġsup pl
Ġillust ration
Ġcle ared
d ark
ĠBas ic
r ar
B oolean
Ġinteg rating
ĠHard y
Con clusion
n ational
ĠRe in
U SE
ott i
ou rable
g ap
ĠD ew
ĠU t
15 7
Aut o
6 50
Ġsign atures
Ġenvelop e
Ġwithd rawn
ĠAdvent ure
Ġad s
Ġout line
Ġpropag anda
aint ed
Ġpro c
histor ic
Ġsc ar
ĠM ilton
ĠL enn
ĠUS SR
ĠK ad
Ġstr at
Ġmac ro
AR E
Ġninet eenth
Ġs or
en ary
to ok
Ġd ressed
Ġshe ep
Ġa z
Ġess ays
establ ished
Ġin ev
fl ags
ĠMult i
Ġin ert
'' '
Ġrect angular
p b
! [
ĠU nd
Pol y
role um
Econom y
est im
ĠConstant in
Ġw are
Ġdevi ations
M useum
ĠS ed
UT C
az y
Ġassass ination
am on
Ġdes per
eq q
Ġregular ity
Ġvis ibility
Ġemploy ers
as aki
Ġaut umn
ĠM ing
iling ual
ĠH ood
Ġpair ing
Ġexponent ially
Cl ose
ĠB io
Ġan ch
r arily
Ġd ots
ou ter
found land
C ultural
all i
am ous
Ex amples
ch us
Ġhead quartered
Ġform ulated
Ġbur st
ĠM otion
Ġun changed
io x
Ġpar ity
ess ing
18 29
Ġru ins
Ġconv iction
ĠCard iff
Ġemphas ize
ĠHug o
Ġscreen writer
p es
ĠR az
ĠZ ion
Ġb ore
Ġl ig
c u
ced es
ĠL ey
}. $
O B
St age
ĠWind sor
ĠLy on
Ġgen res
Mult i
ĠFer gus
T ake
Ġb ins
16 6
rel ax
qu antum
ĠBur ke
Ġh urt
charg ed
ĠPot ter
Ġcorn ers
ĠZ ar
ĠPrest on
head ed
Ġincorpor ating
Ġquestion ed
Ġneg lected
Ġproceed ed
ĠNapole on
ĠK iss
P arser
ĠW aters
to o
Ġpost hum
Ġb ubble
Ġhon ey
_{ {
S hips
Pan el
id an
ĠL ah
Ġinf rared
st en
ĠK end
15 1
ĠS uccess
Ġjav ax
S end
ĠM aid
ĠDr ug
ĠBor is
at ible
Al tern
Ġs le
ĠMos es
Ġp ending
n h
ĠMar ion
S G
Sc ience
Ġgrand mother
ĠB alk
osp ace
}} -
Ġsub graph
) ~\
Ġun ified
Ġsocial ist
ĠT ropical
ĠB j
Ġexcept ions
ĠS cal
ĠM W
aren cy
A U
Ġst yl
N ever
h idden
Ġr amp
18 21
Ġexplo it
ma jor
Ġcons ort
Ġb ipart
ĠJohn s
ĠOther wise
Ġsup porter
ĠBund es
Ġ )$
ĠU FC
B ir
ĠMaced onia
It ems
ĠMin isters
15 8
18 24
ĠC ay
Ad minist
ĠBra ves
un ion
}} }{\
Ġrac ism
ĠL il
ant o
ĠS ag
\' {
Ġcomm ittees
c rit
Port ug
en za
Ġins ights
m atic
block List
S om
d ia
Ġw reck
Ġcondem ned
Ġ" "
Ġinhab ited
m ile
Ġtalk ed
Ġm arri
): =
ell ite
ĠFras er
ĠF OR
ĠCom plete
ĠC ool
Ġcontract ed
set length
Ġpract iced
Ġl augh
ĠMar ian
ĠM ale
Ġroll ing
Ġbusiness people
ĠPer iod
Ġt rem
ĠAlexand ria
ĠRec on
Ġpolit ically
H o
Ġsp okes
gener ation
ĠR M
). $$
Ġlast ing
ĠConstitution al
ric ing
oc cup
L anguage
Ġam mun
ex per
Cal ifornia
Ġ\\ [
Ch icago
moment um
ĠIm port
Ġop acity
ed ar
ivid ually
W W
ĠMe eting
* }\
ut able
ĠB ronze
ĠJ ob
oper ation
A I
en h
Ġtechn ological
prot ect
Pac ific
Ġide als
ib an
j ee
ĠR ee
col head
& +
Ch arl
z ens
th ouse
ĠIndust ries
ĠT ru
Ġh o
Ġlect urer
ĠJam ie
ĠL ik
Ġter rain
Ġcust oms
d ad
âĢ ł
ĠEmer gency
ĠH els
ob iography
And rew
Ġbr illiant
Ph ot
ins ki
ow ards
ĠCorn ell
Ġsc an
Ġdes k
ĠFranÃ§ ois
Ġadm ission
Cl imate
ount ain
NR AS
Ġrecept or
s chool
u o
I l
ĠInvest ment
Ġin sects
xi ety
Ġdisc ipl
Ġt ar
ĠL HC
18 26
ast ed
Ġobt ains
Ġdam ages
Ġcur ved
Ġdis par
ĠCor p
ĠAn imal
Ġdegener ate
ĠK yle
15 9
Ġt uning
Ġmist ake
ĠD w
Ġam end
cont rolled
Ġcorrect ed
Ġelabor ate
= $
Ġhyp ers
au f
ĠSD SS
ĠNew man
Histor ic
Ġport raits
um my
Ġpoly mer
Ġapp rent
ĠFor bes
Ġcompl aints
Ġpregn ancy
ĠH ess
ĠD ud
at aka
Ġ( .
um en
art y
m agn
ĠLouis ville
Ġmand atory
ain es
ry ing
ĠV iv
Ġfound ations
ĠLin ux
Ġsupp ression
ogen ic
Ġord ained
Ġmar sh
Ġdepict ing
Ġconjug ate
ĠA ircraft
H aving
y ang
clud ing
di agram
L ower
=" ">
Ġevery day
ĠSand ers
Ġpre y
R h
ĠLog an
ĠD und
Ġc rop
ĠP lymouth
__ (
T L
ĠT E
Ġflo ating
ant es
cest ershire
O F
Comp et
Ġhot els
=" "
Ġlater al
Ġcharacter ize
am oto
Ġno isy
Ġcare ers
ĠG ospel
18 01
ĠHar bour
Ġem otions
Ġadvoc acy
Ġround ed
bibliography style
T s
ĠAlger ia
im ming
mult ip
esc u
et z
######## ########
P red
ĠI L
ura i
= [
Un ion
Ġexp ans
Ġpol es
reg ister
I ran
l brace
Ġdiam ond
L ow
Ġfin anc
Que en
ï¿½ï¿½ ï¿½ï¿½
h istory
l ord
Ġammun ition
Ġimport ed
G AN
ac er
as ive
P rem
Ġfinal e
Ġworks hop
asc ade
Ġmathematic ian
Ð ¿
ĠPro gressive
ĠDay ton
d v
Town s
Sim ple
ĠN ormal
eg ie
ch urch
rac ing
ĠPerson al
Ġcommission er
call back
arv ae
ore n
S ol
Ġac claimed
Ġon set
st orm
Ġadj oint
Ġfeed ing
I ce
ĠC ategory
L en
ĠC risis
ĠCry stal
Ġsaf ely
å ħ
ĠL omb
ĠK ot
vi o
ĠG ut
drop down
pl ugins
s olution
ĠCh in
ĠSant os
å ®
Ġrank ings
ĠN otes
ex ternal
R o
ph oton
ĠBal let
ĠB ac
Ġn urse
ĠH ert
ĠL it
Ġo mitted
m ask
Ġopen ly
ĠE k
ĠBel le
Ġd ra
cl ub
Ġhur ricane
Ġmilit ia
Sy ntax
Ġdoctor ate
Ġisot ropic
A sh
... ]
ĠD ong
ĠC od
ile e
Ġper t
Ġstay ing
M atrix
N ative
if a
ĠCl aim
g irl
ĠM R
ĠL ed
anc ies
ht b
Ġacc us
End emic
) ~
M G
Ġwitness ed
ĠM eyer
ĠS NR
ass ets
Ġsophistic ated
ĠT error
ĠPl anck
Ġtob acco
im als
Ġsw ing
SE T
Ġtw isted
r v
Ġsur f
ĠJ up
Ġconnect ivity
Ġn ontrivial
ĠRich ards
M ike
as an
Ġsen ators
ĠY emen
Ham ilton
Ġr ic
In c
Ġlocal ities
Ġp ig
m any
Ġn ose
iffer ential
Ġinvest ed
IV E
q ed
00 2
Ġpersonal ities
ĠB E
* {-
Û Į
ĠR out
Ġf ran
Ġto pped
ĠĠĠĠĠĠĠĠĠĠĠĠĠĠĠĠ ĠĠĠĠĠĠĠĠĠĠĠĠĠ
ission ed
ĠK aw
sin h
ĠSum mit
Ġl ady
Ġ" /
ĠWal sh
ĠP ret
ĠL ives
ĠRem ix
Ġapproach ing
Dist rict
ĠAber de
Stat istics
Ġveget ation
Ġcomb ines
ĠIm pro
Ġstrugg les
em er
ig nt
Ġcorpor ations
C le
ĠT ul
Ġvin yl
struct or
b x
ew ard
17 75
çļ Ħ
Ġ( +
f eed
Ġoverwhel ming
Ġwonder ful
ĠD awn
Ġreg imes
Ġs outheastern
Ġelder ly
Ġd ock
ĠK om
Ġacc idents
Ġphys icians
Ġr h
ĠTasman ia
ĠQ ing
v ars
ĠK oh
ĠDub ai
Ġelectron ics
ĠHonor ary
ĠR andom
18 18
f ony
ĠCom ment
Ġtorped o
rad io
D ialog
ide a
R ank
Ġ[ [
Ġhuman itarian
ely n
Ġy es
ĠSab ha
Ġlo ose
i q
ĠP ars
t v
ĠMar tha
Ġprof its
Ġin duce
Ġap olog
Ġcapt uring
Flo at
] _
ress ions
can ic
res iz
Ġcab in
ad h
n ership
ĠI g
ĠR ather
Treat ies
ĠUtt ar
gtr sim
atri ates
Ġtw entieth
V s
u u
Ġlin king
}; \
Ġper pendicular
Ġsent iment
Ġadjust ed
. *
F uture
ĠBuddh ism
te ch
.. ."
ĠV ery
Ġswim mers
C ivil
f m
Ġident ifies
if iable
Ġanten na
c n
ĠP RO
Ġg aps
18 13
Ġmet adata
J oe
ari at
ĠJohn ston
Ġhom eless
ĠSuper ior
Ġmeas urable
Ġmanufact ure
Ġb arriers
Ġen force
cor rect
Ġrul ers
Ġacadem ics
Que ue
Ġb oot
Ġrevers ed
necess ary
resiz ebox
or ers
Ġpo inter
ufact uring
pass word
Ġre write
in stall
ĠN othing
ĠJ ake
ĠK urd
ĠRaid ers
ĠW inners
Ġp ipe
amp ire
ĠD iana
ĠTre k
KE Y
ĠD B
ond a
ĠPar agu
ĠSing er
w hat
fl ux
A h
m ime
ĠC ell
ĠMes a
= }
Ġp ec
Ġdirect ing
Ġlov es
ĠAnd rea
Ġgrad ients
Dis play
ĠV ale
ĠMar ÃŃa
Ġb ol
na issance
ĠJes se
ĠS K
16 2
Ġke V
m ot
Ġut ter
y on
ĠSte phan
Ġtact ics
Israel i
ĠC lement
inter pret
Ġcompar isons
C G
ĠK ann
s ave
act ing
ĠMal colm
p al
ĠMax im
m ock
ĠA sc
sp ects
ĠNap les
ik er
Ġshell s
Ġdream s
ĠC airo
Ġsymbol ic
config uration
ĠE ducational
Acc ount
ĠI X
Ġdesign ing
ĠMerc ury
ĠB end
ffic iency
ĠField s
" /
an an
Ġfilm maker
Â ·
ro ve
il ogy
ĠB ug
Ġimm une
grad ient
ific ant
an chor
}. $$
Ġret riev
is ers
Ġanom aly
Ġco arse
ian i
Ġpe ers
Ġd Ã©
Ġurg ed
Chang ed
b ing
Ġas ymmetry
ĠMon roe
ĠInt roduction
ĠChron icle
B ol
ĠChile an
Ġinc hes
Ã§ a
In formation
17 90
Ġsear ches
Ġam ended
l is
ool s
]{ ./
v ectors
16 9
ĠKos ovo
Ġcar ved
at ile
ĠRec ording
IS E
l ip
L ayer
18 22
cm d
Ġcomfort able
Ġdown stream
opt im
20 3
Ġrad iative
ia e
Ġdon ations
Ġdeleg ation
ĠA FL
th in
ath am
att ribute
os itory
}$ ),
Ġapproxim ations
Ġinsu fficient
M N
Ġhom ology
Ġil leg
ri ot
ĠApoll o
M Hz
ch ard
ĠLand roid
L I
ĠR as
Ġwhe els
Ġoptim ized
che l
ĠCor on
Ġm isc
ĠChem istry
Ġnurs ing
ann ah
ram id
ĠPl us
Ġdram atically
Ġup grade
Î »
cos h
ĠNe uro
Ġencourag ing
Ġcon form
r f
ĠV isc
P ark
Ġar rows
atter ing
Ġassert ion
Ġconcent rations
Ġesc ort
ES CO
e V
Ã¡ ndez
ĠSouth west
c v
ĠAr senal
ĠLith uanian
Ġthere in
A rea
od ium
Ġserv ants
Ġunemploy ment
Ġal pha
ĠRos a
St ruct
scal ebox
Âł Âł
Ġmultipl icity
ĠBra h
ĠPract ice
Ġm asks
ir ate
omet ime
ĠResp onse
y c
Ġaband on
Ġgod s
Ġmet aph
Ù Ī
Ġeval uating
ĠJane iro
ĠBol ivia
Ġ\\ \
") ]
A rab
h ouses
ç Ķ
M ic
g as
ĠSh ould
Pat tern
lym pi
L java
ĠJul ie
ĠSh im
ĠT oo
Ġmand ate
ĠHun ting
ĠHal ifax
Ġfer ry
arth y
ĠP am
ĠVirt ual
ĠStef an
clud e
ĠCar p
Ġboard ing
ĠZ ero
Ġge ographical
Ġinterpol ation
ĠS ever
Ġcell ular
ge ons
b il
Ġcom plications
Ġsingular ities
ĠG M
Ġbur den
Ġsur rend
bound ary
Ġm ansion
ik k
Ġexp atriates
Ġt idal
m apping
^* (\
D IS
c pp
ĠG av
)} =\
ĠH R
Ġviol ated
on ical
en able
rosso ver
ĠL ep
ĠBright on
ĠNew foundland
Ġbenef icial
ĠV ij
Ġreflect ing
23 5
ĠMe h
Ep isode
fl ies
Ġcycl ing
16 3
Ġtra iler
ugg ing
cer pt
S uccess
ĠMad agascar
Ġequival ently
ĠH ook
ĠTe h
ab atic
Ġpur ple
Ġsk ew
Ġdi ocese
20 8
+ $
Ġc ref
Ġrel iability
ĠKn ox
N ET
) ",
g ue
ĠHay es
Ġ' '
op rano
f u
? ?
Ġin quiry
Ġcontin ental
ĠStart ing
Ġthe olog
ĠCraw ford
Ġv ortex
th us
_ ->
ĠPatri ots
r brace
} '$
Ġcritic ised
ĠM essage
18 2
ĠF o
ĠAp plication
ĠRom ans
M NRAS
s it
Ġspace craft
FI LE
R oy
ĠB oolean
Ġpl ural
ĠMar cel
==== ==
Ġbatt ing
Ġfib ers
c orn
Ġsl ice
b ers
ĠPl at
Ġm ood
Ġest ates
Ġmotor cycle
}} _\
Ġpar ishes
Ġpat ches
small er
Ġemer gence
ĠAp ache
Re view
rac ed
rel ations
ĠTour ism
Ġillust rations
esc ue
z an
Ġpresc ribed
ĠH ag
ab c
fl uid
Ġcontin ent
ĠBl air
Ġneutr inos
ĠR up
at ro
om ers
Ġl aps
equival ent
Reg ion
ĠAss umption
ĠBav aria
ĠSebast ian
fe at
ĠMar co
}{ $\
Ġ ],
Ġtend ency
ĠL af
ort e
Ġreal m
Ġcalcul ating
Ġre print
class ical
Ġb acter
ĠMar qu
ĠWinn ipeg
ĠNAS CAR
Ġdef ect
ĠSil va
Ġcontext s
Ġprosec ution
Ġreg ards
U pd
annot ation
% ).
ĠD rew
ester day
ĠGriff ith
Ġc oding
AN T
}\, ,
Ġmob il
K en
Ġprocess or
Ġlogarithm ic
Ġ âĢĻ
at om
ĠS leep
ĠR oh
Ġautom ated
P a
Ġassert Equals
ount ers
ident ified
ĠN ixon
ĠTh ir
Ġn ortheastern
Ġun ited
Ġpl aint
ĠT aking
ĠOr d
Ġcollabor ative
Ġm ath
Ġsem in
Germ any
Ġgen uine
Vol ume
Ġsm oke
Ġback ward
erm ark
ĠN N
SI ZE
Ġpack ages
Ġcast ing
Ġresp ected
ĠRab bi
S on
Ġarm ies
r il
ĠAnn ie
V ec
Ġv ault
ĠN P
Ġwick ets
prot ected
r k
22 2
ĠMidd les
3 75
ĠFl oyd
Ġtrigger ed
Ġslow er
ak k
ym es
ĠThe odore
Ġtransmit ter
S ide
IT E
å Ń
Ġver ification
ĠG ur
iz ational
cl air
Ġbe ings
in her
es y
Ġre he
ĠMon ument
c yl
ĠH E
ĠMar itime
pat tern
Ġspons or
Cath olic
ĠA u
St ructure
Stud io
at omic
Sc ope
erv ous
Ġdisput es
f ootball
ĠS EC
ak o
ass adors
Ġob s
Ġdram at
ĠRoman ized
Ġlux ury
ĠR ever
ĠFred er
Sim ilar
ĠStrateg ic
S outhern
Ch apter
rack ets
Ġunve iled
m us
E ll
to ol
Ob j
Ġcons erved
^{ {\
system s
Ġc ig
art e
li ers
he ma
Ġcrit ically
Ġnom inal
Ġstory line
Ġd ir
ĠD ynasty
Ġout lets
ta iled
Ġselect ing
ĠJess ica
ĠB erm
ĠLe ipzig
ĠN iel
Ġpen alties
Ed ward
Ġg arn
Ġqu it
im ar
Ġvol untary
ĠPy thon
Argent ine
ĠM am
ĠErn st
Ġdoll ar
and i
ĠN orton
Ġasymptot ically
is odes
Ġant iqu
Go ogle
ĠBeat les
Ġl as
sw orth
U ntil
arri e
Sc ot
ĠW id
ĠArm s
Ġm aj
Ġprop ri
Ġrob ots
ĠGriff in
Ġtraff icking
Ġbatter ies
Ġsp ins
Ġdece ased
}$ :
Ġle ak
Fore ign
P ORT
ĠB agh
E lements
st re
ep pe
ĠN ode
ĠBul ld
d m
k ers
Ġf unc
ĠDod gers
o qu
ĠR id
Ġanticip ated
n il
Ġd ancers
ent on
Ġqu arks
Ġphot ometric
ĠGust av
ĠP ere
ĠW ings
Ġorgan ize
Ġall oc
Ġund ers
Ġpush ing
P rel
id ays
ĠB rent
Ġch ip
ĠRh ine
Ġemer ge
Ġwal let
Ġabbre vi
Ġnever theless
gl ass
Ġexp elled
on ey
- ,
v card
ĠBrown s
ill i
cles iast
appro p
Ġinsert ed
rape ut
Columb ia
ĠBet ty
Ġp el
ing ers
C ycl
ĠBe a
colon eqq
ĠT ell
ĠJul ius
ĠSem inary
ad apt
Ġco res
ĠW on
ĠPart ners
Ġbe ams
Ġvari ational
ĠMalays ian
ĠP ine
ĠG ates
Ġbass ist
s ided
ul in
Ġdro pping
S cale
Ġscreen play
pot ent
ul k
ĠBald win
pres ident
Ġpl enty
Ġse al
andid ates
ĠG an
orig in
Ġpubl ishers
] \\
daugh ter
ĠZ en
ĠBore l
y g
S lov
Ġapproxim ated
1 200
Ġadvis ory
ap o
ĠCrit ics
C opy
) },\
Ġturbul ence
ĠDor othy
Ġm sg
W he
f b
ĠCharl eston
Ġlock ed
o ine
al ions
Ġle x
Ġcan vas
ĠLib ya
vent h
Ġmetall ic
ag ent
ordin ates
G F
Ġbow l
ĠV oc
Ġdis advant
ur ious
cont roller
Ġsomew here
Select or
Ġconvent ions
Ġdetermin ant
ĠÂ «
Ġl ag
Ġsen ator
ĠElect ronic
ĠI z
X ml
ĠJ ourney
Ġteam mate
)$ $
Ġimm un
pt ons
Ġingred ients
ĠB in
ĠC anton
Ġfore ver
Ġp orn
ĠRe act
ct ica
Ġcon sec
Ġgram mar
Ġtr ig
18 27
( --
ĠMar ines
sup ported
ĠU C
ĠAp plied
SE L
Ġl oud
c ourt
L ists
Ġqu arters
An th
c as
ĠB eg
b atch
ĠS tern
Sw iss
Ġinstruct or
Ġa rose
Ġsur geon
Ġfin ancing
Ġdiscuss es
Ġcoordin ator
Ġf ier
any a
ĠB oh
Ġaccommod ation
Ġprotest ers
ĠL ipschitz
on o
Com par
Ġcolon el
Ã ®
Ġf o
Ġf u
less ly
Ġtox ic
N ick
l st
Play ing
Pl an
Ġcert ification
Ġco ordination
ĠDo es
N I
Ġqu bits
ann ers
-> ]
B it
The ir
ed ges
Ġd ign
Ġbom bs
Ï Ģ
Ġcapt ures
cur ve
v ation
ov al
Ġrec urring
Ġtransl ator
Ġfilter ing
hor izontal
Ġun pre
ĠJ ets
Ġsub urbs
Ġm eter
Ġcon ceived
sh adow
ident ifier
stit ute
Ġenc ounters
Â »
ĠL ines
Ġin ferred
Ġconv oy
ĠDra ke
Ġred und
ĠCl aude
ĠSpring field
grav ity
ĠS ustain
ĠB rain
t ake
3 25
Ġhar vest
t el
ignt y
ĠP ione
ub ern
ĠPant hers
ĠTanz ania
Ġk iss
ĠE aster
Ġdepend encies
ĠS ales
Ġpil grim
ĠD ifferent
ĠK ind
Ġapp end
uc a
Ġnob ility
Ġl ith
cess ion
18 16
Ã© d
Ġmass acre
Ġmet als
Ġs ab
Ġr am
18 23
ĠTh ames
Ġb ones
Ar ts
Ġ umb
Ġc ere
ĠW inner
Ġlab elled
s an
ĠC ash
ay e
ra ising
Ġl ord
Log ger
Ġenhance ment
T a
Ġrecre ational
Ġbreak down
ĠV it
rac es
Ġmission aries
Ġb racket
A BC
Ġref uses
Ġatt ained
ron es
ĠGreat est
rell a
ĠM Äģ
Wid get
n or
â Ĩ
ĠM oss
ow itz
ĠMahar ashtra
Ġtransform s
Ġce ase
Ġparticip ant
Ġmort ality
ur rence
ĠAr ist
ĠCl ara
Ġlong time
ĠChurch ill
Ġsouth western
Ġrobust ness
ĠY a
ĠInd o
ĠAn aly
atern al
Ġd b
am ar
ĠSt yle
ĠEconom y
ĠBo hem
Tur kish
big gl
ĠP u
the m
sc ore
Pack age
F a
em ia
Ġhar sh
Ã¼ ller
Ġvirt ue
Stat ement
~ {\
re lease
oc es
Ã¼ ck
Ġhero es
ĠV AL
M AP
Mean while
ur ally
Ġac claim
An alysis
Ġ$\ |\
ĠF O
Ġmod ulation
ĠFl ash
Ġarbit rarily
oc ide
21 4
Ġadv ancing
ĠCast ro
8 50
Ġeng ra
ĠN H
Ġphil osophical
ern els
Ġf action
Ġrenew able
ut z
com ed
ĠSch midt
ĠGram mar
A st
Ġpast or
ĠLe icester
ĠUrugu ay
16 1
Ġinv itation
ĠLyn ch
ĠO N
ond uct
Ġaccept ing
ĠL E
)} }\
Ġang ry
sh an
Ġlett ing
Ġgod dess
Ġrenov ation
J eff
S to
em por
Ġsubgroup s
16 4
ĠEv olution
ink i
)) =
ĠSch warz
ĠG ir
ich let
Ġcou rage
Ġreve aling
D iff
J SON
ĠF est
Ġorgan isms
Ð° Ð½
abet es
os ion
Ġinvari ants
Ġmet eor
ĠEston ian
_{ |
Ġexperiment ally
m itting
que ue
Ġadv ocated
@ \
x s
Time out
Ġend angered
Ġstat istic
tr igger
under brace
Ġ{ '
Ġtre ating
Ġmot ions
Ġun con
z on
Ġp ent
ĠEm il
B eh
Ġup ris
pl atform
he e
ex ports
ru ce
ĠJud a
ĠG lor
Ġdisc ount
Ġarch ives
T ABLE
unt ed
ĠR ifle
or get
P DF
Ġg ig
Ġgrad uates
ĠE yes
ĠCub s
by tes
Ġli ability
ĠGreen e
uns igned
ĠF alk
ĠPubl ished
f d
ĠCop a
ĠM ell
ĠK um
}$ ~
on ge
17 3
de velopment
Ġmiss iles
Ġf unny
Ġd ors
}} )\
ĠC ul
E astern
33 3
Ġrun time
Ġsail ors
Ġce iling
Ġap pl
Ġdeleg ates
app ly
at ched
Ġdispl aced
ĠP erm
ĠSy lv
ĠH appy
ĠEd win
Ġtra ged
ev ille
Ġacceler ated
Ġco herence
Ġaddition ally
Ġh i
arg ument
G rid
Ġsk ull
G reg
an ium
17 2
el ic
ĠT ank
Ph one
Ġplant ed
Ġdomin ate
ĠH oll
ce ive
Ġreb el
let cher
Ġart ic
ho e
Ġfood s
bigg r
ott ing
h d
}= -
ĠLeban ese
Alex ander
ĠCl aire
Fl ag
Ġed it
ĠGu jar
tem p
in z
Ste ve
Ġgar rison
ocol ate
N AS
_ ,
ĠCom pos
Sm all
ĠD ylan
k ip
18 19
et les
Ġpart itions
Ġst y
Trans action
W inners
Y es
Foot notes
re ason
J ava
Ġemploy ing
en ue
ĠVict ory
Ġte lev
ed ged
n ick
18 06
J ones
H u
ĠG ets
Ġe V
ĠM aking
4 80
Ġconvolution al
un ivers
int eger
Ġkilomet res
is ive
Cl oud
M iddle
and an
Ġcancel ed
}) :
ĠMem ory
Ġdec oder
ĠP om
bra him
ĠGarc ia
Ġoblig ations
M ake
V S
Ġen closed
Ġconcept ual
Serv ices
}) ^{-
ce ae
Ġcontest ants
ĠA bs
ol ent
D eb
Ġev olve
Ġpass ive
f ac
ĠAm ateur
Ġcheck ing
ĠAl leg
m g
Ġal ias
}{ !
22 4
Ġeth ics
Ġind ividually
od el
Ġsimpl ify
Ġprof ound
C rit
Ġp iv
ĠM ets
Ġm ere
ĠE y
W ang
Ð ±
ĠC ounsel
17 6
ĠH its
ĠChe ng
ĠJeff rey
ĠL ap
ĠG PU
ĠV eh
ĠDe velop
Ġcommand ing
Ñ ĸ
ĠG ov
ups ilon
ĠH ank
Ġsu ite
load ing
ĠMarsh al
! âĢĿ
j query
Ġpeace ful
key word
& #
C ost
Ġ ip
Ġcirc uits
Ġqual itative
Ġprom otional
ĠCD P
Ġsuff ix
F s
Ġs unk
ĠBel t
Ġturbul ent
ad ia
Qu est
Ġbal let
Ġdo zens
Ġple asure
{ |\
w itz
id ian
W ild
}) }{
ĠDe al
ĠWeb b
Ġn itro
Ġguitar ists
L arge
ĠEuro vision
Ġmon ks
Ġlic ence
ĠP omer
ĠVari ous
Ġcont raction
ĠMar ri
Ġdecl are
v ary
) )$,
24 5
Ġh tml
ex amples
Ġcomplet eness
Ġham let
ĠMichel le
m inton
Ġflex ibility
ĠWey l
O H
nt on
Ġl arvae
pro j
ass is
h ide
Ġgrate ful
object s
l ated
yl on
ur istic
Ġdo i
Ġbu ff
Ġmoment a
\" {
ĠC and
ĠChap man
Ġw ond
ĠĠĠĠĠĠĠĠĠĠĠĠĠĠĠĠĠĠĠĠĠĠĠĠĠĠĠĠĠĠĠĠ ĠĠĠĠĠĠĠĠĠĠĠ
Ġavoid ing
ograph s
ĠSuff olk
2 12
aff e
Ġpar a
Ġflow n
og on
Ġhard ly
Uk rainian
ĠH erman
] _{\
Ġcont our
ard ment
Ed it
Ġd ose
ant is
" `
Ġsup rem
Direct ory
D u
Q U
ĠAg ent
ĠAtl as
ĠJen kins
ĠS ometimes
3 40
Ġsac rifice
Ġic onic
Amer ica
fri ed
+ {\
ĠR ash
Ġrail ways
cle an
ĠC areer
ĠS it
Ġrev ived
ĠG A
ĠWe i
Ġbroad caster
and in
ĠW WE
cl ock
Ġreg ulated
G i
R ole
ĠH M
Ġcomp lementary
Ġstreng ths
( $\
Ġf ights
Ġthrow ing
}) ^{\
Ġmater nal
Ġcomp ly
F ind
Ġhe ct
ast on
17 7
hold s
ĠSol id
Ġb esides
ĠDar win
b ons
Ġar ithmetic
ĠSt rategy
sh ared
Ġsub mission
Ġinv ention
Ġp ic
to ols
æ ĸ
Ġback up
us hes
ope z
ĠBang kok
ĠFergus on
ĠG ian
f bb
Ġrep airs
ven ile
Ġdestroy ing
Ġclass room
ĠCol ony
ĠÄ Į
ĠB har
coll apse
ĠSpeed way
ell es
af a
Con v
ĠB ound
L im
Ġphysic ist
ĠApp eal
E nergy
Ġd ent
Ġex empl
os o
ĠRed s
Ġdepend ency
board s
and ez
ĠCon fig
ĠLad ies
haus en
Ġfin ishes
Ġtal ented
Ġhigh ways
ter ms
oupl ed
Ġd ys
Ġd ella
), \\
Ġper f
Ġmo ist
3 80
J S
se at
Ġpro spect
Ġsummar ize
ĠD iet
Ġimmig rant
Ġlack ing
Ġmos que
P ut
col lection
Ġnick named
cell color
Ġc s
ec onomic
Ð ³
ĠCa uchy
A K
ac ian
Ġrun way
Ġmach inery
rit ies
Ġepoch s
Ġthermod ynamic
+ }
Ġbre ed
ĠN etworks
ĠCatal ina
Ġb undles
st eps
Ġsure ly
it ches
Ġjust ified
- $\
it ated
por a
ĠJosh ua
ĠG DP
ĠMur der
ott age
AA F
Ġcut off
G aussian
L atin
en ko
Ġhe ll
Ġsubdiv ision
Ġpreced ed
C hen
ĠD up
Ġcook ing
ĠHero es
equ ilibrium
Ġnational ist
ĠHein rich
op us
Ġ ul
ĠCole man
Ġtr ucks
r int
E lections
der iv
ĠIss ue
F iles
18 17
oph on
ĠVeter ans
Ġaccording ly
ffbb bb
C amb
Com plete
D eep
ĠB un
ĠSt atus
Ġtri angles
ĠN ames
ut ory
Ġan arch
ĠGuatem ala
ĠK Ã¶
Ġm ud
part icular
ĠInt el
ä »
ĠTrib une
N ormal
ĠRel igious
Ġhabit ats
p edia
ĠBalt ic
D etails
Ġd orm
ĠS ara
Mem ory
ess ages
}, $
Ġair ing
ĠLat via
n ar
Ġst air
com parison
Ġanth ology
Ġtra vers
ĠSch ol
k le
Ġexpl ores
ĠVat ican
v dash
Im port
Ġtra ils
() ));
^{ *}
Ġlist ener
ĠEm irates
Def ine
X Y
Ġl ighter
ut ral
Ġfact ories
Ġadvoc ates
Ġrival ry
M ENT
Ġvalid ate
ĠP apers
ĠBro ck
comm ut
ĠSt alin
Ġnon profit
ĠB rom
ĠKenn y
T urn
17 1
ĠSc ots
ĠCh arg
Ġmark er
opter a
Ġinstance of
Ġflag ship
ic ion
Ġindic ation
Ġjud g
Ġinaug urated
Ġlect ure
Ġvol cano
á Ģ
ĠCom par
ĠSer ver
ine es
Ġcomm od
sh all
Ġdet ective
Ġmagn itudes
ĠPorts mouth
ak is
Ġtermin ated
r ÃŃ
Ġpro to
With in
ĠPruss ia
con c
lem en
min ent
Ġorgan izing
Ġ io
exp ect
Ġ )\
Ġre vel
ĠMan or
Ġsan ctions
20 6
Ġserv ers
Ġphilanth rop
Ġthe aters
ĠH our
Ġreason ably
ĠCoul omb
T race
cl iffe
ĠSt op
)$ }
ĠC over
ĠSpec ies
Ġdet ention
st als
ack nowledg
ĠNe umann
Ġfort ress
ĠT ucker
ĠMonteneg ro
ĠP all
ĠSub sequently
Ġbare ly
P F
Ø ¯
ĠV A
b et
the ir
Cent er
ĠÅ ģ
ĠG O
Ġle ver
ĠCow boys
ĠD A
att i
st ars
og h
ĠB ren
P od
S ix
clip se
Ġin tact
und ers
Ġtoler ance
ĠPro ducer
iod iversity
Ġt ong
le af
ĠC G
Ġdis abilities
ĠCitiz ens
ĠDo ct
ĠM B
st a
ĠV ector
cept ions
Ġsemif inals
Fran c
ĠWhit ney
F act
P aint
Ġinf ections
ĠS ard
Ġrev olt
Ġdef ects
make box
othe rapy
S ta
th y
Ġcler k
Ġsp at
ress ing
)$ )
Ġlimit ation
ĠWhe ther
ĠQuart et
Ġcom merce
Ġfactor ization
Ġloc als
p olicy
Ġper ipher
sche ma
20 7
S elf
f ollow
ess es
P ublished
isp here
Ġst uck
ts d
Mex ican
Ġref ined
Ġhang ing
ĠE R
ĠKer ry
ĠGael ic
ab ases
Ġendors ed
18 09
ĠCarn egie
Ġspr int
Ġwh it
ĠTe legraph
Ġeduc ators
on ce
97 8
the l
Ġdisput ed
ĠV ert
s ame
ĠSacram ento
Ġb acks
| {\
ĠC ities
ho ff
gl s
Ġsuggest ion
Ġrele vance
ĠD escription
ĠB L
ok i
ugg ed
ĠAr n
Ġdis charge
DB LP
ansk rit
Ġh iding
E s
Ġpen insula
ĠS ugar
Ġcre am
ĠE du
a un
ĠCont ent
ĠHaw ks
Ġrein force
represent ation
G Hz
Ġins isted
ĠK ane
ĠWin ston
Ġrel ie
X ML
Ġo wing
p ark
Ġtrac ed
ĠPap ua
Ġcelebr ity
ĠV ick
Ġapp endix
comm ons
ogram s
art ime
f ollowing
Ġd iving
ĠJ ag
Ġend e
Ġcon quest
Ġassess ed
Ġaccident ally
Ġclimb ing
Ġexerc ises
Ġexcess ive
Ġrook ie
Ġhol y
i ade
ĠN in
les h
d ou
Ġgl obe
ĠCov id
g iving
; /
Ġint elligent
c ot
rel ative
Ġsav ings
Ġac ute
Ġg ameplay
Ġsp y
ĠInst agram
ĠC raft
keep ing
cor relation
Ġincre ment
ĠBi ology
Vari able
id x
Ġsu ited
Rep ort
' }(
uv ian
ced ented
Ġrend ering
ĠThom son
ĠS ister
ĠX box
Ġb eds
ĠM ey
ĠProv idence
Ġrenov ated
ĠSof ia
g lyph
Ġpractition ers
Ġan xiety
d ens
Ġmar itime
Ġpers istent
Ġsubstr ate
d ated
ĠGard ner
ĠL R
att ices
are l
Ġpass word
ĠAct s
ĠKarn ataka
Ġsk et
rais ebox
Ġwavel engths
20 4
18 03
ĠSy racuse
ĠCase y
ĠEv ents
Ġmed all
e eq
B ottom
al one
it he
Ġsub species
hor se
ĠBrun o
og l
ex istence
Ġterm ed
ĠAnn iversary
Ġaw ait
ĠA us
og ical
ĠF uj
Ġeconom ist
ĠAr d
Ġb ot
et erm
Ġcollect or
w ings
Ġsit com
Ġw ages
Ġarchitect ures
ograp hed
ĠK rak
Ñ ħ
ĠB row
Ġf are
Bas ic
ich t
s ed
Be etles
Ġsp anned
Ġweak ness
| }{\
Ġconsult ing
al an
( !
ĠH ers
est ock
Ġcont amin
ray ed
ĠSc out
Ġapp ar
ag in
ah i
18 08
Ġenact ed
ĠWill ie
Ġsqu ared
Ù Ĭ
ĠMid lands
ĠSand y
m or
Ġimportant ly
Ġpostp oned
C orn
Ġstat s
ET H
Ġdeliver ing
ĠP itt
ib ia
Ġcal ibr
2 15
ed ly
ĠS Ã©
Ġcooper ative
ud i
Ġflow ering
Ġbelie ving
$ }\
ĠD ynam
al p
ĠFre eman
pher d
ĠRe agan
act ivity
Ġcum ulative
Ne ill
Ġt ags
Ġenc ode
ĠD erek
ĠOr t
ĠSh ak
Ġaltern ating
ĠX ML
ĠS uk
Y our
Ġsubmar ines
ĠM orm
ĠTrin idad
t rain
ĠW ave
rop olis
Ġbox er
ile vel
' +
21 3
AM P
Ġcerem onies
he alth
assert Equals
17 58
aver age
Con ver
Ġsp ans
G h
B Y
d eb
Ġn avy
Ġsub urban
Ġun e
Ġfl ora
F ederal
I EEE
ĠCle arly
ĠQu int
Sc ient
ma ch
Ġl over
Ġbas ement
Ġreview er
Ġmer ging
ĠUl ster
Ġatt ain
Rec ent
ĠJoh an
ĠFig s
Ġmamm als
)- (
Ġto y
ĠE b
Ġadm issible
Ġamb itious
Ġanaly zing
ĠBrand on
cre ated
g auge
ĠM om
te in
ĠRock y
Ġfort une
Ġcontribut or
al us
Ġfunction ality
Not Null
ĠH app
Ġkn ot
ĠM N
Ġg rab
Ġinv ersion
17 8
pl aced
() {
ĠX V
ist on
Ġquant ization
ĠBre nd
ĠTe V
ĠBoy d
ĠC ust
Ġpurs uing
F ish
K er
ĠY ah
Ġspec imen
ĠB ash
Ġdec ree
ĠSen ators
ĠLe vi
Ġax es
Pl ugin
e igen
Ġund erm
lin ec
ĠIS BN
O x
ĠTerm inal
, }
ĠB ard
Ġvacc ines
VER SION
ans on
Ġvi able
ore tical
Ġsy ll
Ġconvers ations
H ong
is ure
ĠH il
17 4
' ])
Ġemphas ized
Start ing
Ġcommerc ially
Ġdem o
v p
ĠCal vin
ĠKash mir
em ann
up ta
Ġvac ant
S K
clesiast ical
trans fer
Ġc ater
Ġtrans ient
ĠSh op
Ġanal ogue
f an
Ġinform al
Ġk ernels
Ġuniqu eness
Stand ard
By Id
Ġsim ulate
ĠMoh ammed
ĠIs abel
as ium
l oo
Ġb if
Ġmorph ology
L ear
ĠK od
Ġrec ount
ĠSc ript
Ġstat ute
Ġext rap
Ġres ur
* )
ĠCor por
Ġorigin ating
ĠMethod s
figure d
Ġmorph isms
ĠP ip
Ġp aired
ĠY uan
ĠQu inn
Ġin clusive
c in
w ara
Ġst ems
e cho
Ġph r
t p
Î ·
ag ogue
Ġte ch
18 3
Ġro d
Ġ Âł
ĠR iley
ĠC lem
17 9
Ġdes irable
D a
Ġh ung
Ġhe li
stitution al
Ġst ip
S ER
itt ers
resp ons
Ġd ump
Tex as
Ġhierarch ical
err ors
ION S
Ġpar abolic
Ġtarget ing
re ation
Ġn erve
Method s
Ġauth ored
D epend
Ġestim ating
al most
Ġrot ate
Ġly ric
w on
ĠW er
ĠBet ter
Ġknock ed
os ely
per ture
ĠSax ony
ĠMin i
Ġnorth western
Ġsol ic
ĠStat istical
b ol
t c
ĠR ao
âĢ ĭ
{- }
C NN
ec hes
zb ek
ogene ity
Ġs aint
ic ism
ph ones
Ġge ographic
Ġten or
Te ams
ĠL Ã©
Ġplan ar
J ournal
ĠE ra
Ġcont amination
R on
res olved
Ġb tn
With out
ĠCamb odia
Vis ual
Ġtrans fers
}$ &
18 05
ost ics
erv ille
Ġhand ball
ĠEn c
algorithm ic
D s
e astern
ast ings
Ġcy ber
second ary
ĠWol ver
Ġman or
assert Equal
L ord
ĠM illion
ĠLis bon
sc hed
Ġaccept s
Ġcha os
Ġent ert
Ġreport ers
Ġinf initely
ĠBut ter
Ġutil izing
w ere
ĠSett lement
ĠS ap
ĠAsh ley
y en
Ġexp end
ĠPat ricia
ĠAdv ance
Int eg
Ġf ut
ĠL on
}}{ (
ĠN ortheast
f re
Ġener get
ĠGib bs
Ad apter
al and
ious ly
Ġemploy s
ĠSher man
Ġc ivic
Ġlog ging
ring e
p ull
LO G
- )
Ġ Ã©
ĠGaz ette
Ġaccount ed
min o
head s
ĠHeavy weight
ighbor hood
Ġnew er
ĠBas el
Gener ic
ĠOcc up
d ynamics
Ġovers ee
) )}
s man
Ġsc reens
ĠFel ix
School s
l ceil
ar ra
ĠAud io
bur st
ĠSch w
period ic
Ġprom ises
18 07
di agonal
ĠÄ Ĳ
sh aw
Ġpar ade
Ġsm oking
ĠPart nership
18 04
Par se
Ġeight een
ĠS ED
sh ine
ĠM ile
AD D
di ocese
in qu
ĠGre ens
ĠW ong
Ġrev ision
weight ed
] }$
ĠK ob
Ġcru ise
Ġincred ible
Att ributes
Ġredsh ifts
ĠH ubble
Ġoscill ation
Ġmas cul
Ġsk ip
( (\
Ġde form
Ġab st
Ġpol o
Ġ! !
ĠU TC
Ġminim izing
art on
Ġpres umably
pl er
B and
Ġint ra
Ġtort ure
Conn or
}} ^\
d one
Ġassign ments
ĠBar ack
ĠWrit er
ass umption
ikh ail
atern ity
sc ribed
A bs
Ġqual ities
ĠSt rait
Tour ist
J P
Ġb ug
Ġcrim inals
m aps
olog ne
P enn
ĠH ang
unn els
18 4
Ġreg ret
ĠAtt ack
Comm un
Al gorithm
al bum
Ġ[ -
ĠComp anies
ĠChe v
Ġreven ues
ĠAg u
, [
ĠUnder ground
keep ers
integ ral
ĠMad h
Ġdemonstr ating
Ġansw ered
Ġhas n
}\, .
v ine
Ġar ist
Ġide ology
ĠStre ets
p arser
ch art
Ġspons orship
ĠPan el
IP T
Ġam alg
Ġwel comed
ing ale
Ġr ushing
is se
ĠMar athon
âĢĿ )
K M
ĠCont ract
Ġconstruct or
ĠC N
ĠD ock
Ġmar ble
arc sec
e er
it as
Ġ} _{
s il
Ġcar b
Ġsimultane ous
Ġb ike
Ġder ives
R os
ĠTim othy
ĠAT P
ĠHam pton
Ġgra ins
Ġhand ful
rosc opic
ĠAl g
Ġfail ures
us z
ĠReg ular
Ġun m
CH ECK
ĠH undred
Ġexclud e
Ġresemb les
Ġancest ry
Ġreg iments
r ceil
set up
ĠG am
Ġsh rub
F G
Ġemb assy
ĠSupport ing
ubb ard
ĠH utch
bb ffbb
in sp
Ġdiv ine
Ġte aches
ĠG rav
rest rict
Ġaut omorphism
ĠBegin ning
17 98
3 65
udd y
m r
ĠL und
Ġp ension
Ġmet re
wart z
ĠB P
ĠSh an
aut s
). $
p ic
ĠZ hu
ĠV ander
ram er
27 5
Ġmer gers
p ub
ĠB ast
sub ject
Ġrep ly
ĠMy stery
Ġreleg ation
ĠK le
ĠSp ot
Ġincorpor ates
ĠĠĠĠĠĠĠ Ċ
ne ider
ĠRe lease
Ġdemonstr ations
10 24
ĠB attery
ĠLa ur
Ġtub es
ĠC ave
Ã¨ ne
Per formance
: [
f lex
ĠDecl aration
Ġrefuge e
m ud
F ri
Ġher b
h aul
Ġconv ince
Ġn ervous
^* ,
Ġdiff e
Ġair ports
B oston
ĠP sy
Ġtro phy
Ġcomprom ise
sup set
Ġf aint
ĠRaf ael
us ually
)\ |_{
]) ).
fil ename
Ġdoctor al
b ug
App ro
sp orts
ris k
f orth
Ġac ids
Ġperturb ative
rag ed
Ġb ail
E lection
ĠK ais
ĠSac red
} --
Ġr ider
_{\ {
Ġnot ions
ĠStand ards
led on
Ġexperi encing
n os
ba um
ĠN ou
. ][]{
ĠT ah
Prim ary
. <
Ġany more
Ġche ap
)) );
B BC
Ġinvent or
Ġsh aft
Part icip
le ad
ĠF ear
Ġint rig
ĠFig ures
m and
ĠP arent
Ġcrown ed
Ġw eren
Gener ator
orget own
Ġanaly st
ĠI TV
Ġsome how
Ġlim estone
ĠÐ ²
ĠSal em
Art ists
ĠBan ach
Ġapart ments
ĠP D
ĠLe one
@{ }}
ĠPl ain
Ġcont ing
Ġ Ø§
ĠR ough
ĠCl ose
d ar
Ġautom obile
pred ict
ag ain
Ġtra uma
Ġevery body
Con stant
ĠSup erman
ĠAntar ctica
ĠPr ide
M ixed
re pe
ĠVern on
end e
Ã©t ico
Ġch ances
17 00
Ġout s
Se lection
$ ^{\
à¤ ¾
sc ience
Ġcorrespond ent
Ġsubject ed
isc hen
d h
im pro
Ġel ong
Ġsubt le
Ġv iral
Ġbre ach
ĠAberde en
, âĢĻ
Ġn m
ĠLeg acy
il us
ĠSim ple
math ring
An imation
B ank
bour g
Con clusions
Ġcharg ing
Ġf oster
Ed ge
d ong
Ġapp s
Ġlaunch ing
Ġh ack
Ġqu ote
Ag ain
Ġdec iding
Ġalt ar
olith ic
ur c
Ġperm its
cer to
Ġ% }
ft en
ced ure
at u
Ġobserv ers
V V
erm o
ĠPoint s
Ġhypot heses
Ġamb ient
hand ler
= |
To String
Ġport al
pl ays
17 93
t ol
Ġg ifts
Col lections
ĠMer cedes
M os
th rows
Ġflow ing
cent ric
Ġmaxim ize
50 1
18 11
ĠM T
ĠFer ry
}} }}
ĠCam ero
do es
ĠProt ocol
Ġl oses
ert ation
ĠColomb ian
associ ated
ĠM ilit
Ġbos ons
23 1
Ġsk illed
Key s
Pier re
ĠG ymn
Ġposit ively
anth a
$ ~\
ĠN HS
Ġsc hema
Vir gin
ĠL ing
Ġwork force
Ġsequ ential
ĠR oma
ass ic
Î ¼
Ġto kens
18 6
P ress
ĠAle ks
ĠG aza
Ġodd s
Ġjump ing
ĠV or
Ġt ensions
F ace
ĠUN ESCO
se lection
Ġo ak
}{ -
Ġcost ume
Ġrecre ation
ĠMark eting
at able
order ed
Ġw ound
ir ling
)$ ;
Ġinject ive
M sg
h ist
Ġgra ce
O UT
ĉ ĠĠĠĠĠ
ĠInd oor
Ġpredict s
Ġscreen ed
t m
? )
C roat
ĠW ire
Ġcycl ists
ĠF iji
ĠD art
Week ly
Ġre dd
ĠP iet
Ġinteg rable
. __
l ap
\, $
Ġdomin ance
Ġd ub
inter est
Ġrepl ied
ĠLank an
proto buf
Ġtrump et
Ġsub scription
Ġaest hetic
Ġf ears
Ġresc ued
urg ical
Eng land
ĠGarc ÃŃa
Ġsk ating
uff le
Ġfe ather
ĠSh aron
Ġpath way
ĠBur ma
over view
o ise
f x
ĠP owers
ĠV all
att ed
ĠEst abl
Ġemb arked
Ġab olition
Ġlack ed
ra j
ĠH ip
Ġl ac
ĠR ag
oz o
Ġenlarg ed
Ġc f
ĠO lympi
Ġxml ns
v ian
ĠB le
Al t
ĠP ale
ĠOl iv
Ġpec uli
b irds
ĠY osh
j ob
Ġind ie
Ġunpre cedented
c ence
Ġl od
ad j
}\ )
30 1
ĠAv iv
Ġsovere ignty
17 89
B G
Ġal beit
ĠOri ental
Ġdiscipl ines
iform es
ĠW rite
ĠM are
ĠR ole
Ġif f
f itting
Ðµ ÑĢ
ĠBulld ogs
Ġpartnership s
ĠR ip
Ġle ather
ST AR
ĠConstantin ople
w ik
Ġg aming
ST AT
ty ped
29 0
Ġred ist
Ġen umer
Par is
ĠGeorg es
17 94
Ġret rieve
ĠA ve
Over all
ĠG ott
te br
ĠId ent
Ġsuper hero
k ernel
ĠG raph
Ġgovern ors
L u
ew ater
Ġbl acks
oint ed
re port
os i
Ġjust ify
ĠSte am
ĠDrag ons
ĠR w
20 9
Ġoccup y
om al
l p
Ġconduct ivity
Ġres ides
w u
Ġl anes
Ġpromin ence
B all
Ġc ord
Ġph ones
ĠElect oral
ĠPear son
Ġjew el
ju ana
oul os
elf th
Me V
R am
n at
Ġl ang
Conn ect
M as
ĠTh ing
ĠBe au
Ġill umin
Ġcouncil s
pl ain
Ġcomp ass
ret ch
he id
n ian
ĠS ach
Ġnecess ity
++ ;
ĠPrim era
Mount ains
ĠCount ies
ĠSic ily
Ġbl ast
AS H
Ġp av
ur us
Ġprob abilistic
ĠAd ult
ath lon
Ġinf ant
ont ology
ĠClin ical
H al
Ġrefer enced
Ġconsum ed
Ġpair wise
al ore
itor ium
Ġtrain er
Ġscript s
ad v
Ġwant ing
K it
Ġfor um
.\ ]
Ġst int
g ins
Mar ie
pro ps
Ġbroad ly
cor r
he ed
ĠM VP
ĠParad ise
Ġment or
Ã¨ res
ĠPart icip
Histor ical
ĠNeg ro
C art
ĠSh annon
cached L
Ġde leted
D ar
L ag
P ot
ĠC yp
per m
Ġ[ ];
Ġst ays
anc o
ĠE V
ĠEmb assy
Ġdefic it
NavBar Cell
upedia Data
cachedL upediaData
chang ing
Prot ocol
Ġsoc io
Ġinvert ible
ic ates
ĠD ul
Ġexpress ing
uche ss
od on
ch oice
Ġancest ors
\\ [
Ġs ink
by e
ĠJup iter
ĠTunis ia
Ġfunction ing
id y
Ġhost ile
scal ar
Ġexcell ence
30 3
Ġter restrial
Ġdiv isor
Ġres et
ĠT ODO
ru z
ĠCom ic
ĠTeh ran
ĠG os
bal ance
K ore
Ġint ensive
Ġ[ ],
Ġ[ ...]
ĠDeut sche
B AR
or is
ĠJuda ism
ĠB oat
Ġtrans cript
ĠHait i
ĠB org
ad os
per formance
ĠN ass
Ġconc aten
g reat
L iga
Ã ²
ĠJ et
Ġmod ulo
Ġrec ycl
T am
Ad am
Ġmerch ants
Ġcry stall
Ġpr ide
ĠW inc
17 80
Ġmet abol
Ġem itted
Ġsp otted
n odes
er ial
ut f
Ġconcent rate
ip el
Ġfro zen
land ers
geq slant
vel ocity
Ġsn ake
form ula
ob t
b eq
ĠR ise
Ġabund ant
Ġforb idden
__ _
Ġlisten ers
18 02
co e
Ġmon ster
Un like
23 2
Ġafford able
anish ing
ĠVolunte er
ĠI M
UT F
ĠReb ecca
ud ed
hook rightarrow
en heim
ĠConf ederation
the ning
bat im
A k
Ġir rig
ĠPier ce
Ġfold ed
Con tact
Ġfac ade
ĠL ub
ĠTe en
ĠBry ant
ĠUlt imate
b red
ĠP ool
Ġk een
el man
Ġvis itor
Ã³ pez
ot ta
Sc roll
\% ,
pro port
Ġz eros
ri que
aw k
play ed
R og
Ġmes on
}) +
Ġkick ed
an as
ber ra
Ġinter faces
ĠMod els
r ath
ĠW ander
m eter
att ributes
Ġreal izes
Ġpossess es
Ġp neum
Ġpro claimed
ĠLe af
Ġrel ied
ĠR he
list ing
Ġsl ide
Ġl ane
Ġcolle ague
ĠQ uality
sat z
ĠWor cester
) ||
ĠD ixon
Ġd iox
ant ed
Ġn od
Ġg astrop
x it
Orig inally
j p
un ov
ĠR NA
method s
Ġb arg
Ġcontest ant
( .
Ġst iff
Ġanal ogy
F D
Ġsac rific
pp ers
17 92
D OC
Ã¢ te
h on
Ġaggreg ation
Ġsub stitution
W at
Ġall ied
N i
al gebras
ĠS ind
ĠE z
e lements
y ards
Ġion ization
ĠAlex andra
Ġd well
ĠC W
EX T
Ġcreat ures
Ġdis hes
ĠDise ase
res et
Ġshe ets
ĠTechn ologies
x t
Ġredes ign
Ġtrem end
P lease
r ational
ĠT ate
C irc
Ġaf raid
Ġfav ored
ĠHy dro
ĠT rial
ĠDocument ary
F ive
build er
=" @
Ġsuggest ions
Ġenroll ment
Ġge ography
ĠDream s
B ang
b inding
res ources
Ġbreak through
ast ro
ĠSouth ampton
ure n
year s
ĠO le
S creen
00 3
K al
ab ar
ĠPl ains
Ġlength y
Ġrelig ions
Ġal ly
Ġn ic
ĠBar oque
Aust rian
Ġeth ical
m ak
ĠS ect
l ooking
own ers
Ġre opened
l ane
u ant
Ġs el
ĠP eg
cl amation
Ch urch
ĠBad en
ĠBuck ingham
ab ella
ps frag
B V
ĠH ours
Sh ape
Ġpuls es
Div ision
Ġharass ment
Ġchar itable
ĠMon ica
Ġtransl ates
ĠPat rol
ary a
Ġacc redited
od ied
ĠL al
Spr ing
Ġp ine
b h
Ġde pr
ĠPar ade
Ġt ales
Ġbutter fly
Ġcor rupt
Ġd rown
ĠY ard
p ole
ĠT ian
Ġpre ferences
ĠCare y
D anish
c ole
ĠR ising
she et
urg ery
» ¿
ĠM orton
ĠDet ective
N ULL
Ġf riction
Cor ollary
= &
)) ^
H all
I ss
ĠF ashion
l um
ĠB uk
part s
[ ]{
Ġas ymmetric
Har vard
Ġgall eries
ĠS ally
ee le
Ġg i
ĠR andy
Ġsched uling
ĠSant o
Ġaccum ulated
R od
ther mal
ĠĠĠĠĠĠĠĠĠĠĠĠĠĠĠĠ ĠĠĠĠĠĠĠĠĠĠĠĠĠĠ
Ġenthus i
[ :
ĠHerm ann
Ġposition ed
Äģ n
O rd
Ñ Ĩ
ĠJ orge
ĠClif ford
Ġp enn
ĠL uk
Ġs addle
ĠKnow ledge
t mp
Ġc ob
sv g
Ġfru its
ĠC arson
Ġd ining
ĠJan et
Ġast roph
Ġpos ed
Ġbound ing
Ser bian
R andom
utt gart
iat ric
ce q
Ġin land
Ġabund ances
Ġfix ing
ĠRober to
ĠHy per
ĠN umer
17 95
Load er
Ġacknowled ges
Ġw rapped
ĠMcC arthy
Ġimag ery
Ġplate au
s emi
ĠW ade
Ġpress ures
Ġharm ony
ĠF resh
Ġc rossover
Ġtra its
ĠPet erson
ĠL uck
be am
En um
ĠV ish
Ġpartner ed
ĠD ee
). \
vert ical
ĠBudd ha
j ani
ro ps
Ġro uting
ĠU P
ue bl
ĠÅ ½
ĠK och
18 1
c io
il ateral
Ġseason al
Pro xy
Ġsustain ability
ĠSch r
ID E
ĠM atter
ĠM und
ĠMong ol
Ġparad igm
Ġf ractions
Ġspl its
wh ose
ĠD re
ĠM oor
ĠHels inki
Ġdest inations
prot ocol
Ġ Ñģ
ĠOffic ers
Ġc af
Ġ} (
23 4
T en
âĢ ħ
Ġphot ometry
Ġres olutions
ob ic
", "
an ic
ĠL iz
ĠNic arag
b rief
Ġp ier
Ġsens ing
ĠS ue
ĠH ear
ph ysical
St op
ĠÄ °
ĠCec il
ĠPatri arch
ĠA U
ry n
Ġpol ls
ĠGl ad
40 1
ĠSl am
Ġdoub led
y log
ma ha
Ġaster oid
ĠU CLA
Ġphilos ophers
ĠZag reb
ĠRep orts
Ġc arn
3 70
sm ith
E u
ĠY ok
Ġanomal ous
ĠV and
ĠChrist ine
Ġshort est
ch id
tt i
emb les
Ġt orsion
ĠC V
ĠW R
Ġra ids
ĠBl og
Ġt uber
ar at
Ġschol arly
Ġj umps
Ġlin er
I gn
Ġrub ber
ill ary
ĠRec ently
Ant i
et us
ch at
Ġtrad emark
Ġiter ative
ĠR A
H ub
ĠW AR
Ġany way
Ġdep ot
On line
ĠBeaut y
get Name
Ġrein forced
Ġcr ust
Ġess ence
ĠHann ah
ĠEns emble
Ġaut onomy
spect rum
Ġb ab
ĠT arget
ĠTur k
ĠTor res
) _\
Pl aces
Ġappeal ed
ĠV augh
ĠRoad s
ĠRec ent
Ġsh ifting
ĠRol and
B ell
at isf
ĠC ult
qu ark
Sh arp
ĠG E
Ġv ort
Ġh ab
ĠM t
ĠUnivers ities
d etail
ĠT oul
ĠHum ph
it ism
Art icle
i ating
Ġaud ition
j ah
ĠGand hi
22 7
ĠKrish na
B rian
d k
Ġdimension less
ĠKu wait
] +
it ality
ans en
sl ide
l ich
ĠF letcher
ih ad
ev olution
om ore
Ġde an
F ocus
ï »¿
}: \
ĠLeop old
S ync
Ġdist ribute
ĠD im
Micro soft
unct ors
ib ald
T i
ĠU I
Ġinn ocent
Ġdiscrep ancy
ĠIn put
Ġhaz ard
l ot
Ġtransp arency
Ġdissip ation
Ġre per
Ġgl uon
ĠH uss
ĠAn imation
esp ecially
Ġlingu istic
ĠC lean
ĠTh r
inc ar
ĠMc Cl
G irl
Ġres emble
type of
Ġb rackets
ĠEuro pa
Ġceleb rities
m are
Po inter
O t
ĠSid ney
ĠS ale
Ġsurrend ered
Ġinf ect
ð Ł
et es
Ġnot ations
opt ers
Ġtheorem s
Point s
ae a
ĠEl is
Ġw ished
M ask
ĠC otton
T aylor
ĠFrances co
ĠToy ota
ull a
Ġsw ept
U ST
ĠR ig
Ġdiv iding
Up per
Ġvisc osity
es que
ĠW ords
ĠP T
arn a
ĠP ole
T yp
yn a
D igital
ĠR S
F ailed
Ġhar bour
Ġref inement
E t
ĠEv il
ĠLaure nt
ĠM iy
P en
ent ropy
app ings
Ġconstit utes
ĠH ed
Count y
17 99
Ġfin est
p ubl
RE S
ĠCauc as
L ook
oper ative
RE AD
ĠAut om
ty mology
ral tar
Ġaltern atives
ote chn
ĠNew ark
ĠHam mer
Ġsovere ign
C AC
Ġo re
ĠD epend
f el
Ġstar ter
Ġc ement
incip al
ĠM ental
ep p
ĠAdminist rative
ut ations
Ġint im
., ][]{
Ġteen ager
inn aeus
R ace
Ġret aining
Ġhe aling
Ġprofession ally
triang leq
ales e
jo ined
19 1
ih ar
ĠP ray
Ġover time
ank ar
Ġex clusion
add ed
ĠGeoff rey
on ica
ĠPl atform
ĠPer forming
Ġs ubl
ĠL ima
orth y
serv ices
Ġpolar ized
ĠAd olf
ĠD olph
ĠEld er
M apping
30 5
Ġin ception
le et
Ġgeneral ize
ter a
C as
FFFF FF
M OD
30 4
nd on
Ch urches
rab ility
d dot
00 4
Ġremn ants
Hel p
A gent
Ġas ylum
Ġbuild s
Ġpres idents
ius eppe
S ample
c ass
Organ izations
Ġst ance
Ġro oted
d ed
Ġter rible
ĠJ ub
Ġs ued
ĠN W
ass embly
requ ired
ok esp
40 4
ib us
() ).
Ġf ever
Ġhol idays
ĠO K
Ġh ire
Ġcomp ress
Ġpropos es
ÅĦ ski
Ġtraged y
Line ar
å Ĳ
b rowser
ĠT ry
mar ine
Ġcov ariant
Ġret rieved
ĠT aj
ĠMic he
Ġspectrosc opy
Ġemig rated
}= -\
Ġoptim ize
Ġsecret ly
ĠM ink
Ġsh oes
ĠAd S
ch apter
Ġvol canic
ĠMoh ammad
Ġes cal
ĠAct ive
Ġexcit ations
ident ial
ĠPre vention
ĠJoy ce
Ġsub family
We ight
ĠBer gen
del ay
od o
Ġe lem
ph oon
Ġinter rupted
ac io
Ġperspect ives
b ins
ĠO ce
ĠK ai
Ġtim eline
pl anes
ĠCongress ional
ĠKy iv
ul atory
ĠPro perties
Ex pr
Ġthreat ening
OM E
ĠA IDS
lass ical
col lect
Architect ure
17 76
art en
ov Ã¡
It aly
Ġwhere by
iter ator
ĠHol ly
Scot land
Ġlandsc apes
t itled
ÃŃ s
. }}
ĠF ol
Ġancest or
ĠR escue
ĠHon ey
Ġupris ing
che t
ĠRaj a
c one
Ġh int
Ġre pository
ĠE N
ĠJ as
Ġste ering
Ġple ased
Ġreject ion
Ġaugment ed
Ġdescend ant
, $$
Ġim posing
Ġins urg
Ġsem antics
Ġfl ies
Ġr het
Ġorche str
ĠC umberland
Ġre lying
Ġex otic
olog ic
ĠGl ac
n om
ĠOs aka
Ġad i
Ġfresh man
ĠB ian
ĠF i
Ġnar rator
2 16
t k
Ġpione ering
um per
ĠShe ll
ceed ings
ĠD uck
Å ¼
Ġprem ium
in ians
Ġtrunc ated
rew s
Ġoblig ation
j ournal
ĠPo ems
Ġspectrosc opic
w ould
Ġsp elling
ong s
pm od
o op
ĠBu ilt
E U
ĠArch ived
Ġc anton
22 6
un ks
ĠSt okes
im plies
ex pr
. ",
Ġdec oding
Trans form
Ġs ap
dec l
M i
ĠW A
ĠGu adal
Ġmarket ed
com be
Ġdon ation
Ġimpact ed
R M
Ġhe aven
Ġd w
Sim on
olk ata
work ing
Ġbicy cle
. \,
unc iation
Ġmy st
Ġepid emic
ĠJack ie
ar ine
ĠH TTP
ĠChen nai
Ġsepar ating
contin uous
Ġbatt alions
Ġquad rup
% "
nt hesis
Ġpr incess
ut i
w ana
Ġal arm
Ġrig orous
à ¹
ĠD ors
Ġhe ated
Ġinvest or
Ġinv aded
ĠD uchy
ĠSlov ak
\ @
ĠM iz
ov sk
Ġloyal ty
S and
b age
over rightarrow
ĠRic ci
ĠH BO
ĠBeaut iful
ĠT in
B rand
ĠTel ugu
fill ed
Ġg ases
ĠK ok
Ġfl ute
ĠAngel a
Ġexplo itation
Ġreson ant
Ġt weet
ex isting
ĠRiemann ian
u en
F N
Ï ħ
Ġw orm
ĠR O
ĠBre tt
Ġa perture
ot ics
CO MP
en abled
Ġconstit uted
Ġcrew s
Ġexceed s
ĠA sp
ĠD S
ine z
ĠAugust us
W N
c ool
ĠB irds
Ġf n
ĠA ce
ĠB uc
Ġrecon naissance
Ġnarrow ly
Ġp ocket
Ġrest art
S us
Ġposs essed
Ġdestroy ers
uls ive
) ">
Ġres il
Ġfac ial
Ġgroup ed
//////////////// ////////////////
T aking
ĠC it
Ġsil ence
Ġgar age
M ach
ĠHam mond
Disc ussion
w omen
Med ical
Ġsc orer
AR S
ĠPri est
Ġb arn
ĠA SS
se in
Ġtask ed
William s
Ġm akers
rog ate
Ġkid ney
){ $
ĠBron cos
ĠAltern ative
pro gress
ĠCon rad
ĠC ounter
R ot
Ġw artime
ĠMov ies
ĠP ag
26 4
b inary
ĠE T
Ġinters ections
the o
Ġend point
Ġhold ers
ign e
Ġprev ents
Ġsp elled
ĠG ad
ĠNorth western
Ġcollect ively
ĠPhot ography
Ġaut obiography
Er r
ĠTibet an
ĠH ok
Ġst rang
Ġph armaceutical
strument al
ĠC ir
Ġm igrants
Ġpro long
Ġtum or
other wise
pre v
}^{ *
ĠEven ing
Ġev olving
ĠDen is
Ġnot orious
ĠJ ah
Ġp owder
ĠTel escope
ĠS G
ĠSt ro
Ġmut ation
pl ots
Ġsupposed ly
att en
Ġliter al
ĠC ologne
clud ed
ĠCol lections
Ġprior i
ĠMaur it
P ad
ĠL abel
Ġ" ...
ĠC ros
ĠW is
ram s
Ġcor pus
ĠBe ast
air d
Ġprecip itation
Ġspat ially
with in
ĠHol iday
Ġswim mer
ĠE W
}} -\
B rowser
Ġassoci ates
ĠI E
ep ler
ĠBull s
ĠIO Exception
~~ ~
ĠDavid son
ĠH ew
Sym fony
t f
ĠIn ner
Ġsp ark
Ġcompat ibility
Ġb rane
Ġre actor
dot ted
Ġnitro gen
Ġe y
ĠBron x
ĠTal iban
Comput er
=" ${
Ġt ender
Ġc inemat
ĠL uz
ĠEx tra
Cont ents
Ġmicrosc opic
ĠCzechoslov akia
ĠK ick
ĠV on
imb ledon
ĠSav age
Ġind ef
ĠN J
t ags
Ġag ing
j iang
F ramework
Pr ince
Ġsum mon
at as
Ġcontact ed
ĠCons umer
17 96
Î º
ĠÃ ĩ
Ġt ap
Ġh alls
ire ment
inos a
Ġdiagn ostic
Sp ain
Ġdist ortion
Ġbl ame
Ġt ile
Ġsex ually
ĠJackson ville
ĠG Hz
oph yll
elect ron
Ġan at
Equ ation
M ov
od i
Ġsec urities
Ġwhe at
P ATH
{ }\
ex ual
Ġvers es
Ġaver ages
][ '
ĠVen us
ĠPhill ies
Ġres ided
ĠInt eger
Ġcombin atorial
ĠR um
Ġb ust
Run time
ĠC rom
ĠR Ã©
Ġ" -
3 10
os ures
Ġm aker
ĠS ki
Ġheav ier
Ġor phan
dec om
ĠPhill ip
M att
R NA
ĠPruss ian
g ic
Ġded ication
Ġobst acles
ow l
IG HT
F unc
ĠD uff
Ġra ises
ĠS equ
ĠA id
Ġl unch
ĠTh ink
Ġoff shore
Â ²
ilt ers
I J
y ar
ĠSt ark
Ġprot ective
Addition ally
L ic
M ir
ĠS anskrit
ĠD res
Ġcivil ization
ĠSieg e
Ġec ological
ãģ ®
ĠPer haps
roph ic
Ġpract ically
ĠH omer
ĠD ion
ĠN em
rom atic
iss ued
Sh ould
comm issioned
Ġadop ting
| }\
Ġblock ing
ĠO DI
Ġm asters
cons istent
Ġdiox ide
S und
ĠCh amp
Ġdat abases
Ġex changes
Ġatt itudes
ff cc
ĠM ira
m ov
p ure
Ġdis gu
Ġpost ing
Ġpal m
Ġplanet ary
E tymology
ĠS QL
.\ ,\
an ese
Ġem power
Ġlit igation
ĠRes olution
Ġprint s
H ind
ĠK atherine
ylog en
h of
fer m
Ġdestroy er
ĠCh ambers
mem ory
Rem ove
Ġt iles
Ġthe rap
Ġbus h
ib i
Ġnon negative
ĠR ost
ĠG B
Ġas pir
Ġ= ========
Ġcycl one
ĠHe arts
Ġarray s
Ġsem igroup
ĠR B
Ġcompet itor
ĠRecord ings
Ġteen age
Ġm ills
q a
Ġspecific ations
Ġmagnet ization
C u
ĠArab ian
ĠAb stract
ĠColl abor
st orage
ĠI CC
Ġl acks
bas is
Ġad verse
Step hen
I AL
icult ural
Ġre written
, ...
es i
Ġb ure
Ġout going
Pr ime
Ġunsuccess fully
ĠMy ers
Ġca ution
ĠD ust
dis k
ic ides
ph on
gu ard
Ġthe ft
Ġknock out
ĠH yp
Ġfront ier
Ġimp lying
ĠD ry
Ġpubl ishes
Ġpay load
Ġwork place
Ġcomment ator
Ġtrust ees
Ġdifferent iable
Ġsec uring
idd ing
Atl antic
ĠE rik
Ġspec ially
Ġdec oration
Ġcell o
L ew
23 8
row ave
Ġman ually
ĠSp in
Ġtem p
Ġ> >
ä ½
ĠY i
ĠZ ach
ĠHy der
ĠEvery thing
ĠW ins
ĠBrad y
ĠHart ford
17 97
Ġski ing
f air
Ġre habilitation
ĠSt range
C ong
pi res
r z
Ġc it
ĠH osp
F rag
Ġcommand ers
Ġorg ans
Ġfulfill ed
el ius
ĠPort rait
ford shire
ĠA CT
Ġ" '
ĠMc D
22 3
son ian
ĠMon ter
cy cles
wer p
}-- \
develop ed
Ġmod ulus
Gold en
ĠDir ichlet
Ġse ating
}} ;
Ġup stream
Ġcho oses
Ġcelebr ations
Ġse as
Ġun fold
Ġboy friend
con tact
ĠF ROM
link ed
eb ack
Ġspokes man
ĠP ablo
Ġwarm ing
ri ent
Ġcor ollary
Ġmut ually
Ġrem ake
RE E
test ing
Ġconst rain
ĠEv an
Å ĳ
Ġphys i
Ġcycl ist
ĠTon ight
ĠE L
Ġsm ugg
Ġbox ers
larg est
Ġdegrad ation
prov ider
Ġdeb ris
m k
Ġc ass
bl ank
inter action
ĠVisc ount
Ġrep ublic
ist ries
}) }{\
Ġapprec iate
Ġc ube
}: =\
Ġremark ed
Ġincl ination
hen ce
exp ression
ĠRev enue
Ġv est
ĠVik ings
Ġconsolid ated
vent ional
uz zy
Ġdomin ates
B rad
26 5
Ġw isdom
err ill
-------- ----
ĠWilliam son
O k
Ġmind s
ĠHuman ities
Ġappe als
Ġmother s
ast ically
ĠH ollow
S ax
or ah
G ate
Ġrelax ed
n od
Ġvill ain
ard y
R om
cc ffcc
Ð¾ ÑĢ
ff ff
ĠAm anda
ĠWeb ster
j j
ĠL Ã³pez
99 9
Municip alities
ĠD unn
ĠD owntown
ĠCan berra
Ġre ef
ad ays
Ã¡ lez
ĠMÄģ ori
Ġtor que
t rad
ĠL ars
ĠSc andin
| $.
Ġle verage
t ier
}\ |_{
eyn man
M IN
ĠD ag
Ġimplement ations
ĠT ale
l c
ĠHy de
b rown
[...]
