{"[UNK]":0,"!":1,"\"":2,"#":3,"$":4,"%":5,"&":6,"'":7,"(":8,")":9,"*":10,"+":11,",":12,"-":13,".":14,"/":15,"0":16,"1":17,"2":18,"3":19,"4":20,"5":21,"6":22,"7":23,"8":24,"9":25,":":26,";":27,"<":28,"=":29,">":30,"?":31,"@":32,"A":33,"B":34,"C":35,"D":36,"E":37,"F":38,"G":39,"H":40,"I":41,"J":42,"K":43,"L":44,"M":45,"N":46,"O":47,"P":48,"Q":49,"R":50,"S":51,"T":52,"U":53,"V":54,"W":55,"X":56,"Y":57,"Z":58,"[":59,"\\":60,"]":61,"^":62,"_":63,"`":64,"a":65,"b":66,"c":67,"d":68,"e":69,"f":70,"g":71,"h":72,"i":73,"j":74,"k":75,"l":76,"m":77,"n":78,"o":79,"p":80,"q":81,"r":82,"s":83,"t":84,"u":85,"v":86,"w":87,"x":88,"y":89,"z":90,"{":91,"|":92,"}":93,"~":94,"¡":95,"¢":96,"£":97,"¤":98,"¥":99,"¦":100,"§":101,"¨":102,"©":103,"ª":104,"«":105,"¬":106,"®":107,"¯":108,"°":109,"±":110,"²":111,"³":112,"´":113,"µ":114,"¶":115,"·":116,"¸":117,"¹":118,"º":119,"»":120,"¼":121,"½":122,"¾":123,"¿":124,"Â":125,"Ã":126,"Ä":127,"Å":128,"Æ":129,"Ç":130,"È":131,"É":132,"Ê":133,"Ë":134,"Ì":135,"Í":136,"Î":137,"Ï":138,"Ð":139,"Ñ":140,"Ò":141,"Ó":142,"Ô":143,"Õ":144,"Ö":145,"×":146,"Ø":147,"Ù":148,"Ú":149,"Û":150,"Ü":151,"Ý":152,"Þ":153,"ß":154,"à":155,"á":156,"â":157,"ã":158,"ä":159,"å":160,"æ":161,"ç":162,"è":163,"é":164,"ê":165,"ë":166,"ì":167,"í":168,"î":169,"ï":170,"ð":171,"ó":172,"ô":173,"Ā":174,"ā":175,"Ă":176,"ă":177,"Ą":178,"ą":179,"Ć":180,"ć":181,"Ĉ":182,"ĉ":183,"Ċ":184,"ċ":185,"Č":186,"č":187,"Ď":188,"ď":189,"Đ":190,"đ":191,"Ē":192,"ē":193,"Ĕ":194,"ĕ":195,"Ė":196,"ė":197,"Ę":198,"ę":199,"Ě":200,"ě":201,"Ĝ":202,"ĝ":203,"Ğ":204,"ğ":205,"Ġ":206,"ġ":207,"Ģ":208,"ģ":209,"Ĥ":210,"ĥ":211,"Ħ":212,"ħ":213,"Ĩ":214,"ĩ":215,"Ī":216,"ī":217,"Ĭ":218,"ĭ":219,"Į":220,"į":221,"İ":222,"ı":223,"Ĳ":224,"ĳ":225,"Ĵ":226,"ĵ":227,"Ķ":228,"ķ":229,"ĸ":230,"Ĺ":231,"ĺ":232,"Ļ":233,"ļ":234,"Ľ":235,"ľ":236,"Ŀ":237,"ŀ":238,"Ł":239,"ł":240,"Ń":241,"Ġt":242,"in":243,"he":244,"Ġa":245,"on":246,"er":247,"ĠĠ":248,"Ġthe":249,"re":250,"at":251,"en":252,"or":253,"Ġs":254,"an":255,"al":256,"Ġo":257,"is":258,"it":259,"es":260,"ed":261,"ar":262,"Ġw":263,"Ġc":264,"Ġf":265,"Ġof":266,"nd":267,"Ġin":268,"ion":269,"Ġp":270,"Ġb":271,"ic":272,"ing":273,"as":274,"le":275,"ro":276,"Ġand":277,"ĠĠĠĠ":278,"Ġd":279,"Ġm":280,"Ġto":281,"ou":282,"ent":283,"el":284,"il":285,"ct":286,"ĠS":287,"Ġh":288,"et":289,"am":290,"st":291,"om":292,"Ġ\\":293,"ĠC":294,"ĠT":295,"Ġre":296,"ol":297,"ĠA":298,"ig":299,"Ġth":300,"ation":301,"Ġ(":302,"Ġ$":303,"ra":304,"Ġn":305,"Ġl":306,"im":307,"Ġe":308,"ot":309,"ĠM":310,"iv":311,"id":312,"ur":313,"ce":314,"Ġis":315,"ch":316,"Ġfor":317,"ut":318,"us":319,"ĠB":320,"ly":321,"ad":322,"Ġg":323,"ĠI":324,"ĠP":325,"ers":326,"Ġon":327,"20":328,"ow":329,"19":330,"ul":331,"ir":332,"em":333,"ĠH":334,"ith":335,"Ġbe":336,"ter":337,"ay":338,"Ġas":339,"Ġst":340,"un":341,"âĢ":342,"um":343,"ĠR":344,"Ġwas":345,"ist":346,"ĠF":347,"{\\":348,"ĠD":349,"ĠL":350,"th":351,"ab":352,"Ġwith":353,"ĠThe":354,"ver":355,"Ġthat":356,"se":357,"ag":358,"ĠĠĠ":359,"Ġcon":360,"qu":361,"Ġal":362,"od":363,"and":364,"her":365,"if":366,"ĠĠĠĠĠĠĠĠ":367,"ĠN":368,"ĠW":369,"ĠG":370,"Ġby":371,"Ġv":372,"Ġan":373,"ri":374,"ac":375,"op":376,"Ġpro":377,"est":378,"ĠE":379,"ate":380,"end":381,"res":382,"Ġat":383,"os":384,"rom":385,"Ġwh":386,"igh":387,"oc":388,"Ġde":389,"ity":390,"ect":391,"av":392,"ath":393,"ĠĊ":394,"ĠJ":395,"_{":396,"up":397,"ap":398,"Ġcom":399,"ain":400,"eg":401,"art":402,"Ġfrom":403,"ub":404,"ies":405,"Ġit":406,"all":407,"ew":408,"ill":409,"Ġhe":410,"ore":411,"ĠO":412,"Ġ$\\":413,"Ġex":414,"ec":415,"'s":416,"ort":417,"ight":418,"Ġare":419,"ud":420,"ess":421,"ph":422,"ant":423,"ction":424,"ure":425,"ber":426,"ial":427,"Ġor":428,"ex":429,"ine":430,"ge":431,"čĊ":432,"ak":433,"ment":434,"ian":435,"math":436,"ive":437,"ĠU":438,"Ġ\"":439,"ĠK":440,"ld":441,"ich":442,"ip":443,"ard":444,"The":445,"nt":446,"ran":447,"ep":448,"ia":449,"Ġ&":450,"ated":451,"201":452,"âĢĵ":453,"og":454,"our":455,"Ġ=":456,"ov":457,"ary":458,"pl":459,"Ġpl":460,"ass":461,"Ġch":462,"}\\":463,"ame":464,"ell":465,"und":466,"Ġwe":467,"fer":468,"ĠSt":469,"}$":470,"200":471,"ical":472,"Ġr":473,"ue":474,"ĠIn":475,"iz":476,"^{":477,"ear":478,"ite":479,"ust":480,"ong":481,"cl":482,"Ġsh":483,"ast":484,"Ġsp":485,"Ġy":486,"Ġle":487,"ign":488,"ug":489,"pt":490,"Ġhis":491,"ult":492,"per":493,"),":494,"ition":495,"are":496,"Ġcomp":497,"Ġcl":498,"ĠV":499,"Ġse":500,"ft":501,"ord":502,"ave":503,"ire":504,"age":505,"Ġwhich":506,"Ġnot":507,"ks":508,"ref":509,"Ġus":510,"orm":511,"sp":512,"ff":513,"rac":514,"ost":515,"Ġthis":516,"ĠĠĠĠĠĠĠ":517,"00":518,"Ġk":519,"uc":520,"Ġ|":521,"so":522,"ĠCh":523,"ish":524,"enc":525,"ere":526,"ations":527,"ext":528,"ther":529,"ma":530,"ens":531,"18":532,"ta":533,"mer":534,"int":535,"}}":536,"(\\":537,"pp":538,"Ġ-":539,"ack":540,"ric":541,"ence":542,"Ġun":543,"Ġwhe":544,"Ġalso":545,"ide":546,"ions":547,"Ġwere":548,"ous":549,").":550,"ry":551,"ime":552,"erv":553,"ond":554,"to":555,"egin":556,"Ġhas":557,"Ġcont":558,"ace":559,"ĉĉ":560,"ork":561,"Ġhave":562,"ib":563,"begin":564,"ie":565,"ang":566,"cal":567,"tern":568,"able":569,"=\"":570,"low":571,"port":572,"irst":573,"ild":574,"out":575,"Ġar":576,")$":577,"ome":578,"ice":579,"In":580,"Ġ||":581,"ach":582,"Ġcan":583,"ount":584,"Ġad":585,"_{\\":586,"ase":587,"Ġab":588,"ory":589,"act":590,"Ġ<":591,"rit":592,"cc":593,"ĠTh":594,"ru":595,"ĠUn":596,"âĢĻ":597,"ok":598,"over":599,"Ġj":600,"own":601,"ĠHe":602,");":603,"Ġpart":604,"}{":605,"ould":606,"Ġim":607,"wo":608,"ind":609,"erm":610,"ound":611,"ates":612,"ey":613,"ree":614,"form":615,"right":616,"ener":617,"Ġres":618,"Ġ{":619,"hed":620,"Ġone":621,"199":622,"ile":623,"old":624,"Ġro":625,"frac":626,"rm":627,"ational":628,"Ġplay":629,"Ġfirst":630,"ents":631,"clud":632,"ors":633,"amp":634,"ĠIt":635,"ĠY":636,"ik":637,"equ":638,"urn":639,"ance":640,"eq":641,"},":642,"Ġtheir":643,"Ġhad":644,"10":645,"uch":646,"Ġwho":647,"pe":648,"text":649,"ual":650,"ely":651,"ĠâĢĵ":652,"Ġits":653,"ubl":654,"Ġdis":655,"the":656,"ress":657,"Ġapp":658,"Ġbut":659,"ng":660,"Ġall":661,"--":662,"fter":663,"abel":664,"orn":665,"rad":666,"rib":667,"Ġte":668,"ater":669,"Ġper":670,"ences":671,"ll":672,"we":673,"ob":674,"ark":675,"Ġtwo":676,"ics":677,"inal":678,"</":679,"Re":680,"mathb":681,"any":682,"ss":683,"Ġrec":684,"..":685,"ĠĠĠĠĠĠĠĠĠĠĠĠĠĠĠĠ":686,"land":687,"te":688,"row":689,"vel":690,"aw":691,"pro":692,"Ġother":693,"ons":694,"Ġag":695,"ican":696,"Ġsc":697,"ef":698,"ugh":699,"Ġev":700,"eop":701,"Ġpre":702,"Ġout":703,"eta":704,"ose":705,"$,":706,"Ġme":707,"les":708,"ject":709,"iss":710,"Ġdes":711,"ĠâĢ":712,"label":713,"cite":714,"ool":715,"ont":716,"//":717,"Ġmod":718,"ied":719,"Ġyear":720,"ited":721,"eople":722,"Ġbeen":723,"Ġher":724,"Ġbec":725,"Ġqu":726,"ivers":727,"$.":728,",\\":729,"iel":730,"Ġup":731,"left":732,"mathcal":733,"ings":734,"Ġ*":735,"Ġover":736,"ember":737,"Ġnew":738,"ased":739,"198":740,"one":741,"du":742,"lect":743,"oint":744,"ferences":745,"rans":746,"equation":747,"ari":748,"Ġob":749,"ular":750,"oot":751,"amb":752,"Ġcomm":753,"Ġtime":754,"Ġthey":755,"Ġif":756,"ilm":757,"Ġinclud":758,"gh":759,"Ġsy":760,"under":761,"fig":762,"ict":763,"ps":764,"Ġ}":765,"ollow":766,"}.":767,"ward":768,"Ġass":769,"Ġind":770,"oy":771,"ram":772,"Ġen":773,"Ġmore":774,"12":775,"cent":776,"raph":777,"Ġclass":778,"})":779,"merican":780,"ix":781,"uring":782,"ield":783,"Ġcons":784,"Ġset":785,"Ġdef":786,"imes":787,"ata":788,"}(":789,"ĠĠĠĠĠĠĠĠĠĠĠ":790,"ood":791,"Ġint":792,"ution":793,"ake":794,"vi":795,"Ġwork":796,"Ġcol":797,"References":798,"sh":799,"Ġbet":800,"17":801,"ĠNew":802,"Ġinter":803,"Ġreg":804,"ative":805,"Ġinto":806,"ock":807,"ve":808,"ans":809,"Ġsub":810,"~\\":811,"red":812,"olog":813,"Ġwhere":814,"Ġwill":815,"line":816,"ĠCom":817,"ail":818,"}^":819,"io":820,"arg":821,"ral":822,"Ġ+":823,"ert":824,"ann":825,"197":826,"Ġrel":827,"15":828,"Ġform":829,"Ġdo":830,"}_":831,"16":832,"unction":833,"ĠAl":834,"Ġret":835,"Ġwhen":836,"Ġfollow":837,"roup":838,"com":839,"aus":840,"anc":841,"round":842,"Ġafter":843,"pha":844,"resent":845,"Ġunder":846,"pr":847,"umber":848,"ee":849,"Ġpol":850,"Ġonly":851,"Ġoff":852,"ince":853,"let":854,"ball":855,"ren":856,"ough":857,"ode":858,"Ġsuch":859,"ever":860,"da":861,"Ġsup":862,"ific":863,"ty":864,"Ġco":865,"chool":866,"Ġact":867,"Ġloc":868,"alpha":869,"ities":870,"Ġso":871,"ween":872,"Ġacc":873,"ublic":874,"Ex":875,"ident":876,"ĠMar":877,"Ġexp":878,"Ġkn":879,"Ġthere":880,"ray":881,"cess":882,"orld":883,"oth":884,"ade":885,"Ġdist":886,"eth":887,"ists":888,"ating":889,"rough":890,"Ġpeople":891,"\">":892,"ick":893,"stem":894,"Ġatt":895,")\\":896,"Ġpr":897,"Ġwould":898,"way":899,"Ġshe":900,"ax":901,"der":902,"Ġthan":903,"ĠAr":904,"Ġdif":905,"ĠThis":906,"Ġthen":907,"Ġsec":908,"21":909,"ision":910,"ring":911,"Ġ[":912,"duc":913,"Ġserv":914,"Ġbetween":915,"als":916,"mb":917,"very":918,"ĠĠĠĠĠ":919,"ished":920,"sc":921,"li":922,"of":923,"Ġabout":924,"196":925,"ily":926,"Ġfilm":927,"Ġlin":928,"outh":929,"oh":930,"ne":931,"ined":932,"St":933,"wn":934,"Ġpos":935,"gan":936,"iversity":937,"Ġph":938,"Ġconst":939,"elta":940,"Ġstud":941,"eb":942,"Ġgener":943,"Ġsome":944,"con":945,"Ġest":946,"ames":947,"hip":948,"abl":949,"$\\":950,"ambda":951,"Ġresult":952,"Ġval":953,"Ġinv":954,"ĠPro":955,"tt":956,"ev":957,"ures":958,"ton":959,"ury":960,"14":961,"ize":962,"ason":963,"Ġ'":964,"ys":965,"13":966,"ĠAmerican":967,"pos":968,"oci":969,"Ġshow":970,"Ġbu":971,"Ġyou":972,"âĢĿ":973,"amma":974,"ĠZ":975,"ook":976,"hat":977,"ins":978,"ull":979,"ts":980,"Ġtra":981,"ise":982,"hes":983,"Ġprov":984,"its":985,"ox":986,"elf":987,"Ġused":988,"mathbb":989,"eed":990,"Ġtrans":991,"ally":992,"air":993,"Ġmost":994,"irect":995,"ments":996,"Ġfunction":997,"Ġany":998,"ient":999,"**":1000,"oun":1001,"ah":1002,"orth":1003,"_\\":1004,"dition":1005,"man":1006,"Ġsim":1007,"ection":1008,"=\\":1009,"}_{":1010,"Ġrem":1011,"ature":1012,"Ġspec":1013,"part":1014,"ruct":1015,"mu":1016,"ĠSh":1017,"Ġthem":1018,"ues":1019,"ism":1020,"sub":1021,"ility":1022,"dot":1023,"ove":1024,"igma":1025,"ike":1026,"Ġcent":1027,"ife":1028,"Ġmodel":1029,"ternal":1030,"Ġ\\\\":1031,"ho":1032,"Ġra":1033,"Ġno":1034,"11":1035,"hen":1036,"cre":1037,"Ġman":1038,"}^{":1039,"ower":1040,"Ġyears":1041,"ash":1042,"emb":1043,"ĠInd":1044,"ĠDe":1045,"reat":1046,"22":1047,"ement":1048,"194":1049,"cept":1050,"\",":1051,"Ġthrough":1052,"ĠCol":1053,"ider":1054,"Ġpar":1055,"-\\":1056,"ĠLe":1057,"Ġhim":1058,"Ġend":1059,"Ġfl":1060,"apt":1061,"ega":1062,"get":1063,"Ġagain":1064,"col":1065,"att":1066,"Ġreturn":1067,"put":1068,"Ġac":1069,"Ġed":1070,"lem":1071,"ern":1072,"az":1073,"Ġnumber":1074,"Ġsystem":1075,"overn":1076,"Ġequ":1077,"195":1078,"ale":1079,"Ġent":1080,"min":1081,"ĠUnited":1082,"itt":1083,"Ġfound":1084,"Ġbl":1085,"app":1086,"ible":1087,"ĠQ":1088,"inn":1089,"phi":1090,"ĠUniversity":1091,"^{\\":1092,"Ġfe":1093,"set":1094,"arn":1095,"Ġmay":1096,"Ġthese":1097,"ized":1098,"Ã©":1099,"ĠFor":1100,"30":1101,"Ġthree":1102,"uss":1103,"Ġwell":1104,"eng":1105,"aj":1106,"Ġmat":1107,"Ġdiffer":1108,"ĠAn":1109,"Ġeach":1110,"ĠWe":1111,"ional":1112,"velop":1113,"ier":1114,"Ġinst":1115,"Ġcor":1116,"eries":1117,"ouse":1118,"Ġduring":1119,"ron":1120,"25":1121,"align":1122,"ple":1123,"ute":1124,"ars":1125,"Ġresp":1126,"Ġext":1127,"lection":1128,"ator":1129,"Ġgiv":1130,"lambda":1131,"Ġsing":1132,"Ġeff":1133,"Ġsign":1134,"aid":1135,"Ġpoint":1136,"ype":1137,"Ġ.":1138,"ĠâĢľ":1139,"ootball":1140,"ract":1141,"Ġfam":1142,"Ġteam":1143,"Ġam":1144,"pi":1145,"Ġour":1146,"Ġsm":1147,"Ġsecond":1148,"Ġgroup":1149,"ĠCl":1150,"==":1151,"ĠSc":1152,"rict":1153,"Âł":1154,"Ġcall":1155,"Ġoper":1156,"arly":1157,"ays":1158,"Ġ{\\":1159,"ause":1160,"ten":1161,"ĠSp":1162,"Ġrep":1163,"ret":1164,"Ġart":1165,"Ġsur":1166,"erson":1167,"Ġmon":1168,"Ġline":1169,"ines":1170,"Ġgo":1171,"Ġrele":1172,"ina":1173,"mathbf":1174,"Ġboth":1175,"usic":1176,"bf":1177,"Ġlead":1178,"owever":1179,"ober":1180,"ilon":1181,"Ġmade":1182,"yn":1183,"Ġsame":1184,"Ġcur":1185,"Ġname":1186,"Ġpublic":1187,"iver":1188,"Ġuse":1189,"ived":1190,"sum":1191,"Ġvari":1192,"Ġlinks":1193,"ural":1194,"Ġmin":1195,"ices":1196,"Ġhigh":1197,"Ġstate":1198,"ĠEng":1199,"ript":1200,"ohn":1201,"ather":1202,"gy":1203,"Th":1204,"Ġchar":1205,"other":1206,"Ġbeing":1207,"idth":1208,"Ġdec":1209,"pen":1210,"ote":1211,"Ġappro":1212,"ets":1213,"ĠAs":1214,"uth":1215,"fl":1216,"Ġdata":1217,"istory":1218,"Ġplayers":1219,"Ġback":1220,"ained":1221,"Ġpartic":1222,"Ġcount":1223,"()":1224,"par":1225,"Ġprob":1226,"ĠCon":1227,"Ġcre":1228,"ĠStates":1229,"eter":1230,"Ġdirect":1231,"Ġwhile":1232,"000":1233,"Ġmed":1234,"sigma":1235,"External":1236,"bar":1237,"enn":1238,"ley":1239,"Ġpop":1240,"Ġfollowing":1241,"Ġem":1242,"rent":1243,"iving":1244,"\\\\":1245,"Ġmany":1246,"ically":1247,"ilde":1248,"section":1249,"ages":1250,"ĠShe":1251,"Ġsol":1252,"----":1253,"sy":1254,"fore":1255,"Ġperform":1256,"omen":1257,"ired":1258,"^{-":1259,"ization":1260,"Ġwrit":1261,"Ġdifferent":1262,"bum":1263,"ants":1264,"ĠIs":1265,"Ġcase":1266,"Ġdesc":1267,"ology":1268,".\"":1269,"atic":1270,"ross":1271,"ulation":1272,"irc":1273,"Ġknown":1274,"Ġ(\\":1275,"son":1276,"Ġdisc":1277,"ces":1278,"24":1279,"}{\\":1280,"ĠComm":1281,"Ġlater":1282,"beta":1283,"Ġdevelop":1284,"ept":1285,"Ġterm":1286,"ograph":1287,"Ġnon":1288,"rid":1289,"by":1290,"ths":1291,"ĠX":1292,"Ġmov":1293,"ĠCount":1294,"Ġrecord":1295,"+\\":1296,"une":1297,"ink":1298,"eps":1299,"Ġbefore":1300,"Ġfour":1301,"mathrm":1302,"au":1303,"Ġstr":1304,"ource":1305,"val":1306,"Ġmain":1307,"ected":1308,"*}":1309,"Ġorder":1310,"23":1311,"gamma":1312,"ethod":1313,"Ġseason":1314,"Ġincluding":1315,"Ġschool":1316,"\".":1317,"Ġtr":1318,"uro":1319,"Ġfield":1320,"Ġrequ":1321,".,":1322,"ck":1323,"ounc":1324,"ague":1325,"We":1326,"vent":1327,"ĠOn":1328,"ott":1329,"ission":1330,"Ġbir":1331,"here":1332,"ared":1333,"rho":1334,"Ġlong":1335,"ĠAd":1336,"ĠBl":1337,"Ġprodu":1338,"Ġran":1339,"Ġfin":1340,"led":1341,"193":1342,"gram":1343,"Ġconsider":1344,"Ġi":1345,"Ġstart":1346,"ality":1347,"ĠFran":1348,"ved":1349,"Ġfootball":1350,"Ġx":1351,"Ch":1352,"view":1353,"mp":1354,"ĠJohn":1355,"aking":1356,"arri":1357,"ister":1358,"ives":1359,"ĠJan":1360,"ample":1361,"Ġbel":1362,"ĠĠĠĠĠĠĠĠĠĠĠĠĠĠĠ":1363,"ĠPh":1364,"ĠNational":1365,"ains":1366,"ternational":1367,"ĠWorld":1368,"ĠMay":1369,"Ġagainst":1370,"Ġsmall":1371,"Ġestabl":1372,"Ġalbum":1373,"vert":1374,"Ġcontin":1375,"Ġorig":1376,"50":1377,"Ġgiven":1378,"Ġown":1379,"ases":1380,"array":1381,"ful":1382,"err":1383,"oo":1384,"ively":1385,"^\\":1386,"Ġusing":1387,"plic":1388,"theta":1389,"leq":1390,"yle":1391,"for":1392,"Ġseries":1393,"]{":1394,"ially":1395,"ually":1396,"ior":1397,"Ġsince":1398,"->":1399,"els":1400,"ank":1401,")}":1402,"overnment":1403,"arge":1404,"serv":1405,"Ġsupport":1406,"Ġsaid":1407,"urch":1408,"delta":1409,"Ġfact":1410,"ĠAust":1411,"Ġ/":1412,"til":1413,"Ġdet":1414,"ĠPl":1415,"me":1416,"item":1417,"quad":1418,"chn":1419,"cdot":1420,"ask":1421,"Ġbecame":1422,"Ġget":1423,"ai":1424,"Ġbuild":1425,"$-":1426,"Ġgu":1427,"mm":1428,"tau":1429,"lev":1430,"vers":1431,"Ġright":1432,"Ġfinal":1433,"Ġcare":1434,"Ġelect":1435,"Ġcould":1436,"ke":1437,"sec":1438,"inc":1439,"rist":1440,"yp":1441,"duced":1442,"ital":1443,"isc":1444,"ots":1445,"Ġrun":1446,"Pro":1447,"Ġdr":1448,"}$,":1449,"Ġnow":1450,"Ġfamily":1451,"iam":1452,"ĠCar":1453,"Ġ:":1454,"Ġpres":1455,"ians":1456,"figure":1457,"}$.":1458,"formation":1459,"ĠBrit":1460,"ange":1461,"ency":1462,"arch":1463,"ĠCan":1464,"ĠCounty":1465,"big":1466,"Ġsever":1467,"ĠWar":1468,"arrow":1469,"ified":1470,"eqref":1471,"umn":1472,"ience":1473,"Ġopen":1474,"Ġpolit":1475,"}(\\":1476,"rand":1477,"ery":1478,"ival":1479,"Ġdesign":1480,"ĠSchool":1481,"ĠâĢĶ":1482,"uary":1483,"times":1484,"ĠYork":1485,"Ġbecause":1486,"ĠNov":1487,"ining":1488,"ĠRe":1489,"Ġcommun":1490,"27":1491,"Ġsee":1492,"ĠJu":1493,"2010":1494,"ĠSouth":1495,"Ġlike":1496,"ffic":1497,"Ġann":1498,"26":1499,"orks":1500,"Ġjust":1501,"|-":1502,"ety":1503,"ĠOr":1504,"28":1505,"Ġeffect":1506,"Ġexper":1507,"por":1508,"lex":1509,"Ġmet":1510,"Ġrepresent":1511,"ĠGerm":1512,"Ġvi":1513,"ris":1514,"Ġsong":1515,"Ġrece":1516,"Ġadd":1517,"Ġbased":1518,"ĠAss":1519,"af":1520,"embers":1521,"Ġpresent":1522,"Ġz":1523,"iqu":1524,"Ġbro":1525,"Ġdeath":1526,"amed":1527,"Ġdescrib":1528,"Ġprof":1529,"ugust":1530,"ĠCent":1531,"ĠEx":1532,"Ġ//":1533,"ane":1534,"oad":1535,"alth":1536,"rop":1537,"var":1538,"Ġdep":1539,"Ġlist":1540,"eptember":1541,"ajor":1542,"fty":1543,"center":1544,"ided":1545,"ĉĉĉĉ":1546,"Ġuntil":1547,"ven":1548,"Ġcalled":1549,"oss":1550,"Ġlife":1551,"Ġwhat":1552,"partial":1553,"ica":1554,"On":1555,"def":1556,"infty":1557,"width":1558,"Ġlocal":1559,"rang":1560,"Ġneed":1561,"ĠPar":1562,"Ġevery":1563,"tilde":1564,"wards":1565,"med":1566,"Ġcharact":1567,"ctober":1568,"ium":1569,"ird":1570,"ĠAt":1571,"ting":1572,"Ġmusic":1573,"2016":1574,"ĠAnd":1575,"Ġchild":1576,"Ġdid":1577,"read":1578,"ration":1579,"ampions":1580,"Ġorgan":1581,"nu":1582,"2015":1583,"ĠGe":1584,"2014":1585,"Ġvalue":1586,"ĠMarch":1587,"oid":1588,"Ġoffic":1589,"Ġvery":1590,"Ġlarge":1591,"2011":1592,"ĠTe":1593,"ument":1594,"sk":1595,"mber":1596,"Ġarea":1597,"ner":1598,"Ġprocess":1599,"Ġel":1600,"raw":1601,"Ġprogram":1602,"29":1603,"ised":1604,"pril":1605,"2012":1606,"2018":1607,"ĠAugust":1608,"ribut":1609,"Ġsuc":1610,"100":1611,"ĠSeptember":1612,"istor":1613,"rack":1614,"epend":1615,"Ġ</":1616,"omega":1617,"Ġincre":1618,"ĠPol":1619,"It":1620,"2017":1621,"Ġne":1622,"|\\":1623,"umb":1624,"ĠEuro":1625,"oard":1626,"Ġap":1627,"Ġseveral":1628,"ament":1629,"resp":1630,"rol":1631,"2020":1632,"Ġ@":1633,"lege":1634,"pm":1635,"Ġlaw":1636,"arm":1637,"Ġworld":1638,"ability":1639,"2013":1640,"oman":1641,"reen":1642,"lement":1643,"ious":1644,"Con":1645,"rt":1646,"ilt":1647,"Ġmethod":1648,"Ġnear":1649,"born":1650,"ĠJanuary":1651,"urther":1652,"vious":1653,"eqn":1654,"Ġthose":1655,"ĠOctober":1656,"ness":1657,"40":1658,"Ġ,":1659,"iness":1660,"Ġlast":1661,"Ġpass":1662,"Com":1663,"lish":1664,"ĠAll":1665,"Ġstat":1666,"))":1667,"cember":1668,"../":1669,"Ġeven":1670,"ae":1671,"ended":1672,"2019":1673,"Ġhel":1674,"Ġresults":1675,"Ġreport":1676,"use":1677,"ĠJune":1678,"Ġocc":1679,"ĠWh":1680,"Ġproper":1681,"Ġtop":1682,"color":1683,"Ġgame":1684,"ĠPr":1685,"orem":1686,"Ġstruct":1687,"Ġposs":1688,"2008":1689,"',":1690,"::":1691,"Ġrest":1692,"etw":1693,"aces":1694,"ĠJuly":1695,"Ġformer":1696,"ctions":1697,"Ġalong":1698,"rix":1699,"che":1700,"Ġplace":1701,"ĠRep":1702,"Ġoriginal":1703,"ĠAustral":1704,"ately":1705,"ony":1706,"Ġgeneral":1707,"bl":1708,"ĠApril":1709,"Ġobt":1710,"Ġdue":1711,"2009":1712,"Ġanal":1713,"atch":1714,"span":1715,"angu":1716,"Ġmult":1717,"Ġallow":1718,"ides":1719,"ĠThey":1720,"xi":1721,"Delta":1722,"ued":1723,"Ġplayed":1724,"Ġsingle":1725,"ĠNorth":1726,"Ġleft":1727,"ody":1728,"ves":1729,"Ġobserv":1730,"ĠState":1731,"Ġstand":1732,"Ġbound":1733,"agn":1734,"ĠNovember":1735,"Ġpower":1736,"ense":1737,"Ġmeas":1738,"ĠGu":1739,"ĠCity":1740,"ently":1741,"Ġimport":1742,"Ġaround":1743,"space":1744,"Ġreleased":1745,"ilit":1746,"ĠII":1747,"side":1748,"He":1749,"ene":1750,"olution":1751,"Ġtest":1752,"Ġopt":1753,"ger":1754,"ĠDecember":1755,"Ġhand":1756,"ential":1757,"Ġcurrent":1758,"ording":1759,"ĠHowever":1760,"ĠCal":1761,"Ġwon":1762,"Ġhead":1763,"iod":1764,"Ġtype":1765,"2007":1766,"Ġmake":1767,"2006":1768,"Ġrad":1769,"Ġparam":1770,"day":1771,"Ġwithin":1772,"umer":1773,"Ġperson":1774,"aving":1775,"Ġearly":1776,"uthor":1777,"ector":1778,"illion":1779,"Ġpubl":1780,"Ġvers":1781,"org":1782,"Ġshould":1783,"where":1784,"Ġtit":1785,"ĠAf":1786,"Ġsu":1787,"ule":1788,"Ġref":1789,"Ġfind":1790,"ole":1791,"Ġappear":1792,"Ġ$(":1793,"ler":1794,"\\,":1795,"akes":1796,"rel":1797,"reg":1798,"Ġprot":1799,"cit":1800,"ling":1801,"includ":1802,"ĠBritish":1803,"ĠEurope":1804,"not":1805,"Ġcondition":1806,"Ġcity":1807,"Ġgovernment":1808,"Ġaddition":1809,"Ġrefer":1810,"Ġinc":1811,"Ġbus":1812,"ĠĠĊ":1813,"Ġdoes":1814,"ography":1815,"ĠBe":1816,"Ġevent":1817,"ĠMan":1818,"190":1819,"Ġlim":1820,"ourn":1821,"esc":1822,"ung":1823,"Ġproject":1824,"Ġproblem":1825,")$.":1826,"ebru":1827,"}}\\":1828,"ĠSy":1829,"ml":1830,"ebruary":1831,"Ġway":1832,"This":1833,"Ġread":1834,"ĠUS":1835,"bm":1836,"ribution":1837,"aster":1838,"ats":1839,"Ġband":1840,"ify":1841,"Ġinit":1842,"Ġsl":1843,"ĠReg":1844,"Ġwomen":1845,"2021":1846,"ampionship":1847,"Ġrespect":1848,"Ġcour":1849,"ĠWill":1850,"itive":1851,"mbol":1852,"Ġexpl":1853,"}[":1854,"Ġmass":1855,"bs":1856,"Ġtri":1857,"ĠLeague":1858,"Ġav":1859,"Ġhow":1860,"Ġbirths":1861,"See":1862,"aim":1863,"Ġmembers":1864,"Al":1865,"Ġreal":1866,"Ġtrad":1867,"ĠCanad":1868,"ales":1869,"Ġspace":1870,"apan":1871,"For":1872,"omet":1873,"ored":1874,"stit":1875,"ground":1876,"Ġland":1877,"energy":1878,"century":1879,"gor":1880,"Ġlevel":1881,"Ġdown":1882,"rem":1883,"div":1884,"ER":1885,"Ġmy":1886,"hi":1887,"Ġeng":1888,"ek":1889,"sq":1890,"$$":1891,"omin":1892,"Ġlarg":1893,"ĠKing":1894,"Ġleg":1895,"ĠEd":1896,"Ġcap":1897,"Ġident":1898,"Ġdem":1899,"aint":1900,"Ġtem":1901,"lor":1902,"ham":1903,"urs":1904,"ilar":1905,"less":1906,"uck":1907,"itions":1908,"ison":1909,"ume":1910,"As":1911,"Ġstill":1912,"Ġmajor":1913,"ords":1914,"alk":1915,"osed":1916,"iter":1917,"idd":1918,"Ġsuccess":1919,"hem":1920,"Ġcompet":1921,"uk":1922,"60":1923,"ĠRes":1924,"ht":1925,"Ġmuch":1926,"ĠFebruary":1927,"AR":1928,"2000":1929,"lin":1930,"Ġvis":1931,"Ġcareer":1932,"epsilon":1933,"ocial":1934,"Ġfilms":1935,"field":1936,"Ġmark":1937,"leg":1938,"essage":1939,"IN":1940,"ĠChrist":1941,"Ġhome":1942,"Om":1943,"ĠMin":1944,"ĠPart":1945,"ze":1946,"aced":1947,"levision":1948,"co":1949,"rench":1950,"2005":1951,"eqnarray":1952,"189":1953,"ĠCo":1954,"Ġadv":1955,"://":1956,"Ġiss":1957,"Ġtot":1958,"respond":1959,"mod":1960,"Ġsum":1961,"Ġtown":1962,"ĠArm":1963,"ured":1964,"sim":1965,"();":1966,"Ġcharacter":1967,"ators":1968,"Ġmember":1969,"ster":1970,"Ġcrit":1971,"American":1972,"self":1973,"Ġpost":1974,"Ġcompany":1975,"Ġgl":1976,"aper":1977,"Ġhelp":1978,"ĠSec":1979,"ij":1980,"back":1981,"ances":1982,"Ġtechn":1983,"augh":1984,"ches":1985,"Omega":1986,"Ã¡":1987,"Ġ`":1988,"ends":1989,"Ġbegan":1990,"Un":1991,"}_{\\":1992,"psilon":1993,"Ġcar":1994,"ĠAfter":1995,"ino":1996,"be":1997,"Ġbest":1998,"Ġ#":1999,"ese":2000,"ĠWest":2001,"Ġmanag":2002,"ST":2003,"uman":2004,"...":2005,"ength":2006,"Ġinformation":2007,"tr":2008,"Ġperiod":2009,"rag":2010,"Ġold":2011,"80":2012,")$,":2013,"Ġfre":2014,"):":2015,"Ġshort":2016,"Ġknow":2017,"Ġheld":2018,"33":2019,"de":2020,"Ġnamed":2021,"ĠHar":2022,"raft":2023,"Ġparticular":2024,"ĠHis":2025,"ugg":2026,"ĠSe":2027,"Ġpat":2028,"ries":2029,"Ġday":2030,"Ġobject":2031,"(\"":2032,"An":2033,"ĠFig":2034,"Cl":2035,"Ġ${\\":2036,"Ġinclude":2037,"psi":2038,"log":2039,"Ġprevious":2040,"2004":2041,"ĠMc":2042,"Ġpopulation":2043,"str":2044,"Ġenergy":2045,"^*":2046,"esp":2047,"etwork":2048,"oor":2049,"vare":2050,"though":2051,"Ġtake":2052,"Ġestablished":2053,"Ġconn":2054,"Ġbeh":2055,"ification":2056,"Ġexample":2057,"****":2058,"ero":2059,"ĠBar":2060,"sqrt":2061,"ĠDist":2062,"Ġinterest":2063,"ruction":2064,"oll":2065,"Ġtook":2066,"Ġnational":2067,"wh":2068,"ief":2069,"ĠEnglish":2070,"ana":2071,"Ġdiv":2072,"Ġdescribed":2073,"ced":2074,"ream":2075,"angle":2076,"iment":2077,"Ġestim":2078,"ĠAfric":2079,"ploy":2080,"ĠSup":2081,"Ġopp":2082,"Ġabove":2083,"Ġcomplet":2084,"adem":2085,"rew":2086,"osp":2087,"ĠSw":2088,"Ġself":2089,"Ġclub":2090,"ĠMed":2091,"ford":2092,"Ġanother":2093,"eters":2094,"urg":2095,"ĠNo":2096,"'t":2097,"Gamma":2098,"ondon":2099,"ĠJapan":2100,"anguage":2101,"Ġhistory":2102,"imens":2103,"Ġlocated":2104,"ope":2105,"eder":2106,"raphics":2107,"rak":2108,"varepsilon":2109,"ĠAb":2110,"conom":2111,"ift":2112,"ON":2113,"ociation":2114,"ination":2115,"Ġaff":2116,"Ġbas":2117,"Ġintro":2118,"lim":2119,"arent":2120,"Ġinf":2121,"Ġtotal":2122,"Ġden":2123,"Ġdeb":2124,"Ġalign":2125,"Ġvill":2126,"Ġcorrespond":2127,"play":2128,"Ġhig":2129,"Ġthough":2130,"AT":2131,"Ġjo":2132,"Ġsimilar":2133,"Ġprom":2134,"Ġhouse":2135,"Ġinteg":2136,"ape":2137,"empt":2138,"textbf":2139,"Ġprofess":2140,"Ġgrad":2141,"ĠRuss":2142,"====":2143,"Ġeduc":2144,"rown":2145,"Ġscal":2146,"face":2147,"chi":2148,"ĠĠĠĠĠĠĠĠĠ":2149,"Ġreceived":2150,"xim":2151,"ĠRec":2152,"ivate":2153,"Ġdel":2154,"ĠThere":2155,"Ġnext":2156,"Ġsk":2157,"Ġstation":2158,"45":2159,"ead":2160,"ĠYou":2161,"atter":2162,"ble":2163,"></":2164,"Ġwithout":2165,"aul":2166,"Ġrese":2167,"Ġcal":2168,"ĠCollege":2169,"iron":2170,"subsection":2171,")=":2172,"ille":2173,"ĉĉĉ":2174,"ĠčĊ":2175,"Ġimp":2176,"Ġgames":2177,"Ġep":2178,"ĠIf":2179,"Ġpublished":2180,"alf":2181,"Ġage":2182,"Ġsat":2183,"Ġpoints":2184,"aining":2185,"35":2186,"ention":2187,"ĠCor":2188,"ithm":2189,"^{(":2190,"atures":2191,"iet":2192,"Ġchang":2193,"><":2194,"ering":2195,"Ġfive":2196,"Ġ\\,":2197,"Ġcamp":2198,"Ġu":2199,"Ġhold":2200,"Ġcr":2201,"--------":2202,"Ġchildren":2203,"AS":2204,"earch":2205,"Ġla":2206,"ilitary":2207,"eneral":2208,"ideo":2209,"cm":2210,"Ġconf":2211,"Ġinvest":2212,"capt":2213,"ception":2214,"Ġbusiness":2215,"ĠLondon":2216,"Ġstudy":2217,"âĢĶ":2218,"Ġmust":2219,"ĠAm":2220,"rap":2221,"duct":2222,"ĠBy":2223,"ĠEl":2224,"Ġbuilt":2225,"ald":2226,"ington":2227,"Ġsix":2228,"ference":2229,"ges":2230,"istic":2231,"opt":2232,"urb":2233,"Ġserved":2234,"ouncil":2235,"lected":2236,"ological":2237,"bold":2238,"Ġborn":2239,"ources":2240,"ertain":2241,"Ġthird":2242,"Ġbook":2243,"}=":2244,"idual":2245,"off":2246,"rightarrow":2247,"Ġdeg":2248,"Ġgood":2249,"ĠTr":2250,"ush":2251,"}^{\\":2252,"odes":2253,"sequ":2254,"Ġcentury":2255,"Ġder":2256,"Ġ*/":2257,"ĠWilliam":2258,"2003":2259,"Ġlow":2260,"lear":2261,"add":2262,"ĠPres":2263,"Ġauthor":2264,"ĠAir":2265,"error":2266,"Ġcomput":2267,"Ġbre":2268,"ampl":2269,"ww":2270,"Ġsection":2271,"rick":2272,"ched":2273,"Ġinvol":2274,"arried":2275,"ault":2276,"see":2277,"oper":2278,"Ġturn":2279,"31":2280,"estern":2281,"includeg":2282,"includegraphics":2283,"32":2284,"ius":2285,"70":2286,"ĠFrench":2287,"Ġelection":2288,"ones":2289,"Ġactiv":2290,"Ġside":2291,"Ġregion":2292,"ards":2293,"order":2294,"ormal":2295,"Ġcountry":2296,"uf":2297,"Ġshows":2298,"Ġexist":2299,"rain":2300,"Ġmen":2301,"inter":2302,"ĠEn":2303,"Ġimportant":2304,"../../":2305,"ĠHigh":2306,"caption":2307,"ID":2308,"Ġcomb":2309,"reet":2310,"Ġvol":2311,"posed":2312,"acks":2313,"oph":2314,"rangle":2315,"Ġdi":2316,"ĠDav":2317,"ependent":2318,"iction":2319,"eak":2320,"Ġservice":2321,"Ġfew":2322,"rest":2323,"itor":2324,"__":2325,"ĠHouse":2326,"Ġview":2327,"ĠChar":2328,"cont":2329,"ooks":2330,"Ġstyle":2331,"refore":2332,"emph":2333,"imal":2334,"Ġ)":2335,"duction":2336,"tab":2337,"Ġwar":2338,"2001":2339,"Ġamong":2340,"this":2341,"iles":2342,"Ġbeg":2343,"Ġtimes":2344,"ĠChampionship":2345,"Ġlet":2346,"ĠArt":2347,"ĠGerman":2348,"2002":2349,"Ġarch":2350,"Ġincluded":2351,"roll":2352,"my":2353,"75":2354,"Ġlearn":2355,"Ġoften":2356,"Ġbuilding":2357,"Ġshown":2358,"ights":2359,"ensity":2360,"90":2361,"Ġspecies":2362,"Ar":2363,"action":2364,"Ġtitle":2365,"Ġaver":2366,"lation":2367,"ĠHer":2368,"Ġdeterm":2369,"ils":2370,"position":2371,"Ġfr":2372,"Ġconc":2373,".âĢĿ":2374,"new":2375,"Ġstrong":2376,"ĠComp":2377,"Ġet":2378,"Ġcover":2379,"icle":2380,"Ġtyp":2381,"ĠAct":2382,"Ġmap":2383,"ĠItal":2384,"Ġsize":2385,"Ġ>":2386,"ensure":2387,"Ġfull":2388,"otes":2389,"with":2390,"ither":2391,"ĠMe":2392,"Ġvalues":2393,"Ġposition":2394,"varphi":2395,"ways":2396,"Ġsit":2397,"unic":2398,"Ġfac":2399,"lymp":2400,"Ġair":2401,"ĠĠĠĠĠĠĠĠĠĠĠĠĠĠĠĠĠĠĠ":2402,"geq":2403,"Ġphot":2404,"ĠDep":2405,"aff":2406,"ĠSch":2407,"Ġfollows":2408,"ĠDistrict":2409,"hold":2410,"Ġrole":2411,"ĠAng":2412,"dd":2413,"na":2414,"Ġtelevision":2415,"non":2416,"''":2417,"Ġwater":2418,"time":2419,"ĠPark":2420,"ique":2421,"Ġrepl":2422,"188":2423,"html":2424,"iber":2425,"Ġaut":2426,"class":2427,"ixed":2428,"ship":2429,"uation":2430,"ories":2431,"orts":2432,"trans":2433,"param":2434,"Ġfore":2435,"Ġfeature":2436,"Ġarg":2437,"aken":2438,"ĠInternational":2439,"ux":2440,"proof":2441,"ividual":2442,"ĠBro":2443,"Ġfurther":2444,"Ġplayer":2445,"td":2446,"inning":2447,"Ġterms":2448,"Ġpot":2449,"ocus":2450,"Ġstates":2451,"List":2452,"ransp":2453,"cul":2454,"dom":2455,"ending":2456,"Ġworks":2457,"abor":2458,"alt":2459,"ett":2460,"yl":2461,"Ġcontrol":2462,"symbol":2463,"Ġcommon":2464,"gorithm":2465,"alse":2466,"ĠPhil":2467,"Ġmillion":2468,"Ġpred":2469,"Ġsignific":2470,"ump":2471,"ression":2472,"Ġspect":2473,"ĠCup":2474,"orph":2475,"Ġversion":2476,"64":2477,"To":2478,"Ġclaim":2479,"Ġgreat":2480,"Ġspecial":2481,"Ã³":2482,"Ġdied":2483,"ered":2484,"ridge":2485,"iforn":2486,"Ġmean":2487,"ociety":2488,"cast":2489,"ĠGl":2490,"Big":2491,"Ġless":2492,"Ġphys":2493,"ops":2494,"ning":2495,"Ġsw":2496,"Ġvarious":2497,"ude":2498,"Ġdefined":2499,"ysis":2500,"Ġide":2501,"Ġhere":2502,".~\\":2503,"ĠTo":2504,"Ġbecome":2505,"ym":2506,"ifornia":2507,"ĠThese":2508,"Ġdiscuss":2509,"name":2510,"stand":2511,"Ġcult":2512,"ailable":2513,"Ġassoci":2514,"ĠAg":2515,"Ġquant":2516,"attle":2517,"Ġwritten":2518,"ĠOne":2519,"RE":2520,"Ġcho":2521,"ĠMon":2522,"eal":2523,"overline":2524,"ipp":2525,"Ġcommunity":2526,"ĠBut":2527,"ours":2528,"ĠIndian":2529,"Ġproduct":2530,"Ġnorth":2531,"ache":2532,"Ġpossible":2533,"no":2534,"ĠEngland":2535,"2022":2536,"&\\":2537,"Ġport":2538,"Ġrelations":2539,"Ġkey":2540,"Ġpri":2541,"Ġeas":2542,"Ġdevelopment":2543,"Ġkill":2544,"etic":2545,"65":2546,"avy":2547,"ama":2548,"boldsymbol":2549,"Ġinfl":2550,"orge":2551,"Ġmultip":2552,"Sp":2553,"ising":2554,"Ġmodels":2555,"Ġhaving":2556,"Ġsep":2557,"Ġconsidered":2558,"ĠAmer":2559,"('":2560,"Ġcou":2561,"plit":2562,"head":2563,"Ġpract":2564,"Ġson":2565,"Ġresearch":2566,"ournal":2567,"viron":2568,"ogn":2569,"idence":2570,"Ġhref":2571,"oon":2572,"ounced":2573,"Ġmot":2574,".}":2575,"ĠLa":2576,")^":2577,"iff":2578,"ĠDiv":2579,"now":2580,"ĠMich":2581,"Ġyoung":2582,"Ġinternational":2583,"oyal":2584,"useum":2585,"Ġtrue":2586,"Ġche":2587,"ably":2588,"olic":2589,"34":2590,"Pl":2591,"ittle":2592,"Ġstructure":2593,"ibr":2594,"ĠPer":2595,"Ġyour":2596,"ĠCalifornia":2597,"ynam":2598,"ivil":2599,"Name":2600,"vec":2601,"ĠSan":2602,"frak":2603,"Ġgrow":2604,"minist":2605,"ara":2606,"era":2607,"ĠBr":2608,"ĠRiver":2609,"Ġhistor":2610,"Ġwant":2611,"Ġapproxim":2612,"ials":2613,"Ġant":2614,"Ġled":2615,"Ġcoll":2616,"ties":2617,"Ġenc":2618,"Sh":2619,"Ġprim":2620,"br":2621,"Ġvillage":2622,"script":2623,"Ġperformance":2624,"Ġchange":2625,"anish":2626,"arget":2627,"[\\":2628,"1999":2629,"ached":2630,"Ġgen":2631,"},\\":2632,"omb":2633,"By":2634,"ĠQu":2635,"Living":2636,"Ġhowever":2637,"isf":2638,"Ġimpro":2639,"Let":2640,"}).":2641,"Ġindividual":2642,"ÃŃ":2643,"Ġsay":2644,"utions":2645,"Ġdistribution":2646,"1990":2647,"uild":2648,"Ġfree":2649,"atural":2650,"lands":2651,"ĠĠĠĠĠĠĠĠĠĠĠĠĠĠĠĠĠĠĠĠĠĠĠĠĠĠĠĠĠĠĠĠ":2652,"onent":2653,"htt":2654,"Ġevents":2655,"Ġsouth":2656,"Ġnov":2657,"pose":2658,"Ġfund":2659,"ico":2660,"ients":2661,"mon":2662,"hline":2663,"ĠParty":2664,"Ġtw":2665,"chie":2666,"aut":2667,"Ġcame":2668,"]$":2669,"Ġmax":2670,"mmet":2671,"Type":2672,"ĠAustralia":2673,"Ġrange":2674,"Ġround":2675,"ĠAc":2676,"Ġred":2677,"Col":2678,"itect":2679,"Ã¼":2680,"Ġnetwork":2681,"Ġmeasure":2682,"Ġvar":2683,"clus":2684,"sm":2685,"People":2686,"onse":2687,"hib":2688,"Ġaction":2689,"Ġlight":2690,"ĠEast":2691,"Ġsignificant":2692,"AC":2693,"ĠWhen":2694,"ĠIndia":2695,"Ġleast":2696,"Ġcomplex":2697,"Ġestablish":2698,"wide":2699,"}}$":2700,"Ġpolitical":2701,"Ġavailable":2702,"Ġsocial":2703,"ocument":2704,"Ġfather":2705,"hern":2706,"Ġstar":2707,"Id":2708,"mult":2709,"obal":2710,"import":2711,"Ġsent":2712,"gcolor":2713,"ĠCour":2714,"Ġproduced":2715,"Ġcreated":2716,"Res":2717,"Ġmoved":2718,"Ġmatch":2719,"BC":2720,"ĠSm":2721,"ĠPresident":2722,"mathfrak":2723,"38":2724,"source":2725,"Ġaverage":2726,"Ġcross":2727,"Ġcirc":2728,"rant":2729,"bra":2730,"dis":2731,"Ġstarted":2732,"36":2733,"Ġsepar":2734,"asing":2735,"lete":2736,"Ġindic":2737,"gether":2738,"Ġtogether":2739,"48":2740,"Ġsite":2741,"ĠAmerica":2742,"Ġgroups":2743,"uel":2744,"Ġlate":2745,"Ġsequ":2746,"Ġeconom":2747,"Ġproduction":2748,"Ġemploy":2749,"inition":2750,"most":2751,"Ġhost":2752,"ii":2753,"table":2754,"Ġstory":2755,"bit":2756,"ateg":2757,"Ġprivate":2758,"Ġbi":2759,"Ġdistrict":2760,"Ind":2761,"ocal":2762,"ander":2763,"ula":2764,"appa":2765,"Ġapplic":2766,"ware":2767,"Ġpo":2768,"ldots":2769,"type":2770,"langle":2771,"imum":2772,"ĠVal":2773,"Ġsold":2774,"Ġdiff":2775,"key":2776,"Ġcost":2777,"1998":2778,"Ġbase":2779,"Ġfail":2780,"uture":2781,"History":2782,"ĠFl":2783,"Ġbgcolor":2784,"oted":2785,"ĠChurch":2786,"ael":2787,"Ġwent":2788,"ĠĠĠĠĠĠ":2789,"Ġfri":2790,"Ġengine":2791,"ĠAward":2792,"Ġfocus":2793,"Ġear":2794,"37":2795,"exp":2796,"Ġblack":2797,"Ġstudents":2798,"Ġtraining":2799,"oe":2800,"ĠDr":2801,"lements":2802,"ĠOlymp":2803,"ellow":2804,"~~":2805,"ĠBer":2806,"ĠEuropean":2807,"Ġtheory":2808,"II":2809,"bor":2810,"39":2811,"SS":2812,"hers":2813,"vironment":2814,"Ġins":2815,"AN":2816,"plement":2817,"Ġfem":2818,"Ġmale":2819,"Ġannounced":2820,"Ġcapt":2821,"Ġflow":2822,"};":2823,"Ġdeaths":2824,"ĠThen":2825,"ables":2826,"itted":2827,"Ġmagn":2828,"Ġacross":2829,"Lambda":2830,"ĠWith":2831,"Ġtext":2832,"itte":2833,"Ġlower":2834,"Ġsystems":2835,"Ġpaper":2836,"Ġlook":2837,"ĠCouncil":2838,"acy":2839,"Ġsurv":2840,"Ġhalf":2841,"Ġhealth":2842,"Ġhuman":2843,"OR":2844,"Ġservices":2845,"Ġseen":2846,"ĠArmy":2847,"ecut":2848,"nabl":2849,"Ps":2850,"55":2851,"ney":2852,"Ġaward":2853,"Ġconsist":2854,"ms":2855,"Ġindust":2856,"âĢľ":2857,"Ġdays":2858,"ĠPal":2859,"Ġvideo":2860,"],":2861,"Ġassum":2862,"pd":2863,"ĠFrance":2864,"ems":2865,"irl":2866,"itar":2867,"Ġfeatures":2868,"Ġdeta":2869,"Ġhom":2870,"Ġmiss":2871,"Ġcaus":2872,"ransport":2873,"Ġreview":2874,"Ġcases":2875,"ged":2876,"ĠHol":2877,"Ġmer":2878,"Ġconv":2879,"Ġaccess":2880,"mar":2881,"ayer":2882,"49":2883,"eep":2884,"AL":2885,"\\|":2886,"String":2887,"otimes":2888,"Phi":2889,"Ġplan":2890,"ĠBel":2891,"urity":2892,"itz":2893,"eh":2894,"Ġobtained":2895,"message":2896,"ĠCanada":2897,"Ġsett":2898,"1980":2899,"ests":2900,"ĠAnt":2901,"##":2902,"Ġprovide":2903,"Ġbroad":2904,"Ġbecom":2905,"Ġneg":2906,"187":2907,"iddle":2908,"return":2909,"Ġmater":2910,"Ġhy":2911,"ked":2912,"ilities":2913,"\")":2914,"Ġrate":2915,"code":2916,"ha":2917,"orthern":2918,"cy":2919,"Ġdensity":2920,"Ġnever":2921,"Ġeither":2922,"Ġdon":2923,"ccording":2924,"Ġquest":2925,"kappa":2926,"ules":2927,"Ġsem":2928,"Val":2929,"citep":2930,"rote":2931,"ements":2932,"Ġparticip":2933,"ĠMal":2934,"Ġsatisf":2935,"ĠRober":2936,"Ġworked":2937,"mbox":2938,"ĠJames":2939,"ocr":2940,"ĠThom":2941,"ming":2942,"Ġmaking":2943,"och":2944,"style":2945,"draw":2946,"Ġloss":2947,"Ġproduc":2948,"ription":2949,"Ġground":2950,"Ġworking":2951,"Ġdev":2952,"ĠGeneral":2953,"Ġpolic":2954,"ĠInstit":2955,"66":2956,"44":2957,"Ġtaken":2958,"EC":2959,"1996":2960,"Ġput":2961,"Ġfunctions":2962,"ĠMor":2963,"1997":2964,"Ġship":2965,"Ġmilitary":2966,"year":2967,"subset":2968,"annel":2969,",âĢĿ":2970,"ership":2971,"Ġhigher":2972,"ving":2973,"ensuremath":2974,"lying":2975,"Ġapproach":2976,"rab":2977,"ĠPort":2978,"ceed":2979,"Ġpopular":2980,"ville":2981,"ĠRoman":2982,"amples":2983,"EN":2984,"Ġaccount":2985,"indow":2986,"sw":2987,"ĠChe":2988,"ĠSen":2989,"incip":2990,"iting":2991,"Ġsuper":2992,"ĠStud":2993,"nabla":2994,"rite":2995,"ells":2996,"nder":2997,"top":2998,"Ġpolitic":2999,"Ġepis":3000,"Ġappoint":3001,"inary":3002,"ĠPaul":3003,"thern":3004,"Ġachie":3005,"ecess":3006,"Ġsugg":3007,"Ġpresident":3008,"Ġdou":3009,"ĠFirst":3010,"ĠDem":3011,"sf":3012,"Ġdebut":3013,"ya":3014,"textit":3015,"Ġbelie":3016,"iding":3017,"Ġ--":3018,"Ġweek":3019,"ressed":3020,"})$":3021,"Ġpath":3022,"Ġmeet":3023,"artment":3024,"Ġ=>":3025,"99":3026,"Ġpotential":3027,"Ġattack":3028,"Ġregular":3029,"anies":3030,"Ġable":3031,"Ġge":3032,"Ġinitial":3033,"ĠRed":3034,"ĠStreet":3035,"Ġdest":3036,"ĠGeorge":3037,"Ġmeans":3038,"Ġstandard":3039,"cer":3040,"Ġill":3041,"Ġanalysis":3042,"outhern":3043,"Ġattempt":3044,"atives":3045,"hood":3046,"alle":3047,"Ġreported":3048,"circ":3049,"wid":3050,"Ġagre":3051,"unicip":3052,"cle":3053,"rav":3054,"ĠQue":3055,"Ġalgorithm":3056,"Ġtre":3057,"go":3058,"ibility":3059,"\\[":3060,"ills":3061,"ago":3062,"Ġconditions":3063,"ĠMy":3064,"Ġrespectively":3065,"After":3066,"aries":3067,"ida":3068,"Ġgraph":3069,"airs":3070,"ĠChina":3071,"Ġfrequ":3072,",\"":3073,"based":3074,"Ġ_":3075,".\\":3076,"ĠCourt":3077,"ili":3078,"Ġcy":3079,"ania":3080,"ĠDavid":3081,"ĠLet":3082,"nb":3083,"Ġinflu":3084,"}),":3085,"Ã¶":3086,"Ġconstant":3087,"ĠAssociation":3088,"comp":3089,"Ġsolution":3090,"Ġothers":3091,"ror":3092,"Sc":3093,"ption":3094,"ĠLem":3095,"ĠRich":3096,"Ġthink":3097,"Ġoffer":3098,"ready":3099,"aps":3100,"ashington":3101,"ĠLaw":3102,"\\%":3103,"ĠDivision":3104,"Ġabs":3105,"iled":3106,"value":3107,"gl":3108,"47":3109,"ĠLou":3110,"1995":3111,"reek":3112,"Ġproperty":3113,"Ġcompos":3114,"rum":3115,"Ġ!":3116,"Ġthus":3117,"Ġsource":3118,"que":3119,"nown":3120,"iven":3121,"ecial":3122,"Ġlik":3123,"Ġareas":3124,"box":3125,"ĠServ":3126,"IT":3127,"ĠRoyal":3128,"itch":3129,"Ġvia":3130,"ittee":3131,"Ġmarried":3132,"nonumber":3133,"erman":3134,"ĠMount":3135,"Ġvert":3136,"Ġeducation":3137,"}}{":3138,"aves":3139,"Ġhon":3140,"ky":3141,"Ġbetter":3142,"aign":3143,"Ġreturned":3144,"Ġlog":3145,"ĠUnion":3146,"Ġhard":3147,"Ġwrote":3148,"ply":3149,"rec":3150,"lo":3151,"ĠCenter":3152,"Ġdom":3153,"Ġclose":3154,"Ġassociated":3155,"chan":3156,"IC":3157,"ota":3158,"Ġviol":3159,"ĠHam":3160,"raz":3161,"1994":3162,"berg":3163,"Ġbelow":3164,"Ġdeveloped":3165,"New":3166,"AM":3167,"Ġtemper":3168,"Ġjoined":3169,"Ġmatrix":3170,"ĠSim":3171,"utes":3172,"Ġnumer":3173,"sup":3174,"Ġtrack":3175,"Ġparameters":3176,"ĠGermany":3177,"Ġdegree":3178,"ava":3179,"Ġmom":3180,"Ġwebs":3181,"1970":3182,")(":3183,"Sigma":3184,"Ġwin":3185,"ĠSum":3186,"Ġrecogn":3187,"Ġdirector":3188,"Ġbody":3189,"ean":3190,"comm":3191,"05":3192,"At":3193,"Ġlanguage":3194,"ivity":3195,"atory":3196,"Ġprovided":3197,"aches":3198,"ĠPat":3199,"ulated":3200,"ctor":3201,"ser":3202,"ĠHall":3203,"band":3204,"Ġaway":3205,"Ġlength":3206,"atrix":3207,"ĠList":3208,"Ġfar":3209,"ani":3210,"ĠDepartment":3211,"Ġparty":3212,"Ġmid":3213,"Ġnull":3214,"cor":3215,"andom":3216,"rim":3217,"medi":3218,"ĠVir":3219,"Ġobtain":3220,"1992":3221,"Ġroad":3222,"ederal":3223,"ocation":3224,"Ġliter":3225,"Ġlimit":3226,"rian":3227,"01":3228,"ension":3229,"ĠBlack":3230,"Ġpositive":3231,"ĠFrom":3232,"Ġrail":3233,"Ġcontinu":3234,"dots":3235,"Ġlines":3236,"ĠVol":3237,"wood":3238,"Ġdefe":3239,"iance":3240,"Ġlost":3241,"imate":3242,"bert":3243,"Ġequation":3244,"Ġfig":3245,"Ġ()":3246,"Ġelse":3247,"Ġrac":3248,"gen":3249,"Ġconstruction":3250,"Ġchurch":3251,"ĠAustralian":3252,"Ġinvestig":3253,"\\!":3254,"thm":3255,"gress":3256,"andid":3257,"asons":3258,"ston":3259,"opy":3260,"ender":3261,"Ġser":3262,"Ġrequire":3263,"bb":3264,"Ġq":3265,"=#":3266,"Ġconstruct":3267,"ĠApp":3268,"Ġindependent":3269,"Ġkm":3270,"If":3271,"ĠEm":3272,"Ġpress":3273,"Ġprofessional":3274,"ĠSince":3275,"Ġimage":3276,"Ġdecl":3277,"Ġmem":3278,"Ġcontract":3279,"icles":3280,"Ġgive":3281,"agaz":3282,"ĠSo":3283,"ensive":3284,"rated":3285,"Ġarchitect":3286,"Ġconduct":3287,"IS":3288,"rd":3289,"ĠWashington":3290,"Cont":3291,"Ġlive":3292,"oms":3293,"ĠÃ":3294,"widet":3295,"Ġmarket":3296,"elling":3297,"ened":3298,"Ġemb":3299,"Ġalready":3300,"Ġpast":3301,"Ġcertain":3302,"hel":3303,"')":3304,"Ġphase":3305,"pect":3306,"ĠCont":3307,"gin":3308,"ĠMary":3309,"Ġlo":3310,"Ġcontinued":3311,"Ġgoing":3312,"LE":3313,"max":3314,"Ġalways":3315,"Ġaccording":3316,"Ġtoo":3317,"Ġfuture":3318,"ĠMart":3319,"Ġwhose":3320,"1993":3321,"Ġsongs":3322,"nbsp":3323,"istics":3324,"Ġ``":3325,"Ġcorresponding":3326,"Ġrequired":3327,"||":3328,"Ġclos":3329,"/\\":3330,"umni":3331,"185":3332,"ĠGroup":3333,"Ġonce":3334,"igned":3335,"iers":3336,"Ġperformed":3337,"Ġrelated":3338,"ĠDuring":3339,"/>":3340,"ĠIm":3341,"Ġproposed":3342,"ishing":3343,"ordin":3344,"unc":3345,"down":3346,"roy":3347,"Ġcentral":3348,"Ġpur":3349,"ested":3350,"Ġopened":3351,"size":3352,"ĠCompany":3353,"uration":3354,"ĠMark":3355,"ulations":3356,"ĠMex":3357,"alls":3358,"67":3359,"Ġtradition":3360,"Ġteams":3361,"widetilde":3362,"Ġrev":3363,"scal":3364,"ades":3365,"oul":3366,"Ġlabel":3367,"duce":3368,"AA":3369,"Fig":3370,"Ġid":3371,"arc":3372,"Ġvict":3373,"Ġfalse":3374,"Ġarr":3375,"Ġtreat":3376,"Ġleading":3377,"sel":3378,"asket":3379,"ranch":3380,"}-":3381,"ires":3382,"liament":3383,"Ġben":3384,"Ġerror":3385,"sl":3386,"ĠAcadem":3387,"plied":3388,"Ġrelease":3389,"Ġdire":3390,"ounter":3391,"\\]":3392,"plies":3393,"Ġ==":3394,"Ġpay":3395,"ĠInstitute":3396,"1991":3397,"fficient":3398,"izing":3399,"Ġsubject":3400,"{-":3401,"Ġ($":3402,"ĠSer":3403,"Ad":3404,"ele":3405,"Ġbrother":3406,"95":3407,"Ġentire":3408,"68":3409,"unn":3410,"ults":3411,"Ġdaugh":3412,"riate":3413,"Ġsom":3414,"Ġwebsite":3415,"load":3416,"Ġdimens":3417,"Ġten":3418,"which":3419,"aur":3420,"quare":3421,"Ġsuccessful":3422,"ĠMore":3423,"Ġnovel":3424,"Ġcalcul":3425,"Ġmight":3426,"eck":3427,"atal":3428,"Ġnatural":3429,"ein":3430,"Ġhapp":3431,"ĠMusic":3432,"ĠNor":3433,"Ġmar":3434,"Ġdat":3435,"Ġoffice":3436,"Ġcompanies":3437,"ores":3438,"ĠRoad":3439,"uff":3440,"Ġcontribut":3441,"ites":3442,"Ġtarget":3443,"igen":3444,"Ġadminist":3445,"inese":3446,"Ġmethods":3447,"DE":3448,"Ġproof":3449,"ams":3450,"ĠSociety":3451,"There":3452,"aring":3453,"omorph":3454,"CO":3455,"Ġappe":3456,"ĠDon":3457,"Ġcollection":3458,"Ġneigh":3459,"Ġcompleted":3460,"Ġstring":3461,"Ġwife":3462,"aged":3463,"lean":3464,"cap":3465,"ka":3466,"centering":3467,"Le":3468,"zeta":3469,"Ġrather":3470,"rael":3471,"AP":3472,"rig":3473,"Ġincludes":3474,"ĠHen":3475,"icult":3476,"Ġrecorded":3477,"ĠDi":3478,"onents":3479,"asc":3480,"ĠUK":3481,"ĠArch":3482,"estival":3483,"ĠPress":3484,"rup":3485,"ĠNe":3486,"ĠGreen":3487,"Ġrespons":3488,"Ġdirected":3489,"allel":3490,"With":3491,"icro":3492,"Ġintroduced":3493,"ĠTheorem":3494,"Ġadditional":3495,"Ġelements":3496,"De":3497,"Ġrights":3498,"fo":3499,"Ġstre":3500,"Ġmonths":3501,"Ġdepart":3502,"Ġparameter":3503,"Ġbreak":3504,"\\{":3505,"aching":3506,"prime":3507,"known":3508,"state":3509,"Ġbackground":3510,"ĠProv":3511,"ibrary":3512,"Ġmother":3513,"ĠClub":3514,"istry":3515,"Ġstage":3516,"1960":3517,"Ġelement":3518,"Ġassist":3519,"ĠAfrican":3520,"Ġmedia":3521,"Ġalmost":3522,"ĠCons":3523,"Ġalthough":3524,"Ġinstead":3525,"Ġrace":3526,"burg":3527,"Ġproperties":3528,"Ġbehav":3529,"ĠSection":3530,"point":3531,"\"/>":3532,"Ġang":3533,"tic":3534,"Ġparent":3535,"Ġinput":3536,"ĠAfrica":3537,"Ph":3538,"den":3539,"aker":3540,"Ġfront":3541,"Ġformed":3542,"like":3543,"ensus":3544,"ĠTV":3545,"Ġcontains":3546,"Ġcome":3547,"ĠBay":3548,"ario":3549,"46":3550,"ĠIsland":3551,"Ġdocument":3552,"ura":3553,"edy":3554,"ds":3555,"}+":3556,"board":3557,"Ġgoal":3558,"ĠCath":3559,"ĠThat":3560,"ĠâĢĺ":3561,"All":3562,"ĠCanadian":3563,"Ġexpected":3564,"arily":3565,"mary":3566,"translation":3567,"Ġsigned":3568,"ĠĠĠĠĠĠĠĠĠĠĠĠĠ":3569,"Ġoccur":3570,"Ġdepend":3571,"Ġlaun":3572,"Ġtry":3573,")=\\":3574,"olit":3575,"Ge":3576,"ini":3577,"Ġradio":3578,"Ġlarger":3579,"arter":3580,"Ġunit":3581,"ĠKh":3582,"uz":3583,"Ġsurface":3584,"ĠTex":3585,"ĠAngel":3586,"Ġmodern":3587,"uated":3588,"Ġlinear":3589,"ĠCong":3590,"ises":3591,"ĠKingdom":3592,"string":3593,"rey":3594,"ĠJew":3595,"Ġvoid":3596,"Ġnormal":3597,"cell":3598,"Ġcut":3599,"Ġnecess":3600,"Ġhimself":3601,"Ġwhether":3602,"unt":3603,"Ġadded":3604,"Ġstep":3605,"tabular":3606,"Data":3607,"racy":3608,"Ġcourt":3609,"Ġqual":3610,"ĠMiss":3611,"ĠGames":3612,"uit":3613,"Ġcampaign":3614,"Ġofficial":3615,"mid":3616,"Ġcandid":3617,"ĠInter":3618,"wise":3619,".)":3620,"Ġfire":3621,"Ġgovern":3622,"Ġtransfer":3623,"07":3624,"group":3625,"data":3626,"ĠTown":3627,"Bl":3628,"ĠTur":3629,"Ġrandom":3630,"Ġprincip":3631,"********":3632,"Ġcountries":3633,"ĠSl":3634,"42":3635,"Ġbig":3636,"Mod":3637,"used":3638,"Int":3639,"ĠRobert":3640,"Ġschools":3641,"ections":3642,"1989":3643,"Ġcenter":3644,"Ġappeared":3645,"mark":3646,"CC":3647,"ids":3648,"ĠSing":3649,"Ġaccept":3650,"ession":3651,"1988":3652,"Ġenvironment":3653,"Ġcorre":3654,"Ġfounded":3655,"Ġalbums":3656,"inner":3657,"SE":3658,"ĠHistor":3659,"ala":3660,"Ġlargest":3661,"ĠThomas":3662,"Ġmultiple":3663,"Ġjud":3664,"asketball":3665,"Ġliving":3666,"Ġelected":3667,"Ġreason":3668,"Ġclosed":3669,"ĠMuseum":3670,"Ġpers":3671,"\"><":3672,"ona":3673,"}=\\":3674,"ĠCentral":3675,"Ġtaking":3676,"ortun":3677,"ken":3678,"Ob":3679,"ria":3680,"king":3681,")}\\":3682,"Ġacqu":3683,"Ġimplement":3684,"Ġvector":3685,"ĠRev":3686,"Ġrat":3687,"ees":3688,"Ġdynam":3689,"Ass":3690,"ullet":3691,"Ġhous":3692,"irt":3693,"Ġlittle":3694,"ĠEq":3695,"Ġcreate":3696,"Par":3697,"500":3698,"ands":3699,"ports":3700,"FF":3701,"raction":3702,"enced":3703,"ĠMod":3704,"ĠJapanese":3705,"ĠRussian":3706,"urrent":3707,"Ġsound":3708,"ĠFranc":3709,"oz":3710,"ĠAlex":3711,"Ġprior":3712,"Ġblock":3713,"Ġappointed":3714,"Ġcast":3715,"Ġhor":3716,"ĠGreat":3717,"ospital":3718,"iew":3719,"itting":3720,"ĠÂ":3721,"writ":3722,"Ġregard":3723,"Ġupon":3724,"Im":3725,"arl":3726,"ĠMont":3727,"ictor":3728,"ĠMad":3729,"list":3730,"ĠSam":3731,")^{":3732,"lier":3733,"08":3734,"ecially":3735,"Ġconstit":3736,"ĠMet":3737,"Ġhtt":3738,"Ġobserved":3739,"Ġfollowed":3740,"eff":3741,"ĠBest":3742,"....":3743,"sing":3744,"From":3745,"ĠLeg":3746,"Ġfinite":3747,"Ġconcern":3748,"Ġrelationship":3749,"ĠGold":3750,"acc":3751,"{(":3752,";\\":3753,"ĠDef":3754,"Ġplaying":3755,"Ġboard":3756,"ĠWestern":3757,"Ġequival":3758,"43":3759,"ĠMinister":3760,"Ġrock":3761,"Rec":3762,"foot":3763,"const":3764,"ilies":3765,"Ġinvolved":3766,"ĠOb":3767,"Ġspecific":3768,"Ġsymmet":3769,"Ġeight":3770,"ĠAcademy":3771,"rish":3772,"embly":3773,"Ġrelig":3774,"ĠRecords":3775,"ĠChristian":3776,"alax":3777,"Ġwhite":3778,"Ġenough":3779,"ĠSal":3780,"Ġbirth":3781,"Ġthroughout":3782,"Ġfight":3783,"ĠGrand":3784,"ĠItalian":3785,"Ġaud":3786,"ustom":3787,"Ġter":3788,"cos":3789,"ĠCO":3790,"Film":3791,"rast":3792,"Wh":3793,"1987":3794,"ĠWhite":3795,"41":3796,"ĠĠĠĠĊ":3797,"ĠScott":3798,"Ġresponse":3799,"Ġmoment":3800,"ĠWhile":3801,"ĠTexas":3802,"ĠRail":3803,"Ġund":3804,"Ġdone":3805,"iences":3806,"Ġleague":3807,"Ġdesigned":3808,"ĠYear":3809,"Ġdeal":3810,"more":3811,"85":3812,"ada":3813,"ado":3814,"Ġcomplete":3815,"Ġpresented":3816,"Ġstudies":3817,"Ġexists":3818,"thlet":3819,"oat":3820,"Ġfootballers":3821,"Ġtro":3822,"Ġbooks":3823,"ĠFilm":3824,"Ġexperiment":3825,"bour":3826,"Ġclear":3827,"ios":3828,"Ġnode":3829,"Ġchanges":3830,"Ġsimple":3831,"Ġesp":3832,"onic":3833,"Ġtax":3834,"ĠLouis":3835,"Ġdiscover":3836,"Ġdifficult":3837,"ena":3838,"Ġdistance":3839,"edd":3840,"Ġcourse":3841,"change":3842,"ĠZeal":3843,"Ġeast":3844,"Ġ&=":3845,"ager":3846,"ĠMichael":3847,"ottom":3848,"ging":3849,"anced":3850,"ducation":3851,"gebra":3852,"function":3853,"Ġprec":3854,"ĠVirgin":3855,"ĠWil":3856,"Ġunderstand":3857,"ribute":3858,"ĠCharles":3859,"ĠRepublic":3860,"ĠGod":3861,"Ġparts":3862,"hest":3863,"ought":3864,"Ġfactor":3865,"isions":3866,"Ġforce":3867,"west":3868,"node":3869,"ledge":3870,"Ġgave":3871,"ĠZealand":3872,"alled":3873,"oke":3874,"Ġfav":3875,"opp":3876,"grad":3877,"atively":3878,"ĠProf":3879,"ĠKore":3880,"Ġwest":3881,"Ġkeep":3882,"idents":3883,"Ġinstit":3884,"Ġcontext":3885,"Ġchall":3886,"Ġunc":3887,"97":3888,"ĠCarol":3889,"Ġdistribut":3890,"umbers":3891,"ĠFlor":3892,"Ġcode":3893,"Ġcolor":3894,"Ġstri":3895,"ĠDirect":3896,"Ġdaughter":3897,"ES":3898,"Comp":3899,"iform":3900,"ĠÐ":3901,"Ġpe":3902,"Ġalumni":3903,"Ġitself":3904,"ffer":3905,"1986":3906,"Ġcurrently":3907,"Ġscale":3908,"Ġamount":3909,"la":3910,"ĠRad":3911,"ĠChinese":3912,"Ġforces":3913,"Ġpan":3914,"Ġdefine":3915,"Ġpolice":3916,"astic":3917,"Ġincrease":3918,"ĠMr":3919,"ĠSummer":3920,"ĠIsrael":3921,"ĠOlympics":3922,"98":3923,"agazine":3924,"ategory":3925,"raint":3926,"olf":3927,"}^\\":3928,"appro":3929,"ano":3930,"Ġexecut":3931,"ĠDo":3932,"lemma":3933,"Ġcivil":3934,"Ġ&&":3935,"Ġguitar":3936,"ĠGo":3937,"irm":3938,"uments":3939,"Ġ%":3940,"olar":3941,"$)":3942,"Ġmechan":3943,"reland":3944,"Ġeffects":3945,"Ġsequence":3946,"ĠDemocr":3947,"Ġbar":3948,"ancial":3949,"unk":3950,"Ġlearning":3951,"ĠMat":3952,"Ġexhib":3953,"1984":3954,"Te":3955,"widehat":3956,"isl":3957,"Ġactive":3958,"Ġpolicy":3959,"ĠTom":3960,"roid":3961,"Ġcoupl":3962,"px":3963,"ĠMer":3964,"ĠFootball":3965,"isk":3966,"ĠMus":3967,"Ġglobal":3968,"Ġsoft":3969,"06":3970,"cdots":3971,"Ġdram":3972,"Ġtherefore":3973,"Ġusually":3974,"ĠMac":3975,"Ġjournal":3976,"atus":3977,"Ġsens":3978,"ĠDay":3979,"Ġsubsequ":3980,".~":3981,"inally":3982,"Ġgives":3983,"Ġcontent":3984,"Ġexact":3985,"Ġanaly":3986,"Ġtour":3987,"izations":3988,"merc":3989,"02":3990,"ĠLat":3991,"Ġissues":3992,"Ġdam":3993,"cup":3994,"ĠJust":3995,"Ġplaces":3996,"ĠBill":3997,"icol":3998,"Ġfixed":3999,"Ġsil":4000,"Ġzero":4001,"Ġmus":4002,"ait":4003,"1985":4004,"bre":4005,"Ã¤":4006,"Se":4007,"atre":4008,"ĠInt":4009,"mit":4010,"Ġgas":4011,"Ġcommand":4012,"Value":4013,"Ġoutside":4014,"Ġbasis":4015,"Ġbuildings":4016,"pre":4017,"}_\\":4018,"Ġkilled":4019,"Ġfields":4020,"ĠSystem":4021,"from":4022,"Ġgot":4023,"ircraft":4024,"88":4025,"Ġpercent":4026,"Ġinj":4027,"Ġclust":4028,"uate":4029,"km":4030,"Ġcoach":4031,"ooth":4032,"ĠTra":4033,"Ġseven":4034,"astern":4035,"www":4036,"03":4037,"And":4038,"Ġop":4039,"Eng":4040,"ĠCommission":4041,"Ġcannot":4042,"========":4043,"rate":4044,"Ġkind":4045,"istan":4046,"Ġunits":4047,"ingu":4048,"Ġrecent":4049,"antic":4050,"encies":4051,"Ġquestion":4052,"ilton":4053,"ĠSur":4054,"Ġremov":4055,"ication":4056,"ĠJose":4057,"Ġdirection":4058,"FA":4059,"tact":4060,"Ġstars":4061,"Ġprop":4062,"}\\,":4063,"Ġtravel":4064,"Ġpredict":4065,"ĠCatholic":4066,"Ġdraw":4067,"Ġver":4068,"Ġespecially":4069,"Not":4070,"Ġsex":4071,"erve":4072,"ED":4073,"Ġaccom":4074,"Ġpain":4075,"09":4076,"57":4077,"Ġprovides":4078,"Def":4079,"Ġeval":4080,"}}(":4081,"itude":4082,"ĠDan":4083,"ĠSmith":4084,"Ġpair":4085,"small":4086,"Ġtemperature":4087,"Ġproblems":4088,"ĠBen":4089,"].":4090,"Ġmove":4091,"Ġindustry":4092,"ĠOff":4093,"ĠFore":4094,"arth":4095,"Ġstated":4096,"ui":4097,"Ġnight":4098,"Ġepisode":4099,"textwidth":4100,"Ġweight":4101,"ĠScience":4102,"FL":4103,"level":4104,"Ġinsp":4105,"04":4106,"Ġmakes":4107,"Man":4108,"Ġimpact":4109,"Ġreve":4110,"ĠParis":4111,"izes":4112,"ĠTor":4113,"----------------":4114,"test":4115,"Ġjob":4116,"verse":4117,"ĠHistory":4118,"Ġdemon":4119,"Ġprobability":4120,"Ġfemale":4121,"Ġ\\{":4122,"MS":4123,"Ġever":4124,"1950":4125,"reme":4126,"Ġartists":4127,"Ġissue":4128,"fill":4129,"Ġsays":4130,"thing":4131,"ĠClass":4132,"map":4133,"http":4134,"Ġtourn":4135,"ĠNot":4136,"Ġstations":4137,"well":4138,"ares":4139,"Ġmunicip":4140,"Ġdecision":4141,"Ġcompared":4142,"Ġfriend":4143,"Ġearn":4144,"icago":4145,"Ġallowed":4146,"ously":4147,"oice":4148,"Ġtable":4149,"amily":4150,"ĠSome":4151,"road":4152,"}|":4153,"Ġimm":4154,"ĠSuper":4155,"ufact":4156,"ĠĠĠĠĠĠĠĠĠĠĠĠĠĠĠĠĠĠĠĠĠĠĠ":4157,"\");":4158,"OS":4159,"ita":4160,"US":4161,"oring":4162,"Ġmedal":4163,"Ġsaf":4164,"1983":4165,"69":4166,"63":4167,"atform":4168,"Psi":4169,"Er":4170,"Ġsets":4171,"Ġsen":4172,"Ġexpect":4173,"Ġholds":4174,"rial":4175,"men":4176,"Ġcompar":4177,"Ġful":4178,"Ġpreviously":4179,"Set":4180,"ĠLos":4181,"})\\":4182,"Ġfall":4183,"Ġoperations":4184,"oviet":4185,"ĠFigure":4186,"qquad":4187,"ĠDel":4188,"ĠRichard":4189,"Ġtakes":4190,"58":4191,"ĠCamp":4192,"Ġreally":4193,"Ġsus":4194,"ns":4195,"ething":4196,"Ġrow":4197,"&=":4198,"ĠPeter":4199,"prop":4200,"Ġess":4201,"ĠMass":4202,"Ġcell":4203,"ki":4204,"rought":4205,"ĠThus":4206,"ilter":4207,"Ġdirectly":4208,"ĠFound":4209,"Ġfinished":4210,"aval":4211,"ĠSte":4212,"Ġbox":4213,"Ġreplaced":4214,"Ġincreasing":4215,"Ġbehind":4216,"Ġtowards":4217,"Ġdate":4218,"1982":4219,"Is":4220,"oud":4221,"Ġdeep":4222,"mathsf":4223,"Ġeventually":4224,"Ġquantum":4225,"Ġreb":4226,"struct":4227,"Ġmention":4228,"Ġstaff":4229,"Ġpersonal":4230,"lv":4231,"Ġsaw":4232,"77":4233,"ĠFrank":4234,"ying":4235,"Ġren":4236,"Ġprimary":4237,"ĠMel":4238,"ĠWomen":4239,"osen":4240,"Ġoriginally":4241,"Ġwords":4242,"arian":4243,"Ġstudied":4244,"aly":4245,"Ġmount":4246,"ĠPenn":4247,"ether":4248,"Ġboundary":4249,"ĠPublic":4250,"Ġperm":4251,"Ġeffective":4252,"Ġoperator":4253,"ĉĊ":4254,"Ġmoney":4255,"light":4256,"ĠEv":4257,"ĠDes":4258,"}^{(":4259,"Qu":4260,"ometimes":4261,"oma":4262,"LL":4263,"Ġlocation":4264,"Ġscient":4265,"){":4266,"62":4267,"Ġcheck":4268,"Ġadj":4269,"overs":4270,"star":4271,"ĠSub":4272,"razil":4273,"pdf":4274,"Ġaddress":4275,"isation":4276,"Ġplant":4277,"pa":4278,"inct":4279,"retary":4280,"ĠResearch":4281,"Ġuses":4282,"Ġlisted":4283,"ĠFlorida":4284,"^+":4285,"}]":4286,"ĠAccording":4287,"ĠSpanish":4288,"ĠHill":4289,"Ġcharacters":4290,"acing":4291,"ĠLand":4292,"Ġwriting":4293,"actions":4294,"uct":4295,"hy":4296,"Ġtransport":4297,"Ġcapital":4298,"Or":4299,"ĠVictor":4300,"anta":4301,"Ġselected":4302,"ĠRob":4303,"anning":4304,"ĠSecond":4305,"Ġevidence":4306,"ĠLemma":4307,"ros":4308,"Ġsources":4309,"Ġlikely":4310,"ockey":4311,"Ġexperience":4312,"icture":4313,"ua":4314,"{{\\":4315,"Ġmatter":4316,"Since":4317,"ĠIreland":4318,"ishop":4319,"idae":4320,"Ġfamilies":4321,"ĠGeorg":4322,"ĠPri":4323,"1979":4324,"nce":4325,"note":4326,"Ġemer":4327,"Ġequal":4328,"yr":4329,"Ġrepresented":4330,"ET":4331,"ansion":4332,"Ġnumbers":4333,"Ġ/**":4334,"Ġgold":4335,"Ġunivers":4336,"ola":4337,"Ġphysical":4338,"];":4339,"Ġindex":4340,"Ġassume":4341,"inals":4342,"ĠCommittee":4343,"Ġcolumn":4344,"ĠOffic":4345,"ella":4346,"SP":4347,"Ġimmedi":4348,"Ġwriter":4349,"ollowing":4350,"Ġnames":4351,"Ġremained":4352,"igital":4353,"Ġuser":4354,"Ġadapt":4355,"Ġupper":4356,"Ġartist":4357,"Ġmaterial":4358,"Ġord":4359,"}\\\\":4360,"RO":4361,"En":4362,"ĠHenry":4363,"Ġedge":4364,",-":4365,"orpor":4366,"pret":4367,"IM":4368,"61":4369,"Ġtoday":4370,"Ġsupported":4371,"When":4372,"ĠLake":4373,"porary":4374,"Ġorigin":4375,"Ġremains":4376,"ira":4377,"Ġinstance":4378,"Ġ~":4379,"elt":4380,"ĠRock":4381,"Ġlove":4382,"Ġstatic":4383,"Ġ$(\\":4384,"Ġmaint":4385,"'$":4386,"path":4387,"Ġoccup":4388,"plicit":4389,"BA":4390,"za":4391,"Ġbecomes":4392,"ĠTechn":4393,"Ġspin":4394,"Ġstructures":4395,"Ġut":4396,"1981":4397,"Ġreached":4398,"agon":4399,"));":4400,"ĠOther":4401,"Ġbenef":4402,"ĠBur":4403,"ĠForce":4404,"Ġthought":4405,"FC":4406,"ĠGovernment":4407,"ental":4408,"Ġtransform":4409,"Ġfood":4410,"Class":4411,"ye":4412,"Ġgalax":4413,"Ġrestrict":4414,"olk":4415,"Ġsch":4416,"aud":4417,"rief":4418,"Ġthings":4419,"utch":4420,"xspace":4421,"ĠTrans":4422,"Ġsample":4423,"rupt":4424,"scale":4425,"dt":4426,"Ġaltern":4427,"ĠVirginia":4428,"ocks":4429,"Ġshall":4430,"Ġcred":4431,"date":4432,"Ġdomin":4433,"Ġpolitician":4434,"Ġanim":4435,"Ġwidth":4436,"igan":4437,"nel":4438,"arts":4439,"Ġbur":4440,"Ġawarded":4441,"Ġfram":4442,"Ġcollege":4443,"Ġwhole":4444,"bon":4445,"Ġadopt":4446,"Ġfourth":4447,"dimens":4448,"($":4449,"ĠService":4450,"Ġoutput":4451,"ĠCongress":4452,"ĠEr":4453,"1972":4454,"Ġsmaller":4455,"ĠUp":4456,"ĠHealth":4457,"ĠCommun":4458,"cher":4459,"vention":4460,"Ġpractice":4461,"Ġconfig":4462,"Ġnuc":4463,"Ġconcept":4464,"Ġborder":4465,"ĠHow":4466,"acity":4467,"Ġoppos":4468,"Ġpeak":4469,"racks":4470,"ĠTer":4471,"Ġwrite":4472,"ĠOrder":4473,"Ġword":4474,"ĠArts":4475,"Ġadm":4476,"Ġeffic":4477,"Ġdefinition":4478,"gent":4479,"1976":4480,"ĠChicago":4481,"bullet":4482,"selves":4483,"Ġfile":4484,"Ġcritic":4485,"Ġimages":4486,"rative":4487,"stein":4488,"Ġcoordin":4489,"Ġvoc":4490,"gs":4491,"Ġunique":4492,"Ġculture":4493,"Ġsearch":4494,"Ġtypes":4495,"edia":4496,"Ġdecided":4497,"bur":4498,"rc":4499,"mercial":4500,"Ġrunning":4501,"1978":4502,"Ġfeatured":4503,")-":4504,"ĠMexico":4505,"Ġmonth":4506,"Ġerr":4507,"Ġearlier":4508,"Ġplaced":4509,"url":4510,"ront":4511,"Ġgenerally":4512,"Ġbeginning":4513,"ĠAngeles":4514,"ĠBrown":4515,"Ã¨":4516,"Ġmovement":4517,"citet":4518,"ĠAnn":4519,"Form":4520,"Ġscience":4521,"Ġonline":4522,"Ġball":4523,"Ġded":4524,"ariant":4525,"AD":4526,"file":4527,"ĠBoard":4528,"ĠAtl":4529,"body":4530,"ao":4531,"Ġlimited":4532,"lam":4533,"oys":4534,"reater":4535,"pped":4536,"}+\\":4537,"Ġnote":4538,"TV":4539,"anned":4540,"Ġchanged":4541,"ifying":4542,"ien":4543,"Ð°":4544,"emic":4545,"range":4546,"Ġassert":4547,"Ġpaint":4548,"Ġcompetition":4549,"Ġaircraft":4550,"Ġhighest":4551,"Ġprem":4552,"ols":4553,"Ġdouble":4554,"iation":4555,"ĠSwed":4556,"Ġ&\\":4557,"ĠRussia":4558,"Sy":4559,"Ġscen":4560,"Ġmissing":4561,"Ġlonger":4562,"ĠItaly":4563,"clusion":4564,"ras":4565,"Ġlot":4566,"ening":4567,"One":4568,"orial":4569,"ih":4570,"Ġnews":4571,"Ġspeed":4572,"Ġleader":4573,"1974":4574,"Ġcritical":4575,"1977":4576,"index":4577,"ĠEmp":4578,"equiv":4579,"eline":4580,"edge":4581,"Key":4582,"Ġbrought":4583,"shire":4584,"omm":4585,"Ġapplied":4586,"Ġexcept":4587,"stant":4588,"ĠSeries":4589,"skip":4590,"aging":4591,"ĠPan":4592,"1975":4593,"Ġhit":4594,")]":4595,"Ġcharg":4596,"ĠIll":4597,"Ġapproximately":4598,"({\\":4599,"Ġexpand":4600,"Ġchannel":4601,"operat":4602,"ublican":4603,"Ġhousehold":4604,"ĠScot":4605,"Äģ":4606,"Ġelectron":4607,"iments":4608,"Ġruns":4609,"Ġbank":4610,"ĠNews":4611,"ĠAp":4612,"Ġveh":4613,"Ġlay":4614,"ips":4615,"anks":4616,"////":4617,"tra":4618,"Ġestablishments":4619,"Ġface":4620,"ework":4621,"Early":4622,"Ġmaximum":4623,"PS":4624,"ĠIts":4625,"ĠOut":4626,"Ġdenote":4627,"udd":4628,"operatorn":4629,"rice":4630,"1968":4631,"book":4632,"Ġmur":4633,"Ġsinger":4634,"itiz":4635,"ulture":4636,"long":4637,"ects":4638,"Ġequations":4639,"Ġmix":4640,"âĢ¦":4641,"operatorname":4642,"Ġdifference":4643,"Ġcomponent":4644,"ĠDen":4645,"fin":4646,"itors":4647,"ĠChampionships":4648,"cel":4649,"Ġnoted":4650,"Ġorganization":4651,"ĠFin":4652,"Ġsomething":4653,"Ġeconomic":4654,"Ð¾":4655,"Ġsolutions":4656,"1973":4657,"Ġpurch":4658,"Ġfeel":4659,"Ġidea":4660,"Ġreading":4661,"ette":4662,"ĠCast":4663,"perty":4664,"}:":4665,"Ġincreased":4666,"Ġgrand":4667,"ube":4668,"agram":4669,"Ġtransl":4670,"sych":4671,"Ġstatus":4672,"Ġscored":4673,"CD":4674,"Ġlegal":4675,"ĠString":4676,"Ġvalid":4677,"78":4678,"ĠNavy":4679,"indent":4680,"Ġbroadcast":4681,"anda":4682,"Ġwoman":4683,"Ġillust":4684,"ĠStar":4685,"SI":4686,"Ġdemonstr":4687,"Ġer":4688,"Ġremain":4689,"Ġscreen":4690,"Ġregions":4691,"Ġtournament":4692,"Ġ(\"":4693,"rule":4694,"Ġneeded":4695,"ĠFestival":4696,"areer":4697,"war":4698,"ĠDu":4699,"Ġyet":4700,"Ġscore":4701,"rep":4702,"Ġgirl":4703,"Ġlatter":4704,"Ġsoon":4705,"Ġmanagement":4706,"Ġbelong":4707,"urt":4708,"ĠTwo":4709,"uge":4710,"Ġoverall":4711,"Ġorg":4712,"Ã³n":4713,"ĠParliament":4714,"Ġcele":4715,"neq":4716,"Ġnature":4717,"sin":4718,"Pr":4719,"Ġconclud":4720,"Ġtransition":4721,"Ġvel":4722,"96":4723,"Ġcorrel":4724,"51":4725,"Ġdestroy":4726,"Ġsignal":4727,"velopment":4728,"|^":4729,"oral":4730,"Over":4731,"State":4732,"Ġbasketball":4733,"Ġappears":4734,"Exception":4735,"Ġdisplay":4736,"Ġmanufact":4737,"Ġtrade":4738,"Ġplays":4739,"Ġarticle":4740,"Ġpattern":4741,"Ġgun":4742,"Get":4743,"hspace":4744,"ĠSaint":4745,"can":4746,"ectors":4747,"1971":4748,"Ġforms":4749,"Ġoperation":4750,"https":4751,"abit":4752,"Ġsense":4753,"Ġconver":4754,"ipl":4755,"Ġminor":4756,"esh":4757,"iano":4758,"Ġrelation":4759,"Ġmach":4760,"link":4761,"ugby":4762,"requ":4763,"Ġrot":4764,"opl":4765,"Ġrule":4766,"ĠOh":4767,"illa":4768,"Ġpack":4769,"BS":4770,"Ġrepresentation":4771,"Ġir":4772,"Ġfif":4773,"ato":4774,"Ġstreng":4775,"1940":4776,"Ġprove":4777,";\"":4778,"Ġtechnology":4779,"Ġpage":4780,"Ġobjects":4781,"arp":4782,"Ġallows":4783,"Ġtraditional":4784,"itle":4785,"ĠSk":4786,"ĠBus":4787,"Notes":4788,"ĠCarolina":4789,"Ġconnected":4790,"Ġcontinue":4791,"eria":4792,"Ġanti":4793,"dist":4794,"Ġfinancial":4795,"theorem":4796,"Ġfarm":4797,"Ġdu":4798,"}-\\":4799,"azz":4800,"atur":4801,"Ġ:=":4802,"Ġtrain":4803,"Ġmedical":4804,"Ġprison":4805,"Object":4806,"}}{\\":4807,"iana":4808,"1969":4809,"Ġtold":4810,"usion":4811,"1945":4812,"ĠAlthough":4813,"Ġprint":4814,"oto":4815,"that":4816,")}{":4817,"][":4818,"Ġnomin":4819,"Ġanc":4820,"Ġwid":4821,"Ġcomponents":4822,"Ġparticularly":4823,"Ġwide":4824,"ca":4825,"Ġsetting":4826,"heme":4827,"hand":4828,"Ġwriters":4829,"Ġgrant":4830,"ĠOl":4831,"efore":4832,"Ġsport":4833,"Ġgrowth":4834,"Ġextended":4835,"Ġbring":4836,"Ġacadem":4837,"Ġstudent":4838,"ĠSoviet":4839,"Ġactually":4840,"Ġstarting":4841,"dimensional":4842,"ĠCD":4843,"Ġlevels":4844,"ĠKn":4845,"Ġdecre":4846,"Ġinterview":4847,"ĠTw":4848,"Ġlack":4849,"Ġdatas":4850,"Ġactress":4851,"Ġforward":4852,"ĠPe":4853,"Ġclassical":4854,"52":4855,"Ġmetric":4856,"pan":4857,"MA":4858,"umerate":4859,"Ġdetermined":4860,"Ġprograms":4861,"otion":4862,"ĠOper":4863,"Ġimplies":4864,"escription":4865,"Ġbo":4866,"Ġcomes":4867,"ĠMil":4868,"ader":4869,"ĠUnder":4870,"Ġrap":4871,"Ġquick":4872,"ady":4873,"iro":4874,"Ġgenerated":4875,"\";":4876,"scr":4877,"Ġmeaning":4878,"iller":4879,"ĠEducation":4880,"Ġnecessary":4881,"aled":4882,"Ġcollect":4883,"ĠBre":4884,"Ġevolution":4885,"ags":4886,"otic":4887,"ĠMa":4888,"Ġtask":4889,"ĠBrazil":4890,"ĠRet":4891,"IR":4892,"ny":4893,"Ġdetails":4894,"1967":4895,"Äĩ":4896,"Ġspent":4897,"She":4898,"ĠSpace":4899,"length":4900,"Ġconstraint":4901,"Ġactor":4902,"adium":4903,"Ġwave":4904,"rich":4905,"Ġpark":4906,"Ġpen":4907,"Ġbehavior":4908,"Ġcharge":4909,"ansas":4910,"Ġste":4911,"Ġdark":4912,"ĠDis":4913,"Ġsimply":4914,"1930":4915,"dro":4916,"Ġhours":4917,"enth":4918,"ĠTimes":4919,"Ġhot":4920,"init":4921,"ias":4922,"ĠAwards":4923,"]\\":4924,"inem":4925,"Ġthreat":4926,"Ġproducts":4927,"Ġdivision":4928,"riz":4929,"English":4930,"Ġ-\\":4931,"View":4932,"Ġactivities":4933,"Ġchoice":4934,"uled":4935,"56":4936,"Ġveloc":4937,"Ġaim":4938,"omorphism":4939,"Ġcaused":4940,"Ġsometimes":4941,"Ġresulting":4942,"Ġshot":4943,"apter":4944,"irit":4945,"ĠGr":4946,"ervation":4947,"ĠWales":4948,"Ġthemselves":4949,"().":4950,"Ġyield":4951,"aught":4952,"No":4953,"enumerate":4954,"Ġcontain":4955,"Ġgoals":4956,"Ġopportun":4957,"Ġweak":4958,"Ġens":4959,"Ġapplication":4960,"Ġ!=":4961,"ogle":4962,"iny":4963,"acher":4964,"Ġrecon":4965,"Ġconsists":4966,"54":4967,"Ġneighbor":4968,"ĠCap":4969,"ĠMo":4970,"ĠJoseph":4971,"Ġesc":4972,"Ġseg":4973,"Ġmajority":4974,"AB":4975,"Ġshare":4976,"Åį":4977,"Sup":4978,"ĠPet":4979,"vement":4980,"ĠProvince":4981,"Ġcollabor":4982,"ĠArab":4983,"1964":4984,"ouri":4985,"ersey":4986,"ĠTherefore":4987,"87":4988,"ĠLiber":4989,"Comm":4990,"Ġalgebra":4991,"59":4992,"Ġsports":4993,"isco":4994,"ersion":4995,"Ġwinning":4996,"Ġoptim":4997,"TR":4998,"Ġcoe":4999,"Ġneut":5000,"cles":5001,"Ġsecurity":5002,"ĠMost":5003,"Ġautom":5004,"Ġdeliver":5005,"ĠPo":5006,"Ġsurround":5007,"53":5008,"SC":5009,"vis":5010,"Ġplatform":5011,"Ġpresence":5012,"Ġdise":5013,"ĠSun":5014,"ski":5015,"Ġunion":5016,"imb":5017,"Ġended":5018,"Ġvocals":5019,"iring":5020,"Ġchem":5021,"sylv":5022,"Ġrob":5023,"Ġinn":5024,"icated":5025,"perp":5026,"venue":5027,"Ġcustom":5028,"Ġfigure":5029,"Ġphil":5030,"ecause":5031,"Ġknowledge":5032,"Ġtree":5033,"Ġpassed":5034,"Ġseasons":5035,"wa":5036,"Ġtheorem":5037,"atriate":5038,"ĠMartin":5039,"ĠMos":5040,"ĠTour":5041,"ĠMur":5042,"Ġwindow":5043,")}$":5044,"\\,\\":5045,"ĠHistoric":5046,"Vert":5047,"Ġsuffer":5048,"asion":5049,"ĠBank":5050,"$}":5051,"heast":5052,"ĠPac":5053,"Ġequivalent":5054,"Ġattended":5055,"ĠAssembly":5056,"Ġedition":5057,"Ġhol":5058,"Ġremaining":5059,"Ġquality":5060,"Ġwhom":5061,"ora":5062,"ĠOld":5063,"ĠProfess":5064,"ĠInc":5065,"Ġfederal":5066,"agement":5067,"xy":5068,"ĠSil":5069,"Ġriver":5070,"ĠColumb":5071,"special":5072,"nav":5073,"sylvania":5074,"ĠChief":5075,"Can":5076,"UT":5077,"ĠDec":5078,"itemize":5079,"ĠHon":5080,"language":5081,"ultural":5082,"Ġrecover":5083,"Ġvariety":5084,"Ġcoast":5085,"Ġagreement":5086,"Ġthrow":5087,"Ġmagnetic":5088,"Sec":5089,"John":5090,"bound":5091,"ĠLife":5092,"300":5093,"ĠNorthern":5094,"ĠIrish":5095,"gence":5096,"Ġstudio":5097,"ĠDirector":5098,"Ġsummer":5099,"enge":5100,"iece":5101,"osing":5102,"Ġproced":5103,"di":5104,"Ġrecently":5105,"Ġ///":5106,"allery":5107,"osh":5108,"icon":5109,"ĠFoundation":5110,"OT":5111,"Ġinside":5112,"Ġchampionship":5113,"dag":5114,"NN":5115,"overnor":5116,"ĠSocial":5117,"1965":5118,"Ġcop":5119,"ensor":5120,"Ġmanager":5121,"edom":5122,"During":5123,"ĠOpen":5124,"Rep":5125,"ĠWood":5126,"Ġreference":5127,"Ġrailway":5128,"Career":5129,"wan":5130,"eek":5131,"tical":5132,"ima":5133,"place":5134,"Ġclasses":5135,"Ġmusical":5136,"Ġcorrect":5137,"ĠVer":5138,"ko":5139,"ĠAre":5140,"ĠBig":5141,"Ġattention":5142,"ĠYoung":5143,"1966":5144,"Ġrequest":5145,"stance":5146,"Ġrules":5147,"Ġking":5148,"inos":5149,"Ġinterpret":5150,"1920":5151,"location":5152,"Ġsouthern":5153,"split":5154,"89":5155,"ĠIran":5156,"Ġmiddle":5157,"Ġsched":5158,"vey":5159,"onom":5160,"ĠOver":5161,"Ġdomain":5162,"Ġmatches":5163,"noindent":5164,"Ġneeds":5165,"flict":5166,"ĠEmpire":5167,"Ġproducer":5168,"Ġcontact":5169,"._":5170,"Reg":5171,"Ġbr":5172,"Ġrelative":5173,"usband":5174,"Ġcommission":5175,"~$":5176,"ancy":5177,"public":5178,"inger":5179,"Ġmission":5180,"Ġexpress":5181,"Ðµ":5182,"());":5183,"Ġfit":5184,"Ġnorthern":5185,"Ġstay":5186,"Ġreduced":5187,"Ġestimate":5188,"Tr":5189,"OC":5190,"Ġcensus":5191,"eks":5192,"Ġcounter":5193,"force":5194,"ĠIII":5195,"Ġmeeting":5196,"Ġelectric":5197,"ĠDou":5198,"Ġmovie":5199,"ĠLove":5200,"Ġ\\|":5201,"Ġopening":5202,"ati":5203,"Ġestimated":5204,"ĠEngine":5205,"Ġnewsp":5206,"ĠHaw":5207,"stra":5208,"house":5209,"aily":5210,"iral":5211,"isher":5212,"Ġlic":5213,"Ġisland":5214,"ĠGra":5215,"Ġult":5216,"Ġlaunched":5217,"Ġsymbol":5218,"ĠLu":5219,"vspace":5220,"ĠWal":5221,"Ġcause":5222,"Films":5223,"Ġterrit":5224,"mond":5225,"abs":5226,"ĠSir":5227,"But":5228,"ĠOf":5229,"Ġinfluence":5230,"yan":5231,"ampion":5232,"Ġofficer":5233,"Ġstra":5234,"ĠHel":5235,"CH":5236,"ĠLee":5237,"Ġwhy":5238,"ĠWeb":5239,"Ġappearance":5240,"Ð¸":5241,"ĠPost":5242,"auge":5243,"ba":5244,"apping":5245,"Ġ$-":5246,"work":5247,"Ġtreatment":5248,"itation":5249,"aven":5250,"Ġcommunities":5251,"Ġtalk":5252,"airman":5253,"ishes":5254,"EE":5255,"apers":5256,"Ġcomment":5257,"etworks":5258,"Ġdesp":5259,"ĠMag":5260,"Test":5261,"background":5262,"ĠGreek":5263,"Ġnearly":5264,"Build":5265,"\\}$":5266,"(-":5267,"Ġwood":5268,"ĠRegister":5269,"Ġratio":5270,"Ġspectrum":5271,"ĠOffice":5272,"mathscr":5273,"93":5274,"Ġuniform":5275,"ĠPennsylvania":5276,"alo":5277,"72":5278,"ML":5279,"Ed":5280,"Ġrank":5281,"Ġfully":5282,"Ġlived":5283,"Pi":5284,"Person":5285,"Further":5286,"ĠFre":5287,"arriage":5288,"rices":5289,"Ġchosen":5290,"ali":5291,"Ġslow":5292,"Ġliterature":5293,"Ġparents":5294,"Ġbrief":5295,"Ġforeign":5296,"Ġmulti":5297,"First":5298,"ĠHamilton":5299,"vant":5300,"Ġgeomet":5301,"ĠJournal":5302,"}}_":5303,"Ġprevent":5304,"ĠGen":5305,"ĠSpain":5306,"Ġcommercial":5307,"rence":5308,"ĠJo":5309,"kins":5310,"Ġproduce":5311,"elled":5312,"Ġpressure":5313,"Ġspeak":5314,"ĠLong":5315,"Ġcontroll":5316,"ĠLord":5317,"Ġpoet":5318,"ĠJud":5319,"Ġroute":5320,"Ġchief":5321,"ĠMain":5322,"Error":5323,"inet":5324,"ĠForm":5325,"ective":5326,"ĠHot":5327,"display":5328,"ĠRo":5329,"Ġnegative":5330,"Mar":5331,"lease":5332,"ĠTime":5333,"Other":5334,"do":5335,"anger":5336,"Ġbattle":5337,"oston":5338,"Ġvariables":5339,"inners":5340,"Ġdro":5341,"92":5342,"Ġfinally":5343,"Ġweeks":5344,"Ġsquare":5345,"&&":5346,"Ġsociety":5347,"Ġsufficient":5348,"ĠRepublican":5349,"approx":5350,"ĠTest":5351,"ĠSpr":5352,"Ġax":5353,"ĠJer":5354,"Ġeditor":5355,"ĠPeople":5356,"iques":5357,"Note":5358,"Ġminutes":5359,"lt":5360,")+":5361,"Ġindividuals":5362,"Equ":5363,"obile":5364,"Ġasked":5365,"Ġhighly":5366,"Ġmostly":5367,"ĠCross":5368,"{}":5369,"Ġexpansion":5370,"Ġmarg":5371,"Ġsenior":5372,"Ġdefeated":5373,"Ġheavy":5374,"emporary":5375,"Ġhyp":5376,"ĠOur":5377,"Ġreligious":5378,"crete":5379,"struction":5380,"ĠPak":5381,"ĠTable":5382,"version":5383,"Ġdiss":5384,"Ġinitially":5385,"uls":5386,"Event":5387,"Ġlives":5388,"Ġroom":5389,"speople":5390,"MP":5391,"ĠDemocratic":5392,"ĠFred":5393,"ĠĠĠĠĠĠĠĠĠĠĠĠ":5394,"Ġchalleng":5395,"ĠValley":5396,"Ġquarter":5397,"ĠJim":5398,"Ġmagazine":5399,"ĠCivil":5400,"ĠBo":5401,"ĠRel":5402,"Ġsituation":5403,"Ġcentre":5404,"ĠHere":5405,"Ġseparate":5406,"1963":5407,"Exp":5408,"94":5409,"Ġrepe":5410,"Ġfailed":5411,"Time":5412,"ĠBattle":5413,"ĉĉĉĉĉ":5414,"ĠNote":5415,"Ġwanted":5416,"Ġsyn":5417,"ja":5418,"weight":5419,"norm":5420,"ĠFe":5421,"Ġannual":5422,"itable":5423,"Ġcarried":5424,"dr":5425,"IP":5426,"Ġvolume":5427,"AF":5428,"etts":5429,"ĠNow":5430,"dec":5431,"Ġowned":5432,"bt":5433,"1962":5434,"Ġnumerous":5435,"ĠBritain":5436,"Sub":5437,"ĠTeam":5438,"Ġformation":5439,"){\\":5440,"ĠFort":5441,"itter":5442,"ĠUk":5443,"Ġhusband":5444,"Ġcle":5445,"Ġbecoming":5446,"Ġarray":5447,"unior":5448,"Ġconstructed":5449,"ĠCamb":5450,"ĠBob":5451,"Ġhum":5452,"Ġfrequency":5453,"Ġexpression":5454,"Ġreferred":5455,"iography":5456,"Then":5457,"Ġcitiz":5458,"win":5459,"ynom":5460,"gu":5461,"parallel":5462,"Ġheight":5463,"mann":5464,"Ġfa":5465,"Ġsingles":5466,"86":5467,"Ġmurder":5468,"flow":5469,"linear":5470,"hemat":5471,"Ġeigen":5472,"Ġarrang":5473,"ĠSouthern":5474,"ĠLy":5475,"Ġapply":5476,"Ġwind":5477,"but":5478,";&":5479,"Ġderived":5480,"1944":5481,"Ġlaws":5482,"Ġrecords":5483,"Be":5484,"rants":5485,"va":5486,"oration":5487,"ategor":5488,"ogue":5489,"UR":5490,"mas":5491,"bury":5492,"Ġidentity":5493,"lig":5494,"anner":5495,"ĠPlay":5496,"eful":5497,"unct":5498,"nes":5499,"fect":5500,"Ġarmy":5501,"erc":5502,"Ã§":5503,"ln":5504,"ellig":5505,"76":5506,"Ġavoid":5507,"Ġpoor":5508,"ĠLine":5509,"Ġcrick":5510,"summary":5511,"Ġnorm":5512,"js":5513,"Ġstatement":5514,"Ġfill":5515,"model":5516,"Requ":5517,"Ġdepartment":5518,"uty":5519,"ĠBas":5520,"ION":5521,"91":5522,"Ġsea":5523,"ĠJac":5524,"Ġreach":5525,"Ġleave":5526,"Ġdrama":5527,"Ġscheme":5528,"ĠBook":5529,"Ġcandidate":5530,"ĠAsia":5531,"Ġcategory":5532,"ulty":5533,"Ġvan":5534,"inois":5535,"rat":5536,"Ġincome":5537,"Ġolder":5538,"aka":5539,"Ġrisk":5540,"Ġjoint":5541,"word":5542,"ĠJewish":5543,"auss":5544,"Ġstream":5545,"ĠCam":5546,"ĠOhio":5547,"Out":5548,"MC":5549,"Ġcoming":5550,"ĠCre":5551,"Ġexam":5552,"ĠSar":5553,"ĠJack":5554,"hire":5555,"multicol":5556,"isters":5557,"ĠSol":5558,"Ġarrest":5559,"ecting":5560,"Ġforced":5561,"Ġcounty":5562,"enty":5563,"ĠConn":5564,"ĠCarl":5565,"ibly":5566,"Ġconsequ":5567,"Ġpick":5568,"Ġmentioned":5569,"Ġreplace":5570,"ĠLin":5571,"ĠLie":5572,"IG":5573,"Ġforest":5574,"Ġwalk":5575,"Ġamb":5576,"Ġactivity":5577,"}}}":5578,"met":5579,"VID":5580,"Ġselection":5581,"Ġleads":5582,"Ġcarry":5583,"ĠAtt":5584,"Ġinequ":5585,"Ġentered":5586,"Ġgenus":5587,"Ġblue":5588,"ĠStep":5589,"Ġidentified":5590,"even":5591,"Ġvote":5592,"multicolumn":5593,"espite":5594,"ĠOx":5595,"82":5596,"ĠRem":5597,"underline":5598,"ker":5599,"Ġexisting":5600,"1961":5601,"Ġfast":5602,"Ġgrav":5603,"}/":5604,"Ġbranch":5605,"Ġconnection":5606,"Ġsusp":5607,"84":5608,"aters":5609,"Ġdimension":5610,"Ġstories":5611,"Ġelections":5612,"ennis":5613,"achus":5614,"cond":5615,"net":5616,"iders":5617,"real":5618,"ashed":5619,"Ġauth":5620,"Ġeth":5621,"iy":5622,"Ġdrug":5623,"ĠTro":5624,"Ġraised":5625,"ĠLibrary":5626,"Ġvelocity":5627,"oting":5628,"Ġcontinuous":5629,"Ġprojects":5630,"using":5631,"Serv":5632,"Ġdrum":5633,"ifier":5634,"ĠMen":5635,"turb":5636,"NA":5637,"ĠMax":5638,"rade":5639,"jo":5640,"osoph":5641,"ĠEarth":5642,"owers":5643,"Ġslight":5644,"Ġresponsible":5645,"ackson":5646,"Ġbal":5647,"Ġmode":5648,"Pop":5649,"ĠJersey":5650,"Ġuniversity":5651,"End":5652,"Ġarchitecture":5653,"Ġability":5654,"Ġmessage":5655,"cho":5656,"Ġheart":5657,"Ġlat":5658,"ĠFri":5659,"\"></":5660,"Ġconcent":5661,"ĠUnivers":5662,"Ġmaster":5663,"Ġfeed":5664,"ĠGal":5665,"ĠProgram":5666,"run":5667,"olved":5668,"ĠMem":5669,"400":5670,".</":5671,"ĠTri":5672,"pack":5673,"ĠIslam":5674,"81":5675,"textrm":5676,"Ġseem":5677,"Ġhelped":5678,"Ġimmediately":5679,"ĠDev":5680,"ĠPacific":5681,"Ġsuggest":5682,"ĠField":5683,"rees":5684,"ibli":5685,"Ġtim":5686,"Ġhistorical":5687,"Aust":5688,"ĠMichigan":5689,"ounds":5690,"ped":5691,"ador":5692,"``":5693,"ĠScotland":5694,"gypt":5695,"track":5696,"Ġsurvey":5697,"Inter":5698,"Ġ_{":5699,"command":5700,"vest":5701,"^-":5702,"imin":5703,"ĠWhat":5704,"Ġcapacity":5705,"entially":5706,"Ġmotion":5707,"ĠBase":5708,"ĠAsian":5709,"1942":5710,"Ġplans":5711,"Ġclaimed":5712,"arden":5713,"ĠConference":5714,"AG":5715,"achusetts":5716,"App":5717,"ova":5718,"Ġspread":5719,"Co":5720,"active":5721,"ĠTim":5722,"Ġvictory":5723,"Ġorganizations":5724,"aria":5725,"UN":5726,"Ġsoftware":5727,"ĠEdward":5728,"Ġderiv":5729,"Bar":5730,"Ġbad":5731,"According":5732,"Ġsaying":5733,"Ġvirt":5734,"83":5735,"pass":5736,"eler":5737,"Ġfriends":5738,"(),":5739,"Ġdistinct":5740,"Ġmainly":5741,"adel":5742,"ĠJul":5743,"Ġparties":5744,"ĠSecretary":5745,"Group":5746,"Ġgreater":5747,"Ġbrand":5748,"nam":5749,"kin":5750,"Ġmemory":5751,"Text":5752,"Ġhence":5753,"Sim":5754,"Ġshoot":5755,"undred":5756,"burgh":5757,"Ġserve":5758,"minus":5759,"iling":5760,"Ġarm":5761,"ĠAcc":5762,"\":":5763,"Ġnine":5764,"ĠQueen":5765,"ĠCro":5766,"Ġgreen":5767,"Ġquite":5768,"=\"../../":5769,"come":5770,"ĠTop":5771,"Ġsmooth":5772,"ĠBC":5773,"ĠRh":5774,"Ġdoing":5775,"1956":5776,"ependence":5777,"Ġmicro":5778,"term":5779,"ĠJones":5780,"stitution":5781,"Ġdiscussed":5782,"Ġ$\\{":5783,"SO":5784,"ĠJohnson":5785,"Ġvariable":5786,"ĠSong":5787,"1959":5788,"ĠRadio":5789,"Ġdead":5790,"Ġdespite":5791,"Ġworkers":5792,"ĠDevelopment":5793,"':":5794,"Ġsn":5795,"Ġmoving":5796,"abeth":5797,"ĠFurther":5798,"resents":5799,"Ġcard":5800,"ĠFC":5801,"ĠPoland":5802,"Ġturned":5803,"Ġbatt":5804,"Ġintegral":5805,"awa":5806,"stream":5807,"subseteq":5808,"PR":5809,"Ġmechanism":5810,"ildren":5811,"greg":5812,"Ġnation":5813,"Ġsolid":5814,"Ġprobably":5815,"Ġcelebr":5816,"Ġpurpose":5817,"ĠKent":5818,"Ġcontrast":5819,"Ġinternal":5820,"uan":5821,"Ġobservations":5822,"Ġcorn":5823,"ulate":5824,"rary":5825,"print":5826,"Ġincorpor":5827,"kl":5828,"ĠHy":5829,"mission":5830,"1948":5831,"ĠIllinois":5832,"73":5833,"ograp":5834,"Ġofficers":5835,"ila":5836,"ĠTheir":5837,"iant":5838,"resh":5839,"Ġ...":5840,"ptions":5841,"ĠWork":5842,"ĠLuc":5843,"Ġshape":5844,"input":5845,"ifically":5846,"1958":5847,"pol":5848,"urban":5849,"ĠCentre":5850,"Year":5851,"icine":5852,"Ġstop":5853,"zer":5854,"Ġfootballer":5855,"Ġdetermine":5856,"gn":5857,"Ġpanel":5858,"Ġansw":5859,"ĠRepresent":5860,"ilarly":5861,"Ġexplicit":5862,"Ġcolon":5863,"anguages":5864,"ĠFrancisco":5865,"}^{-":5866,"rong":5867,"Ġcomputer":5868,"aya":5869,"Ġrecomm":5870,"79":5871,"Back":5872,"ĠGood":5873,"Ġalleg":5874,"1939":5875,"Ġdidn":5876,"Ġâ":5877,"<\\":5878,"ternet":5879,"Ġconfir":5880,"Am":5881,"idden":5882,"ĠRam":5883,"Theta":5884,"1941":5885,"Att":5886,"Ġserving":5887,"ĠBoston":5888,"Ġexamples":5889,"uer":5890,"ĠAlb":5891,"ĠCE":5892,"74":5893,"1943":5894,"Ġconflict":5895,"Ġprogress":5896,"host":5897,"71":5898,"pace":5899,"Ġfamous":5900,"Ġselect":5901,"Ġcities":5902,"Add":5903,"Ne":5904,"inity":5905,"National":5906,"Ġhyper":5907,"Ġfoot":5908,"Ġ\\;":5909,"icks":5910,"Ġapplications":5911,"Ġ?":5912,"Of":5913,"ĠBow":5914,"!--":5915,"ĠĠĠĠĠĠĠĠĠĠ":5916,"osm":5917,"ĠAlso":5918,"Ġtherm":5919,"Ġlayer":5920,"Ġinters":5921,"Ġiter":5922,"Ġexistence":5923,"Ġleaving":5924,"ĠWilliams":5925,"');":5926,"ĠGeorgia":5927,"uced":5928,"Ġsquad":5929,"aylor":5930,"}$\\":5931,"ĠPrem":5932,"Ġfactors":5933,"Ġpoliticians":5934,"Ġmaps":5935,"Ġice":5936,"ĠĠĠĊ":5937,"een":5938,"Ġbass":5939,"Ġcompletely":5940,"ĠMah":5941,"spec":5942,"poration":5943,"SU":5944,"Ġactors":5945,"ĠKong":5946,"Ġpolynom":5947,"Ġcompact":5948,"Ġones":5949,"ĠRef":5950,"Ġships":5951,"File":5952,"ĠElect":5953,"rison":5954,"Ġoperators":5955,"Ġprofile":5956,"Ġinteraction":5957,"ĠMassachusetts":5958,"enant":5959,"Ġdescription":5960,"Ġcontribution":5961,"ĠSoc":5962,"Ġoperated":5963,"Ġbasic":5964,"Ġseat":5965,"Ġways":5966,"ĠSenate":5967,"inf":5968,"1957":5969,"phy":5970,"Ġbelieved":5971,"ĠCr":5972,"IV":5973,"ĠDutch":5974,"sky":5975,"Ġresources":5976,"Ġgiving":5977,"1946":5978,"Ġpromin":5979,"rical":5980,"Ġeasily":5981,"Ġconvert":5982,"Ġremoved":5983,"Ġgauge":5984,"check":5985,"CL":5986,"Ġelev":5987,"Ġminimum":5988,"hester":5989,"itage":5990,"Ġpartn":5991,"fe":5992,"Ġflux":5993,"Ġprofessor":5994,"Ġleaders":5995,"Field":5996,"ji":5997,"sen":5998,"Ġsemi":5999,"ĠPre":6000,"ĠShow":6001,"You":6002,"ĠMajor":6003,"Ġusers":6004,"ĠGovernor":6005,"Ġnoise":6006,"^{-\\":6007,"abled":6008,"Ġefforts":6009,"arters":6010,"GB":6011,"Ġnative":6012,"Ġretired":6013,"user":6014,"ĠMiddle":6015,"asy":6016,"Ġoil":6017,"Ġbelieve":6018,"Ġshowed":6019,"ewidth":6020,"Ġoffered":6021,"Ġwestern":6022,"Ġ/>":6023,"Ġfun":6024,"Ġunknown":6025,"TE":6026,"1952":6027,"Ġpositions":6028,"Ġtypically":6029,"Ġdemand":6030,"ĠCoast":6031,"ifold":6032,"Ġcurve":6033,"object":6034,"Ġpil":6035,"Ġcombined":6036,"ĠSand":6037,"Ġcomposed":6038,"Ġlif":6039,"Trans":6040,"à¤":6041,"Ġdefault":6042,"Brit":6043,"Don":6044,"ĠSund":6045,"Ġnetworks":6046,"pc":6047,"true":6048,"cean":6049,"Ġmind":6050,"amm":6051,"ĠUr":6052,"ĠRailway":6053,"texttt":6054,"ocol":6055,"1955":6056,"Ġetc":6057,"press":6058,")|":6059,"Ġbounded":6060,"oken":6061,"Ġprocesses":6062,"Ġhospital":6063,"ĠTem":6064,"Ġrequires":6065,"ela":6066,"prod":6067,"Ġbey":6068,"ĠRos":6069,"orter":6070,"png":6071,"Ġsister":6072,"Ġhttps":6073,"orage":6074,"/*":6075,"Ġ);":6076,"Ð½":6077,"ĠEastern":6078,"ĠBet":6079,"Ġcouncil":6080,"ĠPhilipp":6081,"Ab":6082,"lay":6083,"Ġ$|":6084,"Ġrecording":6085,"Ġcore":6086,"oolean":6087,"ading":6088,"rame":6089,"then":6090,"ĠÅ":6091,"ellar":6092,"Ġscene":6093,"bigg":6094,"Ġload":6095,"cons":6096,"ĠPrince":6097,"Node":6098,"secut":6099,"PC":6100,"Ġextension":6101,"ĠJes":6102,"Ġrepresents":6103,"Per":6104,"ategy":6105,"ĠBern":6106,"}'":6107,"Ġcultural":6108,"Ġregional":6109,"ĠTre":6110,"erved":6111,"han":6112,"mat":6113,"Ġgeneration":6114,"1947":6115,"uries":6116,"Ġcam":6117,"ĠJr":6118,"Ġsites":6119,"Ġseems":6120,"orning":6121,"Ġplane":6122,"ĠDet":6123,"ĠPortug":6124,"Ġquickly":6125,"Ġformula":6126,"Ġbeyond":6127,"Ġstraight":6128,"rics":6129,"uracy":6130,"ĠEnd":6131,"icted":6132,"ĠTheatre":6133,"NS":6134,"Ġcomedy":6135,"yer":6136,"Ġfirm":6137,"ĠWay":6138,"IL":6139,"viation":6140,"Ġmuseum":6141,"ĠMany":6142,"det":6143,"multi":6144,"Ġfavor":6145,"main":6146,"Ġfle":6147,"Ġwor":6148,"ĠMov":6149,"wer":6150,"standing":6151,"har":6152,"Ġstore":6153,"Ġvs":6154,"footnote":6155,"oplus":6156,"ĠMu":6157,"ĠGet":6158,"ĠEll":6159,"conn":6160,"Ġrelatively":6161,"Ġshift":6162,"icity":6163,"Ġtal":6164,"Ġbit":6165,"Ġformat":6166,"Map":6167,"Ġpurs":6168,"Ġapprop":6169,"Ġregister":6170,"setminus":6171,"Ġletter":6172,"Ser":6173,"Ġextra":6174,"Ġreform":6175,"Ġdescent":6176,"])":6177,"Ġiniti":6178,"Ġcovered":6179,"seud":6180,"Ġdiscovered":6181,"Ġtracks":6182,"Ġcontaining":6183,"Ġdescribe":6184,"_*":6185,"ĠProject":6186,"Count":6187,"DF":6188,"irus":6189,"Ġclubs":6190,"_{(":6191,"aver":6192,"Ġproviding":6193,"Ġproceed":6194,"Ġscatter":6195,"Ġemission":6196,"++":6197,"Ġarbit":6198,"ĠLatin":6199,"Ġyouth":6200,"case":6201,"Ġissued":6202,"Ġearned":6203,"Ġprep":6204,"ĠOxford":6205,"\\}":6206,"ĠEgypt":6207,"Ġ($\\":6208,"asks":6209,"oute":6210,"onto":6211,"colon":6212,"Ġactions":6213,"Ġinteresting":6214,"Ġsamples":6215,"Ã±":6216,"ĠBoth":6217,"bi":6218,"ĠHung":6219,"ĠÂ£":6220,"izer":6221,"Ġchoose":6222,"Ġpropos":6223,"ĠCharl":6224,"Ġfair":6225,"1954":6226,"ride":6227,"Ġ(-":6228,"Ġattract":6229,"Ġadministration":6230,"Ġdiagram":6231,"Ġmixed":6232,"hesis":6233,"Ġsubsequently":6234,"ĠStan":6235,"het":6236,"Ġexecutive":6237,"1953":6238,"ĠVan":6239,"Ġaspect":6240,"Ġchart":6241,"rance":6242,"ĠHuman":6243,"Path":6244,"pton":6245,"ĠMcC":6246,"Å¡":6247,"ĠColumbia":6248,"Ġmut":6249,"ĠScottish":6250,"linewidth":6251,"Ġentry":6252,"ĠMid":6253,"=\"#":6254,"Ġargument":6255,"oir":6256,"Ġsplit":6257,"Ġimprove":6258,"Ġinform":6259,"ĠLi":6260,"Now":6261,"Ġjoin":6262,"law":6263,"Ġmarriage":6264,"Ġacquired":6265,"attice":6266,"ĠCOVID":6267,"Ġrates":6268,"Ġfeat":6269,"ĠBang":6270,"wedge":6271,"Index":6272,"ĠKe":6273,"Ġformal":6274,"sch":6275,"['":6276,"1949":6277,"However":6278,"Ġagent":6279,"Ġexperiments":6280,"Ġframework":6281,"Ġordered":6282,"ĠJustice":6283,"ÑĢ":6284,"Med":6285,"Ġharm":6286,"Table":6287,"Ġcopy":6288,"orb":6289,"quot":6290,"ĠEconom":6291,"{$":6292,"pty":6293,"Ġgoes":6294,"ĠBal":6295,"Ġcomparison":6296,"Ġconducted":6297,"Ġhop":6298,"cript":6299,"Ġresolution":6300,"HE":6301,"ĠCy":6302,"Ġmeasures":6303,"uations":6304,"TS":6305,"ĠAut":6306,"}},":6307,"Ġ$[":6308,"ĠVi":6309,"Ġmis":6310,"Info":6311,"Ġstrategy":6312,"While":6313,"Ġmeasured":6314,"ING":6315,"content":6316,"Ġsal":6317,"Ġcells":6318,"ĠPlaces":6319,"Ġpersonnel":6320,"####":6321,"arant":6322,"Color":6323,"ructure":6324,"Ġvisual":6325,"Members":6326,"Ġvon":6327,"}}_{":6328,"Ġeasy":6329,"Ġspaces":6330,"antry":6331,"Ġreduce":6332,"ione":6333,"Ġdisease":6334,"Ġuns":6335,"ĠSea":6336,"ĠSpecial":6337,"Ġlies":6338,"ighter":6339,"Ġframe":6340,"izabeth":6341,"arks":6342,"United":6343,"ez":6344,"Ġthr":6345,":#":6346,"teen":6347,"Ġadopted":6348,"Act":6349,"ĠKorea":6350,"onia":6351,"ulpt":6352,"ĠEnter":6353,"Ġvoice":6354,"Ġvac":6355,"Ġconcert":6356,"ĠBlue":6357,"Ġdigital":6358,"ĠLab":6359,"count":6360,"ĠWall":6361,"ĠAff":6362,"Ġotherwise":6363,"Ġsignificantly":6364,"'re":6365,"names":6366,"Ġtrial":6367,"ĠJackson":6368,"Ġsymmetry":6369,"ÅĤ":6370,"110":6371,"Ġbillion":6372,"Ġhockey":6373,"ĠPolice":6374,"eller":6375,"orney":6376,"eld":6377,"Ġreceive":6378,"ĠHong":6379,"ĠFar":6380,"1951":6381,"ĠCard":6382,"Art":6383,"ĠSupreme":6384,"British":6385,"iency":6386,"stone":6387,"abase":6388,"SR":6389,"ropy":6390,"Ġresidents":6391,"Ġsector":6392,"ĠHome":6393,"title":6394,"ĠCreek":6395,"Ġdynamics":6396,"Ġpsych":6397,"illy":6398,"Ġsucceed":6399,"ographic":6400,"Ġcrew":6401,"ancing":6402,"Sw":6403,"ĠHa":6404,"amin":6405,"ĠRay":6406,"Ġvertex":6407,"Ġuseful":6408,"ĠHor":6409,"Ġserious":6410,"Ġhttp":6411,"onym":6412,"Ġthing":6413,"Ġbridge":6414,"Ġwinner":6415,"Ġoptions":6416,"hing":6417,"ĠPolish":6418,"Ġdual":6419,"plate":6420,"ologist":6421,"Ġplot":6422,"abilities":6423,"ĠGi":6424,"Ġhar":6425,"ĠFederal":6426,"Ġchain":6427,"INE":6428,"Ġfort":6429,"dagger":6430,"Ġachieved":6431,"Ġembedd":6432,"Ġencou":6433,"_+":6434,"ipped":6435,"ibliography":6436,"Ġvisit":6437,"tes":6438,"IA":6439,"ĠInf":6440,"Char":6441,"Ġenj":6442,"ĠHead":6443,"ĠBroad":6444,"etime":6445,"ĠSet":6446,"ais":6447,"ĠEach":6448,"Ġcontributions":6449,"Ġgalaxies":6450,"ricts":6451,"dney":6452,"Ġsubset":6453,"LO":6454,"Ġmetal":6455,"Ġpriv":6456,"ĠMuslim":6457,"inite":6458,"fit":6459,"Ġdraft":6460,"Ġparticles":6461,"PE":6462,"car":6463,"ĠBerlin":6464,"bin":6465,"Ġauthors":6466,"Ġawards":6467,"rie":6468,"ĠStation":6469,"ĠUN":6470,"ĠTechnology":6471,"miss":6472,"ĠAndrew":6473,"ears":6474,"Ġinh":6475,"Ġsynt":6476,"height":6477,"ĠAv":6478,"uid":6479,"Ġcry":6480,"1918":6481,"Ġpoly":6482,"inder":6483,"Ġmanaged":6484,"ĠBelg":6485,"base":6486,"ĠKen":6487,"Ġenter":6488,"Ġring":6489,"Ġfellow":6490,"aped":6491,"oding":6492,"Ġhouses":6493,"Ġexperimental":6494,"ĠBusiness":6495,"enger":6496,"normal":6497,"ĠWater":6498,"related":6499,"core":6500,"ivial":6501,"iger":6502,"ifications":6503,"bo":6504,"rovers":6505,"Ġmunicipality":6506,"prot":6507,"What":6508,"ĠCorps":6509,"Ġnearby":6510,"zy":6511,"ĠNight":6512,"Ġcompl":6513,"ĠMot":6514,"Ġtroops":6515,"Ġrapid":6516,"ucky":6517,"ĠKenn":6518,"Ġexchange":6519,"Ġsimpl":6520,"thur":6521,"Ġproved":6522,"orough":6523,"Ġrevealed":6524,"Ġadvant":6525,"ĠBul":6526,"Ġensure":6527,"block":6528,"Ġlink":6529,"oned":6530,"Ġmole":6531,"So":6532,"Ġcouple":6533,"Ġexpressed":6534,"raq":6535,"/**":6536,"Model":6537,"Ġcer":6538,"ederation":6539,"akers":6540,"phia":6541,"Ġcycl":6542,"ĠBi":6543,"ollary":6544,"shift":6545,"Config":6546,")/":6547,"ĠFour":6548,"Ġparticle":6549,"igation":6550,"limits":6551,"More":6552,"Ġassigned":6553,"itzer":6554,"1936":6555,"adow":6556,"Ġhundred":6557,"Ġclassification":6558,"ĠKar":6559,"Ġacademic":6560,"Ġrelevant":6561,"iÄĩ":6562,"uccess":6563,"****************":6564,"Context":6565,"Ġprimarily":6566,"ĠHospital":6567,"El":6568,"van":6569,"amental":6570,"Ġpeace":6571,"ĠPop":6572,"Ġweap":6573,"ĠLater":6574,"Ġclimate":6575,"Ġstatistics":6576,"iler":6577,"ĠWild":6578,"ipment":6579,"Ġthous":6580,"Ġcitizens":6581,"ĠOlympic":6582,"$_":6583,"zech":6584,"),\\":6585,"Ġconsistent":6586,"ĠCommon":6587,"estic":6588,"deg":6589,"Ġdivided":6590,"rons":6591,"ĠLittle":6592,"OD":6593,"Ġ;":6594,"while":6595,"ĠVictoria":6596,"ĠProfessor":6597,"Ġbegin":6598,"ervative":6599,"ocated":6600,"Ġtechniques":6601,"atial":6602,"={":6603,"riev":6604,"Ġcompeted":6605,"ĠAlexander":6606,"Ġtouch":6607,"black":6608,"Ġpp":6609,"ĠMinistry":6610,"Ġreflect":6611,"ĠGar":6612,"Ġeastern":6613,"eech":6614,"una":6615,"Element":6616,"ÑĤ":6617,"Sport":6618,"rawn":6619,"())":6620,"ĠJoe":6621,"Ġspectral":6622,"room":6623,"udget":6624,"Ġfifth":6625,"gener":6626,"Ġbaseball":6627,"Ġdataset":6628,"adelphia":6629,")\\,":6630,"olt":6631,"Ġsteps":6632,"lines":6633,"Ġslightly":6634,"blue":6635,"emy":6636,"Ġdedicated":6637,"Ġpolar":6638,"Ġlanguages":6639,"Request":6640,"roduction":6641,"Ġ},":6642,"ĠAsh":6643,"iga":6644,"Ġmachine":6645,"Ġsure":6646,"Ġ-->":6647,"maz":6648,"Ġstrength":6649,"free":6650,"aug":6651,"aussian":6652,"1938":6653,"Ġoffers":6654,"Ġexactly":6655,"Ġtrib":6656,"Net":6657,"Ġblood":6658,"utenant":6659,"Pre":6660,"void":6661,"Ġ}\\":6662,"subfigure":6663,"Ap":6664,"Ġlooking":6665,"uffer":6666,"Ġdistributed":6667,"Ġappearances":6668,"Ã¡n":6669,"OM":6670,"Ġrare":6671,"CE":6672,"asi":6673,"ĠCat":6674,"Ġpatients":6675,"Ġreports":6676,"Ġextrem":6677,"Ġcombination":6678,"Ġcontained":6679,"Ġgrowing":6680,"Ġassess":6681,"ĠArgent":6682,"innes":6683,"Ġnuclear":6684,"uilding":6685,"Part":6686,"ĠGame":6687,"ĠĠĠĠĠĠĠĠĠĠĠĠĠĠĠĠĠĠĠĠĠĠĠĠĠĠĠ":6688,"Ġbottom":6689,"Ġoperating":6690,"Ġtrust":6691,"ĠProposition":6692,"ĠSee":6693,"Ġarrived":6694,"Ġhonor":6695,"Ġassumed":6696,"amber":6697,"CA":6698,"150":6699,"ilation":6700,"ĠBra":6701,"Ġwidely":6702,"ĠTod":6703,"iced":6704,"ĠDaniel":6705,"ĠHence":6706,"Ġintended":6707,"Ġapart":6708,"Ġmaterials":6709,"ĠPrime":6710,"ĠMoreover":6711,"Ġacting":6712,"Ġnodes":6713,"ĠBir":6714,"Ġmill":6715,"ĠWilson":6716,"tem":6717,"ennes":6718,"config":6719,"ĠGirl":6720,"Ġepisodes":6721,"reshold":6722,"inson":6723,"ĠBoy":6724,"Ġcat":6725,"Cons":6726,"ĠColor":6727,"ĠJeff":6728,"md":6729,"Ġtor":6730,"odies":6731,"ĠBBC":6732,")}(":6733,"Ġprocedure":6734,"Ġthick":6735,"Ġlabor":6736,"lang":6737,"Ġconfirmed":6738,"Ġmomentum":6739,"Ġdoesn":6740,"Ġnumerical":6741,"Ġshared":6742,"Ġapproximation":6743,"alg":6744,"aligned":6745,"first":6746,"Ġonto":6747,"Fl":6748,"Ġinequality":6749,"Ġbomb":6750,"Here":6751,"Ġfelt":6752,"ĠViet":6753,"Ġalternative":6754,"Ġbill":6755,"Ġcluster":6756,"Ġtransferred":6757,"ĠReview":6758,"Ġactual":6759,"((":6760,"sur":6761,"rage":6762,"gt":6763,"ĠIslands":6764,"ntario":6765,"acter":6766,"lers":6767,"Ġofficials":6768,"Ġtrying":6769,"Ġarticles":6770,"fully":6771,"api":6772,"Results":6773,"Ġneighborhood":6774,"Ġancient":6775,"writer":6776,"ĠEst":6777,"ĠLim":6778,"ĠEp":6779,"Ġoptimal":6780,"ĠUSA":6781,"Ġradius":6782,"elligence":6783,"innesota":6784,"igration":6785,"DP":6786,"definition":6787,"Ġgra":6788,"Ġupd":6789,"Ġeffort":6790,"has":6791,"ĠFer":6792,"Ġ|\\":6793,"stack":6794,"Ġinstitutions":6795,"Ġresist":6796,"claim":6797,"Ġdistingu":6798,"Ġpartner":6799,"Ġprovince":6800,"ĠVill":6801,"ulf":6802,"info":6803,"Ġfix":6804,"Ġreject":6805,"Ġstrateg":6806,"Ġleadership":6807,"Ġnewspaper":6808,"Ġrise":6809,"Ġorganized":6810,"ĠTam":6811,"Code":6812,"icy":6813,"1937":6814,"Ġdisp":6815,"ĠNations":6816,"Ġstrugg":6817,"\\!\\!":6818,"ĠJean":6819,"RA":6820,"Ġalone":6821,"Ġpromoted":6822,"orship":6823,"ĠCa":6824,"Ġera":6825,"Ġconsum":6826,"Ġexc":6827,"ropical":6828,"120":6829,"vin":6830,"Ġassistant":6831,"undle":6832,"'_":6833,"ĠTaylor":6834,"ĠBell":6835,"ĠRome":6836,"ĠElizabeth":6837,"Ġaccepted":6838,"ĠCorn":6839,"Ġsexual":6840,"ashion":6841,"Ġoccurs":6842,"ĠGuard":6843,"ĠStudies":6844,"apache":6845,"TD":6846,"yo":6847,"Conn":6848,"Ġrespond":6849,"Ġaccuracy":6850,"Dem":6851,"ĠSydney":6852,"Ġflat":6853,"efe":6854,"Ġvictim":6855,"ĠSciences":6856,"ĠNetwork":6857,"ĠPrize":6858,"ĠPakistan":6859,"Ġincreases":6860,"Ġclaims":6861,"Ġowner":6862,"Ġgetting":6863,"Service":6864,"fri":6865,"ĠOrgan":6866,"Ġhydro":6867,"Ac":6868,"Ñģ":6869,"ĠCapt":6870,"Ġstable":6871,"Ġperturb":6872,"ducing":6873,"Ġfacilities":6874,"Ġsoldiers":6875,"Ġsatisfies":6876,"Ġdecay":6877,"ĠJon":6878,"inding":6879,"ĠKorean":6880,"nowled":6881,"Ġcancer":6882,"Ġsuggested":6883,"Ġquestions":6884,"Ġattacks":6885,"Ġinstr":6886,"Will":6887,"Ġsafety":6888,"stead":6889,"_{{\\":6890,"Ġgraduated":6891,"Our":6892,"University":6893,"ĠEqu":6894,"Ġprote":6895,"ĠSpe":6896,"Ġleaves":6897,"ologies":6898,"Ġcommonly":6899,"Music":6900,"Ġparallel":6901,"Ġalongside":6902,"Ġathlet":6903,"Ġminister":6904,"web":6905,"char":6906,"Ġast":6907,"assert":6908,"ĠRod":6909,"Hand":6910,"Ġregime":6911,"rs":6912,"ĠLight":6913,"Ġassociation":6914,"ãĥ":6915,"Dec":6916,"Ġmeasurements":6917,"fficients":6918,"Ġagreed":6919,"PA":6920,"Ġbul":6921,"Ġpet":6922,"ĠCommunity":6923,"tain":6924,"Ġgrew":6925,"Ġenh":6926,"Ġunderstanding":6927,"result":6928,"etherlands":6929,"Ġedges":6930,"Austral":6931,"alities":6932,"Ġassumption":6933,"Ġcoupling":6934,"ferred":6935,"Ġtrained":6936,"'\\":6937,"Ġcategor":6938,"ĠPower":6939,"ĠPubl":6940,"mes":6941,"ket":6942,"Acc":6943,"eds":6944,"actory":6945,"after":6946,"ĠSi":6947,"ounded":6948,"ĠOs":6949,"}}(\\":6950,"peror":6951,"ernel":6952,"otal":6953,"Ġvertices":6954,"Ġdevice":6955,"Ġpaid":6956,"ga":6957,"Ġcreation":6958,"FT":6959,"Ġphen":6960,"mail":6961,"Ġreasons":6962,"Ġsales":6963,"phas":6964,"Ġlargely":6965,"ĠAirport":6966,"Ġinstrument":6967,"haps":6968,"_{-":6969,"}%":6970,"*{":6971,"ronze":6972,"Size":6973,"hu":6974,"These":6975,"Ġwall":6976,"LS":6977,"des":6978,"ĠDar":6979,"ĠSports":6980,"ĠLes":6981,"La":6982,"=-":6983,"bec":6984,"Ġconference":6985,"Ġliber":6986,"onsin":6987,"Ġago":6988,"Ġspirit":6989,"Ġhoriz":6990,"itness":6991,"ori":6992,"annels":6993,"Ġpra":6994,"ĠPen":6995,":\\":6996,"Ġfeaturing":6997,"Ġpiece":6998,"Ġinteger":6999,"Ġworth":7000,"istical":7001,"Ġpropag":7002,"yes":7003,"}~~":7004,"PI":7005,"ĠSom":7006,"akh":7007,"endix":7008,"Ġcoal":7009,"isconsin":7010,"Ġ(!":7011,"rot":7012,"ĠSant":7013,"ĠLew":7014,"Ġconstitu":7015,"1935":7016,"Ġexpatriate":7017,"ogene":7018,"gg":7019,"ĠOntario":7020,"Array":7021,"=\"+":7022,"MM":7023,"Ġprotected":7024,"bourne":7025,"ĠBab":7026,"Ġenjoy":7027,"ãģ":7028,"Ġprice":7029,"ĠRevolution":7030,"ĠMarg":7031,"Ġjourn":7032,"oster":7033,"Ġcorresponds":7034,"ĠCorporation":7035,"poses":7036,"len":7037,"ĠThree":7038,"CT":7039,"weg":7040,"uing":7041,"General":7042,"Ġfreedom":7043,"Ġdiscussion":7044,"Ġsculpt":7045,"Ġattend":7046,"ĠTrump":7047,"itled":7048,"World":7049,"Ġpolitics":7050,"Ġcert":7051,"anth":7052,"PT":7053,"ĠCambridge":7054,"1919":7055,"Ġcaptured":7056,"udes":7057,"Ġminim":7058,"ĠHig":7059,"Ġstreet":7060,"raine":7061,"Ġcontinues":7062,"otype":7063,"Ġfilter":7064,"ĠStand":7065,"ĠMedia":7066,"open":7067,"=(":7068,"method":7069,"';":7070,"Ġfraction":7071,"ĠIraq":7072,"Ġadministrative":7073,"break":7074,"Ġkept":7075,"Ġven":7076,")^{\\":7077,"Ġinner":7078,"](":7079,"ĠAk":7080,"Ġcarri":7081,"Ġprominent":7082,"Ġtypical":7083,"Ġmarked":7084,"Ġnam":7085,"Ret":7086,"Ġwild":7087,"ĠDer":7088,"page":7089,"cases":7090,"Ġdepends":7091,"Ġmedian":7092,"Track":7093,"ĠBu":7094,"Ġsomeone":7095,"Ġfloor":7096,"Ġallowing":7097,"ĠBand":7098,"Ġcycle":7099,"Ġcalculated":7100,"athan":7101,"Polit":7102,"Rel":7103,"ĠPoint":7104,"Ġrural":7105,"Ġimportance":7106,"iec":7107,"ĠToronto":7108,")_{":7109,"Ġdoc":7110,"1914":7111,"$(":7112,"Ġlibrary":7113,"Ġequipment":7114,"islative":7115,"yles":7116,"'m":7117,"Ġplanned":7118,"asure":7119,"forall":7120,"ĠRegion":7121,"Ġbeaut":7122,"ĠBa":7123,"eman":7124,"ĠRog":7125,"owa":7126,"multirow":7127,"Ġorient":7128,"ĠRegiment":7129,"Ġwatch":7130,"aki":7131,"Spec":7132,"ĠPeak":7133,"utt":7134,"ĠFollowing":7135,"ĠRen":7136,"Ġrough":7137,"Ġconfiguration":7138,"erse":7139,"Ġsimulations":7140,"ĠAdminist":7141,"Ġnothing":7142,"ĠAvenue":7143,"Eq":7144,"chestra":7145,"zero":7146,"heim":7147,"Ġsilver":7148,"Ġcrime":7149,"strong":7150,"Ġteacher":7151,"lav":7152,"oles":7153,"My":7154,"1000":7155,"gers":7156,"ympt":7157,"lets":7158,"Ġabsol":7159,"Mon":7160,"Ġuncertain":7161,"Ent":7162,"Ġacts":7163,"Ġpairs":7164,"imately":7165,"Ġsail":7166,"risis":7167,"coming":7168,"Ġign":7169,"ĠStephen":7170,"ĠNC":7171,"ĠBon":7172,"Ġengineering":7173,"Ġvary":7174,"ĠOfficial":7175,"inv":7176,"Ġcommunication":7177,"iate":7178,"1933":7179,"ĠIndust":7180,"chen":7181,"plication":7182,"ĠMike":7183,"Ġachieve":7184,"omer":7185,"Ġsecondary":7186,"perial":7187,"ĠMaster":7188,"1917":7189,"His":7190,"stract":7191,"Ġperfect":7192,"DA":7193,"ĠSa":7194,"Ġpit":7195,"Ġmiles":7196,"Ġsecret":7197,"Ġscript":7198,"Ġoccurred":7199,"{$\\":7200,"Ġcreating":7201,"etery":7202,"Ġweb":7203,"adian":7204,"Ġlett":7205,"Ġamplit":7206,"Item":7207,"Ġquad":7208,"Ġroles":7209,"ecution":7210,"Ġ~~\\":7211,"ĠRaj":7212,"Ġsegment":7213,"Ġapproaches":7214,"lic":7215,"olitan":7216,"Ġagric":7217,"Ġhousing":7218,"emetery":7219,"ĠBrad":7220,"Sch":7221,"Dist":7222,"Ġextract":7223,"\"\"":7224,"ĠAmericans":7225,"Ġidentify":7226,"ogs":7227,"}$-":7228,"']":7229,"Ġ/*":7230,"Ġstrict":7231,"Ġsections":7232,"Fe":7233,"Ġdifferences":7234,"Ġprogramming":7235,"1929":7236,"atically":7237,"Ġeconomy":7238,"ĠBrig":7239,"quarters":7240,"ĠPhiladelphia":7241,"ĠBatt":7242,"unch":7243,"Äį":7244,"Ġcircle":7245,"ĠFire":7246,"ipe":7247,"ĠQueens":7248,"Ġfigures":7249,"watch":7250,"}$}":7251,"aret":7252,"Ġdefend":7253,"Ġinstall":7254,"1934":7255,"dy":7256,"Ġpure":7257,"Personal":7258,"font":7259,"Ġmusicians":7260,"\"),":7261,"Ġwinners":7262,"Ġsolo":7263,"Ġshowing":7264,"Ġflag":7265,"ĠCub":7266,"textbullet":7267,"%)":7268,"Ġopportunity":7269,"Ġlattice":7270,"Ã¸":7271,"ami":7272,"Ġtraffic":7273,"ĠOt":7274,"Ġplants":7275,"Ġcampus":7276,"Gu":7277,"Ġcrim":7278,"ĠChris":7279,"Ġcandidates":7280,"llap":7281,"Ġflight":7282,"iffer":7283,"osophy":7284,",\\,":7285,"Ġversions":7286,"South":7287,"alion":7288,"Ġclearly":7289,"unte":7290,"ĠTok":7291,"SM":7292,"SA":7293,"Ġscientific":7294,"Ġstrongly":7295,"Ġdecom":7296,"Ġalt":7297,"omic":7298,"Oper":7299,"subsubsection":7300,"sex":7301,"eli":7302,"onder":7303,"Ġserves":7304,"Ġappropriate":7305,"ĠMedical":7306,"ilib":7307,"\\'":7308,"Ã£":7309,"ĠMinnesota":7310,"Ġangle":7311,"Ġnarrow":7312,"Ġ+\\":7313,"Association":7314,"Ġtheore":7315,"db":7316,"ls":7317,"ĠManagement":7318,"example":7319,"aska":7320,"Ġchemical":7321,"ĠConf":7322,"urer":7323,"Ã©e":7324,"Ġcompute":7325,"Ġconstraints":7326,"Ġsqu":7327,"next":7328,"olis":7329,"ĠSher":7330,"ĠAnton":7331,"ĠDuke":7332,"1928":7333,"PP":7334,"rass":7335,"Ġmountain":7336,"Ġcars":7337,"Ġrul":7338,")\\\\":7339,"Ġintroduce":7340,"water":7341,"ĠSanta":7342,"lections":7343,"Ġtechnical":7344,"Ġapparent":7345,"Ġestimates":7346,"Ġple":7347,"po":7348,"Ġsides":7349,"Ġtesting":7350,"local":7351,"Ġmorph":7352,"ĠNetherlands":7353,"ĠLo":7354,"Ð¾Ð":7355,"ci":7356,"sey":7357,"Ġperman":7358,"ĠAnother":7359,"Ġcontrovers":7360,"Ġdetection":7361,"establ":7362,"Ġofficially":7363,"Ġcoefficients":7364,"'.":7365,"mitted":7366,"VD":7367,"aren":7368,"Ġdamage":7369,"Ġtried":7370,"[]":7371,"column":7372,"Ġsimulation":7373,"ĠSus":7374,"Ġpull":7375,"ego":7376,"Ġestate":7377,"1910":7378,"Ġsettlement":7379,"hr":7380,"Ġbeat":7381,"Ġreviews":7382,"ĠWisconsin":7383,"Ġcomposition":7384,"Ġfine":7385,"Ġvotes":7386,"andemic":7387,"Ġcurves":7388,"Param":7389,"Ġsust":7390,"Che":7391,"Ġmotor":7392,"Ġhistoric":7393,"Ġtwice":7394,"ĠAthlet":7395,"Ġfocused":7396,"urches":7397,"rog":7398,"Ġdeclared":7399,"rium":7400,"Disc":7401,"Ġattribut":7402,"Ġly":7403,"Ġchampion":7404,"Ġdestroyed":7405,"Ġexternal":7406,"Ä±":7407,"\\|_{":7408,"iable":7409,"ĠPolit":7410,"ĠStadium":7411,"Ġ});":7412,"lyn":7413,"bottom":7414,"Ġroot":7415,"power":7416,"Ġindustrial":7417,"Ġpowerful":7418,"Ġutil":7419,"soft":7420,"Ġrecognized":7421,"final":7422,"nic":7423,"osis":7424,"Ġnotable":7425,"chang":7426,"Ġdenotes":7427,"going":7428,"}{*":7429,"Hz":7430,"abil":7431,"HL":7432,"ĠForest":7433,"NR":7434,"Ġparticipated":7435,"Ġcommittee":7436,"Ġdepth":7437,"arning":7438,"ync":7439,"site":7440,"Ġorders":7441,"Log":7442,"values":7443,"Ġsoc":7444,"Ġwa":7445,"rane":7446,"Ġefficient":7447,"bot":7448,"gest":7449,"zo":7450,"1900":7451,"lock":7452,"1932":7453,"\"|":7454,"Ġemphas":7455,"ĠAnth":7456,"001":7457,"start":7458,"onal":7459,"ĠDisc":7460,"emble":7461,"plete":7462,"nergy":7463,"pmatrix":7464,"Ġmag":7465,"ĠFair":7466,"ĠBad":7467,"Ġlocations":7468,"IF":7469,"SD":7470,"Ġexpanded":7471,"Ġdial":7472,"Ġregarding":7473,"Ġgets":7474,"ĠVen":7475,")^{-":7476,"Ġimag":7477,"Ġlaunch":7478,"Ġassign":7479,"Ġprincipal":7480,"Men":7481,"Ġboy":7482,"ĠLady":7483,"ĠĠĠĠĠĠĠĠĠĠĠĠĠĠ":7484,"Ġpal":7485,"Ġinterested":7486,"Ġspeech":7487,"='":7488,"Ġsurpr":7489,"Ġdrive":7490,"false":7491,"also":7492,"Ġbegins":7493,"Ġmodes":7494,"ĠBecause":7495,"ĠWalk":7496,"ĠÎ":7497,"ĠKim":7498,"Ġresident":7499,"Ġcosts":7500,"Ext":7501,".~(\\":7502,"Ġgain":7503,"backs":7504,"ĠNaz":7505,"ĠStat":7506,"ĠServices":7507,"opher":7508,"ĠCirc":7509,"Sm":7510,"tri":7511,"pool":7512,"Ġlab":7513,"imeq":7514,"Ġhypot":7515,"ĠGer":7516,"Ġraces":7517,"ĠPremier":7518,"sto":7519,"Ġviolence":7520,"Ġdegrees":7521,"ĠSunday":7522,"Ġprotection":7523,"Ġinvestigation":7524,"Ġrepresenting":7525,"iplom":7526,"Ġurban":7527,"cf":7528,"Ġerrors":7529,"omorphic":7530,"Ġwing":7531,"ĠAst":7532,"leep":7533,"Ġsurrounding":7534,"Ġfailure":7535,"simeq":7536,"ĠRom":7537,"static":7538,"Message":7539,"SL":7540,"omot":7541,"Ġauthorities":7542,"Ġdetailed":7543,"Ġrenamed":7544,"Ġlie":7545,"Ġhands":7546,"May":7547,"ĠTy":7548,"Ġaccur":7549,"uster":7550,"ĠMedal":7551,"Ġtrees":7552,"ĠSwedish":7553,"1924":7554,"Ġdance":7555,"Ġcosm":7556,"uri":7557,"jan":7558,"ĠKansas":7559,"ĠDespite":7560,"otted":7561,"ĠGree":7562,"iful":7563,"Ġtitles":7564,"Ġtend":7565,"Ġ=\\":7566,"Cast":7567,"ĠHind":7568,"ĠSu":7569,"Ġlisting":7570,"Ġtensor":7571,"Ġvehicle":7572,"1922":7573,"Ġitems":7574,"Ġcond":7575,"German":7576,"Ġroll":7577,"Ġmeant":7578,"Ġfans":7579,"ĠMember":7580,"Ġideas":7581,"Ġstock":7582,"Ġearth":7583,"Ġdistributions":7584,"Ġscalar":7585,"International":7586,"Ġreturns":7587,"Ġorb":7588,"Ġindicate":7589,"yard":7590,"Ġsupply":7591,"Ġcorrelation":7592,"textsc":7593,"|}":7594,"1927":7595,"Ġbehavi":7596,"Ġproport":7597,"LP":7598,"ainer":7599,"1931":7600,"$).":7601,"ĠClark":7602,"Ġmassive":7603,"Ġcerem":7604,"Ġhouseholds":7605,"TC":7606,"Ġindicates":7607,"Ġopin":7608,"ruit":7609,"Ġhosted":7610,"wegian":7611,"Ġtermin":7612,"Ġnotes":7613,"ĠGro":7614,"ĠOp":7615,"rizona":7616,"ĠBudd":7617,"Ġfaculty":7618,"Ġsampl":7619,"Figure":7620,"EM":7621,"Ġsingular":7622,"Me":7623,"osa":7624,"ifies":7625,"ĠDam":7626,"Ġauthority":7627,"ĠWars":7628,"aine":7629,"eger":7630,"ECT":7631,"Ġenvironmental":7632,")}{\\":7633,"ĠBeach":7634,"white":7635,"ĠCommand":7636,"poss":7637,"Ġinvariant":7638,"opping":7639,"uous":7640,"Ġperforming":7641,"util":7642,"$$\\":7643,"ĠSab":7644,"worth":7645,"agonal":7646,"Ġinspired":7647,"Ġelimin":7648,"agraph":7649,"Ġnewly":7650,"Ġbands":7651,"Ġalgorithms":7652,"0000":7653,"ĠHay":7654,"regon":7655,"Ġtoward":7656,"ĠData":7657,"igrants":7658,"dx":7659,"ĠFamily":7660,"Ġteaching":7661,"Ġrugby":7662,"Ġtransformation":7663,"ĠAD":7664,"life":7665,"ighth":7666,"ĠWeek":7667,"System":7668,"HS":7669,"ecutive":7670,"Ġimplementation":7671,"ĠTrust":7672,"avel":7673,"Ġparish":7674,"ĠJacob":7675,"ĠBridge":7676,"ĠHun":7677,"ubb":7678,"ĠPers":7679,"........":7680,"rank":7681,"Ġterritory":7682,"Ġsurn":7683,"\").":7684,"Description":7685,"ĠTal":7686,"Sing":7687,"idel":7688,"fef":7689,"Biography":7690,"dep":7691,"Ġperformances":7692,"Ġsubsequent":7693,"1921":7694,"Up":7695,"Ġcatal":7696,"create":7697,"ĠIN":7698,"\\\"":7699,"Pol":7700,"ĠBishop":7701,"inton":7702,"anga":7703,"ĠSquad":7704,"1925":7705,"Ġheat":7706,"define":7707,"ĠIndiana":7708,"$^{-":7709,"pg":7710,"Dis":7711,"EL":7712,"Ġdelay":7713,"ĠBol":7714,"ĠPhys":7715,"Ġsuff":7716,"omy":7717,"ĠKir":7718,"Ġfiction":7719,"Ġresulted":7720,"Ġspatial":7721,"present":7722,"cow":7723,"ictures":7724,"Ġaffili":7725,"Ġgenerate":7726,"only":7727,"Ġgained":7728,"bas":7729,"cs":7730,"Ġemployed":7731,"ĠJews":7732,"ĠWinter":7733,"Some":7734,"Ġtells":7735,"Ġ\\(":7736,"hedral":7737,"French":7738,"such":7739,"Ġdescribes":7740,"onds":7741,"ture":7742,"ĠSweden":7743,"Ġheav":7744,"Ġsort":7745,"1912":7746,"ĠMarsh":7747,"Ġreduction":7748,"ĠProt":7749,"ĠPass":7750,"Ġgranted":7751,"Box":7752,"Nov":7753,"Ġdefeat":7754,"Ġclean":7755,"Ġcontemporary":7756,"ogen":7757,"Ġoverl":7758,"Ġcalls":7759,"Ġpurchased":7760,"hetic":7761,"ĠTurkey":7762,"newcommand":7763,"bro":7764,"Ġparliament":7765,"plex":7766,"dim":7767,"TH":7768,"Ġphenomen":7769,"=\"../../../../":7770,"Ġanything":7771,"ĠEngineering":7772,"Ġitem":7773,"tan":7774,"Ġaffected":7775,"current":7776,"Ġadvantage":7777,"Ġplanning":7778,"Ġimproved":7779,"ĠSecurity":7780,"ĠKel":7781,"cur":7782,"ropolitan":7783,"================":7784,"pson":7785,"Ġce":7786,"Ġfunding":7787,"alysis":7788,"Ġvess":7789,"Ġinteractions":7790,"Ġrecognition":7791,"ented":7792,"Ġdisk":7793,"Ġresearc":7794,"Ġsubstant":7795,"Ġfundamental":7796,"Ġthreshold":7797,"iang":7798,"ĠMexican":7799,"aph":7800,"mad":7801,"faces":7802,"ĠGolden":7803,"neg":7804,"Post":7805,"leton":7806,"Ġcomposer":7807,"ĠYour":7808,"Ġpandemic":7809,"osure":7810,"zen":7811,"Ġideal":7812,"fefefe":7813,"ĠCzech":7814,"apore":7815,"Ġinvolving":7816,"ĠMilitary":7817,"oder":7818,"ennessee":7819,"image":7820,"valid":7821,"Ġclin":7822,"ĠEven":7823,"Ġ__":7824,"actor":7825,"anna":7826,"Ġsuffered":7827,"Ġnone":7828,"Women":7829,"1926":7830,"Ġarts":7831,"ãĤ":7832,"Ġdaily":7833,"}^*":7834,"Ġexplained":7835,"aser":7836,"Ġdecades":7837,"Ġnovels":7838,"ĠSurvey":7839,"Ġarbitrary":7840,"Ġdocumentary":7841,"acent":7842,"iary":7843,"kish":7844,"Theorem":7845,"ĠLind":7846,"scape":7847,"Thus":7848,"Ġpiano":7849,"Ġoption":7850,"sort":7851,"Ġdiam":7852,"ĠDavis":7853,"ymmet":7854,"isa":7855,"Ref":7856,"}}^":7857,"zh":7858,"ĠRoute":7859,"Ġfounder":7860,"Ġaudience":7861,"ĠFree":7862,"Ġmodule":7863,"Ġrepresentative":7864,"Top":7865,"ĠFrancis":7866,"ĠFox":7867,"ĠMissouri":7868,"Olymp":7869,"Ġvehicles":7870,"aga":7871,"cular":7872,"Manager":7873,"orig":7874,"ĠIndones":7875,"Ġincident":7876,"ician":7877,"ni":7878,"Ġoptical":7879,"graph":7880,"uv":7881,"oli":7882,"outheast":7883,"ses":7884,"wing":7885,"Ġends":7886,"Ġcollected":7887,"vard":7888,"ĠSon":7889,"Ġfell":7890,"Ġsymmetric":7891,"250":7892,"lient":7893,"ENT":7894,"default":7895,"Method":7896,"ĠAtlantic":7897,"Ġisol":7898,"Ġcool":7899,"ois":7900,"RC":7901,"Ġdependence":7902,"Ġfinish":7903,"ĠSerb":7904,"Ġguarant":7905,"Ġcalc":7906,"Ġscholar":7907,"Ġnar":7908,"Ġmathemat":7909,"Ġrestaur":7910,"Ġsrc":7911,"hol":7912,"Ġspecified":7913,"1923":7914,"Ġaband":7915,"}~~{":7916,"Ġpowers":7917,"ĠMill":7918,"yal":7919,"Ġtitled":7920,"Ġbudget":7921,"igger":7922,"Ġfinding":7923,"lan":7924,"Ġupdate":7925,"Ġdeveloping":7926,"1915":7927,"asters":7928,")$-":7929,"Ġchannels":7930,"Property":7931,"Ã£o":7932,"kes":7933,"Ġretire":7934,"Ġtaught":7935,"mosp":7936,"Ġdeploy":7937,"ika":7938,"ĠCur":7939,"1916":7940,"})$.":7941,"Ġadvanced":7942,"rr":7943,"asty":7944,"ĠRon":7945,"ordan":7946,"Min":7947,"Ġhabit":7948,"Ġengineer":7949,"Ġ]":7950,"////////":7951,"ĠAh":7952,"Ġlearned":7953,"rell":7954,"Ġmeasurement":7955,"ĠRun":7956,"ĠSteve":7957,".$":7958,"Ġeverything":7959,"Ġgap":7960,"Ġcomputed":7961,"ĠWel":7962,"Ġtests":7963,"season":7964,"ĠFund":7965,"race":7966,"Next":7967,"urns":7968,"ĠBrook":7969,"Ġrequirements":7970,"Ġconsult":7971,"Ġswim":7972,"Ġcontest":7973,"Ãº":7974,"Ġcatch":7975,"Ġfacility":7976,"ASS":7977,"remark":7978,">&":7979,"ĠNY":7980,"ads":7981,"organ":7982,"include":7983,"Ġcoordinates":7984,"cd":7985,"ĠArthur":7986,"Ġspons":7987,"eness":7988,"Dav":7989,"Ġrepro":7990,"sol":7991,"Ġmargin":7992,"weet":7993,"Ġtechnique":7994,"module":7995,"bal":7996,"ĠChristmas":7997,"ĠPlan":7998,"ĠLog":7999,"Em":8000,"ĠColorado":8001,"Ġprinciple":8002,"Ġpolynomial":8003,"Ġtowns":8004,"event":8005,"Song":8006,"ĠJoh":8007,"ifer":8008,"Ġprime":8009,"orders":8010,"apes":8011,"ĠColl":8012,"Although":8013,"ĠDown":8014,"Ġportion":8015,"ĠDesign":8016,"ieces":8017,"Ġextends":8018,"ĠLag":8019,"ĠColon":8020,"Ġyields":8021,"Ġcharged":8022,"Ġodd":8023,"aved":8024,"ĠMemorial":8025,"Ġadvert":8026,"Ġmedium":8027,"Ġreality":8028,"matrix":8029,"achers":8030,"Ġspectra":8031,"Ġsuggests":8032,"Ġwrest":8033,"OL":8034,"Ġpicture":8035,"spect":8036,"Ġadvance":8037,"ronic":8038,"cat":8039,"Ġspecifically":8040,"Ġjudge":8041,"ĠInformation":8042,"ĠMaria":8043,"Ġpublication":8044,"Ġjava":8045,"ĠHan":8046,"Ġfeet":8047,"ĠBall":8048,"wealth":8049,"Ġstone":8050,"Ġprepar":8051,"ĠWat":8052,"fort":8053,"ĠHand":8054,"ĠArea":8055,"Ġsubs":8056,"Ġheard":8057,"post":8058,"Ġfish":8059,"ĠHal":8060,"eral":8061,"duces":8062,"ĠMic":8063,"Ġloop":8064,"Ġdrop":8065,"Ġpolicies":8066,"Ġsession":8067,"Ġtell":8068,"^{+":8069,"~$\\":8070,"Ġyounger":8071,"ito":8072,"rect":8073,"Ġmorning":8074,"Ġmatrices":8075,"enna":8076,"hard":8077,"enses":8078,"Play":8079,"ĠRepresentatives":8080,"Ġstellar":8081,"Ġnet":8082,"Ġtail":8083,"Ġinjury":8084,"Ġdoctor":8085,"Ġmedalists":8086,"disc":8087,"Ġphysics":8088,"ĠTownship":8089,"Ġtheme":8090,"ĠKal":8091,"ĠCas":8092,"Ġobserve":8093,"Ġpurposes":8094,"Source":8095,"ĠAlf":8096,"Resp":8097,"ĠBooks":8098,"Call":8099,"Ġchallenge":8100,"Ġemployees":8101,"ĠLabor":8102,")_":8103,"III":8104,"TT":8105,"Ġspring":8106,"Gl":8107,"Ġviews":8108,"ĠAuthor":8109,"ensis":8110,"keep":8111,"called":8112,"Ġdepending":8113,"Awards":8114,"Ġappeal":8115,"mapsto":8116,"Ġseats":8117,"Ġsuccessfully":8118,"Background":8119,"ĠGallery":8120,"ĠGaussian":8121,"Ġlosing":8122,"ĠHard":8123,"Ġexcit":8124,"ĠMoh":8125,"Ġstarts":8126,"unes":8127,"dev":8128,"ĠGreg":8129,"Olympic":8130,"Ġprotect":8131,"sect":8132,"ĠMun":8133,"Ġremark":8134,"ĠLive":8135,"Ġtranslation":8136,"Ġdistricts":8137,"Ġ};":8138,"ĠOregon":8139,"Â°":8140,"Ġportray":8141,"ĠCaptain":8142,"ĠWell":8143,"ATE":8144,"ĠForeign":8145,"lywood":8146,"ĠAffairs":8147,"Ġgovernor":8148,"Ġmodified":8149,"Ġrom":8150,"ĠFinal":8151,"lov":8152,"Ġasympt":8153,"ban":8154,"ilibrium":8155,"Off":8156,"Ġaware":8157,"Dr":8158,"Ġobvious":8159,"}~~{}$\\":8160,"Ġnotice":8161,"Ġfaith":8162,"ĠIV":8163,"Ġcapture":8164,"Ġsevent":8165,"Ġcircum":8166,"tail":8167,"}{*}{":8168,"Ġshell":8169,"Ġcooper":8170,"Writ":8171,"Ġjournalist":8172,"rows":8173,"pet":8174,"ĠBru":8175,"context":8176,"ĠSem":8177,"everal":8178,"evin":8179,"Ġfemales":8180,"Ġbinary":8181,"Ġresource":8182,"ambig":8183,"CP":8184,"That":8185,"ĠType":8186,"Ġplanet":8187,"Ġ&=&":8188,"GL":8189,"Ġnil":8190,"Ġranked":8191,"je":8192,"Ġ$$":8193,"living":8194,"Ġcompare":8195,"'(":8196,"process":8197,"rastructure":8198,"scill":8199,"ĠGlobal":8200,"prob":8201,"ello":8202,"Ġopposition":8203,"ĠOrig":8204,"umes":8205,"ĠPit":8206,"apse":8207,"Ġrecip":8208,"ĠFinally":8209,"Ã¢":8210,"ĠĠĠĠĠĠĠĠĠĠĠĠĠĠĠĠĠ":8211,"Ġorth":8212,"Ġlimits":8213,"Line":8214,"Base":8215,"Ġpartial":8216,"western":8217,"ĠWrit":8218,"java":8219,"ĠKey":8220,"Ġadding":8221,"outs":8222,"ensions":8223,"Ġcommunic":8224,"urd":8225,"indows":8226,"ĠModel":8227,"Ġgrid":8228,"ĠHo":8229,"ĠTennessee":8230,"othing":8231,"tik":8232,"Ġbow":8233,"gency":8234,"ĠFurthermore":8235,"system":8236,"proposition":8237,"Ġfinds":8238,"apped":8239,"Ġcopies":8240,"Ġarrested":8241,"ĠMunicip":8242,"Ġmess":8243,"ĠLewis":8244,"Ġdevices":8245,"ĠCountry":8246,"Ġarms":8247,"ĠBaron":8248,"Ġinterface":8249,"ĠArizona":8250,"ĠCastle":8251,"ĠBh":8252,"ĠMountain":8253,"\\_":8254,"Ġpseud":8255,"Ġconvergence":8256,"ĠNorm":8257,"Aut":8258,"aux":8259,"iki":8260,"Ġclient":8261,"Ġwhereas":8262,"Ġobservation":8263,"Ġpainting":8264,"Ġyards":8265,"ĠMaryland":8266,"Ġnucle":8267,"ĠAddition":8268,"ĠAN":8269,"Ġpassing":8270,"picture":8271,"Ġchairman":8272,"Ġanimals":8273,"odot":8274,"two":8275,"Following":8276,"aints":8277,"Ġfrequently":8278,"ĠStock":8279,"600":8280,"Ġaccident":8281,"Ġdriver":8282,"Ġinnov":8283,"irty":8284,"Ġcovers":8285,"Ġil":8286,"ordon":8287,"ULL":8288,"bel":8289,"ĠâĢł":8290,"hom":8291,"Ġapproved":8292,"Cre":8293,"LA":8294,"ĠHart":8295,"Ġhole":8296,"Ġsupporting":8297,"ĠPhilippines":8298,"Ġstress":8299,"Car":8300,"Ġremove":8301,"css":8302,"1913":8303,"ĠPrim":8304,"Ġencourag":8305,"'ve":8306,"ĠBack":8307,"Ġtwenty":8308,"Har":8309,"ester":8310,"Ġcorner":8311,"ogy":8312,"Ġfighting":8313,"Ġopposite":8314,"ĠRights":8315,"Ġconsisting":8316,"rome":8317,"rator":8318,"kh":8319,"Canadian":8320,"ĠSpring":8321,"illery":8322,"Ġpossibly":8323,"Ġreson":8324,"Ġsubt":8325,"Ġmagnitude":8326,"ĠLeon":8327,"Ġanswer":8328,"ĠFellow":8329,"Ġexerc":8330,"ĠFederation":8331,"Ġscoring":8332,"midrule":8333,"Ġconsidering":8334,"Ġextensive":8335,"({":8336,"ĠGh":8337,"ĠEth":8338,"Ġfunds":8339,"oom":8340,"à¸":8341,"uli":8342,"Ġdomestic":8343,"Ġnor":8344,"tainment":8345,"CM":8346,"Ġswitch":8347,"ĠHou":8348,"oded":8349,"ĠKitt":8350,"Ġexperi":8351,"ithub":8352,"iser":8353,"Ġtele":8354,"Ġburied":8355,"Ġtasks":8356,"Ġclosely":8357,"ĠWin":8358,"Ġattempts":8359,"Ġdivers":8360,"plications":8361,"Ġfestival":8362,"Ġinterval":8363,"Ġnegot":8364,"clusive":8365,"inations":8366,"ĠTa":8367,"perties":8368,"ĠPier":8369,"she":8370,"Ġdig":8371,"Ġdefense":8372,"ĠConstitution":8373,"hens":8374,"'}":8375,"rip":8376,"Ġtruth":8377,"ĉĉĉĉĉĉ":8378,"~~~~":8379,"Ġsomew":8380,"Ġcart":8381,"Section":8382,"erick":8383,"ghan":8384,"vements":8385,"anchester":8386,"ivals":8387,"mi":8388,"ĠVis":8389,"Ġacceler":8390,"Ġdifferential":8391,"Ġnob":8392,"ĠMoscow":8393,"Ġgalaxy":8394,"Public":8395,"Ġsatisfy":8396,"Ġminimal":8397,"\\{\\":8398,"Ġ===":8399,"FI":8400,"ĠTai":8401,"Ġinvestment":8402,"ĠNorway":8403,"Ġmanner":8404,"Ġvectors":8405,"mouth":8406,"ĠPalest":8407,"Ġreceiving":8408,"anes":8409,"Ġrepeated":8410,"Sportspeople":8411,"Ġfashion":8412,"mers":8413,"{{":8414,"Bibliography":8415,"Ġconj":8416,"Ġspl":8417,"Ġcorpor":8418,"Ġvacc":8419,"OP":8420,"Ġsuperv":8421,"ĠBrother":8422,"Ġultimately":8423,"pat":8424,"Ġvice":8425,"Ġjump":8426,"Ġunable":8427,"ĠUkraine":8428,"uted":8429,"How":8430,"Ġconvent":8431,"andy":8432,"Port":8433,"ĠSlov":8434,"ilbert":8435,"bell":8436,"itzerland":8437,"Populated":8438,"ounce":8439,"secutive":8440,"ussion":8441,"olve":8442,"aturday":8443,"Ġprocessing":8444,"awn":8445,"Ġtheatre":8446,"Ġintroduction":8447,"ingham":8448,"Ġtheoretical":8449,"1911":8450,"tx":8451,"Ġcab":8452,"ĠAnderson":8453,"Ġoscill":8454,"ĠSri":8455,"ĠHighway":8456,"ĠBat":8457,"Ġcharges":8458,"iÃ³n":8459,"ĠRoss":8460,"fficial":8461,"Ev":8462,"doc":8463,"2023":8464,"CR":8465,"ĠReal":8466,"rait":8467,"stances":8468,"ĠFI":8469,"Ġstandards":8470,"$;":8471,"tikz":8472,"cha":8473,"coln":8474,"adi":8475,"Ġbeam":8476,"ĠMelbourne":8477,"Ġtrend":8478,"ĠKer":8479,"Ġstrain":8480,"Rem":8481,"Ġaxis":8482,"Ġnominated":8483,"Ġefficiency":8484,"ographer":8485,"Ġwealth":8486,"Ġhope":8487,"Ġmanifold":8488,"Ġlocally":8489,"Met":8490,"gar":8491,"UE":8492,"--------------------------------":8493,"aling":8494,"800":8495,"Ġfuel":8496,"cut":8497,"ĠVietnam":8498,"eaking":8499,"Ġcauses":8500,"obe":8501,"Ġletters":8502,"âĢĿ.":8503,"ultane":8504,"Ġturns":8505,"Ġvirtual":8506,"ĠMiller":8507,"}}^{":8508,"ĠBaseball":8509,"ĠSav":8510,"uy":8511,"Ġdoub":8512,"Ġloan":8513,"incial":8514,"high":8515,"Ġblocks":8516,"Japan":8517,"Ġlayers":8518,"Ġcommit":8519,"Ġspot":8520,"abama":8521,"Ġpages":8522,"Ġpartnership":8523,"opic":8524,"Cal":8525,"ĠEU":8526,"Ġentirely":8527,"Ġstorm":8528,"Ġlov":8529,"Ã¼r":8530,"ĠLeb":8531,"eless":8532,"ĠDor":8533,"ĠRa":8534,"Ġwrong":8535,"|_{":8536,"Ġdesignated":8537,"West":8538,"ĠMalays":8539,"card":8540,"Ġbronze":8541,"orro":8542,"Ġreturning":8543,"Ġpartition":8544,"ĠArk":8545,"Ġcriminal":8546,"Ġbright":8547,"Ġvillages":8548,"ĠIowa":8549,"Ġcov":8550,"Ġhero":8551,"Ġthermal":8552,"ĠJunior":8553,"Ġnav":8554,"Ġrefers":8555,"rÃ©":8556,"stan":8557,"ĠExecutive":8558,"Ġusual":8559,"Ġconstitution":8560,"Ġhall":8561,"apel":8562,"ĠOnly":8563,"ĠAz":8564,"Ġdocuments":8565,"pur":8566,"ĠMethod":8567,"William":8568,"Ġdetail":8569,"Ġcrow":8570,"Ġeducated":8571,"ĠAud":8572,"1908":8573,"entry":8574,"ques":8575,"uese":8576,".[":8577,")+\\":8578,"stable":8579,"Ġtrip":8580,"Ġopposed":8581,"Ġlum":8582,"ĠAmb":8583,"Ġoccasion":8584,"Ġfunctional":8585,"displaystyle":8586,"ictional":8587,"github":8588,"ÃŃa":8589,"cong":8590,"ĠSpacewatch":8591,"ti":8592,"ĠSingapore":8593,"ĠLike":8594,"uther":8595,"found":8596,"ĠGreece":8597,"ontal":8598,"Cor":8599,"ĠSat":8600,"Ġpieces":8601,"aded":8602,"Ġending":8603,"ows":8604,"Ġbelief":8605,"DB":8606,"ĠHoly":8607,"ĠGener":8608,"Ġgirls":8609,"TA":8610,"mma":8611,"Ġvocal":8612,"Ġperspect":8613,"ĠPhilip":8614,"Ġindependence":8615,"issions":8616,"Ġrect":8617,"ĠAlbert":8618,"Ġchance":8619,"Ġdimensions":8620,"GC":8621,"ifts":8622,"ĠInternet":8623,"mc":8624,"Ġconclude":8625,"Ġcompris":8626,"Ġterror":8627,"Ġcrisis":8628,"ĠUs":8629,"Tax":8630,"offs":8631,"Ġinterests":8632,"Ġflood":8633,"$~":8634,"Ġstarring":8635,"number":8636,"Ġarguments":8637,"Ġcoverage":8638,"Ġzone":8639,";</":8640,"ureau":8641,"Ġtools":8642,")-\\":8643,"Ġextremely":8644,"Ġnotation":8645,"ypes":8646,"ĠInit":8647,"Ġagency":8648,"urance":8649,"Ġbusinesses":8650,"ĠAdd":8651,"Ġtrains":8652,"Ġack":8653,"roller":8654,"ĠBarn":8655,"Ġcarbon":8656,"Ġreaction":8657,"achelor":8658,"Two":8659,"ĠLemmon":8660,"Ġsan":8661,">(":8662,"herent":8663,"roit":8664,"Ġbin":8665,"Ġdiplom":8666,"Ġvent":8667,"ĠBalt":8668,"mediate":8669,"RS":8670,"cr":8671,"Ġ${":8672,"Ġdrawn":8673,"Ġinstitution":8674,"Ġiron":8675,"Ġimplemented":8676,"php":8677,"Best":8678,"ĠCab":8679,"issip":8680,"Ġdriving":8681,"package":8682,"Ġatmosp":8683,"Ġtempor":8684,"engers":8685,"osition":8686,"Geography":8687,"zi":8688,"Ġregistered":8689,"ĠKentucky":8690,"Ġwins":8691,"Ġpremier":8692,"Ġinduced":8693,"Russ":8694,"Ġscales":8695,"idge":8696,"Ġrich":8697,"ahoma":8698,"Ġfrag":8699,"ritical":8700,"Ġcritics":8701,"Ġschol":8702,"Ġwitness":8703,"ĠSuch":8704,"erves":8705,"Ġdropped":8706,"Ġcontrolled":8707,"ĠOfficer":8708,"Ġalleged":8709,"Ġelectronic":8710,"build":8711,"ĠShort":8712,"Ġreligion":8713,"Ġagents":8714,"oured":8715,"Ġvertical":8716,"ĠHarry":8717,"icip":8718,"Ġpool":8719,"ogeneous":8720,"-$":8721,"vo":8722,"pop":8723,"EX":8724,"ĠPy":8725,"floor":8726,"ĠChannel":8727,"Ġvisited":8728,"Jan":8729,"ellip":8730,"CS":8731,"ĠBos":8732,"Ġperhaps":8733,"ĠEnergy":8734,"ĠEntertainment":8735,"brid":8736,"num":8737,"Ġconsecutive":8738,"second":8739,")},":8740,"ĠMir":8741,"Ġtool":8742,"Ġaspects":8743,"eties":8744,"Christ":8745,"ĠVo":8746,"uating":8747,"ouses":8748,"ĠWho":8749,"Ġener":8750,"Ġsolar":8751,"Ġextend":8752,"Ġeveryone":8753,"search":8754,"Lem":8755,"Ġorbit":8756,"ĠKhan":8757,"Ġyellow":8758,"Ġglass":8759,"Ġessential":8760,"ifact":8761,"agh":8762,"ĠTel":8763,"rine":8764,"ĠMP":8765,"Ġmasses":8766,"Ġscattering":8767,"Ġadvoc":8768,"ĠStaff":8769,"option":8770,"server":8771,"inema":8772,"ocket":8773,"Ġexplain":8774,"fold":8775,"Ġinterior":8776,"Ġbenefit":8777,"pir":8778,"agues":8779,"ĠAdam":8780,"antly":8781,"Ġkernel":8782,"Ġconverted":8783,"Sources":8784,"Ġtower":8785,"Ġpossibility":8786,"ĠRoy":8787,"Ġthin":8788,"Ġholding":8789,"Ġsave":8790,"BM":8791,"ĠChildren":8792,"Result":8793,"ĠOcean":8794,"ĠJesus":8795,"klahoma":8796,"Ġentitled":8797,"Ġsend":8798,"ingly":8799,"ensed":8800,"Ġracing":8801,"Ġdiagn":8802,"}({\\":8803,"iversary":8804,"DS":8805,"Ġclusters":8806,"ĠConnect":8807,"ologists":8808,"isms":8809,"ĠTransport":8810,"Ġsatell":8811,"cks":8812,"ogether":8813,"parent":8814,"Ġindeed":8815,"ortheast":8816,"including":8817,"ocese":8818,"Ġoldest":8819,"tw":8820,"ĠCall":8821,"Ġmand":8822,"ĠModern":8823,"Ġscheduled":8824,"ĠAM":8825,"dl":8826,"ĠSquadron":8827,"ĠAustria":8828,"don":8829,"atin":8830,"essions":8831,"ĠGall":8832,"ĠMagazine":8833,"Ġreferences":8834,"Ġjur":8835,"sign":8836,")\"":8837,"ĠLtd":8838,"ĠMatt":8839,"Ġcategories":8840,"icut":8841,"icial":8842,"ĠFace":8843,"Ġscope":8844,"icians":8845,"Ġnamely":8846,"Ġdie":8847,"py":8848,"ĠOak":8849,"Ġbroken":8850,"rene":8851,"Ġformerly":8852,"cccc":8853,"ĠJos":8854,"ĠCape":8855,"ĠThrough":8856,"ĠHamiltonian":8857,"Ġlock":8858,"ĠFord":8859,"Ġion":8860,"Ġcharacteristic":8861,"Ġattempted":8862,"Ġwinter":8863,"isted":8864,"Ġconven":8865,"Ġrefused":8866,"ĠTurn":8867,"iner":8868,"agen":8869,"Ġpainter":8870,"ĠAdv":8871,"Ġahead":8872,"Ġstorage":8873,"Ġcoinc":8874,"formance":8875,"ĠMicro":8876,"Ġburn":8877,"ynasty":8878,"ĠLiter":8879,"Ġbought":8880,"Australian":8881,"Ġcoaches":8882,"ups":8883,"ĠAbout":8884,"Ġdisput":8885,"Euro":8886,"Ġsym":8887,"Death":8888,"ĠTony":8889,"Gener":8890,"ĠUsing":8891,"ĠIss":8892,"Ġroyal":8893,"User":8894,"Ġweapons":8895,"ĠJane":8896,"null":8897,"Ġguard":8898,"Ġseconds":8899,"Ġempty":8900,"Ġcanon":8901,"Ġbrain":8902,"Ġconcerns":8903,"Ġsixth":8904,"ĠNS":8905,"ĠSwitzerland":8906,"Ġprotest":8907,"arest":8908,"Ag":8909,"Ġskills":8910,"Ġ(,":8911,"Ġaggreg":8912,"ĠBan":8913,"Ġdanger":8914,"mass":8915,"Ġguest":8916,"Ġcommander":8917,"Ġbriefly":8918,"notes":8919,"ambiguation":8920,"ĠSpec":8921,"Ġmotiv":8922,"ĠSimon":8923,"Ġchanging":8924,"BI":8925,"Ġexhibition":8926,"ĠLINE":8927,"ĠQueensland":8928,"})$,":8929,"Ġmanagers":8930,"ĠComput":8931,"ĠNick":8932,"Image":8933,"ĠDC":8934,"Ġdrums":8935,"Ġintegration":8936,"Ġinject":8937,"rainian":8938,"}}$,":8939,"ĠNFL":8940,"Ġremember":8941,"Ġvariation":8942,"func":8943,"Ġbodies":8944,"Ġexception":8945,"Cent":8946,"Ġgeometry":8947,"ĠAR":8948,"Ġbrothers":8949,"ĠEarl":8950,"Ġeducational":8951,"thew":8952,"Ġturb":8953,"Ġstability":8954,"agan":8955,"Ġfresh":8956,"Ġindicated":8957,"}&":8958,"Ġexpert":8959,"Ġcomplexity":8960,"igenous":8961,"Ðº":8962,"del":8963,"Input":8964,"Ġpref":8965,"ometric":8966,"ĠFame":8967,"Ġescape":8968,"Ġmaintain":8969,"=\"../":8970,"ĠCL":8971,"They":8972,"Ġrecall":8973,"ĠLow":8974,"andra":8975,"legal":8976,"Ġinfinite":8977,"ĠMas":8978,"Ġvisible":8979,"ĠBah":8980,"Ġvot":8981,"Ġaid":8982,"ĠAlabama":8983,"glas":8984,"}}$.":8985,"Ġpun":8986,"project":8987,"ĠLank":8988,"Introduction":8989,"riday":8990,"gr":8991,"adding":8992,"&=&":8993,"Ġsucceeded":8994,"Ġobjective":8995,"yers":8996,"Ġvide":8997,"Ste":8998,"Red":8999,"Point":9000,"Ġoccupied":9001,"ĠID":9002,"ĠLast":9003,"coh":9004,"ĠNev":9005,"Ġcombat":9006,"ĠTokyo":9007,"iami":9008,"Ġpatterns":9009,"phant":9010,"Ġsac":9011,"ocracy":9012,"Ġauto":9013,"agnetic":9014,"ĠIsraeli":9015,"Ġjustice":9016,"ĠCEO":9017,"ĠAdministration":9018,"ĠEric":9019,"Ġsummar":9020,"incess":9021,"Response":9022,"hbar":9023,"Ġfiles":9024,"gies":9025,"Ġcommitted":9026,"}$)":9027,"ĠStory":9028,"Ġheadquarters":9029,"Ġconvex":9030,"pping":9031,"rieved":9032,"ĠĠĠĠĠĠĠĠĠĠĠĠĊ":9033,"Ġhour":9034,"bat":9035,"Ġgod":9036,"dir":9037,"ĠSocorro":9038,"Ġargued":9039,"iley":9040,"Ġgradient":9041,"aa":9042,"dat":9043,"Ġprediction":9044,"Her":9045,"ĠHur":9046,"Ġfluct":9047,"ĠDomin":9048,"ĠManchester":9049,"enez":9050,"ĠForces":9051,"ĠGib":9052,"ipage":9053,"Ġbounds":9054,"ĠSM":9055,"ĠIslamic":9056,"Hon":9057,"ĠMach":9058,"vol":9059,"ĠLINEAR":9060,"Ġ$|\\":9061,"unnel":9062,"Ġlect":9063,"inking":9064,"night":9065,"itivity":9066,"Ġhomes":9067,"Date":9068,"ĠEnvironment":9069,"Ġsuitable":9070,"1890":9071,"ĠSky":9072,"ymn":9073,"Ġdiscrim":9074,"Ant":9075,"Query":9076,"Ġpromote":9077,"inth":9078,"[(":9079,"Life":9080,"ublin":9081,"ĠFront":9082,"Current":9083,"Ġprogramme":9084,"Ġadjacent":9085,"Ġcaptain":9086,"ĠNap":9087,"islation":9088,"ĠCost":9089,"ĠEvery":9090,"fs":9091,"ĠKat":9092,"Ġraise":9093,"android":9094,"ĠPot":9095,"Mat":9096,"alian":9097,"ĠMond":9098,"Ġpresidential":9099,"minipage":9100,"wich":9101,"Client":9102,"forcement":9103,"ĠSix":9104,"Do":9105,"iveness":9106,"icide":9107,"stic":9108,"ĠĠĠĠĠĠĠĠĊ":9109,"wp":9110,"Ġcalling":9111,"TY":9112,"ĠChile":9113,"Nav":9114,"last":9115,"Ġcontributed":9116,"uties":9117,"ĠLincoln":9118,"Ġstands":9119,"dependent":9120,"wick":9121,"Ġuncertainty":9122,"Ġstatistical":9123,"agu":9124,"rained":9125,"Ġpermanent":9126,"write":9127,"ĠDrag":9128,"Ġmusician":9129,"))$":9130,"member":9131,"aro":9132,")}_{":9133,"call":9134,"Ġherself":9135,"loc":9136,"Ġsons":9137,"Ġsought":9138,"Ġliqu":9139,"ĠVice":9140,"unit":9141,"Ġbool":9142,"ikh":9143,"ĠAfghan":9144,"Ġwalls":9145,"Ġbroke":9146,"pdate":9147,"ĠNorwegian":9148,"ĠBillboard":9149,"ceived":9150,"Ġbran":9151,"Å«":9152,"ĠHop":9153,"1905":9154,"ĠColomb":9155,"ships":9156,"ĠBuilding":9157,"ownt":9158,"Ġsolve":9159,"uns":9160,"ĠEP":9161,"1909":9162,"Ġrear":9163,"Ġaged":9164,"pot":9165,"ĠEs":9166,"Stream":9167,"inction":9168,"Ġplus":9169,"Ġhuge":9170,"Ġovers":9171,"Ġmel":9172,"tah":9173,"ĠSenior":9174,"ĠRose":9175,"Ġdirectors":9176,"Ġrein":9177,"ĠGrant":9178,"ĠCatal":9179,"ĠEmperor":9180,"uum":9181,"issippi":9182,"Ġprofession":9183,"vector":9184,"ĠJam":9185,"elve":9186,"ĠDeb":9187,"Ġpapers":9188,"Ġmales":9189,"Ġdisapp":9190,"Ġbenefits":9191,"Television":9192,"ĠInn":9193,"usal":9194,"ĠAmong":9195,")</":9196,"Ġ(;":9197,"hop":9198,"Ġstd":9199,"Ġsettled":9200,"hor":9201,"Ġpilot":9202,"Ġseparated":9203,"Ġdust":9204,"ĠId":9205,"ople":9206,"Ġtheories":9207,"Ġpromotion":9208,"Ġgraphs":9209,"Ġdoll":9210,"ĠBefore":9211,"ateur":9212,"cref":9213,"ocratic":9214,"vari":9215,"ĠZh":9216,"ĠWalter":9217,"Ġtransmission":9218,"ĠNon":9219,"Ġfaced":9220,"ancer":9221,"Ġexplo":9222,"ĠBeng":9223,"lesssim":9224,"ĠJordan":9225,"ported":9226,"ĠWolf":9227,"uses":9228,"}{|":9229,"Ġradiation":9230,"rating":9231,"Ġhappened":9232,"Ġdepict":9233,"uma":9234,"Ġhistorian":9235,"Ġsubgroup":9236,"á»":9237,"Right":9238,"ĠDiego":9239,"Ġroof":9240,"Ġexcell":9241,"Ġcamera":9242,"actic":9243,"Ġpret":9244,"Ġmist":9245,"aby":9246,"Äĥ":9247,"Ġintersection":9248,"1907":9249,"Ġresc":9250,"arse":9251,"HC":9252,"Override":9253,"Ġsimultane":9254,"Rail":9255,"Ġevaluation":9256,"1906":9257,"disambiguation":9258,"Ġfolk":9259,"Therefore":9260,"aza":9261,"ĠRegional":9262,"dam":9263,"Ġcollaboration":9264,"Ġpenal":9265,"ĠAgain":9266,"Finally":9267,"FM":9268,"Ġmayor":9269,"âĢĿ,":9270,"Ġcharts":9271,"rations":9272,"ĠAge":9273,"rehens":9274,"North":9275,"Ġoptimization":9276,"Ġunderlying":9277,"Ġgreatest":9278,"Ġinstalled":9279,"Ġsituated":9280,"Ġsafe":9281,"125":9282,"Ġtransp":9283,"ĠCommonwealth":9284,"Ġcold":9285,"Bel":9286,"ribed":9287,"ĠLocal":9288,"Ġfought":9289,"Ġ(),":9290,"PL":9291,":}":9292,"uilt":9293,"Ġcovering":9294,"typ":9295,"Ġroughly":9296,"Ġkilling":9297,"Ġhorse":9298,"$),":9299,"Ġmental":9300,"Ġconnect":9301,"forward":9302,"mont":9303,"Ġamplitude":9304,"Ġknew":9305,"ĠWy":9306,"ĠEnt":9307,"ĠNa":9308,"hent":9309,"ante":9310,"ynamic":9311,"Ġsale":9312,"ĠSound":9313,"illing":9314,"ĠCommunic":9315,"oyd":9316,"Ġworldwide":9317,"Ġconsequence":9318,"<!--":9319,"ĠMarine":9320,"ĠDue":9321,"ĠAli":9322,"BB":9323,"ĠWind":9324,"Ġ<<":9325,")}}":9326,"Ġdecor":9327,"Ġscenario":9328,"Af":9329,"ĠOtt":9330,"lik":9331,"GN":9332,"ĠInvest":9333,"Ġproducing":9334,"ĠBrian":9335,"ĠNative":9336,"Ġdecade":9337,"Ġqualified":9338,"Ġsun":9339,"Ġment":9340,"Ġchallenges":9341,"ĠTen":9342,"DC":9343,"}{(":9344,"ĠDun":9345,"Ġrevolution":9346,"former":9347,"ĠDream":9348,"Po":9349,"Ġabsolute":9350,"Ġsole":9351,"etch":9352,"Ġoffices":9353,"ictionary":9354,"ĠTurkish":9355,"ĠToday":9356,"ĠHouston":9357,"Arch":9358,"Ġkick":9359,"Ġlyrics":9360,"ĠGre":9361,"Ġshortly":9362,"ĠDoctor":9363,"Ġtreated":9364,"lades":9365,"Ġsurg":9366,"Ġgender":9367,"ĠUl":9368,"encing":9369,"ĠST":9370,"Pat":9371,"Ġaffect":9372,"Ġabund":9373,"ĠMarc":9374,"Ġopinion":9375,"ĠCemetery":9376,"otional":9377,"AV":9378,"Ġtrac":9379,"uerto":9380,"ĠÄ":9381,"Ġhighlight":9382,"Ġarc":9383,"phone":9384,"Ġweather":9385,"si":9386,"ridges":9387,"Ġnom":9388,"Ġeffectively":9389,"ĠInfantry":9390,"Ġagree":9391,"ĠReport":9392,"google":9393,"Ġped":9394,"Ġadjust":9395,"ĠMit":9396,"Ur":9397,"inian":9398,"ĠStone":9399,"Ġdiscrete":9400,"Ġretirement":9401,"GA":9402,"Ġouter":9403,"Ġadapted":9404,"Ġintegrated":9405,"Ġattacked":9406,"Last":9407,"oses":9408,"Ġliterary":9409,"nold":9410,"ĠFac":9411,"ĠArmen":9412,"MR":9413,"Ġshock":9414,"Gen":9415,"ĠBor":9416,"pres":9417,"ĠCase":9418,"Dep":9419,"ĠWorks":9420,"Born":9421,"Ġthousands":9422,"Ġsurname":9423,"Ġandroid":9424,"ĠSaturday":9425,"Ġhotel":9426,"opped":9427,"Ġrotation":9428,"Ġairport":9429,"essed":9430,"Hel":9431,"Ġdenoted":9432,"wall":9433,"Ġhidden":9434,"rapy":9435,"Ġserver":9436,"Ġcalculations":9437,"David":9438,"author":9439,"ushed":9440,"Ġflows":9441,"ieval":9442,"ĠLabour":9443,"Ġrecommend":9444,"Ġscenes":9445,"Ġsingers":9446,"101":9447,"Ġangular":9448,"Go":9449,"uj":9450,"ĠHeart":9451,"Ġsell":9452,"ĠExt":9453,"chron":9454,"ĠNaval":9455,"Ġfounding":9456,"ĠOklahoma":9457,"ĠTelevision":9458,"ĠFa":9459,"oni":9460,"ĠSquare":9461,"ĠTan":9462,"Ġcas":9463,"Mark":9464,"Ġexclud":9465,"ĠStr":9466,"Plot":9467,"PU":9468,"%.":9469,"grade":9470,"Ġec":9471,"cale":9472,"ĠBrand":9473,"ĠGoogle":9474,"Ġanimal":9475,"Pres":9476,"Ġcomputational":9477,"Ġpasses":9478,"Ġconcluded":9479,"jav":9480,"elli":9481,"Ġcoefficient":9482,"Ġpix":9483,"Ġfranch":9484,"Ġsand":9485,"ĠHans":9486,"Ġsummary":9487,"isely":9488,"Start":9489,"lad":9490,"Function":9491,"conf":9492,"Ġdoor":9493,"stall":9494,"Ġcenturies":9495,"elson":9496,"DR":9497,"Ġcalculation":9498,"Ġbiggest":9499,"Ġreaching":9500,"kov":9501,"Ġregarded":9502,"Ġheavily":9503,"tiny":9504,"ĠMap":9505,"hbox":9506,"Ġconclusion":9507,"ĠHoward":9508,"Ġsoci":9509,"Leg":9510,"Ġask":9511,"Second":9512,"iva":9513,"Ġpreced":9514,"odox":9515,"Ġmobile":9516,"chant":9517,"bums":9518,"Sum":9519,"ĠGab":9520,"Ġrenew":9521,"Ġrobust":9522,"ĠConnecticut":9523,"Ġstrike":9524,"ĠBattalion":9525,"ĠTemple":9526,"Ġaccurate":9527,"theless":9528,"Ġaired":9529,"Ġmultipl":9530,"ĠGard":9531,"uting":9532,"Using":9533,"1904":9534,"namespace":9535,"Builder":9536,"Ġconvers":9537,"Ġcharacteristics":9538,"Ġextent":9539,"ĠDark":9540,"ĠĠĠĠĠĠĠĠĠĠĠĠĠĠĠĠĠĠĠĠĠĠĠĠĠĠĠĠĠĠĠ":9541,"PO":9542,"ĠNich":9543,"ĠNAS":9544,"Ġcausing":9545,"ĠReb":9546,"ĠOF":9547,"ĠThird":9548,"Ġtemple":9549,"Ġdeleg":9550,"rin":9551,"oa":9552,"Run":9553,"Ġinvestigate":9554,"ĠMedicine":9555,"Ġmixing":9556,"ĠAllen":9557,"Ġcredit":9558,"vee":9559,"BO":9560,"ribe":9561,"chor":9562,"Ġsubstit":9563,"ierarch":9564,"Ġpush":9565,"target":9566,"Ġlemma":9567,"Rad":9568,"ugu":9569,"burn":9570,"Ġlawyer":9571,"Most":9572,"Ġvolunte":9573,"Ġchurches":9574,"ĠKy":9575,"Ġlabels":9576,"Ġkil":9577,"ĠSud":9578,"ĠIS":9579,"ĠPatrick":9580,"ĠBureau":9581,"Ġstages":9582,"ĠHamp":9583,"Phil":9584,"results":9585,"Ġenemy":9586,"Ġintelligence":9587,"Ġlake":9588,"ĠIr":9589,"Ġcommissioned":9590,"Prov":9591,"ĠAnthony":9592,"olished":9593,"ĠGram":9594,"Ġjoining":9595,"ĠEc":9596,"1901":9597,"Ġcoordinate":9598,"clusions":9599,"atters":9600,"Ġadult":9601,"Ġwaves":9602,"BL":9603,"ĠCooper":9604,"}\\,\\":9605,"xx":9606,"Instance":9607,"Ġestablishment":9608,"Ġcompetitions":9609,"Ġresistance":9610,"cing":9611,"Ġcruc":9612,"iem":9613,"Ġalter":9614,"Ġcomputation":9615,"Ġ->":9616,"Status":9617,"ĠSC":9618,"Ġaf":9619,"Ġpersons":9620,"Ġeye":9621,"sequently":9622,"Ġpredicted":9623,"Ġrational":9624,"Max":9625,"ben":9626,"1903":9627,"fa":9628,"istent":9629,"endment":9630,"_-":9631,"Ġque":9632,"eeds":9633,"ĠMoore":9634,"eting":9635,"ĠCare":9636,"aton":9637,"160":9638,"Ġcancell":9639,"anton":9640,"ĠDonald":9641,"Ġcolour":9642,"FR":9643,"ardo":9644,"ĠWhit":9645,"Ġdoct":9646,"select":9647,"ĠIl":9648,"Ġdisestabl":9649,"Ġchose":9650,"ĠAnne":9651,"Ġlowest":9652,"tag":9653,"Ġjazz":9654,"ĠSym":9655,"ĠFinn":9656,"Ġlatest":9657,"Ġabsence":9658,"Ġlegislation":9659,"ĠRey":9660,"Ġinfluenced":9661,"antasy":9662,"Ġquery":9663,"Ġadvent":9664,"Ġsatisfying":9665,"HT":9666,"Ġanyone":9667,"itational":9668,"ĠHom":9669,"Action":9670,"Ġtemperatures":9671,"ĠObject":9672,"elect":9673,"ĠMult":9674,"umin":9675,"ĠBou":9676,"Ġjobs":9677,"options":9678,"Ġsufficiently":9679,"ĠNone":9680,"Ġoperate":9681,"Notable":9682,"ĠSaf":9683,"friend":9684,"Ġphotograph":9685,"Ġdesired":9686,"Indian":9687,"care":9688,"ĠWhe":9689,"ĠCroat":9690,"arry":9691,"ĠJay":9692,"anim":9693,"Vill":9694,"Ġmonitor":9695,"possible":9696,"Ġhandle":9697,"Ġpractices":9698,"Ġinfrastructure":9699,"ĠLore":9700,"lib":9701,"Ġmac":9702,"Ã©t":9703,"Ġtick":9704,"LC":9705,"ĠLic":9706,"Ġready":9707,"tfrac":9708,"Football":9709,"Ġpoll":9710,"Ġmaintained":9711,"bigl":9712,"Ġfoundation":9713,"Ġgeneric":9714,"Ġengaged":9715,"cret":9716,"Ġapplying":9717,"iated":9718,"Ġ\\]":9719,"Education":9720,"Ġrefuge":9721,"etween":9722,"roph":9723,"su":9724,"ĠBrun":9725,"Ġbehaviour":9726,"1902":9727,":=":9728,"Ġsubsid":9729,"sole":9730,"Ġguns":9731,"ĠMississippi":9732,"Ġinvited":9733,"Ġrepresentations":9734,"Ġsportspeople":9735,"Ġinhabit":9736,"Ġjourney":9737,"arner":9738,"Ġmart":9739,"ĠAssoci":9740,"Ġprojection":9741,"stal":9742,"UL":9743,"Ġcru":9744,"Ġdates":9745,"Ġvo":9746,"ĠDisney":9747,"Ġprotein":9748,"ĠLouisiana":9749,"Ġunless":9750,"\\\\&":9751,"dest":9752,"scriptsize":9753,"ĠRab":9754,"Ġdatabase":9755,"Ġfan":9756,"^*$":9757,",$":9758,"Ġexperienced":9759,"Ġcontrad":9760,"([":9761,"itional":9762,"Ġopera":9763,"ĠYouth":9764,"Ð»":9765,"igious":9766,"itals":9767,"ĠNCAA":9768,"Ġtraject":9769,"Di":9770,"Ġmort":9771,"uscript":9772,"onomy":9773,"Ġattached":9774,"ĠArgentina":9775,"hab":9776,"Ġcreat":9777,"Ġvision":9778,"imore":9779,"aware":9780,"ographical":9781,"Ġprepared":9782,"ĠDom":9783,"Ġresearchers":9784,"ĠKaz":9785,"aked":9786,"Util":9787,"ĠSwiss":9788,"Ġidentical":9789,"istant":9790,"Ġconservation":9791,"Ġban":9792,"ĠHarris":9793,"Ġconsisted":9794,"Ġbulk":9795,"ters":9796,"Ġboolean":9797,"ĠPhill":9798,"Ġsequences":9799,"Ġbalance":9800,"ĠIndeed":9801,"Ġentropy":9802,"ista":9803,"step":9804,"180":9805,"Ġmapping":9806,"formed":9807,"Ġsoccer":9808,"Ġdetected":9809,"owski":9810,"ĠHonor":9811,"1880":9812,"enny":9813,"Ã©s":9814,"Ġsteel":9815,"defined":9816,"Ġhumans":9817,"apl":9818,"query":9819,"ĠSel":9820,"ĠMrs":9821,"Ġveter":9822,"ĠHeritage":9823,"ĠNever":9824,"Ġcloud":9825,"angular":9826,"expected":9827,"ĠQuebec":9828,"oslav":9829,"Ġdynamic":9830,"Ġmetres":9831,"ĠMoon":9832,"ĠPolicy":9833,"Ġcomments":9834,"Ġmerged":9835,"ĠGordon":9836,"ĠCode":9837,"Ġequilibrium":9838,"ariance":9839,"Ġbatter":9840,"}}}\\":9841,"olo":9842,"direct":9843,"Ġrig":9844,"Ġexplicitly":9845,"Ġincorporated":9846,"ometry":9847,"ĠTaiwan":9848,"ĠPrix":9849,"ĠHollywood":9850,"Ġopportunities":9851,"fi":9852,"Ġanalog":9853,"Club":9854,"ĠAgency":9855,"ĠDetroit":9856,"Ġcalculate":9857,"ĠNig":9858,"ĠRang":9859,"Ġversus":9860,"Ġgraduate":9861,"ĠChall":9862,"ĠRoberts":9863,"Ġentertain":9864,"Ġlinked":9865,"Ġscientists":9866,"aming":9867,"Ġgoods":9868,"float":9869,"ĠBry":9870,"ĠSilver":9871,"img":9872,"ĠChampions":9873,"Ġtennis":9874,"Ġpublications":9875,"bigr":9876,"overty":9877,"Ġpip":9878,"Ġvoted":9879,"]}":9880,"abad":9881,"&$":9882,"Non":9883,"Ġpaintings":9884,"ĠBrigade":9885,"Ġtag":9886,"Ġfilled":9887,"ĠPortuguese":9888,"client":9889,"orrow":9890,"Ġpurchase":9891,"Ġwarm":9892,"ĠBulg":9893,"Ġinterpretation":9894,"stood":9895,"Ġfactory":9896,"Ġresponsibility":9897,"ME":9898,"ĠDur":9899,"ĠAmaz":9900,"High":9901,"Ġisomorphism":9902,"Ġexceed":9903,"]$.":9904,"ĠNag":9905,"Ġtrav":9906,"isen":9907,"green":9908,"rama":9909,"master":9910,"---":9911,"ĠHotel":9912,"...,":9913,"inburgh":9914,"Ġseed":9915,"chell":9916,"Ġceremony":9917,"}}_{\\":9918,"Ġinher":9919,"Ġhair":9920,"ecture":9921,"Des":9922,"Ġlocomot":9923,"property":9924,"NO":9925,"opter":9926,"ĠPope":9927,"ĠSport":9928,"ĠDouglas":9929,"roke":9930,"Ġvideos":9931,"Ġneighbour":9932,"Ġstanding":9933,"Ġlaid":9934,"Ġparticipants":9935,"Ġassistance":9936,"Ġconcerned":9937,"Ġwasn":9938,"Ġdiver":9939,"ĠMiami":9940,"))\\":9941,"inces":9942,"ogg":9943,"icular":9944,"Ġstadium":9945,"ĠHarvard":9946,"Military":9947,"rea":9948,"\\}$.":9949,"Ġaccused":9950,"Ġpoetry":9951,"prov":9952,"ĠHawai":9953,"Ġlists":9954,"ĠBelgium":9955,"Number":9956,"ĠVin":9957,"endar":9958,"joint":9959,"leges":9960,"Ġcomputing":9961,"itative":9962,"eland":9963,"Ġphoto":9964,"ailed":9965,"close":9966,"leveland":9967,"Ġcompat":9968,"forms":9969,"jpg":9970,"Ġuniversal":9971,"illed":9972,"Ġda":9973,"Mc":9974,"Under":9975,"Ġdecomposition":9976,"obs":9977,"dale":9978,"uh":9979,"ĠOnce":9980,"Content":9981,"Ġvictims":9982,"liest":9983,"Ġsomewhat":9984,"PD":9985,"ĠNik":9986,"Ġtall":9987,"ĠVillage":9988,"Orig":9989,"Web":9990,"ĠDal":9991,"Ġpione":9992,"Ġexperiences":9993,"ĠHockey":9994,"Ġdefin":9995,"lie":9996,"ĠDak":9997,"otte":9998,"GM":9999,"Ġdelivered":10000,"Ġwants":10001,"oths":10002,"Ġexcess":10003,"ĠRow":10004,"hered":10005,"Ġvirus":10006,"ĠRecord":10007,"Another":10008,"aron":10009,"Ġdeput":10010,"allas":10011,"issance":10012,"ĠFle":10013,"Ġ$.":10014,"ĠAT":10015,"ĠFriday":10016,"Ġruled":10017,"Ġbias":10018,"cious":10019,"\\\\\\":10020,"mathop":10021,"Ġinjured":10022,"Black":10023,"ĉĉĊ":10024,"ractions":10025,"elihood":10026,"description":10027,"ĠTerrit":10028,"Ġweights":10029,"ĠDenmark":10030,"ĠLev":10031,"ĠMand":10032,"Ġpractical":10033,"Ġcrossing":10034,"Ġscaling":10035,"elle":10036,"Ġaccompl":10037,"$_{":10038,"Ġstores":10039,"ĠErn":10040,"Video":10041,"ĠAle":10042,"Ġpul":10043,"Ġestimation":10044,"ĠKam":10045,"Ġrelationships":10046,"Ø§":10047,"Ġfil":10048,"Ġsettings":10049,"Ġaccounts":10050,"Ġhappen":10051,"Ġcook":10052,"Ġparticipate":10053,"ĠSD":10054,"axis":10055,"ructions":10056,"Ġperspective":10057,"ĠCulture":10058,"Ġabandoned":10059,"family":10060,"opes":10061,"Ġassumptions":10062,"Ġfiled":10063,"ename":10064,"merce":10065,"iden":10066,"Token":10067,"lementary":10068,"ĠBrazilian":10069,"Rober":10070,"Ġchapter":10071,"Ġessentially":10072,"okes":10073,"Ġisn":10074,"Ġmarkets":10075,")--":10076,"wen":10077,"show":10078,"Ġsky":10079,"Ġinaug":10080,"Ġtranslated":10081,"ĠLiberal":10082,"ulating":10083,"btn":10084,"Ġboat":10085,"odge":10086,"Ġimmediate":10087,"ando":10088,"Ġseek":10089,"Ġcharacterized":10090,"Mich":10091,"Before":10092,"common":10093,"avor":10094,"Prof":10095,"Ġbrown":10096,"ĠPa":10097,"ĠArchitect":10098,"ĠRyan":10099,"argo":10100,"regular":10101,"Ġinverse":10102,"ping":10103,"ruption":10104,"Ġdecisions":10105,"Ġdismiss":10106,"$:":10107,"Ġinteract":10108,"Ġowners":10109,"brace":10110,"ĠTreat":10111,"ieg":10112,"eron":10113,"Ġ[\\":10114,"frame":10115,"Ep":10116,"ĠLieutenant":10117,"ĠDa":10118,"Ġcler":10119,"Roman":10120,"tsburgh":10121,"Ġ\\!":10122,"cht":10123,"Long":10124,"Block":10125,"Ġgar":10126,"AE":10127,"Ġ{$":10128,"Ġellip":10129,"ONT":10130,"Ġexplan":10131,"died":10132,"'ll":10133,"Ġrend":10134,"Ġintensity":10135,"Ġfear":10136,"Ġstating":10137,"estyle":10138,"Ġsevere":10139,"Ġconcentration":10140,"GBT":10141,"ĠCru":10142,"Ġjet":10143,"Ġtack":10144,"father":10145,"Ġinsert":10146,"ĠIndependent":10147,"ĠConc":10148,"ĠNav":10149,"Ġclassic":10150,"Ġpopulations":10151,"owntown":10152,"periment":10153,"ugin":10154,"rik":10155,"ĠKarl":10156,"ebox":10157,"130":10158,"Ġgene":10159,"ĠIndonesia":10160,"Ġdrivers":10161,"Ġsupposed":10162,"ĠDick":10163,"ulus":10164,"Ġaccommod":10165,"Ġsignals":10166,"ĠNULL":10167,"Ġproposal":10168,"Ġassault":10169,"argets":10170,"UK":10171,"angel":10172,"Ġexplos":10173,"ĠKl":10174,"Ġnecessarily":10175,"orption":10176,"ĠAbd":10177,"Ġentries":10178,"putation":10179,"ĠPuerto":10180,"desc":10181,"Ġtouchdown":10182,"ĠEag":10183,"ĠEarly":10184,"ĠBanglades":10185,"Ġrival":10186,"Ġequality":10187,"finished":10188,"ĠBowl":10189,"Ġderivative":10190,"Ġduty":10191,"conv":10192,"Ġphilosophy":10193,"sg":10194,"Ã´":10195,"world":10196,"ĠAntonio":10197,"Ġfavour":10198,"Ġupdated":10199,"Ġsustain":10200,",\\\\":10201,"Star":10202,"ĠOrth":10203,"aire":10204,"Mus":10205,"Que":10206,"Ġaw":10207,"Ġstudying":10208,"ourier":10209,"ĠDanish":10210,"RL":10211,"ĠBuck":10212,"Ġaccompan":10213,"Ġbeautiful":10214,"ĠBush":10215,"Ġsubjects":10216,"Ġextreme":10217,"mn":10218,"Ġhypothesis":10219,"ĠMatthew":10220,"Ġagencies":10221,"enezuel":10222,"ĠStudios":10223,"apolis":10224,"ĠBuddh":10225,"Ġmatching":10226,"Ġtropical":10227,"isor":10228,"ĠDVD":10229,"Ġdominated":10230,"Ġneutr":10231,"Ġclassified":10232,"uality":10233,"Reception":10234,"Ġreign":10235,"closed":10236,"Ġarmed":10237,"Sty":10238,"Ġcrowd":10239,"Ġevaluate":10240,"redited":10241,"Ġattorney":10242,"Ġmembership":10243,"Ġhighway":10244,"ĠFM":10245,"ĠNet":10246,"IO":10247,"ĠStew":10248,"Ġrejected":10249,"plicated":10250,"ashi":10251,"yset":10252,"Ġdry":10253,"Ġbench":10254,"ĠPortugal":10255,"Ġdream":10256,"olid":10257,"Ġcircuit":10258,"rolled":10259,"Ġencounter":10260,"ĠPlace":10261,"Command":10262,"ĠObserv":10263,"ĠCook":10264,"Ġcricket":10265,"ĠOrchestra":10266,"ailand":10267,"Ġcapable":10268,"WE":10269,"ĠDublin":10270,"Transport":10271,"Ġkeyboard":10272,"128":10273,"mo":10274,"Ġdimensional":10275,"Ġpatient":10276,"cycl":10277,"general":10278,"craft":10279,"ĠPas":10280,"1898":10281,"Ġreplacing":10282,"Ġhear":10283,"onential":10284,"tach":10285,"tree":10286,"Ġentrance":10287,"Ġpackage":10288,"icate":10289,"Ġpassenger":10290,"Ġreader":10291,"ĠMonte":10292,"ochastic":10293,"Ġteachers":10294,"Ġneural":10295,"Main":10296,"Ġmedicine":10297,"args":10298,"Ġbreaking":10299,"Ġinvasion":10300,"Ã¥":10301,"Ġcolumns":10302,"ĠAbb":10303,"Ġuniversities":10304,"ĠLanc":10305,"ĠNob":10306,"sa":10307,"Ġdebate":10308,"ĠAlber":10309,"NC":10310,")})":10311,"]$,":10312,"Ġhits":10313,"Ġactresses":10314,"ishment":10315,"Ġkid":10316,"ĠJuan":10317,"Ġhired":10318,"ayan":10319,"ĠDeath":10320,"Ġlosses":10321,"Ġdatasets":10322,"Ġluminos":10323,"ĠLaure":10324,"Ġconfidence":10325,"Ġbed":10326,"Ġchampions":10327,"Ġdesigns":10328,"Ġsecretary":10329,"ontin":10330,"Ġacid":10331,"Ġsupports":10332,"Ġcompletion":10333,"anne":10334,"ĠGa":10335,"algorithm":10336,"Ġcompete":10337,"ellect":10338,"dfrac":10339,"ĠPap":10340,"ĠInstead":10341,"Ġstret":10342,"Ġregularly":10343,"Ġdemonstrated":10344,"Stat":10345,"Ġformally":10346,"roc":10347,"ĠHug":10348,"Label":10349,"ĠAlan":10350,"finals":10351,"itory":10352,"Academ":10353,"Ġeyes":10354,"Ju":10355,"ĠDigital":10356,"Ġneutral":10357,"arthe":10358,"Ġreserve":10359,"BE":10360,"Ġconnections":10361,"idal":10362,"ĠNE":10363,"request":10364,"ĠSamuel":10365,"Europe":10366,"Ġappearing":10367,"Ġprecisely":10368,"ĠLang":10369,"inch":10370,"Vis":10371,"Ġgravity":10372,"ifferent":10373,"Ġshares":10374,"erset":10375,"XX":10376,"Ġhelping":10377,"Expatriate":10378,"ĠEdinburgh":10379,"Ġislands":10380,"ĠArkansas":10381,",\\,\\":10382,"Ġrelax":10383,"ouble":10384,"die":10385,"Mult":10386,"Ġoffset":10387,"uction":10388,"atherine":10389,"ĠMayor":10390,"ctic":10391,"Ġschem":10392,"child":10393,"1899":10394,"Ġsatisfied":10395,"Null":10396,"Ġfib":10397,"Ġmidfield":10398,"Final":10399,"Ġthrows":10400,"Ġplate":10401,"ĠRest":10402,"Ġdependent":10403,"ĠHu":10404,"RT":10405,"Ġgate":10406,"ĠMcG":10407,"agazines":10408,"Ġnotion":10409,"orus":10410,"ĠTig":10411,"Ġengines":10412,"Ġbringing":10413,"Ġdominant":10414,"Ġstatements":10415,"Former":10416,"ĠLyn":10417,"eget":10418,"incorpor":10419,"header":10420,"ĠDefense":10421,"Ġsentence":10422,"Ġperiods":10423,"Ġchair":10424,"ĠPed":10425,"ebug":10426,"ĠPeace":10427,"ĠReserve":10428,"Ġshooting":10429,"irds":10430,"Ġinvolves":10431,"Ġlegend":10432,"Ġ^{":10433,"Ġrestricted":10434,"ĠWalker":10435,"ĠLam":10436,"ĠHills":10437,"][]{":10438,"vature":10439,"uts":10440,"rett":10441,"aration":10442,"ĠChairman":10443,"Ġscholars":10444,"Ġphone":10445,"ĠSin":10446,"oca":10447,"Ġexecution":10448,"ĠFarm":10449,"just":10450,"Ġcourses":10451,"ropic":10452,"rosc":10453,"ĠLawrence":10454,";\"|":10455,"rypt":10456,"ĠFall":10457,"Ġsecure":10458,"Ġmilit":10459,"ners":10460,"Ġanth":10461,"ĠÃī":10462,"gressive":10463,"sson":10464,"ĠMi":10465,"True":10466,"adata":10467,"ĠGarden":10468,"ratic":10469,"Ġlicense":10470,"since":10471,"emen":10472,"ĠLas":10473,"ĠUtah":10474,"Ġcloser":10475,"borough":10476,"[-":10477,"ahn":10478,"ĠMaur":10479,"ĠJun":10480,"ĠFrederick":10481,"ortion":10482,"ĠFil":10483,"profit":10484,"contin":10485,"esides":10486,"rowser":10487,"Ġexecuted":10488,"Ġstopped":10489,"ĠExpress":10490,"Ġdens":10491,"plane":10492,"Ġcustomers":10493,"Ġpod":10494,"700":10495,"Ġcomic":10496,"Direct":10497,"ĠMcK":10498,"arma":10499,"ĠAtlanta":10500,"longrightarrow":10501,"east":10502,"heastern":10503,"egas":10504,"ĉĠ":10505,"Ġke":10506,"etal":10507,"Ġancest":10508,"Ġfinishing":10509,"}[\\":10510,"ĠAction":10511,"____":10512,"uber":10513,"ĠLegislative":10514,"Ġfleet":10515,"aments":10516,"oda":10517,"isations":10518,"Ġfly":10519,"Local":10520,"ĠDead":10521,"fn":10522,"emi":10523,"Ġrating":10524,"Ġuniverse":10525,"ĠAdditionally":10526,"Ġoccas":10527,"Ġincreasingly":10528,"Ġroots":10529,"uda":10530,"DM":10531,"ipping":10532,"ĠEvent":10533,"uzz":10534,"1870":10535,"Ġgrounds":10536,"ĠFern":10537,";\\;\\":10538,"ibl":10539,"ĠCommander":10540,"ĠSign":10541,"Buffer":10542,"Ġinstrum":10543,"})}":10544,"Ġoffering":10545,"1896":10546,"Ġinstruments":10547,"who":10548,"uning":10549,"Works":10550,"ĠPC":10551,"Pan":10552,"Ġmaximal":10553,"ĠCart":10554,"Ġbuy":10555,"ĠCow":10556,"Ġcm":10557,"Ġ((":10558,"1895":10559,"});":10560,"Tem":10561,"ĠTar":10562,"ĠScient":10563,"rena":10564,"Songs":10565,"Ġjunior":10566,"BR":10567,"ĠCollection":10568,"Ġcaught":10569,"orses":10570,"ĠDave":10571,"Ġsupp":10572,"ĠPlayer":10573,"ĠImperial":10574,"Equal":10575,"aman":10576,"isd":10577,"Buildings":10578,"Ġcompens":10579,"emptyset":10580,"Init":10581,"ĠMotor":10582,"ĠSn":10583,"ĠHistorical":10584,"Proof":10585,"Ġconstants":10586,"ĠCond":10587,"ried":10588,"ĠImm":10589,"edding":10590,"Ġsampling":10591,"ĠCop":10592,"Ġdriven":10593,"Ġmaxim":10594,"ÃŃn":10595,"isition":10596,"Ġaudio":10597,"othe":10598,"Ġfluid":10599,"}}.":10600,"ancell":10601,"Flor":10602,"Ġbanks":10603,"nowledg":10604,"intend":10605,"sche":10606,"sat":10607,"Ġcarrying":10608,"Ġinhabitants":10609,",{\\":10610,"ĠGuide":10611,"Component":10612,"Ġfont":10613,"ĠKennedy":10614,"Ġproduces":10615,"Family":10616,"scriptstyle":10617,"Case":10618,"ĠSupport":10619,"Vol":10620,"prise":10621,"ĠDeputy":10622,"Ġrespective":10623,"Ġbirds":10624,"ĠAppendix":10625,"tenance":10626,"Ġquantities":10627,"Ġastron":10628,"ĠMean":10629,"Ġtested":10630,"Ġexplore":10631,"Op":10632,"ĠChen":10633,"ĠRub":10634,"ĠFried":10635,"Ġagricultural":10636,"parison":10637,"ĠMath":10638,"Ġlands":10639,"ĠEconomic":10640,"Ġabuse":10641,"ucks":10642,"olly":10643,"ĠChild":10644,"PM":10645,"Ġtrigger":10646,"Desc":10647,"ĠTs":10648,"nik":10649,"Major":10650,"Ġseparation":10651,"ĠSingh":10652,"Ġdrag":10653,"ĠRy":10654,"Ġrapidly":10655,"Ġpaths":10656,"\\;":10657,"Mal":10658,"iverpool":10659,"Ġmoves":10660,"enz":10661,"Ġdetect":10662,"ĠML":10663,"esian":10664,"incorporated":10665,"Ä«":10666,"Ġdiagonal":10667,"Page":10668,"Ġderive":10669,"}})":10670,"Ġkeeping":10671,"arrier":10672,"racket":10673,"ĠKevin":10674,"Ġprompt":10675,"%,":10676,"Ġresigned":10677,"DD":10678,"ples":10679,"Ġteen":10680,"phony":10681,".'":10682,"ĠMalaysia":10683,"Ġrecordings":10684,"Ġwaters":10685,"}_{{":10686,"ĠControl":10687,"Handler":10688,"1897":10689,"ĠNatural":10690,"Ġselling":10691,"Ġpy":10692,"orf":10693,"Ġillustrated":10694,"assador":10695,"Ġflex":10696,"Ġcourts":10697,"Ġdemonstrate":10698,"aired":10699,"Ġboys":10700,"ĠPur":10701,"ĠPeters":10702,"ĠCensus":10703,"Ġcastle":10704,"bean":10705,"Ġtwelve":10706,"Ġtrace":10707,"iration":10708,"bmatrix":10709,"Ġviewed":10710,"ĠObama":10711,"Ġmoder":10712,"James":10713,"rehensive":10714,"Ġlift":10715,"Ġethnic":10716,"empty":10717,"UI":10718,"Ġdiscovery":10719,"Ġadmitted":10720,"NE":10721,"ĠPref":10722,"ĠKo":10723,"Ġpup":10724,"Ġdispl":10725,"uler":10726,"ibilities":10727,"Ġroads":10728,"anny":10729,"ĠAuthority":10730,"Ġcommut":10731,"Ġfer":10732,"ĠProm":10733,"olas":10734,"Ġgrade":10735,"Ġclar":10736,"audi":10737,"Ġstreets":10738,"gi":10739,"Ġnick":10740,"Ġbacking":10741,"bach":10742,"ĠCM":10743,"ĠWard":10744,"Ġintermediate":10745,"Ġboundaries":10746,"Ġmunicipal":10747,"ubble":10748,"algebra":10749,"Italian":10750,"Ġcontribute":10751,"ourse":10752,"./":10753,"uki":10754,"ugar":10755,"Ġdecrease":10756,"ĠVari":10757,"Ġdepos":10758,"ige":10759,"Ġmob":10760,"Ġpenalty":10761,"ĠLib":10762,"Ġblow":10763,"olph":10764,"Ġscores":10765,"append":10766,"Ġtrivial":10767,"pers":10768,"Ġwel":10769,"Ã«":10770,"Ġresidence":10771,"ramework":10772,"Ġimprovement":10773,"Ġarrival":10774,"HO":10775,"zed":10776,"Ġmining":10777,"urations":10778,"ĠRound":10779,"140":10780,"ĠNext":10781,"tikzpicture":10782,"ĠAdams":10783,"Given":10784,"Ġanniversary":10785,"Ġcenters":10786,"Ġunus":10787,"Ġgone":10788,"Ġbos":10789,"ĠUkrainian":10790,"Ġrent":10791,"acon":10792,"Ġadaptation":10793,"Ġexped":10794,"ĠSeattle":10795,"ĠAustrian":10796,"bara":10797,"find":10798,"Ġpartially":10799,"Ġprohib":10800,"$};":10801,"Ġnations":10802,"was":10803,"ĠNash":10804,"ĠCommunist":10805,"oly":10806,"forming":10807,"Ġtopological":10808,"Ġmes":10809,"Ġenergies":10810,"Ġmanuscript":10811,"ĠRick":10812,"ĉĠĠĠ":10813,"HP":10814,"ĠFood":10815,"Ġfranchise":10816,"Ang":10817,"\"]":10818,"Tube":10819,"ĠFinland":10820,"parameter":10821,"Ġthinking":10822,"ĠFacebook":10823,"Ġemergency":10824,"Ġlooks":10825,"bras":10826,"integ":10827,"Stud":10828,"Ġflying":10829,"Ġshut":10830,"Ġunderstood":10831,"Ġmolecular":10832,"Ġgeneralized":10833,"Ġhun":10834,"ĠMes":10835,"omas":10836,"ĠBart":10837,"Ġradial":10838,"Ġlegisl":10839,"Ġminute":10840,"ĠRol":10841,"Ġfold":10842,"away":10843,"ĠThailand":10844,"ĠGiven":10845,"Ġserial":10846,"Ġdense":10847,"Japanese":10848,"uable":10849,"March":10850,"points":10851,"ĠAgric":10852,"person":10853,"Ġneither":10854,"models":10855,">\\":10856,"osc":10857,"ĠBull":10858,")}_":10859,"iday":10860,"Ġprotocol":10861,"Ġunf":10862,"Ġposter":10863,"reduc":10864,"Ġpercentage":10865,"ĠAnna":10866,"Paul":10867,"diff":10868,"Ġreplacement":10869,"Ġgather":10870,"ournament":10871,"Ġassembly":10872,"Ġwire":10873,"August":10874,"ĠTit":10875,"Ġfacilit":10876,"Many":10877,"ĠMorgan":10878,"ĠLear":10879,"ĠMPs":10880,"ilst":10881,"scope":10882,"ĠTrade":10883,"ounsel":10884,"Ġequipped":10885,"Ġproducers":10886,"Ġ}{":10887,"GR":10888,"atar":10889,"ĠHas":10890,"ĠCole":10891,"Ġ\"\"\"":10892,"${\\":10893,"million":10894,"rates":10895,"ĠHungary":10896,"scription":10897,"door":10898,"iah":10899,"din":10900,"Ġmanufacturing":10901,"Ġmovies":10902,"ĠTraining":10903,"amps":10904,"ĠGon":10905,"Ġpredictions":10906,"Ġsurvived":10907,"atern":10908,"ĠKnow":10909,"ĠMission":10910,"|}{":10911,"Ġliquid":10912,"lon":10913,"ĠKa":10914,"ĠThough":10915,"Ġpray":10916,"Version":10917,"paragraph":10918,"lash":10919,"Ġsinging":10920,"private":10921,"bed":10922,"udden":10923,"ishops":10924,"ductions":10925,"ĠAdvent":10926,"=.":10927,"Ġedited":10928,"ogram":10929,"Ġmoments":10930,"Ġearliest":10931,"ĠHungarian":10932,"${":10933,"Ġpropose":10934,"aturally":10935,"oustic":10936,"ĠRace":10937,"Ġracial":10938,"Ġinduct":10939,"Ġanimated":10940,"Ġdynasty":10941,"ĠIron":10942,"Ġpraised":10943,"ju":10944,"Tim":10945,"\\)":10946,"Lemma":10947,"Ġham":10948,"ĠPrad":10949,"1893":10950,"Ġredshift":10951,"quest":10952,"ortunately":10953,"iliar":10954,"Ġaer":10955,"Ġlit":10956,"Ãł":10957,"ĠRussell":10958,"ĠNam":10959,"ĪĴ":10960,"ĠChem":10961,"Official":10962,"ĠMargaret":10963,"ĉĉĉĉĉĉĉĉ":10964,"ĠPhot":10965,"Ġmine":10966,"Ġdescribing":10967,"initely":10968,"ĠAlliance":10969,"Ġ^":10970,"format":10971,"Ġtries":10972,"reprene":10973,"ĠPalace":10974,"ĠDean":10975,"Ġspeaking":10976,"ĠPear":10977,"Open":10978,"engths":10979,"iu":10980,"Ġseeing":10981,"Ġbranches":10982,"ĠĠĠĠĠĠĠĠĠĠĠĠĠĠĠĠĠĠĠĠĠĠĠĠĠĠĠĠĠĠĠĠĠĠĠĠĠĠĠĠĠĠĠĠĠĠĠĠĠĠĠĠĠĠĠĠĠĠĠĠĠĠĠĠ":10983,"Rich":10984,"Ġsigns":10985,"Ġprize":10986,"Ġsimilarly":10987,"Us":10988,"zz":10989,"ĠCleveland":10990,"Ġmagnet":10991,"Ġsatellite":10992,"ĠConvention":10993,"election":10994,"ĠPM":10995,"Villages":10996,"xml":10997,"Ġprinciples":10998,"Histor":10999,"iota":11000,"ĠNeb":11001,"nn":11002,"ĠKelly":11003,"ouch":11004,"Ġfalls":11005,"Ġasymptotic":11006,"Ġstead":11007,"itudes":11008,"stat":11009,"large":11010,"REF":11011,"ERT":11012,"button":11013,"Consider":11014,"ĠBox":11015,"Ġbond":11016,"Hence":11017,"Arg":11018,"Ġrain":11019,"Ġsleep":11020,"Ġvariations":11021,"ĠAny":11022,"})=":11023,"Ġphoton":11024,"ĠStandard":11025,"song":11026,"Ġthank":11027,"ĠNar":11028,"Work":11029,"gow":11030,"mal":11031,"Link":11032,"Ġthanks":11033,"flu":11034,"ĠBaltimore":11035,"Each":11036,"Ġferm":11037,"Ġdies":11038,"Ġcolonial":11039,"Ġcollections":11040,"Ġoperates":11041,"Ġhearing":11042,"prison":11043,"ĠEdition":11044,"lower":11045,"Ġtight":11046,"Ġster":11047,"Ġ$,":11048,"Ġsizes":11049,"fly":11050,"Ġpassengers":11051,"Ġbishop":11052,"ĠKings":11053,"Ġinvent":11054,"iri":11055,"1892":11056,"Ġwindows":11057,"thon":11058,"inea":11059,"ĠSeveral":11060,"ĠDaily":11061,"ĠChamber":11062,"Ġathletes":11063,"Ġevening":11064,"Ġassociate":11065,"RI":11066,"ĠAlice":11067,"Ġnonlinear":11068,"aste":11069,"ĠMontreal":11070,"clip":11071,"\\}\\":11072,"\\/":11073,"irection":11074,"Options":11075,"ĠHerm":11076,"ulner":11077,"ĠWelsh":11078,"src":11079,"element":11080,"Ġarchae":11081,"San":11082,"Ġconstituency":11083,"rins":11084,"ĠCapital":11085,"bai":11086,"Ġcanonical":11087,"ĠCrown":11088,"Ġaccompanied":11089,"ĠLanka":11090,"Ġbelongs":11091,"ĠBetween":11092,"Ġsynd":11093,"¿½":11094,"ĠEver":11095,"ĠBeat":11096,"Ġdownload":11097,"istration":11098,"}}^{\\":11099,"ĠCov":11100,"/(":11101,"Medal":11102,"Ġroutes":11103,"navbar":11104,"ĠNep":11105,"Ġdirections":11106,"else":11107,"Prot":11108,"Ġemployment":11109,"Ġmarine":11110,"Ġembedding":11111,"Ġconcrete":11112,"Ġdivisions":11113,"fall":11114,"ĠObl":11115,"abet":11116,"Ġcompilation":11117,"Ġpoverty":11118,"Ġquantity":11119,"ĠVideo":11120,"Ġri":11121,"})^":11122,"json":11123,"status":11124,"Ġresidential":11125,"ĠAfghanistan":11126,"Ġoccupation":11127,"ĠSeason":11128,"Ġles":11129,"hl":11130,"ugoslav":11131,"service":11132,"}_{-":11133,"usalem":11134,"AME":11135,"Bus":11136,"Railway":11137,"leans":11138,"Ġsimultaneously":11139,"Ġprisoners":11140,"Ġseventh":11141,"Ġcriteria":11142,"Ġpriest":11143,"intro":11144,"ATION":11145,"ĠFight":11146,"Factory":11147,"hythm":11148,"Ġdiverse":11149,"ĠMetropolitan":11150,"ĠDance":11151,"kee":11152,"rase":11153,"Ġfaster":11154,"Ġlandscape":11155,"formal":11156,"ĠBruce":11157,"ĠAustin":11158,"ï¿½":11159,"ifest":11160,"Ġpublishing":11161,"Scott":11162,"ĠPublishing":11163,"Ġsteam":11164,"Ã³w":11165,"Ġhundreds":11166,"ptr":11167,"ĠSarah":11168,"isson":11169,"ĠPage":11170,"Ġdog":11171,"ĠWright":11172,"full":11173,"'d":11174,"Ġaccord":11175,"Ġsuit":11176,"Ġhelps":11177,"Ġwish":11178,"Ġdisorder":11179,"Ġ+=":11180,"Ġsignificance":11181,"ĠAlfred":11182,"Ġguide":11183,"Ġcited":11184,"ĠName":11185,"ĠCampbell":11186,"Ġdetermin":11187,"artheta":11188,"comes":11189,"Ġoblig":11190,"ĠBangladesh":11191,"Ġtank":11192,"ĠRight":11193,"ĠPho":11194,"Ġstrategies":11195,"gebras":11196,"Ġownership":11197,"vartheta":11198,"obj":11199,"afe":11200,"Ġsnow":11201,"UM":11202,"ĠRailroad":11203,"vals":11204,"Ġvoting":11205,"Ġpresents":11206,"Ġenhance":11207,"Ġrecovery":11208,"ĠEmer":11209,"Ġforming":11210,"Ġtargets":11211,"ĠNelson":11212,"onymous":11213,"ĠRot":11214,"ĠYears":11215,"larg":11216,"1894":11217,"Fran":11218,"1860":11219,"ĠChristopher":11220,"1889":11221,"Ġclinical":11222,"there":11223,"Bur":11224,"Ġcrown":11225,"Ġcertainly":11226,"ĠHampshire":11227,"ĠGulf":11228,"Ġsubstantial":11229,"ĠHorn":11230,"Ġpremiered":11231,"aders":11232,"ĠCarn":11233,"Ġcontrols":11234,"ĠKnight":11235,"Ġinclusion":11236,"iop":11237,"ĠMonday":11238,"ĠThompson":11239,"instein":11240,"Ġcolors":11241,"Resource":11242,"leased":11243,"arus":11244,"Ġstood":11245,"ĠTamil":11246,"ĠLeban":11247,"ĠRoger":11248,"drop":11249,"ranean":11250,"ĠStewart":11251,"mingham":11252,"ĠRoc":11253,"atorial":11254,"ĠVenezuel":11255,"Ġjudges":11256,"Ġhappens":11257,"Ġisolated":11258,"ders":11259,"Ġfired":11260,"Ġprovision":11261,"ĠRio":11262,"ĠBoys":11263,"ĠShip":11264,"emor":11265,"Ġisot":11266,"Ġentity":11267,"asm":11268,"ilk":11269,"\\}$,":11270,"Ġretail":11271,"bad":11272,"Ġcrucial":11273,"Left":11274,"Ġurg":11275,"ĠVienna":11276,"Ġmatters":11277,"Ġschedule":11278,"kg":11279,"etails":11280,"ĠEsp":11281,"ĠLith":11282,"issue":11283,"ellectual":11284,"images":11285,"ĠCra":11286,"Ġconservative":11287,"Russian":11288,"Ġcorporate":11289,"Ġflu":11290,"cules":11291,"jar":11292,"sis":11293,"imation":11294,"insula":11295,"ĠPittsburgh":11296,"Ġvariant":11297,"ĠSchools":11298,"filter":11299,"SH":11300,"ĠMountains":11301,"Ġabstract":11302,"Ġelectro":11303,"ĠPad":11304,"ĠGirls":11305,"ĠCH":11306,"bridge":11307,"Ġequivalence":11308,"rency":11309,"Ġapproximate":11310,"ĠShah":11311,"$^{":11312,"ĠCer":11313,"Ġarranged":11314,"asa":11315,"Ġspr":11316,"alia":11317,"ĠFive":11318,"columnwidth":11319,"Ġdiameter":11320,"Ġcircumstances":11321,"Ġposted":11322,"ĠRugby":11323,"June":11324,"asts":11325,"Ġhosts":11326,"Ġrequirement":11327,"Ġgovernments":11328,"Ġvariance":11329,"DI":11330,"orous":11331,"Ġresign":11332,"Ġinsurance":11333,"urers":11334,"Ġassuming":11335,"Lay":11336,"Ġdesigner":11337,"ĠSac":11338,"ĠUnit":11339,"ĠAL":11340,"Ġconvention":11341,"Ġkin":11342,"overy":11343,"April":11344,"ĠRetrieved":11345,"mode":11346,"Ġvacuum":11347,"Ġdefensive":11348,"ÅŁ":11349,"fields":11350,"acle":11351,"Ġwithd":11352,"Ġpointed":11353,"prim":11354,"unny":11355,"Ġbundle":11356,"112":11357,"}}=":11358,"Ġassets":11359,"umption":11360,"ĠLiverpool":11361,"rose":11362,"ĠOrthodox":11363,"phan":11364,"ovo":11365,"Ġnotably":11366,"Ġmask":11367,"Ġconventional":11368,"ĠMaine":11369,"Ġes":11370,"ĠAttorney":11371,"dem":11372,"ificial":11373,"Ñĥ":11374,"Ġvalley":11375,"uis":11376,"nia":11377,"Ġreception":11378,"Order":11379,":=\\":11380,"Ġrooms":11381,"Ġplatforms":11382,"1885":11383,"Ġsensitive":11384,"nie":11385,"EP":11386,"Ġbra":11387,"Ġty":11388,"Ġjournalists":11389,"Attribute":11390,"arios":11391,"ĠJohann":11392,"meta":11393,"ĠContin":11394,"{|":11395,"Ġcro":11396,"Ġmovements":11397,"Ġmarketing":11398,"itarian":11399,"1891":11400,"ĠIR":11401,"control":11402,"Ġindepend":11403,"Ġmyth":11404,"ĠRic":11405,"erg":11406,"ĠHit":11407,"mt":11408,"ĠYe":11409,"ĠPsych":11410,"ĠDie":11411,"Ġsymp":11412,"front":11413,"SF":11414,"ĠView":11415,"owed":11416,"ouver":11417,"ĠABC":11418,"ĠDallas":11419,"eenth":11420,"[\"":11421,"sea":11422,"Ġwal":11423,"Ġconcerning":11424,"Ġdisplayed":11425,"Ġtopic":11426,"idency":11427,"Ġstack":11428,"ĠHold":11429,"Return":11430,"ographics":11431,"Ġexponent":11432,"casting":11433,"Ġapproval":11434,"tery":11435,"Ġpanels":11436,"Ġpartners":11437,"Ġmessages":11438,"bus":11439,"vas":11440,"ycl":11441,"ĠBed":11442,"orton":11443,"Ġdamaged":11444,"Ġspending":11445,"Ġenable":11446,"Ġparticipation":11447,"ĠRobinson":11448,"ĠMarie":11449,"Ġeq":11450,"ĠFel":11451,"ĠCentury":11452,"vs":11453,"Ġheads":11454,"when":11455,"Ġrevenue":11456,"jamin":11457,"Ġwarn":11458,"ĠWindows":11459,"ĠOri":11460,"Ġgang":11461,"]{\\":11462,"Ġcurvature":11463,"+(":11464,"ĠDakota":11465,"Ġannounce":11466,"ĠRural":11467,"ĠPun":11468,"Ġmal":11469,"miral":11470,"Ġprices":11471,"Ġshop":11472,"Ġdrugs":11473,"Ġcriticism":11474,"gment":11475,"oi":11476,"Ġreconstruction":11477,"Ġtheater":11478,"Ġlocality":11479,"Ġ\\(\\":11480,"ĠGill":11481,"Ġrailroad":11482,"Ġduties":11483,"update":11484,"ĠGrad":11485,"ĠWed":11486,"zerbai":11487,"UC":11488,"Ġconsiderable":11489,"Ġrestaurant":11490,"Ġrestored":11491,"Ġentering":11492,"ĠOrganization":11493,"fire":11494,"Ġphases":11495,"Ġoffensive":11496,"ĠNBA":11497,"Ġlooked":11498,"render":11499,"Ġtemporary":11500,"Task":11501,"ĠFA":11502,"Ġjurisd":11503,"Ġdeputy":11504,"ĠJudge":11505,"TO":11506,"BN":11507,"Ġcreative":11508,"loop":11509,"Ġactivist":11510,"Ġreasonable":11511,"ĠLl":11512,"\\|\\":11513,"ÅĦ":11514,"ĠHell":11515,"Ġsignature":11516,"Ġhierarch":11517,"Ġnortheast":11518,"ums":11519,"Ġrelief":11520,"ĠPrincess":11521,"ĠDNA":11522,"engine":11523,"complete":11524,"ĠCarter":11525,"isode":11526,">>":11527,"ĠVolume":11528,"Default":11529,"Ġalcoh":11530,"ĠRomania":11531,"Ġgravitational":11532,"yll":11533,"Ġcompetitive":11534,"ricket":11535,"chers":11536,"listed":11537,"ĠLower":11538,"onian":11539,"Ġcards":11540,"Ġwat":11541,"ĠFranklin":11542,"ĠChampion":11543,"cient":11544,"ĠOrleans":11545,"aptist":11546,"Ġfemin":11547,"Ġheritage":11548,"iac":11549,"Ġsoul":11550,"ĠMarshall":11551,"Ġcricketers":11552,"umps":11553,"iot":11554,"ĠBrothers":11555,"ĠPerson":11556,"Ġchildhood":11557,"esis":11558,"Ġcolle":11559,"irates":11560,"GS":11561,"push":11562,"Suppose":11563,"Ġintent":11564,"Ġgenerating":11565,"ĠPatri":11566,"Ġongoing":11567,"1888":11568,"Ġspac":11569,"ificate":11570,"Ġsimplic":11571,"named":11572,"Ġcoupled":11573,"abric":11574,"115":11575,"represent":11576,"ĠFal":11577,"rior":11578,"ĠNic":11579,"Ġexposure":11580,"ĠVik":11581,"town":11582,"Ġdetector":11583,"Ġcodes":11584,"Ġstrictly":11585,"ĠYouTube":11586,"ĠJosÃ©":11587,"Ġhybrid":11588,"Ġorganisation":11589,"ĠBible":11590,"sts":11591,"subsec":11592,"illo":11593,"ĠSN":11594,"ĠFather":11595,"105":11596,"ĠTHE":11597,"Ġsudden":11598,"wright":11599,"ishers":11600,"people":11601,"Home":11602,"Ġsed":11603,"Ġ{@":11604,"ĠJerusalem":11605,"Ġexpressions":11606,"Political":11607,"Ġrout":11608,"ĠGlas":11609,"Ġknock":11610,"ĠBuff":11611,"Ġworst":11612,"ĠChang":11613,"Vari":11614,"QL":11615,"finite":11616,"bul":11617,"ĠGray":11618,"Ġvic":11619,"Ġdefines":11620,"rable":11621,"Ġimprison":11622,"Ġcomposers":11623,"mem":11624,"Ġhosp":11625,"ĠOperation":11626,"istence":11627,"Ġvolumes":11628,"Ġluminosity":11629,"iere":11630,"hus":11631,"Ġmir":11632,"Ġsees":11633,"coll":11634,"Ġpotentially":11635,"Ġcraft":11636,"ĠBrooklyn":11637,"Ġhorizontal":11638,"Ġinstruct":11639,"Ġatoms":11640,"Ġheaded":11641,"Ġvenues":11642,"Ġpopularity":11643,"via":11644,"ĠAy":11645,"1865":11646,"}|\\":11647,"ĠOttoman":11648,"Ġidentification":11649,"ĠTrib":11650,"ervoir":11651,"Ġentertainment":11652,"Location":11653,"Style":11654,"eding":11655,"Ġflo":11656,"output":11657,"slant":11658,"Ġdecline":11659,"Ġskin":11660,"Ġseeking":11661,"Sk":11662,"ĠMorris":11663,"Ġranking":11664,"oba":11665,"rub":11666,"^{(\\":11667,"plot":11668,"///":11669,"Ġvast":11670,"Ġmeets":11671,"vision":11672,"Ġgrown":11673,"ĠSenator":11674,"oming":11675,".:":11676,"Ġca":11677,"ativ":11678,"ĠKan":11679,"Ġexercise":11680,"Ġmeters":11681,"July":11682,"ĠNazi":11683,"Check":11684,"Ġadvice":11685,"ogonal":11686,"Ġgenera":11687,"negative":11688,"ĠMS":11689,"Ġrecovered":11690,"Ġspoke":11691,"ĠHend":11692,"ĠSecret":11693,"Ġretained":11694,"oment":11695,"Ġclosure":11696,"Ġmouth":11697,"Ġ{};":11698,"ĠEX":11699,"Column":11700,"Ġdating":11701,"Ġtied":11702,"October":11703,"Ġremainder":11704,"Ġgeometric":11705,"Ġpainters":11706,"ĠArena":11707,"Ġbid":11708,"ĠColonel":11709,"notag":11710,"Ġsuicide":11711,"Ġclimb":11712,"ĠLanguage":11713,"Ġrenov":11714,"menu":11715,"Sl":11716,"ĠMC":11717,"Ġrecept":11718,"Ġaffairs":11719,"written":11720,"Ġautomatically":11721,"ĠBurn":11722,"Moreover":11723,"Ġsurfaces":11724,"uble":11725,"Ġillegal":11726,"Production":11727,"ĠTol":11728,"tor":11729,"Ġquasi":11730,"Ġwrites":11731,"&=\\":11732,"ä¸":11733,"Ġsetup":11734,"Ġexhibit":11735,"ĠComics":11736,"hai":11737,"Robert":11738,"Ġdistinguished":11739,"Ġstochastic":11740,"Ġstruck":11741,"lee":11742,"IST":11743,"ĠDat":11744,"ĠWoman":11745,"Ġveget":11746,"iterranean":11747,"gate":11748,"Ġimpossible":11749,"shot":11750,"graduate":11751,"Ġsurgery":11752,"Ġproportional":11753,"avalry":11754,"Ġinstances":11755,"ĠApple":11756,"117":11757,"Ġdynamical":11758,"depend":11759,"ĠWrest":11760,"Afric":11761,"Ġschemes":11762,"bishop":11763,"?\"":11764,"Ġgrass":11765,"ĠGraham":11766,"Donald":11767,"ĠMurray":11768,"through":11769,"Ġpossess":11770,"gather":11771,"Ġrestrictions":11772,"Ġsharing":11773,"Ġregulations":11774,"1887":11775,"Ġwavel":11776,"Just":11777,"Ġfeedback":11778,"Ġreward":11779,"ÈĻ":11780,"ysical":11781,"Profess":11782,"ĠEss":11783,"game":11784,"Ġli":11785,"sd":11786,"}~":11787,"ĠSU":11788,"^{*":11789,"making":11790,"Ġdx":11791,"ĠMA":11792,"Ġcontinuing":11793,"Ġpron":11794,"Ġsight":11795,"123":11796,"ĠSyria":11797,"short":11798,"Select":11799,"Ġcollapse":11800,"Ġstronger":11801,"pred":11802,"iper":11803,"Ġhang":11804,"leyball":11805,"ĠLane":11806,"Ġdivor":11807,"September":11808,"Ġrepresentatives":11809,"Ġtel":11810,"ĠOpera":11811,"Ġreduces":11812,"enix":11813,"Read":11814,"Ġnorthwest":11815,"Ġtransportation":11816,"ĠTrad":11817,"ĠFull":11818,"Ġrecommended":11819,"Ġgreatly":11820,"Ġfest":11821,"ursday":11822,"will":11823,"avi":11824,"ĠMichel":11825,"Ġindicating":11826,"Ġreducing":11827,"ĠMetro":11828,"VER":11829,"ĠRap":11830,"ĠMovement":11831,"ooking":11832,"Ġabsorb":11833,"stery":11834,"ublished":11835,"ĠPack":11836,"ĠMadrid":11837,"George":11838,"Ġcyl":11839,"cover":11840,"ĠDE":11841,"medskip":11842,"Ġcust":11843,"ĠKon":11844,"ĠSimilarly":11845,"Ġdescend":11846,"Ġris":11847,"ĠRud":11848,"ĠUpper":11849,"RR":11850,"\\%$":11851,"ĠConsider":11852,"etry":11853,"Ġrounds":11854,"January":11855,"imir":11856,"ĠEvans":11857,"FO":11858,"Ġfitted":11859,"Ġhill":11860,"Ġcomed":11861,"Ġwithdraw":11862,"inus":11863,"itations":11864,"ĠTag":11865,"Ġvarying":11866,"claimed":11867,"Ġregiment":11868,"Ġcriticized":11869,"Down":11870,"ĠDub":11871,"umed":11872,"Ġwounded":11873,"Ġgarden":11874,"orer":11875,"ART":11876,"strap":11877,"Ġlose":11878,"Ġexcellent":11879,"orkshire":11880,"Ġorientation":11881,"Ã¨re":11882,"Ġfluctuations":11883,"Ġnegoti":11884,"ĠNeg":11885,"Ġrivers":11886,"ilty":11887,"ĠDefence":11888,"FS":11889,"inated":11890,"ecute":11891,"ĠPut":11892,"Ġneuro":11893,"ĠSoft":11894,"ĠTwitter":11895,"ĠNigeria":11896,"uits":11897,"Load":11898,"Ġconversion":11899,"iative":11900,"Ġstrip":11901,"Ġdashed":11902,"INT":11903,"Ġcorrection":11904,"Ġsymbols":11905,"111":11906,"Ġturning":11907,"ĠOd":11908,"Ġfruit":11909,"anian":11910,"Ġcash":11911,"ĠMagn":11912,"Ġpainted":11913,"Ġartistic":11914,"Ġsympt":11915,"Ġanom":11916,"1886":11917,"hew":11918,"Ġrose":11919,"Dev":11920,"Ġreputation":11921,"Output":11922,"ĠPolitical":11923,"ĠAC":11924,"ĠPrincip":11925,"Ġcod":11926,"ABLE":11927,"ĠPrior":11928,"Ġnaval":11929,"Ġtopics":11930,"ĠCarib":11931,"ishments":11932,"Ġteach":11933,"ĠMaj":11934,"}\\|":11935,"ĠBeck":11936,"obby":11937,"phantom":11938,"ĠAmazon":11939,"reement":11940,"Ġdenied":11941,"ĠTak":11942,"ijing":11943,"Ġpublicly":11944,"Ġhabitat":11945,"Ġexponential":11946,"Ġappointment":11947,"ĠWol":11948,"Ġvisitors":11949,"Ġweekly":11950,"ulum":11951,"vy":11952,"Ġelig":11953,"comput":11954,"Hom":11955,"*/":11956,"Ġhur":11957,"ĠLimited":11958,"Ġrevers":11959,"ĠOk":11960,"Ġdelivery":11961,"ancouver":11962,"equations":11963,"quir":11964,"Ġmeetings":11965,"ĠRE":11966,"Ġadults":11967,"aze":11968,"ĠSite":11969,"uin":11970,"Ġregul":11971,"Ġdiscussions":11972,"raud":11973,"Ã©n":11974,"Ġdrawing":11975,"Format":11976,"ĠSystems":11977,"aks":11978,"Offset":11979,"Step":11980,"df":11981,"Ġkilomet":11982,"ĠRan":11983,"Ġfindings":11984,"1850":11985,"Ġmile":11986,"Ġperiodic":11987,"TYPE":11988,"Ġpitch":11989,"ĠSR":11990,"Ġcir":11991,"Ġtechnologies":11992,"aws":11993,"Xi":11994,"earing":11995,"ĠNation":11996,"ĠJason":11997,"Ġelementary":11998,"Ġblog":11999,"Ġrealized":12000,"ĠRico":12001,"Ġstructural":12002,"ĠGran":12003,"ugs":12004,"eoples":12005,"Ġindependently":12006,"Ð²":12007,"Draw":12008,"Ġplas":12009,"ĠMarket":12010,"Ġhorror":12011,"ĠNord":12012,"Ġpregn":12013,"Ġremote":12014,"ĠCass":12015,"ĠUpon":12016,"ĠNewton":12017,"Ġevaluated":12018,"Ġ({\\":12019,"Ġconfront":12020,"ĠCel":12021,"Ġprovincial":12022,"Ãª":12023,"Ġcrimes":12024,"lu":12025,"Tag":12026,"Ġoperational":12027,"Ġprecise":12028,"ĠPay":12029,"ttp":12030,"itime":12031,"match":12032,"Ġwait":12033,"Ġduration":12034,"-(":12035,"Ġattributed":12036,"}{*}{$":12037,"figures":12038,"Ġintention":12039,"square":12040,"Ġpreserved":12041,"ivation":12042,"ĠKit":12043,"PRO":12044,"Ġmetall":12045,"Selected":12046,"fiction":12047,"Ġinvestigated":12048,"params":12049,"ĠLov":12050,"unfinished":12051,"Ġapprec":12052,"^*(":12053,"maker":12054,"Ġcounterpart":12055,"Ġruling":12056,"ĠTrophy":12057,"Ġcelebrated":12058,"Î±":12059,"Est":12060,"Ġatmosphere":12061,"ucl":12062,"ĠCurrent":12063,"story":12064,"Ġ\\&":12065,"wig":12066,"Ġensemble":12067,"Ġbelonging":12068,"Ġordinary":12069,"ĠDM":12070,"Ġbuffer":12071,"Ġusage":12072,"Ġvessels":12073,"ĠNumber":12074,"ĠBirmingham":12075,"ĠMoroc":12076,"ĠSP":12077,"Ġnearest":12078,"Ġmit":12079,"Ġundert":12080,"1861":12081,"Ġnewspapers":12082,"nesday":12083,"Ġthread":12084,"ĠKu":12085,"ĠOblast":12086,"bp":12087,"ĠBernard":12088,"WA":12089,"kit":12090,"ĠNi":12091,"sv":12092,"Ġmodeling":12093,"Ġpretty":12094,"heric":12095,"redit":12096,"ĠJimmy":12097,"Ġcompeting":12098,"Ġconnecting":12099,"Den":12100,"Ġillness":12101,"Ġvoters":12102,"Ġacknowled":12103,"icking":12104,"Ġtang":12105,"Ġdebuted":12106,"fast":12107,"Ġmerger":12108,"ĠCle":12109,"ĠJenn":12110,"Ġprecision":12111,"Update":12112,"ĠTerm":12113,"Ġcous":12114,"Ġbear":12115,"Ġeigenvalues":12116,"riel":12117,"oro":12118,"Ġempir":12119,"ĠBorn":12120,"oka":12121,"rend":12122,"Record":12123,"Ġdecide":12124,"oupl":12125,"Ġinvolvement":12126,"Ã¶r":12127,"make":12128,"').":12129,"Ġfacing":12130,"Ġgiant":12131,"Ġnaturally":12132,"ĠStanley":12133,"Ġsoil":12134,"fare":12135,"Ġwheel":12136,"ĠDemocrats":12137,"Ġadvers":12138,"andal":12139,"Ġreveals":12140,"response":12141,"Ġtru":12142,"ĠNevada":12143,"eton":12144,"iat":12145,"1864":12146,"Ġrecru":12147,"ĠLGBT":12148,"ĠAqu":12149,"ĠAthletic":12150,"original":12151,"Create":12152,"iliary":12153,"Ġinfluential":12154,"ĠAssistant":12155,"Ġspend":12156,"Ġbehalf":12157,"Ġdegener":12158,"Ġtrials":12159,"Ġquark":12160,"1884":12161,"@{":12162,"Ġvanish":12163,"Å¾":12164,"Ġsuccessor":12165,"Ġcredited":12166,"tha":12167,"Ham":12168,"ynamics":12169,"etric":12170,"ootstrap":12171,"Ġmig":12172,"113":12173,"reducible":12174,"Ġreaches":12175,"ricane":12176,"hs":12177,"ĠMunicipality":12178,"iii":12179,"114":12180,"Ġcrash":12181,"ĠSS":12182,"Ġtrading":12183,"256":12184,"Ġtie":12185,"ĠPortland":12186,"Ġspan":12187,"Ġreads":12188,"Ġaccessible":12189,"Ġstayed":12190,"hattan":12191,"Ġdress":12192,"inae":12193,"Project":12194,"Ġphotography":12195,"Ġsystematic":12196,"Jo":12197,"annot":12198,"Ġdepicted":12199,"ĠTrue":12200,"1881":12201,"ibraries":12202,"Ġfrequencies":12203,"Ġcommunications":12204,"Ġshel":12205,"Ġnomination":12206,"ĠFuture":12207,"ails":12208,"ĠFr":12209,"ĠBud":12210,"Ġalgebraic":12211,"Ġleaf":12212,"ĠDelhi":12213,"ĠAthe":12214,"ĠCrit":12215,"ainties":12216,"pread":12217,"Ġurl":12218,"Ġreporting":12219,"ĠWebsite":12220,"efined":12221,"ĠFisher":12222,"Ġcoastal":12223,"Ġdebt":12224,"ĠLad":12225,"cross":12226,"Ġcollective":12227,"elfare":12228,"áº":12229,"December":12230,"Ġlanding":12231,"ĠGary":12232,"SON":12233,"athered":12234,"ĠDeep":12235,"Tra":12236,"Ġfaces":12237,"ascript":12238,"ĠYorkshire":12239,"Ġpoem":12240,"ĠCultural":12241,"Ġprofiles":12242,"ĠConservative":12243,"pto":12244,"ĠNorman":12245,"oes":12246,"Ġexpensive":12247,"ĠMess":12248,"ĠFIFA":12249,"ĠWing":12250,"Script":12251,"etition":12252,"1863":12253,"antum":12254,"Ġdiversity":12255,"textnormal":12256,"ultan":12257,"ĠBasketball":12258,"ĠRain":12259,"Ġmaintenance":12260,"ĠAP":12261,"Ġrecre":12262,"^*\\":12263,"ĠNad":12264,"ĠIndians":12265,"Ġforests":12266,"Ġaccret":12267,"enson":12268,"Ġrunner":12269,"Ġenforcement":12270,"ĠAthletics":12271,"Ġchoices":12272,"ertainties":12273,"Ġsuppose":12274,"Later":12275,"Ġsubmar":12276,"oton":12277,"Ġmedieval":12278,"Ġhappy":12279,"Ġamounts":12280,"Ġfocuses":12281,"wave":12282,"Ġ$\\{\\":12283,"Ġgenre":12284,"uce":12285,"ĠVI":12286,"Ġstored":12287,"'),":12288,"aten":12289,"Ġelectrons":12290,"Ġqualifying":12291,"leted":12292,"alph":12293,"hammad":12294,"orient":12295,"Ġsituations":12296,"fact":12297,"ĠMack":12298,"iamond":12299,"Ġranges":12300,"European":12301,"hal":12302,"shaped":12303,"102":12304,"Names":12305,"ĠJazz":12306,"Ġinjuries":12307,"herical":12308,"product":12309,"Ġentang":12310,"endif":12311,"corollary":12312,"Ġcolleges":12313,"Ġtalking":12314,"ulu":12315,"Ġabsorption":12316,"Ġfinals":12317,"ĠBilly":12318,"Ġcub":12319,"Ġtransaction":12320,"Michael":12321,"ivan":12322,"Ġassass":12323,"Pal":12324,"255":12325,"ĠOnline":12326,"root":12327,"atever":12328,"Ġmechanical":12329,"Ġstim":12330,"cycle":12331,"November":12332,"Ġmagazines":12333,"Ġtopology":12334,"ĠSuppose":12335,"Ġmanage":12336,"Ġholes":12337,"Ġsurrounded":12338,"Ġstruggle":12339,"ĠPictures":12340,"ĠClinton":12341,"Ġdaughters":12342,"Ġeliminated":12343,"Ġromantic":12344,"alymp":12345,"Del":12346,"rangian":12347,"creen":12348,"Mart":12349,"Sports":12350,"Ġsigning":12351,"ĠTournament":12352,"idespread":12353,"Ġsouthwest":12354,"ĠBroadway":12355,"Ġbusinessman":12356,"ifle":12357,"ĠStev":12358,"Ġsoutheast":12359,"ĠGlasgow":12360,"GE":12361,"Ġcoron":12362,"iest":12363,"ĠGuy":12364,"Ġdistances":12365,"terior":12366,"Ġuniformly":12367,"Ġsuffering":12368,"olia":12369,"umar":12370,"Ġthousand":12371,"ĠConstant":12372,"########":12373,"bes":12374,"Length":12375,"ĠBaker":12376,"Ġoutcome":12377,"!\"":12378,"Ġdescript":12379,"ĠCarlos":12380,"hfill":12381,"Ġ),":12382,"uesday":12383,"Ġstrategic":12384,"eo":12385,"Ġdiscontin":12386,"Ġweekend":12387,"ĠSpirit":12388,"Ġbrig":12389,"oked":12390,"Ġexposed":12391,"Ġ\\,\\":12392,"ĠTob":12393,"aneous":12394,"ĠMitchell":12395,"Ġstarred":12396,"mate":12397,"ĠCathedral":12398,"mund":12399,"Ġstabil":12400,"erving":12401,"CON":12402,"opal":12403,"Ġsolving":12404,"Ġceleb":12405,"Ġconfirm":12406,"Ġquot":12407,"Ġexplains":12408,"Jew":12409,"ĠSaudi":12410,"aml":12411,"Ġaccum":12412,"Ġconsumption":12413,"cp":12414,"1862":12415,"OK":12416,"BU":12417,"omp":12418,"Ġwear":12419,"Listener":12420,"(-\\":12421,"Cell":12422,"ea":12423,"Ġatomic":12424,"viously":12425,"ymmetric":12426,"zing":12427,"Ġsupers":12428,"dash":12429,"OW":12430,"Ġcorrections":12431,"Ġhal":12432,"Ġfeeling":12433,"Ġdefinitions":12434,"enter":12435,"ĠBomb":12436,"Ġbon":12437,"record":12438,"rov":12439,"ĠCNN":12440,"enda":12441,"Equals":12442,"loads":12443,"Ġvulner":12444,"othy":12445,"Ġtunnel":12446,"gon":12447,"Ġbrick":12448,"ĠBenn":12449,"Ġguitarist":12450,"Ġflowers":12451,"ĠMother":12452,"Ġdeclined":12453,"arser":12454,"ĠĠĠĠĠĠĠĠĠĠĠĠĠĠĠĠĠĠĠĠ":12455,"ĠMind":12456,"geon":12457,"raska":12458,"ĠCharlie":12459,"Ġvisiting":12460,"Ġapparently":12461,"annon":12462,"fol":12463,"Ġmissed":12464,"vironments":12465,"instance":12466,"Ġspiritual":12467,"Ġapplies":12468,"lington":12469,"Mount":12470,"std":12471,"Ġmechanisms":12472,"ĠGiants":12473,"Ġdiscip":12474,"010":12475,"ĠBlues":12476,"ĠTigers":12477,"Ġfitting":12478,"alam":12479,"(&":12480,"ĠJosh":12481,"ducational":12482,"Ġprev":12483,"Ġelectoral":12484,"Ġmanip":12485,"Ġunsuccess":12486,"ĠPA":12487,"1882":12488,"jecture":12489,"Tree":12490,"Ġconsideration":12491,"ressive":12492,"ĠSax":12493,"Ġkingdom":12494,"ĠConfeder":12495,"aterial":12496,"anion":12497,"ĠBey":12498,"Ġconcepts":12499,"Ġchallenging":12500,"relation":12501,"winning":12502,"ĠStart":12503,"Ġconfigurations":12504,")).":12505,"ifting":12506,"ĠWayne":12507,"Ġrequested":12508,"Ġdefence":12509,"Ġeasier":12510,"ĠYugoslav":12511,"central":12512,"ĠLud":12513,"ĠImp":12514,"osph":12515,"Ġaimed":12516,"Ver":12517,"ĠSmall":12518,"ĠPrefecture":12519,"Ġcomplicated":12520,"ĠTheater":12521,"Br":12522,"ĠExpl":12523,"AND":12524,"Town":12525,"Ġadvertising":12526,"ensively":12527,"Dan":12528,"Ġdefeating":12529,"!]":12530,"Ġclients":12531,"oga":12532,"Ġconjug":12533,"Ġproperly":12534,"how":12535,"oviÄĩ":12536,"!\\":12537,"Ġcomprehensive":12538,"Ġsmart":12539,")(\\":12540,"ĠVic":12541,"Ġrestriction":12542,"ĠChart":12543,"ĠJe":12544,"Hy":12545,"ĠAzerbai":12546,"Ġox":12547,"Ġpersonality":12548,"tim":12549,"ĠGR":12550,"oking":12551,"Ġassessment":12552,"odd":12553,")^\\":12554,"Ġgrows":12555,"MO":12556,"Ġjunction":12557,"Ġverify":12558,"verseas":12559,"Ġviolin":12560,"ĠZe":12561,"Ġthreatened":12562,"Ġdated":12563,"Ġthemes":12564,"ĠUE":12565,"Ġkids":12566,"olicy":12567,"Ġboost":12568,"ĠAld":12569,"ĠPoly":12570,"Ġfishing":12571,"ifiers":12572,"ĠHero":12573,"otan":12574,"rev":12575,"Ġpuls":12576,"Elect":12577,"encer":12578,"ĠChallenge":12579,"Also":12580,"estone":12581,"ĠAngl":12582,"avan":12583,"Ġsphere":12584,".\\\\":12585,"ĠLiving":12586,"plus":12587,"isp":12588,"School":12589,"Ġfictional":12590,"Ġprocedures":12591,"Ġadmin":12592,"{(\\":12593,"ĠLuther":12594,"should":12595,"MT":12596,"Ġdesire":12597,"Ġdestruction":12598,"Ġprivacy":12599,"ibration":12600,"Sche":12601,"ordinate":12602,"ĠPradesh":12603,"rays":12604,"1883":12605,"ĠKath":12606,"ĠYang":12607,"prototype":12608,"Ġperturbation":12609,"Ġclock":12610,"scar":12611,"Ġneighb":12612,"ĠFreedom":12613,"Alumni":12614,"Ġtexts":12615,"uez":12616,"etary":12617,"Ġelectricity":12618,"works":12619,"Ġpian":12620,"360":12621,"hill":12622,"aura":12623,"Ġexperts":12624,"rock":12625,"ĠCommissioner":12626,"ristol":12627,"Ġexplanation":12628,"ĠIce":12629,"Ġfamiliar":12630,"xygen":12631,"Ġreleg":12632,"Ġgay":12633,"ĠSev":12634,"Ġhalo":12635,"Ġfoss":12636,"Ġcounties":12637,"ĠElectric":12638,"Ġderivatives":12639,"ĠCR":12640,"ĠBachelor":12641,"Ġelder":12642,"ĠHiggs":12643,"Ġindices":12644,"ĠAlaska":12645,"Despite":12646,"ĠMak":12647,"ĠSoccer":12648,"hibition":12649,"Ġsubmitted":12650,"Spanish":12651,"Rev":12652,"Ġorbital":12653,"Ġconvicted":12654,"ĠTower":12655,"Types":12656,"kind":12657,"Ġcomparable":12658,"Ġmountains":12659,"Ġsuspended":12660,"circle":12661,"emale":12662,"remove":12663,"$.}":12664,"Ber":12665,"ĠJohnny":12666,"Ġreconstruct":12667,"umbent":12668,"Ġnormally":12669,"Ġseemed":12670,"utation":12671,"ĠMembers":12672,"resource":12673,"Ġfiber":12674,"Ġcooperation":12675,"Ġfasc":12676,"Ġnormalized":12677,"writers":12678,"ĠRand":12679,"rinsic":12680,"Ġpreferred":12681,"Ġenjoyed":12682,"Ġdistinguish":12683,"Ġunusual":12684,"Ġfacts":12685,"Pass":12686,"hematic":12687,"ĠCaribbean":12688,"ĠHawaii":12689,"mates":12690,"Ġdifficulty":12691,"fish":12692,"Ġoutbreak":12693,"document":12694,"~(\\":12695,"ĠBelgian":12696,"Ġcollision":12697,"Ġactivists":12698,"arithm":12699,"Ġfurn":12700,"Organ":12701,"akia":12702,"ĠĠĠĠĠĠĠĠĠĠĠĠĠĠĠĠĠĠĠĠĠ":12703,")}.":12704,"Ġbars":12705,"ĠBenjamin":12706,"Ġaims":12707,"ï¿½ï¿½":12708,"ĠMeg":12709,"ĠAdvis":12710,"Air":12711,"350":12712,"Sign":12713,"ĠProb":12714,"Ġmonument":12715,"mel":12716,"ivated":12717,"udson":12718,"\\|_":12719,"Moths":12720,"ĠFourier":12721,"ĠGuinea":12722,"imits":12723,"ĠSalv":12724,"Access":12725,"ĠHum":12726,"ĠOct":12727,"ĠIT":12728,"ensing":12729,"Ġasc":12730,"varrho":12731,"Ġdowntown":12732,"ĠText":12733,"ĠGriff":12734,"Ġsensitivity":12735,"Ġiteration":12736,"ĠDJ":12737,"Ġdiseases":12738,"Mac":12739,"Ġpayment":12740,"Alex":12741,"ĠCON":12742,"component":12743,"FONT":12744,"Ġlongest":12745,"eras":12746,"Ġprotests":12747,"ĠCher":12748,"idad":12749,"Ġpeaked":12750,"observ":12751,"ĠSerbia":12752,"textup":12753,"ivia":12754,"Ġpermission":12755,"Process":12756,"Ġfilt":12757,"isting":12758,"Ġwidespread":12759,"Ġfilmed":12760,"Ġvessel":12761,"Ġemerged":12762,"ĠBarbara":12763,"ĠWarren":12764,"ĠVancouver":12765,"omon":12766,"ĠMong":12767,"Ġnurs":12768,"Ġtalent":12769,"********************************":12770,"Ġcircular":12771,"sters":12772,"Ġrising":12773,"Ġ[]":12774,"ĠPierre":12775,"Ben":12776,"pert":12777,"Ġchamber":12778,"ethe":12779,"abi":12780,"Ġweighted":12781,"raham":12782,"ĠLicense":12783,"ĠBranch":12784,"ĠLock":12785,"Ġexisted":12786,"1878":12787,"changed":12788,"ĠProtest":12789,"fr":12790,"Demographics":12791,"Ġpublisher":12792,"Ġbases":12793,"Ġliberal":12794,"Ġcommune":12795,"ĠInsp":12796,"ĠMilan":12797,"ĠHREF":12798,"ĠVel":12799,"Mr":12800,"ĠCricket":12801,"ĠĠĠĠĠĠĠĠĠĠĠĠĠĠĠĠĠĠĠĠĠĠĠĠĠĠĠĠĠĠĠĠĠĠĠ":12802,"layout":12803,"Ġmonarch":12804,"ĠCA":12805,".),":12806,"ĠMars":12807,"KE":12808,"Ġstraightforward":12809,"Ġwaiting":12810,"League":12811,"oons":12812,"rez":12813,"Ġ,\\":12814,"ĠArticle":12815,"Ġradical":12816,"ĠWang":12817,"Ġanalys":12818,"Ġdict":12819,"Ġswit":12820,"panic":12821,"onomous":12822,"Ġtownship":12823,"uxiliary":12824,"_.":12825,"Ġscenarios":12826,"Ġprinted":12827,"104":12828,"Ġgradually":12829,"ĠManhattan":12830,"lined":12831,"Arm":12832,"LR":12833,"Ġocean":12834,"astery":12835,"store":12836,"Green":12837,"nan":12838,"ÃŁ":12839,"ĠNature":12840,"Ġlisten":12841,"Ġfunded":12842,"aran":12843,"Ġstyles":12844,"Ġquas":12845,"ĠStars":12846,"Row":12847,"Ġpassage":12848,"bow":12849,"enberg":12850,"Mer":12851,"auth":12852,"emed":12853,"channel":12854,"Ġdomains":12855,"borne":12856,"Ġdoubt":12857,"Ġterritories":12858,"istered":12859,"Ġquadratic":12860,"ĠFine":12861,"boy":12862,"1875":12863,"Ġdeviation":12864,"Ġlawyers":12865,"Ġinterpreted":12866,"Ġspoken":12867,"Valid":12868,"ĠMuslims":12869,"oks":12870,"ĠCommunications":12871,"Ġterminal":12872,"backslash":12873,"ĠVegas":12874,"MI":12875,"Ġlaser":12876,"Ġpresentation":12877,"Ġmarks":12878,"ĠSteel":12879,"nm":12880,"stad":12881,"employ":12882,"utr":12883,"isot":12884,"ĠSid":12885,"Ġconsequences":12886,"Ġafford":12887,"ĠResp":12888,"Ġfrequent":12889,"ntil":12890,"ĠMicrosoft":12891,"ĠFleet":12892,"VI":12893,"ĠBeijing":12894,"ĠRichmond":12895,"astrop":12896,"ango":12897,"ĠTun":12898,"ĠProfessional":12899,"Det":12900,"ĠIP":12901,"Ġdiffusion":12902,"Ġformulation":12903,"Ġhomogeneous":12904,"ĠSerge":12905,"ĠEgyptian":12906,"ĠOpt":12907,"Ġannually":12908,"ĠCLASS":12909,"Ġ{}":12910,"Ġbelieves":12911,"Ġmedals":12912,"stackrel":12913,"iko":12914,"Ġmodules":12915,"'_{":12916,"downarrow":12917,"Ġmunicipalities":12918,"before":12919,"Ġdecreases":12920,"uart":12921,"anti":12922,"Ġstrings":12923,"harm":12924,"Ġgenetic":12925,"ĠâĢ¦":12926,"Ġcolspan":12927,"Ġdangerous":12928,"Ġacquisition":12929,"Ġcontroversy":12930,"Mode":12931,"erion":12932,"ĠHad":12933,"1876":12934,"ĠStein":12935,"ĠGeV":12936,"Ġ_{\\":12937,"Ġforth":12938,"Child":12939,"116":12940,"ĠUg":12941,"Filter":12942,"Ġprefer":12943,"ĠIan":12944,"ĠStage":12945,"ĠFitz":12946,"WS":12947,"Ġintellectual":12948,"Ġworship":12949,"upt":12950,"Unit":12951,"auer":12952,"Ġpolarization":12953,"uka":12954,"ĠFlore":12955,"Ġhardware":12956,"ermont":12957,"ĠGun":12958,"ĠParker":12959,"acre":12960,"Albums":12961,"Ġpolynomials":12962,"Ġarrangement":12963,"abul":12964,"ĠTurner":12965,"ĠPant":12966,"|$":12967,"ĠMediterranean":12968,"rod":12969,"eyer":12970,"access":12971,"ĠIranian":12972,"cussion":12973,"uchy":12974,"ĠFinnish":12975,"Ġelectrical":12976,"Ġmathematical":12977,"lett":12978,"ducer":12979,"Ġagriculture":12980,"Ġwilling":12981,"holm":12982,"ĠFalls":12983,"Ġabroad":12984,"holders":12985,"ĠStudy":12986,"than":12987,"Ġsentenced":12988,"otton":12989,"Ġslowly":12990,"bone":12991,"uru":12992,"Ġ<!--":12993,"ĠPil":12994,"elian":12995,"ĠSO":12996,"ĠKos":12997,"Ġraw":12998,"enia":12999,"Ġcouples":13000,"Ġhistorians":13001,"ĠDerby":13002,"javascript":13003,"Layout":13004,"ĠWhere":13005,"aba":13006,"Ġtemporal":13007,"|^{":13008,"Ġministers":13009,"Ġgenerator":13010,"ĠAndy":13011,"Ġcup":13012,"Level":13013,"Ġchampionships":13014,"Ġcontroversial":13015,"ĠThose":13016,"Thomas":13017,"Ġfat":13018,"Ġmissions":13019,"ĠBengal":13020,"Ġsharp":13021,"Ġwine":13022,"ĠJonathan":13023,"romagnetic":13024,"Ġinitiative":13025,"ĠHeb":13026,"Ġsuperior":13027,"ourt":13028,"Station":13029,"Ġslope":13030,"Ġinstrumental":13031,"Ġ\\[":13032,"ouncill":13033,"Ġcompatible":13034,"ĠNicol":13035,"mean":13036,"ĠBarry":13037,"ĠHunter":13038,"Ġwonder":13039,"holder":13040,"Gold":13041,"Ġranks":13042,"GP":13043,"owell":13044,"appy":13045,"DT":13046,"Ġattributes":13047,"ĠIvan":13048,"equal":13049,"connected":13050,"Ġsegments":13051,"Cap":13052,"eva":13053,"Ġphotos":13054,"Ġattracted":13055,"iture":13056,"onna":13057,"ĠRangers":13058,"ĠOrange":13059,"Ġconsumer":13060,"verage":13061,"incinn":13062,"Ġuncertainties":13063,"ĠNBC":13064,"oids":13065,"Ġheter":13066,"about":13067,"clusively":13068,"Button":13069,"ĠStorm":13070,"Ġtur":13071,"ĠOR":13072,"Ġexcited":13073,"Ġpicked":13074,"Sam":13075,"Ġentreprene":13076,"ĠWrestling":13077,"invariant":13078,"Ġattribute":13079,"umi":13080,"Ġacoustic":13081,"Ġcomfort":13082,"ĠUniverse":13083,"Ġphotographs":13084,"ĠCollins":13085,"overe":13086,"Ġencouraged":13087,"bc":13088,"Ġconsp":13089,"ĠTib":13090,"cline":13091,"}}}$}":13092,"Ġreleases":13093,"1867":13094,"Ġfulfill":13095,"ALL":13096,"ĠGreater":13097,"Address":13098,"Ġsupporters":13099,"later":13100,"Ġcontinuum":13101,"GO":13102,"ĠSaints":13103,"103":13104,"Ġfee":13105,"Ġtemplate":13106,"marks":13107,"etail":13108,"Ġsupplies":13109,"Because":13110,"ĠProp":13111,"Ġbrings":13112,"Const":13113,"Ġestablishing":13114,"Ġneutrino":13115,"Ġwooden":13116,"ĠFile":13117,"hour":13118,"Ġpole":13119,"ĠMuhammad":13120,"aco":13121,"ĠMall":13122,"izable":13123,"ĠGil":13124,"Ġreverse":13125,"Ġsoundtrack":13126,"olving":13127,"Personnel":13128,"ĠPath":13129,"Ġapplicable":13130,"Ġparliamentary":13131,")--(":13132,"Medalists":13133,"uclear":13134,"ettings":13135,"ĠStre":13136,"Ġhorizon":13137,"ĠChristians":13138,"Ġcancel":13139,"1871":13140,"Controller":13141,"ĠPeru":13142,"Ġconvolution":13143,"etta":13144,"Frame":13145,"Ġpredomin":13146,"quer":13147,"ĠCuba":13148,"Ġgift":13149,"have":13150,"asp":13151,"binom":13152,"Ġcommemor":13153,"Ġpoets":13154,"ributes":13155,"Ġaveraged":13156,"Ġmetrics":13157,"Ġsmallest":13158,"ĠPlant":13159,"Ġcuts":13160,"Ġguilty":13161,"Hen":13162,"Ġwider":13163,"Ġcommitment":13164,"Every":13165,"1879":13166,"ĠUse":13167,"styles":13168,"hips":13169,"ĠThursday":13170,"Ġinternet":13171,"ĠJama":13172,"ĠBron":13173,"$^":13174,"Place":13175,"nol":13176,"February":13177,"ĠColombia":13178,"Nor":13179,"ĠSr":13180,"reference":13181,"ĠPra":13182,"Ġaddressed":13183,"Miss":13184,"incinnati":13185,"Window":13186,"returns":13187,"cyclop":13188,"ĠSoul":13189,"ĠWor":13190,"Ġdefining":13191,"Ġphenomenon":13192,"Ġhat":13193,"ĠEston":13194,"ĠStudio":13195,"ĠPi":13196,"container":13197,"urable":13198,"ĠPhD":13199,"Ġpassion":13200,"uon":13201,"Ġsymptoms":13202,"Ġrows":13203,"Ġenvironments":13204,"ĠVictorian":13205,"```":13206,"structure":13207,"ĠRacing":13208,"isons":13209,"Ġsoldier":13210,"aku":13211,"irk":13212,"Ġfavorite":13213,")}(\\":13214,"Ġphilos":13215,"ĠSongs":13216,"ĠAPI":13217,"ĠJava":13218,"sem":13219,"tar":13220,"ĠBlood":13221,"leftarrow":13222,"ĠZone":13223,"ĠIsa":13224,".;":13225,"castle":13226,"offset":13227,"Ġdevoted":13228,"Ġuniqu":13229,"1868":13230,"Ġwhilst":13231,"Chang":13232,"keley":13233,"Ġembedded":13234,"usk":13235,"ĠFrances":13236,"Ġmemor":13237,"Ġrelating":13238,"buf":13239,"ste":13240,"ĠNova":13241,"ffee":13242,"fil":13243,"zes":13244,"Ġdollars":13245,"Ġtow":13246,"Ġcinema":13247,"ĠNebraska":13248,"ĠIndustry":13249,"ĠEug":13250,"Ġbinding":13251,"East":13252,"Ġputting":13253,"Definition":13254,"Ġfalling":13255,"ĠHindu":13256,"Ġpreparation":13257,"Ġunlike":13258,"symmet":13259,"Mass":13260,"aceae":13261,"Ġthirty":13262,"Ġminority":13263,"Ġbattles":13264,"ĠAlberta":13265,")[":13266,"Ġfloat":13267,"Ġimprovements":13268,"Sur":13269,"ĠAlexand":13270,"Ġannot":13271,"ĠTele":13272,"Ġportrayed":13273,"Ġsubsection":13274,"Ġfault":13275,"ĠKr":13276,"ĠFinance":13277,")),":13278,"Ġ('":13279,"Ġargue":13280,"anche":13281,"Operation":13282,"rupted":13283,"classes":13284,"Ġbath":13285,"ĠLP":13286,"Bas":13287,"Ġeg":13288,"bian":13289,"<?":13290,"Av":13291,"Ġresemb":13292,"Ġelsewhere":13293,"Ġconvinc":13294,"1877":13295,"Ġirreducible":13296,"Ġreact":13297,"\\!\\":13298,"Sal":13299,"CI":13300,"lights":13301,"ativity":13302,"multline":13303,"900":13304,"Lou":13305,"ido":13306,"Ġpartly":13307,"Ġexpectation":13308,"ned":13309,"ĠSeven":13310,"áĥ":13311,"gio":13312,"Ġemail":13313,"URL":13314,"Through":13315,"late":13316,"Ġ}}":13317,"oday":13318,"Ġna":13319,"sn":13320,"1800":13321,"Ġdeparture":13322,"Ġindigenous":13323,"Ġsessions":13324,"Ġlicensed":13325,"unity":13326,"itis":13327,"Entry":13328,"ĠRomanian":13329,"ĠMans":13330,"Ġframes":13331,"Ġlogic":13332,"Univers":13333,"ĠTu":13334,"ĠAdmiral":13335,"ĠProtection":13336,"Ġhip":13337,"ĠUrban":13338,"Ġtheat":13339,"ĠExp":13340,"ĠBaptist":13341,"Ġintern":13342,"Ġha":13343,"Land":13344,"Ġearthqu":13345,"Ġfinance":13346,"ixon":13347,"uparrow":13348,"Ġunderground":13349,"hn":13350,"Ġgraduating":13351,"ĠWednesday":13352,"ĠElementary":13353,"assy":13354,"Ġbeach":13355,"inemat":13356,"Ġgrey":13357,"Ġbiological":13358,"Ġexpedition":13359,"idance":13360,"celand":13361,"stop":13362,"ĠEmb":13363,"Ġnarrative":13364,"Cache":13365,"yself":13366,"Ġamongst":13367,"VP":13368,"Ġsurviving":13369,"teenth":13370,"]^":13371,"Ġalcohol":13372,"four":13373,"ĠWarner":13374,"Ġreaders":13375,"ĠWa":13376,"Ġpresc":13377,"ĠChron":13378,"ĠTrack":13379,"Ġpictures":13380,"Ġoccasionally":13381,"Ġages":13382,"uint":13383,"icing":13384,"ĠParish":13385,"Ġhorses":13386,"Ġvaluable":13387,"1874":13388,"Ġclosing":13389,"ĠFinancial":13390,"ĠTrail":13391,"ĠCBS":13392,"Ġproven":13393,"Flora":13394,"exists":13395,"ĠSz":13396,"Ġorganisations":13397,"Spe":13398,"rapper":13399,"ĠSI":13400,"Ġmathematics":13401,"Ġorchestra":13402,"Ġsaved":13403,"Ġcorrespondence":13404,"verb":13405,"Ġcongress":13406,"Li":13407,"ennial":13408,"Ġoutstanding":13409,"Ġfewer":13410,"Ġdealing":13411,"Ġswimming":13412,"ĠFam":13413,"agger":13414,"uming":13415,"Ġsurvive":13416,"ierra":13417,"1872":13418,"Ġorthogonal":13419,"Ġmoral":13420,"Ġknows":13421,"Ġmini":13422,"ĠFaculty":13423,"ĠPhoenix":13424,"ĠCircuit":13425,"Ġlikelihood":13426,"Ġhydrogen":13427,"Ġcircles":13428,"ĠCrim":13429,"Ĥ¬":13430,"ĠClassic":13431,"Ġranging":13432,"&=&\\":13433,"Taxa":13434,"Ġseparately":13435,"Ġpoems":13436,"Ġglob":13437,"design":13438,"textcolor":13439,"}/\\":13440,"MF":13441,"Ġasking":13442,"Ġsounds":13443,"ĠTech":13444,"izers":13445,"Ġgolf":13446,"antine":13447,"ialog":13448,"Ġresidual":13449,"ĠMinor":13450,"Ġlifetime":13451,"ĠCommons":13452,"Ġreun":13453,"Ġtransitions":13454,"Ġpossession":13455,"ĠHunt":13456,"Ġbird":13457,"Ġfriendly":13458,"ql":13459,"Ġmorphism":13460,"Ġweapon":13461,"Ġworker":13462,"ĠExchange":13463,"Opt":13464,"$-$":13465,"Ġbegun":13466,"Ġcredits":13467,"lein":13468,"iemann":13469,"loss":13470,"Ġreceives":13471,"Ġecho":13472,"ĠLiga":13473,"ching":13474,"ancellor":13475,"Ġacted":13476,"boldmath":13477,"Ġforg":13478,"Bi":13479,"charge":13480,"global":13481,"Release":13482,"Prop":13483,"ĠHarrison":13484,"Ġeighth":13485,"specific":13486,"ĠBorough":13487,"Lo":13488,"ech":13489,"ystem":13490,"Ġanalytic":13491,"ĠAlgorithm":13492,"*}[":13493,"UP":13494,"Ġcreates":13495,"Ð´":13496,"Ġdeployed":13497,"ĠTreaty":13498,"agar":13499,"Ñı":13500,"ĠAlbum":13501,"Ġpump":13502,"ugment":13503,"ĠBlock":13504,"category":13505,"Addition":13506,"Ġpreserve":13507,"%;":13508,"ĠCharlotte":13509,"Ġwaste":13510,"ĠCou":13511,"Ġformul":13512,"$\\,":13513,"Ġdensities":13514,"parameters":13515,"Tur":13516,"ĠStra":13517,"ĠVincent":13518,"bie":13519,"Ġsolved":13520,"Ġdip":13521,"kar":13522,"series":13523,"three":13524,"ĠShang":13525,"task":13526,"chiat":13527,"ĠSpeed":13528,"Ġtrail":13529,"Tom":13530,"Ġeleven":13531,"Ġarchitectural":13532,"ĠChair":13533,"Ġreportedly":13534,"1866":13535,"Ġemotional":13536,"Ġcounts":13537,"Ġremoval":13538,"Ġamateur":13539,"Ġartillery":13540,"Ġarrive":13541,"avirus":13542,"MD":13543,"ĠRoll":13544,"Ġdrew":13545,"igo":13546,"ocy":13547,"cz":13548,"Rob":13549,"Ġcomparing":13550,":(":13551,"Ġenabled":13552,"Ġcharter":13553,"Ġborders":13554,"Ġpursue":13555,"ĠNicholas":13556,"iors":13557,"Ġmemorial":13558,"ĠParam":13559,"ĠTax":13560,"Ġutility":13561,"sor":13562,"Ġclaiming":13563,"ĠMathemat":13564,"Ġsynchron":13565,"1873":13566,"HD":13567,"106":13568,"Ġlocomotives":13569,"Ġrequests":13570,"icker":13571,"ophone":13572,"Ġgard":13573,"Short":13574,"Ġtransverse":13575,"urring":13576,"tre":13577,"oria":13578,"keeper":13579,"ERR":13580,"Ġsimilarity":13581,"ĠPerformance":13582,"ĠFro":13583,"Ġinduction":13584,"Ġrequiring":13585,"Ġdispersion":13586,"both":13587,"Fore":13588,"Ġmixture":13589,"Honours":13590,"COL":13591,"Ġbaseline":13592,"Î¿":13593,"Ġimposed":13594,"Ġapartment":13595,":\"":13596,"Ġinflation":13597,"Ġscientist":13598,"Royal":13599,"Recip":13600,"ĠFerm":13601,"ĠSE":13602,"ĠAntar":13603,"Ġsupplement":13604,"Ġsending":13605,"Ġendemic":13606,"eston":13607,"alid":13608,"Ġsquadron":13609,"////////////////":13610,"rise":13611,"eda":13612,"sterdam":13613,"Ġdesert":13614,"SN":13615,"ĠCrime":13616,"ĠCurt":13617,"distance":13618,"BP":13619,"mathtt":13620,"Ġvolt":13621,"ovich":13622,"Ġrescue":13623,"Ġmarginal":13624,"Ġyoungest":13625,"Ġinvolve":13626,"ivodes":13627,"inters":13628,"ilia":13629,"Ġfunctor":13630,"Div":13631,"Ġinformed":13632,"Ġviolent":13633,"Ġrobot":13634,"Ġmachines":13635,"lat":13636,"Ġfarmers":13637,"haus":13638,"Ġextracted":13639,"Ġlasted":13640,"Ġtort":13641,"Ġphysician":13642,"ĠReturn":13643,"Ġposterior":13644,"oker":13645,"ipart":13646,"Ġlegacy":13647,"ORT":13648,"Discography":13649,"ĠTrinity":13650,"ĠTerritory":13651,"GeV":13652,"Ġcousin":13653,"ĠVlad":13654,"phase":13655,"ĠArabic":13656,"ods":13657,"verted":13658,"ĠCP":13659,"owned":13660,"Events":13661,"Ġperforms":13662,"good":13663,"eto":13664,"Camp":13665,"ĠFerr":13666,"Ġkit":13667,"ĠIndex":13668,"1840":13669,"auc":13670,"Ġtalks":13671,"opyright":13672,"Ġcoalition":13673,"ĠTuesday":13674,"usp":13675,"CF":13676,"ZE":13677,"iti":13678,"King":13679,"ĠLead":13680,"Ġmanga":13681,"irtual":13682,"ĠChapter":13683,"Ġprovisions":13684,"Ġcancelled":13685,"Ġvenue":13686,"=\\{":13687,"ĠBristol":13688,"ĠCarlo":13689,"Ġsteep":13690,"ampa":13691,"ĠEli":13692,"olin":13693,"shape":13694,"ĠUniversal":13695,"Ġtorn":13696,"Ġinputs":13697,"ĠLiterature":13698,"Ġthereby":13699,"$\\\\":13700,"Ġrestoration":13701,"ĠCry":13702,"Season":13703,"ĠSeg":13704,"Ġtriple":13705,"Ġjurisdiction":13706,"grav":13707,"Parameter":13708,"Ġcul":13709,"aughter":13710,"states":13711,"minute":13712,"ĠSha":13713,"ĠNHL":13714,"ĠCorollary":13715,"Ġdonated":13716,"Ġlegislative":13717,"Ġwhenever":13718,"Ġgall":13719,"Ġmoth":13720,"Ġtherapy":13721,"prec":13722,"weak":13723,"Ġanalyze":13724,"Pack":13725,"ĠBass":13726,"Ġnominations":13727,"may":13728,"Ġbeauty":13729,"igate":13730,"Ġgram":13731,"107":13732,"ĠBuild":13733,"elaide":13734,"Ġatom":13735,"ĠRequ":13736,"Ġmarry":13737,"Ġsax":13738,"ĠGot":13739,"Ġcable":13740,"ourg":13741,"Ġcentered":13742,"functions":13743,"Ġtransformed":13744,"region":13745,"ĠBarcel":13746,"orted":13747,"ateral":13748,"Ġprepare":13749,"Ġcache":13750,"Ġwalking":13751,"asant":13752,"Ġinterference":13753,"ĠWhy":13754,"BH":13755,"Ġrid":13756,"ĠRAF":13757,"Ġassemb":13758,"Ġ$^{":13759,"ĠSymphony":13760,"bane":13761,"media":13762,"Ġ\\|\\":13763,"Target":13764,"ĠKirk":13765,"Ġrepair":13766,"ĠMovie":13767,"chain":13768,"Charles":13769,"Ġintervals":13770,"Ġur":13771,"Week":13772,"ĠManager":13773,"Ġlayout":13774,"Ġresonance":13775,"ĠEff":13776,"Gr":13777,"Ġincidents":13778,"Ġgallery":13779,"ĠMD":13780,"pay":13781,"Ġimply":13782,"ĠCanal":13783,"Ġnan":13784,"folk":13785,"Ġsimulated":13786,"108":13787,"entity":13788,"uity":13789,"Ġexclusively":13790,"escope":13791,"Ġdefic":13792,"ĠBeh":13793,"vect":13794,"Ġdifficulties":13795,"month":13796,"ĠBased":13797,"ivodeship":13798,"Ġplasma":13799,"mill":13800,"uple":13801,"White":13802,"ĠMunich":13803,"Ġprelim":13804,"Ġartificial":13805,"Ġpredecess":13806,"Ġfantasy":13807,"Ġreflected":13808,"ĠOliver":13809,"Academic":13810,"super":13811,"Ġnoting":13812,"enders":13813,"ĠDays":13814,"Day":13815,"Ġkinds":13816,"Ġton":13817,"FFFF":13818,"ĠKur":13819,"Ġjournals":13820,"Ġworse":13821,"ĠCold":13822,"abe":13823,"1869":13824,"Ġdemands":13825,"Ġpsy":13826,"ĠImage":13827,"................":13828,"}.}":13829,"Ġfir":13830,"mina":13831,"Ġwearing":13832,"ĠJoy":13833,"Ġresid":13834,"Ġsurviv":13835,"iche":13836,"Ġstatue":13837,"Ġcasual":13838,"Ġloyal":13839,"Ġstem":13840,"ĠNevertheless":13841,"imp":13842,"utely":13843,"ĠEnvironmental":13844,"Ġhonour":13845,"ĠSerbian":13846,"Ã¦":13847,"uke":13848,"ĠBund":13849,"Ġexport":13850,"ĠPrimary":13851,"Module":13852,"ulator":13853,"Ġtruly":13854,"screen":13855,"ĠRank":13856,"Ġexit":13857,"Range":13858,"marg":13859,"Ġassignment":13860,"allow":13861,"Ġtoken":13862,"reck":13863,"Ġmor":13864,"Super":13865,"Control":13866,"Ġinfer":13867,"Ġcontributing":13868,"Bundle":13869,"Ġswe":13870,"Mor":13871,"role":13872,"communic":13873,"ĠShel":13874,"Sched":13875,"Ġinstruction":13876,"Ġdiagrams":13877,"Ġasks":13878,"iffs":13879,"ĠClare":13880,"Ġcabinet":13881,"Ġimproving":13882,"Ma":13883,"ĠGrey":13884,"layer":13885,"\\-":13886,"ĠYam":13887,"Server":13888,"Ġoxygen":13889,"Ġindustries":13890,"ĠBrew":13891,"otten":13892,"Capt":13893,"Ġtraveled":13894,"Ġattending":13895,"++)":13896,"ĠArray":13897,"ĠKenya":13898,"mathbbm":13899,"ĠBuffalo":13900,"makers":13901,"ĠMason":13902,"Ġshore":13903,"iple":13904,"Defunct":13905,"Search":13906,"Ġopponents":13907,"opsis":13908,"ĠOperations":13909,"Ġtact":13910,"ĠCosta":13911,"Ġmock":13912,"Ġscr":13913,"Ġawareness":13914,"Ġrandomly":13915,"Ġ{$\\":13916,"Ġsilent":13917,"Ġtribe":13918,"Ġtelling":13919,"NT":13920,"Ġfocusing":13921,"ikip":13922,"Ġmanaging":13923,"writing":13924,"Any":13925,"ĠChristianity":13926,"ĠHolland":13927,"istani":13928,"ĠVas":13929,"Ġdoubles":13930,"ĠSprings":13931,"Lin":13932,"Ġexpanding":13933,"othic":13934,"ĠUV":13935,"African":13936,"sett":13937,"$'":13938,"helm":13939,"Ġlingu":13940,"onies":13941,"propto":13942,"ĠEncyclop":13943,"}{{\\":13944,"ĠChand":13945,"ĠMarvel":13946,"ĠVoivodeship":13947,"Ġbott":13948,"ĠPic":13949,"comment":13950,"mf":13951,"ĠKap":13952,"ãĢ":13953,"Ġsequel":13954,"Ġreven":13955,"ĠLions":13956,"Ġru":13957,"Ġresponded":13958,"Sem":13959,"Ġdecreasing":13960,"Ġtoler":13961,"Ġexclusive":13962,"Ġcomics":13963,"Ġloved":13964,"ĠMeanwhile":13965,"urities":13966,"ativistic":13967,"bn":13968,"lag":13969,"placement":13970,"Ġneur":13971,"Ġepoch":13972,"ĠRelations":13973,"Old":13974,"ĠGhana":13975,"ĠLen":13976,"Enc":13977,"Ġsubspace":13978,"Ġconditional":13979,"ĠIda":13980,"Ġreceiver":13981,"ĠWes":13982,"HA":13983,"Ġafterwards":13984,"Ġequally":13985,"Ġevident":13986,"ĠLagrangian":13987,"ĠUlt":13988,"ĠAS":13989,"Ġanimation":13990,"ĠProcess":13991,"Ġcatalog":13992,"ĠVenezuela":13993,"Ġelevation":13994,"send":13995,"phal":13996,"Ġratios":13997,"Ġlen":13998,"_{+":13999,"Ġcouldn":14000,"kn":14001,"ĠWithout":14002,"ucc":14003,"Ġbaby":14004,".$$":14005,"izz":14006,"ĠFab":14007,"ĠPel":14008,"ĠJess":14009,"Ġfragment":14010,"Ġlabeled":14011,"athon":14012,"Jewish":14013,"ĠSeb":14014,"domain":14015,"Ġbare":14016,"amo":14017,"1848":14018,"Ġfled":14019,"ĠSnow":14020,"Ġbio":14021,"Ġuncle":14022,"Ġfits":14023,"Ġcustomer":14024,"ĠComputer":14025,"Sen":14026,"Ġcorrelations":14027,"ĠUEFA":14028,"Ġbold":14029,"ĠAndre":14030,"Ġsubdiv":14031,"ĠMix":14032,"ĠResults":14033,"Ġdestination":14034,"Document":14035,"Dom":14036,"rus":14037,"ĠChange":14038,"ente":14039,"ĠBarcelona":14040,"Ġsitting":14041,"Ġcollaps":14042,"Configuration":14043,"equate":14044,"Ġfeas":14045,"isan":14046,"ĠDraft":14047,"Ġimmigrants":14048,"Ġstake":14049,"Distribution":14050,"Athlet":14051,"Government":14052,"Ġoccasions":14053,"ĠSad":14054,"ĠĠĠĠĠĠĠĠĠĠĠĠĠĠĠĠĠĠ":14055,"ceil":14056,"ĠRing":14057,"ĠReturns":14058,"Ġconvenient":14059,"ogan":14060,"ĠWas":14061,"Ġsettlements":14062,"Ġlabour":14063,"ĠIndustrial":14064,"Ġguarantee":14065,"modules":14066,"Ġreveal":14067,"ĠFlight":14068,"speed":14069,"Loc":14070,"Ġbattery":14071,"Ġsuspect":14072,"Ġdisturb":14073,"ĨĴ":14074,"ĠLloyd":14075,"oj":14076,"ichi":14077,"Ġeligible":14078,"Ġcoaching":14079,"Ġtenure":14080,"ĠMontana":14081,"aukee":14082,"atche":14083,"Ġride":14084,"olutions":14085,"Ġdisag":14086,"itual":14087,"Ġsimplicity":14088,"Ġemployee":14089,"itol":14090,"oshi":14091,"IB":14092,"\\},":14093,"haust":14094,"ĠRou":14095,"best":14096,"ĠGate":14097,"ographers":14098,"Ġwet":14099,"gom":14100,"$}}":14101,"Provider":14102,"gun":14103,"Ġlieutenant":14104,"border":14105,"ĠChel":14106,"hum":14107,"into":14108,"Width":14109,"ĠPast":14110,"Ġinterviews":14111,"Oh":14112,"heet":14113,"stage":14114,"Ġpetition":14115,"thick":14116,"ĠGermans":14117,"Ġconstitutional":14118,"transform":14119,"ĠSteven":14120,"Ġextensively":14121,"Ġsumm":14122,"Ġregulation":14123,"ĠSah":14124,"footnotes":14125,"âĢĺ":14126,"Richard":14127,"ĠRead":14128,"KS":14129,"Ġhonors":14130,"Ã¡s":14131,"ĠWithin":14132,"\\}.":14133,"uates":14134,"Ġfestivals":14135,"grid":14136,"Peter":14137,"ĠBath":14138,"ĠCob":14139,"ĠHamb":14140,"ushing":14141,"Ġmonitoring":14142,"Ġcarrier":14143,"Ġspeaker":14144,"\\[\\":14145,"ĠArabia":14146,"Ġbridges":14147,"Ġing":14148,"ikipedia":14149,"pine":14150,"Ġdil":14151,"Ġparks":14152,"Ġsubstitute":14153,"ĠJerry":14154,"Ġregression":14155,"inee":14156,"Ġempirical":14157,"Stand":14158,"Ġfairly":14159,"elines":14160,"hole":14161,"Ġregardless":14162,"ĠCraig":14163,"uces":14164,"Ġjury":14165,"iya":14166,"rif":14167,"ĠEconomics":14168,"Ġsin":14169,"ĠHerz":14170,"lyph":14171,"ĠGround":14172,"words":14173,"ictions":14174,"Sil":14175,"olen":14176,"Book":14177,"ApJ":14178,"tawa":14179,"ĠKun":14180,"Ġdisestablished":14181,"music":14182,"ĠTon":14183,"Ġplain":14184,"aja":14185,"akespe":14186,"eval":14187,"ĠLate":14188,"ĠArtist":14189,"ĠHudson":14190,"Ġhelic":14191,"Ġlegs":14192,"ĠEthiop":14193,"Ġreliable":14194,"ĠLuis":14195,"ĠBerkeley":14196,"Ġrely":14197,"Ġtribes":14198,"dual":14199,"ellion":14200,"Ġviewers":14201,"ĠTechnical":14202,"asha":14203,"Ġauthent":14204,"Ġtransformations":14205,"Ġexploration":14206,"()->":14207,"berry":14208,"Ġshorter":14209,"Ġnoble":14210,"charg":14211,"Ġsoph":14212,"Ġenhanced":14213,"token":14214,"ĠJefferson":14215,"empl":14216,"ĠFu":14217,"Url":14218,"ĠSocialist":14219,":</":14220,"Ġsurprising":14221,"mag":14222,"lia":14223,"types":14224,"ĠMaced":14225,"ĠMig":14226,"Ġlap":14227,",...,":14228,"ĠTogether":14229,"ĠBurg":14230,"Ġrecognize":14231,"akespeare":14232,"urst":14233,"ĠHann":14234,"ĠOpp":14235,"ĠTreas":14236,"sep":14237,"ortex":14238,"1859":14239,"each":14240,"otions":14241,"Ġturbul":14242,"Ġmerchant":14243,"Three":14244,"Dat":14245,"Ġcharity":14246,"ipher":14247,"Ġwarning":14248,"Ġisomorphic":14249,"ĠRu":14250,"ĠGarc":14251,"Ġchoosing":14252,"Ġ..":14253,"Recipients":14254,"Ġshifted":14255,"Ġplayoffs":14256,"Musical":14257,"Ġboats":14258,"Ġtaxes":14259,"agers":14260,"support":14261,"Ġfighter":14262,"ashes":14263,"olves":14264,"Ġinnings":14265,"Ġstationary":14266,"ĠFif":14267,"ĠClay":14268,"ĠMann":14269,"Ġinfantry":14270,"ĠJa":14271,"Ġcrossed":14272,"Ġanticip":14273,"icious":14274,"ĠBog":14275,"Ġdevelopments":14276,"Ġcomplement":14277,")}$.":14278,"ĠLearning":14279,"Ġcontracts":14280,"ĠNiger":14281,"Ġaccordance":14282,"subequations":14283,"ĠEditor":14284,"Bigg":14285,"Common":14286,"Ġtriangle":14287,"VM":14288,"ĠLost":14289,"Ġplots":14290,"Ġdemolished":14291,"Ġgross":14292,"Ġdemocracy":14293,"President":14294,"footnotesize":14295,"ĠThor":14296,"Ġbits":14297,"Ġdt":14298,"ĠHMS":14299,"ospel":14300,"Ġunity":14301,"Ġentities":14302,"Ġcompiled":14303,"Ġpercussion":14304,"Ġautomatic":14305,"rh":14306,"Only":14307,"Ġties":14308,"require":14309,"Ġaccomp":14310,"ĠCoal":14311,"igs":14312,"Ġviolation":14313,"fam":14314,"Space":14315,"Ġmuseums":14316,"Ġpremiere":14317,"à¥":14318,"Ġparticipating":14319,"Ġsteady":14320,"irth":14321,"Ġdispute":14322,"Ġgr":14323,"ĠHilbert":14324,"Ġdwar":14325,"&&\\":14326,"window":14327,"ĠAnalysis":14328,"Ġemissions":14329,"feld":14330,"ĠBert":14331,"ĠStill":14332,"ĠTask":14333,"Ġvisits":14334,"Ġpromoting":14335,"arity":14336,"trivial":14337,"density":14338,"quarter":14339,"problem":14340,"EQ":14341,"Ġfraud":14342,"ĠDate":14343,"ĠCheck":14344,"Ġencoding":14345,"ĠAmsterdam":14346,"insky":14347,"Ġinitiated":14348,"ĠSay":14349,"Ġbil":14350,"Ġinfluences":14351,"Ġphotons":14352,"ĠBuch":14353,"Ġpeaks":14354,"uclide":14355,"Proposition":14356,"ĠMust":14357,"esty":14358,"Ġconversation":14359,"ĠAthens":14360,"Media":14361,"ĠIntelligence":14362,"Ġevolved":14363,"waukee":14364,"Ġcompleting":14365,"oidal":14366,"igm":14367,"Ġwings":14368,"ĠUnlike":14369,"ĠYu":14370,"ĠGonz":14371,"ĠRepresentative":14372,"ĠâĢ¢":14373,"ĠSearch":14374,"ĠPract":14375,"gets":14376,"mir":14377,"double":14378,"focus":14379,"Ġextending":14380,")_{\\":14381,"Ġcarries":14382,"Ð¼":14383,"ĠConserv":14384,"Ġrarely":14385,"Ġchrom":14386,"Ġportrait":14387,"ĠCad":14388,"buffer":14389,"Radio":14390,"ĠCatherine":14391,"Ġprojected":14392,"isch":14393,"Cond":14394,"Ġvariants":14395,"ĠEdwards":14396,"Ġaccretion":14397,"Hung":14398,"plan":14399,"itro":14400,"ĠBird":14401,"kt":14402,"ĠTerry":14403,"Ġrecipient":14404,"ĠTheory":14405,"Ġwrestling":14406,"Ġcondem":14407,"Ġneglig":14408,"Ġlegit":14409,"ĠLeader":14410,"Ġtrajectory":14411,"Ġintroducing":14412,"Ġalive":14413,"109":14414,"Ġpadding":14415,"aping":14416,"Ġpixel":14417,"Ġposts":14418,"Ġabundance":14419,"=\"../../../../../":14420,"Ġduo":14421,"mathit":14422,"period":14423,"likely":14424,"Ġmounted":14425,"Ġmartial":14426,"Ġqualify":14427,"Based":14428,"*\\":14429,"ĠAzerbaijan":14430,"Ġstuff":14431,"ternoon":14432,"Ġcivilian":14433,"Found":14434,"some":14435,"half":14436,"Ġcontainer":14437,"eor":14438,"ĠDeut":14439,"ĠDelaware":14440,"BT":14441,"herence":14442,"ĠAdelaide":14443,"ĠCS":14444,"Ġ).":14445,"Ġcosmological":14446,")}$,":14447,"ĠMasters":14448,"Ġarise":14449,"None":14450,"Ġwick":14451,"1830":14452,"Ġanime":14453,"Ġproportion":14454,"Ġdiscret":14455,"ĠPrivate":14456,"Ġfails":14457,"Ġcampaigns":14458,"ĠIceland":14459,"Ġpatrol":14460,"profile":14461,"Ġinstant":14462,"Ġclothing":14463,"Professional":14464,"plements":14465,"ĠContemporary":14466,"ĠHope":14467,"Ġbroadcasting":14468,"eway":14469,"Scottish":14470,"uckland":14471,"Ġnegotiations":14472,"odore":14473,"Ġmerely":14474,"135":14475,"ĠDest":14476,"between":14477,"igion":14478,"attr":14479,"ĠVersion":14480,"ĠAI":14481,"Ġpseudo":14482,
[...]
