#version: 0.2
Ġ Ġ
Ġ t
i n
ĠĠ ĠĠ
e r
Ġ a
o n
h e
r e
a t
e n
Ġt he
o r
Ġ s
a l
e s
a n
i t
i s
Ġ c
a r
Ġ o
i on
e d
Ġ w
Ġ f
l e
Ġ p
in g
ĠĠ Ġ
i c
n d
Ġ in
r o
Ġ b
a s
Ġo f
ĠĠĠĠ ĠĠĠĠ
Ġ d
e t
Ġ m
c t
Ġa nd
o u
en t
e l
Ġt o
s t
a m
i l
Ġ h
Ġ \
o m
Ġ re
Ġt h
i g
Ġ $
Ġ n
at ion
o l
i d
a c
i m
Ġ S
Ġ (
o t
Ġ T
Ġ e
Ġ l
u r
u t
Ġ C
i v
s e
Ġ A
ĠĠĠĠ ĠĠĠ
a d
Ġ is
u l
Ġ =
c e
Ġ g
Ġf or
o d
o w
t h
a g
t r
i f
a y
c h
Ġ M
a b
e m
ĉ ĉ
u n
Ġ I
< /
â Ģ
l y
u s
u m
q u
t er
Ġ on
Ġ v
it h
= "
er s
č Ċ
i r
a p
{ \
Ġb e
Ġ P
at e
Ġ B
Ġc on
) ;
p e
2 0
h t
Ġs t
- -
Ġth at
Ġa s
ct ion
o c
e x
v er
en d
Ġ <
a v
es t
Ġ {
Ġw ith
Ġ R
Ġ H
at h
Ġ D
an d
Ġ F
as s
re s
is t
Ġa l
Ġ L
p t
ĠĠĠĠĠĠĠĠ ĠĠĠ
Ġp ro
Ġa n
u b
u p
es s
e w
Ġw h
a in
_ {
o s
Ġ N
/ /
e g
ĠT he
Ġ W
o p
am e
e f
it y
Ġ G
Ġb y
Ġ *
r i
Ġ E
ro m
or t
er e
ou r
Ġe x
1 9
u e
p l
Ġc om
o re
ar t
Ġ it
Ġ "
Ġ r
in e
Ġ$ \
ig ht
Ġc l
Ġw as
Ġ }
Ġa t
Ġ &
e ct
ag e
al l
" >
u re
i es
il l
Ġ Ċ
m ent
Ġa re
e c
a k
m ath
Ġ or
i al
i z
Ġf rom
an t
n t
Ġ y
iv e
o g
re f
ex t
Ġ O
e p
Ġw e
Ġth is
u d
g e
ac k
ul t
Ġ J
i b
c l
ĠĠĠĠĠĠĠĠ ĠĠĠĠĠĠĠĠ
an s
l d
ĠĠĠĠ Ġ
p er
p h
Ġt r
ur n
Ġ he
p ort
. .
} \
or m
( )
^ {
it e
0 0
s p
a ct
} $
ab le
u nd
âĢ Ļ
b er
Ġc h
i p
at ed
o v
el l
in t
* *
Ġcl ass
Ġ U
T he
ar d
Ġs h
ar y
st r
a re
m a
c on
ig n
Ġ -
Ġs e
f f
av e
ic h
Ġn ot
Ġ if
it ion
ac e
f t
as e
y pe
ic al
Ġ le
p ro
in d
t urn
Ġ k
as t
' s
or d
= =
an g
g et
od e
Ġ K
i re
l i
e v
o st
c om
-- --
u g
t o
I n
Ġ âĢ
Ġcom p
) ,
f r
( \
Ġ '
i a
20 1
on g
im e
} }
Ġp l
ou t
ĠI n
u st
i le
en s
id e
t ext
at a
Ġ us
) .
Ġc an
or k
ic e
t a
ation s
en ce
pt ion
eg in
c al
o k
il d
c c
Ġ V
Ġre s
b egin
ĠĠĠĠĠĠĠĠ ĠĠĠĠĠĠĠ
er v
e y
Ġh ave
d u
ub l
j ect
an ce
f orm
Ġwh ich
e qu
ĠT h
Ġ j
e ar
) $
Ġal l
_ {\
Ġ un
s o
ac h
Ġ [
en c
Ġ im
er t
Ġa d
th er
Ġh as
un ction
i an
Ġd is
ro w
al ue
ou ld
Ġ +
ĠS t
Ġa p
or y
Ġre turn
en er
} ,
Ġa b
Ġ |
ou s
Ġa r
r a
o b
Ġ //
ab el
Ġn ew
u se
he n
ent s
res s
c ri
oc k
ĉĉ ĉĉ
.. /
f ig
} {
Ġ </
ubl ic
r ight
- >
Ġs tr
1 0
e q
Ġh is
et a
on d
our ce
s et
ow n
Ġcon t
: :
l l
ar am
ol l
f er
20 0
ĠC h
fr ac
ou nd
C on
o ver
er m
ter n
Ġy ou
p le
ion s
p s
is h
ir st
re e
or s
on e
iz e
ol d
om e
i k
S t
ul l
ar k
o se
el f
Ġal so
m l
u al
cl ud
" ,
Ġon e
i el
ic t
d iv
Ġw ill
l abel
Ġ @
ou nt
in k
r m
Ġp art
t e
math b
Ġo ut
at es
Ġs u
Ġd ef
Ġ /
m er
Ġb ut
ot h
w e
t he
el y
Ġo b
c he
s s
w o
iel d
Ġm e
Ġs p
Ġw ere
y st
od el
pe ct
E x
et h
Ġ qu
in al
Ġf unction
Ġs et
1 8
Ġ up
Ġ ro
i ew
> </
Ġp r
ic s
Ġe v
( "
p ut
Ġthe ir
Ġd e
ess age
sp an
Ġd o
r it
r ap
c ite
le ct
$ ,
r ay
$ .
( );
l ine
ic k
, \
> <
Ġ Y
a il
o int
le ft
ar i
Ġin t
s um
} )
s h
o ok
math cal
r y
ak e
c k
Ġ .
ig h
' ,
i x
Ġp er
Ġp re
tr ing
equ ation
Ġit s
} .
ing s
p r
ro up
yst em
âĢ Ŀ
l es
o ol
pe c
Ġm ore
Ġf irst
1 2
Ġn ame
Ġ en
../ ../
---- ----
l o
n g
Ġo ver
Ġm an
er y
m b
ĠI t
c re
Ġp ublic
} (
a x
Ġt wo
Ġd es
f ter
am b
Ġg et
Ġ :
um ber
at er
ht ml
Ġt ime
er r
a w
Ġin ter
tr ib
Ġa g
Ġthe y
is s
Ġw ork
n e
ĉĉ ĉ
} ^
at or
ul ar
ĠU n
Ġs o
o f
Ġh ref
he d
c ent
Ġn e
t y
Ġt e
p os
P ro
Ġo ther
i ed
~ \
ation al
T h
== ==
Ġwh o
n ame
ĠH e
rap h
) )
trib ut
i o
} _
im es
ap p
ph a
Ġ| |
u ct
Ġ* /
** **
Ġbe en
if ic
o id
d a
ĠĠĠĠĠĠĠĠ ĠĠĠĠĠĠĠĠĠĠĠ
at ive
Ġpl ay
on s
oll ow
Ġh ad
Ġres ult
ar g
i e
r am
Ġw hen
Ġd ata
al pha
c ol
l ation
E R
Ġs ub
ĠâĢ ĵ
( '
Ġs up
ov e
ro und
y s
Ġh er
Ġl ine
an c
Ġtr ans
ĠĠĠĠĠĠĠĠ Ġ
Ġ und
m s
i ent
on t
th is
s ub
at ch
o x
Ġb et
s ource
1 6
an ge
Ġcom m
an n
Ġon ly
as ed
Ġad d
Ġt ype
tr ans
Ġv alue
le t
Ġ= >
m essage
Ġg o
ĠTh is
ĠW e
ou n
eth od
Ġy ear
Ġin to
Ġre g
) \
Ġan y
Ġ #
en g
Ġc ol
Ġd if
le ment
ar ch
Ġwh ere
Ġo ur
el ta
âĢ ĵ
O N
ug h
N ame
at ic
id th
Ġth ere
am es
Ġth an
t ain
amb da
al s
cri pt
h o
is e
at ing
1 5
Ġf ollow
ay s
Ġs c
v e
d d
Ġa cc
u es
ur re
y n
t d
Ġ i
Ġab out
ad e
o ot
Ġcon s
u ild
I N
19 9
Ġp os
res ent
d ef
Ġ _
ĠâĢ ľ
al se
ou g
Ġfor m
h at
Ġin clud
I d
em ber
im port
1 1
Ġsu ch
il ity
Ġ end
Ġp e
$ \
Ġas s
S tring
am ma
ol og
op le
Ġs ome
d er
T ype
p aram
it ies
am p
ar s
Ġm odel
Ġthe n
Ġof f
enc es
mathb b
Ġn o
Ġre l
_ \
Ġa ct
id ent
b ar
w ard
2 2
l ock
Ġl oc
it ed
= \
: //
it s
m in
u res
Ġg ener
Ġin d
Ġund er
Ġk n
Ġd ec
/ >
ĠC om
or n
t on
C om
we en
Ġ use
id er
in ce
Ġre qu
Ġc o
Ġsh ow
t t
c ess
Ġp h
l and
ib le
in ed
Ġcon st
c ode
Ġs im
ig ma
Ġin v
b r
as h
Ġw ould
Ġf il
ik e
Ġ\ \
m u
at ure
c ed
eg a
d ot
o y
ow er
ĠP ro
Ġre c
} _{
Ġf e
Ġpro v
ire ct
} ^{
al ly
Ġc re
ab l
re turn
" />
2 1
Ġf l
it em
Ġa fter
Ġ el
s c
- \
R E
Ġo p
ĠA r
ol ut
iv ers
em ent
Ġus ed
Ġdif fer
Ġs elf
ic es
an k
b le
Ġbet ween
# #
pl ic
Ġs ec
ĠN ew
^ {\
C h
ur ing
W e
Ġ x
p i
p on
in s
Ġs pec
al ign
Ġs he
ad d
R es
S T
cl ass
1 3
ĠS e
ction s
1 4
e ad
v ar
Ġc ase
1 7
Ġst ud
ro ugh
re ad
ers ion
Ġre m
ce ption
urre nt
ist s
Ġh igh
a ult
Ġp ol
n ing
Ġm ay
ph i
Ġc or
y le
mer ic
it le
2 5
Ġe qu
l ambda
ut h
n er
a ir
Ġpro du
ĠA l
trans lation
Ġs ystem
t s
or ld
Ġthe se
a id
ac he
iz ed
ep end
ot e
is hed
y m
v ent
i ous
R ef
Ġin st
b f
Ġc all
ag es
Ġe ach
as k
Ġd ev
L ist
ht t
se ction
Ġn umber
il y
Ġ ent
f l
Ġ !
t ype
A T
s on
w h
Ġb ack
Ġv al
i er
Ġ `
Ġg iv
C l
l oc
in es
r ic
Ġa c
Ġ Q
erv ice
Ġ {\
um ent
Ġe ff
_ _
Ġm ost
Ġthe m
re d
Ġp oint
m all
or g
mathb f
Ġpe ople
Ġ >
Ġy our
a use
Ġg r
3 0
il on
t ing
f or
l og
is ion
v al
Ġbe c
am ple
e ver
tern al
an y
Ġ= =
Ġth rough
ĠF or
b ack
ment s
oug h
Ġ Z
ap t
A R
I D
u le
Ġch ar
Ġs ign
) :
f o
Ġa m
ĠS h
Ġv ari
et er
Ġn ull
O R
p art
Ġ --
re n
o le
us s
v el
A r
eng th
iz ation
oc i
as on
Ġor g
Ġ est
iv ate
s er
"> <
19 8
s igma
w n
Ġw ell
Ġt est
I t
b e
re at
T r
Ġv ar
b eta
\ \
v iew
p ress
Ġf alse
Ġus ing
Ġo per
Ġh ow
c es
g y
m an
2 3
ep s
ar ray
y p
Ġe ver
ang le
e k
ch ool
w idth
ild e
Ġ err
Ġtr ue
Ġl ike
Ġv oid
^{ -
ĠT r
L E
a h
ĠA n
o h
Ġ( \
ĠC on
.. .
Ġ ed
p re
od y
Ġg roup
ption s
Ġat t
Ġm in
ĠĠĠĠĠĠĠĠ ĠĠĠĠĠ
Ġdiffer ent
Ġf inal
Ġm od
tr y
Ġst ate
Ġs ame
ire d
} {\
math rm
a z
le ction
Ġf ield
Ġe m
Ġre p
ĠC l
Ġ X
w ork
et s
Ġne ed
Ġb r
s elf
T o
el op
Ġm on
h ip
er n
Ġap pro
u c
ĠA meric
Ġst art
00 0
um n
per ty
e e
ar get
* }
+ \
Ġf ound
5 0
Ġm ethod
iv er
Ġ )
ĠA s
Ġn on
Ġag ain
ical ly
ĠĠĠĠ ĠĠ
ĠĠĠĠĠĠĠĠĠĠĠĠĠĠĠĠ ĠĠĠĠĠĠĠ
if e
Ġs ur
" )
g amma
r r
Ref er
Ġp aram
oth er
is m
Ġex t
S S
av a
ot t
f ul
at t
u ch
s erv
Ġs er
w w
Ġb oth
Ġs aid
n ot
" );
str ing
] {
Ġwh ile
form ation
O b
Ġh im
b y
A L
ion al
Ġc ent
ut e
Ġpart ic
^ \
Ġj ust
enc y
ĠE x
ivers ity
n ew
re am
f ore
2 4
-------- --------
a ction
Ġel se
Ġm at
d ata
Ġsh ould
Ġyear s
u ff
E N
Ġl ong
ĠI nd
c o
m e
d elta
as es
ou se
fig ure
b all
are d
ant s
ers on
Ġsec ond
Ġfollow ing
pl ay
e le
Ġth ree
C ol
Ġwh at
w ay
Ġl ist
Ġgiv en
) }
a j
g er
if y
n b
V alue
19 7
con t
cc ess
Ġ z
olut ion
Ġor der
r on
Ġs ing
in clud
// //
if ied
le q
al e
r ho
Ġ id
ro ll
**** ****
$ -
D ata
it t
Ġn ow
Ġper form
ce pt
Ġt erm
the ta
Ġd et
ent ial
Ġr ight
k ey
ro ss
Ġc ould
s cript
or th
Ġle ad
d ate
re qu
v alue
al ity
' )
ir c
F or
f ace
ro p
c dot
a f
are nt
Ġf act
en se
ta u
Ġbe ing
Ġd r
Refer ences
ter s
Ġever y
b ig
ot s
ro l
} (\
Ġm y
Ġman y
ition s
Ġr un
eq ref
il s
d is
m od
}$ ,
3 2
t imes
ak ing
m ed
}$ .
t en
Ġd irect
Ġdis c
Ġb l
u ary
p x
ĠĠĠĠĠĠĠĠĠĠĠĠĠĠĠĠ ĠĠĠĠĠĠĠĠĠĠĠĠĠĠĠĠ
. ,
Ġar t
str uct
nb sp
Ġse e
olog y
Ġsup port
ath er
Ġex per
Ġbe fore
o od
ar row
ect or
ou th
se c
Ġcons ider
Ġstr ing
Ġd uring
ra w
Ġm ed
b ers
ain s
p ar
iv ely
loc ation
f ile
B y
i qu
g ram
an e
ro id
Ġre ad
ft y
Ġb el
ar ly
1 00
ab ility
==== ====
A s
Ġ& &
ur al
ord er
Ġh and
Ġte am
( $
s y
Ġob ject
S et
ur y
Ġpro cess
Ġf am
in fty
Ġdes cri
E n
ĠD e
p m
ĠC ol
he ck
] ;
Ġ/ **
Ġdo es
l p
at us
r al
U n
Ġl ink
C T
ar n
Ã ©
Ġs erv
Ex ception
k e
Ġc urrent
Ġeff ect
ul ation
Ġm ade
l ed
4 0
re g
Ġre le
S E
Ġdev elop
et work
Ġs mall
l er
n u
Ġf ind
ch n
19 6
Th is
ow s
Ġk ey
Ġm ake
I T
) );
ar ge
l ob
D E
Ġ u
qu ad
iv ed
] ,
s ize
o ad
Ġcont in
he ad
A N
ĠI f
Ġf in
ch i
om ega
i ence
Ġbec ause
Ġim port
over n
ri x
iss ion
ain ing
Ġap p
ĠS c
rr or
Ġm ain
' t
it ial
A n
Ġ// /
d ay
h er
t ilde
part ial
Ġresult s
Ġre sp
Ġl ast
lo ad
le x
ect ed
Ġpr ivate
m ary
ĠF r
r c
cent er
Ġg u
Ġ$ (
O n
Ġan al
p p
is ter
| \
Ġev en
Con t
sp ace
g round
ĠL e
iv es
Ġw rit
et ers
Ġf r
Ġst atic
t est
Ġa v
f ield
in ter
l ay
Ġstr uct
com m
Ob ject
ĠI s
ual ly
al th
ĠUn iversity
Ġcon d
ĠS tring
ĠO n
t ime
re m
Ġm em
Ġ %
g r
t op
Ġc oun
Ġin cre
T est
col or
Ġb uild
mb ol
Ġex pect
Ġto p
ĠR es
I m
Ġs l
el s
ar m
a u
I nd
Ġs ince
p ace
ĠAmeric an
Ġv ery
() .
M E
in a
res p
. "
it al
j s
Ġloc al
n ess
ĉĉĉĉ ĉ
D elta
ef ore
ver t
i or
ĠA nd
ĠĠĠĠ Ċ
l ink
ĠĠ Ċ
Ġp ass
oc ument
C O
ac es
t able
âĢ ľ
g or
Ġw ay
Ġc r
n av
A t
G et
Ġm et
P h
Ġm ov
se arch
um er
ag n
Ġt itle
f unction
us ic
ag er
Ġm ult
v ious
Ġp resent
Ġp op
r ite
3 3
Ġe lement
ol v
x i
u str
Ġ! =
2 7
p ublic
K ey
Ġb ound
eq n
ĠP h
Ġob tain
us h
V iew
ĠH ow
Ġme as
"> </
re ak
l ess
s q
Ġop en
S h
ore m
os s
ist ory
ord s
Ġd id
. _
() );
wh ere
Ġb o
c it
2 6
at s
Ġar g
iv ing
ind ex
. âĢĿ
Ġin formation
qu ot
og raph
r t
Ġs ize
uth or
Ġpos s
2 8
t il
Ġrep resent
Ġth ose
al k
[ '
it ive
Ġt em
Ġinclud ing
Ġob serv
E rror
l ist
Ġor ig
Ġbe g
om en
ur l
Ġprov id
Ġv is
Ġf our
Ġd own
act er
Ġap pe
ad i
ĠS he
Ġo wn
ĠP r
Ġc ar
port s
Cl ass
Ġd ist
cal e
Ġkn ow
p or
m et
g o
o ber
Ġle vel
in ess
Ġcomm un
oh n
ur s
" ;
m p
Ġb ro
Ġev ent
Ġ ,
ak es
} }\
)$ .
Ġm ark
Ġdis tribut
Ġle t
ĠUn ited
htt p
] .
Ġl im
A C
ur ation
$ $
s ide
ĠB r
f in
Ġ čĊ
\ ,
Ġpro ble
Ġhe ad
ĠCom m
lect ed
ĠE ng
! --
O m
6 4
Ġle ft
b s
g roup
is tr
ĠâĢ Ķ
op y
. </
t ies
iv al
Ġa ut
it er
Ġw orld
en n
Ġt ri
if t
Ġb ased
b o
le ar
Ġ/ >
Ġre al
t ab
Ġf ile
20 22
id d
Ġagain st
ap e
Ġp res
eps ilon
orm al
it or
le m
ener gy
R equ
o ff
} [
Ġl ook
Ġh ere
v en
ific ation
Ġhe lp
s im
a i
Ġdes ign
u ck
ir d
Ġ ident
Ġp at
} ;
b ed
Ġch ild
=" +
Ġsp ace
tr act
A l
I nt
b l
c m
Ġval ues
Ġkn own
resp ond
en e
b ox
com e
Om ega
ack age
Ġg ame
=" ../../
un e
Ġm ust
ĠA d
Ġl arge
in c
2 9
ĠM ar
ord ing
pos ition
Ġre ce
Ġm uch
et y
' ]
' );
ain ed
v ir
Ġex pl
le y
Ġres pect
u ro
Ġst and
d e
} _{\
p ath
ang u
20 20
ens ion
s k
ĠY ou
our n
du ct
ĠO r
Ġd i
Ġp ar
Ġre f
in ation
S e
am pl
ur ther
R O
Ġex p
d t
o pe
Ġm ass
Ġn ext
end s
ition al
6 0
f il
as ter
Ġa round
L L
Ġerr or
w it
htt ps
b ut
oot ball
I C
ĠA t
ĠW h
sum mary
ac y
lob al
us iness
Ġp ower
ps i
() ,
^ *
n o
Ġst ill
iv ity
Â ł
che d
Ġd ep
raph ics
Ġcall ed
Ġt arget
I ON
ĠR e
ĠM ay
4 5
ĠJ an
us er
F ile
Ġs chool
ĠF ig
Ġpro gram
con st
" :
Ġt ake
Ġp ost
our ces
Ġre fer
is ed
Ġm ap
od es
Ġse ason
ust om
Ġpro ject
Ġgener al
og le
er o
plic ation
pl it
Ġplay ers
at ely
Ġl ater
uff er
s l
re t
at ors
ĠA ll
T ime
Ġc al
L A
Ġlink s
P E
Ġse ver
th s
)$ ,
Ġgo od
201 7
apt ion
Ġser ies
Ġpro t
Ġsing le
Ġwith in
m ap
se e
H e
ps ilon
201 8
G amma
201 6
Ġb est
che s
Ġl ife
m at
l im
cri ption
he s
20 19
ĠB l
W ith
ĠS p
T E
un c
eqn array
w ith
om et
ail able
Ġ energy
pon se
ĠG r
20 21
ma x
201 5
Ġ ?
m odel
Ġm ax
Ġas sum
Ġcont ent
tern ational
ap er
Ġte chn
` `
ro du
ĠP l
M an
19 5
ib r
Ġo cc
Ġp ath
sq rt
Ġfam ily
Ġw ant
i um
Ġt yp
per ties
d es
Ġfil m
Ġint eg
Ġo pt
Q u
ount y
Ġl og
a it
end ed
Ġex ample
il ar
Ex ternal
T ext
" .
Ġd ue
overn ment
i od
Ġrequ est
at ures
a ut
ĠF e
Ġth row
201 4
anc es
E vent
Requ est
8 0
Ġan n
p ed
Ġab ove
Ġt ext
Ġcor respond
ug g
Ġv iew
c aption
Ġs um
A dd
im al
av ing
v are
pl oy
pt y
ĠC an
ict ion
tribut e
ĠT o
Ġwith out
re l
Ġp erson
ĠJ ohn
Ġc are
ames pace
Ġmeas ure
ut il
is on
Ġre port
Ġpl ace
Ġd epend
D ef
Ġc ap
ess ion
Ġd el
im ate
Ġ-- >
Ġe lect
ĠSt ates
ĠC ar
ĠA ss
st yle
Ġad v
3 5
Ġb ook
b um
Ġbe h
oc us
A P
text bf
Ġorg an
ic le
ur ch
vare psilon
ĠW orld
l ength
s up
ĠC ent
sub section
ĠN ational
on y
ix ed
Ġn etwork
w are
N ot
Ġto t
ul es
i j
ind ow
ag ue
Ġd em
Ġin itial
b old
ore d
P ath
Ġh tt
R e
u ction
ĠM an
Ġal ong
Ġ$ {\
ĠThe y
ic on
St ate
Ġv ersion
ward s
aj or
' :
ert ain
com p
iqu e
^{ (
It em
res ult
O r
Ġl aw
Ġn ear
ys is
}^ {\
201 3
Ġb lock
n ode
N ode
P aram
Ġs ol
, âĢĿ
r ist
/ *
E lement
pon ent
Ġch ang
gor ith
Ġc our
}, \
u x
Ġs at
op er
Ind ex
Ġ et
} =
ĠHow ever
u k
Ġus er
pos ed
con fig
Ġall ow
at ter
nd er
ĠN ov
yn am
b m
ec ut
ens ure
en u
u f
ole an
Ġ );
Ġd ay
ef f
) =
Ġs k
Ġd on
f rom
angu age
/ **
Ġb as
O ver
9 9
A ll
Ġest abl
Ġstud y
Ġass ert
ul y
eg raphics
includ egraphics
w ays
Ġst yle
tr ue
M ap
() )
Ġsu ccess
T R
0 1
am ed
Ġc heck
ill ion
ain t
em ph
n on
' '
F orm
Ġcomp ut
A S
r angle
Ġar ray
Ġchar acter
In fo
Ġinter est
ide o
ĠR ep
E qu
Ġd en
D es
201 0
b ody
Ġpartic ular
sy mbol
Ġun til
201 2
Ġan other
a im
V ert
ĠT e
Ġo ld
Ġsever al
ater ial
19 4
p oint
U R
ate g
Ġre du
Ġorig inal
Ġis s
Ġass oci
ĠB e
oc ial
Ġcl os
in ition
st ance
Ġwe ek
Ġare a
Ġinv est
ĠĠĠĠĠĠĠĠĠĠĠĠĠĠĠĠ ĠĠĠĠĠĠĠĠĠĠĠ
Ġdef ined
Con text
Ġpre vious
m y
ic y
r ide
vir on
Ġrec ord
Ġex ist
Ġd om
ĠU S
201 1
ou ble
t itle
ĠY ork
Ġst at
ple ment
b lock
ab les
Ġc ur
Ġprodu ct
i ents
Ġcon str
Ġin put
ur ity
v ersion
l ing
ĠB ut
g t
Ġw in
d own
i am
ww w
a us
Ġin s
var phi
Ġ\ ,
Ġex press
ĠG e
9 0
ĠE n
I S
Ġl arg
ĠG u
Ġs pe
un g
s w
pro of
ĠP ol
7 5
Ġpoint s
Ġl ow
v oid
ott om
' ;
Ġf ull
in put
l t
T H
Ġm usic
i ans
Ġ( !
right arrow
A D
F ield
and s
3 4
c or
Ġpro b
Ġk e
im ent
Ġc ell
Ġtr y
Con fig
m m
Ġch ange
ar r
ĠS chool
b it
l in
ear ch
r u
st ate
re p
Ġtot al
Ġc ode
## ##
o in
Ġb ase
Ġinclud e
p ose
Ġproble m
im um
Ġdet erm
S ervice
w ord
Ġsim ilar
. ~\
Ġcre ate
n ext
Ġl a
ĠO ct
I s
Ġsh ort
tr a
um an
le g
Ġh old
Ġ enc
ic ial
Ġh ome
ith er
ap i
Ġsh own
Ġch o
ag s
Ġ} );
ĠB y
ens ity
Ġdef ault
Ar ray
err or
ob ject
Ġp ot
ist ic
ge q
pro v
i ev
ight s
ĠJan uary
and om
id es
am ent
Ġle g
Ġav ailable
ĠA ug
Ġcontin u
c er
Ġs ource
ĠW ar
âĢ Ķ
Ġpos ition
Ġpol it
um p
Ġb u
3 1
Ġn ode
ĠM in
ne ction
F F
ĠS ystem
Ġa ff
Res ult
end er
Ġf ootball
um e
3 6
Ġs pect
Ġse ction
Ġmodel s
ustr al
Ġen g
ĠC ounty
Ġc rit
Ġt urn
L O
3 9
e ction
ĠS outh
ic a
Ġcomp on
I f
a ff
ard s
ap ache
Ġqu ant
ent ion
Ġal bum
" "
Ġa ction
ĠC o
re en
& \
Ġ} ,
er efore
//// ////
Ġth ink
over line
F il
Ġposs ible
c ul
E D
pt ember
epend ent
Ġs ervice
h old
Tr ans
Ġpre d
Ġacc ess
m ber
Ġr ange
Ġf ew
il t
B ig
Ġs ay
Ġcont rol
Ġme an
c ast
se mb
Ġd eta
Ġs ong
ĠN o
read y
= '
Ġe as
m d
Ġrequ ire
ĠâĢ ĺ
Ġb reak
Ġcon text
re c
B uild
ac ed
Ġg row
Ġ es
st it
M P
0 8
="../../ ../../
et urn
Ġshow s
N ew
ĠM ed
O f
ĠC al
ann el
0 5
erm an
. }
Ġs it
Com m
st and
ĠR eg
Ġs rc
Ġimport ant
Ġcom b
M L
yn c
Ġf ail
ĠM arch
abl ed
om an
Ġd er
Ġfollow s
a e
Ġf ree
ĠSt ate
[ ]
Ġde ath
Ġ( $
L et
3 7
Ġstr ong
pl ate
Ġs ide
Ġdisc uss
v ec
Ġcon fig
Ġcomp let
al f
b t
I G
pr il
fr ak
Ġind ex
Ġcon f
Ġcomp any
S ize
+ +
Ġ/ *
Ġb usiness
or ies
IN G
[ \
Ġb ir
u i
ut ure
ip le
or ph
b ase
Ġterm s
3 8
ĠP ar
uro pe
} ).
Ġre search
D is
al es
Ġt imes
Ġl ess
; &
l ang
z e
p en
def ault
200 9
Ġre st
cre ate
Ġ: =
ĠTh ere
Ġg reat
Ġp o
is f
w id
Ġbec ame
Ġv ol
id ual
ĠB rit
Ġ q
ĠS up
ampl es
Ġper iod
Ġe arly
M essage
bold symbol
p d
âĢ ¦
Ġcor re
ce mber
P l
Ġd at
cont ent
cl us
ar ning
******** ********
> &
Ġm atch
A B
viron ment
em s
F rom
200 8
Ġstruct ure
Ġinst ance
H and
lo at
Ġpro m
ĠE d
ur g
se qu
C ode
C H
ĠD r
er ing
Ġparam eters
Ġim age
ĠS ec
k en
Ġint rodu
L oc
ĠSe ptember
) ^
Ġj ava
Ġd iv
Ġpro f
le ge
n ow
pec ial
Ġsign ific
ĠA b
ud e
Ġp ubl
ĠO b
Ġmem bers
ĠF l
Ġ ide
ĠC ity
Ġs m
Ġadd ress
Ġm ajor
E S
le te
math frak
ĠAug ust
in ary
ĠC O
ign ed
6 6
er al
R ec
j ava
Ġph ot
is ing
c ss
t ings
roll er
M odel
Ġd eg
d ev
g ress
A nd
ĠOct ober
Ġcol or
c all
ĠJ une
Ġpro perty
um ents
ag ed
ra ft
on se
end ing
our s
P r
ist or
in fo
n ect
ib ility
k s
oug ht
ou d
} }$
Ġw on
gorith m
V al
Ġsup er
ic ient
U T
abl a
h line
Ġse qu
Ġpot ential
l ish
Col or
m ult
d om
Ġresp onse
im ation
ld ots
c ap
ref er
ĠJ uly
in o
Ġl ength
5 5
ag ement
ver age
s i
ad a
E T
Ġdistribut ion
Ġro le
on es
n abla
st art
ĠA pril
ĠG et
il it
F r
L ambda
I I
ab ly
Ġback ground
ĠA ustral
et ic
l angle
o ption
ass ert
A d
g es
O ut
v es
o pt
Ġw omen
Ġg overnment
n amespace
ĠP art
t es
ĠN orth
Ġm ar
ĠR ec
Ġreg ion
Ġfor mer
Ġst ates
Ġc over
ĠS er
an a
ir t
li ent
ĠW ill
Ġqu est
Ġind ic
Ġf ore
ĠNov ember
Ġf urther
le v
Ġle ast
Ġin du
con om
ĠE urope
ĠThe n
Ġperform ance
7 0
Ġlim it
ĠDe cember
itt le
ic ro
4 8
Ġc ity
Ġ= ==
Ġbet ter
ent ly
D O
u ation
ep ar
Ġim p
L og
M A
app a
tain er
y d
con text
Ġspec ial
s f
Ġto o
U ser
ym met
an el
ri or
S er
Ġre cent
Ġcomp et
im ens
if f
olog ical
ĠA p
Ġs y
Ġg l
ĉĉĉĉ ĉĉ
Ġc oll
U S
ri ed
200 7
Ġal ready
T D
con d
T able
Ġparam eter
U N
C C
th ers
Ġl and
) (
Man ager
v ers
Ġprov ide
Ġph ys
Ġl ight
amp ions
. \
h am
ĠM e
ĠS o
che ck
Ġrequ ired
Ġsat isf
Ġhe alth
w ide
Ġp ut
i i
p ackage
Ġd ocument
c irc
Ġcomp lex
th ough
Ġo ptions
Ġanal ysis
d raw
I P
I R
In ter
e ed
Ġw he
Ġacc ount
Ġdescri bed
ĠCh rist
Ġv ert
f alse
ĠW ith
ĠThe se
ith ub
---------------- ----------------
c le
und le
=" ../
ĠM c
ĠĠĠĠĠĠĠĠ ĠĠ
200 6
Ġfunction s
B ut
Ġsignific ant
Ġre pl
Ġtr ack
Ġl ay
Ġm om
Ġexpect ed
Ġh app
Ġc ou
Ġw idth
br uary
r ing
val id
as ing
Ġc ost
b ook
=" #
cit ep
20 00
Ġt able
ak en
Ġe p
Ġ Ð
ĉ Ċ
Ġrele ased
; </
ĠĠĠĠĠĠĠĠ ĠĠĠĠ
Ġm agn
f oot
ab or
Ġchild ren
ip s
ac c
Ġ( )
ĠL ist
Ġan t
Ġal ways
ĠB o
us ing
y l
Ġr ate
} )$
ther n
an ch
sub set
} ),
and roid
er ed
Ġa uthor
ĠC or
re w
c ore
c ell
O T
pr int
ĠL et
Pro perty
ĠI m
Ġs om
~ ~
Ġfe ature
Ġplay ed
Ph i
Ġw ater
\ |
d oc
ur b
Ġh istory
op s
cre en
| -
Ġl abel
olv ed
re ate
< !--
m it
Ġf ac
] (
Ġe ither
Ġev ents
Ġm ot
Ġp aper
Ġ` `
Ġappro x
Ġs olution
Ġ} ;
ĠQ u
D e
Ġmat rix
k appa
Ġam ong
R eg
includ e
st er
Ġl ower
4 4
d b
if ier
Ġgo ing
Ġcomm on
er a
b ug
ener al
id ence
Ġg raph
S ystem
ograph y
Ġcon tribut
ĠA fter
G roup
g ithub
pro t
av es
Ġm ight
arg in
m ark
al t
d l
Ġab s
n a
Ġ_ _
Ġf ocus
Ġre d
Ġac ross
m ethod
Ġdif f
Ã ¡
Ġsystem s
Ġre t
ĠW hen
Ġout put
Ġappro ach
W h
Ġp arent
Ġand roid
art ment
Ġth ird
Ġof ten
op h
c y
b uild
Ġm essage
Ġh ard
Ð °
at form
ot imes
Ġin div
Ġf und
k n
Ġg ames
Ġobtain ed
ateg ory
Ġfe atures
Ġpr act
ĠE l
ugg est
Ġb and
ad em
Ġf ive
ap s
ic ense
m ost
we b
ar ing
B ar
======== ========
M od
EN T
Ġc ases
U LL
st atic
Ġme ans
ac hed
Ġne ver
C all
iv en
Ġsu ff
Ġt ask
ĠA g
Ġh ost
Ġbel ow
Ġc ount
Ġconst ant
Ġrel ations
im age
U p
r ation
ad io
Ġhigh er
Ġm ember
ĠM on
ew ork
s mall
a ul
d o
Ġb order
id ge
Ġp air
text it
ĠD is
N A
um b
ĠFe bruary
og n
0 7
id ed
Ġto ok
ap an
p arent
S igma
0 4
ig ation
ĠS et
Ġv ia
Ġp ay
l ight
Ġto get
l s
Ġbe come
ch o
Ġb ig
R ead
Ġtoget her
e h
C lient
h and
b ased
S P
Ġmethod s
Ġp ort
Ġs epar
ensure math
Ġcond itions
c urrent
0 6
ly ing
ĠO ne
def ine
S ub
Ġl ik
ĠW est
go ogle
Ġs ite
, "
r un
Ġval id
Ġcommun ity
Ġassoci ated
Ġc ross
re et
ex p
Ġa ir
Ġpr im
ĠK ing
Ġf ar
) {
n ull
n s
S ee
re st
Ġpl an
g en
Ġse en
200 5
av el
\ %
) </
Ġc irc
re ed
ĠD es
he ight
ok en
Ġindiv idual
E E
M ethod
9 5
Ġc he
n et
Ġb i
/ \
0 2
Ġt re
at ural
Ġn ormal
Ġthe ory
Ġp age
F ig
ĠB ar
ec ess
Ġrece ived
ibr ary
Ġd ensity
A p
w ise
Ġar r
Ġb ody
Ġg ive
Ar g
ĠC ont
i ol
Ġvari ous
N o
Ġst d
Ġs ix
Qu ery
Ġn eg
act ory
( (
Ġh ouse
Ġh aving
Ġcoun try
ure d
Ġtr aining
Ġdevelop ment
Ġstand ard
Ġd ays
ĠA fr
x y
ĠR uss
ev ent
Ġre view
h ib
Ġcond ition
ĠS ch
Ġs ocial
Ġab le
ĠA ct
Ġn il
\ [
ĠO ff
Ġcl aim
th ing
ma il
b orn
Ġed uc
Ġpro perties
ĠR ev
pl ied
I L
Over ride
Ġa ge
itt ed
6 5
ust er
Ġcal cul
Ġc amp
> (
ok e
mb ox
Ġst ory
fer ence
Im age
Ġa verage
ourn al
Build er
Ġconsider ed
Ð ¾
00 00
C E
M S
D ate
C ount
Ġgr ad
qu e
Ġg e
al y
Ġs cal
ĠH igh
fl u
g ed
Ġim plement
in it
Ġann oun
ĠBrit ish
F l
med i
fin ished
ĠLe ague
O S
non umber
Ġelement s
Ġs che
Ġadd ition
ĠP er
Ġar ch
0 9
Ġc ustom
d ir
il le
Res ponse
ri es
E nd
Ġcorrespond ing
i ef
Ġinclud ed
Ġcl ose
ĠĠĠĠĠĠĠĠĠĠĠĠĠĠĠĠ ĠĠĠĠĠĠĠĠĠĠĠĠĠĠĠ
Ġcom e
p ly
}} {
Ġb ool
Ġcare er
il ities
t em
m ar
Ġn um
Ġs ays
Ġrespect ively
ĠH is
ĠCom p
b ra
dot s
Ġg lobal
s ing
chi ev
em ents
Ġre ally
on al
Ġm illion
Ġf ri
Ġh om
Ġof fer
Ġc y
b or
ug ht
ĠI nt
qu ery
Ġpop ulation
Ġf requ
ĠP res
em pt
ĠC oun
Ġtr ad
Ġr andom
Ġf uture
E d
Ġal ign
ire ction
act ive
Ġcre ated
Ġcon struct
Ġprovid ed
wit ch
ĠG o
ag ing
Ġatt ack
ord in
Ġm aking
c il
Ġs uggest
Ġem ploy
N S
Ġcons ist
Ġmark et
Ġst ep
S c
Ġhe ld
Ġh uman
id s
Ġbl ack
ĠP ark
l ib
A ss
wid et
ing ton
j av
es e
Ġv ideo
ult ure
St ream
d ec
pro p
ampions hip
ren ch
ĠN ot
ir m
Ġtem per
ĠAr t
ph p
Ġke ep
Ġcol umn
S tr
] )
requ est
ch an
Ġcon c
i res
Ġn amed
à ¤
Ġs ent
ĠD av
Ġcomp os
n ers
Ġest im
Ġl oss
200 4
Ġhow ever
eth ing
idd le
ver se
Ġto wn
p age
Ġg en
H ow
Ġn ational
Ð µ
o op
Ġpos itive
ĠA dd
p ol
dis play
Ġs em
m on
{ -
ul a
Ġbuild ing
P I
ut es
Ġph ase
20 23
Ġequ ation
Ġd one
A ct
ĠM ore
Ġan g
Ġgroup s
t x
p ing
un finished
0 3
iz ing
Ġyou ng
Ġpro of
widet ilde
b b
os p
ĠCh ar
Ġwrit ten
Ġb en
ill s
o on
y les
ac ing
Ġwork s
oc ol
Ġwhe ther
en ame
ĠEng lish
o ptions
Ġp ress
Ġg ot
Ġ Â
4 7
ond on
Ġh alf
Ġm er
ON T
Ġwork ing
Ġplay er
Ġt w
Ġbu ilt
ill ed
Ġcomm and
Ġl ines
p ng
ĠD ef
A G
le vel
ĠD ep
pr ime
S p
kn own
ĠTr ans
Ġspec ific
Ġbeg an
d r
R ep
Ġ â
Ġappe ar
i et
ĠĠĠĠĠĠĠĠĠĠĠĠĠĠĠĠ Ġ
Ġd ynam
Ġmed ia
ĠL a
Ġoff icial
Ġr a
th m
4 9
pl ies
but ton
e ople
is k
ĠA rm
ĠH ouse
Ġr adi
H E
ĠA m
Ġinst all
B e
\ !
S ec
F A
Ġpubl ished
Ġ row
Ġc lear
} -
In put
Ġdis play
Ġstud ents
ic ation
Ġm ove
Ġm en
ĠI I
Ġ- >
Ġc le
Ġm aterial
or age
u ed
Ġa way
Ġm iss
Ġloc ated
Ġfil ms
Ġsur v
N av
Ġse arch
Ġbeg in
A meric
Ġp ast
cl ient
P os
Com ponent
Ġa chiev
Ġe mb
add ing
ab ase
ĠB ro
center ing
O P
Ġserv ices
bs ite
ce ed
Ġbeh av
el ine
p c
em ma
h as
Ġin f
Ġcl ub
und er
ĠTh at
Ġon ce
( {
\ ]
ĠJ apan
S up
Ġc ertain
ĠA ir
Ġev al
Ġestabl ished
Ġsim ple
a ctions
Ġv ector
Ġline ar
iz er
Ġe ar
Ġme et
L ay
ch ange
ic an
8 8
ar ies
ĠM ark
ish ing
arg s
Ġind ependent
f ord
Ġl ittle
Ġact iv
Ġen ough
app ing
Ġmom ent
oc r
7 7
A pp
Ġl oad
ast ic
Ġprodu ction
ft ware
ĠH ar
mod ule
O D
ens or
ĠV al
St atus
Ġreg ular
y ear
is es
Ġhtt p
Ġc aus
row n
b ottom
semb ly
f unc
B lock
h a
at al
Ġw rite
Ġun it
L ine
ĠS tr
Ġn umer
v is
c ount
A ction
ĠA ng
olut ions
s u
s cale
ĠCl ass
Ġdef ine
g ing
Ġcon v
Ġth us
ad es
) ]
Ġt aken
ĠS w
c os
ĠS im
Ġrel ated
e lement
ĠĠĠĠĠĠĠĠ Ċ
\ {
Ġstart ed
Ġ< <
ĠT est
Ġt reat
Ġg round
Ġas k
Ġc ame
Ġbe com
ĠSe ction
Ġbir ths
G r
cent ury
ĠD o
} +
sk ip
s m
du c
Ġst ation
Ġro und
Ġth ough
ĠThe orem
A A
it es
press ion
wh ich
ho od
200 3
O ff
Ġacc ording
app end
z eta
s plit
nav bar
Ġchang es
4 6
Ġw ar
am a
Ġmult i
Ġj ob
ser ver
Ġen vironment
Ġex ists
Ã ³
ĠCol lege
[ "
Ġre ason
) =\
ist ics
Ġex ecut
F irst
tab ular
u el
c ase
Ġst ar
Ġcont ains
f irst
S C
m ain
ul ations
D ec
is try
Ġcont ain
ĠL ondon
Ġadd itional
t arget
Ġit em
in st
Ġbel iev
Ġv er
om orph
Ġs cale
Ġl anguage
tr ict
Ġ ill
ĠE q
od ing
g l
ele te
Ġmult iple
Ġal gorithm
Ġfield s
ĠD ev
Ġinst ead
head er
ĠIn ternational
le ctions
B C
ĠSt ud
Y PE
es tern
bt n
A M
Ġadd ed
Ġe conom
ilit ary
ĠH er
Ġo thers
att le
200 1
li ke
Ġv ill
Ġd est
Ġspec ies
ĠĠĠĠĠĠĠĠ ĠĠĠĠĠĠ
ell ing
ĠWill iam
Ġsur face
B ase
it ect
Ġsom ething
H ead
op en
ot ed
ars er
} =\
Th ere
Ġreport ed
. ~
Ð ¸
Ġd ouble
d at
Res ource
ig en
Ġz ero
ĠM y
o o
Ġn ecess
ĠM ich
ic les
Americ an
Ġunder stand
ĠH am
ache s
pl ace
P art
ĠN e
ĠA c
un k
min istr
le ase
ic ip
Hand ler
av y
Ġf ig
RE F
oci ety
Ġcan not
rit er
Com p
Ġth ings
un ch
Ġeng ine
ĠS ince
Ġs af
Ġd ate
at ory
8 5
irt ual
enc ies
un ity
Ġprof ess
al ax
) ^{
Ġ& =
ĠR ed
L ink
and id
in n
Ġm akes
Ġpartic ip
E X
6 7
ar a
Ġr at
if orn
Ġim prov
ug in
Ġpred ict
) }\
ot o
Ġhe ight
ch ild
Ġp ur
Ġex act
ial og
ad ata
Ġk ind
ĠN ULL
S ource
Ġbo olean
s g
200 2
Ġsequ ence
H T
str ong
o ch
Ġpr int
s in
c an
Ġoper ator
ĠĠĠĠĠĠĠĠ ĠĠĠĠĊ
Ġ" ""
r um
Ġfin ite
Ġobserv ed
T oken
imens ional
Ġc ut
bo ard
B uffer
row ser
O ptions
idd en
Ġsub ject
Ġp erm
ic o
In stance
pro perty
r l
or iz
Ġs w
Ġexper ience
ĠInd ia
ab s
Ġcomp lete
} ]
ou ch
ĠS an
ĠA cc
Ġcompon ent
Cont ent
{ (
Ġdist ance
Ġam ount
ak er
an ies
plic it
Ã Ń
oci ation
he l
Ġn ov
istr ict
iforn ia
Ġst op
il ed
Ġhtt ps
im g
ĠPh il
se lect
Ġrele ase
p y
Ġw ords
A fter
Ġcon tr
h ost
x ml
ĠF irst
St art
Ġle arn
st ream
Ġw ent
ir rep
ot a
Ġfact or
ac ity
L T
Ġtyp es
p ost
Ġpro posed
ĠIn ter
Ġ+ =
ari ant
" ]
Ġfe el
ĠF rom
$ {
ro y
Ġtrans form
Ġcent er
Ġl ive
fl ow
G ener
U E
ot es
Ġap plic
; \
ĠI N
R un
l a
a el
Ġle arning
AT E
anc ed
ĠAmeric a
iz es
Ġequ ival
oper ator
m ore
Ġst atus
ĠNew s
at ives
Ġb it
Ġa ud
l ong
Ġl ot
4 2
Ġl ove
om s
n ected
P ol
il i
Ġres ource
A b
m eta
s rc
Ġp rior
A cc
Ġexper iment
Ġo ption
he et
ĠC r
}^ \
Ġent ire
Ġac cept
al let
Ġbro ad
pd f
Ġch all
N ull
$ )
loc al
Ġb ar
Ġr ather
Ġprot ected
9 7
Ġal most
Ġap plication
f ind
ch ar
Ġcour se
ag ram
qu are
Ġto ol
Comm and
sh ip
Ġl iter
Ġs ample
Y ou
ĠF rench
}_ \
ĠE m
Ġeffect s
9 8
Ġf ixed
} |
eg er
pr ivate
Ġanal y
wide hat
lay out
W hat
Ġs ymmet
in ing
Ġl ate
O ne
ĠR ef
cl ose
Ġwh ose
ĠS m
Ġs ound
S U
lem ma
Ġr ank
c up
ul ated
Ġf all
Ġlarg er
Ġl ed
il es
n ey
LA SS
g ener
if orm
ge bra
cdot s
, -
I M
Ġcent ury
j son
9 6
ens ive
Def ault
o res
in ated
ap ter
Ġatt empt
C ell
Ġwe ight
ov ed
Ġun ique
C K
ĠN or
Ġ ...
ĠPres ident
ul ly
N umber
ĠOb ject
Ġup date
i ers
Ġpre c
Ġfl ow
T O
Ġin ternational
om b
as cript
Ġn atural
c ing
F unction
Ġresp ons
B undle
or ge
Ġserv ed
Ġset s
V ER
text width
ot ype
Ġst ream
Equ al
p ack
Ġsuccess ful
b ound
P oint
ĠInd ian
ĠG roup
Pro v
f ont
Q L
Ġimp act
ĠCal ifornia
Ġdeg ree
Ġquest ion
at rix
w rite
Ġb orn
}) \
Ġf it
led ge
W hen
] [
L ast
Ġ Ã
it ude
Ġdeta ils
st atus
tribut es
ari o
P si
ĠC up
Ġy et
ĠD istrict
Ġdis trict
str act
Ġprob ability
L oad
O per
ed d
Ġvis it
F actory
q quad
ict ure
a ign
Ġcontin ue
o oth
che ma
col umn
ĠN one
ang ed
ĠP at
T S
y r
Ġprovid es
Ġreturn ed
H el
Ġth ought
Ñ Ĥ
des cription
Ġ\ {
ic ult
Ġ ir
Ġincre ase
5 00
Ġin ternal
m id
P C
F I
Ġgiv es
Ġprodu ced
L abel
V ersion
Ġin flu
ĠAustral ia
o z
Ġt aking
B ox
ind ows
ry pt
o e
ĠD em
ĠCent er
Ġinclud es
Ġact ive
ol ic
Ġloc ation
T ask
a ur
* /
ĠFig ure
Ġcomp ar
Ġc atch
ĠC our
al le
Ġwe bsite
pro ject
G L
Ġb ox
y per
ain ts
u it
At tribute
ĠI r
Ġc opy
Ġ ]
5 7
Ġm argin
m ing
comm and
ĠRep ublic
am ily
Ġse lect
Ġacc ur
if act
Ġrec ogn
pect ed
Ġthrow s
Ġs on
Ġmon ths
Ġlead ing
n ce
iv il
Ġnot e
ell ow
Ġwh y
R eturn
us ed
Ġd ig
Ġannoun ced
( -
str uction
Ġ$ (\
i ation
Ġon line
stit ute
l ast
Ġcl ient
Ð ½
equ iv
Ġcomp ared
Ġgener ated
. )
F ONT
f e
Ġcon duct
Ġquant um
P re
tr ies
Ġde ep
land s
6 8
Ġed ge
b a
Ġtemper ature
av or
} );
ĠEng land
t ic
Ġfr ont
ĠBl ack
4 3
ĠG erman
n um
k a
Ġme chan
Ġte lev
Cont roller
G e
Ġext ends
F e
it te
Ġne igh
Ġassum e
p ush
Ġt alk
Ġs ure
Ġde al
Ġcou pl
Ġnew s
b urg
Ġin c
Ġto day
Ġpop ular
pecial ly
Ġare as
Ġh istor
en ed
P age
use um
h an
im ension
n ote
Ġsp in
y a
P er
ĠCh ampionship
E m
Ġclos ed
ber g
}} (
ate gy
O L
B ack
Ġd a
} /
Ġin it
M M
Ġcol lection
Ġv iol
Ġse lected
Ġpro p
c el
k y
pro x
ĠL emma
yp es
Ġre str
N O
Ġpolit ical
form at
jav ascript
ock et
un n
ram ework
Tr ue
em pty
st ar
l or
} +\
Ġperform ed
ob ile
Ch ar
ĠL aw
M et
Ġpol icy
av en
un t
ĠR eturn
^ +
ol ve
Ġaut o
199 9
Ġt akes
Ġm ode
R A
u id
N D
ĠU p
Ġcorre ct
ig ger
tt p
inal ly
Ġim ages
ĉĉĉĉ ĉĉĉĉ
ach ing
Ex t
C heck
d en
Ġstud ies
V ID
f ill
Ġoper ation
Ġdevelop ed
4 1
& =
ist ance
ĠD iv
m em
oy al
ĠE ast
// /
Ġg as
Ġst re
Ġdef inition
C D
Ġneed s
Ã ¼
am s
b in
Ġinteg r
Ġn av
n umber
Ġneed ed
C reate
at ively
Ġ< !--
Ġcomp anies
5 8
Ġn ight
Ġequ al
ĠB er
k i
up date
P RO
ĠO F
el oc
ĠR em
ĠW hat
Ġconstr uction
Ġc apt
on str
ĠS en
Ġtelev ision
so le
) -
" ).
Ġd ied
Ġmod ule
ĠM al
Ġmat ter
i os
ĠA nt
Ġs ens
y ing
row s
p ass
con tainer
l en
Ġro t
Ġrelations hip
ly mp
er ation
im ately
ob j
str y
d s
ed ge
Ġst age
Ġf em
Ġgo al
{ {\
Ġh on
Ġpat tern
f inal
j ection
Ġro ad
on ic
Ġdirect ly
Ġad j
& &
Ġreg ard
Ġlik ely
ĠG eneral
m t
pro cess
Ġd irection
Ġcon tract
Ġp ers
Ġmon th
Ġth erefore
Ch ild
u z
I V
Ġpresent ed
}^{ (
Ġits elf
m enu
anc ial
Ġep is
Ġw indow
S ON
Ġdoes n
Ġs old
ĠEurope an
ĠCh ina
Ġmax imum
cit et
c d
D B
5 6
p tr
Ġf ood
s pec
ĠT V
ĠP ort
Ġform at
Ġaut om
ar ily
Ġm id
lo od
Ġ& \
fil ter
b and
Ġ( (
ent ry
Ġcon ver
ub e
E nt
Ġn orth
ct or
as ons
Ġrun ning
Ġbound ary
Ġg alax
n ormal
Ġc andid
gr ad
P S
ĠCan ada
N ext
Ġexpress ion
Ġd raw
Ġdiffer ence
Ġs olutions
Ġf ace
st yles
m ember
Ġset ting
ĠB el
Ġwh ite
Ġdiff icult
Ġeffect ive
Ġl at
Ġrefer ence
il er
ĠSt reet
U I
act ers
Ġfor ce
F T
}\ ,
ver y
Ġch annel
u ate
math sf
Ġcurrent ly
res ponse
Ġcom es
l n
ic ol
} :
Ġopt im
lay er
Ġper cent
res h
o ice
n es
ind ing
Ġsol id
e in
Ġun c
Ġmov ed
ĠCoun cil
ag o
Ġobject s
Ġcent ral
E L
e es
Fil ter
}\ \
ind ent
Ġl ost
ĠP aul
ĠDav id
Ġbas is
s ervice
Ġpl atform
Ġdat as
Ġus es
Ñ Ģ
Ġf ather
Ġcompon ents
Ġact ually
ĠA pp
Ġproble ms
ra z
ĠR iver
as c
Ġn one
//////// ////////
M em
$ }
th at
ĠD ata
ĠI D
ĠW ork
Ġright s
Ġpr inc
Ġ{ @
Ġall ows
Ġa ward
id a
List ener
param s
Ġpro te
p ite
clus ion
wo od
U s
r is
S I
st d
ri ef
ĠTh us
am l
a res
AB LE
T op
in ner
Equ als
Ġm ag
i ences
r d
Ġspec ified
ĠC he
ĠO ut
Ġrel ative
ĠS um
ach ine
Ġiss ues
Ġwho le
Ġcon nection
7 8
S im
St yle
ĠS ub
Ġtrans fer
Ġben ef
Ġhold s
en ing
( &
ĠHe alth
ro te
st ant
ri ate
But ton
Ġtrans ition
ĠF il
Ġp ack
C o
in i
Ġpart y
Ġindu stry
ĠU K
e al
ĠP al
ber t
ĠH ol
D ev
Ġfil ter
or ing
sh ow
Form at
el se
ref ix
Ġpart s
c s
ann ot
i as
ĠRes earch
ĠJ ames
A ut
s igned
fil es
Ġeff ort
Ġsign al
Ġt im
Ġh it
ĠDep artment
to ol
at ur
un it
Ġnum bers
{ }
' re
x space
Ġinvest ig
ã ģ
ĠC ons
ous ly
ut ion
Ġiss ue
R em
Ġf a
v ille
Ġus ers
Ġwork ed
Ġim m
end if
Ġco ordin
199 8
v an
T em
Ġw ord
Ġout side
ĠPart y
Ġy ield
Ġt ell
ĉ ĠĠĠ
Ġinter face
| ^
c r
Col umn
Ġdem onstr
ĠC LASS
Ġup on
ĠTh om
Ġsupport ed
en umer
ain e
Ġ ess
ro s
n ov
199 0
Ġj o
z on
ec k
n eq
ĠH REF
< ?
ul let
so ft
Lay out
on ly
li er
q l
ev el
ot al
S pec
an ish
Ġv ers
Ġallow ed
5 9
Ġst ars
Ġphys ical
Ġs outh
ar ter
Ġ url
ĠR ober
Ġeduc ation
erv e
Ġfil es
an i
D r
B r
B l
H istory
Ġdec l
Val id
: </
S ince
Ġre ve
m ission
Ġes pecially
Ġb all
Ġser ver
Ġpres ident
ou l
Ġperson al
Ġt ree
ĠN ote
Ġpat ients
Ġre v
Ġfor ward
g g
el ves
at tr
ef ined
ad ian
C L
8 6
Ġdisc over
S D
Ġup d
ic i
st ack
ĠWh ile
pre t
M ed
] $
Ġintrodu ced
Ġincre asing
Ġp ick
enc ed
( {\
' $
Ġspe ed
Ġs ense
Ġmon ey
et t
Ġdom ain
Ġ ~
Ġcont act
Ġbeh ind
itte e
ate gor
ĠO ur
ĠA ward
operator name
Ġrepresent ation
ark s
`` `
h space
B A
Ġup per
set s
> >
ed eral
t ag
S O
Ġlevel s
Ġdescri ption
Ġwrit ing
B U
ash ington
it ing
ang er
t ex
Ġvill age
Ġqu ality
Ġart icle
Ġcon sum
it ch
P O
ĠCh urch
Ġf ire
ann ing
ĠG erm
Ġe lection
Ġf ont
d i
IN T
Ġteam s
ph er
U t
Ġw alk
d epend
ap prox
" ),
c i
val ues
UR L
Ġpro ve
ĠR ich
Ġvari able
back ground
I O
$ (
Ġarch itect
} -\
}} {\
om ial
G u
Se lect
ĠD i
Ġap plied
Ġden ote
Ġapp ly
Ġvari ables
ar p
Ġs ources
wit ter
ĠB ook
ĠD irect
Ġm ention
| |
iz ations
il ton
Ġproduct s
Ġt ax
Ġestabl ish
Ġdid n
refer ence
Ġd rop
Ġso ftware
L ength
C A
Ġim medi
ĠJ ust
ĠM et
Ġv eloc
_ .
Ġop port
lo or
) +
w rap
Ġsc en
ĠD ay
Ġequ ations
f ect
5 1
ĠAr ch
in stance
the orem
Ġtechn ology
Ġbehav ior
' ).
P eople
Ġs creen
s d
Ġcre d
Out put
Ġr isk
Ġqu ery
Ġoper ations
Ã ¶
M ax
b on
ĠQ ue
b uf
ri a
T P
Ġlong er
199 7
b oot
ag ger
Ġqu al
Ġcrit ical
z er
and er
rem ove
Ġbr ing
7 6
Ġg re
Ġgrow th
p at
c a
Ġcho ice
ify ing
Ġro ot
ĠT able
omet ry
Ġs us
ĠB ay
sup port
ex ample
old er
en a
an o
Ġsh are
class es
h i
Ġqu ick
osp ital
Ġcon nect
Ġn ames
Ġm ale
y e
ĠE X
Ġb ank
ri er
om ic
P R
ad o
im ents
Add ress
ĠAss ociation
us ion
Ġman agement
sc r
enumer ate
ĠS ome
Ġent ry
os en
Ġv ict
Ġt en
Ġse lection
Ġchar acters
Ġsh all
ĠL icense
Ġprim ary
ĠC ap
L e
ĠH all
ir it
or se
u a
Ġbecom es
ĠS ing
b reak
ĠH T
ult ural
str ap
Ġsmall er
ĠM od
. /
ĠT ype
Ġin side
ĠFr ance
. $
Ġm ilitary
ã ĥ
N N
Ġth ing
Ġsec urity
Ġe mer
ĠM art
H O
k r
E ng
t hen
Ġnov el
mat rix
d imensional
el t
Ġav oid
Ġelect ron
he st
Ġdesign ed
Ġdev ice
Ñ ģ
oc al
Ġs eg
U rl
Ġal tern
Ġro ck
ĠIn stitute
Ġex cept
5 2
it ory
ĠSc ience
5 4
is ation
V is
="../../../../ ../
ess ages
Ġdec re
Ġoff ice
Up date
op l
Ġag re
Ġre lation
Ġlead ers
Ġnecess ary
c od
= {
N et
Ġcamp aign
a ud
w in
] \
in ct
Ġv irtual
ĠAr ray
Ġw rote
Ġto ld
ic ate
S o
CO L
5 3
Ġplay ing
C P
g n
Ġh ours
ĠĠĠĠĠĠĠĠĠĠĠĠĠĠĠĠ ĠĠĠĠĠĠĠĠĠĠĠĠĠĠĠĠĠĠĠ
L iving
Ġdirect or
Ġac qu
R ow
ĠH ere
Ġthrough out
8 7
Ġwe ak
ER R
ĠD ec
Ġim plies
Ġp ain
Ġide a
Ġtrans l
A V
M in
Ġs il
ĠP e
Ġ! ==
ut ils
Ġ- \
i us
Ġf ra
Ġa x
Ġsim ply
out put
ĠM r
Ġfri end
199 6
in v
) /
s ign
y es
ef t
ou thern
item ize
M ode
ov ers
C ON
Ġfr ame
C ache
Ġinv olved
ol ar
Ġco eff
Ġreturn s
T ag
ĠGe orge
Ġmem ory
Ġin j
sc ope
We b
oriz ont
ans ion
id ing
Ġus ually
++ )
ect ors
T e
olv ing
requ ire
ĠG l
ĠB est
Ġcom ment
off set
Ġdeath s
m es
ĠJ ack
is ions
ail y
Ġs ex
Ġdec ision
Ġrem ove
ER T
) }{
Ġr adio
Ġto wards
ter m
8 9
line ar
it ar
ĠO pen
Ġro b
Ġh ot
Ġprofess ional
Ġc ast
ĠCour t
Ġm ix
Ð¾ Ð
ĠS ervice
ĠN ow
alle l
Ġal though
ĠSer ies
ar th
Ġl o
a o
N ote
Ġt our
ĠG reen
.. ..
D F
The n
Ġhim self
Ġsub s
Ġpro gress
Ġn uc
ĠC E
ĠF ound
M e
Ġcon cept
th on
fr ame
ines e
Ġne ut
f loat
Ġlarg est
g in
Ġexp and
ugh ter
Ġd ark
u ated
( [
el es
a uthor
Ġst aff
iss ions
st on
ĠTh erefore
ĠW ashington
Ġl iving
Ġarg ument
Ġcomplet ed
N ow
ĠM usic
{ {
Ġex ception
B o
Ġsy mbol
ĠA PI
Ġde but
Ġclass es
Ġoff ic
3 00
Ġev olution
ĠM at
Ġmod ern
ĠL og
Ġb ad
ĠO lymp
we ight
Ġapp oint
Ġ[ ]
Ġob j
Ġv eh
model s
Ġb re
k it
ick et
uf act
Ġconfig uration
Ġb g
Ġfollow ed
Ġf un
Ġd am
for ce
Ġan sw
Ġtr avel
ĠP ublic
=" -
Ġcon nected
ĠY ear
ĠV ol
o i
W ork
Ġest imate
p g
Ġcoun tries
Ġstre ng
Ġstart ing
id ay
P ar
Ġrat io
ĠD on
ĠT ime
O pen
m atch
Ġr ule
clud e
ĠP ress
ĠAfr ica
Ġa w
ĠTe chn
re a
g ence
ĠR oad
D o
Ent ity
v ant
Ġch arg
ĠJ er
Th at
Ġt ro
) }$
erv ed
Param eter
Ġlook ing
ĠT ex
Ġdis e
g u
n orm
Fr ame
Ġf ight
he nt
Ser ver
P i
C an
W idth
AT ION
Ġeas y
Ġmagn etic
il ies
Ġhe art
Ġw atch
Ġspect rum
ele br
ree k
Ġcell s
Ġtrans port
Ġse em
ĠArm y
C ase
orizont al
w ell
em ic
Ġtreat ment
( _
Ġc am
198 0
a a
Ġst ore
A ccess
ill ing
Ġs n
om in
it able
ĠM ag
Ġad ministr
ĠL ou
t ree
Ġconc ern
ĠM ount
ip p
T arget
v space
Ġro om
ot ic
\ "
ir l
f ree
K E
Ġdeterm ined
no indent
Ġexist ing
ĠG od
T ypes
9 4
C S
R el
Ġdo ing
ĠT ri
\ ,\
ĠL eg
Ġd oc
Ġcol lect
m as
Ġ\ |
Ġpro ced
eta ils
ag ment
d ocument
ĠV ir
art ifact
h ing
r ule
ĠUn ion
et ch
al ian
ĠComp any
ri an
d ep
ĉĉ Ċ
} '
Ġrem ains
ru pt
ym pt
ig r
Ġun its
Ġchang ed
Ġn odes
g ent
ant ic
Ġpol ice
pon ents
Ġknow ledge
vent ion
Ġlim ited
P ost
Ġjo ined
199 5
Ġr ace
ĠGerm any
Ġfrequ ency
ĠM er
ph ere
ĠR oman
ched ul
9 3
Prov ider
Ġrecent ly
M on
Ġequival ent
pro to
mod al
C R
E M
ĠM ac
Ġreg ions
est ival
ĠSe e
Ġ ensure
Ġex hib
~ $
Ġpe ak
Ġin str
ĠS l
ĠO f
Ġor d
8 4
Ġ ;
T YPE
P o
ĠR ead
Ġa uth
Ġal gebra
b es
Ġprevious ly
g raph
cre te
f ort
Ġact ivity
Ã ¤
Ġev idence
\ }$
ĠM or
Ġfail ed
om a
Ġopen ed
Ġcontinu ed
Ġcall back
Ġqu e
ĠS am
ĠCO VID
erv ices
#### ####
f s
Ġfe ed
uss ian
ĠE v
ec ute
ĉĉĉĉ ĉĉĉ
Ġm other
b our
Ġmain tain
ã Ĥ
ĠM ary
Ġhe l
T ree
air s
Ġm ind
ĠPro v
return s
NA ME
Ġbo ard
comm on
ie ce
7 2
ern el
ĠP ost
Ġa im
el i
ul ate
ict ed
ĠFr anc
' ),
M N
ĠS ur
anc y
u ge
f a
Ġk m
Ġst e
Ġg ave
I F
ĠDem ocr
id ents
ĠS y
Ġf ast
**************** ****************
Ġ* *
omet imes
pro ve
Ġsh ip
Ġn or
Ġs ort
ty p
CO DE
par se
ĠN S
con f
ang es
Ġm us
Ġw ait
rel ated
ec ause
ad r
Ġbook s
Ġincre ased
Ġs aw
ĠA lex
com ple
Ġsign ed
Con tainer
ole c
Ġsc ore
Ġso on
ig hest
ĠB en
h r
F L
Ġpolit ic
Ġpract ice
Ġreg ister
ĠD el
Ġpass ed
Ġstat ement
cont rol
Ġarg s
Ġd imension
Ġneg ative
Ġex tra
Ġbg color
Ġpart ial
Ġveloc ity
9 2
Ġj ud
="../../../../ ../../
Ġdescri be
yd ro
Ġlay er
Ġcom ing
Ġj oin
im ages
og g
D D
Ġvol ume
ĠĠĠ Ċ
Ġr ules
tem plate
ol es
c ial
d et
Ġread ing
Ġqu ite
Ġc ause
ĠS ociety
b ool
W indow
199 4
ĠM ex
H ttp
yn ch
Ġchall eng
Ġchar ge
ĠDiv ision
Ġe igen
ĠR oyal
all s
G o
ĠS al
Ġset t
ro ot
ĠIs land
ĠMich ael
Ġsh ape
Ġact ual
prot otype
ĠF orm
ĠWh ite
styles heet
Ġhand le
ĠS T
r ics
Ġf ully
Ġd ed
Des cription
cl os
ur a
ĠC ong
Ġ ::
Ġ( "
M ore
Ġover all
M ar
R ev
Ġfin ancial
p atch
P A
z a
ĠAc adem
Ġm icro
ĠG old
Ġrem ain
Ġpro per
k ind
Ġt ag
9 1
ill a
Ġget ting
F O
Ġe ight
}} _
Ġstud ied
Ġwe b
Ġit er
Ġear lier
1 000
Ġresult ing
R ight
Ġill ustr
Ġem pty
R L
Ġstruct ures
Ġag o
Ġsong s
Ġres ources
Ġ _{
Ġs end
Ġno ise
Ġp anel
ong s
eth er
ĠAustral ian
tr ack
se cond
Ġn ature
L evel
6 3
Ġc a
AC K
ask et
Ġre con
ent ity
Ġv s
yn omial
en ge
Ġs ession
mer cial
() ->
ĠGo ogle
}} }
Ġre comm
Ġpres ence
Ġh yper
se y
Ġmin utes
Ġc ore
Ġrec over
ĠR E
En try
Config uration
ib er
C urrent
Ġf loat
Off set
Ġre nder
Ġw ave
Ġw ife
ĠD uring
Loc ation
g an
o om
ĠCl ub
Ġrecord ed
sh ould
Ġex plicit
Ġh yp
math scr
oun ter
ing u
al ed
8 2
Ġdef e
Ġst ay
199 2
Un it
ĉ Ġ
S cript
f g
Ġr ail
Ġschool s
ĠS k
Ġcho ose
J son
Ġte ach
ĠO ver
Ġad apt
Ġs witch
B O
duc ation
ĠM iss
S earch
Ġcour t
Ut ils
ĠO ther
] );
Ġrequ ires
p op
c over
E CT
ĠP re
Ġother wise
ur t
S l
G B
Ġun iform
Ġs plit
a fter
artifact Id
ex pected
Ġapplic ations
j o
ĠIn st
< \
Ġsub sequ
ĠB uild
olut e
R I
Ġin equ
Ġerr ors
et ime
w indow
Ġfinal ly
j oy
ad ow
ĠM us
text tt
197 0
Ġc ard
under line
Ġfig ure
P P
Ġsm ooth
Ġ ign
Ġinst it
t ml
res hold
un icip
ĠW il
Pos ition
tr m
Ġse ems
M y
% ;
Ġmar ried
Ġform ed
Ġl ack
b i
is ms
Ġf ix
Pro ject
^ -
Ġs amples
Ġb uffer
ms elves
Head er
ĠTex as
iver se
t ical
O ur
Cont rol
F C
f it
ĠF ile
b as
d rop
ir ing
ĠD an
Ġre li
Ġcoun ter
Ġm ount
tex trm
Ġsuff icient
res ents
Ġcl uster
subset eq
ro ad
Ġthe orem
Ġredu ced
c ache
Ġunc ertain
ig inal
Z E
um in
Ġh ous
ent al
-- -
B S
ĠAcc ording
ĠG a
Ġsc ient
ĠR ob
IN E
ĠT O
t im
ĠAn n
Ġinter action
ĠRuss ian
im ary
He ight
6 2
c at
it z
u int
4 00
ĠT om
Ġext ension
199 3
in y
Ġet c
Ġdeterm ine
Ġmin imum
mult icol
Ġmiss ing
re al
Ġpro file
ot ion
elop ment
b uffer
S he
c ard
Ġatt ention
Ġthe mselves
Ġch urch
Ġw ide
Ġrun s
b al
T I
Ġit ems
ĠF in
t ask
Ġb al
as hed
Ġprob ably
min us
Ġn orm
i h
eta il
ĠO per
ĠCh inese
Ġarg uments
uct ure
g ate
% %
Ġmet ric
Ġl en
Ġj ournal
Ġorig in
Ġinterest ing
Th read
ĠSup er
g s
Ġpl aces
ed y
Ġfor ms
D A
b ullet
Ġdirect ed
Ġeas ily
ĠIn c
ap se
s ystem
multicol umn
Ġo w
bit r
6 1
ĠT own
7 4
7 3
Ġw oman
Ġm ut
ĠP o
Ġmean ing
Ġbir th
Ġs ports
Ġtr ain
dev ice
re me
group Id
f ess
IG N
ail ed
Ġ{ }
Ġpress ure
Ġg overn
Ġoff set
Ġon es
Ġse ven
ĠM em
8 3
D irect
B J
ĠG reat
Ġstr ategy
at ial
F ont
re es
oc ation
O p
act or
Ġnot hing
ct x
on om
Inter face
Ġpl ant
Ġsche me
ĠH en
Ġask ed
C opy
Ġappe ared
b order
to ken
v ector
Ġbeliev e
P ort
ĠRober t
Ġuse ful
Em pty
ĠAfr ican
Ġwrit er
Ġw ays
ĠC reate
al a
Ġfact ors
ĠG ames
pro d
Ġin sp
Ġre pe
ĠCent ral
por ary
Ġd ram
Ġv an
L S
r ange
Ġre ach
The ta
Ġconst it
ens us
Ġext ended
Ġoper ators
C M
or a
Ġc ategory
U til
Ġf ramework
Ch ange
Ġr ap
ic ens
Ġess ential
param eter
}^{ -
Ġ$\ {
d x
H ere
Ġs en
Ġad opt
7 9
ing er
Ġp urch
ĠD E
Ġbegin ning
Ġex am
Param s
Ġb ottom
Ġsl ow
Ġbl ue
ĠA ut
Ġappe ars
Ġparam s
Ġc op
Ġc ulture
re ct
D at
ĠH el
x x
iqu es
h igh
ist an
cript or
k m
Ġgener ally
Ġsc ope
Ġche m
ĠThom as
ĠCar ol
s cal
Ġm iddle
cri be
Pro cess
Ġclass ical
6 9
Ġw id
az ine
ĠF ore
Ġsc ience
Mod ule
8 1
Ġh ighest
Ġfor ces
Ġpre p
Ġdistribut ed
d eg
ĠT or
ĠPro gram
Ġcontinu ous
r ong
ill er
et te
Ġu int
ab ilities
ac ement
opl us
Ġident ity
ĠSc ott
ri al
au ge
Ġch ain
Ġim prove
S H
icro soft
d el
ĠSm ith
D ocument
boot strap
M O
& #
> ,
ĠWe b
Ġr ates
Ġp adding
Ġpr ice
ress ion
se ct
cl es
ann ed
res ource
Loc al
l anguage
ur i
ib ly
St at
S A
COL OR
ic ated
W rite
f ony
199 1
ĠReturn s
D I
E l
Ġr ad
Ġmed ical
V AL
7 1
Ġal t
Set tings
b efore
it a
Ġab ility
ĠGr and
Ġbas ic
Tr ack
S y
al ysis
ĠCan adian
iv ial
Ġcont aining
ä ¸
tern et
Ġlead s
w rit
d im
" ))
}} ,
ym fony
M enu
Ġprodu ce
X X
t n
: (
ug ins
Ġ( -
m i
P at
Ġc elebr
ag on
AR T
O ption
Ġder iv
Ġfam ilies
W E
if old
Ġvari ety
P T
s pect
m itted
Ġant i
sh ift
= (
Ġpre vent
er g
Ġcap ital
Ġch osen
Ġprocess es
ict or
al o
de bug
Ġhe nce
Ġcur ve
bl ack
Ġin fin
Ġstud ent
$ _
ĠM useum
Ġrepresent ed
ĠK e
Ġleg al
\ '
c ar
Ġquest ions
Ġn et
Ġstr ict
Ġepis ode
ĠL ife
M ult
ĠW estern
Ġappro p
= -
Con nection
Ġmap s
ategor ies
Ġl atter
li ament
Ġder ived
a uth
Ġgre ater
Ġm is
^{ -\
Ġan im
Ġman ufact
con s
Call back
Ġb ur
ĠE nd
Ġhigh ly
ĠMin ister
Ġ$ |
l ines
a ight
Ġsh ared
i pl
Ġdiscuss ed
ĠFranc is
ĠJ ew
Ġobserv ations
H ash
ic ons
doc s
Ġrepl aced
Ġfin ished
Ġre ached
w ar
Ġfl ux
Rec ord
E v
art s
Ġth erm
ĠL at
Ġcoll abor
ollow ing
25 5
Ġh um
ound s
Ġcompar ison
{ $
R ange
ĠChrist ian
Ġf avor
ĠT ur
Ġed itor
Ġsit uation
ĠC D
od er
Ġcomp act
Ġex amples
Ġgr ant
ĠRev iew
Ġinter view
ĠM ont
Ġemb edd
Ġdel iver
ant a
A m
foot note
ĠPro ject
Ġcle an
Ġrece ive
Ġgener ate
Ġneigh bor
Ġequ ip
Ġat tribute
ĠM odel
Ġparticular ly
Ġwant ed
at re
ig er
N one
if est
Ġpol ynomial
ĠI S
ĠH istory
Ġexact ly
h ash
Ġsh ift
Ġsl ight
Ġrep resents
s v
Ġper fect
en v
Ġde ad
w est
av ity
h ad
ic ago
omorph ism
Ġle ave
du ction
at ically
Ġrel ig
umn i
Ġst ated
Ġcon sequ
trans form
iction ary
Ġst eps
urs or
adi us
D own
Ġp ackage
Ġelect ric
Ġactiv ities
Ġman ager
Ġg old
l am
ĠB ig
In st
ĠB ank
c ur
Ġ> =
ĠO R
ro om
os ing
AP I
") );
Ġto ken
v est
m ake
Ġvert ex
def inition
Ġ util
L eft
Ġ* )
M atch
ĠĠĠĠĠĠĠĠĠĠĠĠĠĠĠĠ ĠĠĠĠĠ
Ġtr ade
Ġevery thing
Ġsurv ey
Ġp en
Ġass ist
ar ant
ĠFr ank
Ġcom pl
ell ar
=" /
g reg
foot er
_ +
Ġtest s
; ->
atal og
ro t
c p
m ode
ĠJ ournal
Ġset tings
L I
Ġt er
ick s
Ġin cor
Ġdatas et
att ice
ĠC re
Ġ[ '
Ġg reen
ĠHam ilton
ĠY our
ĠSt ar
or ial
Ġtrad itional
Ġth reat
ĠA v
ĠB G
Ġrem aining
AL L
Pro perties
tain s
Ġweek s
ev en
Ġshow ed
Ġany thing
com ing
ud d
ĠVir gin
c oll
Ġcomplet ely
or ation
Ġbe y
set minus
) |
os h
ĠC ath
Ġdig ital
PE CT
ĠAl so
D ep
Ġlist ed
Result s
su ccess
' ],
rom e
Ġbro ught
Ġmeasure d
D IR
D ir
ew idth
ynam ic
}} _{
Ġen joy
Ġl ib
Ġorgan ization
ens ions
Ġfri ends
asket ball
is l
P L
: \
Ġbey ond
wh ile
Ġmot ion
U M
ĠZ eal
Nav Bar
Ġex c
ĠM ap
and a
aw s
Ġdat abase
Ġsp aces
Ġinter pret
ĠR un
Ġ( $\
Ġc ivil
Ġexp ansion
Pro t
Ġtry ing
Ġda ughter
d f
u an
ol f
b ind
Ġsignificant ly
Ġproject s
Ġaff ect
ot ing
Ġcon cent
com ponent
ĠC amp
Ġdi agram
Ġgo es
b an
Ġra ise
d irect
Ġredu ce
ĠFound ation
i ant
as ure
ĠC heck
ĠU nder
ann els
Ġident ified
r or
ĠJapan ese
ĠSec ond
Ġbound ed
Test s
Ġle ague
ĠG L
Ġp ert
e ch
Ġestim ated
Ġar bitr
wh ite
Ġagre ement
co pe
U se
ĠKing dom
th let
ĠS un
Ġp ull
Ġnear ly
Ġfem ale
ĠB ill
av ed
af e
ĠJ ose
ĠEx ception
' m
h ouse
out e
R ed
i pe
ourn ament
Ġass ess
ĠComm ission
ĠZeal and
Ġdynam ics
d elete
\ }
ul s
re land
k er
Ġimmedi ately
in ternal
Ġcons ists
j oin
Ġk illed
ĠV er
Ġsy nt
fl ict
Ser ial
() :
Ġstr aight
E Q
Ġh ope
Ġprogram s
end ar
c z
Or der
Ġl ock
ĠL ong
Ġf oot
Ġrele vant
Ġex tract
in em
Ġco ach
re nder
S ession
Ġx ml
s ur
ĠP lay
Ġget s
196 0
Ġtr a
re y
app ed
ĠR ock
As ync
Ġnetwork s
ĠT HE
Ġl ives
ĠLou is
ĠR el
roll ed
il arly
ici ency
ĠM o
rop y
Ġinteg er
Ġoff ers
Ġpartic le
ad y
ĠFl or
C al
ĠAcadem y
= #
Ġvis ual
Ġund efined
Ġ\ ;
p ers
ir us
Ġt it
ĠB ase
Col lection
P ass
az z
j a
Ġmov ie
ak ers
ĠT wo
ĠG ener
Ġdec ided
Ġimplement ation
er ies
struct or
Ġradi us
is hes
inter face
Ġl ibrary
in f
omet ric
Ġform ula
ig an
Ġpl aced
Ġ" \
ĠF urther
Ġ$ {
ĠK ore
Ġexper iments
Ġpl ot
ĠM el
b ing
Ġsc atter
198 9
Ġmeet ing
ĠT op
Ġse ek
S chema
Ġe cho
Ġprot ect
Ġdise ase
ĠW omen
Ġe arn
Ġmov ement
f aces
d agger
Ġtem plate
Ġocc up
Ġs cript
ari able
Ġform ation
c opy
Ġpart ners
ĠG overnment
N e
r ad
ac cess
Ġlead er
cl ick
st ep
ip al
lim its
Ġres olution
Ġover ride
ell a
Ġdr ug
Ġcomp ute
Ġbe aut
Ġfour th
Ġpartic les
ĠT imes
Ġdepend s
typ es
Ġsim pl
N on
u ations
ix el
S ign
ĠM ost
Ġc os
S k
Ġcontr ast
p o
Ġun known
Ġa ctions
Ġtest ing
D S
=" _
Ġmin im
sh ire
T im
Ġart ists
t ure
le ep
Ġen h
Ġj av
Ġ Î
ĠD en
it ation
s end
ĠBo ard
k l
Ġcaus ed
Ġeconom ic
Ġp or
ĠIs ra
big g
re q
Ġcon vert
ĠL os
Ġevent ually
Ġrem oved
Ġart ist
Ġpol ar
Ġfil ename
Ġ$ [
er c
P op
ST R
ĠH ill
ĠD ate
Ġapprox imately
am ing
Ġconsist ent
Ġcontribut ion
T ER
ĠAs sembly
ĠIt alian
Ġmat ches
ond s
Ġpl ane
Ġin fo
ĠP eter
ogg le
hes is
Ġgalax ies
Ġmov ing
olog ies
Ġp ark
w edge
Ġs ometimes
c ut
198 8
add ress
Ġdest roy
================ ================
w s
ed s
if ies
Ġhas h
Ġsp ent
Ġs quare
P tr
ĠU s
ind er
Ġmention ed
L ong
Ġsec ret
ĠRuss ia
tribut ion
to String
St ore
Ġlat est
ĠSt ep
ĠC all
Ġsh ot
ut y
ĠU kr
Ġsome one
Ġb us
d est
Ġgener ation
z ero
as y
ific ations
How ever
U P
: "
ond er
~~ ~~
ĠM ass
erv ation
Ġc ook
Ġis n
ĠRec ords
reed om
med ia
Ġh arm
Ġsp read
ap ers
Ġe mail
Ar t
col on
Ġe ast
it iz
Ġpre t
ĠH istor
pro duct
Int eger
j i
ĠM ax
Ġro ute
_ *
Ġw orth
ĠF ield
Ġst ories
ĠChar les
es h
Ø §
Ġd ou
ir al
i en
Ġocc ur
Ġopt imal
ick er
A c
Ġem ission
ir med
Ġfound ed
as tern
at o
urre n
ĠG en
N E
Ġdem and
m os
Ġf air
align ed
' ve
Ġdist inct
g lobal
ĠN etwork
ev e
oll ary
Ġnot ed
Ġcl in
f ull
## #
s ort
Ġg un
Ġaccur acy
Ġplay s
Ġm aster
ĠK ey
Ġa mb
Ġqu arter
h om
ĠC ON
Ġin ner
Ġla un
Ġrec ords
P H
ic ine
lin ewidth
ic ity
ell ig
Ġpur pose
Ġmeas ures
M ark
Ġt ouch
Ġas pect
Ġcompet ition
Ġsatisf ies
im in
Ġcol lege
Ex pression
Ġs ave
org an
ĠK n
if ically
Ġcom mercial
ĠL and
Wh ile
D L
Ġdet ection
ar c
Ġapprox imation
Ġag ent
t f
al d
Ġw est
v as
it ors
Ġcap acity
_{ {\
Ġ$ -
ad s
ĠDirect or
S um
Ġsur round
ĠPar is
v ey
Ġc orn
ĠB usiness
Ġliter ature
Ġquick ly
Ã³ n
Ġw ind
ĠR ail
Ġparent s
p anel
sy ch
m ut
ul k
ĠTr ue
ĠRich ard
Ġth read
Ġsaf ety
Hel per
Ġauth ors
( :
ĠAl though
T itle
m aterial
), \
Ġmin or
du le
Ġgiv ing
Im pl
ynch ron
Ġpl ans
Ġj oint
' \
block List
Ġass ign
ms g
Ġm achine
er ry
Ġexperiment al
ĠE qu
ĠComm ittee
Ġm olec
Ġhe avy
as er
ĠB i
ĠIt s
orn ing
h over
ĠT re
Ġsc ene
ĠC am
ĠS und
Ġpr iv
Ġsum mer
V ector
Ġgr and
ĠCh icago
S u
Ġsay ing
k et
ad er
Ġbr anch
Ġe lected
irc raft
gorith ms
cont in
T ool
ar l
Ġadv ant
pl ugin
ĠEX PECT
ĠĠĠĠĠĠ Ċ
ex ports
Ġfra ction
Ġpol y
198 7
Ġb rief
ag raph
ĠT im
Ġmeasure ments
Ġinflu ence
Ġsymmet ry
Ap plication
Refer ence
W S
ĠTr ump
ĠE ducation
ven ue
16 0
Ġent er
OR T
Ġex ternal
ĠBG COLOR
Ġtrans action
pos es
ol a
or ter
r s
Ġ| \
Ġsepar ate
M C
Ġdec om
Ġin form
' _
Ġang le
ell ed
Ġprovid ing
vir t
-- >
U B
Ġgo als
v ed
ent y
ĠM ath
Ġturn ed
ĠI ll
ĠSum mer
Ġp refer
Ġ} )
Ġim ag
The se
Ġcalcul ated
ĠCong ress
U LT
Ġw aves
or al
Q ue
Ġcall s
am m
Ġindividual s
Ġalbum s
N ames
all ery
Ġm ur
if fer
y an
Ġinequ ality
; /
equ als
I ter
ĠPro position
Ġgu itar
Ġsim ulations
Tem plate
as tr
ĠEng ine
Ġcommun ities
ERR OR
Ġcomput er
* {
c ategory
se ud
leg al
Ġpo or
Ġappoint ed
Ġcl oud
Ġdeta il
Ġst ack
Ġn om
ĠA ust
Ġd u
Ġl oop
result s
Ġs ch
Ġopen ing
ĠL ake
ĠM ethod
Ġd ual
ol id
G E
fr am
ĠAt l
ĠFlor ida
Ġdis k
Ġsit es
Ġproced ure
Com ple
ĠF ootball
ic ients
hen s
f ocus
ĠAng eles
est ed
co q
ish er
Ġg auge
Ġincre ases
Ġcar ry
a ver
Ġnumer ical
field s
Ġbr and
S w
Ġcl ust
Ġbuild ings
Ġin tr
M ain
Ġexist ence
N um
AT H
Ġcontain er
ĠF ace
Ġl i
I con
ĠOr der
ĠS il
T V
co in
A pi
ig ration
c lear
Ġed ges
c f
ĠE ach
Ġconstr aints
P arent
s ession
k in
el er
ĠI reland
raz il
Ġ\ (
ĠM il
Ġcandid ate
Param eters
ang ing
p adding
ĠGe org
Ġde lete
ĠAss ert
Ġstr ateg
Ġs al
sub figure
est amp
c ustom
ma zon
Ġevery one
Ġmoment um
E ach
Ġoriginal ly
15 0
Fig ure
Ġcomb ination
Dev ice
Ð° Ð
Ġapprop riate
E C
O M
he lp
ĠP an
Cl ick
B R
_{ -
rodu ction
T C
198 6
R ender
b el
S ION
set tings
Ġc ert
Oper ation
H ost
ĠH ence
ult s
ĠOff ice
R ect
v ision
}} (\
Ġmajor ity
Ġref lect
S L
ĠSh ow
n el
ex port
Ġcomb ined
V er
od ay
ĠMore over
ĠFor ce
ĠN ame
Ġident ify
h ab
Ġspect ral
Ã ¨
und red
O ther
ar ian
ĠS ocial
olv es
Ġon to
Ġvert ices
) }(
Ġcorrespond s
Ġthe ore
Ã §
Ġbro ther
et ry
ow ers
Ġsim ulation
Ex p
Ä ģ
em ail
An y
Ġcomp are
198 4
inst all
dis abled
and emic
mod ules
Met adata
ph one
ĠR equ
ĠL ib
Ġcre ating
Ġsur pr
depend ency
as i
Ġv oice
Ġm ission
ĠG ame
Ġ ut
Ġcou ple
h aps
ĠU se
id ers
pos ite
ĠD u
k o
Ġac adem
n eg
C ore
m ann
Class es
Ġfl ag
ud get
ĠĠĠĠĠĠĠĠĠĠĠĠĠĠĠĠ ĠĠĠĠ
anc ing
ĠB as
Se ction
OR D
os is
ĠE arth
Ġm ixed
we et
ip eline
Ġwork ers
Ġun ivers
ĠB rown
ck now
; "
ĠV ictor
z ing
! !
up le
Ġre ports
ĠP et
ĠT em
; <
Ġcorre lation
G ET
In valid
S ymfony
Ġsh oot
H as
ob s
od ed
fram ework
ĠAr ts
ĠB ur
onal d
Ġc ool
M D
Ġdom in
Ġprot ocol
ĠO h
ust ain
Ġstreng th
ex ception
ĠC ast
m c
F ound
per p
c ases
sh ort
Ġsp atial
C or
} %
> ();
' .
ĠL ine
198 5
,\ ,
st o
Ġrem ov
Ġv acc
he m
_{ (
ĠP enn
Ob j
n y
I l
ĠS pr
Ġam plit
al g
' ll
ri end
Ġc ache
e an
hand le
D raw
ank s
AN D
Ġst ations
og ene
Ġcoupl ing
Ġseg ment
f n
r ices
Ġpre m
ĠB re
O K
wid get
Val ues
Ġhead er
r ate
ĠDev elopment
Ġpair s
ĠF re
k ins
Ġ{ };
com ment
imens ions
v a
hold er
f ound
w a
Ġunderstand ing
b u
}$ -
ĠMed ia
Ġt ensor
ĠTe am
d ouble
Ġtechn iques
Ġp an
ĠD et
u ce
Ġtool s
Ġn ative
ĠĠĠĠĠĠĠĠĠĠĠĠĠĠĠĠ ĠĠ
h s
v m
Ġ er
r ich
ĠĠĠĠĠĠĠĠĠĠĠĠĠĠĠĠ ĠĠĠĠĠĠĠĠĠĠĠĠĠĠĠĠĠĠĠĠĠĠĠ
ĠP eople
TE D
sh ot
st ore
ĠMex ico
Ġeff icient
Ġs ampl
ĠM ur
Ġt or
ĠCh ild
web kit
Ġ icon
Ġp ri
Ġf if
annot ation
Ġp oll
Ġtyp ically
cl oud
ĠO p
Ġh op
Ġmaterial s
)\ ,
ut ch
ĠCath olic
ĠVirgin ia
G S
) ^{\
he mat
Ġb inary
Ġun ion
Ġassum ption
form s
Ġdr ive
Ġdep th
Ġst able
Ġro ll
Ġbu y
ir a
Ġserv e
im a
Ġcal c
> .
Ġw or
ĠP ubl
al i
Ġp ush
pl ugins
urre d
OR M
Ġdiscuss ion
on a
Ġopport unity
Ġfl at
Ġh idden
ne ctions
Ġser ious
ĠH ot
g a
l ig
Ġcy cle
Ġrespons ible
Ġtask s
Ġ eth
P ackage
def ined
Ġcrit ic
ĠA R
Ġst orage
S ing
Ġconstruct ed
ir ls
Ġcl imate
d ist
Ġwin ning
Ġmost ly
v ol
Ġpar se
="../../ ../
Ġpos itions
ĠM ad
Ġh ydro
ĠSp anish
ĠFil m
ĠA tt
ro ph
Ġfootball ers
Ġf arm
by te
p ower
and ra
Ġr ing
Ġrel atively
1 20
ĠJ ul
Ġtr aff
Read er
Ġse a
b its
Ġby te
Ġp iece
Ġdes pite
ĠL i
Ġs ector
li e
sh all
ram es
ĠT our
um s
St ack
Ġcar ried
") ]
Ġenc our
ĠF estival
Ġcan cer
for all
i ro
con nect
' >
Ġ+ \
C I
Ġf ans
are n
equ al
c are
Ġro ut
Ġext rem
J ohn
ĠSec ret
L P
Ġf ine
Ġcomput ed
Ġl attice
Ġansw er
ud io
Ġal umni
ell i
Ġinv oke
L a
clus ive
ian a
Ġcle arly
ĠN OT
pe ed
Ġarbitr ary
Ġinteg ral
ament al
ĠL O
ov a
Ġla unch
Ġslight ly
l ers
Ġshow ing
put e
ĠG ood
agn ost
Ġtr ust
rec ord
up s
D om
Ġth reshold
Ġw rong
Ġlaun ched
Ġst ock
Ġdirect ory
Ġform al
point s
Hand le
ĠJ SON
Ġappro aches
Ġdec ay
ĠP y
Ġ} \
re place
E q
V ar
Ġann ual
ĠYou ng
Sh ow
Bo olean
Ġinit i
Ġcoeff icients
Ġb lood
Def inition
ĠMart in
Arg s
Ġrestr ict
es ter
ock ey
Ġf irm
un ct
Ġow ner
Y ear
ĠUS A
ent er
st at
m iss
Ġw ild
ĠHT ML
ack et
ĠComm un
ic ations
Ġv oc
ins ert
as ion
F alse
f ly
Ġupd ated
Ġprop ag
rom ise
Ġ$ .
ap plication
Arg ument
Ġfeature d
A ME
p ool
Ġm ask
m ic
ĠS ervices
Ġp hen
reg ion
198 3
Ġth r
19 50
) _{
ĠO l
is ters
h y
P erson
Ġrem ained
? âĢĿ
ĠV is
Ġdev ices
l ook
ĠHen ry
ful ly
ĠU ser
ĠRep ort
on ym
p icture
Ġdiffer ences
D elete
-------------------------------- --------------------------------
H z
ĠB et
ĠOlymp ics
ĠE vent
ĠI P
Ġestim ates
sub subsection
at i
Ġan c
Ġinter val
ĠCarol ina
Ġax is
aut o
P arser
Ġo s
Ġh ar
ic ies
eff ect
ri p
Ġeffort s
Ġp ure
B ody
p ay
Ġbroad cast
Ġar m
}^ *
ĠL ove
} "
ĠL ibrary
Ġsc ored
ĠV iew
HT ML
Ġf ederal
CT ION
Ġv ac
Ġp ages
ĠPro fess
Ġclass ification
Ġcontribut ions
Ġ ul
Ġvert ical
Ġgr id
virt ual
ĠIt aly
Ġin her
Ġun less
=" "
ĠM a
( *
fr ont
Ġabs olute
ĠCol or
id get
Ġdet ect
all ow
n ap
. ;
Ġf elt
ĠE conom
Ġgrow ing
By tes
M I
Ġaltern ative
at ible
Ġnot ice
ĠSc ot
Ġrap id
Ġhand s
M ock
Ġb illion
Ġst ress
Ġs qu
bl ue
ĠO ld
Ġde b
in itial
Ġ' /
Ġcomm it
Ġintrodu ce
Ġdeta iled
Ġresp ond
Ġw ood
he tic
S R
G C
Ġmod es
rec ated
ol k
Ġor ient
\! \!
ple ments
ash ion
Ġex change
ĠL ee
Ġ( '
ĠThe ir
Ġexpress ed
E rr
' ))
Ġv ote
' }
Ġmeasure ment
est s
ak a
Ġw rap
Ġal gorithms
C re
ĠL u
ograph ic
Ġ+ +
ĠCh ief
Ġap i
pm atrix
ard en
ish op
r ical
D i
198 2
25 6
D R
ĠSw ed
Ġblock s
ta il
mult i
ĠL in
ĠB ob
Ġsub set
ol ver
By te
Ġc at
Ġins ert
Ġfail ure
g est
T ab
` .
bo olean
Ġat tract
U RE
ĠH ome
go ing
ĠA wards
Ġent ity
Ġj son
ac le
ĠM ov
Ġscal ar
ri age
Ġdel ay
ĠWe ek
if ul
Ġarchitect ure
pe ople
K ind
st able
ĠN O
Ġfore ign
Ġal one
ĠP ac
item s
Ġac com
SE T
F urther
Ġpro ceed
Ġsem i
ĠK h
B P
Ġvis ible
ly ph
Ch anged
m ock
ĠE lect
Ġcur ves
ĉĉĉ Ċ
ist ent
Ġb attle
ang ular
Ġachiev e
Ġlet ter
ĠG lobal
st ein
Ġold er
Ġwh om
og en
Dec l
text sc
r adius
Ġdiv ision
Ġprocess ing
gr ade
Ġin nov
il ib
Ġpert urb
n one
Ġw allet
ĠU N
ĠE rror
had oop
Ġa ircraft
ĠI II
Ġo dd
Ġgu arant
ĠH on
ĠA ND
ce an
Ġcommun ication
Ġp le
en um
Ġl if
fo o
Ġm ill
Ġaward ed
Ġn amespace
Ġact or
ab il
) ^{-
at tribute
w an
Ġtrans formation
s ime
.~ (\
Ġh ospital
Ġs ociety
ĠF ort
stand ing
Ġabs or
Ġcost s
Ġinter actions
Ġr ise
Ġbehav i
m o
Ġassum ed
I E
ĠA N
sime q
ist ical
Ġinv ariant
in line
ĠA L
Ġend ed
ĠV alue
Ġtre nd
j e
Ġby tes
Ġv ary
Ġread y
Ġanal og
De bug
Ġp andemic
Ex ecut
ĠH aw
ĠIn formation
Ass ert
Ġide al
ĠS u
ed it
sq l
r ine
Ġcont ained
ic ed
Act ive
d ict
Ġdistribut ions
Ġp p
j pg
I A
Ġin fr
Ġp y
ĠW al
R oot
Ġch ief
b re
Ġocc urs
anc er
ad min
ay lor
$ ).
ĠH and
Ġadd ing
Ġbut ton
ann er
=" ">
Ġbel ong
and ard
pect ive
Ġ$ $
ĠJ o
Ġcrit er
Acc ording
n umer
c hen
AC E
D oc
in et
ĠJ ac
Ġsing er
H ome
ploy ment
ian o
ĠI d
Ġdis s
ĠI O
M T
g ers
Ġra ised
Ġm unicip
ĠReg ister
F R
m aster
Ġsaf e
B efore
Ġtri al
Ġorgan izations
R ule
Ġw all
s che
Ġredu ction
Ġd og
197 9
D ialog
Ġm ock
key s
p a
D C
Ġar rest
Ġp ool
X ml
ĠP ower
sp ring
Ġn ation
Ġindic ates
Ġob vious
ust rial
Ġh ol
ĠW ell
AG E
Ġappear ance
plic ations
Ġhelp ed
ag onal
Ġsen ior
c ape
Ġpret ty
ĠT ext
Ġden otes
ig in
ĠMan agement
ĠP ak
ð Ł
Ġrec all
ub y
ĠTechn ology
W riter
En abled
Ġhe at
Ġh undred
r f
ĠAr ab
D et
Ġprov ed
Ġjav ax
Ġstud io
sup er
Ġpart ner
Ġinterest ed
im pl
ĠFace book
AT A
Ġcom ments
IT Y
M B
H S
C ustom
Ġindic ate
__ (
m argin
Ġsus p
D P
ĠVal ley
Ġw at
Ġbecom ing
Ġch ance
Ġmed al
Back ground
t oggle
m en
Ġex cit
) ).
ĠSund ay
r ick
ĠL ie
Ġmod ified
Ġcon sole
end ix
ott ed
ff ect
ĠM ain
ĠT witter
Ġcirc le
Ġpar allel
angu ages
Ġr are
ĠMark et
Ġin line
ĠM P
Ġun signed
uck et
ĠJ im
reg ister
ner gy
us band
sc ape
im inal
st ats
Ġed ition
$ $\
Ġsp irit
Ġp lease
k g
ap y
pt on
Ġre asons
Ġincor por
Ġth ous
ĠB ack
il ation
ĠM os
ig ital
198 1
M ay
Ġb tn
ĠW ood
ï ¼
j ust
Ġcent re
pos s
ĠE p
b ot
st op
Ġcover ed
ell er
iv ery
ĠEn ter
U l
Ġcustom ers
ĠB oth
Ġex tr
} )$.
Ġt ournament
S ome
Ġ ice
atur day
Ġ= \
$ /
Ġachiev ed
St orage
ĠPl an
Ġadj ust
Ġg ap
f amily
gr id
ik i
Ġs ales
ĠT ra
sec ut
Ġsing ular
ĠB razil
Ġg irl
clud ed
it an
Ġmat rices
Ġoffer ed
el a
12 8
Ġrequire ments
Ġinitial ly
ĠC opy
s he
\| _{
In itial
Med ia
Ġj ourn
) {\
pass word
_ ;
Ġstrong ly
oth ing
ang o
Ġ< =
ĠM A
ud es
for ward
Ġown ers
Ġmechan ism
Ġfor ced
VER SION
cl aim
od ies
Mem bers
r ons
ul f
ĠJ un
ĠJ ud
Ġspect ra
ĠC ode
Ġr ul
) }{\
call back
Ġat tr
pl ot
os oph
ĠR am
Ġm orph
ab y
) "
tr i
ĠU sing
B ook
cm d
{ $\
Ġdepend ence
ĠC y
W A
j ar
ĠAs ia
Ġhyp ot
igh ter
b en
rem ark
id el
ost on
Ġtyp ical
Ġco ast
Ġreve aled
KE Y
adi um
Dis play
Ġrem ember
Ġso ft
Ð º
j query
ond ay
Ġo il
Ġle aving
Ġwrit ers
Ġch annels
g reen
Ġreg ime
Ġyield s
Ġth ick
n ames
) _
)\ \
s ite
=" @
ov iet
Ġinstit ut
Ġp aint
id ae
W rap
new command
ĠG al
)$ -
Ġbound s
ĠU RL
C F
. *
Ġph il
A tt
ĠS pecial
ition ally
Th us
On ly
ax is
u ous
Sec urity
Ġmus ical
\ _
l at
c uss
Ġc itiz
Ġmain ly
P lay
Ð »
Ġmass ive
C are
Acc ount
The y
ĠE ven
ĠJose ph
ult y
The orem
istr ation
Ġst ellar
ĠCent re
P RE
urren cy
Ġveh icle
h ere
not ation
Ġlook s
Ġb asketball
Ġpr ison
hent ication
Ġent ered
: #
ier arch
ĠS U
omorph ic
ec es
Ġrepl ace
let on
Con s
Ġfind ing
u er
$ ^{-
I X
W ill
Ġstart s
Ġcoordin ates
Ġsymmet ric
197 6
Ġstat istics
Ġcon flict
197 2
Ġall oc
Ġpart ition
? :
ĠC ross
Sup port
Ġser ial
Ġse ctions
Ġal leg
Ġ ),
Id ent
ad ing
ass ets
ts d
form ance
A U
~ $\
am in
Ġadvant age
Ġtraff ic
l ow
ĠF ree
Ġ{ $
Ġis land
al id
}} ^
map sto
Ġen able
ĠE mp
St ep
Ġman aged
S end
am ely
` ,
Ġdown load
Ġs chedul
Ġm sg
Ġpower ful
Ġin come
Ġrefer red
ĠJohn son
N etwork
con nection
Ġmatch ing
Ġkey s
ĠB u
it o
Ġmet al
ri um
Pol icy
l as
ĠJ ones
ĠFr iday
z z
ans as
197 8
D uring
Ġdef in
Ġoffic er
) ),
Ġhouse hold
ĠS aint
medi ate
ĠP oint
Ġstr ugg
ĠCon ference
p an
Ġch art
Ġdynam ic
sec urity
J SON
Ġide as
Ġh tml
12 3
Ġth er
", "
press ed
Ġmur der
Ġhapp en
Not es
al ing
M R
Ġany one
Ġk ing
ĠGa ussian
th read
ĠS O
Ġfore st
ed ia
on ical
Ġd aily
Ġis ol
ro ke
Ġsecond s
==== ==
im s
im it
Ġdr iver
lim it
Ġto ward
sh ape
Ġnumer ous
Ġdepend ing
ĠPh ys
Ġobserv e
not es
h ar
ari ance
}} ^{
t w
un ities
Ñ ĥ
Ġcre ation
z en
D T
pon ential
ĠG overn
s creen
By Id
ç ļ
Ġset up
dom ain
Ġm obile
FA ULT
197 5
Ġd b
] :
Ġconduct ed
Ġtr ail
Ġp icture
Ġl ies
aw a
od d
ĠComm unity
Ġpart ies
S ch
Ġ" /
ĠS ar
Ġtr ained
Ġph one
Trans action
197 7
C N
b ad
ĠH uman
Ġex port
Ġmin imal
ĠBl ue
çļ Ħ
D el
Act ivity
od ot
Ġse asons
add r
Ġre n
ev ents
Ġpro pos
ellig ence
u ctions
197 4
âĢĿ .
m ove
ĠP op
U sing
h ome
Ġ ens
Ġview s
Ġregard ing
ĠÂ £
ĠC ard
el ess
Ġwas n
Ġd raft
Ġres on
i ance
Ġf lex
Ġr an
Ġallow ing
t wo
amp ion
Ġcontin ues
ĠE r
Ġvers ions
Ġdes c
Ġconf irmed
k w
M OD
Ext ension
ce ived
an es
it ness
E arly
Ġchall enge
Ġke pt
t ik
Ġsp ot
u ing
Ġm essages
arg ument
van ia
Ġtechn ical
n etwork
Ġre tr
Ġpolitic ian
EX T
Ġnuc lear
Ġhe ard
ĠM ult
ĠOn ly
Ġinstall ed
ĠSt at
stit ut
Ġconver gence
Ġass igned
Ġg ain
h orizontal
Ġenc oding
iter al
is is
Ġdep artment
he ast
Ġfunction al
Ġf ill
Pro p
ĠIr an
ĠE very
Ġpro port
P AR
Ġcam era
In s
Ġoper ating
ad or
il ing
[ (
m ond
c pp
sc roll
Ġread er
Field s
ĠF inally
ar ia
ĠWilliam s
In v
ĠNor thern
Ġtr igger
Ch annel
y er
ĠS pec
F ix
Ġimport ance
Ġp urs
ĠIsra el
ĠW ay
g it
Ġn ine
p erson
@ "
à ¥
call ed
Ġloc ations
ĠL ord
Ġlim its
ĠM any
pro position
[ :
Ġconsider ing
Ġl abor
urb an
ch annel
ra wn
ĠHe ad
196 8
Ġc ities
Ġat tributes
ĠA re
ĠCol umb
Ġsum mary
it ivity
EN D
ĠMich igan
Ġe yes
pro file
ific ate
Ġsatisf y
Ġsup ply
Ġro ugh
Ġ&= &
Ġr iver
Ġhistor ical
Ġmon itor
f old
orn ey
Ġ ^
L java
Ġchem ical
Que ue
Ġindu ced
ĠP ass
ĠC A
Ġ% }
e ach
Ġeff iciency
pro perties
ib li
ĠV ersion
A v
s uch
ĠN avy
Ġ( *
ĠJ oe
= >
Ġopt ical
M sg
Ġsh op
f ix
cre t
s ch
i ate
197 3
cont roller
_ -
Ġtr uth
w er
Con str
Ġassert Equals
Ġag reed
A uthor
Ä ĩ
Ġre ct
6 00
Ġorder ed
p ot
Ġcl ick
Ġfam ous
ĠT ele
Ġdeg rees
Ġas ympt
e er
Ġre ject
Ġb right
Ġimplement ed
Ġf reedom
Ġc ov
Ġm apping
tribut ed
Ġh usband
Ġprodu cer
R R
FI LE
Ġle aves
Ġp aid
Ġclaim s
ĠL ead
Ev ents
ĠB ow
ĠS ir
ilib rium
ap es
Eng lish
U ID
et ri
) },
Ġa ware
ĠB ecause
Ġp i
Ġv ectors
Ġman ifold
Ġb ill
__ __
ĠAn y
H igh
Ġdifferent ial
t or
Ġconstr aint
ĠIr ish
ĠC a
Ġch air
il a
B E
L ock
Ġemploy ees
ĠĠĠĠĠĠĠĠĠĠĠĠĠĠĠĠ ĠĠĠĠĠĠĠĠĠ
Ġfund amental
ĠM ah
ĠG i
Ġcomm ission
Ġdist ingu
$ ;
g ency
Ġm orning
Ġeval uation
ĠA uthor
v s
} &
g ame
Ġneighbor hood
tx t
sy l
P erm
25 0
Ġext end
ĠPar liament
Ġlay ers
Ġf av
T ABLE
ele ase
Item s
sc ill
Con st
Ġt al
l ate
t ip
}) +
f i
"> &
V ol
Ġb in
Ġbe am
l g
ĠIs lam
Ġsuccessful ly
Ġl ived
ĠD own
ph as
Ġact ress
ĠCor por
Ġf ish
Ġen abled
Ġk ernel
Pat tern
are a
el d
Ġfocus ed
D em
ĠT er
Ġplan et
Ġgalax y
Ġtrack s
ĠN av
ex ists
t otal
st one
M eta
M at
Ġimprov ed
ĠM en
AR Y
Ġnuc le
Ġcon vers
Ġcy cl
() {
Y k
Ġr ac
se lected
ur ies
Ġad vert
' (
and on
Ġrest aur
W indows
w hen
S M
param eters
ĠC oll
| _{
n n
ĠV an
Ġobserv ation
m ma
ĠSec urity
Ġt ail
Ġcandid ates
Ġrecomm end
ĠR adio
e z
Ġsol ar
197 1
Ġdiscover ed
b ell
Ġter rit
uz z
Ġl icense
ĠW ales
w ords
cknow led
astr ucture
Ġpat ient
W orld
Ġop in
Ġse at
log ger
ĠP M
Ġhigh light
eng er
Ġown ed
ag r
Ġl ab
ĠDef ault
est ion
âĢ ĺ
\ {\
Ġcor por
Ġexpl ained
Ġqu adr
Y i
P ool
Ġ ult
1 10
pr imary
ĠChampionship s
Ġf loor
b ec
str a
B it
Ġapp arent
urs day
c b
script style
Ġsh ock
Ġtri ed
r ase
P ublic
ĠL y
ĠA mazon
ĠPol icy
U LE
em porary
. __
Ġmagn itude
ĠF alse
Ġsuggest ed
' d
Ġp il
ĠG re
Ġtre es
ap pe
i y
H R
F ull
Ġnew sp
proto buf
art icle
id en
S N
pos itory
Ġaud io
ĠHamilton ian
th rows
Ġtechn ique
pro du
ĠW ater
ĠA ction
ĠP rem
Ġnot ation
W idget
ĠC are
T A
Ġres idents
Ġc ultural
Ġthem e
Ġus ual
syl vania
ĠAp ple
Ġw ants
ip age
Ġs outhern
tik z
Ġtr av
Ġbe at
Ġphen omen
Ġtherm al
h u
Ġwe ap
os itory
Ġtr ace
stit ution
p ir
eg r
Ġart icles
em y
J Q
Ġmark ed
Ġcon ven
ĠOr gan
Ġmed ium
Ġdam age
ĠP ri
ch ain
ĠSp ain
ĠS ports
196 9
Ġm ac
m I
un signed
Ġattack s
Ġsign ature
is er
Ġh uge
Ġaw ait
w riter
Ġcolumn s
% )
ug by
Ġpl anning
s chema
Time out
n am
ogene ous
ĠL uc
Ġun iversity
ĠMed ical
Ġd imensions
ar ation
C ar
Ġang ular
TE ST
G en
it age
ĠS outhern
Ġfin ish
ent h
Ġexpl ain
J ob
ell o
Ġp m
Ġbal ance
key word
ĠK en
I MP
Ġocc urred
^{ +
enn is
Ġatt ended
z ed
M ENT
com ponents
ĠDes ign
Ġcall ing
l ife
w ild
I B
V M
ĠO x
Ġt end
19 40
Ġofficial s
Ġh ole
Ġclaim ed
Ġrepresent ing
tain ed
Ġunder lying
in ations
Ġvict ory
Ġ[ [
b ury
s ave
Ġrot ation
ĠFurther more
Ġc ounty
ĠDemocr atic
Ġaff ected
ide os
ĠN ight
Ġlearn ed
Ġded icated
en ess
Ġcon ference
Ġnor thern
anc el
A uth
ar se
aw n
Ġeconom y
Ġa head
c oh
Ġpred iction
Ġpl us
gy pt
O e
min ipage
% ,
Ġestablish ments
ĠP age
ĠW ed
display style
196 7
os a
} </
ĠH a
ĠF ed
Ġcon j
s en
if ts
ĠF und
P U
] ]
Ä ±
Ġoptim ization
P ATH
. '
op ic
ĠâĢ ¦
Ġag ree
n i
L C
T wo
Ġchalleng es
test s
ot on
Ġat mos
Ġcapt ure
ĠB ang
Ġab stract
Ġsol ve
ad el
Ġinstance of
} }$.
r at
ay a
ĠB ern
Ġpattern s
Ġturn s
8 00
ĠAs ian
Ġadministr ation
v in
eng ine
Ġgrad ient
ĠFrancis co
LO G
Ġinvest ment
ĠPac ific
ĠL ab
)) )
ele gate
, $
Des criptor
Ġch ampionship
Ġdram a
G R
() ).
ĠSen ate
Ġb rowser
c am
d y
En c
( !
Ġo scill
ĠUp date
lo op
Ġfund ing
li k
ĠSt art
Ġf le
t ed
Ġsu c
Ġord ers
Ġexper t
[ $
Ġfe et
Ġequip ment
d em
Ġd ie
Ġscatter ing
ĠS aturday
ĠB oston
Ġsuggest s
Ġatt end
w all
ĠPol ice
ex ternal
Log ger
Ġ ×
Go ogle
b ro
est ic
Ed itor
drop down
Ġbr ain
br id
} }$,
Ġsk ills
e cho
ĠM ajor
ĠUkr aine
S m
Ġent ries
Ġ ener
Fe ature
Ġinstr ument
Ġspe ak
Ġcol lected
Ġcalcul ate
ĠJ on
S cale
Ġ[ ];
at uring
ĠS and
Load er
Trans form
il ly
}{ (
Ġact s
Ġsom ew
ron ic
K oi
ĠC ivil
Ġdet ected
l arge
ath an
ĠIn itial
ble m
X T
}( {\
Ġbenef its
i able
Ġh our
Ġchang ing
} )$,
ent ed
Ġr ich
ĠSc iences
Ġre ality
ĠEx ecut
des c
Ġrec ording
196 4
Ġc ult
Ġs ell
ĠI R
Com par
es ian
//////////////// ////////////////
ĠĠĠĠĠĠĠĠĠĠĠĠĠĠĠĠ ĠĠĠĠĠĠ
act ic
ub V
iv ation
t ics
Ġr aw
Ġpol icies
P anel
A F
ĠĠĠĠĠĠĠĠĠĠĠĠĠĠĠĠĠĠĠĠĠĠĠĠĠĠĠĠĠĠĠĠ ĠĠĠĠĠĠĠĠĠĠĠĠĠĠĠĠĠĠĠĠĠĠĠĠĠĠĠĠĠĠĠĠ
Ġrelig ious
ĠOh io
o ir
Ġlaw s
Ġcomplex ity
que ue
JQ Yi
Ul I
c QL
ĠF amily
MN mI
tf Gu
Yk Koi
ubV tfGu
cQL BJ
YkKoi ubVtfGu
JQYi UlI
ĠW ild
ĠN umber
ĠIm age
ĠA ff
w ait
Ġmag azine
P M
us es
Ġaccept ed
ut f
19 45
Ġaud ience
YkKoiubVtfGu Oe
semb le
Ġwhere as
Ġcon clude
ĠL ocal
Ġdi am
Ġprote ction
r an
ĠW all
Ġbusiness es
Ġz one
Ġex cell
Ġcompos ed
ver b
av it
Ġint ended
ĠCar l
ĠA h
Ġserv ing
ĠG reek
N G
ĠM onday
Ġadopt ed
Ġver ify
import ant
Ġsecond ary
Ġf re
ĠRe al
b rowser
19 30
iz able
h ol
uck y
Ġdoc uments
Ġleaders hip
f ol
Ġ ri
ĠL ight
Ġbenef it
Ġe ye
on to
am i
ĠĠĠĠĠĠĠĠĠĠĠĠĠĠĠĠ ĠĠĠĠĠĠĠĠ
w orld
Ġvoc als
sub s
ost er
$ ~
Ġscen ario
ĠM iddle
M ember
ist ed
Ġtheore tical
Ġd ir
Ġuncertain ty
I ST
fl ags
P ay
ĠA ri
Å ¡
ur er
Ġad m
Ġmass es
Ġpath s
C ond
F inally
h bar
d p
Ġsuc ceed
Ġe q
Ġiss ued
Ġnav igation
Gr id
Ã £
ues day
Ġenvironment al
nes day
Ġinfin ite
Pro duct
ag ers
Ġge ometry
Ġb udget
L IC
In ternal
O pt
cc cc
Fil es
sum er
Ġben ch
Ġlabel s
un te
Ġc ars
B est
Ġdr iving
ĠM ot
ĠCE O
h ard
) +\
Ġcover age
Ġrem ark
ĠT aylor
M apping
w ater
Ġind eed
ĠL ast
s ince
Ġs un
Ġreg ional
in her
196 5
Ġinteg ration
Ġp et
Ġloc ally
Ġdep art
ĸ º
web pack
Ġp seud
sk y
ĠH arr
Ġme ant
Ġsupport s
Ġinvest igation
Ġoffic ers
F loat
In it
ĠC amb
Ġthan k
Ġhe ar
Ġrem ote
s el
G raph
ors hip
ĠAnd rew
m ass
Ġh ab
ĠW indows
con g
ĠEmp ire
n il
el come
per iment
ĠPenn sylvania
in ity
im b
ing ly
oper ation
Ġclin ical
Pr int
Ġsex ual
C ap
l aw
Ġend s
Ġdis pl
ĠC ro
ĠAb out
Int roduction
Ġeval uate
Ġb oy
circ le
ear s
Ġsub stant
Ġe lections
pre c
Ġdes ired
Ġp sych
NavBar Cell
B as
Ġexper i
Ġphys ics
d iff
Ġpr ime
Ġcalcul ations
Ġautom atically
ĠR o
ĠThe atre
Ġrob ust
Ġf resh
p et
å ı
)) );
cond ition
Ġhand ler
h idden
ĠT R
Ġd ro
Ġadv anced
() ));
Ġs ustain
Ġ= ========
Se lected
G lobal
196 6
config uration
- $
ins on
Ġt ab
ĠF unction
B I
ino is
ĠM id
ĠW ho
acc ount
Ġcar bon
ĠQue en
ĠH ospital
Ġwid ely
ĠInd ex
r idge
Ġs ides
Ġgraph s
ĠS E
ĠT ask
19 20
G eneral
Ġn g
Ġkn ew
ch er
Ġscal es
ock er
p resent
Ġcompos ition
ord ers
s witch
Ed it
M atrix
clus ions
h ow
UT F
Ġdevelop ing
assert Equals
Ġs yn
ĠGeorg ia
Ġsm art
Ġhapp y
d ependent
tr igger
ird s
Ġc row
Ġact ing
Ġ$ |\
Ġyou th
Ġfl ight
ĠS i
le an
'] )
er ial
D etails
ĠDan iel
ĠT w
Ġnot es
Ġclust ers
Ġst reet
ĠW in
is c
ĠF ar
F S
ĠCo ast
ĠBrit ain
burg h
IC E
Ġs ister
Ã ¢
or row
im ated
Ġg ather
Ġcalc ulation
Ġem phas
D on
ĠMc C
t an
) -\
Ġamplit ude
Ġdo or
ĠCh ris
Ġgen us
f ixed
ĠS oviet
om ent
Ġcons ult
Ġpur poses
un a
ĠP R
Ã ±
ĠJack son
Ġfac ilities
Ġm iles
ĠProv ince
Ġst ability
Ġcred it
Ġjob s
nav List
Ġa ver
ĠK r
ĠL ink
Ġexpl an
ev al
Ġdr ink
D ouble
RO M
ult ane
ON E
p red
ĠW is
ĠI l
Ġprote in
Ġopport unities
Ġs port
ĠM ike
ĠScot land
em on
Ġm enu
ant om
33 33
Ġc m
ĠS ol
Ġaccur ate
ĠF ire
Ġ ion
B rowser
Ġinv alid
Ġfl uct
epend ence
ĠS ign
ab eth
Ġexecut ive
B i
) )$
Ġ à¤
Sec ond
ep er
Ġw arm
Ġlook ed
Ġrequest s
ĠP aram
u v
ĠJ r
ct rine
Ġtw ice
Ġman ner
ch or
ĠN et
Ġpre par
a ug
Ġcon nections
Å į
r andom
$ ),
Ad apter
ind s
ur ance
ĠE lement
ĠSt e
Ġradi ation
MA X
Ġveh icles
Ġpor tr
Ġcorn er
Ġear th
Ġtell s
ĠSe a
Ġhapp ened
T T
ip ped
get Element
Ġdescri bes
Ġper haps
Gener ic
V D
uc ial
ĠJer sey
um es
Ġag greg
ĠO ption
ĠJ eff
Ġconf irm
Ġn arrow
SS ERT
Ġcomput ation
Ġf unc
type of
Ġfact ory
Ġassoci ation
Ġacadem ic
Ġreview s
T erm
ĠB ol
Ġd ream
am az
Ġwe ights
Ġinsp ired
ĠR h
ĠM u
Ġshe ll
J ava
Ġdiv ided
ĠJ ava
S cope
ymmet ric
Ġspe ech
Ġsum mar
ĠF ederal
ĠHistor ic
iven ess
Iter ator
ĠSt an
ĠStud ies
Ġsub group
Ġexpand ed
Th erefore
os ity
ĠR ay
Ġfig ures
ĠN Y
Ġim plements
ĠC R
Ġpro min
col Last
CH E
ĠK ong
Ġb log
Ġconv ex
h l
ict ures
ĠJew ish
at ar
Ġprinc ipal
Ġtre ated
Ġc ategories
Ġf an
ĠJust ice
agn etic
Ġsh ut
12 5
ĠL im
Comm on
Ġpre v
Ġsp an
Ġcomput ational
Ġp od
ist ence
IT E
Ġcol on
ĠE st
ĠC H
Ġbeliev ed
ĠAnd roid
SI ZE
up load
Ġposs ibly
ack s
Ġbeg ins
}$ )
N ational
f ail
p res
ĠEx t
Ġ ip
c ref
Pro xy
ĠS ta
Ġretr iev
Ġbr idge
to k
U L
Ġdef ense
S pace
S Y
ul i
out s
Ġar my
Ġinc ident
ac ent
Ġvari ation
ĠS pace
col First
: }
Ġneut r
Ġsu itable
ĠE nergy
Ġp itch
Ġag ents
ĠIn vest
ĠD at
Ġgener ic
B B
us et
Ñ ı
00 1
Ġs izes
ast e
Ġcoordin ate
en ant
Des c
Ġtop ic
Ġe lem
oc aml
- (
C G
=" $
Ġas ync
Cl ose
ĠA M
Ġmot or
J ECT
g ies
Ġtr ivial
play er
less sim
nt ax
ĠBro ad
18 0
Ġro les
o es
D uration
print f
Ġb atter
Ġc ref
tool s
Ġnear by
Fl ags
++ ;
Ġl ie
Ġtem por
Select or
Ġphot o
fe ature
Ab stract
c ert
ĠW alk
Rep ort
Sy mbol
ĠJ es
if iers
ĠK ent
ĠGu ide
Direct ory
y o
Ġbeaut iful
Ġd uration
Ġp al
ĠN E
end or
ĠChrist mas
ĠRep resent
Ġ Å
ed itor
Ġtrans lation
ĠB attle
Ġacqu ired
ĠP ath
R est
Ġf ashion
-> _
ential s
con tains
Ġre action
_ ,
Ġex ponential
Ġco q
Ġscal ing
ĠF inal
Ġb undle
Ġ il
ĠSup port
Ġwin ner
k t
Ġcan cell
Ġspec ifically
ĠB ell
S QL
f riend
ĠE th
Care er
or ough
pol y
Ġdis crete
Ġcharg ed
comple te
Ġf ellow
Ġd anger
tab s
ĠF our
Ġc old
Ġcont roller
* )
Ġinst ant
Ġexecut ion
Ġsatisf ying
Ġextrem ely
Ġexpl ore
10 1
ades h
ri e
ak i
ĠPak istan
ĠN on
Ġprinc iple
rit ical
is ely
Ġact ors
ĠS pe
ro le
og ram
Ġb ands
Ġpass ing
X ML
Ġpl ants
let ed
Ab out
r b
Su ccess
Ex pr
Ġperform ing
ĠW at
Lay er
J an
ĠW he
ĠM icrosoft
eli hood
Ġbuild er
Ġpro jection
up l
Ġanim als
Ġgu ide
}{ |
gener ated
) }_{
child ren
coll apse
=" ${
V ideo
Ġobject ive
Key s
ĠRepublic an
ĠTO DO
ĠComm and
Ġconc ert
< !
pl us
Ġl anguages
ic er
ĠT H
cl ip
oun try
Ġrepe ated
Ġprim arily
Ġlist en
âĢĿ ,
Ġapp lying
r ift
Ġtra ject
pl atform
Ar ch
] }
W R
am ber
_ ->
196 2
Ã£ o
Ġw onder
ur ations
Ġf lo
con v
ess ions
ĠN ode
196 3
ĠK im
Ġc er
âĢ ī
Prot ocol
ĠL ike
Ġstat istical
Ġab und
ĠAd v
D epend
Ġinv olving
ĠAd ministr
) --
ap ol
let s
Ġd ust
Ġdefe ated
ĠRe act
At tributes
To String
Pl ugin
Î ±
Ġadv ance
Ġpredict ed
Ġscient ific
com es
Ġex erc
Ġor th
L in
or i
all oc
ĠS om
En cod
Dat abase
ĠWil son
prot ected
Ġh y
ĠE gypt
Ġbo ost
S eg
ĠM aster
Ġle mma
ĠK ar
che ster
ul ator
Ġcaus es
Ġrail way
Ġw ish
Ġk ids
hand ler
Ġfind s
Ġb urn
n ic
Ġcommon ly
S ER
ach ment
ĠAn other
ĠTh ursday
Ġdec ades
ĠB a
Ġfeed back
Ġfl uid
j oint
v i
ĠCopy right
Ġregister ed
rel ations
Ġexplicit ly
ĠS D
&= &
Mem ory
ĠCon fig
U nder
Ġrel ax
man ager
P layer
Ġâ ĸº
ĠN ext
ach uset
aj ax
ĠComm on
ĠS oc
ĠL ittle
G O
achuset ts
Ġsubsequ ent
pro ps
Ġphot ograph
con str
Ġlist ing
IV E
Ġcoeff icient
Ġrefer ences
it ative
Ġv en
ĠL ear
il bert
ĠM ake
Ġbi as
al so
cre d
ĠE U
Ġcont rolled
ou rier
G ame
C ast
ĠEd ward
Ġcom edy
ĠS uch
b et
a is
Ġb ass
Ġrec ip
Ġâ Ĺ
Ġop posite
Con f
Ġinvestig ate
Ġhapp ens
e a
Ġjourn ey
M ut
Ġinst ances
Ġcharacter istic
######## ########
ĠTh ree
all classes
Ġsupport ing
R ole
te en
G N
ĠSecret ary
ĠM as
os es
con trib
A g
Ġ{ '
f d
ĠIll inois
Ġmar riage
Ġpo inter
ĠL ive
Ġex pos
ar ters
Ġgl ass
ĠA sh
Ġpass word
ĠF I
f ire
icens ed
Ġinj ury
w p
Ġc ensus
par agraph
h ang
Ġorgan ized
f ast
Sum mary
Eng ine
Ġfund s
Ġstr ings
as et
ĠEn vironment
F unc
ĠB O
ĠBro ok
Ġcustom er
poss ible
Ġhel ps
Ġtrans mission
Ġden oted
ĠD O
an th
Ġcitiz ens
Ġsubstant ial
Ġ= ======
fl at
wrap per
on ia
Ġover l
Ġbig gest
app ly
Ġpi eces
Ġarr ived
IP T
Aut o
| }
Ġt a
act s
F IG
Ġh or
Ġn arr
Ġex it
Ġir re
Rep ository
res et
Ġ[ \
Ġs ym
ĠE astern
Ġ{ {
Ġlarg ely
Ġm useum
h box
Ġw estern
R oute
s at
Ġent ropy
Ġposs ibility
ibr ation
s ys
Ġsing les
it ical
Ġst ored
ã Ģ
Ġrece iving
ov es
BU G
serv ices
erv es
the me
ĠA rea
ĠS I
Ġprogram ming
Ġaspect s
Ġv ision
sw arm
ĠD ar
al ities
Ġr ain
Ġg lob
ĠGovern or
Ġb ed
Ġw arn
ĠS earch
Ġh ers
> \
Ġl umin
Ġfor t
Ġoption al
Ġcr ime
cd n
ĠS N
ĠLat in
Ġac comp
TH OD
ĠR en
is a
ĠProfess or
Ġk ill
A re
ĠI mm
Ġelectron ic
Ĥ ¬
Ġs quad
ĠCont rol
Ġalong side
Ġ era
Ġf n
Ġsp ring
av i
wild fly
Ġrow s
iv ated
b c
Ġmay be
p refix
Pro file
C B
ev in
s ample
ĠâĹ ¼
by tes
per t
Ġxml ns
Ġout er
Ġd oll
enc ing
Ġre q
ĠOx ford
ĠB oy
ro vers
iss ue
ro ut
Ġcl ients
Ġprofess or
^* $
Ġr ational
op es
ĠPhil ipp
Ġn amely
Ġteach er
us hed
ĠRes ource
Ġd ance
ĠH ong
Ġl iqu
Ġindic ated
F in
ar ity
get Name
t mp
) }}
Ġcon vent
iffer ent
Ġf uel
Ġthan ks
G A
Par se
Ġsufficient ly
Ġpl anned
Ġco inc
ist ant
Ġbehavi our
Fil ms
ag a
Stat ement
Ġinstitut ions
Ġwe ather
] $.
Ġpolit ics
Ġfac ility
g eneral
ind u
Ġint ensity
Ġd ire
Ġconst ants
Ġ" "
Ġpartners hip
ap h
Ġparticip ants
Ġearn ed
Ġe lev
ĠIn ternet
Ġf ell
Ġnew ly
ĠMus lim
if er
Ġ io
clos ed
ĠC ase
Ġapplic able
ĠM ir
Ġpolitic ians
iss ues
Ġpen al
x s
ct ic
et al
build er
Ä į
Ġcharacter istics
b d
ĠPr ince
Ġstand ards
Ġus age
comp iler
Ġcomp r
/ (
ĠC ur
Ġex ceed
ub ble
Ġj ump
ann a
Char acter
{ %
Ġsampl ing
h ide
N ov
\ }$.
Ġviol ence
: =
Ġanc ient
196 1
Ġque ue
Ġperson nel
ĠKore a
es ome
iz abeth
eg o
ĠAmeric ans
r ank
Ġte le
ĠV ill
ty ped
ĠG ar
ps on
met adata
Ġoper ated
plic ity
Ġsequ ences
ĠL ook
br ace
big l
ex pect
e lect
Ġfe aturing
P D
ĠA ccess
Ġengine ering
ĠC irc
Ġbro ken
ĠWed nesday
Ġv on
Ġfr ag
ĠN iger
b p
T ags
Ġa wards
ph ia
ok es
Ġsett lement
ord an
Ġse ed
T otal
ix els
ĠPr ime
S che
Ġdatas ets
Ġthink ing
ĠT uesday
Ġhous ing
Ġsim ultane
Ġtest ed
Al though
', '
-------- ----
ĠE nt
Ġp refix
ĠB al
g lyph
Ġcr isis
RE AD
Not Null
ĠGu ard
J S
IN D
Ġcould n
ĠMed icine
og y
og ether
Ġo k
Ġconsequ ence
ĠA z
Ġv ent
t body
Ġes cape
erv ative
ĠC orn
Ġfif th
un ique
ĠReg ion
Ġsh ips
Ġm eta
ĠS us
ĠOff icial
d etail
P Y
ï »
Ġin verse
ĠB on
Ġcre w
Com ment
Ġor bit
ĠL abor
Ġepis odes
$ :
ap ed
H C
ook ie
Ġupd ates
">< !--
unn el
j ango
A gent
ĠIO Exception
Ġsurround ing
nt ario
big r
al gorithm
B rit
p ub
un ately
ul pt
Ġmed ian
Ġpr ices
Ġsatisf ied
ĠV AL
C ategory
ĉĉĉĉ ĉĉĉĉĉ
Run time
ĠAr g
ĠS em
Ġserv es
Ġc art
Ġb ulk
N T
A x
Ġpro ps
ĠI E
ĠCom put
ig gs
Ġentire ly
Ġ" <
S ocket
z one
u um
ys ical
cuss ion
; }
Ġcapt ured
Ġ( _
Ġ rom
Ġunder st
Ġd ialog
Ġsubsequ ently
ĠMass achusetts
B AR
ul se
ap l
l f
head ers
194 4
ST ATE
Ġrecogn ition
Ġtype of
i Ã³n
Ġest imation
Ġdecom position
[ -
Ġp erman
Ġas sembly
Sc roll
Ġf aster
N ULL
Ġemploy ed
Ġsp ac
Ġclos ely
Ġcharg es
en able
ag ent
Ġcr iminal
En um
Ġin n
A rea
olog ist
Hel p
Ġ ..
el ly
ĠA li
con sin
ap ore
Ġs leep
adel phia
Ġhous es
ater n
Ġstrateg ies
prov ider
ï» ¿
par a
Ġequ ilibrium
Ġcirc um
ĠL android
amaz on
%% %%
im m
Rem ove
onom y
sim ple
v als
a ired
ĠK enn
Ġlay out
ul ating
Ġcomput ing
it ter
Ġmet adata
Ġm ys
ars ed
m n
AR N
AD D
Ġhon or
x html
ic ing
Ġfa ith
Ġcop ies
ĠU r
Ġconf idence
ĠR ights
Ġdes cent
D M
ĠN C
ĠD ir
D av
Un ited
Ġintegr ated
A ng
are t
195 8
F ind
T x
b g
ou red
Ġsign als
ĠPol and
FF FF
id x
ĠG ets
d etails
pr ise
ĠF air
at tributes
ĠA k
Ġconcern s
195 9
ĠR og
ĠC ustom
Ġ ðŁ
Ġsec ure
yd ney
v ari
con n
Ġmax im
ĠS at
ĠMin istry
Ġv ideos
ress ed
ĠPort ug
ĠBe ach
ĠP erson
ly wood
C red
re port
Ġm ir
Å Ĥ
iter ator
t i
Ġ ing
ist ing
Ġst uff
Ġexper iences
fil ename
math op
}} _{\
Ġtri p
ĠCorpor ation
}} )
Mult i
v o
ĠH ard
Ġde leg
M any
s n
ident ial
N C
s ol
Wh y
s a
195 6
ĠB ad
Ġadv oc
or ient
\ ;
rop ic
ĠSt ation
Ġmom ents
ĠColumb ia
Ġs and
IN FO
Ġrepresent ative
ĠD utch
E V
ĠF ood
ĠS af
ĠH un
se x
ĠH om
ĠD aily
}[ \
sk i
Ġm ist
Ġg one
Sim ple
Ġenh ance
prot ocol
ĠR od
Ph one
plic ated
as sembly
sing le
}) }
ĠF C
Ġrad ial
? >
Ġm yst
Ġd ict
Ġc as
ĠP en
Ġpract ices
Ġmarket ing
m ac
Ġtemper atures
D est
rop ol
ĠD igital
ex ecut
Pro of
Ġacc ident
Ġind ices
ĠCol lection
R AN
$ _{
MOD ULE
er ate
Ġrepresent ations
us ers
Ġb ow
Gener ator
Ġh air
Ġf illed
ch anged
B ound
Ġp owers
,\ \
% .
Ġa thlet
Inst all
Ġcertain ly
assert Equal
ĠEngine ering
Col lections
Ġprov ider
Ġhers elf
Ġca ref
H L
Ġg rew
ĠL o
ĠC as
ĠR om
Ġtransl ate
ipl es
an z
ĠPro cess
ĠH ash
F ail
Ġne ural
Ġmat hemat
ret ch
P y
zon a
ĠN AME
] $,
Ġin ject
Ġfavor ite
ab out
Ġeffect ively
) [
ĠB lock
(' .
Po inter
Ġclub s
ĠUn ivers
Ġrecogn ized
t ags
log in
Ġ\ ]
in er
pre v
ĠĠĠĠĠĠĠĠĠĠĠĠĠĠĠĠ ĠĠĠĠĠĠĠĠĠĠ
ad ed
ĠTr ust
Ġconstruct or
ĠInd eed
he im
Res ources
s afe
K e
Ġsup erv
ĠM ember
f all
Ġcomp atible
ate ver
Ġpers pective
Ġhold ing
Ġ" -
Ġexpl o
ĠJ ean
ak ed
AL SE
ĠC at
re lation
ĠAlex ander
ap os
ĠT erm
Pass word
ĠR a
Ġ" ,
ĠCom ple
Ġc e
Ġprec isely
Ġport ion
A CT
ĠV en
err ors
m ask
ff ff
ĠD ocument
B L
pat tern
au x
n ight
ign ment
ĠSup reme
Ġcr yst
Ġident ical
ĠAg ain
ĠO N
Ġd imensional
ĉ ĠĠĠĠĠ
Ġret ired
Ġd rawn
Ð ´
) ">
ĠWh y
em an
Ġ? >
Ġw itness
Ġind ustrial
Ġ[ "
Ġassum ptions
ĠâĢ ¢
ĠB BC
ow a
Ġpredict ions
Pro ps
Ġlow est
fol io
ag g
pt ic
Ġg irls
Ġf ant
Ġan imal
Ġg ender
ĠCh air
Ġfr agment
Ġprep ared
enn es
ig a
G iven
S ports
ch a
ex ecute
Ġfl ags
Un iversity
ĠL ew
ĠB C
y cl
Ġoffer ing
Ġdou b
Ġcriter ia
ĠAn th
ĠD C
Ġc atalog
PRO JECT
Ġmax imal
or iginal
Ġc overs
are st
Ġs ale
Ġar c
Ġ urban
Ġcoun cil
ĠB ul
Ġm arg
y ard
}\ ,\
ĠV iet
Ġthe ories
empty set
ĠOn ce
Ġt x
Ġs an
Ġg ene
Con n
O UT
ĠBook s
Ġinter ior
194 2
ĠR aj
S ync
Ġem ot
ou ter
Ġpro xy
Ġac id
Ġv irus
() </
Ġeas ier
T F
Ġ ^{
Ġr g
um a
Ġag ency
H P
Ġhe av
Ġtarget s
ĠG iven
Ġag ric
Ġ> >
Ġap pre
ĠH ung
Ġvers us
Ġr ig
sv g
ĠI V
ĉ čĊ
> :
Ġ Ø
Ġcomm ittee
pro b
ĠA P
194 8
sl ash
Ġcontrol s
th ur
d frac
ĠH y
t witter
ĠSh ort
195 7
ĠH as
id i
S V
Ġco al
C oll
p arser
Ġc tx
Ġsee ing
r g
L emma
Ġt ight
d ialog
h ref
F ailed
ST AT
Im port
An other
se ason
ĠR est
reg on
cre ens
v ect
pl ane
f c
Ġsur g
mon th
ĠB and
}} .
Ġaccount s
t c
Ġk ick
Ġprof ession
ĠS anta
S equ
s pecial
se par
t ar
Ġj et
ask a
N OT
ĠA venue
, {\
Ġintrodu ction
ra ise
och astic
At tr
. ");
ĠSo ftware
W N
OR TED
Ġclos er
Ġgu ard
Ġthous ands
F ree
Ġbase ball
Ġte aching
Ġcom fort
m aven
ir ation
Ġdec isions
Ġdecl ared
ĠTor onto
v ideo
art he
ĠIn f
tr ivial
ĠF ollowing
Ġd iver
Ġm el
Ġres erved
Ġinter section
ĠN ick
II I
op ed
! \
P ubl
, ...
rypt o
ed u
ĠOb serv
7 00
Ġreturn ing
}} ^{\
ĠS ant
19 39
ĠM essage
Ġl ang
ĠG ro
Ġa st
Ġappro ved
ten ance
ĠU I
g p
Ġacc eler
ĠSt eve
Ġres olve
ĠĠĠĠĠĠĠĠĠĠĠĠĠĠĠĠĠĠĠĠĠĠĠĠĠĠĠĠĠĠĠĠ ĠĠĠĠĠĠĠĠĠĠĠ
ĠR os
Ġinter act
Ġrelationship s
Cl uster
Pre vious
cri bed
B M
n odes
Ġsk y
ĠS a
C r
Ġext ent
our se
ab et
Ġderiv ative
Ġcomm ut
Ġphot os
t ons
Ġcol ors
Sh ort
ire ment
ĠT oday
Ġb att
Ġfrequ ently
Ġdepend ent
Ġad vent
S F
In ternational
\ )
Ġlink ed
Â °
Ġsh aring
Ġinfr astructure
pl ates
run ner
t frac
Ġcollabor ation
195 5
col lection
Ident ifier
L R
Ġm and
sh ared
Ġg ate
Ġkeep ing
ic he
Ġs pher
Ġauthor ities
Î ¿
br as
se m
ĠT am
od ec
C am
Ġdisc r
includ ing
Ġnon linear
Ġdocument ation
ĠP RO
Ġresearch ers
L eg
M iss
Ġexc ited
Ġtalk ing
ud den
Ġcontr ad
n p
Ð ²
Ġexcell ent
m oz
w t
dec l
Pro gress
v ature
Ġdrop ped
Ġsepar ated
Ġequ ality
ĠA I
195 2
cle an
ĠApp endix
i em
W rit
D ay
Ġpublic ation
Ġm ach
Ġdel ivery
Ġstand s
u ating
Ġmov es
ick ets
Ġpract ical
Ġmet rics
Ġtransfer red
long rightarrow
ĠO s
Ġnecess arily
D en
L ook
Ġin fer
ĠSt ock
ibr aries
Ġopin ion
Ġcan onical
ER E
Ġattempt s
En ter
ĠWis consin
ĠTh rough
Date Time
ĠSpr ing
ĠS M
Ġembedd ing
side bar
Ġest ate
ur able
Ġ[ ],
is or
Ġpurch ase
ĠScott ish
Ġf ear
ĠS ource
ari os
M usic
ĠC art
ĠAir port
U pd
Ġperform ances
s quare
F LA
ĠVictor ia
Ġr ural
Ġclass ic
Ġconsist ing
Ġdi agn
Ġmark ets
mer ce
Ġeval uated
Ġquant ity
ĠP ers
Ġcl ock
ĠBer lin
i ota
Ġal ter
Const ants
V ariable
ens ities
h d
194 1
spring framework
th row
p ur
fl ag
Ġdef end
M er
Ġsp ons
') );
spec ific
avel ength
tain ment
Ġext ensive
ab ric
å Ī
Ġimprov ement
Ex ample
Ġdest ination
ĠĠĠĠĠĠĠĠĠĠĠĠĠĠĠĠ Ċ
Ġhypot hesis
Ġent r
Ġcover ing
Ġsil ver
Ġyour self
Ġad min
Ġgener ator
J ust
ĠSt ory
ĠCl ark
int on
un es
Ġsc ores
Reg istry
Ġdemonstr ate
ay er
ĠN a
ual ity
LE CT
S outh
ĠC reek
Ġfootball er
194 6
à ¸
Ġwait ing
p air
ĠK ir
Ã¡ n
ĠDav is
A ustral
}) =
Ġdi agonal
F inal
o or
H is
ĠBel g
pro gress
qu ant
ether lands
Ġlog ger
force ment
t k
ut r
d one
ĠRequ est
Ġterm in
Ġdecre ase
j unit
IG HT
Ġw inter
struct ure
C ho
osoph y
S ur
Ġcomp lement
CT YPE
re act
Ġsize of
C RE
Ġinput s
$ &
Ġar ms
L at
N odes
u y
Ġex cess
Ġphot on
Ġtit les
sh adow
ou st
ĠP ay
ĠL ater
Ġsol o
ĠC ov
Ġm al
b matrix
Ġdemonstr ated
ex pr
)) \
ĠCon nect
ĠT y
ĠN FL
Ġdep os
ĠDes pite
Sk ip
be an
Ġexperi enced
ĠInst ead
ic ular
Ġcho ices
ĠIn s
ĠIs lands
Ġun able
Ġmin ister
in os
w orth
index Of
user name
al gebra
ĠF ull
Ġener gies
194 3
ĠT ok
Ġp apers
L INE
en abled
pl an
Ġj Query
li ance
Tr ace
as m
ĠO ntario
Ġconcent ration
ĠP A
Ġvalid ation
! "
ĠMin nes
ĠM ill
Ġan imation
Ġs ynchron
Ġmix ing
Method s
W allet
l ower
Ġpe ace
Ġgr avit
P refix
Ġfe e
] {\
TI ME
ĠChild ren
Ġm ental
Ġl osing
Ġexpress ions
b at
Ġchar set
$ };
UR I
Ġl es
. ",
PO ST
ĠW rit
j ob
Dom ain
g ov
p ubl
Ġc ab
Ġcomm itted
Reg ion
Ġannoun ce
ze ch
ĠP lease
print ln
Ġfight ing
Ġsche dule
unn y
ĠS on
Ġ ],
Cons ider
ĠF ac
Ġstat ements
Ġbel ief
M ost
Ġy ards
Ġcr ucial
Ġschedul ed
Ġexplan ation
CHE CK
Ġman age
T ube
op her
ott en
ve e
Ġmod ules
it led
Ġmolec ular
Ġessential ly
Sub s
Ġp arser
ĠEl izabeth
" ].
Ġabs ence
Ġpromin ent
tem p
ra ham
ĠV ideo
Ġassist ant
ov ing
sh op
ĠT urn
Ġprom pt
s es
c u
Ġcomp re
Ġgr avity
æ ľ
_ (
Ġproper ly
ĠS QL
ĠF ox
ĠC ub
ĠCh ange
Ġgrant ed
requ ired
Ġvari ance
dep th
and o
^{ *
Ġl ists
ĠMinnes ota
at iv
Trans port
Ġdef orm
Ġd x
Se lection
us form
Ġhistor ic
Ġw ins
ig ate
Ġhelp ing
Ġdis p
ik a
numer usform
Ġder ive
Ġdis abled
Ġign ore
Ġmin ute
Ġdestroy ed
Ġtrans parent
ak h
Ġaddress es
Ġcomplet ion
Ġn ice
ĠS ydney
neg ative
ĠD am
Ġcon tribute
atur ally
arr ing
ĠCh annel
Ġor b
A E
ĠH ou
\ }\
ul ner
ĠAr gent
(' #
Ã© e
w ig
Ð ¼
! [
) }_
ĠA D
ific ial
ĠCoun try
Ġspec ify
bas ic
Sh ould
un ing
Ġex ecute
trans ition
er ence
DO CTYPE
M ath
ĠB it
ĠR ight
ĠL ev
Ġqu asi
195 4
Ġth in
Ġcont rovers
ĠĠĠĠĠĠĠĠĠĠĠĠĠĠĠĠ ĠĠĠĠĠĠĠĠĠĠĠĠĠ
iz z
Ġst orm
u j
,\ ,\
Child ren
Ġprec ision
om y
Ġv ot
M ac
195 3
ass andra
Ġde ploy
Ġrec ru
ma zing
Ġmount ain
. <
ĠA S
tr ace
ĠM arg
down load
Wh ere
Ġrequest ed
ĠB all
Ġsk in
Ġb inding
h ave
c ue
U D
Ġconvert ed
Ġcon clusion
reg ular
ĠC ost
tr im
Ġp ed
ĠAnt on
w ill
off s
Ġ ).
f x
ĠD er
Ġsh ares
Ġh ockey
Ġkn ows
ĠPhil adelphia
Ġhom es
ge bras
Ġ$ ,
}} }\
Ġf iction
g ment
Ġs aved
Ġfind ings
Ġwe alth
ĠL ow
Ġauthor ity
Ġcont ents
S ongs
Ġcont emporary
Ġm ent
Ġv otes
ser ial
( __
Vis ible
ell ite
Ġb odies
}) ^
Q U
ĠOlymp ic
E p
st orage
rop ical
e en
194 7
Ġare n
Ġnewsp aper
bour ne
ierarch y
ER S
Ġt urb
Ġprom ote
Ġadj acent
Sing le
um my
oriz on
P G
ag en
ok ed
et ies
Ġmult ip
Ġpriv acy
][ ]{
EE EE
ĠS ong
Ġc odes
ĠCor ps
init ely
Ġfeel ing
Ġfore ach
Reg ister
; )
Ġap art
d c
el le
Ġconstit u
function s
Ġlet ters
sign ature
Ġsold iers
agnost ic
Ġb os
E mail
Ġgu ess
av ior
Ġh orizontal
Ġf erm
Ġb its
hens ive
H ence
Ġplatform s
Ġeas tern
Ġimmedi ate
om atic
Ġtro ops
) ->
Ġis ot
Ġk id
Ġdo ctor
O F
ĠE ll
ĠN ations
ĠB efore
ĠAd am
ĠD om
Ġrecover y
v c
um ps
ĠSt adium
Ġpro pose
Ġenc ounter
ĠSur vey
ĠR ome
Ġresult ed
Ġall Classes
âĢ ¢
ĠH ay
ĠH ttp
Ġred shift
ĠB udd
par allel
ĠO t
med skip
rior ity
Ġdisplay ed
ĠL es
Ġdeterm in
Ġsc ulpt
ili ar
Ġhot el
ĠallClasses Link
/ .
check box
ro sc
ĠS C
ob serv
Ġco her
Brit ish
TE XT
enn a
Str uct
column width
Ġinterpret ation
Ġsp end
Ġre form
A nt
Ġpost er
Ġult imately
Ġpay ment
Text ure
Return s
" `
ĠSing apore
iss on
typed ef
b log
S G
Ġbre aking
Ġm es
res ources
ĠC ount
Ġpost ed
Ġaff ili
ĠGr ant
Ġfl u
ĠRail way
view s
d ash
Ġ( [
ĠO regon
ik es
U ri
ĠMount ain
in valid
Ġ\ (\
ĠS ab
Ġtop ological
br and
D iv
bl ank
Wrap per
plement ation
ĠPl aces
f lex
re ll
Ġl ens
ĠH o
M s
m oment
ion e
ĠCon f
ĠG reg
ĠStep hen
Ġsign s
Ġend ing
ä »
script size
}_{ -
ĠĠĠĠĠĠĠĠĠĠĠĠĠĠĠĠ ĠĠĠĠĠĠĠĠĠĠĠĠ
Ġprov ince
Ġm igr
Ġs we
Ø ±
"" "
Ġsubject s
Ġhab it
ib ilities
V E
ph ase
} ~
, '
Ġb atch
at on
12 7
Ġsens itive
L en
Ġch ampion
L iteral
Ã ¸
Fr agment
Ġu i
py thon
Ġdec or
Ġst ores
Ġgener ating
Ġhost ed
Ġ} {
Ġpro files
Ġm ort
Ass ociation
ĠL ady
group s
Ġpl ate
Ġcre ative
ar on
Ġse ats
Ġappear ances
ĠInt eger
Requ ired
T ra
194 9
Ġhum ans
Ġfav our
ĠL td
195 1
st ates
Ġcan cel
secut ive
ĠT ai
Ġhead ers
ĠE s
Ġcamp us
Ġfound er
ĠC hen
\ }$,
st ances
Ġnot ion
F E
Ġ} }
og onal
anc ell
ĠFore st
ĠSta ff
O ST
er os
ĠP C
Ġcol our
ic ian
own er
ext ension
Ġres istance
ĠJac ob
Ġw ire
ĠColor ado
Ġ' '
Ġv ess
ĠC urrent
ant ly
; ">
Ġref ers
Ġrough ly
ul us
Ġdef ines
ĠPol ish
Ġs ac
form al
m ad
ĠPro perty
U SE
Ġdr iven
ut s
osp it
ĠK now
Ġunivers al
Ġpotential ly
F ramework
S ervices
h ook
l an
Ġmagn et
ĠSt andard
Ġst ages
act ivity
az y
Ġw arning
Ñ Į
ĠC ond
ou ri
ID TH
Ġemer gency
Ġtem p
Ġf ib
Ġsup posed
Ġw a
)-- (
ĠAri zona
ĠW ars
w atch
Ġperm ission
Ġgeneral ized
ĠRec ord
y al
^* \
Ġyoung er
Ġdepend encies
igh th
ĠArray List
t iny
Ġca ught
eng ers
ir ms
the less
Ġpres ents
US ER
Ġs s
and y
Ġin clusion
P ORT
Ġst one
ĠN AV
as ync
ort ion
Ġdeliver ed
S em
ph antom
Ġvol unte
Ġs pl
ĠCons ider
Id s
he t
Ġofficial ly
p aper
Ġb an
ĠM oh
ĠKore an
Ġs ending
ĠN ever
y y
ĠP ot
onym ous
P air
Ġassum ing
ĠPri ze
Ġanal ys
Ġsk ip
R T
com b
ĠOn line
ME THOD
Ġcon version
it ely
Ġload ed
Ġm it
P res
Ġis omorphism
Bl ack
Ġl ift
che stra
new s
L i
v arthe
ar ry
i Äĩ
Ġconcent r
Ġapp end
/ "
j an
ins ic
et ing
\ |\
varthe ta
t z
ort ed
ik ing
F ollowing
u able
ĠInd ones
ĠE V
Ġdr ag
+ (
ir th
En umer
ĠĠ čĊ
ĠOr iginal
tri angle
Ġwin ners
me an
l ass
ĠN etherlands
Ġsc r
icens es
Ġstop ped
ii i
Ã º
if def
VAL UE
ur d
Ġexp at
Ġsc roll
Gener ated
AN CE
Ġc md
L anguage
r uby
sequ ently
... </
Ġf ol
p ull
Ġ' <
ĠW inter
Ġprom oted
ce ive
Ġconsum er
Ġtechn ologies
Ġcrow d
ĠD ark
G a
viron ments
w arning
Ġatt ached
H ub
ĠE P
Ï Ħ
EEEE FF
Cl oud
s ig
Ġquant ities
bu ilt
Ġbr ings
p icker
Ġocc asion
Ġfac ulty
iv acy
}} =
Re al
S cal
Ġal ert
}\ |
clud es
at omic
Ġasympt otic
Ġwor st
C ert
Ġarrest ed
ĠCE LL
con nected
Ġapprox imate
ĉ ĠĠĠĠĠĠĠ
Ġleg isl
Ġsomew hat
} |\
R et
as ma
it i
Ġmov ies
Ġm d
Ġweek end
ph y
F P
ĠM oon
ĠV ector
ĠR oute
E very
Ġm il
Ġneg ot
ing ham
qu arters
& =\
ĠHar ry
ĠPro t
cl uster
Ġe le
se q
U K
re du
Ġtr uly
ru ption
Ġgreat est
Ġext reme
an try
Ġdec ade
pe at
= .
Ġv ice
Ġdire ctions
EN SE
Ġt sd
y cle
ĠR ad
Ġir on
ag ues
Ġrespect ive
ĠD a
ĠPrem ier
Ġt ack
Ġinter mediate
Ġd ashed
ly n
M ouse
ĠP ut
in ction
B en
Ġprodu ces
(' /
g i
On ce
ĠTrans port
und efined
h al
Ġit eration
E st
b x
Ġar ts
h ou
ĠL em
Ġw ing
H om
ĠCl oud
O ct
ĠE ND
Ġfac ilit
g ather
ĠW atch
Ġs oc
ĠGold en
R C
F ore
Ġm o
ĠPro duct
Ġd ense
Ġrestr icted
es ides
Ġdem ocr
ĠT al
Ġliqu id
ach er
Ġsepar ation
L android
Ġequival ence
Ñ ĭ
Ġmys elf
pl es
ow ed
ow nt
Ġso le
ac cept
Ġrecomm ended
Ġnormal ized
Ch rist
Ġg ained
St ud
Ġdr ivers
ĠA T
/ _
$ {\
com put
Ġstand ing
% "
10 5
RE Q
Ġpurch ased
IT ION
Ġjud ge
( --
13 0
ef e
: [
ym ph
Ġas sets
Ġ{ "
th ere
pol icy
Ġcont est
ows ki
Ġbring ing
ail s
l u
Ġcap able
sub sec
Ġadministr ative
Ġin ternet
Al so
ĠCamb ridge
Ġd ry
Ġcoupl ed
an imation
Ù Ħ
Ġjust ice
? "
s ome
Ġalleg ed
qu ote
: =\
Ġsch olar
Ġy ellow
Ġindic ating
Sup pose
test ing
Ġadv ice
Ġexpos ure
19 18
l ibrary
Ġinterest s
Ġpercent age
ĠUn it
Ġdefin itions
Ġinv olves
Ġpass es
ĠI ss
ĠM ari
nap shot
ĠSe ason
Ġa id
Ġdom estic
ĠMag azine
Ġw alls
ĠAN Y
Pro gram
l ights
w eg
per m
Ġcorre ction
ĠF ind
ident ifier
ĠIn put
Ġt um
Ġmod ify
Post ed
Ġp un
B el
Ġb oot
Ġsc oring
Ġm m
Ġl ose
Ġvis ited
Ġvalid ate
i ations
ĠM att
Ġcirc uit
Ġint ent
ur st
| }{
b rief
Ġc ub
M c
Ġta ught
Ðµ Ð½
ĠR ose
inal s
Ġcos m
ĠD oug
Id entity
Ã© s
19 36
St ats
over view
d k
m ouse
ĠExecut ive
ĠS ky
Ġst ead
Ġscen es
g ood
Ġh all
M ake
NavBar Font
ile y
A I
ĠHT TP
ĠB ox
ry ption
Ġworld wide
ail ability
ar ith
Ġprogram me
Ġsever e
ĠM L
con struct
Ġre new
Ġseem ed
="../../../../../../ ../
uck s
ser ies
ĠE u
ĠAss oci
Ġres et
A ug
EL D
Ġnull ptr
des ign
Ġsup pose
fort unately
Ġent ertain
c ow
Ġf ly
å ®
ĠBo olean
ĠF OR
Ġredu ces
Ġs ympt
Ġint elligence
) })
at ivity
set up
Ġcol span
Ġcre ates
Ġstr ip
Ġout come
Ġab andon
ĠF uture
Ġnot able
Ġdet ector
ĠM E
i at
Ġmusic ians
ĠA ge
sl ant
ĠEx ample
( @
> ::
Ġc ash
O C
Ġreport ing
}$ }
id al
f eed
ro g
Ġdomin ant
ĠD NA
LO CK
et ary
Ġpre ced
æ ĸ
Ġr is
Ġeven ing
Ġvari ations
Ġw ww
ane ous
ord on
Ġconcern ed
St op
Ġreason able
" ],
Ġp ixel
Ġde bug
Ġlog ic
ĠPro p
Ġst ochastic
iv als
c atch
M ill
Ġpan els
ĠV i
ĠNAV BAR
Ġt error
con sole
ĠAnd erson
P ER
on ce
Ġr aces
w as
ĠPr inc
En vironment
Ġre nt
fig ures
ĠL ore
ĠAp plication
Ġad ult
ak s
! âĢĿ
d ag
exp and
() ))
Ġunderst ood
Y Y
sc ss
Ġsymbol s
ĠB an
be h
an ches
support ed
res ize
Ġh ist
requ ency
Ġen v
Ġd iverse
Ġpl ugin
is ode
Ġin fl
sp in
B ased
ĠQue ens
Ġarr ang
Ġsent ence
li x
Ġcur vature
th rough
t p
Ġp ipeline
ĠRes ponse
Ġb ond
aps ed
per or
Ġ( {\
ĠJ ordan
res olve
k h
Head ers
pre ne
More over
or igin
^ ^
D etail
is ot
per ial
pro xy
ang a
AN T
av irus
C ur
Person al
Ġb ug
Ġh un
Ġk in
Ġsens itivity
BP ACK
Ġro ots
Ġexecut ed
Ġcon secutive
Ġfrequ encies
ĠI T
Ġprom ise
ĠC ore
Ġ" $
Ġfl ows
r id
Ġre tail
ĠG allery
ast y
Ġvari ant
Ġtime out
do or
Ġph ases
d ig
Ġleg end
Ġtrans actions
Over view
R elease
ic ious
Ġs now
nd ef
Ġorient ation
az e
ĠÂ »
ĠMod ern
X i
Ġgu y
ĠPh ot
Ġs ter
ĠD onald
Ġgu est
Ġun iverse
ĠBuild ing
Ġlimit ations
Ġg ar
Ġprodu cing
ç Ķ
us cript
grad le
ĠYou Tube
z o
pt o
ĠL ind
ĠDu ke
Ġre ward
VAL ID
Ġh ook
ĠS ri
Ġexper ts
Ġoper ate
ra q
in ch
re v
Ġn ob
Ġsp r
const ant
L ib
Ġb ought
n c
ĠO C
ĠB at
Ġaccom pl
Inter val
ĠM iller
ĠH art
Ġinvestig ated
Ġm ouse
ĠS che
apt ure
S ave
rep resent
ĠH al
Ġan om
ĠB rian
Ġsound s
Ġcons ervation
ï¼ Į
| ^{
ĠRev olution
DE BUG
re prene
Ġent ang
Ġconfig urations
M F
Ġm ob
Ġcharacter ized
ĠOff icer
Ġrequire ment
19 38
ĠBr ad
v ard
S ample
ĠM O
Ġchalleng ing
Ġbel ongs
Ġcon figure
ĠK al
lo pe
os ed
Ġread ers
Ġin struction
sl ice
CO MP
iam i
ĠE ric
Ġaff ord
b ian
g z
j et
Ġf estival
ĠB iden
DE FAULT
as p
C ard
ub le
ĠA mb
Ġdefe at
option al
/ {
Ġperiod ic
ĠBr idge
Ġstrong er
Ġne ither
Ġs udden
Ġ\ !
SC R
w ave
L ower
Ġh its
Ġf old
d uration
Ġdynam ical
check ed
Ġbrief ly
ymmet ry
Ġfail s
ĠG ree
sh ips
ann y
Ġcompet ed
ant e
Ġfluct uations
c ross
vis ible
ĠN AS
Ġterrit ory
TR UE
B order
N amespace
Ġm ail
Ġshoot ing
Ġh orse
ennes see
Ġre verse
Ġins urance
^* (
c ers
Ġbound aries
ut enant
time out
ac on
ĠRes ults
11 1
Ġon going
method s
ĠR ow
Ġaccess ible
ĠMar ia
Ġman ifest
w d
Ġf rames
ĠA ud
Ġsuff ered
Ġeigen values
ĠSe ver
Ġcl ip
ĠDis ney
ĠSI ZE
Ġap plies
Ph oto
' _{
Ġtw enty
is ition
eg as
ĠD or
multi row
Ġat oms
Ġf aces
equ ations
er on
B egin
' ];
ic ians
St ar
S W
Ġd ates
Ob serv
Ġf at
Ġre venue
ĠS ound
Ġparticip ated
Ġread s
Ġgrad uated
an aly
Ġ ];
ĠCl in
Ġst im
Ġrg ba
Ġbas eline
an alysis
M ask
ĠLew is
qu es
ĠIndian a
Ġ$\ {\
Con nect
Ġcompos er
ex tern
B Y
t le
b undle
est abl
NS String
P lease
ap is
ĠK at
ĠN az
Ġh alo
back slash
ĠD ue
) ^\
ĠMe an
S creen
hed ral
3 60
ĠM it
get Value
Ġen um
Ġprior ity
Copy right
l ab
ph oton
tikz picture
ĠSwed en
ĠH op
Ġnav bar
ĠN orm
od s
c ounter
let ter
Ġtri ple
Ġpropos al
i ph
D b
ĠL com
Ġhy brid
Ġv irt
Ġspe aking
Element s
con duct
Ġsur faces
cre ated
Ġtop ics
i ated
ĠÂ ©
Ġfit ting
Ġcaus ing
T ele
es is
g oto
d am
Ġperiod s
ivers ary
Ġprec ise
ĠH an
B ind
k top
Ġpop ulations
F ocus
Ġp ref
Ġrestr iction
Ġlo an
M icrosoft
ĠJ am
urre nce
Be an
Vert ex
Ġdiscover y
ĠÐ ¿
ĠT ro
Ġv eg
re lease
Ġrespons ibility
ĠAtl antic
W est
ag an
up d
s un
st age
not ag
Ġc ro
Ġsim ilarly
Ġsimultane ously
S erv
ay ed
G G
ĠEx pl
Not ification
\! \
Pl an
Ġmer ge
Dav id
: `
ĠS P
Ġsystem atic
pl ier
Ġstr ike
Ġeduc ational
ĠC ook
Ġop position
Ġrespons es
Ġpresent ation
F amily
t ion
Ġcheck ed
sp irit
Ġsche ma
Ġdom inated
M ove
ch ant
Ġin hib
Ġacc um
und ers
'] ['
ĠM un
Pro to
Ġlist ener
ĠO cean
Ġrapid ly
Ġst yles
Ġrank ed
å Ĳ
Ġop posed
Ġn a
fin ite
S ql
ĠR oss
r ig
Ġloss es
ĠD B
ĠHou ston
Ad min
vert ical
Ġposs ess
et ric
ĠA thlet
ynam ics
Ġdis appe
ĠCh all
Ġcomp ens
L ife
Ġem pir
1 12
Ġdec ide
H er
Ġmunicip ality
19 37
w ing
Ġre aching
Ġp it
ĠF ord
Ġour s
Ġw avelength
p u
Ġ\ &
ro ute
rupt ed
Ġpolar ization
ĉ ĠĠĠĠ
Î ¹
An imation
de ep
e ctions
ĠChe m
ĠR yan
;\ ;\
Ġr u
U ST
Ġc ards
M ich
igen ous
Ġcompl iance
Ġcor on
Ġcorrect ly
Ġn p
ĠL anguage
ĠD ead
Ġqu ark
Ġn aturally
Fl ow
1 15
Ġexp ensive
Ġrestaur ant
Ġelect ro
p in
ĠB E
lo om
R PC
H D
Ġincre d
s heet
Ġv eter
ĠT E
ĠG h
Ġse vent
grad ient
duc ible
down arrow
ert y
y ou
Ġther apy
im ination
log o
R ob
ĠFr ont
pos ing
load er
New s
^{ (\
a ire
part y
D elegate
Ġdocument ary
J oin
R S
Ġwatch ing
im its
@ {
N ormal
coh ol
Ġload ing
.... ....
m k
ĠSen ior
HT TP
Ġim press
Ġout comes
por ter
Ġpoint ed
ordin ate
WE BPACK
Ġw orse
Ġvary ing
Ġweap ons
ell s
Ġembedd ed
ĠMem orial
ou pl
Ġredu cing
ĠChar l
b us
v ariable
Ġcoll apse
getElement ById
is lation
ĠAdministr ation
Ġprep are
dest roy
Ġsche mes
Ġinf lation
cor ollary
ist a
INT ER
j ack
19 00
ĠH or
ĠS H
Ġtrad ition
ĠAff airs
Ġb omb
Nav igation
Ġatmos phere
? ?
Ġe at
( -\
Ġwould n
ur ches
ok ing
Ġpost s
ah oma
ĠFore ign
ĠW IT
Ġs olving
ain ian
ĠEd itor
Set ting
os ph
C AL
out heast
Ġv o
N ET
Ġpass ion
Ġincreasing ly
Cont act
IMP ORTED
cl ine
Sequ ence
per iod
Ġrecon struction
Ġa f
Y our
w x
ĠAn alysis
Ġt ang
Ġlumin osity
Ġwh atever
Ġcoll ision
Depend ency
edd ing
Ġillustr ated
Ġscient ists
olut ely
ĠP it
Ġscen arios
B et
Ġcomb at
Ġd iversity
ĠSup pose
ĠK ansas
ĠAp ache
g on
i ac
ĠEnter tainment
Ġs ys
. \\
19 17
oun ce
n ol
Ġdescri bing
Ġpil ot
Ġst ats
ĠWh ere
sub ject
ĠM ilitary
Ġch apter
ĠC ulture
W atch
Ġdi pl
Ġv ulner
Ġsp ending
Û Į
writ ten
Ġparticip ate
ĠF ourier
ĠF all
ud a
cer ning
ex ec
ĠT a
Ġim possible
Ġstrict ly
Ġpartial ly
t ensor
Ġcontribut ed
ĠVal id
pro gram
wit zer
Ġman ip
Ġt ables
Ġuniform ly
Ġassess ment
Ġop acity
se p
L imit
Ġ-- -
sequ ence
ank a
\% $
own ed
Ġ_ .
W omen
ĠHe art
14 0
Ġmodel ing
Ġmechan isms
ĠC G
ĠI owa
Ġadd s
W H
ĠB or
ĠĠĠĠĠĠĠĠĠĠĠĠĠĠĠĠ ĠĠĠĠĠĠĠĠĠĠĠĠĠĠ
Ġaccom mod
sp acing
stand ard
ĠSystem s
ĠSwed ish
Ġt mp
Ġconvent ional
Ġproport ional
Ġs ed
Ġle ct
Ġhundred s
Ġf ake
w ho
nav igation
Ġland scape
y ers
Ġp atch
ab ama
ĠCont in
(" /
ro it
kw args
Ġuncertain ties
comp are
Ġhe aring
ĠK han
Ġdeg ener
OR Y
0000 00
c raft
j u
Ġrepl acement
Ġbatter y
Bas ic
Ġsn ap
å ħ
Ġident ification
Input Stream
cl one
Ġstruct ural
Ġabsor ption
Ġge ometric
Ġexerc ise
Ġb old
F N
N orth
ĠAm ong
o a
ĠHot el
I gn
C ent
P ers
ust ries
Ġdis order
Ġpo et
em et
Us age
inst ein
19 35
E ffect
Ġgravit ational
ĠB arn
ĠF A
aw are
Event Listener
Ġhand ling
Ġrestrict ions
Ġg iant
Ġb at
m ag
Ġisol ated
Ġin hab
ĠP ier
itect ure
vol ume
f b
á ĥ
G reen
ĠAdd itionally
ĠD ream
Ġste el
p aren
Ġengine er
ĠS ix
pro duction
Ġtop ology
Ġ' ./
{ "
S ources
h ist
con vert
Ġf aced
Ġcook ies
hel per
ey n
Ù Ĩ
Ġ urg
agr ang
Ġs b
Con ver
Ġcon crete
ĠL iter
ang ers
Ġcorpor ate
F ORM
ĠS quare
dev elop
Ġgovern or
t re
mer ge
ibli ography
ĠO S
Ax is
Ġass istance
Ġperman ent
Ġneut ral
Ġsw im
Ġat omic
u its
tr l
Ġhealth y
ab a
ĠK y
Ġpubl ish
Ġhard ware
dat abase
ĠPubl ished
ropol itan
Ġcl im
10 2
Ġdistrict s
N ative
Ġjournal ist
ĠSh er
Ġdev iation
Ġc raft
Ġch ose
}{ {\
Ġtrans itions
ĠK a
ĠTur key
z ip
ĠB urn
ĠLe on
all as
Ġman agers
face book
W arning
Ġp iano
ge o
T ax
Ġmet all
ĠN ative
comple x
Ġtit led
Ġpers ons
witzer land
Us ers
weg ian
part s
Ġanaly ze
ĠB att
ke ep
n m
Ġteach ers
Ġmod al
is set
Ġfam iliar
Ġr ating
ĠJ oh
form ing
b inding
Ġd t
ĠCont ent
ĠAL IGN
Ġopt s
Ġstraight forward
ject ure
av al
ĠC ru
end a
Ġt err
comp ile
Ġstudy ing
P ack
Ġvac uum
Ġdou bt
ĠMan ager
Ġ' \
Ġle af
Ġhousehold s
Ī Ĵ
: @"
19 19
Ġp ixels
object s
av ailable
b atch
v ia
Ġl oved
s ocket
ct ors
erv ing
Ġbank s
Ġcomm ands
ri ers
agnost ics
ĠD M
ers hip
aw ay
Ġdom ains
ĠC ab
ĠDes cription
ĠW AR
Ð° Ð½
Ġpain ting
} >
iz ers
pre p
Ġa mazing
= $
Ġvacc ine
ĠM D
Ġw indows
ug ar
Ġmanufact uring
us p
fr ag
Ġqual ified
it udes
B al
con structor
sh a
ĠAcc ount
Ġe ase
! ]
ut ies
19 33
oid s
Ġwhen ever
ĠP ack
ast s
Con sumer
19 14
k ish
load ed
s ym
Ġpre gn
$. }
pl oad
D ictionary
valid ate
IN ST
Ñģ ÑĤ
Ġa cknowled
L ike
Sh ape
th rift
ĠU l
End point
Ġjoin ing
ĠP ed
od a
Valid ation
Ġso il
Con stant
sh al
h ot
ac o
) }.
run time
ĠSim ilarly
Ġs in
ĠL oad
Ġc ursor
Ġfr anch
{ .
(" #
Ġelect rons
Ġdesign s
Ġcom plicated
em ony
Ġk illing
Ġgood s
Ġgu id
Ġse es
Ġperturb ation
ul er
Ġexpl ains
ĠT ag
ĠMary land
ĠW H
do i
pher ic
cept or
Ġp ub
Ġreal ized
ir cles
Ġclass ified
he ll
Ġdes tr
Ġind ependence
Î µ
ĠT ennessee
W in
st ud
Ġbro ke
ĠSim on
el astic
ĠE mer
Ġair port
Ġqu eries
Ġb ind
ĠCap tain
LE D
l icense
ORD ER
Ġh a
Ġconvers ation
w estern
Ġheav ily
/ ">
Ġv ocal
Ġr anges
iss ip
load ing
Ġs ight
Ġclos ure
Ġcross ing
idel ines
ĠPl ace
Ġl it
AT ED
f actory
at ibility
od ge
Ġconsum ption
ĠF ROM
ren ce
z y
W ait
Ġsub mit
d istance
Ġbench mark
ĠR oy
Ġconj ug
Ġl yr
ĠAg ency
Pr ivate
Ġdecre ases
Oper ator
Valid ator
Ġ@ "
Ġrepl acing
ĠC zech
ic ator
Ġpro spect
Ġthe atre
19 29
| $
Ġl aser
ĠC le
inem a
Ġto k
emet ery
Ġwe ar
Ġm ess
ĠCast le
Argument Exception
d ynamic
Ġinv ent
r adio
Ġb ars
Ġview ed
ĠP DF
Form s
ĠEx press
=\ "
fore ach
Ġneutr ino
ĠCap ital
ĠV irtual
over ning
Ġt ags
Ġm outh
'] );
IO Exception
M r
Ġ" ";
Ġsh r
ĠC lient
Ġreg ression
ĠSe lect
Ġst abil
p b
Ġatt orney
Ġre produ
L ight
Ġpar liament
Ġnov els
A li
Ġen vironments
In formation
Ġneigh bour
ĠB ishop
Ġw rest
Ġ _{\
, .
Ġsu it
ĠOb ama
cri ptions
B ottom
var rho
s r
{ |
19 28
ex it
Ġdiscuss ions
enn y
Ġprefer red
ĠS in
ĠK evin
we ek
G erman
Ġag encies
d on
Ġreject ed
sub mit
U C
hold ers
Ġtyp ename
19 34
Ġmembers hip
T ok
al ion
Dr iver
Ġdrug s
Ġwork er
Ġmonitor ing
Ġt on
= &
Ġdist ances
Ġres idual
ic ide
ĠHarr is
Ġdef initely
ĠJ ane
Ġlik elihood
ong o
Ġrece iver
ĠMiss ouri
' =>
Ġr acing
ĠT en
CH AR
ĠM S
Ã ¥
ĠDi ego
SS L
ĠR oll
10 4
Ġrob ot
s is
ĠO w
ĠEconom ic
Ġcon n
Ed ge
Encod ed
oust ic
Ġex posed
Ġfe els
Ġp ra
app y
Ġseek ing
W ord
Ġad ults
Ġch rom
Ġs ought
ĠI raq
Ġadapt ed
Ġexpect ation
Ġdiff usion
it ics
ĠM ic
Ġqu ot
Ġre in
ĠMal ays
ĠOption al
math it
mem ory
Will iam
Ġp uls
high light
Ġv ast
Fl ag
mat htt
G P
A udio
re ement
F M
We ek
or er
ĠR O
e b
ĠC ancer
Î ½
w ick
R ate
ub er
O wn
Ġexpat riate
ĠRes p
ex tra
Ġmat ters
P resent
al ert
Ġb uf
ĠCol on
ĠDe ath
Ġa ug
Ġtal ent
iv a
u h
ĠC S
ele m
M aster
ĠT ony
ov en
ch art
st an
el eration
g ar
ĠG R
kl ahoma
Ġro of
Ġro utes
inher it
AR D
m ont
ul atory
}) (
ure au
ĠSt ream
Ġassert That
Ġput ting
ĠSt one
Ġher o
ĠPhilipp ines
19 10
t ures
Ġfall s
Ġanaly tic
19 32
get s
Un known
g ray
Ġren amed
Pl atform
Serial izer
aud io
form ed
ĠJ ay
ĠAut o
Ġmed icine
gener ate
ĠG ab
ustr y
D rop
Pl ot
ĠC P
Ġs elling
Ġel ig
W I
Ġ> >>
******************************** ********************************
Ġne uro
ĠInst agram
= [
ĠAr k
ĠDo ctor
Ġf iber
Ġed it
bound s
om ot
Ġsit uations
Ġim plicit
ĠS ite
ĠO ak
put ation
Ñ ĩ
OP T
select or
ur is
ĠF ix
ound ed
ĠHol lywood
ĠPe ak
\ /
Ġre tain
Ġfil ters
ĠAr thur
Ġtrack ing
Ð¾Ð ²
is ations
ĠMar c
ä º
anch or
Ġte en
en berg
cover y
ock s
col n
Ġturn ing
Ġexhib ition
amb ig
Ġcorre ctions
form er
Ġel if
agrang ian
F rench
it ting
M IN
ens es
Ġun iqu
ĠAb stract
ĠAll en
}{ *
ol i
ĠMan chester
text normal
arg o
Ġgu ys
ĠReg ional
Ġexpl os
ĠP a
ip se
Ġcent ers
Ġamount s
Ġread only
ĠAl f
Ġign ored
66 66
Ġfound ation
it is
Ġident ifier
Ġ ,\
ub b
ext end
Ġtown s
iv idual
Ġcompet itive
ache lor
s ync
ĠR ab
n ie
ĠB h
ĠTr aining
ÃŃ a
pe ction
ĠW rite
ul p
Ġrun time
ĠG ard
Ġel imin
ĠP layer
ag u
os l
ĠV ice
E val
ĠS av
Ù ħ
T ile
ĠS mall
Comple te
Vol ume
RE G
Ġdraw ing
Ġask ing
m ms
Ġrelig ion
ĠCo q
Ġcompre hensive
Ġacc ret
ĠReg iment
ĠSt atus
at in
Ġk it
Ġform ulation
En v
B inding
ens itive
Ġconven ient
G M
up per
ĠF ellow
l ad
ĠCh ap
Ġadvert ising
clud ing
Ġvisit ors
s b
ĠG ib
Ġwrit es
Ġdef ining
Ġinvest ors
~~~~ ~~~~
Ġs phere
Or gan
m ay
stack rel
ĠRem ove
Ġtri als
Ġhom ogeneous
inv ariant
j k
Ġ" ",
Ġf its
comm ons
Am ount
Ġextract ed
Ġtem porary
Ġattempt ed
l oss
Ġ' ';
ri k
Ġbr on
Execut ion
ĠT ree
Ġappre ci
Ġdeb ate
Ġorth ogonal
Ġquadr atic
Ġrev olution
she ll
ta h
es tr
Ġh ide
RE D
Ġk il
ĠSc ient
cal endar
ĠAnth ony
int end
Ġre vers
Ġaim s
Ġreve als
) (\
ĠB eng
P UT
ĠC red
Ġmiss ed
× ķ
iam ond
Ġdep ict
Ġperm ut
is Empty
IN S
olog ists
Ġn an
Ġmaintain ed
P ower
b ors
it ro
19 22
on i
L D
ĠA st
P red
Ġs ensor
ĉ ĠĠ
Ġfact s
ich ol
AN G
UN D
m essages
ĠMed al
te ction
Ġconcept s
m iddle
M aterial
ĠViet nam
Ġcont roll
sh arp
Ġequip ped
} /\
not ations
Ġsh arp
Ġsurg ery
Ġindependent ly
ex pression
ĠMex ican
V ari
ĠMos cow
ĠTh ird
Ġro yal
for Each
We ight
Ġcor relations
)} (\
B T
Ġgr ade
n l
Ġo x
Not Found
pro fit
B D
d ensity
str ict
ĠH iggs
. $$
glyph icon
An notation
Ġdesign ated
ĠHol y
element s
ang el
ĠT reat
am ps
Ġen semble
Ġexhib it
Ġut ility
ĉĉ ĠĠĠ
E P
~ (\
dr iver
Ġext ensions
Ġproced ures
as ters
rypt ed
})+ (\
Ġreli able
Ġ\ ,\
resp ons
ĠN eed
ed er
Ġshe et
Ġalgebra ic
ĠPat rick
19 27
Ġne ur
Ġs oci
Ġrandom ly
Ġweight ed
Ġselect or
ĠJew s
d ark
Ġsy nd
b urn
el lect
i op
AC H
Ġex ports
Ġan chor
SE LECT
Ġh al
Ġbo ys
ĠBang l
Ġbo at
um ption
im p
O h
ĠAl abama
ĠLeg isl
Ġcompar able
ut ter
Ġdef ect
ass ign
19 24
ous es
Ġd ensities
; |
Ġman uscript
Ġdanger ous
F older
J apan
ĠHigh way
. âĢĻ
N V
Ġderiv atives
Ġto wer
Ġassign ment
Ġconnect ing
ĠM iami
Ġfil ed
Ġsignific ance
ĠFed eration
Ġ\ [
Ġfac ing
Pre v
Ġtempor al
Do ctrine
Ġd elta
ex pl
ĠW el
Y es
st e
Ġhead s
ĠL A
Ġl ob
ĠT ake
ĠX ML
19 31
ig e
Ġarg ued
clos ure
m f
Ġab use
Ġpo etry
L Y
ff ee
ĠFe b
b est
cy cl
ĠS ets
Ġv align
et ition
Ġorb ital
ĠF a
vert ex
Object s
in cess
{ (\
ĠIl legal
Ġvict ims
Ġt all
Ġsim ulated
we ak
C enter
Ġpolynomial s
ops is
Ġeng aged
R ows
M AP
Ġregard ed
v et
Ġactiv ation
text up
az a
Con structor
Ġpack et
ĠP os
ĠNor way
Ġde bt
Ġpe er
ick ing
ĠF ri
Ġinj ured
B ecause
Ġcount s
er as
Ġb id
mult line
STR ING
) >
Ġtyp ed
M en
Ġhost s
L ibrary
Ġc yl
ĠMel bourne
ĠSt ore
trans action
Ġpl asma
Ġleg islation
z i
Ġen emy
eral d
() ),
Ġslow ly
ĠE ag
el ve
ĠD ouble
Ġsum m
ro ck
dis able
> "
Ġd ip
fg han
app oint
struct ed
ac er
foot notes
valid ation
dep recated
ĠT ool
Ġreg istration
\| _
Ġsympt oms
w br
c v
er k
ĠStud y
ĠGe V
Ġap ps
W ell
Ġ elli
ĠSim ple
ownt own
ĠM atch
Ġguarant ee
Ġ\ "
cy cle
link ed
K S
Ġinv ited
ĠC NN
se a
Ġcr ash
Â ©
Ġinf ection
d ays
O ld
Ġseg ments
view port
ĠOper ation
Th row
int eger
y ll
å ¤
om m
Ġfem ales
rel ative
Ġend point
W ORD
rom agnetic
R aw
Ġcomp aring
ĠV ari
Ġb rown
ĠDef inition
Ġs ql
H tml
rep o
ol y
ĠSil ver
D id
Ġtri es
Ġen ables
s pe
in x
ĠS witzerland
arg uments
Ġsl ot
Log in
Ġdisp ersion
Ġh aven
in th
om as
ĠB alt
ĠâĢ ł
xy gen
Cond ition
d ers
ĠH um
ĠV o
Ġperm issions
ĠMethod s
M al
$ ^{
Ġprov en
E SS
Rem ote
Ġindu ction
b ib
Ġqu as
Ġappe aring
che ll
ĠB ry
T ri
id ges
Ġf ault
C lear
Ġr ide
Sup er
# {
DO M
opt s
Jan uary
el ian
}$ \
head ing
Ġinter pol
ĠDe ep
Ġsix th
ĠPhil ip
Ġsup ers
Ġwill ing
l if
Ġacc used
ĠJun ior
ĠE ver
T ex
Ġrec urs
Ġd ress
col lect
ĠBr ig
ip art
ĠAl ice
Ã ł
the w
ĠR ound
qu ir
d irection
ĠTe ch
th an
F rames
ĠJes us
s peed
ON G
ce il
ĠLear ning
Ġth ir
ch arge
Ġoff ices
el son
ĠC op
Ġacc ord
ĠH D
ĠEd ition
m ix
ĠMr s
ill ery
ĠS quad
ĠD ick
eg ration
Ġrepe at
è ¯
Ġbig ger
FI ELD
Ġentertain ment
Ġadv ers
ubl in
Ġb aby
Ġpar ish
ic ut
ĠW IDTH
Ġcour ses
m obile
MO DE
el ines
l ined
Ins ert
Down load
ĠPh oto
ik h
Ġequ als
uth er
Ġord inary
l iving
refer red
Ġg ro
w ich
Ġlist ening
Comp iler
> )
met ic
Ġb on
ĠY es
Ġoccup ied
Ġtrad ing
Ġwas te
Ġj s
ard o
Ġmer ged
Ġconsider ation
ĠE uro
ĠD un
Ġrat ios
Ġh oles
at io
ren a
Ġdevelop ers
Ġstre ets
p ages
Ġres id
ĠSh ould
Ġregular ly
ĠS A
is ons
Ġim plied
Ġwalk ing
Ġcarry ing
ĠPy thon
D ATA
cont ents
K n
ĠPr int
Ġprom otion
Ġprem ier
=\ {
P N
ĠGree ce
Ġdiam eter
Ġval uable
Constr aint
$- $
f actor
Ġres olved
em bed
Ä ĥ
Ġcontinu um
Ġsp oke
B atch
The me
an im
Ġes cap
M ount
f act
M arch
Ġchair man
Ġwhe el
gress ive
Seg ment
EN V
ator ial
h fill
se ctions
p ag
Ġl aid
u is
ĠMon te
h ire
ĠH ans
bo ost
ss on
Ġcopy right
Ġp up
Ġenh anced
ĠRes ources
f mt
Ġdis miss
Null able
ox y
App end
Ġent ities
ic ode
Ġm ine
Ġsurpr ising
l arg
m aking
Ġinter vals
Th rough
Ġgrow n
ĠM and
$ '
p rom
Ġpay load
19 21
Ã¼ r
ĠS n
al ink
3 50
or b
Ġold est
periment al
ĠP ur
ash i
Ġreson ance
footnotes ize
S an
scal a
Po jo
ĠD A
Ph ys
He alth
Ġpenal ty
Ġform ul
ar o
Ġg ift
Ph il
Ġ ur
Ġbro thers
I AL
se lection
ĠV in
Ġro oms
Ġcon cluded
ter y
Ġb are
Ġcol le
Ġbr ands
c assandra
Ġcap tain
Ġ" >
ur ric
mit ter
Ġpresident ial
get Id
B inary
Ġcut s
Ġen umer
ĠU V
Ġre ly
Ġthrow n
re pository
um ul
St andard
nt il
Ġcol lections
Ġag ed
h our
w arn
9 00
: '
DE F
th ick
ĠDef ense
W IN
H on
h ill
j ax
cont act
Ġst roke
ens is
Err ors
Ġst ood
Ġfor th
sc ore
ĠB ra
ĠY outh
ili ary
Ġr ugby
em it
ĠCor ollary
Ġun us
Ġa ux
ĠSch olar
lib s
if ndef
ĠC ape
B eh
ĠAl gorithm
Ġref used
Ġh ospit
*} [
t age
ĠTok yo
Ġmain tenance
Ġreve al
Ġinnov ation
text color
com pute
Rev iew
h us
el and
Ġre ar
1 18
ate ur
Ġb ath
Ġ( @
B g
19 26
ĠA C
Ġbl ow
Ġprinc iples
g ments
ĠCO L
á »
ph rase
Ġoutput s
Ġid x
ail ing
Ġappe al
ĠWAR RAN
v y
ty pen
on na
ĠJ os
Ġpro test
Ser ies
Ġcommit ment
ĠWh it
ĠBow l
ĠE arly
Ġlaw yer
t ouch
ĠĠĠĠĠĠĠĠ ĠĠĊ
Ġv oting
up arrow
ick y
por ters
D ynamic
Ġbur ied
ĠG all
ĠSt and
Ġconsum ers
Ġgr ass
alt Color
Ġass ault
HO ME
;| &
10 3
Ġsch ol
ĠMo ore
ex amples
ĠB os
Ġkn ock
A SE
St atic
Ġcap abilities
b one
19 25
Ġd ies
ul um
ĠA SSERT
Ġprovid ers
Ġtot ally
Ġf ired
ä ½
Ġhe ter
ĠL as
Compar ison
und les
Ġh am
ĠM ock
Ġinstr uctions
ĠD omin
ĠSe attle
n ik
ĠPro du
R andom
Ġcircum stances
F i
_ );
Ġex clusive
Res olver
E ven
Ġr ising
b ow
ĠG er
ĠAl bert
ol o
Ġcond itional
Ġf lood
Ġch ap
ĠK am
Ġg overning
ĠC SS
Map per
}. }
Ġlog ging
S pr
10 7
ĠE ffect
Ġat om
Ġj un
igr ants
Ġsat ellite
part icle
GB T
W ho
ãĢ Ĥ
Ġ" .
K it
19 15
Ġdistingu ish
Ġcirc ular
19 23
19 12
Ġ' ',
ab c
ĠL java
Ġin tern
Ġbr anches
Ġb ott
Ġup coming
Ġappro val
ri ent
Ġre pository
F uture
ĠO pt
ĠB ah
d m
ĠI mp
ĠS port
Ġstream ing
ĠKent ucky
ĠN atural
Ġbe ar
ĠHow ard
e ah
Ġto ler
t b
Ġart ificial
SCR IPT
Ġabs olutely
Ġe gg
ĠMar ine
k ov
u ity
Ġfor g
NO DE
f etch
ĠO k
}) ^{
M o
Ġs olved
Ġcommun ications
ĠM ars
Ġsustain able
Ġ ĉ
Ġpro ud
ot te
ĠD og
ish ment
H am
ĠG ram
il st
Ġmag ic
\ },
C ONT
C oin
Ġ' .
Ġ$ ^{
m atic
Ġsub space
Ġpublic ations
Ġfr uit
Ġco aches
char acter
RE E
Ġc od
Ġil legal
T Y
Ï ĥ
erm i
ĠAg ric
ur ers
Ġd im
ink ing
Ġt ip
typen ame
bet ween
Ġv oted
ĠSer ver
in cre
bold math
Ġvot ers
Ġcon cerning
Ġs urn
Ġtrans verse
R ich
Ġs essions
Ġne arest
al ia
ĠBar on
ĠG irl
Ġshort ly
D IS
Ġarr ival
Ġbeaut y
Ġ$ _
br ane
Ġanaly zed
alax y
Ġcollect ive
ĠFin ancial
âĢĻ ,
direct ory
ad v
Ġprov ision
Pl ace
Ġdr um
Ġd uty
we alth
Ġmechan ical
ĠN ev
Ġqu iet
Ġm ales
arch ive
Ġent itled
ĠLO G
ce iver
ĠB ased
ĠM unicip
And roid
ĠO klahoma
ĠTr ack
id o
Ġsup plied
ĠTown ship
ang les
Ġassoci ate
O lymp
AT CH
c n
Ġs lope
Ġp ictures
ind ependent
19 16
def n
Ġadapt ation
ff f
pro pto
ĠRef erence
Ġowners hip
Bi ography
] =
ĠLa ure
Ġw elcome
Ġregard less
Ġ" %
ĠDemocr ats
bin om
Ġsub mitted
ĠAd vent
ic ates
Ġep och
Ġposter ior
f ef
Ġte ch
× Ļ
Line ar
Ġdise ases
Ġas set
P e
Ġinteg ers
M ag
Ġtraject ory
Ġl ake
ĠTh ose
ĠS ep
n amed
Ġhon est
Ġsim plicity
ĠRes ult
Ġimprov ements
Dep th
ĠPh ill
over ty
amazon aws
AC CE
n os
Ġgrad uate
Ġsurv ival
ear ing
P al
m ount
Ġterm inal
Ġirre ducible
Ġre aches
Ġlocal ized
iem ann
Ġf mt
Ġcons ervative
inc ial
Ġneut ron
Ġtr ains
as hes
Ġcho osing
1 16
Ġch arts
ĠH ilbert
] ^
u et
Ġvill ages
Ġinflu enced
Ġ æ
Ġhydro gen
Group s
Ġemploy ment
Dr ag
Ġim aging
Ġmark s
Ġt d
Ġcompet e
Ð ¿
ĠP i
V ICE
per ature
B ro
List en
Ġconsequ ences
ort heast
Sp an
P aul
S ort
W B
Ġemot ional
h yper
Qu ant
oun ced
Ġcon vention
] +
ac ht
ĠG arden
Ġsett led
g if
G ood
C ulture
ĠD al
issip pi
n ative
Ġim g
Ġcons c
ĉĉĉĉ ĉĉĉĉĉĉ
Ġnorm ally
Str ategy
D er
C LASS
lo yd
aud i
ĠB us
ign er
As set
om es
ĠR on
n ed
int ro
Cont in
ĠT ax
Ġtransl ated
10 6
pre vious
Ġb ul
com par
s pl
Ġdiagram s
Ġtok ens
ĠHaw ai
Ac cept
O w
n an
ĠBase ball
Aug ust
Ġmin ing
Ġtr unc
$ ^
ĠP as
riter ia
et he
B N
ĠN ik
ĠTh read
ĠVill age
en ix
am ount
": "
o is
ol ph
ut able
read er
Ġang les
A gg
R ot
R ober
lik ely
Ġpseud o
$\ \
ĠAh med
ativ istic
Ġref lection
Ġm art
comm it
Ġcom ic
p ic
Ġstreng then
ĠNiger ia
ĠLin coln
Ġaccomp an
am ents
ene z
Process or
¿ ½
oc y
Ġleg acy
Ġs ocket
&= &\
F UN
Ġf lying
Ġst arring
Ġse ar
ĠI L
Ġempir ical
T L
Ġ ~\
ĠK elly
ĠCon stant
ro b
work s
Ġch a
Ġfe as
Ġnom inated
Ġris ks
con tain
/* !
Ġsmall est
ĠIslam ic
Ġimprov ing
Ġpick ed
old s
Ġent ering
us r
Ġform ing
Ġfore cast
link s
J une
ĠClass es
A bs
Ġf itted
( .
ig ious
Enc oding
om er
re tt
Ġ< -
Ġsit ting
2 20
Tim er
ĠFre der
C ursor
Ï ģ
Ġfor get
ĠP red
ĠC ow
Ġme ets
ĠTai wan
ĠSing h
Ġ ig
Ġant icip
R UN
Ġwat ers
Ġf asc
v ars
H ar
MM ARY
M essages
Ġcrit ics
ĠWalk er
ĠAtl anta
Ġb acter
\ }.
ĠIndones ia
Ġcomp an
Ġgun s
N amed
ab i
Ġmat ched
Ġcontinu ing
ine ar
__ ["
ĠL oc
uff ers
ĠF arm
Ġs av
B ad
Ġinstr uments
F n
De ath
.* ;
Ġcer emony
ĠRepresent atives
Ġmin i
Ġabund ance
External Task
qu ality
Ġcheck s
ĠM obile
Ġlyr ics
Ġveg et
Render er
au i
Ġb irds
ĠS el
Point s
5 12
Ġsign ing
Ġtrend s
Can adian
th ree
br idge
ĠDet roit
Ġop ens
Ġtalk s
\ [\
Ġ' %
Part icip
10 8
sw ing
A wards
Ġkind s
ĠB ureau
ĠAn ne
us al
ĠBangl adesh
] ))
g re
Ġin ference
as a
Ġst ake
Ġ{ %
Ġenc oded
ĠR et
Ġs oul
f ac
ĠRober ts
ĠPl ant
ĠP rom
Ġprocess ed
cl ide
ĠBr un
,... ,
ĠQu ery
Re act
h alf
Ġfew er
& &\
Ġexcit ing
Draw ing
g h
Ġemploy ee
m ill
Ġdes ire
Ġtext ure
te am
Ġinstall ation
Ġtouch down
ĠW y
or ro
ĠJ osh
lim inary
Ġsepar ately
Ġinitial ize
ict ional
ĠAust in
ograph ical
ĠIn v
Ġt elling
ĠB Y
Ġapparent ly
d n
s z
e ast
text sf
Ġweek ly
ĠH ad
Ġwe bs
Ġaccret ion
or ous
P ress
ĠĠĠĠĠĠĠĠĠĠĠĠĠĠĠĠĠĠĠĠĠĠĠĠĠĠĠĠĠĠĠĠ ĠĠĠĠĠĠĠĠĠĠĠĠĠĠĠ
A pril
Ġaut hent
Ġthought s
Ġpro be
ĠL INE
**** **
ĠR ap
ail and
ĠTr ade
c ov
Ġstead y
Ġroad s
p kg
Ġperform s
Ġimp ly
Ġfranch ise
b olic
op am
Ġpack ages
Ġdesign er
ExternalTask Pojo
Ġexam ine
ĠD ave
N a
V C
Dep recated
Ġocc as
ib l
Ġw av
Ġphot ons
an ia
Ġsucceed ed
55 5
Ġpl ain
Ġul tr
Ġal cohol
Ġs ync
ĠPr act
ĠL am
u on
}^ +
ĠB ull
Ġstrateg ic
ĠHer itage
Test Case
re nt
A z
Ġpro hib
Ġ\ {\
ĠA fghan
ter ior
Ġ\ |\
Ġhealth care
Ġmorph ism
S i
C ity
Ġmolec ules
Wh ite
Ġparticip ation
sect s
comm un
l icenses
ĠSar ah
A K
Rel ated
Ġform ally
apol is
Ġcomp iler
Ġmach ines
ben ch
Ġo vers
Ġing red
ĠĠĠĠĠĠĠĠĠĠĠĠĠĠĠĠĠĠĠĠĠĠĠĠĠĠĠĠĠĠĠĠ Ġ
Ġcy cles
E urope
Ġj azz
Ġm esh
Ġarr ive
back s
w i
at ers
Ġret irement
Ġelement ary
Ġclos ing
è ¿
F act
im itive
new line
ĠN um
roph y
C ounter
Ġpro to
Ġ å
ĠM aterial
ĠCont act
Ġattack ed
Ġalign ment
dis tribution
Ġ{ },
ĠJ son
ik ip
lear ning
ĠD VD
_{ +
level and
st rip
HE AD
Ġaug ment
Ġd il
d jango
N or
âĢĻ .
TH ER
ha ust
Ġh orizon
Ge V
ĠH erm
Ġpl ots
Ch ain
ad oc
}[ !
ĠBe h
Ġtransport ation
F ace
rt l
Ġapprox im
Ġfall ing
Ġcool ing
li a
ĠUkr ainian
Ġentr ance
uk i
os c
Ġ( ;
ĠSt ew
Ġem issions
ab ul
k ernel
ĠMc K
ur se
ĠEx per
}^{ +
LA Y
Cont ents
) }$.
ar ma
Pro position
Ġf older
Ġsurpr ise
ï ¿½
Ġt ough
Ġdef ensive
Ġdecre asing
Ġcert ificate
Å ¾
od o
Ġunit ary
ĠSt ill
enc ode
fef efe
ĠST ART
Ġ_ ,
ĠM adr
Ġliter ary
Ã© t
ĠYear s
sub equations
Perm ission
Ġinterpret ed
un iform
Ġph arm
Ġb reed
es a
Ġrecover ed
) _{\
Ġ{ $\
Ġg arden
Fil m
b lob
int o
f p
nov ation
S epar
res pect
S pecial
ues e
Ġclass Name
Ġmarg inal
J uly
ĠAuthor ity
Ġbron ze
M a
Ġequ ally
EE E
ĠWal ter
oc ese
Ġeduc ated
ĠD ak
Ġf ought
"> (
ĠConfig uration
Ġf i
19 13
ĠD ur
ĠN ash
U V
ĠTh ough
ĠF er
ors es
ĠPr ivate
Ġhor ror
tern oon
Ġhelp ful
c ountry
z ym
ĠLab our
T ouch
Ġtransform ations
big cup
l on
gener ator
Ġhead quarters
ĠH u
ĠPal est
Ġcorrespond ence
Ġanim ated
11 4
Ġdoll ars
Ġd yn
ĠC C
An alysis
dis patch
can vas
Ġfun ctor
Ġ& $
Ġoper ational
ĠAdd ress
Ġreli ef
m aker
Ġt icket
Ġincorpor ated
ĠL anka
Ġacqu isition
_{ -\
ĠA le
tr ain
top ic
cod ec
t v
Br idge
Ġenjoy ed
Con sole
li est
Ġeng ines
ĠB ron
bar a
p ad
ap ple
u uid
Ġbreak s
ĠAust ria
Ġ( +
Ġlabel ed
Ġm oth
CON FIG
column s
ĠG ordon
aut ore
Ġc ircles
book s
Ġmill ions
Ġfocus es
ĠK it
Ġarg ue
m apping
Ġo cean
c ost
Ġreg ulations
U pload
Us es
l int
ant ed
iev al
ars ing
." ""
ĠCo oper
ĠTem ple
ĠOrgan ization
clide an
I Z
P s
Ġch ains
Ġdec line
10 24
ĠD allas
ĠL agrangian
Ex port
ĠWhe ther
ĠN ob
Ġoper a
l m
Ġs ons
ist ically
$ }}
ey ond
Ġal gebras
leg es
ĠC ole
Ġad mitted
Ĩ Ĵ
r ules
Ġautom atic
ĠAnton io
Ġpl astic
ram a
T AG
Ġs i
Name Link
ia h
left arrow
Ġdifficult y
r ame
Ġgreat ly
ĠMem bers
æ ķ
ĠÃ ł
ĠP romise
S ame
out ing
BU IL
Ġmay or
Ġw ine
ĠInd ependent
Ġres erve
Ġinform ed
ag ma
row th
Olymp ic
et r
ather ine
hy thm
Ġinj uries
ry ing
ir i
c ity
w allet
script scriptstyle
Ġt ank
10 9
at om
Ġguid ance
Ġdeal ing
Ù Ī
Ġsus pect
ĠC F
end ment
sp ir
create Element
Ġgrow s
ĠEqu ation
ial s
ĠT ab
F OR
ĠCon text
ĠVol ume
ub s
Ġturb ul
Ġent reprene
Ġs weet
Ġco ins
Ġround s
Ġmeet ings
C ross
M ajor
Ġal pha
ikip edia
Ġoff ensive
Ġshe l
P eer
RE SU
Ġpublic ly
ĠL eft
ARN ING
pro blem
im ore
assert True
upl icate
Ġt unnel
f av
ater al
ĠC ert
Ġpropag ation
Ġestablish ment
ĠM C
ĠÐ ²
uer to
\ }_{
IE W
Ġtem ple
or us
er red
w hat
cal cul
ĠN ag
Ġrele ases
ĠM ust
le e
Ġdirect ors
R a
Ġintr insic
con ver
ĠOut put
ĠFor ces
Ġman ual
Ġvol umes
ma j
Ġag es
Ġunivers ities
Ġinher it
Ġr ival
ellect ual
al ias
Ġf urn
Ġbre ath
( ['
Ġpubl ishing
Ġincor rect
Mich ael
Ġsimilar ity
Ġt ied
nol imits
L oop
ym n
ig g
Ġfair ly
ort ex
Arg uments
P ut
ation Token
) ",
C he
ĠSU MMARY
ĠH ave
Ġaddress ed
ab ad
omorph isms
Ġgen etic
Ġorder ing
Ġmedal ists
ĠDE FAULT
Å «
Ġanalys es
Ġover view
ĠRes erve
D an
Ġg ang
ĠIsra eli
Ġprepar ation
19 11
b oth
Ġcent uries
iv ities
ĠCh ile
" |
Ġprob abilities
Z one
D iff
Ġiter ations
Ġref uge
B ool
Ch art
ĠW ord
am an
ĠB uff
ĠGr ad
ĠI ron
em pl
class Name
Ġa ria
Ġy es
ident ity
Ġ& #
Ġn s
Ġgener ators
Ġc b
ĠF ive
Ġsp arse
Ġtri angle
Ġmov ements
Ġpass engers
Ġmusic ian
Ġformer ly
ĠAl bum
Ġp ulse
ĠMay or
f lix
Ġa str
ĠStud ios
Ġins ight
indu ced
ok er
ĠTh er
Ġdis cret
Ġpres erve
ID E
CO MM
Ġours elves
All oc
A lex
ĠH ug
ĠW as
Ġst retch
O BJ
small skip
Ġcomb ine
d anger
F ac
is o
Ġdisc ipl
ĠDat abase
E Y
H older
Ġnarr ative
19 01
Ġfound ing
om ing
Ġwe aring
Ġrank ing
ĠPart ners
Austral ian
ĠOr th
ĠWith out
flu id
Ġpull ed
}) =\
Ġpod cast
Ġh int
13 5
De cember
Miss ing
Ġsh adow
um ing
Ġrece ives
Ġsoc cer
ĠI C
ĠSw iss
ĠNor wegian
Ġpar a
ĠSchool s
Further more
ĠB uck
me asure
ĠG un
$\ ,
l ive
ĠAl ber
ĠLim ited
ĠAl liance
Oct ober
Ġdis able
ĠP ho
Ġsl ice
Ġinnov ative
N UM
( ()
ĠMc G
Ġtr im
second ary
â Ĥ¬
Ġre act
O k
i est
G ER
bel ow
Ġs alt
ĠEx p
ĠP ap
ĠD elete
Array List
Ġinstit ution
D ATE
Ġal ive
to Be
UE ST
Ġoverl ap
Ġtransform ed
S elf
ĠOC aml
j Query
sp aces
ho le
B IT
Ġremain der
Ġphenomen on
del ay
Ġaware ness
ĠVAL IGN
ĠE ss
ĠWork s
Ġencour age
oc he
B usiness
* \
ĠM icro
ab olic
ĠNew ton
dr iven
E lect
Ġsit uated
Ġre ception
ĠArt icle
is y
ĠDo es
Se ptember
ĠN BA
J ames
Ġchild hood
Ġeng agement
B ounds
ĠS end
24 0
i ology
p ref
st ers
p id
um ar
ĠN ature
Ġinv olve
S plit
Ġreal istic
jav ax
m ate
Ġro se
Ð ·
ol ly
ĠĠĠĠ ĠĊ
ec l
Ġremov ing
f ake
ĠDe an
Ġstrugg le
Th ree
Ã ´
RA Y
Ġdecl are
Ġd ot
ch arg
X Y
m al
am er
erm in
Ġlif etime
à¤ ¾
Ġmix ture
à ¦
f ish
Ġdog s
Ġp ump
ĠInd ustry
Ġd war
ĠConnect icut
re peat
Rec all
Ñ ĸ
log ging
ĠF M
Ġfl ash
Ġmod ification
____ ____
L ear
RESU LT
Ġsup plement
IC ATION
Ġpr on
ĠPr ice
ĠQueens land
st ory
ĠSt age
ĠCov id
C md
ick en
Ã ª
med ium
ant i
Ġt ennis
ĠLouis iana
Ġde als
oid al
ĠN ichol
ĠL ock
Ġl ots
Ġvict im
Ġconstit ut
Ġrul ed
Ġpeak s
M art
Part y
Col lect
p n
comp act
ĠJ ason
Ġc up
Ġkin etic
Ġgener ates
B oth
ĠP O
ig ator
Ġf ul
Ġcl ar
Ġdeterm ines
ĠD J
Ġansw ers
Ġproject ed
Add r
al ph
d z
Ġplace holder
Ġsing ing
Ġ Ä
Ġm igration
ĠD ub
Ġgu ests
raz y
Ġim pl
Ġun expected
Ġf etch
Ġb ases
Ġreal ize
ĠBer k
sh are
ant on
ĠP od
ĠU pd
T y
Ġke eps
abl ing
Ġeigen value
Tim estamp
Ġexpect ations
00 5
Ġexpl oration
Ġis omorphic
Ġaver aged
Ġre plic
Ġvisit ing
Ġaim ed
Ġsynt hetic
Ġdr ums
tr ight
Ġcon e
Ġant ib
ugg ing
Te am
op ter
Ġsc an
fr agment
B F
Ġstation ary
Ġbe ach
Ġch unk
å Ĭ
id ad
qu al
ar ance
Ġtim estamp
Com put
âĢ ĭ
ĠB ab
str ings
Comp at
ĠN ap
ĠH ills
end ers
ĠPer formance
Ġan th
ĠW ang
ch anges
19 08
p us
Ġint ention
) &
Ġfriend ly
Ġman aging
inter val
Ġprofession als
Ġabandon ed
d ing
ĠAl an
Ġto x
Ġphil osophy
Ġbeliev es
ĠPr ivacy
> ()
lin ux
le et
Ġpain ter
\, {\
V irtual
stats models
Ġprof it
Ġun like
Ġcr ick
Ġput s
ts burgh
v t
m ates
Ġvari ants
Q ual
r as
ĠMiss issippi
AS K
ĠStud io
Ġed ited
ĠM ission
oc a
Ġr anging
ge on
Ġl icensed
Ġres cue
Ġsubs cription
Ġdepend ency
V ec
hip s
Ġcov ariance
B ibliography
ĠTur kish
Ġsuper ior
ĠInst all
rout er
Ġrecogn ize
V AR
oc om
chedul er
) }$,
i ot
ĠM organ
L icense
he el
Ġlog arith
ĠV egas
cite alt
Ġmy th
ĠF ame
ĠU tah
Ġde leted
Ġpass enger
Ġn urs
Ġpl enty
Ġentang lement
ist ol
}} ,\
cor respond
ĠAtt orney
ah n
UB LIC
14 4
< <
H ave
ĠH ell
Ġdis contin
ĠHar vard
Pr imary
ĠIm port
Ġinter ference
ĠTele vision
Ġg rap
ĉĉĉĉ Ċ
Ġge odes
ĠMark ov
A ir
ĠOther wise
ĠI F
Ġco ffee
str ument
^* _
T l
ĠD ublin
ex cept
Ġpro position
_{ [
" },
cos ystem
Sign ature
if ference
Ġspher ical
Model s
Ġconver ges
rem ote
Ġf olk
ĠWe bsite
ag h
ug s
Ġr id
Ġpri ze
h istory
ĠS elf
ul o
tribut ions
Column s
C V
Ġcommand er
ĠBul g
Ø ¯
ĠP ear
ber ry
Ġfle et
ĠCh ampions
| _{\
un lock
ĠE mb
Ġw el
Ġhol iday
ĠM I
In f
ĠS R
Ġrac ial
ĠBe at
ĠThom pson
g iven
ĠStud ents
vel ope
Res et
-------- --
Ġinv asion
ĠStud ent
Des pite
iv o
ĠArgent ina
er en
Ġcl one
int ell
Run ner
Ġprodu cers
Ġneg lig
19 2
ra ig
S chool
Pol y
T yp
m outh
as is
Ġs cre
ĠAng el
[ ]{
Ġcomp ilation
Ġar ise
S witch
T X
Ġe c
refer ences
Ġmar ine
k ing
Ġt ens
ic ht
Ġd s
D onald
Ġdis patch
T M
at ile
ate way
act ual
b ul
Ġp sy
ĠC os
Ġann iversary
M us
ĠM eg
Ġexpand ing
p al
Ġmathemat ical
In jection
Z ero
Ġc rypt
Ġconsider able
Ġrequ iring
S ite
s ass
ĠNC AA
Ġrest ore
Ġw ider
Ġremov al
Dis patch
Ġd ictionary
ĠCre ates
' $.
t l
ĠAb d
tim estamp
ĠSever al
tool tip
\| ^
ĠG raph
OR K
ĠCol umn
ĠY ang
Ġgovern ments
Form er
Sports people
tr action
ĠT arget
ĠTr avel
Ġaccompan ied
Ġm ath
Ġpl otted
Ġd ial
2 30
Ġestim ator
ab stract
}) )
Ġbox es
ĠLaw rence
ĠD oc
ĠPubl ishing
Ġem it
| _
w alk
Å Ł
ol t
c fg
Ġp ending
opt im
ĠCom par
id ity
ĠH ost
s qu
Ġgen re
Ġstr uck
Ġdep icted
Ġanaly tical
Man agement
Ġrun ner
Ġtr uck
Aut hentication
Ġas ks
Ġd ating
S al
Ġtarget ed
du al
cc c
ĠF O
Ap J
et o
^+ $
tright arrow
(' <
ĠAn na
f older
Ġbelong ing
Ġpro x
av is
ort on
b inary
r pc
in ces
Ġs oph
Ġo xygen
in ian
f our
leq slant
get String
ĠBuild er
Ġover flow
ens ively
Met rics
}{ }
att ed
ĠMar shall
iver pool
t ot
Ġn ick
Ġs ad
Ġoper ates
Ex tra
ĠL P
Ġiniti ative
Ġin duct
= %
ĠIm ages
ard ing
ain er
Ġcr icket
Ġen forcement
Ġliter al
Ġcheck ing
Ġaff ine
s olid
ĠDr ive
Ġobvious ly
Ġadm its
ĠM ess
Ġm ic
ĠT an
est one
> ;
le w
Ġelig ible
Ġf inger
ĠT el
Nov ember
PH P
l r
res olution
ĠTh ailand
Ġpay ments
Sh ared
f ather
Ġin aug
ĠB ush
ĠChair man
N umer
Ġemer ging
Ġcons ent
Ġfocus ing
sur face
ss l
enc er
bl ing
Ġathlet es
ug u
Ġany where
Ġp ole
m ir
L M
ĠRuss ell
rat io
Ø ª
ann on
Ġf abric
Ġsplit ting
C ALL
Ġbeh alf
Ġrot ate
A X
ĠPo isson
Ġcriter ion
Ġfrequ ent
Ex ists
12 2
ĠM agn
An aly
En able
Ġs a
ĠM aur
Ġsk ill
b n
Ġcent ered
intell ij
ĠA pr
ĠH oll
ĠMult i
Ex pected
Ġup grade
ĠN ation
in burgh
Ġ\ }
Me an
G EN
d in
ĠBelg ium
Ġcut ting
Ind ian
ams ung
ious ly
G ui
LI ST
×ķ ×
Ġt issue
Ġ Ñģ
ĠDev elop
TI ES
ĠW ard
win ning
g raphics
Ġsub sets
ĠFe ature
h arm
Ġre actions
ur u
ĠF ern
it ure
V I
U AL
ĠA BC
bound ed
ĠK o
enc oding
ĠLINE AR
Ġund ert
dat aset
Ġagric ultural
Ġcon front
ĠSoc orro
ig o
Ġremov es
ĠAct ive
ro oms
Ġweap on
ĠL ay
A ST
Ġh at
Ġgeneral ization
U CT
ac ew
ĠF red
ĠCro at
SS ION
ĠL evel
Ġfra ud
L o
Ġn ations
ĠEm peror
i ang
LE TE
g un
Ġground s
Ġimpress ive
Ġbi ological
or ry
Ġuser name
set ting
prov ed
Det ector
Bl ue
Ġcan vas
CC ESS
ĠDoug las
Ġconsist ency
ab ove
Ġh ired
M ass
and al
met ric
ĠAb b
Option al
E ducation
Ġ| =
Ġac oustic
99 99
Ġgu idelines
N Y
Ġart ifact
ĠOper a
un ed
ion ed
Av ailable
Ġdiscr imin
in formation
Ġcompet itions
process ing
le ans
it ud
Ġprote ins
Ġs wit
ĠF inn
Ġperfect ly
çĶ ¨
Ġres idence
Big g
' +
> %
Ġfin ishing
on line
ĠP aper
Ġfl av
L IN
Ġill ness
ĠEq s
> [
ĠT OP
itar ian
with out
Ġcoher ent
Ġt ur
Ver ify
Ġfe es
FF ER
P romise
ĠS S
ĠSaf ety
ĠJ ob
ĠIt em
Ġin vert
Ġch urches
Ġcoll isions
ĠD R
ass oci
d ashed
T or
å Ń
ĠAd vis
Ġ ----------------------------------------------------------------
ush ing
Pop ulated
qu et
Ġcomb ining
ov ak
B u
ill o
w iki
mid rule
Ġfin ance
Ġp ip
Ġthem es
LIC ENSE
Ġf ro
ĠT alk
je ctions
Ġdispl ays
Ġbl ank
od ox
ĠD id
Ġar med
jack son
Ġb ag
at ics
grad uate
ĠHon or
a ac
Ġout standing
Ob server
v n
Ġcor related
overs et
. :
Ġp in
ĠR at
le ading
ĠH old
Ġres idential
ĠCh apter
val ued
TO M
Id x
L ive
min ute
SP AN
D TD
Fail ure
Ġl ands
ĠCar lo
en h
UN T
cl ock
ĠN eg
Ġcal endar
Ġthous and
Ġmer ger
olv ement
ĠF al
ep h
Ġspect rosc
Ġex ponent
Ġpar ad
re le
Ġb il
be at
bo ards
Ġal ias
Ġcub ic
eles cope
l b
v endor
Ġlog in
Label s
elf are
ĠL ang
. -
Ġst ating
Ġamplit udes
18 90
C ountry
ĠDel hi
inn ed
C irc
Ġimag ine
PRO P
' ',
Ġb ird
og a
Ġins ights
ĠBet ween
Ġelectric ity
Ġf est
ĠS ud
Ġhapp ening
e u
Ġpres erved
ĠĠĠĠĠĠĠĠĠĠĠĠĠĠĠĠĠĠĠĠĠĠĠĠĠĠĠĠĠĠĠĠ ĠĠ
Ġorgan isation
W arn
ĠM IT
ĠPol y
ev a
ĠSam uel
ĠWARRAN TIES
================================ ================================
LE MENT
ĠG ray
ĠBr uce
ĠY et
Ġconsist ed
L and
G H
Ġcell padding
ay an
ĠC T
ĠA GN
mem bers
In ner
Ġev ident
Ġhigh way
ĠDen mark
Ġrep air
r h
Ġcell spacing
R ail
Ġelse where
Ġs ke
ĠFin ance
A SSERT
ĠF ried
if i
Ġall ocation
Ġp ushed
man agement
Ġintrodu cing
C ancel
Ġinhab it
Loc ale
Ġobtain ing
Ġres erv
Ġfarm ers
Â ®
ĠS ac
get Instance
ro se
ul ates
c op
Ġt ropical
Ġm eters
ĠS pect
ur ities
B orn
Ġsh orter
ampl ing
ĠC ell
ĠN i
su it
ĠG irls
equ ate
ass ador
H ook
Ġ-- ></
ĠP ope
Ge ography
Ġ( ),
Ġorgan ic
deg ree
ĠF ermi
>< !--
Ġaf ternoon
ĠB art
Ġrestaur ants
Ġg ray
Ġad mit
ĠMalays ia
5 000
F eed
ĠK az
Ġcond ens
ĠU t
Ġhead ed
ĠA B
re ason
il ty
Ġback ing
cl s
not ify
Ġsurv ive
un ning
ĠL ag
F ALSE
Ġch at
AT TR
Ġsuggest ing
S am
ch at
ard ed
Ġhand led
IN VALID
Output Stream
Ġelect rical
ĠL iving
Ġthere by
Serv let
19 07
max cdn
Ġpaint ings
ĠPar se
ĠPat ri
Ġhistor ian
Ġg ram
Ġb ot
}} =\
Ġjun ior
N R
t oc
ect ure
String Builder
ĠSt op
Ġf er
M ust
Ġis lands
c ancel
ĠAl tern
ĠArg ument
Ġdiss ip
ĠH ope
ĠP ad
ĠMov ie
T wig
Ġp arsed
au k
z es
ĠK l
Ġher itage
AR G
ou ver
Ġrepresent atives
ĠSh ah
Ġpark ing
Des ign
t m
ĠS ho
Ġwith draw
ĠJ e
ĠI ter
Ġdem ands
12 4
pl er
ĠPh D
ĠEnvironment al
Ġdis appoint
Ġcomp ression
" /
Ġdeleg ate
' },
Ġinher ited
ĠRem arks
Ġrecord ings
ĠChrist opher
sub stack
ĠJ enn
Ġmet res
ĠAd ams
C s
ĠT ar
S ide
Com b
Ġrep ly
Ġig et
Ġcontrad iction
ĠF oot
Ġf usion
uc lear
AV E
ĠBrazil ian
Ġcour ts
ĠCommun ications
Ġproject ive
Ġcosm ological
Ġens ures
map s
ĠElect ric
ir ates
Ġsh apes
c ursor
Ġspe aker
T oday
Ðµ ÑĢ
LO W
Ġcommission ed
Ġgen es
Mill is
ith metic
Ġspirit ual
Ġcoron avirus
ĠR etri
Ġw x
ne e
Ġ" '
Ġan isot
iss ance
Table Row
B H
! (
Ġsing ers
40 4
OL D
ĠR ic
ĠThe ory
ath y
(" %
pos itions
ĠN ic
Be en
sd k
be ing
IM IT
tra ctions
Ġbre ast
ĠP un
Ġferm ion
Ġident ifying
ĠL LC
onom ous
ĠP sych
Task s
ĠB ou
Ġmid field
build ing
Ġcryst al
Upd ated
Ġ' _
Load ing
Ġc ited
Res earch
ĠPal ace
av ia
Ġdis joint
run ning
Ġpay ing
Ġn eck
ĠF ant
trans port
19 09
S il
ĠS eg
Ġeffect iveness
ĠPe ace
ĠW right
S core
ĠCh o
mark s
ĠPortug al
Ġwebs ites
3 20
RE CT
ĠCom ponent
SO UR
re ts
ĠRob inson
ĠR y
ĠAl b
ĠH ockey
ĠB log
Ġre putation
ĠEv ents
" ];
le f
ĠRel ations
uch y
RA ME
Ġeng age
Ġel astic
not in
ĠD ance
ĠK itt
ĠOr leans
C amp
ĠB uffer
ĠP eters
DE X
google apis
ĠR iemann
19 05
Ġat tributed
Ġnormal ization
S pe
cons istent
W ar
qu est
Sh are
mar shall
get Type
A ctions
s ame
Ġ uri
Ġf s
Ġdesc end
ĠR oom
the ory
ari ate
F ixed
Ġcomb inations
ambig uation
Enumer able
s ure
t one
ĠMay be
ĠC leveland
Decl aration
b ach
Ġsecret ary
Ġav ailability
stit u
P an
4 50
ĠMod al
Ġfl avor
ĠI ce
c ence
Ġhe ll
=- =-
Ġt uple
Ġtw elve
G l
m ov
Ġprov es
ĠU g
ĠC er
E u
Ġwonder ful
Ġharm onic
ĠHistor ical
Ġunus ual
Ġev il
s yn
ĠR elease
Ġclos est
Ġd ose
Ġun stable
Ġred irect
Ã «
M achine
Ġ$\ |
ĠU RI
ĠKn ight
Ġden ied
Trans lation
Ġarr anged
Ġ- =
j b
Ġan ten
ign ore
clus ively
b oy
m akers
Ġl os
B ER
Ġor bits
math ds
Right arrow
r n
> ${
ĠChall enge
row se
Ġgot o
Ġleg s
Ġpopular ity
Ġweak ly
Ġmeas uring
nt z
Ġcaref ully
im ir
man ifold
d ale
Ġex haust
ĠG il
pr ice
ĠArm en
ĠUn iverse
Ġt ends
Ġclust ering
Ġstr ange
C trl
Ġfant asy
Ġrad ical
Ġdeterm ining
Ġmonth ly
ar ial
ĠAss ume
writ ing
ĠJon athan
iz ard
v dots
um ped
ival ent
Ġ' "
I p
Lin q
t ically
Ġf irms
ob i
Ġvis ibility
s ong
ĠMat thew
Ġcelebr ate
} ~\
tim er
ĠJ uan
11 3
Sh arp
Ġl iv
Ġrep orter
' }\
D irection
P od
ĠSer ial
Ġfund ed
Ġl ux
Ġst em
ĠÂ ·
Con tains
Ġanalog ous
Ġcomp iled
Conver ter
}{* }{
Ġf ishing
ig s
ps hire
V A
en z
Ġm ile
Ġlog ical
ud son
Ġexpl ored
claim ed
Ġdeterm ination
C ost
IL ITY
Ġd y
ĠCl inton
op ens
g lob
h ai
Part ition
) |\
ĠT i
Ġsuff ering
H A
R ules
STAT US
ĠB ed
c ord
ĠH E
it Hub
ri ble
Ð° ÑĤ
or o
Ġpos it
t ile
if ting
V P
ĠMot or
Ġdes criptor
ĠJ u
Ġp overty
ab e
3 000
Ġindu ces
Ġcompos ite
B ur
Ġcr ack
Ġ' @
Ġb ucket
ĠL anc
Ġch ampions
ĠE arl
ache l
se en
ĠR ange
ĠD OM
con cat
Ġadvent ure
ĠS F
ĠSm art
includ es
m issions
ĠD ictionary
ort s
ver ify
ĠPro file
Str ucture
w ind
Ï Ģ
on z
Ġh ate
Ġg ay
Ġprint ed
ĠW ol
f am
ĠPro tection
Ġdo i
S ever
_ )
ĠA qu
no frame
Ġb one
Ġ( %
ĠD raw
Ġperson ality
T i
ĠS r
pr agma
Group Name
19 06
}) _{
Ġnot ing
ĠStew art
ro d
ent ric
Ġland ing
Ġinter vention
be ans
ĠCamp bell
po inter
M ix
r adi
St ub
T om
ĠCar ter
ĠT ig
J ack
Ġref lected
ĠTer rit
L ow
Mon th
A rm
h base
} <
Ġl in
ĠCol omb
Ġshop ping
Ġver b
mut able
æ ĺ
ele y
j amin
}} )$
sl ide
ut t
Ġme at
Ġun ity
Ġre ign
ĠOr chestra
Ġmir ror
Ġsh ots
Ġbur st
gener ic
Ġflow ers
Ġfem in
ĠW oman
Ġcompet ing
Ġknow ing
Ġd st
ĠL GBT
un ion
al og
Ġtraject ories
t uple
| =
Ġl ibraries
ĠL I
Ġappoint ment
Ġtro uble
Re ason
fe atures
ĠSquad ron
ĠK ings
m g
D ry
ĠEx change
è ®
Ign ore
add le
k es
File Name
ĠCl imate
B bb
f requency
ĠCommon wealth
ĠM achine
Ġillustr ate
27 0
ĠSh op
ĠH ero
ĠArk ansas
ĠR ot
ĠL ower
Ġvol tage
ĠP S
Ġneigh bors
ĠP uerto
ĠL ane
G T
em ed
ĠB reak
ĠCent ury
Ġstr ain
Ġmark er
Ġport folio
upd ated
ĠAnn ual
C a
fl ush
ĠS W
Ġ' #
Ġmon ot
ai ro
00 2
ĠCon stitution
ĠNot ice
A cknowled
it r
C art
Ġdistingu ished
Ġprim itive
re view
C odec
h h
Ġnot iced
Ġr um
Ġcal ibration
Ġt ie
Ġlength s
ĠAss istant
Ġprom ising
ĠB ody
Ġcon formal
ĠO DI
ĠRepublic ans
With out
et ics
Ġad s
Ġm eth
ĠEd inburgh
(' ./
Ġlabor atory
iv ia
\, ,
u ates
I ss
Agg reg
Fix ture
R oman
ĠĠĠĠ čĊ
ĠKe ep
Ow ner
ester day
oth s
ĠL E
Ġprom ot
N eg
() ">
ĠDep uty
Ġâ ĨĴ
Ġj uris
pr iv
Ġencour aged
pe g
Ġacc eleration
Ġevery where
ĠF em
get Message
Ġfunction ality
ĠMor ris
ĠBo ys
ĠDef ine
ĠH it
Ġa ired
UR N
Ġaut hentication
i ors
ĠD ist
ĠG P
ĠDir ac
* ,
ac ef
AT OR
= -\
ĠM ind
om p
ĠQu ant
> '
ĠBatt alion
Ġrelax ation
st eps
J o
sol r
R adio
pl acement
HO UT
Ġs ick
ĠEconom ics
Ġinv olvement
Ġjournal ists
ĠBas ic
ed a
Ġde ployment
dl ib
lat est
igh ters
let ion
G F
11 7
Ġt iny
Ġsup plies
Ġproport ion
17 0
Per iod
H istor
Ġt ill
ĠÐ ½
Run ning
enez uel
aw esome
ig inally
Ġscreen ing
P acket
Ġas semb
Ġinterview s
TH E
th ird
Ġaggreg ate
c as
Ġdeep er
Ch anges
he ets
S en
Ġhyper bolic
Ġover come
aa aa
Ġw et
Ġob server
I r
Ġc ogn
ĠP rix
Ġcontract s
Ad v
ul u
Ġent hus
cond itions
ĠLog ger
S uch
Ġver ified
sc ar
Ġrecommend ations
h n
ĠBr and
Ġshift ed
p ixel
at able
autore f
Ġre fin
Ġdiagn osis
Ġthe ater
S n
p read
Ext ensions
ĠO tt
ĠInf antry
Ġsevent h
ĠNav al
k ern
Ġas c
f ar
Tele vision
im inated
ĠJud ge
Ġeth nic
Ġvis its
Ġ# {
ant ics
G old
Ġplan ets
Big l
ĠS ide
Ġcritic ism
Ġto m
Ġv m
Ġgre y
eff icient
ĠS ex
te ch
ac les
iss a
Error f
V ill
pl ain
qu estion
ĠPhys ics
b ecause
en vironment
ep age
Ġg host
Ġmod erate
get Class
XX XX
AP P
Ġind ustries
ĠKenn edy
& $
f aster
ĠF ro
Ġob st
Ass ume
P ane
ĠPol itical
iv an
Ġe cosystem
Ġcast le
lf loor
ou p
R M
est ing
Ġrest ored
Ġb ary
Ġim pr
Ġconsist ently
ĠBrook lyn
Ġc ached
Ġtext s
ĠLib eral
um ed
Ġfin itely
anc ouver
Ġdo ors
p f
Ġnon zero
ĠAnd y
in ject
}\ ;
ĠN ep
ey er
Off icial
Ġpo em
out ube
Sc ott
ĠE dd
Ġsh ifts
Ġrout ine
e lection
' )$
! </
h yp
Ġstream s
S K
ĠChar lie
Sec ret
ĠFin land
Ġch amber
dec ode
Ġj unction
list ed
æ Ī
c orn
ĠS witch
Dec imal
I ll
e or
RE T
display Name
ordin ates
sub Nav
Ġw ond
Ġcr u
fr ames
Ġ` ``
az ines
Ġmer ely
19 04
Ġear liest
ĠRog er
Ġreg ulation
Ac adem
Ġserious ly
Ġcelebr ated
N P
ĠA U
pan ic
s ources
ĠQue bec
Ġsurround ed
Ġth orough
Ġl ights
Ġan notation
Ġref resh
sh aped
Ġvar ies
Ġh ill
Ġp ic
Control s
inc ipal
Ġin coming
trans l
Ġhom ot
BA SE
ĠSt ars
F W
Ġam pl
inter action
ĠD ise
Ġ( ,
Ġhe x
G s
Ġexp ed
Ġamong st
ĠN elson
om eter
' $,
ĠR ub
ĠK EY
Cre ated
â ĪĴ
ĠBill board
uff icient
ol ished
ĠEnt ity
)= (
F ootball
__ )
Ġ' ''
pos al
ugh ters
ĠT ol
qu is
pro c
Ġext ending
â Ķ
Res p
ĠPl us
ile vel
app ings
ĠRun time
Ġm s
} ",
Ġs ectors
h op
Ġbl ind
R adius
bor ough
ĠPortug uese
Ġexpert ise
Ġaccord ance
d or
ĠH ind
B us
Ġloc ality
. },
m illion
Ġto w
ĠCon vert
Ġoccup ation
ir k
=" {{
ĠNever theless
Ġefficient ly
h w
Ġk w
asc ular
2 10
I ES
Ġinst ability
= (\
m x
Ġval ley
Ġenc ode
Ġpure ly
Ġsusp ended
ĠL ess
Ġk inem
ĠNAS A
Ġt y
ĠCom ment
Ġfor cing
ĠIn ternal
ĠS to
ĠT ry
Int ent
Ġemb r
Ġrel ating
12 1
Sy ntax
OT TOM
st ock
Ġl ad
Pr ice
Ġlimit ing
Rober t
dis k
Ġsub str
ct ree
Ġ======= =
ĠMet ro
Ġb ull
ĠT ob
ĠF ish
Ġc able
Ġcolle agues
m any
LO AD
$ --
Ġhead ing
Sw ift
Ġup load
A MP
S mall
Ġun likely
Ġout break
Ġsub section
N I
Ġm or
rf loor
ĠMur ray
set Text
Ġl ung
f un
}_ +
B s
ĠM ak
label s
ink s
Ġjud ges
Ġge omet
ĠMari e
w hel
ĠComput er
en o
it ations
qu er
Or iginal
ĠS yn
ĠZ one
ĠB eck
Ġdestr uction
un known
umb n
ĠB H
Ġgrad ually
g ems
ĠP il
ĠSp irit
ĠL iverpool
< >();
ĠO ptions
Ġcaref ul
ĠPit tsburgh
ath on
ev ed
Ġcomp ound
Ġim posed
Mut able
annot ations
M ilitary
ĠO K
Ġexam ined
Ġsurn ame
Ġhigh lights
Ġcoupl ings
Ġded uce
ine a
Ġtyped ef
ĠTri b
igh bor
Ġviol ation
Gr ad
cor rect
ĠM ut
Ġvan ishes
ump y
Ġwh ilst
tt ing
ĠC PU
Ġwat ched
u ition
ĠG O
Ġannounce ment
F actor
Ġor ange
Fe bruary
he x
Ġap artment
Ġaffect s
Ġ" [
17 5
Ġreview ed
Ġdecre ased
Ġmaintain ing
ĠSing le
S peed
he astern
(" \
dis ambiguation
Ġs ends
ĠC L
is an
SP ACE
ĠĠĠĠĠĠĠĠĠĠĠĠĠĠĠĠĠĠĠĠĠĠĠĠĠĠĠĠĠĠĠĠ ĠĠĠĠĠ
ĠC arn
ĠW ind
;\ ;
Ġch iral
. [
ĠW i
ĠMar vel
ĠF ALSE
ĠR ule
Ġdeep ly
ĠCh amber
as ant
loc ale
ĠBalt imore
Ġsu ite
lim ited
Bit map
Ġperm itted
16 5
ĠHun ter
ĠR ain
v ing
Ġtri b
Ġart istic
Ġrom antic
Ġin jection
Ġt act
ĉĉ čĊ
Ġsem antic
ĠRef orm
Or igin
con current
Ġconstr ained
D ig
Ġst ops
ĠD ie
Ġim plications
ĠO d
Sim ilarly
ĠC emetery
Ġretriev e
Ġres ident
pos itive
ĠP oll
Ġdevelop er
ij ing
%%%% %%%%
An n
Ġdam aged
Support ed
ĠU TC
est or
ĠM yst
rem arks
ĠStr ucture
ĠG raham
ĠWork ing
oper ative
ĠTh ings
u pt
U A
Ġhas n
o j
ĠT ogether
Ġquot ient
, (
ĠPort land
ĠA rena
ĠR ank
S napshot
l c
ĠT otal
') ->
Ġph osph
] ^{
Ġcar ries
i q
Ġremark able
Ġs urre
Ġt one
ĠCh ron
Ġ$ <
ĠId ent
Ġh ierarchy
AS H
Ġel der
v g
18 80
Ġc urrency
Ġp ose
ĠB aker
pay load
Ġout line
. ),
ab ol
Ġemer ged
Ġes c
Ġschol ars
Match er
Ġnot ification
Ġfr ustr
Ġm ilit
Ġres ign
di ag
Ge ometry
the y
Ġg aming
inc or
end point
V R
ĠSum mary
Ġpar agraph
> $
an ne
D ue
Ġw edding
ĠG ary
ous el
ĠTra il
Ġglob ally
ĠMag ic
Pro fess
BO OL
P ad
Ġcl s
19 03
Ġline arly
21 3
Ġsac r
ens on
ch t
Ġhe ating
100 00
te chn
ĠB lood
am ination
r ar
ĠA ws
Ġreported ly
st ation
Ġmut ual
ĠCr ime
j d
olog ically
tr aining
ides pread
12 6
)} _{\
="../ _
R GB
Ġex cluded
ĠF ast
Ġin cl
Cal endar
he alth
Al t
Ġcon clusions
TR AN
ĠM other
uff ix
D istance
Ġsampl ed
u art
Ġob lig
Ġv ibr
ĠMon th
Ġ$ [\
Ġbus y
Ġguarant eed
K L
ĠS audi
Ġpubl isher
19 02
Ġdis ag
' ].
ĠR andom
Ġp ion
sup erv
R ound
us c
Ġperm it
urric ane
Ġinsp iration
ĠCon vention
redu ce
Ġst ick
Ġstay ed
Ġperturb ations
Ex pect
Execut or
L ead
f und
Ġsearch ing
Met ric
Ġpriv ile
Ġlo ops
ĠMic hel
ĠG ulf
me as
Ä «
Ġlong est
le in
ĠD ays
Ġsp okes
Ġb oss
> .</
re str
ne ed
Ġdev oted
Trans ition
ic it
Ġrank s
ĠR ace
ĠT s
__ ,
Y ER
establ ished
St ation
DE D
Ġsort ed
ĠDak ota
Ġper ception
Al gorithm
ĠG ill
c ritical
Ġh ack
Text View
G IN
ane an
Ġcr imes
Con tract
ĠG T
Ġph on
no ise
acc ur
eg e
or ate
$ _{\
Ġm g
local host
ath ers
ĠD est
ĠMA X
Ġrul ing
Ġsynd rome
ential ly
St age
Ġ$ $\
ref resh
) |^
ĠBy te
Ġdialog ue
d td
0000 0000
Ġconven ience
li ed
ov o
tr on
Ġpass age
path s
ĠG alaxy
Î ·
Int Literal
o il
d st
ĠTh ank
ĠCred it
) *
V O
Ġre fr
Ġserv ers
Ġcancell ed
h is
] ->
ĠT ower
Ġv ital
Vis ual
ol en
B its
Ġt ickets
ĠT ak
ill iant
vious ly
pi pe
Ġd uties
Ġre tained
Ġcount ing
Ġsup porters
RE S
Ġf oss
Ġd owntown
ĠC M
Ġgr ab
Ġextr action
Ġdevelop ments
ĠCom ics
Menu Item
Ġs ender
Ġtim ing
ĠM B
omin ations
m r
final s
Ġcy ber
Ġm ild
ĠEu clidean
Ġb om
Del ay
C LA
a que
Ġsurv ived
Ġv it
Ġla ugh
Ġtrans it
Ġbas ically
Ġbar rier
Con vert
em a
om ed
Ġdeploy ed
Ġprint f
Ġt ension
Ex ecute
Ġhop es
ĠN othing
cast le
b ank
m ade
add ed
Ġtherm od
respons ive
Ġl oyal
Ġmechan ics
b ia
Ġc oc
ÃŃ n
Ġar row
ĠMat hemat
ĠSen ator
Ġâ Ĥ¬
Ġenc oder
Ġiter ator
Ġm apped
d ed
N orm
Ġincre ment
Open Tl
s ocial
Ġt ou
ĠS ay
A fr
Ġst adium
ĠMont real
ĠN GC
/ )
n ecess
Ġconstant ly
omin ator
ĠIn valid
z h
ĠC ass
ĠMit chell
col ogy
ĠLin ux
ĠSt ories
Ġcap ability
prec ision
R ay
gu ide
Ġnot ably
Ġmeaning ful
op ol
ĠInt elligence
Ġimpact s
Al bum
Ġsurvey s
ĠC lear
ĠSp acew
ĠPr imary
Ġleg it
ĠUp per
}_{ {\
ĠAfghan istan
ĠKen ya
inter pret
ĠIm perial
Ġver ification
re ach
ĠMarg aret
ĠFor um
Ġal igned
ĠK an
Ġdiv or
ĠN am
Ġphys ically
mat ches
ĠG round
} &\
Dis tribution
Ġc rop
ĠQ CD
Ġdeform ation
Ġrender ed
ĠB ible
ut orial
2 11
ĠM aine
irm ingham
Ġint ense
Ġr ings
Ġequ ity
m ys
Ġcos mic
Ġattract ive
por ated
au er
ĠF ly
R ussian
h uman
p iece
Ġex clusively
Ġ ere
our t
Ġt ile
Ġst y
ok a
ĠPl atform
Ġco hom
script s
Ġra ising
Ġcap s
Constr aints
Ġrare ly
U nd
13 6
Ġc rown
Ġsp ots
Ġspac etime
19 0
{ [
ĠS now
** *
br anch
ĠSpec ifically
Cam era
Sup press
s amples
Ġhospit als
View Controller
c ient
M obile
RE SS
Ġr aid
ĠO P
ĠH orn
Sh ader
AC ING
Ġrespond ed
Ġflex ible
ĠD anish
ew ise
Ġharm ony
: &
Ġcar rier
Al ert
ĠMadr id
ĠM oz
Ġco operation
& -
ĠE RR
ar ound
ĠA udio
Ġt aste
ĠAp pe
Ġind irect
vent ory
fl ux
Ġ ì
Ġc ategor
ĠBe aut
em en
Ġcontinu ity
Ġcomfort able
Ġcons ensus
Ġdelay ed
ĠEv ans
m und
L ines
ace ae
ĠSpacew atch
P REF
Big r
Ġ/ ><
Ġsudden ly
K ernel
ĠFac ulty
\| _{\
Ġsil ent
unders et
Ġcampaign s
re ck
Ġint ellectual
ĠC over
Ġg enu
t bl
Ge orge
Ġh ip
Ġsuff ices
) }^
Ġfl ower
ou b
p k
Ġre lying
Ġre normal
Re ceived
ĠR io
Ġkey board
ĠP ast
( |
sub float
Ġ< ?
TR Y
Not able
ĠAv ailable
e o
ADD ING
Ġdec ays
ĠH end
Ġinstrument al
S ig
Ġfl ights
ĠPho enix
Ġaux iliary
g ue
ff ic
Ġcontribut ing
ĠM aj
ĠI gn
Ġw ake
ĠPerson al
int egr
ĠB ORDER
000 1
Fe atures
Ġmount ains
ĠG ot
b ai
Ġ' -
ĠPr adesh
ĠM ach
Ġmus cle
uc le
Ġtax es
Ġcon jecture
EV ENT
ip ping
vis it
ĠUs ed
ĠN ull
Ġpotential s
Ġreflect s
ĠD I
ĠU pon
Pro duction
project s
Ġanom al
d ifferent
H H
ĠS ize
Ġshe ar
arr ant
Ġdecl aration
t own
ĠGu y
Ġvari ability
cp u
th a
FLA G
b rew
Cl ub
od al
ĠElement ary
Ġi Phone
P rom
Ġflo ating
ĠGener ated
op les
list en
ĠF alls
dat etime
ĠÃ ī
tes y
vel oc
f are
Ġsuper conduct
if iable
Ġcloud s
>( <
Ġobserv able
ar an
met rics
Ġvari ed
Ġorgan isations
="@ +
Ġre semb
execut ion
Ġg allery
to ctree
ĠOr ange
Ġste am
. }\
Ġimm un
ĠMov ement
Ġm oral
ĠSt orm
serv let
" ?>
×Ļ ×
q q
Ġis instance
Ġb eta
) <
ond a
orient ed
Ġforest s
it err
sp ot
amp a
Ã© n
Ġsports people
ĠR ick
ĠBro thers
ĠM i
ĠPark er
Ġarch ae
ĠP L
ĠSt ev
Ġveloc ities
ĠNet flix
Ġa z
BU FFER
Ġgener ations
utr ition
Ġlaw yers
P ush
P ADDING
pt s
O s
cel ona
amp ing
Ġre ven
ĠF L
ud o
ĠZ e
CRE ATE
EN ABLE
ãģ ®
Ġmil k
Ġlik es
ĠS cal
P ixel
] </
ĉ ĠĠĠĠĠĠĠĠĠĠĠ
oth y
is i
stream ing
Ġmac ro
red irect
s creens
f w
et c
ĠMin or
ĠClass ic
ob a
Ġband width
ĠHel p
ĠK on
( /
LE S
ur an
friend ly
ĠPr incess
Ġg od
Ġarrang ement
sim ilar
ord inary
H ello
ĠJim my
ĠP HP
part ition
ĠThe ater
Up per
ĠI an
Ġc avity
aw t
Ġd otted
Ġreg ulatory
ĠRec all
ot hes
U psilon
Ġ$ ('#
ĠĠĠĠĠĠĠĠĠĠĠĠĠĠĠĠĠĠĠĠĠĠĠĠĠĠĠĠĠĠĠĠ ĠĠĠĠ
che m
Ġadd r
Ġdram atic
Ġep id
ple ctic
LO C
Ġexcit ation
Ġinhabit ants
Ġa apt
Ġsynt hesis
ĠWIT HOUT
ĠRem ark
Ġvulner able
us k
}^{ (\
Ġvess el
ĠS ession
ĠF el
Ġs ep
Ġexception s
æķ °
ĠF ight
Ġlat ent
Ġw idespread
Ġch ronic
Ġc url
ĠT rophy
ĠR ud
Ġt ort
ur ring
Ġev olved
F ire
Ġsuff er
W W
Ġportr ait
ĠA uth
13 4
ĠP erm
Ġche ap
u ke
> ../
Ġ ell
ĠProfess ional
c in
d v
ĠW a
Ph ase
' }$
C UR
ĠCom b
Ġprot otype
Ġbu ying
tool bar
ĠF un
Ġincred ible
nos cript
ĠC ensus
Se ason
N eed
ĠMean while
ĠE instein
Tool s
m ers
}} }{
ĠAg reement
Ġco in
ĠLe ban
ĠP arent
ĠN ord
ĉĉ Ġ
or ange
is cal
Ġpri est
oc hem
ĠOper ations
Hash Map
sat isf
ĠJ ess
ĠUn less
Ġalloc ated
yst al
ĠBern ard
ĠCh art
; %
ĠB illy
ĠBr anch
ĠMer c
ips ch
Ġinequ alities
allow ed
ĠComm ons
list ener
Ġconsc ious
pop up
Ġspe akers
Ġ/ ></
Ġsynt ax
row Color
Mod ifier
ĠMet ropolitan
decl are
og s
Ġsp ark
ĠCr icket
ifest yle
ĠUr ban
== =
Ġx si
ograph er
it ol
ĠP ref
Rep ly
g ow
ĠSte el
Ġgr an
eg u
}) -
Ġarch ive
Ġloc omot
E s
Ġfeel ings
Ġrecip ient
maj or
st ri
pack ages
C annot
D ITION
ĠT ABLE
A mazon
faster xml
ĠC rown
Stat istics
ex act
Ġparticip ating
ad ic
k k
% "><
Ġcons iders
paren cy
V S
ik o
Work s
N ON
d ocker
Ġ Ø§
Ġun lock
}, {\
ĠFrank lin
ĠB egin
ĠĠĠĠĠĠĠĠĠĠĠĠĠĠĠĠĠĠĠĠĠĠĠĠĠĠĠĠĠĠĠĠ ĠĠĠĠĠĠ
Ġprotocol s
ĠHung ary
M W
f ailed
Ġmunicip al
ĠMon ey
d yn
Ġ' ,
Ġviol ent
order ed
Ġcontinu ously
ith uan
ĠJ azz
ur bed
Ġdec ent
Ġsu icide
Ġg al
op ing
f m
cl i
Ġcom ed
sm ooth
ĠPro perties
av an
Ã© r
Ġformul as
ĠHand le
ia o
w ang
Ġactiv ist
Ġo ct
16 8
}= (
art z
Ġpat ent
ĠV iol
ĠA y
Sub ject
Ġp our
TableRow Color
V T
Z oom
itud inal
å ľ
f ers
chi at
ĠC ultural
}. \
h um
ing e
ĠP ackage
Ġminim ize
H I
ate ful
trans fer
Ġcoupl es
Ġl ip
ĠBroad way
Ġout per
LA B
cho ose
le af
Y S
Ġthread s
Ġdisc ount
Ġcontrovers ial
Ï Ĥ
ĠTam il
Ġcon fer
Form atter
for ced
ri ors
ĠVi enna
) !
ĠEx pression
Ġven ues
Ġ" ;
Ġaccur ately
Ġaff airs
B ucket
ĠMP s
ĠLead er
Ġven ue
Ġthick ness
ar us
Ġpaint ed
ĠPl anning
Ġadmin ister
ĠAn aly
ĠIllegal ArgumentException
Ġdep uty
ĠMem ory
Ġv ir
ĠAl aska
Ġg all
ĠQ ual
ç »
ĠBar bara
Ġj ets
tok es
Ġm ice
ĠW olf
Ġphot ography
Ġpro tests
â Ħ
uet ooth
Ġdo ctors
Ġdecl ined
C ref
Ġinfin ity
Ġpre liminary
ĠY ank
ann es
T ake
H ard
Ġmanufact urer
Ġsole ly
B uf
Ġrel ies
c ourse
des cribe
ub ern
Ġste ep
Ġs ust
Ð ¹
ĠR u
n ia
Ġpoint ing
ĠN at
uk a
Publ ished
m is
ĠR ender
Ġj oy
ĠHam pshire
ĠF reedom
' =
Ġ} {\
Com ponents
ĠE li
Ġf ed
ĠV I
ect ive
00 3
Ġ" );
Ġr ub
M or
man ifest
Ġmot ivated
Ġcoast al
Ġen zym
ĠK u
Ġdifficult ies
Top ic
S ol
ac ion
F D
se cret
Ġelli ptic
ĠP ic
Ġp ace
Ġrem ind
ĠC atalog
trans late
Ġnumer ically
ipsch itz
Ġoccasion ally
ob e
Ġpra ised
Ġmem ories
in itions
Ġmod ifications
ĠK IND
ĠN ad
d ied
ĠT YPE
Ġb io
Ġestabl ishing
ap ing
ne ut
mod ifier
ĠStan ley
Ġi i
Ġvess els
ĠL icensed
\ -
Ġb ins
ext ensions
Ġt s
Ñ Ĩ
A W
Data Type
mathbb m
S at
18 99
IT LE
ĠWith in
M ail
b ast
ĠH O
Ġg raphics
Ġanal yst
I ME
. (
us ive
Ġlib eral
B road
Ġout door
em ies
S ocial
Ġdr ift
i u
ĠLegisl ative
ĠS creen
Ġpurs ue
l it
ĠM ans
Ġn ested
est ure
db c
Ġg it
Ġlocal ization
Ġview ers
Ġb es
Ġagric ulture
ĠR and
on omic
Ġg ains
Ġl ying
Ġgather ed
se gment
s ent
at en
it ime
G RO
ot ton
ĠAr n
ecl ipse
B reak
Ġmem or
Ġexhib its
( `
st roke
fav icon
ĠF am
Ġactiv ists
D ict
) )$.
Ġmulti plication
ĠS peed
ĠB ud
T ip
Ġintegr ity
P riority
ĠC hel
ĠA x
um ann
ace ut
ĠLie utenant
L aw
Ġsp oken
effect ive
æ Ĺ
ph an
ĠBuff alo
ĠFreder ick
ic ul
ĠCar ib
se ed
pi res
ĠP UBLIC
ĠS L
Ġtravel ing
ĠP in
ĠJ S
ĠUn like
ĠM s
+ "
ĠM all
Ġg ent
car bon
Ġres igned
ĠSu ccess
ĠCon sequently
ĠAnd re
ĠK arl
ĠF err
ĠDr agon
Ġfacilit ate
Japan ese
amp ed
Ġball s
Ġassert True
Ġlock ed
Ġdiver gence
ab ases
Re ception
ik er
ĠN ear
separ ator
Ġconfigure d
Ġdemonstr ates
ĠĠĠĠĠĠĠĠ čĊ
hat tan
' )\
ĠWay ne
Ã¨ re
Ġw orship
av ers
ĠComm ander
Ġimag inary
ĠLem mon
ĠC I
Ġsup press
u cc
ĠS ave
ĠCre ated
Ġgu ilty
Ġhighlight ed
hen e
cri ber
other apy
res olved
member NameLink
ĠNS String
Ġs ail
Ġ âĢĻ
contin ue
o ft
let t
ĠV ent
Ġg olf
az el
Ġaltern ate
Ġaccept ance
ĠBrig ade
depend encies
he art
Ġas ide
Ġgener ality
ĠF ather
Scal ar
ĠCh rome
ick ed
It alian
ut down
Sche dule
Ġt ub
15 5
Ġn ut
Ġel iminated
andid ate
In struction
ĠSt re
ĠCon nection
ment ioned
ĠCh ampion
sur ance
ĠK ind
As sembly
Ġthreat ened
A SS
F our
tract ed
Ġcomplet es
fil ters
Ġpred omin
ext ype
Ġperson ally
b ucket
ĠB AS
7 50
Ġback up
Ġliter ally
Ġr ay
Ġagre es
ĠCamp aign
ĠE val
et es
T uple
Un ique
Ġadv is
hol m
F oot
ri el
ĠJ a
r and
Ġv ic
W alk
abet es
Ġdef ence
Ġswim ming
ĠPro f
Ġdrink ing
qu ick
U i
Ġf unny
ĠTh or
Ġoptim ized
cript ors
ograph ics
Ġens uring
ĠLeg end
NE W
ĠAdv anced
'=> '
Ġsub stitute
Ġdepart ure
ol ia
ĠU P
Ġg ear
Ġc ous
Des cribe
ra h
constr aint
Ġobserv ational
Ġlog o
Z Z
cknow ledge
F ollow
duc ational
Ġformal ism
Ġwrap per
Ġfeas ible
SP ACING
ĠPro duction
Ġp reference
sub string
. ',
Ġar ises
e enth
)} =
Un iform
sup p
ĠF ine
Ġarray s
ĠF i
Ġab elian
ĠT oy
ĠP rior
Look up
ys ics
ĠT itle
ĠM atrix
iterr anean
L ater
ak u
Ġgr ain
ĠCon struction
Separ ator
Ġd inner
Ġover whel
mb f
ĠColl ins
Ġphenomen a
ĠEth iop
U r
et on
oun ters
]( #
ĠMount ains
ĠV ancouver
ci pl
Ġtor us
ĠAl ban
Ġspec ification
Ġed iting
o ys
R ank
B TH
Ġdes ert
rg b
Ġpermut ation
ĠHawai i
C at
gr avity
opt imal
Ġsegment ation
. (\
ve ill
ĠWar ren
Ġbut ter
ĠWel sh
Ġsequ el
ĠLore ntz
P ub
Ġrem arks
Ġtum or
on ed
Ġph rase
Ġvari eties
c art
Ġdetermin istic
ĠJ en
ĠSt ein
M AN
ous ing
an Ã§
ĠV enezuel
Ġprom oting
$ (\
Ġcolon ial
ĠEp isode
im er
ĠN an
ic z
RE NT
B ot
Ġdiv isions
br aska
display math
ĠL abel
Ġpart ly
Ġregular ity
18 98
. ]
__ .
p oi
iev e
ĠSim ilar
ĠAlf red
Ġh urt
ĠT oken
Ġinter active
c ategories
Ġj u
14 5
ĠC arm
D a
V ote
ĠSt orage
ĠÐ ¸
Trans fer
ĠVis ual
ĠE C
Ġbeg un
h pp
if le
Ġm i
Ġ\ #
Ġbirth day
^{ [
sc an
}} }$
Ġdemocr acy
Ġpy thon
ape ut
Ġwalk s
Ġvalid ity
Ðµ ÑĤ
Ġdep ression
Dis k
Ð¾ ÑĢ
Ġb read
add Class
11 11
ren ew
ĠSy ria
Bet ween
Ġcam eras
Ġr ivers
R G
Ġexception al
ool s
grad ed
h p
é Ģ
ĠImm utable
ĠM ix
S eq
x rightarrow
Ġdist urb
Ġposs ibilities
Ġsqu ares
g ender
Rec ip
Ġpo ems
O FF
18 70
ĠGr id
ĠR ing
WA RE
> `
l st
T imes
Ġcompan ion
ĠBl ues
n est
Ġar ithmetic
Ġgr ants
un ks
Ġch ip
ãĥ ¼
ins ula
Un ivers
Ġf ert
ĠE D
re z
ĠP ow
ĠP ick
Ġsens ors
S ent
ĠCon sole
bor ne
Particip ant
om on
16 9
Ġuniqu ely
ess ed
M ov
ĠB OTTOM
w right
ĠL ad
fil er
ish ops
ĠP resent
~ (
Ġful fill
Ġap ilevel
N L
è ¡
Î »
B G
C over
ĠB loom
Ġ" ${
ĠV a
SU CCESS
YER WB
BTH YERWB
Ġactress es
ag ar
Ġwav ef
ter ed
Ġproof s
ĠCol lect
ham mad
E ast
ĠAg ent
ĠS even
Ġasympt ot
R F
Ġover se
ĠC el
H ol
Ġassum es
Ġins pect
Ġp s
Ġindic ator
Ġwire less
tem perature
ĠG as
ĠArch ives
Ġcook ie
Ġab road
ĠN A
../../ ../
d al
ĠNe uro
Ġwrap ped
D ao
Ġh orses
ors ion
Ġwalk ed
ĠV erm
g al
not ification
Ġcoun sel
Ġsnap shot
ict ions
Ġtrans mit
fr action
ject ive
uck er
ĠĠĠĠĠĠĠĠĠĠĠĠĠĠĠĠ ĠĠĠĠĊ
Ġ* ,
ĠO bl
Ġposs ession
Ġdel ight
T ry
over ride
ĠRead ing
Ġt f
Ġinteract ing
Ġdig it
ĠTR UE
Ġbe er
zer bai
REQ UEST
Access or
che str
S ound
d w
enn ial
PRO C
A ud
f air
Ġcross ed
f iction
Ġg ard
Ġcas ual
cs v
}| ^
Ġexam ination
i ov
ore l
styles heets
Work er
ĠE SP
Ġphotograph s
ĠPol itics
ett i
Ġrect angle
ok u
ess ment
Ġhabit at
m usic
). }
ens en
ierarch ical
ĠS V
Ġs le
ĠR ural
veill ance
22 5
Ġattract ed
g ap
ass et
50 9
k ar
Ġaccomp any
m ust
\, .
Ġany way
tr ained
Mark er
Ġqu ote
B ACK
f ollow
Ġsound track
ch unk
ĠJava Script
Ġvent ure
Ġcomp ounds
Ġche st
? )
aceut ical
Ġt ies
ib ling
Te chn
Ġthreat s
ĠS olar
con figure
Ġstart up
Ġth ro
ĠM ack
S ets
v skip
ĠAust rian
ĠCELL PADDING
ĠB rew
Ġcomp ress
erial ize
ĠB io
18 97
x sd
ĠCELL SPACING
sign al
ĠC u
Ġpro ton
Test ing
Ġz oom
J ac
iv ariate
ĠSt even
Ġact ively
\\ \\
ent ries
list ing
(" .
Ġam id
Ġtang ent
Ġoff ense
File Path
Ġattempt ing
Ġsurpr ised
Ġclaim ing
Ġobserv ables
ces ter
Ġgo ogle
ĠJohn ny
ĠT yp
ĠLabor atory
Ġshould n
Ġ" )
subs cribe
Ġcor rel
15 00
Ġcompens ation
tra its
ro v
ĠC atal
f uture
ir able
ĠB row
Ġsuccess or
im o
ĠBe ijing
CR IPT
ĠDate Time
}\ }$
Ġpre val
] ['
ĠP ictures
ĠR ugby
Ã ½
CO M
Ġcl othing
O cc
Ġclass ifier
ĠPh arm
12 9
S un
og ue
Te ch
Ġadvant ages
it ual
Ġ} ).
nt hetic
Europe an
ĠS ad
first row
Ġorient ed
n ear
Ġchar ity
Ġ ^{\
Ġmount ed
ĠMarket ing
ĠLeg al
Ġmanufact urers
Ġimm une
tim eline
ĠSh a
C ould
ut o
M ot
Ġthink s
Ġhel per
Ġexpl oring
Vis itor
Ġinflu ences
d elegate
def er
H en
Ġcred its
start s
f loor
Ġ{ {\
- ">
ĠS K
un stable
block s
Tem p
d g
draw able
C lean
ĠHash Map
ĠH R
ĠCo al
Ġm oon
Ġdis cre
ĠE N
ph ot
ĠW E
ph abet
Ex pat
Ġtrigger ed
p end
ĉĉĉĉĉĉĉĉ ĉĉĉ
Ġ um
Ap pe
il o
Th omas
Ġsus cept
Ġd rew
Ġfr act
Ġintrodu ces
Di agnostics
J s
Ġcol leges
Ġ// -->
ac ies
Ġtw ist
D ist
] ).
ĠQu est
Ġminor ity
ĠA ld
Ġt ips
ĠO wn
Ġrel oc
ĠT ournament
Ġsl ide
Ġexist ed
Ġ} ),
ĠP or
Ġprocess or
qu ake
... )
Ġmiss ions
hen g
Im ages
ĠR acing
ĠUn fortunately
Ġkit chen
De ep
ĠE uler
ta x
Ġd ated
Ġrepeated ly
ah a
v v
Ġe ating
ter ms
get Attribute
âĦ ¢
rot ate
over y
Ġdi agnostic
Ġintegr als
Ġbr ick
Ġcount ies
ĠLink ed
Ġneglig ible
ĠĠĠĠĠĠĠĠĠĠĠĠĠĠĠĠĠĠĠĠĠĠĠĠĠĠĠĠĠĠĠĠ ĠĠĠĠĠĠĠĠĠĠĠĠĠĠĠĠĠĠĠ
" ])
Ġi OS
in verse
Mult iple
ST M
m ot
ĠGl as
ĠO il
ĠRoman ia
oc c
ĠE M
ke eper
ĠBit coin
care t
ĠM ail
Ġtim er
Ġlisten ers
cam el
ĠD elta
ĠNot es
Ġport s
ĠGi ants
hes es
Ġle ak
z oom
Ġel abor
Ġent ers
Conf irm
Ġwind s
ĠB asketball
Ġcharacter ization
ĠResp ond
ele g
Ali as
ing ers
ĠM uch
p aces
ĠBen jamin
ex tr
Ġguarant ees
B ob
ind eq
ĠCommission er
Ġd ub
ĠH em
ust ed
18 96
################ ################
ier ra
Ġbon us
ĠShe l
ĠB irmingham
atern al
Ġre cre
ĠL apl
comp ass
ĠS ET
Ġs aving
ced ure
Ġinn ings
respect ively
ig ue
Ġquant itative
C hat
P OS
m icro
ĠB A
Ġread ily
Ġvan ishing
usal em
ĠCarl os
Ġ. =
_{ {
col og
\ }}
bre aking
uss ia
Dis c
Ġdr ives
ĠBroad cast
N ONE
ĠM eta
ed ges
Ġdis aster
Ġencounter ed
Ġte a
ĠJ oy
ĠCom ments
lect ric
Sche me
ch rome
SS AGE
in ating
Ġb ike
am ic
Dependency Injection
Ġim per
Ġpe ers
> {
intend o
tr ait
om i
ĠL yn
Ġoccur ring
ast ro
F B
Add itional
ph ones
AR CH
Ġatmos pheric
C SS
ĠSt yle
ĠG M
Ġinflu ential
ĠCons ervative
Ġsomew here
ever y
}_{ (
Ind eed
Ġcommun icate
Ġext ensively
ag i
Set up
Ġbos on
ĠA f
Rel ative
}( -
ĠFri ends
iff s
N ECT
An im
INST ANCE
b is
ann ah
ĠTechn ical
Â ·
est imate
/** */
K K
om at
ĠĠĠĠĠĠĠ Ċ
ĠCommun ist
n ob
Ġcom ics
Ġaccept able
Ġfraction al
Al pha
ĠFI FA
18 95
Î ¼
Expat riate
Ġr m
at ype
ĠLiter ature
13 2
Ġvolunte ers
veloc ity
ov ich
umul ative
Ġship ping
Ġadapt ive
ol s
Ġcomplet ing
FLA GS
Ġt weet
P ur
ĠK ay
ĠBar celona
iv ic
inc inn
ä¸ Ń
ĠC raig
ĠC ad
Ġsimpl ified
ĠW inn
ac co
ac re
Ġex pr
i pher
Ġmem brane
Ġf atal
ey l
ĠU lt
Ġb orders
ra f
bal ance
ac iÃ³n
Ġking dom
ĠInd ians
Ġar ising
M iddle
adi ents
ot ypes
ust ers
Ġstop ping
Ġwith d
ĠV otes
Ġscal ed
Mar shall
Ġ. /
os er
et ta
ĠArch ive
Pay ment
ĠOrth odox
ĠUnivers al
RO OT
P eter
es c
Ġderiv ation
Tr igger
18 00
Ġop ponent
ĠOver all
SOUR CE
Ġabs ent
[ _
ĠW orth
Ġsubs idi
Ġatt ending
E LEMENT
ĠHung arian
ph oto
dir name
apt ist
Ġtack le
Ġc p
ĠB oot
Comm it
Ġdiv ide
Ġchem istry
}\ !
ĠDen ver
ĠC row
h on
t icket
For ce
Ġa cknowledge
ĠS cript
Ġpro c
H ex
Ġconj unction
L arge
Ġvo ices
ig m
vent ions
Ġrest art
rit ic
ĠMuslim s
Ġdefault s
: -
Ġgeodes ic
å Ľ
Ð¾Ð »
ass y
Sh adow
sl ider
ĠInter est
Ã ¦
Ġb orrow
Ġlik ed
Ġse eds
cess ion
Ġembedd ings
ack ets
ĠY u
chedul ed
Ġw ounded
or ia
Ġann ually
r v
Ġany more
back end
value Of
do es
Read y
Ġthir ty
th al
J ul
ĠP H
bal ena
x t
Ġreprodu ce
. &
col head
Not ice
): =\
Ġmyst ery
Ġsurv iv
Me asure
M el
Ġunder ground
ley ball
Ġco aching
MA GE
ĠBO OST
Mod ified
F etch
Ġbright ness
superv ised
Ġfrag ments
Ġc ul
ĠW ait
Ġ\ )
Ġaccount ing
ĠGre ater
umbn ail
, âĢĻ
ĠCharl otte
Ġiniti ated
Ġwood en
' (\
L uc
Has Been
t ol
Y P
Ġ" #
Ġelimin ate
ĠNev ada
az ure
Ġsub stitut
aus es
S in
Ġrout er
Ġveter an
dem o
Ġc ow
ĠPh ase
ĠR ico
âĶ Ģ
incinn ati
ĠTig ers
T ur
}} +
FFFF FF
ĠBar ry
á º
P ref
ĠSe pt
Ġamb ig
ĠO cc
task s
Ġop ponents
ĠJust in
' -
ĠU E
ĠWH ERE
prep are
Ġrail road
Ġt ube
es cape
ĠCon n
Ġless ons
Ġnewsp apers
SH A
ĠN ar
Ġhard er
Ġengine ers
ĠDown load
ĠMil an
; ]
ME M
Art icle
per cent
) /\
ring tone
Mon itor
lin ing
;" |
c mp
ex isting
ĠAnt i
Ġemphas is
Ġimm igration
Ġcard inal
! =
os hi
R NA
}} -
ish ments
Build ings
ĠZ hang
Ġlight ing
, ~
: %
ord ination
s it
qu arter
U UID
Ġre b
Ġpl acement
ĠParam eters
Ġsup ern
gu ard
ĠC ox
Ġform ats
ĠFil ter
publ ished
Ġchrom os
Ġob sc
d iction
vis ibility
cent ral
Oper ations
Ù Ĭ
ĠCl ose
ab we
33 3
}$ ).
A ff
ri en
rel ax
ind ices
od ic
arg v
C ategories
K ing
ĠC old
Ġf illing
ĠM ol
ĠCons ult
Ġmethod ology
Ġb ishop
Ġpower ed
ec onds
ST ART
Ġacqu ire
* (
over e
enc il
ular ity
oc o
Ġswitch ing
N U
Per cent
New ton
pag ination
ep ing
Ġqu bit
Ġinitial ized
Ġhand les
c amp
Ġj e
P DF
14 3
'' '
auk ee
ĠB enn
Ġrecru it
J O
ĠB ot
Rep resent
Ġinvestig ations
ster dam
ĠB achelor
Ex pl
Ġrefer ring
ĠM ort
= {\
Ġsup pressed
Ġbr illiant
Last Name
Ġnot ify
asc ade
poly mer
Ġda ughters
ĠA aron
Ġman ually
Ġcomput ers
13 7
ĠSub s
d ue
Ġregular ization
Pol itical
Ġm as
Ġh ang
az ard
ĠIss ue
miss ible
Ġs ugar
ge ometry
Array s
Ġimplement ing
ield s
Ex amples
AR GET
ul in
inher ited
ĠTh anks
ĠG lob
P adding
à ®
'] ))
99 9
à¥ į
ĠEx amples
' ,\
^- $
Ġp arks
] ),
Ġconstitu ency
ĠY O
ĠNorm an
ĠScient ific
mid t
ĠP E
ĠL ot
ĠR ole
Ġnom ination
Ġ\ }$
ĠR aw
Ġpre mi
Ù ĩ
Dest roy
+ |
First Name
ĠHigh er
HasBeen Set
Ġmanifold s
m art
Ġo c
Ġwor ry
Ġprem ium
ent e
ĠC BS
Ġr hythm
Us ed
Ġident ities
)+ (\
ĠI de
Ġn ortheast
Ġrecon structed
ĠOl iver
ĠCal cul
v p
cho ice
process or
: /
Ġdi et
ĠH aving
ĠTre as
it ian
Ġmodel ed
1 19
P ending
ref lect
ĠF iction
Ġimpr ison
Ġem otion
imb abwe
ĠSal v
P aint
ĠTurn er
ĠK il
ĠString Builder
com ments
Ġsold ier
Ex it
ĠF ont
en ario
AR S
F s
Ġdec k
; -
Ġb ullet
ĠDemocr at
oupl ing
dr ag
l ap
ĠB S
Ġimprov es
18 60
col ors
ĠN icol
Ġere ct
he ld
Ġelect romagnetic
Ġsaf ely
Ġdro ps
p referred
Ġneighbor ing
Ġrat ings
Ġsummar ized
op acity
Ġprogress ive
k u
ĠF ab
il ia
ĠWh ich
ĠIn novation
ĠJ oint
ĠS aints
ĠB right
ĠN BC
Ġstr at
Ġsuff ix
Ġc inema
B er
ĠMod ule
Ġcred entials
it us
ub a
Ï ħ
M esh
Ġtr ap
Ġrender ing
Ġsc rap
Sc ene
Prov ince
ĠArch itecture
ach i
Ġn m
U ntil
ĠD raft
b urst
Ch ina
Lower Case
Ġs hed
im eter
b ishop
h aus
}{ $
Ġparam etri
Ġcontr ary
Ġconcentr ations
ĠS ox
mar ine
s ized
ĠMe V
S afe
Ġpropos als
F K
incor porated
xi ety
mark et
Ġwid get
Ġiniti atives
r x
Ġb ubble
id y
Ind ia
Ġmetall icity
ĠCarib bean
Ġmain stream
B a
ric ulum
por al
Ġrel ativistic
ĠÐ ´
pp ed
Ġp ow
ĠMan hattan
ĠIn n
ĠS equ
Ġ erg
ĠSh ang
ĠHarr ison
ĠC lean
H ide
ĠJos Ã©
AR RAY
Ġspecial ized
Ġmicro sc
ĠT ib
Ġres ort
}}\ \
OBJ ECT
prot ect
Ġdyn asty
Ġobserv ing
mult iple
look up
ĠGr ace
TER N
ĠAlber ta
ĠF isher
Ġen abling
ĠCl aim
O G
sche mas
Ġover head
Ġl oud
ĠB ond
Ġinter pre
pos er
ma ils
Ġfore ver
Ġc aut
ĠK rist
ĠG C
ars on
ener ate
pect ives
Ġinter sect
Ġprison ers
on ian
==== =
Path s
4 000
Ñ ħ
Ġhist ogram
Ġatt ach
P ipeline
ĠBe ing
Ø ³
ĠB R
Ġenter prise
s outh
Ġind igenous
Ġmem orial
Ġbehavi ors
is p
Ġscient ist
av ier
OR S
Record ed
Ġlook up
Ġ$- $
Ġobject ives
Ã³ w
ĠS ymph
ĠEd ge
initial ize
ĠKir k
ĠAb u
. ).
vari ables
20 2
Ġpat ches
Pro du
pot ential
ĠD epend
p oll
Ġ} $
Ġsl a
ari ans
Ġlab our
ĠSy mbol
spec ies
ĠG arc
ij k
Ġinc idents
Ġaccess ed
c ookie
30 4
Any Ref
@ {}
ĠS ent
L ou
ĠL ost
13 8
Ch unk
Beh avior
à¤ °
H ot
Per formance
Ġab ilities
Ġdifferent ly
ĠProt ocol
Ġr ab
Ġ( #
Ġcompos ers
w aukee
All ow
Ġd ash
ad ows
Own Property
Ġhar vest
ĠStat istics
Ġpro s
ir ts
Ġsimpl er
Ġg ates
Ġg amma
F ar
Å Ħ
) '
Ġingred ients
ĠR T
olut ional
ex per
ĠFl ore
Ġsubstantial ly
ĠWrit ing
Ġdiscr imination
Ġult imate
Ġp uzz
bour g
] _{
Ġ[ -
u u
Ġcon gress
ug osl
Ġg ross
om ething
less ly
g ements
Ġt ar
ĠAdd itional
g ls
Ġfilter ed
Ġcohom ology
Ġinvest ments
ĠDef ence
quir y
p ending
Ġbatt les
ĠP D
olec ular
ac a
ĠInitial ize
act iv
Ġadjust ed
18 93
ĠJer ry
b ur
App ly
Ġconf ident
DO CK
Ġplay offs
Ġneur ons
re nd
ash a
Ġprov ing
ĠN HL
CO UNT
ĠV ik
plement ed
con j
est im
Ġpack ed
ĠW ing
ĠArt ist
Ġcontrovers y
big oplus
S yn
Ġ( {
sche me
Ġin comp
ĠB ag
STR UCT
**************************************************************** ********
ĠDev ice
ĠÐ º
Ġconv ey
ĠEag les
roll ers
ĠReview s
ĠF itz
Ġsp ell
Pres ident
ĠA WS
Ġhost ing
Mod al
cam era
or bit
Serial ization
Ġro ster
Ġpred ecess
Ġnucle i
Ġenc ryption
ĠV eter
Ġsent ences
Ġcritic ized
ĠRail road
ĠC itiz
el o
ĠGr an
Ġ\, ,
Ġentreprene ur
Ġb onds
iz a
ĠM is
Ġd ots
ĠS ales
b idden
Ġ! !
ĠT u
âĢ¦ .
as ia
ĠK os
ĠCost a
ĠV ar
Ġrel ay
Ġ"- //
Ġan ime
Encod er
Ġpremier ed
erm al
Ġrest oration
Track er
13 3
ĠPro of
c x
ĠJer usalem
Ġintegr ate
leg end
ellig ent
Ġeng aging
ĠInd ustrial
Ġsec ured
Ġdispl acement
w al
Ġan onymous
B ag
Ġaver aging
Ar r
Ġelect oral
Ġc ock
Ġco res
Do es
)\ ,\
spir acy
ph ysical
l ies
ĠArab ia
ent ine
ĠM orning
Ġcan n
tab les
ĠLa ura
im plementation
ĠH udson
un i
ĠF actory
text style
ir s
over lay
× Ķ
Ġbroad er
ĠClin ical
Ġover r
^ +\
ĠImp act
Ġc s
ĠR ele
Ġfit ness
stitu ency
Ġp ill
ĠRob in
__ _
R P
Ġhit ting
ou x
Ġprepar ing
Ġex tern
Ġreason ing
Def ine
pol ar
Ġcharg ing
Ġcor ruption
Ġcomput ations
Ġburn ing
Ġqual ifying
ym p
Ġinitial ization
Ġactiv ated
ĠVin cent
; ,
Ġend if
Ġdeg rad
Ġmag azines
ĠComple x
ĠD od
Ġfast est
c urrency
Ġadvert is
C y
inv oke
Ġtreat ments
Al tern
pro j
Âł Âł
Ġy esterday
Ġb anned
adem ark
e ur
Ġdec ides
center line
ERT Y
ĠEgypt ian
Fr ank
. ")
ĠH IV
ĠCru z
Stack Trace
ĠS ustain
ethe less
S B
Ġass ass
ĠDe bug
des criptor
st mt
Ġtr ig
Ġtr ick
ĠAthlet ic
v ectors
}) ^{\
Ġcult ures
Ġcelebr ation
Ġdescri ptions
Ġvirt ually
Ġin clusive
Ġf oo
is ible
Ġconnect ivity
Ġbal anced
Ġg a
ynchron ous
... ]
ĠPier re
Ġinter fer
ID S
Block s
Ġcomp atibility
s elling
-------------------------------- ----------------
ert on
ĠTr ad
ur ious
ene ath
Ġdist ant
ĠIran ian
ĠIn surance
Ġautom ated
all ing
war z
ĠW rest
ĠW I
D one
ĠL ux
hib ition
h aw
Ġradi i
ĠT on
ĠPar ish
FORM AT
ex tract
ĠW or
L ab
H a
Ġa qu
p ipeline
Ġelev ation
Ġachiev es
r ac
ĠSpr ings
18 92
G overnment
umb ent
Rich ard
ĠS SL
ĠChrist ians
Ġgraph ic
Ġfail ing
Ġreserv oir
Ġcoal ition
Ġconver ge
sm art
Ġinv ariance
i ating
ge om
18 94
WR ITE
W ater
E mb
G D
ĠL ions
"> &#
US A
ad apt
Ġconf usion
Ġ" ./
Ġoscill ations
g c
G ateway
W F
[ [
ars ity
Ġpush ing
ĠAgric ulture
ĠI da
un its
Ġhop ing
" </
an che
ogen ic
eg ral
Ġapprop ri
R ad
ot he
H int
al one
Ġw ings
Ġfinal s
Load ed
ĠLu ke
ĠW u
Ġac ute
ĠS ongs
g tr
Ġw eren
at z
uff le
F ill
Ġs ake
ĠF if
post s
Ġdu o
short cut
Ġassert ion
b ol
sh iv
Ġview ing
Ġv e
Ġg aps
Ġsub div
ĠCl ay
ĠF lo
p ine
ĠNe braska
ĠR s
ÑĢ Ðµ
ap ps
ĠA ur
14 7
ĠSp ot
k an
Ġopin ions
Fr ag
power ed
sw er
Ġb le
S rc
Ġconv olution
Ġ{ })
v r
ĠB ir
Ġdist inction
Sur face
uch i
Ġcert ified
Ġinter faces
ĠB urg
ĠH indu
Ġassoci ations
Ġdat etime
uls ion
Ġde emed
Ġlaw suit
ĠAgain st
Ġ Ã©
Ġcond em
âĢ ¯
Ġnorth west
18 89
Ġen emies
Ġattr s
pro port
p mb
w ik
Ġ" +
to Equal
Ġtr aces
ĠI van
ĠSh im
T w
Ph ot
l iteral
= }
ĠCol lections
Ġconnect s
q a
Ġex clude
ĠA str
ak ov
P et
[ <
Ġsh ore
Ġprov incial
Ġconsider ably
off icial
im ity
ĠG W
Ġpro secut
ĠP el
="# "
success ful
ct rl
text ure
ĠAr c
com press
Ġcomp ile
ĠGh ana
c ached
18 85
pos able
up iter
ĠJ ung
Ġachiev ing
ĠE lection
18 88
Ġc oding
render er
Ġs id
ION S
b ibli
Ġs creens
ĠA LL
}{ $\
Ġdiff ers
Ġaud iences
att ach
AU TH
ce q
tr ation
ĠS ony
go al
g om
ĠAll ah
ĠWeek ly
ĠNaz i
Ġmed ieval
ĠAlex and
Â »
Ġl oves
per formance
Ġcred ited
he ther
ĠM es
look ing
M ir
Ġt ale
ĠL ate
L F
ev es
ĠF riend
ĠInd ies
' ):
Ġh ub
Ġdebut ed
Cert ificate
? </
Ġrock s
pl ant
Ġocc urrence
ĠL uther
Ġun w
Ġsome how
Class Name
Ġhomot opy
cons ider
big skip
ĠSe an
writ ers
ĠColon el
ĠFl ight
Ġprefer ences
ta wa
hell o
Ġ[ {
Ġhom omorphism
m el
ĠWar ner
ĠI o
Ġst uck
sp ired
mod ified
Ġgold en
Pop up
ec ycle
Ġmod uli
o ons
ĠD etails
Ġd eter
ĠStr ateg
ix on
}}\ ,
is ch
Ġafter wards
Ġeval uating
W D
ĠMed iterranean
P K
// !
Ġle tting
we ather
ĠMu hammad
Ġp ipe
Ġsusp ension
Ġa est
ĠB orn
ĠForm ula
ĠD IS
Med al
cur ve
:: $
Ġscholar ship
m agn
om eters
ĠB ound
16 6
Ġlux ury
L ove
aj a
cal c
Ġpr ay
Ġsoph istic
ĠPro blem
b os
Ġscript s
Ġdis ks
Ġsustain ability
ĠGuard ian
M IT
Ġqu oted
ĠLe ave
Pay load
cel and
mac ro
Ġmot ivation
Ġst ub
Ġshall ow
R AS
ern ate
IN IT
Ġsingular ity
Ġe ighth
ĠAnt ar
ac ular
non atomic
ĠY e
Book s
Ġmask s
ĠS id
Ġal ien
Ä Ł
atter y
L com
est on
Java Script
AB ILITY
ĠSer ge
Ġl ap
}$ \\
LO B
ĠL arry
str uctions
\' {
` )
ĠA V
w b
ĠBay esian
parent Node
ish a
ari ants
ĠGu inea
Rail way
Ġcell ular
ip per
Ġvacc ines
H F
det erm
} "/>
ĠGr ade
Ġdwar f
^^ ^^
ult an
15 2
co ordinate
ĠAt tribute
ĠQu arter
hash Code
Ġcycl ic
ĠL L
ĠV oice
Can vas
Ġpar ity
Ġspeed s
Ġcomment ed
Ġin ches
Ġafford able
Ġor al
Ġbank ing
ul ators
int f
Sc an
Ġsl ave
N OS
Ġb undles
Ġthe at
ĠB ec
Ġ" _
append Child
Ġad option
cos ity
over flow
ĠDr ag
Rec ords
mut ex
ĠC ache
ĠCat hedral
ent i
ĠAl ong
K O
M ont
Ġstructure d
P icker
ĠF u
Ġun ve
Ġplan es
ĠMas ters
EN CE
ent o
En tries
ar ms
id ency
Ġarrang ements
Ġr iding
ĠIn cre
28 0
Ġtw in
ĠV ert
Ġcaus al
ĠRich mond
Ġtour ism
) ~
er ious
ĠM ason
Ġz ones
mult ip
Ġl ingu
Ġblock ed
ocr atic
Ġstr iking
s ender
Ġneighbour hood
Ġ( âĢľ
FUN CTION
necess ary
end region
Ġexponential ly
R o
Ġoccas ions
ĠGlas gow
] >
ĠF BI
Ġsure ly
ĠCre ative
ĠK ath
st ellar
Ġcorrect ed
Ġcl ause
Ġcontrad ict
ĠCon vers
Ġ$ -\
B ill
Ġgener a
Qu estion
Ġtw isted
Ġdual ity
lef trightarrow
te le
ĠS ax
Ġphys ician
> ()</
Ġcomm em
ĠCON DITION
Ġcons olid
Ġdec oder
Ġch ron
14 6
Ġatt itude
im ag
Ġhun ting
Ġa ster
om o
W ORK
ĠN ormal
Ap is
Fore ign
Vill ages
Ġrot ating
Ġt anks
ĠSus an
Ġt orn
Ġt ons
ploy ee
Ġess ay
ĠL ex
Ġviol in
Valid ate
P rep
Ġ )$
ĠKe ith
ad apter
ĠModel s
Ġmob ility
Warn ings
Ġfavour ite
ĠĠĠĠĠĠĠĠĠĠĠĠĠĠĠĠĠĠĠĠĠĠĠĠĠĠĠĠĠĠĠĠ ĠĠĠĠĠĠĠĠ
Ġshould er
Ġjourn als
Ġpremi ere
Ã Ł
ĠIs rar
ĠB esides
ĠM ade
R N
Ġphil osoph
T ensor
Ġb unch
Ġpl acing
ĠLi u
Ġbelief s
For ward
V ariant
ĠEn c
Ġdoub les
ourn ey
âĢ¦ ]
18 91
A Y
ĠBerk eley
Ġmathemat ics
ĠB ird
ĠTrans itional
r ink
Ref resh
N ever
Ġf ighter
fig s
log ical
AME TER
Ġa uction
}} +\
Ġprint ing
um i
Ġle ts
x ym
Al ign
Su ite
; =
Ġrel ate
q t
× ª
Ġbuild s
ĠCh and
k ip
}$ ;
AA AA
St mt
Ġrep o
Check ed
s il
Ġvis itor
ĠSet tings
FT WARE
y arn
ĠA my
Ġunc lear
Ġlegisl ative
ad just
Ġmon ument
eth yl
Ġle x
ber ger
ĠS z
Ġconsider ations
Ð ±
l ag
Ġext inction
ĠSoc cer
Dest ination
Ġst eal
Ġagre ements
Ġcitiz en
Ġdocument ed
Ġsp ins
idel ity
Ġjo ins
ĠL ud
Ġrec ycl
Ġre dis
Ġhel ic
Con clusion
ĠDis play
BY TE
ĠC oul
ĠE ug
log y
spect or
W il
product s
sen al
ĠB our
ĠP le
Vis ibility
Sl ot
Ġcontroll ing
r k
Ġe leg
0 10
Ġutil ized
SER VER
ĠMur phy
ĠG PU
Ġrev ised
ĠU SE
attr s
ĠA zerbai
ĠM ong
B ay
t ake
Ġpair ing
G reat
Ġind ent
Ġ ions
), (
Ġb ol
ĠS uz
ĠC ob
Ġag enda
ah l
n orth
18 50
Ġappreci ate
ĠDec l
Ġpo ison
Ġroll ing
Ġhon our
subs cription
ri o
eq q
min imum
Ġsk ew
Ġcompet itors
Ġoptim ize
Ġarchitect ural
Ġd w
J ew
G re
Ass ign
20 3
urs ive
Ġcommut ative
Ġorig ins
Ġp ione
Ġto String
ĠCl ick
Ġper f
gener ation
ĠCh ern
20 4
Ġappro ached
am o
ĠFr ances
quant um
h int
Ġann ih
Fr ont
ĠMe chan
Ġnav al
T own
Ġselect ing
Ġcollect ing
Re place
Ġkw args
Ġbut tons
Ġloc ale
Ġact ed
Ġutil ize
Ġex terior
Ġsp ir
cell color
C ritical
conv ex
Ġquarter back
Pro b
cor relation
Pl us
ĠK ate
Ġj ury
Ġenhance ment
ich i
en ue
Th anks
Ġpreced ing
ĠG onz
s ens
m other
ĠNichol as
ĠC ant
Ġsym plectic
" }
b ird
ĠL ithuan
ĠG ay
sh ops
lev ant
Sever al
ĠT es
ĠUS B
ĠH unt
cont rolled
work er
) ?
ĠCon st
comm ut
ĠE le
Ġpick s
Ġdiscre p
ĠEn try
sh ots
di agram
V s
on ing
Ġm im
Re ceive
ĠC ategory
ew ay
b ie
ĠP AR
AT URE
ĠInt el
hom ogeneous
ĠB ear
el ing
ĠE rr
ĠUg anda
Ġreg istry
Fig ures
R ock
s olution
Ġh yd
ah an
Ġt une
Ġdon ated
Ġpregn ancy
Q t
ĠTr igger
G raphics
Ġv anish
per mission
Ġ/ .
Ġj ew
Ġinterpol ation
ĠV lad
oc co
em e
f olk
/ #
am y
ĠP ain
ĠK ids
Ġsol it
$& $
Ġplay off
ĠCam eron
Subs cription
ĠB og
Found ation
Ġmort ality
}$ $
18 65
U int
s ymmetric
}] \
Ġharm on
Ġinsert ed
ĠN ames
ĠV AR
Ġdes per
h ydro
aval ry
renew command
th lete
36 5
å ¼
'' .
Ġin cent
AP PL
Con v
}] $
Ġpro jections
Ġqual ify
scal ar
IN DEX
NG TH
Ġconcentr ated
G al
Ġc ust
p q
ipe g
ov an
Ġw elfare
Ġf ictional
ad os
T s
M ad
Dec oder
I EEE
Pro c
Ġfollow ers
ron es
ĠBAS IS
ast rop
ĠDocument ation
ch ing
ĠY am
Ġdream s
to LowerCase
13 1
Function s
Ġon click
bound ary
ĠR eyn
Ġseek s
In cre
U ES
Ġspeak s
ps y
ME SSAGE
% ),
ĠS oph
Ġtalk ed
] _
26 0
AT O
m iral
to o
Im g
W C
Icon Error
! )
b age
t abl
L ie
Ġdis orders
d imension
le ad
or ious
in ery
as ive
st ad
Ġdepart ments
Ġdef ending
Ġ( <
ĠB ass
Ġnucle us
Ġmist ake
Ġun e
ha o
Ġcl othes
ĠIn iti
Ġdis pute
ĠYork shire
enc ia
ĠS Y
Ġbe ating
ĠG ET
Ġun s
Ref lection
[ {\
=" //
dat as
M id
ĠF leet
Ġsp ont
15 7
Ġguitar ist
Ġ} .
g mail
ĠPr im
20 8
Ġprov isions
FA IL
ĠMed ic
Ġincorpor ate
Reg istration
Ġferm ions
Ġre write
r ated
Ġab ortion
Ġper ceived
ĠGal actic
ĠH erald
). $$
\!\! \!\!
ism atch
io let
Str ip
Ġred und
akes pe
ull ivan
ĠCONDITION S
ĠCirc uit
ĠLe o
G amm
å ¯
second s
Ġc rypto
Ġm os
the ad
ĠMad ison
att en
ĠBelg ian
ĠB rowser
Equal To
dec oration
ĠA w
Ġb is
abil istic
ĠH ob
S a
ĠH ub
ĠJ ama
Ġpet ition
ĠV el
Ġinf ected
c py
ĠComple te
ĠC urt
] -->
F un
Ġpo ets
Ġvol can
ĠR ey
ĠC HE
L ite
us age
ĠPer u
****** /
ĠL arge
Ġconv icted
Ġcomb in
op edia
Ġgr ateful
~~ ~
Comple tion
ä¸ Ģ
ĠCl are
is co
ĠB aby
ĠAm sterdam
w ire
it ious
pr ises
aster y
ĠCirc le
ĠPer ry
associ ated
V IEW
å °
In line
and ed
Le ague
Ġpsych ological
Al ignment
ĠS ER
qu o
Ġisot ropic
Ġlimit ation
al tern
is se
L ev
Reg ular
or acle
Ġfant astic
ur ated
sh ore
Ġr hs
ĠStr uct
f ive
) ~\
Ġt ent
rep ly
Ġhuman ity
Ġprom ised
16 7
Ġbo ats
ĠCon tract
compar ison
Ġs ink
h m
ĠC ut
Ang le
18 87
Ġinn oc
correspond ing
ym an
15 4
ĠO scar
ĠForm at
Ġsk etch
ING S
Ã§ Ã£o
V V
ud ge
PA SS
Ġfoot age
ĠPlan et
Ġf iring
IconError Encoded
a verage
ĠW es
ia z
ĠTest s
wall paper
Link ed
Ġthe sis
pro ach
ĠDr ug
xym atrix
Ġsum s
place holder
Ġval ued
Ġdet ectors
tab End
ĠPhys ical
Ġqu bits
Ex tract
w y
' })
D ot
ĠW onder
Ġblock chain
Ġscr atch
ĠTransport ation
Ġsh a
ĠBeng al
14 9
ur istic
ĠL ocation
Ġflex ibility
Ġrev ision
ĠF ixed
bad ge
R en
ĠÂ ±
R outer
ĠA G
ĠM ann
ĠH orse
Ġtrans mitted
Ġsynchron ized
15 1
] ^{\
Ġr itual
m ind
St yles
Ġauthor ized
Are Equal
ĠAthlet ics
Ä Ļ
g b
Ġm arch
ĠSh are
13 9
Art ifact
Ġp iv
Ġl t
comp iled
ĠC elebr
Get String
Ġpass phrase
Ġconjug ate
r ically
Ġp ounds
}, \\
Ð¸ ÑĤ
ut ton
hand ed
ĠE state
ĠP ra
Ġle an
b read
}} }{\
ĠSh aw
Ġsear ches
we ets
M il
as ide
fl ows
ific ates
Ġanom aly
Part s
Ġpeak ed
C le
ancell or
Ġconvers ations
fin ity
fr astructure
Sp anish
Ġaffect ing
Ġconflict s
Sm ith
Ġegg s
ĠCon struct
ĠPlay ers
Ġstar red
Ġdip ole
Ġfil med
Ġinv oked
re verse
Ġsymmet ries
Char les
C ookie
Ġb ills
ĠCo hen
Ġdel iber
Ġag gressive
Ġelev ated
orient ation
Ġsh ops
D imension
e ing
Ġim pose
3 30
ĠEd wards
ĠM enu
Ġtro ubl
Ã Ĺ
Rec ent
Ġtravel ed
reg istry
ĠMont ana
am ar
ĠRequ ired
Ġr c
Ġspons ored
k le
ĠL isa
input s
ĠAl t
50 1
u o
Ġescap ed
ĠM end
ĠCart esian
22 4
Cl ip
row ing
Ġto gg
Ġsurv iving
n r
Custom er
scale box
Ġgovern ed
Ġsk i
ond o
Ġob s
Ġsouth west
Ġs outheast
Ġmod elling
stat ement
am pton
{ },
ĠO UT
Ġhand ed
ĠJenn ifer
er gy
Sec onds
ĠDel aware
---- ---
Ġbusiness man
ĠTE ST
akespe are
Ġth rew
Ġmolec ule
ĠEnter prise
ĠK el
Ġpoll ution
as se
L y
Ġp ian
ant ine
He ap
ĠG rey
An chor
21 7
ites pace
ĠL ov
}} }}
Ġcogn itive
p ark
ç ½
)) }
Ġsynt hes
Ġre ceptor
Ġsimpl ify
Ġre open
Ġcol ored
CC CC
Ġcancell ation
Ġcoun c
Ġterrit ories
ond e
l ov
Ġcorn ers
ĠZ ero
Ġtrad itions
Ġwe aker
if ice
ch annels
ins ky
Ġfilter ing
form ula
erm ark
ĠCl iff
ĠV ic
ĠAdd ed
æ ł
ĠSw ift
Ġmin istry
ĠL en
_{ (\
ĠColomb ia
Ġm ature
BUIL D
Ġcab inet
Ġin ert
est ock
Ġr ally
ipp et
Ġpl ates
Ġd ivers
B ank
Ġor chestra
acef ul
st dlib
Ġcoinc ides
Ġc argo
U TE
F RAME
ov al
ĠDer by
Ġcrick eters
eng u
ĠBer g
N ay
+ }
Ġspec ifies
ĠCons ervation
Ġdefe ating
ĠB eyond
Ġcop per
ĠR PC
Ġc c
Ġ' ../
he w
d h
w indows
Ġinf ections
() [
end um
sc ene
p riority
Ġcre ator
ĠS alt
em p
ĠParam eter
Ġm ad
Ġpart itions
Ġreal ization
osp el
ĠChar acter
moment um
MS G
Ġnom ine
ĠC incinnati
cons ist
4 80
M AC
ĠE mail
18 5
_ [
ĠMun ich
Ġfre ely
ĠF R
ĠArab ic
Cent ral
ĠQ String
gtr sim
T ables
l ater
ĠZ imbabwe
Ġexplos ion
Ġb ra
18 86
ot er
Ġmod ular
oper ating
Back up
ĠW indow
the se
Ġpain ters
Ġ- &
dim en
æ ī
F ast
Ġwe ird
Ġtempor arily
ĠSer bia
C op
ĠG ov
Ġodd s
Ġt ours
20 5
}) }\
dest ination
Gamm ac
Ġan not
Ġ\\ [
Ġcompar isons
ĠCurrent ly
* }\
M ur
un s
ĠR angers
Ġen orm
Ġbo ards
sc apes
Ġrele g
ex press
Ġsub stance
abul ary
/ $
Sl ice
Dat aset
q ed
amb ling
ĠNov a
T ON
Ġr ated
anc ies
Ġsub tle
Ġcyl inder
Ġ' ')
erg i
Ġscatter ed
Ġdegener ate
R IGHT
Ġsub mission
S heet
ĠK ol
hab ilit
umb ai
ĠComp etition
ash ing
Mer ge
Ġen velope
Ġflux es
P oll
n at
Ġhol omorphic
umin ate
Austral ia
ĠA round
re ports
ĠF E
h in
ĠMe eting
N F
">( </
> ');
g ui
play back
top rule
ĠÐ ¾
Ġcross es
Ġpers istent
Ġad equate
io x
UP DATE
Ġcounter part
R atio
ĠG host
em b
ĠH at
DOCK ED
Ġd Ã©
Ġd ys
Ġdis put
ĠK id
Ġlong itudinal
un is
NotFound Exception
Ġcous in
sec ution
Ġ ib
el n
el ia
Ġmin isters
[] )
Ġrom ance
ffff ff
P ac
Ġintegr ating
Ġcontact s
ro c
J ose
ack now
ĠE T
riter ion
//////////////////////////////// ////////////////////////////////
ĠV as
Ġconduct ing
upload s
ĠB arr
Ġfol ks
ĠB omb
Part ial
ĠY a
Ġneg lect
Ġc f
Ġarr ives
IT H
Ġstrugg ling
Ġtem plates
Ġconf used
? (
M ary
Ġp c
ĠIn stitut
14 8
Ġyoung est
Ġa fr
um per
E nergy
F ROM
Ġpre st
AR B
flu ence
V EL
Ġtransform s
L ang
n od
ĠAnd r
++ ++
Ġm amm
22 2
Ch apter
Ġtrad ed
ĠAz ure
J im
Ġj ail
An notations
ĠH im
Ġinvestig ating
F re
ĠWat son
3 75
Ġsp iral
Ġdraw s
s chool
v ance
ĠCh i
pred ict
Ġimm igrants
C tx
Ġob ey
ĠOtt oman
Request s
Ġport ions
thread s
Ġrig id
È Ļ
pl iers
r in
Ġin set
\\ \
Ġcurrent s
ad j
40 1
00 4
ip es
Ġrot ational
Ġdefin ite
D J
P aired
ess a
Ġele ven
Key board
ol ine
mu x
ht bp
yst yle
Ġisol ation
Listen ers
Ġtrail er
---- -
if rame
15 9
ĠNep al
Ġins pection
it zer
Sub mit
ĠN intendo
Ġcam ps
Data Source
ĠL loyd
Ġcharacter ize
set length
On line
ĠEl li
d ump
Ġc razy
â Ĩ
18 64
Ġbr idges
ĠE ve
ĠK i
it atively
ĠO ri
G allery
j obs
ig ion
var pi
I J
ĠCo ach
ĠE ston
In ject
Ġno isy
organ ization
im en
Ġaccompl ished
Comple ted
Ġassess ed
Requ ire
Ġsurre nder
C arl
s and
ĠSh ip
-- \
^ *}
o ard
az i
ĠF an
Browser Detector
ĠConf ed
ĠHel en
ĠCub a
L ittle
ĠAct or
ĠP apers
Ġbound ing
sl f
Re ceiver
Ġexhib ited
ĠR oot
Ġbacter ia
å į
ĠPro gress
sl ot
b ay
Ġenthus i
im on
d an
Ġrecommend ation
Ġpres erving
In c
Gener ate
ind a
ĠR ah
ĠFinn ish
ocol ate
CL I
ĠPh one
ĠDise ase
s leep
us hes
ĠStr ategy
Ñ Ī
ĠC ould
H idden
18 61
ĠĠĠĠĠĠĠĠĠĠĠĠĠĠĠĠĠĠĠĠĠĠĠĠĠĠĠĠĠĠĠĠ ĠĠĠĠĠĠĠĠĠ
im edia
Ġv ec
Ġtrib ute
ĠF ramework
ock ets
Ġpregn ant
Ġch ances
ok ia
ĠR M
15 6
ĠR ules
ĠBr istol
Ind icator
ĠD ig
Ġseem ingly
Ġevery day
Ġart work
Ġunder go
Ġsav ings
Ġl ic
ĠVictor ian
ĠD iamond
pack et
K T
N s
Ġcalcul ating
Ġaccommod ate
ĠSymph ony
am ine
size of
l ists
ĠEx cell
Ġaddress ing
mark er
Ġsw ing
O H
ĠR av
Ġph ones
iz za
Ġindu ce
control s
P TED
Th ird
Ġdistribut e
Ġple asure
Ga ussian
ĠR ivers
ĠT ed
Ġres c
Ġel ite
l brace
ĠN ak
sh ifts
H ouse
ĠCh a
Is ra
Ġs el
Ġcon current
Az ure
Ġgr adients
af ka
pot ent
o ct
ĠIP v
n io
15 8
ĠEmer gency
Ġsim ulate
Ġax es
ĠVal ues
ĠAn imal
` :
sw ap
s ap
cc entric
Ġemot ions
ho o
font s
Ġicon ic
ĠCamp us
Ġcoinc ide
B on
St ates
ĠAir lines
ĠA F
ĠÎ ¼
Ġillustr ates
ab is
Ġv iral
ĠS olutions
Ġ( );
Ġdev iations
conf irm
Ġam ateur
Ġdial ect
M icro
Ġpres erves
Ġsimpl est
Ġb ay
=" <?
ĠStan ford
SD K
Ġass ists
Ġapproxim ations
r ans
elastic search
Ġland ed
J ournal
im ize
Ġg ri
ĠG A
Ġpre vention
Ġwarn ed
ĠMunicip ality
ĠS EC
/ '
j ournal
ard i
Ġal i
ĠL ion
ACCE PTED
Ġret ro
Ġres ist
Ġn ic
Ġorgan ised
Ġsuggest ions
Ġeconom ics
Ġwork shop
Spr ing
Ġin complete
Event Args
z ier
oxy gen
R oll
Ġtri be
fold ing
th reshold
Ã¡ s
Status Code
C AP
default s
Ġevolution ary
B LOCK
ag ation
ĠInter face
Ġw arrant
n atural
ĠB und
Ġpop ulated
Pr imitive
ĠRepresent ative
Ġtoler ance
ific ant
ĠLu is
elect ron
ĠRog ers
S PE
Ġsub graph
Ġreli ability
make box
Ġgather ing
Ġl unch
Ġp ink
E mitter
Ġconstruct ing
ĠM ove
Ġbare ly
pre view
ĠP anel
am med
ell ers
Ġpresent ing
L U
op al
Ġportr ay
}$ ),
ĠD rop
h im
Ġar rows
urch ase
bibli ograph
for ge
th in
ĠSt ef
ĠS ymfony
ern ess
Key word
Ġreg iment
air y
ĠWork ers
n x
ot yp
harm onic
ĠB eth
C U
Ġpoor ly
Ġinfer red
Un ion
H uman
ĠJeff erson
r ain
($ _
bo ys
Ġpoly mer
ĠSO FTWARE
ĠU SS
Ġaddition ally
User name
ĠV eh
123 45
G uid
ĠP si
Ġev ac
end ors
In clude
Ġback ward
Ġcyl ind
screens aver
ie u
ĠR idge
Am ong
set Attribute
ĠS ter
ĠV ery
bibliograph ystyle
amb ers
, </
MA KE
Ġinf ect
Ġfest ivals
Ġqual itative
Ġut ter
reg ex
Ass oci
Head ing
help ers
ĠM ik
Ġrad ar
Ġnegot iations
She ll
con sc
Ġdev ast
ros so
Rev ision
Ġex ec
Ġlearn s
Att empt
^* (\
C apture
Ġwe igh
ina e
Ġjoint ly
Ġt uning
^{ {\
Ġb eneath
K EN
Ġl ambda
unit Pattern
Ġo mitted
R eq
Ġsust ained
T urn
ĠT erry
Comp any
pre vent
Ġt ape
Ġspecial ist
ĠFe atures
å º
Pr incipal
ĠTr ain
x l
à¥ ĩ
IP S
im iter
T oggle
ex ist
ĠSh ar
Ġsal ary
] <
Ġload er
L ondon
ak et
Ġin ev
Ġad mission
Ġep ic
14 1
Ġtarget ing
st orm
ĠVer ify
ĠS outheast
Ġpar as
log ic
Ġsent enced
ĠD ol
n pm
w oman
CL U
Ġlogarith mic
Ġc ave
s al
]{ ./
): =
Ġpract ition
Ġprotect ing
Ġd ump
act ing
ĠK ap
ĠCom merce
add y
ĠStr ong
M ASK
ĠM R
Ġdro ve
P ACK
Ġdo zen
vis ual
Ġh orn
ĠBro ther
Ġhold er
Ġman ages
Ġwarn ings
ĠD ifferent
Ġjuris diction
Ġb rew
Ġl as
i ab
ĠB uch
Ġref ere
EX PORT
ĠPro test
Ġportr ayed
Ġal arm
ue z
^{ *}
ĠK umar
U Int
NO TE
ĠB aptist
ĠK ill
Ġstat ue
ancell ationToken
ĠTre k
. ');
h or
R pc
ĠUS D
Ġadvers arial
Ġadd itive
ĠNe il
Ġmand atory
Ġdeliver ing
Ġdead line
in ar
w heel
Ġgl ad
ĠEm ily
Co ins
ĠLead ership
ish i
å Į
av atar
Ġs ax
ĠK ash
ĠInt egr
ĠRes erved
Ġneutr inos
y t
ĠSch w
ĠT D
ĠS ah
ĠC ome
Ġdoll ar
Ġt ick
um m
ĠS oul
B lob
add EventListener
Ġbar riers
mes h
Ġoverse as
Ġle ver
Ġcall er
Ġradi ative
ĠI MP
Ġdis pers
Ġsign atures
T ick
im ony
ent a
agon ist
ĠR F
DE P
ĠĠĠĠ ĉ
ĠBet ter
Comple x
' }(
Ġalleged ly
Ġv in
eg al
="# ">
Ġhash Code
$ =
up id
TO DO
Ġadj oint
O W
Ġun changed
18 75
Ġper pet
tok ens
Cal cul
Ġsingular ities
18 81
Ġinter rupt
Ġte eth
O rient
}} ^{(
Ġed itors
B oot
Ġcontribut es
Ġon set
Ġfl ed
Ġm anga
Ġwild life
Ġblock ing
- $\
Ġn ights
Ġm ood
Ġen compass
uct ive
Ġlast ed
ac ements
ĠCons erv
Ġout lined
ĠMax well
Ġcontext s
ĠSy ntax
FO RE
Christ ian
------------ -
Ġe arning
Ġres il
Ġgrad ed
in ate
ĠM ick
18 84
be it
Ġre try
ĠFant asy
N ested
Ġport al
Con stituency
ĠSo on
ĠS erv
Y ea
é ĩ
) },\
ĠG ene
External Project
ĠT odd
H o
Ġbr ut
Ġst olen
text area
const ants
Ġen roll
Ġline up
Ġbackground s
Ġcapt ures
// ----------------------------------------------------------------
develop er
ogn ition
ubern etes
Ġt rem
in ced
S ym
ĠS chema
der iv
ĠS ans
Ġwarm ing
Ġl ifestyle
Dep artment
c aster
Can ada
iz ar
ex clude
Ġbel t
or ig
ĠVerm ont
Ġmer chant
Ġpers u
S ong
unt ed
Al umni
iffer ential
ĠS or
Ġn ominations
tem plates
ĠN athan
Con tain
pert urb
ĠCont ainer
ĠK ur
Ġten ure
Ch inese
gom ery
ĠP rep
ack er
Dan iel
bib item
ĠI celand
te enth
ÑĢ Ð°Ð
colon eqq
Un lock
ĠM T
Ġsp anning
ec raft
Ġmark ers
IC S
Ġsh aped
() ]
St d
Ġc ry
MS earch
ap or
l iter
Ġa xi
sec ure
Ġpath way
ĠF at
ĠG olf
ore n
Un able
ĠPer iod
Initial ize
Comp are
Back end
ĠO m
Ġnon trivial
Ġcompr ises
ĠPract ice
Ġvolunte er
Ġsc iences
Ġprogram mes
Ġcal ibr
Ġsl ower
Ġdiscuss ing
std err
e i
g as
Ġan xiety
æĸ ĩ
am en
TR A
18 63
ĠMil waukee
Ġexped ition
Ġl on
Ġcent res
Ġdecor ated
Ġmon arch
E conom
Ġsh ar
B tn
se ver
Sim ilar
SD L
ĠC atherine
}} )\
<? >
z ens
ĠExt ension
Ġair line
] }\
ĠU nd
ĠA pi
R oyal
Ġexplo it
acknow led
~ {\
Ġsur f
] \\
W P
s By
TE GER
ĠPhill ips
w en
RO W
ĠD yn
c ott
Ġmed als
Ġmot iv
hl js
Ġvacc ination
un ting
ĠPat tern
b usiness
Ġimport ed
L ists
Ġswit ched
Author ization
Ġs isters
Ġsum mit
Ã Ĥ
2 12
Ġarr iving
Ġke V
Ġg lyph
get Text
Ġtrans ient
ling ton
LIN K
ĠC B
ĠV ict
Ġtown ship
j ab
ĠB ath
ĠR achel
ĠN P
Ġ\, .
Ġsus pected
* .
Ġfall en
ĠRE G
ĠC e
Rep ublic
ĠW ag
Start ing
P ages
ĠV M
ĠCont emporary
Ġcart oon
pret ty
F ort
ht b
26 4
Ġadvoc ate
b ane
Ġrobust ness
PREF IX
F oo
ĠS ak
ch air
30 1
Ġnav igate
ĉĉĉĉĉĉ Ċ
C ES
od ium
ĠCour se
Ġp ul
ĠT it
Ġtr apped
v or
ov iÄĩ
Ġpe oples
e eq
15 3
Ġrefer enced
ĠQ uality
[ ->
HO ST
F ake
Ġcomplex es
m ess
pe er
Ġeditor ial
Ġim pression
ibl ings
+ $
C atalog
}) :
Ġfoss il
( ",
Ġsup pression
ĠTh row
ble ms
Wh ich
Ġcomment ary
Ġs its
in ite
comm ands
Ag ain
Ġco arse
Ġsur veillance
ĠWinn ipeg
P rior
j j
T our
ic ating
Ġcap ac
ĠObl ast
Ġsophistic ated
Ġr ice
> ("
Ġrun ners
ourn aments
Ġlo ans
ĠGener ation
Ġident ifies
Ġsuperv ised
art icles
Ġple ased
Ġ[ (
G Hz
ĠGl ass
A ge
ĠNO TE
H aving
Ġa pt
Ġm k
Ġtr act
Ġdismiss ed
Ġmeas urable
ist le
found er
ENT S
APPL ICATION
ĠQu estion
Ø ¨
Gr and
L ee
Ġbenef icial
(" -
ugg ed
Over lay
ĠH amb
Ġall ies
qu ark
f ee
Th m
ĠD h
is en
MN RAS
ĠForm er
Ex press
Ġbr ig
Ġal phabet
Ġreal m
ĠReyn olds
Ġl iver
Ġsub t
Ġend emic
Ġaut onomous
Ġtri ps
Rel ation
ĠD ATA
Ġ(! (
ch arts
ĠG ate
se ek
Ã¶ r
Ġfib ers
work ing
g ie
Ġp arsing
Ġcompos itions
k al
ĠA bs
Ġdesign ers
n ick
land o
UT O
Ġhyp ers
ĠG ra
Ð¾Ð ´
car ousel
Ġhar ass
Ġhon ors
r isk
ĠMet al
Ġabsor bed
Ġp unct
ĠTerrit ory
br acket
ela ide
Ġa fore
Ġdistinct ive
C AR
re ction
ĠCar r
ĠE ld
anc ers
r brace
Stud ent
Call ed
Ġachiev ement
Î º
M argin
W ARNING
i ator
ĠP ent
Ġproceed s
j p
ĠF ollow
Sh ift
ĠAv iation
Recorded Vote
ĠBut ler
18 82
Ġown s
Ġincred ibly
ed ly
00 7
mem Item
in ely
Ġassist ed
Ġimportant ly
Ġattend ance
Ġf uck
Ġapprox imated
oph one
P en
Ġcon gr
ĠL oss
Ġvari ational
big gr
Th reshold
Th ank
ĠTr inity
Ġd ying
Å Ļ
ĠJ ar
Ġpol es
Ġfood s
ack ed
ĠT as
T W
ĠS old
Ġf ate
Ġd jango
Ġcomb ines
LE NGTH
c g
ĠO THER
Ġturbul ence
S ens
l uc
Ġ\| _{
at ra
Ġlo ose
18 78
ĠY ugosl
Un its
ĠInd igenous
Ġparliament ary
irrep bar
Ġalleg ations
Cred entials
ĠW R
h it
Ġ )\
CH AN
itro gen
gr pc
is ol
itt est
K im
Ġh ur
Ġe ccentric
ad vant
Ġz eros
Ġprom ises
Ġback ed
ing o
ĠTh an
Ġcon form
Ġchampionship s
am ation
ĠAt hens
ij i
er ent
N M
Ġl ov
Ġr s
Ġattr action
en os
> )</
DB LP
Ġs olv
ĠE sp
ĠOak land
ĠG len
Ġadv ances
ĠIn fo
Ġcontinu ation
18 62
Ġmunicip alities
La unch
l ift
Ġl uck
Ġpre view
um ble
Ġem p
ĠD eg
ĠInter view
Ġm a
Ġstreng ths
Ġobtain s
ĠSh adow
ĠAt omic
ĠCap itol
Ġwrest ling
Ġfl our
MA IN
sc atter
Ġanaly tics
f eld
ev ille
Ġcol ours
pend icular
Ñ İ
Ġinternational ly
Academ ic
x ref
av g
* >(
y our
20 24
ĠLet ter
Ġgrand father
G ed
class ical
Ġmut ation
al am
Person nel
Q R
ari us
14 2
Ġextra ordinary
w m
Ġphotograph er
estr ian
R etry
Ġstay ing
Ġac res
custom er
' "
sc ience
Ġsh ield
, }
Ġfeed ing
T ARGET
att ices
ĠM ario
æ İ
it ic
y u
Ġmer ch
Dis abled
Ġconv inced
Ġf ram
ĠE asy
Ph ysical
ĠInvest ment
Ġmuseum s
ĠCommun ication
b ars
B re
ĠOt tawa
Ġconcert s
ph ony
MP L
Ġf o
* {-
ĠM illion
sin h
ĠJ oin
sub str
hem atic
Ġdat abases
Ġequival ently
ĠDet erm
ĠA part
E t
Cl os
ic acy
Ġvis cosity
Ġmyst erious
C Y
ĠS urg
Ġdec ode
)} =\
Ġl l
up les
Co ord
Ġst reak
ĠR ES
Le ave
Ar n
C AC
ers ions
Ġt ap
Ġc aption
ĠR isk
Write Line
Ġgrad uating
Ġun em
ĠGener ate
Cred it
Ġox id
Ġn ose
ag greg
serial ize
Ġb ipart
ator ies
Ġconstitut ional
ĠS amsung
ĠSet ting
D G
ĠR oche
Ġgr ave
n om
ĠP sy
ose x
Ġthrow ing
s an
ĠEvery thing
Ġretriev ed
ĠHoll and
ĠSh akespeare
Fr ance
Ġupd ating
Ġdr ain
ĠExper ience
ĠV ision
miss ing
S cheduler
Ġre nd
raise box
Ġinc idence
um ph
20 6
Ġsent iment
P atch
ak t
Ġconstit ution
f ollowing
Ġdel ays
ordin ator
iph eral
ĠT aking
ĠI M
nav Bar
> -
Ġhard ly
vers ions
ac l
r p
z el
ĠĠĠĠĠĠĠĠĠĠĠĠĠĠ Ċ
Ġrecogn ised
Ġexp enses
ĠY ellow
Ġcent r
Inst ances
I ts
ĠTh r
ĠPref ecture
Ġkey word
Ġexp ense
Ġd ancing
Ġfix ture
B razil
h istor
SE D
Ġenc rypted
ĠTerm s
Ġs ig
ĠTh under
17 6
ĠS ym
ĠHe avy
ĠCy ber
Ġr he
K h
Ġhon ey
Ġafore mentioned
Ġrout ing
ach ers
Ġst ret
ĠG B
k ill
M u
Ġcon cludes
Type Name
Ġmurder ed
Ġartifact s
ĠN y
CM D
E ST
ĠDis covery
id ually
im an
em ia
cor r
- {\
ĠMaterial s
ill es
18 83
Ġtransl ations
n f
Ġl ady
Ã± a
ĠPhil osophy
Ġf ut
NOS CRIPT
Ġalter ed
Link s
1 200
ĠWell s
ĠG oth
& +
play ing
cred ited
D Y
W elcome
pl ays
Ġcut off
ĠArch itect
) _\
Ġstr ikes
Ġarbitr arily
ĠD CHECK
ĠN g
ĠT X
Ġqu arks
}. $$
Ġgu ided
N AS
Ġansw ered
ĠB irth
Ġmod er
ĠSc i
abs olute
Ġp ale
PAR AMETER
}\ )
)) =
Ġf iscal
Ġmaintain s
Ġfarm ing
ĠHar vey
Ġc ss
T ITLE
Ġs q
ĠIn it
ari um
ĠFil ip
resize box
m un
Ġp index
10 16
23 5
\ ":
itt en
icy cle
heim er
Vari ables
ĠTechn ologies
Ġcounter parts
ĠS yl
ĠL HC
Ġimplement ations
bottom rule
Thread ing
Ġr h
unt u
W ay
20 30
ĠH alf
Ġdiv isor
Ġextr apol
}} ^\
ĠE ar
Ġsummar ize
ĠWrest ling
ĠH ousing
ĠSy rian
ist ani
Ġamb ient
ĠM az
Ġhistor ians
( @"
P reference
Ġfun eral
ĠK er
Ġtrav ers
Ġf ires
18 76
ĠFig s
Ap ple
d id
ri z
G UI
ĠJ in
Ġconsequ ently
m icrosoft
ĠCh ang
Ġbus es
ĠH H
Dev elop
Ġres erves
P ot
String s
ess el
ĠFellow ship
oupl ed
linked ExternalProject
L G
ĠCr iminal
e igen
ĠChristian ity
N i
ĠL is
Ġ[ âĢ¦]
big gl
Ġsm oke
\ @
y outube
ĠTrans action
Ġanticip ated
AR K
reed y
ast ed
2 16
ĠDe al
A mb
18 68
ĠHug hes
ĠS ierra
Ġexp ans
Ġexceed s
S IGN
| {\
spect rum
ĠEm ma
Ġgovern ance
) )$,
pre ced
ĠFl ag
Ġparticip ant
h all
Ġpass ive
represent ation
ĠM idd
pl ots
ĠCl uster
S ir
Ġaccept s
Ġ// !
Afr ican
Ġadminister ed
ph inx
Ġund ers
al most
ĠB lo
Ġsubsidi ary
ĠCor p
ĠCond ition
e as
y aml
sy ntax
() `
Ġw ard
ĠT ampa
ĠFil ms
ut a
erv ous
Ġind oor
R oom
ĠG az
Ġstep ped
pay ment
ĠDe ut
A h
d og
Mean while
the ir
Ġfriend ship
Ġmanufact ured
Ġbroadcast ing
ann i
seud o
linkedExternalProject Path
LE N
Â «
ĠL an
Ġback end
Sign al
Ġgenu ine
Ġglob e
Ġprox imity
ĠRoman ian
ĠCroat ia
ĠS ou
Î ³
ĠR ams
get Property
Ġfail ures
{- }
Ġd imin
ĠBudd hist
Ġsequ ential
ĠRod rig
ĠC raw
Ġt et
ĠR ac
Ġrecall ed
J on
Ġtal ented
p ure
Ġbank rupt
neut ral
Å ¿
ĠTy ler
Ġn inth
Ġan ger
ĠRe ed
Ġr ays
L ONG
Ġir regular
cur r
Ġco at
add on
B and
Ġs ou
ĠTh ai
." ;
Ġconduct or
D igital
r age
Ġsw ap
ĠD ocker
Ġspread ing
Red uce
W M
May be
All owed
ĠL ipschitz
int ent
\" {
i pt
Ex per
Ġn u
Mod ules
ĠN ancy
In her
Ġev olve
ĠVis it
ĠN N
Ġjud gment
Ġp t
sp i
W ild
Ġk nee
Ġfro zen
... "
Ã ī
Ġtrust ed
Ġatt achment
Ġcha os
ĠProduct s
ĠM umbai
be am
ĠChel sea
le ave
ĠD ennis
Ġ# #
ion ic
fit ting
xx xx
- }
5 50
iat ric
or ters
ĠA ber
Ġconc aten
n ai
dev elopment
Play ers
Iss ue
Ġ( .
Man aged
Ġpack ets
Ġdemand ing
man aged
andid ates
Ġcre am
19 3
Å Ľ
f its
ĠL amb
Ġnorm s
c rit
ĠTo o
F und
ch rom
ĠK un
ĠCor on
Ġaffili ated
mys ql
23 4
âĶĢ âĶĢ
p od
bro ok
eta iled
Ġreg imes
ll a
ĠCon structor
Ġemphas ize
ĠS ob
Ġrele vance
Ġtrad itionally
Ġillustr ation
Album s
Ġ utils
Ġc inem
ĠShang hai
Ġem itted
Ġle ase
ups ilon
ĠBat man
Ġ' $
AB C
ĠTrans form
Prot otype
Ġc attle
Def ined
H y
Ġlift ed
G K
ĠB order
Sm art
OD Y
Ġs ubl
Ġpred icate
ĠG em
ch anging
DE LETE
Ġp tr
Ġp ad
Ġk iss
Ġcook ing
g ement
Ġco h
ĠCan al
Rel ations
field set
Block ly
ĠNash ville
ĠPod cast
m ine
Ġrecip ients
Ġy ard
Ġmet abol
ĠE S
cos h
are l
ĠMon itor
ep per
Ġvic inity
Ġas h
est ors
Ġcomplet eness
Ġinject ive
bell ion
æ Ŀ
Ġad apter
Ġun cle
Ġen force
navBar Cell
Ġmod est
Ġcle ared
ĠSum mit
pro per
Ch ris
Ã¼ n
Ġmill is
n P
Ġe V
Ġper pendicular
olog ic
Ġz ip
Ġ( `
}$ :
aus ed
ĠR uth
M ah
Ġcol ony
ĉĉĉĉĉ Ċ
F ee
st ub
qu ire
ter min
dec om
est yle
Ġdi abetes
ĠTem plate
Th an
ĠL iga
g em
m ixed
ĠI SO
ĠÐ ·
mon itor
18 77
Ġlog s
ask at
weight ed
Ġcro ps
le man
Ġcivil ian
Ġul tra
Ġnation wide
Ġbi ology
DI RECT
ĠSN R
18 4
ĠM ode
Ġbranch ing
ĠAb raham
ĠD rama
eg an
fail ure
e V
Ġprevent ing
ovak ia
}. $
Ġinv ariants
ĠCon v
* >
Ġlob by
ĠÃ Ĺ
Ġsqu ared
Ġdefect s
Ġh ung
Ġcon greg
ĠH ab
Ġc ad
Ġbur den
Ġform ulated
her o
Ġal liance
Ġexpl aining
Ġasymptot ically
Ġtri angles
Ġor chestr
Ġop am
itte es
Ġmart ial
IC K
Pred icate
Ġacknowled ged
Ġattack ing
Collect or
ref ox
eg en
Ġ(! $
Ġexperiment ally
Ġwealth y
Ġtele phone
Ġexecut ives
Ġaltern atives
Ġcompl aint
ell ites
f v
Ġab bre
ĠMin i
ĠField s
Ġcompr ising
Ġphot ometric
avor ite
c atalog
ä ¿
constr aints
Ä ħ
as per
und a
Ġburn ed
Ġad verse
Ġrow span
P in
Ġinstitut ional
U kr
Ġk iller
Ġevery body
Ġsem antics
igr ant
Ġchalleng ed
ĠBob by
ĠAssoci ate
User Agent
Ġbar rel
rele ased
Ġc ere
ok o
Ġl ig
get Key
Py thon
Con struct
y i
Ġinaug ural
A ust
Ġanaly zing
Ġcoher ence
Ġinvent ory
en i
b ower
v iol
pl iance
ĠAct ivity
G erm
ĠSD SS
Ġh o
s ound
IS H
Ġend points
Ġart illery
{ |\
un ate
> =
Ġtri bes
h skip
Ġter rible
s ix
Ġsculpt ure
ĠR osen
ĠCustom er
ĠVenezuel a
Ġle verage
Ġbr acket
O O
18 79
Ġexpect s
Ġt idal
W T
r ag
u ced
ĠRE AD
ĠFl ow
D ark
Ġthere in
H op
C NN
exception s
remove Class
oss ible
Ġjournal ism
Ġafr aid
m or
ĠM ine
ass o
24 5
Profess ional
Ġn ons
fo od
ĠY ale
Com posite
Ġent ert
ĠWe ather
Ġmulti plic
copy right
ext ended
UN K
ĠS ey
}) }{
L em
---- --
ĠR aid
Ġ" ")
Ġme al
ĠStat ement
ĠESP N
ĠT ang
loc als
Max imum
Ġper cussion
){ $
æ ³
conf irmed
Ġ$\ |\
M oths
ĠUs ers
ig roup
Br anch
ĠLear n
ĠM ig
}) ^{-
Cho ice
ĠCON FIG
ĠM ills
Ġremember ed
ĠR alph
18 8
Ġround ed
Ġcons erved
rows ers
Ġstock s
ĠCh oice
Ġloc als
S hip
ĠHer z
Ġt body
M X
S aint
itor ies
Ġlegend ary
ĠPer haps
ĠLeban on
Ġmod ulation
Ġorig inated
Ġv i
C ss
Ġtour ist
in el
ĠW er
Ġpat rol
ĠS B
Ġd ressed
MA G
ĠD S
ern els
t ick
ĠP rec
18 71
), \\
Ġhom eless
port folio
M LE
Ġv endor
ĠQ t
ĠR an
Ġsl ots
plic ial
(" <
ĠDis c
ir atory
pr ising
Ġaccording ly
Mart in
ĠFl ash
eral a
c apture
Ġ* **
ĠK re
Serial izable
.. ">
apeut ic
ag ain
You ng
ĠR NA
Ġcor rupt
h orn
Ġqu art
under brace
Â ±
ĠLuc as
p el
ac ian
Ġg onna
ject ed
Ġdem o
SU PP
Ġmulti plicity
m q
unt ary
clip se
K B
ĠP T
ĠB in
Ġneg lected
Ġcont our
Pro blem
Ġdec oding
bit coin
C OR
con tract
n as
or ne
ple te
ĠArn old
Ged mo
er ie
Ġcomplement ary
D U
Ġtox ic
ĠM om
ĠL it
Ġun ions
ĠPhilipp ine
Ñ Ħ
ĠS ometimes
F LO
G AN
m eter
ast ore
key words
Ġminim izing
h c
So ft
Ġmaxim ize
27 5
ack ing
Ġencour aging
Leg acy
ĠW ire
Ġdis ability
ĠĠĠĠĠĠĠĠĠĠĠĠĠĠĠĠĠĠĠĠĠĠĠĠĠĠĠĠĠĠĠĠ ĠĠĠĠĠĠĠĠĠĠ
ĠTib et
ĠReport s
} `
Ġbl ues
sup ports
Ġhistor ically
Dem ographics
Ġpron ounced
] ];
uss els
M ex
ĠLay out
Ġfra ctions
Ġ' </
ĠHis panic
Ġcon ce
Ġsp acing
ĠP av
Ġrele asing
ĠFa ith
Ġdiam ond
Ġep it
Ġjust ify
Ġcou p
> ';
has OwnProperty
ast ing
Ġconstit ute
ĠAut om
Ġcatalog ue
ĠIda ho
im i
ĠAn cient
ĠEn cycl
ĠHer bert
/ ******/
r ise
ĠB ak
rest ore
Sw ed
Fil ters
!! !!
Ġdown stream
ĠBi ology
Ġarchitect ures
Ġtom orrow
Ġsubs ystem
ap on
ĠIs aac
Ġqu it
let es
Ġstat istically
d ynamics
Ġstrong est
Ð¸ Ñı
ENT ER
nt hesis
Ġfl ush
Cl osed
Ð ³
Ġsm ile
Ġ$ ("#
Ġcop ied
enc oder
ĠArt ists
sub title
Ġrob ots
ĠAdvis ory
ĠThe ore
g ary
v d
Ġif f
algorithm ic
INS ERT
Ð¾Ð ¼
Ġenorm ous
18 72
Ġ= ================================================================
ĠTH IS
N ick
ĠM aced
(" ")]
Ġref ined
rosso ver
contin uous
Ġto ll
ĠA ve
ĠL ik
ĠM N
Vert ical
}} _\
W ang
Ġadv ised
ĠV illa
Ġshel ter
18 67
ne um
Ġ= &
Fl ora
H i
} --\
act ed
with in
EX P
IS O
Ġavoid ed
ĠB ald
ä¸ ª
ĠPed ro
atin um
u ator
ere k
** :
Ġan notations
cipl inary
$ }\
Ġf ulf
ĠPar ad
Ġang ry
ro e
Ġst iff
Ġed itions
Ġpat ri
Ġcoll apsed
22 6
ĠR ou
but tons
Ġboot strap
p arsed
ĠM ull
Ġproceed ings
ĠM ul
_{ |
load s
Int o
date picker
ĠNorth west
ĠN L
ĠAdvent ure
C ov
Ġt elescope
ĠR adi
uck land
ĠCHE CK
ĠP icture
ĠW A
St e
min a
v k
al ong
Dispatch er
ĠÎ ±
FN GL
0 100
ĠD NS
ĠPro b
Act or
pers istence
Conn ector
ĠInd ependence
Ġaccompany ing
oc on
ast ics
m ans
âĢĿ )
Ġprodu ctions
18 9
A IN
Ġfl ip
Ġat tractions
ret ty
= </
Ġreason ably
12 34
}( (
ov ic
Ġsubgroup s
ĠSaf ari
ĠW riter
ide a
ĠCle arly
PAR AM
Ġpredict ive
ĠAc cept
st retch
ich let
ĠTr uth
uck ets
ĠGro ve
L ess
ĠWIT H
ĠB orough
Is Null
Ġav iation
ID ENT
ari e
ap prop
Ġdrop ping
Ġemer ge
auth ors
At l
Ġra ises
f ri
00 6
Ġd ad
Ġconcept ual
ol ition
UT C
Ġtrav els
ag ic
ĠN R
ĠR ena
ok i
yl an
( (\
ĠSt uart
if s
ĠO thers
w ent
ĠML B
ĠB ert
ĠJ O
Ġd upl
Add ed
ĠPark s
se v
^* ,
ĠG rowth
mat ory
F G
Ġfor um
Ġc umulative
Ġrem n
ĠM ob
LE VEL
Ġs overe
)$ }
Byte Array
Ġb ell
Ġconduct ivity
Ġemploy ers
( []
ĠCO M
Vis it
Ke ep
ĠH ugh
ĠPart icip
"> "
h dr
A verage
P a
Ġcapt uring
Ġque en
ĠYank ees
V ir
I FI
ĠS oci
). \
Ġs ulf
ĠL if
Ġschedul ing
Ġlock down
Ġtechn ological
ĠPos ition
ĠS ample
ĠLe eds
ĠSud an
Ġsett le
analy tics
ĠAd elaide
ĠGener ic
ĠFlore nce
Ġthr iller
)$ $
16 2
LA S
valid ator
Ġdetermin ant
L if
Ġt ier
Ġrandom ized
Ġresearch er
ĠH P
ĠT ik
ID s
Ġconv olutional
ĠGerm ans
Ġexc av
ĠIn side
ĠF oster
18 74
V IS
ĠY uk
ĠMerc ury
m achine
Ġen rolled
>: ]<
ĠE E
ĠTh ir
App Compat
Ġhum or
Draw able
ent ities
ĠCOL SPAN
Ġlat ency
ĠAcadem ic
charg ed
k now
es ters
Ġem power
ĠE ye
Con figure
Ġbl ame
ĠT ell
Ġas ymmetry
}; \
17 2
Ġsur ge
ĠDec ision
ĉĉĉĉĉĉĉĉ ĉĉĉĉ
A CTION
em ption
Ġwork place
Face book
w at
Ġfor wards
ele b
ĠW ikipedia
ĠF iles
× ľ
c odes
D istrict
P ark
38 4
con tr
Ġsqu ee
With in
S amples
us a
ĠL iv
> /
ill on
j l
Ġ\\ \
Ġdiff e
Ġd ining
ĠCon sumer
Ġpr ayer
ĠRem ember
6 50
ĠCon cert
om al
Col lege
j ud
Ġhom ology
] }$
Ġ[ ...]
}= -
ĠD aw
ĠProgram me
P rem
}} /
ex c
Ġanten na
t cp
ĠBr ain
IC AL
el ong
ar u
ĠChem ical
min is
Ġt ear
ĠHop kins
ĠS ale
ĠB ears
ĠSe bast
Trans l
SU B
int egration
> ";
Ġb er
ur face
Ġball ot
Ġmind s
ĠCom pute
Ġdemocr atic
g ro
h ls
Loc ator
B log
a uc
Con clusions
Ġindic ation
Ġearn ings
ve ction
ut ers
Ġ è
Comm ands
× ¨
Ġs word
Ġg aining
Ġearth quake
Ġdissip ation
Ġinfr ared
Ġmetall ic
} ],
Ġiter ate
' }),
Ã© d
........ ........
ĠD ialog
ev t
ĠAzerbai jan
Ġw are
pl aced
Typ ed
Eu Script
ĠColumb us
Ġl y
con e
E r
ĠS weet
ĠN urs
ĠCom edy
su ite
Ġoff line
Ġl ane
( <
string ify
udd y
H ung
Ġt orsion
ĠM OD
ic ia
Ġl azy
18 40
av in
ĠU til
r ors
ĠBu ilt
ens ely
Ġsuccess ive
Ġr iders
ĠB U
hook rightarrow
Ġestim ating
at im
ĠInd ividual
numer ic
c ook
O l
18 7
Ġv ortex
ĠD oll
amb le
ĠEthiop ia
Ġcur r
di agonal
@{ }}
Ġabund ances
ĠEdd ie
in tr
Ġm ines
Ġthermod ynamic
Input s
C orn
z ig
ry s
Ġcur riculum
u itive
ĠEn able
Ġdemonstr ation
feed back
abor ation
ĠCa uchy
ĠF act
Ġacceler ated
Ġchap ters
ĠX box
Ġcommun e
Ġpsych ology
Ġf ur
m aml
Image View
h ub
ĠCh arg
Ġwork force
fl ash
Ġh ull
ĠLib erty
ĠSpe aker
c id
te in
Ġcollabor ative
U MN
Ġre cept
S ar
max imum
Ġprogress ion
ĠK yle
ĠAn a
G i
m itt
á ¹
Ġqu otes
Ġp ig
Ġpres cription
ĠCont roller
Ġpredomin antly
ĠBenn ett
Ġw ishes
Ġstat istic
ĠT F
w ear
Ġtre ating
overn or
ĠC N
x e
Ġe mails
Ġcon spiracy
ĠG ang
Publ isher
Ġgrad es
Arch ive
k el
Cre ation
ĠC rit
ib e
Ġprec ip
Ġnews letter
Ġdram atically
ĠEag le
At trib
Ġfaith ful
all ed
Ð°Ð »
Mat ches
Ġlink ing
æĺ ¯
File System
Ġmake up
Ġmar ry
T LS
"> {
ĠGu id
ĠT at
Direct or
C odes
20 9
Res olution
Error Code
Ġh ierarchical
ap a
Im p
CO VID
ĠS olid
Ġpost ing
sm ith
Ġinv ersion
Ġindex ed
K a
M ike
Ġs ew
ar ations
Ġl apt
Ġaw esome
Ġst ays
Com pute
N il
ĠHe brew
Ġlegit imate
ph on
Ġres ume
Ġc fg
Ġfif teen
ĠAm endment
ĠP ont
pe ated
ĠE t
Ġ{ :
17 7
ĠGreg ory
dis c
ĠSp encer
ĠCal endar
ĠM aking
}{ !
Sh op
v b
J P
tabular newline
ĠMah ar
ĠGab riel
period ic
Ġdesign ing
Ġcount ed
ĠChap el
S ta
ĠIN T
Ġgard ens
Ġa thlete
ef ault
ow ing
aw i
ĠPen insula
Ġepoch s
f illed
ç ±
ĠL IMIT
="../ ..">
ĠF loat
man uel
ĠCall ed
Ġspec ifying
Ġm eter
st own
ĠW eyl
ĠS ens
ĠF ra
Ġher oes
che z
Th ough
ed e
et e
Linear Layout
Build ing
Organ ization
ĠWood s
g m
ĠE ight
sp ark
ĠS DL
=" ./
Ñģ Ðº
rot ation
aff e
n ut
Ġconf ined
ĠW allet
16 4
ĠRem ote
Ġw orn
Ġtrans cription
ag in
}} ;
Ġdec imal
Ġaff air
Ġpat ron
Ġplan ar
p ick
). $
ĠAd miral
Ġ\\ &\
Dev elopment
Ġrefuge es
Ġal umin
Ġcom plications
Ġapp endix
Event Handler
ĠSecond ary
Ġl ymph
equ e
S el
Ass ignment
Ex ec
ĠProdu ctions
ĠDe b
Lat est
r ab
H orizontal
Ġcontain ers
ĠH ur
depend s
Ġunc over
Ġt ournaments
Ġf ingers
ĠĠĠĠĠĠĠĠĠĠĠĠĠĠĠĠĠĠĠĠĠĠĠĠĠĠĠĠĠĠĠĠ ĠĠĠĠĠĠĠĠĠĠĠĠĠĠĠĠĠĠĠĠĠĠĠ
Ġf ung
ah u
ow ards
ĠB orel
Ġcl arity
ĠUpd ated
che l
Ġinter cept
other wise
v ariant
ĠZ end
Man ifest
ĠBut ton
Ġdiscuss es
Ġload s
H ist
ĠV A
en es
Ġmoment a
Ġsettlement s
Ġtogg le
20 7
Ġcomp ressed
Ġup set
ĠAn im
Ġdef ender
Ġb ab
min i
2 15
ĠInt roduction
T OP
Ġpick ing
Ġpal ace
ĠK aren
or f
ĠBl u
ĠMont gomery
ĠC V
ĠCh an
ĠWall ace
Ġtri angular
Ġrecurs ive
x ff
az ar
Ġindiv idually
Ġre nov
Ġpredict s
Ġkn ot
Ġmet aph
Ġh alt
}} -\
and ro
Ġoverwhel ming
ĠB ach
spec ified
ogene ity
H K
Ġsol ver
DO WN
ĠJul ia
Ġpl ug
Ġpair wise
Ġreg ret
Ġapproach ing
n k
View Model
Ġdiagn osed
Red irect
Ġshut down
Ex act
the ore
Ġexpl ores
ĠSer bian
R outing
er i
ĠF DA
ĠS ect
Ġg otten
Ġv ig
alth ough
Î ¯
is Array
ĠV R
16 1
17 1
Ġdefend ers
}}{ (
cover ed
ĠS FR
18 73
23 2
Ġide als
en burg
}$ ~
ber y
bas is
ĠThe od
}\ |_{
Dec ode
Ġf t
ĠCard inals
ĠLeon ard
Ġun set
dis crete
ĠJo an
Not ify
Ġprevent ed
å® ļ
is cher
lay ers
ĠSp ider
ĠMathemat ics
Default s
Ġchar ter
plement ary
j q
li um
Check er
s napshot
æ į
ap ters
ew ard
17 8
S pect
Ġtrunc ated
le igh
ĠIniti ative
Ġp as
z k
n othing
ins ki
Hon ours
ĠH yper
ĠAss umption
cover age
Ġc ig
3 45
Cl aim
ent ropy
Appe arance
qu in
Ġ} (
Ġo mit
Ġe u
Pre view
ĠG Hz
Ġl p
DE V
Ġitem Members
ĠD anny
ĠAl pha
co res
ĠBulg aria
Ġ ../
add itional
F IN
c ock
Ġmin eral
Ġw is
Tr aining
ĠR ect
Ġaw s
AT T
Ġcour tesy
dat ab
Ġbatter ies
Ġtri but
Ġtra its
h art
mod ern
Reg ex
hel m
Ġd os
Ġ' {
ert s
la unch
ĠNiger ian
Ġcal m
Ġsil ence
ĠEconom y
ĠQu ick
ĠL IC
c ats
SE C
unc an
ĠValue Error
ĠS ultan
Tag Name
Ġhop ed
lo ose
Ġlater al
Ġ ÑĤ
anc o
Ġsp y
8 000
al ter
b id
ĠD ame
Ġdist ortion
ĠAng l
Ġl ag
get Time
by e
Ġarg ues
ĠSD K
ĠB ug
equ ilibrium
sat z
Ġaccept ing
ĠTreat y
F at
c ot
Ġwe aken
Ġsm oking
s ensitive
arr ison
Ġprev ents
ĠB ent
n or
Ġse aled
ĠJul ian
XML Schema
ĠGard ens
Ġp aired
Ġcont ested
F all
Ġprop ri
or p
ĠWild life
}\, ,
ĠMus k
G W
CON ST
id is
ĠDub ai
Bu ilt
Ġquant ization
ne apolis
al ways
Ġw ars
ĠUE FA
^* _{
p ow
sp r
Ġse q
ĠSt ack
Comm un
ĠL iber
ri b
ĠCoul omb
MP TY
ER N
Ġrel ates
CON NECT
D am
sup set
Cap acity
- )
W rong
m ak
18 48
(" [
L es
Perm alink
Ġclean ing
Ġaggreg ation
b v
Ġgr ains
Ġpitch er
Ġare na
Ġsoci eties
mall oc
contain ers
ourn als
ĠMov ies
Ġmist akes
ĠSl oven
P TS
ĠK in
ser if
O ps
Log ging
ĠBro s
Fil ename
ĠPet e
Ġuniqu eness
ĠA A
Ġv el
ol in
ĠH av
Ġinfin itely
t u
Ġsubstr ate
ĠA ub
Ġnew er
Opt im
ĠSur v
Tax a
Ham ilton
Ġanth rop
Ġgrap hene
Ġc ube
22 8
æľ ī
NO WN
0000 000
Medal ists
Ġpow der
ĠIn stance
beh avi
ĠIm Gui
Ġrac ism
Ġsuperv ision
( $\
Ġpl ugins
Ä Ľ
Ġl un
R D
} '$
le arn
ĠArt illery
ĠNetwork s
clos ing
prob ability
Ġpredecess or
3 80
Ġfactor ization
C lock
ct l
ĠR C
ĠHar per
olid ays
ç Ľ
ĠMult iple
Ġsc ar
Ġunder graduate
Ġhot els
ĠN ine
Ch arts
co ins
Ġl ucky
Ġweak ness
Contin ue
ĠChem istry
n ell
r w
ĠG ilbert
ĠT ypes
Ġim pressed
ĠCom mercial
dot ted
Ġren owned
ĠCatalog ue
ĠS ame
7 68
Ġviol ations
Ġbin aries
g age
ĠP ink
Ġsever ely
ĠMunicip al
ad ers
M ale
Ġwork shops
Ġbl end
b road
Ġr amp
Ġwant ing
Com ments
s uggest
ĠRead er
Ġrepl ied
Ġsmart phone
f red
ar is
vel t
Through out
U X
' ^
the o
Ġ} ));
ro tt
ur as
cer pt
char set
e lected
Aut om
18 66
Ġpur ple
ĠMarc us
Ġh anging
Dis cussion
Ġin ad
Americ a
ĠHar bor
at ility
ĠS ang
V an
Ġastr onom
he nd
Ġpr icing
ãĥ ³
Ġexperi encing
ĠFe ed
F IR
v ary
int rodu
comp any
Ġintegr able
ret val
ĠMe asure
V L
ĠPeters burg
is ors
ĠH ir
yst er
Cl one
habilit ation
Ġcomp ly
Ġdef erred
de ploy
l ua
ĠR ever
Ext ended
Ġl od
ig ating
k ed
ell ows
Meta Data
arn ess
ĠApp ly
Ġprob abilistic
Ġad missible
Ġnom inal
re search
aur us
Ġcab in
v ik
pe x
ĠJ ak
ĠVen ice
b w
ĠR ice
Ġout s
ĠTe V
ph al
oll o
Ġ\ %
pt ical
Con struction
Ġprior it
? .
Ġr am
Ex cel
ĠJer emy
Ġfif ty
ath i
Ġw ound
Con serv
Ġshort est
Ġtrans parency
ĠFig ures
Ġ iv
View s
g uid
ĠCh anges
Ġhand lers
Suppress Warnings
am matory
ĠL ak
() "
so lete
Ġindic ators
Ġdes irable
Ġmag ical
ĠB B
Ġdevelop s
ĠTes la
Ġbe aring
)} }\
Ġd ans
Ġcirc ulation
consc ious
å ĩ
RE AM
E U
Ġab ort
18 2
Style ID
\\ [
Ġid s
ĠAuth ors
3 40
Ġmot ions
ĠE du
cu ador
contrib s
Ep isode
Ġby pass
Sup plier
Ġavoid ing
ĠTw enty
g res
Ġor n
dec ay
Ġb esides
ĠSc ore
View ById
Ġw ore
IF Y
ç± »
Ġdir ty
ä» ¶
_{\ {
cri bers
------------ --
Ã ¯
Ġinter ventions
Ġrecon struct
s izing
Ġ" :
ant is
ĠP ool
Con version
iz ational
Ġret reat
dd ot
inner HTML
or um
ĠG uild
Ġinvert ible
arth y
Ġsquad ron
Recip ients
prov ided
Ġtour ing
Ġiter ative
ĠGrad uate
Ġf u
r ceil
Ġn ervous
ĠG ust
ĠHe in
Equ ation
Ġconfirm ation
Ge org
ĠAssoci ated
ĠF P
ĠRiemann ian
ĠPr ison
leg iate
Ġnumer ic
Ġbe ars
emph is
H it
ĠD y
ced es
Lear n
="../../../../../../ ../../
ĠERR OR
ĠF ocus
Ġf ighters
Ġoscill ation
c url
Qu ick
T aking
ĠC ash
Ġhad n
ĠPut in
x f
Ġto y
ĠIN TO
Ġto mb
get Default
ĠSc ar
Fix tures
ĠHe at
LOB AL
fil m
eloc ity
Oper and
Abs olute
ĠFr ame
c ies
ĠD in
T witter
ĠBr is
ĠDirect ory
Q UE
Ġun ified
Im plementation
Ġbe ams
ĠY ES
RET URN
28 8
ĠS TR
R V
Ġstake holders
Ð Ł
act ical
ĠPrinc ipal
ext ends
Ġhe aling
Ġachiev ements
D H
con c
Ġbi ography
at est
ĠThrough out
Ġim perial
ĠRay mond
21 4
jav ase
Ġdivor ce
Ġd ol
Ġlie utenant
Ġinject ed
ĠN as
read able
Ar c
Ġan ch
Ch ief
ĠClark e
Ġv ort
ĠNor folk
Ġturbul ent
So ftware
Jew ish
Orient ation
Inv oke
Ġsport ing
out es
ĠHar old
Ġworld s
ĠMus ical
cell s
ld es
Ġro ok
30 3
re ng
path y
ĠId entity
x it
print StackTrace
Ġs our
Ġgu ards
Cho ose
Ġ< ![
ĠR V
ST EM
Neg ative
getElement sBy
C u
P icture
n h
PROP ERTY
Ġch icken
23 1
Â ½
ĠC W
am ous
det ect
ĠP ART
ĠPar al
Tag ged
Te X
Ġinter change
\% ,
Ġpers pectives
Ġfle w
pr us
og an
Ġconscious ness
C ut
Ġwork flow
Ġster e
) ";
Bo ard
un ov
A thlet
Ġp ec
W ashington
B ern
m tx
ib a
get Current
Ġlaunch ing
N K
ĠH arm
Pos itive
Ġad res
Ġv iable
[ ],
] *
verb atim
Ġg ig
{ }{
Ġlog ged
m otion
Ú ©
Ġutil izing
Ġtrav elling
Ġprov inces
Ġred shifts
Ġcontr action
E ll
v ation
Ġst unning
J oe
g ot
ĠM ask
ast ically
bor o
L os
Ġfurn iture
z yn
ĠP f
der ived
ism iss
ĠSet up
Ġsignal ing
ĠQuant um
18 69
Ġcompl aints
Ġap olog
min imal
Ġlab elled
' </
LI B
24 7
Ġpres ervation
Ġbreak down
ĠDes cribe
let te
Ġd amping
Ġg em
ĠP rest
ĠV k
Ġcar riers
l ceil
ĠE ff
al bum
)$ ;
go og
Cor ollary
Ġdraft ed
Ġc ant
st ead
Ġ" (
Ġs ang
En code
Ġint elligent
ov sky
ĠU ntil
ĠBy z
ĠSocial ist
preced ented
Ġmon ster
Ġm u
Rem ark
Ġ$ ('.
ĠPo etry
um ably
ĠW ant
ĠS ources
Ġcert ification
E O
Ġfund ra
can onical
Ġev olving
Ġprof ound
Json Property
Ġk ernels
Ġdes ktop
US Y
ĠSo ft
ĠFour th
I o
ĠG y
17 4
Ġcirc uits
Ġt uned
min ster
Ġdomin ate
GRO UP
x r
S on
Ġre forms
16 3
Ġpress ed
ĠLook s
ĠBl ake
Ġsurviv ors
H u
s ock
ĠAr r
ĠB ullet
18 59
Ġform ations
ĠAbb ey
A WS
Ġm ere
Ġw age
Ġle agues
names e
ram id
former ly
ĠWar riors
ĠP ush
pt a
w so
ĠI BM
IT S
Ġnob ody
ĠN om
Perm issions
int age
pg f
Ġcour age
ĠObserv atory
E lem
Ġpol ym
Ġpres cribed
ĠStart ing
d ummy
ì Ŀ
}, $
Ġbott le
item pty
m ime
ĠOr lando
ãĤ Ĵ
et ype
aged y
Ġche ese
b ours
c ool
Ġfilm ing
om itempty
est e
ĠF ashion
elect ric
ĠP I
ĠTh ink
lock ed
ĠR ather
Ġtr ump
17 3
W ire
F ive
Ġrec ipe
Ġ\ :
17 9
Ġrender er
C hen
Ġcl an
ray s
re li
ĠS tokes
And rew
Ġconsum ed
ĠCare er
Ġcompr ised
N ear
ĠL or
Initial ized
ĠK as
ĠMot ors
Ġc iting
Ġperman ently
Ġn aming
Ġdem olished
duc ing
ass er
Ġsymbol ic
El se
Ġneighborhood s
ĠI g
Im mutable
ĠTom my
ĠCong o
Ar row
P B
ĠPlan ck
Ġh iding
Out come
ĠU C
Ġb lo
al go
geq slant
å Ĩ
r ases
ĠR af
ĠMan ufact
G od
Ġc d
Ġh ills
Ġton ight
ĠCh ase
Ġsu ited
equ ivalent
à ½
idd ing
Ġl ith
icon duct
st ars
ĠC ONT
ĠP ul
Ġconfer ences
ĠSch r
ĠDis tribution
Ġintr ig
Block Index
ĠPers ian
B rown
F X
Ġsc andal
Ġresp iratory
ĠAng els
Ġsh oes
I BU
18 3
| }{\
ĠA CT
ĠR A
ĠH i
con sum
l ar
ĠSh in
i ological
}\ |\
Mod ern
Ġnormal ize
Ġemploy er
ĠLine ar
Ġtim eline
Ġther ap
Ġterr ain
Ġelder ly
Ġan ces
ev olution
Ġrelax ed
Ġmut ations
b ias
ĠR GB
ĠThe me
ut ed
ĠN u
ĠG ive
g ol
v dash
on aut
ĠT iger
ĠR L
icens ing
D X
act ivate
author ized
ĠH app
pre ceq
)} ]
b eck
: **
ĠB L
"> ,</
ro gate
LE AN
Ġce iling
ĠM BA
Ġmagn itudes
ĠR ate
ĠD ynamic
ĠPaul o
any on
Ġf ade
+ {\
Ġfr iction
Ġsat uration
ass umption
Ġ[ #
oin ters
ĠComp anies
w yn
ĠAmb assador
Ġt iles
In vest
., ][]{
ER Y
Ġfar ms
' ')
B ODY
ong ue
imm ers
aj i
rec v
00 8
ĠS afe
min o
OP EN
colog ical
Ġp unk
;& #
Ġsimultane ous
Ġhand ful
ĠPublic ations
| ,
ke leton
Ġcare ers
ĠA SC
ex istence
ĠK erala
Ġob l
@ {\
scal ing
ne z
Ġlocomot ives
get Context
ose velt
fin ish
as ures
Ġannoun ces
Ġclass room
std out
Ġelectron ics
Ġjav adoc
y ang
bec ca
ĠBroadcast ing
A st
Ġcomp elling
ud ed
ov y
Ġthere after
22 3
Ġ" --
Map s
Ġmet als
Cl ause
Ġtri o
ĠCert ificate
Scott ish
Ġsurg ical
y ellow
ab b
18 30
Ad ministr
orm s
ĠH ook
ĠCon ver
ĠA uckland
Ġstrugg led
ĠV K
Ġener get
ĠC ec
The ir
Ġh ire
Ġstrugg les
es ar
ĠD as
th us
ĠN umer
let ing
ST O
|\ ,
Ġcust ody
Ġj umps
ĠD L
Ġgen ome
ĠĠĠĠĠĠĠĠĠĠĠĠĠĠĠĠĠĠĠĠĠĠĠĠĠĠĠĠĠĠĠĠ ĠĠĠĠĠĠĠĠĠĠĠĠ
un til
26 3
b org
g pp
ocom plete
b h
ec onomic
TEXT URE
Ġ" ");
we ights
"> #
Jose ph
om ar
ĠD ES
year s
ĠT S
Ġdo zens
P rec
al is
ap k
Ġdig its
Me V
ĠPalest inian
K A
ĠG or
Ġsub stitution
Ġdel ivers
Ġl akes
ill ary
Ġstand ings
ĠVol unte
r ice
ad joint
pp ing
Ġtri ang
Ġbelong ed
ur bs
ĠS ed
ag le
Ġspl its
Ġd ock
C apt
æ ŀ
ĠF ail
Ġdemand ed
uis ine
S ys
Ġn ep
:// $
ph ant
ĠSh ir
rid or
ĠL ac
ĠC ool
inter faces
à¤ ¿
Ġd uplicate
Ġdis par
s id
FA I
Ġperturb ative
ĠTreat ment
s ided
Sc ience
Ġsl opes
30 2
Ġsem if
ĠS ullivan
Ġreson ant
ĠN ATO
AND LE
Ġfin ishes
Ġcommand ed
corn er
St ock
| }\
n z
bo at
ĠGr ass
Ġwhe els
Ġinc umbent
3 10
Ġ ub
Ġco ordination
30 8
l ived
-> {
ĠS askat
ull ah
] _{\
c out
RE L
que z
ĠP and
Ġsh it
Ġathlet ic
G itHub
ĠT err
Ġcont amination
Ġproduct ivity
ĠCr ystal
Ġconsult ant
Ġis set
ĠR us
Ġdis rupt
ĠM IN
ine q
ĠCh ad
x c
com fort
comm unity
rosc opic
str ategy
ĠHol mes
Ġre wards
ĠProgram s
im uth
Ġdrum mer
P aper
ĠAs ync
ĠJam ie
V oid
ag ination
u pe
tr ust
ir re
Dem o
Ġthr one
ĠOw en
Disc ography
ll abel
Ġsl aves
F inder
ĠEx tra
St and
oy age
ĠR uby
B in
ĠE L
Min imum
ĠLat ino
IBU TE
Ġ ))
sl ug
ĠEd it
Instance Of
ĉĉĉ ĠĠĠ
K W
or ption
ĠNew castle
W ords
Or d
Mus ical
ress es
ĠArgent ine
Ġm p
bas eline
en za
Ġ( ).
Bal ance
< >(
TO OL
T er
m ob
ĠS TD
ĠTrans fer
Ġmanip ulation
am as
ant le
ĠAr ctic
Ġreve aling
Ġfix ing
ĠHe ader
Ġreflect ing
Ġab oard
Prot os
aur ant
)- (
E F
con cept
ĠG OP
Ġprof its
Hen ry
D s
ĠT all
Ġhon ored
> #
D ead
N atural
ide al
Ġmer ging
the m
Tok ens
vet ica
ĠResp ons
Ġfasc inating
K r
ĠKnow ledge
] ],
Ġto b
Ġr ises
18 57
Ġd f
ĠJ ourney
Ġdon ations
Ù ģ
ĠTas man
Ġbad ly
ĠHen ri
Ġchap el
Ġinit With
| $.
ĠN V
Ġdep recated
Sp in
Ġsat ellites
ĠPal mer
ere z
ĠHe ights
Ġdisappe ared
Ġveter ans
ĠR S
com ed
Ġserial ized
. ][]{
d V
P references
ĠH appy
ther mal
Ġ) {
Rot ation
ib us
oc ene
ĠD WORD
parent s
Ð½ Ð¸
UM ENT
ĠL ED
S and
r ison
Mod ify
ĠNe umann
ec a
Ġpar abolic
Y M
ĠF ighter
Ġexhib itions
t om
Over all
Ã µ
Represent ation
ĠC inema
Ġtimes cale
Ġc ord
Ġd ummy
"> .</
Ġhar sh
i ary
av o
ian e
D ash
Ġanalog ue
SER VICE
Ġpolar ized
ĠL akes
ĠRes et
Operation Exception
}) +\
Tool bar
Ġgr pc
Ġlaun ches
Ġe uro
F it
ing ing
^+ (
ĠC ord
Ġaut omorphism
Ġinvest ed
Ġb rowsers
Ġgeneral ize
sw ick
Ġtheore ms
Ġperform ers
S ender
Ġch lor
Ġcre ativity
define Property
Ġrespons ibilities
track s
writ eln
Ġf ears
ĠW o
Ġeth n
ĠS of
ldes igner
ĠMc Donald
PE G
Ġwavelength s
prevent Default
ĠTre nd
Ġenzym e
ig i
ĠOpt im
J un
Ġmark ing
ĠC ou
Ġg i
P ic
ĠS Ã£o
ĠÃ ¢
Circ le
ĠS leep
Ġtrans fers
sq cup
Ġcryst all
B all
append ix
Ġdies el
p ip
cel ldesigner
Ġfavor able
lo ating
ĠCy cl
ĠD im
ĠK ra
sh i
W estern
y en
im plies
math comp
set Value
ĠSing les
Ġf ame
Ġeff icacy
focus ed
m ons
ĠA chiev
Ġmin us
Ġdiff use
ĠJ ets
ott i
On Search
Con flict
Ġwor ried
Ġp raise
AR M
ĠBry an
Ġdiscipl ine
Ġassign ments
$ ~\
ĠCoal ition
Ġmem oir
c rypto
Ġout going
.\ ]
Ġdescend ants
er als
ĠP ub
n ucle
)\ |_{
Ġloc us
Ġver se
W ed
Ġacknowled ges
T a
Opt s
in ja
ĠO g
Ġcomp ass
ĠH M
ĠSher iff
ĠBel ow
Ġst om
23 3
Ġde ce
in us
min or
ĠMan uel
| <
Ġe ager
Ġfor ty
ĠE R
'' $
Ġbreak fast
k b
ĠBer ry
co ordinates
By Name
url ing
Ġfoot er
Inst ead
st en
dr ive
ĠS qu
ob ar
US D
el ist
Ġdepict s
ĠBris bane
ĠCh er
Ġshe ets
l is
pl aces
request s
ingu ished
ä ¹
. }}
q view
Ġrenew able
Ġterror ist
un ix
ole v
ĠK err
40 5
ĠD P
Ġf aint
ĠIll ustr
Ġin struct
Ġs orry
it ars
Ġp ocket
Ġb out
Ġsatisf action
ĠStand ards
: @
{ }\
Ġarg v
class path
ĠLIC ENSE
z hou
Ġcheck sum
Ġst ones
an imate
Ġtermin ology
ĠLet ters
f urt
ĠC off
Ġbl ob
get Data
Phys Rev
22 7
ĠRec ent
ÑĢ Ð¸
Ġsh ifting
art a
sp ons
Ġâ ĪĴ
Ġend orse
Ġpr ide
" +
ĠStock holm
Ġb a
Ġcontribut ors
ĠRuntime Exception
ĠR ol
ats u
Ġpurs uit
ĠCh at
Ġf reed
LE FT
p se
}\, .
ĠC IA
ĠG MT
)) {
Ġmed ic
Ġinvest ing
Ġli ability
aut om
get Logger
ĠK or
part icles
it les
Ġless er
SC A
ĠAp plied
al p
ĠEngine er
! ");
ĠW ARNING
Con nected
in fl
ĠL ar
Ġrel atives
Ġrank ings
E W
be k
Ġant is
ĠArch bishop
x a
Ġ* _
Spec ies
Ġemer gence
A H
b eq
w ere
Ġn inet
D u
ĠBel arus
R X
Ġim ped
D ER
Ġment ions
K M
Ġs addle
at em
ĠH ey
S port
Ġo m
c ategor
3 25
K now
class v
L im
Cal ifornia
Lear ning
struct ures
Ġrep ublic
pl ating
Ġalt itude
and ez
i ya
reg ions
Ġch ore
Ġfound ers
G reg
ĠP ok
L u
Ġdis established
les h
we i
marshall er
ĠExcell ence
L ex
enc oded
~ &
Î ²
et itive
ĠB ee
ac ional
ĠLe af
ĠB P
Over flow
print s
Ġspectrosc opy
Ġas ymmetric
Ġperm its
Ġa u
in as
ĠVo iv
ĠM M
oper ations
Ġsong writer
m and
hib ernate
ãģ Ļ
ĠKr ish
Ġbe et
Ġpassion ate
Throw able
b ash
h agen
Ġanalog y
Ġindex es
CP U
pat ient
Ġquant ify
tw ig
Ġprest igious
ä¸ į
Writ ten
+ ,
}^{ *
Comp anies
Ġtact ics
ĠFI LE
Ġerect ed
F IL
ĠF IX
Ġspecific ations
ĠBen ef
Ġtrem end
N EXT
Read Only
Ġre built
Ġde alt
Eval uation
Ġconstr ain
l vert
op r
ĠArm ed
Ġd in
)) ^
Ġcur ved
he at
Ġmod ulus
Ġun successful
ĠArmen ian
al gebras
å ½
ĠG ren
Ġcer emon
Ġrenew ed
Ġrevers ed
C AT
Ġg ymn
/ %
Ġsimilar ities
che wan
P ak
na ire
Ġbe ings
Ġun necessary
st ed
eg el
Ġreg ards
ft en
ĠS ql
i per
ĠSu ite
Ġposit ively
d iam
ic ers
T B
18 1
Ġless on
Lou is
Ġre written
out heastern
reat ment
ĠTool s
Ġenc ounters
chi ef
ĠBrook s
ident ified
ampl er
Def unct
t ier
Ġs au
ĠCO MM
Ġnurs ing
ĠUn ity
Ġ! (
Gr ant
Ġpath ways
Ġcoordin ator
ĠArch ae
$ ^{\
Ġdeb ugging
Ġrefin ement
ĠM atter
Ġdimension less
C LO
ĠDi ocese
C ong
Ġtr ucks
Ġthrough put
Ġcru ise
ish ers
Ġelabor ate
ĠB il
TH ON
K ar
-- ;
ke V
sche dule
ĠâĢ Ŀ
Cre ator
Ġex empl
ĠM iles
H aw
ĠCr isis
' /
mod es
Tr ust
ĠVlad imir
sw ift
Ġpil ots
>> >
Ġadv isor
Ġill um
verb ose
id g
ip so
-------- -
Ġemploy ing
ĠBank s
Ġmorph isms
Ġdipl omatic
Ġkey boards
Ġtrav elled
ĠTest ing
Ġincorpor ating
ĠAng lo
document ation
Ġpion eer
Ġassemb led
We ak
19 1
ĠAr gs
v id
Ġinher ent
ĠChe ster
ht m
ĠStep han
Ġbreed ing
ĠMichel le
Ġfin ancing
ĠP ir
Ġle ather
Ġgame play
Ġadministr ator
n al
ek s
Inv ocation
Ġbos ons
es ium
reg ation
et ched
% ).
Ġd oses
Ġn urse
oy le
Ġnot ions
(' ../
Ġdynam ically
Ġcallback s
ath a
Ġr ape
D AT
S und
Rec ently
Ġsurprising ly
p es
r ss
Ġposition ed
Ġbi om
Ġreloc ated
m us
Ġp orn
Ġn itrogen
AT IVE
Ġcancel ed
22 1
co eff
p romise
ĠV ers
ices ter
ĠRec ently
Ġmiss ile
Ġir r
Ġpoll ing
Sin ergi
ho e
ĠH ydro
ang led
lev ard
og o
Ġpull ing
Ind ividual
}), \
f re
Ġpsy chiat
Ġk ills
18 6
) ](
P ull
ĠHe aven
ĠRef s
end l
Ġad iab
Ġgl uc
Ġten ant
Ġdepos it
Ġp ap
ĠB ened
ĠJ ake
ĠK arn
f u
Ġsac red
ill ation
Ġac ids
y g
App endix
Ġmod ulo
Ġbeat en
Ġsp ite
Ġinf antry
Ġhous ed
Ġat tain
Ġsec rets
level s
Ġcons erv
ĠDav ies
Ġphys ic
Ġtim ber
ĠO z
Ġtra uma
J eff
$ ]
ĠH aus
ans wer
-------- ---
Ġres cal
block quote
s aved
le ys
comp atible
[...]
