{
  "version": "1.0",
  "truncation": null,
  "padding": null,
  "added_tokens": [
    {
      "id": 0,
      "content": "[UNK]",
      "single_word": false,
      "lstrip": false,
      "rstrip": false,
      "normalized": false,
      "special": true
    }
  ],
  "normalizer": null,
  "pre_tokenizer": {
    "type": "Sequence",
    "pretokenizers": [
      {
        "type": "Digits",
        "individual_digits": false
      },
      {
        "type": "ByteLevel",
        "add_prefix_space": false,
        "trim_offsets": true,
        "use_regex": true
      }
    ]
  },
  "post_processor": null,
  "decoder": null,
  "model": {
    "type": "BPE",
    "dropout": null,
    "unk_token": "[UNK]",
    "continuing_subword_prefix": null,
    "end_of_word_suffix": null,
    "fuse_unk": false,
    "byte_fallback": false,
    "vocab": {
      "[UNK]": 0,
      "!": 1,
      "\"": 2,
      "#": 3,
      "$": 4,
      "%": 5,
      "&": 6,
      "'": 7,
      "(": 8,
      ")": 9,
      "*": 10,
      "+": 11,
      ",": 12,
      "-": 13,
      ".": 14,
      "/": 15,
      "0": 16,
      "1": 17,
      "2": 18,
      "3": 19,
      "4": 20,
      "5": 21,
      "6": 22,
      "7": 23,
      "8": 24,
      "9": 25,
      ":": 26,
      ";": 27,
      "<": 28,
      "=": 29,
      ">": 30,
      "?": 31,
      "@": 32,
      "A": 33,
      "B": 34,
      "C": 35,
      "D": 36,
      "E": 37,
      "F": 38,
      "G": 39,
      "H": 40,
      "I": 41,
      "J": 42,
      "K": 43,
      "L": 44,
      "M": 45,
      "N": 46,
      "O": 47,
      "P": 48,
      "Q": 49,
      "R": 50,
      "S": 51,
      "T": 52,
      "U": 53,
      "V": 54,
      "W": 55,
      "X": 56,
      "Y": 57,
      "Z": 58,
      "[": 59,
      "\\": 60,
      "]": 61,
      "^": 62,
      "_": 63,
      "`": 64,
      "a": 65,
      "b": 66,
      "c": 67,
      "d": 68,
      "e": 69,
      "f": 70,
      "g": 71,
      "h": 72,
      "i": 73,
      "j": 74,
      "k": 75,
      "l": 76,
      "m": 77,
      "n": 78,
      "o": 79,
      "p": 80,
      "q": 81,
      "r": 82,
      "s": 83,
      "t": 84,
      "u": 85,
      "v": 86,
      "w": 87,
      "x": 88,
      "y": 89,
      "z": 90,
      "{": 91,
      "|": 92,
      "}": 93,
      "~": 94,
      "¡": 95,
      "¢": 96,
      "£": 97,
      "¤": 98,
      "¥": 99,
      "¦": 100,
      "§": 101,
      "¨": 102,
      "©": 103,
      "ª": 104,
      "«": 105,
      "¬": 106,
      "®": 107,
      "¯": 108,
      "°": 109,
      "±": 110,
      "²": 111,
      "³": 112,
      "´": 113,
      "µ": 114,
      "¶": 115,
      "·": 116,
      "¸": 117,
      "¹": 118,
      "º": 119,
      "»": 120,
      "¼": 121,
      "½": 122,
      "¾": 123,
      "¿": 124,
      "Â": 125,
      "Ã": 126,
      "Ä": 127,
      "Å": 128,
      "Æ": 129,
      "Ç": 130,
      "È": 131,
      "É": 132,
      "Ê": 133,
      "Ë": 134,
      "Ì": 135,
      "Í": 136,
      "Î": 137,
      "Ï": 138,
      "Ð": 139,
      "Ñ": 140,
      "Ò": 141,
      "Ó": 142,
      "Ô": 143,
      "Õ": 144,
      "Ö": 145,
      "×": 146,
      "Ø": 147,
      "Ù": 148,
      "Ú": 149,
      "Û": 150,
      "Ü": 151,
      "Ý": 152,
      "Þ": 153,
      "ß": 154,
      "à": 155,
      "á": 156,
      "â": 157,
      "ã": 158,
      "ä": 159,
      "å": 160,
      "æ": 161,
      "ç": 162,
      "è": 163,
      "é": 164,
      "ê": 165,
      "ë": 166,
      "ì": 167,
      "í": 168,
      "î": 169,
      "ï": 170,
      "ð": 171,
      "ñ": 172,
      "ó": 173,
      "ô": 174,
      "Ā": 175,
      "ā": 176,
      "Ă": 177,
      "ă": 178,
      "Ą": 179,
      "ą": 180,
      "Ć": 181,
      "ć": 182,
      "Ĉ": 183,
      "ĉ": 184,
      "Ċ": 185,
      "ċ": 186,
      "Č": 187,
      "č": 188,
      "Ď": 189,
      "ď": 190,
      "Đ": 191,
      "đ": 192,
      "Ē": 193,
      "ē": 194,
      "Ĕ": 195,
      "ĕ": 196,
      "Ė": 197,
      "ė": 198,
      "Ę": 199,
      "ę": 200,
      "Ě": 201,
      "ě": 202,
      "Ĝ": 203,
      "ĝ": 204,
      "Ğ": 205,
      "ğ": 206,
      "Ġ": 207,
      "ġ": 208,
      "Ģ": 209,
      "ģ": 210,
      "Ĥ": 211,
      "ĥ": 212,
      "Ħ": 213,
      "ħ": 214,
      "Ĩ": 215,
      "ĩ": 216,
      "Ī": 217,
      "ī": 218,
      "Ĭ": 219,
      "ĭ": 220,
      "Į": 221,
      "į": 222,
      "İ": 223,
      "ı": 224,
      "Ĳ": 225,
      "ĳ": 226,
      "Ĵ": 227,
      "ĵ": 228,
      "Ķ": 229,
      "ķ": 230,
      "ĸ": 231,
      "Ĺ": 232,
      "ĺ": 233,
      "Ļ": 234,
      "ļ": 235,
      "Ľ": 236,
      "ľ": 237,
      "Ŀ": 238,
      "ŀ": 239,
      "Ł": 240,
      "ł": 241,
      "Ń": 242,
      "ĠĠ": 243,
      "Ġt": 244,
      "in": 245,
      "ĠĠĠĠ": 246,
      "er": 247,
      "Ġa": 248,
      "on": 249,
      "he": 250,
      "re": 251,
      "at": 252,
      "en": 253,
      "Ġthe": 254,
      "or": 255,
      "Ġs": 256,
      "al": 257,
      "es": 258,
      "an": 259,
      "it": 260,
      "is": 261,
      "Ġc": 262,
      "ar": 263,
      "Ġo": 264,
      "ion": 265,
      "ed": 266,
      "Ġw": 267,
      "Ġf": 268,
      "le": 269,
      "Ġp": 270,
      "ing": 271,
      "ĠĠĠ": 272,
      "ic": 273,
      "nd": 274,
      "Ġin": 275,
      "ro": 276,
      "Ġb": 277,
      "as": 278,
      "Ġof": 279,
      "ĠĠĠĠĠĠĠĠ": 280,
      "Ġd": 281,
      "et": 282,
      "Ġm": 283,
      "ct": 284,
      "Ġand": 285,
      "ou": 286,
      "ent": 287,
      "el": 288,
      "Ġto": 289,
      "st": 290,
      "am": 291,
      "il": 292,
      "Ġh": 293,
      "Ġ\\": 294,
      "om": 295,
      "Ġre": 296,
      "Ġth": 297,
      "ig": 298,
      "Ġ$": 299,
      "Ġn": 300,
      "ation": 301,
      "ol": 302,
      "id": 303,
      "ac": 304,
      "im": 305,
      "ĠS": 306,
      "Ġ(": 307,
      "ot": 308,
      "ĠT": 309,
      "Ġe": 310,
      "Ġl": 311,
      "ur": 312,
      "ut": 313,
      "ĠC": 314,
      "iv": 315,
      "se": 316,
      "ĠA": 317,
      "ĠĠĠĠĠĠĠ": 318,
      "ad": 319,
      "Ġis": 320,
      "ul": 321,
      "Ġ=": 322,
      "ce": 323,
      "Ġg": 324,
      "Ġfor": 325,
      "od": 326,
      "ow": 327,
      "th": 328,
      "ag": 329,
      "tr": 330,
      "if": 331,
      "ay": 332,
      "ch": 333,
      "ĠM": 334,
      "ab": 335,
      "em": 336,
      "ĉĉ": 337,
      "un": 338,
      "ĠI": 339,
      "</": 340,
      "âĢ": 341,
      "ly": 342,
      "us": 343,
      "um": 344,
      "qu": 345,
      "ter": 346,
      "Ġon": 347,
      "Ġv": 348,
      "ith": 349,
      "=\"": 350,
      "ers": 351,
      "čĊ": 352,
      "ir": 353,
      "ap": 354,
      "{\\": 355,
      "Ġbe": 356,
      "ĠP": 357,
      "ate": 358,
      "ĠB": 359,
      "Ġcon": 360,
      ");": 361,
      "pe": 362,
      "20": 363,
      "ht": 364,
      "Ġst": 365,
      "--": 366,
      "Ġthat": 367,
      "Ġas": 368,
      "ction": 369,
      "oc": 370,
      "ex": 371,
      "ver": 372,
      "end": 373,
      "Ġ<": 374,
      "av": 375,
      "est": 376,
      "Ġ{": 377,
      "Ġwith": 378,
      "ĠR": 379,
      "ĠH": 380,
      "ath": 381,
      "ĠD": 382,
      "and": 383,
      "ĠF": 384,
      "ass": 385,
      "res": 386,
      "ist": 387,
      "Ġal": 388,
      "ĠL": 389,
      "pt": 390,
      "ĠĠĠĠĠĠĠĠĠĠĠ": 391,
      "Ġpro": 392,
      "Ġan": 393,
      "ub": 394,
      "up": 395,
      "ess": 396,
      "ew": 397,
      "Ġwh": 398,
      "ain": 399,
      "_{": 400,
      "os": 401,
      "ĠN": 402,
      "//": 403,
      "eg": 404,
      "ĠThe": 405,
      "ĠW": 406,
      "op": 407,
      "ame": 408,
      "ef": 409,
      "ity": 410,
      "ĠG": 411,
      "Ġby": 412,
      "Ġ*": 413,
      "ri": 414,
      "ĠE": 415,
      "rom": 416,
      "ort": 417,
      "ere": 418,
      "our": 419,
      "Ġex": 420,
      "19": 421,
      "ue": 422,
      "pl": 423,
      "Ġcom": 424,
      "ore": 425,
      "art": 426,
      "Ġit": 427,
      "Ġ\"": 428,
      "Ġr": 429,
      "ine": 430,
      "Ġ$\\": 431,
      "ight": 432,
      "Ġcl": 433,
      "Ġwas": 434,
      "Ġ}": 435,
      "Ġat": 436,
      "Ġ&": 437,
      "ect": 438,
      "age": 439,
      "all": 440,
      "\">": 441,
      "ure": 442,
      "ies": 443,
      "ill": 444,
      "ĠĊ": 445,
      "ment": 446,
      "Ġare": 447,
      "ec": 448,
      "ak": 449,
      "math": 450,
      "Ġor": 451,
      "ial": 452,
      "iz": 453,
      "Ġfrom": 454,
      "ant": 455,
      "nt": 456,
      "Ġy": 457,
      "ive": 458,
      "og": 459,
      "ref": 460,
      "ext": 461,
      "ĠO": 462,
      "ep": 463,
      "Ġwe": 464,
      "Ġthis": 465,
      "ud": 466,
      "ge": 467,
      "ack": 468,
      "ult": 469,
      "ĠJ": 470,
      "ib": 471,
      "cl": 472,
      "ĠĠĠĠĠĠĠĠĠĠĠĠĠĠĠĠ": 473,
      "ans": 474,
      "ld": 475,
      "ĠĠĠĠĠ": 476,
      "per": 477,
      "ph": 478,
      "Ġtr": 479,
      "urn": 480,
      "Ġhe": 481,
      "port": 482,
      "..": 483,
      "}\\": 484,
      "orm": 485,
      "()": 486,
      "^{": 487,
      "ite": 488,
      "00": 489,
      "sp": 490,
      "act": 491,
      "}$": 492,
      "able": 493,
      "und": 494,
      "âĢĻ": 495,
      "ber": 496,
      "Ġch": 497,
      "ip": 498,
      "ated": 499,
      "ov": 500,
      "ell": 501,
      "int": 502,
      "**": 503,
      "Ġclass": 504,
      "ĠU": 505,
      "The": 506,
      "ard": 507,
      "Ġsh": 508,
      "ary": 509,
      "str": 510,
      "are": 511,
      "ma": 512,
      "con": 513,
      "ign": 514,
      "Ġ-": 515,
      "Ġse": 516,
      "ff": 517,
      "ave": 518,
      "ich": 519,
      "Ġnot": 520,
      "Ġif": 521,
      "ition": 522,
      "ace": 523,
      "ft": 524,
      "ase": 525,
      "ype": 526,
      "ical": 527,
      "Ġle": 528,
      "pro": 529,
      "ind": 530,
      "turn": 531,
      "Ġk": 532,
      "ast": 533,
      "'s": 534,
      "ord": 535,
      "==": 536,
      "ang": 537,
      "get": 538,
      "ode": 539,
      "ĠK": 540,
      "ire": 541,
      "li": 542,
      "ev": 543,
      "ost": 544,
      "com": 545,
      "----": 546,
      "ug": 547,
      "to": 548,
      "In": 549,
      "ĠâĢ": 550,
      "Ġcomp": 551,
      "),": 552,
      "fr": 553,
      "(\\": 554,
      "Ġ'": 555,
      "ia": 556,
      "201": 557,
      "ong": 558,
      "ime": 559,
      "}}": 560,
      "Ġpl": 561,
      "out": 562,
      "ĠIn": 563,
      "ust": 564,
      "ile": 565,
      "ens": 566,
      "ide": 567,
      "text": 568,
      "ata": 569,
      "Ġus": 570,
      ").": 571,
      "Ġcan": 572,
      "ork": 573,
      "ice": 574,
      "ta": 575,
      "ations": 576,
      "ence": 577,
      "ption": 578,
      "egin": 579,
      "cal": 580,
      "ok": 581,
      "ild": 582,
      "cc": 583,
      "ĠV": 584,
      "Ġres": 585,
      "begin": 586,
      "ĠĠĠĠĠĠĠĠĠĠĠĠĠĠĠ": 587,
      "erv": 588,
      "ey": 589,
      "Ġhave": 590,
      "du": 591,
      "ubl": 592,
      "ject": 593,
      "ance": 594,
      "form": 595,
      "Ġwhich": 596,
      "equ": 597,
      "ĠTh": 598,
      "Ġj": 599,
      "ear": 600,
      ")$": 601,
      "Ġall": 602,
      "_{\\": 603,
      "Ġun": 604,
      "so": 605,
      "ach": 606,
      "Ġ[": 607,
      "enc": 608,
      "Ġim": 609,
      "ert": 610,
      "Ġad": 611,
      "ther": 612,
      "Ġhas": 613,
      "unction": 614,
      "ian": 615,
      "Ġdis": 616,
      "row": 617,
      "alue": 618,
      "ould": 619,
      "Ġ+": 620,
      "ĠSt": 621,
      "Ġap": 622,
      "ory": 623,
      "Ġreturn": 624,
      "ener": 625,
      "},": 626,
      "Ġab": 627,
      "Ġ|": 628,
      "ous": 629,
      "Ġar": 630,
      "ra": 631,
      "ob": 632,
      "Ġ//": 633,
      "abel": 634,
      "Ġnew": 635,
      "use": 636,
      "hen": 637,
      "ents": 638,
      "ress": 639,
      "cri": 640,
      "ock": 641,
      "ĉĉĉĉ": 642,
      "../": 643,
      "fig": 644,
      "}{": 645,
      "Ġ</": 646,
      "ublic": 647,
      "right": 648,
      "->": 649,
      "Ġstr": 650,
      "10": 651,
      "eq": 652,
      "Ġhis": 653,
      "eta": 654,
      "ond": 655,
      "ource": 656,
      "set": 657,
      "own": 658,
      "Ġcont": 659,
      "::": 660,
      "ll": 661,
      "aram": 662,
      "oll": 663,
      "fer": 664,
      "200": 665,
      "ĠCh": 666,
      "frac": 667,
      "ound": 668,
      "Con": 669,
      "over": 670,
      "erm": 671,
      "tern": 672,
      "Ġyou": 673,
      "ple": 674,
      "ions": 675,
      "ps": 676,
      "ish": 677,
      "irst": 678,
      "ree": 679,
      "ors": 680,
      "one": 681,
      "ize": 682,
      "old": 683,
      "ome": 684,
      "ik": 685,
      "St": 686,
      "ull": 687,
      "ark": 688,
      "ose": 689,
      "elf": 690,
      "Ġalso": 691,
      "ml": 692,
      "ual": 693,
      "clud": 694,
      "\",": 695,
      "Ġone": 696,
      "iel": 697,
      "ict": 698,
      "div": 699,
      "Ġwill": 700,
      "label": 701,
      "Ġ@": 702,
      "ount": 703,
      "ink": 704,
      "rm": 705,
      "Ġpart": 706,
      "te": 707,
      "mathb": 708,
      "Ġout": 709,
      "ates": 710,
      "Ġsu": 711,
      "Ġdef": 712,
      "Ġ/": 713,
      "mer": 714,
      "Ġbut": 715,
      "oth": 716,
      "we": 717,
      "the": 718,
      "ely": 719,
      "Ġob": 720,
      "che": 721,
      "ss": 722,
      "wo": 723,
      "ield": 724,
      "Ġme": 725,
      "Ġsp": 726,
      "Ġwere": 727,
      "yst": 728,
      "odel": 729,
      "pect": 730,
      "Ex": 731,
      "eth": 732,
      "Ġqu": 733,
      "inal": 734,
      "Ġfunction": 735,
      "Ġset": 736,
      "18": 737,
      "Ġup": 738,
      "Ġro": 739,
      "iew": 740,
      "></": 741,
      "Ġpr": 742,
      "ics": 743,
      "Ġev": 744,
      "(\"": 745,
      "put": 746,
      "Ġtheir": 747,
      "Ġde": 748,
      "essage": 749,
      "span": 750,
      "Ġdo": 751,
      "rit": 752,
      "rap": 753,
      "cite": 754,
      "lect": 755,
      "$,": 756,
      "ray": 757,
      "$.": 758,
      "();": 759,
      "line": 760,
      "ick": 761,
      ",\\": 762,
      "><": 763,
      "ĠY": 764,
      "ail": 765,
      "oint": 766,
      "left": 767,
      "ari": 768,
      "Ġint": 769,
      "sum": 770,
      "})": 771,
      "sh": 772,
      "ook": 773,
      "mathcal": 774,
      "ry": 775,
      "ake": 776,
      "ck": 777,
      "Ġ.": 778,
      "igh": 779,
      "',": 780,
      "ix": 781,
      "Ġper": 782,
      "Ġpre": 783,
      "tring": 784,
      "equation": 785,
      "Ġits": 786,
      "}.": 787,
      "ings": 788,
      "pr": 789,
      "roup": 790,
      "ystem": 791,
      "âĢĿ": 792,
      "les": 793,
      "ool": 794,
      "pec": 795,
      "Ġmore": 796,
      "Ġfirst": 797,
      "12": 798,
      "Ġname": 799,
      "Ġen": 800,
      "../../": 801,
      "--------": 802,
      "lo": 803,
      "ng": 804,
      "Ġover": 805,
      "Ġman": 806,
      "ery": 807,
      "mb": 808,
      "ĠIt": 809,
      "cre": 810,
      "Ġpublic": 811,
      "}(": 812,
      "ax": 813,
      "Ġtwo": 814,
      "Ġdes": 815,
      "fter": 816,
      "amb": 817,
      "Ġget": 818,
      "Ġ:": 819,
      "umber": 820,
      "ater": 821,
      "html": 822,
      "Ġtime": 823,
      "err": 824,
      "aw": 825,
      "Ġinter": 826,
      "trib": 827,
      "Ġag": 828,
      "Ġthey": 829,
      "iss": 830,
      "Ġwork": 831,
      "ne": 832,
      "ĉĉĉ": 833,
      "}^": 834,
      "ator": 835,
      "ular": 836,
      "ĠUn": 837,
      "Ġso": 838,
      "of": 839,
      "Ġhref": 840,
      "hed": 841,
      "cent": 842,
      "Ġne": 843,
      "ty": 844,
      "Ġte": 845,
      "pos": 846,
      "Pro": 847,
      "Ġother": 848,
      "ied": 849,
      "~\\": 850,
      "ational": 851,
      "Th": 852,
      "====": 853,
      "Ġwho": 854,
      "name": 855,
      "ĠHe": 856,
      "raph": 857,
      "))": 858,
      "tribut": 859,
      "io": 860,
      "}_": 861,
      "imes": 862,
      "app": 863,
      "pha": 864,
      "Ġ||": 865,
      "uct": 866,
      "Ġ*/": 867,
      "****": 868,
      "Ġbeen": 869,
      "ific": 870,
      "oid": 871,
      "da": 872,
      "ĠĠĠĠĠĠĠĠĠĠĠĠĠĠĠĠĠĠĠ": 873,
      "ative": 874,
      "Ġplay": 875,
      "ons": 876,
      "ollow": 877,
      "Ġhad": 878,
      "Ġresult": 879,
      "arg": 880,
      "ie": 881,
      "ram": 882,
      "Ġwhen": 883,
      "Ġdata": 884,
      "alpha": 885,
      "col": 886,
      "lation": 887,
      "ER": 888,
      "Ġsub": 889,
      "ĠâĢĵ": 890,
      "('": 891,
      "Ġsup": 892,
      "ove": 893,
      "round": 894,
      "ys": 895,
      "Ġher": 896,
      "Ġline": 897,
      "anc": 898,
      "Ġtrans": 899,
      "ĠĠĠĠĠĠĠĠĠ": 900,
      "Ġund": 901,
      "ms": 902,
      "ient": 903,
      "ont": 904,
      "this": 905,
      "sub": 906,
      "atch": 907,
      "ox": 908,
      "Ġbet": 909,
      "source": 910,
      "16": 911,
      "ange": 912,
      "Ġcomm": 913,
      "ann": 914,
      "Ġonly": 915,
      "ased": 916,
      "Ġadd": 917,
      "Ġtype": 918,
      "trans": 919,
      "Ġvalue": 920,
      "let": 921,
      "Ġ=>": 922,
      "message": 923,
      "Ġgo": 924,
      "ĠThis": 925,
      "ĠWe": 926,
      "oun": 927,
      "ethod": 928,
      "Ġyear": 929,
      "Ġinto": 930,
      "Ġreg": 931,
      ")\\": 932,
      "Ġany": 933,
      "Ġ#": 934,
      "eng": 935,
      "Ġcol": 936,
      "Ġdif": 937,
      "lement": 938,
      "arch": 939,
      "Ġwhere": 940,
      "Ġour": 941,
      "elta": 942,
      "âĢĵ": 943,
      "ON": 944,
      "ugh": 945,
      "Name": 946,
      "atic": 947,
      "idth": 948,
      "Ġthere": 949,
      "ames": 950,
      "Ġthan": 951,
      "tain": 952,
      "ambda": 953,
      "als": 954,
      "cript": 955,
      "ho": 956,
      "ise": 957,
      "ating": 958,
      "15": 959,
      "Ġfollow": 960,
      "ays": 961,
      "Ġsc": 962,
      "ve": 963,
      "dd": 964,
      "Ġacc": 965,
      "ues": 966,
      "urre": 967,
      "yn": 968,
      "td": 969,
      "Ġi": 970,
      "Ġabout": 971,
      "ade": 972,
      "oot": 973,
      "Ġcons": 974,
      "uild": 975,
      "IN": 976,
      "199": 977,
      "Ġpos": 978,
      "resent": 979,
      "def": 980,
      "Ġ_": 981,
      "ĠâĢľ": 982,
      "alse": 983,
      "oug": 984,
      "Ġform": 985,
      "hat": 986,
      "Ġinclud": 987,
      "Id": 988,
      "ember": 989,
      "import": 990,
      "11": 991,
      "Ġsuch": 992,
      "ility": 993,
      "Ġend": 994,
      "Ġpe": 995,
      "$\\": 996,
      "Ġass": 997,
      "String": 998,
      "amma": 999,
      "olog": 1000,
      "ople": 1001,
      "Ġsome": 1002,
      "der": 1003,
      "Type": 1004,
      "param": 1005,
      "ities": 1006,
      "amp": 1007,
      "ars": 1008,
      "Ġmodel": 1009,
      "Ġthen": 1010,
      "Ġoff": 1011,
      "ences": 1012,
      "mathbb": 1013,
      "Ġno": 1014,
      "Ġrel": 1015,
      "_\\": 1016,
      "Ġact": 1017,
      "ident": 1018,
      "bar": 1019,
      "ward": 1020,
      "22": 1021,
      "lock": 1022,
      "Ġloc": 1023,
      "ited": 1024,
      "=\\": 1025,
      "://": 1026,
      "its": 1027,
      "min": 1028,
      "ures": 1029,
      "Ġgener": 1030,
      "Ġind": 1031,
      "Ġunder": 1032,
      "Ġkn": 1033,
      "Ġdec": 1034,
      "/>": 1035,
      "ĠCom": 1036,
      "orn": 1037,
      "ton": 1038,
      "Com": 1039,
      "ween": 1040,
      "Ġuse": 1041,
      "ider": 1042,
      "ince": 1043,
      "Ġrequ": 1044,
      "Ġco": 1045,
      "Ġshow": 1046,
      "tt": 1047,
      "cess": 1048,
      "Ġph": 1049,
      "land": 1050,
      "ible": 1051,
      "ined": 1052,
      "Ġconst": 1053,
      "code": 1054,
      "Ġsim": 1055,
      "igma": 1056,
      "Ġinv": 1057,
      "br": 1058,
      "ash": 1059,
      "Ġwould": 1060,
      "Ġfil": 1061,
      "ike": 1062,
      "Ġ\\\\": 1063,
      "mu": 1064,
      "ature": 1065,
      "ced": 1066,
      "ega": 1067,
      "dot": 1068,
      "oy": 1069,
      "ower": 1070,
      "ĠPro": 1071,
      "Ġrec": 1072,
      "}_{": 1073,
      "Ġfe": 1074,
      "Ġprov": 1075,
      "irect": 1076,
      "}^{": 1077,
      "ally": 1078,
      "Ġcre": 1079,
      "abl": 1080,
      "return": 1081,
      "\"/>": 1082,
      "21": 1083,
      "Ġfl": 1084,
      "item": 1085,
      "Ġafter": 1086,
      "Ġel": 1087,
      "sc": 1088,
      "-\\": 1089,
      "RE": 1090,
      "Ġop": 1091,
      "ĠAr": 1092,
      "olut": 1093,
      "ivers": 1094,
      "ement": 1095,
      "Ġused": 1096,
      "Ġdiffer": 1097,
      "Ġself": 1098,
      "ices": 1099,
      "ank": 1100,
      "ble": 1101,
      "Ġbetween": 1102,
      "##": 1103,
      "plic": 1104,
      "Ġsec": 1105,
      "ĠNew": 1106,
      "^{\\": 1107,
      "Ch": 1108,
      "uring": 1109,
      "We": 1110,
      "Ġx": 1111,
      "pi": 1112,
      "pon": 1113,
      "ins": 1114,
      "Ġspec": 1115,
      "align": 1116,
      "Ġshe": 1117,
      "add": 1118,
      "Res": 1119,
      "ST": 1120,
      "class": 1121,
      "13": 1122,
      "ĠSe": 1123,
      "ctions": 1124,
      "14": 1125,
      "ead": 1126,
      "var": 1127,
      "Ġcase": 1128,
      "17": 1129,
      "Ġstud": 1130,
      "rough": 1131,
      "read": 1132,
      "ersion": 1133,
      "Ġrem": 1134,
      "ception": 1135,
      "urrent": 1136,
      "ists": 1137,
      "Ġhigh": 1138,
      "ault": 1139,
      "Ġpol": 1140,
      "ning": 1141,
      "Ġmay": 1142,
      "phi": 1143,
      "Ġcor": 1144,
      "yle": 1145,
      "meric": 1146,
      "itle": 1147,
      "25": 1148,
      "Ġequ": 1149,
      "lambda": 1150,
      "uth": 1151,
      "ner": 1152,
      "air": 1153,
      "Ġprodu": 1154,
      "ĠAl": 1155,
      "translation": 1156,
      "Ġsystem": 1157,
      "ts": 1158,
      "orld": 1159,
      "Ġthese": 1160,
      "aid": 1161,
      "ache": 1162,
      "ized": 1163,
      "epend": 1164,
      "ote": 1165,
      "ished": 1166,
      "ym": 1167,
      "vent": 1168,
      "ious": 1169,
      "Ref": 1170,
      "Ġinst": 1171,
      "bf": 1172,
      "Ġcall": 1173,
      "ages": 1174,
      "Ġeach": 1175,
      "ask": 1176,
      "Ġdev": 1177,
      "List": 1178,
      "htt": 1179,
      "section": 1180,
      "Ġnumber": 1181,
      "ily": 1182,
      "Ġent": 1183,
      "fl": 1184,
      "Ġ!": 1185,
      "type": 1186,
      "AT": 1187,
      "son": 1188,
      "wh": 1189,
      "Ġback": 1190,
      "Ġval": 1191,
      "ier": 1192,
      "Ġ`": 1193,
      "Ġgiv": 1194,
      "Cl": 1195,
      "loc": 1196,
      "ines": 1197,
      "ric": 1198,
      "Ġac": 1199,
      "ĠQ": 1200,
      "ervice": 1201,
      "Ġ{\\": 1202,
      "ument": 1203,
      "Ġeff": 1204,
      "__": 1205,
      "Ġmost": 1206,
      "Ġthem": 1207,
      "red": 1208,
      "Ġpoint": 1209,
      "mall": 1210,
      "org": 1211,
      "mathbf": 1212,
      "Ġpeople": 1213,
      "Ġ>": 1214,
      "Ġyour": 1215,
      "ause": 1216,
      "Ġgr": 1217,
      "30": 1218,
      "ilon": 1219,
      "ting": 1220,
      "for": 1221,
      "log": 1222,
      "ision": 1223,
      "val": 1224,
      "Ġbec": 1225,
      "ample": 1226,
      "ever": 1227,
      "ternal": 1228,
      "any": 1229,
      "Ġ==": 1230,
      "Ġthrough": 1231,
      "ĠFor": 1232,
      "back": 1233,
      "ments": 1234,
      "ough": 1235,
      "ĠZ": 1236,
      "apt": 1237,
      "AR": 1238,
      "ID": 1239,
      "ule": 1240,
      "Ġchar": 1241,
      "Ġsign": 1242,
      "):": 1243,
      "fo": 1244,
      "Ġam": 1245,
      "ĠSh": 1246,
      "Ġvari": 1247,
      "eter": 1248,
      "Ġnull": 1249,
      "OR": 1250,
      "part": 1251,
      "Ġ--": 1252,
      "ren": 1253,
      "ole": 1254,
      "uss": 1255,
      "vel": 1256,
      "Ar": 1257,
      "ength": 1258,
      "ization": 1259,
      "oci": 1260,
      "ason": 1261,
      "Ġorg": 1262,
      "Ġest": 1263,
      "ivate": 1264,
      "ser": 1265,
      "\"><": 1266,
      "198": 1267,
      "sigma": 1268,
      "wn": 1269,
      "Ġwell": 1270,
      "Ġtest": 1271,
      "It": 1272,
      "be": 1273,
      "reat": 1274,
      "Tr": 1275,
      "Ġvar": 1276,
      "beta": 1277,
      "\\\\": 1278,
      "view": 1279,
      "press": 1280,
      "Ġfalse": 1281,
      "Ġusing": 1282,
      "Ġoper": 1283,
      "Ġhow": 1284,
      "ces": 1285,
      "gy": 1286,
      "man": 1287,
      "23": 1288,
      "eps": 1289,
      "array": 1290,
      "yp": 1291,
      "Ġever": 1292,
      "angle": 1293,
      "ek": 1294,
      "chool": 1295,
      "width": 1296,
      "ilde": 1297,
      "Ġerr": 1298,
      "Ġtrue": 1299,
      "Ġlike": 1300,
      "Ġvoid": 1301,
      "^{-": 1302,
      "ĠTr": 1303,
      "LE": 1304,
      "ah": 1305,
      "ĠAn": 1306,
      "oh": 1307,
      "Ġ(\\": 1308,
      "ĠCon": 1309,
      "...": 1310,
      "Ġed": 1311,
      "pre": 1312,
      "ody": 1313,
      "Ġgroup": 1314,
      "ptions": 1315,
      "Ġatt": 1316,
      "Ġmin": 1317,
      "ĠĠĠĠĠĠĠĠĠĠĠĠĠ": 1318,
      "Ġdifferent": 1319,
      "Ġfinal": 1320,
      "Ġmod": 1321,
      "try": 1322,
      "Ġstate": 1323,
      "Ġsame": 1324,
      "ired": 1325,
      "}{\\": 1326,
      "mathrm": 1327,
      "az": 1328,
      "lection": 1329,
      "Ġfield": 1330,
      "Ġem": 1331,
      "Ġrep": 1332,
      "ĠCl": 1333,
      "ĠX": 1334,
      "work": 1335,
      "ets": 1336,
      "Ġneed": 1337,
      "Ġbr": 1338,
      "self": 1339,
      "To": 1340,
      "elop": 1341,
      "Ġmon": 1342,
      "hip": 1343,
      "ern": 1344,
      "Ġappro": 1345,
      "uc": 1346,
      "ĠAmeric": 1347,
      "Ġstart": 1348,
      "000": 1349,
      "umn": 1350,
      "perty": 1351,
      "ee": 1352,
      "arget": 1353,
      "*}": 1354,
      "+\\": 1355,
      "Ġfound": 1356,
      "50": 1357,
      "Ġmethod": 1358,
      "iver": 1359,
      "Ġ)": 1360,
      "ĠAs": 1361,
      "Ġnon": 1362,
      "Ġagain": 1363,
      "ically": 1364,
      "ĠĠĠĠĠĠ": 1365,
      "ĠĠĠĠĠĠĠĠĠĠĠĠĠĠĠĠĠĠĠĠĠĠĠ": 1366,
      "ife": 1367,
      "Ġsur": 1368,
      "\")": 1369,
      "gamma": 1370,
      "rr": 1371,
      "Refer": 1372,
      "Ġparam": 1373,
      "other": 1374,
      "ism": 1375,
      "Ġext": 1376,
      "SS": 1377,
      "ava": 1378,
      "ott": 1379,
      "ful": 1380,
      "att": 1381,
      "uch": 1382,
      "serv": 1383,
      "Ġser": 1384,
      "ww": 1385,
      "Ġboth": 1386,
      "Ġsaid": 1387,
      "not": 1388,
      "\");": 1389,
      "string": 1390,
      "]{": 1391,
      "Ġwhile": 1392,
      "formation": 1393,
      "Ob": 1394,
      "Ġhim": 1395,
      "by": 1396,
      "AL": 1397,
      "ional": 1398,
      "Ġcent": 1399,
      "ute": 1400,
      "Ġpartic": 1401,
      "^\\": 1402,
      "Ġjust": 1403,
      "ency": 1404,
      "ĠEx": 1405,
      "iversity": 1406,
      "new": 1407,
      "ream": 1408,
      "fore": 1409,
      "24": 1410,
      "----------------": 1411,
      "action": 1412,
      "Ġelse": 1413,
      "Ġmat": 1414,
      "data": 1415,
      "Ġshould": 1416,
      "Ġyears": 1417,
      "uff": 1418,
      "EN": 1419,
      "Ġlong": 1420,
      "ĠInd": 1421,
      "co": 1422,
      "me": 1423,
      "delta": 1424,
      "ases": 1425,
      "ouse": 1426,
      "figure": 1427,
      "ball": 1428,
      "ared": 1429,
      "ants": 1430,
      "erson": 1431,
      "Ġsecond": 1432,
      "Ġfollowing": 1433,
      "play": 1434,
      "ele": 1435,
      "Ġthree": 1436,
      "Col": 1437,
      "Ġwhat": 1438,
      "way": 1439,
      "Ġlist": 1440,
      "Ġgiven": 1441,
      ")}": 1442,
      "aj": 1443,
      "ger": 1444,
      "ify": 1445,
      "nb": 1446,
      "Value": 1447,
      "197": 1448,
      "cont": 1449,
      "ccess": 1450,
      "Ġz": 1451,
      "olution": 1452,
      "Ġorder": 1453,
      "ron": 1454,
      "Ġsing": 1455,
      "includ": 1456,
      "////": 1457,
      "ified": 1458,
      "leq": 1459,
      "ale": 1460,
      "rho": 1461,
      "Ġid": 1462,
      "roll": 1463,
      "********": 1464,
      "$-": 1465,
      "Data": 1466,
      "itt": 1467,
      "Ġnow": 1468,
      "Ġperform": 1469,
      "cept": 1470,
      "Ġterm": 1471,
      "theta": 1472,
      "Ġdet": 1473,
      "ential": 1474,
      "Ġright": 1475,
      "key": 1476,
      "ross": 1477,
      "Ġcould": 1478,
      "script": 1479,
      "orth": 1480,
      "Ġlead": 1481,
      "date": 1482,
      "requ": 1483,
      "value": 1484,
      "ality": 1485,
      "')": 1486,
      "irc": 1487,
      "For": 1488,
      "face": 1489,
      "rop": 1490,
      "cdot": 1491,
      "af": 1492,
      "arent": 1493,
      "Ġfact": 1494,
      "ense": 1495,
      "tau": 1496,
      "Ġbeing": 1497,
      "Ġdr": 1498,
      "References": 1499,
      "ters": 1500,
      "Ġevery": 1501,
      "big": 1502,
      "ots": 1503,
      "rol": 1504,
      "}(\\": 1505,
      "Ġmy": 1506,
      "Ġmany": 1507,
      "itions": 1508,
      "Ġrun": 1509,
      "eqref": 1510,
      "ils": 1511,
      "dis": 1512,
      "mod": 1513,
      "}$,": 1514,
      "32": 1515,
      "times": 1516,
      "aking": 1517,
      "med": 1518,
      "}$.": 1519,
      "ten": 1520,
      "Ġdirect": 1521,
      "Ġdisc": 1522,
      "Ġbl": 1523,
      "uary": 1524,
      "px": 1525,
      "ĠĠĠĠĠĠĠĠĠĠĠĠĠĠĠĠĠĠĠĠĠĠĠĠĠĠĠĠĠĠĠĠ": 1526,
      ".,": 1527,
      "Ġart": 1528,
      "struct": 1529,
      "nbsp": 1530,
      "Ġsee": 1531,
      "ology": 1532,
      "Ġsupport": 1533,
      "ather": 1534,
      "Ġexper": 1535,
      "Ġbefore": 1536,
      "ood": 1537,
      "arrow": 1538,
      "ector": 1539,
      "outh": 1540,
      "sec": 1541,
      "Ġconsider": 1542,
      "Ġstring": 1543,
      "Ġduring": 1544,
      "raw": 1545,
      "Ġmed": 1546,
      "bers": 1547,
      "ains": 1548,
      "par": 1549,
      "ively": 1550,
      "location": 1551,
      "file": 1552,
      "By": 1553,
      "iqu": 1554,
      "gram": 1555,
      "ane": 1556,
      "roid": 1557,
      "Ġread": 1558,
      "fty": 1559,
      "Ġbel": 1560,
      "arly": 1561,
      "100": 1562,
      "ability": 1563,
      "========": 1564,
      "As": 1565,
      "Ġ&&": 1566,
      "ural": 1567,
      "order": 1568,
      "Ġhand": 1569,
      "Ġteam": 1570,
      "($": 1571,
      "sy": 1572,
      "Ġobject": 1573,
      "Set": 1574,
      "ury": 1575,
      "Ġprocess": 1576,
      "Ġfam": 1577,
      "infty": 1578,
      "Ġdescri": 1579,
      "En": 1580,
      "ĠDe": 1581,
      "pm": 1582,
      "ĠCol": 1583,
      "heck": 1584,
      "];": 1585,
      "Ġ/**": 1586,
      "Ġdoes": 1587,
      "lp": 1588,
      "atus": 1589,
      "ral": 1590,
      "Un": 1591,
      "Ġlink": 1592,
      "CT": 1593,
      "arn": 1594,
      "Ã©": 1595,
      "Ġserv": 1596,
      "Exception": 1597,
      "ke": 1598,
      "Ġcurrent": 1599,
      "Ġeffect": 1600,
      "ulation": 1601,
      "Ġmade": 1602,
      "led": 1603,
      "40": 1604,
      "reg": 1605,
      "Ġrele": 1606,
      "SE": 1607,
      "Ġdevelop": 1608,
      "etwork": 1609,
      "Ġsmall": 1610,
      "ler": 1611,
      "nu": 1612,
      "Ġfind": 1613,
      "chn": 1614,
      "196": 1615,
      "This": 1616,
      "ows": 1617,
      "Ġkey": 1618,
      "Ġmake": 1619,
      "IT": 1620,
      "));": 1621,
      "arge": 1622,
      "lob": 1623,
      "DE": 1624,
      "Ġu": 1625,
      "quad": 1626,
      "ived": 1627,
      "],": 1628,
      "size": 1629,
      "oad": 1630,
      "Ġcontin": 1631,
      "head": 1632,
      "AN": 1633,
      "ĠIf": 1634,
      "Ġfin": 1635,
      "chi": 1636,
      "omega": 1637,
      "ience": 1638,
      "Ġbecause": 1639,
      "Ġimport": 1640,
      "overn": 1641,
      "rix": 1642,
      "ission": 1643,
      "aining": 1644,
      "Ġapp": 1645,
      "ĠSc": 1646,
      "rror": 1647,
      "Ġmain": 1648,
      "'t": 1649,
      "itial": 1650,
      "An": 1651,
      "Ġ///": 1652,
      "day": 1653,
      "her": 1654,
      "tilde": 1655,
      "partial": 1656,
      "Ġresults": 1657,
      "Ġresp": 1658,
      "Ġlast": 1659,
      "load": 1660,
      "lex": 1661,
      "ected": 1662,
      "Ġprivate": 1663,
      "mary": 1664,
      "ĠFr": 1665,
      "rc": 1666,
      "center": 1667,
      "Ġgu": 1668,
      "Ġ$(": 1669,
      "On": 1670,
      "Ġanal": 1671,
      "pp": 1672,
      "ister": 1673,
      "|\\": 1674,
      "Ġeven": 1675,
      "Cont": 1676,
      "space": 1677,
      "ground": 1678,
      "ĠLe": 1679,
      "ives": 1680,
      "Ġwrit": 1681,
      "eters": 1682,
      "Ġfr": 1683,
      "Ġstatic": 1684,
      "test": 1685,
      "Ġav": 1686,
      "field": 1687,
      "inter": 1688,
      "lay": 1689,
      "Ġstruct": 1690,
      "comm": 1691,
      "Object": 1692,
      "ĠIs": 1693,
      "ually": 1694,
      "alth": 1695,
      "ĠUniversity": 1696,
      "Ġcond": 1697,
      "ĠString": 1698,
      "ĠOn": 1699,
      "time": 1700,
      "rem": 1701,
      "Ġmem": 1702,
      "Ġ%": 1703,
      "gr": 1704,
      "top": 1705,
      "Ġcoun": 1706,
      "Ġincre": 1707,
      "Test": 1708,
      "color": 1709,
      "Ġbuild": 1710,
      "mbol": 1711,
      "Ġexpect": 1712,
      "Ġtop": 1713,
      "ĠRes": 1714,
      "Im": 1715,
      "Ġsl": 1716,
      "els": 1717,
      "arm": 1718,
      "au": 1719,
      "Ind": 1720,
      "Ġsince": 1721,
      "pace": 1722,
      "ĠAmerican": 1723,
      "Ġvery": 1724,
      "().": 1725,
      "ME": 1726,
      "ina": 1727,
      "resp": 1728,
      ".\"": 1729,
      "ital": 1730,
      "js": 1731,
      "Ġlocal": 1732,
      "ness": 1733,
      "ĉĉĉĉĉ": 1734,
      "Delta": 1735,
      "efore": 1736,
      "vert": 1737,
      "ior": 1738,
      "ĠAnd": 1739,
      "ĠĠĠĠĊ": 1740,
      "link": 1741,
      "ĠĠĊ": 1742,
      "Ġpass": 1743,
      "ocument": 1744,
      "CO": 1745,
      "aces": 1746,
      "table": 1747,
      "âĢľ": 1748,
      "gor": 1749,
      "Ġway": 1750,
      "Ġcr": 1751,
      "nav": 1752,
      "At": 1753,
      "Get": 1754,
      "Ġmet": 1755,
      "Ph": 1756,
      "Ġmov": 1757,
      "search": 1758,
      "umer": 1759,
      "agn": 1760,
      "Ġtitle": 1761,
      "function": 1762,
      "usic": 1763,
      "ager": 1764,
      "Ġmult": 1765,
      "vious": 1766,
      "Ġpresent": 1767,
      "Ġpop": 1768,
      "rite": 1769,
      "33": 1770,
      "Ġelement": 1771,
      "olv": 1772,
      "xi": 1773,
      "ustr": 1774,
      "Ġ!=": 1775,
      "27": 1776,
      "public": 1777,
      "Key": 1778,
      "Ġbound": 1779,
      "eqn": 1780,
      "ĠPh": 1781,
      "Ġobtain": 1782,
      "ush": 1783,
      "View": 1784,
      "ĠHow": 1785,
      "Ġmeas": 1786,
      "\"></": 1787,
      "reak": 1788,
      "less": 1789,
      "sq": 1790,
      "Ġopen": 1791,
      "Sh": 1792,
      "orem": 1793,
      "oss": 1794,
      "istory": 1795,
      "ords": 1796,
      "Ġdid": 1797,
      "._": 1798,
      "());": 1799,
      "where": 1800,
      "Ġbo": 1801,
      "cit": 1802,
      "26": 1803,
      "ats": 1804,
      "Ġarg": 1805,
      "iving": 1806,
      "index": 1807,
      ".âĢĿ": 1808,
      "Ġinformation": 1809,
      "quot": 1810,
      "ograph": 1811,
      "rt": 1812,
      "Ġsize": 1813,
      "uthor": 1814,
      "Ġposs": 1815,
      "28": 1816,
      "til": 1817,
      "Ġrepresent": 1818,
      "Ġthose": 1819,
      "alk": 1820,
      "['": 1821,
      "itive": 1822,
      "Ġtem": 1823,
      "Ġincluding": 1824,
      "Ġobserv": 1825,
      "Error": 1826,
      "list": 1827,
      "Ġorig": 1828,
      "Ġbeg": 1829,
      "omen": 1830,
      "url": 1831,
      "Ġprovid": 1832,
      "Ġvis": 1833,
      "Ġfour": 1834,
      "Ġdown": 1835,
      "acter": 1836,
      "Ġappe": 1837,
      "adi": 1838,
      "ĠShe": 1839,
      "Ġown": 1840,
      "ĠPr": 1841,
      "Ġcar": 1842,
      "ports": 1843,
      "Class": 1844,
      "Ġdist": 1845,
      "cale": 1846,
      "Ġknow": 1847,
      "por": 1848,
      "met": 1849,
      "go": 1850,
      "ober": 1851,
      "Ġlevel": 1852,
      "iness": 1853,
      "Ġcommun": 1854,
      "ohn": 1855,
      "urs": 1856,
      "\";": 1857,
      "mp": 1858,
      "Ġbro": 1859,
      "Ġevent": 1860,
      "Ġ,": 1861,
      "akes": 1862,
      "}}\\": 1863,
      ")$.": 1864,
      "Ġmark": 1865,
      "Ġdistribut": 1866,
      "Ġlet": 1867,
      "ĠUnited": 1868,
      "http": 1869,
      "].": 1870,
      "Ġlim": 1871,
      "AC": 1872,
      "uration": 1873,
      "$$": 1874,
      "side": 1875,
      "ĠBr": 1876,
      "fin": 1877,
      "ĠčĊ": 1878,
      "\\,": 1879,
      "Ġproble": 1880,
      "Ġhead": 1881,
      "ĠComm": 1882,
      "lected": 1883,
      "ĠEng": 1884,
      "!--": 1885,
      "Om": 1886,
      "64": 1887,
      "Ġleft": 1888,
      "bs": 1889,
      "group": 1890,
      "istr": 1891,
      "ĠâĢĶ": 1892,
      "opy": 1893,
      ".</": 1894,
      "ties": 1895,
      "ival": 1896,
      "Ġaut": 1897,
      "iter": 1898,
      "Ġworld": 1899,
      "enn": 1900,
      "Ġtri": 1901,
      "ift": 1902,
      "Ġbased": 1903,
      "bo": 1904,
      "lear": 1905,
      "Ġ/>": 1906,
      "Ġreal": 1907,
      "tab": 1908,
      "Ġfile": 1909,
      "2022": 1910,
      "idd": 1911,
      "Ġagainst": 1912,
      "ape": 1913,
      "Ġpres": 1914,
      "epsilon": 1915,
      "ormal": 1916,
      "itor": 1917,
      "lem": 1918,
      "energy": 1919,
      "Requ": 1920,
      "off": 1921,
      "}[": 1922,
      "Ġlook": 1923,
      "Ġhere": 1924,
      "ven": 1925,
      "ification": 1926,
      "Ġhelp": 1927,
      "sim": 1928,
      "ai": 1929,
      "Ġdesign": 1930,
      "uck": 1931,
      "ird": 1932,
      "Ġident": 1933,
      "Ġpat": 1934,
      "};": 1935,
      "bed": 1936,
      "Ġchild": 1937,
      "=\"+": 1938,
      "Ġspace": 1939,
      "tract": 1940,
      "Al": 1941,
      "Int": 1942,
      "bl": 1943,
      "cm": 1944,
      "Ġvalues": 1945,
      "Ġknown": 1946,
      "respond": 1947,
      "ene": 1948,
      "box": 1949,
      "come": 1950,
      "Omega": 1951,
      "ackage": 1952,
      "Ġgame": 1953,
      "=\"../../": 1954,
      "une": 1955,
      "Ġmust": 1956,
      "ĠAd": 1957,
      "Ġlarge": 1958,
      "inc": 1959,
      "29": 1960,
      "ĠMar": 1961,
      "ording": 1962,
      "position": 1963,
      "Ġrece": 1964,
      "Ġmuch": 1965,
      "ety": 1966,
      "']": 1967,
      "');": 1968,
      "ained": 1969,
      "vir": 1970,
      "Ġexpl": 1971,
      "ley": 1972,
      "Ġrespect": 1973,
      "uro": 1974,
      "Ġstand": 1975,
      "de": 1976,
      "}_{\\": 1977,
      "path": 1978,
      "angu": 1979,
      "2020": 1980,
      "ension": 1981,
      "sk": 1982,
      "ĠYou": 1983,
      "ourn": 1984,
      "duct": 1985,
      "ĠOr": 1986,
      "Ġdi": 1987,
      "Ġpar": 1988,
      "Ġref": 1989,
      "ination": 1990,
      "Se": 1991,
      "ampl": 1992,
      "urther": 1993,
      "RO": 1994,
      "Ġexp": 1995,
      "dt": 1996,
      "ope": 1997,
      "Ġmass": 1998,
      "Ġnext": 1999,
      "ends": 2000,
      "itional": 2001,
      "60": 2002,
      "fil": 2003,
      "aster": 2004,
      "Ġaround": 2005,
      "LL": 2006,
      "Ġerror": 2007,
      "wit": 2008,
      "https": 2009,
      "but": 2010,
      "ootball": 2011,
      "IC": 2012,
      "ĠAt": 2013,
      "ĠWh": 2014,
      "summary": 2015,
      "acy": 2016,
      "lobal": 2017,
      "usiness": 2018,
      "Ġpower": 2019,
      "psi": 2020,
      "(),": 2021,
      "^*": 2022,
      "no": 2023,
      "Ġstill": 2024,
      "ivity": 2025,
      "Âł": 2026,
      "ched": 2027,
      "Ġdep": 2028,
      "raphics": 2029,
      "Ġcalled": 2030,
      "Ġtarget": 2031,
      "ION": 2032,
      "ĠRe": 2033,
      "ĠMay": 2034,
      "45": 2035,
      "ĠJan": 2036,
      "user": 2037,
      "File": 2038,
      "Ġschool": 2039,
      "ĠFig": 2040,
      "Ġprogram": 2041,
      "const": 2042,
      "\":": 2043,
      "Ġtake": 2044,
      "Ġpost": 2045,
      "ources": 2046,
      "Ġrefer": 2047,
      "ised": 2048,
      "Ġmap": 2049,
      "odes": 2050,
      "Ġseason": 2051,
      "ustom": 2052,
      "Ġproject": 2053,
      "Ġgeneral": 2054,
      "ogle": 2055,
      "ero": 2056,
      "plication": 2057,
      "plit": 2058,
      "Ġplayers": 2059,
      "ately": 2060,
      "Ġlater": 2061,
      "uffer": 2062,
      "sl": 2063,
      "ret": 2064,
      "ators": 2065,
      "ĠAll": 2066,
      "Time": 2067,
      "Ġcal": 2068,
      "LA": 2069,
      "Ġlinks": 2070,
      "PE": 2071,
      "Ġsever": 2072,
      "ths": 2073,
      ")$,": 2074,
      "Ġgood": 2075,
      "2017": 2076,
      "aption": 2077,
      "Ġseries": 2078,
      "Ġprot": 2079,
      "Ġsingle": 2080,
      "Ġwithin": 2081,
      "map": 2082,
      "see": 2083,
      "He": 2084,
      "psilon": 2085,
      "2018": 2086,
      "Gamma": 2087,
      "2016": 2088,
      "Ġbest": 2089,
      "ches": 2090,
      "Ġlife": 2091,
      "mat": 2092,
      "lim": 2093,
      "cription": 2094,
      "hes": 2095,
      "2019": 2096,
      "ĠBl": 2097,
      "With": 2098,
      "ĠSp": 2099,
      "TE": 2100,
      "unc": 2101,
      "eqnarray": 2102,
      "with": 2103,
      "omet": 2104,
      "ailable": 2105,
      "Ġenergy": 2106,
      "ponse": 2107,
      "ĠGr": 2108,
      "2021": 2109,
      "max": 2110,
      "2015": 2111,
      "Ġ?": 2112,
      "model": 2113,
      "Ġmax": 2114,
      "Ġassum": 2115,
      "Ġcontent": 2116,
      "ternational": 2117,
      "aper": 2118,
      "Ġtechn": 2119,
      "``": 2120,
      "rodu": 2121,
      "ĠPl": 2122,
      "Man": 2123,
      "195": 2124,
      "ibr": 2125,
      "Ġocc": 2126,
      "Ġpath": 2127,
      "sqrt": 2128,
      "Ġfamily": 2129,
      "Ġwant": 2130,
      "ium": 2131,
      "Ġtyp": 2132,
      "perties": 2133,
      "des": 2134,
      "Ġfilm": 2135,
      "Ġinteg": 2136,
      "Ġopt": 2137,
      "Qu": 2138,
      "ounty": 2139,
      "Ġlog": 2140,
      "ait": 2141,
      "ended": 2142,
      "Ġexample": 2143,
      "ilar": 2144,
      "External": 2145,
      "Text": 2146,
      "\".": 2147,
      "Ġdue": 2148,
      "overnment": 2149,
      "iod": 2150,
      "Ġrequest": 2151,
      "atures": 2152,
      "aut": 2153,
      "ĠFe": 2154,
      "Ġthrow": 2155,
      "2014": 2156,
      "ances": 2157,
      "Event": 2158,
      "Request": 2159,
      "80": 2160,
      "Ġann": 2161,
      "ped": 2162,
      "Ġabove": 2163,
      "Ġtext": 2164,
      "Ġcorrespond": 2165,
      "ugg": 2166,
      "Ġview": 2167,
      "caption": 2168,
      "Ġsum": 2169,
      "Add": 2170,
      "imal": 2171,
      "aving": 2172,
      "vare": 2173,
      "ploy": 2174,
      "pty": 2175,
      "ĠCan": 2176,
      "iction": 2177,
      "tribute": 2178,
      "ĠTo": 2179,
      "Ġwithout": 2180,
      "rel": 2181,
      "Ġperson": 2182,
      "ĠJohn": 2183,
      "Ġcare": 2184,
      "amespace": 2185,
      "Ġmeasure": 2186,
      "util": 2187,
      "ison": 2188,
      "Ġreport": 2189,
      "Ġplace": 2190,
      "Ġdepend": 2191,
      "Def": 2192,
      "Ġcap": 2193,
      "ession": 2194,
      "Ġdel": 2195,
      "imate": 2196,
      "Ġ-->": 2197,
      "Ġelect": 2198,
      "ĠStates": 2199,
      "ĠCar": 2200,
      "ĠAss": 2201,
      "style": 2202,
      "Ġadv": 2203,
      "35": 2204,
      "Ġbook": 2205,
      "bum": 2206,
      "Ġbeh": 2207,
      "ocus": 2208,
      "AP": 2209,
      "textbf": 2210,
      "Ġorgan": 2211,
      "icle": 2212,
      "urch": 2213,
      "varepsilon": 2214,
      "ĠWorld": 2215,
      "length": 2216,
      "sup": 2217,
      "ĠCent": 2218,
      "subsection": 2219,
      "ĠNational": 2220,
      "ony": 2221,
      "ixed": 2222,
      "Ġnetwork": 2223,
      "ware": 2224,
      "Not": 2225,
      "Ġtot": 2226,
      "ules": 2227,
      "ij": 2228,
      "indow": 2229,
      "ague": 2230,
      "Ġdem": 2231,
      "Ġinitial": 2232,
      "bold": 2233,
      "ored": 2234,
      "Path": 2235,
      "Ġhtt": 2236,
      "Re": 2237,
      "uction": 2238,
      "ĠMan": 2239,
      "Ġalong": 2240,
      "Ġ${\\": 2241,
      "ĠThey": 2242,
      "icon": 2243,
      "State": 2244,
      "Ġversion": 2245,
      "wards": 2246,
      "ajor": 2247,
      "':": 2248,
      "ertain": 2249,
      "comp": 2250,
      "ique": 2251,
      "^{(": 2252,
      "Item": 2253,
      "result": 2254,
      "Or": 2255,
      "Ġlaw": 2256,
      "Ġnear": 2257,
      "ysis": 2258,
      "}^{\\": 2259,
      "2013": 2260,
      "Ġblock": 2261,
      "node": 2262,
      "Node": 2263,
      "Param": 2264,
      "Ġsol": 2265,
      ",âĢĿ": 2266,
      "rist": 2267,
      "/*": 2268,
      "Element": 2269,
      "ponent": 2270,
      "Ġchang": 2271,
      "gorith": 2272,
      "Ġcour": 2273,
      "},\\": 2274,
      "ux": 2275,
      "Ġsat": 2276,
      "oper": 2277,
      "Index": 2278,
      "Ġet": 2279,
      "}=": 2280,
      "ĠHowever": 2281,
      "uk": 2282,
      "Ġuser": 2283,
      "posed": 2284,
      "config": 2285,
      "Ġallow": 2286,
      "atter": 2287,
      "nder": 2288,
      "ĠNov": 2289,
      "ynam": 2290,
      "bm": 2291,
      "ecut": 2292,
      "ensure": 2293,
      "enu": 2294,
      "uf": 2295,
      "olean": 2296,
      "Ġ);": 2297,
      "Ġday": 2298,
      "eff": 2299,
      ")=": 2300,
      "Ġsk": 2301,
      "Ġdon": 2302,
      "from": 2303,
      "anguage": 2304,
      "/**": 2305,
      "Ġbas": 2306,
      "Over": 2307,
      "99": 2308,
      "All": 2309,
      "Ġestabl": 2310,
      "Ġstudy": 2311,
      "Ġassert": 2312,
      "uly": 2313,
      "egraphics": 2314,
      "includegraphics": 2315,
      "ways": 2316,
      "Ġstyle": 2317,
      "true": 2318,
      "Map": 2319,
      "())": 2320,
      "Ġsuccess": 2321,
      "TR": 2322,
      "01": 2323,
      "amed": 2324,
      "Ġcheck": 2325,
      "illion": 2326,
      "aint": 2327,
      "emph": 2328,
      "non": 2329,
      "''": 2330,
      "Form": 2331,
      "Ġcomput": 2332,
      "AS": 2333,
      "rangle": 2334,
      "Ġarray": 2335,
      "Ġcharacter": 2336,
      "Info": 2337,
      "Ġinterest": 2338,
      "ideo": 2339,
      "ĠRep": 2340,
      "Equ": 2341,
      "Ġden": 2342,
      "Des": 2343,
      "2010": 2344,
      "body": 2345,
      "Ġparticular": 2346,
      "symbol": 2347,
      "Ġuntil": 2348,
      "2012": 2349,
      "Ġanother": 2350,
      "aim": 2351,
      "Vert": 2352,
      "ĠTe": 2353,
      "Ġold": 2354,
      "Ġseveral": 2355,
      "aterial": 2356,
      "194": 2357,
      "point": 2358,
      "UR": 2359,
      "ateg": 2360,
      "Ġredu": 2361,
      "Ġoriginal": 2362,
      "Ġiss": 2363,
      "Ġassoci": 2364,
      "ĠBe": 2365,
      "ocial": 2366,
      "Ġclos": 2367,
      "inition": 2368,
      "stance": 2369,
      "Ġweek": 2370,
      "Ġarea": 2371,
      "Ġinvest": 2372,
      "ĠĠĠĠĠĠĠĠĠĠĠĠĠĠĠĠĠĠĠĠĠĠĠĠĠĠĠ": 2373,
      "Ġdefined": 2374,
      "Context": 2375,
      "Ġprevious": 2376,
      "my": 2377,
      "icy": 2378,
      "ride": 2379,
      "viron": 2380,
      "Ġrecord": 2381,
      "Ġexist": 2382,
      "Ġdom": 2383,
      "ĠUS": 2384,
      "2011": 2385,
      "ouble": 2386,
      "title": 2387,
      "ĠYork": 2388,
      "Ġstat": 2389,
      "plement": 2390,
      "block": 2391,
      "ables": 2392,
      "Ġcur": 2393,
      "Ġproduct": 2394,
      "ients": 2395,
      "Ġconstr": 2396,
      "Ġinput": 2397,
      "urity": 2398,
      "version": 2399,
      "ling": 2400,
      "ĠBut": 2401,
      "gt": 2402,
      "Ġwin": 2403,
      "down": 2404,
      "iam": 2405,
      "www": 2406,
      "aus": 2407,
      "Ġins": 2408,
      "varphi": 2409,
      "Ġ\\,": 2410,
      "Ġexpress": 2411,
      "ĠGe": 2412,
      "90": 2413,
      "ĠEn": 2414,
      "IS": 2415,
      "Ġlarg": 2416,
      "ĠGu": 2417,
      "Ġspe": 2418,
      "ung": 2419,
      "sw": 2420,
      "proof": 2421,
      "ĠPol": 2422,
      "75": 2423,
      "Ġpoints": 2424,
      "Ġlow": 2425,
      "void": 2426,
      "ottom": 2427,
      "';": 2428,
      "Ġfull": 2429,
      "input": 2430,
      "lt": 2431,
      "TH": 2432,
      "Ġmusic": 2433,
      "ians": 2434,
      "Ġ(!": 2435,
      "rightarrow": 2436,
      "AD": 2437,
      "Field": 2438,
      "ands": 2439,
      "34": 2440,
      "cor": 2441,
      "Ġprob": 2442,
      "Ġke": 2443,
      "iment": 2444,
      "Ġcell": 2445,
      "Ġtry": 2446,
      "Config": 2447,
      "mm": 2448,
      "Ġchange": 2449,
      "arr": 2450,
      "ĠSchool": 2451,
      "bit": 2452,
      "lin": 2453,
      "earch": 2454,
      "ru": 2455,
      "state": 2456,
      "rep": 2457,
      "Ġtotal": 2458,
      "Ġcode": 2459,
      "####": 2460,
      "oin": 2461,
      "Ġbase": 2462,
      "Ġinclude": 2463,
      "pose": 2464,
      "Ġproblem": 2465,
      "imum": 2466,
      "Ġdeterm": 2467,
      "Service": 2468,
      "word": 2469,
      "Ġsimilar": 2470,
      ".~\\": 2471,
      "Ġcreate": 2472,
      "next": 2473,
      "Ġla": 2474,
      "ĠOct": 2475,
      "Is": 2476,
      "Ġshort": 2477,
      "tra": 2478,
      "uman": 2479,
      "leg": 2480,
      "Ġhold": 2481,
      "Ġenc": 2482,
      "icial": 2483,
      "Ġhome": 2484,
      "ither": 2485,
      "api": 2486,
      "Ġshown": 2487,
      "Ġcho": 2488,
      "ags": 2489,
      "Ġ});": 2490,
      "ĠBy": 2491,
      "ensity": 2492,
      "Ġdefault": 2493,
      "Array": 2494,
      "error": 2495,
      "object": 2496,
      "Ġpot": 2497,
      "istic": 2498,
      "geq": 2499,
      "prov": 2500,
      "iev": 2501,
      "ights": 2502,
      "ĠJanuary": 2503,
      "andom": 2504,
      "ides": 2505,
      "ament": 2506,
      "Ġleg": 2507,
      "Ġavailable": 2508,
      "ĠAug": 2509,
      "Ġcontinu": 2510,
      "cer": 2511,
      "Ġsource": 2512,
      "ĠWar": 2513,
      "âĢĶ": 2514,
      "Ġposition": 2515,
      "Ġpolit": 2516,
      "ump": 2517,
      "Ġbu": 2518,
      "31": 2519,
      "Ġnode": 2520,
      "ĠMin": 2521,
      "nection": 2522,
      "FF": 2523,
      "ĠSystem": 2524,
      "Ġaff": 2525,
      "Result": 2526,
      "ender": 2527,
      "Ġfootball": 2528,
      "ume": 2529,
      "36": 2530,
      "Ġspect": 2531,
      "Ġsection": 2532,
      "Ġmodels": 2533,
      "ustral": 2534,
      "Ġeng": 2535,
      "ĠCounty": 2536,
      "Ġcrit": 2537,
      "Ġturn": 2538,
      "LO": 2539,
      "39": 2540,
      "ection": 2541,
      "ĠSouth": 2542,
      "ica": 2543,
      "Ġcompon": 2544,
      "If": 2545,
      "aff": 2546,
      "ards": 2547,
      "apache": 2548,
      "Ġquant": 2549,
      "ention": 2550,
      "Ġalbum": 2551,
      "\"\"": 2552,
      "Ġaction": 2553,
      "ĠCo": 2554,
      "reen": 2555,
      "&\\": 2556,
      "Ġ},": 2557,
      "erefore": 2558,
      "////////": 2559,
      "Ġthink": 2560,
      "overline": 2561,
      "Fil": 2562,
      "Ġpossible": 2563,
      "cul": 2564,
      "ED": 2565,
      "ptember": 2566,
      "ependent": 2567,
      "Ġservice": 2568,
      "hold": 2569,
      "Trans": 2570,
      "Ġpred": 2571,
      "Ġaccess": 2572,
      "mber": 2573,
      "Ġrange": 2574,
      "Ġfew": 2575,
      "ilt": 2576,
      "Big": 2577,
      "Ġsay": 2578,
      "Ġcontrol": 2579,
      "Ġmean": 2580,
      "cast": 2581,
      "semb": 2582,
      "Ġdeta": 2583,
      "Ġsong": 2584,
      "ĠNo": 2585,
      "ready": 2586,
      "='": 2587,
      "Ġeas": 2588,
      "md": 2589,
      "Ġrequire": 2590,
      "ĠâĢĺ": 2591,
      "Ġbreak": 2592,
      "Ġcontext": 2593,
      "rec": 2594,
      "Build": 2595,
      "aced": 2596,
      "Ġgrow": 2597,
      "Ġes": 2598,
      "stit": 2599,
      "MP": 2600,
      "08": 2601,
      "=\"../../../../": 2602,
      "eturn": 2603,
      "Ġshows": 2604,
      "New": 2605,
      "ĠMed": 2606,
      "Of": 2607,
      "ĠCal": 2608,
      "annel": 2609,
      "05": 2610,
      "erman": 2611,
      ".}": 2612,
      "Ġsit": 2613,
      "Comm": 2614,
      "stand": 2615,
      "ĠReg": 2616,
      "Ġsrc": 2617,
      "Ġimportant": 2618,
      "Ġcomb": 2619,
      "ML": 2620,
      "ync": 2621,
      "Ġfail": 2622,
      "ĠMarch": 2623,
      "abled": 2624,
      "oman": 2625,
      "Ġder": 2626,
      "Ġfollows": 2627,
      "ae": 2628,
      "Ġfree": 2629,
      "ĠState": 2630,
      "[]": 2631,
      "Ġdeath": 2632,
      "Ġ($": 2633,
      "Let": 2634,
      "37": 2635,
      "Ġstrong": 2636,
      "plate": 2637,
      "Ġside": 2638,
      "Ġdiscuss": 2639,
      "vec": 2640,
      "Ġconfig": 2641,
      "Ġcomplet": 2642,
      "alf": 2643,
      "bt": 2644,
      "IG": 2645,
      "pril": 2646,
      "frak": 2647,
      "Ġindex": 2648,
      "Ġconf": 2649,
      "Ġcompany": 2650,
      "Size": 2651,
      "++": 2652,
      "Ġ/*": 2653,
      "Ġbusiness": 2654,
      "ories": 2655,
      "ING": 2656,
      "[\\": 2657,
      "Ġbir": 2658,
      "ui": 2659,
      "uture": 2660,
      "iple": 2661,
      "orph": 2662,
      "base": 2663,
      "Ġterms": 2664,
      "38": 2665,
      "ĠPar": 2666,
      "urope": 2667,
      "}).": 2668,
      "Ġresearch": 2669,
      "Dis": 2670,
      "ales": 2671,
      "Ġtimes": 2672,
      "Ġless": 2673,
      ";&": 2674,
      "lang": 2675,
      "ze": 2676,
      "pen": 2677,
      "default": 2678,
      "2009": 2679,
      "Ġrest": 2680,
      "create": 2681,
      "Ġ:=": 2682,
      "ĠThere": 2683,
      "Ġgreat": 2684,
      "Ġpo": 2685,
      "isf": 2686,
      "wid": 2687,
      "Ġbecame": 2688,
      "Ġvol": 2689,
      "idual": 2690,
      "ĠBrit": 2691,
      "Ġq": 2692,
      "ĠSup": 2693,
      "amples": 2694,
      "Ġperiod": 2695,
      "Ġearly": 2696,
      "Message": 2697,
      "boldsymbol": 2698,
      "pd": 2699,
      "âĢ¦": 2700,
      "Ġcorre": 2701,
      "cember": 2702,
      "Pl": 2703,
      "Ġdat": 2704,
      "content": 2705,
      "clus": 2706,
      "arning": 2707,
      "****************": 2708,
      ">&": 2709,
      "Ġmatch": 2710,
      "AB": 2711,
      "vironment": 2712,
      "ems": 2713,
      "From": 2714,
      "2008": 2715,
      "Ġstructure": 2716,
      "Ġinstance": 2717,
      "Hand": 2718,
      "loat": 2719,
      "Ġprom": 2720,
      "ĠEd": 2721,
      "urg": 2722,
      "sequ": 2723,
      "Code": 2724,
      "CH": 2725,
      "ĠDr": 2726,
      "ering": 2727,
      "Ġparameters": 2728,
      "Ġimage": 2729,
      "ĠSec": 2730,
      "ken": 2731,
      "Ġintrodu": 2732,
      "Loc": 2733,
      "ĠSeptember": 2734,
      ")^": 2735,
      "Ġjava": 2736,
      "Ġdiv": 2737,
      "Ġprof": 2738,
      "lege": 2739,
      "now": 2740,
      "pecial": 2741,
      "Ġsignific": 2742,
      "ĠAb": 2743,
      "ude": 2744,
      "Ġpubl": 2745,
      "ĠOb": 2746,
      "Ġmembers": 2747,
      "ĠFl": 2748,
      "Ġide": 2749,
      "ĠCity": 2750,
      "Ġsm": 2751,
      "Ġaddress": 2752,
      "Ġmajor": 2753,
      "ES": 2754,
      "lete": 2755,
      "mathfrak": 2756,
      "ĠAugust": 2757,
      "inary": 2758,
      "ĠCO": 2759,
      "igned": 2760,
      "66": 2761,
      "eral": 2762,
      "Rec": 2763,
      "java": 2764,
      "Ġphot": 2765,
      "ising": 2766,
      "css": 2767,
      "tings": 2768,
      "roller": 2769,
      "Model": 2770,
      "Ġdeg": 2771,
      "dev": 2772,
      "gress": 2773,
      "And": 2774,
      "ĠOctober": 2775,
      "Ġcolor": 2776,
      "call": 2777,
      "ĠJune": 2778,
      "Ġproperty": 2779,
      "uments": 2780,
      "aged": 2781,
      "raft": 2782,
      "onse": 2783,
      "ending": 2784,
      "ours": 2785,
      "Pr": 2786,
      "istor": 2787,
      "info": 2788,
      "nect": 2789,
      "ibility": 2790,
      "ks": 2791,
      "ought": 2792,
      "oud": 2793,
      "}}$": 2794,
      "Ġwon": 2795,
      "gorithm": 2796,
      "Val": 2797,
      "Ġsuper": 2798,
      "icient": 2799,
      "UT": 2800,
      "abla": 2801,
      "hline": 2802,
      "Ġsequ": 2803,
      "Ġpotential": 2804,
      "lish": 2805,
      "Color": 2806,
      "mult": 2807,
      "dom": 2808,
      "Ġresponse": 2809,
      "imation": 2810,
      "ldots": 2811,
      "cap": 2812,
      "refer": 2813,
      "ĠJuly": 2814,
      "ino": 2815,
      "Ġlength": 2816,
      "55": 2817,
      "agement": 2818,
      "verage": 2819,
      "si": 2820,
      "ada": 2821,
      "ET": 2822,
      "Ġdistribution": 2823,
      "Ġrole": 2824,
      "ones": 2825,
      "nabla": 2826,
      "start": 2827,
      "ĠApril": 2828,
      "ĠGet": 2829,
      "ilit": 2830,
      "Fr": 2831,
      "Lambda": 2832,
      "II": 2833,
      "ably": 2834,
      "Ġbackground": 2835,
      "ĠAustral": 2836,
      "etic": 2837,
      "langle": 2838,
      "option": 2839,
      "assert": 2840,
      "Ad": 2841,
      "ges": 2842,
      "Out": 2843,
      "ves": 2844,
      "opt": 2845,
      "Ġwomen": 2846,
      "Ġgovernment": 2847,
      "namespace": 2848,
      "ĠPart": 2849,
      "tes": 2850,
      "ĠNorth": 2851,
      "Ġmar": 2852,
      "ĠRec": 2853,
      "Ġregion": 2854,
      "Ġformer": 2855,
      "Ġstates": 2856,
      "Ġcover": 2857,
      "ĠSer": 2858,
      "ana": 2859,
      "irt": 2860,
      "lient": 2861,
      "ĠWill": 2862,
      "Ġquest": 2863,
      "Ġindic": 2864,
      "Ġfore": 2865,
      "ĠNovember": 2866,
      "Ġfurther": 2867,
      "lev": 2868,
      "Ġleast": 2869,
      "Ġindu": 2870,
      "conom": 2871,
      "ĠEurope": 2872,
      "ĠThen": 2873,
      "Ġperformance": 2874,
      "70": 2875,
      "Ġlimit": 2876,
      "ĠDecember": 2877,
      "ittle": 2878,
      "icro": 2879,
      "48": 2880,
      "Ġcity": 2881,
      "Ġ===": 2882,
      "Ġbetter": 2883,
      "ently": 2884,
      "DO": 2885,
      "uation": 2886,
      "epar": 2887,
      "Ġimp": 2888,
      "Log": 2889,
      "MA": 2890,
      "appa": 2891,
      "tainer": 2892,
      "yd": 2893,
      "context": 2894,
      "Ġspecial": 2895,
      "sf": 2896,
      "Ġtoo": 2897,
      "User": 2898,
      "ymmet": 2899,
      "anel": 2900,
      "rior": 2901,
      "Ser": 2902,
      "Ġrecent": 2903,
      "Ġcompet": 2904,
      "imens": 2905,
      "iff": 2906,
      "ological": 2907,
      "ĠAp": 2908,
      "Ġsy": 2909,
      "Ġgl": 2910,
      "ĉĉĉĉĉĉ": 2911,
      "Ġcoll": 2912,
      "US": 2913,
      "ried": 2914,
      "2007": 2915,
      "Ġalready": 2916,
      "TD": 2917,
      "cond": 2918,
      "Table": 2919,
      "Ġparameter": 2920,
      "UN": 2921,
      "CC": 2922,
      "thers": 2923,
      "Ġland": 2924,
      ")(": 2925,
      "Manager": 2926,
      "vers": 2927,
      "Ġprovide": 2928,
      "Ġphys": 2929,
      "Ġlight": 2930,
      "ampions": 2931,
      ".\\": 2932,
      "ham": 2933,
      "ĠMe": 2934,
      "ĠSo": 2935,
      "check": 2936,
      "Ġrequired": 2937,
      "Ġsatisf": 2938,
      "Ġhealth": 2939,
      "wide": 2940,
      "Ġput": 2941,
      "ii": 2942,
      "package": 2943,
      "Ġdocument": 2944,
      "circ": 2945,
      "Ġcomplex": 2946,
      "though": 2947,
      "Ġoptions": 2948,
      "Ġanalysis": 2949,
      "draw": 2950,
      "IP": 2951,
      "IR": 2952,
      "Inter": 2953,
      "eed": 2954,
      "Ġwhe": 2955,
      "Ġaccount": 2956,
      "Ġdescribed": 2957,
      "ĠChrist": 2958,
      "Ġvert": 2959,
      "false": 2960,
      "ĠWith": 2961,
      "ĠThese": 2962,
      "ithub": 2963,
      "--------------------------------": 2964,
      "cle": 2965,
      "undle": 2966,
      "=\"../": 2967,
      "ĠMc": 2968,
      "ĠĠĠĠĠĠĠĠĠĠ": 2969,
      "2006": 2970,
      "Ġfunctions": 2971,
      "But": 2972,
      "Ġsignificant": 2973,
      "Ġrepl": 2974,
      "Ġtrack": 2975,
      "Ġlay": 2976,
      "Ġmom": 2977,
      "Ġexpected": 2978,
      "Ġhapp": 2979,
      "Ġcou": 2980,
      "Ġwidth": 2981,
      "bruary": 2982,
      "ring": 2983,
      "valid": 2984,
      "asing": 2985,
      "Ġcost": 2986,
      "book": 2987,
      "=\"#": 2988,
      "citep": 2989,
      "2000": 2990,
      "Ġtable": 2991,
      "aken": 2992,
      "Ġep": 2993,
      "ĠÐ": 2994,
      "ĉĊ": 2995,
      "Ġreleased": 2996,
      ";</": 2997,
      "ĠĠĠĠĠĠĠĠĠĠĠĠ": 2998,
      "Ġmagn": 2999,
      "foot": 3000,
      "abor": 3001,
      "Ġchildren": 3002,
      "ips": 3003,
      "acc": 3004,
      "Ġ()": 3005,
      "ĠList": 3006,
      "Ġant": 3007,
      "Ġalways": 3008,
      "ĠBo": 3009,
      "using": 3010,
      "yl": 3011,
      "Ġrate": 3012,
      "})$": 3013,
      "thern": 3014,
      "anch": 3015,
      "subset": 3016,
      "}),": 3017,
      "android": 3018,
      "ered": 3019,
      "Ġauthor": 3020,
      "ĠCor": 3021,
      "rew": 3022,
      "core": 3023,
      "cell": 3024,
      "OT": 3025,
      "print": 3026,
      "ĠLet": 3027,
      "Property": 3028,
      "ĠIm": 3029,
      "Ġsom": 3030,
      "~~": 3031,
      "Ġfeature": 3032,
      "Ġplayed": 3033,
      "Phi": 3034,
      "Ġwater": 3035,
      "\\|": 3036,
      "doc": 3037,
      "urb": 3038,
      "Ġhistory": 3039,
      "ops": 3040,
      "creen": 3041,
      "|-": 3042,
      "Ġlabel": 3043,
      "olved": 3044,
      "reate": 3045,
      "<!--": 3046,
      "mit": 3047,
      "Ġfac": 3048,
      "](": 3049,
      "Ġeither": 3050,
      "Ġevents": 3051,
      "Ġmot": 3052,
      "Ġpaper": 3053,
      "Ġ``": 3054,
      "Ġapprox": 3055,
      "Ġsolution": 3056,
      "Ġ};": 3057,
      "ĠQu": 3058,
      "De": 3059,
      "Ġmatrix": 3060,
      "kappa": 3061,
      "Ġamong": 3062,
      "Reg": 3063,
      "include": 3064,
      "ster": 3065,
      "Ġlower": 3066,
      "44": 3067,
      "db": 3068,
      "ifier": 3069,
      "Ġgoing": 3070,
      "Ġcommon": 3071,
      "era": 3072,
      "bug": 3073,
      "eneral": 3074,
      "idence": 3075,
      "Ġgraph": 3076,
      "System": 3077,
      "ography": 3078,
      "Ġcontribut": 3079,
      "ĠAfter": 3080,
      "Group": 3081,
      "github": 3082,
      "prot": 3083,
      "aves": 3084,
      "Ġmight": 3085,
      "argin": 3086,
      "mark": 3087,
      "alt": 3088,
      "dl": 3089,
      "Ġabs": 3090,
      "na": 3091,
      "Ġ__": 3092,
      "Ġfocus": 3093,
      "Ġred": 3094,
      "Ġacross": 3095,
      "method": 3096,
      "Ġdiff": 3097,
      "Ã¡": 3098,
      "Ġsystems": 3099,
      "Ġret": 3100,
      "ĠWhen": 3101,
      "Ġoutput": 3102,
      "Ġapproach": 3103,
      "Wh": 3104,
      "Ġparent": 3105,
      "Ġandroid": 3106,
      "artment": 3107,
      "Ġthird": 3108,
      "Ġoften": 3109,
      "oph": 3110,
      "cy": 3111,
      "build": 3112,
      "Ġmessage": 3113,
      "Ġhard": 3114,
      "Ð°": 3115,
      "atform": 3116,
      "otimes": 3117,
      "Ġindiv": 3118,
      "Ġfund": 3119,
      "kn": 3120,
      "Ġgames": 3121,
      "Ġobtained": 3122,
      "ategory": 3123,
      "Ġfeatures": 3124,
      "Ġpract": 3125,
      "ĠEl": 3126,
      "uggest": 3127,
      "Ġband": 3128,
      "adem": 3129,
      "Ġfive": 3130,
      "aps": 3131,
      "icense": 3132,
      "most": 3133,
      "web": 3134,
      "aring": 3135,
      "Bar": 3136,
      "================": 3137,
      "Mod": 3138,
      "ENT": 3139,
      "Ġcases": 3140,
      "ULL": 3141,
      "static": 3142,
      "Ġmeans": 3143,
      "ached": 3144,
      "Ġnever": 3145,
      "Call": 3146,
      "iven": 3147,
      "Ġsuff": 3148,
      "Ġtask": 3149,
      "ĠAg": 3150,
      "Ġhost": 3151,
      "Ġbelow": 3152,
      "Ġcount": 3153,
      "Ġconstant": 3154,
      "Ġrelations": 3155,
      "image": 3156,
      "Up": 3157,
      "ration": 3158,
      "adio": 3159,
      "Ġhigher": 3160,
      "Ġmember": 3161,
      "ĠMon": 3162,
      "ework": 3163,
      "small": 3164,
      "aul": 3165,
      "do": 3166,
      "Ġborder": 3167,
      "idge": 3168,
      "Ġpair": 3169,
      "textit": 3170,
      "ĠDis": 3171,
      "NA": 3172,
      "umb": 3173,
      "ĠFebruary": 3174,
      "ogn": 3175,
      "07": 3176,
      "ided": 3177,
      "Ġtook": 3178,
      "apan": 3179,
      "parent": 3180,
      "Sigma": 3181,
      "04": 3182,
      "igation": 3183,
      "ĠSet": 3184,
      "Ġvia": 3185,
      "Ġpay": 3186,
      "light": 3187,
      "Ġtoget": 3188,
      "ls": 3189,
      "Ġbecome": 3190,
      "cho": 3191,
      "Ġbig": 3192,
      "Read": 3193,
      "Ġtogether": 3194,
      "eh": 3195,
      "Client": 3196,
      "hand": 3197,
      "based": 3198,
      "SP": 3199,
      "Ġmethods": 3200,
      "Ġport": 3201,
      "Ġsepar": 3202,
      "ensuremath": 3203,
      "Ġconditions": 3204,
      "current": 3205,
      "06": 3206,
      "lying": 3207,
      "ĠOne": 3208,
      "define": 3209,
      "Sub": 3210,
      "Ġlik": 3211,
      "ĠWest": 3212,
      "google": 3213,
      "Ġsite": 3214,
      ",\"": 3215,
      "run": 3216,
      "Ġvalid": 3217,
      "Ġcommunity": 3218,
      "Ġassociated": 3219,
      "Ġcross": 3220,
      "reet": 3221,
      "exp": 3222,
      "Ġair": 3223,
      "Ġprim": 3224,
      "ĠKing": 3225,
      "Ġfar": 3226,
      "){": 3227,
      "null": 3228,
      "ns": 3229,
      "See": 3230,
      "rest": 3231,
      "Ġplan": 3232,
      "gen": 3233,
      "Ġseen": 3234,
      "2005": 3235,
      "avel": 3236,
      "\\%": 3237,
      ")</": 3238,
      "Ġcirc": 3239,
      "reed": 3240,
      "ĠDes": 3241,
      "height": 3242,
      "oken": 3243,
      "Ġindividual": 3244,
      "EE": 3245,
      "Method": 3246,
      "95": 3247,
      "Ġche": 3248,
      "net": 3249,
      "Ġbi": 3250,
      "/\\": 3251,
      "02": 3252,
      "Ġtre": 3253,
      "atural": 3254,
      "Ġnormal": 3255,
      "Ġtheory": 3256,
      "Ġpage": 3257,
      "Fig": 3258,
      "ĠBar": 3259,
      "ecess": 3260,
      "Ġreceived": 3261,
      "ibrary": 3262,
      "Ġdensity": 3263,
      "Ap": 3264,
      "wise": 3265,
      "Ġarr": 3266,
      "Ġbody": 3267,
      "Ġgive": 3268,
      "Arg": 3269,
      "ĠCont": 3270,
      "iol": 3271,
      "Ġvarious": 3272,
      "No": 3273,
      "Ġstd": 3274,
      "Ġsix": 3275,
      "Query": 3276,
      "Ġneg": 3277,
      "actory": 3278,
      "((": 3279,
      "Ġhouse": 3280,
      "Ġhaving": 3281,
      "Ġcountry": 3282,
      "ured": 3283,
      "Ġtraining": 3284,
      "Ġdevelopment": 3285,
      "Ġstandard": 3286,
      "Ġdays": 3287,
      "ĠAfr": 3288,
      "xy": 3289,
      "ĠRuss": 3290,
      "event": 3291,
      "Ġreview": 3292,
      "hib": 3293,
      "Ġcondition": 3294,
      "ĠSch": 3295,
      "Ġsocial": 3296,
      "Ġable": 3297,
      "ĠAct": 3298,
      "Ġnil": 3299,
      "\\[": 3300,
      "ĠOff": 3301,
      "Ġclaim": 3302,
      "thing": 3303,
      "mail": 3304,
      "born": 3305,
      "Ġeduc": 3306,
      "Ġproperties": 3307,
      "ĠRev": 3308,
      "plied": 3309,
      "IL": 3310,
      "Override": 3311,
      "Ġage": 3312,
      "itted": 3313,
      "65": 3314,
      "uster": 3315,
      "Ġcalcul": 3316,
      "Ġcamp": 3317,
      ">(": 3318,
      "oke": 3319,
      "mbox": 3320,
      "Ġstory": 3321,
      "ference": 3322,
      "Image": 3323,
      "Ġaverage": 3324,
      "ournal": 3325,
      "Builder": 3326,
      "Ġconsidered": 3327,
      "Ð¾": 3328,
      "0000": 3329,
      "CE": 3330,
      "MS": 3331,
      "Date": 3332,
      "Count": 3333,
      "Ġgrad": 3334,
      "que": 3335,
      "Ġge": 3336,
      "aly": 3337,
      "Ġscal": 3338,
      "ĠHigh": 3339,
      "flu": 3340,
      "ged": 3341,
      "Ġimplement": 3342,
      "init": 3343,
      "Ġannoun": 3344,
      "ĠBritish": 3345,
      "Fl": 3346,
      "medi": 3347,
      "finished": 3348,
      "ĠLeague": 3349,
      "OS": 3350,
      "nonumber": 3351,
      "Ġelements": 3352,
      "Ġsche": 3353,
      "Ġaddition": 3354,
      "ĠPer": 3355,
      "Ġarch": 3356,
      "09": 3357,
      "Ġcustom": 3358,
      "dir": 3359,
      "ille": 3360,
      "Response": 3361,
      "ries": 3362,
      "End": 3363,
      "Ġcorresponding": 3364,
      "ief": 3365,
      "Ġincluded": 3366,
      "Ġclose": 3367,
      "ĠĠĠĠĠĠĠĠĠĠĠĠĠĠĠĠĠĠĠĠĠĠĠĠĠĠĠĠĠĠĠ": 3368,
      "Ġcome": 3369,
      "ply": 3370,
      "}}{": 3371,
      "Ġbool": 3372,
      "Ġcareer": 3373,
      "ilities": 3374,
      "tem": 3375,
      "mar": 3376,
      "Ġnum": 3377,
      "Ġsays": 3378,
      "Ġrespectively": 3379,
      "ĠHis": 3380,
      "ĠComp": 3381,
      "bra": 3382,
      "dots": 3383,
      "Ġglobal": 3384,
      "sing": 3385,
      "chiev": 3386,
      "ements": 3387,
      "Ġreally": 3388,
      "onal": 3389,
      "Ġmillion": 3390,
      "Ġfri": 3391,
      "Ġhom": 3392,
      "Ġoffer": 3393,
      "Ġcy": 3394,
      "bor": 3395,
      "ught": 3396,
      "ĠInt": 3397,
      "query": 3398,
      "Ġpopulation": 3399,
      "Ġfrequ": 3400,
      "ĠPres": 3401,
      "empt": 3402,
      "ĠCoun": 3403,
      "Ġtrad": 3404,
      "Ġrandom": 3405,
      "Ġfuture": 3406,
      "Ed": 3407,
      "Ġalign": 3408,
      "irection": 3409,
      "active": 3410,
      "Ġcreated": 3411,
      "Ġconstruct": 3412,
      "Ġprovided": 3413,
      "witch": 3414,
      "ĠGo": 3415,
      "aging": 3416,
      "Ġattack": 3417,
      "ordin": 3418,
      "Ġmaking": 3419,
      "cil": 3420,
      "Ġsuggest": 3421,
      "Ġemploy": 3422,
      "NS": 3423,
      "Ġconsist": 3424,
      "Ġmarket": 3425,
      "Ġstep": 3426,
      "Sc": 3427,
      "Ġheld": 3428,
      "Ġhuman": 3429,
      "ids": 3430,
      "Ġblack": 3431,
      "ĠPark": 3432,
      "lib": 3433,
      "Ass": 3434,
      "widet": 3435,
      "ington": 3436,
      "jav": 3437,
      "ese": 3438,
      "Ġvideo": 3439,
      "ulture": 3440,
      "Stream": 3441,
      "dec": 3442,
      "prop": 3443,
      "ampionship": 3444,
      "rench": 3445,
      "ĠNot": 3446,
      "irm": 3447,
      "Ġtemper": 3448,
      "ĠArt": 3449,
      "php": 3450,
      "Ġkeep": 3451,
      "Ġcolumn": 3452,
      "Str": 3453,
      "])": 3454,
      "request": 3455,
      "chan": 3456,
      "Ġconc": 3457,
      "ires": 3458,
      "Ġnamed": 3459,
      "à¤": 3460,
      "Ġsent": 3461,
      "ĠDav": 3462,
      "Ġcompos": 3463,
      "ners": 3464,
      "Ġestim": 3465,
      "Ġloss": 3466,
      "2004": 3467,
      "Ġhowever": 3468,
      "ething": 3469,
      "iddle": 3470,
      "verse": 3471,
      "Ġtown": 3472,
      "page": 3473,
      "Ġgen": 3474,
      "How": 3475,
      "Ġnational": 3476,
      "Ðµ": 3477,
      "oop": 3478,
      "Ġpositive": 3479,
      "ĠAdd": 3480,
      "pol": 3481,
      "display": 3482,
      "Ġsem": 3483,
      "mon": 3484,
      "{-": 3485,
      "ula": 3486,
      "Ġbuilding": 3487,
      "PI": 3488,
      "utes": 3489,
      "Ġphase": 3490,
      "2023": 3491,
      "Ġequation": 3492,
      "Ġdone": 3493,
      "Act": 3494,
      "ĠMore": 3495,
      "Ġang": 3496,
      "Ġgroups": 3497,
      "tx": 3498,
      "ping": 3499,
      "unfinished": 3500,
      "03": 3501,
      "izing": 3502,
      "Ġyoung": 3503,
      "Ġproof": 3504,
      "widetilde": 3505,
      "bb": 3506,
      "osp": 3507,
      "ĠChar": 3508,
      "Ġwritten": 3509,
      "Ġben": 3510,
      "ills": 3511,
      "oon": 3512,
      "yles": 3513,
      "acing": 3514,
      "Ġworks": 3515,
      "ocol": 3516,
      "Ġwhether": 3517,
      "ename": 3518,
      "ĠEnglish": 3519,
      "options": 3520,
      "Ġpress": 3521,
      "Ġgot": 3522,
      "ĠÂ": 3523,
      "47": 3524,
      "ondon": 3525,
      "Ġhalf": 3526,
      "Ġmer": 3527,
      "ONT": 3528,
      "Ġworking": 3529,
      "Ġplayer": 3530,
      "Ġtw": 3531,
      "Ġbuilt": 3532,
      "illed": 3533,
      "Ġcommand": 3534,
      "Ġlines": 3535,
      "png": 3536,
      "ĠDef": 3537,
      "AG": 3538,
      "level": 3539,
      "ĠDep": 3540,
      "prime": 3541,
      "Sp": 3542,
      "known": 3543,
      "ĠTrans": 3544,
      "Ġspecific": 3545,
      "Ġbegan": 3546,
      "dr": 3547,
      "Rep": 3548,
      "Ġâ": 3549,
      "Ġappear": 3550,
      "iet": 3551,
      "ĠĠĠĠĠĠĠĠĠĠĠĠĠĠĠĠĠ": 3552,
      "Ġdynam": 3553,
      "Ġmedia": 3554,
      "ĠLa": 3555,
      "Ġofficial": 3556,
      "Ġra": 3557,
      "thm": 3558,
      "49": 3559,
      "plies": 3560,
      "button": 3561,
      "eople": 3562,
      "isk": 3563,
      "ĠArm": 3564,
      "ĠHouse": 3565,
      "Ġradi": 3566,
      "HE": 3567,
      "ĠAm": 3568,
      "Ġinstall": 3569,
      "Be": 3570,
      "\\!": 3571,
      "Sec": 3572,
      "FA": 3573,
      "Ġpublished": 3574,
      "Ġrow": 3575,
      "Ġclear": 3576,
      "}-": 3577,
      "Input": 3578,
      "Ġdisplay": 3579,
      "Ġstudents": 3580,
      "ication": 3581,
      "Ġmove": 3582,
      "Ġmen": 3583,
      "ĠII": 3584,
      "Ġ->": 3585,
      "Ġcle": 3586,
      "Ġmaterial": 3587,
      "orage": 3588,
      "ued": 3589,
      "Ġaway": 3590,
      "Ġmiss": 3591,
      "Ġlocated": 3592,
      "Ġfilms": 3593,
      "Ġsurv": 3594,
      "Nav": 3595,
      "Ġsearch": 3596,
      "Ġbegin": 3597,
      "Americ": 3598,
      "Ġpast": 3599,
      "client": 3600,
      "Pos": 3601,
      "Component": 3602,
      "Ġachiev": 3603,
      "Ġemb": 3604,
      "adding": 3605,
      "abase": 3606,
      "ĠBro": 3607,
      "centering": 3608,
      "OP": 3609,
      "Ġservices": 3610,
      "bsite": 3611,
      "ceed": 3612,
      "Ġbehav": 3613,
      "eline": 3614,
      "pc": 3615,
      "emma": 3616,
      "has": 3617,
      "Ġinf": 3618,
      "Ġclub": 3619,
      "under": 3620,
      "ĠThat": 3621,
      "Ġonce": 3622,
      "({": 3623,
      "\\]": 3624,
      "ĠJapan": 3625,
      "Sup": 3626,
      "Ġcertain": 3627,
      "ĠAir": 3628,
      "Ġeval": 3629,
      "Ġestablished": 3630,
      "Ġsimple": 3631,
      "actions": 3632,
      "Ġvector": 3633,
      "Ġlinear": 3634,
      "izer": 3635,
      "Ġear": 3636,
      "Ġmeet": 3637,
      "Lay": 3638,
      "change": 3639,
      "ican": 3640,
      "88": 3641,
      "aries": 3642,
      "ĠMark": 3643,
      "ishing": 3644,
      "args": 3645,
      "Ġindependent": 3646,
      "ford": 3647,
      "Ġlittle": 3648,
      "Ġactiv": 3649,
      "Ġenough": 3650,
      "apping": 3651,
      "Ġmoment": 3652,
      "ocr": 3653,
      "77": 3654,
      "App": 3655,
      "Ġload": 3656,
      "astic": 3657,
      "Ġproduction": 3658,
      "ftware": 3659,
      "ĠHar": 3660,
      "module": 3661,
      "OD": 3662,
      "ensor": 3663,
      "ĠVal": 3664,
      "Status": 3665,
      "Ġregular": 3666,
      "year": 3667,
      "ises": 3668,
      "Ġhttp": 3669,
      "Ġcaus": 3670,
      "rown": 3671,
      "bottom": 3672,
      "sembly": 3673,
      "func": 3674,
      "Block": 3675,
      "ha": 3676,
      "atal": 3677,
      "Ġwrite": 3678,
      "Ġunit": 3679,
      "Line": 3680,
      "ĠStr": 3681,
      "Ġnumer": 3682,
      "vis": 3683,
      "count": 3684,
      "Action": 3685,
      "ĠAng": 3686,
      "olutions": 3687,
      "su": 3688,
      "scale": 3689,
      "ĠClass": 3690,
      "Ġdefine": 3691,
      "ging": 3692,
      "Ġconv": 3693,
      "Ġthus": 3694,
      "ades": 3695,
      ")]": 3696,
      "Ġtaken": 3697,
      "ĠSw": 3698,
      "cos": 3699,
      "ĠSim": 3700,
      "Ġrelated": 3701,
      "element": 3702,
      "ĠĠĠĠĠĠĠĠĊ": 3703,
      "\\{": 3704,
      "Ġstarted": 3705,
      "Ġ<<": 3706,
      "ĠTest": 3707,
      "Ġtreat": 3708,
      "Ġground": 3709,
      "Ġask": 3710,
      "Ġcame": 3711,
      "Ġbecom": 3712,
      "ĠSection": 3713,
      "Ġbirths": 3714,
      "Gr": 3715,
      "century": 3716,
      "ĠDo": 3717,
      "}+": 3718,
      "skip": 3719,
      "sm": 3720,
      "duc": 3721,
      "Ġstation": 3722,
      "Ġround": 3723,
      "Ġthough": 3724,
      "ĠTheorem": 3725,
      "AA": 3726,
      "ites": 3727,
      "pression": 3728,
      "which": 3729,
      "hood": 3730,
      "2003": 3731,
      "Off": 3732,
      "Ġaccording": 3733,
      "append": 3734,
      "zeta": 3735,
      "split": 3736,
      "navbar": 3737,
      "Ġchanges": 3738,
      "46": 3739,
      "Ġwar": 3740,
      "ama": 3741,
      "Ġmulti": 3742,
      "Ġjob": 3743,
      "server": 3744,
      "Ġenvironment": 3745,
      "Ġexists": 3746,
      "Ã³": 3747,
      "ĠCollege": 3748,
      "[\"": 3749,
      "Ġreason": 3750,
      ")=\\": 3751,
      "istics": 3752,
      "Ġexecut": 3753,
      "First": 3754,
      "tabular": 3755,
      "uel": 3756,
      "case": 3757,
      "Ġstar": 3758,
      "Ġcontains": 3759,
      "first": 3760,
      "SC": 3761,
      "main": 3762,
      "ulations": 3763,
      "Dec": 3764,
      "istry": 3765,
      "Ġcontain": 3766,
      "ĠLondon": 3767,
      "Ġadditional": 3768,
      "target": 3769,
      "Ġitem": 3770,
      "inst": 3771,
      "Ġbeliev": 3772,
      "Ġver": 3773,
      "omorph": 3774,
      "Ġscale": 3775,
      "Ġlanguage": 3776,
      "trict": 3777,
      "Ġill": 3778,
      "ĠEq": 3779,
      "oding": 3780,
      "gl": 3781,
      "elete": 3782,
      "Ġmultiple": 3783,
      "Ġalgorithm": 3784,
      "Ġfields": 3785,
      "ĠDev": 3786,
      "Ġinstead": 3787,
      "header": 3788,
      "ĠInternational": 3789,
      "lections": 3790,
      "BC": 3791,
      "ĠStud": 3792,
      "YPE": 3793,
      "estern": 3794,
      "btn": 3795,
      "AM": 3796,
      "Ġadded": 3797,
      "Ġeconom": 3798,
      "ilitary": 3799,
      "ĠHer": 3800,
      "Ġothers": 3801,
      "attle": 3802,
      "2001": 3803,
      "like": 3804,
      "Ġvill": 3805,
      "Ġdest": 3806,
      "Ġspecies": 3807,
      "ĠĠĠĠĠĠĠĠĠĠĠĠĠĠ": 3808,
      "elling": 3809,
      "ĠWilliam": 3810,
      "Ġsurface": 3811,
      "Base": 3812,
      "itect": 3813,
      "Ġsomething": 3814,
      "Head": 3815,
      "open": 3816,
      "oted": 3817,
      "arser": 3818,
      "}=\\": 3819,
      "There": 3820,
      "Ġreported": 3821,
      ".~": 3822,
      "Ð¸": 3823,
      "Ġdouble": 3824,
      "dat": 3825,
      "Resource": 3826,
      "igen": 3827,
      "Ġzero": 3828,
      "ĠMy": 3829,
      "oo": 3830,
      "Ġnecess": 3831,
      "ĠMich": 3832,
      "icles": 3833,
      "American": 3834,
      "Ġunderstand": 3835,
      "ĠHam": 3836,
      "aches": 3837,
      "place": 3838,
      "Part": 3839,
      "ĠNe": 3840,
      "ĠAc": 3841,
      "unk": 3842,
      "ministr": 3843,
      "lease": 3844,
      "icip": 3845,
      "Handler": 3846,
      "avy": 3847,
      "Ġfig": 3848,
      "REF": 3849,
      "ociety": 3850,
      "Ġcannot": 3851,
      "riter": 3852,
      "Comp": 3853,
      "Ġthings": 3854,
      "unch": 3855,
      "Ġengine": 3856,
      "ĠSince": 3857,
      "Ġsaf": 3858,
      "Ġdate": 3859,
      "atory": 3860,
      "85": 3861,
      "irtual": 3862,
      "encies": 3863,
      "unity": 3864,
      "Ġprofess": 3865,
      "alax": 3866,
      ")^{": 3867,
      "Ġ&=": 3868,
      "ĠRed": 3869,
      "Link": 3870,
      "andid": 3871,
      "inn": 3872,
      "Ġmakes": 3873,
      "Ġparticip": 3874,
      "EX": 3875,
      "67": 3876,
      "ara": 3877,
      "Ġrat": 3878,
      "iforn": 3879,
      "Ġimprov": 3880,
      "ugin": 3881,
      "Ġpredict": 3882,
      ")}\\": 3883,
      "oto": 3884,
      "Ġheight": 3885,
      "child": 3886,
      "Ġpur": 3887,
      "Ġexact": 3888,
      "ialog": 3889,
      "adata": 3890,
      "Ġkind": 3891,
      "ĠNULL": 3892,
      "Source": 3893,
      "Ġboolean": 3894,
      "sg": 3895,
      "2002": 3896,
      "Ġsequence": 3897,
      "HT": 3898,
      "strong": 3899,
      "och": 3900,
      "Ġprint": 3901,
      "sin": 3902,
      "can": 3903,
      "Ġoperator": 3904,
      "ĠĠĠĠĠĠĠĠĠĠĠĠĊ": 3905,
      "Ġ\"\"\"": 3906,
      "rum": 3907,
      "Ġfinite": 3908,
      "Ġobserved": 3909,
      "Token": 3910,
      "imensional": 3911,
      "Ġcut": 3912,
      "board": 3913,
      "Buffer": 3914,
      "rowser": 3915,
      "Options": 3916,
      "idden": 3917,
      "Ġsubject": 3918,
      "Ġperm": 3919,
      "ico": 3920,
      "Instance": 3921,
      "property": 3922,
      "rl": 3923,
      "oriz": 3924,
      "Ġsw": 3925,
      "Ġexperience": 3926,
      "ĠIndia": 3927,
      "abs": 3928,
      "Ġcomplete": 3929,
      "}]": 3930,
      "ouch": 3931,
      "ĠSan": 3932,
      "ĠAcc": 3933,
      "Ġcomponent": 3934,
      "Content": 3935,
      "{(": 3936,
      "Ġdistance": 3937,
      "Ġamount": 3938,
      "aker": 3939,
      "anies": 3940,
      "plicit": 3941,
      "ÃŃ": 3942,
      "ociation": 3943,
      "hel": 3944,
      "Ġnov": 3945,
      "istrict": 3946,
      "ifornia": 3947,
      "Ġstop": 3948,
      "iled": 3949,
      "Ġhttps": 3950,
      "img": 3951,
      "ĠPhil": 3952,
      "select": 3953,
      "Ġrelease": 3954,
      "py": 3955,
      "Ġwords": 3956,
      "After": 3957,
      "Ġcontr": 3958,
      "host": 3959,
      "xml": 3960,
      "ĠFirst": 3961,
      "Start": 3962,
      "Ġlearn": 3963,
      "stream": 3964,
      "Ġwent": 3965,
      "irrep": 3966,
      "ota": 3967,
      "Ġfactor": 3968,
      "acity": 3969,
      "LT": 3970,
      "Ġtypes": 3971,
      "post": 3972,
      "Ġproposed": 3973,
      "ĠInter": 3974,
      "Ġ+=": 3975,
      "ariant": 3976,
      "\"]": 3977,
      "Ġfeel": 3978,
      "ĠFrom": 3979,
      "${": 3980,
      "roy": 3981,
      "Ġtransform": 3982,
      "Ġcenter": 3983,
      "Ġlive": 3984,
      "flow": 3985,
      "Gener": 3986,
      "UE": 3987,
      "otes": 3988,
      "Ġapplic": 3989,
      ";\\": 3990,
      "ĠIN": 3991,
      "Run": 3992,
      "la": 3993,
      "ael": 3994,
      "Ġlearning": 3995,
      "ATE": 3996,
      "anced": 3997,
      "ĠAmerica": 3998,
      "izes": 3999,
      "Ġequival": 4000,
      "operator": 4001,
      "more": 4002,
      "Ġstatus": 4003,
      "ĠNews": 4004,
      "atives": 4005,
      "Ġbit": 4006,
      "Ġaud": 4007,
      "long": 4008,
      "Ġlot": 4009,
      "42": 4010,
      "Ġlove": 4011,
      "oms": 4012,
      "nected": 4013,
      "Pol": 4014,
      "ili": 4015,
      "Ġresource": 4016,
      "Ab": 4017,
      "meta": 4018,
      "src": 4019,
      "Ġprior": 4020,
      "Acc": 4021,
      "Ġexperiment": 4022,
      "Ġoption": 4023,
      "heet": 4024,
      "ĠCr": 4025,
      "}^\\": 4026,
      "Ġentire": 4027,
      "Ġaccept": 4028,
      "allet": 4029,
      "Ġbroad": 4030,
      "pdf": 4031,
      "Ġchall": 4032,
      "Null": 4033,
      "$)": 4034,
      "local": 4035,
      "Ġbar": 4036,
      "Ġrather": 4037,
      "Ġprotected": 4038,
      "97": 4039,
      "Ġalmost": 4040,
      "Ġapplication": 4041,
      "find": 4042,
      "char": 4043,
      "Ġcourse": 4044,
      "agram": 4045,
      "quare": 4046,
      "Ġtool": 4047,
      "Command": 4048,
      "ship": 4049,
      "Ġliter": 4050,
      "Ġsample": 4051,
      "You": 4052,
      "ĠFrench": 4053,
      "}_\\": 4054,
      "ĠEm": 4055,
      "Ġeffects": 4056,
      "98": 4057,
      "Ġfixed": 4058,
      "}|": 4059,
      "eger": 4060,
      "private": 4061,
      "Ġanaly": 4062,
      "widehat": 4063,
      "layout": 4064,
      "What": 4065,
      "Ġsymmet": 4066,
      "ining": 4067,
      "Ġlate": 4068,
      "One": 4069,
      "ĠRef": 4070,
      "close": 4071,
      "Ġwhose": 4072,
      "ĠSm": 4073,
      "Ġsound": 4074,
      "SU": 4075,
      "lemma": 4076,
      "Ġrank": 4077,
      "cup": 4078,
      "ulated": 4079,
      "Ġfall": 4080,
      "Ġlarger": 4081,
      "Ġled": 4082,
      "iles": 4083,
      "ney": 4084,
      "LASS": 4085,
      "gener": 4086,
      "iform": 4087,
      "gebra": 4088,
      "cdots": 4089,
      ",-": 4090,
      "IM": 4091,
      "Ġcentury": 4092,
      "json": 4093,
      "96": 4094,
      "ensive": 4095,
      "Default": 4096,
      "ores": 4097,
      "inated": 4098,
      "apter": 4099,
      "Ġattempt": 4100,
      "Cell": 4101,
      "Ġweight": 4102,
      "oved": 4103,
      "Ġunique": 4104,
      "CK": 4105,
      "ĠNor": 4106,
      "Ġ...": 4107,
      "ĠPresident": 4108,
      "ully": 4109,
      "Number": 4110,
      "ĠObject": 4111,
      "Ġupdate": 4112,
      "iers": 4113,
      "Ġprec": 4114,
      "Ġflow": 4115,
      "TO": 4116,
      "Ġinternational": 4117,
      "omb": 4118,
      "ascript": 4119,
      "Ġnatural": 4120,
      "cing": 4121,
      "Function": 4122,
      "Ġrespons": 4123,
      "Bundle": 4124,
      "orge": 4125,
      "Ġserved": 4126,
      "Ġsets": 4127,
      "VER": 4128,
      "textwidth": 4129,
      "otype": 4130,
      "Ġstream": 4131,
      "Equal": 4132,
      "pack": 4133,
      "Ġsuccessful": 4134,
      "bound": 4135,
      "Point": 4136,
      "ĠIndian": 4137,
      "ĠGroup": 4138,
      "Prov": 4139,
      "font": 4140,
      "QL": 4141,
      "Ġimpact": 4142,
      "ĠCalifornia": 4143,
      "Ġdegree": 4144,
      "Ġquestion": 4145,
      "atrix": 4146,
      "write": 4147,
      "Ġborn": 4148,
      "})\\": 4149,
      "Ġfit": 4150,
      "ledge": 4151,
      "When": 4152,
      "][": 4153,
      "Last": 4154,
      "ĠÃ": 4155,
      "itude": 4156,
      "Ġdetails": 4157,
      "status": 4158,
      "tributes": 4159,
      "ario": 4160,
      "Psi": 4161,
      "ĠCup": 4162,
      "Ġyet": 4163,
      "ĠDistrict": 4164,
      "Ġdistrict": 4165,
      "stract": 4166,
      "Ġprobability": 4167,
      "Load": 4168,
      "Oper": 4169,
      "edd": 4170,
      "Ġvisit": 4171,
      "Factory": 4172,
      "qquad": 4173,
      "icture": 4174,
      "aign": 4175,
      "Ġcontinue": 4176,
      "ooth": 4177,
      "chema": 4178,
      "column": 4179,
      "ĠNone": 4180,
      "anged": 4181,
      "ĠPat": 4182,
      "TS": 4183,
      "yr": 4184,
      "Ġprovides": 4185,
      "Ġreturned": 4186,
      "Hel": 4187,
      "Ġthought": 4188,
      "ÑĤ": 4189,
      "description": 4190,
      "Ġ\\{": 4191,
      "icult": 4192,
      "Ġir": 4193,
      "Ġincrease": 4194,
      "500": 4195,
      "Ġinternal": 4196,
      "mid": 4197,
      "PC": 4198,
      "FI": 4199,
      "Ġgives": 4200,
      "Ġproduced": 4201,
      "Label": 4202,
      "Version": 4203,
      "Ġinflu": 4204,
      "ĠAustralia": 4205,
      "oz": 4206,
      "Ġtaking": 4207,
      "Box": 4208,
      "indows": 4209,
      "rypt": 4210,
      "oe": 4211,
      "ĠDem": 4212,
      "ĠCenter": 4213,
      "Ġincludes": 4214,
      "Ġactive": 4215,
      "olic": 4216,
      "Ġlocation": 4217,
      "Task": 4218,
      "aur": 4219,
      "*/": 4220,
      "ĠFigure": 4221,
      "Ġcompar": 4222,
      "Ġcatch": 4223,
      "ĠCour": 4224,
      "alle": 4225,
      "Ġwebsite": 4226,
      "project": 4227,
      "GL": 4228,
      "Ġbox": 4229,
      "yper": 4230,
      "aints": 4231,
      "uit": 4232,
      "Attribute": 4233,
      "ĠIr": 4234,
      "Ġcopy": 4235,
      "Ġ]": 4236,
      "57": 4237,
      "Ġmargin": 4238,
      "ming": 4239,
      "command": 4240,
      "ĠRepublic": 4241,
      "amily": 4242,
      "Ġselect": 4243,
      "Ġaccur": 4244,
      "ifact": 4245,
      "Ġrecogn": 4246,
      "pected": 4247,
      "Ġthrows": 4248,
      "Ġson": 4249,
      "Ġmonths": 4250,
      "Ġleading": 4251,
      "nce": 4252,
      "ivil": 4253,
      "Ġnote": 4254,
      "ellow": 4255,
      "Ġwhy": 4256,
      "Return": 4257,
      "used": 4258,
      "Ġdig": 4259,
      "Ġannounced": 4260,
      "(-": 4261,
      "struction": 4262,
      "Ġ$(\\": 4263,
      "iation": 4264,
      "Ġonline": 4265,
      "stitute": 4266,
      "last": 4267,
      "Ġclient": 4268,
      "Ð½": 4269,
      "equiv": 4270,
      "Ġcompared": 4271,
      "Ġgenerated": 4272,
      ".)": 4273,
      "FONT": 4274,
      "fe": 4275,
      "Ġconduct": 4276,
      "Ġquantum": 4277,
      "Pre": 4278,
      "tries": 4279,
      "Ġdeep": 4280,
      "lands": 4281,
      "68": 4282,
      "Ġedge": 4283,
      "ba": 4284,
      "Ġtemperature": 4285,
      "avor": 4286,
      "});": 4287,
      "ĠEngland": 4288,
      "tic": 4289,
      "Ġfront": 4290,
      "ĠBlack": 4291,
      "43": 4292,
      "ĠGerman": 4293,
      "num": 4294,
      "ka": 4295,
      "Ġmechan": 4296,
      "Ġtelev": 4297,
      "Controller": 4298,
      "Ge": 4299,
      "Ġextends": 4300,
      "Fe": 4301,
      "itte": 4302,
      "Ġneigh": 4303,
      "Ġassume": 4304,
      "push": 4305,
      "Ġtalk": 4306,
      "Ġsure": 4307,
      "Ġdeal": 4308,
      "Ġcoupl": 4309,
      "Ġnews": 4310,
      "burg": 4311,
      "Ġinc": 4312,
      "Ġtoday": 4313,
      "Ġpopular": 4314,
      "pecially": 4315,
      "Ġareas": 4316,
      "Ġhistor": 4317,
      "ened": 4318,
      "Page": 4319,
      "useum": 4320,
      "han": 4321,
      "imension": 4322,
      "note": 4323,
      "Ġspin": 4324,
      "ya": 4325,
      "Per": 4326,
      "ĠChampionship": 4327,
      "Em": 4328,
      "Ġclosed": 4329,
      "berg": 4330,
      "}}(": 4331,
      "ategy": 4332,
      "OL": 4333,
      "Back": 4334,
      "Ġda": 4335,
      "}/": 4336,
      "Ġinit": 4337,
      "MM": 4338,
      "Ġcollection": 4339,
      "Ġviol": 4340,
      "Ġselected": 4341,
      "Ġprop": 4342,
      "cel": 4343,
      "ky": 4344,
      "prox": 4345,
      "ĠLemma": 4346,
      "ypes": 4347,
      "Ġrestr": 4348,
      "NO": 4349,
      "Ġpolitical": 4350,
      "format": 4351,
      "javascript": 4352,
      "ocket": 4353,
      "unn": 4354,
      "ramework": 4355,
      "True": 4356,
      "empty": 4357,
      "star": 4358,
      "lor": 4359,
      "}+\\": 4360,
      "Ġperformed": 4361,
      "obile": 4362,
      "Char": 4363,
      "ĠLaw": 4364,
      "Met": 4365,
      "Ġpolicy": 4366,
      "aven": 4367,
      "unt": 4368,
      "ĠReturn": 4369,
      "^+": 4370,
      "olve": 4371,
      "Ġauto": 4372,
      "1999": 4373,
      "Ġtakes": 4374,
      "Ġmode": 4375,
      "RA": 4376,
      "uid": 4377,
      "ND": 4378,
      "ĠUp": 4379,
      "Ġcorrect": 4380,
      "igger": 4381,
      "ttp": 4382,
      "inally": 4383,
      "Ġimages": 4384,
      "ĉĉĉĉĉĉĉĉ": 4385,
      "aching": 4386,
      "Ext": 4387,
      "Check": 4388,
      "den": 4389,
      "Ġstudies": 4390,
      "VID": 4391,
      "fill": 4392,
      "Ġoperation": 4393,
      "Ġdeveloped": 4394,
      "41": 4395,
      "&=": 4396,
      "istance": 4397,
      "ĠDiv": 4398,
      "mem": 4399,
      "oyal": 4400,
      "ĠEast": 4401,
      "///": 4402,
      "Ġgas": 4403,
      "Ġstre": 4404,
      "Ġdefinition": 4405,
      "CD": 4406,
      "Ġneeds": 4407,
      "Ã¼": 4408,
      "ams": 4409,
      "bin": 4410,
      "Ġintegr": 4411,
      "Ġnav": 4412,
      "number": 4413,
      "Ġneeded": 4414,
      "Create": 4415,
      "atively": 4416,
      "Ġ<!--": 4417,
      "Ġcompanies": 4418,
      "58": 4419,
      "Ġnight": 4420,
      "Ġequal": 4421,
      "ĠBer": 4422,
      "ki": 4423,
      "update": 4424,
      "PRO": 4425,
      "ĠOF": 4426,
      "eloc": 4427,
      "ĠRem": 4428,
      "ĠWhat": 4429,
      "Ġconstruction": 4430,
      "Ġcapt": 4431,
      "onstr": 4432,
      "ĠSen": 4433,
      "Ġtelevision": 4434,
      "sole": 4435,
      ")-": 4436,
      "\").": 4437,
      "Ġdied": 4438,
      "Ġmodule": 4439,
      "ĠMal": 4440,
      "Ġmatter": 4441,
      "ios": 4442,
      "ĠAnt": 4443,
      "Ġsens": 4444,
      "ying": 4445,
      "rows": 4446,
      "pass": 4447,
      "container": 4448,
      "len": 4449,
      "Ġrot": 4450,
      "Ġrelationship": 4451,
      "lymp": 4452,
      "eration": 4453,
      "imately": 4454,
      "obj": 4455,
      "stry": 4456,
      "ds": 4457,
      "edge": 4458,
      "Ġstage": 4459,
      "Ġfem": 4460,
      "Ġgoal": 4461,
      "{{\\": 4462,
      "Ġhon": 4463,
      "Ġpattern": 4464,
      "final": 4465,
      "jection": 4466,
      "Ġroad": 4467,
      "onic": 4468,
      "Ġdirectly": 4469,
      "Ġadj": 4470,
      "&&": 4471,
      "Ġregard": 4472,
      "Ġlikely": 4473,
      "ĠGeneral": 4474,
      "mt": 4475,
      "process": 4476,
      "Ġdirection": 4477,
      "Ġcontract": 4478,
      "Ġpers": 4479,
      "Ġmonth": 4480,
      "Ġtherefore": 4481,
      "Child": 4482,
      "uz": 4483,
      "IV": 4484,
      "Ġpresented": 4485,
      "}^{(": 4486,
      "Ġitself": 4487,
      "menu": 4488,
      "ancial": 4489,
      "Ġepis": 4490,
      "Ġwindow": 4491,
      "SON": 4492,
      "Ġdoesn": 4493,
      "Ġsold": 4494,
      "ĠEuropean": 4495,
      "ĠChina": 4496,
      "Ġmaximum": 4497,
      "citet": 4498,
      "cd": 4499,
      "DB": 4500,
      "56": 4501,
      "ptr": 4502,
      "Ġfood": 4503,
      "spec": 4504,
      "ĠTV": 4505,
      "ĠPort": 4506,
      "Ġformat": 4507,
      "Ġautom": 4508,
      "arily": 4509,
      "Ġmid": 4510,
      "lood": 4511,
      "Ġ&\\": 4512,
      "filter": 4513,
      "band": 4514,
      "Ġ((": 4515,
      "entry": 4516,
      "Ġconver": 4517,
      "ube": 4518,
      "Ent": 4519,
      "Ġnorth": 4520,
      "ctor": 4521,
      "asons": 4522,
      "Ġrunning": 4523,
      "Ġboundary": 4524,
      "Ġgalax": 4525,
      "normal": 4526,
      "Ġcandid": 4527,
      "grad": 4528,
      "PS": 4529,
      "ĠCanada": 4530,
      "Next": 4531,
      "Ġexpression": 4532,
      "Ġdraw": 4533,
      "Ġdifference": 4534,
      "Ġsolutions": 4535,
      "Ġface": 4536,
      "styles": 4537,
      "member": 4538,
      "Ġsetting": 4539,
      "ĠBel": 4540,
      "Ġwhite": 4541,
      "Ġdifficult": 4542,
      "Ġeffective": 4543,
      "Ġlat": 4544,
      "Ġreference": 4545,
      "iler": 4546,
      "ĠStreet": 4547,
      "UI": 4548,
      "acters": 4549,
      "Ġforce": 4550,
      "FT": 4551,
      "}\\,": 4552,
      "very": 4553,
      "Ġchannel": 4554,
      "uate": 4555,
      "mathsf": 4556,
      "Ġcurrently": 4557,
      "response": 4558,
      "Ġcomes": 4559,
      "ln": 4560,
      "icol": 4561,
      "}:": 4562,
      "Ġoptim": 4563,
      "layer": 4564,
      "Ġpercent": 4565,
      "resh": 4566,
      "oice": 4567,
      "nes": 4568,
      "inding": 4569,
      "Ġsolid": 4570,
      "ein": 4571,
      "Ġunc": 4572,
      "Ġmoved": 4573,
      "ĠCouncil": 4574,
      "ago": 4575,
      "Ġobjects": 4576,
      "Ġcentral": 4577,
      "EL": 4578,
      "ees": 4579,
      "Filter": 4580,
      "}\\\\": 4581,
      "indent": 4582,
      "Ġlost": 4583,
      "ĠPaul": 4584,
      "ĠDavid": 4585,
      "Ġbasis": 4586,
      "service": 4587,
      "Ġplatform": 4588,
      "Ġdatas": 4589,
      "Ġuses": 4590,
      "ÑĢ": 4591,
      "Ġfather": 4592,
      "Ġcomponents": 4593,
      "Ġactually": 4594,
      "ĠApp": 4595,
      "Ġproblems": 4596,
      "raz": 4597,
      "ĠRiver": 4598,
      "asc": 4599,
      "Ġnone": 4600,
      "////////////////": 4601,
      "Mem": 4602,
      "$}": 4603,
      "that": 4604,
      "ĠData": 4605,
      "ĠID": 4606,
      "ĠWork": 4607,
      "Ġrights": 4608,
      "Ġprinc": 4609,
      "Ġ{@": 4610,
      "Ġallows": 4611,
      "Ġaward": 4612,
      "ida": 4613,
      "Listener": 4614,
      "params": 4615,
      "Ġprote": 4616,
      "pite": 4617,
      "clusion": 4618,
      "wood": 4619,
      "Us": 4620,
      "ris": 4621,
      "SI": 4622,
      "std": 4623,
      "rief": 4624,
      "ĠThus": 4625,
      "aml": 4626,
      "ares": 4627,
      "ABLE": 4628,
      "Top": 4629,
      "inner": 4630,
      "Equals": 4631,
      "Ġmag": 4632,
      "iences": 4633,
      "rd": 4634,
      "Ġspecified": 4635,
      "ĠChe": 4636,
      "ĠOut": 4637,
      "Ġrelative": 4638,
      "ĠSum": 4639,
      "achine": 4640,
      "Ġissues": 4641,
      "Ġwhole": 4642,
      "Ġconnection": 4643,
      "78": 4644,
      "Sim": 4645,
      "Style": 4646,
      "ĠSub": 4647,
      "Ġtransfer": 4648,
      "Ġbenef": 4649,
      "Ġholds": 4650,
      "ening": 4651,
      "(&": 4652,
      "ĠHealth": 4653,
      "rote": 4654,
      "stant": 4655,
      "riate": 4656,
      "Button": 4657,
      "Ġtransition": 4658,
      "ĠFil": 4659,
      "Ġpack": 4660,
      "Co": 4661,
      "ini": 4662,
      "Ġparty": 4663,
      "Ġindustry": 4664,
      "ĠUK": 4665,
      "eal": 4666,
      "ĠPal": 4667,
      "bert": 4668,
      "ĠHol": 4669,
      "Dev": 4670,
      "Ġfilter": 4671,
      "oring": 4672,
      "show": 4673,
      "Format": 4674,
      "else": 4675,
      "refix": 4676,
      "Ġparts": 4677,
      "cs": 4678,
      "annot": 4679,
      "ias": 4680,
      "ĠResearch": 4681,
      "ĠJames": 4682,
      "Aut": 4683,
      "signed": 4684,
      "files": 4685,
      "Ġeffort": 4686,
      "Ġsignal": 4687,
      "Ġtim": 4688,
      "Ġhit": 4689,
      "ĠDepartment": 4690,
      "tool": 4691,
      "atur": 4692,
      "unit": 4693,
      "Ġnumbers": 4694,
      "{}": 4695,
      "'re": 4696,
      "xspace": 4697,
      "Ġinvestig": 4698,
      "ãģ": 4699,
      "ĠCons": 4700,
      "ously": 4701,
      "ution": 4702,
      "Ġissue": 4703,
      "Rem": 4704,
      "Ġfa": 4705,
      "ville": 4706,
      "Ġusers": 4707,
      "Ġworked": 4708,
      "Ġimm": 4709,
      "endif": 4710,
      "Ġcoordin": 4711,
      "1998": 4712,
      "van": 4713,
      "Tem": 4714,
      "Ġword": 4715,
      "Ġoutside": 4716,
      "ĠParty": 4717,
      "Ġyield": 4718,
      "Ġtell": 4719,
      "ĉĠĠĠ": 4720,
      "Ġinterface": 4721,
      "|^": 4722,
      "cr": 4723,
      "Column": 4724,
      "Ġdemonstr": 4725,
      "ĠCLASS": 4726,
      "Ġupon": 4727,
      "ĠThom": 4728,
      "Ġsupported": 4729,
      "enumer": 4730,
      "aine": 4731,
      "Ġess": 4732,
      "ros": 4733,
      "nov": 4734,
      "1990": 4735,
      "Ġjo": 4736,
      "zon": 4737,
      "eck": 4738,
      "neq": 4739,
      "ĠHREF": 4740,
      "<?": 4741,
      "ullet": 4742,
      "soft": 4743,
      "Layout": 4744,
      "only": 4745,
      "lier": 4746,
      "ql": 4747,
      "evel": 4748,
      "otal": 4749,
      "Spec": 4750,
      "anish": 4751,
      "Ġvers": 4752,
      "Ġallowed": 4753,
      "59": 4754,
      "Ġstars": 4755,
      "Ġphysical": 4756,
      "Ġsouth": 4757,
      "arter": 4758,
      "Ġurl": 4759,
      "ĠRober": 4760,
      "Ġeducation": 4761,
      "erve": 4762,
      "Ġfiles": 4763,
      "ani": 4764,
      "Dr": 4765,
      "Br": 4766,
      "Bl": 4767,
      "History": 4768,
      "Ġdecl": 4769,
      "Valid": 4770,
      ":</": 4771,
      "Since": 4772,
      "Ġreve": 4773,
      "mission": 4774,
      "Ġespecially": 4775,
      "Ġball": 4776,
      "Ġserver": 4777,
      "Ġpresident": 4778,
      "oul": 4779,
      "Ġpersonal": 4780,
      "Ġtree": 4781,
      "ĠNote": 4782,
      "Ġpatients": 4783,
      "Ġrev": 4784,
      "Ġforward": 4785,
      "gg": 4786,
      "elves": 4787,
      "attr": 4788,
      "efined": 4789,
      "adian": 4790,
      "CL": 4791,
      "86": 4792,
      "Ġdiscover": 4793,
      "SD": 4794,
      "Ġupd": 4795,
      "ici": 4796,
      "stack": 4797,
      "ĠWhile": 4798,
      "pret": 4799,
      "Med": 4800,
      "]$": 4801,
      "Ġintroduced": 4802,
      "Ġincreasing": 4803,
      "Ġpick": 4804,
      "enced": 4805,
      "({\\": 4806,
      "'$": 4807,
      "Ġspeed": 4808,
      "Ġsense": 4809,
      "Ġmoney": 4810,
      "ett": 4811,
      "Ġdomain": 4812,
      "Ġ~": 4813,
      "Ġcontact": 4814,
      "Ġbehind": 4815,
      "ittee": 4816,
      "ategor": 4817,
      "ĠOur": 4818,
      "ĠAward": 4819,
      "operatorname": 4820,
      "Ġrepresentation": 4821,
      "arks": 4822,
      "```": 4823,
      "hspace": 4824,
      "BA": 4825,
      "Ġupper": 4826,
      "sets": 4827,
      ">>": 4828,
      "ederal": 4829,
      "tag": 4830,
      "SO": 4831,
      "Ġlevels": 4832,
      "Ġdescription": 4833,
      "Ġwriting": 4834,
      "BU": 4835,
      "ashington": 4836,
      "iting": 4837,
      "anger": 4838,
      "tex": 4839,
      "Ġvillage": 4840,
      "Ġquality": 4841,
      "Ġarticle": 4842,
      "Ġconsum": 4843,
      "itch": 4844,
      "PO": 4845,
      "ĠChurch": 4846,
      "Ġfire": 4847,
      "anning": 4848,
      "ĠGerm": 4849,
      "Ġelection": 4850,
      "Ġfont": 4851,
      "di": 4852,
      "INT": 4853,
      "Ġteams": 4854,
      "pher": 4855,
      "Ut": 4856,
      "Ġwalk": 4857,
      "depend": 4858,
      "approx": 4859,
      "\"),": 4860,
      "ci": 4861,
      "values": 4862,
      "URL": 4863,
      "Ġprove": 4864,
      "ĠRich": 4865,
      "Ġvariable": 4866,
      "background": 4867,
      "IO": 4868,
      "$(": 4869,
      "Ġarchitect": 4870,
      "}-\\": 4871,
      "}}{\\": 4872,
      "omial": 4873,
      "Gu": 4874,
      "Select": 4875,
      "ĠDi": 4876,
      "Ġapplied": 4877,
      "Ġdenote": 4878,
      "Ġapply": 4879,
      "Ġvariables": 4880,
      "arp": 4881,
      "Ġsources": 4882,
      "witter": 4883,
      "ĠBook": 4884,
      "ĠDirect": 4885,
      "Ġmention": 4886,
      "||": 4887,
      "izations": 4888,
      "ilton": 4889,
      "Ġproducts": 4890,
      "Ġtax": 4891,
      "Ġestablish": 4892,
      "Ġdidn": 4893,
      "reference": 4894,
      "Ġdrop": 4895,
      "Ġsoftware": 4896,
      "Length": 4897,
      "CA": 4898,
      "Ġimmedi": 4899,
      "ĠJust": 4900,
      "ĠMet": 4901,
      "Ġveloc": 4902,
      "_.": 4903,
      "Ġopport": 4904,
      "loor": 4905,
      ")+": 4906,
      "wrap": 4907,
      "Ġscen": 4908,
      "ĠDay": 4909,
      "Ġequations": 4910,
      "fect": 4911,
      "51": 4912,
      "ĠArch": 4913,
      "instance": 4914,
      "theorem": 4915,
      "Ġtechnology": 4916,
      "Ġbehavior": 4917,
      "').": 4918,
      "People": 4919,
      "Ġscreen": 4920,
      "sd": 4921,
      "Ġcred": 4922,
      "Output": 4923,
      "Ġrisk": 4924,
      "Ġquery": 4925,
      "Ġoperations": 4926,
      "Ã¶": 4927,
      "Max": 4928,
      "bon": 4929,
      "ĠQue": 4930,
      "buf": 4931,
      "ria": 4932,
      "TP": 4933,
      "Ġlonger": 4934,
      "1997": 4935,
      "boot": 4936,
      "agger": 4937,
      "Ġqual": 4938,
      "Ġcritical": 4939,
      "zer": 4940,
      "ander": 4941,
      "remove": 4942,
      "Ġbring": 4943,
      "76": 4944,
      "Ġgre": 4945,
      "Ġgrowth": 4946,
      "pat": 4947,
      "ca": 4948,
      "Ġchoice": 4949,
      "ifying": 4950,
      "Ġroot": 4951,
      "ĠTable": 4952,
      "ometry": 4953,
      "Ġsus": 4954,
      "ĠBay": 4955,
      "support": 4956,
      "example": 4957,
      "older": 4958,
      "ena": 4959,
      "ano": 4960,
      "Ġshare": 4961,
      "classes": 4962,
      "hi": 4963,
      "Ġquick": 4964,
      "ospital": 4965,
      "Ġconnect": 4966,
      "Ġnames": 4967,
      "Ġmale": 4968,
      "ye": 4969,
      "ĠEX": 4970,
      "Ġbank": 4971,
      "rier": 4972,
      "omic": 4973,
      "PR": 4974,
      "ado": 4975,
      "iments": 4976,
      "Address": 4977,
      "ĠAssociation": 4978,
      "usion": 4979,
      "Ġmanagement": 4980,
      "scr": 4981,
      "enumerate": 4982,
      "ĠSome": 4983,
      "Ġentry": 4984,
      "osen": 4985,
      "Ġvict": 4986,
      "Ġten": 4987,
      "Ġselection": 4988,
      "Ġcharacters": 4989,
      "Ġshall": 4990,
      "ĠLicense": 4991,
      "Ġprimary": 4992,
      "ĠCap": 4993,
      "Le": 4994,
      "ĠHall": 4995,
      "irit": 4996,
      "orse": 4997,
      "ua": 4998,
      "Ġbecomes": 4999,
      "ĠSing": 5000,
      "break": 5001,
      "ĠHT": 5002,
      "ultural": 5003,
      "strap": 5004,
      "Ġsmaller": 5005,
      "ĠMod": 5006,
      "./": 5007,
      "ĠType": 5008,
      "Ġinside": 5009,
      "ĠFrance": 5010,
      ".$": 5011,
      "Ġmilitary": 5012,
      "ãĥ": 5013,
      "NN": 5014,
      "Ġthing": 5015,
      "Ġsecurity": 5016,
      "Ġemer": 5017,
      "ĠMart": 5018,
      "HO": 5019,
      "kr": 5020,
      "Eng": 5021,
      "then": 5022,
      "Ġnovel": 5023,
      "matrix": 5024,
      "dimensional": 5025,
      "elt": 5026,
      "Ġavoid": 5027,
      "Ġelectron": 5028,
      "hest": 5029,
      "Ġdesigned": 5030,
      "Ġdevice": 5031,
      "Ñģ": 5032,
      "ocal": 5033,
      "Ġseg": 5034,
      "Url": 5035,
      "Ġaltern": 5036,
      "Ġrock": 5037,
      "ĠInstitute": 5038,
      "Ġexcept": 5039,
      "52": 5040,
      "itory": 5041,
      "ĠScience": 5042,
      "54": 5043,
      "isation": 5044,
      "Vis": 5045,
      "=\"../../../../../": 5046,
      "essages": 5047,
      "Ġdecre": 5048,
      "Ġoffice": 5049,
      "Update": 5050,
      "opl": 5051,
      "Ġagre": 5052,
      "Ġrelation": 5053,
      "Ġleaders": 5054,
      "Ġnecessary": 5055,
      "cod": 5056,
      "={": 5057,
      "Net": 5058,
      "Ġcampaign": 5059,
      "aud": 5060,
      "win": 5061,
      "]\\": 5062,
      "inct": 5063,
      "Ġvirtual": 5064,
      "ĠArray": 5065,
      "Ġwrote": 5066,
      "Ġtold": 5067,
      "icate": 5068,
      "So": 5069,
      "COL": 5070,
      "53": 5071,
      "Ġplaying": 5072,
      "CP": 5073,
      "gn": 5074,
      "Ġhours": 5075,
      "ĠĠĠĠĠĠĠĠĠĠĠĠĠĠĠĠĠĠĠĠĠĠĠĠĠĠĠĠĠĠĠĠĠĠĠ": 5076,
      "Living": 5077,
      "Ġdirector": 5078,
      "Ġacqu": 5079,
      "Row": 5080,
      "ĠHere": 5081,
      "Ġthroughout": 5082,
      "87": 5083,
      "Ġweak": 5084,
      "ERR": 5085,
      "ĠDec": 5086,
      "Ġimplies": 5087,
      "Ġpain": 5088,
      "Ġidea": 5089,
      "Ġtransl": 5090,
      "AV": 5091,
      "Min": 5092,
      "Ġsil": 5093,
      "ĠPe": 5094,
      "Ġ!==": 5095,
      "utils": 5096,
      "Ġ-\\": 5097,
      "ius": 5098,
      "Ġfra": 5099,
      "Ġax": 5100,
      "Ġsimply": 5101,
      "output": 5102,
      "ĠMr": 5103,
      "Ġfriend": 5104,
      "1996": 5105,
      "inv": 5106,
      ")/": 5107,
      "sign": 5108,
      "yes": 5109,
      "eft": 5110,
      "outhern": 5111,
      "itemize": 5112,
      "Mode": 5113,
      "overs": 5114,
      "CON": 5115,
      "Ġframe": 5116,
      "Cache": 5117,
      "Ġinvolved": 5118,
      "olar": 5119,
      "Ġcoeff": 5120,
      "Ġreturns": 5121,
      "Tag": 5122,
      "ĠGeorge": 5123,
      "Ġmemory": 5124,
      "Ġinj": 5125,
      "scope": 5126,
      "Web": 5127,
      "orizont": 5128,
      "ansion": 5129,
      "iding": 5130,
      "Ġusually": 5131,
      "++)": 5132,
      "ectors": 5133,
      "Te": 5134,
      "olving": 5135,
      "require": 5136,
      "ĠGl": 5137,
      "ĠBest": 5138,
      "Ġcomment": 5139,
      "offset": 5140,
      "Ġdeaths": 5141,
      "mes": 5142,
      "ĠJack": 5143,
      "isions": 5144,
      "aily": 5145,
      "Ġsex": 5146,
      "Ġdecision": 5147,
      "Ġremove": 5148,
      "ERT": 5149,
      ")}{": 5150,
      "Ġradio": 5151,
      "Ġtowards": 5152,
      "term": 5153,
      "89": 5154,
      "linear": 5155,
      "itar": 5156,
      "ĠOpen": 5157,
      "Ġrob": 5158,
      "Ġhot": 5159,
      "Ġprofessional": 5160,
      "Ġcast": 5161,
      "ĠCourt": 5162,
      "Ġmix": 5163,
      "Ð¾Ð": 5164,
      "ĠService": 5165,
      "ĠNow": 5166,
      "allel": 5167,
      "Ġalthough": 5168,
      "ĠSeries": 5169,
      "arth": 5170,
      "Ġlo": 5171,
      "ao": 5172,
      "Note": 5173,
      "Ġtour": 5174,
      "ĠGreen": 5175,
      "....": 5176,
      "DF": 5177,
      "Then": 5178,
      "Ġhimself": 5179,
      "Ġsubs": 5180,
      "Ġprogress": 5181,
      "Ġnuc": 5182,
      "ĠCE": 5183,
      "ĠFound": 5184,
      "Me": 5185,
      "Ġconcept": 5186,
      "thon": 5187,
      "frame": 5188,
      "inese": 5189,
      "Ġneut": 5190,
      "float": 5191,
      "Ġlargest": 5192,
      "gin": 5193,
      "Ġexpand": 5194,
      "ughter": 5195,
      "Ġdark": 5196,
      "uated": 5197,
      "([": 5198,
      "eles": 5199,
      "author": 5200,
      "Ġstaff": 5201,
      "issions": 5202,
      "ston": 5203,
      "ĠTherefore": 5204,
      "ĠWashington": 5205,
      "Ġliving": 5206,
      "Ġargument": 5207,
      "Ġcompleted": 5208,
      "Now": 5209,
      "ĠMusic": 5210,
      "{{": 5211,
      "Ġexception": 5212,
      "Bo": 5213,
      "Ġsymbol": 5214,
      "ĠAPI": 5215,
      "Ġdebut": 5216,
      "Ġclasses": 5217,
      "Ġoffic": 5218,
      "300": 5219,
      "Ġevolution": 5220,
      "ĠMat": 5221,
      "Ġmodern": 5222,
      "ĠLog": 5223,
      "Ġbad": 5224,
      "ĠOlymp": 5225,
      "weight": 5226,
      "Ġappoint": 5227,
      "Ġ[]": 5228,
      "Ġobj": 5229,
      "Ġveh": 5230,
      "models": 5231,
      "Ġbre": 5232,
      "kit": 5233,
      "icket": 5234,
      "ufact": 5235,
      "Ġconfiguration": 5236,
      "Ġbg": 5237,
      "Ġfollowed": 5238,
      "Ġfun": 5239,
      "Ġdam": 5240,
      "force": 5241,
      "Ġansw": 5242,
      "Ġtravel": 5243,
      "ĠPublic": 5244,
      "=\"-": 5245,
      "Ġconnected": 5246,
      "ĠYear": 5247,
      "ĠVol": 5248,
      "oi": 5249,
      "Work": 5250,
      "Ġestimate": 5251,
      "pg": 5252,
      "Ġcountries": 5253,
      "Ġstreng": 5254,
      "Ġstarting": 5255,
      "iday": 5256,
      "Par": 5257,
      "Ġratio": 5258,
      "ĠDon": 5259,
      "ĠTime": 5260,
      "Open": 5261,
      "match": 5262,
      "Ġrule": 5263,
      "clude": 5264,
      "ĠPress": 5265,
      "ĠAfrica": 5266,
      "Ġaw": 5267,
      "ĠTechn": 5268,
      "rea": 5269,
      "gence": 5270,
      "ĠRoad": 5271,
      "Do": 5272,
      "Entity": 5273,
      "vant": 5274,
      "Ġcharg": 5275,
      "ĠJer": 5276,
      "That": 5277,
      "Ġtro": 5278,
      ")}$": 5279,
      "erved": 5280,
      "Parameter": 5281,
      "Ġlooking": 5282,
      "ĠTex": 5283,
      "Ġdise": 5284,
      "gu": 5285,
      "norm": 5286,
      "Frame": 5287,
      "Ġfight": 5288,
      "hent": 5289,
      "Server": 5290,
      "Pi": 5291,
      "Can": 5292,
      "Width": 5293,
      "ATION": 5294,
      "Ġeasy": 5295,
      "Ġmagnetic": 5296,
      "ilies": 5297,
      "Ġheart": 5298,
      "Ġwatch": 5299,
      "Ġspectrum": 5300,
      "elebr": 5301,
      "reek": 5302,
      "Ġcells": 5303,
      "Ġtransport": 5304,
      "Ġseem": 5305,
      "ĠArmy": 5306,
      "Case": 5307,
      "orizontal": 5308,
      "well": 5309,
      "emic": 5310,
      "Ġtreatment": 5311,
      "(_": 5312,
      "Ġcam": 5313,
      "1980": 5314,
      "aa": 5315,
      "Ġstore": 5316,
      "Access": 5317,
      "illing": 5318,
      "Ġsn": 5319,
      "omin": 5320,
      "itable": 5321,
      "ĠMag": 5322,
      "Ġadministr": 5323,
      "ĠLou": 5324,
      "tree": 5325,
      "Ġconcern": 5326,
      "ĠMount": 5327,
      "ipp": 5328,
      "Target": 5329,
      "vspace": 5330,
      "Ġroom": 5331,
      "otic": 5332,
      "\\\"": 5333,
      "irl": 5334,
      "free": 5335,
      "KE": 5336,
      "Ġdetermined": 5337,
      "noindent": 5338,
      "Ġexisting": 5339,
      "ĠGod": 5340,
      "Types": 5341,
      "94": 5342,
      "CS": 5343,
      "Rel": 5344,
      "Ġdoing": 5345,
      "ĠTri": 5346,
      "\\,\\": 5347,
      "ĠLeg": 5348,
      "Ġdoc": 5349,
      "Ġcollect": 5350,
      "mas": 5351,
      "Ġ\\|": 5352,
      "Ġproced": 5353,
      "etails": 5354,
      "agment": 5355,
      "document": 5356,
      "ĠVir": 5357,
      "artifact": 5358,
      "hing": 5359,
      "rule": 5360,
      "ĠUnion": 5361,
      "etch": 5362,
      "alian": 5363,
      "ĠCompany": 5364,
      "rian": 5365,
      "dep": 5366,
      "ĉĉĊ": 5367,
      "}'": 5368,
      "Ġremains": 5369,
      "rupt": 5370,
      "ympt": 5371,
      "igr": 5372,
      "Ġunits": 5373,
      "Ġchanged": 5374,
      "Ġnodes": 5375,
      "gent": 5376,
      "antic": 5377,
      "Ġpolice": 5378,
      "ponents": 5379,
      "Ġknowledge": 5380,
      "vention": 5381,
      "Ġlimited": 5382,
      "Post": 5383,
      "Ġjoined": 5384,
      "1995": 5385,
      "Ġrace": 5386,
      "ĠGermany": 5387,
      "Ġfrequency": 5388,
      "ĠMer": 5389,
      "phere": 5390,
      "ĠRoman": 5391,
      "chedul": 5392,
      "93": 5393,
      "Provider": 5394,
      "Ġrecently": 5395,
      "Mon": 5396,
      "Ġequivalent": 5397,
      "proto": 5398,
      "modal": 5399,
      "CR": 5400,
      "EM": 5401,
      "ĠMac": 5402,
      "Ġregions": 5403,
      "estival": 5404,
      "ĠSee": 5405,
      "Ġensure": 5406,
      "Ġexhib": 5407,
      "~$": 5408,
      "Ġpeak": 5409,
      "Ġinstr": 5410,
      "ĠSl": 5411,
      "ĠOf": 5412,
      "Ġord": 5413,
      "84": 5414,
      "Ġ;": 5415,
      "TYPE": 5416,
      "Po": 5417,
      "ĠRead": 5418,
      "Ġauth": 5419,
      "Ġalgebra": 5420,
      "bes": 5421,
      "Ġpreviously": 5422,
      "graph": 5423,
      "crete": 5424,
      "fort": 5425,
      "Ġactivity": 5426,
      "Ã¤": 5427,
      "Ġevidence": 5428,
      "\\}$": 5429,
      "ĠMor": 5430,
      "Ġfailed": 5431,
      "oma": 5432,
      "Ġopened": 5433,
      "Ġcontinued": 5434,
      "Ġcallback": 5435,
      "Ġque": 5436,
      "ĠSam": 5437,
      "ĠCOVID": 5438,
      "ervices": 5439,
      "########": 5440,
      "fs": 5441,
      "Ġfeed": 5442,
      "ussian": 5443,
      "ĠEv": 5444,
      "ecute": 5445,
      "ĉĉĉĉĉĉĉ": 5446,
      "Ġmother": 5447,
      "bour": 5448,
      "Ġmaintain": 5449,
      "ãĤ": 5450,
      "ĠMary": 5451,
      "Ġhel": 5452,
      "Tree": 5453,
      "airs": 5454,
      "Ġmind": 5455,
      "ĠProv": 5456,
      "returns": 5457,
      "NAME": 5458,
      "Ġboard": 5459,
      "common": 5460,
      "iece": 5461,
      "72": 5462,
      "ernel": 5463,
      "ĠPost": 5464,
      "Ġaim": 5465,
      "eli": 5466,
      "ulate": 5467,
      "icted": 5468,
      "ĠFranc": 5469,
      "'),": 5470,
      "MN": 5471,
      "ĠSur": 5472,
      "ancy": 5473,
      "uge": 5474,
      "fa": 5475,
      "Ġkm": 5476,
      "Ġste": 5477,
      "Ġgave": 5478,
      "IF": 5479,
      "ĠDemocr": 5480,
      "idents": 5481,
      "ĠSy": 5482,
      "Ġfast": 5483,
      "********************************": 5484,
      "Ġ**": 5485,
      "ometimes": 5486,
      "prove": 5487,
      "Ġship": 5488,
      "Ġnor": 5489,
      "Ġsort": 5490,
      "typ": 5491,
      "CODE": 5492,
      "parse": 5493,
      "ĠNS": 5494,
      "conf": 5495,
      "anges": 5496,
      "Ġmus": 5497,
      "Ġwait": 5498,
      "related": 5499,
      "ecause": 5500,
      "adr": 5501,
      "Ġbooks": 5502,
      "Ġincreased": 5503,
      "Ġsaw": 5504,
      "ĠAlex": 5505,
      "comple": 5506,
      "Ġsigned": 5507,
      "Container": 5508,
      "olec": 5509,
      "Ġscore": 5510,
      "Ġsoon": 5511,
      "ighest": 5512,
      "ĠBen": 5513,
      "hr": 5514,
      "FL": 5515,
      "Ġpolitic": 5516,
      "Ġpractice": 5517,
      "Ġregister": 5518,
      "ĠDel": 5519,
      "Ġpassed": 5520,
      "Ġstatement": 5521,
      "control": 5522,
      "Ġargs": 5523,
      "Ġdimension": 5524,
      "Ġnegative": 5525,
      "Ġextra": 5526,
      "Ġbgcolor": 5527,
      "Ġpartial": 5528,
      "Ġvelocity": 5529,
      "92": 5530,
      "Ġjud": 5531,
      "=\"../../../../../../": 5532,
      "Ġdescribe": 5533,
      "ydro": 5534,
      "Ġlayer": 5535,
      "Ġcoming": 5536,
      "Ġjoin": 5537,
      "images": 5538,
      "ogg": 5539,
      "DD": 5540,
      "Ġvolume": 5541,
      "ĠĠĠĊ": 5542,
      "Ġrules": 5543,
      "template": 5544,
      "oles": 5545,
      "cial": 5546,
      "det": 5547,
      "Ġreading": 5548,
      "Ġquite": 5549,
      "Ġcause": 5550,
      "ĠSociety": 5551,
      "bool": 5552,
      "Window": 5553,
      "1994": 5554,
      "ĠMex": 5555,
      "Http": 5556,
      "ynch": 5557,
      "Ġchalleng": 5558,
      "Ġcharge": 5559,
      "ĠDivision": 5560,
      "Ġeigen": 5561,
      "ĠRoyal": 5562,
      "alls": 5563,
      "Go": 5564,
      "ĠSal": 5565,
      "Ġsett": 5566,
      "root": 5567,
      "ĠIsland": 5568,
      "ĠMichael": 5569,
      "Ġshape": 5570,
      "Ġactual": 5571,
      "prototype": 5572,
      "ĠForm": 5573,
      "ĠWhite": 5574,
      "stylesheet": 5575,
      "Ġhandle": 5576,
      "ĠST": 5577,
      "rics": 5578,
      "Ġfully": 5579,
      "Ġded": 5580,
      "Description": 5581,
      "clos": 5582,
      "ura": 5583,
      "ĠCong": 5584,
      "Ġ::": 5585,
      "Ġ(\"": 5586,
      "More": 5587,
      "Ġoverall": 5588,
      "Mar": 5589,
      "Rev": 5590,
      "Ġfinancial": 5591,
      "patch": 5592,
      "PA": 5593,
      "za": 5594,
      "ĠAcadem": 5595,
      "Ġmicro": 5596,
      "ĠGold": 5597,
      "Ġremain": 5598,
      "Ġproper": 5599,
      "kind": 5600,
      "Ġtag": 5601,
      "91": 5602,
      "illa": 5603,
      "Ġgetting": 5604,
      "FO": 5605,
      "Ġeight": 5606,
      "}}_": 5607,
      "Ġstudied": 5608,
      "Ġweb": 5609,
      "Ġiter": 5610,
      "Ġearlier": 5611,
      "1000": 5612,
      "Ġresulting": 5613,
      "Right": 5614,
      "Ġillustr": 5615,
      "Ġempty": 5616,
      "RL": 5617,
      "Ġstructures": 5618,
      "Ġago": 5619,
      "Ġsongs": 5620,
      "Ġresources": 5621,
      "Ġ_{": 5622,
      "Ġsend": 5623,
      "Ġnoise": 5624,
      "Ġpanel": 5625,
      "ongs": 5626,
      "ether": 5627,
      "ĠAustralian": 5628,
      "track": 5629,
      "second": 5630,
      "Ġnature": 5631,
      "Level": 5632,
      "63": 5633,
      "Ġca": 5634,
      "ACK": 5635,
      "asket": 5636,
      "Ġrecon": 5637,
      "entity": 5638,
      "Ġvs": 5639,
      "ynomial": 5640,
      "enge": 5641,
      "Ġsession": 5642,
      "mercial": 5643,
      "()->": 5644,
      "ĠGoogle": 5645,
      "}}}": 5646,
      "Ġrecomm": 5647,
      "Ġpresence": 5648,
      "Ġhyper": 5649,
      "sey": 5650,
      "Ġminutes": 5651,
      "Ġcore": 5652,
      "Ġrecover": 5653,
      "ĠRE": 5654,
      "Entry": 5655,
      "Configuration": 5656,
      "iber": 5657,
      "Current": 5658,
      "Ġfloat": 5659,
      "Offset": 5660,
      "Ġrender": 5661,
      "Ġwave": 5662,
      "Ġwife": 5663,
      "ĠDuring": 5664,
      "Location": 5665,
      "gan": 5666,
      "oom": 5667,
      "ĠClub": 5668,
      "Ġrecorded": 5669,
      "should": 5670,
      "Ġexplicit": 5671,
      "Ġhyp": 5672,
      "mathscr": 5673,
      "ounter": 5674,
      "ingu": 5675,
      "aled": 5676,
      "82": 5677,
      "Ġdefe": 5678,
      "Ġstay": 5679,
      "1992": 5680,
      "Unit": 5681,
      "ĉĠ": 5682,
      "Script": 5683,
      "fg": 5684,
      "Ġrail": 5685,
      "Ġschools": 5686,
      "ĠSk": 5687,
      "Ġchoose": 5688,
      "Json": 5689,
      "Ġteach": 5690,
      "ĠOver": 5691,
      "Ġadapt": 5692,
      "Ġswitch": 5693,
      "BO": 5694,
      "ducation": 5695,
      "ĠMiss": 5696,
      "Search": 5697,
      "Ġcourt": 5698,
      "Utils": 5699,
      "ĠOther": 5700,
      "]);": 5701,
      "Ġrequires": 5702,
      "pop": 5703,
      "cover": 5704,
      "ECT": 5705,
      "ĠPre": 5706,
      "Ġotherwise": 5707,
      "urt": 5708,
      "Sl": 5709,
      "GB": 5710,
      "Ġuniform": 5711,
      "Ġsplit": 5712,
      "after": 5713,
      "artifactId": 5714,
      "expected": 5715,
      "Ġapplications": 5716,
      "jo": 5717,
      "ĠInst": 5718,
      "<\\": 5719,
      "Ġsubsequ": 5720,
      "ĠBuild": 5721,
      "olute": 5722,
      "RI": 5723,
      "Ġinequ": 5724,
      "Ġerrors": 5725,
      "etime": 5726,
      "window": 5727,
      "Ġfinally": 5728,
      "joy": 5729,
      "adow": 5730,
      "ĠMus": 5731,
      "texttt": 5732,
      "1970": 5733,
      "Ġcard": 5734,
      "underline": 5735,
      "Ġfigure": 5736,
      "PP": 5737,
      "Ġsmooth": 5738,
      "Ġign": 5739,
      "Ġinstit": 5740,
      "tml": 5741,
      "reshold": 5742,
      "unicip": 5743,
      "ĠWil": 5744,
      "Position": 5745,
      "trm": 5746,
      "Ġseems": 5747,
      "My": 5748,
      "%;": 5749,
      "Ġmarried": 5750,
      "Ġformed": 5751,
      "Ġlack": 5752,
      "bi": 5753,
      "isms": 5754,
      "Ġfix": 5755,
      "Project": 5756,
      "^-": 5757,
      "Ġsamples": 5758,
      "Ġbuffer": 5759,
      "mselves": 5760,
      "Header": 5761,
      "ĠTexas": 5762,
      "iverse": 5763,
      "tical": 5764,
      "Our": 5765,
      "Control": 5766,
      "FC": 5767,
      "fit": 5768,
      "ĠFile": 5769,
      "bas": 5770,
      "drop": 5771,
      "iring": 5772,
      "ĠDan": 5773,
      "Ġreli": 5774,
      "Ġcounter": 5775,
      "Ġmount": 5776,
      "textrm": 5777,
      "Ġsufficient": 5778,
      "resents": 5779,
      "Ġcluster": 5780,
      "subseteq": 5781,
      "road": 5782,
      "Ġtheorem": 5783,
      "Ġreduced": 5784,
      "cache": 5785,
      "Ġuncertain": 5786,
      "iginal": 5787,
      "ZE": 5788,
      "umin": 5789,
      "Ġhous": 5790,
      "ental": 5791,
      "---": 5792,
      "BS": 5793,
      "ĠAccording": 5794,
      "ĠGa": 5795,
      "Ġscient": 5796,
      "ĠRob": 5797,
      "INE": 5798,
      "ĠTO": 5799,
      "tim": 5800,
      "ĠAnn": 5801,
      "Ġinteraction": 5802,
      "ĠRussian": 5803,
      "imary": 5804,
      "Height": 5805,
      "62": 5806,
      "cat": 5807,
      "itz": 5808,
      "uint": 5809,
      "400": 5810,
      "ĠTom": 5811,
      "Ġextension": 5812,
      "1993": 5813,
      "iny": 5814,
      "Ġetc": 5815,
      "Ġdetermine": 5816,
      "Ġminimum": 5817,
      "multicol": 5818,
      "Ġmissing": 5819,
      "real": 5820,
      "Ġprofile": 5821,
      "otion": 5822,
      "elopment": 5823,
      "buffer": 5824,
      "She": 5825,
      "card": 5826,
      "Ġattention": 5827,
      "Ġthemselves": 5828,
      "Ġchurch": 5829,
      "Ġwide": 5830,
      "Ġruns": 5831,
      "bal": 5832,
      "TI": 5833,
      "Ġitems": 5834,
      "ĠFin": 5835,
      "task": 5836,
      "Ġbal": 5837,
      "ashed": 5838,
      "Ġprobably": 5839,
      "minus": 5840,
      "Ġnorm": 5841,
      "ih": 5842,
      "etail": 5843,
      "ĠOper": 5844,
      "ĠChinese": 5845,
      "Ġarguments": 5846,
      "ucture": 5847,
      "gate": 5848,
      "%%": 5849,
      "Ġmetric": 5850,
      "Ġlen": 5851,
      "Ġjournal": 5852,
      "Ġorigin": 5853,
      "Ġinteresting": 5854,
      "Thread": 5855,
      "ĠSuper": 5856,
      "gs": 5857,
      "Ġplaces": 5858,
      "edy": 5859,
      "Ġforms": 5860,
      "DA": 5861,
      "bullet": 5862,
      "Ġdirected": 5863,
      "Ġeasily": 5864,
      "ĠInc": 5865,
      "apse": 5866,
      "system": 5867,
      "multicolumn": 5868,
      "Ġow": 5869,
      "bitr": 5870,
      "61": 5871,
      "ĠTown": 5872,
      "74": 5873,
      "73": 5874,
      "Ġwoman": 5875,
      "Ġmut": 5876,
      "ĠPo": 5877,
      "Ġmeaning": 5878,
      "Ġbirth": 5879,
      "Ġsports": 5880,
      "Ġtrain": 5881,
      "device": 5882,
      "reme": 5883,
      "groupId": 5884,
      "fess": 5885,
      "IGN": 5886,
      "ailed": 5887,
      "Ġ{}": 5888,
      "Ġpressure": 5889,
      "Ġgovern": 5890,
      "Ġoffset": 5891,
      "Ġones": 5892,
      "Ġseven": 5893,
      "ĠMem": 5894,
      "83": 5895,
      "Direct": 5896,
      "BJ": 5897,
      "ĠGreat": 5898,
      "Ġstrategy": 5899,
      "atial": 5900,
      "Font": 5901,
      "rees": 5902,
      "ocation": 5903,
      "Op": 5904,
      "actor": 5905,
      "Ġnothing": 5906,
      "ctx": 5907,
      "onom": 5908,
      "Interface": 5909,
      "Ġplant": 5910,
      "Ġscheme": 5911,
      "ĠHen": 5912,
      "Ġasked": 5913,
      "Copy": 5914,
      "Ġappeared": 5915,
      "border": 5916,
      "token": 5917,
      "vector": 5918,
      "Ġbelieve": 5919,
      "Port": 5920,
      "ĠRobert": 5921,
      "Ġuseful": 5922,
      "Empty": 5923,
      "ĠAfrican": 5924,
      "Ġwriter": 5925,
      "Ġways": 5926,
      "ĠCreate": 5927,
      "ala": 5928,
      "Ġfactors": 5929,
      "ĠGames": 5930,
      "prod": 5931,
      "Ġinsp": 5932,
      "Ġrepe": 5933,
      "ĠCentral": 5934,
      "porary": 5935,
      "Ġdram": 5936,
      "Ġvan": 5937,
      "LS": 5938,
      "range": 5939,
      "Ġreach": 5940,
      "Theta": 5941,
      "Ġconstit": 5942,
      "ensus": 5943,
      "Ġextended": 5944,
      "Ġoperators": 5945,
      "CM": 5946,
      "ora": 5947,
      "Ġcategory": 5948,
      "Util": 5949,
      "Ġframework": 5950,
      "Change": 5951,
      "Ġrap": 5952,
      "icens": 5953,
      "Ġessential": 5954,
      "parameter": 5955,
      "}^{-": 5956,
      "Ġ$\\{": 5957,
      "dx": 5958,
      "Here": 5959,
      "Ġsen": 5960,
      "Ġadopt": 5961,
      "79": 5962,
      "inger": 5963,
      "Ġpurch": 5964,
      "ĠDE": 5965,
      "Ġbeginning": 5966,
      "Ġexam": 5967,
      "Params": 5968,
      "Ġbottom": 5969,
      "Ġslow": 5970,
      "Ġblue": 5971,
      "ĠAut": 5972,
      "Ġappears": 5973,
      "Ġparams": 5974,
      "Ġcop": 5975,
      "Ġculture": 5976,
      "rect": 5977,
      "Dat": 5978,
      "ĠHel": 5979,
      "xx": 5980,
      "iques": 5981,
      "high": 5982,
      "istan": 5983,
      "criptor": 5984,
      "km": 5985,
      "Ġgenerally": 5986,
      "Ġscope": 5987,
      "Ġchem": 5988,
      "ĠThomas": 5989,
      "ĠCarol": 5990,
      "scal": 5991,
      "Ġmiddle": 5992,
      "cribe": 5993,
      "Process": 5994,
      "Ġclassical": 5995,
      "69": 5996,
      "Ġwid": 5997,
      "azine": 5998,
      "ĠFore": 5999,
      "Ġscience": 6000,
      "Module": 6001,
      "81": 6002,
      "Ġhighest": 6003,
      "Ġforces": 6004,
      "Ġprep": 6005,
      "Ġdistributed": 6006,
      "deg": 6007,
      "ĠTor": 6008,
      "ĠProgram": 6009,
      "Ġcontinuous": 6010,
      "rong": 6011,
      "iller": 6012,
      "ette": 6013,
      "Ġuint": 6014,
      "abilities": 6015,
      "acement": 6016,
      "oplus": 6017,
      "Ġidentity": 6018,
      "ĠScott": 6019,
      "rial": 6020,
      "auge": 6021,
      "Ġchain": 6022,
      "Ġimprove": 6023,
      "SH": 6024,
      "icrosoft": 6025,
      "del": 6026,
      "ĠSmith": 6027,
      "Document": 6028,
      "bootstrap": 6029,
      "MO": 6030,
      "&#": 6031,
      ">,": 6032,
      "ĠWeb": 6033,
      "Ġrates": 6034,
      "Ġpadding": 6035,
      "Ġprice": 6036,
      "ression": 6037,
      "sect": 6038,
      "cles": 6039,
      "anned": 6040,
      "resource": 6041,
      "Local": 6042,
      "language": 6043,
      "uri": 6044,
      "ibly": 6045,
      "Stat": 6046,
      "SA": 6047,
      "COLOR": 6048,
      "icated": 6049,
      "Write": 6050,
      "fony": 6051,
      "1991": 6052,
      "ĠReturns": 6053,
      "DI": 6054,
      "El": 6055,
      "Ġrad": 6056,
      "Ġmedical": 6057,
      "VAL": 6058,
      "71": 6059,
      "Ġalt": 6060,
      "Settings": 6061,
      "before": 6062,
      "ita": 6063,
      "Ġability": 6064,
      "ĠGrand": 6065,
      "Ġbasic": 6066,
      "Track": 6067,
      "Sy": 6068,
      "alysis": 6069,
      "ĠCanadian": 6070,
      "ivial": 6071,
      "Ġcontaining": 6072,
      "ä¸": 6073,
      "ternet": 6074,
      "Ġleads": 6075,
      "writ": 6076,
      "dim": 6077,
      "\"))": 6078,
      "}},": 6079,
      "ymfony": 6080,
      "Menu": 6081,
      "Ġproduce": 6082,
      "XX": 6083,
      "tn": 6084,
      ":(": 6085,
      "ugins": 6086,
      "Ġ(-": 6087,
      "mi": 6088,
      "Pat": 6089,
      "Ġcelebr": 6090,
      "agon": 6091,
      "ART": 6092,
      "Option": 6093,
      "Ġderiv": 6094,
      "Ġfamilies": 6095,
      "WE": 6096,
      "ifold": 6097,
      "Ġvariety": 6098,
      "PT": 6099,
      "spect": 6100,
      "mitted": 6101,
      "Ġanti": 6102,
      "shift": 6103,
      "=(": 6104,
      "Ġprevent": 6105,
      "erg": 6106,
      "Ġcapital": 6107,
      "Ġchosen": 6108,
      "Ġprocesses": 6109,
      "ictor": 6110,
      "alo": 6111,
      "debug": 6112,
      "Ġhence": 6113,
      "Ġcurve": 6114,
      "black": 6115,
      "Ġinfin": 6116,
      "Ġstudent": 6117,
      "$_": 6118,
      "ĠMuseum": 6119,
      "Ġrepresented": 6120,
      "ĠKe": 6121,
      "Ġlegal": 6122,
      "\\'": 6123,
      "car": 6124,
      "Ġquestions": 6125,
      "Ġnet": 6126,
      "Ġstrict": 6127,
      "Ġepisode": 6128,
      "ĠLife": 6129,
      "Mult": 6130,
      "ĠWestern": 6131,
      "Ġapprop": 6132,
      "=-": 6133,
      "Connection": 6134,
      "Ġmaps": 6135,
      "ategories": 6136,
      "Ġlatter": 6137,
      "liament": 6138,
      "Ġderived": 6139,
      "auth": 6140,
      "Ġgreater": 6141,
      "Ġmis": 6142,
      "^{-\\": 6143,
      "Ġanim": 6144,
      "Ġmanufact": 6145,
      "cons": 6146,
      "Callback": 6147,
      "Ġbur": 6148,
      "ĠEnd": 6149,
      "Ġhighly": 6150,
      "ĠMinister": 6151,
      "Ġ$|": 6152,
      "lines": 6153,
      "aight": 6154,
      "Ġshared": 6155,
      "ipl": 6156,
      "Ġdiscussed": 6157,
      "ĠFrancis": 6158,
      "ĠJew": 6159,
      "Ġobservations": 6160,
      "Hash": 6161,
      "icons": 6162,
      "docs": 6163,
      "Ġreplaced": 6164,
      "Ġfinished": 6165,
      "Ġreached": 6166,
      "war": 6167,
      "Ġflux": 6168,
      "Record": 6169,
      "Ev": 6170,
      "arts": 6171,
      "Ġtherm": 6172,
      "ĠLat": 6173,
      "Ġcollabor": 6174,
      "ollowing": 6175,
      "255": 6176,
      "Ġhum": 6177,
      "ounds": 6178,
      "Ġcomparison": 6179,
      "{$": 6180,
      "Range": 6181,
      "ĠChristian": 6182,
      "Ġfavor": 6183,
      "ĠTur": 6184,
      "Ġeditor": 6185,
      "Ġsituation": 6186,
      "ĠCD": 6187,
      "oder": 6188,
      "Ġcompact": 6189,
      "Ġexamples": 6190,
      "Ġgrant": 6191,
      "ĠReview": 6192,
      "Ġinterview": 6193,
      "ĠMont": 6194,
      "Ġembedd": 6195,
      "Ġdeliver": 6196,
      "anta": 6197,
      "Am": 6198,
      "footnote": 6199,
      "ĠProject": 6200,
      "Ġclean": 6201,
      "Ġreceive": 6202,
      "Ġgenerate": 6203,
      "Ġneighbor": 6204,
      "Ġequip": 6205,
      "Ġattribute": 6206,
      "ĠModel": 6207,
      "Ġparticularly": 6208,
      "Ġwanted": 6209,
      "atre": 6210,
      "iger": 6211,
      "None": 6212,
      "ifest": 6213,
      "Ġpolynomial": 6214,
      "ĠIS": 6215,
      "ĠHistory": 6216,
      "Ġexactly": 6217,
      "hash": 6218,
      "Ġshift": 6219,
      "Ġslight": 6220,
      "Ġrepresents": 6221,
      "sv": 6222,
      "Ġperfect": 6223,
      "env": 6224,
      "Ġdead": 6225,
      "west": 6226,
      "avity": 6227,
      "had": 6228,
      "icago": 6229,
      "omorphism": 6230,
      "Ġleave": 6231,
      "duction": 6232,
      "atically": 6233,
      "Ġrelig": 6234,
      "umni": 6235,
      "Ġstated": 6236,
      "Ġconsequ": 6237,
      "transform": 6238,
      "ictionary": 6239,
      "Ġsteps": 6240,
      "ursor": 6241,
      "adius": 6242,
      "Down": 6243,
      "Ġpackage": 6244,
      "Ġelectric": 6245,
      "Ġactivities": 6246,
      "Ġmanager": 6247,
      "Ġgold": 6248,
      "lam": 6249,
      "ĠBig": 6250,
      "Inst": 6251,
      "ĠBank": 6252,
      "cur": 6253,
      "Ġ>=": 6254,
      "ĠOR": 6255,
      "room": 6256,
      "osing": 6257,
      "API": 6258,
      "\"));": 6259,
      "Ġtoken": 6260,
      "vest": 6261,
      "make": 6262,
      "Ġvertex": 6263,
      "definition": 6264,
      "Ġutil": 6265,
      "Left": 6266,
      "Ġ*)": 6267,
      "Match": 6268,
      "ĠĠĠĠĠĠĠĠĠĠĠĠĠĠĠĠĠĠĠĠĠ": 6269,
      "Ġtrade": 6270,
      "Ġeverything": 6271,
      "Ġsurvey": 6272,
      "Ġpen": 6273,
      "Ġassist": 6274,
      "arant": 6275,
      "ĠFrank": 6276,
      "Ġcompl": 6277,
      "ellar": 6278,
      "=\"/": 6279,
      "greg": 6280,
      "footer": 6281,
      "_+": 6282,
      "Ġtests": 6283,
      ";->": 6284,
      "atalog": 6285,
      "rot": 6286,
      "cp": 6287,
      "mode": 6288,
      "ĠJournal": 6289,
      "Ġsettings": 6290,
      "LI": 6291,
      "Ġter": 6292,
      "icks": 6293,
      "Ġincor": 6294,
      "Ġdataset": 6295,
      "attice": 6296,
      "ĠCre": 6297,
      "Ġ['": 6298,
      "Ġgreen": 6299,
      "ĠHamilton": 6300,
      "ĠYour": 6301,
      "ĠStar": 6302,
      "orial": 6303,
      "Ġtraditional": 6304,
      "Ġthreat": 6305,
      "ĠAv": 6306,
      "ĠBG": 6307,
      "Ġremaining": 6308,
      "ALL": 6309,
      "Properties": 6310,
      "tains": 6311,
      "Ġweeks": 6312,
      "even": 6313,
      "Ġshowed": 6314,
      "Ġanything": 6315,
      "coming": 6316,
      "udd": 6317,
      "ĠVirgin": 6318,
      "coll": 6319,
      "Ġcompletely": 6320,
      "oration": 6321,
      "Ġbey": 6322,
      "setminus": 6323,
      ")|": 6324,
      "osh": 6325,
      "ĠCath": 6326,
      "Ġdigital": 6327,
      "PECT": 6328,
      "ĠAlso": 6329,
      "Dep": 6330,
      "Ġlisted": 6331,
      "Results": 6332,
      "success": 6333,
      "'],": 6334,
      "rome": 6335,
      "Ġbrought": 6336,
      "Ġmeasured": 6337,
      "DIR": 6338,
      "Dir": 6339,
      "ewidth": 6340,
      "ynamic": 6341,
      "}}_{": 6342,
      "Ġenjoy": 6343,
      "Ġlib": 6344,
      "Ġorganization": 6345,
      "ensions": 6346,
      "Ġfriends": 6347,
      "asketball": 6348,
      "isl": 6349,
      "PL": 6350,
      ":\\": 6351,
      "Ġbeyond": 6352,
      "while": 6353,
      "Ġmotion": 6354,
      "UM": 6355,
      "ĠZeal": 6356,
      "NavBar": 6357,
      "Ġexc": 6358,
      "ĠMap": 6359,
      "anda": 6360,
      "aws": 6361,
      "Ġdatabase": 6362,
      "Ġspaces": 6363,
      "Ġinterpret": 6364,
      "ĠRun": 6365,
      "Ġ($\\": 6366,
      "Ġcivil": 6367,
      "Ġexpansion": 6368,
      "Prot": 6369,
      "Ġtrying": 6370,
      "Ġdaughter": 6371,
      "df": 6372,
      "uan": 6373,
      "olf": 6374,
      "bind": 6375,
      "Ġsignificantly": 6376,
      "Ġprojects": 6377,
      "Ġaffect": 6378,
      "oting": 6379,
      "Ġconcent": 6380,
      "component": 6381,
      "ĠCamp": 6382,
      "Ġdiagram": 6383,
      "Ġgoes": 6384,
      "ban": 6385,
      "Ġraise": 6386,
      "direct": 6387,
      "Ġreduce": 6388,
      "ĠFoundation": 6389,
      "iant": 6390,
      "asure": 6391,
      "ĠCheck": 6392,
      "ĠUnder": 6393,
      "annels": 6394,
      "Ġidentified": 6395,
      "ror": 6396,
      "ĠJapanese": 6397,
      "ĠSecond": 6398,
      "Ġbounded": 6399,
      "Tests": 6400,
      "Ġleague": 6401,
      "ĠGL": 6402,
      "Ġpert": 6403,
      "ech": 6404,
      "Ġestimated": 6405,
      "Ġarbitr": 6406,
      "white": 6407,
      "Ġagreement": 6408,
      "cope": 6409,
      "Use": 6410,
      "ĠKingdom": 6411,
      "thlet": 6412,
      "ĠSun": 6413,
      "Ġpull": 6414,
      "Ġnearly": 6415,
      "Ġfemale": 6416,
      "ĠBill": 6417,
      "aved": 6418,
      "afe": 6419,
      "ĠJose": 6420,
      "ĠException": 6421,
      "'m": 6422,
      "house": 6423,
      "oute": 6424,
      "Red": 6425,
      "ipe": 6426,
      "ournament": 6427,
      "Ġassess": 6428,
      "ĠCommission": 6429,
      "ĠZealand": 6430,
      "Ġdynamics": 6431,
      "delete": 6432,
      "\\}": 6433,
      "uls": 6434,
      "reland": 6435,
      "ker": 6436,
      "Ġimmediately": 6437,
      "internal": 6438,
      "Ġconsists": 6439,
      "join": 6440,
      "Ġkilled": 6441,
      "ĠVer": 6442,
      "Ġsynt": 6443,
      "flict": 6444,
      "Serial": 6445,
      "():": 6446,
      "Ġstraight": 6447,
      "EQ": 6448,
      "Ġhope": 6449,
      "Ġprograms": 6450,
      "endar": 6451,
      "cz": 6452,
      "Order": 6453,
      "Ġlock": 6454,
      "ĠLong": 6455,
      "Ġfoot": 6456,
      "Ġrelevant": 6457,
      "Ġextract": 6458,
      "inem": 6459,
      "Ġcoach": 6460,
      "render": 6461,
      "Session": 6462,
      "Ġxml": 6463,
      "sur": 6464,
      "ĠPlay": 6465,
      "Ġgets": 6466,
      "1960": 6467,
      "Ġtra": 6468,
      "rey": 6469,
      "apped": 6470,
      "ĠRock": 6471,
      "Async": 6472,
      "Ġnetworks": 6473,
      "ĠTHE": 6474,
      "Ġlives": 6475,
      "ĠLouis": 6476,
      "ĠRel": 6477,
      "rolled": 6478,
      "ilarly": 6479,
      "iciency": 6480,
      "ĠMo": 6481,
      "ropy": 6482,
      "Ġinteger": 6483,
      "Ġoffers": 6484,
      "Ġparticle": 6485,
      "ady": 6486,
      "ĠFlor": 6487,
      "Cal": 6488,
      "ĠAcademy": 6489,
      "=#": 6490,
      "Ġvisual": 6491,
      "Ġundefined": 6492,
      "Ġ\\;": 6493,
      "pers": 6494,
      "irus": 6495,
      "Ġtit": 6496,
      "ĠBase": 6497,
      "Collection": 6498,
      "Pass": 6499,
      "azz": 6500,
      "ja": 6501,
      "Ġmovie": 6502,
      "akers": 6503,
      "ĠTwo": 6504,
      "ĠGener": 6505,
      "Ġdecided": 6506,
      "Ġimplementation": 6507,
      "eries": 6508,
      "structor": 6509,
      "Ġradius": 6510,
      "ishes": 6511,
      "interface": 6512,
      "Ġlibrary": 6513,
      "inf": 6514,
      "ometric": 6515,
      "Ġformula": 6516,
      "igan": 6517,
      "Ġplaced": 6518,
      "Ġ\"\\": 6519,
      "ĠFurther": 6520,
      "Ġ${": 6521,
      "ĠKore": 6522,
      "Ġexperiments": 6523,
      "Ġplot": 6524,
      "ĠMel": 6525,
      "bing": 6526,
      "Ġscatter": 6527,
      "1989": 6528,
      "Ġmeeting": 6529,
      "ĠTop": 6530,
      "Ġseek": 6531,
      "Schema": 6532,
      "Ġecho": 6533,
      "Ġprotect": 6534,
      "Ġdisease": 6535,
      "ĠWomen": 6536,
      "Ġearn": 6537,
      "Ġmovement": 6538,
      "faces": 6539,
      "dagger": 6540,
      "Ġtemplate": 6541,
      "Ġoccup": 6542,
      "Ġscript": 6543,
      "ariable": 6544,
      "Ġformation": 6545,
      "copy": 6546,
      "Ġpartners": 6547,
      "ĠGovernment": 6548,
      "Ne": 6549,
      "rad": 6550,
      "access": 6551,
      "Ġleader": 6552,
      "click": 6553,
      "step": 6554,
      "ipal": 6555,
      "limits": 6556,
      "Ġresolution": 6557,
      "Ġoverride": 6558,
      "ella": 6559,
      "Ġdrug": 6560,
      "Ġcompute": 6561,
      "Ġbeaut": 6562,
      "Ġfourth": 6563,
      "Ġparticles": 6564,
      "ĠTimes": 6565,
      "Ġdepends": 6566,
      "types": 6567,
      "Ġsimpl": 6568,
      "Non": 6569,
      "uations": 6570,
      "ixel": 6571,
      "Sign": 6572,
      "ĠMost": 6573,
      "Ġcos": 6574,
      "Sk": 6575,
      "Ġcontrast": 6576,
      "po": 6577,
      "Ġunknown": 6578,
      "Ġactions": 6579,
      "Ġtesting": 6580,
      "DS": 6581,
      "=\"_": 6582,
      "Ġminim": 6583,
      "shire": 6584,
      "Tim": 6585,
      "Ġartists": 6586,
      "ture": 6587,
      "leep": 6588,
      "Ġenh": 6589,
      "Ġjav": 6590,
      "ĠÎ": 6591,
      "ĠDen": 6592,
      "itation": 6593,
      "send": 6594,
      "ĠBoard": 6595,
      "kl": 6596,
      "Ġcaused": 6597,
      "Ġeconomic": 6598,
      "Ġpor": 6599,
      "ĠIsra": 6600,
      "bigg": 6601,
      "req": 6602,
      "Ġconvert": 6603,
      "ĠLos": 6604,
      "Ġeventually": 6605,
      "Ġremoved": 6606,
      "Ġartist": 6607,
      "Ġpolar": 6608,
      "Ġfilename": 6609,
      "Ġ$[": 6610,
      "erc": 6611,
      "Pop": 6612,
      "STR": 6613,
      "ĠHill": 6614,
      "ĠDate": 6615,
      "Ġapproximately": 6616,
      "aming": 6617,
      "Ġconsistent": 6618,
      "Ġcontribution": 6619,
      "TER": 6620,
      "ĠAssembly": 6621,
      "ĠItalian": 6622,
      "Ġmatches": 6623,
      "onds": 6624,
      "Ġplane": 6625,
      "Ġinfo": 6626,
      "ĠPeter": 6627,
      "oggle": 6628,
      "hesis": 6629,
      "Ġgalaxies": 6630,
      "Ġmoving": 6631,
      "ologies": 6632,
      "Ġpark": 6633,
      "wedge": 6634,
      "Ġsometimes": 6635,
      "cut": 6636,
      "1988": 6637,
      "address": 6638,
      "Ġdestroy": 6639,
      "================================": 6640,
      "ws": 6641,
      "eds": 6642,
      "ifies": 6643,
      "Ġhash": 6644,
      "Ġspent": 6645,
      "Ġsquare": 6646,
      "Ptr": 6647,
      "ĠUs": 6648,
      "inder": 6649,
      "Ġmentioned": 6650,
      "Long": 6651,
      "Ġsecret": 6652,
      "ĠRussia": 6653,
      "tribution": 6654,
      "toString": 6655,
      "Store": 6656,
      "Ġlatest": 6657,
      "ĠStep": 6658,
      "ĠCall": 6659,
      "Ġshot": 6660,
      "uty": 6661,
      "ĠUkr": 6662,
      "Ġsomeone": 6663,
      "Ġbus": 6664,
      "dest": 6665,
      "Ġgeneration": 6666,
      "zero": 6667,
      "asy": 6668,
      "ifications": 6669,
      "However": 6670,
      "UP": 6671,
      ":\"": 6672,
      "onder": 6673,
      "~~~~": 6674,
      "ĠMass": 6675,
      "ervation": 6676,
      "Ġcook": 6677,
      "Ġisn": 6678,
      "ĠRecords": 6679,
      "reedom": 6680,
      "media": 6681,
      "Ġharm": 6682,
      "Ġspread": 6683,
      "apers": 6684,
      "Ġemail": 6685,
      "Art": 6686,
      "colon": 6687,
      "Ġeast": 6688,
      "itiz": 6689,
      "Ġpret": 6690,
      "ĠHistor": 6691,
      "product": 6692,
      "Integer": 6693,
      "ji": 6694,
      "ĠMax": 6695,
      "Ġroute": 6696,
      "_*": 6697,
      "Ġworth": 6698,
      "ĠField": 6699,
      "Ġstories": 6700,
      "ĠCharles": 6701,
      "esh": 6702,
      "Ø§": 6703,
      "Ġdou": 6704,
      "iral": 6705,
      "ien": 6706,
      "Ġoccur": 6707,
      "Ġoptimal": 6708,
      "icker": 6709,
      "Ac": 6710,
      "Ġemission": 6711,
      "irmed": 6712,
      "Ġfounded": 6713,
      "astern": 6714,
      "ato": 6715,
      "urren": 6716,
      "ĠGen": 6717,
      "NE": 6718,
      "Ġdemand": 6719,
      "mos": 6720,
      "Ġfair": 6721,
      "aligned": 6722,
      "'ve": 6723,
      "Ġdistinct": 6724,
      "global": 6725,
      "ĠNetwork": 6726,
      "eve": 6727,
      "ollary": 6728,
      "Ġnoted": 6729,
      "Ġclin": 6730,
      "full": 6731,
      "###": 6732,
      "sort": 6733,
      "Ġgun": 6734,
      "Ġaccuracy": 6735,
      "Ġplays": 6736,
      "Ġmaster": 6737,
      "ĠKey": 6738,
      "Ġamb": 6739,
      "Ġquarter": 6740,
      "hom": 6741,
      "ĠCON": 6742,
      "Ġinner": 6743,
      "Ġlaun": 6744,
      "Ġrecords": 6745,
      "PH": 6746,
      "icine": 6747,
      "linewidth": 6748,
      "icity": 6749,
      "ellig": 6750,
      "Ġpurpose": 6751,
      "Ġmeasures": 6752,
      "Mark": 6753,
      "Ġtouch": 6754,
      "Ġaspect": 6755,
      "Ġcompetition": 6756,
      "Ġsatisfies": 6757,
      "imin": 6758,
      "Ġcollege": 6759,
      "Expression": 6760,
      "Ġsave": 6761,
      "organ": 6762,
      "ĠKn": 6763,
      "ifically": 6764,
      "Ġcommercial": 6765,
      "ĠLand": 6766,
      "While": 6767,
      "DL": 6768,
      "Ġdetection": 6769,
      "arc": 6770,
      "Ġapproximation": 6771,
      "Ġagent": 6772,
      "tf": 6773,
      "ald": 6774,
      "Ġwest": 6775,
      "vas": 6776,
      "itors": 6777,
      "Ġcapacity": 6778,
      "_{{\\": 6779,
      "Ġ$-": 6780,
      "ads": 6781,
      "ĠDirector": 6782,
      "Sum": 6783,
      "Ġsurround": 6784,
      "ĠParis": 6785,
      "vey": 6786,
      "Ġcorn": 6787,
      "ĠBusiness": 6788,
      "Ġliterature": 6789,
      "Ġquickly": 6790,
      "Ã³n": 6791,
      "Ġwind": 6792,
      "ĠRail": 6793,
      "Ġparents": 6794,
      "panel": 6795,
      "sych": 6796,
      "mut": 6797,
      "ulk": 6798,
      "ĠTrue": 6799,
      "ĠRichard": 6800,
      "Ġthread": 6801,
      "Ġsafety": 6802,
      "Helper": 6803,
      "Ġauthors": 6804,
      "(:": 6805,
      "ĠAlthough": 6806,
      "Title": 6807,
      "material": 6808,
      "),\\": 6809,
      "Ġminor": 6810,
      "dule": 6811,
      "Ġgiving": 6812,
      "Impl": 6813,
      "ynchron": 6814,
      "Ġplans": 6815,
      "Ġjoint": 6816,
      "'\\": 6817,
      "blockList": 6818,
      "Ġassign": 6819,
      "msg": 6820,
      "Ġmachine": 6821,
      "erry": 6822,
      "Ġexperimental": 6823,
      "ĠEqu": 6824,
      "ĠCommittee": 6825,
      "Ġmolec": 6826,
      "Ġheavy": 6827,
      "aser": 6828,
      "ĠBi": 6829,
      "ĠIts": 6830,
      "orning": 6831,
      "hover": 6832,
      "ĠTre": 6833,
      "Ġscene": 6834,
      "ĠCam": 6835,
      "ĠSund": 6836,
      "Ġpriv": 6837,
      "Ġsummer": 6838,
      "Vector": 6839,
      "Ġgrand": 6840,
      "ĠChicago": 6841,
      "Su": 6842,
      "Ġsaying": 6843,
      "ket": 6844,
      "ader": 6845,
      "Ġbranch": 6846,
      "Ġelected": 6847,
      "ircraft": 6848,
      "gorithms": 6849,
      "contin": 6850,
      "Tool": 6851,
      "arl": 6852,
      "Ġadvant": 6853,
      "plugin": 6854,
      "ĠEXPECT": 6855,
      "ĠĠĠĠĠĠĊ": 6856,
      "exports": 6857,
      "Ġfraction": 6858,
      "Ġpoly": 6859,
      "1987": 6860,
      "Ġbrief": 6861,
      "agraph": 6862,
      "ĠTim": 6863,
      "Ġmeasurements": 6864,
      "Ġinfluence": 6865,
      "Ġsymmetry": 6866,
      "Application": 6867,
      "Reference": 6868,
      "WS": 6869,
      "ĠTrump": 6870,
      "ĠEducation": 6871,
      "venue": 6872,
      "160": 6873,
      "Ġenter": 6874,
      "ORT": 6875,
      "Ġexternal": 6876,
      "ĠBGCOLOR": 6877,
      "Ġtransaction": 6878,
      "poses": 6879,
      "ola": 6880,
      "orter": 6881,
      "rs": 6882,
      "Ġ|\\": 6883,
      "Ġseparate": 6884,
      "MC": 6885,
      "Ġdecom": 6886,
      "Ġinform": 6887,
      "'_": 6888,
      "Ġangle": 6889,
      "elled": 6890,
      "Ġproviding": 6891,
      "virt": 6892,
      "-->": 6893,
      "UB": 6894,
      "Ġgoals": 6895,
      "ved": 6896,
      "enty": 6897,
      "ĠMath": 6898,
      "Ġturned": 6899,
      "ĠIll": 6900,
      "ĠSummer": 6901,
      "Ġprefer": 6902,
      "Ġ})": 6903,
      "Ġimag": 6904,
      "These": 6905,
      "Ġcalculated": 6906,
      "ĠCongress": 6907,
      "ULT": 6908,
      "Ġwaves": 6909,
      "oral": 6910,
      "Que": 6911,
      "Ġcalls": 6912,
      "amm": 6913,
      "Ġindividuals": 6914,
      "Ġalbums": 6915,
      "Names": 6916,
      "allery": 6917,
      "Ġmur": 6918,
      "iffer": 6919,
      "yan": 6920,
      "Ġinequality": 6921,
      ";/": 6922,
      "equals": 6923,
      "Iter": 6924,
      "ĠProposition": 6925,
      "Ġguitar": 6926,
      "Ġsimulations": 6927,
      "Template": 6928,
      "astr": 6929,
      "ĠEngine": 6930,
      "Ġcommunities": 6931,
      "ERROR": 6932,
      "Ġcomputer": 6933,
      "*{": 6934,
      "category": 6935,
      "seud": 6936,
      "legal": 6937,
      "Ġpoor": 6938,
      "Ġappointed": 6939,
      "Ġcloud": 6940,
      "Ġdetail": 6941,
      "Ġstack": 6942,
      "Ġnom": 6943,
      "ĠAust": 6944,
      "Ġdu": 6945,
      "Ġloop": 6946,
      "results": 6947,
      "Ġsch": 6948,
      "Ġopening": 6949,
      "ĠLake": 6950,
      "ĠMethod": 6951,
      "Ġdual": 6952,
      "olid": 6953,
      "GE": 6954,
      "fram": 6955,
      "ĠAtl": 6956,
      "ĠFlorida": 6957,
      "Ġdisk": 6958,
      "Ġsites": 6959,
      "Ġprocedure": 6960,
      "Comple": 6961,
      "ĠFootball": 6962,
      "icients": 6963,
      "hens": 6964,
      "focus": 6965,
      "ĠAngeles": 6966,
      "ested": 6967,
      "coq": 6968,
      "isher": 6969,
      "Ġgauge": 6970,
      "Ġincreases": 6971,
      "Ġcarry": 6972,
      "aver": 6973,
      "Ġnumerical": 6974,
      "fields": 6975,
      "Ġbrand": 6976,
      "Sw": 6977,
      "Ġclust": 6978,
      "Ġbuildings": 6979,
      "Ġintr": 6980,
      "Main": 6981,
      "Ġexistence": 6982,
      "Num": 6983,
      "ATH": 6984,
      "Ġcontainer": 6985,
      "ĠFace": 6986,
      "Ġli": 6987,
      "Icon": 6988,
      "ĠOrder": 6989,
      "ĠSil": 6990,
      "TV": 6991,
      "coin": 6992,
      "Api": 6993,
      "igration": 6994,
      "clear": 6995,
      "Ġedges": 6996,
      "cf": 6997,
      "ĠEach": 6998,
      "Ġconstraints": 6999,
      "Parent": 7000,
      "session": 7001,
      "kin": 7002,
      "eler": 7003,
      "ĠIreland": 7004,
      "razil": 7005,
      "Ġ\\(": 7006,
      "ĠMil": 7007,
      "Ġcandidate": 7008,
      "Parameters": 7009,
      "anging": 7010,
      "padding": 7011,
      "ĠGeorg": 7012,
      "Ġdelete": 7013,
      "ĠAssert": 7014,
      "Ġstrateg": 7015,
      "Ġsal": 7016,
      "subfigure": 7017,
      "estamp": 7018,
      "custom": 7019,
      "mazon": 7020,
      "Ġeveryone": 7021,
      "Ġmomentum": 7022,
      "Each": 7023,
      "Ġoriginally": 7024,
      "150": 7025,
      "Figure": 7026,
      "Ġcombination": 7027,
      "Device": 7028,
      "Ð°Ð": 7029,
      "Ġappropriate": 7030,
      "EC": 7031,
      "OM": 7032,
      "help": 7033,
      "ĠPan": 7034,
      "Click": 7035,
      "BR": 7036,
      "_{-": 7037,
      "roduction": 7038,
      "TC": 7039,
      "1986": 7040,
      "Render": 7041,
      "bel": 7042,
      "SION": 7043,
      "settings": 7044,
      "Ġcert": 7045,
      "Operation": 7046,
      "Host": 7047,
      "ĠHence": 7048,
      "ults": 7049,
      "ĠOffice": 7050,
      "Rect": 7051,
      "vision": 7052,
      "}}(\\": 7053,
      "Ġmajority": 7054,
      "Ġreflect": 7055,
      "SL": 7056,
      "ĠShow": 7057,
      "nel": 7058,
      "export": 7059,
      "Ġcombined": 7060,
      "Ver": 7061,
      "oday": 7062,
      "ĠMoreover": 7063,
      "ĠForce": 7064,
      "ĠName": 7065,
      "Ġidentify": 7066,
      "hab": 7067,
      "Ġspectral": 7068,
      "Ã¨": 7069,
      "undred": 7070,
      "Other": 7071,
      "arian": 7072,
      "ĠSocial": 7073,
      "olves": 7074,
      "Ġonto": 7075,
      "Ġvertices": 7076,
      ")}(": 7077,
      "Ġcorresponds": 7078,
      "Ġtheore": 7079,
      "Ã§": 7080,
      "Ġbrother": 7081,
      "etry": 7082,
      "owers": 7083,
      "Ġsimulation": 7084,
      "Exp": 7085,
      "Äģ": 7086,
      "email": 7087,
      "Any": 7088,
      "Ġcompare": 7089,
      "1984": 7090,
      "install": 7091,
      "disabled": 7092,
      "andemic": 7093,
      "modules": 7094,
      "Metadata": 7095,
      "phone": 7096,
      "ĠRequ": 7097,
      "ĠLib": 7098,
      "Ġcreating": 7099,
      "Ġsurpr": 7100,
      "dependency": 7101,
      "asi": 7102,
      "Ġvoice": 7103,
      "Ġmission": 7104,
      "ĠGame": 7105,
      "Ġut": 7106,
      "Ġcouple": 7107,
      "haps": 7108,
      "ĠUse": 7109,
      "iders": 7110,
      "posite": 7111,
      "ĠDu": 7112,
      "ko": 7113,
      "Ġacadem": 7114,
      "neg": 7115,
      "Core": 7116,
      "mann": 7117,
      "Classes": 7118,
      "Ġflag": 7119,
      "udget": 7120,
      "ĠĠĠĠĠĠĠĠĠĠĠĠĠĠĠĠĠĠĠĠ": 7121,
      "ancing": 7122,
      "ĠBas": 7123,
      "Section": 7124,
      "ORD": 7125,
      "osis": 7126,
      "ĠEarth": 7127,
      "Ġmixed": 7128,
      "weet": 7129,
      "ipeline": 7130,
      "Ġworkers": 7131,
      "Ġunivers": 7132,
      "ĠBrown": 7133,
      "cknow": 7134,
      ";\"": 7135,
      "ĠVictor": 7136,
      "zing": 7137,
      "!!": 7138,
      "uple": 7139,
      "Ġreports": 7140,
      "ĠPet": 7141,
      "ĠTem": 7142,
      ";<": 7143,
      "Ġcorrelation": 7144,
      "GET": 7145,
      "Invalid": 7146,
      "Symfony": 7147,
      "Ġshoot": 7148,
      "Has": 7149,
      "obs": 7150,
      "oded": 7151,
      "framework": 7152,
      "ĠArts": 7153,
      "ĠBur": 7154,
      "onald": 7155,
      "Ġcool": 7156,
      "MD": 7157,
      "Ġdomin": 7158,
      "Ġprotocol": 7159,
      "ĠOh": 7160,
      "ustain": 7161,
      "Ġstrength": 7162,
      "exception": 7163,
      "ĠCast": 7164,
      "mc": 7165,
      "Found": 7166,
      "perp": 7167,
      "cases": 7168,
      "short": 7169,
      "Ġspatial": 7170,
      "Cor": 7171,
      "}%": 7172,
      ">();": 7173,
      "'.": 7174,
      "ĠLine": 7175,
      "1985": 7176,
      ",\\,": 7177,
      "sto": 7178,
      "Ġremov": 7179,
      "Ġvacc": 7180,
      "hem": 7181,
      "_{(": 7182,
      "ĠPenn": 7183,
      "Obj": 7184,
      "ny": 7185,
      "Il": 7186,
      "ĠSpr": 7187,
      "Ġamplit": 7188,
      "alg": 7189,
      "'ll": 7190,
      "riend": 7191,
      "Ġcache": 7192,
      "ean": 7193,
      "handle": 7194,
      "Draw": 7195,
      "anks": 7196,
      "AND": 7197,
      "Ġstations": 7198,
      "ogene": 7199,
      "Ġcoupling": 7200,
      "Ġsegment": 7201,
      "fn": 7202,
      "rices": 7203,
      "Ġprem": 7204,
      "ĠBre": 7205,
      "OK": 7206,
      "widget": 7207,
      "Values": 7208,
      "Ġheader": 7209,
      "rate": 7210,
      "ĠDevelopment": 7211,
      "Ġpairs": 7212,
      "ĠFre": 7213,
      "kins": 7214,
      "Ġ{};": 7215,
      "comment": 7216,
      "imensions": 7217,
      "va": 7218,
      "holder": 7219,
      "found": 7220,
      "wa": 7221,
      "Ġunderstanding": 7222,
      "bu": 7223,
      "}$-": 7224,
      "ĠMedia": 7225,
      "Ġtensor": 7226,
      "ĠTeam": 7227,
      "double": 7228,
      "Ġtechniques": 7229,
      "Ġpan": 7230,
      "ĠDet": 7231,
      "uce": 7232,
      "Ġtools": 7233,
      "Ġnative": 7234,
      "ĠĠĠĠĠĠĠĠĠĠĠĠĠĠĠĠĠĠ": 7235,
      "hs": 7236,
      "vm": 7237,
      "Ġer": 7238,
      "rich": 7239,
      "ĠĠĠĠĠĠĠĠĠĠĠĠĠĠĠĠĠĠĠĠĠĠĠĠĠĠĠĠĠĠĠĠĠĠĠĠĠĠĠ": 7240,
      "ĠPeople": 7241,
      "TED": 7242,
      "shot": 7243,
      "store": 7244,
      "ĠMexico": 7245,
      "Ġefficient": 7246,
      "Ġsampl": 7247,
      "ĠMur": 7248,
      "Ġtor": 7249,
      "ĠChild": 7250,
      "webkit": 7251,
      "Ġicon": 7252,
      "Ġpri": 7253,
      "Ġfif": 7254,
      "annotation": 7255,
      "Ġpoll": 7256,
      "Ġtypically": 7257,
      "cloud": 7258,
      "ĠOp": 7259,
      "Ġhop": 7260,
      "Ġmaterials": 7261,
      ")\\,": 7262,
      "utch": 7263,
      "ĠCatholic": 7264,
      "ĠVirginia": 7265,
      "GS": 7266,
      ")^{\\": 7267,
      "hemat": 7268,
      "Ġbinary": 7269,
      "Ġunion": 7270,
      "Ġassumption": 7271,
      "forms": 7272,
      "Ġdrive": 7273,
      "Ġdepth": 7274,
      "Ġstable": 7275,
      "Ġroll": 7276,
      "Ġbuy": 7277,
      "ira": 7278,
      "Ġserve": 7279,
      "ima": 7280,
      "Ġcalc": 7281,
      ">.": 7282,
      "Ġwor": 7283,
      "ĠPubl": 7284,
      "ali": 7285,
      "Ġpush": 7286,
      "plugins": 7287,
      "urred": 7288,
      "ORM": 7289,
      "Ġdiscussion": 7290,
      "ona": 7291,
      "Ġopportunity": 7292,
      "Ġflat": 7293,
      "Ġhidden": 7294,
      "nections": 7295,
      "Ġserious": 7296,
      "ĠHot": 7297,
      "ga": 7298,
      "lig": 7299,
      "Ġcycle": 7300,
      "Ġresponsible": 7301,
      "Ġtasks": 7302,
      "Ġeth": 7303,
      "Package": 7304,
      "defined": 7305,
      "Ġcritic": 7306,
      "ĠAR": 7307,
      "Ġstorage": 7308,
      "Sing": 7309,
      "Ġconstructed": 7310,
      "irls": 7311,
      "Ġclimate": 7312,
      "dist": 7313,
      "Ġwinning": 7314,
      "Ġmostly": 7315,
      "vol": 7316,
      "Ġparse": 7317,
      "=\"../../../": 7318,
      "Ġpositions": 7319,
      "ĠMad": 7320,
      "Ġhydro": 7321,
      "ĠSpanish": 7322,
      "ĠFilm": 7323,
      "ĠAtt": 7324,
      "roph": 7325,
      "Ġfootballers": 7326,
      "Ġfarm": 7327,
      "byte": 7328,
      "power": 7329,
      "andra": 7330,
      "Ġring": 7331,
      "Ġrelatively": 7332,
      "120": 7333,
      "ĠJul": 7334,
      "Ġtraff": 7335,
      "Reader": 7336,
      "Ġsea": 7337,
      "bits": 7338,
      "Ġbyte": 7339,
      "Ġpiece": 7340,
      "Ġdespite": 7341,
      "ĠLi": 7342,
      "Ġsector": 7343,
      "lie": 7344,
      "shall": 7345,
      "rames": 7346,
      "ĠTour": 7347,
      "ums": 7348,
      "Stack": 7349,
      "Ġcarried": 7350,
      "\")]": 7351,
      "Ġencour": 7352,
      "ĠFestival": 7353,
      "Ġcancer": 7354,
      "forall": 7355,
      "iro": 7356,
      "connect": 7357,
      "'>": 7358,
      "Ġ+\\": 7359,
      "CI": 7360,
      "Ġfans": 7361,
      "aren": 7362,
      "equal": 7363,
      "care": 7364,
      "Ġrout": 7365,
      "Ġextrem": 7366,
      "John": 7367,
      "ĠSecret": 7368,
      "LP": 7369,
      "Ġfine": 7370,
      "Ġcomputed": 7371,
      "Ġlattice": 7372,
      "Ġanswer": 7373,
      "udio": 7374,
      "Ġalumni": 7375,
      "elli": 7376,
      "Ġinvoke": 7377,
      "La": 7378,
      "clusive": 7379,
      "iana": 7380,
      "Ġclearly": 7381,
      "ĠNOT": 7382,
      "peed": 7383,
      "Ġarbitrary": 7384,
      "Ġintegral": 7385,
      "amental": 7386,
      "ĠLO": 7387,
      "ova": 7388,
      "Ġlaunch": 7389,
      "Ġslightly": 7390,
      "lers": 7391,
      "Ġshowing": 7392,
      "pute": 7393,
      "ĠGood": 7394,
      "agnost": 7395,
      "Ġtrust": 7396,
      "record": 7397,
      "ups": 7398,
      "Dom": 7399,
      "Ġthreshold": 7400,
      "Ġwrong": 7401,
      "Ġlaunched": 7402,
      "Ġstock": 7403,
      "Ġdirectory": 7404,
      "Ġformal": 7405,
      "points": 7406,
      "Handle": 7407,
      "ĠJSON": 7408,
      "Ġapproaches": 7409,
      "Ġdecay": 7410,
      "ĠPy": 7411,
      "Ġ}\\": 7412,
      "replace": 7413,
      "Eq": 7414,
      "Var": 7415,
      "Ġannual": 7416,
      "ĠYoung": 7417,
      "Show": 7418,
      "Boolean": 7419,
      "Ġiniti": 7420,
      "Ġcoefficients": 7421,
      "Ġblood": 7422,
      "Definition": 7423,
      "ĠMartin": 7424,
      "Args": 7425,
      "Ġrestrict": 7426,
      "ester": 7427,
      "ockey": 7428,
      "Ġfirm": 7429,
      "unct": 7430,
      "Ġowner": 7431,
      "Year": 7432,
      "ĠUSA": 7433,
      "enter": 7434,
      "stat": 7435,
      "miss": 7436,
      "Ġwild": 7437,
      "ĠHTML": 7438,
      "acket": 7439,
      "ĠCommun": 7440,
      "ications": 7441,
      "Ġvoc": 7442,
      "insert": 7443,
      "asion": 7444,
      "False": 7445,
      "fly": 7446,
      "Ġupdated": 7447,
      "Ġpropag": 7448,
      "romise": 7449,
      "Ġ$.": 7450,
      "application": 7451,
      "Argument": 7452,
      "Ġfeatured": 7453,
      "AME": 7454,
      "pool": 7455,
      "Ġmask": 7456,
      "mic": 7457,
      "ĠServices": 7458,
      "Ġphen": 7459,
      "region": 7460,
      "1983": 7461,
      "Ġthr": 7462,
      "1950": 7463,
      ")_{": 7464,
      "ĠOl": 7465,
      "isters": 7466,
      "hy": 7467,
      "Person": 7468,
      "Ġremained": 7469,
      "?âĢĿ": 7470,
      "ĠVis": 7471,
      "Ġdevices": 7472,
      "look": 7473,
      "ĠHenry": 7474,
      "fully": 7475,
      "ĠUser": 7476,
      "ĠReport": 7477,
      "onym": 7478,
      "picture": 7479,
      "Ġdifferences": 7480,
      "Delete": 7481,
      "----------------------------------------------------------------": 7482,
      "Hz": 7483,
      "ĠBet": 7484,
      "ĠOlympics": 7485,
      "ĠEvent": 7486,
      "ĠIP": 7487,
      "Ġestimates": 7488,
      "subsubsection": 7489,
      "ati": 7490,
      "Ġanc": 7491,
      "Ġinterval": 7492,
      "ĠCarolina": 7493,
      "Ġaxis": 7494,
      "auto": 7495,
      "Parser": 7496,
      "Ġos": 7497,
      "Ġhar": 7498,
      "icies": 7499,
      "effect": 7500,
      "rip": 7501,
      "Ġefforts": 7502,
      "Ġpure": 7503,
      "Body": 7504,
      "pay": 7505,
      "Ġbroadcast": 7506,
      "Ġarm": 7507,
      "}^*": 7508,
      "ĠLove": 7509,
      "}\"": 7510,
      "ĠLibrary": 7511,
      "Ġscored": 7512,
      "ĠView": 7513,
      "HTML": 7514,
      "Ġfederal": 7515,
      "CTION": 7516,
      "Ġvac": 7517,
      "Ġpages": 7518,
      "ĠProfess": 7519,
      "Ġclassification": 7520,
      "Ġcontributions": 7521,
      "Ġul": 7522,
      "Ġvertical": 7523,
      "Ġgrid": 7524,
      "virtual": 7525,
      "ĠItaly": 7526,
      "Ġinher": 7527,
      "Ġunless": 7528,
      "=\"\"": 7529,
      "ĠMa": 7530,
      "(*": 7531,
      "front": 7532,
      "Ġabsolute": 7533,
      "ĠColor": 7534,
      "idget": 7535,
      "Ġdetect": 7536,
      "allow": 7537,
      "nap": 7538,
      ".;": 7539,
      "Ġfelt": 7540,
      "ĠEconom": 7541,
      "Ġgrowing": 7542,
      "Bytes": 7543,
      "MI": 7544,
      "Ġalternative": 7545,
      "atible": 7546,
      "Ġnotice": 7547,
      "ĠScot": 7548,
      "Ġrapid": 7549,
      "Ġhands": 7550,
      "Mock": 7551,
      "Ġbillion": 7552,
      "Ġstress": 7553,
      "Ġsqu": 7554,
      "blue": 7555,
      "ĠOld": 7556,
      "Ġdeb": 7557,
      "initial": 7558,
      "Ġ'/": 7559,
      "Ġcommit": 7560,
      "Ġintroduce": 7561,
      "Ġdetailed": 7562,
      "Ġrespond": 7563,
      "Ġwood": 7564,
      "hetic": 7565,
      "SR": 7566,
      "GC": 7567,
      "Ġmodes": 7568,
      "recated": 7569,
      "olk": 7570,
      "Ġorient": 7571,
      "\\!\\!": 7572,
      "plements": 7573,
      "ashion": 7574,
      "Ġexchange": 7575,
      "ĠLee": 7576,
      "Ġ('": 7577,
      "ĠTheir": 7578,
      "Ġexpressed": 7579,
      "Err": 7580,
      "'))": 7581,
      "Ġvote": 7582,
      "'}": 7583,
      "Ġmeasurement": 7584,
      "ests": 7585,
      "aka": 7586,
      "Ġwrap": 7587,
      "Ġalgorithms": 7588,
      "Cre": 7589,
      "ĠLu": 7590,
      "ographic": 7591,
      "Ġ++": 7592,
      "ĠChief": 7593,
      "Ġapi": 7594,
      "pmatrix": 7595,
      "arden": 7596,
      "ishop": 7597,
      "rical": 7598,
      "Di": 7599,
      "1982": 7600,
      "256": 7601,
      "DR": 7602,
      "ĠSwed": 7603,
      "Ġblocks": 7604,
      "tail": 7605,
      "multi": 7606,
      "ĠLin": 7607,
      "ĠBob": 7608,
      "Ġsubset": 7609,
      "olver": 7610,
      "Byte": 7611,
      "Ġcat": 7612,
      "Ġinsert": 7613,
      "Ġfailure": 7614,
      "gest": 7615,
      "Tab": 7616,
      "`.": 7617,
      "boolean": 7618,
      "Ġattract": 7619,
      "URE": 7620,
      "ĠHome": 7621,
      "going": 7622,
      "ĠAwards": 7623,
      "Ġentity": 7624,
      "Ġjson": 7625,
      "acle": 7626,
      "ĠMov": 7627,
      "Ġscalar": 7628,
      "riage": 7629,
      "Ġdelay": 7630,
      "ĠWeek": 7631,
      "iful": 7632,
      "Ġarchitecture": 7633,
      "people": 7634,
      "Kind": 7635,
      "stable": 7636,
      "ĠNO": 7637,
      "Ġforeign": 7638,
      "Ġalone": 7639,
      "ĠPac": 7640,
      "items": 7641,
      "Ġaccom": 7642,
      "SET": 7643,
      "Further": 7644,
      "Ġproceed": 7645,
      "Ġsemi": 7646,
      "ĠKh": 7647,
      "BP": 7648,
      "Ġvisible": 7649,
      "lyph": 7650,
      "Changed": 7651,
      "mock": 7652,
      "ĠElect": 7653,
      "Ġcurves": 7654,
      "ĉĉĉĊ": 7655,
      "istent": 7656,
      "Ġbattle": 7657,
      "angular": 7658,
      "Ġachieve": 7659,
      "Ġletter": 7660,
      "ĠGlobal": 7661,
      "stein": 7662,
      "Ġolder": 7663,
      "Ġwhom": 7664,
      "ogen": 7665,
      "Decl": 7666,
      "textsc": 7667,
      "radius": 7668,
      "Ġdivision": 7669,
      "Ġprocessing": 7670,
      "grade": 7671,
      "Ġinnov": 7672,
      "ilib": 7673,
      "Ġperturb": 7674,
      "none": 7675,
      "Ġwallet": 7676,
      "ĠUN": 7677,
      "ĠError": 7678,
      "hadoop": 7679,
      "Ġaircraft": 7680,
      "ĠIII": 7681,
      "Ġodd": 7682,
      "Ġguarant": 7683,
      "ĠHon": 7684,
      "ĠAND": 7685,
      "cean": 7686,
      "Ġcommunication": 7687,
      "Ġple": 7688,
      "enum": 7689,
      "Ġlif": 7690,
      "foo": 7691,
      "Ġmill": 7692,
      "Ġawarded": 7693,
      "Ġnamespace": 7694,
      "Ġactor": 7695,
      "abil": 7696,
      ")^{-": 7697,
      "attribute": 7698,
      "wan": 7699,
      "Ġtransformation": 7700,
      "sime": 7701,
      ".~(\\": 7702,
      "Ġhospital": 7703,
      "Ġsociety": 7704,
      "ĠFort": 7705,
      "standing": 7706,
      "Ġabsor": 7707,
      "Ġcosts": 7708,
      "Ġinteractions": 7709,
      "Ġrise": 7710,
      "Ġbehavi": 7711,
      "mo": 7712,
      "Ġassumed": 7713,
      "IE": 7714,
      "ĠAN": 7715,
      "simeq": 7716,
      "istical": 7717,
      "Ġinvariant": 7718,
      "inline": 7719,
      "ĠAL": 7720,
      "Ġended": 7721,
      "ĠValue": 7722,
      "Ġtrend": 7723,
      "je": 7724,
      "Ġbytes": 7725,
      "Ġvary": 7726,
      "Ġready": 7727,
      "Ġanalog": 7728,
      "Debug": 7729,
      "Ġpandemic": 7730,
      "Execut": 7731,
      "ĠHaw": 7732,
      "ĠInformation": 7733,
      "Assert": 7734,
      "Ġideal": 7735,
      "ĠSu": 7736,
      "edit": 7737,
      "sql": 7738,
      "rine": 7739,
      "Ġcontained": 7740,
      "iced": 7741,
      "Active": 7742,
      "dict": 7743,
      "Ġdistributions": 7744,
      "Ġpp": 7745,
      "jpg": 7746,
      "IA": 7747,
      "Ġinfr": 7748,
      "Ġpy": 7749,
      "ĠWal": 7750,
      "Root": 7751,
      "Ġchief": 7752,
      "bre": 7753,
      "Ġoccurs": 7754,
      "ancer": 7755,
      "admin": 7756,
      "aylor": 7757,
      "$).": 7758,
      "ĠHand": 7759,
      "Ġadding": 7760,
      "Ġbutton": 7761,
      "anner": 7762,
      "=\"\">": 7763,
      "Ġbelong": 7764,
      "andard": 7765,
      "pective": 7766,
      "Ġ$$": 7767,
      "ĠJo": 7768,
      "Ġcriter": 7769,
      "According": 7770,
      "numer": 7771,
      "chen": 7772,
      "ACE": 7773,
      "Doc": 7774,
      "inet": 7775,
      "ĠJac": 7776,
      "Ġsinger": 7777,
      "Home": 7778,
      "ployment": 7779,
      "iano": 7780,
      "ĠId": 7781,
      "Ġdiss": 7782,
      "ĠIO": 7783,
      "MT": 7784,
      "gers": 7785,
      "Ġraised": 7786,
      "Ġmunicip": 7787,
      "ĠRegister": 7788,
      "FR": 7789,
      "master": 7790,
      "Ġsafe": 7791,
      "Before": 7792,
      "Ġtrial": 7793,
      "Ġorganizations": 7794,
      "Rule": 7795,
      "Ġwall": 7796,
      "sche": 7797,
      "Ġreduction": 7798,
      "Ġdog": 7799,
      "1979": 7800,
      "Dialog": 7801,
      "Ġmock": 7802,
      "keys": 7803,
      "pa": 7804,
      "DC": 7805,
      "Ġarrest": 7806,
      "Ġpool": 7807,
      "Xml": 7808,
      "ĠPower": 7809,
      "spring": 7810,
      "Ġnation": 7811,
      "Ġindicates": 7812,
      "Ġobvious": 7813,
      "ustrial": 7814,
      "Ġhol": 7815,
      "ĠWell": 7816,
      "AGE": 7817,
      "Ġappearance": 7818,
      "plications": 7819,
      "Ġhelped": 7820,
      "agonal": 7821,
      "Ġsenior": 7822,
      "cape": 7823,
      "Ġpretty": 7824,
      "ĠText": 7825,
      "Ġdenotes": 7826,
      "igin": 7827,
      "ĠManagement": 7828,
      "ĠPak": 7829,
      "ðŁ": 7830,
      "Ġrecall": 7831,
      "uby": 7832,
      "ĠTechnology": 7833,
      "Writer": 7834,
      "Enabled": 7835,
      "Ġheat": 7836,
      "Ġhundred": 7837,
      "rf": 7838,
      "ĠArab": 7839,
      "Det": 7840,
      "Ġproved": 7841,
      "Ġjavax": 7842,
      "Ġstudio": 7843,
      "super": 7844,
      "Ġpartner": 7845,
      "Ġinterested": 7846,
      "impl": 7847,
      "ĠFacebook": 7848,
      "ATA": 7849,
      "Ġcomments": 7850,
      "ITY": 7851,
      "MB": 7852,
      "HS": 7853,
      "Custom": 7854,
      "Ġindicate": 7855,
      "__(": 7856,
      "margin": 7857,
      "Ġsusp": 7858,
      "DP": 7859,
      "ĠValley": 7860,
      "Ġwat": 7861,
      "Ġbecoming": 7862,
      "Ġchance": 7863,
      "Ġmedal": 7864,
      "Background": 7865,
      "toggle": 7866,
      "men": 7867,
      "Ġexcit": 7868,
      ")).": 7869,
      "ĠSunday": 7870,
      "rick": 7871,
      "ĠLie": 7872,
      "Ġmodified": 7873,
      "Ġconsole": 7874,
      "endix": 7875,
      "otted": 7876,
      "ffect": 7877,
      "ĠMain": 7878,
      "ĠTwitter": 7879,
      "Ġcircle": 7880,
      "Ġparallel": 7881,
      "anguages": 7882,
      "Ġrare": 7883,
      "ĠMarket": 7884,
      "Ġinline": 7885,
      "ĠMP": 7886,
      "Ġunsigned": 7887,
      "ucket": 7888,
      "ĠJim": 7889,
      "register": 7890,
      "nergy": 7891,
      "usband": 7892,
      "scape": 7893,
      "iminal": 7894,
      "stats": 7895,
      "Ġedition": 7896,
      "$$\\": 7897,
      "Ġspirit": 7898,
      "Ġplease": 7899,
      "kg": 7900,
      "apy": 7901,
      "pton": 7902,
      "Ġreasons": 7903,
      "Ġincorpor": 7904,
      "Ġthous": 7905,
      "ĠBack": 7906,
      "ilation": 7907,
      "ĠMos": 7908,
      "igital": 7909,
      "1981": 7910,
      "May": 7911,
      "Ġbtn": 7912,
      "ĠWood": 7913,
      "ï¼": 7914,
      "just": 7915,
      "Ġcentre": 7916,
      "poss": 7917,
      "ĠEp": 7918,
      "bot": 7919,
      "stop": 7920,
      "Ġcovered": 7921,
      "eller": 7922,
      "ivery": 7923,
      "ĠEnter": 7924,
      "Ul": 7925,
      "Ġcustomers": 7926,
      "ĠBoth": 7927,
      "Ġextr": 7928,
      "})$.": 7929,
      "Ġtournament": 7930,
      "Some": 7931,
      "Ġice": 7932,
      "aturday": 7933,
      "Ġ=\\": 7934,
      "$/": 7935,
      "Ġachieved": 7936,
      "Storage": 7937,
      "ĠPlan": 7938,
      "Ġadjust": 7939,
      "Ġgap": 7940,
      "family": 7941,
      "grid": 7942,
      "iki": 7943,
      "Ġsales": 7944,
      "ĠTra": 7945,
      "secut": 7946,
      "Ġsingular": 7947,
      "ĠBrazil": 7948,
      "Ġgirl": 7949,
      "cluded": 7950,
      "itan": 7951,
      "Ġmatrices": 7952,
      "Ġoffered": 7953,
      "ela": 7954,
      "128": 7955,
      "Ġrequirements": 7956,
      "Ġinitially": 7957,
      "ĠCopy": 7958,
      "she": 7959,
      "\\|_{": 7960,
      "Initial": 7961,
      "Media": 7962,
      "Ġjourn": 7963,
      "){\\": 7964,
      "password": 7965,
      "_;": 7966,
      "Ġstrongly": 7967,
      "othing": 7968,
      "ango": 7969,
      "Ġ<=": 7970,
      "ĠMA": 7971,
      "udes": 7972,
      "forward": 7973,
      "Ġowners": 7974,
      "Ġmechanism": 7975,
      "Ġforced": 7976,
      "VERSION": 7977,
      "claim": 7978,
      "odies": 7979,
      "Members": 7980,
      "rons": 7981,
      "ulf": 7982,
      "ĠJun": 7983,
      "ĠJud": 7984,
      "Ġspectra": 7985,
      "ĠCode": 7986,
      "Ġrul": 7987,
      ")}{\\": 7988,
      "callback": 7989,
      "Ġattr": 7990,
      "plot": 7991,
      "osoph": 7992,
      "ĠRam": 7993,
      "Ġmorph": 7994,
      "aby": 7995,
      ")\"": 7996,
      "tri": 7997,
      "ĠUsing": 7998,
      "Book": 7999,
      "cmd": 8000,
      "{$\\": 8001,
      "Ġdependence": 8002,
      "ĠCy": 8003,
      "WA": 8004,
      "jar": 8005,
      "ĠAsia": 8006,
      "Ġhypot": 8007,
      "ighter": 8008,
      "ben": 8009,
      "remark": 8010,
      "idel": 8011,
      "oston": 8012,
      "Ġtypical": 8013,
      "Ġcoast": 8014,
      "Ġrevealed": 8015,
      "KEY": 8016,
      "adium": 8017,
      "Display": 8018,
      "Ġremember": 8019,
      "Ġsoft": 8020,
      "Ðº": 8021,
      "jquery": 8022,
      "onday": 8023,
      "Ġoil": 8024,
      "Ġleaving": 8025,
      "Ġwriters": 8026,
      "Ġchannels": 8027,
      "green": 8028,
      "Ġregime": 8029,
      "Ġyields": 8030,
      "Ġthick": 8031,
      "names": 8032,
      ")_": 8033,
      ")\\\\": 8034,
      "site": 8035,
      "=\"@": 8036,
      "oviet": 8037,
      "Ġinstitut": 8038,
      "Ġpaint": 8039,
      "idae": 8040,
      "Wrap": 8041,
      "newcommand": 8042,
      "ĠGal": 8043,
      ")$-": 8044,
      "Ġbounds": 8045,
      "ĠURL": 8046,
      "CF": 8047,
      ".*": 8048,
      "Ġphil": 8049,
      "Att": 8050,
      "ĠSpecial": 8051,
      "itionally": 8052,
      "Thus": 8053,
      "Only": 8054,
      "axis": 8055,
      "uous": 8056,
      "Security": 8057,
      "Ġmusical": 8058,
      "\\_": 8059,
      "lat": 8060,
      "cuss": 8061,
      "Ġcitiz": 8062,
      "Ġmainly": 8063,
      "Play": 8064,
      "Ð»": 8065,
      "Ġmassive": 8066,
      "Care": 8067,
      "Account": 8068,
      "They": 8069,
      "ĠEven": 8070,
      "ĠJoseph": 8071,
      "ulty": 8072,
      "Theorem": 8073,
      "istration": 8074,
      "Ġstellar": 8075,
      "ĠCentre": 8076,
      "PRE": 8077,
      "urrency": 8078,
      "Ġvehicle": 8079,
      "here": 8080,
      "notation": 8081,
      "Ġlooks": 8082,
      "Ġbasketball": 8083,
      "Ġprison": 8084,
      "hentication": 8085,
      "Ġentered": 8086,
      ":#": 8087,
      "ierarch": 8088,
      "ĠSU": 8089,
      "omorphic": 8090,
      "eces": 8091,
      "Ġreplace": 8092,
      "leton": 8093,
      "Cons": 8094,
      "Ġfinding": 8095,
      "uer": 8096,
      "$^{-": 8097,
      "IX": 8098,
      "Will": 8099,
      "Ġstarts": 8100,
      "Ġcoordinates": 8101,
      "Ġsymmetric": 8102,
      "1976": 8103,
      "Ġstatistics": 8104,
      "Ġconflict": 8105,
      "1972": 8106,
      "Ġalloc": 8107,
      "Ġpartition": 8108,
      "?:": 8109,
      "ĠCross": 8110,
      "Support": 8111,
      "Ġserial": 8112,
      "Ġsections": 8113,
      "Ġalleg": 8114,
      "Ġ),": 8115,
      "Ident": 8116,
      "ading": 8117,
      "assets": 8118,
      "tsd": 8119,
      "formance": 8120,
      "AU": 8121,
      "~$\\": 8122,
      "amin": 8123,
      "Ġadvantage": 8124,
      "Ġtraffic": 8125,
      "low": 8126,
      "ĠFree": 8127,
      "Ġ{$": 8128,
      "Ġisland": 8129,
      "alid": 8130,
      "}}^": 8131,
      "mapsto": 8132,
      "Ġenable": 8133,
      "ĠEmp": 8134,
      "Step": 8135,
      "Ġmanaged": 8136,
      "Send": 8137,
      "amely": 8138,
      "`,": 8139,
      "Ġdownload": 8140,
      "Ġschedul": 8141,
      "Ġmsg": 8142,
      "Ġpowerful": 8143,
      "Ġincome": 8144,
      "Ġreferred": 8145,
      "ĠJohnson": 8146,
      "Network": 8147,
      "connection": 8148,
      "Ġmatching": 8149,
      "Ġkeys": 8150,
      "ĠBu": 8151,
      "ito": 8152,
      "Ġmetal": 8153,
      "rium": 8154,
      "Policy": 8155,
      "las": 8156,
      "ĠJones": 8157,
      "ĠFriday": 8158,
      "zz": 8159,
      "ansas": 8160,
      "1978": 8161,
      "During": 8162,
      "Ġdefin": 8163,
      "Ġofficer": 8164,
      ")),": 8165,
      "Ġhousehold": 8166,
      "ĠSaint": 8167,
      "mediate": 8168,
      "ĠPoint": 8169,
      "Ġstrugg": 8170,
      "ĠConference": 8171,
      "pan": 8172,
      "Ġchart": 8173,
      "Ġdynamic": 8174,
      "security": 8175,
      "JSON": 8176,
      "Ġideas": 8177,
      "Ġhtml": 8178,
      "123": 8179,
      "Ġther": 8180,
      "\",\"": 8181,
      "pressed": 8182,
      "Ġmurder": 8183,
      "Ġhappen": 8184,
      "Notes": 8185,
      "aling": 8186,
      "MR": 8187,
      "Ġanyone": 8188,
      "Ġking": 8189,
      "ĠGaussian": 8190,
      "thread": 8191,
      "ĠSO": 8192,
      "Ġforest": 8193,
      "edia": 8194,
      "onical": 8195,
      "Ġdaily": 8196,
      "Ġisol": 8197,
      "roke": 8198,
      "Ġseconds": 8199,
      "======": 8200,
      "ims": 8201,
      "imit": 8202,
      "Ġdriver": 8203,
      "limit": 8204,
      "Ġtoward": 8205,
      "shape": 8206,
      "Ġnumerous": 8207,
      "Ġdepending": 8208,
      "ĠPhys": 8209,
      "Ġobserve": 8210,
      "notes": 8211,
      "har": 8212,
      "ariance": 8213,
      "}}^{": 8214,
      "tw": 8215,
      "unities": 8216,
      "Ñĥ": 8217,
      "Ġcreation": 8218,
      "zen": 8219,
      "DT": 8220,
      "ponential": 8221,
      "ĠGovern": 8222,
      "screen": 8223,
      "ById": 8224,
      "çļ": 8225,
      "Ġsetup": 8226,
      "domain": 8227,
      "Ġmobile": 8228,
      "FAULT": 8229,
      "1975": 8230,
      "Ġdb": 8231,
      "]:": 8232,
      "Ġconducted": 8233,
      "Ġtrail": 8234,
      "Ġpicture": 8235,
      "Ġlies": 8236,
      "awa": 8237,
      "odd": 8238,
      "ĠCommunity": 8239,
      "Ġparties": 8240,
      "Sch": 8241,
      "Ġ\"/": 8242,
      "ĠSar": 8243,
      "Ġtrained": 8244,
      "Ġphone": 8245,
      "Transaction": 8246,
      "1977": 8247,
      "CN": 8248,
      "bad": 8249,
      "ĠHuman": 8250,
      "Ġexport": 8251,
      "Ġminimal": 8252,
      "ĠBlue": 8253,
      "çļĦ": 8254,
      "Del": 8255,
      "Activity": 8256,
      "odot": 8257,
      "Ġseasons": 8258,
      "addr": 8259,
      "Ġren": 8260,
      "events": 8261,
      "Ġpropos": 8262,
      "elligence": 8263,
      "uctions": 8264,
      "1974": 8265,
      "âĢĿ.": 8266,
      "move": 8267,
      "ĠPop": 8268,
      "Using": 8269,
      "home": 8270,
      "Ġens": 8271,
      "Ġviews": 8272,
      "Ġregarding": 8273,
      "ĠÂ£": 8274,
      "ĠCard": 8275,
      "eless": 8276,
      "Ġwasn": 8277,
      "Ġdraft": 8278,
      "Ġreson": 8279,
      "iance": 8280,
      "Ġflex": 8281,
      "Ġran": 8282,
      "Ġallowing": 8283,
      "two": 8284,
      "ampion": 8285,
      "Ġcontinues": 8286,
      "ĠEr": 8287,
      "Ġversions": 8288,
      "Ġdesc": 8289,
      "Ġconfirmed": 8290,
      "kw": 8291,
      "MOD": 8292,
      "Extension": 8293,
      "ceived": 8294,
      "anes": 8295,
      "itness": 8296,
      "Early": 8297,
      "Ġchallenge": 8298,
      "Ġkept": 8299,
      "tik": 8300,
      "Ġspot": 8301,
      "uing": 8302,
      "Ġmessages": 8303,
      "argument": 8304,
      "vania": 8305,
      "Ġtechnical": 8306,
      "network": 8307,
      "Ġretr": 8308,
      "Ġpolitician": 8309,
      "EXT": 8310,
      "Ġnuclear": 8311,
      "Ġheard": 8312,
      "ĠMult": 8313,
      "ĠOnly": 8314,
      "Ġinstalled": 8315,
      "ĠStat": 8316,
      "stitut": 8317,
      "Ġconvergence": 8318,
      "Ġassigned": 8319,
      "Ġgain": 8320,
      "horizontal": 8321,
      "Ġencoding": 8322,
      "iteral": 8323,
      "isis": 8324,
      "Ġdepartment": 8325,
      "heast": 8326,
      "Ġfunctional": 8327,
      "Ġfill": 8328,
      "Prop": 8329,
      "ĠIran": 8330,
      "ĠEvery": 8331,
      "Ġproport": 8332,
      "PAR": 8333,
      "Ġcamera": 8334,
      "Ins": 8335,
      "Ġoperating": 8336,
      "ador": 8337,
      "iling": 8338,
      "[(": 8339,
      "mond": 8340,
      "cpp": 8341,
      "scroll": 8342,
      "Ġreader": 8343,
      "Fields": 8344,
      "ĠFinally": 8345,
      "aria": 8346,
      "ĠWilliams": 8347,
      "Inv": 8348,
      "ĠNorthern": 8349,
      "Ġtrigger": 8350,
      "Channel": 8351,
      "yer": 8352,
      "ĠSpec": 8353,
      "Fix": 8354,
      "Ġimportance": 8355,
      "Ġpurs": 8356,
      "ĠIsrael": 8357,
      "ĠWay": 8358,
      "git": 8359,
      "Ġnine": 8360,
      "person": 8361,
      "@\"": 8362,
      "à¥": 8363,
      "called": 8364,
      "Ġlocations": 8365,
      "ĠLord": 8366,
      "Ġlimits": 8367,
      "ĠMany": 8368,
      "proposition": 8369,
      "[:": 8370,
      "Ġconsidering": 8371,
      "Ġlabor": 8372,
      "urban": 8373,
      "channel": 8374,
      "rawn": 8375,
      "ĠHead": 8376,
      "1968": 8377,
      "Ġcities": 8378,
      "Ġattributes": 8379,
      "ĠAre": 8380,
      "ĠColumb": 8381,
      "Ġsummary": 8382,
      "itivity": 8383,
      "END": 8384,
      "ĠMichigan": 8385,
      "Ġeyes": 8386,
      "profile": 8387,
      "ificate": 8388,
      "Ġsatisfy": 8389,
      "Ġsupply": 8390,
      "Ġrough": 8391,
      "Ġ&=&": 8392,
      "Ġriver": 8393,
      "Ġhistorical": 8394,
      "Ġmonitor": 8395,
      "fold": 8396,
      "orney": 8397,
      "Ġ^": 8398,
      "Ljava": 8399,
      "Ġchemical": 8400,
      "Queue": 8401,
      "Ġinduced": 8402,
      "ĠPass": 8403,
      "ĠCA": 8404,
      "Ġ%}": 8405,
      "each": 8406,
      "Ġefficiency": 8407,
      "properties": 8408,
      "ibli": 8409,
      "ĠVersion": 8410,
      "Av": 8411,
      "such": 8412,
      "ĠNavy": 8413,
      "Ġ(*": 8414,
      "ĠJoe": 8415,
      "=>": 8416,
      "Ġoptical": 8417,
      "Msg": 8418,
      "Ġshop": 8419,
      "fix": 8420,
      "cret": 8421,
      "sch": 8422,
      "iate": 8423,
      "1973": 8424,
      "controller": 8425,
      "_-": 8426,
      "Ġtruth": 8427,
      "wer": 8428,
      "Constr": 8429,
      "ĠassertEquals": 8430,
      "Ġagreed": 8431,
      "Author": 8432,
      "Äĩ": 8433,
      "Ġrect": 8434,
      "600": 8435,
      "Ġordered": 8436,
      "pot": 8437,
      "Ġclick": 8438,
      "Ġfamous": 8439,
      "ĠTele": 8440,
      "Ġdegrees": 8441,
      "Ġasympt": 8442,
      "eer": 8443,
      "Ġreject": 8444,
      "Ġbright": 8445,
      "Ġimplemented": 8446,
      "Ġfreedom": 8447,
      "Ġcov": 8448,
      "Ġmapping": 8449,
      "tributed": 8450,
      "Ġhusband": 8451,
      "Ġproducer": 8452,
      "RR": 8453,
      "FILE": 8454,
      "Ġleaves": 8455,
      "Ġpaid": 8456,
      "Ġclaims": 8457,
      "ĠLead": 8458,
      "Events": 8459,
      "ĠBow": 8460,
      "ĠSir": 8461,
      "ilibrium": 8462,
      "apes": 8463,
      "English": 8464,
      "UID": 8465,
      "etri": 8466,
      ")},": 8467,
      "Ġaware": 8468,
      "ĠBecause": 8469,
      "Ġpi": 8470,
      "Ġvectors": 8471,
      "Ġmanifold": 8472,
      "Ġbill": 8473,
      "____": 8474,
      "ĠAny": 8475,
      "High": 8476,
      "Ġdifferential": 8477,
      "tor": 8478,
      "Ġconstraint": 8479,
      "ĠIrish": 8480,
      "ĠCa": 8481,
      "Ġchair": 8482,
      "ila": 8483,
      "BE": 8484,
      "Lock": 8485,
      "Ġemployees": 8486,
      "ĠĠĠĠĠĠĠĠĠĠĠĠĠĠĠĠĠĠĠĠĠĠĠĠĠ": 8487,
      "Ġfundamental": 8488,
      "ĠMah": 8489,
      "ĠGi": 8490,
      "Ġcommission": 8491,
      "Ġdistingu": 8492,
      "$;": 8493,
      "gency": 8494,
      "Ġmorning": 8495,
      "Ġevaluation": 8496,
      "ĠAuthor": 8497,
      "vs": 8498,
      "}&": 8499,
      "game": 8500,
      "Ġneighborhood": 8501,
      "txt": 8502,
      "syl": 8503,
      "Perm": 8504,
      "250": 8505,
      "Ġextend": 8506,
      "ĠParliament": 8507,
      "Ġlayers": 8508,
      "Ġfav": 8509,
      "TABLE": 8510,
      "elease": 8511,
      "Items": 8512,
      "scill": 8513,
      "Const": 8514,
      "Ġtal": 8515,
      "late": 8516,
      "tip": 8517,
      "})+": 8518,
      "fi": 8519,
      "\">&": 8520,
      "Vol": 8521,
      "Ġbin": 8522,
      "Ġbeam": 8523,
      "lg": 8524,
      "ĠIslam": 8525,
      "Ġsuccessfully": 8526,
      "Ġlived": 8527,
      "ĠDown": 8528,
      "phas": 8529,
      "Ġactress": 8530,
      "ĠCorpor": 8531,
      "Ġfish": 8532,
      "Ġenabled": 8533,
      "Ġkernel": 8534,
      "Pattern": 8535,
      "area": 8536,
      "eld": 8537,
      "Ġfocused": 8538,
      "Dem": 8539,
      "ĠTer": 8540,
      "Ġplanet": 8541,
      "Ġgalaxy": 8542,
      "Ġtracks": 8543,
      "ĠNav": 8544,
      "exists": 8545,
      "total": 8546,
      "stone": 8547,
      "Meta": 8548,
      "Mat": 8549,
      "Ġimproved": 8550,
      "ĠMen": 8551,
      "ARY": 8552,
      "Ġnucle": 8553,
      "Ġconvers": 8554,
      "Ġcycl": 8555,
      "(){": 8556,
      "Yk": 8557,
      "Ġrac": 8558,
      "selected": 8559,
      "uries": 8560,
      "Ġadvert": 8561,
      "'(": 8562,
      "andon": 8563,
      "Ġrestaur": 8564,
      "Windows": 8565,
      "when": 8566,
      "SM": 8567,
      "parameters": 8568,
      "ĠColl": 8569,
      "|_{": 8570,
      "nn": 8571,
      "ĠVan": 8572,
      "Ġobservation": 8573,
      "mma": 8574,
      "ĠSecurity": 8575,
      "Ġtail": 8576,
      "Ġcandidates": 8577,
      "Ġrecommend": 8578,
      "ĠRadio": 8579,
      "ez": 8580,
      "Ġsolar": 8581,
      "1971": 8582,
      "Ġdiscovered": 8583,
      "bell": 8584,
      "Ġterrit": 8585,
      "uzz": 8586,
      "Ġlicense": 8587,
      "ĠWales": 8588,
      "words": 8589,
      "cknowled": 8590,
      "astructure": 8591,
      "Ġpatient": 8592,
      "World": 8593,
      "Ġopin": 8594,
      "Ġseat": 8595,
      "logger": 8596,
      "ĠPM": 8597,
      "Ġhighlight": 8598,
      "enger": 8599,
      "Ġowned": 8600,
      "agr": 8601,
      "Ġlab": 8602,
      "ĠDefault": 8603,
      "estion": 8604,
      "âĢĺ": 8605,
      "\\{\\": 8606,
      "Ġcorpor": 8607,
      "Ġexplained": 8608,
      "Ġquadr": 8609,
      "Yi": 8610,
      "Pool": 8611,
      "Ġult": 8612,
      "110": 8613,
      "primary": 8614,
      "ĠChampionships": 8615,
      "Ġfloor": 8616,
      "bec": 8617,
      "stra": 8618,
      "Bit": 8619,
      "Ġapparent": 8620,
      "ursday": 8621,
      "cb": 8622,
      "scriptstyle": 8623,
      "Ġshock": 8624,
      "Ġtried": 8625,
      "rase": 8626,
      "Public": 8627,
      "ĠLy": 8628,
      "ĠAmazon": 8629,
      "ĠPolicy": 8630,
      "ULE": 8631,
      "emporary": 8632,
      ".__": 8633,
      "Ġmagnitude": 8634,
      "ĠFalse": 8635,
      "Ġsuggested": 8636,
      "'d": 8637,
      "Ġpil": 8638,
      "ĠGre": 8639,
      "Ġtrees": 8640,
      "appe": 8641,
      "iy": 8642,
      "HR": 8643,
      "Full": 8644,
      "Ġnewsp": 8645,
      "protobuf": 8646,
      "article": 8647,
      "iden": 8648,
      "SN": 8649,
      "pository": 8650,
      "Ġaudio": 8651,
      "ĠHamiltonian": 8652,
      "throws": 8653,
      "Ġtechnique": 8654,
      "produ": 8655,
      "ĠWater": 8656,
      "ĠAction": 8657,
      "ĠPrem": 8658,
      "Ġnotation": 8659,
      "Widget": 8660,
      "ĠCare": 8661,
      "TA": 8662,
      "Ġresidents": 8663,
      "Ġcultural": 8664,
      "Ġtheme": 8665,
      "Ġusual": 8666,
      "sylvania": 8667,
      "ĠApple": 8668,
      "Ġwants": 8669,
      "ipage": 8670,
      "Ġsouthern": 8671,
      "tikz": 8672,
      "Ġtrav": 8673,
      "Ġbeat": 8674,
      "Ġphenomen": 8675,
      "Ġthermal": 8676,
      "hu": 8677,
      "Ġweap": 8678,
      "ository": 8679,
      "Ġtrace": 8680,
      "stitution": 8681,
      "pir": 8682,
      "egr": 8683,
      "Ġarticles": 8684,
      "emy": 8685,
      "JQ": 8686,
      "Ġmarked": 8687,
      "Ġconven": 8688,
      "ĠOrgan": 8689,
      "Ġmedium": 8690,
      "Ġdamage": 8691,
      "ĠPri": 8692,
      "chain": 8693,
      "ĠSpain": 8694,
      "ĠSports": 8695,
      "1969": 8696,
      "Ġmac": 8697,
      "mI": 8698,
      "unsigned": 8699,
      "Ġattacks": 8700,
      "Ġsignature": 8701,
      "iser": 8702,
      "Ġhuge": 8703,
      "Ġawait": 8704,
      "writer": 8705,
      "Ġcolumns": 8706,
      "%)": 8707,
      "ugby": 8708,
      "Ġplanning": 8709,
      "schema": 8710,
      "Timeout": 8711,
      "nam": 8712,
      "ogeneous": 8713,
      "ĠLuc": 8714,
      "Ġuniversity": 8715,
      "ĠMedical": 8716,
      "Ġdimensions": 8717,
      "aration": 8718,
      "Car": 8719,
      "Ġangular": 8720,
      "TEST": 8721,
      "Gen": 8722,
      "itage": 8723,
      "ĠSouthern": 8724,
      "Ġfinish": 8725,
      "enth": 8726,
      "Ġexplain": 8727,
      "Job": 8728,
      "ello": 8729,
      "Ġpm": 8730,
      "Ġbalance": 8731,
      "keyword": 8732,
      "ĠKen": 8733,
      "IMP": 8734,
      "Ġoccurred": 8735,
      "^{+": 8736,
      "ennis": 8737,
      "Ġattended": 8738,
      "zed": 8739,
      "MENT": 8740,
      "components": 8741,
      "ĠDesign": 8742,
      "Ġcalling": 8743,
      "life": 8744,
      "wild": 8745,
      "IB": 8746,
      "VM": 8747,
      "ĠOx": 8748,
      "Ġtend": 8749,
      "1940": 8750,
      "Ġofficials": 8751,
      "Ġhole": 8752,
      "Ġclaimed": 8753,
      "Ġrepresenting": 8754,
      "tained": 8755,
      "Ġunderlying": 8756,
      "inations": 8757,
      "Ġvictory": 8758,
      "Ġ[[": 8759,
      "bury": 8760,
      "save": 8761,
      "Ġrotation": 8762,
      "ĠFurthermore": 8763,
      "Ġcounty": 8764,
      "ĠDemocratic": 8765,
      "Ġaffected": 8766,
      "ideos": 8767,
      "ĠNight": 8768,
      "Ġlearned": 8769,
      "Ġdedicated": 8770,
      "eness": 8771,
      "Ġconference": 8772,
      "Ġnorthern": 8773,
      "ancel": 8774,
      "Auth": 8775,
      "arse": 8776,
      "awn": 8777,
      "Ġeconomy": 8778,
      "Ġahead": 8779,
      "coh": 8780,
      "Ġprediction": 8781,
      "Ġplus": 8782,
      "gypt": 8783,
      "Oe": 8784,
      "minipage": 8785,
      "%,": 8786,
      "Ġestablishments": 8787,
      "ĠPage": 8788,
      "ĠWed": 8789,
      "displaystyle": 8790,
      "1967": 8791,
      "osa": 8792,
      "}</": 8793,
      "ĠHa": 8794,
      "ĠFed": 8795,
      "Ġconj": 8796,
      "sen": 8797,
      "ifts": 8798,
      "ĠFund": 8799,
      "PU": 8800,
      "]]": 8801,
      "Ä±": 8802,
      "Ġoptimization": 8803,
      "PATH": 8804,
      ".'": 8805,
      "opic": 8806,
      "ĠâĢ¦": 8807,
      "Ġagree": 8808,
      "ni": 8809,
      "LC": 8810,
      "Two": 8811,
      "Ġchallenges": 8812,
      "tests": 8813,
      "oton": 8814,
      "Ġatmos": 8815,
      "Ġcapture": 8816,
      "ĠBang": 8817,
      "Ġabstract": 8818,
      "Ġsolve": 8819,
      "adel": 8820,
      "Ġinstanceof": 8821,
      "}}$.": 8822,
      "rat": 8823,
      "aya": 8824,
      "ĠBern": 8825,
      "Ġpatterns": 8826,
      "Ġturns": 8827,
      "800": 8828,
      "ĠAsian": 8829,
      "Ġadministration": 8830,
      "vin": 8831,
      "engine": 8832,
      "Ġgradient": 8833,
      "ĠFrancisco": 8834,
      "LOG": 8835,
      "Ġinvestment": 8836,
      "ĠPacific": 8837,
      "ĠLab": 8838,
      ")))": 8839,
      "elegate": 8840,
      ",$": 8841,
      "Descriptor": 8842,
      "Ġchampionship": 8843,
      "Ġdrama": 8844,
      "GR": 8845,
      "()).": 8846,
      "ĠSenate": 8847,
      "Ġbrowser": 8848,
      "cam": 8849,
      "dy": 8850,
      "Enc": 8851,
      "(!": 8852,
      "Ġoscill": 8853,
      "ĠUpdate": 8854,
      "loop": 8855,
      "Ġfunding": 8856,
      "lik": 8857,
      "ĠStart": 8858,
      "Ġfle": 8859,
      "ted": 8860,
      "Ġsuc": 8861,
      "Ġorders": 8862,
      "Ġexpert": 8863,
      "[$": 8864,
      "Ġfeet": 8865,
      "Ġequipment": 8866,
      "dem": 8867,
      "Ġdie": 8868,
      "Ġscattering": 8869,
      "ĠSaturday": 8870,
      "ĠBoston": 8871,
      "Ġsuggests": 8872,
      "Ġattend": 8873,
      "wall": 8874,
      "ĠPolice": 8875,
      "external": 8876,
      "Logger": 8877,
      "Ġ×": 8878,
      "Google": 8879,
      "bro": 8880,
      "estic": 8881,
      "Editor": 8882,
      "dropdown": 8883,
      "Ġbrain": 8884,
      "brid": 8885,
      "}}$,": 8886,
      "Ġskills": 8887,
      "echo": 8888,
      "ĠMajor": 8889,
      "ĠUkraine": 8890,
      "Sm": 8891,
      "Ġentries": 8892,
      "Ġener": 8893,
      "Feature": 8894,
      "Ġinstrument": 8895,
      "Ġspeak": 8896,
      "Ġcollected": 8897,
      "Ġcalculate": 8898,
      "ĠJon": 8899,
      "Scale": 8900,
      "Ġ[];": 8901,
      "aturing": 8902,
      "ĠSand": 8903,
      "Loader": 8904,
      "Transform": 8905,
      "illy": 8906,
      "}{(": 8907,
      "Ġacts": 8908,
      "Ġsomew": 8909,
      "ronic": 8910,
      "Koi": 8911,
      "ĠCivil": 8912,
      "Ġdetected": 8913,
      "large": 8914,
      "athan": 8915,
      "ĠInitial": 8916,
      "blem": 8917,
      "XT": 8918,
      "}({\\": 8919,
      "Ġbenefits": 8920,
      "iable": 8921,
      "Ġhour": 8922,
      "Ġchanging": 8923,
      "})$,": 8924,
      "ented": 8925,
      "Ġrich": 8926,
      "ĠSciences": 8927,
      "Ġreality": 8928,
      "ĠExecut": 8929,
      "desc": 8930,
      "Ġrecording": 8931,
      "1964": 8932,
      "Ġcult": 8933,
      "Ġsell": 8934,
      "ĠIR": 8935,
      "Compar": 8936,
      "esian": 8937,
      "////////////////////////////////": 8938,
      "ĠĠĠĠĠĠĠĠĠĠĠĠĠĠĠĠĠĠĠĠĠĠ": 8939,
      "actic": 8940,
      "ubV": 8941,
      "ivation": 8942,
      "tics": 8943,
      "Ġraw": 8944,
      "Ġpolicies": 8945,
      "Panel": 8946,
      "AF": 8947,
      "ĠĠĠĠĠĠĠĠĠĠĠĠĠĠĠĠĠĠĠĠĠĠĠĠĠĠĠĠĠĠĠĠĠĠĠĠĠĠĠĠĠĠĠĠĠĠĠĠĠĠĠĠĠĠĠĠĠĠĠĠĠĠĠĠ": 8948,
      "Ġreligious": 8949,
      "ĠOhio": 8950,
      "oir": 8951,
      "Ġlaws": 8952,
      "Ġcomplexity": 8953,
      "queue": 8954,
      "JQYi": 8955,
      "UlI": 8956,
      "cQL": 8957,
      "ĠFamily": 8958,
      "MNmI": 8959,
      "tfGu": 8960,
      "YkKoi": 8961,
      "ubVtfGu": 8962,
      "cQLBJ": 8963,
      "YkKoiubVtfGu": 8964,
      "JQYiUlI": 8965,
      "ĠWild": 8966,
      "ĠNumber": 8967,
      "ĠImage": 8968,
      "ĠAff": 8969,
      "wait": 8970,
      "Ġmagazine": 8971,
      "PM": 8972,
      "uses": 8973,
      "Ġaccepted": 8974,
      "utf": 8975,
      "1945": 8976,
      "Ġaudience": 8977,
      "YkKoiubVtfGuOe": 8978,
      "semble": 8979,
      "Ġwhereas": 8980,
      "Ġconclude": 8981,
      "ĠLocal": 8982,
      "Ġdiam": 8983,
      "Ġprotection": 8984,
      "ran": 8985,
      "ĠWall": 8986,
      "Ġbusinesses": 8987,
      "Ġzone": 8988,
      "Ġexcell": 8989,
      "Ġcomposed": 8990,
      "verb": 8991,
      "avit": 8992,
      "Ġintended": 8993,
      "ĠCarl": 8994,
      "ĠAh": 8995,
      "Ġserving": 8996,
      "ĠGreek": 8997,
      "NG": 8998,
      "ĠMonday": 8999,
      "Ġadopted": 9000,
      "Ġverify": 9001,
      "important": 9002,
      "Ġsecondary": 9003,
      "Ġfre": 9004,
      "ĠReal": 9005,
      "browser": 9006,
      "1930": 9007,
      "izable": 9008,
      "hol": 9009,
      "ucky": 9010,
      "Ġdocuments": 9011,
      "Ġleadership": 9012,
      "fol": 9013,
      "Ġri": 9014,
      "ĠLight": 9015,
      "Ġbenefit": 9016,
      "Ġeye": 9017,
      "onto": 9018,
      "ami": 9019,
      "ĠĠĠĠĠĠĠĠĠĠĠĠĠĠĠĠĠĠĠĠĠĠĠĠ": 9020,
      "world": 9021,
      "Ġvocals": 9022,
      "subs": 9023,
      "oster": 9024,
      "$~": 9025,
      "Ġscenario": 9026,
      "ĠMiddle": 9027,
      "Member": 9028,
      "isted": 9029,
      "Ġtheoretical": 9030,
      "Ġdir": 9031,
      "Ġuncertainty": 9032,
      "IST": 9033,
      "flags": 9034,
      "Pay": 9035,
      "ĠAri": 9036,
      "Å¡": 9037,
      "urer": 9038,
      "Ġadm": 9039,
      "Ġmasses": 9040,
      "Ġpaths": 9041,
      "Cond": 9042,
      "Finally": 9043,
      "hbar": 9044,
      "dp": 9045,
      "Ġsucceed": 9046,
      "Ġeq": 9047,
      "Ġissued": 9048,
      "Ġnavigation": 9049,
      "Grid": 9050,
      "Ã£": 9051,
      "uesday": 9052,
      "Ġenvironmental": 9053,
      "nesday": 9054,
      "Ġinfinite": 9055,
      "Product": 9056,
      "agers": 9057,
      "Ġgeometry": 9058,
      "Ġbudget": 9059,
      "LIC": 9060,
      "Internal": 9061,
      "Opt": 9062,
      "cccc": 9063,
      "Files": 9064,
      "sumer": 9065,
      "Ġbench": 9066,
      "Ġlabels": 9067,
      "unte": 9068,
      "Ġcars": 9069,
      "Best": 9070,
      "Ġdriving": 9071,
      "ĠMot": 9072,
      "ĠCEO": 9073,
      "hard": 9074,
      ")+\\": 9075,
      "Ġcoverage": 9076,
      "Ġremark": 9077,
      "ĠTaylor": 9078,
      "Mapping": 9079,
      "water": 9080,
      "Ġindeed": 9081,
      "ĠLast": 9082,
      "since": 9083,
      "Ġsun": 9084,
      "Ġregional": 9085,
      "inher": 9086,
      "1965": 9087,
      "Ġintegration": 9088,
      "Ġpet": 9089,
      "Ġlocally": 9090,
      "Ġdepart": 9091,
      "ĸº": 9092,
      "webpack": 9093,
      "Ġpseud": 9094,
      "sky": 9095,
      "ĠHarr": 9096,
      "Ġmeant": 9097,
      "Ġsupports": 9098,
      "Ġinvestigation": 9099,
      "Ġofficers": 9100,
      "Float": 9101,
      "Init": 9102,
      "ĠCamb": 9103,
      "Ġthank": 9104,
      "Ġhear": 9105,
      "Ġremote": 9106,
      "sel": 9107,
      "Graph": 9108,
      "orship": 9109,
      "ĠAndrew": 9110,
      "mass": 9111,
      "Ġhab": 9112,
      "ĠWindows": 9113,
      "cong": 9114,
      "ĠEmpire": 9115,
      "nil": 9116,
      "elcome": 9117,
      "periment": 9118,
      "ĠPennsylvania": 9119,
      "inity": 9120,
      "imb": 9121,
      "ingly": 9122,
      "operation": 9123,
      "Ġclinical": 9124,
      "Print": 9125,
      "Ġsexual": 9126,
      "Cap": 9127,
      "law": 9128,
      "Ġends": 9129,
      "Ġdispl": 9130,
      "ĠCro": 9131,
      "ĠAbout": 9132,
      "Introduction": 9133,
      "Ġevaluate": 9134,
      "Ġboy": 9135,
      "circle": 9136,
      "ears": 9137,
      "Ġsubstant": 9138,
      "Ġelections": 9139,
      "prec": 9140,
      "Ġdesired": 9141,
      "Ġpsych": 9142,
      "NavBarCell": 9143,
      "Bas": 9144,
      "Ġexperi": 9145,
      "Ġphysics": 9146,
      "diff": 9147,
      "Ġprime": 9148,
      "Ġcalculations": 9149,
      "Ġautomatically": 9150,
      "ĠRo": 9151,
      "ĠTheatre": 9152,
      "Ġrobust": 9153,
      "Ġfresh": 9154,
      "pet": 9155,
      "åı": 9156,
      ")));": 9157,
      "condition": 9158,
      "Ġhandler": 9159,
      "hidden": 9160,
      "ĠTR": 9161,
      "Ġdro": 9162,
      "Ġadvanced": 9163,
      "()));": 9164,
      "Ġsustain": 9165,
      "Ġ=========": 9166,
      "Selected": 9167,
      "Global": 9168,
      "1966": 9169,
      "configuration": 9170,
      "-$": 9171,
      "inson": 9172,
      "Ġtab": 9173,
      "ĠFunction": 9174,
      "BI": 9175,
      "inois": 9176,
      "ĠMid": 9177,
      "ĠWho": 9178,
      "account": 9179,
      "Ġcarbon": 9180,
      "ĠQueen": 9181,
      "ĠHospital": 9182,
      "Ġwidely": 9183,
      "ĠIndex": 9184,
      "ridge": 9185,
      "Ġsides": 9186,
      "Ġgraphs": 9187,
      "ĠSE": 9188,
      "ĠTask": 9189,
      "1920": 9190,
      "General": 9191,
      "Ġng": 9192,
      "Ġknew": 9193,
      "cher": 9194,
      "Ġscales": 9195,
      "ocker": 9196,
      "present": 9197,
      "Ġcomposition": 9198,
      "orders": 9199,
      "switch": 9200,
      "Edit": 9201,
      "Matrix": 9202,
      "clusions": 9203,
      "how": 9204,
      "UTF": 9205,
      "Ġdeveloping": 9206,
      "assertEquals": 9207,
      "Ġsyn": 9208,
      "ĠGeorgia": 9209,
      "Ġsmart": 9210,
      "Ġhappy": 9211,
      "dependent": 9212,
      "trigger": 9213,
      "irds": 9214,
      "Ġcrow": 9215,
      "Ġacting": 9216,
      "Ġ$|\\": 9217,
      "Ġyouth": 9218,
      "Ġflight": 9219,
      "ĠSi": 9220,
      "lean": 9221,
      "'])": 9222,
      "erial": 9223,
      "Details": 9224,
      "ĠDaniel": 9225,
      "ĠTw": 9226,
      "Ġnotes": 9227,
      "Ġclusters": 9228,
      "Ġstreet": 9229,
      "ĠWin": 9230,
      "isc": 9231,
      "ĠFar": 9232,
      "FS": 9233,
      "ĠCoast": 9234,
      "ĠBritain": 9235,
      "burgh": 9236,
      "ICE": 9237,
      "Ġsister": 9238,
      "Ã¢": 9239,
      "orrow": 9240,
      "imated": 9241,
      "Ġgather": 9242,
      "Ġcalculation": 9243,
      "Ġemphas": 9244,
      "Don": 9245,
      "ĠMcC": 9246,
      "tan": 9247,
      ")-\\": 9248,
      "Ġamplitude": 9249,
      "Ġdoor": 9250,
      "ĠChris": 9251,
      "Ġgenus": 9252,
      "fixed": 9253,
      "ĠSoviet": 9254,
      "oment": 9255,
      "Ġconsult": 9256,
      "Ġpurposes": 9257,
      "una": 9258,
      "ĠPR": 9259,
      "Ã±": 9260,
      "ĠJackson": 9261,
      "Ġfacilities": 9262,
      "Ġmiles": 9263,
      "ĠProvince": 9264,
      "Ġstability": 9265,
      "Ġcredit": 9266,
      "Ġjobs": 9267,
      "navList": 9268,
      "Ġaver": 9269,
      "ĠKr": 9270,
      "ĠLink": 9271,
      "Ġexplan": 9272,
      "eval": 9273,
      "Ġdrink": 9274,
      "Double": 9275,
      "ROM": 9276,
      "ultane": 9277,
      "ONE": 9278,
      "pred": 9279,
      "ĠWis": 9280,
      "ĠIl": 9281,
      "Ġprotein": 9282,
      "Ġopportunities": 9283,
      "Ġsport": 9284,
      "ĠMike": 9285,
      "ĠScotland": 9286,
      "emon": 9287,
      "Ġmenu": 9288,
      "antom": 9289,
      "3333": 9290,
      "Ġcm": 9291,
      "ĠSol": 9292,
      "Ġaccurate": 9293,
      "ĠFire": 9294,
      "Ġion": 9295,
      "Browser": 9296,
      "Ġinvalid": 9297,
      "Ġfluct": 9298,
      "ependence": 9299,
      "ĠSign": 9300,
      "abeth": 9301,
      "Ġexecutive": 9302,
      "Bi": 9303,
      "))$": 9304,
      "Ġà¤": 9305,
      "Second": 9306,
      "eper": 9307,
      "Ġwarm": 9308,
      "Ġlooked": 9309,
      "Ġrequests": 9310,
      "ĠParam": 9311,
      "uv": 9312,
      "ĠJr": 9313,
      "ctrine": 9314,
      "Ġtwice": 9315,
      "Ġmanner": 9316,
      "chor": 9317,
      "ĠNet": 9318,
      "Ġprepar": 9319,
      "aug": 9320,
      "Ġconnections": 9321,
      "Åį": 9322,
      "random": 9323,
      "$),": 9324,
      "Adapter": 9325,
      "inds": 9326,
      "urance": 9327,
      "ĠElement": 9328,
      "ĠSte": 9329,
      "Ġradiation": 9330,
      "MAX": 9331,
      "Ġvehicles": 9332,
      "Ġportr": 9333,
      "Ġcorner": 9334,
      "Ġearth": 9335,
      "Ġtells": 9336,
      "ĠSea": 9337,
      "Ġhappened": 9338,
      "TT": 9339,
      "ipped": 9340,
      "getElement": 9341,
      "Ġdescribes": 9342,
      "Ġperhaps": 9343,
      "Generic": 9344,
      "VD": 9345,
      "ucial": 9346,
      "ĠJersey": 9347,
      "umes": 9348,
      "Ġaggreg": 9349,
      "ĠOption": 9350,
      "ĠJeff": 9351,
      "Ġconfirm": 9352,
      "Ġnarrow": 9353,
      "SSERT": 9354,
      "Ġcomputation": 9355,
      "Ġfunc": 9356,
      "typeof": 9357,
      "Ġfactory": 9358,
      "Ġassociation": 9359,
      "Ġacademic": 9360,
      "Ġreviews": 9361,
      "Term": 9362,
      "ĠBol": 9363,
      "Ġdream": 9364,
      "amaz": 9365,
      "Ġweights": 9366,
      "Ġinspired": 9367,
      "ĠRh": 9368,
      "ĠMu": 9369,
      "Ġshell": 9370,
      "Java": 9371,
      "Ġdivided": 9372,
      "ĠJava": 9373,
      "Scope": 9374,
      "ymmetric": 9375,
      "Ġspeech": 9376,
      "Ġsummar": 9377,
      "ĠFederal": 9378,
      "ĠHistoric": 9379,
      "iveness": 9380,
      "Iterator": 9381,
      "ĠStan": 9382,
      "ĠStudies": 9383,
      "Ġsubgroup": 9384,
      "Ġexpanded": 9385,
      "Therefore": 9386,
      "osity": 9387,
      "ĠRay": 9388,
      "Ġfigures": 9389,
      "ĠNY": 9390,
      "Ġimplements": 9391,
      "ĠCR": 9392,
      "Ġpromin": 9393,
      "colLast": 9394,
      "CHE": 9395,
      "ĠKong": 9396,
      "Ġblog": 9397,
      "Ġconvex": 9398,
      "hl": 9399,
      "ictures": 9400,
      "ĠJewish": 9401,
      "atar": 9402,
      "Ġprincipal": 9403,
      "Ġtreated": 9404,
      "Ġcategories": 9405,
      "Ġfan": 9406,
      "ĠJustice": 9407,
      "agnetic": 9408,
      "Ġshut": 9409,
      "125": 9410,
      "ĠLim": 9411,
      "Common": 9412,
      "Ġprev": 9413,
      "Ġspan": 9414,
      "Ġcomputational": 9415,
      "Ġpod": 9416,
      "istence": 9417,
      "ITE": 9418,
      "Ġcolon": 9419,
      "ĠEst": 9420,
      "ĠCH": 9421,
      "Ġbelieved": 9422,
      "ĠAndroid": 9423,
      "SIZE": 9424,
      "upload": 9425,
      "Ġpossibly": 9426,
      "acks": 9427,
      "Ġbegins": 9428,
      "}$)": 9429,
      "National": 9430,
      "fail": 9431,
      "pres": 9432,
      "ĠExt": 9433,
      "Ġip": 9434,
      "cref": 9435,
      "Proxy": 9436,
      "ĠSta": 9437,
      "Ġretriev": 9438,
      "Ġbridge": 9439,
      "tok": 9440,
      "UL": 9441,
      "Ġdefense": 9442,
      "Space": 9443,
      "SY": 9444,
      "uli": 9445,
      "outs": 9446,
      "Ġarmy": 9447,
      "Ġincident": 9448,
      "acent": 9449,
      "Ġvariation": 9450,
      "ĠSpace": 9451,
      "colFirst": 9452,
      ":}": 9453,
      "Ġneutr": 9454,
      "Ġsuitable": 9455,
      "ĠEnergy": 9456,
      "Ġpitch": 9457,
      "Ġagents": 9458,
      "ĠInvest": 9459,
      "ĠDat": 9460,
      "Ġgeneric": 9461,
      "BB": 9462,
      "uset": 9463,
      "Ñı": 9464,
      "001": 9465,
      "Ġsizes": 9466,
      "aste": 9467,
      "Ġcoordinate": 9468,
      "enant": 9469,
      "Desc": 9470,
      "Ġtopic": 9471,
      "Ġelem": 9472,
      "ocaml": 9473,
      "-(": 9474,
      "CG": 9475,
      "=\"$": 9476,
      "Ġasync": 9477,
      "Close": 9478,
      "ĠAM": 9479,
      "Ġmotor": 9480,
      "JECT": 9481,
      "gies": 9482,
      "Ġtrivial": 9483,
      "player": 9484,
      "lesssim": 9485,
      "ntax": 9486,
      "ĠBroad": 9487,
      "180": 9488,
      "Ġroles": 9489,
      "oes": 9490,
      "Duration": 9491,
      "printf": 9492,
      "Ġbatter": 9493,
      "Ġcref": 9494,
      "tools": 9495,
      "Ġnearby": 9496,
      "Flags": 9497,
      "++;": 9498,
      "Ġlie": 9499,
      "Ġtempor": 9500,
      "Selector": 9501,
      "Ġphoto": 9502,
      "feature": 9503,
      "Abstract": 9504,
      "cert": 9505,
      "ĠWalk": 9506,
      "Report": 9507,
      "Symbol": 9508,
      "ĠJes": 9509,
      "ifiers": 9510,
      "ĠKent": 9511,
      "ĠGuide": 9512,
[...]
