#version: 0.2
Ġ Ġ
ĠĠ ĠĠ
i n
Ġ t
e r
o n
Ġ a
h e
r e
a t
e n
o r
s t
Ġt he
a n
a l
ĠĠ Ġ
i t
a r
Ġ c
ĠĠĠĠ ĠĠĠĠ
l e
i on
Ġ s
Ġ o
e d
e s
i s
Ġ f
Ġ w
i c
Ġ p
in g
r o
Ġ in
n d
a s
Ġ b
Ġo f
e t
c t
o u
Ġ d
en t
Ġ m
a m
Ġa nd
e l
Ġt o
i l
ĠĠĠĠ ĠĠĠ
o m
Ġ re
Ġ h
Ġ n
i d
Ġ S
Ġ (
o l
at ion
a c
i g
u r
Ġ =
Ġt h
i m
Ġ C
Ġ T
< /
u t
a d
ĉ ĉ
o t
Ġ A
i v
Ġ l
Ġ e
s e
= "
c e
o d
a g
u l
) ;
t h
i f
Ġ <
- -
Ġ M
Ġ $
u n
e m
Ġ {
c h
Ġ is
a y
Ġ g
Ġ \
er s
o w
Ġf or
Ġ v
u s
u m
p e
Ġ I
a b
Ġ st
ĠĠĠĠĠĠĠĠ ĠĠĠ
at e
i st
Ġ P
č Ċ
Ġ B
o c
t r
l y
as s
i r
a p
q u
Ġ on
/ /
it h
t er
e x
Ġ *
Ġb e
2 0
Ġc on
h t
am e
Ġ R
ct ion
p t
a v
Ġ H
Ġ D
an d
Ġ "
Ġa s
â Ģ
e st
v er
" >
Ġ F
Ġ L
u b
en d
Ġ }
1 9
e w
re s
l ass
Ġ N
u e
r i
e f
Ġw ith
u p
es s
o p
or t
ag e
Ġa l
Ġ G
a in
ou r
ĠĠĠĠĠĠĠĠ ĠĠĠĠĠĠĠĠ
Ġw as
Ġth at
o s
Ġ W
ro m
ĠT he
Ġ E
l i
Ġa n
Ġw h
ĠĠĠĠ Ġ
Ġp ro
Ġb y
e ct
( )
it y
in e
ar t
n t
at h
ur n
s p
Ġ r
Ġc om
o re
m ent
* *
Ġe x
e c
Ġa t
er e
al l
o g
Ġ it
Ġc lass
ac k
Ġ O
i z
k e
ex t
ig ht
p l
Ġ J
Ġ or
_ {
. .
e g
i es
ab le
Ġf rom
ul t
= =
p ort
Ġ Ċ
an s
t urn
i al
y pe
-- --
u re
i le
u d
an g
iv e
an t
b er
Ġth is
Ġ '
p er
Ġ &
od e
st r
g et
re f
c on
il l
0 0
Ġ if
Ġt r
Ġ he
Ġa re
e p
Ġ U
l d
or m
a st
ar y
in t
ĠĠĠĠĠĠĠĠ ĠĠĠĠĠĠĠ
' s
I n
Ġ y
i p
at ed
a ct
o v
ar d
l ic
or d
u nd
Ġc h
a re
Ġ -
f f
in d
as e
pt ion
at a
e v
Ġ K
u g
{ \
i b
i re
ig n
i a
Ġ le
c om
) ,
ac e
Ġ </
Ġ //
Ġre turn
T he
it ion
ic h
a k
it e
ĉĉ ĉĉ
t o
on g
Ġs h
o st
.. /
p ro
: :
el l
Ġp l
Ġn ot
al ue
c l
j ect
ou t
Ġw e
Ġs e
s er
im e
- >
ĠI n
20 1
our ce
p h
Ġ V
g e
) .
âĢ ĵ
id e
Ġ$ \
ub lic
p le
ic e
u st
ic al
il d
Ġ [
or k
Ġ |
av e
C on
i an
t ext
un ction
ĠS t
c c
en c
m a
en s
l o
l oc
f t
c ri
" ,
o k
Ġn ew
or y
Ġ us
m l
m ath
Ġ @
f orm
d iv
S t
d d
an ce
s o
ar am
Ġ j
r a
s s
Ġa r
e ar
ation s
en ce
d u
ess age
Ġre s
Ġ +
el f
ro w
( "
20 0
sp an
Ġ un
Ġ /
> </
E x
Ġh is
( );
res s
p ut
Ġwh ich
is h
ul l
th er
s et
ĠT h
ĠC h
ac h
on e
Ġ k
s h
> <
iz e
l ow
} }
ou nt
Ġc an
en er
Ġa p
' ,
u se
i el
Ġh as
ow n
Ġ im
in k
1 8
---- ----
ou ld
tr ing
ent s
m er
Ġcon t
c he
../ ../
ir st
ou s
ter n
âĢ Ļ
^ {
a il
f ig
Ġst r
iel d
Ġ .
f r
e qu
Ġh ave
t e
Ġn ame
er r
he n
o b
e le
in al
l l
i ew
re e
er v
ou nd
on d
} \
e b
o ver
le s
1 0
Ġp ublic
Ġa b
c al
Ġd ef
er m
cl ud
== ==
ĠĠĠĠĠĠĠĠ ĠĠĠĠĠĠĠĠĠĠĠ
Ġal so
Ġcom p
Ġw ere
ht ml
} $
Ġ* /
et h
Ġh ref
ic t
Ġ| |
ĉĉ ĉ
Ġf unction
Ġp r
Ġ :
r y
ar k
u al
o ol
at or
** **
r it
s ource
n e
p s
Ġin t
ol d
p r
n ame
m essage
( '
at es
c k
Ġs et
r ay
Ġ ro
ĠĠĠĠĠĠĠĠ Ġ
f er
le d
t a
om e
ro up
o id
P ro
y st
ab el
) )
tr ans
od el
l ation
Ġv ar
Ġp art
th is
i x
Ġd is
ot h
i o
t d
ion s
r ap
ĠU n
Ġ Y
Ġo ut
er t
Ġal l
N ame
Ġon e
c ol
( \
E R
o int
en g
Ġ= >
pe c
w o
Ġb ut
eg in
Ġ #
er y
n g
t y
he d
ke y
ing s
Ġs u
yst em
ic s
Ġo b
Ġ up
im port
r ight
T ype
O N
Ġg et
f ter
Ġf irst
Ġt ype
at er
b egin
Ġe v
ĠH e
al se
pe ct
o se
Ġ _
Ġc ol
I d
ĠI t
Ġpl ay
Ġthe ir
a w
or s
ar g
} ,
am es
cri pt
c re
Ġy ou
Ġd o
le ct
b o
S tring
/ >
a x
I N
on t
is s
Ġ qu
Ġit s
Ġd e
p aram
s um
# #
at ch
at ic
ig h
el y
l ine
Ġw ill
ic k
Ġl ine
Ġ âĢĵ
um ber
1 2
w e
19 9
c ode
ation al
u ild
loc k
Ġv alue
an y
Ġh ad
Ġp re
Ġs p
Ġd es
_{ \
Ġp er
" />
f o
re turn
trans lation
u ct
ĠA r
em ber
eth od
a ke
Ġo ver
Ġc l
an n
ap p
t he
t on
C om
i e
) $
Ġa g
Ġm e
am p
oc k
Ġwh o
ur re
enc es
Ġd ata
m s
R ef
ro und
Ġs elf
Ġt wo
c lass
Ġw ork
1 6
ang e
Ġt ime
Ġ âĢ
c ent
et a
d ef
ar ch
R E
ut e
} {
ad d
o ok
ov e
Ġ end
R es
L ist
Ġcon st
n c
Ġ id
if ic
p os
Ġcom m
Ġo ther
i ed
al s
: //
Ġa dd
e y
Ġ !
p on
an c
Ġ el
C h
l abel
at ive
it le
T h
l and
a ult
ce ption
rap h
Ġin ter
t ype
Ġh er
y m
Ġbe en
Ġa d
Ġw hen
as ed
it ed
Ġm ore
fr ac
Ġ und
e q
Ġres ult
ad e
s on
le ft
Ġs up
S T
Ġ i
Ġ= =
Ġthe y
ul ar
le ment
Ġin clud
t ain
t t
Ġy ear
o f
ers ion
op le
or n
g r
Ġt e
1 5
v ar
Ġs c
Ġs ub
Ġs o
A T
ic an
u es
ac he
y s
ĠC om
Ġ en
ĠTh is
as h
Ġn e
id th
on s
is hed
er n
"> <
Ġn ull
ut ion
w ard
A r
Ġre g
ire ct
ol low
Ġin to
Ġf il
_ _
tern al
Ġre qu
tr ib
ht t
ad er
Ġl oc
ug h
y le
Ġof f
e e
Ġon ly
Ġ `
Ġv oid
urre nt
v al
1 7
Ġp e
Ġc re
iv ate
at ing
um ent
as k
Ġa ct
Ġf alse
v ent
ĠN ew
c ess
ĠĠĠĠĠĠĠĠ ĠĠĠĠĠ
is e
Ġfor m
iv ers
cc ess
Ġ >
d er
19 8
or g
m in
) :
ĠĠĠĠĠĠĠĠĠĠĠĠĠĠĠĠ ĠĠĠĠĠĠĠ
b ar
res ent
t s
ou g
Ġb et
Ref er
Ġa fter
Ġp os
ur ing
Ġtr ans
re ad
an k
i ous
Ġre c
O R
T r
am ple
str ing
1 1
ĠP ro
" )
A R
Ġs pec
Ġin d
b ack
Ġwh ere
v e
ut h
s c
r u
o ot
Ġin st
it s
w ay
o od
in ed
an ag
s elf
" );
I D
L E
le ction
-------- --------
Ġor g
ol og
Ġc o
ĠA l
o y
am b
at ure
t em
it ies
Ġund er
Ġtr ue
Ġre l
$ .
Ġ use
r m
c ite
w ork
Ġf ollow
math b
Ġo p
} )
Ġan y
im es
Ġus ed
in ce
s ub
b ject
$ ,
1 4
id er
Ġ --
Ġs erv
Ġv al
i er
ist s
Ġs ec
w n
2 5
C ol
ag es
1 3
o le
Ġd ec
eng th
i k
ption s
pl ic
// //
it em
is ion
b le
Ġn o
av a
u res
Ġthe n
Ġ )
, \
Ġ err
d ata
em ent
2 2
f ile
Ġab out
or ld
Ġth ere
du c
Ġp ol
Ġk n
Ġre m
D ata
ĠS h
Refer ences
V alue
ib le
Ġf inal
we en
equ ation
p re
Ġd ist
r r
loc ation
re n
il ity
} .
mer ican
ser v
ser t
**** ****
n b
Ġd if
ĠC on
Ġel se
T o
Ġs he
u le
ar n
in s
a ction
Ġw ould
per ty
Ġ x
p x
ĠĠĠĠ ĠĠ
il y
19 7
âĢ Ŀ
ĠĠĠĠĠĠĠĠĠĠĠĠĠĠĠĠ ĠĠĠĠĠĠĠĠĠĠĠĠĠĠĠĠ
l og
Ġb ack
Ġg ener
v alue
Ġpro v
Ġt est
Ġth an
ch ool
b r
2 1
a ir
ev el
E N
Ġ ent
od y
ar get
Ġch ar
Ġsu ch
Ġs ome
Ġn umber
S S
ic es
b all
a z
v iew
re d
) );
iz ed
A L
Ġf e
Ġ Q
Ġc ase
in es
ro ugh
nb sp
math cal
li ent
==== ====
ep end
Ġp h
Ġ/ **
a h
S et
Ġbet ween
Ġbe c
ar s
um n
ĠA n
as on
Ġpe ople
u ff
pl ay
Ġ Z
d ate
con t
ow er
Ġcon s
ment s
o h
Ġa c
et er
n ot
Ġstr ing
ĠA s
3 0
Ġsh ow
y p
d a
] ;
ro id
Ġm ay
at t
oc i
al ly
Ġm odel
Ġf ile
ph a
Ġe m
i ent
} (
p ress
f or
Ġs er
ou n
re am
ire d
Ġg r
( $
Ex ception
ĠT r
Ġst ud
s cript
p p
Ġ& &
t est
Ġl ist
n ew
e ad
' )
i ke
ot t
at us
m ary
y n
e ver
iv er
ro l
3 2
Ġa m
m e
Ġo per
Ġst atic
are nt
E rr
v el
Ġh igh
in n
19 6
c o
} ^
b e
Ġs im
Ġm ost
Ġin v
ivers ity
b y
ap t
ou se
~ \
le t
U n
O bject
Ġ ed
Ġe st
et s
} _
w h
Ġf ound
1 00
al e
Ġpr ivate
T est
ĠS tring
ĠC ol
oug h
Ġl ink
Ġ// /
Ġst art
Ġth rough
s ize
' ]
Ġc al
r c
m an
l ink
a j
Ġm od
ĠE x
ord er
ĠĠĠĠ Ċ
t il
it t
w w
D E
Ã ©
ur y
str uct
a use
Ġas s
Ġ %
Ġs ystem
g er
Con t
f ace
C T
al pha
ou th
"> </
ĠS e
Ġb o
Ġg roup
() .
l er
n av
Ġs ign
m all
ĠI nd
. </
Ġa cc
Ġc ent
5 0
j s
p ublic
el ta
if e
m od
Ġo ur
l ish
ĠF or
Ġdif fer
Ġ! =
or th
Ġag ain
Ġap p
Ġex t
Ġg iv
() );
re qu
p i
he ck
Ġg o
Ġf ield
Ġm in
V iew
f ield
u c
I T
if y
Ġst ate
evel op
G et
S E
r ic
us s
id ent
ro ll
l ay
Ġe ach
K ey
ĠW e
iz ation
Ġp oint
a id
qu ot
oth er
Ġh im
Ġm ethod
Ġthe m
Ġc or
ĉĉĉĉ ĉ
Ġthe se
I nd
f ore
l ang
Ġd et
Ġob ject
" ;
A t
Err or
if ied
ers on
amb da
Ġd r
ind ex
[ '
Ġ key
C lass
I m
E n
l ist
Ġb r
d is
ay s
Ġe qu
A N
A s
ĠA merican
M E
Ġr un
ist er
Ġre p
B y
O n
re g
Ġsec ond
ur l
Ġt itle
Ġyear s
2 4
F ile
! --
. _
Ġwh ile
ind ow
ĠâĢ ľ
ce pt
2 3
tr y
Ġw ell
Ġ X
Ġf l
are d
Ġd irect
a f
Ġs ing
cri ption
ant s
=" +
Ġl ong
p ace
) \
g round
du ct
oc ument
Ġp aram
t op
lo ad
re at
p ar
ot e
ut il
w idth
in ter
Ġcom ple
Ġus ing
se ction
ĠF r
Ġe ff
f unction
over n
b ers
Ġd uring
al ign
C O
t ime
Ġte am
enc y
ect or
ot s
Ġs ame
ĠL e
col or
f l
Ġth ree
r on
h at
c es
. "
00 0
ra w
t en
19 4
o ad
sum mary
Ġ/ >
ess ion
=" ../../
Ġre le
is m
$ \
S h
Ġsh ould
' );
m ed
htt p
Â ł
in clud
en se
ath er
Ġc urrent
am ma
re ak
m u
it ial
Ġs ol
ar ray
m p
Ġy our
iv ed
ĠUn iversity
Ġbe fore
A n
Ġar t
port s
= \
p art
t able
R equ
H e
ĠUn ited
F or
r ite
] ,
() ,
ro p
ri b
g o
Ġne ed
f ul
Ġb oth
Ġbe ing
Ġm ed
h er
ack age
Ġar g
Ġw rit
Ġb uild
Ġ z
.. .
Ġs ur
ist ory
Ġf am
g roup
Ġc all
qu e
erv ice
Ġf r
A l
lo b
ect ed
g y
gr am
com m
l ished
ĠS c
us er
Ġh ow
ical ly
R e
us h
Ġfollow ing
ĠD e
t ing
ur ation
Ġat t
re m
form ation
Ġm ade
bo x
in a
ir c
ĠI s
sh ip
v oid
Ġlink s
p ath
ar ly
Ġh and
us ic
u ch
Ex ternal
anag er
6 4
ig ma
Ġ\ \
Ġre sp
Ġ u
it or
an e
U L
_ \
m y
Ġr ight
con st
T ime
ro ss
ain s
o x
oot ball
ut ton
at s
Ġper form
Ġp ass
Ġm em
ĠO n
uff er
ition s
R O
og raph
Ġe ver
Ġn on
ur al
Ġ-- >
Ġl ike
Ġor der
Ġm ain
} _{
h o
I ON
e k
3 3
ĠM ar
Ġm on
iss ion
m d
T ext
Ġp op
} ^{
o ber
- \
` `
Ġm any
Ġrec ord
eg a
Ġap pro
ĠE ng
Ġdiffer ent
op y
mathb b
pon se
In fo
" .
an u
' t
en n
r al
" :
Ġsup port
oh n
A C
ist r
Ġo wn
Ġgiv en
Ġpart ic
' :
] .
d t
et work
Ġim port
iv ing
et ers
olog y
Ġ ?
Ġev ent
og le
ens ion
Ġbe g
Ġex pect
uth or
ig inal
E vent
at ri
Ġre ad
con fig
N ode
ic a
I nt
se arch
ĠI f
b f
Ġd evelop
19 5
ver t
Ġplay ers
as es
Requ est
I tem
Ġ{ \
l p
ul ation
ĠP r
ph i
trib ute
ĠĠĠĠĠĠĠĠĠĠĠĠĠĠĠĠ ĠĠĠĠĠĠĠĠĠĠĠ
c d
Ġs ize
E lement
ĠCom m
Ġe lement
A dd
Ġn ow
^ {\
b ed
Ġt erm
P E
l ambda
/ *
T E
ĠC l
Ġp ar
## ##
ĠS he
Ġj ust
al ity
f in
F ield
u str
w ord
W e
ar m
Ġth row
iv es
ĠR es
Ġm ov
el s
Ġcont in
d es
ac es
b um
ĠP h
le y
a pe
Ġpro cess
Con fig
P ath
htt ps
un c
per t
D ef
ĠĠ Ċ
/ **
un e
Ġb el
Ġl ast
Ġ );
it er
() )
o ff
Ġc ould
\ \
id d
n er
Q u
Ġa ut
Ġstr uct
ain ing
ction s
Ġg u
ent ial
ole an
ep s
om en
Ind ex
St ate
L A
4 0
Ġl ater
ual ly
m odel
l ength
2 7
N ot
st ance
ign ed
o pe
Con text
P aram
ic on
i or
Ġkn own
i um
Ġop en
Ġinclud ing
Ġb ro
ĠSt ates
Ġap pe
Ġerr or
M ap
ames pace
Ġle ad
Ġm ake
s k
u i
F orm
a i
T R
Ġf our
r ide
2 8
Ġto p
Ġs aid
ap i
os s
ĠO r
Ġdis c
Ġloc al
ar ge
I C
ou nc
b lock
D es
Ġt em
ount y
ĠB r
W ith
} ;
' ;
Ġrequ est
Ġcont ent
m ap
it al
Ġfil m
Ġf in
O ver
Ġm et
ch n
Ġse ason
2 6
ag ue
t itle
Ġas sert
m b
le ss
Ġ( !
Ġdo es
ef ore
Ġb l
Ġch ild
i ev
pt y
th s
i ence
Ġst yle
Ġt ext
Ġre ce
Th is
Ġagain st
= '
P I
ĠR e
tr ue
O r
um er
Ġ} );
Ġwh at
Ar ray
Ġf act
plic ation
Ġle ft
ĠM ay
Ġs ince
u ro
Ġs chool
p or
ar ri
ir d
ĠG r
ak ing
end s
ate g
Ġar ray
Ġm y
S ervice
//// ////
il on
ur s
E qu
ust om
s ide
en e
. ,
Ġre f
Ġal low
Ġbec ause
b ol
Ġt arget
f rom
en u
" "
ĠA t
Ġf ind
od es
Ġs mall
F r
b eta
am ed
Ġvar i
duc ed
Ġcal led
Ġ ,
in put
Ġser ies
v ious
act er
he ad
iv ely
[ ]
ut es
Ġ} ,
ĠW orld
se c
Ġdef ault
res ult
Ġcons ider
h ip
b s
Ġv is
ĠJ ohn
ific ation
Ġc oun
a it
Ġv ersion
lect ed
re t
id es
ile d
er ing
v ir
mathb f
Ġl og
w it
id ed
="../../ ../../
Ġever y
u ck
pon ent
n o
Res ult
p an
U R
2 9
u age
ĠH ow
ĠA nd
ĠA d
Ġ( \
et urn
al th
l t
ap ache
l ing
du ction
ar i
pl ate
n ode
S ize
v ersion
B uild
tern ational
Ġf ootball
n et
ur ch
b ody
ain t
d ay
ast er
ĠN ational
ĠC an
le ar
Ġdes cri
y nc
tt p
Ġus er
in c
ob ject
s igma
our ces
Ġal bum
t n
g t
Ġ/ *
err or
che s
Ġb ased
im it
a u
Ġg overn
> &
tr act
Ġest ab
if t
Ġs rc
able d
Ġd id
Ġp resent
il t
Ġrep resent
Ġse e
Ġpro t
Ġeff ect
al k
ab ility
M essage
Com m
val id
cal e
ict ion
lob al
Ġg ame
Ġex p
cre ate
pert ies
Ġm ark
F F
^{ -
in ess
C ode
} {\
ild e
ass ert
Ġcomm un
******** ********
ag s
at ter
end ed
Ġm ult
Ġd own
Ġt yp
Ġb lock
m et
ĠS ystem
ĠC ar
in ation
ou ble
iv al
Ġp res
Ġre fer
Ġhe ad
Ġd ep
ain ed
Ġse ver
+ +
ym bol
Ġj ava
Ġp ath
def ault
on y
ĠâĢ Ķ
Ġun til
ition al
Ġm ust
ĠB l
ma x
c ss
in fo
Ġcon fig
H and
et y
6 0
ĠP l
ev ice
A D
Ġin cre
U T
lo at
b l
Ġn ext
Ġfam ily
Ġresult s
il ter
d own
Ġb ir
com p
Ġex ample
Ġbec ame
Ġle vel
O f
n ess
Ġb ase
Ġpro gram
com e
ĠJ ul
201 6
ak es
Ġc are
ĠY ork
ĠN ov
Ġval ues
ail s
p oint
Ġev en
st ate
I s
is ed
re c
ore d
ĠS chool
cont ent
L O
ĠW h
L oc
math rm
Ġex per
atri x
ĠC ounty
+ \
b ase
Ġcon d
P h
Ġin formation
ott om
Ġc ode
ĠC ent
Ġsing le
Ġc r
aj or
201 7
us ing
anu ary
our n
Ġm an
Ġa v
ĠB rit
Ġc heck
Ġan n
li am
l a
ne ction
V al
ol v
st art
Ġpos s
orm al
i ans
re ate
p en
Ġv ery
qu ad
ward s
Ġb reak
ĠP ar
Ġp ost
g amma
M L
ar row
; </
Ġpro ject
ustr al
nd er
* }
w are
; &
Ġo cc
Ġw orld
I G
Ġpl ace
Ġs ong
b ig
Ġcre ate
Ġor iginal
ĠY ou
Ġl ife
Ġv iew
ĠS outh
8 0
Ġb u
r ist
ĠW est
l ight
w ith
Ġ( )
Ġp ub
ĠP ol
Ġm ax
---------------- ----------------
ĠW ar
IN G
d elta
o in
S er
Ġorg an
iv ity
M A
t ab
201 5
ĉĉĉĉ ĉĉ
a ut
201 0
che d
o ption
ug ust
Ġth ose
Ġ= ==
Ġw ay
Col or
u k
st yle
M odel
Ġare a
is on
ĠG erm
ide o
Ġde ath
p m
r ho
ĠA ll
P l
s up
Ġd i
U ser
ail able
ĠG e
anc es
Ġsu ccess
c ast
S ystem
201 8
Ġ_ _
Ġb ook
Ġin put
an sp
20 20
L og
Ġo ld
3 5
=" ../
Ġhe lp
^ \
Ġpol it
us iness
pt ember
ĠO ct
Ġid ent
201 4
ĠR eg
and roid
Ġm usic
ele ct
ĠG u
includ e
Ġ: =
O ut
m ber
press ion
p ackage
U p
Ġc ap
C H
=" #
Ġst and
Ġn ode
ic ial
s q
pos ition
tain er
Ġwith in
t al
se e
i od
E T
E D
amp ion
ĠC al
ele te
ĠJ anuary
l in
M anager
F rom
Ġin itial
Ġan al
T able
end er
at ely
Ġa round
j ava
w eb
av ing
t ings
the ta
3 4
Ð °
sp ace
ator s
20 19
R ec
Ġ$ (
ww w
I S
ord ing
roll er
Ġl arge
) }
Ġm ap
con text
t es
ĠG et
un g
old s
a ff
n ext
Ġcon text
k en
f alse
a e
ĠĠĠĠĠĠĠĠ ĠĠĠĠ
Ġ} ;
res p
Ġinst ance
Ġle t
ater ial
Ġp rom
oc us
s w
3 9
ĠM arch
Ġt ri
Ġit em
201 1
Ġpos ition
Ġind ex
om an
201 3
m ethod
ist or
ol ution
er o
T D
In ter
Ġsever al
ĠW il
ord s
om et
Ġn ear
G roup
< !--
ur ther
ear ch
Ġp at
ta u
ic y
ac y
ĠL ist
Tr ans
N ew
201 2
| -
M P
pl oy
Ġ Ð
Ġdist rib
pr il
Ġp erson
Ġal ong
ix ed
at ures
Ġch ang
Ġtr y
ith ub
ad i
Ġinclud e
str u
he s
Ġcol or
A ll
v ision
ib r
d om
ĠThe y
d oc
ĠA ugust
go ogle
fig ure
ĠC o
A B
ĠB e
ĠĠĠĠĠĠĠĠĠĠĠĠĠĠĠĠ ĠĠĠĠĠĠĠĠĠĠĠĠĠĠĠ
P r
UL L
Ġserv ice
D O
s l
ĠSe ptember
c ount
200 8
Ġkn ow
Ġl aw
eb ug
Ġd ue
======== ========
part ial
Ġst ill
Ġex pl
ev ent
Ġp ower
che ck
ĠSt ate
Ġs ource
Ġand roid
u les
Ġd el
Ar g
le ge
) </
def ine
Ġre port
20 22
ic le
D is
Ġst d
pr int
Ġm atch
ce mber
it ive
Ġcon f
U N
d b
p ed
Ġre al
] {
lic k
d e
ur ity
$ -
ĠOct ober
6 6
Ġl a
ac ed
le q
R eg
Ã ¡
ple ment
A S
ann el
9 9
u ed
u x
r t
Ġback ground
C E
al es
ĠS p
ĠĠĠĠĠĠĠĠ ĠĠ
Ġl ang
200 9
ĠJ une
g ithub
n ing
le x
Ġ enc
Ġp o
Ġh ere
c ore
A d
ĠT e
Pro perty
Ġw on
Ġs k
Ġt able
arg in
Ġb ool
Ġb order
n amespace
i que
Ġb ound
ĠU S
ĠA ustral
ar r
Ġwith out
Ġ eng
Ġs um
ĠE d
Ġob tain
wh ere
st atic
20 21
z e
t imes
ref er
3 7
cent er
ĠC ity
ur g
ĠE uro
T H
ĠJul y
as ure
op er
3 1
Ġm uch
um ents
ang le
C lient
eg er
um e
Ġfor mer
re l
if ier
Ġl ook
Ġrele ased
S ee
> (
le m
Ġo ptions
t ed
M od
Ġad v
200 7
Ġc our
Ġbe st
Over ride
ĠN orth
Ġcont rol
b utton
fin ished
Ġpro ble
EN T
Ġsh ort
ĠA pril
ĠHow ever
ĠE n
g ress
oc ial
en ame
ra ft
Ġe arly
Qu ery
Ġplay ed
Ġm ag
n ect
and s
0 1
3 6
n u
ut ions
Ġd ocument
st it
Ġd em
Ġt ake
or ies
I L
e ction
Ġgener al
vir on
se mb
ard s
b uild
Ð ¾
ut ed
ad a
M ethod
n ull
ĠNov ember
Ġn il
ug g
on se
} (\
ĠI m
pro t
Ġd ay
ap er
Ġadd ress
b orn
t ual
Ġre t
Ġdes ign
C ount
Ġle g
Ġc ity
ĠA ss
Ġc ar
ill ion
Ġd iv
] (
resp ond
Ġpre vious
Ġis s
ĠI I
Ġsp ace
Ġmem bers
ĠR ep
ĠT o
ĠDe cember
v en
a im
eq ref
ther n
5 5
Ġresp onse
act ory
li b
c urrent
I t
Ġan other
Build er
il it
lo se
D ate
d l
Ġcom put
Ġpro perty
ok en
il ar
B ar
Ġh ome
E S
Res ponse
re en
Ġchar acter
un finished
j av
ograph y
ĠN o
ph p
r am
ĠM in
C l
Ġw ant
A nd
Ġreg ion
O T
Ġbe h
Ġw idth
Ġex ist
Ġass oci
200 6
Ġn etwork
Ġrequ ire
le g
i j
eb ru
Ġpro f
9 0
Ġa ccess
C all
s im
Ġe lect
way s
Ġto tal
Ġf a
G ener
eq n
c all
I P
arn ing
y l
ĠP art
20 00
3 8
d ir
qu ery
ebru ary
4 5
Ġ et
U S
Ġm essage
im age
Ġte chn
N A
Ġd epend
im al
in ition
Ġim p
ĠBrit ish
o ptions
b it
}$ ,
ĠM ed
Ġc ell
b tn
an a
h am
Ġo pt
an ch
ĠA b
ĠS et
ft y
c ed
rit er
arg s
ĠEuro pe
end ing
}$ .
ĠS er
Ġr ange
Ġm ajor
ĠB y
Ġl arg
read y
Ġa ction
pro v
om ega
\ ,
add ing
tr a
st er
Ġm ass
ef f
in fty
Ġ< <
Ġw omen
Ġm ember
u f
Ð µ
op s
pos ed
ĠLe ague
] )
che ma
Ġres pect
Ġst at
Ġcomp any
um p
Ġf ull
Ġ es
im ent
t ilde
ĠS up
at ab
ap an
Ġg ood
U til
ĠS ec
con d
ne y
Ġgovern ment
um b
D elta
im ate
ĠR ec
stru ction
Ġc a
ampion ship
P ar
Ġro le
ith er
al f
S ub
pl ace
Ġav ailable
7 5
In put
St ream
Ġs ide
he ight
Ġch ange
h and
Ġd om
Ġb as
Ġcomp et
in o
ĠK ing
requ est
Ġs pe
B lock
o pt
S c
Im age
act ive
E nd
l or
c lient
Ġal ign
P os
cre en
ch o
y les
Ġab ove
| \
Ġex ec
Ġp arent
Ġv ol
ĉ Ċ
r s
im um
ĠB o
Ġ čĊ
l s
on es
um an
D I
Ġbir ths
St atus
os ed
Ġ( $
ĠĠĠĠĠĠĠĠĠĠĠĠĠĠĠĠ Ġ
ĠĠĠĠĠĠĠĠ Ċ
( (
ener gy
cent ury
E d
ĠF ebruary
Ġwe ek
ĠA fter
id ge
ĠG ener
al t
Ġf ore
and om
Ġsup er
Ġ- >
Ġt ele
N av
Ġ ke
ON T
ip le
p age
ou d
Ġn amed
h old
ĠCh rist
in it
Ġim age
Ġob serv
ren ch
n s
c it
B e
ac hed
A pp
Ġto wn
viron ment
Ġl and
re w
nav bar
Ġout put
n a
am a
er a
he ader
Ġcare er
ad io
Ġper iod
k n
f unc
m ark
x i
ad em
r un
Ġc ount
und le
Ġdef ined
t x
raph ics
in ary
S tr
ĠM c
pec ial
c apt
us ed
Ġa ff
Ġl ength
19 0
Ġcomm and
if f
) {
ateg ory
$ $
ser ver
er ed
x y
Ġd on
7 0
our s
âĢ ľ
Ġt urn
Ġfil ms
In stance
ĠĠĠĠĠĠĠĠ ĠĠĠĠĊ
Ġtr ack
Ġh istory
Y PE
re st
200 5
ay out
im ary
A ct
F A
ys is
Res ource
ut ure
m o
d ec
Ġbo olean
Ġh ost
row s
Ġchild ren
ore m
N S
se qu
âĢ Ķ
ĠTh ere
( {
Ġ" ""
Ġrece ived
. âĢĿ
Ġp ort
g or
Ġre st
ent ion
Ġdis play
Ġl abel
ib ility
ĠN ULL
ĠD r
N o
he m
h as
able s
Ġe p
Ġp age
epend ent
Ġc ur
Ġpoint s
O P
ame work
cd ot
A p
Ġinter est
Com ponent
Ã ³
n ow
app end
B ase
ĠB ar
P oint
O ff
Ġrequ ired
y d
Ġpartic ular
Ġcomp on
ĠQ u
ure d
Ġs l
ig ation
Ġa uthor
ed er
Ġm at
A ction
yn am
ĠH igh
Ġbeg an
n on
Ġhe ld
4 4
wit ch
Ġto ok
du ce
t arget
ic ro
Ġpro duct
or age
I f
es e
A merican
Ġg ames
Ð ¸
it es
ic ense
Ġb usiness
op h
ĠH is
ĠEng lish
[ "
200 4
Ġh ouse
Ġt imes
00 00
at form
d o
ug in
b ottom
Ġf ew
At tribute
e ople
Ġb and
th ough
Ġl ow
ĠC or
Ġfe ature
Ġm anag
p arent
id get
ri or
ĠA dd
Ġsim ilar
eg r
L ine
' '
Ġcre ated
c le
Ġval id
i et
Ġstud y
c or
re et
ma il
e ed
ac ing
Ġint ro
il le
oug ht
ĠM an
li ed
ist ic
S ource
Ġcor respond
Ġas sum
im ation
Ġbu ilt
E X
art ment
Ġinv est
RE F
id ual
th ers
Ġloc ated
ĠM e
S P
semb ly
Ġdescri bed
Ġpop ulation
ch ild
Ġcl ub
ight s
ĉĉĉĉ ĉĉĉĉ
ep ar
Ġcom b
T oken
Ġd est
o ice
S elect
d f
ĠA p
atab ase
c ul
E E
Ġf ree
ĠA fr
Ġ+ =
Ġestab lished
ud e
ert ain
Cont ent
ing ton
Ġc over
ad ata
ĠA ct
con om
Ġinclud ed
a ul
ĠD es
O S
v ers
Ġev ents
B uffer
ot o
4 8
ĠĠĠĠĠĠĠĠ ĠĠĠĠĠĠ
O ptions
ĠJ apan
Ġ energy
Ġspec ial
ĠR uss
j son
u ation
istr ict
Ġn um
m eta
Ġd eb
x ml
Ġa ge
P ol
Hand ler
eqn array
ĠCh ar
ĠT est
Ġexpect ed
Ġse ction
Ġth ird
ansp ort
ial og
ond on
se lect
c m
D ec
Ġn ational
Ġd er
capt ion
ust er
fo ot
l im
ĠC lass
gor ith
Ġv ill
row ser
O L
N ull
Ġl ate
Ġpub lished
re ct
m ember
A G
av es
st and
ad o
Ġappe ar
Ġplay er
Com p
} [
Ġcomm on
i ber
Ġs ix
Ġf ive
L ink
iz er
eps ilon
dis play
O per
E L
}} \
ĠA m
Ġar ch
Ġst ation
Ã Ń
ps i
Ġd en
g ener
Ġre search
r l
Ġs at
Ġdet erm
ug ht
ĠC ont
un ic
Ġh ttp
k s
Ġposs ible
Ġs ite
ĠA ir
Comm and
Ġar r
i ef
f irst
idd le
as cript
Ġv ir
g es
m it
A P
bo ok
ent ly
Def ault
Ġme asure
pro perty
R un
pr ivate
li es
ĠI nt
Ġimport ant
ens ure
Ġed uc
Ġw ater
ĠPh il
St art
ĠE ast
ap s
ĠA mer
h ost
Ġal ready
oc ol
ele ment
Ġw he
Ġa ir
og n
ĠP ark
Ñ Ĥ
Ġb ody
Ġc rit
trib utes
C C
S ec
f ord
is ing
op en
ĠN one
am ent
mod ule
al y
Equ al
F actory
ĠCol lege
G L
Ġmodel s
U E
row n
f ind
ĠW hen
Ġc amp
lay out
cl us
im g
c ase
V ersion
g le
f low
Ġcol umn
T ask
0 5
in st
ent ry
o ke
ĠF ig
kn own
itt le
p ng
p ose
ĠO ff
Ġle ss
Ġpr int
)$ .
* /
ĠV al
P art
inn ing
$ {
ak en
Ġof ten
Ġres ource
p ost
F unction
U s
g ed
g en
m ar
ĠO bject
ab or
p ol
st d
s rc
Ġl oad
Ġind ic
Ġparam eters
ounc il
Ġme an
s i
W indow
LA SS
Ġp ot
ĠD av
st atus
~ ~
ĠAr t
Tr ue
Ġstr ong
l ast
cl ose
h a
sq rt
im ension
Ġin s
H el
ĠL a
Ġparam eter
Ġam ong
ig r
ĠS w
ĠL ondon
Ġ< !--
} _{\
O m
Ġbuild ing
R eturn
s g
AT E
Ġp erm
it ory
ĠP res
200 1
N umber
ĠWil liam
ĠB ut
ĠThe se
ĠCom p
g ing
Ġshow s
p ush
Ġoff icial
al d
ilit ary
lection s
Ġt ask
ĠM on
r ict
H T
ab ly
Ð ½
M S
Ġpro b
V ER
Ġe ither
ĠB ro
des cription
p tr
Ġhe ight
str ong
ĠH ouse
6 5
Ġp ut
Ġre d
ibr ary
Ġacc ount
} );
Ġs ent
re ed
att le
arri ed
ist ry
ĠF rench
b m
ch ar
p y
f ont
Ġr a
C K
Ġa ver
m on
ĠW ith
Ġm en
w rite
ĠH er
L abel
Ġcent ury
200 3
Ġprot ected
d r
ĠD is
ĠS ch
jav ascript
ĠO ne
Pro v
al let
s mall
c ell
ĠP er
Ġwrit ten
el ine
Ġf urther
inn er
olog ical
d ict
Ġserv ed
Ġsh own
Ġatt ack
l en
ourn al
ĠD ef
ult ure
s u
ĠS o
ĠR eturn
Ġreturn ed
" ]
ens ity
Ġ q
Ġl ight
p c
Ġan t
F l
he et
F I
ĠG o
Ġin f
ud io
if act
olv ed
Ġspec ies
Ġcon c
ir m
ad es
Ġsign ific
Ġcoun try
Ġcol l
so le
m m
i i
Ġproble m
G amma
, "
Ġthrow s
F irst
ch ange
st ream
un k
Ġc lose
Ġ ide
Ġm er
s ol
ps ilon
pro ject
Ġlang uage
v is
u id
^ *
m em
T O
G r
Ġm argin
ire ction
ot ype
" ).
li p
Ġ{ @
0 7
ro y
bo ard
ĠD istrict
Ġterm s
o o
C ell
v es
Ġvar ious
ĠCh ampionship
C heck
ot ion
B utton
18 9
Ġs ay
Ġbe come
Ġf ac
ĠD ep
Ġb orn
200 2
Ġw indow
at al
Om ega
B ox
Ġv ideo
Ġc lient
ĠH ar
Ġst atus
d et
ev en
Ġph ys
ur b
oci ation
itt ed
// /
Ġdist rict
Ġse qu
A ss
S up
ĠGerm an
F ONT
P RO
he l
Ġperform ance
Ġcommun ity
s igned
ĠI N
le vel
P age
Ġstruct ure
Ġg en
m t
p ack
Ġcont ain
loc al
Ġl o
ft ware
r ing
Ġdevelop ment
ay er
ig ger
Ġim plement
m ain
Ġle ast
Ġs ample
E m
i ol
Ñ Ģ
S ON
S C
sub section
Ã ¼
Ġin div
Ġf ri
18 8
action s
//////// ////////
Ġc ustom
Ġl imit
Ġcon struct
ĠN or
Ġext ends
st yles
Ġprov ided
C reate
Ġh aving
Ġro und
od ing
Ġm iss
ob j
R ep
Ġd ouble
Ġc irc
m ult
Ġs epar
4 9
ic o
B ack
id ence
form at
ch i
ĠC up
Ġd eg
er efore
m enu
ĠIn ternational
param s
Ġtele vision
Ġtr ad
M et
Ġv ia
est ion
6 7
con tainer
p ly
ock et
Ġ url
app ing
W h
fer ence
Ġv er
Ġ$ {\
O D
0 8
Ġp ay
idd en
b or
if orn
il er
end if
U I
ĠĠĠĠĠĠĠĠĠĠĠĠĠĠĠĠ ĠĠĠĠĠĠĠĠĠĠĠĠĠĠĠĠĠĠĠ
Ch ar
Ġfe atures
Ġcl aim
Ġpr act
c el
pect ed
Ġst ates
Ġprov ide
ĠA c
ĠS tr
Ġwork s
Ġrel ations
A cc
)$ ,
q l
: </
4 7
res ponse
Ġt w
g l
ly mp
W eb
" ),
Ġaut o
ann ot
L ast
Ġg reat
Ġstart ed
Ġelement s
as ing
Ġne ver
Ġd ate
d raw
ig in
( &
ap ter
Col umn
R A
Cont roller
Ġo ption
ĠN ot
Ġdisc uss
R ow
iforn ia
m ost
ill s
A fter
H istory
D et
av y
Ġw ar
Ġm illion
yp es
ĠM ich
em ents
y ear
Ġc atch
Ġd ays
Ġmethod s
Ġeng ine
med i
ol l
Ġg l
Ġto o
Ex t
ounc ed
ĠS an
) (
r is
text bf
`` `
ĠA g
Ġmod ule
Ġto get
Ġse arch
Ġdif f
Ġqu ant
Ġtoget her
Ġac ross
ou ch
E nt
Ġn ov
Ġyou ng
i ents
Ġgr ad
ex p
B C
ĠR ed
Ġc ost
n um
up date
Ġindiv idual
f inal
i qu
or ph
Ġconsider ed
R ead
Ġre cent
os p
c an
P re
oci ety
Ch ild
Ġn orth
ce ed
Ġgroup s
Ġd ev
M em
Ġcon trib
v are
min istr
ar a
serv ice
Ġth ink
} =
w ise
Ġm ove
B undle
l ong
Ġre pl
N O
< ?
c ap
s m
str act
b a
Ġst ory
av el
Ġsu ff
f ilter
AB LE
Ġup date
ĠR ev
Ġpro duction
ĠD o
oc r
or ge
ĠInd ian
T em
List ener
Ġd ied
Ġs ocial
Ġv ert
Ġ\ ,
ry pt
ĠD iv
ul a
T ER
Ġal ways
ĠE l
Ġserv ices
i res
Ġ â
Ġc ross
Ġf und
Ġassoci ated
à ¤
p o
Ġs om
b uf
Ġs on
Ġ` `
h ib
Equ als
^{ (
Ġle d
ar ies
, âĢĿ
Ġadd ed
p ass
Ġ( (
Ġre view
Ġfunction s
199 9
Ġhow ever
v ec
Ġbel ow
ĠS im
Ġin ternal
Ġbl ack
it ect
Ġ ]
B U
ĠEng land
Ġg row
Ġsignific ant
ic ient
gorith m
Ġf ont
Ġl ower
}^ {\
Ġc ame
Ġn av
I I
ri es
tem pt
ang ed
k a
Ġfollow s
Form at
ĠE m
ĠU p
or iz
H E
i as
sh ow
ref ix
ot a
St yle
ell ow
Ġs che
Ġhe alth
ĠCal ifornia
Ġadd ition
0 9
Ġmed ia
am l
vare psilon
B ig
ĠA cc
e h
ord in
in stance
y nt
at ural
Ġe as
col umn
ens or
Ġ Ã
d ev
Ġpro perties
at tr
A A
ac ity
UR L
ly ing
ak er
id s
n umber
Ġc opy
Ġf low
use um
il ities
) =
is f
Ġd a
Ġs w
#### ####
Ġc ou
eg raphics
includ egraphics
Ġh istor
Ġme ans
oy al
ĠC LASS
b urg
land s
Ġbet ter
Ġon ce
Ġd one
ĠR iver
rem ove
am ily
Ġcomple x
Ġpot ential
sc ope
ĠAustral ia
enc ies
r angle
0 2
em ph
ag n
Ġsh ip
Ġpl an
S pec
at as
Val id
Ġw rite
Ġn ormal
o on
ag ed
Ġdistrib ution
0 4
Ġn one
Ġh alf
C ON
fl u
Ġs pect
id ing
Ġe ar
Ġg lobal
F ilter
U M
ugg est
b ased
ĠInd ia
' ).
Ġwhe ther
ĠM y
Ġrele ase
Ġinst ead
Ġs outh
Ġvill age
M ode
Ġspec ified
f a
Ġg e
ĠIn ter
iv il
Ġspec ific
Ġaver age
one y
Ġact iv
to ol
A b
ĠH REF
L ayout
Ġm aking
un it
Ġf ar
Ġwork ing
Ġappro x
c er
Add ress
al le
A ut
Ġof fer
ĠRep ublic
Ġcont ains
ession al
a el
Ġform at
D B
O b
ĠI r
L ength
P eople
L I
Ġmov ed
Ġf ocus
Ġt re
Ġh app
c irc
199 0
adi us
Ġse en
6 8
pro cess
ĠC O
ĠPart y
Ġpro duced
Ġc ases
Ġstud ents
pro to
el se
Ġab le
Ñ ģ
T P
ist ics
Ġat tempt
om b
Ġs em
Ġm ight
Ġn eg
right arrow
ers hip
t ag
Ġh ard
w rap
an el
var i
pl it
Ġin ternational
P er
Ġr ate
Ġstand ard
ĠâĢ ĺ
ch an
="../../../../ ../
Ġinter face
Ġcent er
util s
il i
Ġw ent
L iving
om ent
f e
Ġser ver
Ġh uman
Ġsystem s
ĠAmer ica
CO L
Ġtr aining
Ð¾ Ð
Ġact ive
Ġc lear
G e
w ide
Out put
refer ence
Ġfield s
Ġn ec
C ache
Ġloc ation
em s
Ġwe bs
7 7
Ġs it
Ġs ym
Ġsur v
s f
U rl
Ġs old
_ .
Ġin it
S I
ĠM ark
Ser ver
on ly
Ġcons ist
iz ing
iv en
Ġph ot
Up date
ele g
un ch
T YPE
ch iev
} ).
Ġ row
Ġp air
Ã ¶
. ~\
le ase
class es
ile s
Fr ame
ĠC our
and id
Ġpartic ip
Ġinst all
ĠP ort
Ġem ploy
ens ions
ĠTr ans
li er
Ġst ream
ad ian
ĠH T
ĠV ir
s d
Ġrem ov
ĠA PI
Ġp ress
out put
Ġg raph
[ \
ĠG roup
k it
ĠI D
ot ed
ic les
Ġann ounced
0 6
Ġchang es
Ġj ob
th ing
Ġl ik
Ġc y
Ġestab lish
Ġf em
5 8
Ġw in
Ġf ail
s pec
Ġl im
Ġun it
var phi
old er
4 2
ĠH ol
N D
E ng
u el
Ġm aterial
is es
Ġmult iple
Ġl oss
il led
Ġtyp es
Ġsuccess ful
at ory
R em
ĠF irst
str ap
sup port
Ġw est
d epend
ĠM al
h an
ar ing
Ġhigh er
over line
ic ation
res h
Ġme et
Ġf ather
ef ined
Prov ider
++ )
ĠGener al
4 6
P C
Ġl iter
l it
Ġfile s
Ġse lect
D e
sk ip
Ġoper ation
Ġac cept
ĠPres ident
y r
ĠG L
L et
. }
Ġbo x
O pen
ã ģ
off set
Ġb g
y a
=" -
Ġgo ing
av en
Ġc le
ĠB el
tt ps
Ġdec l
Ġf uture
) ]
ĠS um
ĠA ward
Ġst op
Ġep is
ĠAr ray
Ġe conom
Ġcall back
ob ile
T S
art ifact
Ġanal ysis
199 8
af e
ĠCan ada
Ġpro duc
ĠA nt
Ġcond itions
ver se
Ġst ep
ĠD em
Ġm ale
it te
Ġt aken
Ġsub ject
ĠS m
Ġh om
Ġ[ ]
Ġmark et
5 7
ex ample
tem plate
Ġa way
ER T
Ent ity
O ne
Ġbe com
ing le
ĠD i
Ġpolit ical
> >
Ġcol lection
Ġl ines
b in
Ġap plication
il m
i ers
Ġ* *
pro of
Ġm atrix
8 8
ĠG overn
NA ME
M ed
Ġn umer
W idth
Ġj o
bo ot
Ġh ttps
pro p
li ke
Ġke ep
Ġ! ==
od ed
ĠB er
Ġm ode
Ġe ast
ge q
ĠS k
Ġo thers
ex ec
ã ĥ
Ġex press
a ign
Ġg round
back ground
Ġthe ory
cont rol
ound s
a ur
Ġse lected
Ġf requ
Ġreport ed
} ),
lay er
Ġdeath s
Ġp aper
Ġpop ular
0 3
5 9
Ġ ...
p ing
e al
Ġa ward
Ġqu ery
Cont rol
w indow
ĠC ouncil
ank s
ri a
ĠQ ue
Ġs uggest
ĠThe n
plic it
M in
Ġadd itional
ug e
ĠL icense
ro te
Ġth ough
Ġg ive
ot al
S p
s cale
ag o
Ġreg ular
Ġl ive
z er
ĠO F
ĉĉĉĉ ĉĉĉ
Ġ Â
stit ute
ĠT ype
f act
ĠCh urch
ĠTh om
E nc
at ives
ĠO lymp
ĠFr ance
em pty
ip al
ĠSt reet
A ccess
ĠP al
R I
5 00
ĠEurope an
ĠR em
Ġb en
ER R
Off set
& \
T op
Ġam ount
Ġconst ant
Ġsim ple
ĉ ĠĠĠ
Ġp ast
ĠJ ames
A M
. \
l ate
u a
d ocument
) ^
W ork
Ã ¤
ĠD on
Ġen vironment
ĠE X
requ ire
C o
âĢ ¦
ĠR ober
c s
ach ing
un n
ĠAr my
ess ages
ĠS en
ion al
tr ies
Ġbel iev
Ġbro ad
() ->
w est
Ġarg s
Util s
ĠP aul
Ġcomp an
fr ak
M ax
Ġsol ution
mod al
ĠF rom
iz es
T ypes
f loat
b ind
ol ve
v an
ĠBl ack
h ood
AT ION
C D
En try
T I
ache s
Ġs cale
ac c
it ar
un t
id a
Ġfil ter
T ree
}, \
ĠD ata
198 0
par se
Ġs cal
Ġp ur
Ġcontin ue
="../../../../ ../../
. /
st ant
r d
Ġrel ated
Ġr andom
d ep
Ġe lection
eth ing
Ġcomp os
199 6
at tern
Ġf all
( _
ree k
ĠR ef
**************** ****************
ĠW eb
t ree
Ġent ry
b ool
Ġcon v
ĠCent er
t ml
ell ing
Config uration
et t
Ġcond ition
Ġc apt
Ġbg color
act ers
Ġsat isf
T ag
m atch
V is
T arget
Ġf ig
im ated
ĠR oman
model s
i os
Ġwebs ite
C ase
cript or
Ġ( "
artifact Id
am s
ul ated
Ġtrans form
N ext
styles heet
comm on
Ġcompon ent
ag ing
qu are
Ġa chiev
ĠR ich
Ġobtain ed
v ille
Un it
{ {
ĠF ile
P O
Ġind ependent
gr ad
Ġn ames
Ġro ad
a uthor
Ġcal cul
| |
Des cription
Ġare as
Ġob j
I O
ail way
] );
b b
ĠDav id
anc ed
Ġbeh av
return s
Ġinclud es
ou thern
Ġwork ed
so ft
ro ot
ens ive
L evel
Ġreturn s
Ġm id
Ġresp ons
199 7
D r
} /
Ġf loat
b reak
Ġro ot
ĠF l
A g
Ġt reat
ad ow
ĠN e
ĠSt ud
Ġcom e
m ing
ĠS ub
Th ere
Ġin flu
L oad
Ġp rior
Ġb ig
ra z
' ),
Ġl ost
B o
Ġv ector
A V
i us
5 6
Ġent ire
c a
fr ame
Ġ ill
ĠL og
sh ould
Ġoper ator
Ġrefer ence
h line
un ity
ef t
Ġcan not
Ġb it
Ġtem per
ber g
Ġrec ogn
F O
Param eter
Ġacc ording
th on
b efore
d rop
et ch
He ader
comm and
Loc ation
ĠGe orge
Ġcomple te
Ġpart y
n ab
Ġfr ont
in ated
ĠA pp
7 8
ist ance
Ġapp oint
Ġm ilitary
CO DE
P o
Ġto ol
U P
val ues
Con tainer
S chema
he nt
ĠAss ociation
ĠL aw
u int
Ġb i
Ġappro ach
app a
S earch
ar ter
. $
Ġrem ove
prot otype
B r
h i
im ages
Ġd ensity
b olds
He ight
Inter face
Ġc ertain
wo od
o e
ĠN S
o res
Ġcon nection
group Id
b order
Ġu int
ach ine
as ons
ĠM od
% ;
Pos ition
Ġcurrent ly
Ġint egr
ĠM et
Ġh old
Ġdevelop ed
lang le
und er
Ġpolit ic
Ġsol id
Ġl ittle
] [
ĠH am
( [
c ache
st on
ĠC r
bolds ymbol
s y
ĠCh ina
m at
O p
Ġpres ident
err y
9 5
ĠAr g
Ġrun ning
Ġas k
w ait
Ġd raw
ab s
and er
Ġoff set
Ġ ;
ub e
u z
S H
4 1
Ġvir tual
B A
ĠDiv ision
res ource
c r
4 3
Ġright s
Ġw rote
ash ington
ar io
Ex ec
it ing
> ,
" ))
ct or
ot es
d ated
199 5
ri ef
n ected
Ġaut om
Ġl en
ã Ĥ
ol ic
ĠM ore
om s
math frak
ag on
b uffer
Ġp adding
m ut
Ġt im
an i
Ġre ason
Pro cess
file s
ic ult
to ken
. )
ĠO ut
Ġcl os
ĠUn ion
ld ots
en a
con f
Ġwh ite
K E
ut ive
Ġt ag
}} $
Ġcomple ted
s ign
Ġc ut
oriz ont
Ġch o
ĠGerm any
Ġjo ined
Ġpro p
ain ts
Ġteam s
Ġrespect ively
us es
ĠL ou
Mod ule
ex pected
L ambda
ark s
Ġev al
A PI
b ra
is k
im ately
lic e
ĠH all
ĠM ount
197 0
Ġth us
Ġpos itive
p atch
ty p
C an
Ġst age
Ġfor ce
itte e
F e
Ġcorrespond ing
Ġen ough
Ġopen ed
ĠAr ch
Em pty
Ġwh ose
Ġb uffer
o ch
ber t
Ġg ot
ĠP e
ain e
g in
Ġperform ed
Ġr ather
V AL
L e
k ind
Ġcon tract
Ġk ind
Ġnec ess
wh ich
ĠT V
ĠReturn s
ug ins
ĠM art
Ġlead ing
c ial
ri an
Ġc ast
ro s
ĠTh at
en ed
Ġv iol
Rec ord
c i
H ash
ĠR oyal
M enu
Ġdirect or
ct x
Y ou
H ttp
' >
S cript
Ġobject s
Ġeduc ation
en v
Ġmon ths
in i
ĠDep artment
L o
Ġm arried
Q L
Ġf ire
Ġin c
Ġsupport ed
Ġd oc
b and
R ange
Ġh on
R L
J son
C urrent
Ġm ot
Param s
Ġ* )
enc ed
Ġ{ }
Ġro ck
d evice
ast ic
UL T
Ġallow ed
Ġdef e
m box
Ġb ar
Ġfa iled
t og
ĠM ag
str y
he st
t im
199 4
S im
Ġt en
F ont
ĠĠĠĠĠĠĠĠĠĠĠĠĠĠĠĠ ĠĠĠĠĠ
Ġs m
Ph i
M M
ĠR oad
COL OR
Ġprof essional
if orm
ĠL et
Ġit er
a a
H ow
orizont al
Ġsur face
Ġf lo
Ġph ase
ess or
Ġsign ed
Z E
re a
Ġ ir
Ġex ception
cit ep
W hen
t ask
Ġst ar
st ack
we ight
sp lit
g n
Ġr ank
d ot
ĠU s
it ch
Ġcon duct
Ġoff ic
199 2
") );
Ġcompan ies
Ġd ynam
tain s
Ġt ree
ot imes
ang er
E CT
ĠO pen
B l
u ous
it ude
W rite
Ġdes cription
Ġcon struction
Ġdet ails
S O
c os
al led
ugh ter
pon ents
IG N
ĠAustral ian
ĠD an
Ġim prov
ict ure
Ġdef ine
Ġ ~
: "
M on
ĠW ork
Th read
Loc al
Ġus es
Call back
R el
Ġm akes
Ġv oc
Ġcl osed
ent ity
p ite
Ġre ally
ĠPro v
z on
ĠS ince
Ġpol icy
d ebug
od er
a uth
ask et
eder al
Ġ" \
or ing
lang uage
Ġap plic
d at
DI R
ĠCour t
h ash
D L
ĠA ng
N one
Ġarch itect
ma ke
d en
ĉĉ Ċ
Ġd ig
Ġex ists
ĠM usic
ines e
p op
l n
ĠS ervice
P ort
Tr ack
Ġgo al
5 1
C L
Ġqu al
9 8
Ġp ers
irect ory
as c
nab la
& &
Ġf av
a o
Ġchar acters
c y
: (
text it
doc s
Ġch annel
ĠComp any
boot strap
Ġs ays
Ġp ack
ĠD uring
Ġc andid
Ġex cept
con s
Ġset t
C opy
Ġ ::
Ġst ri
ut or
M O
Ġcor rect
Pro ject
Ġcontin ued
z a
itt ing
Ġs creen
Ser ial
Ġz ero
C P
Con nection
tr ack
iss ions
ag ment
O ption
at io
Ġline ar
Ġnov el
ul ly
al a
ĠC reate
Ġy et
Ġpart s
Ġsong s
Ġset s
Ġ> =
g u
ensure math
ick er
Ġits elf
h r
sh ire
ĠM ary
Set tings
Ġdeg ree
Ch ange
Ġparam s
Ġv ict
199 3
d i
ĠJ ack
\ %
ang es
oun ter
ĠM or
ĠU K
ĠW ashington
n ap
Ġat tribute
k appa
an o
ĠC ap
ic ons
Ġpass ed
Ġsequ ence
g reg
led ge
ĠS am
ate gy
Ġcour se
ĠT ime
Ġoff ice
IN E
Ġcon str
Ġal most
f g
Ġprov ides
Ġdeb ut
ĠRober t
Ġwrit ing
Ġcent ral
Ġconfig uration
Ġin j
e in
=" /
9 6
Ġv ers
umn i
ĠFr anc
ĠV ol
Ġde al
Ġfil ename
c ard
f s
9 7
\ |
In st
foot er
Ġhand le
om ic
ĠAc adem
Ġem pty
Par ser
Ġneed ed
IN T
Ġoper ations
iction ary
ĠS ome
t hen
u ate
ĠP ress
ur i
non umber
Ġun ique
Ġst ore
Ġre v
urs or
h over
Ġm oment
Ġsc ope
Ġsom ething
ĠIn stitute
ĠB uild
Ġpr imary
Ġequ al
Ġso ftware
ĠB ook
ar ily
() :
Ġle arn
ill a
ru pt
ĠS ee
5 4
Ġcre d
Ġch urch
out e
ix t
ĠM ex
Ġrelations hip
Ġx ml
Ġwe ight
Ġreg ister
% %
Ġgener ated
ĠB est
Ġw ords
Ġchang ed
ĠB ay
Ġcon tr
ple te
ul ations
Col lection
D ocument
j o
Ġdist ance
se y
Ġpat tern
Ġrecord ed
est ival
Int eger
ĠD ec
20 23
Ġt our
Ġequ ation
Ġn atural
Ġse lection
Im pl
j oin
ĠEx ception
Ġover ride
5 2
AC K
i ation
Ġad ministr
Ġr adio
Ġne igh
Ġlarg er
Ġmon th
Ġreg ard
ĠS ociety
s ystem
C A
Ġtrans fer
ĠIs land
S igma
ĠNew s
k r
} )$
Ġd evice
omet ry
Ġfr ame
I F
Nav Bar
ig en
199 1
se cond
Ġpl atform
Pro perties
Ġmod ern
Ġt aking
ĠG reen
P ass
H O
Ġr ule
Ġw ord
Ex pression
ĠT ex
re y
u ated
= {
= #
Ġpro posed
AR T
ou l
o om
ĠT own
( :
"> &
pecial ly
Ġup on
Ġhim self
inter face
b on
Ġqu e
Ġr ace
m ission
Ġplay ing
D ir
ms g
m aterial
( -
Ġset ting
F ig
ĠP ublic
all s
osp ital
Ġhas h
Ġac qu
Ġintro duced
b our
ĠIt al
ĠB ase
Ġrel ative
7 6
Ġ[ '
Ġcamp aign
Ġt ro
ens us
Ġch all
ä ¸
ĠM iss
liam ent
ĠM ac
ĠH en
Ġf ight
ant ic
pan el
P ost
s ite
c at
c lear
su ccess
V ert
ann er
Ð° Ð
Ġtem plate
Ġex pression
ur a
St at
p g
Ġdirect ly
Ġal though
ĠCl ub
S k
Ġl ove
Ġt akes
ĠP re
str ict
j ust
v ector
Ġdisc over
Ġout side
Ġro t
Ġs il
Ġs ession
m en
Pro t
ĠP at
Ġiss ue
Ġm ar
ĠD ay
Ġw ife
Ġth ings
Ġn ight
not e
a fter
el t
Ġdes igned
M atch
ĠB G
ĠAfr ica
Ġth ought
s end
M ar
m es
ĠF orm
## #
Ġwrit er
d est
S ession
Ġdirect ed
Ġpro of
Ġexper ience
ĠO per
ĠG ames
Ġfollow ed
i ences
Ġfri end
Ġk m
d elete
add ress
As ync
Ġd irection
ĠJ ust
ĠCan adian
Ġs ure
X X
ro ad
================ ================
ĠT ur
ip p
I con
Ġpr inc
Ġwe b
Oper ation
anc ial
D o
w s
ĠY ear
ĠA lex
C ore
I V
y es
ĠC ong
ick et
ĉ Ġ
Ġex act
ĠL eg
5 3
ĠĠĠĠĠĠĠĠĠĠĠĠĠĠĠĠ ĠĠĠĠĠĠĠĠĠĠĠĠĠĠĠĠĠĠĠĠĠĠĠ
ult ural
ound ation
Ġvis it
=" _
ap se
Ġmax imum
sub set
on ic
St ore
D F
196 0
art s
ĠD E
anag ement
Ġmem ory
Ġe cho
Ġarg uments
he t
U se
f ill
T ool
n ce
m ore
Ġmult i
L eft
Ġs ound
s v
Ġf ixed
c opy
ĠM o
U B
Ġdoes n
Ġn or
oper ator
yn ch
Ġl iving
ĠWh ile
c lick
Ġme chan
ĠM er
w idget
Ġm other
ĠAfr ican
Ġunder stand
Ġal t
Hel per
Ġform ed
ĠT O
Ġiss ues
ĠL em
Ġappe ared
ĠThom as
Ġcon nect
Ġpre c
struct or
198 9
y e
n ormal
7 2
Ġs end
Ġincre ase
Ġs eg
'] ,
t ion
Tem plate
b ound
S ign
ĠKing dom
Ġarg ument
Ġvari able
Ġexper iment
u it
Ġd am
c over
Ġschool s
w id
AL L
D own
typ es
block List
}} {
Ġlarg est
Ġus ually
ĠO R
erv ices
pl ugin
ĠJ er
Ġeffect s
pr ing
Ġal gorithm
f ocus
v as
ĠRuss ian
Ġs witch
am era
; ->
D raw
ĠM at
ex port
as ic
s ort
\ [
Ġneed s
Ġpro te
il ies
om a
25 5
ĠAs sert
ĠCent ral
Ġj av
Ġthrough out
icro soft
Ġexp and
Ġper cent
m ode
ĠS al
Ġcomp ar
air s
? :
Ġst re
Ġin fo
ĠM ad
ĠN ame
iz ations
P tr
re ater
Ġqu estion
pan ish
ar ian
ĠDem ocr
asket ball
u an
ĠC heck
Ġnew s
to String
Ġf ood
PE CT
trans form
ĠGr and
Ġalbum s
dis abled
Ġm ount
p adding
Ġt ax
ĠĠĠĠĠĠ Ċ
T e
Ġeff ort
ĠAcc ording
th m
Ġstud ies
Ġmiss ing
Q ue
Ġn om
por ary
l am
m id
col l
M ult
ĠR E
P op
ri al
Ġm us
Ġs cript
Ġinv olved
B O
ĠM ap
co q
-- -
Ġpre dict
ĠE ar
Ġfe el
/ \
Ġtr ansport
eleg ate
clud e
3 00
ĠC ath
D D
Ġnum bers
E v
ĠĠĠĠĠĠĠĠĠĠĠĠĠĠĠĠ ĠĠĠĠ
Ġe ight
Ġh ous
100 0
Ġun its
r ics
-- >
ĠD irect
Ġre nder
Ġspe ed
erm an
Ġto ken
ind ing
in ternal
Ġf ace
ĠMich ael
web kit
Th at
ĠM useum
Ġcom ment
Ġconc ern
c p
Or der
equ als
w in
Ġbir th
D evice
d s
med ia
Ġfin ished
Ġ} )
ĠT om
ify ing
ST R
s cal
Ġle ague
P L
ec k
d ist
$ (
end ar
equ al
' re
ĠTr ue
Ġdiff icult
i pe
R ect
Ġle arning
Ġfact or
S A
Ġus ers
ex ports
R ight
Ġbeh ind
ict or
l as
8 6
Ġallow s
atas et
Ġon line
ĠO b
Ġre ve
at ively
r ange
ĠM ont
e an
ĠWh ite
Ġs us
Ġe lected
et ime
ĠSe ction
ĠH istor
Ġfound ed
ĠL oc
Ġbo ard
ra el
id ents
ar p
I M
Ġh it
ĠJapan ese
Ġg ave
ed y
ac cess
Ġs ports
7 9
Ġto day
H ost
az ine
ĠBG COLOR
ĠRec ords
Ġim medi
ĠH el
V ector
I R
T itle
annot ation
Ġpro gress
n ov
Ġequ ival
H P
Result s
ĠS T
ann ing
Ġin du
Ex p
Ġs ort
ĠSc ott
198 8
S l
T im
ee k
Ġim ages
ĠTex as
ĠRes earch
ĠG old
Ġindu stry
for ce
Ġor igin
ĠCar ol
Ġj ud
Ġed itor
V ari
Ġtrans ition
F L
ill ing
hand le
g an
Ġperson al
re al
in ing
F C
m as
vent ion
Class es
ĠZ eal
Ġrepl aced
ĠE nd
ĠD el
ourn ament
Ġlong er
ĠF ield
ĠP o
Ġab s
Ġbook s
ĠT or
Ġobserv ed
duc ation
ag ram
L ong
X ml
} -
S u
ĠWest ern
Ġcon vert
Ġl ot
Ġdef inition
z eta
s ession
Ġcoun tries
Ġ ign
ĠAs sembly
N ames
Ġt alk
C R
ĠO ther
AT A
Ġmanag ement
I ter
ĠSc ience
ĠCh inese
ĠJ ew
depend ency
Ġitem s
Ġim m
th let
Ġj oin
Refer ence
en ing
St ack
wid et
tog gle
S D
g lobal
Ġexist ing
ĠS ing
ERR OR
ir it
Ġcon sum
ĠZeal and
s cri
D ep
Ġpresent ed
Ġgiv es
Ġm anager
com ponent
Ġprevious ly
G o
ĠLou is
pl ing
Ġimp act
ĠM em
ĠSup er
Met adata
ĠB en
Ġst aff
Ġes pecially
4 00
ell s
ĠAcadem y
ĠItal ian
R ev
; \
Param eters
6 9
Ġa void
Ġs ymbol
Ġin side
Ġread ing
D om
Ġa x
Hand le
f ony
re q
{ -
Ġ er
Ġlik ely
N et
y per
Ġappoint ed
ĠChrist ian
Ġco ordin
ĠVir gin
is ation
h igh
all ow
ter m
re nder
ĠG reat
Ġact ual
fr amework
Ġed ge
ĠC re
Ġpl aces
Ġwho le
Ġsub sequ
Ġs ex
or se
a res
ĠChar les
Ġund efined
equ iv
on str
ir l
re land
Ġpol ice
Ġfor ces
{ }
mer cial
m i
ym fony
Ġd elete
> ();
; "
Ġp ackage
ĠA ut
ĠM us
\ !
Ġj ournal
OR T
pl ugins
="../../ ../
Ġepis ode
S e
at re
N on
Ġcomp ared
ĠFranc is
' .
Ġn odes
av er
al ax
Ġtrans action
le v
re es
S L
widet ilde
w rit
eth er
Ã §
ĠN ote
V ID
Def inition
M D
en um
ĠV er
Ġanal y
Ġp ick
Ġal tern
anu fact
c ustom
k i
oun try
ist an
ĠC he
ĠS ur
ĠJ SON
ĠMin ister
ĠD ate
Ã³ n
Ġclass es
Ġm oney
G ET
Ġpar se
ĠD et
w ell
A m
Ġda ughter
ĠE v
H as
D ebug
ov ers
Ġproble ms
Ġra ise
W E
ip s
198 7
p ub
omet imes
Ġp ain
Ġ& =
erv e
ĠGo ogle
est amp
ĠS l
Ġact ually
clus ion
Ġinst it
aw s
in ct
Ġs even
ish ing
ĠSum mer
Ġco ach
E l
field s
Ġw ait
Ġdom ain
Ġfor ward
d ots
( *
ap plication
E M
H ead
is ions
ĠR un
Ġsec urity
ĠF ore
Ġcour t
6 3
OR D
irc raft
it a
ern el
el ves
ĠR ob
ĠHe alth
ic ol
cent ering
wh ite
set tings
Ġfootball ers
ĠL ong
S ION
> .
F alse
Ġcont act
Ġconst it
ĠP y
Ġnot e
r um
M y
Ġstart ing
net ic
} +
Ġup per
p ers
j ection
ĠP ost
Ġs ources
Ġapp ly
Ġcompon ents
AT H
Ġtemper ature
AN D
k m
nc y
ĠTe chn
ĠSer ies
ĠK ore
p df
ge bra
Ap plication
P A
ĠO ver
Val ues
az z
a iled
Test s
ĠSm ith
f ree
ĠG od
Ġh ot
al ed
av ed
et te
ĠF ootball
Ġs aw
Ġd atabase
Ġs ens
ul ate
i h
Ġor d
ong s
Ġgu itar
\ ]
Ġsc ore
198 4
Ġl ibrary
he ast
V er
e es
6 2
pr ime
Ġs en
Ġqu ick
ĠE rr
Ġst e
on om
at in
Ġ ess
Arg s
ru le
y ing
Ġrun s
198 6
Ġn et
Ġmat ches
ig hest
Ġth erefore
Ġk illed
Ġn amespace
Ġt it
In valid
Ġbas is
he lp
Ġapp lied
8 5
v m
Ġto wards
th at
Ġcou ple
Ġal umni
Ġe mer
Ġrel ig
-------------------------------- --------------------------------
rec ord
ĠE q
Ġg as
lo od
ĠEX PECT
param eter
fo o
Ġrepresent ation
Ġv eh
A pi
Ġex hib
ĠH istory
c ategory
Ġro ute
Ø §
ol ar
sq l
ĠC ON
Ġart icle
A c
ex ception
Ġb all
ĠJ ose
R ender
Ġc op
Ġm ention
; <
Ġacc ur
it able
K ind
Ġdest roy
E Q
f n
Ġt err
im s
Ġc ache
ĠFr ank
d el
is l
Ġa ud
8 9
imension al
ic ago
all ery
Ġr ules
k y
j a
con nect
co pe
Ġcontain er
ie ce
P S
ĠM ath
Ġsym met
hold er
C lick
id ers
ĠF lor
Ġben ef
wit ter
ĠSec ond
ac ement
Ġcom es
os en
Ġset tings
st ar
Ġsh are
F T
ell a
198 5
evelop ment
ail y
Ġdec ision
} "
Ġfem ale
Ġother wise
Ġth read
Ġpl ant
Ġc ivil
ĠP ri
st ep
rec ated
ub y
R ed
d ouble
Ġo s
n am
As sert
Ġn ative
Ġb ad
ill er
ĠP eter
Ġw alk
OR M
Ġfinal ly
ing u
W hat
Ġsign al
ert ific
ann ed
co in
Ġbuild ings
ĠOlymp ics
ic ate
Ġbut ton
Ġun signed
N um
Ġlist ed
if est
; /
6 1
Ġphys ical
Ġres ources
Ġext ension
Ġdirect ory
tab ular
rom e
P arent
ĠM el
By tes
Ġst ations
Ġde ep
Ġy ield
by te
Ġcon cept
Ġlevel s
Ġl i
Ġad apt
Ġex tra
Ġ Î
Ġj son
Ġdem onstr
Ġh ours
` .
Ġro om
ĠOr der
il ton
Ġhe ader
ĠHT ML
Ġre ached
Re ader
Ġvari ables
g raph
ĠK ey
} ]
Ġwh y
ant a
Ġd ro
Ġc ause
Ġfin ite
key word
Ġg old
f il
_ ;
S he
P ackage
Ġcol lect
Ġproduct s
Ġso on
pe ople
Ġan g
atal og
Ġ( '
Ġm atter
ele br
Ġart ists
7 4
at ur
Ġat tr
P erson
Ġbehav ior
F il
ĠFor ce
C al
U RE
x x
\ "
Ġerr ors
Ġass ist
7 3
Ġby te
ic i
Ġst ated
am i
Dec l
ĠM ass
arg ument
Ġm unic
ans ion
c ur
v ed
Ġnecess ary
in et
M ark
Ġcont aining
ĠF inal
D ialog
ĠL os
k er
Ġbeg inning
R ule
Ġtr avel
est ed
Ġeffect ive
Ġsmall er
in sert
bo olean
ud d
ig an
Ã ¨
ĠRich ard
ĠR ock
Ġinvest ig
Ġsh ape
Ġm iddle
Ġtechn ology
ĠL ake
ur t
re ement
T C
\ {
G B
D oc
D elete
Ġc he
Pol icy
ab it
rap per
Ġsc en
ĉĉĉ Ċ
P si
Ġte ach
' ))
Ġincre asing
re place
re me
ĠPar is
anc y
Ġ' /
ele ction
vir tual
ĠC amp
ĠA v
f ull
ĠB ill
Ġevent ually
pro x
ad min
19 50
Ġa uth
ĠR ead
ĠA L
ol f
Ð »
ver y
Ġlim ited
ed ge
ĠF in
Ġcap ital
) =\
D i
ip eline
el oc
st ore
li ance
ĠF e
at o
Ġp or
oc key
ĠA ust
inst all
ĠM odel
7 1
ollow ing
Y ear
SE T
198 3
em ail
Ġap i
ĠComm ission
Ġopt im
ĠPro ject
En abled
) }\
ĠK n
ad s
Ġoriginal ly
S w
Ġtr ain
O K
ut ing
ĠIn c
ut ch
Ġear lier
Arg ument
om orph
st at
or ation
n el
S ince
Ġremov ed
Ġbr ing
b ot
pre t
M ain
G E
aut o
Ġvol ume
call back
ĠR equ
g s
Ä ģ
reg ister
drop down
ic ated
S o
ang uage
ĠB ig
ĠU ser
Bo olean
ig er
Ġin line
p resent
ĠCath olic
R oot
Ġdescri be
ond s
C re
Ġpract ice
ind er
ĠW omen
Ġstruct ures
ĠThe orem
ĠW hat
Ġc ulture
Ġsc ient
ĠV ictor
Ġbeg in
ĠS panish
ĠT able
Ġbecom es
Ġpl aced
Ġcoun ter
P R
Ġv an
Ġst ars
us ion
Ġbro ther
leg al
ĠI reland
__ (
b i
Ġl ock
pass word
Ġh olds
Ġincre ased
ind ent
ĠGe org
W riter
T ab
f ly
Ġgr ant
Ġp urch
li e
Ġrepresent ed
ĠL ife
p ool
} =\
8 2
ĠIs rael
Ġdistrib uted
ĠH ill
S um
& #
Ġb ur
B ody
alle l
ĠM ethod
es h
Ġd ark
Ġart ist
Ar t
Ñ ĥ
, -
ent al
Ġact ivity
Ġby tes
Ġrem ains
By te
ĠK e
Ġdiffer ence
ynch ron
FA ULT
Ġfour th
Ġp aint
Ġmed al
.. ..
ĠD u
Ġ< =
M ock
Ġm ut
Ġqu ality
raz il
ou b
ĠĠĠĠĠĠĠĠĠĠĠĠĠĠĠĠ ĠĠ
Ġide a
ĠC D
St orage
Des criptor
l ines
$ )
Ġfam ilies
du le
ĠI S
ynt ax
] ]
P T
rel ated
Ġw allet
ad y
ĠP lay
Ġev idence
Ġbroad cast
ĠPro f
Ġpart ial
198 2
Ġcon ver
Ġser ial
ut y
Ġet c
ĠP enn
ĠV alue
Ġb ank
AG E
Ġpro file
ĠT em
com ment
ro t
reg ion
Ġfl ag
ĠP ub
Ġ+ +
key s
Ġc ard
ĠReg ister
er ies
h s
em ic
ly ph
Ġb tn
ĠI O
16 0
Ġtest s
Sh ow
Ġfor ms
form s
Ġorgan ization
ĠI ll
Ġch arg
se m
ĠAn n
sh ort
sp ring
Ġle ader
") ]
Ġac com
ov iet
Ð º
Ġsim ply
os ing
Ġprob ability
ish op
ous ly
ĠSt ar
con trib
E ach
ĠC ast
Ġl ack
a ud
Ġbound ary
Ġd ed
ĠIn st
Ġinv olv
up le
ĠF ilm
ĠT wo
m argin
Ġm sg
J ECT
Ġpre vent
Ġrem ain
T V
Field s
ir ing
Ġfe ed
C S
ĠP an
pp ed
Ġdis e
Ġsp in
od ec
ĠI d
ol k
C ustom
Ġpe ak
c pp
=" @
Ġmin utes
cl oud
Ġb ottom
n umer
Ġcon nected
Dis play
8 4
Ġgener ally
Ġinv oke
al i
k o
Ġmov ement
Ġh ighest
v ol
os h
197 9
al ysis
sh ot
Ġrem ained
Ġcol lege
Ġun known
or a
ĠHen ry
it z
Ġsc ience
h ouse
Ġcrit ical
Ġw oman
Ġd u
CT ION
j query
item s
l ers
Ġs ense
) /
) ^{
Ġdec ided
Ġmain tain
Ġocc up
Ġl ayer
Ġop port
O ther
in itial
Ġh tml
set s
mod ules
Ġw ide
N ow
en ge
Ch anged
s che
N ote
ass ets
il s
Ġassum e
Ġs ch
ing er
ĠVirgin ia
Ġm anufact
ple ments
ĠCh icago
ĠN OT
ge les
ĠSh ow
g a
ĠL O
m itted
B S
ĠL ine
ev e
Ġto ld
Ġin cor
ser ve
J ob
n ames
Ġsp ent
Not es
Ġcompet ition
at ically
Ġelect ron
ĠT im
Ġre pe
=" ">
M an
Ġs low
W S
Ġre comm
bed d
e ch
ĠGovern ment
c ar
Ġsec ret
ĠTh us
Ġbro ught
Ġfeature d
Ġimplement ation
and a
Ġ ),
Ġr isk
rom ise
Ġstud ied
Ġcor re
Ġab sol
Ġover all
Ġfin ancial
A ME
EN D
ĠF re
Ġ$ {
An y
se ct
r adius
ĠR el
org an
198 1
Que ue
Ġcl uster
un ched
Ġstr ict
ĠIt s
ixt ure
f amily
Ġa ircraft
` ,
ign ment
ent er
Ġf ast
ri p
id ae
Ġgrow th
ĠAn geles
ag ger
ts d
ut f
Mem bers
Ġ ensure
agn ost
Ġch ain
ĠComm ittee
Ġc ore
proto buf
at tribute
B R
Ġd b
Acc ount
J SON
ĠSw ed
Ġstud ent
wide hat
) -
Ġcon sole
ang o
Ġpre p
r ong
Ġjav ax
n one
Ġcell s
Ġg un
j i
) "
s pect
Ġre lation
ĠCong ress
Ob j
ĠD en
ĠM ax
ĠU se
res ents
Ġcle an
HT ML
af ety
ĠG en
Ġsh ared
s pe
ix el
st ats
Ġp y
ĠL and
ĠE vent
P lay
Trans action
ĠS un
ed it
Ġcrit ic
app ed
ĠF oundation
her it
==== ==
ĠU RL
Ġf it
Ġrec over
Ġmean ing
Ġquant um
un signed
Ġr ap
ĠRuss ia
IT Y
Ġappe ars
M eta
. *
Ġchar ge
P erm
ĠN ow
Ġp ark
E C
sc roll
TE D
[ :
Ä ĩ
ĠT imes
Ġhe l
Ġrecord s
Act ive
Ġrem aining
197 2
cre te
In itial
ĠFlor ida
ĠAr ts
im ents
c up
ado op
ro om
SS ERT
Ġaward ed
Ġint eger
os ph
c ut
ms elves
pro duct
Ġtrad itional
w ar
Ġp ri
Ġch oice
w a
Ġst ay
ĠO f
p ri
TE ST
el er
put e
f ect
Ġre serv
Ġstat ement
ĠMex ico
vari ant
Ġgr and
if ies
con nection
VER SION
Ġe arn
h ing
By Id
}\ ,
line ar
ific ations
im a
Ġrece ive
v est
Ġleg al
P RE
Ġmin or
197 6
Ġstre ng
lem ma
cd ots
or ter
i en
ang ular
25 6
ĠH and
mo oth
Ġsc ored
ĠEng ine
s ur
} |
Ġp en
gr id
ĠU nder
Ġm ur
Ġcom mercial
Ġb al
id ay
ĠT op
AC E
Ġtr ade
m aster
r b
Ġgener ate
in line
}_ \
I X
Ġw atch
Ġs ave
ec ause
ĠSc ot
ĠK h
Ġe mail
n es
Ġext ended
in y
ĠBo ard
le ep
m ock
Ġthe mselves
M e
N N
Ġapprox imately
ĠIt aly
197 8
E arly
Ġst ack
F inal
Ġc ategory
Act ivity
Ġpolitic ian
uck et
ĠSt ep
TE X
Ġ" /
ĠĠĠĠĠĠĠĠĠĠĠĠĠĠĠĠ ĠĠĠĠĠĠĠĠĠ
: #
wh ile
S U
ĠFig ure
ĠM il
ol a
Ġsing er
D A
f aces
Ġin str
tern et
ĠĠĠĠĠĠĠĠĠĠĠĠĠĠĠĠ ĠĠĠĠĠĠĠĠ
ĠG l
f ort
q quad
R et
Ġant i
Ġpro per
. ~
Ġad opt
Ġca used
197 4
ĠErr or
Ġg a
Ġf ully
Ġreg ions
Ġ icon
Ġn uc
n y
Ġrequ ires
N E
O M
th read
Ġsh ot
S end
b al
Ġex plicit
c md
r or
Ġs ometimes
Ġbr anch
Ġsol utions
and ra
8 7
import ant
Ġfig ure
Ġtreat ment
A tt
Ġme as
V ar
Ġtr ansp
L ock
Ġan sw
v a
ĠM ost
Ġpub lish
ick s
Ġprob ably
Ġresult ing
op ed
Ġdid n
M ember
FI LE
ĠF alse
it iz
KE Y
{ (
Ġ% }
Ġequ ip
Ġplay s
Ġ( *
v ey
ĠS aint
}^ \
pr imary
ol ver
Des c
uss ian
Ġin sp
Ġinter view
hent ication
or al
9 4
C are
ir med
Ġpat ients
ĠT ext
Med ia
v ant
in ate
Ġmed ical
ĠPro gram
197 5
N e
} :
ou ri
add r
Ġestablish ments
yd ro
W idget
@ "
ĠS il
Ġactiv ities
Ext ension
ple x
S cope
ĠP et
ĠAl so
Ġact or
Ġc elebr
Ġn ature
G u
Ġre strict
ian a
struct ure
ĠF estival
196 8
g it
om ial
ĠO ur
text width
Ġneg ative
sh ape
ĠO ld
197 7
ect ors
pro perties
Ġv s
& =
Ġt ournament
ĠO h
at i
ist ers
Ġbl ue
P attern
result s
st op
Ġf oot
Ġknow ledge
}} (
Ġcoll abor
d x
ĠB ur
( !
t ip
ĠCarol ina
N etwork
EX T
Con st
ĠTe am
Ġf if
Ġprogram s
ĠCol or
9 2
ut er
il ation
Ġrecent ly
h orizontal
Ġf un
~~ ~~
ann els
in em
Ġle ave
Ġopen ing
ĠM ur
ĠU kr
ress ion
ul er
Ġhe art
Ch annel
er g
l g
res hold
Ġdec re
est ions
ĠG ame
() {
^ +
Ġw aves
ĠSec ret
Ġbas ic
ĠAt l
}) \
Ġf ra
Ġparticular ly
Ġinstance of
ĠG i
Ġdiv ision
Ġt ouch
On ly
pro ve
ateg ories
Ġth reat
Ġcall s
Ġb asketball
B it
ook ie
Ġassert Equals
ad ium
iver se
Time out
Back ground
Ġnot ed
o z
ĠH ere
9 1
k w
Id ent
ĠK ar
and ard
ĠE mp
Ġh um
G S
ĠE r
el li
Ġth ing
Ġwrit ers
m iss
s ample
m ove
Ġd im
ĠB ank
Ġdo ing
Ġg alax
as y
Ġl atter
t ex
ip ality
act or
Ġc hem
sk i
S ymfony
Ġs n
im pl
ĠJ an
197 3
ven ue
ug by
sh all
ĠL i
M sg
igr ation
Ġpres ence
Ġb attle
Ġde ad
p ay
Ġdeterm ined
s in
9 3
Ġsur round
Ġsum mer
Ġsepar ate
h adoop
######## ########
Ġp anel
ĠM a
ĠAl though
Ġpro duce
Eng lish
Ġgo als
ĠJ ournal
Ġent ity
yl van
ĠN etwork
L S
b u
y an
Ġm ock
8 3
j ar
C ar
Ġask ed
Ġac adem
Ġg reater
ĠV iew
Ġs plit
ĠT our
Ġex ternal
b es
)) )
Ġimmedi ately
ĠI P
Ġ{ };
ens es
ad or
Ġtrans l
Ġocc urre
) ">
b ul
ð Ł
ĠE ducation
ĠP ac
J ohn
S che
//////////////// ////////////////
w ild
Con f
Ġ\ {
Ġm icro
Ev ents
ĠChampionship s
er c
ĠL u
! [
point s
on ym
Ġcom ing
Ġcons ists
Ġpr im
] :
Ġpro ced
ĠN avy
ĠIn itial
ib ly
N G
ĠH ot
Ġst orage
B efore
ĠT HE
Ġwe ak
ĠDef ault
P ool
Sup port
Ġm ix
n amed
ĠMart in
Ġproject s
Ġdeterm ine
bit r
ĠA wards
Ġequival ent
ian o
Ġw inning
eloc ity
umer ate
ç ļ
ĠM r
Å ¡
U ID
Ġse em
k g
Ġown er
Ġun ion
ĠD ev
c f
197 1
se lected
cont in
Ġill ustr
ĠC all
Ġd imension
Ġsh ift
k in
s creen
Ġd ir
', '
Fl ags
Ġweek s
ĠL in
ĠT re
ĠS ocial
Ġr ad
8 1
Ġal loc
T ABLE
anc el
Ġeconom ic
orn er
Ġsc ene
ne ctions
eff ect
P ATH
ï ¼
Ġ util
ĠN O
Ġre ach
çļ Ħ
ĠB rown
() ));
print f
L a
Window s
Ġla unched
Ġend ed
u ages
Ġatt ention
Ex pr
Ġwh om
ack et
Ġvari ety
stit ution
h av
Ġr atio
Ed it
ir a
Ġmin imum
Ġident ity
des c
ac count
ind s
P AR
s ave
Ġent ered
d im
Ġa ctions
C I
Ġmeet ing
os itory
M ENT
not ation
Ġw id
ĠDirect or
ph one
ap ers
Ġkey s
Ġstud io
194 0
ap prox
Item s
Ġw ood
Ġlook ing
196 9
B rowser
Ġnot hing
Ġequ ations
ĠO p
ĠD om
ĠO l
Ġg reen
Ġact ress
h ome
ĠC opy
Log ger
ov a
ĠPar liament
are t
194 5
ĠĠĠ Ċ
ex ternal
Ġed ition
=" "
ot ic
A uth
Ġqu arter
def ined
math sf
ĠL ibrary
Ġeas y
R est
ole c
Ġpro ve
ylvan ia
on a
Ġvoc als
Ġre duced
pro file
Ġmov ie
Ġpo et
r ine
as ion
ĠS ol
sy ch
ĠV is
s chema
Ġpre d
Ġhand ler
ĠYou ng
j oy
w an
Ġag ent
gr ade
Ġwant ed
D uring
ĠĠĠĠĠĠĠĠĠĠĠĠĠĠĠĠĠĠĠĠĠĠĠĠĠĠĠĠĠĠĠĠ ĠĠĠĠĠĠĠĠĠĠĠ
ot ing
Ġparent s
t ely
ab ilities
Ġl ay
Ġm aster
Str uct
} </
Ġchall eng
Ad apter
it ation
ĠB i
Ġapplic ations
ĠB razil
tx t
b ad
P P
u ing
b rowser
all oc
19 30
Ġuse ful
D on
F loat
Ġm is
j ob
ĠV ersion
com ing
Ġex am
Ġ[ ];
In ternal
Ġproduc er
ell ig
ul s
) ),
ĠL ove
cont roller
Ġmajor ity
Ġent er
Ġab ility
ed s
ĠCh ief
E O
() ).
Ġcomput er
sec urity
Ġpress ure
= -
equ ence
ak ers
CH E
ynam ic
Ġappear ance
AR Y
r ich
A v
Ġm ission
Ġtest ing
cit et
que ue
ik i
ist rib
Ġfri ends
Ġco ast
y g
ak a
* )
IN FO
ĠE li
Ġget ting
ĠW ood
LO G
In it
el a
Ġhe avy
Sec urity
Ġ{ '
c ape
ĠH aw
$ /
}\ \
Ġlo op
Ġat tributes
Ġrep resents
b ing
p ag
L P
ĠA R
ĠW ales
ĠS oviet
ĠS ir
Ġfrequ ency
tab s
Ġmus ical
p a
F ound
A F
V ol
ĠF ort
Ġpr ison
_ ->
as er
Ġev olution
Ed itor
En um
Ġappro pri
Trans form
am m
196 7
Ġse asons
Ġelect ric
i ro
Ġk ing
ar ia
ĠM ain
dom ain
MA X
Ġ= ========
ĠO ption
Ġneigh bor
assert Equal
Ġcontin uous
Ġr iver
ri end
it an
riter ia
Ġinst alled
Ġold er
Ġis land
ev ents
ĠJose ph
Lo ader
l imit
Ġh idden
Ġfav or
Ġch art
{ {\
ĠNor thern
nap shot
ĠM os
Ġm ixed
M ore
com ponents
d ates
Con str
St ep
. __
ans as
ĠA N
it o
Ġne ut
Ġfr amework
ĠL iber
Ġn orm
. '
Ġcandid ate
AD D
d imensional
pos itory
196 4
Ġf unc
Ġcre ating
f it
ar c
D irectory
at ible
ĠR h
Ä ±
ertific ate
Ġm achine
s cription
Ġhigh ly
sup er
J ava
ed itor
G raph
Ġex tract
Ã £
Ġsh all
ĠP eople
ĠU N
Ġ$ (\
Ġre li
O wn
th rows
Ġnear ly
ĠC am
ĠĠĠĠĠĠĠĠĠĠĠĠĠĠĠĠ ĠĠĠĠĠĠ
Ġb rief
Ġclass ical
Ġvis ible
am ing
ĠOff ice
Ġs outhern
UT F
Ġph il
15 0
Gr id
ĠIr ish
ent y
str a
e ach
Ġcon serv
Ġf n
iqu es
Ġch ief
cent r
ĠW indow
st one
SI ZE
M C
ĠA tt
NavBar Cell
ook s
ĠAr ab
ĠCon fig
m ann
is hes
u er
}^{ (
W A
operator name
RO M
Ġder ived
Ġnor thern
Comm on
Ġb ul
ĠT ri
Ġcommun ities
d irect
Ġqu ite
ĠL ee
ĠProv ince
ĠY our
) ).
nav List
Ġblock s
Ġon es
pon s
ĠMed ia
sc r
= (
in v
ĠVal ley
Ġcap acity
ĠEx ec
ĠJ o
Ġturn ed
Ġch ampionship
are a
S R
ĠII I
At tributes
ĠCol umb
Ġdr ug
Ġs al
fr ont
D el
)) );
s ylvania
ĠC ross
Ġ$ .
Å į
Ġn g
ĠTh erefore
ĠCO VID
ĠC ode
D uration
Ġmov ing
The n
Ġun c
Ġdel iver
urre ncy
r ase
Ġs quare
oc aml
196 5
Ġco eff
Ġr adi
f ound
C ast
Ġdes c
D C
To String
Re ce
Pro xy
w er
is ms
C lose
n orm
ĠG a
Ġprot ect
Ġf arm
Ġown ed
Ġse ek
Ġst ories
Ġin sert
j e
w riter
ost on
t otal
ov ed
Ġmost ly
Select or
Ġl ives
Ġsh oot
++ ;
ock er
Ġch osen
Ġ eth
Ġindividual s
-> _
Ġest imated
Å Ĥ
ĠW al
Po inter
type of
ĠEmp ire
get Element
du led
Gener ic
Ġ[ [
Ġ" "
'] )
Ġatt ended
in ations
atri ate
Ġup dated
n etwork
ĠP oint
Ġvert ical
eng ine
ĠP ak
ir ls
Ġinflu ence
Ġann ual
av al
Con d
Ġag reement
ar ation
33 33
ĠHistor ic
Ġse a
ĠJ im
ĠCh ild
196 6
Ġfail ure
Ġd ebug
19 20
Care er
ar ant
Ġar m
Eng ine
Ġcho ose
un ior
Ġident ified
Ġmag netic
Ġest im
ĠB ul
( {\
D S
Ġocc ur
P ublic
os oph
ard en
Ġgo es
se ud
Ġf ederal
it ors
ĠG ood
config uration
Ġdig ital
Ġsp read
W orld
Ġrespons ible
Ġw ays
coll apse
M atrix
Ġabsol ute
Ġpr ice
j pg
} +\
e cho
Ñ ı
res et
Ġeas ily
tool s
ĠB ob
cal led
L IC
in f
log ger
Ġsche me
Ġfore ign
pos ite
n ers
Ġcar ry
ĠLem ma
ig a
sw arm
tr igger
t mp
Ġco q
P anel
Select ed
Ġnew sp
D em
Ġf le
Ġr ailway
ic ine
Ġw or
Ġexample s
Ġa wait
fl ags
ĠM P
Ġra ised
Ġpo or
h idden
ens ed
Ġpur pose
Ġenc oding
Ġinitial ly
c b
reed om
inn ers
Ġse ems
Ġcover ed
col Last
Su ccess
k l
od ay
' m
ST AT
Ġpl ans
ĠTO DO
wild fly
al o
Ġ& \
Ġcent re
ĠSp ain
ĠD evelopment
k ins
Ġs light
ĠP aram
Ġquick ly
un ct
assert Equals
Ġcomple tely
Ġserv e
Ġb us
Ġl ib
test s
=" ${
: \
arri age
ĠRev iew
File s
Ġh yp
M B
Ġre duce
ele ase
Fe ature
ploy ment
Ġprot ocol
Ġget s
Ġsup p
Ġvis ual
ma zon
S ection
Ġst ra
BU G
Ġsample s
Ġsay ing
Ġsit uation
um s
S ER
Ġex c
Ġv ote
ĠH on
Ġpre m
Det ails
IP T
the me
Ġc arried
Ġdet ail
ĠI l
Ġbecom ing
} '
ĠC ons
us band
at ers
m anager
Ġcomm ission
ust rial
1 20
Ġsen ior
con tains
bl ack
col First
s witch
Ġag o
lo ok
ch annel
ĠW ill
ĠJ ud
Ġin valid
Ġsurv ey
Ġim prove
Ġoffic er
Ġpl ot
av ity
ce an
il a
ograph ic
I E
istr ation
ĠB re
ĠS u
Ġj oint
Ġd rop
Ġre con
Ġconstruct ed
_ ,
Pro file
Iter ator
Ġgener ation
Ġ io
U LE
Fil ms
ac le
ist ent
ential s
Ġr an
_ (
Ġfor ced
hand ler
Aut o
Ġc ref
Ġun iform
Ġe lem
igh ter
Ġoff ers
ĠS und
Ġbuild er
m ond
Ġpos itions
z z
C or
Ġliter ature
Ġstr ategy
ĠH a
X ML
or ial
Ġpr iv
Pl ugin
Ġlet ter
ion e
ĠEar th
ĠP op
serv ices
Ġas ync
che n
Ġla unch
Ġan im
Ġp ool
ĠEn ter
ĠB et
g reen
Ġexp ansion
Ġim plements
Ġden ote
Run time
" `
Ġ- \
Ġ ul
F ull
ĠM iddle
orn ing
ĠPenn sylvania
Ġpass word
Ġv oice
Ġdep artment
] $
ĠE lect
ĠB attle
ĠE ach
Ġwork ers
Ġmag azine
Ġmention ed
Ġmanag ed
P ay
\ ,\
ĠG reek
Ġen abled
ĠS pe
get Name
Ġxml ns
Ġh arm
ĠT ele
Ġin ner
sh ift
Ġc ensus
ĠUp date
ĠV AL
Ġp refer
Ġ" <
ĠIr an
Ġs ites
ĠF unction
S QL
Ġint eg
Ġ Å
In v
ast e
her ited
Ġany thing
Ġf ix
Rep ository
Ġm essages
I B
sum er
hen s
Ġre ject
Ġdefe ated
Ġtry ing
Ġm ind
ĠCon ference
M apping
ĠJ ac
ult y
Ġr g
r id
iter ator
Key s
cre d
mut able
f ail
12 8
sh adow
F urther
er ial
ĠA ND
Ġseg ment
ĠS y
b ury
Ġdise ase
Ġc ounty
Ġdr iver
P y
Ġsecond s
Ġcre ation
ent h
Mem ory
ĠAs ia
all classes
Ġl ived
ĠB usiness
Ġimp lies
Ġcomb ined
ĠMich igan
[ $
ĠComm and
Ġun less
ĠP ass
Ġmet ric
H igh
Ġthe me
und red
ri ed
pos es
Ã£ o
å ı
p icker
O pt
r ick
D est
Ġgiv ing
}} {\
Ġar rest
ĠB ack
ĠHam ilton
Ġth r
ac ro
ĠS outhern
| ^
pro gress
Ġ ip
ĠS ar
d p
D ouble
as hed
is c
ĠM ah
ĠL ord
aj ax
Ġ= ======
at ial
t k
ĠR adio
air man
ON E
Ġal gebra
Ġm ask
P i
olog ies
enn is
S ocket
Ġvers ions
} -\
por ation
Ġmur der
i ate
Ġtyp ically
R oute
ĠN ode
Pr int
T A
Hel p
G en
Ġnumer ous
ic ip
p ower
o les
Ġdem and
Prot ocol
ff ect
Ġconf lic
Ġshow ed
ĠB ow
ĠM ov
est s
Ġnav igation
wrap per
Ġest imate
y er
Ġt ab
x space
eta iled
Pro duct
Ġset up
] \
Ġbe y
H R
Ġar bitr
S pace
ĠRep resent
Ġm otion
Ġ" ,
ĠT ask
Ġtr aff
Ġw ave
ĠO x
Ġc at
en umerate
Ġprov iding
Ġbeliev e
Ġdes pite
Ġass igned
re v
h y
b ro
ĉĉĉĉ ĉĉĉĉĉ
cl aim
Ġprocess es
bl ue
ĠC ro
ty ped
ĠJ ava
Ġess ential
Ġdr ama
S Y
ib li
Ġno ise
aw a
prot ected
Ġt x
Ġ ice
Not Null
Ġin come
Ġst eps
Ġex port
us et
Sc roll
Ġaff ect
ĠH ome
Ġoper ators
Ġag reed
B ut
en ant
", "
ĠF I
196 2
in os
we et
Ġb rowser
n il
ĠS pecial
Ġbey ond
ĠBrit ain
ĠJ ones
ud get
ĠCent re
ĠThe ir
Ġsu c
Ġcon centr
Ġre q
ĠHe ad
ĠPac ific
Ġrefer red
et ic
web pack
ĠOh io
head ers
Ġsing les
ĠC ivil
ĠT ro
ĠInd ex
sequ ence
Ġm ill
anc ing
Ġp p
ĠDemocr atic
ay a
Ġbr and
h ide
h ar
Ġref lect
h space
Ġr ail
Ġstra ight
ym met
Ġp ush
ro le
Ã ±
Ġform ation
ĠG al
S cale
à ¸
Ġlead s
Ġorgan izations
Ġfact ory
g ers
B E
S ync
met adata
Ġle aving
V ideo
gener ated
ex ists
Î ±
Ġhelp ed
r uby
Ġc li
app ly
R AN
) +
ad r
Ġfact ors
Ġv elocity
Ġoption al
ch or
ĠBl ue
t body
ell o
r f
196 3
ad el
Ġ? >
Ġar my
pt on
Ä į
if ically
ceed ed
T erm
par a
fil ename
ore t
$ }
ĠN umber
Ġdist inct
A uthor
cd n
tr iev
w all
ĠAs ian
L java
g ence
Ġsuff icient
by tes
ne q
Ġh yper
ell er
ĠM A
B i
Ġin form
Ġas pect
ĠT ra
ĠE qu
Ġsum mary
L ayer
item ize
D atabase
Ġt rib
Ġse at
> :
ond er
ĠS O
hem at
pl atform
ino is
Ġdepend s
Ġcompar ison
Ġfore st
Ġarchitect ure
Acc ording
Ġp ages
m atrix
art icle
d eg
Ġd ataset
Ġdep th
Ġs ociety
the orem
194 4
Wh ile
C ap
g g
ĠL o
Ġre place
RE AD
ĠB u
N ULL
at tributes
pro ps
ph y
Ġc itiz
Ġb inary
Ġdel ay
at ar
Ġevery thing
Ġf air
ĠP rem
ĠJer sey
comp iler
}} _
Ġspect rum
Ġun iversity
Ġc tx
Ġun ivers
ĠM en
ĠC amb
prov ider
Ġf irm
Ġtyp ename
G lobal
Ġhigh light
l an
ag er
Ġpl ane
Ġcol on
Ġhistor ical
Ġqu estions
Ġh usband
s ymbol
yn omial
gy pt
ĠL android
ĠCar l
cri be
ĠC ard
">< !--
Ġcontr ast
Ġc ru
Ġlist ing
ĠM i
Ġvict ory
> ::
eng er
ĠJohn son
Ġn ine
ic ies
Ġd raft
Ġf iction
Ġd at
erv ed
Ġoffer ed
z en
Ġh ar
F ailed
' ve
ĠR am
p refix
Pass word
m aven
il ing
pre v
S ymbol
ff ff
ĠĠĠĠĠĠĠĠĠĠĠĠĠĠĠĠ Ċ
Ġh ospital
ĠM ajor
em y
CHE CK
t ags
ĠR o
Ġtrack s
ĠOn ly
Ġe lections
ĠE p
Rem ove
ĠS pec
no indent
Ġen joy
ach ment
Ab stract
Ġon to
$ _
ow ers
< !
ĠA ction
ev al
Ġdis k
Ag ent
in ant
ĠScot land
z ero
burg h
S ingle
par ser
am az
ach uset
il ly
Ġmap s
achuset ts
M ut
x s
ay lor
d ialog
ĠPol and
Ġrelig ious
Ġsus p
stand ing
anc er
iz able
Î ¿
Ġc ities
S equence
ĠEx t
ĠP ower
Ġmain ly
Par se
) }$
Ġclaim ed
M I
Ġrecord ing
Ġr u
M at
Ġre ports
end or
D T
urb an
Ġserv ing
Ġsp aces
P ub
ĠWilliam s
Ġr ates
clud ed
Ġal leg
log in
ĠFrancis co
196 1
Ġen able
ĠQue en
M ay
IN D
r ical
ĠEd ward
C F
TEX T
st ein
Ġexact ly
Ġtr igger
child ren
w ig
Ġinter action
pr ise
z one
ang ing
ĠIs lam
up load
' ll
ĠC a
ĠB oston
g ame
r idge
Reg ister
j ango
Ġbel ong
ĠL ab
N ational
ĠRe act
b el
s ingle
ĠC y
{ $
Ġpart ies
li br
j d
Ġder iv
Gener ator
Ġdown load
-------- ----
Ġbe aut
Ġlead ers
oth ing
sk y
Ġ ut
ex tern
x html
Ġp il
Const ants
if fer
ch er
Ġm enu
clus ive
form ance
Ġtype of
ĠP ath
m ir
Ġax is
Ġgr id
Fr amework
Ġs mooth
sc ape
Ġc lick
Ġd oub
Ġ[ ],
sc ss
Ġl icense
and on
Ex ample
Ġgen us
S eg
G ame
Ġcomp are
() </
Ġmod ified
ĠSt e
B P
p at
ĠF ree
b its
Ġt or
Ġoccurre d
C ategory
un a
} %
T x
Ġb ass
ĠF urther
Ġcolumn s
ĠB ern
) }{
Ġfam ous
play er
Ġnetwork s
Char acter
Ġcall ing
oun ce
Ġ ×
Ġ _{
ĠE conom
Ġin fin
Ġappropri ate
param eters
? >
ĠL uc
Ġcomput e
Ġtr ust
Ġa im
FF FF
ĠM any
F ail
col lection
ĠB as
oper ation
194 2
spring framework
Ġs afety
F unc
ul f
Ġmag n
ĠB oth
n eg
op es
Ġs quad
Ar ch
Ġsuccessful ly
ĠE lement
Ġp an
st able
Ġinterest ing
Ġ( _
CT YPE
im inal
amp ions
B AR
press ed
s el
Ġorder ed
Ġconstruct or
n ic
dec l
Enc oded
6 00
i ated
Gener al
ĠI E
Ġrele vant
Col lections
ap es
or iginal
Ġr adius
Ġvert ex
ult s
ĠSt art
Ġr aw
=" $
ĠJew ish
s en
Ġtri al
p erson
Ġlate st
on to
St op
Ġb att
Ġpo inter
Ġl ab
H ere
Ġsome one
W rapper
r andom
Ġapp end
Cl uster
I MP
ĠK ent
195 6
ĠIO Exception
Ġl ic
ĠCo ast
z ab
ur er
Ġc os
numer us
ic ed
ab y
Ġw ild
aw n
ĠLoc al
numerus form
IT E
(' .
sv g
ĠK r
ĠUS A
Ġsem i
}} ,
Ġact ors
D epend
b as
Ġsign ature
s id
Ġem bedd
ĠThe atre
Ġu i
ĠGeorg ia
S ample
Ġex change
! !
ur ies
Ġass ess
Ġwest ern
F IG
i Äĩ
ĠD utch
user name
el d
N odes
LE CT
Ġ ^
Ġrequest s
s ince
Ġe q
at uring
Ġtask s
fl ag
194 8
ĠR et
ct rine
Ġcl in
ĠG lobal
S ome
Ġeffort s
Ġres olution
def inition
ĠW ay
ĠComm on
195 9
Ġoffic ers
ul y
under line
ĠM id
195 8
Ġre ct
Ðµ Ð
exec ute
ier arch
ĠG ets
19 39
en abled
Ġs ister
Ġab stract
imit ive
N OT
Ġaccept ed
ĠR os
id x
os is
{ %
Ġcomp osed
Ġsignificant ly
circ le
ro ke
P ORT
f ire
r ate
h u
Ñ Į
Ġmaterial s
Re port
Ġadv ant
j unit
ĠM ult
Ġsett lement
Ġ" -
Ġregion al
Ġo il
Ġdiscuss ed
Sim ple
Ġst ock
Ġ' <
s he
Inst all
ra wn
ch a
H ER
ici ency
us ers
Ġn ation
Ġstat istics
d em
Ġ ],
B rit
Ġprocess ing
ĠIll inois
b en
Ġfootball er
Ġoper ated
( __
Ġdr ive
Ġper fect
ĠIn formation
con n
build er
ĠV an
ĠGovern or
ash ion
Ġenc our
Ġfin ish
B ound
Ġtool s
ĠSen ate
Ġl if
CE SS
g lyph
ĠMass achusetts
Ġocc urs
ĠK ong
n i
v space
Ġint ended
Ġp iece
hes is
s ys
Ġrem ote
Ġ{ {
Ġl ayout
ĠB ang
ele ted
Ġis n
' $
S ports
it age
Ġque ue
Ġr ing
W N
ĠH ash
od d
ĠIn f
em porary
ĠĠĠĠĠĠĠĠĠĠĠĠĠĠĠĠĠĠĠĠĠĠĠĠĠĠĠĠĠĠĠĠ ĠĠĠĠĠĠĠĠĠĠĠĠĠĠĠĠĠĠĠĠĠĠĠĠĠĠĠĠĠĠĠĠ
P refix
Ġsize of
v o
ĠS ervices
Ġad j
Ġdiscover ed
Ġcomm it
R ole
P layer
194 1
p u
Ġmet al
p et
art ers
Ġser ious
Sum mary
Ġship s
ĠP age
ax is
ĠĠĠĠĠĠĠĠĠĠĠĠĠĠĠĠ ĠĠĠĠĠĠĠĠĠĠĠĠĠ
Ġlog ger
Ġw rap
ition ally
Ġb lood
se x
Ġbr idge
u ations
ĠA uthor
Ġmatch ing
Ġat tract
ĠSe a
Ġpolitic ians
IC E
ĠTechn ology
Ġpor tr
Ġdev ices
Ġcom edy
ĠS and
195 7
. ");
pro d
Ġc ouncil
Ġh ol
Ġw rong
Ġprof essor
Tr ace
Ġh ope
Ġen h
Ġlang uages
.. .</
Ġr are
ec es
Pro gress
e z
Ġex it
Ġp refix
ĠK en
ĠB O
A rea
ĠB or
print ln
ĠF ace
194 3
le an
Ġpre t
p icture
Ġpart ner
Stat ement
ĠOff icial
F S
Ġprom in
Ġp i
Reg istry
Ġcan cer
ic ans
Ġrepresent ing
ĠL ie
Ġreve aled
Ġ[ "
as sembly
iter al
S election
Ñ ĭ
Ġoper ating
Reg ion
Ġaltern ative
Ġrg ba
Ġthe orem
ĠPhil ipp
ĠF C
ser ial
Ġf ish
Ġconstr aints
sh ared
Ġpre v
O ur
prot ocol
Ġincor por
ĠPr ince
r ad
ĠD own
Ġexist ence
ĠÂ £
ou ter
Ġbeliev ed
Ġs ector
iv ery
h ere
W R
; ">
od ies
ars ed
Ġnot ice
T otal
Ġresp ond
Ġt ell
J S
duc ing
Ġdep art
Ġro b
ĠSt an
ĠN ight
Ġcomb ination
__ __
ird s
lo op
ĠEast ern
C red
ĠInt eger
a is
(' /
st orage
Ġfl at
AL SE
ĠN AME
AR N
ĠH arr
i Ã³n
ĠW ater
f ixed
Vari able
b g
ĠM ot
ĠW all
ĠOr iginal
duc es
Ġw orth
r an
Ġel im
= >
Sk ip
H ome
op l
Sec ond
ĠĠĠĠĠĠĠĠĠĠĠĠĠĠĠĠ ĠĠĠĠĠĠĠĠĠĠ
Ġw all
Ġb re
Ġret ired
Ġcontrib ution
ident ifier
h om
Ġcur ve
ĠU I
; }
The se
Ġga uge
re port
ĠBro ad
Ġmark ed
Ġobserv ations
ellig ence
ĠIm age
ĠM anagement
th row
ĠReg ion
Ġm useum
ĠĠĠĠĠĠĠĠĠĠĠĠĠĠĠĠ ĠĠĠĠĠĠĠĠĠĠĠĠ
Ġ{ "
d one
O UT
Ġcl oud
Ġconduct ed
ĠA ri
h ref
w hen
Ġre ader
194 6
ĠSt at
25 0
il arly
}} }
ĠJ r
ĠM essage
k t
Ġmet adata
n n
ĠM u
Ġrap id
Ġexpand ed
det ail
ĠW ild
Ġ ens
Ġf elt
tr m
ĠR ailway
Ġcont ained
ĠOx ford
Ġiss ued
mult icol
ĠW is
ĠB ol
Ġmeas ures
Ġan gle
G O
r ift
y o
Ġ( -
ĠJ oe
Ġview s
rior ity
Un ited
Ġfl ags
Ġadd ing
s afe
Ġchar set
Ġacqu ired
Ġpartic le
ĠL ight
ĠAnd rew
amaz on
Ġtraff ic
ĠS I
ĠPort ug
det ails
ig ital
ing ham
un ique
il li
^ -
tain ed
195 2
Ġcl imate
Ġform al
Ġrel atively
Ġor ient
Ġform ula
ĠR ay
go ing
em on
ĠCopy right
Ġsup ply
pe ar
B est
medi ate
Ġth erm
Ġa udio
oc cer
Ġres idents
Ġstr ings
ĠJack son
% ,
Ġal one
TI ME
err ors
typed ef
if iers
ĠA ff
Ġs afe
Go ogle
D irect
Ġstart s
Pro ps
tex trm
ĠE gypt
ag raph
in ity
multicol umn
Gener ated
Ġm olec
Ġre triev
ĠH uman
Ġr ac
Ġwe ap
Ġc ultural
195 5
ĠOr gan
Ġcomp act
requ ired
pl us
cle an
Ġclub s
up lic
Com ment
I ST
ĠPol ice
D P
' ));
Ġexperiment al
Ġl ies
Ġgrow ing
Ġg irl
S ervices
uck y
ĠComm unity
w ater
tem p
Ident ifier
Ġstr ateg
Ġs ynt
h ol
iv ial
ĠL atin
v in
ch ain
St ats
Ġhe nce
ĠHT TP
m ask
Ġshow ing
lo ader
Ġ\ |
%% %%
Ġart icles
Ġpro xy
Ġf re
Ġconsist ent
How ever
Com par
ĠF ar
DO CTYPE
Ġexec ution
Ġmeasure d
te en
in valid
Ġsubsequ ently
v s
M OD
Ġperson nel
Ġh undred
M T
out heast
it ness
est er
Ġhand s
Ġnull ptr
Ġpair s
) ->
p ull
Ġauth ors
Ġth ous
194 7
Ġflo or
ĠAn y
for ward
Ġcal c
Sh ort
Date Time
Ġ Ø
Ġindic ates
n odes
Ġallow ing
ĠPl an
Tr ansport
Ġ ).
Ġt ensor
f ix
Ġsecond ary
on ia
C RE
um es
Ġw inner
p are
Ġtr a
< \
Ġp ull
L INE
ĠSecret ary
ĠH ung
l arge
Dom ain
B B
Ġan c
Ġd ict
Ġs ales
Ġent ries
T wo
ĠW eek
Ġslight ly
Ġp ert
bl ank
ĠS ports
Ġle aves
N T
Ġro ll
cond ition
h aps
Ġconf irmed
Ġf ill
Ġc er
8 00
en ers
Ġstreng th
che ster
ã Ģ
ry st
IN TER
Ġded icated
ag ent
th ur
ph ot
index Of
ĠL ittle
% )
Im port
Ġl abor
ĠWindow s
ĠH ospital
ĠS om
\ }$
ĠSec urity
rop y
ĠR oute
ad ing
Ġdet ect
am er
o ir
Ġv ac
av or
f x
Ġver ify
Ġin tr
Ġconc ert
en able
O ST
fe ature
ed ia
Ġs port
ME TH
p attern
Ġhead ers
ke e
ess ions
am ber
. <
Ġ ..
c uss
Ġext rem
A CT
ĠColumb ia
At tr
Ġim ag
eder ation
arri er
Ġcont roller
Ġdes cent
Ġident ify
Ġread y
or i
ul pt
Ã¡ n
195 4
Ġp al
Ġall Classes
ĠRes ource
ĠCon f
PRO JECT
P U
ĠL ink
Ã ¸
(' #
ful ly
u v
ĠallClasses Link
Ġtem p
ĠAl b
Ġexper iments
Ġm arriage
Ġsp an
f d
ĠDan iel
Ġf ans
ĠF our
ate way
v ideo
am in
Ġre asons
M usic
Ġp urs
ĠJ on
}} _{
Ġj Query
ĠJ es
res ources
Ġpro pos
Ġro les
Ġf ellow
t ar
Ġexpress ed
ĠH ttp
Ġdam age
Ġinter val
Ġnear by
Ġloc ations
M ake
ĠScott ish
EE EE
if def
Ġearn ed
Ġadministr ation
Ġexec utive
ĠJ ean
nt ario
Ġassoci ation
Ġs ph
UR I
Ġen v
ian ce
Ġh ockey
E mail
Ġb illion
up s
ĠSt ation
ual ity
ĠJ eff
Ġd og
Ġv on
Text ure
ĠH ong
ck now
V M
å Ī
Ġyou th
ĠS i
ro vers
Ġtechn iques
h l
lim its
HT TP
Ġfl ux
/ _
not es
ĠCon serv
Ġf ine
Ġke pt
H S
Ġz one
'] ['
W allet
195 3
Ġautom atically
Ġfore ach
Ġhous es
pro xy
Ġn p
Ġload ed
ĠM icrosoft
Ġfor t
Ġ il
Ġp and
Ġv en
b ut
ĠRepublic an
Vis ible
ust ers
ĠF ire
Ġcon nections
Brit ish
Ġs ust
het ic
Ġpol ynomial
M iss
pect ive
Ġmot or
Ġsp irit
Ġval ign
ĠPh ys
h ard
w orld
Ġf lex
am ps
z y
al ing
Ġtrans lation
Ġprim arily
omet ric
ĠPl aces
ab out
ĠE st
an th
Ġregister ed
Ġh ydro
Mult i
ĠB ad
ap os
Ġis ol
Res ources
c ert
The ta
PO ST
Return s
T ra
d y
ĠSc iences
aly t
ĠC irc
ĠT w
yd ney
inn es
Con n
à ¥
b c
Ġdet ection
ell ar
ath an
Ġassum ed
gorith ms
194 9
L anguage
Ġp le
Ġnot es
ĠF ederal
Ġdiv ided
Ġpartic les
v c
Ġst ored
U SE
check box
ĠA mazon
ĠL y
"" "
ĠTr ump
ĠArray List
R PC
Ġs qu
cl one
S erv
R C
Ġd etailed
F in
ph ia
ĠM ake
lo or
Ġattack s
ĠM ir
group s
g est
it ical
py thon
R S
ĠKore a
Ġatt end
mo z
Ġe igen
iss ues
Ġtransp arent
ĠA S
plic ations
Ġle tt
Ġcan cel
I A
Ġarr ived
f lex
Ġp od
ĠBro ok
Ġpar ser
\ '
epend ence
Ġdis abled
pos s
ĠA rea
Ġproced ure
t wo
zab eth
w arning
ĠA z
ï »
Ġad just
SC R
ades h
ĠL im
Ġsup ports
mult i
Ġachiev ed
Inter val
195 1
Ġepis odes
Ġacadem ic
Be an
( @
Ġcy cle
as ync
IG HT
P H
Ġp ul
ĠJust ice
L eg
ĠD ub
Ã ¢
an try
Ġan imation
, '
Ġbase ball
Ġstr ugg
Ġindic ate
Ġclass ification
ĠC reek
Ġst reet
RE Q
Ġc amera
Ġequip ment
ĠD ar
ĠB al
W est
Ġcon ference
Ġa wards
~ $
ĠEx ample
ĠS a
Ġmunic ipality
min us
ro duction
Ġ\ ;
Ġt sd
Ġcontin ues
Ġt mp
ord ers
DE FAULT
n p
Pro p
Ġed ges
ĠBer lin
innes ota
ĠPol ish
Ġfl ight
Ġse ctions
Ġc ult
Ġtime out
Ġdocument ation
O B
adel phia
Ġsc atter
^ ^
ass andra
Ġp et
sim ple
ĠN AV
ĠA sh
est ic
ott ed
ĠRequ est
foot note
Ġsk ip
a ught
b ec
ï» ¿
Ġbe at
ĠW alk
ĠSup port
Ï Ħ
nd ef
ict ed
f ol
og en
in itions
lip se
Ġprop ag
L L
Element s
Ġtro ops
Ġarbitr ary
ĠDes ign
Ġopport unity
Ġcalcul ated
Ġansw er
Ġdi agram
" ],
test ing
}^{ -
Ġveh icle
S pe
ĠL ater
Ġo k
Ġm d
) |
Ġclaim s
ĠK enn
k es
Ġex tr
ĠB a
ĠA SSERT
ĠAlex ander
Ġtrans late
Ġsh op
com plete
M ath
Ġr ise
D elegate
Ġprogram ming
ack s
Ġeast ern
Ġc ars
ex pr
ĠV iet
ĠBel g
b rief
() ))
ĠVictor ia
Ġpart ition
Ġcontrib utions
A re
h olds
olog ist
down load
side bar
Ġinstr ument
ĠRe al
ĠT H
ag a
trans ition
Ġp aid
ĠG ar
Ġfif th
D ictionary
rop ol
ĠW he
ĸ º
pl er
Ġm obile
Ġ ult
Ġen um
if ul
and o
Ġpol ar
A ng
Ġsuggest ed
ze ch
Un iversity
ĠM ember
att ice
Ġdecl ared
Method s
word s
ä »
hel per
ĠPak istan
ĠSund ay
as i
ĠS pring
n ob
Ġadopt ed
10 1
stru ctions
ist ence
P ER
METH OD
EEEE FF
ĠA li
Ġtri ed
z ip
d iff
k ens
pl ot
Ġaccur acy
Û Į
Ġalong side
Ġlead ership
Ġrec ip
IV E
ĠCor ps
ĠAnd roid
Ġdec om
ext ension
D ev
W il
C G
Ġpar allel
ĠRe port
Ġnew ly
In ternational
Ass ociation
pl an
Ġunderstand ing
ĠS ign
ĠMed ical
TR UE
Ġf ru
19 36
P e
Ġd aily
Ġimplement ed
Ġfac ilities
M er
ĠMus lim
ĠTh ree
ĠS em
ĠM ike
Ġs pl
pl ates
Ġhon or
Ġanc ient
ĠR ail
ew idth
ĠC EL
ĠLO G
RE S
Ã© e
Ġlabel s
Fl ag
ater n
um my
Ġus age
r im
ex pect
ĠCol lection
Ġw ind
on ical
ĠT aylor
Ġofficial s
Ġtw ice
Ġv ary
' ];
/ "
Ġdoc uments
Ġreview s
un te
Child ren
ak i
Ġ rows
ID TH
Vert ex
b at
sign ature
Ġpol y
A ustral
Ġact ing
an z
An imation
Ġst able
DE BUG
tr ace
Ġprov ince
Ġch annels
Ġsh ut
Ġass ign
b ell
l ife
act iv
Ġcapt ure
og y
Ġdis s
Ġbehav i
En ter
Ġp itch
t or
Ġcommon ly
Ġwid ely
Ġ ðŁ
Fr agment
n ership
f old
2 13
Not ification
ost er
Ġas sembly
ĠB lock
Ġfe aturing
s ocket
Ġtre es
Ġmin im
Ġp ra
Ġgu arant
U ri
ĠR og
ament al
B ind
ĠB it
) {\
Ġt al
Ġd uration
W rit
Ġdiffer ences
Ġcom ments
al g
N amespace
ĠCor poration
time out
f i
N C
Ã º
ĠB BC
enn es
E V
ĠD ocument
Ġregard ing
Ġincre ases
L in
or ient
ĠA k
Ġl at
Ġ era
T F
ĠE nt
el i
ĠPr ime
19 18
ĠT R
Ġp hen
ou red
Ġp sych
e a
ĠB on
es ome
Ġs yn
Ġdynam ics
Head ers
Ġsc roll
NavBar Font
Ġrest aur
Ġdynam ic
ĠMin istry
in son
ĠV ector
Ð ²
al so
Ġrequire ments
text tt
ĠCont rol
ĠSo ftware
ĠV ill
Ġcommun ication
Ġcol span
N V
ĠM ic
Ġeff icient
Ġappear ances
ĠC ount
ĠIs lands
ĠGu ard
Ġpl ugin
ĠCh ris
ĠOlymp ic
Ġm apping
US ER
Ġcapt ured
ap h
* {
P air
æ ľ
Ġsymmet ry
ĠNAV BAR
VAL UE
^{ -\
Ġcandid ates
Ġdestroy ed
Ġtr ace
Ġag greg
ĠAir port
Ġtransfer red
ĠPro cess
Sh ape
Ġend s
19 38
Ġrece iving
Ġg ain
ĠE ND
R elease
Ġa thlet
ĠProf essor
Ġcre w
id el
ĠS us
dep th
Ġfocus ed
w p
ĠWil son
Person al
t i
ĠR om
ĠArg ent
D ay
ether lands
ĠP en
cons in
s b
ĠB C
T ele
in ion
f c
vis ible
is er
L android
pol y
> \
ut s
es ian
Ġpower ful
ĠK im
Comp at
own er
F ind
Ġmon itor
d agger
Ġshe ll
ilt ers
option al
S ort
Ġm eta
ann a
ĠC A
ĠR est
ĠR od
B ook
V D
ĠSup reme
Ġro ugh
ic er
Ġdist ingu
Ġpl anned
Ġbound ed
Ġsil ver
' }
V ir
Ġinter pret
Ġprov ed
ul ator
ĠO ntario
ist ical
Ġbeg ins
view s
Ġassist ant
un ities
Ġprinc ipal
ĠF amily
Ġdiscuss ion
if i
F ORM
LO CK
ver ter
onom y
ĠC ustom
Ġs y
Ġfra ction
Pro to
ĠS pace
Ġhe at
ps on
y ard
Ġsold iers
ĠUkr aine
con sole
Ġnewsp aper
Ġb oy
az y
comp ile
Ġnav bar
ĠO s
ra structure
check ed
Ġcost s
ĠS QL
Ġp lease
ĠR aj
Ġprom oted
Ġcop ies
Ðµ Ð½
ĠA venue
Ġevery one
Det ail
h ab
ear s
ST ATE
c li
ĠB ecause
L C
br and
Ġr at
D iv
Ġ( $\
Ġscal ar
Ġso ft
Ġadv anced
IT ION
Ġprote ction
Ġp ure
ut enant
Ġad vert
ĉ ĠĠĠĠĠ
App end
ĠR en
z ing
12 3
Ġcitiz ens
N ov
Ġc ook
ph as
Ġide as
Ġpro ceed
align ed
Ġcompet ed
Ġc orner
ĠGu ide
per or
object s
ix els
Ġorgan ized
ĠT y
Ġ" $
Ġbal ance
S K
ĠC at
Ġâ ĸº
S outh
Ġtechn ical
low er
m ouse
Ġspec ify
ĠL ew
ĠAp ple
F R
math scr
t ers
Ġ$\ {
Ġphot ograph
F LA
L en
kw args
cre ens
Ġ' \
H z
Ø ±
Ġpl ants
19 37
au x
libr ary
T ags
mon th
if er
Ġh our
Ġme ant
% "
he im
Ġto ward
ĠStud ies
ress ed
ask a
ict ures
Ġâ Ĺ
ĠS ydney
Us ing
get Value
U D
ĠTor onto
S ave
Com ple
ow a
M ask
ĠV en
anc ell
ĠAr m
f actory
atur day
cl uster
w eg
Ġrefer ences
atter y
s n
our se
Ġmechan ism
ap y
Ġnumer ical
Ġc ool
ĠCol l
Î ¹
Ġmoment um
Ġtyp ical
Ġreturn ing
ĠM aster
Ġinstit utions
ĠP RO
ĠPri ze
Ġph one
Ġd ialog
M any
Ġmult ip
ĠP ers
ĠL ast
M ouse
Ġl iber
ĠE ven
over view
12 5
Ġs ql
ĠA re
Ġm iles
ro g
1 10
F ore
Ġmed ian
Ġcoordin ates
Ġd ie
Ġd ance
fl at
p ur
put er
ĠF air
ĠĠĠĠĠĠĠĠ ĠĠĊ
ĠL ive
Ġpass ing
B egin
ov es
ort heast
opl us
Ġexec ute
it led
r ices
act ivity
is a
ĠT am
Ġtr ained
Pro gram
Ġinterest ed
ry ption
ĠSh ort
Ġinst ances
et ing
Ġch ance
Ġgrant ed
ĠB and
w br
ak s
ĠAn other
Ġord ers
sh al
" ].
AN G
VAL ID
Ġs ides
ro ute
S ources
Ġread only
ch anged
="../../../../../../ ../
o es
ĠIn put
Ð° Ð½
t c
Ġlarg ely
(" /
Ġprov ider
Ġdepend ing
Ġconvert ed
W arning
Ġes cape
Ġachiev e
Ġc md
ĠS E
Ġt ells
Ġh abit
Ġtr ail
u um
EN SE
ĠEli zabeth
ĠB oy
Î µ
Ġperm an
Ġdepend encies
Ġpath s
s pecial
ĠS ource
m ic
ĠâĹ ¼
ide os
ĠÐ ¿
oc ation
ĠT ok
pe at
r ons
ist ed
ĠA h
lin ewidth
reg on
Ġtit les
nav igation
Ġgalax ies
f ast
Ġe lev
ĠN C
Ġext end
' d
Ġfig ures
Ġrem ember
rop ical
Ġcol lected
Ġcorrespond s
ĠS ant
' \
Ġexpl an
ĠAd ministr
l ig
ist ing
ĠUn ivers
Ġ> >
reate st
ĠM innesota
Ġw arn
Ġem ission
Ġ ];
Ġb ill
ap is
ge o
d c
eg o
Ġhapp en
Ġfind ing
æ ĸ
ĠS earch
at omic
Ġs am
bu ilt
g ency
Ġg rew
Ġm orning
Ġtrans formation
sem ble
c am
Ġopt imal
Ġveh icles
Ġlaw s
ble m
Ġpand emic
Ġin nov
I gn
H ub
Ġfr ag
Ġs pring
ty pen
Ġadvant age
Ġsol o
Ġadv ance
ĠKore an
M ove
_ +
M ARY
ist ant
f all
re lease
Ġdec or
Ġapp arent
per iment
Ġsubsequ ent
Ġsp ot
Ġimport ance
ĠAN Y
Ġinsp ired
res olve
equ ality
li k
Ġcon sec
S M
ĠF il
: `
Ġconf irm
Ġres olve
19 35
ĠR ome
Ġign ore
S ql
ĠS ong
Ġapprox imation
Over view
p res
un es
Id s
tr l
Ġact s
Pr ivate
Ġteach er
getElement ById
ĠB ell
os a
Ġb in
Ġconstit u
plement ation
Ġk ernel
qu arters
H is
Ġn arrow
Ġdeg rees
Ad min
) [
Ġag ric
Ġ$ -
Ġth ick
Ġr ural
Al low
ĠG ro
Requ ired
Ġnuc lear
re p
Ġv otes
Ġcont ents
bour ne
Ġbu y
Ġp icture
ĠCon nect
k et
B I
Ġengine ering
Ġserv es
zon a
A x
ron ic
Con nect
ev in
. ",
Ġmin ister
Ġhe ard
Ġfe et
Ġv acc
19 19
og ram
per ial
on ce
Ġk ill
Ġadministr ative
18 0
z o
Ġchall enge
Ġmeasure ments
Ġ$ |
Ġcr ime
å ®
Ġ} \
typen ame
ĠF ollowing
Ġvert ices
Ġc ursor
V E
ĠFace book
ĉ čĊ
ud es
Ġhous ing
l aw
g i
er ence
ac ent
ĠCh annel
Ġaud ience
Ġc e
19 33
R R
ĠC ub
Ġrecogn ized
od s
im b
E q
Ġear th
c u
che stra
NS String
Ġanaly t
b log
En vironment
ĠW el
ĠA ccess
P UT
or igin
C ard
Ġ rom
_{ {\
z h
End point
aps ed
se g
ĠPhil adelphia
al ion
ak h
ĠL at
ĠC ur
Ġopt s
Ġc as
M IN
ĠN a
ĠBe ach
Ġchem ical
Ġpl anning
Ġvis ited
Ġunc ertain
Ġaff ected
em pt
Serial izer
Col l
_{ (
ik a
D b
Ġs chema
ad ed
cre ated
ire ment
ĠM arg
Ġneighbor hood
s ync
on al
ab il
Ġbound s
ĠR a
Ġ} }
Ġpolit ics
ĠN ations
el ly
ĠWis consin
per m
Ġlist ener
ĠAb out
support ed
ĠSI ZE
Ġrequest ed
s lice
_ *
Ġeconom y
rit ical
ĠG ra
ĠK ir
Ġofficial ly
und efined
ched uler
ok ed
Ġappro aches
Ġid x
Ġpr ime
S creen
Ġmed ium
p aper
Ġc art
Ġtop ic
ic ients
ĠS anta
Ġimprov ed
Ġassert That
; )
Ġcirc le
S ur
agnost ic
Ġsim ulation
ex it
iss ue
arr ing
Ġstrong ly
S cal
Ġres et
Ġcomput ed
ĠUs ing
Ġpromin ent
ĠH ard
ap ore
j an
ac cept
vert ical
ĠAnt on
Ġcle arly
is set
Ġad min
set up
Ġsatisf ies
ĠN etherlands
ĠL es
Ġsp atial
ĠD er
Ġhost ed
ĠAn th
Ġemploy ees
Ġpre par
d atabase
ĠĠĠĠĠĠĠĠĠĠĠĠĠĠĠĠ ĠĠĠĠĠĠĠĠĠĠĠĠĠĠ
D R
n ative
Ġmod al
ĠBo olean
Ġpl us
Ġperform ing
Form s
i y
MOD ULE
SE LECT
ed d
se q
Ġdec ay
al ert
ĠReg iment
Ġaddress es
be an
EL D
Ġdescri bes
Ġcont rovers
F E
Ġb ow
con str
ap ed
Con s
Ġexp atriate
Ġe le
Ġf resh
ĠN et
ĠBr idge
Ġreserv ed
o or
Ġsurround ing
ĠH un
our ney
Ġinteg ral
isl ative
ç Ķ
Ġmusic ians
ĠVal id
and y
ĠSt adium
Ġse ed
m c
se par
Ġth er
Ġg ap
Ġpro ps
% .
re ce
H L
Ð ¼
subset eq
ĠB att
ĠPro perty
\ }
Ġ$ [
ĠPub lish
s uch
ĠF ROM
ĠRev olution
Ġo dd
ĠEn vironment
: [
Ġam b
Ġpol icies
ĠBr ig
ip her
high light
ĠC are
Ġw inners
Ġw ing
19 00
Ġsc ulpt
f riend
Ġent r
s a
Y Y
con vert
Ġcou pling
Ġmount ain
O C
AN CE
Ġre duction
ĠH o
(" #
Ġabs or
est ab
enn a
or ney
Ġem b
Ġsub stant
Ġch ampion
Ġgrad uated
ef e
b asic
L imit
in er
19 17
Ġpur poses
Ġg ather
Ġhistor ic
Ġdest ination
ĠS ab
å Ĳ
d ependent
Ġmod es
agon al
19 29
Ġs aved
ĠE very
19 14
Ġaff ili
Ġdi am
select or
Ġconstr aint
dr iver
ast ers
glyph icon
l at
op her
se ason
AN T
Ġturn s
Ġt ail
Ġtr av
b d
Ġmunic ipal
Ġ\ "
ĠChrist mas
19 34
L ook
Î ½
ĠE th
Ġest ate
vol ume
Ġ à¤
Ġs ynchron
le ts
ap ol
L ower
Ġspe ech
! "
á ĥ
ĠL ady
66 66
Ġdef ense
ĠC H
Ġinc ident
U nder
Input Stream
ĠSt eve
Ġposs ibly
Ġscient ific
us hed
G C
Ġr aces
ĠOption al
r adio
exp and
ra q
Ġind ustrial
Ġf reedom
og ene
as m
{ "
Ġcover age
RE G
cal endar
c atch
ĠH ay
Ð ´
ĠEngine ering
Us ers
Ġnot able
ibli ography
is Empty
a ug
Ġa ware
Ġb ind
Ġinst ant
S em
Ġres ident
ĠQue ens
ĠRec ord
7 00
h ow
ĠC art
CH AR
opt s
sp acing
Ġcon n
. ;
ĠN on
Ġcons ult
F low
Ġ" >
Ã© s
run time
y y
En umer
Ġs an
Nav igation
F ree
z ed
Ġfund ing
ï¼ Į
ĠL ike
Ġt end
Ġang ular
ĠN Y
Ġs ys
cl osed
Ġf ell
mer ge
con structor
Ġfac ility
Vol ume
Ġphil osoph
Ġ' ';
19 28
ĠW in
scri be
w ing
Ġconflic t
ill is
Point s
const ant
ym pt
ĠDes pite
ĠW at
ĠA thlet
ĠH om
Ġam plit
Ġs b
Ġrepe ated
av id
sub mit
unn el
Ġdim ensions
ĠCamb ridge
Ġth reshold
Ġre named
Ñģ ÑĤ
Ġ' '
Ġexec uted
om atic
Ġ@ "
Ġb udget
Ġ urban
log o
method s
ĠPol icy
t f
Draw ing
ĠPrem ier
in herit
Ġtre nd
Ġhe av
R T
IO Exception
ĠC orn
y al
Ġcom pl
ĠM ond
Ġcompos er
st o
w atch
us al
big g
dep recated
Ġr ain
Un known
ĠMore over
: @"
Ġinvest igation
tain ment
Ġanim als
ĠSt ock
ĠO t
w edge
m ag
ĠF und
Cl oud
/ .
et o
Ġpro port
ĠS at
ri e
Q U
Ġvalid ate
Ġinj ury
Ġfr agment
19 32
c les
ic ian
Ġlim its
Ġpret ty
IN S
c ases
ang a
OR TED
ĠC as
b atch
Ġlook s
Ã ¥
ĠDu ke
C B
Ġmass ive
Ġl ie
ĠH as
Fig ure
CO MP
ĠIn ternet
Ġdevelop ing
Ġin n
ord an
Ġport ion
Ġparticip ated
ĠG er
Ġca uses
S ch
ĠD oug
F n
Ġa head
Ġintro duce
Ġcorre lation
dest roy
ĠDav is
W ait
ĠS D
Ġco al
k h
y cle
Ġsim ulations
Ġr ich
ast y
Con sumer
w orth
rypt o
Ġsom ew
Ġc ab
ĠTur k
Ġem phas
d ig
m ad
ĠT witter
Ġchang ing
if ndef
Ġal gorithms
ĠC ountry
Ġre ality
fol io
ĠH ence
valid ate
ĠA D
ĠO regon
D ATA
Ġin vent
L ight
ĠG re
Ġrot ation
ĠE ner
ĠSwed ish
ORD ER
Ġdo or
/ ">
å ħ
Con stant
ir ation
F amily
OR Y
weg ian
omorph ism
Dr iver
Ġbu f
Ġunder lying
Ġperm ission
Pl atform
ĠDes cription
Ġdr ink
Ġf ashion
Ġel if
ĠCo q
ĠI V
ĠMc C
Valid ation
Ġf ee
The me
Ġattempt s
ĠT ai
Ġenvironment al
ĠH ind
ch mark
The y
Am ount
Ġc row
os ure
ĠL abor
MO DE
Ġpi eces
Ġperform ances
em et
19 10
d uration
P HP
n ight
Ġ( [
Re al
ile vel
Ab out
Ġal ert
Ġrecomm end
Ġresult ed
um a
Ġfind s
ĉ ĠĠĠĠĠĠĠ
Ġmeasure ment
P ers
Ä ĥ
J oin
Ġcustom ers
ĠN iger
Ġcomm ittee
Ñ ĩ
Ġge ometry
Ġ' ./
' _
******************************** ********************************
Ġcr iminal
F N
Ġm and
S m
Ġacc ident
Ġprom otion
tr im
an ia
Ġcontrol led
Ġout er
Ġs un
con struct
Ġsh ock
STR ING
in ator
ĠB udd
Ġspec ifically
T ax
Ġun able
ĠS on
istrib ution
trans action
N ative
Ġreg ime
ĠW ars
() ),
Ġp seud
ĠW inter
evelop er
Ġgu ard
m osph
sub ject
int on
Ġdro pped
vari able
G ER
T T
Ġsp ons
ĠG reg
Ġexper i
Ġsex ual
a ired
ĠN az
f eed
A nt
Â °
li bs
Ġe yes
ĠRes ponse
Ġsupport ing
m essages
ĠSt andard
Id entity
Object s
Ġcont emporary
ĠJac ob
Ġdef end
Ġhouse holds
ĠL com
Ġm o
Event Listener
Ġb urn
ly wood
Ġpurch ased
re act
dis able
gener al
g oto
Ġc ert
G A
Ġ" ",
ĠTr ust
Ġfund s
Ph one
ĠS quad
ĠF ox
Ġtechn ique
Ġn arr
Ġpar ish
ĠW rite
Ġpublic ation
ar se
ĠAd v
t w
ic ator
r g
Ġcon vers
ĠC lient
Ġdefe at
ĠSwed en
Ġinter actions
Ġmer ge
Ġsw im
des ign
Ġs izes
19 31
Ġtem ple
19 22
ĠD or
ĠAL IGN
> "
Ġfound er
Ġterr itory
Ġl ists
ĠGold en
et ween
igh th
Ġd ual
C lear
Ġspect ral
ĠBook s
Ġacc eler
_{ -
Ġauthor ities
Comp iler
; |
b old
'] );
19 24
ĠV i
duc er
ext end
cont act
Ġj s
Ġm orph
, $
om ot
em an
Ġse ats
ly n
IL D
SCR IPT
Ġbo ost
Ġapplic able
f etch
D IS
Ð¾Ð ²
Ġl osing
Cont act
Ġin variant
ĠN ative
Ġcont est
Ġthe oret
N ormal
AT CH
F ocus
ĠK al
LO C
Ġfac ulty
Ġt ags
os l
G erman
Ġy ards
H tml
oll ary
ĠB ru
sub figure
B asic
ĠAp ache
s ig
F rench
Argument Exception
ph ys
ĠH al
Ġadv oc
Con structor
Ġb atch
ĠO C
ĠH y
Ġcompos ition
ĠĠĠĠĠĠĠĠĠĠĠĠĠĠĠĠĠĠĠĠĠĠĠĠĠĠĠĠĠĠĠĠ ĠĠĠĠĠĠĠĠĠĠĠĠĠĠĠ
A udio
R aw
ag g
ĠColor ado
Ġrecogn ition
Ġinvolv ing
pol icy
00 1
Pre v
Ġhold ing
ĠN av
19 27
ĠMount ain
ĠStep hen
el le
l int
B L
Ġjob s
Ġcomple tion
Ġtem por
Ġauthor ity
Ġ" ";
ong o
ver b
ĠAmer icans
ĠFore st
Ġ' ',
u y
ur ance
Ġcalcul ate
Ġob vious
ĠT err
Ġappro ved
ship s
Ġb right
Ġide al
ĠN ext
Ġ' .
rypt ed
=\ "
Ġassum ption
Ġg ained
> )
ĠT urn
P ack
Ġtrans actions
( .
ĠAtl antic
att ers
emet ery
ĠB ishop
Ġsk ills
Ġr ugby
Ġst one
for Each
uz z
Ġexpl ained
Ġtr uth
Ġpattern s
D rop
ĠC urrent
ĠT al
Ġc lock
ĉĉĉĉ ĉĉĉĉĉĉ
c ow
il ib
Ġv ent
d k
Ġlearn ed
Com plete
ĠA M
ĠR ights
Ġh ers
du ctions
w d
cknow led
ĠS elect
grad le
Ġs ell
v ing
comm ons
ĠS ets
T ube
ur ches
ph rase
ĠR ow
Ġtown s
Valid ator
ĠD am
Ġplan et
W ord
Ġany one
Ġinit i
agnost ics
it ter
p air
ĠSur vey
Ġcamp us
ierarch y
ag en
Ġsche duled
Ġh or
Ġfunction al
Pl ot
Ġv ess
Ġex erc
assert True
Ġb ands
Ġw ants
br id
Ġhyp ot
are st
ce st
ĠN E
Ġab andon
cont ents
Ġcomp atible
Ġsuggest s
Ġ$ $
Ġg lass
anag ed
Ġintegr ation
A li
Ġwe ather
Ġinter section
Ġdes ired
ay ed
itor ies
b ug
qu es
p ot
C ALL
c ue
Log in
Ġpol l
C ONT
/ {
Ġst ress
ĠO S
ĠW rit
M icrosoft
nob r
Ġ| \
c oh
ĠUn it
ĠB all
Ġbro ken
Ġgener ic
ĠC ore
amb ig
pl acement
j ack
e en
Ġvalid ation
ĠH ou
SS L
Ġdet ected
Ġc ategories
ĠMed al
mem ory
t witter
), \
ĠD B
i ant
ĠC EO
ĠTr ansport
E ffect
ĠC ase
an imation
Ġatt ached
W ORD
Ġm el
ĠS che
B order
Ġte aching
ak ed
Ġengine er
ur r
pl oad
ĠR on
ĠW ho
d irectory
Ġ\ (
m ms
Ġestim ates
W omen
Ġgovern or
ĠL oad
Ġap ilevel
Ġselect or
Exec ution
Ġfrequ ently
Ġcon ven
m ers
Ġin equality
Con vert
)\ ,
" |
Ġlett ers
Cond ition
ĠSt atus
quot e
ennes see
ĠN orm
Ġlay ers
enc ing
Ġend ing
Ġ_ ,
ic ity
b p
ĠBar on
cre t
ĠW AR
En v
Ġre form
N UM
onym ous
ĠR ad
Ġrepresent ative
Ġsing ular
ĠS aturday
t le
Ġop posite
ĠFr iday
Ġde ploy
Ġsubstant ial
set minus
cuss ion
Ġfight ing
s ch
ĠCast le
ord on
ĠV ari
Ġnov els
Ġm igr
Ġdec ades
Ġar ms
Ġex pert
D ATE
is is
cl ine
Ġsuff ered
Ġdr iving
ĠFr ont
ct ic
Ġmin imal
ud a
sh a
Ġl attice
ĠJ oh
l ab
ound ed
ff f
ĠL anguage
lic ense
comp are
Ġop acity
s ome
Ġsc oring
ch ant
av ailable
Th row
Ġinvest ment
ur ations
Ed ge
Ġemploy ed
Bl ack
Ġcred it
Ġsepar ated
view port
ĠIndian a
19 21
Ġtit led
Ġtyp ed
bo ost
Ġph oto
Ñ ĸ
Ġcomm ands
ĠCap tain
Ġpar liament
ĠL ow
Ġperm issions
rupt ed
Ġs and
ĠSer b
R out
In formation
Ġcon vent
d ark
ĠAri zona
ĠPro position
An notation
DO M
ĠC zech
ĉ ĠĠ
Ġbr ain
ĠN ick
ĠP erson
ever al
g ov
B atch
Ġe ye
for all
." ""
Ġsch olar
res ize
includ ing
Ġar ts
id en
head ing
T y
Pl an
Ġcoeff icients
Ġtre ated
Ġst yles
ĠStr uct
ĠW ell
Bi ography
Seg ment
Ġre action
Ġbusiness es
Ġp iano
Ġpart nership
12 7
- (
ul ing
Ġdr am
Ġlink ed
Ġref ers
Al though
Ġcon j
Ġd anger
P M
Ġh uge
C M
if old
Rem ote
Ġentire ly
Ġpert urb
A ST
Set ting
Ġcon version
Ġs urn
Ù Ĩ
19 25
St ar
Ġmod ify
ĠM un
ĠO N
inal s
Ġcharg ed
Ġw arning
hed ral
face book
Ġyoung er
âĢĿ .
Ġw ins
off s
us r
ĠAb stract
arg uments
Fr ames
Ġm ouse
tr i
Ġviol ence
mer ce
Ġident ifier
Ġdo ctor
ed u
ĠG allery
Ġdistrib utions
Ġgu est
Ġb log
S pan
g z
ĠInd ones
Ġc overs
p id
re pository
Ġp owers
Ġs ync
Ġwas n
Ġpat ient
;| &
ĠJ son
Ġfem ales
pre c
Ġp ref
b us
ĠG ree
19 26
ĠB h
ropol itan
Ġst ats
O lymp
eng ers
ĠPro t
I tal
Ġprote in
Ġwhere as
e ast
ĠPe ak
C enter
L ife
w ik
ar ry
B ottom
F ilm
ĠM oh
\! \!
ĠM ilitary
enc ode
Ġy ellow
ĠR ose
Ġa f
) _{
ĠH an
Ġinput s
( --
Ġap pre
u j
v ard
ĠW IT
CON FIG
ĠS av
ĠCol on
ĠEner gy
S W
S V
ser ies
are n
s es
ĠFinal ly
ĠMar ia
19 23
Ġb its
Ġst orm
Ġdocument ary
Ġcur ves
ĠĠĠĠĠĠĠĠĠĠĠĠĠĠĠĠĠĠĠĠĠĠĠĠĠĠĠĠĠĠĠĠ Ġ
ĠC SS
19 12
Ġw rest
Us age
Ġpe ace
ĠG il
ĠE ll
west ern
_ );
ĠMiss ouri
ul i
Control s
alt Color
Ġb or
Ġsub set
Ġst ores
ĠAr thur
comm it
Test Case
Sh ould
Ï ĥ
ĠMem orial
ane ous
P res
o a
B inary
ĠI raq
ass ign
Ġstand ards
ĠG h
gener ate
os es
# {
ele m
ĠL ag
Ġ" .
St atic
Ġa ria
ĠK ansas
Ġcoordin ate
Ġdistrict s
< <
Ġpay load
}} (\
act ic
ĠM ill
Ġphys ics
t ouch
Ġrank ed
Ġphen omen
Ġb omb
ĠL ang
C apt
Ġt aught
Ġload ing
ent ed
Not Found
ĠTur key
k top
ĠSing apore
ĠIl legal
In sert
th rift
E st
ĠAp plication
) }(
OP T
Ġdisplay ed
et es
Group s
ĠX ML
Ġ+ \
od o
ĠW IDTH
pp ing
Ġj ump
ex tra
p ad
ĠP M
ĠOb serv
i per
ĠC ost
Ġden otes
ĠSt ory
F UN
HER E
ri um
Ġelectron ic
ĠSt aff
Ġocc asion
ele d
ĠO cean
load ing
Ġag ree
Ġgu ide
sub subsection
por ate
ĠTown ship
ĠP it
II I
Ġdi pl
Ġbr on
Ġb undle
We ight
R ate
Ġcar bon
Ġs ending
Ġd rawn
And roid
Ġexplicit ly
] ))
IN ST
Ġw inter
N ET
ele ments
O F
M essages
c are
out s
ill ery
ret ch
Res olver
ÃŃ a
bul let
Ġeval uation
Ġfil led
ain ian
Ġhers elf
ĠC G
Oper ator
Å ¾
Ġdecl are
ĠB at
Ġarrest ed
19 15
Ġprom ise
ĠM unic
F ollowing
ä º
ĠBr ad
F older
Ġper haps
Ġf uel
hav ior
Ch ain
Ġle s
Ġf mt
Ġm anner
f mt
H er
Ġlog ging
ten ance
G ui
STAT US
Ġrem ark
Ġsec ure
19 16
Al loc
scal a
poss ible
ĠCh ange
> '
N R
Cont ents
ĠLew is
ĠP ier
Ġobserv ation
ĠV ideo
Ġext ensive
,\ ,
ir th
á »
Ġg ene
F uture
Ġextrem ely
w t
ĠE P
T l
ĠRem ove
Ġfund amental
iv ation
Pl ace
k ing
B al
f red
load ed
Ġhapp ened
Ġsol ar
Ġ( ;
ov en
ip les
c assandra
w arn
DE F
Ġjud ge
Ġanal og
er al
ĠAd am
d am
Ġ&= &
B inding
ĠFore ign
Ġclass Name
Ġbenef it
v als
UN D
el come
ĠHigh way
ĠH art
Add r
re ader
= [
ĠF ind
Ġs event
ĠR oss
ĠChild ren
Ġup dates
Ġl iqu
por ter
res pons
Ġre pro
ĠF ord
Ġexplan ation
Ġt d
ym ph
Ġg irls
Ġeff iciency
le ton
T ile
G R
ĠB efore
ĠF OR
iv als
ex pression
Ġs ocket
sequ ently
Ġneg ot
ens is
St andard
Ġh all
it ivity
Ġal ter
con v
ĠL td
Depend ency
ok es
ich ol
Ġus ual
sh op
Map per
Ġb inding
spec ific
Ġ$ _
Ġjournal ist
ĠM ock
Ġqual ified
Ġf an
ĠSer ver
Ġclos ely
f b
Ġv ice
ĠOn ce
ĠIn vest
re ll
iven ess
Ġsup erv
Ex port
Ġn ob
int eger
g ar
ub ble
ĠDE FAULT
ig ate
if ts
Ġcharg es
d anger
Ġw itness
ĠP ay
M ost
ĠWAR RAN
}} ^
U ST
arch ive
A wards
Ac cept
Render er
C ent
Ġh air
Ġcirc um
function s
Ġw arm
ĠN FL
) _
a us
c fg
Ġm ist
å ¤
Ï ģ
E ST
Ġmer ged
ĠVir tual
B el
Null able
Ġ" %
St ud
ĠPr inc
Ġprior ity
ĠK han
Ġag ents
valid ation
Con sole
st an
Ġb ed
Ã¼ r
phot on
Ph ys
ĠC hen
to Be
ch art
s ym
ĠMex ican
Process or
[] {
l iving
Ġcr ick
ĠD eb
Ġmat rices
in us
get Id
Ġn a
ist a
[ (
| }
ibr aries
m obile
Po jo
M IT
m ac
Ġbenef its
ant e
ĠAnd erson
Ġs leep
Ġpass es
P resent
clud es
ab ric
Ġdifferent ial
ĠS UM
Ġd yn
ĠNor way
per p
yr ics
ĠMary land
Ġmedal ists
CO MM
an es
Ġexpl ain
L ibrary
Ġ' %
Ġsche dule
U K
u uid
Ġem p
On ce
Ch rist
l ot
ĠD C
ĠT ennessee
Ġc old
dist rib
Ġdr ag
Ġindic ated
Ġmod ules
ĠS ound
Ġintro duction
ĠT ag
ĠB ox
al ty
= %
Ġhot el
Ġloc ally
}$ -
Tim er
c ounter
Ġm yst
ops is
LO W
ĠU l
ĠOper ation
O ct
am ely
ĠPhilipp ines
ĠF ederation
> %
Err ors
Ġpain ting
Ġthe atre
B Y
r ank
FF ER
Ġnuc le
Pro f
ĠE ric
Ġind ices
p b
ile y
Ġyield s
Olymp ic
Ġf estival
m k
re po
B en
Ġprom pt
iv a
Ġ> >>
j ax
ĠConfig uration
W arn
J apan
Ġg ender
Ġtw enty
Data Type
c raft
ĠMod ern
R UN
ou st
Ġm ach
Ġcol ors
ĠT erm
UR CE
N orth
Ġult imately
Ġbe am
ah oma
ĠS in
AC H
Ġs pr
pon ential
wit zer
stats models
Ġrun time
we alth
\ _
Ġtarget s
Ġd ates
Ġcustom er
TR Y
od a
Copy right
col lect
ĠS ri
ĠM iller
s un
Ġconsist ing
Ġ< -
ell ite
) },
Ġs s
Ġconsider ing
ĠRepresent atives
Ġex cit
Ġh orse
Ġv ectors
.* ;
Ġdepend ence
Ġinitial ize
Ġm om
Ġrec ru
Ġpro to
atas ets
grad ient
Ġrecomm ended
B ool
c ing
ĠT er
Can adian
can vas
Ġop position
Ġmagn itude
AT TR
I AL
st age
B ounds
Ġpro test
Ġed it
Ġ{ %
Ġd ream
Ġqu adr
Ġin ject
ut ies
Ġsu itable
Ġv ideos
ĠMed icine
ĠBuild ing
Ġk ick
Ġconsec utive
ĠLe on
Ġan imal
ĠF ac
C LASS
ĠF ish
m ont
m n
ĠFurther more
d on
C ounter
ĠTh rough
Str ategy
Ġd elta
ĠF ull
Ġc atalog
Ġad vent
a udio
Ġend point
Array List
ĠAff airs
E val
ĠD aily
LE D
Perm ission
Ġh y
w ill
ĠJew s
it i
/* !
Ġmin ute
Ġlo an
ĠC ab
Ġreject ed
Ġ ig
S ongs
Ġsc r
ant asy
Ġb ug
Ġaccount s
Ġop posed
Ġaspect s
r as
ĠL ev
" },
Ġob serve
witzer land
ĠHar ry
ĠJ unior
or er
Ġmanag ers
y ll
apt ers
ing ly
NO DE
Ġplace holder
ĠComm unic
ĠD igital
Ġinter pre
Ġf ails
ĠT oday
ro it
ĠV o
Ġeval uate
Ġbig gest
j Query
Ġb ought
er d
Ġcontrol s
Ġmat hemat
ĠW ed
Ġd ire
è ¯
ru les
Ġex cell
Ġhe ar
re lation
Ġprep ared
ĠD a
part y
ĠBase ball
in ch
an im
Ġm ent
A UT
Ġc ov
Ġ ion
Ġdesign ated
C ur
ab ama
inc ial
Ġm al
Ġcli ents
p ages
ä ½
ĠSt ream
Ġvoc al
u ating
ĠPhil ip
ĠL ear
Ġ ----------------------------------------------------------------
Ġsm art
M aterial
Ġs ale
h abit
Ġkn ew
l u
ĠF ellow
Constr aint
ow nt
ĠMag azine
M R
Ġag ency
Ġchalleng es
Ã ł
× ķ
Ġinter ior
ad oc
ol i
ro uter
Ġro utes
RE D
ĠL ic
is or
Ġat mosph
f ef
Sign ature
C ursor
19 13
) ^{\
T Y
Th us
) ^{-
Ax is
Ġ{ },
ag ma
Enc oding
ap ple
Ġgener ator
EN V
Or gan
( ['
sc ill
Dep th
Dep recated
Ġdom estic
Ġtri p
ĠI owa
Ġres on
refer red
Ġconst ants
Ġh ole
De ath
al ink
anch or
Ġhel ps
Ġtest ed
ĠFre der
Ġw ish
iffer ent
n os
Ġfav our
Ġprom ote
Ġap art
A E
ul ating
m ass
Con verter
Ġr acing
not ations
omorph ic
K e
ar on
igen ous
ĠP ot
ĠViet nam
P red
Ġclin ical
ĠD ir
Ġcomm itted
rel ative
Ġm ir
ĠA ge
ĠPub lished
ag ues
Ġparticip ants
se lection
ĠRes ult
V AR
M aster
new command
Ġstop ped
ĠEnter tainment
Ġcr isis
Ġcomb at
U C
Ġaccur ate
ĠL ind
B ibliography
ĠCont ent
t l
Ġopt ical
d jango
ĠF A
w ick
col n
Ġle ct
LI ST
E uro
ĠH or
Ġpre ced
Serv let
"> (
Ġsuc ceeded
HE AD
S G
enn y
ac er
Ġindic ating
h ot
? âĢĿ
Ġenc ounter
$ ).
ĠS oc
ĠB eng
ĠST ART
Ġir on
Ġwe alth
ĠM as
Ġsust ain
b lob
Ġalleg ed
L Y
s r
? "
h ave
err ing
ĠD O
Column s
Ġs ac
Ġin struction
m oment
Ġtrad ition
ĠE V
d ash
ate ur
AT ED
W atch
Ġbur ied
l ap
put ation
ouri er
ĠF ood
Us es
an ches
Ġb odies
P Y
ac o
ĠMal ays
ic ode
column s
Ġprof ession
Ġsim pl
Ġvari ation
Dr ag
ĠSim ple
s ime
ĠMel bourne
Ġsol ve
ĠD ark
FI ELD
ol o
Ġgrad ient
Ð ¿
pm atrix
Ġscen ario
ĠÐ ²
Ġb an
h al
alyt ics
Ġfa ith
File Name
ĠCl oud
C oin
Ġsatisf y
at on
ĠAl bert
cept or
ĠMos cow
Ġa st
Wil liam
ĠD ouble
Ġp ed
Ġarr ang
Ġsymmet ric
om er
ur able
ic ians
ilib rium
Ġconcern s
om y
Lo op
K it
ĠAr k
link ed
ĠHol y
Ġw alls
ĠS H
Ġim g
sime q
Ġpred iction
Ġwait ing
ĠZ h
Ġan chor
Row s
( ()
Ġopport unities
ĠOut put
R ob
Ġch airman
IC ATION
ĠMark et
ivers ary
S am
g if
C r
s at
er os
ryst al
Ġnot ation
Ġw x
ĠQu ery
st ates
Ġattempt ed
PRO C
Ġpurch ase
ĠP A
Ġm ales
ĠOff icer
ĠC OL
ĠB rian
Ġign ored
Ġfl uid
Ġvill ages
link s
Ġdr ivers
Ġinstit ution
ĠAg ain
ach er
Ser ies
Ġcy cl
ĠP layer
ic ing
p end
{ $\
ON G
Ġex pos
ĠC ulture
: '
D irection
Ġp m
ous es
Ġp ipeline
Ġcollabor ation
Ġd oll
Ġold est
ĠT ony
s quare
Ġcontrib uted
> ;
Ġstand s
Z one
urs day
h ist
ac on
y cl
AR D
Ġhom es
J ust
Ġnom inated
Ġ` ``
C ity
Ġmet rics
Ġa id
ĠCon text
Pop ulated
ues e
Ġca using
ĠK y
Wh ere
Ġcre ates
Ġbron ze
pro gram
Ġposs ibility
V ICE
AT OR
ĠC ond
m apping
Ġsubject s
Ġs ud
E P
ĠSim on
rem ote
cc cc
ĠS C
Ġvari ant
19 11
Ġtem porary
create Element
ĠE s
elli j
v endor
An other
ic ut
ail ability
Sh ared
Ġ ing
Ġd ry
ĠM att
ĠT ree
ĠPr int
ur is
M ount
Ġro ut
O ld
M ag
Sports people
Ġcap tain
W rap
Ġinfin ite
ĠF uture
ĠP lease
i ors
Open Tl
Ġlog ic
F M
ĠS uch
uff ers
Ġprinc iple
j et
Ġto wer
Ġtr ains
^{ +
ĠC ape
ĠR oy
ĠSh er
stand ard
Task s
Ġoptim ization
r pc
o is
è ¿
ĠP ut
ĠC ru
Ġb oot
p kg
ĠB urn
External Task
ick ets
u ce
ĠC R
ĠEx press
r ame
oc al
end o
) ",
el astic
es is
- $
patch er
E p
Ġ ri
ens itive
Ġpro jection
Ġa apt
MA P
class Name
Ġs i
Ġcomp iler
ang el
ĠP ur
Ġre verse
ĠOC aml
Ġwork er
Ġcomplex ity
ure au
Ġre nd
Pre vious
H C
Ġw ire
Ġproper ly
pre vious
qu ant
ac ew
ĠK at
ĠSk y
D at
ur st
ĠHe art
Ġbehavi our
H older
Miss ing
Ġres istance
int ellij
Ġcol our
> ()
Ġinf rastructure
form er
R andom
ĠA mb
Ġen emy
ĠSUM MARY
Ġ_ .
Ge ography
ĠR eb
DE X
ĠM it
M en
av it
h bar
TER N
Ø ¯
Ġpract ices
Ġcheck ed
ĠGr ant
amazon aws
Ġco aches
F act
z i
Ġw a
ĠJ os
Ġv ision
13 0
Ġlook ed
Ġcharacter istics
Ġsix th
ĠA ud
ut ors
ExternalTask Pojo
Ġar c
Or iginal
B ad
Ġind eed
Ġca ught
Ġr ational
kl ahoma
plic ated
UE ST
Ġst ellar
ĠB ah
ren ce
ĠL ank
Ù ħ
part s
Ġhand ling
w ich
display Name
fef efe
Ġstat ements
Ġleg end
ĠHou ston
[ -
o i
ar ity
Ġhapp ens
Ġ& #
ĠJ ane
Ġst arring
ĠGa ussian
ke ep
Ġprem ier
ĠExec utive
Ġstri ke
ĠRef erence
nt il
ĠCh ap
riter ion
Ġro yal
Ġv ot
ĠB alt
Name Link
Ġh its
ĠClass es
rem ark
as p
lic enses
ĠB ab
ĠSt one
Ġpil ot
Ġ= \
Ġweap ons
HO ME
ĠC op
Ġdis able
Ġtrans mission
T AG
d irection
ambig uation
ĠTh read
.~ (\
b ounds
Ġover flow
ott en
op am
em ony
Ġm ys
Ġadj acent
Ġcl usters
Ob server
log ging
pl ain
S epar
ĠAut o
ail ing
Ġintegr ated
in th
ĠP ack
cover y
æ ķ
ĠSen ior
Ġbro ke
() ">
ĠGree ce
Ġhouse hold
Ġperman ent
Ġobject ive
(' <
Ġbeaut iful
Ġdis ap
Ġsur g
Ġ Ä
ĠT a
erv ation
ĠPy thon
gener ator
Ġf ake
Ġrepl acement
190 8
C md
n ie
ox y
ĠD ream
b urn
ĠMond ay
Res et
} &
ĠM oon
P at
Ġext ent
tim estamp
ĠP os
Ġeffect ively
T L
ĠAust ria
Ġsim ult
BP ACK
Ġspect ra
Ġwe ights
Ġoper ate
ĠR ight
Ġplatform s
ĠS quare
Ġcomp ilation
Ġsum mar
Ġeduc ated
Ġop inion
clus ions
ĠĠĠĠĠĠĠĠĠĠĠĠĠĠĠĠ ĠĠĠĠĊ
S yntax
Ġthous ands
Ġsupp lied
Ġal ias
ĠR ol
itect ure
Ġin herit
inem a
Ġconsum er
A SSERT
do or
ĠL iter
Ġpe er
Sup er
Arg uments
el ve
ĠT en
B IT
ĠS M
Ġprogram me
Ġex ports
) }{\
un lock
col on
op ic
ĠBuild er
pear ance
Ġmass es
Ġtheoret ical
Ġint ent
Ġfeed back
ache lor
f av
ug ar
Ġcrit ics
con nected
com pute
ĠKent ucky
Ġe ase
ĠK now
Line ar
Ph il
fg han
arg o
ial s
Austral ian
ĠSquad ron
L ike
ation Token
Ġad ult
Ġvol unte
Ġcalc ulation
ag u
Ġdeliver ed
in cess
}^ *
ul p
Ġh ide
ip pi
Ġso le
F P
Ġworld wide
te am
w as
_ )
Ġc ro
ĠD elete
g ems
Ġscen es
ant om
Ġair port
st rip
**** **
ixt ures
uth er
F OR
G N
ĠĠĠĠ čĊ
Option al
E Y
å Ĭ
ĠDi ego
force ment
= $
In f
D en
ĠA C
Ġman age
Ġwindow s
Ġoffer ing
Ġp un
Ġbel ief
requ ency
b one
ĠD un
ĠCl ark
ĠAll en
Ġac id
Ġf aster
ann y
Ġl um
ĠComm un
ta h
uplic ate
Ġst ability
Ġrelationship s
En able
Ġre pository
\ /
get Instance
sh are
w en
C ancel
ĠS witzerland
M s
ĠL eb
G EN
ĠJ ordan
igr ants
d istance
top ic
M ac
$ $\
O W
ĠS ix
Ġf etch
Ġident ical
ĠJ am
Ġk illing
ne ut
12 34
bum s
ĠMan chester
ov ing
Fail ure
an alysis
pl ane
Ġpay ment
ĠInst ead
Ġeduc ational
Ġsur pr
put ed
decl are
Ġc riteria
" /
M al
h box
Ġch arts
Ù Ħ
Ġclass ic
Ġst ages
Ġo scill
Ġref used
de ep
comp any
U pload
Menu Item
Ġexper iences
Icon Error
0000 0000
Ġm ort
Ġro of
h ill
ane ously
ĠG ib
az a
Ġmay be
own ed
br idge
R ot
Ġat trib
Ġbro thers
Con tains
Ġproduc ing
Ġscal es
str ings
ĠL ead
ag an
ip h
er ic
Ġs ed
Ġformer ly
LE MENT
Ġv o
ĠAl abama
R a
UB LIC
jav ax
ĠCh all
ymmet ric
Ġgalax y
Ġad m
Å «
oc ese
ĠAss oci
L ib
ĠTok yo
Ġhead quarters
us cript
is ode
P acket
BU FFER
ĠH ans
B ro
Ġliter al
A bs
ĠPl ace
55 5
Ġown ers
display style
Ġg reatest
(" %
ĠF all
Ġst uff
3 60
Ġind ependence
Ġbul k
Ġr ating
Ġexperi enced
Ĥ ¬
Ġlimit ations
Ġco ins
M ajor
m iddle
$ ^{-
Ġcould n
et ies
l b
ĠB os
Ġinter act
m ount
Aut hentication
V ec
Ġth ir
] +
ER S
IconError Encoded
Ġpack et
Ġor bit
Ġlow est
Ã© t
Ġ Ñģ
ars ing
l on
ĠApp end
Ġtherm al
Ġc b
Ġman ifest
Ġk il
Ġg one
RE E
ĠNor wegian
Ġsch ol
Ġbrief ly
LE TE
am ount
Ġp apers
Det ector
Ġf aced
ĠĠĠĠĠĠĠĠĠĠĠĠĠĠĠĠĠĠĠĠĠĠĠĠĠĠĠĠĠĠĠĠ ĠĠĠĠĠ
rem arks
A SE
p in
Ġprec ision
u ction
id ges
ĠG ab
in ating
ang ers
ĠVAL IGN
ru ption
Ġpers pective
ĠJ un
ordin ate
v ia
ĠJ ob
ĠDon ald
ĠB arn
ĠD ead
Ġan imated
LA Y
olog ists
18 90
ĠCre ates
w allet
el led
Ġab und
ĠP romise
Ġoccup ied
Ġv m
reg ular
Ġinterest s
In ner
B ased
D TD
Ġdr ums
ĠReg ional
Ġcharacter istic
Ġpers ons
ym n
ĠS to
Ġas ympt
D avid
M obile
W eek
pr iv
Ġradi ation
ĠAm ong
Ġrob ust
ĠMar ine
>< !--
âĢ ĺ
Ġmov es
Ġp it
Ġf olk
Ġsign als
Ġsett led
ĠD ue
H on
×ķ ×
az e
id o
int egr
ĠĠĠĠĠĠĠĠĠĠĠĠĠĠĠĠĠĠĠĠĠĠĠĠĠĠĠĠĠĠĠĠ ĠĠ
ĠHow ard
nes day
Ġmay or
ĠMar c
ĠB ra
Ġw at
writ ten
com es
Ġch apter
CD ATA
l ad
ĠM L
ĠN ev
Do ctrine
1 15
em it
Ġ ener
ĠH u
RA Y
Ġexpress ions
B M
Ġin duced
Ġunder st
Ġthrow n
ĠG ard
ool s
Ġc m
Ġj ourney
ãĢ Ĥ
ĠEm peror
ĠCon stant
ĠFor ces
pro b
Ġtim estamp
S ite
ĠLab our
u ity
ver age
ĠAcc ount
Ġvers us
ab c
Ġl yrics
ri ent
âĢĿ ,
} )$.
S F
i em
Ġcommand er
Ġexhib ition
B its
Tim estamp
Ġcover ing
Ġoper a
ub le
p rom
ogene ous
Ġg lob
od ot
ĠS P
ĠL INE
el son
ues day
Ġmix ing
ĠAdministr ation
Ġste el
ĠHot el
spe ed
com b
Ġhum ans
Ġle af
sl ide
s ass
Ġb old
ene z
Ï Ģ
ĠJ ay
rel ations
Ġfr anch
Ġstat istical
Ġdepend ent
re nd
P lease
Ġbreak ing
Be en
G IN
aw are
ĠI R
ĠF a
ig e
Ġgovern ing
T ex
ĠF ame
th rough
ul us
M ich
Ġa w
ĠCon stitution
}} ^{
Ġre new
Ġf ly
ĠE U
Ġcorrect ly
ĠSil ver
ĠP a
Ġh op
Down load
Ġcomp liance
\| _{
i ations
10 2
Ġk id
UN T
ard o
Ġdef ines
Ver ify
ph ase
N or
Ġc arri
Ġ( ,
Ġmark ets
Ġdep os
ĠS pr
Ġs ought
Ġas sets
Ġpercent age
ĠO tt
Ġeas ier
Ġf older
ĠS end
ĠDo ctor
Ġconf idence
uer to
ĠAdd ress
Ġheav ily
v i
unn y
osp it
Ġc odes
c ountry
Ġconver gence
all as
max cdn
Ġ æ
ren a
IL ITY
Ġ( ),
dis ambiguation
in x
Ġuser name
M illis
S ame
Ġent ertain
G overn
v et
Col lect
rt l
Ġsk in
Ġdem ocr
Id x
um ps
K n
Ġstand ing
Ġint elligence
Ġsup posed
Ġca ref
c ancel
Ex ists
ĠPat rick
ĠTh ird
I Z
ĠD OM
Ġl ake
Ġuncertain ty
F ixture
TO M
it ative
ĠA st
Ġd elegate
Ġtable s
Ġret ail
re nt
Ġ" '
st ances
po inter
Ġtri ple
Ġf ear
ĠB an
Ġ' ''
! </
ĠB ron
190 5
D iff
M F
w i
Ġor th
tool tip
ĠF le
Ġre aching
Ġch unk
Ġ' "
Ġsc ores
ĠN ever
ac ht
Ġt error
Ġh un
oth s
is lation
Ġrough ly
ug u
Ġs ons
ĠWh it
ĠWal ter
Ðµ ÑĢ
Ġem otion
Ġmaintain ed
N amed
Ġtext ure
Ġsequ ences
BU ILD
Ġf s
google apis
ĠLin coln
sd k
W ill
Met rics
eli hood
Ġh orizontal
Ġ( %
Ð° ÑĤ
on i
re peat
Ġexpl o
Ġdel ivery
ĠTem ple
ĠAnth ony
aw esome
ĠHarr is
ĠV ice
Ġes cap
T ouch
Output Stream
ock s
ĠK er
ĠP C
Run ner
ĠDis ney
Ġcol lections
ĠĠĠĠĠĠĠĠĠĠĠĠĠĠĠĠĠĠĠĠĠĠĠĠĠĠĠĠĠĠĠĠ ĠĠĠĠ
c ross
ĠL ook
Ġdi agn
Ġre str
Ġqu eries
d ays
c ursor
Ġco inc
ĠV ar
ov ak
Ġor ig
Ġsit uated
serv let
lin ux
ĠM and
iss ippi
t z
Ġag ed
S an
Ġ-- ></
Ign ore
Exec utor
d ynamic
11 1
l f
ĠN AS
Tele vision
Ġtransl ated
Ġscal ing
ĠB E
Ġ å
ĉĉ ĠĠĠ
ate st
Ġdr um
t ensor
Ġsh ares
sc ore
ig o
U A
ĠN um
ĠK itt
Ġn ortheast
ĠA T
Ġprep are
Ġto t
S plit
Ġpredict ed
ĠQueens land
aa aa
Vir tual
Ġkeep ing
Ġcalcul ations
Ġmarket ing
Group Name
H D
S witch
Ġshort ly
(" \
m ma
k ov
} ))
Ġrelig ion
> ${
ĠS ite
( /
M ust
i ary
Ġm ile
Ġpain ter
im p
Ġcl one
Ġent itled
Ġal pha
ĠHamilton ian
Ġinvestig ate
ir al
Ġ< ?
Int roduction
WE BPACK
Ġpresident ial
D id
L iteral
Table Row
we ek
Ġcirc uit
Ġr ig
ick y
ARN ING
st eps
Ġcomput ation
Ġgun s
Ġth ank
Ġm ental
Ġattack ed
L icense
ĠBy te
Ġn amely
me an
=" {{
================================ ================================
Mon itor
Error f
Ġflow s
ri ends
ĠBatt alion
ic ide
iz ers
eg et
Ã ´
ĠYou Tube
ĠCont in
Part ition
f ake
Ġl ift
ĠBul g
C trl
h istory
P ower
or ro
Ġcommun ic
Final ly
ific ial
Ġs oci
Ġth anks
ign ore
Ġdec ade
ĠD al
Ġadapt ed
P al
Ġimmedi ate
ate ver
Ġsent ence
Ġrespons ibility
li est
? ?
Ġs now
ĠI ter
)\ \
Ġcap able
IMP ORTED
not ify
Ġoff ices
OR K
ĠPh ot
Ġarg ued
er red
Ġm arg
Ġamplit ude
ĠR yan
Loc ale
Ġemer gency
Ġmusic ian
Ġabs ence
Ġdep ict
ĠS W
Ġab ort
Ġjoin ing
ĠR ab
Ġpar a
Ġpost ed
l oss
re le
ob serv
m f
ĠP ed
new s
Ġcan cell
ĠG ordon
at en
Ġf old
ĠE ag
Ġimp lied
ĠR ey
TI ES
Ġtemper atures
190 9
Å Ł
Ġclos er
Ġf ired
ĠN ik
Ex press
190 7
~ $\
Ġpoet ry
Mon th
U CT
ĠMo ore
Ġregard ed
ibr ation
Ġliter ary
ĠLog ger
A X
includ es
Ġdis miss
Ġs we
Ġapp lying
Ġe c
14 0
form ed
g ood
Ġspe ak
Ġf ought
ĠInf antry
Ġch ose
om m
Ġexpl ore
qu al
ĠR ound
Ġhost s
av is
ĠE nc
Ġex cess
Ġstri p
y ou
A ctions
W IN
ĠPro p
ĠK EY
ĠA gr
P romise
19 01
ĠH op
ĠO klahoma
190 6
Ġtyped ef
h our
get String
Ġcoll apse
pr agma
sp irit
yg on
t p
ĠP as
ĠBr un
Ġconstit ution
C ountry
s is
ri k
G P
al ias
Ġc lip
Ġparticip ate
The orem
Ġpl ate
il k
ĠHand le
con tain
E ducation
pro position
Ġex ceed
Ġfound ation
ĠAn ne
Ġcopy right
Ġig et
1 16
ar o
h d
refer ences
bind ing
t ik
Ġp ixel
Ag greg
Ġpr ices
M c
Ġfl uct
Ġcell spacing
F eed
Ġjust ice
Ġp atch
get Type
Ġb ias
Ġdisc rim
al gorithm
at ibility
pt ic
ir us
Own er
sol r
ĠEar l
< >();
ĠO ak
ic ular
Ġcell padding
RA ME
Ġlaw yer
Des ign
iev al
~~~~ ~~~~
Ġcon clude
T ok
example s
ĠTele vision
ĠJes us
Ġhelp ing
A I
SO URCE
c ity
Ġthink ing
LIC ENSE
} ",
Ġshoot ing
' (
Ġsever e
ĉĉĉĉ Ċ
Ġsatisf ied
Ġresearch ers
D an
Ġeth nic
Ġret irement
ex cept
g overn
ownt own
Ġt ack
ĠB ry
ĠU til
viron ments
in ction
text sc
Ġhistor ian
st e
S core
% "><
Y our
Ġre ar
ss ue
ĠConnect icut
10 5
Ġrec all
ĠF ix
ĠU RI
ĠD ictionary
ĠK am
ĠTurk ish
ĠIslam ic
Ġcan vas
Ġthe ories
RE CT
ul ner
ĠHol lywood
Ġj azz
Ġpropos al
ĠU P
ĠCh ile
ous el
te ction
$ ;
Ex pected
he ets
Ġaccom pan
ĠPro duct
Ch anges
Ge ometry
ĠVill age
Decl aration
Ġrev olution
Ġdec isions
Ġann ounce
Ġm it
Ġin fer
d ers
Ġ' @
Ð ·
cri bed
ĠS port
Ġsl ot
un known
Ġh a
ut able
op ter
ĠWARRAN TIES
Ġtri es
ĠSe ason
Ġsee ing
in ces
Ġ uri
lo yd
f ish
tr ansport
Ġc ards
ĠS el
be ans
ĠAg ency
y ers
Exec ute
Ġim plicit
iv idual
ĠOn line
Ġre tain
ĠCro at
el and
ol id
S ing
S elf
no frame
Ġmembers hip
map s
ari os
Ġir re
Q ual
ĠM O
=- =-
D ynamic
ĠB us
ĠHaw ai
ĠT OP
ah o
Ġdesign s
__ )
= &
Ġprefer red
Ġd eleted
] }
ĠSt ore
)$ -
Ġm ob
li a
tim eline
et ary
Model s
r ather
) }}
Ġw idget
Ġsing ers
190 4
-------- --
ro ck
Dec imal
Al ert
ĠMod al
": "
ĠN ichol
Ġre serve
Ġsomew hat
Ġwrit es
ĠAr men
ĠSh ould
Ġinv ited
od ge
Ġtr uck
un ately
sur face
Ġbo at
Ġaccom mod
Ġk w
C ulture
ss l
ĠM rs
Ġ- =
mit ter
is ition
ĠH ig
Ġred irect
Ġa ired
ĠQue bec
E ast
ir t
aw ay
Ġpack ages
SS ION
jack son
ĠD NA
ĠTr ack
Ġfound ing
t oc
ĠIn ternal
ik h
Ġbel ongs
V ill
Ġh am
10 24
mem bers
Ġv oted
ĠD ick
Te am
ĠSp acew
ec lipse
om as
Ġpract ical
ĠEd itor
d n
Ã ª
int ro
ateg or
att ed
Not able
ĠB ureau
ĠA fghan
ĠÐ ½
ĠG iven
C odec
Ġhapp y
Ġsh aring
Ch art
Ġcl im
OT TOM
Ġcrow d
M anagement
map sto
ĠDet roit
R ich
im ize
g raphics
Ġman ip
m ay
Ġsp end
Ġn ick
h ook
Ġver b
S ide
St ub
ĠT reat
Ġb rown
ĠWalk er
Ġin habit
1 12
Ġposs ess
ĠDe ath
get Message
ĠN ag
ĠSpacew atch
Ġl aid
Ġdirect ors
ce ived
Ġcent uries
enc oding
Ġdraw ing
Ġt ennis
Ġ| =
Ġacc um
ĠK evin
ĠMi ami
ĠIt em
Ī Ĵ
Ġd t
" ];
Ġvir us
ĠâĢ ¦
ĠB lo
ĠH ockey
Ġgr ade
Ġdiscover y
sw ing
Ex tra
ĠB uffer
hens ive
ub er
pub lish
Ġsp ac
level and
Ġtouch down
################ ################
R ules
Ġdef initions
Ġd ust
Ġfavor ite
Or igin
ĠV in
ĉĉĉĉĉĉĉĉ ĉĉĉ
Ġequ ality
per iod
Bit map
ĠBill board
Ġm ail
AR G
ra ction
Ġcompet itions
Ġquant ity
\ {\
con current
ĠPal est
Ġeng aged
ĠCommon wealth
get Class
Ġin verse
Ġrun ner
Ġown ership
i ac
ĠB Y
Ġs occer
let ter
ch anges
ĠTr aining
>( <
F ixed
ĠDoug las
A z
Ġt urb
D ry
li x
Ġrecover y
ĠK a
M arch
act ual
Av ailable
r at
Ġproduc es
Ġcr icket
r ang
Ġch air
un ing
Ġm es
ss on
ur d
Ġt ight
TR AN
Ind ian
ol ished
com ple
çĶ ¨
Ġinj ured
Ġbring ing
Ġp up
Ġmod er
Ġvir t
Pr imary
ĠC hem
pag ination
ĠMe an
j oint
Ġinflu enced
Ġ" [
ĠA P
Ġaccess ible
ĠPar se
Ġcoeff icient
SP AN
9 00
she ll
sub Nav
ub b
pre d
ĠL am
CO M
br ace
Ġsurn ame
Ġcommission ed
$ ~
ĠCon vert
eg as
Ġpart ners
ow ski
ĠF inn
n l
ĠTai wan
Ġorient ation
Ġlog in
Ġprint f
Cre ated
cre ment
iv ated
inter val
li ps
par agraph
F ootball
ĠC ov
F ALSE
ch at
ĠMot or
E very
Cont in
LO AD
Ġcomp re
Ġto kens
ograph ical
e per
end point
Ġf i
as a
Ġrepresent ations
Ġs outheast
ĠUkr ainian
y c
ĠC F
l ive
ĠN ap
Ġcr ash
Ġgraph s
Ġenc oded
Ġsk y
Ġcer emony
ĠD atabase
Ext ensions
ĠHer itage
GB T
ĠBow l
urr ican
Euro pe
Ġterm inal
local host
work s
ĠS mall
}} $,
annot ations
Ġeven ing
red irect
alle st
ĠB uck
Ġp arsed
ĠC ow
b ey
Ġ' #
Ġin herited
Ġsub sid
second ary
ĠS ud
ĠE arly
ist ol
add Class
p ref
M achine
="../ _
C N
Ġc ub
com plex
Ġdis estab
i pl
Ġcon cluded
iber n
Ġconserv ation
Ġscatter ing
Ġt er
Ġr ival
var s
Ġrestaur ant
Ġg ar
B orn
Ġ======= =
Ġconcentr ation
Ġp ending
ĠM anager
the less
j u
> ../
ĠCh ampions
pos ing
A U
late st
ust ries
Ġro ots
] </
Ġv eter
f older
ĠL java
ĠY outh
Ġaccom pl
it ics
fore ach
ĠD est
æ ĺ
Ġgood s
ial ect
M o
Ġconsist ed
Ġsign s
Ġk ids
ant on
Ġback ing
ver ify
a ui
Ġcheck s
u able
Ġpublic ations
ect ure
Ġst adium
Ġloss es
R ober
ĠRes erve
ĠMat the
ĠIsrael i
Ġl it
Ġcon clusion
Ġmet res
ĠSw iss
Ġscient ists
Ġfle et
h base
r ink
M us
Ġp ixels
dat etime
Ġre nt
Ġcomput ing
Ġacc used
Ġhigh way
Ġstrateg ies
Ġint ensity
ĠStud ios
ĠAl ber
Ġass istance
10 4
s z
Ġre ception
Ġclass ified
Load ing
m outh
ag ement
S pecial
Sec ret
ol ly
b ow
ĠT ab
Ġrepl acing
}} $.
as is
F ac
ĠSer ial
ĠD og
ĠHon or
ĠBelg ium
ĠPl ant
st mt
ĠNC AA
ĠBang l
P od
ĠJ S
qu ir
b inary
Ġcre ative
ĠTh ursday
ĠVol ume
ĠM ust
Ġcomp r
av ia
Ġl ose
Ġcom fort
As sembly
roll ers
iz ard
ort s
ĠE u
Ġestablish ment
Ġdemonstr ated
Mut able
Ġd ies
Ġrece iver
ĠArgent ina
m anagement
Ġhard ware
T uple
ĠPr ivate
Int ent
t ail
Ġext ensions
Ġd ictionary
ĠG arden
Z ero
ĠÂ ©
h alf
Ġc raft
Ġdis crete
190 3
ĠT rib
Work s
g ies
0000 00
BO OL
Ġsam pling
&= &
Ġdescri bing
Ġcom ic
OL D
Ġabandon ed
ĠK o
oriz on
ĠF M
ĠMiss issippi
Ġher o
Ġcour ses
ĠLouis iana
ĠL ib
Ġcon sequence
ĠMethod s
Ġincorpor ated
is o
ĠCom ponent
ĠD ur
ĠS n
Ġex posed
ĠDef ense
ĠA I
AV E
Ã© r
Ġw onder
ut t
Ġfil ters
Ġread s
Ġpost s
u is
Ġb ond
ul um
Ġsymbol s
Ġsh adow
Ġmov ies
j b
f p
ili ar
P riority
B reak
Ġcan onical
Ġre in
ts burgh
L i
ĠPri x
ĠDen mark
plic ity
ĠĠĠĠĠĠĠĠĠĠĠĠĠĠĠĠĠĠĠĠĠĠĠĠĠĠĠĠĠĠĠĠ ĠĠĠĠĠĠ
Ġb low
Ġentr ance
ĠRun time
h pp
Work er
Ġassert True
Br idge
Ġs ender
N P
ĠG irl
Ġrestrict ed
run ner
ĠCol umn
BA SE
ĠL as
plement ed
ĠAnton io
Ġrespect ive
ĠLem mon
ain er
im ore
Ġinv asion
i at
en ess
N a
se a
Ġl ob
View Controller
. ',
ĠW atch
Ch o
App Compat
Ġed ited
Ġsign ing
M ilitary
Ġtr ivial
Ġfac ilit
ĠA le
Ġr anges
* ,
n an
st ory
ĠAdd itionally
ĠN aval
ir i
ĠI F
w iki
Ġeng ines
met ic
in burgh
Ġrel ax
ĠE mer
Ġne ither
i op
ĠSystem s
m g
Î ·
ĠD ak
Ġiter ator
Ġreport ing
Ġenh ance
190 2
Run ning
Ġm art
T ri
Ġis instance
B uf
is ely
Ġp a
Ġperiod s
Ġro bot
è ®
Ġappear ing
Ġt ip
L IN
Ù Ī
Ġh al
Ġex ponential
Ġ' _
Ġpass enger
Cl ub
Ġliqu id
Ġf lying
list ener
Ġc ertificate
H ar
g re
Ġroad s
ĠAct ive
Ð¾Ð »
sc ious
Fe atures
m ix
Ġj et
Ġg oto
Ġsports people
Ġp ione
ĠOper a
S napshot
Ġexpl os
ab stract
fe atures
Text View
ash i
Ġmed icine
Ġleg islation
is ations
Match er
end a
bar a
t one
Ġcon tribute
Re act
N eg
a ire
ig ious
T yp
j or
Ġfr ames
i ot
Ġinterpret ation
Ġloc omot
) +\
am an
F ace
Ġrespons es
Ġb es
Ġro oms
C amera
ĠM atch
Ġs elling
Ġext reme
ĠInd ependent
Ġb anks
Ġtop ics
Ġocc as
Ġadd s
ĠLa ure
Ġneut ral
p ond
s ong
Ġ[ \
ĠP ope
ĠN ob
Ġch urches
ĠGener ated
St age
XX XX
L ive
ĠU r
ĠW y
iv o
L em
A ugust
trans l
Ġcon crete
draw able
W in
ail and
Ġb id
SU C
D ict
Ã© n
Ġcompet e
ĠC ook
Ass et
× Ļ
ref resh
leg es
18 80
ol ph
ĠD VD
ĠLINE AR
Ġsuc ceed
ĠD ave
en ix
Mod ifier
') ->
fl uid
or us
ib ilities
re pre
Ġneigh bour
He alth
ast s
ĠA ug
Ġin aug
Di agnostics
ĠAd vent
ĠN ull
IN VALID
id al
> [
'] .
Ġdesign er
g lob
ADD ING
ĠÃ ł
An alysis
ĠWh y
ĠT ry
wh o
Ġm ac
ĠRem arks
Ob serv
up dated
Ġdr iven
U ES
U nd
Ġessential ly
fr ag
Ġregular ly
P ut
dec ode
ip age
Ġres olved
Ġgener ating
Form er
ĠSing h
Ġmom ents
ĠE ver
ĠArg ument
ĠSc ient
he el
is en
oust ic
ĠY an
ĠP ap
ĠK az
Ġconcern ed
n est
Ä «
Ġ# {
ĠC ole
Ac adem
ap l
Ġfall s
inc or
ĠPortug uese
th umb
Ã «
(' ./
} )$,
p ic
fr agment
k ernel
Ġpotential ly
ĠIn valid
ĠT og
Ġcomput ational
Part icip
; %
Ġman uscript
ab ad
Ġcho ices
Ġinvolv es
c od
: }
t re
ĠAl an
olv es
G iven
az ure
del ay
urs ive
ĠM S
Ġsu it
Ġ' -
Ġb irds
oc om
Ġin structions
1 17
Ġremov es
Ġne ural
t v
repre ne
Ġimprov ement
Ġexcell ent
æ Ī
ok ing
n ia
u h
="@ +
ĠO k
R adio
Ġm outh
script style
n ik
Ġw rapper
ĠEconom ic
ĠR ap
P aul
str ument
re tt
L at
An im
ĠOr th
/ )
Ġseg ments
ĠDub lin
Ġst im
ir ms
ĠM aur
ĠF ALSE
B us
Ġadd r
con cat
ĠB ou
ĠM obile
Ġnecess arily
tik z
HO UT
Con tract
Ġreg istration
Ġw aters
ĠEx pl
Ġint ention
Ġinstall ation
ĠBrig ade
Ġbo ys
Ġd iver
bo ards
Ġ ^{
Ġmin ing
por ated
Re ason
ad v
ĠGr am
pay load
Off icial
PRO P
get Attribute
Ġth in
al gebra
vert ex
ID E
B ul
B usiness
iss ance
Sh ader
Ġdecre ase
Ġru led
et r
Spe ed
Trans ition
H istor
in ject
ĠâĢ ¢
st ud
Pr ice
Ġwhe el
Ġiter ation
F actor
W I
] ->
ĠSoc orro
yn opsis
Ġder ive
ĠI ron
Ġag encies
Ġdes criptor
CRE ATE
ĠSe attle
ĠSt ew
ĠAtl anta
å Ń
Ġderiv ative
Ġland scape
Ġmat ched
Ġincreasing ly
ĠP uerto
ĠC emetery
ri ev
che ll
Ġgrad uate
olv ing
Ġprov ision
Ġvict ims
> `
Ġre ign
ĠWork s
Ġcross ing
Ġass ault
Ġtra ject
ĠH ills
Ġh ook
Ġteach ers
ĠN atural
) -\
P REF
Ġte en
ĠSam uel
Th erefore
REQ UEST
P rom
G it
pro fit
Ġh ired
C annot
Qu ant
J ames
ĠP R
Ġa str
l arg
Al pha
Ġdom inant
Ġass ignment
ust ed
ĠI T
(" .
At trib
Ġbound aries
ĠIn v
ut down
| _{
ĠF arm
b est
R oman
Ġm ine
fav icon
f ather
l ined
Ġon going
ĠF oot
Ġre ward
Ġch ampions
uff ix
Ġin ternet
med ium
Ġmanufact uring
ĠO P
Support ed
Ù ĩ
Ġtalk ing
Ġ{ $
et al
ors es
Ġun us
run ning
" ])
uk i
Ġcharacter ized
row Color
ĠIndones ia
ustr y
O k
ĠU tah
oc he
mat ches
ĠMay or
Ġpost er
Ġinter mediate
Ġsens itive
Ġpartial ly
P ush
Ġst ating
U AL
Ġare n
ĠC le
ĠMA X
ĠC P
ig ator
" ?>
S chool
Ñ ħ
er gy
sect s
Ġrapid ly
Ġdesc end
Ġun iverse
sp in
op ol
ĠPortug al
ĠL ock
A ir
Ġfile d
ĠHar vard
Ġpresent ation
UR N
Ġfin ishing
TableRow Color
ĠG all
ĠWed nesday
re duce
set Text
D ig
FN GL
) }_{
ram a
lo pe
ut ter
T ip
In struction
st ri
neg ative
T og
Per iod
ĠDan ish
Ġpop ulations
ĠBO OST
Ġcast le
Ġ" ;
d td
loc ale
Ġapp lies
ĠK it
}\ ,\
ĠCap ital
ĠMar shall
Ã³ w
tim er
label s
Ġassoci ate
ac l
tr ain
el lect
189 8
$ ),
Ñ Ĩ
en o
fl ush
ather ine
Ġj unior
Ġcertain ly
ext ensions
min ipage
on na
ĠWhe ther
Ġcarry ing
Ġsud den
Ġm m
Ġwe ar
F lor
b undle
Ġb reed
Ï Ĥ
}( {\
ĠR ange
Ø ª
J anuary
Ġd atasets
coh ol
Ġunivers ities
Ġf at
cl s
eb r
Ġleg acy
ĠH ug
Ġweek end
f am
Wh ite
Ġmid field
ab a
X Y
re present
/ (
Ġequ als
over ty
Str ip
Ġex pr
ĠP rom
Ġc orn
Ġt ank
Ġwor st
Ġins urance
Ġsy nd
Ġadv ice
Ġunivers al
ĠLaw rence
app y
id ad
es c
styles heets
od ox
Ġd uty
Ġclos ure
ĠP ref
Ġbr anches
ig ible
Ap is
A K
ĠH amp
Ġgo ogle
ĠM IT
ĠBrazil ian
edd ing
Ġeval uated
C over
Ġrecord ings
Ġphot os
Ġdemonstr ate
math op
D M
Ġequ ilibrium
> {
Pro duction
Ġm acro
ĠT uesday
C LA
char acter
Ġst ood
Ġfeel ing
Ġ-- -
P OS
ĠLiber al
J une
ĠEnt ity
Dis k
ĠMc K
Ġstre ets
Ġknow s
trans late
man ifest
ĠAb d
H ave
Ġdeb ate
Ġnorm ally
ĠT ABLE
Ġpaint ings
Ġlist ening
con g
M esh
ĠJ uan
project s
an Ã§
Ġb ot
Ġden oted
../../ ../
Ġinstr uments
Ġpen alty
final s
SP AC
Tool s
Ġpl ain
Ġmolec ular
ĠOr chestra
es a
Ġvol umes
RES ULT
Î »
Wh y
5 12
er on
Ġpass engers
Hash Map
po i
ĠT el
}$ )
ub ern
Ġsym pt
}{ |
m aker
ĠIm mutable
== =
Sc ene
Ġ" )
Ġdec ide
Ġspe aking
ĠF red
et ition
EV ENT
V P
Ġis lands
ĠA ws
m ate
ĠCol omb
Th rough
Ġphilosoph y
il st
d st
w x
ĠArk ansas
ĠSchool s
AP P
Re ception
fa iled
Ġd iverse
ĠK elly
ĠT arget
dis patch
Ġrest ore
ĠWh ere
( `
Ġconnect ing
Struct ure
Ġd ense
18 99
ĠAuthor ity
ah n
u ent
ic he
Ġarr ival
th ree
Ġpublish ing
Ġc ash
Ġsp ending
A pril
Ġar med
Ġstudy ing
Ġhead s
Ġyour self
Ġcon vention
Ġrequire ment
Ġrot ate
ĠF al
__ ,
ĠB ORDER
ĠTr ade
Al t
Ġgr ass
az ines
ĠÃ ī
\ )
Ġcent ers
ĠEd inburgh
c lip
ĠSt and
ĠPro file
ĠEd ition
s ources
Ġg it
Ġcomp ens
fl ux
gu ide
B ucket
a que
bor ough
ĠPublish ing
ĠSt age
pop up
Ġpredict ions
exec ution
ĠAust in
hib ition
att ach
ĠB uff
P ane
Rece ived
Ġd st
æķ °
ep age
enez uel
ace ae
]( #
Ġlic ensed
Sche dule
c mp
EN TRY
Ġl ands
Ġincor rect
Ġrad ial
ĠMod ule
Ġre vers
ĠAn alysis
ĠIm perial
Ġest imation
ĠWeb site
Ðµ ÑĤ
ĠL I
g ate
ĠP ackage
ĠS ingle
Ġpri est
Ġactress es
respons ive
P an
ĠAl liance
Ġc ached
d ied
cy cle
ĠB asic
Ġtr im
RE T
Ġso il
Ġappre ci
] ['
fr ames
Ġan th
ct ree
Ġexp ensive
ĠPal ace
ĠD A
Ġhe aring
Ġdom inated
Ġhundred s
up per
m illion
Ph oto
ĠD ebug
ay an
Form atter
ĠĠĠĠĠĠĠĠĠĠĠĠĠĠĠĠĠĠĠĠĠĠĠĠĠĠĠĠĠĠĠĠ ĠĠĠĠĠĠĠĠĠĠĠĠĠĠĠĠĠĠĠ
not ification
Ġkn ock
ĉĉ čĊ
B D
Ġsatisf ying
Ġ" ${
S ig
ĠP ear
ĠT ar
Ġas set
oc a
Ġtechn ologies
db c
Ġcl s
Ġil legal
C irc
Part y
Ġent ities
contin ue
ĠB art
.... ....
ĠM ission
Ġg ro
ĠDate Time
arn er
Ġ$ |\
ab ul
ĠLie utenant
G a
a ac
Ġ ĉ
cast ing
3 50
Ġs ounds
Ġadapt ation
Ġdire ctions
i able
G reen
Ġview ed
Ġinhabit ants
Ġpri ze
ĠCo oper
ĠFreder ick
f aster
Ġs af
ĠAng el
Ġfranch ise
me asure
Ġsufficient ly
Ġdef ensive
g un
nos cript
ok er
B ACK
Ġexpos ure
Ġneut r
c odec
iss on
Ġent ropy
b x
ĠF ern
ĠS R
plic a
Ġgr avity
Ġgu ess
ip edia
CE PT
C UR
Ġsecret ary
EN CE
sl ider
Ġagric ultural
met rics
ĠL ore
%%%% %%%%
Ġconv ex
Ġcomp iled
ĠL P
ul o
app ings
? </
G raphics
Ġfind ings
}{ (
Ġ$ ('#
Ġb on
V O
Ġelect ro
Z oom
op ens
Ġhel per
S eq
Ġb ucket
ev ens
ident ity
Dis c
ĠM organ
h us
gress ive
m ys
> .</
M r
Ġ' ,
Rev iew
ĠDe an
Ġretriev e
Ġvari ations
. :
Ġweek ly
ĠOrgan ization
Ġn s
40 4
less sim
k ar
Ġb attery
ass ador
Ġtw elve
Ġup load
separ ator
Ġform ally
ĠL evel
s creens
Ġsph er
Separ ator
10 3
Ġt f
g p
Ġent ering
z ym
Del ay
Ġear liest
atur ally
Ġa cknowled
Ġvisit ors
_ -
T X
c n
ia h
et ry
ĠP atri
em pl
ter y
Ġexp ed
Ġre venue
Ġt ropical
ĠNS String
Pro of
ĠB ush
Ġlist en
iver pool
Ġnormal ized
ĠYear s
Ġpriv acy
Ġmain tenance
b ai
ĠSh ah
ĠG raph
aw t
Test ing
Ġsing ing
Ġle mma
Ġm ess
i est
at iv
Ġclos ing
L R
Ġpoint ed
ĠSar ah
script s
Ġ urg
Ġrestrict ions
Al so
init ely
ĠA BC
ith uan
et c
ĠHistor ical
Ġaut hent
Serial ization
10 7
Ġf aces
per cent
Label s
Ġproduc ers
ĠMalays ia
uc ed
Ġpres ents
Ġt um
Ġse es
J uly
Ġg ate
neut ral
l ua
ĠâĢ ł
Ġground s
5 000
Ġin clusion
Ġres idence
Ġdrug s
Rec ip
ĠAn na
Ġ" #
at om
âĢ ī
d ocker
th ere
WA RE
Ġ} ).
Ġe g
Ġturn ing
clud ing
Ġa ux
pack ages
SP ACE
Ġad mitted
Ġoper ates
ĠKn ight
um in
ĠP HP
Ġo x
MP L
Exp atriate
p k
as hes
P ixel
or ce
ĠCh airman
Ġappro val
Cal endar
P ress
in herited
Ġd x
CR IPT
ĠT ig
ĠMont real
f w
Å Ħ
r uct
ĠM D
Ġbe ar
D ITION
Ġres cue
OPT ION
G RO
L ines
Ġcomple ment
v y
Ġd eleg
ĠN eed
Ġexerc ise
ur ers
Sup press
P aint
Ġrac ial
pre pare
ar ith
ĠO ptions
cul ate
Ġsimult aneously
pi pe
B ER
Ġembedd ed
ĠN ep
he x
Rep resent
Ġprocess ed
I p
item pty
)) $
E LEMENT
Ġisol ated
Ġm ath
ĠRes ources
om itempty
vent ory
s ure
pan ic
depend encies
ĠC leveland
Ġch rom
Ġd ress
Ġs in
Ġcru cial
Set up
sche mas
ĠD allas
Ġend if
ĠP eters
form ing
t age
qu estion
par allel
Ġann iversary
periment al
Ġres igned
Tem p
ff ee
ST ART
Ġv oting
ĠTh ailand
ibern ate
f ilters
ĠW ard
apol is
cp u
ĠBru ce
Up dated
ĠE sp
Ġor b
Ġpre gn
ĠD raw
H ol
ĠI gn
ĠF ight
DE D
ĠN ash
Ġequip ped
int s
50 9
Ġst ead
R ound
G ood
p d
or ange
Build ings
ĠThom pson
def er
ĠW ord
p f
Ġconvent ional
, .
; ]
Trans lation
: &
ĠSt udio
File Path
ĠL ower
ĠL anc
arg v
Oct ober
IT LE
ĠCEL L
ud son
INS ERT
cl osure
ĠBangl adesh
i ang
Ã ½
ĠP ho
des cribe
Ġ" );
ĠO pt
Ġcal endar
**************************************************************** ********
iz z
14 4
Ġs ight
av ers
Ġrele ases
pe g
F etch
Se ptember
t ol
ĠP UBLIC
I l
se cret
ĠDep uty
Ġhypot hesis
s ocial
t ile
ill o
TH ER
ĠC S
C amp
Ġdevelop ers
Ġv ast
ĠB OTTOM
in ian
ĠO d
Tr igger
Ġcor porate
}} )
enc er
Ġunderst ood
C he
int o
ĠMem bers
18 70
! \
De cember
ĠS everal
Stat istics
Has Been
Ġim pr
189 5
order ed
ĠWIT HOUT
app oint
Ġim pl
Ġoff ensive
Ġmark er
Ġdis p
ĠLeg islative
Ġrest ored
Ġentertain ment
pro duction
c op
ma zing
E lect
Ġpr on
ru ction
Un ique
189 6
AR RAY
ĠTR UE
P ipeline
and al
ÃŃ n
ĠW HERE
Ġseek ing
r ig
19 2
` )
it is
end ment
Ġdi agonal
Ġan notation
c urrency
D istance
start s
ĠH um
N ON
process or
Look up
ĠN eg
T ry
rop ic
om ing
Ġtrad ing
ĠF ive
Ex it
ĠComm ander
Ġaut hentication
N ECT
Ġgu id
">& #
Class Name
Ġassum ptions
ct ors
P G
Ital ian
ĠĠ čĊ
ĠBo ys
D istribution
ĠH it
ĠN ic
enc il
Ġpro sec
$ _{
;" |
Ġsc an
hold ers
re ason
-------------------------------- ----------------
Rober t
add ed
Ġathlet es
St ation
Ġaccompan ied
Ġv eget
Ġdyn asty
11 4
ĠAd ams
ch unk
} "/>
' },
N I
p ipeline
Ġut ility
Ġrepe at
SPAC ING
Ġcon sequ
Ġ ../
ĠP ad
Ġ" +
ĠFin land
__ ["
A SS
os er
Ġsepar ation
Japan ese
189 7
L ang
ch arge
ĠG irls
at ile
- ">
Compar ison
Ġseem ed
Ġsub mitted
am ond
ĠRuss ell
Ġamount s
et he
Ġm atters
â Ķ
Ġb om
ĠLank a
am ents
tool bar
ĠÐ º
Ġs a
Ġt ied
Ä Ļ
ĠB ed
pro c
ke leton
æ Ĺ
shall er
Ġtri als
ĠA lice
ĠTh ough
Ġdecom position
C ross
Ġbr ings
ĠCh art
EN ABLE
Ġrep ly
Ġmiss ed
ĠÐ ´
Ġg iant
is ons
Ġnot ification
ĠH erm
Ï ħ
sl ash
Ġgr avit
m x
Com ponents
oid s
Ġmy th
ĠOther wise
Pop up
ĠG un
aud i
first row
Rep ly
Don ald
Ġf erm
RE SS
Ġoutput s
Ġ// -->
Sc ott
IE W
ĠBet ween
Ġmag net
Ġart ifact
member NameLink
Ġappe al
N ONE
ĠF ried
ĠIllegal ArgumentException
Ġs essions
Ġim press
ĠC ensus
g ow
k an
Ġschol ars
Enumer able
mut ex
ĠM ort
des criptor
Ġsort ed
Ġk it
ĠW ol
ĠI mp
cast le
R adius
ge on
Ġpan els
F ix
10 9
Ex pect
S al
ĠC os
Ġr aid
b ucket
Ġim possible
Ġm eters
ĠF el
ĠBe at
w alk
Ġn ice
Ġcount s
Ġf urn
task s
ĠDom in
ĠD ist
c aret
âĢ ¢
Track er
Ġcur v
O FF
ĠF ound
ĠMP s
m ime
ĠD ance
Ġp ip
RO OT
ĠB reak
Ġm oth
Ġfl ash
s heet
Ġ. =
ob i
Ġb os
M iddle
Ġs yntax
Block s
pr ice
ĠHash Map
Ġvar iance
ĠTe ch
rb an
ĠD oc
t iny
ĠK ings
bl ast
Ġme ets
Ġpra ised
Ġf acing
AS H
` :
Ġhand led
Ġsat ellite
ĠRob inson
ĠV ik
d elegate
ograph ics
Ġ" _
Ġdepend ency
ĠB eck
ter ior
ist ogram
ĠDe ep
Java Script
Ġf ault
pan ies
ĠCom ics
, ...
() ]
Ġsub scription
Ġdef orm
Ġtrack ing
mod ifier
Ġform ing
Ġste am
Ġarch ae
Ġsevent h
N umer
ĠM C
ic ious
For ward
ĠNiger ia
99 99
J s
Ġman ual
ĠInd eed
ĠO wn
xy gen
D ao
Ġ/ ><
Un iform
Ġreli ef
LP ADDING
ph ab
Ġg rown
O cc
at ivity
set ting
Ġo vers
u ary
faster xml
}} _{\
P RI
or ough
C ertificate
Ġre tained
Ġ\ (\
ou ver
b t
bo y
! (
Ġb lo
avel ength
Ġg arden
Ġs lice
b ors
seg ment
D one
Ġorgan isation
M ail
U UID
ĠCEL LPADDING
Ġsurg ery
initial ize
ĠRog er
Ġprec isely
ĠN elson
ĠK IND
fort unately
Ġen vironments
Ġt uple
SUC CESS
ĠCELL SPACING
az el
Top ic
Ġadvert ising
t frac
Ġmar ine
m ov
Back up
Ġm ilit
per ature
Ġx si
Ġout come
Ġround s
ine a
h att
ĠS ac
Mod ified
ev a
HasBeen Set
V C
Ġad ults
Ġne uro
F ire
ĠChrist opher
Su ite
list ed
inst ein
L ater
ĠPe ace
00 2
stream ing
Ġdiam eter
Ġther apy
ĠS af
="# "
Ġcour ts
Ġcontr ad
Ġsur faces
Pe er
Ð¾ ÑĢ
ĠZ one
Ġre ducing
ĠG ray
ĠJ ason
Ch unk
P ending
i ota
ĠCommun ist
Ġg ang
Ġf ib
ĠS ession
ĠH ost
ow s
ĠPit tsburgh
In jection
Ġsp oke
Ġread ers
Sc an
Ġv ulner
SS AGE
B ur
ĠÐ ¸
ĠLim ited
Ġhor ror
ro b
le ans
Ġdis patch
br as
ĠAust rian
V I
Ġl ibraries
$ :
Ġt s
ĠP un
Ġf oo
AR GET
Ġcompet itive
m ates
ili ary
Oper ations
poly mer
Ġquant ities
irm ingham
font s
Ġnot ion
dis k
cond itions
Ġv ec
Ġcontin uing
ĠRes ults
ĠP i
Ġacc ord
Ġtal ent
ge ometry
é Ģ
Ġcol le
Ġillustr ated
Ġcos m
Constr aints
Pay ment
Ġro se
RE NT
st ub
ĠB AS
em en
ĠĠĠĠĠĠĠĠĠĠĠĠĠĠĠĠĠĠĠĠĠĠĠĠĠĠĠĠĠĠĠĠ ĠĠĠĠĠĠĠĠ
ext ype
Ġdefault s
ab i
Ġab use
isl ature
ec onds
Ġre n
ĠM achine
ĠC lear
Ġsub group
Ġresident ial
the ad
incor porated
prec ision
I ME
Ġres ign
10 8
K ernel
Ġt on
ĠHung ary
n ail
A lex
br anch
c ourse
ĠH il
to ctree
pro f
c v
og a
Ġmin i
Ġcoll ision
d ataset
ĠN i
Ġf est
s ent
ob a
ir ates
im m
Ġembedd ing
ĠG las
Ġdam aged
ĠN BA
Ġval ley
R ussian
h um
ins ic
ĠK on
ut r
] ).
id i
Ĩ Ĵ
Ä ħ
B u
. ")
Ġsignific ance
New s
Ġfriend ly
å ľ
ĠR ender
ĠSt op
Ġc p
look up
ĠIm port
M ix
ha us
L D
È Ļ
H ello
+ (
ir ical
Ġexper ts
ish ops
back s
Ġne arest
Ġfru it
allow ed
D er
ĠG it
ç »
Ã ¦
ĠCre ated
ĠLic ensed
ĠE ss
sub string
ĠMor ris
Ġmov ements
m acro
Ġen umer
Mod al
p n
ul u
ĠMet ro
10 6
C SS
Ġman ifold
cl ock
IN DEX
Set s
Ġautom atic
ers et
S ent
Ġsph ere
c ost
ĠL ane
sm art
fact or
ĠT s
Ġ* ,
e ctions
ME M
]] ></
ump y
Ġrank ing
se ed
Read y
Comple tion
c ookie
Comm it
ĠY e
v art
fin ite
ath on
: %
Ġin duct
A MP
eg e
Ġenc ode
Vis ual
ĠMar ie
ĠMo z
Ġremain der
Ġprint ed
Ġhy brid
Ġarr anged
è ¡
ĠM ars
at able
Ġparticip ation
D im
ĠSum mary
ĠTam il
ĠM ess
Ġref resh
ens ities
cs v
Ġsub mit
ins ula
Met ric
Ġb ishop
T imes
con duct
ĠEx pression
tr ivial
Valid ate
ĠT YPE
Ġden ied
Vill ages
C art
ĠD ie
ĠL eft
ph an
Ġpy thon
Access or
as ma
\ ;
Nov ember
f ac
Ġes c
em ale
ĠMarg aret
ĠPr imary
Mich ael
Ġvary ing
path s
zer bai
w ind
Ġd ating
m aking
Ġland ing
Ġhead ed
Ġthem es
ĠS eg
Ġst ub
ra ig
ĠUp per
Pub lish
Ġjud ges
Ġtim er
ĠUs ed
G M
erv es
Rel ated
ãģ ®
om al
Ġj uris
Can vas
ĠMc G
2 20
Ali as
struct ed
Ġstruct ural
min ute
Ġres id
U V
MA GE
Us ed
ens ing
z es
ĠR y
roll ing
est ure
ĠBalt imore
Y es
ch t
ĠRoman ia
Ġident ification
ĠGr ad
ĠM eg
ant ed
Ġrece ives
value Of
Ġw ww
Ġmag ic
erial ize
ĠC red
Ġs ensor
En tries
j amin
N eed
f are
ĠT oken
Ġreason able
ĠH ell
S n
ar us
block s
ĠR ugby
um ar
r ish
en vironment
Ġsurv ived
Ġ ,\
ĠStud y
Ġrestr iction
Ġassum ing
! =
sc ene
ĠWel sh
FORM AT
Mark er
Ġwith draw
ĠN ation
Ġtr uly
ĠKenn edy
ĠCh amber
Ġdec line
Fore ign
ur se
ĠB ull
Ġpopular ity
ant i
ĠHung arian
Ġtransport ation
Ġc line
Ġreve als
Ã¨ re
Ġsub scri
ĠBrook lyn
Ġc ited
C la
c ref
Ġro uter
:: $
ĠCamp bell
ĠW right
R ailway
ĠStruct ure
Ġdecl aration
^^ ^^
dr ag
189 4
Ġassess ment
+ "
form al
ĠAl fred
lo be
ĠRail road
if le
ĠDis play
Ġmonitor ing
ĠDemocr ats
ov o
ĠBr anch
mult ip
bm atrix
Ġpro files
Ġaff ord
Se ason
ĠJ u
IN IT
big l
Ġdiv isions
Ġprinc iples
ĠS ET
189 3
ĠAppend ix
ĠS cal
: =
ĠSh ar
n ed
24 0
ograph er
ĠFe ature
' +
ĠS elf
Ã¶ r
p ending
ĠNew ton
Ġcor on
ĠParam eters
ĠPr adesh
Î ¼
M art
ĠStew art
Ġd ot
Ġcancel led
ast ore
Ġsim ilarly
part ition
Ġs av
e i
ex clude
ĠF ilter
ĠCons ider
if ting
ĠS S
CO UNT
c x
Ġconserv ative
ĠT i
1 18
ĠR io
____ ____
ĠBern ard
ĠKar l
claim ed
dir name
Ġc yl
Ġmark s
Ġconsum ption
sh arp
ĠGra ham
FA IL
}) }
) *
AB ILITY
Ġpublic ly
="# ">
ane an
Sche me
A fr
ĠVi enna
Ġconfig urations
ĠIN TO
ĠT an
pi res
th a
ourn als
189 2
Ġinj uries
T wig
Ġalign ment
RA M
h ai
Ġrail road
ĠN an
ol t
Ġemploy ment
Ġchild hood
ic ht
ro se
Ġ/ ></
th ird
P adding
tr ansp
Ġwh atever
Ġher itage
Sh adow
Ġt ur
Stack Trace
ĠJoh ann
M ass
Ġpick ed
tra its
ĠMet ropolitan
ĠCh ampion
ĠCent ury
ĠL abel
Ġstr uck
Ġat omic
f our
Ġnot ably
Med al
L and
ĠC rown
ĠL iverpool
over lay
Lin q
c art
Ġb acter
Ġs urre
append Child
Ġfem in
Ġex clusive
ith metic
Ġcolon ial
Ġmechan isms
$ {\
ellect ual
ĠT ax
Ġmach ines
W ORK
Bl ue
S PE
duc ational
ĠMult i
Ġdom ains
S UB
b oth
back end
m ust
Dest roy
it ro
ĠOr leans
ĠA qu
188 9
Ġbl ank
Ġconstitu ency
Trans fer
ĠS witch
ĠJava Script
Ġrender ed
w ave
S ound
es cape
ĠOb ama
sample s
p al
Th ree
Ġrecover ed
Ġstrong er
Ġwith d
ĠString Builder
C MD
u pt
Ġto ler
ok a
ĠN ord
p us
Up per
ring tone
Q t
? (
inn ed
Ġc rown
S ol
ac ion
sol id
Ġoper ational
st ers
STR UCT
Ġexpl ains
ĠBro thers
100 00
F ill
ĠM atrix
ast ery
Ġs oul
In ject
ph ere
int ent
Lower Case
Ġgreat ly
Ġpres erved
spect or
ĠG T
pack et
^* $
Ġcritic ism
Ġcircum stances
Ġd ele
ĠCon sole
Ġst y
Ġst roke
ben ch
Ġb ars
ĠPer formance
b n
ĠMount ains
_ [
ĠC E
Pay load
Sl ot
Ġvot ers
ĠH end
ex tract
, {\
ĠC er
Ġg ift
Ref resh
Ġpro pose
stat ement
Ġdanger ous
Ġl l
Ġw ine
ĠHamp shire
ent ries
FLA G
Ġjournal ists
ĠI C
ĠG on
ĠW oman
Ġgen re
ĠCon nection
Com plex
it udes
ĉĉĉĉĉĉĉĉ ĉĉĉĉ
ĠElect ric
ĠJ osh
ĠDel hi
ĠC atalog
ĠT ake
iv an
Ġr ide
... )
ĠR ain
ĠG ulf
ĠRef orm
Ġap ps
e or
Ġn ations
Ġcorre ction
ymmet ry
iv ia
hash Code
' =>
non atomic
Ġh ospit
Ġh ill
D ist
Ġdep uty
Ġpo em
String Builder
urrican e
b ach
Ġcommunic ations
Ġc up
lot te
ĠSh ip
text ure
duc ible
Ġph ases
och astic
ĠMon te
Ġatmosph ere
Ġdisc ipl
d ag
Ġrecip ient
Scal ar
,\ ,\
constr aint
J ack
Ġt y
NG TH
FFFF FF
or row
or o
ĠPr iv
Ġt all
Ġsit uations
Pol itical
Ġfall ing
ab b
op acity
ĠOtt oman
Ġ} {
Cons ider
Ġhe lic
ĠĠĠĠĠ Ċ
sp i
parent Node
ĠK u
Ġfam iliar
um ed
fig ures
Ġwatch ing
ĠB ey
com ments
Ġa ug
AR CH
Pr imitive
Ġmechan ical
ĠInitial ize
anc ouver
ĠT ak
Ġs wit
ber ry
Ġloc ality
ĠU TC
Ġkw args
ĠM aine
Ġmax imal
18 60
Al gorithm
Rel ative
en z
SER VER
Ġ\ ]
R outer
H om
Ġapprox imate
dem o
ĠDak ota
Ġcrick eters
H ook
ĠSen ator
qu er
ĠRes pond
ol ate
LE S
Ġinvestig ated
ĠI L
ĠR ub
ĠS ide
==== =
ĠR ot
un ks
Ġven ues
Ġput ting
ĠW ang
Ġre nov
Ġexception s
r v
Ġconcept s
ĠEx change
Ġpublish er
OR S
F i
Ġt icket
Ġregard less
Ġaggreg ate
ers h
Conf irm
ol ute
ĠH ero
Sh arp
ut o
Ġat om
ann on
or ne
LA B
Ġconsider able
ĠPro perties
it err
Data Source
z oom
Ġre aches
br ane
idel ines
Ġd iversity
ĠM aj
Ġlook up
Ġre duces
at ype
] $.
c ov
Dest ination
mar ine
t own
Ġdeb t
x sd
p aces
Ġs alt
Ġd uties
á º
rom ag
p ent
Ġp sy
ĠGr id
ĠLin ux
B T
un ion
sh iv
Ġanal ys
Ġ"- //
Ġvis iting
met ric
T om
Ġbas eline
build ing
ĠJos Ã©
f iction
sp ir
} >
le tt
ĠJ enn
C ost
Ġb ath
s am
188 5
Ad v
Ġh ip
bal ena
ĠChall enge
an ian
Ð ¹
Ġcouple d
WR ITE
Ġpass ion
ĠCar ter
gener ic
Ġmeet ings
ĠC arn
ĠM ol
ĠA rena
Ġdet ector
Ġask ing
Ġhe x
Ġcompos ers
Ġapparent ly
Ġben ch
> ()</
\ }$.
St d
Ġappoint ment
mark er
ug osl
Ġs napshot
Ġre act
ĠMin or
b re
Ġw aste
over flow
hel lo
Ġexc ited
Ġb at
t m
dd ie
ĠCl in
0000 000
F oot
ĠH D
ob s
attr s
ĠV enezuel
im o
u art
Ġd s
Ġover view
Ass ign
Ġslow ly
ĠP DF
}) ^
Ġener gies
W H
ĠC atal
m any
ĠN ature
ĠS ep
ex pl
ĠEx p
V A
Ġdef ining
Ġdise ases
Ġpass phrase
ĠA udio
Sec onds
pos er
Ġcompre hensive
ne ed
Ġchalleng ing
Ġinf lation
[ <
Ġm igration
ĠM ak
c z
}} .
Ġnon linear
ĠW rest
Ġre putation
189 1
Ġoccup ation
ish ment
Ġr is
Sh are
Ge orge
Ġre start
m und
Ġpre mi
Ġsusp ended
to Equal
Ġprot otype
Ġpro spect
L ite
ĠCon vention
C lean
Ġ\ &
Ġbreak s
ĠMov ement
'] ))
s ender
Ġthe ater
vel ope
O h
Ġwhen ever
Ġt unnel
or ous
Ġr m
C ould
att ing
Ġb ird
Re place
Ġwalk ing
Ġpremier ed
Ġremov al
g h
grad uate
EX PORT
Ġst retch
Ġcred entials
ĠLeb an
gr pc
Ġpres erve
ä¸ Ń
Ġnorth west
Ġshe et
Ġbeh alf
control s
AR B
] =
arian ce
ĠPr incess
big r
S rc
or acle
ĠAt tribute
Ġbelong ing
Ġc od
Ġprec ise
Ġas c
ĠY ang
Ġp overty
ĠL GBT
ne e
Ġp index
ĠArt icle
Ġgovern ments
writ ing
Per cent
ad apter
ur u
}[ \
n m
Ġup grade
ĠAfghan istan
Ġreal ized
c ord
ĠU pon
Ġlum inos
ĠL L
d al
Ġsl ide
Ġsuccess or
Check ed
Âł Âł
Ġdat etime
Ġart ificial
w inning
ĠP od
Ġscen arios
With out
Ġr ising
Path s
O G
end ers
G l
Ġb aby
ick en
Ġactiv ist
Ġcon front
L ow
Ġexhib it
le e
ul ative
ĠD CHECK
Vis ibility
t ies
ĠS ymbol
sc an
Load ed
Ġ( {\
ĠN am
ley ball
ut ation
ĠV egas
r and
Ġs ail
ab e
& $
Ġt ang
Ġo cean
Ġvis ibility
or b
ic ulture
ĠFrank lin
o j
Ġal ive
ĠS ize
ĠC ass
Ġen ables
Ġtop ological
g em
Al ignment
ĠCom puter
ĠGu y
p referred
n pm
cript ors
188 8
im ir
act ical
ge bras
el ines
Ġconvers ation
Ġrecon struction
is i
Ġcheck ing
mark s
à¤ ¾
Ġn an
U ntil
Ġcap abilities
FT WARE
Ġf itted
Ġindependent ly
Ex tract
Ġsympt oms
12 4
C ookie
Ġon click
Ġconcern ing
wh at
Ġr ivers
Ġfrequ encies
ĠH old
et ric
sub scribe
ĠJud ge
Ġthread s
ĠMunic ipality
ĠR ic
Ġann ounc
@ {
ĠBr and
ĠCon n
ĉĉ Ġ
Warn ings
ĠJ e
aval ry
ĠInd ustry
ĠW ind
---- -
Ð¸ ÑĤ
sp l
qu est
Ġop ens
ĠR ud
Comp are
Ġarch ive
Ġremov ing
ĠB enn
Back end
Ġf ishing
inc ipal
ĠU E
set Attribute
ĠF low
Ġattr s
Ġmys elf
/** */
ĠJon athan
Ġa ims
Ġto String
Ġcirc ular
l ings
Ġ( #
ĠH eb
Ġs ink
ĠI ce
Ġproced ures
S in
ĠT ob
Ġp ictures
] ),
() [
le af
Ġbe ach
h is
Ġsound track
Ġf o
ĠAl aska
Ġfunction ality
ĠC ache
t uple
apt ist
ĠB illy
in verse
d frac
Ġbr ick
Ġrom antic
ear ing
op les
bad ge
Ġord inary
Ġcom plicated
Ġout line
short cut
ĠL iving
G allery
ch arg
f uture
Ġcelebr ated
script size
Own Property
Ġextract ed
re ck
AT URE
rol led
Ġconfig ured
Ġactiv ation
ĠCommunic ations
Ġattrib uted
work er
ãĥ ¼
Ġn ested
pt o
it ations
d eveloper
ard ed
ĠMur ray
ĠCom par
M a
Ġde ployment
Ð ±
ĠAss istant
m usic
v ee
Ġ} ),
ick ing
; -
end region
Ġpaint ed
Ġprov iders
ec ess
ult an
process ing
Ġstrict ly
ĠCont act
Ġstreng then
ĠG ary
elastic search
ĠW ing
Ġnot ify
p ine
ĠLear ning
e enth
Ġbr ands
Ġsup ers
her ent
ĠPort land
c amera
c as
Ġalloc ated
SH A
: -
ik o
cor rect
Ġre lying
SD K
ĠR ural
Ġr hs
ĠO K
Vari ant
Ġdes ire
S afe
ro tt
av irus
st roke
w right
y t
el o
ij ing
) &
we ak
Ġweap on
ĠStan ley
Ġgener a
Ġr hy
Array s
Enc oder
sl f
ĠP AR
Ġn aturally
;\ ;\
it ure
Gr ad
Ġmodel ing
ag h
trans fer
ĠH ope
ĠSt ars
od b
Ġphot on
ĠConserv ative
B etween
ĠC C
Ġprison ers
av i
ĠB irmingham
ro oms
Ġsh arp
ĠS ave
G T
Ġun expected
18 65
ĠUn less
Ġimprov ements
Ġf ul
c ached
ĠM aterial
Pro c
sh aped
Ġcom ed
E r
ug s
T or
C LI
Ġre loc
ĠMad rid
ĠA B
ic ates
" </
ĠC ell
ĠMov ie
comp iled
ĠTro phy
Ġg allery
ĠJim my
Ġ Ø§
ut ely
Ġatt orney
et on
itar ian
book s
og ue
AC CE
Ġc url
over y
ĠE RR
ĠB aker
188 7
d ensity
it ime
Ġput s
Ġp in
Ġover se
ĠMit chell
3 000
ĠĠĠĠĠĠĠĠĠĠĠĠĠĠĠĠĠĠĠĠĠĠĠĠĠĠĠĠĠĠĠĠ ĠĠĠĠĠĠĠĠĠ
Ġgeneral ized
Ġ/ .
Ġal cohol
Ġm esh
Ġcomp ile
hatt an
il ty
Ġen semble
ĠBroad way
)) \
Ġco in
Ġtransform ed
ra ham
d ale
Ġconfig ure
S lice
Ġpro x
oth y
ody nam
Ġc rypt
ĠCr icket
× ª
ĠA uth
C V
our t
Ġdiscuss ions
ĠF ast
ĠG ot
Ġhabit at
---- ---
H am
For ce
Ġmanag ing
Ġc ous
iterr anean
ĠS V
Ġenjoy ed
ĠInst all
oc o
' ):
pt s
ĠPr ice
ĠIn stance
Over lay
Ġimpr ison
ĠPol itical
Ġcompet ing
B ecause
Ġthous and
P icker
FUN CTION
ta ke
Oper and
ro v
ĠCar ib
kee per
p read
">< ![
ol ia
ĠB ud
* >(
Ġz ip
p riority
Conn ector
ĠColon el
Ġm k
Sub ject
Ġkey board
per mission
Ġprepar ation
mem Item
andid ate
ab ling
script scriptstyle
M AN
ĠMatthe w
Ġlong est
prov ed
ib ling
Ġf oc
t ility
for ge
Ġfocus es
ĠT ower
/ #
++ ++
] {\
Co ins
TEXT URE
Ġas semb
com par
ik es
Ġrep orter
comm unic
ĠAnd y
uk a
Ġfor g
ac iÃ³n
PL ICATION
Ġcoast al
Ġd imensional
F H
Ġstream s
on ian
ou p
ĠP red
ĠTh ose
3 20
ĠDr ive
Ġstay ed
Are Equal
T ensor
ĠPar ish
Ġfrequ ent
Ġd owntown
In s
] $,
ĠR oom
Ġqu iet
un i
Ġ{ })
S en
Ġbeaut y
Function s
le te
AUT H
ĠSt orm
Ġrepresent atives
ke ley
Ġwill ing
if ference
St yles
Ġw orse
Ġc c
C tx
Ġsuper ior
Ġqu ark
ĠTrans itional
Ġsche mes
to LowerCase
Ġcritic ized
us c
usal em
Ġ' $
urch ase
ĠChar lie
Ġflo ating
S il
å Ľ
Ġlif etime
ĠHun ter
Ġdoub t
O s
ĠĠĠĠĠĠĠĠ čĊ
R IGHT
ir s
mo ke
Status Code
pre view
Ġinteg ers
ĠAthlet ic
Ġw ounded
Ġr id
Ġsens itivity
Ġ ur
Ġel der
un iform
d ump
ĠM icro
ifi able
Ġinvolv ement
ĠAr n
Ġsurround ed
ĠM E
S mall
ĠM ind
ĠP il
Ġaim ed
over ride
P ref
] -->
ĠB oot
al ia
ĠThe ater
stit u
le arning
Ġstream ing
post s
Ġreg ulations
Ġb ott
C am
ffff ff
ĠMic hel
av atar
ak u
Vis itor
ĠR and
Ġdifficult y
Any Ref
ĠV AR
er k
ĠC ancer
Sur face
Å Ľ
ĠCh ron
Ġbr ig
ĠS r
Ġprov incial
ĠB egin
Europe an
Ġreg iment
Ġguarant ee
ĠFin ancial
ĠNaz i
Ġ" ./
Ġgen etic
ĠP erm
B road
F B
ĠR ico
Ġstrateg ic
N OS
im its
ĠB es
S UP
Ġsuff ix
Ġinter pol
å ¯
Ġelim inated
188 6
A ud
b ank
J o
Ġorder ing
ĠT itle
Ġart istic
Ġperform s
B LOCK
ul atory
ĠE ffect
Ġperm itted
ref lect
,\ \
R M
l ater
b ishop
An chor
G UI
Ġp uls
Ġb are
Ġstrugg le
K S
ĠT ournament
ok u
Ġmer ger
Ġunus ual
Ġm s
M ov
ĠR andom
U int
ĠA f
ĠEv ans
mir al
ush ing
f loor
ĠB row
we ather
Ġflow ers
Ġw et
Sub scription
vis it
Ġt ile
t an
ĠB ible
ĠN ad
Ġdeploy ed
ĠMem ory
wall paper
Ġperson ality
R eq
ĠL ess
Ġtext s
Ġg ay
Ġinterpre ted
med skip
on ed
om es
L com
//////////////////////////////// ////////////////////////////////
ME SSAGE
ĠP or
u ke
F ebruary
Ġdistingu ished
ĠR ule
ĠAd vis
ĉĉĉĉĉĉ Ċ
18 50
G old
onom ous
ĠB ased
ubern etes
ĠCl ar
Ġelement ary
Ġinitial ized
Ġacqu isition
ct rl
Ġvac uum
. ');
OB JECT
ĠCon struct
Ġac oustic
Des pite
se p
Br anch
ĠElement ary
Ġdeb uted
g ather
ĠW as
ĠFI FA
Ġlog ical
G uid
ĠT ool
Ġb ases
Ġdef ect
Ġst ake
ĠI an
Ġwe aring
att en
qu is
Ġmount ains
Ġgu y
ĠB rowser
the mes
ham mad
Ġloc ale
Ġmem orial
N ested
is ot
re verse
reg istry
ĠR aw
ĠBl ues
ebr aska
Ġval uable
Ġw ides
re z
Ġvess els
lik ely
size of
ĠCh rome
ĠTig ers
ma jor
ch rome
qu ality
vers ions
ĠCl inton
Ġas ks
ĠAl low
p ixel
Ġtop ology
ĠDef ence
an ne
ta x
help ers
tr ait
Ġan cest
Ġcred ited
ĠComm ons
Ġsupp lies
(" -
ĠPol y
ĠN ar
Ġcond itional
Ġob server
render er
ĠN othing
, </
Ġill ness
Ġfor th
ĠO blast
Ġsil ent
umb ent
Ġj unction
af ka
Ġh at
^{ *
Ġtr unc
s ame
ught ers
d ating
ĠF eb
ur ring
ĠF actory
ĠS SL
Ġforest s
h p
Å Ļ
ĠU g
Ġdisplay s
Ä Ł
Ġun success
Ġdist ances
Ġch amber
ue z
Ġl oved
uc ene
App ly
Ġdecl ined
Ġp s
ig s
Ġep och
\% $
Ġreve al
ĠSpe ed
ĠS cript
Ġlist eners
Ġ( @
ĠA y
Ġinf ection
if rame
reg ex
ort ed
ĠW ait
Ġ! !
ĠSte el
d iction
ĠM ans
ĠB asketball
=" //
Ġaff airs
ĠOrth odox
T own
p iece
ĠS ax
ĠMag ic
}) =
remove Class
" }
Ġoccasion ally
Ap pearance
Ġperiod ic
Ġcorre ctions
I ll
ĠC ultural
elf are
MA SK
ĠF ont
ot ions
] >
am ar
List s
ĠNorm an
ĠGlas gow
ĠId ent
$ };
Ġportr ait
as ant
ĠH ad
Ġsystem atic
ĠCon st
tab End
Ġdest ruction
Ġlog o
Ġfe els
ĠQ String
T ur
ĠK ur
__ .
he ta
Par cel
Ġ$ ,
Ġcr imes
Ġpro hib
ĠSt orage
Ġsu icide
clus ively
Ġcut s
( []
ĠL ithuan
] <
ĠClass ic
Ġpaint ers
Ġat oms
Ġspirit ual
Ġg rows
Ġ' ')
) >
B lob
ass et
ĠJohn ny
J ew
Ġhealth y
ĠJ azz
writ ers
C op
ĠSim ilarly
Cred entials
Ġcollect ive
Ġb igger
ec ycle
ĠF err
Ġnarr ative
Ġcontrovers ial
ĠK ath
13 5
us age
with out
S cheduler
Ġin fl
Ġvari ants
Ġfew er
I ES
Ġent reprene
b ie
Ġg rey
ĠTh row
ĠHawai i
ĠWar ren
Ġstar red
Ġreli able
og onal
Ġback up
Ġsepar ately
ap ps
ĠAl tern
Ġh oles
Ġal location
ĠStud ent
ĠL ud
long rightarrow
ĠB ound
ĠTra il
ĠSt ill
Ġ um
qu o
S ocial
nc ient
Ġsouth west
im edia
for ced
Ġqu ot
INST ANCE
part icle
Ġto w
ĠM ack
button s
re view
Sw ift
Ġshe l
Ġnewsp apers
Ġdistingu ish
ĠC arm
ĠE C
ĠInd ians
en berg
c ategories
u its
sc ar
Ġcurv ature
ov iÄĩ
ĠP ictures
ĠC lose
ĠPl atform
Ġrep air
Reg istration
PA SS
aly zer
bour g
em a
ed a
Ġsl ave
ĠB iden
ĠTr igger
Ġs itting
ir k
F RAME
Ġarr ive
m icrosoft
ind ices
Ġp ushed
ĠA zerbai
ul ates
ens ively
Ġarray s
ĠF i
G ateway
Ġenc ryption
P K
det erm
User name
R ay
Ex cel
Ġout standing
ĠÐ ¾
car ousel
em or
st ock
x e
Ã§ Ã£o
inter pret
Fr ont
Ref lection
Ġfinal s
go al
Ġcook ies
Ġvict im
ĠA ld
Ġ(! (
DO CK
P TED
Ġun like
Ġtalk s
18 61
× Ķ
og s
ĠR ace
Ġiniti ative
ĠU SE
Ġd ialect
Mult iple
ĠNev ada
Ġencour aged
å ¼
ĠF ine
Mer ge
Lem ma
ang les
Ġemploy ee
ipp et
Ġdis contin
Ġge ometric
Ġis ot
l r
LE NGTH
empty set
TO DO
Ġd y
St mt
play back
ĠB ody
Ġin hib
tern oon
ĠPark er
Ġout comes
12 1
F ar
Ġre b
Exp and
Ġp ole
ĠP sych
Ġqual ifying
or ia
12 2
Ch oice
t b
t bl
p lier
om at
Ġse ar
Ġdef ence
DITION S
h op
Ġasympt otic
Ġnom ination
Ġc able
Ġelse where
text area
ĠAtt orney
18 64
Ġcount ies
erg i
Ġcol leges
pl aced
Ġre ly
Ġour s
FLA GS
Ġclose st
m al
m atic
Ġt elling
ĠOr ange
'' '
alax y
Table s
i u
ÑĢ Ð°Ð
ĠR PC
. $$
Ġfluct uations
Ġt ie
sub scription
place holder
Ġnav al
ĠF alls
Ġsynchron ized
Ġmed ieval
Gener ate
h arm
Ġcl ar
dec oration
ra ke
GL enum
Ġelect oral
Ġhe ter
om on
H ex
Ġproport ional
phab et
CH AN
A mer
ĠBar ry
Ġsp oken
Ġg lyph
Ġr uling
ii i
Ġpul led
Ġinform ed
Ġst em
ĠCarl os
11 3
m un
ĠM ong
ĠRequ ired
second s
ĠD ays
re ply
Ġexist ed
> ');
Request s
S heet
Requ ire
ĠOper ations
Ġemer ged
00 5
Ġout break
// ----------------------------------------------------------------
Ġdynam ical
Ġw ider
Ġdeal ing
Ar r
} |\
x f
Ġhash Code
Ġc s
Ġb io
H ard
ĠM other
ĠM yst
Al ign
ĠSp irit
r ides
job s
Ġconsider ation
Ġgrad ually
188 4
ina e
TO OL
Ġ' ../
Ġanaly ze
std err
ĠPier re
Ġcommit ment
ri el
c py
} ~
cat Desc
Ñ Ī
Ġmount ed
al is
Ġben chmark
ĠS ymph
Ind icator
Ġpo ems
Ġatt ach
Ġdoll ars
; =
Ass ignment
u ates
b etween
Ġaltern ate
h n
ĠSal v
Ġmag azines
Ġ// !
v g
ĠSh a
v n
in ite
Ġd ashed
ach i
: /
Ġl aser
sign al
Ġinvest ors
c lic
Ġcomb ine
Ġgravit ational
ĠAthlet ics
ol en
aver se
> )</
column width
Ġt ill
âĶ Ģ
Ġr anks
Pr iv
Ġf antasy
Ġun lock
Ġfiction al
s By
ĠR ank
im plementation
ĠGi ants
ĠBar bara
Ġcompar able
F ROM
Ġsm allest
Ġf asc
Ġspec ification
Browser Detector
ĠW olf
ĠW a
inc inn
ĠV ancouver
Ġne ur
ĠProf essional
Ġdev iation
ĠM ix
ĠR u
ĠDr ag
MA KE
Ġdis order
cred ited
ĠSO FTWARE
x ref
188 1
Ġc ookie
Ġsus pect
vari ables
Ġelect rical
N U
ath ers
Ġwould n
Perm issions
und les
Ġmet all
ort ex
Ã¡ s
| }{
ĠRel ations
Ġ ì
conf irm
ĠG ET
: **
Ġr ub
/ '
List eners
in formation
ust ering
Ġem it
Ġthreat ened
Un ivers
ĠP O
Ġenh anced
Ġda ughters
Ġ Ã©
ĠD J
Ġrep o
4 50
ĠS occer
ant ics
Event Args
188 2
Reg ular
ĠD im
spec ies
ĠInter face
st ad
te ch
Ġkind s
erv ing
Ġd ated
read cr
Ġmarg inal
em ed
Ġc um
ex isting
ac ef
Ġterr itories
Ġtrans itions
Ġl t
ĠFin ance
d m
re ts
Ġr c
S panish
ogn ition
Ġwrap ped
R atio
}} ^{\
ĠBAS IS
ĠCat hedral
cel ona
Represent ation
Ġel igible
Ġconven ient
V ote
Ġw avelength
ĉ ĠĠĠĠ
k u
Ġref uge
ĠWay ne
sp ark
\ ":
Im ages
Ġfarm ers
os c
17 0
Ġeigen values
Def ined
ĠPho enix
Ġst abil
ĠD evice
Ġd ub
ĠA WS
Ġc fg
hol m
Ġc urrency
ĠV a
Ġph arm
ĠJer usalem
Ġvess el
Ġ( `
default s
">( </
Ġwh ilst
au er
ĠN icol
al ph
ĠAlber ta
) --
ĠV erm
Ġinflu ential
------------ -
Ġf er
Ġfund ed
ĠF reedom
ĠS now
S N
y arn
LI B
ĠYork shire
Ġbeliev es
T ITLE
Ã Ł
Ġd ip
Ph ase
Rout ing
Ġind igenous
Ġsuff ering
; ,
ĠT u
ĠPro tection
ĠMil an
sc opic
sl ot
or um
Ġsol ving
CON ST
ĠSerb ia
multi row
Ġscript s
ul se
ĠT otal
ĠAl bum
Al bums
Ġst ochastic
ĠG C
su it
Ġwides pread
ier ra
dest ination
incinn ati
mult iple
Con tain
cam el
ĠS A
æ ī
ĠHig gs
Ġequival ence
ĠFl ore
Ø ³
ĠBelg ian
Ġinter vals
be at
ĠG P
ĠP rior
w m
Ġinv oked
Int egr
phys ical
Ġsupport ers
Ġdevelop er
Ġl in
Th omas
Allow ed
Ġcomp aring
Ġincre ment
Ġ- &
Me asure
g c
ĠCr ime
Ġking dom
r x
Ġun iqu
ĠG reater
Ġemotion al
Ġd jango
om p
ĠF ly
Ġen forcement
Ġsu ite
F oundation
ot ton
Ver b
H ence
bit coin
Rece ive
In clude
ast ro
ĠR elease
ĠZ e
ĠS N
// !
F IL
ĠBuff alo
Ġpe ers
ĠCON DITIONS
ĠKen ya
ites pace
te le
am o
ĠS ymfony
ĠW H
Ġincre d
config ure
Ġf iber
ass oci
Ġrout ine
<? >
Ġprov en
Ġf ro
ĠS even
ĠB utton
Ġserv ers
ĠWith out
Ġar row
Ġpre dec
ĠAh med
33 3
ag greg
ĠMar vel
PREF IX
aj a
Ġmiss ions
Le ague
ĠC PU
}} }\
Ġag es
Ġamong st
Ġpay ments
ĠY es
g iven
Dem ographics
ĠM all
Un able
Ġmod ification
Ġrad ical
C ritical
Ġsurv ive
amp a
Ġg olf
Ġgr am
Ġf oss
Ġinn ings
Ġad apter
Ġst ops
Ġsup pose
H ide
An notations
Ġguitar ist
Ġup coming
ĠP ow
ĠR ing
Ġ[ {
Ġcomm une
che str
ĠAdd ed
cel and
Ġd w
An n
om eter
Ġagric ulture
Ġis omorphism
ĠCh apter
ens ors
iss a
ĠB ag
Ġt ort
ĠS outheast
Ġperm it
Ġspec im
Ġleg s
ĠArg s
ĠM ut
Ġbusiness man
' "
is an
Part ial
"> Â
ĠPh D
MS earch
um ption
Ġdefe ating
13 6
Ġc am
Ġgu ests
ĠH orn
Ġlaw yers
Ġaddress ed
Ġexpect ation
Ġgener ates
or f
-> {
r atio
ĠS ay
ĠB lood
Å ¿
ĠForm at
inet ic
ah l
Key word
ac a
qu et
> ("
Des cribe
ĠMan hattan
gu ard
ĠSh im
Ġ( <
=" <?
em bed
Author ization
am pton
Ġpl astic
F ake
Ġphot ography
Ġf itting
ĠBen jamin
ĠCol lections
ams ung
Ġr anging
ot he
Ġ utils
ordin ates
Ġsold ier
AR K
Ġvacc ine
18 78
Ġreg ression
}_{ -
Ġdelay ed
Ġ. /
ĠT alk
ĠI van
Ġass ass
Ġant icip
> /
ĠFac ulty
ich i
Ġ\ !
Ġc ss
Add itional
ĠD M
Ġtown ship
re ements
Ġspe aker
Ġâ ĨĴ
Ġswim ming
Ġ[ #
B oth
L ab
Ġobtain ing
{ |
th y
Ġrequ iring
date picker
[ ];
Ġven ue
ĠB achelor
Write Line
Ġcouple s
ĠPer u
bor ne
Ġin coming
f m
18 63
W alk
= .
ĠB urg
In line
ĠFle et
pub lished
Ġexpl oration
f lix
custom er
Ġz oom
inv oke
al ter
av ery
18 62
v p
ĠNov a
d atab
Ġfact s
dom inant
re ach
ĠSh adow
ĠPref ecture
Ġconv inc
Ġs weet
ĠG round
Ġwood en
ĠS aints
ĠHarr ison
' }),
ĠChar lotte
res olution
18 00
vis ibility
ĠEgypt ian
Ġderiv atives
Ġarrang ement
ĠU rban
orient ation
Ñ İ
it ely
Ġviol in
Ġrele g
cent ral
Ġdep icted
Rec ords
m issions
ĠPhil osoph
l iteral
ĠS id
Al umni
NotFound Exception
thread s
ac re
Ġch ap
Ġconsum ers
ĠJ oy
Ġprote ins
188 3
el n
ĠS creen
ph antom
Ġf ixture
enn ial
] *
ĠJ ess
s leep
ĠF er
MS G
H en
f olk
V EL
ĠIP v
ĠH E
Ġpro tests
Ġb orders
Tog gle
ĠDo es
ĠStud ents
Ġh aven
AME TER
Ġelectric ity
Res earch
em p
loc als
Ġsk ill
col ors
Ġmax im
Ġinstrument al
() `
=" ./
ĠM I
DE LETE
ĠColl ins
( ",
Ġactiv ists
Ġf inger
ĠVer ify
Ġ( );
Y S
oc c
ĠCarib bean
Ġmon ument
Ġtrans f
te chn
ster dam
T oday
ĠTh er
Ġfin ance
mod ified
ĠCommission er
Ġsh orter
Ġcontrovers y
Ġs le
Govern ment
Ġtempor al
Ġt orn
ĠCirc uit
Ġsurv ival
Ġjud g
ä¸ Ģ
ĠConf eder
Ġpass age
ĠIm Gui
ĠE N
ĠR at
qu arter
Ġqu asi
ĠSm art
Ġdepart ure
Ġrend ering
E lem
C at
Ġp ian
ĠM ET
ĠThe ory
screens aver
ACCE PTED
Th reshold
ĠR acing
ion ic
HO ST
Ġann ually
mys ql
Ġimprov ing
Ġcred its
oxy gen
Ġfil med
orient ed
ĠB ot
ĠÂ »
unit Pattern
Block Index
ĠTurn er
ache l
Person nel
ant ly
GRO UP
uff icient
H idden
r h
2 30
}} =
Dec oder
Ġaware ness
Py thon
ĠGu inea
ĠL E
igh bor
Ġreported ly
Ang le
M ean
ugg estion
Ġl iv
jav ase
Ġl ambda
ro d
lic t
Ġre semb
it r
og ical
Ġpo ets
ĠFinn ish
ĠSt yle
E ven
ar ound
comp act
ĠAlex and
Ġj e
[ [
ond a
ater al
? )
ĠC ad
ener ate
ĠPro test
Ġd f
ĠSt re
(" <
ĠBe ijing
t ot
ĠS ongs
ab sol
ĠL ad
Equal To
Ġfair ly
u eto
add EventListener
i ology
Ġw el
comm ands
m r
Ġd rew
ĠV I
ĠAnd re
P ACK
> ';
Ġadv ers
Ġ' </
i ator
L ou
ĠD id
AP PLICATION
is ch
. ),
Ġform ats
sub sec
ĠHind u
Ġm i
ĠF ather
Ġshop ping
ĠS pect
\ |\
Ġe at
ĠK ap
Ġsur prise
ancell ationToken
ĠSu ccess
ĠArch ive
Ġl oyal
ĠSet tings
ĠD I
ĠDer by
B N
leg end
Ġmunicipal ities
Ġs lope
ĠKe ep
B ob
or ship
ĠD ATA
ĠDr agon
et ri
Ġap artment
C odes
Ġg raphics
ĠInt egr
Ġpeak ed
f ar
pre dict
U i
Ġac company
Ġelect rons
Ġstraight forward
ĠT ed
Link ed
ĠK an
St ates
æĸ ĩ
Ch at
ĠT yp
ĠUnivers al
Ġl ap
ĠGr an
Ġa z
r ub
j k
ym an
ĠPhys ics
et ics
Ġrestaur ants
Ġcub ic
ĠParam eter
ĠP ra
ĠGe V
ĠRich mond
ĠA UT
ĠJ a
ĠP P
Draw able
ĠH ave
ol s
Ġch a
ind ependent
w b
Ġliber al
table s
Ġbi ological
T M
Ġh orses
Ġex clusively
elect ric
n x
ĠPro duction
ĠQ t
Ġattempt ing
ĠEconom ics
K ing
String s
Ġlik elihood
Custom er
S at
ch arts
Ġtri angle
ĠPr im
18 76
ĠEx per
il ine
aint ies
($ _
pos al
>: ]<
Att empt
) '
ard ing
.. ."
ĠSer ge
cc c
Particip ant
Ġinnov ation
Ġor ange
Ġvis its
Ġ" ")
ĠP ast
Ġpolar ization
C atalog
un stable
ac les
Ġfor get
ĠInt elligence
Art icle
Ġo c
rit ic
ival ent
Ð¾Ð ´
ĠEnvironment al
R ad
en ario
pe ated
Ġfra ud
h yper
Ġdiff usion
ĠA x
Ġhydro gen
W ell
pre vent
Ġred shift
ĠR O
Ġorgan isations
ĠMat hemat
Az ure
ĠN ebraska
ĠWrest ling
Ġluminos ity
Ġre try
ai ro
Ret ry
im iter
g ray
Ġver ification
\ }$,
Ġg host
Post ed
Ġattract ed
×Ļ ×
ĠĠĠĠĠĠĠĠĠĠĠĠĠĠĠĠĠĠĠĠĠĠĠĠĠĠĠĠĠĠĠĠ ĠĠĠĠĠĠĠĠĠĠĠĠĠĠĠĠĠĠĠĠĠĠĠ
sp aces
input s
ĠR ick
ĠMer c
min a
get Text
T ick
ĠF itz
C alled
get Property
Ġrel ay
Ġm apped
ĠIn it
ĠMuslim s
L ear
ĠJ ama
** *
ĠPh oto
ĠC HE
EE E
Ġg ard
Ġs oph
oped ia
us k
ĠAz ure
Ġev il
ix on
ĠMu hammad
å Į
Ġt ub
NE W
Ġsustain able
en kins
pay ment
to kens
ĠP in
å °
he alth
PAR AM
romag netic
ĠY ugosl
Ġsp arse
Com pute
Ġpseud o
os hi
Ġreg istry
ĠF light
ĠIn s
Ġhead ing
distrib ution
om o
Ġref lection
] ];
y aml
ct l
ĠF loat
vart heta
d w
iv ic
m ill
Ġw edding
ĠĠĠĠĠĠĠĠĠĠĠĠĠĠĠĠĠĠĠĠĠĠĠĠĠĠĠĠĠĠĠĠ ĠĠĠĠĠĠĠĠĠĠ
Ġrespond ed
oper ating
rang ian
l ag
Ġm or
Ġbeg un
ĠLe ader
Ġpro c
Ġinv olve
ob e
Ġin comp
à ¦
serial ize
uc lear
Ġrandom ly
row se
Ġcomp ound
Ġr um
ĠIn n
Ġexped ition
â ĪĴ
Ġhol iday
Ġmed als
TR A
Ġhon our
D imension
ey er
ĠHel p
cri ptions
Ġcon fer
h ibernate
ĠP S
ĠS K
at um
al ym
Ġph rase
Ġo ct
off icial
nav Bar
ad os
Dis patcher
F ilters
O rient
icult ural
A ff
RO W
Co ord
Ġadvent ure
Ġpl asma
Ġsub str
hl js
Ġdef initely
Ġins pect
g ui
ĠL uther
P eter
T i
W IT
ĠCont ainer
R GB
ĠP aper
Ġtarget ed
Ġtro uble
Te chn
c amp
Ġprof it
0 100
D ue
in istic
Ġbox es
iv ities
ĠNichol as
ĠC BS
P ad
ter ms
ueto oth
18 75
ĠProt ocol
Ġconsequ ences
F oo
Ġstart up
Ġpriv ile
op al
C ert
ĠS eb
Head ing
raz y
Ġmonth ly
ĠN BC
Ġex ha
ynchron ous
ra f
row th
) })
16 9
Example s
ĠBeng al
ENT ER
ĠGener ate
not ag
\ }\
Ġ(! $
Input s
il o
Ġsh a
ĠY u
Ġunder ground
Ġclaim ing
C AC
> $
ĠA V
ĠL yn
ment ion
Ġcom ics
Ä Ľ
tikz picture
Ġg ray
ĠSh op
Ġb rows
Ġexpand ing
vel oc
16 8
Ġmathemat ical
exception s
Ġmanufact urer
ĠEv ents
ĠCost a
P ages
ĠO THER
om i
Ġcas ual
****** /
B ooks
ĠCom put
ĠF ab
Ġcap s
Ġint ellectual
Ġaug ment
ĠE ug
M ot
Ġf ol
ĠP ic
Ġdog s
ĠF erm
et ta
ĠE ston
ĠVAL UES
Ġconv icted
st own
) }_
math it
Comple ted
Ġharm ony
Ġchampionship s
ĠG R
Ġport s
ĠT it
ĠL A
ĠIran ian
ĠC NN
ĠUn like
D X
NOS CRIPT
Ġpr imitive
ĠQ ual
ĠH unt
ĠSch olar
Ġa mazing
Ġl os
Ġdem ands
é ĩ
ĠSh aw
ĠN ames
TE S
Act or
Ñģ Ðº
Ġs ig
Ġany where
Ġguid ance
sub str
( @"
ĠAnt ar
Ġinitial ization
res olved
ĠRoman ian
sl ant
Ġab road
Un ion
) }.
ĠS afety
Ġdeterm ines
W ho
Ġs cre
ĠR angers
get Key
Ġrecogn ize
Ġconj ug
. \\
ĠF ixed
ass y
un is
Ġshift ed
GEN ER
Ġs ends
gr avity
Ð°Ð »
arri ors
grad ed
Ġelev ation
ĠSh ang
Ġthir ty
Ġy es
ĠCh o
Ġeng agement
Ġwor ship
"> {
ĠCh air
he art
H int
} `
ĠDef inition
ĠMed iterranean
ay ers
Ġsh ore
ĠTh or
Ġencour age
Be havior
Ġco ffee
ĠDec l
Ġe ighth
ERT Y
ert ainties
ĠD raft
Ġcomp ression
Ġspec ifies
lo ating
W ar
R ank
Add ed
N orm
More over
FO RE
Cre ation
ĠĠĠĠĠĠĠĠĠĠĠĠĠĠ Ċ
Ġequ ally
field set
. (
um per
DI RECT
ĠColomb ia
st ation
f requency
ĠV as
H ot
Ġw elcome
port folio
Ġar ithmetic
ĠO UT
ack ed
S uch
Ã¼ n
Ñ Ħ
Ġabsor ption
ĠT EST
He ap
Ġrare ly
opt im
LO B
M ont
Ġch ains
ĠAct or
First Name
Ġsub stitute
equ ations
ĠUn iverse
ĠVictor ian
ĠC hel
ĠTrans action
d z
Ġpro be
ĠM enu
Capt ure
ĠVin cent
n io
mon itor
H A
Ġt body
Ġen zym
ĠP el
! âĢĿ
ĠW arner
amp ed
miss ing
Ġproport ion
Dependency Injection
Ġing red
ĠCom ment
as ide
Ġdecre ases
S IGN
Î º
Ġam ateur
MA IN
Play ers
ĠC raig
re ports
Ġh ierarchy
Dis abled
ĠS audi
t cp
H orizontal
L M
ĠF ro
Ġmin isters
Ġle x
Ġco aching
ocr atic
Ġo xygen
ĠH ann
el en
Ġweight ed
Ġpat ent
Ġref lected
Ġsurpr ising
ĠL ate
at che
Ġdes ert
Ġind ent
ĠS ent
Ġres idual
R oyal
ĠF ourier
te enth
Ġorb ital
å º
Ġsol ved
Ġke eps
Ġportr ayed
F ee
Ġg od
ĠW i
equ e
Th an
il ia
qu ake
18 79
Ġav ailability
! ]
ĠEth iop
Ġcut ting
ĠM es
Ġfl u
f ee
L ONG
Ġthe at
ĠM B
Ġlocal ized
Ġh ub
over e
Ġdoub les
. &
Ġdisap pe
k le
ĠB omb
Ġview ers
ĠL ux
ĠLiter ature
F ast
ident ial
le ading
Ext ended
ash a
Ġsynt hetic
ield s
Tag Name
18 67
ĠFr ances
s aved
External Project
å į
}$ }
Ġdis appoint
s ing
Ġv ic
tr aining
Ġmer chant
Ġlo ader
Leg acy
ge om
27 0
Ġencounter ed
ĠS ad
Ġme at
ĠRober ts
ag ar
ç ½
ĠTog ether
ĠD elta
Att achment
Ġhand les
ĠArt ist
DO WN
ĠD ol
L T
Ġprocess or
De ep
sp ot
Ġm ixture
ĠK i
ĠBar celona
Ġor chestra
urs ing
g ent
d ue
w au
section s
Ġiter ations
ĠInitial ized
vert ed
navBar Cell
Ġfoc using
Ġc arrier
V T
ĠT oy
text color
18 68
ri en
Ġ# #
ĠBer keley
æ ł
Ġre ven
Log ging
ĠS ox
em ies
Ġcontrib uting
ĠOl iver
Ġtrigger ed
ĠL ost
ĠTest s
C a
in variant
Rece iver
ĠB ir
tem plates
ĠTem plate
window s
Ġinterview s
Ġop am
File System
Ġlock ed
D ot
out ube
Ġhistor ians
Ġf abric
Char les
cover ed
Ġafter wards
Ġparliament ary
ĠSpr ings
* .
Ġb le
ĠMean while
Ġpart ly
/ $
p od
Ġart illery
Academ ic
elect ed
Ġmolec ules
: @
hel m
b an
th an
| ^{
Ġd il
LO AT
Ġphenomen on
Ġtot ally
DOCK ED
Ġb eta
Ġgu ilty
S pr
ĠDet erm
F our
Ġ ib
uss ia
bedd ed
Un mar
q q
Ġsurv iving
Ġ$ ("#
ĠSt even
Ġto x
iv odes
Ġcon gress
Ġgen es
Ġback end
L aw
Ġ ÑĤ
ast rop
Ġel li
Un its
T w
Ġdo ors
ance led
ĠF am
m os
Ġind ustries
Ġform ulation
~ (\
Ġ} .
Sign al
Ġsac r
Ġm anga
ad ers
ĠVal ues
Ġarg ue
ĠValue Error
LIN K
ela ide
numer ic
Vari ables
l ists
ĠTerr itory
ĠAnn ual
Ġre cre
Ġcall er
Ġcirc les
{ },
18 71
Ġparticip ating
d eb
Ġcl othing
Ġrel ating
Ġposter ior
Ġposs ession
ĠCom plex
ack er
g mail
ess ment
ĠK le
ĠP le
por al
Ġb one
ÐµÐ½ Ð¸
h ou
Ġcent ered
Ġinsp iration
UT C
Icon Success
B g
5 67
ĠWith in
B F
ĠM ason
18 77
Ġbutton s
keyword s
Î ¯
end ering
Ġscient ist
ĠK l
ĠSy ria
Ġadmin ister
Ġpark ing
ĠJ erry
ok ia
s ock
ĠL is
div ision
Ġcampaign s
Ġfl av
15 00
ĠBit coin
Sche duled
get Default
u ator
Ġob lig
Thread ing
g ro
Ġcous in
ĠS chema
G G
ce il
Ġ$\ {\
ĠSt evens
ch annels
S us
Ġcarri es
ovak ia
oth ic
ĠB ird
ĠFor um
s qu
Ġc ul
ĠGh ana
ĠB und
ivodes hip
Sup pose
Ġphotograph s
7 50
cal c
Ġuniform ly
C AP
18 72
un ning
Ġarg v
li ers
ĠSt ein
ĉ ĠĠĠĠĠĠĠĠĠĠĠ
Medal ists
Ġact ed
s an
Ġv e
ĠP arent
DE P
um inate
ph oto
Ġsh apes
Ġestablish ing
AND LE
Ġchar ter
ĠCol lect
: =\
ĠCamp aign
Ġprofession als
Ġcab inet
ING S
Ġinit iated
Ġperturb ation
Ġang les
ĠN HL
inter action
m ade
ĠBe aut
C riteria
h w
Ġse q
Ġinc idents
ĠC row
ĠBr istol
Ġw ings
pos itions
ĠC ant
O RE
ow ed
18 74
oc on
ave led
Ġt issue
Ġover l
ĠCon struction
Rich ard
ĠG arc
Ġescap ed
ta wa
ĠF riend
K EN
Ġrow span
Red irect
B ag
E ar
Ġc inema
Ġop ponents
Ġb oss
Ġent hus
ĠAnd r
ĠB rew
cl ide
Part s
ĠR ou
it ual
Ġaccess ed
Ġsp ark
th ick
Ġâ Ĥ¬
Ġviol ent
r ant
Ġfl ights
Ġsuggest ing
Ġreg ulation
Ġp ipe
ĠK os
id ity
um ped
ĠTechn ical
Ġaver aged
Ġg all
Ġproject ed
Ġorgan ic
Ġquadr atic
M ir
Ġ" (
Ġthere by
Ġs ax
ĠL ot
Ġdon ated
C ss
Ġp arks
Flor a
ĠDis c
ent o
^* \
ĠB our
Ġf ighter
Ġcons ent
ĠD ocker
enc ia
ia o
ĠC ategory
ĠSymph ony
Ġcho osing
ew ay
ĠCub a
equ ate
Ġdev oted
do es
12 9
Ġp t
Ġsimilar ity
ov an
ĠSt ories
ĠD IS
Ġalgebra ic
Ġoccas ions
ĠH udson
oph one
Ġf atal
M ad
ĠO cc
Ġlab eled
ĠU SS
ĠEn try
ex tr
Serial izable
ĠV lad
Last Name
om ething
Ġm ic
Ġan ime
Perm alink
b rev
Ġrest oration
ĠInd ustrial
n om
IconSuccess Encoded
Ġext ending
ĠEd ge
Ġhon est
ĠB uch
E MP
Ġend emic
Ġmathemat ics
h uman
ĠVis ual
V IEW
ĠV ic
ĠCon structor
Ġt ar
Ġpower ed
S pring
add le
ĠS ex
F iction
La unch
I LED
Ġcorrespond ence
do i
d evelop
s napshot
ĠM ach
an imate
ĠTr avel
Ġmon arch
Ġb ag
99 9
Ġsent enced
Ġsequ el
ynam ics
ĠL iga
ov ich
Ġcontract s
S i
Ġminor ity
Ġbl ind
Meta Data
wau kee
ĠC lay
ri er
Ã ī
col ogy
Ġb anned
Ġm as
Ġd ol
el ian
CL U
ĠInst agram
ĠCar r
ele ss
ĠC old
Ġsp ell
atern al
TE GER
Ġf its
Recip ients
ĠG rey
ĠF riends
Ġp ag
ĠBor ough
ĠĠĠĠĠĠĠĠĠĠĠĠĠĠĠĠĠĠĠĠĠĠĠĠĠĠĠĠĠĠĠĠ ĠĠĠĠĠĠĠĠĠĠĠĠ
Ġlength s
Ġa qu
pe er
Ð ³
ĠE le
ĠKir k
ĠH orse
Ġind irect
2 10
iem ann
Ġmill ions
ĠD epend
ĠCl are
Ġcomment ed
ĠG O
Ġp ump
Ġbre ast
s il
M anaged
Prov ince
absol ute
ĠDocument ation
Block ly
z ier
Ġatt ending
ĠAnt i
Cap acity
ĠExt ension
Stud ent
Ġde als
Ġover lap
m akers
Ġaf ternoon
var iance
Ġop ponent
ĠM asters
S ink
ent e
Ġid s
Ġc rystal
Ġl ights
By Name
Ġh orizon
x l
list ing
R oom
ĠIn nov
ertific ates
T our
b usiness
Ġfor cing
Collect or
capt ure
it ol
14 5
Ġcomple ting
Ġgu ys
Ġrhy thm
Ġcy cles
ar an
des cr
const ants
Ġlast ed
B er
ĠD ig
class v
Ġele ven
ĠOver all
ĠO ri
S ong
Mod ules
LE VEL
ĠW ik
Ġpar ad
ĠM ail
T ARGET
11 11
ant ine
en os
ĠAp pe
ĠArab ic
Ġ _{\
Ġvol tage
Tax a
Ġbut ter
ced ure
ĠU V
Ġgener ators
g gle
] []{
ĠY am
ĠLink ed
ĠS ah
Ġcross ed
M argin
Ġt one
g ender
ro at
ist ani
ĠM ann
M AC
Ġpop ulated
ĠVo ivodeship
al one
Ġre actions
M oths
ĠGr ace
ij i
on line
Ġarchitect ural
ĠB og
Ġ} ));
Ġplay offs
la unch
Prot otype
pers istence
Ġris ks
Ð¾Ð ¼
Ġnom inations
Ġdu o
sche me
om ed
G F
ĠG as
Json Property
Ġed iting
> -
ĠP ick
ĠForm ula
inem at
Ú ©
ĠAr c
Ġsquad ron
ĠP si
Ġt ou
Ġpurs ue
ancell or
ĠE val
ĠV iol
Ġmar ry
ĠV ent
al tern
Ġdecor ated
Ġd ensities
ĠS or
ĠNAS A
ounc ill
ĠCar lo
ĠL loyd
Ġfe as
X i
Fil ename
Inst ances
Ġco operation
Ġneutr ino
V R
RE L
Al tern
Ġra ising
UP DATE
Ġlocomot ives
Ġbo ats
AS C
Vert ical
ext ends
ĠCan al
ĠShe l
A WS
Fr ank
Inv oke
verb ose
g allery
ĉĉĉĉĉ Ċ
uck land
Ġg ear
Ġspe akers
Ġw inds
E conom
he w
Hon ours
is Array
Ġ' {
Ġemer ging
Ġlabor atory
ĠMont ana
ĠE SP
ĠD h
Is Null
Ġem issions
ort on
ĠRob in
æ İ
Ġyoung est
ep h
Ġph on
L arge
linked ExternalProject
ĠB aptist
ĠR ole
ĠDef ine
14 7
Ġmaintain ing
ĠTr inity
Ġad res
Ġpro ud
---- --
Ġengine ers
Suppress Warnings
ĠB right
ert on
Ġsim ulated
Ġman ually
p ick
Ġs ick
hen g
ĠMon th
Art ifact
CON NECT
f un
Ġgrad uating
ĠAm sterdam
COMM AND
Ġt iny
Ġlab our
cho ice
g om
ï ¿
is b
Ġtransform ations
P D
al am
ĠI celand
Ġanaly zed
Ġpod cast
un its
ĠT ol
Ġ" --
chi at
Ġex cluded
Im mutable
f ollow
ĠL ions
ĠCont roller
Ġchar ity
User Agent
F W
ĠF if
Ġcomm emor
mark et
ĠL ion
Ġw av
B IND
= </
Ġtrans it
Ġhospit als
Ġacc ret
Ġdig it
Ġcl ause
is co
Ġp arsing
ul as
Ġviol ation
ĠS erv
l ift
x r
Ġpre lim
linkedExternalProject Path
( -\
e ing
(" [
Ġspecial ized
un ed
Record ed
W ire
id ency
Ġbirth day
}{ *
Ġul tr
^{ (\
ĠRepublic ans
ev ille
ĠCHE CK
comp ass
ĠChrist ians
ĠL en
Ġtrans verse
h ind
Ġm eth
sw er
U Int
Ġin ference
ĠExample s
ĠB ath
ub a
Ġconsist ency
hem atic
âĢĻ ,
rele ased
ĠU lt
d v
ĠCh and
ĠRead ing
Ġch at
Ġinter faces
CC CC
18 66
Ġsec ured
ĠHigh er
act s
Ġbur st
ĠV ert
18 40
oc ent
Ġhom ogeneous
Ġserial ized
Ġcool ing
Ġ( +
ĠV el
Ġfe es
clide an
iv ari
B oot
k k
Ġl ots
Tra its
it ud
Ġexam ine
ĠT on
="../ ..
16 5
Ġin tern
Ġenc rypted
30 1
et ype
18 73
Ġeng age
or ig
b ird
ect ive
ĠB log
qu ick
ĠM anu
sub scri
Ġm ilk
ad ic
d h
ĠBer g
ecess ary
ret val
Ġpeak s
ĠO il
Ġdec ode
Linear Layout
W ater
ric ulum
Ġinter ference
iff s
Rel ations
ĠAdv anced
ĠR ect
Ġinter vention
cos ystem
=" {
ra h
string ify
Ġe cc
ip art
ĠDen ver
Ġsurv iv
ĠGr ade
ID s
ĠB ond
Ġmer ely
ĠAt omic
sh ots
Ġstead y
Ġ( {
ĠB ass
ĠK ay
[] )
Ġbre ath
30 4
ĠC incinnati
Ã Ĺ
Ġent ers
Ġgu idelines
Ġdis cre
et e
n ol
ĠX ml
Ġvol can
Debug ger
Ġunc ertainties
F D
Ġr h
Ġpay ing
Ġreson ance
Cent ral
Ġev olved
Ġphys ician
rg b
ent ine
I BU
ĠGL enum
ĠAg ent
ĠSerb ian
z eg
}\ |
Ġwebs ites
ĠLu is
ocom plete
ĠArch ives
Å ¼
< '
Qu estion
Ġtax es
ad just
dim en
in ates
ogn itive
ĠM oney
aw k
um ing
Ġthought s
Ġansw ers
ĠS yntax
ĠUE FA
stitu ency
A CTION
Event Handler
Ġsh ots
std lib
pret ty
ĠC over
c odes
Ġmill is
ĠLoc ation
Ġf irms
sp er
) ^\
Ġinflu ences
ĠCo al
um i
M ale
Prot os
h istor
Comm ands
ĠC ob
Ġturb ul
Ġre vision
Ġin duction
Ġtr aveled
TH E
ĠNO TE
Ġcompos ite
Ã± a
Ġm u
Ġdocument ed
ĠM eta
ĠL arry
Ġexpect ations
Ġdifficult ies
Ġident ifying
ĠEd wards
. ";
B as
art z
ĠNot es
Ġpolynomial s
bound ed
Ġnot ing
Ġp tr
Ġrat ios
Ġcon scious
Ġleg islative
D ataset
get s
Ġim aging
ä» ¶
Ġh alo
uff le
17 5
Ġth orough
lim ited
ID S
On line
ĠW inn
Ġmanufact urers
Ġjuris diction
U r
ĠR oot
ol utions
Ġstat ue
ag i
W W
p ip
ĠI SO
ĠL ex
us a
$- $
Ġbr idges
ĠT ib
Ġcomm ut
Ġgr an
N EL
i q
o ard
re ject
Ġw arr
Ġfail ing
copy right
Ch inese
Î ³
ĠG ay
log ic
ist ically
last ic
getElement sBy
ĠFil ip
Ġt ies
Disc ography
J ose
ĠAl gorithm
Ġhealth care
c aster
document ation
Ġrock s
Ġscr atch
Ġmir ror
T OP
Un lock
tri angle
ĠSus an
ĠA pi
ĠP L
Ġinnov ative
Ġtrend s
Ġf led
MA G
Ġund ert
Ġdialog ue
. -
R G
h fill
$. }
Ġprint ing
add on
ĠEn able
Comp any
ur ities
has OwnProperty
act ivate
ĠK un
m icro
S aint
æ Ŀ
c atalog
Ġprom oting
I MAGE
Ġmoder ate
Ġc amer
ĠS ans
Com b
co ins
Ġcap ability
Ġinter rupt
Afr ican
ĠC lean
lin ing
ĠS ultan
Ġm oral
Ġannounce ment
ĠI MP
View s
Ge o
e ur
ĠT erry
PAR AMETER
pro blem
Ġsearch ing
Ġreview ed
im er
ĠV M
ĠC L
Ġtri be
Prof essional
Ġimport ed
get Data
print StackTrace
fl ash
ĠLeg end
ĠFI LE
Ġ< ![
ĠB arr
Ġsurre nder
Ġb lob
er en
Ġant ib
ĠN ear
H ung
B ot
V oid
pe ction
Ġpl ugins
ĠCart esian
ĠCOL SPAN
pro port
Ã© d
Ġper cussion
Ġbon us
Ġt ough
n r
ject ure
Ġcoal ition
on omic
ST RE
Byte Array
ĠTre as
std out
Ġo l
is cal
Ġr s
ĠT as
em in
um bs
Ġcolle agues
ĠS U
Ġabsol utely
XML Schema
at ra
ĠAs ync
Ġcomb ining
Ġt anks
ĠC urt
Def unct
oc y
Ġm a
itor ial
R pc
ĠMun ich
ĠCirc le
ched uling
ĠGener ic
ĠGon z
Ġpremi ere
u cc
Check er
ra id
> ";
et ter
ĠM is
Man ifest
Fr ag
ĠE ncy
Ġlie utenant
Ġens ures
Ġleg it
b uck
int endo
ï¿ ½
he ld
f on
Ġabund ance
Ġinsert ed
Ġfest ivals
ĠEag les
(" ")]
ĠS F
th lete
Ġimpress ive
m is
Ġh older
ĠS ample
rot ate
k ern
cons istent
char set
ä ¿
Image View
ĠPr act
Ġhon ors
ull ivan
B tn
contrib s
organ ization
P DF
Ġvar ies
Ġtw in
Ġto ggle
bel ow
Ġsub stit
[ _
ĠAd elaide
Ġflo od
Rel ation
Ġdec ides
b ower
Ġ) {
ĠMur phy
ĠCru z
ro c
ĠG host
ator ial
Ġhelp ful
ĠP resent
asc ade
Ġmeas uring
l ov
\| _
Read Only
J an
ĠC OP
av an
Ġwrest ling
in ar
P rec
ĠH amb
Ġdis ag
akes pe
sup ports
uch y
OD Y
m achine
Ġte ch
Ġam pl
ĠT ru
ff ic
æ į
ĠK rist
12 6
Ġmon ot
Mus ical
18 48
Ġport ions
Ġob st
ĠWork ing
ĠPos ition
end um
stack rel
se en
ser if
M el
oper ative
M or
ĠSt ack
Ġdevelop ments
p arsed
ĠCh i
ic z
14 3
Ġrefer enced
Default s
Ġw ake
;& #
class path
Ġdram atic
Ġc riterion
Sub mit
Ġmod ifications
inner HTML
Ġserious ly
15 5
Jew ish
Type Name
Ġfilter ed
Ġsp ots
ĠD od
w heel
Ġpl ots
Ġintro ducing
conf irmed
Ġsim plicity
is se
Ġl ingu
J ac
Ġr ay
utor ial
Ġt ape
ĠS alt
ON LY
ĠPro gress
N il
ĠJeff erson
Ġ rib
ent ities
Ġacqu ire
Ġj u
Pl us
ĠL LC
L if
ie u
S ender
ĠT ang
text sf
Rev ision
ĠĠĠĠ ĉ
C lip
ĠH ob
urre d
K ar
æĺ ¯
> #
Ġs ock
op ing
re b
v ik
ĠKe ith
c g
Ġn est
Ġal igned
back slash
Ġc argo
ĠP erry
Ġs aving
Ġ( ).
Im plementation
Ġj ournals
eg en
Ġdis aster
LE N
Ġref erring
re strict
access or
s ap
ĠN at
el ist
Ġnec k
ĠW es
ĠGerm ans
c ou
Ġreal istic
High light
ĠM aced
NO TE
Ġirre ducible
Reg ex
Ġden om
Ġdeterm ining
ĠNep al
m anaged
) ";
ĠAdd itional
an alytics
Ġm arch
Ch arts
ĠC atherine
urre nce
ĠW u
Sw ed
================================================================ ========
ĠM agn
Ġport folio
Cl one
Ġsk i
| $
ĠA pr
sw ap
rest ore
ĠNever theless
q a
Ġfrag ments
Ġdisestab lished
Ġd war
ens en
ĠV K
Loc ator
Ġship ping
om eters
Ġguarant eed
to k
__ _
inter faces
Ġspect ro
uck er
Ġsp okes
}^{ +
ari ans
Pred icate
18 69
eng u
pos itive
get Current
ling ton
ĠLabor atory
ĠArch itecture
Over flow
Ġext ensively
ĠHol land
HP P
Ġorig ins
Ġchem istry
ĠC ox
ORM AL
ĠAzerbai jan
Ġqual ify
log ical
ig ion
ĠMay be
ĠDel aware
list en
ci pl
ft en
ra ise
ĠAb u
Ġtempor arily
ish i
Ġqu ote
i am
Ġcond em
ç ±
Ġpat rol
ĠN ormal
ud o
C lock
l c
ĠK ind
sche dule
h all
oc co
f und
ĠA aron
ĠM uch
in ance
ĠJ oint
Ġun cle
AA AA
Ġb arrier
fail ure
Ġfeel ings
akespe are
( <
ĠE D
Ġcontin uum
W ARNING
Ġorth ogonal
S ys
I ssue
h int
A thlet
ä¸ ª
l m
ĠAt hens
h ad
L ead
tog ether
Ġd ump
Ġs ad
J ul
cor ollary
L ittle
; ;
div ider
Typ ed
Ġdef ending
Ġpos it
ir ts
Ke ep
ĠC T
istrib uted
-------- ---
Ġtrib es
ĠRet riev
el m
ins ky
ĠDemocr at
Ġten ure
ide a
Ð° ÑĢ
Ar n
Ġadv is
govern or
ig gers
ut a
ĠMad ison
ious ly
s and
osp el
à ®
ust ain
y ellow
Ġev ident
ash board
Or g
Ġgather ed
Ġim posed
ĠRepresent ative
T ake
m ot
Ġan not
Ġassoci ations
ourn aments
sl ug
ing e
ĠCont emporary
ĠCal led
S ir
ç Ľ
prop ri
IF T
Ġmuseum s
ĠScient ific
Ġcaref ul
Ġt ons
cur r
Ġdec k
Ġtrad ed
s outh
ĠIm ages
ĠSup pose
Ġsettlement s
ĠHe avy
' ><
* >
-- ;
r ans
Ġp ic
ov y
She ll
ĠLu ke
bold math
Ġl ux
Ġtr ick
Ġintegr ity
------------ --
pl ings
w ire
Ġess ay
CLI ENT
Initial ize
Ġs ectors
Ġbroadcast ing
ĠN g
}} </
Ġd egr
ĠR ivers
ĠAl ong
{ (\
sec ure
ack ing
ex press
b ash
ĠSocial ist
Ġch ron
Mat ches
pos able
Ġpre dominant
ĠEl li
Ġconnect s
Ġch ip
ĠCroat ia
Ġc amps
Ġvent ure
B razil
ic it
ĠVenezuel a
ĠEncy cl
lay ers
S B
Ġev ac
Ġcons ensus
ĠTreat y
Ġdeep ly
Per formance
ĠAb bey
Ġins ight
Ġspons ored
Ġd type
ĠÐ ¼
Ġdis pute
m other
Ġs id
Ð Ł
Christ ian
ĠA round
Ġpe oples
ĠStat istics
Rep ublic
ĠA F
ĠG len
S y
ĠL ayout
Ġver ified
Ġcomp atibility
Th rows
sp ort
D a
P rior
ĠS ym
res pect
18 57
Ġout door
Ġtim ing
Ġtem plates
Ġimp ly
ĠCO M
request s
Ġtrad itions
Ġcelebr ate
< >(
ĠF IX
UN K
Ġsh allow
ĠH ub
b idden
Ġmut ual
Ġdem olished
j ab
Ġex clude
ser ts
R o
o ons
Ġdismiss ed
Ġint ense
Ġaffili ated
Ġcol ony
Ġpar agraph
ĠM ove
ĠArt illery
Ġimm igrants
s izing
ĠL ett
13 3
j p
ĠA w
all ing
) ?
UM ENT
T ON
Sub scri
Ġconv olution
pl o
18 59
Ġf iring
Ġst ere
Ġdep recated
ĠAv iation
Ġsynd rome
Ġexpl ored
F ollow
set Value
ĠPen insula
bar s
Initial ized
R ock
Con version
M W
r ated
ĠQu ant
Ġhand lers
ĠPhilipp ine
Ġstr ange
Ġorgan ised
ĠH at
est yle
Ġv it
ann i
Ġgener ations
Ġ\ [
ĠV oice
M Y
S ym
se ek
View ById
ĠA ST
ĠB ear
ĠHer bert
ĠZ end
æ ³
Ġmart ial
p el
uch i
Ġal i
ID ENT
ĠR ah
ĠD irectory
Ġin fr
Ġcor ruption
ĠF un
LE FT
Ġpl acement
ex ist
S un
Ġres ort
ç± »
Ġpropag ation
l is
av ier
ar ms
m el
Opt s
_{ +
ĠB ug
Ġm ast
Ġdepart ments
ĠS oph
Ġfor wards
Ġspl itting
ĠLe o
ĠP and
abul ary
b ur
f ilm
Ġan ten
ĠS uz
ĠC u
Ġs ugar
ish a
Scott ish
In c
ĠI M
Ġrecommend ations
Cover age
Ġbor row
Ġg ross
Austral ia
Trans l
Ġneigh bors
ĠS ask
get Logger
Ġreal ize
c out
i pt
Ġbe ating
ĠWork ers
as ia
ĠR out
Ġgr ab
Cl ause
ĠW allet
Ġblock ed
be hav
F IN
Not ify
Ġf usion
ĠValid ate
Ġp our
h ole
ĠH ugh
ĠGuard ian
d an
v or
ĠA uckland
Ġconj unction
eg u
D AT
ĠRog ers
ĠH em
ll a
20 4
Ġse eds
ĠCON FIG
Ġtraject ory
Ġdrink ing
quir y
und a
ot hes
ĠMunic ipal
Ġf ert
Ġlog s
veloc ity
Ġdo ctors
EX TERN
ĠC I
ĠL ar
ah an
' </
oid al
dr iven
M LE
Ġsup press
Ġcert ified
Ent ities
Ġro ster
Ġconflic ts
ĠN ak
d ummy
ĠL ov
Gr and
/ %
Ġdep ression
Ġscholar ship
37 5
ers ions
Link s
Ġsc rap
Ġwat ched
20 2
get Time
> =
ort ion
car bon
&= &\
tr on
ĠArab ia
Ġpet ition
Ġ" :
ĠK ol
df s
an che
Ġi i
f air
St e
Ġi OS
Ġg ent
ĠFl ag
Ġcivil ian
che m
jb oss
) (\
Ġt ick
RET URN
M ex
Ġvis itor
Ġcons olid
assert False
å ĩ
Ġrat ings
Ġsole ly
. âĢĻ
\ -
b age
Git Hub
T urn
Ġdecre asing
Ġrect angle
Ġar ise
ĠBut ler
unt u
R ew
D istrict
Ġplay off
olog ically
Ġeg gs
ĠA ber
ĠQu arter
å® ļ
Ġrepeated ly
ĠCurrent ly
Ġsur f
ath y
O ps
Im g
Click Listener
Ġaccord ance
Con struct
act ics
io let
ar ations
oc hem
ĠSing les
Instance Of
Ġb ay
Ġnull able
Ġcor relations
Ġinj ection
E mitter
Ġgrand father
ĠRuntime Exception
Ġdecre ased
new line
ett i
2 25
ĠPre vious
Ġexcit ing
ab we
L ove
"> #
ĠY et
ĠÐ ·
ĠAgr iculture
fin ish
Ġcomput ers
f eld
Ġfl avor
& &\
> ',
Ġdisp ersion
ĠC oun
Sup plier
Ġinit With
L ondon
ĠDown load
Ġvar ied
ĠS ony
ri ble
eg an
OP EN
ĠWat son
(' ../
ĠS ak
B and
ĠM orning
Ġexam ined
Ġmain stream
ĠP RI
13 1
Key board
Ġcomb inations
je ctions
P N
Ġwarn ings
F inder
ot ypes
Ġtravel ing
Ġmet ab
v r
W C
Ø ¨
On Search
im ity
Ġr iding
du al
Ġr ated
out line
ous ing
Ġp ow
B ill
cu ador
ĠCatalog ue
r ac
Ġt ube
ĠP attern
ĠS z
() "
sub title
de ploy
Ġabs ent
border ed
g uid
ĠDi ocese
Ġcre ator
Ġgr ants
ĠFr ame
NUM BER
ĠVerm ont
Ġed itions
Ġpul se
t odo
Ġt ension
Ġact ively
Ġdirect ive
="../../../../../../ ../../
g ulp
ĠS ER
ĠF L
ĠObserv able
Ġhun ting
ĠBulg aria
Ġh o
âĢĻ .
ĠA str
ĠZh ang
lo ose
Ġn inth
Ġarrang ements
min imum
Component Model
Pol y
ĠSe an
act ed
H it
Ġd Ã©
break ing
Orient ation
open ed
ĠStan ford
urs ion
Ġrev ised
ĠF iction
Ġj ury
Ġconsist ently
Ġfast est
Ġindic ator
former ly
H ouse
Ar row
Ġconven ience
Ġcoll isions
s ound
13 2
S printf
th al
20 3
M icro
ĠB aby
Ġfore cast
Ġl ung
18 30
"> "
Ġauthor ized
Ġnom ine
H F
Max imum
ur an
ĠGL int
Ġsubsid iary
h m
Â ©
Ġinaug ural
ic us
Ġjav adoc
Alloc ator
Ġs ep
ĠD yn
Ġl ens
ad itional
ack ets
Ġp ad
Ġm os
En code
Doc s
\ .
Ġm ines
Ġper ception
Ġcop ied
ind a
IL L
Un ity
*} [
ĠJ ar
Ġpl acing
ĠNor folk
ĠTh ings
Ġenc oder
ĠField s
ĠR oll
Ġcont ested
ĠRes et
W rong
ĠCh a
Ex change
CO RE
Ġde emed
Ġneighbor ing
Ġsem antic
13 7
Ġll vm
get Context
ig ue
ĠS oul
play ing
h ub
asc ular
2 64
f v
Ġex tern
Ġknow ing
ĠM ul
13 4
ĠO m
Ġst ick
Ġdist inction
be ing
C li
atab ases
product s
Ph ot
Ge V
al og
ĠD ialog
Ġdistrib ute
F un
Ġel abor
Ġ$ ('.
D eb
ĠC itiz
ĠP ont
Ġdiagram s
)} (\
ingu ished
ĠPers ian
d type
Ġbus y
Ġexc av
-------- -
az i
ĠEp isode
W ild
Ġconcert s
Ġeffect iveness
ĠBroad casting
^* (
ĠR T
Ġcitiz en
uzz le
r ain
ec raft
ĠIn stit
block quote
ed e
Start ing
m igration
IN PUT
15 2
red is
NAME SPACE
ĠC apt
Ġph osph
cor respond
ĠConserv ation
imb abwe
ef an
Ġrun ners
Operation Exception
s al
Ġf ur
qu ire
\\ \\
ĠPl us
Sh ip
es lint
P reference
Error Code
Ġo m
Ġcompet itors
math comp
\, {\
Ġanalyt ic
Ġim perial
F at
ĠH av
AC CESS
dash board
ativ istic
ĠR AF
per form
Fr ance
d ro
ĠHel en
Ġdem o
valid ator
Throw able
Rot ation
Ġch ronic
Is rael
ĠS olar
Rec ent
t ick
ĠW onder
ĠB orn
Ind ices
ĠPl anning
ĠThe od
che l
ĠChristian ity
b ay
ĠC M
Ġad s
Ġqu oted
Ġlight ing
Ġemphas is
$\ \
Tool bar
Ġdemocr acy
ĠS ql
Neg ative
arr ison
Abs olute
ev t
Ġportr ay
prevent Default
W F
end l
)) {
Ġe arning
Ġconstant ly
ent i
Ġover come
Ġreal m
A ust
Ġs el
NO WN
N Y
Ġemp irical
US A
z ig
Ġsup plement
1 19
ver ts
m ess
bal ance
Ġtrib ute
b id
ĠR idge
ifest yle
ĠÐ ±
Ġvolunte ers
Q UE
m itt
ac co
Ġexam ination
C ached
Ġb ull
á ¹
Ġh opes
the y
Ġp reference
ĠSo on
agon ist
Con v
g res
Ġphys ically
eff icient
mem item
ĠG em
Ġmurder ed
Ġsudden ly
bo ys
oss ible
Ð½ Ð¸
ĠK el
Ġdi agnostic
ĠAg reement
ĠSaf ari
? .
Ġ\ ,\
ĠHis panic
power ed
un ches
ĠG alaxy
read only
Ġb atter
H uman
m ine
Ġc ategor
ĠJust in
ĠBob by
ord inary
Ġkey word
her o
Ġ è
Ġ! (
Cre ator
P references
IM IT
sql ite
s chool
ĠD ennis
Ġpal ace
Ġun likely
U TE
Ġaux iliary
Ġcons iders
Ġnegot iations
Ġappro ached
& =\
Ġun ity
Ġste ep
/ ******/
ĠN A
Ðµ Ð»
Ġmus cle
ĠWeek ly
ast ed
. ).
Ġdebug ging
Z end
Ġr itual
ia z
Ġactiv ated
Ġis set
t ec
Ġt ends
ib lings
Ġstr ain
P atch
Ġover w
Ġcon current
ro ut
ĠC ris
P FNGL
erm ark
google ads
TH READ
ĠB ald
Ġsw ap
Ġcoun sel
i ov
Ġestim ator
ĠBudd hist
ĠPol itics
Ġpat ron
ĠLi u
D Y
Th ird
Ġgr ain
Ġcop per
ĠD rop
ot er
Ġnob le
tem perature
o auth
Ġg al
Pr im
Ġsum m
Ġprogress ive
Ġent ang
ĠAdd s
Ġmake up
Ġc hest
Arch ive
gom ery
ãĥ ³
n ick
it us
ex act
ĠL IC
Ġh orn
Ġbi ography
eb ook
Im plemented
NA P
Ġan onymous
Ġgold en
c ock
al bum
s ized
ER Y
Ġstation ary
Ġrad ar
ri eve
Do es
ĠHil bert
ĠNe il
Ġt ickets
Ġimm igration
M ur
ĠLa ura
st orm
ĠTransport ation
Cl osed
g al
lo ver
ĠS Y
source forge
Sl ide
ĠOt tawa
$ ^
Ġpre st
Ġ" ");
ens on
18 58
ĠSw ift
ĠForm er
Ġres c
000 1
Ġours elves
f ive
Ġen emies
ĠFlore nce
) ];
Ġab ilities
,... ,
c ern
Ġgovern ed
query Selector
ĠUS B
ĠS ang
ap ing
b ian
n od
Ġep id
Ġw ard
en burg
Ġinf antry
p ared
ĠFish er
ĠS IL
ĠN AT
ĠChar acter
ĠArmen ian
' })
Ġs isters
back up
mes h
b org
n ear
à¥ į
Ġal liance
ter min
Res olve
Ġr ings
T reat
Ã µ
Ġrender er
Sample s
ĠH aving
adem ark
Ġaccept s
Ġanalys es
A ge
x ff
ose x
16 6
fold ing
Ġaffect s
w y
w l
Int o
Ġneg lig
define Property
sw ift
Tok ens
ol ine
Ġf d
ĠS L
Ġfl ush
æľ ī
th reshold
auth ors
% ">
ak ov
Ġland ed
Ġrecip ients
B log
ĠW ells
FA ILED
Ġre built
ĠTh under
Ġcaref ully
F re
ĠMe chan
ar ial
PO INT
æ ŀ
ĠLag rangian
n P
[ ],
u o
Ġh int
ĠHe ader
$ '
Ġgraph ic
Ġpro l
Ġinter active
Ġpers u
ĠY ale
w ang
ĠAct ivity
ĠMah ar
ans wer
\! \
Ġdel iber
ess a
Il legal
R ivers
ĠS ierra
ĠWrit ing
read able
Pub lished
Ġmechan ics
Ġnot iced
scal ar
Ġpro ton
ĠRE AD
deg ree
] ",
SE SSION
Ġatt achment
ĠVis it
ĠSl oven
Ex pl
d id
ĠTh ai
Ġprelim inary
as se
ĠD S
Ġpro ductions
ĠCh ang
Football ers
ĠBlo om
13 8
acc ur
"> ,</
ĠPh one
Ġassist ed
å Ĩ
Â ½
Ġoverse as
az ar
ĠHer ald
H a
K O
leg iate
m ong
min or
! ");
ĠBy z
Ġpred icate
url s
F K
Ġmin istry
Ġeconom ics
Ġgr ave
ap k
ãĤ Ĵ
Ġdefend ers
M ary
up iter
ah a
widget s
ĠW ag
Sin ergi
Ġveter an
}. }
ĠL an
ĠS Ã£o
pro pto
Ġcompan ion
it zer
Ġu id
ĠSh akespeare
Ġer ected
ĠMil waukee
Ġadm its
User Id
ĠSD K
ĠCo ach
Pr incipal
ĠCam eron
ĠPed ro
ĠSt uart
}/ \
Spr ite
Ġ" </
lic an
Ġkey boards
Ġcallback s
R endering
ĠCl imate
Ġcomp ounds
el ia
ref ox
ĠDet ails
ij k
M id
o ct
in ery
ĠCl uster
Ġaccret ion
Ġsusp ension
40 1
Ġreloc ated
su ite
ĠHeb rew
Ġp ill
ul ous
, (
ĠM ig
Ġsp y
B bb
Ġorigin ated
is y
B in
el ing
STAT IC
ĠAir lines
Ġm oon
ff ield
Ġe cosystem
Rect angle
ĠCom plete
un ix
ĠPerson al
Ġsaf ely
aut ore
Ġperson ally
Ar c
Ġcommand ed
t pl
ve ill
Ġm ature
names e
Ġmand atory
Film ography
TH ON
Â ·
Ġre fin
Ġliter ally
å ½
ch rom
ĠLe eds
ĠPlay ers
ĠCom merce
Ġassert ion
Ġparse Int
Ġhighlight ed
ĠEV ENT
ĠB eth
) _{\
rec v
ĠS TR
pro j
= }
m igr
mult line
So ftware
ĠH H
ok o
Ġsub space
Â »
Ġchap el
sk a
B ODY
Get ter
ĠN athan
Ġtrib ut
Ġprov inces
Pos itive
ĠPhil lips
ĠP H
ĠY ellow
Ã¶ n
normal ize
iv ot
ĠK ate
ĠAl ger
0 10
Ġpoint ing
PRO TO
Ġsynt hes
Ġfru str
on c
DE VICE
ĠG az
Big g
Ġcult ures
ad apt
14 6
log ue
up les
Sh ift
Z Z
Trans actions
C ategories
vet ica
Ġl ying
us ive
sim ilar
Ġthreat s
Ġt ours
Ġa pt
') ).
or p
20 8
C LO
ĠLeban on
Ġthe sis
to o
ĠB order
Ġdiscrim ination
J im
ĠW E
Ġex ponent
Ġcon greg
integr ation
R en
tr action
Ġpitch er
Ġpo ison
Start ed
Ġh ang
Ġretriev ed
Ġcamer as
A W
ĠInd ies
Ð½ Ñĭ
Opt im
ph ony
scal atest
V IS
ĠR alph
ĠInd ependence
V S
ĠRey n
T LS
ĠW orth
file Name
ĠG olf
W ay
Ġdec imal
l ar
ĠFr amework
ĠR oche
h im
ob ar
Ġmanufact ured
ord ination
Ġo d
ĠK ash
ĠBro ther
ĠI de
ĠY ES
ever y
ST EM
Ġrecogn ised
h h
Ġhighlight s
ential ly
Pers istent
ĠJ in
A mazon
ĠD NS
ĠP ent
ĠG ang
Ġr ice
url ing
ic as
w al
HEAD ER
user Id
Ġlaw suit
ĠIN T
Ġscreen ing
text up
b ecause
Aut hent
S eed
Ġs nap
Sm ith
TR ACE
Ġdiagn osis
** :
Get String
Ġas ide
Qu ick
Ġassum es
ĠB ak
transp arent
Ġanal yst
Process ing
und ers
ĠG ust
Ġm ild
am ation
p ure
Ġswit ched
Ġintr insic
ene ath
Http Request
Ġdef erred
Non Null
IC K
Ġh yd
' _{
Ġform ations
b readcr
UM N
Ġattr actions
ĠB inary
mod ern
} ")
Ġn ut
Ġsc oped
Ġful fill
C s
ĠK ill
Serial ize
ĠR av
ĠK id
Ġinter cept
Ġin set
ĠW ARNING
Ġglob ally
sup erv
if olds
Ġc ow
add er
ĠR ES
:// $
Ġprom ising
Ġunit ary
Ġsynt hesis
or ry
J ournal
h it
ĠĠĠĠĠĠĠĠĠĠĠĠĠĠĠĠĠĠĠĠĠĠĠĠĠĠĠĠĠĠĠĠ ĠĠĠĠĠĠĠĠĠĠĠĠĠ
Dis able
Ġanalyt ical
g b
ä ¹
ress es
Ġ] );
14 8
H ANDLE
" +
Ġcheck sum
ĠVen ice
Bu ilt
un s
ĠL IMIT
eb ox
][ <
S everal
> ",
Ġal gebras
Ġem igrants
Ġt aste
Ġk inetic
At l
ind uced
Ind ia
Ġcon e
Ġv ital
down arrow
Ġvulner able
enc oded
Ex ist
az ard
Ġplan ets
Ġreserv oir
ov al
effect ive
Ġpure ly
ĠArn old
Organ ization
ĠChap el
] ));
ĠA ur
ew ise
Ġdeterm ination
ĠDi amond
ĠArt ists
Ġass ists
Ġspher ical
r adi
Ġm amm
Ġdefault Value
4 80
ism atch
Content Type
Ġp ale
Ġ{ ?
j sp
ĠP rest
Ġcl an
veill ance
18 54
Rep o
Ġin cl
Ġsculpt ure
Ġmem or
Or d
ĠArgent ine
Ġun w
ĠWall ace
cover age
Ġentreprene ur
l ishes
end ors
ĠOr d
eg al
d istrict
am ination
Ġs ang
Ġsh ops
N ORMAL
mid i
Ġhapp ening
Ġs creens
(( (
18 55
en i
M EN
ĠI ss
cons ider
ĠW alt
ĠLeg al
ĠMET H
writ eln
ĠFr anÃ§
Ġle agues
$\ ,
sp h
flu ence
D ark
Ġal ien
26 0
ĠSecond ary
Ġbelong ed
rec ords
Ġmanag es
ĠC WE
Ġinternational ly
7 68
ĠO scar
ĠPeters burg
r int
ĠV eter
Ġper ceived
P a
ĠM ills
ĠN y
loc ations
28 0
Ġexhib ited
Ġshould n
fin ity
ours es
ĠÃ ģ
Ġcelebr ation
Ġneut ron
sc ience
M igration
18 52
Ġd eter
Ġz ones
ĠHar vey
Ġ' )
Ġtr ap
ĠK in
ĠD ise
go als
Ġverb ose
ĠS ig
Ġt ournaments
aut hentication
ĠAl t
Ġperfect ly
ol ition
ĠZ ero
it ars
c ott
contain ers
E s
Ġcompos itions
d ater
DE SCRIPT
expand ed
dec or
PROP ERTY
Ġloc als
Ġ& $
St udio
... ]
Ġarr ives
ris es
14 9
ill on
ĠTh ir
B ank
Death s
Pres ident
L ess
}) (
ĠE instein
ĠAng lo
pr ises
anc ers
Ġoccur ring
rot ation
USE D
m art
uls ion
P ac
at z
Ġto mb
Ġdr ives
Ġflex ible
Bal ance
F LOAT
ĠM ode
Ġto m
Ġde eper
ĠF ed
sur ance
N ay
feed back
Ġtr aces
Com posite
ant astic
con tract
ond o
Ġp ose
ĠGreg ory
Ġthr one
aw ks
P aired
ĠÃ Ĺ
ĠE mail
}) ^{
Ġtour ism
Ġremark able
ab ove
is Valid
Ġth umb
Ġcross es
Ġh ate
Ġro uting
spe aker
Ġbe er
prot oc
pr us
left arrow
ĠHen ri
in ology
ĠL isa
are ncy
] ^
AT T
depend s
Ġelev ated
E ducational
ĠCong o
Project s
Ġnormal ization
V ars
Ġor bits
Ġobvious ly
Com panies
ĠGil bert
Ġhost ing
ĠGro ve
Ġhe ating
c ook
Dec or
s it
=\ {
× ľ
Ġag reements
Ġtrad itionally
k ill
ĠE ddie
ĠHar old
ĠHe in
$ ^{
val ued
Ġth rew
ĠS ou
ĠPar alym
P LAY
ĠGu id
Ġfacilit ate
ĠL if
up arrow
ĠMar shal
Ġc attle
hand ed
ĠP av
ĠThe me
18 56
Ġpredec essor
ĠP ush
Z ip
he ap
spir acy
Ġattend ance
Ġshut down
' ',
Ġ$ ^{
Ã ¯
un credited
Ġlog arith
ĠÎ ±
Ġlo ops
Ġquarter back
Ġcompens ation
Ġart work
ĠA ncient
Ġexhib its
ĠC elt
Ġcontinuous ly
Ġv el
ĠF ighter
N L
pol l
Kn own
Ġunsuccess ful
Ġphotograph er
c id
ploy ee
Def ine
ĠC ut
ĠCl iff
"> '
ec ca
ĠModel s
Ġc ust
ĠT ypes
ĠF u
Ġc ad
Ġl ip
ĠLIC ENSE
Install ation
atche wan
ĠHel per
x t
C Y
Ġre plic
CON F
cred entials
Ġset Up
Ġaccess key
track s
Ġa uction
Ġitem Members
El se
in ions
ĠCor ollary
ĠI ssue
ĠSeb ast
ĠG ate
Ġb uses
Ġj ew
Ġbrows ers
ĠHug hes
Ġo mitted
âĶĢ âĶĢ
ĠB il
Ġimplement ing
ĠB io
In stant
Ġconduct or
Ġreflect s
ĠM ik
15 1
Fin ished
Ġt ier
Ġhas n
Ġ" {
UL AR
amb ers
Ġnumer us
Ġb read
col s
Ġfr act
Ġjo ins
sen al
ĠD y
Ġ? ?
ĠSk ip
Ġenter prise
Ġexec ut
Ġwealth y
ĠArch bishop
Ġpropos als
Ġdraft ed
ĠNash ville
w ent
ĠS yn
Ġvalid ity
n ut
ag le
art et
bin om
Ġprotocol s
Ġpers istent
ĠG ene
Ġte a
ĠCON TR
D evelopment
ĠS TD
Ġfoot age
host name
ĠI o
ĠHar bor
per formance
roll ment
map per
Ġfun eral
Ġbuild s
end ent
Col lege
Ġce ased
âĢ ĭ
Ġsent ences
Ġbatt les
A mb
Ġshel ter
Ġthr iller
Depend encies
Ġlik es
Ġcur r
{ })
Ġc d
ÏĦ Î¿
ĠBenn ett
Ġun stable
al ways
Ġarr iving
(' \
F ort
on ing
ical s
Cl osure
d yn
p romise
eh icle
O IN
ĠB ach
Hel pers
Ġset Timeout
N d
h agen
ib us
Ġcent res
Ġaccommod ate
ĠArch itect
Ġfoot er
ri o
foot notes
Ġor n
Ġreg ex
small skip
Ġvo ices
à¤ °
SER VICE
W P
ĠSim ilar
Ġcrick eter
ĠCom b
CK ET
Ã¤ r
Ġadvert is
ĠR ena
Ġpl enty
g ap
H EL
ing o
e u
Ġstri king
Sl ider
s elling
Ġcoll apsed
EQ UAL
$ }}
ÐµÐ ´
P OL
vel t
Ġinter change
IT S
work ing
Vis it
% ),
F X
null able
")) );
j ud
ist le
Dec ode
ĠShang hai
Ġcount ing
Ġg ymn
Ġ<!-- [
Ġmyst ery
uc le
Ġg enu
lock ed
Con nected
ĠPro ductions
"> @
ĠU INT
ester day
C ities
l iga
W all
sw ick
Ġconstitution al
Ġexpert ise
ĠE lection
cho ose
Transform er
List View
Ġst olen
ĠG amb
Text Field
ĠW R
ke es
Ġac res
ĠPlan et
cknowled g
ĠBO OL
ĠSc ar
Ġl azy
ĠCred it
di ag
us b
Ġspec ifying
Ġeigen value
Ġp ace
Spec ies
Ch ina
6666 66
ĠIn fo
CP U
ordin ator
sh ops
g ie
spec ified
Ġe u
ĠRay mond
Hand lers
Ġstop ping
> @
j dbc
Ġim per
ĠE mb
ĠDiv is
Ġsum mit
Ġpre val
Ġlimit ing
Circ le
ag ers
A IN
ĠU nd
ĠComp etition
ĠM ine
Ġmem brane
)-- (
g ary
Ġextr action
im on
Ġdrum mer
ĠP OST
Pro ducer
mid rule
Pre view
andid ates
FH IR
s mooth
Ġn ep
3333 3333
ing ers
Ġexec utor
Play ing
n ested
Ġor al
ne z
Ġr ab
Sm art
18 49
Ġcommun icate
p ow
ĠEr nest
ĠA SC
Ġas p
Ġ* **
ĠC raw
ink s
Ġco at
Ġc rop
ĠS old
ace ut
Inv ocation
) <
Ġprov isions
Ġref ere
Further more
d eleted
Ġconf used
" <
ĠE ld
EX P
min ster
ĠFil ms
ĠCamp us
Ġbor ough
Ġacceler ation
r in
18 47
ä¸ į
ĠAb raham
ĠIter ator
Res ize
im i
ĠEqu ation
ĠLat ino
T s
Ġpl ates
Ġse aled
Ġg ates
ost ream
add y
ãģ Ļ
k al
ĠR iemann
Ġen abling
Comm unes
m ixed
Ġc f
ĠPer iod
() }
For Key
Ġastr onom
md i
ĠClar ke
current Time
% );
eg ral
Map s
ĠB A
l st
at em
Ġburn ed
F ACE
OP ER
ĠBel arus
perm alink
m ile
for um
ik ing
ĠD rama
ĠJo an
Ġst reak
L F
. (\
Ġg fx
is che
ĠDE BUG
N ER
bo at
w oman
Ġl n
Ġdescend ants
Ġv ibr
Ġd ose
Can ada
ĠR ever
4 000
f ade
æ Ķ
ber ger
ĠPl ugin
f urt
Ġbel t
Ġcart oon
h or
Ġdoc s
d ifferent
ĠE state
Pub Key
Ġdist urb
D utch
Ġd ummy
getElementsBy TagName
Ġsh ifts
13 9
Ġag rees
link col
Ġclean up
b ib
ĠMar io
Ġown s
umb ai
Ġrecru it
Ġscal ed
Ġed itors
ÑĢ Ð¸
Ġsust ained
l iter
ĠSet ting
ĠA my
ĠAl lied
ĠPhys ical
Ġre called
åı ĸ
con sum
ĠTH IS
Ġprom ised
P in
Ġelim inate
c ritical
ex c
type param
bol ic
}$ \
ĠUtil s
S port
Ġconv ey
inherit Doc
v oc
Ġsc iences
Con stituency
utr ition
am y
Ġwithd rew
× ¨
ĠN u
iz ar
SE CON
itte es
Ġl as
ĠM az
ĠB ert
ĠEd it
Dem o
Ġconf usion
Ph aser
ur ated
aut hent
ok i
Ġor chestr
Ġy ard
com press
Ġattract ive
ĠEnter prise
ĠÅ ł
ad j
ov sky
Ġu uid
sl ides
ym ore
ĠRh odes
ĠS ic
Ġfarm ing
d ing
Ġplay wright
Ġany way
mid t
ĠR uth
18 51
oot ing
Ġbo ards
Button s
Ġwalk s
Ġv in
Ġthick ness
ĠLeon ard
I rish
ĠEag le
Ġequ ity
Ġfight ers
D ele
Ġc ock
ĠP ain
Ġqu it
Ġapprox im
M X
ĠPh arm
ĠCon trib
ĠId aho
ĠM s
Ġpreced ing
Ġd inner
Ġaccept ance
P s
Ġex terior
ĠTr ain
Ġab brev
Ġharm onic
Ġsub urb
Ġsuff er
Ġmem ories
U kr
Ġsub t
ĠCom ple
ss h
Ġhand ed
n orth
r te
}{ {\
uss els
ĠS oci
ĠL oss
ĠColumb us
Ġs ans
isb ane
iz a
RE C
ĠG uild
Ġprepar ing
Ġas h
less ly
ĠRe ed
then Return
Ġmat hematic
ĠSte am
) ',
W ords
Ġun ions
Callback s
cur ve
Ġre fr
ĠV ict
ĠAl pha
rece ived
ap a
Ġdiv ide
Ġ@ @
Ġcle ared
Ġh itting
ĠB av
ĠP icture
att achment
00 3
ĠPhilosoph y
( %
arri ers
bro ok
Ġoff ense
Ġem peror
le ave
Phys ical
ĠS ey
r age
P icture
l ane
ĉ ĠĊ
Ġdis band
Ġim plications
BE GIN
ipe g
Ġal lies
Pro pag
=-=- =-=-
Ġswitch ing
le ad
Ġsong writer
g ol
ĠE asy
oper ations
d imension
ĠK il
Ġvari eties
ĠBr isbane
Ġaud iences
Ġfun ctor
il io
IT ER
design ated
Ġst eal
h orn
ose velt
F s
Ġa est
ĠSud an
Ġcontain ers
NE SS
ph al
Ġprob abilities
ĠPo isson
\ },
Ġtour ing
ac ional
Ġbe et
Ġ) );
R eb
Ġpre view
G reat
ĠC rit
aur us
ĠInter est
Ġport al
Ġcov ariance
ĠK umar
ess ors
my Item
Ġsl aves
aw i
) }$.
Ġcor rupt
Ġkit chen
Ġartifact s
d og
Ġp id
De ployment
start ed
Or Empty
Ġcor related
ĠAgain st
Id le
Ġcomp rises
ĠRem ote
ĠNot ice
h in
Ġ\ {\
U psilon
Ġc ave
M ah
Cred ential
L uc
G ed
ou x
ĠN intendo
Ġen compass
B ay
qual ified
sh ader
RO P
ocol ate
Ġun set
Ġsub marine
Ad apters
Ġearth quake
Ġw elfare
Res olution
man ual
t wig
ĠWell ington
. [
Y ea
ur as
Ġg rap
Ass oci
CO PY
w so
") ).
Ġpick s
Ġins ights
vent ions
}{ }
Ġvol leyball
F all
Ġless ons
Na N
ĠCom pute
Ġaccompany ing
re try
Ġf ade
ipher al
G H
def n
Ġbl ues
ĠEn sure
15 7
I reland
\ [\
Ġte eth
c rypto
Ġa u
Ġtreat y
ph ant
ĠTrans form
root Scope
Ġ[ &
id ays
Ġdro ve
Ġ ~\
Ġd uplicate
Ġoper and
im an
). </
Ġla ugh
Ġ[ (
ĠPriv acy
ter rit
Ġserial izer
åľ ¨
ri x
Com puter
the ory
ĠSt atic
Ġbank ing
ern ess
Ġcosm ological
DE V
ĠC ONT
Ġgeneral ization
B AD
D to
y our
if ice
ĠGener ation
Ġcollect ing
Ġbelief s
Ġel dest
å ·
View Model
load s
illa ume
ĠB ears
ĠJ ak
ond e
Ġmed ic
J ud
ed ges
ĠNet flix
Ġa ster
im ag
atern ion
size i
vis ual
Ġexplos ion
am med
ur bed
sh ake
Ġwork flow
ul ers
IC AL
g rey
i ating
Ġphot ons
Ġt oured
Ġb onds
Ġ* */
ĠUs ers
ĠSh ir
Ch rome
Ġnormal ize
Com ments
found er
IF Y
Pack ages
ĠKer ala
ĠCo hen
hab ilit
c riteria
Ġam big
Con current
æĹ ¶
S pl
Comp atible
Ġcomment ary
us hes
ĠIs aac
friend ly
Ġav iation
Ġattack ing
& -
Con struction
Ġcer emon
Ġimpact s
Ġd uplic
Ġcou plings
Att ach
Ġsurvey s
sup p
ĠAR M
\ }.
ind ed
ĠCre ative
Ġstand ings
ĠF iles
tt ify
ph ib
land o
Col ors
ç½ ®
Ġdescri ptions
ĠĠĠĠĠĠĠĠĠĠĠĠĠĠĠĠĠĠĠĠĠĠĠĠĠĠĠĠĠĠĠĠ ĠĠĠĠĠĠĠĠĠĠĠĠĠĠĠĠ
s yntax
MPL ATE
Ġair line
Ġt ale
urs es
ĠProtest ant
h ang
R oles
CONT ENT
Ġevery where
ov ina
ĠMont gomery
Ġtransl ations
E F
Ġprogram mes
Aut om
gener ation
ol lo
È Ľ
ap on
Ġsample d
j q
Y P
Ġg em
m or
Ġc ry
Ġw orn
ĠIn sert
s ensitive
ĠU ri
ĠDr iver
Ġdr ain
Ġhonor ary
Ġcancell ation
? ,
ĠCour se
x c
ĠNorth west
Ġbank rupt
Ġpsych ological
CONT RO
Ġfilm ing
r ice
cess ion
mk dir
Cho ose
ĠPal mer
Ġbas ically
Ġfif teen
Ġens uring
ĠUg anda
ĠH alf
Ġlog ged
ĠSch w
Ġdist ant
ĠPol l
mu x
Ġj ail
) ](
. ')
y led
ĠT odd
Ġun ve
Ġb alls
ĠTh ank
Ġa thlete
Ġvirt ually
t om
p it
=" '
Ġf ires
anc o
Q R
Ġe ating
Ġdec oder
ĠERR OR
Ġplan es
cul ator
ĠW A
ĠInt ent
ĠĠĠĠĠĠĠ Ċ
Ġtack le
ari ant
B G
= _
ĠPalest ine
Bo ard
tr ight
ĠDir ac
IN LINE
Ġsem if
s ix
det ect
ĠTas man
ĠĠĠĠĠĠĠĠĠĠĠĠĠĠĠĠĠĠĠĠĠĠĠĠĠĠĠĠĠĠĠĠ ĠĠĠĠĠĠĠĠĠĠĠĠĠĠ
ĠR us
Ġdisc ount
"/ ></
Ra ises
Ġlat ent
y u
ob server
tr ained
ĠV illa
h yp
Ġthere after
IS O
ĠFerm i
ĠE cuador
ĠS ter
ex per
'] [
N ever
ĠL amb
sk in
ï¼ ļ
Recorded Vote
Ġcomp ress
Ġalleged ly
Ġcl ustering
ĠC es
ark er
ĠBulg arian
Ġpl otted
ĠC lick
ps y
air y
ĠR ele
En ergy
Ġview ing
ĠE ight
Im p
Ġprov es
ĠWars aw
S a
if s
Ġfile Name
Ġbu ying
Ð½ Ð¾
ĠCal endar
à¥ ĩ
Ġgard ens
Ġpol ling
ĠC ou
ãĤ ¹
r ation
ĠL iv
Ġadjust ed
Ġfollow ers
H H
Ġpro position
\, ,
G erm
Ġl ig
Ġg ains
C OR
p es
Sh op
ĠH IV
Ġimm un
W M
md c
Y ES
ell ers
im ited
Ġam id
t u
ĠðŁ ĳ
ĠR uby
ac ular
as ures
ĠS ales
in as
ĠDis covery
Ġnew er
D ER
Writ ers
r w
EX CEPT
ĠR osen
Ġan isot
er i
Ġl y
Ġrem ix
Ġillustr ate
ĠN om
+ -
Ġdistinct ive
S uffix
re comm
ĠP ART
0 200
im mer
ĠAl ert
ATTR IBU
Ġtour ist
15 3
ĠD aw
"> :
Un icode
he ll
Ġs overe
id y
ĠGab riel
ib a
ĠCard inals
Ġ ):
Ï ī
ert y
Ġen rolled
Ġinst ability
Ġefficient ly
è ¦
Ġn aming
other apy
* \
ierarch ical
Sing les
Ġcard inal
C ut
g d
Ġis omorphic
22 2
Ġc emetery
ĠLiber ty
Ù ģ
Ge org
é ¡
ĠHit ler
Ġtele phone
ĠMet al
Ġ ))
Ġr ally
à ¹
ĠB ened
D ays
v t
Ad ministr
Ġinc umbent
Ġhous ed
in ja
ĠSh in
pre ter
ĠCroat ian
Ġp kg
ĠS yl
Ġnick name
Ġh i
oy age
ing en
Ġhistor ically
Ġcontact s
ĠF oster
Ġreg ulatory
Q T
g ot
Ġb less
q s
sh ore
Ġanalog ous
Ġaff air
w yn
Ġby pass
Char Field
TIME OUT
ĠR unn
ĠTri ple
re load
ĠSp encer
C y
atin um
Ġg aming
no ise
Ġmer ch
ĠStr ateg
Ġbe an
ĠN R
max imum
control led
INTER N
Pro position
ĠGL uint
er ious
il ateral
ĠObject s
Ġsett lers
ĠUs age
it les
18 53
ĠB ent
Ġatt itude
Ġaccount ing
"> {{
ĠR ac
um ann
é Ļ
st ed
ĠIn stitution
"> )</
Ġobserv able
Ġdef ender
Table Name
ĠAv ailable
ÐµÐ ¼
r ating
Ġp c
LOC AL
Ġmon astery
W T
ĠZ imbabwe
ĠB U
vers ation
em bourg
Ġ\ }
3 30
Ġan notations
ĠN ancy
rece ive
Ġmorph ism
ĠG lass
ur bs
Lin ux
Relations hip
Null Exception
ĠG y
ĠPaul o
ry s
Prot ected
activ ated
ere k
æį ®
Ġr pc
on er
CL UD
- %
50 1
Ġband width
ĠEq s
d eps
match er
co res
en es
Ġeditor ial
ĠStr ong
Ġmain tains
Ġcomfort able
Ġto ll
Ġare na
ĠCheck s
ĠEm ma
Ġneighbour hood
Ġun safe
ular ity
A ws
im eter
Ġachiev ement
ĠD ame
Ġsens ors
acef ul
CLUD ING
Mod ern
ro e
ph ones
18 46
Jose ph
ĠT X
Ġdi et
Ġrepro duce
hand lers
se ver
art a
Ġarg c
Ġap ple
ĠJul ian
Ġb ishops
ĠPh ase
Ġcoron avirus
D ead
ĠBe ing
alt ies
M i
S yn
ellig ent
36 5
ĠSy rian
Ġal phabet
Ġre ceptor
Ġdesign ation
ĠStock holm
hes es
ĠJ ung
ĠF at
n ell
Ġnovel ist
14 1
= -\
ee per
bound ary
Ġinvestig ations
rupted Exception
_{ -\
Ġadvoc ate
ĠBrun swick
"> .</
Up dates
ij a
iv ar
Spec ific
I ts
ĠA G
â Ĥ¬
Ġun clear
Ġfle w
Ġup dating
Ġsp ir
ĠD at
i ast
Ġgr pc
Te ch
he ther
Ġburn ing
æ Ń
ĠTom my
Ġshould er
ath i
ĠK as
Ġun n
Ġwonder ful
Ġsub mission
ĠNew castle
ĠRev ival
Ð°Ð º
inst ances
aaaa aaaa
U INT
Ġd ock
footnotes ize
Call able
ĠOak land
Ġbatt alion
Ġover lay
Ġb rew
Ġnow rap
2 11
Ġimplement ations
SY S
ig g
Ġconsider ably
Ï Į
Ġhe ap
s olution
look ing
Ġp b
ĠEm pty
Ġaccept able
_{ [
Log ical
Ġ\ |\
ĠNot able
ĠR af
ĠA bs
Ġdesign ers
ĠConfeder ate
ĠC ec
ĠEx cell
Ġsw iper
Ġv i
ĠR an
are l
arri or
cr im
ST D
ĠKn own
ĠR ams
So ft
is ible
hom epage
um m
Ġresign ation
r ust
ĠK re
Ġlimit ation
ä ¼
ĠG PU
Ġcy ber
B on
ĠT ong
ĠO wen
ach ers
Ġper pet
ĠCov id
C AR
S oviet
Ġchrom os
Ġgr ades
ĠBaron et
itud inal
oc ene
ĠCOP Y
/ ,
L iber
ĠMar x
L ex
Ġconvinc ed
Fiction al
Ġconcentr ated
ĠManu el
Hen ry
Cred it
Numer ic
Ġexha ust
Ġmiss ile
Ġdiff ers
art icles
e er
Ġoverw hel
z el
ĠPer th
ĠDev on
Ġpsych ology
t lement
Ġad option
j ournal
en h
um ble
Ġun e
PO SE
V L
1 200
get User
ĠD R
perm issions
Ġsearch Box
ĠKr ish
Ġalter ed
nol imits
Ġp ink
ĠD as
Number Of
Ġident ifies
Ġax es
Ġexhib itions
Ġalleg ations
lish ments
================ ========
mention ed
Ġconduct ing
Ġback ed
ĠUn ity
ĠRh ode
\ }_{
Ġp atri
Ind ividual
St amp
STRE AM
ist ency
PRO G
r n
Ġspecial ist
19 3
sp ons
r ss
ĠB R
ĠSpec ifically
f ixture
Ġon Click
Ġin complete
D J
Ġh ills
ĠReyn olds
} <
ĠT unis
Th umb
Ġdipl omatic
ĠL arge
="# !"
WIT H
ĠÎ ¼
+ '
Spec ify
ĠD anny
ĠE g
Ġel ite
ott ingham
th in
Ġun em
F old
ple d
Ñ ī
ĠS eq
Ġg amma
C AT
Ġs z
id le
ator ies
SH OT
unc an
ĠInt el
M u
ak ef
ĠAr med
ard i
aw ait
TO KEN
c ats
Ġblock ing
Dan iel
ĠMal ay
^ (
)) :
ĠSw an
Ġwor ry
c ence
ĠC ork
Ġfall en
Ġcancell ationToken
ĠG M
ĠCh oice
ÅĤ aw
ro ph
F atal
od ic
zh ou
k el
15 8
West ern
] ],
Di agnostic
ĠWild life
Ġque en
Ġcon clusions
ĠCon sequently
le arn
Ġdemonstr ates
ĠF E
p ane
Ã °
Ġadminister ed
B attle
C AL
est one
Ã© g
ANG LE
re vision
var rho
ĠPar ad
Ġlearn s
Build ing
LE AN
Ġco herent
ĠK ids
fam ilies
Ġre lies
ab ar
Ġs lic
Ġlik ed
PRE SS
Ġqu as
m ith
Ġleg islature
ĠL or
Ġimm une
Ġfit ness
Ġback ward
Ġt ent
sc apes
il ian
tright arrow
ĠM end
Ġ[ -
An alyzer
Ġfilter ing
rec ogn
Cal c
ĠWIT H
W D
Ġsus pected
Ġtrav els
Ġ' [
Ġobject ives
Tax onomy
R oad
am ine
22 4
Ġp ap
Ġchalleng ed
o il
ĠAc cept
Ġmot ivated
Ġr uler
man uel
Ġcontin uation
ĠRo osevelt
Ġcol ours
ĠRes erved
ĠT F
ĠH im
c url
Ġdraw s
f ork
in crement
Ġminim ize
Ġsomew here
$ &
est im
Work flow
N EXT
Ġs ung
Ġ( ((
Ġbar rel
Ġtravel led
P AGE
seud o
S DL
ĠEngine er
ĠAn imation
å ¾
FIL TER
SE C
ĠPrinc ipal
ro les
Ġl akes
{ .
min i
Res p
Ð¾Ð ³
Ġre public
Ġconstr ained
territ ory
Byte String
Ġan ce
Ġch apters
song writer
ĠCom edy
l ucene
W elcome
ĠFa ith
r ise
Get Type
Ġcloud s
ĠP ul
ak o
Ġprevent ed
Non null
REQ UI
Ġfavour ite
View er
ĠScot ia
Ġsup ern
ĠLuc as
N an
Ġaccur ately
ĠG or
Ġcontin uity
Ġdef ended
ĠCons ult
ape st
S NAP
ĠSet up
olec ular
Com bo
Ġharm on
ex e
lic h
ĠDur ham
ad vert
15 9
av ian
ST AR
behav iors
ĠE R
ĠAng els
Ġwarr ant
ac i
ĠC ord
20 5
Ġsk etch
Ġten ant
D eleted
ul ators
rec ip
ĠCommunic ation
ĠKn ights
ĠP anel
reg istration
ĠPar ser
Mar shal
Ġfl our
DEF IN
ĠBey ond
ĠLine ar
l v
ul in
ĠF BI
Ġover head
B UT
LI MIT
Pol it
Ġcontext s
Util ities
ret ty
og g
14 2
Ġtim ber
Ġexception al
Ġimag ine
Ġw ond
ct ype
r ab
est ock
ht m
Ġbound ing
ĠUn fortunately
sub menu
I o
Ġir regular
ĠDom ain
Ġ= =====
Ġcomple tes
K K
F ixtures
it he
ess ed
call s
ĠT E
Î ®
P rem
ĠK or
parent s
ĠTre k
Ġh istogram
Ġwalk ed
ĠMark ov
Ġob sc
¼ </
ĉĉĉ ĠĠĠ
cl osing
ĠJenn ifer
add itional
Ġflow er
r ag
Ġf ate
ink ing
sole te
Ġ nd
Out come
Ġh urt
Fl ush
Ġcon ce
ra is
Ġ` --
ĠEn um
Ġre un
15 4
Get Value
open api
Ġmillis econds
ĠDi agnostic
ha o
15 6
Ġcan al
ĠS weet
get C
CON TEXT
sc opy
Ġintro duces
Ġconver ges
s ites
Ġfriend ship
ĠðŁĳ ¼</
ĠFried rich
ĠWood s
EMP TY
Ged mo
Ġc ant
ari us
Ġperturb ations
bootstrap cdn
Con serv
ĠAL L
j as
Ġf illing
Ġre forms
ĠH ir
Ġarg ues
ethe less
Ġn inet
aff e
Ġmeaning ful
ĠS DL
we ights
Ġremember ed
H o
S ens
ital ic
d ns
ir able
Ġtrail ing
Ġiniti atives
sat isf
publish er
t ls
Ġc oc
Ġtr ump
Ġt ear
Ġd ocker
Ġan ymore
get Parent
Ġc iting
ĠMus ical
Ġcl othes
Transport ation
er ie
16 7
ĠE M
Text Box
Ġdiss ip
UL K
ĠAng lican
ĠPet e
ĠBos nia
Ġt weet
ĠHol mes
ĠChe ster
Ġgram mar
in ia
Ġamplit udes
Ġcro ps
Lou is
ĠCy prus
Ġs ailed
b lo
fl are
ĠMETH OD
ĠC inema
ĠCO MM
ĠU TF
Ġattr action
l if
ĠC B
ĠHamb urg
7 20
IP S
Ġcont rolling
Ġbehavi ors
work flow
Ġform atted
ig i
2 32
ac ies
Min imum
ĠType Error
r ar
IC S
ĠØ ¨
Ġle ase
At Index
d ashed
ĠPark s
ĠF lying
Ġin ches
Ġm im
Ġlist ings
ot yp
Ġpr ince
Ġreserv es
AB C
Ġsoci eties
r us
c nt
ro utes
m pi
Ġpack ed
Ġd ish
ĠHash Set
erm al
direct ive
n able
ĠO DI
Ġac ute
is cher
author ized
Ġpil ots
Ġtum or
G D
Ġle ts
ME TA
Ġprefer ences
Ġb ary
has Next
y ml
ĠS part
Ġab oard
cknow ledge
datab ind
}[ !
Ġthink s
ĠĠĠĠĠĠĠĠĠĠĠĠĠĠĠĠ ĠĠĠĠĠĠĠĠĊ
Ġvolunte er
Ġfoss il
J ean
) }$,
nt z
ĠTr ace
Ġb ubble
Ġshe ar
;\ ;
C ref
port let
YY YY
ol in
Ġwrit ings
U uid
ĠM IN
and ro
comp atible
O l
Ġinfin ity
AS K
resource GroupName
- "
h dr
as List
ĠIn surance
Ġdr ift
L es
ern er
ĠEncycl opedia
18 5
ĠGard ens
Con trib
Ġcos mic
illi ant
M il
Mar shaller
ĠAmb assador
ĠSask atchewan
Ġc odec
Ġper f
State Exception
Ġge omet
Ġdis orders
Attr s
G s
Ġround ed
ĠLet ter
r p
ĠB UT
azel cast
Ġun a
Ġroll ing
s nap
Ġsup pressed
Ġautom ated
213 07
row ing
18 44
Ġb eneath
ĠV il
ff bb
odynam ic
ĠR aid
Ġoptim ized
ĠR achel
ĠN ine
Ġ' --
om aly
Ġphenomen a
M ime
Ġd ancing
ac ements
P en
Ġres umed
Fl ash
ersh ire
S dk
ĠAd miral
ĠEm ily
R ugby
Serial ized
ĠGrand e
m eter
ĠCond ition
Ġrom ance
J P
Ġwire less
U tility
ĠM ouse
und ant
sp ired
ĠSh ared
ĠTib et
ĠG tk
Ġgl u
ĠViet namese
ĠAn imal
ur istic
uis ine
Ġpregn ant
ĠTh anks
ĠSp ider
c in
Ġt ap
ĠP att
ĠVari able
vir t
Ġdisestab lishments
ĠNe uro
G esture
Ġj oy
ĠBro s
With in
Ġmet ropolitan
ĠApp ly
m q
Ġche ss
Match ers
ĠOt to
ADD R
ĠTw enty
mont on
ĠYan kees
he nd
ĠR ules
Dis covery
Ġb er
str ategy
ĠFl ash
v ation
Ġbacter ia
Ġrefuge es
H ouses
Ġsh ield
Ġinvent ory
> {{
ĠDes cribe
ĠDec ision
t ou
ĠTrans it
Ġorient ed
Ġtrav ers
Off ice
Ġnumer ic
ä¸ º
S on
Ġdi ab
FO UND
+ $
m ans
ĠFour th
ĠEs sex
Î ¬
ore ms
Ġpredominant ly
est rian
B IN
R TC
s uffix
ĠAn im
Ġlob by
Ġexecut ives
* (
ĠWil helm
Ġmidfield er
ĠTy ler
umber land
ĠMin i
Ġbrig ade
type Name
Ġpione er
ĠEx ternal
ĠTh an
und o
em e
Ġterm inus
ADD RESS
B a
assert Raises
Ġret reat
Ġacknowled ged
t ier
ble ms
Ġver se
Ġso ap
Ġsport ing
Ġauthor ization
Ġcou p
Ġel astic
comm unity
Ġind oor
L int
Ġh unt
ĠT D
ĠY uk
ĠM umbai
({ },
ĠPy Object
ĠH ur
ĠAut om
ĠR F
Ġsh aped
ĠESP N
ĠJul ia
ĠHar per
leq slant
Ġc ryst
vari ants
Ġselect ing
D am
ĠM ask
A verage
a qu
Un expected
ut ures
raw ler
ĠSpe aker
Ġv ow
At om
ĠFe atures
L iter
p ause
Ġadministr ator
ec a
ĠOut standing
OFF SET
ĠVlad imir
log s
Ġspeed s
Ex ports
it ize
S IG
Ġmask s
00 4
ĠAm endment
Express ions
con sumer
Ġaccompl ished
ĠS ullivan
ĠO ber
ĠOriginal ly
ĠPr ison
May be
Ġvar s
ĠJac ques
Ġdev ast
ĠPear l
av g
18 45
ĠRe ich
Ġphys ic
F ish
ent ric
Ġpoor ly
ĠMer it
Ġpress ed
C ENTER
Ġh ooks
' ></
ĠS of
proport ion
Ġv eloc
Ð¾Ð º
Ġh over
Ġin clusive
ĠD ynamic
ĠEngine ers
Ġch iral
=" .
IS H
d ac
Ġk nee
') [
S ar
ĠH ale
ĠCh an
us p
up pet
Ġpract ition
] "
Sh utdown
ĠC ome
CA SE
omb re
Ġoccurre nce
ep per
ros so
ĠCon cert
Ġab c
Am ong
go og
Ġtro ub
Mut ex
Ġt ips
Ġd atabases
Ġrock et
ĠS urre
>{ @
Inter op
Public ations
t ap
An swer
M gr
}{* }{
in el
Ġf ed
ĠS ed
Ð¾ Ð½
ĠR ice
ĠL it
os opher
Ġch rome
ĠImp act
Ġp ounds
Ġg ateway
Pl ane
h ls
Ġsurpr ised
x a
ĠL ac
Assert ion
Ġ$ <
ĠL ak
gr and
Ġw ore
Ġperman ently
lic al
Ġdebut s
Ġiter ate
ĠSalv ador
---------------------------------------------------------------- ----------
ĠCab inet
. {
Ġres ume
ĠArch ae
ĠA ires
u ition
ah u
Ġathlet ic
}) =\
Re peat
ĠAct ress
Ġnav igate
Ġf Ã¼r
ĠT all
ET A
Ġrele asing
Ġdig its
ĠBu ilt
S and
Ġbas in
be havior
Ġann ex
ĠS ul
ĠFellow ship
ĠMarc us
Ġanth rop
p ym
ĠInd igenous
ĠAss ume
Ġep ic
Ġmem oir
Ġbreed ing
Ð¾Ð ±
ĠEu clidean
ah oo
17 6
ĠRevolution ary
Ġt rem
| _
Contin ue
20 6
Ġqual ification
2 12
ĠH ass
by ter
Ġadvant ages
ĠF olk
Ignore Case
Ġsus cept
Ġg amb
Ġment ions
ĠJama ica
icy cle
ili ation
ĠDes ert
B all
Ðº Ð°
Ġuniqu ely
ĠS EC
Ð°Ð ´
Ĺ ãģ
om ar
s yn
Ġstud ios
un til
Ġdec ays
adi ents
ĠA ges
, ~
Ġdec ent
Ġund ers
le f
ĠP D
List en
As String
ĠK ra
lev ard
FE ATURE
Ġsubstantial ly
real m
ĠT iger
st ead
p index
ĠF ail
at ta
unt ary
ĠRena issance
ĠS ources
Ġmut ation
i ya
av o
Dis patch
ĠNap ole
Ġag gressive
ĠGr iff
Pl ugins
~~ ~
ĠPr ague
yl an
Ġfail ures
Tool Strip
G al
l ighter
Ġexpl oring
Ġdeterm inistic
ĠMan it
Ġc ele
Ġf ung
Ġun used
Code Attribute
h ydro
J av
ĠMig uel
ĠEx ped
ĠMethod ist
16 3
Ġsub sets
ĠN as
single ton
r ison
eck o
ĠH O
Ġi Phone
Ad just
Ġprox imity
Ġinter sect
it ic
ĠCon tract
assert That
P ak
RE ST
Thread s
cred it
Http Servlet
Mart in
/ :
e ah
ĠVol unte
L azy
Ġb ike
class Frame
bor o
Ġcapt ion
Ġswe ep
Ġw ars
Ġ} }</
ĠW idget
ĠIn iti
Ġst er
Ġline up
ash ing
ats u
ape ut
ì Ŀ
) ");
N ear
ĠEmer gency
ĠId entity
Ġdeform ation
Ġtoler ance
ĠU UID
ĠHe ights
Ap ple
AR GS
ĠSp ot
Ġaff ine
Request ed
Des ktop
ĠE c
Ġdifferent ly
Ġf unny
pect ives
ĠPan ama
Ġaffili ate
B H
m ud
( ',
M AT
if a
n ai
Ġp unk
"> =</
Ġcivil ians
prov ided
Ġres ize
ĠPo inter
ĠMathemat ics
Ġp d
Ġmark ers
Ġcal ibration
Ġg aining
ĠInnov ation
os ity
Ch ars
Ġachiev ing
P TS
S to
ĠIn spector
ang ered
ra ils
I FI
Ġ ^{\
ĠV ision
Ġinf ect
Ġm eg
ĠRe ce
Ġdepart ed
Ġc v
Ġpl ural
Ġcompr ising
> *
In ventory
prom pt
å ¸
ĠL akes
Ġdis placement
17 2
ĠM otion
Ġdro ps
Ġalloc ate
Print f
al in
Ġscatter ed
Ġult imate
c ia
ĠM ade
ĠD in
Ġterm inated
Ġl ac
ĠO g
N ick
in cre
Ġsimpl ified
Ġgu ards
ĠBl ake
hab ited
Ġs ou
Ġdiss olved
ÑĨ Ð¸
}} ,\
Coll ision
p ark
ĠA chiev
be it
ĠMark eting
el rte
Tr ust
ĠWe ather
Ġsc andal
ĠP ink
Ġdig est
Ġthrow ing
ĠU ntil
thumb nail
18 39
op r
Ġwork space
ĠCap itol
ĠPo etry
ĠG ir
Config ure
m eth
con tr
inem atic
Sort ed
ĠWinn ipeg
Out er
Ġl un
Ġabsor bed
J on
Ġb a
ict ions
ĠShe ffield
ĠG NU
Ġ ic
Des erial
Ġd ying
ĠF O
Ġamb assador
5 50
P ag
38 4
Ġimm igr
Ġfre ely
l ived
Ð ¡
BY TE
Ġcur riculum
MLE lement
ĠW riter
Ġnumber ed
WIN DO
CAC HE
aj i
Al ready
ĠG ol
et ched
Ġdiv orce
ext ended
ĠF an
Ġpit ched
Ġn ose
g art
amp ing
Ġcheck point
Ġemp ire
Pro jection
Ġtang ent
i ago
Ġge odes
Ġpoll ution
ast ics
ĠAdvis ory
ĠThrow able
ĠG ren
Col umb
MO VE
Ġt une
M ON
OUT PUT
get Node
Ġle ak
Ġaut onomous
Ġst ret
ild a
tes y
Ġbro ader
Ġfound ers
Ġb ats
map reduce
Le ave
ogen ic
dr ive
Ã ®
Ġun changed
Ġgu itars
inherit doc
ĠNav igation
k ers
ch ing
Ġunder graduate
Ġ/* !
add All
Ġachiev ements
Ġnom inal
cap acity
W ashington
on aut
iz za
ĠTh r
Ġast ro
ĠV II
Ġm ad
ĠM ob
ĠHop kins
g ateway
ĠC ounter
Pop ulation
Ġclass ifier
ĠS election
Ġcon formal
Ġtri ps
b road
Ġan omal
Ġread ily
Ġb is
ĠDav ies
ĠCr iminal
CLU DE
Mix in
form ula
Ġposs ibilities
Ġident ities
s amp
Char acters
Ġf reed
ber y
term inal
ĠE sc
Ad apt
b az
é Ĺ
ĠP FNGL
Ġcy clic
Â ®
Con nections
View port
Ġguarant ees
S equ
i ar
Ġre interpret
Pro blem
ç ī
pr im
ĠT ampa
Ġindex ed
Ġfif ty
avor ite
VAR I
Ġb ills
18 37
Ġsuper conduct
Work space
z ens
sp y
Ġnon zero
n is
At omic
b anner
big cup
un safe
ĠCh anges
Ġ'/ '
Ġrem arks
ĠX XX
ĠM ull
Ġt enth
Ġalt itude
ĠM T
Ġinduct ed
le z
G ram
ĠX X
M acro
Ġd otted
Ġstruct ured
Ġsqu ares
I ce
Ġjust ify
Ġle an
count s
Ġan ch
Ġcollabor ated
ĠF ake
TI M
Ġm p
ĠPrinc eton
h art
Ġreg isters
ĠST AT
Ġs word
rece iver
out ing
Ġmulti plication
Ġthe ad
Ġl oud
ĠI Enumerable
Ġt abs
Ġsal ary
Ġdrop down
j vm
ĠH i
ĠSl av
ĠP E
M Q
Ġparticip ant
ĠF ul
ĠPro blem
ĠPow ell
Action Bar
Ġathlet ics
D igital
Ġrecon c
Ġsql ite
ĠByz antine
| _{\
Ġm ice
Ġimag inary
Dep artment
Ġex iting
char At
Swed ish
Ġphil anth
ĠH arm
ĠRE ST
sh im
Amer ica
d g
ad ier
orph ism
Ġconstitu encies
Ġball ot
ĠC elebr
64 0
ĠHe at
Ġinter fer
ten ant
ĠY O
Ġcirc ulation
Ġcontr ary
Ġoptim ize
Ġdo zen
17 7
SNAP SHOT
h yd
her its
Ġm eter
\| ^
print s
Mod ify
Ġaccompl ish
Art icles
ĠS tra
B LE
=" __
open hagen
Ġe gg
Ġs its
Ġgather ing
Con cept
Exception s
Compar ator
Ġingred ients
ch ip
ĠSc ene
Ġaffect ing
to Array
80 80
Ġsw ing
ĠP ir
Ø ´
! ,
ĠP apers
Cor rect
ĠE S
Ġnation wide
G reek
ĠJ unction
Ġar ises
18 38
ĠF eed
R NA
Ġwe igh
Ġlocal ization
an imated
Ġch ore
Ġintegr ate
Ġseek s
Ġwarn ed
ĠA ub
Rep orter
N atural
Ġline arly
Ġhar ass
Ġpian ist
sh utdown
Instance State
Ġterr ain
Ġutil ized
ĠPublic ations
Quant ity
Ġcollect or
P ier
Ġinf ected
Ġd os
ĠW ire
Ġend points
Ġtrans mitted
Ġwork shop
ĠSus sex
Ġrecommend ation
ĠPalest inian
ĠC V
Ġ Ñĥ
ĠF antasy
parse Int
Ġsever ely
ĠPun jab
H op
Ġsi ege
Ġfor um
L ee
Ġbul let
inter est
type col
" ):
z n
aver age
Ġjoint ly
ut sche
am as
Not ice
Des criptors
Ch ief
Op code
Ġpoly mer
ĠCh ern
work space
elect ron
ĠUn known
Ġdies el
ĠD eveloper
fore ign
Observ able
E th
level s
Ġrot ating
Ġisol ation
Ġf t
sub equations
Ġtra its
Ġhuman ity
Ġprom ises
Ġdemand ed
P et
Ġn umpy
Job s
Fin ish
Foreign Key
un used
xx x
Ġk iller
Ġn u
Ġfore ver
Ã ²
Ġsub stance
ath a
Ġ{ $\
Ġb ell
set Property
ro uting
ĠW ey
Ġs sl
sh i
ĠC yr
ĠD uck
St eps
ĠBes ides
23 4
f illed
ĠB elf
Ġad mission
Ġop inions
18 12
Ġdis joint
wik ipedia
m ob
Ġ' *
> ");
m and
Ġsol it
Ġlo ose
ĠÃ ĸ
ĠW arriors
ĠSe pt
ĠBet ter
ĠHe aven
Ġe leg
18 20
Ġcorn ers
ĠMal ta
Ġfor ty
light s
Ġexceed s
re pos
DE CL
Ġkil ometers
Ġm oll
t oday
Co ordinate
effect s
Second ary
int endent
ne um
Ap ache
Ġsegment ation
Ġscreen play
Ġsurviv ors
Ġ/** <
ĠÂ ·
Ġabort ion
pare n
rend ering
ivari ate
> ")
K HR
c ro
Sim ilarly
ĠKaz akh
ch r
i our
av ern
H y
Ġcho ir
PI O
Ġquot ient
As ian
node Type
Ġfor k
Ġrecon structed
ĠD ES
zeg ovina
p md
am bo
st en
ar is
anc a
ĠFr anz
Str ict
Ġs q
prot ect
Ġveloc ities
ĠL ayer
Ġev t
Ġcyl inder
ĠBrook s
Ġ"\ "
MA IL
Ġjournal ism
on ne
ir y
INTERN AL
ĠC LI
ĠNiger ian
ĠYugosl avia
ĠPro to
be am
M N
Ġr iders
ĠMaur ice
y outube
en ium
DI F
ĠBat man
/ ?
ĠEll is
ĠB irth
ME DI
e o
log y
we ets
ae us
Ġunder go
Ap J
kin son
Ġret ro
Ġw are
con cept
normal ized
Comp ilation
L os
Ġlink ing
Ġbox ing
Ġmist ake
Ġbe ars
U X
ynt hetic
Ġdemocr atic
Ġspe aks
ĠW inds
ĠCard inal
ĠAn a
p ics
ĠG and
Ġcontrad iction
Ġb uck
ĠF lem
W IDTH
PHP Excel
Ġbright ness
ĠAssoci ate
st re
Rem oved
A cknowledg
ĠIndones ian
Ġpush ing
Ġb ol
DE SC
ĠValid ation
Ġinteract ing
f h
âĢĵ âĢĵ
im ony
") ),
ĠAd min
ĠCol in
Pol ygon
er ance
ĠSom erset
Ġt a
CUR RENT
pop over
eval uate
Ġr ifle
Ġcor por
Ġmatch er
Ġtw ist
Ġbi ology
Tr im
ĠQu ick
ĠInd ividual
Ġload s
16 2
ott ing
ĠTo o
ac ier
ll er
Ġvol atile
Ġs iblings
We ak
Ù Ĭ
Ġb uffers
f oundation
Heading Color
Ġs hed
Ġmin eral
Or Builder
pred icate
ĠT ensor
fo od
US H
ĠLeg ion
mat ched
ĠFinal s
ut ility
ch ars
Aggreg ate
ĠF R
Ġpresent ing
iff e
Ġcount ed
ĠCorn wall
Ġelse if
Ġstri kes
iev e
ĠP K
AT IVE
LOC ATION
ed uc
Ġserial ize
Ġpart itions
Ġsett le
T CP
Ġb achelor
ĠE ve
ĠBu enos
oy a
Ġwild life
ĠIn side
Pol ish
l os
ĠCl aim
AR M
und ef
/* .
ĠLithuan ia
any on
k ubernetes
Ġval ued
if ace
': '
ĠRe ader
mark down
ĠF LA
R ing
ĠR C
16 1
LOB AL
è §
Ġin duces
ĠF ri
Ġsim pler
Ġeng aging
Ġwe aken
ĠSh are
da o
Ġmode led
Tool tip
udd y
6 55
enc oder
Hash Code
ĠJohann es
sort ed
osph ere
track er
Trans late
ĠB S
40 3
ĠCa uc
Ġboot strap
Ġhop ing
Ġl oves
ĠR S
en za
ĠArray s
A MS
ĠPack ages
Qu ota
^* _
ĠAdvent ure
ass igned
Ġv ault
Ġmer c
| =
ĠH R
filter ed
photon ui
hill dev
ĠML B
orange hilldev
Ġaver aging
x si
list eners
ĠQu estion
rele ases
Ġarchae ological
Ã¨ s
Ġre write
Ġtraject ories
ĠDivis iÃ³n
Ġst uck
ĠGu illaume
ap pe
++ ]
Ġtouchdown s
w ml
Ġcol ored
00 7
Ġperform ers
Ġkid n
ĠM ER
io x
R ever
Ð¾ ÑĤ
Ġinvest ments
Comp ile
ĠEvent ually
Ġemb ark
ĠEthiop ia
. },
W at
ug o
Ġtool tip
Ġre plica
Un incorporated
Ġpri ests
u pe
Ġde ce
Ġhe ll
/ ************************************************************************
B s
O VER
ĠD evelop
Ġad mit
dis c
ĠLe ave
IT EM
Cur ve
Ġancest or
cite alt
Ġl od
ĠM BA
ĠI v
ĠP om
ĠD ynam
Ġdown stream
Ġconfer ences
ENABLE D
all a
Ġf ame
18 41
30 6
Dir ty
SE D
Doc uments
Ġun incorporated
G lob
m us
Ġcor ps
Arch itecture
alloc ate
l azy
Ġk ills
Ġsub section
Ġren owned
Ġsoph istic
r k
RE SOURCE
ULK AN
Ġdel ight
æ Ģ
Ġacadem y
Ġtor ped
Ġ{ :
ĠDist inguished
ed ed
ĠI BM
urre nc
SP H
Ġab olished
erd in
ĠBi ography
b urst
v iv
ĠS ort
St and
illi an
f re
ĠG ill
17 8
Ġvic inity
is p
ĠJ oin
ĠC ann
ad vant
param ref
Ġc oding
od ia
ĠE ye
IN X
ĠMet adata
em o
Ġ* =
ĠG Ã¶
Ġqu otes
Ġre build
^+ $
n at
ef orm
isc opal
Ġpregn ancy
Ġs f
ore n
LI ED
Ġdim in
Ġprem ium
Ġfeas ible
ĠInitial ly
Ġtim eline
Ġinstit ute
Ġprotect ing
:: _
Sec ure
erg us
Ġweak ly
Ġtr act
26 3
spe aking
Ġh oped
Ġrelax ation
initial ized
Pro b
Def initions
charg ed
ĠB anks
ĠMult iple
ĠSpec ifies
ĠRE G
ĠRon ald
Ġl iver
Ġdo i
Ġbe aring
ĠRichard son
search Box
ĠGit Hub
Ġincorpor ate
Ġstep ped
Direct ive
ER O
Ġup graded
ĠPak istani
Ġelli ptic
ĠM old
y ang
Ġs moke
Ġmark ing
ĠIraq i
D K
ĠPlay Station
N M
at trib
Spec ification
%%%%%%%% %%%%%%%%
Ġl ifestyle
Ġt m
ol ith
ĠH urricane
ĠGe off
ĠJer emy
P ur
ĠEx hibition
col lections
r idden
Work ing
m ons
Ġre dis
ĠB SD
act ing
Ġcomm enced
ĠT ouch
Ġ{ !
un ting
Ġv endor
Ġ[ `
ĠIs le
ãĥ Ī
Ġh ull
n h
Ġform ulas
min is
Ġrecru ited
Ġadapt ive
ull ah
Ġh ab
ĠWest minster
ĠR ut
Ġtorn ado
ount ers
ĠProv incial
ĠP sy
St an
18 35
Ġlux ury
el ong
with in
ĠAcadem ic
ĠDev il
Ġtreat ments
V ersions
ik er
v d
18 7
ĠA part
ĠB ind
Ġbeat en
F ood
f u
Ġc anceled
To o
ĠQ CD
ĠExec ute
Ġk iss
d atas
Ġbr ut
ĠT ell
Ġen orm
Ġdwar f
23 5
ĠT ip
ĠH us
Ġfeed ing
w ear
Ġa ws
ĠK arn
Ġcontrib utor
Ġm g
18 2
ĠCl a
pl ating
M ic
P ot
Ġgrand son
Ġsl ots
ĠDo ctrine
CP P
Ġqu ota
Ass ume
comple tion
LE ASE
Ġisol ate
U ng
20 9
Ġf iscal
omet own
ĠSp ark
Ġc avalry
Ġclip board
( |
te in
B uffers
Sim ilar
Ġpack ets
Ġsear ches
enti eth
$ "
ĠInter view
ĠK ot
ĠEl se
constr aints
R ele
pe st
Ġx s
ĠPre Arg
ĠCh ad
ĠCal gary
ĠCy cl
ct uary
00 000
DIS ABLE
ĠNAT O
ph on
Class ification
ĠD ale
Ġim pression
od ium
18 36
ĠBr as
ĠN ottingham
ĠArmen ia
requ ires
ĠDe al
Ġtri o
ĠVAL UE
ject ive
ne apolis
Ep isode
Ġm ood
Ġal arm
Ġprevent ing
ĠV ER
Ã© m
Ġcyl ind
ĠBry an
Ġsent iment
ĠSum mit
C urrency
ĠE T
H ASH
Ġcon form
ĠGi ov
alyt ic
al an
Out Of
Ġa cknowledge
ĠS aw
VER TEX
Ġt il
Ġc rypto
ĠAndrew s
ĠH ousing
pro duced
ĠDr ug
You ng
harm onic
ĠV ery
Part icle
>. <
C le
Ġ? ></
ĉĉĉĉĉĉĉĉ ĉĉĉĉĉ
system s
ib lical
Publish er
EN S
Ġem itted
be k
He art
d oxygen
RO WS
Ch ris
ĠKenn eth
ĠBa iley
ĠH aven
ĠCon v
Ġmod est
heim er
k b
Ä ĵ
ple ctic
Ġconsum ed
set Name
ĠChel sea
ĠAb b
Ġconn ector
starts With
16 4
Ġproof s
P ull
Ġan ger
18 32
AL LOW
ĠHind i
ĠLe ic
com puter
W ood
Ġc avity
qu ark
ord ion
E scape
ĠO z
br ains
: ",
Ġc arn
ĠB H
Ġdisappe ared
ĠD uncan
Ġ ----------------
CK S
ĠM R
Ġreleg ated
Ġ' ;
Ġresearch er
ĠAuth ors
Acc eler
SET T
Ġtrail er
superv ised
ĠC ool
ĠC rist
Ġun con
Ġc ognitive
ĠB od
Ġche ap
ar u
Ġvocal ist
18 43
ĠEx pr
Und efined
m otion
not in
ĠRem ember
Ġrev ival
Ġproceed ings
li o
åĲ į
j om
ĠCon sumer
cell s
valid ators
ĠPl ate
Ġfar ms
Ġhard er
Ġrenew ed
Ġl hs
Ġdes per
28 8
Ġox id
O H
ĠS ame
D TO
Ġre bell
Ġco res
found ed
ic ion
est imate
(' -
em ption
get All
Ġb ins
Ġdir ty
Ex act
Col on
ĠLo op
PO M
Ġ ist
Ch apter
ĠR even
Ġdest ruct
2 15
Ġlo ans
draw er
"> [
Ġ} {\
FORE ACH
ĠE RA
1234 567
ch ief
:: ~
Tim eline
w at
ĠOr lando
stan bul
re ne
ch air
Ġsign atures
Ġpron ounced
Ar thur
Target s
Ġjud icial
Ġpra ise
' ",
Ġ iv
Ġ ------------------------------------------------
ĠGu ards
it Ã©
dis miss
Re plication
Gu ard
ĠU int
ĠBr ussels
Y M
Ġa er
Initial izer
Ġrem n
Ġbal anced
Dem ocratic
dig est
Ġdirect ories
C os
ĠHer zegovina
d evelopment
ĠA ch
Ġun anim
ĠBr ain
Ġ[ ])
Ġtrans ient
Red is
ĠA DD
lev ant
Ġfl ank
Ġn od
pent aho
n or
å Ģ
Ġ( &
á ¸
ep a
ter bury
Ġp unct
ĠV ern
activ ation
ĠLux embourg
ugg ed
è¡ Į
enc rypted
ĠA GN
ĠAbd ul
L ie
ĠMon itor
30 3
}_{ (
t te
Ġproject ive
sp lice
Pol itics
Polit icians
Ġvan ishes
mar shall
Ġsav ings
ĉĉĉ čĊ
dec imal
Ġcontrib utors
ĠClin ical
ate ful
30 2
ĠLead ership
Ġenzym e
ac s
ĠR FC
subNav List
ĠLett ers
et ches
cl ub
Ã± o
ĠMic he
r ass
G reg
ĠP UR
Ġpr ayer
DE C
Ġr ape
ten ess
EO F
Ġbomb ing
ĠB in
al ong
ĠWh ich
In crement
che z
LA ST
Ad s
is le
eb e
Ġdead line
UB LE
ĠĠ ĉ
Ġwhe els
R h
æ Į
al go
ĠM aps
ĠR ush
ĠA A
ĠT ools
ĠMor occo
Ð» Ð¸
t el
ĠS ustain
ĠM ang
Ġr v
Ġarchitect s
ĠĠĠĠĠĠĠĠĠĠĠĠĠĠĠĠĠĠĠĠĠĠĠĠĠĠĠĠĠĠĠĠ ĠĠĠĠĠĠĠĠĠĠĠĠĠĠĠĠĠ
num bers
Right arrow
6 50
ĠO thers
ĠFor ward
Ġmolec ule
ĠG othic
ml abel
) `
ĠMar in
ĠMax well
ĠGl enn
] ):
stat istics
pe x
ĠCont est
Ġmidfield ers
Ġtransform s
Ġfre ight
Ġd ivers
ĠDomin ican
Ġext inct
Ġevent ual
ĠGL sizei
end e
co ordinate
Ġw ound
ĠE du
Ġj ets
AN Y
Ġpun ishment
ĠIndian apolis
Ġcul min
ĠM ile
so ftware
Ġar ising
Ġsim ulate
Ġincred ible
ĠM iles
ĠN umer
rid or
ific ant
ĠLou ise
pro ducer
ĠLe af
Ġsuccess ion
ĠChar ter
s ynopsis
get Path
Ġext inction
j in
18 42
Ġs oc
unic ode
ĠCurt is
} ~\
Ġreason ing
Ġbroadcast s
st ones
ĠC ould
Ġgrad uation
ĠDefault s
ĠV iv
m ol
ĠCh ase
Ġpass ive
Ġp ig
Ġl ady
user Agent
Sc anner
ĠHend erson
J oe
oll ar
ĠP aint
Ġvar char
ĠPro of
govern ment
Ġderiv ation
ĠStat ement
v oice
ĠG B
yst er
Character Offset
der iv
ãĤ ĭ
æĸ °
> ]
Ġb out
17 4
p q
ist on
Ġ ../../../
Ġrevers ed
host s
can onical
Ġfall back
Ġuser Id
eg el
ĠTr uth
Ġjudg ment
og an
ap or
Ġmyst erious
Ġexp ense
Ġqu ad
ĠEx tract
Ġdis ks
Enc ryption
Ġnovel ists
Ġcomp ressed
Ġcounter part
itt ers
ĠĠĠĠĠĠĠĠĠĠĠĠĠĠĠĠĠĠĠĠĠĠĠĠĠĠĠĠĠĠĠĠ ĠĠĠĠĠĠĠĠĠĠĠĠĠĠĠĠĠĠĠĠĠĠĠĠĠĠĠ
la us
ĠPop ular
ĠCub an
Ġ" __
ash ire
ĠM emph
TE MPLATE
Ġdream s
ĠSol omon
ĠS ever
ĠC openhagen
ĠU C
Pl ain
Ġsuccess ive
ĠC amera
Ġen velope
\| _{\
Ġacc red
cal culate
R anges
å ±
col One
ĠGen eva
I OS
Ġo ps
R oll
an mar
-- ">
Ġpre y
! )
Ġl ad
Hash Set
' -
Ġn ights
ex clusion
Base ball
ĠMon o
Ġlegend ary
LE T
Ġseem ingly
V ictor
Ġconstruct ing
Ġmob ility
Ġrefer endum
Ġcell ular
g ms
Fl at
ĠSim pson
Ġed u
ĠFranc o
= (\
Ġ ions
ĠAl loc
Loc ations
F ellow
P B
}) -
ĠArm strong
FAIL URE
3 40
get Int
Ġin cent
Ġtr apped
Ġdisc overs
ro bot
Ġv a
Ġconnect ivity
$ _{\
ĠC ertificate
Ġsuggest ions
Ġtheat rical
Ð» Ñı
å ¹
ast ing
p ix
Ġen force
Ġconcentr ations
Ġexp ired
ĠP rec
Ġpres ervation
in ria
ĠS afe
Ġenc rypt
BU F
Ġimprison ed
ĠAr ctic
~~~~~~~~ ~~~~~~~~
el if
Te X
ĠU rl
M oney
Ġl ar
Q Name
ĠCom mercial
form atter
Inf os
ĠP ool
year s
Ġhon ored
Ġstrugg ling
ann ers
node Name
Ġrevolution ary
ĠT ir
Ġact ivate
Ġs ake
ic ia
Ð ¶
ib e
Ġc ouncill
ĠH AVE
af a
K B
ian e
ĠD ob
le ys
Ġ" ../
ĠK yle
Data Set
oca ust
Ġmethod ology
ĠUr ugu
ĠSo ft
xi ety
Ġ ].
col m
skip Nav
ĠSign al
ĠRail ways
}. \
ĠCor p
Ġim pressed
B rien
ĠS plit
c ards
ĠSher iff
Camp aign
ab lo
ĠMed ic
ĠMc Donald
Ġâ ĪĴ
y on
Ġrec ursive
Act ual
60 1
ĠP am
Direct or
}} =\
Ġtarget ing
Ġdoll ar
Ġcompar isons
ĠGl ou
ĠM Ã©
Ġres ist
B uck
} ">
ol ics
Ġro ok
Ġget Name
Ġcommun ist
Ġadv ances
ĠPal m
Ġmort ality
ENT S
Ġhar vest
ãĢ ģ
æķ° æį®
H I
or ious
ĠA CE
M ike
ng th
Rec all
cloud flare
Ġunder went
ĠStr ategy
Ġcomed ian
ac cel
Ġdemonstr ation
war z
ĠCall back
B ol
Ġcap ac
at is
up grade
Ġcolon ies
Ġx hr
ĠOpen SSL
ĠTechn ologies
ĠMemph is
A h
g lass
Ġsp ont
Ġquant itative
er es
ram id
Ġutil ize
Ġevery day
files ystem
rott le
= {\
Ġadv ised
r ases
Ġh ack
ĠM uk
ĠL odge
Ġsub tract
Bound ing
Broad cast
aff ected
Ġpotential s
ĠR i
associ ated
Ġleg isl
ag ic
ĠLeg islature
Ġhom ot
ĠC lement
Ġes lint
Ġproceed s
ĠGib son
Ġad equate
In side
M arg
ĠRev ision
focus ed
Ġinvestig ating
æĸ ¹
Dig est
Ġgu ided
ic ers
Ġsur veillance
res olver
ĠW ant
ĠAl bums
ION S
ĠÐ½ Ð°
Ġon mouse
ĠStart ing
Product s
UNK NOWN
gl Get
Track ing
ĠBou levard
ĠEx port
GL uint
d ictionary
Ġs printf
eg ree
ĠGu ang
V an
cer pt
F requency
v k
op a
clean up
re ction
ĠIll ustr
åĬ ł
Ġinvent ed
ĠP orter
Writ able
ĠA way
ĠIn g
Ġtrav elling
R ating
st a
le igh
un al
ĠTre nt
] /
ĠG lobe
ĠS hen
que z
Ġal umin
Ġsem antics
P ick
Ġwar fare
mock ito
pl aces
c oc
Ġs ew
Ġobserv ing
pre ttify
Ð½ Ð°
Ġdis pers
ĠSh ape
Ġch orus
test Data
Un install
Ġnumer ically
d up
ĠN ortheast
Ġf lip
M ixed
ĠC IA
ĠM OD
Ġres iding
Ġglyph icon
Ġadv isor
ĠW IN
est a
q t
en umer
roup ed
} ',
Ġvict ories
Ġhum or
hen e
reg ation
Ġcook ing
contain ing
ĠMerc ury
Ġ( .
Ġcon jecture
R ULE
Ġatmosph eric
it ian
kn ow
; :
ĠF unc
. ">
ĠMe eting
LO T
ĠI con
Ġrel ate
Buffer ed
+ |
ĠS equence
oc cup
ass ignment
Ġstr len
r ically
dis crete
atern ity
ĠGram my
Ġ{ &
model Version
Ġtransl ator
ĠG ov
Ġwh it
ĠF emale
Ġindex es
Ġ[ ...]
[...]
