{
  "version": "1.0",
  "truncation": null,
  "padding": null,
  "added_tokens": [
    {
      "id": 0,
      "content": "[UNK]",
      "single_word": false,
      "lstrip": false,
      "rstrip": false,
      "normalized": false,
      "special": true
    }
  ],
  "normalizer": null,
  "pre_tokenizer": {
    "type": "Sequence",
    "pretokenizers": [
      {
        "type": "Digits",
        "individual_digits": false
      },
      {
        "type": "ByteLevel",
        "add_prefix_space": false,
        "trim_offsets": true,
        "use_regex": true
      }
    ]
  },
  "post_processor": null,
  "decoder": null,
  "model": {
    "type": "BPE",
    "dropout": null,
    "unk_token": "[UNK]",
    "continuing_subword_prefix": null,
    "end_of_word_suffix": null,
    "fuse_unk": false,
    "byte_fallback": false,
    "vocab": {
      "[UNK]": 0,
      "!": 1,
      "\"": 2,
      "#": 3,
      "$": 4,
      "%": 5,
      "&": 6,
      "'": 7,
      "(": 8,
      ")": 9,
      "*": 10,
      "+": 11,
      ",": 12,
      "-": 13,
      ".": 14,
      "/": 15,
      "0": 16,
      "1": 17,
      "2": 18,
      "3": 19,
      "4": 20,
      "5": 21,
      "6": 22,
      "7": 23,
      "8": 24,
      "9": 25,
      ":": 26,
      ";": 27,
      "<": 28,
      "=": 29,
      ">": 30,
      "?": 31,
      "@": 32,
      "A": 33,
      "B": 34,
      "C": 35,
      "D": 36,
      "E": 37,
      "F": 38,
      "G": 39,
      "H": 40,
      "I": 41,
      "J": 42,
      "K": 43,
      "L": 44,
      "M": 45,
      "N": 46,
      "O": 47,
      "P": 48,
      "Q": 49,
      "R": 50,
      "S": 51,
      "T": 52,
      "U": 53,
      "V": 54,
      "W": 55,
      "X": 56,
      "Y": 57,
      "Z": 58,
      "[": 59,
      "\\": 60,
      "]": 61,
      "^": 62,
      "_": 63,
      "`": 64,
      "a": 65,
      "b": 66,
      "c": 67,
      "d": 68,
      "e": 69,
      "f": 70,
      "g": 71,
      "h": 72,
      "i": 73,
      "j": 74,
      "k": 75,
      "l": 76,
      "m": 77,
      "n": 78,
      "o": 79,
      "p": 80,
      "q": 81,
      "r": 82,
      "s": 83,
      "t": 84,
      "u": 85,
      "v": 86,
      "w": 87,
      "x": 88,
      "y": 89,
      "z": 90,
      "{": 91,
      "|": 92,
      "}": 93,
      "~": 94,
      "¡": 95,
      "¢": 96,
      "£": 97,
      "¤": 98,
      "¥": 99,
      "¦": 100,
      "§": 101,
      "¨": 102,
      "©": 103,
      "ª": 104,
      "«": 105,
      "¬": 106,
      "®": 107,
      "¯": 108,
      "°": 109,
      "±": 110,
      "²": 111,
      "³": 112,
      "´": 113,
      "µ": 114,
      "¶": 115,
      "·": 116,
      "¸": 117,
      "¹": 118,
      "º": 119,
      "»": 120,
      "¼": 121,
      "½": 122,
      "¾": 123,
      "¿": 124,
      "Â": 125,
      "Ã": 126,
      "Ä": 127,
      "Å": 128,
      "Æ": 129,
      "Ç": 130,
      "È": 131,
      "É": 132,
      "Ê": 133,
      "Ë": 134,
      "Ì": 135,
      "Í": 136,
      "Î": 137,
      "Ï": 138,
      "Ð": 139,
      "Ñ": 140,
      "Ò": 141,
      "Ó": 142,
      "Ô": 143,
      "Õ": 144,
      "Ö": 145,
      "×": 146,
      "Ø": 147,
      "Ù": 148,
      "Ú": 149,
      "Û": 150,
      "Ü": 151,
      "Ý": 152,
      "Þ": 153,
      "ß": 154,
      "à": 155,
      "á": 156,
      "â": 157,
      "ã": 158,
      "ä": 159,
      "å": 160,
      "æ": 161,
      "ç": 162,
      "è": 163,
      "é": 164,
      "ê": 165,
      "ë": 166,
      "ì": 167,
      "í": 168,
      "î": 169,
      "ï": 170,
      "ð": 171,
      "ñ": 172,
      "ó": 173,
      "ô": 174,
      "Ā": 175,
      "ā": 176,
      "Ă": 177,
      "ă": 178,
      "Ą": 179,
      "ą": 180,
      "Ć": 181,
      "ć": 182,
      "Ĉ": 183,
      "ĉ": 184,
      "Ċ": 185,
      "ċ": 186,
      "Č": 187,
      "č": 188,
      "Ď": 189,
      "ď": 190,
      "Đ": 191,
      "đ": 192,
      "Ē": 193,
      "ē": 194,
      "Ĕ": 195,
      "ĕ": 196,
      "Ė": 197,
      "ė": 198,
      "Ę": 199,
      "ę": 200,
      "Ě": 201,
      "ě": 202,
      "Ĝ": 203,
      "ĝ": 204,
      "Ğ": 205,
      "ğ": 206,
      "Ġ": 207,
      "ġ": 208,
      "Ģ": 209,
      "ģ": 210,
      "Ĥ": 211,
      "ĥ": 212,
      "Ħ": 213,
      "ħ": 214,
      "Ĩ": 215,
      "ĩ": 216,
      "Ī": 217,
      "ī": 218,
      "Ĭ": 219,
      "ĭ": 220,
      "Į": 221,
      "į": 222,
      "İ": 223,
      "ı": 224,
      "Ĳ": 225,
      "ĳ": 226,
      "Ĵ": 227,
      "ĵ": 228,
      "Ķ": 229,
      "ķ": 230,
      "ĸ": 231,
      "Ĺ": 232,
      "ĺ": 233,
      "Ļ": 234,
      "ļ": 235,
      "Ľ": 236,
      "ľ": 237,
      "Ŀ": 238,
      "ŀ": 239,
      "Ł": 240,
      "ł": 241,
      "Ń": 242,
      "ĠĠ": 243,
      "ĠĠĠĠ": 244,
      "in": 245,
      "Ġt": 246,
      "er": 247,
      "on": 248,
      "Ġa": 249,
      "he": 250,
      "re": 251,
      "at": 252,
      "en": 253,
      "or": 254,
      "st": 255,
      "Ġthe": 256,
      "an": 257,
      "al": 258,
      "ĠĠĠ": 259,
      "it": 260,
      "ar": 261,
      "Ġc": 262,
      "ĠĠĠĠĠĠĠĠ": 263,
      "le": 264,
      "ion": 265,
      "Ġs": 266,
      "Ġo": 267,
      "ed": 268,
      "es": 269,
      "is": 270,
      "Ġf": 271,
      "Ġw": 272,
      "ic": 273,
      "Ġp": 274,
      "ing": 275,
      "ro": 276,
      "Ġin": 277,
      "nd": 278,
      "as": 279,
      "Ġb": 280,
      "Ġof": 281,
      "et": 282,
      "ct": 283,
      "ou": 284,
      "Ġd": 285,
      "ent": 286,
      "Ġm": 287,
      "am": 288,
      "Ġand": 289,
      "el": 290,
      "Ġto": 291,
      "il": 292,
      "ĠĠĠĠĠĠĠ": 293,
      "om": 294,
      "Ġre": 295,
      "Ġh": 296,
      "Ġn": 297,
      "id": 298,
      "ĠS": 299,
      "Ġ(": 300,
      "ol": 301,
      "ation": 302,
      "ac": 303,
      "ig": 304,
      "ur": 305,
      "Ġ=": 306,
      "Ġth": 307,
      "im": 308,
      "ĠC": 309,
      "ĠT": 310,
      "</": 311,
      "ut": 312,
      "ad": 313,
      "ĉĉ": 314,
      "ot": 315,
      "ĠA": 316,
      "iv": 317,
      "Ġl": 318,
      "Ġe": 319,
      "se": 320,
      "=\"": 321,
      "ce": 322,
      "od": 323,
      "ag": 324,
      "ul": 325,
      ");": 326,
      "th": 327,
      "if": 328,
      "Ġ<": 329,
      "--": 330,
      "ĠM": 331,
      "Ġ$": 332,
      "un": 333,
      "em": 334,
      "Ġ{": 335,
      "ch": 336,
      "Ġis": 337,
      "ay": 338,
      "Ġg": 339,
      "Ġ\\": 340,
      "ers": 341,
      "ow": 342,
      "Ġfor": 343,
      "Ġv": 344,
      "us": 345,
      "um": 346,
      "pe": 347,
      "ĠI": 348,
      "ab": 349,
      "Ġst": 350,
      "ĠĠĠĠĠĠĠĠĠĠĠ": 351,
      "ate": 352,
      "ist": 353,
      "ĠP": 354,
      "čĊ": 355,
      "ĠB": 356,
      "oc": 357,
      "tr": 358,
      "ly": 359,
      "ass": 360,
      "ir": 361,
      "ap": 362,
      "qu": 363,
      "Ġon": 364,
      "//": 365,
      "ith": 366,
      "ter": 367,
      "ex": 368,
      "Ġ*": 369,
      "Ġbe": 370,
      "20": 371,
      "Ġcon": 372,
      "ht": 373,
      "ame": 374,
      "ĠR": 375,
      "ction": 376,
      "pt": 377,
      "av": 378,
      "ĠH": 379,
      "ĠD": 380,
      "and": 381,
      "Ġ\"": 382,
      "Ġas": 383,
      "âĢ": 384,
      "est": 385,
      "ver": 386,
      "\">": 387,
      "ĠF": 388,
      "ĠL": 389,
      "ub": 390,
      "end": 391,
      "Ġ}": 392,
      "19": 393,
      "ew": 394,
      "res": 395,
      "lass": 396,
      "ĠN": 397,
      "ue": 398,
      "ri": 399,
      "ef": 400,
      "Ġwith": 401,
      "up": 402,
      "ess": 403,
      "op": 404,
      "ort": 405,
      "age": 406,
      "Ġal": 407,
      "ĠG": 408,
      "ain": 409,
      "our": 410,
      "ĠĠĠĠĠĠĠĠĠĠĠĠĠĠĠĠ": 411,
      "Ġwas": 412,
      "Ġthat": 413,
      "os": 414,
      "ĠW": 415,
      "rom": 416,
      "ĠThe": 417,
      "ĠE": 418,
      "li": 419,
      "Ġan": 420,
      "Ġwh": 421,
      "ĠĠĠĠĠ": 422,
      "Ġpro": 423,
      "Ġby": 424,
      "ect": 425,
      "()": 426,
      "ity": 427,
      "ine": 428,
      "art": 429,
      "nt": 430,
      "ath": 431,
      "urn": 432,
      "sp": 433,
      "Ġr": 434,
      "Ġcom": 435,
      "ore": 436,
      "ment": 437,
      "**": 438,
      "Ġex": 439,
      "ec": 440,
      "Ġat": 441,
      "ere": 442,
      "all": 443,
      "og": 444,
      "Ġit": 445,
      "Ġclass": 446,
      "ack": 447,
      "ĠO": 448,
      "iz": 449,
      "ke": 450,
      "ext": 451,
      "ight": 452,
      "pl": 453,
      "ĠJ": 454,
      "Ġor": 455,
      "_{": 456,
      "..": 457,
      "eg": 458,
      "ies": 459,
      "able": 460,
      "Ġfrom": 461,
      "ult": 462,
      "==": 463,
      "port": 464,
      "ĠĊ": 465,
      "ans": 466,
      "turn": 467,
      "ial": 468,
      "ype": 469,
      "----": 470,
      "ure": 471,
      "ile": 472,
      "ud": 473,
      "ang": 474,
      "ive": 475,
      "ant": 476,
      "ber": 477,
      "Ġthis": 478,
      "Ġ'": 479,
      "per": 480,
      "Ġ&": 481,
      "ode": 482,
      "str": 483,
      "get": 484,
      "ref": 485,
      "con": 486,
      "ill": 487,
      "00": 488,
      "Ġif": 489,
      "Ġtr": 490,
      "Ġhe": 491,
      "Ġare": 492,
      "ep": 493,
      "ĠU": 494,
      "ld": 495,
      "orm": 496,
      "ast": 497,
      "ary": 498,
      "int": 499,
      "ĠĠĠĠĠĠĠĠĠĠĠĠĠĠĠ": 500,
      "'s": 501,
      "In": 502,
      "Ġy": 503,
      "ip": 504,
      "ated": 505,
      "act": 506,
      "ov": 507,
      "ard": 508,
      "lic": 509,
      "ord": 510,
      "und": 511,
      "Ġch": 512,
      "are": 513,
      "Ġ-": 514,
      "ff": 515,
      "ind": 516,
      "ase": 517,
      "ption": 518,
      "ata": 519,
      "ev": 520,
      "ĠK": 521,
      "ug": 522,
      "{\\": 523,
      "ib": 524,
      "ire": 525,
      "ign": 526,
      "ia": 527,
      "Ġle": 528,
      "com": 529,
      "),": 530,
      "ace": 531,
      "Ġ</": 532,
      "Ġ//": 533,
      "Ġreturn": 534,
      "The": 535,
      "ition": 536,
      "ich": 537,
      "ak": 538,
      "ite": 539,
      "ĉĉĉĉ": 540,
      "to": 541,
      "ong": 542,
      "Ġsh": 543,
      "ost": 544,
      "../": 545,
      "pro": 546,
      "::": 547,
      "ell": 548,
      "Ġpl": 549,
      "Ġnot": 550,
      "alue": 551,
      "cl": 552,
      "ject": 553,
      "out": 554,
      "Ġwe": 555,
      "Ġse": 556,
      "ser": 557,
      "ime": 558,
      "->": 559,
      "ĠIn": 560,
      "201": 561,
      "ource": 562,
      "ph": 563,
      "ĠV": 564,
      "ge": 565,
      ").": 566,
      "âĢĵ": 567,
      "ide": 568,
      "Ġ$\\": 569,
      "ublic": 570,
      "ple": 571,
      "ice": 572,
      "ust": 573,
      "ical": 574,
      "ild": 575,
      "Ġ[": 576,
      "ork": 577,
      "Ġ|": 578,
      "ave": 579,
      "Con": 580,
      "ian": 581,
      "text": 582,
      "unction": 583,
      "ĠSt": 584,
      "cc": 585,
      "enc": 586,
      "ma": 587,
      "ens": 588,
      "lo": 589,
      "loc": 590,
      "ft": 591,
      "cri": 592,
      "\",": 593,
      "ok": 594,
      "Ġnew": 595,
      "ory": 596,
      "Ġus": 597,
      "ml": 598,
      "math": 599,
      "Ġ@": 600,
      "form": 601,
      "div": 602,
      "St": 603,
      "dd": 604,
      "ance": 605,
      "so": 606,
      "aram": 607,
      "Ġj": 608,
      "ra": 609,
      "ss": 610,
      "Ġar": 611,
      "ear": 612,
      "ations": 613,
      "ence": 614,
      "du": 615,
      "essage": 616,
      "Ġres": 617,
      "Ġ+": 618,
      "elf": 619,
      "row": 620,
      "(\"": 621,
      "200": 622,
      "span": 623,
      "Ġun": 624,
      "Ġ/": 625,
      "></": 626,
      "Ex": 627,
      "Ġhis": 628,
      "();": 629,
      "ress": 630,
      "put": 631,
      "Ġwhich": 632,
      "ish": 633,
      "ull": 634,
      "ther": 635,
      "set": 636,
      "ĠTh": 637,
      "ĠCh": 638,
      "ach": 639,
      "one": 640,
      "Ġk": 641,
      "sh": 642,
      "><": 643,
      "ize": 644,
      "low": 645,
      "}}": 646,
      "ount": 647,
      "Ġcan": 648,
      "ener": 649,
      "Ġap": 650,
      "',": 651,
      "use": 652,
      "iel": 653,
      "Ġhas": 654,
      "own": 655,
      "Ġim": 656,
      "ink": 657,
      "18": 658,
      "--------": 659,
      "ould": 660,
      "tring": 661,
      "ents": 662,
      "mer": 663,
      "Ġcont": 664,
      "che": 665,
      "../../": 666,
      "irst": 667,
      "ous": 668,
      "tern": 669,
      "âĢĻ": 670,
      "^{": 671,
      "ail": 672,
      "fig": 673,
      "Ġstr": 674,
      "ield": 675,
      "Ġ.": 676,
      "fr": 677,
      "equ": 678,
      "Ġhave": 679,
      "te": 680,
      "Ġname": 681,
      "err": 682,
      "hen": 683,
      "ob": 684,
      "ele": 685,
      "inal": 686,
      "ll": 687,
      "iew": 688,
      "ree": 689,
      "erv": 690,
      "ound": 691,
      "ond": 692,
      "}\\": 693,
      "eb": 694,
      "over": 695,
      "les": 696,
      "10": 697,
      "Ġpublic": 698,
      "Ġab": 699,
      "cal": 700,
      "Ġdef": 701,
      "erm": 702,
      "clud": 703,
      "====": 704,
      "ĠĠĠĠĠĠĠĠĠĠĠĠĠĠĠĠĠĠĠ": 705,
      "Ġalso": 706,
      "Ġcomp": 707,
      "Ġwere": 708,
      "html": 709,
      "}$": 710,
      "Ġ*/": 711,
      "eth": 712,
      "Ġhref": 713,
      "ict": 714,
      "Ġ||": 715,
      "ĉĉĉ": 716,
      "Ġfunction": 717,
      "Ġpr": 718,
      "Ġ:": 719,
      "ry": 720,
      "ark": 721,
      "ual": 722,
      "ool": 723,
      "ator": 724,
      "****": 725,
      "rit": 726,
      "source": 727,
      "ne": 728,
      "ps": 729,
      "Ġint": 730,
      "old": 731,
      "pr": 732,
      "name": 733,
      "message": 734,
      "('": 735,
      "ates": 736,
      "ck": 737,
      "Ġset": 738,
      "ray": 739,
      "Ġro": 740,
      "ĠĠĠĠĠĠĠĠĠ": 741,
      "fer": 742,
      "led": 743,
      "ta": 744,
      "ome": 745,
      "roup": 746,
      "oid": 747,
      "Pro": 748,
      "yst": 749,
      "abel": 750,
      "))": 751,
      "trans": 752,
      "odel": 753,
      "lation": 754,
      "Ġvar": 755,
      "Ġpart": 756,
      "this": 757,
      "ix": 758,
      "Ġdis": 759,
      "oth": 760,
      "io": 761,
      "td": 762,
      "ions": 763,
      "rap": 764,
      "ĠUn": 765,
      "ĠY": 766,
      "Ġout": 767,
      "ert": 768,
      "Ġall": 769,
      "Name": 770,
      "Ġone": 771,
      "col": 772,
      "(\\": 773,
      "ER": 774,
      "oint": 775,
      "eng": 776,
      "Ġ=>": 777,
      "pec": 778,
      "wo": 779,
      "Ġbut": 780,
      "egin": 781,
      "Ġ#": 782,
      "ery": 783,
      "ng": 784,
      "ty": 785,
      "hed": 786,
      "key": 787,
      "ings": 788,
      "Ġsu": 789,
      "ystem": 790,
      "ics": 791,
      "Ġob": 792,
      "Ġup": 793,
      "import": 794,
      "right": 795,
      "Type": 796,
      "ON": 797,
      "Ġget": 798,
      "fter": 799,
      "Ġfirst": 800,
      "Ġtype": 801,
      "ater": 802,
      "begin": 803,
      "Ġev": 804,
      "ĠHe": 805,
      "alse": 806,
      "pect": 807,
      "ose": 808,
      "Ġ_": 809,
      "Ġcol": 810,
      "Id": 811,
      "ĠIt": 812,
      "Ġplay": 813,
      "Ġtheir": 814,
      "aw": 815,
      "ors": 816,
      "arg": 817,
      "},": 818,
      "ames": 819,
      "cript": 820,
      "cre": 821,
      "Ġyou": 822,
      "Ġdo": 823,
      "lect": 824,
      "bo": 825,
      "String": 826,
      "/>": 827,
      "ax": 828,
      "IN": 829,
      "ont": 830,
      "iss": 831,
      "Ġqu": 832,
      "Ġits": 833,
      "Ġde": 834,
      "param": 835,
      "sum": 836,
      "##": 837,
      "atch": 838,
      "atic": 839,
      "igh": 840,
      "ely": 841,
      "line": 842,
      "Ġwill": 843,
      "ick": 844,
      "Ġline": 845,
      "ĠâĢĵ": 846,
      "umber": 847,
      "12": 848,
      "we": 849,
      "199": 850,
      "code": 851,
      "ational": 852,
      "uild": 853,
      "lock": 854,
      "Ġvalue": 855,
      "any": 856,
      "Ġhad": 857,
      "Ġpre": 858,
      "Ġsp": 859,
      "Ġdes": 860,
      "_{\\": 861,
      "Ġper": 862,
      "\"/>": 863,
      "fo": 864,
      "return": 865,
      "translation": 866,
      "uct": 867,
      "ĠAr": 868,
      "ember": 869,
      "ethod": 870,
      "ake": 871,
      "Ġover": 872,
      "Ġcl": 873,
      "ann": 874,
      "app": 875,
      "the": 876,
      "ton": 877,
      "Com": 878,
      "ie": 879,
      ")$": 880,
      "Ġag": 881,
      "Ġme": 882,
      "amp": 883,
      "ock": 884,
      "Ġwho": 885,
      "urre": 886,
      "ences": 887,
      "Ġdata": 888,
      "ms": 889,
      "Ref": 890,
      "round": 891,
      "Ġself": 892,
      "Ġtwo": 893,
      "class": 894,
      "Ġwork": 895,
      "16": 896,
      "ange": 897,
      "Ġtime": 898,
      "ĠâĢ": 899,
      "cent": 900,
      "eta": 901,
      "def": 902,
      "arch": 903,
      "RE": 904,
      "ute": 905,
      "}{": 906,
      "add": 907,
      "ook": 908,
      "ove": 909,
      "Ġend": 910,
      "Res": 911,
      "List": 912,
      "Ġconst": 913,
      "nc": 914,
      "Ġid": 915,
      "ific": 916,
      "pos": 917,
      "Ġcomm": 918,
      "Ġother": 919,
      "ied": 920,
      "als": 921,
      "://": 922,
      "Ġadd": 923,
      "ey": 924,
      "Ġ!": 925,
      "pon": 926,
      "anc": 927,
      "Ġel": 928,
      "Ch": 929,
      "label": 930,
      "ative": 931,
      "itle": 932,
      "Th": 933,
      "land": 934,
      "ault": 935,
      "ception": 936,
      "raph": 937,
      "Ġinter": 938,
      "type": 939,
      "Ġher": 940,
      "ym": 941,
      "Ġbeen": 942,
      "Ġad": 943,
      "Ġwhen": 944,
      "ased": 945,
      "ited": 946,
      "Ġmore": 947,
      "frac": 948,
      "Ġund": 949,
      "eq": 950,
      "Ġresult": 951,
      "ade": 952,
      "son": 953,
      "left": 954,
      "Ġsup": 955,
      "ST": 956,
      "Ġi": 957,
      "Ġ==": 958,
      "Ġthey": 959,
      "ular": 960,
      "lement": 961,
      "Ġinclud": 962,
      "tain": 963,
      "tt": 964,
      "Ġyear": 965,
      "of": 966,
      "ersion": 967,
      "ople": 968,
      "orn": 969,
      "gr": 970,
      "Ġte": 971,
      "15": 972,
      "var": 973,
      "Ġsc": 974,
      "Ġsub": 975,
      "Ġso": 976,
      "AT": 977,
      "ican": 978,
      "ues": 979,
      "ache": 980,
      "ys": 981,
      "ĠCom": 982,
      "Ġen": 983,
      "ĠThis": 984,
      "ash": 985,
      "Ġne": 986,
      "idth": 987,
      "ons": 988,
      "ished": 989,
      "ern": 990,
      "\"><": 991,
      "Ġnull": 992,
      "ution": 993,
      "ward": 994,
      "Ar": 995,
      "Ġreg": 996,
      "irect": 997,
      "ollow": 998,
      "Ġinto": 999,
      "Ġfil": 1000,
      "__": 1001,
      "ternal": 1002,
      "Ġrequ": 1003,
      "trib": 1004,
      "htt": 1005,
      "ader": 1006,
      "Ġloc": 1007,
      "ugh": 1008,
      "yle": 1009,
      "Ġoff": 1010,
      "ee": 1011,
      "Ġonly": 1012,
      "Ġ`": 1013,
      "Ġvoid": 1014,
      "urrent": 1015,
      "val": 1016,
      "17": 1017,
      "Ġpe": 1018,
      "Ġcre": 1019,
      "ivate": 1020,
      "ating": 1021,
      "ument": 1022,
      "ask": 1023,
      "Ġact": 1024,
      "Ġfalse": 1025,
      "vent": 1026,
      "ĠNew": 1027,
      "cess": 1028,
      "ĠĠĠĠĠĠĠĠĠĠĠĠĠ": 1029,
      "ise": 1030,
      "Ġform": 1031,
      "ivers": 1032,
      "ccess": 1033,
      "Ġ>": 1034,
      "der": 1035,
      "198": 1036,
      "org": 1037,
      "min": 1038,
      "):": 1039,
      "ĠĠĠĠĠĠĠĠĠĠĠĠĠĠĠĠĠĠĠĠĠĠĠ": 1040,
      "bar": 1041,
      "resent": 1042,
      "ts": 1043,
      "oug": 1044,
      "Ġbet": 1045,
      "Refer": 1046,
      "Ġafter": 1047,
      "Ġpos": 1048,
      "uring": 1049,
      "Ġtrans": 1050,
      "read": 1051,
      "ank": 1052,
      "ious": 1053,
      "Ġrec": 1054,
      "OR": 1055,
      "Tr": 1056,
      "ample": 1057,
      "string": 1058,
      "11": 1059,
      "ĠPro": 1060,
      "\")": 1061,
      "AR": 1062,
      "Ġspec": 1063,
      "Ġind": 1064,
      "back": 1065,
      "Ġwhere": 1066,
      "ve": 1067,
      "uth": 1068,
      "sc": 1069,
      "ru": 1070,
      "oot": 1071,
      "Ġinst": 1072,
      "its": 1073,
      "way": 1074,
      "ood": 1075,
      "ined": 1076,
      "anag": 1077,
      "self": 1078,
      "\");": 1079,
      "ID": 1080,
      "LE": 1081,
      "lection": 1082,
      "----------------": 1083,
      "Ġorg": 1084,
      "olog": 1085,
      "Ġco": 1086,
      "ĠAl": 1087,
      "oy": 1088,
      "amb": 1089,
      "ature": 1090,
      "tem": 1091,
      "ities": 1092,
      "Ġunder": 1093,
      "Ġtrue": 1094,
      "Ġrel": 1095,
      "$.": 1096,
      "Ġuse": 1097,
      "rm": 1098,
      "cite": 1099,
      "work": 1100,
      "Ġfollow": 1101,
      "mathb": 1102,
      "Ġop": 1103,
      "})": 1104,
      "Ġany": 1105,
      "imes": 1106,
      "Ġused": 1107,
      "ince": 1108,
      "sub": 1109,
      "bject": 1110,
      "$,": 1111,
      "14": 1112,
      "ider": 1113,
      "Ġ--": 1114,
      "Ġserv": 1115,
      "Ġval": 1116,
      "ier": 1117,
      "ists": 1118,
      "Ġsec": 1119,
      "wn": 1120,
      "25": 1121,
      "Col": 1122,
      "ages": 1123,
      "13": 1124,
      "ole": 1125,
      "Ġdec": 1126,
      "ength": 1127,
      "ik": 1128,
      "ptions": 1129,
      "plic": 1130,
      "////": 1131,
      "item": 1132,
      "ision": 1133,
      "ble": 1134,
      "Ġno": 1135,
      "ava": 1136,
      "ures": 1137,
      "Ġthen": 1138,
      "Ġ)": 1139,
      ",\\": 1140,
      "Ġerr": 1141,
      "data": 1142,
      "ement": 1143,
      "22": 1144,
      "file": 1145,
      "Ġabout": 1146,
      "orld": 1147,
      "Ġthere": 1148,
      "duc": 1149,
      "Ġpol": 1150,
      "Ġkn": 1151,
      "Ġrem": 1152,
      "Data": 1153,
      "ĠSh": 1154,
      "References": 1155,
      "Value": 1156,
      "ible": 1157,
      "Ġfinal": 1158,
      "ween": 1159,
      "equation": 1160,
      "pre": 1161,
      "Ġdist": 1162,
      "rr": 1163,
      "location": 1164,
      "ren": 1165,
      "ility": 1166,
      "}.": 1167,
      "merican": 1168,
      "serv": 1169,
      "sert": 1170,
      "********": 1171,
      "nb": 1172,
      "Ġdif": 1173,
      "ĠCon": 1174,
      "Ġelse": 1175,
      "To": 1176,
      "Ġshe": 1177,
      "ule": 1178,
      "arn": 1179,
      "ins": 1180,
      "action": 1181,
      "Ġwould": 1182,
      "perty": 1183,
      "Ġx": 1184,
      "px": 1185,
      "ĠĠĠĠĠĠ": 1186,
      "ily": 1187,
      "197": 1188,
      "âĢĿ": 1189,
      "ĠĠĠĠĠĠĠĠĠĠĠĠĠĠĠĠĠĠĠĠĠĠĠĠĠĠĠĠĠĠĠĠ": 1190,
      "log": 1191,
      "Ġback": 1192,
      "Ġgener": 1193,
      "value": 1194,
      "Ġprov": 1195,
      "Ġtest": 1196,
      "Ġthan": 1197,
      "chool": 1198,
      "br": 1199,
      "21": 1200,
      "air": 1201,
      "evel": 1202,
      "EN": 1203,
      "Ġent": 1204,
      "ody": 1205,
      "arget": 1206,
      "Ġchar": 1207,
      "Ġsuch": 1208,
      "Ġsome": 1209,
      "Ġnumber": 1210,
      "SS": 1211,
      "ices": 1212,
      "ball": 1213,
      "az": 1214,
      "view": 1215,
      "red": 1216,
      "));": 1217,
      "ized": 1218,
      "AL": 1219,
      "Ġfe": 1220,
      "ĠQ": 1221,
      "Ġcase": 1222,
      "ines": 1223,
      "rough": 1224,
      "nbsp": 1225,
      "mathcal": 1226,
      "lient": 1227,
      "========": 1228,
      "epend": 1229,
      "Ġph": 1230,
      "Ġ/**": 1231,
      "ah": 1232,
      "Set": 1233,
      "Ġbetween": 1234,
      "Ġbec": 1235,
      "ars": 1236,
      "umn": 1237,
      "ĠAn": 1238,
      "ason": 1239,
      "Ġpeople": 1240,
      "uff": 1241,
      "play": 1242,
      "ĠZ": 1243,
      "date": 1244,
      "cont": 1245,
      "ower": 1246,
      "Ġcons": 1247,
      "ments": 1248,
      "oh": 1249,
      "Ġac": 1250,
      "eter": 1251,
      "not": 1252,
      "Ġstring": 1253,
      "ĠAs": 1254,
      "30": 1255,
      "Ġshow": 1256,
      "yp": 1257,
      "da": 1258,
      "];": 1259,
      "roid": 1260,
      "Ġmay": 1261,
      "att": 1262,
      "oci": 1263,
      "ally": 1264,
      "Ġmodel": 1265,
      "Ġfile": 1266,
      "pha": 1267,
      "Ġem": 1268,
      "ient": 1269,
      "}(": 1270,
      "press": 1271,
      "for": 1272,
      "Ġser": 1273,
      "oun": 1274,
      "ream": 1275,
      "ired": 1276,
      "Ġgr": 1277,
      "($": 1278,
      "Exception": 1279,
      "ĠTr": 1280,
      "Ġstud": 1281,
      "script": 1282,
      "pp": 1283,
      "Ġ&&": 1284,
      "test": 1285,
      "Ġlist": 1286,
      "new": 1287,
      "ead": 1288,
      "')": 1289,
      "ike": 1290,
      "ott": 1291,
      "atus": 1292,
      "mary": 1293,
      "yn": 1294,
      "ever": 1295,
      "iver": 1296,
      "rol": 1297,
      "32": 1298,
      "Ġam": 1299,
      "me": 1300,
      "Ġoper": 1301,
      "Ġstatic": 1302,
      "arent": 1303,
      "Err": 1304,
      "vel": 1305,
      "Ġhigh": 1306,
      "inn": 1307,
      "196": 1308,
      "co": 1309,
      "}^": 1310,
      "be": 1311,
      "Ġsim": 1312,
      "Ġmost": 1313,
      "Ġinv": 1314,
      "iversity": 1315,
      "by": 1316,
      "apt": 1317,
      "ouse": 1318,
      "~\\": 1319,
      "let": 1320,
      "Un": 1321,
      "Object": 1322,
      "Ġed": 1323,
      "Ġest": 1324,
      "ets": 1325,
      "}_": 1326,
      "wh": 1327,
      "Ġfound": 1328,
      "100": 1329,
      "ale": 1330,
      "Ġprivate": 1331,
      "Test": 1332,
      "ĠString": 1333,
      "ĠCol": 1334,
      "ough": 1335,
      "Ġlink": 1336,
      "Ġ///": 1337,
      "Ġstart": 1338,
      "Ġthrough": 1339,
      "size": 1340,
      "']": 1341,
      "Ġcal": 1342,
      "rc": 1343,
      "man": 1344,
      "link": 1345,
      "aj": 1346,
      "Ġmod": 1347,
      "ĠEx": 1348,
      "order": 1349,
      "ĠĠĠĠĊ": 1350,
      "til": 1351,
      "itt": 1352,
      "ww": 1353,
      "DE": 1354,
      "Ã©": 1355,
      "ury": 1356,
      "struct": 1357,
      "ause": 1358,
      "Ġass": 1359,
      "Ġ%": 1360,
      "Ġsystem": 1361,
      "ger": 1362,
      "Cont": 1363,
      "face": 1364,
      "CT": 1365,
      "alpha": 1366,
      "outh": 1367,
      "\"></": 1368,
      "ĠSe": 1369,
      "Ġbo": 1370,
      "Ġgroup": 1371,
      "().": 1372,
      "ler": 1373,
      "nav": 1374,
      "Ġsign": 1375,
      "mall": 1376,
      "ĠInd": 1377,
      ".</": 1378,
      "Ġacc": 1379,
      "Ġcent": 1380,
      "50": 1381,
      "js": 1382,
      "public": 1383,
      "elta": 1384,
      "ife": 1385,
      "mod": 1386,
      "Ġour": 1387,
      "lish": 1388,
      "ĠFor": 1389,
      "Ġdiffer": 1390,
      "Ġ!=": 1391,
      "orth": 1392,
      "Ġagain": 1393,
      "Ġapp": 1394,
      "Ġext": 1395,
      "Ġgiv": 1396,
      "());": 1397,
      "requ": 1398,
      "pi": 1399,
      "heck": 1400,
      "Ġgo": 1401,
      "Ġfield": 1402,
      "Ġmin": 1403,
      "View": 1404,
      "field": 1405,
      "uc": 1406,
      "IT": 1407,
      "ify": 1408,
      "Ġstate": 1409,
      "evelop": 1410,
      "Get": 1411,
      "SE": 1412,
      "ric": 1413,
      "uss": 1414,
      "ident": 1415,
      "roll": 1416,
      "lay": 1417,
      "Ġeach": 1418,
      "Key": 1419,
      "ĠWe": 1420,
      "ization": 1421,
      "Ġpoint": 1422,
      "aid": 1423,
      "quot": 1424,
      "other": 1425,
      "Ġhim": 1426,
      "Ġmethod": 1427,
      "Ġthem": 1428,
      "Ġcor": 1429,
      "ĉĉĉĉĉ": 1430,
      "Ġthese": 1431,
      "Ind": 1432,
      "fore": 1433,
      "lang": 1434,
      "Ġdet": 1435,
      "Ġobject": 1436,
      "\";": 1437,
      "At": 1438,
      "Error": 1439,
      "ified": 1440,
      "erson": 1441,
      "ambda": 1442,
      "Ġdr": 1443,
      "index": 1444,
      "['": 1445,
      "Ġkey": 1446,
      "Class": 1447,
      "Im": 1448,
      "En": 1449,
      "list": 1450,
      "Ġbr": 1451,
      "dis": 1452,
      "ays": 1453,
      "Ġequ": 1454,
      "AN": 1455,
      "As": 1456,
      "ĠAmerican": 1457,
      "ME": 1458,
      "Ġrun": 1459,
      "ister": 1460,
      "Ġrep": 1461,
      "By": 1462,
      "On": 1463,
      "reg": 1464,
      "Ġsecond": 1465,
      "url": 1466,
      "Ġtitle": 1467,
      "Ġyears": 1468,
      "24": 1469,
      "File": 1470,
      "!--": 1471,
      "._": 1472,
      "Ġwhile": 1473,
      "indow": 1474,
      "ĠâĢľ": 1475,
      "cept": 1476,
      "23": 1477,
      "try": 1478,
      "Ġwell": 1479,
      "ĠX": 1480,
      "Ġfl": 1481,
      "ared": 1482,
      "Ġdirect": 1483,
      "af": 1484,
      "Ġsing": 1485,
      "cription": 1486,
      "ants": 1487,
      "=\"+": 1488,
      "Ġlong": 1489,
      "pace": 1490,
      ")\\": 1491,
      "ground": 1492,
      "duct": 1493,
      "ocument": 1494,
      "Ġparam": 1495,
      "top": 1496,
      "load": 1497,
      "reat": 1498,
      "par": 1499,
      "ote": 1500,
      "util": 1501,
      "width": 1502,
      "inter": 1503,
      "Ġcomple": 1504,
      "Ġusing": 1505,
      "section": 1506,
      "ĠFr": 1507,
      "Ġeff": 1508,
      "function": 1509,
      "overn": 1510,
      "bers": 1511,
      "Ġduring": 1512,
      "align": 1513,
      "CO": 1514,
      "time": 1515,
      "Ġteam": 1516,
      "ency": 1517,
      "ector": 1518,
      "ots": 1519,
      "Ġsame": 1520,
      "ĠLe": 1521,
      "color": 1522,
      "fl": 1523,
      "Ġthree": 1524,
      "ron": 1525,
      "hat": 1526,
      "ces": 1527,
      ".\"": 1528,
      "000": 1529,
      "raw": 1530,
      "ten": 1531,
      "194": 1532,
      "oad": 1533,
      "summary": 1534,
      "Ġ/>": 1535,
      "ession": 1536,
      "=\"../../": 1537,
      "Ġrele": 1538,
      "ism": 1539,
      "$\\": 1540,
      "Sh": 1541,
      "Ġshould": 1542,
      "');": 1543,
      "med": 1544,
      "http": 1545,
      "Âł": 1546,
      "includ": 1547,
      "ense": 1548,
      "ather": 1549,
      "Ġcurrent": 1550,
      "amma": 1551,
      "reak": 1552,
      "mu": 1553,
      "itial": 1554,
      "Ġsol": 1555,
      "array": 1556,
      "mp": 1557,
      "Ġyour": 1558,
      "ived": 1559,
      "ĠUniversity": 1560,
      "Ġbefore": 1561,
      "An": 1562,
      "Ġart": 1563,
      "ports": 1564,
      "=\\": 1565,
      "part": 1566,
      "table": 1567,
      "Requ": 1568,
      "He": 1569,
      "ĠUnited": 1570,
      "For": 1571,
      "rite": 1572,
      "],": 1573,
      "(),": 1574,
      "rop": 1575,
      "rib": 1576,
      "go": 1577,
      "Ġneed": 1578,
      "ful": 1579,
      "Ġboth": 1580,
      "Ġbeing": 1581,
      "Ġmed": 1582,
      "her": 1583,
      "ackage": 1584,
      "Ġarg": 1585,
      "Ġwrit": 1586,
      "Ġbuild": 1587,
      "Ġz": 1588,
      "...": 1589,
      "Ġsur": 1590,
      "istory": 1591,
      "Ġfam": 1592,
      "group": 1593,
      "Ġcall": 1594,
      "que": 1595,
      "ervice": 1596,
      "Ġfr": 1597,
      "Al": 1598,
      "lob": 1599,
      "ected": 1600,
      "gy": 1601,
      "gram": 1602,
      "comm": 1603,
      "lished": 1604,
      "ĠSc": 1605,
      "user": 1606,
      "Ġhow": 1607,
      "ically": 1608,
      "Re": 1609,
      "ush": 1610,
      "Ġfollowing": 1611,
      "ĠDe": 1612,
      "ting": 1613,
      "uration": 1614,
      "Ġatt": 1615,
      "rem": 1616,
      "formation": 1617,
      "Ġmade": 1618,
      "box": 1619,
      "ina": 1620,
      "irc": 1621,
      "ĠIs": 1622,
      "ship": 1623,
      "void": 1624,
      "Ġlinks": 1625,
      "path": 1626,
      "arly": 1627,
      "Ġhand": 1628,
      "usic": 1629,
      "uch": 1630,
      "External": 1631,
      "anager": 1632,
      "64": 1633,
      "igma": 1634,
      "Ġ\\\\": 1635,
      "Ġresp": 1636,
      "Ġu": 1637,
      "itor": 1638,
      "ane": 1639,
      "UL": 1640,
      "_\\": 1641,
      "my": 1642,
      "Ġright": 1643,
      "const": 1644,
      "Time": 1645,
      "ross": 1646,
      "ains": 1647,
      "ox": 1648,
      "ootball": 1649,
      "utton": 1650,
      "ats": 1651,
      "Ġperform": 1652,
      "Ġpass": 1653,
      "Ġmem": 1654,
      "ĠOn": 1655,
      "uffer": 1656,
      "itions": 1657,
      "RO": 1658,
      "ograph": 1659,
      "Ġever": 1660,
      "Ġnon": 1661,
      "ural": 1662,
      "Ġ-->": 1663,
      "Ġlike": 1664,
      "Ġorder": 1665,
      "Ġmain": 1666,
      "}_{": 1667,
      "ho": 1668,
      "ION": 1669,
      "ek": 1670,
      "33": 1671,
      "ĠMar": 1672,
      "Ġmon": 1673,
      "ission": 1674,
      "md": 1675,
      "Text": 1676,
      "Ġpop": 1677,
      "}^{": 1678,
      "ober": 1679,
      "-\\": 1680,
      "``": 1681,
      "Ġmany": 1682,
      "Ġrecord": 1683,
      "ega": 1684,
      "Ġappro": 1685,
      "ĠEng": 1686,
      "Ġdifferent": 1687,
      "opy": 1688,
      "mathbb": 1689,
      "ponse": 1690,
      "Info": 1691,
      "\".": 1692,
      "anu": 1693,
      "'t": 1694,
      "enn": 1695,
      "ral": 1696,
      "\":": 1697,
      "Ġsupport": 1698,
      "ohn": 1699,
      "AC": 1700,
      "istr": 1701,
      "Ġown": 1702,
      "Ġgiven": 1703,
      "Ġpartic": 1704,
      "':": 1705,
      "].": 1706,
      "dt": 1707,
      "etwork": 1708,
      "Ġimport": 1709,
      "iving": 1710,
      "eters": 1711,
      "ology": 1712,
      "Ġ?": 1713,
      "Ġevent": 1714,
      "ogle": 1715,
      "ension": 1716,
      "Ġbeg": 1717,
      "Ġexpect": 1718,
      "uthor": 1719,
      "iginal": 1720,
      "Event": 1721,
      "atri": 1722,
      "Ġread": 1723,
      "config": 1724,
      "Node": 1725,
      "ica": 1726,
      "Int": 1727,
      "search": 1728,
      "ĠIf": 1729,
      "bf": 1730,
      "Ġdevelop": 1731,
      "195": 1732,
      "vert": 1733,
      "Ġplayers": 1734,
      "ases": 1735,
      "Request": 1736,
      "Item": 1737,
      "Ġ{\\": 1738,
      "lp": 1739,
      "ulation": 1740,
      "ĠPr": 1741,
      "phi": 1742,
      "tribute": 1743,
      "ĠĠĠĠĠĠĠĠĠĠĠĠĠĠĠĠĠĠĠĠĠĠĠĠĠĠĠ": 1744,
      "cd": 1745,
      "Ġsize": 1746,
      "Element": 1747,
      "ĠComm": 1748,
      "Ġelement": 1749,
      "Add": 1750,
      "Ġnow": 1751,
      "^{\\": 1752,
      "bed": 1753,
      "Ġterm": 1754,
      "PE": 1755,
      "lambda": 1756,
      "/*": 1757,
      "TE": 1758,
      "ĠCl": 1759,
      "Ġpar": 1760,
      "####": 1761,
      "ĠShe": 1762,
      "Ġjust": 1763,
      "ality": 1764,
      "fin": 1765,
      "Field": 1766,
      "ustr": 1767,
      "word": 1768,
      "We": 1769,
      "arm": 1770,
      "Ġthrow": 1771,
      "ives": 1772,
      "ĠRes": 1773,
      "Ġmov": 1774,
      "els": 1775,
      "Ġcontin": 1776,
      "des": 1777,
      "aces": 1778,
      "bum": 1779,
      "ĠPh": 1780,
      "ley": 1781,
      "ape": 1782,
      "Ġprocess": 1783,
      "Config": 1784,
      "Path": 1785,
      "https": 1786,
      "unc": 1787,
      "pert": 1788,
      "Def": 1789,
      "ĠĠĊ": 1790,
      "/**": 1791,
      "une": 1792,
      "Ġbel": 1793,
      "Ġlast": 1794,
      "Ġ);": 1795,
      "iter": 1796,
      "())": 1797,
      "off": 1798,
      "Ġcould": 1799,
      "\\\\": 1800,
      "idd": 1801,
      "ner": 1802,
      "Qu": 1803,
      "Ġaut": 1804,
      "Ġstruct": 1805,
      "aining": 1806,
      "ctions": 1807,
      "Ġgu": 1808,
      "ential": 1809,
      "olean": 1810,
      "eps": 1811,
      "omen": 1812,
      "Index": 1813,
      "State": 1814,
      "LA": 1815,
      "40": 1816,
      "Ġlater": 1817,
      "ually": 1818,
      "model": 1819,
      "length": 1820,
      "27": 1821,
      "Not": 1822,
      "stance": 1823,
      "igned": 1824,
      "ope": 1825,
      "Context": 1826,
      "Param": 1827,
      "icon": 1828,
      "ior": 1829,
      "Ġknown": 1830,
      "ium": 1831,
      "Ġopen": 1832,
      "Ġincluding": 1833,
      "Ġbro": 1834,
      "ĠStates": 1835,
      "Ġappe": 1836,
      "Ġerror": 1837,
      "Map": 1838,
      "amespace": 1839,
      "Ġlead": 1840,
      "Ġmake": 1841,
      "sk": 1842,
      "ui": 1843,
      "Form": 1844,
      "ai": 1845,
      "TR": 1846,
      "Ġfour": 1847,
      "ride": 1848,
      "28": 1849,
      "Ġtop": 1850,
      "Ġsaid": 1851,
      "api": 1852,
      "oss": 1853,
      "ĠOr": 1854,
      "Ġdisc": 1855,
      "Ġlocal": 1856,
      "arge": 1857,
      "IC": 1858,
      "ounc": 1859,
      "block": 1860,
      "Des": 1861,
      "Ġtem": 1862,
      "ounty": 1863,
      "ĠBr": 1864,
      "With": 1865,
      "};": 1866,
      "';": 1867,
      "Ġrequest": 1868,
      "Ġcontent": 1869,
      "map": 1870,
      "ital": 1871,
      "Ġfilm": 1872,
      "Ġfin": 1873,
      "Over": 1874,
      "Ġmet": 1875,
      "chn": 1876,
      "Ġseason": 1877,
      "26": 1878,
      "ague": 1879,
      "title": 1880,
      "Ġassert": 1881,
      "mb": 1882,
      "less": 1883,
      "Ġ(!": 1884,
      "Ġdoes": 1885,
      "efore": 1886,
      "Ġbl": 1887,
      "Ġchild": 1888,
      "iev": 1889,
      "pty": 1890,
      "ths": 1891,
      "ience": 1892,
      "Ġstyle": 1893,
      "Ġtext": 1894,
      "Ġrece": 1895,
      "This": 1896,
      "Ġagainst": 1897,
      "='": 1898,
      "PI": 1899,
      "ĠRe": 1900,
      "true": 1901,
      "Or": 1902,
      "umer": 1903,
      "Ġ});": 1904,
      "Ġwhat": 1905,
      "Array": 1906,
      "Ġfact": 1907,
      "plication": 1908,
      "Ġleft": 1909,
      "ĠMay": 1910,
      "Ġsince": 1911,
      "uro": 1912,
      "Ġschool": 1913,
      "por": 1914,
      "arri": 1915,
      "ird": 1916,
      "ĠGr": 1917,
      "aking": 1918,
      "ends": 1919,
      "ateg": 1920,
      "Ġarray": 1921,
      "Ġmy": 1922,
      "Service": 1923,
      "////////": 1924,
      "ilon": 1925,
      "urs": 1926,
      "Equ": 1927,
      "ustom": 1928,
      "side": 1929,
      "ene": 1930,
      ".,": 1931,
      "Ġref": 1932,
      "Ġallow": 1933,
      "Ġbecause": 1934,
      "bol": 1935,
      "Ġtarget": 1936,
      "from": 1937,
      "enu": 1938,
      "\"\"": 1939,
      "ĠAt": 1940,
      "Ġfind": 1941,
      "odes": 1942,
      "Ġsmall": 1943,
      "Fr": 1944,
      "beta": 1945,
      "amed": 1946,
      "Ġvari": 1947,
      "duced": 1948,
      "Ġcalled": 1949,
      "Ġ,": 1950,
      "input": 1951,
      "Ġseries": 1952,
      "vious": 1953,
      "acter": 1954,
      "head": 1955,
      "ively": 1956,
      "[]": 1957,
      "utes": 1958,
      "Ġ},": 1959,
      "ĠWorld": 1960,
      "sec": 1961,
      "Ġdefault": 1962,
      "result": 1963,
      "Ġconsider": 1964,
      "hip": 1965,
      "bs": 1966,
      "Ġvis": 1967,
      "ĠJohn": 1968,
      "ification": 1969,
      "Ġcoun": 1970,
      "ait": 1971,
      "Ġversion": 1972,
      "lected": 1973,
      "ret": 1974,
      "ides": 1975,
      "iled": 1976,
      "ering": 1977,
      "vir": 1978,
      "mathbf": 1979,
      "Ġlog": 1980,
      "wit": 1981,
      "ided": 1982,
      "=\"../../../../": 1983,
      "Ġevery": 1984,
      "uck": 1985,
      "ponent": 1986,
      "no": 1987,
      "Result": 1988,
      "pan": 1989,
      "UR": 1990,
      "29": 1991,
      "uage": 1992,
      "ĠHow": 1993,
      "ĠAnd": 1994,
      "ĠAd": 1995,
      "Ġ(\\": 1996,
      "eturn": 1997,
      "alth": 1998,
      "lt": 1999,
      "apache": 2000,
      "ling": 2001,
      "duction": 2002,
      "ari": 2003,
      "plate": 2004,
      "node": 2005,
      "Size": 2006,
      "version": 2007,
      "Build": 2008,
      "ternational": 2009,
      "Ġfootball": 2010,
      "net": 2011,
      "urch": 2012,
      "body": 2013,
      "aint": 2014,
      "day": 2015,
      "aster": 2016,
      "ĠNational": 2017,
      "ĠCan": 2018,
      "lear": 2019,
      "Ġdescri": 2020,
      "ync": 2021,
      "ttp": 2022,
      "Ġuser": 2023,
      "inc": 2024,
      "object": 2025,
      "sigma": 2026,
      "ources": 2027,
      "Ġalbum": 2028,
      "tn": 2029,
      "gt": 2030,
      "Ġ/*": 2031,
      "error": 2032,
      "ches": 2033,
      "Ġbased": 2034,
      "imit": 2035,
      "au": 2036,
      "Ġgovern": 2037,
      ">&": 2038,
      "tract": 2039,
      "Ġestab": 2040,
      "ift": 2041,
      "Ġsrc": 2042,
      "abled": 2043,
      "Ġdid": 2044,
      "Ġpresent": 2045,
      "ilt": 2046,
      "Ġrepresent": 2047,
      "Ġsee": 2048,
      "Ġprot": 2049,
      "Ġeffect": 2050,
      "alk": 2051,
      "ability": 2052,
      "Message": 2053,
      "Comm": 2054,
      "valid": 2055,
      "cale": 2056,
      "iction": 2057,
      "lobal": 2058,
      "Ġgame": 2059,
      "Ġexp": 2060,
      "create": 2061,
      "perties": 2062,
      "Ġmark": 2063,
      "FF": 2064,
      "^{-": 2065,
      "iness": 2066,
      "Code": 2067,
      "}{\\": 2068,
      "ilde": 2069,
      "assert": 2070,
      "Ġcommun": 2071,
      "****************": 2072,
      "ags": 2073,
      "atter": 2074,
      "ended": 2075,
      "Ġmult": 2076,
      "Ġdown": 2077,
      "Ġtyp": 2078,
      "Ġblock": 2079,
      "met": 2080,
      "ĠSystem": 2081,
      "ĠCar": 2082,
      "ination": 2083,
      "ouble": 2084,
      "ival": 2085,
      "Ġpres": 2086,
      "Ġrefer": 2087,
      "Ġhead": 2088,
      "Ġdep": 2089,
      "ained": 2090,
      "Ġsever": 2091,
      "++": 2092,
      "ymbol": 2093,
      "Ġjava": 2094,
      "Ġpath": 2095,
      "default": 2096,
      "ony": 2097,
      "ĠâĢĶ": 2098,
      "Ġuntil": 2099,
      "itional": 2100,
      "Ġmust": 2101,
      "ĠBl": 2102,
      "max": 2103,
      "css": 2104,
      "info": 2105,
      "Ġconfig": 2106,
      "Hand": 2107,
      "ety": 2108,
      "60": 2109,
      "ĠPl": 2110,
      "evice": 2111,
      "AD": 2112,
      "Ġincre": 2113,
      "UT": 2114,
      "loat": 2115,
      "bl": 2116,
      "Ġnext": 2117,
      "Ġfamily": 2118,
      "Ġresults": 2119,
      "ilter": 2120,
      "down": 2121,
      "Ġbir": 2122,
      "comp": 2123,
      "Ġexample": 2124,
      "Ġbecame": 2125,
      "Ġlevel": 2126,
      "Of": 2127,
      "ness": 2128,
      "Ġbase": 2129,
      "Ġprogram": 2130,
      "come": 2131,
      "ĠJul": 2132,
      "2016": 2133,
      "akes": 2134,
      "Ġcare": 2135,
      "ĠYork": 2136,
      "ĠNov": 2137,
      "Ġvalues": 2138,
      "ails": 2139,
      "point": 2140,
      "Ġeven": 2141,
      "state": 2142,
      "Is": 2143,
      "ised": 2144,
      "rec": 2145,
      "ored": 2146,
      "ĠSchool": 2147,
      "content": 2148,
      "LO": 2149,
      "ĠWh": 2150,
      "Loc": 2151,
      "mathrm": 2152,
      "Ġexper": 2153,
      "atrix": 2154,
      "ĠCounty": 2155,
      "+\\": 2156,
      "base": 2157,
      "Ġcond": 2158,
      "Ph": 2159,
      "Ġinformation": 2160,
      "ottom": 2161,
      "Ġcode": 2162,
      "ĠCent": 2163,
      "Ġsingle": 2164,
      "Ġcr": 2165,
      "ajor": 2166,
      "2017": 2167,
      "using": 2168,
      "anuary": 2169,
      "ourn": 2170,
      "Ġman": 2171,
      "Ġav": 2172,
      "ĠBrit": 2173,
      "Ġcheck": 2174,
      "Ġann": 2175,
      "liam": 2176,
      "la": 2177,
      "nection": 2178,
      "Val": 2179,
      "olv": 2180,
      "start": 2181,
      "Ġposs": 2182,
      "ormal": 2183,
      "ians": 2184,
      "reate": 2185,
      "pen": 2186,
      "Ġvery": 2187,
      "quad": 2188,
      "wards": 2189,
      "Ġbreak": 2190,
      "ĠPar": 2191,
      "Ġpost": 2192,
      "gamma": 2193,
      "ML": 2194,
      "arrow": 2195,
      ";</": 2196,
      "Ġproject": 2197,
      "ustral": 2198,
      "nder": 2199,
      "*}": 2200,
      "ware": 2201,
      ";&": 2202,
      "Ġocc": 2203,
      "Ġworld": 2204,
      "IG": 2205,
      "Ġplace": 2206,
      "Ġsong": 2207,
      "big": 2208,
      "Ġcreate": 2209,
      "Ġoriginal": 2210,
      "ĠYou": 2211,
      "Ġlife": 2212,
      "Ġview": 2213,
      "ĠSouth": 2214,
      "80": 2215,
      "Ġbu": 2216,
      "rist": 2217,
      "ĠWest": 2218,
      "light": 2219,
      "with": 2220,
      "Ġ()": 2221,
      "Ġpub": 2222,
      "ĠPol": 2223,
      "Ġmax": 2224,
      "--------------------------------": 2225,
      "ĠWar": 2226,
      "ING": 2227,
      "delta": 2228,
      "oin": 2229,
      "Ser": 2230,
      "Ġorgan": 2231,
      "ivity": 2232,
      "MA": 2233,
      "tab": 2234,
      "2015": 2235,
      "ĉĉĉĉĉĉ": 2236,
      "aut": 2237,
      "2010": 2238,
      "ched": 2239,
      "option": 2240,
      "ugust": 2241,
      "Ġthose": 2242,
      "Ġ===": 2243,
      "Ġway": 2244,
      "Color": 2245,
      "uk": 2246,
      "style": 2247,
      "Model": 2248,
      "Ġarea": 2249,
      "ison": 2250,
      "ĠGerm": 2251,
      "ideo": 2252,
      "Ġdeath": 2253,
      "pm": 2254,
      "rho": 2255,
      "ĠAll": 2256,
      "Pl": 2257,
      "sup": 2258,
      "Ġdi": 2259,
      "User": 2260,
      "ailable": 2261,
      "ĠGe": 2262,
      "ances": 2263,
      "Ġsuccess": 2264,
      "cast": 2265,
      "System": 2266,
      "2018": 2267,
      "Ġ__": 2268,
      "Ġbook": 2269,
      "Ġinput": 2270,
      "ansp": 2271,
      "2020": 2272,
      "Log": 2273,
      "Ġold": 2274,
      "35": 2275,
      "=\"../": 2276,
      "Ġhelp": 2277,
      "^\\": 2278,
      "Ġpolit": 2279,
      "usiness": 2280,
      "ptember": 2281,
      "ĠOct": 2282,
      "Ġident": 2283,
      "2014": 2284,
      "ĠReg": 2285,
      "android": 2286,
      "Ġmusic": 2287,
      "elect": 2288,
      "ĠGu": 2289,
      "include": 2290,
      "Ġ:=": 2291,
      "Out": 2292,
      "mber": 2293,
      "pression": 2294,
      "package": 2295,
      "Up": 2296,
      "Ġcap": 2297,
      "CH": 2298,
      "=\"#": 2299,
      "Ġstand": 2300,
      "Ġnode": 2301,
      "icial": 2302,
      "sq": 2303,
      "position": 2304,
      "tainer": 2305,
      "Ġwithin": 2306,
      "tal": 2307,
      "see": 2308,
      "iod": 2309,
      "ET": 2310,
      "ED": 2311,
      "ampion": 2312,
      "ĠCal": 2313,
      "elete": 2314,
      "ĠJanuary": 2315,
      "lin": 2316,
      "Manager": 2317,
      "From": 2318,
      "Ġinitial": 2319,
      "Ġanal": 2320,
      "Table": 2321,
      "ender": 2322,
      "ately": 2323,
      "Ġaround": 2324,
      "java": 2325,
      "web": 2326,
      "aving": 2327,
      "tings": 2328,
      "theta": 2329,
      "34": 2330,
      "Ð°": 2331,
      "space": 2332,
      "ators": 2333,
      "2019": 2334,
      "Rec": 2335,
      "Ġ$(": 2336,
      "www": 2337,
      "IS": 2338,
      "ording": 2339,
      "roller": 2340,
      "Ġlarge": 2341,
      ")}": 2342,
      "Ġmap": 2343,
      "context": 2344,
      "tes": 2345,
      "ĠGet": 2346,
      "ung": 2347,
      "olds": 2348,
      "aff": 2349,
      "next": 2350,
      "Ġcontext": 2351,
      "ken": 2352,
      "false": 2353,
      "ae": 2354,
      "ĠĠĠĠĠĠĠĠĠĠĠĠ": 2355,
      "Ġ};": 2356,
      "resp": 2357,
      "Ġinstance": 2358,
      "Ġlet": 2359,
      "aterial": 2360,
      "Ġprom": 2361,
      "ocus": 2362,
      "sw": 2363,
      "39": 2364,
      "ĠMarch": 2365,
      "Ġtri": 2366,
      "Ġitem": 2367,
      "2011": 2368,
      "Ġposition": 2369,
      "Ġindex": 2370,
      "oman": 2371,
      "2013": 2372,
      "method": 2373,
      "istor": 2374,
      "olution": 2375,
      "ero": 2376,
      "TD": 2377,
      "Inter": 2378,
      "Ġseveral": 2379,
      "ĠWil": 2380,
      "ords": 2381,
      "omet": 2382,
      "Ġnear": 2383,
      "Group": 2384,
      "<!--": 2385,
      "urther": 2386,
      "earch": 2387,
      "Ġpat": 2388,
      "tau": 2389,
      "icy": 2390,
      "acy": 2391,
      "ĠList": 2392,
      "Trans": 2393,
      "New": 2394,
      "2012": 2395,
      "|-": 2396,
      "MP": 2397,
      "ploy": 2398,
      "ĠÐ": 2399,
      "Ġdistrib": 2400,
      "pril": 2401,
      "Ġperson": 2402,
      "Ġalong": 2403,
      "ixed": 2404,
      "atures": 2405,
      "Ġchang": 2406,
      "Ġtry": 2407,
      "ithub": 2408,
      "adi": 2409,
      "Ġinclude": 2410,
      "stru": 2411,
      "hes": 2412,
      "Ġcolor": 2413,
      "All": 2414,
      "vision": 2415,
      "ibr": 2416,
      "dom": 2417,
      "ĠThey": 2418,
      "doc": 2419,
      "ĠAugust": 2420,
      "google": 2421,
      "figure": 2422,
      "ĠCo": 2423,
      "AB": 2424,
      "ĠBe": 2425,
      "ĠĠĠĠĠĠĠĠĠĠĠĠĠĠĠĠĠĠĠĠĠĠĠĠĠĠĠĠĠĠĠ": 2426,
      "Pr": 2427,
      "ULL": 2428,
      "Ġservice": 2429,
      "DO": 2430,
      "sl": 2431,
      "ĠSeptember": 2432,
      "count": 2433,
      "2008": 2434,
      "Ġknow": 2435,
      "Ġlaw": 2436,
      "ebug": 2437,
      "Ġdue": 2438,
      "================": 2439,
      "partial": 2440,
      "Ġstill": 2441,
      "Ġexpl": 2442,
      "event": 2443,
      "Ġpower": 2444,
      "check": 2445,
      "ĠState": 2446,
      "Ġsource": 2447,
      "Ġandroid": 2448,
      "ules": 2449,
      "Ġdel": 2450,
      "Arg": 2451,
      "lege": 2452,
      ")</": 2453,
      "define": 2454,
      "Ġreport": 2455,
      "2022": 2456,
      "icle": 2457,
      "Dis": 2458,
      "Ġstd": 2459,
      "print": 2460,
      "Ġmatch": 2461,
      "cember": 2462,
      "itive": 2463,
      "Ġconf": 2464,
      "UN": 2465,
      "db": 2466,
      "ped": 2467,
      "Ġreal": 2468,
      "]{": 2469,
      "lick": 2470,
      "de": 2471,
      "urity": 2472,
      "$-": 2473,
      "ĠOctober": 2474,
      "66": 2475,
      "Ġla": 2476,
      "aced": 2477,
      "leq": 2478,
      "Reg": 2479,
      "Ã¡": 2480,
      "plement": 2481,
      "AS": 2482,
      "annel": 2483,
      "99": 2484,
      "ued": 2485,
      "ux": 2486,
      "rt": 2487,
      "Ġbackground": 2488,
      "CE": 2489,
      "ales": 2490,
      "ĠSp": 2491,
      "ĠĠĠĠĠĠĠĠĠĠ": 2492,
      "Ġlang": 2493,
      "2009": 2494,
      "ĠJune": 2495,
      "github": 2496,
      "ning": 2497,
      "lex": 2498,
      "Ġenc": 2499,
      "Ġpo": 2500,
      "Ġhere": 2501,
      "core": 2502,
      "Ad": 2503,
      "ĠTe": 2504,
      "Property": 2505,
      "Ġwon": 2506,
      "Ġsk": 2507,
      "Ġtable": 2508,
      "argin": 2509,
      "Ġbool": 2510,
      "Ġborder": 2511,
      "namespace": 2512,
      "ique": 2513,
      "Ġbound": 2514,
      "ĠUS": 2515,
      "ĠAustral": 2516,
      "arr": 2517,
      "Ġwithout": 2518,
      "Ġeng": 2519,
      "Ġsum": 2520,
      "ĠEd": 2521,
      "Ġobtain": 2522,
      "where": 2523,
      "static": 2524,
      "2021": 2525,
      "ze": 2526,
      "times": 2527,
      "refer": 2528,
      "37": 2529,
      "center": 2530,
      "ĠCity": 2531,
      "urg": 2532,
      "ĠEuro": 2533,
      "TH": 2534,
      "ĠJuly": 2535,
      "asure": 2536,
      "oper": 2537,
      "31": 2538,
      "Ġmuch": 2539,
      "uments": 2540,
      "angle": 2541,
      "Client": 2542,
      "eger": 2543,
      "ume": 2544,
      "Ġformer": 2545,
      "rel": 2546,
      "ifier": 2547,
      "Ġlook": 2548,
      "Ġreleased": 2549,
      "See": 2550,
      ">(": 2551,
      "lem": 2552,
      "Ġoptions": 2553,
      "ted": 2554,
      "Mod": 2555,
      "Ġadv": 2556,
      "2007": 2557,
      "Ġcour": 2558,
      "Ġbest": 2559,
      "Override": 2560,
      "ĠNorth": 2561,
      "Ġcontrol": 2562,
      "button": 2563,
      "finished": 2564,
      "Ġproble": 2565,
      "ENT": 2566,
      "Ġshort": 2567,
      "ĠApril": 2568,
      "ĠHowever": 2569,
      "ĠEn": 2570,
      "gress": 2571,
      "ocial": 2572,
      "ename": 2573,
      "raft": 2574,
      "Ġearly": 2575,
      "Query": 2576,
      "Ġplayed": 2577,
      "Ġmag": 2578,
      "nect": 2579,
      "ands": 2580,
      "01": 2581,
      "36": 2582,
      "nu": 2583,
      "utions": 2584,
      "Ġdocument": 2585,
      "stit": 2586,
      "Ġdem": 2587,
      "Ġtake": 2588,
      "ories": 2589,
      "IL": 2590,
      "ection": 2591,
      "Ġgeneral": 2592,
      "viron": 2593,
      "semb": 2594,
      "ards": 2595,
      "build": 2596,
      "Ð¾": 2597,
      "uted": 2598,
      "ada": 2599,
      "Method": 2600,
      "null": 2601,
      "ĠNovember": 2602,
      "Ġnil": 2603,
      "ugg": 2604,
      "onse": 2605,
      "}(\\": 2606,
      "ĠIm": 2607,
      "prot": 2608,
      "Ġday": 2609,
      "aper": 2610,
      "Ġaddress": 2611,
      "born": 2612,
      "tual": 2613,
      "Ġret": 2614,
      "Ġdesign": 2615,
      "Count": 2616,
      "Ġleg": 2617,
      "Ġcity": 2618,
      "ĠAss": 2619,
      "Ġcar": 2620,
      "illion": 2621,
      "Ġdiv": 2622,
      "](": 2623,
      "respond": 2624,
      "Ġprevious": 2625,
      "Ġiss": 2626,
      "ĠII": 2627,
      "Ġspace": 2628,
      "Ġmembers": 2629,
      "ĠRep": 2630,
      "ĠTo": 2631,
      "ĠDecember": 2632,
      "ven": 2633,
      "aim": 2634,
      "eqref": 2635,
      "thern": 2636,
      "55": 2637,
      "Ġresponse": 2638,
      "actory": 2639,
      "lib": 2640,
      "current": 2641,
      "It": 2642,
      "Ġanother": 2643,
      "Builder": 2644,
      "ilit": 2645,
      "lose": 2646,
      "Date": 2647,
      "dl": 2648,
      "Ġcomput": 2649,
      "Ġproperty": 2650,
      "oken": 2651,
      "ilar": 2652,
      "Bar": 2653,
      "Ġhome": 2654,
      "ES": 2655,
      "Response": 2656,
      "reen": 2657,
      "Ġcharacter": 2658,
      "unfinished": 2659,
      "jav": 2660,
      "ography": 2661,
      "ĠNo": 2662,
      "php": 2663,
      "ram": 2664,
      "ĠMin": 2665,
      "Cl": 2666,
      "Ġwant": 2667,
      "And": 2668,
      "Ġregion": 2669,
      "OT": 2670,
      "Ġbeh": 2671,
      "Ġwidth": 2672,
      "Ġexist": 2673,
      "Ġassoci": 2674,
      "2006": 2675,
      "Ġnetwork": 2676,
      "Ġrequire": 2677,
      "leg": 2678,
      "ij": 2679,
      "ebru": 2680,
      "Ġprof": 2681,
      "90": 2682,
      "Ġaccess": 2683,
      "Call": 2684,
      "sim": 2685,
      "Ġelect": 2686,
      "ways": 2687,
      "Ġtotal": 2688,
      "Ġfa": 2689,
      "Gener": 2690,
      "eqn": 2691,
      "call": 2692,
      "IP": 2693,
      "arning": 2694,
      "yl": 2695,
      "ĠPart": 2696,
      "2000": 2697,
      "38": 2698,
      "dir": 2699,
      "query": 2700,
      "ebruary": 2701,
      "45": 2702,
      "Ġet": 2703,
      "US": 2704,
      "Ġmessage": 2705,
      "image": 2706,
      "Ġtechn": 2707,
      "NA": 2708,
      "Ġdepend": 2709,
      "imal": 2710,
      "inition": 2711,
      "Ġimp": 2712,
      "ĠBritish": 2713,
      "options": 2714,
      "bit": 2715,
      "}$,": 2716,
      "ĠMed": 2717,
      "Ġcell": 2718,
      "btn": 2719,
      "ana": 2720,
      "ham": 2721,
      "Ġopt": 2722,
      "anch": 2723,
      "ĠAb": 2724,
      "ĠSet": 2725,
      "fty": 2726,
      "ced": 2727,
      "riter": 2728,
      "args": 2729,
      "ĠEurope": 2730,
      "ending": 2731,
      "}$.": 2732,
      "ĠSer": 2733,
      "Ġrange": 2734,
      "Ġmajor": 2735,
      "ĠBy": 2736,
      "Ġlarg": 2737,
      "ready": 2738,
      "Ġaction": 2739,
      "prov": 2740,
      "omega": 2741,
      "\\,": 2742,
      "adding": 2743,
      "tra": 2744,
      "ster": 2745,
      "Ġmass": 2746,
      "eff": 2747,
      "infty": 2748,
      "Ġ<<": 2749,
      "Ġwomen": 2750,
      "Ġmember": 2751,
      "uf": 2752,
      "Ðµ": 2753,
      "ops": 2754,
      "posed": 2755,
      "ĠLeague": 2756,
      "])": 2757,
      "chema": 2758,
      "Ġrespect": 2759,
      "Ġstat": 2760,
      "Ġcompany": 2761,
      "ump": 2762,
      "Ġfull": 2763,
      "Ġes": 2764,
      "iment": 2765,
      "tilde": 2766,
      "ĠSup": 2767,
      "atab": 2768,
      "apan": 2769,
      "Ġgood": 2770,
      "Util": 2771,
      "ĠSec": 2772,
      "cond": 2773,
      "ney": 2774,
      "Ġgovernment": 2775,
      "umb": 2776,
      "Delta": 2777,
      "imate": 2778,
      "ĠRec": 2779,
      "struction": 2780,
      "Ġca": 2781,
      "ampionship": 2782,
      "Par": 2783,
      "Ġrole": 2784,
      "ither": 2785,
      "alf": 2786,
      "Sub": 2787,
      "place": 2788,
      "Ġavailable": 2789,
      "75": 2790,
      "Input": 2791,
      "Stream": 2792,
      "Ġside": 2793,
      "height": 2794,
      "Ġchange": 2795,
      "hand": 2796,
      "Ġdom": 2797,
      "Ġbas": 2798,
      "Ġcompet": 2799,
      "ino": 2800,
      "ĠKing": 2801,
      "request": 2802,
      "Ġspe": 2803,
      "Block": 2804,
      "opt": 2805,
      "Sc": 2806,
      "Image": 2807,
      "active": 2808,
      "End": 2809,
      "lor": 2810,
      "client": 2811,
      "Ġalign": 2812,
      "Pos": 2813,
      "creen": 2814,
      "cho": 2815,
      "yles": 2816,
      "Ġabove": 2817,
      "|\\": 2818,
      "Ġexec": 2819,
      "Ġparent": 2820,
      "Ġvol": 2821,
      "ĉĊ": 2822,
      "rs": 2823,
      "imum": 2824,
      "ĠBo": 2825,
      "ĠčĊ": 2826,
      "ls": 2827,
      "ones": 2828,
      "uman": 2829,
      "DI": 2830,
      "Ġbirths": 2831,
      "Status": 2832,
      "osed": 2833,
      "Ġ($": 2834,
      "ĠĠĠĠĠĠĠĠĠĠĠĠĠĠĠĠĠ": 2835,
      "ĠĠĠĠĠĠĠĠĊ": 2836,
      "((": 2837,
      "energy": 2838,
      "century": 2839,
      "Ed": 2840,
      "ĠFebruary": 2841,
      "Ġweek": 2842,
      "ĠAfter": 2843,
      "idge": 2844,
      "ĠGener": 2845,
      "alt": 2846,
      "Ġfore": 2847,
      "andom": 2848,
      "Ġsuper": 2849,
      "Ġ->": 2850,
      "Ġtele": 2851,
      "Nav": 2852,
      "Ġke": 2853,
      "ONT": 2854,
      "iple": 2855,
      "page": 2856,
      "oud": 2857,
      "Ġnamed": 2858,
      "hold": 2859,
      "ĠChrist": 2860,
      "init": 2861,
      "Ġimage": 2862,
      "Ġobserv": 2863,
      "rench": 2864,
      "ns": 2865,
      "cit": 2866,
      "Be": 2867,
      "ached": 2868,
      "App": 2869,
      "Ġtown": 2870,
      "vironment": 2871,
      "Ġland": 2872,
      "rew": 2873,
      "navbar": 2874,
      "Ġoutput": 2875,
      "na": 2876,
      "ama": 2877,
      "era": 2878,
      "header": 2879,
      "Ġcareer": 2880,
      "adio": 2881,
      "Ġperiod": 2882,
      "kn": 2883,
      "func": 2884,
      "mark": 2885,
      "xi": 2886,
      "adem": 2887,
      "run": 2888,
      "Ġcount": 2889,
      "undle": 2890,
      "Ġdefined": 2891,
      "tx": 2892,
      "raphics": 2893,
      "inary": 2894,
      "Str": 2895,
      "ĠMc": 2896,
      "pecial": 2897,
      "capt": 2898,
      "used": 2899,
      "Ġaff": 2900,
      "Ġlength": 2901,
      "190": 2902,
      "Ġcommand": 2903,
      "iff": 2904,
      "){": 2905,
      "ategory": 2906,
      "$$": 2907,
      "server": 2908,
      "ered": 2909,
      "xy": 2910,
      "Ġdon": 2911,
      "70": 2912,
      "ours": 2913,
      "âĢľ": 2914,
      "Ġturn": 2915,
      "Ġfilms": 2916,
      "Instance": 2917,
      "ĠĠĠĠĠĠĠĠĠĠĠĠĊ": 2918,
      "Ġtrack": 2919,
      "Ġhistory": 2920,
      "YPE": 2921,
      "rest": 2922,
      "2005": 2923,
      "ayout": 2924,
      "imary": 2925,
      "Act": 2926,
      "FA": 2927,
      "ysis": 2928,
      "Resource": 2929,
      "uture": 2930,
      "mo": 2931,
      "dec": 2932,
      "Ġboolean": 2933,
      "Ġhost": 2934,
      "rows": 2935,
      "Ġchildren": 2936,
      "orem": 2937,
      "NS": 2938,
      "sequ": 2939,
      "âĢĶ": 2940,
      "ĠThere": 2941,
      "({": 2942,
      "Ġ\"\"\"": 2943,
      "Ġreceived": 2944,
      ".âĢĿ": 2945,
      "Ġport": 2946,
      "gor": 2947,
      "Ġrest": 2948,
      "ention": 2949,
      "Ġdisplay": 2950,
      "Ġlabel": 2951,
      "ibility": 2952,
      "ĠNULL": 2953,
      "ĠDr": 2954,
      "No": 2955,
      "hem": 2956,
      "has": 2957,
      "ables": 2958,
      "Ġep": 2959,
      "Ġpage": 2960,
      "ependent": 2961,
      "Ġcur": 2962,
      "Ġpoints": 2963,
      "OP": 2964,
      "amework": 2965,
      "cdot": 2966,
      "Ap": 2967,
      "Ġinterest": 2968,
      "Component": 2969,
      "Ã³": 2970,
      "now": 2971,
      "append": 2972,
      "Base": 2973,
      "ĠBar": 2974,
      "Point": 2975,
      "Off": 2976,
      "Ġrequired": 2977,
      "yd": 2978,
      "Ġparticular": 2979,
      "Ġcompon": 2980,
      "ĠQu": 2981,
      "ured": 2982,
      "Ġsl": 2983,
      "igation": 2984,
      "Ġauthor": 2985,
      "eder": 2986,
      "Ġmat": 2987,
      "Action": 2988,
      "ynam": 2989,
      "ĠHigh": 2990,
      "Ġbegan": 2991,
      "non": 2992,
      "Ġheld": 2993,
      "44": 2994,
      "witch": 2995,
      "Ġtook": 2996,
      "duce": 2997,
      "target": 2998,
      "icro": 2999,
      "Ġproduct": 3000,
      "orage": 3001,
      "If": 3002,
      "ese": 3003,
      "American": 3004,
      "Ġgames": 3005,
      "Ð¸": 3006,
      "ites": 3007,
      "icense": 3008,
      "Ġbusiness": 3009,
      "oph": 3010,
      "ĠHis": 3011,
      "ĠEnglish": 3012,
      "[\"": 3013,
      "2004": 3014,
      "Ġhouse": 3015,
      "Ġtimes": 3016,
      "0000": 3017,
      "atform": 3018,
      "do": 3019,
      "ugin": 3020,
      "bottom": 3021,
      "Ġfew": 3022,
      "Attribute": 3023,
      "eople": 3024,
      "Ġband": 3025,
      "though": 3026,
      "Ġlow": 3027,
      "ĠCor": 3028,
      "Ġfeature": 3029,
      "Ġmanag": 3030,
      "parent": 3031,
      "idget": 3032,
      "rior": 3033,
      "ĠAdd": 3034,
      "Ġsimilar": 3035,
      "egr": 3036,
      "Line": 3037,
      "''": 3038,
      "Ġcreated": 3039,
      "cle": 3040,
      "Ġvalid": 3041,
      "iet": 3042,
      "Ġstudy": 3043,
      "cor": 3044,
      "reet": 3045,
      "mail": 3046,
      "eed": 3047,
      "acing": 3048,
      "Ġintro": 3049,
      "ille": 3050,
      "ought": 3051,
      "ĠMan": 3052,
      "lied": 3053,
      "istic": 3054,
      "Source": 3055,
      "Ġcorrespond": 3056,
      "Ġassum": 3057,
      "imation": 3058,
      "Ġbuilt": 3059,
      "EX": 3060,
      "artment": 3061,
      "Ġinvest": 3062,
      "REF": 3063,
      "idual": 3064,
      "thers": 3065,
      "Ġlocated": 3066,
      "ĠMe": 3067,
      "SP": 3068,
      "sembly": 3069,
      "Ġdescribed": 3070,
      "Ġpopulation": 3071,
      "child": 3072,
      "Ġclub": 3073,
      "ights": 3074,
      "ĉĉĉĉĉĉĉĉ": 3075,
      "epar": 3076,
      "Ġcomb": 3077,
      "Token": 3078,
      "Ġdest": 3079,
      "oice": 3080,
      "Select": 3081,
      "df": 3082,
      "ĠAp": 3083,
      "atabase": 3084,
      "cul": 3085,
      "EE": 3086,
      "Ġfree": 3087,
      "ĠAfr": 3088,
      "Ġ+=": 3089,
      "Ġestablished": 3090,
      "ude": 3091,
      "ertain": 3092,
      "Content": 3093,
      "ington": 3094,
      "Ġcover": 3095,
      "adata": 3096,
      "ĠAct": 3097,
      "conom": 3098,
      "Ġincluded": 3099,
      "aul": 3100,
      "ĠDes": 3101,
      "OS": 3102,
      "vers": 3103,
      "Ġevents": 3104,
      "Buffer": 3105,
      "oto": 3106,
      "48": 3107,
      "ĠĠĠĠĠĠĠĠĠĠĠĠĠĠ": 3108,
      "Options": 3109,
      "ĠJapan": 3110,
      "Ġenergy": 3111,
      "Ġspecial": 3112,
      "ĠRuss": 3113,
      "json": 3114,
      "uation": 3115,
      "istrict": 3116,
      "Ġnum": 3117,
      "meta": 3118,
      "Ġdeb": 3119,
      "xml": 3120,
      "Ġage": 3121,
      "Pol": 3122,
      "Handler": 3123,
      "eqnarray": 3124,
      "ĠChar": 3125,
      "ĠTest": 3126,
      "Ġexpected": 3127,
      "Ġsection": 3128,
      "Ġthird": 3129,
      "ansport": 3130,
      "ialog": 3131,
      "ondon": 3132,
      "select": 3133,
      "cm": 3134,
      "Dec": 3135,
      "Ġnational": 3136,
      "Ġder": 3137,
      "caption": 3138,
      "uster": 3139,
      "foot": 3140,
      "lim": 3141,
      "ĠClass": 3142,
      "gorith": 3143,
      "Ġvill": 3144,
      "rowser": 3145,
      "OL": 3146,
      "Null": 3147,
      "Ġlate": 3148,
      "Ġpublished": 3149,
      "rect": 3150,
      "member": 3151,
      "AG": 3152,
      "aves": 3153,
      "stand": 3154,
      "ado": 3155,
      "Ġappear": 3156,
      "Ġplayer": 3157,
      "Comp": 3158,
      "}[": 3159,
      "Ġcommon": 3160,
      "iber": 3161,
      "Ġsix": 3162,
      "Ġfive": 3163,
      "Link": 3164,
      "izer": 3165,
      "epsilon": 3166,
      "display": 3167,
      "Oper": 3168,
      "EL": 3169,
      "}}\\": 3170,
      "ĠAm": 3171,
      "Ġarch": 3172,
      "Ġstation": 3173,
      "ÃŃ": 3174,
      "psi": 3175,
      "Ġden": 3176,
      "gener": 3177,
      "Ġresearch": 3178,
      "rl": 3179,
      "Ġsat": 3180,
      "Ġdeterm": 3181,
      "ught": 3182,
      "ĠCont": 3183,
      "unic": 3184,
      "Ġhttp": 3185,
      "ks": 3186,
      "Ġpossible": 3187,
      "Ġsite": 3188,
      "ĠAir": 3189,
      "Command": 3190,
      "Ġarr": 3191,
      "ief": 3192,
      "first": 3193,
      "iddle": 3194,
      "ascript": 3195,
      "Ġvir": 3196,
      "ges": 3197,
      "mit": 3198,
      "AP": 3199,
      "book": 3200,
      "ently": 3201,
      "Default": 3202,
      "Ġmeasure": 3203,
      "property": 3204,
      "Run": 3205,
      "private": 3206,
      "lies": 3207,
      "ĠInt": 3208,
      "Ġimportant": 3209,
      "ensure": 3210,
      "Ġeduc": 3211,
      "Ġwater": 3212,
      "ĠPhil": 3213,
      "Start": 3214,
      "ĠEast": 3215,
      "aps": 3216,
      "ĠAmer": 3217,
      "host": 3218,
      "Ġalready": 3219,
      "ocol": 3220,
      "element": 3221,
      "Ġwhe": 3222,
      "Ġair": 3223,
      "ogn": 3224,
      "ĠPark": 3225,
      "ÑĤ": 3226,
      "Ġbody": 3227,
      "Ġcrit": 3228,
      "tributes": 3229,
      "CC": 3230,
      "Sec": 3231,
      "ford": 3232,
      "ising": 3233,
      "open": 3234,
      "ĠNone": 3235,
      "ament": 3236,
      "module": 3237,
      "aly": 3238,
      "Equal": 3239,
      "Factory": 3240,
      "ĠCollege": 3241,
      "GL": 3242,
      "Ġmodels": 3243,
      "UE": 3244,
      "rown": 3245,
      "find": 3246,
      "ĠWhen": 3247,
      "Ġcamp": 3248,
      "layout": 3249,
      "clus": 3250,
      "img": 3251,
      "case": 3252,
      "Version": 3253,
      "gle": 3254,
      "flow": 3255,
      "Ġcolumn": 3256,
      "Task": 3257,
      "05": 3258,
      "inst": 3259,
      "entry": 3260,
      "oke": 3261,
      "ĠFig": 3262,
      "known": 3263,
      "ittle": 3264,
      "png": 3265,
      "pose": 3266,
      "ĠOff": 3267,
      "Ġless": 3268,
      "Ġprint": 3269,
      ")$.": 3270,
      "*/": 3271,
      "ĠVal": 3272,
      "Part": 3273,
      "inning": 3274,
      "${": 3275,
      "aken": 3276,
      "Ġoften": 3277,
      "Ġresource": 3278,
      "post": 3279,
      "Function": 3280,
      "Us": 3281,
      "ged": 3282,
      "gen": 3283,
      "mar": 3284,
      "ĠObject": 3285,
      "abor": 3286,
      "pol": 3287,
      "std": 3288,
      "src": 3289,
      "Ġload": 3290,
      "Ġindic": 3291,
      "Ġparameters": 3292,
      "ouncil": 3293,
      "Ġmean": 3294,
      "si": 3295,
      "Window": 3296,
      "LASS": 3297,
      "Ġpot": 3298,
      "ĠDav": 3299,
      "status": 3300,
      "~~": 3301,
      "ĠArt": 3302,
      "True": 3303,
      "Ġstrong": 3304,
      "last": 3305,
      "close": 3306,
      "ha": 3307,
      "sqrt": 3308,
      "imension": 3309,
      "Ġins": 3310,
      "Hel": 3311,
      "ĠLa": 3312,
      "Ġparameter": 3313,
      "Ġamong": 3314,
      "igr": 3315,
      "ĠSw": 3316,
      "ĠLondon": 3317,
      "Ġ<!--": 3318,
      "}_{\\": 3319,
      "Om": 3320,
      "Ġbuilding": 3321,
      "Return": 3322,
      "sg": 3323,
      "ATE": 3324,
      "Ġperm": 3325,
      "itory": 3326,
      "ĠPres": 3327,
      "2001": 3328,
      "Number": 3329,
      "ĠWilliam": 3330,
      "ĠBut": 3331,
      "ĠThese": 3332,
      "ĠComp": 3333,
      "ging": 3334,
      "Ġshows": 3335,
      "push": 3336,
      "Ġofficial": 3337,
      "ald": 3338,
      "ilitary": 3339,
      "lections": 3340,
      "Ġtask": 3341,
      "ĠMon": 3342,
      "rict": 3343,
      "HT": 3344,
      "ably": 3345,
      "Ð½": 3346,
      "MS": 3347,
      "Ġprob": 3348,
      "VER": 3349,
      "Ġeither": 3350,
      "ĠBro": 3351,
      "description": 3352,
      "ptr": 3353,
      "Ġheight": 3354,
      "strong": 3355,
      "ĠHouse": 3356,
      "65": 3357,
      "Ġput": 3358,
      "Ġred": 3359,
      "ibrary": 3360,
      "Ġaccount": 3361,
      "});": 3362,
      "Ġsent": 3363,
      "reed": 3364,
      "attle": 3365,
      "arried": 3366,
      "istry": 3367,
      "ĠFrench": 3368,
      "bm": 3369,
      "char": 3370,
      "py": 3371,
      "font": 3372,
      "Ġra": 3373,
      "CK": 3374,
      "Ġaver": 3375,
      "mon": 3376,
      "ĠWith": 3377,
      "Ġmen": 3378,
      "write": 3379,
      "ĠHer": 3380,
      "Label": 3381,
      "Ġcentury": 3382,
      "2003": 3383,
      "Ġprotected": 3384,
      "dr": 3385,
      "ĠDis": 3386,
      "ĠSch": 3387,
      "javascript": 3388,
      "ĠOne": 3389,
      "Prov": 3390,
      "allet": 3391,
      "small": 3392,
      "cell": 3393,
      "ĠPer": 3394,
      "Ġwritten": 3395,
      "eline": 3396,
      "Ġfurther": 3397,
      "inner": 3398,
      "ological": 3399,
      "dict": 3400,
      "Ġserved": 3401,
      "Ġshown": 3402,
      "Ġattack": 3403,
      "len": 3404,
      "ournal": 3405,
      "ĠDef": 3406,
      "ulture": 3407,
      "su": 3408,
      "ĠSo": 3409,
      "ĠReturn": 3410,
      "Ġreturned": 3411,
      "\"]": 3412,
      "ensity": 3413,
      "Ġq": 3414,
      "Ġlight": 3415,
      "pc": 3416,
      "Ġant": 3417,
      "Fl": 3418,
      "heet": 3419,
      "FI": 3420,
      "ĠGo": 3421,
      "Ġinf": 3422,
      "udio": 3423,
      "ifact": 3424,
      "olved": 3425,
      "Ġspecies": 3426,
      "Ġconc": 3427,
      "irm": 3428,
      "ades": 3429,
      "Ġsignific": 3430,
      "Ġcountry": 3431,
      "Ġcoll": 3432,
      "sole": 3433,
      "mm": 3434,
      "ii": 3435,
      "Ġproblem": 3436,
      "Gamma": 3437,
      ",\"": 3438,
      "Ġthrows": 3439,
      "First": 3440,
      "change": 3441,
      "stream": 3442,
      "unk": 3443,
      "Ġclose": 3444,
      "Ġide": 3445,
      "Ġmer": 3446,
      "sol": 3447,
      "psilon": 3448,
      "project": 3449,
      "Ġlanguage": 3450,
      "vis": 3451,
      "uid": 3452,
      "^*": 3453,
      "mem": 3454,
      "TO": 3455,
      "Gr": 3456,
      "Ġmargin": 3457,
      "irection": 3458,
      "otype": 3459,
      "\").": 3460,
      "lip": 3461,
      "Ġ{@": 3462,
      "07": 3463,
      "roy": 3464,
      "board": 3465,
      "ĠDistrict": 3466,
      "Ġterms": 3467,
      "oo": 3468,
      "Cell": 3469,
      "ves": 3470,
      "Ġvarious": 3471,
      "ĠChampionship": 3472,
      "Check": 3473,
      "otion": 3474,
      "Button": 3475,
      "189": 3476,
      "Ġsay": 3477,
      "Ġbecome": 3478,
      "Ġfac": 3479,
      "ĠDep": 3480,
      "Ġborn": 3481,
      "2002": 3482,
      "Ġwindow": 3483,
      "atal": 3484,
      "Omega": 3485,
      "Box": 3486,
      "Ġvideo": 3487,
      "Ġclient": 3488,
      "ĠHar": 3489,
      "Ġstatus": 3490,
      "det": 3491,
      "even": 3492,
      "Ġphys": 3493,
      "urb": 3494,
      "ociation": 3495,
      "itted": 3496,
      "///": 3497,
      "Ġdistrict": 3498,
      "Ġsequ": 3499,
      "Ass": 3500,
      "Sup": 3501,
      "ĠGerman": 3502,
      "FONT": 3503,
      "PRO": 3504,
      "hel": 3505,
      "Ġperformance": 3506,
      "Ġcommunity": 3507,
      "signed": 3508,
      "ĠIN": 3509,
      "level": 3510,
      "Page": 3511,
      "Ġstructure": 3512,
      "Ġgen": 3513,
      "mt": 3514,
      "pack": 3515,
      "Ġcontain": 3516,
      "local": 3517,
      "Ġlo": 3518,
      "ftware": 3519,
      "ring": 3520,
      "Ġdevelopment": 3521,
      "ayer": 3522,
      "igger": 3523,
      "Ġimplement": 3524,
      "main": 3525,
      "Ġleast": 3526,
      "Ġsample": 3527,
      "Em": 3528,
      "iol": 3529,
      "ÑĢ": 3530,
      "SON": 3531,
      "SC": 3532,
      "subsection": 3533,
      "Ã¼": 3534,
      "Ġindiv": 3535,
      "Ġfri": 3536,
      "188": 3537,
      "actions": 3538,
      "////////////////": 3539,
      "Ġcustom": 3540,
      "Ġlimit": 3541,
      "Ġconstruct": 3542,
      "ĠNor": 3543,
      "Ġextends": 3544,
      "styles": 3545,
      "Ġprovided": 3546,
      "Create": 3547,
      "Ġhaving": 3548,
      "Ġround": 3549,
      "oding": 3550,
      "Ġmiss": 3551,
      "obj": 3552,
      "Rep": 3553,
      "Ġdouble": 3554,
      "Ġcirc": 3555,
      "mult": 3556,
      "Ġsepar": 3557,
      "49": 3558,
      "ico": 3559,
      "Back": 3560,
      "idence": 3561,
      "format": 3562,
      "chi": 3563,
      "ĠCup": 3564,
      "Ġdeg": 3565,
      "erefore": 3566,
      "menu": 3567,
      "ĠInternational": 3568,
      "params": 3569,
      "Ġtelevision": 3570,
      "Ġtrad": 3571,
      "Met": 3572,
      "Ġvia": 3573,
      "estion": 3574,
      "67": 3575,
      "container": 3576,
      "ply": 3577,
      "ocket": 3578,
      "Ġurl": 3579,
      "apping": 3580,
      "Wh": 3581,
      "ference": 3582,
      "Ġver": 3583,
      "Ġ${\\": 3584,
      "OD": 3585,
      "08": 3586,
      "Ġpay": 3587,
      "idden": 3588,
      "bor": 3589,
      "iforn": 3590,
      "iler": 3591,
      "endif": 3592,
      "UI": 3593,
      "ĠĠĠĠĠĠĠĠĠĠĠĠĠĠĠĠĠĠĠĠĠĠĠĠĠĠĠĠĠĠĠĠĠĠĠ": 3594,
      "Char": 3595,
      "Ġfeatures": 3596,
      "Ġclaim": 3597,
      "Ġpract": 3598,
      "cel": 3599,
      "pected": 3600,
      "Ġstates": 3601,
      "Ġprovide": 3602,
      "ĠAc": 3603,
      "ĠStr": 3604,
      "Ġworks": 3605,
      "Ġrelations": 3606,
      "Acc": 3607,
      ")$,": 3608,
      "ql": 3609,
      ":</": 3610,
      "47": 3611,
      "response": 3612,
      "Ġtw": 3613,
      "gl": 3614,
      "lymp": 3615,
      "Web": 3616,
      "\"),": 3617,
      "Ġauto": 3618,
      "annot": 3619,
      "Last": 3620,
      "Ġgreat": 3621,
      "Ġstarted": 3622,
      "Ġelements": 3623,
      "asing": 3624,
      "Ġnever": 3625,
      "Ġdate": 3626,
      "draw": 3627,
      "igin": 3628,
      "(&": 3629,
      "apter": 3630,
      "Column": 3631,
      "RA": 3632,
      "Controller": 3633,
      "Ġoption": 3634,
      "ĠNot": 3635,
      "Ġdiscuss": 3636,
      "Row": 3637,
      "ifornia": 3638,
      "most": 3639,
      "ills": 3640,
      "After": 3641,
      "History": 3642,
      "Det": 3643,
      "avy": 3644,
      "Ġwar": 3645,
      "Ġmillion": 3646,
      "ypes": 3647,
      "ĠMich": 3648,
      "ements": 3649,
      "year": 3650,
      "Ġcatch": 3651,
      "Ġdays": 3652,
      "Ġmethods": 3653,
      "Ġengine": 3654,
      "medi": 3655,
      "oll": 3656,
      "Ġgl": 3657,
      "Ġtoo": 3658,
      "Ext": 3659,
      "ounced": 3660,
      "ĠSan": 3661,
      ")(": 3662,
      "ris": 3663,
      "textbf": 3664,
      "```": 3665,
      "ĠAg": 3666,
      "Ġmodule": 3667,
      "Ġtoget": 3668,
      "Ġsearch": 3669,
      "Ġdiff": 3670,
      "Ġquant": 3671,
      "Ġtogether": 3672,
      "Ġacross": 3673,
      "ouch": 3674,
      "Ent": 3675,
      "Ġnov": 3676,
      "Ġyoung": 3677,
      "ients": 3678,
      "Ġgrad": 3679,
      "exp": 3680,
      "BC": 3681,
      "ĠRed": 3682,
      "Ġcost": 3683,
      "num": 3684,
      "update": 3685,
      "Ġindividual": 3686,
      "final": 3687,
      "iqu": 3688,
      "orph": 3689,
      "Ġconsidered": 3690,
      "Read": 3691,
      "Ġrecent": 3692,
      "osp": 3693,
      "can": 3694,
      "Pre": 3695,
      "ociety": 3696,
      "Child": 3697,
      "Ġnorth": 3698,
      "ceed": 3699,
      "Ġgroups": 3700,
      "Ġdev": 3701,
      "Mem": 3702,
      "Ġcontrib": 3703,
      "vare": 3704,
      "ministr": 3705,
      "ara": 3706,
      "service": 3707,
      "Ġthink": 3708,
      "}=": 3709,
      "wise": 3710,
      "Ġmove": 3711,
      "Bundle": 3712,
      "long": 3713,
      "Ġrepl": 3714,
      "NO": 3715,
      "<?": 3716,
      "cap": 3717,
      "sm": 3718,
      "stract": 3719,
      "ba": 3720,
      "Ġstory": 3721,
      "avel": 3722,
      "Ġsuff": 3723,
      "filter": 3724,
      "ABLE": 3725,
      "Ġupdate": 3726,
      "ĠRev": 3727,
      "Ġproduction": 3728,
      "ĠDo": 3729,
      "ocr": 3730,
      "orge": 3731,
      "ĠIndian": 3732,
      "Tem": 3733,
      "Listener": 3734,
      "Ġdied": 3735,
      "Ġsocial": 3736,
      "Ġvert": 3737,
      "Ġ\\,": 3738,
      "rypt": 3739,
      "ĠDiv": 3740,
      "ula": 3741,
      "TER": 3742,
      "Ġalways": 3743,
      "ĠEl": 3744,
      "Ġservices": 3745,
      "ires": 3746,
      "Ġâ": 3747,
      "Ġcross": 3748,
      "Ġfund": 3749,
      "Ġassociated": 3750,
      "à¤": 3751,
      "po": 3752,
      "Ġsom": 3753,
      "buf": 3754,
      "Ġson": 3755,
      "Ġ``": 3756,
      "hib": 3757,
      "Equals": 3758,
      "^{(": 3759,
      "Ġled": 3760,
      "aries": 3761,
      ",âĢĿ": 3762,
      "Ġadded": 3763,
      "pass": 3764,
      "Ġ((": 3765,
      "Ġreview": 3766,
      "Ġfunctions": 3767,
      "1999": 3768,
      "Ġhowever": 3769,
      "vec": 3770,
      "Ġbelow": 3771,
      "ĠSim": 3772,
      "Ġinternal": 3773,
      "Ġblack": 3774,
      "itect": 3775,
      "Ġ]": 3776,
      "BU": 3777,
      "ĠEngland": 3778,
      "Ġgrow": 3779,
      "Ġsignificant": 3780,
      "icient": 3781,
      "gorithm": 3782,
      "Ġfont": 3783,
      "Ġlower": 3784,
      "}^{\\": 3785,
      "Ġcame": 3786,
      "Ġnav": 3787,
      "II": 3788,
      "ries": 3789,
      "tempt": 3790,
      "anged": 3791,
      "ka": 3792,
      "Ġfollows": 3793,
      "Format": 3794,
      "ĠEm": 3795,
      "ĠUp": 3796,
      "oriz": 3797,
      "HE": 3798,
      "ias": 3799,
      "show": 3800,
      "refix": 3801,
      "ota": 3802,
      "Style": 3803,
      "ellow": 3804,
      "Ġsche": 3805,
      "Ġhealth": 3806,
      "ĠCalifornia": 3807,
      "Ġaddition": 3808,
      "09": 3809,
      "Ġmedia": 3810,
      "aml": 3811,
      "varepsilon": 3812,
      "Big": 3813,
      "ĠAcc": 3814,
      "eh": 3815,
      "ordin": 3816,
      "instance": 3817,
      "ynt": 3818,
      "atural": 3819,
      "Ġeas": 3820,
      "column": 3821,
      "ensor": 3822,
      "ĠÃ": 3823,
      "dev": 3824,
      "Ġproperties": 3825,
      "attr": 3826,
      "AA": 3827,
      "acity": 3828,
      "URL": 3829,
      "lying": 3830,
      "aker": 3831,
      "ids": 3832,
      "number": 3833,
      "Ġcopy": 3834,
      "Ġflow": 3835,
      "useum": 3836,
      "ilities": 3837,
      ")=": 3838,
      "isf": 3839,
      "Ġda": 3840,
      "Ġsw": 3841,
      "########": 3842,
      "Ġcou": 3843,
      "egraphics": 3844,
      "includegraphics": 3845,
      "Ġhistor": 3846,
      "Ġmeans": 3847,
      "oyal": 3848,
      "ĠCLASS": 3849,
      "burg": 3850,
      "lands": 3851,
      "Ġbetter": 3852,
      "Ġonce": 3853,
      "Ġdone": 3854,
      "ĠRiver": 3855,
      "remove": 3856,
      "amily": 3857,
      "Ġcomplex": 3858,
      "Ġpotential": 3859,
      "scope": 3860,
      "ĠAustralia": 3861,
      "encies": 3862,
      "rangle": 3863,
      "02": 3864,
      "emph": 3865,
      "agn": 3866,
      "Ġship": 3867,
      "Ġplan": 3868,
      "Spec": 3869,
      "atas": 3870,
      "Valid": 3871,
      "Ġwrite": 3872,
      "Ġnormal": 3873,
      "oon": 3874,
      "aged": 3875,
      "Ġdistribution": 3876,
      "04": 3877,
      "Ġnone": 3878,
      "Ġhalf": 3879,
      "CON": 3880,
      "flu": 3881,
      "Ġspect": 3882,
      "iding": 3883,
      "Ġear": 3884,
      "Ġglobal": 3885,
      "Filter": 3886,
      "UM": 3887,
      "uggest": 3888,
      "based": 3889,
      "ĠIndia": 3890,
      "').": 3891,
      "Ġwhether": 3892,
      "ĠMy": 3893,
      "Ġrelease": 3894,
      "Ġinstead": 3895,
      "Ġsouth": 3896,
      "Ġvillage": 3897,
      "Mode": 3898,
      "Ġspecified": 3899,
      "fa": 3900,
      "Ġge": 3901,
      "ĠInter": 3902,
      "ivil": 3903,
      "Ġspecific": 3904,
      "Ġaverage": 3905,
      "oney": 3906,
      "Ġactiv": 3907,
      "tool": 3908,
      "Ab": 3909,
      "ĠHREF": 3910,
      "Layout": 3911,
      "Ġmaking": 3912,
      "unit": 3913,
      "Ġfar": 3914,
      "Ġworking": 3915,
      "Ġapprox": 3916,
      "cer": 3917,
      "Address": 3918,
      "alle": 3919,
      "Aut": 3920,
      "Ġoffer": 3921,
      "ĠRepublic": 3922,
      "Ġcontains": 3923,
      "essional": 3924,
      "ael": 3925,
      "Ġformat": 3926,
      "DB": 3927,
      "Ob": 3928,
      "ĠIr": 3929,
      "Length": 3930,
      "People": 3931,
      "LI": 3932,
      "Ġmoved": 3933,
      "Ġfocus": 3934,
      "Ġtre": 3935,
      "Ġhapp": 3936,
      "circ": 3937,
      "1990": 3938,
      "adius": 3939,
      "Ġseen": 3940,
      "68": 3941,
      "process": 3942,
      "ĠCO": 3943,
      "ĠParty": 3944,
      "Ġproduced": 3945,
      "Ġcases": 3946,
      "Ġstudents": 3947,
      "proto": 3948,
      "else": 3949,
      "Ġable": 3950,
      "Ñģ": 3951,
      "TP": 3952,
      "istics": 3953,
      "Ġattempt": 3954,
      "omb": 3955,
      "Ġsem": 3956,
      "Ġmight": 3957,
      "Ġneg": 3958,
      "rightarrow": 3959,
      "ership": 3960,
      "tag": 3961,
      "Ġhard": 3962,
      "wrap": 3963,
      "anel": 3964,
      "vari": 3965,
      "plit": 3966,
      "Ġinternational": 3967,
      "Per": 3968,
      "Ġrate": 3969,
      "Ġstandard": 3970,
      "ĠâĢĺ": 3971,
      "chan": 3972,
      "=\"../../../../../": 3973,
      "Ġinterface": 3974,
      "Ġcenter": 3975,
      "utils": 3976,
      "ili": 3977,
      "Ġwent": 3978,
      "Living": 3979,
      "oment": 3980,
      "fe": 3981,
      "Ġserver": 3982,
      "Ġhuman": 3983,
      "Ġsystems": 3984,
      "ĠAmerica": 3985,
      "COL": 3986,
      "Ġtraining": 3987,
      "Ð¾Ð": 3988,
      "Ġactive": 3989,
      "Ġclear": 3990,
      "Ge": 3991,
      "wide": 3992,
      "Output": 3993,
      "reference": 3994,
      "Ġfields": 3995,
      "Ġnec": 3996,
      "Cache": 3997,
      "Ġlocation": 3998,
      "ems": 3999,
      "Ġwebs": 4000,
      "77": 4001,
      "Ġsit": 4002,
      "Ġsym": 4003,
      "Ġsurv": 4004,
      "sf": 4005,
      "Url": 4006,
      "Ġsold": 4007,
      "_.": 4008,
      "Ġinit": 4009,
      "SI": 4010,
      "ĠMark": 4011,
      "Server": 4012,
      "only": 4013,
      "Ġconsist": 4014,
      "izing": 4015,
      "iven": 4016,
      "Ġphot": 4017,
      "Update": 4018,
      "eleg": 4019,
      "unch": 4020,
      "TYPE": 4021,
      "chiev": 4022,
      "}).": 4023,
      "Ġrow": 4024,
      "Ġpair": 4025,
      "Ã¶": 4026,
      ".~\\": 4027,
      "lease": 4028,
      "classes": 4029,
      "iles": 4030,
      "Frame": 4031,
      "ĠCour": 4032,
      "andid": 4033,
      "Ġparticip": 4034,
      "Ġinstall": 4035,
      "ĠPort": 4036,
      "Ġemploy": 4037,
      "ensions": 4038,
      "ĠTrans": 4039,
      "lier": 4040,
      "Ġstream": 4041,
      "adian": 4042,
      "ĠHT": 4043,
      "ĠVir": 4044,
      "sd": 4045,
      "Ġremov": 4046,
      "ĠAPI": 4047,
      "Ġpress": 4048,
      "output": 4049,
      "Ġgraph": 4050,
      "[\\": 4051,
      "ĠGroup": 4052,
      "kit": 4053,
      "ĠID": 4054,
      "oted": 4055,
      "icles": 4056,
      "Ġannounced": 4057,
      "06": 4058,
      "Ġchanges": 4059,
      "Ġjob": 4060,
      "thing": 4061,
      "Ġlik": 4062,
      "Ġcy": 4063,
      "Ġestablish": 4064,
      "Ġfem": 4065,
      "58": 4066,
      "Ġwin": 4067,
      "Ġfail": 4068,
      "spec": 4069,
      "Ġlim": 4070,
      "Ġunit": 4071,
      "varphi": 4072,
      "older": 4073,
      "42": 4074,
      "ĠHol": 4075,
      "ND": 4076,
      "Eng": 4077,
      "uel": 4078,
      "Ġmaterial": 4079,
      "ises": 4080,
      "Ġmultiple": 4081,
      "Ġloss": 4082,
      "illed": 4083,
      "Ġtypes": 4084,
      "Ġsuccessful": 4085,
      "atory": 4086,
      "Rem": 4087,
      "ĠFirst": 4088,
      "strap": 4089,
      "support": 4090,
      "Ġwest": 4091,
      "depend": 4092,
      "ĠMal": 4093,
      "han": 4094,
      "aring": 4095,
      "Ġhigher": 4096,
      "overline": 4097,
      "ication": 4098,
      "resh": 4099,
      "Ġmeet": 4100,
      "Ġfather": 4101,
      "efined": 4102,
      "Provider": 4103,
      "++)": 4104,
      "ĠGeneral": 4105,
      "46": 4106,
      "PC": 4107,
      "Ġliter": 4108,
      "lit": 4109,
      "Ġfiles": 4110,
      "Ġselect": 4111,
      "De": 4112,
      "skip": 4113,
      "Ġoperation": 4114,
      "Ġaccept": 4115,
      "ĠPresident": 4116,
      "yr": 4117,
      "ĠGL": 4118,
      "Let": 4119,
      ".}": 4120,
      "Ġbox": 4121,
      "Open": 4122,
      "ãģ": 4123,
      "offset": 4124,
      "Ġbg": 4125,
      "ya": 4126,
      "=\"-": 4127,
      "Ġgoing": 4128,
      "aven": 4129,
      "Ġcle": 4130,
      "ĠBel": 4131,
      "ttps": 4132,
      "Ġdecl": 4133,
      "Ġfuture": 4134,
      ")]": 4135,
      "ĠSum": 4136,
      "ĠAward": 4137,
      "Ġstop": 4138,
      "Ġepis": 4139,
      "ĠArray": 4140,
      "Ġeconom": 4141,
      "Ġcallback": 4142,
      "obile": 4143,
      "TS": 4144,
      "artifact": 4145,
      "Ġanalysis": 4146,
      "1998": 4147,
      "afe": 4148,
      "ĠCanada": 4149,
      "Ġproduc": 4150,
      "ĠAnt": 4151,
      "Ġconditions": 4152,
      "verse": 4153,
      "Ġstep": 4154,
      "ĠDem": 4155,
      "Ġmale": 4156,
      "itte": 4157,
      "Ġtaken": 4158,
      "Ġsubject": 4159,
      "ĠSm": 4160,
      "Ġhom": 4161,
      "Ġ[]": 4162,
      "Ġmarket": 4163,
      "57": 4164,
      "example": 4165,
      "template": 4166,
      "Ġaway": 4167,
      "ERT": 4168,
      "Entity": 4169,
      "One": 4170,
      "Ġbecom": 4171,
      "ingle": 4172,
      "ĠDi": 4173,
      "Ġpolitical": 4174,
      ">>": 4175,
      "Ġcollection": 4176,
      "Ġlines": 4177,
      "bin": 4178,
      "Ġapplication": 4179,
      "ilm": 4180,
      "iers": 4181,
      "Ġ**": 4182,
      "proof": 4183,
      "Ġmatrix": 4184,
      "88": 4185,
      "ĠGovern": 4186,
      "NAME": 4187,
      "Med": 4188,
      "Ġnumer": 4189,
      "Width": 4190,
      "Ġjo": 4191,
      "boot": 4192,
      "Ġhttps": 4193,
      "prop": 4194,
      "like": 4195,
      "Ġkeep": 4196,
      "Ġ!==": 4197,
      "oded": 4198,
      "ĠBer": 4199,
      "Ġmode": 4200,
      "Ġeast": 4201,
      "geq": 4202,
      "ĠSk": 4203,
      "Ġothers": 4204,
      "exec": 4205,
      "ãĥ": 4206,
      "Ġexpress": 4207,
      "aign": 4208,
      "Ġground": 4209,
      "background": 4210,
      "Ġtheory": 4211,
      "control": 4212,
      "ounds": 4213,
      "aur": 4214,
      "Ġselected": 4215,
      "Ġfrequ": 4216,
      "Ġreported": 4217,
      "}),": 4218,
      "layer": 4219,
      "Ġdeaths": 4220,
      "Ġpaper": 4221,
      "Ġpopular": 4222,
      "03": 4223,
      "59": 4224,
      "Ġ...": 4225,
      "ping": 4226,
      "eal": 4227,
      "Ġaward": 4228,
      "Ġquery": 4229,
      "Control": 4230,
      "window": 4231,
      "ĠCouncil": 4232,
      "anks": 4233,
      "ria": 4234,
      "ĠQue": 4235,
      "Ġsuggest": 4236,
      "ĠThen": 4237,
      "plicit": 4238,
      "Min": 4239,
      "Ġadditional": 4240,
      "uge": 4241,
      "ĠLicense": 4242,
      "rote": 4243,
      "Ġthough": 4244,
      "Ġgive": 4245,
      "otal": 4246,
      "Sp": 4247,
      "scale": 4248,
      "ago": 4249,
      "Ġregular": 4250,
      "Ġlive": 4251,
      "zer": 4252,
      "ĠOF": 4253,
      "ĉĉĉĉĉĉĉ": 4254,
      "ĠÂ": 4255,
      "stitute": 4256,
      "ĠType": 4257,
      "fact": 4258,
      "ĠChurch": 4259,
      "ĠThom": 4260,
      "Enc": 4261,
      "atives": 4262,
      "ĠOlymp": 4263,
      "ĠFrance": 4264,
      "empty": 4265,
      "ipal": 4266,
      "ĠStreet": 4267,
      "Access": 4268,
      "ĠPal": 4269,
      "RI": 4270,
      "500": 4271,
      "ĠEuropean": 4272,
      "ĠRem": 4273,
      "Ġben": 4274,
      "ERR": 4275,
      "Offset": 4276,
      "&\\": 4277,
      "Top": 4278,
      "Ġamount": 4279,
      "Ġconstant": 4280,
      "Ġsimple": 4281,
      "ĉĠĠĠ": 4282,
      "Ġpast": 4283,
      "ĠJames": 4284,
      "AM": 4285,
      ".\\": 4286,
      "late": 4287,
      "ua": 4288,
      "document": 4289,
      ")^": 4290,
      "Work": 4291,
      "Ã¤": 4292,
      "ĠDon": 4293,
      "Ġenvironment": 4294,
      "ĠEX": 4295,
      "require": 4296,
      "Co": 4297,
      "âĢ¦": 4298,
      "ĠRober": 4299,
      "cs": 4300,
      "aching": 4301,
      "unn": 4302,
      "ĠArmy": 4303,
      "essages": 4304,
      "ĠSen": 4305,
      "ional": 4306,
      "tries": 4307,
      "Ġbeliev": 4308,
      "Ġbroad": 4309,
      "()->": 4310,
      "west": 4311,
      "Ġargs": 4312,
      "Utils": 4313,
      "ĠPaul": 4314,
      "Ġcompan": 4315,
      "frak": 4316,
      "Max": 4317,
      "Ġsolution": 4318,
      "modal": 4319,
      "ĠFrom": 4320,
      "izes": 4321,
      "Types": 4322,
      "float": 4323,
      "bind": 4324,
      "olve": 4325,
      "van": 4326,
      "ĠBlack": 4327,
      "hood": 4328,
      "ATION": 4329,
      "CD": 4330,
      "Entry": 4331,
      "TI": 4332,
      "aches": 4333,
      "Ġscale": 4334,
      "acc": 4335,
      "itar": 4336,
      "unt": 4337,
      "ida": 4338,
      "Ġfilter": 4339,
      "Tree": 4340,
      "},\\": 4341,
      "ĠData": 4342,
      "1980": 4343,
      "parse": 4344,
      "Ġscal": 4345,
      "Ġpur": 4346,
      "Ġcontinue": 4347,
      "=\"../../../../../../": 4348,
      "./": 4349,
      "stant": 4350,
      "rd": 4351,
      "Ġrelated": 4352,
      "Ġrandom": 4353,
      "dep": 4354,
      "Ġelection": 4355,
      "ething": 4356,
      "Ġcompos": 4357,
      "1996": 4358,
      "attern": 4359,
      "Ġfall": 4360,
      "(_": 4361,
      "reek": 4362,
      "ĠRef": 4363,
      "********************************": 4364,
      "ĠWeb": 4365,
      "tree": 4366,
      "Ġentry": 4367,
      "bool": 4368,
      "Ġconv": 4369,
      "ĠCenter": 4370,
      "tml": 4371,
      "elling": 4372,
      "Configuration": 4373,
      "ett": 4374,
      "Ġcondition": 4375,
      "Ġcapt": 4376,
      "Ġbgcolor": 4377,
      "acters": 4378,
      "Ġsatisf": 4379,
      "Tag": 4380,
      "match": 4381,
      "Vis": 4382,
      "Target": 4383,
      "Ġfig": 4384,
      "imated": 4385,
      "ĠRoman": 4386,
      "models": 4387,
      "ios": 4388,
      "Ġwebsite": 4389,
      "Case": 4390,
      "criptor": 4391,
      "Ġ(\"": 4392,
      "artifactId": 4393,
      "ams": 4394,
      "ulated": 4395,
      "Ġtransform": 4396,
      "Next": 4397,
      "stylesheet": 4398,
      "common": 4399,
      "Ġcomponent": 4400,
      "aging": 4401,
      "quare": 4402,
      "Ġachiev": 4403,
      "ĠRich": 4404,
      "Ġobtained": 4405,
      "ville": 4406,
      "Unit": 4407,
      "{{": 4408,
      "ĠFile": 4409,
      "PO": 4410,
      "Ġindependent": 4411,
      "grad": 4412,
      "Ġnames": 4413,
      "Ġroad": 4414,
      "author": 4415,
      "Ġcalcul": 4416,
      "||": 4417,
      "Description": 4418,
      "Ġareas": 4419,
      "Ġobj": 4420,
      "IO": 4421,
      "ailway": 4422,
      "]);": 4423,
      "bb": 4424,
      "ĠDavid": 4425,
      "anced": 4426,
      "Ġbehav": 4427,
      "returns": 4428,
      "Ġincludes": 4429,
      "outhern": 4430,
      "Ġworked": 4431,
      "soft": 4432,
      "root": 4433,
      "ensive": 4434,
      "Level": 4435,
      "Ġreturns": 4436,
      "Ġmid": 4437,
      "Ġrespons": 4438,
      "1997": 4439,
      "Dr": 4440,
      "}/": 4441,
      "Ġfloat": 4442,
      "break": 4443,
      "Ġroot": 4444,
      "ĠFl": 4445,
      "Ag": 4446,
      "Ġtreat": 4447,
      "adow": 4448,
      "ĠNe": 4449,
      "ĠStud": 4450,
      "Ġcome": 4451,
      "ming": 4452,
      "ĠSub": 4453,
      "There": 4454,
      "Ġinflu": 4455,
      "Load": 4456,
      "Ġprior": 4457,
      "Ġbig": 4458,
      "raz": 4459,
      "'),": 4460,
      "Ġlost": 4461,
      "Bo": 4462,
      "Ġvector": 4463,
      "AV": 4464,
      "ius": 4465,
      "56": 4466,
      "Ġentire": 4467,
      "ca": 4468,
      "frame": 4469,
      "Ġill": 4470,
      "ĠLog": 4471,
      "should": 4472,
      "Ġoperator": 4473,
      "Ġreference": 4474,
      "hline": 4475,
      "unity": 4476,
      "eft": 4477,
      "Ġcannot": 4478,
      "Ġbit": 4479,
      "Ġtemper": 4480,
      "berg": 4481,
      "Ġrecogn": 4482,
      "FO": 4483,
      "Parameter": 4484,
      "Ġaccording": 4485,
      "thon": 4486,
      "before": 4487,
      "drop": 4488,
      "etch": 4489,
      "Header": 4490,
      "command": 4491,
      "Location": 4492,
      "ĠGeorge": 4493,
      "Ġcomplete": 4494,
      "Ġparty": 4495,
      "nab": 4496,
      "Ġfront": 4497,
      "inated": 4498,
      "ĠApp": 4499,
      "78": 4500,
      "istance": 4501,
      "Ġappoint": 4502,
      "Ġmilitary": 4503,
      "CODE": 4504,
      "Po": 4505,
      "Ġtool": 4506,
      "UP": 4507,
      "values": 4508,
      "Container": 4509,
      "Schema": 4510,
      "hent": 4511,
      "ĠAssociation": 4512,
      "ĠLaw": 4513,
      "uint": 4514,
      "Ġbi": 4515,
      "Ġapproach": 4516,
      "appa": 4517,
      "Search": 4518,
      "arter": 4519,
      ".$": 4520,
      "Ġremove": 4521,
      "prototype": 4522,
      "Br": 4523,
      "hi": 4524,
      "images": 4525,
      "Ġdensity": 4526,
      "bolds": 4527,
      "Height": 4528,
      "Interface": 4529,
      "Ġcertain": 4530,
      "wood": 4531,
      "oe": 4532,
      "ĠNS": 4533,
      "ores": 4534,
      "Ġconnection": 4535,
      "groupId": 4536,
      "border": 4537,
      "Ġuint": 4538,
      "achine": 4539,
      "asons": 4540,
      "ĠMod": 4541,
      "%;": 4542,
      "Position": 4543,
      "Ġcurrently": 4544,
      "Ġintegr": 4545,
      "ĠMet": 4546,
      "Ġhold": 4547,
      "Ġdeveloped": 4548,
      "langle": 4549,
      "under": 4550,
      "Ġpolitic": 4551,
      "Ġsolid": 4552,
      "Ġlittle": 4553,
      "][": 4554,
      "ĠHam": 4555,
      "([": 4556,
      "cache": 4557,
      "ston": 4558,
      "ĠCr": 4559,
      "boldsymbol": 4560,
      "sy": 4561,
      "ĠChina": 4562,
      "mat": 4563,
      "Op": 4564,
      "Ġpresident": 4565,
      "erry": 4566,
      "95": 4567,
      "ĠArg": 4568,
      "Ġrunning": 4569,
      "Ġask": 4570,
      "wait": 4571,
      "Ġdraw": 4572,
      "abs": 4573,
      "ander": 4574,
      "Ġoffset": 4575,
      "Ġ;": 4576,
      "ube": 4577,
      "uz": 4578,
      "SH": 4579,
      "41": 4580,
      "Ġvirtual": 4581,
      "BA": 4582,
      "ĠDivision": 4583,
      "resource": 4584,
      "cr": 4585,
      "43": 4586,
      "Ġrights": 4587,
      "Ġwrote": 4588,
      "ashington": 4589,
      "ario": 4590,
      "Exec": 4591,
      "iting": 4592,
      ">,": 4593,
      "\"))": 4594,
      "ctor": 4595,
      "otes": 4596,
      "dated": 4597,
      "1995": 4598,
      "rief": 4599,
      "nected": 4600,
      "Ġautom": 4601,
      "Ġlen": 4602,
      "ãĤ": 4603,
      "olic": 4604,
      "ĠMore": 4605,
      "oms": 4606,
      "mathfrak": 4607,
      "agon": 4608,
      "buffer": 4609,
      "Ġpadding": 4610,
      "mut": 4611,
      "Ġtim": 4612,
      "ani": 4613,
      "Ġreason": 4614,
      "Process": 4615,
      "files": 4616,
      "icult": 4617,
      "token": 4618,
      ".)": 4619,
      "ĠOut": 4620,
      "Ġclos": 4621,
      "ĠUnion": 4622,
      "ldots": 4623,
      "ena": 4624,
      "conf": 4625,
      "Ġwhite": 4626,
      "KE": 4627,
      "utive": 4628,
      "Ġtag": 4629,
      "}}$": 4630,
      "Ġcompleted": 4631,
      "sign": 4632,
      "Ġcut": 4633,
      "orizont": 4634,
      "Ġcho": 4635,
      "ĠGermany": 4636,
      "Ġjoined": 4637,
      "Ġprop": 4638,
      "aints": 4639,
      "Ġteams": 4640,
      "Ġrespectively": 4641,
      "uses": 4642,
      "ĠLou": 4643,
      "Module": 4644,
      "expected": 4645,
      "Lambda": 4646,
      "arks": 4647,
      "Ġeval": 4648,
      "API": 4649,
      "bra": 4650,
      "isk": 4651,
      "imately": 4652,
      "lice": 4653,
      "ĠHall": 4654,
      "ĠMount": 4655,
      "1970": 4656,
      "Ġthus": 4657,
      "Ġpositive": 4658,
      "patch": 4659,
      "typ": 4660,
      "Can": 4661,
      "Ġstage": 4662,
      "Ġforce": 4663,
      "ittee": 4664,
      "Fe": 4665,
      "Ġcorresponding": 4666,
      "Ġenough": 4667,
      "Ġopened": 4668,
      "ĠArch": 4669,
      "Empty": 4670,
      "Ġwhose": 4671,
      "Ġbuffer": 4672,
      "och": 4673,
      "bert": 4674,
      "Ġgot": 4675,
      "ĠPe": 4676,
      "aine": 4677,
      "gin": 4678,
      "Ġperformed": 4679,
      "Ġrather": 4680,
      "VAL": 4681,
      "Le": 4682,
      "kind": 4683,
      "Ġcontract": 4684,
      "Ġkind": 4685,
      "Ġnecess": 4686,
      "which": 4687,
      "ĠTV": 4688,
      "ĠReturns": 4689,
      "ugins": 4690,
      "ĠMart": 4691,
      "Ġleading": 4692,
      "cial": 4693,
      "rian": 4694,
      "Ġcast": 4695,
      "ros": 4696,
      "ĠThat": 4697,
      "ened": 4698,
      "Ġviol": 4699,
      "Record": 4700,
      "ci": 4701,
      "Hash": 4702,
      "ĠRoyal": 4703,
      "Menu": 4704,
      "Ġdirector": 4705,
      "ctx": 4706,
      "You": 4707,
      "Http": 4708,
      "'>": 4709,
      "Script": 4710,
      "Ġobjects": 4711,
      "Ġeducation": 4712,
      "env": 4713,
      "Ġmonths": 4714,
      "ini": 4715,
      "ĠDepartment": 4716,
      "Lo": 4717,
      "Ġmarried": 4718,
      "QL": 4719,
      "Ġfire": 4720,
      "Ġinc": 4721,
      "Ġsupported": 4722,
      "Ġdoc": 4723,
      "band": 4724,
      "Range": 4725,
      "Ġhon": 4726,
      "RL": 4727,
      "Json": 4728,
      "Current": 4729,
      "Ġmot": 4730,
      "Params": 4731,
      "Ġ*)": 4732,
      "enced": 4733,
      "Ġ{}": 4734,
      "Ġrock": 4735,
      "device": 4736,
      "astic": 4737,
      "ULT": 4738,
      "Ġallowed": 4739,
      "Ġdefe": 4740,
      "mbox": 4741,
      "Ġbar": 4742,
      "Ġfailed": 4743,
      "tog": 4744,
      "ĠMag": 4745,
      "stry": 4746,
      "hest": 4747,
      "tim": 4748,
      "1994": 4749,
      "Sim": 4750,
      "Ġten": 4751,
      "Font": 4752,
      "ĠĠĠĠĠĠĠĠĠĠĠĠĠĠĠĠĠĠĠĠĠ": 4753,
      "Ġsm": 4754,
      "Phi": 4755,
      "MM": 4756,
      "ĠRoad": 4757,
      "COLOR": 4758,
      "Ġprofessional": 4759,
      "iform": 4760,
      "ĠLet": 4761,
      "Ġiter": 4762,
      "aa": 4763,
      "How": 4764,
      "orizontal": 4765,
      "Ġsurface": 4766,
      "Ġflo": 4767,
      "Ġphase": 4768,
      "essor": 4769,
      "Ġsigned": 4770,
      "ZE": 4771,
      "rea": 4772,
      "Ġir": 4773,
      "Ġexception": 4774,
      "citep": 4775,
      "When": 4776,
      "task": 4777,
      "Ġstar": 4778,
      "stack": 4779,
      "weight": 4780,
      "split": 4781,
      "gn": 4782,
      "Ġrank": 4783,
      "dot": 4784,
      "ĠUs": 4785,
      "itch": 4786,
      "Ġconduct": 4787,
      "Ġoffic": 4788,
      "1992": 4789,
      "\"));": 4790,
      "Ġcompanies": 4791,
      "Ġdynam": 4792,
      "tains": 4793,
      "Ġtree": 4794,
      "otimes": 4795,
      "anger": 4796,
      "ECT": 4797,
      "ĠOpen": 4798,
      "Bl": 4799,
      "uous": 4800,
      "itude": 4801,
      "Write": 4802,
      "Ġdescription": 4803,
      "Ġconstruction": 4804,
      "Ġdetails": 4805,
      "SO": 4806,
      "cos": 4807,
      "alled": 4808,
      "ughter": 4809,
      "ponents": 4810,
      "IGN": 4811,
      "ĠAustralian": 4812,
      "ĠDan": 4813,
      "Ġimprov": 4814,
      "icture": 4815,
      "Ġdefine": 4816,
      "Ġ~": 4817,
      ":\"": 4818,
      "Mon": 4819,
      "ĠWork": 4820,
      "Thread": 4821,
      "Local": 4822,
      "Ġuses": 4823,
      "Callback": 4824,
      "Rel": 4825,
      "Ġmakes": 4826,
      "Ġvoc": 4827,
      "Ġclosed": 4828,
      "entity": 4829,
      "pite": 4830,
      "Ġreally": 4831,
      "ĠProv": 4832,
      "zon": 4833,
      "ĠSince": 4834,
      "Ġpolicy": 4835,
      "debug": 4836,
      "oder": 4837,
      "auth": 4838,
      "asket": 4839,
      "ederal": 4840,
      "Ġ\"\\": 4841,
      "oring": 4842,
      "language": 4843,
      "Ġapplic": 4844,
      "dat": 4845,
      "DIR": 4846,
      "ĠCourt": 4847,
      "hash": 4848,
      "DL": 4849,
      "ĠAng": 4850,
      "None": 4851,
      "Ġarchitect": 4852,
      "make": 4853,
      "den": 4854,
      "ĉĉĊ": 4855,
      "Ġdig": 4856,
      "Ġexists": 4857,
      "ĠMusic": 4858,
      "inese": 4859,
      "pop": 4860,
      "ln": 4861,
      "ĠService": 4862,
      "Port": 4863,
      "Track": 4864,
      "Ġgoal": 4865,
      "51": 4866,
      "CL": 4867,
      "Ġqual": 4868,
      "98": 4869,
      "Ġpers": 4870,
      "irectory": 4871,
      "asc": 4872,
      "nabla": 4873,
      "&&": 4874,
      "Ġfav": 4875,
      "ao": 4876,
      "Ġcharacters": 4877,
      "cy": 4878,
      ":(": 4879,
      "textit": 4880,
      "docs": 4881,
      "Ġchannel": 4882,
      "ĠCompany": 4883,
      "bootstrap": 4884,
      "Ġsays": 4885,
      "Ġpack": 4886,
      "ĠDuring": 4887,
      "Ġcandid": 4888,
      "Ġexcept": 4889,
      "cons": 4890,
      "Ġsett": 4891,
      "Copy": 4892,
      "Ġ::": 4893,
      "Ġstri": 4894,
      "utor": 4895,
      "MO": 4896,
      "Ġcorrect": 4897,
      "Project": 4898,
      "Ġcontinued": 4899,
      "za": 4900,
      "itting": 4901,
      "Ġscreen": 4902,
      "Serial": 4903,
      "Ġzero": 4904,
      "CP": 4905,
      "Connection": 4906,
      "track": 4907,
      "issions": 4908,
      "agment": 4909,
      "Option": 4910,
      "atio": 4911,
      "Ġlinear": 4912,
      "Ġnovel": 4913,
      "ully": 4914,
      "ala": 4915,
      "ĠCreate": 4916,
      "Ġyet": 4917,
      "Ġparts": 4918,
      "Ġsongs": 4919,
      "Ġsets": 4920,
      "Ġ>=": 4921,
      "gu": 4922,
      "ensuremath": 4923,
      "icker": 4924,
      "Ġitself": 4925,
      "hr": 4926,
      "shire": 4927,
      "ĠMary": 4928,
      "Settings": 4929,
      "Ġdegree": 4930,
      "Change": 4931,
      "Ġparams": 4932,
      "Ġvict": 4933,
      "1993": 4934,
      "di": 4935,
      "ĠJack": 4936,
      "\\%": 4937,
      "anges": 4938,
      "ounter": 4939,
      "ĠMor": 4940,
      "ĠUK": 4941,
      "ĠWashington": 4942,
      "nap": 4943,
      "Ġattribute": 4944,
      "kappa": 4945,
      "ano": 4946,
      "ĠCap": 4947,
      "icons": 4948,
      "Ġpassed": 4949,
      "Ġsequence": 4950,
      "greg": 4951,
      "ledge": 4952,
      "ĠSam": 4953,
      "ategy": 4954,
      "Ġcourse": 4955,
      "ĠTime": 4956,
      "Ġoffice": 4957,
      "INE": 4958,
      "Ġconstr": 4959,
      "Ġalmost": 4960,
      "fg": 4961,
      "Ġprovides": 4962,
      "Ġdebut": 4963,
      "ĠRobert": 4964,
      "Ġwriting": 4965,
      "Ġcentral": 4966,
      "Ġconfiguration": 4967,
      "Ġinj": 4968,
      "ein": 4969,
      "=\"/": 4970,
      "96": 4971,
      "Ġvers": 4972,
      "umni": 4973,
      "ĠFranc": 4974,
      "ĠVol": 4975,
      "Ġdeal": 4976,
      "Ġfilename": 4977,
      "card": 4978,
      "fs": 4979,
      "97": 4980,
      "\\|": 4981,
      "Inst": 4982,
      "footer": 4983,
      "Ġhandle": 4984,
      "omic": 4985,
      "ĠAcadem": 4986,
      "Ġempty": 4987,
      "Parser": 4988,
      "Ġneeded": 4989,
      "INT": 4990,
      "Ġoperations": 4991,
      "ictionary": 4992,
      "ĠSome": 4993,
      "then": 4994,
      "uate": 4995,
      "ĠPress": 4996,
      "uri": 4997,
      "nonumber": 4998,
      "Ġunique": 4999,
      "Ġstore": 5000,
      "Ġrev": 5001,
      "ursor": 5002,
      "hover": 5003,
      "Ġmoment": 5004,
      "Ġscope": 5005,
      "Ġsomething": 5006,
      "ĠInstitute": 5007,
      "ĠBuild": 5008,
      "Ġprimary": 5009,
      "Ġequal": 5010,
      "Ġsoftware": 5011,
      "ĠBook": 5012,
      "arily": 5013,
      "():": 5014,
      "Ġlearn": 5015,
      "illa": 5016,
      "rupt": 5017,
      "ĠSee": 5018,
      "54": 5019,
      "Ġcred": 5020,
      "Ġchurch": 5021,
      "oute": 5022,
      "ixt": 5023,
      "ĠMex": 5024,
      "Ġrelationship": 5025,
      "Ġxml": 5026,
      "Ġweight": 5027,
      "Ġregister": 5028,
      "%%": 5029,
      "Ġgenerated": 5030,
      "ĠBest": 5031,
      "Ġwords": 5032,
      "Ġchanged": 5033,
      "ĠBay": 5034,
      "Ġcontr": 5035,
      "plete": 5036,
      "ulations": 5037,
      "Collection": 5038,
      "Document": 5039,
      "jo": 5040,
      "Ġdistance": 5041,
      "sey": 5042,
      "Ġpattern": 5043,
      "Ġrecorded": 5044,
      "estival": 5045,
      "Integer": 5046,
      "ĠDec": 5047,
      "2023": 5048,
      "Ġtour": 5049,
      "Ġequation": 5050,
      "Ġnatural": 5051,
      "Ġselection": 5052,
      "Impl": 5053,
      "join": 5054,
      "ĠException": 5055,
      "Ġoverride": 5056,
      "52": 5057,
      "ACK": 5058,
      "iation": 5059,
      "Ġadministr": 5060,
      "Ġradio": 5061,
      "Ġneigh": 5062,
      "Ġlarger": 5063,
      "Ġmonth": 5064,
      "Ġregard": 5065,
      "ĠSociety": 5066,
      "system": 5067,
      "CA": 5068,
      "Ġtransfer": 5069,
      "ĠIsland": 5070,
      "Sigma": 5071,
      "ĠNews": 5072,
      "kr": 5073,
      "})$": 5074,
      "Ġdevice": 5075,
      "ometry": 5076,
      "Ġframe": 5077,
      "IF": 5078,
      "NavBar": 5079,
      "igen": 5080,
      "1991": 5081,
      "second": 5082,
      "Ġplatform": 5083,
      "Properties": 5084,
      "Ġmodern": 5085,
      "Ġtaking": 5086,
      "ĠGreen": 5087,
      "Pass": 5088,
      "HO": 5089,
      "Ġrule": 5090,
      "Ġword": 5091,
      "Expression": 5092,
      "ĠTex": 5093,
      "rey": 5094,
      "uated": 5095,
      "={": 5096,
      "=#": 5097,
      "Ġproposed": 5098,
      "ART": 5099,
      "oul": 5100,
      "oom": 5101,
      "ĠTown": 5102,
      "(:": 5103,
      "\">&": 5104,
      "pecially": 5105,
      "Ġupon": 5106,
      "Ġhimself": 5107,
      "interface": 5108,
      "bon": 5109,
      "Ġque": 5110,
      "Ġrace": 5111,
      "mission": 5112,
      "Ġplaying": 5113,
      "Dir": 5114,
      "msg": 5115,
      "material": 5116,
      "(-": 5117,
      "Ġsetting": 5118,
      "Fig": 5119,
      "ĠPublic": 5120,
      "alls": 5121,
      "ospital": 5122,
      "Ġhash": 5123,
      "Ġacqu": 5124,
      "Ġintroduced": 5125,
      "bour": 5126,
      "ĠItal": 5127,
      "ĠBase": 5128,
      "Ġrelative": 5129,
      "76": 5130,
      "Ġ['": 5131,
      "Ġcampaign": 5132,
      "Ġtro": 5133,
      "ensus": 5134,
      "Ġchall": 5135,
      "ä¸": 5136,
      "ĠMiss": 5137,
      "liament": 5138,
      "ĠMac": 5139,
      "ĠHen": 5140,
      "Ġfight": 5141,
      "antic": 5142,
      "panel": 5143,
      "Post": 5144,
      "site": 5145,
      "cat": 5146,
      "clear": 5147,
      "success": 5148,
      "Vert": 5149,
      "anner": 5150,
      "Ð°Ð": 5151,
      "Ġtemplate": 5152,
      "Ġexpression": 5153,
      "ura": 5154,
      "Stat": 5155,
      "pg": 5156,
      "Ġdirectly": 5157,
      "Ġalthough": 5158,
      "ĠClub": 5159,
      "Sk": 5160,
      "Ġlove": 5161,
      "Ġtakes": 5162,
      "ĠPre": 5163,
      "strict": 5164,
      "just": 5165,
      "vector": 5166,
      "Ġdiscover": 5167,
      "Ġoutside": 5168,
      "Ġrot": 5169,
      "Ġsil": 5170,
      "Ġsession": 5171,
      "men": 5172,
      "Prot": 5173,
      "ĠPat": 5174,
      "Ġissue": 5175,
      "Ġmar": 5176,
      "ĠDay": 5177,
      "Ġwife": 5178,
      "Ġthings": 5179,
      "Ġnight": 5180,
      "note": 5181,
      "after": 5182,
      "elt": 5183,
      "Ġdesigned": 5184,
      "Match": 5185,
      "ĠBG": 5186,
      "ĠAfrica": 5187,
      "Ġthought": 5188,
      "send": 5189,
      "Mar": 5190,
      "mes": 5191,
      "ĠForm": 5192,
      "###": 5193,
      "Ġwriter": 5194,
      "dest": 5195,
      "Session": 5196,
      "Ġdirected": 5197,
      "Ġproof": 5198,
      "Ġexperience": 5199,
      "ĠOper": 5200,
      "ĠGames": 5201,
      "Ġfollowed": 5202,
      "iences": 5203,
      "Ġfriend": 5204,
      "Ġkm": 5205,
      "delete": 5206,
      "address": 5207,
      "Async": 5208,
      "Ġdirection": 5209,
      "ĠJust": 5210,
      "ĠCanadian": 5211,
      "Ġsure": 5212,
      "XX": 5213,
      "road": 5214,
      "================================": 5215,
      "ĠTur": 5216,
      "ipp": 5217,
      "Icon": 5218,
      "Ġprinc": 5219,
      "Ġweb": 5220,
      "Operation": 5221,
      "ancial": 5222,
      "Do": 5223,
      "ws": 5224,
      "ĠYear": 5225,
      "ĠAlex": 5226,
      "Core": 5227,
      "IV": 5228,
      "yes": 5229,
      "ĠCong": 5230,
      "icket": 5231,
      "ĉĠ": 5232,
      "Ġexact": 5233,
      "ĠLeg": 5234,
      "53": 5235,
      "ĠĠĠĠĠĠĠĠĠĠĠĠĠĠĠĠĠĠĠĠĠĠĠĠĠĠĠĠĠĠĠĠĠĠĠĠĠĠĠ": 5236,
      "ultural": 5237,
      "oundation": 5238,
      "Ġvisit": 5239,
      "=\"_": 5240,
      "apse": 5241,
      "Ġmaximum": 5242,
      "subset": 5243,
      "onic": 5244,
      "Store": 5245,
      "DF": 5246,
      "1960": 5247,
      "arts": 5248,
      "ĠDE": 5249,
      "anagement": 5250,
      "Ġmemory": 5251,
      "Ġecho": 5252,
      "Ġarguments": 5253,
      "het": 5254,
      "Use": 5255,
      "fill": 5256,
      "Tool": 5257,
      "nce": 5258,
      "more": 5259,
      "Ġmulti": 5260,
      "Left": 5261,
      "Ġsound": 5262,
      "sv": 5263,
      "Ġfixed": 5264,
      "copy": 5265,
      "ĠMo": 5266,
      "UB": 5267,
      "Ġdoesn": 5268,
      "Ġnor": 5269,
      "operator": 5270,
      "ynch": 5271,
      "Ġliving": 5272,
      "ĠWhile": 5273,
      "click": 5274,
      "Ġmechan": 5275,
      "ĠMer": 5276,
      "widget": 5277,
      "Ġmother": 5278,
      "ĠAfrican": 5279,
      "Ġunderstand": 5280,
      "Ġalt": 5281,
      "Helper": 5282,
      "Ġformed": 5283,
      "ĠTO": 5284,
      "Ġissues": 5285,
      "ĠLem": 5286,
      "Ġappeared": 5287,
      "ĠThomas": 5288,
      "Ġconnect": 5289,
      "Ġprec": 5290,
      "structor": 5291,
      "1989": 5292,
      "ye": 5293,
      "normal": 5294,
      "72": 5295,
      "Ġsend": 5296,
      "Ġincrease": 5297,
      "Ġseg": 5298,
      "'],": 5299,
      "tion": 5300,
      "Template": 5301,
      "bound": 5302,
      "Sign": 5303,
      "ĠKingdom": 5304,
      "Ġargument": 5305,
      "Ġvariable": 5306,
      "Ġexperiment": 5307,
      "uit": 5308,
      "Ġdam": 5309,
      "cover": 5310,
      "Ġschools": 5311,
      "wid": 5312,
      "ALL": 5313,
      "Down": 5314,
      "types": 5315,
      "blockList": 5316,
      "}}{": 5317,
      "Ġlargest": 5318,
      "Ġusually": 5319,
      "ĠOR": 5320,
      "ervices": 5321,
      "plugin": 5322,
      "ĠJer": 5323,
      "Ġeffects": 5324,
      "pring": 5325,
      "Ġalgorithm": 5326,
      "focus": 5327,
      "vas": 5328,
      "ĠRussian": 5329,
      "Ġswitch": 5330,
      "amera": 5331,
      ";->": 5332,
      "Draw": 5333,
      "ĠMat": 5334,
      "export": 5335,
      "asic": 5336,
      "sort": 5337,
      "\\[": 5338,
      "Ġneeds": 5339,
      "Ġprote": 5340,
      "ilies": 5341,
      "oma": 5342,
      "255": 5343,
      "ĠAssert": 5344,
      "ĠCentral": 5345,
      "Ġjav": 5346,
      "Ġthroughout": 5347,
      "icrosoft": 5348,
      "Ġexpand": 5349,
      "Ġpercent": 5350,
      "mode": 5351,
      "ĠSal": 5352,
      "Ġcompar": 5353,
      "airs": 5354,
      "?:": 5355,
      "Ġstre": 5356,
      "Ġinfo": 5357,
      "ĠMad": 5358,
      "ĠName": 5359,
      "izations": 5360,
      "Ptr": 5361,
      "reater": 5362,
      "Ġquestion": 5363,
      "panish": 5364,
      "arian": 5365,
      "ĠDemocr": 5366,
      "asketball": 5367,
      "uan": 5368,
      "ĠCheck": 5369,
      "Ġnews": 5370,
      "toString": 5371,
      "Ġfood": 5372,
      "PECT": 5373,
      "transform": 5374,
      "ĠGrand": 5375,
      "Ġalbums": 5376,
      "disabled": 5377,
      "Ġmount": 5378,
      "padding": 5379,
      "Ġtax": 5380,
      "ĠĠĠĠĠĠĊ": 5381,
      "Te": 5382,
      "Ġeffort": 5383,
      "ĠAccording": 5384,
      "thm": 5385,
      "Ġstudies": 5386,
      "Ġmissing": 5387,
      "Que": 5388,
      "Ġnom": 5389,
      "porary": 5390,
      "lam": 5391,
      "mid": 5392,
      "coll": 5393,
      "Mult": 5394,
      "ĠRE": 5395,
      "Pop": 5396,
      "rial": 5397,
      "Ġmus": 5398,
      "Ġscript": 5399,
      "Ġinvolved": 5400,
      "BO": 5401,
      "ĠMap": 5402,
      "coq": 5403,
      "---": 5404,
      "Ġpredict": 5405,
      "ĠEar": 5406,
      "Ġfeel": 5407,
      "/\\": 5408,
      "Ġtransport": 5409,
      "elegate": 5410,
      "clude": 5411,
      "300": 5412,
      "ĠCath": 5413,
      "DD": 5414,
      "Ġnumbers": 5415,
      "Ev": 5416,
      "ĠĠĠĠĠĠĠĠĠĠĠĠĠĠĠĠĠĠĠĠ": 5417,
      "Ġeight": 5418,
      "Ġhous": 5419,
      "1000": 5420,
      "Ġunits": 5421,
      "rics": 5422,
      "-->": 5423,
      "ĠDirect": 5424,
      "Ġrender": 5425,
      "Ġspeed": 5426,
      "erman": 5427,
      "Ġtoken": 5428,
      "inding": 5429,
      "internal": 5430,
      "Ġface": 5431,
      "ĠMichael": 5432,
      "webkit": 5433,
      "That": 5434,
      "ĠMuseum": 5435,
      "Ġcomment": 5436,
      "Ġconcern": 5437,
      "cp": 5438,
      "Order": 5439,
      "equals": 5440,
      "win": 5441,
      "Ġbirth": 5442,
      "Device": 5443,
      "ds": 5444,
      "media": 5445,
      "Ġfinished": 5446,
      "Ġ})": 5447,
      "ĠTom": 5448,
      "ifying": 5449,
      "STR": 5450,
      "scal": 5451,
      "Ġleague": 5452,
      "PL": 5453,
      "eck": 5454,
      "dist": 5455,
      "$(": 5456,
      "endar": 5457,
      "equal": 5458,
      "'re": 5459,
      "ĠTrue": 5460,
      "Ġdifficult": 5461,
      "ipe": 5462,
      "Rect": 5463,
      "Ġlearning": 5464,
      "Ġfactor": 5465,
      "SA": 5466,
      "Ġusers": 5467,
      "exports": 5468,
      "Right": 5469,
      "Ġbehind": 5470,
      "ictor": 5471,
      "las": 5472,
      "86": 5473,
      "Ġallows": 5474,
      "ataset": 5475,
      "Ġonline": 5476,
      "ĠOb": 5477,
      "Ġreve": 5478,
      "atively": 5479,
      "range": 5480,
      "ĠMont": 5481,
      "ean": 5482,
      "ĠWhite": 5483,
      "Ġsus": 5484,
      "Ġelected": 5485,
      "etime": 5486,
      "ĠSection": 5487,
      "ĠHistor": 5488,
      "Ġfounded": 5489,
      "ĠLoc": 5490,
      "Ġboard": 5491,
      "rael": 5492,
      "idents": 5493,
      "arp": 5494,
      "IM": 5495,
      "Ġhit": 5496,
      "ĠJapanese": 5497,
      "Ġgave": 5498,
      "edy": 5499,
      "access": 5500,
      "Ġsports": 5501,
      "79": 5502,
      "Ġtoday": 5503,
      "Host": 5504,
      "azine": 5505,
      "ĠBGCOLOR": 5506,
      "ĠRecords": 5507,
      "Ġimmedi": 5508,
      "ĠHel": 5509,
      "Vector": 5510,
      "IR": 5511,
      "Title": 5512,
      "annotation": 5513,
      "Ġprogress": 5514,
      "nov": 5515,
      "Ġequival": 5516,
      "HP": 5517,
      "Results": 5518,
      "ĠST": 5519,
      "anning": 5520,
      "Ġindu": 5521,
      "Exp": 5522,
      "Ġsort": 5523,
      "ĠScott": 5524,
      "1988": 5525,
      "Sl": 5526,
      "Tim": 5527,
      "eek": 5528,
      "Ġimages": 5529,
      "ĠTexas": 5530,
      "ĠResearch": 5531,
      "ĠGold": 5532,
      "Ġindustry": 5533,
      "force": 5534,
      "Ġorigin": 5535,
      "ĠCarol": 5536,
      "Ġjud": 5537,
      "Ġeditor": 5538,
      "Vari": 5539,
      "Ġtransition": 5540,
      "FL": 5541,
      "illing": 5542,
      "handle": 5543,
      "gan": 5544,
      "Ġpersonal": 5545,
      "real": 5546,
      "ining": 5547,
      "FC": 5548,
      "mas": 5549,
      "vention": 5550,
      "Classes": 5551,
      "ĠZeal": 5552,
      "Ġreplaced": 5553,
      "ĠEnd": 5554,
      "ĠDel": 5555,
      "ournament": 5556,
      "Ġlonger": 5557,
      "ĠField": 5558,
      "ĠPo": 5559,
      "Ġabs": 5560,
      "Ġbooks": 5561,
      "ĠTor": 5562,
      "Ġobserved": 5563,
      "ducation": 5564,
      "agram": 5565,
      "Long": 5566,
      "Xml": 5567,
      "}-": 5568,
      "Su": 5569,
      "ĠWestern": 5570,
      "Ġconvert": 5571,
      "Ġlot": 5572,
      "Ġdefinition": 5573,
      "zeta": 5574,
      "session": 5575,
      "Ġcountries": 5576,
      "Ġign": 5577,
      "ĠAssembly": 5578,
      "Names": 5579,
      "Ġtalk": 5580,
      "CR": 5581,
      "ĠOther": 5582,
      "ATA": 5583,
      "Ġmanagement": 5584,
      "Iter": 5585,
      "ĠScience": 5586,
      "ĠChinese": 5587,
      "ĠJew": 5588,
      "dependency": 5589,
      "Ġitems": 5590,
      "Ġimm": 5591,
      "thlet": 5592,
      "Ġjoin": 5593,
      "Reference": 5594,
      "ening": 5595,
      "Stack": 5596,
      "widet": 5597,
      "toggle": 5598,
      "SD": 5599,
      "global": 5600,
      "Ġexisting": 5601,
      "ĠSing": 5602,
      "ERROR": 5603,
      "irit": 5604,
      "Ġconsum": 5605,
      "ĠZealand": 5606,
      "scri": 5607,
      "Dep": 5608,
      "Ġpresented": 5609,
      "Ġgives": 5610,
      "Ġmanager": 5611,
      "component": 5612,
      "Ġpreviously": 5613,
      "Go": 5614,
      "ĠLouis": 5615,
      "pling": 5616,
      "Ġimpact": 5617,
      "ĠMem": 5618,
      "ĠSuper": 5619,
      "Metadata": 5620,
      "ĠBen": 5621,
      "Ġstaff": 5622,
      "Ġespecially": 5623,
      "400": 5624,
      "ells": 5625,
      "ĠAcademy": 5626,
      "ĠItalian": 5627,
      "Rev": 5628,
      ";\\": 5629,
      "Parameters": 5630,
      "69": 5631,
      "Ġavoid": 5632,
      "Ġsymbol": 5633,
      "Ġinside": 5634,
      "Ġreading": 5635,
      "Dom": 5636,
      "Ġax": 5637,
      "Handle": 5638,
      "fony": 5639,
      "req": 5640,
      "{-": 5641,
      "Ġer": 5642,
      "Ġlikely": 5643,
      "Net": 5644,
      "yper": 5645,
      "Ġappointed": 5646,
      "ĠChristian": 5647,
      "Ġcoordin": 5648,
      "ĠVirgin": 5649,
      "isation": 5650,
      "high": 5651,
      "allow": 5652,
      "term": 5653,
      "render": 5654,
      "ĠGreat": 5655,
      "Ġactual": 5656,
      "framework": 5657,
      "Ġedge": 5658,
      "ĠCre": 5659,
      "Ġplaces": 5660,
      "Ġwhole": 5661,
      "Ġsubsequ": 5662,
      "Ġsex": 5663,
      "orse": 5664,
      "ares": 5665,
      "ĠCharles": 5666,
      "Ġundefined": 5667,
      "equiv": 5668,
      "onstr": 5669,
      "irl": 5670,
      "reland": 5671,
      "Ġpolice": 5672,
      "Ġforces": 5673,
      "{}": 5674,
      "mercial": 5675,
      "mi": 5676,
      "ymfony": 5677,
      "Ġdelete": 5678,
      ">();": 5679,
      ";\"": 5680,
      "Ġpackage": 5681,
      "ĠAut": 5682,
      "ĠMus": 5683,
      "\\!": 5684,
      "Ġjournal": 5685,
      "ORT": 5686,
      "plugins": 5687,
      "=\"../../../": 5688,
      "Ġepisode": 5689,
      "Se": 5690,
      "atre": 5691,
      "Non": 5692,
      "Ġcompared": 5693,
      "ĠFrancis": 5694,
      "'.": 5695,
      "Ġnodes": 5696,
      "aver": 5697,
      "alax": 5698,
      "Ġtransaction": 5699,
      "lev": 5700,
      "rees": 5701,
      "SL": 5702,
      "widetilde": 5703,
      "writ": 5704,
      "ether": 5705,
      "Ã§": 5706,
      "ĠNote": 5707,
      "VID": 5708,
      "Definition": 5709,
      "MD": 5710,
      "enum": 5711,
      "ĠVer": 5712,
      "Ġanaly": 5713,
      "Ġpick": 5714,
      "Ġaltern": 5715,
      "anufact": 5716,
      "custom": 5717,
      "ki": 5718,
      "ountry": 5719,
      "istan": 5720,
      "ĠChe": 5721,
      "ĠSur": 5722,
      "ĠJSON": 5723,
      "ĠMinister": 5724,
      "ĠDate": 5725,
      "Ã³n": 5726,
      "Ġclasses": 5727,
      "Ġmoney": 5728,
      "GET": 5729,
      "Ġparse": 5730,
      "ĠDet": 5731,
      "well": 5732,
      "Am": 5733,
      "Ġdaughter": 5734,
      "ĠEv": 5735,
      "Has": 5736,
      "Debug": 5737,
      "overs": 5738,
      "Ġproblems": 5739,
      "Ġraise": 5740,
      "WE": 5741,
      "ips": 5742,
      "1987": 5743,
      "pub": 5744,
      "ometimes": 5745,
      "Ġpain": 5746,
      "Ġ&=": 5747,
      "erve": 5748,
      "ĠGoogle": 5749,
      "estamp": 5750,
      "ĠSl": 5751,
      "Ġactually": 5752,
      "clusion": 5753,
      "Ġinstit": 5754,
      "aws": 5755,
      "inct": 5756,
      "Ġseven": 5757,
      "ishing": 5758,
      "ĠSummer": 5759,
      "Ġcoach": 5760,
      "El": 5761,
      "fields": 5762,
      "Ġwait": 5763,
      "Ġdomain": 5764,
      "Ġforward": 5765,
      "dots": 5766,
      "(*": 5767,
      "application": 5768,
      "EM": 5769,
      "Head": 5770,
      "isions": 5771,
      "ĠRun": 5772,
      "Ġsecurity": 5773,
      "ĠFore": 5774,
      "Ġcourt": 5775,
      "63": 5776,
      "ORD": 5777,
      "ircraft": 5778,
      "ita": 5779,
      "ernel": 5780,
      "elves": 5781,
      "ĠRob": 5782,
      "ĠHealth": 5783,
      "icol": 5784,
      "centering": 5785,
      "white": 5786,
      "settings": 5787,
      "Ġfootballers": 5788,
      "ĠLong": 5789,
      "SION": 5790,
      ">.": 5791,
      "False": 5792,
      "Ġcontact": 5793,
      "Ġconstit": 5794,
      "ĠPy": 5795,
      "Ġnote": 5796,
      "rum": 5797,
      "My": 5798,
      "Ġstarting": 5799,
      "netic": 5800,
      "}+": 5801,
      "Ġupper": 5802,
      "pers": 5803,
      "jection": 5804,
      "ĠPost": 5805,
      "Ġsources": 5806,
      "Ġapply": 5807,
      "Ġcomponents": 5808,
      "ATH": 5809,
      "Ġtemperature": 5810,
      "AND": 5811,
      "km": 5812,
      "ncy": 5813,
      "ĠTechn": 5814,
      "ĠSeries": 5815,
      "ĠKore": 5816,
      "pdf": 5817,
      "gebra": 5818,
      "Application": 5819,
      "PA": 5820,
      "ĠOver": 5821,
      "Values": 5822,
      "azz": 5823,
      "ailed": 5824,
      "Tests": 5825,
      "ĠSmith": 5826,
      "free": 5827,
      "ĠGod": 5828,
      "Ġhot": 5829,
      "aled": 5830,
      "aved": 5831,
      "ette": 5832,
      "ĠFootball": 5833,
      "Ġsaw": 5834,
      "Ġdatabase": 5835,
      "Ġsens": 5836,
      "ulate": 5837,
      "ih": 5838,
      "Ġord": 5839,
      "ongs": 5840,
      "Ġguitar": 5841,
      "\\]": 5842,
      "Ġscore": 5843,
      "1984": 5844,
      "Ġlibrary": 5845,
      "heast": 5846,
      "Ver": 5847,
      "ees": 5848,
      "62": 5849,
      "prime": 5850,
      "Ġsen": 5851,
      "Ġquick": 5852,
      "ĠErr": 5853,
      "Ġste": 5854,
      "onom": 5855,
      "atin": 5856,
      "Ġess": 5857,
      "Args": 5858,
      "rule": 5859,
      "ying": 5860,
      "Ġruns": 5861,
      "1986": 5862,
      "Ġnet": 5863,
      "Ġmatches": 5864,
      "ighest": 5865,
      "Ġtherefore": 5866,
      "Ġkilled": 5867,
      "Ġnamespace": 5868,
      "Ġtit": 5869,
      "Invalid": 5870,
      "Ġbasis": 5871,
      "help": 5872,
      "Ġapplied": 5873,
      "85": 5874,
      "vm": 5875,
      "Ġtowards": 5876,
      "that": 5877,
      "Ġcouple": 5878,
      "Ġalumni": 5879,
      "Ġemer": 5880,
      "Ġrelig": 5881,
      "----------------------------------------------------------------": 5882,
      "record": 5883,
      "ĠEq": 5884,
      "Ġgas": 5885,
      "lood": 5886,
      "ĠEXPECT": 5887,
      "parameter": 5888,
      "foo": 5889,
      "Ġrepresentation": 5890,
      "Ġveh": 5891,
      "Api": 5892,
      "Ġexhib": 5893,
      "ĠHistory": 5894,
      "category": 5895,
      "Ġroute": 5896,
      "Ø§": 5897,
      "olar": 5898,
      "sql": 5899,
      "ĠCON": 5900,
      "Ġarticle": 5901,
      "Ac": 5902,
      "exception": 5903,
      "Ġball": 5904,
      "ĠJose": 5905,
      "Render": 5906,
      "Ġcop": 5907,
      "Ġmention": 5908,
      ";<": 5909,
      "Ġaccur": 5910,
      "itable": 5911,
      "Kind": 5912,
      "Ġdestroy": 5913,
      "EQ": 5914,
      "fn": 5915,
      "Ġterr": 5916,
      "ims": 5917,
      "Ġcache": 5918,
      "ĠFrank": 5919,
      "del": 5920,
      "isl": 5921,
      "Ġaud": 5922,
      "89": 5923,
      "imensional": 5924,
      "icago": 5925,
      "allery": 5926,
      "Ġrules": 5927,
      "ky": 5928,
      "ja": 5929,
      "connect": 5930,
      "cope": 5931,
      "Ġcontainer": 5932,
      "iece": 5933,
      "PS": 5934,
      "ĠMath": 5935,
      "Ġsymmet": 5936,
      "holder": 5937,
      "Click": 5938,
      "iders": 5939,
      "ĠFlor": 5940,
      "Ġbenef": 5941,
      "witter": 5942,
      "ĠSecond": 5943,
      "acement": 5944,
      "Ġcomes": 5945,
      "osen": 5946,
      "Ġsettings": 5947,
      "star": 5948,
      "Ġshare": 5949,
      "FT": 5950,
      "ella": 5951,
      "1985": 5952,
      "evelopment": 5953,
      "aily": 5954,
      "Ġdecision": 5955,
      "}\"": 5956,
      "Ġfemale": 5957,
      "Ġotherwise": 5958,
      "Ġthread": 5959,
      "Ġplant": 5960,
      "Ġcivil": 5961,
      "ĠPri": 5962,
      "step": 5963,
      "recated": 5964,
      "uby": 5965,
      "Red": 5966,
      "double": 5967,
      "Ġos": 5968,
      "nam": 5969,
      "Assert": 5970,
      "Ġnative": 5971,
      "Ġbad": 5972,
      "iller": 5973,
      "ĠPeter": 5974,
      "Ġwalk": 5975,
      "ORM": 5976,
      "Ġfinally": 5977,
      "ingu": 5978,
      "What": 5979,
      "Ġsignal": 5980,
      "ertific": 5981,
      "anned": 5982,
      "coin": 5983,
      "Ġbuildings": 5984,
      "ĠOlympics": 5985,
      "icate": 5986,
      "Ġbutton": 5987,
      "Ġunsigned": 5988,
      "Num": 5989,
      "Ġlisted": 5990,
      "ifest": 5991,
      ";/": 5992,
      "61": 5993,
      "Ġphysical": 5994,
      "Ġresources": 5995,
      "Ġextension": 5996,
      "Ġdirectory": 5997,
      "tabular": 5998,
      "rome": 5999,
      "Parent": 6000,
      "ĠMel": 6001,
      "Bytes": 6002,
      "Ġstations": 6003,
      "Ġdeep": 6004,
      "Ġyield": 6005,
      "byte": 6006,
      "Ġconcept": 6007,
      "Ġlevels": 6008,
      "Ġli": 6009,
      "Ġadapt": 6010,
      "Ġextra": 6011,
      "ĠÎ": 6012,
      "Ġjson": 6013,
      "Ġdemonstr": 6014,
      "Ġhours": 6015,
      "`.": 6016,
      "Ġroom": 6017,
      "ĠOrder": 6018,
      "ilton": 6019,
      "Ġheader": 6020,
      "ĠHTML": 6021,
      "Ġreached": 6022,
      "Reader": 6023,
      "Ġvariables": 6024,
      "graph": 6025,
      "ĠKey": 6026,
      "}]": 6027,
      "Ġwhy": 6028,
      "anta": 6029,
      "Ġdro": 6030,
      "Ġcause": 6031,
      "Ġfinite": 6032,
      "keyword": 6033,
      "Ġgold": 6034,
      "fil": 6035,
      "_;": 6036,
      "She": 6037,
      "Package": 6038,
      "Ġcollect": 6039,
      "Ġproducts": 6040,
      "Ġsoon": 6041,
      "people": 6042,
      "Ġang": 6043,
      "atalog": 6044,
      "Ġ('": 6045,
      "Ġmatter": 6046,
      "elebr": 6047,
      "Ġartists": 6048,
      "74": 6049,
      "atur": 6050,
      "Ġattr": 6051,
      "Person": 6052,
      "Ġbehavior": 6053,
      "Fil": 6054,
      "ĠForce": 6055,
      "Cal": 6056,
      "URE": 6057,
      "xx": 6058,
      "\\\"": 6059,
      "Ġerrors": 6060,
      "Ġassist": 6061,
      "73": 6062,
      "Ġbyte": 6063,
      "ici": 6064,
      "Ġstated": 6065,
      "ami": 6066,
      "Decl": 6067,
      "ĠMass": 6068,
      "argument": 6069,
      "Ġmunic": 6070,
      "ansion": 6071,
      "cur": 6072,
      "ved": 6073,
      "Ġnecessary": 6074,
      "inet": 6075,
      "Mark": 6076,
      "Ġcontaining": 6077,
      "ĠFinal": 6078,
      "Dialog": 6079,
      "ĠLos": 6080,
      "ker": 6081,
      "Ġbeginning": 6082,
      "Rule": 6083,
      "Ġtravel": 6084,
      "ested": 6085,
      "Ġeffective": 6086,
      "Ġsmaller": 6087,
      "insert": 6088,
      "boolean": 6089,
      "udd": 6090,
      "igan": 6091,
      "Ã¨": 6092,
      "ĠRichard": 6093,
      "ĠRock": 6094,
      "Ġinvestig": 6095,
      "Ġshape": 6096,
      "Ġmiddle": 6097,
      "Ġtechnology": 6098,
      "ĠLake": 6099,
      "urt": 6100,
      "reement": 6101,
      "TC": 6102,
      "\\{": 6103,
      "GB": 6104,
      "Doc": 6105,
      "Delete": 6106,
      "Ġche": 6107,
      "Policy": 6108,
      "abit": 6109,
      "rapper": 6110,
      "Ġscen": 6111,
      "ĉĉĉĊ": 6112,
      "Psi": 6113,
      "Ġteach": 6114,
      "'))": 6115,
      "Ġincreasing": 6116,
      "replace": 6117,
      "reme": 6118,
      "ĠParis": 6119,
      "ancy": 6120,
      "Ġ'/": 6121,
      "election": 6122,
      "virtual": 6123,
      "ĠCamp": 6124,
      "ĠAv": 6125,
      "full": 6126,
      "ĠBill": 6127,
      "Ġeventually": 6128,
      "prox": 6129,
      "admin": 6130,
      "1950": 6131,
      "Ġauth": 6132,
      "ĠRead": 6133,
      "ĠAL": 6134,
      "olf": 6135,
      "Ð»": 6136,
      "very": 6137,
      "Ġlimited": 6138,
      "edge": 6139,
      "ĠFin": 6140,
      "Ġcapital": 6141,
      ")=\\": 6142,
      "Di": 6143,
      "ipeline": 6144,
      "eloc": 6145,
      "store": 6146,
      "liance": 6147,
      "ĠFe": 6148,
      "ato": 6149,
      "Ġpor": 6150,
      "ockey": 6151,
      "ĠAust": 6152,
      "install": 6153,
      "ĠModel": 6154,
      "71": 6155,
      "ollowing": 6156,
      "Year": 6157,
      "SET": 6158,
      "1983": 6159,
      "email": 6160,
      "Ġapi": 6161,
      "ĠCommission": 6162,
      "Ġoptim": 6163,
      "ĠProject": 6164,
      "Enabled": 6165,
      ")}\\": 6166,
      "ĠKn": 6167,
      "ads": 6168,
      "Ġoriginally": 6169,
      "Sw": 6170,
      "Ġtrain": 6171,
      "OK": 6172,
      "uting": 6173,
      "ĠInc": 6174,
      "utch": 6175,
      "Ġearlier": 6176,
      "Argument": 6177,
      "omorph": 6178,
      "stat": 6179,
      "oration": 6180,
      "nel": 6181,
      "Since": 6182,
      "Ġremoved": 6183,
      "Ġbring": 6184,
      "bot": 6185,
      "pret": 6186,
      "Main": 6187,
      "GE": 6188,
      "auto": 6189,
      "Ġvolume": 6190,
      "callback": 6191,
      "ĠRequ": 6192,
      "gs": 6193,
      "Äģ": 6194,
      "register": 6195,
      "dropdown": 6196,
      "icated": 6197,
      "So": 6198,
      "anguage": 6199,
      "ĠBig": 6200,
      "ĠUser": 6201,
      "Boolean": 6202,
      "iger": 6203,
      "Ġinline": 6204,
      "present": 6205,
      "ĠCatholic": 6206,
      "Root": 6207,
      "Ġdescribe": 6208,
      "onds": 6209,
      "Cre": 6210,
      "Ġpractice": 6211,
      "inder": 6212,
      "ĠWomen": 6213,
      "Ġstructures": 6214,
      "ĠTheorem": 6215,
      "ĠWhat": 6216,
      "Ġculture": 6217,
      "Ġscient": 6218,
      "ĠVictor": 6219,
      "Ġbegin": 6220,
      "ĠSpanish": 6221,
      "ĠTable": 6222,
      "Ġbecomes": 6223,
      "Ġplaced": 6224,
      "Ġcounter": 6225,
      "PR": 6226,
      "Ġvan": 6227,
      "Ġstars": 6228,
      "usion": 6229,
      "Ġbrother": 6230,
      "legal": 6231,
      "ĠIreland": 6232,
      "__(": 6233,
      "bi": 6234,
      "Ġlock": 6235,
      "password": 6236,
      "Ġholds": 6237,
      "Ġincreased": 6238,
      "indent": 6239,
      "ĠGeorg": 6240,
      "Writer": 6241,
      "Tab": 6242,
      "fly": 6243,
      "Ġgrant": 6244,
      "Ġpurch": 6245,
      "lie": 6246,
      "Ġrepresented": 6247,
      "ĠLife": 6248,
      "pool": 6249,
      "}=\\": 6250,
      "82": 6251,
      "ĠIsrael": 6252,
      "Ġdistributed": 6253,
      "ĠHill": 6254,
      "Sum": 6255,
      "&#": 6256,
      "Ġbur": 6257,
      "Body": 6258,
      "allel": 6259,
      "ĠMethod": 6260,
      "esh": 6261,
      "Ġdark": 6262,
      "Ġartist": 6263,
      "Art": 6264,
      "Ñĥ": 6265,
      ",-": 6266,
      "ental": 6267,
      "Ġactivity": 6268,
      "Ġbytes": 6269,
      "Ġremains": 6270,
      "Byte": 6271,
      "ĠKe": 6272,
      "Ġdifference": 6273,
      "ynchron": 6274,
      "FAULT": 6275,
      "Ġfourth": 6276,
      "Ġpaint": 6277,
      "Ġmedal": 6278,
      "....": 6279,
      "ĠDu": 6280,
      "Ġ<=": 6281,
      "Mock": 6282,
      "Ġmut": 6283,
      "Ġquality": 6284,
      "razil": 6285,
      "oub": 6286,
      "ĠĠĠĠĠĠĠĠĠĠĠĠĠĠĠĠĠĠ": 6287,
      "Ġidea": 6288,
      "ĠCD": 6289,
      "Storage": 6290,
      "Descriptor": 6291,
      "lines": 6292,
      "$)": 6293,
      "Ġfamilies": 6294,
      "dule": 6295,
      "ĠIS": 6296,
      "yntax": 6297,
      "]]": 6298,
      "PT": 6299,
      "related": 6300,
      "Ġwallet": 6301,
      "ady": 6302,
      "ĠPlay": 6303,
      "Ġevidence": 6304,
      "Ġbroadcast": 6305,
      "ĠProf": 6306,
      "Ġpartial": 6307,
      "1982": 6308,
      "Ġconver": 6309,
      "Ġserial": 6310,
      "uty": 6311,
      "Ġetc": 6312,
      "ĠPenn": 6313,
      "ĠValue": 6314,
      "Ġbank": 6315,
      "AGE": 6316,
      "Ġprofile": 6317,
      "ĠTem": 6318,
      "comment": 6319,
      "rot": 6320,
      "region": 6321,
      "Ġflag": 6322,
      "ĠPub": 6323,
      "Ġ++": 6324,
      "keys": 6325,
      "Ġcard": 6326,
      "ĠRegister": 6327,
      "eries": 6328,
      "hs": 6329,
      "emic": 6330,
      "lyph": 6331,
      "Ġbtn": 6332,
      "ĠIO": 6333,
      "160": 6334,
      "Ġtests": 6335,
      "Show": 6336,
      "Ġforms": 6337,
      "forms": 6338,
      "Ġorganization": 6339,
      "ĠIll": 6340,
      "Ġcharg": 6341,
      "sem": 6342,
      "ĠAnn": 6343,
      "short": 6344,
      "spring": 6345,
      "Ġleader": 6346,
      "\")]": 6347,
      "Ġaccom": 6348,
      "oviet": 6349,
      "Ðº": 6350,
      "Ġsimply": 6351,
      "osing": 6352,
      "Ġprobability": 6353,
      "ishop": 6354,
      "ously": 6355,
      "ĠStar": 6356,
      "contrib": 6357,
      "Each": 6358,
      "ĠCast": 6359,
      "Ġlack": 6360,
      "aud": 6361,
      "Ġboundary": 6362,
      "Ġded": 6363,
      "ĠInst": 6364,
      "Ġinvolv": 6365,
      "uple": 6366,
      "ĠFilm": 6367,
      "ĠTwo": 6368,
      "margin": 6369,
      "Ġmsg": 6370,
      "JECT": 6371,
      "Ġprevent": 6372,
      "Ġremain": 6373,
      "TV": 6374,
      "Fields": 6375,
      "iring": 6376,
      "Ġfeed": 6377,
      "CS": 6378,
      "ĠPan": 6379,
      "pped": 6380,
      "Ġdise": 6381,
      "Ġspin": 6382,
      "odec": 6383,
      "ĠId": 6384,
      "olk": 6385,
      "Custom": 6386,
      "Ġpeak": 6387,
      "cpp": 6388,
      "=\"@": 6389,
      "Ġminutes": 6390,
      "cloud": 6391,
      "Ġbottom": 6392,
      "numer": 6393,
      "Ġconnected": 6394,
      "Display": 6395,
      "84": 6396,
      "Ġgenerally": 6397,
      "Ġinvoke": 6398,
      "ali": 6399,
      "ko": 6400,
      "Ġmovement": 6401,
      "Ġhighest": 6402,
      "vol": 6403,
      "osh": 6404,
      "1979": 6405,
      "alysis": 6406,
      "shot": 6407,
      "Ġremained": 6408,
      "Ġcollege": 6409,
      "Ġunknown": 6410,
      "ora": 6411,
      "ĠHenry": 6412,
      "itz": 6413,
      "Ġscience": 6414,
      "house": 6415,
      "Ġcritical": 6416,
      "Ġwoman": 6417,
      "Ġdu": 6418,
      "CTION": 6419,
      "jquery": 6420,
      "items": 6421,
      "lers": 6422,
      "Ġsense": 6423,
      ")/": 6424,
      ")^{": 6425,
      "Ġdecided": 6426,
      "Ġmaintain": 6427,
      "Ġoccup": 6428,
      "Ġlayer": 6429,
      "Ġopport": 6430,
      "Other": 6431,
      "initial": 6432,
      "Ġhtml": 6433,
      "sets": 6434,
      "modules": 6435,
      "Ġwide": 6436,
      "Now": 6437,
      "enge": 6438,
      "Changed": 6439,
      "sche": 6440,
      "Note": 6441,
      "assets": 6442,
      "ils": 6443,
      "Ġassume": 6444,
      "Ġsch": 6445,
      "inger": 6446,
      "ĠVirginia": 6447,
      "Ġmanufact": 6448,
      "plements": 6449,
      "ĠChicago": 6450,
      "ĠNOT": 6451,
      "geles": 6452,
      "ĠShow": 6453,
      "ga": 6454,
      "ĠLO": 6455,
      "mitted": 6456,
      "BS": 6457,
      "ĠLine": 6458,
      "eve": 6459,
      "Ġtold": 6460,
      "Ġincor": 6461,
      "serve": 6462,
      "Job": 6463,
      "names": 6464,
      "Ġspent": 6465,
      "Notes": 6466,
      "Ġcompetition": 6467,
      "atically": 6468,
      "Ġelectron": 6469,
      "ĠTim": 6470,
      "Ġrepe": 6471,
      "=\"\">": 6472,
      "Man": 6473,
      "Ġslow": 6474,
      "WS": 6475,
      "Ġrecomm": 6476,
      "bedd": 6477,
      "ech": 6478,
      "ĠGovernment": 6479,
      "car": 6480,
      "Ġsecret": 6481,
      "ĠThus": 6482,
      "Ġbrought": 6483,
      "Ġfeatured": 6484,
      "Ġimplementation": 6485,
      "anda": 6486,
      "Ġ),": 6487,
      "Ġrisk": 6488,
      "romise": 6489,
      "Ġstudied": 6490,
      "Ġcorre": 6491,
      "Ġabsol": 6492,
      "Ġoverall": 6493,
      "Ġfinancial": 6494,
      "AME": 6495,
      "END": 6496,
      "ĠFre": 6497,
      "Ġ${": 6498,
      "Any": 6499,
      "sect": 6500,
      "radius": 6501,
      "ĠRel": 6502,
      "organ": 6503,
      "1981": 6504,
      "Queue": 6505,
      "Ġcluster": 6506,
      "unched": 6507,
      "Ġstrict": 6508,
      "ĠIts": 6509,
      "ixture": 6510,
      "family": 6511,
      "Ġaircraft": 6512,
      "`,": 6513,
      "ignment": 6514,
      "enter": 6515,
      "Ġfast": 6516,
      "rip": 6517,
      "idae": 6518,
      "Ġgrowth": 6519,
      "ĠAngeles": 6520,
      "agger": 6521,
      "tsd": 6522,
      "utf": 6523,
      "Members": 6524,
      "Ġensure": 6525,
      "agnost": 6526,
      "Ġchain": 6527,
      "ĠCommittee": 6528,
      "Ġcore": 6529,
      "protobuf": 6530,
      "attribute": 6531,
      "BR": 6532,
      "Ġdb": 6533,
      "Account": 6534,
      "JSON": 6535,
      "ĠSwed": 6536,
      "Ġstudent": 6537,
      "widehat": 6538,
      ")-": 6539,
      "Ġconsole": 6540,
      "ango": 6541,
      "Ġprep": 6542,
      "rong": 6543,
      "Ġjavax": 6544,
      "none": 6545,
      "Ġcells": 6546,
      "Ġgun": 6547,
      "ji": 6548,
      ")\"": 6549,
      "spect": 6550,
      "Ġrelation": 6551,
      "ĠCongress": 6552,
      "Obj": 6553,
      "ĠDen": 6554,
      "ĠMax": 6555,
      "ĠUse": 6556,
      "resents": 6557,
      "Ġclean": 6558,
      "HTML": 6559,
      "afety": 6560,
      "ĠGen": 6561,
      "Ġshared": 6562,
      "spe": 6563,
      "ixel": 6564,
      "stats": 6565,
      "Ġpy": 6566,
      "ĠLand": 6567,
      "ĠEvent": 6568,
      "Play": 6569,
      "Transaction": 6570,
      "ĠSun": 6571,
      "edit": 6572,
      "Ġcritic": 6573,
      "apped": 6574,
      "ĠFoundation": 6575,
      "herit": 6576,
      "======": 6577,
      "ĠURL": 6578,
      "Ġfit": 6579,
      "Ġrecover": 6580,
      "Ġmeaning": 6581,
      "Ġquantum": 6582,
      "unsigned": 6583,
      "Ġrap": 6584,
      "ĠRussia": 6585,
      "ITY": 6586,
      "Ġappears": 6587,
      "Meta": 6588,
      ".*": 6589,
      "Ġcharge": 6590,
      "Perm": 6591,
      "ĠNow": 6592,
      "Ġpark": 6593,
      "EC": 6594,
      "scroll": 6595,
      "TED": 6596,
      "[:": 6597,
      "Äĩ": 6598,
      "ĠTimes": 6599,
      "Ġhel": 6600,
      "Ġrecords": 6601,
      "Active": 6602,
      "Ġremaining": 6603,
      "1972": 6604,
      "crete": 6605,
      "Initial": 6606,
      "ĠFlorida": 6607,
      "ĠArts": 6608,
      "iments": 6609,
      "cup": 6610,
      "adoop": 6611,
      "room": 6612,
      "SSERT": 6613,
      "Ġawarded": 6614,
      "Ġinteger": 6615,
      "osph": 6616,
      "cut": 6617,
      "mselves": 6618,
      "product": 6619,
      "Ġtraditional": 6620,
      "war": 6621,
      "Ġpri": 6622,
      "Ġchoice": 6623,
      "wa": 6624,
      "Ġstay": 6625,
      "ĠOf": 6626,
      "pri": 6627,
      "TEST": 6628,
      "eler": 6629,
      "pute": 6630,
      "fect": 6631,
      "Ġreserv": 6632,
      "Ġstatement": 6633,
      "ĠMexico": 6634,
      "variant": 6635,
      "Ġgrand": 6636,
      "ifies": 6637,
      "connection": 6638,
      "VERSION": 6639,
      "Ġearn": 6640,
      "hing": 6641,
      "ById": 6642,
      "}\\,": 6643,
      "linear": 6644,
      "ifications": 6645,
      "ima": 6646,
      "Ġreceive": 6647,
      "vest": 6648,
      "Ġlegal": 6649,
      "PRE": 6650,
      "Ġminor": 6651,
      "1976": 6652,
      "Ġstreng": 6653,
      "lemma": 6654,
      "cdots": 6655,
      "orter": 6656,
      "ien": 6657,
      "angular": 6658,
      "256": 6659,
      "ĠHand": 6660,
      "mooth": 6661,
      "Ġscored": 6662,
      "ĠEngine": 6663,
      "sur": 6664,
      "}|": 6665,
      "Ġpen": 6666,
      "grid": 6667,
      "ĠUnder": 6668,
      "Ġmur": 6669,
      "Ġcommercial": 6670,
      "Ġbal": 6671,
      "iday": 6672,
      "ĠTop": 6673,
      "ACE": 6674,
      "Ġtrade": 6675,
      "master": 6676,
      "rb": 6677,
      "Ġgenerate": 6678,
      "inline": 6679,
      "}_\\": 6680,
      "IX": 6681,
      "Ġwatch": 6682,
      "Ġsave": 6683,
      "ecause": 6684,
      "ĠScot": 6685,
      "ĠKh": 6686,
      "Ġemail": 6687,
      "nes": 6688,
      "Ġextended": 6689,
      "iny": 6690,
      "ĠBoard": 6691,
      "leep": 6692,
      "mock": 6693,
      "Ġthemselves": 6694,
      "Me": 6695,
      "NN": 6696,
      "Ġapproximately": 6697,
      "ĠItaly": 6698,
      "1978": 6699,
      "Early": 6700,
      "Ġstack": 6701,
      "Final": 6702,
      "Ġcategory": 6703,
      "Activity": 6704,
      "Ġpolitician": 6705,
      "ucket": 6706,
      "ĠStep": 6707,
      "TEX": 6708,
      "Ġ\"/": 6709,
      "ĠĠĠĠĠĠĠĠĠĠĠĠĠĠĠĠĠĠĠĠĠĠĠĠĠ": 6710,
      ":#": 6711,
      "while": 6712,
      "SU": 6713,
      "ĠFigure": 6714,
      "ĠMil": 6715,
      "ola": 6716,
      "Ġsinger": 6717,
      "DA": 6718,
      "faces": 6719,
      "Ġinstr": 6720,
      "ternet": 6721,
      "ĠĠĠĠĠĠĠĠĠĠĠĠĠĠĠĠĠĠĠĠĠĠĠĠ": 6722,
      "ĠGl": 6723,
      "fort": 6724,
      "qquad": 6725,
      "Ret": 6726,
      "Ġanti": 6727,
      "Ġproper": 6728,
      ".~": 6729,
      "Ġadopt": 6730,
      "Ġcaused": 6731,
      "1974": 6732,
      "ĠError": 6733,
      "Ġga": 6734,
      "Ġfully": 6735,
      "Ġregions": 6736,
      "Ġicon": 6737,
      "Ġnuc": 6738,
      "ny": 6739,
      "Ġrequires": 6740,
      "NE": 6741,
      "OM": 6742,
      "thread": 6743,
      "Ġshot": 6744,
      "Send": 6745,
      "bal": 6746,
      "Ġexplicit": 6747,
      "cmd": 6748,
      "ror": 6749,
      "Ġsometimes": 6750,
      "Ġbranch": 6751,
      "Ġsolutions": 6752,
      "andra": 6753,
      "87": 6754,
      "important": 6755,
      "Ġfigure": 6756,
      "Ġtreatment": 6757,
      "Att": 6758,
      "Ġmeas": 6759,
      "Var": 6760,
      "Ġtransp": 6761,
      "Lock": 6762,
      "Ġansw": 6763,
      "va": 6764,
      "ĠMost": 6765,
      "Ġpublish": 6766,
      "icks": 6767,
      "Ġprobably": 6768,
      "Ġresulting": 6769,
      "oped": 6770,
      "Ġdidn": 6771,
      "Member": 6772,
      "FILE": 6773,
      "ĠFalse": 6774,
      "itiz": 6775,
      "KEY": 6776,
      "{(": 6777,
      "Ġ%}": 6778,
      "Ġequip": 6779,
      "Ġplays": 6780,
      "Ġ(*": 6781,
      "vey": 6782,
      "ĠSaint": 6783,
      "}^\\": 6784,
      "primary": 6785,
      "olver": 6786,
      "Desc": 6787,
      "ussian": 6788,
      "Ġinsp": 6789,
      "Ġinterview": 6790,
      "hentication": 6791,
      "oral": 6792,
      "94": 6793,
      "Care": 6794,
      "irmed": 6795,
      "Ġpatients": 6796,
      "ĠText": 6797,
      "Media": 6798,
      "vant": 6799,
      "inate": 6800,
      "Ġmedical": 6801,
      "ĠProgram": 6802,
      "1975": 6803,
      "Ne": 6804,
      "}:": 6805,
      "ouri": 6806,
      "addr": 6807,
      "Ġestablishments": 6808,
      "ydro": 6809,
      "Widget": 6810,
      "@\"": 6811,
      "ĠSil": 6812,
      "Ġactivities": 6813,
      "Extension": 6814,
      "plex": 6815,
      "Scope": 6816,
      "ĠPet": 6817,
      "ĠAlso": 6818,
      "Ġactor": 6819,
      "Ġcelebr": 6820,
      "Ġnature": 6821,
      "Gu": 6822,
      "Ġrestrict": 6823,
      "iana": 6824,
      "structure": 6825,
      "ĠFestival": 6826,
      "1968": 6827,
      "git": 6828,
      "omial": 6829,
      "ĠOur": 6830,
      "textwidth": 6831,
      "Ġnegative": 6832,
      "shape": 6833,
      "ĠOld": 6834,
      "1977": 6835,
      "ectors": 6836,
      "properties": 6837,
      "Ġvs": 6838,
      "&=": 6839,
      "Ġtournament": 6840,
      "ĠOh": 6841,
      "ati": 6842,
      "isters": 6843,
      "Ġblue": 6844,
      "Pattern": 6845,
      "results": 6846,
      "stop": 6847,
      "Ġfoot": 6848,
      "Ġknowledge": 6849,
      "}}(": 6850,
      "Ġcollabor": 6851,
      "dx": 6852,
      "ĠBur": 6853,
      "(!": 6854,
      "tip": 6855,
      "ĠCarolina": 6856,
      "Network": 6857,
      "EXT": 6858,
      "Const": 6859,
      "ĠTeam": 6860,
      "Ġfif": 6861,
      "Ġprograms": 6862,
      "ĠColor": 6863,
      "92": 6864,
      "uter": 6865,
      "ilation": 6866,
      "Ġrecently": 6867,
      "horizontal": 6868,
      "Ġfun": 6869,
      "~~~~": 6870,
      "annels": 6871,
      "inem": 6872,
      "Ġleave": 6873,
      "Ġopening": 6874,
      "ĠMur": 6875,
      "ĠUkr": 6876,
      "ression": 6877,
      "uler": 6878,
      "Ġheart": 6879,
      "Channel": 6880,
      "erg": 6881,
      "lg": 6882,
      "reshold": 6883,
      "Ġdecre": 6884,
      "estions": 6885,
      "ĠGame": 6886,
      "(){": 6887,
      "^+": 6888,
      "Ġwaves": 6889,
      "ĠSecret": 6890,
      "Ġbasic": 6891,
      "ĠAtl": 6892,
      "})\\": 6893,
      "Ġfra": 6894,
      "Ġparticularly": 6895,
      "Ġinstanceof": 6896,
      "ĠGi": 6897,
      "Ġdivision": 6898,
      "Ġtouch": 6899,
      "Only": 6900,
      "prove": 6901,
      "ategories": 6902,
      "Ġthreat": 6903,
      "Ġcalls": 6904,
      "Ġbasketball": 6905,
      "Bit": 6906,
      "ookie": 6907,
      "ĠassertEquals": 6908,
      "adium": 6909,
      "iverse": 6910,
      "Timeout": 6911,
      "Background": 6912,
      "Ġnoted": 6913,
      "oz": 6914,
      "ĠHere": 6915,
      "91": 6916,
      "kw": 6917,
      "Ident": 6918,
      "ĠKar": 6919,
      "andard": 6920,
      "ĠEmp": 6921,
      "Ġhum": 6922,
      "GS": 6923,
      "ĠEr": 6924,
      "elli": 6925,
      "Ġthing": 6926,
      "Ġwriters": 6927,
      "miss": 6928,
      "sample": 6929,
      "move": 6930,
      "Ġdim": 6931,
      "ĠBank": 6932,
      "Ġdoing": 6933,
      "Ġgalax": 6934,
      "asy": 6935,
      "Ġlatter": 6936,
      "tex": 6937,
      "ipality": 6938,
      "actor": 6939,
      "Ġchem": 6940,
      "ski": 6941,
      "Symfony": 6942,
      "Ġsn": 6943,
      "impl": 6944,
      "ĠJan": 6945,
      "1973": 6946,
      "venue": 6947,
      "ugby": 6948,
      "shall": 6949,
      "ĠLi": 6950,
      "Msg": 6951,
      "igration": 6952,
      "Ġpresence": 6953,
      "Ġbattle": 6954,
      "Ġdead": 6955,
      "pay": 6956,
      "Ġdetermined": 6957,
      "sin": 6958,
      "93": 6959,
      "Ġsurround": 6960,
      "Ġsummer": 6961,
      "Ġseparate": 6962,
      "hadoop": 6963,
      "################": 6964,
      "Ġpanel": 6965,
      "ĠMa": 6966,
      "ĠAlthough": 6967,
      "Ġproduce": 6968,
      "English": 6969,
      "Ġgoals": 6970,
      "ĠJournal": 6971,
      "Ġentity": 6972,
      "ylvan": 6973,
      "ĠNetwork": 6974,
      "LS": 6975,
      "bu": 6976,
      "yan": 6977,
      "Ġmock": 6978,
      "83": 6979,
      "jar": 6980,
      "Car": 6981,
      "Ġasked": 6982,
      "Ġacadem": 6983,
      "Ġgreater": 6984,
      "ĠView": 6985,
      "Ġsplit": 6986,
      "ĠTour": 6987,
      "Ġexternal": 6988,
      "bes": 6989,
      ")))": 6990,
      "Ġimmediately": 6991,
      "ĠIP": 6992,
      "Ġ{};": 6993,
      "enses": 6994,
      "ador": 6995,
      "Ġtransl": 6996,
      "Ġoccurre": 6997,
      ")\">": 6998,
      "bul": 6999,
      "ðŁ": 7000,
      "ĠEducation": 7001,
      "ĠPac": 7002,
      "John": 7003,
      "Sche": 7004,
      "////////////////////////////////": 7005,
      "wild": 7006,
      "Conf": 7007,
      "Ġ\\{": 7008,
      "Ġmicro": 7009,
      "Events": 7010,
      "ĠChampionships": 7011,
      "erc": 7012,
      "ĠLu": 7013,
      "![": 7014,
      "points": 7015,
      "onym": 7016,
      "Ġcoming": 7017,
      "Ġconsists": 7018,
      "Ġprim": 7019,
      "]:": 7020,
      "Ġproced": 7021,
      "ĠNavy": 7022,
      "ĠInitial": 7023,
      "ibly": 7024,
      "NG": 7025,
      "ĠHot": 7026,
      "Ġstorage": 7027,
      "Before": 7028,
      "ĠTHE": 7029,
      "Ġweak": 7030,
      "ĠDefault": 7031,
      "Pool": 7032,
      "Support": 7033,
      "Ġmix": 7034,
      "named": 7035,
      "ĠMartin": 7036,
      "Ġprojects": 7037,
      "Ġdetermine": 7038,
      "bitr": 7039,
      "ĠAwards": 7040,
      "Ġequivalent": 7041,
      "iano": 7042,
      "Ġwinning": 7043,
      "elocity": 7044,
      "umerate": 7045,
      "çļ": 7046,
      "ĠMr": 7047,
      "Å¡": 7048,
      "UID": 7049,
      "Ġseem": 7050,
      "kg": 7051,
      "Ġowner": 7052,
      "Ġunion": 7053,
      "ĠDev": 7054,
      "cf": 7055,
      "1971": 7056,
      "selected": 7057,
      "contin": 7058,
      "Ġillustr": 7059,
      "ĠCall": 7060,
      "Ġdimension": 7061,
      "Ġshift": 7062,
      "kin": 7063,
      "screen": 7064,
      "Ġdir": 7065,
      "','": 7066,
      "Flags": 7067,
      "Ġweeks": 7068,
      "ĠLin": 7069,
      "ĠTre": 7070,
      "ĠSocial": 7071,
      "Ġrad": 7072,
      "81": 7073,
      "Ġalloc": 7074,
      "TABLE": 7075,
      "ancel": 7076,
      "Ġeconomic": 7077,
      "orner": 7078,
      "Ġscene": 7079,
      "nections": 7080,
      "effect": 7081,
      "PATH": 7082,
      "ï¼": 7083,
      "Ġutil": 7084,
      "ĠNO": 7085,
      "Ġreach": 7086,
      "çļĦ": 7087,
      "ĠBrown": 7088,
      "()));": 7089,
      "printf": 7090,
      "La": 7091,
      "Windows": 7092,
      "Ġlaunched": 7093,
      "Ġended": 7094,
      "uages": 7095,
      "Ġattention": 7096,
      "Expr": 7097,
      "Ġwhom": 7098,
      "acket": 7099,
      "Ġvariety": 7100,
      "stitution": 7101,
      "hav": 7102,
      "Ġratio": 7103,
      "Edit": 7104,
      "ira": 7105,
      "Ġminimum": 7106,
      "Ġidentity": 7107,
      "desc": 7108,
      "account": 7109,
      "inds": 7110,
      "PAR": 7111,
      "save": 7112,
      "Ġentered": 7113,
      "dim": 7114,
      "Ġactions": 7115,
      "CI": 7116,
      "Ġmeeting": 7117,
      "ository": 7118,
      "MENT": 7119,
      "notation": 7120,
      "Ġwid": 7121,
      "ĠDirector": 7122,
      "phone": 7123,
      "apers": 7124,
      "Ġkeys": 7125,
      "Ġstudio": 7126,
      "1940": 7127,
      "approx": 7128,
      "Items": 7129,
      "Ġwood": 7130,
      "Ġlooking": 7131,
      "1969": 7132,
      "Browser": 7133,
      "Ġnothing": 7134,
      "Ġequations": 7135,
      "ĠOp": 7136,
      "ĠDom": 7137,
      "ĠOl": 7138,
      "Ġgreen": 7139,
      "Ġactress": 7140,
      "home": 7141,
      "ĠCopy": 7142,
      "Logger": 7143,
      "ova": 7144,
      "ĠParliament": 7145,
      "aret": 7146,
      "1945": 7147,
      "ĠĠĠĊ": 7148,
      "external": 7149,
      "Ġedition": 7150,
      "=\"\"": 7151,
      "otic": 7152,
      "Auth": 7153,
      "Ġquarter": 7154,
      "defined": 7155,
      "mathsf": 7156,
      "ĠLibrary": 7157,
      "Ġeasy": 7158,
      "Rest": 7159,
      "olec": 7160,
      "Ġprove": 7161,
      "ylvania": 7162,
      "ona": 7163,
      "Ġvocals": 7164,
      "Ġreduced": 7165,
      "profile": 7166,
      "Ġmovie": 7167,
      "Ġpoet": 7168,
      "rine": 7169,
      "asion": 7170,
      "ĠSol": 7171,
      "sych": 7172,
      "ĠVis": 7173,
      "schema": 7174,
      "Ġpred": 7175,
      "Ġhandler": 7176,
      "ĠYoung": 7177,
      "joy": 7178,
      "wan": 7179,
      "Ġagent": 7180,
      "grade": 7181,
      "Ġwanted": 7182,
      "During": 7183,
      "ĠĠĠĠĠĠĠĠĠĠĠĠĠĠĠĠĠĠĠĠĠĠĠĠĠĠĠĠĠĠĠĠĠĠĠĠĠĠĠĠĠĠĠ": 7184,
      "oting": 7185,
      "Ġparents": 7186,
      "tely": 7187,
      "abilities": 7188,
      "Ġlay": 7189,
      "Ġmaster": 7190,
      "Struct": 7191,
      "}</": 7192,
      "Ġchalleng": 7193,
      "Adapter": 7194,
      "itation": 7195,
      "ĠBi": 7196,
      "Ġapplications": 7197,
      "ĠBrazil": 7198,
      "txt": 7199,
      "bad": 7200,
      "PP": 7201,
      "uing": 7202,
      "browser": 7203,
      "alloc": 7204,
      "1930": 7205,
      "Ġuseful": 7206,
      "Don": 7207,
      "Float": 7208,
      "Ġmis": 7209,
      "job": 7210,
      "ĠVersion": 7211,
      "coming": 7212,
      "Ġexam": 7213,
      "Ġ[];": 7214,
      "Internal": 7215,
      "Ġproducer": 7216,
      "ellig": 7217,
      "uls": 7218,
      ")),": 7219,
      "ĠLove": 7220,
      "controller": 7221,
      "Ġmajority": 7222,
      "Ġenter": 7223,
      "Ġability": 7224,
      "eds": 7225,
      "ĠChief": 7226,
      "EO": 7227,
      "()).": 7228,
      "Ġcomputer": 7229,
      "security": 7230,
      "Ġpressure": 7231,
      "=-": 7232,
      "equence": 7233,
      "akers": 7234,
      "CHE": 7235,
      "ynamic": 7236,
      "Ġappearance": 7237,
      "ARY": 7238,
      "rich": 7239,
      "Av": 7240,
      "Ġmission": 7241,
      "Ġtesting": 7242,
      "citet": 7243,
      "queue": 7244,
      "iki": 7245,
      "istrib": 7246,
      "Ġfriends": 7247,
      "Ġcoast": 7248,
      "yg": 7249,
      "aka": 7250,
      "*)": 7251,
      "INFO": 7252,
      "ĠEli": 7253,
      "Ġgetting": 7254,
      "ĠWood": 7255,
      "LOG": 7256,
      "Init": 7257,
      "ela": 7258,
      "Ġheavy": 7259,
      "Security": 7260,
      "Ġ{'": 7261,
      "cape": 7262,
      "ĠHaw": 7263,
      "$/": 7264,
      "}\\\\": 7265,
      "Ġloop": 7266,
      "Ġattributes": 7267,
      "Ġrepresents": 7268,
      "bing": 7269,
      "pag": 7270,
      "LP": 7271,
      "ĠAR": 7272,
      "ĠWales": 7273,
      "ĠSoviet": 7274,
      "ĠSir": 7275,
      "Ġfrequency": 7276,
      "tabs": 7277,
      "Ġmusical": 7278,
      "pa": 7279,
      "Found": 7280,
      "AF": 7281,
      "Vol": 7282,
      "ĠFort": 7283,
      "Ġprison": 7284,
      "_->": 7285,
      "aser": 7286,
      "Ġevolution": 7287,
      "Editor": 7288,
      "Enum": 7289,
      "Ġappropri": 7290,
      "Transform": 7291,
      "amm": 7292,
      "1967": 7293,
      "Ġseasons": 7294,
      "Ġelectric": 7295,
      "iro": 7296,
      "Ġking": 7297,
      "aria": 7298,
      "ĠMain": 7299,
      "domain": 7300,
      "MAX": 7301,
      "Ġ=========": 7302,
      "ĠOption": 7303,
      "Ġneighbor": 7304,
      "assertEqual": 7305,
      "Ġcontinuous": 7306,
      "Ġriver": 7307,
      "riend": 7308,
      "itan": 7309,
      "riteria": 7310,
      "Ġinstalled": 7311,
      "Ġolder": 7312,
      "Ġisland": 7313,
      "events": 7314,
      "ĠJoseph": 7315,
      "Loader": 7316,
      "limit": 7317,
      "Ġhidden": 7318,
      "Ġfavor": 7319,
      "Ġchart": 7320,
      "{{\\": 7321,
      "ĠNorthern": 7322,
      "napshot": 7323,
      "ĠMos": 7324,
      "Ġmixed": 7325,
      "More": 7326,
      "components": 7327,
      "dates": 7328,
      "Constr": 7329,
      "Step": 7330,
      ".__": 7331,
      "ansas": 7332,
      "ĠAN": 7333,
      "ito": 7334,
      "Ġneut": 7335,
      "Ġframework": 7336,
      "ĠLiber": 7337,
      "Ġnorm": 7338,
      ".'": 7339,
      "Ġcandidate": 7340,
      "ADD": 7341,
      "dimensional": 7342,
      "pository": 7343,
      "1964": 7344,
      "Ġfunc": 7345,
      "Ġcreating": 7346,
      "fit": 7347,
      "arc": 7348,
      "Directory": 7349,
      "atible": 7350,
      "ĠRh": 7351,
      "Ä±": 7352,
      "ertificate": 7353,
      "Ġmachine": 7354,
      "scription": 7355,
      "Ġhighly": 7356,
      "super": 7357,
      "Java": 7358,
      "editor": 7359,
      "Graph": 7360,
      "Ġextract": 7361,
      "Ã£": 7362,
      "Ġshall": 7363,
      "ĠPeople": 7364,
      "ĠUN": 7365,
      "Ġ$(\\": 7366,
      "Ġreli": 7367,
      "Own": 7368,
      "throws": 7369,
      "Ġnearly": 7370,
      "ĠCam": 7371,
      "ĠĠĠĠĠĠĠĠĠĠĠĠĠĠĠĠĠĠĠĠĠĠ": 7372,
      "Ġbrief": 7373,
      "Ġclassical": 7374,
      "Ġvisible": 7375,
      "aming": 7376,
      "ĠOffice": 7377,
      "Ġsouthern": 7378,
      "UTF": 7379,
      "Ġphil": 7380,
      "150": 7381,
      "Grid": 7382,
      "ĠIrish": 7383,
      "enty": 7384,
      "stra": 7385,
      "each": 7386,
      "Ġconserv": 7387,
      "Ġfn": 7388,
      "iques": 7389,
      "Ġchief": 7390,
      "centr": 7391,
      "ĠWindow": 7392,
      "stone": 7393,
      "SIZE": 7394,
      "MC": 7395,
      "ĠAtt": 7396,
      "NavBarCell": 7397,
      "ooks": 7398,
      "ĠArab": 7399,
      "ĠConfig": 7400,
      "mann": 7401,
      "ishes": 7402,
      "uer": 7403,
      "}^{(": 7404,
      "WA": 7405,
      "operatorname": 7406,
      "ROM": 7407,
      "Ġderived": 7408,
      "Ġnorthern": 7409,
      "Common": 7410,
      "Ġbul": 7411,
      "ĠTri": 7412,
      "Ġcommunities": 7413,
      "direct": 7414,
      "Ġquite": 7415,
      "ĠLee": 7416,
      "ĠProvince": 7417,
      "ĠYour": 7418,
      ")).": 7419,
      "navList": 7420,
      "Ġblocks": 7421,
      "Ġones": 7422,
      "pons": 7423,
      "ĠMedia": 7424,
      "scr": 7425,
      "=(": 7426,
      "inv": 7427,
      "ĠValley": 7428,
      "Ġcapacity": 7429,
      "ĠExec": 7430,
      "ĠJo": 7431,
      "Ġturned": 7432,
      "Ġchampionship": 7433,
      "area": 7434,
      "SR": 7435,
      "ĠIII": 7436,
      "Attributes": 7437,
      "ĠColumb": 7438,
      "Ġdrug": 7439,
      "Ġsal": 7440,
      "front": 7441,
      "Del": 7442,
      ")));": 7443,
      "sylvania": 7444,
      "ĠCross": 7445,
      "Ġ$.": 7446,
      "Åį": 7447,
      "Ġng": 7448,
      "ĠTherefore": 7449,
      "ĠCOVID": 7450,
      "ĠCode": 7451,
      "Duration": 7452,
      "Ġmoving": 7453,
      "Then": 7454,
      "Ġunc": 7455,
      "Ġdeliver": 7456,
      "urrency": 7457,
      "rase": 7458,
      "Ġsquare": 7459,
      "ocaml": 7460,
      "1965": 7461,
      "Ġcoeff": 7462,
      "Ġradi": 7463,
      "found": 7464,
      "Cast": 7465,
      "Ġdesc": 7466,
      "DC": 7467,
      "ToString": 7468,
      "Rece": 7469,
      "Proxy": 7470,
      "wer": 7471,
      "isms": 7472,
      "Close": 7473,
      "norm": 7474,
      "ĠGa": 7475,
      "Ġprotect": 7476,
      "Ġfarm": 7477,
      "Ġowned": 7478,
      "Ġseek": 7479,
      "Ġstories": 7480,
      "Ġinsert": 7481,
      "je": 7482,
      "writer": 7483,
      "oston": 7484,
      "total": 7485,
      "oved": 7486,
      "Ġmostly": 7487,
      "Selector": 7488,
      "Ġlives": 7489,
      "Ġshoot": 7490,
      "++;": 7491,
      "ocker": 7492,
      "Ġchosen": 7493,
      "Ġeth": 7494,
      "Ġindividuals": 7495,
      "->_": 7496,
      "Ġestimated": 7497,
      "ÅĤ": 7498,
      "ĠWal": 7499,
      "Pointer": 7500,
      "typeof": 7501,
      "ĠEmpire": 7502,
      "getElement": 7503,
      "duled": 7504,
      "Generic": 7505,
      "Ġ[[": 7506,
      "Ġ\"\"": 7507,
      "'])": 7508,
      "Ġattended": 7509,
      "inations": 7510,
      "atriate": 7511,
      "Ġupdated": 7512,
      "network": 7513,
      "ĠPoint": 7514,
      "Ġvertical": 7515,
      "engine": 7516,
      "ĠPak": 7517,
      "irls": 7518,
      "Ġinfluence": 7519,
      "Ġannual": 7520,
      "aval": 7521,
      "Cond": 7522,
      "Ġagreement": 7523,
      "aration": 7524,
      "3333": 7525,
      "ĠHistoric": 7526,
      "Ġsea": 7527,
      "ĠJim": 7528,
      "ĠChild": 7529,
      "1966": 7530,
      "Ġfailure": 7531,
      "Ġdebug": 7532,
      "1920": 7533,
      "Career": 7534,
      "arant": 7535,
      "Ġarm": 7536,
      "Engine": 7537,
      "Ġchoose": 7538,
      "unior": 7539,
      "Ġidentified": 7540,
      "Ġmagnetic": 7541,
      "Ġestim": 7542,
      "ĠBul": 7543,
      "({\\": 7544,
      "DS": 7545,
      "Ġoccur": 7546,
      "Public": 7547,
      "osoph": 7548,
      "arden": 7549,
      "Ġgoes": 7550,
      "seud": 7551,
      "Ġfederal": 7552,
      "itors": 7553,
      "ĠGood": 7554,
      "configuration": 7555,
      "Ġdigital": 7556,
      "Ġspread": 7557,
      "World": 7558,
      "Ġresponsible": 7559,
      "Ġways": 7560,
      "collapse": 7561,
      "Matrix": 7562,
      "Ġabsolute": 7563,
      "Ġprice": 7564,
      "jpg": 7565,
      "}+\\": 7566,
      "echo": 7567,
      "Ñı": 7568,
      "reset": 7569,
      "Ġeasily": 7570,
      "tools": 7571,
      "ĠBob": 7572,
      "called": 7573,
      "LIC": 7574,
      "inf": 7575,
      "logger": 7576,
      "Ġscheme": 7577,
      "Ġforeign": 7578,
      "posite": 7579,
      "ners": 7580,
      "Ġcarry": 7581,
      "ĠLemma": 7582,
      "iga": 7583,
      "swarm": 7584,
      "trigger": 7585,
      "tmp": 7586,
      "Ġcoq": 7587,
      "Panel": 7588,
      "Selected": 7589,
      "Ġnewsp": 7590,
      "Dem": 7591,
      "Ġfle": 7592,
      "Ġrailway": 7593,
      "icine": 7594,
      "Ġwor": 7595,
      "Ġexamples": 7596,
      "Ġawait": 7597,
      "flags": 7598,
      "ĠMP": 7599,
      "Ġraised": 7600,
      "Ġpoor": 7601,
      "hidden": 7602,
      "ensed": 7603,
      "Ġpurpose": 7604,
      "Ġencoding": 7605,
      "Ġinitially": 7606,
      "cb": 7607,
      "reedom": 7608,
      "inners": 7609,
      "Ġseems": 7610,
      "Ġcovered": 7611,
      "colLast": 7612,
      "Success": 7613,
      "kl": 7614,
      "oday": 7615,
      "'m": 7616,
      "STAT": 7617,
      "Ġplans": 7618,
      "ĠTODO": 7619,
      "wildfly": 7620,
      "alo": 7621,
      "Ġ&\\": 7622,
      "Ġcentre": 7623,
      "ĠSpain": 7624,
      "ĠDevelopment": 7625,
      "kins": 7626,
      "Ġslight": 7627,
      "ĠParam": 7628,
      "Ġquickly": 7629,
      "unct": 7630,
      "assertEquals": 7631,
      "Ġcompletely": 7632,
      "Ġserve": 7633,
      "Ġbus": 7634,
      "Ġlib": 7635,
      "tests": 7636,
      "=\"${": 7637,
      ":\\": 7638,
      "arriage": 7639,
      "ĠReview": 7640,
      "Files": 7641,
      "Ġhyp": 7642,
      "MB": 7643,
      "Ġreduce": 7644,
      "elease": 7645,
      "Feature": 7646,
      "ployment": 7647,
      "Ġprotocol": 7648,
      "Ġgets": 7649,
      "Ġsupp": 7650,
      "Ġvisual": 7651,
      "mazon": 7652,
      "Section": 7653,
      "Ġstra": 7654,
      "BUG": 7655,
      "Ġsamples": 7656,
      "Ġsaying": 7657,
      "Ġsituation": 7658,
      "ums": 7659,
      "SER": 7660,
      "Ġexc": 7661,
      "Ġvote": 7662,
      "ĠHon": 7663,
      "Ġprem": 7664,
      "Details": 7665,
      "IPT": 7666,
      "theme": 7667,
      "Ġcarried": 7668,
      "Ġdetail": 7669,
      "ĠIl": 7670,
      "Ġbecoming": 7671,
      "}'": 7672,
      "ĠCons": 7673,
      "usband": 7674,
      "aters": 7675,
      "manager": 7676,
      "Ġcommission": 7677,
      "ustrial": 7678,
      "120": 7679,
      "Ġsenior": 7680,
      "contains": 7681,
      "black": 7682,
      "colFirst": 7683,
      "switch": 7684,
      "Ġago": 7685,
      "look": 7686,
      "channel": 7687,
      "ĠWill": 7688,
      "ĠJud": 7689,
      "Ġinvalid": 7690,
      "Ġsurvey": 7691,
      "Ġimprove": 7692,
      "Ġofficer": 7693,
      "Ġplot": 7694,
      "avity": 7695,
      "cean": 7696,
      "ila": 7697,
      "ographic": 7698,
      "IE": 7699,
      "istration": 7700,
      "ĠBre": 7701,
      "ĠSu": 7702,
      "Ġjoint": 7703,
      "Ġdrop": 7704,
      "Ġrecon": 7705,
      "Ġconstructed": 7706,
      "_,": 7707,
      "Profile": 7708,
      "Iterator": 7709,
      "Ġgeneration": 7710,
      "Ġio": 7711,
      "ULE": 7712,
      "Films": 7713,
      "acle": 7714,
      "istent": 7715,
      "entials": 7716,
      "Ġran": 7717,
      "_(": 7718,
      "Ġforced": 7719,
      "handler": 7720,
      "Auto": 7721,
      "Ġcref": 7722,
      "Ġuniform": 7723,
      "Ġelem": 7724,
      "ighter": 7725,
      "Ġoffers": 7726,
      "ĠSund": 7727,
      "Ġbuilder": 7728,
      "mond": 7729,
      "Ġpositions": 7730,
      "zz": 7731,
      "Cor": 7732,
      "Ġliterature": 7733,
      "Ġstrategy": 7734,
      "ĠHa": 7735,
      "XML": 7736,
      "orial": 7737,
      "Ġpriv": 7738,
      "Plugin": 7739,
      "Ġletter": 7740,
      "ione": 7741,
      "ĠEarth": 7742,
      "ĠPop": 7743,
      "services": 7744,
      "Ġasync": 7745,
      "chen": 7746,
      "Ġlaunch": 7747,
      "Ġanim": 7748,
      "Ġpool": 7749,
      "ĠEnter": 7750,
      "ĠBet": 7751,
      "green": 7752,
      "Ġexpansion": 7753,
      "Ġimplements": 7754,
      "Ġdenote": 7755,
      "Runtime": 7756,
      "\"`": 7757,
      "Ġ-\\": 7758,
      "Ġul": 7759,
      "Full": 7760,
      "ĠMiddle": 7761,
      "orning": 7762,
      "ĠPennsylvania": 7763,
      "Ġpassword": 7764,
      "Ġvoice": 7765,
      "Ġdepartment": 7766,
      "]$": 7767,
      "ĠElect": 7768,
      "ĠBattle": 7769,
      "ĠEach": 7770,
      "Ġworkers": 7771,
      "Ġmagazine": 7772,
      "Ġmentioned": 7773,
      "Ġmanaged": 7774,
      "Pay": 7775,
      "\\,\\": 7776,
      "ĠGreek": 7777,
      "Ġenabled": 7778,
      "ĠSpe": 7779,
      "getName": 7780,
      "Ġxmlns": 7781,
      "Ġharm": 7782,
      "ĠTele": 7783,
      "Ġinner": 7784,
      "shift": 7785,
      "Ġcensus": 7786,
      "ĠUpdate": 7787,
      "ĠVAL": 7788,
      "Ġprefer": 7789,
      "Ġ\"<": 7790,
      "ĠIran": 7791,
      "Ġsites": 7792,
      "ĠFunction": 7793,
      "SQL": 7794,
      "Ġinteg": 7795,
      "ĠÅ": 7796,
      "Inv": 7797,
      "aste": 7798,
      "herited": 7799,
      "Ġanything": 7800,
      "Ġfix": 7801,
      "Repository": 7802,
      "Ġmessages": 7803,
      "IB": 7804,
      "sumer": 7805,
      "hens": 7806,
      "Ġreject": 7807,
      "Ġdefeated": 7808,
      "Ġtrying": 7809,
      "Ġmind": 7810,
      "ĠConference": 7811,
      "Mapping": 7812,
      "ĠJac": 7813,
      "ulty": 7814,
      "Ġrg": 7815,
      "rid": 7816,
      "iterator": 7817,
      "Keys": 7818,
      "cred": 7819,
      "mutable": 7820,
      "fail": 7821,
      "128": 7822,
      "shadow": 7823,
      "Further": 7824,
      "erial": 7825,
      "ĠAND": 7826,
      "Ġsegment": 7827,
      "ĠSy": 7828,
      "bury": 7829,
      "Ġdisease": 7830,
      "Ġcounty": 7831,
      "Ġdriver": 7832,
      "Py": 7833,
      "Ġseconds": 7834,
      "Ġcreation": 7835,
      "enth": 7836,
      "Memory": 7837,
      "ĠAsia": 7838,
      "allclasses": 7839,
      "Ġlived": 7840,
      "ĠBusiness": 7841,
      "Ġimplies": 7842,
      "Ġcombined": 7843,
      "ĠMichigan": 7844,
      "[$": 7845,
      "ĠCommand": 7846,
      "Ġunless": 7847,
      "ĠPass": 7848,
      "Ġmetric": 7849,
      "High": 7850,
      "Ġtheme": 7851,
      "undred": 7852,
      "ried": 7853,
      "poses": 7854,
      "Ã£o": 7855,
      "åı": 7856,
      "picker": 7857,
      "Opt": 7858,
      "rick": 7859,
      "Dest": 7860,
      "Ġgiving": 7861,
      "}}{\\": 7862,
      "Ġarrest": 7863,
      "ĠBack": 7864,
      "ĠHamilton": 7865,
      "Ġthr": 7866,
      "acro": 7867,
      "ĠSouthern": 7868,
      "|^": 7869,
      "progress": 7870,
      "Ġip": 7871,
      "ĠSar": 7872,
      "dp": 7873,
      "Double": 7874,
      "ashed": 7875,
      "isc": 7876,
      "ĠMah": 7877,
      "ĠLord": 7878,
      "ajax": 7879,
      "Ġ=======": 7880,
      "atial": 7881,
      "tk": 7882,
      "ĠRadio": 7883,
      "airman": 7884,
      "ONE": 7885,
      "Ġalgebra": 7886,
      "Ġmask": 7887,
      "Pi": 7888,
      "ologies": 7889,
      "ennis": 7890,
      "Socket": 7891,
      "Ġversions": 7892,
      "}-\\": 7893,
      "poration": 7894,
      "Ġmurder": 7895,
      "iate": 7896,
      "Ġtypically": 7897,
      "Route": 7898,
      "ĠNode": 7899,
      "Print": 7900,
      "TA": 7901,
      "Help": 7902,
      "Gen": 7903,
      "Ġnumerous": 7904,
      "icip": 7905,
      "power": 7906,
      "oles": 7907,
      "Ġdemand": 7908,
      "Protocol": 7909,
      "ffect": 7910,
      "Ġconflic": 7911,
      "Ġshowed": 7912,
      "ĠBow": 7913,
      "ĠMov": 7914,
      "ests": 7915,
      "Ġnavigation": 7916,
      "wrapper": 7917,
      "Ġestimate": 7918,
      "yer": 7919,
      "Ġtab": 7920,
      "xspace": 7921,
      "etailed": 7922,
      "Product": 7923,
      "Ġsetup": 7924,
      "]\\": 7925,
      "Ġbey": 7926,
      "HR": 7927,
      "Ġarbitr": 7928,
      "Space": 7929,
      "ĠRepresent": 7930,
      "Ġmotion": 7931,
      "Ġ\",": 7932,
      "ĠTask": 7933,
      "Ġtraff": 7934,
      "Ġwave": 7935,
      "ĠOx": 7936,
      "Ġcat": 7937,
      "enumerate": 7938,
      "Ġproviding": 7939,
      "Ġbelieve": 7940,
      "Ġdespite": 7941,
      "Ġassigned": 7942,
      "rev": 7943,
      "hy": 7944,
      "bro": 7945,
      "ĉĉĉĉĉĉĉĉĉ": 7946,
      "claim": 7947,
      "Ġprocesses": 7948,
      "blue": 7949,
      "ĠCro": 7950,
      "typed": 7951,
      "ĠJava": 7952,
      "Ġessential": 7953,
      "Ġdrama": 7954,
      "SY": 7955,
      "ibli": 7956,
      "Ġnoise": 7957,
      "awa": 7958,
      "protected": 7959,
      "Ġtx": 7960,
      "Ġice": 7961,
      "NotNull": 7962,
      "Ġincome": 7963,
      "Ġsteps": 7964,
      "Ġexport": 7965,
      "uset": 7966,
      "Scroll": 7967,
      "Ġaffect": 7968,
      "ĠHome": 7969,
      "Ġoperators": 7970,
      "Ġagreed": 7971,
      "But": 7972,
      "enant": 7973,
      "\",\"": 7974,
      "ĠFI": 7975,
      "1962": 7976,
      "inos": 7977,
      "weet": 7978,
      "Ġbrowser": 7979,
      "nil": 7980,
      "ĠSpecial": 7981,
      "Ġbeyond": 7982,
      "ĠBritain": 7983,
      "ĠJones": 7984,
      "udget": 7985,
      "ĠCentre": 7986,
      "ĠTheir": 7987,
      "Ġsuc": 7988,
      "Ġconcentr": 7989,
      "Ġreq": 7990,
      "ĠHead": 7991,
      "ĠPacific": 7992,
      "Ġreferred": 7993,
      "etic": 7994,
      "webpack": 7995,
      "ĠOhio": 7996,
      "headers": 7997,
      "Ġsingles": 7998,
      "ĠCivil": 7999,
      "ĠTro": 8000,
      "ĠIndex": 8001,
      "sequence": 8002,
      "Ġmill": 8003,
      "ancing": 8004,
      "Ġpp": 8005,
      "ĠDemocratic": 8006,
      "aya": 8007,
      "Ġbrand": 8008,
      "hide": 8009,
      "har": 8010,
      "Ġreflect": 8011,
      "hspace": 8012,
      "Ġrail": 8013,
      "Ġstraight": 8014,
      "ymmet": 8015,
      "Ġpush": 8016,
      "role": 8017,
      "Ã±": 8018,
      "Ġformation": 8019,
      "ĠGal": 8020,
      "Scale": 8021,
      "à¸": 8022,
      "Ġleads": 8023,
      "Ġorganizations": 8024,
      "Ġfactory": 8025,
      "gers": 8026,
      "BE": 8027,
      "Sync": 8028,
      "metadata": 8029,
      "Ġleaving": 8030,
      "Video": 8031,
      "generated": 8032,
      "exists": 8033,
      "Î±": 8034,
      "Ġhelped": 8035,
      "ruby": 8036,
      "Ġcli": 8037,
      "apply": 8038,
      "RAN": 8039,
      ")+": 8040,
      "adr": 8041,
      "Ġfactors": 8042,
      "Ġvelocity": 8043,
      "Ġoptional": 8044,
      "chor": 8045,
      "ĠBlue": 8046,
      "tbody": 8047,
      "ello": 8048,
      "rf": 8049,
      "1963": 8050,
      "adel": 8051,
      "Ġ?>": 8052,
      "Ġarmy": 8053,
      "pton": 8054,
      "Äį": 8055,
      "ifically": 8056,
      "ceeded": 8057,
      "Term": 8058,
      "para": 8059,
      "filename": 8060,
      "oret": 8061,
      "$}": 8062,
      "ĠNumber": 8063,
      "Ġdistinct": 8064,
      "Author": 8065,
      "cdn": 8066,
      "triev": 8067,
      "wall": 8068,
      "ĠAsian": 8069,
      "Ljava": 8070,
      "gence": 8071,
      "Ġsufficient": 8072,
      "bytes": 8073,
      "neq": 8074,
      "Ġhyper": 8075,
      "eller": 8076,
      "ĠMA": 8077,
      "Bi": 8078,
      "Ġinform": 8079,
      "Ġaspect": 8080,
      "ĠTra": 8081,
      "ĠEqu": 8082,
      "Ġsummary": 8083,
      "Layer": 8084,
      "itemize": 8085,
      "Database": 8086,
      "Ġtrib": 8087,
      "Ġseat": 8088,
      ">:": 8089,
      "onder": 8090,
      "ĠSO": 8091,
      "hemat": 8092,
      "platform": 8093,
      "inois": 8094,
      "Ġdepends": 8095,
      "Ġcomparison": 8096,
      "Ġforest": 8097,
      "Ġarchitecture": 8098,
      "According": 8099,
      "Ġpages": 8100,
      "matrix": 8101,
      "article": 8102,
      "deg": 8103,
      "Ġdataset": 8104,
      "Ġdepth": 8105,
      "Ġsociety": 8106,
      "theorem": 8107,
      "1944": 8108,
      "While": 8109,
      "Cap": 8110,
      "gg": 8111,
      "ĠLo": 8112,
      "Ġreplace": 8113,
      "READ": 8114,
      "ĠBu": 8115,
      "NULL": 8116,
      "attributes": 8117,
      "props": 8118,
      "phy": 8119,
      "Ġcitiz": 8120,
      "Ġbinary": 8121,
      "Ġdelay": 8122,
      "atar": 8123,
      "Ġeverything": 8124,
      "Ġfair": 8125,
      "ĠPrem": 8126,
      "ĠJersey": 8127,
      "compiler": 8128,
      "}}_": 8129,
      "Ġspectrum": 8130,
      "Ġuniversity": 8131,
      "Ġctx": 8132,
      "Ġunivers": 8133,
      "ĠMen": 8134,
      "ĠCamb": 8135,
      "provider": 8136,
      "Ġfirm": 8137,
      "Ġtypename": 8138,
      "Global": 8139,
      "Ġhighlight": 8140,
      "lan": 8141,
      "ager": 8142,
      "Ġplane": 8143,
      "Ġcolon": 8144,
      "Ġhistorical": 8145,
      "Ġquestions": 8146,
      "Ġhusband": 8147,
      "symbol": 8148,
      "ynomial": 8149,
      "gypt": 8150,
      "ĠLandroid": 8151,
      "ĠCarl": 8152,
      "cribe": 8153,
      "ĠCard": 8154,
      "\"><!--": 8155,
      "Ġcontrast": 8156,
      "Ġcru": 8157,
      "Ġlisting": 8158,
      "ĠMi": 8159,
      "Ġvictory": 8160,
      ">::": 8161,
      "enger": 8162,
      "ĠJohnson": 8163,
      "Ġnine": 8164,
      "icies": 8165,
      "Ġdraft": 8166,
      "Ġfiction": 8167,
      "Ġdat": 8168,
      "erved": 8169,
      "Ġoffered": 8170,
      "zen": 8171,
      "Ġhar": 8172,
      "Failed": 8173,
      "'ve": 8174,
      "ĠRam": 8175,
      "prefix": 8176,
      "Password": 8177,
      "maven": 8178,
      "iling": 8179,
      "prev": 8180,
      "Symbol": 8181,
      "ffff": 8182,
      "ĠĠĠĠĠĠĠĠĠĠĠĠĠĠĠĠĊ": 8183,
      "Ġhospital": 8184,
      "ĠMajor": 8185,
      "emy": 8186,
      "CHECK": 8187,
      "tags": 8188,
      "ĠRo": 8189,
      "Ġtracks": 8190,
      "ĠOnly": 8191,
      "Ġelections": 8192,
      "ĠEp": 8193,
      "Remove": 8194,
      "ĠSpec": 8195,
      "noindent": 8196,
      "Ġenjoy": 8197,
      "achment": 8198,
      "Abstract": 8199,
      "Ġonto": 8200,
      "$_": 8201,
      "owers": 8202,
      "<!": 8203,
      "ĠAction": 8204,
      "eval": 8205,
      "Ġdisk": 8206,
      "Agent": 8207,
      "inant": 8208,
      "ĠScotland": 8209,
      "zero": 8210,
      "burgh": 8211,
      "Single": 8212,
      "parser": 8213,
      "amaz": 8214,
      "achuset": 8215,
      "illy": 8216,
      "Ġmaps": 8217,
      "achusetts": 8218,
      "Mut": 8219,
      "xs": 8220,
      "aylor": 8221,
      "dialog": 8222,
      "ĠPoland": 8223,
      "Ġreligious": 8224,
      "Ġsusp": 8225,
      "standing": 8226,
      "ancer": 8227,
      "izable": 8228,
      "Î¿": 8229,
      "Ġcities": 8230,
      "Sequence": 8231,
      "ĠExt": 8232,
      "ĠPower": 8233,
      "Ġmainly": 8234,
      "Parse": 8235,
      ")}$": 8236,
      "Ġclaimed": 8237,
      "MI": 8238,
      "Ġrecording": 8239,
      "Ġru": 8240,
      "Mat": 8241,
      "Ġreports": 8242,
      "endor": 8243,
      "DT": 8244,
      "urban": 8245,
      "Ġserving": 8246,
      "Ġspaces": 8247,
      "Pub": 8248,
      "ĠWilliams": 8249,
      "Ġrates": 8250,
      "cluded": 8251,
      "Ġalleg": 8252,
      "login": 8253,
      "ĠFrancisco": 8254,
      "1961": 8255,
      "Ġenable": 8256,
      "ĠQueen": 8257,
      "May": 8258,
      "IND": 8259,
      "rical": 8260,
      "ĠEdward": 8261,
      "CF": 8262,
      "TEXT": 8263,
      "stein": 8264,
      "Ġexactly": 8265,
      "Ġtrigger": 8266,
      "children": 8267,
      "wig": 8268,
      "Ġinteraction": 8269,
      "prise": 8270,
      "zone": 8271,
      "anging": 8272,
      "ĠIslam": 8273,
      "upload": 8274,
      "'ll": 8275,
      "ĠCa": 8276,
      "ĠBoston": 8277,
      "game": 8278,
      "ridge": 8279,
      "Register": 8280,
      "jango": 8281,
      "Ġbelong": 8282,
      "ĠLab": 8283,
      "National": 8284,
      "ĠReact": 8285,
      "bel": 8286,
      "single": 8287,
      "ĠCy": 8288,
      "{$": 8289,
      "Ġparties": 8290,
      "libr": 8291,
      "jd": 8292,
      "Ġderiv": 8293,
      "Generator": 8294,
      "Ġdownload": 8295,
      "------------": 8296,
      "Ġbeaut": 8297,
      "Ġleaders": 8298,
      "othing": 8299,
      "sky": 8300,
      "Ġut": 8301,
      "extern": 8302,
      "xhtml": 8303,
      "Ġpil": 8304,
      "Constants": 8305,
      "iffer": 8306,
      "cher": 8307,
      "Ġmenu": 8308,
      "clusive": 8309,
      "formance": 8310,
      "Ġtypeof": 8311,
      "ĠPath": 8312,
      "mir": 8313,
      "Ġaxis": 8314,
      "Ġgrid": 8315,
      "Framework": 8316,
      "Ġsmooth": 8317,
      "scape": 8318,
      "Ġclick": 8319,
      "Ġdoub": 8320,
      "Ġ[],": 8321,
      "scss": 8322,
      "Ġlicense": 8323,
      "andon": 8324,
      "Example": 8325,
      "Ġgenus": 8326,
      "Seg": 8327,
      "Game": 8328,
      "Ġcompare": 8329,
      "()</": 8330,
      "Ġmodified": 8331,
      "ĠSte": 8332,
      "BP": 8333,
      "pat": 8334,
      "ĠFree": 8335,
      "bits": 8336,
      "Ġtor": 8337,
      "Ġoccurred": 8338,
      "Category": 8339,
      "una": 8340,
      "}%": 8341,
      "Tx": 8342,
      "Ġbass": 8343,
      "ĠFurther": 8344,
      "Ġcolumns": 8345,
      "ĠBern": 8346,
      ")}{": 8347,
      "Ġfamous": 8348,
      "player": 8349,
      "Ġnetworks": 8350,
      "Character": 8351,
      "Ġcalling": 8352,
      "ounce": 8353,
      "Ġ×": 8354,
      "Ġ_{": 8355,
      "ĠEconom": 8356,
      "Ġinfin": 8357,
      "Ġappropriate": 8358,
      "parameters": 8359,
      "?>": 8360,
      "ĠLuc": 8361,
      "Ġcompute": 8362,
      "Ġtrust": 8363,
      "Ġaim": 8364,
      "FFFF": 8365,
      "ĠMany": 8366,
      "Fail": 8367,
      "collection": 8368,
      "ĠBas": 8369,
      "operation": 8370,
      "1942": 8371,
      "springframework": 8372,
      "Ġsafety": 8373,
      "Func": 8374,
      "ulf": 8375,
      "Ġmagn": 8376,
      "ĠBoth": 8377,
      "neg": 8378,
      "opes": 8379,
      "Ġsquad": 8380,
      "Arch": 8381,
      "Ġsuccessfully": 8382,
      "ĠElement": 8383,
      "Ġpan": 8384,
      "stable": 8385,
      "Ġinteresting": 8386,
      "Ġ(_": 8387,
      "CTYPE": 8388,
      "iminal": 8389,
      "ampions": 8390,
      "BAR": 8391,
      "pressed": 8392,
      "sel": 8393,
      "Ġordered": 8394,
      "Ġconstructor": 8395,
      "nic": 8396,
      "decl": 8397,
      "Encoded": 8398,
      "600": 8399,
      "iated": 8400,
      "General": 8401,
      "ĠIE": 8402,
      "Ġrelevant": 8403,
      "Collections": 8404,
      "apes": 8405,
      "original": 8406,
      "Ġradius": 8407,
      "Ġvertex": 8408,
      "ults": 8409,
      "ĠStart": 8410,
      "Ġraw": 8411,
      "=\"$": 8412,
      "ĠJewish": 8413,
      "sen": 8414,
      "Ġtrial": 8415,
      "person": 8416,
      "Ġlatest": 8417,
      "onto": 8418,
      "Stop": 8419,
      "Ġbatt": 8420,
      "Ġpointer": 8421,
      "Ġlab": 8422,
      "Here": 8423,
      "Ġsomeone": 8424,
      "Wrapper": 8425,
      "random": 8426,
      "Ġappend": 8427,
      "Cluster": 8428,
      "IMP": 8429,
      "ĠKent": 8430,
      "1956": 8431,
      "ĠIOException": 8432,
      "Ġlic": 8433,
      "ĠCoast": 8434,
      "zab": 8435,
      "urer": 8436,
      "Ġcos": 8437,
      "numerus": 8438,
      "iced": 8439,
      "aby": 8440,
      "Ġwild": 8441,
      "awn": 8442,
      "ĠLocal": 8443,
      "numerusform": 8444,
      "ITE": 8445,
      "('.": 8446,
      "svg": 8447,
      "ĠKr": 8448,
      "ĠUSA": 8449,
      "Ġsemi": 8450,
      "}},": 8451,
      "Ġactors": 8452,
      "Depend": 8453,
      "bas": 8454,
      "Ġsignature": 8455,
      "sid": 8456,
      "Ġembedd": 8457,
      "ĠTheatre": 8458,
      "Ġui": 8459,
      "ĠGeorgia": 8460,
      "Sample": 8461,
      "Ġexchange": 8462,
      "!!": 8463,
      "uries": 8464,
      "Ġassess": 8465,
      "Ġwestern": 8466,
      "FIG": 8467,
      "iÄĩ": 8468,
      "ĠDutch": 8469,
      "username": 8470,
      "eld": 8471,
      "Nodes": 8472,
      "LECT": 8473,
      "Ġ^": 8474,
      "Ġrequests": 8475,
      "since": 8476,
      "Ġeq": 8477,
      "aturing": 8478,
      "Ġtasks": 8479,
      "flag": 8480,
      "1948": 8481,
      "ĠRet": 8482,
      "ctrine": 8483,
      "Ġclin": 8484,
      "ĠGlobal": 8485,
      "Some": 8486,
      "Ġefforts": 8487,
      "Ġresolution": 8488,
      "definition": 8489,
      "ĠWay": 8490,
      "ĠCommon": 8491,
      "1959": 8492,
      "Ġofficers": 8493,
      "uly": 8494,
      "underline": 8495,
      "ĠMid": 8496,
      "1958": 8497,
      "Ġrect": 8498,
      "ÐµÐ": 8499,
      "execute": 8500,
      "ierarch": 8501,
      "ĠGets": 8502,
      "1939": 8503,
      "enabled": 8504,
      "Ġsister": 8505,
      "Ġabstract": 8506,
      "imitive": 8507,
      "NOT": 8508,
      "Ġaccepted": 8509,
      "ĠRos": 8510,
      "idx": 8511,
      "osis": 8512,
      "{%": 8513,
      "Ġcomposed": 8514,
      "Ġsignificantly": 8515,
      "circle": 8516,
      "roke": 8517,
      "PORT": 8518,
      "fire": 8519,
      "rate": 8520,
      "hu": 8521,
      "ÑĮ": 8522,
      "Ġmaterials": 8523,
      "Report": 8524,
      "Ġadvant": 8525,
      "junit": 8526,
      "ĠMult": 8527,
      "Ġsettlement": 8528,
      "Ġ\"-": 8529,
      "Ġregional": 8530,
      "Ġoil": 8531,
      "Ġdiscussed": 8532,
      "Simple": 8533,
      "Ġstock": 8534,
      "Ġ'<": 8535,
      "she": 8536,
      "Install": 8537,
      "rawn": 8538,
      "cha": 8539,
      "HER": 8540,
      "iciency": 8541,
      "users": 8542,
      "Ġnation": 8543,
      "Ġstatistics": 8544,
      "dem": 8545,
      "Ġ],": 8546,
      "Brit": 8547,
      "Ġprocessing": 8548,
      "ĠIllinois": 8549,
      "ben": 8550,
      "Ġfootballer": 8551,
      "Ġoperated": 8552,
      "(__": 8553,
      "Ġdrive": 8554,
      "Ġperfect": 8555,
      "ĠInformation": 8556,
      "conn": 8557,
      "builder": 8558,
      "ĠVan": 8559,
      "ĠGovernor": 8560,
      "ashion": 8561,
      "Ġencour": 8562,
      "Ġfinish": 8563,
      "Bound": 8564,
      "Ġtools": 8565,
      "ĠSenate": 8566,
      "Ġlif": 8567,
      "CESS": 8568,
      "glyph": 8569,
      "ĠMassachusetts": 8570,
      "Ġoccurs": 8571,
      "ĠKong": 8572,
      "ni": 8573,
      "vspace": 8574,
      "Ġintended": 8575,
      "Ġpiece": 8576,
      "hesis": 8577,
      "sys": 8578,
      "Ġremote": 8579,
      "Ġ{{": 8580,
      "Ġlayout": 8581,
      "ĠBang": 8582,
      "eleted": 8583,
      "Ġisn": 8584,
      "'$": 8585,
      "Sports": 8586,
      "itage": 8587,
      "Ġqueue": 8588,
      "Ġring": 8589,
      "WN": 8590,
      "ĠHash": 8591,
      "odd": 8592,
      "ĠInf": 8593,
      "emporary": 8594,
      "ĠĠĠĠĠĠĠĠĠĠĠĠĠĠĠĠĠĠĠĠĠĠĠĠĠĠĠĠĠĠĠĠĠĠĠĠĠĠĠĠĠĠĠĠĠĠĠĠĠĠĠĠĠĠĠĠĠĠĠĠĠĠĠĠ": 8595,
      "Prefix": 8596,
      "Ġsizeof": 8597,
      "vo": 8598,
      "ĠServices": 8599,
      "Ġadj": 8600,
      "Ġdiscovered": 8601,
      "Ġcommit": 8602,
      "Role": 8603,
      "Player": 8604,
      "1941": 8605,
      "pu": 8606,
      "Ġmetal": 8607,
      "pet": 8608,
      "arters": 8609,
      "Ġserious": 8610,
      "Summary": 8611,
      "Ġships": 8612,
      "ĠPage": 8613,
      "axis": 8614,
      "ĠĠĠĠĠĠĠĠĠĠĠĠĠĠĠĠĠĠĠĠĠĠĠĠĠĠĠĠĠ": 8615,
      "Ġlogger": 8616,
      "Ġwrap": 8617,
      "itionally": 8618,
      "Ġblood": 8619,
      "sex": 8620,
      "Ġbridge": 8621,
      "uations": 8622,
      "ĠAuthor": 8623,
      "Ġmatching": 8624,
      "Ġattract": 8625,
      "ĠSea": 8626,
      "Ġpoliticians": 8627,
      "ICE": 8628,
      "ĠTechnology": 8629,
      "Ġportr": 8630,
      "Ġdevices": 8631,
      "Ġcomedy": 8632,
      "ĠSand": 8633,
      "1957": 8634,
      ".\");": 8635,
      "prod": 8636,
      "Ġcouncil": 8637,
      "Ġhol": 8638,
      "Ġwrong": 8639,
      "Ġprofessor": 8640,
      "Trace": 8641,
      "Ġhope": 8642,
      "Ġenh": 8643,
      "Ġlanguages": 8644,
      "...</": 8645,
      "Ġrare": 8646,
      "eces": 8647,
      "Progress": 8648,
      "ez": 8649,
      "Ġexit": 8650,
      "Ġprefix": 8651,
      "ĠKen": 8652,
      "ĠBO": 8653,
      "Area": 8654,
      "ĠBor": 8655,
      "println": 8656,
      "ĠFace": 8657,
      "1943": 8658,
      "lean": 8659,
      "Ġpret": 8660,
      "picture": 8661,
      "Ġpartner": 8662,
      "Statement": 8663,
      "ĠOfficial": 8664,
      "FS": 8665,
      "Ġpromin": 8666,
      "Ġpi": 8667,
      "Registry": 8668,
      "Ġcancer": 8669,
      "icans": 8670,
      "Ġrepresenting": 8671,
      "ĠLie": 8672,
      "Ġrevealed": 8673,
      "Ġ[\"": 8674,
      "assembly": 8675,
      "iteral": 8676,
      "Selection": 8677,
      "Ñĭ": 8678,
      "Ġoperating": 8679,
      "Region": 8680,
      "Ġalternative": 8681,
      "Ġrgba": 8682,
      "Ġtheorem": 8683,
      "ĠPhilipp": 8684,
      "ĠFC": 8685,
      "serial": 8686,
      "Ġfish": 8687,
      "Ġconstraints": 8688,
      "shared": 8689,
      "Ġprev": 8690,
      "Our": 8691,
      "protocol": 8692,
      "Ġincorpor": 8693,
      "ĠPrince": 8694,
      "rad": 8695,
      "ĠDown": 8696,
      "Ġexistence": 8697,
      "ĠÂ£": 8698,
      "outer": 8699,
      "Ġbelieved": 8700,
      "Ġsector": 8701,
      "ivery": 8702,
      "here": 8703,
      "WR": 8704,
      ";\">": 8705,
      "odies": 8706,
      "arsed": 8707,
      "Ġnotice": 8708,
      "Total": 8709,
      "Ġrespond": 8710,
      "Ġtell": 8711,
      "JS": 8712,
      "ducing": 8713,
      "Ġdepart": 8714,
      "Ġrob": 8715,
      "ĠStan": 8716,
      "ĠNight": 8717,
      "Ġcombination": 8718,
      "____": 8719,
      "irds": 8720,
      "loop": 8721,
      "ĠEastern": 8722,
      "Cred": 8723,
      "ĠInteger": 8724,
      "ais": 8725,
      "('/": 8726,
      "storage": 8727,
      "Ġflat": 8728,
      "ALSE": 8729,
      "ĠNAME": 8730,
      "ARN": 8731,
      "ĠHarr": 8732,
      "iÃ³n": 8733,
      "ĠWater": 8734,
      "fixed": 8735,
      "Variable": 8736,
      "bg": 8737,
      "ĠMot": 8738,
      "ĠWall": 8739,
      "ĠOriginal": 8740,
      "duces": 8741,
      "Ġworth": 8742,
      "ran": 8743,
      "Ġelim": 8744,
      "=>": 8745,
      "Skip": 8746,
      "Home": 8747,
      "opl": 8748,
      "Second": 8749,
      "ĠĠĠĠĠĠĠĠĠĠĠĠĠĠĠĠĠĠĠĠĠĠĠĠĠĠ": 8750,
      "Ġwall": 8751,
      "Ġbre": 8752,
      "Ġretired": 8753,
      "Ġcontribution": 8754,
      "identifier": 8755,
      "hom": 8756,
      "Ġcurve": 8757,
      "ĠUI": 8758,
      ";}": 8759,
      "These": 8760,
      "Ġgauge": 8761,
      "report": 8762,
      "ĠBroad": 8763,
      "Ġmarked": 8764,
      "Ġobservations": 8765,
      "elligence": 8766,
      "ĠImage": 8767,
      "ĠManagement": 8768,
      "throw": 8769,
      "ĠRegion": 8770,
      "Ġmuseum": 8771,
      "ĠĠĠĠĠĠĠĠĠĠĠĠĠĠĠĠĠĠĠĠĠĠĠĠĠĠĠĠ": 8772,
      "Ġ{\"": 8773,
      "done": 8774,
      "OUT": 8775,
      "Ġcloud": 8776,
      "Ġconducted": 8777,
      "ĠAri": 8778,
      "href": 8779,
      "when": 8780,
      "Ġreader": 8781,
      "1946": 8782,
      "ĠStat": 8783,
      "250": 8784,
      "ilarly": 8785,
      "}}}": 8786,
      "ĠJr": 8787,
      "ĠMessage": 8788,
      "kt": 8789,
      "Ġmetadata": 8790,
      "nn": 8791,
      "ĠMu": 8792,
      "Ġrapid": 8793,
      "Ġexpanded": 8794,
      "detail": 8795,
      "ĠWild": 8796,
      "Ġens": 8797,
      "Ġfelt": 8798,
      "trm": 8799,
      "ĠRailway": 8800,
      "Ġcontained": 8801,
      "ĠOxford": 8802,
      "Ġissued": 8803,
      "multicol": 8804,
      "ĠWis": 8805,
      "ĠBol": 8806,
      "Ġmeasures": 8807,
      "Ġangle": 8808,
      "GO": 8809,
      "rift": 8810,
      "yo": 8811,
      "Ġ(-": 8812,
      "ĠJoe": 8813,
      "Ġviews": 8814,
      "riority": 8815,
      "United": 8816,
      "Ġflags": 8817,
      "Ġadding": 8818,
      "safe": 8819,
      "Ġcharset": 8820,
      "Ġacquired": 8821,
      "Ġparticle": 8822,
      "ĠLight": 8823,
      "ĠAndrew": 8824,
      "amazon": 8825,
      "Ġtraffic": 8826,
      "ĠSI": 8827,
      "ĠPortug": 8828,
      "details": 8829,
      "igital": 8830,
      "ingham": 8831,
      "unique": 8832,
      "illi": 8833,
      "^-": 8834,
      "tained": 8835,
      "1952": 8836,
      "Ġclimate": 8837,
      "Ġformal": 8838,
      "Ġrelatively": 8839,
      "Ġorient": 8840,
      "Ġformula": 8841,
      "ĠRay": 8842,
      "going": 8843,
      "emon": 8844,
      "ĠCopyright": 8845,
      "Ġsupply": 8846,
      "pear": 8847,
      "Best": 8848,
      "mediate": 8849,
      "Ġtherm": 8850,
      "Ġaudio": 8851,
      "occer": 8852,
      "Ġresidents": 8853,
      "Ġstrings": 8854,
      "ĠJackson": 8855,
      "%,": 8856,
      "Ġalone": 8857,
      "TIME": 8858,
      "errors": 8859,
      "typedef": 8860,
      "ifiers": 8861,
      "ĠAff": 8862,
      "Ġsafe": 8863,
      "Google": 8864,
      "Direct": 8865,
      "Ġstarts": 8866,
      "Props": 8867,
      "textrm": 8868,
      "ĠEgypt": 8869,
      "agraph": 8870,
      "inity": 8871,
      "multicolumn": 8872,
      "Generated": 8873,
      "Ġmolec": 8874,
      "Ġretriev": 8875,
      "ĠHuman": 8876,
      "Ġrac": 8877,
      "Ġweap": 8878,
      "Ġcultural": 8879,
      "1955": 8880,
      "ĠOrgan": 8881,
      "Ġcompact": 8882,
      "required": 8883,
      "plus": 8884,
      "clean": 8885,
      "Ġclubs": 8886,
      "uplic": 8887,
      "Comment": 8888,
      "IST": 8889,
      "ĠPolice": 8890,
      "DP": 8891,
      "'));": 8892,
      "Ġexperimental": 8893,
      "Ġlies": 8894,
      "Ġgrowing": 8895,
      "Ġgirl": 8896,
      "Services": 8897,
      "ucky": 8898,
      "ĠCommunity": 8899,
      "water": 8900,
      "temp": 8901,
      "Identifier": 8902,
      "Ġstrateg": 8903,
      "Ġsynt": 8904,
      "hol": 8905,
      "ivial": 8906,
      "ĠLatin": 8907,
      "vin": 8908,
      "chain": 8909,
      "Stats": 8910,
      "Ġhence": 8911,
      "ĠHTTP": 8912,
      "mask": 8913,
      "Ġshowing": 8914,
      "loader": 8915,
      "Ġ\\|": 8916,
      "%%%%": 8917,
      "Ġarticles": 8918,
      "Ġproxy": 8919,
      "Ġfre": 8920,
      "Ġconsistent": 8921,
      "However": 8922,
      "Compar": 8923,
      "ĠFar": 8924,
      "DOCTYPE": 8925,
      "Ġexecution": 8926,
      "Ġmeasured": 8927,
      "teen": 8928,
      "invalid": 8929,
      "Ġsubsequently": 8930,
      "vs": 8931,
      "MOD": 8932,
      "Ġpersonnel": 8933,
      "Ġhundred": 8934,
      "MT": 8935,
      "outheast": 8936,
      "itness": 8937,
      "ester": 8938,
      "Ġhands": 8939,
      "Ġnullptr": 8940,
      "Ġpairs": 8941,
      ")->": 8942,
      "pull": 8943,
      "Ġauthors": 8944,
      "Ġthous": 8945,
      "1947": 8946,
      "Ġfloor": 8947,
      "ĠAny": 8948,
      "forward": 8949,
      "Ġcalc": 8950,
      "Short": 8951,
      "DateTime": 8952,
      "ĠØ": 8953,
      "Ġindicates": 8954,
      "nodes": 8955,
      "Ġallowing": 8956,
      "ĠPlan": 8957,
      "Transport": 8958,
      "Ġ).": 8959,
      "Ġtensor": 8960,
      "fix": 8961,
      "Ġsecondary": 8962,
      "onia": 8963,
      "CRE": 8964,
      "umes": 8965,
      "Ġwinner": 8966,
      "pare": 8967,
      "Ġtra": 8968,
      "<\\": 8969,
      "Ġpull": 8970,
      "LINE": 8971,
      "ĠSecretary": 8972,
      "ĠHung": 8973,
      "large": 8974,
      "Domain": 8975,
      "BB": 8976,
      "Ġanc": 8977,
      "Ġdict": 8978,
      "Ġsales": 8979,
      "Ġentries": 8980,
      "Two": 8981,
      "ĠWeek": 8982,
      "Ġslightly": 8983,
      "Ġpert": 8984,
      "blank": 8985,
      "ĠSports": 8986,
      "Ġleaves": 8987,
      "NT": 8988,
      "Ġroll": 8989,
      "condition": 8990,
      "haps": 8991,
      "Ġconfirmed": 8992,
      "Ġfill": 8993,
      "Ġcer": 8994,
      "800": 8995,
      "eners": 8996,
      "Ġstrength": 8997,
      "chester": 8998,
      "ãĢ": 8999,
      "ryst": 9000,
      "INTER": 9001,
      "Ġdedicated": 9002,
      "agent": 9003,
      "thur": 9004,
      "phot": 9005,
      "indexOf": 9006,
      "ĠLittle": 9007,
      "%)": 9008,
      "Import": 9009,
      "Ġlabor": 9010,
      "ĠWindows": 9011,
      "ĠHospital": 9012,
      "ĠSom": 9013,
      "\\}$": 9014,
      "ĠSecurity": 9015,
      "ropy": 9016,
      "ĠRoute": 9017,
      "ading": 9018,
      "Ġdetect": 9019,
      "amer": 9020,
      "oir": 9021,
      "Ġvac": 9022,
      "avor": 9023,
      "fx": 9024,
      "Ġverify": 9025,
      "Ġintr": 9026,
      "Ġconcert": 9027,
      "enable": 9028,
      "OST": 9029,
      "feature": 9030,
      "edia": 9031,
      "Ġsport": 9032,
      "METH": 9033,
      "pattern": 9034,
      "Ġheaders": 9035,
      "kee": 9036,
      "essions": 9037,
      "amber": 9038,
      ".<": 9039,
      "Ġ..": 9040,
      "cuss": 9041,
      "Ġextrem": 9042,
      "ACT": 9043,
      "ĠColumbia": 9044,
      "Attr": 9045,
      "Ġimag": 9046,
      "ederation": 9047,
      "arrier": 9048,
      "Ġcontroller": 9049,
      "Ġdescent": 9050,
      "Ġidentify": 9051,
      "Ġready": 9052,
      "ori": 9053,
      "ulpt": 9054,
      "Ã¡n": 9055,
      "1954": 9056,
      "Ġpal": 9057,
      "ĠallClasses": 9058,
      "ĠResource": 9059,
      "ĠConf": 9060,
      "PROJECT": 9061,
      "PU": 9062,
      "ĠLink": 9063,
      "Ã¸": 9064,
      "('#": 9065,
      "fully": 9066,
      "uv": 9067,
      "ĠallClassesLink": 9068,
      "Ġtemp": 9069,
      "ĠAlb": 9070,
      "Ġexperiments": 9071,
      "Ġmarriage": 9072,
      "Ġspan": 9073,
      "fd": 9074,
      "ĠDaniel": 9075,
      "Ġfans": 9076,
      "ĠFour": 9077,
      "ateway": 9078,
      "video": 9079,
      "amin": 9080,
      "Ġreasons": 9081,
      "Music": 9082,
      "Ġpurs": 9083,
      "ĠJon": 9084,
      "}}_{": 9085,
      "ĠjQuery": 9086,
      "ĠJes": 9087,
      "resources": 9088,
      "Ġpropos": 9089,
      "Ġroles": 9090,
      "Ġfellow": 9091,
      "tar": 9092,
      "Ġexpressed": 9093,
      "ĠHttp": 9094,
      "Ġdamage": 9095,
      "Ġinterval": 9096,
      "Ġnearby": 9097,
      "Ġlocations": 9098,
      "Make": 9099,
      "ĠScottish": 9100,
      "EEEE": 9101,
      "ifdef": 9102,
      "Ġearned": 9103,
      "Ġadministration": 9104,
      "Ġexecutive": 9105,
      "ĠJean": 9106,
      "ntario": 9107,
      "Ġassociation": 9108,
      "Ġsph": 9109,
      "URI": 9110,
      "Ġenv": 9111,
      "iance": 9112,
      "Ġhockey": 9113,
      "Email": 9114,
      "Ġbillion": 9115,
      "ups": 9116,
      "ĠStation": 9117,
      "uality": 9118,
      "ĠJeff": 9119,
      "Ġdog": 9120,
      "Ġvon": 9121,
      "Texture": 9122,
      "ĠHong": 9123,
      "cknow": 9124,
      "VM": 9125,
      "åĪ": 9126,
      "Ġyouth": 9127,
      "ĠSi": 9128,
      "rovers": 9129,
      "Ġtechniques": 9130,
      "hl": 9131,
      "limits": 9132,
      "HTTP": 9133,
      "Ġflux": 9134,
      "/_": 9135,
      "notes": 9136,
      "ĠConserv": 9137,
      "Ġfine": 9138,
      "Ġkept": 9139,
      "HS": 9140,
      "Ġzone": 9141,
      "']['": 9142,
      "Wallet": 9143,
      "1953": 9144,
      "Ġautomatically": 9145,
      "Ġforeach": 9146,
      "Ġhouses": 9147,
      "proxy": 9148,
      "Ġnp": 9149,
      "Ġloaded": 9150,
      "ĠMicrosoft": 9151,
      "Ġfort": 9152,
      "Ġil": 9153,
      "Ġpand": 9154,
      "Ġven": 9155,
      "but": 9156,
      "ĠRepublican": 9157,
      "Visible": 9158,
      "usters": 9159,
      "ĠFire": 9160,
      "Ġconnections": 9161,
      "British": 9162,
      "Ġsust": 9163,
      "hetic": 9164,
      "Ġpolynomial": 9165,
      "Miss": 9166,
      "pective": 9167,
      "Ġmotor": 9168,
      "Ġspirit": 9169,
      "Ġvalign": 9170,
      "ĠPhys": 9171,
      "hard": 9172,
      "world": 9173,
      "Ġflex": 9174,
      "amps": 9175,
      "zy": 9176,
      "aling": 9177,
      "Ġtranslation": 9178,
      "Ġprimarily": 9179,
      "ometric": 9180,
      "ĠPlaces": 9181,
      "about": 9182,
      "ĠEst": 9183,
      "anth": 9184,
      "Ġregistered": 9185,
      "Ġhydro": 9186,
      "Multi": 9187,
      "ĠBad": 9188,
      "apos": 9189,
      "Ġisol": 9190,
      "Resources": 9191,
      "cert": 9192,
      "Theta": 9193,
      "POST": 9194,
      "Returns": 9195,
      "Tra": 9196,
      "dy": 9197,
      "ĠSciences": 9198,
      "alyt": 9199,
      "ĠCirc": 9200,
      "ĠTw": 9201,
      "ydney": 9202,
      "innes": 9203,
      "Conn": 9204,
      "à¥": 9205,
      "bc": 9206,
      "Ġdetection": 9207,
      "ellar": 9208,
      "athan": 9209,
      "Ġassumed": 9210,
      "gorithms": 9211,
      "1949": 9212,
      "Language": 9213,
      "Ġple": 9214,
      "Ġnotes": 9215,
      "ĠFederal": 9216,
      "Ġdivided": 9217,
      "Ġparticles": 9218,
      "vc": 9219,
      "Ġstored": 9220,
      "USE": 9221,
      "checkbox": 9222,
      "ĠAmazon": 9223,
      "ĠLy": 9224,
      "\"\"\"": 9225,
      "ĠTrump": 9226,
      "ĠArrayList": 9227,
      "RPC": 9228,
      "Ġsqu": 9229,
      "clone": 9230,
      "Serv": 9231,
      "RC": 9232,
      "Ġdetailed": 9233,
      "Fin": 9234,
      "phia": 9235,
      "ĠMake": 9236,
      "loor": 9237,
      "Ġattacks": 9238,
      "ĠMir": 9239,
      "groups": 9240,
      "gest": 9241,
      "itical": 9242,
      "python": 9243,
      "RS": 9244,
      "ĠKorea": 9245,
      "Ġattend": 9246,
      "moz": 9247,
      "Ġeigen": 9248,
      "issues": 9249,
      "Ġtransparent": 9250,
      "ĠAS": 9251,
      "plications": 9252,
      "Ġlett": 9253,
      "Ġcancel": 9254,
      "IA": 9255,
      "Ġarrived": 9256,
      "flex": 9257,
      "Ġpod": 9258,
      "ĠBrook": 9259,
      "Ġparser": 9260,
      "\\'": 9261,
      "ependence": 9262,
      "Ġdisabled": 9263,
      "poss": 9264,
      "ĠArea": 9265,
      "Ġprocedure": 9266,
      "two": 9267,
      "zabeth": 9268,
      "warning": 9269,
      "ĠAz": 9270,
      "ï»": 9271,
      "Ġadjust": 9272,
      "SCR": 9273,
      "adesh": 9274,
      "ĠLim": 9275,
      "Ġsupports": 9276,
      "multi": 9277,
      "Ġachieved": 9278,
      "Interval": 9279,
      "1951": 9280,
      "Ġepisodes": 9281,
      "Ġacademic": 9282,
      "Bean": 9283,
      "(@": 9284,
      "Ġcycle": 9285,
      "async": 9286,
      "IGHT": 9287,
      "PH": 9288,
      "Ġpul": 9289,
      "ĠJustice": 9290,
      "Leg": 9291,
      "ĠDub": 9292,
      "Ã¢": 9293,
      "antry": 9294,
      "Ġanimation": 9295,
      ",'": 9296,
      "Ġbaseball": 9297,
      "Ġstrugg": 9298,
      "Ġindicate": 9299,
      "Ġclassification": 9300,
      "ĠCreek": 9301,
      "Ġstreet": 9302,
      "REQ": 9303,
      "Ġcamera": 9304,
      "Ġequipment": 9305,
      "ĠDar": 9306,
      "ĠBal": 9307,
      "West": 9308,
      "Ġconference": 9309,
      "Ġawards": 9310,
      "~$": 9311,
      "ĠExample": 9312,
      "ĠSa": 9313,
      "Ġmunicipality": 9314,
      "minus": 9315,
      "roduction": 9316,
      "Ġ\\;": 9317,
      "Ġtsd": 9318,
      "Ġcontinues": 9319,
      "Ġtmp": 9320,
      "orders": 9321,
      "DEFAULT": 9322,
      "np": 9323,
      "Prop": 9324,
      "Ġedges": 9325,
      "ĠBerlin": 9326,
      "innesota": 9327,
      "ĠPolish": 9328,
      "Ġflight": 9329,
      "Ġsections": 9330,
      "Ġcult": 9331,
      "Ġtimeout": 9332,
      "Ġdocumentation": 9333,
      "OB": 9334,
      "adelphia": 9335,
      "Ġscatter": 9336,
      "^^": 9337,
      "assandra": 9338,
      "Ġpet": 9339,
      "simple": 9340,
      "ĠNAV": 9341,
      "ĠAsh": 9342,
      "estic": 9343,
      "otted": 9344,
      "ĠRequest": 9345,
      "footnote": 9346,
      "Ġskip": 9347,
      "aught": 9348,
      "bec": 9349,
      "ï»¿": 9350,
      "Ġbeat": 9351,
      "ĠWalk": 9352,
      "ĠSupport": 9353,
      "ÏĦ": 9354,
      "ndef": 9355,
      "icted": 9356,
      "fol": 9357,
      "ogen": 9358,
      "initions": 9359,
      "lipse": 9360,
      "Ġpropag": 9361,
      "LL": 9362,
      "Elements": 9363,
      "Ġtroops": 9364,
      "Ġarbitrary": 9365,
      "ĠDesign": 9366,
      "Ġopportunity": 9367,
      "Ġcalculated": 9368,
      "Ġanswer": 9369,
      "Ġdiagram": 9370,
      "\"],": 9371,
      "testing": 9372,
      "}^{-": 9373,
      "Ġvehicle": 9374,
      "Spe": 9375,
      "ĠLater": 9376,
      "Ġok": 9377,
      "Ġmd": 9378,
      ")|": 9379,
      "Ġclaims": 9380,
      "ĠKenn": 9381,
      "kes": 9382,
      "Ġextr": 9383,
      "ĠBa": 9384,
      "ĠASSERT": 9385,
      "ĠAlexander": 9386,
      "Ġtranslate": 9387,
      "Ġshop": 9388,
      "complete": 9389,
      "Math": 9390,
      "Ġrise": 9391,
      "Delegate": 9392,
      "Ġprogramming": 9393,
      "acks": 9394,
      "Ġeastern": 9395,
      "Ġcars": 9396,
      "expr": 9397,
      "ĠViet": 9398,
      "ĠBelg": 9399,
      "brief": 9400,
      "()))": 9401,
      "ĠVictoria": 9402,
      "Ġpartition": 9403,
      "Ġcontributions": 9404,
      "Are": 9405,
      "holds": 9406,
      "ologist": 9407,
      "download": 9408,
      "sidebar": 9409,
      "Ġinstrument": 9410,
      "ĠReal": 9411,
      "ĠTH": 9412,
      "aga": 9413,
      "transition": 9414,
      "Ġpaid": 9415,
      "ĠGar": 9416,
      "Ġfifth": 9417,
      "Dictionary": 9418,
      "ropol": 9419,
      "ĠWhe": 9420,
      "ĸº": 9421,
      "pler": 9422,
      "Ġmobile": 9423,
      "Ġult": 9424,
      "Ġenum": 9425,
      "iful": 9426,
      "ando": 9427,
      "Ġpolar": 9428,
      "Ang": 9429,
      "Ġsuggested": 9430,
      "zech": 9431,
      "University": 9432,
      "ĠMember": 9433,
      "attice": 9434,
      "Ġdeclared": 9435,
      "Methods": 9436,
      "words": 9437,
      "ä»": 9438,
      "helper": 9439,
      "ĠPakistan": 9440,
      "ĠSunday": 9441,
      "asi": 9442,
      "ĠSpring": 9443,
      "nob": 9444,
      "Ġadopted": 9445,
      "101": 9446,
      "structions": 9447,
      "istence": 9448,
      "PER": 9449,
      "METHOD": 9450,
      "EEEEFF": 9451,
      "ĠAli": 9452,
      "Ġtried": 9453,
      "zip": 9454,
      "diff": 9455,
      "kens": 9456,
      "plot": 9457,
      "Ġaccuracy": 9458,
      "ÛĮ": 9459,
      "Ġalongside": 9460,
      "Ġleadership": 9461,
      "Ġrecip": 9462,
      "IVE": 9463,
      "ĠCorps": 9464,
      "ĠAndroid": 9465,
      "Ġdecom": 9466,
      "extension": 9467,
      "Dev": 9468,
      "Wil": 9469,
      "CG": 9470,
      "Ġparallel": 9471,
      "ĠReport": 9472,
      "Ġnewly": 9473,
      "International": 9474,
      "Association": 9475,
      "plan": 9476,
      "Ġunderstanding": 9477,
      "ĠSign": 9478,
      "ĠMedical": 9479,
      "TRUE": 9480,
      "Ġfru": 9481,
      "1936": 9482,
      "Pe": 9483,
      "Ġdaily": 9484,
      "Ġimplemented": 9485,
      "Ġfacilities": 9486,
      "Mer": 9487,
      "ĠMuslim": 9488,
      "ĠThree": 9489,
      "ĠSem": 9490,
      "ĠMike": 9491,
      "Ġspl": 9492,
      "plates": 9493,
      "Ġhonor": 9494,
      "Ġancient": 9495,
      "ĠRail": 9496,
      "ewidth": 9497,
      "ĠCEL": 9498,
      "ĠLOG": 9499,
      "RES": 9500,
      "Ã©e": 9501,
      "Ġlabels": 9502,
      "Flag": 9503,
      "atern": 9504,
      "ummy": 9505,
      "Ġusage": 9506,
      "rim": 9507,
      "expect": 9508,
      "ĠCollection": 9509,
      "Ġwind": 9510,
      "onical": 9511,
      "ĠTaylor": 9512,
      "Ġofficials": 9513,
      "Ġtwice": 9514,
      "Ġvary": 9515,
      "'];": 9516,
      "/\"": 9517,
      "Ġdocuments": 9518,
      "Ġreviews": 9519,
      "unte": 9520,
      "Children": 9521,
      "aki": 9522,
      "Ġrows": 9523,
      "IDTH": 9524,
      "Vertex": 9525,
      "bat": 9526,
      "signature": 9527,
      "Ġpoly": 9528,
      "Austral": 9529,
      "Ġacting": 9530,
      "anz": 9531,
      "Animation": 9532,
      "Ġstable": 9533,
      "DEBUG": 9534,
      "trace": 9535,
      "Ġprovince": 9536,
[...]
