#version: 0.2
Ġ Ġ
Ġ t
i n
h e
Ġ a
e r
ĠĠ ĠĠ
o n
r e
a t
Ġt he
e n
o r
s t
a n
a l
a r
i t
e d
Ġ o
Ġ c
Ġ s
e s
Ġ w
i s
i on
Ġ f
Ġ in
Ġo f
n d
i c
Ġ p
l e
in g
Ġ b
r o
a s
Ġa nd
ĠĠ Ġ
Ġ d
ĠĠĠĠ ĠĠĠĠ
Ġ m
c t
en t
o u
e t
Ġt o
a m
e l
i l
Ġ S
Ġ re
o m
Ġ (
Ġ C
Ġ h
o l
Ġ T
Ġ A
Ġ n
i g
a c
u r
at ion
i d
Ġ l
Ġt h
i m
Ġ e
a d
o t
i v
Ġ M
u t
Ġ \
s e
Ġ $
Ġ is
u l
Ġ B
Ġf or
u n
c e
Ġ P
c h
a y
Ġ I
er s
e m
Ġ g
Ġ =
o w
ĠĠĠĠ ĠĠĠ
1 9
a g
o d
u s
i r
i st
2 0
i f
u m
Ġ on
l y
Ġ st
t h
Ġ H
Ġ v
Ġ R
a b
it h
ĉ ĉ
Ġb e
Ġa s
t er
Ġ D
p e
Ġw as
Ġ F
Ġ L
Ġ {
at e
q u
r a
an d
Ġc on
) ;
ĠT he
Ġ G
Ġ N
o c
Ġw ith
v er
r i
ct ion
he r
o p
Ġa l
Ġ W
Ġb y
Ġ E
ro m
re s
Ġth at
en d
e st
Ġ "
â Ģ
e x
Ġa n
p t
e f
Ġ *
o s
h t
u b
e w
- -
u p
a v
Ġa t
Ġp ro
Ġ Ċ
or t
am e
Ġ J
Ġ <
a in
it y
{ \
al l
ar t
/ /
ĠĠĠĠĠĠĠĠ ĠĠĠ
Ġw h
č Ċ
u e
a p
as s
Ġc om
es s
Ġ O
n t
= "
Ġf rom
at h
i es
e g
o re
' s
b er
in e
Ġe x
Ġ it
Ġ }
e c
r an
m ent
ou r
il l
Ġ he
Ġ or
e ct
p l
u d
i an
ig ht
a k
i al
Ġ U
u re
g e
o g
ag e
Ġ K
iv e
ac k
Ġa re
Ġ r
p h
_ {
ar y
i z
ur n
ar d
i a
< /
l d
âĢ ĵ
at ed
i p
Ġc l
Ġ &
ul t
o v
e p
a st
an t
c l
ic h
ĠS t
T he
) ,
Ġth is
0 0
20 1
Ġc h
u nd
p er
Ġp l
p ort
el l
ex t
ĠĠĠĠ Ġ
Ġ$ \
ĠĠĠĠĠĠĠĠ ĠĠĠĠĠĠĠĠ
ĠI n
in t
ig n
Ġs e
* *
on g
u st
i re
u g
or d
or m
f f
a re
t urn
Ġ |
ion s
Ġ V
it e
ic al
20 0
I n
Ġs h
m ath
ab le
Ġ k
Ġh is
o st
Ġ le
) .
re f
e v
Ġ y
en c
Ġcom p
Ġ -
ac e
y pe
s o
on t
Ġw e
Ġ '
Ġ if
is h
= =
u c
Ġn ot
ĠC h
r ing
1 8
or k
Ġre s
e y
as e
r y
Ġwh ich
f t
im e
o k
in d
er e
S t
i le
it ion
en s
ou t
" >
od e
er v
m er
e ar
Ġcon t
id e
Ġa r
av e
( )
ic e
p ro
ation s
Ġin t
un ction
} \
-- --
an g
il d
Ġ un
i b
Ġ| |
} $
a ct
ub l
^ {
ou nt
g et
r ic
on d
r u
m a
t her
or y
at a
en ce
Ġw he
Ġw ere
Ġal so
j ect
Ġ us
Ġre turn
ir st
ou s
ac h
c om
l ow
r it
Ġa p
Ġh as
Ġ j
ĠĠĠĠĠĠĠĠ ĠĠĠĠĠĠĠ
Ġa d
s p
ow n
o b
Ġcl ass
. .
er t
ter n
f orm
Ġd e
Ġ //
l i
ĠU n
he d
al ue
ran s
ĠT h
ro w
ou nd
res s
ent s
Ġn ew
re e
an ce
en er
} }
Ġc an
am p
k s
c c
t a
ĠH e
er m
o ver
u se
Ġ +
19 9
at es
Ġh ave
ri b
ou ld
Ġ im
Ġpl ay
c al
cl ud
ubl ic
" ,
w o
l l
( \
Ġa b
ol d
or s
Ġp art
E x
Ġ @
f er
ar am
Ġf irst
o ol
n g
Ġ Y
in al
t e
Ġ ro
Ġf unction
oc k
Ġ âĢĵ
eg in
1 0
u al
i el
ĠI t
ĉĉ ĉĉ
e qu
f ter
ation al
Ġon e
a il
b egin
enc es
w e
- >
pt ion
s s
Ġh ad
Ġt r
at er
ar k
Ġd is
on e
le ct
om e
or n
Ġv ar
em ber
ul l
Ġb ut
s h
Ġit s
o se
c on
iel d
f r
r ight
_ {\
Ġs c
Ġd ef
Ġt e
r ay
Ġthe ir
) $
} ,
Ġal l
l and
i o
iz e
t he
ĠA r
pe c
: :
R ef
Ġs p
i k
en g
le ment
s et
Ġ /
el y
Ġ [
ab el
i x
l es
f ig
Ġe v
el f
ic s
Ġo b
Ġo ut
Ġt wo
o int
re d
i ed
is s
a w
Ġs et
an y
mer ic
Ġd es
u ch
i e
Ġp er
o ot
y st
n e
} {
Ġwh o
it ed
t ext
p ut
ro up
s c
Ġo ther
19 8
Ġ up
Ġa g
Ref er
et h
Ġ* /
Ġc ol
op le
er r
Ġ qu
p s
ig h
Ġm od
c ent
Ġo ver
pe ct
on s
ing s
Ġin d
Ġ her
Ġn ame
Ġ .
l o
' ,
as ed
( );
il m
er y
Ġ :
um ber
Refer ences
am es
our ce
Ġw ork
fr ac
ic t
1 2
yst em
( "
Ġin clud
p r
er n
Ġp r
Ġbe en
Ġas s
Ġy ear
ad e
Ġcon st
1 6
iv ers
c ess
m b
Ġcom m
w ard
Ġ< /
i ew
Ġ und
ak e
meric an
o ok
e q
Ġt ime
an n
e ople
a x
ro und
t t
ul ar
1 7
ic k
c he
r m
th is
d u
Ġp ublic
Ġm e
r am
e b
ra ph
ur ing
Ġin ter
ĠC om
ĠN ew
at ive
o y
19 7
---- ----
t y
ar g
ol low
le t
l abel
Ġfor m
rib ut
t o
t r
b all
l ine
al s
1 5
Ġp re
an s
Ġs ub
ug h
** **
le ft
Ġre g
re n
at or
Ġa fter
Ġl oc
Ġre c
Ġint o
p os
if ic
Ġof f
P ro
ĉĉ ĉ
c ol
Ġ _
ĠA l
am b
math b
ou g
Ġd o
ĠM ar
Ġwhe n
t on
ru ct
) )
r al
in ed
== ==
et a
e e
Ġthe y
Ġs up
Ġat t
o f
c ite
Ġb et
res ent
ch ool
Ġm ore
Ġon ly
Ġa ct
an c
( '
tern al
Ġl in
ist s
o id
Ġres ult
in ce
is hed
ĠĠĠĠĠĠĠĠ ĠĠĠĠĠĠĠĠĠĠĠ
p aram
Ġw ill
Ġwhe re
Ġcon s
$ .
ĠTh is
ab l
ol og
Ġb u
t s
$ ,
ov e
is ion
w ay
o x
i ous
Ġ end
Ġt rans
ĠĠĠĠĠĠĠĠ Ġ
Ġf ollow
19 6
im es
d er
at ing
in s
Ġs erv
v ar
, \
re turn
id ent
w n
Ġs ec
le ction
n c
ot h
Ġp ol
Ġund er
we en
equ ation
Ġc o
i ent
at ch
Ġf ilm
} )
ire ct
or ld
ar s
Ġs o
Ġre l
m l
e ver
Ġd ist
Ġs pec
ou th
it ies
is e
d ef
.. /
E R
ĠP ro
it s
math cal
Ġad d
N ame
d uc
Ġs he
Ġp os
at t
at ic
Ġthe n
o h
} .
o od
u es
Ġc all
Ġus ed
eth od
2 1
ur y
as h
Ġv alue
Ġ i
Ġ en
Ġ Z
ĠS h
c k
il y
C h
Ġin st
as on
Ġk n
1 4
g an
Ġd ec
el s
Ġs uch
ivers ity
1 3
Ġp eople
Ġg et
Ġbe c
a h
Ġbet ween
Ġo p
ess age
ap p
p on
} (
âĢ Ļ
ĠA merican
Ġpro v
Ġd ata
h ip
i er
u res
Ġ âĢ
ĠS e
T ype
Ġw ould
m an
y s
d a
Ġ !
Ġthe re
re nt
Ġ el
oc i
Ġre m
Ġth an
Ġe st
v ent
a ir
I N
Ġa cc
Ġg ener
at ure
c re
Ġd if
a z
or th
ph a
s on
em ent
} ^
Ġp h
Ġn umber
ro ugh
19 4
Ġt ype
Ġ Q
} _
1 1
ĠC ol
y le
al e
n ame
s um
Ġst ud
2 5
Ġa c
19 5
~ \
sp an
Ã ©
Ġl ine
C on
al se
Ġs ome
ĠL e
A r
id th
C om
Ġab out
id er
Ġ #
ĠI nd
in n
Ġc re
Ġn o
Ġc ent
Ġan y
d iv
Ġ use
O N
Ġs er
Ġf e
Ġm an
ou se
ion al
Ġ ent
Ġn e
Ġf ound
Â ł
Ġc ur
in k
C ont
Ġsh ow
T h
al pha
t ype
r ad
ar n
s ub
eng th
Ġt ra
St ring
m in
ĠC l
Ġ err
m p
Ġre qu
a ult
iz ed
ĠUn ited
Ġ ed
Ġm ost
oot ball
oug h
2 2
il ity
b ack
Ġd ev
if e
ow er
v e
Ġex t
Ġag ain
a j
c ont
Ġb l
e ad
iv er
Ġy ou
C l
ĠA n
Ġh im
ac he
Ġo per
us s
3 0
> </
Ġch ar
ĠA s
ib le
o o
Ġthe m
ric t
el ta
r on
ĠUn iversity
Ġs im
is m
ag es
ra ct
um ent
v al
it t
le v
Ġs ing
ut h
Ġth rough
ers ion
y n
Ġm ay
Ġd uring
Ġb ack
Ġte am
d d
as k
S T
R es
amb da
Ġsec ond
u le
Ġlin ks
Ġv al
Ġg roup
$ \
) \
le m
Ġyear s
ĠD e
ĠC on
im port
Ġth ree
I d
Ġ `
ĠF or
ut e
ut ion
al ly
ri pt
R E
Ġs ystem
Ex ternal
he n
over n
ire d
b ar
k e
in es
ce ption
r id
re ad
iv ing
ad d
Ġst ate
b y
ĠS c
Ġs elf
. "
Ġplay ers
Ġin v
Ġs ign
el op
Ġf l
Ġ x
Ġd ep
Ġe ach
et er
Ġdif fer
. _
us ic
00 0
Ġp oint
Ġre p
o ber
t en
ar ch
in a
Ġ ra
Ġw ell
y p
Ġex p
Ġc ase
pl ic
ist er
Ġf am
Ġf inal
am ma
iv ed
Ġe qu
Ġm in
iv en
ar ly
ist ory
um n
t il
A T
ĠE ng
y m
Ġd irect
ĠS p
al ign
u ff
Ġd et
Ġar t
Ġs m
Ġ >
cl ass
ic es
ot her
ot s
ot e
L ist
Ġwh ile
m u
_ \
> <
an ge
Ġ )
" .
f ore
oh n
ers on
Ġdes c
Ġc or
ot t
es c
b um
p le
a use
Ġm ade
Ġf ield
re at
Ġw rit
Ġs ame
Ġ X
ĠSt ates
Ġa m
Ġ= =
Ġre le
ay s
b ers
Ġthe se
Ġst art
en n
le y
3 2
ro p
Ġn ull
Ġp op
A R
h o
f or
ment s
Ġs ur
f l
Ġtr ue
Ġb oth
ig ma
at her
Ġc ount
Ġm on
Ġl ist
= \
it em
Ġbe ing
p i
ow ever
2 4
Ġ\ \
../ ../
eg a
ag ue
Ġt est
Ġe ff
et s
ĠS he
Ġle ad
ur al
ht ml
Ġm ed
iz ation
Ġg o
Ġst ring
O b
mathb b
} _{
iv ate
Ġl ater
port s
t d
iv es
amp le
Ġh igh
are d
} ^{
ĠI s
Ġrec ord
it le
) :
st ring
m od
op t
ĠC ount
r r
ĠW e
Ġkn own
og raph
Ġfollow ing
Ġbe fore
t rans
ik e
Ġ ran
ain ed
Ġv oid
Ġf ootball
Ġb ir
Ġper form
Ġ& &
ction s
Ġse ason
ĠO n
Ġr un
c es
Ġel se
un e
ain s
re m
ĠE x
om en
h at
s elf
g y
E N
th s
if ied
s erv
un c
ical ly
Ġl ong
s y
ce pt
_ _
b l
- \
O n
I D
ul ation
ĠCom m
ro ss
ph i
w ork
^ {\
: //
Ġf our
k ey
Ġm ain
ou nc
v iew
Ġap pe
" )
Ġor ig
Ġm em
per ty
Ġ{ \
Ġf alse
od y
Ġal bum
ĠF ran
ir c
2 3
Ġbu ild
Ġpart ic
O R
ĠĠĠĠĠĠĠĠĠĠĠĠĠĠĠĠ ĠĠĠĠĠĠĠĠĠĠĠĠĠĠĠĠ
a u
Ġser ies
l er
Ġe m
U n
Ġb ro
Ġm ov
Ġob ject
f ul
Ġap pro
g er
Ġh ref
v alue
a pt
m y
I t
Ġst r
T o
g ram
iss ion
it ions
l ambda
Ġus ing
Ġm any
se ction
ĠJ an
l ation
are nt
Ġs chool
ĠW orld
ĠJ ohn
am ed
Ġn on
ar ri
p art
A L
a i
5 0
olog y
C ol
re t
ĠP h
Ġinclud ing
ĠM ay
c ode
Ġm ethod
Ġest abl
Ġor der
] ;
ĠP l
d ata
re am
a id
s ource
ĠN ational
b f
c o
Ġt erm
f o
S S
Ġdev elop
Ġap p
19 3
L E
**** ****
Ġs ol
D ata
Ġo pt
m essage
V alue
Ġm at
ar ray
u ro
ĠA ust
Ġagain st
a f
s er
Ġmod el
Ġbec ame
Ġ= >
or g
g round
Ġdiffer ent
o ad
Ġo wn
ĠB l
Ġpro b
v el
Ġd r
tern ational
an k
Ġg iven
m ed
Ġk ey
ar get
ur ch
Ġpro du
qu e
st r
# #
ĠĠĠĠ ĠĠ
-------- --------
ĠC an
i or
ac es
ro l
Ġ/ **
f unction
Ġf in
I nd
l ed
ual ly
ro ll
ĠB rit
r and
re g
pl ay
Ġcont in
at us
lect ed
Ġev ent
) );
ĠC ar
Ġo ur
ĠW ar
mathb f
i um
ĠCount y
Ġ z
ra p
==== ====
Ġcur rent
al ity
ĠP r
ĠY ork
ĠJ ul
enc y
Ġg u
col or
re qu
Ġb el
il on
Ġdis c
ĠS chool
i am
ĠO r
se c
// //
ar ge
as es
Ġsup port
1 00
Ġs ince
ian s
Ġop en
p ed
| -
f ace
Ġp ass
n ot
Ġm et
ak ing
u ild
" /
u i
if y
Ġcall ed
ht t
ial ly
uc cess
pon se
b eta
u ary
duc ed
Ġs ong
our n
ĠG erm
he re
Ġre ce
ang u
ĠN ov
s igma
r ist
ĠS outh
Ġp aram
Ġun til
Ġc are
Ġh and
201 0
en se
2 7
s k
2 6
Ġsm all
an e
2 8
ĠĠĠĠĠĠĠĠĠĠĠĠĠĠĠĠ ĠĠĠĠĠĠĠ
Ġar g
w idth
m ary
E rr
us h
Ġde ath
ant s
] ,
ep s
le x
Ġfam ily
Ġe ver
iv ely
ug ust
Ġch ild
n er
Ġse ver
amp ions
S et
Ġg overn
Ġcons ider
Ġst ruct
ĠW est
p or
Ob ject
Ġr ight
it er
t est
Ġdes ign
" );
\ \
ra w
in ter
n ew
f ield
it al
Ġ( \
pt ember
Ġ ,
Ġhe ad
Ġloc al
' )
in c
Ġ! =
il t
l oc
ver t
Ġp ar
Ġb ased
Ġe lement
ch n
c d
Ġchar act
d ate
Ġdesc rib
^{ -
Ġpol it
f ile
iv al
b orn
ild e
ĠP ar
re en
ward s
} {\
ct ober
ĠA d
Ġrep resent
Ġn ow
form ation
ord er
at s
Ġp res
ĠG e
"/ >
Ġf act
in clud
id ed
a e
l og
ir d
ĠC ent
Ġto p
Ġsh ould
. ,
A l
ĠT e
os s
} ;
m e
p ar
o ard
aj or
ĠA t
I T
m ber
er ing
t ime
Ġm usic
( $
4 0
F or
ch i
oc ument
ĠA ugust
W e
Ġre fer
Ġc he
ĠMar ch
Ġre f
Ġare a
Ġre ad
ar m
r is
Ġl ast
l ish
f ess
Ġan n
2 9
ist or
ep end
in ing
ĠSe ptember
ect ed
d is
Ġim p
o ff
Ġle ft
Ġp resent
ind ow
A n
le an
et work
ĠP ol
Ġg ame
* }
ĠR eg
201 4
' );
ĠA ss
pr il
um er
qu ad
Ġin it
et y
om an
201 1
Ġne ed
t ing
Ġpro cess
S h
Ġc ould
ĠM an
ĠJan uary
end ed
re ak
ĠâĢ Ķ
201 6
201 2
201 5
S E
g amma
ĠO ctober
K ey
p x
Ġorig inal
v en
le ge
con st
Ġpr ivate
Ġre t
ĠĠĠĠĠĠĠĠ ĠĠĠĠĠ
am ent
uth or
s ide
Ġoff ic
v ious
H e
i ence
che s
av a
le g
6 4
ce mber
ect or
is ed
+ \
a pe
her n
Ġal low
201 3
ar row
ĠJ une
ĠA ll
Ġplay ed
B y
Ġsever al
200 8
Ġcomm un
C T
et ers
Ġl ife
l ing
Ġor gan
Ġt em
Ġo cc
201 8
s ize
Ġa v
ĠJul y
id d
e k
^ \
ĠAust ral
Ġfor mer
b ut
Ex ception
Ġsing le
20 19
Ġrele ased
Ġpro gram
ri x
D E
fig ure
201 7
Ġbec ause
Ġeff ect
M od
200 9
u k
math rm
um e
Ġn ear
r ho
Ġw on
Err or
"> <
l ength
S ee
d elta
en e
ĠA pril
Ġbir ths
ĠN orth
r ite
uc k
Ġbe com
Ġ %
Ġre st
T est
Ġp rom
ĠR ep
he ad
ĠC al
.. .
ĠI I
ĠG u
Ġim port
Ġl arge
] {
ĠNov ember
19 0
ĠE uro
ore d
ag er
id es
ol v
' t
ag n
ur g
Ġ id
ĠBrit ish
E lement
cent ury
ĠI f
ord s
200 7
Ġal ong
ĠLe ague
ĠC ity
A N
m s
ĠT r
âĢ Ŀ
ampions hip
Ġl ike
r ation
ĠDe cember
ĠW h
Ġj ust
ĠR es
end s
200 6
mb ol
ĠR e
G et
un g
Ġb ook
) }
Cl ass
u ed
ĠSt ate
Ġd id
sum mary
Ġp ubl
le q
A s
Ġm ult
Ġs ize
Ġd ue
angu age
ograph y
o le
l ob
ĠĠ Ċ
ta u
Ġpl ace
ac ed
the ta
ur ther
Ġcon d
/ **
ĠA nd
Ġe arly
Ġerr or
il es
Ġt itle
Ġ= ==
Ġm ake
eb ru
Ġex per
Ġhe l
Ġresult s
ap an
od es
it or
ebru ary
d e
il it
20 20
c ur
g le
com m
lo ad
Ġst atic
p p
$ -
Ġ: =
Ġf r
ri ption
at ely
al th
i od
al es
b ig
Ġ// /
b s
ain t
ab ility
ition al
le te
ĠE d
Ġv is
w w
ĠCan ad
ĠB e
Ġin cre
o pe
ĠW ill
a ction
b e
Ġpos s
Ġc ity
P l
Ġ u
Ġs uccess
Ġwith in
in ess
ĠThe y
N ot
Ġever y
ĠA f
ĠK ing
Ġ/ *
Ġr ad
Ġo ld
av ing
S e
Ġfilm s
Ã ¡
20 00
lev ision
Ġdo es
h am
trans lation
p re
ak es
Ġst yle
Ġ --
Ġl aw
p ond
Ġst and
t imes
Ġvar i
Ġb and
N ode
n ess
b r
he s
( ).
ĠH owever
i j
}$ ,
ast er
ĠSt ring
z e
}$ .
Ġt yp
erv ice
c a
ri es
R e
18 9
ren ch
p m
Ġf ind
6 0
ĉĉĉĉ ĉ
Ġa round
on y
Ġ eng
Ġex pect
A merican
in ation
() );
al y
ress ion
ĠEuro pe
ord ing
T r
A M
Ġar ray
Ġs l
n u
ent ial
b le
Ġl im
Ġv ery
Ġmem bers
Th is
} (\
Ġ ?
ĠF ebruary
part ial
se e
Ġd own
Ġgener al
Ġ} ,
Ġcare er
ĠU S
3 3
pro t
Ġcomp et
8 0
Ġto wn
Ġn amed
P h
Ġa ut
ific ation
es e
op y
ind ex
if t
A C
a im
is on
ol ution
ut il
Ġs aid
] .
st er
l ist
Ġm ember
Ġn ext
om et
il ter
Ġl and
ur ation
ĠM in
Ġw orld
Ġw omen
at ors
m et
er ed
Ġev en
g o
200 5
t able
Ġ );
ĠĠĠĠĠĠĠĠ ĠĠĠĠ
sp ace
S c
t op
I m
Ġp ower
ĠP art
d ay
Ġse e
ribut e
ra ft
C O
D ef
st it
per t
eq ref
Ġv ersion
Ġth ose
Ġinclud e
it ive
Ġp ost
P I
Ind ex
om ega
em pt
Ġm ark
an a
Ġor g
Ġob serv
in o
Ġb ound
l or
a us
U L
ĠA fter
l ess
Ġp erson
ens ion
p ace
Ġc ap
anc es
i us
ide o
Ġ( )
Ġob t
Ġto t
Ġbe gan
Ġ ident
Ġgovern ment
ĠC o
Ġcl ub
Ġd i
" :
ĠS w
Ġm ajor
ĠD ist
Ġsh ort
cal e
ur l
al k
Ġal ign
E vent
us iness
Ġt ext
Ġe lect
Ġcharact er
ĠB ar
Ġl arg
Q u
/ *
le ar
Ġwh at
Ġp o
ĠCh rist
pos ition
R equ
I nt
Ġhe ld
r c
Ġestabl ished
Ġf ile
Ġle g
ou n
ribut ion
our ces
Ġv ill
Ġd iv
ĠEng lish
Ġloc ated
il ar
Ar ray
T ime
er o
w h
eq n
W ith
ad em
Ġval ues
Ġad v
ĠH ar
p ath
Ġpre vious
ĠA b
g or
def ine
200 4
Ġpro ject
Ġh ome
Ġcomp let
( ),
ft y
t ilde
ĠJ apan
ill ion
ain ing
Ġc our
d om
ĠS ec
Ġpop ulation
Ġpro t
ru ction
ĠH is
Ġre port
se arch
Ġl a
ĠE l
oci ation
T E
Ġb ase
re w
in fty
D elta
Ġst ill
ĠM c
Ġ$ (
ac y
at ures
orm al
R O
Ġserv ice
Ġex pl
w here
r t
" ;
Ġm ust
Ġj o
ĠR ec
F ile
P E
Ġd em
n ode
| \
Ġs um
ĠâĢ ľ
ict ion
l in
Ġm ass
Ġpos ition
ond on
se mb
u f
ur s
row n
Ġst ation
Ġin formation
s q
ĠS up
Ġme as
Ġs k
Ġcomp any
ĠN o
Ġp at
Ġh ouse
f ord
Ġc rit
Ġc ar
O r
Ġt ri
l ang
Ġto ok
Ġdescrib ed
at ter
n o
Ġass ert
ĠM ed
Ġg ames
Ġch ang
Ġres pect
Ġre al
Ġrece ived
ĠAf ric
b ox
A tt
N ew
ain er
oc ial
il le
ĠY ou
Ġ( !
ĠA ir
Ġper iod
Ġw ay
c ast
Ġtot al
Ġex ample
Ġsp ace
ar i
im ent
re st
Ġv iew
pos ed
Ġp ath
oo lean
pl oy
ir on
Ġbu ilt
sc ript
Ġprob lem
ure d
Ġd el
re l
ix ed
Ġm atch
[ '
Ġd ay
4 5
m at
cent er
A A
a ul
ĠCol lege
Ġn ational
Ġm ap
os ed
Ġis s
Ġan other
end ing
um ents
pl es
E qu
T R
th ough
c m
ĠC he
ed er
s l
ib r
Ġrequ est
al f
Ġp ort
Ġe p
Ġbe st
ol ic
Ġh istory
c ed
h old
I C
ĠE ast
Ġpubl ished
x i
oc us
um b
ĠR uss
Ġc r
w ith
ap er
M an
g roup
Ġs y
+ +
$ $
pert ies
A S
Ġserv ed
ĠH igh
St ate
y d
res pond
20 21
ĠF rench
\ ,
ĠCh ampionship
ĠS er
S ystem
Ġpro fess
com p
ener al
Ġbe h
ric k
htt p
ĠL ondon
row s
Ġre pl
on es
c it
l ink
Ġa ge
Ġcent ury
ok en
Ġwith out
f ra
3 5
ore m
ĠC or
Ġ} );
P ath
Ġchild ren
Ġm ax
op er
' :
ly mp
200 3
ĠB y
ag ed
Ġm uch
l im
ĠCh ar
Ġte chn
Ġv ol
s im
i que
re et
Ġb orn
ug g
ilit ary
i et
om in
A dd
ĠWill iam
3 1
Ġ} ;
Ġn il
T ext
ener gy
a ut
g es
n b
ot ype
arri ed
ro id
Ġex ist
Ġs ix
Ġm en
un ic
ail able
ent ly
Ġinclud ed
n ing
um an
m ap
Ã ³
Ġh ow
Ġs w
Ġth ird
lob al
ul es
200 1
Ġs ide
Ġe lection
c her
u x
Ġab ove
Ġappe ar
Ġt arget
ard s
ĠGerm an
Ġb as
p ack
Ġspec ies
ounc il
cd ot
n a
Ġint ro
ing ton
Ġn ode
p oint
Ġte levision
Ġf ive
. </
Ġf ail
Ġl og
V iew
Ġed uc
Ġplay er
nd er
op h
Ġ enc
Ġc al
' ]
Ġs pe
In fo
op s
7 0
Ġ et
18 8
c all
m ember
ĠThe re
se qu
200 2
Ġc amp
st ate
} [
j s
Ġs ource
Ġpoint s
F orm
Ġ_ _
Ġh ig
} }\
al d
pl it
ĠA m
ĠCom p
7 5
ĠDist rict
Ġa ff
M ap
Ġt ake
Ġar ch
ĠE n
Ġran ge
Ġst at
Ġsim ilar
)$ .
it her
ign ed
art ment
ĠD av
ust om
Ġbe g
Ġopt ions
ĠA ng
al t
ap i
Requ est
a ff
Ġn etwork
Ġtr ack
Ġpartic ular
Ġle vel
ĠP ark
' ;
ac hed
Ġind ex
9 0
ĠC up
st ance
D e
ĠH ouse
t ab
x im
ĠM e
ĠAr t
E n
ol l
I ON
os p
P aram
Ġfe ature
ĠB ro
Ġd er
sh ip
Ġint eg
ĠB r
ĠH er
Ġp e
ĠL a
Ġm y
ann el
L A
st ruct
rid ge
Ġh old
our s
ĠL ist
p ublic
E T
du ct
F F
Con fig
Ġin put
a it
Ġact iv
ef f
y l
F ield
Ġt urn
Cont ext
st yle
Ġf ull
Ġa ir
ps i
I M
ight s
p en
em s
Ġbuild ing
Ġreg ion
nb sp
Ġa uthor
res ult
plic ation
it ch
eqn array
Ġcom b
A ll
Ġl ow
ug ht
O f
Ġf ore
ur b
Ġro le
Ġb reak
ĠP res
ĠP er
Ġn orth
Ġle t
att le
way s
O m
Ġcor respond
Ġdef ault
Ġ/ >
w are
i ef
con om
abl ed
ĠPh il
ou ble
Ã Ń
oug ht
Ġcont rol
eps ilon
ic le
Ġt imes
err or
inn ing
ames pace
ir t
Ġinst ance
s m
Ġd ied
Ġdef ined
ĠO b
I S
Ġh ost
() )
al ys
im al
ĠD r
tt p
ĠIn ternational
L iving
ĠS ch
ist ic
6 5
Ġw ar
Ġev ents
O ver
v ers
ĠA ct
V al
ay er
Ġcre ated
raph ics
pon ent
g ed
Ġl ength
et urn
Ġcomm and
Ġg rad
if f
d own
Ġl ate
Ġinter est
U R
Ġc over
if orn
er a
Ġcre ate
F rom
id ual
Ġd en
Ġw ater
i ber
Ġcomm on
} _{\
ob ject
3 4
Ġvill age
ec ut
yn am
Ġin s
Res ult
f unc
Ġwrit ten
Ġf ac
Ġcomp ut
Ġof ten
r ide
Ġ energy
or ies
ĠInd ian
av y
B l
ĠQ u
Ã ¼
^ *
f rom
s w
ra in
iforn ia
T rans
P eople
ĠF ig
re ate
Ġest im
ĠD iv
Ġspec ial
H istory
S ize
H and
B C
ĉ ĠĠĠ
i ev
Ġse ction
Ġin c
ab les
m en
ent ion
A D
` `
ma x
Ġd ocument
end er
U T
Ġb usiness
ess ion
it es
olog ical
v iron
n ow
in ary
Om ega
Ġpr im
ĠS an
Ġs at
Ġam ong
in put
v oid
ar a
Ġd eg
Ġf ew
Ġk ill
Ġatt ack
******** ********
val id
uff er
ĠĠĠĠĠĠĠĠĠĠĠĠĠĠĠĠ ĠĠĠĠĠĠĠĠĠĠĠ
ĠR iver
I s
oy al
v es
loc ation
ud e
Ġback ground
pl ate
ep ar
ip le
sq rt
b urg
or ge
ag s
um p
Ġs outh
L O
o on
E D
u ation
Ġass oci
Ġs on
Ġa ver
Ġstud y
n on
E S
ĠC ont
199 0
ĠEng land
ĠM ich
199 9
epend ent
ur ity
ĠD ep
ic a
Ġtr ad
A t
Ġa ction
ĠO ff
Ġp ri
Ġro und
ĠA g
is c
Ġp red
ĠA c
ic on
//// ////
ps ilon
tr ue
ounc ed
ĠO ne
Ġvar ious
Ġcont ext
Ġdet erm
ab or
Ġy our
ic o
land s
9 9
def ault
S ervice
ĠCal ifornia
use um
am a
oci ety
Ġg en
Ġshow s
Ġcount ry
)$ ,
cre ate
du ction
ass ert
In ter
opt ions
Ġ$ {\
Ġkn ow
et t
ater ial
Ġav ailable
Ġc ode
an ish
C ode
ĠV al
g ress
ak en
Ġpro perty
f in
G amma
og le
ĠT o
ert ain
Ġset t
m ar
m on
Ġreturn ed
Ġd est
ĠThe se
Ġl ed
B uild
re c
A cc
b it
ĠPart y
re ed
3 6
âĢ Ķ
Ġs ite
Ġinv olv
ul ated
s up
Ġf urther
b old
ate g
Ġg ood
Ġn ov
Ġsh ip
4 8
ens ity
20 22
Ġinv est
G roup
in ition
' '
ĠO lymp
Ġh istor
ne ction
iv idual
og n
ĠAustral ia
Ġmov ed
ĠS ystem
"> </
Ġc ult
3 8
Ġimport ant
i ol
Ġre d
C H
alys is
Ġche ck
prot otype
Ġstr ong
Ġph ot
ourn al
im um
m m
Ġs ent
Ġdist rict
[ ]
v are
P r
R ec
Ġcon f
Ġhe re
A ss
un k
Ġwork s
Ġch ange
Ġsh own
Ġeng ine
Ġinit ial
^{ (
S er
Ġcl aim
ic ro
Ġcomp on
n ect
Ġpro duced
Ġw est
Ġt w
Ġl ess
M L
l s
Ġdeath s
Ġm ale
gor ith
ĠRep ublic
199 8
Ġcon fig
M A
Ġk e
Ġconsider ed
sub section
Ġbecom e
O ut
R eg
Ġh aving
ĠP ort
arn ing
Ġcont ent
lo at
ĠW hen
ott om
u el
ĠS m
iv il
Ġf ree
6 6
n av
it ect
u it
min ist
ens ure
Ġestabl ish
C ount
Ġph ys
oc r
om b
Ġhel p
" "
ibr ary
ref ore
g color
Ġin fl
4 4
n own
o ice
Ġst ates
Ġposs ible
Ġf ather
Ġm er
Ġstruct ure
right arrow
Ġrequ ire
3 9
Ġcon c
ĠG L
ĠA ward
Ġsign ific
Ġsup er
Ġacc ess
h a
Ġm ot
read y
pt ions
Ġp arent
Ġc ell
Ġstart ed
Ġin ternational
Ġan t
ear ch
ĠAr my
ĠĠĠĠ Ċ
Ġind ic
vare psilon
Ġcon v
Ġs old
we b
Ġs epar
ĠM on
ca ption
} =
pro v
Ġdevelop ment
Ġp ot
3 7
======== ========
Ġv ideo
Ġt ry
}^ {\
ĠA meric
ian t
U S
Ġcol or
ab ly
Ġe ast
itt le
Ġcol l
ail s
ĉĉĉĉ ĉĉ
Ġterm s
Ġse qu
Ġh owever
Ġm iss
Ġprodu ction
i i
A fter
ap ache
viron ment
ĠR ev
Ġbl ock
Ġyou ng
Ġprodu ct
Ġf em
con fig
e h
oc al
ag ement
ĠCh urch
Ġl ook
ĠInd ia
p ose
or ph
ell ow
ul a
is ing
Ġd a
) (
Qu ery
Ġperform ance
18 7
ĠB er
Ġm illion
S p
text bf
ĠFran ce
Ġrel ations
Ġb gcolor
t es
Ġgroup s
Ġme an
h ib
198 0
5 5
Ġres ponse
idd le
ĠG et
Ġst ar
Ġmod els
Ġ\ ,
ĠA p
em ph
Ġcommun ity
as c
Ġc ross
Ġann ounced
199 7
Ġfollow s
a el
Ġc ame
ran gle
sy mbol
Ġc apt
Ġ čĊ
) =
ĠR oman
esc ription
Ġb ody
Ġus er
ran t
Ġp ract
fer ence
st and
Ġcol lection
Ġimp lement
ort hern
st art
he l
b t
ĠB el
Ġw ant
Ġe ither
itt ed
ib ility
ĠR ed
Ġl ight
199 6
U p
Ã ¶
ĠA nt
I G
ĠM al
Ġa ward
Ġg l
n ey
pt y
ĠCanad a
i ents
ro y
C all
in it
I I
i ers
c ount
It em
U N
Ġep is
ut ure
Ġ ide
ot ed
Ġt able
ĠC our
Ġoffic ial
Ġl abel
Com p
ac ing
Ġappro xim
b or
C C
h and
Ġde but
Ġs pect
id ence
at ural
Ġf ri
Ar g
us er
b ody
Ġcl ose
am ples
ĠAmeric a
Ġw ent
b m
cl us
Ġpolit ic
Ġ( $
Mod el
ĠC ouncil
Ġc ou
unic ip
e lement
i qu
Ġadd ition
Ġ Ð
Ġqu ant
includ e
ĠQ ue
it ar
Ġim age
et ic
ay out
m it
Ġf low
B ig
Ġaver age
Ġind ividual
Ġrequ ired
e ction
ĠP al
ĠA cc
ĠH ol
semb ly
n ext
Ġfe atures
Ġbl ack
Ġe ar
ĠEurope an
Ġb order
Ġh alf
as ing
Ġpro duc
A B
ĠG eneral
ro te
Ġle ast
li ent
fra k
ĠR ober
m ing
E nd
if ier
ot a
Ġdisc uss
m ost
includ eg
Ġpolit ical
includeg raphics
ag o
ce ed
Ġto get
ĠF l
A d
ĠW ith
Ġtoget her
ĠTh om
ra v
Ġatt empt
ĠJ ames
Ġre search
ĠG overn
ĠPres ident
Ġs uff
w est
Ġw idth
Ġc irc
s i
m ethod
Ġl anguage
Ġcal c
UL L
c ell
ugg est
Ġ q
M essage
y a
em ents
Ġd at
Pro perty
F A
Ġconst ruct
Ġcor re
oun ter
Ġc aus
Ġout put
Ġar r
ĠSt reet
i ation
Ġapp oint
Ġbro ad
out hern
y ear
ĠM or
w id
ĠT est
ĠP aul
Ex p
var phi
ĉ Ċ
199 5
Ġcomp lex
ĠS um
o e
Ġst ory
ust er
ĠDiv ision
Ġ Ã
Ġb i
al ian
Ġcons ist
Ġp erm
Ġexpect ed
r s
c hed
Ġs em
D O
st on
Ġsignific ant
Ġl ower
ĠE m
e an
ĠS k
ist ry
ar ies
im ens
---------------- ----------------
v ille
k ed
0 1
Ġdist ribution
A nd
ĠGe orge
b oard
ap s
ĠG r
ut es
w ord
Ġsur v
d f
ĠF irst
Ġdif f
Ġprov ided
c le
e al
n s
ĠS im
it te
m ult
it z
ĠR oyal
ref er
Ġm arried
Ġre view
Ġg e
Ġw in
Ġd ays
ĠS en
ĠD ef
ĠSt ud
197 0
ree k
stit ute
Ġf ocus
R ead
an ia
ĠD em
ĠG l
. ~\
4 9
Ġtra ining
Ġra il
ge q
Ġm ilitary
Ġpop ular
v ec
Ġd om
roll er
Ġwork ed
199 4
[ \
ress ed
m ark
} ).
Ġs ocial
y cl
ĠM ont
ĠAss ociation
ex p
Ġfunction s
Ġcomp os
ĠR ich
=" ../../
o z
ĠT rans
4 7
g en
b ase
] )
i res
ic ient
Ġjo ined
med i
che ck
L og
ev ent
Ġdef e
Ġserv ices
ct or
Ġf und
over line
Ġv ert
ou d
h an
cur rent
is f
! --
Ġv ia
ly ing
Ġparam eters
pro of
Ġlim it
htt ps
Ġelement s
, "
av es
m d
pl ied
math frak
O ff
ym met
air s
199 2
ad o
chi ev
rit er
ĠDav id
ĠD es
Ġc ost
ĠD ev
S ub
ill s
IN G
Ġpartic ip
Ġp ut
ĠN e
I P
ĠGerm any
w ide
umn i
lect or
Ġac ross
c is
Ġab s
Ġsystem s
inn er
r un
Ġg round
Ġal ready
ra z
ĠM ount
bl ock
a ur
id ing
k a
Ġacc ount
Ġstud ents
Ġn eg
C ell
Ġthe ory
Ġse en
iv ity
ĠB ut
and er
) {
ĠH all
Ġprofess ional
or age
k en
Ġwe bs
ĠP at
Ġl o
Ġw rote
ri an
ip p
ĠUn ion
Ġreg ular
Ġn ever
il ities
. }
ĠĠĠĠĠĠĠĠ ĠĠ
Ġpres ident
c er
ĠL ou
Ġassoci ated
id a
h as
o ch
ĠI m
Ġval id
ch ange
& \
Ġm aking
Ġb ool
6 7
Ġd on
ĠI nt
ww w
Ġstand ard
Ġind ust
ran ch
ber g
00 00
Ġcol umn
Ġm agn
ĠAustral ian
r d
f alse
Ġpl an
Ġparam eter
Ġcont ains
bold symbol
Ġm essage
t itle
Ġm id
im age
Ġs uggest
Ġre cent
I f
Ġopen ed
and id
Ġres p
Ġg reat
Ġm ag
Ġinst ead
199 3
an ies
Ġc ases
L et
L ambda
Ġreport ed
ĠG roup
}, \
ch ild
ĠA dd
18 5
G e
Ġprov ide
Ġmeas ure
## ##
M ethod
Ġem ploy
ic ense
Ġro ad
x y
Ð °
ul ations
Ġe conom
Ġl iter
Ġbel ow
gorith m
ĠPro v
T oken
G L
g r
In put
l t
act ory
ew ork
ok e
E nt
Ġrele ase
ch an
ire ction
ut ions
at al
C lient
Ġch urch
ĉ Ġ
Ġpro perties
Ġf requ
ef ore
Ġass um
Ġt aken
Ġwe ek
ic les
Ġt re
~ ~
wo od
ec ess
ĠBl ack
g in
E d
Ġh uman
Ġcomplet ed
at ives
ĠIn ter
ĠD uring
ask et
ash ington
Ġon ce
ĠM od
) ^
= '
Ġg row
and om
S y
ef ined
Res ponse
ĠCl ass
Man ager
Ġl oss
Ġn um
in fo
ĠM art
an i
d oc
a ign
irt ual
Ġl ost
ber t
ĠP e
Com m
Ġth row
Ġadd ed
Ġare as
Ġr ate
I L
Ġteam s
Ġwork ing
ĠCh ina
b and
Ġinfl u
ĠR oad
Ġdevelop ed
ĠS et
Ġh on
T able
s pec
0 5
Ġ! ==
ĠM y
Ġdirect or
Ġhig her
Ġsong s
k nown
ĠH am
ak er
b ased
Ġh om
Ġj ava
ĠM ary
ord in
g ing
O T
ĠG o
Ġm aterial
Ġmethod s
Ġg raph
ĠN or
Ġs it
h ood
mod ule
( (
Ġm ar
w ise
p ly
l ight
M P
Ġperform ed
Ġpart y
as ons
ugh ter
ist ics
Ġ< <
ic y
un n
St atus
199 1
Ġlin es
j o
ĠF rom
Ġn umer
= #
pr int
S ec
at form
Ġd ensity
Ġsuccess ful
Ġp aper
act ive
D is
b ra
ĠL aw
Ġme ans
arg in
O S
ish ing
| |
ĠThe n
Ġme et
ĠAc adem
E X
ĠCent er
Ð ¾
ar r
ribut ed
6 8
Ġof fer
ache s
Ġw indow
Ġs ay
Ġk m
O ptions
d ev
us ed
ĠD i
li ament
Ġcontin ued
ĠM ex
ri ate
} }$
ach ing
A P
Ġre v
t em
ĠD on
ers hip
cont ext
EN T
all s
ĠComp any
Ġ ill
ĠCour t
Ġother s
ĠJ er
cont ent
ĠCl ub
itte e
im ate
ĠM ark
Ġ es
Ġbro ther
Ġobt ained
Ġarch itect
an el
Ġeduc ation
al le
Col or
Ġl oad
Ġab le
ĠM usic
( {
196 0
ab ase
Ġmat rix
d b
9 5
Ġwebs ite
c y
in i
Ġcond itions
Ġconst ruction
Ġdis play
Ġrec ogn
E C
ian ce
ines e
as y
iz ing
Ġa chiev
ra int
c an
Ġrecord ed
ĠH en
8 8
E ng
ĠS ociety
S pec
ĠV ir
ens ive
es h
ĠS am
ateg ory
Ġt en
Ġsign ed
al a
il i
sh ire
ĠG ames
Ġdirect ed
u z
pect ed
Ġth ough
h line
ens us
v ersion
Ġh ttp
c irc
Ġcont ract
l a
d o
en ed
Ġth us
Ġcall back
P os
Ġcent er
ĠIs land
N S
b uild
ĠT own
] (
Ġ+ =
B ase
Ġst atus
Ġ` `
ĠKing dom
Ġa way
n et
ld ots
us ing
Ġf ig
ĠCanad ian
4 2
Ġalbum s
li ke
St ream
Ġnov el
Ġl ive
d raw
b our
ĠW ashington
ĠR eturn
ĠS ing
Ġun it
Ġrespect ively
lang le
so ft
d ec
Ġp age
* /
at ory
Ġrad io
ĠAr ch
app a
e le
ĠN ot
ĠM et
ri a
Ġan alysis
Ġconst ant
ag on
Ġadd itional
en ame
ĠT V
st atic
Ġn ormal
H ead
d t
ĠM at
est ival
Ġform ed
Ġbel iev
F ilm
Ġinclud es
f low
Ph i
ict or
C E
Ġmult iple
198 9
S ource
S P
Ġocc ur
4 6
ĠD o
h ost
Ġh ard
ot imes
ĠAfric an
Ã ¤
ĠG reen
Ġtem per
Ġac cept
ĠIn stitute
Ġst age
Ġex ecut
} ),
. \
Ġc ast
asket ball
ol it
Ġd ate
Ġw ife
ĠC ath
O per
Ġg r
Ġfound ed
Ġf ire
ĠDep artment
Ġfootball ers
ic ial
re y
c ase
. $
Ġcond ition
pl ace
Ġrel ated
Ġqu est
e in
com e
id s
198 8
ĠJ ack
Ġlead ing
Ġst d
ĠH istor
ĠP ress
ĠB ay
ell ing
ig ation
Ġe lected
e ed
> (
Ġspec ific
Ġsat isf
Ġpot ential
Ġmed ia
oc ation
he ight
ĠM iss
Ġrem ov
Ġent ire
Ġgo al
ver se
Ġcent ral
u ated
qu ery
s f
mb ox
Ġp ress
4 3
Ġv iol
Ġfr ont
St yle
Ġadd ress
ĠAng el
Ġto o
Ġappe ared
In stance
ig ger
qu are
D ec
5 00
ribut es
un t
Ġdec l
r ated
ĠS ub
Ġmod ule
Ġcon duct
but ton
Ġwh ose
Ġs cal
back ground
Ġl ik
Ġe mb
ac ity
cit ep
ĠV ol
d r
o res
Ġdeg ree
ar ing
p ite
return s
ĠJapan ese
Ġp ur
Ġb oolean
Ġad minist
s in
Ġappoint ed
Ġr ace
U til
Ġqu al
Ġact ive
ĠT ur
ĠS y
Over ride
Ġ( "
ail ed
ĠB est
pro p
se y
ad a
N ull
l en
N o
Ġal though
c ore
ĠS ince
Ġ row
ĠRec ords
b b
Ð µ
Ġwhe ther
oc ol
p ush
lev el
Ġhe ight
eder al
ĠCent ral
Ġsub ject
Ġoff ice
C he
ĠRober t
ec k
ag ing
b ook
ar ter
Ġm other
Ġle ague
ĠR ail
Ġintro duced
Ġal ways
D ate
s el
mod el
d en
ĠA lex
Ġal umni
i os
Ġtrans fer
Ġass ist
iz er
F unction
ith ub
un s
ĠT ex
Ex t
pack age
Ġv er
198 7
Ġin f
ĠG rand
Ġfield s
Ġbet ter
Ġb o
F r
ĠN ULL
am ily
sub set
ĠM useum
wh ich
Ġs rc
M em
Ġind ependent
A ct
Ġf ar
el ine
Ġcl osed
und er
ou ch
Ġt our
Ġph ase
ensure math
ĠAfric a
ĠAcadem y
O P
ĠThom as
ĠS l
c el
non umber
Ġmod ern
t x
Ġb ox
ran ge
Ġloc ation
Ġv ict
ser ver
ĠS al
Ġoper ation
Ġhe alth
ĠS o
Ġhim self
0 8
Ġso ft
om ent
A G
Ġp ay
enc ed
s ing
Ch ild
Ġappro ach
=" +
r ish
ĠRuss ian
ourn ament
is es
ĠM ac
th let
Ġwh ite
ĠM ad
Ġr ather
B ar
Ġresp ons
T e
ĠIt alian
Ġdep end
Ġro ck
Ġt reat
dis play
} )$
ĠC ong
ĠG old
abl a
S C
ĠM er
h i
ĠL eg
. )
Ġs cale
ĠC ons
Ġac qu
Ġpos itive
ĠSum mer
art s
ri p
Ġcomp anies
I R
Ġp ast
Ġan im
Ġ-- >
Y PE
c or
Ġc ut
Ġcl os
ro s
Ġchang es
Ġcorrespond ing
Def ault
Ġacc ording
Ġcontin u
Att ribute
ĠOlymp ics
ot es
Ġp ack
ĠU K
ĠR ad
ĠSc ott
text it
en a
ed y
Ġs ound
ĠWest ern
Ġd one
on a
p age
Ġbeh av
Ġmark et
Ġschool s
Ġm ove
ri ef
Ġpr int
Ġfollow ed
Ġgu itar
ĠL et
ĠF ootball
c ap
Ġobt ain
L ine
Ġst ep
ĠU p
Ġd ouble
Ġbir th
Ġc andid
} );
Ġsim ple
ĠJ ew
H T
Ġne igh
ĠL em
ĠF ilm
Ġdef ine
ĠZ eal
Ġcurrent ly
ar io
Ġpart s
n abla
pt r
d ir
Ġa ud
ĉ ĠĠĠĠĠĠĠ
\ !
Ġse lected
ĠY ear
The re
Ġst op
198 6
Build er
anc ed
S up
lo od
Ġsol ution
Im age
g ithub
Ġf uture
Equ al
Ġplay ing
Ġpro p
Ġt ro
Ġh ous
n ull
ĠL and
Ġc ustom
ĠZeal and
ĠChar les
198 4
Hand ler
7 7
Ġg ive
Ġw rite
k appa
F l
Ġmon ths
Ġright s
erv e
p arent
Ġcomp lete
ig en
ĠVir gin
8 5
ou l
S igma
Ġn ames
ob j
b a
Ġtyp es
ĠR ef
ĠOb ject
ad ata
ĠĠĠĠĠĠĠĠĠĠĠĠĠĠĠĠ Ġ
f oot
Ġe ight
ĠCar ol
Ġit em
requ est
ĠLou is
Ġc lear
ar ily
6 9
U ser
if orm
go ogle
t arget
arg s
ch ar
ĠM ag
az ine
Ġo ption
\ %
plic it
g l
4 1
Ġsur face
opt ion
M S
om s
iz es
ĠM ore
Ġs ports
R ep
cl ient
Ġlarg est
O O
Ġin j
ens or
re land
it ing
ĠDem ocr
Ġfor ce
ĠMin ister
Ġdesign ed
g t
Ġh or
irc raft
Ġmult i
pl ies
Ġform at
Ġb ar
Ġset s
Cont ent
ast ic
ĠW il
/ \
Ġpro posed
198 5
p ing
p c
Ġcamp aign
Ġn atural
Ġlarg er
Ġin ternal
ĠMich ael
Ġpri or
ĠChrist ian
her s
enc ies
Ġl iving
Ġc ertain
ĠB ook
=" #
" ),
Ġ url
W h
st ream
R un
Ð ¸
ur a
Ġoper ator
Ġda ughter
le ase
ĠTex as
u ct
A p
u a
0 2
\ |
eb ug
Ġse arch
am s
ĠT ra
Ġd raw
Ġco ach
add ing
Ch ar
Ġf ight
ĠK ore
ic an
ĠG reat
0 7
he ast
ĠĠĠĠĠĠĠĠ ĠĠĠĠĠĠ
ul ate
Ġcharact ers
v is
ĠE ar
ol f
ĠCh inese
Ġear li
us ical
Ġfin ished
ĠT om
ug in
Ġsc he
Ġepis ode
Ġsub sequ
at re
Ġline ar
er rit
r ate
Ġb oard
Ġen vironment
b o
Ġun its
Ġm ount
f irst
Ġm ight
ub e
ant ic
E L
or ing
ĠWh ite
Ġc opy
ed d
ir m
Ġg lobal
Ġst ations
Ġmed al
y th
] );
l anguage
Ġprim ary
ĠP ublic
Ġallow ed
V ersion
Ġbuild ings
T D
Ġd ram
Ġm unicip
Ġpr inc
Ġg ave
Ġconst it
ro ad
a ctions
end if
Ġsupport ed
osp ital
Ġst ream
Ġs il
ra el
Ġ( (
ĠS ur
Ġsequ ence
C an
op en
ĠI N
F C
Ġr at
ab s
Ġdisc over
l ong
Res ource
B uffer
0 3
B ack
il ies
195 0
Ġal most
St art
Ġr andom
: "
Ġb en
f inal
ch o
duc ation
c os
app end
B ut
ic ult
pr ime
F L
Ġfor ces
Ġs om
Ġex ists
Ġup on
ot o
ĠD irect
Ġdist ance
198 3
Ġpass ed
Ġpl aces
i as
is l
ĠĠĠĠĠĠĠĠĠĠĠĠĠĠĠĠ ĠĠĠĠĠĠĠĠĠĠĠĠĠĠĠ
g rad
Ġequ ation
Ġrepl aced
Ġus ually
Ġd ynam
erm an
d et
ĠD ay
Ġoper ations
Ġtrans l
Ġtrans form
Ġspec ified
" ).
oc ks
Ġthrough out
ĠCath olic
st ant
R ow
l ib
9 8
bt n
Ġkill ed
n umber
he st
a ud
ĠD an
Ġinvolv ed
d s
Ġf av
m ore
Ġus es
itt ing
k m
0 6
c ss
n ected
du ce
}} {
ĠWh ile
C ur
W eb
Ġinst all
Ġrun ning
ov ers
ĠT or
ar ian
Ġbook s
l ast
Ġn ecess
Ġj ud
Bl ock
C D
r um
pe ople
Ġv ector
n amespace
k y
Ġch o
Ġits elf
Ġprot ected
O M
Ġh app
Ġcompon ent
9 7
d ots
ĠPar is
Ġwrit er
B A
198 2
L e
ĠD is
U E
id ents
ĠFran cis
Ġreg ard
P oint
it a
el t
j ava
Ġj ournal
ap ter
ric s
Ġv ers
mer c
Col lection
un ity
B e
Ġ Â
ĠB ill
ĠJ ose
N umber
ĠSup er
ĠL at
d ist
T H
app ing
ĠW eb
Ġfem ale
Ġke ep
Ġd am
Ġobject s
Ġb r
ov iet
b ound
av al
Equ als
Com ponent
++ )
il er
eg er
0 4
ref ix
ĠB en
Ġrel ig
il ed
arn ed
ĠS ome
and s
ĠS pec
Ġart ists
sm all
T P
Ġt it
r l
str ong
u an
oot h
id ae
od ing
ock ey
ER T
w ell
at tr
AT E
ol ve
Ġt aking
idd en
] [
rem ove
P er
Ġre n
F I
Ġchang ed
E E
ĠO ther
M ed
ĠReg ister
wid et
w rite
ial og
por ary
; \
Ġse ven
ĠS ervice
ĠSm ith
al ax
Ġoriginal ly
197 9
om a
\ [
i ences
Ġrelations hip
p ng
Ġre ason
Ġp ain
u ate
ĠP eter
Ġz ero
Ġlist ed
p ass
Ġstud ies
ic ation
Ġequ al
Ġreturn s
ish op
Ġcan not
Ġfri end
ĠP ri
M ar
Ġmiss ing
ĠF ore
Ġm ode
> &
ĠM el
s g
ri al
ĠW ork
P art
0 9
ĠF lor
Ġout side
Ġam ount
ĠV ictor
d ot
A pp
ĠO ut
Ġwrit ing
yp es
raz il
ars er
Ġj ob
Ġde al
6 3
ol k
af e
M et
j son
loc al
Ġim prov
ĠOr der
ĠE v
Ġex hib
Ġc ivil
u int
Ġarg uments
pro perty
Ġst ated
tr ack
5 8
ĠFran k
Ġpresent ed
ĠH istory
ĠSp anish
Ġp ers
ig g
z a
Ġprevious ly
ig an
m es
ig inal
ing u
at ively
F ig
Ġob j
ĠL os
ar p
ĠJ ust
ĠFor ce
ĠRich ard
Ġv oc
it ude
Ġev al
ĠD el
ĠM ass
ĠSec ond
ic ago
L ength
5 7
widet ilde
Ġinst it
Ġf all
f ill
Ġst e
ist an
ol ar
A g
L oad
198 1
qu ot
om orph
Ġl ittle
M at
ĠI reland
ribut ions
Ġpolitic ian
ĠS ant
in st
ĠGe org
Ġst re
an o
f ind
or ial
Ġch annel
Ġdirect ly
Ġme chan
Ġd rop
F ilter
Ġevent ually
ic ol
Ġ[ ]
t ings
iz ations
F actory
Ġobserv ed
un ch
Ġrefer ence
6 2
ut ch
Ġtrans port
Ä ģ
197 2
Ġcount ries
ĠL ake
on ic
Ġen ough
ĠH ill
ĠR em
F irst
n el
Ġcour t
l v
ill a
ĠF ound
; "
} -
W indow
ĠR ob
ĠP enn
Ġexper iment
Ġrem ained
Ġt ask
Ġs en
y e
uf act
Ġcl ient
Ġpol ice
E arly
s cale
IN T
O ne
Ġ{ @
ĠC amp
Ġg old
Ã ¨
G ener
sk ip
Ġup date
Ġp air
Ġestablish ments
Ġorig in
ram ework
in ct
il ton
ĠAr g
Ġp aint
y les
Ġn ight
Ġequ ival
ra ction
ollow ing
Ġt ree
ĠHen ry
id get
Ġprov ides
requ ire
Ġex cept
Ġre ve
Ġd irection
{ -
pec ially
Ġgo ing
et her
Ġfeature d
P ar
ip s
ir l
197 6
is ions
Ġcom e
ell a
ĠR ock
Ġpro of
Ġf ixed
197 8
Ġun s
C ON
ĠW omen
Ġmat ches
Ġit er
Ġqu ery
A ction
C L
Ġpl ant
ĠE mp
Ġaward ed
Ã³ n
Ġa ircraft
Ġrepresent ed
Ġ& =
Ġre ached
6 1
Ġeff ort
P re
Ġsc reen
Ġt akes
Ð ½
cent ering
Ġu int
197 4
ĠO per
Ġth rows
I V
) ]
C reate
Ġdest roy
Ġeffect s
Ġ" ""
( _
led ge
k i
ĠSw ed
head er
ĠG od
ĠF r
Ġcomp ar
s rc
or por
Ġpro te
ĠC ast
ĠSe ction
Ġfour th
il s
Ġro t
ell s
Ġd ig
he t
ach ine
ĠVirgin ia
ous ly
Pro v
hed ul
x ml
ult ure
ĠSc ience
merc ial
; &
="../../ ../../
c ond
Ġw ord
ER R
omet imes
E m
are er
ĠComm ission
Ġfact or
Ġal gorithm
i Ä
Ġpol icy
Ġart ist
8 7
ĠE nd
imens ional
ĠChampionship s
ĠAcc ording
Not es
ĠTh at
ĠV er
Ġwe ight
i en
Ġfail ed
z eta
Ġpl aced
ĠB ur
ed s
197 7
Ġs aw
Ġm oment
Ġent ry
196 8
197 5
Ġ esc
Ġdiff icult
az z
Ġrun s
Ġg ot
m t
Ġsc ored
col umn
Ġcour se
C o
R A
ph p
ad es
Ġst ars
se lect
\ {
T V
ev e
Ġs us
ĠSc ot
Ġconc ern
Ġbeh ind
ĠTe chn
Ġc red
row ser
Ġext ends
u id
Ġ ]
Ġk ind
ĠB ase
Ġres ource
a o
ud d
Ġread ing
rem e
Ġst aff
ex pected
ann ing
ĠM us
Ġs ymmet
Ġhouse hold
f ont
W idth
Ġcompet ition
ru pt
ĠO pen
ĠM em
Ġbroad cast
ry pt
ĠMex ico
res h
ug by
Ġstruct ures
b on
Form at
} +
re ater
Ġl en
al ed
ĠIt aly
ĠI ll
b ottom
Ġexp and
plic ations
( &
Ġsing er
Ġim medi
ĠF orm
Ġthe refore
Ġocc up
197 3
stand ing
Ġcrit ic
Ġc atch
Ġto wards
Ġup per
Ġstud ied
Ġs ex
à ¤
Ñ Ĥ
k ing
Ġiss ue
Ġt ournament
ann ed
Ġincre ase
Ġs ch
Ġcontin ue
ang le
Ġad apt
n ote
y r
Ġex act
ĠC ur
os en
ĠE q
Ġpat tern
Ġm akes
Ġm ix
ĠK h
Tr ue
ĠAr ts
Ġt im
ge bra
Ġ ;
ĠT ime
ĠAt l
A ut
pl ing
pro cess
ong s
Ġt ax
Ġfin ite
Ġiss ues
; </
w in
9 6
ĠN avy
vent ion
ock et
p ost
_ .
ĠIs rael
Ġ ...
Ġmain t
a res
Ġf ul
ut y
Ġg ives
off set
S I
is ation
ĠS aint
Ġ- >
ĠAngel es
ĠCh icago
up date
Ġmax imum
Ġes pecially
Ġg as
ĠIt s
Ġcol lege
Ġap plication
pr ivate
Ġs ources
S he
oy s
Ġbas is
\ ]
Ġal tern
H el
Ġb ur
Ġco ordin
i h
Ġinter face
ify ing
Ġbu ff
ans ion
Ġnum bers
st ract
Ġund efined
an ks
l ock
D esc
197 1
f e
Ġaut om
UR L
Ġr ule
} ]
f ilter
Ġth ink
Ġb asketball
Ġth ought
P RO
194 0
ex ports
L abel
ĠF inal
Ġad j
u ke
Ġ er
ĠComm ittee
Ġpre m
tab ular
Ġim m
Ġun ique
Ġcap ital
S U
Eng lish
Ġs eg
Ġor d
et te
P si
ict ure
196 9
W hen
Ġbeg inning
p ret
//////// ////////
g ener
S D
W ork
Ġman ager
AM E
ĠP o
ret ary
Ġsc ore
ĠC r
st atus
194 5
Ġcon vert
s plit
so le
Ġd oc
Ġag re
Ġmon th
P C
Ġproblem s
[ "
Ġed ge
ol a
ĠM o
ran sp
lo or
Ġw ords
Ġm argin
ĠC O
v els
R em
ind ing
Ġtemper ature
Å į
b reak
Ġd im
ĉ ĠĠĠĠĠĠĠĠĠĠĠ
ian o
ĠD en
ĠPar liament
Ġro ute
Ġcomp ared
ĠB rown
Ġlead er
we ight
out e
Ñ Ģ
it ors
Ġoff set
Ġwrit ers
ĠF estival
Ġa x
Ġh it
ĠH ow
Ġch all
ĠAs sembly
Ġde ep
Ġm ention
P op
ee k
Ġv eh
Ġcon nection
Ġf ilter
comm and
) =\
J S
ĠFlor ida
Ġdec ided
Ġdem on
Ġb all
Out put
ab it
Ġact ress
anc ial
H E
ĠThe orem
ĠT wo
i ro
IN E
Ġlong er
Ġs ample
Ġsc ient
} =\
ĠCong ress
ian a
ad ow
O D
Ġcult ure
> >
Ġvoc als
Ġneed ed
Ġed itor
at riate
B U
ĠH el
ĠGovern ment
m id
st ar
Ġindust ry
ĠRes earch
Ġpred ict
ĠĠĠĠĠĠĠĠ Ċ
5 9
Ġto ol
) }\
Ġmov ement
t ag
ef t
19 30
ĠO ver
Ġapproxim ately
omet ry
Ġgener ally
Ġfam ilies
m ission
196 7
T op
Ġhig hest
AB LE
Ġsmall er
ĠP an
E l
und le
Ġset ting
P P
Ġpe ak
at o
ig er
I F
ĠAn n
re a
ĠCarol ina
Ġrepresent ation
n ce
k it
Ġarg s
Ġsy mbol
Ġrel ative
p o
C areer
ad ium
P age
ĠRuss ia
all ery
ĠB o
ĠW ales
and a
Ġexp ression
4 00
Ġm ur
$ )
Val id
icro soft
v ed
ĠK n
Ġs s
Ġst ore
ĠK ar
ĠSt ar
T YPE
Ġg rand
Ġle arning
D ev
( -
P erson
List ener
Ġb it
n um
Ġper cent
ĠS oviet
ĠA v
t ool
Ġrem ains
Ġplay s
Ġtra vel
ran g
on ly
ĠProv ince
Ġf if
ĠC D
param s
Ġdet ails
ĠT ype
P ort
Ġperson al
Ġearli er
Ġap plied
unc hed
form at
Ġdef inition
ĠF in
) </
Ġallow s
y ing
Ġcorre ct
g reg
S ince
elop ment
Ġb ring
Ġgener ated
p df
Ġde b
Ġbecom es
Ġh y
=" ../
k o
8 9
Ġhold s
Tr ack
Ġact or
Ġstart ing
S w
ĠA PI
Che ck
I O
ob ile
Ġdec ision
Ġpract ice
Cont ainer
ay ers
Ġcon cept
C ache
}^ \
Ġdiv ision
In it
R L
c up
Con st
or a
Ġreg ister
T O
) ^{
ĠN one
Ġf ood
ĠM ur
Ġcom ment
cont ainer
196 4
Ġlim ited
Ġser ver
ill er
ĠB razil
l am
Ġrem ove
Ġro ot
M ode
Ġ ess
av en
Ġpl atform
Ġc op
5 1
}_ \
Ġmem ory
ĠM a
Ã §
ĠA wards
ĠE X
ĠK e
. ~
Ġav oid
Ġrest rict
Ġmin or
ĠL ong
B ox
ĠHistor ic
Ġphys ical
Ġd u
Ġun c
( [
D r
ĠSer ies
Ġp urch
M in
Ġbro ught
ĠF ield
A b
Ġtrans ition
ot ion
ent al
Ġtra in
Ġn uc
ĠT our
w ar
Ġincre asing
ĠO h
ĠS ee
ĠD ec
is k
Ġse asons
Film s
Ġclass es
Ġs n
ĠO ld
ĠP et
V ert
5 4
Ġb ank
eth ing
Ġp ark
S O
Ġg alax
Ġe mer
th at
Ġw ide
Ġd ed
Ġsp in
Comm and
ĠM il
Ġso on
Ġman ufact
y an
Ġim ages
ĠReturn s
ent ry
196 6
Ġl atter
ex ample
p ress
Ġspe ed
T em
U s
ot al
196 5
Off set
Ġw inning
ir it
Ġeffect ive
N O
w rit
d escription
n y
Ġform s
Ġed ition
5 2
Ġin side
S im
T C
rib e
th m
Ġdemon str
wide hat
O ther
d at
Ġorgan ization
Ġnot ed
ĠS il
Ġl ack
D uring
ĠA tt
ĠM ain
}\ ,
{ }
Ġquest ion
act er
ĠD et
Ġappe ars
b ed
Ġc ensus
Ġrail way
8 6
erv ed
and roid
{ {\
5 6
im ary
3 00
Ġsc en
the n
Ġc ele
Ġf arm
R ange
ma il
Ġsc ience
{ (
ic ated
im a
Ġy et
Ġl ove
a ught
19 20
Ġlik ely
Ġan g
Ġch art
empt y
Ġch ampionship
ĠEmp ire
Ġrem aining
Ġr iver
J son
ĠMart in
Ġv irtual
al i
Ġatt ended
Ġinvest ig
d ep
ap pro
cd ots
Ġbound ary
ĠI rish
rap per
v as
D F
B S
Ġarg ument
un it
d i
Ġtrad itional
ĠL iber
Ġan aly
p at
g n
" ]
Ġm iddle
. âĢĿ
Ġf ace
E M
Y ear
Ġman agement
C ase
ĠB oard
Ġh ot
ĠĠĠĠĠĠĠĠĠĠĠĠ Ċ
as ks
ĠM os
ĠP ac
} /
m ain
Ġst ri
ĠS ir
F e
Ġover all
C A
Ġn one
Ġn ative
M en
ĠTh us
Ġincre ased
ĠE r
ĠNew s
Inter face
ĠU nder
Ġquant um
f loat
Ġcompon ents
us ion
ĠN orthern
Ġse lection
Ġrem ain
Ġproduc er
Ġmon ey
ed ge
ĠAr ray
Ġacc ur
sy lv
ĠL ine
Ġnew s
w an
Ġun ion
Ġwho le
ĉĉĉĉ ĉĉĉĉ
ĠC am
Ġev idence
Ġse lect
ĠB as
y cle
5 3
ct x
Ġco ast
out put
ĠR h
Ġs outhern
Ġext ended
yn ch
Col umn
Ġend ed
Ġstud io
Ġn orthern
ĠA pp
}) \
el oc
ĠAl though
ĠH on
P S
uss ian
M ax
el se
Ġsh ot
Ġelect ron
, -
Ġsign al
olv ed
Ġcon nect
Ġfr ame
e es
equ iv
Ġch arg
R eturn
Ġexist ing
L ink
7 8
ver y
Ġsoft ware
Ġad opt
sylv ania
ĠB attle
j a
lem ma
ĠT im
at i
T ypes
ak a
Ġf ill
ĠJose ph
ĠF ort
Ġcaus ed
U M
od er
w a
Ġw oman
Call back
q l
iction ary
ad er
Ġprob ability
Ġcon nected
Ġs ens
Ġremov ed
Ġk ing
ĠO l
om y
Ġs ometimes
Ġant i
in em
sc ope
Ġexp ress
Ġdefe ated
Ġcont ain
men u
' ).
ind ent
Q L
q quad
ĠI D
z er
Ġac adem
d ated
b in
k er
Ġr ules
Ġimp act
ag ram
Ġp en
st ra
om ic
sk i
ĠCol umb
Ġnot e
Ġvol ume
s ort
d rop
amp ion
Ñ ģ
Ġqu ick
Up date
Ġand roid
Ġvari able
sel ves
Ġc ounter
re al
ann er
? :
Ġm usical
p op
he m
Ġass ume
a fter
at ur
im ents
ĠC ap
Ġsp ent
erv ation
ĠP re
Ġe as
Ġpr ison
' ),
rom ise
ĠB ig
ĠEng ine
ĠT imes
Ġd omin
ĠII I
Ġill ust
ĠT w
ĠYou ng
ans as
Ġmat ter
ĠL icense
os h
Ġis land
ri z
res ponse
iÄ ĩ
ie ce
Ġtr ade
Ġfinal ly
ĠM ost
A PI
ro ot
ic ate
Ġsing les
fl ict
ĠW ood
J ohn
Ġcons ists
Ġcrit ical
Ġw ood
th ing
Cont roller
R el
ĠPro fess
c s
ac her
N A
Ġc ause
Ġon line
Ġsur round
Ġ ir
}^{ (
Ġwh om
. /
ĠL ove
Ġequ ip
Ġopen ing
T ag
x space
m em
Ġbehav ior
^ +
text width
ist ers
ĠTe am
ĠAr ab
ĠJ o
w indow
Ġnew sp
ir ing
Ġw id
il ation
Ġcont aining
T ask
clus ion
Ġchar ge
ic ks
Ġdesc ription
Ġrel ation
Ġf ont
ur i
ig a
Ġgo als
ĠS un
196 2
N ext
Ġc it
ĠFig ure
en ing
V ER
E v
ic i
U I
Ġsol id
ou ri
Ġlin k
ĠFound ation
Ġla unched
( {\
ad y
Ġph il
ĠG ar
ult ural
ĠH ot
ĠN ote
m ond
& =
Ġcom mercial
Ġresult ing
os ing
ĠIn c
h ouse
ĠR o
ir a
Ġinst r
ell ed
ĠG reek
ev el
**************** ****************
ĠSp ain
} |
ĠW al
Ġreg ions
Ð¾ Ð
Ġpo et
ac ement
He ight
st ack
ple te
k ins
val ues
h r
Config uration
196 3
sh ow
Ġh ours
Ġqu e
Ġle vels
ov a
im s
$ {
ĠP ost
ann ot
Ġc rick
Ġt errit
ĠM ax
ra st
ĠH aw
un ior
Ġap i
st d
inn ers
ĠU k
sy nc
ĠE ducation
Ġconfig uration
em ic
ĠL in
Ġpre vent
Ġmag azine
Ġmean ing
D escription
Ġf a
Ġre pe
194 4
ON T
Ġconst raint
g u
im in
G B
Ġra p
Ġ\ {
ang ed
p ol
or ation
par se
ĠC ross
Ġown ed
ĠPenn sylvania
ĠF red
S l
s he
i ography
M on
âĢ ľ
for ce
ĠL ife
Ġext ension
T arget
Ġd ark
W rite
tem plate
alle l
u ge
ĠF e
ĉ ĠĠĠĠĠ
Ġad m
Ġappear ance
p resent
Ġinter view
ven ue
Mem bers
Ġem pty
Ġstud ent
ĠS ocial
ev en
Ġre b
Ġfor ward
m atch
Ġg rant
ol ume
N av
ĠL ee
9 2
Ġcent re
Ġaut o
Ġf iles
l ers
Ġb re
Ġmin utes
C R
Ġsum mer
ĠHe alth
Ġt ag
ĠCh ief
Ġclass ical
ar ia
Ġr ul
ĠVal ley
Ġnecess ary
it ter
Ġdiffer ence
Ġparticular ly
ĠT em
Ġexper ience
Ġcomm ission
Ġy ield
en ge
Ġto day
P R
Ġch ief
cl ose
Ġgen us
Ġleg al
V is
il ename
p ers
Ġdom ain
ĠJ im
F urther
Ġex ec
ent h
id ers
Ġinit ially
ip al
Ġb attle
9 4
anc y
olic y
sh ould
ĠM en
line ar
f s
9 3
ul let
ĠB ank
et ts
air man
Result s
Ġche m
Ġsec urity
Ġdram a
b ury
in et
as er
7 2
P O
ĠG en
Ġsh ape
se ct
Ġp ick
Ġcoll abor
us band
Ġdat as
ĠH T
A F
ript or
ĠâĢ ĺ
Ġsc ope
ru le
Ġactiv ities
Ġrecord s
ĠAss ert
Ġcon clud
or ter
D et
oper at
v ey
serv ice
Ġmed ical
W idget
Ġact ually
r ich
Ġadminist r
Ġsepar ate
< !--
refer ence
in stance
est ed
Ġdev ice
Ġsc ript
Ġm ission
Ġn ature
Ġide a
ir al
Ser ver
ost on
m ann
: (
ĠF C
ĠL og
ay a
Ġpro gress
f it
nt ax
9 1
il ing
Ġ$ (\
Ġcont act
Ġhand le
Ġdr um
Ġmajor ity
~ $
al o
math sf
v a
Ġart icle
er ry
196 1
ino is
yd ro
ol id
ĠB uild
Ġapp ly
ĠA ut
Ġro om
T ree
O pen
ang er
Ġpres ence
d est
operat orn
ic ens
ar ks
ĠI ran
194 2
Ġs uc
Ġprogram s
Ġ util
A ust
U rl
Ġ> =
) -
Ġent ered
Ġneigh bor
Ġoffic er
Ġsim ply
Ġdeterm ined
Ġstre ng
Cur rent
n ormal
Ġrec over
arri age
Ġhe avy
Ġold er
8 4
Ġfig ure
ĠC ro
ot ic
S ing
j av
D B
ĠDemocr atic
ess ages
Ġl ived
A m
Ġar my
Ġv eloc
ĠB ob
ã ĥ
Ġvari ety
Ġfootball er
L S
ach us
ĠP ak
ens ions
en umer
f oo
operatorn ame
erv ices
Ġact ual
Ġcount y
Ġtechn ology
Ġb us
ap ers
Ġ ign
ĠBrit ain
Ġst rict
Ġcon ver
Ġex ception
Ġbuff er
all ow
Ġ ~
7 6
ag ger
ĠDirect or
Acc ess
ib li
Ġh um
Ġproduct s
Ġb ranch
Ġit ems
Prov ider
or al
// /
um in
ĠS outhern
ec ause
is her
ĠD ata
ĠJ ud
Ġdec re
enn is
Ġother wise
195 6
ĠT able
Ġmost ly
ĠC ivil
ĠC amb
ind er
Add ress
l ad
ĠL ibrary
D ocument
ĠMich igan
au ge
Ġ â
angu ages
ã ģ
Å ¡
} :
LA SS
ĠP eople
Ġbl ue
Ġben ef
But ton
res ents
ĠRad io
r or
Ġth reat
pro ject
Ġ* *
Ġs ays
L ayout
8 2
l n
sy ch
ĠC re
195 9
Ġwe b
F inal
Ġfl ag
Mod ule
Ġthem selves
b i
Ġequival ent
im ages
AR T
ĠE rr
195 8
ĠSh ow
Ġsen ior
f n
Ġconstruct ed
ĠR el
D ist
d l
m as
194 8
Ġext ra
Ġneed s
ĠS ar
ĠJ ac
Ġran k
type of
ail y
Ġ{ };
ĠT ro
ĠO x
ound s
Ġequ ations
Ġder ived
ĠA N
Ġs low
Ġf ast
e ks
ĠM ath
Ġwe ak
ad or
Ġre duced
ind s
ĠF ri
ĠScot land
Ġcol lect
}} (
Ġin sp
: #
op l
un ct
he nt
Ġne ut
f ound
Ġprodu ce
Ġc ycl
RE F
P L
ĠR ead
im g
Ġa uth
Ġeconom ic
is hes
Ġse a
Ġopt im
Ġbecom ing
k l
d ocument
ĠPol and
' $
m eta
Ġb rief
t ree
re es
Ġvari ables
Ġb ass
ĠCar l
L ast
ol ute
D at
ir ls
Ent ry
Ġpro file
Ġv ac
a uthor
Head er
Ġb att
achus etts
li e
Ġs ort
al og
}\ \
ĠOh io
ĠP rem
194 1
e ch
R ight
7 4
Ġc arried
193 9
burg h
op ed
Ġcom es
A c
Ġev olution
at ers
Ġqu ality
194 3
Ġgrow th
ĠN S
ĉĉĉĉ ĉĉĉ
S ports
E nc
Ġqu arter
Ġs quad
il a
Ġcandid ate
Ġnumer ous
Ġs ession
n am
ĠEd ward
Ġch oice
Ġelection s
ren ce
en ant
Ġrefer red
var iant
Ġship s
ĠM ah
ect ors
sc r
ĠQue en
1 000
g g
H ash
sc he
Ġann ual
Ġv an
ond s
b uffer
Ġdis e
194 6
195 7
Ġinflu ence
ĠJer sey
t ra
rel ated
Ġsh are
Ġinter pret
Ġn odes
ĠD utch
ĠJ S
Ġh usband
Ġmur der
Ġ ult
pt on
ĠPac ific
Ġfore st
ty p
Ġneg ative
in y
ĠT op
St at
N ational
ĠL ord
Ġc orn
ĠO p
Ġst ay
ran ts
Ġestim ated
fin ished
iqu es
Ġfor ced
Ġst ra
Y ou
Ġex plicit
N ote
cit et
Ġs quare
ĠLem ma
ĠCon ference
Ġar m
ĠG a
D irect
V ar
ĠM P
Ġdep artment
ĠG al
Ġmeet ing
Ġ{ }
Fr ame
ard en
Ġin n
ĠRail way
Ġelect ric
B rit
ĠK ent
ĠAs ia
Ġc ard
ur t
Ġse at
Ġliter ature
UL T
cre te
ĠAs ian
Ġun known
ĠIll inois
od ed
ĠSt ep
ol es
j ection
Ġs plit
aw a
s pect
mat rix
Ġoper ated
8 1
E O
k in
P at
N et
ul s
ĠB ow
Ġb ad
s v
b ot
Ġvict ory
d esc
ĠJ ournal
C S
< ?
d imensional
' .
ĠL uc
port ed
N e
r as
195 5
Ġsom ething
ĠHam ilton
L ocal
P i
Ġf it
f iles
Ġfore ign
Ġimmedi ately
Ġra ised
v est
Ġpre c
Ġ& \
const ruct
Ġet c
c i
roll ed
i y
ĠR am
om ial
Ġre li
Ġsh ift
Ġpolitic ians
ult y
Ġh tt
Ġm ut
im ation
ad el
ĠRep resent
Ġb ottom
Ġparent s
b ool
w riter
act or
r ong
Ġfin ancial
ĠOff ice
195 2
8 3
ĠPro ject
j i
iver se
Ġcol on
Ġform ation
O p
Ġm ixed
Ġpro per
Ġch osen
Ġrelig ious
Ġle ave
Ġerr ors
Ġclaim ed
Ġwest ern
Ġrat io
Ġl ayer
Ġc am
pon ents
fr ame
et ime
st ein
] $
Ġcl uster
Ġtem plate
gy pt
ĠWilliam s
Ġden ote
st one
}} {\
194 7
re v
Ġjo in
ĠAl b
Q ue
Ġwe eks
al let
Ġal gebra
S che
et ch
Exp ression
Ġc ore
Ġs ense
ick er
Ġknow ledge
sk y
D es
Un it
ĠM r
ĠSp ring
ĠCent re
os a
w er
Ġactiv ity
Ġe lev
el a
Ġmagn etic
Ġact ors
ĠL ie
Ġ ice
ĠMass achusetts
reed om
Ġf ederal
ĠGeorg ia
w ait
c at
ĠPhil ipp
Ġful ly
================ ================
{ {
Ã ±
PE CT
Ġexp ansion
em porary
if act
Å Ĥ
ĠJew ish
ĠS oc
Pro t
Ġn omin
Ġar rest
w s
ĠJohn son
Ġtreat ment
L eft
ate gor
Ġco eff
Ġal t
ĠJ ones
Ġcommun ities
iss ions
ĠCo ast
c f
og rap
Ġocc as
Ġfrequ ency
ole c
Pro cess
Ġsh oot
Ġpro ced
ing er
Ġserv ing
Ġprov e
ph y
Ġdist ributed
ĠO f
Ġx ml
Ġret ired
trans form
ĠAl so
ĠĠĠĠĠĠĠĠĠĠĠĠĠĠĠĠ ĠĠĠĠĠĠĠĠĠĠĠĠĠĠĠĠĠĠĠ
P T
Ġcom edy
l ines
Ġp il
Ġmain ly
Ġa mb
se ud
F ONT
Ġf oot
web kit
Ġcont ainer
ĠFrancis co
ĠPort ug
ter m
7 9
Ġsett lement
Ġcomp osed
Ġatt ention
Ġhtt ps
ĠC reate
Ġhigh ly
ĠK ey
Ar t
P o
comm on
c ks
Ġpo or
ib ly
Ġarchitect ure
ĠN etwork
& &
he mat
ant ry
Ġun iversity
Ġhistor ical
Ġagre ement
d es
Ġfe el
it ation
} +\
C ore
ĠThe atre
Ġatt ribute
Ġim plies
ĠGovern or
x x
Ġpress ure
ĠP op
c ard
Ġsw itch
Ġ Å
Ġs u
ent y
Ġl ibrary
Oper ation
Ġn ine
rom e
() ->
D ir
ĠAir port
ert ific
7 3
Ġclub s
old er
Ġrecord ing
Ġth ings
re ct
im er
ul pt
M ult
195 4
jo in
ap ed
ĠM ajor
h ar
ell ig
Ġle aving
ĠSt e
Ġnear ly
Ġre ach
Id ent
D on
ĠB oston
Ġde ad
Ġcomput er
OR T
n es
Em pty
ab eth
ial ize
Ġtrack s
ĠEar th
\ '
ĠPr ince
Ġdeterm ine
Ġb rand
D D
C K
Ġto ken
Ġrespons ible
L ocation
f ree
res ource
Ġc at
Util s
Un ited
ĠBl ue
Ġg reen
Ġcar ry
195 3
Ġt ouch
ĠK ong
ne q
Ġm icro
ir med
Ġw alk
ĠScott ish
Ġun iform
Ġj oint
Ġsuc ceed
ĠCh ild
c ache
} -\
is er
Ġin come
Ġdes cent
K E
ĠPro gram
Ġs ister
Ġsl ight
re nder
\ "
Ġprom in
Ġmov ie
Param eter
Ġf ix
leg ate
Ġf le
ĠThe refore
Ġb ig
Ġg reater
ĠIn it
os oph
Ġident ity
P tr
Ġm aster
por ation
Ġ eth
ĠG ood
y g
on ym
Ġdis s
ã Ĥ
cont in
Pos ition
194 9
tern et
ĠL u
eng er
Brit ish
Acc ording
epend ence
Ġserv e
call back
Ġcap acity
ĠPl aces
Ġim pro
Ġsubsequ ently
Ġc ref
Ġc ategory
af ety
Ġch ain
i ated
Ġindividual s
ĠC all
ĠChe ck
Th read
ĠG ener
ĠThe ir
Ġc le
Ġv ote
Ġsh ared
el er
Ġrep resents
Ġdescrib e
Ġinc orpor
art ers
ĠB et
Ġas ked
urb an
sh ift
nav bar
Ġdist inct
ĠN ow
ik i
Ġpos itions
on ia
195 1
Ġv s
struct ure
ĠEn ter
Ġre ally
F T
ism s
O ption
ff ic
C ar
ĠR un
Ġc ouncil
Ġl if
S H
Ġto ld
Ġrecent ly
Ġoffic ers
ĠB ern
Ġident ified
ud io
ĠEast ern
i ate
Ġacqu ired
b ind
M M
Ġ- \
7 1
ak ers
am l
C ons
Ġturn ed
a ver
h space
ran ce
Ġsche me
equ al
Ġn amespace
Ġh yp
at uring
Ġh ockey
ĠHe ad
ĠB ul
A V
Ġn orm
s ign
ĠĠĠ Ċ
ĠS and
Param s
Ġsol utions
ĠF ile
I ter
Ġv on
K ind
ma z
ĠIs lam
ĠOx ford
Ġmunicip ality
Ġbas ic
W orld
D em
hed ule
Ġmention ed
iz ont
V AL
ric es
Ġconc ert
y es
Ġpre p
Ġsc ene
enumer ate
Ġperson nel
ĠL y
ĠB ang
Ġreg ional
}} }
Ġhel ped
ro t
it age
ĠV an
r b
k g
ĠM ov
Ġre comm
m ode
ĠJ r
Ġf loat
ĠM ap
ion e
c p
un a
Ġbeliev ed
ĠH and
Ġus ers
ĠSpec ial
Ġman aged
as hed
b efore
ĠI d
] \
Ġtyp ically
S R
sec ut
Ġ( '
Ġm useum
if ies
Ġw ait
ot ing
ay lor
Ġprofess or
ĠLat in
Ġass igned
the orem
L a
Ġdes pite
eder ation
Cont rol
ĠSen ate
Ġbel ong
il ly
ĠG ame
E Q
Ġcomb ined
ag ment
ĠH ung
Ġmov ing
Ġrequ ires
Ġres ources
Ġstat ement
Ġ* )
Ġprob ably
H ost
r ical
Ġsp read
Ġspect rum
res hold
out heast
ce an
am in
ĠDev elopment
P A
a a
ĠPl ay
M eta
ĠBel g
P ack
ĠĠĠĠĠĠĠĠĠĠĠĠĠĠĠĠ ĠĠĠĠĠ
ĠS pe
ĉĉ Ċ
y er
) }{
ont o
cher s
ĠC ard
Ġproject s
con s
Ġcell s
f ect
e z
| ^
by te
ĠCol or
ĠL i
u v
Ġfam ous
en um
Ġparam s
er c
Ġbeg in
av ed
Ġcon flict
Ġown er
Ġhas h
ĠPol ish
g ence
C ast
Ã £
wh ile
che n
193 6
h igh
Ġoffer ed
Ġcit iz
che ster
f ort
Ġc ache
Ġn av
l as
Ġveloc ity
Ġwant ed
Ġorder ed
ĠSt an
Ġorgan izations
ĠComm on
med ia
Ġcompet ed
$ (
ĠB re
te en
Ġsem i
ĠColumb ia
Ġa ctions
Ġpar se
ex ec
it ory
N ames
ore t
Ġ Î
ern el
Ġag ent
oc ated
Ġab ility
h ash
Ġs ociety
ate gy
Ġc ities
Ġcover ed
Ġcon cent
ĠT ri
ĠH or
ĠSe a
ow ers
St ore
ograph ic
ĠBro ad
ransp arent
no indent
Ġmin imum
am m
Ob j
Ġdim ension
X X
th ur
o ir
" |
`` `
Ġhe art
Ġmot ion
D S
) }$
ĠM u
Ġp adding
Ġun ivers
Ġre ject
25 5
ĠJ ean
ĠL ab
igh ter
t ml
F O
ĠM iddle
i pe
N N
math scr
Ġs ure
Ġe arned
ĠM id
und red
Ġ$ .
Ġw ave
Ġs ites
ur ies
Ġal leg
$ }
" ))
ĠSec retary
ĠD ar
d ebug
c ut
ĠO F
}} _
p ool
yd ney
Ġd ou
Ġcele br
19 18
Ġst ories
Sc ript
Ġ[ ];
W ill
Ġimplement ation
Ġth r
est s
Ġop port
Ch ange
ĠE gypt
ĠB oth
ĠF I
Ġsurv ey
Ġpl ans
ze ch
Ġcont rast
ĠN ight
Pro perties
ĠP oint
us c
ĠEX PECT
Ġpart ies
ĠW ay
ĠR ay
d irect
M C
ĠC reek
Ġdoes n
ĠI S
ic ine
Ġrece ive
Ġb ridge
Ã¡ n
Con nection
Ġlet ter
Ġd raft
Ġsay ing
Ġappear ances
or ough
Ġex amples
The n
ric ts
Ġsuff icient
ĠCor ps
ect s
Ġl ot
Ġdiscover ed
" `
L I
In st
P ost
Ġestim ate
ĠL ater
193 8
Ġcomplet ely
d el
Ġfri ends
ch or
item ize
Ġs end
Ġfor t
' re
R ev
ĠW is
ĠSt ation
Hand le
ĠB ol
ĠS ol
E ach
Ġbase ball
ĠW all
Ġp p
ict ed
ĠS T
Ġhous es
Ġlead s
( *
D om
Ġp anel
Ġg auge
Ġeast ern
Ġg rav
) /
R I
Ġfe ed
f ocus
un finished
ut enant
G u
ms g
ĠO ur
Ġc er
ym pt
Ġy outh
L evel
Ġle arn
asc ript
ĠBer lin
Ġoper ators
ĠÂ £
ĠH ong
sec ond
ĠE ach
Ġent er
ĠĠĠĠĠĠĠĠĠĠĠĠĠĠĠĠ ĠĠĠĠ
at ically
Ġvers ions
Ġnear by
mult icol
Ġm achine
ĠM any
atal og
ĠAlex ander
Ġepis odes
ff ff
ĠVictor ia
ann els
Back ground
h or
M O
D own
H ttp
ĠH a
M usic
193 7
z o
Ġdat abase
Ġg iving
l ate
ĠG ra
orn ing
Ġ< !--
ynch ron
hand le
ent ially
Ġv oice
Ġsit uation
ĠU s
Ġl ies
Ġl anguages
Ġlaw s
Ġpro test
Ġpur pose
ĠM ot
appro x
Ġpl ot
Ġdep art
Ġsett ings
Ġa wards
Ass ert
ĠE p
wh ite
Ġw inner
Param eters
#### ####
in ity
Ġl ives
Ġsm ooth
ĠT O
Ġo il
pos ite
AT ION
âĢ ¦
ell i
CO L
C opy
cl aim
multicol umn
M ark
Ġiss ued
ĠJack son
s ite
end ar
ĠArg ent
Ġ\ ;
ĠL o
if ically
Ġsc hedul
b as
C P
ĠKore a
Refer ence
j e
Ġtro ops
ĠO R
15 0
G ET
Ġm arriage
W est
Ġap plications
s ur
are t
co pe
Ġmet ric
ĠH ome
Ġan c
Ġint ended
nt ario
g a
ell er
Ġvis it
f a
i able
Ġuse ful
Ġtest s
ĠAnd rew
C al
t ain
s or
ĠIs lands
Ġst ack
ro vers
re q
") );
Ġin ner
ĠU N
Ġfav or
ĠK en
Ġcom ing
Set tings
enn es
D isc
ĠPol ice
Z E
Ġexp atriate
Ġquick ly
__ (
c opy
Ġdr ug
g rid
ĠH ere
Un iversity
param eter
\ ,\
ĠW ild
b ro
ag ers
Ġon es
ĠEl iz
.. ..
el d
ĠL ittle
Ġh ar
ĠF our
Ġs uit
Or der
r at
ĠB BC
ĠS und
ĠC at
im inal
N AME
P od
S L
Ġg un
Ġsus p
ĠBro ok
v space
Ass ociation
Ġr ing
N ow
ĠT am
n orm
Ġcall s
M E
ĠA li
per or
s pe
N E
Aust ral
Ġmet al
Ġprom oted
M D
Ġf ramework
set s
b oolean
Ġcon sequ
ĠC apt
AC K
ĠOlymp ic
lev ant
re place
Ġh ospital
Ġcomp act
ĠA k
ĠP ubl
b order
P ol
By tes
AN D
pos es
Ġin h
ĠE lect
` .
y o
ĠF urther
Ġm ill
Ġn om
Ġpl ane
AL L
uck y
izont al
ĠMed ia
Ġwork ers
% ;
Ġass ign
Ġeas ily
Rec ord
) +
St orage
Ġder iv
Ġcult ural
Ġshow ed
ĠOff icial
ang ular
_ ;
t oken
ĠF ire
Th at
= {
st ep
ĠJ es
Ġp od
Ġcre ation
Ġstra ight
app ly
Ġthe orem
Ġ ensure
Ġtransfer red
ERR OR
Ġex change
l ayout
Ġconduct ed
ĠB ir
Ġfif th
Ġover ride
ph ia
D i
() :
> ,
Ġ( *
Ġ ),
ĠIn st
ic ed
ific ations
n ic
ol ver
-- -
Ġprov ince
ron ze
Ġgener ation
Ġdiv ided
olog ist
Ġexist ence
Ġgener ate
inn es
itz er
ĠV ill
ĠW ater
B ody
ĠSt and
let on
ĠComm and
ĠM ethod
Ġfail ure
ab ilities
P ublic
ĠReg ion
Person al
g raph
v ector
r ary
M atch
Ġb al
Ġins ert
Ġprim arily
ĠC orn
ition ally
Ġcontinu ous
Ġvis ual
c ar
S earch
f ri
ĠR og
ĠL im
Ã£ o
ro om
Ġag reed
Ġreve aled
Ġappro p
Ġs al
ĠRepublic an
ĠS ydney
h s
193 5
N one
Ġman if
Ġf ellow
s ystem
Ġex am
Read er
ä ¸
Ġaccept ed
Ġf irm
Ġexecut ive
text tt
ĠF ar
Ġlo op
d im
Ġst orage
de lete
Ġac com
ell ar
in f
ĠB C
em y
or i
Ġkey s
ĠK enn
Ġh arm
h ing
w eg
Ġocc urs
In valid
Ġinter action
adel phia
Ġnewsp aper
ĠE st
al ion
ĠC a
ĠTechn ology
Ġoccur red
stit ution
os m
ĠErr or
innes ota
s en
Ġassist ant
Ġcom pl
P olicy
ĠDan iel
Ġadopt ed
ĠEx ception
Ġarr ived
l aw
Ä ±
ĠB ell
f aces
ce st
web pack
p an
ĠB and
Ġex ternal
\ }$
Ġin fin
Time out
ra wn
P olit
R ed
L ong
Ġrel atively
Pro p
Ġwh y
ĠC ON
ock er
} '
Ġdem and
ou red
ĠR os
D o
Ġmap s
Ã ¸
le ep
ĠB oy
Ġas pect
Ġstat istics
ĠA ff
bour ne
put e
ĠIn f
Ġprocess es
ĠReg iment
ĠPri ze
M y
Ġc lean
ak i
Arg s
Ġin form
% )
19 19
Ġhe nce
Ġre form
ĠW indow
Ġan sw
Ġoper ating
hes is
ist ent
am ber
Ġcont ribution
ĠUS A
ĠKore an
Ġt alk
^ -
Ġe igen
ĠO ntario
Ġs amples
Ġres idents
F ont
Ġf re
ĠS ports
ad ian
Ġse em
Ġfl at
Ġdiscuss ed
ort heast
Ġon to
, âĢĿ
c r
Ġra ise
m i
Ġre duce
il arly
Ġgo es
N on
ĠJ oe
Ġsc ulpt
ether lands
ynam ic
Ġfe aturing
ĠV iet
Ġlead ers
% %
uc ed
ian ts
b ec
ĠH ospital
ĠS om
Ġp ra
ors hip
typ es
ĠP ass
Ġprov iding
Ġle aves
Ġ+ +
ST R
ap se
Ġhon or
P ass
Ġsec ret
19 14
in ternal
Ġgrad uated
ĠJust ice
D C
ef e
ty ped
ĠP ower
CO DE
ĠB att
Sy mbol
Ġalong side
um es
Ġhy per
Ġr isk
ins on
S ign
Ġcre ating
Ġcommon ly
Ġdr iver
Ġt al
ĠGu ard
S o
Ser ial
ĠR oute
ĠCor poration
Ġatt ract
Ġform al
Ġdel iver
Ġby tes
Ġconstit u
Ġstr ategy
n ers
ĠE conom
) "
dis abled
ĠL ight
Ġax is
ĠP en
G o
G eneral
a ug
Ġfact ors
Ġw all
ic ons
ĠWil son
S A
1 20
ris on
Ġcompar ison
Ġv en
wid get
s d
sc ription
Ġbe y
ĠRev olution
Ġth read
Ġr ac
R ad
min us
am i
Ġanc ient
Ġser ial
yn omial
Ġref lect
ĠSup reme
rop ical
ĠPr ime
Wh ile
ĠB ab
A sync
ĠMus lim
ĠJ on
Ġass ociation
t og
Ġa im
Ġded icated
Ġobserv ations
ibli ography
ul f
ĠJ eff
Ġs port
193 3
d eg
Ġfact ory
S ession
ra ine
Ġn et
19 29
ĠR ome
Ġqu ite
it o
agn ost
Ġf un
W riter
Ġart icles
St ack
Ġcapt ured
to String
up le
ĠD er
che stra
Ġchall eng
Ġa thlet
Ġsil ver
anc ing
193 4
ĠW in
M e
Ġseg ment
se x
en v
ĠR aj
P arent
ĠH uman
Val ues
Ġ\ |
u ilt
L P
h over
ĠC as
ĠA venue
Ġcre w
att ice
Ġlist ing
ĠM ir
ĠE vent
ĠB a
ant a
{ $
D ep
Ġ _{
an th
Ġtri al
Ġhead er
Ġcur ve
ag a
Ġeffort s
Pro ject
app ed
Ġsold iers
us es
key s
}} ,
ĠC LASS
Ġsecond ary
Ġvert ex
Ġbey ond
ĠT od
ut ional
SS ERT
Ġsh all
ĠG i
ĠMin istry
Ġno ise
19 28
ĠCol lection
Ġren amed
Ġthe rm
Ġn ation
g lobal
ĠA sh
ĠTh ree
Ġinstance of
Ġra re
a uth
ĠR od
V er
con sin
Ġa st
Ġwe ap
ar ant
Ġadministr ative
Ġadminist ration
Ġres olution
im b
as ure
Ã© e
Ġcho ose
ĠS i
Ġdig ital
D oc
d x
ĠD ate
pl ed
od ies
Ġp it
Ġconf irmed
v in
T ool
ĠB i
ig ration
est abl
19 17
ĠT re
Ġpro ceed
b its
19 10
w ater
ĠB usiness
Ġcont ained
ad r
ĠD E
ĠF ederal
~~ ~~
ĠS a
imens ions
cont rol
Ġin fo
Ġinteg er
Ġp refer
Ġrepresent ing
ĠF ollowing
Ġachiev ed
Ġrap id
p atch
Ġmark ed
Ġterm in
Ġslight ly
ĠB on
19 32
Ġg rid
ĠA thlet
IG N
ĠEx t
ĠL ew
Ġ< =
Ð º
ĠB al
os l
ĠO s
Ġacadem ic
Ġform ula
qu arters
ook s
ple x
sh ot
erv ative
Ġp urs
EX T
h u
: </
let ed
S outh
Ġassum ed
Ġmed ian
ĠOr gan
Ent ity
Ġdestroy ed
O wn
Ġp ull
19 00
< \
ow a
util s
Ġcont ributions
Ġpr iv
U P
ĠTor onto
per ial
F ound
Ġexpand ed
Ġorgan ized
ĠS ong
Ġe lem
ĠH y
olit an
Ġdel ay
Ġwid ely
em et
ĠN ations
ĠEliz abeth
on ed
al so
Ġmusic ians
col l
B efore
ĠSc iences
ent er
D A
ly n
ĠQue ens
ĠT aylor
jav ascript
Ġro b
Ġm olec
ĠRev iew
ang es
Ġact ing
ut t
S m
Im pl
Ġext ract
ĠB ra
t ask
Ġ era
Ġar bit
ash ion
ĠPak istan
Ġnetwork s
Ġres ist
Ġf loor
ĠV is
est amp
Ġsc atter
Ġre nder
ĠAr m
Ġtype of
st op
Ġsuggest ed
Ġprogram ming
The ta
Ġf air
Ġoff ers
p y
Ġem ission
ask a
ect ive
Ġw inners
ĠAnt on
R ender
Ġpromin ent
Ġad ult
Hel per
Ġdise ase
Ġdi agram
ro g
ĠT ok
leg al
Ġclass ification
Ã º
H P
om er
Ġdecl ared
AT A
ath an
Ġpl anned
ix el
ĠSt adium
Ġmunicip al
Ġrepl ace
ĠProfess or
S k
Ġgalax ies
ĠB rad
con f
er ies
isl ative
Ġsp aces
ĠMar sh
if fer
ins ert
ĠB ad
R ect
}^{ -
under line
Ġcomb ination
M ay
Ġsol o
Ġaltern ative
ĠM arg
fr ont
ĠD uke
Ġsy nt
inter face
Ġallow ing
Ġmount ain
omet ric
Ġp et
Ġg irl
r ons
Ġ ut
S cope
Ð »
ur er
Ġw ild
ĠE qu
b uf
com ing
p lement
Ġrad ius
ĠPe ak
` ,
Ġpartic les
i ec
Ġoffic ially
Ġexperiment al
Ġpartic le
G erman
ĠO tt
B oolean
193 1
Ġ[ '
O lymp
pro d
V ID
19 22
Ġimpro ve
AA AA
Ev ents
Ġparticip ated
ellig ence
CT ION
ĠV en
ĠCh ris
m itted
Ġdo ing
ĠCamb ridge
a is
ĠN etherlands
c lear
Ġmaterial s
ĠPrem ier
}} _{
Ġdist ingu
ĠMed al
emet ery
Ġcou ple
n ames
19 24
In ternational
Ġl y
Ġpar ish
Ġro ll
= (
point s
Ġthem e
ĠF unction
Ġro les
Ġdep th
field s
ĠSwed ish
weg ian
ful ly
B iography
F rench
Ġadv ant
am ing
Ġexp ressed
Ġde lete
ĠH REF
Ġr aces
EN D
ri e
H is
ĠN ame
Ġsignificant ly
Ġp al
Ġnot able
Ġp an
Ġtechn iques
ĠM ike
M ore
m ut
u ations
ac cess
Ġst eps
Ġse ems
ĠN C
Ġfl ux
Ġpart ner
Ġmin ister
ak h
ĠTr ue
Ġcl ust
Ġequip ment
ĠTur k
Ġr ugby
Ġtest ing
l ar
ĠUn ivers
st ore
ĠL es
Ġfl ight
ig in
Ġr ural
Ġinstr ument
Int eger
ĠR en
P RE
Ġw ays
e ach
ĠM innesota
Ġassert Equals
Ġst reet
Ġ" \
Ġatt end
Ġc arri
ul k
V D
l an
Ġw ing
19 27
ĠComm unity
it led
ĠSant a
Ġattack s
h ol
ĠG ro
sc ape
ploy ment
Ġg rew
ell o
Ġm is
ott ed
Ġdatas et
Ġp ert
ĠS us
TE ST
ĠStep hen
ĠSt at
oth ing
Ġe asy
Ġmeas ured
d agger
Ġl abor
rop y
j oy
orn ey
Ġfac ilities
Ġh undred
Ġreview s
Ġtit les
Ġexper iments
let s
Ġch ampion
Ġsp ring
al g
s cal
: \
ĠC ub
Ġre ports
Ġw atch
SE T
subset eq
ĠV alue
F R
Ġhost ed
Ġtra ffic
L L
ĠPhil adelphia
Ġdec om
Ġs ave
=" _
19 21
Ġd ual
Ġt or
Ġget s
_ ,
ĠF er
Ġd ance
ĠBr ig
L in
y ard
yth on
Ġcompos er
ĠW hat
Ġc ars
ry st
ĠStud ies
Ġw or
ĠInd ust
Ġc ycle
d epend
O K
V ector
ra q
Ġtw ice
TR Y
Ġ ens
Ġprov ed
reg on
Ġnew ly
ĠGo ogle
ĠM ember
oot st
Tem plate
z ero
Ġenc our
ĠK ir
Ġh ydro
Ġfin ish
ap es
ĠB ack
ĠWis consin
l ia
Ġhousehold s
Ġbound ed
ip eline
W E
Ġac comp
Ġmod ified
ur ches
Ġmot or
ĠF re
Ġlarg ely
Ġhand ler
ĠFore st
ĠS ab
U RE
ĠW alk
omorph ism
On ly
ĠC irc
ĠS her
Ġs urn
Ġnot hing
edd ing
Ġle tt
bl ack
n i
ian g
Ġor ient
Ġcon ference
Ġcan cer
op her
text rm
Ġb inary
Ġf unc
ri ev
s end
H owever
Ġpart ial
Ġtr igger
H L
Ġser ious
fr am
. '
Ġres pond
def inition
ĠW ars
De lete
t ure
v an
ĠK im
Ġp airs
Ġke pt
ĠR om
Ġcont rovers
Ġbl ocks
Ġ( -
ĠH ind
Men u
ro ke
Met adata
p a
ĠB ridge
Ġuns igned
B L
ĠS quad
AG E
Ġby te
Ġr ates
em on
m iss
est ic
19 25
Ġstreng th
ĠOn ly
TE X
ĠR E
Ġag ric
ke ep
ang a
olog ies
G r
Ġp sych
S um
ast y
ĠL ady
_ +
ĠT ai
ĠS em
u ous
ĠSer b
ĠSh ort
as i
Arg ument
ĠF ree
T IM
19 26
Ġpl ants
ĠF air
Ġb omb
ast e
H S
Ġconsist ent
ĠM aster
eg o
Ġro ut
Ġth ous
Ġre ct
D R
Ġhistor ic
Ġsymmet ry
R et
ĠAn th
Ġcitiz ens
F alse
Ġal one
19 12
Trans port
Sche ma
Ġla unch
ĠT y
ĠB udd
Ġpro pos
cl ick
Ġinstit utions
19 23
D P
z en
om ot
Ġp iece
EC K
Ġperm an
ym ph
j an
Ġ$\ {
Ġbe at
Ġneighbor hood
k et
Ġs ector
ĠCl ark
y al
ĠTown ship
ĠB ishop
F unc
foot note
ul y
ĠIndian a
ĠD oug
ĠW at
B E
Ġpol ynomial
ĠĠĠĠĠĠĠĠĠĠĠĠĠĠĠĠ ĠĠ
R oot
t im
Ġdam age
N um
Ġse ek
V olume
Ġan gle
Ġserv es
medi ate
o or
m aster
ĠD own
Ġauth ors
ĠH an
Ġcomp ute
Ġprinc ipal
ĠB h
ol is
Ġse ctions
A v
lim its
uck et
ud get
os is
typed ef
ĠAn other
Ġco al
ann a
Ġte acher
A wards
add ress
Ġdefe at
Ġn arrow
Ġpar allel
ip her
I A
ĠA z
ici ency
ro duction
Ġv otes
Ġl ock
ootst rap
ĠĠĠĠĠĠĠĠĠĠĠĠĠĠĠĠĠĠĠĠĠĠĠĠĠĠĠĠĠĠĠĠ ĠĠĠĠĠĠĠĠĠĠĠĠĠĠĠĠĠĠĠĠĠĠĠĠĠĠĠĠĠĠĠĠ
u ing
ĠC zech
Ġabs olute
ert o
ĠD isc
Ġprop ag
at ial
Ġb lood
S ome
ĠMan agement
W omen
s ch
n ap
pr imary
Ġengine ering
N ov
ĠG ree
reg ister
) ">
~ $\
Ġfig ures
Ġbeg ins
Ġsecond s
Ġhous ing
Ã ¢
Ġmedal ists
Ġw rest
Ġ$ -
com ponent
cm d
ĠSwed en
Ġsuccessful ly
Ġ} )
Ġe mp
ew idth
Ġs am
8 00
Ġs yn
Ġcan cell
Ġp iano
ĠMc C
b al
Olymp ic
child ren
op es
Ġf elt
un es
p g
u ction
ic er
or gan
ĠW inter
19 16
ap ore
ĠP u
k es
Ġ( $\
ac ent
._ _
ain e
ĠU RL
Ġindic ates
Ġdis k
ĠDes pite
Ġp ool
D raw
her it
ĠPh ys
Ġs qu
Ġext rem
ĠE ll
rop olitan
HT ML
Ġsp irit
ĠY our
H as
w orth
Ä į
ĠH ay
ens is
Ġclaim s
sc roll
ĠMed ical
ost er
ertific ate
ĠP ers
Ġloc ations
set minus
Ġnuc lear
Ġc e
ik a
Ġ$ {
Ġtre es
Ġexact ly
ĠMod el
ri or
Ġtit led
Ġsubsequ ent
ament al
ad s
19 15
ennes see
Ġs oc
c ow
Ġj ourn
ĠInd ones
st yles
Ġrecogn ized
Se lect
Ġv ary
ren cy
ĠD am
= -
Ġs ides
lo ok
Ġproced ure
u ce
25 0
ĠU se
Ġcall ing
Ġre levant
S ources
b ullet
se ason
Ġpurch ased
em an
) |
Ġstart s
d y
Ġnov els
Ġc ategor
Ġtrans lation
C or
Ġdep ends
un te
Ġtra ined
amb ig
ran k
Ġb oy
ck now
ĠCh annel
ph as
duc ing
Se lector
l iving
Ġtown s
ĠW el
Ġt ensor
ĠBe ach
Ġengine er
ĠW eek
h ard
Ġtyp ical
igh th
AN T
Ġgrow ing
ict ures
sup er
ĠN az
Ġnot es
( :
Ġcr ime
N etwork
Ġest ate
ĠK al
Ġ$ |
$ _
H z
Ġro ugh
Ġlead ership
ĠS on
Ġfem ales
Ġen h
Ġgrant ed
Dat abase
St ruct
f ix
Ġindust rial
ol i
it ness
and ra
Ġindic ate
z h
opl us
Ġconvert ed
Ġdid n
Ġterrit ory
Ġb ill
Ġcons um
Ġcop ies
ĠE lement
En abled
Ġm iles
id i
Ġsurround ing
ĠGold en
Ġpar liament
Ġreturn ing
Ġact s
T ax
mod els
B undle
Ġdynam ics
ĠA st
Ġcontin ues
cl es
result s
ĠM ill
Ar ch
Ġpolit ics
Ġpol y
ap pe
set tings
t w
' m
_ ->
or iginal
iv ial
Ġup dated
Ġtri ed
ĠM ilitary
Se ction
Ġs afety
Ġcomp are
ĠJ oh
ĠI V
S M
ĠSec urity
\ }
Ġp ages
Ġel imin
Ġs ales
Ġend s
C re
def ined
Ġp hen
Ġresult ed
Ġmeas ures
osoph y
ill ery
riz ona
pl om
Ġperform ances
Ġv ess
ĠE nt
V ideo
Ġcont est
p et
Ġ ::
Ġfound er
est er
ĠH un
ĠL ev
Ġre asons
Ġf ine
gr ade
ist ical
int on
Ġget ting
ar c
ĠI O
ĠCol on
Ġvert ices
im ately
ĠWindow s
Ġg ained
f ull
Ġofficial s
Ġveh icle
Ġcandid ates
ĠL ive
' ],
Ġvis ible
Ġinterest ing
ru it
au x
S ch
ĠAd minist
w edge
Ġabs or
ĠO regon
B ibliography
Ġlook ing
12 8
Ġ il
ps on
Ġtr ust
Ġunder stand
Ġapprop riate
ĠCount ry
ĠR equ
Ġst one
ĠH ard
Can adian
By te
H igh
class es
equ als
ĠK el
are n
Ġin line
ater n
Ġsex ual
OR M
f ef
Pop ulated
Ġr ise
d ouble
h y
ĠAr thur
N G
pr ise
ĠMar ia
w ing
P arser
Ġpol ar
ĠMiss ouri
Ġveh icles
-------------------------------- --------------------------------
)) )
Sports people
Ġview s
hed ral
we et
hold er
Ġt ells
Ġdet ail
Ġl ie
Ġshe ll
Def inition
anc el
T ra
ĠF ox
Ġh idden
Ġl ab
Ġprot ect
The se
Ġsw im
Ġport ion
Ġdr ive
_{ -
Ġinteg ral
align ed
Ġvert ical
ĠA R
w rap
ac c
M ember
Ġed ges
Ġpat ients
ĠDav is
ĠR et
anc er
Ġab and
ĠJS ON
Ġinteg r
Ġst able
Ġdirect ory
ne ctions
ud es
ug ins
res p
m ake
o is
con nect
Ġtry ing
Ġfac ulty
Ġrefer ences
og s
ĠM unicip
Ġres ident
Ġl iber
T im
Ġbeliev e
m ad
go ing
ord ers
Ġapp arent
T ER
ĠI l
Ġpack age
ĠJac ob
Ġse ats
Ġdocument ary
r ine
Ġperform ing
r ig
ĠRepresent atives
ĠAtl antic
ic ian
ĠT al
ĠH o
19 13
ĠSt eve
Ġ urban
Ġcont emporary
Ġp aid
Ġh abit
Ġord ers
Ġc art
Ġb ow
sh ort
u y
_{ {\
at rix
Ġpol ic
t wo
ĠA h
Ġshow ing
Ġdescrib es
het ic
Ġcalc ulated
pl ugin
ce ived
Ġcapt ure
ĠCon f
ĠR on
ĠM oh
Ġsuff ered
ĠPol it
is a
i Ã³n
\! \!
OR D
v m
D el
Ġcomm ittee
Que ue
ĠA rea
Ġm ind
ĠL ocal
l ife
se ar
Ġf iction
ast ers
z y
ĠT er
Ge ography
reate st
_ (
ĠSp ace
Ġw ind
ĠCapt ain
ĠDes ign
ilt ers
ĠCast le
ax is
Ġex c
Ġmoment um
ĠG allery
Ġstring s
ĠBar on
O G
fef efe
ĠCon nect
Ġapproxim ation
ĠCon st
ĠC ode
ĠW he
ĠB all
ĠHigh way
Ġprocess ing
y nc
ĠG er
T A
Ġl i
Ġ( ;
ĠF amily
ĠColor ado
Ġp ure
Ġatt ributes
clus ive
Ġhe av
ĠS D
ĠG reg
Ġconstraint s
an es
Ġadv anced
Ġinsp ired
Sec ond
H ere
Ġpr ice
s ession
ĠV i
H O
f amily
ĠTur key
Ġdec ay
Ġm sg
Ġinstall ed
Ġbe aut
aw s
ack s
ĠA uthor
ear s
al ing
ĠF ederation
Ġfocus ed
att ribute
enn a
at in
L oc
6 00
Ġt asks
ag an
ad ing
Ġincre ases
ĠEngine ering
Ġass ess
ĠM un
M B
Ġm ac
Ġz one
ĠPhilipp ines
Ġtechn ical
Ġdist ricts
X ml
' \
Ġf ell
west ern
EN TRY
J apan
p ur
Ġsc oring
Ġapp end
Window s
W A
R ule
Ġcl imate
ĠI raq
m ers
Ġesc ape
Ġrest aur
Ġnumer ical
s ince
Ġ$ [
Ġran ked
Ġre nd
ĠH art
ire ment
ĠS ervices
Ġat tr
b les
av el
ta il
tain ment
Ġc ab
) ),
og y
we alth
Ġcorn er
ĠT ennessee
Ġme ant
n eg
Ġcou pling
pos s
Ġrec all
fram ework
gorith ms
Ġstr ateg
Ġdiffer ences
old s
form er
form ance
v ard
Ġadd ing
ĠâĢ ł
ĠN orm
_{ (
Ġchem ical
Ġscient ific
ĠMount ain
b ad
Ġch annels
Ġo s
ĠJew s
f red
re ll
mult i
St r
19 11
Ä ĥ
Ġth ick
ĠRe al
Ġ" /
ĠĠĠĠĠĠĠĠĠĠĠĠĠĠĠĠĠĠĠĠĠĠĠĠĠĠĠĠĠĠĠĠ ĠĠĠĠĠĠĠ
Ġan alog
ĠS u
ĠT ext
ĠK ansas
ĠH al
tr igger
ĠG ets
dep th
Ġsp ons
Ġf ish
C ond
ran e
Ġy ards
Ġf raction
Ġl attice
col lection
Iter ator
ĠG h
Ġ rom
Ġport ray
^{ -\
ĠR a
ord on
Ġhand s
20 23
lin ewidth
Ġemploy ed
ĠBase ball
Ġse vent
Ġl osing
Ġreg ime
ĠNor way
Ġregister ed
ch a
ĠMary land
Ġregard ing
Ġcorrespond s
Pat tern
Ġdet ailed
Ġcompos ition
ĠB ecause
Ġen joy
ĠMex ican
ĠMem orial
Ã¼ r
item s
B est
Ġdef end
Ġinter val
Ġam plit
Ġdoc uments
Ġband s
c ustom
Ġar ts
Ġpass ing
Ġaccur acy
Ġbehav i
drop down
ĠHT ML
g ers
Ġjournal ist
ic ients
ĠP it
ÃŃ a
Ġdet ection
ĠDef ault
Ġp seud
rad ius
call ed
ĠComm un
ĠBook s
Ġsch olar
im it
Ġsh op
ĠD ig
Ġis ol
ĠRep ort
_ *
Act ive
ĠB ru
Ġprot ocol
L eg
ĠSl ov
) {\
ain ts
Style ID
and y
ov ed
Ġstrong ly
ĠP y
Ġident ify
COL OR
dev ice
ĠR ose
Ġgovern or
ĠN a
Ġdeg rees
Ġcommun ication
inc ial
doc s
ab il
C ustom
T S
r in
ĠT HE
Ġp le
Ġb ronze
' ))
h aps
Ar r
Ġdev ices
Ġex ports
M ain
t i
ing ham
ig rants
| }
Ġcoordin ates
og en
ĠJ unior
Ġprote ction
25 6
Ġm ask
ook ie
semb le
Ġear th
Ġcol lected
iec es
oper ation
U se
rit ical
ĠMel bourne
Ġauthor ities
Field s
ac ew
oc ese
l ay
ĠFred er
ev ents
ĉ ĠĠĠĠĠĠĠĠĠĠĠĠĠĠĠ
S QL
ac le
ĠCol l
ĠV o
Ġspect ral
W S
ord an
Â °
Ġfac ility
Ġg ain
Ġd iam
ĠN umber
Ġm orph
k h
ĠM ic
big g
Ġrec ip
Ġg ra
Ø §
agon al
Ġre sear
Ġattempt s
st at
II I
Ġvill ages
Ext ension
ĠM icrosoft
Ġf reedom
Ġadv ance
Ġt aught
r ac
ĠI P
ĠUk raine
en ers
G en
inal s
ĠL abor
Ġpre par
ĠK han
t ip
equ ality
ever al
e en
Ġpain ting
rec ated
Ġimport ance
T wo
ĠIn formation
ach ment
> .
} %
Se lected
Ġrepresent ative
H ar
st o
ĠS av
Ġch airman
ĠP ier
ĠE nc
s uch
ĠLew is
De ath
ĉ ĠĠĠĠĠĠĠĠ
F ollowing
AC E
Ġext end
ex port
Ġsup ply
190 8
ĠBro ther
iter ator
Ġcl oud
Desc riptor
maz on
Ġem phas
Ġ' /
ict ional
ĠN OT
Ġcolumn s
Ġyoung er
ĠH ence
ĠN iger
Ġl icense
ĠMos cow
aw n
Ġpublic ation
ues e
ĠChrist mas
ĠB at
Dev ice
Ġpower ful
Ġinc ident
Ġdiscuss ion
sh ape
se lected
ĠC H
Ġmin im
Ġnomin ated
tog gle
C F
if ul
oll ary
Ġb illion
anc ell
ah oma
ap el
n ership
A pi
Ġinj ury
Ġsome one
Ġad vert
Ġper fect
Ġcamp us
ner gy
Ġdrop ped
N amespace
Ġc tx
Ġeduc ated
Ġw orth
spec ial
ĠTrans port
Ġpert urb
1 10
G R
yn asty
ĠLe on
Ġtyp ename
ĠTr ust
Ġbur ied
ym n
ag en
Ch annel
Ġf ans
ĠG lobal
ĠMore over
b ell
ĠE P
J ob
Ġmod es
-> _
Ġsim pl
ul us
Ġopt imal
Ġmeasure ments
ĠPl an
bl ue
", "
ĠH ou
Ġacc ident
Ġmechan ism
16 0
e ast
W hat
T itle
E q
ĠSt ock
ĠC opy
ĠN ode
itzer land
J o
secut ive
text sc
Ġar ms
Ġsatisf ies
ly wood
Ġstar ring
Ġin fra
B R
Ġs pl
* {
col n
D ebug
Ġsup ports
Ġsucceed ed
qu es
Ġimplement ed
Ġfind s
Ġscal ar
Ġimprov ed
C ap
ĠM ult
Ġthe oret
sub figure
Ap plication
oun ce
In ternal
ĠSur vey
ĠE s
rain ian
ĠR oss
à ¸
ambig uation
ond er
p ower
Ġmed ium
12 3
ag u
Ġ ^
Ġl P
Ġdec or
iv als
Ġth reshold
Ġinvolv ing
Ġ( ),
ĠN O
] ]
Ġpro port
ĠSing apore
icens ed
pect ive
ĠM A
Mat rix
col on
in v
Ġd aily
Austral ian
ĠD or
* )
Ġ" "
Ġappro aches
ional ly
Ġcon sole
Key s
ĠMal ays
Ġunder standing
ĠPhil ip
( __
ic ity
C I
Ġen abled
Ġassum ption
Ġt end
if er
Ġdis pl
Ġthe atre
on al
ĠD om
uss ion
G S
Ġth ing
oc ate
O ur
Ġend ing
Ġsim ulations
Ġrepe ated
ĠB ah
Ġrecogn ition
ĠA rizona
V ari
ak s
ĠEx ecut
s uccess
Ġfrequ ently
Ġdesign ated
F ail
Ġy ellow
Ġte aching
Ġspe ech
Ġun able
og ene
ĠH ur
ĠE th
Ġ icon
L ife
Ġpart ition
ag g
Ġaff ected
ograp her
Ġhe at
ex ception
ab br
Ġp owers
ron ic
arch y
M I
Ġauthor ity
Ġachiev e
ĠSund ay
Ġp refix
art ifact
Ġadvant age
Ġquest ions
ĠV ersion
ap h
pro ps
)\ ,
ĠAnd erson
que ue
out s
Ġcomput ed
Ġaud ience
off s
Ġrece iving
D av
ĠS at
Ġst ock
Ã© s
id el
l ig
p anel
Ġ| \
id ge
Ġag greg
Ġprom ise
ĠEnter tainment
Ġinvest igation
ĠAff airs
Ġf n
uns igned
Ġc overs
Ġtra ins
aut o
Ġh all
Will iam
ol t
ĠA mb
b at
ĠPro position
Ġcr iminal
Ex ec
H on
ĠFore ign
ĠK a
ĠN Y
ĠSquad ron
Ġdo ctor
p res
JS ON
Ġeff icient
ĠR ow
Ñ ĥ
Element s
Ġanim als
Ġconsist ing
ed ia
ri um
eng ers
ĠT urn
M icrosoft
IT Y
ob uf
Ġarrest ed
Ġposs ibly
ĠW ell
ut ies
Ġfe et
Pl ot
ag raph
Ġunc ertain
Te levision
Ġv ocal
m argin
Ġdep ending
Ġ} \
) }(
Ġco aches
ĠK itt
Ġlo an
ĠW rit
Ġprem ier
Ġtw enty
Ġcirc le
Ġt ick
not ation
B O
ĠT H
or ro
Ġsub stant
W rit
Ġnuc le
ag h
Ġd ie
Ġmat hemat
ĠB arn
Ġlett ers
ĠF ellow
ern ame
Ġschedul ed
Ġr acing
are st
ĠB os
Ġcommand er
Ġdrum s
he et
assert Equals
Not Null
Ġin variant
ĠJ os
Ġ( ,
Ġd b
ph one
Ġvis ited
Ġaff ili
Ġformer ly
Ġim ag
ĠAl bert
P U
St ep
r im
Ġw ins
' >
c ases
> ();
p adding
Ġbut ton
Ġnot ice
Ġtechn ique
ab ama
ĠGree ce
he im
el ess
Å «
Ġcon vent
ok es
A nt
FA ULT
Med ia
Ġm orning
ĠN ative
ĠInf antry
P ORT
el i
ĠD u
ang o
ro it
Ġre duction
Pl ay
kl ahoma
Ġpl anning
Ġjud ge
Ġcapt ain
Ġref ers
A uth
Al though
ĠC ab
pro b
Ġsub s
P ool
ul ating
Ġfight ing
="../../../../ ../
b rief
Ġte le
Ġc ool
ist ration
Ġoption al
Ġtrans action
Ġent ries
Ġb urn
Ġanaly t
Ġf estival
S end
G E
Ġp icture
d ict
Ġcrit ics
ĠOb serv
ĠAr k
t mp
Ġf ilename
Ġgu est
++ ;
Ġp ush
Ġas sembly
ous es
ĠI owa
il ib
Ġj son
z i
Ġpre v
k ind
Ġgu ard
Ġto ward
Ġcorre lation
b el
unn el
ĠM iller
ev al
und efined
d ates
ir ty
ĠAust ria
' _
KE Y
ĠL ow
Ġhyp ot
Ġspec ifically
Ġex port
ft ware
Reg ister
Ġany thing
Ġide as
Ġman agers
Ġconv ersion
Ġto wer
lo op
D ialog
Ġt ransparent
Ġb in
Ġin vent
D I
Fl ags
F amily
Ġinterest ed
Ġop position
Ġang ular
ĠViet nam
J an
Ġtrans formation
ĠS O
ud a
Ġcur ves
dis ambiguation
ĠB OO
B r
at ible
c over
ic ut
clud e
Ġpr ime
A ng
G C
Ġv ice
Ġv ir
Ġaff ect
Ġgu arant
L o
m ont
MA X
Ġdef ense
Ġintro duce
ĠB u
P res
[ $
Dis play
Ġro yal
ĠPr inc
ut her
ĠM as
Ġcoeff icients
Ġhor se
Ġdef in
Ġm ales
Ch anged
ĠHol y
Ġag o
ĠL INE
cre en
Ġf ashion
tt y
Ġinter actions
com ment
ra it
ĠKent ucky
ĠNor wegian
Ġsix th
Pro ps
Ġen v
ubl in
bo ost
189 0
Ġcon secutive
Ġsim ulation
Ġpain ter
ĠCon c
ĠEm peror
M ock
Ġcaus es
ĠL iter
) _{
Ġop posite
Att ributes
ĠD a
Ġlim its
igen ous
Ġmer ged
W R
w ich
ĠS ri
ĠHar ry
ĠQueens land
Ġold est
ĠBatt alion
Ġext ensive
r v
ris is
Ġeconom y
ĠR oy
ĠL ind
Ġin valid
) ).
nd ef
w ick
ĠFr ont
Ġn ob
Ġlabel s
190 5
B el
ul i
ĠĠĠĠĠĠĠĠĠĠĠĠĠĠĠĠ ĠĠĠĠĠĠ
index Of
Ġden otes
Ġres c
ate ur
Ġattempt ed
R ail
Ġop posed
Ġp ieces
Ġ iron
ĠB alt
ĠĠĠĠĠĠĠĠĠĠĠĠĠĠĠĠ ĠĠĠĠĠĠĠĠĠ
), \
j ust
ĠE ven
ist ed
Ġpur poses
Ġre pro
ĠAd v
Ã© t
w all
Ġge ometry
F N
ĠRec ord
M sg
in cess
struct or
Ġarbit rary
ĠB eng
Ġsupport ing
T ab
ĠT ony
Ġmatch ing
ĠC ape
Ġb its
up s
ĠAmerican s
! <
Ġun less
ĠP ath
Ġre ar
Ġphys ics
ĠO t
Ġd imensions
Ġcons ult
in line
L ock
Ġt ail
ĠE ric
Ġn ortheast
Sc roll
Ġcomp ris
Sec urity
ĠL td
Pro xy
E uro
F M
Ġsuggest s
ĠJ ava
( !
% ,
Ġexec ution
Ġhead quarters
Ġbro ken
B I
Cl ose
ĠSt r
ac hers
if iers
Ġsup erv
190 7
iv ated
er al
and o
ĠP aram
g ar
It ems
ad ed
t n
Ġappro ved
Ġtool s
Ġsp ot
ap plication
omorph ic
ĠMan chester
Ġcharg ed
Ġs ust
duc es
Ġsing ular
Ġw rong
Ġm essages
}} (\
ev in
ĠV iew
Ġab stract
oth s
Ġf lood
ĠF ame
are a
Ġch arts
h l
Ġ&= &
R C
ĠBill board
Ġaud io
els on
ĠL ike
S ION
Ġe cho
N orth
il bert
190 9
ĠSw itzerland
$ ^{-
Ġinv as
Ġs an
Ġphen omen
m osp
fl ags
190 6
ĠT el
Ġdis establ
=" -
} "
) _
Ġf uel
Ġg ap
iss ip
d am
Ġcrit er
Ġsub set
Run time
Ġg od
ĠL ag
10 1
Ġin equality
N odes
,\ ,
iv ation
TE D
import ant
r g
Ġsum mary
Ġcle arly
ĠAd am
sq l
ĠS ound
ad i
ĠA L
Ġtrad ition
Ġsit uated
v s
Ġexecut ed
Ġgl ass
ĠMod ern
Ġenvironment al
z one
bum s
F loat
ĠO cean
ĠK y
Ġst orm
ĠF ord
R est
Ġenc oding
ure au
ĠL ast
ĠA ction
Ġn g
ĠN ick
Ġdist ributions
Ġw rap
param eters
ĠFor ces
Ġide al
Ġsom ew
ĠSp acew
Ch rist
ĠTO DO
L en
Ġrequire ments
ĠIn ternet
ON E
ĠN ap
ref ect
sub subsection
Ġprom otion
Ġhold ing
Ġintro duction
o a
reg ion
ĠT ask
Ġturn s
Ġpo inter
Ġop in
Ġmass ive
for ward
st an
et es
on ical
Ġhe ro
ĠSim on
Ġfind ing
Pro file
Ġout er
ĠJan e
u j
ĠB urn
ĠB an
Ġcont rolled
h ire
p erson
el ve
ch ant
ĠSpacew atch
Ġcl in
Ġe q
hent ication
Po inter
t ri
in th
od ec
rec ord
Not able
ĠĠĠĠĠĠĠĠĠĠĠĠĠĠĠĠ ĠĠĠĠĠĠĠĠ
Ġb ought
Ġ( _
Ġpass es
Ġn or
Ġpe ace
ĠN on
par a
Ġinter ior
N C
ug u
ĠMag azine
not es
Ġatt ached
ĠI mp
Ġwhere as
ut s
ĠEar l
Ġsch ol
Ġult imately
ĠG re
ĠA D
Ġ+ \
cknow led
per p
ic ip
Ġbrother s
n ight
ĠSt aff
Ġs and
grad ient
g reen
.~ (\
ĠS ix
AT H
Ġopt ical
ĠTok yo
P AR
Ġoccup ied
Ġmusic ian
ch annel
ene z
Ġpil ot
i ative
et ween
Cl ick
) ^{\
## #
N amed
Ġread er
Ġh tml
by tes
ĠC y
Ġentire ly
Ġo dd
B as
ĠL eb
Ġv ent
Ġsub t
Ġr h
ĠLin coln
Ġcam era
Ġcomb at
d on
Ġl at
Ġclos ely
Ġt ab
W rapper
ic ians
ĠCh ile
Ġar rang
ess ions
ile y
ĠSoc orro
Ġ Ä
f ire
Ġhistor ian
ĠCol omb
ĠLINE AR
Ġd rawn
inem a
includ ing
Ġsurn ame
um a
ĠAl abama
Ġsports people
Ġen able
F ootball
Ġrot ation
Ġsing ers
am ely
ant e
the me
Ġneg ot
ĠF und
' ve
Ġref used
Ġsepar ated
put er
Ð ²
Ġdevelop ing
F S
ĠB or
iz able
Ġ io
m ove
Ġf olk
Ã ¥
Cl uster
Ġent ity
Ġse ed
ĠF ace
hen s
Ġestim ates
ado op
ĠT an
Ġa ired
Ġf resh
Ġle ct
//////////////// ////////////////
Ġread y
Ġh our
pl ot
Ġadj ust
Ġadj acent
c ategory
ill ing
Ġdi plom
Ġcomm it
ache lor
t otal
ly ph
ĠP ot
V ill
ime q
H er
Ġal gorithms
Ġcomp ilation
}$ -
Ġmay or
ab y
Ġst ellar
Ġw inter
ivers ary
for all
Ġor th
ĠN ev
ĠK at
Ġfund ing
s imeq
Ġg irls
190 4
Com mon
I E
ĠT a
S Y
ĠB G
ul ator
Ġm apping
Ġre action
ich ol
ad min
Ġcost s
Ġly rics
artifact Id
Ġcon j
u ating
Ġexpl ained
rid ges
us hed
ĠS che
olog ists
C M
E p
ĠTe levision
Ġcompet itions
Ġs ons
Ġcont ribut
in er
sc reen
b en
Ġra w
ĠD un
Ġqual ified
B B
j ar
N R
ĠBuild ing
r ase
ĠC art
ĉ ĠĠĠĠ
Ġtri p
U ID
ĠSt ory
ĠN av
Ġcover age
Fig ure
ĠW ho
c am
Ġsett led
A f
ell ite
18 0
Ġar ran
Ġmin imal
Ġst ored
Ġpl us
ĠM att
Ġl ists
ĠReg ional
ĠJ am
Ġtem ple
ol ished
Ġkey board
ential s
form s
Ġb right
[ :
ant on
ĠAb out
ou st
Ġst rip
ĠT en
Ġj av
$ $\
ĠM it
Ġmeasure ment
Ġdown load
atur day
Ġro of
ĠC ost
190 3
Ġind ependence
Ind ian
s es
Ġs ail
g ency
Ġm ock
ov es
m ask
ĠB rian
Ġg ar
Const raint
ĠWal ter
ã Ģ
Ġl ake
Ġque ue
Ġw alls
Ġunder lying
Ġanim ation
Sy ntax
ar se
Ġfunction al
ol o
ult ane
G lobal
' }
it able
Par se
E ducation
Ġbro ke
Ġopport unity
ĠCro at
Ġbrief ly
Ġchall enge
Ġs afe
iv ery
ĠZ h
B it
re tt
ound ed
ĠR ights
em ony
com plete
Ġelectron ic
Ġloc ally
ĠInd ex
h om
b urn
Ġsp an
od a
Ġtem por
Ġbound s
ĠMar ine
ag ues
iam i
ship s
D iv
let ion
Ġoper a
Ġ\ (
i pl
ĠO klahoma
ĠP ur
Ġrequest s
g han
ĠA ge
ĠDi ego
Fe ature
sp ring
Ġcharg es
ĠG ib
{ $\
ĠB efore
B orn
Ġc osm
ĠSt art
ĠDo ctor
Ġpath s
t or
ĠChild ren
) ^{-
Ġsign ature
on omy
}} ^
s a
Ġdet ect
ide os
issip pi
Ġbuild er
$ ).
190 1
Ġmagn itude
ĠB rand
Ġc row
ext end
Ġhe ard
O pt
mod al
ĠTurk ish
ĠHow ard
ĠD omin
ack et
add r
Ġm el
% .
sc ill
Ġ$ $
ist a
ĠD ur
ĠL ank
' ll
Ġrem ark
() {
Ġc as
iv a
ĠCO VID
Ġfund amental
Ġb udget
Ġdec ades
Load er
Ġt er
Ġkill ing
M ilitary
Ġdynam ic
Ġsp atial
ĠV AL
F ull
ĠD ream
Ġobserv ation
Ġt rib
b rid
Ġs outheast
Ġdepend ence
Ġexhib ition
Ġfav our
ĠQue bec
hand ler
Ġdr iving
Con n
th read
M er
Ġgalax y
od ot
ĠU sing
M ount
Class es
ĠG ab
Ġj Query
In s
ol y
Ġn arr
Ġm obile
Ġhot el
Cl ub
ĠS C
ĠFinal ly
osl av
r f
group Id
ĠSen ior
ĠAr men
Ġshort ly
I B
D IR
iev al
ĠConnect icut
l ot
R R
ĠC op
ar o
Ġus age
Ġcont ributed
cl osed
m o
print f
Ġ[ ],
be an
FI LE
ĠEn vironment
Pl ugin
Ġle arned
Ġconsist ed
Ġsub group
ĠBul g
Ġcommission ed
ĠD ark
Ġautom atically
Ġm and
ab ad
ĠF inn
Ġdep ict
ĠSt one
Ġevery thing
ĠN FL
in ces
ĠCommon wealth
S cale
Ġset up
Nav Bar
Ġpresident ial
ĠG ram
}^ *
Ġre q
m c
ĠH as
Com par
New ton
ĠH amp
SI ZE
annot ation
os ity
ĠFurther more
Ġd ates
Ġd uration
ĠH ans
pro to
\ _
ĠR est
Ġl ib
Ġattack ed
)) );
Ġher self
ĠN ik
Ġperman ent
Ġl ayers
con nection
met adata
Aut o
ĠHe art
o om
an im
Ġap plic
Ġdom estic
M ost
ĠR eb
od ox
ĠW olf
ĠP age
ĠD C
Ġk ernel
ow nt
Ġstand ards
Ġmet res
Ġj ump
display style
CH ECK
en ess
im pl
Ġ> >>
ant asy
Ġobserv e
Ph il
enn y
ĠWh it
Error f
Ġhigh light
ĠHou ston
Ġres erv
ĠA re
on i
dom ain
Ġf ought
ĠLab our
Ġcaus ing
Ġacc eler
ant ly
ex ists
Ġmat rices
ĠF M
12 5
Ġag ed
ĠMar c
190 2
ĠP rix
Ġ ..
P refix
Ġfound ing
Sh ort
Ġent itled
lad esh
E CT
Ġre ality
init ial
Acc ount
Ġviol ence
et ies
ĠSk y
Ġg uns
ĠD im
Ġpolic ies
G A
Ġfl ags
Ġb odies
Ġadapt ed
Ġm ach
ĠS ign
ĠOr iginal
ĠF a
Ġal ter
d ied
Ġb rowser
ĠD ue
ta h
ĠC emetery
ĠN aval
ĠAm ong
S V
ĠBr un
ĠTh ird
R oute
ĠTh rough
Ġalleg ed
if ndef
Ġ ).
ard o
Th us
Ed itor
ĠAll en
18 80
Ġdifferent ial
ar ry
ru ctions
LO G
Se lection
G rid
Ġinh abit
Ġm anner
cre t
Ġcont roller
Ġus ual
f i
r ub
igg s
Ġprogram me
ri k
rib ed
Ġl iqu
ĠBrig ade
Ġcoordin ate
ĠE N
Ġprote in
ĠK er
Ġfund s
sup port
v o
Ġb ran
ĠR ey
Pr int
Ġair port
ok ed
Ġp ars
ĠNC AA
ĠG all
al ia
ak ed
or er
ore st
cl oud
x is
I mp
M ajor
ĠH om
Ġplan et
Ġbe am
ch ain
Ġt ell
ĠCh ampions
sv g
Ġsymmet ric
Ġag ents
Trans form
Ġyield s
Ġreject ed
c b
Collection s
Ġl ayout
ut ed
R T
Ġcon ven
ĠB it
Ġarg ued
ĠSil ver
op ic
Ġindic ated
atter y
ĠW y
E P
Ġa ware
Ġmaint ain
ĠArgent ina
^{ +
ĠS quare
ed itor
assert Equal
Ġj ur
Ġdes ired
fri end
Ġres on
sl ice
G overn
Ġtyp ed
ĠP ope
Ġth in
Ġliter ary
che ll
ĠAn ne
p icker
U nder
Ġr ich
ĠS el
á »
Ġprinc iple
; ->
Ġsc roll
F iles
ĠM oon
ĠTr ump
Sing le
ĠLem mon
Ġclust ers
Ġj azz
ĠSup port
ĠH ockey
ĠSw iss
ĠE ver
ir ation
p ot
cc cc
Ġopt s
in burgh
( @
ĠR ab
Ġc ert
Ġs ac
Ġf aced
Ġwe alth
Ġansw er
ĠV ar
Ġinter section
op ter
if ts
F ramework
Ġch urches
av or
Ġret irement
w ords
Ġk il
ĠD eb
Ġcirc um
pro file
es ian
Bl ack
ĠPat rick
ĠK am
sche ma
Re ception
ĠPortug uese
av i
Child ren
& #
ĠCont rol
m ock
ik h
Ġweap ons
ĠJ ordan
w en
Ġexper i
ĠG ordon
n etwork
Rem ove
Ġst adium
ĠI mm
Ġa head
she et
Stat ement
Ġt ennis
Ġchang ing
;" |
ĠP as
ĠG ard
Ġen emy
ĠComm unic
ĠD at
k ov
Ġwe ather
Ġmon itor
Ġdo or
Sh ow
ĠExecut ive
Ġdirect ors
St ar
ĠP a
Ġw ire
ss on
Ġcomplet ion
ĠL L
Ġnot ation
ĠPh ill
Ġ rows
M ac
Ġsoc cer
U sing
ĠF ac
Ġb rown
C am
w orld
ĠS ud
Ġloc omot
w hen
Ġpre ced
Ġprom ote
up l
low er
ĠRes ult
n ie
Ġtransl ated
ograph ical
Ġpart nership
Ġst ress
rem ark
ĠAl ber
Ġproduc ing
L ayer
ĠCh all
p icture
at on
at ar
ĠAnth ony
Ġpattern s
ĠHon or
d iff
Ġo k
Ġoper ate
ĠBelg ium
Ġst yles
Test s
Ġt urb
ĠA le
Ġor bit
Ġs ought
Ġex it
ur st
Ġconstruct or
Ġch ance
enc ing
p red
ent ity
n one
M iss
Ġscen es
gress ive
Ġrelig ion
Ġcharacter istic
Ġcrick et
ĠM and
Ġpol l
ĠTem ple
Ġspect ra
Ġk ick
T erm
h adoop
Prot ocol
C apt
ç ļ
ĠK az
H ow
Ġtheoret ical
Ġcol our
ink ing
Ġaspect s
ĠIn n
R oman
pro perties
Ġmaint ained
Ġ/* !<
Ġoff ices
ĠHot el
Ġ ion
ĠIslam ic
Re lease
N ULL
Exp atriate
i eg
Direct ory
ET H
Ġmass es
ĠAb b
Ġp ed
ist ant
Ġlist ener
per iment
Ġsuit able
ĠJ ay
ĠDoug las
pm atrix
ĠOff icer
Ġactress es
Ġextrem ely
ĠO ption
Ġste el
Ġcent uries
Ġa id
over y
ĠF le
Ġf ranch
Ġlin ked
ĠTai wan
Ġan cest
tx t
ex pr
) }{\
mod ules
ut able
T T
mon th
Ġimplement s
Sy nc
M ENT
Mem ory
Ġc ru
Ġf lex
ĠE nergy
Ġheav ily
lo yd
ĠH u
C ent
ub ble
ort ed
att ributes
B P
Ġm ir
Ġst ages
Ġbel ief
[ (
="../../../../ ../../
y ers
S em
Ġtre ated
Ġillust r
Ġstand s
I ST
ĠB ureau
Ġap art
Pr ivate
Ġcon nections
/ >
Ġeduc ational
G N
Ġsol ar
Ġscal es
as m
ocr atic
S eg
Ñ ı
k w
Ġch ampions
Ġhigh way
ser ies
inst all
Ġre aching
sh adow
Ġinflu enced
Ġm yst
M any
c oh
Ġtr ace
Ġv ectors
ĠLouis iana
IT E
Ġst ores
Ġd ialog
he rent
ĠN ag
FF FF
ĠStud ios
Ġse lector
el le
Ġvari ation
az a
ay an
Ġinteg ration
Ġde ploy
Î ±
Ġsatisf y
Ġdet ected
Ġregard ed
O L
p refix
S ur
Ġat mosp
ĠV ice
Ġad vent
Ġc a
ĠG rant
R S
Ã ´
act ic
Ac adem
ĠF A
Ġ= \
Ġinst ances
ĠPl ayer
Ġf lo
Ġar c
)\ \
ĠVill age
in ations
us al
Ġemploy ees
ĠBrazil ian
ĠT errit
Ġexplicit ly
ĠU ser
s ave
ĠS uch
ï ¼
Ġpen al
TEX T
Ġex ceed
189 8
Ġso le
çļ Ħ
Ġresist ance
f ail
ĠDen mark
Ġo scill
Ġlaw yer
Ġrequest ed
X ML
level and
Ident ifier
ĠMiss issippi
ĠD ak
ĠÃ ī
usc ript
final s
ĠHer itage
) },
l arge
in ch
ĠR ub
styles heet
sw itch
ilib rium
S ongs
i ples
Ġw itness
ĠEx press
Ġh ole
im ore
Ġp apers
Ð ´
Ġdr ivers
} )$.
id x
ĠPu erto
Ġres olve
Ġinv oke
Ġback ing
ĠA M
Ġh air
=" "
En um
her ited
ĠD anish
Ġtra v
S pace
Ġcategor ies
Gener ic
ĠO ak
ĠStand ard
test ing
ĠOper ation
' ));
ĠIndones ia
Ġf mt
ĠY outh
Ġm ist
og ram
Ġtransl ate
Ġpoet ry
Ġincorpor ated
Ġtouch down
ĠD al
Ġt mp
E ast
arn er
i ations
Ġp un
Ġm art
ĠDet roit
Ġestablish ment
_ -
inc orpor
ren a
Ġflow s
ĠAdminist ration
e lection
Ġstri ke
cont ains
G raph
qu est
ST AT
Ġr ival
Ġg ene
sec urity
v ia
ĠS port
ĠGa ussian
Ġover l
ĠGu ide
ĠMo ore
Ġrough ly
ĠD ublin
P e
Ġd ro
m ass
Ġtherm al
Ġin aug
b ridge
ĠLiber al
") ]
Ġaband oned
Ġro utes
ĠS in
Ġcom ments
ĠPortug al
Ġc ook
ra ined
uz z
To String
ĠL ang
RO M
ash i
p kg
Ġconsider ing
Ġinv ited
iss ance
Ġconclud ed
Ġfa ith
F in
ov ation
Ġmix ing
M al
H R
Ġg ate
E V
ĠRe act
Ġmet adata
map sto
on om
ur ance
Ġan imal
Ġfle et
Ġcollabor ation
Ġeth nic
arg o
Sh ared
An y
ĠAg ain
ĠRober ts
189 9
Ġ_ .
b re
Ġworld wide
Ġex cit
In v
ĠK o
ĠLie utenant
Ġcer emony
ĠAnton io
ĠD VD
ĠBudd h
Ġpaint ings
U K
h idden
red ited
S F
f ly
l ayer
ĠC ulture
Ġjo ining
ĠB uff
Ġrepl acement
el and
Ġh ope
Ġcover ing
put ation
ĠOr th
D L
}} ^{
Ġsim ultane
ic ide
th row
D ictionary
Ġfill ed
Ġrem ote
P rior
pre v
() ));
Ġre ign
Ġb an
B M
Build ings
ĠM rs
ĠOn ce
d ale
res et
$ ;
ro le
er g
ĠB ry
Ġs ale
I con
Ġmid field
Ġint ent
ĠB ou
Ġm ent
Ġag ency
Ġw aves
Ġcor por
Ġpro ps
Ġv o
Euro pe
Ġs ell
m outh
all as
Head ers
Ġanim ated
ĠEd inburgh
ĠHaw ai
ĠU r
new command
Ġeng ines
ĠJ uan
)$ -
Ġbo ost
ĠĠĠĠĠĠ Ċ
D est
F lor
Ġd ry
aw are
Ġenc ounter
Ġbo at
ĠA mazon
D ouble
Ġv oted
Ġtr uth
en abled
if def
Ġgener ic
Ġtre nd
t ik
Ġs un
f ast
ĠC ru
p ression
Ġob vious
}( {\
ĠC ow
ĠV in
Ġst ating
ĠU l
Ġinfin ite
Ġd anger
ĠAb d
() ).
cl ip
pl us
st able
os es
Ġres erve
Ġ' <
Ġleg end
edd ed
ĠUp date
'] )
Ġposs ibility
ĠTod ay
Ġb rain
Ġtrans mission
Ġ ener
Ġd ir
Ġcollection s
od ge
Init ial
ĠArch itect
ST ATE
Ġch ose
ym f
Ġcl ock
l on
AR Y
ĠBl ock
ĠM aur
Log ger
Ġfin ishing
mer ce
incorpor ated
man ager
Ġs oci
Ġl ay
ĠHamilton ian
lim it
Ġcross ing
Ġpass enger
Ġpublic ations
ram a
i em
Form er
Eng ine
Ġfound ation
Ġsh ock
RE AD
enez uel
ĠF alse
! !
ail and
f d
UT F
n amed
agn etic
A li
ts burgh
189 5
ĠN E
Ġco inc
Ã «
Off icial
ĠIsrael i
M ath
Ġent rance
Ġeff iciency
t ry
18 70
Ġsp ac
7 00
Ġc atalog
Ġ{ {
Ġc ov
ident ifier
ymf ony
ĠUn it
ĠLeg islative
BU G
ĠInd ependent
f ather
oc he
Ġ_ ,
cont roller
Ġsk ills
Pack age
ar on
ĠUk rainian
h bar
Ġn amely
Ġas ympt
ĠOr chestra
poss ible
ob s
Ä «
ĠC ond
F IG
R ober
az ines
is or
ĠBG COLOR
Ġcar bon
ĠP ap
Ġeval uation
re nd
iss ue
Ġf an
Ġinj ured
Ġl aid
ĠC ook
Ġlow est
Ġp ul
Ġident ical
Ġas ync
ĠC EO
pro duct
Ġp ione
bor ough
Ġcomm itted
Ġper haps
Ġqu adr
rand om
Ġcharacter istics
ĠAf ghan
Ġl umin
ĠH ills
ĠH op
f all
ĠIm perial
Ġdep os
pro position
ac on
m illion
ĠC A
Ġsum mar
ĠN ext
ĠPl ace
Ġver ify
ĠB us
ĠN AS
\| _{
g ate
Ġbehavi our
it ivity
ĠE ag
ĠFreder ick
h ide
Ġcalc ulate
ownt own
P erm
ĠS M
Japan ese
Ġcalc ulation
) [
N T
ut er
Ġhom es
ĠM ake
prot obuf
ĠP ed
ĠIO Exception
Ġab und
ĠDis ney
ymmet ric
ing ly
ibr aries
ex pect
leg es
It alian
Ġexpl ain
se lector
ĠN ichol
189 6
S an
h ab
Ġvol unte
ĠT ig
et ing
or f
h box
ĠG irl
> ::
Ġr u
P ers
ou ter
ang el
fl ag
ĠA ud
Ġhum ans
ĠHar ris
ig ious
Ġis lands
iven ess
Ġeng aged
u um
arg ument
Ġcol ors
ap olis
Ġcast le
Ġinvas ion
ĠR ol
ĠSt ew
Ġwindow s
Ġneigh bour
ĠIn vest
Ġe ye
ĠAl an
Ġlate st
ill ed
ph ys
I X
ĠF ern
m oz
Ġind uced
Ġrul ed
a ired
IN S
Ġeffect ively
ac ht
e lect
Ġcirc uit
pl ane
Ġac id
Ġcom ic
ĠD ick
Ġh op
Ġpro jection
ĠM iami
b ootstrap
Ġw at
in ction
ĠSam uel
Ġpri est
Dav id
rap y
d in
Ġmin ute
arri er
ĠDon ald
ĠF all
w as
ct ic
Ġc old
. *
Ġd ynasty
con v
Ġgrad ient
Ġh ired
Ġscatter ing
Ġgraph s
Vill ages
ĠL anguage
ĠF arm
="../../ ../
op ts
ĠJes us
iss ues
} &
ĠL am
c ing
ĠHol lywood
{ "
Ġthe ories
Ġconst ants
aps ed
ĠT s
est yle
Ġ ],
ird s
ic ular
M c
Ġsequ ences
p od
B ound
ot ional
Ġm ile
er os
Ġrev olution
Ġinhabit ants
189 7
] :
Trans action
Ġj unior
ru ption
ĉĉĉ Ċ
Ġstop ped
m ix
Ġg reatest
ic ator
Ġprom pt
ĠN et
Ġs ynchron
Ã³ w
Ġv ideos
Ġr ating
n il
ĠN ever
Ġdis abled
Ġrepl acing
ĠT ar
ĠH ug
ig e
c u
H istor
ra k
ace ae
Ġc m
-- >
a ire
Dom ain
ol ph
Event Listener
M ich
Ġf ired
ĠBow l
ent ed
Ġn ick
ĠE arly
att ers
ic he
The orem
Ġdisplay ed
the mes
Ġd ict
g p
ÃŃ n
em b
Ġres igned
ĠWalk er
en z
ip ped
ĠBang ladesh
w ho
P H
p ubl
Ġst ret
Ġposs ess
ten ance
ow ski
Ġamplit ude
ĠB ox
Ġconver gence
ĠMat the
Ġh its
ĠĠĠĠĠĠĠĠĠĠĠĠĠĠĠĠ ĠĠĠĠĠĠĠĠĠĠ
ah n
D ay
', '
pass word
Ġext ent
P romise
B OO
ĠV ideo
Ġsh ut
ĠK ur
Ġcl er
ann y
ĠHar vard
an ian
St and
Ġcompet e
ĠPal ace
Ob serv
Ġtemper atures
ĠD ead
m n
ĠS aturday
ug ar
ĠO bl
ĠC are
GB T
Ġinteg rated
Ġpred iction
ĠMalays ia
v irtual
Ġcan cel
13 0
ĠR ound
ph an
F act
Ġstand ing
f old
ĠP C
ogene ous
Ġr g
Ġb ed
P D
Ġ ip
li k
Ġex cell
int end
Ġclass ified
Ġinterest s
Ġaccomp an
Ġt ries
y ll
ĠS V
: =
B inary
Ġcomplex ity
ĠN ob
ĠCopy right
ĠR yan
Ġt ropical
ĠCur rent
ĠAss oci
Rail way
ug s
L INE
ĠM es
ual ity
ĠMay or
is en
Ġprep ared
ĠR ang
ĠF il
ĠPro t
LO CK
Ġcalc ulations
ch anged
res olve
A uthor
le ased
ĠT R
F UN
Ġ[ [
tik z
T ube
Ġconcern s
ĠSing h
N V
\ {\
Med al
Ġdis miss
Ġsec retary
Ġint elligence
ant om
Ġdesign s
Ġf ly
th rows
ĠPal est
Ġinvest ment
ub ern
ĠPol icy
Pro duction
Ġind eed
reg ular
Ġexpl o
ot he
eg et
n umer
C red
Ġrecord ings
ed it
ist ing
ish ops
Ġpers ons
Ġdr ag
or row
Ġappear ing
M T
R ole
ĠMc K
/** */
Ġrem ember
? "
ĠComm ander
Ġb inding
Ġp and
HT TP
ĠFin land
W N
Ġdest ination
RE E
ĠR ap
N ative
ĠL as
b ach
ĠPro cess
ĠT reat
Ġabs ence
or us
Ġg lob
Ġdo ct
rid ay
ĠRes erve
ĠMed icine
Ġt error
it als
ĠInt eger
Newton soft
eg as
depend ency
ĠArk ansas
IN D
ir i
Ġpra ised
m ma
play er
ro c
ĠC ensus
ors es
Ġdeliver ed
ĠP os
is lation
Ġh ur
ĠB art
En umer
l ass
ab ric
Ġpl ate
Ġfl uct
l g
duc er
ĠCon fig
ĠA T
Ed it
all oc
Ã ł
F ix
o i
Ġform ally
g ame
ap l
refect ure
Ġis n
Ġben ch
ĠWel sh
Ġr ig
ĠG on
, $
em ail
ather ine
Ġtw elve
m ic
t ons
un ities
Ġw arning
arg uments
Ġrad iation
err ors
Ġscen ario
Ġacc used
189 3
UR I
Int roduction
189 2
$ ~
ĠLaw rence
S ervices
M R
-------- ----
ĠI ron
lar ation
ĠAust rian
Ġindic ating
re pe
Ġconstitu ency
ĠA S
az y
uk i
Ġstat istical
the less
Ġb ishop
c ussion
ra ctions
igg est
ĠMP s
arn ings
Ġvers us
' (
Pro duct
Ġexpl an
Ġload ed
Ġp up
u h
P ER
Ġrun ner
Ġh am
Å Ł
am ents
ist ence
) }_{
S equ
ĠSo ftware
Ġl es
; <
Ġm ort
Ġsc hedule
Ġmembers hip
ĠDef ense
Ġaccur ate
Î ¿
Ī Ĵ
eng ine
ix els
D T
Ġsur g
ĠG arden
Ġexper t
se a
Ġin ject
Ġdec ade
rate gy
n est
ug oslav
ol ly
Ġown ership
Ġar med
ĠM ond
Mult i
Ġd oll
ĠP eters
RE S
ĠIm age
Ġex cess
H C
g ment
v olume
ĠHistor ical
Ġtem porary
Work s
Ġbre aking
e lem
ĠLa ure
W ord
Ġ> >
ĠL ib
Ġe yes
Ġed ited
Ġaccom mod
Ġcon vers
ĠDig ital
> \
ĠL ore
A ugust
Ġmov es
Ġan th
Ġrecomm end
__ )
ĠH ash
ĠS QL
ty pen
Ġoptim ization
Ġph one
d ers
Ġex pos
The y
Ġbusiness es
ine a
ur ations
prot ocol
iffer ent
our se
sequ ently
Ġsomew hat
ĠK evin
An other
v ing
Ġbal ance
S ocket
Ġc aught
Ġcons ervation
eb r
ĠAn y
Ġown ers
uc ks
o es
ĠM L
ĠW ard
G ame
Ġobject ive
hel p
i ac
ĠDe ath
og ether
ĠAg ency
Ġpurch ase
P anel
Ġsol ve
DO M
R ich
M apping
d ig
Ġconclud e
c ong
d em
g ies
' d
Ð ¼
Ġparticip ate
È Ļ
ch art
Ġwe ights
p ay
at he
ĠĠĠĠĠĠĠĠĠĠĠĠĠĠĠĠ ĠĠĠĠĠĠĠĠĠĠĠĠĠ
ĠRoman ia
IC E
ĠAtl anta
TR UE
Ġdis appe
Ġt ack
Ad apter
ib l
trans ition
189 4
Ġscal ing
Ġbir ds
188 9
ĠT ag
Ġcol span
Ġschol ars
time out
r int
O C
ĠRail road
ĠR ot
Ġcomput ation
oc a
typen ame
F ree
g eneral
ri ed
ĠAn na
ĠR ugby
VER SION
il st
Ġcontrol s
ĠTh ailand
Pl ace
om as
Ġ ui
ĠDep uty
Ġk id
bar a
Sim ple
r Ã©
ryst al
or ient
ĠĠĠĠĠĠĠĠĠĠĠĠĠĠĠĠ ĠĠĠĠĠĠĠĠĠĠĠĠ
f g
&= &
aly t
li ed
lection s
ĠCommun ist
Ġconsequ ence
Ġfl uid
Ġroad s
ĠP ack
is ode
Ġaccount s
Ġgr ade
pl ugins
Ġexp ed
ograph ics
ish ment
ĠP rad
Ġm eta
ĠK ings
ĠL anc
S uccess
ĠAd vent
le ans
Com ment
M arch
Ġign ore
do or
Im port
B rowser
ĠX ML
R ussian
! "
Ġcap able
Ġe mail
ĠB lo
Ġb ra
ĠT it
U D
S am
Ġhost s
Ġarch ae
bl ed
p in
ĠMont real
ĠPubl ishing
Ġre new
end ix
Ġvalid ation
um s
Ġ ];
Ġch air
u er
ov o
Ġv ot
ĠVol ume
Ġexpl os
Ġjob s
Ġphil osophy
ĠB oys
alle st
ass ador
rypt o
i op
P aul
Ġf alls
Ġpredict ed
Ġearli est
D uration
ĠR ick
force ment
Ġtime out
Ġeval uate
int eg
Ġsec ure
Ġw arm
T otal
Ġpremier ed
Ġf lying
w ill
ĠDe ep
Ġ å
J ECT
l ibrary
Ġag ree
Ġb undle
g i
ĠF ight
ol ia
CO MP
l u
ĠG ran
ĠD OM
g ow
ĠSh ah
ĠInst ead
cl uster
Ġess ential
ĠĠĠĠĠĠĠĠĠĠĠĠĠĠĠĠĠĠĠĠĠĠĠĠĠĠĠĠĠĠĠĠ ĠĠĠĠĠĠĠĠĠĠĠ
Ġcred it
Ġconv ex
b ai
er ial
ĠU tah
Ġinfra structure
Ġund ert
Ġexec ute
J ames
sect s
Ġd ies
f ixed
Ġcoeff icient
Ġproduc es
U ri
Ġinter act
S cal
ĠMount ains
Const ants
Ġbenef it
Ġt ank
Ġperm ission
as a
Ġfr agment
ĠPri or
Ġphot o
Ġp y
B ur
ex tern
ĠS n
un ique
ĠC rown
Ġste am
du ctions
RE G
ĠC arn
Ġloss es
Ġcrick eters
ĠFri ed
ĠD ir
construct or
AL SE
agnost ic
writ ten
ĠAl fred
ĠB uck
e a
ĠM ission
Ġpass engers
Ġshoot ing
18 60
Ġland s
s ome
ĠB ull
ire ctions
ĠSe attle
Sh arp
s ong
onym ous
Ġagric ultural
ĠTra ining
Ġloc ality
L iter
ĠWork s
ĠCont in
Ġdiscover y
Ġclass ic
ĠE u
Ġs izes
F ailed
ĠMet ropolitan
188 5
ĠHung ary
Final ly
Ġh ier
ĠOper a
N OT
Ġd ust
Ġst ability
Ġh uge
foot er
Sc ott
Ġw a
IV E
] }
in valid
Ġg ender
iver pool
Ġjust ice
Ġres idence
Ġphot ograph
ens es
Ġgrad uate
Ġadapt ation
Ġopin ion
F LA
ne ver
plic ated
ĠCh airman
opt ional
ip age
ĠC hen
ĠJ un
d one
ĠBru ce
Ġcont ents
F n
ĠD ance
P UT
put ed
Ġdiv isions
Ġc risis
count ry
on ian
ĠRes ource
it ational
ĠW rest
Ġsign als
Ġre ception
Ġhead ers
Ġground s
head ers
Ġw aters
Ġjourn ey
Inter val
O ld
Ġregular ly
Ġgood s
Ġcon clusion
Ġbound aries
Ġarr ival
Ġsevent h
Ġsever e
Ġmod ules
Ġcharacter ized
Ġb iggest
ĠRog er
Ġproduc ers
Ġman uscript
à ¥
Ġc rown
Ġh un
ĠTam il
ĠP ear
ĠD ocument
Ġ" ,
Ġgener a
__ __
in ian
st ances
ĠR io
Ġjav ax
ĠF al
} }$,
Ġscient ists
Ġc odes
ĠN atural
v c
Ã ª
Ġ[ \
id al
Ġpl ugin
Ġd iver
ĠAdd itionally
is ations
ac count
Ġsubject s
Ġinvestig ate
) }}
Ġimmedi ate
Ġneut ral
tool s
189 1
nt il
cond ition
Å ¾
y t
ĠKn ight
ĠMor gan
ĠRuss ell
Ġass ault
Ġhapp ened
ĠHung arian
1 15
Sh ape
S pe
st orage
Ġpropos al
amp s
Ġsup posed
Ġbu f
Ġs ed
Å Ħ
ĠD ave
er on
Ġexperi enced
Ġmed icine
ĠL ith
Ġgu ide
ĠC R
cept ions
Ġin fer
Ġrob ust
ain ers
ĠJos Ã©
il k
L ower
n n
) +\
Ġwith d
ĠK on
os itory
} }$.
own er
ĠBet ween
ĠM S
ĠDe an
Ġe gg
iz on
Ph ys
Ġunivers ities
ĠMarg aret
Ġb oys
Ġsing ing
K e
Ġpri ze
Ġthous ands
Ġoper ates
ĠHamp shire
Ġvol umes
Ġpop ulations
u is
Ġd ial
ĠBOO ST
ĠC leveland
ĠCh ampion
Ġinterpret ation
(' .
Polit ical
st e
Ġrest ored
Att r
ĠO ri
load er
ĠC ass
isl ature
"> &
Ġb ulk
Ġmin ing
ĠJoh ann
Ġrail road
Ġre in
- $
E ff
ĠF ull
Ġbran ches
ĠD ie
n ik
Ġ' ';
Ġsy nd
Ġref uge
ers et
Ġv eter
sh al
ĠKel ly
EN SE
Ġm us
ĠN ash
Ã© n
pl er
b rowser
w ig
ĠMet ro
m ac
ad v
oust ic
W eek
fl u
Ġcarry ing
Ġrecomm ended
Ġpract ices
clus ions
ĠM agn
om ents
ĠPro perty
M OD
def er
ĠAll iance
ĠC ustom
j oint
188 8
Ġb ind
U SE
ĠA SSERT
Ġcour ses
Ġdesc end
Ġbel ongs
Ġj et
Ġdesign er
pt ic
Ġprov ider
Con f
ĠCo oper
z z
Ġpro xy
Ġtop ic
Ġb reed
ĠN elson
ort on
Ġrespons ibility
Ġd og
Ġapp lying
ĠG irls
int ell
ĠP ad
m ount
k ee
ĠS everal
ĠS E
ĠP un
Ġin verse
Ġtest ed
ĠMe an
ĠH ell
Ġinstr uments
ip er
Ġpart ially
ĠC ole
ins ula
Ġfranch ise
Ġcompos ers
Ġmar ine
F ran
Ġtyped ef
$ ),
Ġd uty
ĠP FN
ley ball
End point
Ġdis crete
Ġval ley
ĠC er
Ġw ants
Ġdepend ent
ĠCom ics
Ġcl ick
ming ham
Ġrestrict ed
ĠAN D
f ilename
) -\
re p
ĠI E
min ipage
ĠObl ast
Ġpaint ers
ir ates
Ġevery one
clud ed
co in
ĠF ive
ĠP erson
} )$,
em en
intell ij
Ġfr ag
sing le
: [
Ġwhe el
rick et
cast ing
pat tern
Ġch apter
Ġassist ance
it ative
ĠS ac
Ġnorth west
| }{
pr ison
Ġro oms
Ġind uct
Ġro ots
Ġcolon ial
Ġpubl ishing
ĠCamp bell
b us
n ia
over ty
Ġstudy ing
ĠM ong
ran ean
Ġmod er
Ġperiod s
Ġpercent age
aw ay
Ġd ens
Ġarran ged
is ition
ĠCon stant
Ġpand emic
ĠMar ie
Ġm ilit
ĠFace book
f x
Ġann iversary
U C
Ġmer ge
ĠVal id
Col l
ĠOrth odox
ĠK now
L em
Ġdomin ated
F low
1 13
Gener ator
Af ric
Ġinter mediate
De legate
P al
Ġleg islation
ĠW right
Ġhapp en
ĠStew art
ĠBalt imore
ut f
hib ition
@ {
ri eve
ĠCh amber
check ed
rupt ed
Ġent ertain
pro xy
ĠK r
ĠKar l
Ġm arg
Ġsize of
Ġbring ing
Ġast ron
S ER
Pro gress
}$ )
ob serv
Ġor b
Ġtra ject
zer bai
en able
aval ry
[ -
ĠAl ice
ob a
ĠK l
ĠH orn
Ġres ign
on ce
Ġs leep
ĠN ic
s ys
Ġs aved
Ġcomput ational
ĠK an
ang ing
br ace
ut ing
Ag ent
ĠF el
ĠVi enna
Ġret ained
ĠSec ret
end ment
J ava
ĠT ak
ĠV enezuel
Ġsk y
33 33
Ġsurv ived
ĠH erm
ĠB ush
Ġparticip ants
Ġle af
Ex ecut
ĠAust in
B ook
m ouse
ĠB ed
ĠThom pson
ĠSc ient
Ġun us
os ure
ĠAd ams
ĠBe at
188 7
Ã¨ re
p arser
ĠCh art
1 17
Ġconcent ration
T F
ĠMc G
ĠCon stitution
Ġcommun ic
ro v
ymph ony
A CT
Ġvict ims
P M
d ependent
ĠT erm
L ater
w iki
es ides
et ry
Ġdam aged
Ġequip ped
A E
part s
ĉĉĉĉ ĉĉĉĉĉ
Or gan
get Name
ĠC ra
Ġ( [
Ġcon crete
Tr ace
Re al
v als
ouri er
ĠB oolean
ĠPit tsburgh
ĠMarsh all
ĠPr incess
nap shot
sup ported
Ġra in
C ategory
Ġdef ensive
att an
ar us
th a
Ġden oted
Ġres erved
load ed
k t
ho en
pos itory
Ġathlet es
ĠG ray
Ġaccompan ied
VAL UE
ĠM essage
ia st
ĠAg ric
ĠKenn edy
b ishop
Ġpenal ty
Ġrepresent ations
Ġh ill
Ġr ational
ĠChe m
ĠAuthor ity
Ġdescrib ing
ĠL ower
Ex pr
ĠV ik
Ġform ing
ĠPe ace
ĠDak ota
Ġp arser
tem p
J une
m al
Ġext reme
Ġrelationship s
Ġint ensity
s u
M ill
Pro gram
1 12
sc ious
ĠChrist opher
ĠHT TP
Ġdomin ant
cur sor
18 65
ĠYear s
ĠBrother s
s n
Ġadm itted
L imit
ĠN ep
IT ION
v ol
con n
ok a
Ġl ob
Ġmen u
um my
Ġres et
ĠPh ot
check box
Ġjud ges
Ġcrow d
ĠL ock
Ġdef ines
Ġmy th
prot ected
Ġven ues
Sum mary
ĠC SS
ĠGl as
ĠA BC
St op
( /
Ġsent ence
Ġlog ic
ĠPat ri
ĠRob inson
Ġkn ock
rad io
The refore
U LE
w right
ĠColon el
Ġaccom pl
) ->
Ġspec ify
Ġv ision
Ġreg iment
Ġstr ugg
um ed
ign ment
Ġvar iant
plic ity
| _{
l f
Ġs elling
S chool
Ñ Į
Ġuncertain ty
Ġcr uc
ĠOtt oman
Ġre verse
Ġnot ably
ĠA rena
d p
ĠC it
ĠG ill
) )$
Ġt ub
Ġm o
Ġind ices
Ġdep uty
Ġd ense
ĠC ase
ĠR ural
ĠAr n
Fl ag
A SSERT
Ġcre ates
Act ivity
ĠTr ade
const ruction
D M
U B
ĠF ood
Ġte en
Ġas k
188 6
ĠRef orm
Ġtarget s
i ere
key word
Ġmult ip
Ġm al
iv ia
list ed
Ġ ×
ig her
ov iÄĩ
Ġplatform s
Ġmolec ular
Ġs we
j et
Pro fess
Ġs now
\ ;
Ġhor izontal
ab i
Ġsc ores
ĠSchool s
Ġsymbol s
." );
Ġc ited
ĠU rb
Ġ' \
Ġ{ },
Ġ ri
ou ver
Ġf ib
dec l
Ġsound track
m iral
ĠD aily
Ġran ges
A z
s ample
Ġm ouse
Ġliqu id
}{ (
Ġbi as
Ġval ign
es is
m ate
Ġend emic
com ponents
ĠCar ter
Ab stract
el lect
Ġresident ial
Ġrespect ive
Ġad min
ĠR an
ĠSe ason
By Id
Own Property
Ġ% }
ĠH AL
Ġinst ruction
Ġf aster
ia h
Ġ" <
A udio
Ġassoci ate
ETH OD
Ġeven ing
Vert ex
Ġfore ach
Ġinvolv es
ac o
ill o
item pty
ĠUp per
Ġ\ &
Ġen um
ĠMain e
ĠC atal
Ġcomput ing
ĠAcc ess
ĠR y
om itempty
Det ails
is hers
m el
n odes
r ift
ĠP ut
St ats
10 5
s at
st ood
apt ist
A pril
######## ########
b c
Ġillust rated
Ġoffer ing
Ġexpress ions
v ideo
Reg istry
I ES
ĠPFN GL
Ġex erc
Ġ" -
ev ens
C B
Ġ$ |\
Ġm ob
ĠSen ator
Ġstre ets
Ġst ood
Ġg ang
Ġsat ellite
oper ator
ĠL ane
ĠAthlet ic
Ġhead s
ĠOr leans
circ le
os c
Or iginal
ast ery
Ġcr ash
The lia
Ġlook s
Ġcour ts
agnost ics
Ġ{ '
s ol
ĠS R
um ps
t frac
olv es
B IT
ĠG ulf
ish ments
gener ated
element s
Ġm outh
Ġess entially
h ome
J uly
ĠN eg
ĠRef er
Ġsk in
Ġclos er
b one
Ġsche ma
ver b
ina e
Ġent ropy
h our
pro fit
ĠSar ah
Ġview ed
bound s
Ġm ine
Ġsufficient ly
Ġpract ical
ch t
ĠL iverpool
Rep ort
ĠO d
ĠEconom ic
Ġg ather
1 14
Ġacc um
Ġcont rad
Reg ion
w rapper
ĠMunicip ality
s is
Ġsup plied
or ce
ĠR ud
ĠH it
Ġn aval
az e
ĠD allas
Ġcomp lement
al gorithm
ur able
Ġany one
Ġoccup ation
Ġmet ers
Ġv irt
iz ers
Ġsh ares
O ctober
Ġs ud
l arg
i u
Ġb atch
h ai
Ġrestaur ant
ab a
ĠBrook lyn
z ed
An imation
O B
cept or
Ġdebut ed
y y
ĠH end
Ġs ending
Ġremain der
ult an
Ġf iled
Ġpat ient
c ref
Ġprec ision
ĠL ink
Ġequ ality
M ask
com b
j Query
: }
el astic
G P
Ġl it
ĠI R
am an
Ġne ither
Ġwait ing
ĠB eck
Ġa wait
Ġgr ass
ro se
ĠE very
T ABLE
math op
Ġim prison
M ove
> :
Se ptember
ĠMor ris
Ġb low
IC ENSE
Ġl ift
$ {\
ĠLeb an
Ġrapid ly
c ross
ĠY an
e cho
Ġ[ "
Ġcom ed
ĠWeb site
te ction
iter ranean
q q
ĠD NA
Ġdr iven
Ġdraw ing
Ġdemonstr ated
Ġvari ations
Ġbenef its
ev a
Ġd ating
Ġr ivers
L ook
Ġxml ns
D b
Ġsatisf ying
for Each
Ġd imensional
ĠMov ement
ĠCent ury
IG HT
B egin
Ġb os
t ags
det ails
ĠD ub
j unit
rop ic
18 50
ĠJim my
pl atform
t re
Date Time
Ġbeaut iful
Ġresear chers
188 4
^* $
Ġdiam eter
Ġequ ilibrium
Ġde leg
ere q
Ġexper iences
ĠMur ray
I gn
Ġpaint ed
Ġorgan isation
st ory
Ġte achers
Ñ ĭ
spec ific
pl an
ĠT ob
un ing
Ġclos ure
rel ations
ĠU pon
Ġ" $
Ġoff ensive
Ġcritic ized
H ome
Ġsouth west
M ouse
Ġmem orial
l at
dist ance
Ġderiv ative
Ġhead ed
Ġwrit es
Ġag encies
dr iver
Ġf erm
ĠE mer
ĠYork shire
Ġpers pective
ĠAthlet ics
ĠN ord
Ġjur is
in ist
ĠCar ib
18 61
Ġdeb ate
i at
as p
Rober t
m aterial
g it
Ġent ering
Ġt ied
f iction
Ġbu y
ĠLank a
umb ent
Ġprov incial
Ġcriter ia
Ġ' '
ĠR ico
ĠP refecture
M ag
e enth
Ge orge
; /
P y
Jan uary
, {\
ĠLim ited
ial s
ĠAp ple
ĠYou Tube
Ġd ream
exec ute
th rough
et al
ĠCap ital
ĠW ing
Ġcl ar
Ġatt orney
Ġtem p
E st
}{ |
Vari able
%% %%
18 64
c are
@ "
im ir
Con vert
ĠH um
Ġne arest
Ġkn ew
ĠK it
j amin
Ġgrav ity
Ġterm inal
ĠFrank lin
p f
ĠW AR
config uration
Ġinstit ution
ĠS ite
d ialog
Ġt all
in us
re lation
ig ate
Ġkeep ing
== =
Dem ographics
Ġsepar ation
ĠG rad
ĠO k
c ia
Ġre con
ĠN ar
Ġunivers al
! \
h ave
ov ing
Ġcustom ers
as et
pr ising
Ġ" ",
Ġinst ruct
ĠTh ough
p ull
Ġthe ater
Ġjournal ists
Ġnav igation
b ing
Ġcon vention
ĠK u
Ġf old
ĠCon vention
Res ources
math it
t c
t ar
Ġtown ship
ĠS ax
pos ing
Ġcent ers
Ġf est
Ġsuccess or
Ġcur sor
ĠR ight
ĠB asketball
Ġrg ba
Ġactiv ist
long rightarrow
Ġcan onical
id ad
or o
Ġapplic able
ĠU I
ĠNaz i
t z
ĠSystem s
188 1
Ġcred ited
Al umni
Oper ator
Ġspe ak
ĠL ear
Con structor
Ġbr ig
}\ ,\
T own
Ġpass word
A xis
ĠS I
Ġhypot hesis
ĠS S
pan ic
m ay
12 7
Q U
st ats
Ġpres erved
Ġm ig
ĠG iven
Ġrel ax
Ġconcern ed
ĠT ournament
ĠBern ard
Ġdocument ation
D en
Ġsign ing
cal c
. ",
Ġrac ial
u its
hip s
Ġdefe ating
h us
Ġincreasing ly
Ġgener ator
Text ure
Ġcritic ism
ĠN am
ĠP ay
b ow
En vironment
ro sc
icens es
ĠPro p
Ġhabit at
D rop
ĠM aj
Ġmanufact uring
Ġop acity
ĠR ic
G LE
ĠK um
run time
W ait
ri el
ĠPort land
ling ton
dest roy
Ġsam pling
Sup er
ĠOrgan ization
ĠI ce
Sup port
Ġprison ers
Method s
188 2
des ign
ebr aska
Ġdeb ug
Ġfinal s
em it
å ı
ĠMot or
lo pe
Ġcoll apse
ific ial
ĠW oman
Ġinput s
Ġproper ly
Ġb anks
ĠFI FA
Ġsubstant ial
Ġa f
ĠRem ove
Ġb ond
br as
m ates
d ereq
Ġv eget
Ġp itch
ĠA qu
10 2
build er
ĠY ugoslav
at en
ĠCat hedral
Ġfl u
sh aped
Sp an
Ġm ental
op al
Ġmov ements
ce ive
J ust
P ATH
Ġc ous
Ġpopular ity
Ġland scape
Le ague
pl ates
Ġher itage
se par
ur ers
Ġre nt
V ol
G M
Ġhand ling
Ġdecre ase
ĠTr ack
)) \
pon ential
os ph
ĠS ource
p b
Ġas c
ĠD J
LE CT
ĠF ather
Ġw ounded
od d
mit ter
ĠBir mingham
al ph
enc er
if le
Ġuns uccess
F E
Ġc ards
18 63
ĠElement ary
om ing
Ġme ets
writ ers
ĠF riday
ĠJ u
it ime
Sp anish
ĠPr ivate
. :
V M
ĠU lt
Ġg arden
m ag
big l
unn y
ĠGra ham
aud i
al is
Ġstar red
Ġdatas ets
A rm
ĠJ ason
Ġf ear
Ġrec ur
Ġstat ements
ĠP ictures
Cond ition
Ġmark ets
ĠNorm an
Ġweek ly
Ġw el
Ġrele g
ĠDef ence
10 4
p end
n an
Ġdi agonal
Ġvess els
Ġbusiness man
Ġt ight
Ġd uties
ĠEv ans
Ġseg ments
m und
an imation
Ġsign s
ari os
B ind
Ġsub mar
anc ouver
Ġqual ifying
/ (
id o
i ota
aly mp
Ġwork er
et he
ot an
Ġun iverse
ne ur
Don ald
ĠT rad
ah o
Ġround s
Ġk in
D epend
ph ase
Ġb om
ĠBelg ian
Ġres olved
requ ired
Ġc raft
ĠZ end
s b
ĠMad rid
ĠTro phy
et on
ĠR ain
ath y
ĠS H
ud son
Ġcomm une
Ġdecom position
ĠP rom
Ġpr on
ab out
=" /
Ġinst ant
18 62
Ġro se
ĠB ud
ĠR ange
ĠCons ervative
Ġmanif old
1 16
St ation
Ġisol ated
Ġf ruit
L ike
ĠC ore
}} )
sh a
const ant
Ġj unction
ĠS earch
ĠB illy
Ġthan ks
u able
Ġcoast al
ĠAN Y
hedul er
Ġhelp ing
Ġsimultane ously
ĠJud ge
Ġrecover ed
ĠP romise
D ig
ĠT rib
big r
Com plete
or ous
t ies
Ġconnect ing
Ġdis p
Ġt ables
ĠP A
De cember
ĠE val
Ġran king
Ġb id
Ġpro f
Ġle mma
Ex ample
Ser ies
Europe an
Ġrad ial
Ġguitar ist
$ :
em or
Ġrun time
ĠCarl os
Ġm es
Ġelimin ated
Ġrec ru
Ġcon figure
ĠL OG
urs or
Ġquant ities
Ġsatisf ied
ter y
Nov ember
h ill
H ER
Ġprefer red
ul u
B al
t ex
ĠN i
Ġnewsp apers
ĠL P
Ġe c
L ibrary
f are
asy nc
Al bums
pro gress
work s
ul um
L anguage
ĠB aker
iam ond
Ġdi agn
ĠStan ley
ĠD ouble
J ew
Ġg ran
00 1
ĠGlas gow
Ã Ł
fl at
ext ension
Ġcur v
Ġorient ation
ĠSoc cer
Ã ¦
ĠP R
ĠD est
Ġph ases
ĠT ree
ĠW rite
Ġne ural
Ġto k
s pl
Ġatt ributed
ĠStud io
Lin q
or igin
Ġappe al
ig o
ĠA the
Ġland ing
usal em
**** **
Ġg one
par agraph
ĠZ one
A ir
w t
ĠPr im
Ġdistingu ished
ĠPrad esh
ĠMil an
id ency
uk a
> '
t ensor
Ġal coh
Ġc md
Ġbelong ing
le tt
Ġtrans c
re hens
Ġfac ilit
Ġsignific ance
Ġconsider able
ĠL ud
avel ength
res ources
14 0
cis ely
ĠE dd
script style
ĠSerb ia
Ġw ish
Rad io
ĠTig ers
b ul
- (
form ing
ught ers
Ġf il
Rec ip
sh ared
ĠChall enge
Ġder ive
Ġpo em
En ter
l iter
Ġil legal
function s
Ġche cks
och astic
tr im
Ġsy nc
riev ed
ĠEd ition
Null able
Ġmed ieval
Ġimprov ement
at omic
Ġemer gency
_ );
m ill
k ar
Ġassum ptions
det ail
d frac
v i
Ġpost ed
Ġstr uck
tab s
Ġc yl
C r
Ġpoint ed
rist ol
ĠJ e
neg ative
ĠP RO
Ġconvent ional
B en
ymmet ry
S u
Ġmet rics
Ġp ian
Ġn a
re z
ug gle
cl one
Ġint r
L ight
ĠWrest ling
duc ational
Ġquant ity
claim ed
Ġmag azines
ub le
ili ary
ĠE U
h al
Ġt el
Ġf itted
******************************** ********************************
f actory
Ġrece iver
! [
orn e
u art
Ġsk ip
ĠThe ater
Ġrecover y
INT ER
ĠT ower
Ġchalleng es
ĠF uture
ĠInd eed
mar ks
Ġre vers
vert ed
Ġhel ps
Ġcommand s
L R
he el
vis ible
Person nel
187 8
ĠE ss
ĠG ary
3 60
ir ical
h ow
ĠM ak
ro ck
ĠMit chell
Ġelect oral
Ġfail s
Dr iver
av ailable
Ġsw it
iv an
11 1
ĠH ero
ĠA zerbai
Ġsim ilarly
ĠGu y
Ġan chor
Ġt ie
Ġread s
ĠU E
Ġind igenous
PRO C
] $.
188 3
b matrix
Ġconf irm
Ġelect ro
Ġbl og
Ġass ass
Ġse es
ĠJ azz
ili ar
ĠV ari
M ont
ib ilities
Ġnecess arily
Ġas sets
t own
Ġprov ision
Ġs ql
Ġd ress
ort ion
Ġrele ases
lot te
Ġb on
ert s
Ġpeak ed
ĠM ust
Ġpost er
ut ation
back s
ge on
sim ple
AD D
f am
p air
ĠAp ache
ĠRequ est
c pp
Ġchild hood
ĠInd ians
Ġflow ers
ric ane
Ġf ictional
ĠNov a
Ġst ead
ĠN ad
ĠT ol
R ob
> ;
op les
hoen ix
f ish
Ġb rick
Ġnorm ally
the re
M oths
Ġcompet ing
sh op
M art
Dec l
l ater
ĠN BA
ipp ing
ĠO S
h attan
em ale
DE F
Ġgovern ing
con sole
Ġ{ $
Ï Ħ
ĠS ets
Ġnom ination
Ġa cknowled
P an
\ }$.
sl ash
ĠR and
cy cle
ops is
W in
r ations
âĢĿ .
C ity
Ġcont ribute
Ġmax im
F ind
{ %
Ġh ide
ter ior
,\ ,\
Ġp ref
Ġart istic
N ET
et ition
ĠNiger ia
ĠM eg
al ias
Ġcan vas
Ġvary ing
res ize
Ġp overty
Ġrom antic
ĠD esc
ĠGu inea
et ary
ĠM ack
Ġhe ar
O UT
Ġgener ating
ĠSal v
Ġden ied
P red
eli hood
,\ \
atur ally
ĠP i
ĠBroad way
Ġc ub
Sequ ence
b oy
ham mad
Ġext ensions
ĠC ricket
ic ht
ĠDel hi
Ġcomp iled
ĠBl ues
DE FAULT
Ġprofess ion
Spec ial
h um
ĠY ang
LO C
ĠMark et
ordin ate
ĠI L
re pre
nc ient
Medal ists
IM P
R ound
D IS
IP T
Ġopport unities
Ġmod ify
T x
B ad
as ma
Ġind epend
p are
ĠN ation
tr ace
ĠSm all
Ġiter ator
group s
Ġspe aking
Ġdefin itions
d n
Ġd irections
ĠRoman ian
ator ial
ot on
ĠZ e
ĠC F
Ġtra p
Ġex posed
}} }\
Ġpan els
Ġhor ror
an ion
out ing
ĠCh ange
ak ia
in ated
187 6
Ġmagn et
Ġcancell ed
at iv
Over view
Ġprint ed
ubern etes
}[ \
G iven
Ġn ations
ik o
requ ency
Ġassert That
Ġs ight
Ġda ughters
ation Token
se lection
" },
SS L
Ġre tail
Flor a
st ad
am az
Ġred shift
ge bras
ĠH ttp
Ġsur faces
iz z
} </
ĠM ix
Ġfilm ed
18 75
ĠIn put
Ġdis order
ĠSt age
Ġ" '
olv ing
Ġman age
Ġentertain ment
N or
Ġwith draw
Ġconf idence
ex ternal
ĠAfghan istan
ĠElect ric
ĠAlber ta
re present
Ġmount ains
w p
Ġpre cisely
me an
en berg
Ġgreat ly
min ute
vert ical
Ġdec line
A rea
us ers
j query
Ġt unnel
Ġl icensed
ach i
class Name
Ġener gies
ĠG un
Ġfr ames
M ass
Ġmunicipal ities
Ġpredict ions
ĠSh ar
Rep ository
iss on
m ir
ĠD ictionary
ĠC le
Ġ$ ,
ĠB enn
ĠP ont
RA Y
oth y
ĠOn line
F ocus
Ġstay ed
Ġo vers
Ġpl ain
' ];
Ġdec isions
ĠJohn ny
F ORM
Ġmax imal
ĠSt ars
ann on
Ġ Ø
cast le
form al
ĠFinn ish
re lease
Ġp ray
Ġlong est
An alysis
Ġab use
ĠW ind
spe ed
Ġsud den
se m
cl ine
load ing
Ġman ip
ĠI v
Ġmain tenance
}_{ -
Ġforest s
ĠC ultural
Ġso il
CH AR
Ġcomp ens
Ġhy brid
Ġp atch
Ġab b
(' ./
$ _{
Ġbe ar
Ġpo ets
Ġdecl ar
ĠA ld
ĠConf eder
ĠB ranch
Ġhistor ians
Ġacc ord
ĠCarib bean
Ġm oments
ĠU g
ĠF ab
S al
ĠA y
ĠB ible
ul ates
ĠPier re
ĠPolit ical
Ġreli ef
N a
en ia
ĠF ine
ĠM other
18 67
ĠCre ates
MO DE
ellect ual
ĠSt orm
Test Case
ij ing
ĠDer by
ĠB omb
con nected
Ġcl ients
Ġcelebr ated
Ġenh ance
viron ments
$ /
hel per
Ġprior ity
Char acter
Ġclos ing
p ressed
ĠNev ada
187 9
qu ir
Ã¶ r
Ġappro val
Ġaff airs
L java
A re
j ango
Ġdef orm
st age
ic ode
Ġv oting
ynam ics
Ġtop ological
) --
ĠM i
Jo in
ĠC S
DE BUG
Ġsy mp
ĠWar ren
0000 00
Fail ure
Ġre aches
ĠP od
Pass word
T ags
as hes
Ġtransport ation
Ġmed als
display Name
Ġhapp ens
M F
ĠR acing
ĠIn s
end or
og a
Ġsurround ed
Ġtr ivial
Ġthem es
us k
^{ *
Hon ours
Ġmer ger
he ll
ĠB urg
ĠPark er
ĠHun ter
Ġc ro
ĠĠĠĠĠĠĠĠĠĠĠĠĠĠĠĠ ĠĠĠĠĠĠĠĠĠĠĠĠĠĠ
Ġexpl ore
F ore
iv odes
H am
Ġover se
z ip
est ion
Î ¹
spect or
d ocker
Ġd ated
ĠLe ad
s ig
hol m
ĠEx ample
create Element
ĠC E
f ol
Ġprot otype
Ġpubl isher
r ino
AT CH
sc ss
Tax a
t k
Ġnormal ized
ĠGr iff
Ġm it
Ġt ur
Ġup dates
Ġturn ing
block List
Ġmon ument
bour g
Ġsusp ended
ĠAl aska
Un known
9 00
Ġestim ation
] $,
ĠF alls
Ġvis itors
Ġtop ics
comp are
RE Q
Ġassum ing
d uration
ĠChar lie
Ġch unk
ak u
" ],
Ġunder stood
Ident ity
ast s
Ġcons ervative
Ðµ Ð½
Ġpres ents
ĠB orough
ĠRang ers
w atch
ĠJer usalem
ĠPro test
ĠS N
IN FO
Ġt x
ER S
G reen
10 3
ĠL iving
id en
ĠE ston
ue z
Ġ ĉ
U ES
go og
Ġsn ap
Ġsens itive
ĠMatthe w
ĠPr imary
ĠM ock
b es
Un ivers
ĠE ff
ĠWay ne
qu er
sh all
ĠN icol
Ġappoint ment
Ĩ Ĵ
Ġv ic
Ġc up
qu al
Ġparticip ation
f mt
Man agement
ĠV erm
Ġor chestra
ok ing
in os
Ġnot ion
P ay
Ġdeterm in
ĠL GBT
;\ ;\
ĠLand roid
Bas ic
mer ge
Ġcol leges
Ġf urn
ĠS aints
Ġsu icide
cel and
ĠL iga
st ers
ab e
ĠG reater
Ġhard ware
Ġann ounce
c raft
( .
Ġcomp atible
Ġign ored
Vis ible
Ġterrit ories
ĠN ebraska
app y
Pl ayer
Ġlook ed
Ġb old
art he
ĠG R
}} _{\
ĠNew ton
int ro
log ger
ro ute
un ately
Ġrepresent atives
sc ribe
set up
al gebra
Ġvalid ate
Ġdis contin
Ġdisc ipl
ep er
Ġde legate
con cat
Ġo x
in ery
Ġgeneral ized
c z
ĠBar ry
s quare
inc inn
pre vious
Ġpe er
ĠCh ron
ĠAtt orney
Ġwe ar
p u
av an
Ġsee ing
ĠB ey
z ant
Ġiter ation
Ġcon front
V P
og ue
Ġv ul
ĠJ ama
Ġinflu ential
ĠRich mond
ĠFle et
h ref
Dist ribution
OR TED
Ġload ing
od ay
ĠP il
Ġg rown
Ġking dom
Ġcount ies
ĠM ans
M ake
ane ous
Ġaccess ible
Ġmarket ing
c ounter
ĠEx pl
Ġsup ers
"/ ></
ĠAnd y
pl oad
Ġexist ed
Mich ael
Ġwas n
ĠMin or
Ġp ixel
c lean
w arning
T ur
grad uate
Render er
ĠBar bara
ĠInit ial
Ġre ward
N ormal
Se ason
Ġcontinu ing
aj a
ĠTra il
INS ERT
j ob
ĠI an
ivodes hip
E val
as sembly
Ġcre ative
187 1
ĠI van
Ġelement ary
Ġchampionship s
ãĢ Ĥ
Ġcorrect ly
Ġre putation
Ġd x
th ree
J ack
Ġcoll ision
+ (
we ek
Ġcompet itive
b rew
Ġp ipeline
Cl oud
ĠPr int
v ee
ast rop
Ġd elta
Ġdemonstr ate
em pl
Ġmechan ical
Ġinvolv ement
Ġend point
ĠAss istant
p read
ĠSt atus
iv ities
b ian
in herit
yth m
Ġinj uries
Ġcomp rehens
qu ant
ĠOption al
D an
Ġrequire ment
Ġhundred s
ier ra
Ġeval uated
ĠHawai i
ĠJ enn
om al
ĠD O
m aker
ĠS even
Add r
Ġenc oded
Ġen umer
18 43
) &
ĠY e
Ġprinc iples
ĠH ad
Ġw ides
^{ (\
Ġsurg ery
Ġresc ue
and al
ĠHind u
Ġh ol
C ALL
ĠSer ge
ĠSte el
Disc ography
ĠProfess ional
\ )
ĠT ab
Ġtext s
Ġsubs idi
B inding
ĠI ss
ĠE ug
ĠL uther
Ġparliament ary
Ġvess el
ĠCl oud
is ons
our t
add Class
Ġtrad ing
Id x
om on
ol s
18 68
incinn ati
Ġqu ark
b p
ac cept
Ġmiss ions
Ġrece ives
Ġf ishing
C RE
ĠH ub
Ġoper ational
Ġgen re
ĠH old
ĠFran c
ĠSpe ed
ĠAp pe
at che
ent e
red uc
ĠApp endix
Ġexhib it
empty set
Ins ert
ĠS ongs
ur u
Ġcontrovers y
side bar
Ġdecl ined
Ġw allet
Ġportray ed
Ġa ux
ĠVictor ian
less sim
187 7
Ġf ake
Ġlimit ations
Ġexplan ation
ot ton
Ġdef ence
Ġel der
Ñģ ÑĤ
Ġin clusion
Ð¾Ð ²
li x
ĠAlex and
Ġlumin osity
St rategy
ĠFl ore
P air
Ġt y
Ġvis iting
) })
stand ard
ĠC P
187 4
sp in
Ġdel ivery
ĠVo ivodeship
Ġsquad ron
Ġpublic ly
187 2
10 7
Ġwood en
Ġpot entially
Ġd owntown
ĠB ert
ĠT ib
Ġl ose
à ¦
ĠW ang
ĠClass ic
Ġcol le
Ġthreat ened
Ġb ars
Ġsup plement
ĠV ancouver
Ġmiss ed
ĠV as
ĠL ate
l oss
ĠG ot
ail ability
EX PORT
C ritical
Ġart illery
() ))
) ",
Ġex ponent
Ġ à¤
ĠM all
Ġf ee
Th rough
Ġp sy
can vas
ĠR u
j pg
ĠE mb
ac re
ĉ ĠĠĠĠĠĠĠĠĠĠĠĠ
á º
le e
ĠMem bers
Ġlog ger
Def unct
L and
ĠColomb ia
Ġreve als
fe ature
Ġon going
or ia
f our
is p
ĠPer u
ĠP ant
B order
H en
Ġn p
ver age
ĠS ett
ĠBeng al
3 50
Des ign
onom ous
red it
ĠMed iterranean
L ou
Ġvar iance
Ġhe aring
f c
Î ½
Ġwh ilst
Ġs alt
it udes
Ġproport ional
ok er
Ġcopy right
Ġapproxim ate
B Y
Ġexped ition
ef ul
ĠPro file
C G
Ġsust ain
ĠS eg
ĠL ad
Ġpo ems
ĠCommunic ations
ĠP O
, '
ent ine
m aking
Ġh olid
M ix
ĠP DF
ust ed
Ġs in
Ġ\ ]
ĠSt ream
Pro to
Ġcl one
Requ ired
Ġswim ming
Ġstrateg ies
L ive
A lex
b d
i est
i ology
cel ona
ĠTe le
Ġw ine
ĠB achelor
Ġfriend ly
E ST
ĠMic hel
l ined
Ġdep icted
Pro of
Ġwor st
ĠEgypt ian
et o
ĠPar ish
Ġre act
Ġmin isters
au er
Pl atform
Th omas
Ġs essions
d ays
inst ein
Ġg iant
Ġconcern ing
ĠG il
}} ^{\
object s
art icle
av ior
Ġconv icted
G allery
Ġ" [
ke ley
keep er
Ġc ir
ĠL oad
ĠMan hattan
z ym
Ġphot on
w inning
Ġch amber
Ġh a
Ġthous and
ĠT un
ĠSerb ian
ĠBen jamin
Ġsp oken
ĠSp irit
ĠSh a
Ġphot ography
Ġh osp
Ġ{ "
ĠV el
. <
Ġdisestabl ished
Ġg rows
oped ia
born e
Ġmov ies
ĠS outheast
B ottom
ĠF itz
Ġcheck ed
] ))
ag ar
ĉ ĠĠ
Ġb ases
Ġ' ',
F ebruary
ĠAnt ar
G old
aud io
Ġapparent ly
ra ham
Ġm oth
ĠR ace
Con nect
Ġm anga
Ġre ducing
ens ively
l ip
LA PI
il ty
AT TR
Ġident ification
(" /
Q ual
Ġw idget
ĠTw itter
ed ed
Ġg ram
ĠA C
PO ST
ĠJon athan
Ġindepend ently
ĠO range
m usic
ĠAnd re
t iny
Ġis ot
Ġam ateur
Ġb tn
LO W
18 66
L D
h arm
Ġ( {\
ĠEd itor
B o
S creen
Ġlocomot ives
Ġsent enced
sequ ence
ĠU SS
Ġperson ality
Ġstruct ural
ow s
ounc ill
Ġcon n
18 40
Ġcl im
Academ ic
erv es
ĠPol y
ver ter
Ġpart ners
Ġoccas ionally
Ġrec re
187 3
Cons ider
ĠM ess
Al so
Ġcou ples
Ġe ase
O F
Ġclin ical
}} .
R oyal
Ġh ip
ĠIran ian
i ya
ĠN BC
Ġmat ched
h aus
ĠBuff alo
ĠPl ant
ne ut
Ġd ub
ĠF reedom
Ġcou pled
h ook
cur rency
Ġcele b
Ġf oss
ĠF ind
Ġg rey
Ġsub mitted
ĠAng l
te enth
Wh ite
R aw
ĠJ osh
ĠB und
Con stant
æ ľ
ent i
Ġbe ach
AR B
Ġm atters
app oint
dis able
Ġcorre ction
ĠÃ ł
Ġb acter
em bed
Ġs ax
Ġbatt les
10 6
}) }
Ġvac uum
Ġsurv iving
Ġmin i
On ce
AM P
w ave
FF ER
ĠB ron
ĠV egas
ĠMu hammad
ĠV I
Ġp ole
form ed
Ġall oc
ĠAd miral
dev elop
) }_
b lem
A I
ĠO ct
Ġdec ide
Ġdesc riptor
Ġne uro
Ġth rown
Ġt ags
G a
sc ar
ĠColl ins
Ġh al
ĠB ristol
Ġv ast
ĠMan ager
Ġfrequ ent
ĠV lad
b ie
Ġf at
Ġprep are
ov en
ac a
Ġbir d
se q
Ġmeet ings
Ġat omic
Ġ- =
Ġcr imes
er as
h pp
ir ms
ant i
Ġaddress es
f olk
ÑĢ Ð°
S il
Ġte ach
ĠV ic
Ġcons umer
C ursor
R a
Ġr ub
Ġgrad uating
ich i
ĠAl bum
oph one
ster dam
h alf
g ot
> ()
Ġap plies
Valid ation
Ġd iverse
serv ices
Ġ urg
exp and
st ates
Ġexp ensive
S N
Ġsp oke
Ġmount ed
Ġto w
Ġmach ines
Ġadv ice
Ġdrug s
Ġgrad ually
str ument
Ġsh aring
18 00
H AL
pre c
prov ider
Ġcous in
if est
Ġcirc ular
En v
overs et
Ġtra il
NavBar Cell
; }
$ &
å ®
ĠI gn
Ġ ^{
ĠCub a
B ro
am er
][ ]{
Ġassign ment
}) =
Ġinstrument al
Th row
Ġre semb
if ting
ĠR ing
H or
T ex
ĠC her
Ġphil os
Argument Exception
ĠD og
ID E
vert ex
Ġfeed back
test s
Ġj s
ey er
ĠC BS
Ġre construction
ig ible
athe red
M IN
Ġac oustic
Group Name
at ivity
Ġas semb
ĠN ature
fin ite
T om
Ġexcell ent
ĠB ass
Ġactiv ists
(' /
Ġadvert ising
Recip ients
Ġpre gn
} ~
Ag IC
Ġsh adow
re act
Ġseek ing
ĠP ow
ĠFl ight
ag i
Ġe ighth
> "
ĠTe ch
Ġrul ing
min a
oun sel
Ġnon linear
Ġemploy ment
ĠBer g
Ġarrang ement
Ġre duces
Ġthe at
ĠCl inton
ĠCommission er
# {
G O
ĠHar rison
ĠGh ana
ĠW a
clus ively
ĠTurn er
Ġgrav itational
an ne
ist ani
Ġ ul
o j
Row s
de ep
ĠM aced
ry ption
b oth
ĠNichol as
Ġsold ier
not ations
Ġinterpret ed
Ġann ually
âĢĿ ,
Ġim possible
Ġre un
ĠMar s
hem atic
n ative
ĠMor oc
Ġpack et
M ETHOD
Ġin herited
ĠGL int
ĠL yn
Ġhon our
Ġstrict ly
Ġh orses
Ġpick ed
Arg uments
ĠMont e
Ġcont roll
pro gram
Ġmar ks
Ġann ounc
ĠS id
In formation
Ġen semble
ok ens
Ġattract ed
Ġexpos ure
ĠP si
Ġeas ier
Ġdepart ure
Ġelev en
Ġg allery
ĠPer formance
comm it
A thlet
Ġcurv ature
: `
Ġl ens
S ame
\ /
Ġnomin ations
l ights
valid ate
ĠS ymphony
Ġfrequ encies
Ġd t
Ġfall ing
18 69
Ġcomm emor
Ġunus ual
M usical
Ġlie utenant
Ġdynam ical
im ated
por ter
Ġwides pread
Ġdou bles
Ġemb edded
Ġfac ing
(' #
10 8
Ġelev ation
og onal
Ġelect rical
ĠSt ore
ĠK os
ĠH ope
p ine
Ġst im
Us age
comm unic
Ġgovern ments
n p
ĠH unt
tr l
$ };
Afric an
w ik
itar ian
ĠTerrit ory
Ġreport ing
V E
il ia
Al low
m k
on na
ĠTr inity
Named Cell
Ob server
Ġemb edding
get Value
te am
Ġb ul
ĠM ol
m f
ĠB aptist
erv ing
ĠKir k
e lected
ä »
Ġ\ !
Ã¡ s
hor izontal
MOD ULE
f lex
t ransparent
Ġbeh alf
ĠCan al
Sc hedule
Ġf aces
Ġsil ent
ĉĉĉĉĉĉ Ċ
Ġw et
Ġf ault
L T
Ġp rices
sp ir
Ġweek end
Ġpro pose
at io
Ġord inary
G ER
ser ial
xy gen
Ġin herit
ĠArab ic
Ġrec urs
Z one
Ġaim ed
Profess ional
Ġcontrovers ial
et ta
iz ard
pt o
Ġd rew
Requ ire
Ġinvestig ated
M s
ĠW ed
As sembly
Ġcount s
ĠG iants
cur s
ĠP ra
W ORD
Ġrestrict ions
1 18
ĠL ook
ar as
Ġp ixels
ch arge
Ġat oms
Ġagric ulture
Ġpred omin
Ġven ue
g un
ag re
Ġpres erve
has OwnProperty
OR Y
ĠS U
10 9
Ġas ks
Ġpro files
Ġlast ed
Ġst abil
ĠArt illery
Ġc od
Go ogle
ass y
ac er
Ġob st
view s
Ġcab inet
L Y
Ġran ks
Ġconcept s
VAL ID
ĠCon n
Ġlaw yers
ag ination
d irection
STR ING
ĠMat hemat
ĠO wn
is set
ĠA P
ov ich
ra ud
Ġleg acy
Ġtri als
ĠS r
} ))
ĠEx change
Ġcommunic ations
Ġexerc ise
ĠOl iver
st roke
ar ith
elf are
ĠO N
Ġpro hib
AS K
F ac
rit ic
Char les
ĠAnd roid
Ġr id
Ġautom atic
ç Ķ
Ġis omorphism
ĠS z
Ġo cean
Ġsp here
Ġmet all
Ġcon fer
Ġcorpor ate
D er
ĠS eb
Ġemer ged
Id s
v et
Ġt um
Ġill ness
B ased
Ġqu ot
Ġdest ruction
Ġperiod ic
hel m
Ġsp ending
Point s
Ġut ility
AAAA AAAA
Ġper cussion
Ġatmosp here
in ject
ela ide
Ġdeploy ed
ĠG ate
Ġsuper ior
Lo op
G LAPI
Scott ish
Filter Database
writ ing
ĠSim ilarly
Ġsche mes
B uff
N d
amp a
ĠChar lotte
Ġact ed
ĠK ap
Ġpred ecess
ĠS ah
ext ra
Fe atures
Ġsh ore
am pton
S ort
Govern ment
ĠS P
Ġrow span
is Empty
Ġasympt otic
Ġl ang
Ġim plied
ĠUnivers al
ĠUrb an
ĠH amb
Ġremov al
ar an
Ġpresent ation
Ġyoung est
b uilt
Ġ ur
Ġ@ "
Ġthink ing
Ġst em
ĠD raft
ĠJ a
Serial izer
Ġtr im
. ),
C md
ĠS ide
ĠD ays
her ical
Ġm ail
ĠP hoenix
ig ator
P resent
Ġful fill
Ġabsor ption
S W
ins ic
Ġw orship
Ġth irty
Ġdistingu ish
Ġ( ).
re ts
p us
}$ }
ĠIndust ry
p olicy
Ġ" %
Ġstat ue
c atch
ĠB ris
Ġcon gress
H ence
Ġp ending
Des pite
ĠUE FA
it ure
b ane
Ġg ay
Ġdist ances
ĠH D
ĠM ind
Ed ge
Ġk it
ĠR oll
re ck
uck land
Ġphot os
= }
ĠE li
Ġwrest ling
um ption
ĠM D
Exec ution
Ġp m
qu ote
Ġfluct uations
ĠI ter
Ġfocus es
Ġpay load
Ġh at
ber ry
S ample
Ġstrong er
Ġin g
ro b
\ |\
Ġsm art
~~~~ ~~~~
en os
g rav
Ð ·
Ñ ĩ
Group s
Ġg olf
ĠL eft
Ġen vironments
Ĥ ¬
ĠT u
Ġcircum stances
Ġc y
Ġarchitect ural
ne e
}) ^
M a
d iction
Ġdon ated
Ġrep air
Jew ish
C lear
}} =
ĠBe ijing
ĠIN TO
Ġprotest s
Ġd ashed
ĠL loyd
Ch art
ush ing
enn ial
ĠIs a
MA P
ĠCost a
j u
Ġins urance
Ġa w
om m
/ .
K ing
Ġc able
ĠF ROM
Ġob server
18 48
is ot
it is
Ġdem olished
he w
ĠMun ich
D ATA
Ġcompar able
h ot
tikz picture
Ġtok ens
s ocket
Ġcruc ial
Ġafter wards
Ġim plicit
inem at
ĠSim ple
185 7
ist ogram
Ġid x
Ġ" ";
Ġunder ground
Ġtop ology
ĠVin cent
li er
\! \
multi row
Ġc ash
at ibility
Ġre venue
en o
ĠN HL
mem ory
Ġmer chant
ed a
ĠStud y
Ġrestrict ion
an chor
Ġsup plies
Ġs ympt
ĠV a
Ġsl ave
Ġspirit ual
m aml
Ġl ap
ĠAd vis
ĠM ig
ĠB S
qu arter
ĠCons ider
CO M
h n
ĠW arner
ic ates
ĠY am
Ġn aturally
r ative
ĠMuslim s
Ġpass age
In f
ĠH iggs
ĠSpring s
Ġweap on
Î µ
Ð ¹
C ulture
re port
S ave
Ġprec ise
Ġmechan isms
int o
ĠP ast
ick ing
end ers
ell ion
Right arrow
r ating
Ġgen etic
ĠI celand
ĠSy ria
ocr acy
Ġf ighter
us ername
ĠCl are
ĠDemocr ats
ii i
ĠAb stract
ĠK le
ĠLiter ature
Ġc b
var iable
Ã© d
Ġb orders
AT ED
pl ain
C ard
Ġal pha
repe at
Ġover flow
ĠB uch
Ġ' "
ib ration
Ġearth qu
an alysis
Ġinf antry
Ġt ribe
ĠSt evens
AN CE
Ġvot ers
ĠBar celona
ab et
Ġperform s
ĠArray List
Ġaggreg ate
Ġcho ices
ĠSocial ist
ĠLu is
\ }\
ut ter
Ġadult s
ĠSing les
ine e
os hi
ĠS ultan
Ġconfig urations
I AL
Ġpro to
s un
Ġbo ats
Ġ' %
d c
z es
Ġc inema
act ual
ĠFac ulty
n ed
Ġamount s
Ġ elli
=" @
Ġw avelength
up load
ab ul
ĠS now
ĠSt ein
Ġqu asi
com es
H tml
H ung
j d
Ġsupport ers
. ;
ĠPhilipp ine
Ġun like
ĠJ oy
ĠW IT
oid s
ĠDr ag
M ale
Ġw ick
uch y
Ġsit uations
Ġp ub
am o
Ġup grad
ĠM C
B atch
ĠL ions
Ġconsum ption
Ġg ard
Football ers
Lem ma
Ġimp ress
ĠB rew
Ġreal ized
ĠB our
rt l
oth ic
Ġchar ter
Ġvir us
own ed
b est
> )
Ġacqu isition
ĠP sych
Ġf ilters
ĠD M
Ġcollect ive
ta wa
\ }$,
185 9
Film ography
H D
em ed
Ġge ometric
ĠB og
Ġcorre ctions
ĠCom puter
ĠGon z
Ġan ime
Ġtext ure
Ġinn ings
as is
ĠSh ang
ĠH udson
Rep ublic
Ġmar ry
ĠIn v
ĠMov ie
Ġt ransp
Ġp lease
Ġcom ics
ix on
im its
Ġc oc
ĠG rey
ĠSt re
ĠTh or
Ġorb ital
Ġsub stitute
greg ation
ĠMont ana
po inter
Ġslow ly
Ġ\ (\
pop up
Ġcut s
sub sec
arthe ta
ug ment
H om
Ġlif etime
rel ative
Ġdifficult y
Ġbroadcast ing
Ġm m
ĠC ob
T our
Ġh ook
Ġsuff ering
R ANT
Ù Ħ
coll apse
inn ed
ĠT as
ĠR ank
ĠĠĠĠĠĠĠĠĠĠĠĠĠĠĠĠ Ċ
Ġt ort
or rect
exp ression
Ġpart ly
v artheta
j or
Ġab road
Ġmodel ing
ĠH ann
arri ors
ĠK un
Ġclaim ing
rem arks
Ad min
Ġmart ial
Ġimprov ements
Ġencour aged
Ġamong st
Can vas
B etween
Ġre plic
it i
end a
ĠKen ya
An notation
". /
S ir
qu et
ĠComm ons
e ctions
Ġde bt
Ġe arn
ĠG T
Res olver
Mon th
L i
Ġfund ed
Object s
DE X
Ġs ocket
ig s
ĠAbb ey
Ġvol t
Ġc ul
Ġdom ains
ĠF err
Ġcl ip
Ġh oles
assert True
ĠC ov
Ġvac c
ĠAm sterdam
Ġal ias
Ġmathemat ics
ĠM idd
Ġdiscuss ions
bas ic
Ġsub div
Th ree
Ġhon ors
Ġex clusive
Ġex tr
spring framework
ĠCl ay
Ġb attery
ĠDi ocese
Ġsound s
script size
Sup pose
ĠVAL UES
par allel
B razil
Ġ| =
rid es
im plement
Ġhel ic
V AR
build ing
p ending
ĠArt ist
Ġcas ual
pro duction
Ch arts
Ġs oul
Ġf antasy
Ġpre tty
ĠP ic
Ġpay ment
] +
Pl an
ĠHer z
'] );
Sw ed
ĠG round
x s
Ġco ff
Ġ æ
M aster
Met rics
Ġthan k
a que
at ri
ĠR aw
t ures
Ġrest oration
Ġenjoy ed
ĠW here
ath on
y ou
Ġdet ector
ĠTreat y
ĠL ost
au kee
Ġsystem atic
Ġ ,\
ĠĠĠĠĠĠĠĠĠĠĠĠĠĠĠĠĠĠĠĠĠĠĠĠĠĠĠĠĠĠĠĠ Ġ
Ġs lope
it ely
ĠWAR RANT
=" ${
AS H
Ġpseud o
S ql
Ġhand led
B ooks
ancell or
ĠSh aw
Ġsh arp
"" "
Ġdef ining
ul er
ĠI r
Ch inese
Ġdeg ener
Ġpost s
Ġprepar ation
string s
Ġ! !
Cont ents
ĠJer ry
ĠCirc uit
map s
b atch
ĠUn iverse
Ġp ictures
= .
ĠD B
ĠT on
Ġfl ed
her ic
^* \
ĠBer keley
uc lear
ĠEth iop
ĠM achine
ir th
ĠMond ay
Ġscient ist
ov sky
R ules
ĠMunicip al
ĠE sp
ĠL is
ĠOper ations
ĠSer ver
Ġr ising
Ġsp end
ĠT erry
ĠH ob
Dr ag
d ynamic
Rem ote
Ġmag ic
Ġreported ly
ĠCons erv
ĠP le
ĠF ro
hold ers
periment al
ĠC ad
Ġ-- -
Ġtransform ed
r us
Ġplay offs
Ġb ath
Ï ģ
AR RAY
Input Stream
V irtual
uss ia
Ġinc idents
B its
Ġstret ch
ĠIn ternal
ĠI T
Ġbeg un
iss a
Ġ' .
ĠM IT
BU FFER
Ġtechn ologies
_ )
Ġtal ent
ĠF ix
ĠVenezuel a
Ġman aging
column width
F uture
Ġtri ple
ĠM yst
Ġorgan isations
Ġpro fit
Ġjourn als
Ġrecip ient
Ġrespons es
ic ing
Ġst roke
ĠV ector
Ø ±
Ġident ifier
cent ral
Ġtravel ed
Ġrepe at
Ġtrans itions
Ġelse where
as ant
Cont in
ĠChe l
T or
ai ro
ograp hers
t ouch
Ġco aching
Ġleg s
b rane
ĠM oz
ĠEnc ycl
ĠB lood
Ġstr uggle
g om
S en
ri ber
is ec
Ġreason able
it ual
d ash
Ġw ings
> $
Ġout break
.. .,
ĠForm ula
Ġinn ov
Ġex clusively
ĠN an
B ool
ĠSe lect
arch ive
od s
Ġexpl ains
ĠRepresent ative
Ġsepar ately
ĠBroad casting
i w
t f
Ġcomment ed
ĠHer bert
cont ents
is ch
Ġl ingu
ĠM ann
r h
ĠY u
ĠS ad
NS String
Ġfind ings
Ġestablish ing
act s
se p
Ġcred its
Ġmanif est
yg on
ij i
Ġinstall ation
Ġout come
ir k
ĠÐ ¿
Ġlog ging
ass ign
local host
Ġsettlement s
l ag
ĠAzerbai jan
T ouch
U pload
Ġinter pol
it ations
Ġan alys
e or
fig ures
Ġop ponents
Ġscen arios
Ġpat rol
Ġequival ence
Ġvis ibility
ĠCon vert
C ounter
Ġfest ivals
Ġp uls
Ġrest ore
ĠC lient
l ive
ĠS audi
Ġdise ases
Ġem igrants
i ors
Trans ition
Ġarr ive
Ġun cle
j ax
ject ure
Ġconv inc
T imer
ĠP M
Ġ} {
ĠP in
Fr agment
d al
Ġl oyal
Ġoccas ions
ĠAthe ns
Ġdelay ed
p ython
P ubl
Cont ains
ĠW es
C LASS
St atic
ĠC old
Vis ual
aj ax
ĠDr ive
ĠBy zant
t an
Ġran ging
ĠUn like
p rom
Ġd ictionary
================================ ================================
s ass
Ġelect rons
Ġsequ el
rang ian
comp ile
Ġin var
Ġten ure
ĠS ak
Ġb at
Ġcap s
Ġe le
ĠL an
AgIC AgIC
Ġapp rec
ĠM ason
ĠSh ip
Ġap artment
FLA G
ĠTechn ical
re leased
F OR
un ks
Ġcom plicated
ĠSt ruct
S aint
Ġm or
P rom
ON G
Ġsm allest
en burg
18 30
AR D
Ġch rom
ĠMag ic
Ġcal endar
ourn aments
ign ore
f eed
ĠF isher
ĠHol land
Ġb ridges
Ġdesc ript
high light
L C
Ġcont ested
Ġv anish
Ġacc ret
B ecause
Ġn urs
Ġphys ician
Ġvict im
ĠPro tection
. \\
Ġneigh b
ĠCra ig
ĠA ber
Ġed it
Ġtrib es
ĠDr agon
Ġalcoh ol
Ġdu o
ä º
over e
Ġprem iere
w aukee
Ġcustom er
Ġbreak s
ĠPar alymp
et ric
ear ing
ĠMar vel
g ent
al am
ĠAd elaide
ĠBe h
Inst all
Ã¶ n
char acter
spec ies
Ä Ł
2 20
ap is
ev ille
ĠM end
ĠB ath
ann i
Ġdes ire
Ġadv oc
Type Def
ext ensions
Ġdev oted
ĠS ask
z ing
ĠS or
Ġw ider
M ad
ĠCh and
cal endar
Ġrep orter
G rad
B usiness
amaz on
ĠB ird
ut o
FI X
Ġinit iated
W ar
ĠS Ã£o
ĠF u
ĠJ ess
ĠC row
iv ic
ĠSt ra
Ġsurv ive
ff f
ĠCon stit
ph al
ĠHor se
Ph aser
å Ī
L EN
13 5
n m
ĠCo al
g ood
com plex
Ġp or
Ġrad ical
sl ant
Ġg ro
ĠCroat ia
Ġw inds
ĠNor folk
Ġf iber
E lect
Ġre construct
ĠB right
Ġliber al
p romise
Ġb ug
ex it
ĠOb ama
l ab
ĠL ux
Ġt on
s afe
ĠCr ime
Ġaltern ate
per iod
Rich ard
is i
ĠC atherine
el ia
Ġb io
Ġhapp y
Ġf itting
ĠConst ruction
Ã ī
k n
ĠÃ ģ
S erv
Ġg all
eff ect
ĠC incinnati
Te am
sl ide
ĠFin ance
ĠB Y
ol ition
Ġb are
Ġaver aged
Ġalign ment
ĠHe avy
Ġaffili ated
Ġcov ar
Ġchar set
Ġcomplet ing
Ġst ats
B ounds
ĠI F
atern al
Ġst ochastic
t p
ĠM ach
ĠGerm ans
ĠCont emporary
se ctions
ĠArmen ian
ia o
V C
St ud
E SS
S ide
U nd
Ġviol in
Ġt d
Ġfam iliar
P eter
] {\
ate ver
} |\
Ġcol ony
ĠIndust rial
Ġh alo
Ġmuseum s
ri en
ĠL en
Ġform ations
fort unately
g overn
Ġex ponential
ĠGe V
Ġperm itted
Ġg ift
Ġadd s
ap ing
Ġop ponent
Ġphotograph s
E conom
Ġint ellectual
A SE
Ġin ternet
Ã± a
ĠBuddh ist
Ġsens itivity
Imp lement
Ġcross ed
Ġver b
c ancel
ins ky
ĠEd wards
method s
T X
ĠD ou
ĠAl tern
ĠArgent ine
, .
Ġkeyboard s
Ġto ler
W F
ort s
ĠF if
Ġsh orter
Ġreg ulations
log in
ond a
Stand ard
om p
Ġconj ug
ĠT ang
185 4
: =\
ĠPers ian
Ġconcert s
Di agnostics
c aster
RES ULT
ar l
Ġremov ing
ĠRog ers
A bs
Ġrend ered
Ġposs ession
P G
b g
Not Found
rict ion
ĠChrist ians
c apt
ĠThe od
) >
st own
Ġr ide
ĠK ath
ĠCh air
Ġt act
Ġs af
ash a
Return s
r imin
Enumer able
ĠA uckland
Ġf er
Hel p
former ly
ĠB reak
ĠF OR
Ġcom fort
Ġch apel
Ġg ymn
sk a
um i
ĠH em
ub a
c ert
Ġret ain
Ġc ertificate
More over
ac les
B eh
Ġread only
get Element
und a
Ġmathemat ical
AT OR
Ġt ang
Ġer ected
read er
as ia
PAR AM
t body
th y
W rap
API ENTRY
ĠGr ade
ĠGl en
ov an
Ġmanufact urer
Sec ret
Ġ} }
Ġbi ological
Ġgu ilty
Ġart ifact
uc c
R ivers
Ġview ers
ĠSh adow
ro d
Ġperm issions
CON FIG
Ġvar iants
Ġelectric ity
gener ate
Ð ¿
ĠMean while
Ġout standing
com pute
Ġt ribut
Ġ ib
Ġt orn
ĠS ox
ĠC lear
ĠPh D
ĠS ay
Ġsurv iv
Ġreg istration
Label s
K it
ĠKe ith
m oment
Ġcommand ed
B D
EN ABLE
ĠL arry
Dec laration
Ġprote ins
i ot
Ġed itions
M or
C amp
SE LECT
Enc oding
185 8
Ġn eck
Ġenc ode
Ġn an
ĠJeff erson
á ¹
Ġw edding
P ower
P Y
ĠN AME
Ġvol can
ĠPhys ics
ĠM asters
Ġrespond ed
Ġdispl ays
Ġrot ate
Ġgrand father
ĠAcc ount
ĠF am
Ġeigen values
ĠB ased
ĠH ugh
qu is
h is
ĠRob in
Ġco oper
Run ner
k an
ĠCamp aign
ĠDat abase
Ġregard less
Ġtr unc
Ġorgan ised
ĠM icro
script ions
Ġn ut
ĠPen insula
Ġwhe never
Ġen zym
ĠFri ends
apt ers
Ġesc aped
Ġgu id
ĠWith in
W IN
ry s
C ref
Ġcomprehens ive
Ġsl ot
ĠDiv is
tool bar
Ġm ines
Ġwe aring
Ġhydro gen
Ġcarri er
ĠW as
med skip
ĠF ourier
Ġatt ending
th ick
Read y
Ġpar ks
Ġsp rint
Ġoccas ion
$- $
Comp iler
Ġstream s
{ |
ĠResult s
ĠAv iation
A K
ch arg
Ġdens ities
Ġp ng
Ġmix ture
; ">
w d
Ġv m
b etween
Ġinst ructions
Ġlength s
Ġadv ers
Ġextract ed
/* !
th lete
ĠL ion
Column s
size i
Death s
ĠNep al
SQL ite
." ""
be h
del ay
Ġhe ter
ĠPeters burg
Ġfew er
l m
ĠBulg aria
Ġc os
å ħ
ĠRefer ence
ĠG ay
? >
B er
h op
Ġa ims
Ex pected
ĠR AF
rom agnetic
Ġinit iative
Ġs ke
ĠRes ponse
Ġclose st
Ġman ual
ĠU til
ens itive
r ise
Ġdef ending
R ate
Ã ½
Ġb ott
Ġsup pose
App end
ĠAut o
Err ors
Ġleg islative
ab c
ingu ished
Ch ain
ĠAl ger
iv o
Ġpl asma
og ical
G l
ro at
Ġop ens
Ġreb uilt
ĠO il
Ġattempt ing
ĠShe l
ol en
repre neur
Ġtri angle
Ġent ang
Ġent ities
Ġl aser
ĠD raw
ib ling
ï¼ Į
Ġal ert
Ġag es
Ġfavor ite
D iff
ĠInt elligence
Ġinaug ural
art a
av ia
ĠCar lo
Ġequ als
. $$
ch anges
Ġext ensively
H ub
Ġcontinu um
Ġcontribut ing
Ġdanger ous
( -\
H F
er red
ĠSt even
k ubernetes
leg iate
d ue
ur se
Not ification
equ ations
us p
18 55
ĠT ogether
UN D
V A
ent o
F oot
Ġc argo
ĠOver all
ĠCur t
ress es
ĠDe lete
ĠP ul
il iation
'] ['
ĠD h
T ick
24 0
h istory
back slash
Ġinter vals
Ġread ers
W here
ip edia
Ġdis able
Map per
ir us
Ġdiff usion
Ġcoal ition
Ġbi ography
Ġart ificial
Ġproced ures
v ect
Ġext ending
Ġsol ving
Ġro bot
Ġstrateg ic
O h
per m
Ġall ocated
Ġfl ash
Ġqual ify
Ġmarg inal
S G
(" %
Ġcompl iance
Ġspons ored
Ġcivil ian
Ġâ ĨĴ
Bl ue
Ġpat ron
eb ox
aint ies
ĠT ax
Ġtrad ed
ĠT oy
5 12
Capt ure
Ġdec ides
Ġpars ed
Ġmake up
Ġcent ered
akes pe
ĠT ake
Ġco ins
Ġrel ocated
}{ *
ull ivan
}\ |
M o
ric ks
â ĪĴ
Ġat om
ĠDe ut
He alth
u ity
Ġde leted
H ol
Ġobserv able
ĠGL enum
att ed
pl ier
Ġrequ iring
il o
HE AD
Ġfor wards
Ġport rait
ic us
] =
g s
ĠCont ent
Ġt ip
comp iler
el o
Ġst ops
Ġfarm ers
ĠCh apter
0000 0000
at ra
K n
ard ed
ĠHen ri
ĠRes ources
Ġc ached
ĠCh ap
ĠAng lo
Ġminor ity
St age
Ġderiv atives
ĠFil ip
ĠM ut
ol utions
ass ets
Christ ian
ĠG lob
Ġshe et
up per
ĠIn stit
Ġhe x
185 6
Ġaccomp any
ĠH av
ĠPun j
u ates
ran o
ĠW atch
ĠBas ic
om i
ĠUs ed
Ġcarri es
Ġcomp aring
Ġpe oples
Ġ" .
un iform
Ġalgebra ic
Ã¼ n
d ag
L at
Ġmark er
a uc
Ġweight ed
Ġd war
Ġen forcement
is Array
Ġjuris diction
Ġ ----------------------------------------------------------------
F P
ĠW alt
ow ed
fol io
Ġsk i
ic z
ĠN at
ĠDel aware
Ġal ive
reduc ible
label s
Ġengine ers
=" ">
Ġun iqu
ĠMer c
" ];
pl acement
Ġuniform ly
X i
Serial ization
for ced
Ġconstit utional
F rank
B ean
Ġconsider ation
Ġ rib
Ġadd ressed
Ġ' -
button Element
Ġconstit ution
ra h
enc ode
f b
Sh ould
uck er
ĠT IM
n ol
ong o
ĠMad ison
pat cher
Ġf asc
ĠDen ver
R andom
ĉ ĠĠĠĠĠĠĠĠĠ
k top
Ġl ibraries
she ll
Ġdefend ers
Pres ident
z ig
Ġ\ "
Ġcrick eter
Pl ayers
ĠAct or
b inding
Ġse ar
ok u
Ġtempor al
Ġev ac
Ġn inth
Ġpro spect
Ġspe aker
Ġcl othing
ĠCh i
ĠSing le
ring ton
L ead
ĠÅ ł
ĠHe brew
Ġorder ing
Ġm d
Valid ator
r ame
r ules
Ġexpect ation
Ġpal ace
Ġre ven
() ),
ĠCru z
Ġadmin ister
ĠT i
Ġref lected
< !
Ġb anned
ĠVerm ont
Ġnull ptr
is an
Ġpres c
) ^\
ill es
ĠArch bishop
Tim estamp
Ġbeaut y
Ġshift ed
Ġphenomen on
W arning
ĠS pect
Ġcomp ound
yth ing
i ator
az i
Ġg ross
ĠBut ler
Ġsubsidi ary
Ġsculpt ure
r ace
Ġwalk ing
chi at
ĠK rist
ro ph
L aw
ip per
elastic search
185 2
ans k
Ġchar ity
Ġcir cles
ĠL ess
con vert
Ġdecre ases
Ġinflu ences
Ġ= ====
ĠS W
G rand
10 24
ar ance
g oto
Ï ĥ
Ġto mb
ĠG ust
Ġthere by
l p
å Ĳ
M essages
Ġtw in
Ġvul ner
re ens
Ġcomp ression
ĠK ay
Ġnarr ative
Ġco operation
Ġm ys
ĠW ord
l b
ĠAn alysis
ĠB M
w alk
Ġs b
Ġexpl oration
ert ainties
We ight
Ġprov inces
not ag
Ġdes ert
ĠRo om
Ġd iversity
ĠG or
Ġorig ins
Ġfeel ing
R ot
ĠB av
Ġsec ured
SC R
Ġo xygen
Ġdis pute
Ġint ention
Ġplay wright
Ġdismiss ed
bl ing
Ġpre lim
cont ainers
Ġ{ *}
ĠChristian ity
l iga
ig ion
Ġinter rupt
urs day
Ġstraight forward
U ST
Y P
Ġseem ed
ort ex
te chn
ew ay
b rand
{ },
clud ing
Ġgo og
ĉĉ ĠĠĠ
ĠO pt
15 00
L uc
fl ush
in variant
riter ia
Ġt ons
Ġvis its
ir s
t b
Ġcl imb
ĠL oc
o ons
Comm unes
ĠArt icle
IO Exception
L android
Ä ĩ
Ġb aby
ab b
ĠPer ry
J ose
ĠPro duction
Ġmurder ed
T ri
Sh ader
ĠB ody
em e
Ġwithd rew
Ġdeal ing
ĠOther wise
ĠLe ader
second ary
akespe are
Ġrel ay
C enter
Ġrare ly
T L
el ian
Ġpurs ue
ĠG P
it ro
ĠPr ice
ul o
% "
Ġt ournaments
ĠG as
Ġhom ogeneous
Ġce ased
Ġev olved
ĠEl li
re ason
ĠInd ependence
Or igin
* ,
Ġliter al
f ilm
ph antom
Ġdifficult ies
ĠG ang
Ġdev iation
cam el
Ġlab our
ut ton
M el
Ġw rapper
cre ated
Ġch ains
ĠHe in
z b
om es
cu ador
re ction
ĠTh ose
b n
ĠMur phy
ĠP el
nes day
Ġperturb ation
Ġexc av
Ġtrack ing
Ġnob le
top ic
ĠMA X
h aw
Ġparticip ating
Ġp in
B i
LE D
Comp anies
ĠPro ductions
ĠArch ive
upl icate
Ġrun ners
run ning
Ġins pect
K O
ĠHis panic
ĠS A
w arn
Ġval uable
iem ann
sw ick
^ ^
ĠCal c
EL D
Sing les
em a
B lob
Ġthr one
ĠP lease
17 0
ĠS af
ĠAnt i
AR N
Ġbe et
s am
Ġp ushed
Ġle agues
ĠE C
Ġbeliev es
Ġstand ings
Nd Ex
Ġinitial ize
dr ag
Ġbelong ed
m other
we ak
ĠHar old
Ġm ess
d ensity
unc redited
com par
AM ES
V I
ĠGr ace
ĠCh apel
Ġb orough
ĠC ant
ĠGuard ian
ĠSt uart
pr iv
Ġthe rapy
Ġt ill
Pre vious
Ġw aste
est ure
Ġres id
eng u
^* (
EE E
ĠS ierra
ĠM ik
RE D
ĠWat son
it ol
ĠM ick
Ġspecial ized
Ġinform ed
Ġchalleng ing
ĠAl ong
h all
Ġpull ed
ĠA round
Ġinc orrect
r if
loc ale
ĠL ot
ĠLe eds
Ġr is
Ġ$\ {\
stack rel
Ġg host
19 2
Ġbas eline
N UM
ĠC G
ĠR ivers
ark ed
Ġquadr atic
int eger
ache l
OP T
ĠWars aw
Ġassess ment
I rish
Ġt anks
ho le
ĠEag les
Ġcertain ly
ĠG raph
Ġmonitor ing
is o
ĠF low
Ġtrans verse
ĠF ighter
Ġph rase
Ġl os
Ġsympt oms
ĠS alt
****** /
S ound
append Child
ĠFin ancial
pol y
ah l
Ġrestaur ants
Ġenh anced
B uf
D utch
D im
ĠB egin
ĠE sc
Ġlist eners
il ine
ce il
enc oding
Ġun expected
ett i
ĠNever theless
Ġmanufact urers
ut a
Ġpop ulated
Ġall iance
ĉ ĠĠĠĠĠĠĠĠĠĠĠĠĠĠĠĠĠĠĠ
Ġrel ating
De ep
Ġtim estamp
ĠEconom ics
om ar
ĠR alph
Ġde ployment
g lyph
ĠB ond
igg ers
ag ma
. (
isc opal
ĠBob by
pl ant
Ġpubl ish
Å Ľ
Ġtrans it
Ġc um
ĠF erm
Ġsol ved
ĠHel en
Leg acy
ĠC ycl
Ġent ers
Ġim perial
18 49
ĠO cc
Ġorigin ated
/ {
Ġm os
ĠOt tawa
Ġdepend encies
Ġassist ed
s outh
ĠI C
Ġprocess ed
f eld
ĠS oph
ĠRel ations
Ġcorrespond ence
Ġdis band
cor ollary
\% $
Ġcampaign s
ĠA B
Ġreve al
Ġsl a
Ġfl av
å ¤
ĠLeg end
ĠB ald
Ġcap abilities
Ġknow s
ar ity
Ab out
Rev iew
ĠSus an
Ġarch ive
ĠT rav
Ġcou p
D ue
Gener ated
ĠCol umn
Ġtrad itions
ĠR ou
Ġg raphics
agon ist
ĠAngl ican
ĠBe aut
L ondon
ĠHug hes
valid ation
Ġr ated
S port
ĠR idge
ĠPar se
A UT
Ġa qu
ĠP HP
ĠK ol
T asks
" ].
Ġadvent ure
) }.
esc ope
Ġform ulation
F older
Res et
C ross
F B
iff s
ĠBris bane
dat abase
Ġdrum mer
Ġdo ors
ĠSup pose
Ġg ray
Ġb ay
f ers
Ġvol leyball
gom ery
Is rael
om eters
Ġvar ies
F ictional
Ġe arning
Sign ature
ĠC C
ex cept
Ġb es
B us
Ġt oured
C ertificate
ri er
Ġnot ing
uch i
F at
G ood
im p
ĠQu arter
act ers
F our
cl osure
Ġas king
Cent ral
h istor
Ġst uff
ar ound
ĠH ost
Ġinterview s
sign ature
Ġtick et
Ġviol ent
Ġo ct
ro oms
Ex ists
ĠC OM
< <
B ob
ĠG ilbert
st rip
M ex
~ (\
M r
atche wan
B oth
g h
ĠM obile
ar th
Ġchem istry
ĠFran Ã§
Ġep och
ĠBy te
bl ank
ĠB orn
ĠD ennis
h agen
cf g
Ġdiagram s
Ġm igration
Ġfocus ing
ĠN R
ĠD escription
Ġpl astic
tern oon
Ġfor th
Ġinv olve
ĠOut put
4 50
ĠJ ob
ĠWhe ther
ĠSt ill
ĠAl lied
ĠLe o
ID TH
ĠN ak
Ġcond itional
ic ious
is che
ĠWith out
C art
m aven
g ather
Ġt ies
ack ed
ĠM O
ĠTib et
Us ers
Ġs oph
ĠD ol
Ġem peror
ex pl
lik ely
Z ero
Ġw ard
Ġgu ests
ĠSud an
Ġsimilar ity
ĠFlore nce
185 1
Ġscholar ship
Ġj ury
in cre
N I
Ġa ugment
ĠG C
Ġmod ification
i ph
Com b
p ad
Ġdefault s
Reg ular
face book
ĠTh read
Ġport s
Ġfin ance
ĠD od
ip es
ĠThe ory
ĠS uz
| $
Ġbring s
ĠFor um
Ġs ys
Ġatt ractions
}^{ +
T w
av ier
mult ip
Ġev il
ĠY ale
Ext ensions
ĠT ry
G raphics
Ġobt aining
Ġsett lers
ĠL uke
m un
ĠS ex
new line
Ġdist urb
ou p
const raint
f urt
Ġpet ition
Ġcompet itors
Sup ported
bold math
l ies
Ġhonor ary
C ancel
ert on
Ġess ay
Ġtr uck
h ad
Ġcomp iler
æ ĸ
Ġdraft ed
Ġp ale
ĠEnvironment al
Ġd st
Ġch a
ĠM ort
Ġcond em
ĠCong o
ot ions
ĠF ont
rim ination
18 47
Ġmat hematic
int s
ĠScot ia
ens en
ĠEr nest
Ġcompos itions
Ġref lection
: '
K S
Ġr um
at z
om o
ĠP ick
Ġren ov
ĠB ear
ĠLeban on
S plit
Ġput ting
ar in
ĠMan uel
ah an
W I
ĠScient ific
it ars
et e
ĠL A
Ġsub urb
Ġneut rino
S ocial
Ġex ha
ĠPed ro
S elf
Ġd ip
Ġshop ping
ena issance
Ġst y
ĠN othing
Ġb ishops
C andid
ĠC NN
Ġunsuccess ful
Ġanalyt ic
Ġexhib ited
um ing
ĠDef inition
ĠHand le
ĠCroat ian
Ġcl an
D ynamic
ĠS ic
ĠAnn ual
Ġtal ks
Ġexpand ing
r age
inter val
ĠD ra
ater al
ĠM atch
ov ina
i ating
m atic
ĠNot able
c ity
GL uint
Ġ= ========
Ġeconom ics
ĠV irtual
Ver ify
E r
Ġs itting
ĠCom par
Ġr itual
Re act
Ġrat ios
g iven
Scal ar
en eg
part icle
Ġt ape
Ġc emetery
sub ject
Ġgener ates
ĠTh under
att ing
66 66
[ ],
Ġbe ating
var i
Prior ity
Ġfor cing
c od
foot notes
ĠArn old
min ster
ĠStud ents
ind a
Ġreg ression
Ġdisestabl ishments
ĠPhill ips
Ġel dest
m essages
Ġclass Name
ĠSt op
ĠVen ice
IM IT
CT YPE
down load
ge ometry
Ġsong writer
Un iform
Ġencounter ed
erm in
ool s
ĠNe il
Ġfact s
Ù Ĩ
ag ent
ĠV iol
Ġqu art
to Be
ĠW ells
Ġconven ient
] ->
Ġmolec ules
ĠF is
ĠQu ery
Ġreson ance
AN G
ĠM az
ĠR av
S ong
P ut
ĠAb u
Ġpeak s
column s
Ġorth ogonal
ĠCont ext
em ies
ĠW u
ĠAr c
ĠTre as
Ġpower ed
Ġform ul
ĠBulg arian
ĠR us
Ch unk
bl ob
ä ½
eg al
p aces
Ġf usion
Ġres idual
Ġconduct or
Ġph on
attr s
Writ ers
ĠL O
ĠR oche
185 3
le ading
Ġhun ting
ens on
L ittle
aur us
Ġan al
Ġ` ``
s z
Ġimm igrants
m apping
ĠS yl
ĠJ oint
set Attribute
ĠCons ervation
Ġdou bt
F rance
kw args
F ALSE
ĠĠĠĠĠĠĠĠĠĠĠĠĠĠĠĠĠĠĠĠĠĠĠĠĠĠĠĠĠĠĠĠ ĠĠ
S ymfony
ĠD elta
vel ope
Ġdem ands
ĠLear ning
ĠP av
=\ "
Ġt ube
ul ative
al ter
ĠArt ists
Compar ison
ĠWell ington
$ ^
ĠT ed
ĠDemocr at
is se
ch unk
M ur
Ġch ron
= >
pro pto
B road
ĠU V
Ġro ster
oc ent
es ome
ĠLat ino
Ġm ic
Ġp ump
ĠG host
ĠC elt
ĠInt eg
IN ST
ĠQ ual
Ġq q
Ġvolt age
at om
I Z
print ln
J ac
Ġrev ised
Ġh orn
X Y
Ġnegot iations
14 4
Ġtransform ations
Ġfair ly
$ '
Ġsl aves
Ġdecor ated
Ġinsp iration
! ]
ĠJ ar
om atic
Ġbatt alion
ĠL ov
Ġproject ed
ĠStan ford
W alk
Ġdist inction
Ġfl ights
Ġcomb ine
S oviet
w ind
ĠâĢ ¢
ish a
ac ional
ĠL ett
mut able
ĠC ox
Pr imary
Ġprov en
p ars
Ex pect
ĠAp plication
Ġne ur
ĠHar vey
ĠPro duct
ĠSh ould
osp el
ĠFri end
LI ST
Ġcool ing
Ġprom oting
F ire
ing en
Ġplay off
at ile
Ġassert True
Ġret rieve
$. }
cl s
I l
N umer
ĠNAS A
Ġlabor atory
ĠArab ia
ĠC ele
ĠĠĠĠĠĠĠĠĠĠĠĠĠĠĠĠĠĠĠĠĠĠĠĠĠĠĠĠĠĠĠĠ ĠĠĠĠĠĠĠĠĠĠĠĠĠĠĠ
ĠAir lines
Ġexper ts
Sw itch
x ff
Ġarray s
P aint
ul atory
ĠArchitect ure
col lect
)} (\
At l
ativ istic
Ġfast est
}{ {\
ĠO m
Ġste ep
S napshot
Ġabund ance
ĠP ython
ĠR ule
Ġf its
ĠTh ai
ĠSt ef
ĠS yn
ĠN ear
ed u
ĠSy rian
u on
Ġf s
Ġindust ries
Ġmanufact ured
alax y
ĠBel arus
ĠS oul
Ġ$ _
ĠK ash
ĠWork ers
dep recated
Austral ia
Ġarrang ements
ĠLeon ard
Part ition
ĠWall ace
» ¿
el ines
Lower Case
Ġneighbor ing
ĠE V
ĠBrun swick
Ġcomm ut
l it
Ġdisp ersion
Ġim posed
3 000
Ġrandom ly
Az ure
Ġf ur
Ġc ogn
R ay
ĠH igher
) (\
Ġm oral
Ġreserv oir
L ite
M ir
ĠRevolution ary
Ġs isters
ĠEdd ie
ex ecut
Ġsy ntax
sec ution
Ġarg ue
R h
12 4
Ġre actions
parent Node
ĠK ra
BOO L
N orm
Ġf abric
Ġind uction
Ġl ic
Ġprodu ctions
S el
g ments
; )
L ICENSE
Ġ' _
ĠMod ule
Ġs av
w yn
Ġro cks
ĠForm er
ft en
ĠSh akespeare
ĠArch ives
C tx
al ks
ĠS ang
EE EE
Ġang les
pl ings
b inary
abl ing
ars on
Ġass ists
Ġthr iller
ï »¿
Ġtrans actions
ĠGreg ory
Ġpolar ization
F ace
ĠTas man
c oc
im o
intend o
Ġbrand s
ac eful
ang les
Del ay
ph abet
t l
Ġsynt hes
vel t
H M
Ġth ir
Ġm ast
Seg ment
Ġmorph ism
Ġref ere
Dep th
ĠIl legal
ĠSh ir
ĠB E
Ġpers u
ĠClark e
ĠProtest ant
ĠAct ive
Ġmoder ate
Ġsus pect
ĠBaron et
APIENTRY P
B F
Ġbut ter
Ġrefer ring
Ġt uple
Ġshe l
ĠN y
ĠH az
B AR
Ġen ables
ĠSe an
Ġor ange
Ġcamp s
ĠRev ival
Ex port
Ġm arch
ival ent
Ġme at
ĠCar r
Col lege
Process or
Ġt elling
Ġgener ators
Ġlog o
Ġswit ched
ĠV ent
Ġpat ent
å Ń
Ġtour ing
let ter
table block
ĠAb raham
Ġunc ertainties
Ã© r
Ġbon us
Ġbirth day
ĠStud ent
ĠGro ve
5 000
ĠU C
Ġ( #
iv id
U ntil
Ġsc an
ond o
prob lem
Ġoutput s
Ġmon astery
Ġel igible
Ġqu eries
down arrow
Ġcross es
ĠG olf
R ugby
Ġn s
ex amples
Tax onomy
am ic
Ġdocument ed
if inals
Ð° Ð½
F ixed
Ġegg s
/ "
ĠO P
T uple
Cont ract
footnotes ize
27 0
Ġtempor arily
ff ield
Sk ip
ol ut
ĠCom plex
ĠBab y
Ġappro ached
Ġmut ual
ce iver
if ference
im edia
Ġreli able
Ġmeas uring
W ater
uff icient
Ġfail ing
est one
Ġd ot
Ġaware ness
Ġpit cher
tool tip
p ub
ĠS K
Ã Ĺ
ĠP rest
ĠB ak
Ġguarant ee
M aterial
h ou
unc an
v y
AC H
Ġt ribute
_ [
Ġbur st
Ġph arm
R ock
ĠFried rich
ĠG uild
ac co
ĠCom b
ĠRh ode
Struct ure
Ġaut hent
s per
Ġpolynomial s
ĠM ul
18 46
ĠS end
ĠL evel
Ġanaly ze
ĠKer ala
ĠL ak
ĠM ills
ĠN g
ĠSy mbol
ĠF ly
12 2
Ġim g
h fill
met ic
ĠFilm s
Tr igger
ieg e
ĠW onder
Ġposter ior
ues day
col ogy
Ġs ends
Ġspe akers
ĠA ncient
im ination
ĠRay mond
E very
Ġra ising
Ġaff ord
ĠSy ntax
Ġre ly
Ġsum m
Ġd il
Ġf oo
Ġb one
f ac
v ision
Ġinteg ers
ĠVis ual
Ġsuggest ing
= $
ĠNew castle
Ġm amm
H ouses
: @"
Ġtrad itionally
GL enum
' _{
Ġdeterm ines
{ (\
Con verter
Ġdesign ation
UT C
Ġtreat y
direct ory
Ġw av
Ù ħ
ĠS ul
w ild
ak ov
left arrow
Ġfun eral
ĠP aper
Ġn ep
Ġrecogn ised
ĠD rama
ĠCh a
ĠD iamond
An n
Ġ? >
Ġphot ographer
get s
Ġinc umbent
ĠL ex
Ġnovel ist
Ġoverse as
Ġcycl es
ĠK ill
| ^{
mat htt
Ġcontract s
th rift
Ġpul se
ĠPr iv
BP ACK
' ].
H y
Ġviol ation
ĠTransport ation
f ailed
Ġf iring
e u
Ġkind s
book s
Ġland ed
appro xim
ĠHamb urg
ct rine
Ġorgan ic
C a
V O
Ġbl ind
ĠJ en
Pr im
d ark
Ġs ep
ĠWARRANT IES
end um
he ro
ist ance
L ove
et c
Ġdr ink
Ġsim ulated
Ġcons olid
ĠAdv anced
rg b
Ġb oot
ĠConfig uration
HER E
ok o
ĠSch w
Ġcer emon
Stat istics
Ġtalk ing
f ake
7 50
H A
Ġem otional
Con sole
, ,
p iece
ĠV ict
ĠNash ville
Ġde emed
DO CTYPE
uc es
w ang
Te chn
att ach
Ġstream ing
Count ry
Ġimprov ing
Ġvent ure
Ġpl acing
Ġpriv acy
ĠM uch
ĠJ in
Miss ing
Ġsl ice
ĠSi eg
Ġform ats
Ġhier archy
Ġel abor
list ener
ĠRey n
Ġequ ally
ad ic
ĠC ec
NO DE
ĠNap ole
Ġoverl ap
Ġtim ber
P HP
ĠWil helm
Ġmaint aining
2 30
or um
Ġconsequ ences
Ġdoll ars
Ġdeclar ation
N P
ĠLabor atory
ÅĤ aw
Liter al
ent in
amp ed
ĠPaul o
Ġinter ference
C ities
ick en
m iddle
Ġconnect s
Ġwill ing
US ER
Ġs ang
Ġf raud
ĠH at
oc ene
T reat
Ġse eds
ĠR ah
Ġpre st
Ġre organ
Ġ\ ,\
E mail
ĠW ik
oy age
STAT US
l icense
Ġt ours
ĠAl t
Ġc attle
b oys
da pt
w ent
Ġsynt hetic
ĠGL uint
fr ames
Look up
ĠE ld
ose velt
c ycl
ĠK id
ĠB ach
Ġstead y
W atch
equ ate
Ġsim plicity
Å Ļ
L ow
or ate
om eter
text color
Ġinternational ly
ab we
} /\
an ch
Ġst ake
Ġsub stit
Ġh yd
enc ia
ĠC EL
ĠP P
Ġdialog ue
Ġdepart ments
V ICE
ers hire
Ġthere after
Ġdep ression
Ġwealth y
ĠF actory
Ġintro ducing
Ġc rop
ath a
Ã© g
">< !--
ĠH ilbert
ĠCh ang
Ġsort ed
ĠT ABLE
Pack et
Ġtermin us
Ġprob e
umb ai
Ġfif teen
Ġinsert ed
(' <
ĉ čĊ
ĠS oon
ĠMil waukee
Ġ _{\
ĠCom merce
is ers
ĠConfeder ate
a qu
ĠK E
play ing
ph ib
ĠPal mer
part y
oe ing
il ian
Ġcert ified
$ ^{
ĠB ened
ĠP ract
ĠD in
Ġor n
B T
) *
S epar
ion ed
r ink
olog ically
EV ENT
á ĥ
Ġprim itive
ĠW ait
ĠSp encer
Ġw arn
Ġsub str
ĠPr ague
M ary
loc ks
Ġev ident
st ed
ĠMal ay
B ER
Ġsynd rome
Ġdis appoint
Ġdebut s
The me
B reak
text up
Un incorporated
Ġhous ed
b ird
ra f
act ivity
w heel
th an
Ge V
Transport ation
ĠLag rangian
Public ations
ĠTun is
Ġc av
Ġsp ell
ĠK i
Ġcor ruption
ĠHar bor
ĠG rid
ar is
Ġlabel ed
Ġtraject ory
ĠB ound
ĠN athan
ĠChe ster
ub er
tri angle
Ġtrav elled
ĠB eth
Ġel if
at um
ĠP red
12 1
Ġdevelop ers
Ġâ Ĥ¬
Ġcomb ining
he x
rypt ed
Ġneut ron
Ġt ens
Ġan ten
uss els
dis c
Ġsum mit
ĠShang hai
Ġant icip
D a
ĠGL sizei
ĠRead ing
ĠSask atchewan
at em
Ġdevelop ments
Ġal gebras
IL ITY
ott ingham
Ġmay be
cl ock
Perm ission
u et
ob e
Ġimp ly
ĠSeb ast
ĠByzant ine
Ġflo ating
Ġdecl are
Ġsc r
all ing
ĠV illa
h m
ĠM orning
ĠF R
names e
ĠGab riel
ĠAl f
ic ia
Ġcho osing
ĠT otal
ĠĠ čĊ
Ġkin etic
Ġst ere
Ġqu as
I ll
arm s
Ġport ions
om pass
ĠCom ponent
Av ailable
ad ier
Ġfight ers
Ġr iding
ob i
Ġinduct ed
A SS
n ell
Ġtr ump
U k
Ġexhib itions
W at
Ġinter change
Ġfilm ing
ĠF oot
Ġsp ots
**************************************************************** ********
Ġpro xim
Ġir reducible
Ġarr iving
init ely
Ġprint ing
Ġturb ul
Ġpl ots
ĠSt ories
ĠSw an
Ġs ensor
LE TE
ĠS ey
CON T
D id
ĠW ag
ĠMont gomery
Ġor bits
Ġw onder
S everal
ĠColumb us
Ġl ad
osl ov
ĉĉĉĉ ĉĉĉĉĉĉ
trans port
inter pret
Ġmer ely
ĠMult i
ĠA GN
Ñ ĸ
ĠG az
Ġperm it
ĠFe ature
Aut hentication
publ ished
uls ion
ĠEN D
ec raft
Ġrecall ed
Ġspl itting
Ġrecogn ize
Ġsh apes
d ess
cl ide
ĠImp lement
pos er
Ġsubmar ine
50 9
Ġ\ |\
Ġg athered
ĠE SP
ĠC ork
Ġrepeated ly
Ġm asc
RE SS
ĠS elf
.... ....
zh ou
/ ******/
Ġ' $
Spec ies
ress ions
io let
Ġattend ance
Sm ith
ĠS ony
Ġgovern ed
imb abwe
sc ore
= [
st ud
Ġsurv ival
ĠCirc le
med ium
op ened
ĠO w
Per iod
ĠA I
ĠS ig
Ġassoci ations
att en
ĠE le
f actor
decl are
er k
Ġs ailed
Ġconflict s
Ġreg ulation
p aper
ĠS old
un ning
ĠAr med
&= &\
Ġim aging
fe atures
Ġdecre asing
Ġun incorporated
trans l
Ġattr s
r ab
Ġprelim inary
ĠSh in
ir ts
ra ve
Pr inc
Ġrat ings
Ġactiv ation
Û Į
ĠLa ura
× ķ
000 1
ĠNorth west
B ucket
UN T
Ref lection
ats u
b org
ĠP ent
res pect
ess ed
per ature
A ST
song writer
Ġconstitu encies
Ġor che
Ġdram atic
as se
Ġmon arch
m ade
Ġemphas is
im m
Ġresign ation
ĠZh ang
ĠAgric ulture
ĠYugoslav ia
S afe
b ug
ĠDE FAULT
f loor
Found ation
c op
Ġto x
Ġar ise
F ar
Ġent hus
Ġsh ield
\| _
ĠMe chan
Hen ry
ĠCard inals
Ġm ath
ĠR uth
un i
L ines
Ġ" ${
to LowerCase
C SS
Ġexc ited
UR CE
Ġa thlete
ĠW ald
Ġexpl ored
Ġn est
Ġac res
ĠF ul
Ġlik elihood
ĠA ires
ĠDivis iÃ³n
Ġsp arse
pr us
ĠJ ur
sur face
Ġmin istry
Ġdig it
s ym
k u
ĠE cuador
ĠLi u
Ġreview ed
ĠMer it
Ġpass ion
ile vel
ĠÃ Ĺ
Ġaux iliary
Ġhel per
order ed
ĠT ong
Ġb oss
ĠI SO
/ _
TR AN
Ġpriv ile
Ġs ugar
Ġb ucket
Ġsuff ix
ĠO scar
add le
Ġpredecess or
ist o
Ġwrap ped
ĠA w
Ġearthqu ake
Ġtarget ed
ĠL ac
M ah
ĠRh odes
ia z
Ġin hib
th al
ĠMar x
Ġun ity
n l
En able
t ick
B N
l icenses
umb n
ĠF lying
Swed ish
18 45
ĠC raw
*} [
contin ue
ĠBos nia
All oc
Ġex cluded
m akers
J ud
Ġi i
ĠĠĠĠĠĠĠĠĠĠĠĠĠĠĠĠĠĠĠĠĠĠĠĠĠĠĠĠĠĠĠĠ ĠĠĠĠ
d ing
ĠTom my
Ġa ster
Line ar
Ġmet ropolitan
West ern
ĠCam eron
Ġsyn onym
Ġmir ror
ĠCo ach
ose x
Ġleg islature
ur ated
ur as
Ġsub scription
Comp ilation
igh bor
c ass
up dated
eth yl
Ġmac ro
th ird
ĠEd ge
am ation
Ġpos it
Col umb
mat ches
Ġvari eties
pr ises
Ġcon fess
bel ow
Ġcut ting
W il
Ġsk ill
Sec onds
Ġmain stream
with out
Set ting
ĠS oci
im en
ĠUg anda
ij a
Ġathlet ics
p rior
I reland
co q
Ġunit ary
ĠPl ayers
Ġcompris es
EEEE FF
Ġav iation
Ġneighbour hood
ĠO g
ber ger
c orn
define Property
( ['
S yn
Ġdiplom atic
Ġt one
Ġn inet
b u
ĠWh y
ar v
Ġrep ublic
Ġcon e
sub mit
Ġmonth ly
Ġreal istic
ill on
G ate
by ter
Ġcor relations
Ġinv oked
Ġvar ied
ĠD ame
Ġb arrier
ugg ing
ĠP S
Ġpark ing
Ġaccret ion
ĠM Ã©
Ġhosp itals
i ago
ĠImm utable
ĠF L
if old
ĠEs sex
Ġk ids
Ġhor izon
Ġsh allow
ĠRe ed
( []
Ġcan al
ĠAct ress
uan ian
Ġholid ay
Ġdef ended
Ġsp herical
Ġspec ification
Ġfe as
f il
el ing
Ġind irect
al ert
n ob
app ings
fore ach
pos itions
ĠK il
ĠD MA
ĠR af
U int
Ġexcept ions
B ill
uc he
cor respond
Ġdis aster
ĠR osen
Ġarr ives
ident ity
G T
ro e
ĠStock holm
ĠWeek ly
L ists
BA SE
sc riber
Ġcop per
ĠM B
p id
Ġin tern
ĠV oice
Ġburn ed
Add itional
um ann
on ing
ĠBenn ett
ĠKn ights
ĠM old
ĠT rain
ĠMc L
mid t
text normal
b an
ĠK ate
Ġmidfield er
ĠF ish
run ner
Ġres ort
ĠDev on
ĠEncycl opedia
ro tt
H ook
g ray
Ġcomput ers
ĠOriginal ly
ro us
Ġphot ons
Ġabs ent
ĠC u
bl og
it us
Ġwatch ing
get Instance
d k
Ġrem ix
Ġcent res
} >
Ġenc ompass
dis patch
clide an
st ock
ar u
ff bb
TIM E
Ġferm ion
ĠUS B
ĠJ ak
Ġ' #
Ġthe sis
ĠPer th
d st
L icense
Ġh unt
Ġob lig
ĠRo osevelt
ĠL or
op ing
CO MM
Ġphys ic
T yp
Ġfor b
P DF
clud es
ĠÐ ²
ĠMem ory
Ġsusp ension
Ġrad ar
or p
ĠAdd ress
ĠJac ques
] ^
bro ok
Ġall ocation
ĠL icensed
ĠO ber
ĠK as
Y Y
Ġco at
lector al
fr ag
ĠL amb
Ġcon scious
p ages
ĠD aw
18 36
& =\
M ot
default s
ĠHit ler
ust ers
Ġ} ).
P ac
Ġgen es
f etch
Ġwrit ings
annot ations
18 37
up arrow
ref resh
ĠC L
Ġf o
Ġg ear
ed o
Ä Ļ
ĠR at
Ġdescend ants
= %
F IL
Ġch iral
Ġpar ad
ĠF oster
Ġfarm ing
ĠSecond ary
g art
Ġcons iders
bor o
Ġconj unction
Lou is
Ġgold en
C at
ĠIn valid
Mark er
ĠN um
Ġpure ly
Com mit
ĠMig uel
script scriptstyle
ĠV il
off icial
SH A
Option al
Ġed itors
Ġpo ison
f ar
ac l
uff ix
el in
Ġst ick
ategor ies
Ġcompos ite
Ġstation ary
Ġelev ated
ĠS afety
Ġdec k
Ġdevelop er
Ġmidfield ers
Ġmod al
ĠId aho
ur bs
ĠF at
neut ral
S at
class ic
um ped
h im
umber land
Ġdeterm ining
17 5
ĠT yp
Ġfem in
Ï Ĥ
Ġexhib its
ĠG y
ĠOut standing
Ġcub ic
ri ke
ĠGrand e
Ġdepend ency
od o
Ġcomp anion
Ġ< -
ĠFran co
)-- (
ĠJama ica
J im
c x
Ġre pository
ĠD CHECK
L y
ordin ates
AV E
ĠY ellow
Ġsub space
am y
amb ers
var rho
ID S
ĠL abel
d an
Ġbl ues
Ġint ense
F Sharp
ish i
ĠSp ider
Ġover view
H older
ĠR enaissance
eg ovina
Ġreleg ated
ĠD anny
WE BPACK
ĠJo an
it an
18 44
ĠT all
ag in
lev ard
se gment
h p
Ġs weet
Ġbox es
Ġcomp ounds
E ducational
Ph one
an che
Ġc ryst
Ġrul er
}. }
ĠG amb
Ġmechan ics
Ġbre ast
ĠK in
osoph ical
Ġleg it
Run ning
ot yp
Ġqu oted
Ġt enth
Ġj u
Ġsc iences
Ġsur prise
Loc ale
RE CT
Ġcons ensus
=\ {
Ġt issue
Ġb ullet
ld s
nol imits
Ġgard ens
l ift
A ff
Ġg oto
Ġqu iet
em bourg
Hash Map
C AR
ar ial
Own er
Ġl iv
FA IL
ĠC inema
Ġgener ations
m g
Valid ate
ĠAmb assador
âĢ ł
Ġutil s
ĠAh med
\ },
Pers istent
ĠB ears
col Last
Ġnick name
Ġr ice
Ġd eter
ĠK rish
et ter
ĠLeg ion
Dem ocratic
Ġs le
_{ +
ĠA aron
Oper ations
a ude
¿ ½
ĠL if
f ive
ĠF ast
EN ER
sp i
trans late
ĠIsa ac
ap a
u ania
L ie
18 20
ĠSc ar
Ge ometry
Ġout door
12 6
h orn
ĠJul ian
G IN
) _{\
Pol ish
Ġc ave
Ġemp irical
ĠW inn
L ib
ll a
im an
Ġann ex
Qu ant
ĠJ ung
ĠCom put
en ium
Form atter
Ġlist ings
e i
Ġres umed
ĠR ac
St udio
ĠMethod ist
ss l
Ġph osph
ĠS ou
esc o
Dis k
}) ^{
Ġen emies
× Ļ
Ġwor se
Observ able
over ed
OM E
Ġbank rupt
ĠB ag
ĠB elf
Ġcitiz en
Ġneg lig
ĠE ight
Ġaccess ed
Ġpian ist
Ġadm its
Ġsc oped
trans action
quir y
ĠC rit
esc ape
Ġinf ection
ĠPalest ine
ĠS F
v p
ĠS creen
ĠMar io
ĠBu enos
T AG
bound ed
media wiki
// !
pos able
Ġhead ing
Ġaut orest
ĠAl gorithm
Ġdisc rimin
H AND
ail ing
Ġd y
prov ed
Ġemploy ee
Ġab oard
ĠRon ald
ust rated
um m
ĠR ams
A mb
Re ason
pt s
Up per
ol ine
A X
L IN
Ġf etch
ric ulum
Ġsl ide
Ġrh ythm
ĠCh o
ĠRe ich
() </
R M
Ġt ier
Ġare n
ind ependent
Polit icians
Ġqual ification
r ator
Ġg al
on so
ur d
Ġaff air
anc ers
Ġab ilities
Dist ance
Ġtor ped
ĠLuc as
Ġdepart ed
s ized
D irection
ĠF un
Ġtax es
In ner
Ġexam ine
ĠEx p
Ġ\ [
ĠG ene
Ġbus es
Ġam pl
ĠV II
f p
AT O
hand ed
open hagen
Ġcollabor ated
us a
ie u
ĠDist inguished
Ġfeel ings
tim estamp
D MA
Ġcap ability
NavBar Font
m itt
ĠMon th
ard i
Ġsu ite
Ġproport ion
3 20
Ġt ends
ĠT alk
ĠPan ama
Ġtravel ing
Ġdistinct ive
he rence
ĠVlad imir
A ctions
or se
ĠM usical
Ġcould n
Ġrend ering
Ġ Ñģ
With out
Ġinfl ation
sub string
Ġl akes
Depend ency
ĠX X
Ġd ogs
small skip
ĠV ern
Ġspect rosc
Ġsole ly
ĠFran z
red uce
Ġart work
ĠL ok
Cal c
ĠEngine ers
Ġpione er
remove Class
ĠSus sex
}$ \
Ġcolle agues
w oman
ĠStat istics
ĠIndones ian
D ITION
ec ca
Ġphys ically
raz y
ĠM ade
d z
sche me
le z
col First
Ġcheck ing
Ġlist en
Ġplan ets
ic it
c ott
ĠBro s
ov anni
W el
Ġaf ternoon
Ã ¯
Ġabb rev
Ġgu itars
Ġr ings
Ġind ent
Ġen rolled
Ġcomb inations
Ð ±
ĠPhil osophy
Ġnovel ists
Ġup coming
rem ote
Ġlog arith
Ġhistor ically
rub y
ep age
Ġh ills
ĠJ unction
Ġgraph ic
ĠSl av
Ġt rick
Ġinh ab
ĠK em
g ary
Pro f
Ġcond ens
P ixel
Ġacqu ire
ĠKaz akh
Ġn ice
Ġdial ect
N eg
le arning
Prot otype
Ign ore
ĠCh an
+ $
. ).
PRO P
(" #
Ġcoff ee
à ®
ĠTod d
ĠM umbai
el ly
Ġpropag ation
* \
Jose ph
f requency
Ġconvers ation
ĠO wen
ĠOtt o
t imer
head ing
2 10
Ġsh ops
Ġing red
Ġoccur ring
ĠC ord
Ġup load
Ġf ert
ab ove
ĠWed nesday
Ġp ipe
b ank
. -
Ġcommit ment
ĠT ir
ĠDur ham
Ġcho ir
ĠS of
Ġeng agement
ĠMoroc co
M ut
Ġ' ,
iz a
ĠP NG
Ġsem antic
cont rib
in itions
ĠR aid
Ġm ilk
Ġaccommod ate
ĠFour th
he ld
text ure
Ġl ights
ec ycle
ĠB ent
Ġbas in
Ġpsych ology
$\ ,
1 19
ract ed
ĠPolit ics
Ġw ww
Î »
ĠK arn
ĠI rv
M ean
Ġencour age
ĠEn able
Ġrout ine
ant ics
ĠSom erset
100 00
tr ivial
Ġdisc rimination
ĠA V
Mod els
Ch anges
Ġcon current
Ġguid ance
ern ess
Ï Ģ
ac iÃ³n
Big g
Ġfoot age
Ġsur prising
Ġinter vention
BU IL
Ġb le
og o
Th ird
Ġact ively
Ġveter an
ĠCab inet
I ss
Ġconsist ency
Output Stream
Ġfle w
ĠS uff
ĠSI ZE
Ġb ull
ĠL I
cons istent
ĠHerz egovina
ul ous
\, {\
ĠFl ag
ot er
U Int
Ġatt ach
O FF
Ġun ions
ORD ER
op acity
ĠCor ollary
Ġren ormal
B s
ï ¿½
An im
ĠG Ã¶
Ġs a
r ag
Ġ uri
al in
}) (
Ġcart oon
Ġb ell
ri ent
date picker
av ian
ĠMot ors
ĠSalv ador
Ġob sc
Ġc ow
18 35
Ġg rain
ack ets
Ġbl ank
HO UT
look up
Ġout line
18 12
ĠLin ux
ĠF olk
ĠD oc
F W
G erm
Ġm apped
ap os
ath i
ĠLe ic
18 41
ĠLiber ty
Ġcl ause
cond uct
Ġpil ots
oc o
18 39
ibl ings
col span
emph is
Ġs iege
Ġincre ment
Ġs ung
ĠEx pression
& &\
P s
ond e
ĠP att
ĠN ancy
Ġp ap
Object Meta
ĠW i
Ġvolunte ers
R TC
ae us
fix r
ĠD as
Ġprogress ive
leg raph
ess a
Ġpar a
Ġserious ly
Ġf ro
ĠM ine
F ake
ape st
G reek
n ut
Ã© m
18 38
Ġagre es
ĠPlan et
ĠK or
Ġt ension
Cre ated
ĠBr as
ĠJust in
Ġpredomin antly
Ġmem or
S ite
ext ends
Ġde als
an z
ĠP and
Ġpri ests
Ġsup ern
c ost
Ġg ates
ĠR iemann
ri o
Execut or
ĠVer ify
Ġemer ging
sh i
á ¸
ĠA ur
Eff ect
Ġc avalry
T ry
Ġdiss ip
_{ -\
Ġsh a
Ġtim er
LE MENT
Constraint s
ĠMaur ice
Ġab olished
che m
ĠInd ies
Ġc iting
ĠCom edy
ĠEx ped
ĠM ail
Ġcoll isions
ĠCl if
ĠCit iz
Ġdist ribut
me asure
Ġas h
E ven
... )
chi ef
Ġannounce ment
ĠMan it
Ġharm onic
Ġcou plings
Ġdiss olved
er i
Ġspec ifies
T Y
Ġf inger
ĠPos ition
F ellow
Ġexam ination
ĠD uncan
az ar
Ġreserv es
C irc
Ġtra ct
Ġshel ter
... </
Dec imal
Ġc rystal
DE D
ĠCy prus
ĠIm port
Ġn ested
ard ing
ĠR andom
be at
ĠPr ison
Ġcur rency
uis ine
ĠP resent
Ġtour ist
ĠCorn wall
Ġdis patch
ĠPunj ab
Ġex terior
ad ers
Ad v
Ġd s
ip art
comp act
ĠT arget
FI ELD
ĠProv incial
ov y
x ffff
over view
Ġarchae ological
ĠS cal
ull ah
dist ribution
Ġdef ender
ĠQ CD
Ac cept
k ernel
ous ing
ĠBlo om
ĠKE Y
ĠPrinc eton
ĠShe ffield
Ġtr uly
ĠCl ose
Ġharm ony
spir acy
Ġclust ering
ĠE g
n orth
Ã °
Ġestim ator
Sp ring
13 2
ĠDav ies
Ġth orough
lect ic
Mod ified
Ġattack ing
Ġsynt hesis
ast ics
Inst ruction
ĠEx ec
ĠN ine
Ġiter ations
Ġm esh
Ġanth rop
ĠMat rix
J ul
ĠH ale
Ġd ivers
ĠB rid
Ġconcent rated
ĠMarsh al
x n
á Ģ
F ill
Ġper ceived
Ġpr ince
Ġload er
Brazil ian
Ġaccord ance
N D
ĠN ull
P ipeline
Ġw orn
big cup
ĠDec ision
Ġbomb ing
Ġp ist
ĠH aving
Ġpl ates
ĠHar per
Ġw ars
og g
Ġb orrow
Ġintr insic
R PC
15 5
unk nown
Ġpro secut
ĠN GC
Ġs overe
Al pha
Ġtra vels
ass oci
nt z
Ġl ying
18 42
man uel
Ġt ou
and ro
ĠTh ursday
Further more
Ġexplos ion
fam ilies
d ating
ol in
ol ics
ĠA udio
R GB
in vert
n ear
Data Type
Ġtour ism
c as
ĠP ars
en i
Ġex pr
Ġc ad
ĠHop kins
ĠL akes
Fore ign
Ġhand ed
Ġacadem y
Ġflow er
ĠV e
Ġprogram mes
Mat ches
F red
Trans fer
Ġv ow
nav igation
. ',
." )
h uman
sub str
se cret
> [
ĠP ir
gu ard
c n
Ù Ī
ĠSh op
ĠPar ks
ew ise
Ġlog ical
ĠR O
U V
sp irit
Ġb igger
Ġtro uble
F eed
Ġlocal ized
ĠCl in
isec onds
L M
Ġ{ $\
p her
ĠK re
Ġident ifying
om ed
M ust
Ġt et
Ġ' ./
Ġbel t
atin um
ĠUr ugu
ĠAng els
Ġ$ ^{
g ression
oy a
Ġdr inking
idel ines
ĠWrit ing
Ġs ick
Ġtot ally
Ġanaly zed
Arch itect
f un
Ġceleb ration
anim ous
Ġc ss
Ġsh ots
Ġc rypt
Ġarchitect s
ash ire
path s
Ġare na
T I
ter bury
bin om
ĠGe off
Pro position
maz ing
Ġt err
Ġsust ained
or ers
M id
Ġfunction ality
$\ \
it ud
Ġf is
ĠGard ens
ĠTH REE
Ġship ping
' =
ĉĉĉĉ Ċ
Ġmer ch
itte es
Ġconfigure d
Ġair line
Ge org
ĠBuild er
Ġt ut
Ġar row
Ðµ ÑĢ
hy per
Ġun stable
Ġz ones
et ics
Ġs el
P ress
Ġb achelor
T M
ĠP ain
ĠPlay Station
Ġin ference
ĠRail ways
Ġb atter
g ov
im mer
un ion
ĠEag le
Ġbrig ade
Ġco in
ĠU RI
Ġvocal ist
Ġc ouncill
Ġdoct ors
ĠD id
12 9
ator ies
met ric
Ġib n
le af
ĠG and
resp ons
Ġir regular
Ġst reak
p ent
Ġquarter back
Ġche ss
È Ľ
Mer ge
Ġr ab
N il
Ġlo ops
l ived
Res earch
Ġalign ed
Ġf atal
Ġis omorphic
er ie
ĠIndian apolis
F D
Ġwh atever
Ġinter cept
Ġv e
mont on
' ',
ĠF lem
Nav igation
get Attribute
ĠĠĠĠĠĠĠĠĠĠĠĠĠĠĠĠ ĠĠĠĠĊ
ĠCon struct
ites pace
ĠSant iago
add y
Ġcomm enced
ĠComp etition
Ġcult ures
F ort
ig ue
f act
14 5
ĠEx amples
Met ric
Ġmem oir
ĠS ter
ĠG ren
ĠAL IGN
ĠSV G
J ean
\ }.
Ġsoci eties
ĠS ize
ig i
ox y
Ġ(! (
Ġstud ios
ĠS weet
Ġv in
T ile
}} ,\
sh arp
ĠAp pro
}\ ;
Republic an
Ġgu ess
Ġagre ements
Ġe at
Ġ\ {\
ĠL isa
ge o
pre pare
ĠH ir
ĠDes ert
Ġeigen value
SCR IPT
Ġsc rap
Ġdel iber
ĠEd mund
ĠR i
orient ed
Ġfound ers
am ination
ĠEx per
Ġqu ad
Ġpreced ing
ĠRod rig
oun s
Ġcontinu ously
2 25
T y
Cons umer
ĠL iv
oc om
ĠĠĠĠ ĠĊ
Base ball
ĠRepublic ans
c ou
Ġext inct
ĠWild life
ĠÃ ĸ
Ġrefuge es
Class Name
Ġanalog ous
ah a
ĠWest minster
Ġdro ve
S n
Ġgeneral ization
Dev elopment
ĠFellow ship
Ġh ub
land o
Ġref resh
Ġ" #
O cc
es ar
us r
Ġarg ues
ĠHol mes
Ġconf used
ĠPak istani
ĠLo op
Ġa ws
Ġco herent
Ġpro l
Ġt ile
Ġle x
As ian
Ġin coming
? )
Ġhand les
lim ited
Â ½
ĠP icture
16 5
Ġsub mit
ĠTra vel
ĠN ottingham
C itations
Ġmiss ile
Var id
ĠP erm
est rian
j k
ĠC M
ist ically
Ġb otan
ot hes
Ġbelief s
Ġap ilevel
ĠKum ar
le ston
pre vent
ĠShort ly
ĠFa ith
Ġm s
Array List
Ġcompris ing
) }$.
ĠB od
sy nt
Ġlearn s
ĠM aterial
ord inary
Ġd rain
Ġall ies
ĠHe ights
Ġalt itude
ĠJohann es
Ġy ard
cc c
Ġup grade
ĠC ou
on omic
Cont act
ind icator
Ġman ages
anc k
ĠOak land
Ġg rants
ord ination
b olic
ĠC PU
ec a
Ġent repreneur
Ġeng age
Ġcomment ary
Ġscript s
CD ATA
Ġem issions
ĠS ullivan
add EventListener
ĠD ebug
over flow
Ġprevent ed
stan bul
Rel ated
Ġinstit ute
b ur
Ġf irms
found er
ĠM is
Ġstreng then
ĠR overs
arri or
Ġamb assador
Ġconsist ently
Ġreform s
Ġche st
Dis abled
Ali as
S a
h art
Ġcard inal
S printf
18 32
Ġguarant eed
Ġ} ),
mult line
ĠPet e
IMP ORTED
Ġcomp ile
ĠAbd ul
ĠP ink
p k
Ġal ien
=" $
oc hem
Ġsp okes
re ject
Ġret reat
TEXT URE
he res
Ġp ow
Ġfe ud
ĠIs le
F K
oy le
Ġa z
ap ur
Ġret riev
ĠMark ov
C V
{ })
Can ada
val ued
S K
ma xim
p ref
Al tern
Ġcler gy
Ġc ant
Ġrep ly
Ġlist ening
ĠC openhagen
ik es
Ġimm igration
Athlet es
id y
spe aking
phys ical
Ar thur
he art
Ġmaint ains
| _{\
ER N
ĠInit ially
ra its
Un ion
E lem
Ġbox ing
g ie
âĢ ¢
in as
Ġas set
M EM
Ġprov iders
bo at
Ġhousehold er
Ġscal ed
Ġdis cret
B bb
Ġhe ating
Ġprofession als
Ġso ap
ĠEx hibition
ĠW ant
enti eth
Ġnumber ed
D one
Ġtribut ary
G al
Ġin comp
Ġdecre ased
ib a
ll er
Pop ulation
l int
Ġver se
ĠPear l
und les
ĠArch ae
s r
allow ed
ĠC ell
} ],
ĠIraq i
if i
(" \
Ġp ill
Ġcor on
ĠT one
CRE ATE
Ġed iting
sp acing
ĠCH ECK
ist r
Ġsport ing
Mix in
n ov
Ġque en
ĠM ull
ĠPro perties
ĠPro blem
ĠC hern
ĠHind i
Ġs hed
ĠF iction
opt im
I ts
Ġav ailability
ĠW inds
con sum
Ġred es
H a
ĠT iger
tw itter
omorph isms
Ġsus pected
Ġblock ed
at ta
Ġin cl
13 1
Sche me
Ġinst ability
Path s
C UR
Ġinvest ors
flu ence
r ice
j ack
rend ered
k k
ĠEqu ation
Ġdisband ed
ar ians
ma jor
ĠPar ad
Ġphil anth
] *
Ġf ract
": "
in fl
ĠL oss
ĠPl anning
16 4
L iber
pe ction
æ ķ
row th
refer red
Ġalter ed
ĠY uk
Comp are
Ġmod ifications
eg u
ĠWood s
ĠB AS
ĠĠĠĠĠĠĠĠĠĠĠĠĠĠĠĠĠĠĠĠĠĠĠĠĠĠĠĠĠĠĠĠ ĠĠĠĠĠ
Ä ħ
ol lo
ĠE lection
ĠChar ter
Ġtrigger ed
Ġconsider ably
ĠDir ac
Ġdist ant
ĠZ imbabwe
Ġdem ocracy
ĠEll is
ĠMarc us
Ġsup press
Ġfl ank
s ame
Ġcons ent
er ious
Ġprocess or
Mod ern
Ġc ipher
Ġr iders
ĠReyn olds
d ie
Enc ode
Ġlaws uit
Ġgrad es
p al
Ġsculpt or
B ACK
Ġan isot
Ġrem n
g us
;\ ;
Ġathlet ic
G i
N ONE
b uff
ene ath
M achine
os er
Ġge odes
ĠA ges
Ġth rew
Ġwid ow
h d
Ġchalleng ed
lin ks
Load ing
sen al
Ġcasual ties
ĠCamp us
Key word
^* _
Ġcosm ological
ĠTy ler
Ġneighb ors
Ġb ag
ĠMan ila
all classes
Mat cher
Ġprov isions
je ctions
ĠAn a
c ov
ĠCub an
Ġfrag ments
B ul
p it
ĠE instein
Ġstri king
Ġ\ }
Ġcontrad iction
b ucket
ĠRun time
ĠVol unte
an alyt
ĠC rist
qu ality
is y
ĠGl ou
ĠBrook s
Ġconvinc ed
child node
st ead
Ġimprison ed
ec lip
Ġ& $
Ph ase
ver ify
ĠAdd itional
ĠLith uania
res olved
ĠSh ield
, (
V ir
ĠA ub
Ex amples
ig rated
Polit ics
Ġcivil ians
Ġpl otted
S i
getElement ById
ĠV eter
din and
Ġlook up
Ġ/** <
W allet
Ġg ent
ĠSch olar
Ġn aming
Ġfe els
H ouse
Ġconver ges
r ically
ĠN intendo
Ġv ec
ĠDef ine
rat io
ĠCon sequently
Ġge omet
ke es
def n
Ġcle ared
\ }_{
ĠH ass
ĠC ache
Ġdeterm ination
ret val
oy e
Ġdep recated
ĠCurrent ly
cons ider
P ush
aj i
Ġcl s
Ġres iding
Re pe
ĠAPI ENTRY
ĠFerm i
Ġharm on
pp ing
Ġaffili ate
Ġh ull
op a
Ġeffect iveness
get Id
sh ore
Ġcor ps
am as
, ...,
AT URE
m art
ol ate
ang ered
ĠCard inal
C annot
n Ã©e
ĠO z
Ġa uction
L SP
ra is
Ġhighlight ed
13 4
ĠViet namese
ĠWIT HOUT
mid rule
ĠGu ards
ĠAl bums
s lds
Sl ice
o que
Ġco ached
sub equations
EO F
Music ians
add ed
ump y
.* ;
ĠFrank furt
ĠH im
ru ce
Ġp our
Ġpl acement
Ġadminister ed
Ġauthor ized
pro duced
Ġover w
Ġgrand son
Ġrig id
Ġacceler ation
ĠN u
Ġm ild
ol an
ĠHer ald
^+ $
Ġc ust
US A
LO AD
if iable
Ġwebs ites
Ġcount ing
ĠD y
Ġphilos opher
Ġfor ty
âĢ ĺ
ex isting
Ġloc ale
ĠTw enty
) '
ĠE T
w at
ecess ary
Pre v
found ed
Att rib
Ġcelebr ate
Ġsurvey s
ĠM ang
Ġbreed ing
ou x
Ġnep hew
Ġplan es
ynchron ous
u uid
Al gorithm
Ġst rain
Ġperman ently
}_{ {\
Ġcommun ist
Ġpit ched
Ġc ounsel
Ġ' [
ĠMon ey
Ġexam ined
Ġemp ire
ĠS aw
Ġal phabet
Ġdeep ly
Ġp unk
R oad
ĠW ey
comm ons
Ġsk etch
ĠD um
t v
Ġr ay
ĠAp ost
Ġkid n
St e
ĠDomin ican
Ch o
Su ite
Ġcomed ian
con current
pr agma
Link ed
Dec oder
ack er
Ġfl our
Ġsculpt ures
Ġalleg ations
ĠA chiev
m any
Ġre nown
Ġfre estyle
ĠPrinc ipal
Ġgra ve
b ecause
Ġadv ocate
ĠEx cell
ĠBr ussels
ĠSm art
. ');
new s
ĠForm ation
am ount
Ġput s
ĠBou levard
eclip se
Ġamplit udes
ĠNe ed
Log in
at able
ĠH arm
ĠEq s
Ġw elfare
ĠU tt
}{ }
LA Y
N orthern
Ġbench mark
Ġconf usion
__ ,
}[ !
mem bers
Ġrecru ited
40 4
iff e
ol ith
Ġlimit ing
es ch
Ġover come
Ä Ľ
Dest roy
Ø ¯
ur ities
Ġs ectors
Ġcan n
Ġte a
u ctor
ĠKenn eth
P ak
ĠMont eneg
T imes
nd ez
vious ly
Spe ed
ĠGu ang
Ġaut hentication
ĠC ut
Ġprom ised
Form s
Ġrecip ients
f ox
æ Ī
ĠAl pha
ĠGl ass
i ens
Ġto ll
Ġhe m
ĠBat man
Ġconduct ing
C AC
Ġs id
ne z
UE ST
AR G
& $
Ġpack ages
ĠL t
ĠAm endment
Ap pe
Ġvic inity
Ġdeg rad
Ġj ew
Ġ ~\
w al
Ġprom ising
Ġ ig
ĠArmen ia
hab ilit
byter ian
fr agment
ph ant
l ov
ĠP L
Ġfif ty
Ġw ore
Ġcontinu ity
18 15
H ot
Ġadministr ator
ĠFinal s
ĠG ael
Pe er
Ġ ell
ĠN as
d w
Ġd w
ĠHe aven
Ġens ures
ĠG mina
f ight
R en
Ġch apters
Ġjo ins
Status Code
Ġj ail
Ġhold er
Ġsearch ing
Ġnormal ization
am med
LE V
ĠLou ise
Ġactiv ated
Ġpropos als
ĠA ch
T oday
Ġeditor ial
de legate
m ust
re ach
ical s
spl ice
S ig
ot ypes
ins k
Ġenc oder
ĠGener ate
se en
F i
Ġassum es
V T
W ell
Ġt s
c in
Sc heduler
ĠPol l
Ġback up
res olution
DE C
ab ol
Rec ords
Ġb read
Function s
un ed
tt o
ĠC yr
C trl
ĠS olar
Ġboard s
ul se
Ġr ifle
Mult iple
ĠQu ant
G ui
Ġcol ours
Ġthreat s
ĠM ales
ĠD S
Rad ius
intend ent
sh ops
ĠArg ument
Up dated
ĠMal ta
g if
pre ter
Ġproject ive
'' '
Ġalleged ly
Ex it
EN V
I ce
Ġdiff ers
ĠTri ple
Ġcriter ion
ĠTr in
an imate
}) =\
Ġsnap shot
pos itive
ĠGram my
Ġgl ac
ĠLanc ashire
Ġfoss il
ĠM I
ĠAndrew s
s igned
Ġtouchdown s
re ement
Ġer u
Ġreg istry
le igh
ĠJul ia
n ai
ĠG em
] ).
13 6
Ġrev ival
sim ilar
unicip al
uc le
ĠParalymp ics
j in
Ġreflect s
CE SS
Ġun likely
Ġout comes
L ab
ĠLog ger
ibl ical
Ġsudden ly
M iddle
dist rict
Const ruction
le ys
r k
P adding
Ġanalyt ical
harm onic
ere k
ast ed
uk u
ĠR ever
Ġpat ri
leq slant
Bel g
Ġsever ely
Am ong
Ġl oved
Ġb rew
ĠU nd
Ġch ore
Ġtransl ations
Ġunder graduate
n od
Ġb ats
Ġep id
Load ed
Ġint ens
Ġlight ing
Ġgrad uation
ĠMet al
ĠW arriors
ĠNiger ian
ĠDev elop
SO URCE
Ġphenomen a
16 8
Ġpsych ological
In c
ark er
ch at
ĠQu art
y u
Ġdesign ers
ĠEvent ually
ro uter
ĠS ep
WA RE
H ave
Ġf older
am ine
ĠS ession
RE T
Ġprepar ing
ĠPo isson
process ing
ĠC avalry
Ġb er
ĠV ert
ĠMar in
Ġf ung
ĠD ob
CC ESS
v dots
Error Code
ĠR ut
te k
Ġp reference
St yles
ĠE ve
Ġdis joint
sc an
B and
liter al
] ),
nav List
ĠEm ma
Ġremark able
Ġb eta
gener ator
Ġrest art
ĠB ran
15 2
) }$,
à ´
ĠT uesday
ĠTrans it
ĠExped ition
n st
} ",
ĠA my
Ġprob abilities
ĠB order
G reat
ĠPl atform
lock ed
ment ioned
Ġnot ification
Ġind oor
log ging
alt ies
ĠD ale
ĠSim ilar
ĠE state
ĠW ool
ĠAl low
S ets
s qu
.. ."
Ġkil ometers
Sm all
in ks
ed e
Ġperson ally
MP L
ĠLeg islature
aw i
Int o
Ġke eps
Ġscatter ed
track s
S uch
U r
Ġcon formal
text sf
Ġfollow ers
ident ial
Ġd ancing
pr ised
j q
\, ,
all ed
H ello
m obile
let es
D ATE
ĠSt yle
ĠG ir
S rc
ĠW orth
H ard
ct uary
Ġbroadcast s
Ġvo iced
Ind ia
t bl
f ilters
Ġaff ine
ist le
olut ely
Ġst eal
ĠAb original
Ġtheat rical
Ġjoint ly
A U
Ġb ary
c odec
ild a
ĠJ son
ĠPl ate
Ġte eth
18 34
SU PP
ĠI g
ĠF ut
W ashington
Ġtele phone
Ġh ang
ĠNE AT
w hat
Int eg
Ġshe ar
st eps
Ġh az
ak o
S un
ĠArm strong
W C
ĠSt akes
Ġhon ours
oca ust
ter rit
File Name
Ġo mitted
Ġcro ps
ĠO K
Ġ' ')
N eed
ag ation
Ġdiscontin ued
[ ]{
ĠP orter
-- ;
Tur k
Ġunc lear
Ġan notation
ĠH ave
ĠPo etry
{ .
Un expected
Ġcoll apsed
Fat alf
ĠMax well
fin ity
ĠG othic
ag le
Vis itor
ing o
__ .
Ġlocomot ive
ĠCo hen
t m
Ġsurviv ors
20 2
Ġmyst ery
Ġen act
Ġillust rate
Ġgu ards
? ?
` )
ĠBelf ast
ĠH ey
trans fer
IN DEX
Ġrock et
Copy right
Ġplace holder
numer us
Ġinj ection
Ġby pass
or b
Ġch ronic
ĠCol in
Ġrev ision
Ġ" _
Ñ ħ
Ġtem ples
ĠEngine er
cite alt
dr iven
ipher al
numerus form
ĠC os
ĠManit oba
ver ts
it ious
al one
ph rase
Draw ing
itud inal
ĠT ennis
Nov els
ell ers
sub scribe
Ġadv is
h ang
Ġ# {
Ext ra
Ġanalys es
es a
h urst
ĠCon nection
Ġserv ers
Ġabsor bed
Ġfle e
Ġfriend ship
il ateral
ĠESP N
Ġcon g
ĠAgain st
' $.
R ank
ĠLux embourg
% ),
Down load
Ġinitial ized
Ġown s
ĠR ice
CT RL
Ġfacilit ate
×ķ ×
ĠT oken
ĠM TV
ĠSer ial
Ġcolon ies
$ _{\
ĠS SL
ĠB anks
ev o
edd ings
l r
Ð ³
ern er
ĠIn spector
Ass ume
ĠO st
Ġburn ing
File Path
ent ric
j ud
M AC
oid al
L ee
Ġiter ate
ĠM ead
LA B
ĠF T
Ġimpress ive
\ [\
Ġatt raction
AP P
Ġfall en
Ġd ancer
f und
' "
Ġevent ual
Ġun ve
im eter
Ġdemand ed
: -
ST ART
Ġsuccess ion
Ġtr aces
pi pe
Un mar
not in
P N
Ġf Ã¼r
ĠCh oice
ĠPow ell
b undle
Ġred irect
ĠCelt ic
SD L
ST M
List eners
D ot
13 7
M utable
ĠPal omar
d v
ĠG ent
ĠBl ake
Ġa est
b urst
Ġw ake
hes es
t rain
æ ĺ
Mon itor
ĠBel grade
13 3
Ġg aining
ict ions
Ġhost ing
13 8
d ual
Ġst olen
Pr iv
l ore
e o
ĠH us
Ġachiev ement
d eb
ce ased
Ġachiev ements
Ġret iring
he ng
Ġpoor ly
ĠA ri
get Type
dec ode
ĠFern ando
ĠN ormal
ĠAd ult
å ľ
ĠR oot
C zech
Ġfun ctor
at ics
M LE
? âĢĿ
Î ·
ref lect
W ild
Ġcirc ulation
ien ne
Ġcancell ation
f air
Ġdies el
ĠH alf
ĠN acional
ĠF lo
ĠRichard son
Ġbi ology
he size
Ġl ux
i q
re verse
are l
ij k
Ġthick ness
ĠLore n
eff ective
Ġsub sets
ĠTan z
ĠW ol
Ġartifact s
C N
ĠObserv atory
deg ree
Ã¨ s
s olid
Hung arian
ĠF ramework
Sur face
Ġcollect ing
Ġsynchron ized
ad h
set ting
Ġl ung
L es
Ch ief
ĠSp art
ĠCom plete
any on
ĠBa iley
Ġprov es
c ock
è ¯
C ut
ĠV ers
____ ____
C lean
Ġvict ories
Ġrefer endum
c v
Ġmain land
ĠChe ss
Ġf ires
Ġ= ================================================================
Ġcap ita
Ġsh aped
place holder
ĠNob el
refer ences
ĠEp isode
Ġcre ator
ep ing
Ã© l
Ġamb ig
Ġper pet
Ġbar rel
FORM AT
ĠCon sole
ĠT YPE
ey n
Ġcon jecture
Ġpay ing
Ġdiplom at
ab olic
ĠE D
umbn ail
Ġ$- $
Ġst range
Ġim pl
Ġexecut ives
ĠPublic ations
d ashed
ve ill
ĠCan terbury
in ia
cor rect
ĠP or
ĠK IND
ĠIn g
ĠMathemat ics
re ne
ĠObserv able
ethe less
Bit map
99 9
Ġpred icate
b ard
Ġcul min
Ġelimin ate
im iter
Ġp ink
ĠAntar ctic
G G
ind ices
unt ary
Ġel ite
Ġm oll
ĠB R
od ic
ĠF ilter
s ure
Ġan omal
ĠP ep
Ġcomp atibility
Ġhealth y
B a
Ġpro position
Ġunder went
c ached
ack ing
-------- --
Ġcosm ic
ĠField s
m issions
Ġspecial ist
Ġinvestig ations
includ es
h skip
Ġjud icial
ĠDisc overy
ĠW or
H uman
ĠPop ular
Z end
ĠS ymfony
Ġsurn ames
u pe
g rand
Ġsc andal
Ġin scription
ĠLeg al
ĠNad u
en ario
ĠNS String
Ġden omin
ĠM iles
Ġsam pled
Ġrenew ed
rest rial
Ġwar fare
ĠParam eters
Ñ Ĩ
Ġhe ir
Col on
Ġorient ed
IN IT
Dan iel
ĠH od
Ġimport ed
ĠC lement
XX XX
ps y
t uple
design ated
P arts
Ġspec imens
Ġdiv or
ĠConc ert
Ġb onds
ĠC ategory
ch air
Ġaud iences
ĠS qu
eg an
ĠZ ero
orm s
ĠNew port
Ġrele asing
N atural
Ġperform ers
ĠU ntil
Ġwrest ler
}} )$
Ġdwar f
Nor wegian
R X
Bur ials
Ġb alls
Ġmur ders
ĠCont est
ĠĠĠĠĠĠĠĠĠĠĠĠĠĠĠĠĠĠĠĠĠĠĠĠĠĠĠĠĠĠĠĠ ĠĠĠĠĠĠĠĠ
ĠSur rey
Ġg amma
Work er
ĠSol omon
Ġvo ices
ĠE RR
Ġinit i
Ġmyth ology
Ġconfer ences
Ġm a
Dist rict
Ġfre ight
ĠGer ald
ĠĠĠĠĠĠĠĠĠĠĠĠĠĠĠĠĠĠĠĠĠĠĠĠĠĠĠĠĠĠĠĠ ĠĠĠĠĠĠ
c red
ĠK ind
cl i
ett es
ĠRoberts on
ĠCzech oslov
18 33
Ġpoint ing
ĠSt orage
Ġel astic
P lease
è ¿
(" ./
cess ion
ourn ey
} ~\
ĠW ak
ĠPro gress
gr pc
ĠMethod s
Ġbeat en
x html
ĠF ALSE
_{ [
and ed
Ġment ions
Ġindic ator
Ġaccept s
O s
ĠH ait
ĠA ug
Ġgener als
P OS
ĠBrad ley
C y
Det ail
ancell ationToken
s ix
Ġfl ush
amm ad
uzz le
ĠAdvent ures
ĠH es
c mp
ĠT ampa
ĠAll an
Mart in
Ġen roll
ĠC T
Ġdec ays
ar ag
ĠT rent
ĠPro f
all a
Ġsh ifts
Ġsup pressed
h on
sp aces
ĠTh ings
Ġveloc ities
Ġext raction
ch ing
Ġb arr
14 3
Ġelli ptic
ide a
B asketball
Ġpract ition
P et
Ind ividual
Block ly
Ġaff ects
ĠCollection s
im on
kins on
Ġan ch
oot ing
EN CE
à¤ ¾
in x
tim eline
ĠT at
h h
UR N
E mb
ĠR as
Ch ina
Ġap ps
ĠS ave
reg istry
New s
Art icles
ĠK urt
ĠH aven
, "./
ĠPal m
mult iple
ĠN ortheast
Ġneighbour ing
ĠTest ament
ĠR ib
Ġwe aken
re pository
Ġcon clusions
Ġexpect ations
reg ation
Ġnucle us
Ġf ame
Ã± o
sol r
ĠFight ing
w ant
ĠLiber ation
ĠEp iscopal
Cred entials
Ġliter ally
ĠB iography
inter op
ĠAdvis ory
ap id
Ġcr ashed
hedul ed
ĠI de
pe z
rid or
Ġpro c
Ġkill s
Ġmot ivated
Ġ Âł
P K
Ġcyl ind
---------------- ----
Ġwat ched
Ġ' ''
Ġcam eras
it on
Ġt ar
f lix
Ġconven ience
sp ark
Ġver ified
Ġaccompany ing
c ats
ĠGener ation
ĠL ar
ĠS ons
| =
ari ate
Ġbe ars
veill ance
Ġmus cle
ric a
oid es
Ġreb ellion
Ġco hom
Al t
Re place
ĠAst ron
im i
found land
ac ular
Ġliter acy
ĠInit ialize
ĠGu atem
ĠS L
ĠB uffer
Ġdiv orce
Ġconst rained
ĠO ptions
ik ing
ĠContin ental
ĠSc ript
Ġem it
A st
S om
pro c
ĠAh mad
Ġanal yst
ĠB oeing
ĠNik ol
var s
Ġcor related
ĠBened ict
Ġpl ural
O k
p es
Ġdiv ide
ĠM emphis
not ify
Ñģ Ðº
S hips
t okens
ĠD oll
Ġcompens ation
ĠWy oming
C odec
ĠC av
}\ ;\
Ġtack le
Ġc uisine
Ġk nee
hell o
ĠT rip
Cl aim
Ã§ Ã£o
Ġaut onomous
Ġdisc overs
Us ed
ĠN A
ĠR iv
ĠF an
Ġconstant ly
Th reshold
Ġshould er
ent ries
Ġvan ishes
Ġra id
ah u
ĠRe id
Ġwrest lers
z el
B H
od ia
Ġm aid
ĠLes lie
d m
let te
ced ure
ĠYan kees
abul ary
Ġt ale
gener ic
P ending
Ġsur f
Comp letion
Ġhead quarter
ĠHigh land
Ð¾Ð »
L ate
ĠCh ase
ĠCard iff
Ġpun ishment
ĠCr iminal
Rel ative
ĠCa uc
e ur
ĠCal gary
ĠCh ad
18 31
ĠEug ene
ip zig
ĠWork ing
Ġtim ing
ĠP rec
Ġtherm od
Ġcovar iance
W D
C ost
ĠS ym
P ier
In line
ĠR ush
Ġparam et
ĠCont ainer
Ġb out
ĠC oul
eff icient
ĠKing ston
al an
az or
V ictor
B ol
enn ium
' },
enc il
ĠA G
ĠClass ical
Ap J
ĠF antasy
the y
b eck
ab stract
Fellow s
Tem p
A cknowled
= &
re view
is le
ĠSt rong
Ġsl opes
ĠEv ents
ĠU t
Ġx hr
ĠReg ulations
Ġrect angle
ĠRol ling
ĠE RA
ĠHend erson
M ASK
it ic
ef ield
Ġrevolution ary
ĠLett ers
ac cur
Track er
K ar
%%%% %%%%
Ġcat hedral
Ġremember ed
Ġaccompl ished
Ġs aving
Ġcon qu
r n
Ġc ock
ĠC ann
ĠPalest inian
end point
Ġatt itude
Ġentang lement
ĠFif th
ĠS uccess
Ġattract ive
ĠF BI
Ġinter sect
Ġdr ift
ĠÐ ¸
g z
Ġnot iced
Con v
ĠDev il
Ġsubstant ially
Ġb rows
F s
Ġm ature
Ġf reed
Wh y
Ġintegr als
Ġscreen ing
id ay
Ġh itting
Ġrenown ed
Ġbe aring
L os
Sub ject
el ong
ĠX ml
... ]
ĠGib son
ĠR achel
sl ider
Ġan onymous
ĠV III
Sub scription
Ġthread s
ĠGu itar
Ġvalid ity
ĠId ent
ak k
omet own
Ġleg isl
on line
Ġsuccess ive
ĠK om
aus es
ĠFl ash
ĠD R
link ed
| _
Ġf i
Ġhelic opter
ov al
ĠHe ath
c ritical
ĠAss ume
T rad
Ġs iblings
ĠD w
}} =\
Ġacknowled ged
territ ory
Ġuint ptr
St ub
por al
U AL
ĠI sh
inf all
ĠFilip ino
ĠLud wig
un ches
asc ar
ĠX I
Ġmem brane
Ġo w
Ġc fg
ĠSche ma
B rien
ros so
ĠEston ia
b oot
ĠChel sea
ð Ł
Ġquot ient
ir able
Ġen larg
Ġconv ey
LEV EL
Ġr ally
Ġdis pers
ĠĠĠĠĠĠĠĠĠĠĠĠĠĠĠĠĠĠĠĠĠĠĠĠĠĠĠĠĠĠĠĠ ĠĠĠĠĠĠĠĠĠĠĠĠĠĠĠĠĠĠĠ
M unicipal
14 1
Ðµ ÑĤ
Ġrec ruit
Ġinn ovation
ht ra
Ġ[ {
f uture
ĠSim pson
Cam era
ly mouth
ĠH R
rit z
Ġmin er
Ġimprison ment
Ġs uffer
ad al
ry ing
ĠWrit ers
x FF
ĠEthiop ia
Ġupgrad ed
ĠQ ing
Ġtraject ories
al ong
20 4
M ixed
Ġpresent er
ĠAnd ers
anc a
Ġs v
op ens
ĠEm my
Ġderiv ation
Ġnational ly
I sl
d ifferent
mark et
Ġsail ing
k ok
ur an
the ory
Ġvolunte er
st reet
Car l
zo om
W OR
Ġcloud s
ĠEu clidean
inem atic
S B
que z
Ġthir teen
C ath
ĠM uk
ĠâĢ ¦
ĠDet erm
B g
Ġk w
ore ms
Ġcounter part
sc ribed
ol er
21 1
/ ">
ĠH ull
ĠA x
Ġinitial ization
un its
h ra
p ons
he nd
Ġspac etime
ĠB il
stad t
App ly
process or
\| ^
Ġbur ial
O l
ĠAlb ania
u o
ĠC atalog
ĠD eg
ĠP irates
ĠBund es
AR GET
At A
ul in
mod ern
mark er
Ġd ish
' )$
Î ¼
v iol
ĠB CE
me as
Ġch orus
v skip
ĠL arge
h w
Ġz oom
Ġh ind
20 5
ip ur
ĠC ort
ĠGeorg ian
Ġexha ust
g ro
ĠBas in
ĠSher iff
esc u
Ġround ed
ĠStr ateg
C ycl
Ġlock ed
Ġdisappe ared
ĠU FC
H I
Ġp icks
Ġins ight
F ri
ĠC ome
ĠTh an
Ġserv ant
ĠTest s
render er
W ood
che z
18 25
Play ing
Ġenzym e
Ġbeet le
col m
IN VALID
G TH
ts d
}{* }{
Ġt ent
ov i
ith metic
cf c
Econom y
Ġfl avor
ĠF eder
ĠS hen
Ġar ises
Ġsec ular
Ġdraw s
Ġas p
ĠK ab
ĠInd igenous
For ward
bre aking
28 0
Ï ħ
Ġpers istent
ĠSlov enia
Ġtack les
en es
Ġdepict s
ic ers
Ġep it
Ġreal m
Cal endar
ĠGi ovanni
Ġcontain ers
Ġconsum ers
Ġsuperv ision
F actor
Ġh alt
{ [
Ġfe es
do es
Ġrefer enced
Ġserial ized
ĠOs lo
EN C
You ng
ĠE t
Ġfa una
Ġkil omet
Serv let
met rics
ĠInter state
ĠSh ared
ĠCath olics
Ġtrans mitted
Ġcyl inder
ĠP om
Ġend ings
Re plic
ĠBry an
Ġpres ervation
enz ie
ĠB ullet
ĠAg reement
ĠJenn ifer
Ġsax ophone
' +
sc ience
Ġdem ocratic
18 14
mun ition
ian e
op hers
ĠLuther an
b ib
cont act
asc ade
F oo
t ile
ĠC i
RE AM
Ġpsy chiat
Ġprec ip
Ġc c
ĠJava Script
Ġdr ives
ĠEv angel
ĠGlob e
Comp leted
ug a
ĠPhys ical
ĠDr um
Ġstop ping
Ġd otted
script s
Ġk ings
im ming
A ud
A meric
ne apolis
Ġtow ers
c us
ĠS v
AB ILITY
erv ised
M u
Ġsqu ares
U psilon
ĠLe op
ĠEnt ry
ĠR T
ĠT ales
i ary
ĠCon structor
ĠI BM
Ġ( %
ĠFer dinand
Ġâ ĪĴ
Ġinvent ed
ĠSpec ifically
P rem
ĠEm ily
ĠExt ension
Ġcomp ress
sc all
} <
ĠPer iod
yl an
R end
desc ribe
Ġl od
ĠN AV
ĠBurn s
Ġh opes
Ġ* ,
Ġh i
og an
Ġtrend s
det erm
c amp
p agination
Ġpron ounced
st ation
Sup press
B ir
b age
ĠA FC
ĠSpe aker
ĠK yle
Ġjournal ism
Ġachiev ing
çĶ ¨
ĠL ip
g al
g ang
ĠL odge
ĠK ids
Ġdi et
ĠP U
Ġpre val
Ġunder go
Ġprison er
B LOCK
N Unit
ĠA WS
ĠHur ricane
nc y
H aw
power ed
erm ark
Ġpen et
Ġd ock
get String
dis k
Ġloc als
Ġsimpl ified
Histor ic
M il
ĠG alaxy
Ġcont rary
Ð° ÑĤ
Ġin complete
sign al
ĠS equ
ĠB ot
B on
ĠBur ton
Ġcare fully
Ġt ap
Ġnon zero
ay e
cc entric
Ġsp ir
Ġon wards
Tra its
K K
ace ut
13 9
ĠF emale
Ad minist
Ġfavour ite
Ġprot agonist
ĠM ing
Ġaccept ance
if ax
ut down
ent a
ĠS Y
14 7
Ġsent ences
Ep isode
und ers
Ġrap per
Ġinfin ity
* >(
Ġrelax ation
n pm
ros se
ĠCom bat
Sh adow
Ġknow ing
Ġaccount ing
18 28
list eners
Ġdraw ings
ĠThrough out
Ġex ile
Ġdou b
ĠT OP
Ġtrav elling
Sc an
P ur
ĠE k
icy cle
fl uid
Ġover head
Ġrefere e
Ġor al
ĠGen eva
Ġnom inee
um ble
Ġsur render
Ġweak ly
ĠB esides
arch ical
iv ar
ĠP iano
Ġf ate
ĠFr aser
sp ired
ĠSh ore
ĠBar b
Ġresear cher
Ġrel atives
Ġintro duces
Ġ. =
And roid
dat aset
Ġcontroll ing
g ender
[ _
Ġtri o
Exec ute
ĠBey ond
Ġread ily
Ġband width
Ġsla very
Ġnom inal
Access or
D eb
ĠA way
Ġadd r
ogn ition
Ġproxim ity
sm ith
Ġbusiness people
Ġpay ments
M X
w ire
Ġre actor
Ġbus y
Ġto String
Ġ" (
gener ation
$ }}
ell ites
ĠMax im
ĠWe ather
For ce
Ġgoal keeper
ĠLind a
ĠK ang
Ġus ername
sc rib
Ġmill ions
18 24
ĠEnter prise
Ġa u
Ġadv isor
ar re
Set up
s al
Ġ( +
Ġvirt ually
Ġassert ion
Ġt iny
pos al
value Of
Ġmodel ed
)= (
Ġad option
Ġback ed
Ġfilter ed
p ick
Ġsix teen
ĠFranÃ§ ois
ĠLuc y
per cent
ĠS erv
Ġcomplet es
Ġse ized
S eq
Ġr idge
utt le
il ion
Sw iss
Ġdispl acement
G s
16 6
Ġrecon c
Ġ ions
ĠBar r
Ġfarm s
$ --
Ġover look
ĠCarol ine
ĠCap itol
ĠT itle
en h
ch in
Ġmark ing
Ret ry
ĠÐ ½
B attle
Ġre bounds
Ġmer c
Ġbank ing
Ġst ub
Ġapprop ri
Ġr c
iÄ į
Ġlob by
c ript
w ald
Ġv ault
15 1
Ġeduc ator
ograph ies
Ġdepos its
ĠUn less
ĠPres byterian
Ġrot ating
ĠML B
ag ne
view port
ĠNot re
Ġh oped
St ates
govern ment
CH AN
Ġsp ur
An chor
ĠN atal
Ġind uces
Ġhigh lights
Ġsw ord
s amples
20 8
v iv
Ġa erial
Ġle ase
ĠZ amb
Ġw alks
er ialize
ĠCr us
Control s
WR ITE
Ġbe er
ĠWag ner
Ġim per
an mar
ĠGl enn
R outing
Am ount
s izing
ĠH off
Ġcount ed
ĠR ender
Ġsp y
b ran
ĠD I
sub stack
ĠInter ior
ĠH ab
. },
ĠIn stitution
C ultural
Ġcred entials
= -\
ad ors
ĠV ision
be it
Ġstation ed
te ch
Ġfour teen
ĠHead quarters
RO C
è ¡
ĠE c
interop Require
ĠDate Time
ĠP sy
Ġgr pc
ĠFI LE
. (\
m ile
Ã ®
V s
ĠC anyon
Ġv ital
Sim ilarly
ĠCh in
ĠSer ie
Ġpotential s
Ġswitch ing
Ġcitizens hip
center line
00 5
Ġim plications
ĠOr lando
Ã§ a
ri ans
re po
Ġun em
Ġhealth care
Rec all
Ġinter active
IC ATION
Ġinter im
ch ard
ev es
Ġpurs ued
Ġa er
ĠLy on
Ġtransport ed
Ġf ed
ab lo
Ġman ually
ap or
Ġfill ing
pr im
Ġgu y
l ic
ĠR TC
Ġant ib
part ition
Array s
Ġconsult ant
ĠK aren
Ġident ities
Ġd ra
Ġobject ives
Ġ{ {\
Ġgo ogle
be ing
ĠW ick
Ġ um
ĠP Ã©
Ġas ide
sur ance
ĠCommunic ation
ĠEd monton
in formation
ĠColon ial
Ġbright ness
ĠCurt is
Ġ$ <
ord e
amb a
Town s
Ġcl ay
ĠT F
Al ign
N L
est y
}^{ (\
End emic
ĠAl g
Ġf ram
rib le
ad apter
Ġbacter ia
ĠN ATO
r p
Ġreal ize
s an
in is
ãĢĤ </
ĠPubl ishers
ĠW end
Part icip
p olit
ab ases
"> (
sh are
N U
n is
Ġg rap
x f
Ù Ĭ
all i
ĠK w
ĠGL float
ĠB uc
pert urb
ĠEu rop
Ġst ones
og gle
D ict
op rano
i NdEx
Ġdub bed
p ixel
am ar
Ġse aled
ĠB ug
ĠQu est
Port ug
Ġexception al
pay load
Ġra pe
Ġg ains
in j
Ð¾ ÑĢ
Ġrepro duce
ĠK ad
Ġdis orders
war z
ĠBir th
Ġl ig
ĠH E
ject ed
ĠA FL
ĠNot es
} &\
ne um
Ġpra ise
pg f
K h
il is
ric ia
Ġrel ies
Ġprest igious
Ġtermin ated
un al
16 9
arri ers
Ġhelp ful
ĠJ i
Ex change
ron ics
Ġpregn ant
ĠS event
Ġax es
FFFF FF
33 3
ha o
ĠR ica
cd n
Att empt
ass o
dis cover
Ġb eneath
und o
Ġlin king
ĠProt ocol
ĠL av
J on
fra structure
histor ic
Ġm oon
air y
å °
ĠS ed
Ġbos on
ĠSlov akia
Ġmanuscript s
L ang
mut ex
Ġrecommend ations
Ġ" >
BY TE
ĠLore ntz
alth ough
ĠInter est
Ġbre ath
++ ]
to Equal
iers hip
s elling
ĠH els
Ġline up
le en
ĠMor rison
ĠM ob
get Message
Cl ock
Ġh int
her its
uff le
ĠValid ate
s il
Ġa ria
' }\
ust ain
18 29
Ġl ip
Ġpro ton
Big r
Ġl ots
Ġformul as
ol ation
t ot
ĠCh al
im ony
18 26
ĠY es
ĠG ul
tem perature
H ex
Ġcall er
Ġvulner able
Ġlocal ities
D X
ĠW IDTH
ĠMy anmar
ĠAnd rÃ©
ract or
ĠRem ix
Ġ// !
Ġal umin
Comp et
ch oice
22 4
Part y
ĠM otion
Ġless ons
14 9
Dep recated
us ive
CO UNT
AS C
cos ystem
Part ial
ĠA uth
Å ¼
pt a
ĠT ool
Ġset Timeout
open api
Pol y
Ġinnov ative
Ġfor get
glyph icon
P ad
Ġ" )
ul ators
ĠU SE
Ġin vert
ĠPl aza
ipe g
}) _{
Ġdirect ive
ĠGram mar
ĠR oc
Ġaccur ately
ĠD ow
)} _{\
Ġmulti plication
Ġtr am
Ġv oyage
' -
Ġassemb led
Ġhand lers
ĠBarn es
ĠLL C
ch arts
FT WARE
ĠSt rat
ĠMe V
Ġthe or
cles iast
Ġp ose
Ġ{ %
ĠL enn
ĠB ever
atri ates
ellig ent
ĠAchiev ement
T LS
ĠD ud
ffff ff
Y our
ill iant
ĠParliament ary
Ġflex ible
ĠBed ford
ĠStaff ord
Ġdeep er
Ġroll ing
Ġcontact s
rypto JS
ĠM aid
Ġinter faces
ĠB ronze
Ġst aged
ĠT roy
ĠH i
Ġcav ity
at aka
Ġmyst erious
ĠRet rieved
C orn
bl ocks
ject ive
ĠAr ctic
sc apes
Ġpost hum
Ġimag inary
Ġglob ally
V S
ĠBas il
ĠS isters
Ġlect ures
ĠA sc
Ġcop ied
P ages
ĠSw ift
() `
ĠHe at
ĠAmeric as
S and
B rown
T urn
ĠC ancer
/ )
Ġdev ast
Ġtro ubl
to o
sw arm
18 21
Ġs unk
ĠF ed
Ġansw ers
P ars
or ig
get Class
Ġsuperv ised
Ġtri ps
ĠR ules
}} }$
l ane
prot ect
ĠM ilton
ĠB j
if les
G RO
Ġf erry
sd k
Pop up
amp ing
Ġdem o
F IN
00 2
ious ly
z an
he y
Ġreg ex
M useum
Ġdescript ions
vel oc
p d
ĠAt omic
un ar
ĠPop ulation
greg ate
OB JECT
Ġcongress ional
) !
Ġpup ils
ĠP am
ĠH IV
R IGHT
ĠR out
s yn
15 9
] ['
E th
Ġcon gregation
99 99
Ġhon ored
Z oom
ĠI X
Ġdec oder
Ġreb els
ĠL ey
Ġmission ary
q a
ĠB P
ĠH ook
Ġkit chen
ĠL az
ĠMc Donald
ĠAdvent ure
en vironment
ĠT ul
Ġext inction
atern ity
Ġrom ance
FUN CTION
15 8
ott i
Ġs ad
ĠCom ment
ĠSe oul
ig m
Ġv it
t le
ĠB ac
rot ate
Ġdeform ation
ed ar
ik k
ST AR
Ġpar agraph
ĠK ot
Ġra infall
Ent ries
P a
R atio
ell ation
late st
Ġsustain able
s ources
Ġe ccentric
Ġcontin uation
Ġoverw hel
n ick
Ġsett le
Ġreconstruct ed
ĠP arent
Q A
Ġp ig
ĠI stanbul
Ġpriv ately
elect ric
Ġaver aging
Ġstri kes
26 0
Def ined
File System
ĠAlb any
not ification
V ec
ĠB H
st en
Ġfix ture
t oc
Ġen listed
init ialize
d jango
Ġtransl ator
ĠC raft
ĠIn side
Ġview ing
Be en
Ġnation wide
g raphics
pl aced
p ow
ĠM ode
Ġded uce
U pon
Ġd ying
en ic
ĠD j
Ġro ok
ĠC osm
pr ite
start s
M Hz
f ootball
Ġ@ {
ĠBrad ford
? (
pl oma
Ġspe eds
14 6
ĠCour se
Ġdim in
( ()
Ġcl othes
Top ic
ĉĉ Ġ
ĠY et
sec onds
Ġport folio
b ay
ĠT ot
ĠS EC
li o
ĠLiter ary
Desc ribe
Ġm ad
Ġshe ep
ig hest
Ġru ins
ĠD ew
f m
ant le
0000 000
Sl ot
ĠG ol
BL IC
ĠCl uster
3 30
Ġreven ge
Ġperturb ations
aff e
ch rome
18 10
Ġcol lector
' $,
ier i
ĠWinds or
Ġdi ocese
Un ique
Ġmod ular
Ġany where
ĠAd rian
Ġs ulf
ĠH MS
) |\
r ust
ĠL omb
T ensor
ĠA ircraft
, ~
iv ot
ĠA part
Ġn ose
With in
ĠRes et
Ġd Ã©
ĠHar bour
ĠMaced onia
Ġc otton
ĠM ask
Ġ} .
Ġcare ful
Ġr ivals
Ġsql ite
cur ve
Ġir re
ĠUSS R
ĠForm at
< >();
Ġexp atriates
ĠBer ry
st rict
ĠMc N
ĠLyn n
Start ing
ĠProgram me
Ġsub section
! ,
ĠMes a
Ġ Ø§
Ġmon uments
art z
ĠBud apest
b ranch
T ake
ĠType Error
Ġre ceptor
Ang le
Ġtorn ado
St an
Ġaut umn
r ina
i ad
ĠAber de
ĠUtt ar
Ġproceed s
ĠE ye
in verse
m x
Ġbut tons
Ġsem ic
U CT
ĠC ool
ant es
ĠD ong
Ġcallback s
ind uced
De ployment
ertific ates
log o
Ġvis itor
ben ch
ĠRoche ster
ĠD und
p ic
ĠAn imation
h ydro
ĠInter view
hard t
Ġgather ing
16 00
Ġinter fer
N ever
en za
sh an
ĠJer emy
Ġm eter
Ġball ot
ĠM ale
Ġen abling
mix in
ĠTR UE
Test ing
M ov
ag ascar
ĠPrest on
15 4
Back end
Ġefficient ly
d or
Ġm im
ĠL il
ĠV ale
ount ers
Ġheadquarter ed
Arg entine
S ol
Ġb ubble
ĠK aw
Ġp ad
Ġpre t
ĠEll en
H idden
Ġincorpor ate
ous el
ĠSab ha
Com ponents
Ġline arly
ĠChe cks
="../../../../../../ ../
Ġcab in
/ #
ĠA j
Ġsus cept
ĠH ern
Ġdo zen
Sc ene
Ġrect angular
() [
Ġconst expr
B locks
m ons
ĠMar l
Mar shal
Ġscreen writer
ĠMidd les
t asks
aa aa
ĠK iss
ĠRe lease
Ġh ometown
ĠA DC
Ġwhe els
over lay
Ġt une
Ġcycl ing
Ġflo ors
A BC
ĠCh uck
Ġterrit orial
Ġsegment ation
ĠBe ing
Ġterror ist
ĠC ly
Ġkill er
ĠC lean
app le
Ġbr acket
m ology
t el
st re
st ellar
ĠG it
Ġtorped o
Ġh o
ar ium
aras htra
Big l
ĠMar ion
Ġp c
am on
. }\
amp ire
Ġutil ized
ĠClass es
P ref
ĠCall ed
ĠConstant in
co le
PRO JECT
Ġremov es
Ġminim ize
Ġschedul er
Re ceive
di ag
Ġdivor ced
ĠNew foundland
Ġj ets
ĠĠĠĠĠĠĠĠĠĠĠĠĠĠĠĠĠĠĠĠĠĠĠĠĠĠĠĠĠĠĠĠ ĠĠĠĠĠĠĠĠĠ
se ed
Ġcon spiracy
ĠRec ording
UM M
" }
ĠJul ie
Cl imate
Ġgram mar
yl um
Ġwire less
Ġnumer ically
olec ular
ia e
if a
Ġs its
ĠL ed
Ġfinal e
ĠDev ice
Ġcol ored
ĠLe ipzig
18 18
Ġb is
ĠP engu
row ing
cest ershire
Ġcur riculum
Ã µ
21 3
ĠD ynam
Ġatmosp heric
Ġhom ot
Ġparse Int
C ert
ĠS G
ME SS
ĠD ynasty
Att achment
Ġfar mer
il us
ĠMar ÃŃa
l is
ach y
Ġadvert is
ac ies
Event Args
Ġ$ [\
ĠKle in
Ġo v
Ġflood ing
ĠH ood
ĠL ect
Tool s
Ġsoutheast ern
z on
Ġinteract ing
ä¸ Ń
L ev
al ions
pe g
tra ining
ĠM W
Ġcompris ed
Ġb ore
ob o
f older
ĠA A
communic ations
ter ms
ĠCre ative
1 200
ĠJane iro
work er
SS ION
ĠPresident ial
Ġhyper bolic
Ġdemonstr ates
Ġpod cast
ĠElli ott
ch urch
ĠNapole on
M obile
Ġs ew
Ġd inner
16 7
> `
S PE
Comp at
Ġmotor cycle
Ġinhab ited
ĠAcadem ic
B ern
ir ie
15 7
20 3
." ;
na issance
LEN GTH
or ian
spec ified
Ġcorn ers
ĠBright on
ĠB alk
sw orth
Ġhon ey
ĠSil va
ĠP lymouth
Ġtra vers
Re ceived
type param
us hes
W ARN
Cre ation
Im ages
ĠAlb anian
Ph ot
on ne
Ġpro sper
rel ax
Ġe ating
ĠY a
Ġ( `
Ġag gressive
Ġend if
Ġpar as
ĠD rop
ĠKazakh stan
') ->
Âł Âł
Ġsub stance
? ,
Ġj e
Ġdis cre
ĠSant os
ct rl
ĠAlexand ria
Ġam munition
Ġgirl friend
C ss
R o
Mod ifier
ĠTasman ia
b is
~ (
ĠW H
ĠV ij
Ġ' </
Reg istration
id ian
ĠHol ocaust
Ġfurn iture
Ġlo ose
ighth ouse
Ġsur pass
ĠPh arm
Ġar ising
SU B
ĠIt em
Ġswim mers
ĠT D
im od
Ġlocal ization
Ġch lor
14 2
Ġrem arks
Dec ode
Ġwithd rawn
R G
ĠV iv
Ġun e
S ender
Columb ia
no ise
ĠFer gus
Ġm all
Ġoccas ional
Ġsign atures
Ġpres idency
14 8
ĠAm ateur
pot ential
cp u
Ġfavor able
Ġaccept able
c ookie
Ġprom ises
Ġcurrent s
Per cent
R UN
Ġd ump
18 01
ĠAssoci ate
ĠWes ley
M us
F it
ĠCar roll
ac ements
B ay
ĠCoal ition
ik er
text area
Ġter rain
eg ie
Ġwick ets
ĠT rev
Ġpresent ing
Ġtri angular
Ġin sects
id an
ĠG ur
Ġw are
man agement
ĠG M
up iter
t ake
g ae
Con version
ĠGrad uate
Ġsaf ely
Ġf ru
Ġtick ets
ĠPh ase
Ġlat ent
Americ a
ĠRe in
Ġex clude
C ookie
Ġ$ $\
node Name
D ash
ĠB ee
ĠEd gar
std err
Ġpray er
x sd
Ġp ace
Ġthe olog
f w
ĠL apl
Sc ore
Z Z
Ġnow rap
arv ae
ĠL ub
ad oc
4 000
Ġproceed ings
W ho
ĠAgric ultural
ard e
arg v
Ã¼ ck
Ġthe ology
LO B
15 3
al tern
sm outh
cass andra
ĠInd ividual
ra pe
Ġpoll ution
Ġins pection
o il
ĠW inners
so lete
15 6
Ġb allet
rac use
ĠS Ã©
Ġdig its
ĠAn at
ĠMin neapolis
Ġep ic
ĠBav aria
m agn
Ġident ifies
ĠC anton
ĠPubl ished
I p
Ġf d
ĠN urs
Ġelect romagnetic
ĠSh i
An notations
TR A
ĠE M
ick y
ĠW aters
ĠCh rome
Ġuniqu ely
interopRequire Default
ian i
n io
Ġf ran
Ġdiscipl ine
Ġfit ness
Ġimp ressed
ĠD IS
ĠPatri ots
ĠI z
k el
Ġpars ing
Ġp ounds
Ġrevers ed
Ġis instance
Ġconstruct ing
and i
Volume Source
sm ooth
be ans
iev e
ĠLith uanian
Ġ ^{\
Ġfin itely
ex act
y ang
ig rant
Ġadvant ages
Ġdetermin istic
Ch ris
Ġper ception
k le
ĠD epend
sp ot
Ġimplement ing
pack ages
Ġprompt ed
Ġpre y
ĠVAL IGN
ĠMin i
Ġwild life
st ones
Ġgen u
ĠLet ter
Ġlect urer
Ġwe igh
Ġret rieved
z ier
cl ub
d h
Ġw reck
Ġp t
ĠRich ards
vent ions
Ġoff ense
L arge
Ġvin yl
k ers
Ġperform er
Ġbatt ing
ĠK ann
Ã¡ r
Ġrul ers
Ġassass ination
S ar
hel pers
ore l
adv ant
6 50
Ġr amp
und erset
Ġs ink
an ions
IT ER
ĠHard y
Ġun changed
ram id
ĠC ay
en ian
m ixed
Ġdef erred
= (\
Ġ[] *
ĠRaid ers
ĠR ifle
ocol ate
ĠCom mercial
Ġenthus iast
Ġmot if
Ã¤ r
Ġformal ism
H H
P rec
he e
Ġbl ob
ass is
ant astic
rest rict
H op
ew ard
Ġmem ories
develop er
inv oke
m inton
Ġavoid ed
ĠBor is
Ġs ender
ĠJohn s
se at
ap o
Ġland mark
Ġd ella
Ġcal ibration
Ġobserv ing
ĠAg ent
Ġgen res
Ġp ip
Ġconsequ ently
ad os
V an
aint ed
um ph
Ġtrap ped
Ġ[ #
Ġimp ression
\| _{\
prevent Default
ĠB rent
Ġevolution ary
Ġ ].
Menu Item
Ġ( ((
ĠC e
G od
', \
Tag Name
uns afe
Ġr ises
M AN
Ġdoctor ate
ĠC od
ĠL E
Ġdiagn osis
ĠMin isters
Que en
Ġdoct rine
Ġbroad er
Ã¡ ndez
r pc
put es
Ġel imination
m ud
ĠB ess
Ġneglig ible
_{ {
Ġdemonstr ation
Ġmathematic ian
af ka
Ġmicro sc
Ġnortheast ern
S on
ink i
ĠHug o
}. \
Fr ont
Ġbad ly
Ġpar ishes
ĠL ah
S outhern
osp here
h in
Ġfre ely
Ġrout ing
it ary
ĠDo es
iling ual
an an
role um
ĠGr ass
Ġord ained
oph yll
Ġin herent
ĠH iro
Ġcan on
ĠF em
Ġmys elf
A W
Ġcritic ised
Mod ules
ĠB allet
OR S
ĠRh ine
K im
Th an
che l
ĠMic he
Ġval ued
on c
ĠM E
Ġdepict ing
Ġmed ic
Ġnucle i
prior ity
Ġmon op
ĠV oc
Ġafter math
>< !--
ain es
ĠUn fortunately
}^ +
ĠPro gressive
ĠChem istry
ore n
ĠTh ames
ict s
Na N
Ġ$\ |
Ġstep ped
Ġsc ar
Ġst er
ĠStef an
Ġ( .
Ġrecommend ation
×Ļ ×
S PI
es p
Ġcogn itive
] ^{
Ġsp iral
18 22
ĠAr d
Ġw arnings
Meta Data
ĠNap les
B rand
ĠE uler
ur ai
P ACE
ĠCart esian
Ġox id
cha ft
ĠWik ipedia
Ġlegend ary
t ec
(" .
K ernel
Ġop posing
ĠJul ius
Ġ} {\
string ify
ĠAr ms
ob ar
Ġback ward
C over
ĠR ican
REQ UEST
ĠIss ue
Ġs or
ass er
Ġsimpl er
fill ed
I ran
ĠExcell ence
M icro
ĠSO FTWARE
ĠAlger ia
Ġun con
ier archy
ĠPl us
ĠTr uth
bound ary
k al
Ġbal anced
Gener ate
K A
ĠReg Exp
30 4
ĠAnd rea
Ġ(! $
ĠCop a
Ġun n
Ġadjust ed
iline ar
ount ain
stat ement
Ġcontribut or
ĠBul ld
Ġdram at
Ġprevent ing
ĠAdd ed
Ass ign
dest ination
Ġhom osex
ĠEston ian
ĠChron icle
ĠGust av
Ġsup porter
Ġtop ped
Prot ected
ĠIndust ries
Ġoccur rence
ran ger
pe i
display math
Char acters
Foot notes
ĠGu jar
ĠBuddh ism
Ġbass ist
ĠB end
od el
Ġfeed ing
ĠIllegal ArgumentException
ĠR FC
uc ci
ĠPl at
Ġm eth
Ġin set
ĠCh ancellor
Ġout per
Ġaffect ing
ĠJam ie
N AMES
//////////////////////////////// ////////////////////////////////
C U
Ġd ancers
ĠMerc ury
Ġem itted
Fr ames
ĠMar qu
is odes
Ġcar ved
Ġt aste
cl air
Ġmass acre
W M
he imer
Oper and
Ġcon sec
ĠSac ram
n h
ĠB eg
ĠN ames
leg end
ĠIn surance
respect ively
ĠA bs
ĠKh al
at ro
Per formance
ĠR up
ĠR ole
HAND LE
W inners
Ġsuff ices
ãģ ®
Ġrender er
17 6
Ġdec ode
Ġdown stream
am oto
Ġcontest ants
ob iography
Ġancest or
Pac ific
ĠL java
)} =
Ġpoly mer
T i
ĠS ever
N ON
Ġstory line
Ġadv ised
Ġris ks
ĠSw itch
st a
ĠH ousing
ĠK end
Ġqu it
Ch icago
Ġwould n
p mb
ĠBra h
Ġdeleg ation
Turk ish
ĠV id
ĠT ell
ĠMar tha
Ġcarri ers
ĠJud a
Cal ifornia
Ġgar rison
os o
ph oton
om aly
ĠM ove
17 90
C ivil
H o
ct ica
he ap
are ncy
â Ķ
Ġw ound
Ġindex ed
Ġmand atory
ĠChile an
uc a
18 16
Ġsp anning
ĠCO MP
}, {\
17 4
x c
Ġf rog
Ġsw ing
x e
ber y
Ġsac red
Ġhar ass
ĠP ine
establ ished
h yp
en ary
ĠD iana
Ġenter prise
Ġ\ :
od ium
al p
Ġgu ided
ĠK oh
ĠCON DITION
Ġperfect ly
Ġlog in
Ġd ressed
ĠSebast ian
et les
ĠCraw ford
ĠR id
ĠInter face
18 13
ĠM BA
dat etime
art e
M arg
ed ges
Rep resent
B ag
bra ins
ĠAtt ribute
get Time
ĠTh ir
ĠHonor ary
Ġ ì
Ġl as
ĠJ ake
ĠRem ark
in ar
ĠS leep
RO OT
ĠCont ract
ĠInt el
n at
ut z
D TD
ĠF ixed
node Type
Ġdro ps
12 34
ace ous
ile e
Ġcor poration
ĠC rystal
rif ice
å Ĭ
ĠR osa
ĠBol ivia
ĠLanc aster
22 2
ard ment
Israel i
ĠNot ice
ĠSett lement
ĠTh anks
Ġthrow ing
Ġcap ac
Ġham let
D ie
Ġnew er
ĠBo hem
ĠKn ox
u ana
Ġmin eral
ï¿½ ï¿½
vis ibility
SU CCESS
Ġproceed ed
rell a
Ġf ol
Ġm ansion
ĠSc out
h ouses
Ġgu idelines
ĠPro ducer
Ġthought s
5 50
ĠFran ces
ĠCam ero
ĠHash Map
Uk rainian
as aki
form ula
oss ible
Allow ed
um ably
ĠR C
ĠG an
mathbb m
ĠPh oto
ĠT ropical
18 23
Ġmolec ule
Ġpur ple
ato es
sh ots
ĠM Ã¼
Request s
Ġ\, ,
yst er
Ġinter ven
Ġk iss
pend icular
ĠL ords
Ġtre as
ĠMar cel
l ap
oc es
Sign al
oc on
ĠHal ifax
Ġmon ot
Ġpersonal ities
az ure
head ed
n as
Ġcommun icate
Ġpract iced
æ Ĺ
ter min
Ġent ert
Sc ience
Ġesc ort
ĠM Äģ
Ġneg lect
Ġdeleg ates
ĠOr d
ass adors
ĠChem ical
ĠMon ument
ĠÄ Ĳ
Ġpurs uit
se ek
ĠL on
Ġcor rel
Ġnob ility
Ġdiver gence
Ġp ent
ph on
Ġgod s
ĠChar leston
US Y
k ern
pack et
un ting
miss ing
Ġwork shops
30 3
Ġsp ont
Ġsocial ist
Ġsen ators
itt est
ash ing
Ġcolon el
Ġguitar ists
ĠDemocr acy
ĠB A
document ation
ĠN in
ĠChief s
ĠNAV BAR
ĠGriff ith
ĠPar agu
Us es
å Ľ
g io
ess ment
Ġreason ing
Ġtermin ology
Ġbankrupt cy
F ilename
d anger
um en
col ogical
Act ivities
Trans lation
Ġshell s
ph ot
ĠR oth
oc cup
grav ity
Ant i
Ġexcit ation
) |^
ĠCl imate
Ġ iv
ind ed
ĠE isen
Ġbow l
ĠF uj
abs olute
> {
ĠCon vers
ĠMar co
Ġe leg
Ġdi agnostic
it Ã©
ĠU P
Ġlater al
Ġin ad
18 27
ĠCom pute
rest ore
ĠNO TE
il ogy
Rec ent
Ġcohom ology
Ġvari ability
Ġabs olutely
ĠG ross
' )\
row se
Ġstrugg led
int ent
Ġwithdraw al
Ġwav ef
Ġse al
ĠShe ll
ç »
Ġcon ce
l c
Ġf action
Ġg lyph
Ġcomplex es
pon ym
Ġtransform s
Ġgr ab
Ġgod dess
Ġsh r
Ġest ates
sub float
ĠMad agascar
B ank
ig ins
ĠAr senal
ap on
E mitter
Ġlong itudinal
ĠNS W
et z
Ġan ger
N AL
ĠK Ã¶
East ern
ĠT ank
ev iÄĩ
ĠJo el
Sh ift
ĠN orton
ĠF eb
M ail
Ġsymbol ic
PRE FIX
over ride
W ords
ĠPerson al
ĠN uclear
ap ps
ĠGael ic
oc y
uck ets
Ġpe ers
ĠW ings
ĠTh row
Ġrecur ring
ĠAn imal
ĠIter ator
ors ed
Ġpost pon
Ġfeas ible
M ike
' }$
ge ons
ĠSing er
ĠHun ting
IE W
ĠJes se
IN LINE
size of
ĠH ert
ĠSerge ant
ĠEm irates
ĠGal actic
K en
Ġundert aken
Ġtang ent
By Name
Def ine
TH ER
Ġcondem ned
Ġg amb
check er
Ġblock ing
ĠLog an
ĠB om
}= (
um per
ĠCol lect
g ap
Ġimpact s
Ġqu ote
af a
Ġprotocol s
ĠTanz ania
Ġneighborhood s
Ġmo ist
Ġsub species
Ġver ification
F atal
[ ];
L F
ĠM ey
ĠE yes
ok i
red irect
ĠZ en
Sc ot
Ġhur ricane
{ };
Ġclass ifier
Ġto b
Ġsk ull
Ġisol ation
Ġcatalog ue
$ (\
ian ces
Ġwork shop
ĠS ard
ĠC airo
ĠW W
Off ice
jet brains
r ade
Ġsummar ized
Ġcancel ed
r ates
Ġm arri
sc atter
x a
ĠB har
ĠGar c
Ġperm utation
ĠC ul
sup ervised
ĠÄ Į
Ġd ors
Ġl ac
ĠCONDITION S
ĠP ool
Ġl ord
Call ed
ERT Y
Ġn ights
Through out
Ġarm ies
ĠV eh
Ġl ambda
gle w
Ġc ookie
å ¯
f bb
Ġless er
Ġad mission
Ġess ays
Ġs i
Ġam id
aly zer
({ },
Ġsens ors
}} }{
ann ah
ĠBl air
Ġup set
Ġrel uct
idel ity
Ar ts
list ing
Ġexp elled
j b
W arnings
r ÃŃ
Ġsouth western
Ġobvious ly
seud o
R D
om ical
ad apt
Ġfore cast
y i
Ġsee ks
ock ets
u u
it ches
ĠP K
ĠQu int
T s
IN TE
ĠSem inary
Ġ! (
Ar ab
ĠHein rich
ĠMal colm
Treat ies
ĠD awn
ific ant
m ov
ĠCons ult
opter a
po i
MS G
Ġle ak
veloc ity
F all
ors ion
: %
ĠW HERE
ĠWal sh
V ers
20 6
F ast
Ġcompar isons
Ġninet eenth
ĠW WE
read only
vari ables
ae a
ĠMar ian
Ġcontin ental
oph on
mat ched
ĠV ery
Ġguarant ees
ĠM oss
f v
Ġpe aceful
Ġadapt ive
Ġveget ation
Check ed
ĠDar win
charg ed
Ġfem inist
ĠOther s
ĠElect ronic
Ġhum or
ĠP ione
ĠEnt ity
ĠBAS IS
ĠR F
cond itions
Pl aces
A h
ĠHay es
ĠGar cia
Ġhar vest
3 65
ĠImp act
É Ļ
ĠT oo
Ġh istogram
Ġmod est
. ]
Ġcontext s
s chool
op p
Ġposs ibilities
ĠTre k
G er
i ade
cut s
ont r
fail ure
df s
ĠF O
tt i
'' .
ely n
ĠSuper ior
J ournal
ĠSum mit
! =
Â »
ĠDep ression
ĠM ile
Ġl ady
Ġtra ff
ĠTrin idad
vent h
any a
mod ified
ĠBrown s
Ġlog s
U A
in ement
m ys
en ko
Ġrank ings
th us
ĠDod gers
Ġoptim ized
Ġaccident ally
b os
Ġtr adem
ĠGreen e
Ġcycl ic
il io
Ġcons ort
Ġhigh ways
Ġinterview ed
LO AT
hl js
K nown
Ġteam mate
st ub
ĠV it
Ġsh ar
AA F
ĠF ur
ĠO C
Ġapp rent
ing ers
ĠS uk
ener ate
Ġdifferent ly
Ġhe ll
Ġant iqu
Ġcapt uring
) }^
P icker
& -
d ad
Ġe cosystem
Ġcomp ressed
left rightarrow
Ġhuman ity
Enc oder
s it
Ġleg ally
ĠCon v
M esh
ĠĠĠĠĠĠĠĠ ĠĠĊ
R AM
Ġen orm
ĠAp ollo
li um
ĠN iel
Ġg fx
ĠMar itime
C as
Ġtra iler
ĠM eyer
g ement
m itting
Ġr hs
per formance
fl ies
ĠMah arashtra
et ches
Ġprohib ited
Ġgrand mother
oc aml
pl ays
pe st
Ġconf ined
Ġquestion ed
Ġcustom s
O rient
Ġb lo
fin ish
> }
ĠCl aude
ĠCorn ell
ĠI o
Ġexpl aining
Ġprop ri
gu ide
Ġdiagn osed
Ġport raits
Ġadv ances
Ġb apt
ĠL it
Ġman or
asc ular
ĠStart ing
ĠR M
ĠY emen
dim ension
ĠBOO L
ep p
Ġch ip
Ġtour ists
Ġiniti atives
q tek
Ġrun way
be am
ĠKenn y
St d
\, .
Ġdeter ior
ĠL ines
ĠMan or
Ġmission aries
Ġd iving
ĠT ow
18 17
Ġobserv ational
ĠChe ng
ĠAg u
Ġfraction al
E lection
Ġbehavi ors
ident ified
ĠPant hers
Ġdrop ping
ĠTH IS
id ity
amb o
ĠMon roe
Ġarg uing
cp y
is ible
ins ki
'] ))
String s
Ġdec imal
ĠVict ory
Germ any
% "><
Ġopin ions
got ten
ĠGener ated
e er
ĠB rom
ud er
Mill is
on ey
ĠBang kok
PT ION
L ONG
) )$.
And rew
ĠU TC
Com plex
Trans l
s om
Ġir r
prec ision
v ik
Ġre print
Ġl ane
Ġlik es
t ers
Ġen closed
lf loor
ĠH our
Ġport al
ĠE aster
Ġout flow
d ump
ĠEd it
S hip
Ġi OS
ta iled
ĠBur ke
coc os
L if
f u
Ġstruct ured
Ġmanufact ure
E lections
ĠÐ ´
ĠCow boys
ĠC B
C ould
od i
Ġv ig
An th
Symbol s
al ore
Ġrev ived
Ġref uses
ufact uring
Te ams
################ ################
ĠCast ro
desc riptor
F ilters
Ġsimilar ities
ĠRab bi
Ġillustr ations
uet ooth
ten ham
Ġcast ing
] ];
p pe
Ġsear ches
o ine
omet ime
numer ic
inner HTML
Ġbr ut
SER VER
OPT ION
Im mutable
sh ine
Conn ector
ĠW inner
ĠCD P
ĠUrugu ay
+ "
ĠFor bes
ĠW A
ĠTe h
N ick
lib s
Ġscreen play
}) -
Ġpres erving
Ġsk ew
da ughter
Ed ward
ch annels
equal ities
exec ution
Ġinf ected
__ _
yl on
ĠBet ty
g lob
th ouse
ĠEuro vision
T er
ĠSouth west
fr amed
Ġinterpol ation
Ġtra iling
Inter op
Ġconclud es
Ġspac ecraft
IM E
ĠF est
Ġsat ellites
Ġconsider ations
Ġpropag anda
ma ha
Ġelabor ate
u en
Ġcoinc ide
16 3
wild fly
ĠÅ ģ
ch itz
ah i
ĠSax ony
Ġw ishes
am ous
Ġun ified
ĠSh im
Ġspe aks
ĠSte phan
Ġhe ct
}( -
ron ym
au f
Ġimplement ations
Ġmod uli
ever y
Ġflow ering
Ġprint f
F a
Ġnumer ic
Ġrel ativistic
cont rolled
m ime
Ġflow n
v card
Ġc ord
ĠT error
un til
Ġboard ing
Ġp ic
ad ia
Ġgame play
Ġmer ging
Rel ation
ed uc
sup p
Ġ' )
2 17
K B
ĠW im
Ġwel come
ta x
Ġorche str
m ot
Ġsoph istic
ĠB uilt
ĠL ICENSE
ĠNet flix
ST REAM
rf loor
Ġrival ry
ĠGuatem ala
E t
Ġbox er
ĠS UMM
ĠB io
the se
f ollow
ant is
17 75
R oy
ĠEmer gency
ĠInitial izes
W T
æķ °
N Y
18 19
. #
h it
Ġcre am
Ġunve iled
Ġgener ality
Ġreg isters
Ġbroad caster
Ġmilit ia
er en
Ġmon ks
PO INT
Ġg it
Ġad apter
unn ers
(" <
but tons
ĠS ugar
log ic
) <
Ġsuper conduct
uv ian
Ġmed all
Ġret ry
habilit ation
Ġap olog
con figure
M ic
ĠRed s
tra ined
Ġcust ody
fri ed
w allet
igg ins
P B
inds ay
u ent
er cis
Ġdevelop s
ES CO
Be etles
R eb
Ġb ones
Ex cel
board s
ĠR he
Ġnick named
R eq
V en
b il
ĠCl ara
ĠHeavy weight
Ġg a
Ġstr at
ĠWinn ipeg
the m
Ġmethod ology
ĠTheod ore
ĠMar ines
Ġsymmet ries
ath am
Ġintegr ity
y ellow
ĠE y
Ġincorpor ating
Ġde alt
B ridge
Gate way
ĠDay ton
b ars
ĠH ack
ĠJ ets
Ġspec imen
fra ction
Ġad mit
ĠBel le
Ê ¼
ĠB erm
pt iles
\!\! \!\!
Ġinvar iance
ĠNew man
s ocial
Ġen velope
rin os
Ġfin ishes
ĠW on
Ġ* _
Ġinvestig ating
Ġtra its
ĠAppe als
Ġobserv ables
Ġprem ises
ĠPot ter
as an
Ġprov ing
ĠDirect ors
Rel ations
Ġlif estyle
Ø ª
Ġl arvae
Ġinfer red
ĠC and
ĠD ylan
ĠÂ «
Ġcoordin ator
r ific
ĠB oh
Ġacadem ics
ĠWe i
Ġcounter parts
J oe
al bum
Ġhot els
g c
b az
Ġnormal ize
ĠM ouse
Ġ& #
erv ille
ĠC ounter
ĠSpring field
ĠAnn ie
âĢĻ ,
ĠEr nst
Ġtor us
cknow ledge
Ġlift ed
Ġb ol
]( #
lin ux
Ġens uring
ĠDor othy
tri ang
g ements
ĠF loyd
Ġprotect ing
P ane
ĠRel igion
Ġw arned
US B
dir name
ĠVar ious
Ġsur geon
cons ist
ĠIn ner
Cl ip
Pr ice
Ġac claim
ĠPl ain
ĠRoman ized
ig on
Ġult imate
ut i
Ġge ographical
ogen ic
Separ ator
Ġpat ches
ĠCar p
ĠLeic ester
lo o
2 12
ĠAut om
a um
Ġall Classes
scal ar
rosso ver
PA SS
ĠAn im
Ġsp ite
Rev ision
ĠH erman
Ġtrib al
u ition
ĠV AR
Ġ' {
Ġpol o
ĠMalays ian
Ñ Ī
ant o
ĠCol ony
ĠConstit utional
ĠS it
el ic
Ġprom otional
Fix ture
ĠJ ourney
Get ter
ĠReg ular
if rame
Ġ[ -
18 06
UN K
Ġbrows ers
Ġair ing
att i
Ġaband on
X T
æ ł
ad just
ĠMonteneg ro
ĠInt roduction
unn els
c ro
). }
Ġconsum ed
F ish
Ġpil gr
Ġg arn
Ġ" ")
and in
MLE lement
back end
ugg ed
ft s
jo ined
clip se
Ġnot ify
ĠDi agnostic
l ord
le ave
ivid ually
S us
Ġr ays
Ġinstruct or
clesiast ical
let cher
ĠGriff in
N ested
t ier
ĠChar acter
io x
Ġcancell ationToken
atern ion
ĠM IN
ell es
Ġarch ives
è ®
ys on
Write Line
or get
Ġre cept
E u
Ġab ortion
Dis patcher
Tour ist
L atin
g b
Ġ" --
}\ !
sub scription
Ġsail ors
reg ex
ĠGre ens
as ium
ĠG lor
or ic
ĠS olid
Ġfact ories
Ġb ins
ĠMos es
Ġren ovation
Ġmanif olds
ĠLouis ville
Ġproof s
im ar
ĠR ao
ĠHero es
nt on
T ables
OUT PUT
d id
c yl
Ġin ert
ĠF alk
ĠJohn ston
Ġrev olt
ĠG reatest
aut orest
Mex ican
le man
Ġconstit ute
lect ric
orce ster
Ġferm ions
Ġc ass
ann ers
40 1
Ġslow er
ĠSte am
U UID
Ġhand ball
separ ator
ĠSUMM ARY
> %
Ġfort ress
ver gence
I BU
ĠQuart et
Ġp tr
ĠS ET
23 5
Ġant is
merc ially
ĠÐ º
A H
ĠĠĠĠĠĠĠ Ċ
ĠPsych ology
Ġro d
Ġvanish ing
P t
av in
Ġpro ud
Con flict
ĠSc ots
ĠCub s
cam era
ĠY uan
// ----------------------------------------------------------------
ott age
Ġ Ã©
\ -
G reg
r ition
ib ia
Elements By
ĠallClasses Link
Ġsit com
w ings
Ġ} $
project s
tab les
Ġinfra red
ev t
AR K
Ġfail ures
duct ive
ĠDirect ory
Cl osed
ret ch
zb ek
}} +
ercis es
Ġbatter ies
ĠTerm inal
it ian
Ġund ers
ĠChurch ill
Ġdist ribute
Res ize
Ġdiscuss ing
ĠPort smouth
Ġsimple st
Ġatt achment
Ġtrans mitter
iber n
Spec ific
Ġd ans
Ġn urse
ĠP ush
Ġper pendicular
ĠEd win
GLE W
ĠO UT
Ã©t ico
pro f
Ġsen ator
hor se
ray s
c art
16 1
Default s
A mazon
Ġhabit ats
E mit
Ġt ough
Ġsp ark
rais ebox
m eter
Ġsem ifinals
{ }{
ĠPro of
Ġ-- ></
Ġcontract ed
Ġdiam ond
Ġinaug urated
Ġsub urbs
A sh
Î º
Mount ains
Ġfound ations
Ġevery where
ĠH appy
Ġelectron ics
ĠD ry
ĠKarn ataka
Ġp unct
Ġd ots
east ern
ĉĉĉĉĉĉĉĉ ĉĉĉ
Ġveter ans
Ġlik ed
ĠThom son
CON ST
Ġpod s
pher d
Ġrespons ibilities
Ġwalk ed
ĠStruct ure
ĠBl u
G uid
Ð½ Ð¸
ĠAp plied
Ġasympt ot
Ġnorth western
Ġann ih
Ġsy ll
ĠH ond
ĠLe af
Ġt iles
Ġindex es
asm ine
ex per
18 09
B ang
ĠHon our
equ ivalent
ĠCl aire
Read Only
------------ -
ri ot
pro j
sec ure
Ġten or
Ġdis ks
Ġper f
) ~
Ġce iling
Ġtob acco
V R
Ġserv ants
RE NT
Data Source
ĠC off
ĠG rav
Ġstrong est
Ġab elian
Ġcommand ing
car bon
T ARGET
ĠH err
di ocese
bra him
U TE
CL K
24 5
k ill
ari at
ĠÂ »
Ã ²
f erm
ig raph
ĠP omer
Ġmos que
ĠSe lection
Ġnational ist
b x
ĠAl leg
ĠW olver
Ġtw ist
Ġrenov ated
ĠP D
ĠX XX
ĠProv idence
ĠL ynch
Ġsuggest ion
Cath olic
Ġquant itative
Ġaccept ing
ãĥ ¼
ĠCrit ics
R outer
` :
ott ing
parent s
H ide
E ll
atic an
Ġrad ii
ĠP all
ĠB org
ĠH ank
Ġreleg ation
ĠF o
udd y
ĠB in
Ġpol es
SY S
Ġcorrect ed
S ibling
Ġ --------------------------------
ĠA er
Ġ' ');
ct ree
Ġcomm ittees
Ġbuild s
ĠE du
ĠSh ak
Ġkilomet res
Pro c
ĠLad ies
Ġrep airs
ĠY osh
Ġrail ways
Ġ )$
Ġun used
Or d
4 80
O ps
Ġadv ocated
em por
ĠGl ac
ĠE ducational
ĠSch midt
ĠDis play
Ġl aps
ĠD rew
Ġfilter ing
ĠM am
ĠW E
Ġacc idents
Ġinv itation
AR CH
ren ew
Ġtw entieth
us ually
ĠO THER
ĠSo ft
ĠK err
Ġviol ations
() ]
ĠBra ves
Ġphilanth rop
f av
30 1
% ).
er un
Sim ilar
Not ice
Ne ill
Ġto y
ĠS PI
Co ord
depend encies
correspond ing
Ex pl
Ġcirc uits
Con struct
Ġwitness es
Ġr s
Ġdestroy ing
Ġcon quest
Ġ} ));
In spector
Ġm aternal
Ġseem ingly
Ġreg ulatory
Ġpres erves
Ġqu arks
ĠCarn egie
Ġhol omorphic
RO W
}\ }$
8 50
ĠG ET
Ġcharacter ization
School s
nob r
IBU TE
18 03
Ġvar s
Ġcur ved
Ġ" );
ĠBro ck
ĠST ART
CP U
18 08
ĠTh ing
In cre
IN CL
ĠTreas ury
Ġsn ake
E ver
Y es
Ġinter rupted
Ġconvent ions
ici ary
ĠK ane
ĠAdv ance
ĠW itt
Ġte lev
Cl one
ĠS ara
ĠW ander
MESS AGE
; |
B all
^- $
ĠI TV
tensor flow
Ġp ressed
ĠD iet
Art ists
ĠBald win
ĠH ess
ĠBre nd
is ive
aw k
Ġsw ap
STAT IC
member Of
ĠC IA
ĠU int
ĠT EST
Ġins ufficient
ĠDra ke
IS O
Ã¨ res
ast on
Ġyour self
Ġqu arters
ĠKe ep
ĠJen kins
ĠCl aud
Ġh iding
isc ount
ĠPoint s
at u
Ġend points
requ ires
Ġret ire
= {\
A k
n ational
Week ly
Direct ive
Ġsal ary
ĠSh an
ĠBut ter
ĠC risis
ips chitz
Ġconv olution
æ Ŀ
Ġp orn
ĠLead ership
Ġ' @
pect ives
ĠTour ism
V ERR
ĠSuff olk
ĠS tern
con j
Ġselect ing
ic her
Ġm ud
ĠT ouch
Ġb ills
Ġig et
ĠW R
PI O
F il
Ġexpl oring
Ġinc red
ib us
Ġspread ing
\ `
com puter
ĠG W
Ġenc ounters
ube let
ag ic
Ġcomb ines
ent on
Ġwh it
ĠC ave
os ion
Ġfl ora
ĠNAS CAR
ĠN umer
Ġsup pression
Th ough
Ġl iver
E LEMENT
AUT H
] </
ĠE R
18 2
Ġdef initely
Ġdescend ant
RE ST
Ġtel escope
Ġde ceased
17 2
d AtA
n r
:: $
Pr ime
olog ne
Ġ/// <
Histor ical
re x
Ġa fore
Ġer g
" ?>
l tr
Ġcommission er
Ġcook ing
Ġrecre ational
c ourt
ĠĠĠĠ čĊ
ĠWeb b
op us
ĠHaw ks
3 75
Candid ates
Ġmamm als
ĠF E
U t
Ġd ash
Ġrel ate
pe er
Ġanth ology
ĠIs abel
n om
ĠM ast
ĠJoh an
Ġp el
16 2
Ġpar ity
o in
ÑĢ Ðµ
ĠMad h
ĠChap man
ĠUn known
ĠPap ua
Ġmot ivation
Prim itive
n or
ĠO le
Ġch rome
>( <
ĠP ere
Ġfilm maker
ĠJ Token
com ments
he v
xffff ffff
Ġf ights
ST D
Ġred und
j ee
Ġoscill ations
Ġs ig
Ġob ey
Con figure
Ġlo ans
BOO ST
Ġend angered
ĠC redit
Ġcon ceived
> ';
up p
INST ANCE
Ġgeodes ic
S ix
ex ist
Ġappro aching
ks and
ĠAr ist
Ġ[ ...]
Ġinteg rate
Ġto g
Ġdemand ing
Ġco res
system s
ĠSof ia
Ġs ou
ĠL al
Hor izontal
ĠSal em
H W
ev an
Ġtem plates
B in
Ġsm oke
post s
Architect ure
Ġs ab
Ġar ithmetic
ih ar
ĠF K
Ġvacc ine
ĠRequ ired
ĠUl ster
ĠR oh
sat isf
Ġac claimed
ul ine
G h
ĠBe au
us age
ĠTrans form
ĠKos ovo
D oug
Ġcell padding
aged y
non atomic
Ġrot ational
est im
w x
st orm
Ġspons or
Ġreg iments
L iga
S IGN
Ġexp ense
ĠM ilit
: **
Ġint act
ĠB attery
ur istic
Ġl icenses
Cap acity
ansk rit
ĠA u
Ġconver ge
E s
r ors
ĠG ymn
Ġ" ;
) ||
art ime
123 45
Ġphysic ist
ext ract
sw ap
oph ys
ĠBrand on
P in
int ers
ĠR ip
sl ot
dem o
Ġtra ils
n ets
ĠB agh
Ġred sh
Ù ĩ
Ġin ches
Ġp s
est ock
Ġor phan
Ġreb el
Ġrecurs ive
C op
em ption
Dest ination
M IT
Ġcont ributes
Ġcons erved
ĠAz ure
ĠH its
ĠDub ai
Ġs ake
Ġm isc
T am
ĠUlt imate
ĠS ent
Ġl over
G F
a head
ĠPr ussia
ĠSen ators
Ġmark ers
MP TY
VER TEX
> .</
b et
ĠAtl as
Ġfold ed
ĠLeban ese
Ġm ood
ĠJ et
ĠJ ag
Ġsc reens
Ġfac ade
Ġad equate
Ġbu ying
ĠMid lands
ĠL ik
ĠG ospel
Ġprinc ip
ĠBalt ic
St eve
ced es
Ġf are
amazon aws
ĠGarc ÃŃa
Ġthin ks
Vert ical
Pier re
H it
Ġc f
ĠString Builder
Ġexp ired
ĠTechn ologies
Ġtum or
Ġh aven
ĠL Ã©
Ġhe ap
Ġlast ing
T OO
Ġh align
Ġacc us
or ange
<? >
Pay load
ĠP ok
ĠL ing
}] \
Ġvac ant
18 05
Beh avior
olith ic
ram er
L ER
le ases
ĠZ agre
à¥ į
Ġjud gment
em ia
Ġsh rub
Ġsub mission
opt imal
IN PUT
Alex ander
ograph s
ism atch
Ġdet ectors
p n
ĠM ell
Ð½ Ð°
Ġcon form
}_{ (
ĠDr iver
ĠInn ovation
Ġobserv ers
Ġl ighter
Ġdel ays
ĠPrim era
Ġm i
ĠSub sequently
ikh ail
ay ette
Ġref id
Ġmeaning ful
H aving
ĠT ru
Table Row
Ġ ðŁ
Ġsur veillance
Enc oded
Ġo ak
Ġpubl ishers
ĠX V
ĠStat istical
Ġin equalities
set Text
_{ (\
Ġdefin ite
z burg
Ġs aint
ĠN amed
}$ ).
Add ed
ĠDis able
Ġexp ans
Ġdiscre p
ĠI M
Ġmar ble
Ġn avy
17 9
Ġtrans fers
input s
erm o
Ġt ear
ĠS ales
- {\
Ġre he
Ġdual ity
Ġmet re
r x
^ +\
Ġre write
Ġenc ryption
17 7
Ġcomb in
Ġcrown ed
ĠA F
Ġpast or
Ġillust ration
Ġob s
Ġkey word
ET A
Ġsubmar ines
haus en
Ġ\\ [
pars ed
d ong
Ġl ith
min or
ĠBeat les
18 07
/ ,
ĠV all
aus ed
Ġbranch ing
Ġle ather
Ġwe aker
aut ore
C s
iz ational
char At
ĠCh arg
ĠBrun o
(' ../
eck er
scal a
Ġequ ity
ĠSpec ies
ĠG ian
ph ones
Ġimp ose
IT S
Ġtact ics
qu o
Ġup ris
D ar
is Function
Ġ/ ><
di agram
iffer ential
ul p
Ġafore mentioned
ĠAssoci ated
ĠV ish
ĠRaj a
Ġknock ed
est e
ĠVal ues
F etch
Ġingred ients
18 11
~~ ~
Ġdip ole
sw ing
Ġreal ization
Ġst air
Ar row
he alth
const it
pe x
arri e
Organ izations
C amb
ĠB ast
ĠMc Car
BUIL D
it he
act ivated
ĠW riter
ob server
Ġdirect ing
Ġorgan ize
Ġautom ated
Ġd upl
In ject
ĠRom ans
Ġpro jections
quest ion
C roat
ch y
anc o
ass ic
v endor
ĠW id
Ġr am
lev ance
ĠĠĠĠĠĠĠĠĠĠĠĠĠĠĠĠĠĠĠĠĠĠĠĠĠĠĠĠĠĠĠĠ ĠĠĠĠĠĠĠĠĠĠ
Ġsp ans
m and
sh aw
ĠRock y
Ġt ong
Ġaddition ally
17 98
Ġm aj
C le
ĠG ates
iss ible
IM AGE
] _{
Ġconv oy
Ã¨ ne
ĠP itt
ust ration
unc her
AD C
ĠAdd s
ĠNe uro
ĠSpeed way
IT LE
ne ed
ĠJuda ism
ĠKy iv
vers ions
ĠA TP
Ch apter
ĠHel p
Aust rian
ĠAberde en
ab ella
ĠCont roller
ĠH aus
Ġopen ly
phys ics
D ynam
Ġder ives
Ġtw isted
Ġh anging
( --
Ar c
Ġachiev es
ĠCole man
ĠMe eting
Ġutil ize
Writ ing
n v
ĠD ock
Ġmiss iles
ĠG LE
ag ogue
ĠTe en
db c
}, {
Ġreflect ing
Ġly ric
b rown
eros pace
Reg Exp
Ġbom bs
b red
Ġfin anc
ĠP iet
ri que
Ġpen insula
Ġtrain er
Ġconscious ness
G Hz
m ak
ĠD olph
ĠF loat
Ġt a
ab is
Ġflag ship
Ġsal v
Ġb eds
H OME
Ġ é
ĠNorth ampton
ĠLank an
Ġr ider
Eng land
Ġtrump et
J eff
ĠL com
Ġtr ucks
Ġen force
J P
ĠÎ ±
Ġcom plications
ĠV M
A dapt
H int
Princ ipal
Ġtog gle
synt hesize
He art
ĠInd o
Ġpair ing
Ġanten na
ĠN H
f ollowing
m icro
ĠN L
){ $
em p
ĠÐ ¾
Ġancest ry
itt ers
ĠWill ie
Over lay
b irds
const ants
ĠBl og
Art icle
' ):
å º
uit ar
el ist
work ing
View s
Ġn od
ov sk
Ġcommut ative
T a
Ġplant ed
ĠBulld ogs
D anish
man ifest
17 8
por a
Ġh urt
qu ark
Ġdis hes
ÃŃ s
ĠBel t
J s
Ġo c
Ġl anes
p ipeline
ĠC over
DIS ABLE
ĠM s
b ins
fig s
H ong
ĠTe legraph
17 94
ĠW ave
ĠL af
on st
J ones
Ġa rose
ĠP T
w i
ĠD erek
tr on
ser ialize
D ark
m ith
r ases
Ġt idal
ĠB ren
quant um
}$ ;
Ser bian
it as
Ġpl ugins
get Key
Ġback end
y c
sc hem
Ġapp ar
head s
ru z
TR ACT
Ġil leg
^{ [
ĠSt ack
lo ating
Ġadvers arial
os cal
Ar n
Ġlim estone
ĠJess ica
p olar
Ġult ra
p ark
ĠB le
Ġcar b
K EN
S ym
Ġreve aling
ur ring
Reg ex
Tex as
ĠM ets
ul ed
ĠI MP
ĠD ialog
ĠW ong
un ist
Debug ger
ip el
et us
Ġceremon ies
ĠLeg acy
ĠFel ix
z ens
ĠH ours
Ġrook ie
Ġd os
Pl us
em er
Ġmet av
ĠIn stance
Ġun ited
Ġt uning
the ad
L ear
al go
ĠB ec
ĠK ok
K ore
Ġtub es
US BC
Ġmach inery
Ġancest ors
Ham ilton
Ġa mp
View Controller
ĠAntar ctica
Ġl ag
Ġmist ake
Vir gin
Ġw x
ĠZ ion
Ġy es
lem en
Äģ n
å ¼
ĠM are
= |
20 7
ate ful
Ġc ens
row span
ill i
$ }\
ĠB rain
ĠF oo
let ing
Ġhon est
ĠO v
Ph oto
ĠM use
ĠLa ur
Ġtro phy
UM ENT
Ġout lets
18 04
Ref resh
__ ["
Ġc oding
Ġrein force
m achine
ĠT E
Ġan not
art on
}} }}
Ġmod elling
ud ed
ty mology
17 1
Ġp aired
ĠB es
ob ic
Ġup stream
Ġmob ility
Ġdr unk
So ft
ir ling
R x
ĠCor p
Ġelder ly
Ġd ent
Ġa cknowledge
Ġgrad ients
Ġcalc ulating
Ġneg lected
W IT
in ite
ĠInd oor
Ġcert ification
ĠKrish na
ĠA ce
Ġco q
ĠAnn iversary
Ġreplic a
D ead
Ġdis pat
w y
ĠB rowser
Ġsubdiv ision
Ġdis puted
26 4
Ġbreak down
oz o
Ġfaith ful
end e
ĠHy per
B oston
Ġcycl ists
or bit
c ord
r ack
Ġexpert ise
Inst ances
Ġcontest ant
ĠT err
ĠL ay
Ġbound ing
Ġadv ancing
ĠStrateg ic
ĠRub y
Ġaccommod ation
in en
ĠF i
man aged
ĠGeorg es
Ġhar sh
T ok
ĠRec all
ĠD ifferent
Ġpolit ically
implement ation
Ġbar on
Y S
tex cmd
year s
g em
ank ar
Ġsomew here
v ian
Ã¡ lez
18 4
Ġsent iment
ĠSand ers
Ġc ere
Ġres ume
Ġbackground s
ĠL ap
ĠSher man
Ġconjug ate
Ġdis putes
Ġprev ents
P enn
), (
Ġab ort
Ġour selves
ĠOri ental
Ġlux ury
17 93
ĠC lem
ĠRol and
L ost
l brace
ĠH M
3 80
Ġg astrop
Ġfe ather
Ġfis cal
Ġcook ies
Ġalt ar
und ef
}| ^
G ar
ĠTrib une
ad j
Ġcru ise
ĠB ash
ĠN om
Ġsub urban
Mar ie
Ġp ec
ĠInit iative
[...]
