{"[UNK]":0,"!":1,"\"":2,"#":3,"$":4,"%":5,"&":6,"'":7,"(":8,")":9,"*":10,"+":11,",":12,"-":13,".":14,"/":15,"0":16,"1":17,"2":18,"3":19,"4":20,"5":21,"6":22,"7":23,"8":24,"9":25,":":26,";":27,"<":28,"=":29,">":30,"?":31,"@":32,"A":33,"B":34,"C":35,"D":36,"E":37,"F":38,"G":39,"H":40,"I":41,"J":42,"K":43,"L":44,"M":45,"N":46,"O":47,"P":48,"Q":49,"R":50,"S":51,"T":52,"U":53,"V":54,"W":55,"X":56,"Y":57,"Z":58,"[":59,"\\":60,"]":61,"^":62,"_":63,"`":64,"a":65,"b":66,"c":67,"d":68,"e":69,"f":70,"g":71,"h":72,"i":73,"j":74,"k":75,"l":76,"m":77,"n":78,"o":79,"p":80,"q":81,"r":82,"s":83,"t":84,"u":85,"v":86,"w":87,"x":88,"y":89,"z":90,"{":91,"|":92,"}":93,"~":94,"¡":95,"¢":96,"£":97,"¤":98,"¥":99,"¦":100,"§":101,"¨":102,"©":103,"ª":104,"«":105,"¬":106,"®":107,"¯":108,"°":109,"±":110,"²":111,"³":112,"´":113,"µ":114,"¶":115,"·":116,"¸":117,"¹":118,"º":119,"»":120,"¼":121,"½":122,"¾":123,"¿":124,"Â":125,"Ã":126,"Ä":127,"Å":128,"Æ":129,"Ç":130,"È":131,"É":132,"Ê":133,"Ë":134,"Ì":135,"Í":136,"Î":137,"Ï":138,"Ð":139,"Ñ":140,"Ò":141,"Ó":142,"Ô":143,"Õ":144,"Ö":145,"×":146,"Ø":147,"Ù":148,"Ú":149,"Û":150,"Ü":151,"Ý":152,"Þ":153,"ß":154,"à":155,"á":156,"â":157,"ã":158,"ä":159,"å":160,"æ":161,"ç":162,"è":163,"é":164,"ê":165,"ë":166,"ì":167,"í":168,"î":169,"ï":170,"ð":171,"ò":172,"ó":173,"ô":174,"Ā":175,"ā":176,"Ă":177,"ă":178,"Ą":179,"ą":180,"Ć":181,"ć":182,"Ĉ":183,"ĉ":184,"Ċ":185,"ċ":186,"Č":187,"č":188,"ď":189,"Đ":190,"đ":191,"ē":192,"Ĕ":193,"ĕ":194,"Ė":195,"Ę":196,"ę":197,"Ě":198,"ě":199,"ĝ":200,"Ğ":201,"ğ":202,"Ġ":203,"ġ":204,"Ģ":205,"ģ":206,"Ĥ":207,"ĥ":208,"Ħ":209,"ħ":210,"Ĩ":211,"ĩ":212,"Ī":213,"ī":214,"Ĭ":215,"ĭ":216,"Į":217,"į":218,"İ":219,"ı":220,"Ĳ":221,"ĳ":222,"Ĵ":223,"ĵ":224,"Ķ":225,"ķ":226,"ĸ":227,"Ĺ":228,"ĺ":229,"Ļ":230,"ļ":231,"Ľ":232,"ľ":233,"Ŀ":234,"ŀ":235,"Ł":236,"ł":237,"Ń":238,"ĠĠ":239,"Ġt":240,"in":241,"he":242,"Ġa":243,"er":244,"ĠĠĠĠ":245,"on":246,"re":247,"at":248,"Ġthe":249,"en":250,"or":251,"st":252,"an":253,"al":254,"ar":255,"it":256,"ed":257,"Ġo":258,"Ġc":259,"Ġs":260,"es":261,"Ġw":262,"is":263,"ion":264,"Ġf":265,"Ġin":266,"Ġof":267,"nd":268,"ic":269,"Ġp":270,"le":271,"ing":272,"Ġb":273,"ro":274,"as":275,"Ġand":276,"ĠĠĠ":277,"Ġd":278,"ĠĠĠĠĠĠĠĠ":279,"Ġm":280,"ct":281,"ent":282,"ou":283,"et":284,"Ġto":285,"am":286,"el":287,"il":288,"ĠS":289,"Ġre":290,"om":291,"Ġ(":292,"ĠC":293,"Ġh":294,"ol":295,"ĠT":296,"ĠA":297,"Ġn":298,"ig":299,"ac":300,"ur":301,"ation":302,"id":303,"Ġl":304,"Ġth":305,"im":306,"Ġe":307,"ad":308,"ot":309,"iv":310,"ĠM":311,"ut":312,"Ġ\\":313,"se":314,"Ġ$":315,"Ġis":316,"ul":317,"ĠB":318,"Ġfor":319,"un":320,"ce":321,"ĠP":322,"ch":323,"ay":324,"ĠI":325,"ers":326,"em":327,"Ġg":328,"Ġ=":329,"ow":330,"ĠĠĠĠĠĠĠ":331,"19":332,"ag":333,"od":334,"us":335,"ir":336,"ist":337,"20":338,"if":339,"um":340,"Ġon":341,"ly":342,"Ġst":343,"th":344,"ĠH":345,"Ġv":346,"ĠR":347,"ab":348,"ith":349,"ĉĉ":350,"Ġbe":351,"Ġas":352,"ter":353,"ĠD":354,"pe":355,"Ġwas":356,"ĠF":357,"ĠL":358,"Ġ{":359,"ate":360,"qu":361,"ra":362,"and":363,"Ġcon":364,");":365,"ĠThe":366,"ĠG":367,"ĠN":368,"oc":369,"Ġwith":370,"ver":371,"ri":372,"ction":373,"her":374,"op":375,"Ġal":376,"ĠW":377,"Ġby":378,"ĠE":379,"rom":380,"res":381,"Ġthat":382,"end":383,"est":384,"Ġ\"":385,"âĢ":386,"ex":387,"Ġan":388,"pt":389,"ef":390,"Ġ*":391,"os":392,"ht":393,"ub":394,"ew":395,"--":396,"up":397,"av":398,"Ġat":399,"Ġpro":400,"ĠĊ":401,"ort":402,"ame":403,"ĠJ":404,"Ġ<":405,"ain":406,"ity":407,"{\\":408,"all":409,"art":410,"//":411,"ĠĠĠĠĠĠĠĠĠĠĠ":412,"Ġwh":413,"čĊ":414,"ue":415,"ap":416,"ass":417,"Ġcom":418,"ess":419,"ĠO":420,"nt":421,"=\"":422,"Ġfrom":423,"ath":424,"ies":425,"eg":426,"ore":427,"'s":428,"ber":429,"ine":430,"Ġex":431,"Ġit":432,"Ġ}":433,"ec":434,"ran":435,"ment":436,"our":437,"ill":438,"Ġhe":439,"Ġor":440,"ect":441,"pl":442,"ud":443,"ian":444,"ight":445,"ak":446,"ial":447,"ĠU":448,"ure":449,"ge":450,"og":451,"age":452,"ĠK":453,"ive":454,"ack":455,"Ġare":456,"Ġr":457,"ph":458,"_{":459,"ary":460,"iz":461,"urn":462,"ard":463,"ia":464,"</":465,"ld":466,"âĢĵ":467,"ated":468,"ip":469,"Ġcl":470,"Ġ&":471,"ult":472,"ov":473,"ep":474,"ast":475,"ant":476,"cl":477,"ich":478,"ĠSt":479,"The":480,"),":481,"Ġthis":482,"00":483,"201":484,"Ġch":485,"und":486,"per":487,"Ġpl":488,"port":489,"ell":490,"ext":491,"ĠĠĠĠĠ":492,"Ġ$\\":493,"ĠĠĠĠĠĠĠĠĠĠĠĠĠĠĠĠ":494,"ĠIn":495,"int":496,"ign":497,"Ġse":498,"**":499,"ong":500,"ust":501,"ire":502,"ug":503,"ord":504,"orm":505,"ff":506,"are":507,"turn":508,"Ġ|":509,"ions":510,"ĠV":511,"ite":512,"ical":513,"200":514,"In":515,"Ġsh":516,"math":517,"able":518,"Ġk":519,"Ġhis":520,"ost":521,"Ġle":522,").":523,"ref":524,"ev":525,"Ġy":526,"enc":527,"Ġcomp":528,"Ġ-":529,"ace":530,"ype":531,"so":532,"ont":533,"Ġwe":534,"Ġ'":535,"Ġif":536,"ish":537,"==":538,"uc":539,"Ġnot":540,"ĠCh":541,"ring":542,"18":543,"ork":544,"Ġres":545,"ey":546,"ase":547,"ry":548,"Ġwhich":549,"ft":550,"ime":551,"ok":552,"ind":553,"ere":554,"St":555,"ile":556,"ition":557,"ens":558,"out":559,"\">":560,"ode":561,"erv":562,"mer":563,"ear":564,"Ġcont":565,"ide":566,"Ġar":567,"ave":568,"()":569,"ice":570,"pro":571,"ations":572,"Ġint":573,"unction":574,"}\\":575,"----":576,"ang":577,"ild":578,"Ġun":579,"ib":580,"Ġ||":581,"}$":582,"act":583,"ubl":584,"^{":585,"ount":586,"get":587,"ric":588,"ond":589,"ru":590,"ma":591,"ther":592,"ory":593,"ata":594,"ence":595,"Ġwhe":596,"Ġwere":597,"Ġalso":598,"ject":599,"Ġus":600,"Ġreturn":601,"irst":602,"ous":603,"ach":604,"com":605,"low":606,"rit":607,"Ġap":608,"Ġhas":609,"Ġj":610,"ĠĠĠĠĠĠĠĠĠĠĠĠĠĠĠ":611,"Ġad":612,"sp":613,"own":614,"ob":615,"Ġclass":616,"..":617,"ert":618,"tern":619,"form":620,"Ġde":621,"Ġ//":622,"li":623,"ĠUn":624,"hed":625,"alue":626,"rans":627,"ĠTh":628,"row":629,"ound":630,"ress":631,"ents":632,"Ġnew":633,"ree":634,"ance":635,"ener":636,"}}":637,"Ġcan":638,"amp":639,"ks":640,"cc":641,"ta":642,"ĠHe":643,"erm":644,"over":645,"use":646,"Ġ+":647,"199":648,"ates":649,"Ġhave":650,"rib":651,"ould":652,"Ġim":653,"Ġplay":654,"cal":655,"clud":656,"ublic":657,"\",":658,"wo":659,"ll":660,"(\\":661,"Ġab":662,"old":663,"ors":664,"Ġpart":665,"Ex":666,"Ġ@":667,"fer":668,"aram":669,"Ġfirst":670,"ool":671,"ng":672,"ĠY":673,"inal":674,"te":675,"Ġro":676,"Ġfunction":677,"ock":678,"ĠâĢĵ":679,"egin":680,"10":681,"ual":682,"iel":683,"ĠIt":684,"ĉĉĉĉ":685,"equ":686,"fter":687,"ational":688,"Ġone":689,"ail":690,"begin":691,"ences":692,"we":693,"->":694,"ption":695,"ss":696,"Ġhad":697,"Ġtr":698,"ater":699,"ark":700,"Ġdis":701,"one":702,"lect":703,"ome":704,"orn":705,"Ġvar":706,"ember":707,"ull":708,"Ġbut":709,"sh":710,"Ġits":711,"ose":712,"con":713,"ield":714,"fr":715,"right":716,"_{\\":717,"Ġsc":718,"Ġdef":719,"Ġte":720,"ray":721,"Ġtheir":722,")$":723,"},":724,"Ġall":725,"land":726,"io":727,"ize":728,"the":729,"ĠAr":730,"pec":731,"::":732,"Ref":733,"Ġsp":734,"ik":735,"eng":736,"lement":737,"set":738,"Ġ/":739,"ely":740,"Ġ[":741,"abel":742,"ix":743,"les":744,"fig":745,"Ġev":746,"elf":747,"ics":748,"Ġob":749,"Ġout":750,"Ġtwo":751,"oint":752,"red":753,"ied":754,"iss":755,"aw":756,"Ġset":757,"any":758,"meric":759,"Ġdes":760,"uch":761,"ie":762,"Ġper":763,"oot":764,"yst":765,"ne":766,"}{":767,"Ġwho":768,"ited":769,"text":770,"put":771,"roup":772,"sc":773,"Ġother":774,"198":775,"Ġup":776,"Ġag":777,"Refer":778,"eth":779,"Ġ*/":780,"Ġcol":781,"ople":782,"err":783,"Ġqu":784,"ps":785,"igh":786,"Ġmod":787,"cent":788,"Ġover":789,"pect":790,"ons":791,"ings":792,"Ġind":793,"Ġher":794,"Ġname":795,"Ġ.":796,"lo":797,"',":798,"ased":799,"();":800,"ilm":801,"ery":802,"Ġ:":803,"umber":804,"References":805,"ames":806,"ource":807,"Ġwork":808,"frac":809,"ict":810,"12":811,"ystem":812,"(\"":813,"Ġinclud":814,"pr":815,"ern":816,"Ġpr":817,"Ġbeen":818,"Ġass":819,"Ġyear":820,"ade":821,"Ġconst":822,"16":823,"ivers":824,"cess":825,"mb":826,"Ġcomm":827,"ward":828,"Ġ</":829,"iew":830,"Ġund":831,"ake":832,"merican":833,"ook":834,"eq":835,"Ġtime":836,"ann":837,"eople":838,"ax":839,"round":840,"tt":841,"ular":842,"17":843,"ick":844,"che":845,"rm":846,"this":847,"du":848,"Ġpublic":849,"Ġme":850,"ram":851,"eb":852,"raph":853,"uring":854,"Ġinter":855,"ĠCom":856,"ĠNew":857,"ative":858,"oy":859,"197":860,"--------":861,"ty":862,"arg":863,"ollow":864,"let":865,"label":866,"Ġform":867,"ribut":868,"to":869,"tr":870,"ball":871,"line":872,"als":873,"15":874,"Ġpre":875,"ans":876,"Ġsub":877,"ugh":878,"****":879,"left":880,"Ġreg":881,"ren":882,"ator":883,"Ġafter":884,"Ġloc":885,"Ġrec":886,"Ġinto":887,"pos":888,"ific":889,"Ġoff":890,"Pro":891,"ĉĉĉ":892,"col":893,"Ġ_":894,"ĠAl":895,"amb":896,"mathb":897,"oug":898,"Ġdo":899,"ĠMar":900,"Ġwhen":901,"ton":902,"ruct":903,"))":904,"ral":905,"ined":906,"====":907,"eta":908,"ee":909,"Ġthey":910,"Ġsup":911,"Ġatt":912,"of":913,"cite":914,"Ġbet":915,"resent":916,"chool":917,"Ġmore":918,"Ġonly":919,"Ġact":920,"anc":921,"('":922,"ternal":923,"Ġlin":924,"ists":925,"oid":926,"Ġresult":927,"ince":928,"ished":929,"ĠĠĠĠĠĠĠĠĠĠĠĠĠĠĠĠĠĠĠ":930,"param":931,"Ġwill":932,"Ġwhere":933,"Ġcons":934,"$.":935,"ĠThis":936,"abl":937,"olog":938,"Ġbu":939,"ts":940,"$,":941,"ove":942,"ision":943,"way":944,"ox":945,"ious":946,"Ġend":947,"Ġtrans":948,"ĠĠĠĠĠĠĠĠĠ":949,"Ġfollow":950,"196":951,"imes":952,"der":953,"ating":954,"ins":955,"Ġserv":956,"var":957,",\\":958,"return":959,"ident":960,"wn":961,"Ġsec":962,"lection":963,"nc":964,"oth":965,"Ġpol":966,"Ġunder":967,"ween":968,"equation":969,"Ġco":970,"ient":971,"atch":972,"Ġfilm":973,"})":974,"irect":975,"orld":976,"ars":977,"Ġso":978,"Ġrel":979,"ml":980,"ever":981,"Ġdist":982,"Ġspec":983,"outh":984,"ities":985,"ise":986,"def":987,"../":988,"ER":989,"ĠPro":990,"its":991,"mathcal":992,"Ġadd":993,"Name":994,"duc":995,"Ġshe":996,"Ġpos":997,"att":998,"atic":999,"Ġthen":1000,"oh":1001,"}.":1002,"ood":1003,"ues":1004,"Ġcall":1005,"Ġused":1006,"ethod":1007,"21":1008,"ury":1009,"ash":1010,"Ġvalue":1011,"Ġi":1012,"Ġen":1013,"ĠZ":1014,"ĠSh":1015,"ck":1016,"ily":1017,"Ch":1018,"Ġinst":1019,"ason":1020,"Ġkn":1021,"14":1022,"gan":1023,"Ġdec":1024,"els":1025,"Ġsuch":1026,"iversity":1027,"13":1028,"Ġpeople":1029,"Ġget":1030,"Ġbec":1031,"ah":1032,"Ġbetween":1033,"Ġop":1034,"essage":1035,"app":1036,"pon":1037,"}(":1038,"âĢĻ":1039,"ĠAmerican":1040,"Ġprov":1041,"Ġdata":1042,"hip":1043,"ier":1044,"ures":1045,"ĠâĢ":1046,"ĠSe":1047,"Type":1048,"Ġwould":1049,"man":1050,"ys":1051,"da":1052,"Ġ!":1053,"Ġthere":1054,"rent":1055,"Ġel":1056,"oci":1057,"Ġrem":1058,"Ġthan":1059,"Ġest":1060,"vent":1061,"air":1062,"IN":1063,"Ġacc":1064,"Ġgener":1065,"ature":1066,"cre":1067,"Ġdif":1068,"az":1069,"orth":1070,"pha":1071,"son":1072,"ement":1073,"}^":1074,"Ġph":1075,"Ġnumber":1076,"rough":1077,"194":1078,"Ġtype":1079,"ĠQ":1080,"}_":1081,"11":1082,"ĠCol":1083,"yle":1084,"ale":1085,"name":1086,"sum":1087,"Ġstud":1088,"25":1089,"Ġac":1090,"195":1091,"~\\":1092,"span":1093,"Ã©":1094,"Ġline":1095,"Con":1096,"alse":1097,"Ġsome":1098,"ĠLe":1099,"Ar":1100,"idth":1101,"Com":1102,"Ġabout":1103,"ider":1104,"Ġ#":1105,"ĠInd":1106,"inn":1107,"Ġcre":1108,"Ġno":1109,"Ġcent":1110,"Ġany":1111,"div":1112,"Ġuse":1113,"ON":1114,"Ġser":1115,"Ġfe":1116,"Ġman":1117,"ouse":1118,"ional":1119,"Ġent":1120,"Ġne":1121,"Ġfound":1122,"Âł":1123,"Ġcur":1124,"ink":1125,"Cont":1126,"Ġshow":1127,"Th":1128,"alpha":1129,"type":1130,"rad":1131,"arn":1132,"sub":1133,"ength":1134,"Ġtra":1135,"String":1136,"min":1137,"ĠCl":1138,"Ġerr":1139,"mp":1140,"Ġrequ":1141,"ault":1142,"ized":1143,"ĠUnited":1144,"Ġed":1145,"Ġmost":1146,"ootball":1147,"ough":1148,"22":1149,"ility":1150,"back":1151,"Ġdev":1152,"ife":1153,"ower":1154,"ve":1155,"Ġext":1156,"Ġagain":1157,"aj":1158,"cont":1159,"Ġbl":1160,"ead":1161,"iver":1162,"Ġyou":1163,"Cl":1164,"ĠAn":1165,"Ġhim":1166,"ache":1167,"Ġoper":1168,"uss":1169,"30":1170,"></":1171,"Ġchar":1172,"ĠAs":1173,"ible":1174,"oo":1175,"Ġthem":1176,"rict":1177,"elta":1178,"ron":1179,"ĠUniversity":1180,"Ġsim":1181,"ism":1182,"ages":1183,"ract":1184,"ument":1185,"val":1186,"itt":1187,"lev":1188,"Ġsing":1189,"uth":1190,"Ġthrough":1191,"ersion":1192,"yn":1193,"Ġmay":1194,"Ġduring":1195,"Ġback":1196,"Ġteam":1197,"dd":1198,"ask":1199,"ST":1200,"Res":1201,"ambda":1202,"Ġsecond":1203,"ule":1204,"Ġlinks":1205,"Ġval":1206,"Ġgroup":1207,"$\\":1208,")\\":1209,"lem":1210,"Ġyears":1211,"ĠDe":1212,"ĠCon":1213,"import":1214,"Ġthree":1215,"Id":1216,"Ġ`":1217,"ĠFor":1218,"ute":1219,"ution":1220,"ally":1221,"ript":1222,"RE":1223,"Ġsystem":1224,"External":1225,"hen":1226,"overn":1227,"ired":1228,"bar":1229,"ke":1230,"ines":1231,"ception":1232,"rid":1233,"read":1234,"iving":1235,"add":1236,"Ġstate":1237,"by":1238,"ĠSc":1239,"Ġself":1240,".\"":1241,"Ġplayers":1242,"Ġinv":1243,"Ġsign":1244,"elop":1245,"Ġfl":1246,"Ġx":1247,"Ġdep":1248,"Ġeach":1249,"eter":1250,"Ġdiffer":1251,"._":1252,"usic":1253,"000":1254,"Ġpoint":1255,"Ġrep":1256,"ober":1257,"ten":1258,"arch":1259,"ina":1260,"Ġra":1261,"Ġwell":1262,"yp":1263,"Ġexp":1264,"Ġcase":1265,"plic":1266,"ister":1267,"Ġfam":1268,"Ġfinal":1269,"amma":1270,"ived":1271,"Ġequ":1272,"Ġmin":1273,"iven":1274,"arly":1275,"istory":1276,"umn":1277,"til":1278,"AT":1279,"ĠEng":1280,"ym":1281,"Ġdirect":1282,"ĠSp":1283,"align":1284,"uff":1285,"Ġdet":1286,"Ġart":1287,"Ġsm":1288,"Ġ>":1289,"class":1290,"ices":1291,"other":1292,"ots":1293,"ote":1294,"List":1295,"Ġwhile":1296,"mu":1297,"_\\":1298,"><":1299,"ange":1300,"Ġ)":1301,"\".":1302,"fore":1303,"ohn":1304,"erson":1305,"Ġdesc":1306,"Ġcor":1307,"ott":1308,"esc":1309,"bum":1310,"ple":1311,"ause":1312,"Ġmade":1313,"Ġfield":1314,"reat":1315,"Ġwrit":1316,"Ġsame":1317,"ĠX":1318,"ĠStates":1319,"Ġam":1320,"Ġ==":1321,"Ġrele":1322,"ays":1323,"bers":1324,"Ġthese":1325,"Ġstart":1326,"enn":1327,"ley":1328,"32":1329,"rop":1330,"Ġnull":1331,"Ġpop":1332,"AR":1333,"ho":1334,"for":1335,"ments":1336,"Ġsur":1337,"fl":1338,"Ġtrue":1339,"Ġboth":1340,"igma":1341,"ather":1342,"Ġcount":1343,"Ġmon":1344,"Ġlist":1345,"=\\":1346,"item":1347,"Ġbeing":1348,"pi":1349,"owever":1350,"24":1351,"Ġ\\\\":1352,"../../":1353,"ega":1354,"ague":1355,"Ġtest":1356,"Ġeff":1357,"ets":1358,"ĠShe":1359,"Ġlead":1360,"ural":1361,"html":1362,"Ġmed":1363,"ization":1364,"Ġgo":1365,"Ġstring":1366,"Ob":1367,"mathbb":1368,"}_{":1369,"ivate":1370,"Ġlater":1371,"ports":1372,"td":1373,"ives":1374,"ample":1375,"Ġhigh":1376,"ared":1377,"}^{":1378,"ĠIs":1379,"Ġrecord":1380,"itle":1381,"):":1382,"string":1383,"mod":1384,"opt":1385,"ĠCount":1386,"rr":1387,"ĠWe":1388,"Ġknown":1389,"ograph":1390,"Ġfollowing":1391,"Ġbefore":1392,"trans":1393,"ike":1394,"Ġran":1395,"ained":1396,"Ġvoid":1397,"Ġfootball":1398,"Ġbir":1399,"Ġperform":1400,"Ġ&&":1401,"ctions":1402,"Ġseason":1403,"ĠOn":1404,"Ġrun":1405,"ces":1406,"Ġelse":1407,"une":1408,"ains":1409,"rem":1410,"ĠEx":1411,"omen":1412,"hat":1413,"self":1414,"gy":1415,"EN":1416,"ths":1417,"ified":1418,"serv":1419,"unc":1420,"ically":1421,"Ġlong":1422,"sy":1423,"cept":1424,"__":1425,"bl":1426,"-\\":1427,"On":1428,"ID":1429,"ulation":1430,"ĠComm":1431,"ross":1432,"phi":1433,"work":1434,"^{\\":1435,"://":1436,"Ġfour":1437,"key":1438,"Ġmain":1439,"ounc":1440,"view":1441,"Ġappe":1442,"\")":1443,"Ġorig":1444,"Ġmem":1445,"perty":1446,"Ġ{\\":1447,"Ġfalse":1448,"ody":1449,"Ġalbum":1450,"ĠFran":1451,"irc":1452,"23":1453,"Ġbuild":1454,"Ġpartic":1455,"OR":1456,"ĠĠĠĠĠĠĠĠĠĠĠĠĠĠĠĠĠĠĠĠĠĠĠĠĠĠĠĠĠĠĠĠ":1457,"au":1458,"Ġseries":1459,"ler":1460,"Ġem":1461,"Un":1462,"Ġbro":1463,"Ġmov":1464,"Ġobject":1465,"ful":1466,"Ġappro":1467,"ger":1468,"Ġhref":1469,"value":1470,"apt":1471,"my":1472,"It":1473,"Ġstr":1474,"To":1475,"gram":1476,"ission":1477,"itions":1478,"lambda":1479,"Ġusing":1480,"Ġmany":1481,"section":1482,"ĠJan":1483,"lation":1484,"arent":1485,"Ġschool":1486,"ĠWorld":1487,"ĠJohn":1488,"amed":1489,"Ġnon":1490,"arri":1491,"part":1492,"AL":1493,"ai":1494,"50":1495,"ology":1496,"Col":1497,"ret":1498,"ĠPh":1499,"Ġincluding":1500,"ĠMay":1501,"code":1502,"Ġmethod":1503,"Ġestabl":1504,"Ġorder":1505,"];":1506,"ĠPl":1507,"data":1508,"ream":1509,"aid":1510,"source":1511,"ĠNational":1512,"bf":1513,"co":1514,"Ġterm":1515,"fo":1516,"SS":1517,"Ġdevelop":1518,"Ġapp":1519,"193":1520,"LE":1521,"********":1522,"Ġsol":1523,"Data":1524,"Ġopt":1525,"message":1526,"Value":1527,"Ġmat":1528,"array":1529,"uro":1530,"ĠAust":1531,"Ġagainst":1532,"af":1533,"ser":1534,"Ġmodel":1535,"Ġbecame":1536,"Ġ=>":1537,"org":1538,"ground":1539,"Ġdifferent":1540,"oad":1541,"Ġown":1542,"ĠBl":1543,"Ġprob":1544,"vel":1545,"Ġdr":1546,"ternational":1547,"ank":1548,"Ġgiven":1549,"med":1550,"Ġkey":1551,"arget":1552,"urch":1553,"Ġprodu":1554,"que":1555,"str":1556,"##":1557,"ĠĠĠĠĠĠ":1558,"----------------":1559,"ĠCan":1560,"ior":1561,"aces":1562,"rol":1563,"Ġ/**":1564,"function":1565,"Ġfin":1566,"Ind":1567,"led":1568,"ually":1569,"roll":1570,"ĠBrit":1571,"rand":1572,"reg":1573,"play":1574,"Ġcontin":1575,"atus":1576,"lected":1577,"Ġevent":1578,"));":1579,"ĠCar":1580,"Ġour":1581,"ĠWar":1582,"mathbf":1583,"ium":1584,"ĠCounty":1585,"Ġz":1586,"rap":1587,"========":1588,"Ġcurrent":1589,"ality":1590,"ĠPr":1591,"ĠYork":1592,"ĠJul":1593,"ency":1594,"Ġgu":1595,"color":1596,"requ":1597,"Ġbel":1598,"ilon":1599,"Ġdisc":1600,"ĠSchool":1601,"iam":1602,"ĠOr":1603,"sec":1604,"////":1605,"arge":1606,"ases":1607,"Ġsupport":1608,"100":1609,"Ġsince":1610,"ians":1611,"Ġopen":1612,"ped":1613,"|-":1614,"face":1615,"Ġpass":1616,"not":1617,"Ġmet":1618,"aking":1619,"uild":1620,"\"/":1621,"ui":1622,"ify":1623,"Ġcalled":1624,"htt":1625,"ially":1626,"uccess":1627,"ponse":1628,"beta":1629,"uary":1630,"duced":1631,"Ġsong":1632,"ourn":1633,"ĠGerm":1634,"here":1635,"Ġrece":1636,"angu":1637,"ĠNov":1638,"sigma":1639,"rist":1640,"ĠSouth":1641,"Ġparam":1642,"Ġuntil":1643,"Ġcare":1644,"Ġhand":1645,"2010":1646,"ense":1647,"27":1648,"sk":1649,"26":1650,"Ġsmall":1651,"ane":1652,"28":1653,"ĠĠĠĠĠĠĠĠĠĠĠĠĠĠĠĠĠĠĠĠĠĠĠ":1654,"Ġarg":1655,"width":1656,"mary":1657,"Err":1658,"ush":1659,"Ġdeath":1660,"ants":1661,"],":1662,"eps":1663,"lex":1664,"Ġfamily":1665,"Ġever":1666,"ively":1667,"ugust":1668,"Ġchild":1669,"ner":1670,"Ġsever":1671,"ampions":1672,"Set":1673,"Ġgovern":1674,"Ġconsider":1675,"Ġstruct":1676,"ĠWest":1677,"por":1678,"Object":1679,"Ġright":1680,"iter":1681,"test":1682,"Ġdesign":1683,"\");":1684,"\\\\":1685,"raw":1686,"inter":1687,"new":1688,"field":1689,"ital":1690,"Ġ(\\":1691,"ptember":1692,"Ġ,":1693,"Ġhead":1694,"Ġlocal":1695,"')":1696,"inc":1697,"Ġ!=":1698,"ilt":1699,"loc":1700,"vert":1701,"Ġpar":1702,"Ġbased":1703,"Ġelement":1704,"chn":1705,"cd":1706,"Ġcharact":1707,"date":1708,"Ġdescrib":1709,"^{-":1710,"Ġpolit":1711,"file":1712,"ival":1713,"born":1714,"ilde":1715,"ĠPar":1716,"reen":1717,"wards":1718,"}{\\":1719,"ctober":1720,"ĠAd":1721,"Ġrepresent":1722,"Ġnow":1723,"formation":1724,"order":1725,"ats":1726,"Ġpres":1727,"ĠGe":1728,"\"/>":1729,"Ġfact":1730,"includ":1731,"ided":1732,"ae":1733,"log":1734,"ird":1735,"ĠCent":1736,"Ġtop":1737,"Ġshould":1738,".,":1739,"Al":1740,"ĠTe":1741,"oss":1742,"};":1743,"me":1744,"par":1745,"oard":1746,"ajor":1747,"ĠAt":1748,"IT":1749,"mber":1750,"ering":1751,"time":1752,"Ġmusic":1753,"($":1754,"40":1755,"For":1756,"chi":1757,"ocument":1758,"ĠAugust":1759,"We":1760,"Ġrefer":1761,"Ġche":1762,"ĠMarch":1763,"Ġref":1764,"Ġarea":1765,"Ġread":1766,"arm":1767,"ris":1768,"Ġlast":1769,"lish":1770,"fess":1771,"Ġann":1772,"29":1773,"istor":1774,"epend":1775,"ining":1776,"ĠSeptember":1777,"ected":1778,"dis":1779,"Ġimp":1780,"off":1781,"Ġleft":1782,"Ġpresent":1783,"indow":1784,"An":1785,"lean":1786,"etwork":1787,"ĠPol":1788,"Ġgame":1789,"*}":1790,"ĠReg":1791,"2014":1792,"');":1793,"ĠAss":1794,"pril":1795,"umer":1796,"quad":1797,"Ġinit":1798,"ety":1799,"oman":1800,"2011":1801,"Ġneed":1802,"ting":1803,"Ġprocess":1804,"Sh":1805,"Ġcould":1806,"ĠMan":1807,"ĠJanuary":1808,"ended":1809,"reak":1810,"ĠâĢĶ":1811,"2016":1812,"2012":1813,"2015":1814,"SE":1815,"gamma":1816,"ĠOctober":1817,"Key":1818,"px":1819,"Ġoriginal":1820,"ven":1821,"lege":1822,"const":1823,"Ġprivate":1824,"Ġret":1825,"ĠĠĠĠĠĠĠĠĠĠĠĠĠ":1826,"ament":1827,"uthor":1828,"side":1829,"Ġoffic":1830,"vious":1831,"He":1832,"ience":1833,"ches":1834,"ava":1835,"leg":1836,"64":1837,"cember":1838,"ector":1839,"ised":1840,"+\\":1841,"ape":1842,"hern":1843,"Ġallow":1844,"2013":1845,"arrow":1846,"ĠJune":1847,"ĠAll":1848,"Ġplayed":1849,"By":1850,"Ġseveral":1851,"2008":1852,"Ġcommun":1853,"CT":1854,"eters":1855,"Ġlife":1856,"ling":1857,"Ġorgan":1858,"Ġtem":1859,"Ġocc":1860,"2018":1861,"size":1862,"Ġav":1863,"ĠJuly":1864,"idd":1865,"ek":1866,"^\\":1867,"ĠAustral":1868,"Ġformer":1869,"but":1870,"Exception":1871,"Ġsingle":1872,"2019":1873,"Ġreleased":1874,"Ġprogram":1875,"rix":1876,"DE":1877,"figure":1878,"2017":1879,"Ġbecause":1880,"Ġeffect":1881,"Mod":1882,"2009":1883,"uk":1884,"mathrm":1885,"ume":1886,"Ġnear":1887,"rho":1888,"Ġwon":1889,"Error":1890,"\"><":1891,"length":1892,"See":1893,"delta":1894,"ene":1895,"ĠApril":1896,"Ġbirths":1897,"ĠNorth":1898,"rite":1899,"uck":1900,"Ġbecom":1901,"Ġ%":1902,"Ġrest":1903,"Test":1904,"Ġprom":1905,"ĠRep":1906,"head":1907,"ĠCal":1908,"...":1909,"ĠII":1910,"ĠGu":1911,"Ġimport":1912,"Ġlarge":1913,"]{":1914,"ĠNovember":1915,"190":1916,"ĠEuro":1917,"ored":1918,"ager":1919,"ides":1920,"olv":1921,"'t":1922,"agn":1923,"urg":1924,"Ġid":1925,"ĠBritish":1926,"Element":1927,"century":1928,"ĠIf":1929,"ords":1930,"2007":1931,"Ġalong":1932,"ĠLeague":1933,"ĠCity":1934,"AN":1935,"ms":1936,"ĠTr":1937,"âĢĿ":1938,"ampionship":1939,"Ġlike":1940,"ration":1941,"ĠDecember":1942,"ĠWh":1943,"Ġjust":1944,"ĠRes":1945,"ends":1946,"2006":1947,"mbol":1948,"ĠRe":1949,"Get":1950,"ung":1951,"Ġbook":1952,")}":1953,"Class":1954,"ued":1955,"ĠState":1956,"Ġdid":1957,"summary":1958,"Ġpubl":1959,"leq":1960,"As":1961,"Ġmult":1962,"Ġsize":1963,"Ġdue":1964,"anguage":1965,"ography":1966,"ole":1967,"lob":1968,"ĠĠĊ":1969,"tau":1970,"Ġplace":1971,"aced":1972,"theta":1973,"urther":1974,"Ġcond":1975,"/**":1976,"ĠAnd":1977,"Ġearly":1978,"Ġerror":1979,"iles":1980,"Ġtitle":1981,"Ġ===":1982,"Ġmake":1983,"ebru":1984,"Ġexper":1985,"Ġhel":1986,"Ġresults":1987,"apan":1988,"odes":1989,"itor":1990,"ebruary":1991,"de":1992,"ilit":1993,"2020":1994,"cur":1995,"gle":1996,"comm":1997,"load":1998,"Ġstatic":1999,"pp":2000,"$-":2001,"Ġ:=":2002,"Ġfr":2003,"ription":2004,"ately":2005,"alth":2006,"iod":2007,"ales":2008,"big":2009,"Ġ///":2010,"bs":2011,"aint":2012,"ability":2013,"itional":2014,"lete":2015,"ĠEd":2016,"Ġvis":2017,"ww":2018,"ĠCanad":2019,"ĠBe":2020,"Ġincre":2021,"ope":2022,"ĠWill":2023,"action":2024,"be":2025,"Ġposs":2026,"Ġcity":2027,"Pl":2028,"Ġu":2029,"Ġsuccess":2030,"Ġwithin":2031,"iness":2032,"ĠThey":2033,"Not":2034,"Ġevery":2035,"ĠAf":2036,"ĠKing":2037,"Ġ/*":2038,"Ġrad":2039,"Ġold":2040,"aving":2041,"Se":2042,"Ġfilms":2043,"Ã¡":2044,"2000":2045,"levision":2046,"Ġdoes":2047,"ham":2048,"translation":2049,"pre":2050,"akes":2051,"Ġstyle":2052,"Ġ--":2053,"Ġlaw":2054,"pond":2055,"Ġstand":2056,"times":2057,"Ġvari":2058,"Ġband":2059,"Node":2060,"ness":2061,"br":2062,"hes":2063,"().":2064,"ĠHowever":2065,"ij":2066,"}$,":2067,"aster":2068,"ĠString":2069,"ze":2070,"}$.":2071,"Ġtyp":2072,"ervice":2073,"ca":2074,"ries":2075,"Re":2076,"189":2077,"rench":2078,"pm":2079,"Ġfind":2080,"60":2081,"ĉĉĉĉĉ":2082,"Ġaround":2083,"ony":2084,"Ġeng":2085,"Ġexpect":2086,"American":2087,"ination":2088,"());":2089,"aly":2090,"ression":2091,"ĠEurope":2092,"ording":2093,"Tr":2094,"AM":2095,"Ġarray":2096,"Ġsl":2097,"nu":2098,"ential":2099,"ble":2100,"Ġlim":2101,"Ġvery":2102,"Ġmembers":2103,"This":2104,"}(\\":2105,"Ġ?":2106,"ĠFebruary":2107,"partial":2108,"see":2109,"Ġdown":2110,"Ġgeneral":2111,"Ġ},":2112,"Ġcareer":2113,"ĠUS":2114,"33":2115,"prot":2116,"Ġcompet":2117,"80":2118,"Ġtown":2119,"Ġnamed":2120,"Ph":2121,"Ġaut":2122,"ification":2123,"ese":2124,"opy":2125,"index":2126,"ift":2127,"AC":2128,"aim":2129,"ison":2130,"olution":2131,"util":2132,"Ġsaid":2133,"].":2134,"ster":2135,"list":2136,"Ġmember":2137,"Ġnext":2138,"omet":2139,"ilter":2140,"Ġland":2141,"uration":2142,"ĠMin":2143,"Ġworld":2144,"Ġwomen":2145,"ators":2146,"met":2147,"ered":2148,"Ġeven":2149,"go":2150,"2005":2151,"table":2152,"Ġ);":2153,"ĠĠĠĠĠĠĠĠĠĠĠĠ":2154,"space":2155,"Sc":2156,"top":2157,"Im":2158,"Ġpower":2159,"ĠPart":2160,"day":2161,"Ġsee":2162,"ribute":2163,"raft":2164,"CO":2165,"Def":2166,"stit":2167,"pert":2168,"eqref":2169,"Ġversion":2170,"Ġthose":2171,"Ġinclude":2172,"itive":2173,"Ġpost":2174,"PI":2175,"Index":2176,"omega":2177,"empt":2178,"Ġmark":2179,"ana":2180,"Ġorg":2181,"Ġobserv":2182,"ino":2183,"Ġbound":2184,"lor":2185,"aus":2186,"UL":2187,"ĠAfter":2188,"less":2189,"Ġperson":2190,"ension":2191,"pace":2192,"Ġcap":2193,"ances":2194,"ius":2195,"ideo":2196,"Ġ()":2197,"Ġobt":2198,"Ġtot":2199,"Ġbegan":2200,"Ġident":2201,"Ġgovernment":2202,"ĠCo":2203,"Ġclub":2204,"Ġdi":2205,"\":":2206,"ĠSw":2207,"Ġmajor":2208,"ĠDist":2209,"Ġshort":2210,"cale":2211,"url":2212,"alk":2213,"Ġalign":2214,"Event":2215,"usiness":2216,"Ġtext":2217,"Ġelect":2218,"Ġcharacter":2219,"ĠBar":2220,"Ġlarg":2221,"Qu":2222,"/*":2223,"lear":2224,"Ġwhat":2225,"Ġpo":2226,"ĠChrist":2227,"position":2228,"Requ":2229,"Int":2230,"Ġheld":2231,"rc":2232,"Ġestablished":2233,"Ġfile":2234,"Ġleg":2235,"oun":2236,"ribution":2237,"ources":2238,"Ġvill":2239,"Ġdiv":2240,"ĠEnglish":2241,"Ġlocated":2242,"ilar":2243,"Array":2244,"Time":2245,"ero":2246,"wh":2247,"eqn":2248,"With":2249,"adem":2250,"Ġvalues":2251,"Ġadv":2252,"ĠHar":2253,"path":2254,"Ġprevious":2255,"ĠAb":2256,"gor":2257,"define":2258,"2004":2259,"Ġproject":2260,"Ġhome":2261,"Ġcomplet":2262,"(),":2263,"fty":2264,"tilde":2265,"ĠJapan":2266,"illion":2267,"aining":2268,"Ġcour":2269,"dom":2270,"ĠSec":2271,"Ġpopulation":2272,"Ġprot":2273,"ruction":2274,"ĠHis":2275,"Ġreport":2276,"search":2277,"Ġla":2278,"ĠEl":2279,"ociation":2280,"TE":2281,"Ġbase":2282,"rew":2283,"infty":2284,"Delta":2285,"Ġstill":2286,"ĠMc":2287,"Ġ$(":2288,"acy":2289,"atures":2290,"ormal":2291,"RO":2292,"Ġservice":2293,"Ġexpl":2294,"where":2295,"rt":2296,"\";":2297,"Ġmust":2298,"Ġjo":2299,"ĠRec":2300,"File":2301,"PE":2302,"Ġdem":2303,"node":2304,"|\\":2305,"Ġsum":2306,"ĠâĢľ":2307,"iction":2308,"lin":2309,"Ġmass":2310,"Ġposition":2311,"ondon":2312,"semb":2313,"uf":2314,"urs":2315,"rown":2316,"Ġstation":2317,"Ġinformation":2318,"sq":2319,"ĠSup":2320,"Ġmeas":2321,"Ġsk":2322,"Ġcompany":2323,"ĠNo":2324,"Ġpat":2325,"Ġhouse":2326,"ford":2327,"Ġcrit":2328,"Ġcar":2329,"Or":2330,"Ġtri":2331,"lang":2332,"Ġtook":2333,"Ġdescribed":2334,"atter":2335,"no":2336,"Ġassert":2337,"ĠMed":2338,"Ġgames":2339,"Ġchang":2340,"Ġrespect":2341,"Ġreal":2342,"Ġreceived":2343,"ĠAfric":2344,"box":2345,"Att":2346,"New":2347,"ainer":2348,"ocial":2349,"ille":2350,"ĠYou":2351,"Ġ(!":2352,"ĠAir":2353,"Ġperiod":2354,"Ġway":2355,"cast":2356,"Ġtotal":2357,"Ġexample":2358,"Ġspace":2359,"ari":2360,"iment":2361,"rest":2362,"Ġview":2363,"posed":2364,"Ġpath":2365,"oolean":2366,"ploy":2367,"iron":2368,"Ġbuilt":2369,"script":2370,"Ġproblem":2371,"ured":2372,"Ġdel":2373,"rel":2374,"ixed":2375,"Ġmatch":2376,"['":2377,"Ġday":2378,"45":2379,"mat":2380,"center":2381,"AA":2382,"aul":2383,"ĠCollege":2384,"Ġnational":2385,"Ġmap":2386,"osed":2387,"Ġiss":2388,"Ġanother":2389,"ending":2390,"uments":2391,"ples":2392,"Equ":2393,"TR":2394,"though":2395,"cm":2396,"ĠChe":2397,"eder":2398,"sl":2399,"ibr":2400,"Ġrequest":2401,"alf":2402,"Ġport":2403,"Ġep":2404,"Ġbest":2405,"olic":2406,"Ġhistory":2407,"ced":2408,"hold":2409,"IC":2410,"ĠEast":2411,"Ġpublished":2412,"xi":2413,"ocus":2414,"umb":2415,"ĠRuss":2416,"Ġcr":2417,"with":2418,"aper":2419,"Man":2420,"group":2421,"Ġsy":2422,"++":2423,"$$":2424,"perties":2425,"AS":2426,"Ġserved":2427,"ĠHigh":2428,"State":2429,"yd":2430,"respond":2431,"2021":2432,"ĠFrench":2433,"\\,":2434,"ĠChampionship":2435,"ĠSer":2436,"System":2437,"Ġprofess":2438,"comp":2439,"eneral":2440,"Ġbeh":2441,"rick":2442,"http":2443,"ĠLondon":2444,"rows":2445,"Ġrepl":2446,"ones":2447,"cit":2448,"link":2449,"Ġage":2450,"Ġcentury":2451,"oken":2452,"Ġwithout":2453,"fra":2454,"35":2455,"orem":2456,"ĠCor":2457,"Ġ});":2458,"Path":2459,"Ġchildren":2460,"Ġmax":2461,"oper":2462,"':":2463,"lymp":2464,"2003":2465,"ĠBy":2466,"aged":2467,"Ġmuch":2468,"lim":2469,"ĠChar":2470,"Ġtechn":2471,"Ġvol":2472,"sim":2473,"ique":2474,"reet":2475,"Ġborn":2476,"ugg":2477,"ilitary":2478,"iet":2479,"omin":2480,"Add":2481,"ĠWilliam":2482,"31":2483,"Ġ};":2484,"Ġnil":2485,"Text":2486,"energy":2487,"aut":2488,"ges":2489,"nb":2490,"otype":2491,"arried":2492,"roid":2493,"Ġexist":2494,"Ġsix":2495,"Ġmen":2496,"unic":2497,"ailable":2498,"ently":2499,"Ġincluded":2500,"ning":2501,"uman":2502,"map":2503,"Ã³":2504,"Ġhow":2505,"Ġsw":2506,"Ġthird":2507,"lobal":2508,"ules":2509,"2001":2510,"Ġside":2511,"Ġelection":2512,"cher":2513,"ux":2514,"Ġabove":2515,"Ġappear":2516,"Ġtarget":2517,"ards":2518,"ĠGerman":2519,"Ġbas":2520,"pack":2521,"Ġspecies":2522,"ouncil":2523,"cdot":2524,"na":2525,"Ġintro":2526,"ington":2527,"Ġnode":2528,"point":2529,"Ġtelevision":2530,"Ġfive":2531,".</":2532,"Ġfail":2533,"Ġlog":2534,"View":2535,"Ġeduc":2536,"Ġplayer":2537,"nder":2538,"oph":2539,"Ġenc":2540,"Ġcal":2541,"']":2542,"Ġspe":2543,"Info":2544,"ops":2545,"70":2546,"Ġet":2547,"188":2548,"call":2549,"member":2550,"ĠThere":2551,"sequ":2552,"2002":2553,"Ġcamp":2554,"state":2555,"}[":2556,"js":2557,"Ġsource":2558,"Ġpoints":2559,"Form":2560,"Ġ__":2561,"Ġhig":2562,"}}\\":2563,"ald":2564,"plit":2565,"ĠAm":2566,"ĠComp":2567,"75":2568,"ĠDistrict":2569,"Ġaff":2570,"Map":2571,"Ġtake":2572,"Ġarch":2573,"ĠEn":2574,"Ġrange":2575,"Ġstat":2576,"Ġsimilar":2577,")$.":2578,"ither":2579,"igned":2580,"artment":2581,"ĠDav":2582,"ustom":2583,"Ġbeg":2584,"Ġoptions":2585,"ĠAng":2586,"alt":2587,"api":2588,"Request":2589,"aff":2590,"Ġnetwork":2591,"Ġtrack":2592,"Ġparticular":2593,"Ġlevel":2594,"ĠPark":2595,"';":2596,"ached":2597,"Ġindex":2598,"90":2599,"ĠCup":2600,"stance":2601,"De":2602,"ĠHouse":2603,"tab":2604,"xim":2605,"ĠMe":2606,"ĠArt":2607,"En":2608,"oll":2609,"ION":2610,"osp":2611,"Param":2612,"Ġfeature":2613,"ĠBro":2614,"Ġder":2615,"ship":2616,"Ġinteg":2617,"ĠBr":2618,"ĠHer":2619,"Ġpe":2620,"ĠLa":2621,"Ġmy":2622,"annel":2623,"LA":2624,"struct":2625,"ridge":2626,"Ġhold":2627,"ours":2628,"ĠList":2629,"public":2630,"ET":2631,"duct":2632,"FF":2633,"Config":2634,"Ġinput":2635,"ait":2636,"Ġactiv":2637,"eff":2638,"yl":2639,"Field":2640,"Ġturn":2641,"Context":2642,"style":2643,"Ġfull":2644,"Ġair":2645,"psi":2646,"IM":2647,"ights":2648,"pen":2649,"ems":2650,"Ġbuilding":2651,"Ġregion":2652,"nbsp":2653,"Ġauthor":2654,"result":2655,"plication":2656,"itch":2657,"eqnarray":2658,"Ġcomb":2659,"All":2660,"Ġlow":2661,"ught":2662,"Of":2663,"Ġfore":2664,"urb":2665,"Ġrole":2666,"Ġbreak":2667,"ĠPres":2668,"ĠPer":2669,"Ġnorth":2670,"Ġlet":2671,"attle":2672,"ways":2673,"Om":2674,"Ġcorrespond":2675,"Ġdefault":2676,"Ġ/>":2677,"ware":2678,"ief":2679,"conom":2680,"abled":2681,"ĠPhil":2682,"ouble":2683,"ÃŃ":2684,"ought":2685,"Ġcontrol":2686,"epsilon":2687,"icle":2688,"Ġtimes":2689,"error":2690,"inning":2691,"amespace":2692,"irt":2693,"Ġinstance":2694,"sm":2695,"Ġdied":2696,"Ġdefined":2697,"ĠOb":2698,"IS":2699,"Ġhost":2700,"())":2701,"alys":2702,"imal":2703,"ĠDr":2704,"ttp":2705,"ĠInternational":2706,"Living":2707,"ĠSch":2708,"istic":2709,"65":2710,"Ġwar":2711,"Ġevents":2712,"Over":2713,"vers":2714,"ĠAct":2715,"Val":2716,"ayer":2717,"Ġcreated":2718,"raphics":2719,"ponent":2720,"ged":2721,"Ġlength":2722,"eturn":2723,"Ġcommand":2724,"Ġgrad":2725,"iff":2726,"down":2727,"Ġlate":2728,"Ġinterest":2729,"UR":2730,"Ġcover":2731,"iforn":2732,"era":2733,"Ġcreate":2734,"From":2735,"idual":2736,"Ġden":2737,"Ġwater":2738,"iber":2739,"Ġcommon":2740,"}_{\\":2741,"object":2742,"34":2743,"Ġvillage":2744,"ecut":2745,"ynam":2746,"Ġins":2747,"Result":2748,"func":2749,"Ġwritten":2750,"Ġfac":2751,"Ġcomput":2752,"Ġoften":2753,"ride":2754,"Ġenergy":2755,"ories":2756,"ĠIndian":2757,"avy":2758,"Bl":2759,"ĠQu":2760,"Ã¼":2761,"^*":2762,"from":2763,"sw":2764,"rain":2765,"ifornia":2766,"Trans":2767,"People":2768,"ĠFig":2769,"reate":2770,"Ġestim":2771,"ĠDiv":2772,"Ġspecial":2773,"History":2774,"Size":2775,"Hand":2776,"BC":2777,"ĉĠĠĠ":2778,"iev":2779,"Ġsection":2780,"Ġinc":2781,"ables":2782,"men":2783,"ention":2784,"AD":2785,"``":2786,"max":2787,"Ġdocument":2788,"ender":2789,"UT":2790,"Ġbusiness":2791,"ession":2792,"ites":2793,"ological":2794,"viron":2795,"now":2796,"inary":2797,"Omega":2798,"Ġprim":2799,"ĠSan":2800,"Ġsat":2801,"Ġamong":2802,"input":2803,"void":2804,"ara":2805,"Ġdeg":2806,"Ġfew":2807,"Ġkill":2808,"Ġattack":2809,"****************":2810,"valid":2811,"uffer":2812,"ĠĠĠĠĠĠĠĠĠĠĠĠĠĠĠĠĠĠĠĠĠĠĠĠĠĠĠ":2813,"ĠRiver":2814,"Is":2815,"oyal":2816,"ves":2817,"location":2818,"ude":2819,"Ġbackground":2820,"plate":2821,"epar":2822,"iple":2823,"sqrt":2824,"burg":2825,"orge":2826,"ags":2827,"ump":2828,"Ġsouth":2829,"LO":2830,"oon":2831,"ED":2832,"uation":2833,"Ġassoci":2834,"Ġson":2835,"Ġaver":2836,"Ġstudy":2837,"non":2838,"ES":2839,"ĠCont":2840,"1990":2841,"ĠEngland":2842,"ĠMich":2843,"1999":2844,"ependent":2845,"urity":2846,"ĠDep":2847,"ica":2848,"Ġtrad":2849,"At":2850,"Ġaction":2851,"ĠOff":2852,"Ġpri":2853,"Ġround":2854,"ĠAg":2855,"isc":2856,"Ġpred":2857,"ĠAc":2858,"icon":2859,"////////":2860,"psilon":2861,"true":2862,"ounced":2863,"ĠOne":2864,"Ġvarious":2865,"Ġcontext":2866,"Ġdeterm":2867,"abor":2868,"Ġyour":2869,"ico":2870,"lands":2871,"99":2872,"default":2873,"Service":2874,"ĠCalifornia":2875,"useum":2876,"ama":2877,"ociety":2878,"Ġgen":2879,"Ġshows":2880,"Ġcountry":2881,")$,":2882,"create":2883,"duction":2884,"assert":2885,"Inter":2886,"options":2887,"Ġ${\\":2888,"Ġknow":2889,"ett":2890,"aterial":2891,"Ġavailable":2892,"Ġcode":2893,"anish":2894,"Code":2895,"ĠVal":2896,"gress":2897,"aken":2898,"Ġproperty":2899,"fin":2900,"Gamma":2901,"ogle":2902,"ĠTo":2903,"ertain":2904,"Ġsett":2905,"mar":2906,"mon":2907,"Ġreturned":2908,"Ġdest":2909,"ĠThese":2910,"Ġled":2911,"Build":2912,"rec":2913,"Acc":2914,"bit":2915,"ĠParty":2916,"reed":2917,"36":2918,"âĢĶ":2919,"Ġsite":2920,"Ġinvolv":2921,"ulated":2922,"sup":2923,"Ġfurther":2924,"bold":2925,"ateg":2926,"Ġgood":2927,"Ġnov":2928,"Ġship":2929,"48":2930,"ensity":2931,"2022":2932,"Ġinvest":2933,"Group":2934,"inition":2935,"''":2936,"ĠOlymp":2937,"Ġhistor":2938,"nection":2939,"ividual":2940,"ogn":2941,"ĠAustralia":2942,"Ġmoved":2943,"ĠSystem":2944,"\"></":2945,"Ġcult":2946,"38":2947,"Ġimportant":2948,"iol":2949,"Ġred":2950,"CH":2951,"alysis":2952,"Ġcheck":2953,"prototype":2954,"Ġstrong":2955,"Ġphot":2956,"ournal":2957,"imum":2958,"mm":2959,"Ġsent":2960,"Ġdistrict":2961,"[]":2962,"vare":2963,"Pr":2964,"Rec":2965,"Ġconf":2966,"Ġhere":2967,"Ass":2968,"unk":2969,"Ġworks":2970,"Ġchange":2971,"Ġshown":2972,"Ġengine":2973,"Ġinitial":2974,"^{(":2975,"Ser":2976,"Ġclaim":2977,"icro":2978,"Ġcompon":2979,"nect":2980,"Ġproduced":2981,"Ġwest":2982,"Ġtw":2983,"Ġless":2984,"ML":2985,"ls":2986,"Ġdeaths":2987,"Ġmale":2988,"gorith":2989,"ĠRepublic":2990,"1998":2991,"Ġconfig":2992,"MA":2993,"Ġke":2994,"Ġconsidered":2995,"subsection":2996,"Ġbecome":2997,"Out":2998,"Reg":2999,"Ġhaving":3000,"ĠPort":3001,"arning":3002,"Ġcontent":3003,"loat":3004,"ĠWhen":3005,"ottom":3006,"uel":3007,"ĠSm":3008,"ivil":3009,"Ġfree":3010,"66":3011,"nav":3012,"itect":3013,"uit":3014,"minist":3015,"ensure":3016,"Ġestablish":3017,"Count":3018,"Ġphys":3019,"ocr":3020,"omb":3021,"Ġhelp":3022,"\"\"":3023,"ibrary":3024,"refore":3025,"gcolor":3026,"Ġinfl":3027,"44":3028,"nown":3029,"oice":3030,"Ġstates":3031,"Ġpossible":3032,"Ġfather":3033,"Ġmer":3034,"Ġstructure":3035,"rightarrow":3036,"Ġrequire":3037,"39":3038,"Ġconc":3039,"ĠGL":3040,"ĠAward":3041,"Ġsignific":3042,"Ġsuper":3043,"Ġaccess":3044,"ha":3045,"Ġmot":3046,"ready":3047,"ptions":3048,"Ġparent":3049,"Ġcell":3050,"Ġstarted":3051,"Ġinternational":3052,"Ġant":3053,"earch":3054,"ĠArmy":3055,"ĠĠĠĠĊ":3056,"Ġindic":3057,"varepsilon":3058,"Ġconv":3059,"Ġsold":3060,"web":3061,"Ġsepar":3062,"ĠMon":3063,"caption":3064,"}=":3065,"prov":3066,"Ġdevelopment":3067,"Ġpot":3068,"37":3069,"================":3070,"Ġvideo":3071,"Ġtry":3072,"}^{\\":3073,"ĠAmeric":3074,"iant":3075,"US":3076,"Ġcolor":3077,"ably":3078,"Ġeast":3079,"ittle":3080,"Ġcoll":3081,"ails":3082,"ĉĉĉĉĉĉ":3083,"Ġterms":3084,"Ġsequ":3085,"Ġhowever":3086,"Ġmiss":3087,"Ġproduction":3088,"ii":3089,"After":3090,"apache":3091,"vironment":3092,"ĠRev":3093,"Ġblock":3094,"Ġyoung":3095,"Ġproduct":3096,"Ġfem":3097,"config":3098,"eh":3099,"ocal":3100,"agement":3101,"ĠChurch":3102,"Ġlook":3103,"ĠIndia":3104,"pose":3105,"orph":3106,"ellow":3107,"ula":3108,"ising":3109,"Ġda":3110,")(":3111,"Query":3112,"Ġperformance":3113,"187":3114,"ĠBer":3115,"Ġmillion":3116,"Sp":3117,"textbf":3118,"ĠFrance":3119,"Ġrelations":3120,"Ġbgcolor":3121,"tes":3122,"Ġgroups":3123,"Ġmean":3124,"hib":3125,"1980":3126,"55":3127,"Ġresponse":3128,"iddle":3129,"ĠGet":3130,"Ġstar":3131,"Ġmodels":3132,"Ġ\\,":3133,"ĠAp":3134,"emph":3135,"Ġcommunity":3136,"asc":3137,"Ġcross":3138,"Ġannounced":3139,"1997":3140,"Ġfollows":3141,"ael":3142,"Ġcame":3143,"rangle":3144,"symbol":3145,"Ġcapt":3146,"ĠčĊ":3147,")=":3148,"ĠRoman":3149,"escription":3150,"Ġbody":3151,"Ġuser":3152,"rant":3153,"Ġpract":3154,"ference":3155,"stand":3156,"Ġcollection":3157,"Ġimplement":3158,"orthern":3159,"start":3160,"hel":3161,"bt":3162,"ĠBel":3163,"Ġwant":3164,"Ġeither":3165,"itted":3166,"ibility":3167,"ĠRed":3168,"Ġlight":3169,"1996":3170,"Up":3171,"Ã¶":3172,"ĠAnt":3173,"IG":3174,"ĠMal":3175,"Ġaward":3176,"Ġgl":3177,"ney":3178,"pty":3179,"ĠCanada":3180,"ients":3181,"roy":3182,"Call":3183,"init":3184,"II":3185,"iers":3186,"count":3187,"Item":3188,"UN":3189,"Ġepis":3190,"uture":3191,"Ġide":3192,"oted":3193,"Ġtable":3194,"ĠCour":3195,"Ġofficial":3196,"Ġlabel":3197,"Comp":3198,"acing":3199,"Ġapproxim":3200,"bor":3201,"CC":3202,"hand":3203,"Ġdebut":3204,"Ġspect":3205,"idence":3206,"atural":3207,"Ġfri":3208,"Arg":3209,"user":3210,"body":3211,"Ġclose":3212,"amples":3213,"ĠAmerica":3214,"Ġwent":3215,"bm":3216,"clus":3217,"Ġpolitic":3218,"Ġ($":3219,"Model":3220,"ĠCouncil":3221,"Ġcou":3222,"unicip":3223,"element":3224,"iqu":3225,"Ġaddition":3226,"ĠÐ":3227,"Ġquant":3228,"include":3229,"ĠQue":3230,"itar":3231,"Ġimage":3232,"etic":3233,"ayout":3234,"mit":3235,"Ġflow":3236,"Big":3237,"Ġaverage":3238,"Ġindividual":3239,"Ġrequired":3240,"ection":3241,"ĠPal":3242,"ĠAcc":3243,"ĠHol":3244,"sembly":3245,"next":3246,"Ġfeatures":3247,"Ġblack":3248,"Ġear":3249,"ĠEuropean":3250,"Ġborder":3251,"Ġhalf":3252,"asing":3253,"Ġproduc":3254,"AB":3255,"ĠGeneral":3256,"rote":3257,"Ġleast":3258,"lient":3259,"frak":3260,"ĠRober":3261,"ming":3262,"End":3263,"ifier":3264,"ota":3265,"Ġdiscuss":3266,"most":3267,"includeg":3268,"Ġpolitical":3269,"includegraphics":3270,"ago":3271,"ceed":3272,"Ġtoget":3273,"ĠFl":3274,"Ad":3275,"ĠWith":3276,"Ġtogether":3277,"ĠThom":3278,"rav":3279,"Ġattempt":3280,"ĠJames":3281,"Ġresearch":3282,"ĠGovern":3283,"ĠPresident":3284,"Ġsuff":3285,"west":3286,"Ġwidth":3287,"Ġcirc":3288,"si":3289,"method":3290,"Ġlanguage":3291,"Ġcalc":3292,"ULL":3293,"cell":3294,"uggest":3295,"Ġq":3296,"Message":3297,"ya":3298,"ements":3299,"Ġdat":3300,"Property":3301,"FA":3302,"Ġconstruct":3303,"Ġcorre":3304,"ounter":3305,"Ġcaus":3306,"Ġoutput":3307,"Ġarr":3308,"ĠStreet":3309,"iation":3310,"Ġappoint":3311,"Ġbroad":3312,"outhern":3313,"year":3314,"ĠMor":3315,"wid":3316,"ĠTest":3317,"ĠPaul":3318,"Exp":3319,"varphi":3320,"ĉĊ":3321,"1995":3322,"Ġcomplex":3323,"ĠSum":3324,"oe":3325,"Ġstory":3326,"uster":3327,"ĠDivision":3328,"ĠÃ":3329,"Ġbi":3330,"alian":3331,"Ġconsist":3332,"Ġperm":3333,"Ġexpected":3334,"rs":3335,"ched":3336,"Ġsem":3337,"DO":3338,"ston":3339,"Ġsignificant":3340,"Ġlower":3341,"ĠEm":3342,"ean":3343,"ĠSk":3344,"istry":3345,"aries":3346,"imens":3347,"--------------------------------":3348,"ville":3349,"ked":3350,"01":3351,"Ġdistribution":3352,"And":3353,"ĠGeorge":3354,"board":3355,"aps":3356,"ĠGr":3357,"utes":3358,"word":3359,"Ġsurv":3360,"df":3361,"ĠFirst":3362,"Ġdiff":3363,"Ġprovided":3364,"cle":3365,"eal":3366,"ns":3367,"ĠSim":3368,"itte":3369,"mult":3370,"itz":3371,"ĠRoyal":3372,"refer":3373,"Ġmarried":3374,"Ġreview":3375,"Ġge":3376,"Ġwin":3377,"Ġdays":3378,"ĠSen":3379,"ĠDef":3380,"ĠStud":3381,"1970":3382,"reek":3383,"stitute":3384,"Ġfocus":3385,"Read":3386,"ania":3387,"ĠDem":3388,"ĠGl":3389,".~\\":3390,"49":3391,"Ġtraining":3392,"Ġrail":3393,"geq":3394,"Ġmilitary":3395,"Ġpopular":3396,"vec":3397,"Ġdom":3398,"roller":3399,"Ġworked":3400,"1994":3401,"[\\":3402,"ressed":3403,"mark":3404,"}).":3405,"Ġsocial":3406,"ycl":3407,"ĠMont":3408,"ĠAssociation":3409,"exp":3410,"Ġfunctions":3411,"Ġcompos":3412,"ĠRich":3413,"=\"../../":3414,"oz":3415,"ĠTrans":3416,"47":3417,"gen":3418,"base":3419,"])":3420,"ires":3421,"icient":3422,"Ġjoined":3423,"medi":3424,"check":3425,"Log":3426,"event":3427,"Ġdefe":3428,"Ġservices":3429,"ctor":3430,"Ġfund":3431,"overline":3432,"Ġvert":3433,"oud":3434,"han":3435,"current":3436,"isf":3437,"!--":3438,"Ġvia":3439,"lying":3440,"Ġparameters":3441,"proof":3442,"Ġlimit":3443,"https":3444,"Ġelements":3445,",\"":3446,"aves":3447,"md":3448,"plied":3449,"mathfrak":3450,"Off":3451,"ymmet":3452,"airs":3453,"1992":3454,"ado":3455,"chiev":3456,"riter":3457,"ĠDavid":3458,"ĠDes":3459,"Ġcost":3460,"ĠDev":3461,"Sub":3462,"ills":3463,"ING":3464,"Ġparticip":3465,"Ġput":3466,"ĠNe":3467,"IP":3468,"ĠGermany":3469,"wide":3470,"umni":3471,"lector":3472,"Ġacross":3473,"cis":3474,"Ġabs":3475,"Ġsystems":3476,"inner":3477,"run":3478,"Ġground":3479,"Ġalready":3480,"raz":3481,"ĠMount":3482,"block":3483,"aur":3484,"iding":3485,"ka":3486,"Ġaccount":3487,"Ġstudents":3488,"Ġneg":3489,"Cell":3490,"Ġtheory":3491,"Ġseen":3492,"ivity":3493,"ĠBut":3494,"ander":3495,"){":3496,"ĠHall":3497,"Ġprofessional":3498,"orage":3499,"ken":3500,"Ġwebs":3501,"ĠPat":3502,"Ġlo":3503,"Ġwrote":3504,"rian":3505,"ipp":3506,"ĠUnion":3507,"Ġregular":3508,"Ġnever":3509,"ilities":3510,".}":3511,"ĠĠĠĠĠĠĠĠĠĠ":3512,"Ġpresident":3513,"cer":3514,"ĠLou":3515,"Ġassociated":3516,"ida":3517,"has":3518,"och":3519,"ĠIm":3520,"Ġvalid":3521,"change":3522,"&\\":3523,"Ġmaking":3524,"Ġbool":3525,"67":3526,"Ġdon":3527,"ĠInt":3528,"www":3529,"Ġstandard":3530,"Ġindust":3531,"ranch":3532,"berg":3533,"0000":3534,"Ġcolumn":3535,"Ġmagn":3536,"ĠAustralian":3537,"rd":3538,"false":3539,"Ġplan":3540,"Ġparameter":3541,"Ġcontains":3542,"boldsymbol":3543,"Ġmessage":3544,"title":3545,"Ġmid":3546,"image":3547,"Ġsuggest":3548,"Ġrecent":3549,"If":3550,"Ġopened":3551,"andid":3552,"Ġresp":3553,"Ġgreat":3554,"Ġmag":3555,"Ġinstead":3556,"1993":3557,"anies":3558,"Ġcases":3559,"Let":3560,"Lambda":3561,"Ġreported":3562,"ĠGroup":3563,"},\\":3564,"child":3565,"ĠAdd":3566,"185":3567,"Ge":3568,"Ġprovide":3569,"Ġmeasure":3570,"####":3571,"Method":3572,"Ġemploy":3573,"icense":3574,"Ġroad":3575,"xy":3576,"Ð°":3577,"ulations":3578,"Ġeconom":3579,"Ġliter":3580,"Ġbelow":3581,"gorithm":3582,"ĠProv":3583,"Token":3584,"GL":3585,"gr":3586,"Input":3587,"lt":3588,"actory":3589,"ework":3590,"oke":3591,"Ent":3592,"Ġrelease":3593,"chan":3594,"irection":3595,"utions":3596,"atal":3597,"Client":3598,"Ġchurch":3599,"ĉĠ":3600,"Ġproperties":3601,"Ġfrequ":3602,"efore":3603,"Ġassum":3604,"Ġtaken":3605,"Ġweek":3606,"icles":3607,"Ġtre":3608,"~~":3609,"wood":3610,"ecess":3611,"ĠBlack":3612,"gin":3613,"Ed":3614,"Ġhuman":3615,"Ġcompleted":3616,"atives":3617,"ĠInter":3618,"ĠDuring":3619,"asket":3620,"ashington":3621,"Ġonce":3622,"ĠMod":3623,")^":3624,"='":3625,"Ġgrow":3626,"andom":3627,"Sy":3628,"efined":3629,"Response":3630,"ĠClass":3631,"Manager":3632,"Ġloss":3633,"Ġnum":3634,"info":3635,"ĠMart":3636,"ani":3637,"doc":3638,"aign":3639,"irtual":3640,"Ġlost":3641,"bert":3642,"ĠPe":3643,"Comm":3644,"Ġthrow":3645,"Ġadded":3646,"Ġareas":3647,"Ġrate":3648,"IL":3649,"Ġteams":3650,"Ġworking":3651,"ĠChina":3652,"band":3653,"Ġinflu":3654,"ĠRoad":3655,"Ġdeveloped":3656,"ĠSet":3657,"Ġhon":3658,"Table":3659,"spec":3660,"05":3661,"Ġ!==":3662,"ĠMy":3663,"Ġdirector":3664,"Ġhigher":3665,"Ġsongs":3666,"known":3667,"ĠHam":3668,"aker":3669,"based":3670,"Ġhom":3671,"Ġjava":3672,"ĠMary":3673,"ordin":3674,"ging":3675,"OT":3676,"ĠGo":3677,"Ġmaterial":3678,"Ġmethods":3679,"Ġgraph":3680,"ĠNor":3681,"Ġsit":3682,"hood":3683,"module":3684,"((":3685,"Ġmar":3686,"wise":3687,"ply":3688,"light":3689,"MP":3690,"Ġperformed":3691,"Ġparty":3692,"asons":3693,"ughter":3694,"istics":3695,"Ġ<<":3696,"icy":3697,"unn":3698,"Status":3699,"1991":3700,"Ġlines":3701,"jo":3702,"ĠFrom":3703,"Ġnumer":3704,"=#":3705,"print":3706,"Sec":3707,"atform":3708,"Ġdensity":3709,"Ġsuccessful":3710,"Ġpaper":3711,"active":3712,"Dis":3713,"bra":3714,"ĠLaw":3715,"Ġmeans":3716,"argin":3717,"OS":3718,"ishing":3719,"||":3720,"ĠThen":3721,"Ġmeet":3722,"ĠAcadem":3723,"EX":3724,"ĠCenter":3725,"Ð¾":3726,"arr":3727,"ributed":3728,"68":3729,"Ġoffer":3730,"aches":3731,"Ġwindow":3732,"Ġsay":3733,"Ġkm":3734,"Options":3735,"dev":3736,"used":3737,"ĠDi":3738,"liament":3739,"Ġcontinued":3740,"ĠMex":3741,"riate":3742,"}}$":3743,"aching":3744,"AP":3745,"Ġrev":3746,"tem":3747,"ĠDon":3748,"ership":3749,"context":3750,"ENT":3751,"alls":3752,"ĠCompany":3753,"Ġill":3754,"ĠCourt":3755,"Ġothers":3756,"ĠJer":3757,"content":3758,"ĠClub":3759,"ittee":3760,"imate":3761,"ĠMark":3762,"Ġes":3763,"Ġbrother":3764,"Ġobtained":3765,"Ġarchitect":3766,"anel":3767,"Ġeducation":3768,"alle":3769,"Color":3770,"Ġload":3771,"Ġable":3772,"ĠMusic":3773,"({":3774,"1960":3775,"abase":3776,"Ġmatrix":3777,"db":3778,"95":3779,"Ġwebsite":3780,"cy":3781,"ini":3782,"Ġconditions":3783,"Ġconstruction":3784,"Ġdisplay":3785,"Ġrecogn":3786,"EC":3787,"iance":3788,"inese":3789,"asy":3790,"izing":3791,"Ġachiev":3792,"raint":3793,"can":3794,"Ġrecorded":3795,"ĠHen":3796,"88":3797,"Eng":3798,"ĠSociety":3799,"Spec":3800,"ĠVir":3801,"ensive":3802,"esh":3803,"ĠSam":3804,"ategory":3805,"Ġten":3806,"Ġsigned":3807,"ala":3808,"ili":3809,"shire":3810,"ĠGames":3811,"Ġdirected":3812,"uz":3813,"pected":3814,"Ġthough":3815,"hline":3816,"ensus":3817,"version":3818,"Ġhttp":3819,"circ":3820,"Ġcontract":3821,"la":3822,"do":3823,"ened":3824,"Ġthus":3825,"Ġcallback":3826,"Pos":3827,"Ġcenter":3828,"ĠIsland":3829,"NS":3830,"build":3831,"ĠTown":3832,"](":3833,"Ġ+=":3834,"Base":3835,"Ġstatus":3836,"Ġ``":3837,"ĠKingdom":3838,"Ġaway":3839,"net":3840,"ldots":3841,"using":3842,"Ġfig":3843,"ĠCanadian":3844,"42":3845,"Ġalbums":3846,"like":3847,"Stream":3848,"Ġnovel":3849,"Ġlive":3850,"draw":3851,"bour":3852,"ĠWashington":3853,"ĠReturn":3854,"ĠSing":3855,"Ġunit":3856,"Ġrespectively":3857,"langle":3858,"soft":3859,"dec":3860,"Ġpage":3861,"*/":3862,"atory":3863,"Ġradio":3864,"ĠArch":3865,"appa":3866,"ele":3867,"ĠNot":3868,"ĠMet":3869,"ria":3870,"Ġanalysis":3871,"Ġconstant":3872,"agon":3873,"Ġadditional":3874,"ename":3875,"ĠTV":3876,"static":3877,"Ġnormal":3878,"Head":3879,"dt":3880,"ĠMat":3881,"estival":3882,"Ġformed":3883,"Ġbeliev":3884,"Film":3885,"Ġincludes":3886,"flow":3887,"Phi":3888,"ictor":3889,"CE":3890,"Ġmultiple":3891,"1989":3892,"Source":3893,"SP":3894,"Ġoccur":3895,"46":3896,"ĠDo":3897,"host":3898,"Ġhard":3899,"otimes":3900,"ĠAfrican":3901,"Ã¤":3902,"ĠGreen":3903,"Ġtemper":3904,"Ġaccept":3905,"ĠInstitute":3906,"Ġstage":3907,"Ġexecut":3908,"}),":3909,".\\":3910,"Ġcast":3911,"asketball":3912,"olit":3913,"Ġdate":3914,"Ġwife":3915,"ĠCath":3916,"Oper":3917,"Ġgr":3918,"Ġfounded":3919,"Ġfire":3920,"ĠDepartment":3921,"Ġfootballers":3922,"icial":3923,"rey":3924,"case":3925,".$":3926,"Ġcondition":3927,"place":3928,"Ġrelated":3929,"Ġquest":3930,"ein":3931,"come":3932,"ids":3933,"1988":3934,"ĠJack":3935,"Ġleading":3936,"Ġstd":3937,"ĠHistor":3938,"ĠPress":3939,"ĠBay":3940,"elling":3941,"igation":3942,"Ġelected":3943,"eed":3944,">(":3945,"Ġspecific":3946,"Ġsatisf":3947,"Ġpotential":3948,"Ġmedia":3949,"ocation":3950,"height":3951,"ĠMiss":3952,"Ġremov":3953,"Ġentire":3954,"Ġgoal":3955,"verse":3956,"Ġcentral":3957,"uated":3958,"query":3959,"sf":3960,"mbox":3961,"Ġpress":3962,"43":3963,"Ġviol":3964,"Ġfront":3965,"Style":3966,"Ġaddress":3967,"ĠAngel":3968,"Ġtoo":3969,"Ġappeared":3970,"Instance":3971,"igger":3972,"quare":3973,"Dec":3974,"500":3975,"ributes":3976,"unt":3977,"Ġdecl":3978,"rated":3979,"ĠSub":3980,"Ġmodule":3981,"Ġconduct":3982,"button":3983,"Ġwhose":3984,"Ġscal":3985,"background":3986,"Ġlik":3987,"Ġemb":3988,"acity":3989,"citep":3990,"ĠVol":3991,"dr":3992,"ores":3993,"Ġdegree":3994,"aring":3995,"pite":3996,"returns":3997,"ĠJapanese":3998,"Ġpur":3999,"Ġboolean":4000,"Ġadminist":4001,"sin":4002,"Ġappointed":4003,"Ġrace":4004,"Util":4005,"Ġqual":4006,"Ġactive":4007,"ĠTur":4008,"ĠSy":4009,"Override":4010,"Ġ(\"":4011,"ailed":4012,"ĠBest":4013,"prop":4014,"sey":4015,"ada":4016,"Null":4017,"len":4018,"No":4019,"Ġalthough":4020,"core":4021,"ĠSince":4022,"Ġrow":4023,"ĠRecords":4024,"bb":4025,"Ðµ":4026,"Ġwhether":4027,"ocol":4028,"push":4029,"level":4030,"Ġheight":4031,"ederal":4032,"ĠCentral":4033,"Ġsubject":4034,"Ġoffice":4035,"Che":4036,"ĠRobert":4037,"eck":4038,"aging":4039,"book":4040,"arter":4041,"Ġmother":4042,"Ġleague":4043,"ĠRail":4044,"Ġintroduced":4045,"Ġalways":4046,"Date":4047,"sel":4048,"model":4049,"den":4050,"ĠAlex":4051,"Ġalumni":4052,"ios":4053,"Ġtransfer":4054,"Ġassist":4055,"izer":4056,"Function":4057,"ithub":4058,"uns":4059,"ĠTex":4060,"Ext":4061,"package":4062,"Ġver":4063,"1987":4064,"Ġinf":4065,"ĠGrand":4066,"Ġfields":4067,"Ġbetter":4068,"Ġbo":4069,"Fr":4070,"ĠNULL":4071,"amily":4072,"subset":4073,"ĠMuseum":4074,"which":4075,"Ġsrc":4076,"Mem":4077,"Ġindependent":4078,"Act":4079,"Ġfar":4080,"eline":4081,"Ġclosed":4082,"under":4083,"ouch":4084,"Ġtour":4085,"Ġphase":4086,"ensuremath":4087,"ĠAfrica":4088,"ĠAcademy":4089,"OP":4090,"ĠThomas":4091,"ĠSl":4092,"cel":4093,"nonumber":4094,"Ġmodern":4095,"tx":4096,"Ġbox":4097,"range":4098,"Ġlocation":4099,"Ġvict":4100,"server":4101,"ĠSal":4102,"Ġoperation":4103,"Ġhealth":4104,"ĠSo":4105,"Ġhimself":4106,"08":4107,"Ġsoft":4108,"oment":4109,"AG":4110,"Ġpay":4111,"enced":4112,"sing":4113,"Child":4114,"Ġapproach":4115,"=\"+":4116,"rish":4117,"ĠRussian":4118,"ournament":4119,"ises":4120,"ĠMac":4121,"thlet":4122,"Ġwhite":4123,"ĠMad":4124,"Ġrather":4125,"Bar":4126,"Ġrespons":4127,"Te":4128,"ĠItalian":4129,"Ġdepend":4130,"Ġrock":4131,"Ġtreat":4132,"display":4133,"})$":4134,"ĠCong":4135,"ĠGold":4136,"abla":4137,"SC":4138,"ĠMer":4139,"hi":4140,"ĠLeg":4141,".)":4142,"Ġscale":4143,"ĠCons":4144,"Ġacqu":4145,"Ġpositive":4146,"ĠSummer":4147,"arts":4148,"rip":4149,"Ġcompanies":4150,"IR":4151,"Ġpast":4152,"Ġanim":4153,"Ġ-->":4154,"YPE":4155,"cor":4156,"Ġcut":4157,"Ġclos":4158,"ros":4159,"Ġchanges":4160,"Ġcorresponding":4161,"Default":4162,"Ġaccording":4163,"Ġcontinu":4164,"Attribute":4165,"ĠOlympics":4166,"otes":4167,"Ġpack":4168,"ĠUK":4169,"ĠRad":4170,"ĠScott":4171,"textit":4172,"ena":4173,"edy":4174,"Ġsound":4175,"ĠWestern":4176,"Ġdone":4177,"ona":4178,"page":4179,"Ġbehav":4180,"Ġmarket":4181,"Ġschools":4182,"Ġmove":4183,"rief":4184,"Ġprint":4185,"Ġfollowed":4186,"Ġguitar":4187,"ĠLet":4188,"ĠFootball":4189,"cap":4190,"Ġobtain":4191,"Line":4192,"Ġstep":4193,"ĠUp":4194,"Ġdouble":4195,"Ġbirth":4196,"Ġcandid":4197,"});":4198,"Ġsimple":4199,"ĠJew":4200,"HT":4201,"Ġneigh":4202,"ĠLem":4203,"ĠFilm":4204,"Ġdefine":4205,"ĠZeal":4206,"Ġcurrently":4207,"ario":4208,"Ġparts":4209,"nabla":4210,"ptr":4211,"dir":4212,"Ġaud":4213,"ĉĠĠĠĠĠĠĠ":4214,"\\!":4215,"Ġselected":4216,"ĠYear":4217,"There":4218,"Ġstop":4219,"1986":4220,"Builder":4221,"anced":4222,"Sup":4223,"lood":4224,"Ġsolution":4225,"Image":4226,"github":4227,"Ġfuture":4228,"Equal":4229,"Ġplaying":4230,"Ġprop":4231,"Ġtro":4232,"Ġhous":4233,"null":4234,"ĠLand":4235,"Ġcustom":4236,"ĠZealand":4237,"ĠCharles":4238,"1984":4239,"Handler":4240,"77":4241,"Ġgive":4242,"Ġwrite":4243,"kappa":4244,"Fl":4245,"Ġmonths":4246,"Ġrights":4247,"erve":4248,"parent":4249,"Ġcomplete":4250,"igen":4251,"ĠVirgin":4252,"85":4253,"oul":4254,"Sigma":4255,"Ġnames":4256,"obj":4257,"ba":4258,"Ġtypes":4259,"ĠRef":4260,"ĠObject":4261,"adata":4262,"ĠĠĠĠĠĠĠĠĠĠĠĠĠĠĠĠĠ":4263,"foot":4264,"Ġeight":4265,"ĠCarol":4266,"Ġitem":4267,"request":4268,"ĠLouis":4269,"Ġclear":4270,"arily":4271,"69":4272,"User":4273,"iform":4274,"google":4275,"target":4276,"args":4277,"char":4278,"ĠMag":4279,"azine":4280,"Ġoption":4281,"\\%":4282,"plicit":4283,"gl":4284,"41":4285,"Ġsurface":4286,"option":4287,"MS":4288,"oms":4289,"izes":4290,"ĠMore":4291,"Ġsports":4292,"Rep":4293,"client":4294,"Ġlargest":4295,"OO":4296,"Ġinj":4297,"ensor":4298,"reland":4299,"iting":4300,"ĠDemocr":4301,"Ġforce":4302,"ĠMinister":4303,"Ġdesigned":4304,"gt":4305,"Ġhor":4306,"ircraft":4307,"Ġmulti":4308,"plies":4309,"Ġformat":4310,"Ġbar":4311,"Ġsets":4312,"Content":4313,"astic":4314,"ĠWil":4315,"/\\":4316,"Ġproposed":4317,"1985":4318,"ping":4319,"pc":4320,"Ġcampaign":4321,"Ġnatural":4322,"Ġlarger":4323,"Ġinternal":4324,"ĠMichael":4325,"Ġprior":4326,"ĠChristian":4327,"hers":4328,"encies":4329,"Ġliving":4330,"Ġcertain":4331,"ĠBook":4332,"=\"#":4333,"\"),":4334,"Ġurl":4335,"Wh":4336,"stream":4337,"Run":4338,"Ð¸":4339,"ura":4340,"Ġoperator":4341,"Ġdaughter":4342,"lease":4343,"ĠTexas":4344,"uct":4345,"Ap":4346,"ua":4347,"02":4348,"\\|":4349,"ebug":4350,"Ġsearch":4351,"ams":4352,"ĠTra":4353,"Ġdraw":4354,"Ġcoach":4355,"adding":4356,"Char":4357,"Ġfight":4358,"ĠKore":4359,"ican":4360,"ĠGreat":4361,"07":4362,"heast":4363,"ĠĠĠĠĠĠĠĠĠĠĠĠĠĠ":4364,"ulate":4365,"Ġcharacters":4366,"vis":4367,"ĠEar":4368,"olf":4369,"ĠChinese":4370,"Ġearli":4371,"usical":4372,"Ġfinished":4373,"ĠTom":4374,"ugin":4375,"Ġsche":4376,"Ġepisode":4377,"Ġsubsequ":4378,"atre":4379,"Ġlinear":4380,"errit":4381,"rate":4382,"Ġboard":4383,"Ġenvironment":4384,"bo":4385,"Ġunits":4386,"Ġmount":4387,"first":4388,"Ġmight":4389,"ube":4390,"antic":4391,"EL":4392,"oring":4393,"ĠWhite":4394,"Ġcopy":4395,"edd":4396,"irm":4397,"Ġglobal":4398,"Ġstations":4399,"Ġmedal":4400,"yth":4401,"]);":4402,"language":4403,"Ġprimary":4404,"ĠPublic":4405,"Ġallowed":4406,"Version":4407,"Ġbuildings":4408,"TD":4409,"Ġdram":4410,"Ġmunicip":4411,"Ġprinc":4412,"Ġgave":4413,"Ġconstit":4414,"road":4415,"actions":4416,"endif":4417,"Ġsupported":4418,"ospital":4419,"Ġstream":4420,"Ġsil":4421,"rael":4422,"Ġ((":4423,"ĠSur":4424,"Ġsequence":4425,"Can":4426,"open":4427,"ĠIN":4428,"FC":4429,"Ġrat":4430,"abs":4431,"Ġdiscover":4432,"long":4433,"Resource":4434,"Buffer":4435,"03":4436,"Back":4437,"ilies":4438,"1950":4439,"Ġalmost":4440,"Start":4441,"Ġrandom":4442,":\"":4443,"Ġben":4444,"final":4445,"cho":4446,"ducation":4447,"cos":4448,"append":4449,"But":4450,"icult":4451,"prime":4452,"FL":4453,"Ġforces":4454,"Ġsom":4455,"Ġexists":4456,"Ġupon":4457,"oto":4458,"ĠDirect":4459,"Ġdistance":4460,"1983":4461,"Ġpassed":4462,"Ġplaces":4463,"ias":4464,"isl":4465,"ĠĠĠĠĠĠĠĠĠĠĠĠĠĠĠĠĠĠĠĠĠĠĠĠĠĠĠĠĠĠĠ":4466,"grad":4467,"Ġequation":4468,"Ġreplaced":4469,"Ġusually":4470,"Ġdynam":4471,"erman":4472,"det":4473,"ĠDay":4474,"Ġoperations":4475,"Ġtransl":4476,"Ġtransform":4477,"Ġspecified":4478,"\").":4479,"ocks":4480,"Ġthroughout":4481,"ĠCatholic":4482,"stant":4483,"Row":4484,"lib":4485,"98":4486,"btn":4487,"Ġkilled":4488,"number":4489,"hest":4490,"aud":4491,"ĠDan":4492,"Ġinvolved":4493,"ds":4494,"Ġfav":4495,"more":4496,"Ġuses":4497,"itting":4498,"km":4499,"06":4500,"css":4501,"nected":4502,"duce":4503,"}}{":4504,"ĠWhile":4505,"Cur":4506,"Web":4507,"Ġinstall":4508,"Ġrunning":4509,"overs":4510,"ĠTor":4511,"arian":4512,"Ġbooks":4513,"last":4514,"Ġnecess":4515,"Ġjud":4516,"Block":4517,"CD":4518,"rum":4519,"people":4520,"Ġvector":4521,"namespace":4522,"ky":4523,"Ġcho":4524,"Ġitself":4525,"Ġprotected":4526,"OM":4527,"Ġhapp":4528,"Ġcomponent":4529,"97":4530,"dots":4531,"ĠParis":4532,"Ġwriter":4533,"BA":4534,"1982":4535,"Le":4536,"ĠDis":4537,"UE":4538,"idents":4539,"ĠFrancis":4540,"Ġregard":4541,"Point":4542,"ita":4543,"elt":4544,"java":4545,"Ġjournal":4546,"apter":4547,"rics":4548,"Ġvers":4549,"merc":4550,"Collection":4551,"unity":4552,"Be":4553,"ĠÂ":4554,"ĠBill":4555,"ĠJose":4556,"Number":4557,"ĠSuper":4558,"ĠLat":4559,"dist":4560,"TH":4561,"apping":4562,"ĠWeb":4563,"Ġfemale":4564,"Ġkeep":4565,"Ġdam":4566,"Ġobjects":4567,"Ġbr":4568,"oviet":4569,"bound":4570,"aval":4571,"Equals":4572,"Component":4573,"++)":4574,"iler":4575,"eger":4576,"04":4577,"refix":4578,"ĠBen":4579,"Ġrelig":4580,"iled":4581,"arned":4582,"ĠSome":4583,"ands":4584,"ĠSpec":4585,"Ġartists":4586,"small":4587,"TP":4588,"Ġtit":4589,"rl":4590,"strong":4591,"uan":4592,"ooth":4593,"idae":4594,"oding":4595,"ockey":4596,"ERT":4597,"well":4598,"attr":4599,"ATE":4600,"olve":4601,"Ġtaking":4602,"idden":4603,"][":4604,"remove":4605,"Per":4606,"Ġren":4607,"FI":4608,"Ġchanged":4609,"EE":4610,"ĠOther":4611,"Med":4612,"ĠRegister":4613,"widet":4614,"write":4615,"ialog":4616,"porary":4617,";\\":4618,"Ġseven":4619,"ĠService":4620,"ĠSmith":4621,"alax":4622,"Ġoriginally":4623,"1979":4624,"oma":4625,"\\[":4626,"iences":4627,"Ġrelationship":4628,"png":4629,"Ġreason":4630,"Ġpain":4631,"uate":4632,"ĠPeter":4633,"Ġzero":4634,"Ġlisted":4635,"pass":4636,"Ġstudies":4637,"ication":4638,"Ġequal":4639,"Ġreturns":4640,"ishop":4641,"Ġcannot":4642,"Ġfriend":4643,"ĠPri":4644,"Mar":4645,"Ġmissing":4646,"ĠFore":4647,"Ġmode":4648,">&":4649,"ĠMel":4650,"sg":4651,"rial":4652,"ĠWork":4653,"Part":4654,"09":4655,"ĠFlor":4656,"Ġoutside":4657,"Ġamount":4658,"ĠVictor":4659,"dot":4660,"App":4661,"ĠOut":4662,"Ġwriting":4663,"ypes":4664,"razil":4665,"arser":4666,"Ġjob":4667,"Ġdeal":4668,"63":4669,"olk":4670,"afe":4671,"Met":4672,"json":4673,"local":4674,"Ġimprov":4675,"ĠOrder":4676,"ĠEv":4677,"Ġexhib":4678,"Ġcivil":4679,"uint":4680,"Ġarguments":4681,"property":4682,"Ġstated":4683,"track":4684,"58":4685,"ĠFrank":4686,"Ġpresented":4687,"ĠHistory":4688,"ĠSpanish":4689,"Ġpers":4690,"igg":4691,"za":4692,"Ġpreviously":4693,"igan":4694,"mes":4695,"iginal":4696,"ingu":4697,"atively":4698,"Fig":4699,"Ġobj":4700,"ĠLos":4701,"arp":4702,"ĠJust":4703,"ĠForce":4704,"ĠRichard":4705,"Ġvoc":4706,"itude":4707,"Ġeval":4708,"ĠDel":4709,"ĠMass":4710,"ĠSecond":4711,"icago":4712,"Length":4713,"57":4714,"widetilde":4715,"Ġinstit":4716,"Ġfall":4717,"fill":4718,"Ġste":4719,"istan":4720,"olar":4721,"Ag":4722,"Load":4723,"1981":4724,"quot":4725,"omorph":4726,"Ġlittle":4727,"Mat":4728,"ĠIreland":4729,"ributions":4730,"Ġpolitician":4731,"ĠSant":4732,"inst":4733,"ĠGeorg":4734,"Ġstre":4735,"ano":4736,"find":4737,"orial":4738,"Ġchannel":4739,"Ġdirectly":4740,"Ġmechan":4741,"Ġdrop":4742,"Filter":4743,"Ġeventually":4744,"icol":4745,"Ġ[]":4746,"tings":4747,"izations":4748,"Factory":4749,"Ġobserved":4750,"unch":4751,"Ġreference":4752,"62":4753,"utch":4754,"Ġtransport":4755,"Äģ":4756,"1972":4757,"Ġcountries":4758,"ĠLake":4759,"onic":4760,"Ġenough":4761,"ĠHill":4762,"ĠRem":4763,"First":4764,"nel":4765,"Ġcourt":4766,"lv":4767,"illa":4768,"ĠFound":4769,";\"":4770,"}-":4771,"Window":4772,"ĠRob":4773,"ĠPenn":4774,"Ġexperiment":4775,"Ġremained":4776,"Ġtask":4777,"Ġsen":4778,"ye":4779,"ufact":4780,"Ġclient":4781,"Ġpolice":4782,"Early":4783,"scale":4784,"INT":4785,"One":4786,"Ġ{@":4787,"ĠCamp":4788,"Ġgold":4789,"Ã¨":4790,"Gener":4791,"skip":4792,"Ġupdate":4793,"Ġpair":4794,"Ġestablishments":4795,"Ġorigin":4796,"ramework":4797,"inct":4798,"ilton":4799,"ĠArg":4800,"Ġpaint":4801,"yles":4802,"Ġnight":4803,"Ġequival":4804,"raction":4805,"ollowing":4806,"Ġtree":4807,"ĠHenry":4808,"idget":4809,"Ġprovides":4810,"require":4811,"Ġexcept":4812,"Ġreve":4813,"Ġdirection":4814,"{-":4815,"pecially":4816,"Ġgoing":4817,"ether":4818,"Ġfeatured":4819,"Par":4820,"ips":4821,"irl":4822,"1976":4823,"isions":4824,"Ġcome":4825,"ella":4826,"ĠRock":4827,"Ġproof":4828,"Ġfixed":4829,"1978":4830,"Ġuns":4831,"CON":4832,"ĠWomen":4833,"Ġmatches":4834,"Ġiter":4835,"Ġquery":4836,"Action":4837,"CL":4838,"Ġplant":4839,"ĠEmp":4840,"Ġawarded":4841,"Ã³n":4842,"Ġaircraft":4843,"Ġrepresented":4844,"Ġ&=":4845,"Ġreached":4846,"61":4847,"Ġeffort":4848,"Pre":4849,"Ġscreen":4850,"Ġtakes":4851,"Ð½":4852,"centering":4853,"Ġuint":4854,"1974":4855,"ĠOper":4856,"Ġthrows":4857,"IV":4858,")]":4859,"Create":4860,"Ġdestroy":4861,"Ġeffects":4862,"Ġ\"\"\"":4863,"(_":4864,"ledge":4865,"ki":4866,"ĠSwed":4867,"header":4868,"ĠGod":4869,"ĠFr":4870,"Ġcompar":4871,"src":4872,"orpor":4873,"Ġprote":4874,"ĠCast":4875,"ĠSection":4876,"Ġfourth":4877,"ils":4878,"Ġrot":4879,"ells":4880,"Ġdig":4881,"het":4882,"achine":4883,"ĠVirginia":4884,"ously":4885,"Prov":4886,"hedul":4887,"xml":4888,"ulture":4889,"ĠScience":4890,"mercial":4891,";&":4892,"=\"../../../../":4893,"cond":4894,"Ġword":4895,"ERR":4896,"ometimes":4897,"Em":4898,"areer":4899,"ĠCommission":4900,"Ġfactor":4901,"Ġalgorithm":4902,"iÄ":4903,"Ġpolicy":4904,"Ġartist":4905,"87":4906,"ĠEnd":4907,"imensional":4908,"ĠChampionships":4909,"ĠAccording":4910,"Notes":4911,"ĠThat":4912,"ĠVer":4913,"Ġweight":4914,"ien":4915,"Ġfailed":4916,"zeta":4917,"Ġplaced":4918,"ĠBur":4919,"eds":4920,"1977":4921,"Ġsaw":4922,"Ġmoment":4923,"Ġentry":4924,"1968":4925,"1975":4926,"Ġesc":4927,"Ġdifficult":4928,"azz":4929,"Ġruns":4930,"Ġgot":4931,"mt":4932,"Ġscored":4933,"column":4934,"Ġcourse":4935,"Co":4936,"RA":4937,"php":4938,"ades":4939,"Ġstars":4940,"select":4941,"\\{":4942,"TV":4943,"eve":4944,"Ġsus":4945,"ĠScot":4946,"Ġconcern":4947,"Ġbehind":4948,"ĠTechn":4949,"Ġcred":4950,"rowser":4951,"Ġextends":4952,"uid":4953,"Ġ]":4954,"Ġkind":4955,"ĠBase":4956,"Ġresource":4957,"ao":4958,"udd":4959,"Ġreading":4960,"reme":4961,"Ġstaff":4962,"expected":4963,"anning":4964,"ĠMus":4965,"Ġsymmet":4966,"Ġhousehold":4967,"font":4968,"Width":4969,"Ġcompetition":4970,"rupt":4971,"ĠOpen":4972,"ĠMem":4973,"Ġbroadcast":4974,"rypt":4975,"ĠMexico":4976,"resh":4977,"ugby":4978,"Ġstructures":4979,"bon":4980,"Format":4981,"}+":4982,"reater":4983,"Ġlen":4984,"aled":4985,"ĠItaly":4986,"ĠIll":4987,"bottom":4988,"Ġexpand":4989,"plications":4990,"(&":4991,"Ġsinger":4992,"Ġimmedi":4993,"ĠForm":4994,"Ġtherefore":4995,"Ġoccup":4996,"1973":4997,"standing":4998,"Ġcritic":4999,"Ġcatch":5000,"Ġtowards":5001,"Ġupper":5002,"Ġstudied":5003,"Ġsex":5004,"à¤":5005,"ÑĤ":5006,"king":5007,"Ġissue":5008,"Ġtournament":5009,"anned":5010,"Ġincrease":5011,"Ġsch":5012,"Ġcontinue":5013,"angle":5014,"Ġadapt":5015,"note":5016,"yr":5017,"Ġexact":5018,"ĠCur":5019,"osen":5020,"ĠEq":5021,"Ġpattern":5022,"Ġmakes":5023,"Ġmix":5024,"ĠKh":5025,"True":5026,"ĠArts":5027,"Ġtim":5028,"gebra":5029,"Ġ;":5030,"ĠTime":5031,"ĠAtl":5032,"Aut":5033,"pling":5034,"process":5035,"ongs":5036,"Ġtax":5037,"Ġfinite":5038,"Ġissues":5039,";</":5040,"win":5041,"96":5042,"ĠNavy":5043,"vention":5044,"ocket":5045,"post":5046,"_.":5047,"ĠIsrael":5048,"Ġ...":5049,"Ġmaint":5050,"ares":5051,"Ġful":5052,"uty":5053,"Ġgives":5054,"offset":5055,"SI":5056,"isation":5057,"ĠSaint":5058,"Ġ->":5059,"ĠAngeles":5060,"ĠChicago":5061,"update":5062,"Ġmaximum":5063,"Ġespecially":5064,"Ġgas":5065,"ĠIts":5066,"Ġcollege":5067,"Ġapplication":5068,"private":5069,"Ġsources":5070,"She":5071,"oys":5072,"Ġbasis":5073,"\\]":5074,"Ġaltern":5075,"Hel":5076,"Ġbur":5077,"Ġcoordin":5078,"ih":5079,"Ġinterface":5080,"ifying":5081,"Ġbuff":5082,"ansion":5083,"Ġnumbers":5084,"stract":5085,"Ġundefined":5086,"anks":5087,"lock":5088,"Desc":5089,"1971":5090,"fe":5091,"Ġautom":5092,"URL":5093,"Ġrule":5094,"}]":5095,"filter":5096,"Ġthink":5097,"Ġbasketball":5098,"Ġthought":5099,"PRO":5100,"1940":5101,"exports":5102,"Label":5103,"ĠFinal":5104,"Ġadj":5105,"uke":5106,"Ġer":5107,"ĠCommittee":5108,"Ġprem":5109,"tabular":5110,"Ġimm":5111,"Ġunique":5112,"Ġcapital":5113,"SU":5114,"English":5115,"Ġseg":5116,"Ġord":5117,"ette":5118,"Psi":5119,"icture":5120,"1969":5121,"When":5122,"Ġbeginning":5123,"pret":5124,"////////////////":5125,"gener":5126,"SD":5127,"Work":5128,"Ġmanager":5129,"AME":5130,"ĠPo":5131,"retary":5132,"Ġscore":5133,"ĠCr":5134,"status":5135,"1945":5136,"Ġconvert":5137,"split":5138,"sole":5139,"Ġdoc":5140,"Ġagre":5141,"Ġmonth":5142,"PC":5143,"Ġproblems":5144,"[\"":5145,"Ġedge":5146,"ola":5147,"ĠMo":5148,"ransp":5149,"loor":5150,"Ġwords":5151,"Ġmargin":5152,"ĠCO":5153,"vels":5154,"Rem":5155,"inding":5156,"Ġtemperature":5157,"Åį":5158,"break":5159,"Ġdim":5160,"ĉĠĠĠĠĠĠĠĠĠĠĠ":5161,"iano":5162,"ĠDen":5163,"ĠParliament":5164,"Ġroute":5165,"Ġcompared":5166,"ĠBrown":5167,"Ġleader":5168,"weight":5169,"oute":5170,"ÑĢ":5171,"itors":5172,"Ġoffset":5173,"Ġwriters":5174,"ĠFestival":5175,"Ġax":5176,"Ġhit":5177,"ĠHow":5178,"Ġchall":5179,"ĠAssembly":5180,"Ġdeep":5181,"Ġmention":5182,"Pop":5183,"eek":5184,"Ġveh":5185,"Ġconnection":5186,"Ġfilter":5187,"command":5188,")=\\":5189,"JS":5190,"ĠFlorida":5191,"Ġdecided":5192,"Ġdemon":5193,"Ġball":5194,"Output":5195,"abit":5196,"Ġactress":5197,"ancial":5198,"HE":5199,"ĠTheorem":5200,"ĠTwo":5201,"iro":5202,"INE":5203,"Ġlonger":5204,"Ġsample":5205,"Ġscient":5206,"}=\\":5207,"ĠCongress":5208,"iana":5209,"adow":5210,"OD":5211,"Ġculture":5212,">>":5213,"Ġvocals":5214,"Ġneeded":5215,"Ġeditor":5216,"atriate":5217,"BU":5218,"ĠHel":5219,"ĠGovernment":5220,"mid":5221,"star":5222,"Ġindustry":5223,"ĠResearch":5224,"Ġpredict":5225,"ĠĠĠĠĠĠĠĠĊ":5226,"59":5227,"Ġtool":5228,")}\\":5229,"Ġmovement":5230,"tag":5231,"eft":5232,"1930":5233,"ĠOver":5234,"Ġapproximately":5235,"ometry":5236,"Ġgenerally":5237,"Ġfamilies":5238,"mission":5239,"1967":5240,"Top":5241,"Ġhighest":5242,"ABLE":5243,"Ġsmaller":5244,"ĠPan":5245,"El":5246,"undle":5247,"Ġsetting":5248,"PP":5249,"Ġpeak":5250,"ato":5251,"iger":5252,"IF":5253,"ĠAnn":5254,"rea":5255,"ĠCarolina":5256,"Ġrepresentation":5257,"nce":5258,"kit":5259,"Ġargs":5260,"Ġsymbol":5261,"Ġrelative":5262,"po":5263,"Career":5264,"adium":5265,"Page":5266,"ĠRussia":5267,"allery":5268,"ĠBo":5269,"ĠWales":5270,"anda":5271,"Ġexpression":5272,"400":5273,"Ġmur":5274,"$)":5275,"Valid":5276,"icrosoft":5277,"ved":5278,"ĠKn":5279,"Ġss":5280,"Ġstore":5281,"ĠKar":5282,"ĠStar":5283,"TYPE":5284,"Ġgrand":5285,"Ġlearning":5286,"Dev":5287,"(-":5288,"Person":5289,"Listener":5290,"Ġbit":5291,"num":5292,"Ġpercent":5293,"ĠSoviet":5294,"ĠAv":5295,"tool":5296,"Ġremains":5297,"Ġplays":5298,"Ġtravel":5299,"rang":5300,"only":5301,"ĠProvince":5302,"Ġfif":5303,"ĠCD":5304,"params":5305,"Ġdetails":5306,"ĠType":5307,"Port":5308,"Ġpersonal":5309,"Ġearlier":5310,"Ġapplied":5311,"unched":5312,"format":5313,"Ġdefinition":5314,"ĠFin":5315,")</":5316,"Ġallows":5317,"ying":5318,"Ġcorrect":5319,"greg":5320,"Since":5321,"elopment":5322,"Ġbring":5323,"Ġgenerated":5324,"pdf":5325,"Ġdeb":5326,"Ġbecomes":5327,"Ġhy":5328,"=\"../":5329,"ko":5330,"89":5331,"Ġholds":5332,"Track":5333,"Ġactor":5334,"Ġstarting":5335,"Sw":5336,"ĠAPI":5337,"Check":5338,"IO":5339,"obile":5340,"Ġdecision":5341,"Ġpractice":5342,"Container":5343,"ayers":5344,"Ġconcept":5345,"Cache":5346,"}^\\":5347,"Ġdivision":5348,"Init":5349,"RL":5350,"cup":5351,"Const":5352,"ora":5353,"Ġregister":5354,"TO":5355,")^{":5356,"ĠNone":5357,"Ġfood":5358,"ĠMur":5359,"Ġcomment":5360,"container":5361,"1964":5362,"Ġlimited":5363,"Ġserver":5364,"iller":5365,"ĠBrazil":5366,"lam":5367,"Ġremove":5368,"Ġroot":5369,"Mode":5370,"Ġess":5371,"aven":5372,"Ġplatform":5373,"Ġcop":5374,"51":5375,"}_\\":5376,"Ġmemory":5377,"ĠMa":5378,"Ã§":5379,"ĠAwards":5380,"ĠEX":5381,"ĠKe":5382,".~":5383,"Ġavoid":5384,"Ġrestrict":5385,"Ġminor":5386,"ĠLong":5387,"Box":5388,"ĠHistoric":5389,"Ġphysical":5390,"Ġdu":5391,"Ġunc":5392,"([":5393,"Dr":5394,"ĠSeries":5395,"Ġpurch":5396,"Min":5397,"Ġbrought":5398,"ĠField":5399,"Ab":5400,"Ġtransition":5401,"otion":5402,"ental":5403,"Ġtrain":5404,"Ġnuc":5405,"ĠTour":5406,"war":5407,"Ġincreasing":5408,"ĠOh":5409,"ĠSee":5410,"ĠDec":5411,"isk":5412,"Ġseasons":5413,"Films":5414,"Ġclasses":5415,"Ġsn":5416,"ĠOld":5417,"ĠPet":5418,"Vert":5419,"54":5420,"Ġbank":5421,"ething":5422,"Ġpark":5423,"SO":5424,"Ġgalax":5425,"Ġemer":5426,"that":5427,"Ġwide":5428,"Ġded":5429,"Ġspin":5430,"Command":5431,"ĠMil":5432,"Ġsoon":5433,"Ġmanufact":5434,"yan":5435,"Ġimages":5436,"ĠReturns":5437,"entry":5438,"1966":5439,"Ġlatter":5440,"example":5441,"press":5442,"Ġspeed":5443,"Tem":5444,"Us":5445,"otal":5446,"1965":5447,"Offset":5448,"Ġwinning":5449,"irit":5450,"Ġeffective":5451,"NO":5452,"writ":5453,"description":5454,"ny":5455,"Ġforms":5456,"Ġedition":5457,"52":5458,"Ġinside":5459,"Sim":5460,"TC":5461,"ribe":5462,"thm":5463,"Ġdemonstr":5464,"widehat":5465,"Other":5466,"dat":5467,"Ġorganization":5468,"Ġnoted":5469,"ĠSil":5470,"Ġlack":5471,"During":5472,"ĠAtt":5473,"ĠMain":5474,"}\\,":5475,"{}":5476,"Ġquestion":5477,"acter":5478,"ĠDet":5479,"Ġappears":5480,"bed":5481,"Ġcensus":5482,"Ġrailway":5483,"86":5484,"erved":5485,"android":5486,"{{\\":5487,"56":5488,"imary":5489,"300":5490,"Ġscen":5491,"then":5492,"Ġcele":5493,"Ġfarm":5494,"Range":5495,"mail":5496,"Ġscience":5497,"{(":5498,"icated":5499,"ima":5500,"Ġyet":5501,"Ġlove":5502,"aught":5503,"1920":5504,"Ġlikely":5505,"Ġang":5506,"Ġchart":5507,"empty":5508,"Ġchampionship":5509,"ĠEmpire":5510,"Ġremaining":5511,"Ġriver":5512,"Json":5513,"ĠMartin":5514,"Ġvirtual":5515,"ali":5516,"Ġattended":5517,"Ġinvestig":5518,"dep":5519,"appro":5520,"cdots":5521,"Ġboundary":5522,"ĠIrish":5523,"rapper":5524,"vas":5525,"DF":5526,"BS":5527,"Ġargument":5528,"unit":5529,"di":5530,"Ġtraditional":5531,"ĠLiber":5532,"Ġanaly":5533,"pat":5534,"gn":5535,"\"]":5536,"Ġmiddle":5537,".âĢĿ":5538,"Ġface":5539,"EM":5540,"Year":5541,"Ġmanagement":5542,"Case":5543,"ĠBoard":5544,"Ġhot":5545,"ĠĠĠĠĠĠĠĠĠĠĠĠĊ":5546,"asks":5547,"ĠMos":5548,"ĠPac":5549,"}/":5550,"main":5551,"Ġstri":5552,"ĠSir":5553,"Fe":5554,"Ġoverall":5555,"CA":5556,"Ġnone":5557,"Ġnative":5558,"Men":5559,"ĠThus":5560,"Ġincreased":5561,"ĠEr":5562,"ĠNews":5563,"Interface":5564,"ĠUnder":5565,"Ġquantum":5566,"float":5567,"Ġcomponents":5568,"usion":5569,"ĠNorthern":5570,"Ġselection":5571,"Ġremain":5572,"Ġproducer":5573,"Ġmoney":5574,"edge":5575,"ĠArray":5576,"Ġaccur":5577,"sylv":5578,"ĠLine":5579,"Ġnews":5580,"wan":5581,"Ġunion":5582,"Ġwhole":5583,"ĉĉĉĉĉĉĉĉ":5584,"ĠCam":5585,"Ġevidence":5586,"Ġselect":5587,"ĠBas":5588,"ycle":5589,"53":5590,"ctx":5591,"Ġcoast":5592,"output":5593,"ĠRh":5594,"Ġsouthern":5595,"Ġextended":5596,"ynch":5597,"Column":5598,"Ġended":5599,"Ġstudio":5600,"Ġnorthern":5601,"ĠApp":5602,"})\\":5603,"eloc":5604,"ĠAlthough":5605,"ĠHon":5606,"PS":5607,"ussian":5608,"Max":5609,"else":5610,"Ġshot":5611,"Ġelectron":5612,",-":5613,"Ġsignal":5614,"olved":5615,"Ġconnect":5616,"Ġframe":5617,"ees":5618,"equiv":5619,"Ġcharg":5620,"Return":5621,"Ġexisting":5622,"Link":5623,"78":5624,"very":5625,"Ġsoftware":5626,"Ġadopt":5627,"sylvania":5628,"ĠBattle":5629,"ja":5630,"lemma":5631,"ĠTim":5632,"ati":5633,"Types":5634,"aka":5635,"Ġfill":5636,"ĠJoseph":5637,"ĠFort":5638,"Ġcaused":5639,"UM":5640,"oder":5641,"wa":5642,"Ġwoman":5643,"Callback":5644,"ql":5645,"ictionary":5646,"ader":5647,"Ġprobability":5648,"Ġconnected":5649,"Ġsens":5650,"Ġremoved":5651,"Ġking":5652,"ĠOl":5653,"omy":5654,"Ġsometimes":5655,"Ġanti":5656,"inem":5657,"scope":5658,"Ġexpress":5659,"Ġdefeated":5660,"Ġcontain":5661,"menu":5662,"').":5663,"indent":5664,"QL":5665,"qquad":5666,"ĠID":5667,"zer":5668,"Ġacadem":5669,"dated":5670,"bin":5671,"ker":5672,"Ġrules":5673,"Ġimpact":5674,"agram":5675,"Ġpen":5676,"stra":5677,"omic":5678,"ski":5679,"ĠColumb":5680,"Ġnote":5681,"Ġvolume":5682,"sort":5683,"drop":5684,"ampion":5685,"Ñģ":5686,"Ġquick":5687,"Update":5688,"Ġandroid":5689,"Ġvariable":5690,"selves":5691,"Ġcounter":5692,"real":5693,"anner":5694,"?:":5695,"Ġmusical":5696,"pop":5697,"hem":5698,"Ġassume":5699,"after":5700,"atur":5701,"iments":5702,"ĠCap":5703,"Ġspent":5704,"ervation":5705,"ĠPre":5706,"Ġeas":5707,"Ġprison":5708,"'),":5709,"romise":5710,"ĠBig":5711,"ĠEngine":5712,"ĠTimes":5713,"Ġdomin":5714,"ĠIII":5715,"Ġillust":5716,"ĠTw":5717,"ĠYoung":5718,"ansas":5719,"Ġmatter":5720,"ĠLicense":5721,"osh":5722,"Ġisland":5723,"riz":5724,"response":5725,"iÄĩ":5726,"iece":5727,"Ġtrade":5728,"Ġfinally":5729,"ĠMost":5730,"API":5731,"root":5732,"icate":5733,"Ġsingles":5734,"flict":5735,"ĠWood":5736,"John":5737,"Ġconsists":5738,"Ġcritical":5739,"Ġwood":5740,"thing":5741,"Controller":5742,"Rel":5743,"ĠProfess":5744,"cs":5745,"acher":5746,"NA":5747,"Ġcause":5748,"Ġonline":5749,"Ġsurround":5750,"Ġir":5751,"}^{(":5752,"Ġwhom":5753,"./":5754,"ĠLove":5755,"Ġequip":5756,"Ġopening":5757,"Tag":5758,"xspace":5759,"mem":5760,"Ġbehavior":5761,"^+":5762,"textwidth":5763,"isters":5764,"ĠTeam":5765,"ĠArab":5766,"ĠJo":5767,"window":5768,"Ġnewsp":5769,"iring":5770,"Ġwid":5771,"ilation":5772,"Ġcontaining":5773,"Task":5774,"clusion":5775,"Ġcharge":5776,"icks":5777,"Ġdescription":5778,"Ġrelation":5779,"Ġfont":5780,"uri":5781,"iga":5782,"Ġgoals":5783,"ĠSun":5784,"1962":5785,"Next":5786,"Ġcit":5787,"ĠFigure":5788,"ening":5789,"VER":5790,"Ev":5791,"ici":5792,"UI":5793,"Ġsolid":5794,"ouri":5795,"Ġlink":5796,"ĠFoundation":5797,"Ġlaunched":5798,"({\\":5799,"ady":5800,"Ġphil":5801,"ĠGar":5802,"ultural":5803,"ĠHot":5804,"ĠNote":5805,"mond":5806,"&=":5807,"Ġcommercial":5808,"Ġresulting":5809,"osing":5810,"ĠInc":5811,"house":5812,"ĠRo":5813,"ira":5814,"Ġinstr":5815,"elled":5816,"ĠGreek":5817,"evel":5818,"********************************":5819,"ĠSpain":5820,"}|":5821,"ĠWal":5822,"Ġregions":5823,"Ð¾Ð":5824,"Ġpoet":5825,"acement":5826,"Height":5827,"stack":5828,"plete":5829,"kins":5830,"values":5831,"hr":5832,"Configuration":5833,"1963":5834,"show":5835,"Ġhours":5836,"Ġque":5837,"Ġlevels":5838,"ova":5839,"ims":5840,"${":5841,"ĠPost":5842,"annot":5843,"Ġcrick":5844,"Ġterrit":5845,"ĠMax":5846,"rast":5847,"ĠHaw":5848,"unior":5849,"Ġapi":5850,"std":5851,"inners":5852,"ĠUk":5853,"sync":5854,"ĠEducation":5855,"Ġconfiguration":5856,"emic":5857,"ĠLin":5858,"Ġprevent":5859,"Ġmagazine":5860,"Ġmeaning":5861,"Description":5862,"Ġfa":5863,"Ġrepe":5864,"1944":5865,"ONT":5866,"Ġconstraint":5867,"gu":5868,"imin":5869,"GB":5870,"Ġrap":5871,"Ġ\\{":5872,"anged":5873,"pol":5874,"oration":5875,"parse":5876,"ĠCross":5877,"Ġowned":5878,"ĠPennsylvania":5879,"ĠFred":5880,"Sl":5881,"she":5882,"iography":5883,"Mon":5884,"âĢľ":5885,"force":5886,"ĠLife":5887,"Ġextension":5888,"Target":5889,"Ġdark":5890,"Write":5891,"template":5892,"allel":5893,"uge":5894,"ĠFe":5895,"ĉĠĠĠĠĠ":5896,"Ġadm":5897,"Ġappearance":5898,"present":5899,"Ġinterview":5900,"venue":5901,"Members":5902,"Ġempty":5903,"Ġstudent":5904,"ĠSocial":5905,"even":5906,"Ġreb":5907,"Ġforward":5908,"match":5909,"Ġgrant":5910,"olume":5911,"Nav":5912,"ĠLee":5913,"92":5914,"Ġcentre":5915,"Ġauto":5916,"Ġfiles":5917,"lers":5918,"Ġbre":5919,"Ġminutes":5920,"CR":5921,"Ġsummer":5922,"ĠHealth":5923,"Ġtag":5924,"ĠChief":5925,"Ġclassical":5926,"aria":5927,"Ġrul":5928,"ĠValley":5929,"Ġnecessary":5930,"itter":5931,"Ġdifference":5932,"Ġparticularly":5933,"ĠTem":5934,"Ġexperience":5935,"Ġcommission":5936,"Ġyield":5937,"enge":5938,"Ġtoday":5939,"PR":5940,"Ġchief":5941,"close":5942,"Ġgenus":5943,"Ġlegal":5944,"Vis":5945,"ilename":5946,"pers":5947,"Ġdomain":5948,"ĠJim":5949,"Further":5950,"Ġexec":5951,"enth":5952,"iders":5953,"Ġinitially":5954,"ipal":5955,"Ġbattle":5956,"94":5957,"ancy":5958,"olicy":5959,"should":5960,"ĠMen":5961,"linear":5962,"fs":5963,"93":5964,"ullet":5965,"ĠBank":5966,"etts":5967,"airman":5968,"Results":5969,"Ġchem":5970,"Ġsecurity":5971,"Ġdrama":5972,"bury":5973,"inet":5974,"aser":5975,"72":5976,"PO":5977,"ĠGen":5978,"Ġshape":5979,"sect":5980,"Ġpick":5981,"Ġcollabor":5982,"usband":5983,"Ġdatas":5984,"ĠHT":5985,"AF":5986,"riptor":5987,"ĠâĢĺ":5988,"Ġscope":5989,"rule":5990,"Ġactivities":5991,"Ġrecords":5992,"ĠAssert":5993,"Ġconclud":5994,"orter":5995,"Det":5996,"operat":5997,"vey":5998,"service":5999,"Ġmedical":6000,"Widget":6001,"Ġactually":6002,"rich":6003,"Ġadministr":6004,"Ġseparate":6005,"<!--":6006,"reference":6007,"instance":6008,"ested":6009,"Ġdevice":6010,"Ġscript":6011,"Ġmission":6012,"Ġnature":6013,"Ġidea":6014,"iral":6015,"Server":6016,"oston":6017,"mann":6018,":(":6019,"ĠFC":6020,"ĠLog":6021,"aya":6022,"Ġprogress":6023,"fit":6024,"ntax":6025,"91":6026,"iling":6027,"Ġ$(\\":6028,"Ġcontact":6029,"Ġhandle":6030,"Ġdrum":6031,"Ġmajority":6032,"~$":6033,"alo":6034,"mathsf":6035,"va":6036,"Ġarticle":6037,"erry":6038,"1961":6039,"inois":6040,"ydro":6041,"olid":6042,"ĠBuild":6043,"Ġapply":6044,"ĠAut":6045,"Ġroom":6046,"Tree":6047,"Open":6048,"anger":6049,"Ġpresence":6050,"dest":6051,"operatorn":6052,"icens":6053,"arks":6054,"ĠIran":6055,"1942":6056,"Ġsuc":6057,"Ġprograms":6058,"Ġutil":6059,"Aust":6060,"Url":6061,"Ġ>=":6062,")-":6063,"Ġentered":6064,"Ġneighbor":6065,"Ġofficer":6066,"Ġsimply":6067,"Ġdetermined":6068,"Ġstreng":6069,"Current":6070,"normal":6071,"Ġrecover":6072,"arriage":6073,"Ġheavy":6074,"Ġolder":6075,"84":6076,"Ġfigure":6077,"ĠCro":6078,"otic":6079,"Sing":6080,"jav":6081,"DB":6082,"ĠDemocratic":6083,"essages":6084,"Ġlived":6085,"Am":6086,"Ġarmy":6087,"Ġveloc":6088,"ĠBob":6089,"ãĥ":6090,"Ġvariety":6091,"Ġfootballer":6092,"LS":6093,"achus":6094,"ĠPak":6095,"ensions":6096,"enumer":6097,"foo":6098,"operatorname":6099,"ervices":6100,"Ġactual":6101,"Ġcounty":6102,"Ġtechnology":6103,"Ġbus":6104,"apers":6105,"Ġign":6106,"ĠBritain":6107,"Ġstrict":6108,"Ġconver":6109,"Ġexception":6110,"Ġbuffer":6111,"allow":6112,"Ġ~":6113,"76":6114,"agger":6115,"ĠDirector":6116,"Access":6117,"ibli":6118,"Ġhum":6119,"Ġproducts":6120,"Ġbranch":6121,"Ġitems":6122,"Provider":6123,"oral":6124,"///":6125,"umin":6126,"ĠSouthern":6127,"ecause":6128,"isher":6129,"ĠData":6130,"ĠJud":6131,"Ġdecre":6132,"ennis":6133,"Ġotherwise":6134,"1956":6135,"ĠTable":6136,"Ġmostly":6137,"ĠCivil":6138,"ĠCamb":6139,"inder":6140,"Address":6141,"lad":6142,"ĠLibrary":6143,"Document":6144,"ĠMichigan":6145,"auge":6146,"Ġâ":6147,"anguages":6148,"ãģ":6149,"Å¡":6150,"}:":6151,"LASS":6152,"ĠPeople":6153,"Ġblue":6154,"Ġbenef":6155,"Button":6156,"resents":6157,"ĠRadio":6158,"ror":6159,"Ġthreat":6160,"project":6161,"Ġ**":6162,"Ġsays":6163,"Layout":6164,"82":6165,"ln":6166,"sych":6167,"ĠCre":6168,"1959":6169,"Ġweb":6170,"Final":6171,"Ġflag":6172,"Module":6173,"Ġthemselves":6174,"bi":6175,"Ġequivalent":6176,"images":6177,"ART":6178,"ĠErr":6179,"1958":6180,"ĠShow":6181,"Ġsenior":6182,"fn":6183,"Ġconstructed":6184,"ĠRel":6185,"Dist":6186,"dl":6187,"mas":6188,"1948":6189,"Ġextra":6190,"Ġneeds":6191,"ĠSar":6192,"ĠJac":6193,"Ġrank":6194,"typeof":6195,"aily":6196,"Ġ{};":6197,"ĠTro":6198,"ĠOx":6199,"ounds":6200,"Ġequations":6201,"Ġderived":6202,"ĠAN":6203,"Ġslow":6204,"Ġfast":6205,"eks":6206,"ĠMath":6207,"Ġweak":6208,"ador":6209,"Ġreduced":6210,"inds":6211,"ĠFri":6212,"ĠScotland":6213,"Ġcollect":6214,"}}(":6215,"Ġinsp":6216,":#":6217,"opl":6218,"unct":6219,"hent":6220,"Ġneut":6221,"found":6222,"Ġproduce":6223,"Ġcycl":6224,"REF":6225,"PL":6226,"ĠRead":6227,"img":6228,"Ġauth":6229,"Ġeconomic":6230,"ishes":6231,"Ġsea":6232,"Ġoptim":6233,"Ġbecoming":6234,"kl":6235,"document":6236,"ĠPoland":6237,"'$":6238,"meta":6239,"Ġbrief":6240,"tree":6241,"rees":6242,"Ġvariables":6243,"Ġbass":6244,"ĠCarl":6245,"Last":6246,"olute":6247,"Dat":6248,"irls":6249,"Entry":6250,"Ġprofile":6251,"Ġvac":6252,"author":6253,"Header":6254,"Ġbatt":6255,"achusetts":6256,"lie":6257,"Ġsort":6258,"alog":6259,"}\\\\":6260,"ĠOhio":6261,"ĠPrem":6262,"1941":6263,"ech":6264,"Right":6265,"74":6266,"Ġcarried":6267,"1939":6268,"burgh":6269,"oped":6270,"Ġcomes":6271,"Ac":6272,"Ġevolution":6273,"aters":6274,"Ġquality":6275,"1943":6276,"Ġgrowth":6277,"ĠNS":6278,"ĉĉĉĉĉĉĉ":6279,"Sports":6280,"Enc":6281,"Ġquarter":6282,"Ġsquad":6283,"ila":6284,"Ġcandidate":6285,"Ġnumerous":6286,"Ġsession":6287,"nam":6288,"ĠEdward":6289,"Ġchoice":6290,"Ġelections":6291,"rence":6292,"enant":6293,"Ġreferred":6294,"variant":6295,"Ġships":6296,"ĠMah":6297,"ectors":6298,"scr":6299,"ĠQueen":6300,"1000":6301,"gg":6302,"Hash":6303,"sche":6304,"Ġannual":6305,"Ġvan":6306,"onds":6307,"buffer":6308,"Ġdise":6309,"1946":6310,"1957":6311,"Ġinfluence":6312,"ĠJersey":6313,"tra":6314,"related":6315,"Ġshare":6316,"Ġinterpret":6317,"Ġnodes":6318,"ĠDutch":6319,"ĠJS":6320,"Ġhusband":6321,"Ġmurder":6322,"Ġult":6323,"pton":6324,"ĠPacific":6325,"Ġforest":6326,"typ":6327,"Ġnegative":6328,"iny":6329,"ĠTop":6330,"Stat":6331,"National":6332,"ĠLord":6333,"Ġcorn":6334,"ĠOp":6335,"Ġstay":6336,"rants":6337,"Ġestimated":6338,"finished":6339,"iques":6340,"Ġforced":6341,"Ġstra":6342,"You":6343,"Ġexplicit":6344,"Note":6345,"citet":6346,"Ġsquare":6347,"ĠLemma":6348,"ĠConference":6349,"Ġarm":6350,"ĠGa":6351,"Direct":6352,"Var":6353,"ĠMP":6354,"Ġdepartment":6355,"ĠGal":6356,"Ġmeeting":6357,"Ġ{}":6358,"Frame":6359,"arden":6360,"Ġinn":6361,"ĠRailway":6362,"Ġelectric":6363,"Brit":6364,"ĠKent":6365,"ĠAsia":6366,"Ġcard":6367,"urt":6368,"Ġseat":6369,"Ġliterature":6370,"ULT":6371,"crete":6372,"ĠAsian":6373,"Ġunknown":6374,"ĠIllinois":6375,"oded":6376,"ĠStep":6377,"oles":6378,"jection":6379,"Ġsplit":6380,"awa":6381,"spect":6382,"matrix":6383,"Ġoperated":6384,"81":6385,"EO":6386,"kin":6387,"Pat":6388,"Net":6389,"uls":6390,"ĠBow":6391,"Ġbad":6392,"sv":6393,"bot":6394,"Ġvictory":6395,"desc":6396,"ĠJournal":6397,"CS":6398,"<?":6399,"dimensional":6400,"'.":6401,"ĠLuc":6402,"ported":6403,"Ne":6404,"ras":6405,"1955":6406,"Ġsomething":6407,"ĠHamilton":6408,"Local":6409,"Pi":6410,"Ġfit":6411,"files":6412,"Ġforeign":6413,"Ġimmediately":6414,"Ġraised":6415,"vest":6416,"Ġprec":6417,"Ġ&\\":6418,"construct":6419,"Ġetc":6420,"ci":6421,"rolled":6422,"iy":6423,"ĠRam":6424,"omial":6425,"Ġreli":6426,"Ġshift":6427,"Ġpoliticians":6428,"ulty":6429,"Ġhtt":6430,"Ġmut":6431,"imation":6432,"adel":6433,"ĠRepresent":6434,"Ġbottom":6435,"Ġparents":6436,"bool":6437,"writer":6438,"actor":6439,"rong":6440,"Ġfinancial":6441,"ĠOffice":6442,"1952":6443,"83":6444,"ĠProject":6445,"ji":6446,"iverse":6447,"Ġcolon":6448,"Ġformation":6449,"Op":6450,"Ġmixed":6451,"Ġproper":6452,"Ġchosen":6453,"Ġreligious":6454,"Ġleave":6455,"Ġerrors":6456,"Ġclaimed":6457,"Ġwestern":6458,"Ġratio":6459,"Ġlayer":6460,"Ġcam":6461,"ponents":6462,"frame":6463,"etime":6464,"stein":6465,"]$":6466,"Ġcluster":6467,"Ġtemplate":6468,"gypt":6469,"ĠWilliams":6470,"Ġdenote":6471,"stone":6472,"}}{\\":6473,"1947":6474,"rev":6475,"Ġjoin":6476,"ĠAlb":6477,"Que":6478,"Ġweeks":6479,"allet":6480,"Ġalgebra":6481,"Sche":6482,"etch":6483,"Expression":6484,"Ġcore":6485,"Ġsense":6486,"icker":6487,"Ġknowledge":6488,"sky":6489,"Des":6490,"Unit":6491,"ĠMr":6492,"ĠSpring":6493,"ĠCentre":6494,"osa":6495,"wer":6496,"Ġactivity":6497,"Ġelev":6498,"ela":6499,"Ġmagnetic":6500,"Ġactors":6501,"ĠLie":6502,"Ġice":6503,"ĠMassachusetts":6504,"reedom":6505,"Ġfederal":6506,"ĠGeorgia":6507,"wait":6508,"cat":6509,"ĠPhilipp":6510,"Ġfully":6511,"================================":6512,"{{":6513,"Ã±":6514,"PECT":6515,"Ġexpansion":6516,"emporary":6517,"ifact":6518,"ÅĤ":6519,"ĠJewish":6520,"ĠSoc":6521,"Prot":6522,"Ġnomin":6523,"Ġarrest":6524,"ws":6525,"ĠJohnson":6526,"Ġtreatment":6527,"Left":6528,"ategor":6529,"Ġcoeff":6530,"Ġalt":6531,"ĠJones":6532,"Ġcommunities":6533,"issions":6534,"ĠCoast":6535,"cf":6536,"ograp":6537,"Ġoccas":6538,"Ġfrequency":6539,"olec":6540,"Process":6541,"Ġshoot":6542,"Ġproced":6543,"inger":6544,"Ġserving":6545,"Ġprove":6546,"phy":6547,"Ġdistributed":6548,"ĠOf":6549,"Ġxml":6550,"Ġretired":6551,"transform":6552,"ĠAlso":6553,"ĠĠĠĠĠĠĠĠĠĠĠĠĠĠĠĠĠĠĠĠĠĠĠĠĠĠĠĠĠĠĠĠĠĠĠ":6554,"PT":6555,"Ġcomedy":6556,"lines":6557,"Ġpil":6558,"Ġmainly":6559,"Ġamb":6560,"seud":6561,"FONT":6562,"Ġfoot":6563,"webkit":6564,"Ġcontainer":6565,"ĠFrancisco":6566,"ĠPortug":6567,"term":6568,"79":6569,"Ġsettlement":6570,"Ġcomposed":6571,"Ġattention":6572,"Ġhttps":6573,"ĠCreate":6574,"Ġhighly":6575,"ĠKey":6576,"Art":6577,"Po":6578,"common":6579,"cks":6580,"Ġpoor":6581,"ibly":6582,"Ġarchitecture":6583,"ĠNetwork":6584,"&&":6585,"hemat":6586,"antry":6587,"Ġuniversity":6588,"Ġhistorical":6589,"Ġagreement":6590,"des":6591,"Ġfeel":6592,"itation":6593,"}+\\":6594,"Core":6595,"ĠTheatre":6596,"Ġattribute":6597,"Ġimplies":6598,"ĠGovernor":6599,"xx":6600,"Ġpressure":6601,"ĠPop":6602,"card":6603,"Ġswitch":6604,"ĠÅ":6605,"Ġsu":6606,"enty":6607,"Ġlibrary":6608,"Operation":6609,"Ġnine":6610,"rome":6611,"()->":6612,"Dir":6613,"ĠAirport":6614,"ertific":6615,"73":6616,"Ġclubs":6617,"older":6618,"Ġrecording":6619,"Ġthings":6620,"rect":6621,"imer":6622,"ulpt":6623,"Mult":6624,"1954":6625,"join":6626,"aped":6627,"ĠMajor":6628,"har":6629,"ellig":6630,"Ġleaving":6631,"ĠSte":6632,"Ġnearly":6633,"Ġreach":6634,"Ident":6635,"Don":6636,"ĠBoston":6637,"Ġdead":6638,"Ġcomputer":6639,"ORT":6640,"nes":6641,"Empty":6642,"abeth":6643,"ialize":6644,"Ġtracks":6645,"ĠEarth":6646,"\\'":6647,"ĠPrince":6648,"Ġdetermine":6649,"Ġbrand":6650,"DD":6651,"CK":6652,"Ġtoken":6653,"Ġresponsible":6654,"Location":6655,"free":6656,"resource":6657,"Ġcat":6658,"Utils":6659,"United":6660,"ĠBlue":6661,"Ġgreen":6662,"Ġcarry":6663,"1953":6664,"Ġtouch":6665,"ĠKong":6666,"neq":6667,"Ġmicro":6668,"irmed":6669,"Ġwalk":6670,"ĠScottish":6671,"Ġuniform":6672,"Ġjoint":6673,"Ġsucceed":6674,"ĠChild":6675,"cache":6676,"}-\\":6677,"iser":6678,"Ġincome":6679,"Ġdescent":6680,"KE":6681,"ĠProgram":6682,"Ġsister":6683,"Ġslight":6684,"render":6685,"\\\"":6686,"Ġpromin":6687,"Ġmovie":6688,"Parameter":6689,"Ġfix":6690,"legate":6691,"Ġfle":6692,"ĠTherefore":6693,"Ġbig":6694,"Ġgreater":6695,"ĠInit":6696,"osoph":6697,"Ġidentity":6698,"Ptr":6699,"Ġmaster":6700,"poration":6701,"Ġeth":6702,"ĠGood":6703,"yg":6704,"onym":6705,"Ġdiss":6706,"ãĤ":6707,"contin":6708,"Position":6709,"1949":6710,"ternet":6711,"ĠLu":6712,"enger":6713,"British":6714,"According":6715,"ependence":6716,"Ġserve":6717,"callback":6718,"Ġcapacity":6719,"ĠPlaces":6720,"Ġimpro":6721,"Ġsubsequently":6722,"Ġcref":6723,"Ġcategory":6724,"afety":6725,"Ġchain":6726,"iated":6727,"Ġindividuals":6728,"ĠCall":6729,"ĠCheck":6730,"Thread":6731,"ĠGener":6732,"ĠTheir":6733,"Ġcle":6734,"Ġvote":6735,"Ġshared":6736,"eler":6737,"Ġrepresents":6738,"Ġdescribe":6739,"Ġincorpor":6740,"arters":6741,"ĠBet":6742,"Ġasked":6743,"urban":6744,"shift":6745,"navbar":6746,"Ġdistinct":6747,"ĠNow":6748,"iki":6749,"Ġpositions":6750,"onia":6751,"1951":6752,"Ġvs":6753,"structure":6754,"ĠEnter":6755,"Ġreally":6756,"FT":6757,"isms":6758,"Option":6759,"ffic":6760,"Car":6761,"ĠRun":6762,"Ġcouncil":6763,"Ġlif":6764,"SH":6765,"Ġtold":6766,"Ġrecently":6767,"Ġofficers":6768,"ĠBern":6769,"Ġidentified":6770,"udio":6771,"ĠEastern":6772,"iate":6773,"Ġacquired":6774,"bind":6775,"MM":6776,"Ġ-\\":6777,"71":6778,"akers":6779,"aml":6780,"Cons":6781,"Ġturned":6782,"aver":6783,"hspace":6784,"rance":6785,"Ġscheme":6786,"equal":6787,"Ġnamespace":6788,"Ġhyp":6789,"aturing":6790,"Ġhockey":6791,"ĠHead":6792,"ĠBul":6793,"AV":6794,"Ġnorm":6795,"sign":6796,"ĠĠĠĊ":6797,"ĠSand":6798,"Params":6799,"Ġsolutions":6800,"ĠFile":6801,"Iter":6802,"Ġvon":6803,"Kind":6804,"maz":6805,"ĠIslam":6806,"ĠOxford":6807,"Ġmunicipality":6808,"Ġbasic":6809,"World":6810,"Dem":6811,"hedule":6812,"Ġmentioned":6813,"izont":6814,"VAL":6815,"rices":6816,"Ġconcert":6817,"yes":6818,"Ġprep":6819,"Ġscene":6820,"enumerate":6821,"Ġpersonnel":6822,"ĠLy":6823,"ĠBang":6824,"Ġregional":6825,"}}}":6826,"Ġhelped":6827,"rot":6828,"itage":6829,"ĠVan":6830,"rb":6831,"kg":6832,"ĠMov":6833,"Ġrecomm":6834,"mode":6835,"ĠJr":6836,"Ġfloat":6837,"ĠMap":6838,"ione":6839,"cp":6840,"una":6841,"Ġbelieved":6842,"ĠHand":6843,"Ġusers":6844,"ĠSpecial":6845,"Ġmanaged":6846,"ashed":6847,"before":6848,"ĠId":6849,"]\\":6850,"Ġtypically":6851,"SR":6852,"secut":6853,"Ġ('":6854,"Ġmuseum":6855,"ifies":6856,"Ġwait":6857,"oting":6858,"aylor":6859,"Ġprofessor":6860,"ĠLatin":6861,"Ġassigned":6862,"theorem":6863,"La":6864,"Ġdespite":6865,"ederation":6866,"Control":6867,"ĠSenate":6868,"Ġbelong":6869,"illy":6870,"ĠGame":6871,"EQ":6872,"Ġcombined":6873,"agment":6874,"ĠHung":6875,"Ġmoving":6876,"Ġrequires":6877,"Ġresources":6878,"Ġstatement":6879,"Ġ*)":6880,"Ġprobably":6881,"Host":6882,"rical":6883,"Ġspread":6884,"Ġspectrum":6885,"reshold":6886,"outheast":6887,"cean":6888,"amin":6889,"ĠDevelopment":6890,"PA":6891,"aa":6892,"ĠPlay":6893,"Meta":6894,"ĠBelg":6895,"Pack":6896,"ĠĠĠĠĠĠĠĠĠĠĠĠĠĠĠĠĠĠĠĠĠ":6897,"ĠSpe":6898,"ĉĉĊ":6899,"yer":6900,")}{":6901,"onto":6902,"chers":6903,"ĠCard":6904,"Ġprojects":6905,"cons":6906,"Ġcells":6907,"fect":6908,"ez":6909,"|^":6910,"byte":6911,"ĠColor":6912,"ĠLi":6913,"uv":6914,"Ġfamous":6915,"enum":6916,"Ġparams":6917,"erc":6918,"Ġbegin":6919,"aved":6920,"Ġconflict":6921,"Ġowner":6922,"Ġhash":6923,"ĠPolish":6924,"gence":6925,"Cast":6926,"Ã£":6927,"while":6928,"chen":6929,"1936":6930,"high":6931,"Ġoffered":6932,"Ġcitiz":6933,"chester":6934,"fort":6935,"Ġcache":6936,"Ġnav":6937,"las":6938,"Ġvelocity":6939,"Ġwanted":6940,"Ġordered":6941,"ĠStan":6942,"Ġorganizations":6943,"ĠCommon":6944,"media":6945,"Ġcompeted":6946,"$(":6947,"ĠBre":6948,"teen":6949,"Ġsemi":6950,"ĠColumbia":6951,"Ġactions":6952,"Ġparse":6953,"exec":6954,"itory":6955,"Names":6956,"oret":6957,"ĠÎ":6958,"ernel":6959,"Ġagent":6960,"ocated":6961,"Ġability":6962,"hash":6963,"Ġsociety":6964,"ategy":6965,"Ġcities":6966,"Ġcovered":6967,"Ġconcent":6968,"ĠTri":6969,"ĠHor":6970,"ĠSea":6971,"owers":6972,"Store":6973,"ographic":6974,"ĠBroad":6975,"ransparent":6976,"noindent":6977,"Ġminimum":6978,"amm":6979,"Obj":6980,"Ġdimension":6981,"XX":6982,"thur":6983,"oir":6984,"\"|":6985,"```":6986,"Ġheart":6987,"Ġmotion":6988,"DS":6989,")}$":6990,"ĠMu":6991,"Ġpadding":6992,"Ġunivers":6993,"Ġreject":6994,"255":6995,"ĠJean":6996,"ĠLab":6997,"ighter":6998,"tml":6999,"FO":7000,"ĠMiddle":7001,"ipe":7002,"NN":7003,"mathscr":7004,"Ġsure":7005,"Ġearned":7006,"ĠMid":7007,"undred":7008,"Ġ$.":7009,"Ġwave":7010,"Ġsites":7011,"uries":7012,"Ġalleg":7013,"$}":7014,"\"))":7015,"ĠSecretary":7016,"ĠDar":7017,"debug":7018,"cut":7019,"ĠOF":7020,"}}_":7021,"pool":7022,"ydney":7023,"Ġdou":7024,"Ġcelebr":7025,"1918":7026,"Ġstories":7027,"Script":7028,"Ġ[];":7029,"Will":7030,"Ġimplementation":7031,"Ġthr":7032,"ests":7033,"Ġopport":7034,"Change":7035,"ĠEgypt":7036,"ĠBoth":7037,"ĠFI":7038,"Ġsurvey":7039,"Ġplans":7040,"zech":7041,"Ġcontrast":7042,"ĠNight":7043,"Properties":7044,"ĠPoint":7045,"usc":7046,"ĠEXPECT":7047,"Ġparties":7048,"ĠWay":7049,"ĠRay":7050,"direct":7051,"MC":7052,"ĠCreek":7053,"Ġdoesn":7054,"ĠIS":7055,"icine":7056,"Ġreceive":7057,"Ġbridge":7058,"Ã¡n":7059,"Connection":7060,"Ġletter":7061,"Ġdraft":7062,"Ġsaying":7063,"Ġappearances":7064,"orough":7065,"Ġexamples":7066,"Then":7067,"ricts":7068,"Ġsufficient":7069,"ĠCorps":7070,"ects":7071,"Ġlot":7072,"Ġdiscovered":7073,"\"`":7074,"LI":7075,"Inst":7076,"Post":7077,"Ġestimate":7078,"ĠLater":7079,"1938":7080,"Ġcompletely":7081,"del":7082,"Ġfriends":7083,"chor":7084,"itemize":7085,"Ġsend":7086,"Ġfort":7087,"'re":7088,"Rev":7089,"ĠWis":7090,"ĠStation":7091,"Handle":7092,"ĠBol":7093,"ĠSol":7094,"Each":7095,"Ġbaseball":7096,"ĠWall":7097,"Ġpp":7098,"icted":7099,"ĠST":7100,"Ġhouses":7101,"Ġleads":7102,"(*":7103,"Dom":7104,"Ġpanel":7105,"Ġgauge":7106,"Ġeastern":7107,"Ġgrav":7108,")/":7109,"RI":7110,"Ġfeed":7111,"focus":7112,"unfinished":7113,"utenant":7114,"Gu":7115,"msg":7116,"ĠOur":7117,"Ġcer":7118,"ympt":7119,"Ġyouth":7120,"Level":7121,"Ġlearn":7122,"ascript":7123,"ĠBerlin":7124,"Ġoperators":7125,"ĠÂ£":7126,"ĠHong":7127,"second":7128,"ĠEach":7129,"Ġenter":7130,"ĠĠĠĠĠĠĠĠĠĠĠĠĠĠĠĠĠĠĠĠ":7131,"atically":7132,"Ġversions":7133,"Ġnearby":7134,"multicol":7135,"Ġmachine":7136,"ĠMany":7137,"atalog":7138,"ĠAlexander":7139,"Ġepisodes":7140,"ffff":7141,"ĠVictoria":7142,"annels":7143,"Background":7144,"hor":7145,"MO":7146,"Down":7147,"Http":7148,"ĠHa":7149,"Music":7150,"1937":7151,"zo":7152,"Ġdatabase":7153,"Ġgiving":7154,"late":7155,"ĠGra":7156,"orning":7157,"Ġ<!--":7158,"ynchron":7159,"handle":7160,"entially":7161,"Ġvoice":7162,"Ġsituation":7163,"ĠUs":7164,"Ġlies":7165,"Ġlanguages":7166,"Ġlaws":7167,"Ġprotest":7168,"Ġpurpose":7169,"ĠMot":7170,"approx":7171,"Ġplot":7172,"Ġdepart":7173,"Ġsettings":7174,"Ġawards":7175,"Assert":7176,"ĠEp":7177,"white":7178,"Ġwinner":7179,"Parameters":7180,"########":7181,"inity":7182,"Ġlives":7183,"Ġsmooth":7184,"ĠTO":7185,"Ġoil":7186,"posite":7187,"ATION":7188,"âĢ¦":7189,"elli":7190,"COL":7191,"Copy":7192,"claim":7193,"multicolumn":7194,"Mark":7195,"Ġissued":7196,"ĠJackson":7197,"site":7198,"endar":7199,"ĠArgent":7200,"Ġ\\;":7201,"ĠLo":7202,"ifically":7203,"Ġschedul":7204,"bas":7205,"CP":7206,"ĠKorea":7207,"Reference":7208,"je":7209,"Ġtroops":7210,"ĠOR":7211,"150":7212,"GET":7213,"Ġmarriage":7214,"West":7215,"Ġapplications":7216,"sur":7217,"aret":7218,"cope":7219,"Ġmetric":7220,"ĠHome":7221,"Ġanc":7222,"Ġintended":7223,"ntario":7224,"ga":7225,"eller":7226,"Ġvisit":7227,"fa":7228,"iable":7229,"Ġuseful":7230,"Ġtests":7231,"ĠAndrew":7232,"Cal":7233,"tain":7234,"sor":7235,"ĠIslands":7236,"Ġstack":7237,"rovers":7238,"req":7239,"\"));":7240,"Ġinner":7241,"ĠUN":7242,"Ġfavor":7243,"ĠKen":7244,"Ġcoming":7245,"Settings":7246,"ennes":7247,"Disc":7248,"ĠPolice":7249,"ZE":7250,"Ġexpatriate":7251,"Ġquickly":7252,"__(":7253,"copy":7254,"Ġdrug":7255,"grid":7256,"ĠHere":7257,"University":7258,"parameter":7259,"\\,\\":7260,"ĠWild":7261,"bro":7262,"agers":7263,"Ġones":7264,"ĠEliz":7265,"....":7266,"eld":7267,"ĠLittle":7268,"Ġhar":7269,"ĠFour":7270,"Ġsuit":7271,"Order":7272,"rat":7273,"ĠBBC":7274,"ĠSund":7275,"ĠCat":7276,"iminal":7277,"NAME":7278,"Pod":7279,"SL":7280,"Ġgun":7281,"Ġsusp":7282,"ĠBrook":7283,"vspace":7284,"Association":7285,"Ġring":7286,"Now":7287,"ĠTam":7288,"norm":7289,"Ġcalls":7290,"ME":7291,"ĠAli":7292,"peror":7293,"spe":7294,"NE":7295,"Austral":7296,"Ġmetal":7297,"Ġpromoted":7298,"MD":7299,"Ġframework":7300,"sets":7301,"boolean":7302,"Ġconsequ":7303,"ĠCapt":7304,"ACK":7305,"ĠOlympic":7306,"levant":7307,"replace":7308,"Ġhospital":7309,"Ġcompact":7310,"ĠAk":7311,"ĠPubl":7312,"border":7313,"Pol":7314,"Bytes":7315,"AND":7316,"poses":7317,"Ġinh":7318,"ĠElect":7319,"`.":7320,"yo":7321,"ĠFurther":7322,"Ġmill":7323,"Ġnom":7324,"Ġplane":7325,"ALL":7326,"ucky":7327,"izontal":7328,"ĠMedia":7329,"Ġworkers":7330,"%;":7331,"Ġassign":7332,"Ġeasily":7333,"Record":7334,")+":7335,"Storage":7336,"Ġderiv":7337,"Ġcultural":7338,"Ġshowed":7339,"ĠOfficial":7340,"angular":7341,"_;":7342,"token":7343,"ĠFire":7344,"That":7345,"={":7346,"step":7347,"ĠJes":7348,"Ġpod":7349,"Ġcreation":7350,"Ġstraight":7351,"apply":7352,"Ġtheorem":7353,"Ġensure":7354,"Ġtransferred":7355,"ERROR":7356,"Ġexchange":7357,"layout":7358,"Ġconducted":7359,"ĠBir":7360,"Ġfifth":7361,"Ġoverride":7362,"phia":7363,"Di":7364,"():":7365,">,":7366,"Ġ(*":7367,"Ġ),":7368,"ĠInst":7369,"iced":7370,"ifications":7371,"nic":7372,"olver":7373,"---":7374,"Ġprovince":7375,"ronze":7376,"Ġgeneration":7377,"Ġdivided":7378,"ologist":7379,"Ġexistence":7380,"Ġgenerate":7381,"innes":7382,"itzer":7383,"ĠVill":7384,"ĠWater":7385,"Body":7386,"ĠStand":7387,"leton":7388,"ĠCommand":7389,"ĠMethod":7390,"Ġfailure":7391,"abilities":7392,"Public":7393,"ĠRegion":7394,"Personal":7395,"graph":7396,"vector":7397,"rary":7398,"Match":7399,"Ġbal":7400,"Ġinsert":7401,"Ġprimarily":7402,"ĠCorn":7403,"itionally":7404,"Ġcontinuous":7405,"Ġvisual":7406,"car":7407,"Search":7408,"fri":7409,"ĠRog":7410,"ĠLim":7411,"Ã£o":7412,"room":7413,"Ġagreed":7414,"Ġrevealed":7415,"Ġapprop":7416,"Ġsal":7417,"ĠRepublican":7418,"ĠSydney":7419,"hs":7420,"1935":7421,"None":7422,"Ġmanif":7423,"Ġfellow":7424,"system":7425,"Ġexam":7426,"Reader":7427,"ä¸":7428,"Ġaccepted":7429,"Ġfirm":7430,"Ġexecutive":7431,"texttt":7432,"ĠFar":7433,"Ġloop":7434,"dim":7435,"Ġstorage":7436,"delete":7437,"Ġaccom":7438,"ellar":7439,"inf":7440,"ĠBC":7441,"emy":7442,"ori":7443,"Ġkeys":7444,"ĠKenn":7445,"Ġharm":7446,"hing":7447,"weg":7448,"Ġoccurs":7449,"Invalid":7450,"Ġinteraction":7451,"adelphia":7452,"Ġnewspaper":7453,"ĠEst":7454,"alion":7455,"ĠCa":7456,"ĠTechnology":7457,"Ġoccurred":7458,"stitution":7459,"osm":7460,"ĠError":7461,"innesota":7462,"sen":7463,"Ġassistant":7464,"Ġcompl":7465,"Policy":7466,"ĠDaniel":7467,"Ġadopted":7468,"ĠException":7469,"Ġarrived":7470,"law":7471,"Ä±":7472,"ĠBell":7473,"faces":7474,"cest":7475,"webpack":7476,"pan":7477,"ĠBand":7478,"Ġexternal":7479,"\\}$":7480,"Ġinfin":7481,"Timeout":7482,"rawn":7483,"Polit":7484,"Red":7485,"Long":7486,"Ġrelatively":7487,"Prop":7488,"Ġwhy":7489,"ĠCON":7490,"ocker":7491,"}'":7492,"Ġdemand":7493,"oured":7494,"ĠRos":7495,"Do":7496,"Ġmaps":7497,"Ã¸":7498,"leep":7499,"ĠBoy":7500,"Ġaspect":7501,"Ġstatistics":7502,"ĠAff":7503,"bourne":7504,"pute":7505,"ĠInf":7506,"Ġprocesses":7507,"ĠRegiment":7508,"ĠPrize":7509,"My":7510,"Ġclean":7511,"aki":7512,"Args":7513,"Ġinform":7514,"%)":7515,"1919":7516,"Ġhence":7517,"Ġreform":7518,"ĠWindow":7519,"Ġansw":7520,"Ġoperating":7521,"hesis":7522,"istent":7523,"amber":7524,"Ġcontribution":7525,"ĠUSA":7526,"ĠKorean":7527,"Ġtalk":7528,"^-":7529,"Ġeigen":7530,"ĠOntario":7531,"Ġsamples":7532,"Ġresidents":7533,"Font":7534,"Ġfre":7535,"ĠSports":7536,"adian":7537,"Ġseem":7538,"Ġflat":7539,"Ġdiscussed":7540,"ortheast":7541,"Ġonto":7542,",âĢĿ":7543,"cr":7544,"Ġraise":7545,"mi":7546,"Ġreduce":7547,"ilarly":7548,"Ġgoes":7549,"Non":7550,"ĠJoe":7551,"Ġsculpt":7552,"etherlands":7553,"ynamic":7554,"Ġfeaturing":7555,"ĠViet":7556,"Ġleaders":7557,"%%":7558,"uced":7559,"iants":7560,"bec":7561,"ĠHospital":7562,"ĠSom":7563,"Ġpra":7564,"orship":7565,"types":7566,"ĠPass":7567,"Ġproviding":7568,"Ġleaves":7569,"Ġ++":7570,"STR":7571,"apse":7572,"Ġhonor":7573,"Pass":7574,"Ġsecret":7575,"1914":7576,"internal":7577,"Ġgraduated":7578,"ĠJustice":7579,"DC":7580,"efe":7581,"typed":7582,"ĠPower":7583,"CODE":7584,"ĠBatt":7585,"Symbol":7586,"Ġalongside":7587,"umes":7588,"Ġhyper":7589,"Ġrisk":7590,"inson":7591,"Sign":7592,"Ġcreating":7593,"Ġcommonly":7594,"Ġdriver":7595,"Ġtal":7596,"ĠGuard":7597,"So":7598,"Serial":7599,"ĠRoute":7600,"ĠCorporation":7601,"Ġattract":7602,"Ġformal":7603,"Ġdeliver":7604,"Ġbytes":7605,"Ġconstitu":7606,"Ġstrategy":7607,"ners":7608,"ĠEconom":7609,")\"":7610,"disabled":7611,"ĠLight":7612,"Ġaxis":7613,"ĠPen":7614,"Go":7615,"General":7616,"aug":7617,"Ġfactors":7618,"Ġwall":7619,"icons":7620,"ĠWilson":7621,"SA":7622,"120":7623,"rison":7624,"Ġcomparison":7625,"Ġven":7626,"widget":7627,"sd":7628,"scription":7629,"Ġbey":7630,"ĠRevolution":7631,"Ġthread":7632,"Ġrac":7633,"Rad":7634,"minus":7635,"ami":7636,"Ġancient":7637,"Ġserial":7638,"ynomial":7639,"Ġreflect":7640,"ĠSupreme":7641,"ropical":7642,"ĠPrime":7643,"While":7644,"ĠBab":7645,"Async":7646,"ĠMuslim":7647,"ĠJon":7648,"Ġassociation":7649,"tog":7650,"Ġaim":7651,"Ġdedicated":7652,"Ġobservations":7653,"ibliography":7654,"ulf":7655,"ĠJeff":7656,"Ġsport":7657,"1933":7658,"deg":7659,"Ġfactory":7660,"Session":7661,"raine":7662,"Ġnet":7663,"1929":7664,"ĠRome":7665,"Ġquite":7666,"ito":7667,"agnost":7668,"Ġfun":7669,"Writer":7670,"Ġarticles":7671,"Stack":7672,"Ġcaptured":7673,"toString":7674,"uple":7675,"ĠDer":7676,"chestra":7677,"Ġchalleng":7678,"Ġathlet":7679,"Ġsilver":7680,"ancing":7681,"1934":7682,"ĠWin":7683,"Me":7684,"Ġsegment":7685,"sex":7686,"env":7687,"ĠRaj":7688,"Parent":7689,"ĠHuman":7690,"Values":7691,"Ġ\\|":7692,"uilt":7693,"LP":7694,"hover":7695,"ĠCas":7696,"ĠAvenue":7697,"Ġcrew":7698,"attice":7699,"Ġlisting":7700,"ĠMir":7701,"ĠEvent":7702,"ĠBa":7703,"anta":7704,"{$":7705,"Dep":7706,"Ġ_{":7707,"anth":7708,"Ġtrial":7709,"Ġheader":7710,"Ġcurve":7711,"aga":7712,"Ġefforts":7713,"Project":7714,"apped":7715,"Ġsoldiers":7716,"uses":7717,"keys":7718,"}},":7719,"ĠCLASS":7720,"Ġsecondary":7721,"Ġvertex":7722,"Ġbeyond":7723,"ĠTod":7724,"utional":7725,"SSERT":7726,"Ġshall":7727,"ĠGi":7728,"ĠMinistry":7729,"Ġnoise":7730,"1928":7731,"ĠCollection":7732,"Ġrenamed":7733,"Ġtherm":7734,"Ġnation":7735,"global":7736,"ĠAsh":7737,"ĠThree":7738,"Ġinstanceof":7739,"Ġrare":7740,"auth":7741,"ĠRod":7742,"Ver":7743,"consin":7744,"Ġast":7745,"Ġweap":7746,"arant":7747,"Ġadministrative":7748,"Ġadministration":7749,"Ġresolution":7750,"imb":7751,"asure":7752,"Ã©e":7753,"Ġchoose":7754,"ĠSi":7755,"Ġdigital":7756,"Doc":7757,"dx":7758,"ĠDate":7759,"pled":7760,"odies":7761,"Ġpit":7762,"Ġconfirmed":7763,"vin":7764,"Tool":7765,"ĠBi":7766,"igration":7767,"establ":7768,"1917":7769,"ĠTre":7770,"Ġproceed":7771,"bits":7772,"1910":7773,"water":7774,"ĠBusiness":7775,"Ġcontained":7776,"adr":7777,"ĠDE":7778,"ĠFederal":7779,"~~~~":7780,"ĠSa":7781,"imensions":7782,"control":7783,"Ġinfo":7784,"Ġinteger":7785,"Ġprefer":7786,"Ġrepresenting":7787,"ĠFollowing":7788,"Ġachieved":7789,"Ġrapid":7790,"patch":7791,"Ġmarked":7792,"Ġtermin":7793,"Ġslightly":7794,"ĠBon":7795,"1932":7796,"Ġgrid":7797,"ĠAthlet":7798,"IGN":7799,"ĠExt":7800,"ĠLew":7801,"Ġ<=":7802,"Ðº":7803,"ĠBal":7804,"osl":7805,"ĠOs":7806,"Ġacademic":7807,"Ġformula":7808,"quarters":7809,"ooks":7810,"plex":7811,"shot":7812,"ervative":7813,"Ġpurs":7814,"EXT":7815,"hu":7816,":</":7817,"leted":7818,"South":7819,"Ġassumed":7820,"Ġmedian":7821,"ĠOrgan":7822,"Entity":7823,"Ġdestroyed":7824,"Own":7825,"Ġpull":7826,"1900":7827,"<\\":7828,"owa":7829,"utils":7830,"Ġcontributions":7831,"Ġpriv":7832,"UP":7833,"ĠToronto":7834,"perial":7835,"Found":7836,"Ġexpanded":7837,"Ġorganized":7838,"ĠSong":7839,"Ġelem":7840,"ĠHy":7841,"olitan":7842,"Ġdelay":7843,"Ġwidely":7844,"emet":7845,"ĠNations":7846,"ĠElizabeth":7847,"oned":7848,"also":7849,"Ġmusicians":7850,"coll":7851,"Before":7852,"ĠSciences":7853,"enter":7854,"DA":7855,"lyn":7856,"ĠQueens":7857,"ĠTaylor":7858,"javascript":7859,"Ġrob":7860,"Ġmolec":7861,"ĠReview":7862,"anges":7863,"Ġacting":7864,"utt":7865,"Sm":7866,"Impl":7867,"Ġextract":7868,"ĠBra":7869,"task":7870,"Ġera":7871,"Ġarbit":7872,"ashion":7873,"ĠPakistan":7874,"Ġnetworks":7875,"Ġresist":7876,"Ġfloor":7877,"ĠVis":7878,"estamp":7879,"Ġscatter":7880,"Ġrender":7881,"ĠArm":7882,"Ġtypeof":7883,"stop":7884,"Ġsuggested":7885,"Ġprogramming":7886,"Theta":7887,"Ġfair":7888,"Ġoffers":7889,"py":7890,"Ġemission":7891,"aska":7892,"ective":7893,"Ġwinners":7894,"ĠAnton":7895,"Render":7896,"Ġprominent":7897,"Ġadult":7898,"Helper":7899,"Ġdisease":7900,"Ġdiagram":7901,"rog":7902,"ĠTok":7903,"legal":7904,"Ġclassification":7905,"Ãº":7906,"HP":7907,"omer":7908,"Ġdeclared":7909,"ATA":7910,"athan":7911,"Ġplanned":7912,"ixel":7913,"ĠStadium":7914,"Ġmunicipal":7915,"Ġreplace":7916,"ĠProfessor":7917,"Sk":7918,"Ġgalaxies":7919,"ĠBrad":7920,"conf":7921,"eries":7922,"islative":7923,"Ġspaces":7924,"ĠMarsh":7925,"iffer":7926,"insert":7927,"ĠBad":7928,"Rect":7929,"}^{-":7930,"underline":7931,"Ġcombination":7932,"May":7933,"Ġsolo":7934,"Ġalternative":7935,"ĠMarg":7936,"front":7937,"ĠDuke":7938,"Ġsynt":7939,"interface":7940,"Ġallowing":7941,"Ġmountain":7942,"ometric":7943,"Ġpet":7944,"Ġgirl":7945,"rons":7946,"Ġut":7947,"Scope":7948,"Ð»":7949,"urer":7950,"Ġwild":7951,"ĠEqu":7952,"buf":7953,"coming":7954,"plement":7955,"Ġradius":7956,"ĠPeak":7957,"`,":7958,"Ġparticles":7959,"iec":7960,"Ġofficially":7961,"Ġexperimental":7962,"Ġparticle":7963,"German":7964,"ĠOtt":7965,"Boolean":7966,"1931":7967,"Ġ['":7968,"Olymp":7969,"prod":7970,"VID":7971,"1922":7972,"Ġimprove":7973,"AAAA":7974,"Events":7975,"Ġparticipated":7976,"elligence":7977,"CTION":7978,"ĠVen":7979,"ĠChris":7980,"mitted":7981,"Ġdoing":7982,"ĠCambridge":7983,"ais":7984,"ĠNetherlands":7985,"clear":7986,"Ġmaterials":7987,"ĠPremier":7988,"}}_{":7989,"Ġdistingu":7990,"ĠMedal":7991,"emetery":7992,"Ġcouple":7993,"names":7994,"1924":7995,"International":7996,"Ġly":7997,"Ġparish":7998,"Ġroll":7999,"=(":8000,"points":8001,"Ġtheme":8002,"ĠFunction":8003,"Ġroles":8004,"Ġdepth":8005,"fields":8006,"ĠSwedish":8007,"wegian":8008,"fully":8009,"Biography":8010,"French":8011,"Ġadvant":8012,"aming":8013,"Ġexpressed":8014,"Ġdelete":8015,"ĠHREF":8016,"Ġraces":8017,"END":8018,"rie":8019,"His":8020,"ĠName":8021,"Ġsignificantly":8022,"Ġpal":8023,"Ġnotable":8024,"Ġpan":8025,"Ġtechniques":8026,"ĠMike":8027,"More":8028,"mut":8029,"uations":8030,"access":8031,"Ġsteps":8032,"Ġseems":8033,"ĠNC":8034,"Ġflux":8035,"Ġpartner":8036,"Ġminister":8037,"akh":8038,"ĠTrue":8039,"Ġclust":8040,"Ġequipment":8041,"ĠTurk":8042,"Ġrugby":8043,"Ġtesting":8044,"lar":8045,"ĠUnivers":8046,"store":8047,"ĠLes":8048,"Ġflight":8049,"igin":8050,"Ġrural":8051,"Ġinstrument":8052,"Integer":8053,"ĠRen":8054,"PRE":8055,"Ġways":8056,"each":8057,"ĠMinnesota":8058,"ĠassertEquals":8059,"Ġstreet":8060,"Ġ\"\\":8061,"Ġattend":8062,"Ġcarri":8063,"ulk":8064,"VD":8065,"lan":8066,"Ġwing":8067,"1927":8068,"ĠCommunity":8069,"itled":8070,"ĠSanta":8071,"Ġattacks":8072,"hol":8073,"ĠGro":8074,"scape":8075,"ployment":8076,"Ġgrew":8077,"ello":8078,"Ġmis":8079,"otted":8080,"Ġdataset":8081,"Ġpert":8082,"ĠSus":8083,"TEST":8084,"ĠStephen":8085,"ĠStat":8086,"othing":8087,"Ġeasy":8088,"Ġmeasured":8089,"dagger":8090,"Ġlabor":8091,"ropy":8092,"joy":8093,"orney":8094,"Ġfacilities":8095,"Ġhundred":8096,"Ġreviews":8097,"Ġtitles":8098,"Ġexperiments":8099,"lets":8100,"Ġchampion":8101,"Ġspring":8102,"alg":8103,"scal":8104,":\\":8105,"ĠCub":8106,"Ġreports":8107,"Ġwatch":8108,"SET":8109,"subseteq":8110,"ĠValue":8111,"FR":8112,"Ġhosted":8113,"Ġtraffic":8114,"LL":8115,"ĠPhiladelphia":8116,"Ġdecom":8117,"Ġsave":8118,"=\"_":8119,"1921":8120,"Ġdual":8121,"Ġtor":8122,"Ġgets":8123,"_,":8124,"ĠFer":8125,"Ġdance":8126,"ĠBrig":8127,"Lin":8128,"yard":8129,"ython":8130,"Ġcomposer":8131,"ĠWhat":8132,"Ġcars":8133,"ryst":8134,"ĠStudies":8135,"Ġwor":8136,"ĠIndust":8137,"Ġcycle":8138,"depend":8139,"OK":8140,"Vector":8141,"raq":8142,"Ġtwice":8143,"TRY":8144,"Ġens":8145,"Ġproved":8146,"regon":8147,"Ġnewly":8148,"ĠGoogle":8149,"ĠMember":8150,"ootst":8151,"Template":8152,"zero":8153,"Ġencour":8154,"ĠKir":8155,"Ġhydro":8156,"Ġfinish":8157,"apes":8158,"ĠBack":8159,"ĠWisconsin":8160,"lia":8161,"Ġhouseholds":8162,"Ġbounded":8163,"ipeline":8164,"WE":8165,"Ġaccomp":8166,"Ġmodified":8167,"urches":8168,"Ġmotor":8169,"ĠFre":8170,"Ġlargely":8171,"Ġhandler":8172,"ĠForest":8173,"ĠSab":8174,"URE":8175,"ĠWalk":8176,"omorphism":8177,"Only":8178,"ĠCirc":8179,"ĠSher":8180,"Ġsurn":8181,"Ġnothing":8182,"edding":8183,"Ġlett":8184,"black":8185,"ni":8186,"iang":8187,"Ġorient":8188,"Ġconference":8189,"Ġcancer":8190,"opher":8191,"textrm":8192,"Ġbinary":8193,"Ġfunc":8194,"riev":8195,"send":8196,"However":8197,"Ġpartial":8198,"Ġtrigger":8199,"HL":8200,"Ġserious":8201,"fram":8202,".'":8203,"Ġrespond":8204,"definition":8205,"ĠWars":8206,"Delete":8207,"ture":8208,"van":8209,"ĠKim":8210,"Ġpairs":8211,"Ġkept":8212,"ĠRom":8213,"Ġcontrovers":8214,"Ġblocks":8215,"Ġ(-":8216,"ĠHind":8217,"Menu":8218,"roke":8219,"Metadata":8220,"pa":8221,"ĠBridge":8222,"Ġunsigned":8223,"BL":8224,"ĠSquad":8225,"AGE":8226,"Ġbyte":8227,"Ġrates":8228,"emon":8229,"miss":8230,"estic":8231,"1925":8232,"Ġstrength":8233,"ĠOnly":8234,"TEX":8235,"ĠRE":8236,"Ġagric":8237,"keep":8238,"anga":8239,"ologies":8240,"Gr":8241,"Ġpsych":8242,"Sum":8243,"asty":8244,"ĠLady":8245,"_+":8246,"ĠTai":8247,"ĠSem":8248,"uous":8249,"ĠSerb":8250,"ĠShort":8251,"asi":8252,"Argument":8253,"ĠFree":8254,"TIM":8255,"1926":8256,"Ġplants":8257,"ĠFair":8258,"Ġbomb":8259,"aste":8260,"HS":8261,"Ġconsistent":8262,"ĠMaster":8263,"ego":8264,"Ġrout":8265,"Ġthous":8266,"Ġrect":8267,"DR":8268,"Ġhistoric":8269,"Ġsymmetry":8270,"Ret":8271,"ĠAnth":8272,"Ġcitizens":8273,"False":8274,"Ġalone":8275,"1912":8276,"Transport":8277,"Schema":8278,"Ġlaunch":8279,"ĠTy":8280,"ĠBudd":8281,"Ġpropos":8282,"click":8283,"Ġinstitutions":8284,"1923":8285,"DP":8286,"zen":8287,"omot":8288,"Ġpiece":8289,"ECK":8290,"Ġperman":8291,"ymph":8292,"jan":8293,"Ġ$\\{":8294,"Ġbeat":8295,"Ġneighborhood":8296,"ket":8297,"Ġsector":8298,"ĠClark":8299,"yal":8300,"ĠTownship":8301,"ĠBishop":8302,"Func":8303,"footnote":8304,"uly":8305,"ĠIndiana":8306,"ĠDoug":8307,"ĠWat":8308,"BE":8309,"Ġpolynomial":8310,"ĠĠĠĠĠĠĠĠĠĠĠĠĠĠĠĠĠĠ":8311,"Root":8312,"tim":8313,"Ġdamage":8314,"Num":8315,"Ġseek":8316,"Volume":8317,"Ġangle":8318,"Ġserves":8319,"mediate":8320,"oor":8321,"master":8322,"ĠDown":8323,"Ġauthors":8324,"ĠHan":8325,"Ġcompute":8326,"Ġprincipal":8327,"ĠBh":8328,"olis":8329,"Ġsections":8330,"Av":8331,"limits":8332,"ucket":8333,"udget":8334,"osis":8335,"typedef":8336,"ĠAnother":8337,"Ġcoal":8338,"anna":8339,"Ġteacher":8340,"Awards":8341,"address":8342,"Ġdefeat":8343,"Ġnarrow":8344,"Ġparallel":8345,"ipher":8346,"IA":8347,"ĠAz":8348,"iciency":8349,"roduction":8350,"Ġvotes":8351,"Ġlock":8352,"ootstrap":8353,"ĠĠĠĠĠĠĠĠĠĠĠĠĠĠĠĠĠĠĠĠĠĠĠĠĠĠĠĠĠĠĠĠĠĠĠĠĠĠĠĠĠĠĠĠĠĠĠĠĠĠĠĠĠĠĠĠĠĠĠĠĠĠĠĠ":8354,"uing":8355,"ĠCzech":8356,"Ġabsolute":8357,"erto":8358,"ĠDisc":8359,"Ġpropag":8360,"atial":8361,"Ġblood":8362,"Some":8363,"ĠManagement":8364,"Women":8365,"sch":8366,"nap":8367,"primary":8368,"Ġengineering":8369,"Nov":8370,"ĠGree":8371,"register":8372,")\">":8373,"~$\\":8374,"Ġfigures":8375,"Ġbegins":8376,"Ġseconds":8377,"Ġhousing":8378,"Ã¢":8379,"Ġmedalists":8380,"Ġwrest":8381,"Ġ$-":8382,"component":8383,"cmd":8384,"ĠSweden":8385,"Ġsuccessfully":8386,"Ġ})":8387,"Ġemp":8388,"ewidth":8389,"Ġsam":8390,"800":8391,"Ġsyn":8392,"Ġcancell":8393,"Ġpiano":8394,"ĠMcC":8395,"bal":8396,"Olympic":8397,"children":8398,"opes":8399,"Ġfelt":8400,"unes":8401,"pg":8402,"uction":8403,"icer":8404,"organ":8405,"ĠWinter":8406,"1916":8407,"apore":8408,"ĠPu":8409,"kes":8410,"Ġ($\\":8411,"acent":8412,".__":8413,"aine":8414,"ĠURL":8415,"Ġindicates":8416,"Ġdisk":8417,"ĠDespite":8418,"Ġpool":8419,"Draw":8420,"herit":8421,"ĠPhys":8422,"Ġsqu":8423,"Ġextrem":8424,"ĠEll":8425,"ropolitan":8426,"HTML":8427,"Ġspirit":8428,"ĠYour":8429,"Has":8430,"worth":8431,"Äį":8432,"ĠHay":8433,"ensis":8434,"Ġclaims":8435,"scroll":8436,"ĠMedical":8437,"oster":8438,"ertificate":8439,"ĠPers":8440,"Ġlocations":8441,"setminus":8442,"Ġnuclear":8443,"Ġce":8444,"ika":8445,"Ġ${":8446,"Ġtrees":8447,"Ġexactly":8448,"ĠModel":8449,"rior":8450,"Ġtitled":8451,"Ġsubsequent":8452,"amental":8453,"ads":8454,"1915":8455,"ennessee":8456,"Ġsoc":8457,"cow":8458,"Ġjourn":8459,"ĠIndones":8460,"styles":8461,"Ġrecognized":8462,"Select":8463,"Ġvary":8464,"rency":8465,"ĠDam":8466,"=-":8467,"Ġsides":8468,"look":8469,"Ġprocedure":8470,"uce":8471,"250":8472,"ĠUse":8473,"Ġcalling":8474,"Ġrelevant":8475,"Sources":8476,"bullet":8477,"season":8478,"Ġpurchased":8479,"eman":8480,")|":8481,"Ġstarts":8482,"dy":8483,"Ġnovels":8484,"Ġcategor":8485,"Ġtranslation":8486,"Cor":8487,"Ġdepends":8488,"unte":8489,"Ġtrained":8490,"ambig":8491,"rank":8492,"Ġboy":8493,"cknow":8494,"ĠChannel":8495,"phas":8496,"ducing":8497,"Selector":8498,"living":8499,"Ġtowns":8500,"ĠWel":8501,"Ġtensor":8502,"ĠBeach":8503,"Ġengineer":8504,"ĠWeek":8505,"hard":8506,"Ġtypical":8507,"ighth":8508,"ANT":8509,"Ġgrowing":8510,"ictures":8511,"super":8512,"ĠNaz":8513,"Ġnotes":8514,"(:":8515,"Ġcrime":8516,"Network":8517,"Ġestate":8518,"ĠKal":8519,"Ġ$|":8520,"$_":8521,"Hz":8522,"Ġrough":8523,"Ġleadership":8524,"ĠSon":8525,"Ġfemales":8526,"Ġenh":8527,"Ġgranted":8528,"Database":8529,"Struct":8530,"fix":8531,"Ġindustrial":8532,"oli":8533,"itness":8534,"andra":8535,"Ġindicate":8536,"zh":8537,"oplus":8538,"Ġconverted":8539,"Ġdidn":8540,"Ġterritory":8541,"Ġbill":8542,"Ġconsum":8543,"Ġcopies":8544,"ĠElement":8545,"Enabled":8546,"Ġmiles":8547,"idi":8548,"Ġsurrounding":8549,"ĠGolden":8550,"Ġparliament":8551,"Ġreturning":8552,"Ġacts":8553,"Tax":8554,"models":8555,"Bundle":8556,"Ġdynamics":8557,"ĠAst":8558,"Ġcontinues":8559,"cles":8560,"results":8561,"ĠMill":8562,"Arch":8563,"Ġpolitics":8564,"Ġpoly":8565,"appe":8566,"settings":8567,"tw":8568,"'m":8569,"_->":8570,"original":8571,"ivial":8572,"Ġupdated":8573,"Ġtried":8574,"ĠMilitary":8575,"Section":8576,"Ġsafety":8577,"Ġcompare":8578,"ĠJoh":8579,"ĠIV":8580,"SM":8581,"ĠSecurity":8582,"\\}":8583,"Ġpages":8584,"Ġelimin":8585,"Ġsales":8586,"Ġends":8587,"Cre":8588,"defined":8589,"Ġphen":8590,"Ġresulted":8591,"Ġmeasures":8592,"osophy":8593,"illery":8594,"rizona":8595,"plom":8596,"Ġperformances":8597,"Ġvess":8598,"ĠEnt":8599,"Video":8600,"Ġcontest":8601,"pet":8602,"Ġ::":8603,"Ġfounder":8604,"ester":8605,"ĠHun":8606,"ĠLev":8607,"Ġreasons":8608,"Ġfine":8609,"grade":8610,"istical":8611,"inton":8612,"Ġgetting":8613,"arc":8614,"ĠIO":8615,"ĠColon":8616,"Ġvertices":8617,"imately":8618,"ĠWindows":8619,"Ġgained":8620,"full":8621,"Ġofficials":8622,"Ġvehicle":8623,"Ġcandidates":8624,"ĠLive":8625,"'],":8626,"Ġvisible":8627,"Ġinteresting":8628,"ruit":8629,"aux":8630,"Sch":8631,"ĠAdminist":8632,"wedge":8633,"Ġabsor":8634,"ĠOregon":8635,"Bibliography":8636,"Ġlooking":8637,"128":8638,"Ġil":8639,"pson":8640,"Ġtrust":8641,"Ġunderstand":8642,"Ġappropriate":8643,"ĠCountry":8644,"ĠRequ":8645,"Ġstone":8646,"ĠHard":8647,"Canadian":8648,"Byte":8649,"High":8650,"classes":8651,"equals":8652,"ĠKel":8653,"aren":8654,"Ġinline":8655,"atern":8656,"Ġsexual":8657,"ORM":8658,"fef":8659,"Populated":8660,"Ġrise":8661,"double":8662,"hy":8663,"ĠArthur":8664,"NG":8665,"prise":8666,"ĠMaria":8667,"wing":8668,"Parser":8669,"Ġpolar":8670,"ĠMissouri":8671,"Ġvehicles":8672,"----------------------------------------------------------------":8673,")))":8674,"Sportspeople":8675,"Ġviews":8676,"hedral":8677,"weet":8678,"holder":8679,"Ġtells":8680,"Ġdetail":8681,"Ġlie":8682,"Ġshell":8683,"Definition":8684,"ancel":8685,"Tra":8686,"ĠFox":8687,"Ġhidden":8688,"Ġlab":8689,"Ġprotect":8690,"These":8691,"Ġswim":8692,"Ġportion":8693,"Ġdrive":8694,"_{-":8695,"Ġintegral":8696,"aligned":8697,"Ġvertical":8698,"ĠAR":8699,"wrap":8700,"acc":8701,"Member":8702,"Ġedges":8703,"Ġpatients":8704,"ĠDavis":8705,"ĠRet":8706,"ancer":8707,"Ġaband":8708,"ĠJSON":8709,"Ġintegr":8710,"Ġstable":8711,"Ġdirectory":8712,"nections":8713,"udes":8714,"ugins":8715,"resp":8716,"make":8717,"ois":8718,"connect":8719,"Ġtrying":8720,"Ġfaculty":8721,"Ġreferences":8722,"ogs":8723,"ĠMunicip":8724,"Ġresident":8725,"Ġliber":8726,"Tim":8727,"Ġbelieve":8728,"mad":8729,"going":8730,"orders":8731,"Ġapparent":8732,"TER":8733,"ĠIl":8734,"Ġpackage":8735,"ĠJacob":8736,"Ġseats":8737,"Ġdocumentary":8738,"rine":8739,"Ġperforming":8740,"rig":8741,"ĠRepresentatives":8742,"ĠAtlantic":8743,"ician":8744,"ĠTal":8745,"ĠHo":8746,"1913":8747,"ĠSteve":8748,"Ġurban":8749,"Ġcontemporary":8750,"Ġpaid":8751,"Ġhabit":8752,"Ġorders":8753,"Ġcart":8754,"Ġbow":8755,"short":8756,"uy":8757,"_{{\\":8758,"atrix":8759,"Ġpolic":8760,"two":8761,"ĠAh":8762,"Ġshowing":8763,"Ġdescribes":8764,"hetic":8765,"Ġcalculated":8766,"plugin":8767,"ceived":8768,"Ġcapture":8769,"ĠConf":8770,"ĠRon":8771,"ĠMoh":8772,"Ġsuffered":8773,"ĠPolit":8774,"isa":8775,"iÃ³n":8776,"\\!\\!":8777,"ORD":8778,"vm":8779,"Del":8780,"Ġcommittee":8781,"Queue":8782,"ĠArea":8783,"Ġmind":8784,"ĠLocal":8785,"life":8786,"sear":8787,"Ġfiction":8788,"asters":8789,"zy":8790,"ĠTer":8791,"Geography":8792,"reatest":8793,"_(":8794,"ĠSpace":8795,"Ġwind":8796,"ĠCaptain":8797,"ĠDesign":8798,"ilters":8799,"ĠCastle":8800,"axis":8801,"Ġexc":8802,"Ġmomentum":8803,"ĠGallery":8804,"Ġstrings":8805,"ĠBaron":8806,"OG":8807,"fefefe":8808,"ĠConnect":8809,"Ġapproximation":8810,"ĠConst":8811,"ĠCode":8812,"ĠWhe":8813,"ĠBall":8814,"ĠHighway":8815,"Ġprocessing":8816,"ync":8817,"ĠGer":8818,"TA":8819,"Ġli":8820,"Ġ(;":8821,"ĠFamily":8822,"ĠColorado":8823,"Ġpure":8824,"Ġattributes":8825,"clusive":8826,"Ġheav":8827,"ĠSD":8828,"ĠGreg":8829,"Ġconstraints":8830,"anes":8831,"Ġadvanced":8832,"Ġinspired":8833,"Second":8834,"Here":8835,"Ġprice":8836,"session":8837,"ĠVi":8838,"HO":8839,"family":8840,"ĠTurkey":8841,"Ġdecay":8842,"Ġmsg":8843,"Ġinstalled":8844,"Ġbeaut":8845,"aws":8846,"acks":8847,"ĠAuthor":8848,"ears":8849,"aling":8850,"ĠFederation":8851,"Ġfocused":8852,"attribute":8853,"enna":8854,"atin":8855,"Loc":8856,"600":8857,"Ġtasks":8858,"agan":8859,"ading":8860,"Ġincreases":8861,"ĠEngineering":8862,"Ġassess":8863,"ĠMun":8864,"MB":8865,"Ġmac":8866,"Ġzone":8867,"ĠPhilippines":8868,"Ġtechnical":8869,"Ġdistricts":8870,"Xml":8871,"'\\":8872,"Ġfell":8873,"western":8874,"ENTRY":8875,"Japan":8876,"pur":8877,"Ġscoring":8878,"Ġappend":8879,"Windows":8880,"WA":8881,"Rule":8882,"Ġclimate":8883,"ĠIraq":8884,"mers":8885,"Ġescape":8886,"Ġrestaur":8887,"Ġnumerical":8888,"since":8889,"Ġ$[":8890,"Ġranked":8891,"Ġrend":8892,"ĠHart":8893,"irement":8894,"ĠServices":8895,"Ġattr":8896,"bles":8897,"avel":8898,"tail":8899,"tainment":8900,"Ġcab":8901,")),":8902,"ogy":8903,"wealth":8904,"Ġcorner":8905,"ĠTennessee":8906,"Ġmeant":8907,"neg":8908,"Ġcoupling":8909,"poss":8910,"Ġrecall":8911,"framework":8912,"gorithms":8913,"Ġstrateg":8914,"Ġdifferences":8915,"olds":8916,"former":8917,"formance":8918,"vard":8919,"Ġadding":8920,"ĠâĢł":8921,"ĠNorm":8922,"_{(":8923,"Ġchemical":8924,"Ġscientific":8925,"ĠMountain":8926,"bad":8927,"Ġchannels":8928,"Ġos":8929,"ĠJews":8930,"fred":8931,"rell":8932,"multi":8933,"Str":8934,"1911":8935,"Äĥ":8936,"Ġthick":8937,"ĠReal":8938,"Ġ\"/":8939,"ĠĠĠĠĠĠĠĠĠĠĠĠĠĠĠĠĠĠĠĠĠĠĠĠĠĠĠĠĠĠĠĠĠĠĠĠĠĠĠ":8940,"Ġanalog":8941,"ĠSu":8942,"ĠText":8943,"ĠKansas":8944,"ĠHal":8945,"trigger":8946,"ĠGets":8947,"depth":8948,"Ġspons":8949,"Ġfish":8950,"Cond":8951,"rane":8952,"Ġyards":8953,"Ġfraction":8954,"Ġlattice":8955,"collection":8956,"Iterator":8957,"ĠGh":8958,"Ġrom":8959,"Ġportray":8960,"^{-\\":8961,"ĠRa":8962,"ordon":8963,"Ġhands":8964,"2023":8965,"linewidth":8966,"Ġemployed":8967,"ĠBaseball":8968,"Ġsevent":8969,"Ġlosing":8970,"Ġregime":8971,"ĠNorway":8972,"Ġregistered":8973,"cha":8974,"ĠMaryland":8975,"Ġregarding":8976,"Ġcorresponds":8977,"Pattern":8978,"Ġdetailed":8979,"Ġcomposition":8980,"ĠBecause":8981,"Ġenjoy":8982,"ĠMexican":8983,"ĠMemorial":8984,"Ã¼r":8985,"items":8986,"Best":8987,"Ġdefend":8988,"Ġinterval":8989,"Ġamplit":8990,"Ġdocuments":8991,"Ġbands":8992,"custom":8993,"Ġarts":8994,"Ġpassing":8995,"Ġaccuracy":8996,"Ġbehavi":8997,"dropdown":8998,"ĠHTML":8999,"gers":9000,"Ġjournalist":9001,"icients":9002,"ĠPit":9003,"ÃŃa":9004,"Ġdetection":9005,"ĠDefault":9006,"Ġpseud":9007,"radius":9008,"called":9009,"ĠCommun":9010,"ĠBooks":9011,"Ġscholar":9012,"imit":9013,"Ġshop":9014,"ĠDig":9015,"Ġisol":9016,"ĠReport":9017,"_*":9018,"Active":9019,"ĠBru":9020,"Ġprotocol":9021,"Leg":9022,"ĠSlov":9023,"){\\":9024,"aints":9025,"StyleID":9026,"andy":9027,"oved":9028,"Ġstrongly":9029,"ĠPy":9030,"Ġidentify":9031,"COLOR":9032,"device":9033,"ĠRose":9034,"Ġgovernor":9035,"ĠNa":9036,"Ġdegrees":9037,"Ġcommunication":9038,"incial":9039,"docs":9040,"abil":9041,"Custom":9042,"TS":9043,"rin":9044,"ĠTHE":9045,"Ġple":9046,"Ġbronze":9047,"'))":9048,"haps":9049,"Arr":9050,"Ġdevices":9051,"Ġexports":9052,"Main":9053,"ti":9054,"ingham":9055,"igrants":9056,"|}":9057,"Ġcoordinates":9058,"ogen":9059,"ĠJunior":9060,"Ġprotection":9061,"256":9062,"Ġmask":9063,"ookie":9064,"semble":9065,"Ġearth":9066,"Ġcollected":9067,"ieces":9068,"operation":9069,"Use":9070,"ritical":9071,"ĠMelbourne":9072,"Ġauthorities":9073,"Fields":9074,"acew":9075,"ocese":9076,"lay":9077,"ĠFreder":9078,"events":9079,"ĉĠĠĠĠĠĠĠĠĠĠĠĠĠĠĠ":9080,"SQL":9081,"acle":9082,"ĠColl":9083,"ĠVo":9084,"Ġspectral":9085,"WS":9086,"ordan":9087,"Â°":9088,"Ġfacility":9089,"Ġgain":9090,"Ġdiam":9091,"ĠNumber":9092,"Ġmorph":9093,"kh":9094,"ĠMic":9095,"bigg":9096,"Ġrecip":9097,"Ġgra":9098,"Ø§":9099,"agonal":9100,"Ġresear":9101,"Ġattempts":9102,"stat":9103,"III":9104,"Ġvillages":9105,"Extension":9106,"ĠMicrosoft":9107,"Ġfreedom":9108,"Ġadvance":9109,"Ġtaught":9110,"rac":9111,"ĠIP":9112,"ĠUkraine":9113,"eners":9114,"Gen":9115,"inals":9116,"ĠLabor":9117,"Ġprepar":9118,"ĠKhan":9119,"tip":9120,"equality":9121,"everal":9122,"een":9123,"Ġpainting":9124,"recated":9125,"Ġimportance":9126,"Two":9127,"ĠInformation":9128,"achment":9129,">.":9130,"}%":9131,"Selected":9132,"Ġrepresentative":9133,"Har":9134,"sto":9135,"ĠSav":9136,"Ġchairman":9137,"ĠPier":9138,"ĠEnc":9139,"such":9140,"ĠLewis":9141,"Death":9142,"ĉĠĠĠĠĠĠĠĠ":9143,"Following":9144,"ACE":9145,"Ġextend":9146,"export":9147,"Ġsupply":9148,"1908":9149,"ĠBrother":9150,"iterator":9151,"Ġcloud":9152,"Descriptor":9153,"mazon":9154,"Ġemphas":9155,"Ġ'/":9156,"ictional":9157,"ĠNOT":9158,"Ġcolumns":9159,"Ġyounger":9160,"ĠHence":9161,"ĠNiger":9162,"Ġlicense":9163,"ĠMoscow":9164,"awn":9165,"Ġpublication":9166,"uese":9167,"ĠChristmas":9168,"ĠBat":9169,"Device":9170,"Ġpowerful":9171,"Ġincident":9172,"Ġdiscussion":9173,"shape":9174,"selected":9175,"ĠCH":9176,"Ġminim":9177,"Ġnominated":9178,"toggle":9179,"CF":9180,"iful":9181,"ollary":9182,"Ġbillion":9183,"ancell":9184,"ahoma":9185,"apel":9186,"nership":9187,"Api":9188,"Ġinjury":9189,"Ġsomeone":9190,"Ġadvert":9191,"Ġperfect":9192,"Ġcampus":9193,"nergy":9194,"Ġdropped":9195,"Namespace":9196,"Ġctx":9197,"Ġeducated":9198,"Ġworth":9199,"special":9200,"ĠTransport":9201,"Ġperturb":9202,"110":9203,"GR":9204,"ynasty":9205,"ĠLeon":9206,"Ġtypename":9207,"ĠTrust":9208,"Ġburied":9209,"ymn":9210,"agen":9211,"Channel":9212,"Ġfans":9213,"ĠGlobal":9214,"ĠMoreover":9215,"bell":9216,"ĠEP":9217,"Job":9218,"Ġmodes":9219,"->_":9220,"Ġsimpl":9221,"ulus":9222,"Ġoptimal":9223,"Ġmeasurements":9224,"ĠPlan":9225,"blue":9226,"\",\"":9227,"ĠHou":9228,"Ġaccident":9229,"Ġmechanism":9230,"160":9231,"east":9232,"What":9233,"Title":9234,"Eq":9235,"ĠStock":9236,"ĠCopy":9237,"ĠNode":9238,"itzerland":9239,"Jo":9240,"secutive":9241,"textsc":9242,"Ġarms":9243,"Ġsatisfies":9244,"lywood":9245,"Ġstarring":9246,"Ġinfra":9247,"BR":9248,"Ġspl":9249,"*{":9250,"coln":9251,"Debug":9252,"Ġsupports":9253,"Ġsucceeded":9254,"ques":9255,"Ġimplemented":9256,"Ġfinds":9257,"Ġscalar":9258,"Ġimproved":9259,"Cap":9260,"ĠMult":9261,"Ġtheoret":9262,"subfigure":9263,"Application":9264,"ounce":9265,"Internal":9266,"ĠSurvey":9267,"ĠEs":9268,"rainian":9269,"ĠRoss":9270,"à¸":9271,"ambiguation":9272,"onder":9273,"power":9274,"Ġmedium":9275,"123":9276,"agu":9277,"Ġ^":9278,"ĠlP":9279,"Ġdecor":9280,"ivals":9281,"Ġthreshold":9282,"Ġinvolving":9283,"Ġ(),":9284,"ĠNO":9285,"]]":9286,"Ġproport":9287,"ĠSingapore":9288,"icensed":9289,"pective":9290,"ĠMA":9291,"Matrix":9292,"colon":9293,"inv":9294,"Ġdaily":9295,"Australian":9296,"ĠDor":9297,"*)":9298,"Ġ\"\"":9299,"Ġapproaches":9300,"ionally":9301,"Ġconsole":9302,"Keys":9303,"ĠMalays":9304,"Ġunderstanding":9305,"ĠPhilip":9306,"(__":9307,"icity":9308,"CI":9309,"Ġenabled":9310,"Ġassumption":9311,"Ġtend":9312,"ifer":9313,"Ġdispl":9314,"Ġtheatre":9315,"onal":9316,"ĠDom":9317,"ussion":9318,"GS":9319,"Ġthing":9320,"ocate":9321,"Our":9322,"Ġending":9323,"Ġsimulations":9324,"Ġrepeated":9325,"ĠBah":9326,"Ġrecognition":9327,"ĠArizona":9328,"Vari":9329,"aks":9330,"ĠExecut":9331,"success":9332,"Ġfrequently":9333,"Ġdesignated":9334,"Fail":9335,"Ġyellow":9336,"Ġteaching":9337,"Ġspeech":9338,"Ġunable":9339,"ogene":9340,"ĠHur":9341,"ĠEth":9342,"Ġicon":9343,"Life":9344,"Ġpartition":9345,"agg":9346,"Ġaffected":9347,"ographer":9348,"Ġheat":9349,"exception":9350,"abbr":9351,"Ġpowers":9352,"ronic":9353,"archy":9354,"MI":9355,"Ġauthority":9356,"Ġachieve":9357,"ĠSunday":9358,"Ġprefix":9359,"artifact":9360,"Ġadvantage":9361,"Ġquestions":9362,"ĠVersion":9363,"aph":9364,"props":9365,")\\,":9366,"ĠAnderson":9367,"queue":9368,"outs":9369,"Ġcomputed":9370,"Ġaudience":9371,"offs":9372,"Ġreceiving":9373,"Dav":9374,"ĠSat":9375,"Ġstock":9376,"Ã©s":9377,"idel":9378,"lig":9379,"panel":9380,"Ġ|\\":9381,"idge":9382,"Ġaggreg":9383,"Ġpromise":9384,"ĠEntertainment":9385,"Ġinvestigation":9386,"ĠAffairs":9387,"Ġfn":9388,"unsigned":9389,"Ġcovers":9390,"Ġtrains":9391,"auto":9392,"Ġhall":9393,"William":9394,"olt":9395,"ĠAmb":9396,"bat":9397,"ĠProposition":9398,"Ġcriminal":9399,"Exec":9400,"Hon":9401,"ĠForeign":9402,"ĠKa":9403,"ĠNY":9404,"ĠSquadron":9405,"Ġdoctor":9406,"pres":9407,"JSON":9408,"Ġefficient":9409,"ĠRow":9410,"Ñĥ":9411,"Elements":9412,"Ġanimals":9413,"Ġconsisting":9414,"edia":9415,"rium":9416,"engers":9417,"ĠTurn":9418,"Microsoft":9419,"ITY":9420,"obuf":9421,"Ġarrested":9422,"Ġpossibly":9423,"ĠWell":9424,"uties":9425,"Ġfeet":9426,"Plot":9427,"agraph":9428,"Ġuncertain":9429,"Television":9430,"Ġvocal":9431,"margin":9432,"Ġdepending":9433,"Ġ}\\":9434,")}(":9435,"Ġcoaches":9436,"ĠKitt":9437,"Ġloan":9438,"ĠWrit":9439,"Ġpremier":9440,"Ġtwenty":9441,"Ġcircle":9442,"Ġtick":9443,"notation":9444,"BO":9445,"ĠTH":9446,"orro":9447,"Ġsubstant":9448,"Writ":9449,"Ġnucle":9450,"agh":9451,"Ġdie":9452,"Ġmathemat":9453,"ĠBarn":9454,"Ġletters":9455,"ĠFellow":9456,"ername":9457,"Ġscheduled":9458,"Ġracing":9459,"arest":9460,"ĠBos":9461,"Ġcommander":9462,"Ġdrums":9463,"heet":9464,"assertEquals":9465,"NotNull":9466,"Ġinvariant":9467,"ĠJos":9468,"Ġ(,":9469,"Ġdb":9470,"phone":9471,"Ġvisited":9472,"Ġaffili":9473,"Ġformerly":9474,"Ġimag":9475,"ĠAlbert":9476,"PU":9477,"Step":9478,"rim":9479,"Ġwins":9480,"'>":9481,"cases":9482,">();":9483,"padding":9484,"Ġbutton":9485,"Ġnotice":9486,"Ġtechnique":9487,"abama":9488,"ĠGreece":9489,"heim":9490,"eless":9491,"Å«":9492,"Ġconvent":9493,"okes":9494,"Ant":9495,"FAULT":9496,"Media":9497,"Ġmorning":9498,"ĠNative":9499,"ĠInfantry":9500,"PORT":9501,"eli":9502,"ĠDu":9503,"ango":9504,"roit":9505,"Ġreduction":9506,"Play":9507,"klahoma":9508,"Ġplanning":9509,"Ġjudge":9510,"Ġcaptain":9511,"Ġrefers":9512,"Auth":9513,"Although":9514,"ĠCab":9515,"prob":9516,"Ġsubs":9517,"Pool":9518,"ulating":9519,"Ġfighting":9520,"=\"../../../../../":9521,"brief":9522,"Ġtele":9523,"Ġcool":9524,"istration":9525,"Ġoptional":9526,"Ġtransaction":9527,"Ġentries":9528,"Ġburn":9529,"Ġanalyt":9530,"Ġfestival":9531,"Send":9532,"GE":9533,"Ġpicture":9534,"dict":9535,"Ġcritics":9536,"ĠObserv":9537,"ĠArk":9538,"tmp":9539,"Ġfilename":9540,"Ġguest":9541,"++;":9542,"Ġpush":9543,"Ġassembly":9544,"ouses":9545,"ĠIowa":9546,"ilib":9547,"Ġjson":9548,"zi":9549,"Ġprev":9550,"kind":9551,"Ġguard":9552,"Ġtoward":9553,"Ġcorrelation":9554,"bel":9555,"unnel":9556,"ĠMiller":9557,"eval":9558,"undefined":9559,"dates":9560,"irty":9561,"ĠAustria":9562,"'_":9563,"KEY":9564,"ĠLow":9565,"Ġhypot":9566,"Ġspecifically":9567,"Ġexport":9568,"ftware":9569,"Register":9570,"Ġanything":9571,"Ġideas":9572,"Ġmanagers":9573,"Ġconversion":9574,"Ġtower":9575,"loop":9576,"Dialog":9577,"Ġtransparent":9578,"Ġbin":9579,"Ġinvent":9580,"DI":9581,"Flags":9582,"Family":9583,"Ġinterested":9584,"Ġopposition":9585,"Ġangular":9586,"ĠVietnam":9587,"Jan":9588,"Ġtransformation":9589,"ĠSO":9590,"uda":9591,"Ġcurves":9592,"disambiguation":9593,"ĠBOO":9594,"Br":9595,"atible":9596,"cover":9597,"icut":9598,"clude":9599,"Ġprime":9600,"Ang":9601,"GC":9602,"Ġvice":9603,"Ġvir":9604,"Ġaffect":9605,"Ġguarant":9606,"Lo":9607,"mont":9608,"MAX":9609,"Ġdefense":9610,"Ġintroduce":9611,"ĠBu":9612,"Pres":9613,"[$":9614,"Display":9615,"Ġroyal":9616,"ĠPrinc":9617,"uther":9618,"ĠMas":9619,"Ġcoefficients":9620,"Ġhorse":9621,"Ġdefin":9622,"Ġmales":9623,"Changed":9624,"ĠHoly":9625,"Ġago":9626,"ĠLINE":9627,"creen":9628,"Ġfashion":9629,"tty":9630,"Ġinteractions":9631,"comment":9632,"rait":9633,"ĠKentucky":9634,"ĠNorwegian":9635,"Ġsixth":9636,"Props":9637,"Ġenv":9638,"ublin":9639,"boost":9640,"1890":9641,"Ġconsecutive":9642,"Ġsimulation":9643,"Ġpainter":9644,"ĠConc":9645,"ĠEmperor":9646,"Mock":9647,"Ġcauses":9648,"ĠLiter":9649,")_{":9650,"Ġopposite":9651,"Attributes":9652,"ĠDa":9653,"Ġlimits":9654,"igenous":9655,"Ġmerged":9656,"WR":9657,"wich":9658,"ĠSri":9659,"ĠHarry":9660,"ĠQueensland":9661,"Ġoldest":9662,"ĠBattalion":9663,"Ġextensive":9664,"rv":9665,"risis":9666,"Ġeconomy":9667,"ĠRoy":9668,"ĠLind":9669,"Ġinvalid":9670,")).":9671,"ndef":9672,"wick":9673,"ĠFront":9674,"Ġnob":9675,"Ġlabels":9676,"1905":9677,"Bel":9678,"uli":9679,"ĠĠĠĠĠĠĠĠĠĠĠĠĠĠĠĠĠĠĠĠĠĠ":9680,"indexOf":9681,"Ġdenotes":9682,"Ġresc":9683,"ateur":9684,"Ġattempted":9685,"Rail":9686,"Ġopposed":9687,"Ġpieces":9688,"Ġiron":9689,"ĠBalt":9690,"ĠĠĠĠĠĠĠĠĠĠĠĠĠĠĠĠĠĠĠĠĠĠĠĠĠ":9691,"),\\":9692,"just":9693,"ĠEven":9694,"isted":9695,"Ġpurposes":9696,"Ġrepro":9697,"ĠAdv":9698,"Ã©t":9699,"wall":9700,"Ġgeometry":9701,"FN":9702,"ĠRecord":9703,"Msg":9704,"incess":9705,"structor":9706,"Ġarbitrary":9707,"ĠBeng":9708,"Ġsupporting":9709,"Tab":9710,"ĠTony":9711,"Ġmatching":9712,"ĠCape":9713,"Ġbits":9714,"ups":9715,"ĠAmericans":9716,"!<":9717,"Ġunless":9718,"ĠPath":9719,"Ġrear":9720,"Ġphysics":9721,"ĠOt":9722,"Ġdimensions":9723,"Ġconsult":9724,"inline":9725,"Lock":9726,"Ġtail":9727,"ĠEric":9728,"Ġnortheast":9729,"Scroll":9730,"Ġcompris":9731,"Security":9732,"ĠLtd":9733,"Proxy":9734,"Euro":9735,"FM":9736,"Ġsuggests":9737,"ĠJava":9738,"(!":9739,"%,":9740,"Ġexecution":9741,"Ġheadquarters":9742,"Ġbroken":9743,"BI":9744,"Close":9745,"ĠStr":9746,"achers":9747,"ifiers":9748,"Ġsuperv":9749,"1907":9750,"ivated":9751,"eral":9752,"ando":9753,"ĠParam":9754,"gar":9755,"Items":9756,"aded":9757,"tn":9758,"Ġapproved":9759,"Ġtools":9760,"Ġspot":9761,"application":9762,"omorphic":9763,"ĠManchester":9764,"Ġcharged":9765,"Ġsust":9766,"duces":9767,"Ġsingular":9768,"Ġwrong":9769,"Ġmessages":9770,"}}(\\":9771,"evin":9772,"ĠView":9773,"Ġabstract":9774,"oths":9775,"Ġflood":9776,"ĠFame":9777,"area":9778,"Ġcharts":9779,"hl":9780,"Ġ&=&":9781,"RC":9782,"ĠBillboard":9783,"Ġaudio":9784,"elson":9785,"ĠLike":9786,"SION":9787,"Ġecho":9788,"North":9789,"ilbert":9790,"1909":9791,"ĠSwitzerland":9792,"$^{-":9793,"Ġinvas":9794,"Ġsan":9795,"Ġphenomen":9796,"mosp":9797,"flags":9798,"1906":9799,"ĠTel":9800,"Ġdisestabl":9801,"=\"-":9802,"}\"":9803,")_":9804,"Ġfuel":9805,"Ġgap":9806,"issip":9807,"dam":9808,"Ġcriter":9809,"Ġsubset":9810,"Runtime":9811,"Ġgod":9812,"ĠLag":9813,"101":9814,"Ġinequality":9815,"Nodes":9816,",\\,":9817,"ivation":9818,"TED":9819,"important":9820,"rg":9821,"Ġsummary":9822,"Ġclearly":9823,"ĠAdam":9824,"sql":9825,"ĠSound":9826,"adi":9827,"ĠAL":9828,"Ġtradition":9829,"Ġsituated":9830,"vs":9831,"Ġexecuted":9832,"Ġglass":9833,"ĠModern":9834,"Ġenvironmental":9835,"zone":9836,"bums":9837,"Float":9838,"ĠOcean":9839,"ĠKy":9840,"Ġstorm":9841,"ĠFord":9842,"Rest":9843,"Ġencoding":9844,"ureau":9845,"ĠLast":9846,"ĠAction":9847,"Ġng":9848,"ĠNick":9849,"Ġdistributions":9850,"Ġwrap":9851,"parameters":9852,"ĠForces":9853,"Ġideal":9854,"Ġsomew":9855,"ĠSpacew":9856,"Christ":9857,"ĠTODO":9858,"Len":9859,"Ġrequirements":9860,"ĠInternet":9861,"ONE":9862,"ĠNap":9863,"refect":9864,"subsubsection":9865,"Ġpromotion":9866,"Ġholding":9867,"Ġintroduction":9868,"oa":9869,"region":9870,"ĠTask":9871,"Ġturns":9872,"Ġpointer":9873,"Ġopin":9874,"Ġmassive":9875,"forward":9876,"stan":9877,"etes":9878,"onical":9879,"Ġhero":9880,"ĠSimon":9881,"Ġfinding":9882,"Profile":9883,"Ġouter":9884,"ĠJane":9885,"uj":9886,"ĠBurn":9887,"ĠBan":9888,"Ġcontrolled":9889,"hire":9890,"person":9891,"elve":9892,"chant":9893,"ĠSpacewatch":9894,"Ġclin":9895,"Ġeq":9896,"hentication":9897,"Pointer":9898,"tri":9899,"inth":9900,"odec":9901,"record":9902,"Notable":9903,"ĠĠĠĠĠĠĠĠĠĠĠĠĠĠĠĠĠĠĠĠĠĠĠĠ":9904,"Ġbought":9905,"Ġ(_":9906,"Ġpasses":9907,"Ġnor":9908,"Ġpeace":9909,"ĠNon":9910,"para":9911,"Ġinterior":9912,"NC":9913,"ugu":9914,"ĠMagazine":9915,"notes":9916,"Ġattached":9917,"ĠImp":9918,"Ġwhereas":9919,"uts":9920,"ĠEarl":9921,"Ġschol":9922,"Ġultimately":9923,"ĠGre":9924,"ĠAD":9925,"Ġ+\\":9926,"cknowled":9927,"perp":9928,"icip":9929,"Ġbrothers":9930,"night":9931,"ĠStaff":9932,"Ġsand":9933,"gradient":9934,"green":9935,".~(\\":9936,"ĠSix":9937,"ATH":9938,"Ġoptical":9939,"ĠTokyo":9940,"PAR":9941,"Ġoccupied":9942,"Ġmusician":9943,"channel":9944,"enez":9945,"Ġpilot":9946,"iative":9947,"etween":9948,"Click":9949,")^{\\":9950,"###":9951,"Named":9952,"Ġreader":9953,"Ġhtml":9954,"bytes":9955,"ĠCy":9956,"Ġentirely":9957,"Ġodd":9958,"Bas":9959,"ĠLeb":9960,"Ġvent":9961,"Ġsubt":9962,"Ġrh":9963,"ĠLincoln":9964,"Ġcamera":9965,"Ġcombat":9966,"don":9967,"Ġlat":9968,"Ġclosely":9969,"Ġtab":9970,"Wrapper":9971,"icians":9972,"ĠChile":9973,"Ġarrang":9974,"essions":9975,"iley":9976,"ĠSocorro":9977,"ĠÄ":9978,"fire":9979,"Ġhistorian":9980,"ĠColomb":9981,"ĠLINEAR":9982,"Ġdrawn":9983,"inema":9984,"including":9985,"Ġsurname":9986,"uma":9987,"ĠAlabama":9988,"Ġsportspeople":9989,"Ġenable":9990,"Football":9991,"Ġrotation":9992,"Ġsingers":9993,"amely":9994,"ante":9995,"theme":9996,"Ġnegot":9997,"ĠFund":9998,"'ve":9999,"Ġrefused":10000,"Ġseparated":10001,"puter":10002,"Ð²":10003,"Ġdeveloping":10004,"FS":10005,"ĠBor":10006,"izable":10007,"Ġio":10008,"move":10009,"Ġfolk":10010,"Ã¥":10011,"Cluster":10012,"Ġentity":10013,"Ġseed":10014,"ĠFace":10015,"hens":10016,"Ġestimates":10017,"adoop":10018,"ĠTan":10019,"Ġaired":10020,"Ġfresh":10021,"Ġlect":10022,"////////////////////////////////":10023,"Ġready":10024,"Ġhour":10025,"plot":10026,"Ġadjust":10027,"Ġadjacent":10028,"category":10029,"illing":10030,"Ġdiplom":10031,"Ġcommit":10032,"achelor":10033,"total":10034,"lyph":10035,"ĠPot":10036,"Vill":10037,"imeq":10038,"Her":10039,"Ġalgorithms":10040,"Ġcompilation":10041,"}$-":10042,"Ġmayor":10043,"aby":10044,"Ġstellar":10045,"Ġwinter":10046,"iversary":10047,"forall":10048,"Ġorth":10049,"ĠNev":10050,"ĠKat":10051,"Ġfunding":10052,"simeq":10053,"Ġgirls":10054,"1904":10055,"Common":10056,"IE":10057,"ĠTa":10058,"SY":10059,"ĠBG":10060,"ulator":10061,"Ġmapping":10062,"Ġreaction":10063,"ichol":10064,"admin":10065,"Ġcosts":10066,"Ġlyrics":10067,"artifactId":10068,"Ġconj":10069,"uating":10070,"Ġexplained":10071,"ridges":10072,"ushed":10073,"ĠSche":10074,"ologists":10075,"CM":10076,"Ep":10077,"ĠTelevision":10078,"Ġcompetitions":10079,"Ġsons":10080,"Ġcontribut":10081,"iner":10082,"screen":10083,"ben":10084,"Ġraw":10085,"ĠDun":10086,"Ġqualified":10087,"BB":10088,"jar":10089,"NR":10090,"ĠBuilding":10091,"rase":10092,"ĠCart":10093,"ĉĠĠĠĠ":10094,"Ġtrip":10095,"UID":10096,"ĠStory":10097,"ĠNav":10098,"Ġcoverage":10099,"Figure":10100,"ĠWho":10101,"cam":10102,"Ġsettled":10103,"Af":10104,"ellite":10105,"180":10106,"Ġarran":10107,"Ġminimal":10108,"Ġstored":10109,"Ġplus":10110,"ĠMatt":10111,"Ġlists":10112,"ĠRegional":10113,"ĠJam":10114,"Ġtemple":10115,"olished":10116,"Ġkeyboard":10117,"entials":10118,"forms":10119,"Ġbright":10120,"[:":10121,"anton":10122,"ĠAbout":10123,"oust":10124,"Ġstrip":10125,"ĠTen":10126,"Ġjav":10127,"$$\\":10128,"ĠMit":10129,"Ġmeasurement":10130,"Ġdownload":10131,"aturday":10132,"Ġroof":10133,"ĠCost":10134,"1903":10135,"Ġindependence":10136,"Indian":10137,"ses":10138,"Ġsail":10139,"gency":10140,"Ġmock":10141,"oves":10142,"mask":10143,"ĠBrian":10144,"Ġgar":10145,"Constraint":10146,"ĠWalter":10147,"ãĢ":10148,"Ġlake":10149,"Ġqueue":10150,"Ġwalls":10151,"Ġunderlying":10152,"Ġanimation":10153,"Syntax":10154,"arse":10155,"Ġfunctional":10156,"olo":10157,"ultane":10158,"Global":10159,"'}":10160,"itable":10161,"Parse":10162,"Education":10163,"Ġbroke":10164,"Ġopportunity":10165,"ĠCroat":10166,"Ġbriefly":10167,"Ġchallenge":10168,"Ġsafe":10169,"ivery":10170,"ĠZh":10171,"Bit":10172,"rett":10173,"ounded":10174,"ĠRights":10175,"emony":10176,"complete":10177,"Ġelectronic":10178,"Ġlocally":10179,"ĠIndex":10180,"hom":10181,"burn":10182,"Ġspan":10183,"oda":10184,"Ġtempor":10185,"Ġbounds":10186,"ĠMarine":10187,"agues":10188,"iami":10189,"ships":10190,"Div":10191,"letion":10192,"Ġopera":10193,"Ġ\\(":10194,"ipl":10195,"ĠOklahoma":10196,"ĠPur":10197,"Ġrequests":10198,"ghan":10199,"ĠAge":10200,"ĠDiego":10201,"Feature":10202,"spring":10203,"Ġcharges":10204,"ĠGib":10205,"{$\\":10206,"ĠBefore":10207,"Born":10208,"Ġcosm":10209,"ĠStart":10210,"ĠDoctor":10211,"Ġpaths":10212,"tor":10213,"ĠChildren":10214,")^{-":10215,"Ġsignature":10216,"onomy":10217,"}}^":10218,"sa":10219,"Ġdetect":10220,"ideos":10221,"issippi":10222,"Ġbuilder":10223,"$).":10224,"1901":10225,"Ġmagnitude":10226,"ĠBrand":10227,"Ġcrow":10228,"extend":10229,"Ġheard":10230,"Opt":10231,"modal":10232,"ĠTurkish":10233,"ĠHoward":10234,"ĠDomin":10235,"acket":10236,"addr":10237,"Ġmel":10238,"%.":10239,"scill":10240,"Ġ$$":10241,"ista":10242,"ĠDur":10243,"ĠLank":10244,"'ll":10245,"Ġremark":10246,"(){":10247,"Ġcas":10248,"iva":10249,"ĠCOVID":10250,"Ġfundamental":10251,"Ġbudget":10252,"Ġdecades":10253,"Loader":10254,"Ġter":10255,"Ġkilling":10256,"Military":10257,"Ġdynamic":10258,"Ġspatial":10259,"ĠVAL":10260,"Full":10261,"ĠDream":10262,"Ġobservation":10263,"Ġtrib":10264,"brid":10265,"Ġsoutheast":10266,"Ġdependence":10267,"Ġexhibition":10268,"Ġfavour":10269,"ĠQuebec":10270,"handler":10271,"Ġdriving":10272,"Conn":10273,"thread":10274,"Mer":10275,"Ġgalaxy":10276,"odot":10277,"ĠUsing":10278,"Mount":10279,"Classes":10280,"ĠGab":10281,"ĠjQuery":10282,"Ins":10283,"oly":10284,"Ġnarr":10285,"Ġmobile":10286,"Ġhotel":10287,"Club":10288,"ĠSC":10289,"ĠFinally":10290,"oslav":10291,"rf":10292,"groupId":10293,"ĠSenior":10294,"ĠArmen":10295,"Ġshortly":10296,"IB":10297,"DIR":10298,"ieval":10299,"ĠConnecticut":10300,"lot":10301,"RR":10302,"ĠCop":10303,"aro":10304,"Ġusage":10305,"Ġcontributed":10306,"closed":10307,"mo":10308,"printf":10309,"Ġ[],":10310,"bean":10311,"FILE":10312,"ĠEnvironment":10313,"Plugin":10314,"Ġlearned":10315,"Ġconsisted":10316,"Ġsubgroup":10317,"ĠBulg":10318,"Ġcommissioned":10319,"ĠDark":10320,"Ġautomatically":10321,"Ġmand":10322,"abad":10323,"ĠFinn":10324,"Ġdepict":10325,"ĠStone":10326,"Ġeverything":10327,"ĠNFL":10328,"inces":10329,"ĠCommonwealth":10330,"Scale":10331,"Ġsetup":10332,"NavBar":10333,"Ġpresidential":10334,"ĠGram":10335,"}^*":10336,"Ġreq":10337,"mc":10338,"ĠHas":10339,"Compar":10340,"Newton":10341,"ĠHamp":10342,"SIZE":10343,"annotation":10344,"osity":10345,"ĠFurthermore":10346,"Ġdates":10347,"Ġduration":10348,"ĠHans":10349,"proto":10350,"\\_":10351,"ĠRest":10352,"Ġlib":10353,"Ġattacked":10354,")));":10355,"Ġherself":10356,"ĠNik":10357,"Ġpermanent":10358,"Ġlayers":10359,"connection":10360,"metadata":10361,"Auto":10362,"ĠHeart":10363,"oom":10364,"anim":10365,"Ġapplic":10366,"Ġdomestic":10367,"Most":10368,"ĠReb":10369,"odox":10370,"ĠWolf":10371,"ĠPage":10372,"ĠDC":10373,"Ġkernel":10374,"ownt":10375,"Ġstandards":10376,"Ġmetres":10377,"Ġjump":10378,"displaystyle":10379,"CHECK":10380,"eness":10381,"impl":10382,"Ġ>>>":10383,"antasy":10384,"Ġobserve":10385,"Phil":10386,"enny":10387,"ĠWhit":10388,"Errorf":10389,"Ġhighlight":10390,"ĠHouston":10391,"Ġreserv":10392,"ĠAre":10393,"oni":10394,"domain":10395,"Ġfought":10396,"ĠLabour":10397,"Ġcausing":10398,"Ġacceler":10399,"antly":10400,"exists":10401,"Ġmatrices":10402,"ĠFM":10403,"125":10404,"Ġaged":10405,"ĠMarc":10406,"1902":10407,"ĠPrix":10408,"Ġ..":10409,"Prefix":10410,"Ġfounding":10411,"Short":10412,"Ġentitled":10413,"ladesh":10414,"ECT":10415,"Ġreality":10416,"initial":10417,"Account":10418,"Ġviolence":10419,"eties":10420,"ĠSky":10421,"Ġguns":10422,"ĠDim":10423,"Ġpolicies":10424,"GA":10425,"Ġflags":10426,"Ġbodies":10427,"Ġadapted":10428,"Ġmach":10429,"ĠSign":10430,"ĠOriginal":10431,"ĠFa":10432,"Ġalter":10433,"died":10434,"Ġbrowser":10435,"ĠDue":10436,"tah":10437,"ĠCemetery":10438,"ĠNaval":10439,"ĠAmong":10440,"SV":10441,"ĠBrun":10442,"ĠThird":10443,"Route":10444,"ĠThrough":10445,"Ġalleged":10446,"ifndef":10447,"Ġ).":10448,"ardo":10449,"Thus":10450,"Editor":10451,"ĠAllen":10452,"1880":10453,"Ġdifferential":10454,"arry":10455,"ructions":10456,"LOG":10457,"Selection":10458,"Grid":10459,"Ġinhabit":10460,"Ġmanner":10461,"cret":10462,"Ġcontroller":10463,"Ġusual":10464,"fi":10465,"rub":10466,"iggs":10467,"Ġprogramme":10468,"rik":10469,"ribed":10470,"Ġliqu":10471,"ĠBrigade":10472,"Ġcoordinate":10473,"ĠEN":10474,"Ġprotein":10475,"ĠKer":10476,"Ġfunds":10477,"support":10478,"vo":10479,"Ġbran":10480,"ĠRey":10481,"Print":10482,"Ġairport":10483,"oked":10484,"Ġpars":10485,"ĠNCAA":10486,"ĠGall":10487,"alia":10488,"aked":10489,"orer":10490,"orest":10491,"cloud":10492,"xis":10493,"Imp":10494,"Major":10495,"ĠHom":10496,"Ġplanet":10497,"Ġbeam":10498,"chain":10499,"Ġtell":10500,"ĠChampions":10501,"svg":10502,"Ġsymmetric":10503,"Ġagents":10504,"Transform":10505,"Ġyields":10506,"Ġrejected":10507,"cb":10508,"Collections":10509,"Ġlayout":10510,"uted":10511,"RT":10512,"Ġconven":10513,"ĠBit":10514,"Ġargued":10515,"ĠSilver":10516,"opic":10517,"Ġindicated":10518,"attery":10519,"ĠWy":10520,"EP":10521,"Ġaware":10522,"Ġmaintain":10523,"ĠArgentina":10524,"^{+":10525,"ĠSquare":10526,"editor":10527,"assertEqual":10528,"Ġjur":10529,"Ġdesired":10530,"friend":10531,"Ġreson":10532,"slice":10533,"Govern":10534,"Ġtyped":10535,"ĠPope":10536,"Ġthin":10537,"Ġliterary":10538,"chell":10539,"ĠAnne":10540,"picker":10541,"Under":10542,"Ġrich":10543,"ĠSel":10544,"á»":10545,"Ġprinciple":10546,";->":10547,"Ġscroll":10548,"Files":10549,"ĠMoon":10550,"ĠTrump":10551,"Single":10552,"ĠLemmon":10553,"Ġclusters":10554,"Ġjazz":10555,"ĠSupport":10556,"ĠHockey":10557,"ĠSwiss":10558,"ĠEver":10559,"iration":10560,"pot":10561,"cccc":10562,"Ġopts":10563,"inburgh":10564,"(@":10565,"ĠRab":10566,"Ġcert":10567,"Ġsac":10568,"Ġfaced":10569,"Ġwealth":10570,"Ġanswer":10571,"ĠVar":10572,"Ġintersection":10573,"opter":10574,"ifts":10575,"Framework":10576,"Ġchurches":10577,"avor":10578,"Ġretirement":10579,"words":10580,"Ġkil":10581,"ĠDeb":10582,"Ġcircum":10583,"profile":10584,"esian":10585,"Black":10586,"ĠPatrick":10587,"ĠKam":10588,"schema":10589,"Reception":10590,"ĠPortuguese":10591,"avi":10592,"Children":10593,"&#":10594,"ĠControl":10595,"mock":10596,"ikh":10597,"Ġweapons":10598,"ĠJordan":10599,"wen":10600,"Ġexperi":10601,"ĠGordon":10602,"network":10603,"Remove":10604,"Ġstadium":10605,"ĠImm":10606,"Ġahead":10607,"sheet":10608,"Statement":10609,"Ġtennis":10610,"Ġchanging":10611,";\"|":10612,"ĠPas":10613,"ĠGard":10614,"Ġenemy":10615,"ĠCommunic":10616,"ĠDat":10617,"kov":10618,"Ġweather":10619,"Ġmonitor":10620,"Ġdoor":10621,"Show":10622,"ĠExecutive":10623,"Ġdirectors":10624,"Star":10625,"ĠPa":10626,"Ġwire":10627,"sson":10628,"Ġcompletion":10629,"ĠLL":10630,"Ġnotation":10631,"ĠPhill":10632,"Ġrows":10633,"Mac":10634,"Ġsoccer":10635,"Using":10636,"ĠFac":10637,"Ġbrown":10638,"Cam":10639,"world":10640,"ĠSud":10641,"Ġlocomot":10642,"when":10643,"Ġpreced":10644,"Ġpromote":10645,"upl":10646,"lower":10647,"ĠResult":10648,"nie":10649,"Ġtranslated":10650,"ographical":10651,"Ġpartnership":10652,"Ġstress":10653,"remark":10654,"ĠAlber":10655,"Ġproducing":10656,"Layer":10657,"ĠChall":10658,"picture":10659,"aton":10660,"atar":10661,"ĠAnthony":10662,"Ġpatterns":10663,"ĠHonor":10664,"diff":10665,"Ġok":10666,"Ġoperate":10667,"ĠBelgium":10668,"Ġstyles":10669,"Tests":10670,"Ġturb":10671,"ĠAle":10672,"Ġorbit":10673,"Ġsought":10674,"Ġexit":10675,"urst":10676,"Ġconstructor":10677,"Ġchance":10678,"encing":10679,"pred":10680,"entity":10681,"none":10682,"Miss":10683,"Ġscenes":10684,"gressive":10685,"Ġreligion":10686,"Ġcharacteristic":10687,"Ġcricket":10688,"ĠMand":10689,"Ġpoll":10690,"ĠTemple":10691,"Ġspectra":10692,"Ġkick":10693,"Term":10694,"hadoop":10695,"Protocol":10696,"Capt":10697,"çļ":10698,"ĠKaz":10699,"How":10700,"Ġtheoretical":10701,"Ġcolour":10702,"inking":10703,"Ġaspects":10704,"ĠInn":10705,"Roman":10706,"properties":10707,"Ġmaintained":10708,"Ġ/*!<":10709,"Ġoffices":10710,"ĠHotel":10711,"Ġion":10712,"ĠIslamic":10713,"Release":10714,"NULL":10715,"Expatriate":10716,"ieg":10717,"Directory":10718,"ETH":10719,"Ġmasses":10720,"ĠAbb":10721,"Ġped":10722,"istant":10723,"Ġlistener":10724,"periment":10725,"Ġsuitable":10726,"ĠJay":10727,"ĠDouglas":10728,"pmatrix":10729,"ĠOfficer":10730,"Ġactresses":10731,"Ġextremely":10732,"ĠOption":10733,"Ġsteel":10734,"Ġcenturies":10735,"Ġaid":10736,"overy":10737,"ĠFle":10738,"Ġfranch":10739,"Ġlinked":10740,"ĠTaiwan":10741,"Ġancest":10742,"txt":10743,"expr":10744,")}{\\":10745,"modules":10746,"utable":10747,"TT":10748,"month":10749,"Ġimplements":10750,"Sync":10751,"MENT":10752,"Memory":10753,"Ġcru":10754,"Ġflex":10755,"ĠEnergy":10756,"Ġheavily":10757,"loyd":10758,"ĠHu":10759,"Cent":10760,"ubble":10761,"orted":10762,"attributes":10763,"BP":10764,"Ġmir":10765,"Ġstages":10766,"Ġbelief":10767,"[(":10768,"=\"../../../../../../":10769,"yers":10770,"Sem":10771,"Ġtreated":10772,"Ġillustr":10773,"Ġstands":10774,"IST":10775,"ĠBureau":10776,"Ġapart":10777,"Private":10778,"Ġconnections":10779,"/>":10780,"Ġeducational":10781,"GN":10782,"Ġsolar":10783,"Ġscales":10784,"asm":10785,"ocratic":10786,"Seg":10787,"Ñı":10788,"kw":10789,"Ġchampions":10790,"Ġhighway":10791,"series":10792,"install":10793,"Ġreaching":10794,"shadow":10795,"Ġinfluenced":10796,"Ġmyst":10797,"Many":10798,"coh":10799,"Ġtrace":10800,"Ġvectors":10801,"ĠLouisiana":10802,"ITE":10803,"Ġstores":10804,"Ġdialog":10805,"herent":10806,"ĠNag":10807,"FFFF":10808,"ĠStudios":10809,"Ġselector":10810,"elle":10811,"Ġvariation":10812,"aza":10813,"ayan":10814,"Ġintegration":10815,"Ġdeploy":10816,"Î±":10817,"Ġsatisfy":10818,"Ġdetected":10819,"Ġregarded":10820,"OL":10821,"prefix":10822,"Sur":10823,"Ġatmosp":10824,"ĠVice":10825,"Ġadvent":10826,"Ġca":10827,"ĠGrant":10828,"RS":10829,"Ã´":10830,"actic":10831,"Academ":10832,"ĠFA":10833,"Ġ=\\":10834,"Ġinstances":10835,"ĠPlayer":10836,"Ġflo":10837,"Ġarc":10838,")\\\\":10839,"ĠVillage":10840,"inations":10841,"usal":10842,"Ġemployees":10843,"ĠBrazilian":10844,"ĠTerrit":10845,"Ġexplicitly":10846,"ĠUser":10847,"save":10848,"ĠSuch":10849,"ï¼":10850,"Ġpenal":10851,"TEXT":10852,"Ġexceed":10853,"1898":10854,"Ġsole":10855,"çļĦ":10856,"Ġresistance":10857,"fail":10858,"ĠDenmark":10859,"Ġoscill":10860,"Ġlawyer":10861,"Ġrequested":10862,"XML":10863,"leveland":10864,"Identifier":10865,"ĠMississippi":10866,"ĠDak":10867,"ĠÃī":10868,"uscript":10869,"finals":10870,"ĠHeritage":10871,")},":10872,"large":10873,"inch":10874,"ĠRub":10875,"stylesheet":10876,"switch":10877,"ilibrium":10878,"Songs":10879,"iples":10880,"Ġwitness":10881,"ĠExpress":10882,"Ġhole":10883,"imore":10884,"Ġpapers":10885,"Ð´":10886,"Ġdrivers":10887,"})$.":10888,"idx":10889,"ĠPuerto":10890,"Ġresolve":10891,"Ġinvoke":10892,"Ġbacking":10893,"ĠAM":10894,"Ġhair":10895,"=\"\"":10896,"Enum":10897,"herited":10898,"ĠDanish":10899,"Ġtrav":10900,"Space":10901,"Ġcategories":10902,"Generic":10903,"ĠOak":10904,"ĠStandard":10905,"testing":10906,"ĠOperation":10907,"'));":10908,"ĠIndonesia":10909,"Ġfmt":10910,"ĠYouth":10911,"Ġmist":10912,"ogram":10913,"Ġtranslate":10914,"Ġpoetry":10915,"Ġincorporated":10916,"Ġtouchdown":10917,"ĠDal":10918,"Ġtmp":10919,"East":10920,"arner":10921,"iations":10922,"Ġpun":10923,"Ġmart":10924,"ĠDetroit":10925,"Ġestablishment":10926,"_-":10927,"incorpor":10928,"rena":10929,"Ġflows":10930,"ĠAdministration":10931,"election":10932,"Ġstrike":10933,"contains":10934,"Graph":10935,"quest":10936,"STAT":10937,"Ġrival":10938,"Ġgene":10939,"security":10940,"via":10941,"ĠSport":10942,"ĠGaussian":10943,"Ġoverl":10944,"ĠGuide":10945,"ĠMoore":10946,"Ġroughly":10947,"ĠDublin":10948,"Pe":10949,"Ġdro":10950,"mass":10951,"Ġthermal":10952,"Ġinaug":10953,"bridge":10954,"ĠLiberal":10955,"\")]":10956,"Ġabandoned":10957,"Ġroutes":10958,"ĠSin":10959,"Ġcomments":10960,"ĠPortugal":10961,"Ġcook":10962,"rained":10963,"uzz":10964,"ToString":10965,"ĠLang":10966,"ROM":10967,"ashi":10968,"pkg":10969,"Ġconsidering":10970,"Ġinvited":10971,"issance":10972,"Ġconcluded":10973,"Ġfaith":10974,"Fin":10975,"ovation":10976,"Ġmixing":10977,"Mal":10978,"HR":10979,"Ġgate":10980,"EV":10981,"ĠReact":10982,"Ġmetadata":10983,"mapsto":10984,"onom":10985,"urance":10986,"Ġanimal":10987,"Ġfleet":10988,"Ġcollaboration":10989,"Ġethnic":10990,"argo":10991,"Shared":10992,"Any":10993,"ĠAgain":10994,"ĠRoberts":10995,"1899":10996,"Ġ_.":10997,"bre":10998,"Ġworldwide":10999,"Ġexcit":11000,"Inv":11001,"ĠKo":11002,"ĠLieutenant":11003,"Ġceremony":11004,"ĠAntonio":11005,"ĠDVD":11006,"ĠBuddh":11007,"Ġpaintings":11008,"UK":11009,"hidden":11010,"redited":11011,"SF":11012,"fly":11013,"layer":11014,"ĠCulture":11015,"Ġjoining":11016,"ĠBuff":11017,"Ġreplacement":11018,"eland":11019,"Ġhope":11020,"Ġcovering":11021,"putation":11022,"ĠOrth":11023,"DL":11024,"}}^{":11025,"Ġsimultane":11026,"icide":11027,"throw":11028,"Dictionary":11029,"Ġfilled":11030,"Ġremote":11031,"Prior":11032,"prev":11033,"()));":11034,"Ġreign":11035,"Ġban":11036,"BM":11037,"Buildings":11038,"ĠMrs":11039,"ĠOnce":11040,"dale":11041,"reset":11042,"$;":11043,"role":11044,"erg":11045,"ĠBry":11046,"Ġsale":11047,"Icon":11048,"Ġmidfield":11049,"Ġintent":11050,"ĠBou":11051,"Ġment":11052,"Ġagency":11053,"Ġwaves":11054,"Ġcorpor":11055,"Ġprops":11056,"Ġvo":11057,"Europe":11058,"Ġsell":11059,"mouth":11060,"allas":11061,"Headers":11062,"Ġanimated":11063,"ĠEdinburgh":11064,"ĠHawai":11065,"ĠUr":11066,"newcommand":11067,"Ġengines":11068,"ĠJuan":11069,")$-":11070,"Ġboost":11071,"ĠĠĠĠĠĠĊ":11072,"Dest":11073,"Flor":11074,"Ġdry":11075,"aware":11076,"Ġencounter":11077,"Ġboat":11078,"ĠAmazon":11079,"Double":11080,"Ġvoted":11081,"Ġtruth":11082,"enabled":11083,"ifdef":11084,"Ġgeneric":11085,"Ġtrend":11086,"tik":11087,"Ġsun":11088,"fast":11089,"ĠCru":11090,"pression":11091,"Ġobvious":11092,"}({\\":11093,"ĠCow":11094,"ĠVin":11095,"Ġstating":11096,"ĠUl":11097,"Ġinfinite":11098,"Ġdanger":11099,"ĠAbd":11100,"()).":11101,"clip":11102,"plus":11103,"stable":11104,"oses":11105,"Ġreserve":11106,"Ġ'<":11107,"Ġlegend":11108,"edded":11109,"ĠUpdate":11110,"'])":11111,"Ġpossibility":11112,"ĠToday":11113,"Ġbrain":11114,"Ġtransmission":11115,"Ġener":11116,"Ġdir":11117,"Ġcollections":11118,"odge":11119,"Initial":11120,"ĠArchitect":11121,"STATE":11122,"Ġchose":11123,"ymf":11124,"Ġclock":11125,"lon":11126,"ARY":11127,"ĠBlock":11128,"ĠMaur":11129,"Logger":11130,"Ġfinishing":11131,"merce":11132,"incorporated":11133,"manager":11134,"Ġsoci":11135,"Ġlay":11136,"ĠHamiltonian":11137,"limit":11138,"Ġcrossing":11139,"Ġpassenger":11140,"Ġpublications":11141,"rama":11142,"iem":11143,"Former":11144,"Engine":11145,"Ġfoundation":11146,"Ġshock":11147,"READ":11148,"enezuel":11149,"ĠFalse":11150,"!!":11151,"ailand":11152,"fd":11153,"UTF":11154,"named":11155,"agnetic":11156,"Ali":11157,"tsburgh":11158,"1895":11159,"ĠNE":11160,"Ġcoinc":11161,"Ã«":11162,"Official":11163,"ĠIsraeli":11164,"Math":11165,"Ġentrance":11166,"Ġefficiency":11167,"try":11168,"1870":11169,"Ġspac":11170,"700":11171,"Ġcatalog":11172,"Ġ{{":11173,"Ġcov":11174,"identifier":11175,"ymfony":11176,"ĠUnit":11177,"ĠLegislative":11178,"BUG":11179,"ĠIndependent":11180,"father":11181,"oche":11182,"Ġ_,":11183,"controller":11184,"Ġskills":11185,"Package":11186,"aron":11187,"ĠUkrainian":11188,"hbar":11189,"Ġnamely":11190,"Ġasympt":11191,"ĠOrchestra":11192,"possible":11193,"obs":11194,"Ä«":11195,"ĠCond":11196,"FIG":11197,"Rober":11198,"azines":11199,"isor":11200,"ĠBGCOLOR":11201,"Ġcarbon":11202,"ĠPap":11203,"Ġevaluation":11204,"rend":11205,"issue":11206,"Ġfan":11207,"Ġinjured":11208,"Ġlaid":11209,"ĠCook":11210,"Ġlowest":11211,"Ġpul":11212,"Ġidentical":11213,"Ġasync":11214,"ĠCEO":11215,"product":11216,"Ġpione":11217,"borough":11218,"Ġcommitted":11219,"Ġperhaps":11220,"Ġquadr":11221,"random":11222,"Ġcharacteristics":11223,"ĠAfghan":11224,"Ġlumin":11225,"ĠHills":11226,"ĠHop":11227,"fall":11228,"ĠImperial":11229,"Ġdepos":11230,"proposition":11231,"acon":11232,"million":11233,"ĠCA":11234,"Ġsummar":11235,"ĠNext":11236,"ĠPlace":11237,"Ġverify":11238,"ĠBus":11239,"ĠNAS":11240,"\\|_{":11241,"gate":11242,"Ġbehaviour":11243,"itivity":11244,"ĠEag":11245,"ĠFrederick":11246,"hide":11247,"Ġcalculate":11248,"owntown":11249,"Perm":11250,"ĠSM":11251,"Japanese":11252,"Ġcalculation":11253,")[":11254,"NT":11255,"uter":11256,"Ġhomes":11257,"ĠMake":11258,"protobuf":11259,"ĠPed":11260,"ĠIOException":11261,"Ġabund":11262,"ĠDisney":11263,"ymmetric":11264,"ingly":11265,"ibraries":11266,"expect":11267,"leges":11268,"Italian":11269,"Ġexplain":11270,"selector":11271,"ĠNichol":11272,"1896":11273,"San":11274,"hab":11275,"Ġvolunte":11276,"ĠTig":11277,"eting":11278,"orf":11279,"hbox":11280,"ĠGirl":11281,">::":11282,"Ġru":11283,"Pers":11284,"outer":11285,"angel":11286,"flag":11287,"ĠAud":11288,"Ġhumans":11289,"ĠHarris":11290,"igious":11291,"Ġislands":11292,"iveness":11293,"Ġengaged":11294,"uum":11295,"argument":11296,"Ġcolors":11297,"apolis":11298,"Ġcastle":11299,"Ġinvasion":11300,"ĠRol":11301,"ĠStew":11302,"Ġwindows":11303,"Ġneighbour":11304,"ĠInvest":11305,"Ġeye":11306,"ĠAlan":11307,"Ġlatest":11308,"illed":11309,"phys":11310,"IX":11311,"ĠFern":11312,"moz":11313,"Ġinduced":11314,"Ġruled":11315,"aired":11316,"INS":11317,"Ġeffectively":11318,"acht":11319,"elect":11320,"Ġcircuit":11321,"plane":11322,"Ġacid":11323,"Ġcomic":11324,"ĠDick":11325,"Ġhop":11326,"Ġprojection":11327,"ĠMiami":11328,"bootstrap":11329,"Ġwat":11330,"inction":11331,"ĠSamuel":11332,"Ġpriest":11333,"David":11334,"rapy":11335,"din":11336,"Ġminute":11337,"arrier":11338,"ĠDonald":11339,"ĠFall":11340,"was":11341,"ctic":11342,"Ġcold":11343,".*":11344,"Ġdynasty":11345,"conv":11346,"Ġgradient":11347,"Ġhired":11348,"Ġscattering":11349,"Ġgraphs":11350,"Villages":11351,"ĠLanguage":11352,"ĠFarm":11353,"=\"../../../":11354,"opts":11355,"ĠJesus":11356,"issues":11357,"}&":11358,"ĠLam":11359,"cing":11360,"ĠHollywood":11361,"{\"":11362,"Ġtheories":11363,"Ġconstants":11364,"apsed":11365,"ĠTs":11366,"estyle":11367,"Ġ],":11368,"irds":11369,"icular":11370,"Mc":11371,"Ġsequences":11372,"pod":11373,"Bound":11374,"otional":11375,"Ġmile":11376,"eros":11377,"Ġrevolution":11378,"Ġinhabitants":11379,"1897":11380,"]:":11381,"Transaction":11382,"Ġjunior":11383,"ruption":11384,"ĉĉĉĊ":11385,"Ġstopped":11386,"mix":11387,"Ġgreatest":11388,"icator":11389,"Ġprompt":11390,"ĠNet":11391,"Ġsynchron":11392,"Ã³w":11393,"Ġvideos":11394,"Ġrating":11395,"nil":11396,"ĠNever":11397,"Ġdisabled":11398,"Ġreplacing":11399,"ĠTar":11400,"ĠHug":11401,"ige":11402,"cu":11403,"Histor":11404,"rak":11405,"aceae":11406,"Ġcm":11407,"-->":11408,"aire":11409,"Domain":11410,"olph":11411,"EventListener":11412,"Mich":11413,"Ġfired":11414,"ĠBowl":11415,"ented":11416,"Ġnick":11417,"ĠEarly":11418,"atters":11419,"iche":11420,"Theorem":11421,"Ġdisplayed":11422,"themes":11423,"Ġdict":11424,"gp":11425,"ÃŃn":11426,"emb":11427,"Ġresigned":11428,"ĠWalker":11429,"enz":11430,"ipped":11431,"ĠBangladesh":11432,"who":11433,"PH":11434,"publ":11435,"Ġstret":11436,"Ġpossess":11437,"tenance":11438,"owski":11439,"Ġamplitude":11440,"ĠBox":11441,"Ġconvergence":11442,"ĠMatthe":11443,"Ġhits":11444,"ĠĠĠĠĠĠĠĠĠĠĠĠĠĠĠĠĠĠĠĠĠĠĠĠĠĠ":11445,"ahn":11446,"Day":11447,"','":11448,"password":11449,"Ġextent":11450,"Promise":11451,"BOO":11452,"ĠVideo":11453,"Ġshut":11454,"ĠKur":11455,"Ġcler":11456,"anny":11457,"ĠHarvard":11458,"anian":11459,"Stand":11460,"Ġcompete":11461,"ĠPalace":11462,"Observ":11463,"Ġtemperatures":11464,"ĠDead":11465,"mn":11466,"ĠSaturday":11467,"ugar":11468,"ĠObl":11469,"ĠCare":11470,"GBT":11471,"Ġintegrated":11472,"Ġprediction":11473,"ĠMalaysia":11474,"virtual":11475,"Ġcancel":11476,"130":11477,"ĠRound":11478,"phan":11479,"Fact":11480,"Ġstanding":11481,"fold":11482,"ĠPC":11483,"ogeneous":11484,"Ġrg":11485,"Ġbed":11486,"PD":11487,"Ġip":11488,"lik":11489,"Ġexcell":11490,"intend":11491,"Ġclassified":11492,"Ġinterests":11493,"Ġaccompan":11494,"Ġtries":11495,"yll":11496,"ĠSV":11497,":=":11498,"Binary":11499,"Ġcomplexity":11500,"ĠNob":11501,"ĠCopyright":11502,"ĠRyan":11503,"Ġtropical":11504,"ĠCurrent":11505,"ĠAssoci":11506,"Railway":11507,"ugs":11508,"LINE":11509,"ĠMes":11510,"uality":11511,"ĠMayor":11512,"isen":11513,"Ġprepared":11514,"ĠRang":11515,"ĠFil":11516,"ĠProt":11517,"LOCK":11518,"Ġcalculations":11519,"changed":11520,"resolve":11521,"Author":11522,"leased":11523,"ĠTR":11524,"FUN":11525,"Ġ[[":11526,"tikz":11527,"Tube":11528,"Ġconcerns":11529,"ĠSingh":11530,"NV":11531,"\\{\\":11532,"Medal":11533,"Ġdismiss":11534,"Ġsecretary":11535,"Ġintelligence":11536,"antom":11537,"Ġdesigns":11538,"Ġfly":11539,"throws":11540,"ĠPalest":11541,"Ġinvestment":11542,"ubern":11543,"ĠPolicy":11544,"Production":11545,"Ġindeed":11546,"regular":11547,"Ġexplo":11548,"othe":11549,"eget":11550,"numer":11551,"Cred":11552,"Ġrecordings":11553,"edit":11554,"isting":11555,"ishops":11556,"Ġpersons":11557,"Ġdrag":11558,"orrow":11559,"Ġappearing":11560,"MT":11561,"Role":11562,"ĠMcK":11563,"/***/":11564,"Ġremember":11565,"?\"":11566,"ĠCommander":11567,"Ġbinding":11568,"Ġpand":11569,"HTTP":11570,"ĠFinland":11571,"WN":11572,"Ġdestination":11573,"REE":11574,"ĠRap":11575,"Native":11576,"ĠLas":11577,"bach":11578,"ĠProcess":11579,"ĠTreat":11580,"Ġabsence":11581,"orus":11582,"Ġglob":11583,"Ġdoct":11584,"riday":11585,"ĠReserve":11586,"ĠMedicine":11587,"Ġterror":11588,"itals":11589,"ĠInteger":11590,"Newtonsoft":11591,"egas":11592,"dependency":11593,"ĠArkansas":11594,"IND":11595,"iri":11596,"Ġpraised":11597,"mma":11598,"player":11599,"roc":11600,"ĠCensus":11601,"orses":11602,"Ġdelivered":11603,"ĠPos":11604,"islation":11605,"Ġhur":11606,"ĠBart":11607,"Enumer":11608,"lass":11609,"abric":11610,"Ġplate":11611,"Ġfluct":11612,"lg":11613,"ducer":11614,"ĠConfig":11615,"ĠAT":11616,"Edit":11617,"alloc":11618,"Ãł":11619,"Fix":11620,"oi":11621,"Ġformally":11622,"game":11623,"apl":11624,"refecture":11625,"Ġisn":11626,"Ġbench":11627,"ĠWelsh":11628,"Ġrig":11629,"ĠGon":11630,",$":11631,"email":11632,"atherine":11633,"Ġtwelve":11634,"mic":11635,"tons":11636,"unities":11637,"Ġwarning":11638,"arguments":11639,"Ġradiation":11640,"errors":11641,"Ġscenario":11642,"Ġaccused":11643,"1893":11644,"URI":11645,"Introduction":11646,"1892":11647,"$~":11648,"ĠLawrence":11649,"Services":11650,"MR":11651,"------------":11652,"ĠIron":11653,"laration":11654,"ĠAustrian":11655,"Ġindicating":11656,"repe":11657,"Ġconstituency":11658,"ĠAS":11659,"azy":11660,"uki":11661,"Ġstatistical":11662,"theless":11663,"Ġbishop":11664,"cussion":11665,"ractions":11666,"iggest":11667,"ĠMPs":11668,"arnings":11669,"Ġversus":11670,"'(":11671,"Product":11672,"Ġexplan":11673,"Ġloaded":11674,"Ġpup":11675,"uh":11676,"PER":11677,"Ġrunner":11678,"Ġham":11679,"ÅŁ":11680,"aments":11681,"istence":11682,")}_{":11683,"Sequ":11684,"ĠSoftware":11685,"Ġles":11686,";<":11687,"Ġmort":11688,"Ġschedule":11689,"Ġmembership":11690,"ĠDefense":11691,"Ġaccurate":11692,"Î¿":11693,"ĪĴ":11694,"engine":11695,"ixels":11696,"DT":11697,"Ġsurg":11698,"ĠGarden":11699,"Ġexpert":11700,"sea":11701,"Ġinject":11702,"Ġdecade":11703,"rategy":11704,"nest":11705,"ugoslav":11706,"olly":11707,"Ġownership":11708,"Ġarmed":11709,"ĠMond":11710,"Multi":11711,"Ġdoll":11712,"ĠPeters":11713,"RES":11714,"ĠImage":11715,"Ġexcess":11716,"HC":11717,"gment":11718,"volume":11719,"ĠHistorical":11720,"Ġtemporary":11721,"Works":11722,"Ġbreaking":11723,"elem":11724,"ĠLaure":11725,"Word":11726,"Ġ>>":11727,"ĠLib":11728,"Ġeyes":11729,"Ġedited":11730,"Ġaccommod":11731,"Ġconvers":11732,"ĠDigital":11733,">\\":11734,"ĠLore":11735,"August":11736,"Ġmoves":11737,"Ġanth":11738,"Ġrecommend":11739,"__)":11740,"ĠHash":11741,"ĠSQL":11742,"typen":11743,"Ġoptimization":11744,"Ġphone":11745,"ders":11746,"Ġexpos":11747,"They":11748,"Ġbusinesses":11749,"inea":11750,"urations":11751,"protocol":11752,"ifferent":11753,"ourse":11754,"sequently":11755,"Ġsomewhat":11756,"ĠKevin":11757,"Another":11758,"ving":11759,"Ġbalance":11760,"Socket":11761,"Ġcaught":11762,"Ġconservation":11763,"ebr":11764,"ĠAny":11765,"Ġowners":11766,"ucks":11767,"oes":11768,"ĠML":11769,"ĠWard":11770,"Game":11771,"Ġobjective":11772,"help":11773,"iac":11774,"ĠDeath":11775,"ogether":11776,"ĠAgency":11777,"Ġpurchase":11778,"Panel":11779,"Ġsolve":11780,"DOM":11781,"Rich":11782,"Mapping":11783,"dig":11784,"Ġconclude":11785,"cong":11786,"dem":11787,"gies":11788,"'d":11789,"Ð¼":11790,"Ġparticipate":11791,"ÈĻ":11792,"chart":11793,"Ġweights":11794,"pay":11795,"athe":11796,"ĠĠĠĠĠĠĠĠĠĠĠĠĠĠĠĠĠĠĠĠĠĠĠĠĠĠĠĠĠ":11797,"ĠRomania":11798,"ICE":11799,"ĠAtlanta":11800,"TRUE":11801,"Ġdisappe":11802,"Ġtack":11803,"Adapter":11804,"ibl":11805,"transition":11806,"1894":11807,"Ġscaling":11808,"Ġbirds":11809,"1889":11810,"ĠTag":11811,"Ġcolspan":11812,"Ġscholars":11813,"timeout":11814,"rint":11815,"OC":11816,"ĠRailroad":11817,"ĠRot":11818,"Ġcomputation":11819,"oca":11820,"typename":11821,"Free":11822,"general":11823,"ried":11824,"ĠAnna":11825,"ĠRugby":11826,"VERSION":11827,"ilst":11828,"Ġcontrols":11829,"ĠThailand":11830,"Place":11831,"omas":11832,"Ġui":11833,"ĠDeputy":11834,"Ġkid":11835,"bara":11836,"Simple":11837,"rÃ©":11838,"rystal":11839,"orient":11840,"ĠĠĠĠĠĠĠĠĠĠĠĠĠĠĠĠĠĠĠĠĠĠĠĠĠĠĠĠ":11841,"fg":11842,"&=&":11843,"alyt":11844,"lied":11845,"lections":11846,"ĠCommunist":11847,"Ġconsequence":11848,"Ġfluid":11849,"Ġroads":11850,"ĠPack":11851,"isode":11852,"Ġaccounts":11853,"Ġgrade":11854,"plugins":11855,"Ġexped":11856,"ographics":11857,"ishment":11858,"ĠPrad":11859,"Ġmeta":11860,"ĠKings":11861,"ĠLanc":11862,"Success":11863,"ĠAdvent":11864,"leans":11865,"Comment":11866,"March":11867,"Ġignore":11868,"door":11869,"Import":11870,"Browser":11871,"ĠXML":11872,"Russian":11873,"!\"":11874,"Ġcapable":11875,"Ġemail":11876,"ĠBlo":11877,"Ġbra":11878,"ĠTit":11879,"UD":11880,"Sam":11881,"Ġhosts":11882,"Ġarchae":11883,"bled":11884,"pin":11885,"ĠMontreal":11886,"ĠPublishing":11887,"Ġrenew":11888,"endix":11889,"Ġvalidation":11890,"ums":11891,"Ġ];":11892,"Ġchair":11893,"uer":11894,"ovo":11895,"Ġvot":11896,"ĠVolume":11897,"Ġexplos":11898,"Ġjobs":11899,"Ġphilosophy":11900,"ĠBoys":11901,"allest":11902,"assador":11903,"rypto":11904,"iop":11905,"Paul":11906,"Ġfalls":11907,"Ġpredicted":11908,"Ġearliest":11909,"Duration":11910,"ĠRick":11911,"forcement":11912,"Ġtimeout":11913,"Ġevaluate":11914,"integ":11915,"Ġsecure":11916,"Ġwarm":11917,"Total":11918,"Ġpremiered":11919,"Ġflying":11920,"will":11921,"ĠDeep":11922,"Ġå":11923,"JECT":11924,"library":11925,"Ġagree":11926,"Ġbundle":11927,"gi":11928,"ĠFight":11929,"olia":11930,"COMP":11931,"lu":11932,"ĠGran":11933,"ĠDOM":11934,"gow":11935,"ĠShah":11936,"ĠInstead":11937,"cluster":11938,"Ġessential":11939,"ĠĠĠĠĠĠĠĠĠĠĠĠĠĠĠĠĠĠĠĠĠĠĠĠĠĠĠĠĠĠĠĠĠĠĠĠĠĠĠĠĠĠĠ":11940,"Ġcredit":11941,"Ġconvex":11942,"bai":11943,"erial":11944,"ĠUtah":11945,"Ġinfrastructure":11946,"Ġundert":11947,"Ġexecute":11948,"James":11949,"sects":11950,"Ġdies":11951,"fixed":11952,"Ġcoefficient":11953,"Ġproduces":11954,"Uri":11955,"Ġinteract":11956,"Scal":11957,"ĠMountains":11958,"Constants":11959,"Ġbenefit":11960,"Ġtank":11961,"Ġpermission":11962,"asa":11963,"Ġfragment":11964,"ĠPrior":11965,"Ġphoto":11966,"Ġpy":11967,"Bur":11968,"extern":11969,"ĠSn":11970,"unique":11971,"ĠCrown":11972,"Ġsteam":11973,"ductions":11974,"REG":11975,"ĠCarn":11976,"Ġlosses":11977,"Ġcricketers":11978,"ĠFried":11979,"ĠDir":11980,"constructor":11981,"ALSE":11982,"agnostic":11983,"written":11984,"ĠAlfred":11985,"ĠBuck":11986,"ea":11987,"ĠMission":11988,"Ġpassengers":11989,"Ġshooting":11990,"1860":11991,"Ġlands":11992,"some":11993,"ĠBull":11994,"irections":11995,"ĠSeattle":11996,"Sharp":11997,"song":11998,"onymous":11999,"Ġagricultural":12000,"ĠTraining":12001,"Ġlocality":12002,"Liter":12003,"ĠWorks":12004,"ĠContin":12005,"Ġdiscovery":12006,"Ġclassic":12007,"ĠEu":12008,"Ġsizes":12009,"Failed":12010,"ĠMetropolitan":12011,"1885":12012,"ĠHungary":12013,"Finally":12014,"Ġhier":12015,"ĠOpera":12016,"NOT":12017,"Ġdust":12018,"Ġstability":12019,"Ġhuge":12020,"footer":12021,"Scott":12022,"Ġwa":12023,"IVE":12024,"]}":12025,"invalid":12026,"Ġgender":12027,"iverpool":12028,"Ġjustice":12029,"Ġresidence":12030,"Ġphotograph":12031,"enses":12032,"Ġgraduate":12033,"Ġadaptation":12034,"Ġopinion":12035,"FLA":12036,"never":12037,"plicated":12038,"ĠChairman":12039,"optional":12040,"ipage":12041,"ĠChen":12042,"ĠJun":12043,"done":12044,"ĠBruce":12045,"Ġcontents":12046,"Fn":12047,"ĠDance":12048,"PUT":12049,"puted":12050,"Ġdivisions":12051,"Ġcrisis":12052,"country":12053,"onian":12054,"ĠResource":12055,"itational":12056,"ĠWrest":12057,"Ġsignals":12058,"Ġreception":12059,"Ġheaders":12060,"Ġgrounds":12061,"headers":12062,"Ġwaters":12063,"Ġjourney":12064,"Interval":12065,"Old":12066,"Ġregularly":12067,"Ġgoods":12068,"Ġconclusion":12069,"Ġboundaries":12070,"Ġarrival":12071,"Ġseventh":12072,"Ġsevere":12073,"Ġmodules":12074,"Ġcharacterized":12075,"Ġbiggest":12076,"ĠRoger":12077,"Ġproducers":12078,"Ġmanuscript":12079,"à¥":12080,"Ġcrown":12081,"Ġhun":12082,"ĠTamil":12083,"ĠPear":12084,"ĠDocument":12085,"Ġ\",":12086,"Ġgenera":12087,"____":12088,"inian":12089,"stances":12090,"ĠRio":12091,"Ġjavax":12092,"ĠFal":12093,"}}$,":12094,"Ġscientists":12095,"Ġcodes":12096,"ĠNatural":12097,"vc":12098,"Ãª":12099,"Ġ[\\":12100,"idal":12101,"Ġplugin":12102,"Ġdiver":12103,"ĠAdditionally":12104,"isations":12105,"account":12106,"Ġsubjects":12107,"Ġinvestigate":12108,")}}":12109,"Ġimmediate":12110,"Ġneutral":12111,"tools":12112,"1891":12113,"ntil":12114,"condition":12115,"Å¾":12116,"yt":12117,"ĠKnight":12118,"ĠMorgan":12119,"ĠRussell":12120,"Ġassault":12121,"Ġhappened":12122,"ĠHungarian":12123,"115":12124,"Shape":12125,"Spe":12126,"storage":12127,"Ġproposal":12128,"amps":12129,"Ġsupposed":12130,"Ġbuf":12131,"Ġsed":12132,"ÅĦ":12133,"ĠDave":12134,"eron":12135,"Ġexperienced":12136,"Ġmedicine":12137,"ĠLith":12138,"Ġguide":12139,"ĠCR":12140,"ceptions":12141,"Ġinfer":12142,"Ġrobust":12143,"ainers":12144,"ĠJosÃ©":12145,"ilk":12146,"Lower":12147,"nn":12148,")+\\":12149,"Ġwithd":12150,"ĠKon":12151,"ository":12152,"}}$.":12153,"owner":12154,"ĠBetween":12155,"ĠMS":12156,"ĠDean":12157,"Ġegg":12158,"izon":12159,"Phys":12160,"Ġuniversities":12161,"ĠMargaret":12162,"Ġboys":12163,"Ġsinging":12164,"Ke":12165,"Ġprize":12166,"Ġthousands":12167,"Ġoperates":12168,"ĠHampshire":12169,"Ġvolumes":12170,"Ġpopulations":12171,"uis":12172,"Ġdial":12173,"ĠBOOST":12174,"ĠCleveland":12175,"ĠChampion":12176,"Ġinterpretation":12177,"('.":12178,"Political":12179,"ste":12180,"Ġrestored":12181,"Attr":12182,"ĠOri":12183,"loader":12184,"ĠCass":12185,"islature":12186,"\">&":12187,"Ġbulk":12188,"Ġmining":12189,"ĠJohann":12190,"Ġrailroad":12191,"Ġrein":12192,"-$":12193,"Eff":12194,"ĠFull":12195,"Ġbranches":12196,"ĠDie":12197,"nik":12198,"Ġ'';":12199,"Ġsynd":12200,"Ġrefuge":12201,"erset":12202,"Ġveter":12203,"shal":12204,"ĠKelly":12205,"ENSE":12206,"Ġmus":12207,"ĠNash":12208,"Ã©n":12209,"pler":12210,"browser":12211,"wig":12212,"ĠMetro":12213,"mac":12214,"adv":12215,"oustic":12216,"Week":12217,"flu":12218,"Ġcarrying":12219,"Ġrecommended":12220,"Ġpractices":12221,"clusions":12222,"ĠMagn":12223,"oments":12224,"ĠProperty":12225,"MOD":12226,"defer":12227,"ĠAlliance":12228,"ĠCustom":12229,"joint":12230,"1888":12231,"Ġbind":12232,"USE":12233,"ĠASSERT":12234,"Ġcourses":12235,"Ġdescend":12236,"Ġbelongs":12237,"Ġjet":12238,"Ġdesigner":12239,"ptic":12240,"Ġprovider":12241,"Conf":12242,"ĠCooper":12243,"zz":12244,"Ġproxy":12245,"Ġtopic":12246,"Ġbreed":12247,"ĠNelson":12248,"orton":12249,"Ġresponsibility":12250,"Ġdog":12251,"Ġapplying":12252,"ĠGirls":12253,"intell":12254,"ĠPad":12255,"mount":12256,"kee":12257,"ĠSeveral":12258,"ĠSE":12259,"ĠPun":12260,"Ġinverse":12261,"Ġtested":12262,"ĠMean":12263,"ĠHell":12264,"Ġinstruments":12265,"iper":12266,"Ġpartially":12267,"ĠCole":12268,"insula":12269,"Ġfranchise":12270,"Ġcomposers":12271,"Ġmarine":12272,"Fran":12273,"Ġtypedef":12274,"$),":12275,"Ġduty":12276,"ĠPFN":12277,"leyball":12278,"Endpoint":12279,"Ġdiscrete":12280,"Ġvalley":12281,"ĠCer":12282,"Ġwants":12283,"Ġdependent":12284,"ĠComics":12285,"Ġclick":12286,"mingham":12287,"Ġrestricted":12288,"ĠAND":12289,"filename":12290,")-\\":12291,"rep":12292,"ĠIE":12293,"minipage":12294,"ĠOblast":12295,"Ġpainters":12296,"irates":12297,"Ġeveryone":12298,"cluded":12299,"coin":12300,"ĠFive":12301,"ĠPerson":12302,"})$,":12303,"emen":12304,"intellij":12305,"Ġfrag":12306,"single":12307,":[":12308,"Ġwheel":12309,"ricket":12310,"casting":12311,"pattern":12312,"Ġchapter":12313,"Ġassistance":12314,"itative":12315,"ĠSac":12316,"Ġnorthwest":12317,"|}{":12318,"prison":12319,"Ġrooms":12320,"Ġinduct":12321,"Ġroots":12322,"Ġcolonial":12323,"Ġpublishing":12324,"ĠCampbell":12325,"bus":12326,"nia":12327,"overty":12328,"Ġstudying":12329,"ĠMong":12330,"ranean":12331,"Ġmoder":12332,"Ġperiods":12333,"Ġpercentage":12334,"away":12335,"Ġdens":12336,"Ġarranged":12337,"isition":12338,"ĠConstant":12339,"Ġpandemic":12340,"ĠMarie":12341,"Ġmilit":12342,"ĠFacebook":12343,"fx":12344,"Ġanniversary":12345,"UC":12346,"Ġmerge":12347,"ĠValid":12348,"Coll":12349,"ĠOrthodox":12350,"ĠKnow":12351,"Lem":12352,"Ġdominated":12353,"Flow":12354,"113":12355,"Generator":12356,"Afric":12357,"Ġintermediate":12358,"Delegate":12359,"Pal":12360,"Ġlegislation":12361,"ĠWright":12362,"Ġhappen":12363,"ĠStewart":12364,"ĠBaltimore":12365,"utf":12366,"hibition":12367,"@{":12368,"rieve":12369,"ĠChamber":12370,"checked":12371,"rupted":12372,"Ġentertain":12373,"proxy":12374,"ĠKr":12375,"ĠKarl":12376,"Ġmarg":12377,"Ġsizeof":12378,"Ġbringing":12379,"Ġastron":12380,"SER":12381,"Progress":12382,"}$)":12383,"observ":12384,"Ġorb":12385,"Ġtraject":12386,"zerbai":12387,"enable":12388,"avalry":12389,"[-":12390,"ĠAlice":12391,"oba":12392,"ĠKl":12393,"ĠHorn":12394,"Ġresign":12395,"once":12396,"Ġsleep":12397,"ĠNic":12398,"sys":12399,"Ġsaved":12400,"Ġcomputational":12401,"ĠKan":12402,"anging":12403,"brace":12404,"uting":12405,"Agent":12406,"ĠFel":12407,"ĠVienna":12408,"Ġretained":12409,"ĠSecret":12410,"endment":12411,"Java":12412,"ĠTak":12413,"ĠVenezuel":12414,"Ġsky":12415,"3333":12416,"Ġsurvived":12417,"ĠHerm":12418,"ĠBush":12419,"Ġparticipants":12420,"Ġleaf":12421,"Execut":12422,"ĠAustin":12423,"Book":12424,"mouse":12425,"ĠBed":12426,"ĠThompson":12427,"ĠScient":12428,"Ġunus":12429,"osure":12430,"ĠAdams":12431,"ĠBeat":12432,"1887":12433,"Ã¨re":12434,"parser":12435,"ĠChart":12436,"117":12437,"Ġconcentration":12438,"TF":12439,"ĠMcG":12440,"ĠConstitution":12441,"Ġcommunic":12442,"rov":12443,"ymphony":12444,"ACT":12445,"Ġvictims":12446,"PM":12447,"dependent":12448,"ĠTerm":12449,"Later":12450,"wiki":12451,"esides":12452,"etry":12453,"Ġdamaged":12454,"Ġequipped":12455,"AE":12456,"parts":12457,"ĉĉĉĉĉĉĉĉĉ":12458,"Organ":12459,"getName":12460,"ĠCra":12461,"Ġ([":12462,"Ġconcrete":12463,"Trace":12464,"Real":12465,"vals":12466,"ourier":12467,"ĠBoolean":12468,"ĠPittsburgh":12469,"ĠMarshall":12470,"ĠPrincess":12471,"napshot":12472,"supported":12473,"Ġrain":12474,"Category":12475,"Ġdefensive":12476,"attan":12477,"arus":12478,"tha":12479,"Ġdenoted":12480,"Ġreserved":12481,"loaded":12482,"kt":12483,"hoen":12484,"pository":12485,"Ġathletes":12486,"ĠGray":12487,"Ġaccompanied":12488,"VALUE":12489,"ĠMessage":12490,"iast":12491,"ĠAgric":12492,"ĠKennedy":12493,"bishop":12494,"Ġpenalty":12495,"Ġrepresentations":12496,"Ġhill":12497,"Ġrational":12498,"ĠChem":12499,"ĠAuthority":12500,"Ġdescribing":12501,"ĠLower":12502,"Expr":12503,"ĠVik":12504,"Ġforming":12505,"ĠPeace":12506,"ĠDakota":12507,"Ġparser":12508,"temp":12509,"June":12510,"mal":12511,"Ġextreme":12512,"Ġrelationships":12513,"Ġintensity":12514,"su":12515,"Mill":12516,"Program":12517,"112":12518,"scious":12519,"ĠChristopher":12520,"ĠHTTP":12521,"Ġdominant":12522,"cursor":12523,"1865":12524,"ĠYears":12525,"ĠBrothers":12526,"sn":12527,"Ġadmitted":12528,"Limit":12529,"ĠNep":12530,"ITION":12531,"vol":12532,"conn":12533,"oka":12534,"Ġlob":12535,"Ġmenu":12536,"ummy":12537,"Ġreset":12538,"ĠPhot":12539,"checkbox":12540,"Ġjudges":12541,"Ġcrowd":12542,"ĠLock":12543,"Ġdefines":12544,"Ġmyth":12545,"protected":12546,"Ġvenues":12547,"Summary":12548,"ĠCSS":12549,"ĠGlas":12550,"ĠABC":12551,"Stop":12552,"(/":12553,"Ġsentence":12554,"Ġlogic":12555,"ĠPatri":12556,"ĠRobinson":12557,"Ġknock":12558,"radio":12559,"Therefore":12560,"ULE":12561,"wright":12562,"ĠColonel":12563,"Ġaccompl":12564,")->":12565,"Ġspecify":12566,"Ġvision":12567,"Ġregiment":12568,"Ġstrugg":12569,"umed":12570,"ignment":12571,"Ġvariant":12572,"plicity":12573,"|_{":12574,"lf":12575,"Ġselling":12576,"School":12577,"ÑĮ":12578,"Ġuncertainty":12579,"Ġcruc":12580,"ĠOttoman":12581,"Ġreverse":12582,"Ġnotably":12583,"ĠArena":12584,"dp":12585,"ĠCit":12586,"ĠGill":12587,"))$":12588,"Ġtub":12589,"Ġmo":12590,"Ġindices":12591,"Ġdeputy":12592,"Ġdense":12593,"ĠCase":12594,"ĠRural":12595,"ĠArn":12596,"Flag":12597,"ASSERT":12598,"Ġcreates":12599,"Activity":12600,"ĠTrade":12601,"construction":12602,"DM":12603,"UB":12604,"ĠFood":12605,"Ġteen":12606,"Ġask":12607,"1886":12608,"ĠReform":12609,"Ġtargets":12610,"iere":12611,"keyword":12612,"Ġmultip":12613,"Ġmal":12614,"ivia":12615,"listed":12616,"Ġ×":12617,"igher":12618,"oviÄĩ":12619,"Ġplatforms":12620,"Ġmolecular":12621,"Ġswe":12622,"jet":12623,"Profess":12624,"Ġsnow":12625,"\\;":12626,"Ġhorizontal":12627,"abi":12628,"Ġscores":12629,"ĠSchools":12630,"Ġsymbols":12631,".\");":12632,"Ġcited":12633,"ĠUrb":12634,"Ġ'\\":12635,"Ġ{},":12636,"Ġri":12637,"ouver":12638,"Ġfib":12639,"decl":12640,"Ġsoundtrack":12641,"miral":12642,"ĠDaily":12643,"Ġranges":12644,"Az":12645,"sample":12646,"Ġmouse":12647,"Ġliquid":12648,"}{(":12649,"Ġbias":12650,"Ġvalign":12651,"esis":12652,"mate":12653,"Ġendemic":12654,"components":12655,"ĠCarter":12656,"Abstract":12657,"ellect":12658,"Ġresidential":12659,"Ġrespective":12660,"Ġadmin":12661,"ĠRan":12662,"ĠSeason":12663,"ById":12664,"OwnProperty":12665,"Ġ%}":12666,"ĠHAL":12667,"Ġinstruction":12668,"Ġfaster":12669,"iah":12670,"Ġ\"<":12671,"Audio":12672,"Ġassociate":12673,"ETHOD":12674,"Ġevening":12675,"Vertex":12676,"Ġforeach":12677,"Ġinvolves":12678,"aco":12679,"illo":12680,"itempty":12681,"ĠUpper":12682,"Ġ\\&":12683,"Ġenum":12684,"ĠMaine":12685,"ĠCatal":12686,"Ġcomputing":12687,"ĠAccess":12688,"ĠRy":12689,"omitempty":12690,"Details":12691,"ishers":12692,"mel":12693,"nodes":12694,"rift":12695,"ĠPut":12696,"Stats":12697,"105":12698,"sat":12699,"stood":12700,"aptist":12701,"April":12702,"################":12703,"bc":12704,"Ġillustrated":12705,"Ġoffering":12706,"Ġexpressions":12707,"video":12708,"Registry":12709,"IES":12710,"ĠPFNGL":12711,"Ġexerc":12712,"Ġ\"-":12713,"evens":12714,"CB":12715,"Ġ$|\\":12716,"Ġmob":12717,"ĠSenator":12718,"Ġstreets":12719,"Ġstood":12720,"Ġgang":12721,"Ġsatellite":12722,"operator":12723,"ĠLane":12724,"ĠAthletic":12725,"Ġheads":12726,"ĠOrleans":12727,"circle":12728,"osc":12729,"Original":12730,"astery":12731,"Ġcrash":12732,"Thelia":12733,"Ġlooks":12734,"Ġcourts":12735,"agnostics":12736,"Ġ{'":12737,"sol":12738,"ĠSR":12739,"umps":12740,"tfrac":12741,"olves":12742,"BIT":12743,"ĠGulf":12744,"ishments":12745,"generated":12746,"elements":12747,"Ġmouth":12748,"Ġessentially":12749,"home":12750,"July":12751,"ĠNeg":12752,"ĠRefer":12753,"Ġskin":12754,"Ġcloser":12755,"bone":12756,"Ġschema":12757,"verb":12758,"inae":12759,"Ġentropy":12760,"hour":12761,"profit":12762,"ĠSarah":12763,"Ġviewed":12764,"bounds":12765,"Ġmine":12766,"Ġsufficiently":12767,"Ġpractical":12768,"cht":12769,"ĠLiverpool":12770,"Report":12771,"ĠOd":12772,"ĠEconomic":12773,"Ġgather":12774,"114":12775,"Ġaccum":12776,"Ġcontrad":12777,"Region":12778,"wrapper":12779,"ĠMunicipality":12780,"sis":12781,"Ġsupplied":12782,"orce":12783,"ĠRud":12784,"ĠHit":12785,"Ġnaval":12786,"aze":12787,"ĠDallas":12788,"Ġcomplement":12789,"algorithm":12790,"urable":12791,"Ġanyone":12792,"Ġoccupation":12793,"Ġmeters":12794,"Ġvirt":12795,"izers":12796,"Ġshares":12797,"October":12798,"Ġsud":12799,"larg":12800,"iu":12801,"Ġbatch":12802,"hai":12803,"Ġrestaurant":12804,"aba":12805,"ĠBrooklyn":12806,"zed":12807,"Animation":12808,"OB":12809,"ceptor":12810,"Ġdebuted":12811,"yy":12812,"ĠHend":12813,"Ġsending":12814,"Ġremainder":12815,"ultan":12816,"Ġfiled":12817,"Ġpatient":12818,"cref":12819,"Ġprecision":12820,"ĠLink":12821,"Ġequality":12822,"Mask":12823,"comb":12824,"jQuery":12825,":}":12826,"elastic":12827,"GP":12828,"Ġlit":12829,"ĠIR":12830,"aman":12831,"Ġneither":12832,"Ġwaiting":12833,"ĠBeck":12834,"Ġawait":12835,"Ġgrass":12836,"rose":12837,"ĠEvery":12838,"TABLE":12839,"mathop":12840,"Ġimprison":12841,"Move":12842,">:":12843,"September":12844,"ĠMorris":12845,"Ġblow":12846,"ICENSE":12847,"Ġlift":12848,"${\\":12849,"ĠLeban":12850,"Ġrapidly":12851,"cross":12852,"ĠYan":12853,"echo":12854,"Ġ[\"":12855,"Ġcomed":12856,"ĠWebsite":12857,"tection":12858,"iterranean":12859,"qq":12860,"ĠDNA":12861,"Ġdriven":12862,"Ġdrawing":12863,"Ġdemonstrated":12864,"Ġvariations":12865,"Ġbenefits":12866,"eva":12867,"Ġdating":12868,"Ġrivers":12869,"Look":12870,"Ġxmlns":12871,"Db":12872,"Ġsatisfying":12873,"forEach":12874,"Ġdimensional":12875,"ĠMovement":12876,"ĠCentury":12877,"IGHT":12878,"Begin":12879,"Ġbos":12880,"tags":12881,"details":12882,"ĠDub":12883,"junit":12884,"ropic":12885,"1850":12886,"ĠJimmy":12887,"platform":12888,"tre":12889,"DateTime":12890,"Ġbeautiful":12891,"Ġresearchers":12892,"1884":12893,"^*$":12894,"Ġdiameter":12895,"Ġequilibrium":12896,"Ġdeleg":12897,"ereq":12898,"Ġexperiences":12899,"ĠMurray":12900,"Ign":12901,"Ġpainted":12902,"Ġorganisation":12903,"story":12904,"Ġteachers":12905,"Ñĭ":12906,"specific":12907,"plan":12908,"ĠTob":12909,"uning":12910,"Ġclosure":12911,"relations":12912,"ĠUpon":12913,"Ġ\"$":12914,"Ġoffensive":12915,"Ġcriticized":12916,"Home":12917,"Ġsouthwest":12918,"Mouse":12919,"Ġmemorial":12920,"lat":12921,"distance":12922,"Ġderivative":12923,"Ġheaded":12924,"Ġwrites":12925,"Ġagencies":12926,"driver":12927,"Ġferm":12928,"ĠEmer":12929,"ĠYorkshire":12930,"Ġperspective":12931,"ĠAthletics":12932,"ĠNord":12933,"Ġjuris":12934,"inist":12935,"ĠCarib":12936,"1861":12937,"Ġdebate":12938,"iat":12939,"asp":12940,"Robert":12941,"material":12942,"git":12943,"Ġentering":12944,"Ġtied":12945,"fiction":12946,"Ġbuy":12947,"ĠLanka":12948,"umbent":12949,"Ġprovincial":12950,"Ġcriteria":12951,"Ġ''":12952,"ĠRico":12953,"ĠPrefecture":12954,"Mag":12955,"eenth":12956,"George":12957,";/":12958,"Py":12959,"January":12960,",{\\":12961,"ĠLimited":12962,"ials":12963,"ĠApple":12964,"ĠYouTube":12965,"Ġdream":12966,"execute":12967,"through":12968,"etal":12969,"ĠCapital":12970,"ĠWing":12971,"Ġclar":12972,"Ġattorney":12973,"Ġtemp":12974,"Est":12975,"}{|":12976,"Variable":12977,"%%%%":12978,"1864":12979,"care":12980,"@\"":12981,"imir":12982,"Convert":12983,"ĠHum":12984,"Ġnearest":12985,"Ġknew":12986,"ĠKit":12987,"jamin":12988,"Ġgravity":12989,"Ġterminal":12990,"ĠFranklin":12991,"pf":12992,"ĠWAR":12993,"configuration":12994,"Ġinstitution":12995,"ĠSite":12996,"dialog":12997,"Ġtall":12998,"inus":12999,"relation":13000,"igate":13001,"Ġkeeping":13002,"===":13003,"Demographics":13004,"Ġseparation":13005,"ĠGrad":13006,"ĠOk":13007,"cia":13008,"Ġrecon":13009,"ĠNar":13010,"Ġuniversal":13011,"!\\":13012,"have":13013,"oving":13014,"Ġcustomers":13015,"aset":13016,"prising":13017,"Ġ\"\",":13018,"Ġinstruct":13019,"ĠThough":13020,"pull":13021,"Ġtheater":13022,"Ġjournalists":13023,"Ġnavigation":13024,"bing":13025,"Ġconvention":13026,"ĠKu":13027,"Ġfold":13028,"ĠConvention":13029,"Resources":13030,"mathit":13031,"tc":13032,"tar":13033,"Ġtownship":13034,"ĠSax":13035,"posing":13036,"Ġcenters":13037,"Ġfest":13038,"Ġsuccessor":13039,"Ġcursor":13040,"ĠRight":13041,"ĠBasketball":13042,"Ġrgba":13043,"Ġactivist":13044,"longrightarrow":13045,"Ġcanonical":13046,"idad":13047,"oro":13048,"Ġapplicable":13049,"ĠUI":13050,"ĠNazi":13051,"tz":13052,"ĠSystems":13053,"1881":13054,"Ġcredited":13055,"Alumni":13056,"Operator":13057,"Ġspeak":13058,"ĠLear":13059,"Constructor":13060,"Ġbrig":13061,"}\\,\\":13062,"Town":13063,"Ġpassword":13064,"Axis":13065,"ĠSI":13066,"Ġhypothesis":13067,"ĠSS":13068,"panic":13069,"may":13070,"127":13071,"QU":13072,"stats":13073,"Ġpreserved":13074,"Ġmig":13075,"ĠGiven":13076,"Ġrelax":13077,"Ġconcerned":13078,"ĠTournament":13079,"ĠBernard":13080,"Ġdocumentation":13081,"Den":13082,"Ġsigning":13083,"calc":13084,".\",":13085,"Ġracial":13086,"uits":13087,"hips":13088,"Ġdefeating":13089,"hus":13090,"Ġincreasingly":13091,"Ġgenerator":13092,"Texture":13093,"Ġcriticism":13094,"ĠNam":13095,"ĠPay":13096,"bow":13097,"Environment":13098,"rosc":13099,"icenses":13100,"ĠProp":13101,"Ġhabitat":13102,"Drop":13103,"ĠMaj":13104,"Ġmanufacturing":13105,"Ġopacity":13106,"ĠRic":13107,"GLE":13108,"ĠKum":13109,"runtime":13110,"Wait":13111,"riel":13112,"ĠPortland":13113,"lington":13114,"destroy":13115,"Ġsampling":13116,"Super":13117,"ĠOrganization":13118,"ĠIce":13119,"Support":13120,"Ġprisoners":13121,"Methods":13122,"1882":13123,"design":13124,"ebraska":13125,"Ġdebug":13126,"Ġfinals":13127,"emit":13128,"åı":13129,"ĠMotor":13130,"lope":13131,"Ġcollapse":13132,"ificial":13133,"ĠWoman":13134,"Ġinputs":13135,"Ġproperly":13136,"Ġbanks":13137,"ĠFIFA":13138,"Ġsubstantial":13139,"Ġaf":13140,"ĠRemove":13141,"Ġbond":13142,"bras":13143,"mates":13144,"dereq":13145,"Ġveget":13146,"Ġpitch":13147,"ĠAqu":13148,"102":13149,"builder":13150,"ĠYugoslav":13151,"aten":13152,"ĠCathedral":13153,"Ġflu":13154,"shaped":13155,"Span":13156,"Ġmental":13157,"opal":13158,"Ġmovements":13159,"ceive":13160,"Just":13161,"PATH":13162,"Ġcous":13163,"Ġpopularity":13164,"Ġlandscape":13165,"League":13166,"plates":13167,"Ġheritage":13168,"separ":13169,"urers":13170,"Ġrent":13171,"Vol":13172,"GM":13173,"Ġhandling":13174,"Ġdecrease":13175,"ĠTrack":13176,"))\\":13177,"ponential":13178,"osph":13179,"ĠSource":13180,"pb":13181,"Ġasc":13182,"ĠDJ":13183,"LECT":13184,"ĠFather":13185,"Ġwounded":13186,"odd":13187,"mitter":13188,"ĠBirmingham":13189,"alph":13190,"encer":13191,"ifle":13192,"Ġunsuccess":13193,"FE":13194,"Ġcards":13195,"1863":13196,"ĠElementary":13197,"oming":13198,"Ġmeets":13199,"writers":13200,"ĠFriday":13201,"ĠJu":13202,"itime":13203,"Spanish":13204,"ĠPrivate":13205,".:":13206,"VM":13207,"ĠUlt":13208,"Ġgarden":13209,"mag":13210,"bigl":13211,"unny":13212,"ĠGraham":13213,"audi":13214,"alis":13215,"Ġstarred":13216,"Ġdatasets":13217,"Arm":13218,"ĠJason":13219,"Ġfear":13220,"Ġrecur":13221,"Ġstatements":13222,"ĠPictures":13223,"Condition":13224,"Ġmarkets":13225,"ĠNorman":13226,"Ġweekly":13227,"Ġwel":13228,"Ġreleg":13229,"ĠDefence":13230,"104":13231,"pend":13232,"nan":13233,"Ġdiagonal":13234,"Ġvessels":13235,"Ġbusinessman":13236,"Ġtight":13237,"Ġduties":13238,"ĠEvans":13239,"Ġsegments":13240,"mund":13241,"animation":13242,"Ġsigns":13243,"arios":13244,"Bind":13245,"Ġsubmar":13246,"ancouver":13247,"Ġqualifying":13248,"/(":13249,"ido":13250,"iota":13251,"alymp":13252,"Ġworker":13253,"ethe":13254,"otan":13255,"Ġuniverse":13256,"neur":13257,"Donald":13258,"ĠTrad":13259,"aho":13260,"Ġrounds":13261,"Ġkin":13262,"Depend":13263,"phase":13264,"Ġbom":13265,"ĠBelgian":13266,"Ġresolved":13267,"required":13268,"Ġcraft":13269,"ĠZend":13270,"sb":13271,"ĠMadrid":13272,"ĠTrophy":13273,"eton":13274,"ĠRain":13275,"athy":13276,"ĠSH":13277,"udson":13278,"Ġcommune":13279,"Ġdecomposition":13280,"ĠProm":13281,"Ġpron":13282,"about":13283,"=\"/":13284,"Ġinstant":13285,"1862":13286,"Ġrose":13287,"ĠBud":13288,"ĠRange":13289,"ĠConservative":13290,"Ġmanifold":13291,"116":13292,"Station":13293,"Ġisolated":13294,"Ġfruit":13295,"Like":13296,"ĠCore":13297,"}})":13298,"sha":13299,"constant":13300,"Ġjunction":13301,"ĠSearch":13302,"ĠBilly":13303,"Ġthanks":13304,"uable":13305,"Ġcoastal":13306,"ĠANY":13307,"heduler":13308,"Ġhelping":13309,"Ġsimultaneously":13310,"ĠJudge":13311,"Ġrecovered":13312,"ĠPromise":13313,"Dig":13314,"ĠTrib":13315,"bigr":13316,"Complete":13317,"orous":13318,"ties":13319,"Ġconnecting":13320,"Ġdisp":13321,"Ġtables":13322,"ĠPA":13323,"December":13324,"ĠEval":13325,"Ġranking":13326,"Ġbid":13327,"Ġprof":13328,"Ġlemma":13329,"Example":13330,"Series":13331,"European":13332,"Ġradial":13333,"Ġguitarist":13334,"$:":13335,"emor":13336,"Ġruntime":13337,"ĠCarlos":13338,"Ġmes":13339,"Ġeliminated":13340,"Ġrecru":13341,"Ġconfigure":13342,"ĠLOG":13343,"ursor":13344,"Ġquantities":13345,"Ġsatisfied":13346,"tery":13347,"November":13348,"hill":13349,"HER":13350,"Ġpreferred":13351,"ulu":13352,"Bal":13353,"tex":13354,"ĠNi":13355,"Ġnewspapers":13356,"ĠLP":13357,"Ġec":13358,"Library":13359,"fare":13360,"async":13361,"Albums":13362,"progress":13363,"works":13364,"ulum":13365,"Language":13366,"ĠBaker":13367,"iamond":13368,"Ġdiagn":13369,"ĠStanley":13370,"ĠDouble":13371,"Jew":13372,"Ġgran":13373,"001":13374,"ĠGlasgow":13375,"ÃŁ":13376,"flat":13377,"extension":13378,"Ġcurv":13379,"Ġorientation":13380,"ĠSoccer":13381,"Ã¦":13382,"ĠPR":13383,"ĠDest":13384,"Ġphases":13385,"ĠTree":13386,"ĠWrite":13387,"Ġneural":13388,"Ġtok":13389,"spl":13390,"Ġattributed":13391,"ĠStudio":13392,"Linq":13393,"origin":13394,"Ġappeal":13395,"igo":13396,"ĠAthe":13397,"Ġlanding":13398,"usalem":13399,"******":13400,"Ġgone":13401,"paragraph":13402,"ĠZone":13403,"Air":13404,"wt":13405,"ĠPrim":13406,"Ġdistinguished":13407,"ĠPradesh":13408,"ĠMilan":13409,"idency":13410,"uka":13411,">'":13412,"tensor":13413,"Ġalcoh":13414,"Ġcmd":13415,"Ġbelonging":13416,"lett":13417,"Ġtransc":13418,"rehens":13419,"Ġfacilit":13420,"Ġsignificance":13421,"Ġconsiderable":13422,"ĠLud":13423,"avelength":13424,"resources":13425,"140":13426,"cisely":13427,"ĠEdd":13428,"scriptstyle":13429,"ĠSerbia":13430,"Ġwish":13431,"Radio":13432,"ĠTigers":13433,"bul":13434,"-(":13435,"forming":13436,"ughters":13437,"Ġfil":13438,"Recip":13439,"shared":13440,"ĠChallenge":13441,"Ġderive":13442,"Ġpoem":13443,"Enter":13444,"liter":13445,"Ġillegal":13446,"functions":13447,"Ġchecks":13448,"ochastic":13449,"trim":13450,"Ġsync":13451,"rieved":13452,"ĠEdition":13453,"Nullable":13454,"Ġmedieval":13455,"Ġimprovement":13456,"atomic":13457,"Ġemergency":13458,"_);":13459,"mill":13460,"kar":13461,"Ġassumptions":13462,"detail":13463,"dfrac":13464,"vi":13465,"Ġposted":13466,"Ġstruck":13467,"tabs":13468,"Ġcyl":13469,"Cr":13470,"Ġpointed":13471,"ristol":13472,"ĠJe":13473,"negative":13474,"ĠPRO":13475,"Ġconventional":13476,"Ben":13477,"ymmetry":13478,"Su":13479,"Ġmetrics":13480,"Ġpian":13481,"Ġna":13482,"rez":13483,"uggle":13484,"clone":13485,"Ġintr":13486,"Light":13487,"ĠWrestling":13488,"ducational":13489,"Ġquantity":13490,"claimed":13491,"Ġmagazines":13492,"uble":13493,"iliary":13494,"ĠEU":13495,"hal":13496,"Ġtel":13497,"Ġfitted":13498,"****************************************************************":13499,"factory":13500,"Ġreceiver":13501,"![":13502,"orne":13503,"uart":13504,"Ġskip":13505,"ĠTheater":13506,"Ġrecovery":13507,"INTER":13508,"ĠTower":13509,"Ġchallenges":13510,"ĠFuture":13511,"ĠIndeed":13512,"marks":13513,"Ġrevers":13514,"verted":13515,"Ġhelps":13516,"Ġcommands":13517,"LR":13518,"heel":13519,"visible":13520,"Personnel":13521,"1878":13522,"ĠEss":13523,"ĠGary":13524,"360":13525,"irical":13526,"how":13527,"ĠMak":13528,"rock":13529,"ĠMitchell":13530,"Ġelectoral":13531,"Ġfails":13532,"Driver":13533,"available":13534,"Ġswit":13535,"ivan":13536,"111":13537,"ĠHero":13538,"ĠAzerbai":13539,"Ġsimilarly":13540,"ĠGuy":13541,"Ġanchor":13542,"Ġtie":13543,"Ġreads":13544,"ĠUE":13545,"Ġindigenous":13546,"PROC":13547,"]$.":13548,"1883":13549,"bmatrix":13550,"Ġconfirm":13551,"Ġelectro":13552,"Ġblog":13553,"Ġassass":13554,"Ġsees":13555,"ĠJazz":13556,"iliar":13557,"ĠVari":13558,"Mont":13559,"ibilities":13560,"Ġnecessarily":13561,"Ġassets":13562,"town":13563,"Ġprovision":13564,"Ġsql":13565,"Ġdress":13566,"ortion":13567,"Ġreleases":13568,"lotte":13569,"Ġbon":13570,"erts":13571,"Ġpeaked":13572,"ĠMust":13573,"Ġposter":13574,"utation":13575,"backs":13576,"geon":13577,"simple":13578,"ADD":13579,"fam":13580,"pair":13581,"ĠApache":13582,"ĠRequest":13583,"cpp":13584,"Ġchildhood":13585,"ĠIndians":13586,"Ġflowers":13587,"ricane":13588,"Ġfictional":13589,"ĠNova":13590,"Ġstead":13591,"ĠNad":13592,"ĠTol":13593,"Rob":13594,">;":13595,"oples":13596,"hoenix":13597,"fish":13598,"Ġbrick":13599,"Ġnormally":13600,"there":13601,"Moths":13602,"Ġcompeting":13603,"shop":13604,"Mart":13605,"Decl":13606,"later":13607,"ĠNBA":13608,"ipping":13609,"ĠOS":13610,"hattan":13611,"emale":13612,"DEF":13613,"Ġgoverning":13614,"console":13615,"Ġ{$":13616,"ÏĦ":13617,"ĠSets":13618,"Ġnomination":13619,"Ġacknowled":13620,"Pan":13621,"\\}$.":13622,"slash":13623,"ĠRand":13624,"cycle":13625,"opsis":13626,"Win":13627,"rations":13628,"âĢĿ.":13629,"City":13630,"Ġcontribute":13631,"Ġmaxim":13632,"Find":13633,"{%":13634,"Ġhide":13635,"terior":13636,",\\,\\":13637,"Ġpref":13638,"Ġartistic":13639,"NET":13640,"etition":13641,"ĠNigeria":13642,"ĠMeg":13643,"alias":13644,"Ġcanvas":13645,"Ġvarying":13646,"resize":13647,"Ġpoverty":13648,"Ġromantic":13649,"ĠDesc":13650,"ĠGuinea":13651,"etary":13652,"ĠMack":13653,"Ġhear":13654,"OUT":13655,"Ġgenerating":13656,"ĠSalv":13657,"Ġdenied":13658,"Pred":13659,"elihood":13660,",\\\\":13661,"aturally":13662,"ĠPi":13663,"ĠBroadway":13664,"Ġcub":13665,"Sequence":13666,"boy":13667,"hammad":13668,"Ġextensions":13669,"ĠCricket":13670,"icht":13671,"ĠDelhi":13672,"Ġcompiled":13673,"ĠBlues":13674,"DEFAULT":13675,"Ġprofession":13676,"Special":13677,"hum":13678,"ĠYang":13679,"LOC":13680,"ĠMarket":13681,"ordinate":13682,"ĠIL":13683,"repre":13684,"ncient":13685,"Medalists":13686,"IMP":13687,"Round":13688,"DIS":13689,"IPT":13690,"Ġopportunities":13691,"Ġmodify":13692,"Tx":13693,"Bad":13694,"asma":13695,"Ġindepend":13696,"pare":13697,"ĠNation":13698,"trace":13699,"ĠSmall":13700,"Ġiterator":13701,"groups":13702,"Ġspeaking":13703,"Ġdefinitions":13704,"dn":13705,"Ġdirections":13706,"ĠRomanian":13707,"atorial":13708,"oton":13709,"ĠZe":13710,"ĠCF":13711,"Ġtrap":13712,"Ġexposed":13713,"}}}\\":13714,"Ġpanels":13715,"Ġhorror":13716,"anion":13717,"outing":13718,"ĠChange":13719,"akia":13720,"inated":13721,"1876":13722,"Ġmagnet":13723,"Ġcancelled":13724,"ativ":13725,"Overview":13726,"Ġprinted":13727,"ubernetes":13728,"}[\\":13729,"Given":13730,"Ġnations":13731,"iko":13732,"requency":13733,"ĠassertThat":13734,"Ġsight":13735,"Ġdaughters":13736,"ationToken":13737,"selection":13738,"\"},":13739,"SSL":13740,"Ġretail":13741,"Flora":13742,"stad":13743,"amaz":13744,"Ġredshift":13745,"gebras":13746,"ĠHttp":13747,"Ġsurfaces":13748,"izz":13749,"}</":13750,"ĠMix":13751,"Ġfilmed":13752,"1875":13753,"ĠInput":13754,"Ġdisorder":13755,"ĠStage":13756,"Ġ\"'":13757,"olving":13758,"Ġmanage":13759,"Ġentertainment":13760,"Nor":13761,"Ġwithdraw":13762,"Ġconfidence":13763,"external":13764,"ĠAfghanistan":13765,"ĠElectric":13766,"ĠAlberta":13767,"represent":13768,"Ġmountains":13769,"wp":13770,"Ġprecisely":13771,"mean":13772,"enberg":13773,"Ġgreatly":13774,"minute":13775,"vertical":13776,"Ġdecline":13777,"Area":13778,"users":13779,"jquery":13780,"Ġtunnel":13781,"Ġlicensed":13782,"achi":13783,"className":13784,"Ġenergies":13785,"ĠGun":13786,"Ġframes":13787,"Mass":13788,"Ġmunicipalities":13789,"Ġpredictions":13790,"ĠShar":13791,"Repository":13792,"isson":13793,"mir":13794,"ĠDictionary":13795,"ĠCle":13796,"Ġ$,":13797,"ĠBenn":13798,"ĠPont":13799,"RAY":13800,"othy":13801,"ĠOnline":13802,"Focus":13803,"Ġstayed":13804,"Ġovers":13805,"Ġplain":13806,"'];":13807,"Ġdecisions":13808,"ĠJohnny":13809,"FORM":13810,"Ġmaximal":13811,"ĠStars":13812,"annon":13813,"ĠØ":13814,"castle":13815,"formal":13816,"ĠFinnish":13817,"release":13818,"Ġpray":13819,"Ġlongest":13820,"Analysis":13821,"Ġabuse":13822,"ĠWind":13823,"speed":13824,"Ġsudden":13825,"sem":13826,"cline":13827,"loading":13828,"Ġmanip":13829,"ĠIv":13830,"Ġmaintenance":13831,"}_{-":13832,"Ġforests":13833,"ĠCultural":13834,"Ġsoil":13835,"CHAR":13836,"Ġcompens":13837,"Ġhybrid":13838,"Ġpatch":13839,"Ġabb":13840,"('./":13841,"$_{":13842,"Ġbear":13843,"Ġpoets":13844,"Ġdeclar":13845,"ĠAld":13846,"ĠConfeder":13847,"ĠBranch":13848,"Ġhistorians":13849,"Ġaccord":13850,"ĠCaribbean":13851,"Ġmoments":13852,"ĠUg":13853,"ĠFab":13854,"Sal":13855,"ĠAy":13856,"ĠBible":13857,"ulates":13858,"ĠPierre":13859,"ĠPolitical":13860,"Ġrelief":13861,"Na":13862,"enia":13863,"ĠFine":13864,"ĠMother":13865,"1867":13866,"ĠCreates":13867,"MODE":13868,"ellectual":13869,"ĠStorm":13870,"TestCase":13871,"ijing":13872,"ĠDerby":13873,"ĠBomb":13874,"connected":13875,"Ġclients":13876,"Ġcelebrated":13877,"Ġenhance":13878,"vironments":13879,"$/":13880,"helper":13881,"Ġpriority":13882,"Character":13883,"Ġclosing":13884,"pressed":13885,"ĠNevada":13886,"1879":13887,"quir":13888,"Ã¶r":13889,"Ġapproval":13890,"Ġaffairs":13891,"Ljava":13892,"Are":13893,"jango":13894,"Ġdeform":13895,"stage":13896,"icode":13897,"Ġvoting":13898,"ynamics":13899,"Ġtopological":13900,")--":13901,"ĠMi":13902,"Join":13903,"ĠCS":13904,"DEBUG":13905,"Ġsymp":13906,"ĠWarren":13907,"000000":13908,"Failure":13909,"Ġreaches":13910,"ĠPod":13911,"Password":13912,"Tags":13913,"ashes":13914,"Ġtransportation":13915,"Ġmedals":13916,"displayName":13917,"Ġhappens":13918,"MF":13919,"ĠRacing":13920,"ĠIns":13921,"endor":13922,"oga":13923,"Ġsurrounded":13924,"Ġtrivial":13925,"Ġthemes":13926,"usk":13927,"^{*":13928,"Honours":13929,"Ġmerger":13930,"hell":13931,"ĠBurg":13932,"ĠParker":13933,"ĠHunter":13934,"Ġcro":13935,"ĠĠĠĠĠĠĠĠĠĠĠĠĠĠĠĠĠĠĠĠĠĠĠĠĠĠĠĠĠĠ":13936,"Ġexplore":13937,"Fore":13938,"ivodes":13939,"Ham":13940,"Ġoverse":13941,"zip":13942,"estion":13943,"Î¹":13944,"spector":13945,"docker":13946,"Ġdated":13947,"ĠLead":13948,"sig":13949,"holm":13950,"ĠExample":13951,"createElement":13952,"ĠCE":13953,"fol":13954,"Ġprototype":13955,"Ġpublisher":13956,"rino":13957,"ATCH":13958,"scss":13959,"Taxa":13960,"tk":13961,"Ġnormalized":13962,"ĠGriff":13963,"Ġmit":13964,"Ġtur":13965,"Ġupdates":13966,"Ġturning":13967,"blockList":13968,"Ġmonument":13969,"bourg":13970,"Ġsuspended":13971,"ĠAlaska":13972,"Unknown":13973,"900":13974,"Ġestimation":13975,"]$,":13976,"ĠFalls":13977,"Ġvisitors":13978,"Ġtopics":13979,"compare":13980,"REQ":13981,"Ġassuming":13982,"duration":13983,"ĠCharlie":13984,"Ġchunk":13985,"aku":13986,"\"],":13987,"Ġunderstood":13988,"Identity":13989,"asts":13990,"Ġconservative":13991,"ÐµÐ½":13992,"Ġpresents":13993,"ĠBorough":13994,"ĠRangers":13995,"watch":13996,"ĠJerusalem":13997,"ĠProtest":13998,"ĠSN":13999,"INFO":14000,"Ġtx":14001,"ERS":14002,"Green":14003,"103":14004,"ĠLiving":14005,"iden":14006,"ĠEston":14007,"uez":14008,"Ġĉ":14009,"UES":14010,"goog":14011,"Ġsnap":14012,"Ġsensitive":14013,"ĠMatthew":14014,"ĠPrimary":14015,"ĠMock":14016,"bes":14017,"Univers":14018,"ĠEff":14019,"ĠWayne":14020,"quer":14021,"shall":14022,"ĠNicol":14023,"Ġappointment":14024,"ĨĴ":14025,"Ġvic":14026,"Ġcup":14027,"qual":14028,"Ġparticipation":14029,"fmt":14030,"Management":14031,"ĠVerm":14032,"Ġorchestra":14033,"oking":14034,"inos":14035,"Ġnotion":14036,"Pay":14037,"Ġdetermin":14038,"ĠLGBT":14039,";\\;\\":14040,"ĠLandroid":14041,"Basic":14042,"merge":14043,"Ġcolleges":14044,"Ġfurn":14045,"ĠSaints":14046,"Ġsuicide":14047,"celand":14048,"ĠLiga":14049,"sters":14050,"abe":14051,"ĠGreater":14052,"Ġhardware":14053,"Ġannounce":14054,"craft":14055,"(.":14056,"Ġcompatible":14057,"Ġignored":14058,"Visible":14059,"Ġterritories":14060,"ĠNebraska":14061,"appy":14062,"Player":14063,"Ġlooked":14064,"Ġbold":14065,"arthe":14066,"ĠGR":14067,"}}_{\\":14068,"ĠNewton":14069,"intro":14070,"logger":14071,"route":14072,"unately":14073,"Ġrepresentatives":14074,"scribe":14075,"setup":14076,"algebra":14077,"Ġvalidate":14078,"Ġdiscontin":14079,"Ġdiscipl":14080,"eper":14081,"Ġdelegate":14082,"concat":14083,"Ġox":14084,"inery":14085,"Ġgeneralized":14086,"cz":14087,"ĠBarry":14088,"square":14089,"incinn":14090,"previous":14091,"Ġpeer":14092,"ĠChron":14093,"ĠAttorney":14094,"Ġwear":14095,"pu":14096,"avan":14097,"Ġseeing":14098,"ĠBey":14099,"zant":14100,"Ġiteration":14101,"Ġconfront":14102,"VP":14103,"ogue":14104,"Ġvul":14105,"ĠJama":14106,"Ġinfluential":14107,"ĠRichmond":14108,"ĠFleet":14109,"href":14110,"Distribution":14111,"ORTED":14112,"Ġloading":14113,"oday":14114,"ĠPil":14115,"Ġgrown":14116,"Ġkingdom":14117,"Ġcounties":14118,"ĠMans":14119,"Make":14120,"aneous":14121,"Ġaccessible":14122,"Ġmarketing":14123,"counter":14124,"ĠExpl":14125,"Ġsupers":14126,"\"/></":14127,"ĠAndy":14128,"pload":14129,"Ġexisted":14130,"Michael":14131,"Ġwasn":14132,"ĠMinor":14133,"Ġpixel":14134,"clean":14135,"warning":14136,"Tur":14137,"graduate":14138,"Renderer":14139,"ĠBarbara":14140,"ĠInitial":14141,"Ġreward":14142,"Normal":14143,"Season":14144,"Ġcontinuing":14145,"aja":14146,"ĠTrail":14147,"INSERT":14148,"job":14149,"ĠIan":14150,"ivodeship":14151,"Eval":14152,"assembly":14153,"Ġcreative":14154,"1871":14155,"ĠIvan":14156,"Ġelementary":14157,"Ġchampionships":14158,"ãĢĤ":14159,"Ġcorrectly":14160,"Ġreputation":14161,"Ġdx":14162,"three":14163,"Jack":14164,"Ġcollision":14165,"+(":14166,"week":14167,"Ġcompetitive":14168,"brew":14169,"Ġpipeline":14170,"Cloud":14171,"ĠPrint":14172,"vee":14173,"astrop":14174,"Ġdelta":14175,"Ġdemonstrate":14176,"empl":14177,"Ġmechanical":14178,"Ġinvolvement":14179,"Ġendpoint":14180,"ĠAssistant":14181,"pread":14182,"ĠStatus":14183,"ivities":14184,"bian":14185,"inherit":14186,"ythm":14187,"Ġinjuries":14188,"Ġcomprehens":14189,"quant":14190,"ĠOptional":14191,"Dan":14192,"Ġrequirement":14193,"Ġhundreds":14194,"ierra":14195,"Ġevaluated":14196,"ĠHawaii":14197,"ĠJenn":14198,"omal":14199,"ĠDO":14200,"maker":14201,"ĠSeven":14202,"Addr":14203,"Ġencoded":14204,"Ġenumer":14205,"1843":14206,")&":14207,"ĠYe":14208,"Ġprinciples":14209,"ĠHad":14210,"Ġwides":14211,"^{(\\":14212,"Ġsurgery":14213,"Ġrescue":14214,"andal":14215,"ĠHindu":14216,"Ġhol":14217,"CALL":14218,"ĠSerge":14219,"ĠSteel":14220,"Discography":14221,"ĠProfessional":14222,"\\)":14223,"ĠTab":14224,"Ġtexts":14225,"Ġsubsidi":14226,"Binding":14227,"ĠIss":14228,"ĠEug":14229,"ĠLuther":14230,"Ġparliamentary":14231,"Ġvessel":14232,"ĠCloud":14233,"isons":14234,"ourt":14235,"addClass":14236,"Ġtrading":14237,"Idx":14238,"omon":14239,"ols":14240,"1868":14241,"incinnati":14242,"Ġquark":14243,"bp":14244,"accept":14245,"Ġmissions":14246,"Ġreceives":14247,"Ġfishing":14248,"CRE":14249,"ĠHub":14250,"Ġoperational":14251,"Ġgenre":14252,"ĠHold":14253,"ĠFranc":14254,"ĠSpeed":14255,"ĠAppe":14256,"atche":14257,"ente":14258,"reduc":14259,"ĠAppendix":14260,"Ġexhibit":14261,"emptyset":14262,"Insert":14263,"ĠSongs":14264,"uru":14265,"Ġcontroversy":14266,"sidebar":14267,"Ġdeclined":14268,"Ġwallet":14269,"Ġportrayed":14270,"Ġaux":14271,"ĠVictorian":14272,"lesssim":14273,"1877":14274,"Ġfake":14275,"Ġlimitations":14276,"Ġexplanation":14277,"otton":14278,"Ġdefence":14279,"Ġelder":14280,"ÑģÑĤ":14281,"Ġinclusion":14282,"Ð¾Ð²":14283,"lix":14284,"ĠAlexand":14285,"Ġluminosity":14286,"Strategy":14287,"ĠFlore":14288,"Pair":14289,"Ġty":14290,"Ġvisiting":14291,")})":14292,"standard":14293,"ĠCP":14294,"1874":14295,"spin":14296,"Ġdelivery":14297,"ĠVoivodeship":14298,"Ġsquadron":14299,"Ġpublicly":14300,"1872":14301,"107":14302,"Ġwooden":14303,"Ġpotentially":14304,"Ġdowntown":14305,"ĠBert":14306,"ĠTib":14307,"Ġlose":14308,"à¦":14309,"ĠWang":14310,"ĠClassic":14311,"Ġcolle":14312,"Ġthreatened":14313,"Ġbars":14314,"Ġsupplement":14315,"ĠVancouver":14316,"Ġmissed":14317,"ĠVas":14318,"ĠLate":14319,"loss":14320,"ĠGot":14321,"ailability":14322,"EXPORT":14323,"Critical":14324,"Ġartillery":14325,"()))":14326,")\",":14327,"Ġexponent":14328,"Ġà¤":14329,"ĠMall":14330,"Ġfee":14331,"Through":14332,"Ġpsy":14333,"canvas":14334,"ĠRu":14335,"jpg":14336,"ĠEmb":14337,"acre":14338,"ĉĠĠĠĠĠĠĠĠĠĠĠĠ":14339,"áº":14340,"lee":14341,"ĠMembers":14342,"Ġlogger":14343,"Defunct":14344,"Land":14345,"ĠColombia":14346,"Ġreveals":14347,"feature":14348,"Ġongoing":14349,"oria":14350,"four":14351,"isp":14352,"ĠPeru":14353,"ĠPant":14354,"Border":14355,"Hen":14356,"Ġnp":14357,"verage":14358,"ĠSett":14359,"ĠBengal":14360,"350":14361,"Design":14362,"onomous":14363,"redit":14364,"ĠMediterranean":14365,"Lou":14366,"Ġvariance":14367,"Ġhearing":14368,"fc":14369,"Î½":14370,"Ġwhilst":14371,"Ġsalt":14372,"itudes":14373,"Ġproportional":14374,"oker":14375,"Ġcopyright":14376,"Ġapproximate":14377,"BY":14378,"Ġexpedition":14379,"eful":14380,"ĠProfile":14381,"CG":14382,"Ġsustain":14383,"ĠSeg":14384,"ĠLad":14385,"Ġpoems":14386,"ĠCommunications":14387,"ĠPO":14388,",'":14389,"entine":14390,"making":14391,"Ġholid":14392,"Mix":14393,"ĠPDF":14394,"usted":14395,"Ġsin":14396,"Ġ\\]":14397,"ĠStream":14398,"Proto":14399,"Ġclone":14400,"Required":14401,"Ġswimming":14402,"Ġstrategies":14403,"Live":14404,"Alex":14405,"bd":14406,"iest":14407,"iology":14408,"celona":14409,"ĠTele":14410,"Ġwine":14411,"ĠBachelor":14412,"Ġfriendly":14413,"EST":14414,"ĠMichel":14415,"lined":14416,"Ġdepicted":14417,"Proof":14418,"Ġworst":14419,"ĠEgyptian":14420,"eto":14421,"ĠParish":14422,"Ġreact":14423,"Ġministers":14424,"auer":14425,"Platform":14426,"Thomas":14427,"Ġsessions":14428,"days":14429,"instein":14430,"Ġgiant":14431,"Ġconcerning":14432,"ĠGil":14433,"}}^{\\":14434,"objects":14435,"article":14436,"avior":14437,"Ġconvicted":14438,"Gallery":14439,"Ġ\"[":14440,"keley":14441,"keeper":14442,"Ġcir":14443,"ĠLoad":14444,"ĠManhattan":14445,"zym":14446,"Ġphoton":14447,"winning":14448,"Ġchamber":14449,"Ġha":14450,"Ġthousand":14451,"ĠTun":14452,"ĠSerbian":14453,"ĠBenjamin":14454,"Ġspoken":14455,"ĠSpirit":14456,"ĠSha":14457,"Ġphotography":14458,"Ġhosp":14459,"Ġ{\"":14460,"ĠVel":14461,".<":14462,"Ġdisestablished":14463,"Ġgrows":14464,"opedia":14465,"borne":14466,"Ġmovies":14467,"ĠSoutheast":14468,"Bottom":14469,"ĠFitz":14470,"Ġchecked":14471,"]))":14472,"agar":14473,"ĉĠĠ":14474,"Ġbases":14475,"Ġ'',":14476,"February":14477,"ĠAntar":14478,"Gold":14479,"audio":14480,"Ġapparently":14481,"raham":14482,"Ġmoth":14483,"ĠRace":14484,"Connect":14485,"Ġmanga":14486,"Ġreducing":14487,"ensively":14488,"lip":14489,"LAPI":14490,"ilty":14491,"ATTR":14492,"Ġidentification":14493,"(\"/":14494,"Qual":14495,"Ġwidget":14496,"ĠTwitter":14497,"eded":14498,"Ġgram":14499,"ĠAC":14500,"POST":14501,"ĠJonathan":14502,"Ġindependently":14503,"ĠOrange":14504,"music":14505,"ĠAndre":14506,"tiny":14507,"Ġisot":14508,"Ġamateur":14509,"Ġbtn":14510,"LOW":14511,"1866":14512,"LD":14513,"harm":14514,"Ġ({\\":14515,"ĠEditor":14516,"Bo":14517,"Screen":14518,"Ġlocomotives":14519,"Ġsentenced":14520,"sequence":14521,"ĠUSS":14522,"Ġpersonality":14523,"Ġstructural":14524,"ows":14525,"ouncill":14526,"Ġconn":14527,"1840":14528,"Ġclim":14529,"Academic":14530,"erves":14531,"ĠPoly":14532,"verter":14533,"Ġpartners":14534,"Ġoccasionally":14535,"Ġrecre":14536,"1873":14537,"Consider":14538,"ĠMess":14539,"Also":14540,"Ġcouples":14541,"Ġease":14542,"OF":14543,"Ġclinical":14544,"}}.":14545,"Royal":14546,"Ġhip":14547,"ĠIranian":14548,"iya":14549,"ĠNBC":14550,"Ġmatched":14551,"haus":14552,"ĠBuffalo":14553,"ĠPlant":14554,"neut":14555,"Ġdub":14556,"ĠFreedom":14557,"Ġcoupled":14558,"hook":14559,"currency":14560,"Ġceleb":14561,"Ġfoss":14562,"ĠFind":14563,"Ġgrey":14564,"Ġsubmitted":14565,"ĠAngl":14566,"teenth":14567,"White":14568,"Raw":14569,"ĠJosh":14570,"ĠBund":14571,"Constant":14572,"æľ":14573,"enti":14574,"Ġbeach":14575,"ARB":14576,"Ġmatters":14577,"appoint":14578,"disable":14579,"Ġcorrection":14580,"ĠÃł":14581,"Ġbacter":14582,"embed":14583,"Ġsax":14584,"Ġbattles":14585,"106":14586,"})}":14587,"Ġvacuum":14588,"Ġsurviving":14589,"Ġmini":14590,"Once":14591,"AMP":14592,"wave":14593,"FFER":14594,"ĠBron":14595,"ĠVegas":14596,"ĠMuhammad":14597,"ĠVI":14598,"Ġpole":14599,"formed":14600,"Ġalloc":14601,"ĠAdmiral":14602,"develop":14603,")}_":14604,"blem":14605,"AI":14606,"ĠOct":14607,"Ġdecide":14608,"Ġdescriptor":14609,"Ġneuro":14610,"Ġthrown":14611,"Ġtags":14612,"Ga":14613,
[...]
