#version: 0.2
Ġ Ġ
ĠĠ ĠĠ
Ġ t
i n
e r
o n
Ġ a
h e
r e
a t
e n
o r
s t
Ġt he
a l
a n
i t
Ġ c
ĠĠ Ġ
a r
l e
ĠĠĠĠ ĠĠĠĠ
i on
Ġ s
Ġ o
e s
i s
Ġ f
e d
Ġ w
in g
Ġ p
i c
r o
n d
Ġ b
Ġ in
a s
Ġo f
e t
c t
o u
Ġ d
Ġ m
en t
e l
Ġa nd
Ġt o
a m
Ġ h
o m
Ġ re
i l
Ġ n
ĠĠĠĠ ĠĠĠ
Ġt h
i d
i g
at ion
a c
o l
i m
Ġ (
Ġ S
u r
u t
Ġ =
o t
Ġ e
Ġ l
Ġ T
s e
< /
i v
a d
ĉ ĉ
Ġ C
Ġ A
Ġ $
= "
c e
Ġ \
o d
u l
a g
i f
Ġ is
) ;
Ġ g
â Ģ
t h
o w
a y
Ġ <
Ġf or
u n
Ġ {
- -
e m
c h
Ġ v
Ġ I
a b
Ġ st
u s
p e
Ġ M
u m
er s
at e
l y
q u
Ġ on
ĠĠĠĠĠĠĠĠ ĠĠĠ
a p
Ġb e
it h
t r
č Ċ
o c
e x
Ġ P
i st
i r
as s
/ /
h t
Ġc on
t er
Ġ B
a v
Ġ *
ct ion
p t
v er
am e
en d
Ġth at
e st
2 0
Ġa s
Ġ R
e w
re s
Ġ D
an d
Ġw ith
" >
Ġ }
u b
u p
es s
Ġ F
Ġ H
ou r
u e
l ass
or t
Ġa l
Ġ L
r i
Ġ "
Ġp ro
ag e
Ġa n
o p
e f
a in
Ġ N
o s
Ġw h
Ġ W
ĠĠĠĠĠĠĠĠ ĠĠĠĠĠĠĠĠ
at h
e ct
it y
{ \
Ġ E
Ġ G
l i
in e
ĠT he
Ġ it
ro m
ĠĠĠĠ Ġ
Ġe x
o re
ar t
( )
Ġc om
Ġ r
er e
m ent
n t
k e
Ġb y
ig ht
Ġ y
ur n
* *
s p
. .
ex t
e g
e c
o g
Ġa t
Ġ or
Ġth is
p l
i z
ac k
ab le
u re
al l
Ġw as
Ġ &
i es
Ġc lass
il l
ul t
iv e
p ort
Ġa re
i al
Ġ O
an t
âĢ Ļ
an s
1 9
= =
p er
y pe
i le
re f
Ġf rom
t urn
an g
u d
-- --
l d
_ {
Ġt r
Ġ if
e p
0 0
Ġ '
g et
c on
or m
Ġ J
st r
od e
Ġ Ċ
Ġw e
a ct
Ġ he
in t
a st
b er
in d
Ġc h
u nd
f f
ĠĠĠĠĠĠĠĠ ĠĠĠĠĠĠĠ
Ġ -
a re
as e
o v
Ġ$ \
Ġ le
Ġ U
ar y
c om
l ic
Ġs h
Ġn ot
ar d
at ed
e v
i p
it e
I n
at a
i b
pt ion
av e
ac e
or d
ou t
u g
p ro
T he
a k
ig n
i re
Ġ âĢ
o st
el l
p h
it ion
m ath
t o
Ġs e
u st
im e
Ġ </
j ect
Ġ //
.. /
Ġre turn
al ue
id e
p le
s er
m a
ic h
c l
ic al
on g
ĉĉ ĉĉ
our ce
ic e
) ,
Ġ [
i a
Ġ K
: :
' s
t ext
) .
- >
g e
or k
Ġ us
il d
Ġp l
ĠI n
f t
o k
en s
c c
un ction
Ġc an
Ġ j
ub lic
l o
f orm
Ġ V
C on
en ce
Ġn ew
an ce
} }
Ġh ave
d d
20 1
s s
l oc
ation s
c ri
^ {
ou ld
Ġre s
ro w
Ġ +
e ar
d u
Ġ @
or y
m l
ar am
d iv
on e
Ġ im
S t
ĠT h
el f
Ġh as
ess age
Ġy ou
Ġ k
res s
" ,
Ġal l
s et
Ġ un
} \
f r
Ġa r
p ut
} $
u se
Ġ /
( "
Ġa b
th er
ul l
en c
ac h
s o
ent s
ĠS t
> </
r a
iz e
( );
Ġa p
c al
en er
Ġwh ich
e qu
he n
sp an
ou s
Ġcon t
> <
' ,
Ġst r
f ig
l l
1 0
a il
ow n
E x
in k
i ew
tr ing
../ ../
Ġ |
---- ----
i el
ou nt
Ġw ill
Ġ .
s h
i an
o b
om e
p s
( \
t a
o ver
t e
Ġh is
ou nd
on d
r y
c he
re e
Ġcom p
et h
u al
Ġo ut
f er
iel d
Ġd ef
eg in
Ġf unction
ar k
ĠC h
Ġd o
or s
Ġn ame
Ġp r
** **
ir st
er v
Ġp ublic
== ==
ab el
er m
le s
b egin
ol l
r ay
ht ml
Ġb ut
âĢ Ŀ
Ġ* /
Ġ up
Ġ :
cl ud
e le
Ġin t
in al
Ġd is
c k
ol d
Ġh ref
e b
ĉĉ ĉ
er r
ter n
s ource
Ġon e
ĠĠĠĠĠĠĠĠ ĠĠĠĠĠĠĠĠĠĠĠ
Ġs et
ion s
is h
n e
m essage
Ġg et
od el
n ame
y st
p r
pe ct
( '
o ok
Ġe v
Ġm e
} ,
20 0
ĠĠĠĠĠĠĠĠ Ġ
ot h
r ight
ic t
Ġo b
_ {\
at es
er t
Ġ qu
) )
Ġ ro
tr ans
Ġv ar
Ġthe ir
Ġp art
o id
l ation
ro up
E R
Ġal so
P ro
le d
o int
o se
er y
th is
o ol
m er
t y
el y
) $
ing s
Ġ Y
i x
Ġs u
Ġw ere
r ap
Ġ #
en g
O N
a ke
c re
pe c
l ine
yst em
Ġ= >
t d
s um
w o
Ġm ore
i o
Ġs p
} {
ic s
r it
ke y
N ame
Ġt ype
at or
Ġ _
t he
im port
a x
Ġp re
1 8
T ype
Ġp er
I d
al se
1 2
le ct
Ġthe y
Ġv alue
I N
ar g
Ġm an
Ġit s
ap p
at ch
w e
Ġo ver
cri pt
c ol
ic k
Ġs o
S tring
Ġl ine
um ber
T h
ig h
loc k
et a
n g
p aram
Ġd ata
/ >
a w
fr ac
at ic
l abel
Ġt ime
is s
Ġn e
Ġa g
on t
e q
# #
u ct
at er
f ter
Ġw ork
he d
c ode
Ġc l
eth od
ang e
v e
ĠI t
re turn
trans lation
f o
am es
ov e
Ġwh o
Ġf irst
y s
ĠâĢ ľ
: //
" />
Ġa dd
u ild
Ġo ther
Ġd es
Ġin ter
p os
r m
if ic
ur re
m b
R E
o x
Ġw hen
Ġa d
ro und
d ef
oc k
Ġg o
le ft
Ġd e
Ġbe en
ay s
Ġs up
Ġs elf
i e
Ġc ol
o f
at ive
C om
ĠU n
on s
Ġ en
an c
Ġ id
R es
Ġh er
Ġt wo
Ġ el
ad d
Ġres ult
ar ch
Ġ i
an n
c lass
al s
Ġl i
1 6
a ult
Ġan y
S T
c ent
t t
Ġ end
m s
v ar
Ġ und
Ġab out
Ġh ad
ut e
ul ar
Ġ !
ĠH e
Ġcon st
L ist
Ġy ear
Ġcom m
t ype
math b
y n
u es
g r
$ .
ĠTh is
ation al
t on
ĠâĢ ĵ
Ġo ur
_ _
ou n
$ ,
Ġt e
Ġin to
c ite
ce ption
Ġs ub
ut ion
A T
id th
rap h
it le
Ġre qu
is e
Ġa cc
Ġth an
Ġon ly
C h
Ġs c
p on
at ing
ment s
t ain
i ed
20 2
} )
ht t
1 1
ers ion
Ġre g
c ess
am p
Ġth ere
Ġ= =
re ad
Ġb et
ad e
oll ow
as ed
, \
Ġc re
Ġof f
as h
em ber
am ple
Ġ `
urre nt
equ ation
i ous
Ġpl ay
im es
Ġn ull
Ġp os
Ġ| |
ou g
tr ib
1 5
ac he
am b
e ad
Ġn o
Ġp e
b ar
} .
Ġs ome
m in
s ub
v ent
Ġin clud
math cal
"> <
Ġa ct
Ġ use
Ġtr ans
v al
s c
Ġd if
il ity
O R
s on
ire ct
it ies
Ġin d
op le
ĠC om
Ġy our
I D
it s
Ġ >
pl ic
Ġwh ere
ol og
um ent
A r
Ġv oid
ug h
ĠĠĠĠĠĠĠĠ ĠĠĠĠĠ
iv ate
as k
) :
n er
res ent
Ġk n
Ġw ould
ĠP ro
ib le
Ġf alse
Ġfor m
Ġs a
em ent
n ing
ut h
id er
A R
Ġo p
w ork
or g
y le
u res
Ġf e
L E
} (
Ġre l
Ġin st
d er
ĠW e
ĠĠĠĠĠĠĠĠĠĠĠĠĠĠĠĠ ĠĠĠĠĠĠĠ
str ing
in ed
Ġv al
Ġd ec
Ġund er
w ard
t s
at ure
Ġb ack
Ġf ollow
T r
ĠA r
it em
Ġl oc
al ly
o y
ph a
b ack
Ġpro v
ag es
) );
d a
Ġtr ue
ow er
ic es
s elf
Ġthe n
b le
Ġs pec
Ġ --
u le
ction s
it ed
} ^
l og
Ġa fter
Ġp h
2 5
ption s
ser v
o le
b ject
Ġor g
Ġre c
Ġsu ch
er n
" );
p re
Ġc o
-------- --------
Ġre m
1 3
} _
Ġs he
eng th
Ġ err
1 4
Ġc ase
ĠN ew
h at
Ġt est
Ġm ay
Ġus ed
**** ****
e y
an k
âĢ ĵ
Ġs ec
E N
av a
f ile
is hed
t em
ev el
ro ugh
Ġg ener
n b
Ġsh ow
Ġ x
d ata
~ \
i er
al pha
l and
o ot
19 9
v iew
r r
or ld
we en
Ġthe m
per ty
ĠĠĠĠ ĠĠ
T o
t ing
in ce
Ġel se
// //
Ġ ent
Ġm odel
Ġd ist
c ed
Ġ )
Ġf l
ar get
od y
h o
enc es
1 7
erv ice
loc ation
b r
S S
iv ers
i ent
A L
le ment
ur ing
Ġf il
D ata
Ġcon s
V alue
Ġa c
Ġst ud
w w
a use
e e
p x
a ir
ser t
iz ed
f l
ep end
v alue
Ġch ar
ot e
el ta
Ġs im
Ġc or
C ol
Ġh igh
Ġf inal
in s
tern al
Ġli ke
nb sp
Ġ Q
f or
Ġthe se
Ġdif fer
Ġpro du
.. .
ist s
p ress
u ff
il y
Ġin v
amb da
ar s
in es
v el
b e
y p
re am
Ġpe ople
R ef
ĠC on
Ġbet ween
3 0
Ġn umber
ĠĠĠĠĠĠĠĠĠĠĠĠĠĠĠĠ ĠĠĠĠĠĠĠĠĠĠĠĠĠĠĠĠ
d ate
Ġp ol
an y
li ent
ro id
$ \
ĠT r
Ġm ost
ĠA n
==== ====
ĠA l
c o
" )
re d
y m
Ġ/ **
con t
Ġa m
) \
S et
n ew
Ġd et
p p
Ġg r
Ġs ystem
r u
Ġth rough
ĠS h
Ġh ow
Ġne ed
Ġstr ing
Ġe ff
Ġf ile
Ġst art
p i
mer ic
Ġsa id
] ;
Ġbe c
ad er
are nt
1 00
et s
Ġe ver
w h
oug h
ro l
et er
Ġp oint
Ex ception
pl ay
w n
Ġ& &
3 2
Ġg iv
Ġe ach
s cript
ap t
Ġl ist
Ġs ign
is ion
t est
Ġsh ould
ĠA s
ire d
E n
' )
re n
e ver
m an
m all
D E
Ġj ust
Ġas s
( $
ĠE x
ot s
um n
a z
Ġm y
r ic
a ction
he ck
g er
as on
m u
E rr
Ġst atic
re at
at us
Ġwh at
am ma
if y
ĠF or
c es
Ġe qu
n ot
C T
Ġ Z
Ġo per
r c
_ \
oc i
Ġe m
Ġm od
t ed
O bject
Ġ %
e k
iz ation
evel op
Ġw ell
form ation
Ġm ethod
cc ess
str uct
Ġm in
Ġ// /
= \
Ġap p
Ġus ing
Ġc al
iv er
le ction
ĠS tring
Ġf ield
f ace
le t
m ary
m od
Ġd r
ent ial
T est
s ize
oth er
a h
i k
Ġb r
f ul
S E
Ġs er
5 0
' ]
Ġpr ivate
Con t
re qu
I T
ord er
Ġex t
A N
B y
l ink
ro ll
m e
Ġl ong
Ġ ed
us s
Ġs ol
ig ma
W e
n av
Ġg roup
Ġ\ \
b y
ĠĠĠĠ Ċ
Ġst ate
se ction
() .
ch ool
if e
Ġ! =
A s
"> </
} ^{
Ġ key
w idth
g y
or n
f ore
eg a
j s
V iew
ar ray
} _{
mathb b
Ġob ject
ers on
U n
if ied
Ġag ain
Ġre p
enc y
Ġf ound
ce pt
en se
G et
l ang
ant s
u ch
2 4
C O
() );
ot t
Ġp aram
Ġcom ple
Ġh im
Ġr ight
Ġs ame
p art
Ġwh ile
I m
ĉĉĉĉ ĉ
al ign
are d
' t
Ġ X
p ublic
Ġn ow
M E
Ġc ould
Ġs ur
lo b
I nd
p ar
. _
ind ow
lo ad
Ġyear s
ou se
l er
Err or
" ;
ind ex
c le
at t
l ist
t op
ect or
Ġsup port
Ġr un
[ '
. </
ical ly
ut il
F or
d is
l ay
- \
p ace
re ak
f unction
^ {\
Ġ{ \
in ter
Ġc urrent
C lass
Ġe st
l p
00 0
cri ption
oc ument
ph i
ĠA meric
m ed
is m
A t
F ile
ur l
! --
Ġh and
re g
ĠI nd
qu ot
t ime
g o
h er
ĠS e
t il
l ambda
A n
Ġf r
Ġever y
Ġc all
Ġre sp
w ay
Ġm ake
t able
ĠI f
ag er
o h
in clud
Ġb oth
ra w
=" +
Ġap pro
âĢ ľ
d ay
htt p
=" ../../
a j
gr am
Ġdo es
tr y
ro ss
g round
Ġc ent
Ġbe fore
Ġbe ing
al e
r ite
Ġse e
Ġre ad
Ġ z
ri b
b f
19 8
as es
S h
Ġn on
Ġim port
Ġdiffer ent
Ġman y
ivers ity
r on
' );
Ġm on
\ \
K ey
ect ed
t en
ath er
Ġar g
Ġsec ond
ess ion
R equ
c d
ep s
6 4
f ield
] ,
Ġt itle
Ġm ed
Ġex pect
. âĢĿ
Ġd irect
qu e
ack age
Ġex per
Ġl ast
Ġ u
com m
Ġpart ic
ar n
id ent
2 2
us h
Ġ/ >
O n
o ad
olog y
Ġar t
i ence
ur ation
sum mary
Ġor der
() ,
Ġpro cess
b ers
ist er
it ial
] .
re m
Ġth ree
g roup
d ition
v oid
Ġf ind
se arch
et work
p ath
al ity
o od
al th
Th is
. ,
op y
Ġgiv en
Ġf act
Ġb el
Ġbec ause
or th
Ġb o
ĠR es
le ss
ro p
col or
Ġper form
ens ion
I ON
A C
3 3
Ġfollow ing
R O
Ġkn ow
T ime
Ġp ass
ain s
Ref er
ch n
U L
us er
Ġat t
Ġdis c
mathb f
Ġs ing
4 0
Ġev en
og le
Ġm at
Ġb l
an e
ĠA nd
Ġd evelop
uff er
Ġte am
ĠC ol
ar m
il on
it or
Ġg u
m d
ak ing
iss ion
Ġb uild
b eta
Ġd uring
' :
Ġm ade
con st
uth or
l ish
Ġs erv
htt ps
Ġf am
Ġt erm
over n
s igma
iv es
` `
ĠI s
Ġs ize
Ġcont in
at s
T ext
f in
ur al
T E
I nt
pon se
Ġre le
Ġw ay
Ġm em
Ġto p
ĠF r
Ġd id
/ *
ut ton
Ġ( \
Ġ ?
ĠS c
et ers
it al
Ġm ain
Ġeff ect
d t
Ġw rit
Ġv ery
6 0
b all
ust om
ou th
Ġ-- >
iv ed
Ġa ut
al k
E vent
Ġl ook
Ġc oun
ab ility
^{ -
L A
ain ing
i ev
ual ly
2 3
Ġin formation
port s
con fig
I C
Ġle ad
" :
Ġev ent
Requ est
N ode
Ġstr uct
ĠĠ Ċ
} {\
Ġl ink
w ord
Ã ©
Ġth row
ar ly
P E
A dd
Ġd own
Ġvar i
In fo
ild e
. "
m ap
b o
in ess
19 7
A l
ĠO n
ar ge
u c
m it
m p
iv ely
st ance
o pe
ate g
s y
n ess
trib ute
P ath
M an
a pe
Ġcont ent
ur s
f e
d es
el s
r al
I tem
Ġerr or
Ind ex
Ġt em
T R
m odel
w it
b lock
2 1
ef ore
Ġin cre
ur y
o ff
} ;
Ġcons ider
D ef
ĠR e
Ġh ere
se c
Ġo wn
lob al
Ġ );
Ġf in
v ir
ames pace
Ġrequ est
() )
v ious
Ġv is
Ġth ose
Ġm ark
Ġall ow
202 2
Ġw orld
l ength
## ##
n ext
un c
end s
/ **
ul ation
b ox
Ġhe lp
ole an
Ġp ar
W ith
plic ation
ĠP h
per t
Ġm ov
ĠĠĠĠĠĠĠĠĠĠĠĠĠĠĠĠ ĠĠĠĠĠĠĠĠĠĠĠ
Ġop en
id d
Con fig
F ield
R e
2 7
ĠD e
it er
Ġm ust
ĠC l
Ġloc al
um er
ĠY ou
Q u
St ate
Ġm et
Ġprov id
in a
ic on
s ide
g amma
ac es
ver t
r ide
Ġs mall
Ġresult s
P I
ar i
Ġt arget
os s
+ \
Ġh tt
ak es
ist ory
Ġle vel
Con text
M ap
Ġan al
n et
ĠUn iversity
Ġas sert
i or
ri x
u ck
ar row
O ver
er ing
Ġch ild
Ġar ray
Ġs ince
Ġle ft
* }
h ip
P aram
^ \
pt y
t itle
ap i
F orm
Ġc ar
' ;
Ar ray
Ġp at
math rm
d elta
ut es
2 8
Ġp op
p m
a it
fig ure
act er
Ġcomm un
r ho
our ces
Ġm ult
Ġs l
i um
Ġ( !
mb ol
Ġt ext
cal e
tr ue
Ġa v
U R
Ġw ant
Ġn ext
Ġl og
ific ation
" "
P h
Ġ} );
it ive
ĠP r
E qu
] {
Ġm uch
s k
ĠH ow
Ġpos s
he ad
b ody
Ġp resent
us ic
D es
Ġbe g
Ġinclud ing
m et
en u
us iness
Ġpro t
b s
en e
E lement
S ervice
in put
in ation
ign ed
r ation
com e
f rom
O r
Ġrec ord
Ġdef ault
ile d
ig inal
ĠâĢ Ķ
ail s
Ġus er
, âĢĿ
b ig
res p
) }
2 6
res ult
iv ing
orm al
Ġg ame
//// ////
Refer ences
ir c
="../../ ../../
pon ent
ag s
tr act
le q
ĠS he
ail able
u f
n ode
b l
ĠL e
N ot
ĠA d
Ġb ro
I t
Ġre f
Ġgo od
ĠM ar
u i
n o
Ġex ample
og raph
ta u
ĠAmeric an
the ta
om en
Ġ} ,
Ġp ath
Ġp ost
v ersion
l ished
Ġval ues
$ -
Ġc heck
Ġt yp
com p
p or
iv ity
Ġre ce
F r
Ġre al
n u
Ġagain st
Ġst ill
Ġc le
sp ace
******** ********
ww w
Ġ$ (
H e
err or
pert ies
l t
et urn
Ġpro ject
Ġt ake
g t
ĠO r
Ġap pe
ast er
Ġl im
Res ult
if t
Ġb lock
re t
oh n
et y
; &
ap ache
ma x
yn c
t imes
Ġv ersion
Ġd on
Ġex pl
w are
ir d
A D
2 9
Ġle t
Ġs rc
Ġid ent
Ġa round
p oint
S ize
du ct
Ġ ,
ĠW h
ob ject
pl ate
Ġe le
ev ice
ĠE ng
Ġf our
val id
oc us
Ġrep resent
Ġv iew
def ault
u ro
able d
t ab
> &
ou ble
Ġb reak
t n
U T
Ġp res
le y
od es
= '
cre ate
Ġpro gram
l a
o ber
pos ition
B uild
part ial
sh ip
IN G
u str
Ġcre ate
Ġtr y
s q
+ +
Ġex p
Ġst and
F F
I G
M essage
L O
Ġ/ *
Ġpos ition
ac y
ĠS ystem
un e
d own
che s
pl oy
ĠA ll
Ġbe st
Ġd el
Ġhe ad
it t
O f
} (\
ol v
E D
Ġb ased
[ ]
ic y
20 20
c ss
Ġre port
Ġc r
ĠA t
Ġm ax
cont ent
Ġd i
st ate
202 1
Ġp erson
a i
Ġre fer
a ut
A ll
Ġst yle
s w
ott om
Ġcon dition
Ġme as
ict ion
in fo
M A
ass ert
Ġj ava
ic le
iv al
s up
M L
I S
o in
ug g
Ġl ife
4 5
f il
ad i
ĠT o
qu ad
wh ere
Ġpro ble
t ings
lect ed
Ġp ower
Ġdes cri
en n
I s
Ġim p
b ase
ĠP l
Ġcal led
ĠJ an
re ate
lo at
ĠG r
Ġc ode
C ode
u x
ear ch
st art
ang le
ne ction
Ġm ap
8 0
press ion
om ega
m y
is ed
H and
b ed
Ġwith out
ĠB r
Ġd ep
Ġpl ace
ur ity
Ġin put
Ġt ri
Ġ et
at ors
o ption
eq ref
in c
at ures
in ition
at ely
ĠUn ited
r t
ide o
ĠM ay
Ġdist rib
Ġs chool
j ava
V al
Ġwith in
M P
C H
Ġb ook
w ith
on y
Ġ: =
us ing
re c
Ð °
ain ed
E T
Ġte chn
Ġch ang
nd er
Ġadd ition
se e
l ing
lic k
ater ial
end ed
Col or
9 9
u age
or ies
T D
Ġs om
}$ .
st yle
a f
av ing
ĠâĢ ĺ
}$ ,
en ame
anc es
201 6
um p
w ays
Ġth ink
ĠB l
ol ution
Ġob tain
Ġ= ==
ener gy
Ġd ay
he s
Ġsp ace
Ġb ase
Ġcon f
Ġc our
L oc
Ġad v
Ġwe ek
D elta
6 6
w eb
T able
che d
ut ions
l im
L og
overn ment
er o
Ġind ex
ft y
3 5
roll er
Ġl arge
vir on
ore d
ĠG et
Ġs k
a ff
A S
end er
eq n
ĠCom m
Ġkn own
ĠS p
Ġcon fig
M odel
Ġb ound
Ġcon text
âĢ ¦
u les
ur ther
Ġo ld
Ġc ap
t es
Ġl a
Ġsing le
Ġbe h
ord ing
an sp
s im
U p
Ġinst ance
ĠM an
O ut
p ackage
ĠB ut
and roid
in fty
F rom
ix ed
U ser
Ġ ke
t ilde
201 8
201 7
---------------- ----------------
Ġse ver
N ew
ĉĉĉĉ ĉĉ
ĠE n
ple ment
Ġit em
Ġan n
tern ational
Ġc are
ele ct
i que
ĠThe y
Ġ Ð
Ġn ode
| \
s l
A B
i od
Man ager
resp ond
Ġ} ;
ill ion
Ġcont rol
Ġd em
E S
=" ../
Ġorg an
0 1
ref er
Ġs ource
ele te
c it
con text
Ġ_ _
Ġadd ress
Com m
oc ial
m at
Ġo cc
op er
Ġis s
Ġser ies
Ġacc ess
A nd
Ġse ason
ĠC an
20 19
tain er
l ight
Ġch ange
k en
Ġm ass
c ast
Ġin itial
th s
Ġfam ily
ĠC ar
ĠC ent
Ġcol or
read y
S er
Ġcom put
201 5
Ġan other
def ine
P l
; </
ĠU S
Ġc ell
Ġsu ccess
che ck
re l
Ġint eg
Ġ enc
d oc
D O
str u
im ate
U N
\ ,
pro v
Ġl ater
Ġl aw
Ġo pt
Tr ans
n amespace
Ġo ptions
Ġav ailable
Ġres pect
âĢ Ķ
includ e
is on
and s
< !--
ĠT e
In ter
Ġinv est
=" #
c ount
u ary
ap er
ĠĠĠĠĠĠĠĠ ĠĠĠĠ
Ġto t
ord s
our n
ith ub
ug ht
EN T
5 5
) </
" .
I f
Ġh ome
Ġs ervice
Ġrequ ire
Ġt able
r ist
f alse
v en
ĠĠĠĠĠĠĠĠ ĠĠ
x i
Ġs um
ar ning
ĠI m
pro t
ys is
Ġback ground
Ġand roid
ain t
O T
Ġd epend
R ec
on se
Ġprodu ct
U S
ur ch
A d
Ġs ay
ĠJ ohn
ev ent
go ogle
======== ========
$ $
Ġn etwork
arg in
Pro perty
UL L
Ġf ull
pr int
aj or
Ġob serv
Ġinter est
im al
ĠB e
Ġresp onse
3 4
G roup
ut ure
r am
um ents
Ġa ction
ount y
D is
g ress
d b
m ethod
um e
C E
il ar
p en
tr a
P r
lo se
Ġm ag
am ed
h old
I L
um an
Ġd ue
at ter
u k
Ġfil m
Ð ¾
Ġ energy
Ġinclud e
c ore
id es
ore m
le x
g ithub
Ġe lement
9 0
l in
Ġs pe
201 4
ĠW orld
st and
Ġab ove
Ġex ist
Ġgener al
ward s
n ect
Ġstud y
R eg
Ġp o
ro du
Â ł
Ġe lect
Ġf oot
Ġplay ers
3 7
Ġn ear
e ction
ĠC O
D I
Ġle g
ĠN ov
ir t
T H
Ġr ange
b uild
Ġst d
Ġal ong
st atic
Ġb usiness
Ġass oci
Ġb as
viron ment
ul y
ar r
ef f
ure d
ith er
un g
Ġst at
ĠC o
Ġlink s
ou d
ĠN ational
] (
Ġpro perty
> (
Ġw idth
Ar g
ĠM ed
C lient
N A
Ġchar acter
Ġf ew
a im
if ier
cd ot
Ġ eng
Ġb ool
ĠP ol
Ġt urn
I P
ĠG u
an el
c urrent
se mb
end ing
c er
3 9
Ġsh ort
ann el
Ġ( )
ard s
Over ride
d e
Ġpre vious
Ġd ocument
im um
Ġc a
Ġun til
Ġor iginal
ĠN o
Ġw in
Ex ternal
b it
ert ain
fin ished
p ed
Ġb order
pos ed
Ġb u
ag ement
im age
ĠS et
Ġn il
n ull
Ġg row
Ġm essage
ib r
} [
ĠSt ates
ĠB y
d om
ma il
eb ug
c apt
Res ponse
Ð µ
il t
R ead
201 3
M od
C all
Ġ es
Ġm atch
re en
ĠĠĠĠĠĠĠĠĠĠĠĠĠĠĠĠ ĠĠĠĠĠĠĠĠĠĠĠĠĠĠĠ
Ġd at
yn am
S ystem
B ar
and om
3 6
ĠL ist
cent er
Ġre t
Build er
C ount
3 1
Ġcomp any
Ġp ub
Ġre du
Ġa ff
r ict
Ġare a
Ġim age
ic ial
ok en
M ethod
Ġdes ign
raph ics
b utton
ent ion
c all
Qu ery
o ice
ic ro
il li
Ġs it
Ġp ot
ĠC al
ib ility
Ġs m
Ġf ree
4 8
b um
n on
Ġd om
ĠHow ever
j av
Ġsup er
Ġtot al
Ġl ow
d l
7 5
d ir
eqn array
act ory
Ġas sum
Ġ( $
n ow
D ate
Ġp arent
ĠR eg
ĠM in
Ġsever al
Ġf a
ĠY ork
ic a
Ġm usic
ip le
pl ace
ag ue
li b
un finished
Ġc ur
ps i
' '
qu ery
Ġto o
c m
k s
Ġpartic ular
ĠJan uary
pec ial
)$ .
ĠD r
S ub
}} \
ĠA ss
Ġposs ible
in it
Ġdef ined
3 8
Ġre search
Ġimport ant
Ġcomp on
ĠO ct
Ġme an
cre en
c or
] )
Ġcl os
he ight
19 6
Ġv ol
ĠW est
ĠG e
in ary
St ream
Ġal ready
Ġhe alth
Ġs ide
Im age
O m
ĠTh ere
Ġdet erm
ĠS chool
ON T
Ġh old
ens ure
r un
201 2
eps ilon
Ġreg ion
ph p
ĠF ig
oug ht
Ġpro m
i ents
o pt
itt le
und le
ot o
al f
In put
i ans
le m
ĠSt ate
a u
Ġp age
g or
Ġpoint s
Ġl arg
d o
ĠS o
Ġcor respond
arg s
ut ed
Ġpol it
our s
at form
Ġl ang
im ent
0 5
Ġle ss
g ed
o ptions
Ġl ight
Ġp ut
Ġh app
Ġs at
m ber
i j
Ġ čĊ
ne y
} _{\
201 1
ĉ Ċ
Ġc ount
ag ed
stru ction
Ġgo ing
ĠA ug
u ed
ĠĠĠĠĠĠĠĠĠĠĠĠĠĠĠĠ Ġ
c ul
N o
st it
Ġ< <
U til
ĠP ar
F l
G ener
cl us
capt ion
y les
Ġqu est
Ġg reat
P os
Ġc rit
Ġre st
ra ft
able s
h and
Ġout put
om et
al es
ĠA b
is ing
Ġest ab
) {
^ *
C l
Ġt imes
4 4
Ġf ore
he ther
b tn
b ook
ĠA p
ĠS up
E nd
add ing
sq rt
ist ic
requ est
ig ation
B e
ĠS er
id ual
c lient
Res ource
Ġro le
act ive
Ġexpect ed
on es
A P
con om
che ma
Ġbet ter
ab ly
201 0
ac ed
f unc
p age
Om ega
he ader
ri or
am ent
d f
Ġ ide
Ġex ec
Ġval id
ap s
Ġrequ ired
E d
N av
uro pe
Ġcom b
om an
p ose
wit ch
Ð ¸
Ġpro f
Ġin s
ĠC ounty
A pp
N S
im ation
ĠS outh
Ġpro b
Ġal ways
à ¤
ateg ory
epend ent
Ġstr ong
W h
ser ver
Ġe as
gor ith
Ġl ength
ay out
In stance
Ġsim ilar
Ġproble m
( (
z e
ustr al
St atus
Ġmem bers
re ct
ud e
th ing
B lock
Ġacc ount
ĠS ec
Ġb ig
Ġm ight
ps ilon
t x
l s
pt ember
Ġ" ""
Ġre cent
x y
Ġ$ {\
Ġc ustom
g es
E L
O S
Ġe arly
ust er
ĠA pr
or age
ĠM arch
7 0
u ation
Ġdisc uss
ĠR ep
Ġmodel s
ame work
Ġd iv
P ar
Ġd en
ĠĠĠĠĠĠĠĠ Ċ
ĠW ith
19 5
( {
d at
b old
Ġm ajor
Ġp ort
A p
nav bar
w id
v ers
Ġ- >
Ġse ction
ch o
Ġp ay
al t
us ed
Ġre ally
, "
ĠA dd
Ġ â
ĠC ity
Ġg overnment
[ "
im ension
G amma
ĠW ar
c y
Ġs ong
d ec
Ġsign ific
sy mbol
m ark
op s
h as
Ġper iod
S c
ch i
ĠC ont
ad a
Ġprov ide
erm an
Ġle ast
Com ponent
Ġs ays
00 00
Ġn um
Ġc over
S tr
oc ol
Ġne ver
Ġde ath
O ff
ĠĠĠĠĠĠĠĠ ĠĠĠĠĊ
ight s
o ke
er a
se qu
F il
th ers
d ict
ce mber
Ġhtt p
ic ense
v es
Ġchild ren
im ary
Ġspec ial
i ke
Ġs y
Ġa uthor
E E
ĠB o
c ell
Ġbo olean
n own
fo ot
t arget
Y PE
)$ ,
Ġw omen
app end
Ġtr ack
ĠP art
Ġpot ential
A ction
Ġshow s
Ġs ample
p arent
S ource
ab ase
O P
ĠQ u
li ed
a e
^{ (
L ine
Ġl ate
A ct
RE F
sub section
if f
ĠR ec
F A
ens ity
Ġc ost
ĠN ULL
S P
eth ing
Ġh ard
A G
Ġsh own
B ase
Ġterm s
in o
Ġparam eters
Ġh ost
ĠF l
ac hed
Ġl abel
b ottom
v are
C C
um b
le ge
ar ing
Ġdis play
Ñ Ĥ
e ed
st er
Ġind ic
ĠI nt
Ġg l
H ead
E X
re w
x ml
li es
Ġac ross
ĠĠĠĠĠĠĠĠ ĠĠĠĠĠĠ
Ġw on
ĠM e
Ġan t
ep ar
p ly
Ġc ity
ur g
Ġin du
il it
Ġb ody
ial og
202 3
M S
d r
row ser
Ġr a
n s
ĠG o
T oken
) (
ĠE urope
ac ing
ug in
ĠJ une
an a
er efore
Ġw ater
Ġm om
} =
Ġal bum
an ch
}^ {\
ĠB rit
Ġev ents
Ġd er
ĠW hen
Ġm ar
Ġl and
Ġab s
ĠE d
ĠD is
ĠOct ober
Com p
Ġre d
vare psilon
Ġh istory
4 9
B uffer
U s
n a
Ġ+ =
ab or
ĠSe ptember
row s
Ġf ocus
Ġe ither
ĠAug ust
Ġ q
ak en
Ġf urther
pro perty
ist or
S elect
ĠC or
D ec
ĠT est
il le
L ink
id ence
Ġc oll
Ġqu ant
Ġs pect
ĠCh rist
s mall
Ġf und
g en
Ġparam eter
se lect
P oint
ĠM c
O ptions
iz er
Ġlim it
ĠJ uly
art ment
Ġt ask
4 7
ĠD es
ĠG ener
ĠApr il
AT E
et ing
id s
ugg est
av es
ĠN ot
s i
m eta
m ult
s rc
Hand ler
Def ault
ĠF eb
Ġg lobal
p ost
Ġ\ ,
Ġse em
p ng
0 8
dis play
Ġd est
~ ~
ad ata
ĠN orth
Ġ Â
trib utes
ĠThe se
r angle
Ġf ri
Cont ent
Ġe p
og n
0 2
Ġc lose
Ġme ans
ch ild
j son
fl ow
Ġperform ance
St art
g ener
I I
mod ule
) =
Ġint rodu
Ġfe ature
er ed
Ġst ory
Ġf ar
B ig
S p
f irst
Ġcom e
Ġbec ame
h am
ĠNov ember
Ð ½
Ġsignific ant
Ġpr act
ĠDe cember
Ġfoot ball
200 9
Ġs ite
g ing
y l
N ull
as cript
Ġd ays
eg er
Ġse qu
Ġcommun ity
in st
ĠA ct
el ine
o op
ir m
Ġph ys
H T
ĠA ustral
Ġin div
c ase
0 4
text bf
Ġke ep
im g
ad io
S ec
op en
200 8
Ġam ong
f ind
right arrow
Ġcomm on
olog ical
Ġs ocial
ĠI N
ent ly
LA SS
* /
Ã ¡
or ph
r ing
r id
ot ion
Ġcoun try
ele ment
l ast
le ase
c ap
str ong
Ġof fer
Ġd eg
ag ing
Ġa ver
ud io
At tribute
ĠO bject
i i
Ġstruct ure
Ġl oad
as ing
T ask
C K
ic ient
un k
Ġmed ia
Ġf uture
ansp ort
0 7
n ers
g le
Ġb ir
O per
H E
V ER
em ph
irt ual
ĠC lass
Ġfor mer
b m
Ġd one
Ġto get
pr ivate
Ġc he
Ġli k
fr ak
Ġtoget her
Ġim plement
r l
Ġab le
Ġof ten
ri ed
Ġw hether
am a
is f
Ġhe ight
Comm and
p ack
S up
h ost
lay out
ch ar
$ {
st atus
P art
re st
Ġbe come
y d
Ġcol umn
Ġse arch
Ġres ource
Ġv ia
Ġpr int
av el
F I
V ersion
th ough
ĠR ev
Ġfe atures
m m
0 6
m ost
F actory
Ġcre ated
ot ype
cl ose
U E
op h
d et
H ow
Equ al
v ec
Ġdevelop ment
s g
v is
ĠN one
Ġpl an
ft ware
Ġd ev
ĠO ff
Ġj ob
Ġanal ysis
O L
Ġg ive
Ġt re
ri es
Ġr ate
ru ary
4 6
Ġre view
w rite
O D
idd le
ourn al
ent ry
Ġbel ow
Ġc ou
ĠD ef
ĠO ne
Ġhtt ps
re ed
H el
ire ction
// /
id ed
var i
p tr
R un
Ġm illion
one y
F ONT
Ġm argin
ĠD o
Ġsom ething
0 9
" ]
} );
Ġth ird
Ġg ames
Ġindiv idual
Ġw indow
iev e
Ġfollow s
Ġst ates
w ise
Tr ue
i ol
Ġmeas ure
L et
Ġm aking
eg raphics
Ġcomm and
includ egraphics
Ġ` `
al y
Ġf ive
ĠCom p
Ġprovid ed
P re
ĠTh at
Ġc lient
C heck
Ġa ir
Ġh uman
Ġd eb
Ġm ove
Ġmethod s
s m
ac c
N umber
Ġcomple x
he et
ĉĉĉĉ ĉĉĉĉ
ult ure
am s
des cription
b ased
Ġrel ations
Pro v
if act
Ġprot ected
m ain
rit er
st d
Ġv ert
Ġwork ing
c od
F unction
ad em
ĠR eturn
T O
is k
ĠP er
Ñ Ģ
Ġl ittle
iv en
Ġm ember
olv ed
var phi
Ġdif f
m ar
R A
st ream
em ents
Ġh aving
Ġse en
Ġc ases
ay er
ĠA fter
Ġto ok
p c
Ġassoci ated
ch ange
Ġrele ased
al let
p ush
F irst
d raw
S C
med i
Ġg ot
le vel
so le
li p
Ġcomp et
Ġb en
i res
app ing
Ġo ption
R eturn
jav ascript
Ġth ings
W indow
Ġp ast
Ġc amp
ill s
Ġn ec
ry pt
il ities
re et
f ont
P age
Ġcont ain
pro ject
Ġem ploy
S ON
ex p
} ).
Ġar r
A b
er al
L abel
Ġ< !--
Ġd ate
Ġv ideo
ic ation
idd en
amp ion
[ \
Ġl ower
ge q
p y
ist ry
Ġdistrib ution
200 7
pro of
Ġcle ar
over line
0 3
Ġcon trib
L ast
Ġele ments
math frak
Ġas k
Ġn ormal
gorith m
ap ter
4 2
C reate
form at
Ġcl aim
Ġfunction s
Ġs che
Ġann oun
Ġst atus
pect ed
. ~\
Ġup date
Ġd ouble
Ġa way
it ory
s u
Ġthrow s
Ġhigh er
Ġstud ents
Ġbeg in
Ġf ac
ur b
Ġed uc
Ġsystem s
Ġserv ices
st yles
os p
v ision
Ġv er
a ul
it es
u id
Ġon ce
ther n
ad es
ograph y
pl it
Ġpro perties
Ġspec ific
Y ou
w ide
Ġc ross
Ġcon c
r s
ĠU p
ibr ary
. }
m on
ens or
loc al
ĠThe n
ĠB ar
semb ly
m enu
ou ch
9 5
B utton
l ong
Ġrece ived
un ch
ĠA g
Ġw rite
he l
a ctions
ĠP res
Ġs epar
at al
Ġyou ng
ob j
Ġs uggest
6 5
fer ence
Ġ{ @
ĠR uss
Ġs ix
p ol
ĠM on
Ġph ot
ym met
m em
Ġc atch
200 6
B ox
Ġs ent
s f
i ef
cle ar
20 00
ĠS ch
Ġa ge
iz ing
P RO
ly ing
P ol
y ear
Ġplay ed
Ġst ep
Ġ ]
: </
con tainer
ĠA fr
ĠAr t
Cont roller
W hat
m ember
Ġfe el
Ġext ends
ch an
8 8
is es
Ġh ouse
Ġg raph
Ġn eg
o o
Ġb it
U I
ag n
D et
ĠFeb ruary
A ss
Ġappro ach
R ow
Ġp ress
ĠH igh
Ġc y
ĠV al
G L
Ġm er
e h
Ġsu ff
ĠM ark
B undle
Ġb i
Ġdescri bed
Ġadd ed
& \
Ġg en
at ural
//////// ////////
ord in
L ambda
str act
yp es
Ġchang es
Ġ url
Ġexper ience
Ġcondition s
Ġl ot
s igned
S ee
Ġp aper
Ġvar ious
ĠS tr
Ġaut o
W eb
Ġm iss
ĠC oun
in stance
Ġinclud ed
h a
Ġen ough
un ity
bo ard
}, \
bold symbol
l en
ce ed
Ġatt ack
Ġk ind
ap an
ock et
A cc
Ġc opy
ac ity
ig ger
Ġen vironment
ell ing
List ener
m t
D B
ition al
) ^
Ġcon struct
Ġm aterial
con d
o on
R ep
ĠM y
Ġstand ard
ĠĠĠĠĠĠĠĠĠĠĠĠĠĠĠĠ ĠĠĠĠĠĠĠĠĠĠĠĠĠĠĠĠĠĠĠ
Ġar ch
ĠD ep
n umber
serv ice
ĠNew s
Ġst op
c il
ĠCh ar
fil ter
tt p
h ib
Ġact iv
Equ als
ĠP ark
at tr
Ġsim ple
Ġt reat
N O
Ġc ertain
Ġl ove
6 7
Ġb and
Ġsol ution
param s
up date
ĠK ing
Ġp erm
Ġbuild ing
ĠD av
Ġtr ad
T ER
ug e
Ġth ough
T S
Ġn av
or iz
Ex t
Ġp air
Ġin ternal
Ġsat isf
ĠL et
ĠM ore
Ġm en
Ġoff icial
`` `
end if
ition s
" ).
. \
ĠL a
Ġre ason
M et
} ),
ob ile
c an
Form at
Ġform at
< ?
B ack
Ġs w
M M
ĠH is
Ġst ream
i et
Ġstart ed
ty p
( &
Ġe ar
Ġe conom
adi us
p ass
P C
to ol
b uf
Ġn one
Ġto ol
AB LE
ĠH REF
Ġc ame
sh ow
ĠA m
Ġconst ant
Ġs ure
Ġg e
ĠC LASS
Ġgroup s
g l
Ġwe bs
Ġunder stand
enc ies
Ġap plication
Ġ ...
ro y
ĠD ist
Ġwork s
Ġh alf
Ġf ont
Ġtr aining
Ġt w
ig in
Ch ild
Ġbl ack
Ġal ign
ab s
Ġm akes
E m
Ñ ģ
oc r
refer ence
d ev
Ġcontin ue
nt ity
w rap
res ponse
Ġmat rix
Ġaver age
L I
Ġwrit ten
Ġfield s
ĠH ouse
k nown
Ġo thers
p o
Ġhow ever
Ġam ount
ref ix
ann ot
Ġinst ead
ev en
C ell
pro p
col umn
Ġhe ld
l it
b or
Ġn ational
Ġappro x
pro cess
O b
ov ed
sk ip
Ġin it
Ġ( (
Ġmult iple
N D
Val id
L ayout
Ġlang uage
un it
B U
n um
ver se
Ġconsider ed
ar ies
O ne
ond on
Ġy et
Ġev al
A M
Th ere
Ġmark et
ak er
Ġacc ording
ing ton
Ġappe ar
ens ions
Ġcal cul
Ġprodu ction
="../../../../ ../
Ġbeh av
Ġr andom
ĠO F
Ġs cale
Ch ar
St yle
Ġcons ist
Ġl oss
ĠIn ter
ef ined
ĠB ro
P er
rem ove
Ġdoes n
Ġbu ilt
p ing
Ġch o
ĠS im
Ġcan not
Ġplay er
Col umn
Ġmom ent
Ġcour se
Ġtyp es
}} $
Ġwh y
Ġrele ase
UR L
Ð¾ Ð
Ġl ive
on al
Ġs cal
ĠTr ans
ic les
Ġl ines
plic it
av en
li er
ound s
Ġf ail
M ode
T em
] [
Ġvis it
q l
200 5
ang ed
Ġp ur
k it
Ġtem per
h line
lang le
Ġn amed
N ext
Ġcare er
ld ots
Ġe mb
Ġse lect
Ġac cept
Ġser ver
Add ress
Ġinst all
A A
ĉ ĠĠĠ
R I
t ag
n ab
oot str
Ġin fl
ex ample
al le
Out put
A ut
Ġmod ule
Ġt aken
Ġex press
ĠA cc
Ġpop ulation
CO L
ĠR ed
Ġspec ified
ĠI D
Ġpub lished
ist ics
b a
ã ģ
Ġaddition al
ĠEng lish
Ġinter face
ot imes
ren ch
ĠA ir
ĠH ar
ĠP e
ĠA PI
row n
Ġt alk
#### ####
Ġcont ains
7 7
Ġsub ject
es e
util s
Ph i
il er
am l
Ġgr ad
Ġrel ated
am ily
Ã ³
C ON
Ġobtain ed
4 3
ĠBrit ish
at ory
Ġun it
min ist
Ġw ar
s d
Ġa ch
} /
) ]
an ies
Ġm ode
Ġthe ory
ul a
' ).
Ġs em
> >
CO DE
T P
Ġcent er
L ength
app a
Ġnec ess
ĠD ata
Ġf requ
ĠW hat
off set
Ġto wn
li ke
ootstr ap
Ġth ought
f inal
f a
mb ox
Ġpos itive
ĠE ast
s pec
res h
Ġto day
Ġh om
anc ed
Ġch all
" ),
Ġreport ed
S I
att le
ĠH T
d epend
Ġle arn
d ot
V ID
_ .
pro to
4 1
Ġfl ow
Ġresp ons
s cale
ĠA c
Ġfile s
du c
Ġcomm it
ol ve
iz es
Ġf all
el se
Ġnew s
sup port
ĠS w
c el
f ord
Ġap plic
Fil ter
Ġeng ine
Ġb ar
on ly
i ber
R em
Ġw ords
B C
and id
8 5
Ġd ig
Ġcompon ent
c i
o z
Ġg round
b in
' re
gr ad
W hen
Ġpartic ip
str y
Ġtrans form
in ner
F ig
Ġcomp os
cit ep
C ache
ĠE l
tem pt
ĠIn ternational
Ġt ele
Ġact ive
Ġc ut
Ġoper ation
art ifact
Ġcomple te
Ġdet ails
M in
i qu
le g
ot a
w indow
av or
=" -
Ġb ox
Ġbeg an
9 7
Ġc irc
200 4
AT ION
A fter
U rl
Ġloc ation
Up date
Ġro und
oci ety
Ġaut om
ĠInd ia
ĠLe ague
out put
l ate
Ġw ent
Ã Ń
++ )
Ġd ensity
ĠG roup
Ġf ig
led ge
Ġent ire
ĠJ apan
Ser ver
Ġbe com
ĠAr ray
ĠM ich
ile s
Ġim prov
ĠH er
Ġneed s
ĠI I
Ġp rior
ast ic
Ġreturn ed
ĠR em
Ġ row
non umber
ER T
a id
sub set
Ġ* *
d ated
b orn
so ft
ĠL ondon
S pec
Ġ! ==
5 00
Ġd ynam
Ġquest ion
ip s
Ġimp act
Ġv ector
Off set
ĠE m
ĠS an
T op
ĠA pp
r is
ĠAmeric a
u el
Ġf it
Ġph ase
ĠT ype
sc ope
d ist
ho od
Ġcorrespond ing
ul ly
Ġ Ã
} )$
tr ies
ic ult
Ġn umer
M em
O pen
requ ire
Ġqu ery
om s
Ġon line
od ing
Ġsuccess ful
V E
Ġob j
T YPE
Ġmon ths
M ax
ĠR ef
ic ip
o res
V is
ĠF rom
( _
ĠW illi
Ġun ique
ot al
em pty
ex ec
old er
ĠA rm
**************** ****************
Ġr ather
. )
Fr ame
D r
Ġ[ ]
Ġ ill
ĉĉĉĉ ĉĉĉ
ing le
Ġloc ated
Ġest im
Ġrefer ence
Ġpol icy
W idth
\ !
9 6
Ġmon th
if orn
Ġoper ator
ĠW eb
a ur
T ag
Ġn ov
k appa
vent ion
ic o
text it
ell ow
d ep
Prov ider
nab la
Ġcol lection
{ {
a ign
Ġarg s
Ġrespect ively
ĠU s
prot otype
NA ME
il i
ĠCol lege
a el
Ġdef inition
it ect
ess ages
ampion ship
Ġst ar
ens ive
Ġro ot
Ġreg ular
Ġfil ter
d ocument
Ġcall back
wh ich
. /
ĠF irst
Ġl iter
n ected
Ġwebs ite
Ġsol id
c os
Ġal most
cont rol
ĠSt ud
ache s
Ġreturn s
Ġn ight
Ġcl ub
en ed
P S
Ġneed ed
b ind
c r
ot es
T I
ĠS m
Ġat tempt
T arget
Ġse lected
ilit ary
S igma
% ;
ensure math
Ġre pl
b ra
Ġde al
ate gy
Ġex act
% %
P O
ar a
E ntity
at ives
ic an
Ġdef ine
wit ter
ĠL icense
ĠC our
a ught
iforn ia
Ġcontin u
und er
Ġf ood
\ %
ĠCent er
L evel
C o
Ġinclud es
Ġind ependent
Ġpat ients
\ |
un t
Ġprovid es
Ġdid n
9 8
ict ure
ele g
ul ations
ER R
file s
c s
b reak
5 7
fr ame
Ġv irtual
ve y
ĠD em
Cont rol
m ore
S U
ĠP at
Ġcon nection
at rix
Ġfr ont
artifact Id
C D
Ġpl atform
ã ĥ
A meric
. $
T ypes
ĠS k
Ġrun ning
ĠPh il
ĠHe alth
Ġact ually
st ant
H O
c irc
ĠN e
ĠE X
K E
ri ef
ma z
Ġex ists
a uthor
Ġz ero
| -
Ġestab lished
class es
av y
n es
j ust
Ġent ry
oci ation
ag ram
Ġcom es
le ctions
t ree
Ġfil ms
in n
Ġt im
pecial ly
Ġincre ase
ĠW ork
Ġper cent
pr ime
c ing
ĠO ut
ub e
Ġeffect s
G e
mod al
I O
Ġt aking
model s
sp lit
D e
] );
Th at
Ġin f
tem plate
par se
Ġpro p
Ġcurrent ly
Ġth ing
Ġ ir
Ġline ar
M ed
Ġcor rect
ĠL og
Ġrem ove
() ->
lo od
anc ial
T ree
L oad
Ġf ace
it ude
Util s
ĠD i
Ġp ack
return s
m ing
lay er
Ġin ternational
Ġpre dict
Ġd evice
Ġsur face
act ers
A g
Ġrec ogn
6 8
A ccess
Ġcomp anies
Ġu int
Ġt ell
qu are
val ues
S earch
Ġspec ies
Ġr at
Ġprof ession
group Id
om b
="../../../../ ../../
' ),
Ġf loat
ĠBl ack
Ġst ation
S im
Ġright s
Ġt akes
un n
Ġp ers
he nt
ef t
Ġex pression
en ing
Ġlik ely
.. ..
us es
styles heet
200 3
Ġpro of
n ap
ad ow
Ġth us
P e
C ase
ĠS ub
Ġoff set
5 8
Ġindu stry
Ġc apt
Ġwh ose
Ġset s
Ġcon tr
Ġle arning
Ġrelations hip
f loat
Pos ition
r ics
Ġben ef
ach ine
B o
ĠPres ident
S O
Ġv ill
200 1
Ġm ot
En try
t ml
Ġb uffer
Ġp ain
Ġiss ues
et ch
st ack
b ool
k a
ĠP re
ach ing
d ots
ro ot
Ġit er
ig en
ĠM od
i os
Ġwh ite
; \
IG N
P o
ang er
Ġfact or
m atch
( [
ark s
C P
n ov
Ġle d
h an
cript or
Ġwe ight
ĠL aw
oper ator
P ost
Ġus ers
ĠF ile
Ġim m
Ġv iol
Ġcon sum
p atch
Ġobject s
Ġcon str
lic e
i as
Ġsequ ence
comm and
F e
ĠD ec
Ġt ag
Config uration
Ġop port
al ax
sh ould
Ġd raw
ĠS ee
iss ions
Ġd oc
D o
Ġare as
Ġwho le
z z
S cript
C A
Ġlead ing
S D
or ge
Ġm oney
Ġits elf
d en
ex pected
ĠCal ifornia
Ġanal y
th on
i ers
r an
back ground
comm on
w ait
u int
as c
W ork
t ask
n ormal
Un it
ain ts
y es
Ġcre d
Ġequ ation
ul ated
ĠG L
Ġiss ue
t im
Ġpre c
ont al
M O
con f
Ġpolit ical
\ [
Ġl en
c ial
u ate
ank s
doc s
Ġperson al
Ġmat ter
Ġpro te
Ġinfl u
g n
Ġcon v
Ġcon ver
stit ute
Ġn atural
y a
b uffer
ct x
Ġgener ated
Ġp ick
ĠReturn s
or ing
ug ins
: "
ĠT V
Ġpop ular
Z E
ar ter
b order
d i
Ġ ~
Pro cess
im ages
s ign
C L
b ootstrap
ĠRep ublic
iv il
el t
Ġf ight
Ġobserv ed
a a
ag ment
S o
b on
Head er
AC K
Ġs creen
wid et
id ge
R L
Ġreg ard
H ttp
Ġfor ward
He ight
el ves
Ġannoun ced
Con tainer
Ġdec l
ĠS ince
Ġsh are
ot ed
Ġdist ance
Ġequ al
o ch
Ex ec
Ġh it
B ut
Loc ation
( -
d rop
5 6
Ġmult i
Ġso ftware
Ġn ames
s in
ĠInd ian
str ict
Ġfor ce
Ġst re
Ġt ax
Ġcomp ar
Ġme chan
Ġpat tern
i ences
= {
c ache
} -
Inter face
Ġcont act
o om
C opy
at ur
Ġse lection
DI R
Ġfil ename
Ġeff ort
Ġp adding
Param eter
J son
o e
Ġro t
p g
Ġex ception
m ission
Ġbr ing
Ġset ting
Ġtechn ology
l or
om ic
R el
ĉ Ġ
}} {
F T
Ġr isk
ĠS en
R ange
COL OR
Ġwrit ing
ã Ĥ
Ġbro ad
j ection
ĠF rench
b efore
ĠU K
to ken
Ġexper iment
Ġto ld
Ġf ixed
ĉĉ Ċ
ĠN or
Ġro ad
V ert
Ġw alk
in ing
Ġcomp ared
widet ilde
Ġcon duct
Ġlarg er
B A
l n
ir cle
Ġrel ative
> ,
oriz ontal
ĠD irect
Ġdes cription
ĠSe ction
Ġw ait
Ġin c
Ġnot e
ĠRes earch
Ġw atch
Ġus es
if orm
" ))
ĠAustral ia
ĠĠĠĠĠĠĠĠĠĠĠĠĠĠĠĠ ĠĠĠĠĠ
Ġt ree
/ \
Ġcon tract
A PI
Ġbeh ind
H ash
ct or
Ġdirect ly
ĠR ead
Ġsec urity
f s
E CT
o oth
ed d
Ġst age
C urrent
ĠCh ina
Ġproduct s
Ġman agement
Th read
ut able
d evice
ain e
B l
Ġart icle
land s
Param s
i ation
Pro ject
p df
Ġstud ies
p at
Americ an
Ġf ire
Ġs on
Ġsupport ed
{ -
N one
S chema
ĠN S
res ource
ent ity
F O
D irect
in ated
Ġallow ed
Ġim ages
Ġqu ick
Des cription
5 9
ar io
f ill
ĠJ ust
Ġat tribute
Ġ{ }
k ind
& &
UL T
Ġb ad
200 2
ri a
he t
Ã ¼
ĠDist rict
Ġlook ing
Em pty
Ġ ::
cent ury
Ġs ens
ber g
Ġh istor
r um
m id
Ġout side
Ġgiv es
pon ents
Ġ ;
it ing
Ġst ore
th m
Ġpart y
Ġallow s
ĠEng land
Ġdiff icult
Ġg re
ĠDep artment
ma ke
Ġm id
ĠA nt
7 8
W rite
pl ing
ĠN A
t og
S y
Ġw or
$ (
Ġ* )
Ġl ost
U M
ver y
Ġs ound
Ġw ord
ĠO pen
ĠT ime
Ġcent ury
G r
ut or
Ġhand le
use um
Ġfr ame
ter m
ĠGo ogle
Ġh y
t hen
ĠC reate
ĠR E
b and
Ġal gorithm
M y
ĠGener al
Ġs end
urre n
Ġes pecially
Ġinteg r
Ġpro posed
Ġ& =
g u
b b
an ish
Ġex cept
Ch ange
d s
am era
Ġem pty
ĠB ook
Ġ" \
Ġgo al
Ġcom ment
Ġmem ory
y ing
Ġqu ality
over y
as ons
erv ices
d ebug
ĠS ome
ĠP ort
Ġclos ed
Ġup on
Ġconfig uration
Ġqu e
Ġs ort
wo od
Ġdo ing
omet ry
Ġh ours
Ġprodu ced
id ay
ĠT O
ru pt
ĠH am
ĠF il
on str
Ġdevelop ed
U P
enc ed
e al
Set tings
Ġg as
Ġsh all
R ight
a uth
ut ive
Ġlevel s
ĠC he
p ite
Mod ule
ann ing
Call back
ail y
ĠB er
Ġx ml
ĠS ervice
ĠDav id
ĠO b
Ġf em
c a
Ġbir ths
Ġmax imum
Ġdist rict
as et
Ġwe b
Ð° Ð
Ġcomple t
S A
" ));
Q L
ĠH ol
g reg
Ġb orn
Ġpart s
u a
ĠM al
Ġre ve
ĠC up
ĠCan ada
ĠO ur
Rec ord
AR T
Ġc andid
al led
Ġchar acters
Ġs ense
Ġfri end
Ġreg ister
Ġpro gress
clus ion
ĠM et
ang es
C an
Ġcon nect
e es
Ġ ess
Ġtemper ature
Ġtrans ition
ĠS T
Ġeffect ive
Ġd irection
: (
Ġl o
5 1
Ġch annel
z eta
it ch
h ing
E ng
Ġne igh
ms g
f ect
ol ic
s cri
il led
we ight
Ġlong er
Ġfa iled
te e
Ġst ri
ĠEurope an
tain s
cent ering
h ash
im ately
ĠD E
O p
V AL
Ġed ge
Loc al
, -
th at
b urg
Ġin side
ad o
Ġde ep
a res
ar ily
} ]
ĠD ay
Ġv ers
inc ip
for ce
D at
ĠE q
ĠB uild
ST R
Ġapp ly
Ġhe art
Ġeduc ation
D ocument
equ iv
Ġh ot
v ant
icro soft
ag o
Ġperform ed
ĠCoun cil
ed eral
B O
Ġacc ur
S H
Ġserv ed
Ġnum bers
id a
w in
O ption
en v
Ġag o
ĠS um
ĠP aul
at ively
Ġequ ival
ple te
3 00
P ort
\ {
Ġs ession
s ystem
Ġh on
Ġdeg ree
p op
net ic
ĠSt reet
Ġ> =
foot er
In st
ra z
Ġb all
} +
G o
Ġs us
n ote
Ġlead ers
Ġproble ms
ĠC r
ĠB G
s v
Ġim medi
M e
Ġpr imary
s ite
ĠCO VID
& #
Ġarg ument
id get
oun ter
Ġs old
Ġm ind
C R
osp ital
Con nection
IN T
Ġep is
on ic
D D
Ġget ting
m es
et ime
Ġgrow th
I R
a o
Ġoper ations
Ġdiffer ence
h i
4 00
Ġs eg
\ ]
trans form
Ġparam s
ĠP ublic
Ġs witch
As ync
c ard
ify ing
urs or
Ġpass ed
Ġsc ope
se cond
F ont
Ġs ex
ro te
D ir
e in
ri ate
Ġcou ple
Ġn u
oc al
b ound
Ġin fo
P A
Int eger
Ġa void
j oin
Ġtem plate
Ġdis e
S ession
st ep
Ġro om
Ġsa f
Ġtrans fer
z er
Ġspe ed
ge bra
ind ing
Nav Bar
M on
ir it
ĠG erman
Ġe mer
r d
clud e
ĠC heck
Ġf ather
ash ington
ĠM or
Ġarg uments
Ġ ign
ix t
y e
Ġwork ed
5 2
ĠWh ile
Ġcompon ents
199 9
M enu
8 6
Ġfin ite
ous ly
Ġinvest ig
c at
ĠC ap
ic ons
ĠN ow
Ġr ule
=" /
ĠSer ies
Ġvari able
Ser ial
Ġst aff
ĠO f
Ġan sw
ar p
D own
ĠP ost
Ġide a
D F
Ġe mail
imension al
j o
Ġa ward
() :
ĠF ound
Ġover ride
Ġmov ed
ap se
Ġexist ing
web kit
Ġitem s
block List
ĠD iv
Ġnecess ary
-- -
s end
re a
Ġdem onstr
c opy
tab ular
s a
en a
ĠJ ames
k r
5 4
ou l
100 0
r ule
Ġact ual
ĠN ote
Ġphys ical
P si
el er
P L
f g
ber t
Ġcamp aign
Col lection
v ents
oy al
Ġcell s
f ort
Ġd ied
d est
Ġs ymmet
ĠP al
Ġv ict
W E
Ġco ordin
Ġs il
j oy
Ġexp and
r ange
Ã ¤
ol ute
ic i
R ev
h over
em ma
p anel
w s
Ġth erefore
Ġ[ '
Ġcent ral
Ġqu al
ĠSc ience
Pro t
Ġund efined
s cal
iz ations
yn ch
v ector
w ner
Oper ation
in i
Ġtreat ment
) =\
Tr ack
Ġsim ply
d elete
Ġres ources
ele br
v m
ĠThe orem
ĠIn st
Def inition
ĠB el
ĠAr ch
Hel per
I M
iev ed
ĠO R
Ġplay ing
st on
L eft
Ġestab lish
Ġa ud
================ ================
Ġpresent ed
} =\
f ree
ĠĠĠĠĠĠ Ċ
Ex pression
S k
## #
c lick
ov ers
Ġteam s
) }\
ĠTe chn
Ġchang ed
ol ar
Ġcon struction
em ic
ĠTh om
Ġj o
L e
typ es
ac cess
Ġs ources
inter face
g s
Ġoff ice
ill ing
an i
ĠS y
lo or
x is
Ġex tra
med ia
Ġm ention
P ass
re es
7 6
Ġcom ing
T e
ĠB en
U se
Ġr ank
s pect
struct or
Ġf un
Ġeas y
ĠR iver
Pro perties
Par ser
uf act
ur i
Ġv eh
Ġass ist
Ġhas h
to String
ig r
Ġdec ision
Ġbehav ior
us ion
st ar
S ign
P at
Ġj av
iction ary
ed ge
E M
ĠEx ception
ĠF orm
Ġsp in
Ġsol utions
5 3
AL L
ick er
add ress
om orph
Ġbas is
r ong
Ġconc ern
$ )
ĠD on
Ġopt im
Ġro ck
Ġsign al
ĠBG COLOR
N et
Ġcoun tries
ĠG od
Ġto ken
N ow
Ġtr ansport
Ġ ensure
it able
M ar
v est
v ille
ĠD ate
ĠM ag
Ġtr avel
ie ce
Ġd am
m as
m ode
Ġincre asing
Ġc ast
'] ,
ä ¸
Ġt en
a fter
St at
St ore
Ġcol lect
ĠR ober
H istory
Ġre v
com ponent
ĠE nd
Ġact ivity
T im
ir l
Ġ( "
aw s
ĠAs sert
V ector
Ġe cho
ĠĠĠĠĠĠĠĠĠĠĠĠĠĠĠĠ ĠĠĠĠĠĠĠĠĠĠĠĠĠĠĠĠĠĠĠĠĠĠĠ
ĠH ere
}^ \
Ġre comm
pro x
Ġme et
{ }
) ^{
Ġsc en
v as
D A
el oc
ĠJ ack
c oll
d irect
tr ack
C ore
Ġdes igned
-- >
Ġnot hing
Ġy ield
ar th
Ġn orth
Ġstart ing
( :
Ġthrough out
in ternal
Ġt our
| |
=" _
ri an
ĠR ich
Ġcor re
Ġal tern
Ġrecent ly
vir t
I con
Ġassum e
Ġpol ice
Ġl iving
ly mp
Ġrepresent ation
Ġinv olved
7 2
Ġp ackage
Ġhim self
co in
Ġdom ain
Ġre nder
ĠT able
c p
end ar
Ġan g
ĠM ap
h r
he st
wid get
Im pl
ĠIn stitute
IN E
S u
Ġin j
g lobal
I F
T itle
ĠA L
ĠM art
ĠTr ue
AN D
h igh
Ġr ules
\ "
M atch
re q
Ġother wise
. ~
Ġac qu
is ions
ĠB est
Ġsy mbol
Ġn et
f ocus
re nder
Ġc ause
ĠT HE
ic ate
Ġj oin
pr ing
f ony
ĠQ ue
ind ent
if est
Ġtele vision
25 5
8 9
ĠN ame
Tem plate
i pe
Ġ} )
Ġso on
ick et
Ġch oice
ol ume
wide hat
Ġqu ite
er c
dis abled
ĠCh ampionship
v an
ĠC ON
equ al
ess or
ym fony
Ġcrit ical
is ation
M ult
ĠCh urch
}_ \
V ari
s ession
ern el
Ġch arg
Ã ¶
ĠĠĠĠĠĠĠĠĠĠĠĠĠĠĠĠ ĠĠĠĠ
Ġprob ably
co pe
equ als
m aterial
lem ma
re ement
S l
depend ency
ĠM ac
ĠPart y
Ġra ise
Ġread ing
ex port
su ccess
Ġc ult
T ool
ĠY ear
ĠF e
Ġd ark
Ġto wards
ĠO ver
Ġbel ieve
pl ugin
Ġst ay
Ġapp lied
P P
ĠJ SON
Ġtrans action
ĠG erm
pro ve
ĠG reen
Ġf ast
Ġdat abase
Ġclass es
os ph
; ->
Ġstat ement
ĠH all
L ong
Or der
id ing
Ġset tings
pl ugins
Ġal t
est amp
C lick
Ġm or
Q ue
and er
Ġ Î
Ġdirect or
Ġseem s
Ġt ro
ĠAss ociation
Ġmin utes
P tr
Ġg alax
Ġev idence
Ġfe ed
Ġmod ern
199 8
}\ ,
Ġany thing
ri al
ul ate
ion al
OR D
Ġfin ancial
Ġs cript
Ġm ilitary
D ep
Ġet c
ĠA ut
8 7
ĠW ashington
ill a
ĠAfr ica
Ġvari ables
ĠCour t
ĠFig ure
ĠA ward
Ġst ars
anc y
cd ots
c ustom
OR T
ic ol
Ġnov el
ĠE rr
Ġus ually
il ies
ĠIn c
Ġs aw
Ġchall eng
co q
K e
z a
V er
Ġbo ard
Ġw rote
om a
F L
av er
air s
Ġquant um
Ġe lection
k er
ĠT ex
Ġup per
ĠH el
Refer ence
Ġevery thing
PE CT
ex ports
ĠC re
Ġcon cept
c up
Test s
Ġarch itect
Ġad minist
w est
g raph
Ġb al
R ect
Ġoff ic
c ar
Ġa uth
D raw
G ET
}) \
N ames
act or
Ġw est
ad ian
E O
en ge
it ar
Ġl ock
ines e
H ost
{ (
Ġknow ledge
ĠP ress
Ġfinal ly
ĠM odel
Ġr adio
x x
Ġth read
all s
im s
M D
Ġerr ors
Ġn odes
Ġc ore
ĠD et
Ġask ed
Ġcle an
on a
ĠY our
ĠB ay
et ic
Ġpar se
Ġpr ice
ĠL eg
C S
Ġstre ng
Ġincre ased
ant ic
an o
p adding
as ic
Ġd elete
erv e
ĠS ur
Ġs outh
ms elves
En cod
al ysis
re al
) -
q quad
X X
ĠD el
Ġlim ited
ĠO per
I ter
="../../ ../
g in
Ġv s
AT H
rom e
hand le
Ġr ace
ERR OR
Ġprob ability
Ġd ro
F alse
set tings
over ed
? :
8 2
ans ion
Ġ er
D evice
S ince
eleg ate
Ġfollow ed
ag ger
Class es
p ers
in ct
evelop ment
Ġc ard
Ġcomple ted
Ġhold s
cl os
Val ues
Ġbecom es
Ġbook s
Ġh ope
Ġpre p
Ġw ays
he lp
Ġis n
Ġvol ume
ĠR un
id ents
ĠPro gram
Ġprofession al
OR M
Ġintrodu ced
u it
Ġthe mselves
Ġhe l
ĠM usic
A m
rel ated
tern et
Ap plication
M ore
{ {\
Ġpract ice
Ġm us
G B
field s
g an
ĠFr ance
ĠS am
ert ific
ĠK e
Ġcl uster
Ġdescri be
c ur
Ġm other
E Q
Ġm icro
199 0
Ġlarg est
Ø §
ĠA ng
Ġsmall er
6 9
In valid
t ty
h ad
Ġro b
tog gle
fr amework
P R
Param eters
> ();
con nect
vari ant
ĠR equ
}^{ (
ĠO ther
Ġte ach
ro om
Ġtest s
wh ite
R ed
Ġsh ape
av ed
S he
Ġpro per
d el
t ex
' >
ec ause
Ġtry ing
ĠDem ocr
ond s
fo o
set s
ĠJ er
P T
Ġg ave
Ġelect ron
Ġwrit er
c ategory
ĠTh us
p ub
Ġsur v
Ġo s
ĠRev iew
} |
os en
^ +
' m
sh ot
Ġw oman
ĠM em
mit ted
P H
ĠGe orge
al ed
M ark
St ack
Ġen joy
` .
est ival
S L
Ġrece ive
ou thern
Ġsh ared
& =
u ated
P arent
ir ing
param eter
) /
( *
ro s
c pp
Ġal though
Ġj ud
8 4
ĠR oad
Ġf ully
ĠM at
mat rix
ĠPro ject
A pi
Result s
U B
im ents
Ġc ook
} "
ĠComp any
Ġprevious ly
( {\
S ION
ĠWh ite
ent al
text width
E W
ut ing
Ġdec re
Ġlate st
; <
b i
Ġrem ain
por ary
il ton
ur t
Ġb ottom
out e
P ackage
ex ception
Met adata
Ġvill age
Ġf ra
l am
Ġext ension
Ġcon nected
Ġsc ore
f it
Ġre lation
Ġed itor
w ell
Ġor igin
Ġdel iver
N on
od er
TE D
ĠHT ML
ĠU se
D L
d ouble
} :
em ail
ĠF in
N ote
7 9
l ines
Ġquest ions
__ (
ac ement
mer cial
Ġor d
ĠWilli am
ĠM ath
c md
Ġcontain er
ad s
' ve
Ġn ature
lang uage
S e
com ing
ĠL ou
in y
Ġsign ed
ĠAr g
Ġrequ ires
Ġ\ {
ĠB ase
h s
f ull
Ġun c
F C
em s
B r
Ġcour t
Ġg a
Ð »
D oc
Ġear lier
ĠV ir
Ġin sp
Ġin line
rec ated
Ġm ale
Ġn or
Ġrem ains
Ġwant ed
Ġpre vent
Ġ( '
ĠMich ael
Ġf avor
Ġst e
_ ;
Ġl ack
Ġpro file
res hold
Ġcoun ter
ĠM r
Ġdig ital
et te
-------------------------------- --------------------------------
at ically
AT A
atal og
s ort
V ar
Ġhe ader
6 3
duc ation
ect ors
Ġsh ip
li ance
ap plication
x space
H as
R ender
Ġne ut
Ġmed ical
ing er
v ed
se y
Ġdirect ory
O K
ree k
Ġan im
Ġs ave
Ġde ad
ur a
annot ation
Ġchar ge
ad min
Ġl ibrary
iver se
ind er
ĠI S
' .
E l
yd ro
le ep
Ġsl ow
um in
Ġc ulture
ĠAn n
Ġbound ary
B R
operator name
L o
a iled
by te
Ġpro ced
ĠS al
ĠFr anc
W rap
Ġm ount
ĠUn ion
Ġfri ends
Ġm iddle
cl oud
ig hest
C al
D om
Ġmiss ing
Ġl ayer
ĠR el
Pol icy
ĠC ong
struct ure
Ġp urch
D ebug
Ġinst it
eth er
et t
Ġc ache
i us
ip p
Ġre pe
inal ly
sc r
ot ic
Ġcontin ued
Ġn amespace
Ġc elebr
res ents
Ġget s
Ġsome one
Hand le
Ġex am
Ġe ast
Ġon es
As sert
h y
Ġch ain
ĠA lex
key word
Ġun its
Ġapplic ations
Pe ople
Ġwe ak
J ECT
ateg ories
am ing
Ġbe aut
Ġcont aining
Ġ$ (\
Ġr adi
w rit
Ġpro ve
Ġatt ention
Ġpres ident
; /
ix el
ser ve
Ġdeterm ined
199 7
Ġm is
Ġapp oint
9 4
bo olean
nt ax
Ġpl ot
199 6
Arg s
Ġover all
re place
N um
Ġsc ient
ab ilities
Ġab ility
Ġre strict
ĠR ob
Ġleg al
Ġpart ial
G E
Ġ' /
Ġcho ose
Ġpr im
Ġneg ative
> .
Ġby tes
Ġinterest ing
Ġpres ence
Ġmean ing
6 2
Ġd ed
ri p
Ġle ave
O ur
wh ile
gr id
R ule
ĠU ser
Ġe ight
ĠL ife
ĠEX PECT
Ġw ide
en umer
Ġex hib
Ġv eloc
ĠGerm any
Ġschool s
K ind
alle l
pass word
f n
Ġby te
An y
ĠL ong
Ġdeterm ine
hold er
ĠM us
U RE
con dition
Ġstr ict
Ex p
Ġopen ed
Arg ument
Ġun signed
t ers
Bo olean
ĠL O
Ġpl ant
ĠPro v
Ġweek s
9 3
ĠAcc ording
ip eline
Ġc op
ĠT om
Ġmain tain
ou b
F ound
SE T
en um
ĠG old
Ġman ager
s ol
du le
ynch ron
cre te
Ġim prove
ĠJ ournal
r or
Ġgener ate
ra el
ĠD an
M ock
The n
ill er
inst all
Ġw allet
ĠTex as
Ġre ach
ap prox
Ġg overn
Ġj son
maz on
ĠN OT
Ġstud ent
Ġl ives
Read er
Ġex plicit
ole c
ĠM ary
ann ed
T C
sh ort
Ġinv olv
Ġtr ansp
Ġth reat
D ialog
Ġs plit
Ġproject s
Ġpart ners
ĠS ociety
Ġh um
Ġbegin ning
E ach
Ġj ournal
ec k
ond er
Ġoff ers
Ġappro p
ym pt
Ġper fect
Ġjo ined
l as
call back
ib ly
' ))
or ation
Ġrat io
ang uage
M ain
9 2
Sh ow
En abled
By tes
Ġprot ect
Ġinter view
Ñ ĥ
line ar
Ġbas ic
math sf
~ $
st ore
ĠM iss
Ġinter pre
ĠM ethod
Ġsc ience
D elete
Ġd aught
ĠM ount
as ure
n ce
am i
AG E
` ,
Ġimplement ation
Ġp anel
Ġgre ater
Ġbut ton
A c
d ates
all ow
Ġgo es
pp ed
ĠIs land
ĠV er
Ġb ank
N N
or a
ig er
C re
Ġre serv
M eta
Ġass ess
Ġrun s
}} (
Ġb tn
Dec l
ĠB ig
Ġevery one
Ġmov ie
sq l
Ġset t
ĠF ield
ic ated
Ġdise ase
T ab
ĠA v
D ist
W riter
ĠTr ump
ĠP y
Ġuse ful
CT ION
virt ual
Ġh ous
Ġdeath s
Ġs en
ĠRober t
Ġcap ital
Ġ$ {
Ġad apt
ĠN O
up le
ace book
agn ost
ro t
9 1
b ul
Ġp ul
app ed
ĠĠĠĠĠĠĠĠĠĠĠĠĠĠĠĠ ĠĠ
if ies
ĠO lymp
ress ion
Ġw ife
Ġbl ue
reg ister
st at
HT ML
Ġcall s
Ġactiv ities
ong s
com ment
Ġdr ug
le ments
Ġm ut
ast e
=" @
Ġdistrib uted
Ġse ek
ĠV alue
ĠS l
Ġ icon
e ch
}\ \
n umer
' ll
Ġcl in
Ġ util
aut o
B S
ĠP lay
Ġmin imum
ĠI O
C I
Ġstr ategy
se ct
Ġr ap
re me
Ġpl aces
Ġfig ure
al ian
ĠP ub
ĠCl ub
D i
Ġcoll abor
Ġgr ant
ist an
m i
Ġtest ing
C ustom
ass ets
Ġfact ors
pro duct
ĠM ex
7 3
S um
B ody
ub y
in sert
s ur
Ġw rap
Ð º
Ġ< =
r adius
Ġt ouch
J ob
ak ers
Ġess ential
ĠSh ow
rom ise
ig ration
ĠD O
Ġant i
FA ULT
Ġ+ +
item s
arg ument
al a
ĠW il
By te
Ġd im
ĠU RL
Ġeas ily
form s
Ġfor ms
Ġman ufact
ick s
om ial
ĠAc adem
Ġ" /
f aces
con trib
f ly
ple ments
reg ion
Ġev olution
6 1
' $
Ġs even
ĠCh inese
er ies
8 3
c ut
Ġme eting
b ut
s ample
Ġequ ations
R oot
ĠI P
ag on
h ouse
ĠL emma
Ġreg ions
b our
Ġd imension
] $
mod ules
ĠE vent
Ġst ack
key s
Ġa ctions
Ġfl ag
Ġg reen
IT Y
P RE
olog ies
os h
ĉĉĉ Ċ
Ġs ports
ign ment
Ġinv oke
Ġat tr
199 5
art s
d im
j a
ish ing
ĠF ore
Ġsit uation
Ġb ur
cit et
ĠAl so
St orage
Ġbe y
ĠB usiness
k y
16 0
Ġst orage
n one
Ġtr ain
Ġre li
Ġr ates
k i
Ġs n
ĠR oman
A tt
Ġcon sole
Field s
m argin
8 1
Ġsong s
ĠC D
Ġfam ilies
ĠRuss ian
7 4
ĠT or
Ġsaf ety
Ġbey ond
Ġw orth
ĠK ey
Ġ& \
Ġrem oved
Ġpress ure
Ġinteg er
or ter
Ġco eff
ĠV iew
Ġst ories
ĠFound ation
ĠSup er
KE Y
es h
ĠB i
il s
az z
ĠT op
Ġv acc
ĠArm y
c are
Ġhigh ly
proto buf
Ġbro ught
ĠM ad
ed y
od ed
Acc ount
ann els
ask et
Ġc ategory
Ġtr ade
ir us
ĠTh erefore
! !
") ]
Que ue
Ġprogram s
rec ord
sp ring
est ed
Ġorgan ization
25 6
ynam ic
ĠN etwork
ĠCom mit
Ġbir th
Ġredu ce
Ġexact ly
b al
Ġjav ax
}} {\
ð Ł
ĠSt ar
ĠSm ith
Ġent er
Ġeconom ic
Ġequival ent
Ġche m
198 0
ĠH istory
Ġm sg
Ġequ ip
az ine
in itial
import ant
\ '
Ar t
ir med
ent er
her it
os ing
d imensional
==== ==
et imes
ĠCar ol
j query
W S
TE ST
Ġsample s
Ġfrequ ency
Ġh yp
H ere
Ġimmedi ately
Ġl ay
P i
~~ ~~
Ġpe ak
ant a
Ġappe ars
result s
SS ERT
ens es
h ol
Ġfr amework
ud d
? âĢĿ
Ġaff ect
put e
Ġident ity
ĠM o
ĠErr or
Ġprodu ce
Ġrecord ed
ĠĠĠ Ċ
Ġh ighest
Ġparticular ly
point s
d x
ro ad
Ġspect rum
Ġw aves
ust ain
in line
By Id
S ymfony
it ation
as y
Ġsec ret
du ction
M C
ell ig
ic ine
ar ant
7 1
Ġdem and
J SON
Ġcomplet ely
ĠT imes
Ġfin ished
Ġstruct ures
Ġh arm
p ool
at in
. ;
ĠM er
EN D
ĠS ing
and emic
Ch anged
ut f
Ġmag netic
Ġbr and
ĠPro f
is ms
ĠF alse
Ġnear ly
ĠAustral ian
Ġb g
Ġsc ene
Id ent
} +\
Ġresult ing
on om
Ġden ote
re y
p resent
[ :
ĠCent ral
m ock
ph one
Ġcre ating
Ġp en
Ġ% }
drop down
Ġpl ans
sc roll
Ġh tml
it a
ĠS und
M ENT
. *
ĠD uring
Ġp y
st ats
st op
X ml
Ġd b
ing u
Ġshow ed
a ud
ĠSc ott
ĠP o
S end
Ġhigh light
ĠAfr ican
Ġw rong
H ome
ne q
Ġimp lies
th read
Ġc lick
nap shot
Trans action
C or
Ġill ustr
=" "
g a
Ġsub sequ
On ly
Ġrecord s
con nection
Ġsay ing
Ġrep resents
ad y
N G
AC E
ĠE v
Ġ ),
L iving
ĠS u
ic ago
Ġsp ent
Ġf ix
ĠT ext
Ġst eps
ĠThom as
Ġn orm
ĠS un
and a
Ġex tract
s che
FI LE
ele ction
un signed
it iz
ixt ure
Ġquick ly
Ġassert Equals
Ã §
N etwork
ĠG overnment
} -\
Ġparent s
ev e
Ġn ative
Ġe arn
Sup port
d eg
ĠMed ia
199 4
uck et
pe ed
Ġtrad itional
=" ">
Ġex ternal
iv acy
Ġvari ety
org an
P op
g it
ific ations
Ġs al
Ġpolit ic
ĠC ons
Ġex c
] \
Ġst ra
eff ect
Ġf air
Ġp refer
Ġun known
Ġrel ig
B it
E C
Ġre ached
Ġelect ric
ĠV ol
ĠChrist ian
ĠU nder
ann er
ov es
ĠH en
Ġb re
od ay
Des criptor
ĠM ost
Ġbu y
at tribute
Ġappe ared
Act ive
t ip
Ġin cor
Ġgener ally
ĠG ames
ĠBo ard
ĠA R
Ġfor ces
Ġn om
Ġprocess es
os is
sh ift
Ġp ark
Ġredu ced
con s
ĠFranc is
ol f
ĠC opy
Ġconst it
ne ctions
ĠT own
Ġrele vant
Ġsur pr
Ġup dated
ĠR oyal
we et
Ġ- \
ple x
Ġest imate
Ġpur pose
pro file
ut er
Ġdest roy
Ġl oop
ĠComm ission
Ob j
Ġm ix
sec urity
Ġp ush
Ġh idden
ĠC amp
h aps
ang o
ĠAs sembly
= -
Ġh or
Ġmov ing
VER SION
] :
ĠĠĠĠĠĠĠĠĠĠĠĠĠĠĠĠ ĠĠĠĠĠĠĠĠĠ
ĠM useum
Ġqu arter
ĠW indow
Ġg old
G u
Ġopport unity
Ġext ended
gr ade
m iss
sh ape
Ġmov ement
Ġsp read
h space
Ġim ag
Ġturn ed
b ing
. __
lo ok
Ġp lease
ĠG ame
h orizontal
Ġpre d
ĠDiv ision
Ġt err
enumer ate
p ay
bit r
Ġl if
ĠMin ister
all ery
ĠG reat
ĠDirect or
Ġepis ode
Ġm ock
ri z
ĠU kr
Ġch urch
at re
n ames
Ġmar ried
Ġdec ided
ol ver
Ġtool s
ĠGr and
Ġc ivil
s cription
k g
Ġre ports
ĠT im
Ġle ader
Ġc li
S w
Ext ension
Time out
add r
Ġdef e
hent ication
pr imary
ri end
ĠC all
= (
St ep
Ġad opt
at o
ï ¼
pro perties
Ġdet ail
Ġb ul
Ed it
ĠM ax
ĠG en
Ġal gebra
Ġsche me
uss ian
Ġmat ches
Ġk m
$ /
ĠT ur
P erm
Med ia
sy ch
ed er
ĠV is
Wh ile
Ġen h
ts d
() {
ĠDef ault
m ove
the orem
Ġform ed
ell a
ĠJ ew
sh ire
et ry
Con st
Ġvis ual
L S
ed it
Ġ{ };
Ġser ial
h ome
) }{
Ġcl imate
as hed
ent y
Ġstra ight
Ġm ask
ev ents
ot ing
ens us
L ock
| ^
ĠR ock
f amily
Ġv oice
er g
it z
Ġsl ight
Ġsh ot
Ġsom etimes
ĠEng ine
p a
Ġwork ers
Ġrepl aced
n orm
ĠB ank
ĠRuss ia
P ool
k in
ĠF oot
Ġdeb ut
ff ect
y r
} '
AR Y
Ġident ified
@ "
Ġro ute
el li
Ġpr incip
Ġmet ric
S che
d em
197 0
', '
ĠT em
L P
A uthor
D S
In itial
ĠA N
Ġsm ooth
I X
Ġlead s
Dis play
Ġveloc ity
) +
Ġstud ied
Act ivity
Ġr ail
Ġcomput er
Ġpre tty
Ġd rop
id ers
dom ain
ed s
Ġp or
}} }
Ġprovid ing
Ġas pect
Ġcon serv
ĠWest ern
M sg
anc ing
ic ies
as er
ĠA ND
Ġgiv ing
are n
h av
Ġabs olute
ap ers
anc er
l g
Ġla unch
Ġw ave
ĠSt ep
iqu es
Ġt it
s creen
ĠG lobal
Ġsa fe
Ġsum mer
ĠFl or
ar c
Ġgener ation
199 2
item ize
ĠE ducation
f ol
Ġrem aining
B P
Ġpub lish
pos itory
log ger
Ġr ad
web pack
Ġf ans
Des c
un icip
X T
ud get
ac count
Ġcon cent
ut y
ĠFr ank
Ġo wner
Ġsignificant ly
Ġfem ale
n etwork
Ġkey s
Ġindividual s
g est
W idget
Ġca used
Ġcompar ison
Ġm achine
ict or
) }$
ven ue
C le
eta iled
def ined
Ġent ity
N e
reed om
B efore
Ġin form
j ar
Ġat tributes
Ġstr ateg
hen s
ĠT re
ĠH and
)) )
Ġdaught er
Ġexample s
Ġprot ocol
Ġg un
Ġsh oot
ac le
ĠT wo
ĠC ode
clus ive
ĠW omen
Log ger
ploy ment
ĠIs rael
Ġag reement
w ild
( !
Ġser ious
ĠM A
at ial
Ġdr ive
m aster
Ġcon sequ
al o
Ġcommun ities
no indent
math scr
b es
Ġla un
tx t
cont roller
"> &
print f
Ġa mb
ĠOff ice
ul er
Ġp ages
ĠCan adian
ĠM ont
G S
Ġinter action
ig an
ĠL os
199 3
ĸ º
ult s
ĠCol or
Fl ags
f ound
Ġm otion
Ġart ist
cont in
not ation
al i
id ential
Ġk illed
se lected
$ }
at ible
tab s
Ġcap acity
12 8
Ġcan cer
Item s
Ġw ild
Ġapprop riate
anc el
if ul
ĠI r
Ġdirect ed
Ġcom mercial
Ġcl oud
U ID
//////////////// ////////////////
A uth
Ġ( *
Ġst ock
W A
ĠVir gin
ĠS ervices
Ġoper ators
ertific ate
Ġlist ed
Ġinstance of
ĠW ill
s ave
15 0
Ġread y
sup er
re land
Ġin str
ĠZ eal
Ġ{ '
pos es
urren cy
Ġst ated
av ity
ĠI d
T ABLE
ĠJ ose
P ub
l ers
def inition
er ry
ĠT witter
type of
Ġresp ond
{ $
ex ternal
j pg
M B
Ġopen ing
Ġin nov
ĠH ill
du led
() ));
Ġtr ust
Sec urity
os itory
ĠF acebook
ack et
Ġb us
k w
ist ration
ab it
u an
Ġgr and
is l
P AR
w ar
}} _
c f
Con f
und red
Ġap i
AD D
ĠV ersion
F loat
Ġw ind
ĠB ill
Ġpl aced
ĠG a
St op
i h
ĠO p
ĠM el
ly ph
Ġsuff icient
ĠK ore
U LE
ĠP eter
Ġun less
Ġp oll
r ate
Ġpo or
Ġhy per
k m
j ob
Ġneigh bor
im pl
and ard
Ġm aster
Ġ ul
ĠU N
p ower
iv ery
Ed itor
à ¥
ĠZeal and
Ġocc ur
Ġno ise
r b
CH E
######## ########
ici ency
Ġblock s
Ġref lect
b rowser
ĠIn formation
t ion
Ġsur round
in em
is hes
ĠD en
Ġcar ry
ĠS ol
Ġag ent
F ull
Ġhe avy
ĠL ake
ĠD evelopment
M I
Ġa im
rid ge
ĠLou is
P ATH
Ġdepend s
g ence
un ities
R est
Ġcustom ers
Ġrepresent ed
Ġp ool
Trans form
__ __
1 20
Ġsit es
Ġart ists
Ġn g
ist ent
Ġun iform
Ġdiscuss ed
Ġvis ible
Ġth r
ç ļ
ĠĠĠĠĠĠĠĠĠĠĠĠĠĠĠĠ ĠĠĠĠĠĠĠĠ
Ġb illion
h ere
Ġh ol
ĠCh ild
th let
ful ly
E vents
had oop
Ġin ner
Ġb lood
sh all
ĠCommit tee
des c
Ex pr
A v
Ġder ived
y an
ĠS ocial
ĠL and
The se
r ine
ov ing
ĠA tt
fr a
Ġ[ ];
Pat tern
Con str
Re ce
ĠCong ress
Ġhand s
çļ Ħ
Ġfail ure
ollow ing
] ]
Ġal loc
: \
li ament
Ġdev ices
Ġexp ansion
pos ite
Ġdat aset
O ther
ĠS il
ond ay
ĠH ome
oc ation
Ġansw er
* )
ĠSec ond
com ponents
ĠE qu
b ad
Ġp andemic
D el
} </
ential s
ge les
on ym
in v
Ġdown load
ĠUp date
Ġenc our
Ġm ur
Ġmag n
Ch annel
Ġvert ex
Ġcol lege
it ors
res et
Direct ory
M ember
- $
Ġfour th
text tt
and ra
ĠJapan ese
Ġadv ant
Ġnot ice
B ook
Ġsp aces
v space
Ġ$ .
ĠUS A
Ã³ n
ĠEx ec
Ġp le
ap y
u ations
Ñ ı
Ġmention ed
Ġl atter
LO G
D uration
fr ont
Ġ= ========
ri er
Ġco ach
Ġmin or
Ġsepar ate
m o
Ġinit i
ĠC ath
++ ;
ĠL i
sc ss
Ġin tr
op l
assert Equals
the me
Ġmeas ures
P lay
Ġunderstand ing
Ġf elt
M atrix
I V
S R
Ġc ru
ĠG ood
urre d
Ġch osen
ore t
Ġth erm
ĠĠĠĠĠĠĠĠĠĠĠĠĠĠĠĠĠĠĠĠĠĠĠĠĠĠĠĠĠĠĠĠ ĠĠĠĠĠĠĠĠĠĠĠ
ik i
Ġlook s
C ar
Ġ[ [
are a
Ġb rowser
Ġhand ler
ang ular
ir al
am er
Ġp iece
op ed
Det ails
ĠM ass
Ġm essages
Ġseg ment
Ġ eth
ĠS O
\ ,\
33 33
S cope
B rowser
r ase
Ġwas n
ĠPe ople
Ad apter
Ġrem ember
Ġt ab
P anel
) ).
ĠCh icago
lim it
Ġgo als
T A
s witch
c ape
Ġf irm
ĠB ack
Ġident ify
Ġtr a
ĠAn geles
Ġs ch
go ing
EX T
ĠJ ul
Ġmeas ured
Ġmaterial s
asket ball
mult icol
Ġle ague
bl ack
I MP
r ad
. '
S ection
Ġpl ays
ĠE conom
que ue
Ġcomp act
ĠE ach
Ġevent ually
; "
Ġsup p
if fer
ol a
Ġs ector
ĠI ll
ĠFr iday
Ġnot ed
j i
ĠWe ek
Ġs quare
Ġres olution
Ġocc up
How ever
Ġcompet ition
199 1
Ġâ ĸº
Ġf arm
Ġac adem
ir ls
Ġm ill
)) );
Ġn ation
Ġbg color
Ġany one
Ġconsist ent
z ero
Ġcom ments
oc aml
Ġcontr ast
Ġgrow ing
Ġ ut
tr igger
Ġmap s
ĠC le
Ġin fin
sum er
Ġen able
Ġb rief
Ġm ission
Ġd og
ĠĠĠĠĠĠĠĠĠĠĠĠĠĠĠĠ ĠĠĠĠĠĠ
fl ags
nav List
ĠTe am
Ġp an
ĠE arth
Ġâ Ĺ
Ġsp ot
k o
Ġd u
ĠAcadem y
in ations
Ġrespons ible
im it
if ically
s chema
ĠA mazon
MA X
Gener ic
Ġph one
Ġv an
min us
sk i
Ġcost s
multicol umn
onal d
ĠO ption
ow ers
config uration
Window s
) ),
âĢĿ .
SI ZE
ĠMan agement
Ġdep th
v a
eng ine
atur day
up s
ang ing
Lo ader
al d
Ġhapp en
\ }$
b u
In ternal
in ate
Ġd ir
Ġinflu ence
o les
L a
Str uct
ĠKing dom
ĠRich ard
M T
Ġestim ated
ĠV AL
ic ations
ĠL ine
S Y
D est
Ġvert ical
Ġe igen
() ).
Ġar bitr
J ava
) ">
ĠFlor ida
Ġserv e
Ġp ull
Ġeffort s
e ach
ĠSund ay
ĠC A
Ġdis k
NavBar Cell
pro d
Ġcomp are
Ġdel ay
< \
Ġon to
Ġbr anch
w p
Ġcontinu ous
c b
Ġobserv ations
g reen
Ġsh ift
Ġpre m
Fe ature
N E
Ġch ance
iv ation
t otal
ell ar
Ġpass word
se ud
cal led
To String
Ġapprox imately
Ġnetwork s
ĠIt s
ĠP aram
Ġ _{
Ġf ine
t mp
wrap per
ĠâĹ ¼
ev al
Ġdr iver
ST AT
Ġb inary
Ġc os
man ager
Ġtr igger
âĢ ĺ
ĠAl though
ĠChar les
IP T
At tributes
Ġm ixed
Ġc at
Ġmajor ity
he m
Ġj oint
=" ${
Ġele m
Ġclass ical
L IC
_ ,
Ġpartic le
e cho
Pr int
12 3
ĠS U
att ice
ag raph
à ¸
yn omial
Ġcontrib ution
G lobal
ĠPar is
Ġa wait
ĠF urther
ar ation
D T
tool s
Ġpl ane
Ġinst alled
ele ase
ĠB u
ig ital
Select or
g g
est s
w a
Ġem ission
Ġdes pite
Ġpol y
%% %%
Pro xy
cri be
Ġf lex
k l
hes is
th rows
Prot ocol
n y
im a
Ġ\ ;
Ġ\ |
ĠB ur
Ġr adius
h idden
Ġ" <
ĠCon fig
ograph ic
ĠAp ple
H S
Ġcomput e
UT F
Ġcur ve
Ġfl ux
Ġga uge
In it
Ġth er
Ġtyp ename
Ġform ation
serv ices
C lose
X ML
RO M
Ġal one
Ġenc oding
Ġre tr
Ġs ales
ĠG l
Ġm obile
Ġv ote
I B
Ġin valid
ĠH ot
ĠOr der
ĠM ur
F S
ens ed
Ġprocess ing
oth ing
Ġsecond s
r f
Ġlet ter
op es
test s
Ġc ool
i en
ĠL ibrary
ĠP ower
Ġtr aff
G raph
I A
Ġcons ists
E lements
ac ro
est ion
Ġp m
ourn ament
ash ion
Pro p
erv ed
O pt
up load
ĠAn y
Ġann ual
=" $
Ġcomb ination
Ġl icense
l ig
ĠD ev
Ġm olec
ov a
ĠIt alian
The y
H igh
Ġfore ign
" `
Ġco q
ĠC ast
bl ue
ĠO h
Ġcandid ate
ĠM ain
}} ,
Ġen abled
g ers
Ġbuild er
am az
ĠIn itial
ĠP an
Ġcal c
Aut o
Ġf unc
Ġf ederal
Ġext rem
Ġcomb ined
Ġshow ing
ĠGe org
stand ing
Ġemb edd
wild fly
ĠâĢ ¦
H R
Ġex port
ck now
ĠD u
j e
G rid
Ġset up
M OD
Î ±
Ġnav igation
col Last
c over
Ġpart ner
li e
ĠReg ister
Ġown ers
ĠF ree
ĠSt art
Ġtask s
Ġs ociety
id en
Ġdi agram
ĠP et
ĠOn ly
Ġh ar
D ouble
h om
M apping
ĠI reland
ĠHam ilton
Ġauth ors
Ġh ospital
F ailed
ĠRe port
T V
ĠAr ts
sc ape
Ġw at
ock er
ĠP M
under line
he ast
D C
En um
Ġa xis
ĠM a
L java
ĠB et
Ġex cit
irc raft
Y ear
plic ations
Ġrem ote
ĠB re
Ġth ous
ĠInd ex
art icle
Ġd oub
F IG
m ut
Ġse a
Ġ" "
ĠL in
Ġdet ection
S ome
d p
Ġadd ing
urs day
Ġhe nce
s he
M ay
ĠPol icy
ab y
iv ial
Ġim plements
prot ocol
coll apse
por ate
_ (
Iter ator
ĠT ask
ual ity
ĠA ction
leg al
ĠH istor
stit ution
b el
19 60
Ġtre nd
col First
) "
Ġsup ply
ĠA ust
Ġdist inct
pro ps
p erson
b its
ĠFor ce
Ġsur vey
In v
< !
Ġgr id
Ġad just
J ohn
Ġac com
ĠB rown
end or
ĠN ode
R AN
r ich
Ġar m
Back ground
Ġstreng th
ĠP oint
Ġhe ard
P erson
Ġl ab
Ġexper iments
Ab stract
ir a
Ġb attle
press ed
het ic
}^{ -
} %
it o
Ġin sert
198 9
Ġre ader
Ġun ivers
ĠD om
ĠTO DO
iter ator
Go ogle
ard en
Ġdiscuss ion
Sc roll
ch ain
umn i
Sy mbol
ch annel
est er
Ġe yes
og en
ĠE lect
Ke ys
in ant
Ġg irl
ON E
Ġ( -
Rep ository
prov ider
Ġcle arly
all classes
' d
assert Equal
Ġpo inter
il ation
g ame
Su ccess
File s
ĠF unction
ĠL u
hand ler
ĠTechn ology
Ġ à¤
Ġp ert
'] )
ĠA re
Ġliter ature
I ST
h ide
Ġro ll
get Name
T erm
f ail
ĠW ed
ry st
$ _
Ġ= ======
Po inter
The ta
Ġrequire ments
n ight
Ġtri al
ĠM il
BU G
Ġbro ther
lim its
Ġh undred
% ,
el come
Ġbroad cast
Ġposition s
app ly
ĠE ven
Ġra ised
Ġold er
ĠF our
Ġpartic les
Ġexperiment al
ĠM ult
sw arm
Ġlaun ched
Ġmon itor
ĠT ra
Ġgalax ies
as ion
Ġthe orem
Ġbuild ings
Ġl ib
S ER
Ġstr ugg
Ġex change
ĠSec ret
Ġre q
ĠT H
im inal
con tains
Ġm enu
ĠL ee
m ann
Ġob vious
v ideo
Ġsc atter
Ġas ync
B E
Ġmost ly
Ġview s
}} _{
Ġfound ed
Ġform ula
Ġp p
ĠThe ir
Ġrequest s
Ġ ip
ĠN umber
ĠP age
ĠE very
Ġre con
Ġ[ ],
-> _
Ġf n
rop y
ph ot
ĠB O
p an
P ay
Ġf ill
S ample
cl aim
e an
Ġtrans l
Ġs ell
ty ped
ner gy
Ġthem e
if old
Ġst ress
ex ists
st one
ce an
sh adow
Ġc ref
in f
Ġconf lic
ĠF re
Ġw ants
comp iler
Ġtyp ically
g ba
il arly
ax is
Ġr aw
ĠPl an
aj ax
">< !--
Ġrap id
Ġfl at
ĠJ o
ĠO ld
Ġc amera
Ġre asons
j d
ĠT our
Ġcall ing
ar ian
Ġd aily
z one
s el
Pl ugin
ĠF estival
Ġemploy ees
ĠJ ava
t body
d ialog
C F
Ġre place
Ġxml ns
Ġhelp ed
Ġaltern ative
Select ed
Ġo il
M at
Ġd etailed
Ġsign ature
ĠCh ief
Pro file
ĠM icrosoft
m en
Ġt al
Ġw ood
Ġh ydro
Ġw id
Sim ple
ĠP ass
Ġsus p
_ ->
Ġcrit ic
Mem ory
ist ers
198 8
Ġeff icient
ĠI l
iz able
ĠMart in
Mem bers
pos s
ed itor
er ial
s ingle
n el
ĠYou ng
ĠP ath
N ULL
Pro duct
T ags
ĠAt l
Ġdet ect
d agger
L ayer
tr m
form ance
pl atform
Ġpat ient
Ġa udio
ues day
Dat abase
ĠSt at
Ġstart s
id el
ĠS pec
ĠL ove
ĠSum mer
ad ing
raz il
Ġwin ning
ĠL ink
Ġan gle
N T
omet ric
ĠEn ter
Ġr ise
Ġorgan izations
Ġf if
Ġinterest ed
Ġcalcul ated
ust ers
ĠRe act
Ġoriginal ly
param eters
at tributes
ĠComm unity
Ġind ust
ĠRec ords
Ġr are
Ġide as
Ġsp irit
cd n
ĠA uthor
ĠMex ico
V B
prot ected
ĠP enn
Ġcy cle
i ro
ĠVirgin ia
b en
ĠC y
p icker
Ġcre ation
equ ence
tex trm
nes day
Ä ģ
Ġe lected
ut ch
Ġmatch ing
Ġ ×
l ow
Ġcover ed
Ġconstr aints
Ġ" ,
met adata
Ġ ens
ĠAnd roid
Ġproced ure
ellig ence
Ġun ion
ĠWindow s
Ġincre ases
al ing
_ +
subset eq
Ġoption al
ĠM onday
ĠFil m
å ı
it ness
Ġa ware
Ġp hen
ro ke
Hel p
6 00
overn or
con n
ĠV ictor
b ot
lo op
Ġp od
Ġat tract
all oc
G O
Comm on
Ġcar ried
Ġwh om
fil ename
Ġpower ful
C ap
ĠĠĠĠĠĠĠĠĠĠĠĠĠĠĠĠ ĠĠĠĠĠĠĠĠĠĠ
", "
Ġre ject
by tes
Ġ io
Ġgu itar
z en
ri age
Ġveh icle
ay lor
Ġcon vers
Ġar rest
IC E
Ġchall enge
Not Null
/ _
P ublic
Ġdynam ics
ĠSec urity
at ar
Ġmor ning
ĠP ac
ĠC a
c hen
Ġsh op
Eng ine
Ġ( _
Ġp icture
at i
Ġmod ified
build er
m aven
Ġdes c
H ER
ook ie
> :
S cale
t ags
f old
pre v
Ġrecomm end
Ġoffer ed
foot note
Ä ±
w orld
RE AD
pl ot
Ġanaly t
Fig ure
child ren
Ġw all
Ġt x
Ġc itiz
G en
[ $
S pace
Ġb right
S ync
ĠPh ys
Ġ? >
Ġto ward
pro gress
od ies
Ġsum mary
Ġh uge
F R
ĠO l
L C
det ails
ĠIO Exception
id x
ier arch
Ġend ed
Ġbehav i
Ġcontin ues
t w
Cl uster
Ġe q
S eg
Ġhe at
her ited
c ient
Ab out
ian a
ĠR et
he el
Ġpro ceed
Ġad vert
Ġman aged
f ire
R oute
he mat
rodu ction
Ġs qu
Ġexist ence
aly t
Ġslight ly
ĠCarol ina
Î ¿
Ġp aid
Reg ister
amaz on
Ġhe ar
Ġres ist
Ġdiffer ences
clud ed
ĠF ort
Ġ$\ {
Ġaccur acy
l arge
head ers
f ixed
ĠL ead
Re port
Ñ Į
() </
ĠCopy right
ct rine
ĠI E
I VE
Ġacc eler
Ġc tx
Ġp ure
oper ation
il ing
ell o
Ġab stract
ĠH aw
in ion
Ġlist en
am m
IT E
Ġch ief
) |
am in
Ġinvest ment
Ġsen ior
198 7
Ġv ac
ic ed
m utable
p icture
Ã ¨
li br
Ġregard ing
ĠK h
Ġbal ance
as is
for ward
ad ium
Wrap per
ic ity
w hen
ï »
p refix
ĠS aturday
ĠS pecial
ĠS I
ĠM essage
Ex ample
F ail
ĠIm age
Ġrest aur
S QL
Ġf ol
Acc ording
ĠHe ad
ic ients
Ag ent
Ġreve aled
os oph
us band
ĠM ake
Ġgu arant
Ġf le
u ages
ec es
ĠJ un
Ġbo ost
Ġa head
Par se
ĠC are
Ġb log
rib ution
T x
Ġtechn iques
Ġ ðŁ
n eg
S ocket
ch or
D epend
Ġf ru
Ġapp end
~ $\
Ġmin im
Ġautom atically
Ġcommun ication
ĉĉĉĉ ĉĉĉĉĉ
r ical
ff ff
ĠL ocal
Ġre ct
Ġmoment um
âĢ ī
ĠE p
Ðµ Ð
Ġach ieve
D P
O UT
ĠH uman
Ġtype of
W N
Ġoper ating
Ġb ill
ĠVal ley
Ġrel atively
ĠH a
R et
Ġtr uth
Ġke pt
Ġt or
ĠD own
Ġeconom y
Ġl ic
Pass word
CHE CK
log in
od d
m ask
Ġclaim s
Ġch art
Ġ ice
our ney
ĠFoot ball
Res ources
ĠB ob
W orld
(' .
Ġfin ish
k ins
ĠComm un
det ail
ĠSp anish
bul let
gener ated
Ġt ensor
ĠJ im
Ġso ft
{ %
Ġfind ing
j ango
ĠW al
ĠA wards
Ġcon vert
Ġfor ced
r ick
Ġ( $\
st able
Ġag reed
Ġbecom ing
Ġfr ag
Ġpol ynomial
Ġpair s
v s
u ous
m ic
Ġh our
Ġspe ak
g ency
-------- ----
Ġkn ew
fra structure
ĠE li
n il
Ġsk ills
ĠJ ud
Const ants
Ġfra ction
A re
Run time
u er
25 0
Ġs ustain
Ġo dd
par ser
ri ze
Ġexpress ed
Ġis ol
Ġal le
ĠT ri
ĠP ak
rypt o
set minus
x html
Ġp i
ĠÂ £
ĠG ets
Com par
N OT
ï» ¿
ament al
Ġappoint ed
AR N
en abled
Ġbusiness es
ĠB it
ost on
C ategory
t ons
ĠN et
Ġsuccessful ly
Ġent ered
ĠĠĠĠĠĠĠĠĠĠĠĠĠĠĠĠ Ċ
ĠSc ot
CE SS
opl us
r uby
Ġcont roller
ĠAs ia
ars ed
Stat ement
Ġth reshold
Ġ$ |
gorith ms
ĠBl ue
re port
Ġsy nt
Ġsymmet ry
' \
Ġact or
Con dition
Ġlog ger
Ġchalleng es
ĠDes ign
Ġlook ed
ew idth
requ ired
ĠU I
ĠP op
h ow
Ġag ree
Ġsize of
ĠEx t
Ġor ient
ĠW ood
ĠĠĠĠĠĠĠĠĠĠĠĠĠĠĠĠ ĠĠĠĠĠĠĠĠĠĠĠĠĠ
PRO JECT
Ġvers ions
Ġprop ag
Ġappear ance
ĠK ar
ĠCath olic
Ġle aving
^ -
r andom
198 6
Ġcrit er
pe ar
S ingle
LE CT
? >
s ince
Ã £
P refix
Ġst ations
Gener ator
Ġinter val
C red
ĠAr ab
V ideo
Ġbenef its
Ġ" -
ro le
numer us
ĠHen ry
numerus form
h ar
ad r
Ġtri ed
ĠC ard
Ġclin ical
Ġ ..
ĠMed ical
sh ared
Ġ{ {
( __
Rem ove
Ġpol ar
Ġr ing
exec ute
align ed
Ġed ges
pect ive
Ġin come
ach ment
Ġprov ider
Ġo k
ĠNA ME
Ġex it
ro ph
ĠA S
f lex
Ġfund ing
ĠF und
in et
ide os
ã Ģ
Ġtrans formation
Ġsupport s
Ġpart ies
Ġfeature d
; }
Ġfl ags
Ġp urs
Ġv oc
Ġst able
ĠC EO
= #
aw n
Ġtraff ic
Ġque ue
Ġarbitr ary
Ġk ids
ele ted
ĠRes ource
Ġd ream
Ġalbum s
Ġmeasure ments
Ġsm art
j unit
ĠG i
L L
mult i
ĠCon ference
Ġsc ored
ĠCent re
ĠIt aly
O ST
Ġs ph
ult y
Ġfocus ed
ag ent
Ġopport unities
Ġver ify
198 4
th row
ĠM P
O B
Ġbenef it
Ġd raft
Ġpl anning
ĠS ign
Ġcontrib utions
v i
y er
u ing
Ġocc urs
c uss
âĢĿ ,
Ġf loor
Ġl abor
Inst all
FF FF
Ġhapp ened
Col lections
Ġindic ates
E V
A CT
ĠJ oe
ell er
ar ia
Ġm ys
ĠB oth
ĠH ash
> ::
ĠC H
Ġsh ut
Ġr ac
x s
ĉ ĠĠĠĠĠ
ĠL ast
Ġad j
ĠTh ursday
Ġexper t
1 10
Ġdynam ic
Ġp refix
us ers
á »
Ġcolumn s
Ident ifier
R ole
ĠJohn son
res ources
Ġw onder
ĠAb out
Ġfe et
Ġofficial s
Ġtrans late
_{ -
Ġmur der
Ġc ities
Ġconf irmed
IN D
user name
T wo
ĠSup port
Pro ps
ĠS earch
Ġwe ap
Ġmet adata
tem p
t wo
ĠM ov
h l
Ġdoc uments
r at
Ġcred it
Ġmay be
w all
l ife
Ġmass ive
ĠC ross
TE XT
Reg istry
Ġindic ate
v c
M R
N odes
is is
ĠĠĠĠĠĠĠĠĠĠĠĠĠĠĠĠĠĠĠĠĠĠĠĠĠĠĠĠĠĠĠĠ ĠĠĠĠĠĠĠĠĠĠĠĠĠĠĠĠĠĠĠĠĠĠĠĠĠĠĠĠĠĠĠĠ
Ġf ish
T otal
Ġform al
Ġvert ices
Ġmechan ism
Ġed ition
Ġbel ong
or row
Ġf av
ĠM any
Ġadvant age
Ġredu ction
Ġf ear
Ġappro aches
ou ter
U SE
Ġrem ained
Ġarchitect ure
p et
CT YPE
ĠA ccess
Ġph il
Ġdiv ision
ĠW ay
pl an
Ġre ality
Ġconstruct or
Ġdo or
m oz
w an
sa fe
Ġtechn ical
Ġcont ained
ĠJ ac
ĠI II
Ġsh ock
spring framework
MOD ULE
Ġ ],
par a
Ġloc ations
Ġex tr
w edge
ĠR ail
C RE
P y
if er
ĠJ ones
c ircle
ook s
st ein
Ġfact ory
Ġach iev
ĠC ustom
Ġent ries
Ġconf irm
Ġsim pl
Ġpol icies
ser ial
un ct
Sk ip
ĠL o
ess ions
Ġd uration
st orage
up lic
Im port
pl us
Ġbr ain
Ġbeaut iful
B est
Ġcom pl
\! \!
8 00
IG HT
ĠM os
Ġbound ed
em on
ĠB ecause
el a
IN FO
TI ME
\ }
Ġjob s
Ġpl us
Ġallow ing
! [
t or
Ġco ast
Ġl ayout
Ġval ign
ian o
play er
198 5
... </
Ġstud io
es ome
err ors
pos al
Ġcon nections
iss ues
if iers
cle an
Ġcorre lation
Ġa ircraft
iter al
Us ing
s b
m osph
Vari able
Tr ace
Ġdec om
ĠMore over
w er
Ġs un
_{ {\
P ER
r im
Ġconstruct ed
ans as
Ġcustom er
Ġv ary
% )
Ġst ored
) {\
lo ader
B ound
ĠL android
Ġaud ience
cre d
w riter
V I
E q
Ġ ^
stru ctions
por ation
C N
OR TED
d one
ion e
Ġw arn
ĠUs ing
Ġcent re
Ġnumer ical
ur er
ex pect
Ġstr ings
Ġopt imal
equ ality
ĠUkr aine
ĠOr gan
Ġprote ction
fe ature
Ġabs or
s ys
Sum mary
Ġmet al
Ġch annels
un ique
ĠS ar
ĠSw ed
Ñ ĭ
Ġcou pling
ap es
Ġoffic er
(' /
Ġ ult
ab out
Ġdam age
J S
Ġapprox imation
E mail
n n
ID TH
Ġpr ison
Ġr ich
ĠB ul
f x
_{ (
Ġ> >
Ġexper i
ap os
sv g
ĠF amily
Ġnu clear
b rief
Ġdep artment
F unc
Ġtr ail
ĠT R
Ġder iv
ĠGu ide
Ġis land
Ġsp atial
al g
Ġz one
ĠD at
Ġsatisf ies
. ");
scri be
ĠW ater
G ame
index Of
oc key
Ġres idents
Ġf resh
rior ity
Pro gress
F ind
pe ople
medi ate
it an
Ġexec ution
ĠM iddle
Ġdr ink
Ġpar ser
Ġcould n
ist ence
group s
col lection
d iff
Ġw arm
Ph one
ur ance
Ġex cell
li k
pt on
h ref
C M
ra wn
ĠV ector
Ġbe at
as i
g ov
f i
R R
" ].
St ats
f ix
ĠB lock
Ġ' <
L anguage
Ġl P
bl ank
if i
Ġpro xy
Char acter
ĠInt eger
' ));
sim ple
Ġconduct ed
ĠR am
ĠL ab
Ġam plit
ĠW ell
Ġcon ference
Ġequip ment
ron ic
est ic
Ġhead ers
ack s
n am
r ift
check box
ĠG al
C G
Ġd anger
Ġg ap
Ġfam ous
ord ers
urb an
Ġmus ical
Ġ Ø
H z
Ġ[ "
Ġfore st
Ġtransp arent
u zz
em y
UR I
ĠEx ample
A F
Ġph oto
Ġocc urred
Ġ$ [
r ices
ex tern
Ġg ain
Ġrepresent ing
Ġd ie
US ER
Ġdec ay
ĠT uesday
ur ies
ad or
ĠCont rol
is er
ed ia
Ġimplement ed
Ġr u
Ġn ine
^{ -\
Ġinterpre t
ĠRe al
Ġtyp ical
en able
Ġatt end
Ġchar set
Ġmod es
Ġd ict
ĠH ence
ĠA M
ĠL ord
in valid
ĠS a
Ar ch
ĠC oll
um s
Ġcult ural
Ġcorrespond s
print ln
typed ef
Ġimport ance
s n
ĠWed nesday
Com ment
Ġide al
Ġh usband
' }
Ġinter actions
Ġinteg ral
Ġme ant
Ġcomput ed
Fr amework
S election
ĠPro cess
u ce
og ene
TER N
dep th
ĠA h
ath an
Ġgu ide
Ġchang ing
Ġsom ew
F in
DO CTYPE
Ġnumer ous
Ġcons ult
c ases
Ġpart ition
Ġass igned
D em
Ġj Query
Ġper haps
un te
Ġf reedom
d ependent
Ġf an
or iginal
T T
ĠI ran
Ġadminist ration
ĠRequ est
RE S
Ġaward ed
ĠM i
ĠR est
b g
od ec
and on
Ġsim ulations
Ġle aves
Ï Ħ
: #
atter y
Ġenvironment al
fol io
Ġf lo
Con s
ĠS ports
Ġsk ip
Ġl attice
ĠHT TP
At tr
ĠIn vest
c ert
on ical
eng er
Ġen v
ing ly
Ġtime out
ĠB ow
Ġleaders hip
k et
s en
ist ical
Ġhistor ical
get Element
M ath
Ġst uff
ĠIs lam
Ġregister ed
Reg ion
Ġg ather
Ã ¢
el d
ĠN av
D on
Ġall Classes
_ *
Ġel im
ĠP RO
ĠallClasses Link
Ġart icles
Text ure
Sec ond
Ġcont em
Ġnot es
Ġaff ected
Ġext end
P layer
Ġm iles
word s
ĠF I
b c
P ORT
Ġcover age
Ġ{ "
Ĥ ¬
Ġap pre
ident ifier
Ġsp an
Ġ} \
Ġmult ip
f d
Ġb oy
Ġscal ar
ul ator
Ġr an
Ġan imation
Ġexpl an
ition ally
ĠWilli ams
st o
Ġb udget
Ð ²
ĠW ho
Ġintrodu ce
Ġfunction al
ab il
= >
att ers
Ġdepend ing
grad le
Ġp et
Ġw ish
ĠS E
str a
ud es
ish op
S m
Ġapp arent
Wh y
Ġ ).
Vis ible
P U
Ġj ump
19 50
omorph ism
Ġhouse hold
W R
s es
ĠSo ftware
Ġass ign
ĠPro position
Dom ain
ĠH y
PO ST
pol y
ind s
f riend
Us ers
A V
18 0
m c
e a
S M
as sembly
AL SE
* {
lin ewidth
En ter
B I
f ast
Ġle tt
Ġk ing
Ġin struction
k ens
Ġturn s
ĠArray List
Ġsing er
ĠS ource
ĠM en
big g
Ġassum ed
Ġthink ing
ak a
Ġdocument ation
Ġach ieved
uck y
s id
ĠMark et
Ġexpl ain
oll ary
e z
act s
Ġsim ulation
Ġm apping
EE EE
og y
Ġtop ic
SC R
cl uster
fl ag
ĠO N
ĉ ĠĠĠĠĠĠĠ
198 3
Ġcandid ates
ĠH on
Ġsem i
Gener ated
ĠÐ ¿
Ġse ctions
Ġpar allel
A rea
Ġattack s
Ġth ick
Ġreserv ed
Ġdevelop ing
ĠJ on
P M
Ġspect ral
p u
Ġc row
ĠA ff
ĠG re
12 5
Con n
Ġinitial ly
Ġhapp y
ĠF ire
om ent
ch er
ĠN Y
ĠJose ph
Ġunc ertain
ĠC EL
Ġimprov ed
hel per
os a
Ġmain ly
Ġt end
Ġear th
um es
Ġdr iving
Ġin variant
Ġcar bon
text sc
Ġaccept ed
b ro
Ġexpl ained
am pling
view s
ĠMich igan
Ġlearn ed
ĠĠĠĠĠĠĠĠĠĠĠĠĠĠĠĠ ĠĠĠĠĠĠĠĠĠĠĠĠ
nd ef
Ġcli ents
W allet
Ã£ o
Ġstat istics
as ync
Ġwrit ers
Ġded icated
Ġsu c
198 2
ĠK en
ĠB razil
Ġdis abled
ĠL iber
Ġadv anced
e per
Ġtr ace
Ġfore ach
' _
D R
Ġ| \
Ġthan k
ĠOlymp ics
Ġb ed
ĠSc iences
(' #
Ġlaw s
Ġd ebug
Ġro ugh
ĠM ah
Sh ort
Ġassum ption
Ġestim ates
ĠV an
ĠL ight
Ġe ye
D uring
Ġrefer red
ĠSt e
S ervices
in ity
Ġl at
Date Time
; ">
Ġbig gest
Ġl ived
Ġrot ation
Ġr gba
Ġup dates
side bar
ict ures
V M
Ġus age
ĠS and
com plete
F LA
ĠW ild
P Y
ĠCol umb
Ðµ Ð½
v o
is c
m ond
Ġp il
Ġlim its
Ġint ended
HT TP
Head ers
ĠPol ice
Ġclass ification
Ð° Ð½
"" "
Ġcoordin ates
'] ['
ĠN ight
cre ens
Ġm orph
Ġch air
Ġd oll
Fr agment
Inter val
ĠEn vironment
Ġdet ected
Ġcon vention
Ġmeasure ment
ĠP erson
10 1
pl ates
Ġpath s
il ly
Ġc ars
Ġstrong ly
ate way
ĠComm and
Ġsol ar
ĠC R
n p
il a
Ġtem p
Ġhapp ens
el i
Ġdeg rees
Ġadminist r
Ġtre es
agnost ic
or al
um my
ĠFrancis co
Ġse at
Ġp sych
ate ver
ult ural
Ġfund s
Ġ rows
pro du
ĠH ttp
Ġdisc overed
Ġmed ium
Ġhel ps
w arning
Ġcor ner
Ġprote in
ĠWh y
mon th
Ġa w
ĠL ear
U ri
Ġmark ed
Ġtrack s
) ->
Ġinvest igation
Ġchem ical
Ġ\ (
t witter
new command
Ġcan cel
Ġu i
ĠD ocument
Ġpro port
. <
pat tern
Ġnull ptr
ĠSen ate
ĠL ike
ĠR adio
Ġdef ense
per iment
Ġtell s
Ġsuggest ed
com es
F ORM
: `
Ġl ies
Ġcon ven
Û Į
Ġun iversity
ĠE r
Ġt mp
Comp at
ĠL uc
Ġsuc ceed
ĠW all
Ġeval uation
Id s
Ġd ialog
ir ation
Ġm eta
Ġsecond ary
Ġst reet
ĠAd v
Ġunder lying
ĠE mp
Ġbound s
ĠN ext
ĠCol lection
ĠE nergy
L INE
Ġk ernel
check ed
Ġcapt ure
Ġp al
oun try
ĠOr iginal
Mult i
down load
time out
it ivity
Ġmot or
Ġown ed
Ġs yn
n i
iven ess
197 9
if ts
- (
van ia
comm it
m ouse
Ġsc roll
un a
h ard
ĠB oston
Ġm unicip
test ing
Ġprodu cer
Ġal umni
ĠH ospital
g lyph
Ġb in
) }(
00 1
J an
Ġyour self
Ġlabel s
Ġorder ed
Return s
Ġapplic able
Ġpur poses
Ġb asketball
Ġcol lected
Child ren
Ġplan et
ĠâĢ ¢
L ook
T ra
Ġr iver
o es
Ġfavor ite
RE Q
im ated
ĠM ot
im b
act ic
Ġconsider ing
Ġc md
py thon
F urther
Ġdim ensions
Ġcoeff icients
ĠE U
Ġex erc
Ġaddress es
ĠE th
iss ue
An imation
S equence
Î ¹
Ġben ch
b log
og ram
ag ers
kw args
Ġinst ances
G A
Ġ' '
DE FAULT
ĠB ang
Ġem ph
)\ ,
Ġvict ory
Ġfl ight
M er
ix els
ĠChrist mas
Ġend s
Ġiss ued
ĠCh ris
k t
ĠM ike
Ġus ual
Ġprov ed
ä »
Ġadv ance
d y
br id
Ġsub stant
ĠE ND
Pre vious
Ġn p
Ġ" $
() ))
å Ī
/ "
n odes
L en
Ġexec ute
if def
n ob
ĠPro perty
M any
p ot
w atch
I E
Ġc ircle
ĠS aint
ch a
w ater
Ġign ore
ĠP lease
ST ATE
Ġcomm ission
Ġveh icles
i ate
gy pt
ĠS af
Ġthe oret
aw a
or ient
Ġpr ices
ĠA SSERT
J ust
i ant
EEEE FF
Ġs leep
sub figure
Ġanim als
ĠT aylor
h ab
2 13
ĠPac ific
ĠNor thern
it age
ĠN on
Ġspe ech
Ġtre ated
ĠSI ZE
Ġpl ugin
) _{
ed u
pe at
Ġm d
Ġsuggest s
t k
Ġt ournament
Ġg one
D ay
on to
ĠP rem
Ġcr isis
Ġdis s
ad el
Ġac id
v in
cknow led
R PC
Ġfac ilities
T F
Ġmin imal
n amed
ĠW alk
Ġang ular
Ġfe at
p ag
Ġinst ant
Ġf ellow
Ġcertain ly
), \
Ġag greg
ĠR o
col on
Be an
ev in
IT ION
ĠH or
us hed
b d
ĠA z
or ial
ĠAs ian
reate st
Fl ow
Ġ&= &
Ġrece iving
con sole
enc ing
ĠIn ternet
Ġload ed
C are
ĠDan iel
L in
ĠF ar
Ġfr agment
Ġpre par
Ġal gorithms
ĠI R
VB AR
ĠS elect
Ġpattern s
A udio
Ġid x
Ġf ashion
ĠAd minist
ĠT erm
ĠJ eff
at omic
ry ption
Ġconstr aint
Ġhyp ot
Ġacadem ic
p air
H ub
pro xy
ĠAnd rew
N C
LO CK
T ile
Ġregion al
P D
Ġeff iciency
ĠS ir
S cal
Ġv ision
Ġs port
ĠJack son
Ġin equality
Ġspec ify
ĠS pace
Ġwe ather
ĠNA VBAR
Ġoffic ers
Ġin fe
es ian
il ib
lip se
ĠL ive
l an
> \
Ġperm it
STR ING
198 1
Ġtrans lation
ĠO x
Ġmark eting
Vert ex
ĠS D
ĠS outhern
ag onal
Ġdec ades
Ġf iction
App end
Ġc old
Ġh ers
ĠP H
sy l
ĠF ederal
not es
cal endar
Ġdistrib utions
Ġextrem ely
S K
Ġtalk ing
az y
$ ^{-
S erv
t ar
ĠStud ies
ĠJust ice
Gener al
Ġro les
Encod ed
Ġdep art
ĠM id
Ġyou th
p ull
, '
) [
}} (\
ĠComm on
Ġres olve
Ġdest ination
own er
Ġcur ves
Ġpartners hip
,\ ,
M iss
Ø ±
Ġf re
am ps
Requ ired
Ġexec utive
ĠMed icine
trans ition
Ġeval uate
ĠF ood
Ġat mosph
ex pr
poss ible
ird s
M ask
Ġrelig ious
sk y
Ġse asons
Ġthan ks
Ġfootball ers
ĠH arr
Ġ} }
Ġb urn
Ġc ounty
NavBar Font
Ġreview s
Method s
æ ľ
ent h
y ou
Ġrec ip
Ġm ist
r ons
S ort
B B
ext ension
Ġk ill
E ST
ay a
Ġclaim ed
D elegate
ĠIr ish
Ġpl ants
ap h
enn is
our se
Ġord ers
Ġreg ime
N amespace
ĠD aily
pr ise
All ow
ok ed
Ġinstr ument
Ġexper iences
ĠH as
Ġbeg ins
Ġres on
Ġnew sp
ist ed
Ġpass ing
M IN
ok es
Ġrequest ed
B ind
Ġmed al
ater n
tain ed
ĠT w
ĠLO G
Ġfe e
Ġt rib
P air
Ġexpl ore
k es
sub subsection
os es
ver b
\ _
Ġinsp ired
Ġstand ards
Ġad min
Ġsub set
Ġphen omen
Ġtal ent
high light
y y
over view
( @
N R
Ġassoci ation
c les
ul f
l at
ĠS pring
per p
ĠSp ain
ĠM u
Ġare n
act ivity
se g
ĠC ase
Not es
Ġcom fort
g b
Å ¡
Ġs izes
f c
ĠE st
s pecial
DE BUG
Ġp itch
ĠDemocr atic
Ġ+ \
s uch
Ġcont ents
Ġnu cle
ov iet
F ree
Ġtw ice
Ġal ert
Ġshe ll
TR UE
pp ing
Ġcalcul ate
Ġex pos
Ġman ner
Ġviol ence
Ġj ourney
Con nect
z ab
A ng
Ġwait ing
b as
Ñģ ÑĤ
G R
g al
Ġexpand ed
Ġ$ $
Ġa x
ĠR ights
s ocket
getElement ById
Ġvalid ate
Ġinj ury
ĠRef er
Ġfund amental
ĠL y
.~ (\
ch anged
197 8
M ake
ĠMc C
Ġpert urb
Ġposs ibly
or ney
Ġneighbor hood
et es
set up
Ġtr ained
eg r
support ed
ĠW in
ĠW at
ĠPol it
F E
Ġsupport ing
/ .
ĠC ivil
Ġdes ired
197 6
ro ute
Ġind eed
ĠL im
Ġinteg ration
Ġnav bar
W arning
p b
Ġserv ing
Ġoffer ing
Ġact s
s ime
dec l
ĠM ajor
Ġf uel
cl one
Det ail
Ġd ual
Ġsee ing
ĠF OR
' ];
Ġrecord ing
Ġpract ices
ĠR a
ĠGeorg ia
Ġtri p
Ġpr ime
Î µ
un ately
ĠS QL
und efined
=\ "
197 5
Ġsing ular
Ð ¼
) ^{\
comp ile
% .
ĠCh ange
Ġrem ark
Ġdel ivery
Ġcontrol s
sime q
ĠAL IGN
EN SE
Ġpre v
plement ation
libr ary
Ġres et
$ $\
Eng lish
ĠThe atre
ist ing
Ġlist ener
; )
Ġassert That
Ġrefer ences
ress ed
syl vania
ut s
Ġre action
(" /
Ġca uses
Pro gram
Ġdist ingu
Sh ould
VAL UE
Ġcr ime
O M
En umer
Ġdepend ence
Ġr ain
ĠAmeric ans
Ġs b
ĠE lement
ac cept
Ġs ides
Ġdr ama
Ġc ov
ĠF inally
Ġst ellar
is a
ĠRes ponse
U nder
Ġdepend encies
Ġsex ual
Ġlay ers
Ġs aved
se q
ĠB ern
Ġem otion
ĠS i
197 2
sign ature
Ġ ];
Ġphot ograph
rit ical
nav igation
ĠD igital
Ġlist ing
J oin
Ġcitiz ens
Wh ere
Ġaccur ate
vis ible
z ip
( --
fl at
se par
Ġinc ident
or igin
ĠAN Y
A U
av id
Ã ±
BP ACK
for all
k ing
n c
mer ce
ĠB as
Ġopt ical
. ",
T ube
p are
[ (
con str
ost er
tr ace
Ġv ent
197 4
Ġfind s
ĠPar liament
="../../../../../../ ../
, $
ĠSe a
object s
N ormal
Ġad m
Ġs chema
}$ -
an es
Ġs an
s lice
Ġf ant
h u
Ġob serve
ĠJ es
Ġc m
L ight
Ġs ister
) _
ĠB ol
ir ror
á ĥ
Ġg lass
new s
ĠVal id
Ġex ceed
anc ell
Ġpro ps
" ],
ĠT ele
ĠCar l
Ġm yst
sh op
in ator
Ġspec ifically
ĠRepublic an
Ad min
S ur
d c
Event Listener
Ġtechn ique
ĠJ r
ĠL ie
ĠOh io
ĠBro ad
Ġcol on
M ouse
Ġcon figure
Ġc ursor
S ave
Ġv en
ĠIn put
Ġrepe ated
ĠCom put
l aw
dat abase
as ets
ĠF ind
Ġeas ier
ĠL ittle
Ġs ynchron
ĠC ro
ĠP ay
Q U
d uration
ĠBo olean
Ġn arr
se m
Ġpi eces
t p
ble m
Ġ rom
Ġknow s
on ce
G EN
em pt
Ġcol le
Ġs outhern
C ast
Ġfil led
W rit
Ġpolit ics
Ġes cape
Ġfig ures
Ġdis pl
Ġs pring
Ġsec ure
G C
Ġt sd
ĠM ic
init ely
Ġperm ission
âĢ ¢
ĠCo ast
ĠN iger
u v
Ġtrans actions
ĠPak istan
t c
os ity
ĠQue en
M ove
inc iple
semb le
Ġcirc um
Ġse ed
Ġparticip ants
) },
Ġn ice
Ġdi am
ades h
clos ed
Ġag ency
$ ).
exp and
Ġact ing
ĠG reek
Ġc ategories
op ic
Ġh air
ĠF inal
Ġconcern s
am ber
End point
Ġcr iminal
Ġt ail
) ^{-
% "
7 00
av it
Not ification
S ch
Ġd a
En vironment
vert ical
ĠW is
ĠK im
log o
Ġfac ility
Ġg ender
Ġli qu
I gn
Tr ansport
ic er
Ġcharg ed
Post ed
AN CE
cre ated
ak ed
ĠD B
Ġm o
Ġ$ -
ili ar
ĠD ub
v ol
per m
ĠWil son
ĠS pe
Ġmag azine
g i
Ġbr idge
Ġs ale
Ġmagn itude
Ġyield s
Ġatt ended
Ġge ometry
P UT
ar se
ĠProf essor
Form s
Ġdescri bes
ass andra
b re
t i
Ġvalid ation
br and
}} ^
Ġscient ific
Ġca ref
Ġact ress
Ġscen ario
Ġsubstant ial
The me
Ġden otes
197 7
! "
Ġ@ "
ĠSt an
F ore
æ ĸ
al ert
ĠR en
NS String
an imation
Ġdr ag
y cle
ĠS em
ino is
ĠN avy
C B
ĠCon f
ee k
Ġv ideos
burg h
Ġcon j
Ġcoordin ate
Ġspect ra
tr i
EL D
Ġ ing
{ $\
D ictionary
Ġfa ith
aps ed
ĠC amb
Ġthous ands
ĠA I
Ġopt s
Ġc er
Ġn arrow
ap is
Ġhers elf
w t
re lease
Ġpor tr
cre t
Th us
Ġfeel ing
Ġnor thern
SE LECT
ĠBrit ain
ind u
.... ....
M s
Fl ag
re act
Cl oud
Ġw arning
ile vel
66 66
Ġmys elf
Ġem it
Ġobserv ation
Ġsol ve
Ġs and
ĠJew ish
ĠR ay
Ġs ud
Ġc art
ĠC urrent
Con sumer
Ġcontrol led
clus ions
V D
select or
ER S
ĠA li
Ġman age
y o
196 8
AN T
Ġc as
Ġcon n
Ġhous ing
ict ed
D iv
ane ous
option al
ow s
Ġwhere as
m ag
ĠĠĠĠĠĠĠĠĠĠĠĠĠĠĠĠ ĠĠĠĠĠĠĠĠĠĠĠĠĠĠ
be an
ro g
sub mit
Ġaspect s
Ġtest ed
run time
onym ous
Î ½
ĠM aster
ug s
ex it
E arly
Ġmod al
s ync
re ce
ĠW ales
ĠAp plication
197 3
ly wood
L SP
Ġsp end
run ner
ick ets
tr im
Ġcomp atible
Ġp seud
i Ã³n
Ġtr av
Ġgener ic
Ġag ents
dest roy
Ġin n
******************************** ********************************
iv ated
VAL ID
Ġannoun ce
ĠF ROM
Copy right
S creen
Ġ\ "
Ġhold ing
}^ *
Ġbro ken
Ġle s
Ġfeed back
Ġprep ared
s ome
Ġconsum er
Ġwid ely
ann a
d ark
B egin
P lease
Ġwin ner
el ly
ig ate
Input Stream
WE BPACK
Ġac comp
Ð ´
Ġen um
S ql
Ġsh aring
Pl an
Ġd ance
Ġele ctions
Ġnew ly
Ġpr iv
method s
Ġ' \
Ġ ">
Ġb ind
Ġw itness
IO Exception
as m
ĠE V
Ġmark ets
F UN
D ATA
ĠW IDTH
pon ential
res olve
ĠK r
ĠS om
ĠDes cription
Ġexcell ent
get Value
Ġdec isions
Ġdi agn
k top
Ġt ight
fe ed
ĠO S
N ative
d ig
ail ability
Y Y
Ġh ole
omorph ic
are t
valid ate
evelop er
N ov
Ph oto
ĠRep resent
^{ +
Ġtherm al
ip her
maz ing
! âĢĿ
W atch
m ass
Ġrelationship s
ĠC ov
Ġtem por
or ough
Ġb undle
Ġpolitic ian
Ġindu ced
ĠK ent
ĠC ur
che ster
c ounter
ched uler
spec ific
U D
Ġentire ly
P ack
Ġpurch ase
Ġli ber
ĠFurther more
Ġb atch
Ġin frastructure
Ġlang uages
ele m
Ġb uf
ĠTh ree
V olume
p aper
ĠK ong
: [
Ġbel ieved
Ġf aster
ub ble
c atch
Ġprincip al
ib li
r adio
Ġm ental
IMP ORTED
Ġas sembly
ic ode
C oll
ĠPenn sylvania
ME TH
ĠScot land
ĠS at
ĠÂ »
ic ing
o ir
Ġan imal
rem ark
ĠG ar
ret ch
Ġg irls
AR CH
Ġch ampionship
Ġperform ing
j ack
p res
Ġgalax y
Ġadopt ed
ĠB ad
id ae
ĠM ember
Ð¾Ð ²
Ġmat rices
ĠC am
ĠB al
L android
ĠJer sey
Ġpay ment
v ing
ĠR h
Ġread only
ĠK now
g oto
ĠĠĠĠĠĠĠĠ ĠĠĊ
ĠA rea
Ġteach er
ç Ķ
od ot
Ġinstit utions
ĠT oday
ul s
h ave
IL D
Ġop acity
L ower
Ġcre ative
Ġ ion
D b
opt s
ĠF ull
th rift
Ġm el
Ġret ail
is Empty
v als
con structor
Ñ ĩ
N ational
Ġ ener
sp acing
ĠE gypt
Ġcl usters
Ġposs ibility
ul ner
if ndef
Ġtarget s
Ġm and
U ST
Ġsur g
ri um
ĠD C
Ġconf idence
ĠOn ce
Ġexplan ation
W ait
Ġgu ess
Ġsatisf y
Con stant
ul ating
Ġconc ert
ĠC lient
D IS
Ġs ending
Ġcoun cil
unn y
Ġ era
ĠStr uct
ĠBro ok
Ġlink ed
f all
ĠV ideo
p ir
ĠB a
ri e
Ġprim arily
phot on
Ġaccount s
qu ote
Ġop inion
um a
SCR IPT
Â °
Nav igation
Ġcharg es
E ffect
ĠÂ ©
tr l
ĠA D
ĠAn other
Ġc ert
Pr ivate
Dr iver
Ġv ectors
Ġact ors
re du
Pro to
Ġmass es
ĠBe ach
b atch
ĠA T
pl er
Ġ( [
Ġstrateg ies
ur ations
ORD ER
in son
Ġsubsequ ent
m n
ĠEngine ering
Ġm al
AN G
Ġadv oc
se x
Ġd ire
Ġpl anned
f actory
Ġb ands
{ "
Ġad vent
Ex port
On ce
F ocus
Ġcalc ulation
S G
Ġradi ation
mem ory
ĠC ore
Ġfor t
Cont act
s ig
con v
ut r
or i
Ġin ject
(" #
Ġs ys
ap ore
Ġan cient
ver ter
Ġprogram ming
Ġpro min
Ñ ĸ
Set ting
Ġpers pective
ĠP A
Ġacc ident
ĠMus lim
OR Y
Ġhelp ing
ĠCl oud
Ġmar riage
Ġm ouse
iffer ent
Valid ator
Ġpred iction
le ts
ĠN a
ĠL abor
art ers
typ ename
Ġ ur
Ġt ags
Ġbe am
S V
CO MP
Ġlarg ely
ï¼ Į
Ġmod ify
In formation
Ġ' ./
Ġclass ic
RE G
Ġelectron ic
ĠW rit
Ġsh ares
ĠK n
sc ill
Ġarr ived
Over view
Ġexplicit ly
Ġ' ',
196 9
Ġprior ity
w br
C aml
Ġc lock
con struct
ys ical
C apt
Ġop posite
te en
Ġsche dule
L eg
Ġp erman
Com ple
face book
Ġtr uly
ĠSt atus
b et
Ġl ie
pol icy
Ġmom ents
ill is
A li
am ely
Ġprom ise
Ġ' ';
dr iver
Ġk ick
ag a
c am
plic ated
Ġkeep ing
Ġm igr
Ġcre w
E very
Ġg ene
Ġp a
us et
Ġdisc over
Re al
hav ior
zab eth
c li
ĠS H
ver age
ĠReg ion
Ġcomplex ity
Con structor
AT ED
Ġsk in
Ġbehavi our
trans action
n ic
Ġsu itable
Ġmer ge
ap ol
pm atrix
z ed
Ġpost ed
Ġap ilevel
å ®
Ġb ow
ro vers
Ġb inding
R elease
on ia
mer ge
Ġele v
Ġdiffer ential
Ġrob ust
Ġcompos ition
B L
ĠS ets
re pository
ten ance
Ġproper ly
Ġstat ements
Ġ" ";
Valid ation
ele d
ĠS us
ĠS che
Un known
Serial izer
m essages
ĠA sh
is set
Ġcommit ted
Ġinput s
ĠL ag
Ġunder st
stand ard
ĠB iden
Ġnear by
display style
Ġappro ved
O wn
Ġv ot
Ġconflic t
Ġanal og
Ġexperi enced
ord an
Ġsymmet ric
v olume
) }{\
Ġf ell
Ġw ww
Ġdiv ided
Ġar my
Ġappre ci
ĠV ari
ĠSh ort
B i
Ġphys ics
Ġindic ated
MO DE
ob s
ĠL com
ĠChampionship s
on av
ass ign
Ġalong side
Ġcharacter istics
in herit
ott en
t l
Ġinvolv ing
ĠM O
/ {
M icrosoft
Ä ĩ
ĠW atch
Ġreturn ing
Ġc e
ĠTr ust
197 1
ĠN ick
Sp an
Ġacqu ired
/ ">
Ġgu y
ĠSecret ary
Pl atform
Ġcompos ed
ĠH ard
w d
t an
it ative
Ġin vent
Ġgu ard
ĠBook s
ĠPr ime
Ġresearch ers
; |
ierarch y
z o
Ġas sets
: @"
ĠD ar
W ORD
Ġk id
Ġprof essor
ĠOption al
Ġout er
Ġrec all
Ġ= \
ĠP R
ĠEmp ire
C ard
Ġ' .
? ?
D ev
em it
sub ject
Ġweek end
ĠP ers
Ġmod ules
ic ator
Argument Exception
Ġb its
LE D
ĠGa ussian
ĠF air
ĉ čĊ
St ud
ĠI ss
F older
ĠR ight
res ize
DO M
Ġinfin ite
re le
t ik
ĠGu ard
ĠPro t
en ant
Ġsurround ing
z h
Ġde ploy
Ġel if
ĠĠĠĠĠĠĠĠĠĠĠĠĠĠĠĠĠĠĠĠĠĠĠĠĠĠĠĠĠĠĠĠ ĠĠĠĠĠĠĠĠĠĠĠĠĠĠĠ
Ġengine ering
Draw ing
b ell
os ed
ap ed
ĠD eb
Pre v
} &
Ġm ent
ĠR om
function s
Ġst ats
Y our
ĠSt ory
dep recated
Ġgrad ient
? "
Ġw a
ong o
s pe
L imit
ext end
c raft
Ġcomp r
Ġmin ute
epend ence
} )$.
map sto
b ury
ĠCo q
ĠX ML
c ue
ĠF uture
F inally
ĠL oad
H tml
ĠAg ain
an th
li bs
Ġcre ates
'] );
l ab
ug by
Ġh abit
Ġcriter ia
196 7
ĠW rite
in er
let ter
Ġloc ally
ĠCont ent
G ER
a udio
Ġf ake
Ġcollabor ation
() ),
Id entity
Ġin ternet
ĠEast ern
pre c
)\ \
Ġplatform s
< <
ĠW IT
T w
force ment
ak i
Ġexc ited
s ass
ear s
Ġcop ies
ar ity
Ġmov es
An other
gener al
ĠS uch
Ġrel ax
Ġbr ings
Ġte aching
ryst al
Ġrecogn ized
Ù Ĩ
im m
ĠKore a
ur able
Ġload ing
t f
ul i
Ġal ter
ub le
D rop
ist ant
ph ia
IN S
Ġup load
Ġw inter
ĠChild ren
}} ^{
for Each
Po jo
Ġenh ance
19 40
ge o
direct ory
ĠL atin
A xis
Ġext ent
alyt ics
Am ount
Ġdr am
h box
Sh ape
Ġr is
Ġ_ ,
Ġcol ors
ĠB attle
ĠPro duct
dis able
ĠN FL
Ġseem ed
Down load
ĠCon nect
å Ĳ
19 64
l ower
const ant
Ġap art
ĠC G
$ ;
ĠPub lished
12 7
ac ent
ph rase
Ġprom pt
and o
Ġcomp re
UN D
> "
m k
F inal
RE E
T L
Ġ" ",
Ġhom es
ĠOff icial
int eger
Ġas ympt
Ġcommon ly
Ġt um
ymmet ric
Ġvari ation
Ġhe av
ĠIl legal
vari able
Ġpe ace
Ġcol span
G N
Ġobject ive
Ġclos er
b p
AT CH
METH OD
clud es
ĠIll inois
Ġindust rial
Ġemer gency
re lation
Ġcommit tee
Ġport ion
Ġfeat uring
Ġintegr ated
LO C
Ġg ar
rypt ed
Ġtheoret ical
adel phia
Ġd ust
Ġca ught
Ġa st
z y
w ill
Object s
Ġnot ation
b at
Ġman ifold
ps on
Ġcalcul ations
SS L
ĠRec ord
Ġdec or
ĠOn line
ĠCl in
ĠCon serv
ul ing
Ġdro pped
W est
ire ment
M ost
ĠR od
ĠI T
( .
ĠR og
Rem ote
ĠSt andard
ĠPh ot
ĠW AR
ĠF ac
Ġm useum
lic ense
Seg ment
Ġro ut
Ġeffect ively
ilib rium
\| _{
Ġinvestig ate
Ġoptim ization
19 30
Ġmov ies
s at
ĠP ut
ĠSt ream
ĠC at
ĠG overnor
Ġcom edy
ĠH om
Ġwould n
Cont ents
u ent
Ġd ot
Ġdisplay ed
grad ient
Ġg rew
Ġserv es
Ġrecomm ended
AC H
ĠH ong
Ġauthor ities
G ui
}( {\
Ġselect or
Data Type
Ġclos ely
Al though
Ġc ash
Ġa wards
F P
f etch
Ġhon or
Ġqu adr
cuss ion
view port
Ġrecogn ition
Ġfind ings
Ġj s
h bar
ĠOx ford
B asic
Ġm ach
ĠPr ince
Ġtyp ed
ĠP C
Ġearn ed
us al
comp are
nes ota
ex tra
ĠSt eve
comm ons
å ħ
Ġstop ped
C enter
onom y
a is
Ġincre d
part y
L Y
Ġpr inciple
196 5
Ġvoc als
Ġsup posed
in ating
Ġscal es
Ġpro jection
Ġtechn ologies
w arn
Ġag ric
ĠRes p
Test Case
ĠCor poration
Oper ator
ĠAb stract
ach uset
E st
hens ive
Ġr ational
Cle ar
Ġcheck ed
T ok
achuset ts
ad ed
;| &
W ord
Ġe ase
ĠT urn
includ ing
ast ers
p ur
Ġscatter ing
Ġorgan ized
P ers
Ġab und
ĠCh air
ĠC ond
Ġcook ies
Ġhot el
pl oad
Ġrec overy
ĠV en
Ġreport ing
Ġphot os
Ġfight ing
Ġdecl ared
Ġf ails
ĠV irtual
Ġre nt
Ġmet rics
eg o
Ġscal ing
Ġst orm
rt l
Ġsum mar
Ġconst ants
Ġo scill
ĠL ook
resp ons
Ä į
Ġst ores
ĠC as
Ġ urban
Ġsche duled
A ST
amp ions
ĠB ell
19 45
Ġp owers
Ed ge
Ġind ices
od s
agnost ics
Ġf at
st ances
)$ -
Ġident ifier
ĠHamilton ian
Ġwest ern
Res olver
ĠB on
Depend ency
] }
Fr ames
Ġgraph s
ab ric
IN ST
Ġm it
R ate
[ -
osoph y
Log in
pro position
R aw
Ġadv ice
ir ms
al ink
ĠMin istry
ĠHistor ic
Ġcomplet ion
Ġa thlet
ir th
ĠT y
ĠC ount
Int roduction
ĠSt ock
Ġbel iev
ig gs
AR D
onav irus
A nt
ĠUn ivers
Ġsc r
ud a
Ġsign s
Ġwh atever
v ard
rupt ed
Ġsk y
ĠC ost
cont ents
ele ments
t ouch
is ely
Ġ' ''
Ġs we
Ġdef end
> )
Ġl ists
Ġl umin
er ic
Com plete
scal a
Ġrec ru
olog ist
Ġstand s
ĠInst ead
Ġsp ons
em an
Sy ntax
ate st
ĠN C
19 20
C ONT
O ct
ĠEd ward
Ġvol unte
) }}
Ġc ro
Ġwe ights
Ġestablish ments
Ġco al
New s
ĠS oviet
ĠUn it
Ġgrant ed
E Y
ĠTh rough
gener ate
ĠC art
m obile
ĠAp ache
link ed
Ġprom ote
y ard
Ġperm issions
Ġf mt
Ġun able
Ġauthor ity
Ġd rawn
r ank
riz ona
Ġapp lying
Ġs ym
The orem
Ġl ose
Tim er
Ġs ympt
cept or
Ï ĥ
ogene ous
Ġs ounds
Us age
Ġatt ached
Ġl it
Ġaff ord
ĠCh annel
al so
Ġ{ %
Ġdeliver ed
om atic
Ġcon clude
ser ies
Ġcomp liance
reg on
ĠH un
Ġpublic ation
ĠPhil ipp
Ġb ass
Th row
ol ut
con sin
l ap
Ġcomm ands
B order
oc cer
Ġpredict ed
Not Found
Ġfif th
st ates
Ġenc ounter
ĠAn th
osp it
Ġm ort
Ġs ql
d k
ĠColumb ia
ĠB oy
B ottom
Ġwatch ing
ĠB ox
Ġtemper atures
/* !
con vert
Ġg lob
ĠB C
Bl ack
m ms
Ġs ync
ow a
unn el
Ġm ail
Ù Ħ
Ġuncertain ty
Ġest ate
Ġbi as
W I
sequ ence
it i
Ġhous es
F n
el le
ĠSt ation
cc cc
li x
ĠV ill
h ot
Ġv irus
get Id
m ma
B atch
Ġ_ .
Ġperson nel
s un
rel ations
ru ption
ĠEd itor
ĠR os
Exec ution
ou red
he im
And roid
." ""
Ġins urance
por ter
M aster
} ))
ĠSe ason
Ġc atalog
Ġsequ ences
Ġsc ores
Ġ" .
ĠK enn
ĠF ox
ĠOb serv
Ġst ability
Ġattempt s
Ġamplit ude
Ġpr ivacy
ir k
Ġfl uct
ĠTor onto
Ġexper ts
arg uments
**** **
19 66
m oment
B ased
Ġman ifest
C LASS
= $
g ies
T Y
ĠS anta
Ġcho ices
Ġex ports
om y
Ġlog ging
ĠL ew
E val
En v
B al
ra ham
u um
ĠL ow
ON G
A I
Ġepis odes
Ġp ed
S em
ĉ ĠĠ
Ġh op
sh al
ĠCoun try
Ġm m
Ġdem ocr
st age
Ġexec uted
B en
pro gram
B inary
ĠSup reme
head ing
do i
b ec
are st
tain ment
ut ors
g if
ĠRem ove
Ġsub mit
refer red
um ps
Ġadd s
Ġconver ted
Ġw ire
Ġjust ice
Ġcapt ured
Ġr ural
Ġs now
Render er
Ġre new
ĠAcc ount
Comp iler
In ternational
ĠP en
n ative
oun ce
w ing
nt ario
Ġ$ _
Y es
Ġfav our
STAT US
Ġstat istical
j et
An notation
0000 00
O F
Ġpay load
D id
Ġst yles
Ġpotential ly
Ġex cess
ĠÐ ²
Ġsup erv
g z
Ġb an
Ġbring ing
ĠSh ould
> ;
Ġther apy
Ġpass ion
ff f
Ġlog ic
Ġc overs
Ï ģ
Ġs ac
se ason
Ġtrans mission
ĠA k
Ġar ms
t le
Ġs ocket
Ð ¿
Ġconver gence
Ġcrow d
ĠAd am
Ġsim ult
Ġneut r
ĠĠĠĠĠĠĠĠĠĠĠĠĠĠĠĠĠĠĠĠĠĠĠĠĠĠĠĠĠĠĠĠ Ġ
ik a
ific ial
p ad
HO ME
External Task
ĠB efore
N ET
E P
Group s
3 60
Ġrun time
nob r
ation Token
form ed
Ġclass Name
Ġc ab
ĠH ou
C ounter
assert True
Ġsepar ated
Ġeven ing
Ġre str
ĠProv ince
H L
pre ne
B Y
Ġp ipeline
u uid
Ġt error
Ġwe alth
ic ious
olv ing
ĠG ro
Ġ> >>
v endor
# {
uck s
g re
Ġfrequ ently
ĠS M
ub s
Ġs quad
Ġhand ling
ExternalTask Pojo
ĠA venue
Ġ[ \
Ġbreak ing
Ġrespons es
ĠSer ver
ĠT ool
D ATE
tik z
Ġbel ief
Ġb odies
u ction
des ign
P resent
ĠEx pl
A UT
) }_{
ĠL anguage
u y
A SE
sh a
Ġfam iliar
Ġr ig
Ġprep are
bo ost
Ġtra ject
ct ic
ex pression
p in
ĠDE FAULT
ĠJ ean
u able
qu ant
\ {\
ĠB E
fort unately
alt Color
ĠV iet
ĠB and
Ġinstit ution
Ġpolitic ians
Ġrepresent ative
Ġinter act
Ġpro test
Ġpost s
Ġs pl
Ġread ers
p end
ov al
ab c
p ages
Ġwor st
Ġbul k
Ġ" %
f mt
ĠPub lish
int on
Ġlow est
Ġimprov ement
Ġent r
LO W
Ġcharacter istic
she ll
con nected
ĠPort ug
Ġcon version
Ġcon tribute
Ġin fer
Ġfl uid
ot i
M aterial
Ġincor por
_ );
F uture
te am
Ġa f
out s
g on
Ġexpl o
Ù ħ
ĠInst agram
P G
Ġl osing
par agraph
ĠH o
Ġvers us
re prene
T l
RE D
Ġint ent
Ġext ensive
&= &
ĠSim ple
el astic
$ ~
av ailable
I AL
j oint
Ġ Å
Â ©
Ġy ards
' (
ag en
e en
Ġrail way
Ġap ps
ĠI L
ĠSt aff
Ġp apers
amazon aws
Ġprec ision
ship s
read er
Table Row
S outh
is or
Ġend point
A E
ac er
ĠSing apore
Ġg reatest
ĠD NA
Ġdec ade
Ġvacc ine
ar on
ĠI V
Ġent ertain
Ġcomput ation
valid ation
MM ARY
Ġed it
an alysis
Ġhum ans
N UM
Ġdef initely
Ġ ille
s ch
Un iversity
ĠPr int
á º
s r
Ġend ing
= [
S ol
Ġpract ical
Ġre venue
Ġdo ctor
Ġd elta
We ight
Ġgu ys
Ġre verse
Ġtit les
p id
eli hood
ĠD utch
Ġinterest s
Ġon going
ĠApp end
}} $,
Ġintrodu ction
Ġhealth y
Ġimmedi ate
ari os
al ty
out heast
it led
ĠAss oci
H is
Ġl oved
g ems
j ax
Process or
Ac cept
Ġgen us
B ool
M IT
Ġd ry
d irection
Ġign ored
S a
Ġ( @
glyph icon
IC ATION
Ġ Ñģ
re po
ĠA P
requ ency
ĠT ree
Ġv o
me an
Ġexpos ure
Ġa mazing
col lect
can vas
Ch ain
b lob
ĠR aj
we ek
Ġoper ated
Ġdepend ent
Ġgener ator
M ag
ibr aries
ĠYou Tube
enn es
PH P
ĠEli zabeth
un es
Un ited
ĠC SS
Ġar c
Ġ' %
Ġp ra
DE F
] ))
ib ilities
op her
ĠF C
ĠDav is
Ġrec over
L ike
Ġnecess arily
ĠL td
Map per
rem ote
ĠD ouble
ĠP ack
Ġmin ister
ĠVAL IGN
com pute
Ġcontem porary
ĠM ock
fr ag
ĠConfig uration
N V
ok ing
Ġpercent age
}} $.
Ġhistor ic
ĠMass achusetts
Ġstand ing
do or
Ġsh ips
ane ously
St atic
ĠBer lin
Ġw ins
et ary
th rough
Err ors
W ill
R out
St ar
Ġint ensity
bu ilt
com put
Ġult imately
ateg or
Ġsud den
Ġdr ivers
Ġs ed
if ted
Ġa ria
ĠWh ere
er os
Ġshoot ing
ĠColor ado
Å Ĥ
ens itive
B ounds
Ġch apter
Ġinitial ize
Ġalle ged
p kg
b us
Ġpl ate
ag ues
HE AD
Al so
im itive
C ur
er es
Ġdestroy ed
Ġor bit
sc ious
> %
Ġd iverse
pt ic
ĠAdd ress
Ġworld wide
Add r
ask a
and y
P red
ĠAut o
A SSERT
Ġresist ance
= %
ow nt
Ġcoeff icient
Ġsign als
ant om
od o
ĠG iven
TR Y
Ġlimit ations
Ġsubject s
Ġcorrect ly
Ġindic ating
Ġsatisf ied
P res
ell ite
b asic
re v
Constr aint
Ġassess ment
Ġour s
In sert
Ġcru cial
yd ney
lo om
Ġsp ending
co hol
Ġv on
Ġe at
NO DE
Array List
ap ple
Ġinter ior
C r
ĠC reek
Ġemploy ed
Ġrespons ibility
ĠM att
ob serv
: '
Ġv ulner
196 2
part s
Ġp aint
ĠAlex ander
( ['
anch or
Ġf ly
Ġexpress ions
D avid
Ġm ess
Ġperform ances
he ets
R ob
ĠA ud
il bert
Con sole
ĠMan ager
eder ation
ĠO s
Ġsil ver
Ġleg end
viron ments
ak s
ĠPro p
Ġeval uated
ĠAn alysis
m ac
f b
ĉĉ ĠĠĠ
log ging
ĠAir port
enc ode
en ers
S ite
Ġco inc
.* ;
ĠWAR RAN
B rit
Ġsever e
Control s
HER E
13 0
Ġh ide
Ġim press
Ġin hib
s quare
Ġdemonstr ated
ĠExec utive
at on
ro uter
Ġt d
create Element
pos ing
R C
l int
ĠTr ansport
str ings
olut ely
Dep recated
ox y
Ġp ri
rop ol
Ġdefe ated
Ġm es
ĠT ok
ers hip
Ġa id
Ġp un
ly n
Ġdom estic
196 3
S F
F amily
eng ers
w ik
rel ative
ĠST ART
u ating
ĠT ag
Ġcont rovers
Null able
ĠD ark
D en
ic ian
ĠD elete
ĠC ancer
Ġfe els
ether lands
Ġt ack
Ġv otes
ist ogram
ad oc
ĠRefer ence
C oin
Ġconcern ed
Encod ing
. âĢĻ
Ġf ib
ĠC red
w orth
FF ER
ĠL ic
hold ers
idel ines
Ġab ort
end a
Ġh aven
ĠMethod s
ĠP ot
Ġcamp us
AT TR
Ġdisc rim
ĠB all
ou st
Ġtop ics
ĠS ant
Ġh a
i y
Ġf ul
è ¯
Ġdis ap
Ser ies
H older
Ġplace holder
Ġmed ian
FI ELD
m ad
Ġrestaur ant
Ġfac ilit
ĠR O
Ġcover ing
c fg
in os
ĠMin nesota
" },
Ġlett ers
ä º
s ym
_ -
ĠWis consin
u z
pro b
en ess
CON FIG
us r
f p
m apping
St andard
ĠSt ore
W ell
C ursor
ĠStep hen
L ibrary
Ġcor porate
Ġaccess ible
enn a
K it
Ġim g
ile y
Ġdecre ase
U K
] +
Ġover flow
m ix
com plex
Ġabs ence
ce st
Ġdep os
al gorithm
ch art
Ġcol our
example s
her ent
Ġas set
ĠSU MMARY
r ang
Ġprogram me
an z
ĠS C
Ġquant ity
Th erefore
ä ½
Ġm arg
Ġdec ide
patch er
Ġident ical
ãĢ Ĥ
Ġwor se
Ġocc asion
Ġan chor
ĠSt adium
Ġhe aring
ĠPhil adelphia
R T
Ġre pository
Ġor th
MA P
Ġint elligence
Ġconvers ation
Ġt er
pl ane
ĠO regon
cl ine
Ġp atch
Ġcan cell
Ġs in
ĠA C
Ġcon sec
Ġst im
Ġsol o
ĠC hen
Ġ< -
ĠR ow
cod ec
sh are
is ition
ĠMount ain
Ġk it
Ġwork er
% "><
Ġlist ening
Ġpe er
off s
T AG
re peat
Ġgu est
Ġout come
Ġmount ain
/ (
ĠAnt on
Ġpresent ation
H C
ul pt
ĠDes pite
ĠN ever
ĠB ru
ag ma
ĠG reg
se lection
Ġad ult
Ġf old
"> (
Ġcomput ing
Ġp it
Ġmax im
Ġcap able
Ġ{ },
Ġsens itive
ĠHar ry
a ug
i at
Al loc
Ġdemonstr ate
th ur
t ensor
r pc
ĠTh read
ĠMag azine
ĠB BC
stats models
ĠP os
Ġbase ball
Ġyoung er
Ġn amely
ĠT am
link s
Ġn a
plic ity
ĠK EY
Ġthrow n
atur ally
Do ctrine
n os
ip age
ph ase
ĉĉĉĉ ĉĉĉĉĉĉ
R UN
ĠPy thon
C ent
) +\
Å į
Ġtr ivial
Ġclub s
Dep th
ĠS on
Ġscen es
M ac
Ð° ÑĤ
Sign ature
con g
Care er
Name Link
Ġc ensus
R andom
ĠPol and
F oot
ĠGr ant
B inding
Ġin verse
EN V
ĠA ge
Ġtable s
ig a
tim estamp
Ġso le
M essages
ĠIs lands
ĠC ulture
Ġm ob
r ame
Ġne uro
Ġmat hemat
Ġtri ple
d jango
Ġret ired
) -\
ch ant
Ġdoub t
Ġt on
A X
Ġc odes
Ġext reme
Ġmod er
Ã º
ĠDis ney
Dr ag
Ġaff ili
RA Y
ĠL ady
Ġpredict ions
ĠF ish
å ¤
__ ["
r ink
Ġliqu id
Ġsatisf ying
Ġin herit
He alth
× ķ
az e
S napshot
Ch rist
cont act
Ġfound er
t re
ĠChe m
Ġv eg
ri ent
Ġgu id
196 1
i ors
Ġex ponential
10 2
c ross
Ġconcent r
Ġb old
arch ive
ĠQu ery
om m
ĠC ru
column s
T ouch
Ġsp ac
class Name
j u
ta ke
Perm ission
Ġexp ensive
j Query
Tim estamp
Ġarrest ed
f ake
R ot
(" %
Str ategy
ĠE ric
Ġinvest ors
pre vious
ĠN eed
ar ry
ĠClass es
ĠOb ama
Ġf etch
Ġmolec ular
II I
Ġdr iven
ugg ing
Ġthe ories
te ction
Ġw alls
S ongs
Ġexerc ise
Ġc raft
Line ar
d ash
com b
} )$,
ach er
Ġb ond
Ġdat asets
Ġpres ents
ĠBuild ing
at iv
Ġc ards
Ob server
load ing
L oop
G iven
Ġessential ly
ĠH ung
$ ),
OR K
Ġdef ines
ĠD ir
ĠA rizona
M obile
med ium
A ug
pro duction
Ġpre ced
C md
Ġsomew hat
Ġvari ant
Ġ\ &
ĠS ong
Ġst ages
ĠD onald
Ġpre gn
Ġcopy right
F eed
Ġsubsequ ently
Ġd ates
ixt ures
Ġsing les
go od
sp in
l u
ff ee
Ġse ats
j b
tim eline
ru les
Ġp ixel
Ġs ampling
ĠIn f
ĠM arg
Ġacc um
Col lect
uff ers
not ations
Ġl y
ĠÐ ½
ĠJ son
ĠB udd
h al
Ġre ward
apt ers
f loor
d ays
Ġh its
ĠRes ult
ĠW hether
ĠD er
ĠM oon
ĠR oute
ĠW ars
Ġqu eries
Ġvis ited
op am
Ġst one
is lation
Ġjud ge
w as
Ġv eter
ĠM D
ĠS ab
Ġoper ate
ic ular
ĠCon text
r ar
ĠT al
et al
ĠVictor ia
ĠO Caml
B IT
Ġhost ed
D irection
Ġsh adow
( ()
V ICE
Ġc lip
riter ia
sol r
Ġout comes
ĠM atch
Ġconcent ration
j an
11 1
Ġcont est
ĠD am
L i
S W
lic enses
En c
ever al
m iddle
Z one
Ġspe aking
iz ers
Ġequ ality
oriz on
Ġresult ed
ĠL at
Ġconsequ ence
Ġcomput ational
Ġar ts
Row s
OP T
Ġsold iers
d anger
}$ )
Ġdis crete
AT OR
Ã¡ n
14 0
ĠB Y
M usic
LI ST
ra q
99 99
Ã© s
C ity
un lock
ĠBuild er
Ġv irt
ĠS ite
ars ing
M r
e ah
ĠF all
ĠFore st
p rom
Ġb attery
Ġf older
s heet
Ġv ess
ĠD ead
min ipage
B ro
ession al
Ġth in
Ġdis able
Ã© e
! \
Ġen umer
ĠW inter
act ual
UB LIC
Us es
ĠJac ob
C ancel
in ch
b ounds
em bed
reg ular
l ot
ĠM ir
Ġteach ers
Sh ared
il k
Ġreason able
ĠSystem s
Ġw aste
Ġaccom pl
R ules
Ġpromin ent
Ðµ ÑĢ
gener ator
ĠO ntario
Ġassist ant
Ġanal ys
Ġcon clusion
ĠPh oto
at ibility
Ġtim estamp
Ġref ers
Ġj et
A bs
Ã ¸
Ġpar a
ĠCap ital
_ )
A ustral
Ġwe ar
Ġp ref
et ies
Ġn ob
po inter
Ġre nd
Ġ ----------------------------------------------------------------
Ġpass es
Ġweap ons
Ġto kens
Ġput ting
Res et
ĠCont in
Ġsch olar
Ġte ch
Ġd iversity
LE MENT
Ġcon d
sp irit
as p
| _{
Ġf s
de ep
ĠMod ern
Ġprec isely
Ġdanger ous
CO MM
ĠN ative
c ers
aw ay
Ġrepresent ations
~~~~ ~~~~
Ġh all
ĠH ay
M F
ĠR ose
es ides
i ac
Ġpro spect
t frac
Ġb ought
Ġ ig
Ġstri ke
ell s
Ġhundred s
S plit
Ġdrug s
\ ;
ĠT ro
ĠOut put
SS ION
rop ical
Ġad ults
Ġmonitor ing
Ġpres erv
or er
y ers
Ġask ing
Ġassist ance
ĠF ord
Ã ł
å Ĭ
ke ep
c assandra
Ġf aces
Ġfl u
st eps
Ġtransfer red
st ud
F N
b an
igen ous
Ġ ri
Ġfac ulty
ĠScott ish
Ġseek ing
Ġne ither
edd ing
ĠB rian
ound ed
ann y
ĠS P
elli j
er red
195 8
eg ration
ĠT arget
H D
ĠRes ults
L ib
Ġcomp iler
map s
ac on
i em
l ive
x sd
ĠR ad
ĠJ ordan
pl ain
ym ph
it is
ĠM iller
Ġb at
Ġv ice
Ġh orizontal
in x
: }
es is
incip al
ar l
ĠRes ources
Ġ{ $
Task s
bind ing
Ass et
Ġder ive
all as
Ġcoll apse
ĠL oc
Ġnewsp aper
19 44
LA Y
Ġpers ons
Ġtem porary
1 12
> '
IN TER
arr ing
Ġ-- ></
Ġsent ence
del ay
Cont in
s peed
}{ (
Ġel ig
C ALL
int ellij
Ġincreasing ly
a us
ĠF ollowing
ivers ary
B el
195 9
Ġw elcome
B et
Ġ$ |\
S ports
æ ķ
UE ST
o or
P ress
math op
Ġscient ists
ĠL es
Or iginal
ĠH al
C ross
Ġch ampion
R S
Ġrestrict ions
Ġ-- -
g ar
ic ians
uplic ate
Ġgr avit
ĠE ll
pear ance
Ġpro ud
%%%% %%%%
S witch
ul atory
ĠM S
Ġso il
b ur
Ġchalleng ing
f av
b oot
Ġinterpret ation
u et
ĠD A
ĠN AS
Ġconsum ers
to Be
Con tains
Ġman ip
Ġim possible
iv als
sc ore
Ġeduc ational
Ġapp lies
ĠBel g
m ay
55 5
Ġ` ``
Ex ists
ĠInd eed
Ġne ural
ĠOff icer
m x
Ġex posed
âĢĻ ,
is ode
c overy
Ġofficial ly
ĠCre ates
Ġdecom position
Ð ·
^ ^
Ġt aught
Ġinter section
}{ |
ĠMe an
th ere
ĠA mb
urren ce
ĠM oh
Ġcomp ens
> [
Ġdefinition s
Ġhard ware
st rip
Ġleg isl
è ¿
ĠT ake
Point s
Ï Ģ
Ġprefer red
ĠR eb
Ġwin ners
Ġ& #
10 5
195 6
Ġwrit es
sw ing
Ġag encies
Fil ms
th umb
| }
Ġpro files
Ġread s
br ace
Ġsur ve
a ui
) ",
Ġprovid ers
ĠS ydney
Ġh un
over ning
ak h
Miss ing
Ġp ixels
P ower
ĠY es
ĠI mp
Ġir on
ĠR ome
ĠN etherlands
Ġadvert ising
ĠL ang
ĠAdminist ration
Ġab andon
ĠSk y
Fail ure
UR CE
ct ree
Ġsl ot
ub er
Ġf i
Ġwindow s
ĠF ix
ĠHou ston
ĠM ill
Ġy ellow
Ġcl im
Ġrough ly
ĠSch olar
LE TE
ĠP ur
o a
Ġf estival
Ġun iverse
Ġpack et
i pl
R a
per iod
Ass ociation
Rev iew
ĠBr ad
Ġrespect ive
ĠCont act
ens ities
ist a
> ${
Ġreg istration
Ġdes cent
get Instance
TableRow Color
d ynamic
re present
tool tip
! </
ĠR yan
Ġent ropy
Ġcan onical
ĠN ations
ĠK a
ick y
ĠGold en
Ġin clusion
Ġst ead
ial s
Ġpack ages
Ġorient ation
I Z
i per
Ġpl as
Ġland scape
A pr
Ġexpl ains
W IN
Ġm atters
Ġwill ing
ug ar
Ġw x
Ġca using
ĠOlymp ic
ac o
Ġdisc overy
ĠG allery
y cl
ĠM L
Ġpro posal
ĠF A
jack son
ĠArg ent
w allet
ĠP romise
Ġb os
sd k
Ġinnov ation
ĠEconom ic
or se
Ġt ip
Ġm ile
Ġal ias
Ġassum ptions
TO M
ĠD or
im p
h ang
Ġtro ops
M ich
f ac
styles heets
W ho
Ġconv ex
ĠE dition
O ld
math it
(' <
at io
qu ir
ĠS end
Ġpurch ased
ast s
ĠCh all
ĠPl ace
Ġprom otion
al gebra
Ġsustain able
Del ay
Ġher o
Ġat trib
h ill
bour ne
A z
Det ector
$ {\
Ġro ots
ĠD oug
ze ch
Ġsupp lied
Ġiter ation
\ /
nt il
Ġpoint ed
Ext ensions
Ġc ub
Ġbig ger
^* $
Ġch unk
c ancel
ĠS ri
Ġprodu cing
Ġdeb ate
writ ten
ĠKore an
Ġunderst ood
F OR
ARN ING
Ġprov ince
c u
195 7
ĠS ep
Ġcheck s
__ )
DE X
be ans
U pload
d st
Ġparticip ate
form er
Ġ uri
ĠTe ch
Ge ometry
Ġaccom mod
ig ator
Ġv it
b undle
)) $
S epar
Pro of
ĠE P
ĠL ev
Ġvisit ors
not ify
er ior
: =
t ail
Ġ( %
ant e
Ġcontr ad
Ġop position
ort s
enc oding
is o
Ī Ĵ
h ook
": "
Ver ify
Ġinvolv es
ut ation
19 48
ĠK at
ang ers
Ġb aby
Or gan
> ()
ops is
Ġtext ure
H er
ĠU RI
Ag greg
h istory
ĠL ater
Ġcomb at
1 16
ĠO P
Ġconsist ing
Ġb anks
Ġf erm
ĠC orn
ben ch
ul p
Met rics
Ġrepe at
\ )
Ob serv
Ġsc oring
r ather
Ġrepl acement
Ġsympt oms
P romise
Com put
Ġm outh
ĠV eg
the less
ri ers
Ġg ained
big l
ĠL java
Ġliter al
Ġc b
Aut hentication
Ġconserv ation
Ġuser name
ĠB at
Decl aration
Ġgener ating
Ġprodu ces
ĠHe art
ph y
P a
st e
Column s
Option al
c lip
Ġbr ands
c ref
ï ¿
c ow
Ġv ast
Ġd eleted
qu es
Ġm acro
cri bed
t iny
H ave
L ife
RE CT
Ġfact s
UN T
ĠHot el
Ġt urb
ĠSur vey
Ġfor get
us cript
max cdn
à¤ ¾
ustr y
ĠT ai
Ġmiss ed
Ġhon est
ĠM it
Ġsu it
aw esome
Group Name
}} )
itect ure
sl ash
Ġdevelop ers
ang el
IL ITY
Ġs ight
Ġsufficient ly
ip edia
Ġcommit ment
Ġqual ified
Pl ace
ĠS ound
Ø ¯
re ll
app oint
od a
Ġy es
âĢĻ .
Ġinf lation
>< !--
Ġterm inal
Ex pected
lin ux
Ġatmosph ere
A ctions
ock s
ĠDO M
IN K
Ġf acing
ĠInd ones
Ġmanufact uring
10 24
in ction
roll ers
Ġtw enty
Arg uments
ĠĠĠĠĠĠĠĠĠĠĠĠĠĠĠĠ ĠĠĠĠĊ
Error f
ul us
S ources
P acket
Ġdis p
ĠFr ont
S ame
================================ ================================
Ġim plicit
Open Tl
En able
Ġemph as
T X
met ic
Ġmechan isms
Ġinfe ction
dist ance
M c
on na
Ġgood s
m ount
Load ing
un ing
igh th
Ġunivers al
Ġdire ctions
Output Stream
Ġcr ash
Ġreject ed
h our
an im
ĠE ffect
itor ies
t z
V irtual
ct ors
long rightarrow
ĠL ind
rem arks
ast y
Ġal pha
() ">
Des ign
, {\
Ġmix ing
Ġrequire ment
get String
Ġg iant
Ġv m
ĠCons ider
big r
ĠO cean
w hat
F act
Ġte en
Ġcl one
Ġste el
Ġs elling
v y
Ġr ating
w iki
B ad
G a
Ġp arsed
ymmet ry
tool bar
Ġc ertificate
qu arters
Ġd t
ĠP rize
}\ ,\
h d
Ġrapid ly
D TD
$ :
ĠAg ency
Ġhor se
W arn
Ġro utes
ĠSer ial
× Ļ
b inary
avel ength
r ig
Ġfr ames
ĠAnd erson
ord on
ort heast
Ġtrad ition
=" {{
Re act
Ġaut hent
Ġse es
ĠDo es
Ġd ense
Ġqu iet
ĠF ellow
late st
Be en
U CT
clos ure
Ġden oted
Ġle ct
Ġarr ang
Ġr ide
Ġeast ern
Run ner
Ġthought s
ĠK al
19 55
ag g
Ġgr avity
Ù Ī
Ġd iver
Ġg ro
Ã ¥
E v
195 2
Ġfor g
H A
d on
Ġr aces
ĠĠĠĠĠĠĠĠĠĠĠĠĠĠĠĠĠĠĠĠĠĠĠĠĠĠĠĠĠĠĠĠ ĠĠ
ĠK evin
BU FFER
script style
Ġw ing
Ġshe l
Mon th
Ġ" '
Ġstrong er
ut ter
app y
+ (
neg ative
f m
Ġtrack ing
M ust
at ivity
Ġredu cing
ri ends
iev al
ank a
Ġb ug
Ġ- =
ĠEx press
Ġperman ent
Ġk in
Ġres olved
L iteral
google apis
Ġturn ing
ge br
includ es
Ġcompre hensive
d am
t oc
ic ide
refer ences
am ount
Ġcomple ment
Ġimp lied
S pe
Ġin structions
Ġco ins
tain ing
ĠAct ive
Ġcon form
O h
ĠT OP
ĠL evel
ĠSen ior
Ġcap abilities
Ġtyped ef
D iff
Exec ute
l ined
v ia
ĠD ream
F i
B M
ĠP a
App Compat
Ġle af
ĠStud y
Ġequ ilibrium
N orth
(" \
O wner
ĠLew is
ï¿ ½
ib ration
G it
Ġexcit ing
Ġelect ro
M illis
ĠH an
Ġwalk ing
Ġmag ic
â Ĥ¬
ĠFore ign
Ġ' "
Ġdes criptor
G IN
10 4
BU ILD
le ton
-------- --
____ ____
ĠN um
Ġsymbol s
Ch o
Ġcon crete
19 42
âĢ ĭ
er d
ĠDe ath
RA ME
Exec utor
LO AD
Con verter
Ġup coming
Ġmed icine
D M
ĠP it
ign ore
T ele
Ġrot ate
c ursor
Ġdraw ing
ĠS A
ĠOper ation
ĠPr ivate
Ġh ockey
pr agma
n l
Ġadministr ative
Ġor b
L icense
Ġ| =
An alysis
ĠCamb ridge
ĠPl aces
Ġbel ongs
../../ ../
mult ip
Serv let
Ġstream ing
ĠS av
Ġre in
ing ham
ĠL iter
dat etime
aw are
ID E
ĠAff airs
Ġpil ot
che stra
Label s
to ctree
Ġfil ters
Ġk illing
ĠHol lywood
Ġcan vas
ĠR oss
ĠU l
ĠIt em
Ġembedd ed
em ony
Ġpop ulations
ĠS in
Ġpro to
Ġterr itory
Ġa apt
b est
ag an
ĠJ am
ĠM obile
Ġred irect
ĠH art
Ġa cknowled
pre d
Ġhypot hesis
Ġloss es
Ġabs olutely
rop ic
Ġle mma
Av ailable
ĠJ S
ĠCor ps
ĠBr idge
iz z
pro fit
re nt
w ave
Ġsp oke
Ġamount s
h us
W in
ĠPrem ier
Ġsuff ered
ĠĠĠĠĠĠĠĠĠĠĠĠĠĠĠĠĠĠĠĠĠĠĠĠĠĠĠĠĠĠĠĠ ĠĠĠĠĠ
ĠP DF
Ġsurg ery
Ġh ur
ĠO t
G ood
ennes see
ĠN az
Sh ader
Ġbo ys
Ġin tern
11 5
Man agement
ĠI raq
g raphics
Ġdeb t
ĠI ter
Z ero
our i
el lect
Ġo x
al ias
second ary
cre ment
19 39
ĠE mer
ĠCol umn
ab a
ĠMar ia
u j
Ġfor th
Ġest imation
Ġtri als
i able
re ason
Ġch rom
Ġvict ims
Ign ore
f older
OL D
f ish
i ot
Ex tra
ch arge
Ġcirc uit
a ux
Ġentertain ment
> ../
ĠE s
E ven
ent ed
Ġgr ade
vert ex
Ġb are
Ġ' _
M o
Ġgo ogle
Bit map
b one
ĠS mall
Ġshe et
no frame
Ġlog in
ĠK ansas
Ġlo an
B T
Ġp ending
Ġd elegate
Ġhy brid
b matrix
arg o
Ġleg islation
Ġleg acy
ĠAtl antic
ordin ate
Ġener gies
( /
ĠW ord
Ġpo et
ĠD og
ĠT ax
Ġdom inant
Ġh al
Ġre aching
re nd
Cons ider
Ġrece iver
< >();
re p
ri ev
ĠCov id
f lix
, ...
Ġcy cl
Ġcontrib uted
Ġr id
ss l
Âł Âł
iss on
V O
jav ax
iv a
ĠTr ack
Ġp ictures
Ġbas eline
æ ĺ
olv es
get Type
Ġris ks
Ġs pr
i est
ĠF ight
ad v
aa aa
V ol
Ġext ensions
Ġb att
Ġab use
" ];
) &
an ches
C ulture
ap l
In ner
oid s
ex cept
__ _
ĠC ook
B reak
Ġcorre ction
Ġfile d
Ġt ough
Ġf aced
ĠPol ish
ar ith
ĠR ab
Brit ish
Ġrestrict ed
Ġs av
Ġbro ke
Ġassum ing
Ġcov ari
P OS
ĠDemocr ats
Ġderiv ative
TI ES
mem bers
Ġexpl os
Ġpan els
ĠB an
Ġproced ures
av is
N P
Ġconsum ption
Ġactiv ation
OT TOM
ul um
ter y
Wh ite
ĉĉĉĉ Ċ
lo pe
fore ach
Loc ale
| }{
Sh are
ĠBy te
Ġsub scription
cer ning
] $.
P ut
sub Nav
M ount
Ġsens itivity
Ġneut ral
R ich
^{ *
pag ination
ĠC irc
Ġen vironments
ĠLog ger
Ġinstall ation
T ex
fl ush
Ġair port
ĠAh med
Ġinter mediate
S an
fr agment
ĠEnter tainment
d n
in ject
ĠFin ancial
Ġrad ial
ĠI owa
v ature
display Name
m aking
Ġint ention
ĠMod al
ce ived
sl ide
dec ode
Ġdefe at
ĠG ree
mit ter
Ġbeaut y
k h
Ġg overning
TERN AL
Ġappear ances
Ġa ims
as hes
\ }$.
F ollowing
get Message
Ġsepar ation
Ġst ake
Ġreal ized
Ġnot ion
v et
Ġdescri bing
Ġadj acent
Ġperiod s
ĠĠĠĠĠĠĠĠĠĠĠĠĠĠĠĠĠĠĠĠĠĠĠĠĠĠĠĠĠĠĠĠ ĠĠĠĠ
i ota
Ġdi agonal
C amera
,\ ,\
k ernel
Ġdecl are
ĠB uffer
Ġgovern or
F ixed
ĠDu ke
Ġmusic ians
Ġmax imal
Ġsub mitted
ch anges
19 46
Ġb omb
ab ama
Ġowners hip
Jan uary
Ġim pl
195 3
,\ \
Ġjoin ing
ro it
Ġsc ulpt
F ac
inter val
ĠJ ob
man agement
O k
ĠRun time
Ġprocess ed
Sup er
d ers
s z
ĠT reat
C odec
tr ain
ab stract
Ġr anges
ang a
top ic
Ġh ospit
Ġcount s
ĠHarr is
st mt
Ġsy nd
ĠSh er
ĠRev olution
ĠLear ning
char acter
Ġnormal ized
oc om
Ġt elling
Ġop posed
ail ing
op ens
Ġassert True
Ġflow s
Ġconsec utive
con current
alle st
trans late
} ",
Ġrev olution
im its
tr ivial
Ġvari ations
Ġemploy ee
ĠT ry
Id x
Ġsit uations
Ġfall s
Ġemotion al
Ġdocument ary
ĠN orm
B its
Ġposs ess
Ġreli able
Ġpain ting
ow ski
LIC ENSE
Ġsw im
Ġcell spacing
l oss
}_{ -
Ġacc ord
ĠM un
Ġcell padding
ĠV I
com ple
Ġgrow n
T ax
Ġd ress
oc y
ĠAm ong
Ġconvention al
9 00
om al
Ġfr anch
t v
}[ \
Ġcompet itive
ĠJ ay
Ġvari ance
Ġb on
tr ansport
ĠC ab
ah oma
B ridge
S am
="../ _
Ġinvestig ated
Ġ======= =
Ġappro val
gu ide
Ġequ als
Ġ# {
" /
ĠO ak
Ġhost s
Ġmembers hip
fe atures
Ġd ies
Ġtalk s
" ])
Ġcom plicated
Ġch a
L R
Ġcircum stances
S elf
Ġtrad ing
19 47
19 41
Ġnot able
Ġtot ally
W eek
ĠP ed
ĠAdd itionally
ĠMem orial
Ġass ignment
ĠA gr
Ġiter ator
Ġen ables
Ġstre ets
Rel ated
Ġs ensor
ĠU til
mark s
W illi
id al
Pr imary
Ġtem ple
ins ic
et c
, .
Ġd x
ick ing
ĠM ust
Ġ( +
Ġex clusive
Ġmain tenance
Ġch ose
Ġseg ments
f aster
ĠTh ose
ĠV ice
Ġfound ation
00 5
ĠS quare
ar ma
Ġbe ar
ĠIn v
Ġbound aries
get Class
Ġprom oted
Ġr ising
Ġdise ases
Ġmag net
Ġvot ers
ĠK y
ĠPr ivacy
ver ify
Model s
id o
çĶ ¨
om es
ĠI F
ĠMar c
ii i
a ire
ĠWARRAN TIES
ĠM aterial
195 4
ĠE ver
ĠTr aining
gebr as
ĠIm m
B ER
19 43
ĠJ enn
sur face
inem a
ĠG h
File Name
5 12
ĠĠĠĠĠ Ċ
Ġ$ ,
Ġbo at
V A
æ Ī
ownt own
Ġpod cast
ĠL A
;\ ;\
ĠP layer
Ġb id
Compar ison
ĠH ave
Ġro y
Per iod
ĠRem arks
ĠS ix
/ )
Ch anges
. ',
N amed
is ations
) })
Con vert
! (
Ġch at
Ġident ification
ro ck
Ġmill ions
Ġsurpr ising
plement ed
Rece ived
Ġm ine
V AR
Ġn aturally
Ġ< ?
ub a
con duct
Ġcour ses
Ġille gal
g p
od ge
list ener
ĠIn valid
Ġl ots
ĠT err
Ñ Ĩ
Ġpl enty
v art
ĠO k
Ġ' #
Res p
Ġsurpr ise
ĠH op
m ov
serv let
d frac
Ġs event
Ġe c
Ġhead s
Ġf ault
Ġro oms
Ġrem oves
Re ason
Ġs oci
Ġsit ting
Ġput s
Ġisol ated
D ry
fl uid
ĠFe ature
ip h
ĠQue ens
Ġ ^{
per ial
MP L
ĠD oc
Run ning
Person al
> `
inter pre
xy gen
ĠAll en
ĠLe on
E nt
ĠV i
Ġf ired
s is
Ġb ott
>( <
ĠSt and
ĠB urn
Ġacc used
se a
Ġscen arios
Ġ ĉ
st an
ĠTur key
ĠMi ami
Ġh ook
fl u
Ġwhen ever
w ho
Ġemploy ment
n ie
ĠM as
ĠH ur
Ġsc an
Ġrestr iction
N a
ĠG R
Ġpro pose
o i
ĠT a
urs ive
ĠDi ego
iv idual
pack ages
Ġadd r
Ġph ases
Ġval uable
Ġrelig ion
Up dated
U AL
ĠPr act
Ġhealth care
ub b
work s
PRO P
Ġcol lections
A ME
ich ol
Pl ot
set Text
(' ./
Ġst ood
] </
ig e
}} }\
Ġdoll ars
BO OL
con cat
Ġd st
ĠPl ant
Ġl ob
Ġs ender
ĠSwed en
pl acement
Ġem issions
eral d
or ry
Ġk il
P od
Ġmat ched
Ġsett lement
S pecial
Ġreve als
Ġsurv ival
Ġrep ly
ĠN E
ĠG ab
Th rough
P al
Ġal cohol
Ġheav ily
ĠR ound
Ġor ig
Ġtr im
n ail
Ġslow ly
ĠSc ient
Ġk w
av al
lo be
Ġsub scri
ens ing
ĠJes us
Ġtri es
Ä ĥ
Ġdis miss
t one
ch at
Ġredu ces
__ ,
Ġant icip
U C
Ġs oul
="@ +
U nd
ĠT ony
qu al
10 3
] $,
n ed
= &
Sh arp
c ity
fr ames
Ġs i
Ġregard less
Ġdi pl
ĠD est
vent ions
ĠP O
or ne
pt o
Ġis instance
ĠCom ponent
the w
Ġ Ä
on i
ur is
ĠâĢ ł
Ġappe al
EV ENT
ĠD ue
pub lish
Ġprint f
Ġent ities
RE SS
Ġsup pose
Ġdis order
L D
Î ·
Ġre form
Ġdef orm
ĠPar se
Ġf asc
ain ian
up dated
Ðµ ÑĤ
Ġop ens
draw able
ĠT en
ol i
Ġinnov ative
Ġs ought
ur ers
Ġeng aged
Ġes cap
w eg
Ġro of
Ġstri p
Pub lish
Ġre vers
Dec imal
c n
Ġv oting
Part ition
Ġrank ed
Ġm ath
Ġs weet
C CESS
ĠT og
ĠP ier
ure au
ĠReg ional
19 49
ust ed
ĠS to
G P
Ġprov ision
Ġfootball er
Ġpl ain
Ġd ictionary
ous el
tern oon
Ġcos m
C annot
Ġh int
40 4
CRE ATE
ĠMan chester
=- =-
ĠCon stant
at ile
Ġs lice
z ing
local host
project s
Ġdes ire
N ON
TR AN
lik ely
b ors
ĠSim on
end point
pre pare
Ġenc oded
Ġreve al
Ġ\ ]
Ġstrateg ic
L at
Ġqu ark
az a
Ġsimult aneously
unk nown
ĠEx per
View Controller
ĠDat abase
Ġquant ities
Cre ated
Ġjournal ist
not ification
ref resh
3 50
ne ut
Ġsur faces
an try
ĠO pt
################ ################
ĠL I
b ug
ĠG ard
Ġred shift
Ġs essions
annot ations
Ġm ac
}} _{\
red irect
V ec
ĠB log
ĠK han
man ifest
i op
ĠHand le
Pol it
Ġphot on
Ġcent ers
ĠP rom
UR N
Dis k
e ast
ĠAppend ix
Ġut ility
ĠS pr
ĠF a
N eg
$ _{
ve e
s ure
Ġgeneral ized
Ġexhib ition
Ġbre ath
el led
Ġdiscuss ions
Ġtrend s
ĠDe ep
ĠPat rick
f actor
up per
ĠPart ners
Ġstruct ural
ut ies
Ġclos ing
Q ual
Ġsus pect
00 2
g lob
Hash Map
Ġours elves
Ġb ars
ĠC C
periment al
if ting
w alk
ain er
ĠT ab
ĠN ation
Ġh am
om as
ĠJ ane
wit zer
ĠM rs
c lic
P ane
Ġ' -
Ġnot ification
fg han
ver ted
ĠRail way
'] .
CO M
clud ing
ĠIm port
ĠSt one
ĠT er
int end
Ġb acter
se p
dis k
^{ (\
Ġn an
Pol y
ĠSil ver
ĠR oll
Ġass ault
ĠB reak
Fe atures
st ri
pay load
Ġsign ing
om er
per ature
ol y
T og
Ġman agers
M arch
Ġkn ock
Ġcharacter ized
` :
Ġinv ited
ren ce
Ġfl ash
I ss
u ency
w i
Ġis ot
cal cul
ĠCast le
ear ing
Ġg ate
Sec ret
ĠAr k
Ġn ic
Ġcouple d
T y
ĠM C
Â ®
Ġw ine
u h
m ont
less sim
po i
; %
Ġrest ore
pr ice
)) \
ĠR oy
t b
BA SE
E p
Com mit
ĠA thlet
Or igin
l adesh
ĠA ws
ache lor
Ġw heel
hed ral
1 18
Ġph arm
Ġto ler
Ġcommun ications
text ure
An im
Ġpick ed
ĠL eb
S peed
Ġtop ological
gress ive
ant ly
Ġbl ow
ĠIm ages
r as
ĠS elf
ĠArt icle
Ġprincip les
Ġrob ot
P ush
i ated
) --
ĠK it
act iv
Ġparticip ated
Ġb ucket
ĠCap tain
c ountry
ynam ics
n ate
Ġbl ank
Ġdesign s
F ixture
') ->
Ġgr ass
DE D
Ġmark s
ĠÂ ·
Ġre put
qu ality
roll ing
ĠT rib
Ġinj ured
Qu ant
ĠW el
Ġpo etry
AS H
ADD ING
ex pl
Ġen emy
ĠIndian a
n m
Ġthe atre
Ġpl astic
ĠIm mutable
AC ING
Ġref resh
ĠM ilitary
ec ess
Ġse ar
T yp
ĠWh it
Ġprec ise
Ġup grade
Text View
ĠDef inition
Ġdistrict s
n an
Ð¾Ð »
String Builder
Pr ice
ta h
195 1
Ġregular ly
ĠMay be
Support ed
Ġany where
Al pha
ĠBO OST
col n
ĠSt ill
è ®
empty set
re tt
ke e
add Class
Ġco ffee
ĠD a
F ix
Ġmaintain ed
@ {
Ġcollect ive
n ol
Ġun us
uff ix
T uple
Ġcompos er
Ġnorm ally
fa iled
Ġconsequ ences
Ġpartial ly
Ġhapp ening
ĠOther wise
ĠÐ º
IN VALID
Ġanaly ze
och astic
Ġig et
ĠT ennessee
Ġ' @
Ġ( {\
ĠE ag
et ition
witzer land
ĠEx p
th ree
ĠAnth ony
Al ert
Ġenjoy ed
Ġcontinu ing
Ġkind s
Ġguarant ee
ĠS n
ĠArg ument
faster xml
alax y
Ġguid ance
Ġf lood
ĠM ars
ĠM IT
ĠH D
Ġconven ient
ĠĠĠĠ čĊ
10 7
Ġs ad
Part icip
Ġsystem atic
}} ^{\
Ġc rypt
sequ ently
I p
raz y
F eb
Ø ª
Ġbrief ly
B ecause
i ary
ec lipse
}} .
Ġreg ulations
ĠJ oh
ĠM I
Ġd uty
Sc ene
Ġdef ect
ĠE u
ĠG raph
shall er
} >
p ref
er en
Ġfore cast
A K
Ġp iano
ĠJ osh
J s
D ynamic
__ .
ĠPr ice
ĠB eng
Work er
ĠC P
pe g
contin ue
ĠAd vent
Ġstreng then
ot ions
ĠMem bers
Ĩ Ĵ
Vis ual
ĠP red
ĠV ar
Ġlumin osity
Ġview ed
Ġincor rect
10 8
Ġstudy ing
ĠMA X
Å ¾
Ġfe es
Ġp in
Ġr acing
Ġ å
Ġdom inated
B D
Ġcarry ing
olog ists
' },
ident ity
ov en
per cent
ĠIn s
as a
Ġel li
M utable
N I
Ġclass ified
Ġun expected
tim er
p al
ĠĠĠĠĠĠĠĠĠĠĠĠĠĠĠĠĠĠĠĠĠĠĠĠĠĠĠĠĠĠĠĠ ĠĠĠĠĠĠĠĠĠĠĠĠĠĠĠĠĠĠĠ
Ġconsider ation
ĠCl ark
ĠSt op
P riority
h pp
ĠĠĠĠĠĠĠĠĠĠĠĠĠĠĠĠĠĠĠĠĠĠĠĠĠĠĠĠĠĠĠĠ ĠĠĠĠĠĠ
ĠB ORDER
d ensity
Ġent reprene
Ġembedd ing
Ġke eps
Ġf its
C trl
ant ed
Ġprov en
Ġoutput s
V C
ĠH um
ub ern
Ġsh arp
ĠMo ore
Menu Item
ester day
Ġal ive
Î »
ĠDef ense
Ġg it
Ġtit led
Ġb ath
] =
ĠA st
Ġre ly
nov ation
qu estion
und ers
b urn
Ġcoll ision
11 4
Ġt icket
L ear
ĠF ALSE
Ġinform ed
Ġsub sid
Ġconfig urations
Ġcut s
ĠW as
load ed
Ġconcept s
b ow
Ġv ocal
ĠIn ternal
and al
Ġabsor ption
Ġprofession als
ĠB ry
Trans ition
Ġnov els
is ot
HO UT
/** */
Ġ' ,
Ġcheck ing
ĠE arly
ul k
Ġenh anced
]( #
19 2
Ġapparent ly
ĠNiger ia
ĠSar ah
Ġver b
Ġd ashed
ĠInd ust
Ġconnect ing
F M
ĠCon vert
ik es
Ġir re
ur ches
ĠB asic
G reen
ĠGener ated
ĠR elease
se ctions
Ġclos ure
Ġpay ments
M al
N EW
Ġd imensional
oust ic
Ġnarr ative
Ġwrap per
over ty
west ern
Ġsup ers
ut down
Int ent
Ġoff ices
et ric
l ad
ĠSe attle
Ġw el
ĠP od
ĠD allas
VI EW
ĠE vents
Ġhol iday
rib uted
SP ACE
ĠH old
Ġattempt ed
ĠĠ čĊ
ĠF arm
Ġnon linear
In f
Ġt uple
" ?>
T ri
w ick
ĠTh ird
S core
G RO
est ab
h alf
Ġa ug
Ġre produ
ĠT ABLE
ĠViet nam
ĠD id
ac ht
ag netic
Ġgrad uated
Ġdog s
ur se
or ange
Ġbreak s
omet imes
ĠÐ ¸
Ġl aser
fin ite
Trans lation
Ġaware ness
Ġm igration
Ġlaw yer
â Ķ
k ish
Ġengine er
it udes
Ġeng agement
Ġimag ine
Ġpul led
ĠH ost
cl ock
GB T
) }_
cos ystem
Ġ} {
form ing
Ġs cre
}) }
mat ches
ĠAtl anta
w ich
B usiness
F etch
redu ce
condition s
ro b
Ġapprox imate
Ġw idget
24 0
inst ein
F ALSE
19 18
ĠPro du
ĠTr ade
a ho
ĠS W
Ġo cean
pi pe
ey ond
Ġla id
run ning
M achine
Ã ª
Ġst retch
sample s
In jection
ĠC op
S ide
z i
Ġdet ector
Ex pect
Ch art
Ġreli ef
Dist ance
sc opic
Te am
U A
Ġwonder ful
Ġretr ieve
L ive
Ġvary ing
Ġhousehold s
Ġcor onavirus
el and
overs et
C UR
Ġmin i
ĠD un
Ġaut hentication
Ġdom ains
M esh
set ting
ĠSum mary
N umer
ĠÃ ł
d td
seg ment
Ġp up
pro c
ĠC ell
} ~
AP P
V P
cy cle
Ġan notation
Ġb rown
ĠO K
pop up
Ġ\ (\
Ġbeliev es
Ġreg ression
ĠDo ctor
Ġmeet ings
W omen
i ology
ul o
comm un
Ã¼ r
RE NT
ĠAl abama
he ta
CE PT
B ACK
19 00
Ġencour age
SO URCE
s ources
ĠDate Time
Ġimprov ements
Ġhor ror
Ġweek ly
ĠN ull
m aker
ĠMal ays
) *
f our
ĠÐ ´
ĠHol y
l on
Ġrele ases
W H
Ġimprov ing
ĠB arn
D ao
m ime
Ġre plic
D ict
iss ip
B uf
Ġextract ed
aw t
×ķ ×
respons ive
P aul
m ys
RE T
Ġman uscript
e u
Ġat omic
l b
process or
. [
RES ULT
add ed
ĠMary land
: &
Ġf iber
ĠM E
ĠTr avel
ĠS ingle
Con tract
LE S
ĠY an
Ġover view
sol id
is ons
ard o
IL L
Sche duled
ĠSing h
g ate
ĠGr ad
cl s
ĠF O
Ġplas ma
L emma
S ound
M ail
... )
ĠN u
AR RAY
& $
Icon Error
Ġwe aring
Ġstrugg le
ĠC S
Exp and
et he
}) =
Ġent ering
Ġres id
Ġre ar
Ġman ual
Ġd ele
14 4
se cret
== =
el son
ĠS witch
ĠB alt
Ġfluct uations
kl ahoma
0000 000
j or
19 17
ĠY outh
ĠD ictionary
en ix
iv o
Ġgu ests
Mod ifier
Ġgrad uate
H ello
ĠPhilipp ines
CH AR
ĠB ased
Ġsche mes
M en
ous es
Ġgu idelines
Ġcook ie
Gr ad
row Color
Ġvict im
F actor
w ind
AR GET
ĠL ib
Ġfall ing
C LA
the ad
out ube
( `
Ġmin ing
Tr igger
s ocial
script s
ul ous
Mod ified
t ile
il st
ĉĉĉĉĉĉĉĉ ĉĉĉ
Ġfriend ly
Pro f
fav icon
ĠHel p
ĠM icro
C he
Ġfit ting
ust ering
sl ider
* ,
vel ope
Ġdesign ated
Ġexpect ations
ams ung
ĠC F
Ph il
f red
Ġ} ).
t m
Ġparticip ation
est ure
T ip
ĠL E
H ence
Ġt ang
Ġvac uum
am ond
Ġexp at
Ġtro uble
Ġmach ines
G M
in cess
loc ale
ĠP ackage
Ġsim ilarly
Ad v
A SS
Ġag ed
Ġf lying
part icle
ol o
Mon itor
Ġveg et
Ġsub group
ĠSaf ety
IconError Encoded
exec ution
T oday
br idge
ĠSwed ish
Ġgen etic
Su ite
ĠHaw ai
table block
Struct ure
var s
ĠL eft
ĠL ore
ĠBow l
E LEMENT
br ane
ropol itan
ĠV in
Ġdynam ical
ĠL as
we ak
P REF
ĠA udio
Form atter
en vironment
Apr il
Ġv oted
U ES
O cc
Ï Ĥ
in th
Ġcorre ctions
ĠMot or
Ġhelp ful
A MP
Ġcross ing
com par
Ġde als
Ġmunicip al
ul ates
iz ard
ater al
ĠE ntity
19 36
B us
Ġind ependence
des cribe
Ġp ump
in formation
Ġfru it
Ġ\ !
ĠG ib
M ov
end ment
- ">
X Y
az el
c v
ĠI C
ar o
nos cript
19 38
Ġtr uck
Ġdef ining
Ġman aging
Ġs napshot
ĠP UBLIC
st ers
ĠAr thur
ĠO ptions
get Attribute
dis patch
ĠE uro
= .
M ix
ut o
el ve
Di agnostics
Ġtown s
H y
em et
Rep ly
at om
Ġarg ued
Ġinj uries
J une
q q
Ġautom atic
ĠG arden
Ġansw ers
\ |\
ĠN atural
ra h
el ines
Ġb irds
Ġat oms
trans l
Z oom
l arg
Ġh ate
Ġcal endar
Al t
Ġhel per
aud i
Ġhas n
value Of
Ġrepl acing
Ġdeal ing
ok er
ri k
re ts
if ference
row th
c ord
Ġreal ize
r uct
Ġequip ped
(" .
Ġneg oti
Ñ ħ
lo yd
Ġfew er
st ory
Ġc ached
c mp
Ġg ift
$ };
Ġ" ;
c ookie
Ġart ificial
Ġpres idential
ĠStud ents
50 9
Ġins ight
Ġg oto
Ġwat ers
min ute
Ġdo i
ick en
ellect ual
Ġillustr ated
Ġfunction ality
d eb
CR IPT
Ġtrans itions
Ġing red
aint ies
Right arrow
ĠCon stitution
Ġgravit ational
og onal
ĠDr ive
Ġimpress ive
ĠV olume
ge on
Ġsignific ance
Ġdesign er
æ Ĺ
10 6
æķ °
f w
Ġtransport ation
Ġad s
cor rect
ĠMult i
ĠIllegal ArgumentException
Ġadapt ed
ĠAust in
\! \
}) ^
ĠD M
o j
B u
ag u
10 9
Ġfrequ encies
met ric
c op
ĠU TC
care t
Ġant ib
Ġord inary
Part y
ĠMod ule
ĠH iggs
ĠU P
ĠD al
12 2
Constr aints
par allel
LP ADDING
ia h
11 3
Ġperiod ic
Ġp ip
Ġf urn
C art
ĠMos cow
tikz picture
end ers
Ġbre ast
**************************************************************** ********
St ub
ĠY et
ĠS ession
Ġg arden
Ġdis patch
Ġre act
pr iv
task s
Ġassoci ate
te ch
LA B
P ixel
b x
ĠCEL LSP
ĠCELLSP ACING
be at
ĠYear s
sp ir
ĠCEL LPADDING
Q t
ĠE nt
Ġrecogn ize
Match er
Ġfair ly
Ġat om
Ġme ets
REQ UEST
row se
Ġ$ ('#
ab ling
Ġarr ival
Ġdec line
ĠK elly
Sup press
Ġun iqu
Ġcompar able
Ġsk ill
Ġhe ter
D an
Ġhydro gen
ĠG irl
p ic
Ġasympt otic
ĠC ow
ĠBit coin
ĠSm art
b ucket
ĠT oken
Ġw ond
Ġro uter
Ali as
des criptor
ĠJ ason
ĠH ans
Ġhand led
m g
p ixel
in herited
prov ed
Ġto x
Ġelig ible
Th ree
oun ced
sh arp
ĠWalk er
ĠB or
Ġcon cerning
Ġfra ud
ĠB h
ĠD I
] ['
s creens
Ġqu asi
ir i
Ġmodel ing
Ġaf ternoon
ĠT YPE
es c
Ġen forcement
Ġcompet ed
ĠKe ep
Ġ ,\
ep age
ĠC zech
ro oms
Ã ´
FLA G
ĠB OTTOM
WA RE
Ġwebs ites
opt im
Ġf inger
ys ics
Ġstraight forward
ate ur
ĠB uff
P RI
Ġd ip
ĠStruct ure
ou p
ĠTR UE
ĠBang ladesh
Aug ust
Ġent itled
Ġconserv ative
Look up
ĠStud ent
J uly
Ġpro sec
Ġcur vature
ÃŃ a
ec onds
Ġstrict ly
ĠA WS
IT LE
def er
Ġold est
b n
ĠH E
Ġneigh bour
ĠMar ine
å Ń
ĠInd ustry
Ġpar liament
Met ric
T ry
Ġrun ner
ĠR ic
app ings
ĠCon nection
Ġsch ol
t age
Ġiniti ative
Ġim aging
z ym
f act
aver se
Ġf oo
or ous
Ï ħ
ĠL em
ĠSt udio
ĠCom par
d ocker
Ġpro be
ĠL ock
Ġpay ing
Ġmer ged
an ion
ic ut
St age
Ġsy ntax
Ġag es
Ġt ank
stream ing
ĠUs ed
Ġpublic ations
> {
Ġimm igr
str ument
Com ponents
depend encies
` )
F rench
det erm
Ġcred entials
vent ory
Ġt f
Ġh alo
ĠKent ucky
R adius
ĠH ad
Ġ" )
Ġtarget ed
Ġobvious ly
ĠM ess
ri ble
label s
ĠT alk
Ġref used
ĠMiss ouri
s yn
sub string
om ot
el m
ĠD ave
N ECT
Ġcon cluded
ĠPhil ip
or acle
Ð¾ ÑĢ
Ġis omorphism
EN ABLE
C SS
Ġdo se
ĠCl imate
O FF
Ġprof it
Ġrece ives
Ġexhib it
Ġlic ensed
arg v
}$ }
Set up
qu est
Ġsat ellite
Ġsix th
re view
More over
ig ious
e or
Ġmunicip ality
fil ters
ĠD ick
inal s
AR G
Ġst abil
Ġpen alty
Ġacqu isition
Ġdep ict
Tool s
13 5
Ġlif etime
sub sec
ut enant
\ }\
per or
Ġcompet e
Ġep och
ĠG it
M ut
ĠCON FIG
ol ly
Ġart ifact
Ġmark er
5 000
met rics
ĠLa ure
ĠE mb
ĠTok yo
ess ment
][ ]{
> .</
h base
ĠCom ment
D ig
] ->
sub scribe
me asure
ith metic
ĠA fghan
ĠR on
Ġanaly zed
Ġbe ach
Ġcer emony
Ġm g
Ġj un
For ward
Ġchild hood
Trans fer
] ).
ĠHow ard
ĠJava Script
weg ian
Ġres cue
2 20
} "/>
Ġcons ent
Ġb ag
ump y
S eq
back s
member NameLink
Ġth ir
Ġcomp ilation
As sembly
Ġbeh alf
ĠAuthor ity
Ġ" ${
ĠMex ican
ĠHigh way
process ing
IN IT
c ost
19 37
Sup pose
Ġ// -->
Ġadv ers
d ag
first row
Ġcl s
Ġdis appoint
dat aset
ĠSchool s
100 00
Ġexam ine
Ġpro hib
ext ensions
ST ART
bet ween
Ġfin ance
he x
ĠN ature
ĠSt orage
multi row
Ġs le
ather ine
ĠGree ce
Ġgovern ments
Ġt iny
ĠOrgan ization
Ġmechan ical
z oom
ĠD ur
Ġdev iation
Ġarr ive
az ure
w en
ĠPal est
Ġp sy
ĠP S
Track er
Ġw avelength
\ }$,
ĠS witzerland
Ġt issue
Ġout standing
ad apter
ĠE ss
}} =
Ġgun s
iber nate
Å Ł
th ick
ĠPer formance
separ ator
ĠHash Map
Ġvisit ing
SU CCESS
Ġinstr uments
ĠS ize
Ġin herited
Enumer able
Ġe g
un ning
ĠLab our
be ing
ĠB ishop
ath on
OR S
allow ed
ĠA uth
Ġdisc ipl
With out
Ù ĩ
ail and
path s
Ġn s
dat ab
Dest roy
le arning
p n
Ġas ks
Ġcomp aring
I l
Î ¼
Ġv ir
ĠTh ough
Ġanim ated
Ġh at
B N
Ġne ur
Ġoff ensive
Ġsort ed
T M
ĠS ud
. $$
ĠF ederation
ĠN ik
ĠCre ated
id ity
Ġo vers
m atic
ĉ ĠĠĠĠ
ĠN ev
' +
EN TRY
D one
b oth
Pe er
Ġroad s
uth er
le tt
Ġdef ensive
Ġav ailability
ĠLim ited
Ġm esh
Res earch
R ober
v ect
ert ainties
c ov
Ġt ur
Ġequ ally
D ITION
emet ery
Ġcom ic
Ġins ights
ĠR ule
ĠMc K
Ġret ro
Ġregard ed
ĠEx pression
Ġgen es
Ġb ot
Ġstr ange
db c
ĠG er
ĠR oom
Ġb reed
ĠWith out
Ġtop ology
g ray
ĠPl atform
ĠCo oper
Ġpark ing
Ġl iv
C ould
Ġweap on
Ð¸ ÑĤ
ber ry
ĠRepublic ans
d ating
N eed
it ely
ĠD raw
: %
r ac
ig s
block s
Ġpres erve
k n
Ġfranch ise
en berg
Ġdepend ency
Ġwor ry
Me an
Can vas
Ġro se
Ġfarm ers
Ġsph ere
mut ex
ĠPH P
ĠWork s
RO OT
Ġl ux
Ġrestaur ants
Ġto wer
ĠN BA
get s
he alth
is co
ĠS cal
Ġeng age
B ucket
Ġend if
ĠO DI
Ġt s
Ġqu ot
dir name
H ar
Ġbro thers
Read y
Ġindependent ly
Ġev il
Mich ael
Ġemer ging
ĠJew s
Ġd il
Ġinter pol
L ines
ĠPl us
Ġto m
Ġc od
ic ates
int o
A lex
Ġre serve
M AN
Ġunivers ities
I ES
ĠB us
ĠDet roit
Ġharm ony
ĠB ureau
Ġem pir
ĠNS String
Ġconfigure d
ĠR ap
EN CE
Ġt ied
G erman
Ġfocus es
Ġin h
PRO C
Ġsol ving
P ipeline
Ġb le
f uture
ĠL anka
N ONE
Ġbr on
Ġport folio
Mark er
Ġexpect ation
Ġref lection
Ġad mitted
script size
Requ ire
? </
ph ab
Ġgr ab
19 19
ru ction
it ure
Ġlog ical
ĠT itle
ĠWIT HOUT
ĠAd vis
ur ities
ĠP as
MA GE
Ġrem oving
Ġc up
m al
Ġdeg ener
g h
equ ations
ne ed
Ġprem ier
ĠS el
p ending
ĠPol y
Ġaim ed
x ref
ĠD ise
ĠMel bourne
s ame
Ġpublic ly
Ġ" [
ol k
ĠLeg isl
sc ene
ĠCol on
ren a
vis it
Ġb oot
Ġ. =
P ending
Ġcelebr ate
ĠGe V
p f
Ġoper ational
sc an
Ġflo ating
Ġorgan ic
ĠRel ations
ĠL LC
^* \
ĠCh ap
Ġappe aring
er ical
p k
ĠAl liance
m akers
ĠId ent
qu o
at able
ĠVeg as
J apan
ĠResp ond
Ġst roke
ĠP arent
S n
ĠM atrix
P ad
ĠCred it
ĠS port
Ġocc as
ourn als
ãģ ®
T imes
Ġrep orter
Ġvis ibility
b t
Ġv anish
ol ph
ĠOper a
Oct ober
S rc
Ġequival ence
ĠF le
ĠLin coln
ĠN othing
Ġi Phone
Ġarg ue
ĠW y
. \\
ĠIslam ic
Ġbr anches
Ġfem ales
P rom
à ¦
ĠB ah
Block s
Y S
Sw ift
Ġshort ly
19 14
Ġp ushed
="# ">
c x
Un ique
Ġcut ting
F our
Ġw rest
Ġpy thon
ĠEnvironment al
L ead
> ()</
amb ig
Conf irm
ab i
ay ed
Ġaddress ed
ĠP erm
f un
In struction
TH E
K ernel
ĠAv ailable
mod ifier
) >
ĠE N
Ġm ales
ĠF ive
Ġpublish ing
SS AGE
Ġ* ,
L ow
S ent
Ġs ink
Ġdist ances
Ġtransl ated
Ġconstit ution
ĠM organ
fil led
Ġh oles
Own Property
Ġf ro
og a
Ġh ack
Ġaccomp an
Ġr hs
sl ant
ĠP aper
te le
br anch
Ġserv ers
FA IL
+ "
Ġ} ),
19 33
c ourse
am an
Ġs ick
ab e
Ġpro x
last ic
p aces
ĠH ug
Ġl l
Ġ/ ><
or ce
ĠSh op
Scal ar
h ist
Ġg ang
ĠTh ank
vart heta
Ġsu ite
é Ģ
Ġdefault s
Se ptember
Ġde ployment
C ertificate
Ġdr um
ĠWeb site
Ġne arest
ĠNor way
att ach
ĠC ape
C s
Ġst y
fig ures
-------------------------------- ----------------
Ġs alt
ĠS ave
Ġch ains
Separ ator
y ll
ĠC ole
en o
igh bor
Ġcl ar
="# "
E urope
Ġmov ements
Ġun lock
Ġill ness
ĠSt ew
li a
19 35
Ġcomb ine
Bl ue
Has Been
a ac
. ")
12 4
Ġsh ots
Ġl ibraries
v n
Ġ" );
sche mas
ass oci
Test ing
Ġst ochastic
Back up
Class Name
Ġentr ance
ĠP ho
D im
ĠW HERE
ĠTem ple
m issions
ĠFin ance
G G
ĠV otes
ĠR ange
} |\
ĠJun ior
ĠPro file
ograph ical
Ġl in
ors es
ĠH u
ĠMc G
g ather
ĠSt age
Ġnot ify
build ing
ĠE val
Ġexpl oration
Ġchair man
ĠAl bert
; ]
Ġpseud o
ĠS V
Ġthem es
ĠD ak
ĠG O
In s
Ġalign ment
issip pi
ĠAn ne
ch arg
Sa fe
Ġp ic
su it
S N
Ġout line
ĠMay or
us age
duc ible
N or
==== =
Load ed
Pop up
ik h
ge ometry
ĠString Builder
Sc an
fil er
Ġsett led
ĠM and
ĠI ron
Mod al
] {\
et r
Ġinteg ers
t ility
Ġre lying
over flow
Ġ æ
; -
Ġf irms
Ġla ugh
ĠSim ilarly
Ġoccup ied
li est
DO CK
m f
Ġvol umes
hy thm
ĠK am
Ġn ations
Ġbus y
column width
ĠN ic
Ġtempor al
ĠCh apter
back slash
Ġm oth
ĠM eg
J ames
Ġeng ines
Ġret irement
C ountry
ĠN ob
Ġcirc ular
p d
f am
li ers
F ollow
Ġr m
ard ing
r and
enc er
Up per
ter ior
rang ian
Ġstart up
Ġre start
Ġre tain
ĠTh er
Dest ination
indu ced
E ast
** *
os er
bl ing
op acity
: -
B oth
ac ef
X i
D er
r v
ĠPro perties
ĠHer itage
we alth
Array s
S mall
bar a
Ġd ensities
tes y
attr s
F ire
Ġlight s
ĠK IND
: =\
Ġ" _
Ġtouch down
Ġprepar ation
back end
ext ype
ĠA B
Ġorder ing
pt s
Sub ject
Ġbur ied
C ost
im ore
Ġl ake
iv ari
ĠC E
ne e
Ġinter vention
ĠL P
Ġd s
pi res
Ġatt orney
Ġm s
Ġknow ing
Ġshop ping
fl ux
re ach
Ġre named
Ġmonth ly
ld s
Pay ment
un ion
Ġcap tain
R outer
Java Script
ol t
Ġc urrency
Ġb io
Ex it
ĠD VD
Ġe cosystem
lim inary
Ġcho osing
Ġ/ ></
ious ly
c art
Ġb one
Rel ative
Ġinflu enced
Ġanalys es
ĠR PC
Ġg aming
Ġn it
Ġneut ron
Rep resent
Ġexpert ise
å ľ
ĠWork ing
Ġthread s
Valid ate
Ġr um
Ġin vari
ĠB os
FORM AT
Ġperfect ly
Ġexception s
XX XX
at ers
AB ILITY
ĉĉ čĊ
stat ement
Ġtransform ed
initial ize
ĠInitial ize
ĠC NN
ĠL am
ĠCh rome
sect s
Ġgener ates
Ġadvent ure
ĠVill age
Ġre aches
ort ex
C amp
Ġob server
Ġed ited
cs v
Ġemb r
C la
ç »
Ġjud g
ĠP L
ĠE le
uet ooth
Ġs ke
ig o
m ate
ss on
Ġ ../
Ġm ir
19 34
Ġent hus
int ro
CO UNT
ĠB ush
A RE
gener ic
Ġdiff usion
k ov
Ġ" ./
Ġd ump
um ption
RA M
Ġcy ber
Ġrandom ly
g un
ibli ography
Ġw he
De cember
ĠO klahoma
! =
ĠPro tection
Ġshould n
Comp are
Ġrender ed
Ġm eth
ĠA lice
File Path
19 10
N Y
le ading
Ġinter vals
un iform
asc ular
oc a
p ipeline
ol id
Des pite
Ġincred ible
Ġs oph
com ments
u ity
ĠAnton io
ch unk
$- $
ĠGr id
Ġgen re
ĠInst all
Ġspect ro
Ġind ent
ph antom
cp u
ĠParam eters
Ġrem oval
Ġrout ine
/ #
19 29
ĠP sych
Ġres idual
Ġcomp iled
oc he
in variant
ĠCon sole
Ġproport ional
Ġsing ing
ifi able
Ġ Ø§
ĠMov ie
Ġenc ode
Ġsucceed ed
HasBeen Set
Ġsuper ior
i Äĩ
ĠL ess
ĠLic ensed
Ġrecommend ations
Ġdiam eter
Lin q
item pty
Re place
ĠPerson al
S chool
Ġphil osophy
s ender
und les
Ġliter ary
Ġa ux
ĠRequ ired
ĠPh D
ĠPh illi
Tem p
struct ed
R adio
p ent
P adding
om itempty
Ġco aches
che ll
il ty
med skip
ĠF ast
win ning
ĠLin ux
old s
â Ħ
append Child
enc il
Ġgreat ly
ĠFil ter
ubern etes
Ġmay or
hel lo
ĠH ope
Ġrep air
dr ag
se ed
Ġt ill
âĢ ¯
ĠR at
ang les
look up
Ġfl av
Ġbur st
Ġdecl aration
rb an
K S
itar ian
ent ries
Lower Case
Ġsurv ive
Ġsum m
with out
ĠAng el
S al
ul ative
ĠB ron
Ġme at
Ġly rics
m acro
comp iled
ĠMed al
Ġr ival
[ <
ĠUkr ainian
Pub lished
pre dict
S ing
av ers
Ġwat ched
Ġul tr
. (
qu is
ĠA le
Ġthous and
Ġd ial
Ġcontinu um
Ġw ider
om ing
() [
Access or
Ġstr uck
Ġdiagn osis
ĠUn less
Ġadapt ation
ĠG un
A ir
elastic search
Ġsl ide
roph y
book s
Ġunc ertainties
ĠW ang
ĠBr ig
Ġcomfort able
19 28
es cape
Nov ember
ĠR ender
ĠInd ependent
u is
Cal endar
P an
apol is
Ġpass engers
Ġproport ion
FFFF FF
Ġ. /
H om
Oper ations
] ),
ur u
Ġbox es
et ics
Ġserious ly
Ġl ift
Ġpass phrase
Ġlisten ers
Ġ// !
ĠDe an
Ġfl avor
ĠB att
ĠC os
( -\
Ġneutr ino
Ġstead y
[ ]{
WR ITE
ĠN eg
order ed
W ORK
Sec onds
ĠDel hi
c urrency
Ġann iversary
Ġ" #
non atomic
um ar
ist ically
30 1
Ġhead ing
ĠJ os
Ġent ang
ĠM achine
inter action
Ex press
x l
Ġexpand ing
Ġcool ing
T om
) }.
. -
c amera
ind ices
Ġprote ins
cript ors
erial ize
Ġdifficult y
ĠE C
ex tract
uk i
t uple
L ang
Ġt ou
}\ |
Ġp ione
****** /
Ġb rows
27 0
Ġinv olve
Ġdecre ases
Ġeigen values
Ġspirit ual
Ex tract
M art
3 000
Sl ot
Ġelectric ity
Tw ig
Sub scription
? )
Ġad mit
Ġback up
INS ERT
constr aint
ĠEx change
ĠM ission
ĠS ide
Ġnot iced
Ġz oom
Ġpriv ile
U UID
level and
ĠIndones ia
bel ow
t ot
Capt ure
re ements
Ġrac ial
per mission
En tries
ĠÐ ¾
Ġpr on
th an
hash Code
Set s
ĠĠĠĠĠĠĠĠ čĊ
ĠC atalog
Check ed
ĠL abel
ist ol
ogn itive
work er
ãĥ ¼
bal ena
ring tone
ĠG ordon
g ent
inc ial
Ġun like
ĠSu ccess
Ġfocus ing
sp ot
Ġ"- //
Ġwrap ped
ĠCommun ications
Ġelse where
Ġperform s
Ġbas ically
on line
Ġj azz
Ġt ickets
ĠT i
D onald
Ġattack ed
Ġcaref ully
ĠB ody
grad uate
Ġorgan isation
ĠTh ings
sh iv
enn y
un ks
p riority
post s
Ġreson ance
Ġcent uries
sign al
ĠR andom
Ġg ay
ĠS yn
ĠF L
SER VER
Ġc url
Ġ âĢĻ
S en
Ġtim er
Ġge ometric
Data Source
ĠFour ier
d elegate
ant ics
ĠSer b
dr iven
own ed
Ġcon front
ache l
Ġmet ab
andid ate
F ill
Ġfant asy
Ġpermit ted
res olution
Ġattr s
Ġd yn
ash i
" </
Ġh opes
Ġ um
Stack Trace
pre view
ĠTai wan
G T
Ġdem ands
Ġincre ment
Cle an
Ġannounce ment
ĠBr un
' =>
Ġrecon struction
E lect
Sche me
ĠI gn
id ad
ipp et
ĠAnn ual
ĠMem ory
l av
ili ary
Ġmod ification
prec ision
ĠIsrael i
Ġt ile
Ġrat ios
R M
Ref resh
ĠB AS
Ġsuff ering
G raphics
Str ip
ĠAl bum
M ass
Ġmet all
h h
ph ere
Ġcr ack
p iece
Ġsepar ately
Ġtraject ory
) ^\
Ġelect rons
st ock
Ġoper a
3 20
Ġlik es
ort ed
Per cent
Ġ[ {
f requency
Ġrec overed
urs ing
G F
end region
---- ---
Ġdeterm ines
Ġmy th
Sh adow
Ġarray s
Ġf est
ĠW H
ec ycle
ĠEconom ics
ĠElect ric
Ġcon scious
ancell ationToken
ph oto
a que
Ġt aste
Ġb ird
r x
ĠS N
elf are
Ġdirect ors
ĠLink ed
Ġestablish ment
on ed
Ġtr unc
ĠRes erve
Ġcolle agues
c g
decl are
Ġon click
Top ic
p lier
d m
Ġtr ains
s ing
Ġdis cre
ĠU r
Ch unk
ĠB egin
Ġdat etime
ĠT otal
Ġmolec ules
ject ure
Ġch arts
Back end
Ġdeep ly
rom agnetic
Â »
ĠB ull
Ġequ ity
Ġdispl ays
m ust
CE P
Ġcrit ics
w hel
Ġen semble
EE E
ĠH A
u ates
ĠAdd ed
M ajor
Ġweight ed
ĠW ard
Ġimm un
Ġinterview s
ME M
IN DEX
Ġd y
Ġar row
4 50
At trib
ush ing
parent Node
Vis ibility
Ġr anging
Ġindust ries
ĠNet flix
neut ral
ĉ ĠĠĠĠĠĠĠĠĠĠĠ
Ġd ating
em pl
Warn ings
equ ate
Ġprodu cers
}{ *
ĠMon th
over lay
or us
Ġw arr
ĠN ichol
Pr imitive
less ly
Ġpul se
Ġathlet es
Ġp rize
Ġc am
ĠL iving
J o
Ġpar ish
S lice
id i
Ġâ ĨĴ
Vis itor
Ġs lope
C ref
19 01
Ġt y
Ġsp okes
spect or
Ġderiv atives
Ġorb ital
Ġde eper
Ar r
^* (
STR UCT
ud son
comp act
Ġconj ug
m ates
NG TH
C ategories
Ġfle et
short cut
Ġreg ulation
ex tr
Ġf ought
×Ļ ×
Ġqu ote
Ġform ing
pack et
ĠDown load
ĠC lick
ĠAt tribute
Ġre actions
ill ery
Ġto String
Ġdiagram s
Ġdistingu ish
Ġhe lic
ph an
ĠBase ball
Ġst ick
Ġmar ine
19 22
Ġsp ark
c ached
A rm
Ġcaref ul
p us
Ġn ested
Ġmus cle
Ã© t
Ġd eleg
ĠD ebug
Ð ¹
_ [
Ġdevelop er
11 7
PL ICATION
è ¡
d ed
UP DATE
ene z
Ġbu ying
Ġvill ages
ĠU tah
ĠThom pson
Al gorithm
Ġw et
Ġconsist ency
t ol
iv ia
Ġscreen ing
I ME
Ġsol ved
ĠS ex
ts burgh
Ġreput ation
! ]
FLA GS
ĠCl inton
utr ition
ĠAg ent
ION S
Ġt all
Ġperturb ation
Im ages
Ġpar ad
Ġwith draw
ĠM B
ĠThe ory
c in
ion ic
Ġm art
Ġany way
al ion
Ġt ens
in ite
ĠS cript
Att empt
g iven
ilt ers
ĠDis play
s ent
ĠS ac
r gb
al ia
17 0
Ver b
'] ))
Ġn ick
not ag
Ġsm allest
ind ependent
F ake
ĠTh ailand
ĠM ind
ĠAl tern
tr ansp
Ġbr illi
sw er
n ik
Ġm ice
ĠN ash
19 32
Ġperson ality
Ġkw args
ĠN ag
Ġj oy
Ġbi ological
Ġo xygen
Ġuniform ly
or b
ass et
ĠCom ments
ĠĠĠĠĠĠĠĠĠĠĠĠĠĠĠĠĠĠĠĠĠĠĠĠĠĠĠĠĠĠĠĠ ĠĠĠĠĠĠĠĠĠ
Ġc um
T i
av atar
set Attribute
Ġabund ance
ul se
ĠC L
Ġcontract s
Ġi OS
I ll
Ã «
Ġm irror
Ġrequ iring
ĠC lose
Ġ$\ {\
Ġob lig
d h
Ñ Ī
ool s
S uch
l r
M iddle
Ġfru str
Ġden ied
Ġc yl
R IGHT
Ð ±
DE P
new line
C ookie
De ath
ĠCle ar
p referred
Ġlik elihood
Ġas c
ĠWal ter
ĠT an
Ġs ons
P N
ĠAn na
H AND
Cred entials
ĠA BC
Ġsearch ing
ĠH erm
H am
ur an
0000 0000
Path s
Ġhe x
ib ling
Ġstream s
Ġinterpre ted
OB JECT
D a
C V
le e
Ġc rystal
Ġhighlight s
os c
EX PORT
bo ards
Ġh orizon
B LOCK
Ġunus ual
ĠD evice
Ġin coming
âĦ ¢
Ġm eters
Ap is
Ġfrequ ent
\% $
ĠS F
ow ed
Ġatt ach
Ġv ital
M AC
ref lect
Ġsuggest ing
ĠJon athan
ĠU V
ĠOr th
sub scription
Ġrad ical
Z Z
Ġdo ors
or able
ĠV o
Ġan th
Ġlock ed
am ents
sp l
amer as
ĠH it
um ing
Ġident ifying
ĠComput er
Rece ive
Ġc ry
Ġs occer
ĠG all
ĠBr and
ĠFre der
ĠD CHECK
d ump
â ĪĴ
ann on
Ġru led
T ensor
lim ited
ĠUS B
Ġencour aged
Ġaccord ance
A ud
{ },
Ġhead ed
ard ed
Ġsynt hetic
l iving
Ġcondition al
Ġcy cles
$ '
~ (\
ĠCon struct
ind ed
Ġvari ants
H int
Ġa str
Ġspe aker
Un iform
Ġevery where
$ ^
] <
h int
ct rl
Ġ" +
J ack
help ers
Ġvis its
An n
Ġconstant ly
\ ":
iver pool
ĠBe at
FT WARE
ĠIP v
ic ulture
Ġarch ive
ĠAtt orney
Ġth orough
High light
Ġv ec
ou ver
ĠSet tings
stack rel
Ġagric ultural
ĠP ap
ĠSup pose
W ar
ÑĢ Ð°Ð
ĠAg reement
other apy
ĠM unicip
Az ure
SU B
In ject
Ġs ectors
Ġprint ed
d eveloper
f ar
TH ER
Ġm apped
Ġ( ;
TO OL
}^{ +
19 24
Ġres idential
Ġun likely
Ġp index
' ):
Ġlocal ized
Ġindu ction
"> &#
cor ollary
] *
ĠReg iment
Ġhom ogeneous
b ank
Ġâ Ĥ¬
Ġf unny
Ġelect rical
Ġabandon ed
ĠForm at
âĶ Ģ
ĠAl an
C tx
Ġm ic
RE L
Ġcub ic
Al ignment
M a
; ,
Fr ag
Ġphenomen on
ĠNot es
Ġhead quarters
ĠL GBT
R G
om eter
Ġenc ryption
Ġst ops
sp aces
ĠS quad
ĠĠĠĠĠĠĠĠĠĠĠĠĠĠĠĠĠĠĠĠĠĠĠĠĠĠĠĠĠĠĠĠ ĠĠĠĠĠĠĠĠ
ĠU SE
Ġob st
Ġher itage
Ġpass enger
Vari ant
ob e
Ġex ha
Ġinv asion
sl f
ip art
Ġprocess or
config ure
O G
Ġst em
12 1
vel oc
but tons
l ings
ĠP ear
Ġp overty
r ides
Ġaggreg ate
is cal
N OS
ĠHar vard
dist ribution
Ġdel ight
: /
Ġdeterm ination
f ather
ĠStud ios
ant i
Ġcour ts
ĠH ills
ĠTrans itional
Ġ( `
Ġsupp lies
ra ig
Pay load
trans fer
Ġnom inated
to Equal
Ġaug ment
Ġground s
ay ers
Ġsudden ly
ĠNe uro
ĠFor um
Ġelement ary
Ġsim ulated
ĠE RR
U int
ish ment
Ġlook up
ĠW ait
. &
dem o
E r
Ġf abric
Ġpolar ization
ĠM s
ĠN i
lic t
vis ibility
u pt
ues e
em a
inn ed
th ird
Ġb oss
ĠC T
writ ing
ĠS ET
Ġtax es
ĠD J
Ġpos it
He ap
c as
Function s
Ġl ands
ĠG P
19 31
// ----------------------------------------------------------------
dest ination
Ġw av
ir ates
mark er
Ġ' ')
to LowerCase
Ġround s
ĠQ t
St yles
Ġoper ates
] -->
ĠChair man
ĠF al
ĠM ET
ĠRuss ell
Ġal location
L ite
ĠT EST
Ġt one
Ġg enu
Ġimpact s
ĠAz ure
Ġacc ret
G l
ĠR ot
ĠO UT
Reg istration
Ġg ray
S in
2 30
ĠPe ace
ĠChrist opher
Over lay
access or
ĠG ET
second s
Ġpe ers
Ġexpat riate
Ġintegr ity
L and
Ġreal istic
ĠMat thew
Ġform ulation
For ce
Al ign
Ġsac r
ecess ary
m any
em ed
Ġp ace
Ġst adium
Ġt act
if rame
Des cribe
text area
ĠBru ce
ĠG irls
Form er
ĠL ane
foot notes
ĠAb b
19 27
Ġl ung
Ġr ugby
Ġfound ing
Ġh urt
List eners
ef e
Ġfem in
ĠC I
C LI
Ġhand les
Fore ign
A ff
H on
claim ed
qu er
ag greg
ac les
r h
ce il
Ġmer ely
Ġaccompan ied
Ġeffect iveness
res pect
ĠH ell
Ġres idence
Ġleg s
u on
ob i
Ñ İ
ĠH ero
19 0
Ġclose st
Ġang les
Sche dule
ĠPublish ing
ĠAd ams
clus ively
Ġkey board
ex clude
pos als
Ġver ification
in ar
Ġl ip
Ġpar agraph
Te ch
O C
r adi
Ġquadr atic
Ġinsp iration
Ġreg ulatory
ĠS R
N ested
od b
Ġcomp ile
jav ase
ĠS SL
ID ENT
ordin ates
| $
Ġf o
ĠF ern
Def ined
mult iple
ĠC PU
MA IN
Ġar med
Ġhospit als
ar ound
Ġo c
Ġremain der
In line
Ġre ception
Ġf er
Ch at
Ġrank ing
res olved
ĠMiss issippi
Ġens ures
Willi am
Ġconsider able
ĠSw iss
ifest yle
, âĢĻ
Ġfund ed
H ook
Ġb eta
ens is
ram a
ĠF i
ĠF ant
ro tt
ĠMar shall
ĠChall enge
ĠM ort
ĠO d
ĠCh o
ĠCol lections
port folio
ĠFor ces
Ġm ixture
ĠSt ories
ĠConnect icut
T ake
Ġbench mark
. ');
U ntil
ĠAl ber
Ġver ified
ä¸ Ń
ĠB art
over ride
ĠG ray
App ly
Ġvulner able
//////////////////////////////// ////////////////////////////////
Ġp ole
T or
ME SSAGE
Ġgrow s
cat Desc
n est
go al
B ur
* >(
d ue
] >
reg istry
ĠF M
à¥ į
Fr ont
ĠW i
Ġex pr
ap ps
p oll
ik ing
col ogy
ĠBet ween
Ġdec ent
c amp
Ġappoint ment
AUT H
DOCK ED
st roke
Ġfeel ings
bad ge
Ġsynd rome
ĠTr igger
ape ut
Ġt ennis
ĠA UT
Ġg host
ĠS eg
C MD
Ġhe ll
ĠAss istant
Ġt unnel
et o
Ġglob ally
op ter
Author ization
in us
âĢ¦ .
Ġs wit
ĠT el
ĠMar vel
Ġdesc end
Any Ref
se en
pro pto
Ġtum or
ĠW oman
ĠDub lin
ch rome
Ġph osph
ĠW ik
User name
Ġ/ .
urn ame
Do es
Ġincorpor ated
Ġt ips
Ġdialog ue
Ġleg it
an ia
Ġf ishing
in ian
m ade
Ġim plications
le ans
as ant
ĠMon te
Ġdisc ount
Ġfe as
L INK
ab etes
ĠAnd y
Ass ign
ac ion
à¤ °
Ġfol k
ĠChar lie
Ġm i
ill o
ĠMark eting
at ype
å Ľ
ĠLouis iana
GEN ER
H ex
he art
Ġlog o
Ġover lap
Mer ge
ĠS everal
Ġpro position
Serial ization
Ġch ronic
SH A
Dec oder
ĠQ String
Ġtransform ations
Ġreview ed
ĠQu ant
om ething
Ġas semb
pl ings
Rober t
ra ke
A mazon
Ġal leg
g mail
ass ador
Ġproject ed
Ġsurpr ised
render er
Ġh ip
is an
ĠE D
Ġanalyt ic
Ġdi agnostic
Sur face
" }
le af
Ġs ig
it ud
hy per
ffff ff
sp ark
19 25
Ġ{ })
C a
Ġp our
Ġdo ctors
MS G
Ġsim plicity
19 21
Ġrep o
the y
reg ex
ĠVis it
ri el
19 16
ĠY O
Equal To
j amin
Ġthink s
M us
eb ox
ĠY ang
Ġl ens
Ġlabor atory
Pro du
f are
Ġin fr
ĠNew ton
> $
F RAME
in verse
Ap pearance
aren cy
Ġdecre ased
? (
u ator
ĠG il
ol en
=" //
Mult iple
Ġr ub
ot he
mod ified
Ġra ising
Ġcritic ism
Dist ribution
ta x
ĠP ast
uff icient
iss a
V T
ĠIN TO
Ġobtain ing
ĠLaw rence
ĠH oll
$. }
Ġw edding
Ġap artment
ter ms
Ġed iting
)} (\
Ġtri angle
ĠZ one
Ġmeaning ful
A WS
PA SS
default s
Ġexam ined
ĠG alaxy
poly mer
A Y
Ġmor al
Us ed
S ocial
}{ {\
dec oration
Stat istics
Ġout break
Ġsupport ers
bold math
Ġamong st
19 26
v p
x e
aly zer
Ġfit ted
it r
Ġco in
pan ic
L M
Ġwalk ed
C over
Ġsh orter
cl ide
Ġover come
Ġv ibr
Ġform ul
MA SK
Ñ Ħ
ĠB rowser
ok ia
ĠCh ile
Conn ector
c ategories
ĠT E
B lob
oc hem
n pm
om p
b oy
gr avity
Ġm ilk
Ġh ist
ĠVis ual
(" -
che m
Ġev ident
ath y
Ġrepresent atives
f h
ĠPat ri
uer to
Ġinitial ized
Ġmaintain ing
ĠWh ich
Ġd inner
rat io
Ġc ul
Ġz ip
Ġins pect
Ġanal yst
19 12
ĠPolit ical
we ather
ĠA F
ĠAust ria
W alk
Ġviol ation
ĠTest s
tab End
H ard
pe ction
her ence
Ġgener ators
Ġdisp ersion
å ¯
Ġin jection
Ġinvolv ement
bound ed
sh ots
Ġch ip
ĠM erc
pos er
Ġg raphics
place holder
ac l
s qu
ĠB ound
ĠF el
tri angle
ĠB lood
Ġprot otype
Ġprim itive
ĠN ap
12 6
col ors
AR K
S il
; =
st ation
ĠN EW
ĠS TR
ĠF red
[ [
i ang
C y
Ġcor relations
ĠBul g
D ot
ĠQ ual
ĠIm Gui
> )</
Ġar ise
Ġ' $
U Int
De ep
tr aining
ev a
ĠP eters
ĠPhys ics
ĠNAS A
ex isting
Can adian
ĠR ole
Ġsub str
add EventListener
S heet
ord inary
Request s
ut t
P icker
ma jor
}/ \
Ġmem ories
om ed
left arrow
Ġsomew here
ro gen
:: $
Ġ urg
Ø ³
DI F
ĠU g
Qu estion
ĠSp irit
ĠM ail
Ġas ide
Ġcirc les
ĠN ep
Ġrel ating
Ġalloc ated
Ġland ing
Ð¾Ð ´
ĠA V
Ġliter ally
ens ively
Ġ( #
ĠB ed
ĠIs rar
19 23
iv ities
ĠI ce
Ġst arring
---- -
ch arts
Ġsusp ended
h fill
Fil m
> ";
an ne
Ġconsist ently
L com
ĠD IS
ĠArgent ina
Ġh ired
R GB
ĉĉ Ġ
Ġimp ly
cc c
ĠJ u
External Project
Ġst ub
19 15
Ġpo em
ĠTh anks
re ports
Ġcomp ression
ĠAll ah
ĠAb d
Ġ/* !
Ġw ake
un ed
ĠB ab
ĠM oz
g ui
em ale
sur ance
ath ers
Ġflow ers
/ '
Ġl t
Block ly
Ġp s
road cast
<? >
ĠD im
Ġaccret ion
Ġcr imes
S ig
ul u
'' '
ĠP un
c py
Ġy esterday
is y
it ter
ĠM aur
v r
ĠTur kish
Ġform ally
ĠN an
Ġrespond ed
Ġf atal
job s
lo ating
Ġbelong ing
IT H
R ound
Ġt ort
ERT Y
O s
ĠPh arm
ah n
cal c
ĠB io
ival ent
ĠSe pt
il ine
footnotes ize
ĠPe ak
Ġres ident
Ġcomp ound
ĠCle an
Ġc able
=" <?
custom er
Ġthere by
ist ance
ĠGr am
ĠCr ime
ĠG ot
font s
Ġcoun sel
Ġc ited
Head ing
text up
ĠDef ine
gr pc
ĠK ings
is i
Ġsh apes
D ash
H P
ĠS pect
Ġconv olution
12 9
ĠS now
A W
) (\
| ^{
ĠF ixed
h ou
re verse
sm art
oper ative
R atio
ĠDet erm
B g
U V
anc ouver
Ġpro c
Ġpl ots
MA KE
L ab
Ġdeterm ining
erg i
Custom er
ig gers
ĠTown ship
Ġint ense
Ġperson ally
Ġformer ly
Dependency Injection
w b
Ph ot
ĠMin or
id ges
Ġx si
ĠB ou
Ġturb ul
Ġloc ale
V EL
ĠM yst
ĠW right
ĠCent ury
ĠInt elligence
Ex pl
' _{
St d
Ġprom ising
à¥ ĩ
ĠTh row
ĉĉĉĉĉĉĉĉ ĉĉĉĉ
p read
Ġmusic ian
Ġcorrespond ence
------------ -
Ġdest ruction
Ġpopular ity
ĠRepresent atives
ĠK ir
Ġany more
Ġreported ly
Ġpat ent
Ġfl ights
Ġimm une
Ġc ss
NotFound Exception
ĠC ache
rol led
ĠJud ge
Ġfin ishing
HO ST
ĠCh ampions
Ġjun ior
Ġorth ogonal
ĠTrans action
Ġb ull
ace ut
ĠD ance
ĠK ind
f und
Ġs ends
Ġflex ible
Ġrend ering
on z
ĠR ace
Encod er
ab ad
phab et
ĠJ ess
Ġb es
Ge V
Ġjournal ists
Feb ruary
S PE
ot hes
St ation
ig g
ĠE mail
16 8
ĠM other
Ġhash Code
lot te
Ġgener ations
O lymp
ĠF erm
Ġtr ick
Ġcall er
Ġto w
Ġac oustic
ĠK o
Ġan cest
ĠRob inson
Ġdeterm in
Ġtext s
Part s
down arrow
Status Code
ĠM es
oxy gen
123 45
In clude
ĠW ol
Pro c
Ġmarg inal
ites pace
Ġalgebra ic
Ġkit chen
sc ar
Ġinv oked
ĠM oney
Ġ(! (
U TE
Ġback ing
Ġp c
ĠTra il
( []
s it
ra ise
ev ens
Ġn ut
ĠBrook lyn
Ġl os
ĠPl anning
P ref
Ġaffect s
Ġph rase
ĠP resent
text color
cons istent
Ġin aug
R NA
oc o
Ġsynchron ized
Ġbron ze
CL U
Ġdevelop ments
friend ly
Collect or
b ie
amp ed
B F
Ġroy al
Ġint ellectual
ĠSh ip
sche me
× Ķ
ertific ates
ĠS creen
wall paper
ĠS ymfony
TEXT URE
Ġd owntown
Ġg ent
ĠDen mark
iss ance
elect ric
ol utions
Key word
16 9
Ġtim ing
in ions
ap ing
G old
Ġre ven
ĠB uck
in burgh
S yn
">( </
D roid
ĠTele vision
ĠMic hel
E mb
Ġbe er
30 4
conf irm
ic it
ĠCol lect
ph ones
Ã§ Ã£o
Ġorgan isations
Ġsit uated
G ateway
Ġtrigger ed
Ġmoder ate
Ġref lected
Ġj u
ĠP ad
ĠSt ars
Ġcap ability
INST ANCE
' }),
ĠOr leans
ĠProt ocol
ĠMalays ia
ĠParam eter
Ġbut tons
tr ait
cor respond
Ġc rypto
ĠM enu
O rient
>: ]<
iv ot
Dis abled
Ġa z
E lem
S at
, </
ĠD ays
ra is
n r
17 5
ĠL ocation
Draw able
P in
h ole
car bon
P K
Ġj uris
bit coin
g ender
Ġam id
Ġdemocr acy
read cr
chi at
for ge
Tog gle
Ġg allery
Ġor ange
ro se
Ġr uling
vari ables
AR S
Browser Detector
ĠUn iverse
&= &\
Ġsp arse
ĠArk ansas
s ong
ĠMag ic
play back
Ġtrans verse
ING S
im ir
m outh
=" ./
99 9
Be havior
ĠVer ify
us p
ĠCal cul
re ply
ĠDet ails
exception s
RO W
ĠIss ue
{ (\
ate ful
uff le
Ġremark able
Ġ' ../
Ġs aving
ĠBelg ium
Ġeduc ated
ĠInter face
$ ^{
Ġbar rier
AT URE
Ġconven ience
Ġg od
Ġfore ver
Ġpain ter
ĠLeg al
Ġrecip ient
Ġte a
Ġrare ly
orient ed
F oo
u its
Ġpain tings
v ation
ĠS audi
Ġcampaign s
qu et
Ġpublish er
ĠDoug las
in ces
Ġoff ense
N orm
Ġneigh bors
en h
f ollow
Ġkin etic
Ġt weet
. :
Ġprem ium
ĠD ATA
ant on
iem ann
m icro
Ġpres erved
c z
Ġdelay ed
Ġh ierarchy
ĠSp ot
ĠInter est
å ¼
pre vent
en ario
Ġ il
ab ove
Ġscript s
el ian
ĠNot ice
CEP TED
const ants
R etry
ĠF ried
Ġis lands
Ġper ception
Ġgl ad
ĠG ary
ĠCon vention
Ġre try
od ox
ĠHun ter
ous ing
ativ istic
ĠA ch
al og
ĠR ank
ĠA qu
ĠBe aut
DITION S
interpre t
Ġe ating
remove Class
Un able
ill ance
Ġcomm ut
ĠTog ether
ĠC leveland
Ġsimilar ity
âĢ¦ ]
Ġex cluded
Thread ing
> /
ĠCh ron
Ġneg lig
Allow ed
Ġr c
Ġep id
Ġreg istry
H ide
ĠPolit ics
ĠW ind
R ay
list ed
33 3
{ |
Ġl ambda
ĠM ach
Ġover whel
Ġ ì
ĠV ent
re strict
ĠPortug al
miss ing
ĠCamp bell
ĠR y
je ctions
Ġdram atic
ĠS ay
Ġind irect
ing e
ĠSO FTWARE
Table s
Ġ( <
LE NGTH
ĠS oc
ĠL ower
ou ple
Ġlik ed
ĠF actory
nol imits
h ind
Ġel der
ym n
ĠQu est
ĠM ak
ĠO wn
ĠR ain
m icrosoft
AT T
as ures
Å «
. ),
Sub mit
orient ation
Ġrest ored
oc ent
Ġsecret ary
sc ience
Vis it
AME TER
Ġf usion
B s
Ġs s
ĠHistor ical
er k
Ġj e
E ducation
V ote
or ship
> ');
C AP
i q
Ġin comp
19 13
CC CC
Ġens uring
ĠStew art
F ROM
B ag
Ġsuff ix
Ġout door
ok u
ĠSam uel
mys ql
sp er
ĠVal ues
get Text
AP PLICATION
[ _
ĠF ly
vers ions
Ġr s
H ot
en z
G re
ĠM eta
pos able
t own
Â ·
Ġcelebr ated
Ġw eren
Ġ _{\
ĠCar ter
SD K
pos itive
Ġinter active
h w
umin ate
Te chn
Ġwh ilst
13 6
ĠBar on
ĠS L
ĠSh ah
sl ot
S i
Ġintr insic
d evelop
Ġthe ater
D imension
Î º
Ġdis ag
clide an
Ġstr ain
ĠLe ave
ĠMor ris
ĠP oll
ing ers
ĠP il
im plementation
ĠF ro
size of
inv oke
Ġguarant eed
jb oss
te chn
h ai
onom ous
in ates
em ies
ĠF ame
cast le
ast ed
Ġcompos ite
R eq
Ġm k
i ov
ĠH amp
Ġarr anged
Ġpolynomial s
ĠT yp
Ġthreat s
An chor
ĠBo ys
effect ive
Ġcr icket
Ġre fr
H idden
ides pread
ĠF inn
do es
K EN
Ġs el
log ic
iv an
+ $
Ġdrink ing
pro blem
o is
Ġcomp eting
Art icle
ĠAl gorithm
xi ety
Ð¸ Ñı
p od
ĠT ar
ĠS S
Ġliber al
Ġ\ |\
ĠO THER
ĠK night
Ġsp ots
ĠFe atures
Ġl oyal
Ġrom antic
TO DO
Ġadv is
Are Equal
Ġsil ent
tra its
t bl
ĠNO TE
ĠSy mbol
ĠC HE
Ġ( âĢľ
ĠR ub
field set
ter ed
C am
T ON
oc ese
ĠLead er
ar ial
aceut ical
ĠNor wegian
ĠReview s
ĠP i
s With
Bi ography
Ġt ar
Ke ep
for ced
Ġb ases
U i
0 100
Ġsurround ed
Ind ian
ĠPho enix
// !
ĠAl b
Ġar ithmetic
ĠR ele
ion ed
ul in
Ġspec ification
ĠJ uan
Ass ignment
ĠCons ult
ĠC M
ĠRes erved
ĠKenn edy
Ġbl ind
tr on
Comple tion
ĠShe l
AC CEPTED
ĠPh one
Ġt ie
Ġch urches
Ġ( );
um per
Ġemer ged
cam el
ra f
P aint
Ġsaf ely
Ġd jango
Th reshold
Ġlab eled
ĠClin ical
linked ExternalProject
MS earch
Ġco operation
ĠS ample
vious ly
f ers
h p
Ġaver aged
CH AN
Ġempir ical
u art
Ġintrodu cing
b ecause
Ġt ropical
is p
\\ \\
serial ize
ĠK az
Ġmeas uring
Co ins
\| _
Ġdisap pe
\, {\
og s
ĉĉĉĉĉĉ Ċ
ynchron ous
Ġform ats
Ġtw elve
Ġmathemat ical
ĠSt yle
Ġparticip ating
ĠAfghan istan
$\ ,
Ind icator
T ick
h uman
ĠLag rangian
control s
Act or
numer ic
* \
linkedExternalProject Path
ĠE SP
ĠPr imary
ad os
Me asure
ĠRead ing
ĠQueens land
Ġdecre asing
Ġ rib
att en
NO TE
Ġmon ot
Ġattrib uted
leg end
L uc
Ġmorph ism
thread s
M W
ĠFac ulty
Ð¾Ð ¼
Ġport s
L arge
g overnor
Part ial
ĠB eck
erv es
Ġiter ations
Ġf oss
Ġ- &
comm ands
ĠPal ace
ij ing
ĠSh are
Ġm ild
Ġm oon
14 7
ĠBalt imore
Ġcompens ation
y arn
ĠComm ons
Ġman ually
j k
Ġcons ensus
Austral ian
N U
get Property
Ġadmin ister
ug u
Ġam pl
---- --
) ?
ĠCon st
Ġviol ent
Un its
: **
ĠR s
ĠS K
ĠS peed
FO RE
tog ether
Ġstay ed
type param
screens aver
s lds
Ref lection
ĠPort land
D eb
amp a
> ("
l iteral
Ġcancel led
ol s
Ġgre y
Ġad apter
ĠCON DITIONS
Ġcor related
Ġart istic
Ġdeploy ed
Ġc fg
Dis patcher
ĠMet ro
ĠG T
cy cl
Ġcent ered
Ġlaw yers
P DF
Ġh ill
Ġs ust
Ġnec k
Add itional
Â «
ĠS ustain
Ð°Ð »
Ġ ÑĤ
St mt
ink ing
ĠSen ator
Ġt ension
æ ī
ov ak
nav Bar
() `
ĠEd ge
Ġacceler ation
ff ic
Ġdis aster
EN C
C at
Gener ate
Ġcomb ining
net t
ĠCro at
Com b
2 25
Ġc p
Pl us
LO B
ĠOper ations
ĠL L
ĠBAS IS
ĠG round
Block Index
ĠKen ya
script scriptstyle
Ġirre ducible
co ins
Ġcount ing
Ġsuff er
end ors
Ġhigh way
ast ore
Ġpeak s
Ġbirth day
st ub
Ġsup plement
Ġb ike
ĠP ope
A wards
d v
ĠW orth
or o
am ination
Ġtrans it
inner HTML
c ritical
f v
Ġ\ ,\
Ġjud ges
Ġspe akers
Ġview ers
Ġcap s
k ar
sp i
Particip ant
) '
ENT ER
Ġpass age
cknow ledge
Ġex clusively
Ġreflect s
IC K
2 10
Ġc s
String s
oth y
olog ically
Ġch amber
Ġrecord ings
f ee
DI RECT
ha us
ĠRog er
ĠNC AA
Ġgr ants
ond a
Ġgu ilty
ĠMur ray
S IGN
ĠV ert
Ġ! !
ĠR aw
ĠE dd
Ġmyst ery
h op
des cr
Ġsh ifted
upload s
19 11
P ages
( ",
Ġc ameras
ci pl
ĠV iol
les cope
Ch oice
Ġal gebras
std err
as ide
Ġdam aged
Ġinh abit
k le
Ġpre val
Ġinter ference
ort ion
ĠN elson
ĠJ en
ENT S
Ġless ons
æĸ ĩ
Ġinitial ization
FUN CTION
s leep
on omic
Ġb less
ge om
log ical
Ġvacc ines
op les
Ġm ilit
Ġ$ ("#
ĠF ont
ab ases
Ġafford able
ĠArch ive
Ġeth nic
table s
ĠN ames
Ġcommun icate
Ġexpl ored
Ġphot ons
Ġattract ive
Ġiniti atives
amer on
ĠB loom
ograph er
Ġinvest ments
Ġdig it
ĠT ower
Ġprotocol s
d w
Ġal igned
å Į
ĠPit tsburgh
Ġan not
Ġpro tests
Ġd war
ĠMar ie
ĠR T
h arm
y aml
ĠBuff alo
Ġc c
ch annels
14 5
Ġst ating
ĠDak ota
*} [
C odes
Ġenter prise
Ġdep ression
ĠEn try
cons ider
Meta Data
F W
ĠJ e
ĠA GN
ĠL iverpool
Ġback end
Ġmanufact urer
ĠO il
ĠCommon wealth
sub str
part ition
pay ment
Ġr anks
g em
et ype
ect ure
Ġconf ident
Ġexam ination
=\ {
gu ard
l m
it ations
++ ++
Ġre ign
Th an
ed a
Ġcomb inations
d al
ag h
Ġgather ed
Ġd w
spec ified
Ġpost erior
ric ane
car ousel
Ġ\ [
F D
ight arrow
add le
G uid
] ^
ĠAdv anced
C op
Ġear liest
Ġprom oting
Dat aset
Ġful fill
ĠS chema
sc opy
ĠÐ ·
ĠG raham
Event Args
Ġsp oken
window s
ĠP E
Ġt ick
Ġin ference
Found ation
ĠB aker
PREF IX
us ive
af ka
× ª
Ġlo ader
Ġs creens
Ġg ear
Ġexpl oring
Ġf ert
Ch ina
Ġes c
16 5
Ġimm igration
al one
ĠH R
ist r
F ast
Ġdr ums
Fil ename
ch oice
Ġnot ing
asc ade
ĠArch ives
Ġcr ick
Ġvo ices
l ists
em en
ĠG as
Ġcontrib uting
Ġmount ains
ĠB ible
B as
pe ated
_{ +
ew ise
S pr
ĠI MP
n io
g c
oc on
Ġmill is
/ $
Ġi i
ĠÎ ¼
break ing
pers istence
im o
ĠProf essional
Ġmer ger
P ACK
in ance
ĠN at
C alled
ĠH O
S un
ĠD epend
2 60
Ġtravel ing
ĠN ear
Ġwe ird
Ġinter faces
Ġaccomp any
ac iÃ³n
ay an
ĠN eb
H istor
ĠA y
Comp any
to k
Project s
ab ul
up arrow
> ';
dim en
â Ĩ
Further more
ä¸ Ģ
Ġsustain ability
it ol
o ft
um ed
Ġcar ries
pub lished
ast ro
DE LETE
Ġ utils
ĠT ig
Ġsh ifts
Ġb orrow
Write Line
Ġindic ator
eff icient
}) ^{
Ġdi et
ĠD elta
ĠP AR
) _{\
ĠL anc
Ġcompet itions
ĠCont ainer
G UI
ric ulum
Ġpro l
ĠIn novation
id ays
Ġact ively
Ġche st
Com plex
Ġle ts
ĠU rban
ĠT ob
Ġim posed
LI B
Ġattempt ing
Ġcommand er
Ġvis itor
Ġb om
s napshot
Ġappreci ate
op ol
Ġres ign
ĠVAL UES
Red irect
ĠPro duction
Ġeng aging
Ġcl ustering
Ġanalyt ical
Ġhop ing
Ġs ock
Ġch iral
th a
ĠCh amber
Ġv e
ĠOr ange
Comple ted
Ġag enda
var rho
ĠG ulf
G H
ĠUn fortunately
Ġvolunte ers
Ġh ang
ĠH ockey
ĠC ass
ĠN am
mark et
C ert
\ },
Perm issions
BU TE
* .
Ġdes ert
pro port
Ġpre t
ĠGener ate
ĠRef orm
Î ¯
Pro position
Ang le
Ġl oud
Ġb unch
& =\
che str
all ing
}. }
ĠF un
ĠSte el
on ing
Ġaltern ate
Ġven ue
ad ies
oper ating
ur ring
Ġhard er
Ġconsist ed
ĠThe ater
Ġg olf
ar ms
our t
$\ \
-> {
mem Item
loc als
Ġmet res
! )
ĠF reedom
ĠH ind
Ġcomp atibility
Ġsu icide
ched uling
h ibernate
}$ \
Ġfacilit ate
ĠĠĠĠ ĉ
Ġqu as
v g
Ġcon fer
Ġn ortheast
ĠIn fo
Prot otype
Ġpurs ue
M ot
Ġs urre
ey er
ĠSt orm
Ph ase
ah l
input s
get Key
ĠR and
11 11
has OwnProperty
navBar Cell
Ä «
Ġp t
grad ed
Ġfl ower
($ _
Ġagric ulture
M N
r ative
Ã ½
ĠH end
ue z
tain ers
Ġw idespread
Ġd ash
Ġmid field
ĠD ie
cknowled g
AR B
Ġsevent h
un its
Ġschol ars
Ġsole ly
the mes
Ġexp ed
ĠTem plate
pe er
i pt
ĠFin land
um bs
Doc uments
ĠClass ic
Ġ' </
ĠRE AD
ĠDr agon
Rel ation
el n
On line
Ġpropag ation
small skip
Ġsplit ting
ĠV M
ĠT s
Ġcar rier
b age
By Name
NOS CRIPT
Ġwalk s
g gle
Ġlength s
Cal cul
ĠI de
à ®
Im mutable
Ġd uties
Ġmod ifications
Ġfol ks
tem plates
V R
Olymp ic
000 1
Log ging
Ġf ixture
ĠĠĠĠĠĠĠĠĠĠĠĠĠĠ Ċ
ĠCamp aign
] ];
sub scri
Ġdr ives
Ġst uck
u ke
Ġgrad ually
Ġsp ell
18 90
ĠR ES
Y P
f air
. ]
al ph
Ġac ute
Ġfant astic
Ġmut ual
T ITLE
Ġche ap
Ġmanufact urers
ĠGu y
x r
re ck
Ġen zym
ĠF alls
Ġpri est
( @"
ĠJust in
oc c
Th anks
Ġm as
ad just
Ġcl othing
Ġo ct
ĠCon n
Ġimplement ing
Ġl oves
Ġaccess ed
Ġphot ography
Ġportr ait
ĠC er
re ng
Ġt ends
ĠS erv
Rout ing
Ġphys ically
Ġrecru it
tra ctions
conf irmed
M or
ĠE T
ential ly
ĠW a
ĠV a
Ġchar ity
ĠCon structor
Sc ott
Ġop am
veloc ity
Add ed
Ġbon us
ĠB utton
Ġpoint ing
Ġg all
Cre ation
Ġvol tage
ro d
Ġab road
Stop Point
ir s
az ard
Ġsome how
ĠW inn
Ġship ping
C atalog
TR A
Ġencounter ed
ĠDep uty
lin ing
Ġp arsing
ordin ator
Var id
Ġgr an
ĠDocument ation
ic he
ĠF iction
Ġ" ")
s izing
ĠImp act
Ġvent ure
PAR AM
Ġun ity
Ġre normal
ĠI an
Ġconc at
an imate
rot ate
Ġfor cing
19 08
å º
Ġpure ly
Un mar
Ġacqu ire
ĠF am
St ates
ri ors
Off icial
Ġcoll isions
an on
ĠH ilbert
Ġlux ury
Ġun e
m und
Scheduled StopPoint
ĠS ales
Ġb atter
Ġestim ator
Ġo w
Ġp ipe
Ġ} .
Con version
Ġdecl ined
Ġdream s
ĠĠĠĠĠĠĠĠĠĠĠĠĠĠĠĠĠĠĠĠĠĠĠĠĠĠĠĠĠĠĠĠ ĠĠĠĠĠĠĠĠĠĠĠĠĠĠĠĠĠĠĠĠĠĠĠ
ĠEv ans
Ġin ches
ĠP D
ĠEd inburgh
AS C
Ġ( {
or ate
TE GER
Ġmedal ists
F ace
ĠBroad way
p ick
ĠOr chestra
un stable
Ú ©
ĠEn able
T ARGET
Ġl ying
Ġg al
ĠF loat
ĠMit chell
add er
Vari ables
Ġhighlight ed
ĠZ e
Ã¶ r
am mat
Ġpush ing
ĠS r
Ind ia
Ġp uzz
ĠM aj
fo od
ĠQ CD
Ge orge
ĠPos ition
t ick
ĠS olar
ĠExample s
M argin
ĠM ut
z ier
Ġem power
I BUTE
R oom
An notations
Inst ances
S pring
& &\
al tern
="../ ..
ĠBe ing
Ġfrag ments
Ġdistingu ished
ot ton
Ġover se
Example s
ĠC hel
ĠCor ollary
ĠB illy
Ar n
Ġspec ifies
Ġwarn ings
ĠIn stance
Ġsub space
Ġtalk ed
H orizontal
Input s
Ġdis contin
L aw
text normal
Bet ween
Oper and
sh aped
Ġsing ers
ĠD ocker
LO AT
ĠK ur
D Y
lock ed
Check er
iff s
Ġult imate
Ġadm its
Ġcontrovers ial
L ONG
m ers
B log
erv ation
Ġt we
deg ree
LSP AN
icult ural
D ER
ĠCO LSPAN
ĠU lt
Ġprov es
Ġref uge
Ġs nap
ĠC ould
Ġp ow
ĠMat hemat
ĠB ec
eg u
Ġvess el
ĠA G
15 5
15 00
sec ure
ĠMont real
Ġ" --
Ġle an
Ġoccasion ally
tem perature
Ġcloud s
Ġlong est
Ġactiv ists
Ġcharg ing
mat htt
Ġc rop
ĠMean while
Ġund ert
Ġex clude
ĠAdd itional
ĠT oy
Ġext ending
m achine
/ ******/
ĠPro gress
ĠĠĠĠĠĠĠĠĠĠĠĠĠĠĠĠĠĠĠĠĠĠĠĠĠĠĠĠĠĠĠĠ ĠĠĠĠĠĠĠĠĠĠ
Ġtem plates
Ġposs ession
\, ,
Ġcred its
Perm alink
le te
ĠJ oy
Ġveter an
Ġdec ode
Reg ular
ĠP el
Linear Layout
Ġ& $
7 50
av i
ex press
Ġt ies
Ġdep recated
au er
_{ -\
Î ³
} `
Ġcou plings
cel ona
ĠIn it
im edia
big cup
ĠPr adesh
Ġt ub
Ġle x
File System
ĠHon or
az ines
Ġprogress ive
Ġtreat ments
Ġan onymous
light s
La unch
look ing
Ġsub stit
ĠW olf
ĠBrazil ian
Ġc ow
Ġphotograph s
13 2
B ob
Ġlight ing
Ġbeg un
ud o
ĠCre ative
ĠSt ein
ĠM aine
ĠIn surance
cre ation
Ġ(! $
ann ah
es la
tr ightarrow
Ġover l
Rec ip
ĠR ick
ĠDen ver
Rec ogn
m is
Ġ$ ^{
ĠFr amework
Att achment
ĠChar acter
Ġexception al
b ib
ĠHawai i
Ġdep icted
Ġposs ibilities
ĠF ather
, (
Ġp ill
ĠV erm
Ap ple
Ġcas ual
Ġcriter ion
ĠR ect
Ġfilter ed
Ġdef ence
Ġsup press
Ġin duct
ĠS ER
s an
OD Y
: @
at ics
(" <
Ġaff airs
int egr
ĠH IV
d ing
Ġactiv ist
Ġp ose
Ġsph erical
ield s
() ]
u ition
por al
acc ur
ĠE R
get Current
ĠCom ics
Rece iver
ĠL ot
b ach
Ġc rown
Ġim per
ĠCom plex
is Array
pro f
ol ate
Ġc razy
Ġ[ #
ĠLiber al
Ġapprox im
to kens
Ġpre view
adem ark
Ġval ley
fin ity
hl js
Ġefficient ly
ĠO cc
A fr
Ġ Ã©
R ail
Ġin clusive
w ire
ĠK on
ane an
ĠW E
hip s
ĠF err
ĠPark er
ia o
Ġdev oted
Ġsurve ys
A CTION
ĠA aron
Al tern
J ul
la unch
ĠSh im
Al bum
20 4
get Default
Ġpain ted
W elcome
Co ord
ĠV ancouver
col og
}\ ;\
ĠMov ement
th al
per form
ak u
Ġen abling
Ġbuild s
Ġad res
ĠCr icket
h ls
Ġim pr
Ġch ampions
14 9
dom inant
ĠC V
Ġc ock
ĠP RI
ĠEm ploy
ĠG ov
se ek
quir y
def n
Ġdes per
Ġscr atch
Ġaccept ance
) <
Ġforest s
ch t
Ġvar ied
ke ley
Ġstation ary
Ġre tained
Vert ical
MA G
ĠUp per
hat tan
ĠÂ ±
Ġg ard
ect ive
d iction
sw ap
D J
ĠEqu ation
ex ist
ac co
Ġg ains
Mod ules
Ġhe ating
ĠE arl
urs es
Ġpl acement
equ e
ĠDom in
ad ic
First Name
ĠSh a
Ġlimit ing
ĠM uch
Ġcomp anion
Ð Ł
ĠC ategory
ĠR u
Work s
ĠWay ne
ĠAr gs
" |
qu ake
Ġsurv ived
Ġaccept able
act ivate
Ġle ak
Iss ue
Ġadvert is
H H
ĠS ent
irm ingham
ĠC itiz
0 10
ĠÐ ¼
Ġre fin
verb ose
æĺ ¯
ref ox
... ]
UT C
14 3
ever y
Ã Ĺ
F B
Rev ision
iz za
Ġst er
ĠP ick
Im g
sup erv
Ġenc rypted
ot ypes
k k
Ġag reements
set Value
Ġlo ops
Opt im
Ġto ggle
F ilters
bin om
Ġ ):
' ',
Ġh ub
art z
ĠCon trib
Ġst ere
ĠCont roller
ScheduledStopPoint Ref
Ġev olved
ik o
ĠSy ntax
ct l
Com pute
date picker
ĠJim my
Ä Ł
Ġsurv iv
GRO UP
Ġblock chain
ĠMarg aret
ĠS Y
ellig ent
utor ial
Opt s
NAME SPACE
Sign al
Ġt ale
ĠNever theless
art icles
Ġor bits
ĠCo al
n ia
ĠWith in
Ar row
ĠB ond
Ġnormal ization
ine a
Ġcor ruption
ĠCon struction
Ġbut ter
Rec ords
Ġtack le
S B
Ġcast le
ĠPortug uese
ĠF ed
atern al
å °
ĠSy ria
Ġun n
Ġdist urb
Ġthreat ened
ĠN ord
Ġcommission ed
ĠK le
ĠP ow
ĠEth iop
Ġprepar ing
copy right
Ġb read
ĠMad rid
Ġwor ship
........ ........
ĠM ove
Art ifact
Ġhar vest
B ot
duc ational
Ġs id
Ġre semb
mult line
Ġunit ary
ĠP in
ĠAnt i
}{ }
sm ooth
Ġnav igate
R ad
S cheduler
Is Null
CD ATA
Ġblock ed
ib bean
J O
ok a
R oll
ene ath
LE N
CON ST
20 3
du al
Ġvar ies
ĠSh adow
block quote
Ġlog arith
ĠIN T
Ġwind s
F ee
ĠSt even
Ġdemonstr ates
ĠH em
m usic
n v
| _{\
Link s
Ġcomp ounds
product s
Ġdel iber
Ġlaw suit
comp ass
I FI
Ġs ep
enez uel
Ġingred ients
ĠWrit ing
ĠF riends
Ġp arks
s elling
Ġinsert ed
g ro
q a
Ġs ugar
O ps
Ġpregn ancy
Ġclaim ing
ĠB rew
ĠAnd re
Ġcon clusions
add on
BY TE
Ġ{ $\
ĠJ azz
Ġmist ake
% );
User Agent
ĠÐ ±
Ġrepeated ly
ĠC over
ĠTechn ical
}) (
Ã ¦
ĠN ad
Ġp reference
pect ives
\ }.
uck er
ĠST AT
D ue
om i
c atalog
eb ook
class path
ĠColl ins
Wh ich
Ġt ap
ĠF riend
Ġl iver
ĠBro thers
ĠEp isode
M LE
ph ysical
R F
w m
Serial izable
Ġextr action
LE VEL
Ġfavour ite
ĠValue Error
13 1
S printf
é ĩ
CON NECT
B orn
ĠO tt
Ġprefer ences
DO WN
h it
to o
Ġ' {
ĠCol omb
unt u
ĠP uerto
capt ure
Ġpower ed
Ġshould er
abs olute
Ġpack ed
Ġrect angle
or ia
P eter
) }$.
inst ances
organ ization
Ġcre ator
Ġfit ness
AA AA
2 32
s ound
ĠM is
Ġfl ush
Ġmain stream
ĠBr anch
Suppress Warnings
T OP
ĠC old
ĠD rop
Ġre vision
ĠDr ag
ĠJ a
ĠAb u
Ġhit ting
Ġmask s
ĉĉĉĉĉ Ċ
19 05
Ġcelebr ation
MP TY
Ġillustr ate
pre tty
ĠG M
16 6
R ank
. ";
F IN
F IL
Ġb orders
ĠTH IS
ĠP ic
ç ½
Ġassert ion
=" {
nt hetic
Th ank
Ġhost ing
ĠLabor atory
ser ts
Ġadjust ed
ri o
us c
Ġpl ugins
Ġsh a
ep h
Ġre b
C ss
g allery
ĠInt el
Ġentreprene ur
m r
cri ptions
V IS
ĠC ultural
ĠCh art
Ġcoast al
ĠCon tract
}} ,\
ĠBern ard
ps y
ĠCar lo
sim ilar
Br anch
ĠTerm s
="../.. ">
Sup plier
Last Name
ac ular
Big g
Ġlab our
Ġatt ending
> #
ught er
mu x
Ġel astic
fold ing
B ibliography
ast ing
Ġcl ause
m eter
Ġin cent
XML Schema
d z
Ġid s
Represent ation
A ge
c en
Ġ\ {\
ĠStan ley
W ARNING
Ġth umb
ĠDr ug
m ir
Ġre n
' "
Ġa cknowledge
Ġplot ted
av ery
ĠBar bara
ĠValid ate
ph ony
mon itor
Ġstop ping
Ġhistor ian
Ġf uck
ĠU pon
Ġrat ings
ob a
am y
ĠCl aim
Ġcomput ers
n it
Ġin cl
ĠFrank lin
Ġconcentr ations
ĠM ol
os ure
ent ities
bal ance
B and
ag ar
Ġex ponent
Ġhold er
ĠDise ase
ĠH unt
ĠJ O
Ġemph asis
ĠFl ow
N ER
Ġc ategor
path y
B tn
Ġthick ness
qu ire
Sub scri
ĠN AT
Rec ent
Ġs outheast
Ġactiv ated
(" [
b idden
s ock
Ġsynt hesis
m ill
fl ash
\ }_{
enn ial
ĠThe me
S ys
Ġcon e
Ġ# #
Ġmount ed
d ifferent
int ent
I r
R ussian
Ġhuman ity
Ġan isot
ĠGener ic
pro j
h um
Ġdis orders
P s
sl ug
ĠĠĠĠĠĠĠĠĠĠĠĠĠĠĠĠĠĠĠĠĠĠĠĠĠĠĠĠĠĠĠĠ ĠĠĠĠĠĠĠĠĠĠĠĠ
th reshold
ĠWar ren
ID s
Ġarg v
ham mad
ĠL ayout
Ġinn ings
ers ions
uss ia
Ġaud iences
å į
Ġa fr
g res
Ġa est
19 09
Ġ\ }
13 4
Ġr h
ĠP rior
ĠJ oin
Par cel
Ġspeak s
Prov ince
ĠExt ension
Ġor al
inter faces
iv ic
Ġco herent
Ġdifferent ly
Ġabs ent
ĠA rena
Pop ulated
T witter
ĠMark ov
Ġamplit udes
ĠL yn
c odes
om on
ĠA w
ud ge
i am
Pre view
Ġcom ed
Ġkey word
spir acy
ad j
Ġsub mission
man aged
Ġun stable
ĠCom plete
Ġview ing
e ctions
Ġb ills
ĠF ab
19 07
Pres ident
fin ish
She ll
s aved
sub title
ĠH ub
c id
ĠPh ase
Link ed
ĠAL L
Ġdifficult ies
ĠA my
Ġeigen value
ĠCO L
10 16
P B
Ġr ab
ĠStat istics
sche dule
ĠSol utions
æ İ
sen al
p ared
ĠQue bec
C lip
su ite
Ġfail ing
Ġswim ming
ĠR acing
Ġt body
j sp
c ence
Ġse eds
ĠK ay
Ġgraph ic
19 06
Ġprob abilities
char set
or ig
ex c
ĠUnivers al
ĠH aving
Ġinst ability
14 6
ĠT X
ĠA ld
ĠD R
ke eper
val ued
ogen ic
h ort
ĠAct ivity
Ġconvers ations
d imension
Ġpre liminary
Ġburn ing
Ġautom ated
ĠHamp shire
ĠB ot
ĠCor respond
Ã Ĥ
ĠF ine
00 3
ĠUn like
G s
ov o
Ġdec k
it ual
Ġrefer ring
ĠBe ijing
m ot
Ġadvant ages
Ġinstrument al
Ġst eal
request s
d ro
Ġobject ives
Ġrock s
ext ends
Ġaccount ing
ĠFI LE
b usiness
Event Handler
PAR AMETER
Ġwarr ant
Ġres ort
Ġband width
Ġcontrad iction
Ġbrilli ant
ĠS ox
Ġen emies
Ðº Ð°
ĠSaf ari
et on
ĠZ end
ĠUs ers
Ġmand atory
1 19
r ans
y our
ER Y
Ġa ired
Ac adem
ĠAgain st
L ess
ocom plete
ĠStr ategy
get Elements
im iter
Ġun w
N il
g ap
re ject
Ġj unction
Ġop inions
ĠMe eting
Ġmechan ics
N EL
h is
Con struct
Cl one
Ġpo ems
Ge ography
Ġmort ality
ĠA pi
Ġsl ave
us k
ĠK an
)-- (
eth yl
ĠUS D
Ġdistrib ute
Ġcl othes
Rot ation
er ious
Ġminor ity
Ġcult ures
Ġoccup ation
Ġple asure
im ag
Ġdoll ar
Ġpart ly
36 5
Ġre ceptor
ĠDec l
ĠEq s
W T
ĠC row
Ġcons iders
Ã© n
Ġsw ap
V ill
ĠK ids
Max imum
ĠStr ateg
olec ular
ĠP ain
ĠL ith
Ġsur f
ĠPr incess
ĠNav al
e enth
it les
ar an
Ġb lob
p arsed
Ġl unch
eh icle
Ġarrang ement
Publish er
m illion
Ġlog s
ar us
ĠB right
ir able
ig ue
amp ing
Ġserial ized
Cap acity
oth s
ced ure
/ %
define Property
Ġicon ic
ĠBen jamin
o ct
up id
Ġ ~\
ir ts
Ġelim inate
intend o
sub equations
ĠChar lotte
Ext ended
b ash
ed ges
ĠArm en
Ġplan ets
ĠL ost
FA I
g ulp
ĠLa ura
y outube
ĠK ap
bor ough
Ġinter rupt
2 24
ĠDemocr at
he ld
13 7
ĠCommission er
I MAGE
. ).
Ġqu it
Ġan omal
Instance Of
df s
Ġassum es
ĠElement ary
ah a
Ġvalid ity
ÃŃ n
ĠSD K
ĠAl aska
Json Property
ĠN ormal
Ġd rew
ab we
Ġs ail
ĠI SO
Ġ} ));
Ġvess els
Ex cel
View s
ĠR ing
Ġharm onic
Ġvacc ination
s il
Ġh orses
over e
ĠModel s
Ġb onds
ĠF BI
math comp
Ġd ol
div ider
the ory
leq slant
Sports people
) ";
' })
ĠR io
Ġr ay
ĠN GC
ĠV oice
ĠSe an
ĠI o
Ġ[ âĢ¦]
ĠY ES
Ġincred ibly
ĠLiter ature
de ploy
Ge o
ĠMor ning
^+ $
Ġis omorphic
Le ave
fail ure
Sm art
d ale
ĠW allet
ĠSw ift
Ġjo ins
Ġwire less
æ ł
ĠLeg end
Over flow
it err
oss ible
est ock
ĠE lection
Ø ¨
ĠCO M
ĠCHE CK
Ġro ster
std out
Ġestablish ing
L T
ac ies
up iter
19 04
m art
P oll
Ġp tr
i u
H I
Ġdepart ure
R en
ĠGi ants
P TS
Pro duction
US A
ĠRet riev
Ġun ve
Ġop ponents
ĠS EC
qu arter
Contin ue
Ġag rees
ul ators
et ta
ĠEl se
20 5
Ġpre vention
Ġsens ors
F ar
Ġm ast
Ġcom ics
Ġbank ing
Ġnot ably
E mitter
W ords
p aren
s chool
get Data
Ġpers istent
FN GL
ĠCustom er
Ġh o
ex act
Ġs am
ĠF ollow
Ġop ponent
ĠY u
Ġcount ies
Ġcolle ges
ĠCl ar
L ittle
e ing
imb abwe
Ġch ances
ĠUp dated
Ġn od
sw ift
est ing
Reg ex
Ġal ien
Ġpick s
SU PP
Ġapprop ri
Ġll vm
e ur
Ġg lyph
og ue
}_{ {\
unit Pattern
Ġa pt
B er
ĠB ag
ĠC rown
Ġven ues
list en
Ġd ub
Ġmob ility
ĠHigh er
Ġconform al
Ġab ilities
Tag Name
ĠIn iti
ĠG C
B bb
Ġp ad
ĠP rix
string ify
ãĤ Ĵ
Record ed
Con v
g uid
Ġph ones
Un ion
... "
Ġcouple s
Ġpul s
T ur
ann es
Stud ent
ĠR oot
Ġenc oder
le ad
ĠD anish
m el
ol ished
Ġstrugg ling
C AC
ier ra
H it
View ById
ĠPhys ical
ĠR ud
^* _
Ġinflu ences
C li
Ġunder ground
ĠAt omic
ĠAdd s
ĠArch itecture
d ashed
t om
ol ine
qu ick
s am
m ess
Ġcosm ological
ĠK rist
37 5
cur r
Ġvirt ually
p ip
Ġabort ion
W W
ĠBroad cast
Ġdocument ed
ĠDes cribe
2 15
ST EM
rest ore
v dots
Ġpro posals
Comm ands
Ġple ased
4 80
sh ore
Ġal arm
Ġgeneral ization
ocol ate
Ġann ually
Ġauthor ized
il ia
ĠC raig
Ġj ew
sup ports
ä ¿
Ġmot ivated
Ġatt itude
A IN
May be
Ð ³
ĠP or
ĠZ hang
Ġcontinu ously
datab ind
ĠZ ero
Ġaccur ately
ĠH H
ST RE
ash ing
mid rule
n ick
Ġex tern
sh ops
contrib s
R oman
get Time
Ġhand lers
Ġd ated
ĠS ad
Th omas
Ġste ep
(" ")]
Ġdot ted
Abs olute
Man ifest
ĠS even
ĠB R
ĠV eter
SE ARCH
per formance
æ į
Ġm ad
ĠBet ter
ĠSt ack
Ġdiscrim ination
N ever
ĠCal led
K nown
W ater
Ġt ape
em in
Ġk inem
$ _{\
ĠD raft
SD L
[] )
UN K
s ess
40 1
Ġrelax ation
acef ul
b ird
ch rom
auth ors
ut ers
Ġport al
Ġp ag
s ized
ĠRem ote
Tool bar
T urn
ID S
pl o
ew ay
s uggest
tr action
Ġdis joint
Ġengine ers
L F
d or
cess ion
Ġevery day
ĠC elebr
ĠK ate
m ong
Ex change
Ġco aching
ĠDirect ory
ĠAr c
Py thon
Ġconj unction
ink s
ri en
13 3
ĠBl ues
io x
r te
ĠM ode
Ġobserv able
Ġtrail er
f iction
J ac
\ -
t ec
Ġc ous
us hes
Ġwarm ing
Q UE
SY S
Click Listener
Ġc ust
mes h
scal ar
Ġshut down
ĠCl uster
ĠT ypes
Read Only
ĠP ictures
Ġroll ing
Ġseek s
ORM AL
ÑĢ Ð¸
s ensitive
ĠC arn
ĠGre ater
ĠS outheast
Ġexist ed
Ġf illing
Ġsc rap
Ġgr ain
,... ,
ĠH erald
Ġqu oted
ig uous
IC AL
ĠF eed
Ġpred icate
20 8
ĠMuslim s
ĠR iemann
ĠVi enna
ĠD ig
ĠField s
Ġ< ![
Ġsequ el
ĠH ER
op ing
Ð½ Ð¸
ĠCurrent ly
act ed
Ġdep uty
[ ];
ĠRes et
ra ction
eg e
N F
Ġcancell ation
ĠS amsung
ro at
"> "
ĠT ak
Th rows
13 8
ĠEm peror
ĠC atal
ĠF er
ot er
Ġ$ ('.
n x
div ision
ĠFerm i
Ġ" (
ĠRob in
get Logger
w heel
ĠDir ac
Ġal i
Ph ys
Ġinvestig ations
hen g
ĠOver all
Ġbro ader
ĠC ris
ç ±
Ġsub stance
an alytics
Ġcitiz en
ĠC apt
ĠJ ung
erm ark
;& #
ĠGr ace
Git Hub
ĠP si
ĠD NS
IS H
Ġretr ieved
ĠP apers
ort on
Ġres il
M icro
ĠB ra
ĠA ST
Ġfr act
TE X
Ġtarget ing
if le
Ġconstr ained
Ġdiv ide
d id
Ġ$ -$
13 9
l c
Z end
Ġdeliver ing
Ġrom ance
ĠC ome
j ournal
fr action
urch ase
ĠN BC
d ummy
ambig uation
) }$,
ĠPat tern
ism atch
Inv oke
{ .
An swer
Ġste am
Ġinfe ctions
ĠP anel
ĠRe ce
v k
STAT IC
Ġge odes
Ġcos mic
ur ious
)) {
Ġcon dem
Ġtr ap
Ġdead line
ace ae
Ġassoci ations
Ġent ers
}[ !
Ġconflic ts
pr ises
ĠT rophy
log y
hab ilit
ĠTh or
}) =\
Ġcross ed
Rel ations
Ġm ature
query Selector
Ġr ings
Ġan xiety
ĠBar ry
ĠRuntime Exception
Ġmem brane
text sf
Un lock
ĠIn n
ĠC WE
ĠAp pe
Ġoccur ring
ĠLear n
Ġt anks
end ering
Ġo l
Image View
Ġmiss ions
LE FT
H ouse
(' ../
ĠIm perial
and box
ĠE asy
Ġimport ed
uk a
Ġchem istry
Ġag gressive
Orient ation
erm al
ĠFr ame
Ġprov isions
ĠA ur
Ġad option
à ¹
ĠL ex
l uc
' $.
Ġe cc
ĠM agn
Ġminim ize
Neg ative
Ġse q
Ġ= ================================================================
urs ion
Ġg ross
im er
ĠC arm
Ġsub stitute
D AT
Ġthir ty
H ol
ĠS ony
PROP ERTY
ĠC emetery
ĠCart esian
ĠE state
sp h
cite alt
Ġs urname
nt z
Ġwork flow
Ġwarn ed
Ġbrows ers
P reference
fe ction
ĠC BS
Ġaccept s
Ġ$ <
Type Name
19 02
Ġsup ern
ĠPo isson
Ġdef erred
ĠWeek ly
ĠK u
DE SCRIPT
ä» ¶
al ter
d ater
Pred icate
n od
}} </
ĠL IC
en ium
min imum
Ġenthus i
Start ed
ĠA f
Tag ged
Ġd type
ĠG arc
Ġr hythm
K ing
ĠD evelop
Ġj ail
ĠH eb
Ġgr ateful
Ġl uck
Ġre lies
ĠE sp
bur st
ĠJohn ny
Ġarch ae
ĠStat ement
% ),
A MS
ĠArab ia
Ġtrans mit
ä¸ ª
ĠLu ke
Ġ( ),
J ournal
t ic
ĠR out
ĠHe ader
Ġdist ant
' ><
o auth
Ġconver ges
ai ro
ivers al
> -
Ġfun ctor
ĠEnter prise
Cred it
H en
d g
el ist
Ġpo ison
ĠWIT H
ack ets
vis ual
n ear
Ġball s
15 2
m os
Ġprom ised
ser if
}\ ;
lay ers
Ġt ube
st orm
"> @
Ġ) {
gener ation
Ġ ÏĦ
ent o
work ing
ĠJenn ifer
-- ;
u cc
Ġinit With
lo ose
ĠAc cept
iz ar
Dep artment
Ġb ubble
ipe g
Pos itive
Ġbehavi ors
ht m
ĠTr ad
ĠR isk
el ing
ĠIndust rial
ĠJ oint
' </
Ġa qu
re z
ĠY e
m ine
Ġfollow ers
Ġsal ary
\ [\
i ator
Ġb anned
Ġcor rupt
Ġiniti ated
it ime
Ġb ary
Off ice
ĠMet ropolitan
ĠMount ains
g ie
Ġcop ied
bor ne
Ġattract ed
Ġbare ly
iterr anean
Ġemail s
ĠBar celona
n P
Ġel abor
Ġodd s
ĠArt ist
âĶĢ âĶĢ
Ġcolon ial
ĠPod cast
M el
_{ [
ĠT S
Ġcon gress
ĠTam il
get Context
ĠInd ies
ĠEag les
ĠÎ ±
not in
ĠSet up
2 64
Ġbal anced
ĠAgr iculture
Ġgold en
Ġquarter back
Ind ices
sp ired
List s
Ġbacter ia
ĠV K
Ġess ay
M ad
------------ --
Ġelim inated
Ġprom ises
ĠN ar
enc oded
Ġanalyt ics
c out
ĠGr an
F at
ict ions
success ful
Initial ize
it ious
ĠEvery thing
Ġcomple ting
prevent Default
Ġvari ability
Ġm ood
I o
L ater
o il
or ious
"> #
Operation Exception
estab lished
Ġt ons
Ġdiss ip
ĠHung ary
om o
ĠEmer gency
Ġin set
inc or
Ġr iding
t cp
Ġuniqu ely
Ġg onna
ans wer
keyword s
Ġspecial ized
Ġad mission
L if
ari us
Ġm a
se ver
ers h
Ġr ivers
Ġread ily
std lib
Sh ip
inc inn
it us
âĢĿ )
L ou
ĠObserv able
w y
Ġdro ps
b olic
p ine
Ã© r
18 00
ĠX ml
Key board
ãģ Ļ
< >(
Ġsub sets
Ġfast est
Ġscal ed
Ġg rap
H a
x ff
ac re
}} )$
ç± »
Ġtraject ories
Ġcons olid
Ġtom orrow
FAI LED
list ing
User Id
G D
ĠPer iod
ĠSet ting
ĠKar l
Q R
Ġstri king
B ay
} <
bar s
print StackTrace
Ġem otions
Ġele g
ĠV ik
ÐµÐ ´
Ġf d
id y
Ġsure ly
ĠD ialog
Ġa uction
ĠQ uality
F acebook
M ilitary
Ġz ones
NO WN
enc ia
rot ation
Ġlett ing
itud inal
Ġprint ing
C ached
ad apt
amb ling
Ġbright ness
Ġpre mi
Process ing
Ġp ounds
Ġ! (
Ġrender er
Tele vision
Ġconf usion
ĠTurn er
ĠSpr ings
:// $
ĠD od
19 03
IC S
Ġwood en
Ġlimit ation
Col ors
Ġanalog ous
Ġc ognitive
ĠR ules
W rong
assert False
OP ER
le f
Ġsec ured
lo ver
Ġup dating
Ġdec imal
ĠMan hattan
w right
ass y
18 80
Ġintrodu ces
ĠCarl os
Ġdirect ive
ĠB eyond
ĠM ix
ĠB ud
Ġevery body
Typ ed
Ġt rem
Ġindu ces
Ġ" :
Ġsoph istic
Trans l
B ill
end um
ĠPract ice
l ua
Ġc inema
Ġind igenous
Ġdoc s
Ġv iral
ĠL it
ugg ed
cent ral
valid ator
ĠG las
Ġtw ist
hol m
oid al
Ġep ic
Ġhabit at
r aska
Res olve
"> {
il ateral
Default s
ipher al
map per
Ġintegr ate
ex per
au kee
ĠMur phy
Ġinvent ory
Ġinhabit ants
Ġshall ow
ĠLead ership
Ġth rew
ĠC ONT
Ġconnect ivity
M X
h n
28 0
sat isf
her o
ĠC ameron
Ġap ple
Ġsem antic
Ġscient ist
k u
W ild
ĠCar ibbean
cho ose
ĠK i
no ise
C lock
f ive
Ġt ear
å® ļ
On Search
Bu ilt
Ġsus cept
Ġinc idents
Ġcomple tes
con tract
incinn ati
ĠK ath
Ġde emed
Ġaffect ing
Ġtour ism
in cre
am med
ar ations
eg en
-------- ---
22 2
Ġl azy
Ġun safe
F inder
ĠC rit
ĠSim ilar
Rich ard
Ġjav adoc
Text Field
mix ins
Ġdec ays
Qu ick
Ġcovari ance
( <
Ġcontr ary
if ice
ord ination
Europe an
EX P
Ġbelief s
Ġf ut
ethe less
ash a
b ai
Sh ift
= </
ĠTechn ologies
y c
NUM BER
con sum
ĠL ux
ĠSpec ifically
Cre ator
ĠNev ada
Ġescap ed
Error Code
ment ioned
ĠAl ert
MPL ATE
? .
S ens
Ġ" ");
sup p
Man aged
Foot ball
on aut
Ġis set
Ass oci
Ġident ities
ĠB U
Ġen orm
n om
ook ies
ï¼ ļ
et e
15 1
Ġc ryst
Ġscholar ship
g ow
un i
Ġd ad
Ġreal m
read able
Ġswe ep
Ġexha ust
Ġassess ed
Ġbr ut
ĠC ensus
Or g
W C
Ġr ally
Ġrefer enced
he ll
B ank
akes pe
Ġin ev
Å Ļ
am ar
Ġrest oration
Ġswitch ing
Ġoptim ized
Ġveloc ities
0 200
. },
Con stit
Ġhand ed
AC CESS
Ġcontact s
Ġpsych ological
Ġsubstantial ly
usal em
ĠChrist ians
Ġflex ibility
L atest
om at
mid i
s ites
class v
Ġcon vey
ĠB ird
Ġnews letter
* >
im ity
Im plementation
ĠSus an
Ġge omet
ĠAR M
Ġpregn ant
Ġch ron
Ġinf ected
B ODY
ĠCru z
or um
Ġaff ine
L ove
Ġrem arks
Def ine
ĠF E
ev t
IT ER
B H
Ġan ten
Ġt ent
Initial ized
U r
() "
cover age
Ġdat abases
an Ã§
ro v
Ġ[ -
14 8
ĠM all
Sample s
ĠInf antry
ĠExper ience
DE VICE
w x
ĠR ural
Ġan ime
p romise
ĠScient ific
ĠP ref
P atch
Ġw elfare
Ġf iring
List en
Ġcheck sum
ĠMP s
Ġjust ify
im eter
Ġl ifestyle
ĠB H
æ ³
Ġcont rolling
202 4
Ġeg gs
ĠQu arter
ĠBO OL
ĠCost a
Ġsear ches
> ',
R ock
Se ason
Ġvan ishes
l ag
ĠB irmingham
Ġaw esome
ĠSquad ron
ic ht
Ġiter ate
Ġwild life
Ch apter
ins ula
ett i
ĠAss ume
ĠH im
it ize
ĠB asketball
Ġsh ops
Ġt orn
row ing
ĠN icol
ograph ics
ĠF if
Ġwork shop
Ġseem ingly
Ġtro ub
Ġblock ing
ĠBill board
Ġreprodu ce
is ible
Ġcallback s
D X
Ġfoot age
Ass ume
Ġpath way
v ance
Ġisol ation
ular ity
Ġcal ibration
UM N
Int o
Per formance
Ġdu o
Ġinf ect
h ydro
Ġbr ick
cod ing
" +
ur bed
ĠInd ians
P ac
hib ition
t odo
Ġcert ified
D ark
ol ia
Ġprotect ing
m other
ĠB row
ĠW A
SE C
ĠC ad
W P
ĠAn imal
Ġafr aid
Ġun set
$ &
Ġb ol
Ġhun ting
Ġdev ast
H OT
Ġg amma
IT ED
Ġtrust ed
Ġdepart ments
ĠM T
Not ify
H uman
SE SSION
ter min
ĠH orn
Loc ator
ĠP OST
ĠPer haps
Ġsound track
w ang
ĠN HL
om aly
Ġs ake
ĠAr n
Ġstock s
Call able
Ð½ Ð¾
ym an
ap k
ĠL arry
ĠO bl
ĠU nd
Ñ ī
Ġsuccess or
ĠRober ts
ĠP ART
Ġcollect ing
Ġa u
Ġn m
ĠH at
io let
ach i
Ġgather ing
Ġpet ition
Ġpoll ution
Ġf ade
PO INT
getElements By
ĠD S
r int
Ġ( ,
em ploy
M id
hes es
z ens
Ġsm oke
Ġdecor ated
Ġachiev ing
f ef
Ġg lobe
Ġinflu ential
k ill
ag ation
LE ASE
R o
Ġb eneath
Ġaddress ing
EQ UAL
ĠL ate
akespe are
Tok ens
ĠT u
ĠMe chan
w aukee
Ġend points
Ġsub tle
ĠInvest ment
Ġking dom
ĠC ox
aut ore
A ws
n at
ĠW he
Rec all
RET URN
V oid
Ġsm ile
ĠA bs
em ployment
Ġh unt
Ġ] );
ĠV ery
} ~\
Ġsub section
c ill
Book s
off icial
Dec ode
][ <
avor ite
ĠR F
Ġloc als
Ġh istogram
ĠL isa
Ġloc ality
ĠJer ry
ĠS eb
Ġter rible
mod ern
CON F
orph ism
S ender
\| ^
ens en
Ġl ap
ĠCy ber
ster dam
Ġparse Int
ĠW u
ĠAll ow
P icture
ĠK irk
Ð½ Ñĭ
Ġproject ive
seud o
ĠR ac
Ġar ising
Fr ank
ĠG A
Ġdec ides
document ation
Ġspec im
;\ ;
normal ize
Ġmark ers
Ġden om
ĠL INE
Start ing
ĠE instein
ator ial
ĠCh ampion
4 000
os hi
Th ird
hom ology
ĠM ack
Ġcontinu ity
up les
| =
ic acy
HEAD ER
ell ers
por ated
ĠGu id
Ġquant itative
A cknowledg
Ġsusp ension
ĠM ason
ĠWel sh
Ġv ic
p el
eg ral
Ġpre dec
Ġbo ards
in ery
ĠF R
Cl ub
Ġqual ify
G ed
Ġlog ged
Ġexp enses
Ġpra ised
Ġl ov
ĠMon itor
Ġsample d
Com posite
E s
Ġman ages
Not ice
Throw able
ag i
ĠIn stit
S ink
20 30
ic z
Ġl as
Ġselect ing
ap on
Ðµ Ð»
) ];
ĠB aby
Fin ished
Ġsurve illance
H EL
ĠSk ip
ĠB achelor
ĠE M
Ġnewsp apers
om eters
r ss
ĠM om
Ġun clear
Ġre open
ĠRe yn
Ġrecommend ation
Ġexhib its
comp any
ON LY
Ġ* **
}} =\
en ue
adi ents
Ġentang lement
Mat ches
rele vant
Ġc oding
el o
Ġpotential s
OP EN
ĠPer ry
So ftware
ç Ľ
Ġcomp ress
r ain
Ġdaught ers
F s
ĠFl ore
ĠOl iver
Ġar ises
Ġexpect s
Cl osed
final s
ĠM ans
Ġj ury
Ġdescri ptions
Ġinteract ing
2 12
ĠS ql
ĠG overn
l ishes
b id
Ġphil osoph
M EN
ĠC u
Ġh ab
ĠG host
g om
ro les
r ust
ĠMe V
Ġtalent ed
Ġel ite
Sim ilarly
ĠBatt alion
azel cast
ĠH udson
Ġbl ame
V S
Ġdeb ugging
Ġad verse
am ine
Ġcomment ed
Ġcontrovers y
p ow
atern ion
os ome
ĠM asters
20 6
oper ations
ĠAut om
CLI ENT
com press
Ġsw ing
ĠFreder ick
Im plemented
C rypto
ĠC B
Ġextra ordinary
ĠS urg
Ġpop ulated
CK ET
Ġmethod ology
Ġg aps
ĠF iles
+ -
un ting
Ġim pression
ĠWar ner
ĠC ub
Ġcor por
Th umb
tt ify
ĠÃ ī
Cho ose
ĠS id
associ ated
Ġport ions
| _
an ese
ĠApp ly
Ġrev ised
Ġm arch
ĠF IX
Ġverb ose
ĠMET H
G reat
di ag
ivari ate
air y
ĠDe al
Ġvolunte er
Ġplay offs
ĠCour se
ĠDi agnostic
Ġw ounded
ĠCamp us
Ġinfin ity
Ġrel ay
Ġown s
ĠConserv ative
call s
ĠAl fred
ĠG ay
Debug ger
> ",
DI O
Ġelev ated
00 4
å ĩ
t ies
ke es
F un
Ġsuggest ions
Ġdo zen
Ġc d
ĠL IM
ĠLIC ENSE
Ġh align
in ja
ĠCon sumer
50 1
plic a
pot ential
ĠL arge
ten ess
Ġappro ached
ĠMu hammad
Ġarrang ements
Ġnull able
id ency
15 7
ĠVin cent
') ).
control led
æľ ī
ammat ory
is se
Ġconnect s
R ew
uch y
Ġnon zero
cred entials
b readcr
Ġre loc
rel ax
x c
ĠGr ade
ĠC ut
Ġd f
int egration
border ed
Ġf ed
pre ced
depend s
Ġbar riers
Ġlo ans
Transform er
Ġclean up
USE D
Dis c
Ġhar ass
ĠÐ½ Ð°
Ã µ
Ġ" </
bound ary
Ġqu otes
Ġph on
d og
d ac
am o
an che
ver ts
{ [
ert on
apt ist
Ġspeed s
L ex
Ġg em
Ġper pet
P OL
ĠCom pute
Byte Array
Ġst olen
[ ],
Ġback ward
Ġf iscal
read only
Prot os
$ --
ĠSc i
Ġcontain ers
expand ed
l if
Ġdis pute
Ġexec utor
ĠHarr ison
ĠB ear
ĠPlay ers
Ġcon ce
Ġmin istry
Ġatt achment
Ġphys ician
ĠB order
Ġwork place
o ons
%%%%%%%% %%%%%%%%
As pect
B in
2 17
Sin ergi
est im
Ġad equate
ĠMaterial s
Ġlock down
ess a
prot ect
ĠBrig ade
' )$
Ġoptim ize
Ġgovern ance
ĠCh and
at um
ĠW ARNING
Ġcell ular
PRO TO
f ade
ec ca
= -\
Ġset Up
Ġstruct ured
Or d
="../../../../../../ ../../
l iter
load s
Ġphenomen a
ĠAs ync
> @
Ġo m
Ġdeg rad
k ip
re vision
ad vert
Spr ite
w oman
Ġl ady
ierarch ical
Ġfall en
ĠLi u
ĠComm ander
ie u
Ġs lic
Lear n
H PP
um ann
! ");
Ġcor rel
Tra its
C LO
center line
ĠQu estion
uls ion
Ġ ))
Dis able
ĠE S
apeut ic
Ġthrow ing
Ġlat ent
Ġvari eties
Ġspecial ist
ĠFish er
ĠTransport ation
ob server
Ġpre st
ĠRem ember
ra ils
Ġdem o
^^ ^^
roll ment
ĠM illion
}^{ (\
ĠPro blem
ĠH indu
Ġdiv isions
Ġsh ore
Ġstay ing
ish a
SE D
U psilon
ĠV enezuel
is Valid
Ġintegr als
al ways
Ġob sc
ĠInt egr
s ap
ĠL en
iat ric
M ont
be hav
Ġconf used
ĠC ircle
Ġan ger
' -
Ġeval uating
c url
] ));
ĠEd it
æ Ŀ
Ġt une
LE AN
Ġb rew
c nt
Ġb ab
h yp
ĠS aints
ĠGuard ian
Cent ral
ĠK os
Ġsimpl ified
Ġn ose
Ġdi abetes
i ations
Ġk iss
Ġsold ier
Ġalleged ly
. (\
ĠA str
ĠW R
cel and
ri eve
host name
am pton
Ġmind s
P ur
Com ments
ĠInd igenous
( %
V s
Ġte eth
ĠAir lines
ĠMad ison
D igital
ĠG onz
Ġ' )
Ġv i
rec v
os lav
Ġspec ifying
ĠForm ula
level s
ãĥ ³
× ľ
Ġw ings
sub stack
ac a
Ġcompl aint
ĠT ournament
Ġrel ate
Ġco res
w so
ĠI M
ak ov
Ġtrad itions
ĠCommun ist
ĠO scar
14 1
}{* }{
ĠR ah
Ġexec ut
add y
ĠFI FA
ĠS ans
ish ops
Ġquot ient
;" |
3 30
ĠTre k
u u
It alian
cr im
Ðº Ð¸
Ġtoler ance
ol er
Ġdraw s
L ondon
h skip
Ġh ung
min or
ĠS ym
Ġ* _
Ġback ed
P LAY
Ġexplos ion
rec ip
Cl ause
à¤ ¿
Ġfor um
Ġg otten
md c
ĠF light
IN PUT
Ġgr am
ĠGL int
2 11
ĠOrth odox
Ġn ights
Ġadapt ive
uck ets
Ġfood s
D U
in ely
Ġdis ability
url s
Ġplan es
Ġpro ton
ĠComp etition
dis ambiguation
ĠInter view
Ġpremi ere
il o
erv ous
Big r
ĠCh anges
Ġsk i
Min imum
Sl ider
7 68
ĠP le
ĠPl ugin
(( (
Ġatmosph eric
A verage
Ġhard ly
ĠLegisl ative
Ġcompet itors
ĠTh an
Ġme al
Ġpl acing
n ested
SE CON
Ġpat ches
andid ates
Ġm im
ĠCO MM
ĠUs age
h ub
Ġwork force
Pr incipal
vers ation
udd y
-------- -
Ġcur r
G overnment
Ġsup pressed
ĠRe ports
dash board
bo ys
mid t
ĠZ imbabwe
ĠTrans form
Ġwe igh
Organ ization
Ġaux iliary
al bum
CP U
h m
ĠG rowth
Ġf ate
W ay
Ġun a
Ġachiev ement
k an
ĠD ES
EX TERNAL
widget s
ĠEx cell
Ġlegisl ative
n f
J im
Ġv endor
Ġset Timeout
m igr
Ġplay off
ore ms
Ġmot ivation
Ġimmigr ants
Ġt il
Ġcharacter ization
Ġstep ped
Ġund ers
Build ing
ĠKe ith
ĠBer keley
ent ric
ĠAl ong
aj a
Ġtempor arily
Ġident ifies
Ġoper and
man ifold
Ġper ceived
Ġd ys
ĠG MT
H F
ed e
Â ±
p ark
W D
Ġo mitted
Con trib
ĠĠĠĠĠĠĠ Ċ
W ire
Out come
ĠUg anda
P references
Ġr ice
ret val
N an
Ġcy clic
add itional
spec ies
Ġspac etime
pl ays
ĠFl ag
Ġro l
back up
ĠK er
Ġent ert
le arn
Ġqual ifying
Ar c
un ate
ĠCor p
ĠCont em
Dan iel
r ating
Ġdec oder
Ġton ight
Ä ħ
ĠSh ang
F all
ĠWat son
)= (
Ġwith d
Ġaccess key
ĠS ometimes
/ ?
ĠW onder
Res ize
C riteria
Ġline up
umb ai
ARCH AR
em ia
ĠS ale
Ġitem Members
Ġmulti plication
Ġs q
Ġcontext s
ific ant
Red uce
od ium
Ġmyst erious
d an
Ġimportant ly
Ġres ume
Ġmem orial
Ġcor ners
ĠAlber ta
Ġro uting
ĠLet ter
Ġut ter
em ption
= }
Ġg ates
av ier
R pc
Ġimprov es
Ġlocal ization
Ġemploy ers
ĠB eth
sc apes
Qu ote
d yn
NE SS
Ä Ļ
Res olution
Ġutil ize
Ġlo ose
) !
Ġm p
Ġover head
Ġdro ve
' }\
ĠIran ian
land o
Ġtri ps
ag ic
r p
ĠTre as
ĠR NA
CO PY
Ġpresent ing
in ology
Sm ith
Ġj ournals
writ eln
ĠConserv ation
15 4
Ġansw ered
Ġt ours
rec ords
F und
ĠA U
Con nected
ĠF itz
UL AR
Ġart work
ĠDis covery
k now
Ù Ĭ
Ġsp ir
ĠI da
ib lings
ost ream
J P
ave led
s olution
ĠS oph
ĠQu ick
Ġsuper conduct
Ã Ł
ĠEm ily
as ia
Ġd ying
im ize
ĠP ri
Ġclass ifier
go als
current Time
Log ical
ĠWinn ipeg
ĠCo ach
Ġsav ings
So ft
ĠRoman ia
Ġthe sis
Ġfoot er
/ ,
Ġext ensively
eng u
Ġinvestig ating
vet ica
Ġl ucky
Ġhad n
Ã¨ re
form ula
Ġdist inction
Ġweak ly
ĠAlex and
f ork
F LOAT
Ġl apt
ĠÃ ¢
n ut
r age
ĠDef ence
feed back
Ġm eg
ĠW ire
Dem o
ĠTo o
Icon Success
Ġb ay
Ġra ises
Ġdir ty
anc ies
R eb
Japan ese
x it
Ġv el
e i
\, .
ĠNorm an
ĠB esides
j p
Ġcle ared
}} }$
Ġimag inary
Ġtherm od
ĠProduct s
Ġtw in
source forge
Ġearn ings
ĠCatalog ue
ib us
Ġcomment ary
19 3
] ",
Ġbe ating
Ġass ass
F it
() }
Ġpl ates
18 70
Ð°Ð ´
æ ŀ
ĠG B
Ġ<!-- [
Pers istent
Ġsust ained
Aut hent
Ġbos on
is ch
} &\
Ġcoal ition
Il legal
un ix
× ¨
Ġnumer us
Ġf ires
aver age
ep per
Ġsegment ation
ĠC lay
tr ained
Ġconsider ations
ist ency
)} _{\
Ġs its
as List
ah an
Ġcancell ationToken
Ġj ets
Ġpress ed
Sl ide
è ¦
ĠF an
Ġres igned
Install ation
Tr ust
ĠPlan et
pg f
est imate
ĠEgypt ian
Ġsp y
cer pt
ĠT ik
ĠG OP
M ime
ĠT ed
N ay
Ġaccompl ished
17 8
Ġinstitution al
ĠAct or
ĠPut in
IN LINE
Ã¡ s
ĠEm pty
Ġres c
ĠB A
ĠH ousing
Ġorient ed
start ed
Ġparam et
w al
ĠP ush
(' \
}) _{
ĠV lad
ich i
St amp
Ġcour tesy
Ġsh it
ĠCom b
w c
em e
ĠV ision
Ġbenef icial
ĠSt evens
Ġafter wards
Pa ired
"> ,</
li um
Ġtrans ient
ĠStr ong
ta wa
Get String
v d
alt ies
Ġconsider ably
Ġpost ing
Observ able
ĠR achel
ĠW I
aw ait
Alloc ator
osp el
mk dir
oll ar
Ġul tra
00 7
Not able
Ġhome less
ĠNichol as
ĠW riter
ĠCom ple
ĠTool s
Ġgenu ine
Y M
Ġfail ures
Ġfilter ing
Ġ{ {\
cept ors
C AT
Mov ie
ĠHor se
ĠS alt
RO P
F ort
In c
ĠHung arian
co res
M ary
Ġsimpl er
Ġaccompl ish
Mean while
ĠN om
ĠEl li
ĠOak land
Ġdeform ation
Ġguarant ees
im od
Ðµ Ñģ
Ġsent ences
ĠJer usalem
ĠB UT
Ġm os
ĠM ade
ĠDr iver
Doc s
Ġst unning
ind a
Map s
Ġfight er
ĠHA VE
t ap
um ph
Ġorig ins
ĠPier re
Ġocc urrence
n orth
Ġc argo
Ð°Ð º
W ITH
Ap J
ĠCl are
Ð¸ Ñģ
Ġpract ition
Ġanticip ated
IS O
ĠW rap
ss h
ĠPro test
Ġprison ers
ĠP ra
Ġinter sect
comm unity
N ORMAL
s al
{ })
ĠM R
osph ere
Ġax es
th lete
Comp atible
loc ations
ĠRich mond
ĠEV ENT
Ġ( .
g ol
Hand lers
Ġb ins
ĠT esla
ĠM ouse
file Name
Ad just
Ged mo
ĠL ions
Ġexp ense
ctx t
) |\
ĠR ivers
ĠPar ish
ĠK l
HAND LE
ack er
olog ic
ĠAnt ar
Ch ris
Ġmut ation
Ġd ummy
ĠS ame
Ġobserv ational
ĠEn sure
Ġdiscuss ing
ap or
m ile
é ¡
ĠB L
J on
Ã ĥ
Ġland ed
CO VID
Ġexceed s
E le
Ġ ib
Ġmar ry
Ġang ry
Ù ģ
com merce
Ġthe at
my Item
Ġbur den
E nergy
ĠC urt
Ġmetab ol
Ġimpr ison
M igration
ĠS ources
Work ing
Ġtra its
Ġmag azines
Ġeditor ial
ĠK id
Ġr itual
Ġoverse as
W M
zer bai
im ony
Austral ia
C XX
ov y
Big l
perm alink
Fl ush
IconSuccess Encoded
Ġvol can
CLU DE
Ġc amps
"> '
But tons
El se
em p
18 7
ĠW ag
Ġbl end
PI O
Ġconduct ing
ĠWork ers
Ġfeas ible
focus ed
' $,
ern ess
Ġdef ending
14 2
Ġshe ar
ĠL uther
Ġed itors
con scious
Ġarchitect ural
Ġnom ination
Writ ten
d type
ĠInt ent
Â ¶
REQ UI
k ern
as per
cur ve
ĠðŁ ĳ
re try
Ġline arly
Ġoccas ions
IT S
ĠCO PY
eloc ity
ond e
18 99
Ġjudg ment
Ġd uplic
act ing
oped ia
av an
r g
ĠL if
Ġs ans
con j
ĠCon sequently
$ }}
ĠB urg
16 7
umb ent
ix on
str ategy
ĠMed iterranean
Inv ocation
j q
Ġc line
% ">
Ġtrib ute
en es
be it
Ġtr aces
Ġcon jecture
Arch ive
n ih
param ref
Trans actions
ĠVI EW
Ġcook ing
Bal ance
Mix in
Ġloc omot
r ant
ĠFl ash
the se
ĠU E
Ġem p
ĠPhil osophy
Ph ysical
um m
Ġstake holders
F ixtures
ĠA round
pro ach
Direct or
Ġsil ence
åı ĸ
Ġan notations
rip ple
Ġe ighth
16 3
Ġcop per
ĠR an
N L
ĠG ive
Ġdesign ers
D ays
ic ating
max imum
um ble
ĠG PU
Ġcon current
ack ed
Ġdis put
uch i
Bo ard
ĠY am
ig ion
Ġd ancing
Ġ$ $\
6666 66
Ï Į
ĠA SC
dis c
) ',
ir atory
ley ball
Callback s
ener ate
ĠB ug
Pub Key
Ġc f
Ġdr ain
Ġreg ex
Ġact ed
Ġdefault Value
oot ing
ha o
Na N
v skip
Ġperturb ations
S NA
ĠC ob
ĠL ov
ĠCo hen
Ġrecip ients
c rypto
ĠSa fe
oc co
IG H
ĠCommun ication
unt ary
as se
k ed
ĠR ico
wik ipedia
Ġformul as
å Ĩ
Ġdon ated
Get ter
le ave
ide a
sp ort
author ized
ĠFr ances
yl an
Ġhe ap
ĉĉĉ ĠĠĠ
J ose
æ Ķ
ex e
Ġded uce
] ],
ĠMETH OD
Ġk nee
ĠT odd
riter ion
Ġas h
18 5
ĠMil an
Ġmillis econds
ĠF ake
ĠB ir
Ġbe an
che l
Ð° ÑĢ
Ġincor porate
ĠF DA
18 98
Ġd Ã©
Ġsur ge
ĠM IN
ĠĠĠĠĠĠĠĠĠĠĠĠĠĠĠĠ ĠĠĠĠĠĠĠĠĊ
Ġspons ored
Aut om
Rep o
Non Null
Ġox id
ĠS ongs
DE V
Ã³ w
= (\
f usion
anc ers
Ġreli ability
ĠAl ban
ĠWik ipedia
Ġp ink
ari ans
ĠGener ation
Ġfoss il
C ut
Ġhon our
ĠVerm ont
ĠB arr
Ġk iller
V ars
Ġd uplicate
Ġsignal ing
Ġp id
Ġarr ives
Ġnegoti ations
M ur
ĠCom merce
D ele
Ġnormal ize
ĠCr iminal
Ġelli ptic
aut hentication
abul ary
c ies
Ġal lies
arn ess
Ġutil ized
Ġc ere
Ġjuris diction
* (
TH ON
Ġcapt ion
ĠO m
Ġfre ely
sp ons
pl ating
ĠBr ain
h or
Ġpre dominant
Car l
fol k
1 200
tr ip
ĠV A
sl ides
dec oder
Ġcal m
att achment
ĠCirc uit
un s
Ġalleg ations
Http Request
Ġwav ef
el rte
ĠN intendo
Ġsmart phone
ĠBer g
P rior
Y ES
re comm
um i
ull ivan
ĠF ail
ent e
ĠIn cre
ĠA ve
Ġprogram mes
ĠE ve
H i
Ġp ause
rece ived
Ġsp ont
ack ing
Ad apters
UM ENT
ĠFant asy
Ġle ver
ĠAust rian
b is
d evelopment
av g
ATTR IBUTE
ĠL ar
Ġc ave
Ġnob ody
Ġen velope
Ġs ou
ber ger
Ġpreced ing
ST O
Ġcre am
l ant
New ton
power ed
ĠCh at
Ġc v
ist le
List View
H aving
AT IVE
Ġstri kes
Hel pers
Can ada
B ul
ĠMin i
Ġa ws
S everal
Ġf t
us a
Im p
Ġtri be
Ġprov ing
ĠLie utenant
Ġl ig
ä¸ į
er gy
ĠB ass
ĠD eg
ov an
ert y
thumb nail
ĠEu clidean
j ab
ou pling
Null Exception
system s
Ġsc oped
Ġnom ine
Ġ ^{\
Ġair line
ĠT on
Ġc odec
ĠW W
Ġcritic ized
j ud
', \
Ġc oc
ac ements
ĠB inary
Ġr ated
und ef
X R
Char les
Ġm amm
ĠDE BUG
Ġmer ch
ĠP sy
ĠBi ology
. }\
ĠIter ator
ĠTig ers
Ġdes ktop
")) );
Ġok ay
Ġauthor ization
in ced
Or Empty
ĠCap itol
!! !
an ol
am ic
Ġimplement ations
ĠCond ition
Ġaccommod ate
Ġ' [
TO KEN
Ð¾Ð º
ĠN athan
Con current
g ot
ĠG ate
Ġsm oking
- }
Ġd ining
Ġmed ieval
Ġb lo
Ġadvoc ate
ĠD ifferent
Ġw is
ĠMus k
ĠH alf
Ġinter fer
w at
00 6
hand ed
ĠG olf
Ä Ľ
Ġs orry
Ġball ot
s outh
r isk
Ġc ele
Ġsus pected
ĠK umar
Y ea
Ġcompar isons
C U
20 7
Ġ ].
ĠF ocus
S us
k al
ot yp
ĠWe ather
LOC ATION
ĠStan ford
pent aho
Ġf lip
State Exception
aut hent
ĠMet al
FIL TER
ach ers
ï ¸
term inal
Å Ħ
Ġsqu ares
In side
ĠG lass
Cl osure
y ellow
ĠG az
ãĤ ¹
equal ities
ĠGh ana
ĠId entity
Ch rome
Ġbo ats
ĠH ob
") ).
F ACE
15 3
~ (
ĠG W
Ġsh aped
ĠM end
ĠSh aw
ĠR ou
TIME OUT
c ott
Lin ux
Ġl n
Ġpl ug
ĠCal endar
ĠEd wards
ĠGu inea
Ġen force
ĠĠĠĠĠĠĠĠĠĠĠĠĠĠĠĠĠĠĠĠĠĠĠĠĠĠĠĠĠĠĠĠ ĠĠĠĠĠĠĠĠĠĠĠĠĠ
HO W
15 8
Numer ic
Ġs isters
ĠCh i
G al
ro ut
ond o
Ġgovern ed
15 9
ĠS B
ĠAssoci ate
Ġsh ar
ĠHel en
Ġtox ic
15 6
od ic
In vest
direct ive
åľ ¨
re ction
ad vant
ĠPro of
Ġdr ift
LOC AL
C ritical
ĠNaz i
ĉ ĠĠĠĠĠĠĠĠĠ
ĠW ing
ur d
Ġnation wide
Cred ential
ĠS ter
Ġ ../../../
ig m
Ġf ingers
out line
Ġlegend ary
M IC
m ixed
ĠS ymph
Ġexcit ation
Ġdis h
Ġnumer ically
ĠD h
Ġ$ [\
Ġactress es
Config ure
ĠMult iple
25 3
Ġhum or
Serial ize
Ġins pection
Ð¾ ÑĤ
ĠResp ons
ĠO thers
Ġexperi encing
Ġdig est
Ġse aled
Ġcorrect ed
Constit uency
Ġu uid
Ġval ued
Ġconfirm ation
ĠR angers
E U
ĠTr ain
U tility
log ue
; ;
Ġend l
IF Y
ĠMov ies
in el
ĠG ene
18 95
superv ised
ĠD eveloper
Ġsp acing
Ġtransp arency
ĠPart icip
P ot
Ġnew er
P AGE
Ġl hs
ĠDel aware
ĠB og
Ġadv ised
Ġreserv oir
Ġsophistic ated
Ġsports people
å ½
eval uate
ĠC ant
he ap
D ead
ĠLe o
cod er
Ind eed
AS K
st own
O H
c ern
st y
Ġre write
ĠS occer
Ġsh rink
Ġst reak
ĠBeng al
GL enum
Sub scribe
her its
ĠTr uth
Ġload s
ĠS oul
Ġencour aging
ĠS eq
Ġ[ (
go og
Ġaccept ing
ĠERR OR
Ġ/*! <
ĠSh akespeare
Ġin complete
in crement
Ag ain
ĠB orn
> =
In stant
ĠDom ain
ĠDub ai
}. \
S eed
Ġst ret
17 4
ĠCO MP
miss ible
J oint
Ġass ists
Ġ' --
U X
Ġev ac
"> :
Ġ\ :
ĠAthlet ic
d eleted
AR M
Ġfeed ing
fef efe
ĠB irth
Ġprevent ing
ĠObject s
ĠMont ana
W il
Ġl ymph
"> {{
or ro
Ġder ivation
Ġneighbor ing
s nap
ĠX box
ĠD ol
ĠSo on
'] [
Ġelev ation
proport ion
user Id
Ġjournal ism
ard i
ĠCh oice
u o
EN S
Ġd os
Ġ ));
im als
D K
Ġsk etch
I OS
ĠC ertificate
30 6
ret ty
ĠC incinnati
16 2
Ġadv ances
C ircle
Ġc avity
Ġprogress ion
Ġrac ism
Is rael
. ')
r ag
B IN
ancell or
ĠCat hedral
S ong
ĠD ynamic
ĠJ ar
ĠSum mit
rec ogn
idel ity
ĠNeb raska
Ġ ions
f re
or bit
im i
ĠI van
comp atible
Ġdis ks
En code
b ishop
ĠSp ac
Up dates
Print f
m or
ob ar
Char Field
found er
un used
at z
c aster
k ers
man ual
me as
perm issions
Ġwant ing
con ver
Ex ist
Ġt abs
Ad s
ĠType Error
Ġconv inced
Ġharm on
act ors
Ġpoor ly
An alyzer
Att ach
Character Offset
Î ®
Ġac res
ĠRem ark
>{ @
Ġneur ons
B a
Ġdetermin istic
h dr
Ġh ooks
con tr
Ġpr ayer
Ġon Click
ĠT ampa
end l
ĠW alt
tw ig
ĠR av
display math
Ġneglig ible
det ect
agon ist
Ġprov incial
elect ron
Ġtim eline
ĠV ict
Ġmist akes
Ġconv icted
A h
( |
, ~
Ġ} {\
Ġsc iences
Ġlob by
ĠLine ar
then Return
Ġ[ `
Ġelect oral
ling ton
æĹ ¶
ĠOr d
Ġcomm em
Ġexpl aining
Ġfarm ing
ĠE ug
Spec ific
ĠSer ge
Ġmet aph
ĠAdvent ure
"> )</
ro c
ĠG rey
ĠÂ «
Dis patch
ĠRog ers
are l
ĠA CT
RE C
ch anging
cor ner
Ï ī
bin ing
\| _{\
ĠR uby
Ġbel t
) ](
g age
Ġr pc
Ġaud it
ĠT ib
Ġtr aveled
Ġe u
s ens
und ant
Ġshel ter
^ (
Con nections
T LS
G allery
s ix
Component Model
Ġattend ance
ĠNep al
W hether
Ġnumer ic
Polit ical
Ġtrail ing
18 97
requ ires
unders et
] ^{
Ġemit ted
ĠFle et
ok i
Ġher oes
To o
ec raft
Ġ$\ |
Ġ[ &
Ġeconom ics
ĠAd min
ĠKnow ledge
Ġartifact s
B AD
Ġmer chant
ĠForm er
ADD RESS
alyt ic
O VER
T s
form al
)) :
}, {\
CL UD
K n
CO RE
Dec or
ĠK in
ĠUp dates
ycl ing
Ġ nd
reg istration
ĠSt ef
Ġcur riculum
v t
Pack ages
Ġs hed
CLUD ING
} ")
================ ========
View Model
\ .
Ġcontin uation
Com bo
rece ive
Recorded Vote
7 20
writ ers
ĠE ld
Im plicit
Ġaltern atives
Ġfl our
Ġproof s
respect ively
ext ended
ĠSh ared
Ġrot ating
ĠF ace
Ġex terior
18 60
Ð¾Ð ±
ĠR ugby
u els
Ġdemand ing
photon ui
Ġalter ed
ĠContem porary
P V
rib utions
ĠâĢ Ŀ
Ġfasc inating
te in
Ġdel ays
Ġbott le
xx xx
ap prop
has Next
ĠDi amond
r ab
ĠB B
ENABLE D
ess ors
P ag
ĠJeff erson
orange hill
Ġenorm ous
Ġspread ing
TE MPLATE
orangehill dev
ov ich
ose x
open api
ME DI
Ġreason ing
if s
ĠG em
Ġhe aling
Ġformal ism
G esture
m q
am ation
ĠB our
ĠL ion
ch ing
Ġsl ots
ĠNe il
Ġinc idence
Ġcour age
ĠSh ar
Ġtrad ed
Ġl un
Ġemb od
Am ong
iz ational
ĠCh a
Ġcart oon
amb le
ĠM ong
Action Bar
ĠR adi
Ġsign atures
flu ence
sh ake
Ġfriend ship
ĠAm sterdam
qu ark
** :
ĠProgram s
Ġaccompany ing
ĠK el
Ġun s
Content Type
N ick
w ig
pl aces
Ġc ig
ia z
raw l
parent s
ĠL loyd
ble ms
ee per
ĠG ra
ib e
ĠTre nd
o ji
Ġsimpl ify
Ġfro zen
re pos
Ġtool tip
Non null
P en
x t
Ġmod est
Ġsever ity
ĠLore ntz
ĠTh ink
te es
Ġpe oples
Ġrep lied
log s
ĠAn alytics
Ġobserv ing
Ġhom ot
ĠU C
Ġadminister ed
ĠN ancy
60 1
Ġcon tributes
Ġun changed
Ġfile Name
ĠC ert
Number Of
CP P
ĠEconom y
im on
Ġgr ave
M ike
st ad
- %
yl on
Ġformat ted
De ployment
ĠA part
Ġev t
Pro b
({ },
âĢ¦ âĢ¦
ĠK yle
ĠĠĠĠĠĠĠĠĠĠĠĠĠĠĠĠĠĠĠĠĠĠĠĠĠĠĠĠĠĠĠĠ ĠĠĠĠĠĠĠĠĠĠĠĠĠĠ
Ġpro jections
ĠV el
ĠHug hes
int age
Thread s
ĠF at
prov ided
Depend encies
bour g
Ġclean ing
Ġin vert
$/ .
ocr atic
P ing
Ġs f
Ġ\, ,
Ġtrav ers
ĠTest ing
Ġinvest ing
ĠNov a
Ġparticip ant
ĠTy ler
clos ing
y u
>> >
A mb
s entry
CONT RO
Î ²
st ellar
ĠM ann
18 96
Ġcent res
Ġch rome
Ġmathemat ics
Ġsuff ices
ĠEm ma
hand lers
sql ite
ĠYan kees
ĠHel per
Ġlaunch ing
ĠLith uan
ĠT ensor
m ne
t u
ad ers
ĠM aking
pat ient
Ĺ ãģ
ĠT ell
Christ ian
ĠSal v
Ġbound ing
ay ing
Produ cer
Ġext inction
OB J
ĠV k
Ġconcentr ated
Ġcomp ly
ĠJ ama
Ġfiction al
Ġr amp
Ġrele asing
Ġdiff ers
Ġgu ided
ADD R
ET A
ĠCheck s
), (
Ġout s
Ð¾Ð ³
Ġg ig
aff e
Ġcomb ines
Ġcoll apsed
Comm un
)} =
in fl
Ġst upid
cap acity
Ġphotograph er
F re
ĠB S
2 33
Ġh ire
ch air
Ġrad ar
Ġtele phone
ĠS old
ĠIn side
Ġhot els
hom epage
Ġproduct ivity
Tr im
ab olic
Ġbar rel
Ġpoly mer
s amp
Ġ} }</
in tr
ke leton
Ġle ase
Ġdel ivers
Con sum
S uggest
Ġbul let
s uffix
Ġaver aging
ĠBat man
12 34
}^ +
ĠBut ler
D to
ep he
min i
23 5
ĠChel sea
Ġa ster
Ġv ig
ĠTrans fer
ĠCON TR
ens on
m otion
ut a
Ġoff line
Americ a
Î ¬
Ġ= =====
Ġsec rets
DE CL
compar ison
ĠVari able
38 4
f ixture
ĠC oul
ast ery
K K
Ġten ant
o ard
ag ain
mathbb m
Ġorgan ised
ĠPer u
habilit ation
Ġ" __
Attr s
Ġoverwhel ming
k b
Ġsub tract
zh ou
US D
Ġpers u
resource GroupName
' )\
Ġrid ic
Ġsol it
Z ip
Ġvol atile
ĠC atherine
Ent ities
ĠESP N
Ġfinal s
ĠĠĠĠĠĠĠĠ ĠĊ
ĠS ah
ex clusion
Ġh i
ĠU ri
Ġtechn ological
ĠCh arg
3333 3333
$ (\
d eps
ĠK ill
Ġen compass
Ġtw isted
Buffer ed
Ġ[ ...]
DE C
Ġnorth west
G I
ĠE L
red is
Un expected
position s
f ollowing
c ock
Ġe gg
sh ine
B inder
com fort
Ġmon ument
C AN
] /
r ated
effect s
Ġdispl acement
Ġrec ipe
ĠGL enum
17 6
Ġdyn asty
ĠPr im
Ġmod ular
ever se
24 5
Ph aser
Ġcred ited
Util ities
30 2
M i
W ed
Get Type
=-=- =-=-
ot ics
Ġinternational ly
20 9
ĠR ams
Ġconcept ual
er ie
S uffix
ĠN ak
With in
p ure
ĠL oss
Ġdig its
amb ers
with in
ĠL ud
B on
sy ntax
Ġarg c
Ġexecut ives
Ġ iv
q r
r ors
Ġsl ower
Ġsearch Box
mem item
ĠMun ich
ĠFil ms
it he
Ġp kg
as ive
ĠC li
ĠK itt
TH READ
gom ery
Ð¾ Ð½
Ġcollabor ative
Ġindex es
Ġbi ology
ĠMil waukee
Ġare na
PO SE
h im
Ġclass room
ĠTh under
ĠY ellow
scal atest
tri ang
ĠAdvis ory
Heading Color
Ġacknowled ged
Pro jection
ĠL ED
ick ed
( ',
Ġn ervous
$ "
ME TA
N EXT
O O
ĠT ags
play ing
Ġcab inet
ĠTreat ment
Ġch icken
w ear
ĠP icture
LE T
omorph isms
Ġover lay
ĠT ouch
Ġl ag
ĠW es
ĠW ould
D am
}= (
Ġfin itely
Ġf et
LOB AL
Ġd ivers
Ex act
Sort ed
Ġ ----------------
Ġs word
> {{
M otion
it ian
Ġ ub
Ġ/** <
Ġscatter ed
Ġdoub les
Ġre nown
P ull
ĠRead er
ne um
Ġwor ried
ĠFil ip
ĠC LI
sh ader
l ift
æį ®
sc atter
ĠP ent
Ġg ateway
represent ation
' /
che z
ĠSc ore
Ġpo ets
Ġcro ps
BE GIN
b anner
Ġb ishop
sole te
Ġcha os
Ġproceed ings
Ġy ard
Ġmin isters
ĠS ax
Ġcomp elling
Ġl od
con sumer
C AR
p mb
CA ST
Ġtrans cription
F X
ent ine
ij k
ĠLu is
) |^
uc ceed
ĠIniti ative
' }$
M G
Ġp b
Sh op
Ġpr icing
Ġ" {
ours es
Ġunder go
Ġexpl ores
f eld
5 50
Ġw ishes
AN Y
Ġindex ed
Ġb uffers
Ex per
18 8
omb re
Ġther ap
Ġneighbour hood
) ");
c ategor
17 2
ĠSpe aker
Ġout lined
aur ant
ĠMerc ury
Ġcon gr
Ġcheck point
B LE
ur ated
ĠChem ical
F atal
BO X
we ights
="# !"
ĠM ine
St ock
C AL
Ġ"\ "
v or
ĠS ou
ĠE uler
Ġneg lect
Ġpassion ate
). </
ÐµÐ ¼
Ġped est
Ġdiver gence
Ġaccording ly
di agram
Leg acy
getElementsBy TagName
Ġelect romagnetic
Ġd ressed
Ġ* */
Ġdro pping
à ½
ĠV as
CA SE
ĠI celand
DE SC
ĠAcadem ic
ĠL iv
ij i
Ġl ingu
Ġli ability
At Index
t ou
ĠV acc
E conom
be havior
get Parent
ĠU TF
ĠBen ef
c rypt
ĉ ĠĊ
Ġremember ed
cipl inary
ĠR idge
im ited
ĠSch w
Ġsett le
en os
SER VICE
T W
Ġnot ifications
ĠSur v
Re ception
mar ine
)) $.
Ġtrans mitted
dr ive
27 5
S ir
Ġexhib ited
the ir
ĠMe asure
Ġdismiss ed
MLE lement
S ym
Ð ¡
Ġsh r
ĠTh r
Ġh anging
Ġd ans
ĠÃ Ĺ
¼ </
à¤ ¨
bootstrap cdn
Ġrig id
6 55
Ġprop ri
19 4
PRO G
q s
ast rop
arth y
Ġsent iment
t pl
Ġe ager
R endering
off ee
ĠCar bon
ĠJos Ã©
ĠGlas gow
k el
Ġsc ar
Ġsynt hes
Ġind oor
ĠBr istol
> ".
ev ille
Pl ane
ĠR oche
Ġfun eral
ACT IVE
ĠGal actic
quant um
im an
Ġch ap
H AS
ĠðŁĳ ¼</
View er
Ġob l
Ġsurv iving
mat ched
Ġsub t
j vm
ĠDefault s
ĠĠ ĉ
ĠT F
AB C
ĠW rest
ish i
Ġ è
un is
ĠAn imation
Ġcontrib utors
à¥ Ģ
ĠA DD
ĠAl ways
ĠComp anies
F old
Ġinter ventions
Ġemploy er
match er
J ew
ch r
Ġcomp ass
Des ktop
F ive
ĠAt hens
Ġfraction al
ĠC uba
Ġbr idges
ĠLa unch
Ġpick ing
C irc
pl aced
Ġcompos ers
N s
67 8
Ġnucle i
Aggreg ate
Ġcurrent s
Build ings
] "
ĠR ate
_{ {
Ġcon spiracy
ĠO B
VAR I
Ã ī
Ġnucle us
Ġconsum ed
Rect angle
Ġdim in
Ġcompl aints
id ually
Ġmot iv
] ):
Ġlaun ches
N ear
r ise
Ġre use
ĠS ho
ĠT erry
Ġperm utation
Ġcrypt oc
Ġfest ivals
EX CEPT
Ġpoll ing
b az
Ġrun ners
ĠM M
Ġaddition ally
ĠL an
ĠInd ividual
l ater
Ġsum mit
ĠRod rig
J av
âĢ¦ âĢĿ
Ġe y
ĠNash ville
ak ef
G AN
ĠS ak
fl are
Ġdiagn osed
pe st
Ġmolec ule
Ġgent le
IP S
iline ar
Ġsp ins
Ġeff icacy
Ġlegit imate
A H
Ġpre vents
g as
Call ing
Ġdwar f
= _
st ones
j dbc
Ġ Ñĥ
ĠAuth ors
ject ive
K B
L ee
Ġw are
ĠPro b
00 8
Ġpart itions
Ġimport s
J oe
Ġto ll
ĠPar ad
}( -
or ic
Ġreserv es
Ex pat
Å Ľ
Ġup set
Ġless on
Ġc attle
Ġsurg ical
ĠR ey
aw k
ĠBu y
r ases
Ġm u
Ġs ulf
Ġpr ide
Ġs our
---------------------------------------------------------------- ----------
ĠI con
ĠM umbai
ĠAPI s
Ġrecogn ised
PE G
r w
Ch inese
Ġmag ical
Ġintegr ating
**************** ********
ĠBro ther
Ġe arning
16 4
Ġsummar ized
lef trightarrow
ĠB ath
18 50
T own
ĠT D
itt ers
ãĤ ĭ
p ause
Ġ} $
ens ely
ere k
Ġcous in
ĠE ar
ç½ ®
Ġconstit u
on er
ĠM ob
th in
Sim ilar
ĠProgram me
ur istic
raw ler
ing o
col s
char At
Ġenhance ment
W all
struct ures
Ġsh ame
Ġimp ose
ig ating
18 2
ĠMar io
list eners
& -
ĠE ston
og g
iz a
"> .</
Im m
G od
ĠE du
Ġe uro
Ġle verage
IFI ER
ĠS election
ĠIss ues
preced ented
l v
S ar
Ġfil med
b ay
Ġarr iving
Ra ises
. {
K L
Ġtang ent
/ @
Ġdies el
mark down
ar ser
ĠK nown
y g
ĠHash Set
Ġbreak fast
' ></
ro utes
ĠSu ite
Ġweak ness
Ġcre ativity
Ġpack ets
Ġterr itories
ĠColon el
Ġp ig
Ġcontrad ict
ark er
erc ise
) }^
ĠR C
Ġworld s
ĠLiber ty
28 8
ĠPre vious
Ġvar s
Ġin equalities
Spec ify
Grad ient
C ov
ĠS ort
N u
Ġinterpol ation
ur st
ĠPar ser
op p
ĠM ER
i our
Sp anish
single ton
Ġy eah
ed ing
ĠNetwork s
V ir
Ġc inem
Id le
aged y
heim er
el ia
ĠE c
Ġcapt ures
Mod ify
ĠSu z
fore ign
Ġprof ound
Express ions
Ġon set
Ġpremier ed
Ġconsum e
Ġdrop down
sh rink
ãĢ ģ
Ġcompr ises
æ Ń
Ġun ions
Ġsu ck
ï¸ ı
Ġchalleng ed
R ele
Ġreason ably
ĠArch itect
h istor
ĠTh ai
ĠAn a
Ġdistinct ive
Ġcur ious
Ġab c
Ġyoung est
illa ume
ĠML B
Ġm ere
Ġdemocr atic
Ġcor n
l floor
ra ising
\ `
Ġtransl ations
a q
be am
rupted Exception
IT EM
rece iver
ĠS ierra
Ġse am
ĠK ash
ĠAl pha
v ik
ĠM aps
Ġattack ing
18 65
Ġg fx
C ENTER
aw ks
L int
ĠE ye
Ġsh oes
Ġal liance
Ġcent r
ĠSche dule
E F
reng th
26 3
CK S
inherit Doc
C Y
S izes
W as
Cal c
get User
ĠK il
P referred
Table Name
ĠP f
ĠUn ity
Ġt ier
ro e
h all
YY YY
t g
Ġlink ing
Ġl ane
We ak
E u
PS HOT
ĠColl abor
lic h
OFF SET
ĠCare er
18 89
~~ ~
Ġbackground s
Ġs oc
Ġrandom ized
COMM AND
Ġh orn
ĠEx pected
Ġcap ac
Ð Ĵ
Ġs overe
Ġsimple st
Ġsh out
ĠR osen
Al location
Ġreal ization
Ġcert ification
te enth
Ġemer ge
Ġstreng ths
l ar
Fl ash
pred icate
Ġresp iratory
ag le
x f
Ġmin eral
Ġcom plications
n h
Ġv in
ĠR A
r in
ple ctic
Ġbank rupt
p index
Inter op
Ġproceed s
v b
ĠM ask
ĠP av
transp arent
und a
Ġac ids
M ON
ult an
Direct ive
M ah
Ġde ce
Ġtable t
R oles
Ġf led
F ood
pr ising
23 4
e er
Ġw age
Ġwork shops
ĠM OD
ĠAv iation
ĠPhilli ps
O l
rf loor
Ġ* =
ĠValid ation
Ġb a
or p
Ġdo zens
Ġmod uli
ĠReyn olds
Ġcol ored
inter est
}} /
St udio
p ane
Ġpers pectives
Ġhyper bolic
ĠSh ape
CONT ENT
Ġn ons
P rec
' =
ore l
k ubernetes
Ġre build
az i
ĠT aking
Th ough
Ġhand ful
ator ies
filter ed
d ied
opt imal
16 1
ov ic
ok o
Instance State
ĠAm endment
R P
ĠB SD
ĠIn stitution
ĠE ff
ten ant
Ġsent enced
v iol
Sh utdown
Ġburn ed
Ġsh ield
Ġint elligent
und o
Ġindic ation
6 50
ĠAd vert
/ -
ĠS or
ĠCom mercial
Ġb uses
" <
ĠAss essment
Ġviol in
ĠC ash
Ġdis rupt
Ġdeb uted
sub float
Ġim pressed
Th ose
Ġsk ew
M u
d up
\!\! \!\!
ĠFa ith
enc oder
17 7
b ower
track er
Ġal phabet
Ġlif ted
pro per
ĠIn sert
18 88
B G
r idden
Ġam ateur
ĠBe an
correspond ing
ĠR ice
Ġm eter
ĠAthlet ics
ĠB uch
ĠVictor ian
ĠRail road
H o
18 93
D N
oun ces
ap pe
? ,
Ġtr apped
Ġele ven
Ġevolution ary
Ġb uff
ĠH app
Ġexp ans
PRE SS
and e
ĠC amera
Ġgener ality
Ġgr ades
ĠØ ¨
Ð¸ Ðµ
Ġstrugg les
Match ers
en i
ĠN FT
Ġmod elling
n ai
y t
Ġb undles
ĠU INT
Ġmain tains
Ġh iding
ant ine
ãĥ Ī
Ġcard inal
ĠJ in
18 92
Ġindic ators
Ġinfer red
Ġreg ret
Out er
sh im
Ġcalcul ating
Ġconscious ness
STRE AM
li pped
ĠG oth
Ġinvari ance
ĠColomb ia
qu in
Ġh r
Ġpath ways
sk in
n able
r hs
at ra
ent i
ĠHar vey
Ġtour ist
Ġtre ating
Ġtrem end
Ġcol ours
Ġannoun ces
Ġtranslate Y
ä ¼
ĠC ord
Di agnostic
Ġconstit uency
3 40
ĠMe et
ST M
Ġun used
Ġmode led
C ong
E MPTY
Ġev olve
}} +
Enumer ator
ĠAssoci ated
inherit doc
z es
Ġex iting
ĠD rama
aur us
ĠL apl
18 91
Ġcan nab
assert That
Ġplay list
18 85
work flow
Mar shaller
/ ************************************************************************
ĠFinn ish
M ER
ĠProject s
ced es
Ġaut onomous
AUT O
ĠFor ward
il io
ĠM UST
K now
an imated
Ġb ugs
). }
Ġtransform s
ĠG len
ĠRe ed
ST AMP
ĠJul ia
t ls
icy cle
print s
C urrency
bro ok
ĠL ik
ĠE ST
Ġguitar ist
=" '
ĠSt atic
18 6
he nd
Ġs ne
Ġdes k
min o
ĠAb raham
ĠFellow ship
________ ________
ch itz
Ġbatt les
re load
é Ļ
Ġ'/ '
orne ys
}) -
) `
I ts
SP AN
Ġattr action
å ¸
Dir ty
Ġdest ruct
act ivation
Ġco at
Ġsouth west
Ġdiscuss es
U uid
ĠCom edy
Ġexpect ing
ĠR M
ĠDer by
ĠS equence
Ġcounter part
Ġclip board
ĠK ol
US H
Ġrol led
âĢ ²
f on
Ġcomp ressed
Ġobserv ables
You ng
dis crete
Mut ex
ju ana
aval ry
Ġv a
Ġmon ster
ĠUtil s
Expat riate
S to
un til
S ensor
Ġtr iggers
ne apolis
ĠSerb ia
N M
Ġf ur
link col
ĠChem istry
Ġc ord
ĠW idget
ro us
ĠU int
Ġpat ri
Ġoscill ations
constr aints
stat istics
ĠSc ene
Ġqual itative
Ġindu ce
at trib
Ġt ired
ĠMan ufact
ĠN g
ĠRepresent ative
eral a
ĠJer emy
Ġdial ect
ec onomic
Ġar rows
Ġ` --
ari juana
ĠBu ilt
Ġr iders
S pl
by e
ĠInt roduction
Ġal umin
Ġautom ation
rele ases
ct ype
Ġpar ity
y ml
Ġdown stream
Pro blem
Pl ugins
Ġresearch er
Ġintr ig
ä ¹
ĠS yl
ĠS it
Ġcount ed
Ġprof its
MO VE
M gr
ors ion
Ġw ound
op al
ĠSol id
ro uting
inc eton
st ars
col lections
Ã¼ n
b rit
ĠJ obs
Ġco homology
for um
Ġalloc ate
V ersions
c ats
ĠR aid
}} }}
ì Ŀ
Ġch apters
ĠW ant
> ]
da o
ĉĉĉ čĊ
Ġrefuge es
ĠN amed
Ġres ize
na ire
year s
ĠF ashion
ĠSt re
Ġinject ed
ĠS cale
Ġst ays
ĠArab ic
Ġadvers arial
al am
Ġact ivate
Ġ ug
sh ifts
ĠEx ternal
ĠWell s
Ġb ootstrap
Ġviol ations
Ġvanish ing
fil m
Ġswit ched
Ġend orse
Ignore Case
hen e
g ary
Ġ )$
ER O
Foreign Key
}\ !
ĠAnd r
Q T
Ġsim ulate
D eleted
idd ing
64 0
17 1
FO UND
ĠB omb
Serial ized
t ier
ow ing
Ġsp iral
ĠNiger ian
Ġw ard
Fr ance
cor relation
Ġtr ucks
Ġsup pression
Gener ation
ĠGit Hub
U IT
ĠOr lando
') [
C OR
ĠPack ages
Ġbr acket
Ġcare ers
Ġthr iller
And rew
Ġten ure
ĠK re
s P
Ġp ocket
type Name
Fr iday
ĠDist ribution
Ġp ale
ĠB aptist
Ġelder ly
Ġamb ient
ĠM otion
Loc ations
Ġl on
ant is
ser ting
Ġt v
Ġs z
Ġd ots
Ġpost er
' ",
ah u
Play ers
MA IL
OUT PUT
Ġs lip
com ed
Ġap olog
Ġinvest ed
il ion
Ġstar red
t alk
L y
22 6
Ġbel oved
Ġrenew able
}} }{
Ġmed ic
Ġmurder ed
ĠP FNGL
ĠEn um
Ġque en
}\ }$
30 3
" ):
A x
UB LE
18 4
ĠTr inity
sp y
= {\
Ġassist ed
Ġsem antics
Ġdiscre p
Ġsatisf action
Ex plicit
Ġlast ed
Ġgrand father
Ġtor us
E G
Ġref ere
c ms
Str ict
ä¸ º
Ġsuggest ion
Ġm akers
Ġst om
ro bot
ĠSt uart
cont rollers
ĠN y
B IND
Ġforg otten
å ¾
Track ing
N othing
Ġlearn s
war z
ĠK aren
Ġprox imity
Ġwe aker
~~~~~~~~ ~~~~~~~~
nt hesis
LA ST
Request ed
Ġwis dom
Term s
Ġpack aging
ĠJul ian
DESCRIPT ION
Ġdis cret
Pr iv
ĠCoun ter
Ġreport ers
ĠPre Arg
Ġcl arity
Ġrel ativistic
Ġpartnership s
ĠW er
Ġtra uma
ĠSp ark
Pos itions
ĠB ak
ĠU UID
ĠCh ase
Fin ish
Ġpow der
Ġpan ic
An alytics
Rec overy
Compar ator
Ġwealth y
ĠLeb anon
Ġcontrib utor
Ġ@ @
Ġh iring
th ink
18 3
ĠV ER
Ġfix es
l st
Ġh oped
ĠO ri
SNA PSHOT
ĠSymph ony
Ġpass ive
Ġdram atically
ĠR ather
ĠNAT O
am ous
Ã± a
Ġrenown ed
? (:
Ġheart s
h c
Ġ( ((
Ġpres cription
ĠPark s
Ġconstitution al
ll a
Ġ? ?
Writ able
U kr
Ġb er
tr ation
ĠĠĠĠĠĠĠĠĠĠĠĠĠĠĠĠĠĠĠĠĠĠĠĠĠĠĠĠĠĠĠĠ ĠĠĠĠĠĠĠĠĠĠĠĠĠĠĠĠĠĠĠĠĠĠĠĠĠĠĠ
22 8
Ġ\\ [
Ġenjoy ing
âĢĶ âĢĶ
Ġhistor ically
Ġt a
W IDTH
Ġapproach ing
Ġsymbol ic
ĠExec ution
K O
J un
G erm
Ġrele vance
ĠSo ft
Tool tip
ĠV R
Ġbatter ies
For Key
Ġf ung
em i
ĠP T
Ġx hr
22 1
Ġbusiness man
t icket
graph s
Mark et
Ġp unct
uss els
U INT
Ġcut off
Resp ons
ĠEx pr
bre vi
G lob
ĠAn cient
Ġexplo it
Ġ[ ])
Ġdon ations
ch ip
K G
Ġrem ind
set Name
aut om
Ġd oses
ong ue
ĠChristian ity
c ot
ĠLe af
ĠB und
up pet
Ġl ac
Ġout flow
Ġsubsid iary
r ator
r ically
N AS
Ġferm ions
Ġw ore
ST AR
ĠCh ang
tex cmd
Ġmuseum s
St e
set Property
ĠEffect s
Byte String
Ġnav al
DEF IN
c ould
Ġcomplex es
track s
Ġlic enses
Ġw ars
uc ose
Ġeth ical
Ġliv estock
C our
D eg
ĠS PE
p v
z el
Ġk a
"> =</
Ġprol ifer
Des erial
ĠRec all
Ġsort s
Ġs ax
Ġor chestra
Out Of
ĠBelg ian
ĠR uth
p it
ĠRat ings
ĠArray s
Ġr am
Cor rect
Ġcond ens
ann i
l od
ec a
ĠIs aac
Und efined
incor porated
Ġen rolled
ĠWood s
} ">
Comput er
Ġbro ker
work space
Ġh ls
v ectors
ĠM ik
Ġpreserv ing
qual ified
Ġinvest or
T a
ĠC W
ĠStand ards
Ap ache
Ġsymmet ries
Ġem igr
Ġfin ancing
google ads
Ġradi i
Ġs ew
V ED
SET T
Ġbe ings
Ġir regular
ĠN umer
ĠW IN
ĠCris is
ĠArt ists
18 94
Ġconcert s
Ġstat ue
ĠSecond ary
K W
l is
Ġstrong est
ĠP I
Sp in
r gba
enc rypted
S pect
Ġu id
Ġtrib es
8 75
ĠP UR
ĠEthiop ia
ĠNorth west
ĠMichel le
ĠS weet
ĠLeg acy
é Ĺ
ĠCon v
Ġhol idays
Ġn umpy
as pect
Ġpe pt
s af
Ġj oke
+ ,
40 3
Ġecc entric
Ġp ian
Ġstrugg led
Ġg aining
: ",
parse Int
ĠD ennis
Ġlov ely
ip ment
ĠEx pect
Ġtrad itionally
ĠNav igation
d oxygen
View port
Ġor chestr
ĠAl loc
Mar shal
iffer ential
P et
Ġph p
Ġw orn
Ġtag ged
ab b
17 3
ĠCor porate
dig est
the m
prom pt
Ø ´
ĠA zerbai
ĠJ et
b ibli
Ġgard ens
Ġpull ing
LA S
LI ED
St ill
Ġprevent ed
assert Raises
Ġdemonstr ation
R oyal
S el
Ġer g
ĠG NU
ĠĠĠĠĠĠĠĠĠĠĠĠĠĠĠĠĠĠĠĠĠĠĠĠĠĠĠĠĠĠĠĠ ĠĠĠĠĠĠĠĠĠĠĠĠĠĠĠĠ
Ġcab in
n atural
æ Ģ
ĠAl t
der ived
Ġd in
Get Value
ĠI Enumerable
Ġacceler ated
- {\
Ġmut ations
Mart in
rais ebox
sk a
ĠR alph
Text Box
Ġdefect s
publish er
Q uality
Ġtrav els
Ġfurn iture
get Path
ape st
Ġprec ip
Ð» Ð¸
pert urb
Ðµ Ðº
ins ky
ĠCon cert
M Q
Ġche ese
ĠInitial ized
is en
ast ics
user Agent
Acc eler
Display Name
ogen esis
> *
Ġlat ency
m v
ĠOt tawa
Target s
Ġcapt uring
Ġloc ate
ĠCon str
F K
ĠC rystal
em b
set State
ĠTr ace
V L
Ġrespons ibilities
ast ian
ĠGrad uate
Ġprior ities
n z
US B
Play ing
Ġb ail
Ġsub scribe
!! !!
az ar
'' .
ĠSpec ifies
p se
ĠE mber
Ġearth quake
Ġpair ing
Ġrob ots
Al ready
ce led
Ġconcat en
ĠPet e
Ġcompr ising
ĠP ER
ter rit
R anges
Ġexp ose
ĠShang hai
M acro
it atively
Ġn inth
ĠC ool
Ġconstit ute
Ġstr at
}] \
to Array
g id
Con clusion
gr ades
sub menu
aaaa aaaa
ru it
:: ~
Ġinv ite
Ġhon ors
real m
sp lice
find er
Fig ures
Ġdead ly
ĠWild life
Con cept
ĠPre vention
m iral
Ġd ock
Ġinter cept
Ġcounter parts
Ġc ats
ym p
prot oc
Ġillustr ates
ĠInt o
Ġprodu ctions
cell s
st retch
ĠR S
ç ī
Ġround ed
Ġcust ody
est yle
con taining
sh utdown
ch apter
ĠU SS
ĠSp ider
ĠJ ets
Ð» Ñı
B UT
re search
Ġnew est
ĠMar x
Ġtact ics
ell ites
Ġwork space
ch ars
ud ed
ĠS DL
ex perimental
ĠS plit
Ġmanufact ured
Ġdet ectors
ĠV ic
ĠHe avy
Mult ip
clean up
Ġveter ans
Ġachiev es
ĠM N
Ġg ifts
ĠL is
Ġc ad
ĠHe at
emph is
Ġexponential ly
Ġtrans fers
Ġoblig ations
Ġgame play
Ġunn ecessary
/ :
_{ (\
Ġelse if
00 000
D evelopment
ĠN L
Ġgr adients
ĠRE ST
ĠHoll and
ĠEvery one
Enc ryption
arr ass
As String
ĠBob by
is EqualTo
ess el
c riteria
Ġb esides
ĠBl ake
K h
Ġ\ #
der iv
Ġgen ome
Ġpreval ence
. ">
Rep ublic
Ġà¤ ķ
de ployment
C ES
Ġavoid ed
P ART
In spector
Ġfear s
Ġlong itudinal
Comm unity
Ġsoci eties
r ice
Ġimag ination
node Type
subNav List
){ $
ber y
Ġsome body
n is
å ·
ĠUn known
TR ACE
Ġcross es
Ġb ags
ĠL amb
Ġun cle
g old
t ro
Ġbad ly
Ġ"/ "
ĠFunction s
ĠN J
o led
in as
/* .
ĠFlore nce
U tf
}$ ).
c ards
ptr c
Ġflux es
Ġp orn
ĠS ure
17 9
Ġre wards
reat ment
ĠGr ass
Gu ide
pol ar
at ility
initial ized
ĠVAL UE
Ġspect acular
m and
ĠA A
con cept
ack now
Ġnon profit
iev es
op ath
des ktop
moment um
D G
Ġvalid ated
up grade
$ }\
E t
^ -$
ou x
Ġconstruct ing
W ashington
Ġqu arks
ĠPart ner
T our
Ġb other
Ġdrink s
Ġaffili ated
Ġin ert
:: _
Ġcan celed
ĠP ul
ĠEx tra
Ġbed room
rele ased
P rem
ĠDo ctrine
Ġsw ift
Ġs ang
ĠC es
Ġh orm
Tr ump
M AT
ĠEag le
Ġce iling
behav iors
Ġv iable
ĠS ocket
ital ic
ĠProp Types
get Int
Ġcivil ian
Ġfar ms
Ġcru ise
atin um
Ġreg ener
ĠY ale
18 64
Ġgeodes ic
Ġdesign ing
B roadcast
size i
23 7
Ġhol omorphic
Ġs sl
ĠL ayer
um ably
Ġan ch
Ġnom inations
^ +\
Ġfor k
Ġme als
LO T
pt ical
Ġdef inite
ĠPo inter
å Ģ
ĠCar r
Ġcomput ations
45 6
Rep orter
Ġclin ic
Ġp ec
LI MIT
Part icle
wrap ped
z yn
Ġindiv idually
L azy
Ġmanifold s
Th ing
w r
Ġd ocker
ĠP att
ĠY uk
Exception s
SH IP
Bit coin
ug oslav
so ftware
y en
WIN DO
av ern
Ġun precedented
H W
] _{
R ing
ĠMed ic
ac i
ob ic
op a
Ġdiv orce
Ġclick ing
CCCC FF
dig it
er ase
ĠInd ependence
Ad apt
ĠB lo
Ġann ih
Le af
Ġaggreg ation
Trans late
ĠAr ctic
draw er
unit test
Ġhar sh
") ),
c rit
ĠM ul
ĠT ol
ĠDec ision
t elling
un ted
ew atch
charg ed
Ġnetwork ing
ĠStart ing
ĠGab riel
ĠYork shire
ĠAss et
ĠMarc us
Ġ# ##
eck o
Ġbuy ers
Ġd uality
Ġaccess ibility
dec om
root Scope
u ced
l azy
OR TS
Ġyour s
Ġrec ursive
Ġarg ues
K im
Ġavoid ing
H ey
x a
Ġhon ored
At omic
Ġposition ed
Ġther apeutic
C lim
19 1
ĠU ntil
Med al
it zer
hem atic
Ġsurre nder
sort ed
Assert ion
Rest ore
ĠM atter
comput er
3 80
Ġexped ition
G Hz
ĠS TE
ĠWall ace
Ġgener a
P aper
b ill
ĠEx tract
L ER
S ex
ĠO w
ell ular
erv ing
18 9
prov iders
Ġexec uting
Ġreve aling
calcul ate
Ġn ursing
can onical
FORE ACH
g ue
Ġsum s
ĠCl iff
Le ague
Î Ń
ĠCroat ia
text style
ĠMathemat ics
ĠS ed
Ġpop up
UNK NOWN
ex change
Ġinfr ared
b ane
ord ion
Ġbl ues
Ġmet ast
Ġaff air
ĠSy rian
ĠS oci
Tr avel
function al
Ġpsych ology
3 10
Ġ' :
be zier
Ġâ ī
ĠShe ll
int rodu
Data Set
pol it
Job s
Ġsc andal
co ordinate
Ġg est
^{ [
Ġgr pc
vis ions
Ġconver ge
E scape
S und
ĠB in
jd k
Ġmake up
}$ $
RE N
tim ing
Ġcre atures
> ?
Gr and
Ġachiev ements
G reg
~ {\
F lex
illi an
Ġcoordin ator
Ġ" *
18 1
ĠR ena
ips chitz
Ġ ------------------------------------------------
Second ary
æĪ Ĳ
213 07
Ġlater al
ĠD aw
Ġferm ion
Ġportr ayed
Ġnob le
S dk
x si
ĠCh an
Ġav iation
ĠF oster
man uel
INST ALL
Ġreplic a
d ll
18 87
fe at
class List
ĠS ens
Ġad oles
on ian
Ġdownload ed
bl ur
Ġabsor bed
ĠGro ve
ph al
skip Nav
h ours
Ġg ov
ĠAr senal
23 1
Ġby pass
Ġcollect or
xx x
ĠN R
Ġbi om
Ġt ears
ĠM Y
Ġal ike
Ġre called
Ġr ats
Ġdest inations
P ick
L os
ĠS z
inter op
Ġstat istically
ĠLog in
H AL
Ġprotect ive
Ġfib ers
ĠPr incipal
ĠP rec
Ġat tractions
Ð ¶
w ent
Ġto b
-- ">
O Auth
Ġcl imb
Ġ' ;
account s
Â ½
Ġmaxim ize
Ġb reat
Ġg i
x FF
Ġint ro
Adv anced
ĠID s
ĠHar per
r us
ĠSp encer
ĠF LA
Ġann oy
Ġke en
s cheduler
Ġsh ifting
St ory
any on
ĠCall back
DIS ABLE
Ġm anga
Gu ard
Ġdes erial
Ġimpact ed
g ateway
ĠAp plications
rend ering
ĠD L
Ġco hort
h azelcast
Ġdirect ories
Ġr ush
Ġconsult ation
}$ ;
Ġback wards
Fl at
Ġembr ace
Ġab elian
ĠHy per
97 8
Ġro ok
AD ER
Ġs cheduler
am as
ĠB udget
ject ed
el ong
ass ignment
æ Į
ĠI g
H op
Ġch lor
Ġam et
ĠGet ty
Ġauthent ic
CAC HE
al ong
og an
ĠCh ern
ĠBel ow
ĠS IL
Ġdis par
ĠN as
}| ^
Ġwh is
Ġsurviv ors
Ġev olving
Ġcre ators
Ġdiscipl ine
S nap
P TR
search Box
q t
Ġdark ness
Ġcomm od
Ġwhe els
22 3
Ġneg ot
get C
Ġchar ter
ĠH amb
Ġo d
ĠT IME
ĠH arm
Ġ{ :
pack ed
Ġrent al
M ARY
Ġed u
25 4
c ro
ĠC elt
S af
Ġmem o
mock ito
weight ed
Ġsan ctions
ĠSub ject
ĠE DT
get All
"> $
Ġoffer ings
ĠEdd ie
Ġcol ony
Ġam end
Sc ience
Ġ( &
32 1
RA W
====== =
M oney
è¦ ģ
ĠC IA
Ġserial ize
colog ical
Ġdes erve
Ġdis pers
b ial
i ab
S equ
\ ",
ĠL oop
art a
Ġbe ars
ĠH appy
in ria
Ch ars
ĠK oh
d ead
Ġ[] *
ol ation
Ġunder graduate
CON TEXT
ĠCond itions
Ge org
B razil
Ġn urse
ir on
ĠL ives
ol in
ĠIm prov
ĠThrow able
Re peat
[...]
