{"[UNK]":0,"!":1,"\"":2,"#":3,"$":4,"%":5,"&":6,"'":7,"(":8,")":9,"*":10,"+":11,",":12,"-":13,".":14,"/":15,"0":16,"1":17,"2":18,"3":19,"4":20,"5":21,"6":22,"7":23,"8":24,"9":25,":":26,";":27,"<":28,"=":29,">":30,"?":31,"@":32,"A":33,"B":34,"C":35,"D":36,"E":37,"F":38,"G":39,"H":40,"I":41,"J":42,"K":43,"L":44,"M":45,"N":46,"O":47,"P":48,"Q":49,"R":50,"S":51,"T":52,"U":53,"V":54,"W":55,"X":56,"Y":57,"Z":58,"[":59,"\\":60,"]":61,"^":62,"_":63,"`":64,"a":65,"b":66,"c":67,"d":68,"e":69,"f":70,"g":71,"h":72,"i":73,"j":74,"k":75,"l":76,"m":77,"n":78,"o":79,"p":80,"q":81,"r":82,"s":83,"t":84,"u":85,"v":86,"w":87,"x":88,"y":89,"z":90,"{":91,"|":92,"}":93,"~":94,"¡":95,"¢":96,"£":97,"¤":98,"¥":99,"¦":100,"§":101,"¨":102,"©":103,"ª":104,"«":105,"¬":106,"®":107,"¯":108,"°":109,"±":110,"²":111,"³":112,"´":113,"µ":114,"¶":115,"·":116,"¸":117,"¹":118,"º":119,"»":120,"¼":121,"½":122,"¾":123,"¿":124,"Â":125,"Ã":126,"Ä":127,"Å":128,"Æ":129,"Ç":130,"È":131,"É":132,"Ê":133,"Ë":134,"Ì":135,"Í":136,"Î":137,"Ï":138,"Ð":139,"Ñ":140,"Ò":141,"Ó":142,"Ô":143,"Õ":144,"Ö":145,"×":146,"Ø":147,"Ù":148,"Ú":149,"Û":150,"Ü":151,"Ý":152,"Þ":153,"ß":154,"à":155,"á":156,"â":157,"ã":158,"ä":159,"å":160,"æ":161,"ç":162,"è":163,"é":164,"ê":165,"ë":166,"ì":167,"í":168,"î":169,"ï":170,"ð":171,"ñ":172,"ò":173,"ó":174,"ô":175,"Ā":176,"ā":177,"Ă":178,"ă":179,"Ą":180,"ą":181,"Ć":182,"ć":183,"Ĉ":184,"ĉ":185,"Ċ":186,"ċ":187,"Č":188,"č":189,"Ď":190,"ď":191,"Đ":192,"đ":193,"Ē":194,"ē":195,"Ĕ":196,"ĕ":197,"Ė":198,"ė":199,"Ę":200,"ę":201,"Ě":202,"ě":203,"Ĝ":204,"ĝ":205,"Ğ":206,"ğ":207,"Ġ":208,"ġ":209,"Ģ":210,"ģ":211,"Ĥ":212,"ĥ":213,"Ħ":214,"ħ":215,"Ĩ":216,"ĩ":217,"Ī":218,"ī":219,"Ĭ":220,"ĭ":221,"Į":222,"į":223,"İ":224,"ı":225,"Ĳ":226,"ĳ":227,"Ĵ":228,"ĵ":229,"Ķ":230,"ķ":231,"ĸ":232,"Ĺ":233,"ĺ":234,"Ļ":235,"ļ":236,"Ľ":237,"ľ":238,"Ŀ":239,"ŀ":240,"Ł":241,"ł":242,"Ń":243,"ĠĠ":244,"ĠĠĠĠ":245,"Ġt":246,"in":247,"er":248,"on":249,"Ġa":250,"he":251,"re":252,"at":253,"en":254,"or":255,"st":256,"Ġthe":257,"al":258,"an":259,"it":260,"Ġc":261,"ĠĠĠ":262,"ar":263,"le":264,"ĠĠĠĠĠĠĠĠ":265,"ion":266,"Ġs":267,"Ġo":268,"es":269,"is":270,"Ġf":271,"ed":272,"Ġw":273,"ing":274,"Ġp":275,"ic":276,"ro":277,"nd":278,"Ġb":279,"Ġin":280,"as":281,"Ġof":282,"et":283,"ct":284,"ou":285,"Ġd":286,"Ġm":287,"ent":288,"el":289,"Ġand":290,"Ġto":291,"am":292,"Ġh":293,"om":294,"Ġre":295,"il":296,"Ġn":297,"ĠĠĠĠĠĠĠ":298,"Ġth":299,"id":300,"ig":301,"ation":302,"ac":303,"ol":304,"im":305,"Ġ(":306,"ĠS":307,"ur":308,"ut":309,"Ġ=":310,"ot":311,"Ġe":312,"Ġl":313,"ĠT":314,"se":315,"</":316,"iv":317,"ad":318,"ĉĉ":319,"ĠC":320,"ĠA":321,"Ġ$":322,"=\"":323,"ce":324,"Ġ\\":325,"od":326,"ul":327,"ag":328,"if":329,"Ġis":330,");":331,"Ġg":332,"âĢ":333,"th":334,"ow":335,"ay":336,"Ġ<":337,"Ġfor":338,"un":339,"Ġ{":340,"--":341,"em":342,"ch":343,"Ġv":344,"ĠI":345,"ab":346,"Ġst":347,"us":348,"pe":349,"ĠM":350,"um":351,"ers":352,"ate":353,"ly":354,"qu":355,"Ġon":356,"ĠĠĠĠĠĠĠĠĠĠĠ":357,"ap":358,"Ġbe":359,"ith":360,"tr":361,"čĊ":362,"oc":363,"ex":364,"ĠP":365,"ist":366,"ir":367,"ass":368,"//":369,"ht":370,"Ġcon":371,"ter":372,"ĠB":373,"av":374,"Ġ*":375,"ction":376,"pt":377,"ver":378,"ame":379,"end":380,"Ġthat":381,"est":382,"20":383,"Ġas":384,"ĠR":385,"ew":386,"res":387,"ĠD":388,"and":389,"Ġwith":390,"\">":391,"Ġ}":392,"ub":393,"up":394,"ess":395,"ĠF":396,"ĠH":397,"our":398,"ue":399,"lass":400,"ort":401,"Ġal":402,"ĠL":403,"ri":404,"Ġ\"":405,"Ġpro":406,"age":407,"Ġan":408,"op":409,"ef":410,"ain":411,"ĠN":412,"os":413,"Ġwh":414,"ĠW":415,"ĠĠĠĠĠĠĠĠĠĠĠĠĠĠĠĠ":416,"ath":417,"ect":418,"ity":419,"{\\":420,"ĠE":421,"ĠG":422,"li":423,"ine":424,"ĠThe":425,"Ġit":426,"rom":427,"ĠĠĠĠĠ":428,"Ġex":429,"ore":430,"art":431,"()":432,"Ġcom":433,"Ġr":434,"ere":435,"ment":436,"nt":437,"ke":438,"Ġby":439,"ight":440,"Ġy":441,"urn":442,"**":443,"sp":444,"..":445,"ext":446,"eg":447,"ec":448,"og":449,"Ġat":450,"Ġor":451,"Ġthis":452,"pl":453,"iz":454,"ack":455,"able":456,"ure":457,"all":458,"Ġwas":459,"Ġ&":460,"ies":461,"Ġclass":462,"ill":463,"ult":464,"ive":465,"port":466,"Ġare":467,"ial":468,"ĠO":469,"ant":470,"âĢĻ":471,"ans":472,"19":473,"==":474,"per":475,"ype":476,"ile":477,"ref":478,"Ġfrom":479,"turn":480,"ang":481,"ud":482,"----":483,"ld":484,"_{":485,"Ġtr":486,"Ġif":487,"ep":488,"00":489,"Ġ'":490,"get":491,"con":492,"orm":493,"ĠJ":494,"str":495,"ode":496,"ĠĊ":497,"Ġwe":498,"act":499,"Ġhe":500,"int":501,"ast":502,"ber":503,"ind":504,"Ġch":505,"und":506,"ff":507,"ĠĠĠĠĠĠĠĠĠĠĠĠĠĠĠ":508,"Ġ-":509,"are":510,"ase":511,"ov":512,"Ġ$\\":513,"Ġle":514,"ĠU":515,"ary":516,"com":517,"lic":518,"Ġsh":519,"Ġnot":520,"ard":521,"ated":522,"ev":523,"ip":524,"ite":525,"In":526,"ata":527,"ib":528,"ption":529,"ave":530,"ace":531,"ord":532,"out":533,"ug":534,"pro":535,"The":536,"ak":537,"ign":538,"ire":539,"ĠâĢ":540,"ost":541,"ell":542,"ph":543,"ition":544,"math":545,"to":546,"Ġse":547,"ust":548,"ime":549,"Ġ</":550,"ject":551,"Ġ//":552,"../":553,"Ġreturn":554,"alue":555,"ide":556,"ple":557,"ser":558,"ma":559,"ich":560,"cl":561,"ical":562,"ong":563,"ĉĉĉĉ":564,"ource":565,"ice":566,"),":567,"Ġ[":568,"ia":569,"ĠK":570,"::":571,"'s":572,"text":573,").":574,"->":575,"ge":576,"ork":577,"Ġus":578,"ild":579,"Ġpl":580,"ĠIn":581,"ft":582,"ok":583,"ens":584,"cc":585,"unction":586,"Ġcan":587,"Ġj":588,"ublic":589,"lo":590,"form":591,"ĠV":592,"Con":593,"ence":594,"Ġnew":595,"ance":596,"}}":597,"Ġhave":598,"dd":599,"201":600,"ss":601,"loc":602,"ations":603,"cri":604,"^{":605,"ould":606,"Ġres":607,"row":608,"Ġ+":609,"ear":610,"du":611,"Ġ@":612,"ory":613,"ml":614,"aram":615,"div":616,"one":617,"Ġim":618,"St":619,"ĠTh":620,"elf":621,"Ġhas":622,"essage":623,"Ġyou":624,"Ġk":625,"ress":626,"\",":627,"Ġall":628,"set":629,"Ġun":630,"}\\":631,"fr":632,"Ġar":633,"put":634,"}$":635,"use":636,"Ġ/":637,"(\"":638,"Ġab":639,"ther":640,"ull":641,"enc":642,"ach":643,"so":644,"ents":645,"ĠSt":646,"></":647,"ra":648,"ize":649,"();":650,"Ġap":651,"cal":652,"ener":653,"Ġwhich":654,"equ":655,"hen":656,"span":657,"ous":658,"Ġcont":659,"><":660,"',":661,"Ġstr":662,"fig":663,"ll":664,"10":665,"ail":666,"own":667,"Ex":668,"ink":669,"iew":670,"tring":671,"../../":672,"Ġ|":673,"--------":674,"iel":675,"ount":676,"Ġwill":677,"Ġ.":678,"sh":679,"ian":680,"ob":681,"ome":682,"ps":683,"(\\":684,"ta":685,"over":686,"te":687,"Ġhis":688,"ound":689,"ond":690,"ry":691,"che":692,"ree":693,"Ġcomp":694,"eth":695,"ual":696,"Ġout":697,"fer":698,"ield":699,"Ġdef":700,"egin":701,"Ġfunction":702,"ark":703,"ĠCh":704,"Ġdo":705,"ors":706,"Ġname":707,"Ġpr":708,"****":709,"irst":710,"erv":711,"Ġpublic":712,"====":713,"abel":714,"erm":715,"les":716,"begin":717,"oll":718,"ray":719,"html":720,"Ġbut":721,"âĢĿ":722,"Ġ*/":723,"Ġup":724,"Ġ:":725,"clud":726,"ele":727,"Ġint":728,"inal":729,"Ġdis":730,"ck":731,"old":732,"Ġhref":733,"eb":734,"ĉĉĉ":735,"err":736,"tern":737,"source":738,"Ġone":739,"ĠĠĠĠĠĠĠĠĠĠĠĠĠĠĠĠĠĠĠ":740,"Ġset":741,"ions":742,"ish":743,"ne":744,"message":745,"Ġget":746,"odel":747,"name":748,"yst":749,"pr":750,"pect":751,"('":752,"ook":753,"Ġev":754,"Ġme":755,"},":756,"200":757,"ĠĠĠĠĠĠĠĠĠ":758,"oth":759,"right":760,"ict":761,"Ġob":762,"_{\\":763,"ates":764,"ert":765,"Ġqu":766,"))":767,"Ġro":768,"trans":769,"Ġvar":770,"Ġtheir":771,"Ġpart":772,"oid":773,"lation":774,"roup":775,"ER":776,"Ġalso":777,"Pro":778,"led":779,"oint":780,"ose":781,"ery":782,"this":783,"ool":784,"mer":785,"ty":786,"ely":787,")$":788,"ings":789,"ĠY":790,"ix":791,"Ġsu":792,"Ġwere":793,"rap":794,"Ġ#":795,"eng":796,"ON":797,"ake":798,"cre":799,"pec":800,"line":801,"ystem":802,"Ġ=>":803,"td":804,"sum":805,"wo":806,"Ġmore":807,"io":808,"Ġsp":809,"}{":810,"ics":811,"rit":812,"key":813,"Name":814,"Ġtype":815,"ator":816,"Ġ_":817,"the":818,"import":819,"ax":820,"Ġpre":821,"18":822,"Type":823,"Ġper":824,"Id":825,"alse":826,"12":827,"lect":828,"Ġthey":829,"Ġvalue":830,"IN":831,"arg":832,"Ġman":833,"Ġits":834,"app":835,"atch":836,"we":837,"Ġover":838,"cript":839,"col":840,"ick":841,"Ġso":842,"String":843,"Ġline":844,"umber":845,"Th":846,"igh":847,"lock":848,"eta":849,"ng":850,"param":851,"Ġdata":852,"/>":853,"aw":854,"frac":855,"atic":856,"label":857,"Ġtime":858,"iss":859,"Ġne":860,"Ġag":861,"ont":862,"eq":863,"##":864,"uct":865,"ater":866,"fter":867,"Ġwork":868,"hed":869,"code":870,"Ġcl":871,"ethod":872,"ange":873,"ve":874,"ĠIt":875,"return":876,"translation":877,"fo":878,"ames":879,"ove":880,"Ġwho":881,"Ġfirst":882,"ys":883,"ĠâĢľ":884,"://":885,"\"/>":886,"Ġadd":887,"uild":888,"Ġother":889,"Ġdes":890,"Ġinter":891,"pos":892,"rm":893,"ific":894,"urre":895,"mb":896,"RE":897,"ox":898,"Ġwhen":899,"Ġad":900,"round":901,"def":902,"ock":903,"Ġgo":904,"left":905,"Ġde":906,"Ġbeen":907,"ays":908,"Ġsup":909,"Ġself":910,"ie":911,"Ġcol":912,"of":913,"ative":914,"Com":915,"ĠUn":916,"ons":917,"Ġen":918,"anc":919,"Ġid":920,"Res":921,"Ġher":922,"Ġtwo":923,"Ġel":924,"add":925,"Ġresult":926,"arch":927,"Ġi":928,"ann":929,"class":930,"als":931,"Ġli":932,"16":933,"ault":934,"Ġany":935,"ST":936,"cent":937,"tt":938,"Ġend":939,"ms":940,"var":941,"Ġund":942,"Ġabout":943,"Ġhad":944,"ute":945,"ular":946,"Ġ!":947,"ĠHe":948,"Ġconst":949,"List":950,"Ġyear":951,"Ġcomm":952,"type":953,"mathb":954,"yn":955,"ues":956,"gr":957,"$.":958,"ĠThis":959,"ational":960,"ton":961,"ĠâĢĵ":962,"Ġour":963,"__":964,"oun":965,"$,":966,"Ġte":967,"Ġinto":968,"cite":969,"ception":970,"Ġsub":971,"ution":972,"AT":973,"idth":974,"raph":975,"itle":976,"Ġrequ":977,"ise":978,"Ġacc":979,"Ġthan":980,"Ġonly":981,"Ch":982,"Ġsc":983,"pon":984,"ating":985,"ments":986,"tain":987,"ied":988,"202":989,"})":990,"htt":991,"11":992,"ersion":993,"Ġreg":994,"cess":995,"amp":996,"Ġthere":997,"Ġ==":998,"read":999,"Ġbet":1000,"ade":1001,"ollow":1002,"ased":1003,",\\":1004,"Ġcre":1005,"Ġoff":1006,"ash":1007,"ember":1008,"ample":1009,"Ġ`":1010,"urrent":1011,"equation":1012,"ious":1013,"Ġplay":1014,"imes":1015,"Ġnull":1016,"Ġpos":1017,"Ġ||":1018,"oug":1019,"trib":1020,"15":1021,"ache":1022,"amb":1023,"ead":1024,"Ġno":1025,"Ġpe":1026,"bar":1027,"}.":1028,"Ġsome":1029,"min":1030,"sub":1031,"vent":1032,"Ġinclud":1033,"mathcal":1034,"\"><":1035,"Ġact":1036,"Ġuse":1037,"Ġtrans":1038,"val":1039,"sc":1040,"Ġdif":1041,"ility":1042,"OR":1043,"son":1044,"irect":1045,"ities":1046,"Ġind":1047,"ople":1048,"ĠCom":1049,"Ġyour":1050,"ID":1051,"its":1052,"Ġ>":1053,"plic":1054,"Ġwhere":1055,"olog":1056,"ument":1057,"Ar":1058,"Ġvoid":1059,"ugh":1060,"ĠĠĠĠĠĠĠĠĠĠĠĠĠ":1061,"ivate":1062,"ask":1063,"):":1064,"ner":1065,"resent":1066,"Ġkn":1067,"Ġwould":1068,"ĠPro":1069,"ible":1070,"Ġfalse":1071,"Ġform":1072,"Ġsa":1073,"ement":1074,"ning":1075,"uth":1076,"ider":1077,"AR":1078,"Ġop":1079,"work":1080,"org":1081,"yle":1082,"ures":1083,"Ġfe":1084,"LE":1085,"}(":1086,"Ġrel":1087,"Ġinst":1088,"der":1089,"ĠWe":1090,"ĠĠĠĠĠĠĠĠĠĠĠĠĠĠĠĠĠĠĠĠĠĠĠ":1091,"string":1092,"ined":1093,"Ġval":1094,"Ġdec":1095,"Ġunder":1096,"ward":1097,"ts":1098,"ature":1099,"Ġback":1100,"Ġfollow":1101,"Tr":1102,"ĠAr":1103,"item":1104,"Ġloc":1105,"ally":1106,"oy":1107,"pha":1108,"back":1109,"Ġprov":1110,"ages":1111,"));":1112,"da":1113,"Ġtrue":1114,"ower":1115,"ices":1116,"self":1117,"Ġthen":1118,"ble":1119,"Ġspec":1120,"Ġ--":1121,"ule":1122,"ctions":1123,"ited":1124,"}^":1125,"log":1126,"Ġafter":1127,"Ġph":1128,"25":1129,"ptions":1130,"serv":1131,"ole":1132,"bject":1133,"Ġorg":1134,"Ġrec":1135,"Ġsuch":1136,"ern":1137,"\");":1138,"pre":1139,"Ġco":1140,"----------------":1141,"Ġrem":1142,"13":1143,"}_":1144,"Ġshe":1145,"ength":1146,"Ġerr":1147,"14":1148,"Ġcase":1149,"ĠNew":1150,"hat":1151,"Ġtest":1152,"Ġmay":1153,"Ġused":1154,"********":1155,"ey":1156,"ank":1157,"âĢĵ":1158,"Ġsec":1159,"EN":1160,"ava":1161,"file":1162,"ished":1163,"tem":1164,"evel":1165,"rough":1166,"Ġgener":1167,"nb":1168,"Ġshow":1169,"Ġx":1170,"data":1171,"~\\":1172,"ier":1173,"alpha":1174,"land":1175,"oot":1176,"199":1177,"view":1178,"rr":1179,"orld":1180,"ween":1181,"Ġthem":1182,"perty":1183,"ĠĠĠĠĠĠ":1184,"To":1185,"ting":1186,"ince":1187,"Ġelse":1188,"////":1189,"Ġent":1190,"Ġmodel":1191,"Ġdist":1192,"ced":1193,"Ġ)":1194,"Ġfl":1195,"arget":1196,"ody":1197,"ho":1198,"ences":1199,"17":1200,"ervice":1201,"location":1202,"br":1203,"SS":1204,"ivers":1205,"ient":1206,"AL":1207,"lement":1208,"uring":1209,"Ġfil":1210,"Data":1211,"Ġcons":1212,"Value":1213,"Ġac":1214,"Ġstud":1215,"ww":1216,"ause":1217,"ee":1218,"px":1219,"air":1220,"sert":1221,"ized":1222,"fl":1223,"epend":1224,"value":1225,"Ġchar":1226,"ote":1227,"elta":1228,"Ġsim":1229,"Ġcor":1230,"Col":1231,"Ġhigh":1232,"Ġfinal":1233,"ins":1234,"ternal":1235,"Ġlike":1236,"nbsp":1237,"ĠQ":1238,"for":1239,"Ġthese":1240,"Ġdiffer":1241,"Ġprodu":1242,"...":1243,"ists":1244,"press":1245,"uff":1246,"ily":1247,"Ġinv":1248,"ambda":1249,"ars":1250,"ines":1251,"vel":1252,"be":1253,"yp":1254,"ream":1255,"Ġpeople":1256,"Ref":1257,"ĠCon":1258,"Ġbetween":1259,"30":1260,"Ġnumber":1261,"ĠĠĠĠĠĠĠĠĠĠĠĠĠĠĠĠĠĠĠĠĠĠĠĠĠĠĠĠĠĠĠĠ":1262,"date":1263,"Ġpol":1264,"any":1265,"lient":1266,"roid":1267,"$\\":1268,"ĠTr":1269,"Ġmost":1270,"ĠAn":1271,"========":1272,"ĠAl":1273,"co":1274,"\")":1275,"red":1276,"ym":1277,"Ġ/**":1278,"cont":1279,"Ġam":1280,")\\":1281,"Set":1282,"new":1283,"Ġdet":1284,"pp":1285,"Ġgr":1286,"Ġsystem":1287,"ru":1288,"Ġthrough":1289,"ĠSh":1290,"Ġhow":1291,"Ġneed":1292,"Ġstring":1293,"Ġeff":1294,"Ġfile":1295,"Ġstart":1296,"pi":1297,"meric":1298,"Ġsaid":1299,"];":1300,"Ġbec":1301,"ader":1302,"arent":1303,"100":1304,"ets":1305,"Ġever":1306,"wh":1307,"ough":1308,"rol":1309,"eter":1310,"Ġpoint":1311,"Exception":1312,"play":1313,"wn":1314,"Ġ&&":1315,"32":1316,"Ġgiv":1317,"Ġeach":1318,"script":1319,"apt":1320,"Ġlist":1321,"Ġsign":1322,"ision":1323,"test":1324,"Ġshould":1325,"ĠAs":1326,"ired":1327,"En":1328,"')":1329,"ren":1330,"ever":1331,"man":1332,"mall":1333,"DE":1334,"Ġjust":1335,"Ġass":1336,"($":1337,"ĠEx":1338,"ots":1339,"umn":1340,"az":1341,"Ġmy":1342,"ric":1343,"action":1344,"heck":1345,"ger":1346,"ason":1347,"mu":1348,"Err":1349,"Ġstatic":1350,"reat":1351,"atus":1352,"Ġwhat":1353,"amma":1354,"ify":1355,"ĠFor":1356,"ces":1357,"Ġequ":1358,"not":1359,"CT":1360,"ĠZ":1361,"Ġoper":1362,"rc":1363,"_\\":1364,"oci":1365,"Ġem":1366,"Ġmod":1367,"ted":1368,"Object":1369,"Ġ%":1370,"ek":1371,"ization":1372,"evelop":1373,"Ġwell":1374,"formation":1375,"Ġmethod":1376,"ccess":1377,"struct":1378,"Ġmin":1379,"Ġ///":1380,"=\\":1381,"Ġapp":1382,"Ġusing":1383,"Ġcal":1384,"iver":1385,"lection":1386,"ĠString":1387,"Ġfield":1388,"face":1389,"let":1390,"mary":1391,"mod":1392,"Ġdr":1393,"ential":1394,"Test":1395,"size":1396,"other":1397,"ah":1398,"ik":1399,"Ġbr":1400,"ful":1401,"SE":1402,"Ġser":1403,"50":1404,"']":1405,"Ġprivate":1406,"Cont":1407,"requ":1408,"IT":1409,"order":1410,"Ġext":1411,"AN":1412,"By":1413,"link":1414,"roll":1415,"me":1416,"Ġlong":1417,"Ġed":1418,"uss":1419,"Ġsol":1420,"igma":1421,"We":1422,"nav":1423,"Ġgroup":1424,"Ġ\\\\":1425,"by":1426,"ĠĠĠĠĊ":1427,"Ġstate":1428,"section":1429,"().":1430,"chool":1431,"ife":1432,"Ġ!=":1433,"As":1434,"\"></":1435,"}^{":1436,"Ġkey":1437,"width":1438,"gy":1439,"orn":1440,"fore":1441,"ega":1442,"js":1443,"View":1444,"array":1445,"}_{":1446,"mathbb":1447,"Ġobject":1448,"erson":1449,"Un":1450,"ified":1451,"Ġagain":1452,"Ġrep":1453,"ency":1454,"Ġfound":1455,"cept":1456,"ense":1457,"Get":1458,"lang":1459,"ants":1460,"uch":1461,"24":1462,"CO":1463,"());":1464,"ott":1465,"Ġparam":1466,"Ġcomple":1467,"Ġhim":1468,"Ġright":1469,"Ġsame":1470,"part":1471,"Ġwhile":1472,"Im":1473,"ĉĉĉĉĉ":1474,"align":1475,"ared":1476,"'t":1477,"ĠX":1478,"public":1479,"Ġnow":1480,"ME":1481,"Ġcould":1482,"Ġsur":1483,"lob":1484,"Ind":1485,"par":1486,"._":1487,"indow":1488,"load":1489,"Ġyears":1490,"ouse":1491,"ler":1492,"Error":1493,"\";":1494,"index":1495,"cle":1496,"att":1497,"list":1498,"top":1499,"ector":1500,"Ġsupport":1501,"Ġrun":1502,"['":1503,".</":1504,"ically":1505,"util":1506,"For":1507,"dis":1508,"lay":1509,"-\\":1510,"pace":1511,"reak":1512,"function":1513,"^{\\":1514,"Ġ{\\":1515,"inter":1516,"Ġcurrent":1517,"Class":1518,"Ġest":1519,"lp":1520,"000":1521,"cription":1522,"ocument":1523,"phi":1524,"ĠAmeric":1525,"med":1526,"ism":1527,"At":1528,"File":1529,"url":1530,"!--":1531,"Ġhand":1532,"reg":1533,"ĠInd":1534,"quot":1535,"time":1536,"go":1537,"her":1538,"ĠSe":1539,"til":1540,"lambda":1541,"An":1542,"Ġfr":1543,"Ġevery":1544,"Ġcall":1545,"Ġresp":1546,"way":1547,"Ġmake":1548,"table":1549,"ĠIf":1550,"ager":1551,"oh":1552,"includ":1553,"Ġboth":1554,"raw":1555,"=\"+":1556,"Ġappro":1557,"âĢľ":1558,"day":1559,"http":1560,"=\"../../":1561,"aj":1562,"gram":1563,"Ġdoes":1564,"try":1565,"ross":1566,"ground":1567,"Ġcent":1568,"Ġbefore":1569,"Ġbeing":1570,"ale":1571,"rite":1572,"Ġsee":1573,"Ġread":1574,"Ġz":1575,"rib":1576,"bf":1577,"198":1578,"ases":1579,"Sh":1580,"Ġnon":1581,"Ġimport":1582,"Ġdifferent":1583,"Ġmany":1584,"iversity":1585,"ron":1586,"');":1587,"Ġmon":1588,"\\\\":1589,"Key":1590,"ected":1591,"ten":1592,"ather":1593,"Ġarg":1594,"Ġsecond":1595,"ession":1596,"Requ":1597,"cd":1598,"eps":1599,"64":1600,"field":1601,"],":1602,"Ġtitle":1603,"Ġmed":1604,"Ġexpect":1605,".âĢĿ":1606,"Ġdirect":1607,"que":1608,"ackage":1609,"Ġexper":1610,"Ġlast":1611,"Ġu":1612,"comm":1613,"Ġpartic":1614,"arn":1615,"ident":1616,"22":1617,"ush":1618,"Ġ/>":1619,"On":1620,"oad":1621,"ology":1622,"Ġart":1623,"ience":1624,"uration":1625,"summary":1626,"Ġorder":1627,"(),":1628,"Ġprocess":1629,"bers":1630,"ister":1631,"itial":1632,"].":1633,"rem":1634,"Ġthree":1635,"group":1636,"dition":1637,"void":1638,"Ġfind":1639,"search":1640,"etwork":1641,"path":1642,"ality":1643,"ood":1644,"alth":1645,"This":1646,".,":1647,"opy":1648,"Ġgiven":1649,"Ġfact":1650,"Ġbel":1651,"Ġbecause":1652,"orth":1653,"Ġbo":1654,"ĠRes":1655,"less":1656,"rop":1657,"color":1658,"Ġperform":1659,"ension":1660,"ION":1661,"AC":1662,"33":1663,"Ġfollowing":1664,"RO":1665,"Ġknow":1666,"Time":1667,"Ġpass":1668,"ains":1669,"Refer":1670,"chn":1671,"UL":1672,"user":1673,"Ġatt":1674,"Ġdisc":1675,"mathbf":1676,"Ġsing":1677,"40":1678,"Ġeven":1679,"ogle":1680,"Ġmat":1681,"Ġbl":1682,"ane":1683,"ĠAnd":1684,"Ġdevelop":1685,"uffer":1686,"Ġteam":1687,"ĠCol":1688,"arm":1689,"ilon":1690,"itor":1691,"Ġgu":1692,"md":1693,"aking":1694,"ission":1695,"Ġbuild":1696,"beta":1697,"Ġduring":1698,"':":1699,"Ġmade":1700,"const":1701,"uthor":1702,"lish":1703,"Ġserv":1704,"https":1705,"Ġfam":1706,"Ġterm":1707,"overn":1708,"sigma":1709,"ives":1710,"``":1711,"ĠIs":1712,"Ġsize":1713,"Ġcontin":1714,"ats":1715,"Text":1716,"fin":1717,"ural":1718,"TE":1719,"Int":1720,"ponse":1721,"Ġrele":1722,"Ġway":1723,"Ġmem":1724,"Ġtop":1725,"ĠFr":1726,"Ġdid":1727,"/*":1728,"utton":1729,"Ġ(\\":1730,"Ġ?":1731,"ĠSc":1732,"eters":1733,"ital":1734,"Ġmain":1735,"Ġeffect":1736,"dt":1737,"Ġwrit":1738,"Ġvery":1739,"60":1740,"ball":1741,"ustom":1742,"outh":1743,"Ġ-->":1744,"ived":1745,"Ġaut":1746,"alk":1747,"Event":1748,"Ġlook":1749,"Ġcoun":1750,"ability":1751,"^{-":1752,"LA":1753,"aining":1754,"iev":1755,"ually":1756,"23":1757,"Ġinformation":1758,"ports":1759,"config":1760,"IC":1761,"Ġlead":1762,"\":":1763,"Ġevent":1764,"Request":1765,"Node":1766,"Ġstruct":1767,"ĠĠĊ":1768,"}{\\":1769,"Ġlink":1770,"word":1771,"Ã©":1772,"Ġthrow":1773,"arly":1774,"PE":1775,"Add":1776,"Ġdown":1777,"Ġvari":1778,"Info":1779,"ilde":1780,".\"":1781,"map":1782,"bo":1783,"iness":1784,"197":1785,"Al":1786,"ĠOn":1787,"arge":1788,"uc":1789,"mit":1790,"mp":1791,"ively":1792,"stance":1793,"ope":1794,"ateg":1795,"sy":1796,"ness":1797,"tribute":1798,"Path":1799,"Man":1800,"ape":1801,"Ġcontent":1802,"urs":1803,"fe":1804,"des":1805,"els":1806,"ral":1807,"Item":1808,"Ġerror":1809,"Index":1810,"Ġtem":1811,"TR":1812,"model":1813,"wit":1814,"block":1815,"21":1816,"efore":1817,"Ġincre":1818,"ury":1819,"off":1820,"};":1821,"Ġconsider":1822,"Def":1823,"ĠRe":1824,"Ġhere":1825,"sec":1826,"Ġown":1827,"lobal":1828,"Ġ);":1829,"Ġfin":1830,"vir":1831,"amespace":1832,"Ġrequest":1833,"())":1834,"vious":1835,"Ġvis":1836,"Ġthose":1837,"Ġmark":1838,"Ġallow":1839,"2022":1840,"Ġworld":1841,"length":1842,"####":1843,"next":1844,"unc":1845,"ends":1846,"/**":1847,"ulation":1848,"box":1849,"Ġhelp":1850,"olean":1851,"Ġpar":1852,"With":1853,"plication":1854,"ĠPh":1855,"pert":1856,"Ġmov":1857,"ĠĠĠĠĠĠĠĠĠĠĠĠĠĠĠĠĠĠĠĠĠĠĠĠĠĠĠ":1858,"Ġopen":1859,"idd":1860,"Config":1861,"Field":1862,"Re":1863,"27":1864,"ĠDe":1865,"iter":1866,"Ġmust":1867,"ĠCl":1868,"Ġlocal":1869,"umer":1870,"ĠYou":1871,"Qu":1872,"State":1873,"Ġmet":1874,"Ġprovid":1875,"ina":1876,"icon":1877,"side":1878,"gamma":1879,"aces":1880,"vert":1881,"ride":1882,"Ġsmall":1883,"Ġresults":1884,"PI":1885,"ari":1886,"Ġtarget":1887,"oss":1888,"+\\":1889,"Ġhtt":1890,"akes":1891,"istory":1892,"Ġlevel":1893,"Context":1894,"Map":1895,"Ġanal":1896,"net":1897,"ĠUniversity":1898,"Ġassert":1899,"ior":1900,"rix":1901,"uck":1902,"arrow":1903,"Over":1904,"ering":1905,"Ġchild":1906,"Ġarray":1907,"Ġsince":1908,"Ġleft":1909,"*}":1910,"hip":1911,"Param":1912,"^\\":1913,"pty":1914,"title":1915,"api":1916,"Form":1917,"Ġcar":1918,"';":1919,"Array":1920,"Ġpat":1921,"mathrm":1922,"delta":1923,"utes":1924,"28":1925,"Ġpop":1926,"pm":1927,"ait":1928,"figure":1929,"acter":1930,"Ġcommun":1931,"rho":1932,"ources":1933,"Ġmult":1934,"Ġsl":1935,"ium":1936,"Ġ(!":1937,"mbol":1938,"Ġtext":1939,"cale":1940,"true":1941,"Ġav":1942,"UR":1943,"Ġwant":1944,"Ġnext":1945,"Ġlog":1946,"ification":1947,"\"\"":1948,"Ph":1949,"Ġ});":1950,"itive":1951,"ĠPr":1952,"Equ":1953,"]{":1954,"Ġmuch":1955,"sk":1956,"ĠHow":1957,"Ġposs":1958,"head":1959,"body":1960,"Ġpresent":1961,"usic":1962,"Des":1963,"Ġbeg":1964,"Ġincluding":1965,"met":1966,"enu":1967,"usiness":1968,"Ġprot":1969,"bs":1970,"ene":1971,"Element":1972,"Service":1973,"input":1974,"ination":1975,"igned":1976,"ration":1977,"come":1978,"from":1979,"Or":1980,"Ġrecord":1981,"Ġdefault":1982,"iled":1983,"iginal":1984,"ĠâĢĶ":1985,"ails":1986,"Ġuser":1987,",âĢĿ":1988,"big":1989,"resp":1990,")}":1991,"26":1992,"result":1993,"iving":1994,"ormal":1995,"Ġgame":1996,"////////":1997,"References":1998,"irc":1999,"=\"../../../../":2000,"ponent":2001,"ags":2002,"tract":2003,"leq":2004,"ĠShe":2005,"ailable":2006,"uf":2007,"node":2008,"bl":2009,"ĠLe":2010,"Not":2011,"ĠAd":2012,"Ġbro":2013,"It":2014,"Ġref":2015,"Ġgood":2016,"ĠMar":2017,"ui":2018,"no":2019,"Ġexample":2020,"ograph":2021,"tau":2022,"ĠAmerican":2023,"theta":2024,"omen":2025,"Ġ},":2026,"Ġpath":2027,"Ġpost":2028,"version":2029,"lished":2030,"Ġvalues":2031,"$-":2032,"Ġcheck":2033,"Ġtyp":2034,"comp":2035,"por":2036,"ivity":2037,"Ġrece":2038,"Fr":2039,"Ġreal":2040,"nu":2041,"Ġagainst":2042,"Ġstill":2043,"Ġcle":2044,"space":2045,"****************":2046,"www":2047,"Ġ$(":2048,"He":2049,"error":2050,"perties":2051,"lt":2052,"eturn":2053,"Ġproject":2054,"Ġtake":2055,"gt":2056,"ĠOr":2057,"Ġappe":2058,"aster":2059,"Ġlim":2060,"Result":2061,"ift":2062,"Ġblock":2063,"ret":2064,"ohn":2065,"ety":2066,";&":2067,"apache":2068,"max":2069,"ync":2070,"times":2071,"Ġversion":2072,"Ġdon":2073,"Ġexpl":2074,"ware":2075,"ird":2076,"AD":2077,"29":2078,"Ġlet":2079,"Ġsrc":2080,"Ġident":2081,"Ġaround":2082,"point":2083,"Size":2084,"duct":2085,"Ġ,":2086,"ĠWh":2087,"object":2088,"plate":2089,"Ġele":2090,"evice":2091,"ĠEng":2092,"Ġfour":2093,"valid":2094,"ocus":2095,"Ġrepresent":2096,"Ġview":2097,"default":2098,"uro":2099,"abled":2100,"tab":2101,">&":2102,"ouble":2103,"Ġbreak":2104,"tn":2105,"UT":2106,"Ġpres":2107,"ley":2108,"odes":2109,"='":2110,"create":2111,"Ġprogram":2112,"la":2113,"ober":2114,"position":2115,"Build":2116,"partial":2117,"ship":2118,"ING":2119,"ustr":2120,"Ġcreate":2121,"Ġtry":2122,"sq":2123,"++":2124,"Ġexp":2125,"Ġstand":2126,"FF":2127,"IG":2128,"Message":2129,"LO":2130,"Ġ/*":2131,"Ġposition":2132,"acy":2133,"ĠSystem":2134,"une":2135,"down":2136,"ches":2137,"ploy":2138,"ĠAll":2139,"Ġbest":2140,"Ġdel":2141,"Ġhead":2142,"itt":2143,"Of":2144,"}(\\":2145,"olv":2146,"ED":2147,"Ġbased":2148,"[]":2149,"icy":2150,"2020":2151,"css":2152,"Ġreport":2153,"Ġcr":2154,"ĠAt":2155,"Ġmax":2156,"content":2157,"Ġdi":2158,"state":2159,"2021":2160,"Ġperson":2161,"ai":2162,"Ġrefer":2163,"aut":2164,"All":2165,"Ġstyle":2166,"sw":2167,"ottom":2168,"Ġcondition":2169,"Ġmeas":2170,"iction":2171,"info":2172,"MA":2173,"assert":2174,"Ġjava":2175,"icle":2176,"ival":2177,"sup":2178,"ML":2179,"IS":2180,"oin":2181,"ugg":2182,"Ġlife":2183,"45":2184,"fil":2185,"adi":2186,"ĠTo":2187,"quad":2188,"where":2189,"Ġproble":2190,"tings":2191,"lected":2192,"Ġpower":2193,"Ġdescri":2194,"enn":2195,"Is":2196,"Ġimp":2197,"base":2198,"ĠPl":2199,"Ġcalled":2200,"ĠJan":2201,"reate":2202,"loat":2203,"ĠGr":2204,"Ġcode":2205,"Code":2206,"ux":2207,"earch":2208,"start":2209,"angle":2210,"nection":2211,"Ġmap":2212,"80":2213,"pression":2214,"omega":2215,"my":2216,"ised":2217,"Hand":2218,"bed":2219,"Ġwithout":2220,"ĠBr":2221,"Ġdep":2222,"Ġplace":2223,"urity":2224,"Ġinput":2225,"Ġtri":2226,"Ġet":2227,"ators":2228,"option":2229,"eqref":2230,"inc":2231,"atures":2232,"inition":2233,"ately":2234,"ĠUnited":2235,"rt":2236,"ideo":2237,"ĠMay":2238,"Ġdistrib":2239,"Ġschool":2240,"java":2241,"Val":2242,"Ġwithin":2243,"MP":2244,"CH":2245,"Ġbook":2246,"with":2247,"ony":2248,"Ġ:=":2249,"using":2250,"rec":2251,"Ð°":2252,"ained":2253,"ET":2254,"Ġtechn":2255,"Ġchang":2256,"nder":2257,"Ġaddition":2258,"see":2259,"ling":2260,"lick":2261,"aterial":2262,"ended":2263,"Color":2264,"99":2265,"uage":2266,"ories":2267,"TD":2268,"Ġsom":2269,"}$.":2270,"style":2271,"af":2272,"aving":2273,"ĠâĢĺ":2274,"}$,":2275,"ename":2276,"ances":2277,"2016":2278,"ump":2279,"ways":2280,"Ġthink":2281,"ĠBl":2282,"olution":2283,"Ġobtain":2284,"Ġ===":2285,"energy":2286,"Ġday":2287,"hes":2288,"Ġspace":2289,"Ġbase":2290,"Ġconf":2291,"Ġcour":2292,"Loc":2293,"Ġadv":2294,"Ġweek":2295,"Delta":2296,"66":2297,"web":2298,"Table":2299,"ched":2300,"utions":2301,"lim":2302,"Log":2303,"overnment":2304,"ero":2305,"Ġindex":2306,"fty":2307,"35":2308,"roller":2309,"Ġlarge":2310,"viron":2311,"ored":2312,"ĠGet":2313,"Ġsk":2314,"aff":2315,"AS":2316,"ender":2317,"eqn":2318,"ĠComm":2319,"Ġknown":2320,"ĠSp":2321,"Ġconfig":2322,"Model":2323,"Ġbound":2324,"Ġcontext":2325,"âĢ¦":2326,"ules":2327,"urther":2328,"Ġold":2329,"Ġcap":2330,"tes":2331,"Ġla":2332,"Ġsingle":2333,"Ġbeh":2334,"ording":2335,"ansp":2336,"sim":2337,"Up":2338,"Ġinstance":2339,"ĠMan":2340,"Out":2341,"package":2342,"ĠBut":2343,"android":2344,"infty":2345,"From":2346,"ixed":2347,"User":2348,"Ġke":2349,"tilde":2350,"2018":2351,"2017":2352,"--------------------------------":2353,"Ġsever":2354,"New":2355,"ĉĉĉĉĉĉ":2356,"ĠEn":2357,"plement":2358,"Ġitem":2359,"Ġann":2360,"ternational":2361,"Ġcare":2362,"elect":2363,"ique":2364,"ĠThey":2365,"ĠÐ":2366,"Ġnode":2367,"|\\":2368,"sl":2369,"AB":2370,"iod":2371,"Manager":2372,"respond":2373,"Ġ};":2374,"illion":2375,"Ġcontrol":2376,"Ġdem":2377,"ES":2378,"=\"../":2379,"Ġorgan":2380,"01":2381,"refer":2382,"Ġsource":2383,"elete":2384,"cit":2385,"context":2386,"Ġ__":2387,"Ġaddress":2388,"Comm":2389,"ocial":2390,"mat":2391,"Ġocc":2392,"oper":2393,"Ġiss":2394,"Ġseries":2395,"Ġaccess":2396,"And":2397,"Ġseason":2398,"ĠCan":2399,"2019":2400,"tainer":2401,"light":2402,"Ġchange":2403,"ken":2404,"Ġmass":2405,"cast":2406,"Ġinitial":2407,"ths":2408,"Ġfamily":2409,"ĠCar":2410,"ĠCent":2411,"Ġcolor":2412,"ready":2413,"Ser":2414,"Ġcomput":2415,"2015":2416,"Ġanother":2417,"define":2418,"Pl":2419,";</":2420,"ĠUS":2421,"Ġcell":2422,"Ġsuccess":2423,"check":2424,"rel":2425,"Ġinteg":2426,"Ġenc":2427,"doc":2428,"DO":2429,"stru":2430,"imate":2431,"UN":2432,"\\,":2433,"prov":2434,"Ġlater":2435,"Ġlaw":2436,"Ġopt":2437,"Trans":2438,"namespace":2439,"Ġoptions":2440,"Ġavailable":2441,"Ġrespect":2442,"âĢĶ":2443,"include":2444,"ison":2445,"ands":2446,"<!--":2447,"ĠTe":2448,"Inter":2449,"Ġinvest":2450,"=\"#":2451,"count":2452,"uary":2453,"aper":2454,"ĠĠĠĠĠĠĠĠĠĠĠĠ":2455,"Ġtot":2456,"ords":2457,"ourn":2458,"ithub":2459,"ught":2460,"ENT":2461,"55":2462,")</":2463,"\".":2464,"If":2465,"Ġhome":2466,"Ġservice":2467,"Ġrequire":2468,"Ġtable":2469,"rist":2470,"false":2471,"ven":2472,"ĠĠĠĠĠĠĠĠĠĠ":2473,"xi":2474,"Ġsum":2475,"arning":2476,"ĠIm":2477,"prot":2478,"ysis":2479,"Ġbackground":2480,"Ġandroid":2481,"aint":2482,"OT":2483,"Ġdepend":2484,"Rec":2485,"onse":2486,"Ġproduct":2487,"US":2488,"urch":2489,"Ad":2490,"Ġsay":2491,"ĠJohn":2492,"event":2493,"google":2494,"================":2495,"$$":2496,"Ġnetwork":2497,"argin":2498,"Property":2499,"ULL":2500,"Ġfull":2501,"print":2502,"ajor":2503,"Ġobserv":2504,"Ġinterest":2505,"imal":2506,"ĠBe":2507,"Ġresponse":2508,"34":2509,"Group":2510,"uture":2511,"ram":2512,"uments":2513,"Ġaction":2514,"ounty":2515,"Dis":2516,"gress":2517,"db":2518,"method":2519,"ume":2520,"CE":2521,"ilar":2522,"pen":2523,"tra":2524,"Pr":2525,"lose":2526,"Ġmag":2527,"amed":2528,"hold":2529,"IL":2530,"uman":2531,"Ġdue":2532,"atter":2533,"uk":2534,"Ġfilm":2535,"Ð¾":2536,"Ġenergy":2537,"Ġinclude":2538,"core":2539,"ides":2540,"orem":2541,"lex":2542,"github":2543,"Ġelement":2544,"90":2545,"lin":2546,"Ġspe":2547,"2014":2548,"ĠWorld":2549,"stand":2550,"Ġabove":2551,"Ġexist":2552,"Ġgeneral":2553,"wards":2554,"nect":2555,"Ġstudy":2556,"Reg":2557,"Ġpo":2558,"rodu":2559,"Âł":2560,"Ġelect":2561,"Ġfoot":2562,"Ġplayers":2563,"37":2564,"Ġnear":2565,"ection":2566,"ĠCO":2567,"DI":2568,"Ġleg":2569,"ĠNov":2570,"irt":2571,"TH":2572,"Ġrange":2573,"build":2574,"Ġstd":2575,"Ġalong":2576,"static":2577,"Ġbusiness":2578,"Ġassoci":2579,"Ġbas":2580,"vironment":2581,"uly":2582,"arr":2583,"eff":2584,"ured":2585,"ither":2586,"ung":2587,"Ġstat":2588,"ĠCo":2589,"Ġlinks":2590,"oud":2591,"ĠNational":2592,"](":2593,"Ġproperty":2594,">(":2595,"Ġwidth":2596,"Arg":2597,"ĠMed":2598,"Client":2599,"NA":2600,"Ġcharacter":2601,"Ġfew":2602,"aim":2603,"ifier":2604,"cdot":2605,"Ġeng":2606,"Ġbool":2607,"ĠPol":2608,"Ġturn":2609,"IP":2610,"ĠGu":2611,"anel":2612,"current":2613,"semb":2614,"ending":2615,"cer":2616,"39":2617,"Ġshort":2618,"annel":2619,"Ġ()":2620,"ards":2621,"Override":2622,"de":2623,"Ġprevious":2624,"Ġdocument":2625,"imum":2626,"Ġca":2627,"Ġuntil":2628,"Ġoriginal":2629,"ĠNo":2630,"Ġwin":2631,"External":2632,"bit":2633,"ertain":2634,"finished":2635,"ped":2636,"Ġborder":2637,"posed":2638,"Ġbu":2639,"agement":2640,"image":2641,"ĠSet":2642,"Ġnil":2643,"null":2644,"Ġgrow":2645,"Ġmessage":2646,"ibr":2647,"}[":2648,"ĠStates":2649,"ĠBy":2650,"dom":2651,"mail":2652,"ebug":2653,"capt":2654,"Response":2655,"Ðµ":2656,"ilt":2657,"Read":2658,"2013":2659,"Mod":2660,"Call":2661,"Ġes":2662,"Ġmatch":2663,"reen":2664,"ĠĠĠĠĠĠĠĠĠĠĠĠĠĠĠĠĠĠĠĠĠĠĠĠĠĠĠĠĠĠĠ":2665,"Ġdat":2666,"ynam":2667,"System":2668,"Bar":2669,"andom":2670,"36":2671,"ĠList":2672,"center":2673,"Ġret":2674,"Builder":2675,"Count":2676,"31":2677,"Ġcompany":2678,"Ġpub":2679,"Ġredu":2680,"Ġaff":2681,"rict":2682,"Ġarea":2683,"Ġimage":2684,"icial":2685,"oken":2686,"Method":2687,"Ġdesign":2688,"raphics":2689,"button":2690,"ention":2691,"call":2692,"Query":2693,"oice":2694,"icro":2695,"illi":2696,"Ġsit":2697,"Ġpot":2698,"ĠCal":2699,"ibility":2700,"Ġsm":2701,"Ġfree":2702,"48":2703,"bum":2704,"non":2705,"Ġdom":2706,"ĠHowever":2707,"jav":2708,"Ġsuper":2709,"Ġtotal":2710,"Ġlow":2711,"dl":2712,"75":2713,"dir":2714,"eqnarray":2715,"actory":2716,"Ġassum":2717,"Ġ($":2718,"now":2719,"Date":2720,"Ġparent":2721,"ĠReg":2722,"ĠMin":2723,"Ġseveral":2724,"Ġfa":2725,"ĠYork":2726,"ica":2727,"Ġmusic":2728,"iple":2729,"place":2730,"ague":2731,"lib":2732,"unfinished":2733,"Ġcur":2734,"psi":2735,"''":2736,"query":2737,"Ġtoo":2738,"cm":2739,"ks":2740,"Ġparticular":2741,"ĠJanuary":2742,"pecial":2743,")$.":2744,"ĠDr":2745,"Sub":2746,"}}\\":2747,"ĠAss":2748,"Ġpossible":2749,"init":2750,"Ġdefined":2751,"38":2752,"Ġresearch":2753,"Ġimportant":2754,"Ġcompon":2755,"ĠOct":2756,"Ġmean":2757,"creen":2758,"cor":2759,"])":2760,"Ġclos":2761,"height":2762,"196":2763,"Ġvol":2764,"ĠWest":2765,"ĠGe":2766,"inary":2767,"Stream":2768,"Ġalready":2769,"Ġhealth":2770,"Ġside":2771,"Image":2772,"Om":2773,"ĠThere":2774,"Ġdeterm":2775,"ĠSchool":2776,"ONT":2777,"Ġhold":2778,"ensure":2779,"run":2780,"2012":2781,"epsilon":2782,"Ġregion":2783,"php":2784,"ĠFig":2785,"ought":2786,"Ġprom":2787,"ients":2788,"opt":2789,"ittle":2790,"undle":2791,"oto":2792,"alf":2793,"Input":2794,"ians":2795,"lem":2796,"ĠState":2797,"au":2798,"Ġpage":2799,"gor":2800,"Ġpoints":2801,"Ġlarg":2802,"do":2803,"ĠSo":2804,"Ġcorrespond":2805,"args":2806,"uted":2807,"Ġpolit":2808,"ours":2809,"atform":2810,"Ġlang":2811,"iment":2812,"05":2813,"Ġless":2814,"ged":2815,"options":2816,"Ġlight":2817,"Ġput":2818,"Ġhapp":2819,"Ġsat":2820,"mber":2821,"ij":2822,"ĠčĊ":2823,"ney":2824,"}_{\\":2825,"2011":2826,"ĉĊ":2827,"Ġcount":2828,"aged":2829,"struction":2830,"Ġgoing":2831,"ĠAug":2832,"ued":2833,"ĠĠĠĠĠĠĠĠĠĠĠĠĠĠĠĠĠ":2834,"cul":2835,"No":2836,"stit":2837,"Ġ<<":2838,"Util":2839,"ĠPar":2840,"Fl":2841,"Gener":2842,"clus":2843,"caption":2844,"yles":2845,"Ġquest":2846,"Ġgreat":2847,"Pos":2848,"Ġcrit":2849,"Ġrest":2850,"raft":2851,"ables":2852,"hand":2853,"Ġoutput":2854,"omet":2855,"ales":2856,"ĠAb":2857,"ising":2858,"Ġestab":2859,"){":2860,"^*":2861,"Cl":2862,"Ġtimes":2863,"44":2864,"Ġfore":2865,"hether":2866,"btn":2867,"book":2868,"ĠAp":2869,"ĠSup":2870,"End":2871,"adding":2872,"sqrt":2873,"istic":2874,"request":2875,"igation":2876,"Be":2877,"ĠSer":2878,"idual":2879,"client":2880,"Resource":2881,"Ġrole":2882,"active":2883,"Ġexpected":2884,"ones":2885,"AP":2886,"conom":2887,"chema":2888,"Ġbetter":2889,"ably":2890,"2010":2891,"aced":2892,"func":2893,"page":2894,"Omega":2895,"header":2896,"rior":2897,"ament":2898,"df":2899,"Ġide":2900,"Ġexec":2901,"Ġvalid":2902,"aps":2903,"Ġrequired":2904,"Ed":2905,"Nav":2906,"urope":2907,"Ġcomb":2908,"oman":2909,"pose":2910,"witch":2911,"Ð¸":2912,"Ġprof":2913,"Ġins":2914,"ĠCounty":2915,"App":2916,"NS":2917,"imation":2918,"ĠSouth":2919,"Ġprob":2920,"Ġalways":2921,"à¤":2922,"ategory":2923,"ependent":2924,"Ġstrong":2925,"Wh":2926,"server":2927,"Ġeas":2928,"gorith":2929,"Ġlength":2930,"ayout":2931,"Instance":2932,"Ġsimilar":2933,"Ġproblem":2934,"((":2935,"ze":2936,"ustral":2937,"Status":2938,"Ġmembers":2939,"rect":2940,"ude":2941,"thing":2942,"Block":2943,"Ġaccount":2944,"ĠSec":2945,"Ġbig":2946,"Ġmight":2947,"psilon":2948,"tx":2949,"ls":2950,"ptember":2951,"Ġ\"\"\"":2952,"Ġrecent":2953,"xy":2954,"Ġ${\\":2955,"Ġcustom":2956,"ges":2957,"EL":2958,"OS":2959,"Ġearly":2960,"uster":2961,"ĠApr":2962,"orage":2963,"ĠMarch":2964,"70":2965,"uation":2966,"Ġdiscuss":2967,"ĠRep":2968,"Ġmodels":2969,"amework":2970,"Ġdiv":2971,"Par":2972,"Ġden":2973,"ĠĠĠĠĠĠĠĠĊ":2974,"ĠWith":2975,"195":2976,"({":2977,"dat":2978,"bold":2979,"Ġmajor":2980,"Ġport":2981,"Ap":2982,"navbar":2983,"wid":2984,"vers":2985,"Ġ->":2986,"Ġsection":2987,"cho":2988,"Ġpay":2989,"alt":2990,"used":2991,"Ġreally":2992,",\"":2993,"ĠAdd":2994,"Ġâ":2995,"ĠCity":2996,"Ġgovernment":2997,"[\"":2998,"imension":2999,"Gamma":3000,"ĠWar":3001,"cy":3002,"Ġsong":3003,"dec":3004,"Ġsignific":3005,"symbol":3006,"mark":3007,"ops":3008,"has":3009,"Ġperiod":3010,"Sc":3011,"chi":3012,"ĠCont":3013,"ada":3014,"Ġprovide":3015,"erman":3016,"Ġleast":3017,"Component":3018,"Ġsays":3019,"0000":3020,"Ġnum":3021,"Ġcover":3022,"Str":3023,"ocol":3024,"Ġnever":3025,"Ġdeath":3026,"Off":3027,"ĠĠĠĠĠĠĠĠĠĠĠĠĊ":3028,"ights":3029,"oke":3030,"era":3031,"sequ":3032,"Fil":3033,"thers":3034,"dict":3035,"cember":3036,"Ġhttp":3037,"icense":3038,"ves":3039,"Ġchildren":3040,"imary":3041,"Ġspecial":3042,"ike":3043,"Ġsy":3044,"Ġauthor":3045,"EE":3046,"ĠBo":3047,"cell":3048,"Ġboolean":3049,"nown":3050,"foot":3051,"target":3052,"YPE":3053,")$,":3054,"Ġwomen":3055,"append":3056,"Ġtrack":3057,"ĠPart":3058,"Ġpotential":3059,"Action":3060,"Ġshows":3061,"Ġsample":3062,"parent":3063,"Source":3064,"abase":3065,"OP":3066,"ĠQu":3067,"lied":3068,"ae":3069,"^{(":3070,"Line":3071,"Ġlate":3072,"Act":3073,"REF":3074,"subsection":3075,"iff":3076,"ĠRec":3077,"FA":3078,"ensity":3079,"Ġcost":3080,"ĠNULL":3081,"SP":3082,"ething":3083,"Ġhard":3084,"AG":3085,"Ġshown":3086,"Base":3087,"Ġterms":3088,"ino":3089,"Ġparameters":3090,"Ġhost":3091,"ĠFl":3092,"ached":3093,"Ġlabel":3094,"bottom":3095,"vare":3096,"CC":3097,"umb":3098,"lege":3099,"aring":3100,"Ġdisplay":3101,"ÑĤ":3102,"eed":3103,"ster":3104,"Ġindic":3105,"ĠInt":3106,"Ġgl":3107,"Head":3108,"EX":3109,"rew":3110,"xml":3111,"lies":3112,"Ġacross":3113,"ĠĠĠĠĠĠĠĠĠĠĠĠĠĠ":3114,"Ġwon":3115,"ĠMe":3116,"Ġant":3117,"epar":3118,"ply":3119,"Ġcity":3120,"urg":3121,"Ġindu":3122,"ilit":3123,"Ġbody":3124,"ialog":3125,"2023":3126,"MS":3127,"dr":3128,"rowser":3129,"Ġra":3130,"ns":3131,"ĠGo":3132,"Token":3133,")(":3134,"ĠEurope":3135,"acing":3136,"ugin":3137,"ĠJune":3138,"ana":3139,"erefore":3140,"Ġwater":3141,"Ġmom":3142,"}=":3143,"Ġalbum":3144,"anch":3145,"}^{\\":3146,"ĠBrit":3147,"Ġevents":3148,"Ġder":3149,"ĠWhen":3150,"Ġmar":3151,"Ġland":3152,"Ġabs":3153,"ĠEd":3154,"ĠDis":3155,"ĠOctober":3156,"Comp":3157,"Ġred":3158,"varepsilon":3159,"Ġhistory":3160,"49":3161,"Buffer":3162,"Us":3163,"na":3164,"Ġ+=":3165,"abor":3166,"ĠSeptember":3167,"rows":3168,"Ġfocus":3169,"Ġeither":3170,"ĠAugust":3171,"Ġq":3172,"aken":3173,"Ġfurther":3174,"property":3175,"istor":3176,"Select":3177,"ĠCor":3178,"Dec":3179,"ĠTest":3180,"ille":3181,"Link":3182,"idence":3183,"Ġcoll":3184,"Ġquant":3185,"Ġspect":3186,"ĠChrist":3187,"small":3188,"Ġfund":3189,"gen":3190,"Ġparameter":3191,"select":3192,"Point":3193,"ĠMc":3194,"Options":3195,"izer":3196,"Ġlimit":3197,"ĠJuly":3198,"artment":3199,"Ġtask":3200,"47":3201,"ĠDes":3202,"ĠGener":3203,"ĠApril":3204,"ATE":3205,"eting":3206,"ids":3207,"uggest":3208,"aves":3209,"ĠNot":3210,"si":3211,"meta":3212,"mult":3213,"src":3214,"Handler":3215,"Default":3216,"ĠFeb":3217,"Ġglobal":3218,"post":3219,"Ġ\\,":3220,"Ġseem":3221,"png":3222,"08":3223,"display":3224,"Ġdest":3225,"~~":3226,"adata":3227,"ĠNorth":3228,"ĠÂ":3229,"tributes":3230,"ĠThese":3231,"rangle":3232,"Ġfri":3233,"Content":3234,"Ġep":3235,"ogn":3236,"02":3237,"Ġclose":3238,"Ġmeans":3239,"child":3240,"json":3241,"flow":3242,"Ġperformance":3243,"Start":3244,"gener":3245,"II":3246,"module":3247,")=":3248,"Ġintrodu":3249,"Ġfeature":3250,"ered":3251,"Ġstory":3252,"Ġfar":3253,"Big":3254,"Sp":3255,"first":3256,"Ġcome":3257,"Ġbecame":3258,"ham":3259,"ĠNovember":3260,"Ð½":3261,"Ġsignificant":3262,"Ġpract":3263,"ĠDecember":3264,"Ġfootball":3265,"2009":3266,"Ġsite":3267,"ging":3268,"yl":3269,"Null":3270,"ascript":3271,"Ġdays":3272,"eger":3273,"Ġsequ":3274,"Ġcommunity":3275,"inst":3276,"ĠAct":3277,"eline":3278,"oop":3279,"irm":3280,"Ġphys":3281,"HT":3282,"ĠAustral":3283,"Ġindiv":3284,"case":3285,"04":3286,"textbf":3287,"Ġkeep":3288,"img":3289,"adio":3290,"Sec":3291,"open":3292,"2008":3293,"Ġamong":3294,"find":3295,"rightarrow":3296,"Ġcommon":3297,"ological":3298,"Ġsocial":3299,"ĠIN":3300,"ently":3301,"LASS":3302,"*/":3303,"Ã¡":3304,"orph":3305,"ring":3306,"rid":3307,"otion":3308,"Ġcountry":3309,"element":3310,"last":3311,"lease":3312,"cap":3313,"strong":3314,"Ġoffer":3315,"Ġdeg":3316,"aging":3317,"Ġaver":3318,"udio":3319,"Attribute":3320,"ĠObject":3321,"ii":3322,"Ġstructure":3323,"Ġload":3324,"asing":3325,"Task":3326,"CK":3327,"icient":3328,"unk":3329,"Ġmedia":3330,"Ġfuture":3331,"ansport":3332,"07":3333,"ners":3334,"gle":3335,"Ġbir":3336,"Oper":3337,"HE":3338,"VER":3339,"emph":3340,"irtual":3341,"ĠClass":3342,"Ġformer":3343,"bm":3344,"Ġdone":3345,"Ġtoget":3346,"private":3347,"Ġche":3348,"Ġlik":3349,"frak":3350,"Ġtogether":3351,"Ġimplement":3352,"rl":3353,"Ġable":3354,"Ġoften":3355,"ried":3356,"Ġwhether":3357,"ama":3358,"isf":3359,"Ġheight":3360,"Command":3361,"pack":3362,"Sup":3363,"host":3364,"layout":3365,"char":3366,"${":3367,"status":3368,"Part":3369,"rest":3370,"Ġbecome":3371,"yd":3372,"Ġcolumn":3373,"Ġsearch":3374,"Ġresource":3375,"Ġvia":3376,"Ġprint":3377,"avel":3378,"FI":3379,"Version":3380,"though":3381,"ĠRev":3382,"Ġfeatures":3383,"mm":3384,"06":3385,"most":3386,"Factory":3387,"Ġcreated":3388,"otype":3389,"close":3390,"UE":3391,"oph":3392,"det":3393,"How":3394,"Equal":3395,"vec":3396,"Ġdevelopment":3397,"sg":3398,"vis":3399,"ĠNone":3400,"Ġplan":3401,"ftware":3402,"Ġdev":3403,"ĠOff":3404,"Ġjob":3405,"Ġanalysis":3406,"OL":3407,"Ġgive":3408,"Ġtre":3409,"ries":3410,"Ġrate":3411,"ruary":3412,"46":3413,"Ġreview":3414,"write":3415,"OD":3416,"iddle":3417,"ournal":3418,"entry":3419,"Ġbelow":3420,"Ġcou":3421,"ĠDef":3422,"ĠOne":3423,"Ġhttps":3424,"reed":3425,"Hel":3426,"irection":3427,"///":3428,"ided":3429,"vari":3430,"ptr":3431,"Run":3432,"Ġmillion":3433,"oney":3434,"FONT":3435,"Ġmargin":3436,"ĠDo":3437,"Ġsomething":3438,"09":3439,"\"]":3440,"});":3441,"Ġthird":3442,"Ġgames":3443,"Ġindividual":3444,"Ġwindow":3445,"ieve":3446,"Ġfollows":3447,"Ġstates":3448,"wise":3449,"True":3450,"iol":3451,"Ġmeasure":3452,"Let":3453,"Ġmaking":3454,"egraphics":3455,"Ġcommand":3456,"includegraphics":3457,"Ġ``":3458,"aly":3459,"Ġfive":3460,"ĠComp":3461,"Ġprovided":3462,"Pre":3463,"ĠThat":3464,"Ġclient":3465,"Check":3466,"Ġair":3467,"Ġhuman":3468,"Ġdeb":3469,"Ġmove":3470,"Ġmethods":3471,"sm":3472,"acc":3473,"Number":3474,"Ġcomplex":3475,"heet":3476,"ĉĉĉĉĉĉĉĉ":3477,"ulture":3478,"ams":3479,"description":3480,"based":3481,"Ġrelations":3482,"Prov":3483,"ifact":3484,"Ġprotected":3485,"main":3486,"riter":3487,"std":3488,"Ġvert":3489,"Ġworking":3490,"cod":3491,"Function":3492,"adem":3493,"ĠReturn":3494,"TO":3495,"isk":3496,"ĠPer":3497,"ÑĢ":3498,"Ġlittle":3499,"iven":3500,"Ġmember":3501,"olved":3502,"varphi":3503,"Ġdiff":3504,"mar":3505,"RA":3506,"stream":3507,"ements":3508,"Ġhaving":3509,"Ġseen":3510,"Ġcases":3511,"ayer":3512,"ĠAfter":3513,"Ġtook":3514,"pc":3515,"Ġassociated":3516,"change":3517,"Ġreleased":3518,"allet":3519,"push":3520,"First":3521,"draw":3522,"SC":3523,"medi":3524,"Ġgot":3525,"level":3526,"sole":3527,"lip":3528,"Ġcompet":3529,"Ġben":3530,"ires":3531,"apping":3532,"Ġoption":3533,"Return":3534,"javascript":3535,"Ġthings":3536,"Window":3537,"Ġpast":3538,"Ġcamp":3539,"ills":3540,"Ġnec":3541,"rypt":3542,"ilities":3543,"reet":3544,"font":3545,"Page":3546,"Ġcontain":3547,"project":3548,"Ġemploy":3549,"SON":3550,"exp":3551,"}).":3552,"Ġarr":3553,"Ab":3554,"eral":3555,"Label":3556,"Ġ<!--":3557,"Ġdate":3558,"Ġvideo":3559,"ication":3560,"idden":3561,"ampion":3562,"[\\":3563,"Ġlower":3564,"geq":3565,"py":3566,"istry":3567,"Ġdistribution":3568,"2007":3569,"proof":3570,"Ġclear":3571,"overline":3572,"03":3573,"Ġcontrib":3574,"Last":3575,"Ġelements":3576,"mathfrak":3577,"Ġask":3578,"Ġnormal":3579,"gorithm":3580,"apter":3581,"42":3582,"Create":3583,"format":3584,"Ġclaim":3585,"Ġfunctions":3586,"Ġsche":3587,"Ġannoun":3588,"Ġstatus":3589,"pected":3590,".~\\":3591,"Ġupdate":3592,"Ġdouble":3593,"Ġaway":3594,"itory":3595,"su":3596,"Ġthrows":3597,"Ġhigher":3598,"Ġstudents":3599,"Ġbegin":3600,"Ġfac":3601,"urb":3602,"Ġeduc":3603,"Ġsystems":3604,"Ġservices":3605,"styles":3606,"osp":3607,"vision":3608,"Ġver":3609,"aul":3610,"ites":3611,"uid":3612,"Ġonce":3613,"thern":3614,"ades":3615,"ography":3616,"plit":3617,"Ġproperties":3618,"Ġspecific":3619,"You":3620,"wide":3621,"Ġcross":3622,"Ġconc":3623,"rs":3624,"ĠUp":3625,"ibrary":3626,".}":3627,"mon":3628,"ensor":3629,"local":3630,"ĠThen":3631,"ĠBar":3632,"sembly":3633,"menu":3634,"ouch":3635,"95":3636,"Button":3637,"long":3638,"Ġreceived":3639,"unch":3640,"ĠAg":3641,"Ġwrite":3642,"hel":3643,"actions":3644,"ĠPres":3645,"Ġsepar":3646,"atal":3647,"Ġyoung":3648,"obj":3649,"Ġsuggest":3650,"65":3651,"ference":3652,"Ġ{@":3653,"ĠRuss":3654,"Ġsix":3655,"pol":3656,"ĠMon":3657,"Ġphot":3658,"ymmet":3659,"mem":3660,"Ġcatch":3661,"2006":3662,"Box":3663,"Ġsent":3664,"sf":3665,"ief":3666,"clear":3667,"2000":3668,"ĠSch":3669,"Ġage":3670,"izing":3671,"PRO":3672,"lying":3673,"Pol":3674,"year":3675,"Ġplayed":3676,"Ġstep":3677,"Ġ]":3678,":</":3679,"container":3680,"ĠAfr":3681,"ĠArt":3682,"Controller":3683,"What":3684,"member":3685,"Ġfeel":3686,"Ġextends":3687,"chan":3688,"88":3689,"ises":3690,"Ġhouse":3691,"Ġgraph":3692,"Ġneg":3693,"oo":3694,"Ġbit":3695,"UI":3696,"agn":3697,"Det":3698,"ĠFebruary":3699,"Ass":3700,"Ġapproach":3701,"Row":3702,"Ġpress":3703,"ĠHigh":3704,"Ġcy":3705,"ĠVal":3706,"GL":3707,"Ġmer":3708,"eh":3709,"Ġsuff":3710,"ĠMark":3711,"Bundle":3712,"Ġbi":3713,"Ġdescribed":3714,"Ġadded":3715,"&\\":3716,"Ġgen":3717,"atural":3718,"////////////////":3719,"ordin":3720,"Lambda":3721,"stract":3722,"ypes":3723,"Ġchanges":3724,"Ġurl":3725,"Ġexperience":3726,"Ġconditions":3727,"Ġlot":3728,"signed":3729,"See":3730,"Ġpaper":3731,"Ġvarious":3732,"ĠStr":3733,"Ġauto":3734,"Web":3735,"Ġmiss":3736,"ĠCoun":3737,"instance":3738,"Ġincluded":3739,"ha":3740,"Ġenough":3741,"unity":3742,"board":3743,"},\\":3744,"boldsymbol":3745,"len":3746,"ceed":3747,"Ġattack":3748,"Ġkind":3749,"apan":3750,"ocket":3751,"Acc":3752,"Ġcopy":3753,"acity":3754,"igger":3755,"Ġenvironment":3756,"elling":3757,"Listener":3758,"mt":3759,"DB":3760,"itional":3761,")^":3762,"Ġconstruct":3763,"Ġmaterial":3764,"cond":3765,"oon":3766,"Rep":3767,"ĠMy":3768,"Ġstandard":3769,"ĠĠĠĠĠĠĠĠĠĠĠĠĠĠĠĠĠĠĠĠĠĠĠĠĠĠĠĠĠĠĠĠĠĠĠ":3770,"Ġarch":3771,"ĠDep":3772,"number":3773,"service":3774,"ĠNews":3775,"Ġstop":3776,"cil":3777,"ĠChar":3778,"filter":3779,"ttp":3780,"hib":3781,"Ġactiv":3782,"Equals":3783,"ĠPark":3784,"attr":3785,"Ġsimple":3786,"Ġtreat":3787,"NO":3788,"Ġcertain":3789,"Ġlove":3790,"67":3791,"Ġband":3792,"Ġsolution":3793,"params":3794,"update":3795,"ĠKing":3796,"Ġperm":3797,"Ġbuilding":3798,"ĠDav":3799,"Ġtrad":3800,"TER":3801,"uge":3802,"Ġthough":3803,"TS":3804,"Ġnav":3805,"oriz":3806,"Ext":3807,"Ġpair":3808,"Ġinternal":3809,"Ġsatisf":3810,"ĠLet":3811,"ĠMore":3812,"Ġmen":3813,"Ġofficial":3814,"```":3815,"endif":3816,"itions":3817,"\").":3818,".\\":3819,"ĠLa":3820,"Ġreason":3821,"Met":3822,"}),":3823,"obile":3824,"can":3825,"Format":3826,"Ġformat":3827,"<?":3828,"Back":3829,"Ġsw":3830,"MM":3831,"ĠHis":3832,"Ġstream":3833,"iet":3834,"Ġstarted":3835,"typ":3836,"(&":3837,"Ġear":3838,"Ġeconom":3839,"adius":3840,"pass":3841,"PC":3842,"tool":3843,"buf":3844,"Ġnone":3845,"Ġtool":3846,"ABLE":3847,"ĠHREF":3848,"Ġcame":3849,"show":3850,"ĠAm":3851,"Ġconstant":3852,"Ġsure":3853,"Ġge":3854,"ĠCLASS":3855,"Ġgroups":3856,"gl":3857,"Ġwebs":3858,"Ġunderstand":3859,"encies":3860,"Ġapplication":3861,"Ġ...":3862,"roy":3863,"ĠDist":3864,"Ġworks":3865,"Ġhalf":3866,"Ġfont":3867,"Ġtraining":3868,"Ġtw":3869,"igin":3870,"Child":3871,"Ġblack":3872,"Ġalign":3873,"abs":3874,"Ġmakes":3875,"Em":3876,"Ñģ":3877,"ocr":3878,"reference":3879,"dev":3880,"Ġcontinue":3881,"ntity":3882,"wrap":3883,"response":3884,"Ġmatrix":3885,"Ġaverage":3886,"LI":3887,"Ġwritten":3888,"Ġfields":3889,"ĠHouse":3890,"known":3891,"Ġothers":3892,"po":3893,"Ġhowever":3894,"Ġamount":3895,"refix":3896,"annot":3897,"Ġinstead":3898,"even":3899,"Cell":3900,"prop":3901,"column":3902,"Ġheld":3903,"lit":3904,"bor":3905,"Ġnational":3906,"Ġapprox":3907,"process":3908,"Ob":3909,"oved":3910,"skip":3911,"Ġinit":3912,"Ġ((":3913,"Ġmultiple":3914,"ND":3915,"Valid":3916,"Layout":3917,"Ġlanguage":3918,"unit":3919,"BU":3920,"num":3921,"verse":3922,"Ġconsidered":3923,"aries":3924,"One":3925,"ondon":3926,"Ġyet":3927,"Ġeval":3928,"AM":3929,"There":3930,"Ġmarket":3931,"aker":3932,"Ġaccording":3933,"ington":3934,"Ġappear":3935,"ensions":3936,"Ġcalcul":3937,"Ġproduction":3938,"=\"../../../../../":3939,"Ġbehav":3940,"Ġrandom":3941,"ĠOF":3942,"Ġscale":3943,"Char":3944,"Style":3945,"Ġconsist":3946,"Ġloss":3947,"ĠInter":3948,"efined":3949,"ĠBro":3950,"Per":3951,"remove":3952,"Ġdoesn":3953,"Ġbuilt":3954,"ping":3955,"Ġcho":3956,"ĠSim":3957,"Ġcannot":3958,"Ġplayer":3959,"Column":3960,"Ġmoment":3961,"Ġcourse":3962,"Ġtypes":3963,"}}$":3964,"Ġwhy":3965,"Ġrelease":3966,"URL":3967,"Ð¾Ð":3968,"Ġlive":3969,"onal":3970,"Ġscal":3971,"ĠTrans":3972,"icles":3973,"Ġlines":3974,"plicit":3975,"aven":3976,"lier":3977,"ounds":3978,"Ġfail":3979,"Mode":3980,"Tem":3981,"][":3982,"Ġvisit":3983,"ql":3984,"2005":3985,"anged":3986,"Ġpur":3987,"kit":3988,"Ġtemper":3989,"hline":3990,"langle":3991,"Ġnamed":3992,"Next":3993,"Ġcareer":3994,"ldots":3995,"Ġemb":3996,"Ġselect":3997,"Ġaccept":3998,"Ġserver":3999,"Address":4000,"Ġinstall":4001,"AA":4002,"ĉĠĠĠ":4003,"RI":4004,"tag":4005,"nab":4006,"ootstr":4007,"Ġinfl":4008,"example":4009,"alle":4010,"Output":4011,"Aut":4012,"Ġmodule":4013,"Ġtaken":4014,"Ġexpress":4015,"ĠAcc":4016,"Ġpopulation":4017,"COL":4018,"ĠRed":4019,"Ġspecified":4020,"ĠID":4021,"Ġpublished":4022,"istics":4023,"ba":4024,"ãģ":4025,"Ġadditional":4026,"ĠEnglish":4027,"Ġinterface":4028,"otimes":4029,"rench":4030,"ĠAir":4031,"ĠHar":4032,"ĠPe":4033,"ĠAPI":4034,"rown":4035,"Ġtalk":4036,"########":4037,"Ġcontains":4038,"77":4039,"Ġsubject":4040,"ese":4041,"utils":4042,"Phi":4043,"iler":4044,"aml":4045,"Ġgrad":4046,"Ġrelated":4047,"amily":4048,"Ã³":4049,"CON":4050,"Ġobtained":4051,"43":4052,"ĠBritish":4053,"atory":4054,"Ġunit":4055,"minist":4056,"Ġwar":4057,"sd":4058,"Ġach":4059,"}/":4060,")]":4061,"anies":4062,"Ġmode":4063,"Ġtheory":4064,"ula":4065,"').":4066,"Ġsem":4067,">>":4068,"CODE":4069,"TP":4070,"Ġcenter":4071,"Length":4072,"appa":4073,"Ġnecess":4074,"ĠData":4075,"Ġfrequ":4076,"ĠWhat":4077,"offset":4078,"Ġtown":4079,"like":4080,"ootstrap":4081,"Ġthought":4082,"final":4083,"fa":4084,"mbox":4085,"Ġpositive":4086,"ĠEast":4087,"spec":4088,"resh":4089,"Ġtoday":4090,"Ġhom":4091,"anced":4092,"Ġchall":4093,"\"),":4094,"Ġreported":4095,"SI":4096,"attle":4097,"ĠHT":4098,"depend":4099,"Ġlearn":4100,"dot":4101,"VID":4102,"_.":4103,"proto":4104,"41":4105,"Ġflow":4106,"Ġrespons":4107,"scale":4108,"ĠAc":4109,"Ġfiles":4110,"duc":4111,"Ġcommit":4112,"olve":4113,"izes":4114,"Ġfall":4115,"else":4116,"Ġnews":4117,"support":4118,"ĠSw":4119,"cel":4120,"ford":4121,"Ġapplic":4122,"Filter":4123,"Ġengine":4124,"Ġbar":4125,"only":4126,"iber":4127,"Rem":4128,"Ġwords":4129,"BC":4130,"andid":4131,"85":4132,"Ġdig":4133,"Ġcomponent":4134,"ci":4135,"oz":4136,"Ġground":4137,"bin":4138,"'re":4139,"grad":4140,"When":4141,"Ġparticip":4142,"stry":4143,"Ġtransform":4144,"inner":4145,"Fig":4146,"Ġcompos":4147,"citep":4148,"Cache":4149,"ĠEl":4150,"tempt":4151,"ĠInternational":4152,"Ġtele":4153,"Ġactive":4154,"Ġcut":4155,"Ġoperation":4156,"artifact":4157,"Ġcomplete":4158,"Ġdetails":4159,"Min":4160,"iqu":4161,"leg":4162,"ota":4163,"window":4164,"avor":4165,"=\"-":4166,"Ġbox":4167,"Ġbegan":4168,"97":4169,"Ġcirc":4170,"2004":4171,"ATION":4172,"After":4173,"Url":4174,"Ġlocation":4175,"Update":4176,"Ġround":4177,"ociety":4178,"Ġautom":4179,"ĠIndia":4180,"ĠLeague":4181,"output":4182,"late":4183,"Ġwent":4184,"ÃŃ":4185,"++)":4186,"Ġdensity":4187,"ĠGroup":4188,"Ġfig":4189,"ledge":4190,"Ġentire":4191,"ĠJapan":4192,"Server":4193,"Ġbecom":4194,"ĠArray":4195,"ĠMich":4196,"iles":4197,"Ġimprov":4198,"ĠHer":4199,"Ġneeds":4200,"ĠII":4201,"Ġprior":4202,"astic":4203,"Ġreturned":4204,"ĠRem":4205,"Ġrow":4206,"nonumber":4207,"ERT":4208,"aid":4209,"subset":4210,"Ġ**":4211,"dated":4212,"born":4213,"soft":4214,"ĠLondon":4215,"Spec":4216,"Ġ!==":4217,"500":4218,"Ġdynam":4219,"Ġquestion":4220,"ips":4221,"Ġimpact":4222,"Ġvector":4223,"Offset":4224,"ĠEm":4225,"ĠSan":4226,"Top":4227,"ĠApp":4228,"ris":4229,"ĠAmerica":4230,"uel":4231,"Ġfit":4232,"Ġphase":4233,"ĠType":4234,"scope":4235,"dist":4236,"hood":4237,"Ġcorresponding":4238,"ully":4239,"ĠÃ":4240,"})$":4241,"tries":4242,"icult":4243,"Ġnumer":4244,"Mem":4245,"Open":4246,"require":4247,"Ġquery":4248,"oms":4249,"Ġonline":4250,"oding":4251,"Ġsuccessful":4252,"VE":4253,"Ġobj":4254,"TYPE":4255,"Ġmonths":4256,"Max":4257,"ĠRef":4258,"icip":4259,"ores":4260,"Vis":4261,"ĠFrom":4262,"(_":4263,"ĠWilli":4264,"Ġunique":4265,"otal":4266,"empty":4267,"exec":4268,"older":4269,"ĠArm":4270,"********************************":4271,"Ġrather":4272,".)":4273,"Frame":4274,"Dr":4275,"Ġ[]":4276,"Ġill":4277,"ĉĉĉĉĉĉĉ":4278,"ingle":4279,"Ġlocated":4280,"Ġestim":4281,"Ġreference":4282,"Ġpolicy":4283,"Width":4284,"\\!":4285,"96":4286,"Ġmonth":4287,"iforn":4288,"Ġoperator":4289,"ĠWeb":4290,"aur":4291,"Tag":4292,"Ġnov":4293,"kappa":4294,"vention":4295,"ico":4296,"textit":4297,"ellow":4298,"dep":4299,"Provider":4300,"nabla":4301,"Ġcollection":4302,"{{":4303,"aign":4304,"Ġargs":4305,"Ġrespectively":4306,"ĠUs":4307,"prototype":4308,"NAME":4309,"ili":4310,"ĠCollege":4311,"ael":4312,"Ġdefinition":4313,"itect":4314,"essages":4315,"ampionship":4316,"Ġstar":4317,"ensive":4318,"Ġroot":4319,"Ġregular":4320,"Ġfilter":4321,"document":4322,"Ġcallback":4323,"which":4324,"./":4325,"ĠFirst":4326,"Ġliter":4327,"nected":4328,"Ġwebsite":4329,"Ġsolid":4330,"cos":4331,"Ġalmost":4332,"control":4333,"ĠStud":4334,"aches":4335,"Ġreturns":4336,"Ġnight":4337,"Ġclub":4338,"ened":4339,"PS":4340,"Ġneeded":4341,"bind":4342,"cr":4343,"otes":4344,"TI":4345,"ĠSm":4346,"Ġattempt":4347,"Target":4348,"Ġselected":4349,"ilitary":4350,"Sigma":4351,"%;":4352,"ensuremath":4353,"Ġrepl":4354,"bra":4355,"Ġdeal":4356,"ategy":4357,"Ġexact":4358,"%%":4359,"PO":4360,"ara":4361,"Entity":4362,"atives":4363,"ican":4364,"Ġdefine":4365,"witter":4366,"ĠLicense":4367,"ĠCour":4368,"aught":4369,"ifornia":4370,"Ġcontinu":4371,"under":4372,"Ġfood":4373,"\\%":4374,"ĠCenter":4375,"Level":4376,"Co":4377,"Ġincludes":4378,"Ġindependent":4379,"Ġpatients":4380,"\\|":4381,"unt":4382,"Ġprovides":4383,"Ġdidn":4384,"98":4385,"icture":4386,"eleg":4387,"ulations":4388,"ERR":4389,"files":4390,"cs":4391,"break":4392,"57":4393,"frame":4394,"Ġvirtual":4395,"vey":4396,"ĠDem":4397,"Control":4398,"more":4399,"SU":4400,"ĠPat":4401,"Ġconnection":4402,"atrix":4403,"Ġfront":4404,"artifactId":4405,"CD":4406,"Ġplatform":4407,"ãĥ":4408,"Americ":4409,".$":4410,"Types":4411,"ĠSk":4412,"Ġrunning":4413,"ĠPhil":4414,"ĠHealth":4415,"Ġactually":4416,"stant":4417,"HO":4418,"circ":4419,"ĠNe":4420,"ĠEX":4421,"KE":4422,"rief":4423,"maz":4424,"Ġexists":4425,"author":4426,"Ġzero":4427,"|-":4428,"Ġestablished":4429,"classes":4430,"avy":4431,"nes":4432,"just":4433,"Ġentry":4434,"ociation":4435,"agram":4436,"Ġcomes":4437,"lections":4438,"tree":4439,"Ġfilms":4440,"inn":4441,"Ġtim":4442,"pecially":4443,"Ġincrease":4444,"ĠWork":4445,"Ġpercent":4446,"prime":4447,"cing":4448,"ĠOut":4449,"ube":4450,"Ġeffects":4451,"Ge":4452,"modal":4453,"IO":4454,"Ġtaking":4455,"models":4456,"split":4457,"De":4458,"]);":4459,"That":4460,"Ġinf":4461,"template":4462,"parse":4463,"Ġprop":4464,"Ġcurrently":4465,"Ġthing":4466,"Ġir":4467,"Ġlinear":4468,"Med":4469,"Ġcorrect":4470,"ĠLog":4471,"Ġremove":4472,"()->":4473,"lood":4474,"ancial":4475,"Tree":4476,"Load":4477,"Ġface":4478,"itude":4479,"Utils":4480,"ĠDi":4481,"Ġpack":4482,"returns":4483,"ming":4484,"layer":4485,"Ġinternational":4486,"Ġpredict":4487,"Ġdevice":4488,"Ġsurface":4489,"acters":4490,"Ag":4491,"Ġrecogn":4492,"68":4493,"Access":4494,"Ġcompanies":4495,"Ġuint":4496,"Ġtell":4497,"quare":4498,"values":4499,"Search":4500,"Ġspecies":4501,"Ġrat":4502,"Ġprofession":4503,"groupId":4504,"omb":4505,"=\"../../../../../../":4506,"'),":4507,"Ġfloat":4508,"ĠBlack":4509,"Ġstation":4510,"Sim":4511,"Ġrights":4512,"Ġtakes":4513,"unn":4514,"Ġpers":4515,"hent":4516,"eft":4517,"Ġexpression":4518,"ening":4519,"Ġlikely":4520,"....":4521,"uses":4522,"stylesheet":4523,"2003":4524,"Ġproof":4525,"nap":4526,"adow":4527,"Ġthus":4528,"Pe":4529,"Case":4530,"ĠSub":4531,"Ġoffset":4532,"58":4533,"Ġindustry":4534,"Ġcapt":4535,"Ġwhose":4536,"Ġsets":4537,"Ġcontr":4538,"Ġlearning":4539,"Ġrelationship":4540,"float":4541,"Position":4542,"rics":4543,"Ġbenef":4544,"achine":4545,"Bo":4546,"ĠPresident":4547,"SO":4548,"Ġvill":4549,"2001":4550,"Ġmot":4551,"Entry":4552,"tml":4553,"Ġbuffer":4554,"Ġpain":4555,"Ġissues":4556,"etch":4557,"stack":4558,"bool":4559,"ka":4560,"ĠPre":4561,"aching":4562,"dots":4563,"root":4564,"Ġiter":4565,"igen":4566,"ĠMod":4567,"ios":4568,"Ġwhite":4569,";\\":4570,"IGN":4571,"Po":4572,"anger":4573,"Ġfactor":4574,"match":4575,"([":4576,"arks":4577,"CP":4578,"nov":4579,"Ġled":4580,"han":4581,"criptor":4582,"Ġweight":4583,"ĠLaw":4584,"operator":4585,"Post":4586,"Ġusers":4587,"ĠFile":4588,"Ġimm":4589,"Ġviol":4590,"Ġconsum":4591,"patch":4592,"Ġobjects":4593,"Ġconstr":4594,"lice":4595,"ias":4596,"Ġsequence":4597,"command":4598,"Fe":4599,"ĠDec":4600,"Ġtag":4601,"Configuration":4602,"Ġopport":4603,"alax":4604,"should":4605,"Ġdraw":4606,"ĠSee":4607,"issions":4608,"Ġdoc":4609,"Do":4610,"Ġareas":4611,"Ġwhole":4612,"zz":4613,"Script":4614,"CA":4615,"Ġleading":4616,"SD":4617,"orge":4618,"Ġmoney":4619,"Ġitself":4620,"den":4621,"expected":4622,"ĠCalifornia":4623,"Ġanaly":4624,"thon":4625,"iers":4626,"ran":4627,"background":4628,"common":4629,"wait":4630,"uint":4631,"asc":4632,"Work":4633,"task":4634,"normal":4635,"Unit":4636,"aints":4637,"yes":4638,"Ġcred":4639,"Ġequation":4640,"ulated":4641,"ĠGL":4642,"Ġissue":4643,"tim":4644,"Ġprec":4645,"ontal":4646,"MO":4647,"conf":4648,"Ġpolitical":4649,"\\[":4650,"Ġlen":4651,"cial":4652,"uate":4653,"anks":4654,"docs":4655,"Ġpersonal":4656,"Ġmatter":4657,"Ġprote":4658,"Ġinflu":4659,"gn":4660,"Ġconv":4661,"Ġconver":4662,"stitute":4663,"Ġnatural":4664,"ya":4665,"buffer":4666,"ctx":4667,"Ġgenerated":4668,"Ġpick":4669,"ĠReturns":4670,"oring":4671,"ugins":4672,":\"":4673,"ĠTV":4674,"Ġpopular":4675,"ZE":4676,"arter":4677,"border":4678,"di":4679,"Ġ~":4680,"Process":4681,"images":4682,"sign":4683,"CL":4684,"bootstrap":4685,"ĠRepublic":4686,"ivil":4687,"elt":4688,"Ġfight":4689,"Ġobserved":4690,"aa":4691,"agment":4692,"So":4693,"bon":4694,"Header":4695,"ACK":4696,"Ġscreen":4697,"widet":4698,"idge":4699,"RL":4700,"Ġregard":4701,"Http":4702,"Ġforward":4703,"Height":4704,"elves":4705,"Ġannounced":4706,"Container":4707,"Ġdecl":4708,"ĠSince":4709,"Ġshare":4710,"oted":4711,"Ġdistance":4712,"Ġequal":4713,"och":4714,"Exec":4715,"Ġhit":4716,"But":4717,"Location":4718,"(-":4719,"drop":4720,"56":4721,"Ġmulti":4722,"Ġsoftware":4723,"Ġnames":4724,"sin":4725,"ĠIndian":4726,"strict":4727,"Ġforce":4728,"Ġstre":4729,"Ġtax":4730,"Ġcompar":4731,"Ġmechan":4732,"Ġpattern":4733,"iences":4734,"={":4735,"cache":4736,"}-":4737,"Interface":4738,"Ġcontact":4739,"oom":4740,"Copy":4741,"atur":4742,"Ġselection":4743,"DIR":4744,"Ġfilename":4745,"Ġeffort":4746,"Ġpadding":4747,"Parameter":4748,"Json":4749,"oe":4750,"Ġrot":4751,"pg":4752,"Ġexception":4753,"mission":4754,"Ġbring":4755,"Ġsetting":4756,"Ġtechnology":4757,"lor":4758,"omic":4759,"Rel":4760,"ĉĠ":4761,"}}{":4762,"FT":4763,"Ġrisk":4764,"ĠSen":4765,"Range":4766,"COLOR":4767,"Ġwriting":4768,"ãĤ":4769,"Ġbroad":4770,"jection":4771,"ĠFrench":4772,"before":4773,"ĠUK":4774,"token":4775,"Ġexperiment":4776,"Ġtold":4777,"Ġfixed":4778,"ĉĉĊ":4779,"ĠNor":4780,"Ġroad":4781,"Vert":4782,"Ġwalk":4783,"ining":4784,"Ġcompared":4785,"widetilde":4786,"Ġconduct":4787,"Ġlarger":4788,"BA":4789,"ln":4790,"ircle":4791,"Ġrelative":4792,">,":4793,"orizontal":4794,"ĠDirect":4795,"Ġdescription":4796,"ĠSection":4797,"Ġwait":4798,"Ġinc":4799,"Ġnote":4800,"ĠResearch":4801,"Ġwatch":4802,"Ġuses":4803,"iform":4804,"\"))":4805,"ĠAustralia":4806,"ĠĠĠĠĠĠĠĠĠĠĠĠĠĠĠĠĠĠĠĠĠ":4807,"Ġtree":4808,"/\\":4809,"Ġcontract":4810,"API":4811,"Ġbehind":4812,"Hash":4813,"ctor":4814,"Ġdirectly":4815,"ĠRead":4816,"Ġsecurity":4817,"fs":4818,"ECT":4819,"ooth":4820,"edd":4821,"Ġstage":4822,"Current":4823,"ĠChina":4824,"Ġproducts":4825,"Ġmanagement":4826,"Thread":4827,"utable":4828,"device":4829,"aine":4830,"Bl":4831,"Ġarticle":4832,"lands":4833,"Params":4834,"iation":4835,"Project":4836,"pdf":4837,"Ġstudies":4838,"pat":4839,"American":4840,"Ġfire":4841,"Ġson":4842,"Ġsupported":4843,"{-":4844,"None":4845,"Schema":4846,"ĠNS":4847,"resource":4848,"entity":4849,"FO":4850,"Direct":4851,"inated":4852,"Ġallowed":4853,"Ġimages":4854,"Ġquick":4855,"Description":4856,"59":4857,"ario":4858,"fill":4859,"ĠJust":4860,"Ġattribute":4861,"Ġ{}":4862,"kind":4863,"&&":4864,"ULT":4865,"Ġbad":4866,"2002":4867,"ria":4868,"het":4869,"Ã¼":4870,"ĠDistrict":4871,"Ġlooking":4872,"Empty":4873,"Ġ::":4874,"century":4875,"Ġsens":4876,"berg":4877,"Ġhistor":4878,"rum":4879,"mid":4880,"Ġoutside":4881,"Ġgives":4882,"ponents":4883,"Ġ;":4884,"iting":4885,"Ġstore":4886,"thm":4887,"Ġparty":4888,"Ġallows":4889,"ĠEngland":4890,"Ġdifficult":4891,"Ġgre":4892,"ĠDepartment":4893,"make":4894,"Ġmid":4895,"ĠAnt":4896,"78":4897,"Write":4898,"pling":4899,"ĠNA":4900,"tog":4901,"Sy":4902,"Ġwor":4903,"$(":4904,"Ġ*)":4905,"Ġlost":4906,"UM":4907,"very":4908,"Ġsound":4909,"Ġword":4910,"ĠOpen":4911,"ĠTime":4912,"Ġcentury":4913,"Gr":4914,"utor":4915,"Ġhandle":4916,"useum":4917,"Ġframe":4918,"term":4919,"ĠGoogle":4920,"Ġhy":4921,"then":4922,"ĠCreate":4923,"ĠRE":4924,"band":4925,"Ġalgorithm":4926,"My":4927,"ĠGeneral":4928,"Ġsend":4929,"urren":4930,"Ġespecially":4931,"Ġintegr":4932,"Ġproposed":4933,"Ġ&=":4934,"gu":4935,"bb":4936,"anish":4937,"Ġexcept":4938,"Change":4939,"ds":4940,"amera":4941,"Ġempty":4942,"ĠBook":4943,"Ġ\"\\":4944,"Ġgoal":4945,"Ġcomment":4946,"Ġmemory":4947,"ying":4948,"Ġquality":4949,"overy":4950,"asons":4951,"ervices":4952,"debug":4953,"ĠSome":4954,"ĠPort":4955,"Ġclosed":4956,"Ġupon":4957,"Ġconfiguration":4958,"Ġque":4959,"Ġsort":4960,"wood":4961,"Ġdoing":4962,"ometry":4963,"Ġhours":4964,"Ġproduced":4965,"iday":4966,"ĠTO":4967,"rupt":4968,"ĠHam":4969,"ĠFil":4970,"onstr":4971,"Ġdeveloped":4972,"UP":4973,"enced":4974,"eal":4975,"Settings":4976,"Ġgas":4977,"Ġshall":4978,"Right":4979,"auth":4980,"utive":4981,"Ġlevels":4982,"ĠChe":4983,"pite":4984,"Module":4985,"anning":4986,"Callback":4987,"aily":4988,"ĠBer":4989,"Ġxml":4990,"ĠService":4991,"ĠDavid":4992,"ĠOb":4993,"Ġfem":4994,"ca":4995,"Ġbirths":4996,"Ġmaximum":4997,"Ġdistrict":4998,"aset":4999,"Ġweb":5000,"Ð°Ð":5001,"Ġcomplet":5002,"SA":5003,"\"));":5004,"QL":5005,"ĠHol":5006,"greg":5007,"Ġborn":5008,"Ġparts":5009,"ua":5010,"ĠMal":5011,"Ġreve":5012,"ĠCup":5013,"ĠCanada":5014,"ĠOur":5015,"Record":5016,"ART":5017,"Ġcandid":5018,"alled":5019,"Ġcharacters":5020,"Ġsense":5021,"Ġfriend":5022,"Ġregister":5023,"Ġprogress":5024,"clusion":5025,"ĠMet":5026,"anges":5027,"Can":5028,"Ġconnect":5029,"ees":5030,"Ġess":5031,"Ġtemperature":5032,"Ġtransition":5033,"ĠST":5034,"Ġeffective":5035,"Ġdirection":5036,":(":5037,"Ġlo":5038,"51":5039,"Ġchannel":5040,"zeta":5041,"itch":5042,"hing":5043,"Eng":5044,"Ġneigh":5045,"msg":5046,"fect":5047,"olic":5048,"scri":5049,"illed":5050,"weight":5051,"Ġlonger":5052,"Ġfailed":5053,"tee":5054,"Ġstri":5055,"ĠEuropean":5056,"tains":5057,"centering":5058,"hash":5059,"imately":5060,"ĠDE":5061,"Op":5062,"VAL":5063,"Ġedge":5064,"Local":5065,",-":5066,"that":5067,"burg":5068,"Ġinside":5069,"ado":5070,"Ġdeep":5071,"ares":5072,"arily":5073,"}]":5074,"ĠDay":5075,"Ġvers":5076,"incip":5077,"force":5078,"Dat":5079,"ĠEq":5080,"ĠBuild":5081,"STR":5082,"Ġapply":5083,"Ġheart":5084,"Ġeducation":5085,"Document":5086,"equiv":5087,"Ġhot":5088,"vant":5089,"icrosoft":5090,"ago":5091,"Ġperformed":5092,"ĠCouncil":5093,"ederal":5094,"BO":5095,"Ġaccur":5096,"SH":5097,"Ġserved":5098,"Ġnumbers":5099,"ida":5100,"win":5101,"Option":5102,"env":5103,"Ġago":5104,"ĠSum":5105,"ĠPaul":5106,"atively":5107,"Ġequival":5108,"plete":5109,"300":5110,"Port":5111,"\\{":5112,"Ġsession":5113,"system":5114,"Ġhon":5115,"Ġdegree":5116,"pop":5117,"netic":5118,"ĠStreet":5119,"Ġ>=":5120,"footer":5121,"Inst":5122,"raz":5123,"Ġball":5124,"}+":5125,"Go":5126,"Ġsus":5127,"note":5128,"Ġleaders":5129,"Ġproblems":5130,"ĠCr":5131,"ĠBG":5132,"sv":5133,"Ġimmedi":5134,"Me":5135,"Ġprimary":5136,"site":5137,"ĠCOVID":5138,"&#":5139,"Ġargument":5140,"idget":5141,"ounter":5142,"Ġsold":5143,"Ġmind":5144,"CR":5145,"ospital":5146,"Connection":5147,"INT":5148,"Ġepis":5149,"onic":5150,"DD":5151,"Ġgetting":5152,"mes":5153,"etime":5154,"Ġgrowth":5155,"IR":5156,"ao":5157,"Ġoperations":5158,"Ġdifference":5159,"hi":5160,"400":5161,"Ġseg":5162,"\\]":5163,"transform":5164,"Ġparams":5165,"ĠPublic":5166,"Ġswitch":5167,"Async":5168,"card":5169,"ifying":5170,"ursor":5171,"Ġpassed":5172,"Ġscope":5173,"second":5174,"Font":5175,"Ġsex":5176,"rote":5177,"Dir":5178,"ein":5179,"riate":5180,"Ġcouple":5181,"Ġnu":5182,"ocal":5183,"bound":5184,"Ġinfo":5185,"PA":5186,"Integer":5187,"Ġavoid":5188,"join":5189,"Ġtemplate":5190,"Ġdise":5191,"Session":5192,"step":5193,"Ġroom":5194,"Ġsaf":5195,"Ġtransfer":5196,"zer":5197,"Ġspeed":5198,"gebra":5199,"inding":5200,"NavBar":5201,"Mon":5202,"irit":5203,"ĠGerman":5204,"Ġemer":5205,"rd":5206,"clude":5207,"ĠCheck":5208,"Ġfather":5209,"ashington":5210,"ĠMor":5211,"Ġarguments":5212,"Ġign":5213,"ixt":5214,"ye":5215,"Ġworked":5216,"52":5217,"ĠWhile":5218,"Ġcomponents":5219,"1999":5220,"Menu":5221,"86":5222,"Ġfinite":5223,"ously":5224,"Ġinvestig":5225,"cat":5226,"ĠCap":5227,"icons":5228,"ĠNow":5229,"Ġrule":5230,"=\"/":5231,"ĠSeries":5232,"Ġvariable":5233,"Serial":5234,"Ġstaff":5235,"ĠOf":5236,"Ġansw":5237,"arp":5238,"Down":5239,"ĠPost":5240,"Ġidea":5241,"DF":5242,"Ġemail":5243,"imensional":5244,"jo":5245,"Ġaward":5246,"():":5247,"ĠFound":5248,"Ġoverride":5249,"Ġmoved":5250,"apse":5251,"Ġexisting":5252,"webkit":5253,"Ġitems":5254,"blockList":5255,"ĠDiv":5256,"Ġnecessary":5257,"---":5258,"send":5259,"rea":5260,"Ġdemonstr":5261,"copy":5262,"tabular":5263,"sa":5264,"ena":5265,"ĠJames":5266,"kr":5267,"54":5268,"oul":5269,"1000":5270,"rule":5271,"Ġactual":5272,"ĠNote":5273,"Ġphysical":5274,"Psi":5275,"eler":5276,"PL":5277,"fg":5278,"bert":5279,"Ġcampaign":5280,"Collection":5281,"vents":5282,"oyal":5283,"Ġcells":5284,"fort":5285,"Ġdied":5286,"dest":5287,"Ġsymmet":5288,"ĠPal":5289,"Ġvict":5290,"WE":5291,"Ġcoordin":5292,"Ġsil":5293,"joy":5294,"Ġexpand":5295,"range":5296,"Ã¤":5297,"olute":5298,"ici":5299,"Rev":5300,"hover":5301,"emma":5302,"panel":5303,"ws":5304,"Ġtherefore":5305,"Ġ['":5306,"Ġcentral":5307,"Ġqual":5308,"ĠScience":5309,"Prot":5310,"Ġundefined":5311,"scal":5312,"izations":5313,"ynch":5314,"vector":5315,"wner":5316,"Operation":5317,"ini":5318,"Ġtreatment":5319,")=\\":5320,"Track":5321,"Ġsimply":5322,"delete":5323,"Ġresources":5324,"elebr":5325,"vm":5326,"ĠTheorem":5327,"ĠInst":5328,"Definition":5329,"ĠBel":5330,"ĠArch":5331,"Helper":5332,"IM":5333,"ieved":5334,"ĠOR":5335,"Ġplaying":5336,"ston":5337,"Left":5338,"Ġestablish":5339,"Ġaud":5340,"================================":5341,"Ġpresented":5342,"}=\\":5343,"free":5344,"ĠĠĠĠĠĠĊ":5345,"Expression":5346,"Sk":5347,"###":5348,"click":5349,"overs":5350,"Ġteams":5351,")}\\":5352,"ĠTechn":5353,"Ġchanged":5354,"olar":5355,"Ġconstruction":5356,"emic":5357,"ĠThom":5358,"Ġjo":5359,"Le":5360,"types":5361,"access":5362,"Ġsources":5363,"interface":5364,"gs":5365,"Ġoffice":5366,"illing":5367,"ani":5368,"ĠSy":5369,"loor":5370,"xis":5371,"Ġextra":5372,"media":5373,"Ġmention":5374,"Pass":5375,"rees":5376,"76":5377,"Ġcoming":5378,"Te":5379,"ĠBen":5380,"Use":5381,"Ġrank":5382,"spect":5383,"structor":5384,"Ġfun":5385,"Ġeasy":5386,"ĠRiver":5387,"Properties":5388,"Parser":5389,"ufact":5390,"uri":5391,"Ġveh":5392,"Ġassist":5393,"Ġhash":5394,"toString":5395,"igr":5396,"Ġdecision":5397,"Ġbehavior":5398,"usion":5399,"star":5400,"Sign":5401,"Pat":5402,"Ġjav":5403,"ictionary":5404,"edge":5405,"EM":5406,"ĠException":5407,"ĠForm":5408,"Ġspin":5409,"Ġsolutions":5410,"53":5411,"ALL":5412,"icker":5413,"address":5414,"omorph":5415,"Ġbasis":5416,"rong":5417,"Ġconcern":5418,"$)":5419,"ĠDon":5420,"Ġoptim":5421,"Ġrock":5422,"Ġsignal":5423,"ĠBGCOLOR":5424,"Net":5425,"Ġcountries":5426,"ĠGod":5427,"Ġtoken":5428,"Now":5429,"Ġtransport":5430,"Ġensure":5431,"itable":5432,"Mar":5433,"vest":5434,"ville":5435,"ĠDate":5436,"ĠMag":5437,"Ġtravel":5438,"iece":5439,"Ġdam":5440,"mas":5441,"mode":5442,"Ġincreasing":5443,"Ġcast":5444,"'],":5445,"ä¸":5446,"Ġten":5447,"after":5448,"Stat":5449,"Store":5450,"Ġcollect":5451,"ĠRober":5452,"History":5453,"Ġrev":5454,"component":5455,"ĠEnd":5456,"Ġactivity":5457,"Tim":5458,"irl":5459,"Ġ(\"":5460,"aws":5461,"ĠAssert":5462,"Vector":5463,"Ġecho":5464,"ĠĠĠĠĠĠĠĠĠĠĠĠĠĠĠĠĠĠĠĠĠĠĠĠĠĠĠĠĠĠĠĠĠĠĠĠĠĠĠ":5465,"ĠHere":5466,"}^\\":5467,"Ġrecomm":5468,"prox":5469,"Ġmeet":5470,"{}":5471,")^{":5472,"Ġscen":5473,"vas":5474,"DA":5475,"eloc":5476,"ĠJack":5477,"coll":5478,"direct":5479,"track":5480,"Core":5481,"Ġdesigned":5482,"-->":5483,"Ġnothing":5484,"Ġyield":5485,"arth":5486,"Ġnorth":5487,"Ġstarting":5488,"(:":5489,"Ġthroughout":5490,"internal":5491,"Ġtour":5492,"||":5493,"=\"_":5494,"rian":5495,"ĠRich":5496,"Ġcorre":5497,"Ġaltern":5498,"Ġrecently":5499,"virt":5500,"Icon":5501,"Ġassume":5502,"Ġpolice":5503,"Ġliving":5504,"lymp":5505,"Ġrepresentation":5506,"Ġinvolved":5507,"72":5508,"Ġpackage":5509,"Ġhimself":5510,"coin":5511,"Ġdomain":5512,"Ġrender":5513,"ĠTable":5514,"cp":5515,"endar":5516,"Ġang":5517,"ĠMap":5518,"hr":5519,"hest":5520,"widget":5521,"Impl":5522,"ĠInstitute":5523,"INE":5524,"Su":5525,"Ġinj":5526,"global":5527,"IF":5528,"Title":5529,"ĠAL":5530,"ĠMart":5531,"ĠTrue":5532,"AND":5533,"high":5534,"Ġrules":5535,"\\\"":5536,"Match":5537,"req":5538,"Ġotherwise":5539,".~":5540,"Ġacqu":5541,"isions":5542,"ĠBest":5543,"Ġsymbol":5544,"Ġnet":5545,"focus":5546,"render":5547,"Ġcause":5548,"ĠTHE":5549,"icate":5550,"Ġjoin":5551,"pring":5552,"fony":5553,"ĠQue":5554,"indent":5555,"ifest":5556,"Ġtelevision":5557,"255":5558,"89":5559,"ĠName":5560,"Template":5561,"ipe":5562,"Ġ})":5563,"Ġsoon":5564,"icket":5565,"Ġchoice":5566,"olume":5567,"widehat":5568,"Ġquite":5569,"erc":5570,"disabled":5571,"ĠChampionship":5572,"van":5573,"ĠCON":5574,"equal":5575,"essor":5576,"ymfony":5577,"Ġcritical":5578,"isation":5579,"Mult":5580,"ĠChurch":5581,"}_\\":5582,"Vari":5583,"session":5584,"ernel":5585,"Ġcharg":5586,"Ã¶":5587,"ĠĠĠĠĠĠĠĠĠĠĠĠĠĠĠĠĠĠĠĠ":5588,"Ġprobably":5589,"cope":5590,"equals":5591,"material":5592,"lemma":5593,"reement":5594,"Sl":5595,"dependency":5596,"ĠMac":5597,"ĠParty":5598,"Ġraise":5599,"Ġreading":5600,"export":5601,"success":5602,"Ġcult":5603,"Tool":5604,"ĠYear":5605,"ĠFe":5606,"Ġdark":5607,"Ġtowards":5608,"ĠOver":5609,"Ġbelieve":5610,"plugin":5611,"Ġstay":5612,"Ġapplied":5613,"PP":5614,"ĠJSON":5615,"Ġtransaction":5616,"ĠGerm":5617,"prove":5618,"ĠGreen":5619,"Ġfast":5620,"Ġdatabase":5621,"Ġclasses":5622,"osph":5623,";->":5624,"Ġstatement":5625,"ĠHall":5626,"Long":5627,"Order":5628,"iding":5629,"Ġsettings":5630,"plugins":5631,"Ġalt":5632,"estamp":5633,"Click":5634,"Ġmor":5635,"Que":5636,"ander":5637,"ĠÎ":5638,"Ġdirector":5639,"Ġseems":5640,"Ġtro":5641,"ĠAssociation":5642,"Ġminutes":5643,"Ptr":5644,"Ġgalax":5645,"Ġevidence":5646,"Ġfeed":5647,"Ġmodern":5648,"1998":5649,"}\\,":5650,"Ġanything":5651,"rial":5652,"ulate":5653,"ional":5654,"ORD":5655,"Ġfinancial":5656,"Ġscript":5657,"Ġmilitary":5658,"Dep":5659,"Ġetc":5660,"ĠAut":5661,"87":5662,"ĠWashington":5663,"illa":5664,"ĠAfrica":5665,"Ġvariables":5666,"ĠCourt":5667,"ĠFigure":5668,"ĠAward":5669,"Ġstars":5670,"ancy":5671,"cdots":5672,"custom":5673,"ORT":5674,"icol":5675,"Ġnovel":5676,"ĠErr":5677,"Ġusually":5678,"ilies":5679,"ĠInc":5680,"Ġsaw":5681,"Ġchalleng":5682,"coq":5683,"Ke":5684,"za":5685,"Ver":5686,"Ġboard":5687,"Ġwrote":5688,"oma":5689,"FL":5690,"aver":5691,"airs":5692,"Ġquantum":5693,"Ġelection":5694,"ker":5695,"ĠTex":5696,"Ġupper":5697,"ĠHel":5698,"Reference":5699,"Ġeverything":5700,"PECT":5701,"exports":5702,"ĠCre":5703,"Ġconcept":5704,"cup":5705,"Tests":5706,"Ġarchitect":5707,"Ġadminist":5708,"west":5709,"graph":5710,"Ġbal":5711,"Rect":5712,"Ġoffic":5713,"car":5714,"Ġauth":5715,"Draw":5716,"GET":5717,"})\\":5718,"Names":5719,"actor":5720,"Ġwest":5721,"adian":5722,"EO":5723,"enge":5724,"itar":5725,"Ġlock":5726,"inese":5727,"Host":5728,"{(":5729,"Ġknowledge":5730,"ĠPress":5731,"Ġfinally":5732,"ĠModel":5733,"Ġradio":5734,"xx":5735,"Ġthread":5736,"alls":5737,"ims":5738,"MD":5739,"Ġerrors":5740,"Ġnodes":5741,"Ġcore":5742,"ĠDet":5743,"Ġasked":5744,"Ġclean":5745,"ona":5746,"ĠYour":5747,"ĠBay":5748,"etic":5749,"Ġparse":5750,"Ġprice":5751,"ĠLeg":5752,"CS":5753,"Ġstreng":5754,"Ġincreased":5755,"antic":5756,"ano":5757,"padding":5758,"asic":5759,"Ġdelete":5760,"erve":5761,"ĠSur":5762,"Ġsouth":5763,"mselves":5764,"Encod":5765,"alysis":5766,"real":5767,")-":5768,"qquad":5769,"XX":5770,"ĠDel":5771,"Ġlimited":5772,"ĠOper":5773,"Iter":5774,"=\"../../../":5775,"gin":5776,"Ġvs":5777,"ATH":5778,"rome":5779,"handle":5780,"Ġrace":5781,"ERROR":5782,"Ġprobability":5783,"Ġdro":5784,"False":5785,"settings":5786,"overed":5787,"?:":5788,"82":5789,"ansion":5790,"Ġer":5791,"Device":5792,"Since":5793,"elegate":5794,"Ġfollowed":5795,"agger":5796,"Classes":5797,"pers":5798,"inct":5799,"evelopment":5800,"Ġcard":5801,"Ġcompleted":5802,"Ġholds":5803,"clos":5804,"Values":5805,"Ġbecomes":5806,"Ġbooks":5807,"Ġhope":5808,"Ġprep":5809,"Ġways":5810,"help":5811,"Ġisn":5812,"Ġvolume":5813,"ĠRun":5814,"idents":5815,"ĠProgram":5816,"Ġprofessional":5817,"ORM":5818,"Ġintroduced":5819,"uit":5820,"Ġthemselves":5821,"Ġhel":5822,"ĠMusic":5823,"Am":5824,"related":5825,"ternet":5826,"Application":5827,"More":5828,"{{\\":5829,"Ġpractice":5830,"Ġmus":5831,"GB":5832,"fields":5833,"gan":5834,"ĠFrance":5835,"ĠSam":5836,"ertific":5837,"ĠKe":5838,"Ġcluster":5839,"Ġdescribe":5840,"cur":5841,"Ġmother":5842,"EQ":5843,"Ġmicro":5844,"1990":5845,"Ġlargest":5846,"Ø§":5847,"ĠAng":5848,"Ġsmaller":5849,"69":5850,"Invalid":5851,"tty":5852,"had":5853,"Ġrob":5854,"toggle":5855,"framework":5856,"PR":5857,"Parameters":5858,">();":5859,"connect":5860,"variant":5861,"ĠRequ":5862,"}^{(":5863,"ĠOther":5864,"Ġteach":5865,"room":5866,"Ġtests":5867,"white":5868,"Red":5869,"Ġshape":5870,"aved":5871,"She":5872,"Ġproper":5873,"del":5874,"tex":5875,"'>":5876,"ecause":5877,"Ġtrying":5878,"ĠDemocr":5879,"onds":5880,"foo":5881,"sets":5882,"ĠJer":5883,"PT":5884,"Ġgave":5885,"Ġelectron":5886,"Ġwriter":5887,"category":5888,"ĠThus":5889,"pub":5890,"Ġsurv":5891,"Ġos":5892,"ĠReview":5893,"}|":5894,"osen":5895,"^+":5896,"'m":5897,"shot":5898,"Ġwoman":5899,"ĠMem":5900,"mitted":5901,"PH":5902,"ĠGeorge":5903,"aled":5904,"Mark":5905,"Stack":5906,"Ġenjoy":5907,"`.":5908,"estival":5909,"SL":5910,"Ġreceive":5911,"outhern":5912,"Ġshared":5913,"&=":5914,"uated":5915,"Parent":5916,"iring":5917,"parameter":5918,")/":5919,"(*":5920,"ros":5921,"cpp":5922,"Ġalthough":5923,"Ġjud":5924,"84":5925,"ĠRoad":5926,"Ġfully":5927,"ĠMat":5928,"matrix":5929,"ĠProject":5930,"Api":5931,"Results":5932,"UB":5933,"iments":5934,"Ġcook":5935,"}\"":5936,"ĠCompany":5937,"Ġpreviously":5938,"({\\":5939,"SION":5940,"ĠWhite":5941,"ental":5942,"textwidth":5943,"EW":5944,"uting":5945,"Ġdecre":5946,"Ġlatest":5947,";<":5948,"bi":5949,"Ġremain":5950,"porary":5951,"ilton":5952,"urt":5953,"Ġbottom":5954,"oute":5955,"Package":5956,"exception":5957,"Metadata":5958,"Ġvillage":5959,"Ġfra":5960,"lam":5961,"Ġextension":5962,"Ġconnected":5963,"Ġscore":5964,"fit":5965,"Ġrelation":5966,"Ġeditor":5967,"well":5968,"Ġorigin":5969,"Ġdeliver":5970,"Non":5971,"oder":5972,"TED":5973,"ĠHTML":5974,"ĠUse":5975,"DL":5976,"double":5977,"}:":5978,"email":5979,"ĠFin":5980,"Note":5981,"79":5982,"lines":5983,"Ġquestions":5984,"__(":5985,"acement":5986,"mercial":5987,"Ġord":5988,"ĠWilliam":5989,"ĠMath":5990,"cmd":5991,"Ġcontainer":5992,"ads":5993,"'ve":5994,"Ġnature":5995,"language":5996,"Se":5997,"coming":5998,"ĠLou":5999,"iny":6000,"Ġsigned":6001,"ĠArg":6002,"Ġrequires":6003,"Ġ\\{":6004,"ĠBase":6005,"hs":6006,"full":6007,"Ġunc":6008,"FC":6009,"ems":6010,"Br":6011,"Ġcourt":6012,"Ġga":6013,"Ð»":6014,"Doc":6015,"Ġearlier":6016,"ĠVir":6017,"Ġinsp":6018,"Ġinline":6019,"recated":6020,"Ġmale":6021,"Ġnor":6022,"Ġremains":6023,"Ġwanted":6024,"Ġprevent":6025,"Ġ('":6026,"ĠMichael":6027,"Ġfavor":6028,"Ġste":6029,"_;":6030,"Ġlack":6031,"Ġprofile":6032,"reshold":6033,"Ġcounter":6034,"ĠMr":6035,"Ġdigital":6036,"ette":6037,"----------------------------------------------------------------":6038,"atically":6039,"ATA":6040,"atalog":6041,"sort":6042,"Var":6043,"Ġheader":6044,"63":6045,"ducation":6046,"ectors":6047,"Ġship":6048,"liance":6049,"application":6050,"xspace":6051,"Has":6052,"Render":6053,"Ġneut":6054,"Ġmedical":6055,"inger":6056,"ved":6057,"sey":6058,"Ġdirectory":6059,"OK":6060,"reek":6061,"Ġanim":6062,"Ġsave":6063,"Ġdead":6064,"ura":6065,"annotation":6066,"Ġcharge":6067,"admin":6068,"Ġlibrary":6069,"iverse":6070,"inder":6071,"ĠIS":6072,"'.":6073,"El":6074,"ydro":6075,"leep":6076,"Ġslow":6077,"umin":6078,"Ġculture":6079,"ĠAnn":6080,"Ġboundary":6081,"BR":6082,"operatorname":6083,"Lo":6084,"ailed":6085,"byte":6086,"Ġproced":6087,"ĠSal":6088,"ĠFranc":6089,"Wrap":6090,"Ġmount":6091,"ĠUnion":6092,"Ġfriends":6093,"Ġmiddle":6094,"cloud":6095,"ighest":6096,"Cal":6097,"Dom":6098,"Ġmissing":6099,"Ġlayer":6100,"ĠRel":6101,"Policy":6102,"ĠCong":6103,"structure":6104,"Ġpurch":6105,"Debug":6106,"Ġinstit":6107,"ether":6108,"ett":6109,"Ġcache":6110,"ius":6111,"ipp":6112,"Ġrepe":6113,"inally":6114,"scr":6115,"otic":6116,"Ġcontinued":6117,"Ġnamespace":6118,"Ġcelebr":6119,"resents":6120,"Ġgets":6121,"Ġsomeone":6122,"Handle":6123,"Ġexam":6124,"Ġeast":6125,"Ġones":6126,"Assert":6127,"hy":6128,"Ġchain":6129,"ĠAlex":6130,"keyword":6131,"Ġunits":6132,"Ġapplications":6133,"People":6134,"Ġweak":6135,"JECT":6136,"ategories":6137,"aming":6138,"Ġbeaut":6139,"Ġcontaining":6140,"Ġ$(\\":6141,"Ġradi":6142,"writ":6143,"Ġprove":6144,"Ġattention":6145,"Ġpresident":6146,";/":6147,"ixel":6148,"serve":6149,"Ġdetermined":6150,"1997":6151,"Ġmis":6152,"Ġappoint":6153,"94":6154,"boolean":6155,"ntax":6156,"Ġplot":6157,"1996":6158,"Args":6159,"Ġoverall":6160,"replace":6161,"Num":6162,"Ġscient":6163,"abilities":6164,"Ġability":6165,"Ġrestrict":6166,"ĠRob":6167,"Ġlegal":6168,"Ġpartial":6169,"GE":6170,"Ġ'/":6171,"Ġchoose":6172,"Ġprim":6173,"Ġnegative":6174,">.":6175,"Ġbytes":6176,"Ġinteresting":6177,"Ġpresence":6178,"Ġmeaning":6179,"62":6180,"Ġded":6181,"rip":6182,"Ġleave":6183,"Our":6184,"while":6185,"grid":6186,"Rule":6187,"ĠUser":6188,"Ġeight":6189,"ĠLife":6190,"ĠEXPECT":6191,"Ġwide":6192,"enumer":6193,"Ġexhib":6194,"Ġveloc":6195,"ĠGermany":6196,"Ġschools":6197,"Kind":6198,"allel":6199,"password":6200,"fn":6201,"Ġbyte":6202,"Any":6203,"ĠLong":6204,"Ġdetermine":6205,"holder":6206,"ĠMus":6207,"URE":6208,"condition":6209,"Ġstrict":6210,"Exp":6211,"Ġopened":6212,"Argument":6213,"Ġunsigned":6214,"ters":6215,"Boolean":6216,"ĠLO":6217,"Ġplant":6218,"ĠProv":6219,"Ġweeks":6220,"93":6221,"ĠAccording":6222,"ipeline":6223,"Ġcop":6224,"ĠTom":6225,"Ġmaintain":6226,"oub":6227,"Found":6228,"SET":6229,"enum":6230,"ĠGold":6231,"Ġmanager":6232,"sol":6233,"dule":6234,"ynchron":6235,"crete":6236,"Ġimprove":6237,"ĠJournal":6238,"ror":6239,"Ġgenerate":6240,"rael":6241,"ĠDan":6242,"Mock":6243,"Then":6244,"iller":6245,"install":6246,"Ġwallet":6247,"ĠTexas":6248,"Ġreach":6249,"approx":6250,"Ġgovern":6251,"Ġjson":6252,"mazon":6253,"ĠNOT":6254,"Ġstudent":6255,"Ġlives":6256,"Reader":6257,"Ġexplicit":6258,"olec":6259,"ĠMary":6260,"anned":6261,"TC":6262,"short":6263,"Ġinvolv":6264,"Ġtransp":6265,"Ġthreat":6266,"Dialog":6267,"Ġsplit":6268,"Ġprojects":6269,"Ġpartners":6270,"ĠSociety":6271,"Ġhum":6272,"Ġbeginning":6273,"Each":6274,"Ġjournal":6275,"eck":6276,"onder":6277,"Ġoffers":6278,"Ġapprop":6279,"ympt":6280,"Ġperfect":6281,"Ġjoined":6282,"las":6283,"callback":6284,"ibly":6285,"'))":6286,"oration":6287,"Ġratio":6288,"anguage":6289,"Main":6290,"92":6291,"Show":6292,"Enabled":6293,"Bytes":6294,"Ġprotect":6295,"Ġinterview":6296,"Ñĥ":6297,"linear":6298,"Ġbasic":6299,"mathsf":6300,"~$":6301,"store":6302,"ĠMiss":6303,"Ġinterpre":6304,"ĠMethod":6305,"Ġscience":6306,"Delete":6307,"Ġdaught":6308,"ĠMount":6309,"asure":6310,"nce":6311,"ami":6312,"AGE":6313,"`,":6314,"Ġimplementation":6315,"Ġpanel":6316,"Ġgreater":6317,"Ġbutton":6318,"Ac":6319,"dates":6320,"allow":6321,"Ġgoes":6322,"pped":6323,"ĠIsland":6324,"ĠVer":6325,"Ġbank":6326,"NN":6327,"ora":6328,"iger":6329,"Cre":6330,"Ġreserv":6331,"Meta":6332,"Ġassess":6333,"Ġruns":6334,"}}(":6335,"Ġbtn":6336,"Decl":6337,"ĠBig":6338,"Ġeveryone":6339,"Ġmovie":6340,"sql":6341,"Ġsett":6342,"ĠField":6343,"icated":6344,"Ġdisease":6345,"Tab":6346,"ĠAv":6347,"Dist":6348,"Writer":6349,"ĠTrump":6350,"ĠPy":6351,"Ġuseful":6352,"CTION":6353,"virtual":6354,"Ġhous":6355,"Ġdeaths":6356,"Ġsen":6357,"ĠRobert":6358,"Ġcapital":6359,"Ġ${":6360,"Ġadapt":6361,"ĠNO":6362,"uple":6363,"acebook":6364,"agnost":6365,"rot":6366,"91":6367,"bul":6368,"Ġpul":6369,"apped":6370,"ĠĠĠĠĠĠĠĠĠĠĠĠĠĠĠĠĠĠ":6371,"ifies":6372,"ĠOlymp":6373,"ression":6374,"Ġwife":6375,"Ġblue":6376,"register":6377,"stat":6378,"HTML":6379,"Ġcalls":6380,"Ġactivities":6381,"ongs":6382,"comment":6383,"Ġdrug":6384,"lements":6385,"Ġmut":6386,"aste":6387,"=\"@":6388,"Ġdistributed":6389,"Ġseek":6390,"ĠValue":6391,"ĠSl":6392,"Ġicon":6393,"ech":6394,"}\\\\":6395,"numer":6396,"'ll":6397,"Ġclin":6398,"Ġutil":6399,"auto":6400,"BS":6401,"ĠPlay":6402,"Ġminimum":6403,"ĠIO":6404,"CI":6405,"Ġstrategy":6406,"sect":6407,"Ġrap":6408,"reme":6409,"Ġplaces":6410,"Ġfigure":6411,"alian":6412,"ĠPub":6413,"ĠClub":6414,"Di":6415,"Ġcollabor":6416,"Ġgrant":6417,"istan":6418,"mi":6419,"Ġtesting":6420,"Custom":6421,"assets":6422,"Ġfactors":6423,"product":6424,"ĠMex":6425,"73":6426,"Sum":6427,"Body":6428,"uby":6429,"insert":6430,"sur":6431,"Ġwrap":6432,"Ðº":6433,"Ġ<=":6434,"radius":6435,"Ġtouch":6436,"Job":6437,"akers":6438,"Ġessential":6439,"ĠShow":6440,"romise":6441,"igration":6442,"ĠDO":6443,"Ġanti":6444,"FAULT":6445,"Ġ++":6446,"items":6447,"argument":6448,"ala":6449,"ĠWil":6450,"Byte":6451,"Ġdim":6452,"ĠURL":6453,"Ġeasily":6454,"forms":6455,"Ġforms":6456,"Ġmanufact":6457,"icks":6458,"omial":6459,"ĠAcadem":6460,"Ġ\"/":6461,"faces":6462,"contrib":6463,"fly":6464,"plements":6465,"region":6466,"Ġevolution":6467,"61":6468,"'$":6469,"Ġseven":6470,"ĠChinese":6471,"eries":6472,"83":6473,"cut":6474,"Ġmeeting":6475,"but":6476,"sample":6477,"Ġequations":6478,"Root":6479,"ĠIP":6480,"agon":6481,"house":6482,"ĠLemma":6483,"Ġregions":6484,"bour":6485,"Ġdimension":6486,"]$":6487,"modules":6488,"ĠEvent":6489,"Ġstack":6490,"keys":6491,"Ġactions":6492,"Ġflag":6493,"Ġgreen":6494,"ITY":6495,"PRE":6496,"ologies":6497,"osh":6498,"ĉĉĉĊ":6499,"Ġsports":6500,"ignment":6501,"Ġinvoke":6502,"Ġattr":6503,"1995":6504,"arts":6505,"dim":6506,"ja":6507,"ishing":6508,"ĠFore":6509,"Ġsituation":6510,"Ġbur":6511,"citet":6512,"ĠAlso":6513,"Storage":6514,"Ġbey":6515,"ĠBusiness":6516,"ky":6517,"160":6518,"Ġstorage":6519,"none":6520,"Ġtrain":6521,"Ġreli":6522,"Ġrates":6523,"ki":6524,"Ġsn":6525,"ĠRoman":6526,"Att":6527,"Ġconsole":6528,"Fields":6529,"margin":6530,"81":6531,"Ġsongs":6532,"ĠCD":6533,"Ġfamilies":6534,"ĠRussian":6535,"74":6536,"ĠTor":6537,"Ġsafety":6538,"Ġbeyond":6539,"Ġworth":6540,"ĠKey":6541,"Ġ&\\":6542,"Ġremoved":6543,"Ġpressure":6544,"Ġinteger":6545,"orter":6546,"Ġcoeff":6547,"ĠView":6548,"Ġstories":6549,"ĠFoundation":6550,"ĠSuper":6551,"KEY":6552,"esh":6553,"ĠBi":6554,"ils":6555,"azz":6556,"ĠTop":6557,"Ġvacc":6558,"ĠArmy":6559,"care":6560,"Ġhighly":6561,"protobuf":6562,"Ġbrought":6563,"ĠMad":6564,"edy":6565,"oded":6566,"Account":6567,"annels":6568,"asket":6569,"Ġcategory":6570,"Ġtrade":6571,"irus":6572,"ĠTherefore":6573,"!!":6574,"\")]":6575,"Queue":6576,"Ġprograms":6577,"record":6578,"spring":6579,"ested":6580,"Ġorganization":6581,"256":6582,"ynamic":6583,"ĠNetwork":6584,"ĠCommit":6585,"Ġbirth":6586,"Ġreduce":6587,"Ġexactly":6588,"bal":6589,"Ġjavax":6590,"}}{\\":6591,"ðŁ":6592,"ĠStar":6593,"ĠSmith":6594,"Ġenter":6595,"Ġeconomic":6596,"Ġequivalent":6597,"Ġchem":6598,"1980":6599,"ĠHistory":6600,"Ġmsg":6601,"Ġequip":6602,"azine":6603,"initial":6604,"important":6605,"\\'":6606,"Art":6607,"irmed":6608,"enter":6609,"herit":6610,"osing":6611,"dimensional":6612,"======":6613,"etimes":6614,"ĠCarol":6615,"jquery":6616,"WS":6617,"TEST":6618,"Ġsamples":6619,"Ġfrequency":6620,"Ġhyp":6621,"Here":6622,"Ġimmediately":6623,"Ġlay":6624,"Pi":6625,"~~~~":6626,"Ġpeak":6627,"anta":6628,"Ġappears":6629,"results":6630,"SSERT":6631,"enses":6632,"hol":6633,"Ġframework":6634,"udd":6635,"?âĢĿ":6636,"Ġaffect":6637,"pute":6638,"Ġidentity":6639,"ĠMo":6640,"ĠError":6641,"Ġproduce":6642,"Ġrecorded":6643,"ĠĠĠĊ":6644,"Ġhighest":6645,"Ġparticularly":6646,"points":6647,"dx":6648,"road":6649,"Ġspectrum":6650,"Ġwaves":6651,"ustain":6652,"inline":6653,"ById":6654,"Symfony":6655,"itation":6656,"asy":6657,"Ġsecret":6658,"duction":6659,"MC":6660,"ellig":6661,"icine":6662,"arant":6663,"71":6664,"Ġdemand":6665,"JSON":6666,"Ġcompletely":6667,"ĠTimes":6668,"Ġfinished":6669,"Ġstructures":6670,"Ġharm":6671,"pool":6672,"atin":6673,".;":6674,"ĠMer":6675,"END":6676,"ĠSing":6677,"andemic":6678,"Changed":6679,"utf":6680,"Ġmagnetic":6681,"Ġbrand":6682,"ĠProf":6683,"isms":6684,"ĠFalse":6685,"Ġnearly":6686,"ĠAustralian":6687,"Ġbg":6688,"Ġscene":6689,"Ident":6690,"}+\\":6691,"Ġresulting":6692,"onom":6693,"Ġdenote":6694,"rey":6695,"present":6696,"[:":6697,"ĠCentral":6698,"mock":6699,"phone":6700,"Ġcreating":6701,"Ġpen":6702,"Ġ%}":6703,"dropdown":6704,"Ġplans":6705,"scroll":6706,"Ġhtml":6707,"ita":6708,"ĠSund":6709,"MENT":6710,".*":6711,"ĠDuring":6712,"Ġpy":6713,"stats":6714,"stop":6715,"Xml":6716,"Ġdb":6717,"ingu":6718,"Ġshowed":6719,"aud":6720,"ĠScott":6721,"ĠPo":6722,"Send":6723,"Ġhighlight":6724,"ĠAfrican":6725,"Ġwrong":6726,"Home":6727,"neq":6728,"Ġimplies":6729,"thread":6730,"Ġclick":6731,"napshot":6732,"Transaction":6733,"Cor":6734,"Ġillustr":6735,"=\"\"":6736,"ga":6737,"Ġsubsequ":6738,"Only":6739,"Ġrecords":6740,"connection":6741,"Ġsaying":6742,"Ġrepresents":6743,"ady":6744,"NG":6745,"ACE":6746,"ĠEv":6747,"Ġ),":6748,"Living":6749,"ĠSu":6750,"icago":6751,"Ġspent":6752,"Ġfix":6753,"ĠText":6754,"Ġsteps":6755,"ĠThomas":6756,"Ġnorm":6757,"ĠSun":6758,"anda":6759,"Ġextract":6760,"sche":6761,"FILE":6762,"election":6763,"unsigned":6764,"itiz":6765,"ixture":6766,"Ġquickly":6767,"ĠassertEquals":6768,"Ã§":6769,"Network":6770,"ĠGovernment":6771,"}-\\":6772,"Ġparents":6773,"eve":6774,"Ġnative":6775,"Ġearn":6776,"Support":6777,"deg":6778,"ĠMedia":6779,"1994":6780,"ucket":6781,"peed":6782,"Ġtraditional":6783,"=\"\">":6784,"Ġexternal":6785,"ivacy":6786,"Ġvariety":6787,"organ":6788,"Pop":6789,"git":6790,"ifications":6791,"Ġsal":6792,"Ġpolitic":6793,"ĠCons":6794,"Ġexc":6795,"]\\":6796,"Ġstra":6797,"effect":6798,"Ġfair":6799,"Ġprefer":6800,"Ġunknown":6801,"Ġrelig":6802,"Bit":6803,"EC":6804,"Ġreached":6805,"Ġelectric":6806,"ĠVol":6807,"ĠChristian":6808,"ĠUnder":6809,"anner":6810,"oves":6811,"ĠHen":6812,"Ġbre":6813,"oday":6814,"Descriptor":6815,"ĠMost":6816,"Ġbuy":6817,"attribute":6818,"Ġappeared":6819,"Active":6820,"tip":6821,"Ġincor":6822,"Ġgenerally":6823,"ĠGames":6824,"ĠBoard":6825,"ĠAR":6826,"Ġforces":6827,"Ġnom":6828,"Ġprocesses":6829,"osis":6830,"shift":6831,"Ġpark":6832,"Ġreduced":6833,"cons":6834,"ĠFrancis":6835,"olf":6836,"ĠCopy":6837,"Ġconstit":6838,"nections":6839,"ĠTown":6840,"Ġrelevant":6841,"Ġsurpr":6842,"Ġupdated":6843,"ĠRoyal":6844,"weet":6845,"Ġ-\\":6846,"plex":6847,"Ġestimate":6848,"Ġpurpose":6849,"profile":6850,"uter":6851,"Ġdestroy":6852,"Ġloop":6853,"ĠCommission":6854,"Obj":6855,"Ġmix":6856,"security":6857,"Ġpush":6858,"Ġhidden":6859,"ĠCamp":6860,"haps":6861,"ango":6862,"ĠAssembly":6863,"=-":6864,"Ġhor":6865,"Ġmoving":6866,"VERSION":6867,"]:":6868,"ĠĠĠĠĠĠĠĠĠĠĠĠĠĠĠĠĠĠĠĠĠĠĠĠĠ":6869,"ĠMuseum":6870,"Ġquarter":6871,"ĠWindow":6872,"Ġgold":6873,"Gu":6874,"Ġopportunity":6875,"Ġextended":6876,"grade":6877,"miss":6878,"shape":6879,"Ġmovement":6880,"Ġspread":6881,"hspace":6882,"Ġimag":6883,"Ġturned":6884,"bing":6885,".__":6886,"look":6887,"Ġplease":6888,"ĠGame":6889,"horizontal":6890,"Ġpred":6891,"ĠDivision":6892,"Ġterr":6893,"enumerate":6894,"pay":6895,"bitr":6896,"Ġlif":6897,"ĠMinister":6898,"allery":6899,"ĠGreat":6900,"ĠDirector":6901,"Ġepisode":6902,"Ġmock":6903,"riz":6904,"ĠUkr":6905,"Ġchurch":6906,"atre":6907,"names":6908,"Ġmarried":6909,"Ġdecided":6910,"olver":6911,"Ġtools":6912,"ĠGrand":6913,"Ġcivil":6914,"scription":6915,"kg":6916,"Ġreports":6917,"ĠTim":6918,"Ġleader":6919,"Ġcli":6920,"Sw":6921,"Extension":6922,"Timeout":6923,"addr":6924,"Ġdefe":6925,"hentication":6926,"primary":6927,"riend":6928,"ĠCall":6929,"=(":6930,"Step":6931,"Ġadopt":6932,"ato":6933,"ï¼":6934,"properties":6935,"Ġdetail":6936,"Ġbul":6937,"Edit":6938,"ĠMax":6939,"ĠGen":6940,"Ġalgebra":6941,"Ġscheme":6942,"ussian":6943,"Ġmatches":6944,"Ġkm":6945,"$/":6946,"ĠTur":6947,"Perm":6948,"Media":6949,"sych":6950,"eder":6951,"ĠVis":6952,"While":6953,"Ġenh":6954,"tsd":6955,"(){":6956,"ĠDefault":6957,"move":6958,"theorem":6959,"Ġformed":6960,"ella":6961,"ĠJew":6962,"shire":6963,"etry":6964,"Const":6965,"Ġvisual":6966,"LS":6967,"edit":6968,"Ġ{};":6969,"Ġserial":6970,"home":6971,")}{":6972,"Ġclimate":6973,"ashed":6974,"enty":6975,"Ġstraight":6976,"Ġmask":6977,"events":6978,"oting":6979,"ensus":6980,"Lock":6981,"|^":6982,"ĠRock":6983,"family":6984,"Ġvoice":6985,"erg":6986,"itz":6987,"Ġslight":6988,"Ġshot":6989,"Ġsometimes":6990,"ĠEngine":6991,"pa":6992,"Ġworkers":6993,"Ġreplaced":6994,"norm":6995,"ĠBank":6996,"ĠRussia":6997,"Pool":6998,"kin":6999,"ĠFoot":7000,"Ġdebut":7001,"ffect":7002,"yr":7003,"}'":7004,"ARY":7005,"Ġidentified":7006,"@\"":7007,"Ġroute":7008,"elli":7009,"Ġprincip":7010,"Ġmetric":7011,"Sche":7012,"dem":7013,"1970":7014,"','":7015,"ĠTem":7016,"LP":7017,"Author":7018,"DS":7019,"Initial":7020,"ĠAN":7021,"Ġsmooth":7022,"IX":7023,"Ġleads":7024,"Display":7025,"Ġvelocity":7026,")+":7027,"Ġstudied":7028,"Activity":7029,"Ġrail":7030,"Ġcomputer":7031,"Ġpretty":7032,"Ġdrop":7033,"iders":7034,"domain":7035,"eds":7036,"Ġpor":7037,"}}}":7038,"Ġproviding":7039,"Ġaspect":7040,"Ġconserv":7041,"ĠWestern":7042,"Msg":7043,"ancing":7044,"icies":7045,"aser":7046,"ĠAND":7047,"Ġgiving":7048,"aren":7049,"hav":7050,"Ġabsolute":7051,"apers":7052,"ancer":7053,"lg":7054,"Ġlaunch":7055,"Ġwave":7056,"ĠStep":7057,"iques":7058,"Ġtit":7059,"screen":7060,"ĠGlobal":7061,"Ġsafe":7062,"Ġsummer":7063,"ĠFlor":7064,"arc":7065,"Ġgeneration":7066,"1992":7067,"itemize":7068,"ĠEducation":7069,"fol":7070,"Ġremaining":7071,"BP":7072,"Ġpublish":7073,"pository":7074,"logger":7075,"Ġrad":7076,"webpack":7077,"Ġfans":7078,"Desc":7079,"unicip":7080,"XT":7081,"udget":7082,"account":7083,"Ġconcent":7084,"uty":7085,"ĠFrank":7086,"Ġowner":7087,"Ġsignificantly":7088,"Ġfemale":7089,"network":7090,"Ġkeys":7091,"Ġindividuals":7092,"gest":7093,"Widget":7094,"Ġcaused":7095,"Ġcomparison":7096,"Ġmachine":7097,"ictor":7098,")}$":7099,"venue":7100,"Cle":7101,"etailed":7102,"defined":7103,"Ġentity":7104,"Ne":7105,"reedom":7106,"Before":7107,"Ġinform":7108,"jar":7109,"Ġattributes":7110,"Ġstrateg":7111,"hens":7112,"ĠTre":7113,"ĠHand":7114,")))":7115,"Ġdaughter":7116,"Ġexamples":7117,"Ġprotocol":7118,"Ġgun":7119,"Ġshoot":7120,"acle":7121,"ĠTwo":7122,"ĠCode":7123,"clusive":7124,"ĠWomen":7125,"Logger":7126,"ployment":7127,"ĠIsrael":7128,"Ġagreement":7129,"wild":7130,"(!":7131,"Ġserious":7132,"ĠMA":7133,"atial":7134,"Ġdrive":7135,"master":7136,"Ġconsequ":7137,"alo":7138,"Ġcommunities":7139,"noindent":7140,"mathscr":7141,"bes":7142,"Ġlaun":7143,"txt":7144,"controller":7145,"\">&":7146,"printf":7147,"Ġamb":7148,"ĠOffice":7149,"uler":7150,"Ġpages":7151,"ĠCanadian":7152,"ĠMont":7153,"GS":7154,"Ġinteraction":7155,"igan":7156,"ĠLos":7157,"1993":7158,"ĸº":7159,"ults":7160,"ĠColor":7161,"Flags":7162,"found":7163,"Ġmotion":7164,"Ġartist":7165,"contin":7166,"notation":7167,"ali":7168,"idential":7169,"Ġkilled":7170,"selected":7171,"$}":7172,"atible":7173,"tabs":7174,"Ġcapacity":7175,"128":7176,"Ġcancer":7177,"Items":7178,"Ġwild":7179,"Ġappropriate":7180,"ancel":7181,"iful":7182,"ĠIr":7183,"Ġdirected":7184,"Ġcommercial":7185,"Ġcloud":7186,"UID":7187,"////////////////////////////////":7188,"Auth":7189,"Ġ(*":7190,"Ġstock":7191,"WA":7192,"ĠVirgin":7193,"ĠServices":7194,"Ġoperators":7195,"ertificate":7196,"Ġlisted":7197,"Ġinstanceof":7198,"ĠWill":7199,"save":7200,"150":7201,"Ġready":7202,"super":7203,"reland":7204,"Ġinstr":7205,"ĠZeal":7206,"Ġ{'":7207,"poses":7208,"urrency":7209,"Ġstated":7210,"avity":7211,"ĠId":7212,"TABLE":7213,"ĠJose":7214,"Pub":7215,"lers":7216,"definition":7217,"erry":7218,"ĠTwitter":7219,"typeof":7220,"Ġrespond":7221,"{$":7222,"external":7223,"jpg":7224,"MB":7225,"Ġopening":7226,"Ġinnov":7227,"ĠHill":7228,"duled":7229,"()));":7230,"Ġtrust":7231,"Security":7232,"ository":7233,"ĠFacebook":7234,"acket":7235,"Ġbus":7236,"kw":7237,"istration":7238,"abit":7239,"uan":7240,"Ġgrand":7241,"isl":7242,"PAR":7243,"war":7244,"}}_":7245,"cf":7246,"Conf":7247,"undred":7248,"Ġapi":7249,"ADD":7250,"ĠVersion":7251,"Float":7252,"Ġwind":7253,"ĠBill":7254,"Ġplaced":7255,"ĠGa":7256,"Stop":7257,"ih":7258,"ĠOp":7259,"ĠMel":7260,"lyph":7261,"Ġsufficient":7262,"ĠKore":7263,"ULE":7264,"ĠPeter":7265,"Ġunless":7266,"Ġpoll":7267,"rate":7268,"Ġpoor":7269,"Ġhyper":7270,"km":7271,"job":7272,"Ġneighbor":7273,"impl":7274,"andard":7275,"Ġmaster":7276,"Ġul":7277,"ĠUN":7278,"power":7279,"ivery":7280,"Editor":7281,"à¥":7282,"ĠZealand":7283,"Ġoccur":7284,"Ġnoise":7285,"rb":7286,"CHE":7287,"################":7288,"iciency":7289,"Ġblocks":7290,"Ġreflect":7291,"browser":7292,"ĠInformation":7293,"tion":7294,"Ġsurround":7295,"inem":7296,"ishes":7297,"ĠDen":7298,"Ġcarry":7299,"ĠSol":7300,"Ġagent":7301,"Full":7302,"Ġheavy":7303,"ĠLake":7304,"ĠDevelopment":7305,"MI":7306,"Ġaim":7307,"ridge":7308,"ĠLouis":7309,"PATH":7310,"Ġdepends":7311,"gence":7312,"unities":7313,"Rest":7314,"Ġcustomers":7315,"Ġrepresented":7316,"Ġpool":7317,"Transform":7318,"____":7319,"120":7320,"Ġsites":7321,"Ġartists":7322,"Ġng":7323,"istent":7324,"Ġuniform":7325,"Ġdiscussed":7326,"Ġvisible":7327,"Ġthr":7328,"çļ":7329,"ĠĠĠĠĠĠĠĠĠĠĠĠĠĠĠĠĠĠĠĠĠĠĠĠ":7330,"Ġbillion":7331,"here":7332,"Ġhol":7333,"ĠChild":7334,"thlet":7335,"fully":7336,"Events":7337,"hadoop":7338,"Ġinner":7339,"Ġblood":7340,"shall":7341,"ĠCommittee":7342,"desc":7343,"Expr":7344,"Av":7345,"Ġderived":7346,"yan":7347,"ĠSocial":7348,"ĠLand":7349,"These":7350,"rine":7351,"oving":7352,"ĠAtt":7353,"fra":7354,"Ġ[];":7355,"Pattern":7356,"Constr":7357,"Rece":7358,"ĠCongress":7359,"Ġhands":7360,"çļĦ":7361,"Ġfailure":7362,"ollowing":7363,"]]":7364,"Ġalloc":7365,":\\":7366,"liament":7367,"Ġdevices":7368,"Ġexpansion":7369,"posite":7370,"Ġdataset":7371,"Other":7372,"ĠSil":7373,"onday":7374,"ĠHome":7375,"ocation":7376,"Ġanswer":7377,"*)":7378,"ĠSecond":7379,"components":7380,"ĠEqu":7381,"bad":7382,"Ġpandemic":7383,"Del":7384,"}</":7385,"entials":7386,"geles":7387,"onym":7388,"inv":7389,"Ġdownload":7390,"ĠUpdate":7391,"Ġencour":7392,"Ġmur":7393,"Ġmagn":7394,"Channel":7395,"Ġvertex":7396,"Ġcollege":7397,"itors":7398,"reset":7399,"Directory":7400,"Member":7401,"-$":7402,"Ġfourth":7403,"texttt":7404,"andra":7405,"ĠJapanese":7406,"Ġadvant":7407,"Ġnotice":7408,"Book":7409,"Ġspaces":7410,"vspace":7411,"Ġ$.":7412,"ĠUSA":7413,"Ã³n":7414,"ĠExec":7415,"Ġple":7416,"apy":7417,"uations":7418,"Ñı":7419,"Ġmentioned":7420,"Ġlatter":7421,"LOG":7422,"Duration":7423,"front":7424,"Ġ=========":7425,"rier":7426,"Ġcoach":7427,"Ġminor":7428,"Ġseparate":7429,"mo":7430,"Ġiniti":7431,"ĠCath":7432,"++;":7433,"ĠLi":7434,"scss":7435,"Ġintr":7436,"opl":7437,"assertEquals":7438,"theme":7439,"Ġmeasures":7440,"Play":7441,"Ġunderstanding":7442,"Ġfelt":7443,"Matrix":7444,"IV":7445,"SR":7446,"Ġcru":7447,"ĠGood":7448,"urred":7449,"Ġchosen":7450,"oret":7451,"Ġtherm":7452,"ĠĠĠĠĠĠĠĠĠĠĠĠĠĠĠĠĠĠĠĠĠĠĠĠĠĠĠĠĠĠĠĠĠĠĠĠĠĠĠĠĠĠĠ":7453,"iki":7454,"Ġlooks":7455,"Car":7456,"Ġ[[":7457,"area":7458,"Ġbrowser":7459,"Ġhandler":7460,"angular":7461,"iral":7462,"amer":7463,"Ġpiece":7464,"oped":7465,"Details":7466,"ĠMass":7467,"Ġmessages":7468,"Ġsegment":7469,"Ġeth":7470,"ĠSO":7471,"\\,\\":7472,"3333":7473,"Scope":7474,"Browser":7475,"rase":7476,"Ġwasn":7477,"ĠPeople":7478,"Adapter":7479,"Ġremember":7480,"Ġtab":7481,"Panel":7482,")).":7483,"ĠChicago":7484,"limit":7485,"Ġgoals":7486,"TA":7487,"switch":7488,"cape":7489,"Ġfirm":7490,"ĠBack":7491,"Ġidentify":7492,"Ġtra":7493,"ĠAngeles":7494,"Ġsch":7495,"going":7496,"EXT":7497,"ĠJul":7498,"Ġmeasured":7499,"Ġmaterials":7500,"asketball":7501,"multicol":7502,"Ġleague":7503,"black":7504,"IMP":7505,"rad":7506,".'":7507,"Section":7508,"Ġplays":7509,"ĠEconom":7510,"queue":7511,"Ġcompact":7512,"ĠEach":7513,"Ġeventually":7514,";\"":7515,"Ġsupp":7516,"iffer":7517,"ola":7518,"Ġsector":7519,"ĠIll":7520,"ĠFriday":7521,"Ġnoted":7522,"ji":7523,"ĠWeek":7524,"Ġsquare":7525,"Ġresolution":7526,"Ġoccup":7527,"However":7528,"Ġcompetition":7529,"1991":7530,"Ġâĸº":7531,"Ġfarm":7532,"Ġacadem":7533,"irls":7534,"Ġmill":7535,")));":7536,"Ġnation":7537,"Ġbgcolor":7538,"Ġanyone":7539,"Ġconsistent":7540,"zero":7541,"Ġcomments":7542,"ocaml":7543,"Ġcontrast":7544,"Ġgrowing":7545,"Ġut":7546,"trigger":7547,"Ġmaps":7548,"ĠCle":7549,"Ġinfin":7550,"sumer":7551,"Ġenable":7552,"Ġbrief":7553,"Ġmission":7554,"Ġdog":7555,"ĠĠĠĠĠĠĠĠĠĠĠĠĠĠĠĠĠĠĠĠĠĠ":7556,"flags":7557,"navList":7558,"ĠTeam":7559,"Ġpan":7560,"ĠEarth":7561,"ĠâĹ":7562,"Ġspot":7563,"ko":7564,"Ġdu":7565,"ĠAcademy":7566,"inations":7567,"Ġresponsible":7568,"imit":7569,"ifically":7570,"schema":7571,"ĠAmazon":7572,"MAX":7573,"Generic":7574,"Ġphone":7575,"Ġvan":7576,"minus":7577,"ski":7578,"Ġcosts":7579,"multicolumn":7580,"onald":7581,"ĠOption":7582,"owers":7583,"configuration":7584,"Windows":7585,")),":7586,"âĢĿ.":7587,"SIZE":7588,"ĠManagement":7589,"Ġdepth":7590,"va":7591,"engine":7592,"aturday":7593,"ups":7594,"anging":7595,"Loader":7596,"ald":7597,"Ġhappen":7598,"\\}$":7599,"bu":7600,"Internal":7601,"inate":7602,"Ġdir":7603,"Ġinfluence":7604,"oles":7605,"La":7606,"Struct":7607,"ĠKingdom":7608,"ĠRichard":7609,"MT":7610,"Ġestimated":7611,"ĠVAL":7612,"ications":7613,"ĠLine":7614,"SY":7615,"Dest":7616,"Ġvertical":7617,"Ġeigen":7618,"()).":7619,"Ġarbitr":7620,"Java":7621,")\">":7622,"ĠFlorida":7623,"Ġserve":7624,"Ġpull":7625,"Ġefforts":7626,"each":7627,"ĠSunday":7628,"ĠCA":7629,"Ġdisk":7630,"NavBarCell":7631,"prod":7632,"Ġcompare":7633,"Ġdelay":7634,"<\\":7635,"Ġonto":7636,"Ġbranch":7637,"wp":7638,"Ġcontinuous":7639,"cb":7640,"Ġobservations":7641,"green":7642,"Ġshift":7643,"Ġprem":7644,"Feature":7645,"NE":7646,"Ġchance":7647,"ivation":7648,"total":7649,"ellar":7650,"Ġpassword":7651,"seud":7652,"called":7653,"ToString":7654,"Ġapproximately":7655,"Ġnetworks":7656,"ĠIts":7657,"ĠParam":7658,"Ġ_{":7659,"Ġfine":7660,"tmp":7661,"wrapper":7662,"ĠâĹ¼":7663,"eval":7664,"Ġdriver":7665,"STAT":7666,"Ġbinary":7667,"Ġcos":7668,"manager":7669,"Ġtrigger":7670,"âĢĺ":7671,"ĠAlthough":7672,"ĠCharles":7673,"IPT":7674,"Attributes":7675,"Ġmixed":7676,"Ġcat":7677,"Ġmajority":7678,"hem":7679,"Ġjoint":7680,"=\"${":7681,"Ġelem":7682,"Ġclassical":7683,"LIC":7684,"_,":7685,"Ġparticle":7686,"echo":7687,"Print":7688,"123":7689,"ĠSU":7690,"attice":7691,"agraph":7692,"à¸":7693,"ynomial":7694,"Ġcontribution":7695,"Global":7696,"ĠParis":7697,"Ġawait":7698,"ĠFurther":7699,"aration":7700,"DT":7701,"tools":7702,"Ġplane":7703,"Ġinstalled":7704,"elease":7705,"ĠBu":7706,"igital":7707,"Selector":7708,"gg":7709,"ests":7710,"wa":7711,"Ġemission":7712,"Ġdespite":7713,"Ġpoly":7714,"%%%%":7715,"Proxy":7716,"cribe":7717,"Ġflex":7718,"kl":7719,"hesis":7720,"throws":7721,"Protocol":7722,"ny":7723,"ima":7724,"Ġ\\;":7725,"Ġ\\|":7726,"ĠBur":7727,"Ġradius":7728,"hidden":7729,"Ġ\"<":7730,"ĠConfig":7731,"ographic":7732,"ĠApple":7733,"HS":7734,"Ġcompute":7735,"UTF":7736,"Ġcurve":7737,"Ġflux":7738,"Ġgauge":7739,"Init":7740,"Ġther":7741,"Ġtypename":7742,"Ġformation":7743,"services":7744,"Close":7745,"XML":7746,"ROM":7747,"Ġalone":7748,"Ġencoding":7749,"Ġretr":7750,"Ġsales":7751,"ĠGl":7752,"Ġmobile":7753,"Ġvote":7754,"IB":7755,"Ġinvalid":7756,"ĠHot":7757,"ĠOrder":7758,"ĠMur":7759,"FS":7760,"ensed":7761,"Ġprocessing":7762,"othing":7763,"Ġseconds":7764,"rf":7765,"Ġletter":7766,"opes":7767,"tests":7768,"Ġcool":7769,"ien":7770,"ĠLibrary":7771,"ĠPower":7772,"Ġtraff":7773,"Graph":7774,"IA":7775,"Ġconsists":7776,"Elements":7777,"acro":7778,"estion":7779,"Ġpm":7780,"ournament":7781,"ashion":7782,"Prop":7783,"erved":7784,"Opt":7785,"upload":7786,"ĠAny":7787,"Ġannual":7788,"=\"$":7789,"Ġcombination":7790,"Ġlicense":7791,"lig":7792,"ĠDev":7793,"Ġmolec":7794,"ova":7795,"ĠItalian":7796,"They":7797,"High":7798,"Ġforeign":7799,"\"`":7800,"Ġcoq":7801,"ĠCast":7802,"blue":7803,"ĠOh":7804,"Ġcandidate":7805,"ĠMain":7806,"}},":7807,"Ġenabled":7808,"gers":7809,"Ġbuilder":7810,"amaz":7811,"ĠInitial":7812,"ĠPan":7813,"Ġcalc":7814,"Auto":7815,"Ġfunc":7816,"Ġfederal":7817,"Ġextrem":7818,"Ġcombined":7819,"Ġshowing":7820,"ĠGeorg":7821,"standing":7822,"Ġembedd":7823,"wildfly":7824,"ĠâĢ¦":7825,"HR":7826,"Ġexport":7827,"cknow":7828,"ĠDu":7829,"je":7830,"Grid":7831,"Ġsetup":7832,"MOD":7833,"Î±":7834,"Ġnavigation":7835,"colLast":7836,"cover":7837,"Ġpartner":7838,"lie":7839,"ĠRegister":7840,"Ġowners":7841,"ĠFree":7842,"ĠStart":7843,"Ġtasks":7844,"Ġsociety":7845,"iden":7846,"Ġdiagram":7847,"ĠPet":7848,"ĠOnly":7849,"Ġhar":7850,"Double":7851,"hom":7852,"Mapping":7853,"ĠIreland":7854,"ĠHamilton":7855,"Ġauthors":7856,"Ġhospital":7857,"Failed":7858,"ĠReport":7859,"TV":7860,"ĠArts":7861,"scape":7862,"Ġwat":7863,"ocker":7864,"ĠPM":7865,"underline":7866,"heast":7867,"DC":7868,"Enum":7869,"Ġaxis":7870,"ĠMa":7871,"Ljava":7872,"ĠBet":7873,"Ġexcit":7874,"ircraft":7875,"Year":7876,"plications":7877,"Ġremote":7878,"ĠBre":7879,"Ġthous":7880,"ĠIndex":7881,"article":7882,"Ġdoub":7883,"FIG":7884,"mut":7885,"Ġsea":7886,"Ġ\"\"":7887,"ĠLin":7888,"Ġdetection":7889,"Some":7890,"dp":7891,"Ġadding":7892,"ursday":7893,"Ġhence":7894,"she":7895,"May":7896,"ĠPolicy":7897,"aby":7898,"ivial":7899,"Ġimplements":7900,"protocol":7901,"collapse":7902,"porate":7903,"_(":7904,"Iterator":7905,"ĠTask":7906,"uality":7907,"ĠAction":7908,"legal":7909,"ĠHistor":7910,"stitution":7911,"bel":7912,"1960":7913,"Ġtrend":7914,"colFirst":7915,")\"":7916,"Ġsupply":7917,"ĠAust":7918,"Ġdistinct":7919,"props":7920,"person":7921,"bits":7922,"ĠForce":7923,"Ġsurvey":7924,"Inv":7925,"<!":7926,"Ġgrid":7927,"Ġadjust":7928,"John":7929,"Ġaccom":7930,"ĠBrown":7931,"endor":7932,"ĠNode":7933,"RAN":7934,"rich":7935,"Ġarm":7936,"Background":7937,"Ġstrength":7938,"ĠPoint":7939,"Ġheard":7940,"Person":7941,"Ġlab":7942,"Ġexperiments":7943,"Abstract":7944,"ira":7945,"Ġbattle":7946,"pressed":7947,"hetic":7948,"}^{-":7949,"}%":7950,"ito":7951,"Ġinsert":7952,"1989":7953,"Ġreader":7954,"Ġunivers":7955,"ĠDom":7956,"ĠTODO":7957,"iterator":7958,"Google":7959,"arden":7960,"Ġdiscussion":7961,"Scroll":7962,"chain":7963,"umni":7964,"Symbol":7965,"channel":7966,"ester":7967,"Ġeyes":7968,"ogen":7969,"ĠElect":7970,"Keys":7971,"inant":7972,"Ġgirl":7973,"ONE":7974,"Ġ(-":7975,"Repository":7976,"provider":7977,"Ġclearly":7978,"allclasses":7979,"'d":7980,"assertEqual":7981,"Ġpointer":7982,"ilation":7983,"game":7984,"Success":7985,"Files":7986,"ĠFunction":7987,"ĠLu":7988,"handler":7989,"ĠTechnology":7990,"Ġà¤":7991,"Ġpert":7992,"'])":7993,"ĠAre":7994,"Ġliterature":7995,"IST":7996,"hide":7997,"Ġroll":7998,"getName":7999,"Term":8000,"fail":8001,"ĠWed":8002,"ryst":8003,"$_":8004,"Ġ=======":8005,"Pointer":8006,"Theta":8007,"Ġrequirements":8008,"night":8009,"Ġtrial":8010,"ĠMil":8011,"BUG":8012,"Ġbrother":8013,"limits":8014,"Ġhundred":8015,"%,":8016,"elcome":8017,"Ġbroadcast":8018,"Ġpositions":8019,"apply":8020,"ĠEven":8021,"Ġraised":8022,"Ġolder":8023,"ĠFour":8024,"Ġparticles":8025,"Ġexperimental":8026,"ĠMult":8027,"swarm":8028,"Ġlaunched":8029,"Ġmonitor":8030,"ĠTra":8031,"Ġgalaxies":8032,"asion":8033,"Ġtheorem":8034,"Ġbuildings":8035,"Ġlib":8036,"SER":8037,"Ġstrugg":8038,"Ġexchange":8039,"ĠSecret":8040,"Ġreq":8041,"ĠTH":8042,"iminal":8043,"contains":8044,"Ġmenu":8045,"ĠLee":8046,"mann":8047,"Ġobvious":8048,"video":8049,"Ġscatter":8050,"Ġasync":8051,"BE":8052,"Ġmostly":8053,"Ġviews":8054,"}}_{":8055,"Ġfounded":8056,"Ġformula":8057,"Ġpp":8058,"ĠTheir":8059,"Ġrequests":8060,"Ġip":8061,"ĠNumber":8062,"ĠPage":8063,"ĠEvery":8064,"Ġrecon":8065,"Ġ[],":8066,"->_":8067,"Ġfn":8068,"ropy":8069,"phot":8070,"ĠBO":8071,"pan":8072,"Pay":8073,"Ġfill":8074,"Sample":8075,"claim":8076,"ean":8077,"Ġtransl":8078,"Ġsell":8079,"typed":8080,"nergy":8081,"Ġtheme":8082,"ifold":8083,"Ġstress":8084,"exists":8085,"stone":8086,"cean":8087,"shadow":8088,"Ġcref":8089,"inf":8090,"Ġconflic":8091,"ĠFre":8092,"Ġwants":8093,"compiler":8094,"Ġtypically":8095,"gba":8096,"ilarly":8097,"axis":8098,"Ġraw":8099,"ĠPlan":8100,"ajax":8101,"\"><!--":8102,"Ġrapid":8103,"Ġflat":8104,"ĠJo":8105,"ĠOld":8106,"Ġcamera":8107,"Ġreasons":8108,"jd":8109,"ĠTour":8110,"Ġcalling":8111,"arian":8112,"Ġdaily":8113,"zone":8114,"sel":8115,"Plugin":8116,"ĠFestival":8117,"Ġemployees":8118,"ĠJava":8119,"tbody":8120,"dialog":8121,"CF":8122,"Ġreplace":8123,"Ġxmlns":8124,"Ġhelped":8125,"Ġalternative":8126,"Selected":8127,"Ġoil":8128,"Mat":8129,"Ġdetailed":8130,"Ġsignature":8131,"ĠChief":8132,"Profile":8133,"ĠMicrosoft":8134,"men":8135,"Ġtal":8136,"Ġwood":8137,"Ġhydro":8138,"Ġwid":8139,"Simple":8140,"ĠPass":8141,"Ġsusp":8142,"_->":8143,"Ġcritic":8144,"Memory":8145,"isters":8146,"1988":8147,"Ġefficient":8148,"ĠIl":8149,"izable":8150,"ĠMartin":8151,"Members":8152,"poss":8153,"editor":8154,"erial":8155,"single":8156,"nel":8157,"ĠYoung":8158,"ĠPath":8159,"NULL":8160,"Product":8161,"Tags":8162,"ĠAtl":8163,"Ġdetect":8164,"dagger":8165,"Layer":8166,"trm":8167,"formance":8168,"platform":8169,"Ġpatient":8170,"Ġaudio":8171,"uesday":8172,"Database":8173,"ĠStat":8174,"Ġstarts":8175,"idel":8176,"ĠSpec":8177,"ĠLove":8178,"ĠSummer":8179,"ading":8180,"razil":8181,"Ġwinning":8182,"ĠLink":8183,"Ġangle":8184,"NT":8185,"ometric":8186,"ĠEnter":8187,"Ġrise":8188,"Ġorganizations":8189,"Ġfif":8190,"Ġinterested":8191,"Ġcalculated":8192,"usters":8193,"ĠReact":8194,"Ġoriginally":8195,"parameters":8196,"attributes":8197,"ĠCommunity":8198,"Ġindust":8199,"ĠRecords":8200,"Ġrare":8201,"Ġideas":8202,"Ġspirit":8203,"cdn":8204,"ĠAuthor":8205,"ĠMexico":8206,"VB":8207,"protected":8208,"ĠPenn":8209,"Ġcycle":8210,"iro":8211,"ĠVirginia":8212,"ben":8213,"ĠCy":8214,"picker":8215,"Ġcreation":8216,"equence":8217,"textrm":8218,"nesday":8219,"Äģ":8220,"Ġelected":8221,"utch":8222,"Ġmatching":8223,"Ġ×":8224,"low":8225,"Ġcovered":8226,"Ġconstraints":8227,"Ġ\",":8228,"metadata":8229,"Ġens":8230,"ĠAndroid":8231,"Ġprocedure":8232,"elligence":8233,"Ġunion":8234,"ĠWindows":8235,"Ġincreases":8236,"aling":8237,"_+":8238,"subseteq":8239,"Ġoptional":8240,"ĠMonday":8241,"ĠFilm":8242,"åı":8243,"itness":8244,"Ġaware":8245,"Ġphen":8246,"roke":8247,"Help":8248,"600":8249,"overnor":8250,"conn":8251,"ĠVictor":8252,"bot":8253,"loop":8254,"Ġpod":8255,"Ġattract":8256,"alloc":8257,"GO":8258,"Common":8259,"Ġcarried":8260,"Ġwhom":8261,"filename":8262,"Ġpowerful":8263,"Cap":8264,"ĠĠĠĠĠĠĠĠĠĠĠĠĠĠĠĠĠĠĠĠĠĠĠĠĠĠ":8265,"\",\"":8266,"Ġreject":8267,"bytes":8268,"Ġio":8269,"Ġguitar":8270,"zen":8271,"riage":8272,"Ġvehicle":8273,"aylor":8274,"Ġconvers":8275,"Ġarrest":8276,"ICE":8277,"Ġchallenge":8278,"NotNull":8279,"/_":8280,"Public":8281,"Ġdynamics":8282,"ĠSecurity":8283,"atar":8284,"Ġmorning":8285,"ĠPac":8286,"ĠCa":8287,"chen":8288,"Ġshop":8289,"Engine":8290,"Ġ(_":8291,"Ġpicture":8292,"ati":8293,"Ġmodified":8294,"builder":8295,"maven":8296,"Ġdesc":8297,"HER":8298,"ookie":8299,">:":8300,"Scale":8301,"tags":8302,"fold":8303,"prev":8304,"Ġrecommend":8305,"Ġoffered":8306,"footnote":8307,"Ä±":8308,"world":8309,"READ":8310,"plot":8311,"Ġanalyt":8312,"Figure":8313,"children":8314,"Ġwall":8315,"Ġtx":8316,"Ġcitiz":8317,"Gen":8318,"[$":8319,"Space":8320,"Ġbright":8321,"Sync":8322,"ĠPhys":8323,"Ġ?>":8324,"Ġtoward":8325,"progress":8326,"odies":8327,"Ġsummary":8328,"Ġhuge":8329,"FR":8330,"ĠOl":8331,"LC":8332,"details":8333,"ĠIOException":8334,"idx":8335,"ierarch":8336,"Ġended":8337,"Ġbehavi":8338,"Ġcontinues":8339,"tw":8340,"Cluster":8341,"Ġeq":8342,"Seg":8343,"Ġheat":8344,"herited":8345,"cient":8346,"About":8347,"iana":8348,"ĠRet":8349,"heel":8350,"Ġproceed":8351,"Ġadvert":8352,"Ġmanaged":8353,"fire":8354,"Route":8355,"hemat":8356,"roduction":8357,"Ġsqu":8358,"Ġexistence":8359,"alyt":8360,"Ġslightly":8361,"ĠCarolina":8362,"Î¿":8363,"Ġpaid":8364,"Register":8365,"amazon":8366,"Ġhear":8367,"Ġresist":8368,"Ġdifferences":8369,"cluded":8370,"ĠFort":8371,"Ġ$\\{":8372,"Ġaccuracy":8373,"large":8374,"headers":8375,"fixed":8376,"ĠLead":8377,"Report":8378,"ÑĮ":8379,"()</":8380,"ĠCopyright":8381,"ctrine":8382,"ĠIE":8383,"IVE":8384,"Ġacceler":8385,"Ġctx":8386,"Ġpure":8387,"operation":8388,"iling":8389,"ello":8390,"Ġabstract":8391,"ĠHaw":8392,"inion":8393,"Ġlisten":8394,"amm":8395,"ITE":8396,"Ġchief":8397,")|":8398,"amin":8399,"Ġinvestment":8400,"Ġsenior":8401,"1987":8402,"Ġvac":8403,"iced":8404,"mutable":8405,"picture":8406,"Ã¨":8407,"libr":8408,"Ġregarding":8409,"ĠKh":8410,"Ġbalance":8411,"asis":8412,"forward":8413,"adium":8414,"Wrapper":8415,"icity":8416,"when":8417,"ï»":8418,"prefix":8419,"ĠSaturday":8420,"ĠSpecial":8421,"ĠSI":8422,"ĠMessage":8423,"Example":8424,"Fail":8425,"ĠImage":8426,"Ġrestaur":8427,"SQL":8428,"Ġfol":8429,"According":8430,"ĠHead":8431,"icients":8432,"Agent":8433,"Ġrevealed":8434,"osoph":8435,"usband":8436,"ĠMake":8437,"Ġguarant":8438,"Ġfle":8439,"uages":8440,"eces":8441,"ĠJun":8442,"Ġboost":8443,"Ġahead":8444,"Parse":8445,"ĠCare":8446,"Ġblog":8447,"ribution":8448,"Tx":8449,"Ġtechniques":8450,"ĠðŁ":8451,"neg":8452,"Socket":8453,"chor":8454,"Depend":8455,"Ġfru":8456,"Ġappend":8457,"~$\\":8458,"Ġminim":8459,"Ġautomatically":8460,"Ġcommunication":8461,"ĉĉĉĉĉĉĉĉĉ":8462,"rical":8463,"ffff":8464,"ĠLocal":8465,"Ġrect":8466,"Ġmomentum":8467,"âĢī":8468,"ĠEp":8469,"ÐµÐ":8470,"Ġachieve":8471,"DP":8472,"OUT":8473,"ĠHuman":8474,"Ġtypeof":8475,"WN":8476,"Ġoperating":8477,"Ġbill":8478,"ĠValley":8479,"Ġrelatively":8480,"ĠHa":8481,"Ret":8482,"Ġtruth":8483,"Ġkept":8484,"Ġtor":8485,"ĠDown":8486,"Ġeconomy":8487,"Ġlic":8488,"Password":8489,"CHECK":8490,"login":8491,"odd":8492,"mask":8493,"Ġclaims":8494,"Ġchart":8495,"Ġice":8496,"ourney":8497,"ĠFootball":8498,"Resources":8499,"ĠBob":8500,"World":8501,"('.":8502,"Ġfinish":8503,"kins":8504,"ĠCommun":8505,"detail":8506,"ĠSpanish":8507,"bullet":8508,"generated":8509,"Ġtensor":8510,"ĠJim":8511,"Ġsoft":8512,"{%":8513,"Ġfinding":8514,"jango":8515,"ĠWal":8516,"ĠAwards":8517,"Ġconvert":8518,"Ġforced":8519,"rick":8520,"Ġ($\\":8521,"stable":8522,"Ġagreed":8523,"Ġbecoming":8524,"Ġfrag":8525,"Ġpolynomial":8526,"Ġpairs":8527,"vs":8528,"uous":8529,"mic":8530,"Ġhour":8531,"Ġspeak":8532,"gency":8533,"------------":8534,"Ġknew":8535,"frastructure":8536,"ĠEli":8537,"nil":8538,"Ġskills":8539,"ĠJud":8540,"Constants":8541,"Ġfraction":8542,"Are":8543,"Runtime":8544,"uer":8545,"250":8546,"Ġsustain":8547,"Ġodd":8548,"parser":8549,"rize":8550,"Ġexpressed":8551,"Ġisol":8552,"Ġalle":8553,"ĠTri":8554,"ĠPak":8555,"rypto":8556,"setminus":8557,"xhtml":8558,"Ġpi":8559,"ĠÂ£":8560,"ĠGets":8561,"Compar":8562,"NOT":8563,"ï»¿":8564,"amental":8565,"Ġappointed":8566,"ARN":8567,"enabled":8568,"Ġbusinesses":8569,"ĠBit":8570,"oston":8571,"Category":8572,"tons":8573,"ĠNet":8574,"Ġsuccessfully":8575,"Ġentered":8576,"ĠĠĠĠĠĠĠĠĠĠĠĠĠĠĠĠĊ":8577,"ĠScot":8578,"CESS":8579,"oplus":8580,"ruby":8581,"Ġcontroller":8582,"ĠAsia":8583,"arsed":8584,"Statement":8585,"Ġthreshold":8586,"Ġ$|":8587,"gorithms":8588,"ĠBlue":8589,"report":8590,"Ġsynt":8591,"Ġsymmetry":8592,"'\\":8593,"Ġactor":8594,"Condition":8595,"Ġlogger":8596,"Ġchallenges":8597,"ĠDesign":8598,"Ġlooked":8599,"ewidth":8600,"required":8601,"ĠUI":8602,"ĠPop":8603,"how":8604,"Ġagree":8605,"Ġsizeof":8606,"ĠExt":8607,"Ġorient":8608,"ĠWood":8609,"ĠĠĠĠĠĠĠĠĠĠĠĠĠĠĠĠĠĠĠĠĠĠĠĠĠĠĠĠĠ":8610,"PROJECT":8611,"Ġversions":8612,"Ġpropag":8613,"Ġappearance":8614,"ĠKar":8615,"ĠCatholic":8616,"Ġleaving":8617,"^-":8618,"random":8619,"1986":8620,"Ġcriter":8621,"pear":8622,"Single":8623,"LECT":8624,"?>":8625,"since":8626,"Ã£":8627,"Prefix":8628,"Ġstations":8629,"Generator":8630,"Ġinterval":8631,"Cred":8632,"ĠArab":8633,"Video":8634,"Ġbenefits":8635,"Ġ\"-":8636,"role":8637,"numerus":8638,"ĠHenry":8639,"numerusform":8640,"har":8641,"adr":8642,"Ġtried":8643,"ĠCard":8644,"Ġclinical":8645,"Ġ..":8646,"ĠMedical":8647,"shared":8648,"Ġ{{":8649,"(__":8650,"Remove":8651,"Ġpolar":8652,"Ġring":8653,"execute":8654,"aligned":8655,"Ġedges":8656,"pective":8657,"Ġincome":8658,"achment":8659,"Ġprovider":8660,"Ġok":8661,"ĠNAME":8662,"Ġexit":8663,"roph":8664,"ĠAS":8665,"flex":8666,"Ġfunding":8667,"ĠFund":8668,"inet":8669,"ideos":8670,"ãĢ":8671,"Ġtransformation":8672,"Ġsupports":8673,"Ġparties":8674,"Ġfeatured":8675,";}":8676,"Ġflags":8677,"Ġpurs":8678,"Ġvoc":8679,"Ġstable":8680,"ĠCEO":8681,"=#":8682,"awn":8683,"Ġtraffic":8684,"Ġqueue":8685,"Ġarbitrary":8686,"Ġkids":8687,"eleted":8688,"ĠResource":8689,"Ġdream":8690,"Ġalbums":8691,"Ġmeasurements":8692,"Ġsmart":8693,"junit":8694,"ĠGi":8695,"LL":8696,"multi":8697,"ĠConference":8698,"Ġscored":8699,"ĠCentre":8700,"ĠItaly":8701,"OST":8702,"Ġsph":8703,"ulty":8704,"Ġfocused":8705,"agent":8706,"Ġopportunities":8707,"Ġverify":8708,"1984":8709,"throw":8710,"ĠMP":8711,"OB":8712,"Ġbenefit":8713,"Ġdraft":8714,"Ġplanning":8715,"ĠSign":8716,"Ġcontributions":8717,"vi":8718,"yer":8719,"uing":8720,"Ġoccurs":8721,"cuss":8722,"âĢĿ,":8723,"Ġfloor":8724,"Ġlabor":8725,"Install":8726,"FFFF":8727,"Ġhappened":8728,"Collections":8729,"Ġindicates":8730,"EV":8731,"ACT":8732,"ĠJoe":8733,"eller":8734,"aria":8735,"Ġmys":8736,"ĠBoth":8737,"ĠHash":8738,">::":8739,"ĠCH":8740,"Ġshut":8741,"Ġrac":8742,"xs":8743,"ĉĠĠĠĠĠ":8744,"ĠLast":8745,"Ġadj":8746,"ĠThursday":8747,"Ġexpert":8748,"110":8749,"Ġdynamic":8750,"Ġprefix":8751,"users":8752,"á»":8753,"Ġcolumns":8754,"Identifier":8755,"Role":8756,"ĠJohnson":8757,"resources":8758,"Ġwonder":8759,"ĠAbout":8760,"Ġfeet":8761,"Ġofficials":8762,"Ġtranslate":8763,"_{-":8764,"Ġmurder":8765,"Ġcities":8766,"Ġconfirmed":8767,"IND":8768,"username":8769,"Two":8770,"ĠSupport":8771,"Props":8772,"ĠSearch":8773,"Ġweap":8774,"Ġmetadata":8775,"temp":8776,"two":8777,"ĠMov":8778,"hl":8779,"Ġdocuments":8780,"rat":8781,"Ġcredit":8782,"Ġmaybe":8783,"wall":8784,"life":8785,"Ġmassive":8786,"ĠCross":8787,"TEXT":8788,"Registry":8789,"Ġindicate":8790,"vc":8791,"MR":8792,"Nodes":8793,"isis":8794,"ĠĠĠĠĠĠĠĠĠĠĠĠĠĠĠĠĠĠĠĠĠĠĠĠĠĠĠĠĠĠĠĠĠĠĠĠĠĠĠĠĠĠĠĠĠĠĠĠĠĠĠĠĠĠĠĠĠĠĠĠĠĠĠĠ":8795,"Ġfish":8796,"Total":8797,"Ġformal":8798,"Ġvertices":8799,"Ġmechanism":8800,"Ġedition":8801,"Ġbelong":8802,"orrow":8803,"Ġfav":8804,"ĠMany":8805,"Ġadvantage":8806,"Ġreduction":8807,"Ġfear":8808,"Ġapproaches":8809,"outer":8810,"USE":8811,"Ġremained":8812,"Ġarchitecture":8813,"pet":8814,"CTYPE":8815,"ĠAccess":8816,"Ġphil":8817,"Ġdivision":8818,"ĠWay":8819,"plan":8820,"Ġreality":8821,"Ġconstructor":8822,"Ġdoor":8823,"moz":8824,"wan":8825,"safe":8826,"Ġtechnical":8827,"Ġcontained":8828,"ĠJac":8829,"ĠIII":8830,"Ġshock":8831,"springframework":8832,"MODULE":8833,"Ġ],":8834,"para":8835,"Ġlocations":8836,"Ġextr":8837,"wedge":8838,"ĠRail":8839,"CRE":8840,"Py":8841,"ifer":8842,"ĠJones":8843,"circle":8844,"ooks":8845,"stein":8846,"Ġfactory":8847,"Ġachiev":8848,"ĠCustom":8849,"Ġentries":8850,"Ġconfirm":8851,"Ġsimpl":8852,"Ġpolicies":8853,"serial":8854,"unct":8855,"Skip":8856,"ĠLo":8857,"essions":8858,"Ġduration":8859,"storage":8860,"uplic":8861,"Import":8862,"plus":8863,"Ġbrain":8864,"Ġbeautiful":8865,"Best":8866,"Ġcompl":8867,"\\!\\!":8868,"800":8869,"IGHT":8870,"ĠMos":8871,"Ġbounded":8872,"emon":8873,"ĠBecause":8874,"ela":8875,"INFO":8876,"TIME":8877,"\\}":8878,"Ġjobs":8879,"Ġplus":8880,"Ġallowing":8881,"![":8882,"tor":8883,"Ġcoast":8884,"Ġlayout":8885,"Ġvalign":8886,"iano":8887,"player":8888,"1985":8889,"...</":8890,"Ġstudio":8891,"esome":8892,"errors":8893,"posal":8894,"Ġconnections":8895,"issues":8896,"ifiers":8897,"clean":8898,"Ġcorrelation":8899,"Ġaircraft":8900,"iteral":8901,"Using":8902,"sb":8903,"mosph":8904,"Variable":8905,"Trace":8906,"Ġdecom":8907,"ĠMoreover":8908,"wer":8909,"Ġsun":8910,"_{{\\":8911,"PER":8912,"rim":8913,"Ġconstructed":8914,"ansas":8915,"Ġcustomer":8916,"Ġvary":8917,"%)":8918,"Ġstored":8919,"){\\":8920,"loader":8921,"Bound":8922,"ĠLandroid":8923,"Ġaudience":8924,"cred":8925,"writer":8926,"VI":8927,"Eq":8928,"Ġ^":8929,"structions":8930,"poration":8931,"CN":8932,"ORTED":8933,"done":8934,"ione":8935,"Ġwarn":8936,"ĠUsing":8937,"Ġcentre":8938,"Ġnumerical":8939,"urer":8940,"expect":8941,"Ġstrings":8942,"Ġoptimal":8943,"equality":8944,"ĠUkraine":8945,"ĠOrgan":8946,"Ġprotection":8947,"feature":8948,"Ġabsor":8949,"sys":8950,"Summary":8951,"Ġmetal":8952,"Ġchannels":8953,"unique":8954,"ĠSar":8955,"ĠSwed":8956,"Ñĭ":8957,"Ġcoupling":8958,"apes":8959,"Ġofficer":8960,"('/":8961,"Ġult":8962,"about":8963,"Ġdamage":8964,"JS":8965,"Ġapproximation":8966,"Email":8967,"nn":8968,"IDTH":8969,"Ġprison":8970,"Ġrich":8971,"ĠBul":8972,"fx":8973,"_{(":8974,"Ġ>>":8975,"Ġexperi":8976,"apos":8977,"svg":8978,"ĠFamily":8979,"Ġnuclear":8980,"brief":8981,"Ġdepartment":8982,"Func":8983,"Ġtrail":8984,"ĠTR":8985,"Ġderiv":8986,"ĠGuide":8987,"Ġisland":8988,"Ġspatial":8989,"alg":8990,"Ġzone":8991,"ĠDat":8992,"Ġsatisfies":8993,".\");":8994,"scribe":8995,"ĠWater":8996,"Game":8997,"indexOf":8998,"ockey":8999,"Ġresidents":9000,"Ġfresh":9001,"riority":9002,"Progress":9003,"Find":9004,"people":9005,"mediate":9006,"itan":9007,"Ġexecution":9008,"ĠMiddle":9009,"Ġdrink":9010,"Ġparser":9011,"Ġcouldn":9012,"istence":9013,"groups":9014,"collection":9015,"diff":9016,"Ġwarm":9017,"Phone":9018,"urance":9019,"Ġexcell":9020,"lik":9021,"pton":9022,"href":9023,"CM":9024,"rawn":9025,"ĠVector":9026,"Ġbeat":9027,"asi":9028,"gov":9029,"fi":9030,"RR":9031,"\"].":9032,"Stats":9033,"fix":9034,"ĠBlock":9035,"Ġ'<":9036,"Language":9037,"ĠlP":9038,"blank":9039,"ifi":9040,"Ġproxy":9041,"Character":9042,"ĠInteger":9043,"'));":9044,"simple":9045,"Ġconducted":9046,"ĠRam":9047,"ĠLab":9048,"Ġamplit":9049,"ĠWell":9050,"Ġconference":9051,"Ġequipment":9052,"ronic":9053,"estic":9054,"Ġheaders":9055,"acks":9056,"nam":9057,"rift":9058,"checkbox":9059,"ĠGal":9060,"CG":9061,"Ġdanger":9062,"Ġgap":9063,"Ġfamous":9064,"orders":9065,"urban":9066,"Ġmusical":9067,"ĠØ":9068,"Hz":9069,"Ġ[\"":9070,"Ġforest":9071,"Ġtransparent":9072,"uzz":9073,"emy":9074,"URI":9075,"ĠExample":9076,"AF":9077,"Ġphoto":9078,"Ġoccurred":9079,"Ġ$[":9080,"rices":9081,"extern":9082,"Ġgain":9083,"Ġrepresenting":9084,"Ġdie":9085,"USER":9086,"Ġdecay":9087,"ĠTuesday":9088,"uries":9089,"ador":9090,"ĠControl":9091,"iser":9092,"edia":9093,"Ġimplemented":9094,"Ġru":9095,"Ġnine":9096,"^{-\\":9097,"Ġinterpret":9098,"ĠReal":9099,"Ġtypical":9100,"enable":9101,"Ġattend":9102,"Ġcharset":9103,"Ġmodes":9104,"Ġdict":9105,"ĠHence":9106,"ĠAM":9107,"ĠLord":9108,"invalid":9109,"ĠSa":9110,"Arch":9111,"ĠColl":9112,"ums":9113,"Ġcultural":9114,"Ġcorresponds":9115,"println":9116,"typedef":9117,"Ġimportance":9118,"sn":9119,"ĠWednesday":9120,"Comment":9121,"Ġideal":9122,"Ġhusband":9123,"'}":9124,"Ġinteractions":9125,"Ġintegral":9126,"Ġmeant":9127,"Ġcomputed":9128,"Framework":9129,"Selection":9130,"ĠProcess":9131,"uce":9132,"ogene":9133,"TERN":9134,"depth":9135,"ĠAh":9136,"athan":9137,"Ġguide":9138,"Ġchanging":9139,"Ġsomew":9140,"Fin":9141,"DOCTYPE":9142,"Ġnumerous":9143,"Ġconsult":9144,"cases":9145,"Ġpartition":9146,"Ġassigned":9147,"Dem":9148,"ĠjQuery":9149,"Ġperhaps":9150,"unte":9151,"Ġfreedom":9152,"dependent":9153,"Ġfan":9154,"original":9155,"TT":9156,"ĠIran":9157,"Ġadministration":9158,"ĠRequest":9159,"RES":9160,"Ġawarded":9161,"ĠMi":9162,"ĠRest":9163,"bg":9164,"odec":9165,"andon":9166,"Ġsimulations":9167,"Ġleaves":9168,"ÏĦ":9169,":#":9170,"attery":9171,"Ġenvironmental":9172,"folio":9173,"Ġflo":9174,"Cons":9175,"ĠSports":9176,"Ġskip":9177,"Ġlattice":9178,"ĠHTTP":9179,"Attr":9180,"ĠInvest":9181,"cert":9182,"onical":9183,"enger":9184,"Ġenv":9185,"ingly":9186,"Ġtimeout":9187,"ĠBow":9188,"Ġleadership":9189,"ket":9190,"sen":9191,"istical":9192,"Ġhistorical":9193,"getElement":9194,"Math":9195,"Ġstuff":9196,"ĠIslam":9197,"Ġregistered":9198,"Region":9199,"Ġgather":9200,"Ã¢":9201,"eld":9202,"ĠNav":9203,"Don":9204,"ĠallClasses":9205,"_*":9206,"Ġelim":9207,"ĠPRO":9208,"ĠallClassesLink":9209,"Ġarticles":9210,"Texture":9211,"Second":9212,"Ġcontem":9213,"Ġnotes":9214,"Ġaffected":9215,"Ġextend":9216,"Player":9217,"Ġmiles":9218,"words":9219,"ĠFI":9220,"bc":9221,"PORT":9222,"Ġcoverage":9223,"Ġ{\"":9224,"Ĥ¬":9225,"Ġappre":9226,"identifier":9227,"Ġspan":9228,"Ġ}\\":9229,"Ġmultip":9230,"fd":9231,"Ġboy":9232,"Ġscalar":9233,"ulator":9234,"Ġran":9235,"Ġanimation":9236,"Ġexplan":9237,"itionally":9238,"ĠWilliams":9239,"sto":9240,"Ġbudget":9241,"Ð²":9242,"ĠWho":9243,"Ġintroduce":9244,"Ġfunctional":9245,"abil":9246,"=>":9247,"atters":9248,"Ġdepending":9249,"gradle":9250,"Ġpet":9251,"Ġwish":9252,"ĠSE":9253,"stra":9254,"udes":9255,"ishop":9256,"Sm":9257,"Ġapparent":9258,"Why":9259,"Ġ).":9260,"Visible":9261,"PU":9262,"Ġjump":9263,"1950":9264,"omorphism":9265,"Ġhousehold":9266,"WR":9267,"ses":9268,"ĠSoftware":9269,"Ġassign":9270,"ĠProposition":9271,"Domain":9272,"ĠHy":9273,"POST":9274,"poly":9275,"inds":9276,"friend":9277,"Users":9278,"AV":9279,"180":9280,"mc":9281,"ea":9282,"SM":9283,"assembly":9284,"ALSE":9285,"*{":9286,"linewidth":9287,"Enter":9288,"BI":9289,"fast":9290,"Ġlett":9291,"Ġking":9292,"Ġinstruction":9293,"kens":9294,"Ġturns":9295,"ĠArrayList":9296,"Ġsinger":9297,"ĠSource":9298,"ĠMen":9299,"bigg":9300,"Ġassumed":9301,"Ġthinking":9302,"aka":9303,"Ġdocumentation":9304,"Ġachieved":9305,"ucky":9306,"sid":9307,"ĠMarket":9308,"Ġexplain":9309,"ollary":9310,"ez":9311,"acts":9312,"Ġsimulation":9313,"Ġmapping":9314,"EEEE":9315,"ogy":9316,"Ġtopic":9317,"SCR":9318,"cluster":9319,"flag":9320,"ĠON":9321,"ĉĠĠĠĠĠĠĠ":9322,"1983":9323,"Ġcandidates":9324,"ĠHon":9325,"Ġsemi":9326,"Generated":9327,"ĠÐ¿":9328,"Ġsections":9329,"Ġparallel":9330,"Area":9331,"Ġattacks":9332,"Ġthick":9333,"Ġreserved":9334,"Ġdeveloping":9335,"ĠJon":9336,"PM":9337,"Ġspectral":9338,"pu":9339,"Ġcrow":9340,"ĠAff":9341,"ĠGre":9342,"125":9343,"Conn":9344,"Ġinitially":9345,"Ġhappy":9346,"ĠFire":9347,"oment":9348,"cher":9349,"ĠNY":9350,"ĠJoseph":9351,"Ġuncertain":9352,"ĠCEL":9353,"Ġimproved":9354,"helper":9355,"osa":9356,"Ġmainly":9357,"Ġtend":9358,"Ġearth":9359,"umes":9360,"Ġdriving":9361,"Ġinvariant":9362,"Ġcarbon":9363,"textsc":9364,"Ġaccepted":9365,"bro":9366,"Ġexplained":9367,"ampling":9368,"views":9369,"ĠMichigan":9370,"Ġlearned":9371,"ĠĠĠĠĠĠĠĠĠĠĠĠĠĠĠĠĠĠĠĠĠĠĠĠĠĠĠĠ":9372,"ndef":9373,"Ġclients":9374,"Wallet":9375,"Ã£o":9376,"Ġstatistics":9377,"async":9378,"Ġwriters":9379,"Ġdedicated":9380,"Ġsuc":9381,"1982":9382,"ĠKen":9383,"ĠBrazil":9384,"Ġdisabled":9385,"ĠLiber":9386,"Ġadvanced":9387,"eper":9388,"Ġtrace":9389,"Ġforeach":9390,"'_":9391,"DR":9392,"Ġ|\\":9393,"Ġthank":9394,"ĠOlympics":9395,"Ġbed":9396,"ĠSciences":9397,"('#":9398,"Ġlaws":9399,"Ġdebug":9400,"Ġrough":9401,"ĠMah":9402,"Short":9403,"Ġassumption":9404,"Ġestimates":9405,"ĠVan":9406,"ĠLight":9407,"Ġeye":9408,"During":9409,"Ġreferred":9410,"ĠSte":9411,"Services":9412,"inity":9413,"Ġlat":9414,"DateTime":9415,";\">":9416,"Ġbiggest":9417,"Ġlived":9418,"Ġrotation":9419,"Ġrgba":9420,"Ġupdates":9421,"sidebar":9422,"ictures":9423,"VM":9424,"Ġusage":9425,"ĠSand":9426,"complete":9427,"FLA":9428,"ĠWild":9429,"PY":9430,"ĠColumb":9431,"ÐµÐ½":9432,"vo":9433,"isc":9434,"mond":9435,"Ġpil":9436,"Ġlimits":9437,"Ġintended":9438,"HTTP":9439,"Headers":9440,"ĠPolice":9441,"Ġclassification":9442,"Ð°Ð½":9443,"\"\"\"":9444,"Ġcoordinates":9445,"']['":9446,"ĠNight":9447,"creens":9448,"Ġmorph":9449,"Ġchair":9450,"Ġdoll":9451,"Fragment":9452,"Interval":9453,"ĠEnvironment":9454,"Ġdetected":9455,"Ġconvention":9456,"Ġmeasurement":9457,"ĠPerson":9458,"101":9459,"plates":9460,"Ġpaths":9461,"illy":9462,"Ġcars":9463,"Ġstrongly":9464,"ateway":9465,"ĠCommand":9466,"Ġsolar":9467,"ĠCR":9468,"np":9469,"ila":9470,"Ġtemp":9471,"Ġhappens":9472,"eli":9473,"Ġdegrees":9474,"Ġadministr":9475,"Ġtrees":9476,"agnostic":9477,"oral":9478,"ummy":9479,"ĠFrancisco":9480,"Ġseat":9481,"Ġpsych":9482,"atever":9483,"ultural":9484,"Ġfunds":9485,"Ġrows":9486,"produ":9487,"ĠHttp":9488,"Ġdiscovered":9489,"Ġmedium":9490,"Ġhelps":9491,"warning":9492,"Ġcorner":9493,"Ġprotein":9494,"ĠWhy":9495,"month":9496,"Ġaw":9497,"ĠLear":9498,"Uri":9499,"Ġmarked":9500,"Ġtracks":9501,")->":9502,"Ġinvestigation":9503,"Ġchemical":9504,"Ġ\\(":9505,"twitter":9506,"newcommand":9507,"Ġcancel":9508,"Ġui":9509,"ĠDocument":9510,"Ġproport":9511,".<":9512,"pattern":9513,"Ġnullptr":9514,"ĠSenate":9515,"ĠLike":9516,"ĠRadio":9517,"Ġdefense":9518,"periment":9519,"Ġtells":9520,"Ġsuggested":9521,"comes":9522,"FORM":9523,":`":9524,"Ġlies":9525,"Ġconven":9526,"ÛĮ":9527,"Ġuniversity":9528,"ĠEr":9529,"Ġtmp":9530,"Compat":9531,"ĠLuc":9532,"Ġsucceed":9533,"ĠWall":9534,"Ġevaluation":9535,"Ids":9536,"Ġdialog":9537,"iration":9538,"Ġmeta":9539,"Ġsecondary":9540,"Ġstreet":9541,"ĠAdv":9542,"Ġunderlying":9543,"ĠEmp":9544,"Ġbounds":9545,"ĠNext":9546,"ĠCollection":9547,"ĠEnergy":9548,"LINE":9549,"Ġkernel":9550,"checked":9551,"Ġcapture":9552,"Ġpal":9553,"ountry":9554,"ĠOriginal":9555,"Multi":9556,"download":9557,"timeout":9558,"itivity":9559,"Ġmotor":9560,"Ġowned":9561,"Ġsyn":9562,"ni":9563,"iveness":9564,"1979":9565,"ifts":9566,"-(":9567,"vania":9568,"commit":9569,"mouse":9570,"Ġscroll":9571,"una":9572,"hard":9573,"ĠBoston":9574,"Ġmunicip":9575,"testing":9576,"Ġproducer":9577,"Ġalumni":9578,"ĠHospital":9579,"glyph":9580,"Ġbin":9581,")}(":9582,"001":9583,"Jan":9584,"Ġyourself":9585,"Ġlabels":9586,"Ġordered":9587,"Returns":9588,"Ġapplicable":9589,"Ġpurposes":9590,"Ġbasketball":9591,"Ġcollected":9592,"Children":9593,"Ġplanet":9594,"ĠâĢ¢":9595,"Look":9596,"Tra":9597,"Ġriver":9598,"oes":9599,"Ġfavorite":9600,"REQ":9601,"imated":9602,"ĠMot":9603,"imb":9604,"actic":9605,"Ġconsidering":9606,"Ġcmd":9607,"python":9608,"Further":9609,"Ġdimensions":9610,"Ġcoefficients":9611,"ĠEU":9612,"Ġexerc":9613,"Ġaddresses":9614,"ĠEth":9615,"issue":9616,"Animation":9617,"Sequence":9618,"Î¹":9619,"Ġbench":9620,"blog":9621,"ogram":9622,"agers":9623,"kwargs":9624,"Ġinstances":9625,"GA":9626,"Ġ''":9627,"DEFAULT":9628,"ĠBang":9629,"Ġemph":9630,")\\,":9631,"Ġvictory":9632,"Ġflight":9633,"Mer":9634,"ixels":9635,"ĠChristmas":9636,"Ġends":9637,"Ġissued":9638,"ĠChris":9639,"kt":9640,"ĠMike":9641,"Ġusual":9642,"Ġproved":9643,"ä»":9644,"Ġadvance":9645,"dy":9646,"brid":9647,"Ġsubstant":9648,"ĠEND":9649,"Previous":9650,"Ġnp":9651,"Ġ\"$":9652,"()))":9653,"åĪ":9654,"/\"":9655,"nodes":9656,"Len":9657,"Ġexecute":9658,"ifdef":9659,"nob":9660,"ĠProperty":9661,"Many":9662,"pot":9663,"watch":9664,"IE":9665,"Ġcircle":9666,"ĠSaint":9667,"cha":9668,"water":9669,"Ġignore":9670,"ĠPlease":9671,"STATE":9672,"Ġcommission":9673,"Ġvehicles":9674,"iate":9675,"gypt":9676,"ĠSaf":9677,"Ġtheoret":9678,"awa":9679,"orient":9680,"Ġprices":9681,"ĠASSERT":9682,"Just":9683,"iant":9684,"EEEEFF":9685,"Ġsleep":9686,"subfigure":9687,"Ġanimals":9688,"ĠTaylor":9689,"hab":9690,"213":9691,"ĠPacific":9692,"ĠNorthern":9693,"itage":9694,"ĠNon":9695,"Ġspeech":9696,"Ġtreated":9697,"ĠSIZE":9698,"Ġplugin":9699,")_{":9700,"edu":9701,"peat":9702,"Ġmd":9703,"Ġsuggests":9704,"tk":9705,"Ġtournament":9706,"Ġgone":9707,"Day":9708,"onto":9709,"ĠPrem":9710,"Ġcrisis":9711,"Ġdiss":9712,"adel":9713,"Ġacid":9714,"vin":9715,"cknowled":9716,"RPC":9717,"Ġfacilities":9718,"TF":9719,"Ġminimal":9720,"named":9721,"ĠWalk":9722,"Ġangular":9723,"Ġfeat":9724,"pag":9725,"Ġinstant":9726,"Ġfellow":9727,"Ġcertainly":9728,"),\\":9729,"Ġaggreg":9730,"ĠRo":9731,"colon":9732,"Bean":9733,"evin":9734,"ITION":9735,"ĠHor":9736,"ushed":9737,"bd":9738,"ĠAz":9739,"orial":9740,"ĠAsian":9741,"reatest":9742,"Flow":9743,"Ġ&=&":9744,"Ġreceiving":9745,"console":9746,"encing":9747,"ĠInternet":9748,"Ġloaded":9749,"Care":9750,"ĠDaniel":9751,"Lin":9752,"ĠFar":9753,"Ġfragment":9754,"Ġprepar":9755,"Ġalgorithms":9756,"ĠIR":9757,"VBAR":9758,"ĠSelect":9759,"Ġpatterns":9760,"Audio":9761,"Ġidx":9762,"Ġfashion":9763,"ĠAdminist":9764,"ĠTerm":9765,"ĠJeff":9766,"atomic":9767,"ryption":9768,"Ġconstraint":9769,"Ġhypot":9770,"Ġacademic":9771,"pair":9772,"Hub":9773,"proxy":9774,"ĠAndrew":9775,"NC":9776,"LOCK":9777,"Tile":9778,"Ġregional":9779,"PD":9780,"Ġefficiency":9781,"ĠSir":9782,"Scal":9783,"Ġvision":9784,"Ġsport":9785,"ĠJackson":9786,"Ġinequality":9787,"Ġspecify":9788,"ĠSpace":9789,"Ġweather":9790,"ĠNAVBAR":9791,"Ġofficers":9792,"Ġinfe":9793,"esian":9794,"ilib":9795,"lipse":9796,"ĠLive":9797,"lan":9798,">\\":9799,"Ġpermit":9800,"STRING":9801,"1981":9802,"Ġtranslation":9803,"ĠOx":9804,"Ġmarketing":9805,"Vertex":9806,"ĠSD":9807,"ĠSouthern":9808,"agonal":9809,"Ġdecades":9810,"Ġfiction":9811,"Append":9812,"Ġcold":9813,"Ġhers":9814,"ĠPH":9815,"syl":9816,"ĠFederal":9817,"notes":9818,"calendar":9819,"Ġdistributions":9820,"Ġextremely":9821,"SK":9822,"Ġtalking":9823,"azy":9824,"$^{-":9825,"Serv":9826,"tar":9827,"ĠStudies":9828,"ĠJustice":9829,"General":9830,"Ġroles":9831,"Encoded":9832,"Ġdepart":9833,"ĠMid":9834,"Ġyouth":9835,"pull":9836,",'":9837,")[":9838,"}}(\\":9839,"ĠCommon":9840,"Ġresolve":9841,"Ġdestination":9842,"owner":9843,"Ġcurves":9844,"Ġpartnership":9845,",\\,":9846,"Miss":9847,"Ø±":9848,"Ġfre":9849,"amps":9850,"Required":9851,"Ġexecutive":9852,"ĠMedicine":9853,"transition":9854,"Ġevaluate":9855,"ĠFood":9856,"Ġatmosph":9857,"expr":9858,"possible":9859,"irds":9860,"Mask":9861,"Ġreligious":9862,"sky":9863,"Ġseasons":9864,"Ġthanks":9865,"Ġfootballers":9866,"ĠHarr":9867,"Ġ}}":9868,"Ġburn":9869,"Ġcounty":9870,"NavBarFont":9871,"Ġreviews":9872,"Methods":9873,"æľ":9874,"enth":9875,"you":9876,"Ġrecip":9877,"Ġmist":9878,"rons":9879,"Sort":9880,"BB":9881,"extension":9882,"Ġkill":9883,"EST":9884,"aya":9885,"Ġclaimed":9886,"Delegate":9887,"ĠIrish":9888,"Ġplants":9889,"aph":9890,"ennis":9891,"ourse":9892,"Ġorders":9893,"Ġregime":9894,"Namespace":9895,"ĠDaily":9896,"prise":9897,"Allow":9898,"oked":9899,"Ġinstrument":9900,"Ġexperiences":9901,"ĠHas":9902,"Ġbegins":9903,"Ġreson":9904,"Ġnewsp":9905,"isted":9906,"Ġpassing":9907,"MIN":9908,"okes":9909,"Ġrequested":9910,"Bind":9911,"Ġmedal":9912,"atern":9913,"tained":9914,"ĠTw":9915,"ĠLOG":9916,"Ġfee":9917,"Ġtrib":9918,"Pair":9919,"Ġexplore":9920,"kes":9921,"subsubsection":9922,"oses":9923,"verb":9924,"\\_":9925,"Ġinspired":9926,"Ġstandards":9927,"Ġadmin":9928,"Ġsubset":9929,"Ġphenomen":9930,"Ġtalent":9931,"highlight":9932,"yy":9933,"overview":9934,"(@":9935,"NR":9936,"Ġassociation":9937,"cles":9938,"ulf":9939,"lat":9940,"ĠSpring":9941,"perp":9942,"ĠSpain":9943,"ĠMu":9944,"Ġaren":9945,"activity":9946,"seg":9947,"ĠCase":9948,"Notes":9949,"Ġcomfort":9950,"gb":9951,"Å¡":9952,"Ġsizes":9953,"fc":9954,"ĠEst":9955,"special":9956,"DEBUG":9957,"Ġpitch":9958,"ĠDemocratic":9959,"Ġ+\\":9960,"such":9961,"Ġcontents":9962,"Ġnucle":9963,"oviet":9964,"Free":9965,"Ġtwice":9966,"Ġalert":9967,"Ġshell":9968,"TRUE":9969,"pping":9970,"Ġcalculate":9971,"Ġexpos":9972,"Ġmanner":9973,"Ġviolence":9974,"Ġjourney":9975,"Connect":9976,"zab":9977,"Ang":9978,"Ġwaiting":9979,"bas":9980,"ÑģÑĤ":9981,"GR":9982,"gal":9983,"Ġexpanded":9984,"Ġ$$":9985,"Ġax":9986,"ĠRights":9987,"socket":9988,"getElementById":9989,"Ġvalidate":9990,"Ġinjury":9991,"ĠRefer":9992,"Ġfundamental":9993,"ĠLy":9994,".~(\\":9995,"changed":9996,"1978":9997,"Make":9998,"ĠMcC":9999,"Ġperturb":10000,"Ġpossibly":10001,"orney":10002,"Ġneighborhood":10003,"etes":10004,"setup":10005,"Ġtrained":10006,"egr":10007,"supported":10008,"ĠWin":10009,"ĠWat":10010,"ĠPolit":10011,"FE":10012,"Ġsupporting":10013,"/.":10014,"ĠCivil":10015,"Ġdesired":10016,"1976":10017,"route":10018,"Ġindeed":10019,"ĠLim":10020,"Ġintegration":10021,"Ġnavbar":10022,"Warning":10023,"pb":10024,"Ġserving":10025,"Ġoffering":10026,"Ġacts":10027,"sime":10028,"decl":10029,"ĠMajor":10030,"Ġfuel":10031,"clone":10032,"Detail":10033,"Ġdual":10034,"Ġseeing":10035,"ĠFOR":10036,"'];":10037,"Ġrecording":10038,"Ġpractices":10039,"ĠRa":10040,"ĠGeorgia":10041,"Ġtrip":10042,"Ġprime":10043,"Îµ":10044,"unately":10045,"ĠSQL":10046,"undefined":10047,"=\\\"":10048,"1975":10049,"Ġsingular":10050,"Ð¼":10051,")^{\\":10052,"compile":10053,"%.":10054,"ĠChange":10055,"Ġremark":10056,"Ġdelivery":10057,"Ġcontrols":10058,"simeq":10059,"ĠALIGN":10060,"ENSE":10061,"Ġprev":10062,"plementation":10063,"library":10064,"Ġreset":10065,"$$\\":10066,"English":10067,"ĠTheatre":10068,"isting":10069,"Ġlistener":10070,";)":10071,"ĠassertThat":10072,"Ġreferences":10073,"ressed":10074,"sylvania":10075,"uts":10076,"Ġreaction":10077,"(\"/":10078,"Ġcauses":10079,"Program":10080,"Ġdistingu":10081,"Should":10082,"VALUE":10083,"Ġcrime":10084,"OM":10085,"Enumer":10086,"Ġdependence":10087,"Ġrain":10088,"ĠAmericans":10089,"Ġsb":10090,"ĠElement":10091,"accept":10092,"Ġsides":10093,"Ġdrama":10094,"Ġcov":10095,"ĠFinally":10096,"Ġstellar":10097,"isa":10098,"ĠResponse":10099,"Under":10100,"Ġdependencies":10101,"Ġsexual":10102,"Ġlayers":10103,"Ġsaved":10104,"seq":10105,"ĠBern":10106,"Ġemotion":10107,"ĠSi":10108,"1972":10109,"signature":10110,"Ġ];":10111,"Ġphotograph":10112,"ritical":10113,"navigation":10114,"ĠDigital":10115,"Ġlisting":10116,"Join":10117,"Ġcitizens":10118,"Where":10119,"Ġaccurate":10120,"visible":10121,"zip":10122,"(--":10123,"flat":10124,"separ":10125,"Ġincident":10126,"origin":10127,"ĠANY":10128,"AU":10129,"avid":10130,"Ã±":10131,"BPACK":10132,"forall":10133,"king":10134,"nc":10135,"merce":10136,"ĠBas":10137,"Ġoptical":10138,".\",":10139,"Tube":10140,"pare":10141,"[(":10142,"constr":10143,"oster":10144,"trace":10145,"Ġvent":10146,"1974":10147,"Ġfinds":10148,"ĠParliament":10149,"=\"../../../../../../../":10150,",$":10151,"ĠSea":10152,"objects":10153,"Normal":10154,"Ġadm":10155,"Ġschema":10156,"}$-":10157,"anes":10158,"Ġsan":10159,"slice":10160,"Ġfant":10161,"hu":10162,"Ġobserve":10163,"ĠJes":10164,"Ġcm":10165,"Light":10166,"Ġsister":10167,")_":10168,"ĠBol":10169,"irror":10170,"áĥ":10171,"Ġglass":10172,"news":10173,"ĠValid":10174,"Ġexceed":10175,"ancell":10176,"Ġprops":10177,"\"],":10178,"ĠTele":10179,"ĠCarl":10180,"Ġmyst":10181,"shop":10182,"inator":10183,"Ġspecifically":10184,"ĠRepublican":10185,"Admin":10186,"Sur":10187,"dc":10188,"EventListener":10189,"Ġtechnique":10190,"ĠJr":10191,"ĠLie":10192,"ĠOhio":10193,"ĠBroad":10194,"Ġcolon":10195,"Mouse":10196,"Ġconfigure":10197,"Ġcursor":10198,"Save":10199,"Ġven":10200,"ĠInput":10201,"Ġrepeated":10202,"ĠComput":10203,"law":10204,"database":10205,"asets":10206,"ĠFind":10207,"Ġeasier":10208,"ĠLittle":10209,"Ġsynchron":10210,"ĠCro":10211,"ĠPay":10212,"QU":10213,"duration":10214,"ĠBoolean":10215,"Ġnarr":10216,"sem":10217,"Ġpieces":10218,"tp":10219,"blem":10220,"Ġrom":10221,"Ġknows":10222,"once":10223,"GEN":10224,"empt":10225,"Ġcolle":10226,"Ġsouthern":10227,"Cast":10228,"Ġfilled":10229,"Writ":10230,"Ġpolitics":10231,"Ġescape":10232,"Ġfigures":10233,"Ġdispl":10234,"Ġspring":10235,"Ġsecure":10236,"GC":10237,"Ġtsd":10238,"ĠMic":10239,"initely":10240,"Ġpermission":10241,"âĢ¢":10242,"ĠCoast":10243,"ĠNiger":10244,"uv":10245,"Ġtransactions":10246,"ĠPakistan":10247,"tc":10248,"osity":10249,"ĠQueen":10250,"Move":10251,"inciple":10252,"semble":10253,"Ġcircum":10254,"Ġseed":10255,"Ġparticipants":10256,")},":10257,"Ġnice":10258,"Ġdiam":10259,"adesh":10260,"closed":10261,"Ġagency":10262,"$).":10263,"expand":10264,"Ġacting":10265,"ĠGreek":10266,"Ġcategories":10267,"opic":10268,"Ġhair":10269,"ĠFinal":10270,"Ġconcerns":10271,"amber":10272,"Endpoint":10273,"Ġcriminal":10274,"Ġtail":10275,")^{-":10276,"%\"":10277,"700":10278,"avit":10279,"Notification":10280,"Sch":10281,"Ġda":10282,"Environment":10283,"vertical":10284,"ĠWis":10285,"ĠKim":10286,"logo":10287,"Ġfacility":10288,"Ġgender":10289,"Ġliqu":10290,"Ign":10291,"Transport":10292,"icer":10293,"Ġcharged":10294,"Posted":10295,"ANCE":10296,"created":10297,"aked":10298,"ĠDB":10299,"Ġmo":10300,"Ġ$-":10301,"iliar":10302,"ĠDub":10303,"vol":10304,"perm":10305,"ĠWilson":10306,"ĠSpe":10307,"Ġmagazine":10308,"gi":10309,"Ġbridge":10310,"Ġsale":10311,"Ġmagnitude":10312,"Ġyields":10313,"Ġattended":10314,"Ġgeometry":10315,"PUT":10316,"arse":10317,"ĠProfessor":10318,"Forms":10319,"Ġdescribes":10320,"assandra":10321,"bre":10322,"ti":10323,"Ġvalidation":10324,"brand":10325,"}}^":10326,"Ġscientific":10327,"Ġcaref":10328,"Ġactress":10329,"Ġscenario":10330,"Ġsubstantial":10331,"Theme":10332,"Ġdenotes":10333,"1977":10334,"!\"":10335,"Ġ@\"":10336,"ĠStan":10337,"Fore":10338,"æĸ":10339,"alert":10340,"ĠRen":10341,"NSString":10342,"animation":10343,"Ġdrag":10344,"ycle":10345,"ĠSem":10346,"inois":10347,"ĠNavy":10348,"CB":10349,"ĠConf":10350,"eek":10351,"Ġvideos":10352,"burgh":10353,"Ġconj":10354,"Ġcoordinate":10355,"Ġspectra":10356,"tri":10357,"ELD":10358,"Ġing":10359,"{$\\":10360,"Dictionary":10361,"Ġfaith":10362,"apsed":10363,"ĠCamb":10364,"Ġthousands":10365,"ĠAI":10366,"Ġopts":10367,"Ġcer":10368,"Ġnarrow":10369,"apis":10370,"Ġherself":10371,"wt":10372,"release":10373,"Ġportr":10374,"cret":10375,"Thus":10376,"Ġfeeling":10377,"Ġnorthern":10378,"SELECT":10379,"ĠBritain":10380,"indu":10381,"........":10382,"Ms":10383,"Flag":10384,"react":10385,"Cloud":10386,"Ġwarning":10387,"ilevel":10388,"6666":10389,"Ġmyself":10390,"Ġemit":10391,"Ġobservation":10392,"Ġsolve":10393,"Ġsand":10394,"ĠJewish":10395,"ĠRay":10396,"Ġsud":10397,"Ġcart":10398,"ĠCurrent":10399,"Consumer":10400,"Ġcontrolled":10401,"clusions":10402,"VD":10403,"selector":10404,"ERS":10405,"ĠAli":10406,"Ġmanage":10407,"yo":10408,"1968":10409,"ANT":10410,"Ġcas":10411,"Ġconn":10412,"Ġhousing":10413,"icted":10414,"Div":10415,"aneous":10416,"optional":10417,"ows":10418,"Ġwhereas":10419,"mag":10420,"ĠĠĠĠĠĠĠĠĠĠĠĠĠĠĠĠĠĠĠĠĠĠĠĠĠĠĠĠĠĠ":10421,"bean":10422,"rog":10423,"submit":10424,"Ġaspects":10425,"Ġtested":10426,"runtime":10427,"onymous":10428,"Î½":10429,"ĠMaster":10430,"ugs":10431,"exit":10432,"Early":10433,"Ġmodal":10434,"sync":10435,"rece":10436,"ĠWales":10437,"ĠApplication":10438,"1973":10439,"lywood":10440,"LSP":10441,"Ġspend":10442,"runner":10443,"ickets":10444,"trim":10445,"Ġcompatible":10446,"Ġpseud":10447,"iÃ³n":10448,"Ġtrav":10449,"Ġgeneric":10450,"Ġagents":10451,"destroy":10452,"Ġinn":10453,"****************************************************************":10454,"ivated":10455,"VALID":10456,"Ġannounce":10457,"ĠFROM":10458,"Copyright":10459,"Screen":10460,"Ġ\\\"":10461,"Ġholding":10462,"}^*":10463,"Ġbroken":10464,"Ġles":10465,"Ġfeedback":10466,"Ġprepared":10467,"some":10468,"Ġconsumer":10469,"Ġwidely":10470,"anna":10471,"dark":10472,"Begin":10473,"Please":10474,"Ġwinner":10475,"elly":10476,"igate":10477,"InputStream":10478,"WEBPACK":10479,"Ġaccomp":10480,"Ð´":10481,"Ġenum":10482,"Sql":10483,"Ġsharing":10484,"Plan":10485,"Ġdance":10486,"Ġelections":10487,"Ġnewly":10488,"Ġpriv":10489,"methods":10490,"Ġ'\\":10491,"Ġ\">":10492,"Ġbind":10493,"Ġwitness":10494,"IOException":10495,"asm":10496,"ĠEV":10497,"Ġmarkets":10498,"FUN":10499,"DATA":10500,"ĠWIDTH":10501,"ponential":10502,"resolve":10503,"ĠKr":10504,"ĠSom":10505,"ĠDescription":10506,"Ġexcellent":10507,"getValue":10508,"Ġdecisions":10509,"Ġdiagn":10510,"ktop":10511,"Ġtight":10512,"feed":10513,"ĠOS":10514,"Native":10515,"dig":10516,"ailability":10517,"YY":10518,"Ġhole":10519,"omorphic":10520,"aret":10521,"validate":10522,"eveloper":10523,"Nov":10524,"Photo":10525,"ĠRepresent":10526,"^{+":10527,"Ġthermal":10528,"ipher":10529,"mazing":10530,"!âĢĿ":10531,"Watch":10532,"mass":10533,"Ġrelationships":10534,"ĠCov":10535,"Ġtempor":10536,"orough":10537,"Ġbundle":10538,"Ġpolitician":10539,"Ġinduced":10540,"ĠKent":10541,"ĠCur":10542,"chester":10543,"counter":10544,"cheduler":10545,"specific":10546,"UD":10547,"Ġentirely":10548,"Pack":10549,"Ġpurchase":10550,"Ġliber":10551,"ĠFurthermore":10552,"Ġbatch":10553,"Ġinfrastructure":10554,"Ġlanguages":10555,"elem":10556,"Ġbuf":10557,"ĠThree":10558,"Volume":10559,"paper":10560,"ĠKong":10561,":[":10562,"Ġbelieved":10563,"Ġfaster":10564,"ubble":10565,"catch":10566,"Ġprincipal":10567,"ibli":10568,"radio":10569,"Ġmental":10570,"IMPORTED":10571,"Ġassembly":10572,"icode":10573,"Coll":10574,"ĠPennsylvania":10575,"METH":10576,"ĠScotland":10577,"ĠSat":10578,"ĠÂ»":10579,"icing":10580,"oir":10581,"Ġanimal":10582,"remark":10583,"ĠGar":10584,"retch":10585,"Ġgirls":10586,"ARCH":10587,"Ġchampionship":10588,"Ġperforming":10589,"jack":10590,"pres":10591,"Ġgalaxy":10592,"Ġadopted":10593,"ĠBad":10594,"idae":10595,"ĠMember":10596,"Ð¾Ð²":10597,"Ġmatrices":10598,"ĠCam":10599,"ĠBal":10600,"Landroid":10601,"ĠJersey":10602,"Ġpayment":10603,"ving":10604,"ĠRh":10605,"Ġreadonly":10606,"ĠKnow":10607,"goto":10608,"ĠĠĠĠĠĠĠĠĠĠĊ":10609,"ĠArea":10610,"Ġteacher":10611,"çĶ":10612,"odot":10613,"Ġinstitutions":10614,"ĠToday":10615,"uls":10616,"have":10617,"ILD":10618,"Ġopacity":10619,"Lower":10620,"Ġcreative":10621,"Ġion":10622,"Db":10623,"opts":10624,"ĠFull":10625,"thrift":10626,"Ġmel":10627,"Ġretail":10628,"isEmpty":10629,"vals":10630,"constructor":10631,"Ñĩ":10632,"National":10633,"Ġener":10634,"spacing":10635,"ĠEgypt":10636,"Ġclusters":10637,"Ġpossibility":10638,"ulner":10639,"ifndef":10640,"Ġtargets":10641,"Ġmand":10642,"UST":10643,"Ġsurg":10644,"rium":10645,"ĠDC":10646,"Ġconfidence":10647,"ĠOnce":10648,"Ġexplanation":10649,"Wait":10650,"Ġguess":10651,"Ġsatisfy":10652,"Constant":10653,"ulating":10654,"Ġconcert":10655,"ĠClient":10656,"DIS":10657,"Ġsending":10658,"Ġcouncil":10659,"unny":10660,"Ġera":10661,"ĠStruct":10662,"ĠBrook":10663,"Ġlinked":10664,"fall":10665,"ĠVideo":10666,"pir":10667,"ĠBa":10668,"rie":10669,"Ġprimarily":10670,"photon":10671,"Ġaccounts":10672,"quote":10673,"Ġopinion":10674,"uma":10675,"SCRIPT":10676,"Â°":10677,"Navigation":10678,"Ġcharges":10679,"Effect":10680,"ĠÂ©":10681,"trl":10682,"ĠAD":10683,"ĠAnother":10684,"Ġcert":10685,"Private":10686,"Driver":10687,"Ġvectors":10688,"Ġactors":10689,"redu":10690,"Proto":10691,"Ġmasses":10692,"ĠBeach":10693,"batch":10694,"ĠAT":10695,"pler":10696,"Ġ([":10697,"Ġstrategies":10698,"urations":10699,"ORDER":10700,"inson":10701,"Ġsubsequent":10702,"mn":10703,"ĠEngineering":10704,"Ġmal":10705,"ANG":10706,"Ġadvoc":10707,"sex":10708,"Ġdire":10709,"Ġplanned":10710,"factory":10711,"Ġbands":10712,"{\"":10713,"Ġadvent":10714,"Export":10715,"Once":10716,"Focus":10717,"Ġcalculation":10718,"SG":10719,"Ġradiation":10720,"memory":10721,"ĠCore":10722,"Ġfort":10723,"Contact":10724,"sig":10725,"conv":10726,"utr":10727,"ori":10728,"Ġinject":10729,"(\"#":10730,"Ġsys":10731,"apore":10732,"Ġancient":10733,"verter":10734,"Ġprogramming":10735,"Ġpromin":10736,"Ñĸ":10737,"Setting":10738,"Ġperspective":10739,"ĠPA":10740,"Ġaccident":10741,"ĠMuslim":10742,"ORY":10743,"Ġhelping":10744,"ĠCloud":10745,"Ġmarriage":10746,"Ġmouse":10747,"ifferent":10748,"Validator":10749,"Ġprediction":10750,"lets":10751,"ĠNa":10752,"ĠLabor":10753,"arters":10754,"typename":10755,"Ġur":10756,"Ġtags":10757,"Ġbeam":10758,"SV":10759,"COMP":10760,"Ġlargely":10761,"ï¼Į":10762,"Ġmodify":10763,"Information":10764,"Ġ'./":10765,"Ġclassic":10766,"REG":10767,"Ġelectronic":10768,"ĠWrit":10769,"Ġshares":10770,"ĠKn":10771,"scill":10772,"Ġarrived":10773,"Overview":10774,"Ġexplicitly":10775,"Ġ'',":10776,"1969":10777,"Ġpriority":10778,"wbr":10779,"Caml":10780,"Ġclock":10781,"construct":10782,"ysical":10783,"Capt":10784,"Ġopposite":10785,"teen":10786,"Ġschedule":10787,"Leg":10788,"Ġperman":10789,"Comple":10790,"facebook":10791,"Ġtruly":10792,"ĠStatus":10793,"bet":10794,"Ġlie":10795,"policy":10796,"Ġmoments":10797,"illis":10798,"Ali":10799,"amely":10800,"Ġpromise":10801,"Ġ'';":10802,"driver":10803,"Ġkick":10804,"aga":10805,"cam":10806,"plicated":10807,"Ġkeeping":10808,"Ġmigr":10809,"Ġcrew":10810,"Every":10811,"Ġgene":10812,"Ġpa":10813,"uset":10814,"Ġdiscover":10815,"Real":10816,"havior":10817,"zabeth":10818,"cli":10819,"ĠSH":10820,"verage":10821,"ĠRegion":10822,"Ġcomplexity":10823,"Constructor":10824,"ATED":10825,"Ġskin":10826,"Ġbehaviour":10827,"transaction":10828,"nic":10829,"Ġsuitable":10830,"Ġmerge":10831,"apol":10832,"pmatrix":10833,"zed":10834,"Ġposted":10835,"Ġapilevel":10836,"å®":10837,"Ġbow":10838,"rovers":10839,"Ġbinding":10840,"Release":10841,"onia":10842,"merge":10843,"Ġelev":10844,"Ġdifferential":10845,"Ġrobust":10846,"Ġcomposition":10847,"BL":10848,"ĠSets":10849,"repository":10850,"tenance":10851,"Ġproperly":10852,"Ġstatements":10853,"Ġ\"\";":10854,"Validation":10855,"eled":10856,"ĠSus":10857,"ĠSche":10858,"Unknown":10859,"Serializer":10860,"messages":10861,"ĠAsh":10862,"isset":10863,"Ġcommitted":10864,"Ġinputs":10865,"ĠLag":10866,"Ġunderst":10867,"standard":10868,"ĠBiden":10869,"Ġnearby":10870,"displaystyle":10871,"Ġapproved":10872,"Own":10873,"Ġvot":10874,"Ġconflict":10875,"Ġanalog":10876,"Ġexperienced":10877,"ordan":10878,"Ġsymmetric":10879,"volume":10880,")}{\\":10881,"Ġfell":10882,"Ġwww":10883,"Ġdivided":10884,"Ġarmy":10885,"Ġappreci":10886,"ĠVari":10887,"ĠShort":10888,"Bi":10889,"Ġphysics":10890,"Ġindicated":10891,"MODE":10892,"obs":10893,"ĠLcom":10894,"ĠChampionships":10895,"onav":10896,"assign":10897,"Ġalongside":10898,"Ġcharacteristics":10899,"inherit":10900,"otten":10901,"tl":10902,"Ġinvolving":10903,"ĠMO":10904,"/{":10905,"Microsoft":10906,"Äĩ":10907,"ĠWatch":10908,"Ġreturning":10909,"Ġce":10910,"ĠTrust":10911,"1971":10912,"ĠNick":10913,"Span":10914,"Ġacquired":10915,"/\">":10916,"Ġguy":10917,"ĠSecretary":10918,"Platform":10919,"Ġcomposed":10920,"ĠHard":10921,"wd":10922,"tan":10923,"itative":10924,"Ġinvent":10925,"Ġguard":10926,"ĠBooks":10927,"ĠPrime":10928,"Ġresearchers":10929,";|":10930,"ierarchy":10931,"zo":10932,"Ġassets":10933,":@\"":10934,"ĠDar":10935,"WORD":10936,"Ġkid":10937,"Ġprofessor":10938,"ĠOptional":10939,"Ġouter":10940,"Ġrecall":10941,"Ġ=\\":10942,"ĠPR":10943,"ĠEmpire":10944,"Card":10945,"Ġ'.":10946,"??":10947,"Dev":10948,"emit":10949,"subject":10950,"Ġweekend":10951,"ĠPers":10952,"Ġmodules":10953,"icator":10954,"ArgumentException":10955,"Ġbits":10956,"LED":10957,"ĠGaussian":10958,"ĠFair":10959,"ĉčĊ":10960,"Stud":10961,"ĠIss":10962,"Folder":10963,"ĠRight":10964,"resize":10965,"DOM":10966,"Ġinfinite":10967,"rele":10968,"tik":10969,"ĠGuard":10970,"ĠProt":10971,"enant":10972,"Ġsurrounding":10973,"zh":10974,"Ġdeploy":10975,"Ġelif":10976,"ĠĠĠĠĠĠĠĠĠĠĠĠĠĠĠĠĠĠĠĠĠĠĠĠĠĠĠĠĠĠĠĠĠĠĠĠĠĠĠĠĠĠĠĠĠĠĠ":10977,"Ġengineering":10978,"Drawing":10979,"bell":10980,"osed":10981,"aped":10982,"ĠDeb":10983,"Prev":10984,"}&":10985,"Ġment":10986,"ĠRom":10987,"functions":10988,"Ġstats":10989,"Your":10990,"ĠStory":10991,"deprecated":10992,"Ġgradient":10993,"?\"":10994,"Ġwa":10995,"ongo":10996,"spe":10997,"Limit":10998,"extend":10999,"craft":11000,"Ġcompr":11001,"Ġminute":11002,"ependence":11003,"})$.":11004,"mapsto":11005,"bury":11006,"ĠCoq":11007,"ĠXML":11008,"cue":11009,"ĠFuture":11010,"Finally":11011,"ĠLoad":11012,"Html":11013,"ĠAgain":11014,"anth":11015,"libs":11016,"Ġcreates":11017,"']);":11018,"lab":11019,"ugby":11020,"Ġhabit":11021,"Ġcriteria":11022,"1967":11023,"ĠWrite":11024,"iner":11025,"letter":11026,"Ġlocally":11027,"ĠContent":11028,"GER":11029,"audio":11030,"Ġfake":11031,"Ġcollaboration":11032,"()),":11033,"Identity":11034,"Ġinternet":11035,"ĠEastern":11036,"prec":11037,")\\\\":11038,"Ġplatforms":11039,"<<":11040,"ĠWIT":11041,"Tw":11042,"forcement":11043,"aki":11044,"Ġexcited":11045,"sass":11046,"ears":11047,"Ġcopies":11048,"arity":11049,"Ġmoves":11050,"Another":11051,"general":11052,"ĠSuch":11053,"Ġrelax":11054,"Ġbrings":11055,"Ġteaching":11056,"rystal":11057,"Ġrecognized":11058,"ÙĨ":11059,"imm":11060,"ĠKorea":11061,"urable":11062,"Ġloading":11063,"tf":11064,"uli":11065,"Ġalter":11066,"uble":11067,"Drop":11068,"istant":11069,"phia":11070,"INS":11071,"Ġupload":11072,"Ġwinter":11073,"ĠChildren":11074,"}}^{":11075,"forEach":11076,"Pojo":11077,"Ġenhance":11078,"1940":11079,"geo":11080,"directory":11081,"ĠLatin":11082,"Axis":11083,"Ġextent":11084,"alytics":11085,"Amount":11086,"Ġdram":11087,"hbox":11088,"Shape":11089,"Ġris":11090,"Ġ_,":11091,"Ġcolors":11092,"ĠBattle":11093,"ĠProduct":11094,"disable":11095,"ĠNFL":11096,"Ġseemed":11097,"Download":11098,"ĠConnect":11099,"åĲ":11100,"1964":11101,"lower":11102,"constant":11103,"Ġapart":11104,"ĠCG":11105,"$;":11106,"ĠPublished":11107,"127":11108,"acent":11109,"phrase":11110,"Ġprompt":11111,"ando":11112,"Ġcompre":11113,"UND":11114,">\"":11115,"mk":11116,"Final":11117,"REE":11118,"TL":11119,"Ġ\"\",":11120,"Ġhomes":11121,"ĠOfficial":11122,"integer":11123,"Ġasympt":11124,"Ġcommonly":11125,"Ġtum":11126,"ymmetric":11127,"Ġvariation":11128,"Ġheav":11129,"ĠIllegal":11130,"variable":11131,"Ġpeace":11132,"Ġcolspan":11133,"GN":11134,"Ġobjective":11135,"Ġcloser":11136,"bp":11137,"ATCH":11138,"METHOD":11139,"cludes":11140,"ĠIllinois":11141,"Ġindustrial":11142,"Ġemergency":11143,"relation":11144,"Ġcommittee":11145,"Ġportion":11146,"Ġfeaturing":11147,"Ġintegrated":11148,"LOC":11149,"Ġgar":11150,"rypted":11151,"Ġtheoretical":11152,"adelphia":11153,"Ġdust":11154,"Ġcaught":11155,"Ġast":11156,"zy":11157,"will":11158,"Objects":11159,"Ġnotation":11160,"bat":11161,"Ġmanifold":11162,"pson":11163,"Ġcalculations":11164,"SSL":11165,"ĠRecord":11166,"Ġdecor":11167,"ĠOnline":11168,"ĠClin":11169,"ĠConserv":11170,"uling":11171,"Ġdropped":11172,"West":11173,"irement":11174,"Most":11175,"ĠRod":11176,"ĠIT":11177,"(.":11178,"ĠRog":11179,"Remote":11180,"ĠStandard":11181,"ĠPhot":11182,"ĠWAR":11183,"ĠFac":11184,"Ġmuseum":11185,"license":11186,"Segment":11187,"Ġrout":11188,"Ġeffectively":11189,"ilibrium":11190,"\\|_{":11191,"Ġinvestigate":11192,"Ġoptimization":11193,"1930":11194,"Ġmovies":11195,"sat":11196,"ĠPut":11197,"ĠStream":11198,"ĠCat":11199,"ĠGovernor":11200,"Ġcomedy":11201,"ĠHom":11202,"Ġwouldn":11203,"Contents":11204,"uent":11205,"Ġdot":11206,"Ġdisplayed":11207,"gradient":11208,"Ġgrew":11209,"Ġserves":11210,"Ġrecommended":11211,"ACH":11212,"ĠHong":11213,"Ġauthorities":11214,"Gui":11215,"}({\\":11216,"Ġselector":11217,"DataType":11218,"Ġclosely":11219,"Although":11220,"Ġcash":11221,"Ġawards":11222,"FP":11223,"fetch":11224,"Ġhonor":11225,"Ġquadr":11226,"cussion":11227,"viewport":11228,"Ġrecognition":11229,"Ġfindings":11230,"Ġjs":11231,"hbar":11232,"ĠOxford":11233,"Basic":11234,"Ġmach":11235,"ĠPrince":11236,"Ġtyped":11237,"ĠPC":11238,"Ġearned":11239,"usal":11240,"compare":11241,"nesota":11242,"extra":11243,"ĠSteve":11244,"commons":11245,"åħ":11246,"Ġstopped":11247,"Center":11248,"onomy":11249,"ais":11250,"Ġincred":11251,"party":11252,"LY":11253,"Ġprinciple":11254,"1965":11255,"Ġvocals":11256,"Ġsupposed":11257,"inating":11258,"Ġscales":11259,"Ġprojection":11260,"Ġtechnologies":11261,"warn":11262,"Ġagric":11263,"ĠResp":11264,"TestCase":11265,"ĠCorporation":11266,"Operator":11267,"ĠAbstract":11268,"achuset":11269,"Est":11270,"hensive":11271,"Ġrational":11272,"Clear":11273,"Ġchecked":11274,"Tok":11275,"achusetts":11276,"aded":11277,";|&":11278,"Word":11279,"Ġease":11280,"ĠTurn":11281,"including":11282,"asters":11283,"pur":11284,"Ġscattering":11285,"Ġorganized":11286,"Pers":11287,"Ġabund":11288,"ĠChair":11289,"ĠCond":11290,"Ġcookies":11291,"Ġhotel":11292,"pload":11293,"Ġrecovery":11294,"ĠVen":11295,"Ġreporting":11296,"Ġphotos":11297,"Ġfighting":11298,"Ġdeclared":11299,"Ġfails":11300,"ĠVirtual":11301,"Ġrent":11302,"Ġmetrics":11303,"ego":11304,"Ġscaling":11305,"Ġstorm":11306,"rtl":11307,"Ġsummar":11308,"Ġconstants":11309,"Ġoscill":11310,"ĠLook":11311,"respons":11312,"Äį":11313,"Ġstores":11314,"ĠCas":11315,"Ġurban":11316,"Ġscheduled":11317,"AST":11318,"ampions":11319,"ĠBell":11320,"1945":11321,"Ġpowers":11322,"Edge":11323,"Ġindices":11324,"ods":11325,"agnostics":11326,"Ġfat":11327,"stances":11328,")$-":11329,"Ġidentifier":11330,"ĠHamiltonian":11331,"Ġwestern":11332,"Resolver":11333,"ĠBon":11334,"Dependency":11335,"]}":11336,"Frames":11337,"Ġgraphs":11338,"abric":11339,"INST":11340,"Ġmit":11341,"Rate":11342,"[-":11343,"osophy":11344,"Login":11345,"proposition":11346,"Raw":11347,"Ġadvice":11348,"irms":11349,"alink":11350,"ĠMinistry":11351,"ĠHistoric":11352,"Ġcompletion":11353,"Ġathlet":11354,"irth":11355,"ĠTy":11356,"ĠCount":11357,"Introduction":11358,"ĠStock":11359,"Ġbeliev":11360,"iggs":11361,"ARD":11362,"onavirus":11363,"Ant":11364,"ĠUnivers":11365,"Ġscr":11366,"uda":11367,"Ġsigns":11368,"Ġwhatever":11369,"vard":11370,"rupted":11371,"Ġsky":11372,"ĠCost":11373,"contents":11374,"elements":11375,"touch":11376,"isely":11377,"Ġ'''":11378,"Ġswe":11379,"Ġdefend":11380,">)":11381,"Ġlists":11382,"Ġlumin":11383,"eric":11384,"Complete":11385,"scala":11386,"Ġrecru":11387,"ologist":11388,"Ġstands":11389,"ĠInstead":11390,"Ġspons":11391,"eman":11392,"Syntax":11393,"atest":11394,"ĠNC":11395,"1920":11396,"CONT":11397,"Oct":11398,"ĠEdward":11399,"Ġvolunte":11400,")}}":11401,"Ġcro":11402,"Ġweights":11403,"Ġestablishments":11404,"Ġcoal":11405,"News":11406,"ĠSoviet":11407,"ĠUnit":11408,"Ġgranted":11409,"EY":11410,"ĠThrough":11411,"generate":11412,"ĠCart":11413,"mobile":11414,"ĠApache":11415,"linked":11416,"Ġpromote":11417,"yard":11418,"Ġpermissions":11419,"Ġfmt":11420,"Ġunable":11421,"Ġauthority":11422,"Ġdrawn":11423,"rank":11424,"rizona":11425,"Ġapplying":11426,"Ġsym":11427,"Theorem":11428,"Ġlose":11429,"Timer":11430,"Ġsympt":11431,"ceptor":11432,"Ïĥ":11433,"ogeneous":11434,"Ġsounds":11435,"Usage":11436,"Ġattached":11437,"Ġlit":11438,"Ġafford":11439,"ĠChannel":11440,"also":11441,"Ġ{%":11442,"Ġdelivered":11443,"omatic":11444,"Ġconclude":11445,"series":11446,"Ġcompliance":11447,"regon":11448,"ĠHun":11449,"Ġpublication":11450,"ĠPhilipp":11451,"Ġbass":11452,"Throw":11453,"olut":11454,"consin":11455,"lap":11456,"Ġcommands":11457,"Border":11458,"occer":11459,"Ġpredicted":11460,"NotFound":11461,"Ġfifth":11462,"states":11463,"Ġencounter":11464,"ĠAnth":11465,"ospit":11466,"Ġmort":11467,"Ġsql":11468,"dk":11469,"ĠColumbia":11470,"ĠBoy":11471,"Bottom":11472,"Ġwatching":11473,"ĠBox":11474,"Ġtemperatures":11475,"/*!":11476,"convert":11477,"Ġglob":11478,"ĠBC":11479,"Black":11480,"mms":11481,"Ġsync":11482,"owa":11483,"unnel":11484,"Ġmail":11485,"ÙĦ":11486,"Ġuncertainty":11487,"Ġestate":11488,"Ġbias":11489,"WI":11490,"sequence":11491,"iti":11492,"Ġhouses":11493,"Fn":11494,"elle":11495,"ĠStation":11496,"cccc":11497,"lix":11498,"ĠVill":11499,"hot":11500,"Ġvirus":11501,"getId":11502,"mma":11503,"Batch":11504,"Ġ_.":11505,"Ġpersonnel":11506,"sun":11507,"relations":11508,"ruption":11509,"ĠEditor":11510,"ĠRos":11511,"Execution":11512,"oured":11513,"heim":11514,"Android":11515,".\"\"\"":11516,"Ġinsurance":11517,"porter":11518,"Master":11519,"}))":11520,"ĠSeason":11521,"Ġcatalog":11522,"Ġsequences":11523,"Ġscores":11524,"Ġ\".":11525,"ĠKenn":11526,"ĠFox":11527,"ĠObserv":11528,"Ġstability":11529,"Ġattempts":11530,"Ġamplitude":11531,"Ġprivacy":11532,"irk":11533,"Ġfluct":11534,"ĠToronto":11535,"Ġexperts":11536,"arguments":11537,"******":11538,"1966":11539,"moment":11540,"Based":11541,"Ġmanifest":11542,"CLASS":11543,"=$":11544,"gies":11545,"TY":11546,"ĠSanta":11547,"Ġchoices":11548,"Ġexports":11549,"omy":11550,"Ġlogging":11551,"ĠLew":11552,"Eval":11553,"Env":11554,"Bal":11555,"raham":11556,"uum":11557,"ĠLow":11558,"ONG":11559,"AI":11560,"Ġepisodes":11561,"Ġped":11562,"Sem":11563,"ĉĠĠ":11564,"Ġhop":11565,"shal":11566,"ĠCountry":11567,"Ġmm":11568,"Ġdemocr":11569,"stage":11570,"Ġexecuted":11571,"Ben":11572,"program":11573,"Binary":11574,"ĠSupreme":11575,"heading":11576,"doi":11577,"bec":11578,"arest":11579,"tainment":11580,"utors":11581,"gif":11582,"ĠRemove":11583,"Ġsubmit":11584,"referred":11585,"umps":11586,"Ġadds":11587,"Ġconverted":11588,"Ġwire":11589,"Ġjustice":11590,"Ġcaptured":11591,"Ġrural":11592,"Ġsnow":11593,"Renderer":11594,"Ġrenew":11595,"ĠAccount":11596,"Compiler":11597,"International":11598,"ĠPen":11599,"native":11600,"ounce":11601,"wing":11602,"ntario":11603,"Ġ$_":11604,"Yes":11605,"Ġfavour":11606,"STATUS":11607,"Ġstatistical":11608,"jet":11609,"Annotation":11610,"000000":11611,"OF":11612,"Ġpayload":11613,"Did":11614,"Ġstyles":11615,"Ġpotentially":11616,"Ġexcess":11617,"ĠÐ²":11618,"Ġsuperv":11619,"gz":11620,"Ġban":11621,"Ġbringing":11622,"ĠShould":11623,">;":11624,"Ġtherapy":11625,"Ġpassion":11626,"fff":11627,"Ġlogic":11628,"Ġcovers":11629,"Ïģ":11630,"Ġsac":11631,"season":11632,"Ġtransmission":11633,"ĠAk":11634,"Ġarms":11635,"tle":11636,"Ġsocket":11637,"Ð¿":11638,"Ġconvergence":11639,"Ġcrowd":11640,"ĠAdam":11641,"Ġsimult":11642,"Ġneutr":11643,"ĠĠĠĠĠĠĠĠĠĠĠĠĠĠĠĠĠĠĠĠĠĠĠĠĠĠĠĠĠĠĠĠĠ":11644,"ika":11645,"ificial":11646,"pad":11647,"HOME":11648,"ExternalTask":11649,"ĠBefore":11650,"NET":11651,"EP":11652,"Groups":11653,"360":11654,"Ġruntime":11655,"nobr":11656,"ationToken":11657,"formed":11658,"ĠclassName":11659,"Ġcab":11660,"ĠHou":11661,"Counter":11662,"assertTrue":11663,"Ġseparated":11664,"Ġevening":11665,"Ġrestr":11666,"ĠProvince":11667,"HL":11668,"prene":11669,"BY":11670,"Ġpipeline":11671,"uuid":11672,"Ġterror":11673,"Ġwealth":11674,"icious":11675,"olving":11676,"ĠGro":11677,"Ġ>>>":11678,"vendor":11679,"#{":11680,"ucks":11681,"gre":11682,"Ġfrequently":11683,"ĠSM":11684,"ubs":11685,"Ġsquad":11686,"Ġhandling":11687,"ExternalTaskPojo":11688,"ĠAvenue":11689,"Ġ[\\":11690,"Ġbreaking":11691,"Ġresponses":11692,"ĠServer":11693,"ĠTool":11694,"DATE":11695,"tikz":11696,"Ġbelief":11697,"Ġbodies":11698,"uction":11699,"design":11700,"Present":11701,"ĠExpl":11702,"AUT":11703,")}_{":11704,"ĠLanguage":11705,"uy":11706,"ASE":11707,"sha":11708,"Ġfamiliar":11709,"Ġrig":11710,"Ġprepare":11711,"boost":11712,"Ġtraject":11713,"ctic":11714,"expression":11715,"pin":11716,"ĠDEFAULT":11717,"ĠJean":11718,"uable":11719,"quant":11720,"\\{\\":11721,"ĠBE":11722,"fortunately":11723,"altColor":11724,"ĠViet":11725,"ĠBand":11726,"Ġinstitution":11727,"Ġpoliticians":11728,"Ġrepresentative":11729,"Ġinteract":11730,"Ġprotest":11731,"Ġposts":11732,"Ġspl":11733,"Ġreaders":11734,"pend":11735,"oval":11736,"abc":11737,"pages":11738,"Ġworst":11739,"Ġbulk":11740,"Ġ\"%":11741,"fmt":11742,"ĠPublish":11743,"inton":11744,"Ġlowest":11745,"Ġimprovement":11746,"Ġentr":11747,"LOW":11748,"Ġcharacteristic":11749,"shell":11750,"connected":11751,"ĠPortug":11752,"Ġconversion":11753,"Ġcontribute":11754,"Ġinfer":11755,"Ġfluid":11756,"oti":11757,"Material":11758,"Ġincorpor":11759,"_);":11760,"Future":11761,"team":11762,"Ġaf":11763,"outs":11764,"gon":11765,"Ġexplo":11766,"Ùħ":11767,"ĠInstagram":11768,"PG":11769,"Ġlosing":11770,"paragraph":11771,"ĠHo":11772,"Ġversus":11773,"reprene":11774,"Tl":11775,"RED":11776,"Ġintent":11777,"Ġextensive":11778,"&=&":11779,"ĠSimple":11780,"elastic":11781,"$~":11782,"available":11783,"IAL":11784,"joint":11785,"ĠÅ":11786,"Â©":11787,"Ġyards":11788,"'(":11789,"agen":11790,"een":11791,"Ġrailway":11792,"Ġapps":11793,"ĠIL":11794,"ĠStaff":11795,"Ġpapers":11796,"amazonaws":11797,"Ġprecision":11798,"ships":11799,"reader":11800,"TableRow":11801,"South":11802,"isor":11803,"Ġendpoint":11804,"AE":11805,"acer":11806,"ĠSingapore":11807,"Ġgreatest":11808,"ĠDNA":11809,"Ġdecade":11810,"Ġvaccine":11811,"aron":11812,"ĠIV":11813,"Ġentertain":11814,"Ġcomputation":11815,"validation":11816,"MMARY":11817,"Ġedit":11818,"analysis":11819,"Ġhumans":11820,"NUM":11821,"Ġdefinitely":11822,"Ġille":11823,"sch":11824,"University":11825,"ĠPrint":11826,"áº":11827,"sr":11828,"Ġending":11829,"=[":11830,"Sol":11831,"Ġpractical":11832,"Ġrevenue":11833,"Ġdoctor":11834,"Ġdelta":11835,"Weight":11836,"Ġguys":11837,"Ġreverse":11838,"Ġtitles":11839,"pid":11840,"elihood":11841,"ĠDutch":11842,"Ġinterests":11843,"Ġongoing":11844,"ĠAppend":11845,"}}$,":11846,"Ġintroduction":11847,"Ġhealthy":11848,"Ġimmediate":11849,"arios":11850,"alty":11851,"outheast":11852,"itled":11853,"ĠAssoci":11854,"His":11855,"Ġloved":11856,"gems":11857,"jax":11858,"Processor":11859,"Accept":11860,"Ġgenus":11861,"Bool":11862,"MIT":11863,"Ġdry":11864,"direction":11865,"Ġignored":11866,"Sa":11867,"Ġ(@":11868,"glyphicon":11869,"ICATION":11870,"ĠÑģ":11871,"repo":11872,"ĠAP":11873,"requency":11874,"ĠTree":11875,"Ġvo":11876,"mean":11877,"Ġexposure":11878,"Ġamazing":11879,"collect":11880,"canvas":11881,"Chain":11882,"blob":11883,"ĠRaj":11884,"week":11885,"Ġoperated":11886,"Ġdependent":11887,"Ġgenerator":11888,"Mag":11889,"ibraries":11890,"ĠYouTube":11891,"ennes":11892,"PHP":11893,"ĠElizabeth":11894,"unes":11895,"United":11896,"ĠCSS":11897,"Ġarc":11898,"Ġ'%":11899,"Ġpra":11900,"DEF":11901,"]))":11902,"ibilities":11903,"opher":11904,"ĠFC":11905,"ĠDavis":11906,"Ġrecover":11907,"Like":11908,"Ġnecessarily":11909,"ĠLtd":11910,"Mapper":11911,"remote":11912,"ĠDouble":11913,"ĠPack":11914,"Ġminister":11915,"ĠVALIGN":11916,"compute":11917,"Ġcontemporary":11918,"ĠMock":11919,"frag":11920,"ĠConfiguration":11921,"NV":11922,"oking":11923,"Ġpercentage":11924,"}}$.":11925,"Ġhistoric":11926,"ĠMassachusetts":11927,"Ġstanding":11928,"door":11929,"Ġships":11930,"aneously":11931,"Static":11932,"ĠBerlin":11933,"Ġwins":11934,"etary":11935,"through":11936,"Errors":11937,"Will":11938,"Rout":11939,"Star":11940,"Ġintensity":11941,"built":11942,"comput":11943,"Ġultimately":11944,"ategor":11945,"Ġsudden":11946,"Ġdrivers":11947,"Ġsed":11948,"ifted":11949,"Ġaria":11950,"ĠWhere":11951,"eros":11952,"Ġshooting":11953,"ĠColorado":11954,"ÅĤ":11955,"ensitive":11956,"Bounds":11957,"Ġchapter":11958,"Ġinitialize":11959,"Ġalleged":11960,"pkg":11961,"bus":11962,"Ġplate":11963,"agues":11964,"HEAD":11965,"Also":11966,"imitive":11967,"Cur":11968,"eres":11969,"Ġdestroyed":11970,"Ġorbit":11971,"scious":11972,">%":11973,"Ġdiverse":11974,"ptic":11975,"ĠAddress":11976,"Ġworldwide":11977,"Addr":11978,"aska":11979,"andy":11980,"Pred":11981,"ĠAuto":11982,"ASSERT":11983,"Ġresistance":11984,"=%":11985,"ownt":11986,"Ġcoefficient":11987,"Ġsignals":11988,"antom":11989,"odo":11990,"ĠGiven":11991,"TRY":11992,"Ġlimitations":11993,"Ġsubjects":11994,"Ġcorrectly":11995,"Ġindicating":11996,"Ġsatisfied":11997,"Pres":11998,"ellite":11999,"basic":12000,"rev":12001,"Constraint":12002,"Ġassessment":12003,"Ġours":12004,"Insert":12005,"Ġcrucial":12006,"ydney":12007,"loom":12008,"Ġspending":12009,"cohol":12010,"Ġvon":12011,"Ġeat":12012,"NODE":12013,"ArrayList":12014,"apple":12015,"Ġinterior":12016,"Cr":12017,"ĠCreek":12018,"Ġemployed":12019,"Ġresponsibility":12020,"ĠMatt":12021,"observ":12022,":'":12023,"Ġvulner":12024,"1962":12025,"parts":12026,"Ġpaint":12027,"ĠAlexander":12028,"(['":12029,"anchor":12030,"Ġfly":12031,"Ġexpressions":12032,"David":12033,"Ġmess":12034,"Ġperformances":12035,"heets":12036,"Rob":12037,"ĠAud":12038,"ilbert":12039,"Console":12040,"ĠManager":12041,"ederation":12042,"ĠOs":12043,"Ġsilver":12044,"Ġlegend":12045,"vironments":12046,"aks":12047,"ĠProp":12048,"Ġevaluated":12049,"ĠAnalysis":12050,"mac":12051,"fb":12052,"ĉĉĠĠĠ":12053,"logging":12054,"ĠAirport":12055,"encode":12056,"eners":12057,"Site":12058,"Ġcoinc":12059,".*;":12060,"ĠWARRAN":12061,"Brit":12062,"Ġsevere":12063,"Controls":12064,"HERE":12065,"130":12066,"Ġhide":12067,"Ġimpress":12068,"Ġinhib":12069,"square":12070,"Ġdemonstrated":12071,"ĠExecutive":12072,"aton":12073,"router":12074,"Ġtd":12075,"createElement":12076,"posing":12077,"RC":12078,"lint":12079,"ĠTransport":12080,"strings":12081,"olutely":12082,"Deprecated":12083,"oxy":12084,"Ġpri":12085,"ropol":12086,"Ġdefeated":12087,"Ġmes":12088,"ĠTok":12089,"ership":12090,"Ġaid":12091,"Ġpun":12092,"lyn":12093,"Ġdomestic":12094,"1963":12095,"SF":12096,"Family":12097,"engers":12098,"wik":12099,"relative":12100,"ĠSTART":12101,"uating":12102,"ĠTag":12103,"Ġcontrovers":12104,"Nullable":12105,"ĠDark":12106,"Den":12107,"ician":12108,"ĠDelete":12109,"ĠCancer":12110,"Ġfeels":12111,"etherlands":12112,"Ġtack":12113,"Ġvotes":12114,"istogram":12115,"adoc":12116,"ĠReference":12117,"Coin":12118,"Ġconcerned":12119,"Encoding":12120,".âĢĻ":12121,"Ġfib":12122,"ĠCred":12123,"worth":12124,"FFER":12125,"ĠLic":12126,"holders":12127,"idelines":12128,"Ġabort":12129,"enda":12130,"Ġhaven":12131,"ĠMethods":12132,"ĠPot":12133,"Ġcampus":12134,"ATTR":12135,"Ġdiscrim":12136,"ĠBall":12137,"oust":12138,"Ġtopics":12139,"ĠSant":12140,"Ġha":12141,"iy":12142,"Ġful":12143,"è¯":12144,"Ġdisap":12145,"Series":12146,"Holder":12147,"Ġplaceholder":12148,"Ġmedian":12149,"FIELD":12150,"mad":12151,"Ġrestaurant":12152,"Ġfacilit":12153,"ĠRO":12154,"Ġcovering":12155,"cfg":12156,"inos":12157,"ĠMinnesota":12158,"\"},":12159,"Ġletters":12160,"äº":12161,"sym":12162,"_-":12163,"ĠWisconsin":12164,"uz":12165,"prob":12166,"eness":12167,"CONFIG":12168,"usr":12169,"fp":12170,"mapping":12171,"Standard":12172,"ĠStore":12173,"Well":12174,"Cursor":12175,"ĠStephen":12176,"Library":12177,"Ġcorporate":12178,"Ġaccessible":12179,"enna":12180,"Kit":12181,"Ġimg":12182,"iley":12183,"Ġdecrease":12184,"UK":12185,"]+":12186,"Ġoverflow":12187,"mix":12188,"complex":12189,"Ġabsence":12190,"cest":12191,"Ġdepos":12192,"algorithm":12193,"chart":12194,"Ġcolour":12195,"examples":12196,"herent":12197,"Ġasset":12198,"ĠSUMMARY":12199,"rang":12200,"Ġprogramme":12201,"anz":12202,"ĠSC":12203,"Ġquantity":12204,"Therefore":12205,"ä½":12206,"Ġmarg":12207,"Ġdecide":12208,"patcher":12209,"Ġidentical":12210,"ãĢĤ":12211,"Ġworse":12212,"Ġoccasion":12213,"Ġanchor":12214,"ĠStadium":12215,"Ġhearing":12216,"ĠPhiladelphia":12217,"RT":12218,"Ġrepository":12219,"Ġorth":12220,"MAP":12221,"Ġintelligence":12222,"Ġconversation":12223,"Ġter":12224,"plane":12225,"ĠOregon":12226,"cline":12227,"Ġpatch":12228,"Ġcancell":12229,"Ġsin":12230,"ĠAC":12231,"Ġconsec":12232,"Ġstim":12233,"Ġsolo":12234,"ĠChen":12235,"Ġ<-":12236,"ĠRow":12237,"codec":12238,"share":12239,"isition":12240,"ĠMountain":12241,"Ġkit":12242,"Ġworker":12243,"%\"><":12244,"Ġlistening":12245,"Ġpeer":12246,"offs":12247,"TAG":12248,"repeat":12249,"Ġguest":12250,"Ġoutcome":12251,"Ġmountain":12252,"/(":12253,"ĠAnton":12254,"Ġpresentation":12255,"HC":12256,"ulpt":12257,"ĠDespite":12258,"ĠNever":12259,"ĠBru":12260,"agma":12261,"ĠGreg":12262,"selection":12263,"Ġadult":12264,"Ġfold":12265,"\">(":12266,"Ġcomputing":12267,"Ġpit":12268,"Ġmaxim":12269,"Ġcapable":12270,"Ġ{},":12271,"Ġsensitive":12272,"ĠHarry":12273,"aug":12274,"iat":12275,"Alloc":12276,"Ġdemonstrate":12277,"thur":12278,"tensor":12279,"rpc":12280,"ĠThread":12281,"ĠMagazine":12282,"ĠBBC":12283,"statsmodels":12284,"ĠPos":12285,"Ġbaseball":12286,"Ġyounger":12287,"Ġnamely":12288,"ĠTam":12289,"links":12290,"Ġna":12291,"plicity":12292,"ĠKEY":12293,"Ġthrown":12294,"aturally":12295,"Doctrine":12296,"nos":12297,"ipage":12298,"phase":12299,"ĉĉĉĉĉĉĉĉĉĉ":12300,"RUN":12301,"ĠPython":12302,"Cent":12303,")+\\":12304,"Åį":12305,"Ġtrivial":12306,"Ġclubs":12307,"Depth":12308,"ĠSon":12309,"Ġscenes":12310,"Mac":12311,"Ð°ÑĤ":12312,"Signature":12313,"cong":12314,"Career":12315,"NameLink":12316,"Ġcensus":12317,"Random":12318,"ĠPoland":12319,"Foot":12320,"ĠGrant":12321,"Binding":12322,"Ġinverse":12323,"ENV":12324,"ĠAge":12325,"Ġtables":12326,"iga":12327,"timestamp":12328,"Ġsole":12329,"Messages":12330,"ĠIslands":12331,"ĠCulture":12332,"Ġmob":12333,"rame":12334,"Ġneuro":12335,"Ġmathemat":12336,"Ġtriple":12337,"django":12338,"Ġretired":12339,")-\\":12340,"chant":12341,"Ġdoubt":12342,"Ġton":12343,"AX":12344,"Ġcodes":12345,"Ġextreme":12346,"Ġmoder":12347,"Ãº":12348,"ĠDisney":12349,"Drag":12350,"Ġaffili":12351,"RAY":12352,"ĠLady":12353,"Ġpredictions":12354,"ĠFish":12355,"å¤":12356,"__[\"":12357,"rink":12358,"Ġliquid":12359,"Ġsatisfying":12360,"Ġinherit":12361,"Health":12362,"×ķ":12363,"aze":12364,"Snapshot":12365,"Christ":12366,"contact":12367,"Ġfounder":12368,"tre":12369,"ĠChem":12370,"Ġveg":12371,"rient":12372,"Ġguid":12373,"1961":12374,"iors":12375,"Ġexponential":12376,"102":12377,"cross":12378,"Ġconcentr":12379,"Ġbold":12380,"archive":12381,"ĠQuery":12382,"omm":12383,"ĠCru":12384,"columns":12385,"Touch":12386,"Ġspac":12387,"className":12388,"ju":12389,"take":12390,"Permission":12391,"Ġexpensive":12392,"jQuery":12393,"Timestamp":12394,"Ġarrested":12395,"fake":12396,"Rot":12397,"(\"%":12398,"Strategy":12399,"ĠEric":12400,"Ġinvestors":12401,"previous":12402,"ĠNeed":12403,"arry":12404,"ĠClasses":12405,"ĠObama":12406,"Ġfetch":12407,"Ġmolecular":12408,"III":12409,"Ġdriven":12410,"ugging":12411,"Ġtheories":12412,"tection":12413,"Ġwalls":12414,"Songs":12415,"Ġexercise":12416,"Ġcraft":12417,"Linear":12418,"dash":12419,"comb":12420,"})$,":12421,"acher":12422,"Ġbond":12423,"Ġdatasets":12424,"Ġpresents":12425,"ĠBuilding":12426,"ativ":12427,"Ġcards":12428,"Observer":12429,"loading":12430,"Loop":12431,"Given":12432,"Ġessentially":12433,"ĠHung":12434,"$),":12435,"ORK":12436,"Ġdefines":12437,"ĠDir":12438,"ĠArizona":12439,"Mobile":12440,"medium":12441,"Aug":12442,"production":12443,"Ġpreced":12444,"Cmd":12445,"Ġsomewhat":12446,"Ġvariant":12447,"Ġ\\&":12448,"ĠSong":12449,"Ġstages":12450,"ĠDonald":12451,"Ġpregn":12452,"Ġcopyright":12453,"Feed":12454,"Ġsubsequently":12455,"Ġdates":12456,"ixtures":12457,"Ġsingles":12458,"good":12459,"spin":12460,"lu":12461,"ffee":12462,"Ġseats":12463,"jb":12464,"timeline":12465,"rules":12466,"Ġpixel":12467,"Ġsampling":12468,"ĠInf":12469,"ĠMarg":12470,"Ġaccum":12471,"Collect":12472,"uffers":12473,"notations":12474,"Ġly":12475,"ĠÐ½":12476,"ĠJson":12477,"ĠBudd":12478,"hal":12479,"Ġreward":12480,"apters":12481,"floor":12482,"days":12483,"Ġhits":12484,"ĠResult":12485,"ĠWhether":12486,"ĠDer":12487,"ĠMoon":12488,"ĠRoute":12489,"ĠWars":12490,"Ġqueries":12491,"Ġvisited":12492,"opam":12493,"Ġstone":12494,"islation":12495,"Ġjudge":12496,"was":12497,"Ġveter":12498,"ĠMD":12499,"ĠSab":12500,"Ġoperate":12501,"icular":12502,"ĠContext":12503,"rar":12504,"ĠTal":12505,"etal":12506,"ĠVictoria":12507,"ĠOCaml":12508,"BIT":12509,"Ġhosted":12510,"Direction":12511,"Ġshadow":12512,"(()":12513,"VICE":12514,"Ġclip":12515,"riteria":12516,"solr":12517,"Ġoutcomes":12518,"ĠMatch":12519,"Ġconcentration":12520,"jan":12521,"111":12522,"Ġcontest":12523,"ĠDam":12524,"Li":12525,"SW":12526,"licenses":12527,"Enc":12528,"everal":12529,"middle":12530,"Zone":12531,"Ġspeaking":12532,"izers":12533,"Ġequality":12534,"orizon":12535,"Ġresulted":12536,"ĠLat":12537,"Ġconsequence":12538,"Ġcomputational":12539,"Ġarts":12540,"Rows":12541,"OPT":12542,"Ġsoldiers":12543,"danger":12544,"}$)":12545,"Ġdiscrete":12546,"ATOR":12547,"Ã¡n":12548,"140":12549,"ĠBY":12550,"Music":12551,"LIST":12552,"raq":12553,"9999":12554,"Ã©s":12555,"City":12556,"unlock":12557,"ĠBuilder":12558,"Ġvirt":12559,"ĠSite":12560,"arsing":12561,"Mr":12562,"eah":12563,"ĠFall":12564,"ĠForest":12565,"prom":12566,"Ġbattery":12567,"Ġfolder":12568,"sheet":12569,"Ġvess":12570,"ĠDead":12571,"minipage":12572,"Bro":12573,"essional":12574,"Ġthin":12575,"Ġdisable":12576,"Ã©e":12577,"!\\":12578,"Ġenumer":12579,"ĠWinter":12580,"actual":12581,"UBLIC":12582,"Uses":12583,"ĠJacob":12584,"Cancel":12585,"inch":12586,"bounds":12587,"embed":12588,"regular":12589,"lot":12590,"ĠMir":12591,"Ġteachers":12592,"Shared":12593,"ilk":12594,"Ġreasonable":12595,"ĠSystems":12596,"Ġwaste":12597,"Ġaccompl":12598,"Rules":12599,"Ġprominent":12600,"ÐµÑĢ":12601,"generator":12602,"ĠOntario":12603,"Ġassistant":12604,"Ġanalys":12605,"Ġconclusion":12606,"ĠPhoto":12607,"atibility":12608,"Ġtimestamp":12609,"Ġrefers":12610,"Ġjet":12611,"Abs":12612,"Ã¸":12613,"Ġpara":12614,"ĠCapital":12615,"_)":12616,"Austral":12617,"Ġwear":12618,"Ġpref":12619,"eties":12620,"Ġnob":12621,"pointer":12622,"Ġrend":12623,"Ġ----------------------------------------------------------------":12624,"Ġpasses":12625,"Ġweapons":12626,"Ġtokens":12627,"Ġputting":12628,"Reset":12629,"ĠContin":12630,"Ġscholar":12631,"Ġtech":12632,"Ġdiversity":12633,"LEMENT":12634,"Ġcond":12635,"spirit":12636,"asp":12637,"|_{":12638,"Ġfs":12639,"deep":12640,"ĠModern":12641,"Ġprecisely":12642,"Ġdangerous":12643,"COMM":12644,"ĠNative":12645,"cers":12646,"away":12647,"Ġrepresentations":12648,"~~~~~~~~":12649,"Ġhall":12650,"ĠHay":12651,"MF":12652,"ĠRose":12653,"esides":12654,"iac":12655,"Ġprospect":12656,"tfrac":12657,"Ġbought":12658,"Ġig":12659,"Ġstrike":12660,"ells":12661,"Ġhundreds":12662,"Split":12663,"Ġdrugs":12664,"\\;":12665,"ĠTro":12666,"ĠOutput":12667,"SSION":12668,"ropical":12669,"Ġadults":12670,"Ġmonitoring":12671,"Ġpreserv":12672,"orer":12673,"yers":12674,"Ġasking":12675,"Ġassistance":12676,"ĠFord":12677,"Ãł":12678,"åĬ":12679,"keep":12680,"cassandra":12681,"Ġfaces":12682,"Ġflu":12683,"steps":12684,"Ġtransferred":12685,"stud":12686,"FN":12687,"ban":12688,"igenous":12689,"Ġri":12690,"Ġfaculty":12691,"ĠScottish":12692,"Ġseeking":12693,"Ġneither":12694,"edding":12695,"ĠBrian":12696,"ounded":12697,"anny":12698,"ĠSP":12699,"ellij":12700,"erred":12701,"1958":12702,"egration":12703,"ĠTarget":12704,"HD":12705,"ĠResults":12706,"Lib":12707,"Ġcompiler":12708,"maps":12709,"acon":12710,"iem":12711,"live":12712,"xsd":12713,"ĠRad":12714,"ĠJordan":12715,"plain":12716,"ymph":12717,"itis":12718,"ĠMiller":12719,"Ġbat":12720,"Ġvice":12721,"Ġhorizontal":12722,"inx":12723,":}":12724,"esis":12725,"incipal":12726,"arl":12727,"ĠResources":12728,"Ġ{$":12729,"Tasks":12730,"binding":12731,"Asset":12732,"Ġderive":12733,"allas":12734,"Ġcollapse":12735,"ĠLoc":12736,"Ġnewspaper":12737,"1944":12738,"LAY":12739,"Ġpersons":12740,"Ġtemporary":12741,"112":12742,">'":12743,"INTER":12744,"arring":12745,"Ġ--></":12746,"Ġsentence":12747,"delay":12748,"Contin":12749,"speed":12750,"}{(":12751,"Ġelig":12752,"CALL":12753,"intellij":12754,"Ġincreasingly":12755,"aus":12756,"ĠFollowing":12757,"iversary":12758,"Bel":12759,"1959":12760,"Ġwelcome":12761,"Bet":12762,"Ġ$|\\":12763,"Sports":12764,"æķ":12765,"UEST":12766,"oor":12767,"Press":12768,"mathop":12769,"Ġscientists":12770,"ĠLes":12771,"Original":12772,"ĠHal":12773,"Cross":12774,"Ġchampion":12775,"RS":12776,"Ġrestrictions":12777,"Ġ---":12778,"gar":12779,"icians":12780,"uplicate":12781,"Ġgravit":12782,"ĠEll":12783,"pearance":12784,"Ġproud":12785,"%%%%%%%%":12786,"Switch":12787,"ulatory":12788,"ĠMS":12789,"Ġsoil":12790,"bur":12791,"Ġchallenging":12792,"fav":12793,"boot":12794,"Ġinterpretation":12795,"uet":12796,"ĠDA":12797,"ĠNAS":12798,"Ġconsumers":12799,"toBe":12800,"Contains":12801,"Ġmanip":12802,"Ġimpossible":12803,"ivals":12804,"score":12805,"Ġeducational":12806,"Ġapplies":12807,"ĠBelg":12808,"may":12809,"555":12810,"Ġ```":12811,"Exists":12812,"ĠIndeed":12813,"Ġneural":12814,"ĠOfficer":12815,"mx":12816,"Ġexposed":12817,"âĢĻ,":12818,"isode":12819,"covery":12820,"Ġofficially":12821,"ĠCreates":12822,"Ġdecomposition":12823,"Ð·":12824,"^^":12825,"Ġtaught":12826,"Ġintersection":12827,"}{|":12828,"ĠMean":12829,"there":12830,"ĠAmb":12831,"urrence":12832,"ĠMoh":12833,"Ġcompens":12834,">[":12835,"Ġdefinitions":12836,"Ġhardware":12837,"strip":12838,"Ġlegisl":12839,"è¿":12840,"ĠTake":12841,"Points":12842,"ÏĢ":12843,"Ġpreferred":12844,"ĠReb":12845,"Ġwinners":12846,"Ġ&#":12847,"105":12848,"1956":12849,"Ġwrites":12850,"swing":12851,"Ġagencies":12852,"Films":12853,"thumb":12854,"|}":12855,"Ġprofiles":12856,"Ġreads":12857,"brace":12858,"Ġsurve":12859,"aui":12860,")\",":12861,"Ġproviders":12862,"ĠSydney":12863,"Ġhun":12864,"overning":12865,"akh":12866,"Missing":12867,"Ġpixels":12868,"Power":12869,"ĠYes":12870,"ĠImp":12871,"Ġiron":12872,"ĠRome":12873,"ĠNetherlands":12874,"Ġadvertising":12875,"ĠLang":12876,"ĠAdministration":12877,"Ġabandon":12878,"ĠSky":12879,"Failure":12880,"URCE":12881,"ctree":12882,"Ġslot":12883,"uber":12884,"Ġfi":12885,"Ġwindows":12886,"ĠFix":12887,"ĠHouston":12888,"ĠMill":12889,"Ġyellow":12890,"Ġclim":12891,"Ġroughly":12892,"ĠScholar":12893,"LETE":12894,"ĠPur":12895,"oa":12896,"Ġfestival":12897,"Ġuniverse":12898,"Ġpacket":12899,"ipl":12900,"Ra":12901,"period":12902,"Association":12903,"Review":12904,"ĠBrad":12905,"Ġrespective":12906,"ĠContact":12907,"ensities":12908,"ista":12909,">${":12910,"Ġregistration":12911,"Ġdescent":12912,"getInstance":12913,"TableRowColor":12914,"dynamic":12915,"represent":12916,"tooltip":12917,"!</":12918,"ĠRyan":12919,"Ġentropy":12920,"Ġcanonical":12921,"ĠNations":12922,"ĠKa":12923,"icky":12924,"ĠGolden":12925,"Ġinclusion":12926,"Ġstead":12927,"ials":12928,"Ġpackages":12929,"Ġorientation":12930,"IZ":12931,"iper":12932,"Ġplas":12933,"Ġlandscape":12934,"Apr":12935,"Ġexplains":12936,"WIN":12937,"Ġmatters":12938,"Ġwilling":12939,"ugar":12940,"Ġwx":12941,"Ġcausing":12942,"ĠOlympic":12943,"aco":12944,"Ġdiscovery":12945,"ĠGallery":12946,"ycl":12947,"ĠML":12948,"Ġproposal":12949,"ĠFA":12950,"jackson":12951,"ĠArgent":12952,"wallet":12953,"ĠPromise":12954,"Ġbos":12955,"sdk":12956,"Ġinnovation":12957,"ĠEconomic":12958,"orse":12959,"Ġtip":12960,"Ġmile":12961,"Ġalias":12962,"Ġassumptions":12963,"TOM":12964,"ĠDor":12965,"imp":12966,"hang":12967,"Ġtroops":12968,"Mich":12969,"fac":12970,"stylesheets":12971,"Who":12972,"Ġconvex":12973,"ĠEdition":12974,"Old":12975,"mathit":12976,"('<":12977,"atio":12978,"quir":12979,"ĠSend":12980,"Ġpurchased":12981,"asts":12982,"ĠChall":12983,"ĠPlace":12984,"Ġpromotion":12985,"algebra":12986,"Ġsustainable":12987,"Delay":12988,"Ġhero":12989,"Ġattrib":12990,"hill":12991,"bourne":12992,"Az":12993,"Detector":12994,"${\\":12995,"Ġroots":12996,"ĠDoug":12997,"zech":12998,"Ġsupplied":12999,"Ġiteration":13000,"\\/":13001,"ntil":13002,"Ġpointed":13003,"Extensions":13004,"Ġcub":13005,"Ġbigger":13006,"^*$":13007,"Ġchunk":13008,"cancel":13009,"ĠSri":13010,"Ġproducing":13011,"Ġdebate":13012,"written":13013,"ĠKorean":13014,"Ġunderstood":13015,"FOR":13016,"ARNING":13017,"Ġprovince":13018,"cu":13019,"1957":13020,"ĠSep":13021,"Ġchecks":13022,"__)":13023,"DEX":13024,"beans":13025,"Upload":13026,"dst":13027,"Ġparticipate":13028,"former":13029,"Ġuri":13030,"ĠTech":13031,"Geometry":13032,"Ġaccommod":13033,"igator":13034,"Ġvit":13035,"bundle":13036,"))$":13037,"Separ":13038,"Proof":13039,"ĠEP":13040,"ĠLev":13041,"Ġvisitors":13042,"notify":13043,"erior":13044,":=":13045,"tail":13046,"Ġ(%":13047,"ante":13048,"Ġcontrad":13049,"Ġopposition":13050,"orts":13051,"encoding":13052,"iso":13053,"ĪĴ":13054,"hook":13055,"\":\"":13056,"Verify":13057,"Ġinvolves":13058,"utation":13059,"1948":13060,"ĠKat":13061,"angers":13062,"Ġbaby":13063,"Organ":13064,">()":13065,"opsis":13066,"Ġtexture":13067,"Her":13068,"ĠURI":13069,"Aggreg":13070,"history":13071,"ĠLater":13072,"Ġcombat":13073,"116":13074,"ĠOP":13075,"Ġconsisting":13076,"Ġbanks":13077,"Ġferm":13078,"ĠCorn":13079,"bench":13080,"ulp":13081,"Metrics":13082,"Ġrepeat":13083,"\\)":13084,"Observ":13085,"Ġscoring":13086,"rather":13087,"Ġreplacement":13088,"Ġsymptoms":13089,"Promise":13090,"Comput":13091,"Ġmouth":13092,"ĠVeg":13093,"theless":13094,"riers":13095,"Ġgained":13096,"bigl":13097,"ĠLjava":13098,"Ġliteral":13099,"Ġcb":13100,"Authentication":13101,"Ġconservation":13102,"Ġusername":13103,"ĠBat":13104,"Declaration":13105,"Ġgenerating":13106,"Ġproduces":13107,"ĠHeart":13108,"phy":13109,"Pa":13110,"ste":13111,"Columns":13112,"Optional":13113,"clip":13114,"Ġbrands":13115,"cref":13116,"ï¿":13117,"cow":13118,"Ġvast":13119,"Ġdeleted":13120,"ques":13121,"Ġmacro":13122,"cribed":13123,"tiny":13124,"Have":13125,"Life":13126,"RECT":13127,"Ġfacts":13128,"UNT":13129,"ĠHotel":13130,"Ġturb":13131,"ĠSurvey":13132,"Ġforget":13133,"uscript":13134,"maxcdn":13135,"à¤¾":13136,"ustry":13137,"ĠTai":13138,"Ġmissed":13139,"Ġhonest":13140,"ĠMit":13141,"Ġsuit":13142,"awesome":13143,"GroupName":13144,"}})":13145,"itecture":13146,"slash":13147,"Ġdevelopers":13148,"angel":13149,"ILITY":13150,"Ġsight":13151,"Ġsufficiently":13152,"ipedia":13153,"Ġcommitment":13154,"Ġqualified":13155,"Place":13156,"ĠSound":13157,"Ø¯":13158,"rell":13159,"appoint":13160,"oda":13161,"Ġyes":13162,"âĢĻ.":13163,"Ġinflation":13164,"><!--":13165,"Ġterminal":13166,"Expected":13167,"linux":13168,"Ġatmosphere":13169,"Actions":13170,"ocks":13171,"ĠDOM":13172,"INK":13173,"Ġfacing":13174,"ĠIndones":13175,"Ġmanufacturing":13176,"1024":13177,"inction":13178,"rollers":13179,"Ġtwenty":13180,"Arguments":13181,"ĠĠĠĠĠĠĠĠĠĠĠĠĠĠĠĠĠĠĠĠĊ":13182,"Errorf":13183,"ulus":13184,"Sources":13185,"Packet":13186,"Ġdisp":13187,"ĠFront":13188,"Same":13189,"================================================================":13190,"Ġimplicit":13191,"OpenTl":13192,"Enable":13193,"Ġemphas":13194,"TX":13195,"metic":13196,"Ġmechanisms":13197,"Ġinfection":13198,"distance":13199,"Mc":13200,"onna":13201,"Ġgoods":13202,"mount":13203,"Loading":13204,"uning":13205,"ighth":13206,"Ġuniversal":13207,"Ġdirections":13208,"OutputStream":13209,"Ġcrash":13210,"Ġrejected":13211,"hour":13212,"anim":13213,"ĠEffect":13214,"itories":13215,"tz":13216,"Virtual":13217,"ctors":13218,"longrightarrow":13219,"ĠLind":13220,"remarks":13221,"asty":13222,"Ġalpha":13223,"()\">":13224,"Design":13225,",{\\":13226,"Ġmixing":13227,"Ġrequirement":13228,"getString":13229,"Ġgiant":13230,"Ġvm":13231,"ĠConsider":13232,"bigr":13233,"ĠOcean":13234,"what":13235,"Fact":13236,"Ġteen":13237,"Ġclone":13238,"Ġsteel":13239,"Ġselling":13240,"vy":13241,"Ġrating":13242,"wiki":13243,"Bad":13244,"Ga":13245,"Ġparsed":13246,"ymmetry":13247,"toolbar":13248,"Ġcertificate":13249,"quarters":13250,"Ġdt":13251,"ĠPrize":13252,"}\\,\\":13253,"hd":13254,"Ġrapidly":13255,"DTD":13256,"$:":13257,"ĠAgency":13258,"Ġhorse":13259,"Warn":13260,"Ġroutes":13261,"ĠSerial":13262,"×Ļ":13263,"binary":13264,"avelength":13265,"rig":13266,"Ġframes":13267,"ĠAnderson":13268,"ordon":13269,"ortheast":13270,"Ġtradition":13271,"=\"{{":13272,"React":13273,"Ġauthent":13274,"Ġsees":13275,"ĠDoes":13276,"Ġdense":13277,"Ġquiet":13278,"ĠFellow":13279,"latest":13280,"Been":13281,"UCT":13282,"closure":13283,"Ġdenoted":13284,"Ġlect":13285,"Ġarrang":13286,"Ġride":13287,"Ġeastern":13288,"Runner":13289,"Ġthoughts":13290,"ĠKal":13291,"1955":13292,"agg":13293,"Ġgravity":13294,"ÙĪ":13295,"Ġdiver":13296,"Ġgro":13297,"Ã¥":13298,"Ev":13299,"1952":13300,"Ġforg":13301,"HA":13302,"don":13303,"Ġraces":13304,"ĠĠĠĠĠĠĠĠĠĠĠĠĠĠĠĠĠĠĠĠĠĠĠĠĠĠĠĠĠĠĠĠĠĠ":13305,"ĠKevin":13306,"BUFFER":13307,"scriptstyle":13308,"Ġwing":13309,"Ġshel":13310,"Month":13311,"Ġ\"'":13312,"Ġstronger":13313,"utter":13314,"appy":13315,"+(":13316,"negative":13317,"fm":13318,"Ġtracking":13319,"Must":13320,"ativity":13321,"Ġreducing":13322,"riends":13323,"ieval":13324,"anka":13325,"Ġbug":13326,"Ġ-=":13327,"ĠExpress":13328,"Ġpermanent":13329,"Ġkin":13330,"Ġresolved":13331,"Literal":13332,"googleapis":13333,"Ġturning":13334,"gebr":13335,"includes":13336,"Ġcomprehensive":13337,"dam":13338,"toc":13339,"icide":13340,"references":13341,"amount":13342,"Ġcomplement":13343,"Ġimplied":13344,"Spe":13345,"Ġinstructions":13346,"Ġcoins":13347,"taining":13348,"ĠActive":13349,"Ġconform":13350,"Oh":13351,"ĠTOP":13352,"ĠLevel":13353,"ĠSenior":13354,"Ġcapabilities":13355,"Ġtypedef":13356,"Diff":13357,"Execute":13358,"lined":13359,"via":13360,"ĠDream":13361,"Fi":13362,"BM":13363,"ĠPa":13364,"AppCompat":13365,"Ġleaf":13366,"ĠStudy":13367,"Ġequilibrium":13368,"North":13369,"(\"\\":13370,"Owner":13371,"ĠLewis":13372,"ï¿½":13373,"ibration":13374,"Git":13375,"Ġexciting":13376,"Ġelectro":13377,"Millis":13378,"ĠHan":13379,"Ġwalking":13380,"Ġmagic":13381,"âĤ¬":13382,"ĠForeign":13383,"Ġ'\"":13384,"Ġdescriptor":13385,"GIN":13386,"104":13387,"BUILD":13388,"leton":13389,"----------":13390,"________":13391,"ĠNum":13392,"Ġsymbols":13393,"Cho":13394,"Ġconcrete":13395,"1942":13396,"âĢĭ":13397,"erd":13398,"ĠDeath":13399,"RAME":13400,"Executor":13401,"LOAD":13402,"Converter":13403,"Ġupcoming":13404,"Ġmedicine":13405,"DM":13406,"ĠPit":13407,"ignore":13408,"Tele":13409,"Ġrotate":13410,"cursor":13411,"Ġdrawing":13412,"ĠSA":13413,"ĠOperation":13414,"ĠPrivate":13415,"Ġhockey":13416,"pragma":13417,"nl":13418,"Ġadministrative":13419,"Ġorb":13420,"License":13421,"Ġ|=":13422,"Analysis":13423,"ĠCambridge":13424,"ĠPlaces":13425,"Ġbelongs":13426,"../../../":13427,"multip":13428,"Servlet":13429,"Ġstreaming":13430,"ĠSav":13431,"Ġrein":13432,"ingham":13433,"ĠLiter":13434,"datetime":13435,"aware":13436,"IDE":13437,"ĠAffairs":13438,"Ġpilot":13439,"chestra":13440,"Labels":13441,"toctree":13442,"Ġfilters":13443,"Ġkilling":13444,"ĠHollywood":13445,"Ġcanvas":13446,"ĠRoss":13447,"ĠUl":13448,"ĠItem":13449,"Ġembedded":13450,"emony":13451,"Ġpopulations":13452,"ĠSin":13453,"Ġproto":13454,"Ġterritory":13455,"Ġaapt":13456,"best":13457,"agan":13458,"ĠJam":13459,"ĠMobile":13460,"Ġredirect":13461,"ĠHart":13462,"Ġacknowled":13463,"pred":13464,"Ġhypothesis":13465,"Ġlosses":13466,"Ġabsolutely":13467,"ropic":13468,"Ġlemma":13469,"Available":13470,"ĠJS":13471,"ĠCorps":13472,"ĠBridge":13473,"izz":13474,"profit":13475,"rent":13476,"wave":13477,"Ġspoke":13478,"Ġamounts":13479,"hus":13480,"Win":13481,"ĠPremier":13482,"Ġsuffered":13483,"ĠĠĠĠĠĠĠĠĠĠĠĠĠĠĠĠĠĠĠĠĠĠĠĠĠĠĠĠĠĠĠĠĠĠĠĠĠ":13484,"ĠPDF":13485,"Ġsurgery":13486,"Ġhur":13487,"ĠOt":13488,"Good":13489,"ennessee":13490,"ĠNaz":13491,"Shader":13492,"Ġboys":13493,"Ġintern":13494,"115":13495,"Management":13496,"ĠIraq":13497,"graphics":13498,"Ġdebt":13499,"ĠIter":13500,"Zero":13501,"ouri":13502,"ellect":13503,"Ġox":13504,"alias":13505,"secondary":13506,"crement":13507,"1939":13508,"ĠEmer":13509,"ĠColumn":13510,"aba":13511,"ĠMaria":13512,"uj":13513,"Ġforth":13514,"Ġestimation":13515,"Ġtrials":13516,"iable":13517,"reason":13518,"Ġchrom":13519,"Ġvictims":13520,"Ignore":13521,"folder":13522,"OLD":13523,"fish":13524,"iot":13525,"Extra":13526,"charge":13527,"Ġcircuit":13528,"aux":13529,"Ġentertainment":13530,">../":13531,"ĠEs":13532,"Even":13533,"ented":13534,"Ġgrade":13535,"vertex":13536,"Ġbare":13537,"Ġ'_":13538,"Mo":13539,"Ġgoogle":13540,"Bitmap":13541,"bone":13542,"ĠSmall":13543,"Ġsheet":13544,"noframe":13545,"Ġlogin":13546,"ĠKansas":13547,"Ġloan":13548,"BT":13549,"Ġpending":13550,"Ġdelegate":13551,"Ġhybrid":13552,"bmatrix":13553,"argo":13554,"Ġlegislation":13555,"Ġlegacy":13556,"ĠAtlantic":13557,"ordinate":13558,"Ġenergies":13559,"(/":13560,"ĠWord":13561,"Ġpoet":13562,"ĠDog":13563,"ĠTax":13564,"Ġdominant":13565,"Ġhal":13566,"Ġreaching":13567,"rend":13568,"Consider":13569,"Ġreceiver":13570,"<>();":13571,"rep":13572,"riev":13573,"ĠCovid":13574,"flix":13575,",...":13576,"Ġcycl":13577,"Ġcontributed":13578,"Ġrid":13579,"ssl":13580,"ÂłÂł":13581,"isson":13582,"VO":13583,"javax":13584,"iva":13585,"ĠTrack":13586,"Ġpictures":13587,"Ġbaseline":13588,"æĺ":13589,"olves":13590,"getType":13591,"Ġrisks":13592,"Ġspr":13593,"iest":13594,"ĠFight":13595,"adv":13596,"aaaa":13597,"Vol":13598,"Ġextensions":13599,"Ġbatt":13600,"Ġabuse":13601,"\"];":13602,")&":13603,"anches":13604,"Culture":13605,"apl":13606,"Inner":13607,"oids":13608,"except":13609,"___":13610,"ĠCook":13611,"Break":13612,"Ġcorrection":13613,"Ġfiled":13614,"Ġtough":13615,"Ġfaced":13616,"ĠPolish":13617,"arith":13618,"ĠRab":13619,"British":13620,"Ġrestricted":13621,"Ġsav":13622,"Ġbroke":13623,"Ġassuming":13624,"Ġcovari":13625,"POS":13626,"ĠDemocrats":13627,"Ġderivative":13628,"TIES":13629,"members":13630,"Ġexplos":13631,"Ġpanels":13632,"ĠBan":13633,"Ġprocedures":13634,"avis":13635,"NP":13636,"Ġconsumption":13637,"Ġactivation":13638,"OTTOM":13639,"ulum":13640,"tery":13641,"White":13642,"ĉĉĉĉĊ":13643,"lope":13644,"foreach":13645,"Locale":13646,"|}{":13647,"Share":13648,"ĠByte":13649,"Ġsubscription":13650,"cerning":13651,"]$.":13652,"Put":13653,"subNav":13654,"Mount":13655,"Ġsensitivity":13656,"Ġneutral":13657,"Rich":13658,"^{*":13659,"pagination":13660,"ĠCirc":13661,"Ġenvironments":13662,"ĠLogger":13663,"Ġinstallation":13664,"Tex":13665,"flush":13666,"Ġairport":13667,"ĠAhmed":13668,"Ġintermediate":13669,"San":13670,"fragment":13671,"ĠEntertainment":13672,"dn":13673,"inject":13674,"ĠFinancial":13675,"Ġradial":13676,"ĠIowa":13677,"vature":13678,"displayName":13679,"making":13680,"Ġintention":13681,"ĠModal":13682,"ceived":13683,"slide":13684,"decode":13685,"Ġdefeat":13686,"ĠGree":13687,"mitter":13688,"Ġbeauty":13689,"kh":13690,"Ġgoverning":13691,"TERNAL":13692,"Ġappearances":13693,"Ġaims":13694,"ashes":13695,"\\}$.":13696,"Following":13697,"getMessage":13698,"Ġseparation":13699,"Ġstake":13700,"Ġrealized":13701,"Ġnotion":13702,"vet":13703,"Ġdescribing":13704,"Ġadjacent":13705,"Ġperiods":13706,"ĠĠĠĠĠĠĠĠĠĠĠĠĠĠĠĠĠĠĠĠĠĠĠĠĠĠĠĠĠĠĠĠĠĠĠĠ":13707,"iota":13708,"Ġdiagonal":13709,"Camera":13710,",\\,\\":13711,"kernel":13712,"Ġdeclare":13713,"ĠBuffer":13714,"Ġgovernor":13715,"Fixed":13716,"ĠDuke":13717,"Ġmusicians":13718,"Ġmaximal":13719,"Ġsubmitted":13720,"changes":13721,"1946":13722,"Ġbomb":13723,"abama":13724,"Ġownership":13725,"January":13726,"Ġimpl":13727,"1953":13728,",\\\\":13729,"Ġjoining":13730,"roit":13731,"Ġsculpt":13732,"Fac":13733,"interval":13734,"ĠJob":13735,"management":13736,"Ok":13737,"ĠRuntime":13738,"Ġprocessed":13739,"Super":13740,"ders":13741,"sz":13742,"ĠTreat":13743,"Codec":13744,"train":13745,"abstract":13746,"Ġranges":13747,"anga":13748,"topic":13749,"Ġhospit":13750,"Ġcounts":13751,"ĠHarris":13752,"stmt":13753,"Ġsynd":13754,"ĠSher":13755,"ĠRevolution":13756,"ĠLearning":13757,"character":13758,"Ġnormalized":13759,"ocom":13760,"Ġtelling":13761,"Ġopposed":13762,"ailing":13763,"opens":13764,"ĠassertTrue":13765,"Ġflows":13766,"Ġconsecutive":13767,"concurrent":13768,"allest":13769,"translate":13770,"}\",":13771,"Ġrevolution":13772,"imits":13773,"trivial":13774,"Ġvariations":13775,"Ġemployee":13776,"ĠTry":13777,"Idx":13778,"Ġsituations":13779,"Ġfalls":13780,"Ġemotional":13781,"Ġdocumentary":13782,"ĠNorm":13783,"Bits":13784,"Ġpossess":13785,"Ġreliable":13786,"Ġpainting":13787,"owski":13788,"LICENSE":13789,"Ġswim":13790,"Ġcellspacing":13791,"loss":13792,"}_{-":13793,"Ġaccord":13794,"ĠMun":13795,"Ġcellpadding":13796,"ĠVI":13797,"comple":13798,"Ġgrown":13799,"Tax":13800,"Ġdress":13801,"ocy":13802,"ĠAmong":13803,"Ġconventional":13804,"900":13805,"omal":13806,"Ġfranch":13807,"tv":13808,"}[\\":13809,"Ġcompetitive":13810,"ĠJay":13811,"Ġvariance":13812,"Ġbon":13813,"transport":13814,"ĠCab":13815,"ahoma":13816,"Bridge":13817,"Sam":13818,"=\"../_":13819,"Ġinvestigated":13820,"Ġ========":13821,"Ġapproval":13822,"guide":13823,"Ġequals":13824,"Ġ#{":13825,"\"/":13826,"ĠOak":13827,"Ġhosts":13828,"Ġmembership":13829,"features":13830,"Ġdies":13831,"Ġtalks":13832,"\"])":13833,"Ġcomplicated":13834,"Ġcha":13835,"LR":13836,"Ġcircumstances":13837,"Self":13838,"Ġtrading":13839,"1947":13840,"1941":13841,"Ġnotable":13842,"Ġtotally":13843,"Week":13844,"ĠPed":13845,"ĠAdditionally":13846,"ĠMemorial":13847,"Ġassignment":13848,"ĠAgr":13849,"Ġiterator":13850,"Ġenables":13851,"Ġstreets":13852,"Related":13853,"Ġsensor":13854,"ĠUtil":13855,"marks":13856,"Willi":13857,"idal":13858,"Primary":13859,"Ġtemple":13860,"insic":13861,"etc":13862,",.":13863,"Ġdx":13864,"icking":13865,"ĠMust":13866,"Ġ(+":13867,"Ġexclusive":13868,"Ġmaintenance":13869,"Ġchose":13870,"Ġsegments":13871,"faster":13872,"ĠThose":13873,"ĠVice":13874,"Ġfoundation":13875,"005":13876,"ĠSquare":13877,"arma":13878,"Ġbear":13879,"ĠInv":13880,"Ġboundaries":13881,"getClass":13882,"Ġpromoted":13883,"Ġrising":13884,"Ġdiseases":13885,"Ġmagnet":13886,"Ġvoters":13887,"ĠKy":13888,"ĠPrivacy":13889,"verify":13890,"Models":13891,"ido":13892,"çĶ¨":13893,"omes":13894,"ĠIF":13895,"ĠMarc":13896,"iii":13897,"aire":13898,"ĠWARRANTIES":13899,"ĠMaterial":13900,"1954":13901,"ĠEver":13902,"ĠTraining":13903,"gebras":13904,"ĠImm":13905,"BER":13906,"1943":13907,"ĠJenn":13908,"surface":13909,"inema":13910,"ĠGh":13911,"FileName":13912,"512":13913,"ĠĠĠĠĠĊ":13914,"Ġ$,":13915,"Ġboat":13916,"VA":13917,"æĪ":13918,"owntown":13919,"Ġpodcast":13920,"ĠLA":13921,";\\;\\":13922,"ĠPlayer":13923,"Ġbid":13924,"Comparison":13925,"ĠHave":13926,"Ġroy":13927,"Period":13928,"ĠRemarks":13929,"ĠSix":13930,"/)":13931,"Changes":13932,".',":13933,"Named":13934,"isations":13935,")})":13936,"Convert":13937,"!(":13938,"Ġchat":13939,"Ġidentification":13940,"rock":13941,"Ġmillions":13942,"Ġsurprising":13943,"plemented":13944,"Received":13945,"Ġmine":13946,"VAR":13947,"Ġnaturally":13948,"Ġ<?":13949,"uba":13950,"conduct":13951,"Ġcourses":13952,"Ġillegal":13953,"gp":13954,"odge":13955,"listener":13956,"ĠInvalid":13957,"Ġlots":13958,"ĠTerr":13959,"ÑĨ":13960,"Ġplenty":13961,"vart":13962,"ĠOk":13963,"Ġ'#":13964,"Resp":13965,"Ġsurprise":13966,"ĠHop":13967,"mov":13968,"servlet":13969,"dfrac":13970,"Ġsevent":13971,"Ġec":13972,"Ġheads":13973,"Ġfault":13974,"Ġrooms":13975,"Ġremoves":13976,"Reason":13977,"Ġsoci":13978,"Ġsitting":13979,"Ġputs":13980,"Ġisolated":13981,"Dry":13982,"fluid":13983,"ĠFeature":13984,"iph":13985,"ĠQueens":13986,"Ġ^{":13987,"perial":13988,"MPL":13989,"ĠDoc":13990,"Running":13991,"Personal":13992,">`":13993,"interpre":13994,"xygen":13995,"ĠAllen":13996,"ĠLeon":13997,"Ent":13998,"ĠVi":13999,"Ġfired":14000,"sis":14001,"Ġbott":14002,">(<":14003,"ĠStand":14004,"ĠBurn":14005,"Ġaccused":14006,"sea":14007,"Ġscenarios":14008,"Ġĉ":14009,"stan":14010,"ĠTurkey":14011,"ĠMiami":14012,"Ġhook":14013,"flu":14014,"Ġwhenever":14015,"who":14016,"Ġemployment":14017,"nie":14018,"ĠMas":14019,"ĠHur":14020,"Ġscan":14021,"Ġrestriction":14022,"Na":14023,"ĠGR":14024,"Ġpropose":14025,"oi":14026,"ĠTa":14027,"ursive":14028,"ĠDiego":14029,"ividual":14030,"packages":14031,"Ġaddr":14032,"Ġphases":14033,"Ġvaluable":14034,"Ġreligion":14035,"Updated":14036,"UAL":14037,"ĠPract":14038,"Ġhealthcare":14039,"ubb":14040,"works":14041,"PROP":14042,"Ġcollections":14043,"AME":14044,"ichol":14045,"Plot":14046,"setText":14047,"('./":14048,"Ġstood":14049,"]</":14050,"ige":14051,"}}}\\":14052,"Ġdollars":14053,"BOOL":14054,"concat":14055,"Ġdst":14056,"ĠPlant":14057,"Ġlob":14058,"Ġsender":14059,"ĠSweden":14060,"placement":14061,"Ġemissions":14062,"erald":14063,"orry":14064,"Ġkil":14065,"Pod":14066,"Ġmatched":14067,"Ġsettlement":14068,"Special":14069,"Ġreveals":14070,"Ġsurvival":14071,"Ġreply":14072,"ĠNE":14073,"ĠGab":14074,"Through":14075,"Pal":14076,"Ġalcohol":14077,"Ġheavily":14078,"ĠRound":14079,"Ġorig":14080,"Ġtrim":14081,"nail":14082,"Ġslowly":14083,"ĠScient":14084,"Ġkw":14085,"aval":14086,"lobe":14087,"Ġsubscri":14088,"ensing":14089,"ĠJesus":14090,"Ġtries":14091,"Äĥ":14092,"Ġdismiss":14093,"tone":14094,"chat":14095,"Ġreduces":14096,"__,":14097,"Ġanticip":14098,"UC":14099,"Ġsoul":14100,"=\"@+":14101,"Und":14102,"ĠTony":14103,"qual":14104,"103":14105,"]$,":14106,"ned":14107,"=&":14108,"Sharp":14109,"city":14110,"frames":14111,"Ġsi":14112,"Ġregardless":14113,"Ġdipl":14114,"ĠDest":14115,"ventions":14116,"ĠPO":14117,"orne":14118,"pto":14119,"Ġisinstance":14120,"ĠComponent":14121,"thew":14122,"ĠÄ":14123,"oni":14124,"uris":14125,"ĠâĢł":14126,"Ġappeal":14127,"EVENT":14128,"ĠDue":14129,"publish":14130,"Ġprintf":14131,"Ġentities":14132,"RESS":14133,"Ġsuppose":14134,"Ġdisorder":14135,"LD":14136,"Î·":14137,"Ġreform":14138,"Ġdeform":14139,"ĠParse":14140,"Ġfasc":14141,"ainian":14142,"updated":14143,"ÐµÑĤ":14144,"Ġopens":14145,"drawable":14146,"ĠTen":14147,"oli":14148,"Ġinnovative":14149,"Ġsought":14150,"urers":14151,"Ġengaged":14152,"Ġescap":14153,"weg":14154,"Ġroof":14155,"Ġstrip":14156,"Publish":14157,"Ġrevers":14158,"Decimal":14159,"cn":14160,"Ġvoting":14161,"Partition":14162,"Ġranked":14163,"Ġmath":14164,"Ġsweet":14165,"CCESS":14166,"ĠTog":14167,"ĠPier":14168,"ureau":14169,"ĠRegional":14170,"1949":14171,"usted":14172,"ĠSto":14173,"GP":14174,"Ġprovision":14175,"Ġfootballer":14176,"Ġplain":14177,"Ġdictionary":14178,"ousel":14179,"ternoon":14180,"Ġcosm":14181,"Cannot":14182,"Ġhint":14183,"404":14184,"CREATE":14185,"ĠManchester":14186,"=-=-":14187,"ĠConstant":14188,"atile":14189,"Ġslice":14190,"zing":14191,"localhost":14192,"projects":14193,"Ġdesire":14194,"NON":14195,"TRAN":14196,"likely":14197,"bors":14198,"ĠSimon":14199,"endpoint":14200,"prepare":14201,"Ġencoded":14202,"Ġreveal":14203,"Ġ\\]":14204,"Ġstrategic":14205,"Lat":14206,"Ġquark":14207,"aza":14208,"Ġsimultaneously":14209,"unknown":14210,"ĠExper":14211,"ViewController":14212,"ĠDatabase":14213,"Ġquantities":14214,"Created":14215,"Ġjournalist":14216,"notification":14217,"refresh":14218,"350":14219,"neut":14220,"Ġsurfaces":14221,"antry":14222,"ĠOpt":14223,"################################":14224,"ĠLI":14225,"bug":14226,"ĠGard":14227,"Ġredshift":14228,"Ġsessions":14229,"annotations":14230,"Ġmac":14231,"}}_{\\":14232,"redirect":14233,"Vec":14234,"ĠBlog":14235,"ĠKhan":14236,"manifest":14237,"iop":14238,"ĠHandle":14239,"Polit":14240,"Ġphoton":14241,"Ġcenters":14242,"ĠProm":14243,"URN":14244,"Disk":14245,"east":14246,"ĠAppendix":14247,"Ġutility":14248,"ĠSpr":14249,"ĠFa":14250,"Neg":14251,"$_{":14252,"vee":14253,"sure":14254,"Ġgeneralized":14255,"Ġexhibition":14256,"Ġbreath":14257,"elled":14258,"Ġdiscussions":14259,"Ġtrends":14260,"ĠDeep":14261,"ĠPatrick":14262,"factor":14263,"upper":14264,"ĠPartners":14265,"Ġstructural":14266,"uties":14267,"Ġclosing":14268,"Qual":14269,"Ġsuspect":14270,"002":14271,"glob":14272,"HashMap":14273,"Ġourselves":14274,"Ġbars":14275,"ĠCC":14276,"perimental":14277,"ifting":14278,"walk":14279,"ainer":14280,"ĠTab":14281,"ĠNation":14282,"Ġham":14283,"omas":14284,"ĠJane":14285,"witzer":14286,"ĠMrs":14287,"clic":14288,"Pane":14289,"Ġ'-":14290,"Ġnotification":14291,"fghan":14292,"verted":14293,"ĠRailway":14294,"'].":14295,"COM":14296,"cluding":14297,"ĠImport":14298,"ĠStone":14299,"ĠTer":14300,"intend":14301,"Ġbacter":14302,"sep":14303,"disk":14304,"^{(\\":14305,"Ġnan":14306,"Poly":14307,"ĠSilver":14308,"ĠRoll":14309,"Ġassault":14310,"ĠBreak":14311,"Features":14312,"stri":14313,"payload":14314,"Ġsigning":14315,"omer":14316,"perature":14317,"oly":14318,"Tog":14319,"Ġmanagers":14320,"March":14321,"Ġknock":14322,"Ġcharacterized":14323,"`:":14324,"Ġinvited":14325,"rence":14326,"Ġflash":14327,"Iss":14328,"uency":14329,"wi":14330,"Ġisot":14331,"calcul":14332,"ĠCastle":14333,"earing":14334,"Ġgate":14335,"Secret":14336,"ĠArk":14337,"Ġnic":14338,"Ġcoupled":14339,"Ty":14340,"ĠMC":14341,"Â®":14342,"Ġwine":14343,"uh":14344,"mont":14345,"lesssim":14346,"poi":14347,";%":14348,"Ġrestore":14349,"price":14350,"))\\":14351,"ĠRoy":14352,"tb":14353,"BASE":14354,"Ep":14355,"Commit":14356,"ĠAthlet":14357,"Origin":14358,"ladesh":14359,"ĠAws":14360,"achelor":14361,"Ġwheel":14362,"hedral":14363,"118":14364,"Ġpharm":14365,"Ġtoler":14366,"Ġcommunications":14367,"texture":14368,"Anim":14369,"Ġpicked":14370,"ĠLeb":14371,"Speed":14372,"Ġtopological":14373,"gressive":14374,"antly":14375,"Ġblow":14376,"ĠImages":14377,"ras":14378,"ĠSelf":14379,"ĠArticle":14380,"Ġprinciples":14381,"Ġrobot":14382,"Push":14383,"iated":14384,")--":14385,"ĠKit":14386,"activ":14387,"Ġparticipated":14388,"Ġbucket":14389,"ĠCaptain":14390,"country":14391,"ynamics":14392,"nate":14393,"Ġblank":14394,"Ġdesigns":14395,"Fixture":14396,"')->":14397,"Ġgrass":14398,"DED":14399,"Ġmarks":14400,"ĠÂ·":14401,"Ġreput":14402,"quality":14403,"rolling":14404,"ĠTrib":14405,"Ġinjured":14406,"Quant":14407,"ĠWel":14408,"Ġpoetry":14409,"ASH":14410,"ADDING":14411,"expl":14412,"Ġenemy":14413,"ĠIndiana":14414,"nm":14415,"Ġtheatre":14416,"Ġplastic":14417,"ĠImmutable":14418,"ACING":14419,"Ġrefresh":14420,"ĠMilitary":14421,"ecess":14422,"Ġsear":14423,"Typ":14424,"ĠWhit":14425,"Ġprecise":14426,"Ġupgrade":14427,"TextView":14428,"ĠDefinition":14429,"Ġdistricts":14430,"nan":14431,"Ð¾Ð»":14432,"StringBuilder":14433,"Price":14434,"tah":14435,"1951":14436,"Ġregularly":14437,"ĠMaybe":14438,"Supported":14439,"Ġanywhere":14440,"Alpha":14441,"ĠBOOST":14442,"coln":14443,"ĠStill":14444,"è®":14445,"emptyset":14446,"rett":14447,"kee":14448,"addClass":14449,"Ġcoffee":14450,"ĠDa":14451,"Fix":14452,"Ġmaintained":14453,"@{":14454,"Ġcollective":14455,"nol":14456,"Ġunus":14457,"uffix":14458,"Tuple":14459,"Ġcomposer":14460,"Ġnormally":14461,"failed":14462,"Ġconsequences":14463,"Ġpartially":14464,"Ġhappening":14465,"ĠOtherwise":14466,"ĠÐº":14467,"INVALID":14468,"Ġanalyze":14469,"ochastic":14470,"Ġiget":14471,"ĠTennessee":14472,"Ġ'@":14473,"Ġ({\\":14474,"ĠEag":14475,"etition":14476,"witzerland":14477,"ĠExp":14478,"three":14479,"ĠAnthony":14480,"Alert":14481,"Ġenjoyed":14482,"Ġcontinuing":14483,"Ġkinds":14484,"Ġguarantee":14485,"ĠSn":14486,"ĠArgument":14487,"fasterxml":14488,"alaxy":14489,"Ġguidance":14490,"Ġflood":14491,"ĠMars":14492,"ĠMIT":14493,"ĠHD":14494,"Ġconvenient":14495,"ĠĠĠĠčĊ":14496,"107":14497,"Ġsad":14498,"Particip":14499,"Ġsystematic":14500,"}}^{\\":14501,"Ġcrypt":14502,"sequently":14503,"Ip":14504,"razy":14505,"Feb":14506,"Øª":14507,"Ġbriefly":14508,"Because":14509,"iary":14510,"eclipse":14511,"}}.":14512,"Ġregulations":14513,"ĠJoh":14514,"ĠMI":14515,"Ġduty":14516,"Scene":14517,"Ġdefect":14518,"ĠEu":14519,"ĠGraph":14520,"shaller":14521,"}>":14522,"pref":14523,"eren":14524,"Ġforecast":14525,"AK":14526,"Ġpiano":14527,"ĠJosh":14528,"Js":14529,"Dynamic":14530,"__.":14531,"ĠPrice":14532,"ĠBeng":14533,"Worker":14534,"ĠCP":14535,"peg":14536,"continue":14537,"ĠAdvent":14538,"Ġstrengthen":14539,"otions":14540,"ĠMembers":14541,"ĨĴ":14542,"Visual":14543,"ĠPred":14544,"ĠVar":14545,"Ġluminosity":14546,"Ġviewed":14547,"Ġincorrect":14548,"108":14549,"Ġstudying":14550,"ĠMAX":14551,"Å¾":14552,"Ġfees":14553,"Ġpin":14554,"Ġracing":14555,"Ġå":14556,"Ġdominated":14557,"BD":14558,"Ġcarrying":14559,"ologists":14560,"'},":14561,"identity":14562,"oven":14563,"percent":14564,"ĠIns":14565,"asa":14566,"Ġelli":14567,"Mutable":14568,"NI":14569,"Ġclassified":14570,"Ġunexpected":14571,"timer":14572,"pal":14573,"ĠĠĠĠĠĠĠĠĠĠĠĠĠĠĠĠĠĠĠĠĠĠĠĠĠĠĠĠĠĠĠĠĠĠĠĠĠĠĠĠĠĠĠĠĠĠĠĠĠĠĠ":14574,"Ġconsideration":14575,"ĠClark":14576,"ĠStop":14577,"Priority":14578,"hpp":14579,"ĠĠĠĠĠĠĠĠĠĠĠĠĠĠĠĠĠĠĠĠĠĠĠĠĠĠĠĠĠĠĠĠĠĠĠĠĠĠ":14580,"ĠBORDER":14581,"density":14582,"Ġentreprene":14583,"Ġembedding":14584,"Ġkeeps":14585,"Ġfits":14586,"Ctrl":14587,"anted":14588,"Ġproven":14589,"Ġoutputs":14590,"VC":14591,"ĠHum":14592,"ubern":14593,"Ġsharp":14594,"ĠMoore":14595,"MenuItem":14596,"esterday":14597,"Ġalive":14598,"Î»":14599,"ĠDefense":14600,"Ġgit":14601,"Ġtitled":14602,"Ġbath":14603,"]=":14604,"ĠAst":14605,"Ġrely":14606,"novation":14607,"question":14608,"unders":14609,"burn":14610,"Ġcollision":14611,"114":14612,"Ġticket":14613,"Lear":14614,"ĠFALSE":14615,"Ġinformed":14616,"Ġsubsid":14617,"Ġconfigurations":14618,"Ġcuts":14619,"ĠWas":14620,"loaded":14621,"Ġconcepts":14622,"bow":14623,"Ġvocal":14624,"ĠInternal":14625,"andal":14626,"Ġabsorption":14627,"Ġprofessionals":14628,"ĠBry":14629,"Transition":14630,"Ġnovels":14631,"isot":14632,"HOUT":14633,"/***/":14634,"Ġ',":14635,"Ġchecking":14636,"ĠEarly":14637,"ulk":14638,"Ġenhanced":14639,"](#":14640,"192":14641,"Ġapparently":14642,"ĠNigeria":14643,"ĠSarah":14644,"Ġverb":14645,"Ġdashed":14646,"ĠIndust":14647,"Ġconnecting":14648,"FM":14649,"ĠConvert":14650,"ikes":14651,"Ġirre":14652,"urches":14653,"ĠBasic":14654,"Green":14655,"ĠGenerated":14656,"ĠRelease":14657,"sections":14658,"Ġclosure":14659,"Ġpayments":14660,"Mal":14661,"NEW":14662,
[...]
