#version: 0.2
Ġ Ġ
ĠĠ ĠĠ
Ġ t
i n
e r
Ġ a
o n
h e
r e
a t
e n
o r
s t
Ġt he
a n
ĠĠ Ġ
a l
i t
Ġ c
ĠĠĠĠ ĠĠĠĠ
a r
l e
Ġ s
Ġ o
Ġ w
i on
e s
i s
e d
Ġ f
in g
Ġ p
o u
i c
Ġ b
n d
a s
Ġ in
r o
Ġo f
e t
Ġ m
Ġ d
c t
en t
Ġt o
Ġa nd
Ġ h
a m
e l
i l
ĠĠĠĠ ĠĠĠ
o m
Ġ re
Ġ n
Ġt h
i d
Ġ S
c e
u r
u t
o l
Ġ =
Ġ l
Ġ (
< /
ĉ ĉ
Ġ T
i m
at ion
a d
Ġ C
o t
Ġ A
s e
Ġ e
â Ģ
i g
i v
= "
) ;
c h
o d
a g
i f
u l
a y
Ġ g
Ġ I
- -
t h
u n
Ġ <
Ġ {
o w
Ġ M
Ġ is
e m
Ġf or
Ġ st
er s
Ġ v
p e
at e
u s
a c
ĠĠĠĠĠĠĠĠ ĠĠĠ
l y
Ġ on
/ /
Ġb e
Ġ P
u m
t r
i r
a b
o c
u e
Ġ *
i st
as s
Ġ B
t er
it h
a p
a v
e x
e w
h t
č Ċ
am e
Ġc on
p t
Ġ D
Ġ R
v er
Ġth at
" >
Ġ "
an d
Ġ }
s s
ct ion
Ġ H
es s
or t
ou r
Ġ F
2 0
Ġw ith
u b
l ass
Ġ N
Ġ L
o p
ag e
Ġw h
Ġ it
en d
Ġa l
Ġa n
Ġ W
e st
r i
ĠĠĠĠĠĠĠĠ ĠĠĠĠĠĠĠĠ
. .
Ġp ro
Ġ y
a in
Ġ G
Ġ E
e f
( )
Ġa s
l i
ĠĠĠĠ Ġ
s p
k e
* *
q u
âĢ Ļ
o re
e ct
ur n
m ent
Ġ r
ro m
it y
u p
n t
ĠT he
ar t
Ġc om
er e
Ġw as
Ġe x
Ġa t
Ġ or
il l
in e
ac k
p ort
Ġth is
o g
u re
e c
l d
Ġ O
Ġb y
ab le
o s
al l
p l
Ġc lass
t urn
-- --
y pe
Ġ $
Ġ he
= =
i le
Ġ J
i z
i es
iv e
ig ht
g et
ul t
Ġ if
an t
an s
Ġ '
1 9
ex t
Ġt r
Ġf rom
Ġa re
od e
er t
u d
a st
on t
i al
0 0
an g
ou t
Ġ âĢ
u st
r ou
ĠĠĠĠĠĠĠĠ ĠĠĠĠĠĠĠ
in d
a ct
l ic
Ġ U
or m
Ġc h
a re
ar d
Ġn ot
e v
in t
e p
f f
o v
c om
i re
av e
pt ion
i b
Ġ le
ar y
o st
Ġs h
i p
at h
as e
at a
or d
I n
- >
a ce
Ġ //
' s
o k
st r
Ġre turn
b er
el l
a k
at ed
ic e
Ġs e
j ect
Ġw e
20 1
Ġ </
: :
.. /
ĉĉ ĉĉ
Ġ j
id e
al ue
Ġ -
i a
im e
l o
re f
ub lic
ou ld
T he
on g
Ġn ew
ig n
Ġy ou
re s
our ce
or k
Ġ K
Ġin t
Ġp l
e ar
it ion
Ġ &
p ro
ic h
Ġ [
er v
Ġh ave
on e
Ġ @
c on
Ġ V
ĠI n
il d
p le
p er
oc k
) ,
an ce
" ,
c c
el f
S t
m l
Ġ us
d d
Ġh as
e g
or y
ĠS t
g e
c l
it e
Ġ u
un ction
f orm
) .
a il
ic al
Ġa b
( "
en ce
Ġ k
Ġal l
ar am
re ss
Ġ /
Ġa r
( );
ul l
c ri
ess age
Ġcon t
d iv
ĠT h
Ġc an
Ġh is
> </
ro w
u g
sp an
th er
en s
o b
Ġ un
q ue
Ġ im
p ut
in k
he n
âĢ Ŀ
l l
Ġre s
tr ing
> <
Ġ \
ou s
---- ----
ent s
iz e
ation s
Ġw ill
r a
Ġd o
i ew
s et
s o
om e
en c
E x
a ch
' ,
r y
Ġo ut
Ġa p
Ġb ut
ĠC h
Ġ +
../ ../
** **
d u
Ġst r
ou nt
ow n
Ġp ublic
Ġ .
Ġwh ich
Ġ* /
Ġ up
s h
o ok
t e
Ġ |
Ġp r
Ġg o
u al
et h
Ġg et
Ġn ame
o ol
er r
ou nd
c he
== ==
1 0
e le
ht ml
e b
i el
on d
Ġ :
ĉĉ ĉ
i an
c k
ar k
a ke
re e
g h
t p
is h
ter n
ĠĠĠĠĠĠĠĠ ĠĠĠĠĠĠĠĠĠĠĠ
E R
en er
ir st
Ġthe ir
Ġh ref
in al
Ġon e
p r
er y
( '
f t
o id
iel d
n e
Ġwh o
le s
Ġd ef
ĠĠĠĠĠĠĠĠ Ġ
m er
Ġthe y
n ame
or s
20 0
ing s
Ġm e
P ro
s ource
th is
N ame
le d
Ġw ere
ĠâĢ ľ
Ġe v
Ġd is
m essage
a x
Ġ Ċ
Ġcom p
y st
O N
_ _
h er
Ġ Y
que st
cl ud
Ġm ore
Ġf unction
Ġ #
Ġp er
I N
p h
f er
ic t
rou p
r it
Ġs et
im port
ol d
Ġm an
tr ans
ke y
) )
pe c
b ject
T ype
at es
Ġ en
Ġs o
a w
Ġp art
f ig
ion s
S tring
r r
Ġa g
Ġv ar
ic k
ol l
Ġt ype
ay s
I d
u se
Ġ= >
at ch
c re
yst em
t d
Ġal so
p aram
i x
i o
al se
C on
l ation
at ic
ap p
/ >
o int
Ġab out
Ġit s
pe ct
Ġh er
Ġh ad
el y
# #
Ġo ver
Ġs u
1 8
n g
nd er
re turn
f ter
c ode
Ġy ear
Ġw ork
at er
am es
R E
R e
: //
ĠI t
u ild
Ġp re
c o
Ġbe en
is s
le ct
c ont
Ġl i
ac he
" />
ar g
at or
C ont
Ġn e
Ġv alue
l ock
cri pt
1 2
Ġa ss
ĠU n
Ġw hen
p ert
ov e
Ġt ime
w o
Ġo ther
f o
Ġs p
T h
Ġ ro
er m
t o
ang e
Ġs elf
o se
Ġc l
s er
i e
Ġd e
Ġf irst
od el
ur re
ou n
C om
Ġ !
ĠH e
g r
a id
Ġa dd
on s
Ġa d
Ġ el
Ġ end
S T
Ġan y
eth od
trans lation
c ol
ce ption
Ġof f
ad d
en g
Ġd ata
rou nd
ĠâĢ ĵ
t ype
R es
Ġcom m
ic s
ar ch
a ult
an c
L ist
Ġd es
c lass
Ġl ine
Ġ _
oc ation
Ġp e
am p
Ġw ould
u ct
A T
em ber
al s
Ġ id
an n
w e
um ber
Ġ= =
v e
if ic
Ġs up
op le
y s
ad e
C h
Ġc ol
Ġs c
Ġint o
ig h
Ġt e
it le
re ad
ation al
Ġin ter
Ġcon st
d ef
Ġc re
O R
t on
1 6
Ġth ere
ht tp
Ġth an
ut e
v ent
m s
at ure
he d
r ap
as h
Ġs ome
erv ice
at ive
Ġn ull
s on
ĠC om
Ġv oid
Ġy our
Ġre c
Ġ qu
Ġn o
u es
is e
Ġ i
l ine
"> <
b o
Ġk n
i ous
p os
iv ate
1 1
at ing
Ġa cc
.. .
ers ion
Ġa ct
u nd
ment s
ad er
L E
Ġpl ay
Ġo p
urre nt
tr ib
Ġs he
Ġon ly
A R
Ġin d
um ent
Ġ >
Ġs aid
i ed
Ġin clud
or g
c ess
y n
ĠTh is
ire ct
al ly
o y
) );
) :
Ġb ack
qu ire
Ġo ur
Ġt wo
v al
s elf
y p
it ed
o ver
I D
1 5
or ld
ut h
Ġthe m
Ġf alse
Ġor g
n ing
ĠA r
m b
Ġre g
w w
Ġli ke
Ġ| |
Ġa fter
T r
ĠP ro
Ġs ub
n er
m a
f r
ĠĠĠĠĠĠĠĠĠĠĠĠĠĠĠĠ ĠĠĠĠĠĠĠ
**** ****
" );
ĠN ew
ĠĠĠĠĠĠĠĠ ĠĠĠĠĠ
Ġpe ople
em ent
as k
b ack
as ed
-------- --------
Ġb et
Ġtr ue
str ing
E N
ab el
Ġu nder
Ġf e
Ġ `
w ard
e y
Ġu se
ption s
it ies
s um
t ext
A L
p on
Ġm y
Ġres ult
er n
Ġin st
c a
Ġel se
av a
m in
Ġm ay
ol og
ag es
ĠT r
l and
Ġwh at
Ġj ust
an k
oc al
n b
t em
Ġ err
it s
Ġs pec
y le
// //
ot h
Ġ --
t s
Ġre l
in s
od y
ev el
v ar
d ata
f ile
Ġre m
Ġpro v
b le
rou gh
u ff
V alue
ul ar
ib le
Ġd ec
' t
v iew
Ġs ec
pl ic
D ata
ow er
e k
u le
Ġt est
t ing
is hed
am ple
p re
o f
pert y
T o
o le
le ction
ic es
li ent
ar get
il ity
nb sp
re am
3 0
ver y
Ġ ent
S S
r ay
m an
Ġwh ere
eng th
Ġf inal
ou gh
Ġtr ans
ut ion
2 5
Ġf il
iv ers
w n
i er
d er
Ġ )
1 4
re at
l og
S et
a ir
C ol
Ġ/ **
Ġa c
" )
ur ing
Ġch ar
al e
b r
Ġh ow
Ġv al
Ġin v
an y
Ġh im
le ment
Ġa m
s c
19 9
1 7
Ġp ol
d ate
mer ic
p x
re n
id th
Ġf ile
ĠĠĠĠĠĠĠĠĠĠĠĠĠĠĠĠ ĠĠĠĠĠĠĠĠĠĠĠĠĠĠĠĠ
ĠA n
Ġm ost
f l
Ex ception
v alue
id er
==== ====
ĠS h
Ġb o
l ocation
ĠĠĠĠ ĠĠ
r u
res ent
Ġthe n
a ction
il y
Ġth rough
t he
t est
Ġus ed
Ġst art
Ġsh ould
f ul
Ġstr ing
in ed
ow s
1 3
ar s
Ġl ist
ro id
are nt
Ġne ed
ĠA l
a h
ĠS e
âĢ ĵ
b e
] ;
tern al
re d
E rr
Ġe m
Ġ// /
Ġd r
at us
E n
o od
p p
if e
et s
Ġyear s
p ress
Ġfor m
a z
Ġst atic
I T
Ġd if
ot her
3 2
Ġc o
ĠC on
ĠE x
( $
O bject
Ġb r
C T
Ġp h
Ġpr ivate
Ġ& &
n ew
D E
ĠR e
id ent
c ed
d ay
A N
as on
o ss
Ġc ould
ro l
ĠW e
ist s
00 0
cc ess
_ {
in es
Ġpro du
Ġf l
ch ool
ers on
he ck
in ce
A t
Ġst ud
Ġc ase
Ġ! =
is ion
ĠS tring
v el
T est
iz ed
Ġag ain
pl ay
Ġg r
m ary
c ent
r c
S E
() .
f ore
B y
evel op
Ġsu ch
r ight
t ed
et er
i ent
n ot
iv er
Ġl ong
G et
ro ll
Ġ Q
we en
p s
Ġr ight
} ,
' )
Ġthe se
Ġ %
oll ow
ou se
U n
l ink
() );
Ġs er
Ġ x
Ġcon s
en se
enc es
Ġw ell
Ġn umber
g er
Ġo b
' ]
Ġn ow
ĠW h
w ork
. âĢĿ
b y
s ize
le t
u ch
rap h
R ef
oc i
or n
t tp
Ġm ake
Ġ key
. _
M E
Err or
f ace
if y
it em
ĠA meric
tr y
f or
b ar
p ublic
o ot
ot t
V iew
w ay
a f
l er
H e
ant s
F ile
Ġc all
form ation
âĢ ľ
p ace
o h
I m
Ġbe ing
C O
n av
Ġre ad
at t
ep end
5 0
ord er
Ġd id
ag er
ĉĉĉĉ ĉ
ce pt
s cript
I nd
Ġbe fore
re ak
C lass
l ist
l p
Ġbet ween
" ;
Ġr un
ut il
Ġm in
Ġg ener
"> </
t il
i k
c es
j s
Ġap p
oc ument
Ġs ign
lo ad
Ġd et
m it
m e
Ġre sp
Ġ ed
m od
gr am
Ġf ound
Ġl ast
qu ot
[ '
A n
ĠĠĠĠ Ċ
Ġs ystem
um n
K ey
Ġh and
Ġdo es
Ġe very
Ġman y
. </
iv es
ind ex
ca use
Ġo bject
lo b
Ġre quire
' );
Ġwh ile
Ġd ist
is m
in ter
ist er
Ġsup port
Ġbe cause
ess ion
l ay
ĠA nd
im es
f unction
Ġar t
are d
Ġs m
Ġex t
Ġg roup
. "
Ġm od
Ġe ff
if ied
2 4
us h
Ġl ook
enc y
S h
re g
r ite
r al
al k
Ġp oint
Ġat t
ĠI nd
t ime
Ġt itle
Ġ Z
Ġse e
Ġo per
ain s
! --
us s
ur l
a j
1 00
Ġev en
Ġc urrent
Ġdif fer
R O
Ġf r
sum mary
ĠF or
ĠA s
str uct
ĠI f
Ġm on
cri ption
u c
i ence
=" ../../
U L
ar n
Ġf ollow
() ,
ath er
g o
ivers ity
2 2
or th
Ġm ethod
Ġsh ow
Ġc oun
al th
ed ia
Ġkn ow
Ġm ade
ĠI s
I ON
b ers
uff er
t op
Ġst ate
Ġc al
Ġh igh
Ġw ay
op y
o ad
os ition
v oid
e e
ate g
Ġs ur
rr ay
t y
=" +
f ield
ack age
Ġc ent
A r
og le
p ath
uth or
ot e
ak ing
] ,
Ġw orld
Ġp ass
Ġim port
ĠF r
Ġar g
A C
ĠS c
s ub
ĠC ol
t en
Ġs im
6 4
Ġb el
it or
Ġs ame
Ġ/ >
Ġo wn
d is
ure s
e ver
Ġv ery
O n
r ic
iz ation
" :
Ġex pect
ar m
T ime
Ġb uild
Ġd own
Ġe ach
p ar
Ġb l
Ġs erv
qu al
Ġf am
T E
Ġd irect
y m
l ang
at s
se arch
19 8
ĠR es
m ath
ur ation
Ġre p
olog y
le ar
ap t
le ss
in ess
Ġd evelop
et a
Ġw ant
E vent
Ġm em
Ġus ing
iv en
A s
Ġth row
Ġd on
w h
ect ed
us er
ro ss
con st
T ext
Ġcom ple
Ġsec ond
Ġg u
ou th
Re quest
Ġch ild
Ġ ?
L A
] .
ra w
Ġm ov
` `
ual ly
Ġf ield
Ġw rit
l ish
g round
{ \
P ath
g roup
I C
F or
ical ly
Ġte am
Ġh ere
ĠD e
P E
r on
Ġth ose
/ *
i ev
M an
2 1
Ġb oth
Ġf ind
Ġd uring
Ġ );
t able
ch n
Ġth ree
on se
trib ute
ect or
/ **
Ġc or
u ck
Ġth ink
Ġass ert
m d
I nt
A dd
it al
Ġgo od
re m
o x
lo se
iv ing
T R
http s
4 0
b ut
ĠP h
In fo
Ġre quest
Con fig
ames pace
, âĢĿ
## ##
Ġm uch
ĠY ou
port s
ust om
Ġev ent
Ġ-- >
iss ion
it ial
iv ed
F ield
Ind ex
ain er
N ode
us ic
b s
ole an
ur s
w ord
Ġhe lp
end s
un c
' :
Ġpro cess
. ,
Ġh ttp
con fig
com m
W h
() )
Th is
in a
an e
Ġm ark
st ance
a it
Ġ X
20 19
ist ory
ro p
ĠC l
ain ing
ak es
Ġin formation
2 3
Ġre le
l abel
I tem
r ide
ur y
Ġ$ \
Cont ext
M ap
ĠM ar
P aram
W ith
et work
Ġa ut
Ġcont in
id d
v ir
P I
re t
w it
yp es
U R
= '
d t
us iness
201 8
ĠL e
ww w
Ġp aram
ur al
Ġv is
Ġop en
St ate
h ip
oh n
Ġcomm un
Ġe ar
it er
O ver
ĠO n
Ġc ar
Ġto p
m p
Ġs ize
n ess
Ġle ad
F orm
Q u
um p
l ength
Ã ©
ĠâĢ Ķ
ĠA t
s ide
ction s
ĠĠĠĠĠĠĠĠĠĠĠĠĠĠĠĠ ĠĠĠĠĠĠĠĠĠĠĠ
ic on
3 3
ap i
W e
in clud
el s
Ġm ust
g ht
Ġerr or
le ft
Ġre f
Ġe st
D ef
o ff
Ġcont ent
S ervice
Ġst ill
ign ed
Ġp ar
6 0
ap ache
} }
m y
ind ow
Ġper form
Ġs ol
com e
Ġtr y
Ġbe g
Ġ/ *
Ġagain st
Ġ( !
Ġdiffer ent
ĠUn iversity
Ġn ext
u f
Ġp erson
Ġm ain
ĠB ut
19 7
ĠP r
ĠS he
d es
ok en
ĠM ay
" "
b all
ĠâĢ ĺ
Ġs om
en u
O r
E lement
ist r
âĢ ¦
ag s
lob al
Ġl ocal
N ot
plic ation
it t
Ġt arget
Ġ} );
ev ice
m ed
u i
Ġre al
******** ********
Ġrec ord
ĠO r
Ġl ife
//// ////
ain ed
Ġs ing
ent ial
Ġpro t
Ġm odel
c al
un e
om en
Ġt ake
err or
Ġdef ault
' ;
D es
Ġar ray
ĠA d
Ġf act
Ġle t
ail s
2 7
Ġprov id
Ġl ink
le y
Ġp ost
S ize
Ġa v
tr ue
Ġg ame
Ġgo ver
i um
Ġap pro
Ġp op
as es
Ġc our
Ġc r
t itle
col or
in put
u ro
A rray
Ġs l
Ġt ext
en n
Ġinclud ing
b lock
Ġre ce
ile d
A ll
Ġhe ad
m ap
IN G
Ġpart ic
Ġb ook
n ext
b ody
I G
pt y
ob ject
he ad
2 8
Ġus er
t a
Ġle ft
Ġa round
I t
ail able
n ment
Ġwe ek
il ter
U T
ĠUn ited
Ref er
ig inal
Ġd ay
Ġp at
pro t
Ġpl ace
C ode
Ġpro gram
r ist
Ġ} ,
res ult
Ġc are
en e
201 7
ass ert
ou ble
Ġd el
201 6
val id
m odel
B uild
H E
ĠAmeric an
A D
et y
F r
A l
f rom
ast er
ir d
yn c
F F
n ode
f in
Ġl og
and s
pon ent
re sp
Ġor der
="../../ ../../
w are
ĠA ss
pl ate
p or
Ġs ay
ut es
} ;
et urn
Ġm et
able d
l ing
H and
Ġt ri
Ġv iew
on y
I s
ill ion
Ġs chool
Ġc heck
; &
Ġ z
v ious
w idth
ur ity
Ġb reak
2 6
cre ate
Ġle vel
i or
L O
in ation
Ġs ince
I S
ac es
Ġo ld
O f
ic y
Ġpro ject
act er
Ġex per
ĠE ng
Ġp res
Ġre port
M essage
ĠS ystem
re ate
Ġs rc
Ġcre ate
v ersion
ĠA ll
Ġin cre
> &
our ces
Ġn on
ens ion
2 9
a ut
com p
s w
Ġj ava
[ ]
Res ult
Ġap pe
l ished
ĠJ ul
Ġbe st
oc us
M A
av ing
Ġl aw
lo at
ific ation
201 5
Ġis s
tern ational
pl oy
def ault
ĠM an
ĠG r
j ava
+ +
tr act
Ġt em
ĠCom m
E D
ĠU S
ĠS p
et ers
Ġf in
ic le
Ġ __
w ays
sh ip
Ġg iven
t ings
g t
ĠB l
ĠP l
ir c
eg in
A nd
e qu
l t
Ġfollow ing
Ġstr uct
is ed
Ġb lock
u age
st art
ĠB r
bo x
V al
ĠJ ohn
t es
Ġf our
co pe
che d
Ġan other
Ġv ersion
che s
ar i
201 4
ug g
Ġp oss
ĠE n
ne ction
cont ent
ver t
Ġ ke
end er
b ase
âĢ Ķ
a i
.. ..
Ġex pl
in fo
ĠG et
ĠThe y
ĠH ow
and roid
Ġcal led
Ġcon fig
og raph
Ġ= ==
ition s
o in
Ġp ath
E S
c ss
ĠC ent
Ġp ower
Ġwith out
Ġeff ect
lic k
ol v
N ew
du ct
Ġan n
Ġc a
ot s
Ġm at
roll er
st ate
---------------- ----------------
E T
Ġt erm
Ġd ep
p oint
M L
S ystem
A B
ul ation
L og
includ e
ide o
Ġcon f
t n
Ġ: =
ur ch
Ġp osition
Man ager
oc ial
ac y
pon se
U p
M odel
pl ace
Ġle g
Ġre t
Ġgo ing
Ġc ode
8 0
Ġh ome
U N
Ġb ase
Ġre ally
a ff
Ġch ang
Ġ Â
T D
UL L
A S
Ġs k
us ing
U S
Ġs ays
ĠC an
pert ies
U ser
an sp
Ġex p
cont ext
Ġorg an
S c
um an
Ġdis c
M P
Ġs ervice
Ġad v
if t
O ut
ar r
iv ity
ele te
B ut
Ġex ample
ĉĉĉĉ ĉĉ
vir on
T able
or ies
Ġb ro
ear ch
Ġst yle
s y
S er
p ackage
at ely
ĠB e
o ption
u k
def ine
Ġfe ature
Ġit em
O T
od es
Ġp resent
ater ial
ition al
end ed
ĠĠĠĠĠĠĠĠ ĠĠ
=" ../
Col or
read y
um er
a im
lect ed
a pe
d own
ĠJ an
ott om
ef ore
ĠN o
ar ge
ore d
ict ion
Com m
Ġsu ccess
" .
; </
Ġsm all
en ame
Ġto o
Ġfil m
Ġm ed
In ter
F rom
ĠSt ates
Ġs pe
press ion
n et
ĠT o
g y
ab ility
EN T
Ġd em
Ġb usiness
Ġ} ;
Ġfam ily
I L
Ġmon th
Ġo ptions
am ed
ou ght
ele ct
s m
Ġf ew
Ġte chn
Ġin s
Ġacc ess
Ġin put
w eb
b l
A p
Ġadd ress
Ġcont ext
n amespace
Ġh app
, "
aj or
ref er
c ast
Ġall ow
v en
=" #
Ġg reat
Ġc ap
um e
d oc
Ġch ange
4 5
Ġst and
itt le
re c
Ġoff ic
Ġwith in
anc es
Ġ Ð
ĠI m
Ġse ason
ĠW orld
Ġinst ance
pr int
D O
Ġav ailable
Ġinter est
ĠC ar
Ġl a
Ġt able
go ogle
Ġl ater
C lient
ord ing
R eg
ire d
Ġm usic
ĠC o
Ġcont rol
im it
g ress
in c
Ġp ut
201 3
> (
G roup
iv ely
Ġpol it
Pro perty
Ġm ult
======== ========
Ġn il
fer ence
Ġind ex
ĠN ov
a u
g ed
Tr ans
i ans
d b
< !--
l ight
Ġbe h
Ġ enc
Ġim p
f alse
ard s
Ġvar i
is on
Ġid ent
u les
um ents
n o
il t
ith ub
Ġresp onse
Ġt urn
ĠT e
Ð °
D is
c ount
} \
our n
) </
e ad
ord s
Ġb ool
C E
Ġs ource
st atic
ĠY ork
P l
iv al
ag ement
end ing
th ing
Ġb ig
Ġb ased
eth ing
Ġinv est
he s
Ġo cc
ne y
Ġp o
m ethod
b uild
Ġcons ider
ĠP ol
C all
6 6
ir t
Res ponse
ut ure
ev ent
Ġst d
up port
Ġe le
Ġne ver
Over ride
ent ly
Qu ery
Ġw in
Ġc ell
Ġse ver
ple ment
che ck
il li
C ount
le x
} $
Ġun til
a iled
st and
P r
Ġb u
c ore
ap s
Ġd ocument
Build er
ĠĠĠĠĠĠĠĠ ĠĠĠĠ
Ġcomp any
3 5
Ġkn own
p en
in it
b egin
N A
Ġinclud e
viron ment
m ax
Ġf ull
Ġgover nment
ou d
} )
if ier
R ec
ĠW est
Ġm essage
b ed
am b
g ithub
201 2
Ġand roid
i que
ĠA pr
Ġn ode
o ke
ib r
ĠD r
Ð ¾
eb ug
^ {
Ġser ies
ain t
9 9
Ġen g
ward s
Ġf ore
Ar g
ot o
Ġc ount
ĠA ir
act ory
c all
ure d
C l
Ġ es
s erv
ĠO ct
Ġm ax
i od
C ell
n ect
A d
ĠN ational
ĠA p
Ġ et
al es
li b
M od
T H
Refer ences
0 1
ĠA ug
uro pe
con om
I P
s k
ĠTh ere
ar ray
ĠCh rist
arg in
orm al
er ing
ĠC al
q l
Ġare a
c er
id es
ĠG u
Ġb order
Ġpro m
b ook
D ate
ĠE d
ĠR eg
ĠM in
Ġg row
ĠL ist
P h
at ab
Ġp ub
Ġ quest
Ġp arent
Ġpro ble
Ġst ory
Ġn ear
Ġval ues
St ream
ab ly
Ġcol or
om an
M ethod
ĠS et
mb ol
ĠSt ate
pec ial
o sp
ĠA ust
C H
Ġ( )
Ġd i
ith er
ĠC ont
fin ished
u ary
n ull
c urrent
Ġchild ren
Ġor iginal
( \
ĠP ar
se mb
Ġcon d
ĠJul y
U til
qu ery
al ity
Ġs it
201 1
h old
B ar
ec ut
N o
ĠĠĠĠĠĠĠĠĠĠĠĠĠĠĠĠ ĠĠĠĠĠĠĠĠĠĠĠĠĠĠĠ
Ġal ready
ra ft
ert ain
d e
b um
ĠS o
Im age
o ptions
ĠS chool
Ġle ss
ent ion
eg er
201 0
at ors
ĠC ount
cre en
3 9
Ġhe alth
5 5
i ke
Ġp ay
pro v
d ir
Ġw he
I f
Ġal ways
ag ed
am a
Ġ ,
ic ro
Ġse em
un g
Ġpro f
Ġsom ething
Ġm ight
Ġdes cri
al f
Ġpro perty
un k
ĠW ar
d om
ĠM arch
our s
Ġsing le
st it
str u
c lient
er al
Ġa ction
Ġl ang
is ing
Ġa ff
Ġrep resent
Ġp age
ph p
ann el
] (
ĠJ une
Ġsh ort
In put
Ð µ
ON T
f unc
tr a
re quest
3 1
3 4
ic a
ĠA b
S ub
Ġal ong
al y
im age
Ġcom e
Ġcoun try
un finished
Ġm atch
on es
re en
] )
Ġdes ign
Ġ< <
Ġw omen
Ġst at
se ction
Ġa uthor
am ent
E d
th ers
Ġke ep
Ġas k
u ed
f e
Ġf oot
ĠR ep
u x
Ġre st
ĠC ity
ic ense
Ġbet ter
Ġc ity
Ġth ings
Ġmem bers
B e
Ġback ground
Ġl oc
F l
ĠG e
Ġm ajor
d l
\ \
se c
but ton
3 7
arg s
s l
Ġe qu
St atus
Ġe lement
ag ue
o ice
st yle
Ġf ree
I R
Ġprodu ct
ĠN ULL
E nd
Ġre search
h and
ĠS outh
ĠW ith
ig ation
se e
Ġf ri
us ed
Ġh ard
j av
m ber
B lock
m et
re w
O P
Ġ ide
um b
ĠE urope
o ber
it ive
O L
Ġm ar
A P
ser ver
ur ther
ĠI N
S tr
In stance
A ss
ĠB rit
A ction
ol ution
rit er
l s
Ġs ide
Ġc lear
Y PE
ix ed
G ener
L ay
Ġc amp
Ġf ac
an el
il it
Ġg ot
ĠM c
w ith
Ġbo olean
ib ility
Ġl ate
ĠĠ Ċ
ĠF eb
Ġresult s
Ġex ist
ĠApr il
Ġs um
Ġh istory
ĠĠĠĠĠĠĠĠĠĠĠĠĠĠĠĠ Ġ
Ġto t
Ġl ittle
ĠF l
Ġp ort
ĠS ec
one y
3 6
pt ember
ight s
Ġin itial
wit ch
Ġear ly
Ġplay ers
act ive
x ml
E L
Ġm illion
or age
Com ponent
( (
S ource
9 0
A ct
RE F
r un
add ing
im ate
ĠB o
il le
at form
T oken
et ing
che ma
P ar
O ff
Ġr ange
st er
Ġsever al
[ "
he ader
Ġchar acter
d o
Ġg l
ĠP art
a ug
Ġout put
Ġ ->
Ġ" ""
il ar
x y
Ġw on
Ġs ong
4 4
Ġimport ant
N av
atab ase
3 8
ache d
E qual
y les
L ine
pos ition
con d
Ġw ater
pos ed
Ġro le
le ge
ĠN ot
al t
l in
op s
Ġrequire d
Ġv ol
er a
n ow
Ġsup er
19 6
Ġle ast
Ġu nd
ĠTh at
Ġb as
p age
ip p
Ġ+ =
b tn
Ġh ost
art ment
Ġw idth
N S
Ġn etwork
ĠN orth
ap er
ĠA ct
Ġf ar
op er
A pp
Ġj ob
und le
B ase
in ary
Ġde ath
Ġc ustom
N ull
ĠCount y
is k
ad a
Ġb ody
p art
200 9
ch o
Ġd est
Ġw ar
Ġspec ial
m ark
Ġl ot
ĠJan uary
ĠP res
h as
ĠI nt
Ġd ays
Ð ¸
if f
Ġlink s
t arget
t x
ĠA dd
Hand ler
B uffer
p arent
n s
D ec
he ight
O ptions
ĠG o
app end
E X
S P
Ġt imes
er ed
Ġr a
S C
le ase
Ġme an
Ġfe el
Ġm ove
ri or
re et
c y
Ġpre vious
S elect
ug in
Ġexpect ed
E m
Res ource
ist or
ĠT est
ad i
ĠB y
Ġest ab
7 0
ce mber
ĠAug ust
O D
Ġcommun ity
Ġbel iev
ir m
Ġim age
Ġe lect
Ġh uman
Ġt alk
Ġl arge
Ġc ost
A G
id get
ch ild
Ġtr ack
Ġass oci
ĠOct ober
i ol
o pt
ĠĠĠĠĠĠĠĠ ĠĠĠĠĠĠ
h am
row s
ĠSe ptember
( {
pro perty
200 8
j son
Â ł
ĠG ener
Ġp ast
ial og
Ġdis play
ĠW hen
ĠS er
à ¤
F A
d r
Cont ent
v ers
oc ol
id ual
ar ing
Ġf und
nav bar
Ġb it
Ġd one
Ġh old
Ġal bum
ad ata
Ġcl os
O per
ri x
al ys
Ġd iv
T O
At tribute
er o
Ġof fer
at ter
Ġc over
ag n
U E
ĠO ff
g ing
og n
an a
4 8
Ġar r
00 00
Ġyou ng
z e
Ġa ir
ateg ory
St yle
t t
o pe
e q
V ER
7 5
ĠĠĠĠĠĠĠĠ Ċ
Ġan t
Ġs ocial
re st
ip le
am s
G L
ĠC lass
Ġto ok
ult ure
i ef
id ence
id s
Ġd eb
ĠR ob
LA SS
L ink
ĠD es
out e
ri b
Re ad
Ġwork ing
ion al
Ex ternal
Ġa way
Ġk ind
b it
E E
re l
Ġc he
im ary
Com p
Ġfor mer
Ġm edia
Ġm aking
ound s
Ġm ap
Ġl ove
H T
Ġst ep
ĠR ec
ĠG erm
Ġe as
ig r
ĠD is
Ġbe come
ĉ Ċ
se lect
trib utes
AT E
y l
Ġpr int
* /
c ame
R un
Ġac ross
c le
Ġacc ount
Ġcl aim
Ġh aving
F actory
e ction
ot ype
ak en
St art
ru ary
Ġval id
Ġwhe ther
Ġposs ible
m ember
d ec
re ed
d a
Ġstud y
an ch
Ġpartic ular
v es
Ġtr ad
C K
Ġbe came
0 8
c ell
Def ault
stru ction
p tr
Ġdevelop ment
Ġli k
ew ork
Ġc ame
idd le
E qu
co ver
op en
Ġprov ide
} {
ĠR ev
ĠN one
pect ed
op h
S ec
Ġme ans
ĠAust ral
ĠB ar
Ġ ...
Ġl and
w rite
' re
row ser
Ġ( $
Ġin c
Ġc lient
Ñ Ĥ
N umber
ac ed
P art
Ġd ue
ĠO bject
F unction
ĠNov ember
p ly
Ġind ust
0 5
a ul
ansp ort
Ġof ten
Ġab le
Ġpr act
Ġs ite
ĠR uss
n own
re ct
ic ation
ĠCom p
un ch
Ġe p
pr ivate
19 5
Ġsp ace
Ġf ive
Ġe conom
st atus
Ġon ce
o o
Pro v
Ġdoes n
im um
im al
L abel
Y ou
V ersion
ad o
Ġm ember
ĠDe cember
t ab
ĉĉĉĉ ĉĉĉĉ
id ge
c ase
Ġtot al
ab or
m ost
p ost
P oint
ing ton
s rc
li ed
Tr ue
ill s
st ream
ĠĠĠĠĠĠĠĠ ĠĠĠĠĊ
Ġper iod
Ġth ough
p y
ĠM e
im g
Ġs ure
Ġe ither
ĠC or
Ġto get
Ġcon c
Ġtoget her
l ast
Comm and
Ġf uture
" ]
Ġs ent
Ġwh y
Ġl arg
ri ed
iz er
C C
Ġprot ected
Ġd om
ĠD o
M S
Ġre du
ir th
Ġl oad
ĠD av
mod ule
Ġed uc
ĠM ed
Ġam ong
Ġcomm and
ĠP er
Ġh ouse
T ask
am ework
f ind
Ġcom put
b ottom
s g
Ġf ocus
ĠAr t
Ġst op
Ġev ents
Ġo pt
Ġthrow s
Ġto day
h ost
ĠO ne
Ġn um
ele ment
y ear
H el
Ġth ought
e ed
$ {
Ġs y
ph a
O S
Ġcre ated
ch ar
ĠC oun
Ġserv ices
Ġp ot
Ġm en
irt ual
so le
c il
id ed
G r
ĠR eturn
L ast
ther n
Ġres ource
ĠQ u
C heck
Ġdid n
Ġ{ @
st d
Ġstud ents
R A
Ġg ive
l ocal
ft ware
al ign
Ġt ell
and om
oc r
F ilter
re quire
ond on
ud io
end if
ĠHow ever
Ġc lose
p ush
Ġre view
Ġin div
P age
r l
f irst
Ġc opy
Ġo ption
Ġst atus
Ġab ove
0 7
m eta
u ation
Ġl ight
ourn al
he et
n a
ag ing
Ġc atch
Ġstr ong
alys is
Ġcom b
lay out
} );
$ .
al let
ist ry
im ent
able s
) {
v is
ĠA g
ou ch
Ġoffic ial
Ġb en
200 7
N O
str ong
Ġh ig
Ġd ate
F ONT
g ener
Ð ½
Ġl abel
olv ed
Ġe ver
as cript
Ġme as
F I
ĠFeb ruary
Ġn ational
C reate
un ity
p ack
Ġexper ience
he l
ĠP e
Ġen ough
ĠCh ar
Ġatt ack
Ġpl an
i ents
ro du
fl ow
Ġann oun
} .
s igned
in ition
Ġcour se
ugg est
0 4
ef f
in o
Ġg ames
S p
Ġd epend
Ġcomp et
Ġs ix
Ġcomm on
ĠD ef
n ers
is es
av es
// /
P RO
ĠP ark
Ġt yp
ibr ary
it ory
Ġth ird
Ġl ength
Ġem ploy
ud e
Ġg lobal
A b
( &
Equ als
Ġl ow
Ġd ev
Ġp os
ad io
ĠK ing
ĠM y
ĠH is
B U
ĠU p
ĠD ep
Ġbeg in
Ġl ive
o on
Ġrece ived
ap ter
th ough
Ġv ideo
Ġl ay
Ġse en
ĠA fter
el ine
pro ject
ĠG L
form at
Ġprovid ed
ap an
ock et
ĠNew s
0 6
i et
ĠV al
ch ange
ĠH ouse
//////// ////////
Cont roller
Ġ( (
Ġse arch
semb ly
Ġth ing
Ġstart ed
Ġt re
Ġindiv idual
I M
eg r
app ing
ĠS up
a use
ĠS m
S ON
af e
R eturn
le g
p ng
Ġo thers
g l
d f
Ġc ertain
ust er
cl us
AB LE
Ġm iss
Ġa ge
tem pt
ĠA m
s ol
a e
if act
ro y
ep ar
ĠAmeric a
4 9
des cription
_{ \
g le
it ing
Ġnew s
Ġpoint s
it es
r s
dis play
Ġsh are
idd en
Form at
Ġy et
0 2
ĠPres ident
4 7
Ġs w
F irst
em ents
Ġdet erm
m em
bo ard
k en
ĠS tr
p m
Ġrele ased
Ġim plement
List ener
v ision
ĠA fr
c lose
Wh at
cont ainer
Ġhe ight
Ġadd ed
h ib
0 3
U s
Ġg en
b f
Ġf urther
IN T
Ġw ent
ist ic
k s
av el
m enu
lection s
Ġpro b
at tr
W eb
ent ry
in st
li p
ĠO F
g en
min istr
Ġ url
Ġm akes
Ñ Ģ
Ġc ur
Ġcomp on
u ccess
ac ing
Ġsim ilar
Ġcomm it
ov ed
Ch ild
Ġcontin ue
Ġhapp en
p ose
Ġn ight
ĠH REF
m on
P ol
resp onse
Ġgener al
p c
Ch ar
s ervice
Ġplay ed
0 9
il er
ob j
Ġre ason
Ġext ends
Ġbuild ing
ĠH ar
il ities
N D
Ġ< !--
ĠWh at
e h
U M
> >
jav ascript
ĠB ro
ut ions
Ã ¡
Ġm argin
Ġup date
l en
ĠI I
U I
Ġd ouble
od ing
m t
Ġper cent
Ġp ress
4 6
f ilter
ĠS ch
ĠE ast
ad em
Ġcol umn
200 6
ind ows
Ġrel ations
_ .
ann ot
M et
param s
Ġl o
at al
B undle
" ),
Ġhe ld
#### ####
d epend
ĠL ondon
str act
av en
Ġc rit
Ġaut o
Ġdisc uss
ĠE m
ig ger
ĠIn ternational
Ex t
Ġm aterial
" ).
y d
P re
yn am
Ġf ail
a ign
up date
att le
Ġsign ific
ograph y
u id
a el
Ġunder stand
But ton
ri es
ĠH igh
se qu
Ġm om
Ġto wn
ak er
Ġde al
Ġn ec
Ġc oll
ĠM ark
nt ity
amp ion
ĠC LASS
20 00
med i
Ġlang uage
al d
Out put
f ont
m at
ce ed
oci ety
B ox
Ġin ternal
R ep
b b
ĠThe se
om et
r ing
D et
Ġform at
d ict
ER R
c d
Ġmark et
Ġt ask
Ġh alf
Val id
ad es
a ur
Ġsub ject
t ag
ar ning
Ġm er
Ġen vironment
Ġ ]
B C
Ġt reat
L ength
Ġto ld
Ġw rite
ur g
ry pt
< ?
Ġfoot ball
ile s
ev en
Ġac cept
Lay out
Ġm oney
Ġact ually
ĠBrit ish
d et
Th ere
as ing
Ġspec ific
$ ,
Col umn
I V
: </
UR L
H ow
4 2
im ation
ref ix
I O
Ġf all
ĠC our
c el
Ġproble m
tr ies
Ġact iv
Ġser ver
Ġpolit ical
Add ress
ore s
ĠIn ter
P er
M ode
ĠM on
T em
Ġin it
ap h
Ġperform ance
ĠM ich
st yles
Ġchang es
in stance
Ġt ax
n umber
f ord
T YPE
Ġhttp s
CO L
struct or
Ġt w
h ing
P C
Ġre fer
u el
c i
ER T
action s
ĠI D
rem ove
Ġind ic
Ġv ia
I Z
Ġresp ons
ĠL icense
Ġright s
B ack
Ġres pect
Ġam ount
le vel
r is
Ġd evice
t ool
Ġst ream
row n
ac ity
d ev
`` `
Ġn one
T ag
Ġwork s
il led
ĠEng lish
un it
r m
Ġv er
Ġquest ion
Ġp ur
. )
Ġe mb
ilit ary
n um
Ġinclud ed
Ġs uggest
Ġm ot
Ġrele ase
m ar
p ass
Ġmonth s
fr ac
Ġar ch
es e
so ft
ang ed
Ġwe bs
Ġb irth
ef ined
refer ence
an ies
m ission
A cc
' ).
Ġt ele
P ost
ĠA PI
Ġf ire
ĠW illi
Ġb and
C ON
li er
Ġsh ows
C ache
Ġbeg an
A M
Ġn av
Ġcare er
D r
Ġre d
ĠĠĠĠĠĠĠĠĠĠĠĠĠĠĠĠ ĠĠĠĠĠĠĠĠĠĠĠĠĠĠĠĠĠĠĠ
Ġdif f
Ġspec ified
ĠE X
Ġcall back
olog ical
w ise
Ð¾ Ð
ob ile
Ġph ys
ĠJ apan
ĠR ed
ren ch
sh ow
t ain
ĠD on
Ġ ener
am l
ĠH T
Ġf ont
ic les
fo ot
Ġb ar
O ne
A ut
A A
Ġbu ilt
p o
ue st
i as
Ġap plication
R ow
Ġplay er
Ġacc ording
Ġf av
ĠA c
u int
Ġbl ack
AT ION
Ġn amed
ire ction
Ġvis it
Ġc irc
el se
ĠPh il
Ġin fl
le an
T ypes
ĠTr ans
Ġt aken
T P
8 8
Ġf a
**************** ****************
CO DE
pro cess
lo od
out put
Off set
Ñ ģ
Ġinst ead
Ġmod ule
Ser ver
ful ly
Ġw indow
Ġro om
Ġag o
Up date
ĠS w
am ily
++ )
util s
d at
Ġm ag
li es
ĠI r
ã ģ
Ġsignific ant
Ġpot ential
d ep
Ġ! ==
Ġinst all
prot otype
k it
wh ere
Ġbel ow
R em
p ol
iz ing
Ġpub lished
ĠS im
ess ages
b or
c an
Ġin ternational
Ġdef ined
ar ies
ĠH er
Ġneed s
Ġf ace
off set
200 5
Th at
Ġent ire
7 7
Ġm or
Ġwrit ten
6 5
ĠD em
ĠE l
Ġle arn
enc ies
Ġr isk
Ġvar ious
at ural
L I
S pec
Ġreg ion
res h
Ġs ex
Ġdo ing
( _
Ġse lect
on ly
NA ME
Ġv iol
Ġfile s
Ġeng ine
Ġs che
s upport
Ġpol icy
Ġ ens
Fr ame
c ul
b ased
ĠU K
ver age
ĠS an
ma z
ĠA cc
sp ace
ĠAir port
Prov ider
W hen
d el
M em
T arget
Ġfr ont
Ġat tempt
Ġch all
ĠCent er
Ġal ign
Ġb ad
ĠL aw
if orn
="../../../../ ../
Ġprodu ction
Ġse ction
Ġ[ ]
iv il
Ġgroup s
ĠW eb
s cope
Ġr ather
ĠP at
Ġinter face
Ġpres ident
g es
ĠD ata
anc ial
V is
at ory
ĠTr ump
Ġfeature s
Ġf re
=" -
% %
Ġ* *
Ġte ach
un t
ĠCol lege
A ccess
Ġn eg
ĠG roup
h a
ĠInd ia
r am
Ġcan not
Ġc ou
Ġreturn ed
U rl
Ġa w
ĉ ĠĠĠ
A fter
L ocal
M in
cent er
K E
Ġto ol
b ind
N ext
in ner
act ers
un n
com ing
ens or
Ġiss ue
Ġs at
Ġiss ues
W idth
ic o
el ves
ele g
Ġpartic ip
Ġf ood
rap per
Ġc apt
ing le
o z
Ġrun ning
iforn ia
l im
Ġlook ing
ic an
Ġpart y
m ain
Ġl ocation
Ġappe ar
Ġhow ever
Ġd ig
5 00
c ite
Ġob j
old er
ĠS k
Ġw r
E ntity
] [
Ġsu ff
Ġcre d
Ġindust ry
Ġcom es
ol ve
ĠG od
Ġreturn s
or ge
Ġl im
Ġs epar
Ġw or
Ġ$ (
T ree
f inal
6 7
el t
Ġreport ed
Ġint rodu
Ġph ot
ir it
Ġal most
k nown
Ġele ments
d ated
ã ĥ
Ġc ut
ell ing
ang er
s d
Ġm ass
Ġu int
ĠT ype
Config uration
ar ter
Ġh it
Ġcom ment
Ġwho le
H O
y es
b uffer
ig in
Ġperson al
s i
col umn
cript or
' m
n es
om b
Ġbr ing
Ġben ef
ic ip
Ġrec ogn
ĠSt ud
Ġener gy
T op
Ġp ain
id ay
Ġw atch
200 4
O pen
b ool
ĠDav id
art ifact
l ate
Ġt ypes
ĠJ ust
Ġop port
Ġoper ation
Ġw ait
ĠO ut
Ġdec l
Ġp ack
m iss
ĠHe alth
ro ot
ly ing
ĠL a
he nt
M ax
ĠD irect
Ġp ick
pecial ly
Ġbeh ind
ĠSe e
] );
resp ond
ĠAss oci
Ġp ers
ample s
ot al
Ġent ry
o e
Ġpop ulation
L evel
D B
i j
tem plate
P O
Ġob serv
ank s
Ġf loat
Ġsec urity
Ġget ting
Ġcent er
ĉĉĉĉ ĉĉĉ
and id
4 1
U P
Ġc y
anc ed
Ġg round
IG N
Ġim m
d ocument
ens ive
ach ine
ĠR em
fr ame
ĠD ec
9 5
Ġnec ess
ĠP al
Ġbo x
b reak
Ġb uffer
s pec
Ġadd ition
Ġneed ed
du c
comm on
Ġwrit ing
UL T
t ask
Ġex ecut
ip s
ch iev
ri but
ĠRep ublic
Ġcurrent ly
ec ute
ĠCh ina
) (
ic ult
te e
() ->
ĠT V
ĠM ore
us es
led ge
F O
class es
Ġt aking
Ġqu ery
Cont ainer
l a
Ġw alk
Ġwh ite
Ġcomp anies
Ġarg s
return s
4 3
Util s
Ġparam eter
ed eral
Ġassoci ated
A V
ĠS en
Ġeff ort
Ġmethod s
Ġro ad
il i
Ġinclud es
wit ter
a uthor
math cal
Ġl en
sm all
P osition
S ee
al a
Ġs ort
ĠR E
Cont rol
~ ~
Ã ³
t yp
Ġ ill
Ġt im
w in
or iz
Ġoff set
Ġd oc
Ġ row
st ant
ar a
ĠLe ague
Ġact ive
Ġm ind
ĠF ile
Ġare as
j ust
Ġcl ub
Ġn ames
Ġwebs ite
ur b
Ġits elf
ens ions
Ġrec ent
S y
S o
Ġfil ter
Ġh on
ĠSt reet
air s
Pro cess
Ġre ference
Ġhe art
Ġf ight
Ġcamp aign
ĠS ub
Ġfri end
W ork
ro te
Ġf ig
ri ef
> ,
ĠH ol
sh ould
L oad
ĠN ame
par se
="../../../../ ../../
Ġterm s
ĠN or
He ader
L ocation
m ing
ĠS y
s up
Ġl iter
f loat
Ġpol ice
ĠG over
Ġc ross
ri a
ud d
ĠL og
Ġtechn ology
ell ow
Ġ ::
ĠA rray
Ġnot hing
Ġap plic
Ġprof ession
Ġle d
p i
\ "
Ġcol lection
He ight
En try
C ase
ex pected
cont rol
li ke
Ġv irtual
Ġc ases
Ġ Ã
Ġcon sum
' ve
Ġn ov
Ġmult iple
at ives
ent ity
Ġv ot
e ature
Ġw ords
B o
ĠF irst
ist ance
Ġl imit
ra el
Ġcon nection
' ),
: "
Ġrelations hip
Ġlik ely
Ġany thing
' >
ĠA pp
g n
Call back
Ġh istor
ĠCal ifornia
ĠF rom
m atch
Ġl ower
ist ics
at ur
D o
Ġfor ward
Ġro ot
in n
Ġp rior
O b
aug h
ĠW ork
Ġr ate
Inter face
vent ion
wo od
icro soft
ĠD i
Ġex press
ã Ĥ
ĠReturn s
Ġbeliev e
; ->
W rite
Ġh ours
k a
ĠD ay
S earch
Ġs ound
. /
Param eter
at tern
k ind
use um
Set tings
ch an
A PI
t ml
ĠT O
ĠBl ack
Ġqu ick
l ong
AR T
s v
Ġlead ers
Ġv ict
Ġart icle
ub e
Ġsystem s
ateg y
or ing
ef t
Ġv ill
Ġt akes
Ġcon trib
ĠM r
A g
Un it
Ġm ode
bo ot
Mod ule
i ers
erv ices
Ġex ception
que ue
s ign
p atch
( [
artifact Id
j oy
c ache
istr ict
ash ington
ĠInd ian
Ġs creen
H ttp
Ġhim self
Ġcomple te
Ġrem ove
A meric
Ġdet ails
Ġb i
Ġl ost
Ġth er
C opy
Ġde ep
" ))
b a
Ġs us
ca pe
Ġchar acters
Ġpop ular
Ġdescri bed
ĠĠĠĠĠĠĠĠĠĠĠĠĠĠĠĠ ĠĠĠĠĠ
Ġt ag
Ġsh all
Ġs on
Ġparam eters
Ġgr ad
lay er
N one
ĠCoun cil
Ġ{ }
erv e
Ġout side
str ap
ĠS ervice
land s
ĠI S
et ch
W indow
Ġg ir
ĠN S
R ange
ST R
COL OR
Ġup on
ĠDep artment
5 8
B l
Ġx ml
ver se
M y
IZ E
% ;
ĠC ons
t ree
ĠEurope an
Ġcent ury
Ġw ord
ĠS ome
ĠIn c
Ġf ailed
D irect
l or
u it
Ġman agement
Th read
ĠD E
ct x
Ġd raw
Ġn ormal
200 1
h ood
m ut
Ġa ud
B r
ĠC reate
Ġse qu
ru pt
Ġon line
Ã Ń
u ge
ĠP aul
it ch
V AL
Ġin j
ĠB ook
Ġreg ister
res ource
ĠJ ames
c ial
in ate
f ect
styles heet
ĠAss ert
p ed
ail y
G o
Ġloc ated
stit ute
AC K
ast ic
al pha
Ġd en
ele br
C o
ampion ship
Ġprob ably
Ġide a
ĠF rench
Ġtr aining
Ġeduc ation
Q L
th on
al led
Em pty
ĠAustral ia
t oken
Ġpro te
r ics
Ġadd itional
Ġse lected
t im
Ġpre t
ĠU s
group Id
Ġs s
Ġex c
n ov
r t
ĠCour t
ar row
ĠGener al
ra z
enc ed
Ġimp act
ill ing
Ġr ound
Ġis n
O M
D el
Ġoff ice
Ġim prov
Ġfor ce
ĠO f
ĠS T
Ġcom ing
Ġreg ard
Ġa chiev
ĠM od
Ġst ates
d evice
, \
ann ing
ĠP ublic
.... ....
Ġs end
5 7
I F
m m
w indow
et t
ĠP ort
Ġd eg
ĠN e
app ed
ĠT HE
Ġhig her
n ap
Ġs old
E CT
Ġes pecially
Ġconsider ed
B A
ot a
Ġsol id
mit ted
L o
Ġtry ing
Ġso ftware
f ort
lic e
Param s
Ġcon tract
C urrent
Ġannoun ced
file s
ag o
Ġinfl u
Ġf ather
Ġ* )
Ġpat ients
Ġh ot
Ġpro perties
Ġstand ard
Ġcoun tries
O ption
S cript
D e
Ġwork ed
r ict
Ġestab lished
av y
it ect
s cri
ĠA nt
Ġw rote
Ġan sw
d rop
ĠGo ogle
gr ad
=" _
6 8
z z
Ġh om
al ed
ve y
osp ital
ĠT ime
ĠCan ada
Ġhand le
Des cription
200 3
C L
Ġl oss
g or
ĠC he
ro om
Ġst ation
T I
) $
Pro t
. $
5 9
Ġch o
Con nection
Ġst ore
amb da
Ġsim ple
Ġf em
ou b
ĠEng land
C A
con f
Ġcour t
p ite
rib ution
Ġfield s
ĠE ar
Ġst age
Ġcond itions
ĠO pen
im ages
Ġconc ern
Ġseem s
M at
Ch ange
Ġt our
Ġcomple x
ĠM al
Ġs ession
U B
Ġfil ms
T S
Ġask ed
i i
ĠRob ert
Ġcont ains
plic it
P e
Pro ject
iz es
Ġep is
ex p
Ġrel ated
Ġcont act
ad ow
d raw
as ons
Ġh ope
M O
Ġpass ed
Ġun it
J son
ec ution
b order
Ġsome one
Ġplay ing
M enu
Ġa verage
Ġre nder
En c
c ing
Ġprovid es
inter face
ĠC r
Ġl ib
id a
Ġj ud
Ġstruct ure
H ash
Ġd er
' '
Ġwe b
pl it
Ġwant ed
a a
Rec ord
Ġst ri
o om
am era
R el
Ġd am
e es
P ort
Ġspec ies
em pty
ĠR ef
ag ment
p ri
" ));
Ġfil ename
Ġl iving
T ER
Ġme et
Ġaut om
d ebug
} _
E ng
Ġm ilitary
Ġm id
ä ¸
Ġallow ed
urs or
ĠU R
Ġevery thing
D ocument
Ġs ense
epend ent
Ġun ique
Ġro ck
: (
ĠB uild
for ce
Ġappro ach
ic ient
S H
ĠP ost
Ġs aw
f s
erv ed
ĠRe ad
ct or
Ġdec ision
Ġpl atform
i ences
ĠP re
Ġmom ent
t og
ark s
Ġpro gress
Ġw oman
Ġb ound
h ash
Ġin fo
ĠAr ch
' ll
20 20
Ġem pty
ĠJ ack
S ession
ict ure
Ġex cept
ĠO R
ri an
AL L
9 7
ĠTh om
g reg
ĠCh urch
ms g
ĠR ich
C an
Ġ> =
Ġparam s
i qu
Ġp adding
Ġ ign
b in
Ġst aff
as c
adi us
Ġbeh av
ĠB er
mod al
Ġre v
Ġb orn
! !
Ġg e
Ġwho se
back ground
v ille
Ġus ers
O p
model s
ĠW ashington
in ternal
Ġqu ite
Ġcou ple
S A
od ed
ĠC heck
Ġsh own
P R
f a
qu are
I I
Ġcor rect
Ġdirect or
ab s
Ġbro ad
OR D
} (
om ic
Ġdiff icult
Ġmat ter
Ġst re
ug ins
Ġd ied
Ġchang ed
re a
b orn
Ġproduct s
al le
y e
Ġmov ie
D D
Ġ ir
Ġg re
Ġlong er
Ġin f
M on
Ġen joy
Ġ â
ĠF ound
he t
B O
ms elves
L e
ĠE v
ĠM or
P o
Ġan alysis
Ġat tribute
Ġserv ed
ĠA L
Pro perties
c r
st on
Ġso on
F ont
Ġover ride
200 2
X X
Col lection
ache s
rou ght
doc s
Ġc ult
c ard
re nder
Ġs cope
iction ary
y a
l it
urre n
Ġc ast
M ar
M atch
Ġrel ig
ie ce
ĠEx ception
~ \
Ġmov ed
Ġqu ality
Ġthe mselves
Ġcon duct
Ġa ward
5 6
Ġs il
Ġlead ing
Ġre ve
ĠB en
i os
add ress
Ġad ministr
Ġtrans form
st ep
Ġincre ase
Ġ q
Ġreg ular
e qual
Int eger
c opy
G e
w ner
all s
n or
Im pl
Ġs witch
Ġcompon ent
Ġmem ory
s ite
p op
Ġmodel s
AN D
ĠRes earch
Nav Bar
ul a
ĠM et
Ġus es
ĠM usic
Ġbook s
en a
ĠD an
Ġinv olved
Ġca use
ĠIs rael
S D
Ġcomple t
pon ents
PE CT
Ġ> >
ynam ic
Ġf ul
est ival
u a
val ues
gor ith
p ing
Ġs em
ĠB G
Ġread ing
m ore
Ġst e
Ġt en
ĠM em
IN E
in ated
ĠM ag
() :
Ġbo ard
oy al
Hel per
Ġev idence
Ġdist rict
Or der
ang le
inc ip
Ġin side
a uth
Ġra ise
c ap
os ed
Ġth reat
Ġmod ern
r d
oriz ont
Ġf un
ind ing
St at
tern et
ĠJ er
D own
Ġmin utes
Oper ation
i ation
ĠJ ew
ol ume
ol ar
equ ation
Ġtem plate
b efore
est amp
P os
ĠD istrict
Ġact ual
ond er
ĠD el
ac c
{ {
ess or
Ser ial
Ġe qual
Refer ence
Ġfin ancial
Ġ ;
P tr
ĠO b
} ^
ĠE nd
ĠMich ael
9 8
St ore
T C
m as
Ġlist en
199 9
l am
c lear
Ġr ace
T im
ĠM art
ĠP ress
Ġitem s
Ġcons ist
d elete
P A
u ate
Ġim medi
D ir
Hand le
Ġbu y
P ass
Ġst ay
ĠGerm an
Ġj av
ERR OR
Ġdes cription
In st
ĠN ow
im ple
ou l
Ġl ines
ĉ Ġ
b on
As ync
s end
ix t
h r
ĠC ong
ĉĉ Ċ
ang es
ĠS um
e ch
z er
af ety
Ġleg al
Ġf lo
S chema
quire d
P L
g u
uf act
ĠM at
ĠQ ue
H ost
Ġn orth
Ġfri ends
Americ an
il m
gr aph
Ġrec ently
Ġarg uments
Ġpart s
im s
ple te
Ġde ad
================ ================
t hen
Ġr ule
D ep
__ __
Ġproble ms
c lick
j oin
ick er
Ġpro p
Ġm other
Ġc andid
com es
Ġfr ame
Ġ čĊ
Ġdis e
ĠB el
Ġres ources
ĠDem ocr
var i
and er
ur i
Ġpat tern
id ing
Ġ( "
ĠC up
S up
in ing
& #
h over
c apt
ol ic
pr ing
Ġfinal ly
Ġex pression
ĠO per
Tr ack
Ġ[ '
ist an
ro s
Ġhas h
R ender
ĠTe chn
T ool
v est
v m
N ames
3 00
S ign
ĠF orm
orizont al
Par ser
ĠR iver
to String
Ġe mer
n ected
Ġarg ument
ĠC re
ac cess
Ġj o
ber g
vir t
d est
ĠWh ite
Ġj oin
im ately
Ġg ave
w idget
ĠH all
Ġthrough out
K e
Tem plate
en v
h at
V ector
S k
fo o
c p
Ġv eh
j o
Ġlevel s
sy ch
Ġgo al
OR M
ĠGe orge
ĠBG COLOR
foot er
it ude
Ġa void
Ġevery one
E M
Ġgrow th
) \
ĠE rr
U se
se cond
Ġpret ty
ĠD ate
Ġet c
V ari
ĠM ap
Ġv ert
er c
Ġspe ed
U RE
Ap i
le ep
Ġdr ug
eleg ate
b and
Ġcon nect
K ind
M e
s ession
t ypes
Ġs cript
end ar
Ġdevelop ed
ri al
( :
Ġc elebr
Ġp aper
I ter
Ġcon v
Ġsc ale
D IR
od er
Ġtreat ment
ic ial
=" /
ĠD iv
id ents
Ġto ken
Ġth read
Ġstat ement
Ġinter view
OR T
as ic
h ere
f ony
ex port
Ġbe aut
Ġund efined
L eft
ĠFr ance
Ġre comm
Ġg raph
ĠG reen
Ex pression
Ġc ulture
Ġl ives
## #
R ev
Ġe cho
ĠWh ile
ĠAssoci ation
li ance
Ġsim ply
Ġex act
en ge
| -
eg a
ĠC ON
5 1
9 6
trans form
Ġn atural
Ġprodu ced
ym fony
Ġ ess
Ġget s
c s
ĠS am
S O
-- >
7 8
Ġset ting
Ġ ~
ic ate
v as
Ġn et
m edia
Ġsupport ed
augh ter
D F
ex ample
m ult
Ġr ules
'] ,
ter m
Ġme eting
D evice
ĠIn stitute
Ġoper ations
ĠM ac
Ġtr avel
Ġexist ing
ĠPart y
T itle
Ġwr ong
Ġdist ribut
Ġint egr
ĠR el
web kit
Ġpr imary
Ġt ree
boot strap
g in
ĠĠĠĠĠĠĠĠĠĠĠĠĠĠĠĠ ĠĠĠĠĠĠĠĠĠĠĠĠĠĠĠĠĠĠĠĠĠĠĠ
? :
ĠAn n
equ als
ut ed
ace book
n on
Ġens ure
Ġev al
Ġw est
Ġ" \
im ated
In valid
ĠO ver
Ġobject s
Ġcor respond
am ma
ĠTr ue
ur t
b ert
Ġse lection
Ġm is
se y
Ġem ail
Ã ¤
Ġn amespace
ul ated
w s
Ġdirect ly
ĠR oad
ain ts
ic ons
Ġconfig uration
ĠM us
Param eters
ĠA ng
Ġre ach
m ake
Ġv ers
ust r
Ġinv oke
c at
Ø §
ag on
Ã ¼
W E
Ġw ays
ĠY ear
ĠK e
ar ily
Ġsay ing
il ies
ĠRev iew
hand le
Ġe lection
pl ugin
ert ific
oun ter
evelop ment
Ġle ave
Ġlate st
ĠA ut
5 4
d irect
mer cial
Ġs outh
h an
f ocus
Q ue
ify ing
ines e
ĠY our
Ġpre p
c ustom
at tribute
Ġcap ital
it ar
} "
Ġal t
ed ef
Ġex tra
s uccess
et ime
por ary
Ġfre qu
Ġc lean
is ions
yn ch
ĠChrist ian
Ġtrans action
en um
Ġfunction s
ed d
Ġm us
ĠPro ject
if est
-- -
ĠWilli am
ĠEX PECT
D om
nt ax
Ġdes igned
ĠD et
w ide
ant ic
Class es
Ġb all
ou thern
R ect
Ġwrit er
Ġit er
h i
ĠL ou
m ode
Ġsc ient
ĠT ex
G E
4 00
S he
O K
ĠPro gram
qu ad
E v
ĠR un
sc ale
Ġs ens
Ġfav or
Ġqu al
ĠSc ience
Ġch arg
comm and
dis abled
Ġrece ive
ĠA ward
Ġ} )
s ystem
P S
Ġun signed
( *
ĠĠĠĠĠĠĠĠĠĠĠĠĠĠĠĠ ĠĠĠĠ
re q
Ġm ention
Ġsuccess ful
25 5
ĠL eg
Ġd elete
Ġact ivity
ĠH el
F alse
Ġw ife
8 6
ad ers
C lick
ex ception
Ġhe l
5 2
M ult
Ġfl ow
S l
a o
im ension
D A
Ġnecess ary
Ġcell s
Ġse ek
co q
al ing
Test s
h aps
Ġtr ansport
Ġquest ions
ob uf
Ġother wise
ap se
st ack
av ed
p g
ĠComp any
ar io
ent al
ain e
Ġpar se
Ġf it
G ET
S e
> ();
ĠF in
m en
Ġestab lish
Ġs ave
m u
Ġteam s
Ġweek s
Ġsur v
Ġtele vision
aw s
Ġcol lect
C R
Ð »
M M
1 000
Ġcont ainer
ill er
ĠT om
ill a
ĠA lex
ick et
Ġeconom ic
` .
co very
c oll
Ġdel iver
Ġexp and
block List
Re ader
we ight
L ong
ĠUn ion
Ġman ager
ĠIn st
con s
Ġeas y
Ġdem on
ot ion
Ġh ous
g lobal
5 3
P H
Ġschool s
AT H
Ġh um
p anel
g an
C S
ĠM ary
Ġ( '
Ġnum bers
P arent
ig ma
g ment
-------------------------------- --------------------------------
Ġm ount
h o
Ġhe ader
e in
Ġpr ice
Ġb rought
Ġwas n
param eter
_ ;
Ġgo es
ĠU se
ous ly
Ġst ar
set tings
m es
w est
Ġne igh
ĠAfr ica
S ION
p ub
Val ues
Ġinst it
E Q
M ark
Ġp ackage
Ġl ack
ex ports
annot ation
Ġd at
ĠCom mit
uct ure
con nect
N on
ĠO ur
F eature
re place
depend ency
ĠN OT
Ġn or
R ight
Ġag re
ĠS und
sk ip
m ail
C D
lang uage
ĠP y
Ġd atabase
ĠO ther
i us
p adding
ĠPe ople
Ġset t
ar p
ĠB est
co in
Ap plication
Ġf ast
ul ations
tr ack
cl oud
Ġto wards
Ġn umer
Ġmeas ure
str ict
ĠThe n
ad ian
k i
> .
ĠB ig
Ġpract ice
an o
Ġpre vent
="../../ ../
Ġc ard
anc y
i pe
Ġeffect s
ly mp
Ġab sol
Ġall ows
Ġtr ade
he lp
ĠL ong
Ġstart ing
it able
rom e
Ġc ache
D raw
am ing
ĠB ay
. [
Ġser ious
Ġprot ect
an ia
tog gle
virt ual
Ġp urch
ed y
C ore
Ġstud ies
cent ury
Ġst ories
Ġm iddle
ev e
Ġo s
St ack
Arg ument
ĠAr g
duc ation
Ġcond ition
N um
Ġsc ience
Ass ert
ond s
ro ad
ir ing
; <
Ġear lier
Ġb ank
Ġprofession al
Ġs en
he st
` ,
ĠG old
By tes
it iz
ĠH istory
Ġcontin ued
8 7
Ġc ivil
Ġed itor
En abled
a fter
r or
if ul
ak ers
ĠÂ £
) ]
Ġfollow ed
Ġch annel
E O
ĠGerm any
by te
ul ate
Ġat tr
ol f
bo olean
H as
SE T
M ock
__ (
ĠJ SON
Ġin sp
im pl
Ġset s
Ġl ock
fr amework
An y
c ar
Ġcon tr
ire s
ado op
ĠV iew
Ġcall s
ri p
Ġus ually
in i
Ġe ight
D ebug
rom ise
N E
iz ations
R ed
Ġp m
reg ister
ind er
Ġmed ical
Met adata
Ġsign ed
W riter
pp ed
ĠHT ML
199 8
Ġal tern
r ange
AT A
f ree
call back
Ġcomple ted
B ody
Ġapp ly
C re
Ġsur pr
H istory
Ġany one
Ġnov el
as y
Ġc ook
Pol icy
} /
Ġwe ight
on a
Ġstud ent
Ġ\ \
Ġre pl
is ation
ĠM ex
Ġh or
Ġopen ed
ĠC am
Ġal though
Ġw orth
Ġby te
ĠIs land
Ġparent s
Dec l
f n
ĠC O
om a
Ġdirect ory
d s
le m
igr ation
li ament
F L
Ex p
v ector
ĠB ase
ĠSc ott
ĠM iss
ĠL O
W S
v ant
Ġsp ent
ĠU ser
", "
Ġtrans fer
is f
? âĢĿ
b uf
Ġpos itive
anc is
Ġset tings
Bo olean
Ġsy mbol
Ġsc ene
Ġsh ared
IT Y
Ġlarg est
ĠF ield
re al
I X
Ġin line
Ġchall eng
Arg s
Ġe ast
ann ed
D oc
z a
Ġb al
field s
ĠSm ith
Ġab ility
Ġproject s
Ġturn ed
per ature
o ch
7 6
D elete
V er
com ponent
Ġknow ledge
ĠV ir
ul y
ad min
CT ION
Ġr andom
Ã ¶
Ġcon cept
Ġbegin ning
ell ig
199 0
ĠM ath
w ell
ĠE vent
Ġcont ain
By te
Ġl ibrary
' .
A ME
Ġsur face
w rap
ĠF ore
J ob
sy mbol
Ġper fect
p ay
ish ing
ĠS ociety
Ġ er
ĠV alue
Ġre pe
R ule
b eta
p ers
m aterial
ĠComm ission
Ġsong s
Ġpl ans
act or
Ġrem ember
Ġrel ative
ĠPro f
a ud
sp lit
re me
ing er
Ġre place
D I
Ġf air
I con
C al
st ore
ĠM ont
ast e
ĠL ife
Ġab s
Ġme chan
R oot
ick s
Ġn ature
hold er
D L
os ing
d ouble
In s
rec ated
ĠM ad
ib ly
Ð º
ĠCl ub
et te
Ġm ut
ĠR et
az z
Ġs even
Ġinvest ig
Ġapp oint
F ound
Ġconst ant
m ock
wh ite
Ġfe ed
ang uage
ĠRuss ia
P ackage
Ġd ark
l ines
it ation
Ġj ournal
az ine
c m
Ġdec ided
h ouse
ap plication
Ġsec ret
Ġp ark
pl ugins
KE Y
Field s
FA ULT
A m
c f
Ġs n
em ail
M ember
Ġby tes
Ġactiv ities
Ġlim ited
Ġd ro
math bb
D ialog
ens es
Ġnot e
Ġ+ +
ĠTex as
ĠDirect or
M ore
ĠĠĠĠĠĠ Ċ
e al
ĠB usiness
Ġopport unity
Ġant i
Ġ< =
Ġt ouch
ĠI d
Ġn ation
atur day
are t
ĠM ethod
Ġ icon
c ategory
ins ert
8 5
ĠI O
Ġk illed
Ġpl ant
en ed
Ġpl aces
ron ic
Ġle ader
at re
pro ve
AG E
ĠT or
C P
Ġtest s
Ġch urch
s ql
t ers
or ter
ĠH am
ĠA v
âĢĿ .
= \
ĠS l
s ort
Ġclos ed
Ġj son
ĠBo ard
Ġjav ax
du le
Ġf elt
omet ry
Ġsum mer
ĠSt ar
ĠS al
Ġm sg
Ġd irection
Ġvill age
ic ated
od ay
Ġdemon str
ib er
Ġb illion
ĠCh ampionship
8 9
E l
Ġsh ot
Ġperform ed
ĠCong ress
Ġex pert
ip eline
Ġprogram s
Ġincre ased
") ]
Ġdis cover
Ġt err
ic ago
gorith m
h adoop
Ġap i
h s
' d
ĠF acebook
ĠP ub
ĠG reat
Ġtr ansp
ov ers
ĠC opy
ts d
w rit
ĠCh inese
pro p
ĠMin ister
Ġfl ag
ĠB ill
Ġpart ners
ĠN O
Ġman ufact
ĠGover nment
y ing
Ġle arning
ĠThom as
ĠB ec
Ġatt ention
= {
Ġb re
Ġ' /
AC E
Ġv oice
Ġim ages
t ained
Ġcent ral
Ġsol ution
Ġfore ign
TE D
ree k
Ġs ample
Ġp lease
I E
k er
Des criptor
Ġc op
ĠCent ral
ĠU N
sh ot
ĠT ur
Ġorgan ization
Ġb us
Ġm ur
ĠV er
ĠR ock
Ġinterest ing
Ġnear ly
Ġco ach
Ġgr ant
ĠA N
St orage
Ġbut ton
maz on
ic i
ĠFound ation
ĠFr iday
aut o
Ġf ans
Ġoper ator
N ow
ap os
ĠC amp
G B
ĠA ND
Ġent er
ĠRuss ian
f il
ent y
g est
ĠH ere
ad y
Ġpre c
he m
R et
uck et
ĠOff ice
Ġdest roy
er ry
et imes
ĠI P
EN D
c pp
or ation
Ġassert Equals
ĠP M
Ġpre m
Ġmov ement
at ively
Ġvari able
ĠSh ow
ĠT im
Ġ` `
ĠH ill
Ġrem ain
Ġlet ter
Ġb ottom
ri end
ĠM o
u nder
h igh
ph one
Ġcon struction
Ġcomput er
Ġoff ers
Ġjo ined
in line
Ġmean ing
Ġgener ated
ĠT op
b ig
ov es
Ġhand s
re y
Def inition
Ġp le
B R
Ġparticular ly
' ))
Ġe arn
agn ost
TE ST
Ar t
ud get
key s
Ġmiss ing
ann er
P RE
am i
ĠS ur
b our
Ġre ports
h ol
if orm
ĠFr ancis
pass word
P erm
Ġo il
we et
com ment
Ġs ym
v ed
Ġp y
Ġsh oot
Ġg un
er ies
clud e
us ion
Ġfam ilies
Ch anged
J ECT
Ġm ale
u ing
ĠC ode
Ñ ĥ
E ach
ĠAc adem
SS ERT
av er
prot obuf
ĠUS A
ĠP eter
Ġprevious ly
ĠM useum
p ool
ĠCommit tee
Ġor d
Ġsl ow
Ġim ag
ĠErr or
le ments
Ġhe ard
ro t
P attern
Ġrecord s
B S
Ġcomp ared
Sh ow
Ġepis ode
l n
ĠSund ay
Ġphys ical
ond ay
Ġincre asing
os h
wh ile
Ġlook s
und red
C ustom
Ġg as
X ml
ĠM ount
sh ire
) }
Ġbirth s
Ġr adio
7 2
Ġv ote
V ert
Ġdig ital
ĠĠĠĠĠĠĠĠĠĠĠĠĠĠĠĠ ĠĠ
ĠFl or
Ġw allet
ĠSt ep
Ġarch itect
d ates
b al
Ġpr iv
pre t
ed it
ĠT imes
Ġmor ning
Ġcon sole
ĠV ol
T ab
ens ity
Trans action
ĠP lay
f ull
ĠK ey
k y
Ġsom etimes
Ġw ild
ĠG l
d en
P op
ĠM edia
ĠK ore
ĠAfr ican
Ġch ance
RO M
M ENT
ç ļ
M D
st op
ĠJ ournal
ut y
Act ive
Ġcoun ter
Ġr ank
Ġg ives
L java
Ġp ush
Ġc ore
S end
16 0
ĠC ap
Ġgre ater
Ġmult i
L S
FI LE
ĠW ill
as ure
_ \
capt ion
ĠR oman
P ub
HT ML
Ġm ock
ĠC all
çļ Ħ
con trib
Ġdise ase
ele ction
in ct
ent er
n ormal
ĠCar ol
Ġg old
EX T
Ġw ide
N et
Ġresp ond
Ġex hib
Ġsc ore
* )
S upport
Ġcomp ar
Ġread y
Ġs ociety
Dis play
Ġst orage
ig er
print f
ign ment
Ġr out
Ġg iving
item s
ĠFr ank
G raph
her it
Ġh tml
j ection
key word
=" @
ĠUR L
et ic
ol ver
sp ring
ĠPro v
Ġdeg ree
Sec urity
Ġr oute
Ġcon struct
8 2
Ġquick ly
in y
ĠN umber
Ġappro pri
Ġb lood
ĠT re
6 9
A c
Ġb ur
ĠAcc ording
ab y
eth er
Ġro t
Ġsc en
Ġcom ments
Ġcre ating
Ext ension
ĠG en
Ġgr and
Ġn ative
Ġrem oved
Ġdist ribution
Ġf irm
Que ue
est ed
aly t
x x
Ġful ly
ĠM er
ĠB ank
ĠM ost
inst all
Ġstre ng
at ically
Ġopen ing
Ġpro per
Id ent
Ġa uth
Ġpub lish
ĠCh ild
ĠO lymp
Ġ" /
ynch ron
Ġex am
199 7
ĠAr my
ĠW omen
Ġh op
Ġv s
Ġimplement ation
7 9
L ock
ĠS ervices
all ery
Ġeffect ive
Ġm icro
C I
Ġlaw s
Ġd b
J SON
Ġn om
Ġrun s
Ġqu arter
ven ue
Ġdef ine
ĠA R
Ġkn ew
Ġbe y
ad ing
up le
atal og
Ġmax imum
Ġappro x
Ġf ederal
ĠSup er
g it
math bf
Ġp refer
M eta
Ġtrad itional
Ġclass es
ĠSer ies
od ec
D atabase
put e
} _{
Ġtr ust
ĠĠĠĠĠĠĠĠĠĠĠĠĠĠĠĠ ĠĠĠĠĠĠĠĠĠ
Ġp en
On ly
w ik
m argin
x is
Ġb log
ĠH and
Ġass um
ed er
Ġsit uation
ly ph
ertific ate
Ġinv olv
Ġla unch
Ġun less
art s
6 3
Ġhe ar
ĠWest ern
ï ¼
Ġcom mercial
al ian
Ġfor ces
Ġth us
Ġbey ond
St ep
sc roll
D on
iver se
Ġd ed
Ġart ist
c md
f ly
hent ication
Ġsh ape
I B
all oc
b ound
ĠW ed
Ġconst it
Ġass ist
Ġin form
Ġfin ished
Ġon es
ot ed
ĠGr and
Ġdistribut ed
Con st
urs day
an i
N etwork
it a
198 0
Ġc lick
c or
c b
ĠE ducation
ot es
Ġerr ors
Ġs al
ĠC ath
ĠG ood
S um
In itial
HE CK
Ġd ream
6 1
######## ########
Ġ Î
d ist
ĠH ome
TE X
pro duct
ĠH en
ed s
Ġ( *
Ġansw er
Ġa ctions
or ial
Ġappe ared
at io
Ġbr and
ĠV is
im inal
- \
Ġp oll
ĠN etwork
ĠMan agement
all ow
Ġimmedi ately
199 6
Ġs ources
h y
add r
if ies
st ats
ĠT ext
8 4
and a
Ġph one
Ġinstance of
lo ok
Ġ ut
ĠT own
Ġind ependent
VER SION
AR Y
)) )
Ġ ×
Ġdem and
ĠDef ault
em s
sec urity
in itial
ub y
Ġs afety
ĠV AL
th read
ad s
ĠW il
Ġass ess
Ġdiffer ence
Ġo wner
Ġg reen
ĠR oyal
arg ument
ĠSec ret
es h
Ġd aughter
ĠLou is
j query
f it
Time out
Ġcal cul
Ġcomplet ely
Ġe yes
b es
S ymfony
org an
Ġst ack
Ġrem ains
==== ==
6 2
reed om
] ]
t or
ĠS aturday
Go ogle
ple ments
Ġpo or
Ġth ous
ĠRich ard
Ġbehav ior
ĠT em
Ġan g
erv ation
Ġch oice
Acc ount
not ation
Ġgir l
du ction
Ġvol ume
fe ature
miss ions
Ġth r
Ġd oub
ur ance
ixt ure
Ġr ap
f ill
pect s
F T
"> &
Ġb tn
Ġw ants
Ġcon ver
o oth
D S
. *
. '
Ġs ports
P ool
ĠAustral ian
reg ion
Result s
ĠS ocial
fr ont
ĠD evelopment
Ed it
âĢ ĺ
c ut
Ġbas is
olog ies
urren cy
ĠIr an
ant a
Ġex ists
Ġcont aining
wh ich
Ġsp irit
Ġ ip
Ġmar ried
ĠJ un
ask et
str aint
is l
D i
Ġs ales
ĠV ict
A uthor
Ġf oll
un signed
$ (
Ob j
; /
M ain
ĠU nder
[ :
Ġser ial
H ome
Ġs pect
im b
Ġqu ant
ĠCon fig
at in
u ated
n one
ang o
F C
re land
Ġfem ale
Ġp iece
Ġm aster
Ġ eth
Ġwork ers
ern el
//////////////// ////////////////
pro perties
rec ord
Ġenc our
Ġcoll abor
Ġpre dict
Ġart ists
sh ort
LO G
an ish
Ġpur pose
st at
ateg ories
Ġent ity
ĠJ ose
Ġlarg er
P AR
type of
ĠG ame
ĠL os
Ġbas ic
ĠN ote
Ġhigh ly
Ġrecord ed
Ġsh ip
T e
drop down
Ġre ached
Ġcol lege
clus ion
ĠVir gin
Ġtem perature
Ġm achine
mod ules
ix el
y an
s cription
Ġun its
ues day
Ġs afe
t ion
j a
pe ed
ir med
n umer
Ġst ock
. __
Ġco ord
Ġmov ing
B it
ou ter
pro file
t ip
n ames
Ġprovid ing
Ġb ill
istr ation
Ġpresent ed
Ch annel
P T
() {
ĠM el
Ġm ill
ĠO p
Ġcar ry
M sg
ĠB i
ĠM ass
c ur
Ġf arm
ĠCh icago
9 1
l oc
Ed itor
ĠS ince
( !
ĠC D
F loat
S cope
Ġdr ive
ĠL et
Ġr ail
Ġp ages
Ġdist ance
Ġext ension
Ġsequ ence
ic ations
s ave
Ġre li
Ġpro posed
con nection
Ġkey s
Act ivity
Ġ ),
Ġim prove
ind s
rel ated
Ġcl in
Ġall oc
est er
id ers
Ġ% }
By Id
th at
sh ape
Ġt it
cont roller
u ous
ĠAl so
w ait
Ġdr iver
anc el
Ġdef e
BU G
ĠAs sembly
T ABLE
Ġfail ure
ĠWe ek
ic ies
U ID
ĠCol or
ook s
) "
Ġla un
ĠF alse
ĠV ersion
Ġover all
_ ,
ri age
ploy ment
=" "
l ambda
ab ilities
gr id
k w
In it
AD D
Log ger
=" ">
nes day
Pe ople
anc ing
Ġfor ms
k g
en ing
Ġp or
ge les
Ġtr ain
Ġcan cer
ĠT wo
_ ->
Pro xy
Fl ags
Ġgrow ing
Ġw onder
d i
S IZE
ĠS un
W idget
ar ation
M edia
Ġlay er
Ġ util
Ġh uge
Ġstr ict
L IC
form s
b i
as et
ak s
anc er
u ke
25 6
Ġindividual s
m ove
on ic
ĠM odel
ell a
o es
ĠÂ »
ĠJapan ese
M ay
are s
Ġann ual
Ġfoll ows
A uth
Ġa mb
ĠM A
s creen
MA X
Sy mbol
197 0
r adius
199 5
s che
The y
? ?
f ound
Ġbeaut iful
S m
t imes
m aster
In ternal
199 4
Item s
Select or
Ġhappen ed
Ġcost s
Ð° Ð
Ġrequire s
Ġc li
} ^{
Ġdescri be
Ġsp ot
ens us
ĠS ing
ev ents
os itory
Lo ader
ĠFlor ida
erm an
Ġsat isf
Ġhigh light
Not Null
ĠS il
Ġc itiz
Ġb attle
Ġpress ure
ic ine
Ġv ector
b urg
Ġan im
Ġro b
are n
ol a
il on
@ "
l ers
C ar
Ġar rest
ĠD uring
ĠT H
Ġs ch
Ġinit i
Ġpro file
() ));
ĠP et
ĠIn s
pect ive
th rows
iv ery
ĠA M
Ġh y
ass ets
Ġdev ices
7 4
ĠM ov
Ġlook ed
sh all
Ġin str
R est
fl ags
in em
Ġh undred
Ġn uc
el li
R AN
ĠO ption
ĠIn itial
20 21
Ġstr ugg
Ġthe ory
nap shot
W indows
ĠM onday
Ġ[ [
ĠF re
Eng ine
ĠCan adian
r ine
os is
Ġpr incip
or a
l g
ig an
j ob
E C
ph i
ĠAn geles
Ġin nov
s chema
= >
ĠâĢ ¦
pr imary
Ġexact ly
Ġcom pl
A v
Ġm ission
B efore
Ġt al
ð Ł
ĠKing dom
assert Equals
Ġappe ars
Ġdef inition
Ġor igin
Ġh ar
ip ment
Ġc at
Ġtrans ition
ock er
assert Equal
Ġad ult
Ġfig ure
urre d
ĠRe port
Iter ator
Con f
Ġche m
T V
ĠI ll
ĠF estival
ĠIs lam
Re ce
ne ctions
Ġtest ing
At tributes
and ra
un icip
ĠF oot
Ġapp lied
ĠW ell
ĠDiv ision
Wh ile
ĠP o
)) );
Ġeffort s
Ġal one
h ome
Prot ocol
9 2
Ġhig hest
man ager
Ġd rop
Ġf ine
Ġh arm
7 1
r b
Ġmin or
Ġm ys
ĠâĢ ¢
se lected
in ion
Ġsus p
Ġconf lic
Ġp aid
G S
P ack
Ġsur round
ĠL in
ĠIn formation
9 4
Direct ory
un ities
Ġmay be
Ġcommun ities
Ġpolit ic
pos itory
Ġsup p
Ġintrodu ced
ĠL ake
Ġdes pite
ab it
ow ers
ential s
Ġinc or
Ġbl ue
om s
Ġn odes
Ġapplic ations
it ors
Ġp air
res ents
ĠT witter
} </
Ġaw ait
9 3
Ġtr aff
âĢĿ ,
L P
Ġk ids
test s
Ġdeb ut
p ower
ĠM ur
$ \
ĠAr ts
Ġz ero
Ġchar ge
ĠG lobal
Ġm essages
Gr id
F ull
H S
Ġaff ect
> :
it ness
ĠB ack
ĠEar th
point s
ĠH ot
Ġown ers
Ġrespons ible
Ġca used
Ġra ised
Ġ[ ];
I A
ug ht
ON E
Ġbuild er
hen s
Ġprodu ce
Ġcompet ition
ĠSec urity
Ġcompon ents
%% %%
pos es
Ġed ge
Ġl if
and ard
Ġbe comes
Ġgener ate
u y
ol k
ash ion
Ġup dated
Ġtri ed
Ġshow ed
ĠEng ine
Ġpr ison
ĠChar les
ĠB re
Ġmajor ity
leg al
Ġcall ing
Ġp ull
ĠI reland
Ġf unc
h orizontal
Ġcl imate
k r
ĠL ib
Ġref lect
Ġdown load
on om
Ġview s
Ġs ell
Ġag reed
Ġevent ually
Ġcrit ical
k o
Ġw el
Ġd ir
Ġhand ler
Ġgener ally
Ġhelp ed
ĠM ax
ific ations
tx t
& &
8 1
ĠTe am
oth ing
ĠJ ud
Ad apter
=" ${
i en
ĠAt l
7 3
Ġpl aced
Ġmat rix
Ġbro ther
Ev ents
ĠAr ab
ĠAn y
C lose
++ ;
os en
Ġclaim s
n ight
ĠUp date
N G
Ġh ospital
gr ade
P anel
ele ase
O ther
Ġp sych
Ġofficial s
Ġd og
Ġwh om
Ġvari ety
Ġdeterm ine
ĠF inal
Ġst ra
clus ive
el er
Ġnot ice
I ST
j ar
ff ect
h idden
ched ul
ress ion
Ġk m
ĠTh ursday
M OD
ĠL ibrary
V ar
ut f
Ġat tributes
ĠS ol
ist ent
Ġstr ategy
ang ing
ĠE p
w ild
Des c
() ).
Ġther efore
Ġb rowser
Ġmur der
Ġf ear
W A
P ATH
ĠE ven
Ġh our
Ġch ief
Ġt ab
8 3
ĠA ction
" `
J ohn
tr igger
on ym
l v
ic ens
Ġin valid
NavBar Cell
ĠD en
ĠD om
Ġa ware
Ġst uff
ist ers
L oc
Ġpo inter
th let
res et
Ã §
ĠF ilm
ĠPar is
Ġp ool
Ġ io
Ġn g
ard en
ĠO h
ap ers
Ġexper iment
aug ht
S ome
Ġcustom ers
ĠĠĠĠĠĠĠĠĠĠĠĠĠĠĠĠĠĠĠĠĠĠĠĠĠĠĠĠĠĠĠĠ ĠĠĠĠĠĠĠĠĠĠĠ
Ġcould n
ĠAcadem y
yd ro
ĠT our
ĠB ur
Ġserv e
Ġform ed
stand ing
D epend
', '
pro to
Ġa f
Ġmat ches
à ¥
] :
IN FO
Ġele m
iter al
ĠO ld
Ġcrit ic
ĠOr der
Ġcap acity
y r
S w
Ġm obile
ig en
Ġagre ement
Ġd raft
Ġp ri
T ags
ĠJ im
ĠP age
ag ram
por ate
Ġag ree
Ġpres ence
Ġ{ };
Ġthink ing
log ger
h av
-> _
Ġw at
del ta
b ad
* }
Ġsepar ate
G lobal
ac count
S L
li e
n y
ĉĉĉ Ċ
Pl ugin
Ġh idden
Ġsh op
ĠC ast
f aces
J ava
Ġs plit
sup er
20 22
Ġdom ain
Ġre asons
ĠE very
Ġdet ail
p at
ĠA uthor
Ġeconom y
En um
Ġins ert
ĠF ree
ĠMart in
ĠĠĠĠĠĠĠĠĠĠĠĠĠĠĠĠ ĠĠĠĠĠĠ
Ġuse ful
ĠC A
Ġredu ce
tool s
Pr int
riter ia
irc le
Ġp ul
ĠP ower
{ }
stit ution
ã Ģ
it z
D T
M ed
UT F
Ġgener ation
ĠSt at
Ġac adem
ust ain
Ġch ain
Ġ$ {
Ġro ll
ĠB rown
math rm
Ġin come
Ġex port
Ġc ref
ĠP an
Ġacc ur
ĠEn ter
ĠTO DO
Ġac com
Ġob tain
To String
M apping
Ġelect ric
ĠM icrosoft
Ġappropri ate
Ġpro ced
e cho
hand ler
ĠA mazon
ĠS O
Ġc ru
Ġ= ========
Ġb g
qu is
'] )
B ig
irc raft
ĠG ames
eng ine
ĠĠĠĠĠĠĠĠĠĠĠĠĠĠĠĠ ĠĠĠĠĠĠĠĠ
import ant
Ġpart ial
15 0
ĠFor ce
typ edef
Ġeas ily
d x
Ġdeath s
U LE
it o
D ouble
Ġrelig ious
ann els
Lay er
Trans form
Ġtr uth
X ML
des c
ĠF ire
Ġstr ateg
ĠComm unity
er ial
Ġun known
Ġdr ink
U C
ĠA re
f amily
Ġpart ies
Ġpe ace
ĠMex ico
) ">
Ġend ed
Ġm ix
Ġb oy
c ient
S R
ast r
Ġper haps
Ġle ague
Ġag ent
j pg
Ġdo or
Ġpass word
O ur
Ġo k
ĠPol icy
H R
as er
Ġsit es
199 2
ĠD ev
ĠT uesday
ĠF unction
ex ternal
Ġgo als
Ġen able
Ġwe ap
SC R
Ġar m
ur a
( -
are a
Aut o
Ġstra ight
Ġident ity
Ġ{ \
Ġxml ns
ĠH uman
ac le
IV E
ellig ence
us band
ĠM il
b ur
r ase
x i
Ġ( _
Ab stract
I MP
Ġ" <
Ġocc up
T erm
Ġf ixed
Ġse a
Ġunderstand ing
Ġhapp y
12 3
met adata
z one
) ),
Ġsex ual
i h
ic ed
g s
Ġint eger
Ġfour th
Ġman aged
Ġthem e
S ER
Ġcon nected
Ġtool s
Ġke pt
L et
s witch
Ġold er
f ire
by tes
P lay
Ġh ol
ĠM essage
Ġex ternal
Ġr are
199 3
F unc
Ġide as
ri er
ĠJohn son
er g
Ġpart ner
Ġext rem
F IG
por ation
Sc roll
t mp
S Y
ĠAp ple
tab s
Ġadministr ation
P ay
ost on
D uration
ĠCopy right
ĠL ee
Ġtri al
B rowser
] {
ans ion
ĠL ove
Ġf le
iter ator
ĠP oint
il s
ĠL android
Ġm enu
Ġtalk ing
Ġrequest s
Ġa head
Ġsp read
ĠT ask
Ġph il
ĠWed nesday
re es
ap y
Ġaud ience
ĠVal ley
b rowser
ĠSec ond
c os
Ġsecond s
Ġf n
D est
fig ure
s igma
as ion
T A
ĠZ eal
ĠD C
ar ant
f ail
LE CT
C ond
Ġob vious
e an
ĠCh ief
n etwork
Ġcho ose
Mat rix
D C
å ı
Ġbel ong
Det ails
Run time
Ġg uest
s el
Ġst ated
ĠSc ot
ĠOn ly
ĠN ode
ĠL and
Ġchall enge
ĠE conom
ĠA S
Ġpower ful
res hold
oper ation
Ġb ul
Ġim plements
Ġup per
Ġlist ed
Gener ic
app ly
Ġsign ature
Ġess ential
m o
Ġsign al
al i
File s
em on
dom ain
Ġ" "
ĠS ar
ĠL ocal
IC E
ĠL ine
Com ple
Ġc ategory
go ing
Ex pr
Po inter
S ync
ĠTh er
Ġpl ays
Ġopt im
P P
Ġw ood
Ġnot ed
her ited
H ER
G en
os oph
Ġsen ior
he ast
get Name
Ġoffer ed
_ (
Ġ ul
ĠC are
u ages
Ġre q
U D
ST AT
Ġrepl aced
u ilt
IP T
c ert
ĠOb ama
Ġf ix
Ġen abled
1 20
ed itor
Ġinflu ence
config uration
ĠZeal and
N ULL
Ġre ject
ĠJ o
Ġd oll
Ġjob s
ĠCath olic
Ġf if
ĠVict or
li br
Mem ory
em y
Ġcontin ues
Ġdirect ed
Ñ ı
od ies
W N
Ġsub sequ
not e
S pace
ĠP enn
Pro file
Ġw all
Ġl icense
ĠM iddle
Sc ale
Rep ository
Ġpat ient
nav List
Ġa im
ĠS pecial
in v
pl atform
com ponents
Ġreal ity
ing u
Ġinst alled
est ic
ĠB O
ĠYou ng
Ġmon itor
l ife
Ġwin ning
t otal
Ġvis ible
IN D
Ġoption al
S QL
Ġal le
ĠReg ister
k ins
aw n
E lements
ĠE li
str aints
Ġlaun ched
Ġd anger
Ġ{ '
At tr
ook ie
Ġfe et
o les
cent r
Ġmaterial s
Ke ys
eff ect
pos ite
par ser
se ct
RE AD
col Last
Ġto ward
ild e
Reg ister
P ublic
Ġm iles
ĠComm un
Ġneg ative
ang ular
Ġcon vers
Ġsm art
ĠL ord
cont ains
Ġb rief
ĠPar liament
e ach
ĠE lect
< !
ĠT R
il ing
In v
Par se
Ġvis ual
ĠW ood
Stat ement
Ġill ustr
pro ps
Ġme ant
build er
Ġp anel
Ġp urs
Ġph ase
Ġd aily
B I
ĠT able
Ġoffic er
B P
. ;
Ab out
Ġtype of
ĠF ig
ĠSt art
Pro p
ĠIt aly
ĠIt alian
i ro
Ġenc oding
Ġmost ly
Ġas ync
G O
Ġfor ced
Ġpr im
Ġr ates
ĠJ ava
ĠG ets
Ġstep s
at o
col First
Ġad vert
Ġbroad cast
Char acter
Del ta
Ġbuild ings
ĠP aram
ĠG al
or row
ourn ament
Ġgu itar
br idge
Ġtr ail
Ġsl ight
Ġcertain ly
Ġfact or
N T
oss ible
ian a
at tributes
ĠJew ish
t body
" /
Ġabsol ute
F ind
ĠVirgin ia
u an
asket ball
our ney
child ren
Ġg one
ĠInd ex
ate ver
Ġshow ing
Ġrem ote
12 8
Ġgover n
ĠTechn ology
ro ph
up s
Ġsmall er
ĠM a
ĠCent re
Ġinvest ment
prot ected
ĠW indows
W rapper
Ġbenef it
Ġdep th
Ġf ill
ĠP ath
ĠM ake
ec es
^ {\
the me
Ġsk ills
ell er
w atch
s im
st one
ĠĠĠĠĠĠĠĠĠĠĠĠĠĠĠĠ ĠĠĠĠĠĠĠĠĠĠĠĠĠ
Ġsh ut
ĠIt s
[ $
Ġc row
Ġc amera
Ġre ader
z en
Ġprocess ing
N OT
Ġcult ural
ĠF ort
ĠGe org
ĠP ass
gener ated
() </
g ame
Ġadv ant
Ġre strict
in ator
199 1
Ġtr igger
Ġorgan izations
Const ants
Ġbig gest
Ġrest aur
ok es
ĠP op
result s
raz il
id x
^ \
ĠJ ones
k in
im ents
Ġle aving
Ġ à¤
ograph ic
ot ic
Ġt x
p df
Ġp et
Ġcred it
ĠIO Exception
ac ific
Ġw aves
Ġinterest ed
ĠRes ource
ad or
Ġfam ous
t ags
Ġpl anning
Ġveh icle
Ġdes c
ce an
ar ia
Ġprot ocol
O UT
C or
ĠD own
Ġp od
h ide
F ailed
p refix
ch or
ri ev
ĠS pace
Ġident ified
ĠThe ir
Ġpl ot
Ġviol ence
Rem ove
ur ies
Ġhe avy
r ick
ĠMus lim
sign ature
Ġco ast
ell o
P y
Ġad opt
Ġnav igation
$ /
âĢ ¢
Ġrem aining
Ġd u
Ġe lected
ay lor
ĠN Y
Ġcon ference
ĠSe ction
h ow
r id
Ġbe coming
art icle
ak istan
Ġstart s
web pack
Ġ que
d p
ig ital
Ġs ector
Ġrep resents
S ingle
d ialog
in ations
+ \
Ġcons ult
s afe
ER S
Ġemploy ees
M ut
Ġbe at
oc aml
Ġon to
in et
l imit
Ġear th
w rapper
ĠAl though
Ġf resh
Ġr ac
Re port
new s
ĠB et
U SE
fil ename
">< !--
Ġap pre
ĠDes ign
pre v
ĠG ar
ĠF und
Ġfund ing
Ġcl oud
du led
C red
ĠEx t
n il
ĠL ink
Ġatt end
ĠRec ords
ep s
ipp ed
Ġ= ======
% ,
S uccess
ĠA wards
Ġv ir
Ġdeterm ined
Ġleaders hip
Ġh usband
ct rine
ĠIn ternet
Ġdel ay
m ask
Ġin fr
~~ ~~
Comm on
Ġcre ation
Ġc ool
ĠH aw
ĠM ain
19 60
mut able
ĠL ast
ro le
Mem bers
Pass word
) ).
ĠJ es
od d
Ġrepresent ation
M B
j unit
Ġsize of
ĠO l
ĠW ater
Ġcandid ate
IT E
ĠRe quest
Ġf an
Ġflo or
Ġs un
ĠĠĠĠĠĠĠĠĠĠĠĠĠĠĠĠ ĠĠĠĠĠĠĠĠĠĠ
P ORT
at ible
Ġw id
S ocket
Ġr aw
w orld
Ġa udio
F ail
p resent
all classes
ĠWh y
end or
Ġ" ,
Ġmin imum
Select ed
S ql
Ġp icture
up load
N e
ov ing
att ers
R oute
con n
Ġb udget
ĠH istor
ĠCh ris
ex tern
Ġt error
pr ise
Ġob tained
Ġbenef its
b ing
Ġad just
Ġp i
Ġpar ser
Ġblock s
il ation
Ġbr ain
Post ed
um s
TEX T
Ġw arn
comp iler
-------- ----
ars ed
Ġf lex
ĠW all
Vari able
u zz
ĠI l
Ġcont em
ĠAs ia
am m
Ġc ities
cre te
IG HT
Ġd im
Ġu i
tr iev
Ã³ n
Ġp an
Ġst reet
aj ax
Ġy ield
ut ch
Ġrecomm end
Ġdam age
Ġoper ating
Ġmus ical
ĠS u
ĠRe act
ĉ ĠĠĠĠ
ĠB ob
Ġmys elf
33 33
Ġen h
ĠW he
Ġdoc uments
AL SE
ĠW AR
ĠF amily
un te
wild fly
Ġcl uster
FF FF
Ġneigh bor
L a
p icker
sh adow
urb an
S equ
W orld
A CT
ch annel
ele ted
ĠM ult
Ident ifier
ĠS upport
Ġr ad
Ġdep artment
g amma
ĉĉĉĉ ĉĉĉĉĉ
p erson
maz ing
ĠW ay
c are
r ift
ser ial
ĠC ard
p an
Ġgu y
Ġf ish
A re
pos al
ĠPol it
Ġcorrespond ing
ess ions
ĠL o
Ġrequire ments
at i
sw arm
Pro ps
Ġprote ction
Style ID
ĠN AME
Ġcr iminal
P erson
p et
Ġrele vant
ĠJ on
Ġk ill
Ġfact ory
ĠIm age
Ġocc ur
Ġcont roller
Ġtraff ic
cont in
ĠG ir
ach ing
C RE
Ġp p
g ers
ĠE ach
ar ian
CE SS
IN S
Ġsup ply
F S
b log
am er
Ġmention ed
cri be
Pro duct
Reg istry
ĠM P
Wh y
ï »
V ideo
Ġregard ing
ĠD O
head ers
ĠR ail
f riend
oun try
ĠWh o
Col lections
Y ear
Ġ ult
R ob
Ġpolit ics
Ġoriginal ly
ĠBrit ain
is hes
Ġregister ed
and on
ĠAb out
6 00
Ġh yp
Ġat tract
prot ocol
m i
Tr ace
Ġf ant
Ġfact ors
Ġ( \
ac ro
Ġent ered
DE BUG
Hel p
Ġc tx
Ġhistor ical
alyt ics
Ġex it
Ġfound ed
Ġequ ipment
Ġare n
ĠP RO
Ġs leep
ĠJ eff
el a
if ically
col lection
Gener ator
ĠPl an
part ial
ĠA ge
Ġ[ "
Ġres idents
astr ucture
int on
ĠH ash
ĠBl ue
Ġadd ing
os es
Ġm ixed
uck y
ĠM any
w riter
ï» ¿
if def
bs erv
Ġreve aled
Ġprov ider
Ġcon vert
C ategory
ĠSp anish
g al
Ġco q
st orage
ĠM ike
Ġclear ly
B AR
ĠWilli ams
ict ures
ner gy
Ġa ircraft
ĠAnd roid
ĠHen ry
par a
198 9
v a
Ð ´
is c
S imple
coll apse
alle l
ĠS and
w ar
Ġexecut ive
Ġkn ows
N N
ĠR ights
Ġ" -
Ġfl ags
Ġph oto
ole c
. ");
C ap
ĠL ab
l ig
det ails
Ġcover ed
n el
Ġl ived
8 00
H ere
Ġe ye
Ġpre v
ĠOr gan
B ook
ord ers
Ġd ie
ĠI E
reate st
TI ME
ĠCarol ina
ĠU I
Ġnot es
m aven
ex ecute
Ġfin ish
ian o
sum er
det ail
Ġcon centr
Ġw arm
Ġinvest igation
Ġfa ith
ĠT ri
Ġc ars
Ġpro ceed
is er
Ñ Į
r andom
Ġapp end
Ġcr ime
Ġrespect ively
Ġsom ew
e z
UR I
ĠT ele
al m
Ġw ish
Ġhold s
Ġcon structor
Ġwe ak
ĠC ustom
Ġr u
nd ef
ĠG i
ĠA ccess
Ġl ands
ĠC EO
Ġcitiz ens
ĠL i
Ġstand ards
press ed
ro ke
cre d
prov ider
H igh
Ġg ather
Ġj Query
? "
Ġstreng th
ĠE U
Ġbg color
Ph one
st ar
Ġiss ued
Ġfavor ite
G u
Ġact or
ak ed
L C
Ag ent
i at
ad ium
Ġr g
Ġcent re
Ġrem ained
iqu es
ĉ ĠĠĠĠĠ
ĠA ff
Ġch air
Ġvari ables
S che
Ġb ed
Ġst ars
O B
Ġpol icies
s q
) /
Ġdef ense
Ġtrans l
P refix
Ġcommun ication
Ġab stract
os a
ĠPol ice
S election
Ġex change
; }
N odes
iss ions
; "
ĠC y
Ġbal ance
t ons
ĠS ports
ĠAmeric ans
| |
ĠC H
Ġmet adata
Ġlog ger
Ġ{ "
x s
Ġapprox imately
Ġb urn
ĠB oston
serv ices
ov a
d one
Ġopport unities
ir a
Ġj oint
Ġr ich
ident ifier
Ġwould n
dec l
Ġn ine
j ango
word s
s ur
ans as
ĠF ROM
het ic
Ġex erc
Ġocc urred
ĠCon ference
ĠSen ate
Ġtal ent
spring framework
Ġart icles
; )
s he
ex ists
L iving
ĠSt e
scri be
Ġv an
ĠM en
Ġoffic ers
ĠN et
(' .
Ġfeature d
Ġf ra
25 0
Ã ¢
Ġs an
Ġex cell
Back ground
Reg ion
O ST
b el
Ġcomp os
Ġaltern ative
id i
Ġin tr
S eg
param eters
J S
r ich
b ec
ĠCont rol
Ġn ice
mon th
Ġm ask
pro gress
Ġ ice
ival ent
Ġd ict
ĠL com
N amed
ĠK ar
M T
F ORM
Ġw ww
ĠP R
SCR IPT
s ingle
Ġlo op
es ome
Ġapp arent
ur er
ĠJust ice
if i
M I
init ely
? >
W R
ex pr
ĠInt eger
G ame
in valid
Ġh ers
sv g
Ġfund s
am in
TR UE
Ġ queue
iz able
HT TP
Ġcar ried
Ġn orm
Ġline ar
ru it
ĠChrist mas
Ġbusiness es
Ġ ðŁ
us hed
Ġl abor
198 8
ĠRes ult
ĠMed ical
ph as
Ġspe ak
Ġspe ech
im a
Ġl ab
Ġset up
Ġpl us
ĠAnd rew
ĠN ight
F LA
Ġ Ø
log in
Ġs quare
ĠB lock
Str uct
ot i
il ly
Ġsee ing
Ġyour self
en abled
Ġfocus ed
s f
ath an
ax is
Ġappoint ed
ĠAd ministr
ĠS pec
ĠJ oe
def ined
Ġk ing
ĠHe ad
Ġid x
Ġed ition
unn y
ĠC ross
Ġint ended
N ote
s b
Ġ? >
ĠPro cess
Ġlay out
ore m
ide os
ĠS ign
y er
ĠHT TP
gy pt
Ġ ],
Com ment
RE S
ress ed
b rief
ff ff
Ġcr is
T x
M C
Ġis land
Ġr ise
Ð ²
Ġsh ift
Ġex tract
B E
Ġex plicit
ĠL ike
d em
Ġenvironment al
Ġtrans late
Ġweek end
ĠCol umb
Dom ain
T otal
r im
w ater
ate way
ĠĠĠĠĠĠĠĠĠĠĠĠĠĠĠĠĠĠĠĠĠĠĠĠĠĠĠĠĠĠĠĠ ĠĠĠĠĠĠĠĠĠĠĠĠĠĠĠĠĠĠĠĠĠĠĠĠĠĠĠĠĠĠĠĠ
E ar
Ġr an
(' #
view s
ev al
form ance
am pl
cd n
ĠFoot ball
Ġpol y
m ond
=" $
Ġdevelop ing
S ection
ĠSecret ary
Ġbr anch
err ors
ĠB ow
f ol
Ġseem ed
un ique
IT ION
Ġp refix
ĠFrancis co
> ::
Ġobserv ed
ĠM i
user name
Ġvict ory
ĠF ederal
Ġp il
( __
plic ations
A rea
Ġ' <
Ġappear ance
N amespace
ĠH ospital
Vis ible
Ġst ored
ĠSum mer
' ));
Ġattack s
Ġext ended
} {\
Ġpre d
ir ation
st ein
Ġdis abled
d im
ĠA SSERT
w all
Ġwait ing
ĠThe atre
ĠS E
ĠJose ph
am az
Ġyou th
Ġrepresent ed
ch ain
m oz
rior ity
igh ter
re port
M ake
F ig
Ġsum mary
Ġfeel ing
10 1
Em ail
R ole
Res ources
Ġpro xy
ed u
Ġop inion
at ar
Ġcomb ined
C G
r ule
F inal
ĠSw ed
Ð ¼
th row
Ġm ist
Ġdiscuss ion
Ġexper i
g ency
ĠK h
........ ........
Ġident ify
A F
ab out
Ã ¨
n am
Ġres erved
sh ared
require d
j i
St ats
R PC
Pro gress
Ġlearn ed
Ġcon sequ
å Ī
ĠNor thern
Ġsuccess fully
ĠW ild
pl us
ĠM u
ĠR est
Ġgu id
r um
Ġdec re
Ġgir ls
Ġ[ ],
ri z
icens ed
v ideo
S ince
The se
Ġvers ions
v c
Ġin ner
g a
us form
ĠIn vest
O pt
ĠP lease
Ġexample s
ĠS pe
numer usform
D at
Ġpro of
g reen
Ġ" $
Ġse gment
Ġsu c
ĠEx ecut
St op
w p
Ġdec ades
ollow ing
n ic
Ġm yst
up lic
ack s
p u
Ġj ump
CT YPE
eng er
ĠEn vironment
Ġmar riage
| \
ĠP akistan
x html
ra q
Ġposition s
Ġthous ands
Ġstruct ures
Ġnuc lear
He aders
Ġhapp ens
Ġtri p
EE EE
r ate
EN SE
ĠH on
en ch
index Of
ly wood
ĠC oll
Text ure
Ġdet ect
Ex ecut
or iginal
Ġredu ced
Ġtre nd
tem p
play er
Ġtell s
Ġtop ic
av or
ach ment
sec ut
clud ed
it an
ĠSo ftware
) ->
v ec
og en
ab eth
Ġf reedom
ĠD ocument
ĠJack son
. <
Ġr ain
ĠM S
Ġp un
M ask
ĠH ttp
$ -
En ter
Ġmeas ures
Ġnumer ous
le q
ĠF OR
Ġautom atically
Ġaccept ed
ĠBec ause
L ook
Ġd ebug
T wo
Ġstud io
ĠIr ish
Ġ{ {
D R
Ġnew sp
ev in
( @
ĠF our
Ġcomm ission
Ġen v
ult y
J ust
Be an
or ph
Ġbo ost
as m
ĠE r
ĠV an
ĠO N
it age
ĠD aily
the ta
L INE
um es
if er
L anguage
ĠW al
ag ers
Ġfind ing
Acc ording
eq ref
ul f
S ervices
Ġsol utions
Child ren
py thon
^{ -
ok ed
ĠDan iel
Ġanim als
Ġsupport s
Ġun ion
ĠB razil
ĠĠĠĠĠĠĠĠĠĠĠĠĠĠĠĠ Ċ
ĠF I
ish op
198 6
Ġst ations
ut s
Ġconc ert
k m
Ġch art
ĠCol lection
Ġread only
$ $
198 7
Ġalbum s
Ġt sd
Ġchar set
Ġprocess es
Ġfac ilities
Ġ> >>
or al
Ġmet al
let ter
M er
Ġfore ach
as sembly
Ġcom fort
(' /
f ast
ĠGu ide
Ġcomb ination
T T
s ys
LO CK
ID TH
Ġmot or
ĠS outhern
Ġre lation
"" "
Ġan al
Ġown ed
D ictionary
ĠO k
At t
Ġ ur
ra wn
en able
Ġcli ents
as ync
Ġre triev
em it
ĠE mp
ĠDemocr atic
Ġag ency
" ],
Ġgu ess
ĠLO G
w er
Ġchang ing
iv ation
Ġsur vey
che str
Ġsuc ceed
w an
Im port
. âĢĻ
Ġresult ing
B ind
Ġstr ings
ĠSe a
az y
check box
Q U
ivers al
Ġ ..
Ġdest ination
VAL UE
ick ets
Ġdr iving
() ))
Ġsp end
ot ing
test ing
ly n
n odes
ĠW alk
Ġw ind
Ġs port
Ġchalleng es
ion e
us ers
Ġallow ing
j e
in ates
Ġcustom er
ap pe
Ġun iversity
f x
Ġtyp ename
libr ary
Ñ ĭ
Ġnull ptr
Ġd ialog
ĠCo ast
Ġs ale
f lex
Ġgu ide
... </
hel per
ĠF ar
is ms
B egin
res ources
Ġtem p
V E
ont o
f ix
ĠN av
L android
umn i
ĠL uc
cle an
h ref
Ġconf irm
Ġus age
lo ader
ĠComm and
Ġex ecute
B ound
P layer
Ġreg ional
fl ag
Ġem ot
TR Y
Return s
! "
ĠF e
Ġse at
p attern
Ġn p
Ġauthor ity
ult ural
ĠAN Y
print ln
Ġfore st
ici ency
Ġval ign
PO ST
Inst all
Ġ ).
ĠM ember
198 4
Ġis ol
ad el
ĠW in
ĠM ot
Ġdocument ation
get Element
ĠInd ust
U ri
Ġpo et
D elegate
ĠMc C
Ġhers elf
t c
Sh ort
ĠP erson
Date Time
Ġrece iving
ĠS ource
Ġload ed
Not ification
Ġex ecution
iss ue
ĠB oth
ĠR adio
Ġlist ener
ĠT w
ĠC EL
Ġt end
ak a
ĠL ive
DO CTYPE
ĠM id
f d
ĠA li
ĠStud ies
F in
Fr amework
Ġs cre
Gener ated
che ster
ĠK en
Ġpost ed
com mit
Ġign ore
ĠS ir
Ġdiscover ed
Ġwe ather
S ample
DE FAULT
Fr agment
Ġf ell
ĠH or
ĠL u
Ġfr amework
v in
Ġded icated
um my
ird s
Ġsc r
Ġcor ner
! [
ĠG re
Ġwrit ers
aw a
con sole
ĠRe al
ĠT aylor
dep th
Ġdiv ision
Ġsc roll
M ath
EL D
Ġf iction
ing ly
Ġpur poses
Ġa mazing
, '
Ġhead ers
Ġhous ing
Ar ch
ĠComm on
stru ctions
oc key
Ġsc ored
ott en
Ġr iver
C apt
Ġtime out
c hen
B est
Ġs amples
g lyph
L en
ĠÂ ·
Fl ag
ĠArray List
Ġtechn ical
Ġdem ocr
p ull
ĠĠĠĠĠĠĠĠĠĠĠĠĠĠĠĠ ĠĠĠĠĠĠĠĠĠĠĠĠ
Ph oto
s ocket
Ġw itness
Ġtr uly
ĠC ivil
Ġcon nections
Ġtrack s
{ %
Ġb uf
f c
li k
ĠV ector
Ġhold ing
Ġh air
os ure
ĠH arr
Ġinj ury
Ġprodu cer
Ġaward ed
iss ues
Ġsing er
Ġfr ag
M iss
ass andra
w hen
Ġhouse hold
Ġ rom
Ġwatch ing
ĠP acific
ag ent
ĠQue en
Ġtransp arent
ĠN E
L L
Ġvert ical
ä »
Ġn arr
Ù Ħ
d ot
Ġadvant age
Ġ ];
Ġz one
time out
pro xy
if iers
Ġend s
Ġmag azine
r oute
198 5
chedul er
EEEE FF
Ġj ourney
el ly
Ġbeg ins
Ġan imation
Ġdep art
ap es
! âĢĿ
Ġen um
S im
OR Y
ĠSp ain
Ġv oc
Cl uster
p a
Re quired
ĠP H
b m
Ġf ashion
r uby
Ġcoun cil
. \
Ġf uel
ĠA f
Ġv ision
ov iet
Depend ency
Ġf ellow
Ã £
ĠRepublic an
Ġt ro
ĠJ r
ĠR om
Ġad apt
Ġclaim ed
Ġfl ight
En vironment
Inter val
t k
Ġsche me
op ed
Ġd ance
sy lv
Ġcirc um
Ġgu arant
ĠTr ust
Ġan aly
Ġmov ies
C F
r ho
Î ±
ĠBe ach
MOD ULE
cal led
Ġpre par
ĠScot land
ch er
z y
à ¸
ĠS QL
Ġcover age
ĠE R
Sk ip
Ġthan ks
Ġconf irmed
udd en
(" /
¿ ½
F il
pl ates
ĠAL IGN
Sequ ence
Ġfile d
option al
ĠB it
19 50
Ġadv ance
Ġc md
Ġgu ys
ĠJ ac
Ġapplic able
ĠII I
Cl oud
Ġcount y
Ġhe at
Ġt on
in ity
P ER
an es
Ġ$ .
Ġsup posed
ĠProf essor
ipp ing
ĠÐ ¿
Ġmark eting
Ġconflic t
Ġk id
ĠL ight
Event Listener
Sum mary
W allet
og y
ĠSt eve
D ist
Ġoffer ing
D em
ĠR am
Ġp itch
M ouse
ed ge
ĠH y
D ay
Ġm al
E V
ĠS IZE
Ġfe at
if ndef
Î ¿
ĠR o
W ORD
amaz on
ug h
el ines
d c
f ixed
S ort
Form s
ĠBro ad
Ġin n
av id
; ">
ĠE ND
ME TH
Com par
Ġfac ility
ck now
ry ption
: `
Ġal gorithm
Ġal ert
fort un
Ġall Classes
Ġprom ise
M any
h ar
Ġthan k
Ġrap id
PRO JECT
g oto
et es
ĠallClasses Link
Ġhel ps
re v
V olume
ili ar
Ġtyp ically
Ġ_ .
Ġlead s
F ree
I gn
ent h
Pro gram
Sec ond
ĠVal id
in ating
r an
ap is
s ample
ĠW IT
ĠKore a
ĠM ic
ĠAd v
Ġconcern s
act s
bl ank
n p
sylv ania
Vert ex
t ar
Ġconduct ed
Ġcris is
Ġwh atever
ĠOr iginal
arch y
s ince
Ġfl at
Ġextrem ely
as hed
Ġwar ning
il a
Id s
Ġca ught
ĠN AV
r ical
En umer
æ ľ
ĠE gypt
Ġdist inct
Ġbeliev ed
ĠI raq
Ġcommit ted
Ġpl ugin
STR ING
AN CE
Ġre ct
M icrosoft
f old
Ġs and
Ġan cient
Ġannoun ce
D ev
Ġpl ants
ĠK n
m ouse
ĠCor poration
ĠU kr
RE G
ĠW ales
NavBar Font
oper ator
Ġprep ared
ĠS earch
bit r
ual ity
Ġres olve
ĠT erm
D uring
Ġd ynamic
An imation
ĠP ri
ï ¿½
ĠD ar
\\ \\
i ant
SE LECT
Q UE
s en
pe at
Ðµ Ð½
se x
V D
ĠCon f
ĠB as
at omic
Ġpartners hip
ke ep
Ġs ustain
Ġg ain
Ġcom pr
Ġloc ations
Wh ere
Ġ ille
bur gh
ĠL ittle
Ġhe aring
Ġk ick
Ġcol on
P M
Ġfe e
P air
Ġs ister
ĠMich igan
ĠCh ange
% )
ag raph
Ġso ft
res olve
W ait
rou d
******************************** ********************************
con struct
anc ell
# {
Mult i
ĠT oday
Ġcolumn s
Ġaddress es
side bar
ĠS pring
Ġappre ci
Ĥ ¬
Ġle aves
ĠB ul
Ġwin ner
Ġsignificant ly
ag ger
Ġscient ific
check ed
ro vers
Ġper mission
ĠN on
cl aim
ĠE nergy
pp ing
Ġreg ions
enc ing
Ġrefer red
Ġrequest ed
Ġm el
æ ĸ
ĠDon ald
Ġclin ical
Ġass igned
Ġcont ents
Ġjust ice
Ġshare s
Ġres olution
Ġclass ic
VAL ID
ĠF ood
ĠJer sey
ĠPr ime
Ġadv anced
ĠS aint
Ġh aven
ss l
Ġad min
Ġmatch ing
Ġturn s
our se
Ġt mp
Ġauthor ities
ĠP rem
Ġmod ified
com ple
os c
ĠI T
G ER
und efined
ac cept
Ġarr ived
ĠIn put
Ġs pring
Ġpro ve
P UT
Ġc er
Ġrec ip
Ġm d
ĠCar l
z abeth
ĠB ern
ĠR ay
Ġs ounds
ĠW at
Ġdef end
R C
Ġassert That
Ġachiev e
Sh ape
ĠSt an
Ġeven ing
sh op
ĠBro ok
ilt ers
S erv
AN T
ist ant
Ġpract ices
Ġs aved
Ġtre ated
M IN
Ġver ify
ug s
g ov
a un
Ġsupport ing
Ġpr ices
' ];
b ury
Ġd uration
S ave
t witter
Ġrecord ing
n amed
ic er
INT ER
ta u
ĠS us
ĠH as
lip se
Ġpi eces
D P
ĠF air
J oin
in f
c atch
Ġrg ba
Ġv en
Ġdef initely
Ġr adi
b ro
Ġc old
ĠM aster
P od
ear s
ĠS ong
P U
j d
METH OD
Ġtr a
ĠN ext
b old
Ġmain tain
Ġro les
Ġg lass
comp ile
Ġslight ly
Ġest imated
Ġel im
Ġstop ped
t w
Ġg ender
} (\
w arning
Ġm ental
Ġaff ected
Ġad vent
ĠK im
Ġtrad ition
Ġadv oc
be an
Ġcommit tee
^ ^
A ng
l an
ft y
mer ce
Ġret ail
z ip
Ġalle ged
Ġveh icles
ĠO S
N C
{ "
Ġl oved
on ce
ist ence
'] ['
Ġcharg es
ĠS elect
ĠC lient
Ġincre d
Ġl atter
N V
W rit
is a
Ġimport ance
Ġdeb ate
support ed
l ow
Ġpurch ase
Ġdoub t
Ġsub stant
Ġserv ing
down load
ist ing
ĠV ideo
Ġdr ag
z ure
Ġfil led
Ġgr id
W atch
ĠM ah
Ġrepresent ing
1 10
h ab
D ATA
ident ial
cond ition
ĠK enn
Ġc ash
ĠT ag
Ġsp an
Ġexper iences
Label s
F E
s es
Ġdel ivery
vis ible
Ġopt s
out ing
sc ss
Ġs outhern
kw args
ĠI ss
Ad min
v o
Con n
Ġacadem ic
Ġappro ved
oc ity
Ġhelp ing
Ġadv ice
ĠW rit
Ġposs ibly
ĠO x
re lease
Copy right
Ġe lections
ĠÂ ©
Ġinterest s
Con nect
ĠL ear
bl ue
ĠPro perty
Ġcrow d
am ber
ĠPh ys
imit ive
OR TED
ĠSt atus
ino is
Ø ±
Ġexpl an
Ġ era
ĠOption al
Ġcomp are
B B
ĠS om
ï¼ Į
Ġgu ard
Ġauth ors
st ances
Ġpro test
get Value
Ġfor t
Ġm unicip
U ST
F ocus
ĠM O
if fer
fol io
ĠB ad
End point
Ġcre ative
Ġtw ice
lo ss
ry st
Ġconsum er
Ġres et
ir ror
ost er
f actory
L Y
Ġup dates
p ag
}$ ,
Ġar my
Ġport ion
ĠC apt
ãĢ Ĥ
Ġmark ed
trans ition
select or
F R
edd ing
Ã£ o
ĠF ind
Ġmark ets
Comp iler
Ġhot el
Ġ' '
pol icy
ĉ ĠĠĠĠĠĠĠ
Ġteach er
Ġinstit utions
ex pect
N ative
enn is
ant ly
Ġfight ing
CO MP
atter y
il ton
Ġpass ing
Ġent ries
Ġas sembly
198 3
Ġcandid ates
s n
E ST
Ġb inary
Ġpro ps
ĠSup reme
s ync
Ġhom es
Ġacc ident
Ġliter ature
Ġt ournament
cl one
ext ension
ç Ķ
s pecial
Ġrel atively
ĠL im
V M
Ġ' \
face book
Method s
Ġsec ure
opt s
s a
ro g
S cal
Ġentire ly
b ot
Ġinstr ument
ĠA sh
Ð° Ð½
Ġmot ion
ĠA rea
ĠRes ponse
own er
ĠNAV BAR
atic s
Ġb ind
ĠOh io
S K
bo ost
ĠP ack
agnost ic
ĠP ay
D b
ĠChild ren
Ġac comp
Ġcy cle
ĠS at
Ġpl anned
Gener al
tr ace
run time
du ce
198 2
= &
Ġre b
ĠCh air
m essages
Ġmin ute
P lease
Ġmass ive
Ġre cover
å Ĳ
Ġcomp liance
Ġr ing
Ġch osen
å ®
How ever
ĠP C
Ġcan cel
d eg
Fl ow
Ġs chema
H ub
/ _
A rr
12 5
iv acy
Con sumer
ist ed
Ġphot os
App end
L iteral
put er
An notation
Ġteach ing
Ġdr ama
ann a
Ġbel ief
or ough
Ġan imal
ver ter
Ġsp ons
ĠAp ache
Ġdec isions
Ġpay ment
Ġnor thern
F act
typ ename
L in
con structor
Ġequ ivalent
y ou
Ġjud ge
A li
ĠF ox
Ġp al
ĠPhil ipp
ul ator
Argument Exception
ĠG reek
Ġfig ures
ĠB oy
te en
Sh ould
ĠRef er
n u
Ġman age
Ġreview s
Ġdet ailed
Ġv e
m ann
ĠL ew
us et
CH AR
Ġs ides
C LASS
Ġw ire
S ur
Ġc le
Ġcre w
á ĥ
Ġmin ister
ĠN avy
Ġm igr
MO DE
Ġdepend s
Pr ivate
Ġc ursor
ri e
Ġcontr ast
Ġca uses
ĠDe ath
ĠK ong
C ast
Ġm agn
S creen
Ġv ent
Ġcompar ison
Ġexpl ained
Ġes cape
Ġb an
Ġfav our
HER E
uff ers
Ġspec ify
sp irit
M r
Ġeas ier
W ord
s lice
ĠR og
b as
Co ord
Ġass ume
iven ess
The n
Ġman ner
Ġap art
ĠSt ory
= (
US ER
ect ors
DO M
Valid ation
Ġst ress
= \"
Ġbr idge
Ġatt ended
ĠL ook
Ġo dd
Id entity
ĠR h
art ers
Ġsuggest ed
B asic
ĠAs ian
% "
Ġl it
Oper ator
Ġexpl ain
Ġg rew
onym ous
Ġexcell ent
ORD ER
text bf
Ġimplement ed
Ġtask s
Ġst orm
W arning
in itions
Ġin vent
display Name
ĠH ard
ĠPenn sylvania
D iv
b at
197 9
ex ec
ot hes
Ġl ose
Ġex pos
Ġtr av
ĠD ub
Sy ntax
Ġ\ "
Ġorder ed
ĠGu ard
Ġstat ements
ut ral
ĠK ent
ix els
un es
am el
Ġindust rial
Ġfind s
aps ed
Ġhon or
="../../../../../../ ../
dest roy
Ġvol unte
ic ing
ĠB BC
Ġnetwork s
ĠBo olean
act ivity
group s
Ġrespons ibility
Ġm useum
ut ely
ĠW atch
Ġinc ident
n ce
Ġbr ings
Ġc ert
AN G
}$ .
ĠE lement
Ġsh ock
Ġs yn
Â °
Ġs ending
Ġspec ifically
Ġwe alth
ĠM att
Ġtre es
/ "
Ġs pr
ĠĠĠĠĠĠĠĠĠĠĠĠĠĠĠĠ ĠĠĠĠĠĠĠĠĠĠĠĠĠĠ
c li
al o
Ġinfr astructure
en ant
Ä ģ
Ġtalk s
ĠTh ree
C lear
% .
mer ge
" ].
Ġrepe ated
c uss
force ment
m osp
Ġpor tr
op her
ten ance
ĠRet riev
Å ¡
Ġlang uages
N ET
ĠE st
set s
Ġc e
Ġnew ly
ĠTh us
ail ing
RE D
ast ers
Ġt ags
Ġsp aces
Ġexpress ed
IO Exception
ĠR od
in herit
Ġs ac
Ġc as
U ES
1 30
W ell
Input Stream
Ġv ul
i ors
Ġse asons
Con stant
SS L
og rap
pre p
ĠC ur
Ġdiffer ences
ce ived
ĠW el
Ġsche dule
Ġex tr
Ġtrans actions
Ġb asketball
ĠS her
o ir
Ġass ign
Ġdis s
RE E
Ġphil osoph
O F
A ST
ĠC urrent
ps i
Ġsecond ary
M ove
erv ative
ĠJ ob
Ġinsp ired
Y Y
ĠS ep
l arge
Ġpro s
ĠR en
ĠAp plication
Ġcomp osition
ĠD eb
Ġbro ken
Ġac id
dr iver
ow nt
Tr ansport
valid ate
Ġcapt ure
å ħ
a is
s imple
Object s
Con structor
s r
N ormal
Ġstud ied
ĠP ers
is set
Ġg reatest
Ġrelig ion
in son
7 00
n i
. ",
I AL
i ate
Ġdecl ared
Ġact ing
b ra
le ts
ĠP ut
198 1
U nder
c raft
plement ation
NS String
ĠT urn
B Y
cre ated
Ġ( [
Ġper man
} ),
ĠExecut ive
L ib
f all
A udio
ict ed
com plete
ĠM ajor
Ġm ent
Ġc art
Ġs b
al ert
it led
ic ode
Ġh ydro
Ġdro pped
vari ant
âĢĻ .
Ġ rows
Ġm eta
Ġhous es
ill is
ĠGeorg ia
Ġsk in
Ġg ar
u ency
av ailable
th rift
Ġprote in
Ġprof essor
adel ph
equ iv
Ġpass ion
Det ail
Ġeff icient
Ġcont ained
W est
Ġind epend
> )
_ );
ĠPro t
ĠX ML
ĠW is
ic ator
ot on
ĠAg ain
or ient
Ġd ensity
an imation
E very
Ġa xis
Ġlink ed
u ations
Ġpers pective
Ġmed ium
ĠA T
Ġcons ists
ĠEast ern
ĠJes us
y y
Ġinitial ly
getElement ById
Ġcon n
Ġp hen
Ġkeep ing
Ġimprov ed
Ñģ ÑĤ
ĠEmp ire
} [
Ġch unk
ch i
ĠU t
v olume
____ ____
pe ople
Ġprior ity
Ġcharg ed
u v
Us age
qu ir
Ġem phas
ĠS ets
ĠOn ce
lic ense
Ġr ul
F ore
Ġ urban
co hol
Ġarchitect ure
C oll
ĠSt ation
ex it
Ġv ac
Dr iver
rypt o
d ig
is Empty
Ġab use
ru ption
() ),
Ġchem ical
agnost ics
ra ham
eg o
ur d
Ġ ig
Ġin ternet
C ard
Ġins urance
h l
Ġs ys
ik i
Ġearn ed
Ġexp ansion
ĠS oviet
ĠB ang
Ġco al
Ġl ies
Y es
Ġar ms
ON G
A Y
w a
ĠRes p
adelph ia
In formation
Ġconcern ed
Ġf mt
cal endar
Ġ@ "
Ġstand ing
Ġgrant ed
Res olver
dis able
ĠSe ason
On ce
out s
R elease
P ers
nav igation
ok ing
Ġs udden
d uration
g i
sh al
Ġvalid ate
log o
ĠBook s
s ome
O wn
object s
pt on
Ġdr am
a us
Ġassoci ation
ĠW ars
ĠB on
P res
L ower
ĠL y
AT ED
b ul
Ġexperi enced
ation Token
ĠP en
av ity
ip her
ĠB attle
Ġdi agn
Ġ_ ,
Ġlarg ely
ĠN ick
trans action
y cle
R aw
Ġselect or
Ex ecution
ĠC ore
= -
New s
ĠSh ort
Ġd imension
Ġ" ";
ĠIl legal
Ġweap ons
Ġf ake
Ġ' ';
sub mit
yd ney
Ġest ate
Ġs we
Nav igation
sc ious
is lation
ĠR on
Ġst ats
L imit
l at
ar c
Ġch ampionship
Ġsur g
Ġlist ing
Ġa cknow
Ġm o
ĠC R
Ġreturn ing
Ġrelationship s
Ġal ter
ĠAn th
Ġm ort
Ġe at
m al
re act
e a
The me
Ġdom estic
Ġm ouse
Pl atform
Ġexpand ed
ĠCh annel
Ġatt or
Ġp ure
greg ate
y o
cl uster
P G
Ġread ers
Ġinst ances
ach uset
achuset ts
Ġwill ing
ĠD ou
Ġdrug s
ĠF il
read er
ĠEd ward
ĠC ase
Ġrecogn ized
Ġarrest ed
ĠC ro
eng ers
D ATE
h ard
Un known
Ġst ores
B inary
ow ed
Ġel if
al ty
AR D
18 0
Ġcol lected
om ega
assert True
tr l
ch anged
ĠF ull
st able
in fty
cl osed
Cont act
medi ate
197 2
p air
Ġnav bar
Ġper missions
line ar
ĠS on
Ġelect ronic
Ġim press
Ġre nt
ĠL atin
197 8
Ġinter pret
Ġfe els
Y our
ĠPr ince
c it
Ġres c
k ing
Ġneg oti
ĠIll inois
'] );
Ġ" %
Ä ±
En v
ĠB and
ĠDes cription
ĠAt t
over view
ĠRec ord
Ġindic ate
C ur
for ward
Ġr ough
ĠSer ver
Pre vious
ad ed
Ġact ors
M ost
ĠOlymp ics
ĠT y
ĠAd am
C ONT
Ġprom ote
ĠR ight
ĠL abor
× ķ
Valid ator
H tml
v ard
ĠL td
d atabase
Ġass ets
Ġmain ly
: #
ĠOn line
AR N
ĠAl bert
mem ory
Ġcont rovers
Not Found
Ġaff ord
UN D
Ġbring ing
ord an
Ġdec ade
Ġa wards
Ġord ers
Ġv eter
ĠH om
Ã ±
Ġre action
ĠF urther
ĠPal est
/ {
f i
Ñ ĩ
or igin
b g
Ġwest ern
197 6
k t
Ġfr agment
197 5
Ġact ress
Ġcom edy
Ġdeliver ed
bl ack
Ġact s
Ġm ach
ĠD ist
Ġfam iliar
Ġp ed
B inding
Ġp owers
D id
Ġ ing
Ġcont est
Ġint elligence
ĠUn it
Ġtechn iques
lo om
Ġsk ip
br and
ĠA venue
Ġsy nt
ĠE th
Ass oci
Ġr atio
Ġt er
fe ction
Ġsp ending
Th row
Ġaccount s
ĠWh ere
C ity
exp and
e ah
c ircle
ud o
g g
Serial izer
Ġas pects
N ov
Ġfrequ ency
ĠCl oud
Ġresearch ers
a ired
J an
Ġhistor ic
Ġshoot ing
Ġte en
Ġunder st
: [
ĠK r
ĠE qu
ell s
Ġemb od
ĠS che
ĠC ost
ĠB E
Ð¾Ð ²
B IT
ĠEli zabeth
ĠStep hen
ĠC G
ap ore
Rem ote
g over
Ġw a
ĠĠĠĠĠĠĠĠĠĠĠĠĠĠĠĠĠĠĠĠĠĠĠĠĠĠĠĠĠĠĠĠ ĠĠĠĠĠĠĠĠĠĠĠĠĠĠĠ
Ġb aby
ĠD NA
raph ics
Ġex ports
Ġ" ",
) -
high light
ĠW IDTH
M R
ĠF eature
evelop er
Ġdo ctor
cf g
ĠB ol
ater n
Ġpl ane
w d
ĠRep resent
ĠSch olar
ĠSh ould
12 7
set up
ĠD igital
ĠW rite
ĠM ock
ĠTor onto
Ġsche duled
app oint
ag a
ay er
ĠC a
Set ting
l aw
sc ala
ST ATE
> "
197 7
vert ical
Ġin struction
H is
Ġb its
Ġh ide
ĠAb stract
or i
Ġsubstant ial
196 8
ĠS ym
Ù Ĩ
and y
Ġc ab
ĠC red
Ġcontrol led
j ack
Ġcor porate
ĠN iger
ĠCont ent
Ġun able
Ġcontrib ut
Ġm ess
lo op
ĠS em
Ġphot ograph
Ġfeat uring
ĠSc iences
ĠAn other
Ġpers ons
ext end
" },
Ġr at
Ġex ceed
N ational
ĠH un
UM M
Ġv ideos
Ġend ing
Ġpost s
: \
Ġdiscuss ed
ol is
Ġput ting
Ġm olec
Ġocc urs
as p
C B
Ġc lock
Ġtarget s
Ġserv es
Ġask ing
Ġthrow n
/ .
DE F
fe ed
ĠWAR RAN
ĠV ill
PH P
in er
ĠRem ove
c les
Ġwor se
sp acing
for Each
Ġdepend encies
an th
ĠWil son
m ir
not ations
Ġint ent
." ""
Ġhon est
Ġreport ing
197 4
Ï Ħ
Ġ' ./
b atch
LO W
em an
Ġproper ly
Ġindic ates
ĠPh oto
it i
Ġhe av
ĠS D
is ode
f mt
ĠL java
ĠL anguage
rypt ed
ĠDE FAULT
ĠL oad
Ġcre ates
Ġsub s
ĠPh ot
j u
sh ift
Ġinstit ution
L ike
G R
ĠY es
IN ST
method s
Ġp roud
Ġc raft
Ġben ch
Ġident ifier
Ġexist ence
L ight
ele m
Ġe q
uck s
ert y
ĠG reg
s heet
Ġcopy right
ĠEd itor
LE D
Ġplan et
ĠR yan
Ġengine ering
Ġev olution
197 3
Ġy es
Ġcontem porary
elli j
Ġconsist ent
ic ious
Ġrefer ences
min ent
pro gram
N UM
( /
Ġ ri
Ġsp in
LO C
re lation
C ursor
Ġconvers ation
L eg
um a
Ġg ene
âĢĻ ,
Ġtrans lation
depend ent
U K
k top
ĉ ĠĠ
Ġb odies
g if
Ġprim arily
Ġar bitr
ĠMed icine
u z
Ġse ed
d on
ĠCon nect
Ġar ts
pol y
erv es
Ġn ob
un a
S M
hav ior
ail ability
Ġperform ing
: @"
int ellij
um in
Ġt or
ester day
ar ry
ate st
S V
end a
Ġ' ',
O ct
ĠH ong
ĠDav is
m ega
Ġseek ing
inem a
j Query
Ġwor st
Ġext ent
Sign ature
f etch
Ġh its
ĠDe ad
Ġclos er
Str ategy
Ġm and
ivers ary
p son
> ;
M essages
ĠColumb ia
ĠTr ansport
Ġ} }
ĠC at
Ġrecomm ended
i our
Ġlabel s
ay a
Ġcop ies
ou red
D rop
Ġsuff icient
Ġcar bon
ĠArt icle
ĠN C
Map per
w br
T ube
, -
× Ļ
Com plete
Ġepis odes
Ġch apter
Ġm atters
ĠJew s
Ġb ass
W ill
ĠCoun try
Ġalong side
ĠHol lywood
O h
FI ELD
fortun ately
Ġf estival
Ch rist
olog ist
ĠV iet
Ex ample
Ġfor g
Ġdanger ous
Ġre form
197 1
Pro to
Ġd a
re pre
ang ers
A UT
Ġpr ime
arg uments
az e
Ġteach ers
ir ms
Ġlog ging
Ġd ry
ap ed
P resent
Ġent ertain
ĠPro duct
Ġa thlet
n ative
Ġb atch
ĠEngine ering
Ġd st
ĠBr ad
( .
b ose
= #
t wo
Ġqu iet
w orth
u ite
Ġwrit es
ĠA ud
ret ch
Ġprogram me
Render er
Pre v
Ġag ric
Ġher o
b lob
Ġder ived
r adio
Ġhundred s
comm ons
Ġachiev ed
Ġsurround ing
ĠS H
Ġsp oke
Test Case
Cond ition
F older
bserv able
Process or
Ġdec ide
Ġwel come
T ile
direct ory
ĠF uture
ĠA P
196 9
ab ric
St ud
Ġwid ely
Ġsch olar
Ġh abit
Ġsuggest s
19 40
ĠE ric
enn es
p res
Ġneighbor hood
Ġs ynchron
ĠB all
ĠAcc ount
Ġl osing
repre ne
; |
Ġw ins
ĠSt aff
Ġsub mit
ĠN FL
Ġsh aring
M aterial
St atic
or ry
Ġvict ims
th m
Ġind eed
ask a
net ic
Ġexpl ore
Ġpublic ation
b its
Ġcontrol s
Ġem it
ä ½
Ġs ql
Ġ' .
Ġde ploy
f g
pl oad
rupt ed
Ġw ave
sub section
Û Į
m id
ĠB ox
Ġs ync
ĠSt ock
Ġattempt s
p aper
ĠT ony
an z
ĠA D
Ġr ide
Ġk it
EN TRY
nes ota
Ġatt ached
Ġlisten ing
Ġhand ling
FF ER
Ù ħ
R ate
el lect
Ġw inter
ps ilon
Ġdestroy ed
Ġv acc
ip er
ĠT ra
/ ">
S I
tern oon
mat rix
Ġworld wide
F UN
dep recated
Ġfif th
Ġnear by
Ġbr ight
RA Y
put ation
Ġa id
Ġ' %
ch a
ĠHar ry
ass ign
ĠPub lish
Ġac quired
ĠMan ager
B atch
A bs
ic ol
p kg
pl an
ool s
ĠC OL
ph ony
Ġhum ans
w arn
Ġst yles
A ust
Err ors
Ġf ly
Ġtr ace
Ġb omb
ec k
ĠC ulture
LI ST
Ġocc asion
Ġparticip ants
Ġfund ament
Con sole
glyph icon
g ments
Â ©
Ġele v
and o
Ġdoll ars
Ġext end
Null able
to Be
Ġenc ounter
Ġ ">
Ġshe ll
Ġdis k
Ä ĩ
met ric
ĠV ari
Ġb ow
Ġpattern s
æ ķ
ĠMass achusetts
Ġsol o
clud es
t ilde
Ġent r
Ġag ents
Ġspe aking
Ex port
Ġacc used
Ġrestaur ant
i pl
t le
Ġre new
greg ation
ĠB efore
Ġch annels
Ġvot es
ann y
66 66
Ġwork er
d y
Ġprom pt
ile vel
Ġexerc ise
t f
Pl ace
ĠPub lished
Log in
Ġload ing
Tim er
Ġop position
Ġscen es
ag ues
can vas
Ġed it
Ġad j
Ġsign s
ic ian
Ġexplan ation
Ġsold iers
gener ate
Ġmer ge
ĠSim ple
Ġre venue
BU IL
ĠOff icial
Ġhealth y
ag ma
sc al
load ed
An other
Ġcamp us
ä º
ig ate
c assandra
Ġcon version
Ġat mosp
ĠD ark
D avid
ak i
C HECK
ĠP A
Ġcomm ands
quot e
F n
ĠAlex ander
19 30
C ALL
Ġadd s
B al
u ce
ĠN ations
ĠB al
ĠPl ace
W IN
ar on
Tim estamp
Ġtell ing
ag g
A nt
ĠCl inton
Ġemer gency
lo or
ĠPr int
v s
Ġm apping
ĠH a
Ġb inding
Ġreg ul
Ġk illing
k es
Ġal umni
Ġfor get
P Y
Ð ¿
B order
Ġs now
Ġp ra
OR K
ic ide
T Y
V AR
ok ens
Ġst ands
ĠSt ream
lic enses
y ard
Ġcomp re
oun ce
Ġt ough
s pe
app y
STAT US
Ġform ation
li bs
ut r
) [
Ġlet ters
Eng lish
op es
Ġmed al
P at
Ġt ail
ent ed
B L
p ages
ĠE ll
Ġult imately
u j
Ġcon ven
im ize
LE TE
AT CH
Ġtit les
riz ona
Ġ" .
Ġsh ips
ou ston
br id
T F
A SE
Ġab ort
Ġj s
se par
ĠC ru
Ġc ached
Ġcap able
ĠIs lands
th ur
ĠB rian
ĠL ow
Ġleg islation
b asic
Ġmod ify
ĠMin istry
Ġb ought
Ġag encies
Ins ert
ĠAl b
ip edia
Ġun iform
G ui
Ġsol ar
ĠK now
ĠConfig uration
Am ount
ĠI V
te ction
re pository
ĠAdministr ation
Bl ack
cons in
ĠV en
ĠGover nor
ĠE V
head ing
spec ific
HE AD
Ġappe al
;| &
con vert
pro of
tr im
Ġmov es
ir k
Add r
cd ot
Ġscient ists
ff ee
Comp at
Ġrecogn ition
Î ¹
ĠB ell
F N
Ġv o
Ġv el
Ġtechn ologies
ĠInst ead
Ġille gal
r g
Ġt ight
ĠB ru
ĠB Y
tim estamp
ile y
H L
Ġpay load
ug by
Ġs ocket
Ġleg end
ĠS ite
ĠF all
e en
por ter
Ġprep are
F P
Ġpath s
vari able
Ġleg isl
n ob
ĠB ush
196 7
u ction
amp ions
Ġour s
t ouch
ĠF ord
Ġmom ents
V ICE
ĠOut put
he im
ĠOx ford
ĠM arg
19 45
Over view
resp ons
a udio
T ra
ĠJ ean
oc cer
Ġbo ys
view port
Ġli e
ĠE s
ĠF ish
ĠMark et
sub ject
sq rt
BP ACK
D IS
C M
Ġyoung er
ĠRetriev ed
re le
Ġmount ain
w ill
Ġdepend ing
Ġm outh
F uture
ĠS ydney
Ġconf idence
qu id
Ġc overs
Perm ission
Group s
col lect
hold ers
ĠDis ney
Ġstat istics
cont ents
err ing
ĠC ond
ov al
u er
n n
t i
ĠR ose
ĠB log
Seg ment
ĠR a
Ġend point
se m
ĠS a
Ġbase ball
pl ot
per iment
ĠC ub
ong o
ibr aries
Ġpolitic ians
Ġap ilevel
Ġtim estamp
Ġn arrow
ich ael
ul s
St ar
ĠReg ion
out heast
Ġdisplay ed
Ġst ick
St andard
Ġstri ke
Us ers
ce st
Ġform al
Dep th
ĠSystem s
Ġthought s
ul pt
ach er
(" #
ĠTh rough
Ġr ural
Ġun c
C enter
CON FIG
.* ;
Ġl y
d iff
Ġrem ark
Cont ents
ĠBuild er
ĠB a
Ġvis ited
at ial
ship s
âĢ ī
Draw ing
includ ing
Ch ain
ĠĠĠĠĠĠĠĠĠĠĠĠĠĠĠĠĠĠĠĠĠĠĠĠĠĠĠĠĠĠĠĠ Ġ
Ġprogram ming
Ġexecut ed
on ia
Ġdeg rees
E ffect
aw ay
Ġc ro
ĠP ot
ĠTh read
act iv
F amily
Ġor ient
ĠColor ado
ĠL ady
Ġim pl
Ġdeb t
è ¯
Ġcal c
C r
Z one
Ġe ase
uss ian
ĠM iller
Ġnewsp aper
az a
alt Color
gh an
w ing
ow a
v an
ex tra
**** **
C aml
Ġprincip al
S em
Ġvul ner
Ġf ails
get Id
Fr ames
ĠN a
Ġcapt ured
L ibrary
Ġadult s
Ġl ots
load ing
po inter
ĠR os
Ġredu ction
Ac cept
Ġw rap
ĠF ac
Ġperform ances
ĠI R
ay ed
ĠD B
Ġt aught
ĠCont ext
ĠSt andard
Ġsu it
Met rics
eder ation
Ġ{ },
Ġse ctions
00 1
ĠV irtual
Ġh un
ynam ics
Ġexc ited
Ġt d
t aining
u uid
g ar
ant ed
Ġb at
Ġdescri bes
Ġf ol
Ġr id
Ġign ored
l u
Ġdr ivers
enc ode
o en
j ax
Ġab andon
Ġexpert s
Ġ ----------------------------------------------------------------
UMM ARY
ĠIN TO
Ġsubject s
c ers
Ġconstruct ed
Fail ure
Ġs in
ĠTher efore
Ed ge
âĢ¦ âĢ¦
ĠA k
ĠD am
li x
Ġtyp ical
d k
Ġv ary
Ġvalid ation
Ġcr ash
Ġcomplet ion
iv als
arch ive
R ows
ĠO s
ast s
Ġstre ets
Enc oding
Re quire
Ġaccom pl
ĠS i
Ġhor se
Not es
b c
ĠVictor ia
ĠHot el
z o
al ias
ĠH ay
Ġre pository
Ġvisit ors
Ob server
B ounds
List en
ĠFore ign
comp are
ĠDemocr ats
Ġcheck ed
Ġp ictures
ag an
ĠCo q
r ad
Ġs ad
Ġass ault
tain ment
ĠR ow
us al
Ġperson nel
Ġlist s
Ġvoc als
> ()
Ġassess ment
Ġh all
ĠD er
ĠMag azine
ud a
cl osure
ĠJ son
m obile
ĠD ream
sh are
Ġig et
Ġadopt ed
Ġlimit ations
Ġs quad
hens ive
H older
Ġw aste
ĠP romise
ĠLew is
Ġdec or
ĠTur key
Ġon going
V ID
du cer
_ )
fl at
Ġal pha
E val
Ġlog ic
Ġs elling
Group Name
ĠR ome
Ġwalk ing
Ġacc eler
Ġinvolv ing
ex pression
ier archy
Ġf aster
A I
Ġres istance
Cont ains
(" %
Ġp aint
el le
Ġest im
All oc
p ad
] ))
Ġrev olution
INS ERT
y ers
bind ing
ĠĠĠ Ċ
link s
se q
m ad
il k
U AL
refer red
ĠM ill
AC H
Ġpack et
Ġsh if
NO DE
Ġenjoy ed
Ġs oul
Dep recated
we ek
Un ited
ĠS C
Ġther apy
Ġbig ger
a ire
ĠR O
P ower
ĠEx pl
ĠS anta
ĠÐ ²
l ot
ĠAut o
ĠQu ery
Ġt ack
v ol
) ",
rt l
patch er
ph rase
ik a
ĠScott ish
Ġus ual
i est
Ġeduc ational
M aster
g on
Sh ared
ĠSar ah
p id
}} \
ing ham
un ct
ĠD elete
ap pro
ox y
Ġpercent age
Î µ
Ġtw enty
Ġpriv acy
valid ation
ĠPhil adelphia
Enc oded
Ġacc ord
Ġconsider ing
im m
Ġunder lying
Ġabsol utely
Ġop posite
B ottom
Ġsubsequ ent
Ġinput s
19 20
b us
O ld
eg as
Ġtro ops
end ment
Ġlim its
Mon th
ĠPort ug
ĠD u
ĠAdd ress
f re
Option al
Pl an
Ġliter al
re po
ĠVAL IGN
u able
nt ario
Ġdis miss
19 64
Ġposs ibility
r pc
ĠK evin
Ġc ards
Ġret ire
g z
Ġy ards
A pr
Ġaf ternoon
ĠMay be
Ġdet ection
c ountry
Ġpre gn
Ġv ast
g re
ether lands
Ġfrequ ently
ĠJ enn
sk y
Ġcomput e
ĠH al
Ear ly
z ero
Ġmiss ed
Ġproced ure
ĠR eb
ĠR oss
Ġg od
ĠD ouble
Ġ$ _
plic ated
Ġ{ %
Î ½
p in
Sp an
Ġwonder ful
And roid
ĉĉĉĉ ĉĉĉĉĉĉ
ri ends
Ġsurpr ise
Ġcircum stances
quis ition
Ġarr ang
} ).
om atic
Ġop acity
Ġcommit ment
P red
s ig
Ġd rawn
el d
ro it
Ġb old
< <
ĠD utch
AT TR
se ason
Ġ& #
Ġfound er
Ġf older
ap ple
Ġa ria
ret t
Ġsm ooth
st age
Ġv ess
h u
Ġh ate
Ġfor th
S W
O k
ĠĠĠĠĠĠĠĠĠĠ Ċ
EN V
Ġcollabor ation
ĠG allery
ownt own
In ternational
Ġrun time
ĠL es
= %
t re
Ġpl enty
G A
ĠOff icer
Ġex posed
Ġext ensive
Array List
/* !
rem ote
Ġimp ossible
Ġp ipeline
ĠWhe ther
Ġclos ely
bour ne
> '
ff f
du ced
AT OR
Ġb anks
link ed
T AG
ĠBuild ing
Ġf asc
n eg
M s
Ġincre ases
Ġg ap
Re al
em ony
grad le
Ġmod al
ĠSt ore
Ġconver ted
Table Row
Ġcook ies
i ac
3 60
d ays
R UN
pos ing
ĠUs ing
ĠC OM
Ġf aces
rel ative
Ġfac ing
B i
ĠC SS
E Y
S ite
ĠAr m
Ġmill ions
Ġ` ``
Un iversity
Ġpe er
aud i
Dr ag
WE BPACK
Ġsem i
grad ient
w allet
Pro f
ang el
Ġpro posal
Ð ·
Ġmechan ism
es is
Ġsit ting
> %
b ell
ĠGold en
Arg uments
wik i
S plit
196 5
ĠN eed
ri ble
ĠPol and
Down load
reg on
arr ing
Ġturn ing
Ġne ither
ĠS UMMARY
A ug
column s
do or
it als
T L
part y
n ab
Ġref uge
Decl aration
Ġincreasing ly
Ġmag ic
Ġclass Name
Ġrespons es
Ġpolitic ian
UR CE
Ġeffect ively
om ent
Name Link
Ġsil ver
ĠIslam ic
ĠSing apore
Ġal cohol
ĠTr ail
S outh
He alth
%%%% %%%%
r ame
Rev iew
au x
: '
Ġassist ant
Ġret ired
ĠD OM
b d
Ġl at
ur able
ars ing
com pute
Error f
>( <
Column s
Ġcomb at
it is
Ġth ick
Ġgood s
ell ite
ĠBer lin
ĠT ax
T w
0000 00
unn el
chestr a
We ight
IC ATION
rit ical
ar ity
ag en
ĠH o
Ġsuff ered
re peat
ĠH ind
Ġexpos ure
Ġas pect
Ġst one
Ġse ats
ord on
ĠCl in
LIC ENSE
Ġst ood
RE SS
Ġbro ke
str ings
ĠQ uest
ĠB udd
ob by
Ġtest ed
C md
ĠIm m
Pack et
ag ic
Ġcol span
Ġev il
Miss ing
ĠS end
Ġreg istration
ĠM ir
B ad
å ¤
Ġdis able
Ġorgan ized
C are
ĠN az
Or iginal
L icense
Ġrep ly
ĠCre ates
g ood
P OS
ĠST ART
Ġd ates
Ġass istance
Ġexhib ition
Ġclub s
Ġim g
MA P
DE X
ĠAff airs
Ġdiv ided
H ave
ĠAg ency
ock s
Ġemot ional
Ġapparent ly
pro fit
ĠL at
Ġp it
tr ansport
UN T
- (
ĠN AS
Ġover flow
ĠPro p
um ps
Ġterm inal
SP AN
h ave
cept or
int eger
Al so
Ġdes ired
ĠRev olution
IMP ORTED
re ll
Ġm aps
Ä į
Ġincor por
Ġen emy
ĠMin nesota
ĠCont in
Ġaff ili
19 66
raz y
B ased
Ġsupp lied
Ġsym pt
Ġsent ence
log ging
eps ilon
( ['
Ġm ob
ĠChe m
E st
ĠS ab
Ġexc iting
In ner
BU FFER
Ġadvert ising
t ile
C ancel
Ġ< -
ĠN ative
ĠAnt on
Ġpresident ial
Ġwe ar
ĠFore st
class Name
ĠD or
Ġoper ate
__ _
Ġtr ouble
Ġre covery
Con vert
Ġre verse
Ġimmedi ate
is or
Ġd ress
Ġap ps
Ġv irt
ĠClass es
Ġse es
ĠSk y
M usic
ĠC hen
Av ailable
Ġto k
ch art
Ġsup erv
ĠB at
ip h
Ġinitial ize
Ġbeliev es
ĠS ant
Ġterr itory
(' <
const ant
and al
res ize
ĠHe art
nt il
( ()
ĠBr idge
v are
ug ar
Ġpre ced
Con straint
Ġc ategories
semb le
V irtual
Ġexp ensive
ele ments
the w
om y
S epar
Ġshe et
ĠM oon
et ary
Ġ ^
ĠR oll
Ġofficial ly
æ ĺ
Ġtyp edef
Ġno ise
P romise
Ġtem porary
Ġgrow n
Ġexpl ains
Ġcon vent
UB LIC
ĠUR I
St ub
Ġconsum ers
G ood
C ounter
Run ner
AV E
Ġm ine
port ion
sol r
ad oc
Ex pected
ĠEx ample
Ġpotential ly
ĠTh ose
Do ctrine
Ġfind ings
E P
ĠG ro
ĠS ound
G IN
Ġs av
ograp her
S witch
Ġcan cell
Ġvot ers
el astic
m ms
ĠT ree
ĠA C
Ġinter action
Point s
create Element
Re act
ĠC ab
LA Y
K it
Ġinter val
ĠP sych
Ġcomp osed
d ark
Ġa st
String Builder
Res et
ib ilities
B rit
Ġdis appe
Ġman ifest
h us
TI ES
ĉ čĊ
Ġd iverse
i Ã³n
ĠDes pite
Ġide al
ore t
Ġfact s
Ġw er
Support ed
Ġw ine
s un
Ġplace holder
CO M
ac on
ĠMod ern
Con verter
[ \
in x
Ġle ct
d imension
ast y
Ù Ī
U CT
ĠReg ional
Ġm it
ĠK ansas
ĠPy thon
get Instance
ĠG ree
Ġoper ated
ĠMount ain
T ex
Ġl ic
ĠChampionship s
s ass
ĠS P
10 2
at ri
Ġan gle
Ġv ice
Al though
ĠT er
Ġf etch
ĠKore an
pect or
Ġinvest ors
I ME
Ġhappen ing
all as
è ¿
Ġp ref
place ment
Ġcontrib ution
ri ent
Ġappro val
Be en
cl ing
Ġf at
Ex ists
Ġso le
Ġpresent ation
C ent
Ġpar allel
Ġindic ated
Ġemploy ment
Ġal ive
ge o
ĠAuthor ity
as hes
ul ating
Ġgover ning
Ġmonitor ing
uplic ate
B ER
L IN
ul ous
Ġvict im
H er
l int
Ġair port
Ġp in
Ã º
Ġs af
ĠA mb
Ġdi am
aa aa
B ool
Ġhost ed
ĠSim on
R andom
Ġcommon ly
Ġentertain ment
h ot
Ġcol ors
ĠC orn
Ġs pl
Ġhas n
ĠHand le
Ign ore
rem arks
Ġfl u
ĠWARRAN TIES
ession al
Ġ Ñģ
Ġd eleted
ĠK at
T ouch
ro ck
Ġb es
S ame
ar se
Ġs weet
sw ing
W arn
M ust
Ġprop ag
c ursor
__ )
Ġm ail
P ress
se lection
ateg or
h our
Ġprov ision
Ġc lip
ĠS quare
C oin
Ġm ile
F eed
Ġs izes
Ġf ired
Ġdefe ated
Ġcol le
ĠIsrael i
A SSERT
Man agement
Ġ-- ></
n ie
Ġre con
ades h
Ġt um
ĠOper ation
ĠT am
Ġr ig
Ġch ampion
ub ble
Ġw idget
Ġplatform s
×ķ ×
Com mit
Ġpick ed
onom y
ĠVAL UES
Ġimp lied
Ġfew er
Ġaut hent
Å Ĥ
Ġint ention
ust ers
over ty
ĠMem orial
Ġc riteria
I ss
ĠAtl antic
Ġprefer red
Ġbeaut y
ex ecut
Cre ated
Ġgener ic
Ġpul led
ĠR oute
Wh o
Ġb ands
Ġ| =
ĠB uffer
Ġdis appoint
sh a
per ial
Ġpart ition
ĠPr ivate
tool tip
Dec imal
em ic
HO ME
ĠB C
er red
ac er
annot ations
Ġrep orter
Ġsomew hat
Ġresult ed
ĠRes ources
wh o
ĠRefer ence
ĠI mp
ĠYou Tube
Ġfac ilit
Ġdo ct
Ġtr ained
Ġfootball ers
ĠA rizona
ĠC reek
Ġfr anch
OP T
Ġrail way
Â ®
F ixed
Ġdist ingu
A xis
ane ous
Ġput s
Us ing
Ġparticip ate
m apping
Ġm ath
ĠSy ria
ellect ual
Ġst able
Ġp ending
Ġintrodu ction
ren ce
ĠB urn
Ġa x
Ġb one
ĠL ev
be ans
h istory
Lo op
ĠJ am
ĠL em
Ġb in
Ġb id
cre t
"/ ></
Ġan chor
Ġte ch
p icture
ĠM D
ĠFin ancial
ĠLab our
Aut hentication
Ser ies
ĠWis consin
oc om
LE MENT
A X
ĠN etherlands
Ġ uri
Ġfeed back
Ġin herit
Ġexpl os
Ġmeas ured
Ġass et
P ut
M illis
ĠG il
un lock
ry ing
f ake
ak h
or se
CO MM
Ġth reshold
ĠT al
1 12
Output Stream
Ġw alls
RA ME
Ġimm igr
ax y
v ing
Ñ ĸ
Ġdes ire
ĠU P
Po jo
j et
Ġcol our
Ġaccur ate
ĠCam bridge
F OR
edd ed
r f
cont act
Ġemploy ee
Ġprov ed
Ġtable s
Ġ" '
ĠJ ane
qu arters
Ġreject ed
an im
ĠBel g
Ġlands cape
ĠC as
Ġm m
gener ator
des ign
Ġcommun ications
Ġreg ulations
ĠOlymp ic
Ġcontrib utions
Ġtot ally
Execut or
ĠFr ont
Ver ify
ele d
RE CT
not es
google apis
ir ty
ĠSen ior
Ġtrad ing
n ed
l ab
ud es
F oot
t ensor
anch or
Ġal leg
Ġsk y
ĠER R
rou ter
ĠS av
U pload
En able
arg o
Ðµ ÑĢ
Ġaccom mod
end o
Ø ¯
ĠDo es
p ur
Ġd elegate
} ",
F ALSE
c ounter
Ġhead s
Ġca using
Ġd uty
ĠEnter tainment
ĠBy te
Ã© s
m k
Ġmusic ians
ĠJac ob
ĠM rs
pl ays
d am
igh th
Ġw ond
ĠAf ghan
ĠH ouston
top ic
Ġtext ure
Ġinst ant
Ð° ÑĤ
u h
ĠCap ital
us r
Ġg iant
incip al
sd k
ĠP it
J uly
Ġprov ince
Ġcomp iler
Ġleg acy
G EN
ver ify
Ġcomp atible
Ġin ject
Ġsett lement
Ġshe l
c ity
Ġimag ine
Ġh ook
Local e
Ġ Å
p rom
ac o
Ġdes criptor
iz z
Ġb ond
= [
C ulture
Ġp arsed
Ġdocument ary
itor ies
ixt ures
Ge ometry
å Ĭ
Ġw indows
Ġb att
enc oding
ic ians
ĠPri ze
ĠĠĠĠĠĠĠĠĠĠĠĠĠĠĠĠĠĠĠĠĠĠĠĠĠĠĠĠĠĠĠĠ ĠĠĠĠĠ
Ġin structions
ac ent
work s
N orth
G amma
Ġin tern
S elf
ĠJ ordan
col n
ĠD est
Ġs oci
ur is
ĠT ai
st rip
Ġeast ern
Ġsever e
c u
ĠT ake
il ty
Ġg oto
> \
or er
Ġcorrect ly
u et
c ancel
Ġs ought
Ġw x
m ount
th rough
" ];
ĠInd ones
ĠPar se
CRE ATE
ble m
Ġpurch ased
ĠMan chester
d anger
Ġreplace ment
ĠR aj
ĠHistor ic
Ġc os
ĠCon stitution
Ġcl one
Ġmanufact uring
Ġbo at
196 2
Ġg ay
sequ ence
i ot
ĠW ord
ĠL ang
re nt
ivers ities
Ġuser name
Ġop posed
ut ies
ĠMar c
m its
ol ly
Ġt icket
Ġperman ent
Ġeng aged
Ġcheck s
"> (
ĠSt and
Ġup coming
n os
Ġ' ''
ial s
ĠLe on
Ġth erm
P al
14 0
m ac
Ġnot ification
Ġqual ified
Ġdraw ing
Ġrisk s
Ġclass ical
Ġsub scri
r ink
QUE ST
ĠAnd erson
Ġaccess ible
Ġgover nor
Ġbe ar
196 3
act ual
ene z
IL ITY
p b
Ġir on
mult i
Ġrepresent ative
RES ULT
Us es
Ġc ensus
Ġy ellow
Ġst im
ig ious
HO UT
al g
ash board
Ġmod ules
Ġsc ores
I ES
ens ation
ens ure
Ġassert True
A K
ct ree
Ġb ott
Ġman ip
Ġdi pl
cre ens
Ġs ight
l as
Ġro y
ert o
ĠL ind
ist a
ĠV ice
ĉĉ ĠĠĠ
D irection
Ġ' _
Ġy esterday
ennes see
Ġm g
Ġvot ed
Ġinnov ation
Ġdis covery
form ed
ĠA h
Ġout er
i ated
f older
egr ation
Ġinv ited
Ġstrateg ies
Ġattor ney
Ġfac ulty
ch unk
Ġc ertificate
ch ant
ĠSer ial
ĠT ok
>< !--
F eb
Ch anges
ĠT rib
L ambda
Ġstrong ly
d jango
b inary
Ġsub mitted
OL D
File Name
Ġphen omen
AS H
ĠI ter
Ġdefe at
ĠS pr
ID E
ĠN ever
UR N
ĠUkr aine
Ġconstit ution
Ġtop ics
B its
mit ter
çĶ ¨
eg raphics
ĠO K
ust ed
Ġbreak ing
includ egraphics
Ġg ained
ĠGr ant
ĠCom ment
Ġowners hip
Ġbre ath
jav ax
ĠCom ple
Ġtrans mission
ĠHol y
ĠS uch
Ġb are
ĠC ook
G C
Ġin hib
ĠC lear
st ers
ĠMi ami
Ġent itled
Ġpay ing
ĠN orm
R T
Ġintegr ation
ound ed
an while
D TD
B ro
ĠRun time
Ġpass es
od o
B ec
em pl
Ġroom s
Ġeff iciency
pro duction
ĠArg ent
Re ason
Ġstrugg le
om m
ĠH ave
ĠM oh
TableRow Color
stit uency
Ġpro minent
Task s
ĠMethod s
Ġmed icine
Ġrout es
ĠPhilipp ines
Ġdisc rim
================================ ================================
ĠK EY
ab il
Ġdat aset
pre vious
sc ore
s peed
not ify
XX XX
out ube
ĠSt one
pr agma
Ġpain ting
og ram
W in
h al
Ġn a
Ġr aces
ĠMem bers
ab c
10 24
ĠL evel
second ary
ĠDi ego
ru les
Ġv m
Line ar
J une
ĠR oy
P si
BO OL
ol itan
lin ux
ĠB reak
ĠW inter
ĠPat rick
h pp
iz ers
Ġdet ected
Ġwhe el
p al
m iddle
l ive
Sec ret
ĠSt adium
se a
our i
ure au
Ġsu itable
Ġor ig
Ġbound ary
Ġpl ate
Ġcho ices
Ġrece iver
Ġcontin uing
ov en
Ġgr ade
ĠSm all
Ġdevelop ers
Ġfac ed
Ġhy per
Ġs event
D en
ĠI L
ant e
el led
rop ical
fl u
d ers
Ï ĥ
Ġenh ance
Ġout come
ĠK elly
igen ous
Ġf lood
ĠC ancer
Ġmeet ings
Serv let
t ail
def inition
ur ches
f p
get Message
Ġbus y
st e
ement ia
ĠĠĠĠĠĠĠĠĠĠĠĠĠĠĠĠĠĠĠĠĠĠĠĠĠĠĠĠĠĠĠĠ ĠĠ
ĠO ntario
Ġpil ot
Ġlaw yer
} _{\
Ġlo an
ĠH art
m ont
ĠO regon
ĠT reat
Ġund ert
Ġfound ation
11 1
Ġf unny
v endor
Ġper mit
Ġexpl o
get Class
Ġag gress
ĠLog ger
Ġeval uation
m akers
enn a
Ġ( %
ryst al
R ot
Ġref used
ib li
B reak
ĠM it
ĠW HERE
Ġmult ip
ĠC irc
Ġacc um
ĠS in
Ġal ias
Ġprovid ers
Ġpract ical
Ġnecess arily
an ches
ĠD id
Ġfl ash
Ġadministr ative
ĠA rr
L ife
im p
get Type
Ġsim pl
A ctions
Ġs ed
ri ers
10 4
Ġ- =
m aker
ort s
Ï ģ
ĠD VD
Ġf s
Con s
get String
un ning
Ġto m
Ġne uro
ĠEd ition
Ġmain tenance
Ġf old
off s
Ġwin ners
O mega
S U
O wner
â Ĩ
Ġen forcement
10 5
j an
T y
ĠTr ack
Ġpack ages
Ġany where
am ar
ol t
Ġo x
TO M
(" \
Ġe c
ick y
Ġtrans formation
on na
w r
Ġp up
ĠCl ark
Ġclos ing
ind ent
Ġco ffee
o a
ĠTr ade
Ġserious ly
ĠÐ ½
Sh ader
################ ################
Ġexperiment al
ĠN ation
ĠSc ient
m aking
Ġestablish ments
Ġre ar
Ġb on
ĠAt tor
Ġk il
Work er
IE W
ĠF C
-------- --
TH ER
M ac
S pe
ĠE ffect
ur ers
Ġb ug
ĠE ver
inc iple
w ich
ĠJ ay
re ce
el and
Ġstrateg ic
Ġprodu cing
B et
includ es
TR AN
Ġex clusive
ĠIn v
= $
ĠJ ason
ops is
Ġinj ured
9 00
Ġr ating
Ġoper ators
PRO C
Part ition
ut ter
ĠCon vert
Ġhe ll
Ġappro aches
Ġc b
Ġtransfer red
Ġprincip les
all enge
Ġjoin ing
Ġmy th
con current
M AN
() ">
Ġn ations
IN VALID
pub lish
f b
Ġindic ating
cre ment
< >();
viron ments
ĠMal ays
m ay
Col lect
UC CESS
Ġmod er
ze ch
Ġconfig ured
Br idge
ĠIndian a
Ġpe ak
em ph
ĠF arm
Ġproced ures
lo be
t v
Ġtechn ique
re ement
ition ally
ĠSt ill
Ġbe er
h ill
Id x
ĠP O
Ex tra
part s
ar ance
omet imes
E ven
Ġsurg ery
ĠH ung
ĠTur k
Ġ( @
Sup er
Ġw ing
tim eline
ĠL ater
Ġcharacter istics
1 16
ec lipse
Ġd ies
Ġours elves
IM IT
Ġhard ware
Ġ' @
Ġprint f
Ġâ Ĩ
Ġtri es
ĠIm ages
Ġste el
w as
te am
ens itive
He ad
id ae
Ġpri est
Load ing
pr iv
h om
! </
ys ical
ĠIn f
ĠC ell
ĠO cean
Ġint eg
BA SE
Ġun us
ĠR oom
Ġd ire
Ġst ake
196 1
ĠT OP
ort heast
D ynamic
cl s
ĠF le
Ġintegr ated
Ġrepe at
Ġwat ched
T HE
stats models
Ġwe aring
ĠG a
st an
Pr imary
Q uest
Å į
Ġabs or
Ġsl ot
C ertificate
Ġst ages
ah oma
Up dated
ĠAn alysis
Ġreason able
Ġro se
Ġ å
ad r
ĠM ust
æķ °
T oday
ĠT err
Ġiter ator
ĠAnth ony
Ġgo ogle
B M
Ġimpress ive
Ġp airs
el son
Ġsepar ated
F urther
Ġsp okes
Ġbl ank
b ench
% "><
dat etime
ol id
Res p
cuss ion
ific ial
R ules
ĠSwed en
ĠB ry
ĠW as
in ian
Ġsurpr ising
Ġfunction al
ĠEconom ic
en z
Ġfant asy
ious ly
Ġext reme
Ext ensions
Ġsubsequ ently
ĠM obile
ĠL iter
ur ric
Ã© e
in cess
ser ies
stand ard
ain ers
C amera
ĠK a
ĠD ave
Ġt act
Ġ# {
b urn
External Task
ĠHarr is
el i
ĠCol umn
Ġsc ulpt
Or gan
Menu Item
pro f
19 44
Ġcompet itive
t m
SS ION
Ġcarry ing
Ġes cap
ĠStud y
G P
We ek
Ġest imate
man agement
Cont in
s ure
av is
^ *
S napshot
ĠS ix
ĠTe ch
ph ere
Ġv ocal
Ġany way
ĠF A
ĠH an
ĠJ S
ĠP rom
Ġro of
Ġpoint ed
end ers
Ġn ic
Ġoff ices
Ġdr iven
Z ero
Ġr ub
RE T
ĠProv ince
Ġ' #
ĠS n
re ason
Ġbeh alf
Ġf lying
P ane
ign ore
Ġ' "
Ġcirc uit
ExternalTask Pojo
i y
ĠF ALSE
in ant
s z
v ia
ĠEx press
ru ction
Ġfundament al
Ġg ro
... )
Ġcell padding
Ġinj uries
th umb
to ctree
ist ical
am ount
æ Ī
op am
Ġex cess
qu es
EN ABLE
Ġg lob
ĠMov ie
mem bers
LO AD
Ġsc al
ĠY et
h d
ĠAct ive
Ġcl s
ĠL A
ĠS ingle
b uilt
t l
Ġh at
Ġv on
l ower
jack son
ĠT arget
f av
ĠO Caml
è ®
Ġcon straints
ear ing
ĠÂ §
ampl ing
s ym
c up
ĠMo ore
sc r
Ġfriend ly
ĠCapt ain
Ġpl ain
Ġem p
M achine
ĠSt op
qu ency
] +
ĠPr ivacy
ĠEv ents
Ġb attery
Ġmembers hip
Ġh ack
refer ences
DE D
\ /
ĠCom ments
Ġcontrib uted
L ive
amazon aws
Ġkn ock
pl ain
ph oton
Ġc m
ĠAll en
ul p
Ġcour ses
w ick
ĠS V
ĠD uke
Ġdisc ipl
Ġp atch
ĠEx p
Ġheav ily
Ġch ose
} "/>
d irection
Per iod
Ġcirc le
ĠG h
in th
Ġobvious ly
Sup press
ĠPart ners
S an
Ġph arm
vare psilon
Ġbo ot
Match er
C odec
Ġc atalog
Â Ģ
fin ite
al so
Ġsub scription
Di agnostics
ĠB alt
S pecial
Ġf ault
F ire
__ ,
ĠP u
not ification
sp ir
ĠT alk
} '
Ġacknow led
Ġd iversity
Ġinter pre
ĠHam ilton
ĠCom ponent
AR RAY
195 9
Ġvir us
Ġen umer
ĠR elease
ĠK it
Ġgrad uate
Ġtem ple
ĠG ard
Ġemploy ed
A SS
Ġcon tribute
Ġcell spacing
ĠP ier
ĠArg ument
Ġg arden
Ġregular ly
Ġred irect
Ġencour age
) $.
ich ol
Ġspirit ual
Ġkeep s
ĠGener ated
Ġroad s
Named Cell
dec ode
Ġh ole
Ġinstall ation
is ations
Ġre in
Ġthe atre
ĠM s
are st
Ġsign ing
Ġt ou
ik es
Ġbe ach
Ġpark ing
M arch
Ġcompre hensive
f lix
Ġunderst ood
ÂĢ Â
ĠB ible
ĠO ak
V O
ĠBO OST
ations hip
Ġlog in
Ġgr ab
x ic
Ġpar a
Ġfall ing
ĠB or
[ <
Ġsc oring
con nected
O FF
st ory
no frame
Ġant ib
Mon itor
Ġconsum ption
l on
lik ely
×Ļ ×
Ġb ucket
ĠSe attle
Ġsing les
w t
ĠT ABLE
Ġad mitted
40 4
Ġhost s
Ġl aid
Or igin
em bed
de ep
Ġt ensor
Ġmor al
P ush
Ġg ift
ab ama
ĠSil ver
osc ow
Ġhol iday
Ġinnov ative
> {
v als
et ies
pe ction
An alysis
ur ities
Ġhop es
Ġlik ed
ig e
Feature s
P aul
Ġb acter
Ġr acing
ĠTh ank
ph y
Ġaware ness
D iff
ĠMar ia
} ]
Ġt ar
ĉĉĉĉ Ċ
Ġg al
Ġreal ize
== =
on ical
fr agment
R ich
Ġshould n
LE S
Ġin vention
ĠJ osh
Ġguest s
M ichael
10 3
ex amples
z ed
ĠPr act
Ġr ising
iv a
Ġs ick
R a
Ġadd r
Ġt ickets
ĠMA X
ĠR ule
p oll
IL L
wh at
Ġpro hib
g ence
gorith ms
z h
ĠP od
ĠL as
W rap
Ġ" ${
rodu ction
Ġcover ing
d ocker
Ch unk
Ġref ers
Filter Database
Ġcalcul ated
] ->
v et
nob r
od a
. }
ĠWIT HOUT
Mut able
M IT
ĠIn valid
Ġb ounds
Ġfe es
aw are
U nd
up id
ĠR ad
ĠN ull
ĠCast le
ack et
ab b
Ġbehav iour
ick ing
roll ers
Ġvot ing
Ġhor ror
Ġassum ed
ĠDet roit
Ġl ap
M c
Ġ' -
Ġprof it
Ġpar liament
ĠN um
ĠD og
Ġpres ents
à¤ ¾
L com
Ġreli ef
Ġatmosp here
ĠMot or
In struction
Ġelect ron
ĠL E
Ġvert ex
Ġlay ers
ĠGree ce
ig ator
ut her
list ener
Ġm ac
": "
ĠViet nam
ag u
Ex ecute
h base
ĠC art
ĠSe ver
ĠF O
Ġb le
Ġnarr ative
Ġfall s
Ã ¸
Ġbr illi
Aust ral
Ġant icip
SO URCE
contin ue
Ġobject ive
Ġto ler
il st
Ġslow ly
Ġg ang
en umer
ĠTr aining
Ġgovern ments
olog ists
add ed
at ile
ch at
PRO P
set ting
AP P
A MP
Ġcer emony
od ge
ĠN ob
Ġimprov ement
app a
55 5
Ġsurpr ised
19 39
Pr ice
C ould
Ġmain tained
âĢ¦ .
Ġdecl are
n c
inter val
Ġsympt oms
o or
Det ector
Ġrele ases
ĠQue ens
E urope
Run ning
ĠC op
ĠIm mutable
Ġis instance
Part icip
qu iring
Ġjournal ist
r uct
ĠAd vent
> ${
roll ing
Des ign
ĠYear s
Ġsw im
Tr igger
Ġregard less
b ug
Ġbro thers
ipp i
B uf
ĠIn ternal
ĠPrem ier
Ø ª
ĠRail way
ĠDef ense
AR B
Ġdel ta
med ium
Ã ¥
be at
Ġel ig
Ġann iversary
Ð¾Ð »
olv ing
os er
Ġh urt
fr ames
Ġpriv ile
E nt
Sh arp
ter y
value Of
, âĢĻ
ĠK han
es a
ĠB arn
M ount
bo ss
Ã¡ n
ĠPolit ics
f ish
itect ure
ĠH old
Ġp iano
c urrency
eth yl
re ts
it ure
ĠU til
Ġdeal ing
olv es
Ġcom ic
Track er
Ġthous and
Ġeng age
ĠĠĠĠĠĠĠĠĠĠĠĠĠĠĠĠ ĠĠĠĠĊ
Ġcan vas
S ources
Ġ( +
S G
ĠĠĠĠĠĠĠĠĠĠĠĠĠĠĠĠĠĠĠĠĠĠĠĠĠĠĠĠĠĠĠĠ ĠĠĠĠ
/ )
Ġwat ers
19 48
d st
Ġattempt ed
Ġs a
ĠIt em
D ITION
Ġsur ve
ĠM ilitary
ĠL I
(' ./
Ð ¹
Ġamount s
Ġ======= =
ĠKe ep
Ġcontin uous
av ers
g p
end point
Ġansw ers
ĠE uro
195 6
te le
local host
at ibility
Ġmet ric
N P
P REF
ĠCred it
Ġun iverse
Ġnorm ally
W I
ĠR ound
late st
ĠH u
oen ix
OT TOM
iffer ent
195 8
Ġconsequ ences
Ġre ward
unk nown
Ġattr s
An im
she ll
v y
amp s
tim er
Ġiniti ative
b et
Ġent reprene
Ġs essions
ĉĉĉĉĉĉĉĉ ĉĉĉ
d n
ĠDo ctor
Ġ Ø§
SP ACE
ĠS ex
Ġpay ments
ĠGir l
ĠU l
Ġf olk
ĠH ig
eq n
Form atter
w alk
ĠH ost
des criptor
wit zer
ams ung
Ġdise ases
Apr il
Ġinform ed
Ġcol lections
Ġp apers
P riority
ĠEar ly
run ner
ĠHow ard
iz ard
Ġop ens
put ed
Ġtransport ation
Ġstr ange
Control s
ache lor
ĠTh ings
Ġv it
Ġman agers
ĠT ennessee
Ġfair ly
ugg ing
Ġt iny
ĠCh ap
Ph il
ĠP a
Ġocc as
Ġcon j
Ġpl astic
Ġparticip ation
Ġwalk ed
he el
Ġco ins
') ->
Ġfra ud
ĠN ic
ick en
Ġlik es
Ġtax es
ĠP resent
C LA
Ġman aging
ge q
ĠLin coln
ĠB asic
../../ ../
ĠE P
ĠD ictionary
F ixture
F ac
in ch
ur se
Ġrecogn ize
graph ics
ĠO P
Ġh int
Ġt ank
Ġrot ate
Ġarbitr ary
P ixel
FLA G
Ġtown s
it ivity
19 42
Ġin herited
ĠUn less
M al
add Class
Ġli quid
Del ay
ous el
pag ination
feature s
=" {{
ul um
Ġb ag
S UB
In f
E p
Ġapp lies
ADD ING
Ġun expected
sub Nav
Ġknow ing
Ġf urn
N ONE
Ġk w
ub ern
sk i
ĠPe ace
Ġreg ime
T uple
max cdn
ĠV egas
le ton
ĠM atch
gu ide
? )
Ġr ational
3 50
D an
Ġre act
ĠTr avel
Ġrank ed
` )
Ġgu ilty
b ow
r ank
Enumer able
Ġstr uck
Ġgen re
s uch
W illi
ĠK IND
tool bar
195 7
ĠA ws
ĠHaw ai
ĠL icensed
ge bra
**************************************************************** ********
SP AC
me an
fl ush
Ġsh adow
Ġsk ill
Ġqu eries
Int ent
ĠHash Map
Ġpoet ry
pi pe
Ġtem por
ĠWh it
db c
Trans ition
Ġgen etic
Ġmark s
bo y
Ġchair man
C annot
ĠO pt
TER N
+ "
dis patch
ĠPH P
Ġsc an
ĠD un
Ch o
View Controller
ĠG arden
Ġunc ertain
witzer land
p od
Ġreal ized
Ġhealth care
itar ian
Ã «
cer ning
Ġkind s
Ġn s
) =
fr ag
Ġstreng then
ĠAr thur
ĠFig ure
Ġat trib
enez uel
I p
Ġcour ts
Ġsing ing
ĠS audi
Ġprofession als
f red
Ġvis iting
Ġh ockey
pop up
Ġf ruit
ĠT ry
Str ip
tes y
Ġphilosoph y
LA B
Ġcap abilities
local e
Ġeth nic
ct ic
ĠD ick
mat ches
ĠE mer
N ON
B el
Ġqu ote
Ġemb r
Ġsuff ering
ĠN othing
ĠI F
ĠM organ
W r
Hash Map
B N
Data Type
Dis k
Ġbas ically
l ad
gl as
Ġout standing
ĠAttor ney
Ġ" );
Ġd ictionary
Ġchild hood
L D
Ġvers us
ĠTh ird
set Text
N eed
sur face
Vis ual
> `
om as
Ġsudden ly
ĠG ordon
Mod ified
19 43
Ġtok ens
ĠP layer
per or
m ys
ĠEx change
Ali as
ind ed
Ġstri p
Ġfranch ise
50 9
Ġfin ance
Ġcon crete
10 6
function s
Ġoff ensive
B ucket
. ',
Ġve get
Ġhel per
Ġent hus
ĠM IT
19 41
ou st
u ating
T ax
pack ages
Ġsol ve
x it
Ġle s
Ġreach ing
an alysis
Trans lation
Ġag ed
bold symbol
ĠD atabase
g lob
ĠM E
pre c
Ġsign als
Ġhead ed
Ġcoll apse
RO W
H ello
}, \
Ġw arr
L ang
Ġar med
ĠM as
Mod ifier
ex cept
Ġcon clusion
Ġsit uations
aw esome
Ġequ ation
S en
ĠChrist ians
ĠB AS
ĠP ear
Ġinter ior
project s
H C
è ¡
Ġsupport ers
ĠNS String
ĠO ptions
ĠMary land
ĠIllegal ArgumentException
Part y
list en
Ġp ushed
Ġthink s
ĠDate Time
C trl
k ernel
Sc ene
ĠA gr
ĠT en
rop y
ut down
ĠY outh
At trib
" ])
Ġscen ario
Ġgr ass
Ġrest ore
Ġexper iments
ĠI owa
decl are
b est
Ġexpect ations
Ġdis patch
sche mas
ĠF a
Ġaccord ance
s in
label s
Ġden ied
Ġb irds
Ġ' ,
Ġappear ances
b ucket
ĠV in
" =>
Ġclass ification
ok er
J ames
ĠC C
Ġde als
Ġle af
map s
h ook
å Ń
ĠJ oh
Ġcr imes
ĠAnn ual
Ġh ip
Ġj un
99 99
Ġweap on
ather ine
L ite
]( #
Ġj azz
Ġfl uid
ren a
cri bed
Ġk ernel
con cat
Ġent ities
Ġbl ow
ĠSur vey
hes is
ĠV olume
ĠPhil ip
Ġabs ence
ĠE ntity
ig a
Ù ĩ
Ġtr uck
Ġb ike
ĠH it
æ Ĺ
Ġbo ss
rop olitan
ang a
AR G
ĠB u
sl ide
T yp
f ailed
Ġdec line
Ġdim ensions
* ,
process or
> ../
ĠM icro
ĠAm ong
Ġprocess ed
ig ue
oc a
Ġreve al
im ore
iff s
Ġsy nd
secut ive
ĠCont act
c ross
ĠA I
ĠP ed
Ġbr ands
at able
ump y
Ġval uable
A E
dr ag
Access or
plement ed
m ates
ĠS port
ĠH op
str ument
ol y
ri k
ra ig
az ure
Ġun f
ature s
ĠB h
Ġi Phone
ub er
SH A
Ġb undle
p ot
Ġpro to
pre d
Ġnov els
B ACK
ĠRepublic ans
] </
Wh ite
om ing
Ġtit led
m ov
19 47
19 46
Ch art
aur a
as i
Al ert
Ġhead ing
Ġprob ability
Ġfarm ers
pro c
~~~~ ~~~~
{ $
Ġcelebr ate
ent le
RE NT
ĠG ab
A ir
Con tract
Ġp overty
ref resh
prep are
Ġcut s
N ECT
Ġresc ue
Rece ived
19 55
Ġsus pect
Ġan notation
writ ten
he alth
man ifest
Sh are
Ġdep os
ĠAd vis
Ġcompos er
Ġincred ible
Ġeval uate
Ġinter act
ĠS afety
ĠN BA
ig o
Ġaccur acy
c ookie
Ġt ip
Ġdesign er
Fig ure
ĠF ollowing
ache l
ra id
ern ate
ĠD a
ad v
Ġr um
Ġessential ly
Pe er
An notations
pay load
Ġmet rics
l ahoma
us p
Ġdel ight
es ian
Ġs i
Ġs id
ab a
ĠO tt
Ġform ula
D ict
MP L
ĠLe aders
ol o
Pol y
Ġimm igration
S UCCESS
ĠP ur
1 18
xy gen
ĠPl us
in herited
Ġmat ched
Ġweek ly
ĠLim ited
Ġsac r
po i
Ġme ets
ĠLa ure
Ġ( -
Ġindepend ence
room s
ĠD allas
Ġf oo
Ġprom oted
Ðµ ÑĤ
Don ald
Ġpr inciple
Ġcal endar
Ġdemonstr ated
Ġin fection
iv o
or ce
Ġh am
Ġrel ax
ĠSum mary
ĠD al
item pty
Ġc urrency
ĠD ur
Ġcon scious
Ġres olved
Ġup grade
ĠPro tection
em et
Ġob lig
> .</
om itempty
Ġposs ess
P ad
i ere
Ġsustain able
Ġin h
Ġc orn
Ġcent uries
up dated
Ġmach ines
Ġed ited
Has Been
Ġspect rum
ĠM eg
Bit map
ĠL eft
iv ated
Ġo cean
del ay
ĠB ORDER
mark s
Ġre putation
ard o
ĠB ah
OR S
get Attribute
Ġcons ervative
Ass et
ĠTR UE
Ġs ender
ia h
EV ENT
F etch
Ġs ensor
Ġill ness
ou ver
ĠCEL L
def er
Sc ore
un ion
ĠĠĠĠĠĠĠĠĠĠĠĠĠĠĠĠĠĠĠĠĠĠĠĠĠĠĠĠĠĠĠĠ ĠĠĠĠĠĠ
Met ric
red irect
p ref
d td
S peed
" ?>
qual ity
ĠH ope
Ġp ixels
ĠMay or
Ġw rapper
11 5
ĠBru ce
ĠNor way
Brit ish
ĠV ar
Ġent ering
As sembly
ĠS W
ber ry
Ġhand led
="../ _
L at
Ġt ied
ĠCor ps
ish ment
ĠR ender
h ist
Ġb ath
ĠSchool s
In jection
Ï Ģ
ĠChair man
ĠTem ple
Ġout comes
ĠPl ant
F i
__ ["
ĠAust in
å ľ
â Ķ
ĠP UBLIC
Ġcook ie
e ast
bar a
ĠHel p
Ġchalleng ing
osp itals
Ġnot able
Ġ$ ('#
Ġex ec
ĠN ev
Ġwer en
Ġtri als
ĠA thlet
w eg
Ġst retch
row Color
ous es
Ġcontin u
eral d
ĠPr ice
ĠIm port
Tool s
Cal endar
Ġsomew here
Ġst ead
Ġt y
ĠK y
Ġadvent ure
ĠA le
Ġ" [
Ġrul ing
Ġup load
G it
ĠOper a
a ui
S ports
EN CE
ag le
IT LE
Ġst ub
Ġcon front
ĠEx pression
ĠM un
ink ing
S ide
Ġ" )
B D
ol ars
ĠAl an
. ")
N I
ĠS ession
Ġorgan isation
ĠMon th
er on
ĠCo oper
ĠU TC
ST ART
t ex
Ġprocess or
Ġexplicit ly
C ross
Set s
R I
Ġe g
Ġend if
ĠDr ive
right arrow
ĠL eb
ĠC ape
ĠMar ine
H z
c irc
ĠA st
Ġold est
v i
Ġwhere as
Ġpublish ing
Ġcompet e
ĠS elf
Set up
10 7
M en
D ig
Ù Ĭ
N Y
f aster
ĠPol ish
Ġpar agraph
Oper ations
fore ach
Ġelectric ity
Al pha
. ~\
o i
m ix
ĠAl liance
Ġh ist
Ġd inner
ĠS cript
V ec
u its
ne ys
Ġt issue
ĠMex ican
ĠH E
urs ive
l ined
Ġdo i
ĠGu id
og a
ĠSm art
Ġg it
row se
Ġgen es
\ ,
b one
ĠFinal ly
ĠA V
b n
ĠMiss ouri
Ġdesign ated
Ġth in
ĠB ureau
Ġtr im
) $,
ĠUs ed
FORM AT
Ġb rown
ĠB ishop
Ġcoun sel
li a
D one
h line
Ġdr um
ol ute
Ġf inger
T ele
N a
m ate
ĠSp irit
rib ute
ap olis
ĠMar shall
ĠF ant
T om
Ġas ide
Ġreve als
SPAC ING
Ġgener ator
D istance
ĠHer itage
Ġincor rect
ĠF ix
. -
Ġcons ent
Ġ* ,
Ġm arg
Ġc odes
B us
Ġcheck ing
el ve
Ġx si
Ġd ot
ĠF L
Ġla ugh
Rel ated
Ġdesign s
ĠDe an
Pub lish
ĠE mb
script s
ch anges
Ġcut ting
ĠL ay
elastic search
le ans
ĠF ive
ĠMel bourne
D ry
MA GE
Ġgun s
I l
Ġso il
H AND
File Path
w ind
var s
ur ations
Ġmark er
Rob ert
ĠD I
az el
ĠVill age
Ġdistrict s
st ud
ĠCon stant
Ġt ort
Look up
ĠM aterial
Ġaut hentication
Ġl ights
Test ing
ub b
ĠM and
ĠG ib
Ġr ival
nov ation
11 4
member NameLink
ĠD oc
ident ity
HasBeen Set
ot er
m ic
Ġtrack ing
() [
G reen
Ġliter ally
âĢ ĭ
P ipeline
Ġw rest
un s
ĠCh apter
Ġperson ally
S n
th od
Ġdeep ly
ĠMod al
T imes
step s
ĠM oscow
ĠAl abama
WA RE
AR K
é Ģ
Ġa ims
Ġdecl aration
depend encies
H A
Ġredu cing
ĠLin ux
RE QUEST
ĠPh illi
ex ecution
Ġcomfort able
ĠD ebug
ĠN atural
ĠD IS
W ORK
ĠL iving
ĠAn ne
comm un
( --
Ġp a
Ġestim ates
ĠTh ough
Te am
! (
Ġdirect ors
Ġpen alty
19 2
Text View
ĠE ss
co ord
form er
run ning
w x
Ġch at
Mark er
V IEW
lo yd
ra ction
Ġ âĢĻ
Ġt ur
level and
F re
ol ph
ĠN ap
av al
ra h
195 4
ĠI ron
Ġf irms
ĠBe at
n an
min ute
Ġhop ing
T ri
Ġw edding
ĠK al
ĠChrist opher
E s
Ġwr apped
S ch
Ġinvolv es
Ġcr ack
Ġman ual
ME M
Rel ative
ĠIndust ry
ol i
iv idual
Ġcl imb
cul ate
ĠM ission
Ġmin ing
Ġed ges
pt s
Ġr adius
Ġrequire ment
Ġguid ance
Ġag es
Ġattack ed
Ġelse where
ĠMod ule
Ġcur ve
Ġshop ping
' }
Ġsix th
Ġsett led
met ic
Ġro ots
Ġad ap
000 1
Ġcru cial
B usiness
se cret
Ġsens itive
et c
Ġl ux
Ġd owntown
195 2
Pub lished
Ġgrad uated
s quare
- ">
on i
Function s
ĠAtl anta
ag r
Ġperfect ly
Ġover l
Ġf ought
AC HE
S afe
Ġdo ors
N eg
Ġdefault s
V ol
p n
Ġrece ives
Qu ant
in ject
Un ique
st ates
t oc
Com ponents
ĠWalk er
C UR
T ry
Ġsurv ival
ĠĠĠĠĠĠĠĠĠĠĠĠĠĠĠĠĠĠĠĠĠĠĠĠĠĠĠĠĠĠĠĠ ĠĠĠĠĠĠĠĠĠĠĠĠĠĠĠĠĠĠĠ
Ġretire ment
Ġleg it
M esh
Ġread s
Ġo vers
FA IL
an try
om er
LP ADDING
F actor
Ġsp ark
ĠPro gress
mod ifier
Ġinterview s
aw t
Ġfr ustr
Ġbre ast
ss on
Ġcon cluded
Ġperiod s
ĠLear ning
n ail
Ġint ellectual
ĠY O
trans late
Ġconcentr ation
Capt ure
ĠL ock
uff ix
oun ced
ĠA uth
Ġpass engers
U G
out es
s ocial
ĠB ody
Pol it
Ke ep
c ourse
ĠS ize
T ON
text ure
ank a
Ġground s
b p
Block s
ĠOrgan ization
ĠM ut
ĠStud ent
ĠD raw
less ly
ĠV i
lem ma
pe g
Ġv ital
or able
2 20
ic ut
win ning
sub string
ĠCEL LPADDING
Ġrespect ive
Model s
195 3
Ġviol ent
Ġd eleg
Ġrem oves
Ġask s
west ern
enn y
10 8
" }
u is
des cribe
Ġaim ed
it ative
Tr ump
Ġrapid ly
con v
ĠCELL SPACING
Ġfil ters
Ġcl im
ĠB ron
c mp
sc ene
elf are
Ġk ne
en vironment
Th rough
m n
ĠInst agram
Ġd ump
en ess
Ġgl ad
ĠKenn edy
st ub
Ġengine er
ĠP ackage
With out
c as
ĠOther wise
St age
An chor
ic ates
Ġcred entials
ĠS ave
ĠF ederation
Ġfunction ality
Ġestablish ment
ul k
ĠC ole
ĠL LC
Ġass ignment
19 49
et ition
et r
GB T
Ġdest ruction
ĠCommun ications
Ġm ir
ar o
Ġpublic ly
Ġtri b
stat ement
Ġmunicip al
atur ally
in ction
T og
Ġdemocr acy
Ġ} ).
ĠE nt
ep age
Ġarg ued
Ġan imated
Top ic
Associ ation
Ex press
Ġdog s
Ġs lice
ĠPl atform
Ġly rics
Ñ Ĩ
Ġtalk ed
el m
Ġdef ines
Ġnot ify
19 00
iss ippi
Ġd ual
Ġn urs
ĠW y
; \
ĠA udio
Ġbuy ing
ĠNiger ia
Ġnot iced
w hel
Ġtr ump
Ġsurv ive
O cc
Ġloss es
g ate
gover nor
book s
Ġdef ensive
a que
Ġut ility
Ġm igration
Ġconstant ly
ĠC S
=- =-
Ġ" #
ĠY an
ig s
Ġmov ements
Ġmed ian
ĠÐ ¸
AT URE
ç »
w en
à ®
ĠKent ucky
ĠAr k
Ġprodu cers
faster xml
Ġintrodu ce
ĠMat thew
Ġprom otion
as a
r at
Ġl icensed
^{ (
Ġl l
n orm
C ountry
="@ +
( `
ĠF ellow
Ġperson ality
Ġannounce ment
sc ar
W omen
Ġparticip ated
Ġpop ulations
Ġelect ro
ĠN ature
Ġmer ely
ĠF BI
Ġj oy
us cript
ĠDe ep
ĠB ull
re p
est ure
allow ed
e u
Ġsim ult
ĠSt ew
ec ess
path s
Ġton ight
Separ ator
Ġt uple
ge on
ĠEnvironment al
Ex pect
II I
ĠJud ge
Ġeng agement
: &
ĠR ab
T l
ĠSy mbol
Ġprov en
Ġreg ulation
Ġwor ry
Å ¾
i op
mut ex
; %
hem atics
Ġwith draw
Ġbreak s
s ent
ĠPer formance
M obile
Ġ< ?
Ġ( âĢľ
ĠE C
arg v
c py
Class Name
Ad v
ĠS witzerland
Ġrestaur ants
ĠAfghan istan
Ġd ele
ĠS witch
ĠÐ º
f ilters
Ġ/ ><
ĠN HS
Ġan th
Ġcon cerning
m acro
shall er
respons ive
re duce
Ġenc oded
ĠAng el
trans l
Ġem issions
Ġcritic ism
ĠF IG
ĠG ulf
Ġcrit ics
separ ator
ĠP DF
ush ing
Ġinstr uments
emet ery
ĠG raph
pr ice
ĠCent ury
text it
ĠB an
Ġdrink ing
ĠM ars
ĠPolit ical
Ġaccomp an
che ll
ĠBow l
RO UP
T ip
{ -
ĠB us
ĠInst all
el come
he x
U A
Ġd ial
ors es
Ġac quisition
ĠĠĠĠ čĊ
ĠSt udio
ĠJava Script
Java Script
Ġcalcul ate
li est
W ARN
Ġrad ical
ĠH ell
ĠâĨ Ĵ
Ġpass enger
ĠCon nection
ĠMult i
Ġm ilit
F ix
ĠW ait
M ail
serv let
Ġcon secutive
G over
ĠH ills
Ġprov isions
ĠL ie
Ex it
Ġcent ers
â Ĥ¬
11 7
ĠM B
19 18
Ġim plicit
Ġrot ation
d istance
or ous
A lex
] ).
ĠD ementia
Ġimprov ing
erial ize
at ers
RA M
B lob
Ġt aste
Ġv i
ĠP as
L ines
Ġrec all
Ġr c
Th ree
NE W
Ġ æ
Ġthem es
Ġpartic les
ĠMc K
ĠD at
Aug ust
ĠMuslim s
ĠH ans
ĠH um
ke e
roph y
uet ooth
Dest roy
Ġst em
ĠE N
ĠT ab
ubern etes
E ast
ĠC zech
ĠJon athan
Ī Ĵ
Ġpri ze
Ġs oph
ane ously
M ov
Ñ ħ
Ġt one
Ġher itage
ĠZ h
apt ers
CO UNT
Read y
Ġlib eral
Ġad mit
Re place
sc an
Ġmin imal
ĠI gn
L ear
Ġsh ots
Ġar c
ĠL abel
ĠFin ance
Ġconsider ation
Ġf i
Ġrender ed
ĠFor um
Ġtarget ed
ĠM I
ĠHigh way
M o
Ġlow est
ĠH ug
Ġvari ant
is cal
ĠH IV
ĠCon sole
Ap pe
ĠÐ ´
ĠD A
! )
i ar
ing ers
gener al
k h
gr pc
ĠC ow
ĠStud ents
ey ond
Ġunus ual
ĠThom pson
ĠP erm
X Y
ir l
Ġn an
ĠVer ify
Ġthread s
Ġf est
J ack
ĠR PC
non atomic
Ġpat ent
id en
ĠL ot
195 1
ĠA z
Ġst y
re ach
ĠT og
ãģ ®
Sec onds
e i
b undle
Ġs alt
id ency
te ch
hel lo
10 9
back s
Ġcolle agues
Con straints
Gr ad
Ġm i
Pop up
Ġdepend ent
c n
] <
'] .
f are
at ivity
iver pool
TE S
Ġstrong er
over line
at on
ong s
Ġrep air
Ġover se
SS AGE
Sub ject
Tem p
\ '
t one
Ġp ixel
nos cript
ribut ed
F ollow
draw able
d elegate
M ag
Ġshort ly
AR GET
Ġprint ed
sub scribe
ĠDC HECK
anc ouver
Ġmin i
qu o
b ors
ut ers
initial ize
C lean
H ar
Ġc able
0000 0000
Ġt f
ĠPl aces
ĠD im
ĠÃ ł
r and
rb an
} -
J o
5 12
ĠLaw rence
ĠS uccess
ĠS ri
ĠR ange
m icrosoft
Ġarr ival
Ġdes cent
Ġinterpret ation
Ġhousehold s
FFFF FF
R S
s ources
Ġ" ;
Ġliter ary
ext ensions
RO OT
ãĥ ¼
Ġmeasure ment
al ia
Ġcons ervation
Ġbur ied
Lower Case
ĠC F
Ġc ub
Ġp ip
Ġind ices
Ġdis ag
Ġsort ed
ĠG iven
Ġm s
Ġfol ks
Ġb reed
Ġ$ {\
ĠS ide
old s
Can vas
Mer ge
Ġ. =
ĠT YPE
Ġsat ellite
D im
S eq
Ġfeel ings
Ġl ake
ĠFr an
Ġinter actions
Ġg olf
Ġra ising
Care er
ĠG er
ĠO UT
ĠMark eting
Ġb ird
Ġs le
Ġd ad
ĠB OTTOM
f ac
Ġh ill
ĠP si
f ather
] ['
ĠRuss ell
ts burgh
E LEMENT
Ġh al
ĠRem arks
ĠA BC
Ġquant um
c odec
Oper and
P adding
Ġnec k
Ġflo ating
au ge
Ġ" _
ĠAt tribute
Ġsy ntax
Ġd ating
M AC
B T
Ġp ace
att ach
iev al
Ġabandon ed
fav icon
ut orial
Ġexception s
ĠEp isode
Ġl ibraries
Oct ober
is en
__ .
STR UCT
ĠTok yo
ĠWith out
Ġretriev e
Ġsome how
ĠEn c
W ar
H ook
ĠF ame
Ġstream ing
Ġfem in
Ġprec ision
ĠInitial ize
em ies
ab ling
attr s
C SS
ĠT ool
ĠIndones ia
FLA GS
lic t
cl ock
ĠP ast
cript ors
Ġinvestig ate
Ġe ating
set Attribute
he ets
U UID
ĠC lose
Ġc razy
g ui
ĠJ ess
(" .
Ġj uris
P DF
Ġt all
Ġrac ial
ĠM ess
Ġres ident
M ix
Ġun iversities
m g
[ [
p ending
ĠS ac
k n
t ax
Ġemer ging
ĠUt ah
Ġdoct ors
Ġimprov ements
NG TH
Ġentr ance
ĠF ather
ol en
ĠN eg
IC K
J apan
af ka
ancell ationToken
ĠF ast
Ġrun ner
Ġchar ity
C ost
14 4
ater al
S ent
Ġthreat s
D ao
ĠCol on
IN IT
gener ic
ĠG all
Ġcapt ain
hy thm
ĠCre ated
Ġf uck
ĠPro perties
ĠC ache
back end
Pay ment
ab e
ĠAp pe
Ġspe aker
ĠF ilter
ĠString Builder
Ġmag netic
st ri
Ġm ilk
Ġdem ands
sp i
ĠP S
Ġcount s
Ġre plic
Ġtemperature s
ĠWh ich
Ġfore ver
Ġprem ier
Ġrespond ed
Conf irm
Ġinvolv ement
24 0
RE Q
ĠAnd y
Â ·
Ġdemonstr ate
Ġpod cast
á »
Ġcomp ilation
Ġfant astic
Ġfle et
Bec ause
ĠS af
ĠId ent
ĠT itle
Ġserv ers
et he
P ending
} :
ĠArch ives
b x
urren ce
the ad
p aces
Ġequ ally
Ġarg ue
) *
ab stract
Ġins ight
ir ates
c sv
struct ure
Ġ/* !
p iece
ĠCON DITION
yn opsis
ÑĢ Ðµ
` :
Ġlisten ers
hed ral
S rc
Ġmer ged
ĠResp ond
ĠH D
P rom
we alth
pack et
Ġf ib
Ġany more
Ġpublic ations
="# "
Data Source
Ġla ug
Ġsecret ary
w id
Ġdialog ue
Ġencour aged
Ġwor ship
pl ing
first row
ref lect
Q ual
D er
over flow
Ġexpl oration
sp ot
iv ia
Ġj u
C amp
T X
Ġlog ical
F ollowing
ĠBr ig
ent ries
Z oom
Sur face
Bl ue
as ant
op acity
Ġm oon
ĠR ap
Î ·
quest ion
oc y
ĠResult s
ĠD ance
B en
Ã ł
Y S
Ġto wer
Ġfr ames
Ġc up
Form er
vis it
ĠV iol
M F
ĠWork s
h att
build ing
ĠL oc
Vis itor
Ġf ro
J ul
Ġh a
Ġre ven
cast le
Ġang ular
id o
Ġ// -->
T ensor
ext ype
ĠM achine
ĠN ik
Ġback up
Ġrough ly
ĠSwed ish
> )</
Ġcl ar
O G
Ġper mitted
d eveloper
Ġsu icide
ĠG ary
es cape
Dest ination
m x
Own Property
Ġwe ird
z i
ĠV o
Ġb ias
ail and
char acter
iat ric
ĠW oman
Ġw et
Ġhe nce
ne ed
V C
to Equal
Ġanal yst
task s
Ġassoci ate
ĠBase ball
Ġloc ally
AR CH
Ġr hs
ec onds
Un iform
C ookie
ch arge
ĠS el
Ġcollect ive
is o
ĠAl bum
Fil ms
Ġst ability
ĠN ichol
stream ing
s ch
Ġmay or
ĠGr id
leg es
ĠM L
Ġmonth ly
enc er
im edia
ĠMc G
ĠR ace
ath ers
Ġhead quarters
ĠParam eters
s chool
Valid ate
AA AA
TEXT URE
over lay
w i
ĠG it
et ics
U V
WR ITE
ifest yle
ĠHar vard
m oment
og ue
dir name
Ġs ke
d ynamic
us age
it r
ĠChar lie
All ow
? </
per ience
19 17
Ġtim er
Ġlock ed
Open Tl
ĠJun ior
Ġd ust
ĠS A
Ġcomp act
ĠAd ams
ick ed
ĠAnton io
Ġret ain
Ġobserv ations
Ġre ly
ig aret
ĠL ess
ĠInd ependent
Ġb ot
if ts
do i
Ġb less
ĠO bservable
ĠH im
/** */
se ed
ĠMem ory
n est
oc he
Ġge ometry
Ð¸ ÑĤ
s is
app ings
ĠSh op
com b
Trans fer
ĠH oll
ĠW ik
sl ider
Graph ics
19 36
2 13
ro tt
own ed
: %
Ġ ì
in ions
atri ate
ut enant
Ġtom orrow
em en
Ġconfig ure
ĠCon vention
Ġoper ational
ass oci
Ġwebs ites
Comple tion
Ġregul atory
Check ed
Ġconvent ional
Ġco eff
ĠAb b
Ġt s
Ġinsp iration
ĠCONDITION S
Ġprodu ces
hash Code
Ġreg istry
Ġs napshot
! =
Ġp ione
em ed
ĠD evice
ec ycle
Ġg enu
A zure
Cred entials
ĠCr ime
_ [
s creens
x sd
. :
j or
Ġr outer
ĠGr ad
am an
ĠĠĠĠĠĠĠĠĠĠĠĠĠĠĠĠĠĠĠĠĠĠĠĠĠĠĠĠĠĠĠĠ ĠĠĠĠĠĠĠĠ
Person al
ous ing
Ġf abric
on ed
Ġ" +
ĠS ET
Ġcon straint
ĠBAS IS
c ost
Ġb ars
ic it
Ġlog o
Ġru led
× Ķ
FN GL
Ġdes per
* >(
Ġrout ine
ast ed
P icker
V EL
ra ke
Ġb io
ph ase
look up
ĠOk lahoma
Ġs qu
C he
x e
am mar
G uid
ĠP ope
ĠPerson al
clud ing
Ġaddress ed
Ġlook up
Sc an
** *
Ġsp ir
Ġw ake
Ġh ired
ĠT oken
ĠRes erve
N U
Ġre start
Ġorgan ic
ir i
ĠB art
En tries
ĠTh anks
100 00
Ġcare fully
r angle
gu ard
å Ľ
Ġmem ories
BUIL D
Ġord inary
IN DEX
12 1
Ġf ishing
ĠW olf
Ġrestrict ions
Al t
M W
Comp are
ĠGL int
ĠMar vel
Ass ign
Ġsucceed ed
ĠP red
N or
ING S
Ġlif etime
Ġexpert ise
ĠC lick
ĠD J
---- ---
Ġag enda
ĠG row
Sl ot
ĠDou glas
Ġext ensions
Ġme at
K ernel
Ġst adium
Ġtr ains
Ġre vers
}} $
Th anks
Ġa ver
) ^
ĠReview s
Ġt ile
Ġc ul
ĠTh row
An n
Ġre ception
Ġpartic le
ĠAl tern
R adius
' =>
ĠV enezuel
er os
ct rl
Ġsp oken
ĠP aper
ob serv
Ġpy thon
Ġrec ru
i ang
ĠSt age
Ġdec ent
Ġcoord inates
Ġap artment
reg istry
met rics
ĠM unicip
Ġen ables
$ _
cp u
fr ak
Sche me
Ġb om
PAR AM
weg ian
Ġthe ater
Ġbirth day
Warn ings
Ġarr ays
Se ptember
Path s
Ġthreat ened
Le ave
> [
/ '
tr ain
ĠB lood
al ink
or ia
AUT H
Ġcom plicated
Ġinflu enced
ĠLeg al
en o
S chool
append Child
ĠP oll
'] ))
SER VER
f loor
d ating
ess ment
ĠN elson
Ġjud ges
Ġcontract s
ĠSer b
Ġwhen ever
is an
ab etes
`` ``
inal s
lo ver
ĠSt ories
r ides
ĠSt orage
ass ador
ib ling
is ons
osp h
>: ]<
Ġco aches
ĠDel hi
ĠAdd ed
Ġcomp ile
}^ {\
r ons
ĠCom puter
( []
Ġdis aster
ut ing
iss a
Ġcomput ed
Ġv ec
Ġun likely
vent ory
Ġview ed
Ġl oyal
Ġmyst ery
Ġbl ind
å ¯
Ġst upid
ĠWeb site
ĠMalays ia
ĉĉ čĊ
pro b
Ġa str
ĠL ane
reg ular
ĠFor ces
usal em
ĠOr leans
Ġdevelop er
Sm all
19 38
Ġto String
ĠM oz
qu ant
ĠRob inson
ĠN ash
ex tract
ord inary
Ġvis its
ĠA G
ĠJ en
Ġch ronic
Back up
==== =
Des pite
Ġche ap
Ġh ub
ĠLeg isl
ĠF un
Ġsu ite
Ð¾ ÑĢ
Ġleg s
ate ur
OB JECT
Ġeng ines
dimension al
ĠBrook lyn
if ference
Ġfore cast
Ġprepar ation
a ac
ort ed
CH AN
Ġb unch
Ġc p
ĠTai wan
Ġun lock
Ġp ump
rou s
ann on
Ġaff airs
ĠĠĠĠĠĠĠĠĠĠĠĠĠĠĠĠĠĠĠĠĠĠĠĠĠĠĠĠĠĠĠĠ ĠĠĠĠĠĠĠĠĠ
ION S
Ex tract
ĠSt ars
Load ed
writ ing
Ġse gments
Ġ} ),
ĠK ings
Ġs ou
per iod
Ã ª
c od
Ġst roke
clus ions
ĠSe pt
Ñ Ī
\\\\ \\\\
Ġwhere in
Ġte a
Ġinter vention
-------------------------------- ----------------
enc il
dis k
Ġlaw yers
str iction
Ġen vironments
met ry
Ġt ill
id ays
ĠElect ric
Ġb read
f w
R adio
F ROM
id ges
ä¸ Ń
ĠP arent
Ġ"- //
ograph ical
parent Node
Ġfem ales
Ġs ons
Ġlocal e
Back end
LO B
p ipeline
Ġrecommend ations
Ġequal ity
r x
Ġrepresent atives
quir y
r as
Ġhand les
ĠMic hel
sub set
i ology
19 37
Ġrem oval
lot te
Scal ar
" </
var phi
Jan uary
Ġinv oked
ĠSim ilar
Ġreli able
Ġth orough
ĠMed ic
inv oke
Ġp ic
ob e
Ġas p
Ġh ang
b ounds
com ments
Ġguarant ee
Ġâ Ĥ¬
Ġrel ating
ĠR ick
ĠGir ls
Error Code
19 19
Ġradi ation
F ill
\ ":
AB ILITY
Ġequ als
Ġfavour ite
Ð ±
b id
Ġconcept s
N umer
Ġfra ction
Ġmechan isms
ĠM ind
ĠW right
ĠB ed
Ġsymbol s
F RAME
ic ular
ĠE T
id al
Ġch urches
Ġsuper ior
P D
ĠB uff
light s
ĠMor ris
l ings
ĠH ero
v ation
3 20
Ġst uck
Ġst ops
p lier
Ġappreci ate
ĠGL enum
Ġv ibr
ĠU SE
ĠM other
Ġp ert
j boss
ol s
c ord
Ġoff ense
c aret
Ġpet ition
//////////////////////////////// ////////////////////////////////
ĠBe aut
Â »
z oom
19 14
Ġadj acent
Ġres erve
Ġdram atic
Arr ays
Ġguid elines
comple x
he art
ĠRog er
Ġindust ries
ĠForm at
Serial ization
Ġbrilli ant
om ething
AC CE
ĠRef orm
friend ly
Ġoper a
Ġisol ated
ol er
iv ities
oid s
m ade
Status Code
ows ki
Ġn ick
Ġkey board
c lip
andid ate
ĠNAS A
ĠD ays
Ġtransl ated
am ous
j amin
ĠPl anning
Ġbr on
ĠVis it
ĠS ales
Pay load
Ġgen us
ĠCor p
ari os
Ġdepend ency
C over
Str ucture
ĠAn na
or o
c amel
Stat istics
c ached
Th ank
g mail
ĠSen ator
S UP
oth ers
render er
sp er
irm ingham
Ġfocus es
ĠVis ual
Per cent
Ġm ales
Ġinn oc
Ġ( `
Ġs aving
Ġcon vention
MS G
N ING
, </
Ġpar ish
ĠG raham
R IGHT
work er
ĠBr and
over ride
Ġland ing
Ġorient ation
reg ex
Ġg aming
Ġaw esome
Ġbound aries
ĠRe quired
Sub scription
Ġvill ages
Ġres idential
est ab
ĠC L
Ġident ical
ĠCh rome
Ġpack ed
U int
C V
Ġsh arp
fo x
S lice
() ]
Ġmunicip ality
ĠMiss issippi
ar ma
ĠPh D
Ġb rew
se gment
Ġtrend s
in ar
' },
P ref
Ġstudy ing
to LowerCase
f uture
Ġl oud
Ġmin im
ĠP L
Ġb rows
INST ANCE
ond a
u ates
mat ical
Ġd uties
ĠF reedom
Ġco operation
ter ed
: -
Ġw ider
mark et
Ġautom atic
ID S
mult ip
re ction
Ġdat etime
Ġpr ay
Ġad s
cos ystem
M ajor
Ġc ock
block s
Ġcontrovers ial
Ġav ailability
Ġident ification
ĠLouis iana
ĠD ak
Ġj ail
ĠG O
S am
Ġnom inated
: /
Ġport folio
' ):
12 4
ĠSam uel
Ġintegr ity
Ġsequ ences
ĠT a
Ġrare ly
Ġoutput s
qu er
ĠT ro
ĠB os
Ġcomp iled
Ġrecip ient
Ġkit chen
Stack Trace
Rece ive
ĠA WS
urric ane
ĠM ET
> ()</
ĠBr un
Ġing red
Ġdef initions
Ġcelebr ated
Ġc amer
Ġf atal
al ph
sub scription
Ġgener ations
ĠM oney
inn ed
cy cle
Im ages
Par cel
h ind
FT WARE
Ġharm ony
Ġbelong s
v n
Ġevery body
Ġadv is
Ġrob ot
Ġorgan isations
if rame
Ġstay ed
Ġelig ible
Ġover whel
ĠK ath
ĠC leveland
um ul
Ġ' ')
ĠBalt imore
ace ut
âĶ Ģ
default s
omet ric
Ġreported ly
Ġback ing
ĠDub lin
S al
ah o
Ġt we
ĠÐ ¾
Ġexpress ions
os l
pos als
Act or
unit Pattern
Ġt ale
ĠW ard
H ex
Ġpro c
Ġb ull
? (
Ġdep ict
SD K
Ġcl er
Ġc ited
Us ed
Comple ted
} =
ad apter
V A
Ġnuc le
R outer
ĠInitial ized
ĠG ET
Al ignment
S F
the less
Ġalloc ated
Ġarch ive
cent ering
U ntil
In ject
Lin q
ĠWeek ly
19 33
ĠMore over
Ġjun ior
Pres ident
ĠM ort
Ġmeasure ments
y outube
Ġd ynamics
post s
Ġembod iment
per mission
ĠTurk ish
std lib
â Ħ
Ġart ifact
ĠSh are
For ce
Ġcomplex ity
Ġprote ins
F rench
Ġvis ibility
ĠMarg aret
Ġjournal ists
ĠFurther more
// ----------------------------------------------------------------
op les
ĠWal ter
Ġenc ode
ĠT E
Ġconsist ing
m ers
ex clude
Ġcred its
Res earch
c amera
std err
ĠSing h
Ġg allery
TO OL
ĠParliament ary
d ump
Ġz oom
Ġdiscuss ions
Reg istration
Ġpe ers
inc ial
G T
ĠArab ia
vert ex
y ll
Ġl ip
th ird
ath on
C U
ĠConnect icut
M art
h alf
ĠT otal
Ġcor ruption
\ |
ĠE D
s amples
place holder
Ġto xic
Ġsl ide
Mod al
. ]
br anch
5 000
Meta Data
C LI
Ġl oves
ĠHistor ical
re view
Ġdescri bing
MA SK
Ġstart up
Ġvulner able
P N
Ġl unch
i Äĩ
Ġan alys
per cent
ĠMur ray
St yles
R L
tra its
ĠĠĠĠĠ Ċ
c v
Ġg ear
ĠThe ater
ĠV A
Ġbi ological
g ems
grad uate
Ġde ployment
fl uid
Ġhighlight s
A ud
ĠS M
Ġamong st
in burgh
Ġto w
Ġt ie
sw er
FUN CTION
Ġprot otype
Vis ibility
Art icle
Ġview ers
Ġcy ber
B LOCK
b ie
ĠS quad
Ex cel
Ġvel ocity
ĠT EST
Ġdis order
US A
ĠPal ace
H int
st orm
le e
ink s
st ock
Ġn ested
Ġex pr
H D
ĠF ixed
Ġres ign
ic ity
Ġd yn
L ow
ĠB uck
Request s
oth y
ing e
as is
Ġevery where
ol ate
atter ed
h is
Ġp se
ld ots
ĠCar ter
Ġcon gress
LE NGTH
Ġdream s
Ġsupp lies
Ġz ip
Ġconnect ing
sp ark
ij ing
act ic
ĉĉ Ġ
Ġsil ent
Ġm ad
P an
ĠB ased
pre view
ĠC T
Ġsusp ended
Ġcomput ing
Ġhy brid
ĠDom in
/ #
cit ep
pos er
f our
ri el
ac co
PREF IX
ud son
Ġelect rical
Ġrom antic
ver ted
. (
TE GER
Ġg lyph
Ġaccompan ied
Ġdiagn osis
Ġ& =
Ġgreat ly
Ġgather ed
id ad
Ġm art
ĠBar ry
Ġarr ive
Ġw is
an ne
pl ane
="# ">
Ġappoint ment
EN C
Author ization
d ots
d m
Rep resent
end region
Ġenc ryption
Ġ urg
Î »
Nov ember
Ġoccup ied
Ġun iversal
Sh adow
N ested
Ġart istic
or us
Dec oder
ĠDec l
sm art
Feb ruary
Listen ers
ac ion
ĠE ST
Ġinter active
ĠTele vision
t own
ac ular
ĠDis play
Ġphys ics
r ac
Do es
19 34
Ġre pro
Ġ/** <
Ġcoord inate
th ree
] ),
p k
ĠC os
bo ards
Ġc rypt
HO ST
s ender
Ġun like
M us
Ġven ue
ĠSy ntax
ĠF red
ĠCon struct
Ref resh
ĠPro file
Ġc url
tr ansp
math frak
ĠL L
UT C
ĠAust ria
c op
Ġwh ilst
Ġagric ultural
Ġph rase
h p
ĠH O
ĠC ome
ĠB ab
Ġdes ert
d ed
Ġr m
Ġint ense
å ¼
riter ion
S ound
"> &#
Ġel der
ge ometry
ĠMag ic
Ø ³
Ġcare ful
ĠA qu
ver e
Ġemb edded
c am
Ġder iv
ĠF el
Compar ison
ĠAg reement
LO AT
Ġas semb
ĠB oot
ik h
et o
Ġathlet es
app s
Ġc ow
Def ined
! \
Ġrob ust
ev a
Ġpr on
Ġpres erve
ph an
Ref lection
19 35
ĠComm ons
ĠStew art
Q t
File System
ifi able
ĠS ud
ĠA UT
App ly
ĠS now
ĠD ise
ĉĉĉĉĉĉĉĉ ĉĉĉĉ
CL U
utr ition
re ck
n l
F oo
S uite
ys ics
Ġb orrow
ill ance
Ġvari ation
4 50
ev ens
Ġoper ates
ĠCamp aign
ites pace
å Į
ĠAss istant
E r
ĠOr chestra
Ġvolunte ers
vis ibility
Ġregard ed
re ply
at ype
comp iled
Ġveter an
ĠPublish ing
Ġre named
pan ic
Ġex ha
H y
in fl
; ]
Ġ\ ,
ĠK night
ĠS R
ĠL P
Ġhelp ful
ĠF al
Ġan cest
ĠP i
Ġ(! (
Ġ ĉ
Ġdef ence
ĠI an
T LS
ĠB eng
ĠPat ri
ĠH amp
d iction
ut or
ĠRes erved
G erman
ex pl
hatt an
Ã¼ r
ĠH ad
ĠJ azz
ĠBroad way
th ere
Ġobserv ation
ĠStr ucture
ĠO il
âĢ¦ ]
Table s
ot ive
ĠOper ations
Ġm acro
Ġsearch ing
date picker
17 0
ĠB att
Ã© t
Ġroy al
ĠV ancouver
Ġmar ine
Ġenter prise
Ġf ixture
Ġconf ident
Ġdi et
d ale
ĠProt ocol
Ġal ien
Ġref resh
her ent
Ġtrans f
User name
s With
ot he
pt ic
A ff
ĠJ os
Ġpublish er
ĠIss ue
Ġapp lying
ĠT ob
Ġas h
ĠFre der
ĠCh amber
Ġh orizontal
Ġvol umes
Ġr anges
ĠSt orm
ĠP ap
uc lear
ul u
in os
fin ity
ĠL GBT
sc ience
ic ulture
ĠCont ainer
Ġfund ed
Ġmount ains
ĠF ight
Ġmist ake
Ġ( <
Ġcomp ensation
o j
Ġs urre
Ġg ate
ĠTest s
ik ing
Ġdecre ase
help ers
Ġdis plays
Ġless ons
Ġatt ach
Ch ina
c x
Ġout line
Ġad equ
p referred
Rep ly
ĠERR OR
u ent
O C
Ġt ies
Ġple ased
^^ ^^
Ġ( #
es c
Ġincorpor ated
dem o
ĠL iverpool
ĠNot es
Particip ant
our t
Ġun s
Event Args
Ġter rible
p el
ĠSt even
thod ox
19 29
Key word
T ake
Ret ry
Ġdoll ar
m outh
Ġdep ression
Ġsuff er
Ġsub stance
Ġposs ession
Ġopt ical
Ġdesc end
ĠN i
s amp
NotFound Exception
Ġdo se
Ġrestrict ed
Ġkw args
ĠL ocation
aceut ical
. ');
C y
Ġab road
y aml
ĠTrans itional
size of
Ġfocus ing
ĠPort land
ĠW i
ke ley
Ġmusic ian
Ġjud gment
S ocial
ĠQ String
ĠCamp bell
p f
serial ize
av ery
19 10
!! !!
Ġdeep er
H ard
m ine
at om
U Int
form ing
ÃŃ a
a os
ch rome
W IT
w indows
ĠB ou
For ward
F e
In line
Ġspe aks
13 5
ĠPer haps
Part ial
ph ones
Ġinter rupt
j ud
ĠCon tract
------------ -
Ġp s
Ġrem oving
Ġspe akers
be ing
ĠLink ed
Ġvis itor
ĠShe l
Ġhuman ity
ĠMat rix
i pt
Ġatt itude
âĦ ¢
12 2
it udes
Dis abled
inter pret
F ake
ap ing
ĠDep uty
ne utral
ĠCon st
ĠSt yle
ĠR ain
ĠAp pro
Ġs occer
Mult iple
Ġt weet
Ġfound ing
ĠN ep
ĠRead ing
iss ance
dest ination
ĠV AR
Ġex clus
Ġbut tons
Ġemer ged
Ġs ust
ĠC over
op ic
ĠAdd itionally
ĠR and
Ġc ogn
ĠCom par
as ide
ĠW indow
ĠClass ic
Ġj e
ĠC lean
Ġart ificial
the y
Ġpro x
ast ing
ĠR ele
Ġhad n
Ġfin ite
(" -
Ġmet ers
h w
ĠB rew
Ġr aid
ith metic
Ġimmigr ants
dd ie
Ġpush ing
rient ation
ĠTh ailand
ĠC atalog
Ġse ar
ĠZ one
ĠBelg ium
Ġste am
{ },
Ġch arts
Ġl ov
Ġinter section
De cember
Ġl ift
Ġim pr
B oth
Ġg all
Ġpost er
C alled
str y
ĠJer usalem
ĠCol lections
road cast
ĠWork ing
ĠR andom
Ġult imate
ĠStud ios
May be
Ġpain tings
em ale
Ġcompl aint
ĠArgent ina
Ġre lying
sp in
Ġimm un
P ACK
ĠCons ult
Ï ħ
LIN K
ME SSAGE
ĠWar ren
D ot
sec ution
Ġen emies
Ġc fg
Ġmain stream
S ig
go og
; ;
W alk
ĠH AL
11 3
ity Engine
Ġpar ad
Ġsm ile
ĠPol y
PA SS
D imension
ĠF er
Al ign
ĠM os
Ġdevelop ments
bal ena
Are Equal
st ation
tr ait
erv ing
ro se
ant on
look ing
ĠL uke
ĠS ymfony
Ġpass phrase
U t
ĠLe ave
Ġremark able
ĠC ould
ĠW ind
u pt
ä¸ Ģ
Ġman uscript
Ġcall er
St d
Ġi OS
ĠTrans action
Ġmod es
Ġcelebr ation
ĠT ower
eli hood
Ï Ĥ
---- -
F our
uk i
cl ine
Ġaf raid
ĠDr agon
ĠDen ver
Ġin fer
Br anch
est ing
Ġover view
=" //
Ġind ent
dat aset
, $
ĠF ont
Ġwarr ant
W ords
Ñ İ
ĠO cc
input s
Up per
}) $
Ġle an
R oom
W H
c ases
Ġformer ly
c in
Pro c
Ġfor um
x ref
C odes
Ġo w
ch arg
ĠT el
Ġ" ./
Ġfl ows
Ġvo ices
on z
Ġstruct ural
l if
Ġprom oting
ĠS ay
Ġhard er
Ġper ception
p riority
Rece iver
Un able
F M
Ä ĥ
Ġal gorithms
Ġpredict ed
ĠU r
Ġimp lies
Sh ift
rol led
ĠB aker
ĠDown load
in formation
prov ed
ĠH eb
Ġem otion
æĺ ¯
Ġphotograph s
eqn array
Ġf o
Ġ/ ></
Ġ. /
Ġres on
Ġstream s
Vari ant
ĠV eter
Ġr ally
ĠK ind
Ġsurround ed
ĠPh arm
cond itions
Ġnot ion
Ġsh it
ĠCl imate
Ġscr atch
Al gorithm
Ġdel iber
<? >
ĠAL L
bor ough
123 45
Ġhe x
ul us
2 30
Ġtext s
d eb
cl er
Tag ged
Any Ref
up per
K EN
:: $
ĠB egin
ĠF actory
ĠAv ailable
Ġsynchron ized
G ateway
Ġfrequ ent
Ġincred ibly
Ġdecl ined
Ġhyp othes
c art
Ġcampaign s
ain ian
ipp et
F B
ellig ent
ĠJust in
loc als
Ġst arring
P K
Ġed iting
pro d
Ġlab our
in ces
n io
text area
aren cy
ph oto
'' '
M iddle
Ġsignific ance
ĠT oy
Ġadap ted
short cut
Ġpro be
Ġm es
Ġagre ements
et ry
ĠGu y
Ġsurv iv
****** /
ef e
ĠMed al
Ġl ung
Ġscreen ing
V ote
ĠS Y
ab ad
Ġch rom
Ġclaim ing
Ġphot ography
S IGN
R ound
Ġo prot
ĠOr ange
Ġche st
Ġattempt ing
u art
Ġaud iences
Ġsch olars
an on
Ġprom ised
m ess
ĠM yst
String s
By Name
Ġcap s
miss ing
Equal To
col ogy
ĠPit tsburgh
Ġthe oret
ĠD ig
Ġbl ame
Fore ign
ĠP osition
Ġ' ../
bad ge
mark er
N R
f illed
ĠSe qu
Ġis lands
Ġsub str
æ ī
Pre p
ash ing
: @
ĠR y
ĠH end
ecess ary
Ġcl othes
LE VEL
ĠAgain st
Ġle ts
Ġac quire
ĠS creen
Ġbeg un
Ġs wit
Ġh o
Ġpol ar
asc ular
h int
× ª
Ġcas ual
sl f
Willi am
TR A
b t
å º
x l
equal ity
ĠB rowser
ĠR ank
Add ed
Ġclos ure
ĠR ub
int o
aught ers
Ġ-- -
EX PORT
Dependency Injection
job s
Ġpass age
d og
Ġgraph ics
ĠB ot
Perm issions
Ġminor ity
config ure
Ġactiv ation
G UI
ĠJim my
S igma
Ġpopular ity
ĠP il
ĠP un
last ic
m ust
Ġl uck
Over lay
sign al
Ġp ipe
ĠT ar
m ag
. ),
MA KE
ĠBre xit
Ġmet ab
Conn ector
Ġsatisf ied
Pl ot
Ġequ ity
ĠCol lect
b age
ĠS ER
s leep
sh iv
ĠFrank lin
ĠLe ader
Ġcond em
R GB
av an
M ass
ĠB io
S at
Ġres idence
Ġappe aring
im iter
ĠBl ues
LI B
I FI
om ed
Ġcommun icate
Ġcult ures
ĠSO FTWARE
ann ah
Ġcl othing
Ġin aug
Fr ont
ĠĠĠĠĠĠĠĠ čĊ
V I
Ġpurs ue
c amp
ĠUp dated
Ġeval uated
Ð ³
ĠC raig
Ġc ust
ĠO THER
ENT S
ĠU rban
u ced
ĠK az
second s
dec oration
Ap is
Part s
Gener ate
Ġne utral
ex isting
Ġr anks
DE LETE
Ġhash Code
ĠIm Gui
L ONG
Ġcomp ound
ĠBro thers
Ġcamer as
p ic
Exp and
ĠInt elligence
ct l
De ath
p read
19 32
ĠNet flix
Log ging
// !
Block ly
alle st
or ship
Ġp tr
ĠI ce
l iteral
At tempt
Ġfootball er
P ages
Ġs orry
ĠPh oenix
H ide
TO DO
S heet
d atab
Ġbr anches
ĠColl ins
ãĢĤ </
Ġb lob
ĠW H
ĠMin or
Ġneigh bour
remove Class
ri ors
g un
Cred it
Ġc c
table s
ĠEn able
t uple
ar ound
] >
ter ior
uff le
ĠC le
[ ],
tr as
Ġmain taining
em pt
ĠCol omb
Ġscript s
om es
Ġcl ause
ed a
ĠWay ne
ĠCh allenge
Ġfail ing
ĠEv ans
ĠCre ative
E mitter
ĠBo ys
Ġeduc ated
Ġprogress ive
Ġactiv ists
Ġinh abit
conf irm
E lect
f ee
S ol
Ġfin ishing
m c
ĠPalest inian
Ġm ice
Ph ot
uss ia
ĠL iber
ĠJ u
pe ated
Ð¾Ð ´
Ġarr anged
Ġo xygen
Ġtouch down
Ġre try
ĠMit chell
UP DATE
Ġn aturally
ind ices
> ');
part ition
Ġrender ing
Ġ" ")
Ġ' $
Ġtim ing
3 000
f actor
ĠTh or
Enc oder
re verse
Ġeng aging
Ġco in
Ġconsider able
> /
Ġbrief ly
get Text
ĠEm ail
Ġf iber
ĠDen mark
Ġsurv ived
L uc
ic he
Ex ec
Ġh ospitals
og ical
Ġclass ified
F ast
ĠCon structor
Ġquant ity
) +
Ġatt ending
iv an
n pm
oc o
; =
ape ut
Ġreal m
T or
el o
ĠSt re
prec ision
Ġop inions
Ġres erv
Ġab und
ad ows
ĠSw iss
oust ic
ĠR ules
Ġs ig
S cheduler
ĠG as
ĠA lice
ĠD ATA
Ġal i
M LE
Ġtri ple
ĠPu erto
O s
ĠAb d
) ?
ill o
ring tone
Th reshold
Ġsit uated
Ph i
Ġflow ers
ig ion
Ġdifficult y
Ġaccomp any
ĠNO TE
ĠC OP
ĠH em
Ġrep o
ĠMet ro
ĠZ end
PL ICATION
Ġpartial ly
ampl er
lim ited
g c
ad ies
Re q
Ġdec om
ĠK am
ĠR ole
Ġp ad
ĠD ue
add EventListener
Link ed
Ġint ensity
( ",
t cp
ourn als
ĠJ uan
ĠI MP
int endo
ĠIran ian
Abs olute
c ia
ĠR ot
La unch
ĠRepresent atives
Ġadmin ister
ĠM enu
ĠK ir
as ets
Ġl in
; -
ĠC hel
Ġ[ {
ĠBet ween
Ġf ut
Ġdisc ount
ĠLib eral
ro b
ĠC HECK
Ġess ay
Ġmus cle
Ġn ut
UN K
ĠSet tings
ĠVal ues
Ġdam aged
Ġiniti atives
Ġtransform ed
ĠNC AA
Ġhigh way
P eter
ĠF riends
Ġinv asion
an ion
get Key
ab ul
mod ified
but tons
Ġ utils
ĠN at
Ġb orders
Ġent ert
ĠCh ampions
App Compat
mys ql
ĠPark er
Ġsp atial
................ ................
ĠPh one
for ge
"> {
Ġbul k
Ġclose st
ĠP eters
Ġinitial ized
Me asure
ĠM aur
Ġshould er
Ġreview ed
MA IN
Ġc ss
ĠB irmingham
ĠS chema
ĠJ O
ĠPr incess
ĠBr anch
Ass ignment
ĠT i
Ġmet res
T ITLE
lo ating
(" <
tab ular
St ation
... "
Ġd jango
styles heets
ĠT ib
ĠDet erm
ĠTr igger
op enc
cl op
chn ology
Ġprom ises
ah n
font s
w ire
ac les
ah oo
ĠB loom
ĠO wn
ĠPr imary
19 0
Ex pl
Vis it
ĠCh ron
ĠO t
ing ing
Ġg ross
ĠK ate
L aw
pay ment
Ġt ips
C ategories
ides pread
pre vent
eb ook
ib bean
On line
Ġcomput ers
Ġin comp
ane an
am ond
re present
pe er
ID ENT
MA G
ĠR s
Ġcomb ine
car bon
Ġalleg ations
he ld
St mt
Ġg ard
Ġsum mar
tem plates
ĠE val
ĠIP v
Ġj ew
Ġco inc
ues e
sh ops
Ang le
ĠJ oy
Â «
Be havior
m achine
custom er
ĠInter face
ir ts
um ar
ĠG un
Ġple asure
Ġpro tests
R atio
Ġviol ation
ert on
ĠAl aska
to o
Ġinv olve
Ġcomple ment
ĠSp ot
u cc
e ing
ab et
in verse
Ġlaws uit
Ġch amber
Ġr ounds
Prot otype
Ġenh anced
tab End
F ilters
Ġprem ium
op ath
l adesh
19 31
Ġvent ure
th a
Ġmem br
Ġincre ment
Ġtrail er
ret val
ĠC row
DE P
Ġdocument ed
00 5
S PE
ĠA B
Ġr anging
Ġsm oke
ĠB illy
ĠAnt i
ĠRel ations
P aint
ric ulum
ĠN ag
Ġpro portion
ra ise
Th an
amp ed
C ert
] -->
Ġdiscrim ination
ass et
process ing
ard ing
ĠPortug al
Ġcompr ising
ĠTem plate
ĠG T
L ab
Ġp ounds
Ġgener ating
Ġrest ored
ĠCro at
he ther
os ity
H ot
I BU
R outing
19 28
ffff ff
for ced
xi ety
ĠParam eter
er ious
order ed
Ġwarn ed
Ġpain ted
ÑĢ Ð°Ð
Pr imitive
Ġf t
ur u
Ġbelief s
m ime
Ġexam ination
h ai
Ġco oper
Ġth irty
ĠF inn
we ather
Ġm arch
Co ins
S ever
ĠTH IS
Rec ords
Ġsp ell
Ġj er
Ġexpand ing
ĠThe ory
Ġcommand er
N EL
c ategories
ul se
ĠChristian ity
* .
vers ions
ĠRE G
Ġrom ance
act ed
ĠBe ing
A mazon
ĠHun ter
Ġdire ctions
on al
DO WN
Ġwire less
Ġpl ural
l aim
Ġt ick
Ġconst ants
Ġprepar ing
F ilm
ĠIn it
ĠT s
Vari ables
Pl us
z ing
Ġadapt ation
S pr
Ġ( );
t ains
Dis patcher
ĠWIT H
ĠF loat
h it
AME TER
. ";
Ġp our
Ġspec ifies
Ġt un
Write Line
C MD
m atic
ĠS peed
ugg ed
Ġwarn ings
ĠEd inburgh
Ġcom ed
Ġ# #
ER Y
Ġsimult aneously
16 9
ĠPro duction
ĠA zure
en ium
Ġoccasion ally
Ġt ape
ĠCommon wealth
Ġre ign
ĠP ad
Ġ um
Fil ename
H idden
Fr ag
lang le
S in
")) );
periment al
Ġstrugg ling
Ġparticip ating
Ġnob ody
op ter
size i
ĠValid ate
mem Item
or ious
ĠT erry
LE N
Ġqu it
Mod ules
Ġact ively
vel ope
ĠUn fortunately
ENT ER
Ġ(! $
av atar
ĠF riend
Ġp ill
Ġon click
ĠN BC
t alk
ob i
ĠK ids
Util ities
ĠBar bara
Ġsuggest ing
Thread ing
ĠF iction
Ġtr oub
Ġam id
Ġtw elve
Ġs ugar
ĠE le
ĠM ail
ĠBit coin
Ġg otten
spir acy
Ġsh ipping
ĠO d
ĠSte el
g em
z es
Ġpro secut
Ġfl ights
Ġtele phone
Ġa apt
Ġtalent ed
Ġsevent h
DI RECT
He ading
D M
ĠG P
Ġdo zen
ĠCh ile
Ġch ances
ĠW W
k appa
ĠUn iversal
Ġref erring
å °
à¤ °
Ġear liest
nab la
ĉĉĉĉĉĉ Ċ
ĠG C
Ġvess el
Ġn am
Red uce
Ġdis pute
Ġemphas is
h uman
ç ½
ĠS TR
Ġback end
ĠD R
ertific ates
thread s
ĠWrit ing
PO INT
Ġr s
im ony
I ll
g ender
Ġr iding
ST EM
ĠDet ails
as ma
ĠEconom ics
Ġes c
Ġd rew
Ġbr ut
Pre view
à¥ į
cover ed
19 22
Ġmanufact urer
bit coin
!! !
Ġre vision
enn ial
Ġst ere
ard ed
ĠN an
Î ¼
Im mutable
Get String
n ik
ov o
Ġequ ipped
E mb
Ġin coming
scri ber
ĠO scar
Ġmechan ical
ur st
Ġl ambda
st mt
Un mar
ĠMan hattan
ĠRE AD
} `
it ual
se ek
or acle
T ARGET
end um
He ap
Ġper pet
CON NECT
Ġm os
Ġcitiz en
' \
S il
Ġ' </
Ġhit ting
om orph
A CTION
ci pl
iv ial
ock ets
ĠV ert
od b
ĠDr ug
D eb
ĠStan ley
az ines
Art ifact
V T
i q
s izing
Sc ott
Ġrepeated ly
Ġport s
Ġl ying
Ġmind s
an alytics
Ġin clusion
ĠC elebr
akes pe
control s
ill ery
ter rit
Ġform ats
99 9
An aly
Ġrec ruit
r age
=" ./
ĠProf essional
p d
DO CK
ĠR aw
Ġd ub
oriz on
al ion
C art
ĠP in
im er
ĠV otes
Ġmanufact urers
ĠH unt
in ery
ĠIN T
y our
; ,
ĠCon cert
(" [
W ater
19 16
F ar
Inst ances
Ġre actions
Ġe cosystem
M argin
ĠI de
ac l
Ġcar rier
Ġun w
ĠV ery
Event Handler
Ġimm une
Ġbare ly
Ġwild life
Ġun n
ĠL anc
ok ia
us ive
el ing
Ġpre view
ĠCon n
Ġt ons
ene ath
20 2
B ag
P i
ĠM is
ĠB row
b ank
Ġdr ums
Ġre cre
ĠC er
Final ly
or ange
Ġrepl acing
sl ot
Ġc inema
D J
Ġal arm
---- --
ĠN am
* >
Ġp index
ĠS SL
Ġcompr ises
ast ore
li ers
All owed
Ġd ated
Con version
Ġcompet ed
Ġsp ots
">( </
Ġd il
trans fer
with out
Ġcross ing
Perm alink
ĠF M
H on
G re
Ġad apter
ynchron ous
Ġlux ury
Ġor al
Ġbet a
um inate
à¥ ĩ
F ace
ep er
ĠM erc
u ator
Ð¾Ð ¼
ST RE
Ġcomp eting
Add itional
å® ļ
Dist ribution
qu et
Is rael
R ay
Ġsim ulation
o is
ERT Y
Ġun ve
Ġevery day
L F
Ġmolec ular
z ens
att en
on ing
Ġbon us
e or
ell ar
N ER
Ġdom inant
ĠCl ar
NO SCRIPT
Ġl azy
log ical
em porary
g gle
Ġlight ing
s elling
b read
G reat
s ess
Sche dule
eb r
wik ipedia
Ġh oles
F IN
\ %
Ġ( ;
ĠC old
ĠC arn
Ġhard ly
Ġt ennis
Ġpre val
L ondon
Ġnegoti ations
b usiness
CE PT
sh ore
Ġalign ment
SD L
og ene
ut t
Ġl iv
Ġgr ace
ĠDocument ation
C AP
ĠF ern
G l
ect s
ym n
ĠLeaders hip
ibli ography
Ġt ap
ĠG ray
g ow
Ġh orses
Ġrecord ings
Ġen orm
Ġlib er
am ents
Ġl ucky
P TED
ĠNe uro
he matical
ĠR io
Ġim plications
In clude
Ġmor ph
ĠSever al
ĠChar lotte
T ick
ear ly
Ġicon ic
19 15
ensure math
az ard
Tog gle
?? ??
m other
ok u
Ġas c
Ġdis p
pl aced
Ġpres um
ĠBe ijing
t age
ate ful
list ed
C tx
Ġfall en
Ã§ Ã£o
Ġl t
host s
Europe an
Ġb ills
Ġch ip
Ġ/ .
F D
us c
Ġk iss
Ġsh ops
Ġrid ic
AT T
19 12
ĠGi ants
ĠM aine
m r
Ġall ocation
re nd
Ġan ger
ĠCommission er
S pring
ĠS eg
ĠH aving
Ġmoment um
Ġseek s
ĠDak ota
ĠS S
ac re
ĠHawai i
00 2
Vert ical
re ports
Ġspec ification
F acebook
Ġdeterm ination
Ge orge
B ill
Rev ision
FO RE
} %
ĠNor wegian
Ġtrigger ed
ht m
ab sol
ĠB ond
ĠP ART
First Name
ann es
ĠTerm s
F it
const ants
ĠIn n
ra f
man aged
Ġhar ass
s napshot
Ġm ood
ĠM aj
it ime
Ġinvest ments
Ġconven ient
s it
um bs
art z
30 4
ĠMov ement
ĠG ot
r v
iv ot
19 27
comm ands
ĠRobert s
sub str
col ors
Ġalleged ly
ĠUS B
ploy ee
ĠIns urance
Ġexist ed
numer ic
Ġdev ast
ĠGal axy
Ġtrad em
lin ing
ff ic
PI O
akespe are
ĠC P
ĠB U
H istor
Ġwe ights
Read Only
le af
l ists
dim en
sec ure
pub lished
ĠR isk
J s
Ġexclus ively
l arg
Ġdec ode
Ġscre ens
Ġs ends
ĠL ost
Ġm irror
Con struct
Ġtr ick
2 10
ĠL ower
Ġexhib it
Ġs ail
19 25
V P
Ġterror ist
ĠK rist
\ [
ĠEm peror
Sub mit
ĠTown ship
Ġr ugby
Ġhar vest
âĢĿ )
Ġph ones
ĠN AT
M ad
Ġagric ulture
im plementation
Ġvert ices
in ced
am ilies
Ġaccept able
S printf
ut o
spec ies
ĠD epend
go al
Ġrefuge es
/ %
t okens
ĠC ultural
ĠP AR
ĠOl iver
g ly
ĠIn stance
ĠMar ie
lim its
mult iple
Ġsynd rome
Ġw idespread
Un lock
Ch at
ĠF ine
ĠG ov
16 8
Ġconsist ently
æ ł
& \
Ġprison ers
Ġpo em
OD Y
Icon Error
æĸ ĩ
ĠAr men
ĠM agn
ĠSe an
ĠC ou
ĠCons ider
c rypto
ĠĠĠĠĠĠĠĠĠĠĠĠĠĠĠĠĠĠĠĠĠĠĠĠĠĠĠĠĠĠĠĠ ĠĠĠĠĠĠĠĠĠĠ
ÐµÐ½ Ð¸
Ġre aches
Input s
cel ona
t ake
Ġextra ordinary
ĠM uch
Ġop ponent
Ġin ev
ph ant
ĠTurn er
Ġimpact s
Ġcap ability
Ġbox es
Ġm k
Ġactiv ist
Ġident ifying
Ġw elfare
ĠC ategory
le ading
ĠP ick
ose x
Ġguarant eed
Ġj ury
ĠAt omic
it ol
ĠIn fo
I MAGE
Ġep ic
ĠW R
ĠB enn
ĠRe quire
ov ak
GL enum
or ig
sect s
Ġgr ants
get C
ĠEd ge
fail ure
Ġim pression
Ġl ady
ĠCo al
Ġsusp ension
Cre ation
H orizontal
Ġsum mit
om on
, .
em a
em ption
g uid
h op
=" <?
ĠMont real
RET URN
Ġhold er
ĠHon or
Ġillustr ated
7 50
Ġpan els
Ġad m
Ġencounter ed
Ġbe am
ĠBern ard
Tag Name
if ice
ĠSy rian
ĠP ictures
MS earch
Red irect
Ġdi agnostic
Check er
Ġauthor ized
uzz le
Ġsl ave
Ġarrang ement
man y
ĠC BS
Ġ// !
Ġre quiring
ĠJohn ny
Ġadvert is
Ġcontr ad
Ġexam ine
Ġin ches
Ġunder ground
ĠĠĠĠĠĠĠĠĠĠĠĠĠĠĠĠĠĠĠĠĠĠĠĠĠĠĠĠĠĠĠĠ ĠĠĠĠĠĠĠĠĠĠĠĠĠĠĠĠĠĠĠĠĠĠĠ
Ã ´
ar atus
vari ables
ĠBen jamin
ak u
Ġopt imal
Draw able
] *
Ġl obby
][ <
19 26
ĠS ent
Ġ ion
Ġ" (
car ousel
19 21
get Property
ĠSus an
Ġto ggle
Ġ" --
Ġel ite
Ġlong est
Ġaggress ive
w oman
th y
l ant
0 100
h h
let t
orient ation
Ġarg v
ĠFin land
19 24
ĠL arry
Ġ} ));
($ _
Ġc ov
break ing
s ame
p arsed
Ġg ig
ĠMad ison
Ġshut down
Ġtherm al
ari ju
Ġaw s
Last Name
ĠC NN
Ġt ub
ĠS oc
v g
ĠL isa
Ġlo ader
++ ++
ĠStr ateg
Ġass ass
View s
en ario
Ġres ort
ĠA rena
ĠS ony
Ġdep uty
G old
12 6
b uffers
ĠN ames
Prov ince
IconError Encoded
Ġa ug
st roke
d id
Ġg entle
ĠC ass
Ġafford able
ĠA ST
Ġexp ed
ĠB apt
Type Name
ocol ate
ĠChar acter
Ġ! !
ariju ana
Ġb anned
ĠGener ate
the mes
Ġarrang ements
Ġf iscal
ash i
Ġform ing
ĠT an
ĠB es
bor ne
Ġth umb
Ġag gregate
Ġconv inced
Qu ick
ĠAdv anced
um per
am med
G ROUP
() `
Ġsp o
Ġthe ories
Debug ger
Found ation
ob b
ol ine
Ġenthus i
Ġok ay
Ġev ident
ĠBar on
ma jor
Comm ands
se ctions
ĠW E
33 3
CON F
ĠHind u
Ñ Ħ
B ot
ĠP or
type param
Ġm eth
Ġiter ation
ham mad
ĠEn try
Ġcancel led
ĠQ ual
T OP
ĠA aron
Ġaltern ate
× ľ
ĠF alls
Ġexpl oring
B log
is ely
ĠF ried
Ġover come
Ġm ic
Ġcar ries
Ġst unning
Ġpregn ant
ĠTre as
Ġrep lied
mon itor
ĠV M
Ġin cent
Tw ig
Ġop ponents
ĠQ t
R ank
" +
av ia
Des cribe
amb ig
Ġentreprene ur
Ġf ur
Ġsh a
ĠHill ary
territ ory
O rientation
Ġlocal ized
Ġperform s
ĠM ove
Ġh ur
ĠPe ak
ĠP ow
ĠJenn ifer
Iss ue
ĠR ES
Wh ich
ĠC rown
Ġexp enses
capt ure
att y
ĠGr ace
m usic
ĠEar l
H P
S uch
i am
ĠM ach
ch annels
Ġun set
wall paper
Ġens uring
ĠQueens land
copy right
ig ers
ĠV ent
Ġdeploy ed
ĠSh ah
ĠStr ategy
Ġh unt
ĠL yn
ä¸ ª
det erm
ĠG ay
× ¨
Ġaccess ed
ĠValue Error
Ġgraph ic
Ġn it
ĠG olf
ĠC arm
oc ate
ext ends
other apy
Ġ il
Can adian
iv ic
Ġj et
Ġdelay ed
Ġvacc ine
Ġp arsing
Ġblock ed
est s
Th rows
Ġref lection
ĠL anka
[ -
Ġcoast al
Ġout door
Ġtour ism
AB C
Ġdemocr atic
C lip
ĠâĢ Ŀ
ĠAp i
GL uint
Ġp arks
IF Y
B oot
Suppress Warnings
Ġhand ed
Ġsuff ix
Ġinteg ral
PRO TO
Ind icator
Record ed
Ġs el
std out
res olved
iz ar
P oll
ĠI M
Ġcon fer
ĠL ion
W elcome
Ġst ating
amp a
has OwnProperty
uck er
Ġmeaning ful
ĠB uy
oc hem
Ġfl ush
W O
mal ink
Ġ$ ("#
ig gers
exception s
Ġhabit at
Ġcor por
Ġb ases
ir s
Ġm esh
ĠArch ive
[ _
Ġtack le
ĠRob in
Fr ank
E lem
ĠStat istics
ĠB irth
( <
Ġang ry
\ ]
ĠExt ension
id y
Ġem power
ĠS outheast
is i
Ġd t
ĠCh o
Ġid s
( @"
Ġdeterm ining
E ducation
ĠAm endment
valid ator
ĠR av
Ġt rem
ĠE state
sp ons
ĠArt ist
Ġqu oted
Ġfl av
m illion
Dat aset
Ġview ing
Americ a
Ġoverse as
f und
an imate
ĠW ang
inter faces
Ġt ear
Character Offset
ĠA ld
urch ase
A IN
i ov
Ġim aging
Ġh ung
Ġst olen
Ġconflic ts
sh arp
Ġwor ried
IC S
Ġc rown
o ft
ĠH app
CON ST
Direct or
Ġbank ing
act ivate
ĠT X
Ġobserv e
ç ±
ore st
ĠCo ord
Ġscient ist
s ong
Pers istent
Ġl iver
te es
IC AL
19 23
Ġdist urb
Ġpros pect
Ġd eter
Ġthrow ing
Ġsil ence
ipher al
ĠB order
F LOAT
Rich ard
un its
om p
n ia
Custom er
AS C
13 6
ĠFant asy
ĠS r
vious ly
ĠB ag
Bet ween
Ġte eth
T IM
M Q
Ġconv icted
ĠAct ivity
ĠAg ent
Ġl ifestyle
2 60
Ġref lected
G iven
ĠĠĠĠĠĠĠĠĠĠĠĠĠĠĠĠĠĠĠĠĠĠĠĠĠĠĠĠĠĠĠĠ ĠĠĠĠĠĠĠĠĠĠĠĠ
ĠKe ith
om eter
Ġpro jection
Ġpre st
ĠA my
ĠT it
y arn
=" {
Ġob l
Ġfoot age
r ans
14 7
Ġ- &
ĠComple x
it ations
Ġflex ible
oxy gen
k ed
Ġenc rypted
m f
ĠL IC
ud ge
T okens
14 5
ĠClin ical
ĠD ocker
icult ural
ĠFI LE
is Array
err anean
Ġsubs idi
ĠBut ton
Ġassum ption
ĠIm perial
ĠI C
Ġep id
ĠUp per
em in
D AT
S ar
nav Bar
> ';
ul ates
Ġt ropical
Ġdis orders
Operation Exception
Un its
Ð Ł
lay ers
âĶĢ âĶĢ
ĠAut om
vent ions
ĠÃ ¢
ĠFr ame
re ject
con duct
r df
Ġhe lic
+ '
sw ap
Off ice
Ġt urb
ĠN ad
art icles
Ġf ert
Ġbuild s
b oth
Com ments
ĠC ONT
Ġsh ame
Un ion
19 11
conf irmed
p ixel
Ġcor rupt
Ġpro l
ĠV el
ĠPer ry
Ġpre vention
play back
ĠCont roller
Ġrefer enced
ĠPre p
ĠTransport ation
ĠD ie
Ġdig it
ant i
n x
get Default
Ġab ilities
Ġprint ing
Initial ize
ĠR T
Pred icate
Appe arance
ĠNaz i
Ġroll ing
Ġem ails
** :
ot ypes
Man aged
Ġcommission ed
Ġdepart ure
Ġcancell ationToken
/ \
ĠCar ibbean
Ġr ape
Ġstat istical
in ance
Ġgr pc
Ġinflu ential
é ĩ
A WS
Ġcharacter ized
ot ton
ra ising
pr ime
Ġpain ter
ĠMe eting
e enth
Ġarch ae
ĠReg iment
ver b
Ġtrib ute
Ġf er
Ġsu ck
hl js
20 4
ul ly
ĠM all
NUM BER
ĠF ed
Ġor ange
L ess
Ġann ually
ĠGener ic
C op
ec ca
ĠMor ning
Ġd ying
Ġk in
ĠTechn ical
- $
2 32
ĠG round
Ġreflect s
ĠSpr ings
ĠT yp
Ġmod ification
au kee
ĠPhil osoph
Ġm ature
Ġ ../
min us
19 13
Ġob server
Ġcolon ial
Ġun pre
al igned
Dec ode
ĠQue bec
id el
Ġwant ing
Ġip rot
S ink
NO WN
NAME SPACE
T i
ah a
ĠP rior
Ġdr ives
CD ATA
. &
pr ises
Ġpoint ing
Ġattract ive
Ġuncertain ty
V IS
Å Ł
ect ive
wid et
Ġback ed
Ġtrad itions
Ġdro ve
Q Name
C N
m ne
ĠInd ians
ĠCom ics
Ġimpr ison
Â Ń
Over flow
ĠAdd itional
Ch ris
Ġeconom ics
Ġprotect ing
Collect or
Ġbron ze
She ll
J P
cur r
ced ure
Ġsaf ely
ĠEnter prise
Ġf et
ĠU nd
HE D
ĠR achel
+ -
S N
le te
Ġcontrovers y
Ġabort ion
Ġemploy er
ey er
ym ph
ĠMov ies
ĠH R
urn ame
-> {
am pton
Ġn ortheast
ĠCom put
1 19
c odes
Ã© r
Ġa pt
cred entials
m el
ĠM ak
Ġbas eline
duc ational
r h
æ ³
æ İ
O ps
Quest ion
ĠWar ner
v d
ĠL aura
Ġcre am
A fr
ĠP FNGL
Z ip
Not ify
ĠF err
ĠM ol
ĠCons ervative
ĠN HL
add on
Off icial
Ġinc idents
ĠCOL SPAN
ag les
m os
it ious
ĠCon stituency
Ġpro posals
ament o
ĠJ oin
ĠF E
ĠC ut
ier ra
Ġfasc inating
Ġac res
Ġob st
C atalog
R oll
Ã ½
Ġking dom
Ġtravel ing
Ġc rop
im o
ch t
Ġs ectors
Ġrecover ed
om ial
onom ous
ACCE PTED
ĠA w
ant ics
Ġap ple
M ON
Ġown s
Ġw inds
ĠMur phy
chedul ing
) |
Ġd ancing
ĠK u
ĠDemocr at
St ates
12 9
Ġll vm
ins ula
NA P
CC CC
ĠCom merce
Ġth rew
d evelop
Ġpower ed
D ER
ĠB aby
Ġkey word
erg i
ĠB ound
ĠC rit
Ġjuris diction
ĠF ab
ĠÐ ·
æ į
ĠB ird
Ġoptim ization
Ġvol can
Ġb lo
Ġc ous
Ġimplement ing
Ġsus pected
d al
b ird
ug u
Ġdis cre
Ġthere by
Py thon
Ġscal ar
ĠRe ce
ĠS ometimes
ha us
Ġins ights
Ġde emed
Ġt orn
ĠB R
[ (
F all
... ]
ĠV erm
17 5
ç± »
ĠP el
ĠEx amples
ĠCal led
0000 000
ix on
Ġhost ing
V R
ĠB right
Ġn erv
ĠU pon
Ġvolunte er
Ġjo ins
k le
Ġt ube
Ġpl ugins
M ont
ĠGL uint
ers hip
or ate
Ġind irect
ĠCon struction
ĠX ml
r int
Ġvess els
ĠS EC
ĠStat ement
/ ******/
Ġanal og
Ġdeliver ing
f ight
Ø ¨
K ing
ĠCustom er
ĠMe anwhile
sh ots
Ġpsych ological
Comple x
n it
ĠS ql
ĠHamp shire
b en
F ee
Ġseem ingly
U TE
ot or
u um
Ġut ter
Ġmill is
G M
el n
Ġb other
ĠF ro
Default s
Browser Detector
Ġpart ly
ĠC itiz
Ġse q
rist ol
Ġdom inated
ver bose
widet ilde
L ead
Ġs q
Ġs ampling
ĠVenezuel a
field set
Ġhistor ian
Writ ten
ĠL uther
unt u
Ġgather ing
navBar Cell
Ġval ley
MP TY
s pect
H ouse
ect ure
add y
Serial izable
Ġemot ions
ip es
ĠIn novation
[] )
ĠInter view
Ġun em
ĠMad rid
ĠC E
ch oice
ĠJer ry
Ġcompl aints
c ook
å į
Ġd w
over y
Ext ended
t ok
Ġwalk s
< >(
w aukee
Ġw ounded
ĠIn iti
al one
Ġnewsp apers
Ġhun ting
ĠR oot
Ġcop ied
oth s
Elements By
Ġ ÑĤ
================================================================ ========
ass y
ro at
ĠW onder
Ġgrad ient
sp l
Tool bar
ĠS amsung
ĠA y
"> '
c ill
Ġqu otes
ĠN ord
ĠW orth
Ġrank ing
Ġcons olid
J O
am ine
Ġearth qu
ĠGre ater
2 64
Ġn ose
ĠCon trib
ĠBul g
if le
ĠC PU
pret ty
ĠP icture
class path
Reg ex
CO PY
path y
Ġinvestig ated
Ġl ens
ĠHarr ison
-- ;
Ġin struct
Ġplace ment
ec on
Ġlabor atory
cont ainers
ĠBang ladesh
ĠCON FIG
Ġsome body
Ġcon ce
Ġdir ty
atab ases
å Ģ
op ens
Int o
S un
Ġburn ing
Y P
poly mer
J im
ĠJ e
Ġsub set
F X
Ġhand lers
Ġcomment ed
Ġcoal ition
Ġr ab
Ġro l
> ";
ĠMET H
end ors
Ġsur f
g row
Ġpoll ution
ĠEvery thing
inc inn
Ð° Ð»
amb ling
I r
å ĩ
Ġphenomen on
m ill
Ġcharacter istic
ack ed
Is Null
Com b
Ġcr icket
tr an
ĠInd eed
inner HTML
ah l
ĠH ockey
Cl ause
Ġcorrespond s
ĠF if
vers ation
11 11
ĠGuard ian
Ġdef ining
Ġsc andal
Ġam pl
Ġret ained
ĠAr n
cel and
Ġearn ings
ĠIndust rial
Json Property
18 90
do es
al tern
ik o
) '
Ġcor relation
ĠArg s
Ġinsert ed
ĠC ensus
W D
Ġdist ribute
str a
ĠNew ton
Ġaccess key
Ġp ow
ĠM C
ĠP ain
Ġcoach ing
co ins
Ġ/*! <
f un
o ons
orient ed
absol ute
assert False
ĠW r
alt ies
ĠDr ag
Ġcur r
app ers
Ġwork shop
Ġfor cing
Key board
ĠCam eron
Ġc oc
ĠC arr
Ġsm oking
pers istence
ĠNav al
Ġinn ings
Ġpick s
ĠCons umer
char set
Ġrec y
read only
Ġachiev ement
] \
ĠRod r
com par
Ġswim ming
ĠVin cent
ĠS ad
Ġg ains
Ġcouple s
b ars
us hes
T ur
ĠL amb
ĠGl as
Ġar row
XML Schema
uff icient
P ing
Ġal lies
Ġpo ison
ĠCom plete
Ġoccup ation
Ġan onymous
________ ________
S ing
Ġconf used
Ġin finite
Ġf oss
ĠS erv
ĠFac ulty
NO TE
ĠA ve
Ġhum or
ĠR ing
Ġch ampions
" |
Ġl os
Ġ ):
get Logger
Ġmem orial
Ġgold en
Ġexam ined
ack ing
Comp any
ä» ¶
Ġro ster
ĠNe il
AP PLICATION
ĠS olar
hib ernate
get s
Ġsw ap
is co
ĠFl ag
Ġlegisl ative
eg an
Ġimport ed
ar ms
Ind ia
op ing
ĠCo hen
Ġk iller
ĠBroad cast
F IL
ell ers
Ġinter faces
ĠE SP
Ġrat ings
ĠF eed
20 3
Ġsp y
API ENTRY
get Time
Ġsec ured
> ("
Ap ple
Ġnom ination
N il
Ġfl ower
ĠG M
Ġun safe
Ġcons ensus
Ġlo ose
ĠV oice
40 1
ĠCom edy
Block Index
Ġcom ics
Ġmiss ions
Ġa uction
Ġmin istry
L ove
Ġm arijuana
m box
Ġmoder ate
g allery
Im g
ĠBec k
ĠS even
Loc ator
C at
V ers
Ġcon vey
Ġal umin
Ġher oes
ĠU lt
15 5
S amples
ĠM ack
Âł Âł
L R
ĠMet ropolitan
ance led
ĠØ§ ÙĦ
incinn ati
Ġengine ers
st o
Ġembod iments
IN PUT
Ġ" ");
> @
Cl one
Ġsub mission
Ġdifferent ly
j q
Ġfacilit ate
Il legal
ĠW ould
Ġs f
as se
S ender
HAND LE
p romise
Ph ase
"> #
work ing
ĠĠĠĠ ĉ
Ġcour tesy
ĠL it
ĠRes et
ers h
Ġescap ed
cat Desc
Ġprom ising
PAR AMETER
Initial ized
FA I
Ġpregn ancy
et on
ĠM ode
eh icle
Ġfit ness
Ġbo ards
ĠY ES
Ġstep ped
Ġmyst erious
T urn
g ie
ĠBer keley
Ġw ars
Ġr hythm
con straint
Rec ent
ĠH erm
log ic
Ġven ues
ĠAnd re
Ġcol leges
EN S
C riteria
ash a
2 25
ĠK irk
Link s
ĠArk ansas
om i
Ġme al
J ournal
oc ese
Ġf ate
la unch
Ġdepart ments
sche dule
En code
ment ion
her o
Ġsup pose
Ġt unnel
ĠM ason
Cap acity
ĠD rop
L if
Man ifest
ĠS id
Ġl aser
c atalog
ĠWel sh
ĠTh ink
Res olution
Ġa est
Ġsepar ation
Ġw age
ĠP E
ĠTib et
x f
off icial
Ġloc als
Ġaffect s
d type
ĠDirect ory
Ġ' {
Ġcross ed
Ġrock s
V el
Prot os
keep er
ĠTechn ologies
Ġg onna
Ġse aled
De ep
Ġd ish
ich i
screens aver
ĠOr thodox
Ġestablish ing
Un expected
P icture
ĠEd wards
ĠMed it
ac a
ine a
Ġt ension
ĠM om
Ġmount ed
ential ly
ex press
Ġs nap
, ...
Ġsure ly
Ġhome less
ch arts
Ġsav ings
B tn
ĠC I
H it
ay an
qu arter
Ġ Ä
z b
Ġ{ })
Ġwarm ing
H ol
Ġgrad ually
Ġansw ered
L and
map per
ag h
Ġm p
ens ively
Ġaccept s
Ġle ase
Ġdev oted
ĠSh akespeare
Ġsold ier
ĠPat tern
] ];
ocom plete
ĠStr uct
ĠCurrent ly
ĠNev ada
im mer
Ġgr ave
ĠKar l
C lock
Ind ian
d ro
: **
Ġd aughters
ĠL IMIT
Cl aim
ĠLIC ENSE
File d
ĠS K
comp ass
Instance Of
anc ers
Ġneigh bors
ĠÐ ±
Ġsole ly
Ġbacter ia
ism iss
13 1
Un ityEngine
or um
Ġp orn
ĠH ence
ri en
ad itional
Ġpers istent
add er
sy ntax
M or
ro c
UM N
Mat ches
ĠAr c
string ify
Ġnom ine
ĠKen ya
ver ts
ri eve
in ely
Ind ices
Ġprem iere
Ġver ification
Ġbe ating
Ġg lobe
ĠF itz
Ġdead line
15 2
Ġjust ify
Ġp c
AS K
Ġproceed ings
F at
ĠUkr ainian
ĠR ic
ĠR C
ĠBet ter
æľ ī
Ġpr ayer
upload s
æ ŀ
. ).
Ġre public
uck ets
Ġinhabit ants
q a
div ider
Cl osed
ĠLiter ature
ĠW allet
Ġsing ers
hab ilit
Ġremember ed
ro gen
Ġspecial ist
Ã ¦
ist ically
Ġad option
() "
Ex change
Render ing
Ġf d
ĠP ent
V K
Ġcast le
Sup plier
ĠTo o
C ss
Ġt ours
ĠR angers
Ġhe ter
open api
ĠS ure
cri ptions
al gorithm
oper ations
ĠAb u
Ġb eneath
ĠAl ert
ĠTog ether
ĠR acing
Ġrest oration
ĠPut in
sh ake
External Project
ĉĉĉĉĉ Ċ
Ġstri king
ot imes
ĠJ oint
ai ro
Ġhighlight ed
16 5
Ġequ ations
Ġmer c
sup ports
iz za
Ġvirt ually
N orm
ĠBrazil ian
ĠDr ama
Ġlov ely
ol lo
ĠRem ember
Image View
Ġs outheast
DE VICE
Rec ogn
od ash
ĠFil ms
Ġdig est
ĠInvest ment
fo od
ĠFr amework
sl ug
ä ¿
Ġsan ctions
ĠY ang
g om
Ġsc oped
ID s
Ġlo ans
Linear Layout
Al tern
on line
Ġdec ides
Ġinflu ences
ç Ľ
Ġlegend ary
Ġd ense
fl ash
Ġtum or
port folio
Ġcle ared
ĠG OP
Ġaccount ing
ER E
Ġa qu
Ġsurve illance
umb ai
Ġconvers ations
Ch oice
OP EN
Ġpro files
Ġpost ing
Ġman ages
k ill
d ummy
Arch ive
O RE
request s
ĠThe orem
Å «
s il
ĠPortug uese
ĠCru z
Ġsequ el
Ġsh ore
Ġforest s
tog ether
d ing
ĠSD K
{ })
w heel
ot ional
in us
Ġpred icate
b an
M el
Ġne arest
ĠQ uality
Ġdem ol
IT S
IR T
Ġcontain ers
ORM AL
Ġquarter back
aut hentication
ĠDe al
ON LY
ĠS alt
Ġpred iction
ĠR ico
Ġstay ing
T witter
Ġr ivers
Ġim per
Ġsatisf y
Ġ" :
fe ctions
rest ore
ĠComm ander
Ġis set
Ġwood en
J ew
Ġm ixture
Ġm apped
ĠP anel
= </
M a
et e
Ġn ights
ĠM asters
R ussian
hib ition
Ġprec isely
ĠS oph
Ġnam ely
ĠR u
Ġdep recated
Ġdecre ased
Inv ocation
he ap
Ġdismiss ed
Ġind igenous
[ ];
Max imum
ew ay
W ild
ĠS aints
Ġdem o
ĠBro ther
Ġor bit
w y
Ġinj ection
Ġ[ âĢ¦]
19 08
t z
Ġswe ep
Ġat omic
on er
Ġ Ã©
Ġcontribut ing
get Context
con scious
ad just
ĠEd it
Ġexpect ing
Ġa ired
me asure
ĠN A
t bl
Rel ation
Th omas
ĠH AVE
ret ty
> #
U i
Ġmagn itude
h ub
"> "
define Property
C li
m und
Ex amples
Ġvari ations
Ġless on
Ġlog s
Ġretriev ed
ore n
Ġprec ise
Ġa ux
log ue
Ġbreak fast
Ġeffect iveness
=" '
Ġm ere
S B
U INT
sp h
Ġr itual
Ġso vere
Ġf ingers
Ġdec imal
d ater
Sign al
Ġacc laim
ĠST AT
au er
Int Literal
ĠL ag
ur ring
ĠH at
ĠF ail
epend ence
m v
ĠLay out
B ODY
M X
Ġ nd
Ġp reference
ĠT ed
Ġlet ting
Ġli ability
air y
Ġo l
Ġt ens
Ġpr imitive
"/ ><
ĠC ris
27 0
HEAD ER
P ull
g res
B ooks
ĠS ale
Ġt une
qu ick
set Value
K G
ĠCh art
un iform
Ġman ually
18 00
Ġspons ored
Ġ! (
Ġphys ically
ĠWith in
Ġgener ates
Ġc ry
ab i
Ġstri kes
appro x
f ef
OP ER
Ġfriend ship
Ġex clude
ĠT ypes
Ġinitial ization
Ġsh orter
ĠCirc uit
L ou
DOCK ED
R eb
Ġcount ies
op l
o ct
ĠJer emy
ag ination
Ġsh oes
Inv oke
ĠE q
Ġattract ed
Ġapp aratus
W T
13 7
WARN ING
i u
Dis able
Ġsup plement
Ġtag ged
Ġpe oples
Ġan xiety
Ġex tern
ĠM ix
B ur
Ġb ab
Ġt ang
ĠApp end
uk a
Ġmut ual
\ {
Ġcour age
Ġ} .
he ll
}} {
ĠF ollow
UL AR
Ġop am
rec v
/ $
30 1
f ive
Ġj oke
Ġreport ers
Ġfollow ers
Ġcamp s
ĠP ic
Ġcomp ression
N d
ĠE lection
ind a
Ġwe igh
ĠBar celona
Ġvary ing
Ġad mission
ĠR ou
ĠF light
ãĥ ³
Ġsh r
ge om
A ws
A ge
ĠMedit erranean
pect ives
Ġdi abetes
Dep artment
ĠR ect
NE SS
Ġinter mediate
Ġveter ans
') ).
Rep o
Ġbut ter
Al bum
Ġcompet itions
Ġappro ached
Ġpers u
ĠFl ow
osp ace
Ġs its
Ġs ink
Ġenorm ous
sub title
s an
Res olve
g age
B AD
Ġac ute
B orn
m ong
LE FT
ĠElement ary
Ù ģ
Ġinit With
ĠA F
ĠForm er
w so
ĠQu arter
Ġf iring
og s
IR ST
Ġev olved
Ġcomment ary
atern al
H uman
f m
h ole
ĠGL sizei
Ġremain der
Ġd s
ĠFa ith
Austral ian
Ġeg gs
ĠL en
ĠDef ence
> -
Ġcouple d
ĠL ate
lic al
Ġtheoret ical
as ci
Ġim posed
aw k
ĠFeature s
ĠL ux
ĠD ialog
ĠĠĠĠĠĠĠĠĠĠĠĠĠĠ Ċ
Ġt ent
Ġemploy ers
b idden
jav ase
Ġsens itivity
Ġre striction
Ġsound track
13 8
G G
oc c
und les
Sm art
ess a
L im
(' ../
Ġbur den
ĠCub a
w b
Ġpre dec
ĠEgypt ian
c out
T her
Ġcl usters
ãĤ Ĵ
13 4
ĠAc cept
ĠDE BUG
sen al
Dan iel
tr i
Ġobject ives
de ploy
ĠSw ift
Ġtarget ing
CK ET
int age
lo pe
14 6
ac iÃ³n
ĠSh im
get Current
ott a
ĠH alf
cor rect
Ġr ated
B ank
lock ed
fin ish
ĠFl ore
Ġcho osing
ĠSt evens
Ġport ions
B g
Ġsche mes
="../ ..
RO P
ADD RESS
} ")
Or g
Ã¶ r
ĠCON TR
Ġbur st
ĠEn sure
f ar
Ġpres erved
Ġdifficult ies
Ġblock ing
Ġele g
Ġforg otten
Ġh anging
Ġt ired
ens is
ĠAll ow
ĠBO OL
Ġaud it
us k
ĠMu hammad
B as
Ġfilter ed
ĠSt ein
Ġtrans it
ĠAct or
ĠW a
ĠK o
V S
j dbc
Ġen abling
;& #
Ġserial ized
th an
Ġt body
se en
il o
Bi ography
Ġhon our
e ur
Ġm ild
ĠR at
ĠImp act
ĠK on
13 2
ach t
ĠUn iverse
LA PI
u ity
Throw able
} },
ĠLabor atory
Ġconstitution al
Ġsent enced
Ġfun eral
%%%%%%%% %%%%%%%%
ster dam
List s
Ġland ed
ave led
Ġg a
Ġcomp ounds
ĠCarl os
ev t
ent i
ĠHe ader
Ġpress ed
Ġcallback s
ĠDan ish
Ġd type
ĠAs ync
ul in
ĠWat son
O bservable
Ġorder ing
D MA
Ġne ur
? âĢĻ
ig uous
Ġcal m
Byte Array
ĠN intendo
Ġdef erred
arr ass
J on
"> /
it ement
her ic
Ġfood s
ĠB B
Ġaccept ance
en ue
> ",
leg end
N ever
str ained
Ġob taining
Ġh ire
ĠF ocus
ĠS F
ield s
un stable
ĠF iles
n om
ĠFl ash
and box
Ġdiam eter
ĠD raft
ol ia
ĠA bs
" <
Ġbar rier
ĠIS O
Ġmort ality
ort ion
eg u
Ġcre ator
ĠPro test
im ir
ĠHor se
Ġdu o
ĠB UT
f iction
Ġchem istry
15 1
s id
as ures
ĠSh aw
tele phony
Ġdec k
und ers
ä¸ º
High light
x ff
ĠJ a
Ġprof its
av it
com fort
ĠQuest ion
Ġsust ained
l iving
m ons
Ġvol unt
Ġ ].
ast ery
SE CON
ĠCal endar
Ġe uro
Ġwis dom
ĠÎ ¼
m is
ĠCr iminal
ĠSol utions
Ġingred ients
bal ance
Ã Ĺ
Ġoccas ions
? .
tr on
An alytics
Stud ent
ĠRuntime Exception
Ġin equality
ĠK ap
s at
Ġbott le
df s
ĠField s
Ġd f
L ER
K nown
get Data
Ġaccompl ish
R oman
b ower
ĠB ear
Ac adem
pl o
Ġtrans mit
ĠC atal
Ġcomp atibility
Ġra ises
FAI LED
ĠR A
ĠHar vey
out line
st own
ĠM OD
(" ")]
ĠNorm an
Ġe y
ĠF IX
call s
Ġsmart phone
url s
Ġgre y
ens ed
ĠD NS
P reference
-------- -
ĠSc i
Ġhop ed
LE ASE
H I
USE D
â ĪĴ
ĠThe me
ent ities
Ġnot ably
ĠÐ ¼
is Valid
Ġim pressed
ond e
j ournal
ĠT odd
prevent Default
ĠS pect
ĠC emetery
ĠEl li
Ġconsist ed
ĠH ub
] ));
t ies
Ar n
User Agent
aged y
ĠM ans
P OL
ss h
Ġadjust ed
ĠAl fred
arn ess
h arm
Hel pers
ĠId entity
clop edia
13 3
ĠMP s
V oid
ĠCamp us
ĠC M
ĠTh an
ĠTr uth
Com posite
Ġ" </
t ap
ĠAgr iculture
Sub scribe
ENABLE D
Ġrev ised
P aired
ĠW ire
ict ions
Ġsal ary
ter min
ĠSt ack
Ġdipl om
A rc
s aved
Ġstop ping
ĠL ex
(( (
z ier
"> ,</
io x
opt im
ĠE asy
Ġlog ged
ĠLear n
ÑĢ Ð¸
B uilt
14 9
Ġgovern ance
Ġcont rolling
Ġmid field
i ator
Res ize
HO W
Ġrail road
ategor ized
Aut hent
Ġatt achment
Ġir r
Ġg em
Ġindepend ently
) ";
G od
Cre ator
aver se
ob a
ĠD evelop
UM ENT
Ġdiv isions
Ġconf usion
Ġrac ist
Ġmed ieval
Ġap olog
Ġup set
Ġnull able
f olk
Ġdeterm ines
product s
success ful
Ġaddress ing
37 5
] ",
inst ein
B and
Ġhot els
load s
Sw ift
ĠPract ice
Wr ong
N F
oc co
ĠH ousing
Ġphys ician
ĠEx perience
Http Request
Ġattrib uted
Ġanaly ze
om o
Ġterror ism
( %
e very
ĠSand ers
} +
ĠB eyond
ĠW riter
ĠN ar
Ġexpect s
ĠHel per
ent e
k k
Ġtest imony
list ing
O lymp
Ġre fr
C LO
l b
B er
Ġ$ $
L atest
Ġo ct
ĠC ov
M ary
r ices
lo ose
enc oded
H AL
land o
To o
CO RE
Attr s
ad os
Ġst om
\ .
Ġpr ide
ĠRem ote
ĠS eb
Process ing
p es
w right
P OR
T M
Ġv ectors
Ġelim inate
ap on
c z
t ick
ĠK an
ass ion
ĠUs ers
Ġs isters
Ġ{ ?
Ġdiscuss ing
M ike
D a
ĠApp ly
ar us
ĠMu eller
Map s
print StackTrace
Ġgrow s
Ġadvoc ate
r ain
ebr aska
ĠArch itecture
ser if
Ġj ack
ĠS ustain
14 3
agon al
Ġiniti ated
2 12
ĠCh ampion
Ġact ed
IF T
N ay
Ġstead y
ĠSh ang
IS O
ĠG uest
ĠTh r
Ġodd s
h um
á º
ĉ ĠĠĠĠĠĠĠĠĠĠĠ
Ġm eg
h or
Ġre semb
19 05
Ġ| ___
36 5
Ġd y
ĠE DT
Ġlegit imate
t ol
log y
Ġphot ographer
c ue
ep per
I o
sh ader
ĠEm ma
Ġeditor ial
linked ExternalProject
R ock
sol id
o auth
Ġout s
ĠS oul
B ob
ĠSh adow
' "
sp ired
GEN ER
Ġch ains
we ak
Im p
tensor flow
Ġexp ense
Start ed
Ġm a
s ound
ĠMETH OD
Ġclean up
ĠSaf ari
ĠCl uster
ĠSV G
ĠC lay
L T
G I
pos able
neg ative
igh bor
ia z
Ġbro ader
ĠM ade
Ġcur ious
Ġoverwhel ming
read able
che m
Ġtrad ed
ĠP OST
Ġnerv ous
ĠMount ains
Ġconven ience
fr astructure
Ġorig ins
Ġ* */
ĠEm ily
ĠIter ator
L ater
am o
get ElementsBy
param ref
An swer
Ġbelong ing
Th ose
CLI ENT
ic ients
ĠG R
IL D
Im plemented
Ġtax pay
if ted
Track ing
aur ant
Ġad res
m or
ĠH orn
yl um
ĠIns ert
ĠGlas gow
us b
Ġper ceived
ĠH udson
ull ivan
und ef
ĠType Error
Ġ< ![
text width
linkedExternalProject Path
15 00
R ail
ĠRe ports
R NA
Ġem ission
ĠNash ville
ĠN ancy
Ġann oy
L arge
Ġf its
Ġin duced
il ia
ĠDef ine
Ġform ally
p ick
ĠM eta
Ġdef ending
ĠĠĠĠĠĠĠĠĠĠĠĠĠĠĠĠĠĠĠĠĠĠĠĠĠĠĠĠĠĠĠĠ ĠĠĠĠĠĠĠĠĠĠĠĠĠ
-------- ---
Ġfire s
Ġaccompl ished
ĠCons ervation
ä¸ į
ĠProduct s
Ġscen arios
out ine
ex e
ĠK id
H i
ĠM IN
Ġv ig
Ġdo zens
Up dates
b ai
Ġch ron
Com bo
Ġr amp
Ġb ail
og an
ĠPhys ics
Ġat om
ĠLet ter
Ġdist inction
Ġsh apes
ph abet
am as
qu it
Ġdraw s
Ġdi agram
Ġg ray
ĠV I
}\ \
Ġportr ait
Ġcoll ision
D X
ah u
Bo ard
Y eah
Ġse eds
Ġde ce
Ġexception al
ĠAv iation
W ay
b u
h all
Ġcert ified
Ġthere of
back up
ĠRich mond
Ġre n
F inder
f ade
Ġpo ems
ĠAir lines
="@ {
Ġre nd
ĠWik ipedia
16 6
Trans l
document ation
resource GroupName
Ġinvestig ations
ĠUn like
Ġsur faces
T ech
ĠCh anges
gener ation
ĠN om
Aut om
Ġattend ance
"=> "
Ġh ab
ĠDise ase
Ġch ap
L ittle
ern ess
ĠCost a
Ġconsequ ence
ĠJeff erson
em ia
ĠZ ero
TO KEN
ĠDi agnostic
ett ers
% );
ex act
real m
ancell or
Ġe ager
De ployment
è ¦
Ġanalys es
Ġparse Int
ĠAd ult
Ġspokes man
el ist
Ġbe an
ĠNE W
Ġsynt hetic
m icro
ĠCour se
ĠT on
DE V
Ġtem plates
12 34
19 07
Christ ian
l c
' }),
k ar
b rit
ĠB ra
aut hent
Ġout break
Ġimportant ly
Ġinternational ly
Key words
Ġmag azines
14 1
ĠNY C
d w
Ġint elligent
class v
Tra its
Ġportr ay
4 80
ĠL ith
ĠPer iod
Ġcook ing
ro d
ĠK ay
pol it
Ġglob ally
ut ory
t ot
Ġel abor
ch rom
As String
ĠB eth
ĠSp ider
Ġfrag ments
Ġvar ied
Ġ{ :
Ġbe ings
ĠR ud
ĠG ive
ach ers
ĠPl ugin
ĠMon itor
N EXT
Ġwith d
Ġafter wards
v r
Ġre vel
ĠD eg
Ġd ynam
ad vert
Qu ote
Ġauthor ization
C am
m eth
------------ --
Pr incipal
æ Ŀ
Ġf ighter
ut ton
ced es
ĠC ircle
Ġtw in
ĠEx cell
Ġf ade
ins ic
Ġair line
ãģ Ļ
H en
int egr
Ġset Up
c ale
Ġextract ed
ok a
ĠSh ar
="../.. ">
Ġenjoy ing
ĠW alt
all ing
Ġscholar ship
} |
ĠB ass
C ached
Y ea
ĠB asketball
ĠW es
Ġsub stit
ĠCont emporary
mes h
Ġreg ex
Ðº Ð°
Ġf ed
50 1
ĠEV ENT
Ġindic ator
Ġhe aven
Ġsec rets
ĠAssoci ate
Ġsing ular
en es
G N
query Selector
dr iven
\ _
it he
Ġob sc
Ġc yl
ĠN ormal
ul i
Ġtri ps
ar ations
Ġinnoc ent
Ð ¶
Gover nment
Ġw ishes
Ġsett le
Ð½ Ñĭ
ĠProgram s
BY TE
int ent
Ġgenu ine
Ġsort s
Ġinstrument al
spec ified
ATTR IBU
ex ist
empl ar
x c
ĠDel ta
Ġmet aph
Ġke en
Ġmurder ed
19 01
Ġhe ap
Ġaff air
comp any
Z end
>{ @
Ġpop ulated
19 09
Ġz ones
k ubernetes
Ġext ending
Ġspect acular
ĠP le
Ġfr act
il ateral
eg e
ux er
D ays
Ġex cluded
Ġexp atriate
Ġtreat ments
Ñ ī
Ġg fx
U r
ĠAssoci ated
Ġdeb ugging
icens ing
ĠT ournament
G F
ĠSum mit
md c
Ġmand atory
/ ?
Ġ@ @
RE C
Ġbre ach
sche me
ĠM R
Ġsepar ately
ĠCo ach
Ġcollect ing
2 24
View ById
! ");
å Ĩ
Ġ ));
ĠTre k
Ġburn ed
Ġanaly zed
P ART
Ġf ru
g b
Ġjournal ism
ist le
Ġstock s
Ġthe at
n ested
ĠK l
Ġp b
ĠAdd s
Spr ite
ĠP rix
parent s
ĠPet e
Ġnav igate
Ġtrem end
Ġposs ibilities
ĠE sp
Ġpre dom
15 7
Ġconj unction
apeut ic
ĠBapt ist
ĠB ristol
Ġheart s
Bal ance
et ype
ĠCh and
o ard
TH READ
ĠYO U
x r
Ġmist akes
Mult ip
ĠTy ler
D ead
U X
ogen ic
Inter op
Ġb onds
res olution
ĠK le
F ACE
Ġmix ing
Ġdirect ive
MLE lement
Na N
) ];
ĠSh ared
Ġs ock
Ġm amm
am ination
SER VICE
AT IVE
ĠMus ical
H ist
Ġdiv orce
organ ization
k ov
ĠL INE
Ġjav adoc
19 04
Ä «
um ble
Ġcomp ly
Ġbrows ers
Ġclass room
Ġkne e
ĠB udget
ĠGr an
ĠVi enna
ĠĠ čĊ
ic ating
w ave
Ġam endment
Ġare na
ĠK ill
Ġexecut ives
ĠPod cast
Represent ation
Sl ider
ĠAlex and
Ġmarg inal
t om
Ġcontact s
ĠLib erty
ĠW ol
Ġmon ument
atter ing
a uc
Ġy eah
Ġsuggest ions
ĠBill board
Serial ize
Ġbul let
am y
Config ure
fre quency
ĠD anny
Ġcomm em
S ens
20 23
Ġfail ures
Ġassum ing
ĠSh ip
ĠI celand
Ġy ard
Ġdistingu ished
Ġd egr
Me anwhile
18 80
Ð½ Ð¸
host name
Ġb ay
ĠM aking
Ġtable t
c ott
Ġtour ist
Ġw ings
Ġn od
D ark
Ġrender er
CP U
Ġcomple ting
Reg ular
ĠScient ific
Ġsimilar ly
STRE AM
Ġc ele
19 06
Ġdis ability
Ġad verse
scri ptions
Ġs sl
Ġrac ism
Ġdr unk
Ġweak ness
ĠMunicip al
M AT
Ġten ant
ĠD ES
ĠSet ting
Att achment
Ġcy cl
Ġpick ing
oll ar
Ġal liance
block quote
Ġdesign ers
n P
ĠSym phony
ĠFreder ick
grad ed
ĠS ample
Ġcontr ary
m ile
Ġan ime
col s
ĠMar io
ol utions
ĠB arr
Ġr h
Ġac oustic
Ġport al
ĠL ions
E q
p ent
ub a
20 5
Ġencour aging
Ġfast est
Ġe ighth
ibr ation
Work s
ob s
Ġp ension
Ġprof ound
Rot ation
al ter
plic ity
Ġ\ {
it ter
j b
Ġvari ants
ĠGr am
Con stituency
rec ords
ari ans
ĠSquad ron
ĠCheck s
Ġ ../../
ĠK er
Ġver b
claim ed
Ġre nown
Ġwealth y
ĠColomb ia
Ġchalleng ed
Ã µ
ĠPlan et
Ġw ound
Ġund ers
ĠT es
Ġbr ick
R ad
ĠDis covery
ĠDr iver
Ġcomp aring
istic ated
ort on
Ġaffect ing
ĠS ox
ĠR ivers
Ġab ol
Numer ic
inherit Doc
ĠB L
ĠDer by
Ġtr aveled
ĠV ision
Ġcomp elling
Ġp ose
Ġ( ((
Ġcon spiracy
Pr iv
ex c
Null Exception
Ġsec urities
)) {
Ġd ol
Ġdes ktop
ĠS yn
Ge o
Ġcalc ulation
du ctions
Ġun e
Ġins pect
ĠS ou
Ġdoc s
Ġt v
d ashboard
Ġ( ),
Click Listener
ĠChel sea
ĠNichol as
Dis patch
ĠZ e
Ar row
Ġacknowled ged
Pol ice
BE GIN
ĠResp ons
G ed
bread cr
STAT IC
Î º
cr im
um ph
min ster
ĠCommun ist
ĠInter est
Ġr ice
ac ious
ĠRog ers
20 8
Ġassoci ations
ĠN athan
add le
Cent ral
Ġbo ats
oper ating
ĠQu ant
Ġdon ated
ens en
P in
t ls
Ġres igned
w ear
åľ ¨
ke es
Ġinvent ory
F ort
å ½
g ulp
s ock
Ġc argo
ĠSong s
ĠIss ues
Ġp and
Ġd ining
des cr
Ġdom ains
ĠTrans form
ul o
ĠV ik
On Search
Ðº Ð¸
Number Of
widget s
ĠP ra
ĠC atherine
or por
ĠMar x
Fin ished
Ġv endor
am bers
B IN
Ġadv ised
ĠGover n
Ġres ume
ĠCommun ication
h ls
re strict
Ġdis closure
ĠL loyd
AC CESS
Ġsent ences
ĠG lass
Î ³
ĠCons erv
ron es
Ġstrict ly
Ġl un
ĠUS D
Ġsuccess or
Ġs ne
ah an
Ġinstitution al
H ey
ĠW ing
W P
ĠG rey
}} </
Ġbad ly
P AGE
Ġinterpre ted
Ġadequ ate
ĠF ly
IT ER
ĠP os
ĠHig her
C ACHE
Fl ush
LOB AL
Ġqual ify
ĠG onz
V ict
ĠC urt
Ġcivil ian
Ġmon ster
ĠM otion
13 9
Ġt ears
Ġhypothes is
hand lers
ĠHung ary
Ġfl our
ĠK os
Neg ative
Ġline up
ĠVictor ian
ĠHoll and
Ġcust ody
Ġprogram mes
as List
Ent ities
ew ise
ish ops
="../../../../../../ ../../
Ġ ib
k l
Doc uments
âĢ¦ âĢĿ
Ch apter
28 0
P TS
ĠFle et
ĠPot ter
ĠHar per
ĠG ene
Ġmembr ane
h ours
> ',
Ġcab inet
Ġh i
ĠT IME
ĠJ ar
ĠU C
Ġconscious ness
Ġmer ch
Recorded Vote
Ġc ave
Ġoper and
Ġprefer ences
ans wer
ish a
2 11
Th ird
Ð½ Ð¾
sw ift
Ġtoler ance
Ġpl asma
sk in
J eff
Ġconfirm ation
ograph ics
udd y
Prop ag
) _
Ġdead ly
W ire
yl an
Ġpos it
Ġwond ering
ĠAdvent ure
Ġpat ri
ĠM end
oc os
Pub Med
S ys
Ġf led
gr ay
pos itions
Ġpassion ate
3 30
.. ...
contrib s
ĠAuth ors
Ġfoot er
Ġl oving
Ġimport s
Build ing
im ag
Ġproject ed
Ġemb arrass
ĠLem ma
M icro
ir ical
ĠB inary
Ġyour s
x d
ĠStan ford
ĠOak land
ĠF ace
Ġinvestig ating
ĠPartners hip
Ġanticip ated
ĠAdvis ory
oler ance
Ġvol tage
Ġpract ition
in ja
Thread s
Ġb uff
current Time
Ġcy cles
Ġpra ised
f ixture
Compar ator
W ed
b ash
out ed
R en
Ġrecogn ised
Ġsc ar
Callback s
Ġbatt les
B attle
Ġs li
< '
ĠG MT
19 02
ip ient
ADD R
Ġrecip ients
ĠF ashion
ĠY ellow
Ġexha ust
Ġd uplicate
ack er
is se
PO SE
, ,
Ġ$ ('.
cl osing
Ã© n
zer bai
Cred ential
A wards
ĠV lad
PROP ERTY
V ars
W W
ad en
Ġch icken
Ġcons iders
g pu
ess ors
APIENTRY P
ĠC amb
c nt
om al
LE AN
Ġto b
F un
Ġ] );
Ġnormal ized
> ")
Ġhand ful
ĠCOP Y
F atal
Ġd ign
Text Field
AN Y
Doc s
Ġan alytics
R G
Id le
ĠU INT
Ad just
s ized
Ġfear s
l uc
Ġtrust ed
ĠAn imal
abul ary
Ġcare ers
ĠEvery one
G LAPI
et ta
Ġh orn
ber y
Ġph osph
æ Ķ
Ġre ceptor
ÃŃ n
Ġcompos ite
p ine
ĠEth iop
Ġlic ence
Ġ' )
Ġcl ine
ĠF ri
N ORMAL
ĠC WE
op ol
Ġcogn itive
ĠB achelor
Ġarr ives
Ġpull ing
19 03
Ġsk i
Ġpredict ions
ĠT igers
file Name
Min imum
f v
ï¼ ļ
åı ĸ
j vm
Ġh iding
In stant
WIT H
per form
cover age
s u
Ġa er
ĠB ud
Ġens ures
S yn
Ġbel oved
Alloc ator
ter ms
ener gy
Dem o
p her
ĠP ush
P atch
Ġh ierarchy
W ER
Ġstrugg les
Get ter
Ġar ithmetic
IG H
ĠS afe
ap k
Ġabs ent
j sp
he nd
Ġpl acing
ĠQu ick
ĠT u
Ġ" {
ĠStand ards
Ġgr avity
ĠH H
Ġattack ing
Ġcirc ular
avor ite
ĠM illion
In side
WIN DO
ĠI o
Ġver bose
Ġimag ination
con sum
Ġres erves
LE T
at ched
get User
CONT RO
Ph aser
ĠWild life
Ġs ake
ib lings
Type Def
ĠAl ong
as ia
J ose
par agraph
ĠR aid
olog ically
Ġdefault Value
aw ait
vet ica
then Return
mk dir
Ġalter ed
ĠT ell
Ġcheck sum
ĠPar ser
Ġbank rupt
Ġr iders
æĹ ¶
il ib
ĠĠĠĠĠĠĠĠĠĠĠĠĠĠĠĠĠĠĠĠĠĠĠĠĠĠĠĠĠĠĠĠ ĠĠĠĠĠĠĠĠĠĠĠĠĠĠ
Ġviol ations
MPL ATE
Ġd ocker
Ġc am
Ġany body
Ġden y
ĠLuc as
Cur ve
TIME OUT
ĠA round
azel cast
ĠGener ation
Ġg auge
Ġstr ain
R pc
end ent
sh rink
Ġdes erve
ĠU g
Ġreal istic
ĠPark s
agon ist
Ġdrink s
Ġsup press
Ġpresent ing
s ap
Ġcre atures
ab br
âĢ ²
Ġco at
Ġspecial ized
ic ism
border ed
Ut ility
) }\
Ġf ool
ĠT un
Table Name
Con nected
Ġpsych ology
ĠJob s
d eleted
ong ue
ĠAl pha
Ġoblig ations
Ġsurre nder
ĠAPI s
ĠBer g
ĠSe q
ĠSu ite
Ã ĥ
in el
Ġh ooks
con tract
ĠD S
ĠR ugby
ĠL ooks
Hand lers
ocr atic
Byte String
g lib
Ġbl end
Ġactiv ated
ĠNAT O
Ġprivile ge
az i
Pro ducer
ĠCh i
N AS
Ðµ Ð»
Ġcorpor ations
ĠNov a
um i
ĠLeg end
Ġdemand ing
Ġup dating
Ġcomput ation
bo ys
ĠRoman ia
Ġwork shops
$ )
sequ ently
Ġtour ists
mod ern
author ized
Ra ises
Ġpro pri
ĠM umbai
ĠIn side
Ġp ole
ir us
14 8
ĠF LA
Ġrock et
Lear n
ĠF oster
Non Null
M id
Ú ©
Ġd ys
item ize
Ġhar sh
ic ion
Ġchar ter
Ġgr ain
h n
ĠSer ge
t ec
Ġclean ing
ĠSt atic
ĠE ld
ĠT ak
single ton
ĠMil an
or ic
Ġf ame
ĠD ennis
Ġsw ing
ä ¹
man uel
th lete
ĠMichel le
ĠW IN
sc ill
un ix
ĠL if
Ġset Timeout
Ġplay offs
B in
Ġrele asing
m ass
Ġst abil
ĠB ath
ĠR osen
SE C
Can ada
s ites
Ġmer ger
ĠTag ged
Ġc d
ĠM es
St ill
j oint
N othing
ĠF ake
ĠCom b
vis ual
Ġelim inated
ĠFish er
P LAY
Com pute
15 6
Ġaccompany ing
) =\
le ave
Th umb
C ong
ĠS L
ĠT ouch
C ircle
ĠJess ica
Ġd ummy
Ġdel ivers
Ġp ig
oot ing
Ġrem arks
Ġdec ay
act ors
Ġsh aped
ĠPhilli ps
ĠIn stit
res olver
Ġen force
22 2
Op code
zy me
Ġev ac
ĠEm pty
OFF SET
am ation
Ġp ink
Or Empty
Ġle x
v ik
Publish er
Work ing
ĠX box
ĠYork shire
Ġp ocket
Ġal igned
bec ause
Ġs word
/ ************************************************************************
r isk
ĠB ug
Ġj ournals
Ġmolec ules
ĠE ye
c id
ì Ŀ
as ive
{ (
ĠG host
uss els
). </
Ind ent
P en
CL UD
Ġb er
A RE
prot oc
Ġcompet itors
Ġtra its
Typ ed
ĠB uilt
ĠF an
ĠMe chan
Ġdon ations
IS H
c ern
am ic
ps y
col on
ME DI
uc ceed
open ssl
ER O
Ġshel ter
> *
ĠC IA
W M
ĠD M
cal c
Ġed itors
Ġ* **
Ġinter pol
Sh op
ç½ ®
PHP Excel
k now
b az
CLUD ING
Ġnot ing
access or
N ick
d yn
com ed
C ut
} =\
n able
EQ UAL
ĠG A
Ġo h
Ġpre lim
rg b
Ġd Ã©
Ġgr ateful
Ġart work
Ġsatisf ies
ch ing
30 2
ĠPer u
Ġqual ifying
S uggest
b ach
ĠAn imation
ĠS urg
Ġin clusive
Sm ith
inter action
ĠW ant
Ġre forms
Ġhe aling
re try
St eve
Ġsens ors
ĠS TE
Ġrol led
ĠRe ader
ĠNep al
M ilitary
V ill
ph ot
Git Hub
W hether
Ġs lip
O VER
So ftware
Ġch apters
Ġrad ar
appro pri
Ġorgan ised
ĠSur v
l r
Ġsurviv ors
ĠO thers
LOC AL
Ġpun ishment
è¡ Į
ĠS leep
(' \
Ġiter ate
n ational
ĠL am
ĠComp etition
M igration
ĠM ouse
effect ive
Ġcon clude
sc apes
g ary
ĠNot ice
l ua
Ġc igaret
Ġview er
B IND
] $
Ex ist
Ġdr illing
ĠWAR NING
ĠWe ather
Ġcon current
ob ar
D ele
æį ®
Or d
Ġsubstantial ly
Sc anner
Ġmod ifications
Ġgo og
Con v
sp ort
Ġro ok
role um
è §
in crement
"> :
uck land
EE E
Ġign or
Ġdiscipl ine
ĠMet al
Depend encies
Ġhydro gen
P references
r atio
Ġal ike
Ġcomm od
Ġfil ing
Ġmag ical
ĠWell s
Ġdist r
T alk
ĠAl t
Ġ) {
Char les
ĠTh under
Ġloc om
sh aped
ĠAm sterdam
ow ing
ĠArt ists
Ġprevent ing
Ignore Case
W as
Ġ* _
Ġun ions
é ¡
Ġc inem
ig g
math comp
Th ough
ĠCom mercial
asc ade
openc v
Ġcan nab
Ġnation wide
aw ks
d v
sh ine
heim er
ĠC B
Com puter
Ġc ord
Ad s
gover nment
S PI
ek s
Ġover r
D U
ĠDou g
aaaa aaaa
Ged mo
Ġdes k
writ eln
Ġacknow ledge
Ġo d
ĠC AN
Ġc s
RE L
Ġrespons ibilities
Ġg ateway
og g
F ive
ĠInt ent
Ġfest ivals
Ġtr unc
ĠInt el
Ġw orn
ĠAl ways
ĠC incinnati
Ġful fill
ĠY u
Ġd ressed
F ixtures
ĠSo on
c aster
ĠA DD
Ġint im
n ick
Spec ific
Opt s
Ġbi ology
Ġd uplic
ĠTr ain
Dis covery
Ġfarm ing
m and
Ġarg ues
Ġcharg ing
Ġsuggest ion
Ġf el
Ġelect oral
Ġb uffers
Ġend orse
Pub Key
iev e
Ġp sy
Ġqu ot
Ġnews letter
ri o
ĠCat hedral
im on
l is
ĠDirect ors
Ġexplos ion
14 2
eng u
Ġterr itories
Ġc rystal
Ġcritic ized
Ġshif ted
ĠC ertificate
ĠHit ler
æ Į
Ġnetwork ing
om eters
Ġexecut or
ĠL ED
Mar shal
ĠRepresent ative
Ġitem Members
ĠBut ler
sole te
ĠRail road
ĠCom pute
erial izer
ĠR uby
ĠPr adesh
auth ors
Ġbro ker
Ġtim eline
bour g
en berg
ĠJul ian
Im m
Ġcre ativity
Ġmar ry
ĠK i
reg istration
And rew
ĠHel en
Ġ' --
Ġworld s
writ ers
ili ary
Ġhor r
Ġl ane
ĠW A
m eter
u ant
EO F
p ark
ie u
ĠSk ip
20 6
er ie
Ġconsult ation
ĠBuff alo
Ġpl ug
Im plementation
ĠObject s
Ġpoll s
re ceived
ac ies
Lin ux
L ex
Ġmark ers
Ġdiagn osed
ĠG em
Ġag greg
Call ing
ĠWood s
Ġtact ics
J un
ĠDom ain
ĠT ags
ĠCl aim
Ġs hed
Comm un
ĠAd min
ĠLeb anon
ĠJ ama
child node
Ġp t
Ġaccept ing
Ġst er
Ġan alyt
ĠL ov
v or
æ Ģ
Ġs ans
Ġch lor
ĠSud an
Ġb atter
Ġtempor arily
Ġtechn ological
Ġc od
C OR
State Exception
Non null
re vision
ov y
Ġsc iences
Ġrenown ed
Ġwhe els
ion ic
rec ogn
Ġste ep
rece ive
ĠWork ers
Ġc odec
UB LE
Î ¯
A h
Ġb alls
expand ed
Ġtou ched
Ġspec ifying
Ġent ers
Ġnew er
ĠS old
Ġsustain ability
ex emplar
Ġgr an
Ġreg ener
cd ots
l ane
ens on
[] {
ĠMil waukee
as per
Ġbel t
Component Model
ĠAthlet ic
n r
Ġwork place
min or
ĠA SC
Ġviol in
ĠP ref
Ġin variant
Text Box
W C
Ġconduct ing
n ut
ob server
Ġredu ces
ĠCh oice
ĠHeb rew
Ġr ush
Ġret ro
ĠSet up
Ġp ause
y ellow
tr aining
ĠColumb us
Ġvol atile
ad ic
Ġso ap
found er
Ġrecommend ation
ĠE u
Ġinf lation
ĠPier re
Ġwh is
normal ize
H H
Ġdr ain
List View
) ](
start ed
ĠO bserv
â ĸ
ĠArab ic
Â ¶
In vest
ĠB omb
com press
ĠBr ain
d h
Mut ex
Ġres id
Ġs cheduler
ia o
à ¦
Ġp id
Ġarchitect ural
ä ¼
ĠE L
Ġhead line
Comp ilation
dep s
hol m
ch air
ĠSp encer
ĠF est
Ġfile Name
ĠPlay ers
g ateway
str ategy
Ġden ote
ĠC off
Ġhere in
Ġst ret
ĠTreat ment
Ġsc ales
Ġsoci eties
transp arent
ĠUs age
or ator
Ġto ll
ĠForm ula
t b
rupted Exception
OUT PUT
Ġsh irt
per m
plic a
Cal c
g ement
é Ļ
re z
os hi
l ap
ET A
ĠF oo
Ġexpl ores
Ġmiss ile
ĠProgram me
Pop ulated
orpor ated
Ġnew est
Ġun used
ĠT F
Ġexpl aining
ĠTH REE
Ġconcert s
H aving
W ashington
ĠDi amond
ĠE ug
Ġprov incial
Ġqu ota
roll ment
Organ ization
SH OT
Ã¨ re
Ġmin isters
Ġun clear
ĠBob by
ĠSE LECT
Ġun iqu
INTER N
Ġmem o
Ġdist ant
Ġv in
ĠEn um
Ġm akers
Ġd atabases
ĠR ams
ĠR alph
Ġlaunch ing
Ġst reak
Comp atible
Ġb reat
Ġinvest ed
Contin ue
for um
per malink
Sl ide
Ġdistingu ish
Ġbench mark
oca ust
Ġg ast
CLU DE
go als
P a
Ġnumer us
ĠFour th
te chn
Trans actions
Ġcoll apsed
âĨ ĳ
ĠK el
or p
S ym
ĠL atest
:: _
ĠBen ef
Ġs z
Ġachiev ing
ĠBi ology
r ag
Ġmed ic
} &
> ".
Ġtob acco
ĠSpe aker
Ġyield s
ĠL ar
30 8
ĠValid ation
ĠBat man
ib e
Ġlimit ation
Col ors
FAIL URE
ĠT IM
D igital
ost ream
Ġne ural
ĠAb raham
Ġassum ptions
ĠM aps
ĠL is
Ġdam ages
gr avity
ĠFr ances
Ġtri be
aj a
ĠLink s
d up
ĠE agles
w m
Ġcons erv
s nap
. ')
ĠB A
Ġmeas uring
Ġfurn iture
Ġop s
ĠHug hes
ĠN amed
Ġ ))
Ġcur riculum
ĠS occer
ed ing
br ains
Ġbar riers
ĠAnt ar
ĠEmer gency
In c
ĠPar ish
Ġ× Ķ
k an
ĠInt egr
æ Ń
ul er
Ġsw ift
ĠIm prov
Ġcru ise
M ur
Ġg host
op eng
Ġtrans mitted
Ġcompar able
ĠK aren
ĠB our
Ġwitness es
E U
}} (
Ġm as
man ual
Ġload s
ĠM ong
N an
Ġnon profit
ĠP P
Ġfl avor
ed e
ment ed
ĠRel igion
Bal ancer
al ways
Ġfin ancing
u u
min imum
f ilm
({ },
Ġtw ist
ing o
Ġear ning
15 9
ĠPar ad
i able
end l
Ġ' [
Ġentert aining
Ð¾Ð º
Ä ħ
ĠPal in
× Ĳ
Ġcollabor ative
Ġguitar ist
Ġkick ed
ĠM ann
ĠD ol
"> @
Ġelder ly
ĠD ynamic
int egration
Ġadvant ages
Ġam end
Work flow
alloc ate
Ġhapp iness
Ġsoph isticated
ĠAd vert
Code Dom
Ġadv ances
Ġfiction al
Ġcancell ation
ĠHash Set
Ġin duct
rip ple
ag ar
Ġass ists
Ġstrugg led
ĠIniti ative
ĠBenn ett
t ou
Ġf illing
th ink
Job s
s cheduler
Content Type
th reshold
ĠM ul
ĠPhilosoph y
ĠLeon ard
ĠJ av
DEF IN
se p
Ġur ged
it us
Ġconsult ant
So ft
ĠR af
ult an
Ġball ot
ĠDefault s
Mix in
Ġdro pping
get Parent
Ġw ore
ĠEn cy
}) \
ot yp
pl ating
S und
Ġcloud s
ĠLaw s
Ġal gebra
18 70
Ġpeace ful
ĠAt tributes
DA Y
s uite
Ġfight ers
render ing
J oe
p ow
ĠI van
Pro duction
ãĤ ¹
ul ent
() }
ĠLa unch
k el
Ġacc us
raw l
ĠJul ia
Ġdro ps
, [
Ġgard ens
im ity
ĠG len
con sumer
ĠIS BN
Ġd ock
ĠT error
ĠN ebraska
g ent
ro ject
ĠRe ed
Ġcirc les
Ġnob le
ĠS ter
Ã¡ s
Ġcle ver
BU F
Ġbenef icial
ĠSal v
Japan ese
}^ \
Tr ust
Ġtre ating
ĠSche dule
ĠH ob
t pl
Ġcor poration
Ġrel ate
ĠAR M
Ex act
B uffers
Ġin fections
M ULT
z eta
Ġwas h
:// $
Ġhon ored
Ġcart oon
ĠEx ternal
Ġlic enses
Vers ions
J ac
Cl ub
gom ery
per formance
Pos itive
ĠA CT
? ,
Direct ive
ĠPhys ical
Ġins pection
Ġw it
Ġ" \"
ok o
ĠZ ion
SY STEM
ĠWall ace
18 60
Se ason
up iter
ĠD aw
FE ATURE
Ġsub stitute
ĠGL float
h istor
Ġflex ibility
Ġpropag anda
XXXX XXXX
ĠCO MP
ĠLie utenant
it ize
ed uc
") ).
ĠS TD
ĠGh ana
ĠR ather
ib us
Ġd in
user Id
ii i
ĠT ools
det ect
am on
Ġsub tle
moz illa
d in
Ġlaun ches
Ġver ified
Ġautom ated
ĠJam ie
p it
Ġt anks
ak ef
Ġcub ic
W all
source forge
Ġleg ally
p ane
Get ty
ism atch
ĠSc ar
assert Raises
Ġpra ise
Ġshall ow
Ġcomp anion
Ġcent res
REQ UI
B ay
Ġprest igious
Project s
Key Value
Ġaccommod ate
bul let
Ġdemonstr ates
et ric
pop over
ĠF DA
ĠO ri
Â ½
Ġin cons
ĠJ ake
ĠY e
Ġassess ed
D TO
Ġalloc ate
Ġbl ues
inst ances
Ge ography
ĠU TF
un i
ra pe
he w
Get Type
cipl inary
] =
Ä Ļ
Ġvac ation
Ġo mitted
Ġachiev ements
ĠR ice
IN LINE
' </
Ġ$ (\
EX CEPT
ĠArr ays
oc on
Ġintrodu cing
fold ing
Ġfl ux
15 8
Ġdisappoint ed
Ĺ ãģ
D eleted
TR ACE
Ġadv ers
at iv
focus ed
P ID
Ġh over
>: <
IT EM
Ġtransp arency
Ġw are
Ġsurv iving
ĠP rest
Ġm others
im en
ar an
ĠE ve
root Scope
T unes
ĠC ant
ĠLu is
But tons
> ?
Ġt u
Ġcelebr ating
t odo
Work space
ĠVari able
unc an
ĠMont ana
work space
Ġthreat ening
ĠGu inea
ĠC elt
bro ok
ĠTam il
Ġf lip
ch r
Ġh ills
t elling
ĠD od
ĠArt icles
Ġcop per
ĠTrans fer
Ġgirl friend
S NAP
em p
ĠGr ade
publish er
ĠK in
Ġcr ick
thumb nail
Ġf are
Ġdiv ide
Ġhope fully
Ġpro pose
ĠUn c
Ġnumer ic
habilit ation
Ġs ew
ĠI BM
ĠV e
ĠPh ase
Ġfif ty
Ġsk illed
Ġworth y
Ġoccur ring
Ġnot ifications
mir al
ĠCy ber
ul atory
Ġ{ !
control led
Transform er
Ġ[ #
Ġtri o
R F
k ers
Ġb ags
Ġe ars
ere k
Ð°Ð½ Ð¸
Ġf printf
Ġcelebr ity
Ġd os
Ġembr ace
t ier
ĠBar ack
ĠMult iple
60 1
Ġc attle
ir q
Ġcell ular
Ġconsist ency
Ġvar s
" ):
Ġreg isters
AL LOW
Ġrout ing
Ġthe orem
b ishop
ĠComp anies
Ġattr actions
ĠU SS
Ġeth ics
ep h
15 4
u els
ier arch
ĠAn cient
ling ton
Ġdest ruct
ĠCor porate
is ch
Ġsc aling
6666 66
Ġfit ting
Att ach
ĠM T
print s
' ><
US H
Ġdark ness
Olymp ic
Ġs od
15 3
ĠPro b
Ġ{ $
ÑĨ Ð¸
enc ia
Ġpro sper
Ġb ugs
Ġas ym
Ġpl ates
ĠD MA
Ġmodel ing
UNK NOWN
non umber
ĠCond ition
yst er
ĠCr icket
at ra
19 3
has Next
Ã Ĥ
ĠC inema
ĠPo inter
sp aces
Ġbl ast
ĠGro ve
Ġtradem ark
ĠC ad
Ġexp end
Ġor chestra
und o
ĠStr ong
Ġ\ (
Ġsacr ifice
Ġfil med
Ġcro ps
ĠGard ens
ĠC u
m are
direct ive
~ $
Ġgrand father
Ġyoung est
ĠC ert
enumer ate
ĠMO RE
Ġnumer ical
Ġamb itious
ib lical
ĠY am
ĠFor ward
ĠMe an
ĠH P
Ġintr ig
Ġisol ation
le arn
fef efe
m idi
ĠInt o
s uggest
re load
Ġcon form
Ġbeat en
Ġemp ire
FIL TER
Ġin fect
Ġped est
Ġoccas ional
Ġb uses
Ġl ingu
Ġqu adr
Ġins ult
ĠBl ake
Ġun ity
Ġsl aves
do ct
Con trib
Ġpoll ing
Ġconsum ed
Ġcomp ress
38 8
Foot ball
ĠInf antry
5 50
Ġdon ation
ĠSher iff
Ġn u
Ġdifferent ial
ĠÂ «
ĠModel s
Sort ed
red is
We ak
K S
Request ed
ĠAlbert a
Ġn umpy
Ġfinal s
Ġu uid
Ġplay off
exemplar City
ĠU ntil
Ġconcentr ations
1 200
feed back
å ¾
mock ito
/ :
6 50
ĠUn ivers
Ġ? ?
Ġelev ated
Nd Ex
cul ator
Ġsp arse
yl on
mem item
at trib
Ġwel comed
Ch rome
Start ing
ĠO w
Ġconst expr
à¤ ¿
Ġre build
Ġw ard
ĠS or
Ġref use
0 10
C ritical
i ance
ĠS ans
ĠS ierra
ir atory
Ġinv ite
Ġattr action
ĠC ord
Ġe gg
ort ex
power ed
Ð¾Ð ±
Ġpro port
tr action
Ġtr agedy
Ġl ig
Ġconn ector
18 5
h dr
Ġresearch er
Ġmain tains
Ġ( {
Ġdisappe ared
getElementsBy TagName
c ov
rott le
ĠPsych ology
Ġcred ited
ĠThrow able
Ġl on
keyword s
) ");
v t
ĠEconom y
Ġs que
iz ational
ambig uation
Ġlast ed
Ġbe ars
Ġch rome
add itional
Ġmod est
b re
c url
Ġdiscuss es
ĠPalest ine
comp act
Ġinterview ed
ĠPal m
j en
18 99
Ġmetab ol
st ad
ĠCatalog ue
Gr and
Rect angle
m aint
ĠC ox
Ġtr ap
Ġdescri ptions
Ð¾Ð ³
Ġprevent ed
) ',
Inf os
Ġch aos
D K
elect ric
Ġther ap
Ġp unch
le w
itt ers
A MS
Enc ryption
ĠMan ufact
80 80
amp ire
match er
Ġ iv
Ġnav al
Ġcous in
AR M
ĠRe yn
ĠB MW
å Ŀ
Y ES
c ms
g iven
Ġsubsidi ary
M acro
ĠSimilar ly
PRO G
Ġcast ing
Ġbal anced
M ic
ĠGrow th
18 98
m q
} ">
in as
Ġg am
CA SE
ind uced
17 6
KEY WORD
. {
ĠR uth
FO UND
ĠB orn
ov ic
ark er
cept ors
c g
Ġt abs
Ġsystem atic
M att
Ġp kg
Ġhistor ically
Ġs phere
Ġcount ing
ĠNav igation
J er
it les
char At
3 10
ĠS ax
ĠK yle
Check Box
Ġpan ic
Ġind ication
m aml
ĠW rest
ici ary
Ġeth ical
am mat
pres erve
U IT
h ort
Ġw ise
Ġrem inded
ast ian
Ġint ens
Ġfeed ing
C Y
Ġfl aw
Ġmem orable
ĉĉĉ ĠĠĠ
Ġcre ature
Ġexp ose
Ļ Ĥ
ĠFI FA
M i
ĠAust rian
Ġdesper ate
Ġbr idges
c ies
PRE SS
g ue
Ġjud icial
================ ========
Ġcontribut or
ĠMarc us
Ġc ere
Ġin verse
ĠG aza
je ctions
At Index
>. <
ĠSo ft
Ġrem ind
At omic
LOC ATION
ĠB SD
ĠInd ependence
EN SION
Ġdistinct ive
ĠL ayer
Ġev t
Ġcor rection
ĠAn im
M vc
d evelopment
CONT ENT
Ġwork force
ch ip
Ġvir al
Ġdim in
F und
ut er
ĠM ER
Ä Ł
å ¸
ST ER
ĠUp dates
Ph ysical
Ġtrav elling
Ġreven ues
Qu ota
Sin ergi
um bo
ĠL an
Ġu k
Fin ish
Ġcapt ion
ĠOr lando
ĠG ate
Tool tip
' ></
× ©
Ġg ifts
Ġshe ep
brit ies
Ġr pc
Ġsleep ing
ĠHe aven
Ġnot ation
ĠCoun ter
tw ig
Ġcontribut ors
Ġprelim inary
Ġgu ided
Ġsm allest
Des criptors
30 3
SE SSION
col lections
Ġor th
Ġmass es
l ishes
t ic
> =
idd ing
h im
"> )</
Ġlaw makers
Ġ<!-- [
ĠU int
)) :
') [
Install ation
Ġle ak
Get Value
ad vant
comm unity
Ġo c
ĠMin i
id ity
C AN
h ou
Al ready
bet ween
ĠAll ah
ethe less
- %
S pl
f eld
ĠGil bert
Ġdis rupt
MA IL
Sim ilar
d an
] "
d ue
Â £
ĠMe et
pe st
ĠS it
ĠToy ota
ew ard
Con nections
Ġin quiry
G reg
Ġb ol
olec ular
el if
ĠUtil s
ĠK il
I ran
Ġparticip ant
initial ized
ĠG uild
ĠE mber
Ġsub t
asci i
Q R
M gr
Ġdecor ated
r ise
Ġs ang
EX P
um ed
att ice
Ġexpl ored
ĠFlore nce
Ġglyph icon
Ġde alt
Ġelement ary
F ood
Im plicit
Pack ages
ĠSac r
ĠLeg acy
% ),
U uid
ĠM ob
ĠÃ ī
Ġdisag ree
up al
Dis pose
ĠTest ing
Char Field
ĠS weet
Ġper f
r ating
ph is
Def initions
Gu ard
\ ",
ĠHar bor
ç ī
inter est
ow l
is y
Ġ@ {
Ġex empl
Ġun ited
Sp ot
Ġmillis econds
x FF
ĠN ear
j p
ac i
Fr iday
97 8
ĠG NU
ct uary
St ock
type Name
Manager Service
Ġp el
node Type
Serial ized
ĠWar riors
Ġun cle
ĠTr inity
E MPTY
fore ign
Ġ rib
Ġover night
Ġsac red
re start
Ġres pected
Ġwork space
67 8
vel t
ĠBr andon
Ġnormal ize
Ġstom ach
h ydro
Cal ifornia
V k
is ure
17 7
ro les
Ġbe aring
Ġspons or
art et
18 2
Ġagre es
ĠR B
ĠR idge
ord ion
Ġten ure
v p
Ġassert ion
Ġswitch ing
Ġunn ecessary
cer pt
Print f
ĠVerm ont
ĠAr ctic
Ġdig its
Ġadminister ed
ic ans
ĠB ald
ĠSt uart
RE EN
Ġcalcul ations
ĠS ays
Ġcur ves
mar ine
ĠArch itect
ok emon
Es cape
illi an
Ġprotocol s
ĠBrook s
Ġtrail ing
Ġsent iment
ĠConf eder
18 8
l iter
Ġs our
Austral ia
p ause
Ġelse if
ĠB ach
ĠL arge
ĠH erald
Ġor chestr
ĠN urs
Ġstat ue
7 68
> ");
ĠR an
Ġselect ing
ĠJeff rey
ĠAn alytics
YY YY
y ml
Ã ī
Ġc ir
ĠInd igenous
I CT
Ġres ist
Target s
C AR
Ġcivil ians
s al
Ġv a
k u
Ġpul se
ĠIn struction
Ġperform ers
i eg
ĠN ine
Ġn est
ov an
Ġche ese
Spec ify
ĠF at
^ (
Ġg rap
Tr avers
J av
W IDTH
g ol
Ġ_ ("
E le
ĠR ah
Ġcert ification
ĠN J
we ights
El se
lear ning
dr ive
ĠS ame
ĠDel aware
Ġg aining
et al
ĠL ud
dist ribution
ĠE ddie
Ġrel ay
ir y
play ing
hom epage
IN TEGER
olog ic
:: ~
Ġp unk
Ġsh ar
Ġhol idays
r te
loc ations
ri um
'] [
ĠB og
Ġrefer endum
da o
ĠM iles
"> .</
r ated
ic ht
ĠG oth
O O
Ġbu zz
j ab
Ġon Click
Ġen semble
DE C
è¡ ¨
ĠSh a
be it
Poly gon
MO VE
ĠSom ething
l ighter
D IV
Rem oved
or ro
ĠP att
DE SC
Log ical
ij i
un used
log s
Ġtremend ous
Ġin cl
ĠSub ject
å ¹
te enth
ang ered
Out Of
Ġtrav els
ĠS election
Ġan ten
Ġint imate
Un icode
jet brains
Ġh orm
Ġinter ference
' $
ĠE S
LO T
ĠJ et
ela ide
Ġl as
Ġi Pad
el ia
ir able
ĠOver all
ng th
Ins pector
2 16
CK S
ĠR ey
ev ille
put es
Ġw ages
ĠM ills
ĠLe o
bor o
Ġm aker
v ance
Ġtri bes
are l
ĠAcadem ic
B ul
c ards
un al
åĲ į
Ġstake holders
ĠB ent
Ġconc at
Opt im
Ġthr iller
ĠC OR
un safe
æ³ ķ
View port
G lob
S ix
h ad
Ġinvest ing
ĠDub ai
ĠI Enumerable
pro logue
inherit doc
nt hetic
d ns
or f
ĠS PI
ĠU ri
Ð¸ Ñģ
) &
Ġp ian
Ġen compass
Ġimplement ations
by e
is ible
DA O
Ġ[ `
in ite
Ġf usion
ĠT D
ell ion
ĠP UR
) ^{
G allery
Ġo ught
SY S
Ġtranslate X
Ġmat hematics
Ġinf ected
Ġnow here
ĠH appy
io let
Ġannoun ces
Ġexc itement
w char
å ·
ĠClar ke
View Model
Ġarr iving
estab lished
w ig
ĠCh ang
Tr im
ch ars
ĠP av
ĠSc ene
i em
ĠNorth west
Ġnorth west
ĠG osp
Mar shaller
C AT
ĠIn cre
VAR I
ag ine
Ġdam n
s uffix
Ġ} }</
Ġclimb ing
Ð ¡
ĠShe ll
Ġsc rap
Ġproduct ivity
r idge
ĠPr ison
ĠR NA
Ġinv ocation
( ',
ud ed
ĠNew castle
18 50
ĠE ff
FUN C
Ġt ends
Ġ= =====
Ġhon ors
Ġcou p
omb ie
ĠM ine
Heading Color
un wrap
ĠG EN
Ap ache
Ġmedal ists
Ġpl aint
ĠC amera
Ġident ifies
ĠØ ¨
Ġlap top
umb led
Ġfit ted
Ġportr ayed
m ma
us a
w ifi
to Array
}} {\
Ġadvoc ates
B ibliography
Comp ile
10 16
T our
j ena
LI ED
Ġes cal
l ift
user Agent
iz a
Polit ical
Ġanth rop
Ġconfig urations
Ġharass ment
Call able
Ġexperi encing
EM ENT
6 55
Ġs lic
ĠN uclear
Rep ublic
eta iled
S el
w al
L azy
Ġpat rol
ĠEx pect
Ġconnect s
Ġtrans cript
it ored
Ġend e
") ),
Ġmuseum s
B inder
r outes
Re alm
Ġfle w
M irror
Ġper mits
Ġreserv oir
? !
x a
qu in
Ġst amp
Ġsl avery
Ġconv ince
M ex
ĠK ash
source Line
Ġsatisf ying
n f
ĠE PA
Ġmake up
Ġfoss il
wide hat
ÂĢÂ Ļ
Ġinteg ers
ro e
St amp
Ġâ ī
ap a
Ġ" __
Ġin ning
pos itive
raw ler
ĠYan kees
Ġtradition ally
M ARK
r ases
* (
b ane
Ġexpect ation
Ġpoly mer
ĠAss essment
ĠBl u
ĠS ed
IF ICATION
sort ed
ol ation
ĠCoal ition
inc eton
Ġwitness ed
ĠC ities
Ġresource GroupName
ĠIndian apolis
ose velt
ĠMet adata
Ġd ivers
deg ree
Mov ie
IM ARY
è¦ ģ
For Key
sp lice
Pro jection
Sc ience
Ġcomb ining
+- +-
S ong
ĠCh arg
Sh utdown
rt c
Ġproceed s
You ng
B roadcast
Ġ ../../../
Ġpack ets
Cho ose
Ġformat ted
r w
Ġl ymph
Ġ/// <
y g
is ers
dig est
E conom
ME TA
Ġlab eled
A verage
Ġb ubble
Index Of
ĠP ink
ĠL ynch
Ġden om
Ġt m
Ġthe sis
Ġ* =
ĠChem ical
ĠL ands
18 95
Ex plicit
ator ies
ĠTr ace
ley ball
M otion
Ġcollect or
pat ient
c riteria
Ġb icy
art a
ours es
ĠBrig ade
ĠCap itol
Y LE
Ġmer chant
ĠSerb ia
ĠHealth care
ĠEx ecute
prom pt
Ġp g
Ġs printf
ĠBatt alion
V ED
Ġet ern
] }
ĠA id
Ġconsum e
ĠBrad ley
pl aces
ĠPr im
Ġsynt hesis
ĠPhot os
ach i
17 4
Ġplan es
or ne
Ġcitizens hip
ĠColon el
Ġrec alled
Ġback wards
Ġcannab is
ĠC ash
R M
Ġ` --
- "
Ġthe ft
ĠI con
Ġfall back
dat as
ç ¤
re ls
Ġhol y
ĠRes olution
Ġret reat
Ġm eter
Ġstr ide
Ð¾ ÑĤ
Ġ& \
Ġdemand ed
Ġs urname
Ð¾ Ð½
or ian
> $
Ġav iation
th al
C AL
"> {{
depend s
Dr ive
process ed
b anner
Ġb ishop
ĠM Y
Ġearthqu ake
Ġle ather
Ġtr ait
div ision
ĠY eah
Tr ansp
Ġcheck point
pr ising
Ġun fortunately
n v
re comm
Ġb arg
pred icate
ung le
Ġtra ject
Ġprior ities
Tool Strip
if fin
Ġfor ty
start sWith
x t
Ġ Ñĥ
Ġtool tip
Tele vision
comp at
p se
ĠC ool
Ep isode
V ir
act ivation
Ġhe ating
Ġ[ &
duct or
ĠLegisl ative
ĠA A
He art
Ġque en
Ġridic ulous
Ġconv iction
Initial izer
Ġfif teen
Ġdyn asty
SNAP SHOT
Part icle
ĠVal ent
Ġpoor ly
DIS ABLE
s yn
ĠK umar
ĠC LI
Ġpitch er
é Ĺ
ĠÎ ±
Con sum
AR GS
Ag gregation
mark down
> {{
Ġarg c
ĠSp ark
h m
dev ices
**************** ********
al bum
ĠW ag
Ġn ons
ore sc
ĠPal mer
Ġn inth
ian e
ĠRep ly
ĠMc Donald
claim er
Grad ient
Ġab b
ĠÐ½ Ð°
× ŀ
st ones
Ġop posing
Not able
Und efined
on aut
comple tion
Ġox id
P referred
ĠCall back
St e
cap acity
Ġassum es
Ag gregate
ä¸ Ĭ
LE X
Ġre interpret
Ġreg ression
Ġpath way
Ġrel oc
% ">
ĠV ic
Ġfre ely
Ġl hs
Ġassist ed
å¯ ¹
ĠP ont
Ġg ut
mult icol
ĠS ah
ĠSh ows
ĠS ources
Ġnot ified
Ġper ipheral
C ENTER
17 2
rot ate
F K
Ġim perial
Ġterr ain
Ġt ender
im an
Ġend l
ĠEx port
Ã³ w
if s
ĠLe eds
TH ON
+ (
ĠS IL
ĠN g
ced ented
ĠB ee
ĠW u
b ay
ro v
Ġimag ery
3 80
Ġ è
Ġf oster
ĠSh ape
uls ion
Ġste al
Ġgraph s
Ġbit map
Ġre ass
Ġmot ivated
ar ser
cred it
AUT O
A wait
R oles
Ġp ale
Ġam ateur
Ġexecut ing
Ġgovern ed
M oney
Ġcol ours
ĠDef inition
ammat ory
lo y
Ġaw k
ĠA uckland
Ġsurve ys
st y
++ ]
final s
bel ow
Rel ationship
ĠSpec ifies
v space
ĠTerr itory
ĠR ural
ĠB uch
ĠE t
Ġmob ility
Ġfle sh
Ġmin eral
Ġess ence
Ġobl igation
ĠS N
ĠR oche
Ġsearch Box
Ġdis contin
SE D
Ġmanufact ured
ĠESP N
) },
lic h
ĠSc ore
Ġcontinu ously
Ġch ore
Ġto ss
Ġequal To
ÏĦ Î¿
Ġgr ades
Ġmag net
um m
Ġn erve
=' #
ut ron
Ġan notations
rop ic
38 4
Ġprotest ers
att achment
Ġce iling
ĠC V
Hash Code
ĠShang hai
ĠFunction s
Ġc v
ãĥ Ī
acc ur
Ġswit ched
ĠUn known
Ġdelight ed
ĠM ental
cent ral
Ġche er
Let ter
LAB EL
ĠVeter ans
Ġqual ities
B uy
ĠC li
ĠAt hens
ãĤ ĭ
ĠS oci
ĠU UID
clean up
] ):
ĠDes cribe
H AS
r in
Ġf ab
Ġb ones
Rem ember
um ing
ĠP T
col ogical
Ġto ile
Ġrel atives
Ġsub scribe
eq z
D N
IRT UAL
sp y
ĠGr ave
Ġaltern atives
Ġgr at
æĸ ¹
ust ering
64 0
m igr
Ġrenew able
Ġa meric
ĠH arm
ĠRE ST
ĠPy Object
Buffer ed
Ġr ay
Ġelev ation
ĠKnow ledge
E AR
ĠEx pert
20 7
ov ich
Ġkn ife
Q T
S aturday
Ġad oles
ĠHe at
Gr ant
andid ates
ĠEv il
f ork
Ġm aj
cont aining
uc le
Ġmechan ics
ab we
d ac
Ġjump ed
p us
ĠTre nd
al in
Ġreg ards
ĠCroat ia
D am
âĢ¦âĢ¦ âĢ¦âĢ¦
ĠA zerbai
ag ne
per missions
ĠElect ronic
per ed
ĠCh ase
Ġtable Name
Ġaccommod ation
å ī
Ġpolit ically
Ġ'/ '
ĠViol ence
Ġunem ployment
= _
ĠPro blem
ĠRe uters
ĠBo eing
Ġpurs uit
P TR
Ġb out
ant om
P ot
Ġx hr
Writ able
/ @
ĠPr incipal
C ES
an che
Ġl n
Ġgu ards
All ocation
ĠCab inet
Ġrevolution ary
ĠS ort
( _.
in ology
Analy zer
g ro
s ix
Ġauthent ic
ĠG B
register ed
Ġlif ted
16 7
W L
Ġfar ms
A st
N BC
ĠSt ef
Leg acy
COL UMN
Ġp ays
ik er
Ġinsp iring
ĠEx ecution
a uses
set Name
Ġdirect ories
ok i
ĠR ush
S uffix
INTERN AL
sh utdown
Ġf ights
LA ST
Ġdram atically
ĠNot ification
ĠE agle
ke leton
18 96
ic ers
ĠE ither
ĠArn old
? '
d ij
CA ST
18 7
ĠHol mes
iss on
Ġspeed test
ĠMic he
Am ong
Ġd x
ĠW ine
Cl osure
Ġsurg ical
: ",
iv ar
Ġ( &
ĠG and
Ġcou pling
ĠB ir
IFI ER
Ġk ills
ĠS DL
id le
ĠJo an
ou x
ĠPresident ial
Ġt witter
16 1
ĠG ang
status Code
Adv anced
G esture
Ġg est
3 40
23 5
ĠS ens
Ġtra uma
ĠMc L
Ġlength s
ic acy
Ġpreced ing
ĠAUT H
hav iors
Ġshif ts
Ġ" *
be havior
ĠT iger
Ġc ad
Ġby pass
Ġtour ing
ne q
cit et
Ġunf air
e ctions
ĠCol in
izar re
"> =</
Ġab oard
Ġcorn ers
Ġd ear
Ġshow case
ev es
Ġpr icing
Ġrel uct
ĠS PE
ĠE ight
Ġsh ield
Ag ain
Ġnurs ing
D ash
M EN
Dir ty
n m
Ġinter vals
Ġchemical s
pr us
ĠB anks
Ġproduct ive
Ø ¹
Ġtr ucks
mat ched
Ġt il
Ġlit igation
S ir
}_ \
Ġfro zen
in ians
Enumer ator
Ġstr len
Ġround ed
Ġs ap
Rep orter
h art
Ð Ĵ
IN X
Ġspeed s
oun ces
d ims
i ary
Ġexc use
ĠZh ang
Ġsp are
datab ind
Ġpreval ence
n od
Ġcent ered
ĠLe ad
Ġcomb inations
Ġst ones
ĠE aster
Ġmax im
S ING
Ġcompos ers
pro portion
17 3
}^{ (
ĠP ul
ĠAng els
Ġserial ize
Ch ars
ers et
In herited
ĠMe asure
H alf
il ers
Ġpar as
Ġkid n
æķ° æį®
Ġfe as
Comm unity
parse Int
rid or
ĠSu z
ĠUn supported
P IN
qual ified
ett i
b ill
Fl ash
ĠK itt
imb abwe
Ġcab in
ĠB in
Ġclick ing
Ġt ongue
Hash Set
count s
ĠMor r
Ġfin est
ĠBry an
ĠV as
Ġn aming
ĠPre vention
A mb
G erm
ew idth
ĠInd ividual
Ġprogress ion
ĠS tra
Ġreg ret
Ġrect angle
h orn
Service Client
E li
ob ic
avel ength
bl ast
Ġinvest or
ĠCris is
jav ac
Ġpublish ers
ĠSequ ence
ĠT ang
ĠĠĠĠĠĠĠĠĠĠĠĠĠĠĠĠĠĠĠĠĠĠĠĠĠĠĠĠĠĠĠĠ ĠĠĠĠĠĠĠĠĠĠĠĠĠĠĠĠ
Ġstar red
L y
an ian
Ġsurprising ly
ĠGerm ans
Ġneg lig
ĠðŁ ĳ
r ss
che l
ĠHor ror
Ġwrest ling
Ġsport ing
er als
Ġtr ails
17 8
Ġstruct ured
4 000
| ^
op al
ĠH av
Ġout lets
gr ades
/* .
ĠID s
) `
ĠHung arian
end ant
Ġinsp ire
Ch inese
ĠCl aire
Ġdistribut ions
ĠB rief
Ġmot ivation
term inal
Coord inate
Match ers
hy dr
multicol umn
M Y
SET T
l ater
18 9
Ġlack ing
17 1
TC P
Fr ance
Per formance
ĠS yl
Ġopen ly
Instance State
VER TEX
T own
ĠÃ Ĺ
ĠK or
por al
Ġpil ots
t oday
Ġo scill
Ġh iring
av ern
Ġbes ides
2 15
Be ing
Ġoverl ap
Q uality
at em
Ġep och
æĸ °
Ġintern ally
View er
ug osl
sourceLine No
Ġr het
Ġdis closed
Ġrespond ing
Å Ļ
Ġg orge
set Property
Fl at
poll ing
x si
Ġrec ipe
Ġref res
It alian
Ġend less
æĪ Ĳ
IB LE
ĠPop ular
ĠGit Hub
Ġcoord inator
Ġele ven
Ġport able
Ġr ivals
comp atible
require s
Ġph ases
---------------------------------------------------------------- ----------
Ġv ic
ĠW inds
not ated
macro def
cc cc
layout s
Ġbuy ers
K n
ĠM ull
Ġfinal e
ĠTreas ury
ĠT S
her its
ĠAmb assador
Ġin set
Ġexcell ence
B UT
Ġa u
aw i
Ġact ivate
ag ain
00 3
Ġill um
Ġ[] *
D ump
ĠG az
ific ant
16 2
Ġse al
Ġwork flow
T s
ĠBudd hist
ĠW or
Re peat
Ġdel ays
20 9
vis ions
Ġhom osex
Ġpartnership s
Ġb ell
urs ion
ĠA str
Ġdes erves
Ġdep icted
og r
ĠLog in
Ġmigr ants
l ord
pre ter
Ġadvoc acy
iv id
Ġdipl omatic
umul ative
O Auth
ĠL ists
ĠP K
form atter
Ġequ ival
H am
ĠR ena
Ġquestion ed
3333 3333
Ġnom inations
ĠV ER
flu ence
Ġn urse
at um
ĠS ullivan
get Path
Ġvalid ity
ĠD ame
Ġres ize
C irc
p ip
Ġcount ed
Ġmatch er
ĠLi u
à ¹
Ġdraw ings
Ġbes ide
M IC
ĠIs aac
ĠIraq i
Ġcomp assion
ĠGreg ory
bit map
Ġaw ful
K ar
Ġclip board
æ ģ
rot ation
r ab
40 3
ACT IVE
Ġtranslate Y
ĠH ugh
Ġr v
hen g
Â ±
oun ge
Ġtr agic
Ġinst antly
Ġval ued
Sh ard
ĠCoun sel
k al
Ġoffer ings
eval uate
h ooks
and ed
ĠV R
Ġlast ing
Ġindex es
Ġprem ises
Ġless er
ĠCON ST
Ġappreci ated
Ġparliament ary
DE SCRIPT
à¥ Ģ
D roid
ĠT ampa
Ġe u
min o
rele ased
Fat alf
pl er
ide a
Config s
HE LP
ĠJos Ã©
P rior
Ġcontext s
Ġflo oding
Ġposition ed
ĠOper ator
track er
ĠProject s
With in
conn ector
ĠWest minster
K now
ĠProp Types
rele ases
ĠO VER
U ng
CH O
Ġdefend ant
LA S
m ans
Ġar ise
Ġconstit u
ĠPart icip
found ation
Ġbusiness man
ĠST ATE
>? [<
ĠR ET
18 65
Ġdo ctrine
Ġsur ge
ĠO FF
Ġver se
ĠSte am
econ omic
M ah
Ġh aun
r outing
ĠÐ °
Ġr ings
Ġemer ge
>: ][<
ATTRIBU TE
L ANG
ĠHe avy
dis ambiguation
g ap
Ġre un
18 3
Ġ* (
ĠNS W
Ġterror ists
mix ins
ĠB urg
im i
>> >
Ġget ter
Te chn
Ġlect ure
ĠVen ice
Ġc iting
ĠM ask
open ed
. ~
j er
Pl ugins
Ġdies el
ĉ ĠĠĠĠĠĠĠĠĠ
re pos
ne z
ĠPen insula
L os
Ġaccur ately
le et
Ġsup ern
ĠReg Exp
Ġb link
ĠF erg
ĠS B
add All
Bind ings
che z
30 6
Ġip ut
s omething
n ell
Get ting
G uest
d ash
ital ic
Ġgener ous
ĠJul ie
Ġpure ly
ĠChap el
Ġwithdraw al
av i
Ġul tr
ĠConst ants
sm ith
Ġc ats
RE PL
Ġisol ate
un icode
Ġattor neys
Ġse am
year s
head s
Ġbrut al
9 11
ĠA ber
ĠTh ai
Ġj unction
ĠD ylan
Ġvot er
Ð» Ð¸
ä ¾
ĠT ensor
d ead
the m
Ġcan onical
DE CL
ut able
Ġfor k
ast ics
ĉĉĉ Ġ
DEF INE
K ER
Ġconnect ivity
S dk
User Id
OD AY
ĠBro s
Ġther apeutic
atic an
Ġadministr ator
may be
ann ers
Address es
Http Servlet
c lic
ĠPro ductions
ĠLIMIT ED
ĠD h
rece iver
Ġshock ed
Ġen jo
M ime
Ġlink ing
Ġbehav iors
Ġbed room
=-=- =-=-
24 5
Ġperman ently
G LOBAL
Ġgar bage
Ġbound ed
R x
CI AL
Ġgod s
ĠImm igration
Ġb ust
23 4
ĠReg ulations
PR INT
28 8
ĠEll is
T ok
Ġd iver
18 93
op ard
Ġ[ (
ll a
ĠTom my
Ġp as
Ġharm on
cu ador
ĠN icol
listen ers
w yn
Ġbit ter
Ġmart ial
G a
ĠIn stitution
ĠTreat y
ĠV ers
Ġmut ation
e er
Ġartifact s
ĠI g
Ð° ÑĢ
ĠReg ulation
ĠStrateg ic
ur as
ĠM M
av o
Ġdes erial
CP P
ĠB ears
Ġp ist
pro per
Ġn ost
os i
Sever al
b io
Ġh r
C ook
ĠN UM
ers ed
enc rypted
ĠCh uck
Th us
Ġpat ron
ĠRun ning
RA W
amar in
ĠHol iday
ĠSQL Exception
ur ious
ĠInt roduction
ĠTour ism
St udio
Ġarg uing
Ð° Ðº
mess aging
ovak ia
g ies
ĠLind a
ent r
ĠMan ual
Ġbab ies
Å Ħ
Term s
Ġ' ;
Ġun icode
mention ed
Ġc ant
transl ated
le en
libr aries
Ġtr apped
Ġl ac
Ġse ized
ĠBa iley
ĠM ik
Ġreason ably
ĠP ER
18 88
18 97
S eed
my Item
Str ict
Ġaffili ated
ST AMP
gle w
ĠC UR
Ġcomp romise
s ensitive
Ġca ution
Out er
P B
Jew ish
Ġre ck
ap or
h on
z el
ĠBes ides
Ġassert False
Ġref id
ĠMont gomery
Ġcoeff icients
author ization
ä½ ¿
le ad
ih ad
Ġm ud
ĠH urricane
Ø ´
Ġreve aling
Ġ ç
In crement
l azy
SP H
à¤ ¨
Ġnational ly
Pl ain
Ġgl ory
ĠD awn
Ġdest inations
Ġc urs
Ġadd iction
Ġdemonstr ation
F lex
ĠE c
ten ant
Con str
DO C
Â Ĵ
ĠGl enn
F W
Ġpro secution
ĠRe ally
ĠP apers
te in
23 1
Ġ ë
Ġprodu ctions
COMM AND
Ġexped ition
or ida
umb ent
ĠS ync
R ele
> ]
Ġview port
ĠRo osevelt
S leep
Ġtem pt
m ob
and le
Ġen rolled
ĠMaterial s
Ġm im
ĠG ill
li ant
ĠPow ell
ĠT ol
is ive
L M
Ġcomb ines
ĠEl se
ĠLook ing
Ġpros pects
Ġ" ../
ĠĠĠĠĠĠĠĠĠĠĠĠĠĠĠĠ ĠĠĠĠĠĠĠĠĊ
ĠH ait
Ġsouth west
ĠM az
C oun
ĠF u
omet own
plit ude
gr and
ro bot
ĠK oh
Ġdrop down
en os
ĠA RE
ĠW inn
(" {
Ġcontact ed
P rec
19 4
ĠK ur
AD ER
att a
}} }
F old
Ġart ic
ED IT
ĠQue ue
Ġcompl ain
ĠC rystal
Ġcon clusions
ĠF unc
Dim ensions
Ġt ex
Ġcre ep
Ġconfer ences
tr ip
M arg
ĠR adi
Ġsatisf action
Sec ure
yn omial
math sf
ft en
Ġsec ular
PR I
18 92
Ġed u
Int roduction
Ġapproach ing
Y et
Ġmal aria
cl ub
ĠY ale
ĠGab riel
Ġ ----------------
S aint
16 3
Ġsculpt ure
QU ERY
= */
T K
H a
Ġprov es
al og
ĠPhilipp ine
b ag
Ġc ater
Ġam ended
ĠDE LETE
ĠL ik
Ġclin ic
\\\\\\\\ \\\\\\\\
enc oder
R o
} >
S ensor
ĠS plit
ĠChe f
=" .
atin um
pon ential
Ġover lay
the orem
Ġsol ving
it ud
Ġcomposition s
Ġhonest ly
26 3
ĠCh er
Ã± a
Ġg aps
Ġfe ver
ff ield
Is lam
n th
ĠJ ets
ĠĠĠĠĠĠĠĠĠ Ċ
D istrict
y t
ĠE M
class Frame
Ġderiv ative
C XX
c ock
Ġv endors
S usp
p ym
ĠU E
ys ide
Ġspot ted
ro ots
PE G
Ġhistor ians
ĠOpen SSL
ur bs
4 20
Ġbet ray
filter ed
k b
s ens
18 61
IC ES
ĠGrad uate
ĠOtt awa
Ġre dis
Ġinv itation
ĠRe id
18 1
C our
ĠV O
Ġcru el
R R
Ġ( ,
(" _
im eter
ĠW iki
ĠVol unte
Ġanalyst s
H ierarchy
fl are
Ø ©
ĠT as
Ġconstit uency
F riend
Ġh ilar
un til
Ġsl ides
åĬ ł
É Ļ
× ĳ
Ġre nov
Ġch ocolate
16 4
ĠAn a
Ġcomp ens
Ġprohib ited
ĠWat ers
Ġpop up
ĠId aho
Ġ ic
ĠW idget
Ġ' ../../
C atch
re search
Ġst arter
Ġex iting
40 5
pack ed
f h
Ġget Name
PO M
find er
ur an
Sund ay
ble ms
Ġinvent ed
& )
up pet
ĠCom ic
Ġread ily
IP S
ĠBeng al
g ot
ĠD WORD
int endent
Ġconstit ute
atern ion
ĠB und
P acific
an ese
Ġconsult ing
ĠEffect s
Ġtab index
Ġfar mer
Ġrecon struction
ĠS UP
err no
ne apolis
x hr
ST D
ting ham
. #
R ussia
[ @
f act
ĠSc ale
node Name
bootstrap cdn
ĠM UST
ĠY emen
col m
Ġrook ie
ĠI B
Ġgen ome
Ġres il
ĠCh ad
Ġfilm ing
Ġcompr ised
Ġ[ _
Ġrenew ed
ĠP ool
read ing
Ġat oms
w c
Ġst ir
ĠPack ages
L i
ĠD uncan
ĠOr d
ĠPear l
Ġrepresent ations
D ue
Ġterm inated
Ġback s
ĠDo ctrine
Ġadvent ures
ĠM ets
ron ics
Ġab c
Ġext ensively
J MS
ĠT rophy
-- ">
D to
p ure
Ġgu ides
ĠDis c
ĠAnn iversary
Ġrandom ly
Ġinvestig ators
Ġre use
any on
ĠOff set
Code Attribute
Ġcached Ser
ĠP D
r us
ak t
Ġp ound
table Name
Act ual
port let
ĠChem istry
table View
ĠPers ian
ĠFil ip
E nergy
J et
] ],
et ed
ĠL akes
Ġcomp ressed
Ġprompt ed
ĠP G
ĠHe ath
lyn n
ĠMar shal
Mart in
ĠQuest ions
Ġtrans cription
Ġsufficient ly
Ġbi ography
Ġunder graduate
min i
scal atest
Ġre plication
Ġsign aling
Ġcy cling
Ġdat asets
Ġsh rink
Ġtraff icking
en za
Ġadjust ment
f name
TE MPLATE
x space
Ðµ Ð¼
Ġsl ots
I VER
ĠF IT
ĠL ed
00 7
sub menu
Result Set
ĠSw an
ĠJo el
Lay ers
L IMIT
Ġs aves
tr unk
Ġst ays
Ġconf idential
Ġpo ets
text tt
Ġdr one
Ġpress ing
cred ited
ĠCH AR
Det ection
ele t
ĠH ack
US B
SC HE
wr apped
Ġpers pectives
Look ing
ĠB ever
Ġrent al
Ġl over
ĠK B
17 9
Se ek
dig it
Ġto mb
Sar ah
ĠR F
Ġloc ate
CON TEXT
ĠA er
Ġland mark
Ġ" #{
ĠD ad
ĠH ydro
Ġcol ony
ĠMun ich
St ory
Ġtransp lant
ak y
ĠBr ussels
Ġdraft ed
Ġdist ances
Ġsol ved
Vel ocity
Fact ories
IST S
ew s
Ġvill ain
itor ial
Ġchampionship s
bl ur
ĠCar bon
Ġactress es
å ±
VER T
Ġ{} ",
Ġs iblings
ast es
Ġment ions
ac ial
Sports people
ut ility
um en
Symbol s
E mit
quis ite
Ġscre w
Ġunve iled
il io
od s
Byte Buffer
q quad
Resp ons
Ġthorough ly
Ġunpre cedented
p aid
Ġche f
Ġcar riers
Ġvi able
T en
arent ly
subNav List
igue z
Ġmat hematical
Ġprev ents
ĠR ate
Ġcond itional
Ġlik elihood
Ġathlet ic
ĠE ston
oy le
Ġes lint
in come
illa ume
Ġgame play
Ġpar ade
G al
aver age
ĠB ak
arm ing
Ġpain ful
Ġ" @
Ġbomb ing
U CH
Ġcomp rom
Ġavoid ed
Cons ider
/ ,
Ġrel ates
eff icient
19 1
¦ Ĥ
int ro
ph ysical
Ġ icons
Ġte ens
Ġelectron ics
up les
S on
ĠO wen
ĠV K
ĠPo etry
ĠJosh ua
25 4
22 1
ĠRon ald
Ġinter cept
F OS
av in
Ġappro ve
Ġ ------------------------------------------------
dij it
ĠAbb ey
Ġocc urrence
Ġintegr ate
Ġd rought
ĠF R
To Array
m ixed
ĠCh an
Ġdoub les
18 4
Ġcor rel
P ur
r p
Ġb ump
ang les
key board
ãĢ ģ
OB J
Ġpredec essor
output s
Ġcorrespond ence
product ive
P ipe
ST ORE
Ġsm ell
Ġscr ut
S ibling
="# !"
Pl ane
im plicit
get Int
ĠMer cedes
Ġmed ication
ator ial
Ġdon ors
, &
C urrency
Ġdis connect
Ġmort gage
S IG
sh im
Quant ity
uis ine
Ġsear ches
ĠG lobe
Ġcontin ent
Ġfilter ing
ĠLuc y
St roke
Ġretail ers
w ent
Ġl oses
Ġ' *
Ġsil ly
an aly
/ (
Ġpup ils
ĠTh ought
Bound ing
own ers
rele vant
Ġcount less
I ts
level s
Ġdownload ed
st ed
ĠNever theless
(' _
Ġd irt
ĠM AC
Ġfuck ing
math scr
R anges
y ield
ĠĠĠĠĠĠĠĠĠĠĠĠĠĠĠĠĠĠĠĠĠĠĠĠĠĠĠĠĠĠĠĠ ĠĠĠĠĠĠĠĠĠĠĠĠĠĠĠĠĠĠĠĠĠĠĠĠĠĠĠ
>& #
An onymous
ĠCom ing
Ġ% (
¼ </
Ï ī
get All
prov ided
Ġphys icians
45 6
ĠComp are
Ant i
assert That
xx x
h azelcast
Ġt c
ĠK re
ĠAut hentication
ĠReb ecca
Ġ ï¿½
Ġte aches
Ġpharm aceutical
er ase
ĠG ra
Tem plates
/ ',
Ġm ast
Ġn inet
ĠY A
Ġà¤ ķ
Ġcool ing
ĠJen kins
ĠðŁĳ ¼</
ĠG PU
Ġdef icit
execut or
Ġt ier
ch anging
ref s
Ġextr action
Ġf ung
ĠArm strong
Ġspir its
ber ger
Ġm ines
appropri ate
ir ate
Ġu pt
Gener ation
us on
Ġ ub
ĠC raw
Ġreven ge
Un supported
ĠCan al
ĠPUR POSE
Å Ľ
Ġwhe at
At om
Ġblock chain
ĠR ol
ĠHis panic
pre tt
Ġsu cc
Ġbroadcast ing
m un
Ġcom plications
ĠAPI ENTRY
R oyal
ig ating
Ġw reck
ĠO z
able View
model Version
Ġche aper
Ġl adies
18 89
ĠAthlet ics
è ¨
ĠX XX
Ġconcept ual
Ġdiv id
Play ers
ĠA ri
Ã °
ĠRev ision
Ch annels
Ġreg ulated
ch ard
em b
**** *
ĠCond itions
ann i
ĠF T
ĠS aw
Ġacclaim ed
V an
Ġe cc
ĠĠĠĠĠĠĠĠĠĠĠĠĠĠĠĠĠĠĠĠĠĠĠĠĠĠĠĠĠĠĠĠ ĠĠĠĠĠĠĠĠĠĠĠĠĠĠĠĠĠ
aut om
Ġk o
Ġaut onomous
Ġinaug ural
Ġshe ets
inst alled
ĠMax imum
activ ated
f ollow
en h
se min
Ġv tk
30 5
Ext ent
Ġdiv ine
ĠPre vious
Ġcer emon
á ŀ
ĠF ut
ĠB orough
Loc ations
Ġpse ud
Ġsett lements
ĠChe ster
Me et
ĠBelg ian
anc ies
Ġdep r
ourn aments
Ġarch ives
el rte
Ġas ynchronous
Ġ"/ "
> }
c lo
ĠH RESULT
ĠTh u
Web site
ier ce
c rypt
ĠPass word
Ġs oc
Ġs inc
18 64
; "><
Ġenc rypt
Ġpse udo
Ġ[ ...]
Ġhead lines
ĠDec ision
Ġout let
ĠEx tract
Ġrun ners
Dis c
Ġn aked
an ol
ĠN y
ĠRel ated
Ġ' :
Bro ker
ne um
Inter pol
ATION S
ĠRay mond
ĠL ength
Sub scriber
ä¸ ĭ
Sp acing
Ġs ulf
al ic
Ġacc red
ĠPart ner
PRE C
Ġf lick
est y
callback s
Gre ater
Ġgrad uates
Ġa thlete
ĠT CP
ĠDis able
ĠC ob
LAB LE
ĠS z
ĠÂ ±
Ġprint s
Ġcon gr
Ġle v
Un ary
Ġtort ure
L AN
27 5
Ġaccording ly
ĠNor folk
B on
ĠF eder
Ġdis hes
= ${
Ġover look
ĠAh med
æģ ¯
Ġs ax
Object Type
ĠT itan
el ong
Ġid le
Exception s
ĠS IGN
Ġg ri
ask at
Ġenjo ys
ĠEm ploy
i otic
l w
ĠCare er
ĠM aced
RE SOURCE
FA CT
Num bers
ĠOp port
ĠQ atar
Ġl icensing
Ġh azard
Ġinc idence
Iter able
ĠSch w
=" __
v oice
Ġwrit ings
Ġl ips
ĠGe o
Ġvulner ability
r hs
ĠG DP
Register ed
S ep
ĠV ec
åħ ¥
G U
Par allel
Ġfaith ful
Ġmat rices
an imated
Ġf ence
Â ²
get Item
Ġbe aches
In ventory
ĠR FC
sc opy
Ġefficient ly
t icket
Ï Į
Ġs ung
Ġt ales
Ġin complete
As k
ĠCal gary
Ġcomput ational
ĠDev il
ou g
Ġspread ing
Ġexceed s
- ,
[ ^
ĠF UN
ot ers
ĠFire fox
Ġsh ard
ĠAd elaide
18 94
Ġg i
Con serv
ĠGet ting
West ern
C ourse
Mod ify
CH ANT
;-> <
ĠE E
th s
Sp anish
Ġtreat y
d ensity
Ġg ly
Ġprec ious
V IRTUAL
Ch ief
ĠMcC ain
cont rollers
ig m
Ġinter ventions
} +\
ĠEx pr
ĠN as
ĠCong o
Cor rect
Â ´
Ġwe aken
Ġillustr ates
ĠTes la
Ġ| ____
vel ocity
F ULL
il ogy
du les
Ġterm ination
K im
O l
ĠIn j
roup ed
be am
Ġinter im
ud s
Ġunder way
is EqualTo
Ġul tra
ĠH our
Ġex terior
ĠOtt oman
Pro blem
I SS
g ames
Ġc af
Ġb oring
Ġme als
Ġdepend ence
hand ed
Ġsever ely
Ġshare holders
l ar
CHAN NEL
#### #
ĠGar cia
R ing
Ġsignature s
V iol
Ġsex ually
Mark et
Cap abilities
Ġi i
Ġindiv id
Ġgen ius
Ġmanip ulation
Ġgal axy
Ġexcess ive
Ġnomine e
Ġbe ats
Ġsu its
ress es
Ġsk etch
ĠReg istration
CCCC FF
UT ION
Ġf right
ĠSec urities
ĠGen eva
L es
ĠAr med
' ",
art en
Ġconsider ably
x path
Ġback ward
doc utils
ĠHop kins
MAG ES
ĠS UB
Ġalt itude
Ġintrodu ces
8 75
18 85
Ġp led
Ch icago
ĠPay ment
Ġtr aces
Ġi Tunes
ĠL odge
qu ent
\ ">
ĠG ates
18 91
ace ae
Ġentreprene urs
Ġe igen
Ġmand ate
åĪ °
+ =
atal yst
SV G
Ġatt itudes
web gl
B rows
ch ief
Ġn b
ex pects
Ġhuman itarian
Play ing
2 14
Propag ation
ant o
ond o
66 6
ĠRec on
Ġcelebr ates
key frames
Ġvar char
scal ar
ĠG PS
ĠHall ow
charg ed
} -\
li ances
Ġhor rible
Ġm b
ĠN ak
pre dict
S ongs
i ological
ĠLine ar
ĠRh ode
The ir
ĠK un
Ġstud ios
CT L
search Box
Ġgrad uating
ĠCl one
ĠLINE AR
ĠR us
ĉĉĉĉĉĉĉĉ ĉĉĉĉĉ
ĠW I
PH A
Per haps
ĠTrib une
ĠO B
D ocker
ĠM ig
ĠH ours
Ġaccess ing
Ġreason ing
ins ky
st arter
Ġ[ ])
Ġsim ulations
null able
Ġpurs uing
av our
Ġlisten ed
ĠProv ider
X Path
ĠH off
ĠHe ights
Ġcul min
ĠP ac
ll vm
AL IGN
Ã Ł
Ġun a
Ġdr agon
Ġtou ches
d ag
se g
BO X
roph ic
ĠML B
è ¾
Ġmark ing
CUR RENT
Ġancest ors
B rian
"> [
word press
22 6
Ġpal ace
Ġquiet ly
Foot er
ĠD ifferent
l bl
Î ®
Ġvis bl
Ap pro
Ġb ip
Ġdepos it
P s
ĠH ur
Ġdis advant
Ch an
table block
ias m
ĠWork shop
æİ ¥
RO WS
K HR
ar ith
c ro
Ġpurs uant
/ -
Ġpen alties
Ġang les
re ne
D ummy
ĠEncy clopedia
ang led
Ġpow der
Fre quency
S omething
ip ients
ĠBen ed
Ġsubscri bers
or b
ĠW o
Ġbo om
ĠDist ribution
ĠH aven
ind ependent
Ġbreed ing
Cre ative
so ap
Ġancest or
Ġaest hetic
Ġclos es
asm ine
ĠF resh
Ġcriminal s
Ġinev itable
so ftware
Ġpack aging
Extract or
ĠP ull
Ġfig ured
aval ry
ific ent
Stud y
ol ith
ĠBre nd
ot ions
Ġst ance
ml abel
FI X
Ġtal ents
ĠD in
Ġpurch asing
Reduce Action
ĠK urt
Ġpres idency
ç¤ º
is abs
Ġ' ');
ĠBl air
ĠS ang
Log ic
ĠG ross
max imum
M ATCH
l ag
Ġdel icious
draw er
ĠSh ore
}} _
Ġm r
Ġan ce
ount ers
Start up
Ġresp onds
r ust
ĠB T
Ġr t
Ġed itions
Ġemb ark
Ġtim ely
se ver
ĠL ap
ĠC raft
ĠPer form
Py Object
Ġacc idents
Ġmot iv
ars ers
Ġtri bal
[...]
