{
  "version": "1.0",
  "truncation": null,
  "padding": null,
  "added_tokens": [
    {
      "id": 0,
      "content": "[UNK]",
      "single_word": false,
      "lstrip": false,
      "rstrip": false,
      "normalized": false,
      "special": true
    }
  ],
  "normalizer": null,
  "pre_tokenizer": {
    "type": "Sequence",
    "pretokenizers": [
      {
        "type": "Digits",
        "individual_digits": false
      },
      {
        "type": "ByteLevel",
        "add_prefix_space": false,
        "trim_offsets": true,
        "use_regex": true
      }
    ]
  },
  "post_processor": null,
  "decoder": null,
  "model": {
    "type": "BPE",
    "dropout": null,
    "unk_token": "[UNK]",
    "continuing_subword_prefix": null,
    "end_of_word_suffix": null,
    "fuse_unk": false,
    "byte_fallback": false,
    "vocab": {
      "[UNK]": 0,
      "!": 1,
      "\"": 2,
      "#": 3,
      "$": 4,
      "%": 5,
      "&": 6,
      "'": 7,
      "(": 8,
      ")": 9,
      "*": 10,
      "+": 11,
      ",": 12,
      "-": 13,
      ".": 14,
      "/": 15,
      "0": 16,
      "1": 17,
      "2": 18,
      "3": 19,
      "4": 20,
      "5": 21,
      "6": 22,
      "7": 23,
      "8": 24,
      "9": 25,
      ":": 26,
      ";": 27,
      "<": 28,
      "=": 29,
      ">": 30,
      "?": 31,
      "@": 32,
      "A": 33,
      "B": 34,
      "C": 35,
      "D": 36,
      "E": 37,
      "F": 38,
      "G": 39,
      "H": 40,
      "I": 41,
      "J": 42,
      "K": 43,
      "L": 44,
      "M": 45,
      "N": 46,
      "O": 47,
      "P": 48,
      "Q": 49,
      "R": 50,
      "S": 51,
      "T": 52,
      "U": 53,
      "V": 54,
      "W": 55,
      "X": 56,
      "Y": 57,
      "Z": 58,
      "[": 59,
      "\\": 60,
      "]": 61,
      "^": 62,
      "_": 63,
      "`": 64,
      "a": 65,
      "b": 66,
      "c": 67,
      "d": 68,
      "e": 69,
      "f": 70,
      "g": 71,
      "h": 72,
      "i": 73,
      "j": 74,
      "k": 75,
      "l": 76,
      "m": 77,
      "n": 78,
      "o": 79,
      "p": 80,
      "q": 81,
      "r": 82,
      "s": 83,
      "t": 84,
      "u": 85,
      "v": 86,
      "w": 87,
      "x": 88,
      "y": 89,
      "z": 90,
      "{": 91,
      "|": 92,
      "}": 93,
      "~": 94,
      "¡": 95,
      "¢": 96,
      "£": 97,
      "¤": 98,
      "¥": 99,
      "¦": 100,
      "§": 101,
      "¨": 102,
      "©": 103,
      "ª": 104,
      "«": 105,
      "¬": 106,
      "®": 107,
      "¯": 108,
      "°": 109,
      "±": 110,
      "²": 111,
      "³": 112,
      "´": 113,
      "µ": 114,
      "¶": 115,
      "·": 116,
      "¸": 117,
      "¹": 118,
      "º": 119,
      "»": 120,
      "¼": 121,
      "½": 122,
      "¾": 123,
      "¿": 124,
      "Â": 125,
      "Ã": 126,
      "Ä": 127,
      "Å": 128,
      "Æ": 129,
      "Ç": 130,
      "È": 131,
      "É": 132,
      "Ê": 133,
      "Ë": 134,
      "Ì": 135,
      "Í": 136,
      "Î": 137,
      "Ï": 138,
      "Ð": 139,
      "Ñ": 140,
      "Ò": 141,
      "Ó": 142,
      "Ô": 143,
      "Õ": 144,
      "Ö": 145,
      "×": 146,
      "Ø": 147,
      "Ù": 148,
      "Ú": 149,
      "Û": 150,
      "Ü": 151,
      "Ý": 152,
      "Þ": 153,
      "ß": 154,
      "à": 155,
      "á": 156,
      "â": 157,
      "ã": 158,
      "ä": 159,
      "å": 160,
      "æ": 161,
      "ç": 162,
      "è": 163,
      "é": 164,
      "ê": 165,
      "ë": 166,
      "ì": 167,
      "í": 168,
      "î": 169,
      "ï": 170,
      "ð": 171,
      "ñ": 172,
      "ó": 173,
      "ô": 174,
      "Ā": 175,
      "ā": 176,
      "Ă": 177,
      "ă": 178,
      "Ą": 179,
      "ą": 180,
      "Ć": 181,
      "ć": 182,
      "Ĉ": 183,
      "ĉ": 184,
      "Ċ": 185,
      "ċ": 186,
      "Č": 187,
      "č": 188,
      "Ď": 189,
      "ď": 190,
      "Đ": 191,
      "đ": 192,
      "Ē": 193,
      "ē": 194,
      "Ĕ": 195,
      "ĕ": 196,
      "Ė": 197,
      "ė": 198,
      "Ę": 199,
      "ę": 200,
      "Ě": 201,
      "ě": 202,
      "Ĝ": 203,
      "ĝ": 204,
      "Ğ": 205,
      "ğ": 206,
      "Ġ": 207,
      "ġ": 208,
      "Ģ": 209,
      "ģ": 210,
      "Ĥ": 211,
      "ĥ": 212,
      "Ħ": 213,
      "ħ": 214,
      "Ĩ": 215,
      "ĩ": 216,
      "Ī": 217,
      "ī": 218,
      "Ĭ": 219,
      "ĭ": 220,
      "Į": 221,
      "į": 222,
      "İ": 223,
      "ı": 224,
      "Ĳ": 225,
      "ĳ": 226,
      "Ĵ": 227,
      "ĵ": 228,
      "Ķ": 229,
      "ķ": 230,
      "ĸ": 231,
      "Ĺ": 232,
      "ĺ": 233,
      "Ļ": 234,
      "ļ": 235,
      "Ľ": 236,
      "ľ": 237,
      "Ŀ": 238,
      "ŀ": 239,
      "Ł": 240,
      "ł": 241,
      "Ń": 242,
      "ĠĠ": 243,
      "ĠĠĠĠ": 244,
      "Ġt": 245,
      "in": 246,
      "er": 247,
      "Ġa": 248,
      "on": 249,
      "he": 250,
      "re": 251,
      "at": 252,
      "en": 253,
      "or": 254,
      "st": 255,
      "Ġthe": 256,
      "an": 257,
      "ĠĠĠ": 258,
      "al": 259,
      "it": 260,
      "Ġc": 261,
      "ĠĠĠĠĠĠĠĠ": 262,
      "ar": 263,
      "le": 264,
      "Ġs": 265,
      "Ġo": 266,
      "Ġw": 267,
      "ion": 268,
      "es": 269,
      "is": 270,
      "ed": 271,
      "Ġf": 272,
      "ing": 273,
      "Ġp": 274,
      "ou": 275,
      "ic": 276,
      "Ġb": 277,
      "nd": 278,
      "as": 279,
      "Ġin": 280,
      "ro": 281,
      "Ġof": 282,
      "et": 283,
      "Ġm": 284,
      "Ġd": 285,
      "ct": 286,
      "ent": 287,
      "Ġto": 288,
      "Ġand": 289,
      "Ġh": 290,
      "am": 291,
      "el": 292,
      "il": 293,
      "ĠĠĠĠĠĠĠ": 294,
      "om": 295,
      "Ġre": 296,
      "Ġn": 297,
      "Ġth": 298,
      "id": 299,
      "ĠS": 300,
      "ce": 301,
      "ur": 302,
      "ut": 303,
      "ol": 304,
      "Ġ=": 305,
      "Ġl": 306,
      "Ġ(": 307,
      "</": 308,
      "ĉĉ": 309,
      "ĠT": 310,
      "im": 311,
      "ation": 312,
      "ad": 313,
      "ĠC": 314,
      "ot": 315,
      "ĠA": 316,
      "se": 317,
      "Ġe": 318,
      "âĢ": 319,
      "ig": 320,
      "iv": 321,
      "=\"": 322,
      ");": 323,
      "ch": 324,
      "od": 325,
      "ag": 326,
      "if": 327,
      "ul": 328,
      "ay": 329,
      "Ġg": 330,
      "ĠI": 331,
      "--": 332,
      "th": 333,
      "un": 334,
      "Ġ<": 335,
      "Ġ{": 336,
      "ow": 337,
      "ĠM": 338,
      "Ġis": 339,
      "em": 340,
      "Ġfor": 341,
      "Ġst": 342,
      "ers": 343,
      "Ġv": 344,
      "pe": 345,
      "ate": 346,
      "us": 347,
      "ac": 348,
      "ĠĠĠĠĠĠĠĠĠĠĠ": 349,
      "ly": 350,
      "Ġon": 351,
      "//": 352,
      "Ġbe": 353,
      "ĠP": 354,
      "um": 355,
      "tr": 356,
      "ir": 357,
      "ab": 358,
      "oc": 359,
      "ue": 360,
      "Ġ*": 361,
      "ist": 362,
      "ass": 363,
      "ĠB": 364,
      "ter": 365,
      "ith": 366,
      "ap": 367,
      "av": 368,
      "ex": 369,
      "ew": 370,
      "ht": 371,
      "čĊ": 372,
      "ame": 373,
      "Ġcon": 374,
      "pt": 375,
      "ĠD": 376,
      "ĠR": 377,
      "ver": 378,
      "Ġthat": 379,
      "\">": 380,
      "Ġ\"": 381,
      "and": 382,
      "Ġ}": 383,
      "ss": 384,
      "ction": 385,
      "ĠH": 386,
      "ess": 387,
      "ort": 388,
      "our": 389,
      "ĠF": 390,
      "20": 391,
      "Ġwith": 392,
      "ub": 393,
      "lass": 394,
      "ĠN": 395,
      "ĠL": 396,
      "op": 397,
      "age": 398,
      "Ġwh": 399,
      "Ġit": 400,
      "end": 401,
      "Ġal": 402,
      "Ġan": 403,
      "ĠW": 404,
      "est": 405,
      "ri": 406,
      "ĠĠĠĠĠĠĠĠĠĠĠĠĠĠĠĠ": 407,
      "..": 408,
      "Ġpro": 409,
      "Ġy": 410,
      "ain": 411,
      "ĠG": 412,
      "ĠE": 413,
      "ef": 414,
      "()": 415,
      "Ġas": 416,
      "li": 417,
      "ĠĠĠĠĠ": 418,
      "sp": 419,
      "ke": 420,
      "**": 421,
      "qu": 422,
      "âĢĻ": 423,
      "ore": 424,
      "ect": 425,
      "urn": 426,
      "ment": 427,
      "Ġr": 428,
      "rom": 429,
      "ity": 430,
      "up": 431,
      "nt": 432,
      "ĠThe": 433,
      "art": 434,
      "Ġcom": 435,
      "ere": 436,
      "Ġwas": 437,
      "Ġex": 438,
      "Ġat": 439,
      "Ġor": 440,
      "ill": 441,
      "ine": 442,
      "ack": 443,
      "port": 444,
      "Ġthis": 445,
      "og": 446,
      "ure": 447,
      "ec": 448,
      "ld": 449,
      "ĠO": 450,
      "Ġby": 451,
      "able": 452,
      "os": 453,
      "all": 454,
      "pl": 455,
      "Ġclass": 456,
      "turn": 457,
      "----": 458,
      "ype": 459,
      "Ġ$": 460,
      "Ġhe": 461,
      "==": 462,
      "ile": 463,
      "ĠJ": 464,
      "iz": 465,
      "ies": 466,
      "ive": 467,
      "ight": 468,
      "get": 469,
      "ult": 470,
      "Ġif": 471,
      "ant": 472,
      "ans": 473,
      "Ġ'": 474,
      "19": 475,
      "ext": 476,
      "Ġtr": 477,
      "Ġfrom": 478,
      "Ġare": 479,
      "ode": 480,
      "ert": 481,
      "ud": 482,
      "ast": 483,
      "ont": 484,
      "ial": 485,
      "00": 486,
      "ang": 487,
      "out": 488,
      "ĠâĢ": 489,
      "ust": 490,
      "rou": 491,
      "ĠĠĠĠĠĠĠĠĠĠĠĠĠĠĠ": 492,
      "ind": 493,
      "act": 494,
      "lic": 495,
      "ĠU": 496,
      "orm": 497,
      "Ġch": 498,
      "are": 499,
      "ard": 500,
      "Ġnot": 501,
      "ev": 502,
      "int": 503,
      "ep": 504,
      "ff": 505,
      "ov": 506,
      "com": 507,
      "ire": 508,
      "ave": 509,
      "ption": 510,
      "ib": 511,
      "Ġle": 512,
      "ary": 513,
      "ost": 514,
      "Ġsh": 515,
      "ip": 516,
      "ath": 517,
      "ase": 518,
      "ata": 519,
      "ord": 520,
      "In": 521,
      "->": 522,
      "ace": 523,
      "Ġ//": 524,
      "'s": 525,
      "ok": 526,
      "str": 527,
      "Ġreturn": 528,
      "ber": 529,
      "ell": 530,
      "ak": 531,
      "ated": 532,
      "ice": 533,
      "Ġse": 534,
      "ject": 535,
      "Ġwe": 536,
      "201": 537,
      "Ġ</": 538,
      "::": 539,
      "../": 540,
      "ĉĉĉĉ": 541,
      "Ġj": 542,
      "ide": 543,
      "alue": 544,
      "Ġ-": 545,
      "ia": 546,
      "ime": 547,
      "lo": 548,
      "ref": 549,
      "ublic": 550,
      "ould": 551,
      "The": 552,
      "ong": 553,
      "Ġnew": 554,
      "ign": 555,
      "Ġyou": 556,
      "res": 557,
      "ource": 558,
      "ork": 559,
      "ĠK": 560,
      "Ġint": 561,
      "Ġpl": 562,
      "ear": 563,
      "ition": 564,
      "Ġ&": 565,
      "pro": 566,
      "ich": 567,
      "Ġ[": 568,
      "erv": 569,
      "Ġhave": 570,
      "one": 571,
      "Ġ@": 572,
      "con": 573,
      "ĠV": 574,
      "ĠIn": 575,
      "ild": 576,
      "ple": 577,
      "per": 578,
      "ock": 579,
      "),": 580,
      "ance": 581,
      "\",": 582,
      "cc": 583,
      "elf": 584,
      "St": 585,
      "ml": 586,
      "Ġus": 587,
      "dd": 588,
      "Ġhas": 589,
      "eg": 590,
      "ory": 591,
      "ĠSt": 592,
      "ge": 593,
      "cl": 594,
      "ite": 595,
      "Ġu": 596,
      "unction": 597,
      "form": 598,
      ").": 599,
      "ail": 600,
      "ical": 601,
      "Ġab": 602,
      "(\"": 603,
      "ence": 604,
      "Ġk": 605,
      "Ġall": 606,
      "aram": 607,
      "ress": 608,
      "Ġ/": 609,
      "Ġar": 610,
      "();": 611,
      "ull": 612,
      "cri": 613,
      "essage": 614,
      "Ġcont": 615,
      "div": 616,
      "ĠTh": 617,
      "Ġcan": 618,
      "Ġhis": 619,
      "></": 620,
      "row": 621,
      "ug": 622,
      "span": 623,
      "ther": 624,
      "ens": 625,
      "ob": 626,
      "Ġun": 627,
      "que": 628,
      "Ġim": 629,
      "put": 630,
      "ink": 631,
      "hen": 632,
      "âĢĿ": 633,
      "ll": 634,
      "Ġres": 635,
      "tring": 636,
      "><": 637,
      "Ġ\\": 638,
      "ous": 639,
      "--------": 640,
      "ents": 641,
      "ize": 642,
      "ations": 643,
      "Ġwill": 644,
      "ra": 645,
      "Ġdo": 646,
      "iew": 647,
      "set": 648,
      "so": 649,
      "ome": 650,
      "enc": 651,
      "Ex": 652,
      "ach": 653,
      "',": 654,
      "ry": 655,
      "Ġout": 656,
      "Ġap": 657,
      "Ġbut": 658,
      "ĠCh": 659,
      "Ġ+": 660,
      "../../": 661,
      "****": 662,
      "du": 663,
      "Ġstr": 664,
      "ount": 665,
      "own": 666,
      "Ġpublic": 667,
      "Ġ.": 668,
      "Ġwhich": 669,
      "Ġ*/": 670,
      "Ġup": 671,
      "sh": 672,
      "ook": 673,
      "te": 674,
      "Ġ|": 675,
      "Ġpr": 676,
      "Ġgo": 677,
      "ual": 678,
      "eth": 679,
      "Ġget": 680,
      "Ġname": 681,
      "ool": 682,
      "err": 683,
      "ound": 684,
      "che": 685,
      "====": 686,
      "10": 687,
      "ele": 688,
      "html": 689,
      "eb": 690,
      "iel": 691,
      "ond": 692,
      "Ġ:": 693,
      "ĉĉĉ": 694,
      "ian": 695,
      "ck": 696,
      "ark": 697,
      "ake": 698,
      "ree": 699,
      "gh": 700,
      "tp": 701,
      "ish": 702,
      "tern": 703,
      "ĠĠĠĠĠĠĠĠĠĠĠĠĠĠĠĠĠĠĠ": 704,
      "ER": 705,
      "ener": 706,
      "irst": 707,
      "Ġtheir": 708,
      "Ġhref": 709,
      "inal": 710,
      "Ġone": 711,
      "pr": 712,
      "ery": 713,
      "('": 714,
      "ft": 715,
      "oid": 716,
      "ield": 717,
      "ne": 718,
      "Ġwho": 719,
      "les": 720,
      "Ġdef": 721,
      "ĠĠĠĠĠĠĠĠĠ": 722,
      "mer": 723,
      "Ġthey": 724,
      "name": 725,
      "ors": 726,
      "200": 727,
      "ings": 728,
      "Ġme": 729,
      "Pro": 730,
      "source": 731,
      "this": 732,
      "Name": 733,
      "led": 734,
      "Ġwere": 735,
      "ĠâĢľ": 736,
      "Ġev": 737,
      "Ġdis": 738,
      "message": 739,
      "ax": 740,
      "ĠĊ": 741,
      "Ġcomp": 742,
      "yst": 743,
      "ON": 744,
      "__": 745,
      "her": 746,
      "ĠY": 747,
      "quest": 748,
      "clud": 749,
      "Ġmore": 750,
      "Ġfunction": 751,
      "Ġ#": 752,
      "Ġper": 753,
      "IN": 754,
      "ph": 755,
      "fer": 756,
      "ict": 757,
      "roup": 758,
      "rit": 759,
      "Ġset": 760,
      "import": 761,
      "old": 762,
      "Ġman": 763,
      "trans": 764,
      "key": 765,
      "))": 766,
      "pec": 767,
      "bject": 768,
      "Type": 769,
      "ates": 770,
      "Ġen": 771,
      "Ġso": 772,
      "aw": 773,
      "Ġpart": 774,
      "fig": 775,
      "ions": 776,
      "String": 777,
      "rr": 778,
      "Ġag": 779,
      "Ġvar": 780,
      "ick": 781,
      "oll": 782,
      "Ġtype": 783,
      "ays": 784,
      "Id": 785,
      "use": 786,
      "Ġ=>": 787,
      "atch": 788,
      "cre": 789,
      "ystem": 790,
      "td": 791,
      "Ġalso": 792,
      "param": 793,
      "ix": 794,
      "io": 795,
      "alse": 796,
      "Con": 797,
      "lation": 798,
      "atic": 799,
      "app": 800,
      "/>": 801,
      "oint": 802,
      "Ġabout": 803,
      "Ġits": 804,
      "pect": 805,
      "Ġher": 806,
      "Ġhad": 807,
      "ely": 808,
      "##": 809,
      "Ġover": 810,
      "Ġsu": 811,
      "18": 812,
      "ng": 813,
      "nder": 814,
      "return": 815,
      "fter": 816,
      "code": 817,
      "Ġyear": 818,
      "Ġwork": 819,
      "ater": 820,
      "ames": 821,
      "RE": 822,
      "Re": 823,
      "://": 824,
      "ĠIt": 825,
      "uild": 826,
      "Ġpre": 827,
      "co": 828,
      "Ġbeen": 829,
      "iss": 830,
      "lect": 831,
      "cont": 832,
      "Ġli": 833,
      "ache": 834,
      "\"/>": 835,
      "arg": 836,
      "ator": 837,
      "Cont": 838,
      "Ġne": 839,
      "Ġvalue": 840,
      "lock": 841,
      "cript": 842,
      "12": 843,
      "Ġass": 844,
      "ĠUn": 845,
      "Ġwhen": 846,
      "pert": 847,
      "ove": 848,
      "Ġtime": 849,
      "wo": 850,
      "Ġother": 851,
      "fo": 852,
      "Ġsp": 853,
      "Th": 854,
      "Ġro": 855,
      "erm": 856,
      "to": 857,
      "ange": 858,
      "Ġself": 859,
      "ose": 860,
      "Ġcl": 861,
      "ser": 862,
      "ie": 863,
      "Ġde": 864,
      "Ġfirst": 865,
      "odel": 866,
      "urre": 867,
      "oun": 868,
      "Com": 869,
      "Ġ!": 870,
      "ĠHe": 871,
      "gr": 872,
      "aid": 873,
      "Ġadd": 874,
      "ons": 875,
      "Ġad": 876,
      "Ġel": 877,
      "Ġend": 878,
      "ST": 879,
      "Ġany": 880,
      "ethod": 881,
      "translation": 882,
      "col": 883,
      "ception": 884,
      "Ġoff": 885,
      "add": 886,
      "eng": 887,
      "Ġdata": 888,
      "round": 889,
      "ĠâĢĵ": 890,
      "type": 891,
      "Res": 892,
      "Ġcomm": 893,
      "ics": 894,
      "arch": 895,
      "ault": 896,
      "anc": 897,
      "List": 898,
      "Ġdes": 899,
      "class": 900,
      "Ġline": 901,
      "Ġ_": 902,
      "ocation": 903,
      "Ġpe": 904,
      "amp": 905,
      "Ġwould": 906,
      "uct": 907,
      "AT": 908,
      "ember": 909,
      "als": 910,
      "Ġid": 911,
      "ann": 912,
      "we": 913,
      "umber": 914,
      "Ġ==": 915,
      "ve": 916,
      "ific": 917,
      "Ġsup": 918,
      "ople": 919,
      "ys": 920,
      "ade": 921,
      "Ch": 922,
      "Ġcol": 923,
      "Ġsc": 924,
      "Ġinto": 925,
      "igh": 926,
      "Ġte": 927,
      "itle": 928,
      "read": 929,
      "ational": 930,
      "Ġinter": 931,
      "Ġconst": 932,
      "def": 933,
      "Ġcre": 934,
      "OR": 935,
      "ton": 936,
      "16": 937,
      "Ġthere": 938,
      "http": 939,
      "Ġthan": 940,
      "ute": 941,
      "vent": 942,
      "ms": 943,
      "ature": 944,
      "hed": 945,
      "rap": 946,
      "ash": 947,
      "Ġsome": 948,
      "ervice": 949,
      "ative": 950,
      "Ġnull": 951,
      "son": 952,
      "ĠCom": 953,
      "Ġvoid": 954,
      "Ġyour": 955,
      "Ġrec": 956,
      "Ġqu": 957,
      "Ġno": 958,
      "ues": 959,
      "ise": 960,
      "Ġi": 961,
      "line": 962,
      "\"><": 963,
      "bo": 964,
      "Ġkn": 965,
      "ious": 966,
      "pos": 967,
      "ivate": 968,
      "11": 969,
      "ating": 970,
      "Ġacc": 971,
      "...": 972,
      "ersion": 973,
      "Ġact": 974,
      "und": 975,
      "ments": 976,
      "ader": 977,
      "LE": 978,
      "Ġplay": 979,
      "Ġop": 980,
      "urrent": 981,
      "trib": 982,
      "Ġshe": 983,
      "Ġonly": 984,
      "AR": 985,
      "Ġind": 986,
      "ument": 987,
      "Ġ>": 988,
      "Ġsaid": 989,
      "ied": 990,
      "Ġinclud": 991,
      "org": 992,
      "cess": 993,
      "yn": 994,
      "ĠThis": 995,
      "irect": 996,
      "ally": 997,
      "oy": 998,
      "));": 999,
      "):": 1000,
      "Ġback": 1001,
      "quire": 1002,
      "Ġour": 1003,
      "Ġtwo": 1004,
      "val": 1005,
      "self": 1006,
      "yp": 1007,
      "ited": 1008,
      "over": 1009,
      "ID": 1010,
      "15": 1011,
      "orld": 1012,
      "uth": 1013,
      "Ġthem": 1014,
      "Ġfalse": 1015,
      "Ġorg": 1016,
      "ning": 1017,
      "ĠAr": 1018,
      "mb": 1019,
      "Ġreg": 1020,
      "ww": 1021,
      "Ġlike": 1022,
      "Ġ||": 1023,
      "Ġafter": 1024,
      "Tr": 1025,
      "ĠPro": 1026,
      "Ġsub": 1027,
      "ner": 1028,
      "ma": 1029,
      "fr": 1030,
      "ĠĠĠĠĠĠĠĠĠĠĠĠĠĠĠĠĠĠĠĠĠĠĠ": 1031,
      "********": 1032,
      "\");": 1033,
      "ĠNew": 1034,
      "ĠĠĠĠĠĠĠĠĠĠĠĠĠ": 1035,
      "Ġpeople": 1036,
      "ement": 1037,
      "ask": 1038,
      "back": 1039,
      "ased": 1040,
      "----------------": 1041,
      "Ġbet": 1042,
      "Ġtrue": 1043,
      "string": 1044,
      "EN": 1045,
      "abel": 1046,
      "Ġunder": 1047,
      "Ġfe": 1048,
      "Ġ`": 1049,
      "ward": 1050,
      "ey": 1051,
      "Ġuse": 1052,
      "ptions": 1053,
      "ities": 1054,
      "sum": 1055,
      "text": 1056,
      "AL": 1057,
      "pon": 1058,
      "Ġmy": 1059,
      "Ġresult": 1060,
      "ern": 1061,
      "Ġinst": 1062,
      "ca": 1063,
      "Ġelse": 1064,
      "ava": 1065,
      "min": 1066,
      "Ġmay": 1067,
      "olog": 1068,
      "ages": 1069,
      "ĠTr": 1070,
      "land": 1071,
      "Ġwhat": 1072,
      "Ġjust": 1073,
      "ank": 1074,
      "ocal": 1075,
      "nb": 1076,
      "tem": 1077,
      "Ġerr": 1078,
      "its": 1079,
      "Ġspec": 1080,
      "yle": 1081,
      "////": 1082,
      "oth": 1083,
      "Ġ--": 1084,
      "ts": 1085,
      "Ġrel": 1086,
      "ins": 1087,
      "ody": 1088,
      "evel": 1089,
      "var": 1090,
      "data": 1091,
      "file": 1092,
      "Ġrem": 1093,
      "Ġprov": 1094,
      "ble": 1095,
      "rough": 1096,
      "uff": 1097,
      "Value": 1098,
      "ular": 1099,
      "ible": 1100,
      "Ġdec": 1101,
      "'t": 1102,
      "view": 1103,
      "Ġsec": 1104,
      "plic": 1105,
      "Data": 1106,
      "ower": 1107,
      "ek": 1108,
      "ule": 1109,
      "Ġtest": 1110,
      "ting": 1111,
      "ished": 1112,
      "ample": 1113,
      "pre": 1114,
      "of": 1115,
      "perty": 1116,
      "To": 1117,
      "ole": 1118,
      "lection": 1119,
      "ices": 1120,
      "lient": 1121,
      "arget": 1122,
      "ility": 1123,
      "nbsp": 1124,
      "ream": 1125,
      "30": 1126,
      "very": 1127,
      "Ġent": 1128,
      "SS": 1129,
      "ray": 1130,
      "man": 1131,
      "Ġwhere": 1132,
      "ength": 1133,
      "Ġfinal": 1134,
      "ough": 1135,
      "Ġtrans": 1136,
      "ution": 1137,
      "25": 1138,
      "Ġfil": 1139,
      "ivers": 1140,
      "wn": 1141,
      "ier": 1142,
      "der": 1143,
      "Ġ)": 1144,
      "14": 1145,
      "reat": 1146,
      "log": 1147,
      "Set": 1148,
      "air": 1149,
      "Col": 1150,
      "Ġ/**": 1151,
      "Ġac": 1152,
      "\")": 1153,
      "uring": 1154,
      "Ġchar": 1155,
      "ale": 1156,
      "br": 1157,
      "Ġhow": 1158,
      "Ġval": 1159,
      "Ġinv": 1160,
      "any": 1161,
      "Ġhim": 1162,
      "lement": 1163,
      "Ġam": 1164,
      "sc": 1165,
      "199": 1166,
      "17": 1167,
      "Ġpol": 1168,
      "date": 1169,
      "meric": 1170,
      "px": 1171,
      "ren": 1172,
      "idth": 1173,
      "Ġfile": 1174,
      "ĠĠĠĠĠĠĠĠĠĠĠĠĠĠĠĠĠĠĠĠĠĠĠĠĠĠĠĠĠĠĠĠ": 1175,
      "ĠAn": 1176,
      "Ġmost": 1177,
      "fl": 1178,
      "Exception": 1179,
      "value": 1180,
      "ider": 1181,
      "========": 1182,
      "ĠSh": 1183,
      "Ġbo": 1184,
      "location": 1185,
      "ĠĠĠĠĠĠ": 1186,
      "ru": 1187,
      "resent": 1188,
      "Ġthen": 1189,
      "action": 1190,
      "ily": 1191,
      "Ġthrough": 1192,
      "the": 1193,
      "test": 1194,
      "Ġused": 1195,
      "Ġstart": 1196,
      "Ġshould": 1197,
      "ful": 1198,
      "Ġstring": 1199,
      "ined": 1200,
      "ows": 1201,
      "13": 1202,
      "ars": 1203,
      "Ġlist": 1204,
      "roid": 1205,
      "arent": 1206,
      "Ġneed": 1207,
      "ĠAl": 1208,
      "ah": 1209,
      "ĠSe": 1210,
      "âĢĵ": 1211,
      "be": 1212,
      "];": 1213,
      "ternal": 1214,
      "red": 1215,
      "Err": 1216,
      "Ġem": 1217,
      "Ġ///": 1218,
      "Ġdr": 1219,
      "atus": 1220,
      "En": 1221,
      "ood": 1222,
      "pp": 1223,
      "ife": 1224,
      "ets": 1225,
      "Ġyears": 1226,
      "press": 1227,
      "Ġform": 1228,
      "az": 1229,
      "Ġstatic": 1230,
      "IT": 1231,
      "Ġdif": 1232,
      "other": 1233,
      "32": 1234,
      "Ġco": 1235,
      "ĠCon": 1236,
      "ĠEx": 1237,
      "($": 1238,
      "Object": 1239,
      "Ġbr": 1240,
      "CT": 1241,
      "Ġph": 1242,
      "Ġprivate": 1243,
      "Ġ&&": 1244,
      "new": 1245,
      "DE": 1246,
      "ĠRe": 1247,
      "ident": 1248,
      "ced": 1249,
      "day": 1250,
      "AN": 1251,
      "ason": 1252,
      "oss": 1253,
      "Ġcould": 1254,
      "rol": 1255,
      "ĠWe": 1256,
      "ists": 1257,
      "000": 1258,
      "ccess": 1259,
      "_{": 1260,
      "ines": 1261,
      "Ġprodu": 1262,
      "Ġfl": 1263,
      "chool": 1264,
      "erson": 1265,
      "heck": 1266,
      "ince": 1267,
      "At": 1268,
      "Ġstud": 1269,
      "Ġcase": 1270,
      "Ġ!=": 1271,
      "ision": 1272,
      "ĠString": 1273,
      "vel": 1274,
      "Test": 1275,
      "ized": 1276,
      "Ġagain": 1277,
      "play": 1278,
      "Ġgr": 1279,
      "mary": 1280,
      "cent": 1281,
      "rc": 1282,
      "SE": 1283,
      "().": 1284,
      "fore": 1285,
      "By": 1286,
      "evelop": 1287,
      "Ġsuch": 1288,
      "right": 1289,
      "ted": 1290,
      "eter": 1291,
      "ient": 1292,
      "not": 1293,
      "iver": 1294,
      "Ġlong": 1295,
      "Get": 1296,
      "roll": 1297,
      "ĠQ": 1298,
      "ween": 1299,
      "ps": 1300,
      "Ġright": 1301,
      "},": 1302,
      "')": 1303,
      "Ġthese": 1304,
      "Ġ%": 1305,
      "ollow": 1306,
      "ouse": 1307,
      "Un": 1308,
      "link": 1309,
      "());": 1310,
      "Ġser": 1311,
      "Ġx": 1312,
      "Ġcons": 1313,
      "ense": 1314,
      "ences": 1315,
      "Ġwell": 1316,
      "Ġnumber": 1317,
      "ger": 1318,
      "Ġob": 1319,
      "']": 1320,
      "Ġnow": 1321,
      "ĠWh": 1322,
      "work": 1323,
      ".âĢĿ": 1324,
      "by": 1325,
      "size": 1326,
      "let": 1327,
      "uch": 1328,
      "raph": 1329,
      "Ref": 1330,
      "oci": 1331,
      "orn": 1332,
      "ttp": 1333,
      "Ġmake": 1334,
      "Ġkey": 1335,
      "._": 1336,
      "ME": 1337,
      "Error": 1338,
      "face": 1339,
      "ify": 1340,
      "item": 1341,
      "ĠAmeric": 1342,
      "try": 1343,
      "for": 1344,
      "bar": 1345,
      "public": 1346,
      "oot": 1347,
      "ott": 1348,
      "View": 1349,
      "way": 1350,
      "af": 1351,
      "ler": 1352,
      "He": 1353,
      "ants": 1354,
      "File": 1355,
      "Ġcall": 1356,
      "formation": 1357,
      "âĢľ": 1358,
      "pace": 1359,
      "oh": 1360,
      "Im": 1361,
      "Ġbeing": 1362,
      "CO": 1363,
      "nav": 1364,
      "Ġread": 1365,
      "att": 1366,
      "epend": 1367,
      "50": 1368,
      "order": 1369,
      "Ġdid": 1370,
      "ager": 1371,
      "ĉĉĉĉĉ": 1372,
      "cept": 1373,
      "script": 1374,
      "Ind": 1375,
      "Ġbefore": 1376,
      "reak": 1377,
      "Class": 1378,
      "list": 1379,
      "lp": 1380,
      "Ġbetween": 1381,
      "\";": 1382,
      "Ġrun": 1383,
      "util": 1384,
      "Ġmin": 1385,
      "Ġgener": 1386,
      "\"></": 1387,
      "til": 1388,
      "ik": 1389,
      "ces": 1390,
      "js": 1391,
      "Ġapp": 1392,
      "ocument": 1393,
      "Ġsign": 1394,
      "load": 1395,
      "Ġdet": 1396,
      "mit": 1397,
      "me": 1398,
      "Ġresp": 1399,
      "Ġed": 1400,
      "mod": 1401,
      "gram": 1402,
      "Ġfound": 1403,
      "Ġlast": 1404,
      "quot": 1405,
      "['": 1406,
      "An": 1407,
      "ĠĠĠĠĊ": 1408,
      "Ġsystem": 1409,
      "umn": 1410,
      "Key": 1411,
      "Ġhand": 1412,
      "Ġdoes": 1413,
      "Ġevery": 1414,
      "Ġmany": 1415,
      ".</": 1416,
      "ives": 1417,
      "index": 1418,
      "cause": 1419,
      "Ġobject": 1420,
      "lob": 1421,
      "Ġrequire": 1422,
      "');": 1423,
      "Ġwhile": 1424,
      "Ġdist": 1425,
      "ism": 1426,
      "inter": 1427,
      "ister": 1428,
      "Ġsupport": 1429,
      "Ġbecause": 1430,
      "ession": 1431,
      "lay": 1432,
      "ĠAnd": 1433,
      "imes": 1434,
      "function": 1435,
      "Ġart": 1436,
      "ared": 1437,
      "Ġsm": 1438,
      "Ġext": 1439,
      "Ġgroup": 1440,
      ".\"": 1441,
      "Ġmod": 1442,
      "Ġeff": 1443,
      "ified": 1444,
      "24": 1445,
      "ush": 1446,
      "Ġlook": 1447,
      "ency": 1448,
      "Sh": 1449,
      "reg": 1450,
      "rite": 1451,
      "ral": 1452,
      "alk": 1453,
      "Ġpoint": 1454,
      "Ġatt": 1455,
      "ĠInd": 1456,
      "time": 1457,
      "Ġtitle": 1458,
      "ĠZ": 1459,
      "Ġsee": 1460,
      "Ġoper": 1461,
      "ains": 1462,
      "!--": 1463,
      "uss": 1464,
      "url": 1465,
      "aj": 1466,
      "100": 1467,
      "Ġeven": 1468,
      "Ġcurrent": 1469,
      "Ġdiffer": 1470,
      "RO": 1471,
      "Ġfr": 1472,
      "summary": 1473,
      "ĠFor": 1474,
      "ĠAs": 1475,
      "struct": 1476,
      "ĠIf": 1477,
      "Ġmon": 1478,
      "cription": 1479,
      "uc": 1480,
      "ience": 1481,
      "=\"../../": 1482,
      "UL": 1483,
      "arn": 1484,
      "Ġfollow": 1485,
      "(),": 1486,
      "ather": 1487,
      "go": 1488,
      "iversity": 1489,
      "22": 1490,
      "orth": 1491,
      "Ġmethod": 1492,
      "Ġshow": 1493,
      "Ġcoun": 1494,
      "alth": 1495,
      "edia": 1496,
      "Ġknow": 1497,
      "Ġmade": 1498,
      "ĠIs": 1499,
      "ION": 1500,
      "bers": 1501,
      "uffer": 1502,
      "top": 1503,
      "Ġstate": 1504,
      "Ġcal": 1505,
      "Ġhigh": 1506,
      "Ġway": 1507,
      "opy": 1508,
      "oad": 1509,
      "osition": 1510,
      "void": 1511,
      "ee": 1512,
      "ateg": 1513,
      "Ġsur": 1514,
      "rray": 1515,
      "ty": 1516,
      "=\"+": 1517,
      "field": 1518,
      "ackage": 1519,
      "Ġcent": 1520,
      "Ar": 1521,
      "ogle": 1522,
      "path": 1523,
      "uthor": 1524,
      "ote": 1525,
      "aking": 1526,
      "],": 1527,
      "Ġworld": 1528,
      "Ġpass": 1529,
      "Ġimport": 1530,
      "ĠFr": 1531,
      "Ġarg": 1532,
      "AC": 1533,
      "ĠSc": 1534,
      "sub": 1535,
      "ĠCol": 1536,
      "ten": 1537,
      "Ġsim": 1538,
      "64": 1539,
      "Ġbel": 1540,
      "itor": 1541,
      "Ġsame": 1542,
      "Ġ/>": 1543,
      "Ġown": 1544,
      "dis": 1545,
      "ures": 1546,
      "ever": 1547,
      "Ġvery": 1548,
      "On": 1549,
      "ric": 1550,
      "ization": 1551,
      "\":": 1552,
      "Ġexpect": 1553,
      "arm": 1554,
      "Time": 1555,
      "Ġbuild": 1556,
      "Ġdown": 1557,
      "Ġeach": 1558,
      "par": 1559,
      "Ġbl": 1560,
      "Ġserv": 1561,
      "qual": 1562,
      "Ġfam": 1563,
      "TE": 1564,
      "Ġdirect": 1565,
      "ym": 1566,
      "lang": 1567,
      "ats": 1568,
      "search": 1569,
      "198": 1570,
      "ĠRes": 1571,
      "math": 1572,
      "uration": 1573,
      "Ġrep": 1574,
      "ology": 1575,
      "lear": 1576,
      "apt": 1577,
      "less": 1578,
      "iness": 1579,
      "Ġdevelop": 1580,
      "eta": 1581,
      "Ġwant": 1582,
      "Event": 1583,
      "Ġmem": 1584,
      "Ġusing": 1585,
      "iven": 1586,
      "As": 1587,
      "Ġthrow": 1588,
      "Ġdon": 1589,
      "wh": 1590,
      "ected": 1591,
      "user": 1592,
      "ross": 1593,
      "const": 1594,
      "Text": 1595,
      "Ġcomple": 1596,
      "Ġsecond": 1597,
      "Ġgu": 1598,
      "outh": 1599,
      "Request": 1600,
      "Ġchild": 1601,
      "Ġ?": 1602,
      "LA": 1603,
      "].": 1604,
      "raw": 1605,
      "Ġmov": 1606,
      "``": 1607,
      "ually": 1608,
      "Ġfield": 1609,
      "Ġwrit": 1610,
      "lish": 1611,
      "ground": 1612,
      "{\\": 1613,
      "Path": 1614,
      "group": 1615,
      "IC": 1616,
      "For": 1617,
      "ically": 1618,
      "Ġteam": 1619,
      "Ġhere": 1620,
      "ĠDe": 1621,
      "PE": 1622,
      "ron": 1623,
      "Ġthose": 1624,
      "/*": 1625,
      "iev": 1626,
      "Man": 1627,
      "21": 1628,
      "Ġboth": 1629,
      "Ġfind": 1630,
      "Ġduring": 1631,
      "Ġ);": 1632,
      "table": 1633,
      "chn": 1634,
      "Ġthree": 1635,
      "onse": 1636,
      "tribute": 1637,
      "ector": 1638,
      "/**": 1639,
      "Ġcor": 1640,
      "uck": 1641,
      "Ġthink": 1642,
      "Ġassert": 1643,
      "md": 1644,
      "Int": 1645,
      "Add": 1646,
      "ital": 1647,
      "Ġgood": 1648,
      "rem": 1649,
      "ox": 1650,
      "lose": 1651,
      "iving": 1652,
      "TR": 1653,
      "https": 1654,
      "40": 1655,
      "but": 1656,
      "ĠPh": 1657,
      "Info": 1658,
      "Ġrequest": 1659,
      "Config": 1660,
      "amespace": 1661,
      ",âĢĿ": 1662,
      "####": 1663,
      "Ġmuch": 1664,
      "ĠYou": 1665,
      "ports": 1666,
      "ustom": 1667,
      "Ġevent": 1668,
      "Ġ-->": 1669,
      "ission": 1670,
      "itial": 1671,
      "ived": 1672,
      "Field": 1673,
      "Index": 1674,
      "ainer": 1675,
      "Node": 1676,
      "usic": 1677,
      "bs": 1678,
      "olean": 1679,
      "urs": 1680,
      "word": 1681,
      "Ġhelp": 1682,
      "ends": 1683,
      "unc": 1684,
      "':": 1685,
      "Ġprocess": 1686,
      ".,": 1687,
      "Ġhttp": 1688,
      "config": 1689,
      "comm": 1690,
      "Wh": 1691,
      "())": 1692,
      "This": 1693,
      "ina": 1694,
      "ane": 1695,
      "Ġmark": 1696,
      "stance": 1697,
      "ait": 1698,
      "ĠX": 1699,
      "2019": 1700,
      "istory": 1701,
      "rop": 1702,
      "ĠCl": 1703,
      "aining": 1704,
      "akes": 1705,
      "Ġinformation": 1706,
      "23": 1707,
      "Ġrele": 1708,
      "label": 1709,
      "Item": 1710,
      "ride": 1711,
      "ury": 1712,
      "Ġ$\\": 1713,
      "Context": 1714,
      "Map": 1715,
      "ĠMar": 1716,
      "Param": 1717,
      "With": 1718,
      "etwork": 1719,
      "Ġaut": 1720,
      "Ġcontin": 1721,
      "idd": 1722,
      "vir": 1723,
      "PI": 1724,
      "ret": 1725,
      "wit": 1726,
      "ypes": 1727,
      "UR": 1728,
      "='": 1729,
      "dt": 1730,
      "usiness": 1731,
      "2018": 1732,
      "ĠLe": 1733,
      "www": 1734,
      "Ġparam": 1735,
      "ural": 1736,
      "Ġvis": 1737,
      "Ġopen": 1738,
      "State": 1739,
      "hip": 1740,
      "ohn": 1741,
      "Ġcommun": 1742,
      "Ġear": 1743,
      "iter": 1744,
      "Over": 1745,
      "ĠOn": 1746,
      "Ġcar": 1747,
      "Ġtop": 1748,
      "mp": 1749,
      "Ġsize": 1750,
      "ness": 1751,
      "Ġlead": 1752,
      "Form": 1753,
      "Qu": 1754,
      "ump": 1755,
      "length": 1756,
      "Ã©": 1757,
      "ĠâĢĶ": 1758,
      "ĠAt": 1759,
      "side": 1760,
      "ctions": 1761,
      "ĠĠĠĠĠĠĠĠĠĠĠĠĠĠĠĠĠĠĠĠĠĠĠĠĠĠĠ": 1762,
      "icon": 1763,
      "33": 1764,
      "api": 1765,
      "We": 1766,
      "includ": 1767,
      "els": 1768,
      "Ġmust": 1769,
      "ght": 1770,
      "Ġerror": 1771,
      "left": 1772,
      "Ġref": 1773,
      "Ġest": 1774,
      "Def": 1775,
      "off": 1776,
      "Ġcontent": 1777,
      "Service": 1778,
      "Ġstill": 1779,
      "igned": 1780,
      "Ġpar": 1781,
      "60": 1782,
      "apache": 1783,
      "}}": 1784,
      "my": 1785,
      "indow": 1786,
      "Ġperform": 1787,
      "Ġsol": 1788,
      "come": 1789,
      "Ġtry": 1790,
      "Ġbeg": 1791,
      "Ġ/*": 1792,
      "Ġagainst": 1793,
      "Ġ(!": 1794,
      "Ġdifferent": 1795,
      "ĠUniversity": 1796,
      "Ġnext": 1797,
      "uf": 1798,
      "Ġperson": 1799,
      "Ġmain": 1800,
      "ĠBut": 1801,
      "197": 1802,
      "ĠPr": 1803,
      "ĠShe": 1804,
      "des": 1805,
      "oken": 1806,
      "ĠMay": 1807,
      "\"\"": 1808,
      "ball": 1809,
      "ĠâĢĺ": 1810,
      "Ġsom": 1811,
      "enu": 1812,
      "Or": 1813,
      "Element": 1814,
      "istr": 1815,
      "âĢ¦": 1816,
      "ags": 1817,
      "lobal": 1818,
      "Ġlocal": 1819,
      "Not": 1820,
      "plication": 1821,
      "itt": 1822,
      "Ġtarget": 1823,
      "Ġ});": 1824,
      "evice": 1825,
      "med": 1826,
      "ui": 1827,
      "Ġreal": 1828,
      "****************": 1829,
      "Ġrecord": 1830,
      "ĠOr": 1831,
      "Ġlife": 1832,
      "////////": 1833,
      "ained": 1834,
      "Ġsing": 1835,
      "ential": 1836,
      "Ġprot": 1837,
      "Ġmodel": 1838,
      "cal": 1839,
      "une": 1840,
      "omen": 1841,
      "Ġtake": 1842,
      "error": 1843,
      "Ġdefault": 1844,
      "';": 1845,
      "Des": 1846,
      "Ġarray": 1847,
      "ĠAd": 1848,
      "Ġfact": 1849,
      "Ġlet": 1850,
      "ails": 1851,
      "27": 1852,
      "Ġprovid": 1853,
      "Ġlink": 1854,
      "ley": 1855,
      "Ġpost": 1856,
      "Size": 1857,
      "Ġav": 1858,
      "true": 1859,
      "Ġgame": 1860,
      "Ġgover": 1861,
      "ium": 1862,
      "Ġappro": 1863,
      "Ġpop": 1864,
      "ases": 1865,
      "Ġcour": 1866,
      "Ġcr": 1867,
      "title": 1868,
      "color": 1869,
      "input": 1870,
      "uro": 1871,
      "Array": 1872,
      "Ġsl": 1873,
      "Ġtext": 1874,
      "enn": 1875,
      "Ġincluding": 1876,
      "block": 1877,
      "Ġrece": 1878,
      "iled": 1879,
      "All": 1880,
      "Ġhead": 1881,
      "map": 1882,
      "ING": 1883,
      "Ġpartic": 1884,
      "Ġbook": 1885,
      "next": 1886,
      "body": 1887,
      "IG": 1888,
      "pty": 1889,
      "object": 1890,
      "head": 1891,
      "28": 1892,
      "Ġuser": 1893,
      "ta": 1894,
      "Ġleft": 1895,
      "Ġaround": 1896,
      "It": 1897,
      "ailable": 1898,
      "nment": 1899,
      "Ġweek": 1900,
      "ilter": 1901,
      "UT": 1902,
      "ĠUnited": 1903,
      "Refer": 1904,
      "iginal": 1905,
      "Ġday": 1906,
      "Ġpat": 1907,
      "prot": 1908,
      "Ġplace": 1909,
      "Code": 1910,
      "Ġprogram": 1911,
      "rist": 1912,
      "Ġ},": 1913,
      "result": 1914,
      "Ġcare": 1915,
      "ene": 1916,
      "2017": 1917,
      "assert": 1918,
      "ouble": 1919,
      "Ġdel": 1920,
      "2016": 1921,
      "valid": 1922,
      "model": 1923,
      "Build": 1924,
      "HE": 1925,
      "ĠAmerican": 1926,
      "AD": 1927,
      "ety": 1928,
      "Fr": 1929,
      "Al": 1930,
      "from": 1931,
      "aster": 1932,
      "ird": 1933,
      "ync": 1934,
      "FF": 1935,
      "node": 1936,
      "fin": 1937,
      "Ġlog": 1938,
      "ands": 1939,
      "ponent": 1940,
      "resp": 1941,
      "Ġorder": 1942,
      "=\"../../../../": 1943,
      "ware": 1944,
      "ĠAss": 1945,
      "plate": 1946,
      "por": 1947,
      "Ġsay": 1948,
      "utes": 1949,
      "};": 1950,
      "eturn": 1951,
      "Ġmet": 1952,
      "abled": 1953,
      "ling": 1954,
      "Hand": 1955,
      "Ġtri": 1956,
      "Ġview": 1957,
      "ony": 1958,
      "Is": 1959,
      "illion": 1960,
      "Ġschool": 1961,
      "Ġcheck": 1962,
      ";&": 1963,
      "Ġz": 1964,
      "vious": 1965,
      "width": 1966,
      "urity": 1967,
      "Ġbreak": 1968,
      "26": 1969,
      "create": 1970,
      "Ġlevel": 1971,
      "ior": 1972,
      "LO": 1973,
      "ination": 1974,
      "Ġsince": 1975,
      "IS": 1976,
      "aces": 1977,
      "Ġold": 1978,
      "Of": 1979,
      "icy": 1980,
      "Ġproject": 1981,
      "acter": 1982,
      "Ġexper": 1983,
      "ĠEng": 1984,
      "Ġpres": 1985,
      "Ġreport": 1986,
      "Message": 1987,
      "ĠSystem": 1988,
      "reate": 1989,
      "Ġsrc": 1990,
      "Ġcreate": 1991,
      "version": 1992,
      "ĠAll": 1993,
      "Ġincre": 1994,
      ">&": 1995,
      "ources": 1996,
      "Ġnon": 1997,
      "ension": 1998,
      "29": 1999,
      "aut": 2000,
      "comp": 2001,
      "sw": 2002,
      "Ġjava": 2003,
      "[]": 2004,
      "Result": 2005,
      "Ġappe": 2006,
      "lished": 2007,
      "ĠJul": 2008,
      "Ġbest": 2009,
      "ocus": 2010,
      "MA": 2011,
      "aving": 2012,
      "Ġlaw": 2013,
      "loat": 2014,
      "ification": 2015,
      "2015": 2016,
      "Ġiss": 2017,
      "ternational": 2018,
      "ploy": 2019,
      "default": 2020,
      "ĠMan": 2021,
      "ĠGr": 2022,
      "java": 2023,
      "++": 2024,
      "tract": 2025,
      "Ġtem": 2026,
      "ĠComm": 2027,
      "ED": 2028,
      "ĠUS": 2029,
      "ĠSp": 2030,
      "eters": 2031,
      "Ġfin": 2032,
      "icle": 2033,
      "Ġ__": 2034,
      "ways": 2035,
      "ship": 2036,
      "Ġgiven": 2037,
      "tings": 2038,
      "gt": 2039,
      "ĠBl": 2040,
      "ĠPl": 2041,
      "irc": 2042,
      "egin": 2043,
      "And": 2044,
      "equ": 2045,
      "lt": 2046,
      "Ġfollowing": 2047,
      "Ġstruct": 2048,
      "ised": 2049,
      "Ġblock": 2050,
      "uage": 2051,
      "start": 2052,
      "ĠBr": 2053,
      "box": 2054,
      "Val": 2055,
      "ĠJohn": 2056,
      "tes": 2057,
      "Ġfour": 2058,
      "cope": 2059,
      "ched": 2060,
      "Ġanother": 2061,
      "Ġversion": 2062,
      "ches": 2063,
      "ari": 2064,
      "2014": 2065,
      "ugg": 2066,
      "Ġposs": 2067,
      "ĠEn": 2068,
      "nection": 2069,
      "content": 2070,
      "vert": 2071,
      "Ġke": 2072,
      "ender": 2073,
      "base": 2074,
      "âĢĶ": 2075,
      "ai": 2076,
      "....": 2077,
      "Ġexpl": 2078,
      "info": 2079,
      "ĠGet": 2080,
      "ĠThey": 2081,
      "ĠHow": 2082,
      "android": 2083,
      "Ġcalled": 2084,
      "Ġconfig": 2085,
      "ograph": 2086,
      "Ġ===": 2087,
      "itions": 2088,
      "oin": 2089,
      "Ġpath": 2090,
      "ES": 2091,
      "css": 2092,
      "ĠCent": 2093,
      "Ġpower": 2094,
      "Ġwithout": 2095,
      "Ġeffect": 2096,
      "lick": 2097,
      "olv": 2098,
      "New": 2099,
      "duct": 2100,
      "Ġann": 2101,
      "Ġca": 2102,
      "ots": 2103,
      "Ġmat": 2104,
      "roller": 2105,
      "state": 2106,
      "--------------------------------": 2107,
      "ET": 2108,
      "Ġterm": 2109,
      "Ġdep": 2110,
      "point": 2111,
      "ML": 2112,
      "System": 2113,
      "AB": 2114,
      "ulation": 2115,
      "Log": 2116,
      "include": 2117,
      "ideo": 2118,
      "Ġconf": 2119,
      "tn": 2120,
      "Ġ:=": 2121,
      "urch": 2122,
      "Ġposition": 2123,
      "Manager": 2124,
      "ocial": 2125,
      "acy": 2126,
      "ponse": 2127,
      "Up": 2128,
      "Model": 2129,
      "place": 2130,
      "Ġleg": 2131,
      "Ġret": 2132,
      "Ġgoing": 2133,
      "Ġcode": 2134,
      "80": 2135,
      "Ġhome": 2136,
      "UN": 2137,
      "Ġbase": 2138,
      "Ġreally": 2139,
      "aff": 2140,
      "Ġchang": 2141,
      "ĠÂ": 2142,
      "TD": 2143,
      "ULL": 2144,
      "AS": 2145,
      "Ġsk": 2146,
      "using": 2147,
      "US": 2148,
      "Ġsays": 2149,
      "ĠCan": 2150,
      "perties": 2151,
      "User": 2152,
      "ansp": 2153,
      "Ġexp": 2154,
      "context": 2155,
      "Ġorgan": 2156,
      "Sc": 2157,
      "uman": 2158,
      "Ġdisc": 2159,
      "MP": 2160,
      "Ġservice": 2161,
      "Ġadv": 2162,
      "ift": 2163,
      "Out": 2164,
      "arr": 2165,
      "ivity": 2166,
      "elete": 2167,
      "But": 2168,
      "Ġexample": 2169,
      "ĉĉĉĉĉĉ": 2170,
      "viron": 2171,
      "Table": 2172,
      "ories": 2173,
      "Ġbro": 2174,
      "earch": 2175,
      "Ġstyle": 2176,
      "sy": 2177,
      "Ser": 2178,
      "package": 2179,
      "ately": 2180,
      "ĠBe": 2181,
      "option": 2182,
      "uk": 2183,
      "define": 2184,
      "Ġfeature": 2185,
      "Ġitem": 2186,
      "OT": 2187,
      "odes": 2188,
      "Ġpresent": 2189,
      "aterial": 2190,
      "itional": 2191,
      "ended": 2192,
      "ĠĠĠĠĠĠĠĠĠĠ": 2193,
      "=\"../": 2194,
      "Color": 2195,
      "ready": 2196,
      "umer": 2197,
      "aim": 2198,
      "lected": 2199,
      "ape": 2200,
      "down": 2201,
      "ĠJan": 2202,
      "ottom": 2203,
      "efore": 2204,
      "ĠNo": 2205,
      "arge": 2206,
      "ored": 2207,
      "iction": 2208,
      "Comm": 2209,
      "Ġsuccess": 2210,
      "\".": 2211,
      ";</": 2212,
      "Ġsmall": 2213,
      "ename": 2214,
      "Ġtoo": 2215,
      "Ġfilm": 2216,
      "Ġmed": 2217,
      "Inter": 2218,
      "From": 2219,
      "ĠStates": 2220,
      "Ġspe": 2221,
      "pression": 2222,
      "net": 2223,
      "ĠTo": 2224,
      "gy": 2225,
      "ability": 2226,
      "ENT": 2227,
      "Ġdem": 2228,
      "Ġbusiness": 2229,
      "Ġ};": 2230,
      "Ġfamily": 2231,
      "IL": 2232,
      "Ġmonth": 2233,
      "Ġoptions": 2234,
      "amed": 2235,
      "ought": 2236,
      "elect": 2237,
      "sm": 2238,
      "Ġfew": 2239,
      "Ġtechn": 2240,
      "Ġins": 2241,
      "Ġaccess": 2242,
      "Ġinput": 2243,
      "web": 2244,
      "bl": 2245,
      "Ap": 2246,
      "Ġaddress": 2247,
      "Ġcontext": 2248,
      "namespace": 2249,
      "Ġhapp": 2250,
      ",\"": 2251,
      "ajor": 2252,
      "refer": 2253,
      "cast": 2254,
      "Ġallow": 2255,
      "ven": 2256,
      "=\"#": 2257,
      "Ġgreat": 2258,
      "Ġcap": 2259,
      "ume": 2260,
      "doc": 2261,
      "Ġchange": 2262,
      "45": 2263,
      "Ġstand": 2264,
      "ittle": 2265,
      "rec": 2266,
      "Ġoffic": 2267,
      "Ġwithin": 2268,
      "ances": 2269,
      "ĠÐ": 2270,
      "ĠIm": 2271,
      "Ġseason": 2272,
      "ĠWorld": 2273,
      "Ġinstance": 2274,
      "print": 2275,
      "DO": 2276,
      "Ġavailable": 2277,
      "Ġinterest": 2278,
      "ĠCar": 2279,
      "Ġla": 2280,
      "Ġtable": 2281,
      "google": 2282,
      "Ġlater": 2283,
      "Client": 2284,
      "ording": 2285,
      "Reg": 2286,
      "ired": 2287,
      "Ġmusic": 2288,
      "ĠCo": 2289,
      "Ġcontrol": 2290,
      "imit": 2291,
      "gress": 2292,
      "inc": 2293,
      "Ġput": 2294,
      "2013": 2295,
      ">(": 2296,
      "Group": 2297,
      "ively": 2298,
      "Ġpolit": 2299,
      "Property": 2300,
      "Ġmult": 2301,
      "================": 2302,
      "Ġnil": 2303,
      "ference": 2304,
      "Ġindex": 2305,
      "ĠNov": 2306,
      "au": 2307,
      "ged": 2308,
      "Trans": 2309,
      "ians": 2310,
      "db": 2311,
      "<!--": 2312,
      "light": 2313,
      "Ġbeh": 2314,
      "Ġenc": 2315,
      "Ġimp": 2316,
      "false": 2317,
      "ards": 2318,
      "Ġvari": 2319,
      "ison": 2320,
      "Ġident": 2321,
      "ules": 2322,
      "uments": 2323,
      "no": 2324,
      "ilt": 2325,
      "ithub": 2326,
      "Ġresponse": 2327,
      "Ġturn": 2328,
      "ĠTe": 2329,
      "Ð°": 2330,
      "Dis": 2331,
      "count": 2332,
      "}\\": 2333,
      "ourn": 2334,
      ")</": 2335,
      "ead": 2336,
      "ords": 2337,
      "Ġbool": 2338,
      "CE": 2339,
      "Ġsource": 2340,
      "static": 2341,
      "ĠYork": 2342,
      "Pl": 2343,
      "ival": 2344,
      "agement": 2345,
      "ending": 2346,
      "thing": 2347,
      "Ġbig": 2348,
      "Ġbased": 2349,
      "ething": 2350,
      "Ġinvest": 2351,
      "hes": 2352,
      "Ġocc": 2353,
      "ney": 2354,
      "Ġpo": 2355,
      "method": 2356,
      "build": 2357,
      "Ġconsider": 2358,
      "ĠPol": 2359,
      "Call": 2360,
      "66": 2361,
      "irt": 2362,
      "Response": 2363,
      "uture": 2364,
      "event": 2365,
      "Ġstd": 2366,
      "upport": 2367,
      "Ġele": 2368,
      "Ġnever": 2369,
      "Override": 2370,
      "ently": 2371,
      "Query": 2372,
      "Ġwin": 2373,
      "Ġcell": 2374,
      "Ġsever": 2375,
      "plement": 2376,
      "check": 2377,
      "illi": 2378,
      "Count": 2379,
      "lex": 2380,
      "}$": 2381,
      "Ġuntil": 2382,
      "ailed": 2383,
      "stand": 2384,
      "Pr": 2385,
      "Ġbu": 2386,
      "core": 2387,
      "aps": 2388,
      "Ġdocument": 2389,
      "Builder": 2390,
      "ĠĠĠĠĠĠĠĠĠĠĠĠ": 2391,
      "Ġcompany": 2392,
      "35": 2393,
      "Ġknown": 2394,
      "pen": 2395,
      "init": 2396,
      "begin": 2397,
      "NA": 2398,
      "Ġinclude": 2399,
      "vironment": 2400,
      "max": 2401,
      "Ġfull": 2402,
      "Ġgovernment": 2403,
      "oud": 2404,
      "})": 2405,
      "ifier": 2406,
      "Rec": 2407,
      "ĠWest": 2408,
      "Ġmessage": 2409,
      "bed": 2410,
      "amb": 2411,
      "github": 2412,
      "2012": 2413,
      "Ġandroid": 2414,
      "ique": 2415,
      "ĠApr": 2416,
      "Ġnode": 2417,
      "oke": 2418,
      "ibr": 2419,
      "ĠDr": 2420,
      "Ð¾": 2421,
      "ebug": 2422,
      "^{": 2423,
      "Ġseries": 2424,
      "aint": 2425,
      "99": 2426,
      "Ġeng": 2427,
      "wards": 2428,
      "Ġfore": 2429,
      "Arg": 2430,
      "oto": 2431,
      "Ġcount": 2432,
      "ĠAir": 2433,
      "actory": 2434,
      "call": 2435,
      "ured": 2436,
      "Cl": 2437,
      "Ġes": 2438,
      "serv": 2439,
      "ĠOct": 2440,
      "Ġmax": 2441,
      "iod": 2442,
      "Cell": 2443,
      "nect": 2444,
      "Ad": 2445,
      "ĠNational": 2446,
      "ĠAp": 2447,
      "Ġet": 2448,
      "ales": 2449,
      "lib": 2450,
      "Mod": 2451,
      "TH": 2452,
      "References": 2453,
      "01": 2454,
      "ĠAug": 2455,
      "urope": 2456,
      "conom": 2457,
      "IP": 2458,
      "sk": 2459,
      "ĠThere": 2460,
      "array": 2461,
      "ĠChrist": 2462,
      "argin": 2463,
      "ormal": 2464,
      "ering": 2465,
      "ĠCal": 2466,
      "ql": 2467,
      "Ġarea": 2468,
      "cer": 2469,
      "ides": 2470,
      "ĠGu": 2471,
      "Ġborder": 2472,
      "Ġprom": 2473,
      "book": 2474,
      "Date": 2475,
      "ĠEd": 2476,
      "ĠReg": 2477,
      "ĠMin": 2478,
      "Ġgrow": 2479,
      "ĠList": 2480,
      "Ph": 2481,
      "atab": 2482,
      "Ġpub": 2483,
      "Ġquest": 2484,
      "Ġparent": 2485,
      "Ġproble": 2486,
      "Ġstory": 2487,
      "Ġnear": 2488,
      "Ġvalues": 2489,
      "Stream": 2490,
      "ably": 2491,
      "Ġcolor": 2492,
      "oman": 2493,
      "Method": 2494,
      "ĠSet": 2495,
      "mbol": 2496,
      "ĠState": 2497,
      "pecial": 2498,
      "osp": 2499,
      "ĠAust": 2500,
      "CH": 2501,
      "Ġ()": 2502,
      "Ġdi": 2503,
      "ither": 2504,
      "ĠCont": 2505,
      "finished": 2506,
      "uary": 2507,
      "null": 2508,
      "current": 2509,
      "Ġchildren": 2510,
      "Ġoriginal": 2511,
      "(\\": 2512,
      "ĠPar": 2513,
      "semb": 2514,
      "Ġcond": 2515,
      "ĠJuly": 2516,
      "Util": 2517,
      "query": 2518,
      "ality": 2519,
      "Ġsit": 2520,
      "2011": 2521,
      "hold": 2522,
      "Bar": 2523,
      "ecut": 2524,
      "No": 2525,
      "ĠĠĠĠĠĠĠĠĠĠĠĠĠĠĠĠĠĠĠĠĠĠĠĠĠĠĠĠĠĠĠ": 2526,
      "Ġalready": 2527,
      "raft": 2528,
      "ertain": 2529,
      "de": 2530,
      "bum": 2531,
      "ĠSo": 2532,
      "Image": 2533,
      "options": 2534,
      "ĠSchool": 2535,
      "Ġless": 2536,
      "ention": 2537,
      "eger": 2538,
      "2010": 2539,
      "ators": 2540,
      "ĠCount": 2541,
      "creen": 2542,
      "39": 2543,
      "Ġhealth": 2544,
      "55": 2545,
      "ike": 2546,
      "Ġpay": 2547,
      "prov": 2548,
      "dir": 2549,
      "Ġwhe": 2550,
      "If": 2551,
      "Ġalways": 2552,
      "aged": 2553,
      "ama": 2554,
      "Ġ,": 2555,
      "icro": 2556,
      "Ġseem": 2557,
      "ung": 2558,
      "Ġprof": 2559,
      "Ġsomething": 2560,
      "Ġmight": 2561,
      "Ġdescri": 2562,
      "alf": 2563,
      "Ġproperty": 2564,
      "unk": 2565,
      "ĠWar": 2566,
      "dom": 2567,
      "ĠMarch": 2568,
      "ours": 2569,
      "Ġsingle": 2570,
      "stit": 2571,
      "stru": 2572,
      "client": 2573,
      "eral": 2574,
      "Ġaction": 2575,
      "Ġlang": 2576,
      "ising": 2577,
      "Ġaff": 2578,
      "Ġrepresent": 2579,
      "Ġpage": 2580,
      "php": 2581,
      "annel": 2582,
      "](": 2583,
      "ĠJune": 2584,
      "Ġshort": 2585,
      "Input": 2586,
      "Ðµ": 2587,
      "ONT": 2588,
      "func": 2589,
      "tra": 2590,
      "request": 2591,
      "31": 2592,
      "34": 2593,
      "ica": 2594,
      "ĠAb": 2595,
      "Sub": 2596,
      "Ġalong": 2597,
      "aly": 2598,
      "image": 2599,
      "Ġcome": 2600,
      "Ġcountry": 2601,
      "unfinished": 2602,
      "Ġmatch": 2603,
      "ones": 2604,
      "reen": 2605,
      "])": 2606,
      "Ġdesign": 2607,
      "Ġ<<": 2608,
      "Ġwomen": 2609,
      "Ġstat": 2610,
      "section": 2611,
      "Ġauthor": 2612,
      "ament": 2613,
      "Ed": 2614,
      "thers": 2615,
      "Ġkeep": 2616,
      "Ġask": 2617,
      "ued": 2618,
      "fe": 2619,
      "Ġfoot": 2620,
      "ĠRep": 2621,
      "ux": 2622,
      "Ġrest": 2623,
      "ĠCity": 2624,
      "icense": 2625,
      "Ġbetter": 2626,
      "Ġcity": 2627,
      "Ġthings": 2628,
      "Ġmembers": 2629,
      "Be": 2630,
      "Ġbackground": 2631,
      "Ġloc": 2632,
      "Fl": 2633,
      "ĠGe": 2634,
      "Ġmajor": 2635,
      "dl": 2636,
      "\\\\": 2637,
      "sec": 2638,
      "button": 2639,
      "37": 2640,
      "args": 2641,
      "sl": 2642,
      "Ġequ": 2643,
      "Status": 2644,
      "Ġelement": 2645,
      "ague": 2646,
      "oice": 2647,
      "style": 2648,
      "Ġfree": 2649,
      "IR": 2650,
      "Ġproduct": 2651,
      "ĠNULL": 2652,
      "End": 2653,
      "Ġresearch": 2654,
      "hand": 2655,
      "ĠSouth": 2656,
      "ĠWith": 2657,
      "igation": 2658,
      "see": 2659,
      "Ġfri": 2660,
      "used": 2661,
      "Ġhard": 2662,
      "jav": 2663,
      "mber": 2664,
      "Block": 2665,
      "met": 2666,
      "rew": 2667,
      "OP": 2668,
      "Ġide": 2669,
      "umb": 2670,
      "ĠEurope": 2671,
      "ober": 2672,
      "itive": 2673,
      "OL": 2674,
      "Ġmar": 2675,
      "AP": 2676,
      "server": 2677,
      "urther": 2678,
      "ĠIN": 2679,
      "Str": 2680,
      "Instance": 2681,
      "Ass": 2682,
      "ĠBrit": 2683,
      "Action": 2684,
      "olution": 2685,
      "riter": 2686,
      "ls": 2687,
      "Ġside": 2688,
      "Ġclear": 2689,
      "YPE": 2690,
      "ixed": 2691,
      "Gener": 2692,
      "Lay": 2693,
      "Ġcamp": 2694,
      "Ġfac": 2695,
      "anel": 2696,
      "ilit": 2697,
      "Ġgot": 2698,
      "ĠMc": 2699,
      "with": 2700,
      "Ġboolean": 2701,
      "ibility": 2702,
      "Ġlate": 2703,
      "ĠĠĊ": 2704,
      "ĠFeb": 2705,
      "Ġresults": 2706,
      "Ġexist": 2707,
      "ĠApril": 2708,
      "Ġsum": 2709,
      "Ġhistory": 2710,
      "ĠĠĠĠĠĠĠĠĠĠĠĠĠĠĠĠĠ": 2711,
      "Ġtot": 2712,
      "Ġlittle": 2713,
      "ĠFl": 2714,
      "Ġport": 2715,
      "ĠSec": 2716,
      "oney": 2717,
      "36": 2718,
      "ptember": 2719,
      "ights": 2720,
      "Ġinitial": 2721,
      "witch": 2722,
      "Ġearly": 2723,
      "Ġplayers": 2724,
      "active": 2725,
      "xml": 2726,
      "EL": 2727,
      "Ġmillion": 2728,
      "orage": 2729,
      "Component": 2730,
      "((": 2731,
      "Source": 2732,
      "90": 2733,
      "Act": 2734,
      "REF": 2735,
      "run": 2736,
      "adding": 2737,
      "imate": 2738,
      "ĠBo": 2739,
      "ille": 2740,
      "atform": 2741,
      "Token": 2742,
      "eting": 2743,
      "chema": 2744,
      "Par": 2745,
      "Off": 2746,
      "Ġrange": 2747,
      "ster": 2748,
      "Ġseveral": 2749,
      "[\"": 2750,
      "header": 2751,
      "Ġcharacter": 2752,
      "do": 2753,
      "Ġgl": 2754,
      "ĠPart": 2755,
      "aug": 2756,
      "Ġoutput": 2757,
      "Ġ->": 2758,
      "Ġ\"\"\"": 2759,
      "ilar": 2760,
      "xy": 2761,
      "Ġwon": 2762,
      "Ġsong": 2763,
      "44": 2764,
      "Ġimportant": 2765,
      "Nav": 2766,
      "atabase": 2767,
      "38": 2768,
      "ached": 2769,
      "Equal": 2770,
      "yles": 2771,
      "Line": 2772,
      "position": 2773,
      "cond": 2774,
      "Ġwater": 2775,
      "posed": 2776,
      "Ġrole": 2777,
      "lege": 2778,
      "ĠNot": 2779,
      "alt": 2780,
      "lin": 2781,
      "ops": 2782,
      "Ġrequired": 2783,
      "Ġvol": 2784,
      "era": 2785,
      "now": 2786,
      "Ġsuper": 2787,
      "196": 2788,
      "Ġleast": 2789,
      "Ġund": 2790,
      "ĠThat": 2791,
      "Ġbas": 2792,
      "page": 2793,
      "ipp": 2794,
      "Ġ+=": 2795,
      "btn": 2796,
      "Ġhost": 2797,
      "artment": 2798,
      "Ġwidth": 2799,
      "NS": 2800,
      "Ġnetwork": 2801,
      "ĠNorth": 2802,
      "aper": 2803,
      "ĠAct": 2804,
      "Ġfar": 2805,
      "oper": 2806,
      "App": 2807,
      "Ġjob": 2808,
      "undle": 2809,
      "Base": 2810,
      "inary": 2811,
      "Ġdeath": 2812,
      "Ġcustom": 2813,
      "Null": 2814,
      "ĠCounty": 2815,
      "isk": 2816,
      "ada": 2817,
      "Ġbody": 2818,
      "part": 2819,
      "2009": 2820,
      "cho": 2821,
      "Ġdest": 2822,
      "Ġwar": 2823,
      "Ġspecial": 2824,
      "mark": 2825,
      "Ġlot": 2826,
      "ĠJanuary": 2827,
      "ĠPres": 2828,
      "has": 2829,
      "ĠInt": 2830,
      "Ġdays": 2831,
      "Ð¸": 2832,
      "iff": 2833,
      "Ġlinks": 2834,
      "target": 2835,
      "tx": 2836,
      "ĠAdd": 2837,
      "Handler": 2838,
      "Buffer": 2839,
      "parent": 2840,
      "ns": 2841,
      "Dec": 2842,
      "height": 2843,
      "Options": 2844,
      "ĠGo": 2845,
      "append": 2846,
      "EX": 2847,
      "SP": 2848,
      "Ġtimes": 2849,
      "ered": 2850,
      "Ġra": 2851,
      "SC": 2852,
      "lease": 2853,
      "Ġmean": 2854,
      "Ġfeel": 2855,
      "Ġmove": 2856,
      "rior": 2857,
      "reet": 2858,
      "cy": 2859,
      "Ġprevious": 2860,
      "Select": 2861,
      "ugin": 2862,
      "Ġexpected": 2863,
      "Em": 2864,
      "Resource": 2865,
      "istor": 2866,
      "ĠTest": 2867,
      "adi": 2868,
      "ĠBy": 2869,
      "Ġestab": 2870,
      "70": 2871,
      "cember": 2872,
      "ĠAugust": 2873,
      "OD": 2874,
      "Ġcommunity": 2875,
      "Ġbeliev": 2876,
      "irm": 2877,
      "Ġimage": 2878,
      "Ġelect": 2879,
      "Ġhuman": 2880,
      "Ġtalk": 2881,
      "Ġlarge": 2882,
      "Ġcost": 2883,
      "AG": 2884,
      "idget": 2885,
      "child": 2886,
      "Ġtrack": 2887,
      "Ġassoci": 2888,
      "ĠOctober": 2889,
      "iol": 2890,
      "opt": 2891,
      "ĠĠĠĠĠĠĠĠĠĠĠĠĠĠ": 2892,
      "ham": 2893,
      "rows": 2894,
      "ĠSeptember": 2895,
      "({": 2896,
      "property": 2897,
      "2008": 2898,
      "json": 2899,
      "Âł": 2900,
      "ĠGener": 2901,
      "Ġpast": 2902,
      "ialog": 2903,
      "Ġdisplay": 2904,
      "ĠWhen": 2905,
      "ĠSer": 2906,
      "à¤": 2907,
      "FA": 2908,
      "dr": 2909,
      "Content": 2910,
      "vers": 2911,
      "ocol": 2912,
      "idual": 2913,
      "aring": 2914,
      "Ġfund": 2915,
      "navbar": 2916,
      "Ġbit": 2917,
      "Ġdone": 2918,
      "Ġhold": 2919,
      "Ġalbum": 2920,
      "adata": 2921,
      "Ġclos": 2922,
      "Oper": 2923,
      "rix": 2924,
      "alys": 2925,
      "Ġdiv": 2926,
      "TO": 2927,
      "Attribute": 2928,
      "ero": 2929,
      "Ġoffer": 2930,
      "atter": 2931,
      "Ġcover": 2932,
      "agn": 2933,
      "UE": 2934,
      "ĠOff": 2935,
      "ging": 2936,
      "ogn": 2937,
      "ana": 2938,
      "48": 2939,
      "Ġarr": 2940,
      "0000": 2941,
      "Ġyoung": 2942,
      "ze": 2943,
      "Ġair": 2944,
      "ategory": 2945,
      "Style": 2946,
      "tt": 2947,
      "ope": 2948,
      "eq": 2949,
      "VER": 2950,
      "75": 2951,
      "ĠĠĠĠĠĠĠĠĊ": 2952,
      "Ġant": 2953,
      "Ġsocial": 2954,
      "rest": 2955,
      "iple": 2956,
      "ams": 2957,
      "GL": 2958,
      "ĠClass": 2959,
      "Ġtook": 2960,
      "ulture": 2961,
      "ief": 2962,
      "idence": 2963,
      "ids": 2964,
      "Ġdeb": 2965,
      "ĠRob": 2966,
      "LASS": 2967,
      "Link": 2968,
      "ĠDes": 2969,
      "oute": 2970,
      "rib": 2971,
      "Read": 2972,
      "Ġworking": 2973,
      "ional": 2974,
      "External": 2975,
      "Ġaway": 2976,
      "Ġkind": 2977,
      "bit": 2978,
      "EE": 2979,
      "rel": 2980,
      "Ġche": 2981,
      "imary": 2982,
      "Comp": 2983,
      "Ġformer": 2984,
      "Ġmedia": 2985,
      "Ġmaking": 2986,
      "ounds": 2987,
      "Ġmap": 2988,
      "Ġlove": 2989,
      "HT": 2990,
      "Ġstep": 2991,
      "ĠRec": 2992,
      "ĠGerm": 2993,
      "Ġeas": 2994,
      "igr": 2995,
      "ĠDis": 2996,
      "Ġbecome": 2997,
      "ĉĊ": 2998,
      "select": 2999,
      "tributes": 3000,
      "ATE": 3001,
      "yl": 3002,
      "Ġprint": 3003,
      "*/": 3004,
      "came": 3005,
      "Run": 3006,
      "Ġacross": 3007,
      "cle": 3008,
      "Ġaccount": 3009,
      "Ġclaim": 3010,
      "Ġhaving": 3011,
      "Factory": 3012,
      "ection": 3013,
      "otype": 3014,
      "aken": 3015,
      "Start": 3016,
      "ruary": 3017,
      "Ġvalid": 3018,
      "Ġwhether": 3019,
      "Ġpossible": 3020,
      "member": 3021,
      "dec": 3022,
      "reed": 3023,
      "da": 3024,
      "Ġstudy": 3025,
      "anch": 3026,
      "Ġparticular": 3027,
      "ves": 3028,
      "Ġtrad": 3029,
      "CK": 3030,
      "Ġbecame": 3031,
      "08": 3032,
      "cell": 3033,
      "Default": 3034,
      "struction": 3035,
      "ptr": 3036,
      "Ġdevelopment": 3037,
      "Ġlik": 3038,
      "ework": 3039,
      "Ġcame": 3040,
      "iddle": 3041,
      "Equ": 3042,
      "cover": 3043,
      "open": 3044,
      "Ġprovide": 3045,
      "}{": 3046,
      "ĠRev": 3047,
      "ĠNone": 3048,
      "pected": 3049,
      "oph": 3050,
      "Sec": 3051,
      "Ġmeans": 3052,
      "ĠAustral": 3053,
      "ĠBar": 3054,
      "Ġ...": 3055,
      "Ġland": 3056,
      "write": 3057,
      "'re": 3058,
      "rowser": 3059,
      "Ġ($": 3060,
      "Ġinc": 3061,
      "Ġclient": 3062,
      "ÑĤ": 3063,
      "Number": 3064,
      "aced": 3065,
      "Part": 3066,
      "Ġdue": 3067,
      "ĠObject": 3068,
      "Function": 3069,
      "ĠNovember": 3070,
      "ply": 3071,
      "Ġindust": 3072,
      "05": 3073,
      "aul": 3074,
      "ansport": 3075,
      "Ġoften": 3076,
      "Ġable": 3077,
      "Ġpract": 3078,
      "Ġsite": 3079,
      "ĠRuss": 3080,
      "nown": 3081,
      "rect": 3082,
      "ication": 3083,
      "ĠComp": 3084,
      "unch": 3085,
      "Ġep": 3086,
      "private": 3087,
      "195": 3088,
      "Ġspace": 3089,
      "Ġfive": 3090,
      "Ġeconom": 3091,
      "status": 3092,
      "Ġonce": 3093,
      "oo": 3094,
      "Prov": 3095,
      "Ġdoesn": 3096,
      "imum": 3097,
      "imal": 3098,
      "Label": 3099,
      "You": 3100,
      "Version": 3101,
      "ado": 3102,
      "Ġmember": 3103,
      "ĠDecember": 3104,
      "tab": 3105,
      "ĉĉĉĉĉĉĉĉ": 3106,
      "idge": 3107,
      "case": 3108,
      "Ġtotal": 3109,
      "abor": 3110,
      "most": 3111,
      "post": 3112,
      "Point": 3113,
      "ington": 3114,
      "src": 3115,
      "lied": 3116,
      "True": 3117,
      "ills": 3118,
      "stream": 3119,
      "ĠĠĠĠĠĠĠĠĠĠĠĠĊ": 3120,
      "Ġperiod": 3121,
      "Ġthough": 3122,
      "py": 3123,
      "ĠMe": 3124,
      "img": 3125,
      "Ġsure": 3126,
      "Ġeither": 3127,
      "ĠCor": 3128,
      "Ġtoget": 3129,
      "Ġconc": 3130,
      "Ġtogether": 3131,
      "last": 3132,
      "Command": 3133,
      "Ġfuture": 3134,
      "\"]": 3135,
      "Ġsent": 3136,
      "Ġwhy": 3137,
      "Ġlarg": 3138,
      "ried": 3139,
      "izer": 3140,
      "CC": 3141,
      "Ġprotected": 3142,
      "Ġdom": 3143,
      "ĠDo": 3144,
      "MS": 3145,
      "Ġredu": 3146,
      "irth": 3147,
      "Ġload": 3148,
      "ĠDav": 3149,
      "module": 3150,
      "Ġeduc": 3151,
      "ĠMed": 3152,
      "Ġamong": 3153,
      "Ġcommand": 3154,
      "ĠPer": 3155,
      "Ġhouse": 3156,
      "Task": 3157,
      "amework": 3158,
      "find": 3159,
      "Ġcomput": 3160,
      "bottom": 3161,
      "sg": 3162,
      "Ġfocus": 3163,
      "ĠArt": 3164,
      "Ġstop": 3165,
      "Ġevents": 3166,
      "Ġopt": 3167,
      "Ġthrows": 3168,
      "Ġtoday": 3169,
      "host": 3170,
      "ĠOne": 3171,
      "Ġnum": 3172,
      "element": 3173,
      "year": 3174,
      "Hel": 3175,
      "Ġthought": 3176,
      "eed": 3177,
      "${": 3178,
      "Ġsy": 3179,
      "pha": 3180,
      "OS": 3181,
      "Ġcreated": 3182,
      "char": 3183,
      "ĠCoun": 3184,
      "Ġservices": 3185,
      "Ġpot": 3186,
      "Ġmen": 3187,
      "irtual": 3188,
      "sole": 3189,
      "cil": 3190,
      "ided": 3191,
      "Gr": 3192,
      "ĠReturn": 3193,
      "Last": 3194,
      "thern": 3195,
      "Ġresource": 3196,
      "ĠQu": 3197,
      "Check": 3198,
      "Ġdidn": 3199,
      "Ġ{@": 3200,
      "std": 3201,
      "Ġstudents": 3202,
      "RA": 3203,
      "Ġgive": 3204,
      "local": 3205,
      "ftware": 3206,
      "align": 3207,
      "Ġtell": 3208,
      "andom": 3209,
      "ocr": 3210,
      "Filter": 3211,
      "require": 3212,
      "ondon": 3213,
      "udio": 3214,
      "endif": 3215,
      "ĠHowever": 3216,
      "Ġclose": 3217,
      "push": 3218,
      "Ġreview": 3219,
      "Ġindiv": 3220,
      "Page": 3221,
      "rl": 3222,
      "first": 3223,
      "Ġcopy": 3224,
      "Ġoption": 3225,
      "Ġstatus": 3226,
      "Ġabove": 3227,
      "07": 3228,
      "meta": 3229,
      "uation": 3230,
      "Ġlight": 3231,
      "ournal": 3232,
      "heet": 3233,
      "na": 3234,
      "aging": 3235,
      "Ġcatch": 3236,
      "Ġstrong": 3237,
      "alysis": 3238,
      "Ġcomb": 3239,
      "layout": 3240,
      "});": 3241,
      "$.": 3242,
      "allet": 3243,
      "istry": 3244,
      "iment": 3245,
      "ables": 3246,
      "){": 3247,
      "vis": 3248,
      "ĠAg": 3249,
      "ouch": 3250,
      "Ġofficial": 3251,
      "Ġben": 3252,
      "2007": 3253,
      "NO": 3254,
      "strong": 3255,
      "Ġhig": 3256,
      "Ġdate": 3257,
      "FONT": 3258,
      "gener": 3259,
      "Ð½": 3260,
      "Ġlabel": 3261,
      "olved": 3262,
      "Ġever": 3263,
      "ascript": 3264,
      "Ġmeas": 3265,
      "FI": 3266,
      "ĠFebruary": 3267,
      "Ġnational": 3268,
      "Create": 3269,
      "unity": 3270,
      "pack": 3271,
      "Ġexperience": 3272,
      "hel": 3273,
      "ĠPe": 3274,
      "Ġenough": 3275,
      "ĠChar": 3276,
      "Ġattack": 3277,
      "Ġplan": 3278,
      "ients": 3279,
      "rodu": 3280,
      "flow": 3281,
      "Ġannoun": 3282,
      "}.": 3283,
      "signed": 3284,
      "inition": 3285,
      "Ġcourse": 3286,
      "uggest": 3287,
      "04": 3288,
      "eff": 3289,
      "ino": 3290,
      "Ġgames": 3291,
      "Sp": 3292,
      "Ġdepend": 3293,
      "Ġcompet": 3294,
      "Ġsix": 3295,
      "Ġcommon": 3296,
      "ĠDef": 3297,
      "ners": 3298,
      "ises": 3299,
      "aves": 3300,
      "///": 3301,
      "PRO": 3302,
      "ĠPark": 3303,
      "Ġtyp": 3304,
      "ibrary": 3305,
      "itory": 3306,
      "Ġthird": 3307,
      "Ġlength": 3308,
      "Ġemploy": 3309,
      "ude": 3310,
      "Ġglobal": 3311,
      "Ab": 3312,
      "(&": 3313,
      "Equals": 3314,
      "Ġlow": 3315,
      "Ġdev": 3316,
      "Ġpos": 3317,
      "adio": 3318,
      "ĠKing": 3319,
      "ĠMy": 3320,
      "ĠHis": 3321,
      "BU": 3322,
      "ĠUp": 3323,
      "ĠDep": 3324,
      "Ġbegin": 3325,
      "Ġlive": 3326,
      "oon": 3327,
      "Ġreceived": 3328,
      "apter": 3329,
      "though": 3330,
      "Ġvideo": 3331,
      "Ġlay": 3332,
      "Ġseen": 3333,
      "ĠAfter": 3334,
      "eline": 3335,
      "project": 3336,
      "ĠGL": 3337,
      "format": 3338,
      "Ġprovided": 3339,
      "apan": 3340,
      "ocket": 3341,
      "ĠNews": 3342,
      "06": 3343,
      "iet": 3344,
      "ĠVal": 3345,
      "change": 3346,
      "ĠHouse": 3347,
      "////////////////": 3348,
      "Controller": 3349,
      "Ġ((": 3350,
      "Ġsearch": 3351,
      "sembly": 3352,
      "Ġthing": 3353,
      "Ġstarted": 3354,
      "Ġtre": 3355,
      "Ġindividual": 3356,
      "IM": 3357,
      "egr": 3358,
      "apping": 3359,
      "ĠSup": 3360,
      "ause": 3361,
      "ĠSm": 3362,
      "SON": 3363,
      "afe": 3364,
      "Return": 3365,
      "leg": 3366,
      "png": 3367,
      "Ġothers": 3368,
      "gl": 3369,
      "df": 3370,
      "Ġcertain": 3371,
      "uster": 3372,
      "clus": 3373,
      "ABLE": 3374,
      "Ġmiss": 3375,
      "Ġage": 3376,
      "tempt": 3377,
      "ĠAm": 3378,
      "sol": 3379,
      "ae": 3380,
      "ifact": 3381,
      "roy": 3382,
      "epar": 3383,
      "ĠAmerica": 3384,
      "49": 3385,
      "description": 3386,
      "_{\\": 3387,
      "gle": 3388,
      "iting": 3389,
      "Ġnews": 3390,
      "Ġpoints": 3391,
      "ites": 3392,
      "rs": 3393,
      "display": 3394,
      "Ġshare": 3395,
      "idden": 3396,
      "Format": 3397,
      "Ġyet": 3398,
      "02": 3399,
      "ĠPresident": 3400,
      "47": 3401,
      "Ġsw": 3402,
      "First": 3403,
      "ements": 3404,
      "Ġdeterm": 3405,
      "mem": 3406,
      "board": 3407,
      "ken": 3408,
      "ĠStr": 3409,
      "pm": 3410,
      "Ġreleased": 3411,
      "Ġimplement": 3412,
      "Listener": 3413,
      "vision": 3414,
      "ĠAfr": 3415,
      "close": 3416,
      "What": 3417,
      "container": 3418,
      "Ġheight": 3419,
      "Ġadded": 3420,
      "hib": 3421,
      "03": 3422,
      "Us": 3423,
      "Ġgen": 3424,
      "bf": 3425,
      "Ġfurther": 3426,
      "INT": 3427,
      "Ġwent": 3428,
      "istic": 3429,
      "ks": 3430,
      "avel": 3431,
      "menu": 3432,
      "lections": 3433,
      "Ġprob": 3434,
      "attr": 3435,
      "Web": 3436,
      "entry": 3437,
      "inst": 3438,
      "lip": 3439,
      "ĠOF": 3440,
      "gen": 3441,
      "ministr": 3442,
      "Ġurl": 3443,
      "Ġmakes": 3444,
      "ÑĢ": 3445,
      "Ġcur": 3446,
      "Ġcompon": 3447,
      "uccess": 3448,
      "acing": 3449,
      "Ġsimilar": 3450,
      "Ġcommit": 3451,
      "oved": 3452,
      "Child": 3453,
      "Ġcontinue": 3454,
      "Ġhappen": 3455,
      "pose": 3456,
      "Ġnight": 3457,
      "ĠHREF": 3458,
      "mon": 3459,
      "Pol": 3460,
      "response": 3461,
      "Ġgeneral": 3462,
      "pc": 3463,
      "Char": 3464,
      "service": 3465,
      "Ġplayed": 3466,
      "09": 3467,
      "iler": 3468,
      "obj": 3469,
      "Ġreason": 3470,
      "Ġextends": 3471,
      "Ġbuilding": 3472,
      "ĠHar": 3473,
      "ilities": 3474,
      "ND": 3475,
      "Ġ<!--": 3476,
      "ĠWhat": 3477,
      "eh": 3478,
      "UM": 3479,
      ">>": 3480,
      "javascript": 3481,
      "ĠBro": 3482,
      "utions": 3483,
      "Ã¡": 3484,
      "Ġmargin": 3485,
      "Ġupdate": 3486,
      "len": 3487,
      "ĠII": 3488,
      "UI": 3489,
      "Ġdouble": 3490,
      "oding": 3491,
      "mt": 3492,
      "Ġpercent": 3493,
      "Ġpress": 3494,
      "46": 3495,
      "filter": 3496,
      "ĠSch": 3497,
      "ĠEast": 3498,
      "adem": 3499,
      "Ġcolumn": 3500,
      "2006": 3501,
      "indows": 3502,
      "Ġrelations": 3503,
      "_.": 3504,
      "annot": 3505,
      "Met": 3506,
      "params": 3507,
      "Ġlo": 3508,
      "atal": 3509,
      "Bundle": 3510,
      "\"),": 3511,
      "Ġheld": 3512,
      "########": 3513,
      "depend": 3514,
      "ĠLondon": 3515,
      "stract": 3516,
      "aven": 3517,
      "Ġcrit": 3518,
      "Ġauto": 3519,
      "Ġdiscuss": 3520,
      "ĠEm": 3521,
      "igger": 3522,
      "ĠInternational": 3523,
      "Ext": 3524,
      "Ġmaterial": 3525,
      "\").": 3526,
      "yd": 3527,
      "Pre": 3528,
      "ynam": 3529,
      "Ġfail": 3530,
      "aign": 3531,
      "update": 3532,
      "attle": 3533,
      "Ġsignific": 3534,
      "ography": 3535,
      "uid": 3536,
      "ael": 3537,
      "Ġunderstand": 3538,
      "Button": 3539,
      "ries": 3540,
      "ĠHigh": 3541,
      "sequ": 3542,
      "Ġmom": 3543,
      "Ġtown": 3544,
      "aker": 3545,
      "Ġdeal": 3546,
      "Ġnec": 3547,
      "Ġcoll": 3548,
      "ĠMark": 3549,
      "ntity": 3550,
      "ampion": 3551,
      "ĠCLASS": 3552,
      "2000": 3553,
      "medi": 3554,
      "Ġlanguage": 3555,
      "ald": 3556,
      "Output": 3557,
      "font": 3558,
      "mat": 3559,
      "ceed": 3560,
      "ociety": 3561,
      "Box": 3562,
      "Ġinternal": 3563,
      "Rep": 3564,
      "bb": 3565,
      "ĠThese": 3566,
      "omet": 3567,
      "ring": 3568,
      "Det": 3569,
      "Ġformat": 3570,
      "dict": 3571,
      "ERR": 3572,
      "cd": 3573,
      "Ġmarket": 3574,
      "Ġtask": 3575,
      "Ġhalf": 3576,
      "Valid": 3577,
      "ades": 3578,
      "aur": 3579,
      "Ġsubject": 3580,
      "tag": 3581,
      "arning": 3582,
      "Ġmer": 3583,
      "Ġenvironment": 3584,
      "Ġ]": 3585,
      "BC": 3586,
      "Ġtreat": 3587,
      "Length": 3588,
      "Ġtold": 3589,
      "Ġwrite": 3590,
      "urg": 3591,
      "rypt": 3592,
      "<?": 3593,
      "Ġfootball": 3594,
      "iles": 3595,
      "even": 3596,
      "Ġaccept": 3597,
      "Layout": 3598,
      "Ġmoney": 3599,
      "Ġactually": 3600,
      "ĠBritish": 3601,
      "det": 3602,
      "There": 3603,
      "asing": 3604,
      "Ġspecific": 3605,
      "$,": 3606,
      "Column": 3607,
      "IV": 3608,
      ":</": 3609,
      "URL": 3610,
      "How": 3611,
      "42": 3612,
      "imation": 3613,
      "refix": 3614,
      "IO": 3615,
      "Ġfall": 3616,
      "ĠCour": 3617,
      "cel": 3618,
      "Ġproblem": 3619,
      "tries": 3620,
      "Ġactiv": 3621,
      "Ġserver": 3622,
      "Ġpolitical": 3623,
      "Address": 3624,
      "ores": 3625,
      "ĠInter": 3626,
      "Per": 3627,
      "Mode": 3628,
      "ĠMon": 3629,
      "Tem": 3630,
      "Ġinit": 3631,
      "aph": 3632,
      "Ġperformance": 3633,
      "ĠMich": 3634,
      "styles": 3635,
      "Ġchanges": 3636,
      "instance": 3637,
      "Ġtax": 3638,
      "number": 3639,
      "ford": 3640,
      "TYPE": 3641,
      "Ġhttps": 3642,
      "COL": 3643,
      "structor": 3644,
      "Ġtw": 3645,
      "hing": 3646,
      "PC": 3647,
      "Ġrefer": 3648,
      "uel": 3649,
      "ci": 3650,
      "ERT": 3651,
      "actions": 3652,
      "ĠID": 3653,
      "remove": 3654,
      "Ġindic": 3655,
      "Ġvia": 3656,
      "IZ": 3657,
      "Ġrespons": 3658,
      "ĠLicense": 3659,
      "Ġrights": 3660,
      "Back": 3661,
      "Ġrespect": 3662,
      "Ġamount": 3663,
      "level": 3664,
      "ris": 3665,
      "Ġdevice": 3666,
      "tool": 3667,
      "Ġstream": 3668,
      "rown": 3669,
      "acity": 3670,
      "dev": 3671,
      "```": 3672,
      "Ġnone": 3673,
      "Tag": 3674,
      "Ġworks": 3675,
      "illed": 3676,
      "ĠEnglish": 3677,
      "unit": 3678,
      "rm": 3679,
      "Ġver": 3680,
      "Ġquestion": 3681,
      "Ġpur": 3682,
      ".)": 3683,
      "Ġemb": 3684,
      "ilitary": 3685,
      "num": 3686,
      "Ġincluded": 3687,
      "Ġsuggest": 3688,
      "Ġmot": 3689,
      "Ġrelease": 3690,
      "mar": 3691,
      "pass": 3692,
      "Ġmonths": 3693,
      "frac": 3694,
      "Ġarch": 3695,
      "ese": 3696,
      "soft": 3697,
      "anged": 3698,
      "Ġwebs": 3699,
      "Ġbirth": 3700,
      "efined": 3701,
      "reference": 3702,
      "anies": 3703,
      "mission": 3704,
      "Acc": 3705,
      "').": 3706,
      "Ġtele": 3707,
      "Post": 3708,
      "ĠAPI": 3709,
      "Ġfire": 3710,
      "ĠWilli": 3711,
      "Ġband": 3712,
      "CON": 3713,
      "lier": 3714,
      "Ġshows": 3715,
      "Cache": 3716,
      "Ġbegan": 3717,
      "AM": 3718,
      "Ġnav": 3719,
      "Ġcareer": 3720,
      "Dr": 3721,
      "Ġred": 3722,
      "ĠĠĠĠĠĠĠĠĠĠĠĠĠĠĠĠĠĠĠĠĠĠĠĠĠĠĠĠĠĠĠĠĠĠĠ": 3723,
      "Ġdiff": 3724,
      "Ġspecified": 3725,
      "ĠEX": 3726,
      "Ġcallback": 3727,
      "ological": 3728,
      "wise": 3729,
      "Ð¾Ð": 3730,
      "obile": 3731,
      "Ġphys": 3732,
      "ĠJapan": 3733,
      "ĠRed": 3734,
      "rench": 3735,
      "show": 3736,
      "tain": 3737,
      "ĠDon": 3738,
      "Ġener": 3739,
      "aml": 3740,
      "ĠHT": 3741,
      "Ġfont": 3742,
      "icles": 3743,
      "foot": 3744,
      "Ġbar": 3745,
      "One": 3746,
      "Aut": 3747,
      "AA": 3748,
      "Ġbuilt": 3749,
      "po": 3750,
      "uest": 3751,
      "ias": 3752,
      "Ġapplication": 3753,
      "Row": 3754,
      "Ġplayer": 3755,
      "Ġaccording": 3756,
      "Ġfav": 3757,
      "ĠAc": 3758,
      "uint": 3759,
      "Ġblack": 3760,
      "ATION": 3761,
      "Ġnamed": 3762,
      "irection": 3763,
      "Ġvisit": 3764,
      "Ġcirc": 3765,
      "else": 3766,
      "ĠPhil": 3767,
      "Ġinfl": 3768,
      "lean": 3769,
      "Types": 3770,
      "ĠTrans": 3771,
      "Ġtaken": 3772,
      "TP": 3773,
      "88": 3774,
      "Ġfa": 3775,
      "********************************": 3776,
      "CODE": 3777,
      "process": 3778,
      "lood": 3779,
      "output": 3780,
      "Offset": 3781,
      "Ñģ": 3782,
      "Ġinstead": 3783,
      "Ġmodule": 3784,
      "Server": 3785,
      "fully": 3786,
      "Ġwindow": 3787,
      "Ġroom": 3788,
      "Ġago": 3789,
      "Update": 3790,
      "ĠSw": 3791,
      "amily": 3792,
      "++)": 3793,
      "utils": 3794,
      "dat": 3795,
      "Ġmag": 3796,
      "lies": 3797,
      "ĠIr": 3798,
      "ãģ": 3799,
      "Ġsignificant": 3800,
      "Ġpotential": 3801,
      "dep": 3802,
      "Ġ!==": 3803,
      "Ġinstall": 3804,
      "prototype": 3805,
      "kit": 3806,
      "where": 3807,
      "Ġbelow": 3808,
      "Rem": 3809,
      "pol": 3810,
      "izing": 3811,
      "Ġpublished": 3812,
      "ĠSim": 3813,
      "essages": 3814,
      "bor": 3815,
      "can": 3816,
      "Ġinternational": 3817,
      "Ġdefined": 3818,
      "aries": 3819,
      "ĠHer": 3820,
      "Ġneeds": 3821,
      "Ġface": 3822,
      "offset": 3823,
      "2005": 3824,
      "That": 3825,
      "Ġentire": 3826,
      "77": 3827,
      "Ġmor": 3828,
      "Ġwritten": 3829,
      "65": 3830,
      "ĠDem": 3831,
      "ĠEl": 3832,
      "Ġlearn": 3833,
      "encies": 3834,
      "Ġrisk": 3835,
      "Ġvarious": 3836,
      "atural": 3837,
      "LI": 3838,
      "Spec": 3839,
      "Ġregion": 3840,
      "resh": 3841,
      "Ġsex": 3842,
      "Ġdoing": 3843,
      "(_": 3844,
      "Ġselect": 3845,
      "only": 3846,
      "NAME": 3847,
      "Ġviol": 3848,
      "Ġfiles": 3849,
      "Ġengine": 3850,
      "Ġsche": 3851,
      "support": 3852,
      "Ġpolicy": 3853,
      "Ġens": 3854,
      "Frame": 3855,
      "cul": 3856,
      "based": 3857,
      "ĠUK": 3858,
      "verage": 3859,
      "ĠSan": 3860,
      "maz": 3861,
      "ĠAcc": 3862,
      "space": 3863,
      "ĠAirport": 3864,
      "Provider": 3865,
      "When": 3866,
      "del": 3867,
      "Mem": 3868,
      "Target": 3869,
      "Ġfront": 3870,
      "Ġattempt": 3871,
      "Ġchall": 3872,
      "ĠCenter": 3873,
      "Ġalign": 3874,
      "Ġbad": 3875,
      "ĠLaw": 3876,
      "iforn": 3877,
      "=\"../../../../../": 3878,
      "Ġproduction": 3879,
      "Ġsection": 3880,
      "Ġ[]": 3881,
      "ivil": 3882,
      "Ġgroups": 3883,
      "ĠWeb": 3884,
      "scope": 3885,
      "Ġrather": 3886,
      "ĠPat": 3887,
      "Ġinterface": 3888,
      "Ġpresident": 3889,
      "ges": 3890,
      "ĠData": 3891,
      "ancial": 3892,
      "Vis": 3893,
      "atory": 3894,
      "ĠTrump": 3895,
      "Ġfeatures": 3896,
      "Ġfre": 3897,
      "=\"-": 3898,
      "%%": 3899,
      "Ġ**": 3900,
      "Ġteach": 3901,
      "unt": 3902,
      "ĠCollege": 3903,
      "Access": 3904,
      "Ġneg": 3905,
      "ĠGroup": 3906,
      "ha": 3907,
      "ĠIndia": 3908,
      "ram": 3909,
      "Ġcannot": 3910,
      "Ġcou": 3911,
      "Ġreturned": 3912,
      "Url": 3913,
      "Ġaw": 3914,
      "ĉĠĠĠ": 3915,
      "After": 3916,
      "Local": 3917,
      "Min": 3918,
      "center": 3919,
      "KE": 3920,
      "Ġtool": 3921,
      "bind": 3922,
      "Next": 3923,
      "inner": 3924,
      "acters": 3925,
      "unn": 3926,
      "coming": 3927,
      "ensor": 3928,
      "Ġissue": 3929,
      "Ġsat": 3930,
      "Ġissues": 3931,
      "Width": 3932,
      "ico": 3933,
      "elves": 3934,
      "eleg": 3935,
      "Ġparticip": 3936,
      "Ġfood": 3937,
      "rapper": 3938,
      "Ġcapt": 3939,
      "ingle": 3940,
      "oz": 3941,
      "Ġrunning": 3942,
      "ifornia": 3943,
      "lim": 3944,
      "Ġlooking": 3945,
      "ican": 3946,
      "Ġparty": 3947,
      "main": 3948,
      "Ġlocation": 3949,
      "Ġappear": 3950,
      "Ġhowever": 3951,
      "Ġdig": 3952,
      "500": 3953,
      "cite": 3954,
      "Ġobj": 3955,
      "older": 3956,
      "ĠSk": 3957,
      "Ġwr": 3958,
      "Entity": 3959,
      "][": 3960,
      "Ġsuff": 3961,
      "Ġcred": 3962,
      "Ġindustry": 3963,
      "Ġcomes": 3964,
      "olve": 3965,
      "ĠGod": 3966,
      "Ġreturns": 3967,
      "orge": 3968,
      "Ġlim": 3969,
      "Ġsepar": 3970,
      "Ġwor": 3971,
      "Ġ$(": 3972,
      "Tree": 3973,
      "final": 3974,
      "67": 3975,
      "elt": 3976,
      "Ġreported": 3977,
      "Ġintrodu": 3978,
      "Ġphot": 3979,
      "irit": 3980,
      "Ġalmost": 3981,
      "known": 3982,
      "Ġelements": 3983,
      "dated": 3984,
      "ãĥ": 3985,
      "Ġcut": 3986,
      "elling": 3987,
      "anger": 3988,
      "sd": 3989,
      "Ġmass": 3990,
      "Ġuint": 3991,
      "ĠType": 3992,
      "Configuration": 3993,
      "arter": 3994,
      "Ġhit": 3995,
      "Ġcomment": 3996,
      "Ġwhole": 3997,
      "HO": 3998,
      "yes": 3999,
      "buffer": 4000,
      "igin": 4001,
      "Ġpersonal": 4002,
      "si": 4003,
      "column": 4004,
      "criptor": 4005,
      "'m": 4006,
      "nes": 4007,
      "omb": 4008,
      "Ġbring": 4009,
      "Ġbenef": 4010,
      "icip": 4011,
      "Ġrecogn": 4012,
      "ĠStud": 4013,
      "Ġenergy": 4014,
      "Top": 4015,
      "Ġpain": 4016,
      "iday": 4017,
      "Ġwatch": 4018,
      "2004": 4019,
      "Open": 4020,
      "bool": 4021,
      "ĠDavid": 4022,
      "artifact": 4023,
      "late": 4024,
      "Ġtypes": 4025,
      "ĠJust": 4026,
      "Ġopport": 4027,
      "Ġoperation": 4028,
      "Ġwait": 4029,
      "ĠOut": 4030,
      "Ġdecl": 4031,
      "Ġpack": 4032,
      "miss": 4033,
      "ĠHealth": 4034,
      "root": 4035,
      "lying": 4036,
      "ĠLa": 4037,
      "hent": 4038,
      "Max": 4039,
      "ĠDirect": 4040,
      "Ġpick": 4041,
      "pecially": 4042,
      "Ġbehind": 4043,
      "ĠSee": 4044,
      "]);": 4045,
      "respond": 4046,
      "ĠAssoci": 4047,
      "Ġpers": 4048,
      "amples": 4049,
      "otal": 4050,
      "Ġentry": 4051,
      "oe": 4052,
      "Ġpopulation": 4053,
      "Level": 4054,
      "DB": 4055,
      "ij": 4056,
      "template": 4057,
      "PO": 4058,
      "Ġobserv": 4059,
      "anks": 4060,
      "Ġfloat": 4061,
      "Ġsecurity": 4062,
      "Ġgetting": 4063,
      "Ġcenter": 4064,
      "ĉĉĉĉĉĉĉ": 4065,
      "andid": 4066,
      "41": 4067,
      "UP": 4068,
      "Ġcy": 4069,
      "anced": 4070,
      "Ġground": 4071,
      "IGN": 4072,
      "Ġimm": 4073,
      "document": 4074,
      "ensive": 4075,
      "achine": 4076,
      "ĠRem": 4077,
      "frame": 4078,
      "ĠDec": 4079,
      "95": 4080,
      "Ġnecess": 4081,
      "ĠPal": 4082,
      "Ġbox": 4083,
      "break": 4084,
      "Ġbuffer": 4085,
      "spec": 4086,
      "Ġaddition": 4087,
      "Ġneeded": 4088,
      "duc": 4089,
      "common": 4090,
      "Ġwriting": 4091,
      "ULT": 4092,
      "task": 4093,
      "Ġexecut": 4094,
      "ips": 4095,
      "chiev": 4096,
      "ribut": 4097,
      "ĠRepublic": 4098,
      "Ġcurrently": 4099,
      "ecute": 4100,
      "ĠChina": 4101,
      ")(": 4102,
      "icult": 4103,
      "tee": 4104,
      "()->": 4105,
      "ĠTV": 4106,
      "ĠMore": 4107,
      "uses": 4108,
      "ledge": 4109,
      "FO": 4110,
      "classes": 4111,
      "Ġtaking": 4112,
      "Ġquery": 4113,
      "Container": 4114,
      "la": 4115,
      "Ġwalk": 4116,
      "Ġwhite": 4117,
      "Ġcompanies": 4118,
      "Ġargs": 4119,
      "returns": 4120,
      "43": 4121,
      "Utils": 4122,
      "Ġparameter": 4123,
      "ederal": 4124,
      "Ġassociated": 4125,
      "AV": 4126,
      "ĠSen": 4127,
      "Ġeffort": 4128,
      "Ġmethods": 4129,
      "Ġroad": 4130,
      "ili": 4131,
      "Ġincludes": 4132,
      "witter": 4133,
      "author": 4134,
      "mathcal": 4135,
      "Ġlen": 4136,
      "small": 4137,
      "Position": 4138,
      "See": 4139,
      "ala": 4140,
      "Ġsort": 4141,
      "ĠRE": 4142,
      "Control": 4143,
      "~~": 4144,
      "Ã³": 4145,
      "typ": 4146,
      "Ġill": 4147,
      "Ġtim": 4148,
      "win": 4149,
      "oriz": 4150,
      "Ġoffset": 4151,
      "Ġdoc": 4152,
      "Ġrow": 4153,
      "stant": 4154,
      "ara": 4155,
      "ĠLeague": 4156,
      "Ġactive": 4157,
      "Ġmind": 4158,
      "ĠFile": 4159,
      "Ġareas": 4160,
      "just": 4161,
      "Ġclub": 4162,
      "Ġnames": 4163,
      "Ġwebsite": 4164,
      "urb": 4165,
      "Ġitself": 4166,
      "ensions": 4167,
      "Ġrecent": 4168,
      "Sy": 4169,
      "So": 4170,
      "Ġfilter": 4171,
      "Ġhon": 4172,
      "ĠStreet": 4173,
      "airs": 4174,
      "Process": 4175,
      "Ġreference": 4176,
      "Ġheart": 4177,
      "Ġfight": 4178,
      "Ġcampaign": 4179,
      "ĠSub": 4180,
      "Ġfriend": 4181,
      "Work": 4182,
      "rote": 4183,
      "Ġfig": 4184,
      "rief": 4185,
      ">,": 4186,
      "ĠHol": 4187,
      "should": 4188,
      "Load": 4189,
      "ĠName": 4190,
      "parse": 4191,
      "=\"../../../../../../": 4192,
      "Ġterms": 4193,
      "ĠNor": 4194,
      "Header": 4195,
      "Location": 4196,
      "ming": 4197,
      "ĠSy": 4198,
      "sup": 4199,
      "Ġliter": 4200,
      "float": 4201,
      "Ġpolice": 4202,
      "ĠGover": 4203,
      "Ġcross": 4204,
      "ria": 4205,
      "udd": 4206,
      "ĠLog": 4207,
      "Ġtechnology": 4208,
      "ellow": 4209,
      "Ġ::": 4210,
      "ĠArray": 4211,
      "Ġnothing": 4212,
      "Ġapplic": 4213,
      "Ġprofession": 4214,
      "Ġled": 4215,
      "pi": 4216,
      "\\\"": 4217,
      "Ġcollection": 4218,
      "Height": 4219,
      "Entry": 4220,
      "Case": 4221,
      "expected": 4222,
      "control": 4223,
      "like": 4224,
      "Ġvirtual": 4225,
      "Ġcases": 4226,
      "ĠÃ": 4227,
      "Ġconsum": 4228,
      "'ve": 4229,
      "Ġnov": 4230,
      "Ġmultiple": 4231,
      "atives": 4232,
      "entity": 4233,
      "Ġvot": 4234,
      "eature": 4235,
      "Ġwords": 4236,
      "Bo": 4237,
      "ĠFirst": 4238,
      "istance": 4239,
      "Ġlimit": 4240,
      "rael": 4241,
      "Ġconnection": 4242,
      "'),": 4243,
      ":\"": 4244,
      "Ġrelationship": 4245,
      "Ġlikely": 4246,
      "Ġanything": 4247,
      "'>": 4248,
      "ĠApp": 4249,
      "gn": 4250,
      "Callback": 4251,
      "Ġhistor": 4252,
      "ĠCalifornia": 4253,
      "ĠFrom": 4254,
      "match": 4255,
      "Ġlower": 4256,
      "istics": 4257,
      "atur": 4258,
      "Do": 4259,
      "Ġforward": 4260,
      "Ġroot": 4261,
      "inn": 4262,
      "Ġprior": 4263,
      "Ob": 4264,
      "augh": 4265,
      "ĠWork": 4266,
      "Ġrate": 4267,
      "Interface": 4268,
      "vention": 4269,
      "wood": 4270,
      "icrosoft": 4271,
      "ĠDi": 4272,
      "Ġexpress": 4273,
      "ãĤ": 4274,
      "ĠReturns": 4275,
      "Ġbelieve": 4276,
      ";->": 4277,
      "Write": 4278,
      "Ġhours": 4279,
      "ka": 4280,
      "ĠDay": 4281,
      "Search": 4282,
      "Ġsound": 4283,
      "./": 4284,
      "Parameter": 4285,
      "attern": 4286,
      "kind": 4287,
      "useum": 4288,
      "Settings": 4289,
      "chan": 4290,
      "API": 4291,
      "tml": 4292,
      "ĠTO": 4293,
      "ĠBlack": 4294,
      "Ġquick": 4295,
      "long": 4296,
      "ART": 4297,
      "sv": 4298,
      "Ġleaders": 4299,
      "Ġvict": 4300,
      "Ġarticle": 4301,
      "ube": 4302,
      "Ġsystems": 4303,
      "ategy": 4304,
      "oring": 4305,
      "eft": 4306,
      "Ġvill": 4307,
      "Ġtakes": 4308,
      "Ġcontrib": 4309,
      "ĠMr": 4310,
      "Ag": 4311,
      "Unit": 4312,
      "Ġmode": 4313,
      "boot": 4314,
      "Module": 4315,
      "iers": 4316,
      "ervices": 4317,
      "Ġexception": 4318,
      "queue": 4319,
      "sign": 4320,
      "patch": 4321,
      "([": 4322,
      "artifactId": 4323,
      "joy": 4324,
      "cache": 4325,
      "istrict": 4326,
      "ashington": 4327,
      "ĠIndian": 4328,
      "Ġscreen": 4329,
      "Http": 4330,
      "Ġhimself": 4331,
      "Ġcomplete": 4332,
      "Ġremove": 4333,
      "Americ": 4334,
      "Ġdetails": 4335,
      "Ġbi": 4336,
      "Ġlost": 4337,
      "Ġther": 4338,
      "Copy": 4339,
      "Ġdeep": 4340,
      "\"))": 4341,
      "ba": 4342,
      "Ġsus": 4343,
      "cape": 4344,
      "Ġcharacters": 4345,
      "Ġpopular": 4346,
      "Ġdescribed": 4347,
      "ĠĠĠĠĠĠĠĠĠĠĠĠĠĠĠĠĠĠĠĠĠ": 4348,
      "Ġtag": 4349,
      "Ġshall": 4350,
      "Ġson": 4351,
      "Ġparameters": 4352,
      "Ġgrad": 4353,
      "layer": 4354,
      "None": 4355,
      "ĠCouncil": 4356,
      "Ġ{}": 4357,
      "erve": 4358,
      "Ġoutside": 4359,
      "strap": 4360,
      "ĠService": 4361,
      "lands": 4362,
      "ĠIS": 4363,
      "etch": 4364,
      "Window": 4365,
      "Ġgir": 4366,
      "ĠNS": 4367,
      "Range": 4368,
      "STR": 4369,
      "COLOR": 4370,
      "Ġupon": 4371,
      "ĠDepartment": 4372,
      "58": 4373,
      "Bl": 4374,
      "Ġxml": 4375,
      "verse": 4376,
      "My": 4377,
      "IZE": 4378,
      "%;": 4379,
      "ĠCons": 4380,
      "tree": 4381,
      "ĠEuropean": 4382,
      "Ġcentury": 4383,
      "Ġword": 4384,
      "ĠSome": 4385,
      "ĠInc": 4386,
      "Ġfailed": 4387,
      "Direct": 4388,
      "lor": 4389,
      "uit": 4390,
      "Ġmanagement": 4391,
      "Thread": 4392,
      "ĠDE": 4393,
      "ctx": 4394,
      "Ġdraw": 4395,
      "Ġnormal": 4396,
      "2001": 4397,
      "hood": 4398,
      "mut": 4399,
      "Ġaud": 4400,
      "Br": 4401,
      "ĠCreate": 4402,
      "Ġsequ": 4403,
      "rupt": 4404,
      "Ġonline": 4405,
      "ÃŃ": 4406,
      "uge": 4407,
      "ĠPaul": 4408,
      "itch": 4409,
      "VAL": 4410,
      "Ġinj": 4411,
      "ĠBook": 4412,
      "Ġregister": 4413,
      "resource": 4414,
      "ĠJames": 4415,
      "cial": 4416,
      "inate": 4417,
      "fect": 4418,
      "stylesheet": 4419,
      "ĠAssert": 4420,
      "ped": 4421,
      "aily": 4422,
      "Go": 4423,
      "Ġlocated": 4424,
      "stitute": 4425,
      "ACK": 4426,
      "astic": 4427,
      "alpha": 4428,
      "Ġden": 4429,
      "elebr": 4430,
      "Co": 4431,
      "ampionship": 4432,
      "Ġprobably": 4433,
      "Ġidea": 4434,
      "ĠFrench": 4435,
      "Ġtraining": 4436,
      "Ġeducation": 4437,
      "QL": 4438,
      "thon": 4439,
      "alled": 4440,
      "Empty": 4441,
      "ĠAustralia": 4442,
      "token": 4443,
      "Ġprote": 4444,
      "rics": 4445,
      "Ġadditional": 4446,
      "Ġselected": 4447,
      "tim": 4448,
      "Ġpret": 4449,
      "ĠUs": 4450,
      "groupId": 4451,
      "Ġss": 4452,
      "Ġexc": 4453,
      "nov": 4454,
      "rt": 4455,
      "ĠCourt": 4456,
      "arrow": 4457,
      "ĠGeneral": 4458,
      "raz": 4459,
      "enced": 4460,
      "Ġimpact": 4461,
      "illing": 4462,
      "Ġround": 4463,
      "Ġisn": 4464,
      "OM": 4465,
      "Del": 4466,
      "Ġoffice": 4467,
      "Ġimprov": 4468,
      "Ġforce": 4469,
      "ĠOf": 4470,
      "ĠST": 4471,
      "Ġcoming": 4472,
      "Ġregard": 4473,
      "Ġachiev": 4474,
      "ĠMod": 4475,
      "Ġstates": 4476,
      "device": 4477,
      ",\\": 4478,
      "anning": 4479,
      "ĠPublic": 4480,
      "........": 4481,
      "Ġsend": 4482,
      "57": 4483,
      "IF": 4484,
      "mm": 4485,
      "window": 4486,
      "ett": 4487,
      "ĠPort": 4488,
      "Ġdeg": 4489,
      "ĠNe": 4490,
      "apped": 4491,
      "ĠTHE": 4492,
      "Ġhigher": 4493,
      "nap": 4494,
      "Ġsold": 4495,
      "ECT": 4496,
      "Ġespecially": 4497,
      "Ġconsidered": 4498,
      "BA": 4499,
      "ota": 4500,
      "Ġsolid": 4501,
      "mitted": 4502,
      "Lo": 4503,
      "Ġtrying": 4504,
      "Ġsoftware": 4505,
      "fort": 4506,
      "lice": 4507,
      "Params": 4508,
      "Ġcontract": 4509,
      "Current": 4510,
      "Ġannounced": 4511,
      "files": 4512,
      "ago": 4513,
      "Ġinflu": 4514,
      "Ġfather": 4515,
      "Ġ*)": 4516,
      "Ġpatients": 4517,
      "Ġhot": 4518,
      "Ġproperties": 4519,
      "Ġstandard": 4520,
      "Ġcountries": 4521,
      "Option": 4522,
      "Script": 4523,
      "De": 4524,
      "Ġworked": 4525,
      "rict": 4526,
      "Ġestablished": 4527,
      "avy": 4528,
      "itect": 4529,
      "scri": 4530,
      "ĠAnt": 4531,
      "Ġwrote": 4532,
      "Ġansw": 4533,
      "drop": 4534,
      "ĠGoogle": 4535,
      "grad": 4536,
      "=\"_": 4537,
      "68": 4538,
      "zz": 4539,
      "Ġhom": 4540,
      "aled": 4541,
      "vey": 4542,
      "ospital": 4543,
      "ĠTime": 4544,
      "ĠCanada": 4545,
      "Ġhandle": 4546,
      "Description": 4547,
      "2003": 4548,
      "CL": 4549,
      "Ġloss": 4550,
      "gor": 4551,
      "ĠChe": 4552,
      "room": 4553,
      "Ġstation": 4554,
      "TI": 4555,
      ")$": 4556,
      "Prot": 4557,
      ".$": 4558,
      "59": 4559,
      "Ġcho": 4560,
      "Connection": 4561,
      "Ġstore": 4562,
      "ambda": 4563,
      "Ġsimple": 4564,
      "Ġfem": 4565,
      "oub": 4566,
      "ĠEngland": 4567,
      "CA": 4568,
      "conf": 4569,
      "Ġcourt": 4570,
      "pite": 4571,
      "ribution": 4572,
      "Ġfields": 4573,
      "ĠEar": 4574,
      "Ġstage": 4575,
      "Ġconditions": 4576,
      "ĠOpen": 4577,
      "images": 4578,
      "Ġconcern": 4579,
      "Ġseems": 4580,
      "Mat": 4581,
      "Change": 4582,
      "Ġtour": 4583,
      "Ġcomplex": 4584,
      "ĠMal": 4585,
      "Ġsession": 4586,
      "UB": 4587,
      "Ġfilms": 4588,
      "TS": 4589,
      "Ġasked": 4590,
      "ii": 4591,
      "ĠRobert": 4592,
      "Ġcontains": 4593,
      "plicit": 4594,
      "Pe": 4595,
      "Project": 4596,
      "izes": 4597,
      "Ġepis": 4598,
      "exp": 4599,
      "Ġrelated": 4600,
      "Ġcontact": 4601,
      "adow": 4602,
      "draw": 4603,
      "asons": 4604,
      "Ġhope": 4605,
      "MO": 4606,
      "Ġpassed": 4607,
      "Ġunit": 4608,
      "Json": 4609,
      "ecution": 4610,
      "border": 4611,
      "Ġsomeone": 4612,
      "Ġplaying": 4613,
      "Menu": 4614,
      "Ġaverage": 4615,
      "Ġrender": 4616,
      "Enc": 4617,
      "cing": 4618,
      "Ġprovides": 4619,
      "interface": 4620,
      "ĠCr": 4621,
      "Ġlib": 4622,
      "ida": 4623,
      "Ġjud": 4624,
      "Ġstructure": 4625,
      "Hash": 4626,
      "Ġder": 4627,
      "''": 4628,
      "Ġweb": 4629,
      "plit": 4630,
      "Ġwanted": 4631,
      "aa": 4632,
      "Record": 4633,
      "Ġstri": 4634,
      "oom": 4635,
      "amera": 4636,
      "Rel": 4637,
      "Ġdam": 4638,
      "ees": 4639,
      "Port": 4640,
      "Ġspecies": 4641,
      "empty": 4642,
      "ĠRef": 4643,
      "agment": 4644,
      "pri": 4645,
      "\"));": 4646,
      "Ġfilename": 4647,
      "Ġliving": 4648,
      "TER": 4649,
      "Ġmeet": 4650,
      "Ġautom": 4651,
      "debug": 4652,
      "}_": 4653,
      "Eng": 4654,
      "Ġmilitary": 4655,
      "Ġmid": 4656,
      "ä¸": 4657,
      "Ġallowed": 4658,
      "ursor": 4659,
      "ĠUR": 4660,
      "Ġeverything": 4661,
      "Document": 4662,
      "Ġsense": 4663,
      "ependent": 4664,
      "Ġunique": 4665,
      "Ġrock": 4666,
      ":(": 4667,
      "ĠBuild": 4668,
      "force": 4669,
      "Ġapproach": 4670,
      "icient": 4671,
      "SH": 4672,
      "ĠPost": 4673,
      "Ġsaw": 4674,
      "fs": 4675,
      "erved": 4676,
      "ĠRead": 4677,
      "ctor": 4678,
      "Ġdecision": 4679,
      "Ġplatform": 4680,
      "iences": 4681,
      "ĠPre": 4682,
      "Ġmoment": 4683,
      "tog": 4684,
      "arks": 4685,
      "Ġprogress": 4686,
      "Ġwoman": 4687,
      "Ġbound": 4688,
      "hash": 4689,
      "Ġinfo": 4690,
      "ĠArch": 4691,
      "'ll": 4692,
      "2020": 4693,
      "Ġempty": 4694,
      "ĠJack": 4695,
      "Session": 4696,
      "icture": 4697,
      "Ġexcept": 4698,
      "ĠOR": 4699,
      "rian": 4700,
      "ALL": 4701,
      "97": 4702,
      "ĠThom": 4703,
      "greg": 4704,
      "ĠChurch": 4705,
      "msg": 4706,
      "ĠRich": 4707,
      "Can": 4708,
      "Ġ>=": 4709,
      "Ġparams": 4710,
      "iqu": 4711,
      "Ġpadding": 4712,
      "Ġign": 4713,
      "bin": 4714,
      "Ġstaff": 4715,
      "asc": 4716,
      "adius": 4717,
      "Ġbehav": 4718,
      "ĠBer": 4719,
      "modal": 4720,
      "Ġrev": 4721,
      "Ġborn": 4722,
      "!!": 4723,
      "Ġge": 4724,
      "Ġwhose": 4725,
      "background": 4726,
      "ville": 4727,
      "Ġusers": 4728,
      "Op": 4729,
      "models": 4730,
      "ĠWashington": 4731,
      "internal": 4732,
      "Ġquite": 4733,
      "Ġcouple": 4734,
      "SA": 4735,
      "oded": 4736,
      "ĠCheck": 4737,
      "Ġshown": 4738,
      "PR": 4739,
      "fa": 4740,
      "quare": 4741,
      "II": 4742,
      "Ġcorrect": 4743,
      "Ġdirector": 4744,
      "abs": 4745,
      "Ġbroad": 4746,
      "ORD": 4747,
      "}(": 4748,
      "omic": 4749,
      "Ġdifficult": 4750,
      "Ġmatter": 4751,
      "Ġstre": 4752,
      "ugins": 4753,
      "Ġdied": 4754,
      "Ġchanged": 4755,
      "rea": 4756,
      "born": 4757,
      "Ġproducts": 4758,
      "alle": 4759,
      "ye": 4760,
      "Ġmovie": 4761,
      "DD": 4762,
      "Ġir": 4763,
      "Ġgre": 4764,
      "Ġlonger": 4765,
      "Ġinf": 4766,
      "Mon": 4767,
      "Ġenjoy": 4768,
      "Ġâ": 4769,
      "ĠFound": 4770,
      "het": 4771,
      "BO": 4772,
      "mselves": 4773,
      "Le": 4774,
      "ĠEv": 4775,
      "ĠMor": 4776,
      "Po": 4777,
      "Ġanalysis": 4778,
      "Ġattribute": 4779,
      "Ġserved": 4780,
      "ĠAL": 4781,
      "Properties": 4782,
      "cr": 4783,
      "ston": 4784,
      "Ġsoon": 4785,
      "Font": 4786,
      "Ġoverride": 4787,
      "2002": 4788,
      "XX": 4789,
      "Collection": 4790,
      "aches": 4791,
      "rought": 4792,
      "docs": 4793,
      "Ġcult": 4794,
      "card": 4795,
      "render": 4796,
      "Ġscope": 4797,
      "ictionary": 4798,
      "ya": 4799,
      "lit": 4800,
      "urren": 4801,
      "Ġcast": 4802,
      "Mar": 4803,
      "Match": 4804,
      "Ġrelig": 4805,
      "iece": 4806,
      "ĠException": 4807,
      "~\\": 4808,
      "Ġmoved": 4809,
      "Ġquality": 4810,
      "Ġthemselves": 4811,
      "Ġconduct": 4812,
      "Ġaward": 4813,
      "56": 4814,
      "Ġsil": 4815,
      "Ġleading": 4816,
      "Ġreve": 4817,
      "ĠBen": 4818,
      "ios": 4819,
      "address": 4820,
      "Ġadministr": 4821,
      "Ġtransform": 4822,
      "step": 4823,
      "Ġincrease": 4824,
      "Ġq": 4825,
      "Ġregular": 4826,
      "equal": 4827,
      "Integer": 4828,
      "copy": 4829,
      "Ge": 4830,
      "wner": 4831,
      "alls": 4832,
      "nor": 4833,
      "Impl": 4834,
      "Ġswitch": 4835,
      "Ġcomponent": 4836,
      "Ġmemory": 4837,
      "site": 4838,
      "pop": 4839,
      "Ġmodels": 4840,
      "AND": 4841,
      "ĠResearch": 4842,
      "NavBar": 4843,
      "ula": 4844,
      "ĠMet": 4845,
      "Ġuses": 4846,
      "ĠMusic": 4847,
      "Ġbooks": 4848,
      "ena": 4849,
      "ĠDan": 4850,
      "Ġinvolved": 4851,
      "Ġcause": 4852,
      "ĠIsrael": 4853,
      "SD": 4854,
      "Ġcomplet": 4855,
      "ponents": 4856,
      "PECT": 4857,
      "Ġ>>": 4858,
      "ynamic": 4859,
      "Ġful": 4860,
      "estival": 4861,
      "ua": 4862,
      "values": 4863,
      "gorith": 4864,
      "ping": 4865,
      "Ġsem": 4866,
      "ĠBG": 4867,
      "Ġreading": 4868,
      "more": 4869,
      "Ġste": 4870,
      "Ġten": 4871,
      "ĠMem": 4872,
      "INE": 4873,
      "inated": 4874,
      "ĠMag": 4875,
      "():": 4876,
      "Ġboard": 4877,
      "oyal": 4878,
      "Helper": 4879,
      "Ġevidence": 4880,
      "Ġdistrict": 4881,
      "Order": 4882,
      "angle": 4883,
      "incip": 4884,
      "Ġinside": 4885,
      "auth": 4886,
      "Ġraise": 4887,
      "cap": 4888,
      "osed": 4889,
      "Ġthreat": 4890,
      "Ġmodern": 4891,
      "rd": 4892,
      "orizont": 4893,
      "Ġfun": 4894,
      "inding": 4895,
      "Stat": 4896,
      "ternet": 4897,
      "ĠJer": 4898,
      "Down": 4899,
      "Ġminutes": 4900,
      "Operation": 4901,
      "iation": 4902,
      "ĠJew": 4903,
      "olume": 4904,
      "olar": 4905,
      "equation": 4906,
      "Ġtemplate": 4907,
      "before": 4908,
      "estamp": 4909,
      "Pos": 4910,
      "ĠDistrict": 4911,
      "Ġactual": 4912,
      "onder": 4913,
      "ĠDel": 4914,
      "acc": 4915,
      "{{": 4916,
      "essor": 4917,
      "Serial": 4918,
      "Ġequal": 4919,
      "Reference": 4920,
      "Ġfinancial": 4921,
      "Ġ;": 4922,
      "Ptr": 4923,
      "ĠOb": 4924,
      "}^": 4925,
      "ĠEnd": 4926,
      "ĠMichael": 4927,
      "98": 4928,
      "Store": 4929,
      "TC": 4930,
      "mas": 4931,
      "Ġlisten": 4932,
      "1999": 4933,
      "lam": 4934,
      "clear": 4935,
      "Ġrace": 4936,
      "Tim": 4937,
      "ĠMart": 4938,
      "ĠPress": 4939,
      "Ġitems": 4940,
      "Ġconsist": 4941,
      "delete": 4942,
      "PA": 4943,
      "uate": 4944,
      "Ġimmedi": 4945,
      "Dir": 4946,
      "Handle": 4947,
      "Ġbuy": 4948,
      "Pass": 4949,
      "Ġstay": 4950,
      "ĠGerman": 4951,
      "Ġjav": 4952,
      "ERROR": 4953,
      "Ġdescription": 4954,
      "Inst": 4955,
      "ĠNow": 4956,
      "imple": 4957,
      "oul": 4958,
      "Ġlines": 4959,
      "ĉĠ": 4960,
      "bon": 4961,
      "Async": 4962,
      "send": 4963,
      "ixt": 4964,
      "hr": 4965,
      "ĠCong": 4966,
      "ĉĉĊ": 4967,
      "anges": 4968,
      "ĠSum": 4969,
      "ech": 4970,
      "zer": 4971,
      "afety": 4972,
      "Ġlegal": 4973,
      "Ġflo": 4974,
      "Schema": 4975,
      "quired": 4976,
      "PL": 4977,
      "gu": 4978,
      "ufact": 4979,
      "ĠMat": 4980,
      "ĠQue": 4981,
      "Host": 4982,
      "Ġnorth": 4983,
      "Ġfriends": 4984,
      "American": 4985,
      "ilm": 4986,
      "graph": 4987,
      "Ġrecently": 4988,
      "Ġarguments": 4989,
      "Ġparts": 4990,
      "ims": 4991,
      "plete": 4992,
      "Ġdead": 4993,
      "================================": 4994,
      "then": 4995,
      "Ġrule": 4996,
      "Dep": 4997,
      "____": 4998,
      "Ġproblems": 4999,
      "click": 5000,
      "join": 5001,
      "icker": 5002,
      "Ġprop": 5003,
      "Ġmother": 5004,
      "Ġcandid": 5005,
      "comes": 5006,
      "Ġframe": 5007,
      "ĠčĊ": 5008,
      "Ġdise": 5009,
      "ĠBel": 5010,
      "Ġresources": 5011,
      "ĠDemocr": 5012,
      "vari": 5013,
      "ander": 5014,
      "uri": 5015,
      "Ġpattern": 5016,
      "iding": 5017,
      "Ġ(\"": 5018,
      "ĠCup": 5019,
      "Sup": 5020,
      "ining": 5021,
      "&#": 5022,
      "hover": 5023,
      "capt": 5024,
      "olic": 5025,
      "pring": 5026,
      "Ġfinally": 5027,
      "Ġexpression": 5028,
      "ĠOper": 5029,
      "Track": 5030,
      "Ġ['": 5031,
      "istan": 5032,
      "ros": 5033,
      "Ġhash": 5034,
      "Render": 5035,
      "ĠTechn": 5036,
      "Tool": 5037,
      "vest": 5038,
      "vm": 5039,
      "Names": 5040,
      "300": 5041,
      "Sign": 5042,
      "ĠForm": 5043,
      "orizontal": 5044,
      "Parser": 5045,
      "ĠRiver": 5046,
      "toString": 5047,
      "Ġemer": 5048,
      "nected": 5049,
      "Ġargument": 5050,
      "ĠCre": 5051,
      "access": 5052,
      "Ġjo": 5053,
      "berg": 5054,
      "virt": 5055,
      "dest": 5056,
      "ĠWhite": 5057,
      "Ġjoin": 5058,
      "imately": 5059,
      "Ġgave": 5060,
      "widget": 5061,
      "ĠHall": 5062,
      "Ġthroughout": 5063,
      "Ke": 5064,
      "Template": 5065,
      "env": 5066,
      "hat": 5067,
      "Vector": 5068,
      "Sk": 5069,
      "foo": 5070,
      "cp": 5071,
      "Ġveh": 5072,
      "jo": 5073,
      "Ġlevels": 5074,
      "sych": 5075,
      "Ġgoal": 5076,
      "ORM": 5077,
      "ĠGeorge": 5078,
      "ĠBGCOLOR": 5079,
      "footer": 5080,
      "itude": 5081,
      "Ġavoid": 5082,
      "Ġeveryone": 5083,
      "EM": 5084,
      "Ġgrowth": 5085,
      ")\\": 5086,
      "ĠErr": 5087,
      "Use": 5088,
      "second": 5089,
      "Ġpretty": 5090,
      "ĠDate": 5091,
      "Ġetc": 5092,
      "Vari": 5093,
      "ĠMap": 5094,
      "Ġvert": 5095,
      "erc": 5096,
      "Ġspeed": 5097,
      "URE": 5098,
      "Api": 5099,
      "leep": 5100,
      "Ġdrug": 5101,
      "elegate": 5102,
      "band": 5103,
      "Ġconnect": 5104,
      "Kind": 5105,
      "Me": 5106,
      "session": 5107,
      "types": 5108,
      "Ġscript": 5109,
      "endar": 5110,
      "Ġdeveloped": 5111,
      "rial": 5112,
      "(:": 5113,
      "Ġcelebr": 5114,
      "Ġpaper": 5115,
      "Iter": 5116,
      "Ġconv": 5117,
      "Ġscale": 5118,
      "DIR": 5119,
      "oder": 5120,
      "Ġtreatment": 5121,
      "icial": 5122,
      "=\"/": 5123,
      "ĠDiv": 5124,
      "idents": 5125,
      "Ġtoken": 5126,
      "Ġthread": 5127,
      "Ġstatement": 5128,
      "Ġinterview": 5129,
      "ORT": 5130,
      "asic": 5131,
      "here": 5132,
      "fony": 5133,
      "export": 5134,
      "Ġbeaut": 5135,
      "Ġundefined": 5136,
      "Left": 5137,
      "ĠFrance": 5138,
      "Ġrecomm": 5139,
      "Ġgraph": 5140,
      "ĠGreen": 5141,
      "Expression": 5142,
      "Ġculture": 5143,
      "Ġlives": 5144,
      "###": 5145,
      "Rev": 5146,
      "Ġecho": 5147,
      "ĠWhile": 5148,
      "ĠAssociation": 5149,
      "liance": 5150,
      "Ġsimply": 5151,
      "Ġexact": 5152,
      "enge": 5153,
      "|-": 5154,
      "ega": 5155,
      "ĠCON": 5156,
      "51": 5157,
      "96": 5158,
      "transform": 5159,
      "Ġnatural": 5160,
      "Ġproduced": 5161,
      "ymfony": 5162,
      "Ġess": 5163,
      "Ġgets": 5164,
      "cs": 5165,
      "ĠSam": 5166,
      "SO": 5167,
      "-->": 5168,
      "78": 5169,
      "Ġsetting": 5170,
      "Ġ~": 5171,
      "icate": 5172,
      "vas": 5173,
      "Ġnet": 5174,
      "media": 5175,
      "Ġsupported": 5176,
      "aughter": 5177,
      "DF": 5178,
      "example": 5179,
      "mult": 5180,
      "Ġrules": 5181,
      "'],": 5182,
      "term": 5183,
      "Ġmeeting": 5184,
      "Device": 5185,
      "ĠInstitute": 5186,
      "Ġoperations": 5187,
      "ĠMac": 5188,
      "Ġtravel": 5189,
      "Ġexisting": 5190,
      "ĠParty": 5191,
      "Title": 5192,
      "Ġwrong": 5193,
      "Ġdistribut": 5194,
      "Ġintegr": 5195,
      "ĠRel": 5196,
      "webkit": 5197,
      "Ġprimary": 5198,
      "Ġtree": 5199,
      "bootstrap": 5200,
      "gin": 5201,
      "ĠĠĠĠĠĠĠĠĠĠĠĠĠĠĠĠĠĠĠĠĠĠĠĠĠĠĠĠĠĠĠĠĠĠĠĠĠĠĠ": 5202,
      "?:": 5203,
      "ĠAnn": 5204,
      "equals": 5205,
      "uted": 5206,
      "acebook": 5207,
      "non": 5208,
      "Ġensure": 5209,
      "Ġeval": 5210,
      "Ġwest": 5211,
      "Ġ\"\\": 5212,
      "imated": 5213,
      "Invalid": 5214,
      "ĠOver": 5215,
      "Ġobjects": 5216,
      "Ġcorrespond": 5217,
      "amma": 5218,
      "ĠTrue": 5219,
      "urt": 5220,
      "bert": 5221,
      "Ġselection": 5222,
      "Ġmis": 5223,
      "sey": 5224,
      "Ġemail": 5225,
      "Ã¤": 5226,
      "Ġnamespace": 5227,
      "ulated": 5228,
      "ws": 5229,
      "Ġdirectly": 5230,
      "ĠRoad": 5231,
      "aints": 5232,
      "icons": 5233,
      "Ġconfiguration": 5234,
      "ĠMus": 5235,
      "Parameters": 5236,
      "ĠAng": 5237,
      "Ġreach": 5238,
      "make": 5239,
      "Ġvers": 5240,
      "ustr": 5241,
      "Ġinvoke": 5242,
      "cat": 5243,
      "Ø§": 5244,
      "agon": 5245,
      "Ã¼": 5246,
      "WE": 5247,
      "Ġways": 5248,
      "ĠYear": 5249,
      "ĠKe": 5250,
      "arily": 5251,
      "Ġsaying": 5252,
      "ilies": 5253,
      "ĠReview": 5254,
      "handle": 5255,
      "Ġelection": 5256,
      "plugin": 5257,
      "ertific": 5258,
      "ounter": 5259,
      "evelopment": 5260,
      "Ġleave": 5261,
      "Ġlatest": 5262,
      "ĠAut": 5263,
      "54": 5264,
      "direct": 5265,
      "mercial": 5266,
      "Ġsouth": 5267,
      "han": 5268,
      "focus": 5269,
      "Que": 5270,
      "ifying": 5271,
      "inese": 5272,
      "ĠYour": 5273,
      "Ġprep": 5274,
      "custom": 5275,
      "attribute": 5276,
      "Ġcapital": 5277,
      "itar": 5278,
      "}\"": 5279,
      "Ġalt": 5280,
      "edef": 5281,
      "Ġextra": 5282,
      "success": 5283,
      "etime": 5284,
      "porary": 5285,
      "Ġfrequ": 5286,
      "Ġclean": 5287,
      "isions": 5288,
      "ynch": 5289,
      "ĠChristian": 5290,
      "Ġtransaction": 5291,
      "enum": 5292,
      "Ġfunctions": 5293,
      "edd": 5294,
      "Ġmus": 5295,
      "ĠProject": 5296,
      "ifest": 5297,
      "---": 5298,
      "ĠWilliam": 5299,
      "ĠEXPECT": 5300,
      "Dom": 5301,
      "ntax": 5302,
      "Ġdesigned": 5303,
      "ĠDet": 5304,
      "wide": 5305,
      "antic": 5306,
      "Classes": 5307,
      "Ġball": 5308,
      "outhern": 5309,
      "Rect": 5310,
      "Ġwriter": 5311,
      "Ġiter": 5312,
      "hi": 5313,
      "ĠLou": 5314,
      "mode": 5315,
      "Ġscient": 5316,
      "ĠTex": 5317,
      "GE": 5318,
      "400": 5319,
      "She": 5320,
      "OK": 5321,
      "ĠProgram": 5322,
      "quad": 5323,
      "Ev": 5324,
      "ĠRun": 5325,
      "scale": 5326,
      "Ġsens": 5327,
      "Ġfavor": 5328,
      "Ġqual": 5329,
      "ĠScience": 5330,
      "Ġcharg": 5331,
      "command": 5332,
      "disabled": 5333,
      "Ġreceive": 5334,
      "ĠAward": 5335,
      "Ġ})": 5336,
      "system": 5337,
      "PS": 5338,
      "Ġunsigned": 5339,
      "(*": 5340,
      "ĠĠĠĠĠĠĠĠĠĠĠĠĠĠĠĠĠĠĠĠ": 5341,
      "req": 5342,
      "Ġmention": 5343,
      "Ġsuccessful": 5344,
      "255": 5345,
      "ĠLeg": 5346,
      "Ġdelete": 5347,
      "Ġactivity": 5348,
      "ĠHel": 5349,
      "False": 5350,
      "Ġwife": 5351,
      "86": 5352,
      "aders": 5353,
      "Click": 5354,
      "exception": 5355,
      "Ġhel": 5356,
      "52": 5357,
      "Mult": 5358,
      "Ġflow": 5359,
      "Sl": 5360,
      "ao": 5361,
      "imension": 5362,
      "DA": 5363,
      "Ġnecessary": 5364,
      "Ġcells": 5365,
      "Ġseek": 5366,
      "coq": 5367,
      "aling": 5368,
      "Tests": 5369,
      "haps": 5370,
      "Ġtransport": 5371,
      "Ġquestions": 5372,
      "obuf": 5373,
      "Ġotherwise": 5374,
      "apse": 5375,
      "stack": 5376,
      "aved": 5377,
      "pg": 5378,
      "ĠCompany": 5379,
      "ario": 5380,
      "ental": 5381,
      "aine": 5382,
      "Ġparse": 5383,
      "Ġfit": 5384,
      "GET": 5385,
      "Se": 5386,
      ">();": 5387,
      "ĠFin": 5388,
      "men": 5389,
      "Ġestablish": 5390,
      "Ġsave": 5391,
      "mu": 5392,
      "Ġteams": 5393,
      "Ġweeks": 5394,
      "Ġsurv": 5395,
      "Ġtelevision": 5396,
      "aws": 5397,
      "Ġcollect": 5398,
      "CR": 5399,
      "Ð»": 5400,
      "MM": 5401,
      "1000": 5402,
      "Ġcontainer": 5403,
      "iller": 5404,
      "ĠTom": 5405,
      "illa": 5406,
      "ĠAlex": 5407,
      "icket": 5408,
      "Ġeconomic": 5409,
      "`.": 5410,
      "covery": 5411,
      "coll": 5412,
      "Ġdeliver": 5413,
      "Ġexpand": 5414,
      "blockList": 5415,
      "Reader": 5416,
      "weight": 5417,
      "Long": 5418,
      "ĠUnion": 5419,
      "Ġmanager": 5420,
      "ĠInst": 5421,
      "cons": 5422,
      "Ġeasy": 5423,
      "Ġdemon": 5424,
      "otion": 5425,
      "Ġhous": 5426,
      "global": 5427,
      "53": 5428,
      "PH": 5429,
      "Ġschools": 5430,
      "ATH": 5431,
      "Ġhum": 5432,
      "panel": 5433,
      "gan": 5434,
      "CS": 5435,
      "ĠMary": 5436,
      "Ġ('": 5437,
      "Ġnumbers": 5438,
      "Parent": 5439,
      "igma": 5440,
      "gment": 5441,
      "----------------------------------------------------------------": 5442,
      "Ġmount": 5443,
      "ho": 5444,
      "Ġheader": 5445,
      "ein": 5446,
      "Ġprice": 5447,
      "Ġbrought": 5448,
      "Ġwasn": 5449,
      "parameter": 5450,
      "_;": 5451,
      "Ġgoes": 5452,
      "ĠUse": 5453,
      "ously": 5454,
      "Ġstar": 5455,
      "settings": 5456,
      "mes": 5457,
      "west": 5458,
      "Ġneigh": 5459,
      "ĠAfrica": 5460,
      "SION": 5461,
      "pub": 5462,
      "Values": 5463,
      "Ġinstit": 5464,
      "EQ": 5465,
      "Mark": 5466,
      "Ġpackage": 5467,
      "Ġlack": 5468,
      "exports": 5469,
      "annotation": 5470,
      "Ġdat": 5471,
      "ĠCommit": 5472,
      "ucture": 5473,
      "connect": 5474,
      "Non": 5475,
      "ĠOur": 5476,
      "Feature": 5477,
      "replace": 5478,
      "dependency": 5479,
      "ĠNOT": 5480,
      "Ġnor": 5481,
      "Right": 5482,
      "Ġagre": 5483,
      "ĠSund": 5484,
      "skip": 5485,
      "mail": 5486,
      "CD": 5487,
      "language": 5488,
      "ĠPy": 5489,
      "Ġdatabase": 5490,
      "ĠOther": 5491,
      "ius": 5492,
      "padding": 5493,
      "ĠPeople": 5494,
      "Ġsett": 5495,
      "arp": 5496,
      "ĠBest": 5497,
      "coin": 5498,
      "Application": 5499,
      "Ġfast": 5500,
      "ulations": 5501,
      "track": 5502,
      "cloud": 5503,
      "Ġtowards": 5504,
      "Ġnumer": 5505,
      "Ġmeasure": 5506,
      "strict": 5507,
      "ĠThen": 5508,
      "adian": 5509,
      "ki": 5510,
      ">.": 5511,
      "ĠBig": 5512,
      "Ġpractice": 5513,
      "ano": 5514,
      "Ġprevent": 5515,
      "=\"../../../": 5516,
      "Ġcard": 5517,
      "ancy": 5518,
      "ipe": 5519,
      "Ġeffects": 5520,
      "lymp": 5521,
      "Ġabsol": 5522,
      "Ġallows": 5523,
      "Ġtrade": 5524,
      "help": 5525,
      "ĠLong": 5526,
      "Ġstarting": 5527,
      "itable": 5528,
      "rome": 5529,
      "Ġcache": 5530,
      "Draw": 5531,
      "aming": 5532,
      "ĠBay": 5533,
      ".[": 5534,
      "Ġserious": 5535,
      "Ġprotect": 5536,
      "ania": 5537,
      "toggle": 5538,
      "virtual": 5539,
      "Ġpurch": 5540,
      "edy": 5541,
      "Core": 5542,
      "Ġstudies": 5543,
      "century": 5544,
      "Ġstories": 5545,
      "Ġmiddle": 5546,
      "eve": 5547,
      "Ġos": 5548,
      "Stack": 5549,
      "Argument": 5550,
      "ĠArg": 5551,
      "ducation": 5552,
      "Ġcondition": 5553,
      "Num": 5554,
      "Ġscience": 5555,
      "Assert": 5556,
      "onds": 5557,
      "road": 5558,
      "iring": 5559,
      ";<": 5560,
      "Ġearlier": 5561,
      "Ġbank": 5562,
      "Ġprofessional": 5563,
      "Ġsen": 5564,
      "hest": 5565,
      "`,": 5566,
      "ĠGold": 5567,
      "Bytes": 5568,
      "itiz": 5569,
      "ĠHistory": 5570,
      "Ġcontinued": 5571,
      "87": 5572,
      "Ġcivil": 5573,
      "Ġeditor": 5574,
      "Enabled": 5575,
      "after": 5576,
      "ror": 5577,
      "iful": 5578,
      "akers": 5579,
      "ĠÂ£": 5580,
      ")]": 5581,
      "Ġfollowed": 5582,
      "Ġchannel": 5583,
      "EO": 5584,
      "ĠGermany": 5585,
      "byte": 5586,
      "ulate": 5587,
      "Ġattr": 5588,
      "olf": 5589,
      "boolean": 5590,
      "Has": 5591,
      "SET": 5592,
      "Mock": 5593,
      "__(": 5594,
      "ĠJSON": 5595,
      "Ġinsp": 5596,
      "impl": 5597,
      "Ġsets": 5598,
      "Ġlock": 5599,
      "framework": 5600,
      "Any": 5601,
      "car": 5602,
      "Ġcontr": 5603,
      "ires": 5604,
      "adoop": 5605,
      "ĠView": 5606,
      "Ġcalls": 5607,
      "rip": 5608,
      "Ġusually": 5609,
      "ini": 5610,
      "Ġeight": 5611,
      "Debug": 5612,
      "romise": 5613,
      "NE": 5614,
      "izations": 5615,
      "Red": 5616,
      "Ġpm": 5617,
      "register": 5618,
      "inder": 5619,
      "Ġmedical": 5620,
      "Metadata": 5621,
      "Ġsigned": 5622,
      "Writer": 5623,
      "pped": 5624,
      "ĠHTML": 5625,
      "1998": 5626,
      "Ġaltern": 5627,
      "range": 5628,
      "ATA": 5629,
      "free": 5630,
      "callback": 5631,
      "Ġcompleted": 5632,
      "Body": 5633,
      "Ġapply": 5634,
      "Cre": 5635,
      "Ġsurpr": 5636,
      "History": 5637,
      "Ġanyone": 5638,
      "Ġnovel": 5639,
      "asy": 5640,
      "Ġcook": 5641,
      "Policy": 5642,
      "}/": 5643,
      "Ġweight": 5644,
      "ona": 5645,
      "Ġstudent": 5646,
      "Ġ\\\\": 5647,
      "Ġrepl": 5648,
      "isation": 5649,
      "ĠMex": 5650,
      "Ġhor": 5651,
      "Ġopened": 5652,
      "ĠCam": 5653,
      "Ġalthough": 5654,
      "Ġworth": 5655,
      "Ġbyte": 5656,
      "ĠIsland": 5657,
      "Ġparents": 5658,
      "Decl": 5659,
      "fn": 5660,
      "ĠCO": 5661,
      "oma": 5662,
      "Ġdirectory": 5663,
      "ds": 5664,
      "lem": 5665,
      "igration": 5666,
      "liament": 5667,
      "FL": 5668,
      "Exp": 5669,
      "vector": 5670,
      "ĠBase": 5671,
      "ĠScott": 5672,
      "ĠMiss": 5673,
      "ĠLO": 5674,
      "WS": 5675,
      "vant": 5676,
      "Ġspent": 5677,
      "ĠUser": 5678,
      "\",\"": 5679,
      "Ġtransfer": 5680,
      "isf": 5681,
      "?âĢĿ": 5682,
      "buf": 5683,
      "Ġpositive": 5684,
      "ancis": 5685,
      "Ġsettings": 5686,
      "Boolean": 5687,
      "Ġsymbol": 5688,
      "Ġscene": 5689,
      "Ġshared": 5690,
      "ITY": 5691,
      "Ġlargest": 5692,
      "ĠField": 5693,
      "real": 5694,
      "IX": 5695,
      "Ġinline": 5696,
      "Ġchalleng": 5697,
      "Args": 5698,
      "Ġeast": 5699,
      "anned": 5700,
      "Doc": 5701,
      "za": 5702,
      "Ġbal": 5703,
      "fields": 5704,
      "ĠSmith": 5705,
      "Ġability": 5706,
      "Ġprojects": 5707,
      "Ġturned": 5708,
      "perature": 5709,
      "och": 5710,
      "76": 5711,
      "Delete": 5712,
      "Ver": 5713,
      "component": 5714,
      "Ġknowledge": 5715,
      "ĠVir": 5716,
      "uly": 5717,
      "admin": 5718,
      "CTION": 5719,
      "Ġrandom": 5720,
      "Ã¶": 5721,
      "Ġconcept": 5722,
      "Ġbeginning": 5723,
      "ellig": 5724,
      "1990": 5725,
      "ĠMath": 5726,
      "well": 5727,
      "ĠEvent": 5728,
      "Ġcontain": 5729,
      "Byte": 5730,
      "Ġlibrary": 5731,
      "'.": 5732,
      "AME": 5733,
      "Ġsurface": 5734,
      "wrap": 5735,
      "ĠFore": 5736,
      "Job": 5737,
      "symbol": 5738,
      "Ġperfect": 5739,
      "pay": 5740,
      "ishing": 5741,
      "ĠSociety": 5742,
      "Ġer": 5743,
      "ĠValue": 5744,
      "Ġrepe": 5745,
      "Rule": 5746,
      "beta": 5747,
      "pers": 5748,
      "material": 5749,
      "ĠCommission": 5750,
      "Ġsongs": 5751,
      "Ġplans": 5752,
      "actor": 5753,
      "Ġremember": 5754,
      "Ġrelative": 5755,
      "ĠProf": 5756,
      "aud": 5757,
      "split": 5758,
      "reme": 5759,
      "inger": 5760,
      "Ġreplace": 5761,
      "DI": 5762,
      "Ġfair": 5763,
      "Icon": 5764,
      "Cal": 5765,
      "store": 5766,
      "ĠMont": 5767,
      "aste": 5768,
      "ĠLife": 5769,
      "Ġabs": 5770,
      "Ġmechan": 5771,
      "Root": 5772,
      "icks": 5773,
      "Ġnature": 5774,
      "holder": 5775,
      "DL": 5776,
      "osing": 5777,
      "double": 5778,
      "Ins": 5779,
      "recated": 5780,
      "ĠMad": 5781,
      "ibly": 5782,
      "Ðº": 5783,
      "ĠClub": 5784,
      "ette": 5785,
      "Ġmut": 5786,
      "ĠRet": 5787,
      "azz": 5788,
      "Ġseven": 5789,
      "Ġinvestig": 5790,
      "Ġappoint": 5791,
      "Found": 5792,
      "Ġconstant": 5793,
      "mock": 5794,
      "white": 5795,
      "Ġfeed": 5796,
      "anguage": 5797,
      "ĠRussia": 5798,
      "Package": 5799,
      "Ġdark": 5800,
      "lines": 5801,
      "itation": 5802,
      "Ġjournal": 5803,
      "azine": 5804,
      "cm": 5805,
      "Ġdecided": 5806,
      "house": 5807,
      "application": 5808,
      "Ġsecret": 5809,
      "Ġpark": 5810,
      "plugins": 5811,
      "KEY": 5812,
      "Fields": 5813,
      "FAULT": 5814,
      "Am": 5815,
      "cf": 5816,
      "Ġsn": 5817,
      "email": 5818,
      "Member": 5819,
      "Ġbytes": 5820,
      "Ġactivities": 5821,
      "Ġlimited": 5822,
      "Ġdro": 5823,
      "mathbb": 5824,
      "Dialog": 5825,
      "enses": 5826,
      "Ġnote": 5827,
      "Ġ++": 5828,
      "ĠTexas": 5829,
      "ĠDirector": 5830,
      "More": 5831,
      "ĠĠĠĠĠĠĊ": 5832,
      "eal": 5833,
      "ĠBusiness": 5834,
      "Ġopportunity": 5835,
      "Ġanti": 5836,
      "Ġ<=": 5837,
      "Ġtouch": 5838,
      "ĠId": 5839,
      "Ġnation": 5840,
      "aturday": 5841,
      "aret": 5842,
      "ĠMethod": 5843,
      "Ġicon": 5844,
      "category": 5845,
      "insert": 5846,
      "85": 5847,
      "ĠIO": 5848,
      "Ġkilled": 5849,
      "Ġplant": 5850,
      "ened": 5851,
      "Ġplaces": 5852,
      "ronic": 5853,
      "Ġleader": 5854,
      "atre": 5855,
      "prove": 5856,
      "AGE": 5857,
      "ĠTor": 5858,
      "CP": 5859,
      "Ġtests": 5860,
      "Ġchurch": 5861,
      "sql": 5862,
      "ters": 5863,
      "orter": 5864,
      "ĠHam": 5865,
      "ĠAv": 5866,
      "âĢĿ.": 5867,
      "=\\": 5868,
      "ĠSl": 5869,
      "sort": 5870,
      "Ġclosed": 5871,
      "Ġjson": 5872,
      "ĠBoard": 5873,
      "Ġjavax": 5874,
      "dule": 5875,
      "Ġfelt": 5876,
      "ometry": 5877,
      "Ġsummer": 5878,
      "ĠStar": 5879,
      "ĠSal": 5880,
      "Ġmsg": 5881,
      "Ġdirection": 5882,
      "Ġvillage": 5883,
      "icated": 5884,
      "oday": 5885,
      "Ġdemonstr": 5886,
      "iber": 5887,
      "Ġbillion": 5888,
      "ĠChampionship": 5889,
      "89": 5890,
      "El": 5891,
      "Ġshot": 5892,
      "Ġperformed": 5893,
      "ĠCongress": 5894,
      "Ġexpert": 5895,
      "ipeline": 5896,
      "Ġprograms": 5897,
      "Ġincreased": 5898,
      "\")]": 5899,
      "Ġdiscover": 5900,
      "Ġterr": 5901,
      "icago": 5902,
      "gorithm": 5903,
      "hadoop": 5904,
      "Ġapi": 5905,
      "hs": 5906,
      "'d": 5907,
      "ĠFacebook": 5908,
      "ĠPub": 5909,
      "ĠGreat": 5910,
      "Ġtransp": 5911,
      "overs": 5912,
      "ĠCopy": 5913,
      "tsd": 5914,
      "writ": 5915,
      "ĠChinese": 5916,
      "prop": 5917,
      "ĠMinister": 5918,
      "Ġflag": 5919,
      "ĠBill": 5920,
      "Ġpartners": 5921,
      "ĠNO": 5922,
      "Ġmanufact": 5923,
      "ĠGovernment": 5924,
      "ying": 5925,
      "Ġlearning": 5926,
      "ĠThomas": 5927,
      "ĠBec": 5928,
      "Ġattention": 5929,
      "={": 5930,
      "Ġbre": 5931,
      "Ġ'/": 5932,
      "ACE": 5933,
      "Ġvoice": 5934,
      "Ġimages": 5935,
      "tained": 5936,
      "Ġcentral": 5937,
      "Ġsolution": 5938,
      "Ġforeign": 5939,
      "TED": 5940,
      "reek": 5941,
      "Ġsample": 5942,
      "Ġplease": 5943,
      "IE": 5944,
      "ker": 5945,
      "Descriptor": 5946,
      "Ġcop": 5947,
      "ĠCentral": 5948,
      "ĠUN": 5949,
      "shot": 5950,
      "ĠTur": 5951,
      "Ġorganization": 5952,
      "Ġbus": 5953,
      "Ġmur": 5954,
      "ĠVer": 5955,
      "ĠRock": 5956,
      "Ġinteresting": 5957,
      "Ġnearly": 5958,
      "Ġcoach": 5959,
      "Ġgrant": 5960,
      "ĠAN": 5961,
      "Storage": 5962,
      "Ġbutton": 5963,
      "mazon": 5964,
      "ici": 5965,
      "ĠFoundation": 5966,
      "ĠFriday": 5967,
      "auto": 5968,
      "Ġfans": 5969,
      "Ġoperator": 5970,
      "Now": 5971,
      "apos": 5972,
      "ĠCamp": 5973,
      "GB": 5974,
      "ĠAND": 5975,
      "Ġenter": 5976,
      "ĠRussian": 5977,
      "fil": 5978,
      "enty": 5979,
      "gest": 5980,
      "ĠHere": 5981,
      "ady": 5982,
      "Ġprec": 5983,
      "hem": 5984,
      "Ret": 5985,
      "ucket": 5986,
      "ĠOffice": 5987,
      "Ġdestroy": 5988,
      "erry": 5989,
      "etimes": 5990,
      "ĠIP": 5991,
      "END": 5992,
      "cpp": 5993,
      "oration": 5994,
      "ĠassertEquals": 5995,
      "ĠPM": 5996,
      "Ġprem": 5997,
      "Ġmovement": 5998,
      "atively": 5999,
      "Ġvariable": 6000,
      "ĠShow": 6001,
      "ĠTim": 6002,
      "Ġ``": 6003,
      "ĠHill": 6004,
      "Ġremain": 6005,
      "Ġletter": 6006,
      "Ġbottom": 6007,
      "riend": 6008,
      "ĠMo": 6009,
      "under": 6010,
      "high": 6011,
      "phone": 6012,
      "Ġconstruction": 6013,
      "Ġcomputer": 6014,
      "Ġoffers": 6015,
      "Ġjoined": 6016,
      "inline": 6017,
      "Ġmeaning": 6018,
      "Ġgenerated": 6019,
      "ĠTop": 6020,
      "big": 6021,
      "oves": 6022,
      "Ġhands": 6023,
      "rey": 6024,
      "Definition": 6025,
      "Ġple": 6026,
      "BR": 6027,
      "Ġparticularly": 6028,
      "'))": 6029,
      "Ġearn": 6030,
      "agnost": 6031,
      "TEST": 6032,
      "Art": 6033,
      "udget": 6034,
      "keys": 6035,
      "Ġmissing": 6036,
      "anner": 6037,
      "PRE": 6038,
      "ami": 6039,
      "ĠSur": 6040,
      "bour": 6041,
      "Ġreports": 6042,
      "hol": 6043,
      "iform": 6044,
      "ĠFrancis": 6045,
      "password": 6046,
      "Perm": 6047,
      "Ġoil": 6048,
      "weet": 6049,
      "comment": 6050,
      "Ġsym": 6051,
      "ved": 6052,
      "Ġpy": 6053,
      "Ġshoot": 6054,
      "Ġgun": 6055,
      "eries": 6056,
      "clude": 6057,
      "usion": 6058,
      "Ġfamilies": 6059,
      "Changed": 6060,
      "JECT": 6061,
      "Ġmale": 6062,
      "uing": 6063,
      "ĠCode": 6064,
      "Ñĥ": 6065,
      "Each": 6066,
      "ĠAcadem": 6067,
      "SSERT": 6068,
      "aver": 6069,
      "protobuf": 6070,
      "ĠUSA": 6071,
      "ĠPeter": 6072,
      "Ġpreviously": 6073,
      "ĠMuseum": 6074,
      "pool": 6075,
      "ĠCommittee": 6076,
      "Ġord": 6077,
      "Ġslow": 6078,
      "Ġimag": 6079,
      "ĠError": 6080,
      "lements": 6081,
      "Ġheard": 6082,
      "rot": 6083,
      "Pattern": 6084,
      "Ġrecords": 6085,
      "BS": 6086,
      "Ġcompared": 6087,
      "Show": 6088,
      "Ġepisode": 6089,
      "ln": 6090,
      "ĠSunday": 6091,
      "Ġphysical": 6092,
      "onday": 6093,
      "Ġincreasing": 6094,
      "osh": 6095,
      "while": 6096,
      "Ġlooks": 6097,
      "undred": 6098,
      "Custom": 6099,
      "Ġgas": 6100,
      "Xml": 6101,
      "ĠMount": 6102,
      "shire": 6103,
      ")}": 6104,
      "Ġbirths": 6105,
      "Ġradio": 6106,
      "72": 6107,
      "Ġvote": 6108,
      "Vert": 6109,
      "Ġdigital": 6110,
      "ĠĠĠĠĠĠĠĠĠĠĠĠĠĠĠĠĠĠ": 6111,
      "ĠFlor": 6112,
      "Ġwallet": 6113,
      "ĠStep": 6114,
      "Ġarchitect": 6115,
      "dates": 6116,
      "bal": 6117,
      "Ġpriv": 6118,
      "pret": 6119,
      "edit": 6120,
      "ĠTimes": 6121,
      "Ġmorning": 6122,
      "Ġconsole": 6123,
      "ĠVol": 6124,
      "Tab": 6125,
      "ensity": 6126,
      "Transaction": 6127,
      "ĠPlay": 6128,
      "full": 6129,
      "ĠKey": 6130,
      "ky": 6131,
      "Ġsometimes": 6132,
      "Ġwild": 6133,
      "ĠGl": 6134,
      "den": 6135,
      "Pop": 6136,
      "ĠMedia": 6137,
      "ĠKore": 6138,
      "ĠAfrican": 6139,
      "Ġchance": 6140,
      "ROM": 6141,
      "MENT": 6142,
      "çļ": 6143,
      "MD": 6144,
      "stop": 6145,
      "ĠJournal": 6146,
      "uty": 6147,
      "Active": 6148,
      "Ġcounter": 6149,
      "Ġrank": 6150,
      "Ġgives": 6151,
      "Ljava": 6152,
      "Ġpush": 6153,
      "Ġcore": 6154,
      "Send": 6155,
      "160": 6156,
      "ĠCap": 6157,
      "Ġgreater": 6158,
      "Ġmulti": 6159,
      "LS": 6160,
      "FILE": 6161,
      "ĠWill": 6162,
      "asure": 6163,
      "_\\": 6164,
      "caption": 6165,
      "ĠRoman": 6166,
      "Pub": 6167,
      "HTML": 6168,
      "Ġmock": 6169,
      "ĠCall": 6170,
      "çļĦ": 6171,
      "contrib": 6172,
      "Ġdisease": 6173,
      "election": 6174,
      "inct": 6175,
      "enter": 6176,
      "normal": 6177,
      "ĠCarol": 6178,
      "Ġgold": 6179,
      "EXT": 6180,
      "Ġwide": 6181,
      "Net": 6182,
      "Ġrespond": 6183,
      "Ġexhib": 6184,
      "Ġscore": 6185,
      "*)": 6186,
      "Support": 6187,
      "Ġcompar": 6188,
      "Ġready": 6189,
      "Ġsociety": 6190,
      "Display": 6191,
      "Ġstorage": 6192,
      "iger": 6193,
      "printf": 6194,
      "ignment": 6195,
      "Ġrout": 6196,
      "Ġgiving": 6197,
      "items": 6198,
      "ĠFrank": 6199,
      "Graph": 6200,
      "herit": 6201,
      "Ġhtml": 6202,
      "jection": 6203,
      "keyword": 6204,
      "=\"@": 6205,
      "ĠURL": 6206,
      "etic": 6207,
      "olver": 6208,
      "spring": 6209,
      "ĠProv": 6210,
      "Ġdegree": 6211,
      "Security": 6212,
      "Ġroute": 6213,
      "Ġconstruct": 6214,
      "82": 6215,
      "Ġquickly": 6216,
      "iny": 6217,
      "ĠNumber": 6218,
      "Ġappropri": 6219,
      "Ġblood": 6220,
      "ĠTre": 6221,
      "69": 6222,
      "Ac": 6223,
      "Ġbur": 6224,
      "ĠAccording": 6225,
      "aby": 6226,
      "ether": 6227,
      "Ġrot": 6228,
      "Ġscen": 6229,
      "Ġcomments": 6230,
      "Ġcreating": 6231,
      "Extension": 6232,
      "ĠGen": 6233,
      "Ġgrand": 6234,
      "Ġnative": 6235,
      "Ġremoved": 6236,
      "Ġdistribution": 6237,
      "Ġfirm": 6238,
      "Queue": 6239,
      "ested": 6240,
      "alyt": 6241,
      "xx": 6242,
      "Ġfully": 6243,
      "ĠMer": 6244,
      "ĠBank": 6245,
      "ĠMost": 6246,
      "install": 6247,
      "Ġstreng": 6248,
      "atically": 6249,
      "Ġopening": 6250,
      "Ġproper": 6251,
      "Ident": 6252,
      "Ġauth": 6253,
      "Ġpublish": 6254,
      "ĠChild": 6255,
      "ĠOlymp": 6256,
      "Ġ\"/": 6257,
      "ynchron": 6258,
      "Ġexam": 6259,
      "1997": 6260,
      "ĠArmy": 6261,
      "ĠWomen": 6262,
      "Ġhop": 6263,
      "Ġvs": 6264,
      "Ġimplementation": 6265,
      "79": 6266,
      "Lock": 6267,
      "ĠServices": 6268,
      "allery": 6269,
      "Ġeffective": 6270,
      "Ġmicro": 6271,
      "CI": 6272,
      "Ġlaws": 6273,
      "Ġdb": 6274,
      "JSON": 6275,
      "Ġnom": 6276,
      "Ġruns": 6277,
      "Ġquarter": 6278,
      "venue": 6279,
      "Ġdefine": 6280,
      "ĠAR": 6281,
      "Ġknew": 6282,
      "Ġbey": 6283,
      "ading": 6284,
      "uple": 6285,
      "atalog": 6286,
      "Ġmaximum": 6287,
      "Ġapprox": 6288,
      "Ġfederal": 6289,
      "ĠSuper": 6290,
      "git": 6291,
      "mathbf": 6292,
      "Ġprefer": 6293,
      "Meta": 6294,
      "Ġtraditional": 6295,
      "Ġclasses": 6296,
      "ĠSeries": 6297,
      "odec": 6298,
      "Database": 6299,
      "pute": 6300,
      "}_{": 6301,
      "Ġtrust": 6302,
      "ĠĠĠĠĠĠĠĠĠĠĠĠĠĠĠĠĠĠĠĠĠĠĠĠĠ": 6303,
      "Ġpen": 6304,
      "Only": 6305,
      "wik": 6306,
      "margin": 6307,
      "xis": 6308,
      "Ġblog": 6309,
      "ĠHand": 6310,
      "Ġassum": 6311,
      "eder": 6312,
      "Ġsituation": 6313,
      "lyph": 6314,
      "ertificate": 6315,
      "Ġinvolv": 6316,
      "Ġlaunch": 6317,
      "Ġunless": 6318,
      "arts": 6319,
      "63": 6320,
      "Ġhear": 6321,
      "ĠWestern": 6322,
      "ï¼": 6323,
      "Ġcommercial": 6324,
      "alian": 6325,
      "Ġforces": 6326,
      "Ġthus": 6327,
      "Ġbeyond": 6328,
      "Step": 6329,
      "scroll": 6330,
      "Don": 6331,
      "iverse": 6332,
      "Ġded": 6333,
      "Ġartist": 6334,
      "cmd": 6335,
      "fly": 6336,
      "hentication": 6337,
      "Ġshape": 6338,
      "IB": 6339,
      "alloc": 6340,
      "bound": 6341,
      "ĠWed": 6342,
      "Ġconstit": 6343,
      "Ġassist": 6344,
      "Ġinform": 6345,
      "Ġfinished": 6346,
      "Ġones": 6347,
      "oted": 6348,
      "ĠGrand": 6349,
      "Ġdistributed": 6350,
      "Const": 6351,
      "ursday": 6352,
      "ani": 6353,
      "Network": 6354,
      "ita": 6355,
      "1980": 6356,
      "Ġclick": 6357,
      "cor": 6358,
      "cb": 6359,
      "ĠEducation": 6360,
      "otes": 6361,
      "Ġerrors": 6362,
      "Ġsal": 6363,
      "ĠCath": 6364,
      "ĠGood": 6365,
      "Sum": 6366,
      "Initial": 6367,
      "HECK": 6368,
      "Ġdream": 6369,
      "61": 6370,
      "################": 6371,
      "ĠÎ": 6372,
      "dist": 6373,
      "ĠHome": 6374,
      "TEX": 6375,
      "product": 6376,
      "ĠHen": 6377,
      "eds": 6378,
      "Ġ(*": 6379,
      "Ġanswer": 6380,
      "Ġactions": 6381,
      "orial": 6382,
      "Ġappeared": 6383,
      "atio": 6384,
      "Ġbrand": 6385,
      "ĠVis": 6386,
      "iminal": 6387,
      "-\\": 6388,
      "Ġpoll": 6389,
      "ĠNetwork": 6390,
      "ĠManagement": 6391,
      "allow": 6392,
      "Ġimmediately": 6393,
      "1996": 6394,
      "Ġsources": 6395,
      "hy": 6396,
      "addr": 6397,
      "ifies": 6398,
      "stats": 6399,
      "ĠText": 6400,
      "84": 6401,
      "anda": 6402,
      "Ġphone": 6403,
      "Ġinstanceof": 6404,
      "look": 6405,
      "Ġut": 6406,
      "ĠTown": 6407,
      "Ġindependent": 6408,
      "VERSION": 6409,
      "ARY": 6410,
      ")))": 6411,
      "Ġ×": 6412,
      "Ġdemand": 6413,
      "ĠDefault": 6414,
      "ems": 6415,
      "security": 6416,
      "initial": 6417,
      "uby": 6418,
      "Ġsafety": 6419,
      "ĠVAL": 6420,
      "thread": 6421,
      "ads": 6422,
      "ĠWil": 6423,
      "Ġassess": 6424,
      "Ġdifference": 6425,
      "Ġowner": 6426,
      "Ġgreen": 6427,
      "ĠRoyal": 6428,
      "argument": 6429,
      "ĠSecret": 6430,
      "esh": 6431,
      "Ġdaughter": 6432,
      "ĠLouis": 6433,
      "jquery": 6434,
      "fit": 6435,
      "Timeout": 6436,
      "Ġcalcul": 6437,
      "Ġcompletely": 6438,
      "Ġeyes": 6439,
      "bes": 6440,
      "Symfony": 6441,
      "organ": 6442,
      "Ġstack": 6443,
      "Ġremains": 6444,
      "======": 6445,
      "62": 6446,
      "reedom": 6447,
      "]]": 6448,
      "tor": 6449,
      "ĠSaturday": 6450,
      "Google": 6451,
      "plements": 6452,
      "Ġpoor": 6453,
      "Ġthous": 6454,
      "ĠRichard": 6455,
      "Ġbehavior": 6456,
      "ĠTem": 6457,
      "Ġang": 6458,
      "ervation": 6459,
      "Ġchoice": 6460,
      "Account": 6461,
      "notation": 6462,
      "Ġgirl": 6463,
      "duction": 6464,
      "Ġvolume": 6465,
      "feature": 6466,
      "missions": 6467,
      "Ġthr": 6468,
      "Ġdoub": 6469,
      "urance": 6470,
      "ixture": 6471,
      "Ġrap": 6472,
      "fill": 6473,
      "pects": 6474,
      "FT": 6475,
      "\">&": 6476,
      "Ġbtn": 6477,
      "Ġwants": 6478,
      "Ġconver": 6479,
      "ooth": 6480,
      "DS": 6481,
      ".*": 6482,
      ".'": 6483,
      "Ġsports": 6484,
      "Pool": 6485,
      "ĠAustralian": 6486,
      "region": 6487,
      "Results": 6488,
      "ĠSocial": 6489,
      "front": 6490,
      "ĠDevelopment": 6491,
      "Edit": 6492,
      "âĢĺ": 6493,
      "cut": 6494,
      "Ġbasis": 6495,
      "ologies": 6496,
      "urrency": 6497,
      "ĠIran": 6498,
      "anta": 6499,
      "Ġexists": 6500,
      "Ġcontaining": 6501,
      "which": 6502,
      "Ġspirit": 6503,
      "Ġip": 6504,
      "Ġmarried": 6505,
      "ĠJun": 6506,
      "asket": 6507,
      "straint": 6508,
      "isl": 6509,
      "Di": 6510,
      "Ġsales": 6511,
      "ĠVict": 6512,
      "Author": 6513,
      "Ġfoll": 6514,
      "unsigned": 6515,
      "$(": 6516,
      "Obj": 6517,
      ";/": 6518,
      "Main": 6519,
      "ĠUnder": 6520,
      "[:": 6521,
      "Ġserial": 6522,
      "Home": 6523,
      "Ġspect": 6524,
      "imb": 6525,
      "Ġquant": 6526,
      "ĠConfig": 6527,
      "atin": 6528,
      "uated": 6529,
      "none": 6530,
      "ango": 6531,
      "FC": 6532,
      "reland": 6533,
      "Ġfemale": 6534,
      "Ġpiece": 6535,
      "Ġmaster": 6536,
      "Ġeth": 6537,
      "Ġworkers": 6538,
      "ernel": 6539,
      "////////////////////////////////": 6540,
      "properties": 6541,
      "record": 6542,
      "Ġencour": 6543,
      "Ġcollabor": 6544,
      "Ġpredict": 6545,
      "Ġartists": 6546,
      "short": 6547,
      "LOG": 6548,
      "anish": 6549,
      "Ġpurpose": 6550,
      "stat": 6551,
      "ategories": 6552,
      "Ġentity": 6553,
      "ĠJose": 6554,
      "Ġlarger": 6555,
      "PAR": 6556,
      "typeof": 6557,
      "ĠGame": 6558,
      "ĠLos": 6559,
      "Ġbasic": 6560,
      "ĠNote": 6561,
      "Ġhighly": 6562,
      "Ġrecorded": 6563,
      "Ġship": 6564,
      "Te": 6565,
      "dropdown": 6566,
      "Ġreached": 6567,
      "Ġcollege": 6568,
      "clusion": 6569,
      "ĠVirgin": 6570,
      "Ġtemperature": 6571,
      "Ġmachine": 6572,
      "modules": 6573,
      "ixel": 6574,
      "yan": 6575,
      "scription": 6576,
      "Ġunits": 6577,
      "uesday": 6578,
      "Ġsafe": 6579,
      "tion": 6580,
      "ja": 6581,
      "peed": 6582,
      "irmed": 6583,
      "numer": 6584,
      "Ġstock": 6585,
      ".__": 6586,
      "Ġcoord": 6587,
      "Ġmoving": 6588,
      "Bit": 6589,
      "outer": 6590,
      "profile": 6591,
      "tip": 6592,
      "names": 6593,
      "Ġproviding": 6594,
      "Ġbill": 6595,
      "istration": 6596,
      "Ġpresented": 6597,
      "Channel": 6598,
      "PT": 6599,
      "(){": 6600,
      "ĠMel": 6601,
      "Ġmill": 6602,
      "ĠOp": 6603,
      "Ġcarry": 6604,
      "Msg": 6605,
      "ĠBi": 6606,
      "ĠMass": 6607,
      "cur": 6608,
      "Ġfarm": 6609,
      "ĠChicago": 6610,
      "91": 6611,
      "loc": 6612,
      "Editor": 6613,
      "ĠSince": 6614,
      "(!": 6615,
      "ĠCD": 6616,
      "Float": 6617,
      "Scope": 6618,
      "Ġdrive": 6619,
      "ĠLet": 6620,
      "Ġrail": 6621,
      "Ġpages": 6622,
      "Ġdistance": 6623,
      "Ġextension": 6624,
      "Ġsequence": 6625,
      "ications": 6626,
      "save": 6627,
      "Ġreli": 6628,
      "Ġproposed": 6629,
      "connection": 6630,
      "Ġkeys": 6631,
      "Activity": 6632,
      "Ġ),": 6633,
      "Ġimprove": 6634,
      "inds": 6635,
      "related": 6636,
      "Ġclin": 6637,
      "Ġalloc": 6638,
      "ester": 6639,
      "iders": 6640,
      "Ġ%}": 6641,
      "ById": 6642,
      "that": 6643,
      "shape": 6644,
      "Ġtit": 6645,
      "controller": 6646,
      "uous": 6647,
      "ĠAlso": 6648,
      "wait": 6649,
      "Ġdriver": 6650,
      "ancel": 6651,
      "Ġdefe": 6652,
      "BUG": 6653,
      "ĠAssembly": 6654,
      "TABLE": 6655,
      "Ġfailure": 6656,
      "ĠWeek": 6657,
      "icies": 6658,
      "UID": 6659,
      "ĠColor": 6660,
      "ooks": 6661,
      ")\"": 6662,
      "Ġlaun": 6663,
      "ĠFalse": 6664,
      "ĠVersion": 6665,
      "Ġoverall": 6666,
      "_,": 6667,
      "riage": 6668,
      "ployment": 6669,
      "=\"\"": 6670,
      "lambda": 6671,
      "abilities": 6672,
      "grid": 6673,
      "kw": 6674,
      "Init": 6675,
      "ADD": 6676,
      "Logger": 6677,
      "=\"\">": 6678,
      "nesday": 6679,
      "People": 6680,
      "ancing": 6681,
      "Ġforms": 6682,
      "kg": 6683,
      "ening": 6684,
      "Ġpor": 6685,
      "geles": 6686,
      "Ġtrain": 6687,
      "Ġcancer": 6688,
      "ĠTwo": 6689,
      "_->": 6690,
      "Proxy": 6691,
      "Flags": 6692,
      "Ġgrowing": 6693,
      "Ġwonder": 6694,
      "di": 6695,
      "SIZE": 6696,
      "ĠSun": 6697,
      "Widget": 6698,
      "aration": 6699,
      "Media": 6700,
      "Ġlayer": 6701,
      "Ġutil": 6702,
      "Ġhuge": 6703,
      "Ġstrict": 6704,
      "LIC": 6705,
      "forms": 6706,
      "bi": 6707,
      "aset": 6708,
      "aks": 6709,
      "ancer": 6710,
      "uke": 6711,
      "256": 6712,
      "Ġindividuals": 6713,
      "move": 6714,
      "onic": 6715,
      "ĠModel": 6716,
      "ella": 6717,
      "oes": 6718,
      "ĠÂ»": 6719,
      "ĠJapanese": 6720,
      "May": 6721,
      "ares": 6722,
      "Ġannual": 6723,
      "Ġfollows": 6724,
      "Auth": 6725,
      "Ġamb": 6726,
      "ĠMA": 6727,
      "screen": 6728,
      "MAX": 6729,
      "Symbol": 6730,
      "1970": 6731,
      "radius": 6732,
      "1995": 6733,
      "sche": 6734,
      "They": 6735,
      "??": 6736,
      "found": 6737,
      "Ġbeautiful": 6738,
      "Sm": 6739,
      "times": 6740,
      "master": 6741,
      "Internal": 6742,
      "1994": 6743,
      "Items": 6744,
      "Selector": 6745,
      "Ġhappened": 6746,
      "Ġcosts": 6747,
      "Ð°Ð": 6748,
      "Ġrequires": 6749,
      "Ġcli": 6750,
      "}^{": 6751,
      "Ġdescribe": 6752,
      "Ġspot": 6753,
      "ensus": 6754,
      "ĠSing": 6755,
      "events": 6756,
      "ository": 6757,
      "Loader": 6758,
      "ĠFlorida": 6759,
      "erman": 6760,
      "Ġsatisf": 6761,
      "Ġhighlight": 6762,
      "NotNull": 6763,
      "ĠSil": 6764,
      "Ġcitiz": 6765,
      "Ġbattle": 6766,
      "Ġpressure": 6767,
      "icine": 6768,
      "Ġvector": 6769,
      "burg": 6770,
      "Ġanim": 6771,
      "Ġrob": 6772,
      "aren": 6773,
      "ola": 6774,
      "ilon": 6775,
      "@\"": 6776,
      "lers": 6777,
      "Car": 6778,
      "Ġarrest": 6779,
      "ĠDuring": 6780,
      "ĠTH": 6781,
      "Ġsch": 6782,
      "Ġiniti": 6783,
      "Ġprofile": 6784,
      "()));": 6785,
      "ĠPet": 6786,
      "ĠIns": 6787,
      "pective": 6788,
      "throws": 6789,
      "ivery": 6790,
      "ĠAM": 6791,
      "Ġhy": 6792,
      "assets": 6793,
      "Ġdevices": 6794,
      "74": 6795,
      "ĠMov": 6796,
      "Ġlooked": 6797,
      "shall": 6798,
      "Ġinstr": 6799,
      "Rest": 6800,
      "flags": 6801,
      "inem": 6802,
      "Ġhundred": 6803,
      "Ġnuc": 6804,
      "elli": 6805,
      "RAN": 6806,
      "ĠOption": 6807,
      "ĠInitial": 6808,
      "2021": 6809,
      "Ġstrugg": 6810,
      "Ġtheory": 6811,
      "napshot": 6812,
      "Windows": 6813,
      "ĠMonday": 6814,
      "Ġ[[": 6815,
      "ĠFre": 6816,
      "Engine": 6817,
      "ĠCanadian": 6818,
      "rine": 6819,
      "osis": 6820,
      "Ġprincip": 6821,
      "ora": 6822,
      "lg": 6823,
      "igan": 6824,
      "job": 6825,
      "EC": 6826,
      "phi": 6827,
      "ĠAngeles": 6828,
      "Ġinnov": 6829,
      "schema": 6830,
      "=>": 6831,
      "ĠâĢ¦": 6832,
      "primary": 6833,
      "Ġexactly": 6834,
      "Ġcompl": 6835,
      "Av": 6836,
      "Ġmission": 6837,
      "Before": 6838,
      "Ġtal": 6839,
      "ðŁ": 6840,
      "ĠKingdom": 6841,
      "assertEquals": 6842,
      "Ġappears": 6843,
      "Ġdefinition": 6844,
      "Ġorigin": 6845,
      "Ġhar": 6846,
      "ipment": 6847,
      "Ġcat": 6848,
      "Ġtransition": 6849,
      "ocker": 6850,
      "assertEqual": 6851,
      "Ġadult": 6852,
      "Ġfigure": 6853,
      "urred": 6854,
      "ĠReport": 6855,
      "Iterator": 6856,
      "Conf": 6857,
      "Ġchem": 6858,
      "TV": 6859,
      "ĠIll": 6860,
      "ĠFestival": 6861,
      "ĠIslam": 6862,
      "Rece": 6863,
      "nections": 6864,
      "Ġtesting": 6865,
      "Attributes": 6866,
      "andra": 6867,
      "unicip": 6868,
      "ĠFoot": 6869,
      "Ġapplied": 6870,
      "ĠWell": 6871,
      "ĠDivision": 6872,
      "While": 6873,
      "ĠPo": 6874,
      ")));": 6875,
      "Ġefforts": 6876,
      "Ġalone": 6877,
      "home": 6878,
      "Protocol": 6879,
      "92": 6880,
      "Ġhighest": 6881,
      "manager": 6882,
      "Ġdrop": 6883,
      "Ġfine": 6884,
      "Ġharm": 6885,
      "71": 6886,
      "rb": 6887,
      "Ġminor": 6888,
      "Ġmys": 6889,
      "ĠâĢ¢": 6890,
      "selected": 6891,
      "inion": 6892,
      "Ġsusp": 6893,
      "Ġconflic": 6894,
      "Ġpaid": 6895,
      "GS": 6896,
      "Pack": 6897,
      "Ġsurround": 6898,
      "ĠLin": 6899,
      "ĠInformation": 6900,
      "94": 6901,
      "Directory": 6902,
      "unities": 6903,
      "Ġmaybe": 6904,
      "Ġcommunities": 6905,
      "Ġpolitic": 6906,
      "pository": 6907,
      "Ġsupp": 6908,
      "Ġintroduced": 6909,
      "ĠLake": 6910,
      "Ġdespite": 6911,
      "abit": 6912,
      "owers": 6913,
      "entials": 6914,
      "Ġincor": 6915,
      "Ġblue": 6916,
      "oms": 6917,
      "Ġnodes": 6918,
      "Ġapplications": 6919,
      "itors": 6920,
      "Ġpair": 6921,
      "resents": 6922,
      "ĠTwitter": 6923,
      "}</": 6924,
      "Ġawait": 6925,
      "93": 6926,
      "Ġtraff": 6927,
      "âĢĿ,": 6928,
      "LP": 6929,
      "Ġkids": 6930,
      "tests": 6931,
      "Ġdebut": 6932,
      "power": 6933,
      "ĠMur": 6934,
      "$\\": 6935,
      "ĠArts": 6936,
      "Ġzero": 6937,
      "Ġcharge": 6938,
      "ĠGlobal": 6939,
      "Ġmessages": 6940,
      "Grid": 6941,
      "Full": 6942,
      "HS": 6943,
      "Ġaffect": 6944,
      ">:": 6945,
      "itness": 6946,
      "ĠBack": 6947,
      "ĠEarth": 6948,
      "points": 6949,
      "ĠHot": 6950,
      "Ġowners": 6951,
      "Ġresponsible": 6952,
      "Ġcaused": 6953,
      "Ġraised": 6954,
      "Ġ[];": 6955,
      "IA": 6956,
      "ught": 6957,
      "ONE": 6958,
      "Ġbuilder": 6959,
      "hens": 6960,
      "Ġproduce": 6961,
      "Ġcompetition": 6962,
      "ĠSecurity": 6963,
      "Ġcomponents": 6964,
      "%%%%": 6965,
      "poses": 6966,
      "Ġedge": 6967,
      "Ġlif": 6968,
      "andard": 6969,
      "Ġbecomes": 6970,
      "Ġgenerate": 6971,
      "uy": 6972,
      "olk": 6973,
      "ashion": 6974,
      "Ġupdated": 6975,
      "Ġtried": 6976,
      "Ġshowed": 6977,
      "ĠEngine": 6978,
      "Ġprison": 6979,
      "ĠCharles": 6980,
      "ĠBre": 6981,
      "Ġmajority": 6982,
      "legal": 6983,
      "Ġcalling": 6984,
      "Ġpull": 6985,
      "ĠIreland": 6986,
      "Ġfunc": 6987,
      "horizontal": 6988,
      "Ġclimate": 6989,
      "kr": 6990,
      "ĠLib": 6991,
      "Ġreflect": 6992,
      "Ġdownload": 6993,
      "onom": 6994,
      "Ġviews": 6995,
      "Ġsell": 6996,
      "Ġagreed": 6997,
      "Ġeventually": 6998,
      "Ġcritical": 6999,
      "ko": 7000,
      "Ġwel": 7001,
      "Ġdir": 7002,
      "Ġhandler": 7003,
      "Ġgenerally": 7004,
      "Ġhelped": 7005,
      "ĠMax": 7006,
      "ifications": 7007,
      "txt": 7008,
      "&&": 7009,
      "81": 7010,
      "ĠTeam": 7011,
      "othing": 7012,
      "ĠJud": 7013,
      "Adapter": 7014,
      "=\"${": 7015,
      "ien": 7016,
      "ĠAtl": 7017,
      "73": 7018,
      "Ġplaced": 7019,
      "Ġmatrix": 7020,
      "Ġbrother": 7021,
      "Events": 7022,
      "ĠArab": 7023,
      "ĠAny": 7024,
      "Close": 7025,
      "++;": 7026,
      "osen": 7027,
      "Ġclaims": 7028,
      "night": 7029,
      "ĠUpdate": 7030,
      "NG": 7031,
      "Ġhospital": 7032,
      "grade": 7033,
      "Panel": 7034,
      "elease": 7035,
      "Other": 7036,
      "Ġpsych": 7037,
      "Ġofficials": 7038,
      "Ġdog": 7039,
      "Ġwhom": 7040,
      "Ġvariety": 7041,
      "Ġdetermine": 7042,
      "ĠFinal": 7043,
      "Ġstra": 7044,
      "clusive": 7045,
      "eler": 7046,
      "Ġnotice": 7047,
      "IST": 7048,
      "jar": 7049,
      "ffect": 7050,
      "hidden": 7051,
      "chedul": 7052,
      "ression": 7053,
      "Ġkm": 7054,
      "ĠThursday": 7055,
      "MOD": 7056,
      "ĠLibrary": 7057,
      "Var": 7058,
      "utf": 7059,
      "Ġattributes": 7060,
      "ĠSol": 7061,
      "istent": 7062,
      "Ġstrategy": 7063,
      "anging": 7064,
      "ĠEp": 7065,
      "wild": 7066,
      "Desc": 7067,
      "()).": 7068,
      "Ġtherefore": 7069,
      "Ġbrowser": 7070,
      "Ġmurder": 7071,
      "Ġfear": 7072,
      "WA": 7073,
      "PATH": 7074,
      "ĠEven": 7075,
      "Ġhour": 7076,
      "Ġchief": 7077,
      "Ġtab": 7078,
      "83": 7079,
      "ĠAction": 7080,
      "\"`": 7081,
      "John": 7082,
      "trigger": 7083,
      "onym": 7084,
      "lv": 7085,
      "icens": 7086,
      "Ġinvalid": 7087,
      "NavBarCell": 7088,
      "ĠDen": 7089,
      "ĠDom": 7090,
      "Ġaware": 7091,
      "Ġstuff": 7092,
      "isters": 7093,
      "Loc": 7094,
      "Ġpointer": 7095,
      "thlet": 7096,
      "reset": 7097,
      "Ã§": 7098,
      "ĠFilm": 7099,
      "ĠParis": 7100,
      "Ġpool": 7101,
      "Ġio": 7102,
      "Ġng": 7103,
      "arden": 7104,
      "ĠOh": 7105,
      "apers": 7106,
      "Ġexperiment": 7107,
      "aught": 7108,
      "Some": 7109,
      "Ġcustomers": 7110,
      "ĠĠĠĠĠĠĠĠĠĠĠĠĠĠĠĠĠĠĠĠĠĠĠĠĠĠĠĠĠĠĠĠĠĠĠĠĠĠĠĠĠĠĠ": 7111,
      "Ġcouldn": 7112,
      "ĠAcademy": 7113,
      "ydro": 7114,
      "ĠTour": 7115,
      "ĠBur": 7116,
      "Ġserve": 7117,
      "Ġformed": 7118,
      "standing": 7119,
      "Depend": 7120,
      "','": 7121,
      "proto": 7122,
      "Ġaf": 7123,
      "Ġmatches": 7124,
      "à¥": 7125,
      "]:": 7126,
      "INFO": 7127,
      "Ġelem": 7128,
      "iteral": 7129,
      "ĠOld": 7130,
      "Ġcritic": 7131,
      "ĠOrder": 7132,
      "Ġcapacity": 7133,
      "yr": 7134,
      "Sw": 7135,
      "Ġmobile": 7136,
      "igen": 7137,
      "Ġagreement": 7138,
      "Ġdraft": 7139,
      "Ġpri": 7140,
      "Tags": 7141,
      "ĠJim": 7142,
      "ĠPage": 7143,
      "agram": 7144,
      "porate": 7145,
      "Ġagree": 7146,
      "Ġpresence": 7147,
      "Ġ{};": 7148,
      "Ġthinking": 7149,
      "logger": 7150,
      "hav": 7151,
      "->_": 7152,
      "Ġwat": 7153,
      "delta": 7154,
      "bad": 7155,
      "*}": 7156,
      "Ġseparate": 7157,
      "Global": 7158,
      "account": 7159,
      "SL": 7160,
      "lie": 7161,
      "ny": 7162,
      "ĉĉĉĊ": 7163,
      "Plugin": 7164,
      "Ġhidden": 7165,
      "Ġshop": 7166,
      "ĠCast": 7167,
      "faces": 7168,
      "Java": 7169,
      "Ġsplit": 7170,
      "super": 7171,
      "2022": 7172,
      "Ġdomain": 7173,
      "Ġreasons": 7174,
      "ĠEvery": 7175,
      "Ġdetail": 7176,
      "pat": 7177,
      "ĠAuthor": 7178,
      "Ġeconomy": 7179,
      "Enum": 7180,
      "Ġinsert": 7181,
      "ĠFree": 7182,
      "ĠMartin": 7183,
      "ĠĠĠĠĠĠĠĠĠĠĠĠĠĠĠĠĠĠĠĠĠĠ": 7184,
      "Ġuseful": 7185,
      "ĠCA": 7186,
      "Ġreduce": 7187,
      "tools": 7188,
      "Print": 7189,
      "riteria": 7190,
      "ircle": 7191,
      "Ġpul": 7192,
      "ĠPower": 7193,
      "{}": 7194,
      "stitution": 7195,
      "ãĢ": 7196,
      "itz": 7197,
      "DT": 7198,
      "Med": 7199,
      "UTF": 7200,
      "Ġgeneration": 7201,
      "ĠStat": 7202,
      "Ġacadem": 7203,
      "ustain": 7204,
      "Ġchain": 7205,
      "Ġ${": 7206,
      "Ġroll": 7207,
      "ĠBrown": 7208,
      "mathrm": 7209,
      "Ġincome": 7210,
      "Ġexport": 7211,
      "Ġcref": 7212,
      "ĠPan": 7213,
      "Ġaccur": 7214,
      "ĠEnter": 7215,
      "ĠTODO": 7216,
      "Ġaccom": 7217,
      "Ġobtain": 7218,
      "ToString": 7219,
      "Mapping": 7220,
      "Ġelectric": 7221,
      "ĠMicrosoft": 7222,
      "Ġappropriate": 7223,
      "Ġproced": 7224,
      "echo": 7225,
      "handler": 7226,
      "ĠAmazon": 7227,
      "ĠSO": 7228,
      "Ġcru": 7229,
      "Ġ=========": 7230,
      "Ġbg": 7231,
      "quis": 7232,
      "'])": 7233,
      "Big": 7234,
      "ircraft": 7235,
      "ĠGames": 7236,
      "engine": 7237,
      "ĠĠĠĠĠĠĠĠĠĠĠĠĠĠĠĠĠĠĠĠĠĠĠĠ": 7238,
      "important": 7239,
      "Ġpartial": 7240,
      "150": 7241,
      "ĠForce": 7242,
      "typedef": 7243,
      "Ġeasily": 7244,
      "dx": 7245,
      "Ġdeaths": 7246,
      "ULE": 7247,
      "ito": 7248,
      "Double": 7249,
      "Ġreligious": 7250,
      "annels": 7251,
      "Layer": 7252,
      "Transform": 7253,
      "Ġtruth": 7254,
      "XML": 7255,
      "desc": 7256,
      "ĠFire": 7257,
      "Ġstrateg": 7258,
      "ĠCommunity": 7259,
      "erial": 7260,
      "Ġunknown": 7261,
      "Ġdrink": 7262,
      "UC": 7263,
      "ĠAre": 7264,
      "family": 7265,
      "Ġparties": 7266,
      "Ġpeace": 7267,
      "ĠMexico": 7268,
      ")\">": 7269,
      "Ġended": 7270,
      "Ġmix": 7271,
      "Ġboy": 7272,
      "cient": 7273,
      "SR": 7274,
      "astr": 7275,
      "Ġperhaps": 7276,
      "Ġleague": 7277,
      "Ġagent": 7278,
      "jpg": 7279,
      "Ġdoor": 7280,
      "Ġpassword": 7281,
      "Our": 7282,
      "Ġok": 7283,
      "ĠPolicy": 7284,
      "HR": 7285,
      "aser": 7286,
      "Ġsites": 7287,
      "1992": 7288,
      "ĠDev": 7289,
      "ĠTuesday": 7290,
      "ĠFunction": 7291,
      "external": 7292,
      "Ġgoals": 7293,
      "Ġenable": 7294,
      "Ġweap": 7295,
      "SCR": 7296,
      "Ġarm": 7297,
      "ura": 7298,
      "(-": 7299,
      "area": 7300,
      "Auto": 7301,
      "Ġstraight": 7302,
      "Ġidentity": 7303,
      "Ġ{\\": 7304,
      "Ġxmlns": 7305,
      "ĠHuman": 7306,
      "acle": 7307,
      "IVE": 7308,
      "elligence": 7309,
      "usband": 7310,
      "ĠMil": 7311,
      "bur": 7312,
      "rase": 7313,
      "xi": 7314,
      "Ġ(_": 7315,
      "Abstract": 7316,
      "IMP": 7317,
      "Ġ\"<": 7318,
      "Ġoccup": 7319,
      "Term": 7320,
      "Ġfixed": 7321,
      "Ġsea": 7322,
      "Ġunderstanding": 7323,
      "Ġhappy": 7324,
      "123": 7325,
      "metadata": 7326,
      "zone": 7327,
      ")),": 7328,
      "Ġsexual": 7329,
      "ih": 7330,
      "iced": 7331,
      "gs": 7332,
      "Ġinteger": 7333,
      "Ġfourth": 7334,
      "Ġmanaged": 7335,
      "Ġtheme": 7336,
      "SER": 7337,
      "Ġconnected": 7338,
      "Ġtools": 7339,
      "Ġkept": 7340,
      "Let": 7341,
      "switch": 7342,
      "Ġolder": 7343,
      "fire": 7344,
      "bytes": 7345,
      "Play": 7346,
      "Ġhol": 7347,
      "ĠMessage": 7348,
      "Ġexternal": 7349,
      "Ġrare": 7350,
      "1993": 7351,
      "Func": 7352,
      "Ġideas": 7353,
      "rier": 7354,
      "ĠJohnson": 7355,
      "erg": 7356,
      "Ġpartner": 7357,
      "Ġextrem": 7358,
      "FIG": 7359,
      "poration": 7360,
      "Scroll": 7361,
      "tmp": 7362,
      "SY": 7363,
      "ĠApple": 7364,
      "tabs": 7365,
      "Ġadministration": 7366,
      "Pay": 7367,
      "oston": 7368,
      "Duration": 7369,
      "ĠCopyright": 7370,
      "ĠLee": 7371,
      "Ġtrial": 7372,
      "Browser": 7373,
      "]{": 7374,
      "ansion": 7375,
      "ĠLove": 7376,
      "Ġfle": 7377,
      "iterator": 7378,
      "ĠPoint": 7379,
      "ils": 7380,
      "ĠLandroid": 7381,
      "Ġmenu": 7382,
      "Ġtalking": 7383,
      "Ġrequests": 7384,
      "Ġahead": 7385,
      "Ġspread": 7386,
      "ĠTask": 7387,
      "Ġphil": 7388,
      "ĠWednesday": 7389,
      "rees": 7390,
      "apy": 7391,
      "Ġaudience": 7392,
      "ĠValley": 7393,
      "browser": 7394,
      "ĠSecond": 7395,
      "cos": 7396,
      "Ġseconds": 7397,
      "Ġfn": 7398,
      "Dest": 7399,
      "figure": 7400,
      "sigma": 7401,
      "asion": 7402,
      "TA": 7403,
      "ĠZeal": 7404,
      "ĠDC": 7405,
      "arant": 7406,
      "fail": 7407,
      "LECT": 7408,
      "Cond": 7409,
      "Ġobvious": 7410,
      "ean": 7411,
      "ĠChief": 7412,
      "network": 7413,
      "Ġchoose": 7414,
      "Matrix": 7415,
      "DC": 7416,
      "åı": 7417,
      "Ġbelong": 7418,
      "Details": 7419,
      "Runtime": 7420,
      "Ġguest": 7421,
      "sel": 7422,
      "Ġstated": 7423,
      "ĠScot": 7424,
      "ĠOnly": 7425,
      "ĠNode": 7426,
      "ĠLand": 7427,
      "Ġchallenge": 7428,
      "ĠEconom": 7429,
      "ĠAS": 7430,
      "Ġpowerful": 7431,
      "reshold": 7432,
      "operation": 7433,
      "Ġbul": 7434,
      "Ġimplements": 7435,
      "Ġupper": 7436,
      "Ġlisted": 7437,
      "Generic": 7438,
      "apply": 7439,
      "Ġsignature": 7440,
      "Ġessential": 7441,
      "mo": 7442,
      "Ġsignal": 7443,
      "ali": 7444,
      "Files": 7445,
      "emon": 7446,
      "domain": 7447,
      "Ġ\"\"": 7448,
      "ĠSar": 7449,
      "ĠLocal": 7450,
      "ICE": 7451,
      "ĠLine": 7452,
      "Comple": 7453,
      "Ġcategory": 7454,
      "going": 7455,
      "Expr": 7456,
      "Pointer": 7457,
      "Sync": 7458,
      "ĠTher": 7459,
      "Ġplays": 7460,
      "Ġoptim": 7461,
      "PP": 7462,
      "Ġwood": 7463,
      "Ġnoted": 7464,
      "herited": 7465,
      "HER": 7466,
      "Gen": 7467,
      "osoph": 7468,
      "Ġsenior": 7469,
      "heast": 7470,
      "getName": 7471,
      "Ġoffered": 7472,
      "_(": 7473,
      "Ġul": 7474,
      "ĠCare": 7475,
      "uages": 7476,
      "Ġreq": 7477,
      "UD": 7478,
      "STAT": 7479,
      "Ġreplaced": 7480,
      "uilt": 7481,
      "IPT": 7482,
      "cert": 7483,
      "ĠObama": 7484,
      "Ġfix": 7485,
      "Ġenabled": 7486,
      "120": 7487,
      "editor": 7488,
      "Ġinfluence": 7489,
      "configuration": 7490,
      "ĠZealand": 7491,
      "NULL": 7492,
      "Ġreject": 7493,
      "ĠJo": 7494,
      "Ġdoll": 7495,
      "Ġjobs": 7496,
      "ĠCatholic": 7497,
      "Ġfif": 7498,
      "ĠVictor": 7499,
      "libr": 7500,
      "Memory": 7501,
      "emy": 7502,
      "Ġcontinues": 7503,
      "Ġdirected": 7504,
      "Ñı": 7505,
      "odies": 7506,
      "WN": 7507,
      "Ġsubsequ": 7508,
      "note": 7509,
      "Space": 7510,
      "ĠPenn": 7511,
      "Profile": 7512,
      "Ġwall": 7513,
      "Ġlicense": 7514,
      "ĠMiddle": 7515,
      "Scale": 7516,
      "Repository": 7517,
      "Ġpatient": 7518,
      "navList": 7519,
      "Ġaim": 7520,
      "ĠSpecial": 7521,
      "inv": 7522,
      "platform": 7523,
      "components": 7524,
      "Ġreality": 7525,
      "ingu": 7526,
      "Ġinstalled": 7527,
      "estic": 7528,
      "ĠBO": 7529,
      "ĠYoung": 7530,
      "Ġmonitor": 7531,
      "life": 7532,
      "Ġwinning": 7533,
      "total": 7534,
      "Ġvisible": 7535,
      "IND": 7536,
      "Ġoptional": 7537,
      "SQL": 7538,
      "Ġalle": 7539,
      "ĠRegister": 7540,
      "kins": 7541,
      "awn": 7542,
      "Elements": 7543,
      "ĠEli": 7544,
      "straints": 7545,
      "Ġlaunched": 7546,
      "Ġdanger": 7547,
      "Ġ{'": 7548,
      "Attr": 7549,
      "ookie": 7550,
      "Ġfeet": 7551,
      "oles": 7552,
      "centr": 7553,
      "Ġmaterials": 7554,
      "Keys": 7555,
      "effect": 7556,
      "posite": 7557,
      "parser": 7558,
      "sect": 7559,
      "READ": 7560,
      "colLast": 7561,
      "Ġtoward": 7562,
      "ilde": 7563,
      "Register": 7564,
      "Public": 7565,
      "Ġmiles": 7566,
      "ĠCommun": 7567,
      "Ġnegative": 7568,
      "angular": 7569,
      "Ġconvers": 7570,
      "Ġsmart": 7571,
      "ĠLord": 7572,
      "contains": 7573,
      "Ġbrief": 7574,
      "ĠParliament": 7575,
      "each": 7576,
      "ĠElect": 7577,
      "<!": 7578,
      "ĠTR": 7579,
      "iling": 7580,
      "Inv": 7581,
      "Parse": 7582,
      "Ġvisual": 7583,
      "ĠWood": 7584,
      "Statement": 7585,
      "Ġillustr": 7586,
      "props": 7587,
      "Ġmeant": 7588,
      "builder": 7589,
      "Ġpanel": 7590,
      "Ġpurs": 7591,
      "Ġphase": 7592,
      "Ġdaily": 7593,
      "BI": 7594,
      "ĠTable": 7595,
      "Ġofficer": 7596,
      "BP": 7597,
      ".;": 7598,
      "About": 7599,
      "Ġtypeof": 7600,
      "ĠFig": 7601,
      "ĠStart": 7602,
      "Prop": 7603,
      "ĠItaly": 7604,
      "ĠItalian": 7605,
      "iro": 7606,
      "Ġencoding": 7607,
      "Ġmostly": 7608,
      "Ġasync": 7609,
      "GO": 7610,
      "Ġforced": 7611,
      "Ġprim": 7612,
      "Ġrates": 7613,
      "ĠJava": 7614,
      "ĠGets": 7615,
      "Ġsteps": 7616,
      "ato": 7617,
      "colFirst": 7618,
      "Ġadvert": 7619,
      "Ġbroadcast": 7620,
      "Character": 7621,
      "Delta": 7622,
      "Ġbuildings": 7623,
      "ĠParam": 7624,
      "ĠGal": 7625,
      "orrow": 7626,
      "ournament": 7627,
      "Ġguitar": 7628,
      "bridge": 7629,
      "Ġtrail": 7630,
      "Ġslight": 7631,
      "Ġcertainly": 7632,
      "Ġfactor": 7633,
      "NT": 7634,
      "ossible": 7635,
      "iana": 7636,
      "attributes": 7637,
      "ĠJewish": 7638,
      "tbody": 7639,
      "\"/": 7640,
      "Ġabsolute": 7641,
      "Find": 7642,
      "ĠVirginia": 7643,
      "uan": 7644,
      "asketball": 7645,
      "ourney": 7646,
      "children": 7647,
      "Ġgone": 7648,
      "ĠIndex": 7649,
      "atever": 7650,
      "Ġshowing": 7651,
      "Ġremote": 7652,
      "128": 7653,
      "Ġgovern": 7654,
      "ĠTechnology": 7655,
      "roph": 7656,
      "ups": 7657,
      "Ġsmaller": 7658,
      "ĠMa": 7659,
      "ĠCentre": 7660,
      "Ġinvestment": 7661,
      "protected": 7662,
      "ĠWindows": 7663,
      "Wrapper": 7664,
      "Ġbenefit": 7665,
      "Ġdepth": 7666,
      "Ġfill": 7667,
      "ĠPath": 7668,
      "ĠMake": 7669,
      "eces": 7670,
      "^{\\": 7671,
      "theme": 7672,
      "Ġskills": 7673,
      "eller": 7674,
      "watch": 7675,
      "sim": 7676,
      "stone": 7677,
      "ĠĠĠĠĠĠĠĠĠĠĠĠĠĠĠĠĠĠĠĠĠĠĠĠĠĠĠĠĠ": 7678,
      "Ġshut": 7679,
      "ĠIts": 7680,
      "[$": 7681,
      "Ġcrow": 7682,
      "Ġcamera": 7683,
      "Ġreader": 7684,
      "zen": 7685,
      "Ġprocessing": 7686,
      "NOT": 7687,
      "Ġcultural": 7688,
      "ĠFort": 7689,
      "ĠGeorg": 7690,
      "ĠPass": 7691,
      "generated": 7692,
      "()</": 7693,
      "game": 7694,
      "Ġadvant": 7695,
      "Ġrestrict": 7696,
      "inator": 7697,
      "1991": 7698,
      "Ġtrigger": 7699,
      "Ġorganizations": 7700,
      "Constants": 7701,
      "Ġbiggest": 7702,
      "Ġrestaur": 7703,
      "okes": 7704,
      "ĠPop": 7705,
      "results": 7706,
      "razil": 7707,
      "idx": 7708,
      "^\\": 7709,
      "ĠJones": 7710,
      "kin": 7711,
      "iments": 7712,
      "Ġleaving": 7713,
      "Ġà¤": 7714,
      "ographic": 7715,
      "otic": 7716,
      "Ġtx": 7717,
      "pdf": 7718,
      "Ġpet": 7719,
      "Ġcredit": 7720,
      "ĠIOException": 7721,
      "acific": 7722,
      "Ġwaves": 7723,
      "Ġinterested": 7724,
      "ĠResource": 7725,
      "ador": 7726,
      "Ġfamous": 7727,
      "tags": 7728,
      "Ġplanning": 7729,
      "Ġvehicle": 7730,
      "Ġdesc": 7731,
      "cean": 7732,
      "aria": 7733,
      "Ġprotocol": 7734,
      "OUT": 7735,
      "Cor": 7736,
      "ĠDown": 7737,
      "Ġpod": 7738,
      "hide": 7739,
      "Failed": 7740,
      "prefix": 7741,
      "chor": 7742,
      "riev": 7743,
      "ĠSpace": 7744,
      "Ġidentified": 7745,
      "ĠTheir": 7746,
      "Ġplot": 7747,
      "Ġviolence": 7748,
      "Remove": 7749,
      "uries": 7750,
      "Ġheavy": 7751,
      "rick": 7752,
      "ĠMuslim": 7753,
      "signature": 7754,
      "Ġcoast": 7755,
      "ello": 7756,
      "Py": 7757,
      "Ġadopt": 7758,
      "Ġnavigation": 7759,
      "$/": 7760,
      "âĢ¢": 7761,
      "Ġremaining": 7762,
      "Ġdu": 7763,
      "Ġelected": 7764,
      "aylor": 7765,
      "ĠNY": 7766,
      "Ġconference": 7767,
      "ĠSection": 7768,
      "how": 7769,
      "rid": 7770,
      "Ġbecoming": 7771,
      "article": 7772,
      "akistan": 7773,
      "Ġstarts": 7774,
      "webpack": 7775,
      "Ġque": 7776,
      "dp": 7777,
      "igital": 7778,
      "Ġsector": 7779,
      "Ġrepresents": 7780,
      "Single": 7781,
      "dialog": 7782,
      "inations": 7783,
      "+\\": 7784,
      "Ġconsult": 7785,
      "safe": 7786,
      "ERS": 7787,
      "Ġemployees": 7788,
      "Mut": 7789,
      "Ġbeat": 7790,
      "ocaml": 7791,
      "Ġonto": 7792,
      "inet": 7793,
      "limit": 7794,
      "Ġearth": 7795,
      "wrapper": 7796,
      "ĠAlthough": 7797,
      "Ġfresh": 7798,
      "Ġrac": 7799,
      "Report": 7800,
      "news": 7801,
      "ĠBet": 7802,
      "USE": 7803,
      "filename": 7804,
      "\"><!--": 7805,
      "Ġappre": 7806,
      "ĠDesign": 7807,
      "prev": 7808,
      "ĠGar": 7809,
      "ĠFund": 7810,
      "Ġfunding": 7811,
      "Ġcloud": 7812,
      "duled": 7813,
      "Cred": 7814,
      "ĠExt": 7815,
      "nil": 7816,
      "ĠLink": 7817,
      "Ġattend": 7818,
      "ĠRecords": 7819,
      "eps": 7820,
      "ipped": 7821,
      "Ġ=======": 7822,
      "%,": 7823,
      "Success": 7824,
      "ĠAwards": 7825,
      "Ġvir": 7826,
      "Ġdetermined": 7827,
      "Ġleadership": 7828,
      "Ġhusband": 7829,
      "ctrine": 7830,
      "ĠInternet": 7831,
      "Ġdelay": 7832,
      "mask": 7833,
      "Ġinfr": 7834,
      "~~~~": 7835,
      "Common": 7836,
      "Ġcreation": 7837,
      "Ġcool": 7838,
      "ĠHaw": 7839,
      "ĠMain": 7840,
      "1960": 7841,
      "mutable": 7842,
      "ĠLast": 7843,
      "role": 7844,
      "Members": 7845,
      "Password": 7846,
      ")).": 7847,
      "ĠJes": 7848,
      "odd": 7849,
      "Ġrepresentation": 7850,
      "MB": 7851,
      "junit": 7852,
      "Ġsizeof": 7853,
      "ĠOl": 7854,
      "ĠWater": 7855,
      "Ġcandidate": 7856,
      "ITE": 7857,
      "ĠRequest": 7858,
      "Ġfan": 7859,
      "Ġfloor": 7860,
      "Ġsun": 7861,
      "ĠĠĠĠĠĠĠĠĠĠĠĠĠĠĠĠĠĠĠĠĠĠĠĠĠĠ": 7862,
      "PORT": 7863,
      "atible": 7864,
      "Ġwid": 7865,
      "Socket": 7866,
      "Ġraw": 7867,
      "world": 7868,
      "Ġaudio": 7869,
      "Fail": 7870,
      "present": 7871,
      "allclasses": 7872,
      "ĠWhy": 7873,
      "endor": 7874,
      "Ġ\",": 7875,
      "Ġminimum": 7876,
      "Selected": 7877,
      "Sql": 7878,
      "Ġpicture": 7879,
      "upload": 7880,
      "Ne": 7881,
      "oving": 7882,
      "atters": 7883,
      "Route": 7884,
      "conn": 7885,
      "Ġbudget": 7886,
      "ĠHistor": 7887,
      "ĠChris": 7888,
      "extern": 7889,
      "Ġterror": 7890,
      "prise": 7891,
      "Ġobtained": 7892,
      "Ġbenefits": 7893,
      "bing": 7894,
      "Ġadjust": 7895,
      "Ġpi": 7896,
      "Ġparser": 7897,
      "Ġblocks": 7898,
      "ilation": 7899,
      "Ġbrain": 7900,
      "Posted": 7901,
      "ums": 7902,
      "TEXT": 7903,
      "Ġwarn": 7904,
      "compiler": 7905,
      "------------": 7906,
      "arsed": 7907,
      "Ġflex": 7908,
      "ĠWall": 7909,
      "Variable": 7910,
      "uzz": 7911,
      "ĠIl": 7912,
      "Ġcontem": 7913,
      "ĠAsia": 7914,
      "amm": 7915,
      "Ġcities": 7916,
      "crete": 7917,
      "IGHT": 7918,
      "Ġdim": 7919,
      "Ġui": 7920,
      "triev": 7921,
      "Ã³n": 7922,
      "Ġpan": 7923,
      "Ġstreet": 7924,
      "ajax": 7925,
      "Ġyield": 7926,
      "utch": 7927,
      "Ġrecommend": 7928,
      "Ġdamage": 7929,
      "Ġoperating": 7930,
      "Ġmusical": 7931,
      "ĠSu": 7932,
      "ĠReact": 7933,
      "ĉĠĠĠĠ": 7934,
      "ĠBob": 7935,
      "Ġmyself": 7936,
      "3333": 7937,
      "Ġenh": 7938,
      "ĠWhe": 7939,
      "Ġdocuments": 7940,
      "ALSE": 7941,
      "ĠWAR": 7942,
      "ĠFamily": 7943,
      "unte": 7944,
      "wildfly": 7945,
      "Ġcluster": 7946,
      "FFFF": 7947,
      "Ġneighbor": 7948,
      "La": 7949,
      "picker": 7950,
      "shadow": 7951,
      "urban": 7952,
      "Sequ": 7953,
      "World": 7954,
      "ACT": 7955,
      "channel": 7956,
      "eleted": 7957,
      "ĠMult": 7958,
      "Identifier": 7959,
      "ĠSupport": 7960,
      "Ġrad": 7961,
      "Ġdepartment": 7962,
      "gamma": 7963,
      "ĉĉĉĉĉĉĉĉĉ": 7964,
      "person": 7965,
      "mazing": 7966,
      "ĠWay": 7967,
      "care": 7968,
      "rift": 7969,
      "serial": 7970,
      "ĠCard": 7971,
      "pan": 7972,
      "Ġguy": 7973,
      "Ġfish": 7974,
      "Are": 7975,
      "posal": 7976,
      "ĠPolit": 7977,
      "Ġcorresponding": 7978,
      "essions": 7979,
      "ĠLo": 7980,
      "Ġrequirements": 7981,
      "ati": 7982,
      "swarm": 7983,
      "Props": 7984,
      "Ġprotection": 7985,
      "StyleID": 7986,
      "ĠNAME": 7987,
      "Ġcriminal": 7988,
      "Person": 7989,
      "pet": 7990,
      "Ġrelevant": 7991,
      "ĠJon": 7992,
      "Ġkill": 7993,
      "Ġfactory": 7994,
      "ĠImage": 7995,
      "Ġoccur": 7996,
      "Ġcontroller": 7997,
      "Ġtraffic": 7998,
      "contin": 7999,
      "ĠGir": 8000,
      "aching": 8001,
      "CRE": 8002,
      "Ġpp": 8003,
      "gers": 8004,
      "ĠEach": 8005,
      "arian": 8006,
      "CESS": 8007,
      "INS": 8008,
      "Ġsupply": 8009,
      "FS": 8010,
      "blog": 8011,
      "amer": 8012,
      "Ġmentioned": 8013,
      "cribe": 8014,
      "Product": 8015,
      "Registry": 8016,
      "ĠMP": 8017,
      "Why": 8018,
      "ï»": 8019,
      "Video": 8020,
      "Ġregarding": 8021,
      "ĠDO": 8022,
      "headers": 8023,
      "ĠRail": 8024,
      "friend": 8025,
      "ountry": 8026,
      "ĠWho": 8027,
      "Collections": 8028,
      "Year": 8029,
      "Ġult": 8030,
      "Rob": 8031,
      "Ġpolitics": 8032,
      "Ġoriginally": 8033,
      "ĠBritain": 8034,
      "ishes": 8035,
      "Ġregistered": 8036,
      "andon": 8037,
      "ĠAbout": 8038,
      "600": 8039,
      "Ġhyp": 8040,
      "Ġattract": 8041,
      "protocol": 8042,
      "mi": 8043,
      "Trace": 8044,
      "Ġfant": 8045,
      "Ġfactors": 8046,
      "Ġ(\\": 8047,
      "acro": 8048,
      "Ġentered": 8049,
      "DEBUG": 8050,
      "Help": 8051,
      "Ġctx": 8052,
      "Ġhistorical": 8053,
      "alytics": 8054,
      "Ġexit": 8055,
      "Ġfounded": 8056,
      "Ġequipment": 8057,
      "Ġaren": 8058,
      "ĠPRO": 8059,
      "Ġsleep": 8060,
      "ĠJeff": 8061,
      "ela": 8062,
      "ifically": 8063,
      "collection": 8064,
      "Generator": 8065,
      "ĠPlan": 8066,
      "partial": 8067,
      "ĠAge": 8068,
      "Ġ[\"": 8069,
      "Ġresidents": 8070,
      "astructure": 8071,
      "inton": 8072,
      "ĠHash": 8073,
      "ĠBlue": 8074,
      "Ġadding": 8075,
      "oses": 8076,
      "Ġmixed": 8077,
      "ucky": 8078,
      "ĠMany": 8079,
      "writer": 8080,
      "ï»¿": 8081,
      "ifdef": 8082,
      "bserv": 8083,
      "Ġrevealed": 8084,
      "Ġprovider": 8085,
      "Ġconvert": 8086,
      "Category": 8087,
      "ĠSpanish": 8088,
      "gal": 8089,
      "Ġcoq": 8090,
      "storage": 8091,
      "ĠMike": 8092,
      "Ġclearly": 8093,
      "BAR": 8094,
      "ĠWilliams": 8095,
      "ictures": 8096,
      "nergy": 8097,
      "Ġaircraft": 8098,
      "ĠAndroid": 8099,
      "ĠHenry": 8100,
      "para": 8101,
      "1989": 8102,
      "va": 8103,
      "Ð´": 8104,
      "isc": 8105,
      "Simple": 8106,
      "collapse": 8107,
      "allel": 8108,
      "ĠSand": 8109,
      "war": 8110,
      "Ġexecutive": 8111,
      "Ġknows": 8112,
      "NN": 8113,
      "ĠRights": 8114,
      "Ġ\"-": 8115,
      "Ġflags": 8116,
      "Ġphoto": 8117,
      "olec": 8118,
      ".\");": 8119,
      "Cap": 8120,
      "ĠLab": 8121,
      "lig": 8122,
      "details": 8123,
      "Ġcovered": 8124,
      "nel": 8125,
      "Ġlived": 8126,
      "800": 8127,
      "Here": 8128,
      "Ġeye": 8129,
      "Ġprev": 8130,
      "ĠOrgan": 8131,
      "Book": 8132,
      "orders": 8133,
      "Ġdie": 8134,
      "ĠIE": 8135,
      "reatest": 8136,
      "TIME": 8137,
      "ĠCarolina": 8138,
      "ĠUI": 8139,
      "Ġnotes": 8140,
      "maven": 8141,
      "execute": 8142,
      "Ġfinish": 8143,
      "iano": 8144,
      "sumer": 8145,
      "detail": 8146,
      "Ġconcentr": 8147,
      "Ġwarm": 8148,
      "Ġinvestigation": 8149,
      "Ġfaith": 8150,
      "ĠTri": 8151,
      "Ġcars": 8152,
      "Ġproceed": 8153,
      "iser": 8154,
      "ÑĮ": 8155,
      "random": 8156,
      "Ġappend": 8157,
      "Ġcrime": 8158,
      "Ġrespectively": 8159,
      "Ġsomew": 8160,
      "ez": 8161,
      "URI": 8162,
      "ĠTele": 8163,
      "alm": 8164,
      "Ġwish": 8165,
      "Ġholds": 8166,
      "Ġconstructor": 8167,
      "Ġweak": 8168,
      "ĠCustom": 8169,
      "Ġru": 8170,
      "ndef": 8171,
      "ĠGi": 8172,
      "ĠAccess": 8173,
      "Ġlands": 8174,
      "ĠCEO": 8175,
      "Ġcitizens": 8176,
      "ĠLi": 8177,
      "Ġstandards": 8178,
      "pressed": 8179,
      "roke": 8180,
      "cred": 8181,
      "provider": 8182,
      "High": 8183,
      "Ġgather": 8184,
      "ĠjQuery": 8185,
      "?\"": 8186,
      "Ġstrength": 8187,
      "ĠEU": 8188,
      "Ġbgcolor": 8189,
      "Phone": 8190,
      "star": 8191,
      "Ġissued": 8192,
      "Ġfavorite": 8193,
      "Gu": 8194,
      "Ġactor": 8195,
      "aked": 8196,
      "LC": 8197,
      "Agent": 8198,
      "iat": 8199,
      "adium": 8200,
      "Ġrg": 8201,
      "Ġcentre": 8202,
      "Ġremained": 8203,
      "iques": 8204,
      "ĉĠĠĠĠĠ": 8205,
      "ĠAff": 8206,
      "Ġchair": 8207,
      "Ġvariables": 8208,
      "Sche": 8209,
      "Ġbed": 8210,
      "Ġstars": 8211,
      "OB": 8212,
      "Ġpolicies": 8213,
      "sq": 8214,
      ")/": 8215,
      "Ġdefense": 8216,
      "Ġtransl": 8217,
      "Prefix": 8218,
      "Ġcommunication": 8219,
      "Ġabstract": 8220,
      "osa": 8221,
      "ĠPolice": 8222,
      "Selection": 8223,
      "Ġexchange": 8224,
      ";}": 8225,
      "Nodes": 8226,
      "issions": 8227,
      ";\"": 8228,
      "ĠCy": 8229,
      "Ġbalance": 8230,
      "tons": 8231,
      "ĠSports": 8232,
      "ĠAmericans": 8233,
      "||": 8234,
      "ĠCH": 8235,
      "Ġmetadata": 8236,
      "Ġlogger": 8237,
      "Ġ{\"": 8238,
      "xs": 8239,
      "Ġapproximately": 8240,
      "Ġburn": 8241,
      "ĠBoston": 8242,
      "services": 8243,
      "ova": 8244,
      "done": 8245,
      "Ġopportunities": 8246,
      "ira": 8247,
      "Ġjoint": 8248,
      "Ġrich": 8249,
      "identifier": 8250,
      "Ġwouldn": 8251,
      "decl": 8252,
      "Ġnine": 8253,
      "jango": 8254,
      "words": 8255,
      "sur": 8256,
      "ansas": 8257,
      "ĠFROM": 8258,
      "hetic": 8259,
      "Ġexerc": 8260,
      "Ġoccurred": 8261,
      "ĠConference": 8262,
      "ĠSenate": 8263,
      "Ġtalent": 8264,
      "springframework": 8265,
      "Ġarticles": 8266,
      ";)": 8267,
      "she": 8268,
      "exists": 8269,
      "Living": 8270,
      "ĠSte": 8271,
      "scribe": 8272,
      "Ġvan": 8273,
      "ĠMen": 8274,
      "Ġofficers": 8275,
      "ĠNet": 8276,
      "('.": 8277,
      "Ġfeatured": 8278,
      "Ġfra": 8279,
      "250": 8280,
      "Ã¢": 8281,
      "Ġsan": 8282,
      "Ġexcell": 8283,
      "Background": 8284,
      "Region": 8285,
      "OST": 8286,
      "bel": 8287,
      "Ġcompos": 8288,
      "Ġalternative": 8289,
      "idi": 8290,
      "Ġintr": 8291,
      "Seg": 8292,
      "parameters": 8293,
      "JS": 8294,
      "rich": 8295,
      "bec": 8296,
      "ĠControl": 8297,
      "Ġnice": 8298,
      "month": 8299,
      "Ġmask": 8300,
      "progress": 8301,
      "Ġice": 8302,
      "ivalent": 8303,
      "Ġdict": 8304,
      "ĠLcom": 8305,
      "Named": 8306,
      "ĠKar": 8307,
      "MT": 8308,
      "FORM": 8309,
      "Ġwww": 8310,
      "ĠPR": 8311,
      "SCRIPT": 8312,
      "single": 8313,
      "Ġloop": 8314,
      "esome": 8315,
      "Ġapparent": 8316,
      "urer": 8317,
      "ĠJustice": 8318,
      "ifi": 8319,
      "MI": 8320,
      "initely": 8321,
      "?>": 8322,
      "WR": 8323,
      "expr": 8324,
      "ĠInteger": 8325,
      "Game": 8326,
      "invalid": 8327,
      "Ġhers": 8328,
      "svg": 8329,
      "Ġfunds": 8330,
      "amin": 8331,
      "TRUE": 8332,
      "Ġqueue": 8333,
      "izable": 8334,
      "HTTP": 8335,
      "Ġcarried": 8336,
      "Ġnorm": 8337,
      "Ġlinear": 8338,
      "ruit": 8339,
      "ĠChristmas": 8340,
      "Ġbusinesses": 8341,
      "ĠðŁ": 8342,
      "ushed": 8343,
      "Ġlabor": 8344,
      "1988": 8345,
      "ĠResult": 8346,
      "ĠMedical": 8347,
      "phas": 8348,
      "Ġspeak": 8349,
      "Ġspeech": 8350,
      "ima": 8351,
      "Ġlab": 8352,
      "Ġsetup": 8353,
      "Ġplus": 8354,
      "ĠAndrew": 8355,
      "ĠNight": 8356,
      "FLA": 8357,
      "ĠØ": 8358,
      "login": 8359,
      "Ġsquare": 8360,
      "ĠBlock": 8361,
      "Struct": 8362,
      "oti": 8363,
      "illy": 8364,
      "Ġseeing": 8365,
      "Ġyourself": 8366,
      "enabled": 8367,
      "Ġfocused": 8368,
      "sf": 8369,
      "athan": 8370,
      "axis": 8371,
      "Ġappointed": 8372,
      "ĠAdministr": 8373,
      "ĠSpec": 8374,
      "ĠJoe": 8375,
      "defined": 8376,
      "Ġking": 8377,
      "ĠHead": 8378,
      "Ġidx": 8379,
      "Ġedition": 8380,
      "unny": 8381,
      "ĠCross": 8382,
      "Ġintended": 8383,
      "Note": 8384,
      "sb": 8385,
      "Ġ?>": 8386,
      "ĠProcess": 8387,
      "Ġlayout": 8388,
      "orem": 8389,
      "ideos": 8390,
      "ĠSign": 8391,
      "yer": 8392,
      "ĠHTTP": 8393,
      "gypt": 8394,
      "Ġ],": 8395,
      "Comment": 8396,
      "RES": 8397,
      "ressed": 8398,
      "brief": 8399,
      "ffff": 8400,
      "Ġcris": 8401,
      "Tx": 8402,
      "MC": 8403,
      "Ġisland": 8404,
      "Ġrise": 8405,
      "Ð²": 8406,
      "Ġshift": 8407,
      "Ġextract": 8408,
      "BE": 8409,
      "Ġexplicit": 8410,
      "ĠLike": 8411,
      "dem": 8412,
      "Ġenvironmental": 8413,
      "Ġtranslate": 8414,
      "Ġweekend": 8415,
      "ĠColumb": 8416,
      "Domain": 8417,
      "Total": 8418,
      "rim": 8419,
      "water": 8420,
      "ateway": 8421,
      "ĠĠĠĠĠĠĠĠĠĠĠĠĠĠĠĠĠĠĠĠĠĠĠĠĠĠĠĠĠĠĠĠĠĠĠĠĠĠĠĠĠĠĠĠĠĠĠĠĠĠĠĠĠĠĠĠĠĠĠĠĠĠĠĠ": 8422,
      "Ear": 8423,
      "Ġran": 8424,
      "('#": 8425,
      "views": 8426,
      "eval": 8427,
      "formance": 8428,
      "ampl": 8429,
      "cdn": 8430,
      "ĠFootball": 8431,
      "Ġpoly": 8432,
      "mond": 8433,
      "=\"$": 8434,
      "Ġdeveloping": 8435,
      "Section": 8436,
      "ĠSecretary": 8437,
      "Ġbranch": 8438,
      "errors": 8439,
      "ĠBow": 8440,
      "fol": 8441,
      "Ġseemed": 8442,
      "unique": 8443,
      "ITION": 8444,
      "Ġprefix": 8445,
      "ĠFrancisco": 8446,
      ">::": 8447,
      "Ġobserved": 8448,
      "ĠMi": 8449,
      "username": 8450,
      "Ġvictory": 8451,
      "ĠFederal": 8452,
      "Ġpil": 8453,
      "(__": 8454,
      "plications": 8455,
      "Area": 8456,
      "Ġ'<": 8457,
      "Ġappearance": 8458,
      "Namespace": 8459,
      "ĠHospital": 8460,
      "Visible": 8461,
      "Ġstored": 8462,
      "ĠSummer": 8463,
      "'));": 8464,
      "Ġattacks": 8465,
      "Ġextended": 8466,
      "}{\\": 8467,
      "Ġpred": 8468,
      "iration": 8469,
      "stein": 8470,
      "Ġdisabled": 8471,
      "dim": 8472,
      "ĠASSERT": 8473,
      "wall": 8474,
      "Ġwaiting": 8475,
      "ĠTheatre": 8476,
      "ĠSE": 8477,
      "ĠJoseph": 8478,
      "amaz": 8479,
      "Ġyouth": 8480,
      "Ġrepresented": 8481,
      "chain": 8482,
      "moz": 8483,
      "riority": 8484,
      "ighter": 8485,
      "report": 8486,
      "Make": 8487,
      "Fig": 8488,
      "Ġsummary": 8489,
      "Ġfeeling": 8490,
      "101": 8491,
      "Email": 8492,
      "Role": 8493,
      "Resources": 8494,
      "Ġproxy": 8495,
      "edu": 8496,
      "Ġopinion": 8497,
      "atar": 8498,
      "Ġcombined": 8499,
      "CG": 8500,
      "rule": 8501,
      "Final": 8502,
      "ĠSwed": 8503,
      "Ð¼": 8504,
      "throw": 8505,
      "Ġmist": 8506,
      "Ġdiscussion": 8507,
      "Ġexperi": 8508,
      "gency": 8509,
      "ĠKh": 8510,
      "................": 8511,
      "Ġidentify": 8512,
      "AF": 8513,
      "about": 8514,
      "Ã¨": 8515,
      "nam": 8516,
      "Ġreserved": 8517,
      "shared": 8518,
      "required": 8519,
      "ji": 8520,
      "Stats": 8521,
      "RPC": 8522,
      "Progress": 8523,
      "Ġlearned": 8524,
      "Ġconsequ": 8525,
      "åĪ": 8526,
      "ĠNorthern": 8527,
      "Ġsuccessfully": 8528,
      "ĠWild": 8529,
      "plus": 8530,
      "ĠMu": 8531,
      "ĠRest": 8532,
      "Ġguid": 8533,
      "rum": 8534,
      "Ġdecre": 8535,
      "Ġgirls": 8536,
      "Ġ[],": 8537,
      "riz": 8538,
      "icensed": 8539,
      "video": 8540,
      "Since": 8541,
      "These": 8542,
      "Ġversions": 8543,
      "vc": 8544,
      "Ġinner": 8545,
      "ga": 8546,
      "usform": 8547,
      "ĠInvest": 8548,
      "Opt": 8549,
      "ĠPlease": 8550,
      "Ġexamples": 8551,
      "ĠSpe": 8552,
      "numerusform": 8553,
      "Dat": 8554,
      "Ġproof": 8555,
      "green": 8556,
      "Ġ\"$": 8557,
      "Ġsegment": 8558,
      "Ġsuc": 8559,
      "ĠExecut": 8560,
      "Stop": 8561,
      "wp": 8562,
      "Ġdecades": 8563,
      "ollowing": 8564,
      "nic": 8565,
      "Ġmyst": 8566,
      "uplic": 8567,
      "acks": 8568,
      "pu": 8569,
      "Ġjump": 8570,
      "CTYPE": 8571,
      "enger": 8572,
      "ĠEnvironment": 8573,
      "Ġmarriage": 8574,
      "|\\": 8575,
      "ĠPakistan": 8576,
      "xhtml": 8577,
      "raq": 8578,
      "Ġpositions": 8579,
      "Ġthousands": 8580,
      "Ġstructures": 8581,
      "Ġnuclear": 8582,
      "Headers": 8583,
      "Ġhappens": 8584,
      "Ġtrip": 8585,
      "EEEE": 8586,
      "rate": 8587,
      "ENSE": 8588,
      "ĠHon": 8589,
      "ench": 8590,
      "indexOf": 8591,
      "lywood": 8592,
      "ĠColl": 8593,
      "Texture": 8594,
      "Ġdetect": 8595,
      "Execut": 8596,
      "original": 8597,
      "Ġreduced": 8598,
      "Ġtrend": 8599,
      "temp": 8600,
      "player": 8601,
      "Ġtells": 8602,
      "Ġtopic": 8603,
      "avor": 8604,
      "achment": 8605,
      "secut": 8606,
      "cluded": 8607,
      "itan": 8608,
      "ĠSoftware": 8609,
      ")->": 8610,
      "vec": 8611,
      "ogen": 8612,
      "abeth": 8613,
      "Ġfreedom": 8614,
      "ĠDocument": 8615,
      "ĠJackson": 8616,
      ".<": 8617,
      "Ġrain": 8618,
      "ĠMS": 8619,
      "Ġpun": 8620,
      "Mask": 8621,
      "ĠHttp": 8622,
      "$-": 8623,
      "Enter": 8624,
      "Ġmeasures": 8625,
      "Ġnumerous": 8626,
      "leq": 8627,
      "ĠFOR": 8628,
      "Ġautomatically": 8629,
      "Ġaccepted": 8630,
      "ĠBecause": 8631,
      "Look": 8632,
      "Ġdebug": 8633,
      "Two": 8634,
      "Ġstudio": 8635,
      "ĠIrish": 8636,
      "Ġ{{": 8637,
      "DR": 8638,
      "Ġnewsp": 8639,
      "evin": 8640,
      "(@": 8641,
      "ĠFour": 8642,
      "Ġcommission": 8643,
      "Ġenv": 8644,
      "ulty": 8645,
      "Just": 8646,
      "Bean": 8647,
      "orph": 8648,
      "Ġboost": 8649,
      "asm": 8650,
      "ĠEr": 8651,
      "ĠVan": 8652,
      "ĠON": 8653,
      "itage": 8654,
      "ĠDaily": 8655,
      "theta": 8656,
      "LINE": 8657,
      "umes": 8658,
      "ifer": 8659,
      "Language": 8660,
      "ĠWal": 8661,
      "agers": 8662,
      "Ġfinding": 8663,
      "According": 8664,
      "eqref": 8665,
      "ulf": 8666,
      "Services": 8667,
      "Ġsolutions": 8668,
      "Children": 8669,
      "python": 8670,
      "^{-": 8671,
      "oked": 8672,
      "ĠDaniel": 8673,
      "Ġanimals": 8674,
      "Ġsupports": 8675,
      "Ġunion": 8676,
      "ĠBrazil": 8677,
      "ĠĠĠĠĠĠĠĠĠĠĠĠĠĠĠĠĊ": 8678,
      "ĠFI": 8679,
      "ishop": 8680,
      "1986": 8681,
      "Ġstations": 8682,
      "uts": 8683,
      "Ġconcert": 8684,
      "km": 8685,
      "Ġchart": 8686,
      "ĠCollection": 8687,
      "Ġreadonly": 8688,
      "$$": 8689,
      "1987": 8690,
      "Ġalbums": 8691,
      "Ġtsd": 8692,
      "Ġcharset": 8693,
      "Ġprocesses": 8694,
      "Ġfacilities": 8695,
      "Ġ>>>": 8696,
      "oral": 8697,
      "Ġmetal": 8698,
      "letter": 8699,
      "Mer": 8700,
      "Ġforeach": 8701,
      "assembly": 8702,
      "Ġcomfort": 8703,
      "('/": 8704,
      "fast": 8705,
      "ĠGuide": 8706,
      "Ġcombination": 8707,
      "TT": 8708,
      "sys": 8709,
      "LOCK": 8710,
      "IDTH": 8711,
      "Ġmotor": 8712,
      "ĠSouthern": 8713,
      "Ġrelation": 8714,
      "\"\"\"": 8715,
      "Ġanal": 8716,
      "Ġowned": 8717,
      "Dictionary": 8718,
      "ĠOk": 8719,
      "Att": 8720,
      "Ġur": 8721,
      "rawn": 8722,
      "enable": 8723,
      "Ġclients": 8724,
      "async": 8725,
      "Ġretriev": 8726,
      "emit": 8727,
      "ĠEmp": 8728,
      "ĠDemocratic": 8729,
      "Ġagency": 8730,
      "\"],": 8731,
      "Ġguess": 8732,
      "ĠLOG": 8733,
      "wer": 8734,
      "Ġchanging": 8735,
      "ivation": 8736,
      "Ġsurvey": 8737,
      "chestr": 8738,
      "Ġsucceed": 8739,
      "wan": 8740,
      "Import": 8741,
      ".âĢĻ": 8742,
      "Ġresulting": 8743,
      "Bind": 8744,
      "Ġstrings": 8745,
      "ĠSea": 8746,
      "azy": 8747,
      "checkbox": 8748,
      "QU": 8749,
      "iversal": 8750,
      "Ġ..": 8751,
      "Ġdestination": 8752,
      "VALUE": 8753,
      "ickets": 8754,
      "Ġdriving": 8755,
      "()))": 8756,
      "Ġspend": 8757,
      "oting": 8758,
      "testing": 8759,
      "lyn": 8760,
      "nodes": 8761,
      "ĠWalk": 8762,
      "Ġwind": 8763,
      "Ġsport": 8764,
      "Ġchallenges": 8765,
      "ione": 8766,
      "users": 8767,
      "Ġallowing": 8768,
      "je": 8769,
      "inates": 8770,
      "Ġcustomer": 8771,
      "appe": 8772,
      "Ġuniversity": 8773,
      "fx": 8774,
      "Ġtypename": 8775,
      "library": 8776,
      "Ñĭ": 8777,
      "Ġnullptr": 8778,
      "Ġdialog": 8779,
      "ĠCoast": 8780,
      "Ġsale": 8781,
      "flex": 8782,
      "Ġguide": 8783,
      "...</": 8784,
      "helper": 8785,
      "ĠFar": 8786,
      "isms": 8787,
      "Begin": 8788,
      "resources": 8789,
      "Ġtemp": 8790,
      "VE": 8791,
      "onto": 8792,
      "fix": 8793,
      "ĠNav": 8794,
      "Landroid": 8795,
      "umni": 8796,
      "ĠLuc": 8797,
      "clean": 8798,
      "href": 8799,
      "Ġconfirm": 8800,
      "Ġusage": 8801,
      "loader": 8802,
      "ĠCommand": 8803,
      "Ġexecute": 8804,
      "Bound": 8805,
      "Player": 8806,
      "Ġregional": 8807,
      "flag": 8808,
      "Ġemot": 8809,
      "TRY": 8810,
      "Returns": 8811,
      "!\"": 8812,
      "ĠFe": 8813,
      "Ġseat": 8814,
      "pattern": 8815,
      "Ġnp": 8816,
      "Ġauthority": 8817,
      "ultural": 8818,
      "ĠANY": 8819,
      "println": 8820,
      "Ġforest": 8821,
      "iciency": 8822,
      "Ġvalign": 8823,
      "POST": 8824,
      "Install": 8825,
      "Ġ).": 8826,
      "ĠMember": 8827,
      "1984": 8828,
      "Ġisol": 8829,
      "adel": 8830,
      "ĠWin": 8831,
      "ĠMot": 8832,
      "Ġdocumentation": 8833,
      "getElement": 8834,
      "ĠIndust": 8835,
      "Uri": 8836,
      "Ġpoet": 8837,
      "Delegate": 8838,
      "ĠMcC": 8839,
      "Ġherself": 8840,
      "tc": 8841,
      "Short": 8842,
      "ĠPerson": 8843,
      "DateTime": 8844,
      "Ġreceiving": 8845,
      "ĠSource": 8846,
      "Ġloaded": 8847,
      "Notification": 8848,
      "Ġexecution": 8849,
      "issue": 8850,
      "ĠBoth": 8851,
      "ĠRadio": 8852,
      "Ġlistener": 8853,
      "ĠTw": 8854,
      "ĠCEL": 8855,
      "Ġtend": 8856,
      "aka": 8857,
      "ĠLive": 8858,
      "DOCTYPE": 8859,
      "ĠMid": 8860,
      "fd": 8861,
      "ĠAli": 8862,
      "ĠStudies": 8863,
      "Fin": 8864,
      "Framework": 8865,
      "Ġscre": 8866,
      "Generated": 8867,
      "chester": 8868,
      "ĠKen": 8869,
      "Ġposted": 8870,
      "commit": 8871,
      "Ġignore": 8872,
      "ĠSir": 8873,
      "Ġdiscovered": 8874,
      "Ġweather": 8875,
      "Sample": 8876,
      "DEFAULT": 8877,
      "Fragment": 8878,
      "Ġfell": 8879,
      "ĠHor": 8880,
      "ĠLu": 8881,
      "Ġframework": 8882,
      "vin": 8883,
      "Ġdedicated": 8884,
      "ummy": 8885,
      "irds": 8886,
      "Ġscr": 8887,
      "Ġcorner": 8888,
      "![": 8889,
      "ĠGre": 8890,
      "Ġwriters": 8891,
      "awa": 8892,
      "console": 8893,
      "ĠReal": 8894,
      "ĠTaylor": 8895,
      "depth": 8896,
      "Ġdivision": 8897,
      "Ġscroll": 8898,
      "Math": 8899,
      "ELD": 8900,
      "Ġfiction": 8901,
      "ingly": 8902,
      "Ġpurposes": 8903,
      "Ġamazing": 8904,
      ",'": 8905,
      "Ġheaders": 8906,
      "Ġhousing": 8907,
      "Arch": 8908,
      "ĠCommon": 8909,
      "structions": 8910,
      "ockey": 8911,
      "Ġscored": 8912,
      "otten": 8913,
      "Ġriver": 8914,
      "Capt": 8915,
      "Ġtimeout": 8916,
      "chen": 8917,
      "Best": 8918,
      "Ġsamples": 8919,
      "glyph": 8920,
      "Len": 8921,
      "ĠÂ·": 8922,
      "Flag": 8923,
      "ĠArrayList": 8924,
      "Ġtechnical": 8925,
      "Ġdemocr": 8926,
      "pull": 8927,
      "ĠĠĠĠĠĠĠĠĠĠĠĠĠĠĠĠĠĠĠĠĠĠĠĠĠĠĠĠ": 8928,
      "Photo": 8929,
      "socket": 8930,
      "Ġwitness": 8931,
      "Ġtruly": 8932,
      "ĠCivil": 8933,
      "Ġconnections": 8934,
      "Ġtracks": 8935,
      "{%": 8936,
      "Ġbuf": 8937,
      "fc": 8938,
      "lik": 8939,
      "ĠVector": 8940,
      "Ġholding": 8941,
      "Ġhair": 8942,
      "osure": 8943,
      "ĠHarr": 8944,
      "Ġinjury": 8945,
      "Ġproducer": 8946,
      "Ġawarded": 8947,
      "issues": 8948,
      "Ġsinger": 8949,
      "Ġfrag": 8950,
      "Miss": 8951,
      "assandra": 8952,
      "when": 8953,
      "Ġhousehold": 8954,
      "Ġrom": 8955,
      "Ġwatching": 8956,
      "ĠPacific": 8957,
      "agent": 8958,
      "ĠQueen": 8959,
      "Ġtransparent": 8960,
      "ĠNE": 8961,
      "LL": 8962,
      "Ġvertical": 8963,
      "ä»": 8964,
      "Ġnarr": 8965,
      "ÙĦ": 8966,
      "dot": 8967,
      "Ġadvantage": 8968,
      "Ġ];": 8969,
      "Ġzone": 8970,
      "timeout": 8971,
      "proxy": 8972,
      "ifiers": 8973,
      "Ġends": 8974,
      "Ġmagazine": 8975,
      "route": 8976,
      "1985": 8977,
      "cheduler": 8978,
      "EEEEFF": 8979,
      "Ġjourney": 8980,
      "elly": 8981,
      "Ġbegins": 8982,
      "Ġanimation": 8983,
      "Ġdepart": 8984,
      "apes": 8985,
      "!âĢĿ": 8986,
      "Ġenum": 8987,
      "Sim": 8988,
      "ORY": 8989,
      "ĠSpain": 8990,
      "Ġvoc": 8991,
      "Cluster": 8992,
      "pa": 8993,
      "Required": 8994,
      "ĠPH": 8995,
      "bm": 8996,
      "Ġfashion": 8997,
      "ruby": 8998,
      "Ġcouncil": 8999,
      ".\\": 9000,
      "Ġfuel": 9001,
      "ĠAf": 9002,
      "Ġvision": 9003,
      "oviet": 9004,
      "Dependency": 9005,
      "Ġfellow": 9006,
      "Ã£": 9007,
      "ĠRepublican": 9008,
      "Ġtro": 9009,
      "ĠJr": 9010,
      "ĠRom": 9011,
      "Ġadapt": 9012,
      "Ġclaimed": 9013,
      "Ġflight": 9014,
      "Environment": 9015,
      "Interval": 9016,
      "tk": 9017,
      "Ġscheme": 9018,
      "oped": 9019,
      "Ġdance": 9020,
      "sylv": 9021,
      "Ġcircum": 9022,
      "Ġguarant": 9023,
      "ĠTrust": 9024,
      "Ġanaly": 9025,
      "Ġmovies": 9026,
      "CF": 9027,
      "rho": 9028,
      "Î±": 9029,
      "ĠBeach": 9030,
      "MODULE": 9031,
      "called": 9032,
      "Ġprepar": 9033,
      "ĠScotland": 9034,
      "cher": 9035,
      "zy": 9036,
      "à¸": 9037,
      "ĠSQL": 9038,
      "Ġcoverage": 9039,
      "ĠER": 9040,
      "Skip": 9041,
      "Ġthanks": 9042,
      "Ġconfirmed": 9043,
      "udden": 9044,
      "(\"/": 9045,
      "¿½": 9046,
      "Fil": 9047,
      "plates": 9048,
      "ĠALIGN": 9049,
      "Sequence": 9050,
      "Ġfiled": 9051,
      "optional": 9052,
      "ĠBit": 9053,
      "1950": 9054,
      "Ġadvance": 9055,
      "Ġcmd": 9056,
      "Ġguys": 9057,
      "ĠJac": 9058,
      "Ġapplicable": 9059,
      "ĠIII": 9060,
      "Cloud": 9061,
      "Ġcounty": 9062,
      "Ġheat": 9063,
      "Ġton": 9064,
      "inity": 9065,
      "PER": 9066,
      "anes": 9067,
      "Ġ$.": 9068,
      "Ġsupposed": 9069,
      "ĠProfessor": 9070,
      "ipping": 9071,
      "ĠÐ¿": 9072,
      "Ġmarketing": 9073,
      "Ġconflict": 9074,
      "Ġkid": 9075,
      "ĠLight": 9076,
      "EventListener": 9077,
      "Summary": 9078,
      "Wallet": 9079,
      "ogy": 9080,
      "ĠSteve": 9081,
      "Dist": 9082,
      "Ġoffering": 9083,
      "Dem": 9084,
      "ĠRam": 9085,
      "Ġpitch": 9086,
      "Mouse": 9087,
      "edge": 9088,
      "ĠHy": 9089,
      "Day": 9090,
      "Ġmal": 9091,
      "EV": 9092,
      "ĠSIZE": 9093,
      "Ġfeat": 9094,
      "ifndef": 9095,
      "Î¿": 9096,
      "ĠRo": 9097,
      "WORD": 9098,
      "amazon": 9099,
      "ugh": 9100,
      "elines": 9101,
      "dc": 9102,
      "fixed": 9103,
      "Sort": 9104,
      "Forms": 9105,
      "ĠBroad": 9106,
      "Ġinn": 9107,
      "avid": 9108,
      ";\">": 9109,
      "ĠEND": 9110,
      "METH": 9111,
      "Compar": 9112,
      "Ġfacility": 9113,
      "cknow": 9114,
      "ryption": 9115,
      ":`": 9116,
      "Ġalgorithm": 9117,
      "Ġalert": 9118,
      "fortun": 9119,
      "ĠallClasses": 9120,
      "Ġpromise": 9121,
      "Many": 9122,
      "har": 9123,
      "Ġthank": 9124,
      "Ġrapid": 9125,
      "PROJECT": 9126,
      "goto": 9127,
      "etes": 9128,
      "ĠallClassesLink": 9129,
      "Ġhelps": 9130,
      "rev": 9131,
      "Volume": 9132,
      "iliar": 9133,
      "Ġtypically": 9134,
      "Ġ_.": 9135,
      "Ġleads": 9136,
      "Free": 9137,
      "Ign": 9138,
      "enth": 9139,
      "Program": 9140,
      "Second": 9141,
      "ĠValid": 9142,
      "inating": 9143,
      "ran": 9144,
      "apis": 9145,
      "sample": 9146,
      "ĠWIT": 9147,
      "ĠKorea": 9148,
      "ĠMic": 9149,
      "ĠAdv": 9150,
      "Ġconcerns": 9151,
      "acts": 9152,
      "blank": 9153,
      "np": 9154,
      "sylvania": 9155,
      "Vertex": 9156,
      "tar": 9157,
      "Ġconducted": 9158,
      "Ġcrisis": 9159,
      "Ġwhatever": 9160,
      "ĠOriginal": 9161,
      "archy": 9162,
      "since": 9163,
      "Ġflat": 9164,
      "Ġextremely": 9165,
      "ashed": 9166,
      "Ġwarning": 9167,
      "ila": 9168,
      "Ids": 9169,
      "Ġcaught": 9170,
      "ĠNAV": 9171,
      "rical": 9172,
      "Enumer": 9173,
      "æľ": 9174,
      "ĠEgypt": 9175,
      "Ġdistinct": 9176,
      "Ġbelieved": 9177,
      "ĠIraq": 9178,
      "Ġcommitted": 9179,
      "Ġplugin": 9180,
      "STRING": 9181,
      "ANCE": 9182,
      "Ġrect": 9183,
      "Microsoft": 9184,
      "fold": 9185,
      "Ġsand": 9186,
      "Ġancient": 9187,
      "Ġannounce": 9188,
      "Dev": 9189,
      "Ġplants": 9190,
      "ĠKn": 9191,
      "mouse": 9192,
      "ĠCorporation": 9193,
      "ĠUkr": 9194,
      "REG": 9195,
      "ĠWales": 9196,
      "NavBarFont": 9197,
      "operator": 9198,
      "Ġprepared": 9199,
      "ĠSearch": 9200,
      "bitr": 9201,
      "uality": 9202,
      "Ġresolve": 9203,
      "ĠTerm": 9204,
      "During": 9205,
      "Ġdynamic": 9206,
      "Animation": 9207,
      "ĠPri": 9208,
      "ï¿½": 9209,
      "ĠDar": 9210,
      "\\\\\\\\": 9211,
      "iant": 9212,
      "SELECT": 9213,
      "QUE": 9214,
      "sen": 9215,
      "peat": 9216,
      "ÐµÐ½": 9217,
      "sex": 9218,
      "VD": 9219,
      "ĠConf": 9220,
      "ĠBas": 9221,
      "atomic": 9222,
      "Ġpartnership": 9223,
      "keep": 9224,
      "Ġsustain": 9225,
      "Ġgain": 9226,
      "Ġcompr": 9227,
      "Ġlocations": 9228,
      "Where": 9229,
      "Ġille": 9230,
      "burgh": 9231,
      "ĠLittle": 9232,
      "Ġhearing": 9233,
      "Ġkick": 9234,
      "Ġcolon": 9235,
      "PM": 9236,
      "Ġfee": 9237,
      "Pair": 9238,
      "Ġsister": 9239,
      "ĠMichigan": 9240,
      "ĠChange": 9241,
      "%)": 9242,
      "agraph": 9243,
      "Ġsoft": 9244,
      "resolve": 9245,
      "Wait": 9246,
      "roud": 9247,
      "****************************************************************": 9248,
      "construct": 9249,
      "ancell": 9250,
      "#{": 9251,
      "Multi": 9252,
      "ĠToday": 9253,
      "Ġcolumns": 9254,
      "Ġaddresses": 9255,
      "sidebar": 9256,
      "ĠSpring": 9257,
      "Ġappreci": 9258,
      "Ĥ¬": 9259,
      "Ġleaves": 9260,
      "ĠBul": 9261,
      "Ġwinner": 9262,
      "Ġsignificantly": 9263,
      "agger": 9264,
      "Ġscientific": 9265,
      "checked": 9266,
      "rovers": 9267,
      "Ġpermission": 9268,
      "ĠNon": 9269,
      "claim": 9270,
      "ĠEnergy": 9271,
      "pping": 9272,
      "Ġregions": 9273,
      "encing": 9274,
      "Ġreferred": 9275,
      "Ġrequested": 9276,
      "Ġmel": 9277,
      "æĸ": 9278,
      "ĠDonald": 9279,
      "Ġclinical": 9280,
      "Ġassigned": 9281,
      "Ġcontents": 9282,
      "Ġjustice": 9283,
      "Ġshares": 9284,
      "Ġresolution": 9285,
      "Ġclassic": 9286,
      "VALID": 9287,
      "ĠFood": 9288,
      "ĠJersey": 9289,
      "ĠPrime": 9290,
      "Ġadvanced": 9291,
      "ĠSaint": 9292,
      "Ġhaven": 9293,
      "ssl": 9294,
      "Ġadmin": 9295,
      "Ġmatching": 9296,
      "Ġturns": 9297,
      "ourse": 9298,
      "Ġtmp": 9299,
      "Ġauthorities": 9300,
      "ĠPrem": 9301,
      "Ġmodified": 9302,
      "comple": 9303,
      "osc": 9304,
      "ĠIT": 9305,
      "GER": 9306,
      "undefined": 9307,
      "accept": 9308,
      "Ġarrived": 9309,
      "ĠInput": 9310,
      "Ġspring": 9311,
      "Ġprove": 9312,
      "PUT": 9313,
      "Ġcer": 9314,
      "Ġrecip": 9315,
      "Ġmd": 9316,
      "ĠCarl": 9317,
      "zabeth": 9318,
      "ĠBern": 9319,
      "ĠRay": 9320,
      "Ġsounds": 9321,
      "ĠWat": 9322,
      "Ġdefend": 9323,
      "RC": 9324,
      "ĠassertThat": 9325,
      "Ġachieve": 9326,
      "Shape": 9327,
      "ĠStan": 9328,
      "Ġevening": 9329,
      "shop": 9330,
      "ĠBrook": 9331,
      "ilters": 9332,
      "Serv": 9333,
      "ANT": 9334,
      "istant": 9335,
      "Ġpractices": 9336,
      "Ġsaved": 9337,
      "Ġtreated": 9338,
      "MIN": 9339,
      "Ġverify": 9340,
      "ugs": 9341,
      "gov": 9342,
      "aun": 9343,
      "Ġsupporting": 9344,
      "Ġprices": 9345,
      "'];": 9346,
      "bury": 9347,
      "Ġduration": 9348,
      "Save": 9349,
      "twitter": 9350,
      "Ġrecording": 9351,
      "named": 9352,
      "icer": 9353,
      "INTER": 9354,
      "tau": 9355,
      "ĠSus": 9356,
      "ĠHas": 9357,
      "lipse": 9358,
      "Ġpieces": 9359,
      "DP": 9360,
      "ĠFair": 9361,
      "Join": 9362,
      "inf": 9363,
      "catch": 9364,
      "Ġrgba": 9365,
      "Ġven": 9366,
      "Ġdefinitely": 9367,
      "Ġradi": 9368,
      "bro": 9369,
      "Ġcold": 9370,
      "ĠMaster": 9371,
      "Pod": 9372,
      "ears": 9373,
      "ĠSong": 9374,
      "PU": 9375,
      "jd": 9376,
      "METHOD": 9377,
      "Ġtra": 9378,
      "ĠNext": 9379,
      "bold": 9380,
      "Ġmaintain": 9381,
      "Ġroles": 9382,
      "Ġglass": 9383,
      "compile": 9384,
      "Ġslightly": 9385,
      "Ġestimated": 9386,
      "Ġelim": 9387,
      "Ġstopped": 9388,
      "tw": 9389,
      "Ġgender": 9390,
      "}(\\": 9391,
      "warning": 9392,
      "Ġmental": 9393,
      "Ġaffected": 9394,
      "Ġadvent": 9395,
      "ĠKim": 9396,
      "Ġtradition": 9397,
      "Ġadvoc": 9398,
      "bean": 9399,
      "Ġcommittee": 9400,
      "^^": 9401,
      "Ang": 9402,
      "lan": 9403,
      "fty": 9404,
      "merce": 9405,
      "Ġretail": 9406,
      "zip": 9407,
      "Ġalleged": 9408,
      "Ġvehicles": 9409,
      "ĠOS": 9410,
      "NC": 9411,
      "{\"": 9412,
      "Ġloved": 9413,
      "once": 9414,
      "istence": 9415,
      "']['": 9416,
      "Ġcharges": 9417,
      "ĠSelect": 9418,
      "ĠClient": 9419,
      "Ġincred": 9420,
      "Ġlatter": 9421,
      "NV": 9422,
      "Writ": 9423,
      "isa": 9424,
      "Ġimportance": 9425,
      "Ġdebate": 9426,
      "supported": 9427,
      "low": 9428,
      "Ġpurchase": 9429,
      "Ġdoubt": 9430,
      "Ġsubstant": 9431,
      "Ġserving": 9432,
      "download": 9433,
      "isting": 9434,
      "ĠVideo": 9435,
      "Ġdrag": 9436,
      "zure": 9437,
      "Ġfilled": 9438,
      "Ġgrid": 9439,
      "Watch": 9440,
      "ĠMah": 9441,
      "Ġrepresenting": 9442,
      "110": 9443,
      "hab": 9444,
      "DATA": 9445,
      "idential": 9446,
      "condition": 9447,
      "ĠKenn": 9448,
      "Ġcash": 9449,
      "ĠTag": 9450,
      "Ġspan": 9451,
      "Ġexperiences": 9452,
      "Labels": 9453,
      "FE": 9454,
      "ses": 9455,
      "Ġdelivery": 9456,
      "visible": 9457,
      "Ġopts": 9458,
      "outing": 9459,
      "scss": 9460,
      "Ġsouthern": 9461,
      "kwargs": 9462,
      "ĠIss": 9463,
      "Admin": 9464,
      "vo": 9465,
      "Conn": 9466,
      "Ġacademic": 9467,
      "Ġapproved": 9468,
      "ocity": 9469,
      "Ġhelping": 9470,
      "Ġadvice": 9471,
      "ĠWrit": 9472,
      "Ġpossibly": 9473,
      "ĠOx": 9474,
      "release": 9475,
      "Copyright": 9476,
      "Ġelections": 9477,
      "ĠÂ©": 9478,
      "Ġinterests": 9479,
      "Connect": 9480,
      "ĠLear": 9481,
      "blue": 9482,
      "ĠProperty": 9483,
      "Ġcrowd": 9484,
      "amber": 9485,
      "ĠPhys": 9486,
      "imitive": 9487,
      "ORTED": 9488,
      "ĠStatus": 9489,
      "inois": 9490,
      "Ø±": 9491,
      "Ġexplan": 9492,
      "Ġera": 9493,
      "ĠOptional": 9494,
      "Ġcompare": 9495,
      "BB": 9496,
      "ĠSom": 9497,
      "ï¼Į": 9498,
      "Ġguard": 9499,
      "Ġauthors": 9500,
      "stances": 9501,
      "Ġprotest": 9502,
      "getValue": 9503,
      "Ġfort": 9504,
      "Ġmunicip": 9505,
      "UST": 9506,
      "Focus": 9507,
      "ĠMO": 9508,
      "iffer": 9509,
      "folio": 9510,
      "ĠBad": 9511,
      "Endpoint": 9512,
      "Ġcreative": 9513,
      "Ġtwice": 9514,
      "loss": 9515,
      "ryst": 9516,
      "Ġconsumer": 9517,
      "Ġreset": 9518,
      "irror": 9519,
      "oster": 9520,
      "factory": 9521,
      "LY": 9522,
[...]
