#version: 0.2
Ġ Ġ
Ġ t
i n
Ġ a
e r
ĠĠ ĠĠ
h e
o n
r e
a t
Ġt he
e n
o r
Ġ s
a n
e s
i s
i t
a l
Ġ c
Ġ o
a r
Ġ w
e d
Ġ f
in g
i on
Ġ p
n d
Ġ b
i c
Ġ in
l e
o u
Ġo f
a s
Ġ m
Ġa nd
r o
Ġ d
Ġt o
ĠĠ Ġ
ĠĠĠĠ ĠĠĠĠ
en t
Ġ h
e t
c t
s t
i l
e l
Ġt h
o m
a m
Ġ re
Ġ S
Ġ n
Ġ T
i d
Ġ C
â Ģ
o l
Ġ l
Ġ A
u r
a c
Ġ e
at ion
i g
u t
i m
o t
Ġ (
a d
i v
Ġ M
s e
Ġ g
Ġ I
Ġ is
a y
Ġf or
c e
o w
u l
t h
er s
c h
Ġ on
Ġ P
l y
ĠĠĠĠ ĠĠĠ
Ġs t
a g
u n
Ġ B
o d
u s
i f
e m
i r
t er
Ġb e
it h
Ġ v
Ġ =
2 0
a b
u m
Ġ R
Ġ D
p e
at e
Ġ H
es t
is t
Ġth at
Ġa s
Ġ F
a v
Ġw ith
Ġc on
v er
ĉ ĉ
a p
o c
Ġ L
an d
q u
) ;
Ġ W
Ġ N
Ġw h
Ġa l
Ġ <
e w
Ġa n
r i
o p
h t
Ġ {
Ġ G
re s
es s
Ġp ro
Ġ E
= "
Ġ $
Ġ y
Ġ it
a in
- -
âĢ Ļ
ĠT he
or t
ou r
ct ion
Ġw as
o s
er e
il l
it y
en d
Ġ r
ro m
Ġd e
as s
u b
Ġa t
/ /
Ġc om
e x
Ġ \
o re
Ġb y
p t
1 9
am e
< /
ĠĠĠĠĠĠĠĠ ĠĠĠ
Ġ *
k e
ar t
Ġe x
u p
m ent
Ġ "
n t
Ġ J
Ġ O
i es
Ġ or
č Ċ
u e
al l
Ġa re
Ġ he
l d
p l
an t
iv e
Ġs e
Ġf rom
ag e
in e
e ct
t r
u d
o g
ig ht
Ġ âĢ
Ġc l
u re
ac k
Ġth is
i al
Ġ }
p ort
u st
Ġ U
i z
Ġt r
ar d
b er
g e
c l
Ġc h
at h
an s
o v
0 0
r ou
ur n
ul t
av e
Ġs h
p er
f f
Ġw e
i p
el l
a ct
. .
Ġn ot
ar y
ĠĠĠĠĠĠĠĠ ĠĠĠĠĠĠĠĠ
a re
o st
" >
T he
i a
as t
Ġ K
' s
a k
c on
at ed
ou t
ab le
or m
Ġp l
Ġ le
ĠĠĠĠ Ġ
( )
e f
ic h
i re
* *
o k
in d
ĠI n
e ar
e g
or d
on g
ic al
Ġy ou
ex t
20 1
ion s
ic e
id e
or k
c om
in t
Ġ if
ig n
Ġ V
Ġh ave
e p
t urn
as e
ac e
ĠS t
Ġ &
s p
i le
ou ld
Ġh as
Ġ j
im e
Ġ -
Ġcom p
y pe
it e
g et
Ġc an
I n
c c
Ġin t
od e
ĠT h
Ġa b
Ġ us
Ġ '
en ce
an g
Ġh is
er v
i b
Ġ Ċ
an ce
Ġa d
r y
Ġal l
Ġ k
a il
ub l
-- --
th er
_ {
Ġcl ass
ation s
en s
) ,
Ġcon t
Ġ u
s o
st r
ou s
= =
ĠC h
âĢ Ŀ
Ġ un
Ġn ew
on e
i an
at a
it ion
f orm
r a
p ro
he n
ou nt
il d
e v
e c
o b
Ġ im
or y
d u
Ġa r
Ġwh ich
g h
ac h
l i
j ect
en c
Ġa p
) .
ent s
Ġw ill
res s
Ġre s
om e
is h
ĠĠĠĠĠĠĠĠ ĠĠĠĠĠĠĠ
f er
Ġb ut
Ġo ut
l l
Ġthe ir
Ġre turn
p h
on t
ow n
ubl ic
er t
m er
ro w
Ġ up
ar k
ter n
ou nd
Ġd o
u g
f t
oc k
Ġg o
o ok
u al
Ġw ere
Ġ Y
or s
Ġon e
re e
1 0
al ue
Ġ //
Ġal so
Ġ |
re f
Ġ en
20 0
ir st
Ġs c
Ġm e
Ġwh o
in k
a ke
t e
{ \
ic k
Ġd is
Ġthe y
Ġm ore
ot h
Ġ [
: :
un ction
Ġp er
ĠâĢ ľ
Ġp r
ul l
n e
ic t
Ġp art
- >
a u
Ġe v
ol l
r it
el f
S t
o se
s s
am p
Ġm an
cl ud
he d
i ew
ri b
Ġst r
o ol
el y
Ġ @
1 8
at es
ing s
ol d
Ġit s
" ,
Ġt e
in al
Ġa g
Ġs p
p s
c k
et h
Ġh er
Ġp re
Ġs u
Ġ qu
ĠI t
pt ion
a w
Ġ /
w o
Ġw ork
ar am
Ġs o
our ce
er y
ay s
Ġy ear
Ġ< /
i el
ĠH e
f ter
le ct
y st
ĉĉ ĉĉ
w e
Ġh ad
at er
Ġo ver
n g
ĠâĢ ĵ
ig h
iz e
Ġ$ \
m a
pe c
ĠU n
Ġbe en
s c
20 2
Ġ +
er m
Ġab out
Ġg et
en er
E x
i e
Ġf irst
an c
Ġn e
i o
s h
nd er
ic s
is s
ation al
Ġo ther
.. /
Ġ ro
Ġt ime
iel d
pe ct
s et
Ġl i
o ver
p r
Ġde f
p ut
on s
o int
l es
( "
f r
t t
( );
Ġp ublic
Ġre c
y s
l o
yst em
Ġw hen
Ġs et
on d
Ġ .
Ġd es
v el
op le
m ath
Ġpl ay
' ,
Ġp e
Ġof f
Ġcom m
d iv
i x
le ment
1 2
Ġs a
r am
ad e
em ber
re at
Ġint o
v e
T h
Ġs up
m l
i ed
Ġth ere
Ġn ame
Ġt wo
Ġin ter
Ġv ar
ĠA r
Ġth an
c re
Ġo b
r ap
Ġo ur
if ic
er r
Ġas s
Ġf unction
Ġy our
rou nd
Ġan y
tr ing
E R
ol og
Ġ :
Ġw ould
o y
---- ----
Ġin clud
e qu
at ch
i ous
Ġk n
ar ch
} }
e b
a x
ĠC om
Ġ* /
as ed
t y
Ġs ome
ov e
ess age
an ge
Ġad d
n ing
Ġb et
al s
f ig
Ġa cc
Ġthe m
Ġm od
âĢ ĵ
Ġs he
am es
is e
** **
ĠN ew
l and
at ive
sp an
p os
Ġa ct
ar g
^ {
it ies
rou p
w ard
Ġon ly
o id
Ġre g
P ro
> </
ĠTh is
r ay
it ed
Ġf e
or ld
Ġc ol
ap p
Ġb u
1 5
1 6
id ent
le t
I N
ĠP ro
n c
Ġa fter
Ġn o
ul ar
al ly
iv ers
Ġo p
Ġin d
Ġpe ople
n er
en g
O N
em ent
t o
ur re
at ing
l ine
r u
Ġ end
Ġ| |
i ent
rib ut
Ġtr ans
ĠĠĠĠĠĠĠĠ Ġ
Ġs ub
Ġ #
Ġcon s
Ġu nder
um ber
at or
rou gh
ur ing
Ġsa id
t ext
u es
} \
19 9
ĠĠĠĠĠĠĠĠ ĠĠĠĠĠĠĠĠĠĠĠ
ĠS e
Ġin v
u ct
m b
at ic
Ġst ud
Ġpro v
as h
Ġd ata
} $
o ot
an k
Ġli ke
1 1
ke y
ĉĉ ĉ
il ity
m s
th is
ar s
) )
== ==
( '
N ame
re d
mer ic
> <
al e
t he
Ġwh ere
Ġs erv
Ġb l
Ġat t
enc es
Ġa c
Ġp os
u res
it s
u nd
ab el
: //
ow er
ĠA l
Ġb ack
Ġre l
n ame
ĠS h
r ight
oll ow
e ad
an y
ic es
c he
../ ../
Ġf il
Ġd if
Ġm ay
o x
Ġu se
Ġm ost
ou gh
ire ct
Ġre m
e k
o od
t on
Ġ _
an n
Ġl oc
rap h
T ype
Ġre qu
Ġs pec
Ġth rough
il y
a h
Ġpro du
in s
au se
Ġh ow
Ġp ol
R E
Ġres ult
res ent
it t
1 7
c ess
w n
ib le
ĠW e
Ġwh at
Ġp h
Ġc all
con d
ut h
Ġt ype
a ir
p aram
eth od
C h
Ġj ust
Ġbe c
Ġ el
Ġa m
Ġv alue
Ġf l
c ent
Ġ ent
Ġh igh
re ad
ch ool
ĠT r
Ġm y
or n
S T
Ġc o
f ore
t s
Ġe ver
im port
ht ml
v ent
eg in
3 0
C on
as on
we en
if e
d er
re n
Ġsu ch
Ġthe n
( \
i er
1 4
Ġh im
in ce
Ġus ed
.. .
le ction
Ġe m
ist s
re turn
in es
} ,
Ġyear s
al se
m an
A T
Ġb r
Ġsh ow
at ure
Ġthe se
ĠC l
g an
I d
o f
Ġfor m
l ed
d d
ĠA n
s on
Ġf ollow
Ġne ed
C om
ag es
f ul
h ip
is hed
Ġ i
S tring
is ion
1 3
urre nt
C ont
id er
at t
b egin
2 5
Ġl ine
o h
c ol
im es
Ġh ref
as k
ers on
ri pt
f l
Ġbet ween
Ġag ain
Ġg r
Ġw ell
pl ic
ĠA meric
I D
d ay
v iew
ac he
oc i
in ed
b le
Ġs elf
Ġin st
Ġcon st
Ġ !
Ġ Z
iz ed
r al
Ġst art
a z
R es
el s
ĠW h
Ġd ist
ment s
d ef
a ult
oth er
iv er
t d
Ġe ff
t a
m in
Ġ Q
s ource
A R
R ef
tr ans
Ġdif fer
C l
Ġc re
ce ption
Ġc ould
Ġd r
Ġch ar
w w
ivers ity
e y
00 0
ad d
t ain
Ġg ener
p le
m essage
ĠI nd
âĢ ľ
us s
Ġt est
ĠE x
w ay
. âĢĿ
ou se
al th
ut ion
e ver
Ġs ystem
Ġs ign
c al
c ed
Ġs m
p on
Ġsh ould
iv es
ht t
i k
19 8
p ress
Ġl ong
Ġ= >
um ent
Ġn ow
O R
u ch
I t
ers ion
Ġd et
et s
Ġar t
ak ing
form ation
t ype
Ġc ount
A r
_{ \
y le
od y
Ġ ed
er n
r ic
ĠC on
Ġs er
e e
ant s
ĠF or
Ġman y
c ode
Ġbe ing
or th
i ence
Ġs ur
' t
l ation
olog y
t ing
b ack
iv ate
Ġf ound
f o
Ġm in
} {
Ġs im
Ġte am
5 0
Ġf inal
ire d
Ġhe l
) :
Ġr ight
ĠA s
Ġn umber
o le
Ġever y
cl ass
) $
Ġwh ile
Ġv al
E N
Ġm ake
Ġm on
ĠD e
Ġm ed
A L
tern al
Ġsup port
it le
ĠS c
_ _
Ġle ad
re am
Ġn ull
a j
g ram
y p
Ġbe fore
Ġ= =
Ġp oint
. "
Ġe ar
Ġc or
is m
L ist
ĠA nd
vel op
Ġf am
ce pt
or g
ch n
t en
ath er
c es
Ġm ade
Ġde velop
Ġg u
Ġkn ow
v al
u c
Ġe ach
Ġth ree
es c
T r
in ess
ction s
Ġc ent
ĠC ol
ou th
are d
ot e
/ >
Ġex per
b r
Ġc ase
Ġre ad
. ,
Ġd id
Ġd uring
b all
w ork
eng th
b y
Ġl ist
Ġde c
Ġo per
p re
ro ss
et a
s elf
l abel
it al
202 2
v ar
um m
Ġev en
b l
ro l
Ġtr ue
cc ess
fr ac
le ft
2 4
Ġ err
Ġb oth
et er
ĠF r
Ġse e
Ġv oid
# #
Ġbec ause
y m
e le
Ġr un
iv ing
L E
Ġl ast
Ġdo es
g y
Ġl ook
al k
en se
Ġ >
ur y
Ġs ame
Ġ `
ical ly
Ġw orld
b ers
Ġb el
ĠI s
Ġ )
Ġst ate
id th
Ġh and
s er
Ġ est
19 7
is ter
ĠP h
m od
iz ation
iv en
S S
Ref er
e q
Ġw ay
Ġse cond
p ar
" />
ut e
3 2
ĠP l
Ġel se
in a
T o
ar get
y n
Ġo wn
are nt
ĠĠĠĠĠĠĠĠĠĠĠĠĠĠĠĠ ĠĠĠĠĠĠĠĠĠĠĠĠĠĠĠĠ
Ġre p
âĢ ¦
Ġex t
) );
h er
str ing
ion al
Ġc he
ĠM ar
us iness
Ġv ery
Ġre sp
ur al
W h
ĠUn iversity
Ġre le
w h
f or
if ied
Ġa v
Ġd own
if y
ot t
Ġus ing
Ġm ov
W e
amp le
A N
enc y
Ġhel p
Ġdiffer ent
b ject
Ġf alse
, âĢĿ
Ġs ol
ĠB l
u le
Ġd irect
Ġcomm un
per ty
r on
ual ly
ar m
2 2
ain s
Ġap pro
t il
Ġm em
Ġc ar
Ġth ose
ĠR es
Ġdis c
Ġre port
Ġc ap
Ġm ark
ĠY ou
us ic
ĠS he
ro p
Ġg l
Ġf ind
Ġbu ild
ĠâĢ Ķ
Ġ x
Ġw rit
r r
V alue
Ġper form
Ġcont in
n ess
as es
Ġs l
c o
"> <
**** ****
Ġp ass
an e
l oc
ĠP r
iv ed
op t
m ed
ĠR e
am b
Ã ©
Ġg ame
ro ll
iss ion
ĠL e
al ity
ĠCom m
u ild
pl ay
Ġpart ic
I T
g er
ĠAmeric an
Ġinclud ing
m e
Ġe qu
b ar
// //
ĠO n
Ġs ing
Ġc urrent
Ġch ild
ak es
-------- --------
Ġ X
trans lation
Ġb o
Ġpro cess
Ġim p
D ata
o ber
Ġap p
Ġim port
om en
qu e
1 00
ist ory
Ġm uch
s ub
ĠI f
Ġ --
re en
Refer ences
oh n
ĠS p
ĠA d
Ġf ield
av a
erv ice
4 0
Ġin formation
Ġl ink
ot s
Ġgo od
Ġm ain
Ġin cre
l er
le y
d ata
B y
com e
Th is
Ġagain st
at us
2 3
i ev
uth or
Ġop en
con t
" );
Ġp op
Ġw ant
Ġto p
at s
ent ial
S E
A s
ĠĠĠĠĠĠĠĠ ĠĠĠĠĠ
Ġp at
en n
U n
c ite
Ġdes c
ĠE ng
2 1
et y
C T
19 6
Ġv is
u ff
Ġhe ad
Ġh ere
u se
og raph
} )
Ġ id
n ew
Ġrec ord
us h
C ol
ist r
ou nc
le ar
n ot
Ġc are
Ġ/ **
ĠM ay
o ad
Ġf act
it ions
Ġo pt
un e
m p
d ate
b s
v alue
p art
ĠJ an
v en
Ġl ife
202 1
Ġpr ivate
$ .
math b
Ġf r
um n
Ġp erson
i or
ow s
se arch
Ġd on
O n
Ġm ethod
ĠâĢ ĺ
re g
ain ing
Ġstr ing
i um
A n
Ġst ill
u ro
Ġc r
ur s
Ġprov id
Ġa round
Ġs chool
$ ,
end s
f ace
f ile
Ġg roup
g ht
ĠH ow
s ide
ĠB r
ar n
r m
Ġt ake
20 20
ab l
ir d
Ġdes ign
ĠĠĠĠĠĠĠĠĠĠĠĠĠĠĠĠ ĠĠĠĠĠĠĠ
Ġf in
ĠO r
ĠUn ited
Ġp ost
" )
Ġeff ect
Ġn on
et work
equ ation
Ġpro gram
le x
t est
Ġob ject
b e
it em
Ġwe ek
Ġ& &
p x
re ak
, \
Ġb est
Ġs ince
Ġgo ver
Ġf our
Ġre ce
lo ad
Ġap pe
ĠĠĠĠ ĠĠ
} .
D E
u ck
a i
os s
S et
n ment
Ġex pect
2 7
ill ion
Ġc our
Ġfollow ing
a ction
2 6
Ġm et
Ex ception
Ġd el
v ious
t ime
Ġth ink
Ġd ay
F or
ĠB ut
ul ation
Ġ key
ir c
re qu
S h
Ġan n
Ġor der
2 8
str uct
ĠA ll
tern ational
com m
l ess
he ad
in ter
Ġ ke
ra w
Ġev ent
Ġsm all
Ġse ason
it or
Ġst atic
ect ed
] ;
p or
ab ility
umm ary
Ġp res
ac es
Ġb ook
a f
Ġre f
G et
ust om
M E
g r
Ġle vel
ĠU S
ĠC ent
o pe
Ġte chn
O bject
] ,
Ġ! =
rr or
Ġt erm
f ield
ag er
ĠC ount
pl oy
( $
iv ely
Ġs om
a pe
Ġor ig
Ġor gan
ord er
C O
Ġ// /
r ist
Ġpl ace
Ġm ust
p ed
ph a
Ġn ext
Ġloc al
Ġmod el
math cal
d a
ĠA p
==== ====
oc ument
ĠThe y
v ir
b o
âĢ Ķ
fer ence
ĠC ar
Ġpos s
ac y
Ġchar act
re m
un c
oc ial
is ed
I nd
u ary
id d
Ġad v
Ġst and
Ġex pl
ĠN ov
ĠC an
Ġm at
Ġcons ider
. _
Ġre al
Ġp ower
port s
av ing
Ġb usiness
ob al
ĠJ ohn
as ter
ĠA ss
T est
ri es
Ġ z
ail able
Ġp resent
ĠA t
ĠG r
ar ge
th s
ĠS tring
Ġfam ily
Ġg iven
Ġpro ject
ĠJ ul
Ġar g
ĠT e
Ġis s
A C
Ġl aw
ro id
2 9
a ff
ate g
ur ch
g round
he s
in ation
Ġle ft
n b
w it
ĠM an
ang u
g o
en e
our n
ĠB e
Ġh ome
I C
' )
ar i
Ġa ut
Ġkn own
s y
Ġh tt
20 19
ri ption
Ġfil m
201 8
m y
at ely
} (
r ite
ĠW orld
it ial
201 7
() .
ep end
Ġo ld
op y
() );
Ġb ro
ol v
l og
o ff
f ess
Ġse ver
lect ed
Ġ %
um er
ap t
tr act
Ġser ies
Ġd em
Ġinv est
Ġle g
s ize
Ġor g
Ġl ater
3 3
or ies
M od
Ġplay ers
Ġg reat
Ġcomp any
ug g
Ġcall ed
ut il
S e
ĠN ational
Ġs k
er ing
Ġex p
201 6
Ġs ay
Ġt em
oot ball
A l
d is
ĠP ol
Ġb ased
Ġm ult
Ġpro t
w ays
it er
og le
w are
ĠM ed
H e
Ġvar i
nb sp
i am
ic le
L L
aj or
Ġan other
ain ed
Ġoff ic
Ġwith out
R O
ĠTh ere
ition al
ĠO ct
} ^
} _
ĠT o
con om
ou n
] .
Cl ass
Ġwith in
ver t
Ġan al
ord s
Ġp aram
ĠSt ates
201 5
f unction
htt p
ide o
p i
ur ity
Ġstr uct
l ing
l ist
Ġch ang
ord ing
in c
end ed
ent ly
Ġw in
um an
ĠY ork
E rror
6 4
I m
iv al
oc us
al pha
Ġhe alth
ar r
it ive
ward s
ĠA ug
ĠA ust
du ct
6 0
our ces
K ey
~ \
Ġv iew
ic y
if t
Ġt ri
Ġp ar
m ber
Ġs pe
ne y
ĠF eb
Ġ ident
l ink
ore d
al es
ail s
202 3
i ents
Ġm usic
ard s
ĠJan uary
Ġbe h
ĠG u
ĠM in
ag ue
I ON
t op
Ġg row
ĠS chool
Ġf ull
Ġt itle
A P
Ġre t
em s
a it
Ġf ew
Ġf ile
Ġo cc
ific ation
201 4
Ġcon d
a ut
is on
che s
Ġe lement
Ġtr y
ribut e
on y
Ġen g
i ans
19 4
a im
Ġacc ess
Ġn ear
in clud
Ġ et
Ġare a
Ġinter est
ag n
Ġs ize
ĠA pr
Ġsu ccess
el ta
r c
and s
al ign
W ith
b um
Ġun til
" :
Ġde p
vir on
le g
um p
Ġp ort
s ummary
E D
Ġpol it
om an
S c
Ġserv ice
p ace
Ġall ow
R equ
Q u
ur l
p ublic
ou ght
am ed
ww w
uro pe
un g
Ġt yp
Ġav ailable
um e
ur ation
ĠM arch
V iew
R e
ĠC o
Ġt urn
Ġl im
ic a
Ġrequ est
anc es
Ġprodu ct
ight s
ain t
htt ps
Ġth row
pt ember
Ġre search
ĠCount y
i od
8 0
loc ation
Ġal ong
' );
iv ity
[ '
ĠSt ate
Ġrep resent
Ġl a
Ġch ange
ĠN o
Ġcont ent
" ;
g in
A S
Ġgo ing
end ing
ĠG e
ur ther
st and
ce mber
amb da
ĠF l
ĠS outh
itt le
ind ex
19 5
ag ement
Ġde v
ib r
p ath
et ers
sc ript
Ġresult s
il t
Ġpro ble
Ġs ays
Ġlink s
ĠC O
() ,
c er
f e
angu age
le ge
I nt
Ġin s
plic ation
ru ary
" .
ut ure
Ġto o
s erv
Ġt arget
I S
ĠW ar
ap s
$ \
se ction
pec ial
ĠE d
ĠR eg
our s
Ġt ext
ĠC ity
ĠA b
Ġgover nment
Ġpro m
at ures
Ġa ff
P E
col or
il ar
ĠC al
Ġinclud e
ure d
P h
w idth
Ġ/ >
im ate
ĠD r
ĠJ une
ert ain
Ġh app
t able
u f
ĠĠĠĠ Ċ
ĉĉĉĉ ĉ
c ast
ep s
3 5
Ġstud y
Ġw omen
P l
per t
Â ł
u k
ear ch
Ġsever al
Ġle t
U R
il es
Ġde ath
ĠE n
at ors
is ing
i que
b ut
Ġsing le
F ile
Ġcre ate
Ġche ck
is k
Ġ ?
Ġorig inal
ent ion
pon se
Ġdesc rib
Ġ );
N ot
Ġd i
201 3
Ġre ally
Ġsh ort
Ġear ly
Ġre st
Ġl arge
ĠApr il
ater ial
Ġest abl
Ġp ut
) \
Ġmem bers
Ġf ac
Ġb ig
ĠSe ptember
Ġass ert
a us
A dd
ect or
ĠOct ober
T ime
u ed
ĠS up
Ġl ess
ack age
M an
A ll
Ġc ity
on es
am ma
N ew
ict ion
id es
read y
. </
201 2
em pt
d e
Ġe as
Ġcont rol
viron ment
ĠE urope
al f
ĠAug ust
ar ray
Ġm ajor
con st
ĠJul y
Ġl og
Ġd ue
L A
N ode
th ers
ĠDe cember
Ġpl an
ĠCh rist
ra ft
ĠR ep
n av
3 1
press ion
Ġp ath
Ġw ater
Ġerr or
ens ion
Ġe lect
E S
Ġs ong
ĠNov ember
Ġimport ant
O r
Ġm ar
Ġ ,
201 0
3 4
= \
' ]
Ġf ore
ĠFeb ruary
Ġbet ter
A p
Ġchild ren
ĠW ill
se c
Ġv ersion
Ġne ver
Ġst at
E lement
Ġp o
Ġqu est
th ing
Ġme as
ev el
re w
/ *
m u
U T
ĠIn st
Ġw on
Ġf ree
ĠM c
In fo
Ġp ubl
, "
ĠP ar
ol ution
T R
ĠB rit
I s
E vent
in o
"> </
ag s
Ġto t
ĠW ith
il it
Ex ternal
ig ma
201 1
H E
Ġex ample
ĠP art
ou ble
j s
ab ly
D ef
end er
Ġst ory
Ġcon f
Ġal bum
re t
ul es
ĠN orth
it es
s w
A D
9 9
Ġcommun ity
ĠS o
A nd
am ent
ess ion
pl es
eg a
g ress
Requ est
Ġl and
Ġcl os
Ġcount ry
com p
Ġv ol
Ġbl ock
ad a
O T
Ġmark et
ap er
} ;
ag ed
E qu
od es
Ġus er
Ġcharact er
Ġb as
IN G
Ġof fer
ok en
Ġp ay
pro v
Con fig
ist or
eth ing
an a
E n
ic ro
B l
ĠS er
Ġst yle
l ength
ĠC ont
ĠHow ever
Ġ\ \
Ġg ot
i ke
Ġb reak
} ^{
ĠI m
ind ow
str u
ĠG erm
Ġm ight
Ġbec ame
ĠE l
9 0
Ġcomp et
P ath
Ġac ross
pos ed
Ġc ost
Ġ ide
ĠB o
Ġa uthor
st ance
Ġs ocial
id ual
g roup
ith er
Ġc amp
O ver
l ish
Ġcom e
Ġm illion
Ġ Â
Ġf ootball
ĠA g
p ly
Ġ enc
M ap
Ġc ell
b ox
Ġm en
ri ed
/ **
Ġind ust
o in
Ġd ays
Ġas k
re et
Ġal ways
Ġc rit
Ġsp ace
Ġre du
P aram
F ield
ir t
ir l
Ġpre vious
ab or
Ġass oci
I f
Ġme an
Ġh ard
ap i
Ġse c
St ate
Ġh istory
Ġn etwork
3 7
ĠS ystem
() )
ĠAust ral
Ġp ot
Ġspec ial
er ed
at ter
Ġfor mer
Ġc over
Ġw he
Ġen er
ys is
Ġb ase
Ġt imes
3 6
Ġpos ition
o ice
T ext
orm al
_ \
} _{
Ġf ri
r ide
us er
=" ../../
mathb b
h old
ĠO ff
Ġf und
ail ed
Ġs ide
one y
4 5
Ġl arg
Ind ex
Ġr ad
Ġc ustom
ole an
Ġcomp let
ĠM e
Ġal ready
b f
er o
d own
err or
h am
U S
ĠC he
` `
F orm
ro du
Cont ext
Ġg ames
p en
Ġpr act
ĠB y
s k
Ġ/ *
id ence
Ġan t
- \
n ow
ĠG l
ur g
z e
u i
Ġyou ng
ic on
st er
ames pace
p oint
A t
Ġprov ide
mb ol
ĠP res
I G
le te
Ġb ir
m et
l ang
Ġar ray
n ers
ĠR ev
pert ies
op er
S ystem
p m
a e
ph i
E T
ĠR uss
ĠC or
Ġto ok
Ġc ult
at form
Ġtr ad
Ġf ar
v oid
ed er
n ode
Ġdevelop ment
Ġh old
tr a
Ġl ow
Ġ( !
re l
d om
ar ing
ourn al
Ġval ues
as c
! --
Ġadd ress
3 9
Ġrequ ire
0 1
op h
Ġm aking
A M
Ġ} ,
y d
Ġed uc
Ġstud ents
Ġam ong
Ġper iod
3 8
i ef
ther n
ay er
S ervice
Ġpartic ular
Ġc lear
ib ility
n o
ĠW est
b ook
Ġof ten
ĠQ u
Ġex ist
Ġposs ible
' :
um ents
Ġa ir
Ġc al
Ġre view
Ġa ction
Ġro le
ou d
Ġe p
ĠA ct
Ġem ploy
le v
y l
Ġth ings
Ġme et
Ġf ive
Ġwork ing
A G
ĠTh at
og n
Ġgener al
Ġs ource
\ \
Ġbe come
Ġsom ething
Ġdef ault
Ġr ange
Ġl ittle
Ġserv ices
ap ache
200 9
ac ed
op s
h at
ab les
v ers
ac c
Ġke ep
Ġcom b
Ġsign ific
F F
Ġf ocus
Ġm atch
ĠAr t
w ord
Ġexper ience
i ol
amp ions
Ġtr ack
Ġopt ions
ĠCom p
Ġtot al
se mb
Ġle ast
ĠP er
se e
Ġs y
ec ut
ĠB ar
n ect
v es
Ġres pect
u x
Ġw ar
Ġh ouse
Ġpro fess
h o
b ody
Wh at
al t
A tt
Ġph ot
L O
Ġp ast
ill s
ĠG et
ĠW hen
Ġstr ong
on se
Ġd iv
ĠG o
Ġfe el
ip s
//// ////
ak en
Ġli k
et urn
con fig
m ap
ign ed
m d
Ġin div
Ġl ot
ĠA fter
Ġ Ð
pl ate
ne ction
Ġar r
^ {\
Ġto get
B ut
d o
u ation
f rom
Ġab le
ab led
l ambda
Ġin c
C ode
Ġc ode
Ġtoget her
a ul
H ow
g l
Ġd om
Ġh uman
200 8
ri x
Ġrele ased
Ġsim ilar
F rom
7 0
Ġresp onse
Ġab ove
ĠI I
ap an
Ġener gy
b t
ri or
ĠO ne
rou ps
A B
er a
Ġplay ed
Ġ} );
Ġth ird
av el
Ar ray
Ġ{ \
pro t
Ġm ax
Ġacc ount
cl us
Ġ: =
f in
st ate
c d
[ ]
um b
s l
Ġp arent
olog ical
ĠA m
ĠD is
ass ert
Ġa way
id s
res ult
ĠP ark
Ġh aving
Ġh ost
Ġf uture
Ġcont ext
ist ic
Ġcon c
B uild
ip le
res p
ograph y
r ation
ĠĠĠĠĠĠĠĠĠĠĠĠĠĠĠĠ ĠĠĠĠĠĠĠĠĠĠĠ
Res ult
7 5
ĠS ch
e h
Ġa ge
Ġmed ia
Ġob serv
os p
Ġdist ribut
Ġm ember
Ġf lo
Ġin itial
t es
ĠD ep
bl ock
th ough
Ġs ite
im ent
U N
" "
******** ********
Ġpoint s
Ġoffic ial
ĠR ec
em ic
l in
id ed
Ġb ody
Ġe conom
O f
S ize
ĠA fr
n a
Ġbel iev
in put
il le
ing ton
Ġindiv idual
pos ition
ond on
Ġin fl
Ġv ideo
Ġs ix
pon ent
ĠĠ Ċ
Ġcl aim
Ġl ight
ĠH is
ĠD av
Ġ= ==
p ing
ob ject
ĠH igh
Ġl ove
Ġr a
tr ue
' ;
stru ction
re st
Ġt reat
Ġb en
Ġn ational
m ost
ĠK ing
Ġcon fig
ix ed
il ter
Ġdisc uss
Ġf urther
=" +
ĠNew s
Ġcomm on
ĠThe se
ay out
Tr ans
Ġd ocument
id ge
un k
s um
H and
un ity
Ġg en
im al
Ġc ame
= '
Ġt re
Ġex c
Ġc oll
Ġme ans
g ed
Ġj ob
Ġ-- >
it ing
i j
Ġin put
L oc
C E
Ġint eg
ann el
def ine
ill ed
in ary
Ġinv olv
wh ere
Ġev ents
ĠH ouse
re ed
ac hed
Ġsignific ant
Ġc ur
if f
oc r
o ke
P r
Ġm ass
Ġu nd
he l
s m
w ith
ĠI nt
ĠG ener
Ð °
ĠS m
un ch
Ġbuild ing
y ear
al d
ag ing
es e
Ġwe bs
Ġg ive
U p
In ter
s el
Ġhe ld
+ +
T E
Ġrequ ired
Ġrece ived
ĠN ot
ĠCh ar
Com m
Ġl ength
A d
qu ot
Ġpot ential
ĠSt ud
ir m
Ġcare er
Ġperform ance
Ġre fer
row n
an ies
Ġre pl
5 5
le m
r ing
Ġdet erm
It em
l t
Ġse en
Ġinst ance
il ities
Ġatt ack
ĠH ar
Ġpro b
itt ed
ound s
Ġstart ed
uff er
200 7
Ġ_ _
ugg est
an ch
V al
Ġrel ations
i us
Ġcol or
em ents
as ing
I P
ĠD o
Ġob tain
M P
t itle
cre ate
R eg
ĠL ist
Ġsup er
ĠM ark
R ead
6 6
ell ing
Ġto wn
c all
Ġth ough
ott om
Ã ¡
Ġfe ature
i et
Ġ es
Ġo thers
Ġimp lement
Ġc reat
Ġon ce
Ġd est
Ġp age
b eta
Ġshow s
m at
ĠCol lege
Ġt alk
Ġnew s
ĠB ro
ud e
C H
Ġk ind
à ¤
ĠP e
ar row
e ff
v ersion
a ur
Ġind ex
ct or
Ġto day
Ġp ress
Ġ( \
im um
200 6
art ment
Ġs ent
4 8
ad es
Th ere
Ġpro perty
M L
ĠBrit ish
O ut
Ġm aterial
li ent
Ġph ys
Ġt able
Ġn ode
Ġm om
il on
ĠL ondon
Y ou
un ic
Ġl ive
Ġcre ated
ren ch
F r
h ib
esc ription
c le
l im
Ġd one
20 00
U LL
} {\
Ġcour se
Qu ery
ĠM ich
ver age
ounc il
ĠIn ternational
m ark
ĠA ng
Ġgl obal
Ġwh y
Ġexpect ed
Ð ¾
mathb f
S er
Ġm ot
Ġind ic
D e
I L
ĠEng lish
M essage
Ġe ither
ĠH er
s igma
Ġfe atures
is es
N A
am a
Ġcomp ut
o on
EN T
epend ent
l ight
ibr ary
qu ad
Ġwhe ther
b ased
Ġm iss
ĠE m
cont ent
def ault
um mer
includ e
le ase
ig ation
ig ital
Ġact iv
Ġn il
f ord
ĠJ apan
Ġth ought
ĠTr ans
Ġann ounc
Ġr isk
Ġen ough
Ġpr im
m en
t ings
p ose
Ġbe gin
Ġbe gan
4 4
Ġm akes
in fo
Ġint rodu
ĠM y
c hed
ĠPres ident
min istr
ĠInd ia
V ID
ut ions
^{ -
k s
oci ety
Ġb i
i res
ĠS an
Ġunder stand
ĠM on
Ġj ava
Ġ} ;
Ġhtt ps
Ġpubl ished
au gh
Ġh alf
ĠLe ague
sp ace
Ġs it
Ġc ertain
Ġinclud ed
ur b
Ġproble m
al y
se qu
ĠWh at
ĠA ir
Ġvar ious
Ġbu ilt
ampions hip
Ġm essage
C all
idd le
C ount
if ier
D is
ĠV al
ild e
Ġw ent
ĠS ec
at ural
re ate
Ġn amed
ma x
0 9
C C
g t
Ġen vironment
ec ess
## ##
Ġreg ion
Ġcl ose
ĠAmeric a
Ġmon ths
Ġback ground
Ġst op
Ġch all
ĠN e
ĠHe alth
Ġprovid ed
pr int
Ġc ou
Ġs uggest
ĠA c
O S
n es
av es
ic ense
ĠI N
Ġar ch
T able
a el
ic an
Ġprodu ction
Ġa ud
u el
N o
Ġm ove
Ġm ap
n own
re c
Ġwork s
att le
S ee
ĠS w
Ġpartic ip
Ġs at
ĠR ed
L og
Ġv ia
en ed
0 5
Ġab s
E nt
Ġn ight
Ġadd ed
s up
pt ions
ĠĠĠĠĠĠĠĠ ĠĠĠĠ
if orn
med i
Ġplay er
O D
Ġf ood
Ġindust ry
Ġb and
Ġs w
Ġpre d
roll er
ĠS et
ain er
st yle
Ġdif f
ilit ary
Ġhtt p
M A
at ory
b it
Ġt w
Ġc ases
Ġim age
o o
ĠPh il
ĠCl ass
ist ry
st art
y nc
ak er
Ġb it
ar ter
n et
b ase
Ġreport ed
om et
B C
Ġbel ow
b orn
Ġs ure
Ġpop ulation
ar a
Ġe lection
g amma
Ġle arn
p arent
T H
resp ond
Ġwebs ite
Ġadd ition
Ġre d
+ \
ĠWill iam
b or
---------------- ----------------
Ġ( )
ic les
ish ing
Ġdoes n
iforn ia
Ð µ
Ġcl ub
es tern
it ute
Ġcomp anies
ac ing
ft ware
am ples
Ġon line
ĠCent er
ĠC our
pt y
ĠT est
ĠA dd
istr ict
d t
ĠM ore
Ġdid n
Man ager
ĠU p
at ab
Ġresp ons
i ation
A meric
Ġc irc
Ġin ternational
ĠM od
Ġimp act
Mod el
T D
Ġf all
g en
r is
Ġacc ording
Ġy et
ĠD es
200 5
Ġbl ack
; &
Ġre ason
yn am
Ġpat ients
a ign
ĠP at
ĠL a
ĠL aw
E d
anc ial
n ext
ĠS tr
Ġchang es
S ub
oun ter
* }
Ġmon th
g ing
ch iev
ut es
Pro perty
ĠD em
or age
ĠAss oci
val id
du c
6 5
A ss
g es
Ġterm s
S P
ĠIn ter
Ġhow ever
Ġcontin ue
4 9
o res
us ing
Ġeng ine
ce ed
Ġm oney
Ġt aken
ĠBl ack
and om
="../../ ../../
Ġsystem s
Ġappe ar
Ġc y
act ory
pl it
sh ip
j ava
Ġrele ase
ig ure
0 8
ens ive
Ġc aus
Ġp ur
Ġm er
r ho
a id
h and
an el
Ġs rc
Ġb order
Ġvis it
in it
com ing
R ec
Ġd ate
Ġloc ated
C lient
Ġdis play
s q
Ġtechn ology
r t
act ive
it te
Ġper cent
F l
Res ponse
' re
O ff
Ġb ool
ar ning
^ \
Ġr ate
Ġg roups
Ġdescrib ed
ar ies
Ġspec ific
che ck
Ġop port
m ethod
Ġv ill
d elta
m it
Ġhigh er
Ġt ax
the ta
I R
Com p
Ġwrit ten
re ct
Ġ ens
Ġfil ms
Ar g
Ġse ction
Ġf av
Ġcont ribut
Ġcom es
Ġn eg
Ġde al
go ogle
Ġ ...
ĠG roup
> &
c ount
Ġte ach
math rm
Ġben ef
and roid
p ackage
Ġl ate
) }
b ig
U ser
Ġcomp on
O P
Ġare as
a ug
iz ing
Ġtr aining
200 4
ĉĉĉĉ ĉĉ
i ences
I M
Ġth ing
Ġsub ject
Ġannounc ed
Ġgr ad
P re
. )
ĠRep ublic
ĠCal ifornia
ang le
Ġpolit ical
| -
4 7
or ge
G roup
Ġsu ff
Ġent ire
Ġn um
ot o
G ener
Ġde g
con tain
ov ed
ad o
ic o
F A
Ġperson al
Ð ¸
Ġpl atform
Ġto ld
Ġout put
Ġfr ont
Ġro om
ul ated
we b
ĠD ef
Ġde cl
ĠD on
d oc
0 2
Ġestabl ished
un t
Ġg round
Ġb ar
Ġanal ysis
ateg ory
Col or
Ġdist r
ĠS en
ch ange
Ġb ound
Ġl anguage
av y
t ab
m on
in ition
st atic
o e
pecial ly
ĠSt reet
at al
wit ch
Ġl o
n ov
ĠInd ian
Ġto ol
Ġl ower
f alse
Ġa verage
Ġ â
x y
Ġl oss
Ġd en
Ġh om
con text
0 3
0 7
ĠĠĠĠĠĠĠĠ ĠĠ
Ġn ov
oc ol
Ġval id
Ġneed s
ou ch
Ġro ad
Ġst ates
ĠT V
Ġspec ies
ĠI r
ĠS im
ain e
f unc
Over ride
Ġiss ues
Ġse arch
Ġappro ach
.. ..
Ġf ace
E nd
Ġst ep
Ġrec ogn
iv il
ri p
ĠM or
ĠF rom
Ġc ut
Ġc ross
ch an
B e
Ġo ption
opt ions
ew ork
h a
arg in
0 4
Ġac cept
Ġst ation
Ġse par
Ġl ed
Ġdef ined
B ar
Ġpop ular
00 00
n s
ef ore
Ġbr ing
Ġpr int
ank s
Ġe mb
ĠA cc
9 5
b uild
======== ========
S p
Ġcomp lex
anc ed
ĠG over
> (
ĠF rench
Ġb orn
fig ure
Ġst d
Ġconsider ed
i ber
Ġt ell
Ġl abel
ĠN or
Ġcol lection
W hen
Ġim prov
en ing
irt ual
A fter
Ġeff ort
0 6
Ġm or
Ġmod els
t au
Ġquest ion
Ġatt empt
el ine
ĠU K
at ives
P I
Ġassoci ated
Ġam ount
r ad
ĠD istrict
Ġa chiev
Ġt ask
Ġv iol
M ethod
el t
Ġal most
S ource
et t
pl ied
m ember
Ġl oad
use um
A b
and id
opt ion
ic ient
ĠP ort
part ial
Ġd er
osp ital
Ġt aking
Ġsh own
h ood
Build er
un n
Ġin j
Ġ ill
S C
Ġinclud es
ĠCh ina
ĠDep artment
c ss
i ers
d ev
in ated
Ġst atus
pl ace
Ġf ire
Ġr ather
c ial
Ġinst all
at est
ev ent
land s
Ġlook ing
ic ult
Ġs on
Ġact ually
] {
ĠW ork
ch ild
Ġcomm and
ĠS k
ĠF irst
id ay
et ic
St ream
r un
Ġright s
Ġpol icy
Ġh istor
E E
Ġr out
e ction
Ġ$ (
rit er
e ch
em y
5 00
t imes
ell ow
Ġh ours
ist ics
n u
Ġlik ely
Ġinst ead
Ġsuccess ful
en ame
eder al
Ġrec ent
Ġv ot
Ġs old
Ġbeh ind
cent er
Ġw atch
Ġrelations hip
Ġcond itions
ma z
$ -
ĠA nt
em plate
ast ic
Ġcomp os
Ġim m
atab ase
ĠAustral ia
x i
ĠEng land
Ġr ound
led ge
Ġf ail
am s
ĠCan ada
Ġpart y
] )
ĠA N
v is
in n
Ġstand ard
Ġsc he
Ġart icle
ĠDav id
Ġpro te
ro y
ĠCO VID
=" #
g or
ĠRes earch
ĠM r
Ġdistr ict
I V
om b
Ġcent ury
Americ an
Ġmult iple
ic ation
ĠD irect
ĠE ast
air s
Ġe y
Ġqu ick
h as
le q
mod el
Ġbro ad
200 3
Ġap plic
it ect
Ġstruct ure
ĠEurope an
ĠD ay
Ġproduct s
ly ing
d b
ĠH ol
evel op
Ġs ound
Ġlead ers
m ission
ĠN ULL
Ġal ign
Ġsh are
U til
Ġn ecess
bo ard
Ġp rior
8 8
Ġf em
Im age
ĠJ ust
Ġcor respond
C ell
il i
C he
ust er
6 7
cent ury
Ġ( $
Ġman agement
c ore
f ect
Ġeduc ation
wo od
Ġsec urity
Ġw alk
i i
or ing
n amespace
Ġw idth
Ġincre ase
us ed
S tr
Ġinfl u
Ã ³
E m
Ġs ex
ra z
wit ter
row s
e lement
Ġch o
ou l
Ġpres ident
p age
ith ub
ol ar
Ġst ream
Ġf ight
ĠO ut
Ġiss ue
ud d
T oken
; </
ind ows
ache s
ĠC up
itte e
le an
Ġc red
sel ves
Ã Ń
id a
d r
Ġcon tract
semb ly
St atus
O L
w ise
Ġcal c
ot a
k en
Ġv er
Ġrel ated
Ġdo ing
ul ations
ĠC ons
w ide
Ġst aff
Ġhe art
Ġadd itional
s u
D ate
Ġse qu
ac ity
Ġwho le
ON T
d f
c ase
y a
Ġl ost
av en
Ġh on
ĠD i
Ġp ick
Ġcurrent ly
ve y
Ġf ather
in ing
ĠC r
( (
c ell
ĠB er
Ġes pecially
} (\
ag o
p ite
200 1
ĠC ouncil
Ñ Ĥ
ĠM al
am ily
H ead
Ġag o
Ġcan not
Ġp aper
Ġp ers
ot ype
e es
com es
ire ction
Ġep is
Ġst re
Ġt akes
P ol
c urrent
im age
ĠE ar
O ne
itt ing
ele br
Ġbir ths
im ation
ub e
] (
Ġneed ed
Ġwh ite
P e
ĠP al
Ġ< <
li ke
ĠW eb
Ġcomp lete
Ġa ward
Ġserv ed
Ġd ied
Ġcons ist
Ġs ens
In stance
ĠGener al
Ġl iter
y r
Ġfor ward
Ġoff ice
Ġget ting
it ution
pect ed
ash ington
Ġap plication
s im
v ille
iz er
ul a
Ġm id
M S
Ġt our
e ed
Ġprovid es
at ur
ĠO f
requ est
j oy
il m
Ġwork ed
Ġlead ing
a ctions
ĠJ ames
Ġv ict
cl ient
200 2
Ġmeas ure
g ithub
Ġreg ard
ro te
Ġcont act
oy al
C A
Ġreturn ed
Ġc opy
4 6
Ġpol ice
it ch
ĠĠĠĠĠĠĠĠĠĠĠĠĠĠĠĠ Ġ
Ġ Ã
Ġcamp aign
Ġm ind
S up
7 7
ob ile
ĠGerm an
Ġcon duct
ĠTe chn
h ing
ĠB ook
4 2
In put
Ġcent er
lect or
Ġg e
ĠP aul
ĠP re
Ġse em
f ort
E X
Ġw oman
Ġbeh av
l or
ap ter
d ir
Ġout side
Ġmom ent
i qu
H T
Ġfri end
n ull
Ġqu ality
Ġrun ning
Ġcount ries
Ġreg ular
ir it
N ull
h ost
Ġteam s
Ġex press
qu ery
as ons
Ġtyp es
ry pt
Bl ock
n or
Ġg irl
gor ith
AT E
a res
ft y
Ð ½
st ream
Ġin it
ser ver
Ġtr avel
T Y
Ġus ers
Ġits elf
Ġb ox
ĠS ub
Ġb all
Ġb ad
ĠG od
O ptions
Ġd ouble
erv e
ph p
U E
Ġplay ing
ist ance
Ġdis e
Ġw ords
Ġh or
Ġc atch
ĠD iv
i os
Ġmethod s
Ġelement s
D elta
Ġre v
e al
c el
ĠR ober
Ġs us
ang er
raph ics
ver y
}$ .
N S
ĠB est
Ġm ag
b on
ĠR iver
Ġaut om
B ase
Ġte lev
eq ref
Ġdiff icult
ĠD an
U L
ber g
enc ies
ĠTh om
ĠCour t
Ġlim it
Ġprot ected
Ġf requ
Ġre ve
ĠY ear
ec k
8 5
Ġl iving
Ġun ique
}$ ,
so ft
Ġgo al
enc ed
le vel
ĠCh ampionship
om ega
Ġwrit ing
A ct
arg s
| \
R A
k nown
Ġw rite
eq n
ly mp
Ġst age
Ġn ormal
Ġs ym
A cc
Ġsa f
y les
st on
Ġd am
Ġdevelop ed
Ġex ecut
ĠP ublic
ĠG reen
ĠM et
ĠAr ch
Ġhim self
u z
Ġup on
P os
Ġro ck
ĠR ich
ĠB el
ro om
ĠR eturn
er c
Ġmov ed
I I
lo od
L ine
Ġcol umn
Ġe mer
Ã ¼
m ing
ĠĠĠĠĠĠĠĠĠĠĠĠĠĠĠĠ ĠĠĠĠĠĠĠĠĠĠĠĠĠĠĠ
ĠJ ack
Ġde ep
in fty
ĠM art
Ġh ot
Ġh it
O per
uf act
ĠC ap
Ġprodu ced
Ġcom ing
ens ity
Ġconc ern
ol ic
R un
ĠT ex
ri an
ĠR ead
C K
Ġqu ant
ĠE v
Ġsc reen
P art
Ġloc ation
ri ef
Ġtreat ment
Ġgrow th
li er
Ġcap t
Equ al
ĠU s
Ġn atural
Th at
Ġn orth
ĠAssoci ation
al a
im ately
Res ource
ĠS ome
Ġtem per
ĠInst itute
Hand ler
Ġs pect
Ġit em
Ġsim ple
Ġd raw
ribut es
lo at
t ilde
Ġact ive
ul ly
Ġs em
=" ../
Ġcl ient
k r
Ġbo olean
res h
n on
Ġcom ment
ail y
o z
t arget
Ġdisc over
idd en
Ñ Ģ
ant ic
St art
al ed
augh ter
ĠA ward
k a
l ib
' '
Ġm ilitary
ad ata
ĠD ata
Ġfin ancial
ĠS ervice
Ġtelev ision
Ġ ir
Ġ" ""
Ġdec ision
9 7
r ated
F I
ĠH all
id ents
ĠF ound
ĠW ashington
ĠSer ies
fl ow
ĠWh ile
ro s
( {
ĠAn n
Ġdet ails
Ġ- >
Ġcharact ers
Ġv eh
Ġs il
ate gy
Ġst ay
Ġr ace
ĠS ing
erv ices
Att ribute
he ight
m m
ĠP ost
c ing
Cont ent
add ing
Ġparam eters
Ġstud ies
) (
cre t
an i
Ġmat ter
t x
v est
Ġpos itive
Ġev al
Ġd rop
St yle
Ġbeliev e
Ġdirect or
Ġ+ =
Ġlevel s
ĠPart y
Ġwho se
u ate
Ġthrough out
sy ch
ĉ Ċ
Ch ar
ĠRev iew
6 8
g ener
Ġso on
Ġj o
Ġbo ard
Ġdesign ed
ĠCh urch
Ġmod ern
ars er
app ing
Ġle arning
ial og
y ing
Ġw or
B A
ĠO F
Ġeffect s
Ġup d
eb ug
) {
ock et
$ $
but ton
ĠO ur
pt r
Ġlong er
Ġup date
iz es
Ġcon struct
ĠIn c
Ġpro perties
ul ate
ĠThe n
Ġw rote
ĠS l
ug in
Ġask ed
Ġide a
Ġand roid
D r
ill ing
c m
Ġre ach
D O
T O
id get
b and
ag on
Ġt en
Ġen joy
Ġs aw
ch ar
u ge
p ri
m ar
od ing
Ġan g
ĠC E
p ost
P oint
Ġl ines
i ant
app end
) </
Ġhe ight
Ġp ain
Ġres ource
U s
Ġc andid
Ġde part
Ġthrow s
ĠA re
is f
Ġad ministr
ĠJ er
< !--
ĠSc ience
Ġin ternal
ri al
Ġ ess
Ġt im
Ġinvolv ed
Ġ q
Ġfor ce
Ġpre vent
Ġpro gress
ĠM usic
Ġprofess ional
ĠV ol
it ar
Ġdistribut ion
Ġs outh
Ġp ack
p y
F actory
ĠB en
ĠO bject
S o
ĠM ac
ĠFr ance
ĠDem ocr
4 1
w in
Ġb re
rou ght
Ġac qu
c an
ĠI D
Ġw ait
ed d
str act
Ġan sw
ĠQ ue
9 8
5 8
Ġg re
ĠWh ite
Com ponent
Ġdev ice
on a
N ext
Ġre comm
Ġm other
Ġj ud
en a
B uffer
199 9
Ġso ftware
Ġus es
Ġmin utes
ĠP ress
f irst
un s
ĠM at
ĠL eg
Ġev idence
ĠAng el
he t
Ġsol ution
Ġd im
c apt
Ġcour t
l ock
F unction
\ ,
Ġn ames
5 7
and er
h i
Ġchall eng
L ink
h an
ines e
ra el
4 3
ad ian
ĠFr anc
yp es
qu are
ĠN ow
Ġappro x
l a
dis play
in ate
Ġim medi
ou thern
ĠGe orge
o ch
E L
ĠF in
act er
ĠY our
ar ily
Pro v
il ies
row ser
Ġqu al
Ġbook s
Ġcont ains
ĠM ag
Ġevery thing
Ġallow ed
r l
Ġw ord
aug ht
ir us
Ġdem on
ĠAfr ica
ĠĠĠĠĠĠĠĠ ĠĠĠĠĠĠ
G r
Def ault
ĠC ong
Ġparam eter
Ġw indow
ent al
Ġs ense
ru pt
iz ations
Ġproble ms
Ġd igital
ĠMich ael
N av
op en
head er
Ġnot hing
A ction
ol ve
Ġpart s
ĠS am
Ġst ar
j ust
ĠD el
L abel
ĠR ef
ang ed
in i
Ġfollow s
Ġany thing
M ed
ĠComp any
V ersion
mer cial
S he
Che ck
for ce
Ġp ark
est ival
Ġtrans fer
ĠTex as
ach ine
P C
P ost
oc al
ĠR oad
Ġread ing
ic ial
F irst
Ġc ast
ed s
str ong
tern et
Ġoper ation
Tr ue
Ġpl ant
Ġcond ition
i as
ĠC am
bt n
V ER
Ġrec ently
Ġthem selves
s i
ol f
Ġcult ure
ĠGo ogle
Ġ{ @
Ġvill age
Ġbe aut
ĠL ou
j son
ĠD ec
Ġc elebr
Ġsh ip
a ud
ĠO ver
P er
se y
Ġprob ably
* /
Ġp urch
[ "
Ġleg al
Ġf un
Ġis n
m iss
Ġtry ing
ĠO pen
Ġqu ite
con s
Ġdel iver
Ġfunction s
Ġne igh
Ġprom ot
H el
end if
u id
Ġex act
Ġun it
ult ure
ur t
Ġf ast
Ġ čĊ
Ġme chan
ar io
ĠM em
Ġcon v
ie ce
ĠPro gram
ĠH am
ore m
Equ als
in st
Ġs n
U M
Ġchang ed
p ush
Ġsc ale
Ġse ems
id ing
Ġm agn
Ġwant ed
g n
r d
ĠM ary
an ia
Ġfl ow
~ ~
en ge
Ġin side
ip al
ens ions
Ġg ave
all s
Ġsome one
Ġcomp ared
fin ished
im ated
ind ing
Ġdirect ly
m ore
Ġw ays
5 6
Ġse lected
Ġh ope
Ġm ale
ĠS y
ĠM ont
ĠT om
Ġwe b
Ġweek s
Ap p
is ions
j av
Ġnov el
Ġm us
199 0
9 6
z er
Ġfri ends
duc ation
eg er
p ack
Ġmain tain
Ġpart ners
Ġg as
ree k
Ch ild
ĠG old
}} \
w rite
Ġm ention
c i
m itted
Ġmult i
T P
W eb
Ġmed ical
Ġsur face
ĠT ime
p o
RE F
Ġeas y
Ġto wards
Ġcon nection
ĠR em
l ast
u a
Ġth reat
om a
Ġform at
Ġpre c
// /
ĠM us
Ġdep end
Ġv ers
ict ed
ĠA lex
B ack
x ml
ps i
Ġres ources
Ġch arg
k i
Ġc ause
Ġschool s
ri a
Ñ ģ
ĠS al
ĠN one
T ask
ig ger
ĠT HE
ber t
R ep
Ġpract ice
Ġl atest
N umber
Ġj oin
' m
C an
pro perty
Ġinter view
Ġprim ary
Ġl ives
Ġsh all
Ġn umer
Ġcontin ued
he st
P age
Ġconst ant
Ġoper ations
C L
Ġst ore
Ġcon nect
Ġall ows
Ġpat tern
ĠB ay
Ġcon tr
M em
tt y
Ġw ife
} [
Ġsur v
Ġpr ice
Ġincre ased
Ġcom pl
Ġde ad
Ġv irtual
icro soft
Ġapp oint
ĠGerm any
f it
Ġav oid
ĠAc ad
Ġex cept
ĠTr ump
Ġin f
gr ad
f oot
evelop ment
LA SS
D esc
Ex t
Ġfield s
n ected
st atus
Ġst e
r ong
l ong
Ġstud io
Ġoff ers
ĠR ob
Ġreg ister
d ep
Ġperform ed
ĠO lymp
Ġmov ie
Ġh ous
Ġdr ug
ĠB usiness
ify ing
T ER
anc y
cd ot
mod ule
Ġco ach
Ġv ert
Ġinvest ig
Ġv acc
Ġtrans form
G e
b a
Ġexp and
ill er
ab s
ict ure
Ġquest ions
Ġus ually
erv ed
199 8
Ġlarg est
ĠI S
Ð¾ Ð
ĠM iss
G L
ĠM ount
Ġprot ect
Ġcontin u
Ġre li
Ġtrans port
ĠS ociety
Ġsc ient
ak ers
ir ing
Ġre ference
Ġevery one
Ġmod ule
it ude
AB LE
p at
d raw
ĠIs land
Ġl ack
ĠJ ournal
ĠV ir
Ġestabl ish
Ġens ure
loc al
ĠA tt
ĠCl ub
ĠE X
ous ly
Ġfollow ed
L ast
M ar
C P
d et
ĠM ex
z a
Ġman ufact
ĠF ore
I O
Ġent ry
L oad
Ġdeg ree
e in
in ner
p p
ĠM ad
5 9
f ind
Ġcomplet ed
Ġspec ified
ĠĠĠĠĠĠĠĠ Ċ
Ġset t
H istory
ver se
eqn array
Ġpass ed
s g
Ã ¶
ĠSe e
Pe ople
re ement
Ġcon struction
Ġa w
Ġe ight
M et
l en
Ġser ver
Ġnum bers
C reate
Ġpr inc
Ġ( (
m as
} );
Ġs ort
Ġdemon str
D o
Ġthe ory
Ġactiv ities
Ġcent ral
Ġqu arter
ĠF orm
' ve
Ġsim ply
Ġcor rect
p ng
C D
Ġre str
c y
Ġa im
M y
Ġde but
ask et
A A
Ġass um
ĠG reat
ip p
ĠUn ion
ev e
Ġ ]
Ġ row
an o
d l
Ġfav or
Ġincre asing
Ġstud ent
pro ve
st ant
Ġst ories
rib e
T op
F ilter
ig er
capt ion
Ġknow ledge
Ġmeet ing
m ult
Ġm ode
ele te
ĠRuss ian
Ġs en
ond er
Ġcap ital
ag ram
Ġin sp
at tr
Ġdeath s
nc y
Ġlim ited
//////// ////////
ĠR E
Ġn or
ĠE nd
ĠAr my
Ġsc ience
7 8
al let
Ġs ports
ter m
S pec
Ġg raph
Ġreturn s
Ġopen ed
Ġb ank
Ġm is
Ġm argin
ĠS ur
Ġarch itect
ram ework
u nder
ed y
Ġstart ing
c it
Ġg ives
Ġext ends
ex p
Ġab ility
L e
un finished
Ġc ard
" ]
ick et
ĠL et
m ega
Ġal though
ĠH ere
Ġr andom
Ġde b
Ġrece ive
Ġj ournal
_ .
Ġcol lect
s rc
Ġc ook
ĠSm ith
eps ilon
Ġth us
P S
so le
Ġeconom ic
Ġv s
Ġnecess ary
ic i
ĠPro v
and emic
ot al
b ottom
R I
ĠCar ol
Ġsupport ed
F L
ĠR ad
Ġear lier
s pec
pr ivate
" ).
Ġpre p
Ġal tern
u it
Ġwe ight
B S
)$ .
Ġse ek
Ġm ount
Ġdise ase
Ġ url
T S
F ONT
Ġr ank
Ġc am
Ġproject s
Ġcon cept
m em
p ol
Ġd oc
Ġeffect ive
Ġstat ement
al ian
Ġjo ined
al ing
Ġmar ried
Ġpl aces
ĠFl or
c over
form at
Ġr at
Ġcoll abor
5 1
N O
ust ain
Ġact ivity
p ass
Ġr ules
Ġle ave
por ary
s ervice
Ġex tra
at ively
ĠCh inese
Ġphys ical
ĠSup er
Ġbr and
C o
f ont
ob j
ĠĠĠĠĠĠĠĠ ĠĠĠĠĊ
Ġn one
ist an
w ell
ref ix
Ġn av
Ġsol id
L et
B U
Ġbu ff
is ation
ĠL ife
" ),
Ġn ature
$ {
Ġd ark
ĠD et
gorith m
Ġh um
ĠK e
5 2
Form at
Ġf a
ĠCent ral
ig r
A ut
ful ly
ĠPl ay
Ġpro p
om s
Ġfinal ly
sq rt
ov ers
ĠS und
ens or
Ġfil es
at as
C ON
g g
( &
H O
S ON
3 00
Ġcl in
Ġse ven
ĠH istory
5 4
. ;
ĠB ig
Ġse lect
8 6
R eturn
Ġsign ed
Ġsong s
Ġind ependent
Ġd ynam
ace book
Ġclos ed
F O
Ġb rought
Ġorgan ization
st d
Ġro ot
Ġass ess
tt p
ĠA v
c os
ĠR oman
ĠC amp
f inal
Ġsc en
sy mbol
Ġst ri
Ġex pression
Ġim ages
ig inal
E ng
p c
im g
Ġsat isf
Ġpl ans
ĠH el
Ġobtain ed
ĠBo ard
Ġcomp ar
ic ate
ĠR el
se lect
Ġper fect
} _{\
F C
Ġh y
AT ION
az ine
Ġget s
Ġsaf ety
ess ages
if act
Ġm icro
contain er
at re
Comm and
Ġlarg er
Ġtr ade
U I
Ġfam ilies
he nt
men u
il er
Ġf ailed
Col lection
Ġet c
plic it
Ġstre ng
Ġw orth
Ġd ram
ĠU kr
ĠComm ission
ef ined
ĠIs rael
ĠO ther
re me
S I
Ġanal y
Ġaut o
R em
Ġrel ig
> >
Ġt ree
b urg
199 7
ĠDirect or
Ġbir th
199 6
ĠRober t
v ed
Ġcell s
Ġset ting
ĠSc ott
ick s
m t
Ġo w
prot otype
T ag
Ġmean ing
eth er
Ġrem ain
Ġpresent ed
Ġgo es
an ish
nav bar
Ġexist ing
Ġprogram s
ic ine
ĠChrist ian
ar p
Ġpro posed
Ġequ ip
pl ies
ĠS ince
ĠM useum
M e
Ġc lean
S ec
Ġset s
Ġprevious ly
it ation
Ġex hib
Ġch urch
Ġspe ed
Off set
b m
Ġatt ention
Ġparent s
W ork
ĠR oyal
Ġdiffer ence
ĠT or
ĠGr and
d escription
ron ic
ain ts
Ġcall back
ĠO b
Ġwrit er
ĠThom as
T I
D A
U P
c r
vent ion
Ġw ide
Ġ ;
ĠB i
b our
u ated
Ġg old
L ength
P ar
G o
il ed
Ġsh ot
ĠAfr ican
d im
n umber
7 6
ell ig
ĠG ames
198 0
Ġbegin ning
ig hest
iver se
Ġrad io
Ġmem ory
ĠA ut
Ġsay ing
^ *
f ilter
P O
V is
ĠH ill
ĠRuss ia
text bf
Ġh ol
ĠT ur
un it
Ġbu y
5 3
Ġopport unity
ch i
Ġappe ared
clus ion
Ġsom et
h ouse
Ġinter face
ĠMin ister
os ph
ĠSt ar
ann ed
ro ad
ig en
UR L
ĠJ ew
ĠAustral ian
' ll
cl ose
ict or
Ġs end
B ig
res ponse
ic ated
ĠB ill
Ġpre m
g u
ĠT re
ĠT own
Ġ! ==
n ed
ĠDiv ision
pro ject
Ġb us
Ġrem ains
ĠE conom
S y
ĠD uring
ic ago
ant a
ĠL og
sub section
Ġt ag
Ġsh oot
v ant
k y
o om
Ġdem and
Ġsh ared
os h
Ġs ummer
Add ress
Ġepis ode
ĠR ock
out put
Ġdef e
Ġr ail
ib ly
b reak
ĠT ype
Ġt er
ĠPro ject
os ing
ens us
Ġg reen
it iz
m eta
Ġnot e
Ġcl imate
Ġass ist
Ġem ail
Ġd irection
as tr
Ġtrad itional
ad y
Ġlead er
it a
ĠGover nment
O mega
ch o
P RO
Ġover all
Ġcons um
Ġdec ided
Ġc ivil
C R
ĠFranc is
ex pected
b old
Ġrecord ed
Ġex am
Ġacc ur
Ġd ed
Ġf oot
M in
ĠW il
ĠC D
on ly
Ġim prove
Ġit ems
ĠF e
Out put
ĠOff ice
Ġapp ly
is l
Ġpolit ic
ĠH en
Ġcustom ers
Ġrespect ively
ĠB uild
Ġnear ly
ent ry
Ġ ign
erm an
Ġcrit ical
Val id
Ġm iddle
Ġsc ore
P R
Ġb ur
and a
ing er
Ġser ious
Ġquick ly
Ġm ix
ra it
und le
Ġrec over
wh ich
Ġph ase
Ġd aughter
ĠFr ank
TY PE
Ġwork ers
iv acy
uct ure
a o
r or
Ġdist ance
ĠB ank
Ġs ources
F T
ĠFound ation
ĠE ducation
8 9
ĠM er
g ment
Ġparticular ly
ec ause
D et
Ġresp ond
B ox
in ct
ĠW omen
urs day
Ġk illed
Ġcompon ent
Ġro b
Ġintrodu ced
ĠO per
Ġsl ow
sm all
Ġant i
pro cess
7 9
ĠCong ress
ĠU nder
C ache
ĠM ost
Ġf ully
t hen
Ġbas is
Ġb illion
Ġs ession
199 5
Ġsur pr
Ã ¤
B r
Cont roller
ĠT op
rem ove
al le
ĠM el
ĠW estern
n um
m ain
Ġr ap
Ġart ist
Ġent er
L iving
m es
Ġch annel
h aps
up date
M ode
ill a
Ġreport s
Ġf ans
ĠL icense
! !
Col umn
ĠVir gin
ĠV er
Ġexper iment
Ġact ual
Ġr ule
param s
ic ens
Ġl ock
n ce
ER R
Ġin nov
Ġse lection
G amma
^{ (
Ġt ouch
anc ing
th let
M ark
Ġch oice
Ġfem ale
Ġor d
l am
ĠL os
ent y
Ġrem ove
b ed
D ec
hed ul
E l
Ġcou ple
Ġtrans l
Ġsol utions
Ġcommun ities
we et
Ġcom mercial
sh ire
Ġfil ter
Ġturn ed
r s
c or
Ġmov ement
ĠJ ose
ig an
Ġ` `
ĠH T
c irc
olog ies
ps ilon
sc he
os is
asket ball
P A
le ep
if ul
Ġhand le
ĠL ong
i ance
Ġp andemic
Ġobject s
m ical
} =
r angle
Ġp en
ĠL ake
ĠT imes
ĠFlor ida
or ial
N E
' ).
Ġn om
Ġbe y
Ġf air
ĠS ervices
ang es
Ġf arm
q l
Ġart ists
un ities
ĠD ev
)$ ,
ed nes
ĠComm ittee
ĠD E
Ġsp ent
od ay
us ion
Ġ$ {\
am ing
Ġp ull
ĠM o
on ic
ĠPl an
8 7
4 00
t ag
d en
Ġbey ond
âĢ ĺ
Ġre pe
old er
âĢĿ .
IN E
S A
ER T
Ġrun s
k it
Ġhigh ly
ĠS ocial
Ġt it
Ġindividual s
ĠUS A
a uthor
in stance
Ġw rong
F e
ĠS T
List ener
Ġb al
Ġsit uation
C ase
Ġ[ ]
Ġfe ed
at in
Ġcol lege
et te
asc ript
Ġla unch
ĠJapan ese
ĠG en
199 4
Ġdr ive
re y
B O
Ġed itor
if orm
ven ue
Ġgr and
a a
Ġequ al
ĠK ore
f iles
li ament
6 9
M ax
Ġsomet imes
Ġse cret
Ġun s
es ter
ark s
ĠCan adian
Ġs al
ĠH REF
or a
Ġfor ces
ĠâĢ ¦
A ccess
ul f
ĠFr iday
ul y
Ġgre ater
v are
Ġh ospital
197 0
Ġf it
Ġhand s
Ġapplic ations
ĠLou is
d ec
Ġun its
M ore
Ġqu ery
Ġtemper ature
ri z
unc hed
re land
Ġ esc
ĠD evelopment
ell a
ond ay
ĠCh ild
w est
Ġv oice
ednes day
U rl
ict ions
Ġm ur
ĠT witter
AR T
Ġh ighest
ev en
or ph
l s
Ġbehav ior
Ġs ales
ĠEng ine
y an
Ġdesc ription
g ate
c are
Ġf ont
ĠMed ia
atur day
P ort
Ġ util
M D
Ġth r
Ġinterest ing
Ġman ager
Ġh ar
ann ot
ĠC LASS
Ġgr ant
M O
ĠG ood
Ġf elt
ĠPe ople
on om
ĠH ome
ĠS il
it able
ĠF acebook
ĠP eter
t ool
B o
Ġon es
M en
Ġco ord
sc ale
Ġany one
Ġob j
er ry
Ser ver
Ġpre tty
Prov ider
S che
Ġw ild
Ġfin ished
R el
az z
g est
Ġex ception
Ġl if
y th
Ġro ll
Ġprovid ing
}^ {\
R ow
ĠSund ay
D I
Ġvari ety
oc ation
Ġre ached
Ġsy mbol
ã ģ
ĠM ass
ol a
Ġp le
it ors
Ġsc ene
u int
7 2
Ġg iving
< ?
Ġrecord s
Ġopen ing
K E
But ton
Ġobserv ed
sh ow
cl os
Ġelect ric
el se
Ġh op
return s
Ġin form
Up date
oun ce
S l
Ġc op
ec ution
++ )
we ight
ĠHe ad
du ction
P at
Ġ( "
ĠT our
O ur
OR T
it ory
Ġmat rix
p ers
tr ack
maz on
Ġbe g
ĠAngel es
ĠZ eal
Ġsp read
? âĢĿ
Ġbe comes
Ġenc our
Ġmax imum
fl ict
ĠPro fess
und red
g ent
port ed
pre t
ĠC ath
b ur
Ġb lood
Ġmiss ing
Ent ry
Ġz ero
) =
199 2
o oth
D ev
A V
ĠTe am
ri er
Ġshow ed
set s
rel ated
T ypes
Ġs ave
t ask
im inal
ĠT im
ĠĠĠĠĠĠĠĠĠĠĠĠĠĠĠĠ ĠĠĠĠĠĠĠĠĠĠĠĠĠĠĠĠĠĠĠ
Ġf irm
**************** ****************
Ġfact or
ĠF ile
Ġo il
O b
Ġpro per
Ġl en
E nc
Ġcost s
Ġp air
ĉĉĉĉ ĉĉĉĉ
Ġan c
Cont ainer
ĠB rown
. }
Ġf ederal
ĠN etwork
yd ro
W idth
Ġthere fore
) ]
Ġcompet ition
ef t
ĠF inal
erv ation
( _
Ġdef ine
Ġoper ator
Ġed ge
ĠZeal and
Ġle ague
Ġd ou
Ġess ential
ĠAcad emy
Ġpress ure
ĠAcc ording
ĠChe ck
ĉ ĠĠĠ
Ġgrow ing
G B
s pect
Ġfr ame
ĠB ur
Ġother wise
c ap
Ġs ample
H ome
S im
og g
ĠF ig
he et
ĠRich ard
ish er
Ġs ch
Ġtr ust
Ġcall s
f ree
NA ME
Ġ\ ,
ĠB re
col umn
Ġeffort s
ĠS pr
Ġmov ing
Ġu int
D B
g reg
ĠT wo
C S
6 3
l ayout
Ġad apt
ĠCh icago
T arget
ap ers
ĠAt l
Ġm ission
Ġqu e
ĠL and
ud get
ĠI ll
ĠV is
ri end
ur ance
ĠA PI
Ġc ounter
ab ilities
os en
Ġ Î
Ġn ation
ĠF ilm
ĠSh ow
Ġem pty
Ġc ert
ult s
Ġcont ain
Ġvol ume
ind er
or ter
ad ow
Ġimmedi ately
Ġann ual
opy right
Ġtest ing
ĠTh ursday
Ġsa fe
av er
Ġpo or
199 3
AL L
Ġp m
Ġwas n
CO L
ĠAN D
Ġcan cer
Ġinit i
art s
i en
Ġs witch
h r
ĠS ol
Ġcreat ing
Ġform ed
R L
Param eter
ĠN OT
s ite
Ġstr ateg
hen s
ĠChar les
Wh ile
D on
Ġn et
Ġgo als
Ġv ote
Ġm aster
Ġd ensity
M M
est s
ĠO p
Ġlook s
ĠSt ep
as y
Ġsur round
ĠâĢ ¢
el er
ĠS E
Ġp lease
Ġcomput er
sc ope
ĠMan agement
comm on
D F
T V
ĠP M
ab it
Ġrem ember
at o
ĠAr ts
Ġa uth
em ph
Config uration
Ġm ut
Ġtrans ition
off set
Ġabs ol
it z
Ġ< !--
ple te
af e
Ġappro pri
Ġs ites
ĠM il
Ġcar ry
Ġpres ence
ourn ament
Ġpur pose
8 4
Ġcomplet ely
Ġread y
right arrow
Ġappe ars
Ġchar ge
Ġfor ms
Ġarg s
Ġp oll
Ġap plied
: "
al ysis
ĠKing dom
9 1
`` `
rom e
Ġ ~
ac ement
Ġaff ect
ot ic
Ġcorrespond ing
Ġpl ays
w rap
ĠM ur
r ate
W rite
c s
Ġcaus ed
back ground
Pro cess
L ayout
Ġarg ument
sh ould
6 2
Ġ eth
Ġc ore
ĠGl obal
Loc ation
m atch
Ġst ated
vare psilon
D irect
b ool
ĠK n
9 4
Ġpart ner
ĠS un
in y
ĠO h
Ġstr ategy
t emplate
Ġsh ape
re es
Ġprodu ce
ĠReturn s
Ġold er
ĠM ov
eg raphics
Ġeas ily
Ġtr ain
includ egraphics
ĠTechn ology
ues day
6 1
in em
pro of
Ġdest roy
ĠN ame
Ġmaterial s
Ġcap acity
l anguage
Util s
ript or
jav ascript
ĠG ame
ĠG al
Ġpl aced
O p
ĠH ot
or por
ans ion
ĠSe ction
Ġch ance
9 3
ĠWe ek
Ġpre fer
ĠW ell
Ġim ag
Ġdirect ed
ĠP et
ĠPar is
m ut
G l
Ġr ates
av ed
roll ed
Ġrel ative
Ġgener ally
ĠIt alian
ay ers
Ġemploy ees
} ).
U B
s ort
par se
irc raft
r um
Ġre nder
C ons
ĠD en
. ~\
ĠGe org
AN D
R ev
l v
ig ration
od ed
et ch
Ġc ru
as ion
[ \
du le
ĠAss ert
Ġs ociety
Ġro t
Ġgener ated
b i
() ->
empt y
C ar
Ġph one
T e
Ġtool s
Ġw ood
D escription
| |
Ġpro ced
s f
ĠO R
Fr ame
ĠJ un
8 2
Ġac ad
Ġredu ce
ĠU N
c a
Ġn uc
ro ot
ĠMark et
ĠF ield
S O
R ange
Ġsup ply
ĠG L
p es
ĠC all
Ġra ise
Ġth ous
as tern
Ġa mb
1 000
d esc
Ġbro ther
Ġlist ed
ec ute
N ow
M at
t ree
ap y
ab y
Ġbl ue
Ġline ar
Ġf ixed
ri age
st yles
Ġbuff er
P L
D es
Ġp aint
ur a
Ġocc up
Ġf igure
Ġopt im
Ġsequ ence
j o
ĠI d
Ġst ra
ĠIt s
ã ĥ
ĠE p
ĠSec ret
Ġst ock
Loc al
Ġdes pite
u an
Ġtest s
Ġclass es
ĠO l
ĠC reate
Ġevent ually
Ġfore ign
Ġfact ors
Ġorgan izations
Ġfour th
9 2
Ġbas ic
ĠSe cond
b b
Ġb ill
wh ile
Inter face
ard en
ĠI reland
u ke
r ics
ĠW ednesday
Ġd og
ar ant
Ġex ists
Ġth er
Ġun c
Ġrespons ible
199 1
yn ch
ind s
Ġrequ ires
ĠC are
ĠCh ief
Ġ* *
Ġnot ed
Ġp sych
A m
] );
Ġflo at
Ġcho ose
7 4
Ġal t
ĠAp p
Ġsh op
Ġoff set
v ec
Ġhe ard
ĠH istor
Ġf ix
ĠU se
Ġde cre
Ġey es
Ġsmall er
ir med
ĠIn formation
var phi
ash ion
or ation
d rop
f loat
d s
M on
ol k
ĠM ax
O pen
Ġarg uments
il s
Ġal leg
Ġmin or
pon ents
Ġp iece
ĠP o
] [
B undle
fr ame
. \
ĠEar th
ĠB et
Ġan im
ĠO ld
id en
od er
pro p
ĠP enn
Z E
n am
Ġbuild ings
& \
Un it
Ġserv e
Ġfound ed
Ġmajor ity
c ard
ĠVirgin ia
Ġb g
Ġbusiness es
ĠM onday
Ġrout e
raz il
Ġstr ugg
im ary
Ġa ctions
ĠP an
ĠAr ray
Ġhelp ed
ateg ories
olv ed
f ound
: </
ĠC ast
Ġmor ning
th at
Ġdev ices
ĠL ove
Ġown ers
Ġas pect
b ound
Ġlet ter
ĠP ower
reed om
The y
ic ed
Ġb ottom
ĠS aturday
Ġstra ight
Call back
I A
ĠS pe
ĠComm unity
( [
Q L
S D
Ġsub sequ
Ar t
C urrent
7 1
Ĥ ¬
ĠAl so
Ġp ages
requ ire
8 1
Ġm ill
Ġcon str
Ġp i
ge q
Ġsc ript
Ġla unched
Ġal one
Ġ er
ĠMex ico
ĠS u
clus ive
ing u
umn i
all ery
S H
Ġen h
Ġpol ic
ĠF estival
ĠK ey
Ġ{ }
Ġin str
Ġcon cent
over line
ole c
ur i
ĠEn ter
w rit
Ġcompon ents
ĠMart in
k ins
ut ch
Ġcon nected
Ġp aid
ĠV ictor
Ġtri al
Ġsc ope
Head er
Ġneg ative
Ġit er
Ġrem oved
c ar
Ġst ars
ĠRec ords
Ġsp irit
Ġw est
as er
. $
j a
t oken
Ġhe ar
leg al
al ent
K e
stand ing
Ġd aily
IN T
Ġk m
In st
us band
ĠPol icy
Ġb attle
Ġfe et
Ġsen ior
Ġag reement
b oot
Ġhe avy
7 3
Ġe ast
I F
8 3
ian a
Ġunderstand ing
i h
Ġfl ag
Ġcrit ic
t im
Ġdi agn
Ġac com
Ġst orage
Ġref lect
Ġtr aff
b in
ac ific
at ers
Cont rol
ĠM en
ĠAp ple
Ġar rest
ĠL ee
J ohn
at ically
Ġp ush
Ġe lected
I ST
Ġc itiz
E v
AP I
% ;
E M
val ues
ĠR un
Ġcon vert
T C
CO DE
196 0
ang ing
IG N
k er
Ġw el
ĠD O
b ra
ĠFor ce
om ic
ĠJ im
Sc ript
ĠB as
p ower
ct x
Ø §
Ġdeterm ine
ĠB ase
g ency
Ġmat ches
Ġs s
Ġem ot
Ġpro file
N one
our ney
Ġin fo
p atch
D own
ĠL ead
Ġsl ight
ĠCarol ina
Ġident ified
Ġwin ning
d ocument
Ġsus p
Ġgener ation
iction ary
ut y
Ġh undred
Ġpat ient
ĠL ibrary
' ),
Ġch ain
Ġansw er
l ook
Ġdom ain
Ġadv ant
ĠS pecial
Ġr are
as ure
ĠJ o
} ),
Ġw ants
Ġk ids
Ġh uge
Ġcontin ues
Ġgu itar
198 8
' d
Ġs ell
T ree
ĠA wards
A re
ĠIt aly
Ġend ed
app a
Ġinvest ment
ĠW ood
ĠJ ud
os c
Ġse ctor
n ote
Ġbel ong
Ġra ised
Ġv ector
n y
Ġconfig uration
em porary
ĠE very
Ġsk ills
Ġvis ual
ĠCE O
Ġch ief
ĠS ummer
ĠYou ng
sk ip
pos es
Ġa ware
ĠThe ir
ĠD ate
ĠVal ley
Ġf ig
ĠAl though
app ed
ĠF ootball
a fter
f s
Id ent
ĠRe port
T im
S earch
ro ph
ellig ence
X X
Ġrest aur
Th read
Ġcom ments
ult ural
cont rol
Ġill ust
Ġneigh bor
AC K
}, \
Ġow ner
Ġn ative
198 9
PE CT
ĠA M
p op
Ġin fr
Ġexact ly
Ġup per
âĢĿ ,
v ision
Ġinflu ence
He ight
um s
ĠF ort
Ġse a
ĠB ack
re al
ĠĠĠĠĠĠĠĠĠĠĠĠĠĠĠĠ ĠĠĠĠĠ
Ġoffer ed
Ġeconom y
ĠM ap
Ġs ustain
Ġc ool
Ġequ ival
P T
UL T
Mod ule
nt ax
urre ncy
ĠL in
ĠL im
p lement
p g
go ing
O ption
Ġcomm it
Ġad vert
Ġh arm
Ġsh ift
Ġ> =
ak s
ow ers
ĠN ote
ce an
Ġkn ew
Ġb rief
u y
b uffer
at i
str ap
D S
Ġa head
Ġc at
li e
ĠCol or
al i
Ġpro of
I B
iv ery
e an
M atch
ĠG ar
res ents
m ail
âĢ ī
ĠN et
Em pty
Ġbenef its
Ġin come
w s
Ġofficial s
Ġclaim s
ar ian
pl ing
Ġco ast
ĠF ree
fr ont
ĠE ven
id ers
Ġwh om
Ġmeas ures
Ġtre nd
Ġm achine
ĠT uesday
Ġf ra
Ġident ity
Ġdeterm ined
Ġsepar ate
Ġsp ot
o es
. /
L evel
h line
Ġbg color
Ġar m
ĠH aw
ĠSp anish
omet ry
Ġopport unities
Ġhapp en
ĠMed ical
Ġtem plate
Ġrepl aced
Ġcor por
) ^
con f
x x
Ġdef inition
r ick
Ð »
Ex pression
H ash
V AL
} /
St at
est ed
Ġf if
Ġover ride
f a
Ġres idents
in ations
ĠAs ia
Pro t
ĠReg ister
W indow
ner gy
Pos ition
#### ####
ific ations
Ġvari able
ĠM ot
Ġmost ly
ĠP ubl
ĠK h
ĠN S
res ource
Ġa x
E ar
comm and
et ime
ĠH uman
ick er
Ġset tings
" ))
Ġhouse hold
ĠCent re
ĠOr der
v as
Ġuse ful
Ġoriginal ly
Ġport rait
out e
P tr
ĠSec urity
Pro perties
=" _
end ar
Ġst ations
ĠF amily
Ġst eps
O K
it ness
iqu es
Ġatt ribute
Ġs umm
ĠK ar
Ġstruct ures
Ent ity
H ttp
Ġy ield
Ġh yp
Ġhold s
struct or
ĠW ater
Ġd atabase
ĠIr an
Ġdr iver
Ġ ::
Ġpr ison
Ġpower ful
Ġmention ed
ĠL ine
Ġm obile
CT ION
ploy ment
Ġveh icle
ell ed
ian o
Ġapprox imately
ĠJohn son
cl es
ĠS ar
Ġv an
Ġf ine
Ġbeaut iful
ĠT able
J son
Ġrequire ments
Ġb ul
Ġpro test
Ġbe coming
d i
ĠAr ab
Ġappoint ed
im ents
ĠSc ot
in ternal
R ed
Ġpart ies
Ġrecomm end
st ar
Ġmur der
if ies
em p
urre d
ĠÂ £
H ere
Ġfail ure
c ache
n el
Ġfund ing
Ġequip ment
Ġchall enge
P o
ĠR ail
W S
Ġredu ced
est ic
Ġchalleng es
ollow ing
Ä ģ
anc er
D ir
es h
S ince
Ġext rem
S ign
M C
15 0
Ġcon vers
pect ive
s d
Ch ange
ĠSt and
s ign
im b
ĠM a
Ġc ities
Ġth read
epend ency
ĠS ports
ĠC ON
ud io
ĠI P
s en
Ġsm art
ĠF und
L ambda
Ġrele vant
ad ium
am l
lang le
ĠCath olic
ist ers
Ġdr ink
Ġprocess es
ĠSt at
Ġoffic er
Ġfore st
> ,
Ġplan ning
n ormal
ĠCon ference
Ġw onder
ĠJ ones
Param s
clud e
ack s
Ġw id
Ġd ream
Ġdown load
ĠF ire
Ġap i
Ġext ension
O ther
="../../../../ ../
Ġcl oud
Ġl ibrary
D Y
og en
Ġgu id
in ion
ag ment
Ġfeature d
ed ia
os oph
D ocument
ear s
is hes
ĠPol ice
Ġp ackage
ĠUkr aine
Ġp anel
As ync
Ġcont ainer
Ġa ircraft
Pro ject
Ġ ice
ĉĉĉĉ ĉĉĉ
Ġimplement ation
Ġhapp ened
Ġd u
AG E
od ies
Ġrem aining
sc ape
Ġlook ed
ĠEx ception
ĠD om
ĠC y
k o
Ġed ition
i able
ĠJ oe
Ġr ac
P H
Ġre asons
A c
ĠS and
Ġfam ous
Ġ ut
Ġview s
ist ribut
Ġrepresent ation
Ġreve aled
ur ies
Im pl
ograph ic
il ing
ĠB ob
b efore
et ry
ot es
h or
ed ge
{ {
Ġexper t
Ġsc ored
ĠA mazon
ĠIn vest
l ife
ĠB ow
if ically
ost on
Ġtri ed
Ġat tract
ĠBl ue
erson al
Ð º
Ġst ress
L S
y e
Ġwe ap
M ay
art ifact
Ġbroad cast
ĠHen ry
S k
se cond
ph one
r ich
Acc ording
ri ze
d est
Ġcont aining
ans as
EN D
Ġear th
Ġh usband
ex ample
j i
d es
Ġext ended
Ġl ayer
D ep
ĠE lect
Ġalbum s
ing le
Or der
Ġclin ical
re ference
ĠH or
S ome
Ġcred it
H ost
Ġdepart ment
ĠDes ign
w an
198 7
ST R
Ġbl og
Ġocc ur
oth ing
Ġide as
Ġappropri ate
im s
astr ucture
Ġre ality
ec es
Con nection
util s
ĠC ard
il ton
Ġg un
Ġadministr ation
Ġin tr
Ġb oy
ĠV iew
Ġleaders hip
ici ency
Ġto ward
ĠM any
Ġph il
ĠIn s
Ġorig in
Ġsignificant ly
Ġman aged
Ġc ategory
ĠM ethod
sc ription
Ġregard ing
ap se
ĠW al
ĠChrist mas
w indow
urs or
Ġrepresent ed
Ġcon flict
Ġdescrib e
w ar
Ġdo or
Ġcl ick
ult y
s v
am m
Ġmon itor
act or
t ml
Ġfor ced
" ));
Ġmin imum
Ġp urs
urb an
Ġle aving
ic ip
Ġp od
am in
Ġcult ural
ĠOr gan
ĠH and
N et
The se
Ġaud ience
ĠA R
iz ont
198 6
ov es
Ġrem ained
Ġoper ating
Ġal gorithm
Ġh our
C al
Ġnot ice
ĠP ak
Ġcr is
Ġke pt
Ġatt end
bold symbol
Ġp adding
mb ox
Ġupd ated
Ġdam age
ĠR equ
Ġprote ction
up s
ĠInd ust
C I
Oper ation
ru it
=" -
Ġmet al
ĠL i
j ection
fr ak
Ġm ask
ĠC A
Ġr ul
ak a
Ġreg ions
D D
Refer ence
br idge
U RE
ul s
}} $
i at
ĠD own
ot imes
ĠR et
Ġf resh
ĠTr ue
Ġcandid ate
ĠAb out
S ession
h ash
ĠP op
L ong
Ġact or
ĠE ach
c at
ĠW in
' .
el ess
ir a
is ms
ĠA uthor
ã Ĥ
Ġ* )
Ġinterest ed
ï ¿
Ġsign al
198 4
ĠEX PECT
Ġwe ak
Ġtri p
Ġcons ult
Ã ¨
Ġident ify
M ult
Ġj oint
Ġb asketball
Ġexper i
Ġcon ference
h igh
B ook
Ġpart ial
Ġex change
Ġad opt
Ġmus ical
b order
n ap
st ack
Q ue
ay lor
Ġd ig
Ġto ken
Ġn amespace
Ġcover ed
p df
ĠSw ed
W E
Ġequ ation
ĠA ff
ĠSc iences
k m
Ġ icon
Ġflo or
Ġw arm
St ore
Ġsur vey
se ct
ĠT ele
% )
ĠWilliam s
ĠL em
Ġd oll
Ġp ool
Ġx ml
dev ice
Ġm iles
s plit
COL OR
Ġsex ual
ĠAs sembly
r id
p ool
ide os
im ages
d ot
Ġfl ight
Ġis land
Ġw all
Ġenvironment al
Ġl abor
Ġresult ing
Ã³ n
ĠE vent
j oin
Ġshow ing
fo o
Ġund efined
Ġlead s
Ġ" \
equ al
aw a
d irect
Ġdistribut ed
ĠW ay
Ġtr uth
Ġerr ors
Ġbenef it
T itle
Wh y
Ser ial
ï¿ ½
Ġr ise
Ġaward ed
ĉ Ġ
I E
h ere
Ġsp in
ĠCor por
i ro
Ġbig gest
ĠP ass
198 5
S m
Rec ord
Ã §
aw s
ĠJose ph
U se
ms g
m ode
Ġn ine
plic ations
ik i
co in
ĠB razil
Ġd raft
Ġbe at
ĠC ode
ty pes
Ġs un
V ari
er ies
Ġ ult
V er
Ġw rap
oc key
Ġw ave
Ġl ived
r ange
ĠMich igan
ĠA L
Ġc ars
rit ory
ĠCh ris
Ġcomb ined
Ġhapp y
Ġp an
Ġcar ried
Ġag ent
C ore
or ney
Ġrep resents
Ph i
un te
Ġon to
{ }
; ->
% %
s end
atal og
ĠM A
N on
est amp
ĠR am
ĠN Y
ens ional
ĠL ink
W ill
alle l
Ġap pre
Ġpar se
Ġexc ell
Ġp et
Ġcor re
Ġstud ied
Ġbr ain
ĠE r
OR D
ĠH ospital
Param eters
ĠE qu
b ind
( -
Ġrap id
Ġstart s
ĠL O
ĠM icrosoft
tr y
ĠM ain
gr ade
ac cess
Ġob vious
Ġv oc
ĠM ah
c hen
Ġthink ing
k ind
su ccess
Ġun less
Ġd anger
Ġst reet
ĠTh us
d ebug
ad er
Ġ[ '
f n
ĠJ eff
Men u
25 5
atas et
Ġnumer ous
ĠP oint
S L
and on
N e
Ġad just
Ġf an
f ocus
l ers
ĠThe atre
k appa
uck y
Ġag ree
K ind
re q
v a
N N
Ġhistor ical
sec ut
in et
cre te
l ig
AT A
Ġtraff ic
ĠSt e
ann els
ĠK en
Tr ack
os es
ĠT H
P ass
Ġf ramework
ot ed
amp ion
Ġdef ense
Ġun known
ĠM ike
Ġc row
Ġcent re
Ġme ant
Ġm unic
l n
? :
cl aim
Ġinter pret
Ġpro pos
ĠC ross
Ġper haps
rom ise
19 50
ĠSen ate
Ġw ind
_ ;
wh ite
Ġa f
Ġfocus ed
Ġparam s
Ġch air
ĠL ord
G u
re nder
P op
k in
Ġcustom er
Hel per
a uth
istr ation
Ġart icles
F ont
ĠCol umb
Ġtechn ical
Ġcall ing
ar ia
Ġgener ate
it utions
B ody
Ġrel ation
ĠN ight
Ġdiv ision
Ġg ather
Ġcam era
anc he
Ġb atter
ĠC oll
ĠH on
Ġappear ance
gl obal
ĠL uc
Ġvict ory
Ġf ish
r b
Ġadd ing
c p
ĠJ on
z en
Ġn orm
ĠM ath
let ed
Ġl icense
N ames
Ġoffic ers
ĠT O
S u
Ġb udget
abl a
ĠCol lection
Ġiss ued
st one
Set tings
ific ate
Ġprocess ing
math frak
F alse
Ġpartners hip
izont al
ĠD C
g raph
h ar
ĠL ast
Ġclear ly
Ġag reed
ost er
ig g
ĠV an
Ġcon sequ
Ġconduct ed
Ġest imated
ĠRe al
ap ed
ent er
ĠJ ac
ol es
Ġp icture
Ġp il
ĠB G
Ġsing er
d ated
ĠOlymp ics
Ġjob s
ip eline
ff ect
u ing
( *
artifact Id
Ġbut ton
Ġpl ants
ĠW all
y er
m id
D om
Ġded icated
c ript
ĠII I
Ġdevelop ing
ĠE nt
Ġpol y
ĠE mp
ak ed
Ġs quare
H S
m ond
el ines
198 3
Ġpolic ies
ĠIs lam
Ġr an
non umber
ol ume
ĠL ab
or row
em pl
R ight
ä ¸
il a
Ġun ivers
s ession
Ġauth ors
Ġun ion
Ġr iver
ĠW indows
Ġlaw s
Ġcomb ination
Ġcommun ication
ov a
Ġaltern ative
param eter
ĠWh y
Ġey e
D C
T emplate
ĠL iber
ri ev
ĠT er
ok es
ĠH y
ĠWh o
ĠW alk
ĠW ild
Ġexecut ive
Ġvari ables
Ġconf irmed
ĠFrancis co
IT Y
cl ick
on ym
Ġp p
Ġt ournament
Ġtr ail
ĠAn y
l ines
i pe
Ġent ered
L eft
P arser
class es
text it
T ool
Ġs ale
d el
ĠRepublic an
ĠJust ice
Ġfac ilities
im a
ld ots
Ġanim als
ut s
Ġwrit ers
os a
ab eth
Ġgover n
ĠF ederal
Ġgu ide
ĠF ood
Ġviol ence
Ġreg ional
Ġm ixed
ob s
ĠP acific
ad or
ict ures
G E
Ġre b
Ġk ing
__ __
Ġtyp ically
Ġ il
med ia
Ġse at
uz z
Ġhe at
Ġe cho
il ation
Ġb ird
ir al
Ġyou th
n abla
pro duct
Ġdel ay
à ¥
ĠSp ain
Result s
F ound
st ep
Ġn odes
ap pro
() :
Ġstreng th
Ġj ourney
Ġrelig ious
ino is
Ġc ache
Ġcar bon
web kit
Ġnot es
igh ter
ad s
ix el
Ġcom fort
ish op
} )$
Ġf le
ĠDan iel
, -
eng er
ĠP rem
ĠPh ys
it age
ERR OR
Ġun iversity
Ġhas h
res hold
Ġs amples
Hand le
Ġg one
( :
ĠM P
Ġpl ot
Ġl atter
Ġallow ing
ĠR o
: (
Ġfund s
od d
ĠB oth
Ġstand ards
Ġb an
How ever
b as
put e
D uring
Ġtr a
ĠĠĠĠĠĠĠĠĠĠĠĠĠĠĠĠ ĠĠĠĠ
co pe
Ġde lete
Ġt alent
Nav Bar
he m
ath an
Ġcris is
Ġinj ury
Ġmarket ing
cit ep
it an
Ġcomm ission
Ġdet ail
Ġdet ect
Ġr ich
I ter
Cl ick
he ast
Ġfin ish
r ical
ĠS outhern
sub set
Ġfavor ite
198 2
Ġown ed
ro t
Ġcr iminal
il ly
ord ers
W orld
Ġprot ocol
Ġn arr
Ġcre ation
Ġin her
ĠAnd rew
Ġim press
angu ages
Ġcount y
ĠH arr
Ġliter ature
Ġs port
ĠMod el
\ |
ð Ł
Ġex ternal
ĠOn ly
Ġinvest igation
ĠG i
trans form
D oc
d elete
Ġpract ices
Ġdiscuss ion
An y
ĠMed icine
con nect
Ġstr ict
Ġoffer ing
Ġh ers
ĠJ es
ĠNor thern
âĢ ¢
' ],
Ġmay be
T A
Ġexper iences
ob e
ĠIr ish
c f
B I
Ġev olution
-- -
Ġal umni
Ġdr iving
M ember
Ġtrans action
E ach
ad el
Ġdoc uments
Ġcontr ast
Ġen able
ĠL ike
ell er
Ġprodu cer
v ector
Ġf uel
k g
ĠB ul
ĠIn ternet
P RE
Ġpos itions
w ater
s ystem
G ET
Ġass ume
D i
Ñ ĥ
ĠAd ministr
Ġsh ut
Ġnew sp
group Id
ĠM iddle
ov ing
Ġphot o
ĠDemocr atic
d at
miss ions
Ġsc hedul
Ġex erc
c ur
Ġpr ices
ĠO k
if est
Ġadvant age
if er
ĠP age
Ġtalk ing
ne ctions
ĠS aint
Ab out
maz ing
Ġle aves
================ ================
ĠR h
ors hip
Ġex amples
to String
Int eger
sy lv
Ġmot ion
Ġhel ps
Ġe lem
Ġachiev e
e z
Ġm ys
att ers
sh ot
E rr
B AG
1 20
ĠE U
ĠL ear
Ġcr ime
ĠM u
Ġpro ve
Ġrat io
S R
Y ear
N ote
Ġveh icles
ĠV alue
Ġcitiz ens
as hed
Ġnetwork s
Ġdist inct
ĠE nergy
Ġsecond s
Ġle tt
= {
ĠF ar
add ress
Ġf lex
Ġsche me
Ġb ed
="../../../../ ../../
On ly
/ \
is er
Ġcor ner
E Q
ĠB oston
R ect
Ġpro ceed
Ġf re
' >
ĠCar l
m ann
w ords
ag ers
Ġg ain
c lear
Ġfind ing
m ake
ast e
Ġloc ations
f riend
at uring
Ġs plit
ĠN O
gy pt
ogg le
ĠStud ies
Ġin fe
us es
in er
r an
iss ions
ĠL ive
ct ors
Ġst uff
Ġpred ict
F inal
Ġthem e
ĠL o
clud ed
% ,
J an
Ġcertain ly
ĠIn itial
inter face
ĠAmeric ans
Ġwe ather
ĠGeorg ia
equ als
ĠEn vironment
pe ople
197 9
mod els
Ġfrequ ency
} -
Ġs ister
sylv ania
ĠRad io
ĠG irl
Ġcould n
ign ment
A uthor
DY BAG
ĉĉ Ċ
let s
ru le
het ic
ĠT ri
ĠB ecause
S igma
M eta
P arent
Ġpl us
Ġslight ly
ĠM ult
enc ing
Ġdec ades
pos ite
Ġadv anced
doc s
ĠE th
ĠI O
Ã ¢
V ector
ĠAd v
f aces
P M
ĠA ction
edd ing
ay a
Ġlearn ed
hand le
Ġse asons
Ġhead er
Ġexp ansion
ĠS ong
ĠJ r
ĠE N
ĠJack son
ĠF red
ĠL ight
Ġint ended
S w
Ġinc orpor
Ġch osen
Ġne ut
ĠPar liament
r im
Ġv ision
ĠC ivil
Ġpre par
ĠÂ »
ry st
ĠN E
V ert
Ġadv ance
Ġser ial
Ġphot ograph
ov iet
h over
it o
Ġcon ver
ĠCo ast
ot hes
ug ins
p resent
Ġr ain
t ure
Ġdiffer ences
Ġh ydro
Ġf ant
Ġf ashion
ck now
p et
Ġcl ients
ut f
h s
Ġt end
ĠD igital
ĠM id
Ġsom ew
Ġ ul
Ġgirl s
Ġspe ech
Ġyour self
ĠC re
Ġret ail
Dev ice
sec urity
ell o
Ġrem ote
b ury
ont o
St ack
Ġchang ing
pos s
ĠT w
Ġb urn
Ġattack s
ition ally
Ġsee ing
Ġdram a
ĠOh io
boot strap
ĠU ser
Ġd ie
6 00
vir t
W A
st op
Pol icy
ĠB ang
ĠR ights
Ġapp arent
Ġt ro
ĠSp ace
ĠN iger
pr ime
Ġgl ass
ele ase
Ġt ab
i y
ĠSt art
ĠP y
Ġdiscover ed
ap es
enn is
F ig
Ġres olution
Ġm essages
ad ing
TE ST
Ġequival ent
Sec urity
}} {
bur gh
Se lect
Ġare n
u ations
Ġlist en
ynch ron
ĠL ocal
Ġh air
Ġp al
Ġimport ance
ce ived
Ġtr av
ĠS ir
Ġtell s
n ic
ĠEx t
198 1
f ill
ock s
Ġrel atively
L C
p are
ov id
M B
& #
ev in
In valid
il ms
Ġhigh light
AC E
Ġcompar ison
c oh
c oll
Ġmed al
b al
Sche ma
st ein
B efore
ĠPol it
Ġfootball ers
ic er
X ml
Ġm ental
Ġk ill
Ġex plicit
W riter
ĠSe a
= #
Ġat tr
Go ogle
Ġaff ected
S U
Ġl ab
Ġw ish
Ġcons ists
ra wn
ch er
Ġann ounce
ob uf
Ġel im
ur er
oc ity
ĠSup port
Ġse gment
Ġch ampionship
OR M
Ġact ress
w id
ĠS ign
dis abled
Ġquant um
Ap plication
ac le
ar ation
Ġarchitect ure
Ġs outhern
ag ger
Ġ rom
H as
Ġbr anch
De cl
Ġdiscuss ed
ĠBe ach
ĠGu ide
em ail
ate ver
Ġmag azine
Ġacad emic
ĠW he
Ġserv ing
AT H
Ġdep th
Ġsp ring
h ow
form ance
ĠAs ian
Ġregister ed
Ġmot or
` .
Ġelection s
ion e
ach ing
ĠS O
Ġch art
field s
hold er
25 0
Ġprofess ion
iz abeth
Ġhous ing
all ow
Ġaud io
Ġsupport ing
ent h
Ġclaim ed
Ġconcern s
SE T
ĠJew ish
ist ant
Ġsol ar
nes ota
B est
197 8
ĠProfess or
C are
Ġre ject
Ġest im
if fer
M T
ic ol
D raw
ĠEx ecut
ĠThere fore
ke ys
Ġbeg ins
en v
Ġtrack s
ĠD ou
C or
Ġcl uster
Ġre tain
Ġbal ance
197 6
ĠL u
Ġp itch
Ġatt ended
Ġm ist
on av
n ames
ĠSt an
ĠC H
Ġfeel ing
\ %
Ġcover age
ĠK im
cont in
Ġsu c
Ġm yst
Ġpolit ics
Ġag ency
197 2
Ġv irus
by te
el a
ĠBG COLOR
ĠU RL
Ġf ellow
. '
ĠM aster
ly wood
ĠW ales
Â °
un a
c ert
ĠN av
ĠF urther
Ġhers elf
Ġpurch ase
ĠA P
ins on
Ġf ear
e per
b re
Ġfac ility
Ass ert
ĠF igure
> ();
ĠIll inois
Ġs leep
pr ise
Ġeff icient
Ġthous ands
el ly
aw n
h ab
Ġmark ets
ĠQue en
Val ues
ĠSecret ary
Read er
bo olean
p erson
us hed
ĠK r
an es
Ġsp aces
ĠA f
Ġreview s
Ġex tract
m osph
Ġprote in
Ġst ack
ĠR om
Ġadv oc
Ġcre w
Ġv ac
Ġtre es
ĠM ic
ĠĠĠĠĠĠĠĠĠĠĠĠĠĠĠĠĠĠĠĠĠĠĠĠĠĠĠĠĠĠĠĠ ĠĠĠĠĠĠĠ
mod al
Ġinitial ly
ĠJer sey
Arg ument
Ġad vent
\ "
let on
St ep
f ull
st ore
he mat
Ġs an
Ġ+ +
ĠPenn sylvania
Ġnor thern
Ġm olec
ĠĠĠĠĠĠĠĠĠĠĠĠĠĠĠĠ ĠĠ
ĠF I
Ġc er
Ġd ance
Ġins ert
Ġh idden
Ġche mical
ist ent
ap pe
ĠBrit ain
ern el
in ates
By tes
Ġsur g
Ġrecord ing
styles heet
ing ly
ĠT ext
in ator
d ots
A pi
Met adata
um es
s pe
ex port
{ -
ĠT aylor
Ġp hen
Ġwin ner
c ustom
w er
ĠBro ok
Ġs um
Ġocc urred
Ġfor t
ĠL ittle
Ġform ation
D R
Ġdel ivery
N um
Mem bers
M I
A U
w riter
197 4
Ġ( '
Con st
ĠP C
Ġhelp ing
sup port
Ġrefer red
Ġv el
Ġmar riage
Ġsym met
ĠG reek
Ġf ill
Ġprob ability
Ġc rypt
Ġconc ert
re place
T ags
Ġr ing
Ġno ise
197 5
at ial
D P
Ġb att
R oot
Ġ} )
Ġf ell
Ġin line
L a
Ġent ity
i ate
ĠI mp
Ġmass ive
R ender
Ġby te
& &
Ġcandid ates
call back
Ġis ol
Ġv ent
ĠCon st
ĠN avy
$ (
ĠT oday
ĠK ong
Ġso ft
Ġsuc ceed
8 00
Ġassert Equals
al o
ĠEngine ering
Ġknow s
fr am
ex ports
ĠR est
Ġvers ions
iven ess
Ġg al
Ġmain ly
ĠMus lim
Ġke ys
Ġextrem ely
ĠF our
Ġmys elf
Ġdet ailed
y es
ĠK ent
Ġimprov ed
ph as
w idget
ĠM ake
Ġuns igned
ann a
Ġw ww
Ġweek end
R ule
Ġexpl ained
sq l
The n
Ġgu arant
Ġc old
up le
Ġanc ient
Ġby tes
Ġin n
ĠE q
oper ator
; "
Ġinfr astructure
in ating
ER S
ĠW is
ic ons
Ġthan ks
ĠCont rol
ol ver
eg o
Ġexpress ed
ĠC ur
init ely
Ġcol on
) "
H igh
Ġre con
197 7
ick ets
Ġ& =
id ae
ĠO x
ĠH a
Ġsec ure
Ġre form
Post ed
ĠB iden
ple x
; \
ili ar
Def inition
Ġtechn iques
Ġspe ak
ly n
Ġinst itutions
? "
Ġbehav i
ĠO nt
c opy
ĠA I
Eng lish
c ut
) -
in ant
ident ial
ĠTr ust
Ġfil ename
Ġw inter
A ME
Ġsp end
Ġ à¤
ress ion
Ġinv oke
Ġc as
Ġsupport s
c uss
A ust
ĠR ay
ĠR en
Ġpi eces
Ġcol lected
com ponent
Ġs qu
p an
Pre vious
Ġaccept ed
Ġcreat ive
n amed
Ġj av
str a
Ġz one
A v
Ġscient ific
pl ugin
Arg s
Ġdis s
N etwork
C ustom
Ġconsist ent
is a
wid et
onav irus
Ġbo ost
Ġsuccessful ly
ro ke
> .
ĠI T
ĠD ar
set tings
ach us
og y
Ġrepl ace
197 3
Ġn ice
n ight
Ġk id
En abled
ge bra
Ġdef end
Ġend s
Ġun iform
em on
art ers
N ational
St orage
196 8
z z
Ġv en
ĠL ook
ĠMc C
Ġro les
Ð° Ð
Ġv ideos
.... ....
E CT
er al
Ġbeliev ed
Ġtr igger
b uf
P ublic
Ġpur poses
ĠE st
Ġex pos
Se cond
Ġparticip ants
Ġhold ing
\ [
ri e
cent ering
ĠA sh
G S
it u
Ġcy cle
Ġw arn
in ity
Ġm and
ĠA ccess
ast ers
Ġinteg r
Ġb ond
ĠE rror
ĠSe ason
pt on
` ,
Ġ era
D L
ĠJ SON
Ġk ick
Ġcomm itted
pl ed
f ol
Ġb rowser
Ġdirect ory
-------------------------------- --------------------------------
ĠUp date
Ġsuff icient
Ġc ouncil
reg ister
av or
Ġpolitic ian
et ts
Ġpl anned
m o
Ġexpl ore
ĠG re
Ġfl at
B R
A F
ĠS pec
ir ation
Ġf reedom
ĠB oy
ad min
m ic
T wo
Ġd ress
ap ore
ĠS us
Ġan imal
ĠT erm
ax y
Ġact ors
Ġdec isions
Ġarr ived
Ġg ender
j e
Ear ly
cl oud
ro vers
Ġfa ith
Ġindust rial
ĠE gypt
Ex p
tab ular
ĠB ern
iv ation
g a
S cope
udd en
un ct
u ilt
Ġsub st
Ġassoci ation
B E
Ġturn s
Ġteach er
T ube
Ġappro ved
Ġsuggest ed
ĠBro ad
Ġin ner
Ġexcell ent
Ġte le
w a
itution al
ado op
J ust
v in
Ġsm ooth
P ER
ĠScot land
unn y
Ġpost ed
SS ERT
Pat tern
IV E
ĠPr ime
Ġthan k
Ġtr uly
or al
Ġo s
Ġs and
ĠTh ree
widet ilde
ĠP R
av id
et es
Ġar my
Sh ow
out s
Ġcomm ittee
mer ce
Ġa thlet
Ġabsol ute
ĠPak istan
Ġreg ul
ĠS af
ĠF ull
ĠC ro
m aster
Ġhapp ens
D ebug
pro file
Ġneighbor hood
Ġcon sole
ur d
Ġrece iving
Ġgu y
Ã ±
} ]
ar c
uss ian
h ome
al id
Ġincre ases
ĠR od
op l
Ġsym pt
Ġclass ic
Ġm useum
p anel
ĠComm on
16 0
By te
virt ual
Ġ( *
Ä ĩ
on ia
ent ity
Ġprep ared
ĠWil son
oper ation
om orph
Ġo dd
Ġl ies
ĠS ep
Ġcirc um
Ġhot el
equ iv
Ġtre ated
Ġ ×
Ġmov ies
Ġprov ider
Ġinsp ired
ĠCh air
ĠN ext
ĠH ard
ĠOb ama
Ġr ough
Desc riptor
d ependent
ĠN on
Ġbr idge
fram ework
ĠF ox
ĠC ustom
Ġinc ident
un ately
ĠKore a
sc reen
Ġexperi enced
Ġvis ible
erm al
Ġblock s
ĠPhil ipp
Ġp ra
Med ia
ĠL atin
or gan
u ous
C opy
pre ne
Ġauthor ities
ĠP ath
Ġtw ice
Ġwait ing
} +
Ġbound ary
ap plication
Ġvacc ine
Ġupd ates
V ar
Ġhom es
ĠR og
ess ions
Ġop inion
197 1
Ġ ),
y o
ĠPr ince
Ġnuc lear
Ġinter action
AR Y
19 40
Ġall oc
ĠEx per
rou d
Ġengine ering
! âĢĿ
hent ication
ĠN umber
ĠC irc
Ġacc ident
Ġ< =
Ġman age
W rap
achus etts
ug by
an th
Ġt error
ind ent
196 9
D elete
Ġder ived
Ġ urban
D T
ĠV ill
Ġteach ing
Ġfig ures
Ġatt ributes
ĠEd ward
ĠHT ML
or ough
y ard
Ġalong side
f il
Ġincre d
re prene
Ġr aw
Bo olean
Ġpe ace
el d
ig in
ĠA k
Ġspec ifically
Ġtechn ologies
ĠMin istry
ual ity
ĠAre a
N ov
BU G
adel ph
d ouble
Ġpl ane
item s
Ġmed ium
att ribute
oc cer
ĠEmp ire
ĠW atch
ĠB ad
G en
f ire
25 6
Ġli ber
Ġinstall ed
o ir
ch ain
ĠS om
ol t
M ENT
Ġsp ons
Ġear ned
Ġa mazing
ĠChild ren
10 1
Ġc ash
Ġm ac
ra q
ang ular
ĠChampionship s
Ġbr ings
ack et
Field s
Ġw itness
ow a
ĠAir port
Reg ister
19 30
is c
ĠH as
RO M
c up
ĠSt ory
M ock
or i
ĠS che
Ġa wards
epend ence
ĠM ajor
ĠK enn
ĠSt eve
C ap
sh all
Ġe lev
I con
\ !
Ġc art
sh ape
and ra
ĠF air
ĠV ideo
Ed itor
ĠP ay
s id
ĠT em
Ġtop ic
Ġmen u
Ġex tr
r ine
li x
Ġwatch ing
ĠPh ot
Ġem phas
at ar
ĠM ir
te en
Ġinstr ument
ĠGu ard
Ġrelationship s
ĠSup reme
Ġass igned
Ġfact ory
Ġfind s
Ġin ternet
W indows
s es
ul ner
et ing
Ġseem ed
Ġm ock
ĠAnd roid
O O
Ġread er
ĠE astern
Ġag ric
Ġhon or
uns igned
Ġprofess or
ĠOn line
P si
} "
Ġsub stant
V ideo
p adding
Ġfe aturing
ĠOnt ario
Ġresearch ers
Ġachiev ed
="../../ ../
Ġjust ice
ĠH u
S pe
Ġcaus es
Ġd ir
Ġper man
ĠSt ation
Ġsy nt
Ġac comp
t n
Ġg rew
ĠP lease
ĠF unction
adelph ia
w orld
## #
ĠB attle
Ġemer gency
point s
ĠT ask
Ġtest ed
olog ist
f ast
Ġm sg
ang o
IC E
Ġw estern
am i
do i
Ġm ent
er ia
ĠC as
am ber
b ul
Ġb ow
br id
Ġj son
ĠMin nesota
ĠR on
ĠB ell
ub y
Ġhy per
Ġm ort
ex ception
ĠV ersion
ĠL abor
st at
um in
Ġac id
Ġrequest s
a is
Ġadv ice
Ġb right
erv ative
D IR
Ġp ure
Ġhand ler
â Ĥ¬
Ġwould n
Ġcollabor ation
Ġplatform s
ins ert
Ġphot os
b ro
Ġeas ier
Ġhistor ic
Ġexpl ain
R C
b ad
ĠGover nor
Ġen abled
ens ure
ore t
LO G
Ġwid ely
ĠBook s
FA ULT
Ġrecogn ized
Ġfight ing
ĠM ember
Ġinv ent
Ġcons umer
iz z
Ġest ate
Ġsk in
Ġs ides
] ]
' ))
Ġprim arily
Ġhous es
_ ->
Ġhe aring
Ġm el
ĠCl in
ic ing
Class es
ĠH ong
Ġst orm
com ment
Ġsh aring
Ġposs ibly
Ġtask s
Ġact ing
all oc
ost ic
19 20
Ġpass ing
Ġent ertain
Ġsecond ary
ĠInd ex
IN FO
du ced
Ġcom edy
ĠPro cess
Ġauthor ity
Ġpro min
Ġvoc als
ĠComm unic
B it
Ġear n
int on
\ {
w orth
In itial
Ġmeas ured
Ġrec ip
riz ona
Ġl icens
F S
Ġl ay
ĠS oviet
ĠEl izabeth
. âĢĻ
reg on
ĠW rit
Ġ' /
194 5
Ġvol unte
w p
ĠI l
ĠHistor ic
cre d
ĠA S
er g
196 7
Ġgu ard
Ġclass ical
k es
Ġc ensus
Ġnew ly
Ġmark ed
ĠV iet
ĠL y
ĠU t
are n
c ategory
_ ,
Ġbring ing
un ting
ĠN FL
Ġsch olar
Ġlarg ely
Ġfin ite
act s
P ubl
Ġm il
) /
Ġsett lement
ĠCorpor ation
E C
âĢ¦ âĢ¦
Ġacqu ired
Ġsuggest s
R est
Ph one
__ (
ist ed
ĠUn ivers
Ġdynam ic
M ain
ĠB on
Ġv ary
Ġest imate
ĠE lement
Not es
S end
f all
m i
Test s
w ait
ĠColumb ia
Ä ±
force ment
ĠS em
ap h
Ġocc urs
Ġorder ed
T ab
Ġreport ing
ĠA li
Ġa cknow
ĠE C
ele gate
od s
Ġf illed
-> _
Ġsh ares
Ġman ner
d ependency
ĠCom put
eff ect
J ob
Ġredu ction
ĠExecut ive
h adoop
v an
enn es
ĠC reek
ĠSpr ing
Sy mbol
F ull
Ġad j
ament al
d ict
ĠT R
In ternal
ir ms
Ġ ing
Ġform al
Ġgu ess
in v
-- >
KE Y
Ġo k
HE CK
Dis play
ĠFore st
Ġprom ote
Ġconf irm
Ġindic ate
Ġpass ion
Ġap art
line ar
in itial
Ġrepe ated
Fe ature
ĠOn ce
bl ing
av ity
Ġexper ts
an ner
ĠTor onto
Ġc aught
ĠAl b
Ġkeep ing
Ġord ers
Ġestablish ments
Act ive
up load
z eta
ĠAn other
lem ma
Ġat mosph
R ad
reg ion
ĠL ew
D el
L P
} =\
Ġlo op
Ġ$ {
Ġcamp us
gr id
Ġtyp ical
V D
ĠC ost
Ñ ı
Ġexist ence
Ġshoot ing
ĠHam ilton
ĠRep resent
Ġacc eler
yth on
Ġaff ord
ĠK now
ĠC at
Ġm al
Ġgr id
Ġnear by
it i
Ġoper ators
ĠP en
ĠE s
Ġcharg es
P ool
Ġautom atically
ĠColor ado
ĠT am
Ġl oved
ag a
ĠP ers
Ġplan et
ĠC hen
m ock
Ġentire ly
G A
HT ML
ou ter
Ġaccount s
Ġdom estic
ip ality
ĠB a
Ġcook ies
Ġaspect s
Ġdep ends
se ud
; /
ĠA z
Ġad m
Ġepis odes
Ġre nt
ĠDef ault
Ġrepresent ing
Ġsim pl
ow nt
ĠB al
Ġpr ivacy
Ġeven ing
Ġsurround ing
ĠM att
ock er
G R
12 8
ch or
Ġm ir
D em
ĠPort ug
Ġt on
t ics
ĠD utch
Ġre new
Ġtr uck
Ġconstruct ed
S ION
Ī Ĵ
Ġcy cl
Ġcomp r
ĠS ant
ab b
ĠH ou
ĠMass achusetts
iss ue
ĠS earch
ĠS ym
Ġy ards
inst all
Ġ{ };
Ġm aps
Ġco al
Ġinstance of
ra ham
1 10
poss ible
% .
prot obuf
Ġli qu
ĠAn th
Ġsem i
Ġdeliver ed
Ġcapt ure
ĠJ ean
g ov
Ġc os
Time out
Ġmod ified
ic ations
ĠD eb
ĠB it
196 4
Ġsp ending
cons in
l aw
ĠR os
aut o
Ġcontribut ion
ord an
Ġcomp are
Ġsup posed
Ġb ass
en ant
Ġcont ained
\ ]
ades h
er ial
osoph y
Ġneg ot
cl ip
Ob j
ĠT y
Ġpay ment
is lation
sh ort
Ġserv es
Ġs ounds
Ġspect rum
* )
Ġl anguages
Not Null
Ġalleg ed
sh op
foot er
Ġfav our
and y
M any
s pecial
o or
ol is
Ġide al
Ġse ed
ĠA venue
he im
do or
ul pt
Que ue
Ġoption al
ĠInst agram
Ġg ar
m argin
ru ption
ĠN ick
v m
Ext ension
um a
stru ctions
Ġwe alth
Ġpattern s
Ġhealth y
anc el
h u
~~ ~~
i ples
ul ating
Ġs quad
Ġ urg
b les
Ġdou bt
Ġcan cell
Ġworld wide
Ġinteg er
ĠEx pl
Ġch annels
ĠS on
f ony
Ġre action
Ġ" /
ail ing
Ġex port
Ġcrow d
Ġdrop ped
Ġpr iv
Ġsh ock
Ġh abit
Ġsche dule
196 5
Ġhe av
ĠV en
Ġs now
Ġcharg ed
ĠCount ry
ĠD am
ĠAg ain
tain ment
Gl obal
Ġj ump
Ġact s
ĠAr g
ĠL td
ĠTh rough
yd ney
ten ance
Ġcon ven
Ġstri ke
Ġdet ection
Ġdefe ated
in line
Ġtit les
ask a
E very
Ġcomp re
sc ious
Ev ents
g over
cre en
r ase
Ġs ac
ĠA ge
ĠA T
Ġstat istics
ĠF C
Ġdec ade
est ion
Ġid x
ĠC ase
og ether
Ġdep ending
ĠSt aff
In s
Ġm ach
z one
ĠT urn
Ġdem ocr
n etwork
ĠF ac
Ġbro ken
P P
Ġw at
Ġt or
ĠV AL
he ll
eng ers
Run time
ĠS anta
W idget
Ġs we
ĠDis ney
Ġw ins
Ġre venue
Ġproced ure
Ġst ores
ire ment
Ġint elligence
j ar
Ġperson nel
not ation
OD O
Ġinterest s
ĠF re
Ġab stract
Ġc e
op her
ak i
Ġlink ed
$ )
Ġas sets
Ġn arrow
ĠReg ion
Ch anged
Å ¡
Ġfif th
Ġl osing
Ġpers pective
ro it
Ġfe els
ĠF alse
) =\
Un iversity
ic ity
ure au
Ġconsider ing
Ġstop ped
Ġcontrol s
H is
Ġther apy
S ym
g ence
N OT
Ġl ose
Ġl it
ĠIs lands
s in
p a
k ing
Ġmin ute
d eg
ic ious
Ġdo ctor
ell s
erv es
Ġport ion
Ġdim ension
ĠYou Tube
) ^{
Å į
? ?
Ġpolitic ians
g ers
se ason
t oggle
. *
ĠDav is
ĠI ss
H R
ynam ic
Ġon going
Ġindic ates
ĠI raq
ĠA D
R et
ĠM ill
ĠSch olar
Ġsign s
ĠEconom ic
ĠSo ftware
Ġappro aches
ĠProv ince
Ġmin ister
ĠA ud
Ġgu ys
Ġrespons ibility
ens es
if ts
ro ps
Ġe at
ĠD u
Ch annel
ĠS at
se x
c am
Ġw a
assert Equals
F loat
Ġdef initely
Ġfam iliar
ĠBer lin
om y
mon th
F igure
c md
ram es
Ġpe ak
ou red
add r
rec ord
Ġstand ing
Ġexpand ed
Ġd ry
L ock
ĠĠĠĠĠĠĠĠĠĠĠĠĠĠĠĠ ĠĠĠĠĠĠĠĠ
ic ian
Ġr ural
coh ol
D atabase
ĠIm age
l ow
ĠM O
e en
import ant
Ġpublic ation
Ġadopt ed
ĠL ow
Ġexperiment al
ĠF uture
ly ph
M ost
ĠE ll
at ible
ag ues
ĠĠĠĠĠĠĠĠĠĠĠĠĠĠĠĠ ĠĠĠĠĠĠĠĠĠ
ĠM S
P ORT
ential s
annot ation
ĠSing apore
Ġst ored
ed it
196 6
ĠB all
g ame
Ġimplement ed
ĠAnt on
Ġpre v
ĠW ars
ĠO N
ON E
Ġv eg
ev ents
Ġmagn etic
ĠP RO
Ġcorpor ate
ĠK ir
Ġar ts
Ġclos er
ĠP aram
Ġclub s
Ġexc ited
W N
f amily
ed u
ĠJ ava
ĠCon nect
D ialog
Ġcon nections
ik a
l ights
P AR
Ġs am
b en
ĠC ru
Ġde leg
Att ributes
Ġte ch
ĠOff icer
Ġcont rovers
ro g
Ġp ed
Ġrail way
Ġst able
i ac
L IC
P ackage
ro ve
Ġcont rolled
C ast
Ġj Query
Ġrec all
^ +
) }\
//////////////// ////////////////
ol id
Ġfound er
hens ive
_ (
Ġth ick
Ġcontribut ions
Ġteach ers
Ġaccur acy
Ġc overs
Ġdr ivers
rad ius
Ġgreat est
Â ©
Ġs udden
type of
Ġread ers
Back ground
ps on
Ġfil ed
ott ed
Wh ere
Ġelect ronic
i pl
dim ensional
ĠCh ange
Ġyoung er
ul ator
F urther
Ġent r
[ :
Ġd iam
Ġcont emporary
Ġrestaur ant
; <
fer red
Ġsp an
F ree
Ġcommon ly
à ¸
Ġsh ips
Ġvot es
ĠT ok
Ġins urance
Ġres c
ĠH om
it led
Se ction
Ġad ult
FI LE
A uth
Ġe c
sp ring
th ur
ĠOx ford
Ġn g
Y PE
Ġstrateg ies
Ġeff iciency
ĠG a
Ġleg isl
H L
en um
Ġw allet
Ġv eter
Ġrecogn ition
ĠUs ing
Ġesc ape
ĠO regon
im pl
em an
") ]
bs erv
Ġstand s
Ġassess ment
Ġvert ical
Ġbel ief
MA X
ĠR yan
New s
Ġconsum ers
Ġinvest ors
hel p
B i
Ġt um
ĠR aj
Ġs oul
Ġreturn ing
l ay
Ġprogram me
ĠG reg
Ġwh atever
sup er
Ġschedul ed
ĠVictor ia
print f
ĠO tt
=" /
pass word
ar on
ip ped
G O
Ġrecover y
ĠM iller
Ġjud ge
Ġconf idence
call ed
new s
Ġres erved
Ġad ults
Ġdecl ared
Ġdrug s
ĠB and
ĠC opyright
S outh
b el
assert Equal
ĠCh annel
Ġmechan ism
ĠPhil adelphia
Ġus ual
Ġapplic able
Ġbase ball
Trans action
ï ¼
Ġco eff
Ã £
ĠG ets
Ġsil ver
ĠAlex ander
Ġd ialog
)) )
li k
ĠOff icial
l an
Ġt ail
e ach
ov al
Ġsever e
Ġc ab
F unc
Ġdeg rees
Ġa id
Ġcontinu ous
are t
Ġf aster
Ġsubstant ial
Ġstat ements
ach ment
ĠComm and
ĠF ord
ell i
Ġar ms
Ġfind ings
ĠO s
eder ation
Ġs pl
Ġhum ans
Char acter
ak h
SI ZE
Ġun able
P res
ĠW at
R S
Ġf at
Ġv ulner
Ġdis pl
Ġperform ing
L ook
ĠP A
sc ribe
Ġstre ets
ĠB ol
Ġunder st
ist ical
Ph oto
ĠStep hen
ĠH o
Ġult imately
Gener al
Ġag ents
f old
Ġw ire
Ġfrequ ently
child ren
Ġoper ated
f ix
Ġaw ait
Ġmount ain
fol io
y cl
wide hat
Ġdest ination
cd ots
def ined
ĠThe orem
ĠAd am
an z
ĠC ook
Ġor ient
Un ited
Ġh tml
ĠB BC
Ġw aves
ĠA rizona
ater n
Ġsw im
Ġd iverse
ĠSh ort
ĠWh ere
ab ric
Ġwe ar
ĠPol and
ĠH ay
ĠGold en
f ly
ĠC reat
th m
let ion
drop down
Ġarrest ed
Ġbuild er
al so
Ġf ly
tx t
ĠB efore
ĠBr ad
ĠTe ch
ug s
Ġc raft
Ġprogram ming
ether lands
Ġunc ertain
ĠN ode
ir th
Ġal ter
Ġorgan ized
Ġpre gn
Ġf iction
ail ability
F iles
ĠP ut
red it
Ġrem ark
t ip
Ġcont est
. __
Ġdiv ided
V E
: #
W rit
ĠS C
Ġsympt oms
t witter
Ġpro spect
ar ry
Ġh aven
se lected
Acc ount
Ġsold iers
RE AD
ut ely
Pl ay
Ġtr ained
Ġres istance
g reen
{ {\
ĠDon ald
Ġ[ ];
", "
Ġexper iments
Ġar bit
Ġb odies
] :
Se lector
ST AT
( !
Ass oci
ad r
Ġprom ise
ĠR ose
q quad
Ġst one
sche ma
ĠA h
Ġ" "
Ġcompos ed
Ġabs or
Ġret ired
ĠPro duct
Ch rist
Ġsign ature
{ (
medi ate
Ġgood s
Ġweap ons
Ġbatter y
C ond
Ġtyp ename
Ġt ack
w all
ty ped
ass ets
ĠL ev
s ur
J SON
Ġad min
Ar ch
u v
Ġgrant ed
Ġse ctions
Ġst ret
Ġseek ing
O ct
sh ift
Ġl ayout
ĠR ight
our se
J ECT
U ID
ĠF OR
Ġend ing
in ch
âĢĻ ,
pl us
ĠP ot
Ġjav ax
Ġc ategories
u able
Ġeduc ational
j pg
ER E
ind u
B rit
Ġtrans formation
n one
Ġs ummary
ĠMag azine
bour ne
Ġsc al
th read
ĠD ead
it is
as m
Ġmom ents
U nder
ĠHar ry
un es
N T
In it
ĠR ome
"> &
M sg
Ġt ight
ĠD aily
Ġlim its
au ge
ĠR a
ag g
l ate
Ġext ent
sc roll
Ġrecomm ended
ĠĠĠĠĠĠĠĠĠĠĠĠĠĠĠĠĠĠĠĠĠĠĠĠĠĠĠĠĠĠĠĠ ĠĠĠĠĠĠĠĠĠĠĠĠĠĠĠĠĠĠĠĠĠĠĠĠĠĠĠĠĠĠĠĠ
Ġco ff
Ġk it
Ġconvers ation
Ġse ats
h ard
Ġc le
ĠWis consin
B as
result s
Pro p
ile y
O M
Ġang le
Ġf n
ĠAr m
}^{ (
oun sel
Ġdescrib es
Ġ Ø
Ġext ensive
om ial
ĠF ind
un ter
IG HT
ĠM arg
ĠW inter
A g
x space
se m
ĠP sych
ĠD ark
Ġset up
@ "
Ġl ie
ĠH ung
mat rix
ĠMount ain
Ġc ref
Ġclos ely
Ġinvolv ing
ĠTrans port
s ave
Ġ io
Ġext end
arg ument
ĠAdministr ation
ĠC P
er ic
ivers ary
Ġn ut
Ġus age
Ġex ceed
b ell
C F
i ated
! "
196 3
ĠRes ource
. ~
ĠM D
Ġelect ron
im it
Ġde ploy
Ġg ap
Ab stract
ĠDi ego
T erm
que ue
Ġinv alid
Ġbr ands
Trans form
bl ack
ĠF A
Ġex ecution
) ">
Ġinst ant
ĠB ru
" `
fl ags
Ġ( _
arr ing
ĠDes pite
Ġocc asion
Ġobserv ations
ab il
ĠDe ath
Ġd uration
dom ain
Ġnewsp aper
ĠC urrent
) ).
ĠB rian
Ġput ting
iz able
It ems
Ġhost ed
Ġc ards
Ġex it
Ġperform ances
Ġb aby
ĠG er
ĠMan ager
Ġfe e
Ġhundred s
Ġassist ant
h y
ĠÂ ©
Ġb ought
Ġg ene
ib li
ag u
() ));
m ove
Ġattempt s
Element s
Ġvisit ors
Ġtop ics
196 2
ud es
ĠO ption
} |
sk y
ĠSt adium
n orm
Log ger
ĠS ydney
Ġconcern ed
ĠE mer
sh ips
Ġd b
C ategory
Ġleg islation
Con str
Ð ´
ĠEnter tainment
194 4
Ġpost s
ĠW el
includ ing
ĠC ulture
ĠM oh
Pro xy
app ly
ĠSen ior
con nection
Ġaccur ate
ot ion
is ition
ĠN ations
lo om
Ke ys
D ay
ĠB C
() ).
Ġind eed
An other
it ut
ag an
ig ate
ad ed
L INE
ĠPro t
Ġcalc ulated
ĠL ady
Ġeffect ively
ĠSystem s
r at
Ġeval uation
Ġass istance
ĠÂ ·
ok ed
Ġequ ations
Ġp roud
is ode
m ad
Al though
ã Ģ
pr imary
EX T
ĠB u
Ġexpos ure
ĠBl ock
Ġ Å
Cl ose
Ġsol o
Ġm ess
ĠB udd
Ġwas te
pl ugins
ag raph
ĠD NA
Ġaccom pl
el i
ĠHe art
ĠPh oto
}^ \
Ġsubsequ ent
F ind
ou ri
Ġb inary
ĠG h
)) );
ic ians
Ġtechn ique
Ġch ampion
w atch
press ed
Ġr h
Ġask ing
in her
Act ivity
X T
L o
Ġh all
are a
o en
Ġsing les
Ġcharacter istics
Ġint ent
18 0
it als
Ġsustain able
Ġmov es
ĠBuild ing
Ġcont roller
ĠCh all
os itory
Ġmanufact uring
Ġag greg
ail ure
Ġfl u
Ġgu est
ic ide
text width
Ġstrong ly
ĠE ric
Ġf estival
Â ®
et ary
h av
Care er
Ġwill ing
ĠB ox
ĠC ovid
Ġexerc ise
& =
th rows
ub s
met adata
ĠBel g
iam i
Fl ags
fort unately
Ġlett ers
Ġenc ounter
istribut ion
ĠĠĠĠĠĠĠĠĠĠĠĠĠĠĠĠ ĠĠĠĠĠĠ
Ġv ess
Ġap ps
Ġ( @
anche ster
al g
}) \
ident ifier
Gener ic
Ġdeb ate
In v
} :
ĠV eg
al ty
Ġfac ilit
D avid
}_ \
Ġapp end
Ġindic ated
en umer
b ot
Ġscen es
ri ate
ĠL iter
Ġwar ning
Ġofficial ly
Ġprov ed
ĠCon fig
Ġas sembly
appro x
Ġenh ance
âĢĻ .
Ġp owers
Ġadvert ising
rodu ction
ast s
Ġposs ibility
op ed
ĠCl oud
ensure math
ĠL ie
ĠB at
end or
Ġprinc ipal
Bl ack
Ġshe ll
Ġdist ingu
ĠInst ead
Ġfac ulty
Ġcapt ured
H P
pro to
Ġb omb
iter ator
ĠHou ston
Ġform ula
M ich
ĠPro te
if iers
os ed
ier arch
Mem ory
pro fit
ĠK evin
Ġf unc
p ay
T ABLE
Ġs yn
Ġdanger ous
igen ous
block List
Ġag encies
hold ers
Ġpercent age
Ġdestroy ed
Ġt aught
ĠA C
Ġr ide
Comm on
}\ ,
Î ±
ĠAl li
Ġ[ [
Ġtarget s
ĠSt ock
ol i
Ġinnov ation
O UT
Ġcur ve
Ġpar allel
A nt
DE BUG
Ġexpl an
Ġprom pt
Ġwor se
Ġwor st
Ġm outh
Ġincreasing ly
lection s
ennes see
Ġtro ops
1 30
ĠScott ish
Ġscient ists
L java
A ng
du ce
++ ;
Ġappre ci
ang ers
ĠSh er
ist ing
ĠC R
Ġpro port
ag en
Aut o
a ire
inem a
Ġentertain ment
ax is
aw ay
Ġn ob
Ġax is
Ġfunction al
Ġre ct
Ġpr ime
ific ial
ĠAr gent
Ġemploy ee
) ),
y ers
it ivity
Ġphen omen
Iter ator
Ġm atters
Ġmin im
ĠR eb
ann y
c b
S ports
ĠHot el
Ġher o
Ġs elling
In ternational
W est
ĠG allery
Ġper mission
Ġrisk s
Ġdec ide
rop ical
ĠCap ital
ĠEd itor
ĠL es
Ġcon vent
S pace
gress ive
ĠCont in
ast y
ï »
Ġd rawn
Ġwin ners
ĠS i
Ġd ataset
U SE
W atch
ĠPro perty
let ter
ĠT ra
Ed it
hand ler
m ask
Ġresult ed
Ġpurch ased
ĠS D
7 00
ig a
ers hip
W R
iv ated
Ġoper ate
iv als
or iginal
Ġout comes
Ġparticip ate
Ġprop ag
Ġab andon
c ers
c raft
ĠHol lywood
Aust ral
ick ing
g ments
Pr int
ĠS a
Ġso il
ing ham
ĠI V
Ġab use
Ġlist ing
ĠJ enn
Ġh ook
pro perties
ĠPro p
ĠMod ern
ĠP rize
Ġload ed
Ġop posite
ĠB E
F R
Y our
off s
Ġp un
w hen
pos itory
Ġpotential ly
o ices
Ġhealth care
es ome
Ġte en
Ġrequest ed
Ġvis ited
ĠOlymp ic
ort ion
Ġinteg rated
Ġsk y
G raph
à ®
Ġpass word
ĠPl ace
ach er
igr ants
m aterial
ĠI owa
F IG
T otal
ç ļ
() {
Ġhor se
Ġeas tern
ĠE V
Ex pr
Ã£ o
ĠL at
f lix
as i
Ġh its
ĠBr idge
ĠF all
v ing
ĠRec ord
Ġproper ly
ĠChar l
Ġsup erv
rit ical
Ù Ħ
Ġfac ing
Ġwel come
A ug
rec ated
Y es
ĠKore an
n i
om atic
Ġth reshold
u ction
Ġvel ocity
n umer
ĠK at
Ġleg end
Ġcre ates
Prot ocol
Ġd ates
up l
ĠDemocr ats
12 5
Ġben ch
Ġcommit ment
Ġspe aking
Ġfl ags
Ġl es
Ġpl ate
g i
ĠN etherlands
ĠAn alysis
all as
ĠD ream
ĠK ansas
Ġfeed back
Ġcap able
Ġlo an
ĠJ am
Ġg ift
ĠAg ency
Ġr aces
ĠT ai
L eg
VER SION
Pl ugin
Ġexpl ains
C am
Ġprov ince
196 1
ĠIO Exception
ch annel
anc ell
ĠĠĠĠĠĠ Ċ
I mp
ok ing
P lease
ĠA mb
B en
ï» ¿
ĠR oll
ĠU l
ĠStud y
st ances
Ġm o
math sf
Ġcomb at
çļ Ħ
Ð ²
Ġpro f
oc he
Ġexc iting
Ġ\ {
Ġexp ensive
ĠFin ancial
qu arters
ĠPr ivacy
Ġclass ification
N ULL
S QL
acc ount
Ġop position
Ġsp oke
re ll
h us
Ġim plies
e ah
ĠGr ant
Ġt err
ch a
ĠJes us
H z
ĠC ond
ĠB alt
plic ated
em ony
Ġk illing
Ġhon est
end a
Ġd iversity
Ġm it
ĠCon f
el lect
Ġm ob
Ġwalk ing
W ell
Par se
F in
194 2
Ġpro fit
Ġunder lying
M usic
t mp
az a
d em
Ġbeaut y
ĠN AS
ĠL ind
ĠAff airs
Ġdec or
IT E
Ġinter actions
ĠStand ard
param eters
ĠOr iginal
Ġsubject s
Ġy ellow
onom y
Ġsuff ered
k w
ĠAtl antic
Ġestim ates
ĠPr inc
az e
Ġdynam ics
er d
Ġpromin ent
Ġcop ies
man ager
semb le
Ġpil ot
Ġtransfer red
Ġstr ings
X ML
cont roller
Ġtrans mission
Ġtype of
old s
Ġdef in
Ġland scape
Ġche m
Ġb anks
Ġal ert
ĠS I
el le
Ġenc oding
Wh o
ib ilities
gorith ms
in f
Ġfor g
A pr
Ġc m
Ġimmedi ate
Ġsurg ery
d x
Ġinfe ction
ĠS ound
be an
Ġfr anch
Direct ory
Ġde bt
ĠĠĠ Ċ
Ġimplement s
Ġent ries
ĠE P
Ġmet ric
t otal
ĠC orn
pre c
Ġste el
eng ine
ĠCor ps
ar ity
Ġsp r
Con n
ĠS ource
t w
Ġprior ity
Ġel ig
Ġup coming
Ġso le
Ġ$ .
app oint
ro le
Ġthought s
ĠPl aces
Ġmatch ing
Eng ine
Ġter ritory
RE S
Ġpers ons
}} (
O pt
Load er
F ilms
N C
ug ar
Ġmod er
s ince
195 8
Ġst im
ĠT ony
Ġch apter
ĠB h
Ġe le
}\ \
Ġarr ang
Ġadd s
d ist
y ou
gh an
M r
Ġrefer ences
Ġbo ys
Ġintrodu ction
dep th
ĠPrem ier
t le
ĠAust in
Ġtalk s
Ġmiss ed
M icrosoft
= (
ĠS av
Å Ĥ
Ġvict ims
t wo
Ġcour ses
Ġg ained
Ġt ough
Ġw alls
Ġhe nce
ibr aries
Ġtrad ition
O F
ĠS P
Ġen v
P ay
ov en
Ġs aved
an while
Ġtw enty
Ġd ict
Ġsubsequ ently
ĠLew is
T ok
Ġrepresent ative
ĠO w
Ġcrit eria
ĠFr ont
Ġvot ers
z ero
Ġsc ores
ze ch
ad i
get Name
ĠV ice
Ġdr ag
Ġ( +
contain s
Ġsc ulpt
Se lected
ownt own
S ocket
Ġv ice
j an
Ġexhib ition
P anel
Ġcompl iance
omet ric
clos ed
Ġver ify
195 6
=" ">
Ġs ending
iss ues
Ġemot ional
ĠR oss
ĠL ater
S Y
195 9
ĠN a
i est
ĠS ite
ĠIm m
p res
Ġmeasure ments
Ġprep are
Ġb ands
G C
L ayer
Ġfund amental
[ $
Ġinteg ration
ĠG ree
ĠS ix
art icle
R AN
j u
Ġpl enty
Ġst rip
Ġg ate
Ġmonitor ing
Al so
rib ed
P N
ĠS quare
'] )
cept ions
c us
Ġcompos ition
Ġnav igation
ĠFore ign
ĠĠĠĠĠĠĠĠĠĠĠĠĠĠĠĠ ĠĠĠĠĠĠĠĠĠĠĠĠĠ
Ä į
per ial
ac ent
ĠL anguage
Ġassum ed
pl atform
Ġtrans parent
Ġtrans lation
ord on
ĠD ocument
Ġv irt
19 39
IN D
}} {\
D ouble
arg o
Ġaccom mod
ĠT ax
ul us
M ake
ĠJ ordan
Ġaccess ible
L in
Ġas ync
if def
ĠP itt
S M
ĠSk y
Ġsu it
Ġl ists
ain ian
ĠP u
Reg ion
Ġin fin
ĠS ab
or ne
ĠI L
12 3
Ġp it
UT F
Ġm ine
Ġv on
Ġwrit es
bo ost
Ġin hib
Ġw ing
ĠC ab
ĠH ash
Ġdoll ars
194 8
ĠH ur
At tr
ĠT reat
F eb
ane ous
B L
h ol
ro c
Ġdis k
g ar
Ġbo at
ur ers
Ġ ip
P erm
O h
Ġpropos al
Ġprovid ers
Ġsc oring
Ġass ign
Ġbro ke
Ġair port
d y
} </
Ñ ĭ
Ġh ockey
for ward
Sc roll
Ġst ake
H er
ex pr
Ġgrow n
ĠPr act
ĠAnd erson
ĠCam bridge
ĠR ow
Collection s
em et
Ġan imation
Ġadministr ative
Ġturn ing
St ar
st ats
Re port
Ġimprov ement
Ġrestr ictions
by tes
Ġcirc le
Ġmill ions
tern oon
Ġp y
int end
h l
âĢ ĭ
Ġ$ (\
Ġatt ached
C ert
Ġre q
ell ite
ĠRev olution
Ġintrodu ce
t ex
Ġcor onavirus
Ġpract ical
ĠPol ish
Ġv ast
put ation
ĠIn f
D est
ĠR oy
onym ous
re tt
Po inter
Ġent reprene
Ġp ert
3 60
Ġr g
en ess
Ġout come
Ġinnov ative
ĠT ODO
C re
Ġp ictures
Ġfor get
au x
Sh ort
t ers
ĠYear s
Ġpass es
Ġmed icine
Ġr acing
ĠT ennessee
ĠH an
Ġt all
Ġval ign
S ch
Ġcaus ing
195 7
cuss ion
Su ccess
Ġl ots
ĠT ake
Ġreg ime
ĠY es
ĠIndian a
Ð ¼
ĠAcc ount
NavBar Cell
b its
ĠS ri
ĠEd ition
ĠJ ane
Ġst ages
typed ef
sc r
r ations
Ġw ine
Ġgen us
ĠK y
Ġr u
ang a
Ġpubl ish
Ã ¸
R oute
bl og
Ġwhere as
sp irit
Ġir on
Ġt elling
Ġsu itable
Pro file
Ġqu iet
Ñ Į
Ġexpl o
Ġperman ent
form s
Ġp refix
Ġdefe at
ĠO cean
Ġfac ed
ĠTur key
es is
g it
it ative
Ġvers us
Ġh a
ĠUn it
St ud
Ad apter
Ġres olve
o a
Ġcolumn s
Ġemploy ment
b ec
Ġmusic ians
Ġ ..
ĠRes ources
S equ
ĠMar ia
Ġfr ag
Ġappe al
N odes
tool s
ĠF ollowing
ur able
M er
Ġcol le
i Äĩ
O B
circ le
Ġoff ices
Ġrelig ion
ol s
p red
ĠH art
\ '
S ervices
Com ment
U ST
unn el
ĠSh ould
Stat ement
Ġp apers
Ġ& \
Ġque ue
ol itan
ym met
ĠMore over
Ġpo inter
Ġgover nor
Ġro of
By Id
Ġil legal
ol ly
LE CT
( __
iv a
fer ences
ĠMem orial
Ġrev olution
U D
al m
Ġcomp act
194 3
Ġ( -
Ġcompet itive
Ġp airs
Ġd a
Style ID
Ġr ating
Ġe gg
Ġb on
mod ules
Ġal gebra
Ġpresent ation
Ġcover ing
M iss
194 1
key word
Ġeng aged
play er
Ġwhe el
ĠTur k
Ġl at
ĠInd ones
Ġro y
Ġbu ck
ĠLe on
Head ers
Ġdocument ary
Ġcol ors
Ġsc atter
Ġacc used
Ġs weet
195 5
Ġex cess
Ġsurpr ise
v ard
l g
ĠC ore
ri ers
195 2
Rem ove
Ġem issions
m aking
igh th
ust ers
Ġcont ribute
Ġpartic les
Ġenjoy ed
ist a
ĠB ush
Ġcompre hensive
Ġst ood
AN T
U K
h idden
Ġadv is
UR I
Ġdocument ation
ĠSt one
ari ant
F E
==== ==
Ġp ri
Ġemploy ed
M ac
n eg
ĠD uke
fl u
qu ir
ĠL A
Ġm m
Ġim possible
ĠK han
Ġshe l
l ayer
Ident ifier
Ġlabel s
P od
Ġgr ade
op es
Ġmeasure ment
f i
G ame
RE E
tr igger
Ġappear ances
M R
Gr id
ĠH ave
rop y
Ġsup plement
ĠSar ah
Ġinst ances
ĠT ag
ĠTh ose
Ġg iant
Ġchalleng ing
ĠB urn
p ir
view s
l ah
i ot
Ġbre aking
Ġ ðŁ
ĠP ed
N amespace
ĠM it
n il
Ġcircum stances
194 6
s a
Ġs itting
ĠD er
Ġsy nd
ant ry
un ique
Ġinter val
Mat rix
r ig
Ġdis abled
p ubl
Ġ% }
Ġcru cial
IP T
Ġpain ting
ĠE ffect
nov ation
Ġdr iven
ĠQue ens
Ġarbit r
Ġsomew hat
Ġaddress es
Ġp ars
p refix
Ġcoff ee
L en
the w
N orth
Ġreg ulations
M ut
Ġ{ {
J oin
S ER
Ġp ul
t ons
Ġcr ash
w eg
ĠPat rick
Ġf ulf
. [
er os
Sc ale
ĠSwed en
Ġs ph
ĠZ h
Ġcont ents
app y
Ġre pro
Ġign ore
Ġrespons es
Ġappro val
Ġf asc
Ġ> >
To String
ed itor
A CT
ist ence
ĠN ever
Ġdis appe
ateg or
Pro duct
Ġeval uate
Ġsus pect
Ġliqu id
Ġcomp ens
Ġs ight
bl ue
Ġcl ock
Ġvot ing
CE SS
Ġb ott
part y
ĠRail way
pl ant
ĠSil ver
v ideo
Ġtem por
ent ed
ĠĠĠĠĠĠĠĠĠĠĠĠĠĠĠĠĠĠĠĠĠĠĠĠĠĠĠĠĠĠĠĠ ĠĠĠĠĠĠĠĠĠĠĠ
che stra
ĠM un
} +\
Ġveg et
ĠLem ma
ĠViet nam
Ġmain tenance
Ġr ising
Ġl ift
Ġ ).
On ce
ĠJ ay
Ġle ct
IN S
Ġjournal ist
Ġcol our
d am
ĠO S
Ġs oci
} '
Ġf aces
Com par
edd ed
194 7
ĠS uch
spec ific
( {\
Ġbehavi our
Ġaff ili
D iv
P y
Ġroom s
M apping
olv ing
ĠPart ners
ĠTr aining
Ġhand ling
ĠF arm
F ix
Ġex posed
ĠM anchester
Ġin h
lim it
Ġ ],
r as
ĠL oc
Ġass ault
ĠM iami
com plete
Ġhol iday
Ġprodu cing
and o
att ributes
ĠDef ense
ĠA thlet
ĠArt icle
h ide
ank a
Ġfound ation
ĠP O
az y
Ġpres ents
ĠO ak
TR UE
ĠReg ional
u ating
ĠNiger ia
Ġcomp ute
j query
et ies
ĠB ry
ĠTr ail
ĠM essage
b at
Ġext reme
P ATH
Ġsol ve
Ġprofession als
Ġs av
Ġbe ar
Brit ish
de cl
Ġcon version
ĠSc ient
p ur
ĠFinal ly
s witch
Ġre ar
Sup port
ĠBow l
v o
ant e
Ġde pos
ĠSim on
Ġr ig
ĠHarr is
Ġtrad ing
Ġrad ius
ĠPhilipp ines
F ailed
lo or
r ons
En um
mut able
Ġs ought
ĠP ier
Tr ace
com ponents
ĠR oute
ip ping
ĠSt ore
Ġse es
ĠN ative
Ġpod cast
Ġdevelop ers
Ġden ote
osc ow
Sy ntax
z o
Ġdes ire
Ġb inding
c pp
a ired
Ġcan cel
b rief
Ġstrateg ic
Ġwe aring
Ġbig ger
ĠD or
Ġconstr aints
| ^
M c
> :
sk i
Ġ ur
E V
Vari able
Ġmed ian
we ek
195 3
i ology
Ã¡ n
ĠP S
Ġpromot ed
M s
Ġb es
ĠW AR
Ġl ayers
L ife
E P
Ġinter ior
=" @
Ġl yr
ĠMary land
Ġconcent ration
ĠAll en
Ġinj ured
Ġdest ru
w ing
Ġconvert ed
Ġxml ns
] $
ĠDo es
Ġsp atial
ĠCap tain
Ġrel ax
Rev iew
Ġobject ive
Ġjoin ing
uck et
Ġreli ef
E p
ip her
AD D
Ġpl astic
Const ants
Ġ âĢĻ
C RE
Ġc tx
web pack
ell ar
Ġfootball er
Ġed ges
Ġinv ited
Ġs ad
P refix
Ġdi pl
ĠSm all
Ġf ake
Ġcopy right
S ync
ech o
ĠL as
195 4
im ore
ĠM ilitary
00 1
F P
n ie
Ġconsum ption
Ġ{ '
Ġd ual
wit zer
ĠRequ est
ĠĠĠĠĠĠĠĠĠĠĠĠĠĠĠĠ ĠĠĠĠĠĠĠĠĠĠ
Ġconst itu
Ġal cohol
head ers
Ġt ensor
out heast
He alth
ĠL android
ect ors
ĠHT TP
Ġhead s
ryst al
Ġpath s
U C
th rough
um ps
ĠM oon
Ġman agers
Ġstream ing
Ġne ither
Ġcap abilities
sv g
ĠN az
Ġmeet ings
ub ble
Ġm apping
Ġpo et
Jan uary
Ġpartic le
Ġcap tain
Ġy es
AR D
Ġr id
ĠBl og
t or
Ġnot able
Ġdemonstr ated
Ġfor th
Ġinj uries
enn a
Ġcontribut ed
Child ren
ĠMo ore
ĠSt ream
in cess
st able
Ġf ruit
Ġse vent
un ning
Ġdisplay ed
prot ected
olog ists
z y
ab ama
ch ant
r ift
ĠIndust ry
Ġregular ly
' ));
Ġ[ ],
Ġcho ices
cos ystem
R T
rior ity
Ġ- \
Ġph arm
C oll
ache lor
Ġabsol utely
â Ħ
Ġbeliev es
Ġsize of
col n
}} ,
Ġdise ases
ĠWalk er
ĠN orm
pre v
config uration
" /
Ġdisc rim
Ġcomplet ion
ri k
ester day
ĠV i
ob by
v c
clos ure
Ġh ole
ĠB uff
Ġex clusive
C opyright
ams ung
Ġmoment um
ĠTr avel
ack ing
ĠE ver
ab out
ren ce
res et
ĠAp plication
ĠT en
Ġref ers
ĠPal est
= -
Ġbu nd
B egin
Ġsc r
Ġlaw yer
ook ie
S ur
Ġproced ures
j unit
H A
umm y
ĠJac ob
no indent
ce ive
Ġgr ass
194 9
i ary
V olume
Ġdis miss
w ill
ĠEar ly
Ġt icket
) ->
t ic
ch anged
Ġsub sid
Ġb in
ĠB Y
Ġdes ired
ĠCl ark
Ġeng agement
ĠR ound
Ġund ert
C ent
} -\
cept or
or ry
Ġrank ed
Cl uster
Ġtri als
ex ists
Ġfe es
fil ename
re ens
Ġgu ests
Ġfra ction
ĠMr s
s uch
Ġj ur
Ã© e
Ġ" ,
witzer land
Ġinter act
m akers
Pol it
Ġtrans actions
Ġqual ified
ĠHaw ai
Ġbird s
ĠRef er
Ã º
LO CK
roph y
ĠSur vey
se a
s is
Pro ps
Ġp iano
Ġm ail
ĠW as
Ġcontinu ing
pat tern
ĠJ oh
roll ing
Ø ±
Ġm eta
Ġsur ve
Us ing
S ingle
Ġre in
nd ef
B P
ĠMiss ouri
M arch
L ike
GB T
U ri
Con f
emet ery
ter y
Ġparticip ated
iz on
h space
Ġg arden
og ram
Q U
S eg
Sim ple
Ġaware ness
C r
Ġf ault
ĠW IT
Ġdes cent
." );
Ġmet adata
D b
ĠEx press
Ġag ed
Ġlist ening
Ġa st
Ġreg istration
Ġmunic ipal
Ġguid ance
ĠAd vent
Ġw indows
Label s
Ġdet ected
TI ME
st orage
Ġanaly z
Ġop posed
ĠG ab
Ġdistrict s
ĠD ave
ĠSe attle
HT TP
d on
ub a
ĠG ard
}} }
AL SE
Ġaim s
Ġpresident ial
Ġm g
Ġsub mitted
J ava
ĠAm ong
ĠDet roit
A E
m ont
Ġant icip
ĠSe ver
ot ten
Ġgrad uate
ĠTr ade
Ġd ire
ĠJ osh
Ġsent ence
CA A
on al
Ġpre ced
ĠT E
Ġwonder ful
ĠAnth ony
! [
ic he
ri ends
Trans port
ou st
Ġkn ock
ĠE ag
B B
Ġimpress ive
def inition
Ġmag ic
Ġo cean
Ġk il
B el
-------- ----
Ġgrad uated
ĠArch itect
Ġfact s
Ġd uty
ĠRepublic ans
Ġdi agram
ĠK al
Ġtrend s
Ġrepl acement
Ġl ib
secut ive
Ġcommun ications
Ġacc ord
Ġaf ternoon
Ġb tn
Ġabs ence
Ġfra ud
ink ing
ĠMal ays
Em ail
G P
Ġ" <
Ġstreng then
v space
Ġinfl ation
ir ty
in os
Ġdraw ing
Ġscen ario
$ }
d one
ow ed
Ġnuc le
Ġheav ily
Ġm ouse
F amily
Ġg aming
Ġvot ed
Ġbre ath
ac o
ear ing
st ers
ep ing
Ġch ose
T ele
aw are
Det ails
Rep ository
IT ION
ne q
over ty
Ex ecut
Ġval uable
Ġb rown
che ll
Ã© s
Ġmembers hip
Ġtemper atures
L I
R h
ish ment
ĠAg ric
Ġs ed
Ġhor ror
viron ments
sh adow
Ġo x
/ .
P i
tab s
Ġw ound
Ġcorre lation
ĠC ow
Ġs in
ul i
th on
S am
Ġpro xy
Ġd ies
ĠC ancer
Ġreason able
Ġreach ing
r g
det ails
par a
ellect ual
ĠY outh
Ġencour age
Ġpick ed
ĠCont ent
E urope
Ġbe ach
Ġb oot
ur ches
Ġen um
Ġpol ar
ĠAf ghan
er as
ĠAr k
ff ff
FF FF
ĠB arn
ous es
, '
Ġder iv
ĠN ich
Ġconstruct or
ick y
Ġtem porary
ĠÐ ¿
Ġv ocal
raz y
Ġst yles
P D
w ich
ĠL ib
or er
ĠCast le
Ġg am
i Ã³n
Ðµ Ð½
ĠI E
Ġhard ware
19 00
F ore
m ac
i op
er on
ct rine
Ġnarr ative
Ġen forcement
Ġatt orney
Ġrob ust
Ġf lying
ĠN ev
######## ########
Sym fony
ang el
Ġen emy
ĠH al
il st
Gener ator
iffer ent
Ġinvestig ate
ĠP ack
Ġtit led
Ġtown s
ĠPl us
ĠP rom
ĠB ab
Ġnov els
Ġdiscover y
Ġatmosph ere
ĠPr ivate
Ġun us
Ġwork er
Ġrapid ly
el son
is ations
cit et
âĦ ¢
og ene
p arser
Ġf ib
ĠĠĠĠĠĠĠĠĠĠĠĠĠĠĠĠ ĠĠĠĠĠĠĠĠĠĠĠĠ
Ġh ur
Ġloss es
j Query
E ven
yn omial
ĠN atural
Ġmin ing
Ġb are
Ġiniti ative
ard o
å ı
Ġredu cing
Ġt mp
Ġmin imal
Res ources
En ter
D uration
ĠVeg as
Str uct
Ġweek ly
osp itals
per or
195 1
ĠK elly
ro ck
prot ocol
Ġhousehold s
w estern
ac on
ĠD og
Ġprinc iples
ag h
V M
ĠH ttp
Ġfarm ers
Ġs izes
ar o
ĠInt eger
us cript
and al
est yle
Ġacknow led
W omen
item ize
Ġfall s
Ġmod es
19 36
inal s
Ġtransl ate
op ic
own er
19 17
Ġdim ensions
riev ed
D elegate
Ġcent ers
Ġcy ber
Ġtransport ation
ĠG P
N amed
Ġcon j
\ ,\
ĠAnn ual
Ñģ ÑĤ
ĠV in
i ations
Ġnecess arily
wrap per
Wrap per
Ġanc est
ĠCh ap
Ġinform ed
Reg istry
Ġsim ult
Ġex ecute
ac ht
Ġem ission
) +
ot te
ĠD allas
Ġhapp ening
Ġla id
ĠE c
19 18
Ġpoint ed
Ġdesign s
Ġowners hip
ĠN ik
ĠD id
are st
U V
Will iam
Ġst ability
ĠP ur
Ġpull ed
Ġt ries
ser ial
Ġassert That
AT ED
ĠPr int
ĠF ROM
ev al
Ġe igen
st e
p air
Ġapparent ly
ĠSaf ety
St ats
ĉĉĉ Ċ
weg ian
Ġcer emony
on na
ol y
ĠLear ning
as hes
Ġvict im
Ġd ating
U LE
ĠMex ican
or ous
pro ps
Ġg auge
ul ous
ĠLim ited
Ġthe atre
Ġ" -
{ $
under line
rupt ed
Ġf ired
v ia
Ġop ens
ĠEconom ics
ĠAuthor ity
t ags
o is
St op
b rowser
p u
Ġb its
f x
ĠHol y
Ġfl ux
display Name
Ġe ase
ĠTok yo
ĠLO G
B rowser
Ġ rows
P ress
p icker
Î ¿
Ġfranch ise
ĠU I
r andom
ĠMel bourne
Ġw er
ĠG il
log ger
ĠSt ill
pl an
om ot
ĠT el
=" ${
Ġn urs
C ity
el and
ĠC op
ĠAr thur
l ass
Ġant ib
ĠR ey
ry ing
Ġal ive
as p
ig ious
En umer
33 33
lah oma
ĠP od
ĠC a
. ",
Ġvert ex
in ar
Ġengine er
Ġroad s
) {\
l u
Ġtr ace
AN CE
ort ed
w ick
prov ider
Ġill ness
lo yd
C ross
Ġent itled
st an
Ġrestaur ants
RE G
', '
ĠC S
om as
on i
Ġaut hent
S ong
ip h
Ġpar liament
OR Y
ĠJ ason
Ġth in
Ġcon clusion
ĠM as
le tt
ĠN ature
d p
unic ode
ic ut
n odes
ĠP a
R ole
Ġl ands
Ġb id
ĠT al
ĠB ah
Ġmor ph
ĠTh er
ul um
ĠD ick
Im port
v s
ĠM icro
Ġexp at
M OD
Ġl ux
ĠB an
ĠH old
P ersonal
ĠM oscow
Ġopt imal
Ġw aters
Ġi Phone
ĠNet flix
f d
Down load
B M
ĠRes ponse
Ġbro thers
ĠS N
ac cept
ra h
En vironment
ĠJew s
en abled
Ġcarry ing
Ġmaintain ed
Ġreve als
ĠStud ent
Ġguid elines
1 12
ĠB ureau
arr ant
ĠS port
ĠFurther more
Hel p
ĠEnvironment al
f c
Ġt act
Ġin tern
ig e
F ORM
ex pect
B ased
] \
ĠAnd re
- $
ts d
P Y
P G
ĠMar ine
cover y
Ġeng age
rop olitan
~ $
em ia
Ġstrugg le
od ge
b urn
Ġparticip ation
un ior
Ġst ead
ĠStud ents
am az
ĠPhil ip
Ġ' <
ĠK a
ĠM aterial
ĠGree ce
y cle
Ġvis iting
Ġmunic ipality
) }{
id x
Ġtr ouble
en able
Ġposs ess
Ġfore cast
Ġto x
Ġt rib
rib le
Ġfin ance
N ative
Cl oud
Ġsit uations
Ġs essions
Ġun iverse
Ġv it
ĠNe ed
Ġm arg
irl ines
> ::
L anguage
ĠT alk
ĠE uro
ĠF ellow
Ġ{ "
19 38
ĠA SSERT
Ġmark s
l arge
ĠG arden
cer ning
h our
Ġdis appoint
Ġc orn
Ġre ward
ĠHow ard
ĠVal id
Ġb acter
ĠIn v
Ġprinc iple
Ġprov ision
Ġa ver
Ġdef ensive
Ġw ond
k top
ĠW H
Se lection
G ood
or ient
Ġref used
F ramework
ĠT ool
Ù Ĩ
in th
od a
ĠRes ults
Ġacc um
gener ated
oret ical
Ġleg acy
: \
atur ally
ĠE R
ubl in
ane ously
S ummary
tes y
Apr il
ĠS n
Ġsurpr ising
ĠF a
Ġgovern ments
ĠA st
Ġh ide
N ET
ut ter
Ġexpl os
T F
A I
con n
Ġal gorithms
Ġro se
Ph il
( @
S an
Ġchild hood
F act
ĠTh ird
Ġpay ing
room s
ĠLa ure
Ġrele ases
ry ption
Ġclos ing
Ġexecut ed
ĠR O
Mich ael
anc hes
ĠD ise
Dom ain
ĠJ ob
Ð¾Ð ²
A Y
Ġhe ll
Ġout er
ot ing
Ġfriend ly
omet imes
A li
Ġany where
ME TH
ĠN ic
Sh ape
P aul
sp ir
ĠD ur
op ts
s ol
Pl ayer
Ġreli able
Ġcompet e
Ġoff ensive
ph ony
T oday
aps ed
ĠH op
Ġp up
ĠJun ior
Ġsh ots
ĠS QL
D an
) }$
Ġmat hemat
ĠM eg
mult i
l ibrary
Ġadvent ure
im m
ĠSt ew
Ġlow est
iv ial
Ġprefer red
ĠMov ie
Ġw rest
Ġh ate
Ġtot ally
ĠB ull
ather ine
Ġvalid ation
Ġsim ulation
A gent
ĠSwed ish
Ġcon crete
Ġc atalog
ut ies
Ġcons ervation
end ment
Ġexplan ation
Ġse lector
W in
Ġco aches
Ġinvolv es
Ġspec ify
¬ Ļ
clud es
Ġpo etry
Ġar c
( --
M ill
Ġanal ys
N G
oen ix
Ġhas n
ĠH ans
Ġslow ly
AS H
ĠIsrael i
Ġhost s
ĠL ag
Ġg uns
ex ternal
Ġsens itive
Ġdisc ipl
Ġf irms
Ġold est
aud i
Ġ _{
Ġpay ments
F ollowing
G reen
ĠF ederation
Ġgl ob
ap olis
Ġman aging
e lect
II I
f red
Ġu i
s ome
Ġrout es
Ġref uge
ick en
ĠMem bers
ĠFin ance
â ĪĴ
z h
ĠP os
wh o
B et
ĠG all
L Y
gl as
Ġro ots
ĠTh anks
Ġpop ulations
Ġexpect ations
face book
Ġpl ugin
d ers
ĠC ert
ĠW y
Ġcon secutive
Ġfl uid
O ld
Ġvari ant
og a
Ġâ Ĩ
Ġopt ical
Ġshop ping
St and
J une
r ays
CO MP
ĠIslam ic
Ġattempt ed
ĠKent ucky
ĠPh ill
Ġs ick
du cer
at on
iment al
Ġl ake
F LA
i ors
ĠAtl anta
ĠB att
ip pi
R ob
Ġhead ers
1 15
Ġup load
ĠLeg isl
ĠWh it
ĠM ust
qu es
ĠLab our
Ġsub mit
Ġpromot ion
R ich
t i
Ð° Ð½
ex tern
Ġsh r
Ġtr ains
lo op
index Of
ĠAl abama
ĠMor gan
Ġacqu isition
ĠRober ts
19 37
ĠAN Y
ĠCl inton
Ġhyp othes
p ub
Ġrespect ive
Ġh am
Ġd at
ĠAtt orney
form er
ĠE ss
ĠHigh way
ut enant
ĠD ub
ĠG row
Ġg ang
10 5
Ġke eps
cond ition
ath y
work s
Ġdo se
Ġab und
ĠUkr ainian
ĠT ree
b et
Ġessential ly
ĠP as
Ġbeh alf
AN G
Ġunderst ood
Ġrg ba
Ġocc as
Ġde als
build er
ĠC zech
Pro gram
Ġdemonstr ate
Ġsl ot
ĠS witzerland
Ġloc ally
enumer ate
ib l
Ġdecl ine
Ġdesign ated
j ob
us al
ĠSchool s
âĢ¦ ]
Ġe q
UN D
y g
Ġcom ic
hor izontal
level and
co q
Ġsepar ated
The ta
T T
Ġhy brid
ost ics
col lection
Ġwebs ites
om er
Ġtem p
Ġ ri
Ġpass engers
Ġres on
Ġcirc uit
Ġrough ly
hes is
EN SE
Ġlog ger
Ġad mitted
av al
ĠF ive
mult icol
s ys
H ar
ĠB or
ĠSt atus
ĠF O
d ig
pos ing
Ġpark ing
Ġt x
ĠMay or
Ġdesign er
the orem
Ġimag ine
th row
Ġman ip
uth er
gover nor
Ġobserv ation
Ġimprov ing
ĠVill age
Ġme ets
im p
Ġ' '
Ġfore ach
B ound
Ġh ist
ĠM atch
ĠN ob
d ays
Ġt ables
ĠDr ive
ĠC art
Ġreve al
ĠD un
pro gress
Ġ@ "
k et
Ġb ath
Ġev il
ic ular
ĠRel ations
Ġprem ier
Ġs le
l ad
Ġb reed
Ġour selves
Ġdecre ase
Ġput s
Ġt ur
Ġp ipeline
ĠAn ne
c ases
ĠSer ver
Ġre verse
ĠWhe ther
Ġl augh
ĠProte ction
if ting
it ure
. <
b us
ĠN ap
equ ality
aur a
ik ip
J ames
Ġpart ition
lim its
j ango
Ġsign als
d ialog
Ġin struction
Ġrecogn ize
Ġexpert ise
Ġf ol
R ober
ĠIm ages
Ġcompet ed
Ġf olk
pro d
14 0
Ġd ust
and ed
Ġe cosystem
Ġthrow n
Ġent hus
ĠCo oper
Ù ħ
Ġsche ma
ĠNor way
ĠLin coln
Ġfem ales
nap shot
ĠPr ice
9 00
Ġorgan ic
est abl
Ġsix th
ag ic
Ġtime out
Ġconsequ ences
ÃŃ a
ĠCom ments
serv ices
Ġbur ied
ĠS ex
re port
Ġrequire ment
x is
olv es
METH OD
Ġreject ed
Ġport ray
ĠTh ings
Ġfall ing
ĠB uck
Ġcomfort able
su it
ph y
à ¦
J S
ĠY et
Ġamount s
Ġ= ========
Associ ation
ĠH ence
Ġret irement
S em
multicol umn
Ġgen etic
Ġsign ing
Ġsc an
Cont act
w as
Ġgen re
ram a
Ġfr agment
Ġf old
Ġb old
Ġfl ash
ĠCl imate
ĠD a
ar se
ĠG ib
ct ic
ĠS in
Ġout standing
ke e
Ġmonth ly
us ers
ri eve
end ers
(' .
sh ared
Ġcons ent
Ġpro hib
Ġsurv ival
Ġ[ "
Ġtrack ing
ĠC ape
Ġf urn
F i
19 19
Ġincred ible
ĠAnton io
VAL UE
C lear
ol ars
ĠC T
Ġlimit ations
Ġelig ible
%% %%
Ġregard less
Ġcut ting
it ter
ĠM agn
ex ecute
ĠHer itage
Ġpe er
in valid
Ġsk ill
Ġphys ics
ĠK am
ĠN AME
el ve
err ors
Ġv ital
sc al
Ġperiod s
Ġkind s
ĠSing h
on ce
xy gen
res ources
ĠPl ayer
Ġs ynchron
ĠAd vis
m al
form ed
Ġg ay
ĠM L
ĠWork ing
n n
ors es
ĠCol on
clus ions
> ()
g roups
ĠN BA
J apan
ĠL eb
End point
Ġstrong er
k h
I MP
Ġdog s
19 10
time out
v olume
19 35
Sup er
Ġemb r
ater al
v y
Ġbr on
Ġn p
min us
ĠDe an
ĠH ug
m n
$ _
B Y
Ġreal ized
Ġign ored
Ġâ Ĥ¬
ĠB us
l adesh
ab etes
t emp
Ġrot ation
ĠWeb site
LE D
Ġinteg ral
, âĢĻ
Aug ust
Ġeth nic
et ition
Sh arp
ĠSe lect
Pro to
ver ter
ĠSim ilar
h ot
ĠO pt
ĠB eng
Ġent ering
Ġin structions
Ġcompos er
ap ing
on ical
^ ^
fe ature
det ail
Ġansw ers
Ġhop es
hed ral
ĠUt ah
cle an
Ġbus y
nt il
align ed
ri um
cl uster
Ġpen alty
Ġover l
G over
ĠT a
ĠR elease
' $
Ġcon cluded
ĠVol ume
Ġn ations
s burgh
Ġag es
Ġgener ic
ĉĉĉĉ ĉĉĉĉĉ
al ia
ĠCh apter
Ġsp okes
Ġt ank
Ġb ag
Ġaim ed
ĠAlli ance
Ġcelebr ate
Ġf ails
iev al
ce iver
as ync
Ġann iversary
ĠC row
ĠW olf
Ġr um
L ibrary
10 2
as ant
Ġsn ap
enn y
b ow
ĠK it
Ġchair man
Ġcollect ive
Ġt ied
Ġdis order
ar ma
Ġindust ries
u er
ĠC lear
Ġp seud
Ġfew er
Mult i
Ġsk ip
ĠMay be
Sequ ence
ĠOrgan ization
ĠDel hi
Ġlyr ics
Ġinstall ation
ikip edia
if ndef
A lex
Ġindic ating
=" "
M ask
ĠDo ctor
Ġspirit ual
J uly
W ait
Ġcomplex ity
Ġmach ines
TE XT
m ates
Ġopt s
w ild
ĠH ope
12 7
19 14
ĠAdd itionally
C B
st age
Ġbi as
ĠB ishop
Ġr ival
Ġemer ging
ĠS M
ĠMon th
table block
ĠInd ependent
Requ ired
Ġc a
R elease
ĠRuss ell
ĠTele vision
Ġcomput ed
ol o
bar a
rb an
Ġreal ize
ĠL iving
W I
ĠF il
per cent
Ï Ħ
Ġc up
Oct ober
Ġdiagn osis
Ġas set
ilt ers
Ġ ];
Ġn an
* {
ey ond
Ġrac ial
Pl an
ĠStud io
I gn
Ġentr ance
}} _
amp s
win ning
pe at
D id
ĠW ord
side bar
Ġsing ing
Ġoper ational
ĠM ission
Ġin clusion
Ġvari ation
Ġcl im
ĠAl bert
ĠG ordon
Ġathlet es
m oz
S pr
Cont in
Ã¼ r
Ġserious ly
ĠD ouble
ĠP ersonal
requ ired
Ġelectric ity
Or iginal
m aker
D M
Ad min
ĠTem ple
Ġk ne
Ġarr ival
asc ular
b led
Ġpres c
ene z
ĠAp pe
und efined
fl ag
Ġme at
iat ric
ĠS elf
M ath
ur ities
Ġ\ |
iss ippi
user name
H C
19 33
ĠCommunic ations
ĠB eck
Ġsett led
ĠSte el
In formation
con struct
A K
inc ial
Ġres et
ird s
be ing
ĠB ron
ĠH ills
Ġweap on
Ġannounce ment
S ave
Ġrecommend ations
ĠU r
ĠSm art
lik ely
ele m
Ġt ickets
ĠA le
um ped
F rench
IN TER
Ġs occer
ĠM ort
ows ki
ĠDe ep
Ġtyp ed
ĠD ue
Ġcheck ed
ge on
sup ported
se lector
in ction
aly tics
itar ian
ack ed
T ax
ĠL am
ac ef
Ġtax es
S erv
ĠA G
Ġbl ow
ĠPubl ished
Ġav ailability
ĠRes p
we alth
Ġnorm ally
Date Time
Ġpred icted
ious ly
ĠP red
Ġatt ribut
ĠEx p
Ġwat ched
k t
Ġlist ener
ĠD ak
pro xy
ĠO d
Ġpublic ations
Con nect
Ġpl ain
Ġb le
Ġuncertain ty
AT CH
ĠRes erve
id al
Ġunivers ities
iv idual
Ġlog ic
ĠBalt imore
S ing
Ġthous and
Ex ecution
De cember
Be an
Ġinst itution
Û Į
fe ed
Pass word
oc a
u j
Ġb atch
Ġad s
ON G
Ġdirect ors
Ġre act
ĠAut o
Ġin ject
ĠH amp
19 34
ĠPer formance
M al
ert o
Ġstret ch
ud a
Ġfant asy
ĠTh ough
Ġinterview s
Ġmechan isms
ra ig
the me
Ġb ind
ounc ed
Ġp rize
Ġnull ptr
Ġshort ly
Ġn am
Ġthe orem
Ġtem ple
Ġsub scription
Ġconvent ional
ĉ ĠĠĠĠĠ
ache l
Pro gress
ĠW rite
em ies
Pr ivate
Ġequ ity
ĠChe m
Ġdeal ing
ĠV irtual
Ġp arser
F ocus
ĠH D
ĠBr un
ĠSh op
Ġb io
operator name
Ġask s
Ġr ational
ĠMarket ing
iv ia
Ġh at
ok er
F ilm
Ġt ags
as sembly
M IN
ogn itive
Ġphil osophy
Ġcent uries
Ġtouch down
C ard
D IS
Ġcoord inates
ĠOk lahoma
Ġtarget ed
Ġw edding
ĠV ari
Ġliter ary
Ġo vers
er k
V P
Ġprov en
Ġanal og
Ġing red
p icture
ĠE mb
Ġen vironments
Ġt issue
test ing
Ġsuff ering
ix els
ty pen
Ġp ic
ĠEv ents
Ġbu ying
u h
Ġdepend ent
ĠF L
Ġint ention
Ġm ales
" |
ĠL E
ĠP erson
pol icy
ĠStud ios
e a
Ġmy th
ĠS ales
Ġre putation
Don ald
Ġknow ing
Ġind ependence
C reat
Vis ible
un ches
ĠA BC
Ġun f
p in
Ġimprov ements
Ġcomp lement
ys ical
t c
ĠSer b
abl ing
m aven
Or gan
. :
N Y
Ġarbitr ary
ĠM ess
We ek
oc y
Re al
Ġout door
Ġprodu cers
Ġvill ages
10 4
G erman
() ))
EE EE
A SE
ap os
Ġprodu ces
ĠGal axy
ol ph
ĠK l
il ty
b g
var iant
M aster
not es
Ġdec ay
Ġfr ust
eli hood
y y
Ġpro ps
Ġb ounds
19 29
re lease
ĠEx change
ial s
T om
Ġpan els
sh al
av is
Se ptember
ĠD est
Ġsc roll
B usiness
E st
Ġj oy
1 18
Ġarg ued
PO ST
A udio
Ġperson ality
d iff
ĠN ation
Inter val
ĠGirl s
s ch
ĠM obile
ate ur
Ġrece iver
leg es
Ġestablish ment
ĠMed al
Ġwith draw
ĠO bserv
ĠR ab
object s
Text ure
Ġstat istical
Ġmod ules
Ġmin i
Ġw et
Ġp ushed
ac er
? >
m ay
Ġadj acent
Ġcut s
the less
; )
ill iant
Di agn
Ġinstr uments
ST ATE
Ġcorrespond s
Ġinterpret ation
ĠTai wan
ĠPh D
Ġapp lying
S ources
d k
ĠAl an
Ġen ables
w hel
ĠR ace
Ġinput s
Ġlik es
text tt
ren a
ĠChair man
Ġres erve
Ġcons ervative
trans ition
Ġun expected
ĠCont act
Ġfair ly
Ġaccomp an
Ġfocus es
I X
ush ing
ik es
ĠH ub
S pecial
Ġsudden ly
3 50
r ating
pl ier
ĠIn put
Ġto wer
Nov ember
ĠRe act
ort heast
Ġb one
f ish
Ġstr uck
Ġf abric
Ġpublic ly
clip se
Ġc md
Ġr ub
ust ed
Ġpred iction
{ %
á ĥ
ĠC redit
Ġm oth
Ġdeb ug
Ġex ports
Ġhead ed
ierarch y
Ġcon cerning
P erson
test s
ĠM and
Ġn eck
ĠM os
Ġpol ynomial
Ġto ler
ĠBr ig
Ġmolec ular
o i
av ailable
ĠJ os
Ġb ars
typen ame
N or
ol ute
Ġ? >
ĠArray List
Ġrep air
ĠPl atform
Ġpass enger
S N
Ġt aste
ĠX ML
ail and
Ġdem ands
ir ates
ĠPl ant
ble m
">< !--
Ġg olf
ĠR oom
Publ ished
coll apse
ĠB os
ĠAl bum
Ñ ĩ
ĠL GBT
Ġhead quarters
Ġf inger
âĢ ħ
Are a
n p
ĠC ole
Ġcon front
Ġconsider ation
Sh ould
ID E
Ġcl imb
Ġcollection s
Ġstudy ing
res olve
f lex
Ġap plies
ĠBr and
Ġs ons
Ġport folio
enc er
Ġinv asion
Ġv ibr
hel per
log in
Ġar med
Ġf mt
P ers
t body
ĠMc K
Bas ic
Ġpubl ishing
Ġf ought
Ġrad iation
l ined
Ġge ometry
B ind
ĠG ram
s he
Ġl ights
ag ent
Ġrec ru
S en
O wn
Ġint ensity
Ġdo ors
s ingle
Ġb oss
ĠS ac
Ġcrit ics
an im
Ġth ermal
Ġmov ements
Ġattack ed
Ġst ats
ĠBase ball
ĠL LC
19 28
Ġsymmet ry
att ice
opt ional
f ixed
Ġsurv ive
Ġneut ral
L ower
ĠTown ship
i ere
ĠInt eg
Ġread s
ĠP aper
ew idth
ĠComm un
ĠN ash
is d
ĠD im
ĠConnect icut
11 1
sy nc
Ġconcept s
h ook
r uby
ĠB O
Ġmod ify
Ġe ating
ĠS H
S ep
ĠL oad
int ell
Ã ¥
Method s
ĠI C
Ġm igr
P ower
evel oper
Ġvalid ate
. -
Ġ\ "
ĠS quad
Ġcorrect ly
ID TH
ĠC lient
ĠJud ge
ĠB reak
d ates
Ġconsist ing
ĠL ane
ograph ical
comm ons
ou ver
is ely
out ing
Ġc odes
Ġher itage
ĠI ron
ĠV ar
h om
B AR
b es
Fl ag
Ġassum ption
v als
Ġne uro
Ġobserv e
Ġt ip
F n
s n
p ot
ĠL anka
Ġcalc ulate
Ġcolle agues
aj ax
Ġdeep ly
Id s
ĠP i
ĠE nc
il ib
ĠAb stract
m ate
Ġp ione
EL D
Ġstr ange
D en
sl ice
De ath
Ġco inc
ĠW orth
ĠWork s
F M
or se
Ġconstant ly
Ġinter vention
Ġto m
ab ad
id ency
Ġeval uated
Q UE
Ġdel ight
Ġch unk
grad uate
t ail
Ġres idential
Ġmil k
elf are
ah o
ĠY an
Ġbound aries
put ed
Des pite
Ġp overty
Ġdiscuss ions
Ġd inner
vis ible
ĠAn na
Ġreg ulation
Ġident ification
19 32
ĠMat thew
Ġpar ish
iz ers
{ "
ĠF em
is ons
Ġbu f
f actory
ĠGr ad
Feb ruary
ot on
D im
p ull
ind ed
ĠL evel
Ġob lig
intell ij
Ġthem es
c atch
L ear
t ok
er ick
E ffect
Ġst ick
comp iler
re ements
âĢ¦ .
Ġcour ts
om ent
in ian
li est
ĠSp irit
check box
es a
B ecause
ĠK ings
g ood
Ġc ounsel
ĠH ero
< !
Ġ( âĢľ
Ġmay or
ĠMot or
Ġorgan isation
h ave
ĠPh arm
Ġident ical
ĠH ost
C ur
ĠHel p
Ġart ificial
ĠN i
is cal
Ġobvious ly
ĠD ance
u is
Ġ ^
check ed
Ġt ou
Ġrep orter
Ġf est
ĠCE LL
t ri
ext end
ill ery
L android
; }
Ġan th
Ġins ight
z i
L ive
Ġprepar ation
1 16
Ġagric ultural
Ġsy nc
ĠM ock
Ġs alt
T HE
******************************** ********************************
Ġbul k
ĠV ik
Ġload ing
ort s
ic ients
os l
- (
Ġmar ine
ĠP ap
ibli ography
S cal
ĠC ell
ĠSim ple
ĠF ant
ĠAb b
Ġground s
ĠThom pson
s un
f ail
DE FAULT
le ans
Ġresc ue
d c
op ter
Ġrep ly
Ġexplicit ly
Ġsupport ers
Ġinflu enced
ol as
ĠP ast
Ġmet ab
Ġident ifier
ĠM unic
ation Token
Ġre named
l at
mark s
ĠI R
ĠC B
." ""
ĠM C
ĠD ays
\ }$
is en
M ouse
Ġche ap
ĠF le
ĠĠĠĠĠĠĠĠĠĠĠĠĠĠĠĠ Ċ
Ġmagn itude
est one
re nt
Ġcon scious
ĠFor ces
ĠMar vel
Inst all
h ref
ĠSt ories
ari os
ĠAb d
19 22
ĠR ap
Form er
t f
Ġ= ======
æ ľ
ĠS umm
Oper ator
writ ten
Ġt urb
ĠAg reement
Ġman uscript
ĠPe ace
Ġcom plicated
ĠL ang
s ample
act ic
Ġ" $
Ġflow ers
Ġfem in
(' /
Ġrepe at
P resent
Ġde cent
Ġfl ights
S G
ĠAd ams
iter al
ĠChrist opher
Ġprint ed
foot note
back s
Ġm ile
Ġp ace
ĠL ess
Ġj azz
) |
ĠM I
ch arge
Ġcontract s
Ġimpact s
Ġnumer ical
Ġre ly
VAL ID
Ġt iny
ĠBang ladesh
Ġins ights
min ute
ĠH ell
Ġprec ision
ric ane
ĠMic hel
ĠBo olean
Ġsurpr ised
por ter
amaz on
x s
Ġregul atory
ia h
ĠP ear
Null able
Ġcr imes
Ġbi ological
Valid ation
Ġclass ified
Ġd owntown
Ġd ial
th ere
Ġt ub
con nected
ĠC C
Ġ\ (
Ġelect ro
Ġs oph
Ġor al
cc a
ĠF ern
iam ond
" ],
c in
Ġcoll apse
ĠAdd ress
ĠF ight
Ġabandon ed
Ġy esterday
py thon
ĠN CAA
ĠBe at
Ġam id
Ġp ref
ĠB art
Ġequip ped
J ack
Ġnom inated
Ġden ied
ĠD ublin
ĠWal ter
Ġvis its
tr ace
am an
Ġencour aged
10 3
Ġmet rics
oid s
Ġst arring
ur ations
Ġunus ual
Ġhead ing
ĠD J
Ġscal ar
ĠB ased
_ );
Ġpost er
Ġcert ificate
ues e
RE D
Ġf ishing
Ġwalk ed
um ar
at ile
ĠH it
urre nce
SS L
Ġst adium
ber ry
Ġsp ark
ĠIndones ia
t ar
ĠCh ampions
Ġspe aker
ser ies
r f
ĠS W
Ġcal endar
19 27
Ġsup plied
ĠMc G
ĠChall enge
EEEE FF
Ġhigh lights
count ry
Ġsing ular
Ġsh arp
av it
Ġman ifest
ĠJon athan
Ġconnect ing
Ġle af
Final ly
ĠC rown
j amin
ĠLaw rence
Ġhelp ful
O C
ĠP DF
ĠC ass
ĠB io
19 31
ĠG olf
ĠPe ak
ĠM s
Ġstruct ural
Ġh urt
as ma
Ġsup plies
à¤ ¾
F uture
ĠM ars
al ion
ĠHar vard
uk i
Ġcheck s
Ġsat ellite
ĠWith out
ĠAss istant
Ġch arts
Ġh ip
Ġut ility
Ġeng ines
Ġinvolv ement
19 12
H ave
ri ent
Th ree
ĠStew art
pl ot
ik h
Ġmechan ical
SC R
ĠS el
Ġp atch
ĠG iven
D ATA
ĠD VD
ra id
MO DE
Ġbre ast
ĠC ou
19 24
) [
Ex ample
Res earch
ĠCh ile
}^{ -
ĠM E
ĠH oll
Ġcomput ing
own ed
DE F
ĠCr ime
clud ing
h ist
an ing
ĠâĢ ł
at omic
Ġbreak s
Ġch ronic
or able
u ce
ĠM ind
down load
Ġfl ows
U ES
comp ile
Ġnot iced
u et
ex ec
ĠH um
Ġinsp iration
Ġperfect ly
int eg
Ġrespond ed
Ġunivers al
f ather
Ġf unny
ĠTurk ish
Ġsound track
Ġres idence
ĠF ame
Argument Exception
Ġfeel ings
Gener ated
Ġc able
out ube
ax ies
claim ed
pt ic
Ġn a
M ove
C red
Ġcou pling
z ym
ĠOper ation
sort Value
Ġexpat riate
ĠBru ce
Ġent ities
ĠBe aut
19 25
ĠO K
Ġ\ ;
Th rough
Ġfound ing
ĠCom ment
Ġh ired
Ġequ ally
Return s
Ġfle et
ĠPubl ishing
Ġed ited
ĠH IV
ĠDou glas
Ġdo ctors
ĠS ets
ef e
em ed
AR N
Ġimm un
ĠReg iment
ĠDep uty
l ia
Ġr ugby
ym n
ĠKenn edy
ĠAust ria
ĠPlan ning
Ġcomp atible
Ġcharacter istic
Î ¹
Ġrece ives
ĠW ang
W ORD
h ill
rou te
ĠJ ess
get Value
Ġvulner able
Not ification
= >
m ouse
AC H
ĠT ro
Wh ite
P UT
bl ank
Ġb ull
et al
spe ed
19 26
ĠN BC
ĠB ed
Ġres ident
ter ior
ĠElect ric
Ġoff ense
aud io
Com plete
ĠM erc
ĠLeg al
nav List
ĠComput er
ĠC leveland
ĠM aine
ĠD al
wh at
ĠMiss issippi
re v
Ġsuper ior
ĠBet ween
dr iver
ĠTr ack
ĠAl ber
ri el
ĠJ uan
Ġoccup ied
all classes
Ġcritic ism
Ġde put
, .
mem ory
ĠPat ri
Ġra ising
Ġpriv ile
ist ol
ace ut
SE LECT
Ġto k
ĠPal ace
H ub
Ġanal yst
b oy
Ġ_ ,
Ġ' ';
Ġmer ge
Co ord
ĠLouis iana
iver pool
et he
Ġarr ive
Ġsequ ences
L imit
Ġelse where
stand ard
ĠA nc
amb ig
ĠG as
ash i
19 21
ĠV ector
Ġmor al
f g
con structor
Ġ[ âĢ¦]
m c
ann on
Ġthreat s
; ">
ĠW oman
oth y
Ġconstr aint
ĠPitt sburgh
Fl ow
g lyph
ĠD oc
An imation
Ġap artment
ĠR ain
Ġh al
'] ['
ict ional
ĠSw iss
Ġsignific ance
pl er
Ġview ed
Ġthe ories
Ġs ke
ĠFor um
Ġcl ip
Ġ( [
Ġint ellectual
Ġvert ices
ĠRepresent atives
Ġin aug
< \
Ġt ips
ĠG ro
L ight
Ġaddress ed
Ġc ul
Ġkit chen
Ġinter section
Ġearth qu
Ġh ospitals
Ġleg it
ĠD esc
Ġautom atic
hip s
ĠNor wegian
Ġsub sc
(' #
Ġw ider
form ing
Ġassoci ate
ick ed
o j
Ġm art
r in
ĠEp isode
O k
as is
Ġfocus ing
Ġover se
ĠN ep
AM P
Ġrul ed
Ġman ual
ĠN ag
____ ____
Ġbound ed
Ġvacc ines
Ġoper ates
am ous
run time
d uration
ĠB lood
le e
"" "
Ġisol ated
Ġmax im
Ġformer ly
Ġchar set
ĠW ard
ĠAfghan istan
Ġ å
Ġin equality
NavBar Font
Ġm igration
M aterial
ĠB ible
ĠAp ache
Ġg ram
ĠC os
Ġm eth
id o
P al
ĠD B
ol en
Rel ated
Ident ity
l icens
it ations
ĠS ud
inher it
sh a
qu ality
Ġelect rical
I AL
print ln
agon al
ĠArgent ina
Ġguarant ee
Ġroy al
Ġord inary
ĠL com
get Element
ĠBo ys
xi ety
E q
Ġto w
ig s
P air
Ġaccord ance
Ġt one
act ivity
S creen
Ġperson ally
Ġappoint ment
(" /
Ġsim ulations
ĠW right
Ġj u
ver b
Ġdrink ing
Ġn aturally
anc ouver
ĠReview s
t ensor
el ing
Ġshe et
Ġc urrency
r ition
Ġtransl ated
on z
Ġrul ing
iss a
Ġcare fully
Ġsucceed ed
Ġsac r
Ġ" ",
ong o
ĠM other
OR K
Ġdom inant
19 11
ĠPolit ical
Ġbl ank
Ġ' \
rad io
Ġadapt ed
b ing
T X
Ġcrypt o
}} _{
Ġ$ |
ĠL P
Ġrem oval
th a
ass ador
ĠSI ZE
Ġthe oretical
Ġcan n
Ġcount s
ab a
Ġin duced
Ġwor ry
Con stant
ĠD ist
Ġmet ers
Ġjournal ists
D ictionary
l ive
d agger
id el
Ġout break
j et
iss ance
' }
Ġch a
Te am
19 16
p kg
Ġpr on
spring framework
ill o
v i
Ġgreat ly
Ġenh anced
Can adian
Ġl oyal
ĠOr th
10 7
Î ½
N ormal
w arning
Ġmusic ian
ĠMalays ia
' ];
ĠM ut
Ġviol ent
ĠN eg
ĠF inn
Ġbrief ly
ous ing
he alth
ĠCent ury
ĠArch ives
Ġre ven
or us
Ġrepresent atives
á »
19 23
ĠIl legal
M us
G ER
ĠY O
Ã ł
ĠT ar
h al
AR S
P ad
b est
ĠH ad
ĠInt elligence
Ġrom antic
Ġgen es
ĠSen ator
Ġdo i
ĠPortug al
Ġdiv or
Ù Ī
Ġcl ar
Ġapprox imation
Ġfund ed
part s
Ġbas ically
Ġsynd rome
cont rib
ĠD escription
Ġcur ves
ĠM oney
Ġsens or
Add r
Ġvol umes
Ġbe am
th y
ĠH unter
ens is
ĠG un
ĠAnd y
con sole
valid ate
ĠI F
Ġprocess ed
Ġrestr icted
App end
ĠC BS
Ġj unior
Ġcomm ands
lin ewidth
M ount
m ade
Un known
Th row
T w
Ġt ie
ĠT rib
top ic
E val
Ġg od
Ġwh ilst
Ġiniti atives
Ġcomp ilation
Ġup grade
Ġsold ier
Ġcelebr ated
ag ination
al con
STR ING
Ġliter ally
od ox
Ġthe ater
ĠSh ah
ĠK er
Ġde com
os ity
ir i
Ġrestr ict
$ /
Ġpopular ity
ĠN ord
ĠĠĠĠĠĠĠĠĠĠĠĠĠĠĠĠ ĠĠĠĠĠĠĠĠĠĠĠĠĠĠ
Ġterm inal
Ġeduc ated
ext ension
Ġrob ot
ĠBelg ium
ĠSt op
Ġcoord inate
l on
( .
Ġreported ly
s ocket
Ġthink s
ĠF el
t re
opl us
Ġpaint ings
L D
ĠN elson
mer ge
f are
Ġl ang
ur u
} %
Ġc ursor
T x
ener gy
W H
Ġany way
Ġk ernel
ym pt
Ġpro files
Ġre vers
d ark
is an
an imation
Ġover whel
M art
C G
/ _
Test Case
ape ut
Ġc ov
ĠCar ter
aceut ical
ĠCons ider
Ġt ennis
Ġh ill
rypt o
ap is
ĠMethod s
ĠW ind
n ik
ĠChar lie
H on
Ġmus cle
Ġshould n
ĠRob inson
Ġp ub
Dr iver
st o
ur se
Ġfrequ ent
Ġgener ator
qu ote
Ġsymbol s
g ies
Ġdis aster
Ġlaw yers
LO C
A ir
Ġa str
Ġsit uated
Ġlik ed
iff s
ĠWh ich
p read
Ġadapt ation
Ġel der
ab is
Ġang ular
Ġper mit
ĠC G
dest roy
math scr
Ġc ited
Ġ$\ {
ĠPh oenix
B IT
M F
ev a
pl ane
b ors
ĠC SS
ra ke
Ġcampaign s
S chool
se par
: `
Ġan chor
ĠBrook lyn
cd n
ens itive
AR CH
c ia
Ġp ending
Ġsimult aneously
Ġbe er
O lymp
Ed ge
ĠConst itution
Cond ition
Ġte a
ĠRem ove
Rober t
10 9
ĠMar shall
Ġfin ishing
Ġse gments
ĠN at
sc ar
Ġsustain ability
Ġr ounds
Ġex clus
in ions
Ġbron ze
ĠOption al
Ġo xygen
ĠC NN
19 15
A z
Ġprote ins
× ķ
Ġs urn
ĠH E
Ins ert
prov ed
Ġaccompan ied
Ġdist urb
Ġdire ctions
ĠC er
ess ed
t k
Ġdifferent ial
tr m
it udes
ĠSt age
th an
ĠAp pro
TR Y
Ġdevelop er
ĠThe ater
ul u
is Empty
Ġexpand ing
Ġyield s
ĠS ustain
pl oad
Pro fess
19 13
ĠZ one
ĠTh ailand
Ġtr ou
or ia
Ġh int
ĠP ython
ĠÐ ²
Ġn ick
ĠDen mark
Ġamong st
R aw
in ces
w alk
ile vel
ic it
Up dated
ĠSy ria
on ed
ĠS audi
ĠR ub
ĠT ig
book s
as a
Ġcross ing
Ġf oss
s b
Ġpert urb
cl one
Ġed it
ĠOr leans
z ip
r ices
eb r
Ġorgan isations
C ALL
Ġf iber
Ġcharacter ized
Ġam plit
om ed
Ġad equ
Ġdi et
Ġreview ed
Ġfol ks
_ +
A ST
Ġj et
Ġw arrant
ĠG ary
Ġjud ges
Fr agment
ĠO DI
Ġan imated
ĠP arent
be at
Ġdef ines
Ġland ing
S W
Ġal ias
ĠCar ib
sim ple
bo ards
ĠAl ice
ĠP eters
it ol
u ates
× Ļ
at rix
Ġb read
less ly
Ġsecret ary
Ġleg s
ĠMar ie
i ang
p rom
atas ets
it utes
Ġg ro
Ġst em
UT H
Ġlicens ed
ĠH O
Ġnam ely
Ġas ide
Ġbl ind
y ll
Ġt ill
Ġs ql
Ser ies
ĠB ody
Ġb at
Ġde eper
Ġequ ality
Ġco operation
Ġwhen ever
Ġgu ilty
ĠRefer ence
> \
ĠL anc
h att
Ġdemocr acy
ä »
Ġbr anches
# {
erv ing
ĠP oll
Ġsu icide
V A
R PC
Ġde pression
B al
H D
Ġg ear
ĠRead ing
Ġread only
Ġenter prise
Ġter rit
Ġis lands
10 8
ud son
u um
Ġhop ing
Ġdialog ue
W ar
ĠRog er
id ity
tex trm
S ite
ĠProfess ional
Ġ( $\
ĠSam uel
ĠC ensus
op ens
Ġsumm ar
ĠQueens land
CT YPE
Ġper m
Ġspect ral
ic ator
Ġoptim ization
ĠEN D
ph ant
Ġquant ity
in burgh
Ġlog o
ĠBul g
not ations
ĠHistor ical
Ġcoeff icients
Ġrare ly
ĠO il
Ġch at
ĠClin ical
ĠJ u
Ġdevelop ments
Ġrest ore
et o
10 6
Ġart istic
ĠT arget
Sk ip
assert True
ĠR ange
Ġ> >>
w he
m ount
Ġdes ert
ov ak
Ġdescrib ing
ĠFrank lin
ĠH ind
P red
subset eq
Ġ ion
ane an
Ġir re
ides pread
b d
ĠT ogether
Ġwer en
Ġregard ed
B ro
Ã© t
ĠP il
Ġrun ner
Ġg all
Cons umer
ĠâĨ Ĵ
var iable
0000 0000
id ges
Ġmer ged
iz ard
Process or
ĠP ope
ĠB aker
ĠCons ult
g oto
Ġbr illiant
ĠK az
ĠClass ic
Ġm es
ĠS amsung
Ġarg ue
Ġlif etime
ĠMet ro
Ġres olved
ĠL ock
S ample
pe ction
ĠImp act
l iving
ĠMit chell
cel ona
B inary
con str
Â ·
an ne
Ġcred its
=\ "
ĠR at
Ġper mitted
ĠV ent
ĠCamp bell
n an
Ġless ons
Ġth orough
iv ities
ĠAL IGN
ĠA qu
Ġmount ains
Ġn it
Ġpartial ly
ĉ ĠĠĠĠĠĠĠ
Ġdesc ript
te am
B ad
Ġsatisf y
Ġmanufact urers
Ġt weet
M W
r ank
Ġbelong s
Ġexpress ions
ss on
Ġdistribut ions
yn asty
ĠAct ive
ir k
dis able
ch arg
set up
Ġim aging
ĠEx ample
Ġincorpor ated
Ġdr ums
Ġint ense
ij ing
oper ative
Ġor th
Ind ian
ĠM achine
Us age
or igin
ĠDown load
ĠL eft
ĠIn novation
T ex
Ġd il
Ġpromot ing
Ġr anging
Sp an
Ġch urches
Ġin ches
ĠI ce
col Last
S al
ĠSt ars
Ġgener ations
Ġback ing
Ġdestru ction
D rop
Ġde ck
Input Stream
Ġinvestig ated
Ġun like
v ol
or rect
A fr
Ġrh yth
ĠF un
ĠFe ature
Vert ex
Ġlux ury
Ġl ens
B ER
Ġinvest ments
ĠPort land
n ative
Ġsusp ended
Ġl ung
Ġw ake
Ġgover ning
Ġfant astic
Ġneigh bour
Ġgr ab
Object s
ĠN am
Ġper missions
Ġadmin ister
es ian
Ġmem ories
Ġse ctors
Ġ" %
ĠSing le
Ġg raphics
Ġscreen ing
ĠV iol
n est
Ġsam pling
in x
Ġc rown
reg ular
ĠR y
N UM
am ine
ut t
Ġstay ed
ord inary
sign ature
Ġsc ales
Ġend point
read er
Î µ
w edge
Ġimm une
ĠKn ight
ue z
Ġrec re
ĠShe l
pon ential
Ġview ers
ĠH end
ĠU rban
ĠT s
Ġcon n
Ġhigh way
our t
Ġprotest s
Z one
Ġd uties
ĠPolit ics
ĠGu y
ĠM yst
Ġmer ely
ĠFl ore
C enter
bas ic
b ie
Ġorient ation
B oth
W allet
Ġgen u
ĠFin land
ĠBar on
ĠS ide
Ġh ang
Ġcomp ound
C LASS
S ocial
_ )
Ġsub set
m atic
F older
b one
Ġg ent
ĠG ulf
ĠArk ansas
am ents
Ġcol span
st ory
Ġship ping
s heet
S V
ĠSpe ed
ph ones
ĠS now
Ġas c
Ġbirth day
ĠOr ange
V irtual
q view
Ġrel ating
ul ates
Con structor
qu al
ĠN C
Ġl ad
Ġsomew here
run ner
Sh are
cre ated
Ġexpl oration
Ġman if
omorph ism
ORD ER
big g
S ql
ĠMag ic
Ġrad ical
ug u
Ġfunction ality
Ġm ilit
ĠR ick
Ġun likely
Ġmaintain ing
Ġdifficult y
Ġprem ium
look ing
PH P
Ġs ocket
Ġafford able
Ġas semb
Ġp in
Ġun w
Over view
DO CTYPE
ĠOper ations
ill ance
Ġvis ibility
col First
ĠCamp aign
t ures
sc ill
Ġl iv
ĠJ en
Ġliber al
Ġspe akers
ath ers
Ġcommand er
Ð ¿
ĠG raham
Ġl oves
æ ĸ
Ġf rames
riter ia
W he
in ance
ĠF ried
F OR
Ġsens itivity
in us
epend encies
ĠF M
Ġr anges
Count ry
Ġgal axies
ĠS ay
ĠRef orm
P OS
Ġmat ched
ilib rium
b c
Form s
Ġmyst ery
Ġagric ulture
Ġex ha
n ia
ri ber
Ġf ro
ĠF alls
Con vert
Group Name
Ġcalc ulation
Ġst ops
tr im
ĠMur ray
ĠN othing
ab e
cy cle
ĠAl tern
ĠP resent
ĠSt ev
AR G
ĠB ond
ĠMor ris
ĠF err
Ġemer ged
Ġs ust
con v
x html
Ġdis ag
Ġcl othing
is o
Ġ{ },
ĠMad rid
Austral ian
Ġconven ient
ĠB ou
ĠSe pt
Ġwe ights
ub ern
h ai
ug ht
' \
ac les
it err
se q
Ġphot ography
Ġtalk ed
ĠR ele
an alysis
ĠL ion
Ġcomp an
Ġlog ging
ĠA y
Ġsatisf ied
m ir
ĠCol omb
Ġposs ession
ch anges
ĠSp ot
Ġtrans c
IN ST
Ġinh abit
An n
Constr aint
Ġste am
Ġentreprene ur
IO Exception
ĠD ictionary
ĠTr ad
ex it
Bi ography
Ġi OS
Ġdisc ount
Error f
_ *
Ġappe aring
Ġres ign
ĠS oul
Ġcompet ing
Ġm ath
enez uel
Ġfore ver
b atch
A bs
ĠTh read
Ġrun time
Ġse ar
W arning
Ġdam aged
at ibility
e ast
Ġh unt
ĠR acing
pro gram
Ġass ignment
Ġvolunte ers
ĠSever al
Ġem power
Ġeng aging
requ ency
Ġst roke
k ov
^{ -\
ĠSu ccess
ĠR ot
Ġt ort
ĠHamp shire
Ġb ike
ann ah
con vert
ra its
Ġdis p
i u
Ġl aser
Ġsp ots
B inding
ĠM aur
St ation
C apt
ĠUS D
Ġdep ict
ĠCh amber
Ġm d
Ġind ices
ĠJust in
sem antic
ĠS end
Ġevery where
p ad
em b
ourn als
b n
ĠF ather
Ġmanufact urer
Rem ote
ĠCro at
ĠG ov
Ġveter an
ĠL ore
Ġcompet itions
Ġdepend ence
Ġdispl ays
Map per
Ġb ug
ĠT ob
ĠVis it
Ġrepl acing
Ġdram atic
Ġg ard
Ġsurround ed
iss et
F ire
Å «
ĠSt orm
ĠG ill
Ġpay load
ĠIN TO
Ġcas ual
Ġconf ident
Ġre ign
for Each
tra ctions
C ONT
A gg
ĠLead er
Str ategy
INS ERT
Ġg est
13 5
Ġgrad ient
vious ly
arg uments
Imp lement
ĠIm port
Ġcalc ulations
Ġpre val
Ġven ue
ĠCon vention
List en
B N
Ġbund le
iv o
Ġfl av
Ġcr icket
Ġappreci ate
Ġrout ine
12 34
Ġinv olve
A wards
Ġsatisf ies
Ġhydro gen
f mt
ĠM asters
Ġt ropical
Ġs urre
Ġv oices
numer us
comp are
Ġpack et
Ġlaw suit
ĠP rix
ĠP ad
Ġpres erve
? )
numerus form
ĠG round
com b
ath on
. ),
ĠBit coin
U G
Ġf ert
Ã ´
Ġc ub
ĠP un
ex per
Ġsub stance
Ġpat ent
An notation
Ġlabor atory
ĠC emetery
ĠTechn ical
Ġsp oken
Decl aration
F ac
Ġsh adow
V ol
ĠF BI
Ã Ĥ
D ER
Ġflex ible
Ġjur isd
Ġim plied
resp ons
Ġc rop
ĠSt re
ĠB es
Ġconsider able
ing e
ĠB rew
ĠS A
Ä ĥ
Ġfl ower
Ġcl usters
Pl ace
Ġde leted
F UN
ess ment
Ñ ĸ
ĠInd eed
Ġadvert is
Ġk in
Fe atures
function s
Ġrecover ed
Ġparticip ating
ĠO wn
ĠR s
US ER
G EN
Ġl oud
cal c
ant on
19 08
^ -
ĠIn ternal
comm it
el astic
Ġemb edded
Ġdis able
ĠT ower
Ġqu adr
arn ings
Serial izer
Ġc ock
Ġco ins
Â »
Ġexhib it
friend ly
Ġcoast al
ĠOut put
br and
is or
p iece
ate ful
aught ers
Ġre actions
ĠCommon wealth
ĠG ate
in formation
if i
ĠDak ota
build ing
oust ic
Event Listener
un ing
iv an
Pl atform
Ġind epend
m ill
Ġ" ";
Ġexam ination
Ġexam ine
ĠP ow
ĠI an
qu is
ĠY ang
ĠPr incess
Ġclos ure
ĠR isk
az ines
re present
Ġre plic
An alysis
rt l
w d
et ics
ĠT otal
âĢ ¯
Ġdecl ined
set minus
Ġvent ure
ro se
F ailure
ĠQu est
ass oci
ĠU C
Ġcompens ation
Ġfavour ite
om ing
AS K
p ages
Ġag enda
Ġhor izontal
pare ncy
Comp iler
Ġw idespread
Ġoper a
Ġvari ations
ĠC atal
Ġrec ycl
ĠF isher
ĠS oc
av i
Ġaff airs
writ ing
ĠTh or
M ajor
Ġrequ iring
ĠR ule
ĠHawai i
' _
Ġc ir
re ck
Ġgener ating
ĠLin ux
ĠB loom
: [
ĠDr agon
Ġmass es
Ġp ump
Ad v
Ðµ ÑĢ
ĠT ry
ĠR and
Ġcheck ing
M AP
ond a
vert ical
Res olver
uck s
Ġex ped
Ġre aches
B ur
l ower
Ġs wit
Ġst y
Ġhand led
Ġpurs ue
ric ulum
Ġab road
ĠCon stant
ant ly
id ays
Ð ·
agn etic
ĠP ictures
E ducation
ĠF ast
Ġpo em
ect ive
ĠĠĠĠĠĠĠĠĠĠĠĠĠĠĠĠĠĠĠĠĠĠĠĠĠĠĠĠĠĠĠĠ ĠĠĠĠĠĠĠĠĠĠĠĠĠĠĠ
ĠQu ery
ĠW i
Ġp uzz
ĠGu id
Ġdom inated
Ġtim estamp
ĠSt even
ĠEar l
Ġcontrovers ial
Ġap ilevel
sect s
Ġnot ion
ĠCreat ive
Ġ Ä
Ġsch olars
ç Ķ
Ġre ception
ĠF reedom
sub figure
ĠJ e
ah n
amp a
upload s
I ES
Not Found
Ġpack ages
op les
Ġrec ruit
ĠPol y
ĠR ank
Ġpro jection
NS String
Ġh az
Ġbeg un
All oc
Ġn s
ĠR ic
ĠEv ans
Ġens uring
ĠO P
v et
Ġprevent ion
g un
Ġ$ $
ex pression
L ib
Ġtyped ef
Ġarr anged
Ġphotograph s
ĠWar ren
Ġcan vas
Ex pl
ĠS urg
ĠG T
Ġw orship
ĠBrazil ian
ĠS ize
ĠK ids
ch art
Ġcap s
s afe
ĠC over
rypt ed
ĠE li
Ġcelebr ation
ĠO cc
Ġtw elve
ĠL iverpool
t em
ic ates
ym ph
ĠM i
< <
ĠJ oy
ĠCom par
t p
em en
ĠP el
Ġdis orders
Ġep id
R a
Ġconsist ently
ĠFac ulty
n ob
ĠF ix
=" $
Ġgather ed
S ame
b inding
Ġch rom
Ġrank ing
p end
Th us
ĠS olar
Ġdes per
ĠHon or
Ġmet res
Ġserv ers
Ġb ot
Ġbon us
m essages
Ġact ively
R ate
O w
bor ough
Ġcon clude
ograph er
Ġexpl oring
Ġbas eline
other apy
Ġs b
ĠW E
Ġsearch ing
ra ction
B eh
CON FIG
Ġtext s
Ġcl othes
ĠR u
ĠK rist
gener al
A xis
G roups
ĠP ra
Ġcon vention
ĠC raig
Ġen emies
Ġb orrow
ĠKen ya
m outh
Ġt ale
Ġsurv ived
Ġdiam eter
Ġcam eras
Ġgr ants
Ġm ic
ens on
I Z
r v
ĠC elebr
/ {
Ġhe ter
Ġthreat ened
P ut
em ark
Ġal pha
Ġp or
G old
Ġg host
ĠV ancouver
w iki
ĠD atabase
uss ia
MOD ULE
Ġl ip
() ),
ĠNAS A
Ġult imate
av ia
Ġdream s
ĠV eter
Ġflo od
Ġprec isely
Ġmeaning ful
... </
Ġhar vest
ops is
ĠPro duction
ĠBro thers
ĠN AV
L aw
ĠF ine
\ }
d atabase
und ing
col on
ri ors
Ġv ectors
Ġ' ',
Ġtr im
Ġst ating
chn ology
element s
ï¼ Į
ĠR io
re ach
l arg
ĠAl aska
'] );
iterr anean
p id
t l
Sc ott
UM M
Ġl unch
18 90
S il
Ġmult ip
Ġs ys
Ġc ow
Ġche st
list ed
Ġ$ _
Ġexclus ively
> )
ot ton
intend o
o il
p aper
Ġimm igration
ĠSal v
f ake
Pres ident
Ġeffect iveness
ĠJim my
Olymp ic
c ass
Ġsil ent
sc ience
ĠPr imary
rel ative
ĠDise ase
ĠEd inburgh
LO W
ĠWAR RAN
ĠThe ory
Ġop acity
Ġicon ic
ĠInter view
. ]
Ġtok ens
ĠH ockey
ard ing
L ead
ĠStan ley
Ġmain stream
ĠEx pression
ĠT itle
oc ese
Ge orge
N R
Ġ Ñģ
4 50
ĠCarib bean
W el
oc aml
Ġrom ance
T y
c ross
t own
ĠP apers
ĠBar bara
J o
ĠUnivers al
å Ī
ĠTerm s
Ġc razy
ĠD I
Ġ$ [
kw args
e u
Ġshould er
Ġhabit at
ig o
ist ically
us r
ex tra
ä º
al ert
vent ions
Off icial
Ġcoach ing
pr ises
> ;
V ICE
Ï ĥ
Ġatt ending
Ġf er
unk nown
ĠK ate
Pl ot
Ġconsequ ence
plic ity
, ...
/ "
ĠQue bec
Ġpain ter
g ems
Ġre pository
c ourse
Ġpre t
ĠPortug uese
Ġmix ing
struct ure
method s
ĠBe ing
ĠL yn
un ion
Ġsuggest ing
Ġforest s
Ġprec ise
ĠCommission er
ĠCont ext
Ġcr ick
ĠCh ron
Ġactiv ist
ant i
Ġchar ity
ĠCor p
Ġrad i
ĠDE FAULT
gener ate
Sub ject
Ġprepar ing
he art
on ing
Ġch ampions
Ġrecord ings
Americ a
apt ers
im edia
qu er
ĠMarg aret
M essages
W ord
ro gen
om al
Ġsur faces
Ġpubl isher
{ $\
ens ively
st ock
fl at
ĠPro position
Ġg allery
Ġ} }
Ġst uck
ĠOper a
ĠDom in
en z
ĠE D
Ġsevent h
ay an
ĠD ie
ĠTh ank
Ġsepar ation
sub mit
Ġpregn ancy
ĠT oy
ĠM uch
Ac cept
ĠEm peror
Ø ¯
F ollow
Ġse eds
Ä «
Ġmedal ists
Ġprov isions
ĠIss ue
24 0
ĠColl ins
Ġmid field
Ġbox es
Ġs ugar
rop ic
AT OR
â Ĩ
Ġcor ruption
IN K
Ġcharg ing
Ch ina
ĠG ot
te ch
Ġover come
Ġintegr ity
Ġpro x
ĠPark er
Ġprogress ive
ci pl
ĠQ ual
ĠM aj
om es
ĠT ru
Ï ģ
Valid ator
Ġdelay ed
b uilt
Bl ue
Ġaud iences
Ġclaim ing
Ġt ies
c as
ĠB illy
ĠI de
ĠB OO
um ed
ĉĉ ĠĠĠ
As sembly
Ġs ail
_{ -
The me
Ġpred ictions
ĠSh are
Ġmac ro
LA Y
T ech
ĠF ish
ĠC ultural
Ġunder ground
Ġinher ited
ĠAv ailable
anch or
Ġqu ote
ĠPro file
usal em
Ġm ild
empl ates
pro b
Ġstrugg ling
Ġj ury
AT TR
ĠH im
ĠG ray
ĠUs ed
ĠE u
ĠBroad way
og s
Ġinter active
ink s
Render er
Ġwe ird
it ual
Ġillust rated
Ġd ated
Q ual
Tim er
c ord
h alf
ĠChe l
Ġear liest
u art
STAT US
po inter
ĠV oice
Ġtravel ing
ĠBen jamin
ĠA udio
HE AD
ĠAr n
ab i
Ġinter mediate
ĠIs a
ac ular
Ġb ills
Ġim plications
Ġmir ror
br ane
ul ative
Ġph rase
Ġt y
ass ign
ĠIndust rial
Ġ( ;
ĠCh ampion
ĠWrit ing
) _
Ġpass age
ĠDen ver
Cont ains
Ġac ute
ĠS R
sequ ence
ĠS pect
ĠC L
j d
ik o
ĠComm ons
Ġrest ored
Ġredu ces
Ġple ased
Ġtum or
r h
S elf
Ġover view
Ġform ing
r idge
ac ew
i ov
ĠM all
ĠN ad
get Id
Ġro ster
add y
Ġdecre ased
ĠEx hib
Ġsuff er
Ġinn ings
C ulture
m ma
Ġcommission ed
og ue
B atch
ic ode
Ġm ood
Ġel if
Ġdepend encies
ĠLink ed
ash ing
ĠRes ult
dr iven
ĠĠĠĠ čĊ
Ġscen arios
ham mad
Ġr anks
Ġs aving
enn ial
j ack
Ġp ill
Ġth erm
m ass
Ã ª
Ġf ur
em a
11 4
Ġtra ject
Ġspe aks
Ġl attice
Ġne ural
V C
Ġremark able
Ġo scill
th rift
Ġcomp ress
rem arks
En v
irm ingham
Rh ino
il iation
Ġpar ad
ĠS L
ĠH AL
ĠJ azz
ĠVis ual
he ets
Ġpro secut
Ġdoll ar
ĠE T
Av ailable
Ġ' ''
ir ie
oc ent
c urrency
m k
Å Ł
id ad
c od
G rad
ing ers
l icense
ir ts
ellig ent
US A
ĠAdv anced
Ġdr ives
Ġcontr ad
G reat
19 05
ĠAr men
Ġb orders
19 09
Ġtext ure
Ġcom ed
Ġcommun icate
Ġm oon
Des ign
Ġp ounds
Ġp ip
Ġhol es
TI ES
ud ge
Ġpark s
Ġinfin ite
Ġanalys es
Ġs id
Ġpro s
Ġim pr
Ġsurv iv
comm unic
ĠN ear
Ġswim ming
ĠPu erto
cont ents
Ġpush ing
w t
Ġcare ful
cal endar
"/ ></
const ant
ĠK an
ĠK itt
Int roduction
igg s
In ner
licens es
å ħ
ĠMult i
Tim estamp
l ab
Ġprom ising
ĠP L
d ale
Ġann ually
ĠCon struction
Ġemot ion
s elling
ĠT an
Ġmoder ate
> "
N ER
Ġf uck
Ex ists
ed a
Ġactiv ists
Ġden otes
ĠÐ ½
b p
ĠU g
direct ory
Ġun lock
âĢĿ )
Ġdecl are
Do es
ex ecut
ĠBar celona
ĠLear n
ĠMe anwhile
AT O
Â Ń
Ġdef ence
l as
ĠConfig uration
Ġc ous
Ġad option
Ġident ifying
ĠT ol
ogene ous
g re
S ever
ĠL ith
Ġst up
W ire
c ounter
ig ator
Ġc oc
Ġhard er
Ġcomput ers
Ġfl uct
le ading
19 07
Ġsc aling
ĠT it
L EN
Ġevery day
Ġrem oving
Ġany more
Seg ment
in ery
ĠT ab
Th anks
ĠCarl os
W IN
col lect
Ġactiv ation
sub ject
com pute
Sign ature
Ġ} \
de ep
M AN
Ð° ÑĤ
lim ited
class Name
ĠF ed
ff f
ĠDr ug
upl icate
Ġ" .
ĠUp per
uc lear
Ġc inema
~ $\
ĠMe eting
ĠStr ateg
ĠU lt
Ġover flow
ling ton
Ġhost ing
Ex per
Ġinv ariant
ĠKe ep
ĠLeb an
B ottom
oth s
Ġ| \
en berg
Ġor bit
Ġincred ibly
Z ero
s ym
Ġmort ality
Ġtour ism
Ġ_ .
al ph
Ġun ve
put er
Ġf older
head ing
% "
Ġdesc end
e conom
r ang
ic ht
Ġcomp iled
Ġ' .
ĠCO L
Ġph osph
AV E
Stand ard
Ġvess els
Ġkey board
av ery
Ġcook ie
Ġven ues
Ġext ensions
ĠNot es
P romise
Ġlock ed
H istor
ĠKar l
Ġvari ants
A SSERT
T ile
s ong
ĠIn iti
Ġop ponent
ann es
ĠH unt
ys ics
ĠIn n
duc ational
e or
UB LIC
ĠWay ne
es la
Ġan xiety
tr l
SCR IPT
ĠL icens
Ġst ellar
Ġpaint ed
Ġ ----------------------------------------------------------------
Ġdeploy ed
Ġde ployment
Ġsome how
ĠIns urance
2 20
ĠBe ijing
Ġag reements
ĠMov ement
re ason
ĠArt ist
ect ure
Ġconsist ed
Perm ission
sequ ently
Arg uments
Enumer able
ex amples
........ ........
it ime
Tele vision
å ®
Ġh orses
ĠB asketball
res ize
C M
Ġcre am
Ġsystem atic
h pp
Ġlif estyle
re lation
id i
ob a
ĠL ot
hatt an
Vis ual
sh ops
! )
ĠC arn
ĠS ony
C ost
ĠP romise
ĠCharl otte
Ġcou pled
he astern
DO M
Ġst eal
pan ic
ter ed
ey er
Ġsing ers
IE W
Ġnot ification
ĠD raw
ĠE dd
Draw ing
Ġt unnel
est ing
Ġdefin itions
ĠDe lete
Ġin cent
Ġgrow s
Res p
Pre v
Ġtransform ed
Ġmist ake
ogen ic
ĠIm perial
ĠPr im
ĠAgain st
Ġsc reens
ut ers
Ġhypothes is
\ _
ĠK E
Ġch ains
ob i
Ġt ap
rel ations
ãĢ Ĥ
ĠAnt i
c ost
Ġj ew
Ġm ad
om on
19 01
C ategories
ĠF riends
sh ore
Ġproport ion
Ġinfe ctions
Sec ret
ĠA ld
Ġvary ing
ĠPhys ics
Ġh itting
ĠMont real
ĠC ome
spir acy
17 0
Ġegg s
Ġab ortion
Ġlight ing
Ġ Ø§
Ġh ub
ĠEd ge
D ATE
Ġtack le
ĠA rena
Ġwarm ing
Ġa est
Ġenthus i
Ġop inions
ĠP ick
Ġres ort
Ġdeleg ate
: @"
ĠL ower
ĠM ach
St atic
Ġcomb ine
Ġl ap
ĠK ind
Ġpet ition
onom ous
L IST
ĠSpr ings
des ign
FI ELD
H tml
r ates
Ġw idget
ĠM illion
Ġcomp iler
K it
Ġ á
b ach
re le
ID S
Man agement
ĠK o
Ġdel ta
Ġcho osing
Ob server
f ers
Cont ents
ĠP E
Ġcount ies
uck er
Ġattract ive
Ġarch ae
Ġr ivers
Ġvess el
Ġhistor ian
ĠS eg
Ġhuman ity
se lection
grad ient
ĠBas ic
19 06
ĠG raph
s pl
Ġglob ally
ĠTam il
ag ma
ĠNev ada
Ġfil ters
Ġop ponents
ĠLiber al
Ġ ig
Ġj ail
ĠOr chestra
av an
C ounter
ĠCl ick
Ġg ross
ĠCo al
e i
rol og
CE PT
ĠM ade
Ġback up
, $
ĠR T
Ġch amber
Ġtrans it
bor ne
Con verter
ĠR ole
Run ner
ĠC F
Ġsu ite
ĠC lean
Ġa ired
im plement
Ġm ice
qu est
Ġdel iber
Ġfacilit ate
Ġsh ops
ĠCon cert
G M
_{ (
Ġr ally
or ious
Ġd ad
E lect
Ġdeliver ing
Ġminor ity
Ġl ibraries
19 2
ĠS ession
Ġanaly ze
Ġinc orrect
| }
CO M
Ġstart up
att ed
urre nc
Ġch ip
Th ank
Ġen umer
Ġc ognitive
Ġcomput ational
ol ine
ĠA my
ĠG OP
Ġdi abetes
T ake
) ",
h is
g s
Ġoccasion ally
ĠB uy
Ġph ones
Ġval ley
M ass
bre aking
Ã «
ĠNav al
st ud
S ide
Ġab ilities
ĠK ath
n l
ĠT ak
Ġcult ures
7 50
V I
ĠCl ar
ins ula
E ast
B orn
j ax
f p
load er
Ġgr avity
m illion
U CT
ed ed
Ġemploy er
Ġf etch
Ġmix ture
ĠCre ates
ex pl
Ind ia
Ġconst ants
Ġinher it
Ġre n
ĠE state
ĠH R
ĠM ak
ĠL ost
ĠK on
J ournal
Lo op
Ġcast le
RA Y
Ġc ro
Ġth ro
ier ra
sh are
= [
patch er
ĠA aron
ĠSe an
over view
ĠS ad
air y
ine a
Ġdeput y
io x
ia o
Ġres erv
Ġindepend ently
ĠU P
C MD
hav ior
log o
R andom
B ounds
ĠExper ience
Å ¾
s ing
Ġle ts
Ġob st
J ul
Ac ad
A X
P rom
Ġd rew
S ort
11 7
Ġstream s
Ġprocess or
UR CE
Ġfollow ers
Ġbank ing
Ġdepart ure
Ġingred ients
Ġtreat ments
od o
ur ring
**** **
r ame
eth yl
ĠEm ploy
G iven
s quare
ch at
ĠE lection
ac re
Ġconvers ations
Ġspect ra
ĠDe cl
Ġexam ined
RE SS
ant ed
pect ives
Ġfr act
Ġr iding
Ġcar ries
sw arm
Ġref lected
Ġcirc ular
ĠD R
ĠSh a
Ġres il
ĠVAL UES
Sh ared
Ġaccomp any
ĠI gn
ke ep
ers h
C amp
ar ance
FF ER
Ġc ust
Us ers
D ependency
C ursor
high light
Ġart ifact
ĠC ould
wild fly
Ġcap ability
ĠP H
load ing
ĠF ab
Ġport s
ĠCom ics
Ġep ic
Ġanalyz ed
Ġh o
ac co
ĠK ap
ox y
Ġb unch
Ġple asure
Europe an
ĠĠĠĠĠĠĠĠĠĠĠĠĠĠĠĠĠĠĠĠĠĠĠĠĠĠĠĠĠĠĠĠ Ġ
Ġcontribut ing
Ġreflect s
ĠStat istics
C md
ĠArch ive
H ello
0000 00
d irection
st ates
R ail
as ia
66 66
ĠBuild er
ĠLead ership
u ity
th ree
ore st
d istance
lo pe
ĠL isa
mem bers
Ġfoot age
Ġl uck
act ual
ĠJ a
... )
Ġengine ers
Ġgrad ually
Ġbut ter
over y
t ouch
Ġt ons
ĠId ent
ĠDan ish
P eter
Ġsal ary
Ġvacc ination
aver se
Ġpower ed
or o
Ġref lection
Ġattempt ing
h istory
i pt
Ġan ime
ol ia
ĠÃ ł
F our
Ġlab our
IL D
AN S
ĠPro f
ss l
ene ath
Ġt ut
ash board
ĠM is
R ound
Ġag gressive
Option al
s ig
er ious
Ù Ĭ
Ġassum ptions
k l
ĠS witch
Ġre fr
ĠRob in
ob serv
o ose
ect s
ĠB ird
ĠS S
Ġcert ified
Ġcolon ial
ig ue
quir y
\! \!
ĠF riend
_{ {\
Ġfail ing
Ġne ur
ĠN an
ĠL uke
ĠMin or
Ġmat rices
ĠCal c
u its
ĠB enn
Ġed iting
Ġfit ness
P an
Ġt el
TH ER
Pop ulated
ĠG R
Character Offset
Ġseek s
g ow
Ġst abil
R ussian
Ġlong est
ĠV el
e enth
We ight
M el
Ġatt itude
N P
Ġpro l
if ference
ĠD raft
Ġtrail er
I ss
B uff
Ġflo ating
Ġcon gress
Ġ" '
ĠM B
ĠY u
ĠW IDTH
ik ing
Ġarrang ement
ĠLiter ature
ĠStr ategy
ah a
Ġev ident
Ġf atal
AR K
ĠSus an
__ )
ĠA B
Ġ` ``
f etch
ĠCy ber
p b
B ibliography
ul k
202 4
ĠH erm
sh aped
re act
Ġstead y
ĠG ay
LE S
UN T
Ġb om
ĠMur phy
str ument
18 80
ĠH aving
con duct
ĠK u
at um
C AR
Ġch ances
ĠInd ians
ĠBet ter
Ġas ympt
or b
] ))
t ies
ir s
Ġtom orrow
Ġoccup ation
dis ambig
ĠMuslim s
ĠBl ues
Ġclos est
Ġroll ing
Ġp ixel
Enc oding
Ġdis pute
ĠZ e
inc inn
V O
Ġcompl aint
Err ors
Ġvirt ually
e lection
Ġprom ised
Ġcond em
V R
Ġsh orter
> '
In f
Ġco q
Ġ+ \
ĠL ad
Ġd ense
Ġpri est
ĠL aura
dep recated
), \
ic acy
Ġrat ings
ĠAgric ulture
ĠEmer gency
ĠA F
ish a
ĠDemocr at
ĠB apt
if le
cf g
2 30
IL ITY
au er
sen al
ph ase
ĠOther wise
Ge ography
ĠT u
getElement ById
OP T
ĠS ave
ĠF er
ocol ate
ĠLe ave
Ġh unting
ĠJer usalem
ĠD elta
ĠâĢ Ŀ
Rich ard
acef ul
Ex pected
the y
ĠTre as
Song s
R NA
w ave
Ġen zym
ab et
Ġcar rier
Ġbr ut
Ġ| =
st eps
ol ished
Ġassert True
ĠCost a
ĠN ut
U pload
Ġlo ans
ĠArab ia
19 04
def er
Ġattribut ed
H older
Ġt ours
ĠWeek ly
Ġcorre ction
Ġc argo
ĠB right
Ġphenomen on
Ġ' %
oll ary
t ed
it ious
Ġal ien
Con tract
Ġsimilar ly
ĠS even
Ġver b
ĠA LL
ĠD M
ĠUn fortunately
ĠK id
Mon th
P ack
Ġl ov
Nav igation
ĠW W
qu arter
ook s
ĠSol utions
ĠU til
ĠP rior
ĠUS B
Ġd ictionary
ĠWar ner
ĠElement ary
) ^{\
ou p
Point s
og an
ĠJohn ny
ĠInvest ment
EN CE
Ġd iver
hen g
Ġth irty
ĠE SP
rou s
ĠM IT
Ġa ug
Ġh ack
ĠR ud
ĠP ul
Ġim plicit
incinn ati
Ġdev ast
Ġin fer
om i
Ð ¹
a que
11 3
ĠL I
Ġemphas is
spect or
ch t
ĠR ing
ĠC M
Ġmark er
Ġgo ogle
Ġin struct
am er
Ġwrap ped
,\ ,
ĠW or
19 03
ĠM ab
ĠGi ants
ĠG O
Ġcl one
R ules
qu ant
m und
atern al
ĠBuff alo
ĠH orn
row se
ĠK el
ĠK ay
Ø ª
ĠMem ory
Ġsche mes
ĠEth iop
ĠNAV BAR
B order
ĠAb u
Ġcomput ation
i w
ĠB aby
ass y
H or
Ġor ange
B ool
cast le
Ġwood en
ke ley
F ootball
ar us
Ġtim ing
Sports people
rem ote
ap l
Ġmodel ing
ĠEnter prise
Ġaf raid
R ows
ar an
im ir
C HECK
ĠMar c
) }(
ĠLabor atory
ĠC old
trans action
} &
ĠMed iterranean
et on
ĠB ud
Ġrepeated ly
Ġton ight
bul let
ĠC ris
ĠV enezuel
Ġdecl aration
arch ive
Ġst unning
ĠMor ning
Ġq view
ĠRes erved
Ġprint ing
Ch ain
d ing
Ġpar agraph
(" %
Ġliter al
ĠOl iver
ĠMount ains
ĠW a
m other
Ġgl obe
CO MM
itut ed
ĠC arm
pl acement
ced es
Ġall Classes
Ġcoeff icient
i em
Ġpro pose
Array List
Ġgre y
Ġlegisl ative
em it
ĠMaterial s
Ġst ere
Ġpregn ant
ĠUn iverse
Ġhighlight ed
Sup ported
Ġwild life
ash a
ĠBar ry
Ġen abling
ĠApp end
Ġte eth
act ed
Ġb rows
Ġrecip ient
f iction
re peat
Ġwarn ed
ĠM ack
Cert ificate
ĠKe ith
str ings
Ġsaf ely
Ġrepresent ations
Ġsec ured
Ġmiss ions
N I
ĠDO M
ĠPar se
Ġmarg inal
ecess ary
Ġpsych ological
Ġbuck et
us ive
ĠallClasses Link
p od
Ġpropos als
ok a
Ġl iver
Ġpl asma
c reat
ĠG onz
omorph ic
Ġdiscrim ination
h op
Agg reg
us c
tim estamp
mark et
Ġdom ains
ĠV R
" },
å Ĳ
W alk
Ġsm ile
Ġv e
Ġal arm
Pr ice
ĠSc i
ĠInitial ized
Dr ag
Ġg ains
Ġcompar able
Ġt ang
ĠGr ace
Ġscient ist
Ġme al
ĠFl ight
ĠCon tract
Ġaccount ing
ĠE val
Ġalign ment
ĠPract ice
c amp
Ġd ys
ĉ čĊ
Ġform ally
ĠW ait
Ġbatt les
ĠBern ard
ĠPod cast
ĠC le
ugg ing
ond s
script ions
Ġretain ed
ĠIran ian
ĠA irlines
M ad
Ġsole ly
ĠM om
ĠU pon
Ġmask s
Ġprotect ing
av ers
ĠNe uro
f ac
cre ment
Ġwalk s
ol utions
With out
Ġdepart ments
Ġquarter back
FLA G
j or
ĠB egin
Ġs ends
14 4
ent ine
Ġd ub
sp ot
ĠB achelor
ps y
BA SE
H y
Ġj s
ibr ation
Ġcol leges
ĠJenn ifer
Ġgraph s
ard ed
ĠN um
EE E
RE CT
Ġam pl
[ (
ĠV o
ĠMad ison
erm ont
Ġsatisf ying
for ced
Ġap pl
grad ed
Ġc od
12 4
DE X
I p
ĠC rit
ĠTurn er
Ġcom ics
ĠTransport ation
ĠV ery
ĠSt ein
Ġ rib
Ġbelong ing
Ġsymmet ric
G T
Ġd atasets
Ġh yd
Wh ich
ĠG host
ĠCon vert
hab ilit
ĠTechn ologies
Ġtalent ed
ke eper
Ġemploy ers
ĠGre ater
Ver ify
ĠGh ana
Ġsh ore
Pr imary
inst ein
Ġbur st
ĠInst all
Ġinc idents
ĠClass es
Ġcompet itors
Ġcancell ed
Set ting
M ont
ĠF ollow
Ġfor cing
Ġrefer ring
R ot
Ġevery body
P ub
Ġsusp ension
char acter
Ġpoll ution
att ing
Ġaggreg ate
Con sole
ĠMet al
ĠFlore nce
Ġ' "
Ġter rible
Ġst er
ai ro
bo ys
sub subsection
b rew
19 0
indu ced
t ik
ĠWith in
U int
ĠJer ry
Ġd aughters
.* ;
Ġthere by
Ġnot ation
en o
ĠHung ary
.~ (\
M o
m g
ĠMat hemat
Th omas
ster dam
am ination
ĠM ol
Ġc ached
ĠKir k
Ġl ying
Ġcou ples
cc cc
Ġph ases
ĠK le
ab c
Ġpro c
ĠV I
ell ers
if iable
L and
Ġdo zen
S witch
Ġwire less
ĠL arry
em or
Re ason
Ġdead line
cel and
ĠAll ah
}} (\
Ġspec im
Ġdeterm ination
em ics
atter y
Ġ&= &
d n
ar ms
ĠPer ry
Ex port
Ġcr ack
G F
ver e
Ph ot
Ġmem orial
Ġb anned
il ia
it r
ĠD iamond
Ġaut hentication
Ġmed ieval
Ġinhabit ants
Ġp ixels
Ġnom ination
Ġgather ing
ĠBOO ST
Ext ensions
Ġgal axy
ĠBr anch
Ġaffect s
) },
ĠSer ial
ĠM ail
ĠC itiz
ĠF itz
ĠHarr ison
Ġde emed
Ġl apt
var i
f our
Ġ( #
10 24
Ġscholar ship
ĠL ux
Ġpick s
Ġacqu ire
g ender
T or
Ġexist ed
ĠDi agn
istribut ed
ĠFred erick
Ġpo ison
Ġexception al
ĠMu hammad
us k
Ġcomp ounds
Ġdet er
ĠX box
Ġphys ician
Ġodd s
5 12
t ol
fe ction
TER N
Miss ing
glyph icon
M ilitary
Ġ ere
( /
o ys
Ġn ose
Ġvolunte er
Ġbar rier
ĠSquad ron
B uf
Rad io
ĠJ son
Ġtr ick
Ġper pet
Ġne arest
Ġcomp aring
Ġco in
Ġrock s
Ġ uri
Ġul tr
Ġnot ably
ĠT rip
En able
LIC ENSE
ĠMan hattan
Ġcitiz en
c ity
Ġdiagn ostic
ä ½
Ġgl ad
ĠChrist ians
Ġb ases
Ġr ice
ĠTh r
nav igation
ĠC I
Ġsp ell
w arn
sp acing
G ate
Ġa qu
="../../../../../../ ../
M or
ebr aska
ĠF u
Ġmod al
Ġvol t
Ġgr an
Ġarrang ements
ĠAl t
Ġgovern ance
* ,
em ployment
Ġthe sis
PRO JECT
" ].
Ġnewsp apers
Ġview ing
Ġsp ir
ad v
ĠVin cent
Ġsl ide
ar ound
ĠEvery thing
Ġfood s
: '
Ġassum ing
orne ys
R at
Ġbo ards
b ank
ĠO ptions
ĠCo ach
Ġsub str
m ix
b oth
Ġf iscal
Det ail
Ġpre dom
ĠQu arter
h bar
pos al
Ġarch ive
ĠCr icket
ĠM ans
Ġball ot
om eter
Ġen orm
T ur
ĠY e
Ġl ady
Ġspecial ist
u uid
Y Y
Ġsl ice
ĠT ik
Ġpo ems
L ou
Ġpres erved
sec ution
V ill
Ġre semb
Ġse cre
ĠS F
Ġdig it
ri en
Ù ĩ
Ġess ay
Ġhe m
() </
C ancel
ĠR ules
Ġind irect
Ġcoll ision
an Ã§
ĠR achel
ĠD h
s ized
ĠW ing
Ġv m
int eger
Ġrender ed
IC K
ĠB irmingham
UMM ARY
Ġt ension
Ġcontrovers y
Ġmin istry
link s
Ign ore
ĠP le
Ġl os
ot ypes
ix on
Ġvar ied
Ġt d
Ġlock down
iv ic
Ġfast est
Ġf ru
Work s
R oman
ĠCl ose
Ġemot ions
Ġ æ
Ġd ish
Ġpars ed
ĠEag les
Ġ' ./
Log in
T AG
ĠB L
ab ul
Ġbare ly
ĠT ournament
Ġgraph ic
Ġchem istry
ĠTig ers
Ġestabl ishing
hedul er
Ġseem ingly
ĠTh an
ĠPer haps
Ġad mission
ĠBill board
ĠMov ies
N il
ĠI ter
rol ogy
Un ique
Ġnews letter
re z
ĠF iction
am ilies
Ġconcent rations
ĠAl fred
ĠBy te
ĠForm ula
ĠF ro
w right
ĠP in
ĠQu ant
Ġalleged ly
s at
ĠT X
Ġnot ing
ov o
ĠW u
Ġsup pose
ĠMet ropolitan
Ġel ite
z ens
Ġtrad itions
f b
ĠV ision
ĠF oot
U AL
Ġsk i
art z
F ALSE
ĠW onder
Ġb rew
Ġinitial ize
Fr ank
ĠL java
N a
ent o
st rip
found er
cover ed
Ġline up
Ġexcept ions
ĠCol umn
ĠCru z
text sc
Ġconver gence
to o
for all
Ġsc rap
Ġguarant eed
ĠM oz
met ic
Ġcour tesy
Ġad mit
B ill
p n
Ġp s
K ing
Ġ-- -
Ġprot otype
Ġviol ation
Ġuser name
Ġqual ify
qu et
t v
cont act
Ġdiv isions
ĠFI FA
Column s
et ric
Ġ( ,
12 2
ph rase
Ġqu eries
aus es
Ġreal istic
contin ue
Ġf its
ĠL ett
ign ore
Ġgold en
IM IT
m iddle
Ġpra ised
Dep th
Ġev olved
Ġan ger
Ġsurn ame
Ch ris
ĠPlay ers
Ġking dom
000 1
Ġqual ifying
m obile
UT C
ĠGl as
Ġind igenous
ĠH az
Ġex ponential
pr ice
XX XX
ĠVi enna
S plit
Ġd ivers
Ġmolec ules
Per iod
b inary
ograph ics
ĠT I
re view
ah l
Ġent ert
Ġrail road
ĠCh art
ĠC ars
Ġpack ed
p ixel
amp ed
Ġinflu ential
ĠProduct s
ĠN ar
Ġt ens
Ġwork force
ĠPut in
ĠDr ag
ĠHand le
Ġf s
ĠF E
ĠB ak
19 02
L ondon
Ġun n
oc om
Ġstr ain
ĠSt yle
Ġauthor ized
ro v
Ġpart ly
UR N
Ġh ung
to Be
ĠMar io
Ġexp enses
ĠImp lement
Ġest imation
ugg ed
T ouch
Ġbe ating
Ġprom ises
Aut hentication
ĠB R
ĠCom merce
Ġprison ers
uk a
land o
Ġrest oration
Ġdifficult ies
ĠP ri
Ġt rem
T ri
rou ter
ĠCr iminal
EN ABLE
Ġpos it
sc ore
Ġattract ed
LE MENT
W ater
Ġown s
Ġphys ically
ins ic
SS ION
l it
n ut
ribut ion
ul in
Ġimplement ing
Ġv iral
Output Stream
get Instance
ĠP ic
Ġass ass
Ġtri ple
ĠG ra
Ġwork shop
ĠComm ander
Ġremain der
Ġcomplet ing
Ġbelief s
il ateral
Sh ader
Ġinflu ences
om ething
Ġdu o
Ġbl ame
Ġpro to
link ed
olog ically
com plex
ĠR ivers
And roid
e ing
enc ode
ĠInd igenous
Ġdev oted
ĠCommunic ation
ĠGover n
r ish
bl ob
Ġfall en
Ġextra ordinary
ĠWel sh
m ers
ĠZh ang
Ġt we
Ġk iss
Ġwe igh
ex cept
andid ate
Ï Ģ
ow ing
ent in
ÃŃ n
Ġbroad er
is co
ĠL ex
Ġform ats
T ry
display style
s am
Ġsequ el
~~~~ ~~~~
umb ai
Ġwork place
akes pe
create Element
Ġp ow
Met rics
ia z
Ġob l
Ġl ic
p ic
Ġr itual
Ġc yl
Ġalleg ations
ĠA ws
Ġcons olid
Ġstay ing
ĠGa ussian
ubern etes
Ġmount ed
ĠNew ton
}$ -
im mer
Ġbond s
L ove
ft en
Ġperform s
ro d
w oman
Ġ= \
Ġd rove
ĠW I
un ed
CO VID
r age
Ġt anks
ing ing
Ġconfig ured
Ġkne e
Ġ( ),
ĠH indu
ĠMP s
Ġwound ed
IC ATION
pm atrix
p al
ind a
Ġiter ation
Dan iel
$ $\
ab we
greg ation
Ch anges
ĠCour se
Ġstri king
am med
Lin q
ĠL ate
Ġhand ed
ĠCamp us
(" #
} ",
Ġm i
r ules
ĠB ear
12 1
ĠCap itol
ĠEm ail
ĠS id
Ġbr ick
ĠH at
H am
ĠÐ ¸
ĠComp etition
can vas
ish ments
l oss
Ġe leg
Ġprotocol s
Ġin clusive
}} ^
del ay
F il
Sm all
im ony
ĠSh ang
ĠBroad cast
Ġtarget ing
Ġgot o
valid ation
B reak
)\ ,
J im
Ġaltern ate
Ġmeas uring
Ġobject ives
Ġelim inated
Ġc um
ĠP HP
g row
ĠL abel
c ancel
ĠĠĠĠĠĠĠĠĠĠĠĠĠĠĠĠĠĠĠĠĠĠĠĠĠĠĠĠĠĠĠĠ ĠĠ
f loor
": "
50 9
Ġearthqu ake
ub er
ĠS alt
Ġcook ing
Ġalloc ated
Ġl ucky
ĠPh ase
Ġsm oke
Ġlog ical
Task s
Ġs hed
Ġfoss il
ĠJ S
Ġres id
ul ent
ĠF an
ĠRe ports
I ll
Ġmind s
ump y
ĠN HL
roll ers
Ã Ĺ
Ġw inds
ĠS r
ĠDef ence
ĠCar r
L ow
Ġmand atory
Ġ// !
Ġdon ated
Ġbet a
There fore
Ġsepar ately
ĠP si
Ġburn ing
Ġin ev
Ġhar ass
ley ball
un ate
Ġsav ings
ĠN intendo
Ġdocument ed
ĠB eyond
Ġor b
ĠDet ails
ĠF if
Ġdef ining
Ġjo ins
ĠInf antry
ace ae
Ġgot ten
Ġac res
ĠMil an
ĠMe chan
B its
Ġcl s
Diagn ostics
ĠS SL
Ġins pect
alt ies
ĠScient ific
em ption
ĠJ oint
ĠGuard ian
C UR
final s
ĠN A
ĠCom ponent
M ov
ĠT rophy
ĠAg ent
if ice
Ġsh apes
Ġcoal ition
ĠB ot
ĠV lad
5 000
Ġm arch
27 0
Ġcons ensus
Ġrev ised
ĠGr an
osp el
ĠOver all
co ord
log ging
ĠIt em
Run ning
ac ies
O cc
g if
ĠB ass
Ġinter rupt
10 16
ĠCom b
R ock
imb abwe
D irection
Ġassoci ations
ĠB eth
Ġd ot
Ġim pression
f ight
th lete
ĠEd wards
Ġiter ator
ĠR ural
ymmet ric
) ^{-
Ã© n
b ai
in ject
Ġjud gment
Ġres igned
disambig uation
h uman
ody nam
à¥ į
ĠO scar
Ġgr ain
å ¤
ĠH udson
int o
Ġmag azines
uet ooth
Ġaccess ed
ĠCirc uit
iz a
Ġpre st
ĠY am
3 20
Ġhe aling
ĠC u
inter pret
aa aa
Ġfund ra
ĠC ut
Ġw elfare
Ġblock chain
Ġpre lim
Ġy ard
Ġdesc riptor
Ġstake holders
ĠS oph
B T
= &
Ġem ails
ers et
Ġphil osoph
Ġt al
Ġim per
BO OL
ĠCh and
18 70
Ġjournal ism
Ġflex ibility
aj a
t ical
ĠE ST
ĠS creen
Ġnegot iations
CRE ATE
Ġstrict ly
Ġad verse
Ġz ones
inn ed
sp in
Ġs its
Ġaccept able
S un
Ġsub mission
Ġproject ed
Ġhand les
Ġth rew
ĠPro perties
à¤ °
ort on
Ġs isters
Ġsufficient ly
Ġoverse as
ĠW rest
ĠCommun ist
ĠZ end
ort ex
g em
ĠR aw
ogn ition
Ġpro be
ri ke
LE TE
ĠArchitect ure
Ġamplit ude
akespe are
ast ed
get Type
Ġd ining
Ġpar a
Ñ Ĩ
pre vious
ĠL uther
an ian
re str
du ctions
Ġim pl
ĠProt ocol
Ġst olen
Ġim posed
ĠCons ervation
/ ">
j oint
$ ^{-
Ġreg ression
ĠS K
ĠP erm
Ġcool ing
Ġrel oc
. ).
ĠCam eron
AP P
Ġscatter ing
ĠJ ama
Ġlog in
he ld
k n
L uc
al ias
$ ).
Ġn erv
ĠV A
Ġaddress ing
ĠB omb
ĠAl ong
Ġcross ed
U nd
ĠÂ ±
Ġassess ed
Ġback ed
Ġclass Name
igh bor
Ġr ated
ĠChe mical
Ġd ying
UT E
On line
om o
ĠQ uality
Ġhad n
ategor ized
Ġinf ected
ĠLegisl ative
Ġblock ed
Ġemb od
) _{
A mazon
apeut ic
Y S
ĠCustom er
ĠNorm an
Ġt ar
ime q
Ġsh ield
ĠEx cell
Ġbacter ia
Ġmer ch
ĠEgypt ian
Vis it
Ġsurve illance
Ġimpr ison
B us
ĠRich mond
ĠMont ana
Ġpe ers
ĠSh ar
F eed
ast ing
orpor ated
Ġsmart phone
ĠÃ ī
lear ning
ĠS ummary
Ġelev ated
Ġp ole
Ġvis itor
H ouse
P DF
Ġm os
k ar
Ġprem iere
sc ss
Ġlisten ers
ĠS eb
M ary
M ust
Ex pect
ion ed
Ġdeterm ining
Ġsur f
ad ows
Ġnation wide
= %
ĠAssoci ate
Ġcomment ed
ad oc
ĠM ix
Can vas
ĠU RI
column s
ep per
T yp
Ġat omic
establ ished
s imeq
ĠP AR
ĠBro ther
m apping
Ġdef ending
Ġelim inate
ĠâĢ º
o ons
Ġabs ent
h box
ĠU TC
ach i
Ġaw esome
ian ces
ĠUn like
B re
ĠB irth
Ġneigh bors
ĠL is
ĠWork ers
ĠA w
ern ess
FI X
tr ain
Part ition
pol y
Ġ- =
Ġall ies
DE D
ĠRod rig
Ġd ens
ĠMus k
Ġdec ides
Ġj e
ĠAr c
ĠCo ord
Ġsph er
Japan ese
Ġcompl aints
ĠCons umer
ĠD ig
C N
D ynamic
Ġadvoc ate
Ġoutput s
ĠC ub
ĠS UMMARY
Ġ' _
ĠD IS
ĠG M
Qu ant
Ġvol can
Ġinstrument al
Ġadv ers
18 98
H en
Ġcrypt oc
Ġspons ored
ok u
Ġcreat or
Ge ometry
D iff
Ġcred entials
Ġdistingu ished
St ub
Ġsus pected
comp ass
Ġfor um
in ced
Ġsh it
Ġdesign ers
Ġsl ave
... "
in fl
ĠE ld
Ġautom ated
Ġsc ream
ĠT on
um i
ph ere
all ing
Ġtri ps
Ġoccas ions
l p
Cre ated
Ġhel ic
Ġste ep
ĠWat son
H ard
ĠGrow th
Ġb eneath
[] {
Ġconv icted
Cal c
Ġsoph istic
S K
Sim ilar
ĠE le
sp ired
Cons ider
ĠNash ville
Ġcl ause
Ġall ocation
Be en
Ġw age
Ġcon vey
ĠEm ily
ĠT ABLE
F ar
Ġp our
iz za
en ue
om at
Ch art
Ġelement ary
N eed
Cl ub
Ġang ry
L icense
L ite
ĠTreat ment
L R
Ġanaly tics
ben ch
ĠPro gress
c ursor
styles heets
C irc
ĠS aints
g ie
Ġ& #
m el
re pository
at able
T ON
Ġencounter ed
Al bum
Ġrestr iction
annot ations
Ġpract ition
Me anwhile
ĠHigh er
Am ount
m os
Ġd st
Ġhot els
Ġwith d
3 000
ĠAdd itional
pr iv
ĠS ometimes
Not able
18 00
Ġa uction
atab ases
( ()
d ynamic
se gment
Ġdifferent ly
Ġred irect
ĠN urs
ĠStan ford
Ġg onna
U t
ĠCl are
Ġt ribute
A ud
Ġprov incial
Ġhard ly
ĠCl ay
Ġstri kes
d anger
Ġsh oes
Ġk iller
ĠWARRAN TIES
ish ops
A ctions
Ġtw in
ĠR angers
ĠPier re
ĠBatt alion
Ġearn ings
Ġt ube
Ġf itting
cl ock
(" \
ĠDev ice
Dep recated
ĠSc ript
Ð¾ ÑĢ
ĠSumm it
ĠForm er
Ġen semble
et ta
ip per
ag i
ĠSh aw
Ġinvestig ations
Ġe ighth
ew ise
Ġper ceived
as ures
Res et
Ġcop per
ĠF ilms
Ġgr ateful
g al
Ġcal m
SO URCE
Ġc ere
Ġsub group
ĠCollection s
Ġt ape
ag ar
Ġcy cles
agon ist
load ed
run ning
ĠUp dated
Ap ply
ĠSer ge
Ġc b
Ġf t
Ġd ancing
ĠBrig ade
Ġfl avor
g om
as ive
ĠJ oin
am ic
N V
Ġent ers
Ġeditor ial
ĠNe il
Ð¾Ð »
R ay
s chool
Ã ¦
sc opy
ĠH ousing
15 00
ĠVAL IGN
ĠEl li
app le
Ġbo ats
ĠS occer
mit ter
neg ative
add Class
ment ed
ĠB ir
Ġman ages
Ġup set
Ġpred ecess
Ġm amm
Un ivers
au kee
ise cond
Ġt sd
Ġmut ual
ĠBen ef
pop up
Ġart work
Ġsust ained
int age
Sep ar
ĠC ob
Ġlegend ary
Ġmob ility
r ain
Ġadvant ages
cl i
Ġcon form
Ġaccept ance
Ġm ature
Ġin verse
Ġg ray
cl ine
17 5
ili ary
Ġf ate
ĠD evelop
Ġintrodu cing
Char les
S at
Ġsur ge
Ġposs ibilities
Or igin
per ature
ĠP ain
us hes
ach ers
enc oding
ĠSimilar ly
ĠA V
d st
ĠT yp
ver ify
ĠSt orage
NO DE
second ary
Int eg
uff icient
Ġw ings
ĠS ox
ĠĠĠĠĠĠĠĠĠĠĠĠĠĠĠĠĠĠĠĠĠĠĠĠĠĠĠĠĠĠĠĠ ĠĠĠĠ
Ġwor ried
ĠLog ger
Ġair line
olec ular
m aps
r pc
ĠK il
Se ason
__ _
Ġmyst erious
re po
gener ator
] +
ĠOrth odox
ĠT i
M ir
ull ivan
H AL
Ġrecon struction
ĠNich olas
Ġmetab ol
Ġequ ilibrium
% ),
ĠS equ
Ġthread s
. (
z ing
um ble
( ['
(' <
ĠH em
ĠLi u
ĠD oll
w ind
Ġgame play
Ġdis ability
ĠPr adesh
12 6
Ġequ als
Ġnob ody
ĠL ions
ĠV eh
ĠAlber ta
Ġig et
L at
ĠM ason
An chor
ĠInter est
Ġfarm ing
P s
Ġsil ence
vel ope
rem ark
ĠMA X
à ¯
ĠC urt
ĠRoman ia
Ġconflict s
ĠL en
f ef
Ñ ħ
Ġcomm ut
ĠRog ers
Ġconv inced
Ġbar riers
ĠD rop
18 99
Ġquant ities
in ely
ĠA round
Line ar
Ġass ists
Ġens ures
Ġfl our
36 5
h ind
ĠSong s
Ðµ ÑĤ
Execut or
Ġf itted
p ine
Ġgr avit
QUE ST
Re ceived
Is rael
2 10
ĠA ve
ĠFant asy
e clipse
ĠHealth care
ĠE ug
al gorithm
Ġhom eless
Ġl on
Ġf ighter
Ġiniti ated
RA ME
tim eline
ĠVer ify
Ġhon our
Ġport al
urs ive
Ġansw ered
ĠH il
Id x
Ġ" >
Ġn ights
ĠO thers
Ġfriend ship
C ould
Ġbur den
ĠM ann
Ġ{ ?
Ã© r
Spr ing
ens en
Ġachiev ement
F N
ĠS old
con cat
ĠGl ass
IMP ORT
Ġmod ification
Ġsy ntax
ĠS uz
Read y
per iod
se cret
1 19
est on
Ġspr int
ĠLie utenant
Ġtox ic
ĠR ah
ĠSy rian
Ġadjust ed
Ġa ux
Ġun iqu
I l
Ġderiv ative
ĠD ynam
Ġcollect ing
Ġf ool
ert on
Ġret rieve
ĠI o
Ġther ap
ĠGr ade
ĠR ico
item pty
Ġcritic ized
Ġwant ing
Ġexpl ored
f ar
Control s
omot ive
L ater
ĠFil ip
Ġl obby
Pl us
ĠRun time
Ġconf used
Ġim g
T M
HO UT
ĠT OP
ĠHung arian
H ot
ari ans
Ġdraw s
ĠRail road
c z
ĠAthlet ic
Ġpr ay
ĠHor se
Ġachiev ing
ĠT odd
ĠS ale
ĠAv iation
ĠC atherine
Ġdon ations
ĠB ra
D er
ĠR av
Ġdel ivers
j ud
Ġact ed
Ġfun eral
cl op
Ġspecial ized
Ġplay offs
ĠR ugby
F ixed
St age
olog ic
man agement
Ġenc oded
M a
Ġf ut
Ġt orn
V IEW
ĠInt el
per p
ĠTy ler
Lear n
Ġpl acement
Ġel abor
ĠCat hedral
Serv let
m usic
ĠI celand
ĠĠĠĠĠĠĠĠĠĠĠĠĠĠĠĠĠĠĠĠĠĠĠĠĠĠĠĠĠĠĠĠ ĠĠĠĠĠ
ipher al
b ug
Ġextract ed
sol r
ĠN ebraska
OL D
ĠN athan
ĠAn imal
Ġw x
LO AD
Ġh align
Ġtour ist
ĠT esla
ac ial
Ġfe as
E conom
Ġimm igrants
ĠR andom
Ġclass room
tik z
ĠF actory
) }{\
ĠB arr
Ġmagn et
Ġh ire
Ġ< -
DE C
NE W
ĠDe al
com fort
Ġaffect ing
Ġp orn
Ġto ll
Enc oded
ĠN J
pre ced
pl iers
Sm ith
Ġsynt hetic
Ġconf usion
Ġtr ivial
Ġpi pe
ĠSher iff
Ġtrust ed
H ol
Ġinj ection
Ġre nown
Ap ple
Ġw is
Ġt ent
Ġadv ised
avel ength
Ġch ron
Ġstep ped
ĠLeg end
con current
Ġnom ine
Ġl umin
Ġ$ -
d ocker
ĠMod ule
om itempty
Ġâ ĪĴ
zer bai
ĠCh arg
add le
Ġappro ached
ĠW alt
ĠGr id
ĠCom plex
Ġfin ancing
at om
product s
Ow ner
B D
ĠPlan et
ĠPark s
ific ates
40 4
r and
Ġnav igate
S napshot
ib ling
Ġob sc
Ġprefer ences
< >();
s ure
Ġexperi encing
ĠM es
Hash Map
Ġbuild s
ĠD eg
Ġland ed
cer pt
Ġbar rel
EN TRY
Ġext ending
ĠPer iod
tim er
Ġdistingu ish
ĠS or
Ġpr ayer
ac a
unt ary
D ig
w aukee
ĠI van
ĠCons ervative
ĠO C
Serial ization
ĠB ath
ip art
ĠIniti ative
Ġper ception
Ġ{ %
Ġ" [
Ġthrow ing
ĠT ed
Ġcomment ary
Ġadequ ate
er ie
ĠBi ology
Add itional
sur face
ĠNaz i
Ġ{ $
ĠCh i
Ġd rops
ĠK ill
ie ge
IN VALID
ĠTre nd
T uple
oc co
Ġpl ates
Ġplay off
ars ed
Ġas h
b ian
ĠP ok
end ors
Ġb ab
p f
Ġde prec
Ġball s
Ġpoint ing
ĠCol lect
ĠS cal
pr agma
Ġcur riculum
os hi
Ġanticip ated
Ġp ink
Ġex cluded
J on
} )$.
Ġprogram mes
gener ation
ĠM ong
Ġd t
ĠJeff erson
Ġre ceptor
heim er
ĠT un
Ġorig ins
Ġinvest ing
Ġs el
ĠUn less
Ġpresent ing
ĠG ene
che str
Ġc ave
P riority
Ġlett ing
Ġdis crete
Ġhum or
b ird
ph is
Ġsol ving
Ġhe ating
sh ots
12 9
Ġsens ors
ĠSp acew
Ali as
Ġinst itutional
IS H
Pr im
ĠCare er
m ov
ĠV ict
ĠT erry
ĠC incinnati
ĠProgram me
} ))
^{ +
Ġtrad ed
ĠST ART
S us
ĠTr uth
" ];
Ġexecut ives
Del ay
Ġthe at
Ġsubst itute
Ġso ap
AT URE
ĠI M
A h
O FF
Ġobtain ing
Ġinterpret ed
ĠN ancy
Ġ" ${
14 5
ĠComp anies
pro duction
Ġunc lear
ĠC ad
Ġinternational ly
ĠAust rian
\ )
l ies
ĠG rey
Ġin fect
OR S
M IT
Ġs orry
ig ion
ĠK umar
Ã¶ r
um ption
ĠZ ero
v d
Ġsure ly
ĠLem mon
Ġeconom ics
itt ers
Ġl in
Ġstup id
ĠS outheast
Ġsumm it
ĠM end
au nd
18 95
Ġattend ance
d jango
Ġclean ing
**************************************************************** ********
ĠJ O
st roke
================================ ================================
ĠW es
G N
Ġin duct
cass andra
h aus
Ġreg istry
15 5
Ġconnect ivity
tool tip
Ġp uls
MP L
Ġshel ter
g mail
ĠV acc
Ġind oor
umb n
Ġpl acing
en vironment
ĠBut ler
ĠCom plete
ew ay
Ġdiagn osed
Ġarr ays
get s
ĠCon nection
vis it
Ġed itors
ph an
Ġbott le
ĠBer keley
gu ide
13 4
G IN
ĠL ud
am mat
ĠW ol
ĠPer u
Ġstock s
b rit
ĠLet ter
; |
fef efe
B road
â ĸ
ed ing
Mod ified
Ġexha ust
ĠR C
Ġtele phone
om eters
ĠSh ip
ĠNov a
Ġqu oted
ot he
st orm
ethe less
Ġfinal s
S afe
Ġelect oral
hol m
B ACK
Table Row
Ġcert ification
Ġfasc inating
Ġh ab
he x
Ġtravel ed
eg u
18 60
v ars
ĠR ES
contain ers
Ġdismiss ed
power ed
ĠCurrent ly
Ġ rip
av ier
!! !!
ĠBr istol
writ ers
it us
ĠColomb ia
Ġjurisd iction
ĠKE Y
f olk
ĠBeng al
Ġsort ed
s ocial
Ġlo ose
ĠGlas gow
Ġan notation
ĠEconom y
ĠD A
Loc ale
×Ļ ×
ĠDel aware
Ġsports people
Ġcomp ass
ĠE ston
U A
vert ed
Ġr amp
00 5
ĠAm sterdam
Ġcollabor ative
Ġorder ing
S F
X Y
Ġco her
ĠLu is
Ġout line
Ġinvent ory
Ġoverwhel ming
ĠSpacew atch
Ġarchitect ural
Book s
ĠJos Ã©
Ġwork shops
Ġrac ism
ĠW ag
ĠE ff
Ġac oustic
N AS
ĠMon itor
ĠW ire
S te
ĠC off
Pro duction
J ose
18 96
Ġrepl ied
ĠAlex and
Ġexc it
Le ave
bre v
ĠCom mercial
18 97
Us es
Ġgr ave
Ġvac uum
Ġsuccess or
Ġpost ing
Ġem pir
It alian
ĠVictor ian
Ġexp ense
i ating
effect ive
Ġem p
ĠP ref
ĠPhys ical
ĠCont emporary
Ġphotograph er
new command
ose x
Comp letion
F rames
Ġf oo
Link ed
ap or
ĠDub ai
inter val
Ġf ires
(' ./
ĠB oot
cl s
Ġli ability
on ian
ĠRest aur
ĠS V
G it
Ġacknow ledge
ent e
eng u
Ġcare ers
ĠSo on
Ġf ictional
ii i
Ġarr ives
[ -
ĠN ATO
un i
ĠL L
Ġconven ience
ammat ory
Ġstraight forward
l ic
Ġtrans parency
Ġencour aging
rg b
BU FFER
S ound
mat ches
th ird
Ġf iring
ĠSy ntax
CD ATA
ĠIn fo
Ġpers u
Ġret reat
Ġtempor arily
. ',
ĠD ir
M obile
ar as
Ġch icken
ĠTh under
R UN
Ġdist ances
Ġbel t
Ġproduct ivity
f und
Ġactress es
Ġlik elihood
Ġaccompl ished
fr astructure
Ġprelim inary
A ff
Ġear ning
Ġenorm ous
w ik
ĠSh akespeare
Ġdiscuss ing
Gover nment
Ġe uro
ab stract
in itions
Ġf illing
Ġst reak
Ġcred ited
D isk
g age
Ã ½
Ġs ender
c op
re p
ced ure
ro b
ĠN FT
Ġplace holder
S n
Ġ ib
od ot
n m
SP ACE
Su ite
ĠCP U
ĠR idge
Ġcru ise
Ġn ortheast
D igital
Ġfrequ encies
Ġbreak fast
trans port
ĠD rama
Ġan onymous
ĠSur v
p aces
fr ames
ĠMan ufact
Ġm s
ĠTh ink
= $
Ġis ot
enc il
ĠId aho
Ġcon fess
Ġc inem
ĠP att
ĠN R
ĠF DA
Ġsurg ical
on line
Ġener gies
ĠPhil osophy
Ġqu ot
$ ;
not ify
op ath
Ġcomb ining
ist le
er gy
Wel come
Ġrid ic
ĠNep al
Ġh iring
Austral ia
Ġpassion ate
Ġbenef icial
ĠT ib
ĠW ikipedia
Ġt ribe
se en
Ġadminister ed
V AR
ĠPar ish
Ġut ter
f ive
am y
Ġcous in
cam el
ĠG A
get String
ĠHug hes
w ear
ĠM aking
ast ics
ĠN om
rib ers
Ġ-- ></
P et
Ġabsor ption
ĠRet rieved
ĠP ont
Ġcomp ly
ĠC apt
Ġco h
ess a
ous el
w ire
ĠF ramework
Ġt une
Ġd ump
ĠP ent
ĠR osen
ĠL loyd
s hell
Cent ral
F ort
ĠA uth
Ã¨ re
Ġsh aped
ah an
par agraph
ch unk
Ġav iation
ĠF ocus
Ġexpect ation
Ġat tractions
ty p
Ġs ne
op ing
C y
Ġabund ance
Ġatt ach
)\ \
fe atures
Ġvari ance
Comp at
M ix
ĠLicens ed
ĠCh rome
Ġdepend ency
Ġc rops
ĠY ellow
f uture
ĠAdvent ure
ident ity
em i
ĠÃ Ĺ
ĠIm mutable
Ġcon spiracy
Ġgener ates
ancell or
v endor
H uman
f older
Trans ition
ĠG it
Ġat oms
Ġar ise
ounc es
Ġstop ping
Ġev ac
Ġcons iders
bour g
Ġd ynasty
Ġmon ument
Ġsurve ys
ĠArab ic
G ui
Pr inc
Ġtempor al
ĠM ob
ĠFe atures
Ġinvestig ating
Ġconst itution
Ġsu ck
Ġres erves
Ġg rap
Ġher oes
ĠU SS
ĠWe ather
Ġsc iences
se ctions
uss els
ĠG E
ĠStr ong
Ġcontact s
File Name
2 25
ĠYork shire
ĠS yn
Ġ' -
ĠMus ical
ĠS um
ert y
ĠTo o
ĠH alf
ĉĉĉĉ ĉĉĉĉĉĉ
Ġshift ed
up per
ĠGl en
Christ ian
Ġhe x
Ex ecute
ĠW riter
Ġere ct
or f
ĠPh one
Rep ly
con scious
Ġf usion
F acebook
Ġpre ference
ĠAssoci ated
anc ers
Ġla unches
ĠCirc le
ĠRey n
Ġpr icing
allow ed
M ike
exp and
get Message
Ġc rystal
ond e
code c
ĠR oche
Ġimportant ly
ĠChar acter
ĠC ategory
orient ed
ĠB our
pro f
)$ -
Ġfil med
ĠBr ain
ĠP oss
18 91
f ailed
A SS
Ġbut tons
16 5
Ġo l
Ġn ic
Ġannounc es
Ġ' #
N eg
y outube
th al
um ing
ĠÐ º
Ġcab in
Ġcir cles
R oll
Ġv ig
Ġnot ify
ĠL ov
> `
Ġle ase
ĠChel sea
ĠGener ation
Ġpro pri
Ġok ay
ĠBapt ist
Ġdon ation
is ch
Ġnon profit
ĠJ ake
ĠE M
Ex tra
H AND
d al
Ġqu otes
Ġh orn
as se
ĠC ox
add ed
ĠOak land
Ġf u
Ġdist ant
Class Name
ĠM ED
Ï Ĥ
am pton
Ġsh ifts
Ġep it
Str ucture
Ġcont rolling
ĠÐ ´
ĠPre vention
D ou
Ġp ale
Th ose
Ġisol ation
Ġhor izon
f ox
Ġmer ger
Polit ical
ĉ ĠĠ
get Attribute
ĠMe et
ĠA WS
gom ery
Ġbel oved
Ġh anging
Ġe ager
ĠR oot
ĠÃ ¢
is i
Ġcontinu ously
Ġf o
Ġprevent ing
Bit map
ĠCh am
Ġf ed
Ġorgan ised
Ġtrigger ed
go og
F ail
Ġnormal ized
Ġcann abis
ĠAn a
ĠHamilton ian
c n
ĠTr ain
Ġn ep
ounc ill
Ġconfig urations
ĠE ve
l ated
Ġdo zens
Ġchar ter
Ð¸ ÑĤ
Ġc ry
ĠSch w
Ġwoman DYBAG
ĠS TR
Dep artment
ch ing
ĠJ ar
Ġoccur ring
ST ART
Ġcorrespond ence
lib s
ĠC amb
Ġw are
Ġst om
Com b
Ġrad ar
ĠStat ement
$ :
ĠMun ich
18 89
] }
Ġare na
ĠZ imbabwe
Ġin coming
ĠFa ith
14 7
Ass et
ĠA str
ĠWIT H
Ġterrit ories
Ð ±
h n
Ġsent enced
99 9
' (
ĠU E
ĠEm ma
Ġconst itutional
d elegate
ĠAss essment
ĠArg ument
Ġreal m
Ġdim ensional
B er
Ġimpress ed
h um
Ġder ive
Ġconduct ing
ĠJava Script
g on
C annot
Ġpath way
map sto
Ġcent res
Ġj ournals
Ġcreat ivity
Ġprof its
18 93
ĠW ould
ĠI g
Ġtechn ological
Ġra ises
ĠK os
ĠF ont
ĠGu inea
Ġrenown ed
â ¬Ļ
Ġfest ivals
13 2
ĠW C
Ġconnect s
ĠAdvis ory
one percent
13 1
cipl inary
od ium
s it
ĠFl ag
itte es
13 6
Ġgu ided
Ġloc als
ĠS ter
Ġwealth y
ex isting
Mon itor
c mp
ep age
elastic search
Ġpe oples
child node
IT H
Ġsph ere
is y
Ġtra uma
d ie
che ster
el ia
ab br
Ġfeed ing
ĠM az
Ġcan onical
16 8
ĠK yle
Ġrest art
am ation
Ġv o
ĠU V
qu estion
ĠĠĠĠĠĠĠĠĠĠĠĠĠĠĠĠĠĠĠĠĠĠĠĠĠĠĠĠĠĠĠĠ ĠĠĠĠĠĠ
) *
ut o
al one
Contin ue
Ġvolt age
m un
m iral
ari ju
end um
RES ULT
end point
ĠPro test
ĠAm endment
Ġg rip
Ġa ria
N F
ĠHar vey
Ġf ung
loc ale
Ġc ryst
ĠC opy
Ġbank rupt
cont rolled
ari ance
ĠDis play
ut ton
Ġdefault s
Ġf i
Sc ore
ĠAct or
ĠWall ace
b an
im o
Ġrenew able
ĠPalest inian
Ġprint f
me an
Compar ison
he w
vert ex
Ġattack ing
h aw
ĠH ob
ĠO t
EV ENT
Ġmin isters
Ġâ ¬Ļ
SU C
ĠPhill ips
ĠInd ies
ĠS ER
habilit ation
Ġauthent ic
/ )
ĠS ierra
sc opic
Ġtim er
Ġcomp ression
ĠArt ists
}^ *
Ġoffer ings
Ġap olog
Mod els
Ġconsist ency
oc o
ph oto
Pe er
ir able
ĠBer g
ĠCh an
Ġcompos ite
Ġdivor ce
ariju ana
act ors
Ġind ent
Ġspe eds
Ġver ified
Ġmist akes
è ¯
fore ach
path s
Art icle
;| &
Ġo ct
ĠAcad emic
Ġnorth west
Dec imal
J O
op ol
}} ^{
U ntil
ĠOp port
Ġt uple
ĠFle et
Ġrender ing
18 92
Ġcour age
Ġsurre nder
T ensor
ĠCo hen
ĠIn side
Ġbul let
ĠLiber ty
com merce
String Builder
/* !
Ġnurs ing
Ġag rees
Ġbi om
G RO
æ ķ
ĠHel en
m f
c ott
For ce
ĠCon n
b uff
act ers
Ġinvest ed
lin ux
Ġremember ed
Match er
Ġf ears
ĠMichel le
Ġt ear
Ġpartnership s
Ġmechan ics
Ġburn ed
Ġd oses
am ount
ĠO UT
Ġall iance
Ġpr ide
Ġrad ial
Ġenc ryption
Ġelev ation
Ġacknowled ged
Ġpredom inant
ĠB uch
ĠESP N
Ġgard ens
u pt
Ġr iders
ĠTH IS
N umer
Ġz oom
ĠK re
e cca
Ġb lo
ĠWell s
ĠDet erm
ĠG ive
Ġhel per
ĠAthlet ics
ĠS ah
ĠF ly
preced ented
L iteral
ĠUs ers
ĠC uba
ĠS Y
Ġrock et
ĠM eta
ĠBob by
Ġreport ers
ĠS weet
O l
b ishop
Ġsett le
Ġmuseum s
nob r
sw er
ĠDate Time
ĠLuc as
Ġrecommend ation
Ġg ifts
Ġharm ony
view port
Ġfl ed
N D
ĠSu ite
C SS
D ist
e ur
h ou
Ġdist inction
U kr
Ġdead ly
ocr atic
o ard
Ġmin eral
Ġmed ic
Ġsubsid iary
Ġox id
ĠC inema
Tr ump
ĠB ald
sc apes
Ġdebut ed
Ġconstitu ency
Ġsm oking
ĠEnt ry
h arm
ĠA bs
ĠM ine
Ġdrink s
Ġlov ely
RE T
l atest
Ġgenu ine
ĠD od
An im
Ġyoung est
Ġdemand ing
Ġcomp elling
Ġcent ered
SP AN
ibl ings
ĠW ant
ĠSt ef
Ġscr atch
Ġspec ification
Ġw ars
SH A
IC S
Ġal igned
18 50
Ġnav bar
Ġref resh
V S
ĠF ALSE
Ġlegit imate
ph abet
h ole
ĠSE C
ĠHoll and
Ġdemonstr ates
== =
Ġcle ared
n ai
i eg
å Ń
Ġb ay
Ġbatter ies
Ġfulf ill
igr ant
Bet ween
Ġint elligent
Ġlaunch ing
Ġdis patch
ĠD ennis
Ġinter vals
Ġinter ventions
ir atory
Ġbi ology
l int
M ur
iz ar
Ġcur ious
oot ing
Ġt ends
ĠN ull
Ġdistinct ive
Cross Ref
ĠIllegal ArgumentException
ĠL ocation
ĠS ax
F ast
ĠAb raham
m art
2 11
ĠR ou
aged y
off icial
ME M
Ġt f
Ġco at
ĠV as
sc ala
ĠSy mbol
ĠIS O
Named Cell
Ġ# {
Î »
Ch unk
ov ich
Ġterror ist
ĠOr lando
Ġhold er
yl an
Ġnerv ous
or p
Ġpack aging
L ittle
: -
ĠUn c
/ (
in ology
ĠNot ice
Ġout s
." )
ĠT YPE
ĠM umbai
attr s
u ition
Ġsan ctions
Ġaccommod ate
ĠM idd
ĠP D
ĠP anel
Ġesc aped
Ġwhe els
$ ~
ĠE ye
ĠCh oice
list en
Ġch ap
Ġchalleng ed
r ise
Ġint ens
Ġpre view
Ġal umin
ext ensions
ĠB og
M ah
with out
J ew
Ġdis contin
sd k
ĠF oster
oth ic
ĠB A
h all
Ġp iv
ert s
ĠRe ed
ION S
HO ME
al ter
Ġcom plications
ator ial
ĠCl aim
De ep
ĠG B
Ġne u
WA RE
In struction
Ġrespons ibilities
Ġstat ue
Ø ³
Ġche ese
Ġelder ly
Ġdemocr atic
ĠB ound
ff ic
ĠMin i
ĠTest s
Ġrot ate
"> (
18 88
ĠChem istry
ter ritory
Ġcab inet
Ġrandom ly
B ob
c ref
Par cel
) ?
è ¿
te le
\| _{
Ġ ĉ
ĠAut om
dis patch
Ġat om
Ġrecogn ised
st ad
ov an
Ġveter ans
Ġent ropy
Ġpremier ed
com par
Ġsmall est
Car thy
ĠAnt ar
ĠEx amples
Ġle an
Ġrefuge es
% "><
Ġadv ances
h p
ich i
20 3
Ġless on
Ġund ers
Ġenjoy ing
m ys
ur st
re duce
Ġexpect s
Ġlabel ed
ĠD ol
Ġk w
Ġperm its
ĠH app
C lean
Ġal ike
Ġdis cret
f ilm
18 94
un ts
ĠMed ic
á º
S ar
umb ent
med ium
local host
Ġprogress ion
com ed
Az ure
Ġtrem end
Ġbl ess
ĠSpe aker
Ġb ishop
ed ly
Ġrem arks
am o
Ġheart s
In vest
Ġs our
ĠS yl
ĠS z
ĠPart ner
Ġconj unction
p ref
ic ia
Test ing
Ġsurv iving
ĠK aren
ĠP av
un ger
iz ational
ĠD anny
ĠWild life
ul o
ch air
sl ide
Ġindic ator
F D
ult an
Ġtour ists
ale y
Å Ħ
Ex pat
k ed
Ġp ig
ot yp
d evelop
Ġb ags
t ile
j ournal
ĠColon el
Ġcount ing
ĠCons erv
Ġfor b
az i
Ġtr ap
ĠR ams
Ġthr iller
Ġsynt hesis
ĠO bl
Re ception
Tr igger
includ es
M ail
Ġt ired
Filter Database
ĠPat ients
Ġver ification
ĠRem ember
W D
f actor
ut down
path y
Ġarr iving
ĠBrook s
ĠB orn
Ġafter wards
ĠCas ino
ĠG C
ĠChristian ity
car bon
-------- --
ĠPar ad
Ġrecip ients
ĠR aid
ĠTh row
ĠP icture
qu in
Sup press
m oment
Ġ( %
ĠH P
ĠWIT HOUT
Ġf ingers
13 7
d ied
33 3
Ġhand ful
Tag ged
up dated
Ġmet all
Rep ublic
Ġsp ac
Ġcompan ion
Ġs lope
Ġweak ness
Ġbench mark
Ġj unction
ĠResp ons
ĠN ak
ĠF ace
Ġt ong
Ġfar ms
Ġguitar ist
ĠL amb
pi pe
ĠV ermont
T emp
Ġinter ference
ĠBr andon
publ ished
18 85
13 3
R R
ĠL if
Comp are
ĠQ atar
ĠCh ang
Ġsc andal
T imes
ĠF al
Ġdis rupt
ĠT ell
her o
ĠSw ift
D istance
ĠC ov
ĠG am
ĠK ash
CH AR
Ġwrap per
Ġl ingu
Ġexpl ores
pre pare
18 65
ĠC au
Ġcon ce
ond o
ĠDis covery
ĠC raw
im er
Ġdep icted
Ġsuggest ions
Ġl ymph
J oe
R en
Ġt ile
ĠBl ake
ul se
Ġw ishes
Ġis instance
sub scribe
Direct or
Ġhop ed
Ù İ
}} $.
Ġworld s
Dis c
Ġpen et
j b
ĠCon sole
fin ite
Ġchemical s
ĠCom edy
ock ets
Ġdr ain
ĠHe avy
ĠIn cre
Ġc attle
ĠExt ension
ĠT ampa
att ach
Ġstrugg les
ud s
Ġn ested
je ctions
Ġun ions
Ġam ateur
Ġbr idges
O bserv
igg ers
h ad
ĠÎ ¼
ĠAt hens
ĠAl pha
Ġp ose
Ġrele asing
M achine
** *
g iving
ad vant
Ġsub tle
ĠB order
Ġun success
Ġsup press
parent Node
Lower Case
ĠPart icip
sw ing
Ġblock ing
ĠO ri
W ARN
L ab
ĠAz ure
Ġdes ktop
] ).
ĠN y
ĠHur ricane
ĠA part
ĠStand ards
ib e
ĠFinn ish
g raphics
The orem
Ġdeterm ines
Ġfurn iture
Mult iple
Ġforg otten
ast ro
c v
' ].
Ġse am
work ing
Ġle ver
Ġconcert s
L i
Ġc ig
ĠHash Map
Ġbehavi ors
Ġr outer
ĠS ak
Ġattr action
ĠE sp
Ġachiev ements
ĠC ant
ĠR ena
H aving
Ġcontr ary
iod iversity
ĠTre k
ĠRepresent ative
ĠNever theless
con g
' ):
D ITION
Mut able
c ached
Ġcomp ile
Ġsc ar
f ilters
00 2
Ġprior it
Ġspect acular
ber ger
ĠF at
ĠB AS
Ġbl end
Ġmag ical
cp u
p it
__ ,
Ġsnap shot
ast rop
N ever
Ġsh ame
Ġcamp s
ĠL ED
uck land
Ġcomm emor
Stat istics
Ġassist ed
T own
P acket
ĠS erv
ĠProgram s
Î ·
Ġv ir
Ġm esh
RE NT
Ġemb edding
Ġcust ody
100 00
Ġviol in
c aster
Ġp ocket
ĠF ilter
trans late
ul atory
ĠJ ur
ĠL an
list ener
LA B
_ [
Ġproceed ings
el o
ĠV ert
Ġres ume
Ġpl ots
ĠLe o
(" .
unt ed
ĠB urg
Ġresearch er
int s
Ġactiv ated
20 30
Ġsophistic ated
ig m
Ġinv ention
Ġspread ing
ĠK in
D eb
Ġsouth west
J ac
}} $,
Ġpick ing
Ġvari eties
Ġill um
ĠSerb ia
> {
Ġw ard
Ġmurder ed
Ġbe ings
b ucket
m itting
ad ers
G raphics
h d
Ġmanufact ured
Ġg ig
aster y
C at
ĠD aw
Sever al
ĠFl ash
le en
P aint
ĠJess ica
ĠL arge
Part y
t an
Ch inese
Ġgeneral ized
Set up
ING S
Ġdem o
Ã³ w
ĠYO U
Ġroll ed
Ġstrugg led
im an
Ġaff air
Ġf ram
enc ia
EN V
ĠĠĠĠĠĠĠĠ ĠĠĊ
roll ment
ĠArn old
ĠJer emy
ĠG ang
M ag
Ġvar ies
s ass
Ġme als
D TD
ec ycle
Ġbal anced
&= &
whe el
Ġg aining
ĠK i
âĢ¦âĢ¦ âĢ¦âĢ¦
Ġw orn
ĠF ashion
ĠW R
L em
Ġ. =
ere k
D ue
Ġcompos ers
ĠIss ues
Ġw ore
set ting
Ġexpl aining
Ġten ure
Ġvac ation
Ġke en
ĠB B
Ġm ere
ul p
Ġmot ivated
esc ape
ĠAp plied
Ġaccur ately
ĠAh med
Expat riate
ĠP ackage
E r
Ġstar red
Ġdes k
Ġex pr
Ġincre ment
B LOCK
ÑĢ Ðµ
Ġcorn ers
... ]
fl ush
eg al
Ġsome body
Ġdev iation
ĠCon vers
` )
ĠCorpor ate
M il
Work er
ĠBelg ian
ĠL oss
Ã¡ s
qu o
ĠSp encer
ĠAtt ribute
P acific
F oot
Ġmon ster
ĠIn valid
V ec
Ġdist ribute
ĠInd ividual
Ġport ions
Î ¼
Ġob server
Ġd ip
em ploy
erial ize
k ers
And rew
Ġrhyth m
à¥ ĩ
ĠC ache
Ġathlet ic
Writ ten
T L
unit Pattern
: =
uff ix
Ġefficient ly
S uch
ĠGrad uate
16 9
3 30
id y
Ö ¼
iss on
ĠAp ply
te chn
Ġv ic
Ġsynt hes
Ġmem brane
Ġaltern atives
Ġin comp
Conn ector
bet ween
>< !--
May be
bro ok
Ġun ity
v or
Ġj ack
\ {\
ah u
Ġmathemat ical
Ġmathemat ics
ah oo
Ġconsult ation
Ġtrans itions
ĠTr inity
Ġs word
ĠB und
t elling
Ġtruck s
Ġlocal ized
ĠL INE
app ings
Ġwis dom
och astic
Ġnew est
Ġbusiness man
Build ings
Ġpers istent
ĠSt uart
Top ic
Menu Item
Ġp ian
ĠMot ors
ator ies
H om
Ġg aps
ĠR A
pos er
G od
ĠMat rix
Ġnav al
M iddle
AC ING
ĠS ure
Ġnon linear
t oc
ĠPro ductions
Ġmo ist
ung le
Ġb ell
ĠJ in
any on
Ġs ink
ĠS nap
ĠG ET
Ġgr ades
T witter
Ġsoci eties
J eff
ĠÐ ¾
TO M
Ġd y
Ġoblig ations
O s
Ġm a
Ġcos m
Ġreli ability
Ġeff icacy
value Of
Sche dule
ĠM ove
G G
ĠHar per
Ġscript s
16 6
ĠJ obs
Ġcreat ures
Ġs outheast
al am
al og
Ġm akers
script s
ĠMont e
Ġpsych ology
Int ent
O W
m ans
L ess
Al pha
ĠPet e
k an
ĠP ink
ok o
Ġsol ved
ĠTest ing
Ġhon ors
ak u
ĠHar bor
Sche me
Ġsecre ts
ip age
m ust
Ä Ł
Trans fer
pl iance
inc orporated
Ġtw ist
econom ic
is se
Ġhol idays
C AP
ĠB ug
!! !
Part icip
Ġn inth
ĠNiger ian
ĠLa unch
Ġgent le
Ġconv ex
18 61
ĠBro s
ĠC ash
Ġinvest or
Ġenc ode
Ġro ok
Ġsubstantial ly
Ġcompr ises
Ġgrand father
Ġconscious ness
Ġ* ,
Ġexpect ing
b age
Al t
Ġeth ical
ĠG em
ĠSh adow
Ġurg ed
Load ing
ĠG rove
Ass ign
Ġcivil ian
ela ide
ĠGard ens
Ġh ierarchy
Ġv i
Ġhistor ically
C redit
ĠCon struct
w en
m any
ĠK ur
ett i
pro position
Ġang les
13 8
14 3
Ã Ł
ĠR ice
Ġar row
ĠĠĠĠĠĠĠĠĠĠĠĠĠĠĠĠĠĠĠĠĠĠĠĠĠĠĠĠĠĠĠĠ ĠĠĠĠĠĠĠĠ
Ġu pt
B ank
get Class
x sd
Ġden oted
Ġor chestra
ĠAnc ient
in is
Ġr ush
D istribution
aw t
ĠDC HECK
ut ral
Ġlast ed
ĠMar cus
Ġsimilar ity
Ġlim iting
Ġcontain ers
ra f
Ġmar ry
ĠShang hai
Ġret ro
deg ree
Ġdecom position
Ġprior ities
_ -
Ġs ake
is b
ĠWood s
ĠEl se
are l
dec ode
gr ades
C over
v g
> %
ack er
ĠIsa ac
Ġout lets
Ġpreval ence
Ġpro found
ĠGener ated
G a
ĠAnd r
appro pri
Ġhar sh
Ġle ather
Ġrel ate
Ġdiscuss es
aff e
] ),
ĠT D
C ritical
Ġ" _
Ġl od
arr ass
set Attribute
g z
Ġs ew
ĠAn alytics
ĠStr uct
S B
ĠCar bon
') ->
Rep resent
Am ong
18 81
io let
uc le
h im
ig ating
ĠM ul
K G
art icles
k le
w ig
i ator
un lock
SS AGE
Ġcha os
ĠR uth
Ġapprox imate
ï ¬
Ġm arijuana
Ġun cle
G uid
Rec ip
18 87
Oper ations
Ġmer c
Can ada
J P
Ġcorpor ations
brit ies
en os
ĠTri ple
ĠDirect ors
Ġvacc inated
ĠA CT
Ġimport ed
Ġfil ing
Ġretail ers
Ġpul se
) }}
K ar
pe ated
m ag
ĠIn j
TableRow Color
ĠSp ider
sp ark
× ¨
ĠB ears
Ġdes erve
w allet
Ġen rolled
Ġproport ional
ic us
ĠB udget
ĠCh a
grad le
Ġcloud s
z b
ites pace
C oin
Sc an
Ġr ings
all ed
man uel
ĠTik Tok
ĠBr ady
Sl ot
IN IT
ADD ING
20 4
Ref lection
Ð ³
Ġr ab
ĠL ives
ential ly
M ot
Ġcub ic
ent i
ĠM ig
ĠLeban on
Z oom
ĠAppend ix
Ġ! !
Ġpoor ly
Ġembr ace
15 2
ij i
R oyal
Ġconfig ure
ĠN g
Th ough
Ġi Pad
im ity
Ġin cl
ĠEag le
Ġle ak
udd y
ard i
ĠC ool
ourn aments
Ġen compass
Gr and
Fr ance
gener ic
Ġcomb ines
] ->
Ġp ad
ĠSc ar
er i
Ġdress ed
ĠEdd ie
Ġmart ial
Ġnom inations
Ġcor rupt
ĠS afe
Ġb ail
Ġmand ate
ĠR ut
S ets
ĠM R
Ġun precedented
mar ine
j ab
Ġentreprene urs
ĠDer by
Ġmake up
Ġwrest ling
K ernel
Ġpoly mer
d ependencies
Ġpers pectives
Ġprotect ive
ĠV ic
Dec oder
99 99
anc ies
icy cle
Br idge
fin ity
T ip
ĠStr ucture
OB JECT
ĠE ight
ĠOtt awa
Mer ge
ĠGab riel
sc an
Met ric
Ġimpact ed
Sp anish
Ġpra ise
ĠPow ell
m icrosoft
us age
ĠTR UE
ĠT oken
For ward
ĠM ET
ĠParam eters
Ġover r
Ġqu it
ĠQu ick
ĠU SE
Ġso vere
Ġpat ri
Ġneg lig
ĠFem ale
ĠSche dule
Ġdam ages
Ġele ven
}( {\
ĠMc L
Comp leted
Ġsh a
Ġwarn ings
pl ain
ĠĠĠĠĠĠĠĠĠĠĠĠĠĠĠĠĠĠĠĠĠĠĠĠĠĠĠĠĠĠĠĠ ĠĠĠĠĠĠĠĠĠĠĠĠĠĠĠĠĠĠĠ
ĠA zerbai
ĠNorth west
Ġb reat
Ġconsult ant
ro e
est rian
Ġprec ip
re nd
Ġdou bles
Ġfre ely
Ġlift ed
13 9
ĠM ills
be ans
Tool s
ne um
Ġret riev
Gener ate
Sc ene
n pm
t ake
W ashington
Ġadvoc acy
BP ACK
ĠVenezuel a
te enth
Ġ" )
ĠP rec
ĠIm prov
Ġresp iratory
Ġh ills
ĠMar x
Ġex terior
ron ics
pay load
å Ĭ
Ġsk illed
ĠInt o
cond itions
ĠT F
du ces
F actor
ĠV ers
urch ase
Ġ um
Ġrem oves
r isk
ĠPal m
ĠSym phony
ac iÃ³n
Ġm asc
t alk
Ġmaintain s
Ġbus es
Ġdrop ping
Ġc ats
Up per
ĠAdd ed
ge ometry
D one
d og
æ ĺ
Ġmod est
ĠEvery one
Re place
or ro
P ush
20 5
Ġpo ets
ĠCris is
p ending
Ġinc idence
os er
Ġalter ed
Ġann oy
ĠK IND
Ġinsert ed
ĠU ntil
Ġprov es
Function s
ĠBes ides
L ines
Ġl oving
At l
st own
le af
F ive
ĠS TE
ĠDec ision
Ġmethod ology
is ol
ĠNY C
Ġcomb inations
ĠP ool
Ġinteg rate
r ant
Ġdr unk
26 0
opt im
b usiness
Ġem it
n ick
ĠT all
æ Ī
LO B
Ġsub t
Ġb other
Ġtest imony
Ġdet ector
Ġautom ation
ĠBat man
Ġaver aged
Type Def
P ipeline
× ª
ĠK un
Ġoverl ap
ret val
F etch
ĠG MT
y our
ex ecution
Ġj oke
Ġmod ifications
Ġext ensively
Ġh orm
Ġa z
Ġb ones
ne apolis
Ġdecre ases
im on
Ġclin ic
Ġbe ars
Ġtrad itionally
Ġextr action
ri o
H ey
Ñ Ī
ĠWar riors
Ġpro st
Ġre vel
rom agnetic
ĠR alph
17 8
T our
ĠÂ «
ĠN ames
ĠArt icles
Ġsw ing
cons ider
ke es
ĠP ere
Ġcell ular
um per
ĠHill ary
Ġportray ed
aw esome
Ġtra its
Ġviol ations
Ġch apters
Â «
Ġag gress
T urn
per m
Ġreform s
ĠVen ice
Ġbe aring
ĠR ender
ĠL akes
ele brities
um ph
Ġdel ays
D ict
// !
ĠSustain able
Ġcou p
fr agment
dat etime
G erm
STR UCT
sub string
ĠM ode
Ġhon ored
Ġsurviv ors
Sub scription
Ġchampionship s
le w
Ġbad ly
Desc ribe
Ġtrav els
G al
AR RAY
Ġarg ues
at ics
n ate
$ {\
Ġs au
ĠU nd
Ġpull ing
U Int
Ġt ears
er als
Ġpurch asing
ĠTom my
ĠJul ian
Ġw ages
ĠReyn olds
ĠH appy
not ification
) +\
Ġbreed ing
() [
ist ani
Ġw avelength
Ġal i
cred ited
Ġre cept
to LowerCase
ou rier
g ly
ref resh
Ġnetwork ing
uis ine
Ġn urse
text ure
Ġdiscipl ine
S und
W C
ĠCh ase
Ġaffili ated
ĠMil waukee
S UB
Ġb out
ĠMont gomery
ĠB ag
Ġdim in
post s
Ġdecor ated
min ipage
;" |
ĠC elt
Look up
ĠC ounsel
ĠDr iver
met rics
Ġwel comed
ĠL iv
Ġ' ,
ĠB ORDER
FA IL
ĠS oci
ev ille
ĠSud an
ark er
18 86
par allel
h h
F ace
Ġderiv atives
Ġg reet
iev e
Spe ed
Ġperiod ic
ĠE L
uff le
S UP
ĠAr ctic
P ADDING
label s
flu ence
Mark er
ac ion
}$ )
aint ies
Ġcelebr ating
ĠTh ai
Com ments
df unding
p agination
Ġst ub
ĠB ach
Ġsc rew
Ġpure ly
ĠS ays
ĠM ik
Ġshall ow
Ġint im
Enc ode
} )$,
Ġcon clusions
Ex it
AB ILITY
ĠP and
EN C
pe x
Ġrun ners
ĠJul ia
M ic
Ġintr ig
op al
Ġcas ino
SUC CESS
il o
im ag
ĠHol iday
Ġsac red
ific ant
text color
Access or
isecond s
CR IPT
E U
uls ion
ĠLGBT Q
ch anging
Ġbuy ers
ĠWrest ling
w ent
Ġexplos ion
atin um
Ġh iding
Ġintrodu ces
ĠPr ison
Ġtrad emark
ä¸ Ń
ĠNE W
Ġsh ar
%%%% %%%%
ĠC AN
ish i
Ġdefe ating
Ġrecall ed
ĠS ens
od el
r ors
,\ ,\
ĠH arm
ap ps
dis k
Comm it
Dest roy
aval ry
t uple
ĠT error
C ong
ull ah
Ġman ually
Cam era
ĠN ormal
Ġtim eline
Ġd war
Ġmot ivation
ill es
Data Type
ĠBudd hist
Ġa thlete
ĠJo an
b ecause
Ġd x
Constr aints
is ure
H I
ĠBenn ett
m ons
u cc
ĠInitial ize
Ġmark ers
ĠR NA
ĉĉĉĉ Ċ
Ġsup ers
pr ising
p oll
+ (
Ġlength s
ĠAn im
ovak ia
ĠF eed
An aly
g ather
ar ith
ĠT ang
× Ķ
Ġre nov
ĠS tra
}{ |
14 6
k ernel
Ġb ol
Ġdi agonal
Ke ep
ĠER R
re a
av in
Fore ign
Ġr ape
work er
ol ition
mark er
hell o
$ ),
Ġtrav elling
Ġmon arch
res olution
H ER
Ġ} ).
Do ctrine
ĠS cre
so ap
et ed
ĠInd ependence
Ġinter pol
Ġexhib ited
ĠH amb
Ġdir ty
les h
ĠW indow
ath i
Ġend orse
im eter
ĠW IN
Ġpros per
Ġrel ay
Ġins pection
Ġther apeutic
process or
55 5
In line
Ġgl uc
) --
P rem
N ONE
W ORK
ĠJam ie
it ud
Error Code
L im
ĠP UBLIC
Med al
F all
Ġtact ics
Ġloc ale
Ġprest igious
Ġloc ality
Ġcompr ising
p ent
t ax
18 64
ĠL it
Ġdr um
Ġtax p
ic ers
Ġtag ged
ĠR af
append Child
Ġ\ (\
Ġsort s
Ġinaug ural
Ġf ame
ĠHe at
ĠField s
K W
L atest
Ap pe
Ġamb itious
Ġt ier
O ps
Ġtr ails
Ġmunicipal ities
ug osl
be it
ĠCom ing
en es
ell ion
Ġcelebr ity
Ġtreat ing
Ġaccept ing
ĠRE AD
mid t
Ġutil ized
ĠEv idence
ant is
Ġ/* !
N L
V T
Vis itor
Ġinter faces
Le ague
ĠMunic ipal
Ġl y
en za
sh ine
Ġadvoc ates
Ġse aled
Ġdeg ener
ic z
M id
et c
ours es
ĠY ale
Ġrem ind
Fr iday
N U
Ġcomm od
Pro of
th ood
us a
Ġcancell ation
ĠLeon ard
Ġtraject ory
P ing
ct uary
task s
M esh
ĠN icol
ĠHe brew
S rc
Valid ate
Ġimag ination
Ġtrib es
Ġin duction
Ġ ì
ĠC HECK
ymmet ry
Fix ture
Ar rays
You ng
Ġin ch
E mb
al is
Ġ ^{
ĠCroat ia
Ġattr s
jav ax
ĠUg anda
ĠP ac
Ġz ip
ĠPhot os
ĠN as
Ġincorpor ate
ĠGreg ory
v art
Form atter
F ood
Ġthick ness
serv let
Ġdiv ide
ust ering
sp i
Ġgener a
ĠMer cedes
Q t
Ġfilm ing
br ace
Ġhapp iness
ĠCD C
Ġc iting
Ġrecon struct
ĠC anyon
Ġcount ed
Ġde ce
15 7
f eld
Ġinv ite
Ġpseud o
Ġeth ics
at ra
Ġsatisf action
ov iÄĩ
or ic
ĠE rr
ĠDou g
Ġwh is
Ġexped ition
ĠEqu ity
oc on
ĠEffect s
Ġ$ |\
Ġmed ication
Ġqu asi
F IL
red irect
Ġatmosph eric
at iv
Ġaccept s
Q UI
: }
Ġrefer enced
) }_{
0 10
Ġm anga
Ñ İ
Ġres idual
s amples
Ġsport ing
Ġplan es
Ġswitch ing
Ġunder graduate
Ġ{? }
s r
h w
Has Been
Ø ¨
ot ics
}} )
Ch ief
ent ries
ĠD ifferent
ĠP f
RE QUEST
Own Property
b u
Ġ[ \
Ġshow case
ĠHall ow
W ild
\ /
Ġsent ences
K im
Ġb os
ĠB anks
amazon aws
Ġce iling
b ounds
Ġex ec
Ġres ist
ĠG az
, â¬Ļ
amp ire
ĠWH ERE
Ġh alt
Ġval ued
Ġfle w
ĠMult iple
PAR AM
Ġswit ched
cons istent
ĠScholar ship
f un
az ure
18 84
tool bar
Ġpe aceful
Pro f
order ed
Ġsculpt ure
Ġv in
Ġpun ishment
ancell ationToken
ĠMc Carthy
Ġpaint ers
Ġfail ures
ĠColumb us
in as
ĠH ait
ann i
Ġprevent ed
Ġgrad uating
ĠAr senal
ĠEnt ity
ĠĠĠĠĠĠĠĠĠĠĠĠĠĠĠĠ ĠĠĠĠĊ
oc hem
2 24
aus ed
28 0
Ġharm on
pe g
Ġshe ep
ĠAp plications
Ġpat rol
ĠDi pl
Ġfe ver
Ġrev ision
ĠC ities
Ġdis hes
an aly
Ġsem antic
D a
ge o
com ments
Ġsynchron ized
Ġge ometric
ud o
Ġread ily
r ator
t z
Ġmem orable
Ġflo oding
ed ges
ph oton
âĢ¦ âĢĿ
N ON
Ġpop ulated
çĶ ¨
M icro
ul er
ĠM ale
W W
St ill
ĠHe aven
Ġkick ed
is ers
re ceiver
Ġfro zen
Ġl akes
ĠPen insula
/ #
ĠB rief
Ġentert aining
18 63
Second s
ĠCert ificate
F ill
P ane
ĠAd vert
Rail way
ĠHol mes
Â ½
WE BPACK
Ġm aj
AR GET
Ġtem pl
per formance
Ġt s
se ed
ĠH av
Ġvalid ity
project s
ĠColl abor
Ġtrans cript
Key words
ĠHis panic
Per cent
ĠHu gh
ĠY eah
ynchron ous
Afr ican
Whe ther
Ġinn ocent
m are
ĠCh ad
Ġun e
Requ ire
ĠQuest ions
Ġexcell ence
ĠM ate
c ookie
ing o
Ġtable t
met ric
ĠP rest
18 62
Ġmed als
Ġfix ture
ĠPop ular
14 1
ĠMc Donald
ĠSet tings
Ã ī
Ch apter
Ent ries
ĠD S
l ag
ĠCan al
Path s
ew ard
Ġadd r
Ġf ights
H idden
Ġj er
Cal endar
Ġdescript ions
ĠG aming
Th ird
pre ter
ĠPhilipp ine
15 1
Ġbre ach
Ġfif teen
Ġun employment
ur as
Ġtrans plant
ĠB orough
C V
H F
ic ating
6 50
C ss
IC AL
Ġsus cept
s burg
Ġemb arrass
Pol ice
ĠM ask
ĠSt ay
Ġpe aks
Ġneut r
h istor
ĠAct ivity
i q
Ġk g
B ucket
Ġd ock
ĠB uffer
20 8
Im ages
K S
ever y
Ph ase
Ġpl ug
Ġs ulf
alt Color
Ġcorre ctions
ov ic
eg an
ĠD ame
Ġgirl friend
Ġpitch er
Ġint imate
ĠLind a
i ya
ĠB ever
Ġ" #
Ġparliament ary
Ġan ten
14 8
Ġleg ally
Ġwond ering
Ġm ines
Al gorithm
Ġsuff ix
Fr ont
Ġutil ize
S eq
over flow
ĠConf eder
ĠTer ritory
ant ics
oll o
B razil
Ġsup ern
ĠContin ue
Ġexcit ement
Ġneighborhood s
Ġgr at
idd ing
ĠCre ated
ĠTrans fer
ĠPos ition
K O
Ġaud it
ĠI MP
Ġk ills
ec a
ĠA uckland
ound ing
ount ers
% ).
Ġparticip ant
SP ACING
Ġl ith
ĠCh at
Ġrele g
ari us
Ġâ ĸ
EN S
Ġcell padding
Ġf oster
Ġdest inations
ĠCond itions
on er
pre view
Ġp ension
ĠPlay Station
r ab
Ġcon ferences
re ne
As ia
Ġg ods
ĠAng els
gu ard
Ġfre ight
ĠCh ain
Ġo d
Sl ice
ĠHop kins
h art
od ic
Ġpurs uit
ĠĠĠĠĠ Ċ
ĠCl aire
am as
ind ices
ĠCh anges
l ater
Ġprodu ctions
focus ed
á Ģ
K n
ĠG and
Ġm im
Ġtri angle
Ġoccas ional
Ġreson ance
Ġfight ers
q q
z oom
âĢ ²
Ġc ord
Ġle verage
Com ponents
Ġnew er
ĠPsych ology
Ġch lor
Ġen force
F iled
ĠRe id
ĠOtt oman
ĠCont ainer
Ġcart oon
ĠC atalog
ĠÂ §
t m
Ġc ad
Mod ifier
clop edia
18 82
Status Code
r ans
yg on
M ex
Ġt ender
Ġmer chant
Vill ages
ĉĉĉĉĉĉ Ċ
ĠExcell ence
R eb
Ġaccompany ing
IMPORT ED
an ol
Ġque en
i per
Ġcol ony
;\ ;\
Ġminim ize
urrenc ies
HasBeen Set
Un ion
Ġpoll s
Scal ar
ĠPal mer
f w
ian e
Ġatt orneys
Part ial
Ġdisappe ared
d an
n ational
Ġproceed s
g p
Ġlaw makers
Ġob s
Col lege
Ġconfirm ation
â Ķ
Ġre lying
Ġhe aven
P ref
desc ribe
ant ine
pos itive
ĠHer bert
ĠT ypes
ĠIndust ries
H u
ogen esis
ĠPro b
eb ook
en ario
Ġend if
Ar r
ĠM atter
own ers
andid ates
Ġe ars
ĠRes ort
ĠProject s
Ġed itions
at che
se p
Ex press
ou x
L IB
Ġb ubble
ĠA chiev
qu ire
x it
ĠM ull
ie u
Ġfoot print
let te
cr im
WR ITE
Ġp unk
ĠM ental
Ġover night
Ġsim plicity
ĠPrinc ipal
is ot
Ġtour ing
is ible
Y eah
bor o
Ġaest hetic
RO W
aur us
sche me
umbn ail
l b
ĠFor ward
iov ascular
Ġref ere
ĠSeb ast
14 9
| _{
B ay
ĠD ebug
ĠChap el
FORM AT
Mill is
Ġident ifies
Ġd w
Ã± a
ĠDirect ory
Ġv endors
on aut
att a
Ġc ater
Ġlast ing
ĠN HS
intend ent
Ġam end
Ġanth rop
att en
ĠDes ert
Ġconsider ably
Ġn erve
Ġprim itive
ert ainties
Cal ifornia
v ature
ĠAc cept
e ctions
ĠReg ulation
sl ider
Ġrel atives
ĠR ather
Ġsh irt
ĠSc ore
Ġprospect s
ĠHer ald
Al tern
ic ies
Sc ience
Ġdram atically
Ġcomp atibility
ĠA ur
Ġfif ty
Ġad her
Ġshort age
ĠMem phis
Ġpow der
Ġnob le
fr ag
ĠS urre
ment ioned
Ġpal ace
( []
P ixel
op acity
ĠCoal ition
sl ash
Ġrecon c
Beh av
av o
Ġsub div
Ġaut onomous
W O
ĠG ender
ig rated
acc ur
Ġf are
if fin
Ġcreat ors
d eb
Ġdis closure
D at
arg v
Ġinv oked
Ġref use
CH AN
ek s
ĠFellow ship
ĠAd elaide
Ġwitness ed
Ġclimb ing
R ussia
f av
ĠW er
ĠS ullivan
ĠEthiop ia
Ġproduct ive
G re
IT LE
Ġsp y
ival ent
ĠTour ism
Ġgu ards
Ġperform ers
Ġimm ers
Ġrac ist
2 12
Ġdist ress
put es
pol it
cam era
ĠE asy
ĠVal ues
ĠA x
oc io
ne ys
Ġcond itional
Def ined
ĠBry an
All ow
mon ary
ĠKnow ledge
ĠAmb assador
string u
Ġlapt op
respons ive
Ġweight ed
Ġor chestr
B ag
ed e
More over
ĠStep han
2 13
Ġn od
Ġstruct ured
Ġmoth ers
Ġexhib its
in ers
Ġle mma
Pop up
au i
unc an
ans k
Ġinsp ire
ĠDef inition
18 5
Ġstud ios
Ġsever ity
Ġocc urrence
Ġhaz ard
L com
ER Y
Ġgover ned
ĠSurg ery
ap on
ĠBa iley
he ta
È Ļ
ĠS leep
ãģ ®
US D
ĠCELL PADDING
Ñģ Ðº
ĠLett ers
ĠCELL SPACING
Ġconsider ations
Ġlicens es
ĠO g
ĠM iles
Ġmax imal
g ement
Î ²
Ġanaly tical
Ġ} {
Ġun fold
w al
ag le
ins ky
ĠVlad imir
Ġvari ability
ĠGil bert
Ġrat ios
H a
Ġp unch
l ists
Ġspec ifies
ry s
ĠT rial
Ġrel ies
New ton
ĠRem ote
Ġdef ender
Ġmiss ile
ĠSand ers
art a
Ġprospect ive
18 78
ĠTreas ury
Ġempir ical
d frac
ol and
Ġpress ed
() ">
s igned
ool s
Ġaccommod ation
! =
let es
Enc oder
avor ite
Ġo c
Ġdepos it
Ġn u
ĠEx pect
Ġlook up
ip es
Ġab oard
ĠForm at
Spe aker
ĠFour th
f u
ĠT rou
Ġsup pliers
Us ed
Y P
ĠUlt imate
S hip
AS C
Ġca ution
or um
Ġload s
>( <
sche mas
St udio
18 68
Ġto b
ĠK as
Ġemer ge
ol an
Ġpat ron
ĠId entity
Ġkn ife
Reg istration
Ġ\ &
Ġul tra
P a
i ota
Ġst ones
EX PORT
Ġcons erv
ĠLeg acy
inter est
ch rome
d m
act ing
Ġim perial
Ġbro ker
Ġdemonstr ation
ĠSub ject
sec ure
Ġg it
Key word
Ġexc av
Ġm apped
Ġart illery
gover nment
Ġperman ently
play ing
Reg ular
ors che
g irl
ĠClar ke
Ġgu ides
View Controller
2 15
D am
Ġadm its
Ġsec urities
Ġtri o
ĠP om
Ġend e
ĠC rystal
ig uous
Build ing
11 11
Ġconsult ing
IS O
ĠPo etry
Ġmanif old
ĠK oh
N orm
18 75
RE L
Ġg ates
ĠBrad ley
Ġjust ify
L arge
u ador
V EL
Track er
N ick
Ġform ulation
google apis
rid or
df s
B F
en h
ĠT ips
ĠCol in
Ġinterview ed
db c
ĠSh ir
size of
ang les
Ġpath ways
gl ob
Ġdefend ers
Ġ# #
ort ium
Ġspect ro
res pect
oph one
stat ement
he nd
ĠW A
Comm unity
E s
o ct
Ġm eter
Ġon set
ĠToy ota
Un iform
GEN ER
Ġch ore
Ġfound ers
ĠA ber
ru ct
Ch at
ĠAt omic
Ġst ays
() `
ll a
40 1
Ġsacr ifice
Ġkid n
Ġresil ience
ĠElect ronic
G TH
dr ag
Ġworth y
ĠPat tern
s ame
ĠT iger
ĠFl ow
ob ic
pr us
ĠD ad
abul ary
ĠS ET
Equal To
input s
n ell
ĠPed ro
ĠC rist
ope z
ĠGar cia
^^ ^^
ĠMunic ipality
Ġ} ),
th ink
Ġcol ours
30 1
ĠSh in
Ġbroadcast ing
T em
ĠM ead
j q
Ġv iable
H H
Ġdies el
p el
Ġre nd
ina e
Ġphot on
Ġindic ation
Ġfluct uations
ĠR ush
Sh ift
os i
ĠP ars
ĠH ours
ĠRequ ired
" ?>
m and
ad apter
Ġadvent ures
Ġc ss
Ġpl ural
ĠR F
h ydro
Ġbet ting
Ġbi ography
Ġreg ards
M AC
ĠA id
pred ict
'] ))
Ġexcess ive
ĠRena issance
Ġsa x
Code c
Block s
roc ery
Ġrent al
omet own
I ts
Ġper f
\ ;
st ation
Ġfar mer
hash Code
Ġphys icians
Ġcrick eters
ĠNS String
Ġpar as
× ľ
Sm art
Ġjud icial
re ts
Ġrenew ed
Ġtrans fers
Ġdecre asing
R IGHT
ĠF ixed
Ġhistor ians
f requency
ces ter
Ġcontribut or
Ġbeat en
Ġposter ior
Me et
process ing
l ua
y u
RE AM
Profess ional
]( #
ĠML B
no frame
5 50
Ġtr apped
Ġtrans mitted
Ġcall er
ĠVeter ans
ĠP T
C ookie
Ġg ut
IT S
r ink
esc ope
hedul ed
Ð¸ Ñı
ĠCont ribut
Ġle agues
CO UNT
Ġdark ness
ĠJ ourney
Ġenter prises
) -\
W arnings
c ock
Ġg em
Ġcoord inator
Ġseason al
render er
Ġsettlement s
Ġbr ig
ĠCard inals
ur ious
ĠI BM
á ¹
al ym
Ġlimit ation
Ġfru its
Ġde ar
nt on
Ġc c
Ġreserv oir
ĠG ates
ant om
Ġunder go
it ary
ĠA ub
ĠNe u
Ġdou b
Det ector
desc riptor
Ġch ocolate
B log
Ġto ss
Ġj umped
) >
ĠAdv oc
Ġapproach ing
Ġdepos its
Ġd atabases
@ {
ut ed
k now
Ġment ions
pro c
Ġpropag anda
un iform
ok i
Ġsc oped
> .</
ĠAd ult
ad just
H ook
S PE
Ġp riz
Ġ" );
art et
F ake
oy a
Ġacc idents
Ġm aker
T IM
OT TOM
Ġlog s
ĠMathemat ics
Ġdis abilities
Ġexp end
Ġshut down
A ge
Ġdevelop s
ĠO THER
Ġout lined
18 83
Ġtremend ous
decl are
Inter view
Ġfrag ments
Ġlog istics
ĠC ord
Ġt ournaments
ĠMen u
M att
Oper and
Ġqual ities
ĠCow boys
Ġam endment
trans fer
Ġdr agon
art en
Ġcar cin
rele ased
Ġbl ues
ĠV PN
Jose ph
Ġt ick
p ipeline
pos able
S ir
L ists
Ġd ashed
Ġreve aling
B ul
ĠMe asure
Ġneighbor ing
R ank
Ġb ureau
ĠQu estion
Ġgravit ational
Ġd ive
Ġdis par
ĠLe eds
default s
Ġfor ty
18 71
Ġunve iled
Acad emic
ĠW HO
res olved
Event Args
ĠM T
Ġw it
ĠT IM
Ġag ing
ĠEll is
ur ated
po i
P rior
Ġcap ac
Ġh oney
Ġdel icious
at en
if ully
Ġorig inated
t ot
and i
ĠÎ ±
C AC
Ġtr unc
epend ing
ĠUp dates
14 2
Data Source
Dest ination
ãĥ ¼
ĠOr d
Ġmet als
I SS
do es
ang ered
S ol
ĠB MW
um ably
18 76
Re ceive
Ġsim ulated
Ï ħ
tr action
__ .
97 8
L ONG
Gate way
z el
ĠIP v
ĠBulg aria
Ġcirc ulation
-------------------------------- ----------------
Ð¾Ð ´
Ġcell spacing
V ir
sub scription
Look ing
product ive
ĠBr ussels
30 4
Ġreven ues
ĠRec ent
Ġrob ots
Ġtoler ance
In ject
D ead
ĠVol unte
b x
by e
eff icient
Ġconc urrent
m ile
v ation
è ¡
Ġsp otted
Te chn
St eve
ĠSecond ary
ĠØ§ ÙĦ
ĠM aced
ĠR an
{ },
ĠJ ak
$ _{
ceed ings
s ources
18 4
ill ary
Ġimprov es
] ['
T alk
Ex tract
Ġs i
ĠKn ights
ĠS uff
20 6
p k
15 9
Back end
r ance
ĠF lo
Ġbreak down
Ġconsum ed
Ġb arg
d ue
Ġdesign ing
Ġre ass
Tex as
ĠTh ought
Ġinitial ized
ĠMin neapolis
ĠF est
File Path
erg us
Ġadvis or
Ġconcent rated
ĠSte am
Ã ¯
Ð° Ð»
F ROM
ol esc
15 8
Ġemp ire
ph ot
Ġex tern
ĠHallow een
> [
an mar
v ance
Ġ Ã©
Ġprov inces
Ġfl ip
Dec ode
ĠW end
ĠBi ography
ĠIn g
TR A
Ġexhib itions
d ensity
ar in
ĠSh ield
L ee
ĠA ri
The ir
F red
ĠAnn ounces
Ġbl ast
op ard
Add ed
16 7
Ð¾Ð ¼
Ġtong ue
u o
ma jor
al gebra
å ľ
Ġelectron ics
ĠU FC
vent ory
s an
ĠNew castle
ĠĠĠĠĠĠĠĠĠĠĠĠĠĠĠĠĠĠĠĠĠĠĠĠĠĠĠĠĠĠĠĠ ĠĠĠĠĠĠĠĠĠ
ĠT as
S aint
v id
mut ex
it ars
ĠT ags
Ġl ig
ĠPear l
ĠH ass
k ill
et e
Ġl ane
ĠPublic ations
She et
U UID
Ġcle ver
inv oke
Ġcompr ised
ĠSl oven
ĠB ent
Ġtim ber
d eveloper
è ®
$ };
ĠS ed
Ġdemand ed
ĠInt roduction
FT WARE
" }
ĠR us
ĠEn able
Ġwithdraw al
L ev
ĠF loyd
Ġstrong est
Trans lation
F IN
p ared
ĠV illa
Ġunn ecessary
Ġf reed
ĠS ang
rit is
Ġ( `
Ġvot er
ĠM aps
Ġlack ing
Ġspons or
pe er
ĠV M
Ġdiam ond
Ġnut rition
! </
el ong
Ġden y
Ġple asant
Ġspokes person
ĠE t
s il
Ġapplic ants
Ġsl ip
Fr anc
S printf
Ġex clude
n om
ĠPeters burg
ĠO z
Ġs iblings
ĠPop ulation
=" {{
Ġent ang
ĠPresident ial
Ġtown ship
Ġgrad uation
Ġac ids
br anch
9 11
ĠB ee
min ster
Ġg orge
ĠL ik
ĠL ac
ĠK w
Ġmot iv
N BC
Ġthreat ening
av ern
l iter
se ek
Qu ick
ĠMor r
] </
ĠRh ode
Ġco oper
yl um
d ag
ac ements
ros pective
ÑĢ Ð°Ð
ĠRoman ian
ĠR S
ip ment
16 2
Ġinsp iring
Ġs ang
W P
P ending
Ġto y
Ġless er
Ġreven ge
in ent
ear ly
Ġimp ly
Ġreason ably
Ġcorpor ation
ĠR esc
Ġprivile ge
ĠStev ens
ĠS aw
ĠD awn
:: $
Ġfl aw
Ġinstant ly
ĠPatri ots
r ac
od ia
cent ral
Ġsl ower
Ġunc ertainties
Ġnational ly
FFFF FF
Ġ" ;
long rightarrow
ĠHind i
' },
ĠExhib ition
re ply
ĠTool s
Ġre un
ĠMot ion
Ġsleep ing
ĠP am
af ka
Ġto mb
p us
g reat
ĠT ouch
l is
Ġavoid ed
Ġsear ches
Ġh i
tr aining
Ġcor related
Ġpublish ers
and ro
Ġclick ing
å Ľ
Ġpost al
Ġdraft ed
5 67
Ġcomp rom
set Text
Ġacc red
ĠF iles
ĠSw an
ĠB in
Ġtop ological
reg istry
SER VER
leg iate
ĠSup plement
Ġes cal
ici ary
fl uid
* >(
it ely
ĠCoff ee
Ġsp are
ĠCl iff
Ġterror ism
Ġund erm
ĠString Builder
P icker
Ġto ile
ĠNetwork s
ĠAl ways
Ġaffili ate
Ġr ivals
ĠCurt is
ĠLat ino
18 79
Ġsp arse
det erm
Ġd ign
ĠThe od
Ġobl igation
Ġrep ublic
Ġrecruit ment
Ġlit igation
ĠN ine
}{ (
ĠHit ler
Ġc oding
ph al
ĠMan aging
Ġstom ach
op ening
Ġden om
Ġhook s
= .
ĠD iet
She ll
UP DATE
ĠF R
ĠT err
ĠL ak
ĠSol id
p riority
ve e
Ġpil ots
ĠPartners hip
et itive
oy le
Ge org
Ġcycl ing
ĠG uild
15 4
Ġdiff usion
ĠK ol
p d
Al ert
Ġillust rate
ex tract
oun s
and ez
S el
b undle
P adding
ens ed
sw ick
math op
Ex change
/** */
C art
Ġp ause
}\ ,\
duc ing
initial ize
itud inal
Ġsever ely
St yles
block s
ĠR ever
ĠCo q
W il
Ġd rought
15 6
at z
Ġde grad
Ġp el
Ġse al
ish ers
St rip
ber y
Ġprompt ed
ref lect
Ġen jo
Rec ent
Ġlink ing
Ġposition ed
W ood
//////////////////////////////// ////////////////////////////////
en i
ĠR anch
Ġrel uct
Ġmut ations
S ig
ew ater
Ġnurs es
stan bul
ĠK or
esc o
Ġcompos itions
Ġtr agedy
ĠT ong
ĠF resh
ĠDur ham
ĠS ent
ĠR out
id ually
Ġavoid ing
Ġwat ches
charg ed
d td
Ġr am
Ġsl aves
Ġtim ely
Ġto String
Ġquant itative
Ġhol y
Ġmem oir
names e
Mart in
ĠYan kees
ĠCar lo
ĠW ake
CL U
Ġflag ship
ĠH aven
ill on
S ix
Ġ' @
G reg
W estern
é Ģ
ĠW ine
Ġtr ump
Start ing
ĠParam eter
Ġint ensive
Ġvol atile
g ary
Ġde alt
Ġover head
part ition
Ġep och
Ġoptim ize
Work ing
Ġpharm aceutical
ĠBeaut y
Ġthe ft
ar u
ĠP ub
ĠMyst ery
z ed
Ġrevolution ary
Ġd os
Pol y
ĠB ert
Ġselect ing
do ors
ĠA A
ĠEv olution
s leep
50 1
Ġdeterm in
ram ento
Ġlearn s
ĠWell ington
Ġcompass ion
Ġpredecess or
ab lo
ĠL il
ĠJo el
ĠD ow
Ġche er
ĠS ask
Ġpass ive
Ġwhere in
Ñ Ħ
ĠR AM
Ġw ise
oun ge
ĠPers ian
H i
ĠRay mond
Ġcivil ians
################ ################
( `
Ġn est
ĠG ir
Ġser um
Ġreb ounds
Ġterr ain
22 2
Ġdesper ate
ĠCh uck
Ġs q
ric ia
Ġtop ology
ĠGerm ans
Ġauthor ization
}[ \
ĠZ el
Bl ob
ĠE ncy
Ġwitness es
Ġelect rons
Ġliv est
ME SSAGE
pat ient
Ġl ag
arr ison
ĠTE ST
ĠSom ething
w i
ĠG ust
ĠBarn es
it zer
Ġdraw ings
man ifest
Ġreason ing
h agen
ĠI EEE
ENT S
ĠPot ter
t iny
ĠS U
ch ief
tr ivial
Ch icago
ĠHar old
Ġver se
Ġconduct or
ĠPre vious
Ġsurprising ly
ĠP I
C op
aw i
Ġbe ef
og o
Ġb eds
Behav ior
Ġc otton
Ġn ons
ĠP ER
ĠV it
Ġdis advant
ĠGl obe
ra ise
Ġgen res
}} .
." ;
Ġsp ray
Ġend less
ag ne
Ġto gg
place holder
ĠEv il
r ases
con c
Ġsystem ic
Ġcoh ort
we ak
Ġrespect ed
ĠC raft
Ġcontext s
Ä Ļ
ĠA way
re x
K A
Ġ======= =
Ġp ays
Ġb er
Tr ust
ĠMic he
ĠGl enn
separ ator
k al
al tern
ĠL ynch
Ġgr ace
Art ifact
Ġcryptoc urrency
jack son
ĠC ONT
ĠF ut
> $
m ms
at ility
Ġliter acy
)) $
h in
r ice
ĠAd miral
Ġg ly
Cred entials
Ġcont ested
ĠCal endar
ĠStrateg ic
Ġtob acco
f urt
RO OT
Be ing
ĠF olk
ĠUE FA
St mt
Dis abled
Ġreg ener
Ġdefend ant
ĠW inn
in ja
Ġhope fully
Lou is
Ġany body
ĠS hen
sl ot
Ġemb ark
Ġcop ied
Ġdeprec ated
Ġneut ron
ĠHe ights
Ġsubsc ribers
parent s
at ivity
Ġkid ney
ĠWrit ers
ĠAnn iversary
? (
C s
Ġev olving
Ġsm ell
Ġd s
ibl ical
ĠJ ets
g iven
Stack Trace
dest ination
ĠP orter
ĠCON DITION
Ġbe aches
INST ANCE
Ġy eah
Ġdon or
---- -
4 80
Author ization
Separ ator
RE N
Ġche aper
Ġpen alties
ĠM M
IN DEX
sc riber
Name Link
ĠIndian apolis
Ġindic ators
h ang
Ġbes ide
tikz picture
Ġf erm
if fe
Ġround ed
Ġassum es
Ġscatter ed
Ġper cussion
Ġcontact ed
ur bs
ĠO H
ht m
ĠCont est
Mod ern
Ġpreced ing
Ġc and
Ġconst itute
Ġvibr ant
A f
R oad
if a
Ġcontribut ors
Ġign or
Ġfin est
ĠCON FIG
Ġtou ched
ĠC IA
Ġr c
ol ation
Ġgener ous
Ġeval uating
Ġinter cept
Ġpharm ac
mult iple
18 67
à¤ ¿
Ġinter im
ĠTib et
edd ings
Ġphenomen a
G allery
Con struct
AG ES
H it
ĠN uclear
Ġcard iac
Ġbes ides
" ])
ed uc
oid al
Hen ry
à ½
Ġprox imity
ĠC ritical
ĠSalv ador
ĠD iana
Ġcer emon
? âĢĻ
ĠJ et
HO ST
ĠV e
Ġpan ic
Ġin ning
ĠReb ecca
ov sky
or ig
ad ic
ass et
Ġover look
ĠEngine er
T LS
ĠCab inet
Ġcons ume
Ġst arter
ĠShe ll
ĠEn h
inher ited
Ġartifact s
Ġjew el
ĠTreat y
ans om
> ${
In her
Ġacceler ation
in come
Ġsign atures
Rel ative
C trl
Ġharm ful
year s
Ġpurch ases
Custom er
K en
ĠChe ster
1 200
asc ade
Comp any
Ġwas h
Publ isher
me asure
Ġpe aked
Ġsw ift
ĠTw enty
Ġop posing
Ġflo ors
b ial
v p
ck er
ĠF lying
An notations
se min
ĠB lo
ĠSy nd
Ġprotest ers
ĠMark ets
h it
ĠPl aza
ĠJul ie
Load ed
ĠRom ance
Att empt
un ar
Spe aking
Ġdipl omatic
s ent
Ex amples
ĠD as
k u
Ġcomp romise
Ġl ob
ĠAbb ey
Ġl over
arant ine
ĠH ir
ĠS ame
Ġkil ometers
ĠSo ft
S aturday
em e
Ġ$ ,
Ġcoll apsed
ĠB ened
Ġsur pass
T er
ĠBul let
ĠR ise
Ġfinal e
Ġident ities
Ġend emic
z ig
}) }
the ad
Ġcast ing
draw able
T raits
Ġhand lers
eng es
ĠR ate
ĠP P
care t
ĠN amed
Ġalt itude
Ġex empt
ĠDev il
W T
as ide
ok ia
ĠD in
Ġconv ince
Ġspokes man
ĠAr med
ĠLuc y
ful ness
mod ified
ĠC V
Ġun t
ev es
: %
op ened
Ġcl arity
reat ment
ĠJes se
t bl
Ġcompar isons
og onal
Get ty
Ġint ake
ell ows
Ġr s
ĠH us
Re act
á Ī
18 73
V IS
Ġst iff
cor rect
Ġm eg
18 77
ĠSup ply
V an
15 3
ĠNOT E
Ġb ust
ĠMod els
ver ts
St d
Ġharass ment
Ġrain fall
S IGN
Ġpur ple
Ġshe ets
ĠCO MM
Ġcar riers
Ġbrut al
ĠH i
Ġwe aken
look up
L os
ĠCent ers
d ump
ap a
Ġan ch
202 5
ĠL iga
ĠTe ams
stream ing
] *
Ġv iv
oca ust
ĠWork shop
18 72
AT T
Ġdr ift
ĠEnt reprene
+ -
Ver b
Ġlegisl ature
ĠW on
Ġd Ã©
St ates
ĠKr ish
ĠT ut
Ġsuggest ion
P ages
N EL
ĠL atest
Ġs ocio
Ġr ises
d ed
ĠSup erv
Ġir r
ĠReg istration
ĠE sc
S yn
comm end
Ġaccess ibility
ĠAgric ultural
;& #
ĠMan uel
ĠH ip
Ġconst expr
ĠN T
Al umni
,\ \
o ft
ĠB eg
ĠG or
ĠEm ployment
roph ic
ĠLook ing
is ive
H ence
Ġacc us
Ġspir its
C AL
Con version
Ġutil s
Ġc af
est y
Ġanalyst s
pos itions
Ġrec ipe
ĠL uck
in ical
est ry
N OS
z ier
Ġfilter ed
+ "
b ee
E LEMENT
f m
ĠEth ics
Ġv endor
es ity
port ion
ĠBe havior
ĠNor folk
ĠHor ror
Ġport able
ĠV ern
37 5
Ġdisappoint ed
A nc
Ġsh ifting
re verse
Ġpres ervation
go al
ĠDis cussion
ĠL ars
/ ?
us p
Al ignment
}$ }
ĠS UV
em bed
Ġcancell ationToken
i otic
Pay ment
A UTH
ĠSc ale
amm ation
F it
Ġl azy
ĠSteel ers
ĠHe in
I ran
end ering
Ġar ising
ST ER
Ġrecycl ing
Ġ< ?
ĠCont roller
ĠST AT
B rown
ut a
Ġess ence
ĠEngine ers
D ark
Ġinvent ed
Ġrespond ing
Ġbow l
ĠE S
Ġlad ies
hand ed
al in
Ġc atal
Ġc uisine
st ed
il ine
ĠK ot
Ġatt achment
ic ion
Ġred es
Ġhab its
In clude
Tok ens
ĠLINE AR
F RAME
Ġexerc ises
Ġ( .
Ġby pass
Ġcommun e
ĠCh in
Ġreg ulated
Ġaut umn
Ġbackground s
Ġprohib ited
ĠĠ čĊ
oche mical
g ui
vel t
Ġenjo ys
, {\
M ASK
h orn
sm ith
Ġpredominant ly
Ġg ra
Ġthr one
Sh adow
Vari ables
il ogy
Ġre wards
ĠC ounter
---- ---
------------ -
Ġacceler ate
Ġrem inded
Mat ches
ĠAr r
spec ies
Ġt ales
ĠS ara
Ġcontribut es
ĠK end
Ġc ement
ĠPalest ine
at em
Ġveget ables
ĠTun is
ĠPy Object
ĠInter face
c art
Ġt et
Ġrook ie
Ġcul min
Ġgener ators
Ġs aves
isb ane
z heimer
G s
Ġt issues
Over all
l ator
Ù ģ
ĠH ab
Ph aser
Ġmob il
In jection
lev ant
Ġrub ber
b ay
ĠChief s
Sund ay
Ġf el
Ġcancel ed
w yn
ĉ ĠĠĠĠ
pr im
m itt
Ġcontinu ity
est e
Ġeduc ators
sm art
Ġa u
ĠS ultan
ol ith
associ ated
y aml
Ġsuperv ision
ĠV a
File System
s With
18 74
ap id
ĠAdvent ures
Ġpractition ers
AR B
CON ST
Ġrandom ized
ĠClin ic
Ġprol ifer
on so
Ġr ifle
string ify
Ġc ens
pos ium
Ġprot agonist
E nergy
ad os
Å Ľ
S ink
Ġ' ')
Â ±
Ġdef ended
ĠGet ty
appropri ate
ĠCO MP
Ġloyal ty
Ġland mark
Ġgreen house
Ġmanufact ure
pl aced
"> {
l ord
Ġa er
le ys
J s
ant o
empty set
second s
ĠEll en
Ġcount less
F s
R o
ĠV iv
Ġun fortunately
ĠE RA
ble ms
Î º
Ġprec ious
^* $
Ġp c
18 40
ĠBel ow
ith metic
ĠL or
P oll
Ġunder way
Ġret rieved
ĠIn frastructure
ĠSoc orro
f illed
t b
Ġaccess key
ĠHer z
ĠAzerbai jan
17 7
d ataset
ĠT CP
Th reshold
pre vent
w br
ĠOcc up
MA IN
Ġbelong ed
V ictor
Ġab normal
umb led
Ġtreat y
Ġn inet
Ġâ ī
Rat io
m achine
out ed
l ar
m ot
ĠBr isbane
Rec ords
Sur face
Ġex empl
ĠC ork
ĠH ern
PRO C
lv m
Ġfert il
Ġsp o
ep h
uch i
T i
ir teen
Ã§ Ã£o
former ly
Ġrece ipt
Ġbed room
Ġrank ings
F oo
Ġbe ats
Ġupd ating
ĠOpt im
r x
m x
ĠG ut
AB C
duc ible
Ġpurs uing
ĠI v
ĠCall ed
Ġa pt
Th an
ĠSh ows
Ġcross es
ĠR iv
Ġas p
ath a
ĠHend erson
Ġin quiry
ĠW inds
Ġsl avery
Off ice
ul as
Ġst ir
ĠK urt
ĠCONDITION S
act iv
ĠTrans form
Ġv ine
sh arp
d h
ĠS ig
Ag ain
ed ar
ĠT ir
Str ings
Ġresign ation
LEN GTH
is cher
; ,
Ġo ught
Ġp ist
Ġpress ing
ĉĉ čĊ
br as
ĠĠĠĠĠĠĠĠ čĊ
ĠDav ies
Ġfunction ing
Ġre ck
ment ation
Ġdig est
Ġmark ing
ĠIll ust
ĠD rew
ĠMur der
Ġout let
ha o
Ġbe et
Pro c
ĠT ow
ĠBe hind
Ġplant ed
Ġp ython
Sw ed
im i
Ġdr ummer
Fl or
Ġstreng ths
Ġr hs
ĠS ARS
Ġcrit ically
Ġsk etch
ĠSerb ian
ĠSh ore
20 9
con struction
Co V
Ġs ung
id is
Ġimport s
Ġpot ato
Ġinnov ations
ĠIraq i
ipp et
ĠSche ma
Ġtr aces
Ġab ort
Ġdesign ation
ĠRichard son
Ġ(! (
ĠLaure n
pt a
ĠX ml
Ġ' $
ĠOw en
ĠJosh ua
ĠZ oom
rat io
ri ages
v ik
ĠTrans it
Ġf ier
17 1
aint ed
C U
E th
R outer
y en
Ġadvis ory
ĠP ir
Ġopen ly
t ables
ĠPro blem
Ġcelebr ates
ĠB S
ĠE aster
ĠCarol ine
ĠEr nest
A mb
T OP
} "/>
Ġdon ors
Ġtempl ates
S and
y t
E O
ç »
ĠTe aching
Ġdis charge
sc ene
Ġshock ed
Ġaccording ly
ĠStart ing
ĠH ydro
in ement
Ġdr one
Ġtal ents
an imate
ĠT anz
Ġqu arters
s ix
Sub mit
up iter
ĠBl u
ĠThe me
Ġgrad uates
Ġvulner ability
B s
role um
Found ation
std err
rom ium
Ġ[ {
Ġadministr ator
Ġadd iction
Ġl as
Ġl overs
und a
Ġev olve
we ather
Ġsa fer
ĠGen eva
ĠRestaur ant
ĠD ylan
ĠAn al
I o
rit ic
s outh
Ġphil anth
Ġr ats
ĠArm strong
L INK
Ġtr acing
ĠGo ing
ĠWy oming
Ġup graded
c iation
) })
Ġd ent
La unch
gr and
N ING
Ġcrit er
Ġbreath ing
Ġpione er
ĠIn tern
Ġview er
ĠZ ach
23 5
ĠNurs ing
LE ASE
IP S
Ġb ats
Ġconcept ual
ot ive
Ġconf idential
2 16
um bs
pack et
tr on
Ġcreat ure
ĠC el
ĠRodrig uez
I ENT
Ġappreci ated
) &
ĠD istribution
Ġsub scribe
Ġinteg ers
Ġhous ed
Ġp aired
ĠB rowser
ĠWe ight
Ġret ire
ch oice
oc ene
ĠN atal
Ġimp air
Ġdelight ed
ĠBut ton
ĠRaid ers
Ġout look
F K
Ġsl ots
ĠL opez
in ars
Ġcontin ent
lev ard
Sub scribe
ĠTher apy
press ive
Ġref und
on ne
Ġs ig
est inal
ĠD iversity
arm ing
Ġundert aken
ĠE DT
oy age
Ġprev ents
Ġinst itute
Ġpuzz le
ast ore
18 69
Ġquestion ed
ĠH BO
ĠSO FTWARE
remove Class
N BA
ĠR he
J er
ĠRon ald
ĠLyn n
vart heta
AC C
k el
it ic
ĠUl tra
Ġvis a
Rad ius
s z
Ġw reck
ĠHy per
ĠMig uel
unn able
Jew ish
get Key
ĠObserv able
Text View
Ġir regular
ic ans
ĉĉ Ġ
ĠAl ger
dr ive
C atalog
ĠW ife
ĠY ugosl
ĠBrun swick
// ----------------------------------------------------------------
ĠCong o
In c
UT O
dir name
Ġgate way
20 7
ag ine
ĠAbd ul
ĠDO I
ĠGib son
æ Ĺ
Ġsw ap
ĠPoint s
Ġart ic
Po jo
Ġun ited
h base
) '
ĠBel arus
Ġgo og
ĠCy cl
Ġappre ciation
ul ators
ograph s
Ġin complete
Ġn aming
Ġassemb led
ew s
In side
Ġsp ite
Ġplan ets
ĠAsh ley
18 7
ĠC ec
ĠO bs
! \
n is
vers ions
FUN CTION
q a
ĠR oc
ĠAndre a
Ġnow here
en burg
ven ile
Ġimag ery
Ġthorough ly
Ġhelic opter
Ġenc ounters
ol in
ind ependent
ĠDemocr acy
Ġcoord ination
17 6
S i
<? >
L ang
Ġret ention
ĠT emplate
ut ory
b az
Ġbab ies
ĠIN T
A sh
Ġf ab
i ological
N s
g uid
ĠSpec ifically
| }{
ib a
Ġap par
Cl imate
ĠN u
ĠG ross
back end
big l
18 66
: &
Ġoff shore
****** /
W ay
Ġun stable
control s
ĠDiagn ostic
Ġpro long
ĠLegisl ature
t frac
\ }$.
ĠN H
ĠPhot ography
Ġn m
duct or
Ġpromot es
ĠRe uters
ĠH ERE
Ġhe d
Ġjump ing
ĠEval uation
str ict
Ġun anim
Ġreg iment
Ġurg ent
Ġcru el
Ġlect ure
ĠTI ME
ĠP G
R etry
Ġad apter
Ġsign aling
Ġvol untary
Per formance
W all
Ġp ap
Ġloc ate
ff ield
ĠGr iff
Ġpain ful
Ġsubst ances
L T
Pl ayers
ĠT ales
the mes
os ion
ĠJama ica
Ext ended
S port
Ġassert ion
Ġgar age
ĠPer fect
ĠBroadcast ing
ĠT aking
ress es
man aged
B and
ĠMO RE
ĠG ent
Ġgrand mother
Ġp ine
hel pers
Ġveget ation
ĠRec overy
Ġtransport ed
ĠInvest ig
Ġn ost
M onday
ĠC ort
ch in
Ġdirect ive
Ġcar b
ĉĉĉĉĉĉĉĉ ĉĉĉ
Ġpresc ription
Ġthere after
Ġband width
hem atic
Ġon click
ĠH annah
Ġlog ged
Ex cel
H ung
Ġp tr
ĠH off
bel ow
Ġche f
Ã© d
ĠRele ases
B on
ĠAng lo
Ġindiv idually
ĠPrinc eton
26 4
W M
ĠM IN
ion ic
ĠGr ass
Ġm ud
un al
Ġch ips
Call ed
g ray
c py
ĠW ays
Ang le
serial ize
Ġbankrupt cy
l r
ĠL ed
Ġcost ume
E ric
cs v
ĠValid ate
ĠLinked In
ĠBAS IS
ĠSol omon
Ġg odd
ĠC ay
Ġdynam ical
Ġper ipheral
yr ac
A thlet
F X
p ark
w indows
Ġprov ing
ĠP ush
s ender
ĠT roy
ian i
ĠS ue
Cre ation
h ouses
ĠS qu
F un
ans on
eros pace
ar ium
Ġg ymn
ĠK ick
Ġet ern
'' '
ĠCam era
Conf irm
ĠR M
R oom
Ġvit amin
Ġuniqu ely
ĠC red
LE T
Ġpit ched
text area
Ġche ss
ĠRe ally
Ġcur vature
ĠWag ner
B rian
W as
pl aces
ur an
let ing
Stud ents
R outing
Are Equal
rient ation
Ep isode
t one
b ars
p aid
Ġse ized
18 8
ou bt
s yn
Ġcitizens hip
author ized
ĠKenn eth
c opyright
ĠB U
om ore
ĠSouth west
c ats
ib an
Ġgen ome
Ġle x
ĠSant os
T ick
Ġunder went
Ġrecru ited
Ġneighbour hood
Ġvin yl
Ġin k
ĠG DP
mod ern
he y
ĠD ialog
Ġded ication
Ġoff line
Ġcol ored
Ġarg uing
ĠInter ior
ĠB il
Ġ/** <
ĠPref ecture
d id
ĠH err
Ġspecim ens
2 32
l ove
fig ures
ÑĢ Ð¸
Ġfac ial
ass is
na ire
ĠR ica
qu ick
Ġoptim ized
ur ally
itt en
Ġ ÑĤ
ig i
ĠZ en
ĠG y
ĠF ergus
Ġl oses
Check ed
aj i
numer ic
Å Ļ
Ġte aches
J ud
Type Name
Ġlater al
ĠJeff rey
Arch ive
Ġbox ing
sl f
hel m
ĠN PR
Cont ain
Ġbit ter
Ġimm unity
16 4
Me asure
re b
Ġtend ency
u ania
Ġr ay
Ġpoll ing
ĠGrand e
Ġrespond ents
min a
Sh op
Ġencour ages
th ro
ain es
Ġcan al
Ġlist ings
N othing
ĠD uncan
ĠAn imation
Ġdevast ating
ĠW ave
ĠSil va
Vis ibility
ĠEs sex
ĠJoh annes
Ġreflect ing
Ġgam bling
ĠTru ck
im ming
PRE FIX
ĠG roups
Ġscr ut
) }_
w y
ting ham
Ġtransform ations
ins ki
um en
ĠSec urities
Part s
ĠT ensor
Ġclos es
ĠH z
Ġbrows ers
ĠH our
ĠKer ala
g ames
Ġmort gage
Ġto oth
IR ST
ĠS ou
ĠDis c
PI O
ĠP it
Ġserial ized
l iteral
3 40
C tx
Ġdes erves
Check er
Ġrel ates
gl ass
Ġb achelor
Ġwrit ings
ĠD ATA
cl er
mar shall
D istrict
t emplates
Listen ers
E lem
l ift
Ġspl itting
S ent
M X
ter ms
St ock
ĠZ ion
Dis patcher
Ġwar fare
ĠMor occo
end region
T oggle
Ġtem pt
ari ate
ĠS of
Back up
ĠResp ond
æķ °
Sc ient
Ġsupport ive
non atomic
Ġte ens
l ane
NotFound Exception
c ou
' "
Ġd upl
ĠT itan
pro per
Ġrecre ational
K K
sign al
lock ed
over ride
erm ark
ĠM Ã¼
if rame
Link s
ĠMin ing
Ġpolit ically
ĠTrend s
ĠL ip
Ġsp ont
Ġsu ited
ĠIs le
ĠSus sex
PER TY
To o
Ġorgan ize
Inst ances
prec ision
og l
Ġan not
em ale
Ġinst ability
or ange
big r
ĠWars aw
Ġmarket place
Ġconv iction
Ġis omorphism
ri pe
: **
ĠR uby
open hagen
Ġdef icit
ĠÐ ·
ĠM ang
Ġref res
Ġo h
ĠTe en
b org
st en
Ġpro position
ĠAd rian
ter min
unt u
17 9
que z
ĠBas in
D evelopment
Ġs ailing
/ '
ĠCy prus
ĠCl uster
F ACE
H aw
Ġre try
Ad am
Ġenc rypted
Iss ue
Ġenzym e
b read
Ġinter ven
ĠAdv ance
Ġto ys
Ġconj ug
Ġunf air
Ġboy friend
d type
Ġr het
col m
Ġamb assador
ĠSym fony
Ġform ations
ĠCitiz ens
Ġas pir
30 3
H op
r us
ĠN I
Pro s
Ġcriter ion
Ġautom otive
ĠPra irie
M Q
t ec
is Array
Meta Data
st ead
L es
Ġl ambda
Ġinvestig ators
âĤ¬ âĦ¢
Album s
at omy
ĠR oth
Ġvol leyball
ĠTe acher
] $.
con tract
Ġc ategor
Âł Âł
Ġinv itation
Ġgl ory
Ġtable ts
Ġten ant
Ġfundra ising
um atic
ĠW ords
Ġinc umbent
Pay load
Ġc ant
Cl os
Cl ock
iber nate
ĠFr ame
urs ion
Ġwood s
config ure
Ġbas ement
ar is
Ġfor wards
ace y
ann ers
F B
ĠGe off
v t
16 1
MPL ATE
ĠC yr
ij a
DO WN
re fer
ĠW iki
Ġin sects
ak o
ĠRev enue
Ġdeter ior
ĠA ch
ex clude
lect ic
Ġste ering
Stud ent
ĠH ood
Ġc emetery
rop a
loc als
Ġrefer endum
M oths
k ubernetes
ï ¸
Ġmess aging
ĠB od
ĠG PS
Ġind ie
Ġlong time
Ġthro at
ĠQ String
Ġtouchdown s
x f
He art
Read Only
re li
vari ables
Ġf et
ĠAmeric as
De ployment
ĠHen ri
ĠE yes
ingu ished
Ä ħ
Ġin ference
F at
Ġpron ounced
ĠSe lection
ĠExpl orer
Ġcapt ures
Ġwhe at
ĠAndrew s
or ate
ĠD ale
Ġpresc ribed
B rien
S um
ĠPaul o
ĠCon cept
ias m
Ġpre y
G UI
å ¯
Ġde code
Ġl ips
M u
ĠViol ence
ĠPro ducer
- ">
STAT IC
iox ide
Ġd irt
rolog ical
RE ST
Ġp unct
Prim itive
S a
gr pc
Prot otype
ĠK erry
ĠFound er
ine z
Ġstr at
Ġtraff icking
Ġo ste
3 80
k ward
ĠD y
Ġhead lines
Ġaddition ally
Java Script
Ġil leg
Ġc ure
27 5
Ġeleg ant
Ġsong writer
Ġadjust ment
ĠRoche ster
Ġp sy
Ġdisc overs
ĠAm anda
Sp ot
c ook
ac l
Ġstory telling
Ġ} .
Med ical
ar ations
ĠE b
Ġnot ified
18 48
Ö °
Ġbet ray
Ġx si
ĠB uilt
ĠK arn
ĠRo ose
n io
Ġfinger print
18 2
Ġec ological
out heastern
Ġtrav elled
S ender
ne ath
Ġsacr ific
ĠS ic
i ago
ĠUn ity
Ġintr insic
Block ly
ĠF eder
L F
se ver
Person nel
ell ular
ĠĠĠĠĠĠĠĠĠĠĠĠĠĠĠĠĠĠĠĠĠĠĠĠĠĠĠĠĠĠĠĠ ĠĠĠĠĠĠĠĠĠĠ
With in
Int o
Ġinf ant
Ġc elebrities
Every thing
Ġplay wright
ĠAssoci ates
ĠRoberts on
g ae
r ina
Ġin structor
Ġ$ ('#
Ġexp ose
ĠGu est
r ag
ĠF ra
Re ceiver
assert False
Ġst ochastic
ĠAtt ack
multi row
ĠObl ast
Ġmotor cycle
Leg acy
Th ursday
Ġpolar ization
Ut ility
ĠRoll ing
? !
ĠS ites
Ġthr ust
Ġd airy
per mission
ext ends
Ġwhere ver
av our
Ġback s
Ass ignment
âĢ ³
Ġrem ot
plic a
M ale
gr ass
Ġnomine e
Ġadv ancing
ĠMorr ison
4 000
raw l
ĠL ayout
Un able
Ġorb ital
ĠChe v
Ġtr agic
ios ity
ĠLead ers
ag ain
] =
Ġnit rogen
Ġass ured
ed o
Conn ell
18 59
Ġt at
ĠRel igion
Dem ographics
ĠCond ition
up p
Ġl ar
ĠF T
end ant
ĠIn spector
Con v
lin ing
Ġro d
Ġexp ans
Ġcustom s
enz ie
ar ial
Ġm ate
ĠE E
17 2
Ġref id
Ġcapt uring
Ġutil izing
Ġguarant ees
j er
Ġrem inder
Ġcriminal s
Ġdem olished
Ġspecific ations
P ak
ĠEc uador
head ed
ĠTrans action
ĠT ours
Ġac claimed
Ġstat istically
Ġcl ay
Ġtr ash
Th rows
Î ³
Ġqu ark
! ,
Ġorgan izing
b ard
un ge
ĠĠĠĠĠĠĠĠĠĠĠĠĠĠĠĠĠĠĠĠĠĠĠĠĠĠĠĠĠĠĠĠ ĠĠĠĠĠĠĠĠĠĠĠĠ
Qu estion
Ġtr act
Ġsup plier
ĠArch ae
s qu
og rap
az ar
Ġex changes
Further more
ĠIo T
th ritis
communic ations
c atalog
Ġjoint ly
ĠJ al
Ġknock ed
ro ots
over lay
Ġkey word
PA SS
Vari ant
ĠRead er
ens ation
ĠHamb urg
In ternet
Ġback ward
Ġde ferred
ĠEm irates
worth y
SE C
: /
Ġd in
Ġrep o
ĠÃ ģ
ĠSim pson
Ġqual ification
en ium
atern ity
nt hesis
f ailure
Ġl ighter
n r
ĠCO M
N ested
Ġcol lector
Ġneur ons
riter ion
il ion
log ue
}_{ -
R M
en eg
Ġo mitted
ĠUn known
Ġv ault
com press
17 3
head s
18 56
Ġmut ation
ject ure
ĠSt ack
Request s
c ence
P ot
ĠO m
Ġnot ifications
. ');
Ġmet ast
ĠBo eing
stats models
H o
User name
ĠRet ail
Ġfound ations
Ġ( );
Ġst ance
Ġbehavior al
Ġan omal
Ġgen ius
constr aint
ĠMethod ist
ĠV k
Ġiter ations
Cap acity
tri angle
sub str
Ġsu cc
H ide
ĠS ul
o qu
16 3
ĠRes et
enti eth
ĠA ce
Ġh ind
ĠP irates
yrac use
m icro
Ġ' </
Ġdown stream
ĠMan it
ĠF ri
DI RECT
amm ad
Ġc ake
All owed
ĠO NE
ĠM BA
ĠEx tra
Ġlic ence
amp ing
Al ign
ĠLog an
}) =
ĠBre nd
ĠR FC
18 9
P aper
ure ment
pi res
Ġhold ers
Ġam ino
Ġrele vance
P ur
e lected
ĠS B
we bs
ĠL ar
ĠM eyer
Cl aim
LO AT
Ġa erial
Ġs odium
S on
Ġpropag ation
ĠR oh
30 2
K now
ĠE PA
Ġn as
ĠJen kins
Ġtack les
ĠHero es
atche wan
ĠSh ared
c id
ĠPr ide
Ġposit ively
Ġgl ut
h aul
AA AA
Ġal phabet
Ġ" +
tt o
ĠSp ark
izar re
ge om
ĠV P
ĠPun jab
Ġbe an
ros so
Ġalumin um
ĠF ear
ĠGreen e
{ |
ĠE ducational
Ġprem ises
Ġtab index
h ire
ade qu
Ġh ometown
Ġtransc ription
8 50
fore st
Ġimp ose
open api
Ġexplo it
ĠP ray
ĠAl leg
omb ie
By Name
Ġpost pon
ĠChar ter
ĠDom ain
Ġdis putes
part icle
D ry
ĠAh mad
ĠBurn s
it les
AL E
Ġcontin uation
ĠS it
yl on
Ġ/ ><
ĠLe af
Ġfeas ible
Ġdec iding
ĠP eg
ier re
Ġt a
ATTR IB
3 10
ĠAl ert
ID ENT
Ġcr ashed
ĠKit chen
Ġelabor ate
Ġsimpl er
Ġasympt otic
ighbor hood
Ġm igrants
less sim
Ġm aternal
ox ic
Ġred shift
Ġfund ament
om ics
Ġint act
et erm
ĠT ickets
ĠIn it
ĠSocial ist
==== =
ĠRec re
âĨ Ĳ
Ġa ster
Tag Name
act ical
all a
Sign al
Ġpars ing
Inv oke
all i
Ġhe sit
I LED
Ġpri ests
ys on
ob ar
UN K
* .
ĠCon structor
tok ens
Ġorgan izational
Ġdescend ants
ĠPl ate
us ions
ĠR um
R out
ĠF ul
umber land
ĠGener ate
ĠElli ott
ot ional
Ġequival ence
ĠBeaut iful
tr ad
Cl osed
g ot
ct rl
ĠW ald
ĠGet ting
any a
Ġun set
aid en
] $,
s ites
am on
ĠStock holm
Ö ¸
Ġt ire
Ġr ushing
com puter
Ġhighlight ing
ĠP or
Ġpresent ations
Ġbas in
Ġtrib al
Ġobst acles
MS G
ĠH unting
Ġinf antry
Ġm ant
ct l
p romise
ĠTh ing
Ġbu zz
Ġfort une
Ġv ec
ĠGP U
Ar m
t lement
Ġcomm ittees
Ġsk ull
ĠLaw s
elect ric
ĠH ack
sub Nav
Ġfavor able
Ġrap per
ĠDem on
c ritical
f aster
OD Y
ĠImm igration
Ġbath room
Head ing
Ġunsuccess ful
TO OL
Ġess ays
Ġend ors
Ġdiv ine
ĠSD K
/ -
ik er
ĠH AVE
ĠLink s
ĠKaz akh
Pro ducer
Ġlect ures
P ACK
Com plex
ĠAct ress
Ġp neum
00 7
ĠDef ine
Ġmolec ule
ĠDoc uments
yst er
Ġmon etary
ĠAl zheimer
ĠSaf ari
h yd
ĠL odge
ĠF ay
Ġthere of
Ġel astic
Ġg i
\ ":
ote chnology
b id
Ð Ł
ĠK om
âĶ Ģ
Ġg lyph
ĠNAS CAR
ĠR B
Ġbreak through
Ġdiagram s
Ġastr onom
Ġc url
Web site
J ean
in verse
ĠW aters
op a
Ġpol ym
alth ough
^* \
Y et
F ilters
}} _{\
ron es
c ourt
ĠM UST
Ġalgebra ic
ng th
ch y
ip ur
Ġgu itars
Ġlicens ing
Ġun changed
Ġreloc ated
hel ial
Ġadapt ive
Ġdem ographic
Ġpract ically
su ite
conf irm
Å ĵ
Ind ust
Ġsem if
Ġridic ulous
Ġpartner ed
ĠF ighter
add EventListener
Ġcor relations
29 6
por al
ĠD ynamic
itect ure
ad vert
ab ove
23 4
ĠNS W
Ġhuman itarian
ĠAnn ie
ĠA E
em bourg
pack ages
Ġdis pers
I reland
BU ILD
Ġre build
ĠHe ath
CON F
L V
Ġfemin ist
ĠW ins
Ġvill ain
ĠVeh icle
} >
ent ric
Ġhom ogeneous
Ġatt itudes
Fil ename
Ġ\ ]
17 4
ush i
Ġcl an
ke eping
um ann
Ġinfect ious
Comp anies
Ġr ides
Germ any
Ġ[ ...]
ĠRep ly
K evin
Ġstress ed
Ġg ym
ĠImm un
ĠS G
Ġint ro
Ar n
v iol
ĠC ann
Ġm u
? </
Ġcar ing
ĠRoose velt
CON NE
à¥ Ģ
ex press
Ġmem or
ĠLou ise
Ġtr unk
m us
Get String
A CTION
Ġcontinu um
ĠEvent ually
ĠG ren
hab ited
Ġchap el
ĠK iss
Ġph on
ĠA sc
Ġeconom ies
Ġlight weight
mat ched
Ġpress ures
U X
ST EM
Ġclean up
00 3
Ġshould ers
ĠAng l
Ġevolution ary
Ġ iv
[ [
ĠB row
ĠK ra
so lete
at u
Ġhe ated
Ġa irlines
Ġ elli
Ġtransl ations
Ġth y
ĠĠĠĠĠĠĠĠĠĠĠĠĠĠĠĠĠĠĠĠĠĠĠĠĠĠĠĠĠĠĠĠ ĠĠĠĠĠĠĠĠĠĠĠĠĠĠĠĠĠĠĠĠĠĠĠ
ĠCor onavirus
ĠMal ta
reg ex
> ("
Ġpro secution
D ataset
Comp ilation
Ġ( <
ĠAg es
Ġinev itable
Ġreb uilt
Ġstation ary
19 3
ĠR az
Ġprint s
Car l
---- --
define Property
( @"
u ably
Medal ists
es ar
Ar c
L iber
Ġpl aint
x t
18 55
Ġeigen values
ĠAs k
ograph ies
ĠSac ramento
empl ar
HAND LE
Rem ember
Ref resh
ott i
Ġappre nt
dem o
d istribution
30 5
ap hor
HO W
Ġassess ments
Ġtr illion
Ġdisag ree
found ed
hy per
pl ays
Ġillust rations
hed ules
abs olute
18 57
erm at
}) ^
T ables
ĠC ult
ĠI sh
ph erd
valid ator
Ġb is
ĠM N
ch annels
CO RE
ĠSing er
Ġpro jections
ĠX X
Ġhead line
ĠH ook
ĠTr avis
cred it
ĠM AP
ĠD rake
node Type
Let ter
Ġfu els
ĠReg ulations
Ġinher ent
Ġdis ruption
ĠLore n
ĠResc ue
ĠCub an
ĠCar roll
I rish
Ġp a
Ġv intage
a ude
ĠBl air
sp aces
Ġdis cre
Ġkey boards
L if
Capt ure
w ang
Ġelect r
ĠMe an
ĠNE WS
ĠNic ole
Ġd ental
ce ans
ĠR d
vis ual
it ored
WARN ING
R B
18 30
list ing
E ducational
ĠArgent ine
M LE
Ġaccident ally
B uilt
P F
Ġh aul
am ar
ast ically
Ġdiff ers
T en
f act
ĠD erek
del im
l uc
ĠFor bes
IN LINE
Im mutable
ĠLeg ion
Ġaccompl ish
ĠF loat
Ġt v
ĠS ample
ific ent
ole y
: @
ist ries
omot ives
ĠM oses
Ġs inc
Rev ision
R G
Perm issions
Ġab brev
Ġtow ers
ĠRun ning
ĠEug ene
ĠP orsche
ĠAl gorithm
Ġintern ally
C a
ĠAl f
ĠBar ack
Ġfin ishes
Ġrout ing
Ġsh ower
Ġch ol
Dim ension
Ġdiscret ion
ST M
odynam ic
ĠS onic
tr ation
Ġro pe
à¤ ¨
Ġp ond
-> {
idel ity
ĠNov el
Mod al
el ic
bl er
Ġperform er
Ġdis closed
18 58
ĠÐ ¼
Ġabsor bed
Ġbo om
Bo ard
rang ian
Ġl lvm
ĠP ine
Ġp ec
ĠF ans
comm ended
ĠViet namese
n ings
Ġmod elling
Ġsqu ee
D ao
ll er
Ph ys
Ġgorge ous
Ġvict ories
Ġbott les
l ore
Ġch orus
="# "
Ġbomb ing
ĠB OTTOM
Ġde pr
Qu ote
ĠC i
ĠBy z
! (
b uck
ĠLaw yers
A IN
ER O
ĠWal sh
ĠOut standing
Ġg rocery
Ġh ike
Ġn aked
to Equal
MA KE
ĠL IC
vis ions
ch ard
Ġnecess ity
ĠAdministr ative
=" ./
load s
ĠUnc ategorized
18 1
AL T
Ð½ Ñĭ
Ġarchitect s
Ġam ended
th ick
ov y
FLA GS
Sen ior
ĠW WE
miss ing
Ġkin etic
per ed
bad ge
B oot
Ġcongress ional
ĠH ear
pt o
Dis able
b matrix
0000 000
Ġham mer
ĠDesc ribe
K nown
ĠDocument ation
[ <
Ġ"- //
L M
s olid
ĠU AE
ats u
D aily
Ġlie utenant
L y
al bum
amb ia
max cdn
script style
Ġcharacter ization
ĠL ay
the m
ĠB UT
ely n
Mar shall
Att achment
Ġinitial ization
osex ual
ĠCon c
Ġsent iment
ĠFinal s
r int
ĠTrans itional
O H
is le
comm ands
Rel ations
Ġcounter parts
re ject
Ġfl ush
ĠR as
Ġcon e
B a
ĠFund ing
Ġsymbol ic
ĠTh reat
ict s
Ġstand ings
Ġerect ed
Ġyour s
Ġappro ve
kins on
au f
ĠMar sh
Ġgram mar
Ġcal ibration
Ġrecru iting
ĠSpe ech
ĠAdd s
dis ciplinary
ĠE g
ĠMy anmar
ĠRem arks
Ġmach inery
ĠT win
ĠScot ia
ĠCon sequently
Ġcl oth
D ar
Ġun ified
an ium
Tr avel
x l
Ġalt ogether
Ġrem inds
Ġredu nd
ĠAnd ers
Ġins isted
ĠÎ ²
Ġcor ps
ri ans
ĠM ouse
g old
in vest
ne ed
comfort able
ĠI RS
Ġins ufficient
ĠH onda
Ġcollabor ated
22 1
het ics
ĠMax well
ĠN Z
ĠRh odes
ĠM t
Ġwh it
Ġvar s
ĠT B
ĠI stanbul
ĠR PC
organ ization
ĠMedic are
or ah
ĠKle in
B es
Ġcar n
ĠD ob
24 5
ĠR ising
anc o
="@ +
Ġ' {
Abs olute
A st
Ġhy pert
Ġback end
]] ></
(" <
Ġpriv ately
Ġm old
k ok
ĠW inner
Ġmet ropolitan
Ġload er
g io
Ġair ports
ĠM ight
ffff ff
Ġ/*! <
es pecially
BO O
Ġhonest ly
N atural
or ers
BE GIN
Ġrem ed
un its
Man aged
Ġis set
Ġinter fer
n orth
ĠD NS
Ã ĥ
Ġpres idency
ĠAngel a
Mus ical
Ġover time
AL S
Ġcomplet es
Ġmidfield er
Ġstart ups
Ġuns afe
Ġor n
Ġcommand ed
Hon ours
> /
Ġemb ry
claim er
Ġce ased
Ar thur
t ier
Ġquiet ly
å ¼
ĠW ere
ĠThrough out
Profess or
ĠInvest igation
zh ou
ĠSurre y
Ġp t
ĠRe ality
ĠWeek end
Ġkw args
ĠBer ry
Ġancest ors
ĠMar co
Ġconv olution
Ġexc use
Ġf ence
ĠS ons
Ġun used
unn els
Ġdub bed
ĠArch bishop
ĠBudd h
n st
ĠPer form
Dis covery
lig a
Ġk icks
cess ion
Ġfilter ing
E ll
song writer
ĠDay ton
NUM BER
ĠPro ceedings
Ġfact ories
ĠManufact uring
ĠPan ama
w so
ĠEx pert
ĠParent s
Ġdys function
fl ows
() ]
Ġdef ects
CP U
g c
Ġc fg
ĠOC aml
ĠEd it
Ġfre el
Ġd ancer
ĠS PE
Ġarch ives
Ġtravel ers
Polit ics
Ġsubstr ate
Ġaux iliary
ĠS Ã£o
ĠJohn s
Ġlo ops
âĢĻ :
Ġnorm s
en stein
Ġren al
ĠS TD
Art icles
W ednesday
Ġcon cludes
)) \
Ġcos mic
Ġreg ret
ery l
u ator
Ġserv ant
Ġdens ities
ĠK ane
ĠFr anÃ§
DA Y
Ġdig its
Ġen rich
Com puter
d w
Col umb
ex ist
op us
ee per
Ġm p
ib les
ĠGr iffin
qu isition
Ġlack s
Ġpup ils
Ġib n
Ġtem ples
tensor flow
R eq
ĠVal entine
Ġorient ed
ĠMan ila
sw ap
ĠChe f
ĠCh ip
! ]
Ġ ub
ĠF irm
date picker
Ġm k
Ġthr illed
U nc
Ġhe al
Ġcomplex es
Scott ish
ad h
ĠBloom berg
0 100
il io
ĠE mber
T ra
ge bras
en ary
Mod ules
ĠTim othy
get Text
rest rial
ĠTw ins
PO INT
ĠWel come
ac ional
ĠLes lie
ele g
Â Ģ
itt est
Ð½ Ð¸
Ġdemonstr ating
rou t
osc ript
. &
ĠS ql
V ery
Ġban ner
mal ink
ch r
Ġl anes
ĠW itch
Ġpl ugins
ĠBut ter
Ġst raw
Ġf d
Ch air
ĠBou levard
× Ĳ
ĠMon ica
comp any
ĠAtl as
Ġw itch
ĠB rah
Ġcert ificates
verb ose
N d
Ġexpress ing
at ype
ĠRen ew
ĠAltern ative
Ġcor on
Ġr v
ĠChrist ine
Ġdegrad ation
ĠM oss
ex ceptions
cl osing
che l
Princ ipal
Ġf lesh
mac ro
ĠB av
ort heastern
Inst ead
comp act
Ġrepro duce
ograp hed
ĠRel ated
Ġrevers ed
oc c
Ġbeaut ifully
ĠI con
na issance
ĠP ART
ĠL ines
sub sec
18 54
Ġrec ession
col ors
[...]
