{"[UNK]":0,"!":1,"\"":2,"#":3,"$":4,"%":5,"&":6,"'":7,"(":8,")":9,"*":10,"+":11,",":12,"-":13,".":14,"/":15,"0":16,"1":17,"2":18,"3":19,"4":20,"5":21,"6":22,"7":23,"8":24,"9":25,":":26,";":27,"<":28,"=":29,">":30,"?":31,"@":32,"A":33,"B":34,"C":35,"D":36,"E":37,"F":38,"G":39,"H":40,"I":41,"J":42,"K":43,"L":44,"M":45,"N":46,"O":47,"P":48,"Q":49,"R":50,"S":51,"T":52,"U":53,"V":54,"W":55,"X":56,"Y":57,"Z":58,"[":59,"\\":60,"]":61,"^":62,"_":63,"`":64,"a":65,"b":66,"c":67,"d":68,"e":69,"f":70,"g":71,"h":72,"i":73,"j":74,"k":75,"l":76,"m":77,"n":78,"o":79,"p":80,"q":81,"r":82,"s":83,"t":84,"u":85,"v":86,"w":87,"x":88,"y":89,"z":90,"{":91,"|":92,"}":93,"~":94,"¡":95,"¢":96,"£":97,"¤":98,"¥":99,"¦":100,"§":101,"¨":102,"©":103,"ª":104,"«":105,"¬":106,"®":107,"¯":108,"°":109,"±":110,"²":111,"³":112,"´":113,"µ":114,"¶":115,"·":116,"¸":117,"¹":118,"º":119,"»":120,"¼":121,"½":122,"¾":123,"¿":124,"Â":125,"Ã":126,"Ä":127,"Å":128,"Æ":129,"Ç":130,"È":131,"É":132,"Ê":133,"Ë":134,"Ì":135,"Í":136,"Î":137,"Ï":138,"Ð":139,"Ñ":140,"Ò":141,"Ó":142,"Ô":143,"Õ":144,"Ö":145,"×":146,"Ø":147,"Ù":148,"Ú":149,"Û":150,"Ü":151,"Ý":152,"Þ":153,"ß":154,"à":155,"á":156,"â":157,"ã":158,"ä":159,"å":160,"æ":161,"ç":162,"è":163,"é":164,"ê":165,"ë":166,"ì":167,"í":168,"î":169,"ï":170,"ð":171,"ñ":172,"ò":173,"ó":174,"ô":175,"Ā":176,"ā":177,"Ă":178,"ă":179,"Ą":180,"ą":181,"Ć":182,"ć":183,"Ĉ":184,"ĉ":185,"Ċ":186,"ċ":187,"Č":188,"č":189,"Ď":190,"ď":191,"Đ":192,"đ":193,"Ē":194,"ē":195,"Ĕ":196,"ĕ":197,"Ė":198,"ė":199,"Ę":200,"ę":201,"Ě":202,"ě":203,"Ĝ":204,"ĝ":205,"Ğ":206,"ğ":207,"Ġ":208,"ġ":209,"Ģ":210,"ģ":211,"Ĥ":212,"ĥ":213,"Ħ":214,"ħ":215,"Ĩ":216,"ĩ":217,"Ī":218,"ī":219,"Ĭ":220,"ĭ":221,"Į":222,"į":223,"İ":224,"ı":225,"Ĳ":226,"ĳ":227,"Ĵ":228,"ĵ":229,"Ķ":230,"ķ":231,"ĸ":232,"Ĺ":233,"ĺ":234,"Ļ":235,"ļ":236,"Ľ":237,"ľ":238,"Ŀ":239,"ŀ":240,"Ł":241,"ł":242,"Ń":243,"ĠĠ":244,"Ġt":245,"in":246,"Ġa":247,"er":248,"ĠĠĠĠ":249,"he":250,"on":251,"re":252,"at":253,"Ġthe":254,"en":255,"or":256,"Ġs":257,"an":258,"es":259,"is":260,"it":261,"al":262,"Ġc":263,"Ġo":264,"ar":265,"Ġw":266,"ed":267,"Ġf":268,"ing":269,"ion":270,"Ġp":271,"nd":272,"Ġb":273,"ic":274,"Ġin":275,"le":276,"ou":277,"Ġof":278,"as":279,"Ġm":280,"Ġand":281,"ro":282,"Ġd":283,"Ġto":284,"ĠĠĠ":285,"ĠĠĠĠĠĠĠĠ":286,"ent":287,"Ġh":288,"et":289,"ct":290,"st":291,"il":292,"el":293,"Ġth":294,"om":295,"am":296,"Ġre":297,"ĠS":298,"Ġn":299,"ĠT":300,"id":301,"ĠC":302,"âĢ":303,"ol":304,"Ġl":305,"ĠA":306,"ur":307,"ac":308,"Ġe":309,"ation":310,"ig":311,"ut":312,"im":313,"ot":314,"Ġ(":315,"ad":316,"iv":317,"ĠM":318,"se":319,"Ġg":320,"ĠI":321,"Ġis":322,"ay":323,"Ġfor":324,"ce":325,"ow":326,"ul":327,"th":328,"ers":329,"ch":330,"Ġon":331,"ĠP":332,"ly":333,"ĠĠĠĠĠĠĠ":334,"Ġst":335,"ag":336,"un":337,"ĠB":338,"od":339,"us":340,"if":341,"em":342,"ir":343,"ter":344,"Ġbe":345,"ith":346,"Ġv":347,"Ġ=":348,"20":349,"ab":350,"um":351,"ĠR":352,"ĠD":353,"pe":354,"ate":355,"ĠH":356,"est":357,"ist":358,"Ġthat":359,"Ġas":360,"ĠF":361,"av":362,"Ġwith":363,"Ġcon":364,"ver":365,"ĉĉ":366,"ap":367,"oc":368,"ĠL":369,"and":370,"qu":371,");":372,"ĠW":373,"ĠN":374,"Ġwh":375,"Ġal":376,"Ġ<":377,"ew":378,"Ġan":379,"ri":380,"op":381,"ht":382,"Ġ{":383,"ĠG":384,"res":385,"ess":386,"Ġpro":387,"ĠE":388,"=\"":389,"Ġ$":390,"Ġy":391,"Ġit":392,"ain":393,"--":394,"âĢĻ":395,"ĠThe":396,"ort":397,"our":398,"ction":399,"Ġwas":400,"os":401,"ere":402,"ill":403,"ity":404,"end":405,"Ġr":406,"rom":407,"Ġde":408,"ass":409,"ub":410,"Ġat":411,"//":412,"Ġcom":413,"ex":414,"Ġ\\":415,"ore":416,"Ġby":417,"pt":418,"19":419,"ame":420,"</":421,"ĠĠĠĠĠĠĠĠĠĠĠ":422,"Ġ*":423,"ke":424,"art":425,"Ġex":426,"up":427,"ment":428,"Ġ\"":429,"nt":430,"ĠJ":431,"ĠO":432,"ies":433,"Ġor":434,"čĊ":435,"ue":436,"all":437,"Ġare":438,"Ġhe":439,"ld":440,"pl":441,"ant":442,"ive":443,"Ġse":444,"Ġfrom":445,"age":446,"ine":447,"ect":448,"tr":449,"ud":450,"og":451,"ight":452,"ĠâĢ":453,"Ġcl":454,"ure":455,"ack":456,"Ġthis":457,"ial":458,"Ġ}":459,"port":460,"ust":461,"ĠU":462,"iz":463,"Ġtr":464,"ard":465,"ber":466,"ge":467,"cl":468,"Ġch":469,"ath":470,"ans":471,"ov":472,"00":473,"rou":474,"urn":475,"ult":476,"ave":477,"Ġsh":478,"per":479,"ff":480,"Ġwe":481,"ip":482,"ell":483,"act":484,"..":485,"Ġnot":486,"ary":487,"ĠĠĠĠĠĠĠĠĠĠĠĠĠĠĠĠ":488,"are":489,"ost":490,"\">":491,"The":492,"ia":493,"ast":494,"ĠK":495,"'s":496,"ak":497,"con":498,"ated":499,"out":500,"able":501,"orm":502,"Ġpl":503,"Ġle":504,"ĠĠĠĠĠ":505,"()":506,"ef":507,"ich":508,"ire":509,"**":510,"ok":511,"ind":512,"ĠIn":513,"ear":514,"eg":515,"ord":516,"ong":517,"ical":518,"Ġyou":519,"ext":520,"201":521,"ions":522,"ice":523,"ide":524,"ork":525,"com":526,"int":527,"Ġif":528,"ign":529,"ĠV":530,"Ġhave":531,"ep":532,"turn":533,"ase":534,"ace":535,"ĠSt":536,"Ġ&":537,"sp":538,"ile":539,"ould":540,"Ġhas":541,"Ġj":542,"ime":543,"Ġ-":544,"Ġcomp":545,"ype":546,"ite":547,"get":548,"Ġcan":549,"In":550,"cc":551,"Ġint":552,"ode":553,"ĠTh":554,"Ġab":555,"Ġus":556,"Ġ'":557,"ence":558,"ang":559,"Ġhis":560,"erv":561,"ib":562,"ĠĊ":563,"ance":564,"Ġad":565,"ry":566,"Ġall":567,"Ġk":568,"ail":569,"ubl":570,"----":571,"ther":572,"_{":573,"Ġclass":574,"ations":575,"ens":576,"),":577,"Ġcont":578,"Ġu":579,"so":580,"str":581,"ous":582,"==":583,"ĠCh":584,"âĢĿ":585,"Ġun":586,"Ġnew":587,"one":588,"ian":589,"ata":590,"ition":591,"form":592,"ra":593,"pro":594,"hen":595,"ount":596,"ild":597,"ev":598,"ec":599,"ob":600,"Ġim":601,"ory":602,"du":603,"Ġar":604,"Ġwhich":605,"gh":606,"ach":607,"li":608,"ject":609,"enc":610,"Ġap":611,").":612,"ents":613,"Ġwill":614,"ress":615,"Ġres":616,"ome":617,"ish":618,"ĠĠĠĠĠĠĠĠĠĠĠĠĠĠĠ":619,"fer":620,"Ġbut":621,"Ġout":622,"ll":623,"Ġtheir":624,"Ġreturn":625,"ph":626,"ont":627,"own":628,"ublic":629,"ert":630,"mer":631,"row":632,"Ġup":633,"ark":634,"tern":635,"ound":636,"Ġdo":637,"ug":638,"ft":639,"ock":640,"Ġgo":641,"ook":642,"ual":643,"Ġwere":644,"ĠY":645,"ors":646,"Ġone":647,"ree":648,"10":649,"alue":650,"Ġ//":651,"Ġalso":652,"Ġ|":653,"ref":654,"Ġen":655,"200":656,"irst":657,"Ġsc":658,"Ġme":659,"Ġwho":660,"ink":661,"ake":662,"te":663,"{\\":664,"ick":665,"Ġdis":666,"Ġthey":667,"Ġmore":668,"oth":669,"Ġ[":670,"::":671,"unction":672,"Ġper":673,"ĠâĢľ":674,"Ġpr":675,"ull":676,"ne":677,"ict":678,"Ġpart":679,"->":680,"au":681,"Ġev":682,"oll":683,"rit":684,"elf":685,"St":686,"ose":687,"ss":688,"amp":689,"Ġman":690,"clud":691,"hed":692,"iew":693,"rib":694,"Ġstr":695,"ool":696,"ely":697,"Ġ@":698,"18":699,"ates":700,"ings":701,"old":702,"Ġits":703,"\",":704,"Ġte":705,"inal":706,"Ġag":707,"Ġsp":708,"ps":709,"ck":710,"eth":711,"Ġher":712,"Ġpre":713,"Ġsu":714,"Ġqu":715,"ĠIt":716,"ption":717,"aw":718,"Ġ/":719,"wo":720,"Ġwork":721,"aram":722,"Ġso":723,"ource":724,"ery":725,"ays":726,"Ġyear":727,"Ġ</":728,"iel":729,"ĠHe":730,"fter":731,"lect":732,"yst":733,"ĉĉĉĉ":734,"we":735,"Ġhad":736,"ater":737,"Ġover":738,"ng":739,"ĠâĢĵ":740,"igh":741,"ize":742,"Ġ$\\":743,"ma":744,"pec":745,"ĠUn":746,"Ġbeen":747,"sc":748,"202":749,"Ġ+":750,"erm":751,"Ġabout":752,"Ġget":753,"ener":754,"Ex":755,"ie":756,"Ġfirst":757,"anc":758,"Ġne":759,"io":760,"sh":761,"nder":762,"ics":763,"iss":764,"ational":765,"Ġother":766,"../":767,"Ġro":768,"Ġtime":769,"ield":770,"pect":771,"set":772,"Ġli":773,"over":774,"pr":775,"Ġdef":776,"put":777,"ons":778,"oint":779,"les":780,"(\"":781,"fr":782,"tt":783,"();":784,"Ġpublic":785,"Ġrec":786,"ys":787,"lo":788,"ystem":789,"Ġwhen":790,"Ġset":791,"ond":792,"Ġ.":793,"Ġdes":794,"vel":795,"ople":796,"math":797,"Ġplay":798,"',":799,"Ġpe":800,"Ġoff":801,"Ġcomm":802,"div":803,"ix":804,"lement":805,"12":806,"Ġsa":807,"ram":808,"ade":809,"ember":810,"reat":811,"Ġinto":812,"ve":813,"Th":814,"Ġsup":815,"ml":816,"ied":817,"Ġthere":818,"Ġname":819,"Ġtwo":820,"Ġinter":821,"Ġvar":822,"ĠAr":823,"Ġthan":824,"cre":825,"Ġob":826,"rap":827,"Ġour":828,"ific":829,"err":830,"Ġass":831,"Ġfunction":832,"Ġyour":833,"round":834,"Ġany":835,"tring":836,"ER":837,"olog":838,"Ġ:":839,"Ġwould":840,"oy":841,"--------":842,"Ġinclud":843,"equ":844,"atch":845,"ious":846,"Ġkn":847,"arch":848,"}}":849,"eb":850,"ax":851,"ĠCom":852,"Ġ*/":853,"ased":854,"ty":855,"Ġsome":856,"ove":857,"essage":858,"ange":859,"Ġadd":860,"ning":861,"Ġbet":862,"als":863,"fig":864,"Ġacc":865,"Ġthem":866,"Ġmod":867,"âĢĵ":868,"Ġshe":869,"ames":870,"ise":871,"****":872,"ĠNew":873,"land":874,"ative":875,"span":876,"pos":877,"Ġact":878,"arg":879,"^{":880,"ities":881,"roup":882,"ward":883,"Ġonly":884,"oid":885,"Ġreg":886,"Pro":887,"></":888,"ĠThis":889,"ray":890,"ited":891,"Ġfe":892,"orld":893,"Ġcol":894,"app":895,"Ġbu":896,"15":897,"16":898,"ident":899,"let":900,"IN":901,"ĠPro":902,"nc":903,"Ġafter":904,"Ġno":905,"ular":906,"ally":907,"ivers":908,"Ġop":909,"Ġind":910,"Ġpeople":911,"ner":912,"eng":913,"ON":914,"ement":915,"to":916,"urre":917,"ating":918,"line":919,"ru":920,"Ġend":921,"Ġ||":922,"ient":923,"ribut":924,"Ġtrans":925,"ĠĠĠĠĠĠĠĠĠ":926,"Ġsub":927,"Ġ#":928,"Ġcons":929,"Ġunder":930,"umber":931,"ator":932,"rough":933,"uring":934,"Ġsaid":935,"text":936,"ues":937,"}\\":938,"199":939,"ĠĠĠĠĠĠĠĠĠĠĠĠĠĠĠĠĠĠĠ":940,"ĠSe":941,"Ġinv":942,"uct":943,"mb":944,"atic":945,"Ġstud":946,"Ġprov":947,"ash":948,"Ġdata":949,"}$":950,"oot":951,"ank":952,"Ġlike":953,"11":954,"key":955,"ĉĉĉ":956,"ility":957,"ms":958,"this":959,"ars":960,"))":961,"====":962,"('":963,"Name":964,"red":965,"meric":966,"><":967,"ale":968,"the":969,"Ġwhere":970,"Ġserv":971,"Ġbl":972,"Ġatt":973,"ences":974,"Ġac":975,"Ġpos":976,"ures":977,"its":978,"und":979,"abel":980,"://":981,"ower":982,"ĠAl":983,"Ġback":984,"Ġrel":985,"name":986,"ĠSh":987,"right":988,"ollow":989,"ead":990,"any":991,"ices":992,"che":993,"../../":994,"Ġfil":995,"Ġdif":996,"Ġmay":997,"ox":998,"Ġuse":999,"Ġmost":1000,"ough":1001,"irect":1002,"Ġrem":1003,"ek":1004,"ood":1005,"ton":1006,"Ġ_":1007,"ann":1008,"Ġloc":1009,"raph":1010,"Type":1011,"Ġrequ":1012,"Ġspec":1013,"Ġthrough":1014,"ily":1015,"ah":1016,"Ġprodu":1017,"ins":1018,"ause":1019,"Ġhow":1020,"Ġpol":1021,"RE":1022,"Ġresult":1023,"resent":1024,"itt":1025,"17":1026,"cess":1027,"wn":1028,"ible":1029,"ĠWe":1030,"Ġwhat":1031,"Ġph":1032,"Ġcall":1033,"cond":1034,"uth":1035,"Ġtype":1036,"air":1037,"param":1038,"ethod":1039,"Ch":1040,"Ġjust":1041,"Ġbec":1042,"Ġel":1043,"Ġam":1044,"Ġvalue":1045,"Ġfl":1046,"cent":1047,"Ġent":1048,"Ġhigh":1049,"read":1050,"chool":1051,"ĠTr":1052,"Ġmy":1053,"orn":1054,"ST":1055,"Ġco":1056,"fore":1057,"ts":1058,"Ġever":1059,"import":1060,"html":1061,"vent":1062,"egin":1063,"30":1064,"Con":1065,"ason":1066,"ween":1067,"ife":1068,"der":1069,"ren":1070,"Ġsuch":1071,"Ġthen":1072,"(\\":1073,"ier":1074,"14":1075,"Ġhim":1076,"ince":1077,"Ġused":1078,"...":1079,"lection":1080,"Ġem":1081,"ists":1082,"return":1083,"ines":1084,"},":1085,"Ġyears":1086,"alse":1087,"man":1088,"AT":1089,"Ġbr":1090,"Ġshow":1091,"ature":1092,"Ġthese":1093,"ĠCl":1094,"gan":1095,"Id":1096,"of":1097,"Ġform":1098,"led":1099,"dd":1100,"ĠAn":1101,"son":1102,"Ġfollow":1103,"Ġneed":1104,"Com":1105,"ages":1106,"ful":1107,"hip":1108,"ished":1109,"Ġi":1110,"String":1111,"ision":1112,"13":1113,"urrent":1114,"Cont":1115,"ider":1116,"att":1117,"begin":1118,"25":1119,"Ġline":1120,"oh":1121,"col":1122,"imes":1123,"Ġhref":1124,"ask":1125,"erson":1126,"ript":1127,"fl":1128,"Ġbetween":1129,"Ġagain":1130,"Ġgr":1131,"Ġwell":1132,"plic":1133,"ĠAmeric":1134,"ID":1135,"day":1136,"view":1137,"ache":1138,"oci":1139,"ined":1140,"ble":1141,"Ġself":1142,"Ġinst":1143,"Ġconst":1144,"Ġ!":1145,"ĠZ":1146,"ized":1147,"ral":1148,"Ġstart":1149,"az":1150,"Res":1151,"els":1152,"ĠWh":1153,"Ġdist":1154,"ments":1155,"def":1156,"ault":1157,"other":1158,"iver":1159,"td":1160,"Ġeff":1161,"ta":1162,"min":1163,"ĠQ":1164,"source":1165,"AR":1166,"Ref":1167,"trans":1168,"Ġdiffer":1169,"Cl":1170,"Ġcre":1171,"ception":1172,"Ġcould":1173,"Ġdr":1174,"Ġchar":1175,"ww":1176,"iversity":1177,"ey":1178,"000":1179,"add":1180,"tain":1181,"Ġgener":1182,"ple":1183,"message":1184,"ĠInd":1185,"âĢľ":1186,"uss":1187,"Ġtest":1188,"ĠEx":1189,"way":1190,".âĢĿ":1191,"ouse":1192,"alth":1193,"ution":1194,"ever":1195,"Ġsystem":1196,"Ġsign":1197,"cal":1198,"ced":1199,"Ġsm":1200,"pon":1201,"Ġshould":1202,"ives":1203,"htt":1204,"ik":1205,"198":1206,"press":1207,"Ġlong":1208,"Ġ=>":1209,"ument":1210,"Ġnow":1211,"OR":1212,"uch":1213,"It":1214,"ersion":1215,"Ġdet":1216,"ets":1217,"Ġart":1218,"aking":1219,"formation":1220,"type":1221,"Ġcount":1222,"Ar":1223,"_{\\":1224,"yle":1225,"ody":1226,"Ġed":1227,"ern":1228,"ric":1229,"ĠCon":1230,"Ġser":1231,"ee":1232,"ants":1233,"ĠFor":1234,"Ġmany":1235,"code":1236,"Ġbeing":1237,"orth":1238,"ience":1239,"Ġsur":1240,"'t":1241,"lation":1242,"ology":1243,"ting":1244,"back":1245,"ivate":1246,"Ġfound":1247,"fo":1248,"Ġmin":1249,"}{":1250,"Ġsim":1251,"Ġteam":1252,"50":1253,"Ġfinal":1254,"ired":1255,"Ġhel":1256,"):":1257,"Ġright":1258,"ĠAs":1259,"Ġnumber":1260,"ole":1261,"Ġevery":1262,"class":1263,")$":1264,"Ġwhile":1265,"Ġval":1266,"EN":1267,"Ġmake":1268,"Ġmon":1269,"ĠDe":1270,"Ġmed":1271,"AL":1272,"ternal":1273,"Ġsupport":1274,"itle":1275,"ĠSc":1276,"__":1277,"Ġlead":1278,"ream":1279,"Ġnull":1280,"aj":1281,"gram":1282,"yp":1283,"Ġbefore":1284,"Ġ==":1285,"Ġpoint":1286,".\"":1287,"Ġear":1288,"Ġcor":1289,"ism":1290,"List":1291,"ĠAnd":1292,"velop":1293,"Ġfam":1294,"cept":1295,"org":1296,"chn":1297,"ten":1298,"ather":1299,"ces":1300,"Ġmade":1301,"Ġdevelop":1302,"Ġgu":1303,"Ġknow":1304,"val":1305,"uc":1306,"Ġeach":1307,"Ġthree":1308,"esc":1309,"Tr":1310,"iness":1311,"ctions":1312,"Ġcent":1313,"ĠCol":1314,"outh":1315,"ared":1316,"ote":1317,"/>":1318,"Ġexper":1319,"br":1320,"Ġcase":1321,"Ġread":1322,".,":1323,"Ġdid":1324,"Ġduring":1325,"ball":1326,"work":1327,"ength":1328,"by":1329,"Ġlist":1330,"Ġdec":1331,"Ġoper":1332,"pre":1333,"ross":1334,"eta":1335,"self":1336,"label":1337,"ital":1338,"2022":1339,"var":1340,"umm":1341,"Ġeven":1342,"bl":1343,"rol":1344,"Ġtrue":1345,"ccess":1346,"frac":1347,"left":1348,"24":1349,"Ġerr":1350,"Ġboth":1351,"eter":1352,"ĠFr":1353,"Ġsee":1354,"Ġvoid":1355,"##":1356,"Ġbecause":1357,"ym":1358,"ele":1359,"Ġrun":1360,"iving":1361,"LE":1362,"Ġlast":1363,"Ġdoes":1364,"gy":1365,"Ġlook":1366,"alk":1367,"ense":1368,"Ġ>":1369,"ury":1370,"Ġsame":1371,"Ġ`":1372,"ically":1373,"Ġworld":1374,"bers":1375,"Ġbel":1376,"ĠIs":1377,"Ġ)":1378,"Ġstate":1379,"idth":1380,"Ġhand":1381,"ser":1382,"Ġest":1383,"197":1384,"ister":1385,"ĠPh":1386,"mod":1387,"ization":1388,"iven":1389,"SS":1390,"Refer":1391,"eq":1392,"Ġway":1393,"Ġsecond":1394,"par":1395,"\"/>":1396,"ute":1397,"32":1398,"ĠPl":1399,"Ġelse":1400,"ina":1401,"To":1402,"arget":1403,"yn":1404,"Ġown":1405,"arent":1406,"ĠĠĠĠĠĠĠĠĠĠĠĠĠĠĠĠĠĠĠĠĠĠĠĠĠĠĠĠĠĠĠĠ":1407,"Ġrep":1408,"âĢ¦":1409,"Ġext":1410,"));":1411,"her":1412,"string":1413,"ional":1414,"Ġche":1415,"ĠMar":1416,"usiness":1417,"Ġvery":1418,"Ġresp":1419,"ural":1420,"Wh":1421,"ĠUniversity":1422,"Ġrele":1423,"wh":1424,"for":1425,"ified":1426,"Ġav":1427,"Ġdown":1428,"ify":1429,"ott":1430,"Ġusing":1431,"Ġmov":1432,"We":1433,"ample":1434,"AN":1435,"ency":1436,"Ġhelp":1437,"Ġdifferent":1438,"bject":1439,"Ġfalse":1440,",âĢĿ":1441,"Ġsol":1442,"ĠBl":1443,"ule":1444,"Ġdirect":1445,"Ġcommun":1446,"perty":1447,"ron":1448,"ually":1449,"arm":1450,"22":1451,"ains":1452,"Ġappro":1453,"til":1454,"Ġmem":1455,"Ġcar":1456,"Ġthose":1457,"ĠRes":1458,"Ġdisc":1459,"Ġreport":1460,"Ġcap":1461,"Ġmark":1462,"ĠYou":1463,"usic":1464,"ĠShe":1465,"rop":1466,"Ġgl":1467,"Ġfind":1468,"Ġbuild":1469,"ĠâĢĶ":1470,"Ġx":1471,"Ġwrit":1472,"rr":1473,"Value":1474,"Ġperform":1475,"Ġcontin":1476,"ness":1477,"ases":1478,"Ġsl":1479,"co":1480,"\"><":1481,"********":1482,"Ġpass":1483,"ane":1484,"loc":1485,"ĠPr":1486,"ived":1487,"opt":1488,"med":1489,"ĠRe":1490,"amb":1491,"Ã©":1492,"Ġgame":1493,"roll":1494,"ission":1495,"ĠLe":1496,"ality":1497,"ĠComm":1498,"uild":1499,"play":1500,"Ġpartic":1501,"IT":1502,"ger":1503,"ĠAmerican":1504,"Ġincluding":1505,"me":1506,"Ġequ":1507,"bar":1508,"////":1509,"ĠOn":1510,"Ġsing":1511,"Ġcurrent":1512,"Ġchild":1513,"akes":1514,"----------------":1515,"ĠX":1516,"translation":1517,"Ġbo":1518,"Ġprocess":1519,"Ġimp":1520,"Data":1521,"ober":1522,"Ġapp":1523,"Ġimport":1524,"omen":1525,"que":1526,"100":1527,"istory":1528,"Ġmuch":1529,"sub":1530,"ĠIf":1531,"Ġ--":1532,"reen":1533,"References":1534,"ohn":1535,"ĠSp":1536,"ĠAd":1537,"Ġfield":1538,"ava":1539,"ervice":1540,"40":1541,"Ġinformation":1542,"Ġlink":1543,"ots":1544,"Ġgood":1545,"Ġmain":1546,"Ġincre":1547,"ler":1548,"ley":1549,"data":1550,"By":1551,"come":1552,"This":1553,"Ġagainst":1554,"atus":1555,"23":1556,"iev":1557,"uthor":1558,"Ġopen":1559,"cont":1560,"\");":1561,"Ġpop":1562,"Ġwant":1563,"Ġtop":1564,"ats":1565,"ential":1566,"SE":1567,"As":1568,"ĠĠĠĠĠĠĠĠĠĠĠĠĠ":1569,"Ġpat":1570,"enn":1571,"Un":1572,"cite":1573,"Ġdesc":1574,"ĠEng":1575,"21":1576,"ety":1577,"CT":1578,"196":1579,"Ġvis":1580,"uff":1581,"Ġhead":1582,"Ġhere":1583,"use":1584,"ograph":1585,"})":1586,"Ġid":1587,"new":1588,"Ġrecord":1589,"ush":1590,"Col":1591,"istr":1592,"ounc":1593,"lear":1594,"not":1595,"Ġcare":1596,"Ġ/**":1597,"ĠMay":1598,"oad":1599,"Ġfact":1600,"itions":1601,"Ġopt":1602,"une":1603,"mp":1604,"date":1605,"bs":1606,"value":1607,"part":1608,"ĠJan":1609,"ven":1610,"Ġlife":1611,"2021":1612,"Ġprivate":1613,"$.":1614,"mathb":1615,"Ġfr":1616,"umn":1617,"Ġperson":1618,"ior":1619,"ows":1620,"search":1621,"Ġdon":1622,"On":1623,"Ġmethod":1624,"ĠâĢĺ":1625,"reg":1626,"aining":1627,"Ġstring":1628,"ium":1629,"An":1630,"Ġstill":1631,"uro":1632,"Ġcr":1633,"urs":1634,"Ġprovid":1635,"Ġaround":1636,"Ġschool":1637,"$,":1638,"ends":1639,"face":1640,"file":1641,"Ġgroup":1642,"ght":1643,"ĠHow":1644,"side":1645,"ĠBr":1646,"arn":1647,"rm":1648,"Ġtake":1649,"2020":1650,"abl":1651,"ird":1652,"Ġdesign":1653,"ĠĠĠĠĠĠĠĠĠĠĠĠĠĠĠĠĠĠĠĠĠĠĠ":1654,"Ġfin":1655,"ĠOr":1656,"ĠUnited":1657,"Ġpost":1658,"\")":1659,"Ġeffect":1660,"Ġnon":1661,"etwork":1662,"equation":1663,"Ġprogram":1664,"lex":1665,"test":1666,"Ġobject":1667,"be":1668,"item":1669,"Ġweek":1670,"Ġ&&":1671,"px":1672,"reak":1673,",\\":1674,"Ġbest":1675,"Ġsince":1676,"Ġgover":1677,"Ġfour":1678,"Ġrece":1679,"load":1680,"Ġappe":1681,"ĠĠĠĠĠĠ":1682,"}.":1683,"DE":1684,"uck":1685,"ai":1686,"oss":1687,"Set":1688,"nment":1689,"Ġexpect":1690,"27":1691,"illion":1692,"Ġcour":1693,"Ġfollowing":1694,"action":1695,"26":1696,"Ġmet":1697,"Exception":1698,"Ġdel":1699,"vious":1700,"time":1701,"Ġthink":1702,"Ġday":1703,"For":1704,"ĠBut":1705,"ulation":1706,"Ġkey":1707,"irc":1708,"requ":1709,"Sh":1710,"Ġann":1711,"Ġorder":1712,"28":1713,"struct":1714,"ĠAll":1715,"ternational":1716,"comm":1717,"less":1718,"head":1719,"inter":1720,"Ġke":1721,"raw":1722,"Ġevent":1723,"Ġsmall":1724,"Ġseason":1725,"itor":1726,"Ġstatic":1727,"ected":1728,"];":1729,"por":1730,"ability":1731,"ummary":1732,"Ġpres":1733,"aces":1734,"Ġbook":1735,"af":1736,"Ġref":1737,"Get":1738,"ustom":1739,"ME":1740,"gr":1741,"Ġlevel":1742,"ĠUS":1743,"ĠCent":1744,"ope":1745,"Ġtechn":1746,"Object":1747,"],":1748,"Ġ!=":1749,"rror":1750,"Ġterm":1751,"field":1752,"ager":1753,"ĠCount":1754,"ploy":1755,"($":1756,"ively":1757,"Ġsom":1758,"ape":1759,"Ġorig":1760,"Ġorgan":1761,"order":1762,"CO":1763,"Ġ///":1764,"rist":1765,"Ġplace":1766,"Ġmust":1767,"ped":1768,"pha":1769,"Ġnext":1770,"Ġlocal":1771,"Ġmodel":1772,"mathcal":1773,"da":1774,"ĠAp":1775,"========":1776,"ocument":1777,"ĠThey":1778,"vir":1779,"bo":1780,"âĢĶ":1781,"ference":1782,"ĠCar":1783,"Ġposs":1784,"acy":1785,"Ġcharact":1786,"rem":1787,"unc":1788,"ocial":1789,"ised":1790,"Ind":1791,"uary":1792,"idd":1793,"Ġadv":1794,"Ġstand":1795,"Ġexpl":1796,"ĠNov":1797,"ĠCan":1798,"Ġmat":1799,"Ġconsider":1800,"._":1801,"Ġreal":1802,"Ġpower":1803,"ports":1804,"aving":1805,"Ġbusiness":1806,"obal":1807,"ĠJohn":1808,"aster":1809,"ĠAss":1810,"Test":1811,"ries":1812,"Ġz":1813,"ailable":1814,"Ġpresent":1815,"ĠAt":1816,"ĠGr":1817,"arge":1818,"ths":1819,"ĠString":1820,"Ġfamily":1821,"Ġgiven":1822,"Ġproject":1823,"ĠJul":1824,"Ġarg":1825,"ĠTe":1826,"Ġiss":1827,"AC":1828,"Ġlaw":1829,"roid":1830,"29":1831,"aff":1832,"ateg":1833,"urch":1834,"ground":1835,"hes":1836,"ination":1837,"Ġleft":1838,"nb":1839,"wit":1840,"ĠMan":1841,"angu":1842,"go":1843,"ene":1844,"ourn":1845,"ĠBe":1846,"Ġhome":1847,"IC":1848,"')":1849,"ari":1850,"Ġaut":1851,"Ġknown":1852,"sy":1853,"Ġhtt":1854,"2019":1855,"ription":1856,"Ġfilm":1857,"2018":1858,"my":1859,"ately":1860,"}(":1861,"rite":1862,"ĠWorld":1863,"itial":1864,"2017":1865,"().":1866,"epend":1867,"Ġold":1868,"opy":1869,"());":1870,"Ġbro":1871,"olv":1872,"log":1873,"off":1874,"fess":1875,"Ġsever":1876,"lected":1877,"Ġ%":1878,"umer":1879,"apt":1880,"tract":1881,"Ġseries":1882,"Ġdem":1883,"Ġinvest":1884,"Ġleg":1885,"size":1886,"Ġorg":1887,"Ġlater":1888,"33":1889,"ories":1890,"Mod":1891,"Ġplayers":1892,"Ġgreat":1893,"Ġcompany":1894,"ugg":1895,"Ġcalled":1896,"util":1897,"Se":1898,"ĠNational":1899,"Ġsk":1900,"ering":1901,"Ġexp":1902,"2016":1903,"Ġsay":1904,"Ġtem":1905,"ootball":1906,"Al":1907,"dis":1908,"ĠPol":1909,"Ġbased":1910,"Ġmult":1911,"Ġprot":1912,"ways":1913,"iter":1914,"ogle":1915,"ware":1916,"ĠMed":1917,"He":1918,"Ġvari":1919,"nbsp":1920,"iam":1921,"icle":1922,"LL":1923,"ajor":1924,"Ġanother":1925,"ained":1926,"Ġoffic":1927,"Ġwithout":1928,"RO":1929,"ĠThere":1930,"itional":1931,"ĠOct":1932,"}^":1933,"}_":1934,"ĠTo":1935,"conom":1936,"oun":1937,"].":1938,"Class":1939,"Ġwithin":1940,"vert":1941,"Ġanal":1942,"ords":1943,"Ġparam":1944,"ĠStates":1945,"2015":1946,"function":1947,"http":1948,"ideo":1949,"pi":1950,"urity":1951,"Ġstruct":1952,"ling":1953,"list":1954,"Ġchang":1955,"ording":1956,"inc":1957,"ended":1958,"ently":1959,"Ġwin":1960,"uman":1961,"ĠYork":1962,"Error":1963,"64":1964,"Im":1965,"ival":1966,"ocus":1967,"alpha":1968,"Ġhealth":1969,"arr":1970,"itive":1971,"wards":1972,"ĠAug":1973,"ĠAust":1974,"duct":1975,"60":1976,"ources":1977,"Key":1978,"~\\":1979,"Ġview":1980,"icy":1981,"ift":1982,"Ġtri":1983,"Ġpar":1984,"mber":1985,"Ġspe":1986,"ney":1987,"ĠFeb":1988,"Ġident":1989,"link":1990,"ored":1991,"ales":1992,"ails":1993,"2023":1994,"ients":1995,"Ġmusic":1996,"ards":1997,"ĠJanuary":1998,"Ġbeh":1999,"ĠGu":2000,"ĠMin":2001,"ague":2002,"ION":2003,"top":2004,"Ġgrow":2005,"ĠSchool":2006,"Ġfull":2007,"Ġtitle":2008,"AP":2009,"Ġret":2010,"ems":2011,"ait":2012,"Ġfew":2013,"Ġfile":2014,"Ġocc":2015,"ification":2016,"2014":2017,"Ġcond":2018,"aut":2019,"ison":2020,"ches":2021,"Ġelement":2022,"Ġtry":2023,"ribute":2024,"ony":2025,"Ġeng":2026,"ians":2027,"194":2028,"aim":2029,"Ġaccess":2030,"Ġnear":2031,"includ":2032,"Ġet":2033,"Ġarea":2034,"Ġinterest":2035,"agn":2036,"Ġsize":2037,"ĠApr":2038,"Ġsuccess":2039,"elta":2040,"rc":2041,"ands":2042,"align":2043,"With":2044,"bum":2045,"Ġuntil":2046,"\":":2047,"Ġdep":2048,"viron":2049,"leg":2050,"ump":2051,"Ġport":2052,"summary":2053,"ED":2054,"Ġpolit":2055,"oman":2056,"Sc":2057,"Ġservice":2058,"pace":2059,"Ġallow":2060,"Requ":2061,"Qu":2062,"url":2063,"public":2064,"ought":2065,"amed":2066,"www":2067,"urope":2068,"ung":2069,"Ġtyp":2070,"Ġavailable":2071,"ume":2072,"uration":2073,"ĠMarch":2074,"View":2075,"Re":2076,"ĠCo":2077,"Ġturn":2078,"Ġlim":2079,"ica":2080,"Ġrequest":2081,"ances":2082,"Ġproduct":2083,"ights":2084,"aint":2085,"https":2086,"Ġthrow":2087,"ptember":2088,"Ġresearch":2089,"ĠCounty":2090,"iod":2091,"80":2092,"location":2093,"Ġalong":2094,"');":2095,"ivity":2096,"['":2097,"ĠState":2098,"Ġrepresent":2099,"Ġla":2100,"Ġchange":2101,"ĠNo":2102,"Ġcontent":2103,"\";":2104,"gin":2105,"AS":2106,"Ġgoing":2107,"ending":2108,"ĠGe":2109,"urther":2110,"stand":2111,"cember":2112,"ambda":2113,"ĠFl":2114,"ĠSouth":2115,"ittle":2116,"index":2117,"195":2118,"agement":2119,"Ġdev":2120,"ibr":2121,"path":2122,"eters":2123,"script":2124,"Ġresults":2125,"ilt":2126,"Ġproble":2127,"Ġsays":2128,"Ġlinks":2129,"ĠCO":2130,"(),":2131,"cer":2132,"fe":2133,"anguage":2134,"lege":2135,"Int":2136,"Ġins":2137,"plication":2138,"ruary":2139,"\".":2140,"uture":2141,"Ġtoo":2142,"serv":2143,"Ġtarget":2144,"IS":2145,"ĠWar":2146,"aps":2147,"$\\":2148,"section":2149,"pecial":2150,"ĠEd":2151,"ĠReg":2152,"ours":2153,"Ġtext":2154,"ĠCity":2155,"ĠAb":2156,"Ġgovernment":2157,"Ġprom":2158,"atures":2159,"Ġaff":2160,"PE":2161,"color":2162,"ilar":2163,"ĠCal":2164,"Ġinclude":2165,"ured":2166,"Ph":2167,"width":2168,"Ġ/>":2169,"imate":2170,"ĠDr":2171,"ĠJune":2172,"ertain":2173,"Ġhapp":2174,"table":2175,"uf":2176,"ĠĠĠĠĊ":2177,"ĉĉĉĉĉ":2178,"cast":2179,"eps":2180,"35":2181,"Ġstudy":2182,"Ġwomen":2183,"Pl":2184,"pert":2185,"Âł":2186,"uk":2187,"earch":2188,"Ġseveral":2189,"Ġlet":2190,"UR":2191,"iles":2192,"Ġdeath":2193,"ĠEn":2194,"ators":2195,"ising":2196,"ique":2197,"but":2198,"Ġsingle":2199,"File":2200,"Ġcreate":2201,"Ġcheck":2202,"isk":2203,"Ġ?":2204,"Ġoriginal":2205,"ention":2206,"ponse":2207,"Ġdescrib":2208,"Ġ);":2209,"Not":2210,"Ġdi":2211,"2013":2212,"Ġreally":2213,"Ġshort":2214,"Ġearly":2215,"Ġrest":2216,"Ġlarge":2217,"ĠApril":2218,"aterial":2219,"Ġestabl":2220,"Ġput":2221,")\\":2222,"Ġmembers":2223,"Ġfac":2224,"Ġbig":2225,"ĠSeptember":2226,"Ġassert":2227,"aus":2228,"Add":2229,"ector":2230,"ĠOctober":2231,"Time":2232,"ued":2233,"ĠSup":2234,"Ġless":2235,"ackage":2236,"Man":2237,"All":2238,"Ġcity":2239,"ones":2240,"amma":2241,"New":2242,"iction":2243,"ides":2244,"ready":2245,".</":2246,"2012":2247,"empt":2248,"de":2249,"Ġeas":2250,"Ġcontrol":2251,"vironment":2252,"ĠEurope":2253,"alf":2254,"ĠAugust":2255,"array":2256,"Ġmajor":2257,"const":2258,"ĠJuly":2259,"Ġlog":2260,"Ġdue":2261,"LA":2262,"Node":2263,"thers":2264,"ĠDecember":2265,"Ġplan":2266,"ĠChrist":2267,"raft":2268,"ĠRep":2269,"nav":2270,"31":2271,"pression":2272,"Ġpath":2273,"Ġwater":2274,"Ġerror":2275,"ension":2276,"Ġelect":2277,"ES":2278,"Ġsong":2279,"ĠNovember":2280,"Ġimportant":2281,"Or":2282,"Ġmar":2283,"Ġ,":2284,"2010":2285,"34":2286,"=\\":2287,"']":2288,"Ġfore":2289,"ĠFebruary":2290,"Ġbetter":2291,"Ap":2292,"Ġchildren":2293,"ĠWill":2294,"sec":2295,"Ġversion":2296,"Ġnever":2297,"Ġstat":2298,"Element":2299,"Ġpo":2300,"Ġquest":2301,"thing":2302,"Ġmeas":2303,"evel":2304,"rew":2305,"/*":2306,"mu":2307,"UT":2308,"ĠInst":2309,"Ġwon":2310,"Ġfree":2311,"ĠMc":2312,"Info":2313,"Ġpubl":2314,",\"":2315,"ĠPar":2316,"olution":2317,"TR":2318,"ĠBrit":2319,"Is":2320,"Event":2321,"ino":2322,"\"></":2323,"ags":2324,"Ġtot":2325,"ĠWith":2326,"ilit":2327,"External":2328,"igma":2329,"2011":2330,"HE":2331,"Ġexample":2332,"ĠPart":2333,"ouble":2334,"js":2335,"ably":2336,"Def":2337,"ender":2338,"Ġstory":2339,"Ġconf":2340,"Ġalbum":2341,"ret":2342,"ules":2343,"ĠNorth":2344,"ites":2345,"sw":2346,"AD":2347,"99":2348,"Ġcommunity":2349,"ĠSo":2350,"And":2351,"ament":2352,"ession":2353,"ples":2354,"ega":2355,"gress":2356,"Request":2357,"Ġland":2358,"Ġclos":2359,"Ġcountry":2360,"comp":2361,"Ġvol":2362,"Ġblock":2363,"ada":2364,"OT":2365,"Ġmarket":2366,"aper":2367,"};":2368,"aged":2369,"Equ":2370,"odes":2371,"Ġuser":2372,"Ġcharacter":2373,"Ġbas":2374,"ING":2375,"Ġoffer":2376,"oken":2377,"Ġpay":2378,"prov":2379,"Config":2380,"istor":2381,"ething":2382,"ana":2383,"En":2384,"icro":2385,"Bl":2386,"ĠSer":2387,"Ġstyle":2388,"length":2389,"ĠCont":2390,"ĠHowever":2391,"Ġ\\\\":2392,"Ġgot":2393,"ike":2394,"Ġbreak":2395,"}^{":2396,"ĠIm":2397,"indow":2398,"stru":2399,"ĠGerm":2400,"Ġmight":2401,"Ġbecame":2402,"ĠEl":2403,"90":2404,"Ġcompet":2405,"Path":2406,"Ġacross":2407,"posed":2408,"Ġcost":2409,"Ġide":2410,"ĠBo":2411,"Ġauthor":2412,"stance":2413,"Ġsocial":2414,"idual":2415,"group":2416,"ither":2417,"Ġcamp":2418,"Over":2419,"lish":2420,"Ġcome":2421,"Ġmillion":2422,"ĠÂ":2423,"Ġfootball":2424,"ĠAg":2425,"ply":2426,"Ġenc":2427,"Map":2428,"Ġcell":2429,"box":2430,"Ġmen":2431,"ried":2432,"/**":2433,"Ġindust":2434,"oin":2435,"Ġdays":2436,"Ġask":2437,"reet":2438,"Ġalways":2439,"Ġcrit":2440,"Ġspace":2441,"Ġredu":2442,"Param":2443,"Field":2444,"irt":2445,"irl":2446,"Ġprevious":2447,"abor":2448,"Ġassoci":2449,"If":2450,"Ġmean":2451,"Ġhard":2452,"api":2453,"Ġsec":2454,"State":2455,"Ġhistory":2456,"Ġnetwork":2457,"37":2458,"ĠSystem":2459,"())":2460,"ĠAustral":2461,"Ġpot":2462,"Ġspecial":2463,"ered":2464,"atter":2465,"Ġformer":2466,"Ġcover":2467,"Ġwhe":2468,"Ġener":2469,"ysis":2470,"Ġbase":2471,"Ġtimes":2472,"36":2473,"Ġposition":2474,"oice":2475,"Text":2476,"ormal":2477,"_\\":2478,"}_{":2479,"Ġfri":2480,"ride":2481,"user":2482,"=\"../../":2483,"mathbb":2484,"hold":2485,"ĠOff":2486,"Ġfund":2487,"ailed":2488,"Ġside":2489,"oney":2490,"45":2491,"Ġlarg":2492,"Index":2493,"Ġrad":2494,"Ġcustom":2495,"olean":2496,"Ġcomplet":2497,"ĠMe":2498,"Ġalready":2499,"bf":2500,"ero":2501,"down":2502,"error":2503,"ham":2504,"US":2505,"ĠChe":2506,"``":2507,"Form":2508,"rodu":2509,"Context":2510,"Ġgames":2511,"pen":2512,"Ġpract":2513,"ĠBy":2514,"sk":2515,"Ġ/*":2516,"idence":2517,"Ġant":2518,"-\\":2519,"now":2520,"ĠGl":2521,"urg":2522,"ze":2523,"ui":2524,"Ġyoung":2525,"icon":2526,"ster":2527,"amespace":2528,"point":2529,"At":2530,"Ġprovide":2531,"mbol":2532,"ĠPres":2533,"IG":2534,"lete":2535,"Ġbir":2536,"met":2537,"lang":2538,"Ġarray":2539,"ners":2540,"ĠRev":2541,"perties":2542,"oper":2543,"System":2544,"pm":2545,"ae":2546,"phi":2547,"ET":2548,"ĠRuss":2549,"ĠCor":2550,"Ġtook":2551,"Ġcult":2552,"atform":2553,"Ġtrad":2554,"Ġfar":2555,"void":2556,"eder":2557,"node":2558,"Ġdevelopment":2559,"Ġhold":2560,"tra":2561,"Ġlow":2562,"Ġ(!":2563,"rel":2564,"dom":2565,"aring":2566,"ournal":2567,"Ġvalues":2568,"asc":2569,"!--":2570,"Ġaddress":2571,"39":2572,"Ġrequire":2573,"01":2574,"oph":2575,"Ġmaking":2576,"AM":2577,"Ġ},":2578,"yd":2579,"Ġeduc":2580,"Ġstudents":2581,"Ġamong":2582,"Ġperiod":2583,"38":2584,"ief":2585,"thern":2586,"ayer":2587,"Service":2588,"Ġparticular":2589,"Ġclear":2590,"ibility":2591,"no":2592,"ĠWest":2593,"book":2594,"Ġoften":2595,"ĠQu":2596,"Ġexist":2597,"Ġpossible":2598,"':":2599,"uments":2600,"Ġair":2601,"Ġcal":2602,"Ġreview":2603,"Ġaction":2604,"Ġrole":2605,"oud":2606,"Ġep":2607,"ĠAct":2608,"Ġemploy":2609,"lev":2610,"yl":2611,"Ġthings":2612,"Ġmeet":2613,"Ġfive":2614,"Ġworking":2615,"AG":2616,"ĠThat":2617,"ogn":2618,"Ġgeneral":2619,"Ġsource":2620,"\\\\":2621,"Ġbecome":2622,"Ġsomething":2623,"Ġdefault":2624,"Ġrange":2625,"Ġlittle":2626,"Ġservices":2627,"apache":2628,"2009":2629,"aced":2630,"ops":2631,"hat":2632,"ables":2633,"vers":2634,"acc":2635,"Ġkeep":2636,"Ġcomb":2637,"Ġsignific":2638,"FF":2639,"Ġfocus":2640,"Ġmatch":2641,"ĠArt":2642,"word":2643,"Ġexperience":2644,"iol":2645,"ampions":2646,"Ġtrack":2647,"Ġoptions":2648,"ĠComp":2649,"Ġtotal":2650,"semb":2651,"Ġleast":2652,"ĠPer":2653,"see":2654,"Ġsy":2655,"ecut":2656,"ĠBar":2657,"nect":2658,"ves":2659,"Ġrespect":2660,"ux":2661,"Ġwar":2662,"Ġhouse":2663,"Ġprofess":2664,"ho":2665,"body":2666,"What":2667,"alt":2668,"Att":2669,"Ġphot":2670,"LO":2671,"Ġpast":2672,"ills":2673,"ĠGet":2674,"ĠWhen":2675,"Ġstrong":2676,"onse":2677,"Ġdiv":2678,"ĠGo":2679,"Ġfeel":2680,"ips":2681,"////////":2682,"aken":2683,"Ġlik":2684,"eturn":2685,"config":2686,"map":2687,"igned":2688,"md":2689,"Ġindiv":2690,"Ġlot":2691,"ĠAfter":2692,"ĠÐ":2693,"plate":2694,"nection":2695,"Ġarr":2696,"^{\\":2697,"Ġtoget":2698,"But":2699,"do":2700,"uation":2701,"from":2702,"Ġable":2703,"abled":2704,"lambda":2705,"Ġinc":2706,"Code":2707,"Ġcode":2708,"Ġtogether":2709,"aul":2710,"How":2711,"gl":2712,"Ġdom":2713,"Ġhuman":2714,"2008":2715,"rix":2716,"Ġreleased":2717,"Ġsimilar":2718,"From":2719,"70":2720,"Ġresponse":2721,"Ġabove":2722,"ĠII":2723,"apan":2724,"Ġenergy":2725,"bt":2726,"rior":2727,"ĠOne":2728,"roups":2729,"AB":2730,"era":2731,"Ġplayed":2732,"Ġ});":2733,"Ġthird":2734,"avel":2735,"Array":2736,"Ġ{\\":2737,"prot":2738,"Ġmax":2739,"Ġaccount":2740,"clus":2741,"Ġ:=":2742,"fin":2743,"state":2744,"cd":2745,"[]":2746,"umb":2747,"sl":2748,"Ġparent":2749,"ological":2750,"ĠAm":2751,"ĠDis":2752,"assert":2753,"Ġaway":2754,"ids":2755,"result":2756,"ĠPark":2757,"Ġhaving":2758,"Ġhost":2759,"Ġfuture":2760,"Ġcontext":2761,"istic":2762,"Ġconc":2763,"Build":2764,"iple":2765,"resp":2766,"ography":2767,"ration":2768,"ĠĠĠĠĠĠĠĠĠĠĠĠĠĠĠĠĠĠĠĠĠĠĠĠĠĠĠ":2769,"Result":2770,"75":2771,"ĠSch":2772,"eh":2773,"Ġage":2774,"Ġmedia":2775,"Ġobserv":2776,"osp":2777,"Ġdistribut":2778,"Ġmember":2779,"Ġflo":2780,"Ġinitial":2781,"tes":2782,"ĠDep":2783,"block":2784,"though":2785,"Ġsite":2786,"iment":2787,"UN":2788,"\"\"":2789,"****************":2790,"Ġpoints":2791,"Ġofficial":2792,"ĠRec":2793,"emic":2794,"lin":2795,"ided":2796,"Ġbody":2797,"Ġeconom":2798,"Of":2799,"Size":2800,"ĠAfr":2801,"na":2802,"Ġbeliev":2803,"input":2804,"ille":2805,"ington":2806,"Ġindividual":2807,"position":2808,"ondon":2809,"Ġinfl":2810,"Ġvideo":2811,"Ġsix":2812,"ponent":2813,"ĠĠĊ":2814,"Ġclaim":2815,"Ġlight":2816,"ĠHis":2817,"ĠDav":2818,"Ġ===":2819,"ping":2820,"object":2821,"ĠHigh":2822,"Ġlove":2823,"Ġra":2824,"true":2825,"';":2826,"struction":2827,"rest":2828,"Ġtreat":2829,"Ġben":2830,"Ġnational":2831,"most":2832,"ĠKing":2833,"Ġconfig":2834,"ixed":2835,"ilter":2836,"Ġdiscuss":2837,"Ġfurther":2838,"=\"+":2839,"ĠNews":2840,"Ġcommon":2841,"ĠThese":2842,"ayout":2843,"Trans":2844,"Ġdocument":2845,"idge":2846,"unk":2847,"sum":2848,"Hand":2849,"unity":2850,"Ġgen":2851,"imal":2852,"Ġcame":2853,"='":2854,"Ġtre":2855,"Ġexc":2856,"Ġcoll":2857,"Ġmeans":2858,"ged":2859,"Ġjob":2860,"Ġ-->":2861,"iting":2862,"ij":2863,"Ġinput":2864,"Loc":2865,"CE":2866,"Ġinteg":2867,"annel":2868,"define":2869,"illed":2870,"inary":2871,"Ġinvolv":2872,"where":2873,"Ġevents":2874,"ĠHouse":2875,"reed":2876,"ached":2877,"Ġsignificant":2878,"Ġcur":2879,"iff":2880,"ocr":2881,"oke":2882,"Pr":2883,"Ġmass":2884,"Ġund":2885,"hel":2886,"sm":2887,"with":2888,"ĠInt":2889,"ĠGener":2890,"Ð°":2891,"ĠSm":2892,"unch":2893,"Ġbuilding":2894,"year":2895,"ald":2896,"aging":2897,"ese":2898,"Ġwebs":2899,"Ġgive":2900,"Up":2901,"Inter":2902,"sel":2903,"Ġheld":2904,"++":2905,"TE":2906,"Ġrequired":2907,"Ġreceived":2908,"ĠNot":2909,"ĠChar":2910,"Comm":2911,"Ġlength":2912,"Ad":2913,"quot":2914,"Ġpotential":2915,"ĠStud":2916,"irm":2917,"Ġcareer":2918,"Ġperformance":2919,"Ġrefer":2920,"rown":2921,"anies":2922,"Ġrepl":2923,"55":2924,"lem":2925,"ring":2926,"Ġdeterm":2927,"Item":2928,"lt":2929,"Ġseen":2930,"Ġinstance":2931,"ilities":2932,"Ġattack":2933,"ĠHar":2934,"Ġprob":2935,"itted":2936,"ounds":2937,"Ġstarted":2938,"uffer":2939,"2007":2940,"Ġ__":2941,"uggest":2942,"anch":2943,"Val":2944,"Ġrelations":2945,"ius":2946,"Ġcolor":2947,"ements":2948,"asing":2949,"IP":2950,"ĠDo":2951,"Ġobtain":2952,"MP":2953,"title":2954,"create":2955,"Reg":2956,"ĠList":2957,"Ġsuper":2958,"ĠMark":2959,"Read":2960,"66":2961,"elling":2962,"Ġtown":2963,"call":2964,"Ġthough":2965,"ottom":2966,"Ã¡":2967,"Ġfeature":2968,"iet":2969,"Ġes":2970,"Ġothers":2971,"Ġimplement":2972,"Ġcreat":2973,"Ġonce":2974,"Ġdest":2975,"Ġpage":2976,"beta":2977,"Ġshows":2978,"mat":2979,"ĠCollege":2980,"Ġtalk":2981,"Ġnews":2982,"ĠBro":2983,"ude":2984,"CH":2985,"Ġkind":2986,"à¤":2987,"ĠPe":2988,"arrow":2989,"eff":2990,"version":2991,"aur":2992,"Ġindex":2993,"ctor":2994,"Ġtoday":2995,"Ġpress":2996,"Ġ(\\":2997,"imum":2998,"2006":2999,"artment":3000,"Ġsent":3001,"48":3002,"ades":3003,"There":3004,"Ġproperty":3005,"ML":3006,"ĠBritish":3007,"Out":3008,"Ġmaterial":3009,"lient":3010,"Ġphys":3011,"Ġtable":3012,"Ġnode":3013,"Ġmom":3014,"ilon":3015,"ĠLondon":3016,"You":3017,"unic":3018,"Ġlive":3019,"Ġcreated":3020,"rench":3021,"Fr":3022,"hib":3023,"escription":3024,"cle":3025,"lim":3026,"Ġdone":3027,"2000":3028,"ULL":3029,"}{\\":3030,"Ġcourse":3031,"Query":3032,"ĠMich":3033,"verage":3034,"ouncil":3035,"ĠInternational":3036,"mark":3037,"ĠAng":3038,"Ġglobal":3039,"Ġwhy":3040,"Ġexpected":3041,"Ð¾":3042,"mathbf":3043,"Ser":3044,"Ġmot":3045,"Ġindic":3046,"De":3047,"IL":3048,"ĠEnglish":3049,"Message":3050,"Ġeither":3051,"ĠHer":3052,"sigma":3053,"Ġfeatures":3054,"ises":3055,"NA":3056,"ama":3057,"Ġcomput":3058,"oon":3059,"ENT":3060,"ependent":3061,"light":3062,"ibrary":3063,"quad":3064,"Ġwhether":3065,"based":3066,"Ġmiss":3067,"ĠEm":3068,"content":3069,"default":3070,"ummer":3071,"include":3072,"lease":3073,"igation":3074,"igital":3075,"Ġactiv":3076,"Ġnil":3077,"ford":3078,"ĠJapan":3079,"Ġthought":3080,"ĠTrans":3081,"Ġannounc":3082,"Ġrisk":3083,"Ġenough":3084,"Ġprim":3085,"men":3086,"tings":3087,"pose":3088,"Ġbegin":3089,"Ġbegan":3090,"44":3091,"Ġmakes":3092,"info":3093,"Ġintrodu":3094,"ĠMy":3095,"ched":3096,"ĠPresident":3097,"ministr":3098,"ĠIndia":3099,"VID":3100,"utions":3101,"^{-":3102,"ks":3103,"ociety":3104,"Ġbi":3105,"ires":3106,"ĠSan":3107,"Ġunderstand":3108,"ĠMon":3109,"Ġjava":3110,"Ġ};":3111,"Ġhttps":3112,"Ġpublished":3113,"augh":3114,"Ġhalf":3115,"ĠLeague":3116,"space":3117,"Ġsit":3118,"Ġcertain":3119,"Ġincluded":3120,"urb":3121,"Ġproblem":3122,"aly":3123,"sequ":3124,"ĠWhat":3125,"ĠAir":3126,"Ġvarious":3127,"Ġbuilt":3128,"ampionship":3129,"Ġmessage":3130,"Call":3131,"iddle":3132,"Count":3133,"ifier":3134,"Dis":3135,"ĠVal":3136,"ilde":3137,"Ġwent":3138,"ĠSec":3139,"atural":3140,"reate":3141,"Ġnamed":3142,"max":3143,"09":3144,"CC":3145,"gt":3146,"Ġenvironment":3147,"ecess":3148,"####":3149,"Ġregion":3150,"Ġclose":3151,"ĠAmerica":3152,"Ġmonths":3153,"Ġbackground":3154,"Ġstop":3155,"Ġchall":3156,"ĠNe":3157,"ĠHealth":3158,"Ġprovided":3159,"print":3160,"Ġcou":3161,"Ġsuggest":3162,"ĠAc":3163,"OS":3164,"nes":3165,"aves":3166,"icense":3167,"ĠIN":3168,"Ġarch":3169,"Table":3170,"ael":3171,"ican":3172,"Ġproduction":3173,"Ġaud":3174,"uel":3175,"No":3176,"Ġmove":3177,"Ġmap":3178,"nown":3179,"rec":3180,"Ġworks":3181,"attle":3182,"See":3183,"ĠSw":3184,"Ġparticip":3185,"Ġsat":3186,"ĠRed":3187,"Log":3188,"Ġvia":3189,"ened":3190,"05":3191,"Ġabs":3192,"Ent":3193,"Ġnight":3194,"Ġadded":3195,"sup":3196,"ptions":3197,"ĠĠĠĠĠĠĠĠĠĠĠĠ":3198,"iforn":3199,"medi":3200,"Ġplayer":3201,"OD":3202,"Ġfood":3203,"Ġindustry":3204,"Ġband":3205,"Ġsw":3206,"Ġpred":3207,"roller":3208,"ĠSet":3209,"ainer":3210,"style":3211,"Ġdiff":3212,"ilitary":3213,"Ġhttp":3214,"MA":3215,"atory":3216,"bit":3217,"Ġtw":3218,"Ġcases":3219,"Ġimage":3220,"oo":3221,"ĠPhil":3222,"ĠClass":3223,"istry":3224,"start":3225,"ync":3226,"aker":3227,"Ġbit":3228,"arter":3229,"net":3230,"base":3231,"Ġreported":3232,"omet":3233,"BC":3234,"Ġbelow":3235,"born":3236,"Ġsure":3237,"Ġpopulation":3238,"ara":3239,"Ġelection":3240,"gamma":3241,"Ġlearn":3242,"parent":3243,"TH":3244,"respond":3245,"Ġwebsite":3246,"Ġaddition":3247,"Ġred":3248,"+\\":3249,"ĠWilliam":3250,"bor":3251,"--------------------------------":3252,"Ġ()":3253,"icles":3254,"ishing":3255,"Ġdoesn":3256,"ifornia":3257,"Ðµ":3258,"Ġclub":3259,"estern":3260,"itute":3261,"Ġcompanies":3262,"acing":3263,"ftware":3264,"amples":3265,"Ġonline":3266,"ĠCenter":3267,"ĠCour":3268,"pty":3269,"ĠTest":3270,"ĠAdd":3271,"istrict":3272,"dt":3273,"ĠMore":3274,"Ġdidn":3275,"Manager":3276,"ĠUp":3277,"atab":3278,"Ġrespons":3279,"iation":3280,"Americ":3281,"Ġcirc":3282,"Ġinternational":3283,"ĠMod":3284,"Ġimpact":3285,"Model":3286,"TD":3287,"Ġfall":3288,"gen":3289,"ris":3290,"Ġaccording":3291,"Ġyet":3292,"ĠDes":3293,"2005":3294,"Ġblack":3295,";&":3296,"Ġreason":3297,"ynam":3298,"Ġpatients":3299,"aign":3300,"ĠPat":3301,"ĠLa":3302,"ĠLaw":3303,"Ed":3304,"ancial":3305,"next":3306,"ĠStr":3307,"Ġchanges":3308,"Sub":3309,"ounter":3310,"*}":3311,"Ġmonth":3312,"ging":3313,"chiev":3314,"utes":3315,"Property":3316,"ĠDem":3317,"orage":3318,"ĠAssoci":3319,"valid":3320,"duc":3321,"65":3322,"Ass":3323,"ges":3324,"Ġterms":3325,"SP":3326,"ĠInter":3327,"Ġhowever":3328,"Ġcontinue":3329,"49":3330,"ores":3331,"using":3332,"Ġengine":3333,"ceed":3334,"Ġmoney":3335,"Ġtaken":3336,"ĠBlack":3337,"andom":3338,"=\"../../../../":3339,"Ġsystems":3340,"Ġappear":3341,"Ġcy":3342,"actory":3343,"plit":3344,"ship":3345,"java":3346,"Ġrelease":3347,"igure":3348,"08":3349,"ensive":3350,"Ġcaus":3351,"Ġpur":3352,"Ġmer":3353,"rho":3354,"aid":3355,"hand":3356,"anel":3357,"Ġsrc":3358,"Ġborder":3359,"Ġvisit":3360,"init":3361,"coming":3362,"Rec":3363,"Ġdate":3364,"Ġlocated":3365,"Client":3366,"Ġdisplay":3367,"sq":3368,"Ġtechnology":3369,"rt":3370,"active":3371,"itte":3372,"Ġpercent":3373,"Fl":3374,"Response":3375,"'re":3376,"Off":3377,"Ġbool":3378,"arning":3379,"^\\":3380,"Ġrate":3381,"Ġgroups":3382,"Ġdescribed":3383,"aries":3384,"Ġspecific":3385,"check":3386,"Ġopport":3387,"method":3388,"Ġvill":3389,"delta":3390,"mit":3391,"Ġhigher":3392,"Ġtax":3393,"theta":3394,"IR":3395,"Comp":3396,"Ġwritten":3397,"rect":3398,"Ġens":3399,"Ġfilms":3400,"Arg":3401,"Ġsection":3402,"Ġfav":3403,"Ġcontribut":3404,"Ġcomes":3405,"Ġneg":3406,"Ġdeal":3407,"google":3408,"Ġ...":3409,"ĠGroup":3410,">&":3411,"count":3412,"Ġteach":3413,"mathrm":3414,"Ġbenef":3415,"android":3416,"package":3417,"Ġlate":3418,")}":3419,"big":3420,"User":3421,"Ġcompon":3422,"OP":3423,"Ġareas":3424,"aug":3425,"izing":3426,"Ġtraining":3427,"2004":3428,"ĉĉĉĉĉĉ":3429,"iences":3430,"IM":3431,"Ġthing":3432,"Ġsubject":3433,"Ġannounced":3434,"Ġgrad":3435,"Pre":3436,".)":3437,"ĠRepublic":3438,"ĠCalifornia":3439,"angle":3440,"Ġpolitical":3441,"|-":3442,"47":3443,"orge":3444,"Group":3445,"Ġsuff":3446,"Ġentire":3447,"Ġnum":3448,"oto":3449,"Gener":3450,"Ġdeg":3451,"contain":3452,"oved":3453,"ado":3454,"ico":3455,"FA":3456,"Ġpersonal":3457,"Ð¸":3458,"Ġplatform":3459,"Ġtold":3460,"Ġoutput":3461,"Ġfront":3462,"Ġroom":3463,"ulated":3464,"web":3465,"ĠDef":3466,"Ġdecl":3467,"ĠDon":3468,"doc":3469,"02":3470,"Ġestablished":3471,"unt":3472,"Ġground":3473,"Ġbar":3474,"Ġanalysis":3475,"ategory":3476,"Color":3477,"Ġdistr":3478,"ĠSen":3479,"change":3480,"Ġbound":3481,"Ġlanguage":3482,"avy":3483,"tab":3484,"mon":3485,"inition":3486,"static":3487,"oe":3488,"pecially":3489,"ĠStreet":3490,"atal":3491,"witch":3492,"Ġlo":3493,"nov":3494,"ĠIndian":3495,"Ġtool":3496,"Ġlower":3497,"false":3498,"Ġaverage":3499,"Ġâ":3500,"xy":3501,"Ġloss":3502,"Ġden":3503,"Ġhom":3504,"context":3505,"03":3506,"07":3507,"ĠĠĠĠĠĠĠĠĠĠ":3508,"Ġnov":3509,"ocol":3510,"Ġvalid":3511,"Ġneeds":3512,"ouch":3513,"Ġroad":3514,"Ġstates":3515,"ĠTV":3516,"Ġspecies":3517,"ĠIr":3518,"ĠSim":3519,"aine":3520,"func":3521,"Override":3522,"Ġissues":3523,"Ġsearch":3524,"Ġapproach":3525,"....":3526,"Ġface":3527,"End":3528,"Ġstep":3529,"Ġrecogn":3530,"ivil":3531,"rip":3532,"ĠMor":3533,"ĠFrom":3534,"Ġcut":3535,"Ġcross":3536,"chan":3537,"Be":3538,"Ġoption":3539,"options":3540,"ework":3541,"ha":3542,"argin":3543,"04":3544,"Ġaccept":3545,"Ġstation":3546,"Ġsepar":3547,"Ġled":3548,"Ġdefined":3549,"Bar":3550,"Ġpopular":3551,"0000":3552,"ns":3553,"efore":3554,"Ġbring":3555,"Ġprint":3556,"anks":3557,"Ġemb":3558,"ĠAcc":3559,"95":3560,"build":3561,"================":3562,"Sp":3563,"Ġcomplex":3564,"anced":3565,"ĠGover":3566,">(":3567,"ĠFrench":3568,"Ġborn":3569,"figure":3570,"Ġstd":3571,"Ġconsidered":3572,"iber":3573,"Ġtell":3574,"Ġlabel":3575,"ĠNor":3576,"Ġcollection":3577,"When":3578,"Ġimprov":3579,"ening":3580,"irtual":3581,"After":3582,"Ġeffort":3583,"06":3584,"Ġmor":3585,"Ġmodels":3586,"tau":3587,"Ġquestion":3588,"Ġattempt":3589,"eline":3590,"ĠUK":3591,"atives":3592,"PI":3593,"Ġassociated":3594,"Ġamount":3595,"rad":3596,"ĠDistrict":3597,"Ġachiev":3598,"Ġtask":3599,"Ġviol":3600,"Method":3601,"elt":3602,"Ġalmost":3603,"Source":3604,"ett":3605,"plied":3606,"member":3607,"Ġload":3608,"useum":3609,"Ab":3610,"andid":3611,"option":3612,"icient":3613,"ĠPort":3614,"partial":3615,"Ġder":3616,"ospital":3617,"Ġtaking":3618,"Ġshown":3619,"hood":3620,"Builder":3621,"unn":3622,"Ġinj":3623,"Ġill":3624,"SC":3625,"Ġincludes":3626,"ĠChina":3627,"ĠDepartment":3628,"css":3629,"iers":3630,"dev":3631,"inated":3632,"Ġstatus":3633,"place":3634,"Ġfire":3635,"Ġrather":3636,"cial":3637,"Ġinstall":3638,"atest":3639,"event":3640,"lands":3641,"Ġlooking":3642,"icult":3643,"Ġson":3644,"Ġactually":3645,"]{":3646,"ĠWork":3647,"child":3648,"Ġcommand":3649,"ĠSk":3650,"ĠFirst":3651,"iday":3652,"etic":3653,"Stream":3654,"run":3655,"Ġrights":3656,"Ġpolicy":3657,"Ġhistor":3658,"EE":3659,"Ġrout":3660,"ection":3661,"Ġ$(":3662,"riter":3663,"ech":3664,"emy":3665,"500":3666,"times":3667,"ellow":3668,"Ġhours":3669,"istics":3670,"nu":3671,"Ġlikely":3672,"Ġinstead":3673,"Ġsuccessful":3674,"ename":3675,"ederal":3676,"Ġrecent":3677,"Ġvot":3678,"Ġsold":3679,"Ġbehind":3680,"center":3681,"Ġwatch":3682,"Ġrelationship":3683,"Ġconditions":3684,"maz":3685,"$-":3686,"ĠAnt":3687,"emplate":3688,"astic":3689,"Ġcompos":3690,"Ġimm":3691,"atabase":3692,"ĠAustralia":3693,"xi":3694,"ĠEngland":3695,"Ġround":3696,"ledge":3697,"Ġfail":3698,"ams":3699,"ĠCanada":3700,"Ġparty":3701,"])":3702,"ĠAN":3703,"vis":3704,"inn":3705,"Ġstandard":3706,"Ġsche":3707,"Ġarticle":3708,"ĠDavid":3709,"Ġprote":3710,"roy":3711,"ĠCOVID":3712,"=\"#":3713,"gor":3714,"ĠResearch":3715,"ĠMr":3716,"Ġdistrict":3717,"IV":3718,"omb":3719,"Ġcentury":3720,"American":3721,"Ġmultiple":3722,"ication":3723,"ĠDirect":3724,"ĠEast":3725,"airs":3726,"Ġey":3727,"Ġquick":3728,"has":3729,"leq":3730,"model":3731,"Ġbroad":3732,"2003":3733,"Ġapplic":3734,"itect":3735,"Ġstructure":3736,"ĠEuropean":3737,"ĠDay":3738,"Ġproducts":3739,"lying":3740,"db":3741,"ĠHol":3742,"evelop":3743,"Ġsound":3744,"Ġleaders":3745,"mission":3746,"ĠNULL":3747,"Ġalign":3748,"Ġshare":3749,"Util":3750,"Ġnecess":3751,"board":3752,"Ġprior":3753,"88":3754,"Ġfem":3755,"Image":3756,"ĠJust":3757,"Ġcorrespond":3758,"Cell":3759,"ili":3760,"Che":3761,"uster":3762,"67":3763,"century":3764,"Ġ($":3765,"Ġmanagement":3766,"core":3767,"fect":3768,"Ġeducation":3769,"wood":3770,"Ġsecurity":3771,"Ġwalk":3772,"ii":3773,"oring":3774,"namespace":3775,"Ġwidth":3776,"Ġincrease":3777,"used":3778,"Str":3779,"Ġinflu":3780,"Ã³":3781,"Em":3782,"Ġsex":3783,"raz":3784,"witter":3785,"rows":3786,"element":3787,"Ġcho":3788,"oul":3789,"Ġpresident":3790,"page":3791,"ithub":3792,"olar":3793,"Ġstream":3794,"Ġfight":3795,"ĠOut":3796,"Ġissue":3797,"udd":3798,"Token":3799,";</":3800,"indows":3801,"aches":3802,"ĠCup":3803,"ittee":3804,"lean":3805,"Ġcred":3806,"selves":3807,"ÃŃ":3808,"ida":3809,"dr":3810,"Ġcontract":3811,"sembly":3812,"Status":3813,"OL":3814,"wise":3815,"Ġcalc":3816,"ota":3817,"ken":3818,"Ġver":3819,"Ġrelated":3820,"Ġdoing":3821,"ulations":3822,"ĠCons":3823,"wide":3824,"Ġstaff":3825,"Ġheart":3826,"Ġadditional":3827,"su":3828,"Date":3829,"Ġsequ":3830,"acity":3831,"Ġwhole":3832,"ONT":3833,"df":3834,"case":3835,"ya":3836,"Ġlost":3837,"aven":3838,"Ġhon":3839,"ĠDi":3840,"Ġpick":3841,"Ġcurrently":3842,"vey":3843,"Ġfather":3844,"ining":3845,"ĠCr":3846,"((":3847,"cell":3848,"ĠBer":3849,"Ġespecially":3850,"}(\\":3851,"ago":3852,"pite":3853,"2001":3854,"ĠCouncil":3855,"ÑĤ":3856,"ĠMal":3857,"amily":3858,"Head":3859,"Ġago":3860,"Ġcannot":3861,"Ġpaper":3862,"Ġpers":3863,"otype":3864,"ees":3865,"comes":3866,"irection":3867,"Ġepis":3868,"Ġstre":3869,"Ġtakes":3870,"Pol":3871,"current":3872,"image":3873,"ĠEar":3874,"One":3875,"itting":3876,"elebr":3877,"Ġbirths":3878,"imation":3879,"ube":3880,"](":3881,"Ġneeded":3882,"Ġwhite":3883,"Pe":3884,"ĠPal":3885,"Ġ<<":3886,"like":3887,"ĠWeb":3888,"Ġcomplete":3889,"Ġaward":3890,"Ġserved":3891,"Ġdied":3892,"Ġconsist":3893,"Ġsens":3894,"Instance":3895,"ĠGeneral":3896,"Ġliter":3897,"yr":3898,"Ġforward":3899,"Ġoffice":3900,"Ġgetting":3901,"itution":3902,"pected":3903,"ashington":3904,"Ġapplication":3905,"sim":3906,"ville":3907,"izer":3908,"ula":3909,"Ġmid":3910,"MS":3911,"Ġtour":3912,"eed":3913,"Ġprovides":3914,"atur":3915,"ĠOf":3916,"request":3917,"joy":3918,"ilm":3919,"Ġworked":3920,"Ġleading":3921,"actions":3922,"ĠJames":3923,"Ġvict":3924,"client":3925,"2002":3926,"Ġmeasure":3927,"github":3928,"Ġregard":3929,"rote":3930,"Ġcontact":3931,"oyal":3932,"CA":3933,"Ġreturned":3934,"Ġcopy":3935,"46":3936,"Ġpolice":3937,"itch":3938,"ĠĠĠĠĠĠĠĠĠĠĠĠĠĠĠĠĠ":3939,"ĠÃ":3940,"Ġcampaign":3941,"Ġmind":3942,"Sup":3943,"77":3944,"obile":3945,"ĠGerman":3946,"Ġconduct":3947,"ĠTechn":3948,"hing":3949,"ĠBook":3950,"42":3951,"Input":3952,"Ġcenter":3953,"lector":3954,"Ġge":3955,"ĠPaul":3956,"ĠPre":3957,"Ġseem":3958,"fort":3959,"EX":3960,"Ġwoman":3961,"Ġbehav":3962,"lor":3963,"apter":3964,"dir":3965,"Ġoutside":3966,"Ġmoment":3967,"iqu":3968,"HT":3969,"Ġfriend":3970,"null":3971,"Ġquality":3972,"Ġrunning":3973,"Ġcountries":3974,"Ġregular":3975,"irit":3976,"Null":3977,"host":3978,"Ġteams":3979,"Ġexpress":3980,"query":3981,"asons":3982,"Ġtypes":3983,"rypt":3984,"Block":3985,"nor":3986,"Ġgirl":3987,"gorith":3988,"ATE":3989,"ares":3990,"fty":3991,"Ð½":3992,"stream":3993,"Ġinit":3994,"server":3995,"Ġtravel":3996,"TY":3997,"Ġusers":3998,"Ġitself":3999,"Ġbox":4000,"ĠSub":4001,"Ġball":4002,"Ġbad":4003,"ĠGod":4004,"Options":4005,"Ġdouble":4006,"erve":4007,"php":4008,"UE":4009,"Ġplaying":4010,"istance":4011,"Ġdise":4012,"Ġwords":4013,"Ġhor":4014,"Ġcatch":4015,"ĠDiv":4016,"ios":4017,"Ġmethods":4018,"Ġelements":4019,"Delta":4020,"Ġrev":4021,"eal":4022,"cel":4023,"ĠRober":4024,"Ġsus":4025,"anger":4026,"raphics":4027,"very":4028,"}$.":4029,"NS":4030,"ĠBest":4031,"Ġmag":4032,"bon":4033,"ĠRiver":4034,"Ġautom":4035,"Base":4036,"Ġtelev":4037,"eqref":4038,"Ġdifficult":4039,"ĠDan":4040,"UL":4041,"berg":4042,"encies":4043,"ĠThom":4044,"ĠCourt":4045,"Ġlimit":4046,"Ġprotected":4047,"Ġfrequ":4048,"Ġreve":4049,"ĠYear":4050,"eck":4051,"85":4052,"Ġliving":4053,"Ġunique":4054,"}$,":4055,"soft":4056,"Ġgoal":4057,"enced":4058,"level":4059,"ĠChampionship":4060,"omega":4061,"Ġwriting":4062,"Act":4063,"args":4064,"|\\":4065,"RA":4066,"known":4067,"Ġwrite":4068,"eqn":4069,"lymp":4070,"Ġstage":4071,"Ġnormal":4072,"Ġsym":4073,"Acc":4074,"Ġsaf":4075,"yles":4076,"ston":4077,"Ġdam":4078,"Ġdeveloped":4079,"Ġexecut":4080,"ĠPublic":4081,"ĠGreen":4082,"ĠMet":4083,"ĠArch":4084,"Ġhimself":4085,"uz":4086,"Ġupon":4087,"Pos":4088,"Ġrock":4089,"ĠRich":4090,"ĠBel":4091,"room":4092,"ĠReturn":4093,"erc":4094,"Ġmoved":4095,"II":4096,"lood":4097,"Line":4098,"Ġcolumn":4099,"Ġemer":4100,"Ã¼":4101,"ming":4102,"ĠĠĠĠĠĠĠĠĠĠĠĠĠĠĠĠĠĠĠĠĠĠĠĠĠĠĠĠĠĠĠ":4103,"ĠJack":4104,"Ġdeep":4105,"infty":4106,"ĠMart":4107,"Ġhot":4108,"Ġhit":4109,"Oper":4110,"ufact":4111,"ĠCap":4112,"Ġproduced":4113,"Ġcoming":4114,"ensity":4115,"Ġconcern":4116,"olic":4117,"Run":4118,"ĠTex":4119,"rian":4120,"ĠRead":4121,"CK":4122,"Ġquant":4123,"ĠEv":4124,"Ġscreen":4125,"Part":4126,"Ġlocation":4127,"rief":4128,"Ġtreatment":4129,"Ġgrowth":4130,"lier":4131,"Ġcapt":4132,"Equal":4133,"ĠUs":4134,"Ġnatural":4135,"That":4136,"Ġnorth":4137,"ĠAssociation":4138,"ala":4139,"imately":4140,"Resource":4141,"ĠSome":4142,"Ġtemper":4143,"ĠInstitute":4144,"Handler":4145,"Ġspect":4146,"Ġitem":4147,"Ġsimple":4148,"Ġdraw":4149,"ributes":4150,"loat":4151,"tilde":4152,"Ġactive":4153,"ully":4154,"Ġsem":4155,"=\"../":4156,"Ġclient":4157,"kr":4158,"Ġboolean":4159,"resh":4160,"non":4161,"Ġcomment":4162,"aily":4163,"oz":4164,"target":4165,"Ġdiscover":4166,"idden":4167,"ÑĢ":4168,"antic":4169,"Start":4170,"aled":4171,"aughter":4172,"ĠAward":4173,"ka":4174,"lib":4175,"''":4176,"Ġmilitary":4177,"adata":4178,"ĠData":4179,"Ġfinancial":4180,"ĠService":4181,"Ġtelevision":4182,"Ġir":4183,"Ġ\"\"\"":4184,"Ġdecision":4185,"97":4186,"rated":4187,"FI":4188,"ĠHall":4189,"idents":4190,"ĠFound":4191,"ĠWashington":4192,"ĠSeries":4193,"flow":4194,"ĠWhile":4195,"ros":4196,"({":4197,"ĠAnn":4198,"Ġdetails":4199,"Ġ->":4200,"Ġcharacters":4201,"Ġveh":4202,"Ġsil":4203,"ategy":4204,"Ġstay":4205,"Ġrace":4206,"ĠSing":4207,"ervices":4208,"Attribute":4209,"height":4210,"mm":4211,"ĠPost":4212,"cing":4213,"Content":4214,"adding":4215,"Ġparameters":4216,"Ġstudies":4217,")(":4218,"cret":4219,"ani":4220,"Ġmatter":4221,"tx":4222,"vest":4223,"Ġpositive":4224,"Ġeval":4225,"Ġdrop":4226,"Style":4227,"Ġbelieve":4228,"Ġdirector":4229,"Ġ+=":4230,"Ġlevels":4231,"ĠParty":4232,"Ġwhose":4233,"uate":4234,"Ġthroughout":4235,"sych":4236,"ĉĊ":4237,"Char":4238,"ĠReview":4239,"68":4240,"gener":4241,"Ġsoon":4242,"Ġjo":4243,"Ġboard":4244,"Ġdesigned":4245,"ĠChurch":4246,"Ġmodern":4247,"arser":4248,"apping":4249,"Ġlearning":4250,"ialog":4251,"ying":4252,"Ġwor":4253,"BA":4254,"ĠOF":4255,"Ġeffects":4256,"Ġupd":4257,"ebug":4258,"){":4259,"ocket":4260,"$$":4261,"button":4262,"ĠOur":4263,"ptr":4264,"Ġlonger":4265,"Ġupdate":4266,"izes":4267,"Ġconstruct":4268,"ĠInc":4269,"Ġproperties":4270,"ulate":4271,"ĠThen":4272,"Ġwrote":4273,"ĠSl":4274,"ugin":4275,"Ġasked":4276,"Ġidea":4277,"Ġandroid":4278,"Dr":4279,"illing":4280,"cm":4281,"Ġreach":4282,"DO":4283,"TO":4284,"idget":4285,"band":4286,"agon":4287,"Ġten":4288,"Ġenjoy":4289,"Ġsaw":4290,"char":4291,"uge":4292,"pri":4293,"mar":4294,"oding":4295,"Ġang":4296,"ĠCE":4297,"post":4298,"Point":4299,"Ġlines":4300,"iant":4301,"append":4302,")</":4303,"Ġheight":4304,"Ġpain":4305,"Ġresource":4306,"Us":4307,"Ġcandid":4308,"Ġdepart":4309,"Ġthrows":4310,"ĠAre":4311,"isf":4312,"Ġadministr":4313,"ĠJer":4314,"<!--":4315,"ĠScience":4316,"Ġinternal":4317,"rial":4318,"Ġess":4319,"Ġtim":4320,"Ġinvolved":4321,"Ġq":4322,"Ġforce":4323,"Ġprevent":4324,"Ġprogress":4325,"ĠMusic":4326,"Ġprofessional":4327,"ĠVol":4328,"itar":4329,"Ġdistribution":4330,"Ġsouth":4331,"Ġpack":4332,"py":4333,"Factory":4334,"ĠBen":4335,"ĠObject":4336,"So":4337,"ĠMac":4338,"ĠFrance":4339,"ĠDemocr":4340,"41":4341,"win":4342,"Ġbre":4343,"rought":4344,"Ġacqu":4345,"can":4346,"ĠID":4347,"Ġwait":4348,"edd":4349,"stract":4350,"Ġansw":4351,"ĠQue":4352,"98":4353,"58":4354,"Ġgre":4355,"ĠWhite":4356,"Component":4357,"Ġdevice":4358,"ona":4359,"Next":4360,"Ġrecomm":4361,"Ġmother":4362,"Ġjud":4363,"ena":4364,"Buffer":4365,"1999":4366,"Ġsoftware":4367,"Ġuses":4368,"Ġminutes":4369,"ĠPress":4370,"first":4371,"uns":4372,"ĠMat":4373,"ĠLeg":4374,"Ġevidence":4375,"ĠAngel":4376,"het":4377,"Ġsolution":4378,"Ġdim":4379,"capt":4380,"Ġcourt":4381,"lock":4382,"Function":4383,"\\,":4384,"Ġnames":4385,"57":4386,"ander":4387,"hi":4388,"Ġchalleng":4389,"Link":4390,"han":4391,"inese":4392,"rael":4393,"43":4394,"adian":4395,"ĠFranc":4396,"ypes":4397,"quare":4398,"ĠNow":4399,"Ġapprox":4400,"la":4401,"display":4402,"inate":4403,"Ġimmedi":4404,"outhern":4405,"ĠGeorge":4406,"och":4407,"EL":4408,"ĠFin":4409,"acter":4410,"ĠYour":4411,"arily":4412,"Prov":4413,"ilies":4414,"rowser":4415,"Ġqual":4416,"Ġbooks":4417,"Ġcontains":4418,"ĠMag":4419,"Ġeverything":4420,"Ġallowed":4421,"rl":4422,"Ġword":4423,"aught":4424,"irus":4425,"Ġdemon":4426,"ĠAfrica":4427,"ĠĠĠĠĠĠĠĠĠĠĠĠĠĠ":4428,"Gr":4429,"Default":4430,"ĠCong":4431,"Ġparameter":4432,"Ġwindow":4433,"ental":4434,"Ġsense":4435,"rupt":4436,"izations":4437,"Ġproblems":4438,"Ġdigital":4439,"ĠMichael":4440,"Nav":4441,"open":4442,"header":4443,"Ġnothing":4444,"Action":4445,"olve":4446,"Ġparts":4447,"ĠSam":4448,"Ġstar":4449,"just":4450,"ĠDel":4451,"Label":4452,"ĠRef":4453,"anged":4454,"ini":4455,"Ġfollows":4456,"Ġanything":4457,"Med":4458,"ĠCompany":4459,"Version":4460,"mercial":4461,"She":4462,"Check":4463,"force":4464,"Ġpark":4465,"estival":4466,"Ġtransfer":4467,"ĠTexas":4468,"achine":4469,"PC":4470,"Post":4471,"ocal":4472,"ĠRoad":4473,"Ġreading":4474,"icial":4475,"First":4476,"Ġcast":4477,"eds":4478,"strong":4479,"ternet":4480,"Ġoperation":4481,"True":4482,"Ġplant":4483,"Ġcondition":4484,"ias":4485,"ĠCam":4486,"btn":4487,"VER":4488,"Ġrecently":4489,"Ġthemselves":4490,"si":4491,"olf":4492,"Ġculture":4493,"ĠGoogle":4494,"Ġ{@":4495,"Ġvillage":4496,"Ġbeaut":4497,"ĠLou":4498,"json":4499,"ĠDec":4500,"Ġcelebr":4501,"Ġship":4502,"aud":4503,"ĠOver":4504,"Per":4505,"sey":4506,"Ġprobably":4507,"*/":4508,"Ġpurch":4509,"[\"":4510,"Ġlegal":4511,"Ġfun":4512,"Ġisn":4513,"miss":4514,"Ġtrying":4515,"ĠOpen":4516,"Ġquite":4517,"cons":4518,"Ġdeliver":4519,"Ġfunctions":4520,"Ġneigh":4521,"Ġpromot":4522,"Hel":4523,"endif":4524,"uid":4525,"Ġexact":4526,"Ġunit":4527,"ulture":4528,"urt":4529,"Ġfast":4530,"ĠčĊ":4531,"Ġmechan":4532,"ario":4533,"ĠMem":4534,"Ġconv":4535,"iece":4536,"ĠProgram":4537,"ĠHam":4538,"orem":4539,"Equals":4540,"inst":4541,"Ġsn":4542,"UM":4543,"Ġchanged":4544,"push":4545,"Ġscale":4546,"Ġseems":4547,"iding":4548,"Ġmagn":4549,"Ġwanted":4550,"gn":4551,"rd":4552,"ĠMary":4553,"ania":4554,"Ġflow":4555,"~~":4556,"enge":4557,"Ġinside":4558,"ipal":4559,"ensions":4560,"Ġgave":4561,"alls":4562,"Ġsomeone":4563,"Ġcompared":4564,"finished":4565,"imated":4566,"inding":4567,"Ġdirectly":4568,"more":4569,"Ġways":4570,"56":4571,"Ġselected":4572,"Ġhope":4573,"Ġmale":4574,"ĠSy":4575,"ĠMont":4576,"ĠTom":4577,"Ġweb":4578,"Ġweeks":4579,"App":4580,"isions":4581,"jav":4582,"Ġnovel":4583,"Ġmus":4584,"1990":4585,"96":4586,"zer":4587,"Ġfriends":4588,"ducation":4589,"eger":4590,"pack":4591,"Ġmaintain":4592,"Ġpartners":4593,"Ġgas":4594,"reek":4595,"Child":4596,"ĠGold":4597,"}}\\":4598,"write":4599,"Ġmention":4600,"ci":4601,"mitted":4602,"Ġmulti":4603,"TP":4604,"Web":4605,"Ġmedical":4606,"Ġsurface":4607,"ĠTime":4608,"po":4609,"REF":4610,"Ġeasy":4611,"Ġtowards":4612,"Ġconnection":4613,"ĠRem":4614,"last":4615,"ua":4616,"Ġthreat":4617,"oma":4618,"Ġformat":4619,"Ġprec":4620,"///":4621,"ĠMus":4622,"Ġdepend":4623,"Ġvers":4624,"icted":4625,"ĠAlex":4626,"Back":4627,"xml":4628,"psi":4629,"Ġresources":4630,"Ġcharg":4631,"ki":4632,"Ġcause":4633,"Ġschools":4634,"ria":4635,"Ñģ":4636,"ĠSal":4637,"ĠNone":4638,"Task":4639,"igger":4640,"ĠTHE":4641,"bert":4642,"Rep":4643,"Ġpractice":4644,"Ġlatest":4645,"Number":4646,"Ġjoin":4647,"'m":4648,"Can":4649,"property":4650,"Ġinterview":4651,"Ġprimary":4652,"Ġlives":4653,"Ġshall":4654,"Ġnumer":4655,"Ġcontinued":4656,"hest":4657,"Page":4658,"Ġconstant":4659,"Ġoperations":4660,"CL":4661,"Ġstore":4662,"Ġconnect":4663,"Ġallows":4664,"Ġpattern":4665,"ĠBay":4666,"Ġcontr":4667,"Mem":4668,"tty":4669,"Ġwife":4670,"}[":4671,"Ġsurv":4672,"Ġprice":4673,"Ġincreased":4674,"Ġcompl":4675,"Ġdead":4676,"Ġvirtual":4677,"icrosoft":4678,"Ġappoint":4679,"ĠGermany":4680,"fit":4681,"Ġavoid":4682,"ĠAcad":4683,"Ġexcept":4684,"ĠTrump":4685,"Ġinf":4686,"grad":4687,"foot":4688,"evelopment":4689,"LASS":4690,"Desc":4691,"Ext":4692,"Ġfields":4693,"nected":4694,"status":4695,"Ġste":4696,"rong":4697,"long":4698,"Ġstudio":4699,"Ġoffers":4700,"ĠRob":4701,"Ġregister":4702,"dep":4703,"Ġperformed":4704,"ĠOlymp":4705,"Ġmovie":4706,"Ġhous":4707,"Ġdrug":4708,"ĠBusiness":4709,"ifying":4710,"TER":4711,"ancy":4712,"cdot":4713,"module":4714,"Ġcoach":4715,"Ġvert":4716,"Ġinvestig":4717,"Ġvacc":4718,"Ġtransform":4719,"Ge":4720,"ba":4721,"Ġexpand":4722,"iller":4723,"abs":4724,"icture":4725,"Ġquestions":4726,"Ġusually":4727,"erved":4728,"1998":4729,"Ġlargest":4730,"ĠIS":4731,"Ð¾Ð":4732,"ĠMiss":4733,"GL":4734,"ĠMount":4735,"Ġprotect":4736,"Ġcontinu":4737,"Ġreli":4738,"Ġtransport":4739,"ĠSociety":4740,"Ġscient":4741,"akers":4742,"iring":4743,"Ġreference":4744,"Ġeveryone":4745,"Ġmodule":4746,"itude":4747,"ABLE":4748,"pat":4749,"draw":4750,"ĠIsland":4751,"Ġlack":4752,"ĠJournal":4753,"ĠVir":4754,"Ġestablish":4755,"Ġensure":4756,"local":4757,"ĠAtt":4758,"ĠClub":4759,"ĠEX":4760,"ously":4761,"Ġfollowed":4762,"Last":4763,"Mar":4764,"CP":4765,"det":4766,"ĠMex":4767,"za":4768,"Ġmanufact":4769,"ĠFore":4770,"IO":4771,"Ġentry":4772,"Load":4773,"Ġdegree":4774,"ein":4775,"inner":4776,"pp":4777,"ĠMad":4778,"59":4779,"find":4780,"Ġcompleted":4781,"Ġspecified":4782,"ĠĠĠĠĠĠĠĠĊ":4783,"Ġsett":4784,"History":4785,"verse":4786,"eqnarray":4787,"Ġpassed":4788,"sg":4789,"Ã¶":4790,"ĠSee":4791,"People":4792,"reement":4793,"Ġconstruction":4794,"Ġaw":4795,"Ġeight":4796,"Met":4797,"len":4798,"Ġserver":4799,"Ġnumbers":4800,"Create":4801,"Ġprinc":4802,"Ġ((":4803,"mas":4804,"});":4805,"Ġsort":4806,"Ġdemonstr":4807,"Do":4808,"Ġtheory":4809,"Ġactivities":4810,"Ġcentral":4811,"Ġquarter":4812,"ĠForm":4813,"'ve":4814,"Ġsimply":4815,"Ġcorrect":4816,"png":4817,"CD":4818,"Ġrestr":4819,"cy":4820,"Ġaim":4821,"My":4822,"Ġdebut":4823,"asket":4824,"AA":4825,"Ġassum":4826,"ĠGreat":4827,"ipp":4828,"ĠUnion":4829,"eve":4830,"Ġ]":4831,"Ġrow":4832,"ano":4833,"dl":4834,"Ġfavor":4835,"Ġincreasing":4836,"Ġstudent":4837,"prove":4838,"stant":4839,"Ġstories":4840,"ribe":4841,"Top":4842,"Filter":4843,"iger":4844,"caption":4845,"Ġknowledge":4846,"Ġmeeting":4847,"mult":4848,"Ġmode":4849,"elete":4850,"ĠRussian":4851,"Ġsen":4852,"onder":4853,"Ġcapital":4854,"agram":4855,"Ġinsp":4856,"attr":4857,"Ġdeaths":4858,"ncy":4859,"Ġlimited":4860,"////////////////":4861,"ĠRE":4862,"Ġnor":4863,"ĠEnd":4864,"ĠArmy":4865,"Ġscience":4866,"78":4867,"allet":4868,"Ġsports":4869,"term":4870,"Spec":4871,"Ġgraph":4872,"Ġreturns":4873,"Ġopened":4874,"Ġbank":4875,"Ġmis":4876,"Ġmargin":4877,"ĠSur":4878,"Ġarchitect":4879,"ramework":4880,"under":4881,"edy":4882,"Ġstarting":4883,"cit":4884,"Ġgives":4885,"Ġextends":4886,"exp":4887,"Ġability":4888,"Le":4889,"unfinished":4890,"Ġcard":4891,"\"]":4892,"icket":4893,"ĠLet":4894,"mega":4895,"Ġalthough":4896,"ĠHere":4897,"Ġrandom":4898,"Ġdeb":4899,"Ġreceive":4900,"Ġjournal":4901,"_.":4902,"Ġcollect":4903,"src":4904,"Ġcook":4905,"ĠSmith":4906,"epsilon":4907,"Ġthus":4908,"PS":4909,"sole":4910,"Ġeconomic":4911,"Ġvs":4912,"Ġnecessary":4913,"ici":4914,"ĠProv":4915,"andemic":4916,"otal":4917,"bottom":4918,"RI":4919,"ĠCarol":4920,"Ġsupported":4921,"FL":4922,"ĠRad":4923,"Ġearlier":4924,"spec":4925,"private":4926,"\").":4927,"Ġprep":4928,"Ġaltern":4929,"uit":4930,"Ġweight":4931,"BS":4932,")$.":4933,"Ġseek":4934,"Ġmount":4935,"Ġdisease":4936,"Ġurl":4937,"TS":4938,"FONT":4939,"Ġrank":4940,"Ġcam":4941,"Ġprojects":4942,"Ġconcept":4943,"mem":4944,"pol":4945,"Ġdoc":4946,"Ġeffective":4947,"Ġstatement":4948,"alian":4949,"Ġjoined":4950,"aling":4951,"Ġmarried":4952,"Ġplaces":4953,"ĠFlor":4954,"cover":4955,"format":4956,"Ġrat":4957,"Ġcollabor":4958,"51":4959,"NO":4960,"ustain":4961,"Ġactivity":4962,"pass":4963,"Ġrules":4964,"Ġleave":4965,"porary":4966,"service":4967,"Ġextra":4968,"atively":4969,"ĠChinese":4970,"Ġphysical":4971,"ĠSuper":4972,"Ġbrand":4973,"Co":4974,"font":4975,"obj":4976,"ĠĠĠĠĠĠĠĠĠĠĠĠĊ":4977,"Ġnone":4978,"istan":4979,"well":4980,"refix":4981,"Ġnav":4982,"Ġsolid":4983,"Let":4984,"BU":4985,"Ġbuff":4986,"isation":4987,"ĠLife":4988,"\"),":4989,"Ġnature":4990,"${":4991,"Ġdark":4992,"ĠDet":4993,"gorithm":4994,"Ġhum":4995,"ĠKe":4996,"52":4997,"Format":4998,"Ġfa":4999,"ĠCentral":5000,"igr":5001,"Aut":5002,"fully":5003,"ĠPlay":5004,"Ġprop":5005,"oms":5006,"Ġfinally":5007,"sqrt":5008,"overs":5009,"ĠSund":5010,"ensor":5011,"Ġfiles":5012,"atas":5013,"CON":5014,"gg":5015,"(&":5016,"HO":5017,"SON":5018,"300":5019,"Ġclin":5020,"Ġseven":5021,"ĠHistory":5022,"54":5023,".;":5024,"ĠBig":5025,"Ġselect":5026,"86":5027,"Return":5028,"Ġsigned":5029,"Ġsongs":5030,"Ġindependent":5031,"Ġdynam":5032,"acebook":5033,"Ġclosed":5034,"FO":5035,"Ġbrought":5036,"Ġorganization":5037,"std":5038,"Ġroot":5039,"Ġassess":5040,"ttp":5041,"ĠAv":5042,"cos":5043,"ĠRoman":5044,"ĠCamp":5045,"final":5046,"Ġscen":5047,"symbol":5048,"Ġstri":5049,"Ġexpression":5050,"Ġimages":5051,"iginal":5052,"Eng":5053,"pc":5054,"img":5055,"Ġsatisf":5056,"Ġplans":5057,"ĠHel":5058,"Ġobtained":5059,"ĠBoard":5060,"Ġcompar":5061,"icate":5062,"ĠRel":5063,"select":5064,"Ġperfect":5065,"}_{\\":5066,"FC":5067,"Ġhy":5068,"ATION":5069,"azine":5070,"Ġgets":5071,"Ġsafety":5072,"essages":5073,"ifact":5074,"Ġmicro":5075,"container":5076,"atre":5077,"Command":5078,"Ġlarger":5079,"Ġtrade":5080,"UI":5081,"Ġfamilies":5082,"hent":5083,"menu":5084,"iler":5085,"Ġfailed":5086,"Collection":5087,"Ġetc":5088,"plicit":5089,"Ġstreng":5090,"Ġworth":5091,"Ġdram":5092,"ĠUkr":5093,"ĠCommission":5094,"efined":5095,"ĠIsrael":5096,"ĠOther":5097,"reme":5098,"SI":5099,"Ġanaly":5100,"Ġauto":5101,"Rem":5102,"Ġrelig":5103,">>":5104,"Ġtree":5105,"burg":5106,"1997":5107,"ĠDirector":5108,"Ġbirth":5109,"1996":5110,"ĠRobert":5111,"ved":5112,"Ġcells":5113,"Ġsetting":5114,"ĠScott":5115,"icks":5116,"mt":5117,"Ġow":5118,"prototype":5119,"Tag":5120,"Ġmeaning":5121,"ether":5122,"Ġremain":5123,"Ġpresented":5124,"Ġgoes":5125,"anish":5126,"navbar":5127,"Ġexisting":5128,"Ġprograms":5129,"icine":5130,"ĠChristian":5131,"arp":5132,"Ġproposed":5133,"Ġequip":5134,"plies":5135,"ĠSince":5136,"ĠMuseum":5137,"Me":5138,"Ġclean":5139,"Sec":5140,"Ġsets":5141,"Ġpreviously":5142,"itation":5143,"Ġexhib":5144,"Ġchurch":5145,"Ġspeed":5146,"Offset":5147,"bm":5148,"Ġattention":5149,"Ġparents":5150,"Work":5151,"ĠRoyal":5152,"Ġdifference":5153,"ĠTor":5154,"ĠGrand":5155,"description":5156,"ronic":5157,"aints":5158,"Ġcallback":5159,"ĠOb":5160,"Ġwriter":5161,"ĠThomas":5162,"TI":5163,"DA":5164,"UP":5165,"cr":5166,"vention":5167,"Ġwide":5168,"Ġ;":5169,"ĠBi":5170,"bour":5171,"uated":5172,"Ġgold":5173,"Length":5174,"Par":5175,"Go":5176,"iled":5177,"Ġshot":5178,"ĠAfrican":5179,"dim":5180,"number":5181,"76":5182,"ellig":5183,"ĠGames":5184,"1980":5185,"Ġbeginning":5186,"ighest":5187,"iverse":5188,"Ġradio":5189,"Ġmemory":5190,"ĠAut":5191,"Ġsaying":5192,"^*":5193,"filter":5194,"PO":5195,"Vis":5196,"ĠHill":5197,"ĠRussia":5198,"textbf":5199,"Ġhol":5200,"ĠTur":5201,"unit":5202,"Ġbuy":5203,"53":5204,"Ġopportunity":5205,"chi":5206,"Ġappeared":5207,"clusion":5208,"Ġsomet":5209,"house":5210,"Ġinterface":5211,"ĠMinister":5212,"osph":5213,"ĠStar":5214,"anned":5215,"road":5216,"igen":5217,"URL":5218,"ĠJew":5219,"ĠAustralian":5220,"'ll":5221,"close":5222,"ictor":5223,"Ġsend":5224,"Big":5225,"response":5226,"icated":5227,"ĠBill":5228,"Ġprem":5229,"gu":5230,"ĠTre":5231,"ĠTown":5232,"Ġ!==":5233,"ned":5234,"ĠDivision":5235,"project":5236,"Ġbus":5237,"Ġremains":5238,"ĠEconom":5239,"Sy":5240,"ĠDuring":5241,"icago":5242,"anta":5243,"ĠLog":5244,"subsection":5245,"Ġtag":5246,"Ġshoot":5247,"vant":5248,"ky":5249,"oom":5250,"Ġdemand":5251,"Ġshared":5252,"osh":5253,"Ġsummer":5254,"Address":5255,"Ġepisode":5256,"ĠRock":5257,"output":5258,"Ġdefe":5259,"Ġrail":5260,"ibly":5261,"break":5262,"ĠType":5263,"Ġter":5264,"ĠProject":5265,"osing":5266,"ensus":5267,"Ġgreen":5268,"itiz":5269,"meta":5270,"Ġnote":5271,"Ġclimate":5272,"Ġassist":5273,"Ġemail":5274,"Ġdirection":5275,"astr":5276,"Ġtraditional":5277,"ady":5278,"Ġleader":5279,"ita":5280,"ĠGovernment":5281,"Omega":5282,"cho":5283,"PRO":5284,"Ġoverall":5285,"Ġconsum":5286,"Ġdecided":5287,"Ġcivil":5288,"CR":5289,"ĠFrancis":5290,"expected":5291,"bold":5292,"Ġrecorded":5293,"Ġexam":5294,"Ġaccur":5295,"Ġded":5296,"Ġfoot":5297,"Min":5298,"ĠWil":5299,"ĠCD":5300,"only":5301,"Ġimprove":5302,"Ġitems":5303,"ĠFe":5304,"Output":5305,"ĠOffice":5306,"Ġapply":5307,"isl":5308,"Ġpolitic":5309,"ĠHen":5310,"Ġcustomers":5311,"Ġrespectively":5312,"ĠBuild":5313,"Ġnearly":5314,"entry":5315,"Ġign":5316,"erman":5317,"Ġcritical":5318,"Valid":5319,"Ġmiddle":5320,"Ġscore":5321,"PR":5322,"Ġbur":5323,"anda":5324,"inger":5325,"Ġserious":5326,"Ġquickly":5327,"Ġmix":5328,"rait":5329,"undle":5330,"Ġrecover":5331,"which":5332,"Ġphase":5333,"Ġdaughter":5334,"ĠFrank":5335,"TYPE":5336,"Ġworkers":5337,"ivacy":5338,"ucture":5339,"ao":5340,"ror":5341,"Ġdistance":5342,"ĠBank":5343,"Ġsources":5344,"FT":5345,"ĠFoundation":5346,"ĠEducation":5347,"89":5348,"ĠMer":5349,"gment":5350,"Ġparticularly":5351,"ecause":5352,"Det":5353,"Ġrespond":5354,"Box":5355,"inct":5356,"ĠWomen":5357,"ursday":5358,"Ġkilled":5359,"Ġcomponent":5360,"Ġrob":5361,"Ġintroduced":5362,"ĠOper":5363,"Ġslow":5364,"small":5365,"Ġanti":5366,"process":5367,"79":5368,"ĠCongress":5369,"ĠUnder":5370,"Cache":5371,"ĠMost":5372,"Ġfully":5373,"then":5374,"Ġbasis":5375,"Ġbillion":5376,"Ġsession":5377,"1995":5378,"Ġsurpr":5379,"Ã¤":5380,"Br":5381,"Controller":5382,"ĠTop":5383,"remove":5384,"alle":5385,"ĠMel":5386,"ĠWestern":5387,"num":5388,"main":5389,"Ġrap":5390,"Ġartist":5391,"Ġenter":5392,"Living":5393,"mes":5394,"Ġchannel":5395,"haps":5396,"update":5397,"Mode":5398,"illa":5399,"Ġreports":5400,"Ġfans":5401,"ĠLicense":5402,"!!":5403,"Column":5404,"ĠVirgin":5405,"ĠVer":5406,"Ġexperiment":5407,"Ġactual":5408,"Ġrule":5409,"params":5410,"icens":5411,"Ġlock":5412,"nce":5413,"ERR":5414,"Ġinnov":5415,"Ġselection":5416,"Gamma":5417,"^{(":5418,"Ġtouch":5419,"ancing":5420,"thlet":5421,"Mark":5422,"Ġchoice":5423,"Ġfemale":5424,"Ġord":5425,"lam":5426,"ĠLos":5427,"enty":5428,"Ġremove":5429,"bed":5430,"Dec":5431,"hedul":5432,"El":5433,"Ġcouple":5434,"Ġtransl":5435,"Ġsolutions":5436,"Ġcommunities":5437,"weet":5438,"Ġcommercial":5439,"shire":5440,"Ġfilter":5441,"Ġturned":5442,"rs":5443,"cor":5444,"Ġmovement":5445,"ĠJose":5446,"igan":5447,"Ġ``":5448,"ĠHT":5449,"circ":5450,"ologies":5451,"psilon":5452,"sche":5453,"osis":5454,"asketball":5455,"PA":5456,"leep":5457,"iful":5458,"Ġhandle":5459,"ĠLong":5460,"iance":5461,"Ġpandemic":5462,"Ġobjects":5463,"mical":5464,"}=":5465,"rangle":5466,"Ġpen":5467,"ĠLake":5468,"ĠTimes":5469,"ĠFlorida":5470,"orial":5471,"NE":5472,"').":5473,"Ġnom":5474,"Ġbey":5475,"Ġfair":5476,"ĠServices":5477,"anges":5478,"Ġfarm":5479,"ql":5480,"Ġartists":5481,"unities":5482,"ĠDev":5483,")$,":5484,"ednes":5485,"ĠCommittee":5486,"ĠDE":5487,"Ġspent":5488,"oday":5489,"usion":5490,"Ġ${\\":5491,"aming":5492,"Ġpull":5493,"ĠMo":5494,"onic":5495,"ĠPlan":5496,"87":5497,"400":5498,"tag":5499,"den":5500,"Ġbeyond":5501,"âĢĺ":5502,"Ġrepe":5503,"older":5504,"âĢĿ.":5505,"INE":5506,"SA":5507,"ERT":5508,"Ġruns":5509,"kit":5510,"Ġhighly":5511,"ĠSocial":5512,"Ġtit":5513,"Ġindividuals":5514,"ĠUSA":5515,"author":5516,"instance":5517,"Ġwrong":5518,"Fe":5519,"ĠST":5520,"Listener":5521,"Ġbal":5522,"Ġsituation":5523,"Case":5524,"Ġ[]":5525,"Ġfeed":5526,"atin":5527,"Ġcollege":5528,"ette":5529,"ascript":5530,"Ġlaunch":5531,"ĠJapanese":5532,"ĠGen":5533,"1994":5534,"Ġdrive":5535,"rey":5536,"BO":5537,"Ġeditor":5538,"iform":5539,"venue":5540,"Ġgrand":5541,"aa":5542,"Ġequal":5543,"ĠKore":5544,"files":5545,"liament":5546,"69":5547,"Max":5548,"Ġsometimes":5549,"Ġsecret":5550,"Ġuns":5551,"ester":5552,"arks":5553,"ĠCanadian":5554,"Ġsal":5555,"ĠHREF":5556,"ora":5557,"Ġforces":5558,"ĠâĢ¦":5559,"Access":5560,"ulf":5561,"ĠFriday":5562,"uly":5563,"Ġgreater":5564,"vare":5565,"Ġhospital":5566,"1970":5567,"Ġfit":5568,"Ġhands":5569,"Ġapplications":5570,"ĠLouis":5571,"dec":5572,"Ġunits":5573,"More":5574,"Ġquery":5575,"Ġtemperature":5576,"riz":5577,"unched":5578,"reland":5579,"Ġesc":5580,"ĠDevelopment":5581,"ella":5582,"onday":5583,"ĠChild":5584,"west":5585,"Ġvoice":5586,"ednesday":5587,"Url":5588,"ictions":5589,"Ġmur":5590,"ĠTwitter":5591,"ART":5592,"Ġhighest":5593,"even":5594,"orph":5595,"ls":5596,"Ġbehavior":5597,"Ġsales":5598,"ĠEngine":5599,"yan":5600,"Ġdescription":5601,"gate":5602,"care":5603,"Ġfont":5604,"ĠMedia":5605,"aturday":5606,"Port":5607,"Ġutil":5608,"MD":5609,"Ġthr":5610,"Ġinteresting":5611,"Ġmanager":5612,"Ġhar":5613,"annot":5614,"ĠCLASS":5615,"Ġgrant":5616,"MO":5617,"ĠGood":5618,"Ġfelt":5619,"ĠPeople":5620,"onom":5621,"ĠHome":5622,"ĠSil":5623,"itable":5624,"ĠFacebook":5625,"ĠPeter":5626,"tool":5627,"Bo":5628,"Ġones":5629,"Men":5630,"Ġcoord":5631,"scale":5632,"Ġanyone":5633,"Ġobj":5634,"erry":5635,"Server":5636,"Ġpretty":5637,"Provider":5638,"Sche":5639,"Ġwild":5640,"Ġfinished":5641,"Rel":5642,"azz":5643,"gest":5644,"Ġexception":5645,"Ġlif":5646,"yth":5647,"Ġroll":5648,"Ġproviding":5649,"}^{\\":5650,"Row":5651,"ĠSunday":5652,"DI":5653,"Ġvariety":5654,"ocation":5655,"Ġreached":5656,"Ġsymbol":5657,"ãģ":5658,"ĠMass":5659,"ola":5660,"Ġple":5661,"itors":5662,"Ġscene":5663,"uint":5664,"72":5665,"Ġgiving":5666,"<?":5667,"Ġrecords":5668,"Ġopening":5669,"KE":5670,"Button":5671,"Ġobserved":5672,"show":5673,"clos":5674,"Ġelectric":5675,"else":5676,"Ġhop":5677,"returns":5678,"Ġinform":5679,"Update":5680,"ounce":5681,"Sl":5682,"Ġcop":5683,"ecution":5684,"++)":5685,"weight":5686,"ĠHead":5687,"duction":5688,"Pat":5689,"Ġ(\"":5690,"ĠTour":5691,"Our":5692,"ORT":5693,"itory":5694,"Ġmatrix":5695,"pers":5696,"track":5697,"mazon":5698,"Ġbeg":5699,"ĠAngeles":5700,"ĠZeal":5701,"Ġspread":5702,"?âĢĿ":5703,"Ġbecomes":5704,"Ġencour":5705,"Ġmaximum":5706,"flict":5707,"ĠProfess":5708,"undred":5709,"gent":5710,"ported":5711,"pret":5712,"ĠCath":5713,"bur":5714,"Ġblood":5715,"Ġmissing":5716,"Entry":5717,"Ġzero":5718,")=":5719,"1992":5720,"ooth":5721,"Dev":5722,"AV":5723,"ĠTeam":5724,"rier":5725,"Ġshowed":5726,"sets":5727,"related":5728,"Types":5729,"Ġsave":5730,"task":5731,"iminal":5732,"ĠTim":5733,"ĠĠĠĠĠĠĠĠĠĠĠĠĠĠĠĠĠĠĠĠĠĠĠĠĠĠĠĠĠĠĠĠĠĠĠ":5734,"Ġfirm":5735,"********************************":5736,"Ġfactor":5737,"ĠFile":5738,"Ġoil":5739,"Ob":5740,"Ġproper":5741,"Ġlen":5742,"Enc":5743,"Ġcosts":5744,"Ġpair":5745,"ĉĉĉĉĉĉĉĉ":5746,"Ġanc":5747,"Container":5748,"ĠBrown":5749,".}":5750,"Ġfederal":5751,"ĠNetwork":5752,"ydro":5753,"Width":5754,"Ġtherefore":5755,")]":5756,"Ġcompetition":5757,"eft":5758,"ĠFinal":5759,"ervation":5760,"(_":5761,"Ġdefine":5762,"Ġoperator":5763,"Ġedge":5764,"ĠZealand":5765,"Ġleague":5766,"Ġdou":5767,"Ġessential":5768,"ĠAcademy":5769,"Ġpressure":5770,"ĠAccording":5771,"ĠCheck":5772,"ĉĠĠĠ":5773,"Ġgrowing":5774,"GB":5775,"spect":5776,"Ġframe":5777,"ĠBur":5778,"Ġotherwise":5779,"cap":5780,"Ġsample":5781,"Home":5782,"Sim":5783,"ogg":5784,"ĠFig":5785,"heet":5786,"ĠRichard":5787,"isher":5788,"Ġsch":5789,"Ġtrust":5790,"Ġcalls":5791,"free":5792,"NAME":5793,"Ġ\\,":5794,"ĠBre":5795,"column":5796,"Ġefforts":5797,"ĠSpr":5798,"Ġmoving":5799,"Ġuint":5800,"DB":5801,"greg":5802,"ĠTwo":5803,"CS":5804,"63":5805,"layout":5806,"Ġadapt":5807,"ĠChicago":5808,"Target":5809,"apers":5810,"ĠAtl":5811,"Ġmission":5812,"Ġque":5813,"ĠLand":5814,"udget":5815,"ĠIll":5816,"ĠVis":5817,"riend":5818,"urance":5819,"ĠAPI":5820,"Ġcounter":5821,"abilities":5822,"osen":5823,"ĠÎ":5824,"Ġnation":5825,"ĠFilm":5826,"ĠShow":5827,"Ġempty":5828,"Ġcert":5829,"ults":5830,"Ġcontain":5831,"Ġvolume":5832,"inder":5833,"orter":5834,"adow":5835,"Ġimmediately":5836,"Ġannual":5837,"opyright":5838,"Ġtesting":5839,"ĠThursday":5840,"Ġsafe":5841,"aver":5842,"Ġpoor":5843,"1993":5844,"ALL":5845,"Ġpm":5846,"Ġwasn":5847,"COL":5848,"ĠAND":5849,"Ġcancer":5850,"Ġiniti":5851,"arts":5852,"ien":5853,"Ġswitch":5854,"hr":5855,"ĠSol":5856,"Ġcreating":5857,"Ġformed":5858,"RL":5859,"Parameter":5860,"ĠNOT":5861,"site":5862,"Ġstrateg":5863,"hens":5864,"ĠCharles":5865,"While":5866,"Don":5867,"Ġnet":5868,"Ġgoals":5869,"Ġvote":5870,"Ġmaster":5871,"Ġdensity":5872,"MM":5873,"ests":5874,"ĠOp":5875,"Ġlooks":5876,"ĠStep":5877,"asy":5878,"Ġsurround":5879,"ĠâĢ¢":5880,"eler":5881,"ĠSE":5882,"Ġplease":5883,"Ġcomputer":5884,"scope":5885,"ĠManagement":5886,"common":5887,"DF":5888,"TV":5889,"ĠPM":5890,"abit":5891,"Ġremember":5892,"ato":5893,"ĠArts":5894,"Ġauth":5895,"emph":5896,"Configuration":5897,"Ġmut":5898,"Ġtransition":5899,"offset":5900,"Ġabsol":5901,"itz":5902,"Ġ<!--":5903,"plete":5904,"afe":5905,"Ġappropri":5906,"Ġsites":5907,"ĠMil":5908,"Ġcarry":5909,"Ġpresence":5910,"ournament":5911,"Ġpurpose":5912,"84":5913,"Ġcompletely":5914,"Ġready":5915,"rightarrow":5916,"Ġappears":5917,"Ġcharge":5918,"Ġforms":5919,"Ġargs":5920,"Ġpoll":5921,"Ġapplied":5922,":\"":5923,"alysis":5924,"ĠKingdom":5925,"91":5926,"```":5927,"rome":5928,"Ġ~":5929,"acement":5930,"Ġaffect":5931,"otic":5932,"Ġcorresponding":5933,"Ġplays":5934,"wrap":5935,"ĠMur":5936,"rate":5937,"Write":5938,"cs":5939,"Ġcaused":5940,"background":5941,"Process":5942,"Layout":5943,"Ġargument":5944,"should":5945,"62":5946,"Ġeth":5947,"Ġcore":5948,"ĠGlobal":5949,"Location":5950,"match":5951,"Ġstated":5952,"varepsilon":5953,"Direct":5954,"bool":5955,"ĠKn":5956,"94":5957,"Ġpartner":5958,"ĠSun":5959,"iny":5960,"ĠOh":5961,"Ġstrategy":5962,"template":5963,"Ġshape":5964,"rees":5965,"Ġproduce":5966,"ĠReturns":5967,"Ġolder":5968,"ĠMov":5969,"egraphics":5970,"Ġeasily":5971,"Ġtrain":5972,"includegraphics":5973,"ĠTechnology":5974,"uesday":5975,"61":5976,"inem":5977,"proof":5978,"Ġdestroy":5979,"ĠName":5980,"Ġmaterials":5981,"Ġcapacity":5982,"language":5983,"Utils":5984,"riptor":5985,"javascript":5986,"ĠGame":5987,"ĠGal":5988,"Ġplaced":5989,"Op":5990,"ĠHot":5991,"orpor":5992,"ansion":5993,"ĠSection":5994,"Ġchance":5995,"93":5996,"ĠWeek":5997,"Ġprefer":5998,"ĠWell":5999,"Ġimag":6000,"Ġdirected":6001,"ĠPet":6002,"ĠParis":6003,"mut":6004,"Gl":6005,"Ġrates":6006,"aved":6007,"rolled":6008,"Ġrelative":6009,"Ġgenerally":6010,"ĠItalian":6011,"ayers":6012,"Ġemployees":6013,"}).":6014,"UB":6015,"sort":6016,"parse":6017,"ircraft":6018,"rum":6019,"Ġrender":6020,"Cons":6021,"ĠDen":6022,".~\\":6023,"ĠGeorg":6024,"AND":6025,"Rev":6026,"lv":6027,"igration":6028,"oded":6029,"etch":6030,"Ġcru":6031,"asion":6032,"[\\":6033,"dule":6034,"ĠAssert":6035,"Ġsociety":6036,"Ġrot":6037,"Ġgenerated":6038,"bi":6039,"()->":6040,"empty":6041,"Car":6042,"Ġphone":6043,"Te":6044,"Ġtools":6045,"Ġwood":6046,"Description":6047,"||":6048,"Ġproced":6049,"sf":6050,"ĠOR":6051,"Frame":6052,"ĠJun":6053,"82":6054,"Ġacad":6055,"Ġreduce":6056,"ĠUN":6057,"ca":6058,"Ġnuc":6059,"root":6060,"ĠMarket":6061,"ĠField":6062,"SO":6063,"Range":6064,"Ġsupply":6065,"ĠGL":6066,"pes":6067,"ĠCall":6068,"Ġraise":6069,"Ġthous":6070,"astern":6071,"Ġamb":6072,"1000":6073,"desc":6074,"Ġbrother":6075,"Ġlisted":6076,"ecute":6077,"Now":6078,"Mat":6079,"tree":6080,"apy":6081,"aby":6082,"Ġblue":6083,"Ġlinear":6084,"Ġfixed":6085,"riage":6086,"styles":6087,"Ġbuffer":6088,"PL":6089,"Des":6090,"Ġpaint":6091,"ura":6092,"Ġoccup":6093,"Ġfigure":6094,"Ġoptim":6095,"Ġsequence":6096,"jo":6097,"ĠId":6098,"Ġstra":6099,"ĠIts":6100,"ãĥ":6101,"ĠEp":6102,"ĠSecret":6103,"Ġstock":6104,"Local":6105,"Ġdespite":6106,"uan":6107,"Ġtests":6108,"Ġclasses":6109,"ĠOl":6110,"ĠCreate":6111,"Ġeventually":6112,"Ġforeign":6113,"Ġfactors":6114,"Ġorganizations":6115,"Ġfourth":6116,"92":6117,"Ġbasic":6118,"ĠSecond":6119,"bb":6120,"Ġbill":6121,"while":6122,"Interface":6123,"arden":6124,"ĠIreland":6125,"uke":6126,"rics":6127,"ĠWednesday":6128,"Ġdog":6129,"arant":6130,"Ġexists":6131,"Ġther":6132,"Ġunc":6133,"Ġresponsible":6134,"1991":6135,"ynch":6136,"inds":6137,"Ġrequires":6138,"ĠCare":6139,"ĠChief":6140,"Ġ**":6141,"Ġnoted":6142,"Ġpsych":6143,"Am":6144,"]);":6145,"Ġfloat":6146,"Ġchoose":6147,"74":6148,"Ġalt":6149,"ĠApp":6150,"Ġshop":6151,"Ġoffset":6152,"vec":6153,"Ġheard":6154,"ĠHistor":6155,"Ġfix":6156,"ĠUse":6157,"Ġdecre":6158,"Ġeyes":6159,"Ġsmaller":6160,"irmed":6161,"ĠInformation":6162,"varphi":6163,"ashion":6164,"oration":6165,"drop":6166,"float":6167,"ds":6168,"Mon":6169,"olk":6170,"ĠMax":6171,"Open":6172,"Ġarguments":6173,"ils":6174,"Ġalleg":6175,"Ġminor":6176,"ponents":6177,"Ġpiece":6178,"ĠPo":6179,"][":6180,"Bundle":6181,"frame":6182,".\\":6183,"ĠEarth":6184,"ĠBet":6185,"Ġanim":6186,"ĠOld":6187,"iden":6188,"oder":6189,"prop":6190,"ĠPenn":6191,"ZE":6192,"nam":6193,"Ġbuildings":6194,"&\\":6195,"Unit":6196,"Ġserve":6197,"Ġfounded":6198,"Ġmajority":6199,"card":6200,"ĠVirginia":6201,"Ġbg":6202,"Ġbusinesses":6203,"ĠMonday":6204,"Ġroute":6205,"razil":6206,"Ġstrugg":6207,"imary":6208,"Ġactions":6209,"ĠPan":6210,"ĠArray":6211,"Ġhelped":6212,"ategories":6213,"olved":6214,"found":6215,":</":6216,"ĠCast":6217,"Ġmorning":6218,"that":6219,"Ġdevices":6220,"ĠLove":6221,"Ġowners":6222,"Ġaspect":6223,"bound":6224,"Ġletter":6225,"ĠPower":6226,"reedom":6227,"They":6228,"iced":6229,"Ġbottom":6230,"ĠSaturday":6231,"Ġstraight":6232,"Callback":6233,"IA":6234,"ĠSpe":6235,"ĠCommunity":6236,"([":6237,"QL":6238,"SD":6239,"Ġsubsequ":6240,"Art":6241,"Current":6242,"71":6243,"Ĥ¬":6244,"ĠAlso":6245,"Ġpages":6246,"require":6247,"81":6248,"Ġmill":6249,"Ġconstr":6250,"Ġpi":6251,"geq":6252,"Ġscript":6253,"Ġlaunched":6254,"Ġalone":6255,"Ġer":6256,"ĠMexico":6257,"ĠSu":6258,"clusive":6259,"ingu":6260,"umni":6261,"allery":6262,"SH":6263,"Ġenh":6264,"Ġpolic":6265,"ĠFestival":6266,"ĠKey":6267,"Ġ{}":6268,"Ġinstr":6269,"Ġconcent":6270,"overline":6271,"olec":6272,"uri":6273,"ĠEnter":6274,"writ":6275,"Ġcomponents":6276,"ĠMartin":6277,"kins":6278,"utch":6279,"Ġconnected":6280,"Ġpaid":6281,"ĠVictor":6282,"Ġtrial":6283,"Ġscope":6284,"Header":6285,"Ġnegative":6286,"Ġiter":6287,"Ġremoved":6288,"car":6289,"Ġstars":6290,"ĠRecords":6291,"Ġspirit":6292,"Ġwest":6293,"aser":6294,".$":6295,"ja":6296,"token":6297,"Ġhear":6298,"legal":6299,"alent":6300,"Ke":6301,"standing":6302,"Ġdaily":6303,"INT":6304,"Ġkm":6305,"Inst":6306,"usband":6307,"ĠPolicy":6308,"Ġbattle":6309,"Ġfeet":6310,"Ġsenior":6311,"Ġagreement":6312,"boot":6313,"Ġheavy":6314,"73":6315,"Ġeast":6316,"IF":6317,"83":6318,"iana":6319,"Ġunderstanding":6320,"ih":6321,"Ġflag":6322,"Ġcritic":6323,"tim":6324,"Ġdiagn":6325,"Ġaccom":6326,"Ġstorage":6327,"Ġreflect":6328,"Ġtraff":6329,"bin":6330,"acific":6331,"aters":6332,"Control":6333,"ĠMen":6334,"ĠApple":6335,"Ġarrest":6336,"ĠLee":6337,"John":6338,"atically":6339,"Ġpush":6340,"Ġelected":6341,"IST":6342,"Ġcitiz":6343,"Ev":6344,"API":6345,"%;":6346,"EM":6347,"values":6348,"ĠRun":6349,"Ġconvert":6350,"TC":6351,"CODE":6352,"1960":6353,"anging":6354,"IGN":6355,"ker":6356,"Ġwel":6357,"ĠDO":6358,"bra":6359,"ĠForce":6360,"omic":6361,"ĠJim":6362,"Script":6363,"ĠBas":6364,"power":6365,"ctx":6366,"Ø§":6367,"Ġdetermine":6368,"ĠBase":6369,"gency":6370,"Ġmatches":6371,"Ġss":6372,"Ġemot":6373,"Ġprofile":6374,"None":6375,"ourney":6376,"Ġinfo":6377,"patch":6378,"Down":6379,"ĠLead":6380,"Ġslight":6381,"ĠCarolina":6382,"Ġidentified":6383,"Ġwinning":6384,"document":6385,"Ġsusp":6386,"Ġgeneration":6387,"ictionary":6388,"uty":6389,"Ġhundred":6390,"Ġpatient":6391,"ĠLibrary":6392,"'),":6393,"Ġchain":6394,"Ġanswer":6395,"look":6396,"Ġdomain":6397,"Ġadvant":6398,"ĠSpecial":6399,"Ġrare":6400,"asure":6401,"ĠJo":6402,"}),":6403,"Ġwants":6404,"Ġkids":6405,"Ġhuge":6406,"Ġcontinues":6407,"Ġguitar":6408,"1988":6409,"'d":6410,"Ġsell":6411,"Tree":6412,"ĠAwards":6413,"Are":6414,"ĠItaly":6415,"Ġended":6416,"appa":6417,"Ġinvestment":6418,"ĠWood":6419,"ĠJud":6420,"osc":6421,"Ġsector":6422,"note":6423,"Ġbelong":6424,"Ġraised":6425,"Ġvector":6426,"ny":6427,"Ġconfiguration":6428,"emporary":6429,"ĠEvery":6430,"Ġskills":6431,"Ġvisual":6432,"ĠCEO":6433,"Ġchief":6434,"ĠSummer":6435,"ĠYoung":6436,"skip":6437,"poses":6438,"Ġaware":6439,"ĠTheir":6440,"ĠDate":6441,"ĠValley":6442,"Ġfig":6443,"ĠAlthough":6444,"apped":6445,"ĠFootball":6446,"after":6447,"fs":6448,"Ident":6449,"ĠReport":6450,"Tim":6451,"Search":6452,"roph":6453,"elligence":6454,"XX":6455,"Ġrestaur":6456,"Thread":6457,"Ġcomments":6458,"ultural":6459,"control":6460,"Ġillust":6461,"Ġneighbor":6462,"ACK":6463,"},\\":6464,"Ġowner":6465,"Ġnative":6466,"1989":6467,"PECT":6468,"ĠAM":6469,"pop":6470,"Ġinfr":6471,"Ġexactly":6472,"Ġupper":6473,"âĢĿ,":6474,"vision":6475,"Ġinfluence":6476,"Height":6477,"ums":6478,"ĠFort":6479,"Ġsea":6480,"ĠBack":6481,"real":6482,"ĠĠĠĠĠĠĠĠĠĠĠĠĠĠĠĠĠĠĠĠĠ":6483,"Ġoffered":6484,"Ġeconomy":6485,"ĠMap":6486,"Ġsustain":6487,"Ġcool":6488,"Ġequival":6489,"PT":6490,"ULT":6491,"Module":6492,"ntax":6493,"urrency":6494,"ĠLin":6495,"ĠLim":6496,"plement":6497,"pg":6498,"going":6499,"Option":6500,"Ġcommit":6501,"Ġadvert":6502,"Ġharm":6503,"Ġshift":6504,"Ġ>=":6505,"aks":6506,"owers":6507,"ĠNote":6508,"cean":6509,"Ġknew":6510,"Ġbrief":6511,"uy":6512,"buffer":6513,"ati":6514,"strap":6515,"DS":6516,"Ġahead":6517,"Ġcat":6518,"lie":6519,"ĠColor":6520,"ali":6521,"Ġproof":6522,"IB":6523,"ivery":6524,"ean":6525,"Match":6526,"ĠGar":6527,"resents":6528,"mail":6529,"âĢī":6530,"ĠNet":6531,"Empty":6532,"Ġbenefits":6533,"Ġincome":6534,"ws":6535,"Ġofficials":6536,"Ġclaims":6537,"arian":6538,"pling":6539,"Ġcoast":6540,"ĠFree":6541,"front":6542,"ĠEven":6543,"iders":6544,"Ġwhom":6545,"Ġmeasures":6546,"Ġtrend":6547,"Ġmachine":6548,"ĠTuesday":6549,"Ġfra":6550,"Ġidentity":6551,"Ġdetermined":6552,"Ġseparate":6553,"Ġspot":6554,"oes":6555,"./":6556,"Level":6557,"hline":6558,"Ġbgcolor":6559,"Ġarm":6560,"ĠHaw":6561,"ĠSpanish":6562,"ometry":6563,"Ġopportunities":6564,"Ġhappen":6565,"ĠMedical":6566,"Ġtemplate":6567,"Ġreplaced":6568,"Ġcorpor":6569,")^":6570,"conf":6571,"xx":6572,"Ġdefinition":6573,"rick":6574,"Ð»":6575,"Expression":6576,"Hash":6577,"VAL":6578,"}/":6579,"Stat":6580,"ested":6581,"Ġfif":6582,"Ġoverride":6583,"fa":6584,"Ġresidents":6585,"inations":6586,"ĠAsia":6587,"Prot":6588,"ĠRegister":6589,"Window":6590,"nergy":6591,"Position":6592,"########":6593,"ifications":6594,"Ġvariable":6595,"ĠMot":6596,"Ġmostly":6597,"ĠPubl":6598,"ĠKh":6599,"ĠNS":6600,"resource":6601,"Ġax":6602,"Ear":6603,"command":6604,"etime":6605,"ĠHuman":6606,"icker":6607,"Ġsettings":6608,"\"))":6609,"Ġhousehold":6610,"ĠCentre":6611,"ĠOrder":6612,"vas":6613,"Ġuseful":6614,"Ġoriginally":6615,"Ġportrait":6616,"oute":6617,"Ptr":6618,"ĠSecurity":6619,"Properties":6620,"=\"_":6621,"endar":6622,"Ġstations":6623,"ĠFamily":6624,"Ġsteps":6625,"OK":6626,"itness":6627,"iques":6628,"Ġattribute":6629,"Ġsumm":6630,"ĠKar":6631,"Ġstructures":6632,"Entity":6633,"Http":6634,"Ġyield":6635,"Ġhyp":6636,"Ġholds":6637,"structor":6638,"ĠWater":6639,"Ġdatabase":6640,"ĠIran":6641,"Ġdriver":6642,"Ġ::":6643,"Ġprison":6644,"Ġpowerful":6645,"Ġmentioned":6646,"ĠLine":6647,"Ġmobile":6648,"CTION":6649,"ployment":6650,"Ġvehicle":6651,"elled":6652,"iano":6653,"Ġapproximately":6654,"ĠJohnson":6655,"cles":6656,"ĠSar":6657,"Ġvan":6658,"Ġfine":6659,"Ġbeautiful":6660,"ĠTable":6661,"Json":6662,"Ġrequirements":6663,"Ġbul":6664,"Ġprotest":6665,"Ġbecoming":6666,"di":6667,"ĠArab":6668,"Ġappointed":6669,"iments":6670,"ĠScot":6671,"internal":6672,"Red":6673,"Ġparties":6674,"Ġrecommend":6675,"star":6676,"Ġmurder":6677,"ifies":6678,"emp":6679,"urred":6680,"ĠÂ£":6681,"Here":6682,"Ġfailure":6683,"cache":6684,"nel":6685,"Ġfunding":6686,"Ġequipment":6687,"Ġchallenge":6688,"Po":6689,"ĠRail":6690,"WS":6691,"Ġreduced":6692,"estic":6693,"Ġchallenges":6694,"ollowing":6695,"Äģ":6696,"ancer":6697,"Dir":6698,"esh":6699,"Since":6700,"Ġextrem":6701,"Sign":6702,"MC":6703,"150":6704,"Ġconvers":6705,"pective":6706,"sd":6707,"Change":6708,"ĠStand":6709,"sign":6710,"imb":6711,"ĠMa":6712,"Ġcities":6713,"Ġthread":6714,"ependency":6715,"ĠSports":6716,"ĠCON":6717,"udio":6718,"ĠIP":6719,"sen":6720,"Ġsmart":6721,"ĠFund":6722,"Lambda":6723,"Ġrelevant":6724,"adium":6725,"aml":6726,"langle":6727,"ĠCatholic":6728,"isters":6729,"Ġdrink":6730,"Ġprocesses":6731,"ĠStat":6732,"Ġofficer":6733,"Ġforest":6734,">,":6735,"Ġplanning":6736,"normal":6737,"ĠConference":6738,"Ġwonder":6739,"ĠJones":6740,"Params":6741,"clude":6742,"acks":6743,"Ġwid":6744,"Ġdream":6745,"Ġdownload":6746,"ĠFire":6747,"Ġapi":6748,"Ġextension":6749,"Other":6750,"=\"../../../../../":6751,"Ġcloud":6752,"Ġlibrary":6753,"DY":6754,"ogen":6755,"Ġguid":6756,"inion":6757,"agment":6758,"Ġfeatured":6759,"edia":6760,"osoph":6761,"Document":6762,"ears":6763,"ishes":6764,"ĠPolice":6765,"Ġpackage":6766,"ĠUkraine":6767,"Ġpanel":6768,"Async":6769,"Ġcontainer":6770,"Ġaircraft":6771,"Project":6772,"Ġice":6773,"ĉĉĉĉĉĉĉ":6774,"Ġimplementation":6775,"Ġhappened":6776,"Ġdu":6777,"AGE":6778,"odies":6779,"Ġremaining":6780,"scape":6781,"Ġlooked":6782,"ĠException":6783,"ĠDom":6784,"ĠCy":6785,"ko":6786,"Ġedition":6787,"iable":6788,"ĠJoe":6789,"Ġrac":6790,"PH":6791,"Ġreasons":6792,"Ac":6793,"ĠSand":6794,"Ġfamous":6795,"Ġut":6796,"Ġviews":6797,"istribut":6798,"Ġrepresentation":6799,"Ġrevealed":6800,"uries":6801,"Impl":6802,"ographic":6803,"iling":6804,"ĠBob":6805,"before":6806,"etry":6807,"otes":6808,"hor":6809,"edge":6810,"{{":6811,"Ġexpert":6812,"Ġscored":6813,"ĠAmazon":6814,"ĠInvest":6815,"life":6816,"ĠBow":6817,"ifically":6818,"oston":6819,"Ġtried":6820,"Ġattract":6821,"ĠBlue":6822,"ersonal":6823,"Ðº":6824,"Ġstress":6825,"LS":6826,"ye":6827,"Ġweap":6828,"May":6829,"artifact":6830,"Ġbroadcast":6831,"ĠHenry":6832,"Sk":6833,"second":6834,"phone":6835,"rich":6836,"According":6837,"rize":6838,"dest":6839,"Ġcontaining":6840,"ansas":6841,"END":6842,"Ġearth":6843,"Ġhusband":6844,"example":6845,"ji":6846,"des":6847,"Ġextended":6848,"Ġlayer":6849,"Dep":6850,"ĠElect":6851,"Ġalbums":6852,"ingle":6853,"Order":6854,"Ġclinical":6855,"reference":6856,"ĠHor":6857,"Some":6858,"Ġcredit":6859,"Host":6860,"Ġdepartment":6861,"ĠDesign":6862,"wan":6863,"1987":6864,"STR":6865,"Ġblog":6866,"Ġoccur":6867,"othing":6868,"Ġideas":6869,"Ġappropriate":6870,"ims":6871,"astructure":6872,"Ġreality":6873,"eces":6874,"Connection":6875,"utils":6876,"ĠCard":6877,"ilton":6878,"Ġgun":6879,"Ġadministration":6880,"Ġintr":6881,"Ġboy":6882,"ĠView":6883,"Ġleadership":6884,"iciency":6885,"Ġtoward":6886,"ĠMany":6887,"Ġphil":6888,"ĠIns":6889,"Ġorigin":6890,"Ġsignificantly":6891,"Ġmanaged":6892,"Ġcategory":6893,"ĠMethod":6894,"scription":6895,"Ġregarding":6896,"apse":6897,"ĠWal":6898,"ĠChristmas":6899,"window":6900,"ursor":6901,"Ġrepresented":6902,"Ġconflict":6903,"Ġdescribe":6904,"war":6905,"Ġdoor":6906,"Ġclick":6907,"ulty":6908,"sv":6909,"amm":6910,"Ġmonitor":6911,"actor":6912,"tml":6913,"Ġforced":6914,"\"));":6915,"Ġminimum":6916,"Ġpurs":6917,"urban":6918,"Ġleaving":6919,"icip":6920,"Ġpod":6921,"amin":6922,"Ġcultural":6923,"ĠOrgan":6924,"ĠHand":6925,"Net":6926,"These":6927,"Ġaudience":6928,"ĠAR":6929,"izont":6930,"1986":6931,"oves":6932,"Ġremained":6933,"Ġoperating":6934,"Ġalgorithm":6935,"Ġhour":6936,"Cal":6937,"Ġnotice":6938,"ĠPak":6939,"Ġcris":6940,"Ġkept":6941,"Ġattend":6942,"boldsymbol":6943,"Ġpadding":6944,"mbox":6945,"Ġupdated":6946,"Ġdamage":6947,"ĠRequ":6948,"Ġprotection":6949,"ups":6950,"ĠIndust":6951,"CI":6952,"Operation":6953,"ruit":6954,"=\"-":6955,"Ġmetal":6956,"ĠLi":6957,"jection":6958,"frak":6959,"Ġmask":6960,"ĠCA":6961,"Ġrul":6962,"aka":6963,"Ġregions":6964,"DD":6965,"Reference":6966,"bridge":6967,"URE":6968,"uls":6969,"}}$":6970,"iat":6971,"ĠDown":6972,"otimes":6973,"ĠRet":6974,"Ġfresh":6975,"ĠTrue":6976,"Ġcandidate":6977,"ĠAbout":6978,"Session":6979,"hash":6980,"ĠPop":6981,"Long":6982,"Ġactor":6983,"ĠEach":6984,"cat":6985,"ĠWin":6986,"'.":6987,"eless":6988,"ira":6989,"isms":6990,"ĠAuthor":6991,"ãĤ":6992,"Ġ*)":6993,"Ġinterested":6994,"ï¿":6995,"Ġsignal":6996,"1984":6997,"ĠEXPECT":6998,"Ġweak":6999,"Ġtrip":7000,"Ġconsult":7001,"Ã¨":7002,"Ġidentify":7003,"Mult":7004,"Ġjoint":7005,"Ġbasketball":7006,"Ġexperi":7007,"Ġconference":7008,"high":7009,"Book":7010,"Ġpartial":7011,"Ġexchange":7012,"Ġadopt":7013,"Ġmusical":7014,"border":7015,"nap":7016,"stack":7017,"Que":7018,"aylor":7019,"Ġdig":7020,"Ġtoken":7021,"Ġnamespace":7022,"Ġcovered":7023,"pdf":7024,"ĠSwed":7025,"WE":7026,"Ġequation":7027,"ĠAff":7028,"ĠSciences":7029,"km":7030,"Ġicon":7031,"Ġfloor":7032,"Ġwarm":7033,"Store":7034,"Ġsurvey":7035,"sect":7036,"ĠTele":7037,"%)":7038,"ĠWilliams":7039,"ĠLem":7040,"Ġdoll":7041,"Ġpool":7042,"Ġxml":7043,"device":7044,"Ġmiles":7045,"split":7046,"COLOR":7047,"Ġsexual":7048,"ĠAssembly":7049,"rid":7050,"pool":7051,"ideos":7052,"images":7053,"dot":7054,"Ġflight":7055,"Ġisland":7056,"Ġwall":7057,"Ġenvironmental":7058,"Ġlabor":7059,"Ġresulting":7060,"Ã³n":7061,"ĠEvent":7062,"join":7063,"Ġshowing":7064,"foo":7065,"Ġundefined":7066,"Ġleads":7067,"Ġ\"\\":7068,"equal":7069,"awa":7070,"direct":7071,"Ġdistributed":7072,"ĠWay":7073,"Ġtruth":7074,"Ġerrors":7075,"Ġbenefit":7076,"Title":7077,"Why":7078,"Serial":7079,"ï¿½":7080,"Ġrise":7081,"Ġawarded":7082,"ĉĠ":7083,"IE":7084,"here":7085,"Ġspin":7086,"ĠCorpor":7087,"iro":7088,"Ġbiggest":7089,"ĠPass":7090,"1985":7091,"Sm":7092,"Record":7093,"Ã§":7094,"aws":7095,"ĠJoseph":7096,"Use":7097,"msg":7098,"mode":7099,"Ġnine":7100,"plications":7101,"iki":7102,"coin":7103,"ĠBrazil":7104,"Ġdraft":7105,"Ġbeat":7106,"ĠCode":7107,"types":7108,"Ġsun":7109,"Vari":7110,"eries":7111,"Ġult":7112,"Ver":7113,"Ġwrap":7114,"ockey":7115,"Ġwave":7116,"Ġlived":7117,"range":7118,"ĠMichigan":7119,"ĠAL":7120,"Ġcars":7121,"ritory":7122,"ĠChris":7123,"Ġcombined":7124,"Ġhappy":7125,"Ġpan":7126,"Ġcarried":7127,"Ġagent":7128,"Core":7129,"orney":7130,"Ġrepresents":7131,"Phi":7132,"unte":7133,"Ġonto":7134,"{}":7135,";->":7136,"%%":7137,"send":7138,"atalog":7139,"ĠMA":7140,"Non":7141,"estamp":7142,"ĠRam":7143,"ĠNY":7144,"ensional":7145,"ĠLink":7146,"Will":7147,"allel":7148,"Ġappre":7149,"Ġparse":7150,"Ġexcell":7151,"Ġpet":7152,"Ġcorre":7153,"Ġstudied":7154,"Ġbrain":7155,"ĠEr":7156,"ORD":7157,"ĠHospital":7158,"Parameters":7159,"ĠEqu":7160,"bind":7161,"(-":7162,"Ġrapid":7163,"Ġstarts":7164,"ĠLO":7165,"ĠMicrosoft":7166,"try":7167,"ĠMain":7168,"grade":7169,"access":7170,"Ġobvious":7171,"Ġvoc":7172,"ĠMah":7173,"chen":7174,"Ġthinking":7175,"kind":7176,"success":7177,"Ġunless":7178,"Ġdanger":7179,"Ġstreet":7180,"ĠThus":7181,"debug":7182,"ader":7183,"Ġ['":7184,"fn":7185,"ĠJeff":7186,"Menu":7187,"255":7188,"ataset":7189,"Ġnumerous":7190,"ĠPoint":7191,"SL":7192,"andon":7193,"Ne":7194,"Ġadjust":7195,"Ġfan":7196,"focus":7197,"lers":7198,"ĠTheatre":7199,"kappa":7200,"ucky":7201,"Ġagree":7202,"Kind":7203,"req":7204,"va":7205,"NN":7206,"Ġhistorical":7207,"secut":7208,"inet":7209,"crete":7210,"lig":7211,"ATA":7212,"Ġtraffic":7213,"ĠSte":7214,"annels":7215,"ĠKen":7216,"Track":7217,"oses":7218,"ĠTH":7219,"Pass":7220,"Ġframework":7221,"oted":7222,"ampion":7223,"Ġdefense":7224,"Ġunknown":7225,"ĠMike":7226,"Ġcrow":7227,"Ġcentre":7228,"Ġmeant":7229,"Ġmunic":7230,"ln":7231,"?:":7232,"claim":7233,"Ġinterpret":7234,"Ġpropos":7235,"ĠCross":7236,"Ġperhaps":7237,"romise":7238,"1950":7239,"ĠSenate":7240,"Ġwind":7241,"_;":7242,"white":7243,"Ġaf":7244,"Ġfocused":7245,"Ġparams":7246,"Ġchair":7247,"ĠLord":7248,"Gu":7249,"render":7250,"Pop":7251,"kin":7252,"Ġcustomer":7253,"Helper":7254,"auth":7255,"istration":7256,"Ġarticles":7257,"Font":7258,"ĠColumb":7259,"Ġtechnical":7260,"Ġcalling":7261,"aria":7262,"Ġgenerate":7263,"itutions":7264,"Body":7265,"Ġrelation":7266,"ĠNight":7267,"Ġdivision":7268,"Ġgather":7269,"Ġcamera":7270,"anche":7271,"Ġbatter":7272,"ĠColl":7273,"ĠHon":7274,"Ġappearance":7275,"global":7276,"ĠLuc":7277,"Ġvictory":7278,"Ġfish":7279,"rb":7280,"Ġadding":7281,"cp":7282,"ĠJon":7283,"zen":7284,"Ġnorm":7285,"ĠMath":7286,"leted":7287,"Ġlicense":7288,"Names":7289,"Ġofficers":7290,"ĠTO":7291,"Su":7292,"Ġbudget":7293,"abla":7294,"ĠCollection":7295,"Ġissued":7296,"stone":7297,"Settings":7298,"ificate":7299,"Ġprocessing":7300,"mathfrak":7301,"False":7302,"Ġpartnership":7303,"izontal":7304,"ĠDC":7305,"graph":7306,"har":7307,"ĠLast":7308,"Ġclearly":7309,"Ġagreed":7310,"oster":7311,"igg":7312,"ĠVan":7313,"Ġconsequ":7314,"Ġconducted":7315,"Ġestimated":7316,"ĠReal":7317,"aped":7318,"enter":7319,"ĠJac":7320,"oles":7321,"Ġpicture":7322,"Ġpil":7323,"ĠBG":7324,"Ġsinger":7325,"dated":7326,"ĠOlympics":7327,"Ġjobs":7328,"ipeline":7329,"ffect":7330,"uing":7331,"(*":7332,"artifactId":7333,"Ġbutton":7334,"Ġplants":7335,"ĠWall":7336,"yer":7337,"mid":7338,"Dom":7339,"Ġdedicated":7340,"cript":7341,"ĠIII":7342,"Ġdeveloping":7343,"ĠEnt":7344,"Ġpoly":7345,"ĠEmp":7346,"aked":7347,"Ġsquare":7348,"HS":7349,"mond":7350,"elines":7351,"1983":7352,"Ġpolicies":7353,"ĠIslam":7354,"Ġran":7355,"nonumber":7356,"olume":7357,"ĠLab":7358,"orrow":7359,"empl":7360,"Right":7361,"ä¸":7362,"ila":7363,"Ġunivers":7364,"session":7365,"Ġauthors":7366,"Ġunion":7367,"Ġriver":7368,"ĠWindows":7369,"Ġlaws":7370,"Ġcombination":7371,"Ġcommunication":7372,"ova":7373,"Ġalternative":7374,"parameter":7375,"ĠWhy":7376,"Ġeye":7377,"DC":7378,"Template":7379,"ĠLiber":7380,"riev":7381,"ĠTer":7382,"okes":7383,"ĠHy":7384,"ĠWho":7385,"ĠWalk":7386,"ĠWild":7387,"Ġexecutive":7388,"Ġvariables":7389,"Ġconfirmed":7390,"ĠFrancisco":7391,"ITY":7392,"click":7393,"onym":7394,"Ġpp":7395,"Ġtournament":7396,"Ġtrail":7397,"ĠAny":7398,"lines":7399,"ipe":7400,"Ġentered":7401,"Left":7402,"Parser":7403,"classes":7404,"textit":7405,"Tool":7406,"Ġsale":7407,"del":7408,"ĠRepublican":7409,"ĠJustice":7410,"Ġfacilities":7411,"ima":7412,"ldots":7413,"Ġanimals":7414,"uts":7415,"Ġwriters":7416,"osa":7417,"abeth":7418,"Ġgovern":7419,"ĠFederal":7420,"Ġguide":7421,"ĠFood":7422,"Ġviolence":7423,"Ġregional":7424,"Ġmixed":7425,"obs":7426,"ĠPacific":7427,"ador":7428,"ictures":7429,"GE":7430,"Ġreb":7431,"Ġking":7432,"____":7433,"Ġtypically":7434,"Ġil":7435,"media":7436,"Ġseat":7437,"uzz":7438,"Ġheat":7439,"Ġecho":7440,"ilation":7441,"Ġbird":7442,"iral":7443,"Ġyouth":7444,"nabla":7445,"product":7446,"Ġdelay":7447,"à¥":7448,"ĠSpain":7449,"Results":7450,"Found":7451,"step":7452,"Ġnodes":7453,"appro":7454,"():":7455,"Ġstrength":7456,"Ġjourney":7457,"Ġreligious":7458,"inois":7459,"Ġcache":7460,"Ġcarbon":7461,"webkit":7462,"Ġnotes":7463,"ighter":7464,"ads":7465,"ixel":7466,"Ġcomfort":7467,"ishop":7468,"})$":7469,"Ġfle":7470,"ĠDaniel":7471,",-":7472,"enger":7473,"ĠPrem":7474,"ĠPhys":7475,"itage":7476,"ERROR":7477,"Ġuniversity":7478,"Ġhash":7479,"reshold":7480,"Ġsamples":7481,"Handle":7482,"Ġgone":7483,"(:":7484,"ĠMP":7485,"Ġplot":7486,"Ġlatter":7487,"Ġallowing":7488,"ĠRo":7489,":(":7490,"Ġfunds":7491,"odd":7492,"ĠBoth":7493,"Ġstandards":7494,"Ġban":7495,"However":7496,"bas":7497,"pute":7498,"During":7499,"Ġtra":7500,"ĠĠĠĠĠĠĠĠĠĠĠĠĠĠĠĠĠĠĠĠ":7501,"cope":7502,"Ġdelete":7503,"Ġtalent":7504,"NavBar":7505,"hem":7506,"athan":7507,"Ġcrisis":7508,"Ġinjury":7509,"Ġmarketing":7510,"citep":7511,"itan":7512,"Ġcommission":7513,"Ġdetail":7514,"Ġdetect":7515,"Ġrich":7516,"Iter":7517,"Click":7518,"heast":7519,"Ġfinish":7520,"rical":7521,"ĠSouthern":7522,"subset":7523,"Ġfavorite":7524,"1982":7525,"Ġowned":7526,"rot":7527,"Ġcriminal":7528,"illy":7529,"orders":7530,"World":7531,"Ġprotocol":7532,"Ġnarr":7533,"Ġcreation":7534,"Ġinher":7535,"ĠAndrew":7536,"Ġimpress":7537,"anguages":7538,"Ġcounty":7539,"ĠHarr":7540,"Ġliterature":7541,"Ġsport":7542,"ĠModel":7543,"\\|":7544,"ðŁ":7545,"Ġexternal":7546,"ĠOnly":7547,"Ġinvestigation":7548,"ĠGi":7549,"transform":7550,"Doc":7551,"delete":7552,"Ġpractices":7553,"Ġdiscussion":7554,"Any":7555,"ĠMedicine":7556,"connect":7557,"Ġstrict":7558,"Ġoffering":7559,"Ġhers":7560,"ĠJes":7561,"ĠNorthern":7562,"âĢ¢":7563,"'],":7564,"Ġmaybe":7565,"TA":7566,"Ġexperiences":7567,"obe":7568,"ĠIrish":7569,"cf":7570,"BI":7571,"Ġevolution":7572,"---":7573,"Ġalumni":7574,"Ġdriving":7575,"Member":7576,"Ġtransaction":7577,"Each":7578,"adel":7579,"Ġdocuments":7580,"Ġcontrast":7581,"Ġenable":7582,"ĠLike":7583,"eller":7584,"Ġproducer":7585,"vector":7586,"Ġfuel":7587,"kg":7588,"ĠBul":7589,"ĠInternet":7590,"PRE":7591,"Ġpositions":7592,"water":7593,"system":7594,"GET":7595,"Ġassume":7596,"Di":7597,"Ñĥ":7598,"ĠAdministr":7599,"Ġshut":7600,"Ġnewsp":7601,"groupId":7602,"ĠMiddle":7603,"oving":7604,"Ġphoto":7605,"ĠDemocratic":7606,"dat":7607,"missions":7608,"Ġschedul":7609,"Ġexerc":7610,"cur":7611,"Ġprices":7612,"ĠOk":7613,"ifest":7614,"Ġadvantage":7615,"ifer":7616,"ĠPage":7617,"Ġtalking":7618,"nections":7619,"ĠSaint":7620,"About":7621,"mazing":7622,"Ġleaves":7623,"================================":7624,"ĠRh":7625,"orship":7626,"Ġexamples":7627,"toString":7628,"Integer":7629,"sylv":7630,"Ġmotion":7631,"Ġhelps":7632,"Ġelem":7633,"Ġachieve":7634,"ez":7635,"Ġmys":7636,"atters":7637,"shot":7638,"Err":7639,"BAG":7640,"120":7641,"ĠEU":7642,"ĠLear":7643,"Ġcrime":7644,"ĠMu":7645,"Ġprove":7646,"Ġratio":7647,"SR":7648,"Year":7649,"Note":7650,"Ġvehicles":7651,"ĠValue":7652,"Ġcitizens":7653,"ashed":7654,"Ġnetworks":7655,"Ġdistinct":7656,"ĠEnergy":7657,"Ġseconds":7658,"Ġlett":7659,"={":7660,"ĠFar":7661,"address":7662,"Ġflex":7663,"Ġscheme":7664,"Ġbed":7665,"=\"../../../../../../":7666,"Only":7667,"/\\":7668,"iser":7669,"Ġcorner":7670,"EQ":7671,"ĠBoston":7672,"Rect":7673,"Ġproceed":7674,"Ġfre":7675,"'>":7676,"ĠCarl":7677,"mann":7678,"words":7679,"agers":7680,"Ġgain":7681,"clear":7682,"Ġfinding":7683,"make":7684,"aste":7685,"Ġlocations":7686,"friend":7687,"aturing":7688,"Ġsplit":7689,"ĠNO":7690,"gypt":7691,"oggle":7692,"ĠStudies":7693,"Ġinfe":7694,"uses":7695,"iner":7696,"ran":7697,"issions":7698,"ĠLive":7699,"ctors":7700,"Ġstuff":7701,"Ġpredict":7702,"Final":7703,"Ġtheme":7704,"ĠLo":7705,"cluded":7706,"%,":7707,"Jan":7708,"Ġcertainly":7709,"ĠInitial":7710,"interface":7711,"ĠAmericans":7712,"Ġweather":7713,"ĠGeorgia":7714,"equals":7715,"ĠEnvironment":7716,"people":7717,"1979":7718,"models":7719,"Ġfrequency":7720,"}-":7721,"Ġsister":7722,"sylvania":7723,"ĠRadio":7724,"ĠGirl":7725,"Ġcouldn":7726,"ignment":7727,"Author":7728,"DYBAG":7729,"ĉĉĊ":7730,"lets":7731,"rule":7732,"hetic":7733,"ĠTri":7734,"ĠBecause":7735,"Sigma":7736,"Meta":7737,"Parent":7738,"Ġplus":7739,"Ġslightly":7740,"ĠMult":7741,"encing":7742,"Ġdecades":7743,"posite":7744,"Ġadvanced":7745,"docs":7746,"ĠEth":7747,"ĠIO":7748,"Ã¢":7749,"Vector":7750,"ĠAdv":7751,"faces":7752,"PM":7753,"ĠAction":7754,"edding":7755,"aya":7756,"Ġlearned":7757,"handle":7758,"Ġseasons":7759,"Ġheader":7760,"Ġexpansion":7761,"ĠSong":7762,"ĠJr":7763,"ĠEN":7764,"ĠJackson":7765,"ĠFred":7766,"ĠLight":7767,"Ġintended":7768,"Sw":7769,"Ġincorpor":7770,"Ġchosen":7771,"Ġneut":7772,"ĠParliament":7773,"rim":7774,"Ġvision":7775,"ĠCivil":7776,"Ġprepar":7777,"ĠÂ»":7778,"ryst":7779,"ĠNE":7780,"Vert":7781,"Ġadvance":7782,"Ġserial":7783,"Ġphotograph":7784,"oviet":7785,"hover":7786,"ito":7787,"Ġconver":7788,"ĠCoast":7789,"othes":7790,"ugins":7791,"present":7792,"Ġrain":7793,"ture":7794,"Ġdifferences":7795,"Ġhydro":7796,"Ġfant":7797,"Ġfashion":7798,"cknow":7799,"pet":7800,"Ġclients":7801,"utf":7802,"hs":7803,"Ġtend":7804,"ĠDigital":7805,"ĠMid":7806,"Ġsomew":7807,"Ġul":7808,"Ġgirls":7809,"Ġspeech":7810,"Ġyourself":7811,"ĠCre":7812,"Ġretail":7813,"Device":7814,"security":7815,"ello":7816,"Ġremote":7817,"bury":7818,"onto":7819,"Stack":7820,"Ġchanging":7821,"poss":7822,"ĠTw":7823,"Ġburn":7824,"Ġattacks":7825,"itionally":7826,"Ġseeing":7827,"Ġdrama":7828,"ĠOhio":7829,"bootstrap":7830,"ĠUser":7831,"Ġdie":7832,"600":7833,"virt":7834,"WA":7835,"stop":7836,"Policy":7837,"ĠBang":7838,"ĠRights":7839,"Ġapparent":7840,"Ġtro":7841,"ĠSpace":7842,"ĠNiger":7843,"prime":7844,"Ġglass":7845,"elease":7846,"Ġtab":7847,"iy":7848,"ĠStart":7849,"ĠPy":7850,"Ġdiscovered":7851,"apes":7852,"ennis":7853,"Fig":7854,"Ġresolution":7855,"Ġmessages":7856,"ading":7857,"TEST":7858,"Ġequivalent":7859,"Security":7860,"}}{":7861,"burgh":7862,"Select":7863,"Ġaren":7864,"uations":7865,"Ġlisten":7866,"ynchron":7867,"ĠLocal":7868,"Ġhair":7869,"Ġpal":7870,"Ġimportance":7871,"ceived":7872,"Ġtrav":7873,"ĠSir":7874,"Ġtells":7875,"nic":7876,"ĠExt":7877,"1981":7878,"fill":7879,"ocks":7880,"Ġrelatively":7881,"LC":7882,"pare":7883,"ovid":7884,"MB":7885,"&#":7886,"evin":7887,"Invalid":7888,"ilms":7889,"Ġhighlight":7890,"ACE":7891,"Ġcomparison":7892,"coh":7893,"coll":7894,"Ġmedal":7895,"bal":7896,"Schema":7897,"stein":7898,"Before":7899,"ĠPolit":7900,"Ġfootballers":7901,"icer":7902,"Xml":7903,"Ġmental":7904,"Ġkill":7905,"Ġexplicit":7906,"Writer":7907,"ĠSea":7908,"=#":7909,"Ġattr":7910,"Google":7911,"Ġaffected":7912,"SU":7913,"Ġlab":7914,"Ġwish":7915,"Ġconsists":7916,"rawn":7917,"cher":7918,"Ġannounce":7919,"obuf":7920,"Ġelim":7921,"urer":7922,"ocity":7923,"ĠSupport":7924,"Ġsegment":7925,"Ġchampionship":7926,"ORM":7927,"Ġactress":7928,"wid":7929,"ĠSign":7930,"disabled":7931,"Ġquantum":7932,"Application":7933,"acle":7934,"aration":7935,"Ġarchitecture":7936,"Ġsouthern":7937,"agger":7938,"Ġrom":7939,"Has":7940,"Ġbranch":7941,"Decl":7942,"Ġdiscussed":7943,"ĠBeach":7944,"ĠGuide":7945,"email":7946,"atever":7947,"Ġmagazine":7948,"Ġacademic":7949,"ĠWhe":7950,"Ġserving":7951,"ATH":7952,"Ġdepth":7953,"Ġspring":7954,"how":7955,"formance":7956,"ĠAsian":7957,"Ġregistered":7958,"Ġmotor":7959,"`.":7960,"Ġelections":7961,"ione":7962,"aching":7963,"ĠSO":7964,"Ġchart":7965,"fields":7966,"holder":7967,"250":7968,"Ġprofession":7969,"izabeth":7970,"Ġhousing":7971,"allow":7972,"Ġaudio":7973,"Ġsupporting":7974,"enth":7975,"Ġclaimed":7976,"Ġconcerns":7977,"SET":7978,"ĠJewish":7979,"istant":7980,"Ġsolar":7981,"nesota":7982,"Best":7983,"1978":7984,"ĠProfessor":7985,"Care":7986,"Ġreject":7987,"Ġestim":7988,"iffer":7989,"MT":7990,"icol":7991,"Draw":7992,"ĠExecut":7993,"ĠTherefore":7994,"keys":7995,"Ġbegins":7996,"env":7997,"Ġtracks":7998,"ĠDou":7999,"Cor":8000,"Ġcluster":8001,"Ġretain":8002,"Ġbalance":8003,"1976":8004,"ĠLu":8005,"Ġpitch":8006,"Ġattended":8007,"Ġmist":8008,"onav":8009,"names":8010,"ĠStan":8011,"ĠCH":8012,"Ġfeeling":8013,"\\%":8014,"Ġcoverage":8015,"ĠKim":8016,"contin":8017,"Ġsuc":8018,"Ġmyst":8019,"Ġpolitics":8020,"Ġagency":8021,"1972":8022,"Ġvirus":8023,"byte":8024,"ela":8025,"ĠBGCOLOR":8026,"ĠURL":8027,"Ġfellow":8028,".'":8029,"ĠMaster":8030,"lywood":8031,"ĠWales":8032,"Â°":8033,"una":8034,"cert":8035,"ĠNav":8036,"ĠFurther":8037,"Ġherself":8038,"Ġpurchase":8039,"ĠAP":8040,"inson":8041,"Ġfear":8042,"eper":8043,"bre":8044,"Ġfacility":8045,"Assert":8046,"ĠFigure":8047,">();":8048,"ĠIllinois":8049,"Ġsleep":8050,"prise":8051,"Ġefficient":8052,"Ġthousands":8053,"elly":8054,"awn":8055,"hab":8056,"Ġmarkets":8057,"ĠQueen":8058,"Values":8059,"ĠSecretary":8060,"Reader":8061,"boolean":8062,"person":8063,"ushed":8064,"ĠKr":8065,"anes":8066,"Ġspaces":8067,"ĠAf":8068,"Ġreviews":8069,"Ġextract":8070,"mosph":8071,"Ġprotein":8072,"Ġstack":8073,"ĠRom":8074,"Ġadvoc":8075,"Ġcrew":8076,"Ġvac":8077,"Ġtrees":8078,"ĠMic":8079,"ĠĠĠĠĠĠĠĠĠĠĠĠĠĠĠĠĠĠĠĠĠĠĠĠĠĠĠĠĠĠĠĠĠĠĠĠĠĠĠ":8080,"modal":8081,"Ġinitially":8082,"ĠJersey":8083,"Argument":8084,"Ġadvent":8085,"\\\"":8086,"leton":8087,"Step":8088,"full":8089,"store":8090,"hemat":8091,"Ġsan":8092,"Ġ++":8093,"ĠPennsylvania":8094,"Ġnorthern":8095,"Ġmolec":8096,"ĠĠĠĠĠĠĠĠĠĠĠĠĠĠĠĠĠĠ":8097,"ĠFI":8098,"Ġcer":8099,"Ġdance":8100,"Ġinsert":8101,"Ġhidden":8102,"Ġchemical":8103,"istent":8104,"appe":8105,"ĠBritain":8106,"ernel":8107,"inates":8108,"Bytes":8109,"Ġsurg":8110,"Ġrecording":8111,"stylesheet":8112,"ingly":8113,"ĠText":8114,"inator":8115,"dots":8116,"Api":8117,"Metadata":8118,"umes":8119,"spe":8120,"export":8121,"{-":8122,"ĠTaylor":8123,"Ġphen":8124,"Ġwinner":8125,"custom":8126,"wer":8127,"ĠBrook":8128,"Ġsum":8129,"Ġoccurred":8130,"Ġfort":8131,"ĠLittle":8132,"Ġformation":8133,"DR":8134,"Ġdelivery":8135,"Num":8136,"Members":8137,"MI":8138,"AU":8139,"writer":8140,"1974":8141,"Ġ('":8142,"Const":8143,"ĠPC":8144,"Ġhelping":8145,"support":8146,"Ġreferred":8147,"Ġvel":8148,"Ġmarriage":8149,"Ġsymmet":8150,"ĠGreek":8151,"Ġfill":8152,"Ġprobability":8153,"Ġcrypt":8154,"Ġconcert":8155,"replace":8156,"Tags":8157,"Ġring":8158,"Ġnoise":8159,"1975":8160,"atial":8161,"DP":8162,"Ġbatt":8163,"Root":8164,"Ġ})":8165,"Ġfell":8166,"Ġinline":8167,"La":8168,"Ġentity":8169,"iate":8170,"ĠImp":8171,"Ġmassive":8172,"Render":8173,"Ġbyte":8174,"&&":8175,"Ġcandidates":8176,"callback":8177,"Ġisol":8178,"Ġvent":8179,"ĠConst":8180,"ĠNavy":8181,"$(":8182,"ĠToday":8183,"ĠKong":8184,"Ġsoft":8185,"Ġsucceed":8186,"800":8187,"ĠassertEquals":8188,"alo":8189,"ĠEngineering":8190,"Ġknows":8191,"fram":8192,"exports":8193,"ĠRest":8194,"Ġversions":8195,"iveness":8196,"Ġgal":8197,"Ġmainly":8198,"ĠMuslim":8199,"Ġkeys":8200,"Ġextremely":8201,"ĠFour":8202,"Ġmyself":8203,"Ġdetailed":8204,"yes":8205,"ĠKent":8206,"Ġimproved":8207,"phas":8208,"widget":8209,"ĠMake":8210,"Ġunsigned":8211,"anna":8212,"Ġwww":8213,"Ġweekend":8214,"Rule":8215,"Ġexplained":8216,"sql":8217,"Then":8218,"Ġguarant":8219,"Ġcold":8220,"uple":8221,"Ġancient":8222,"Ġbytes":8223,"Ġinn":8224,"ĠEq":8225,"operator":8226,";\"":8227,"Ġinfrastructure":8228,"inating":8229,"ERS":8230,"ĠWis":8231,"icons":8232,"Ġthanks":8233,"ĠControl":8234,"olver":8235,"ego":8236,"Ġexpressed":8237,"ĠCur":8238,"initely":8239,"Ġcolon":8240,")\"":8241,"High":8242,"Ġrecon":8243,"1977":8244,"ickets":8245,"Ġ&=":8246,"idae":8247,"ĠOx":8248,"ĠHa":8249,"Ġsecure":8250,"Ġreform":8251,"Posted":8252,"ĠBiden":8253,"plex":8254,";\\":8255,"iliar":8256,"Definition":8257,"Ġtechniques":8258,"Ġspeak":8259,"lyn":8260,"Ġinstitutions":8261,"?\"":8262,"Ġbehavi":8263,"ĠOnt":8264,"copy":8265,"ĠAI":8266,"English":8267,"cut":8268,")-":8269,"inant":8270,"idential":8271,"ĠTrust":8272,"Ġfilename":8273,"Ġwinter":8274,"AME":8275,"Ġspend":8276,"Ġà¤":8277,"ression":8278,"Ġinvoke":8279,"Ġcas":8280,"Ġsupports":8281,"cuss":8282,"Aust":8283,"ĠRay":8284,"ĠRen":8285,"Ġpieces":8286,"Ġcollected":8287,"component":8288,"Ġsqu":8289,"pan":8290,"Previous":8291,"Ġaccepted":8292,"Ġcreative":8293,"named":8294,"Ġjav":8295,"stra":8296,"Ġzone":8297,"Av":8298,"Ġscientific":8299,"plugin":8300,"Args":8301,"Ġdiss":8302,"Network":8303,"Custom":8304,"Ġconsistent":8305,"isa":8306,"widet":8307,"onavirus":8308,"Ġboost":8309,"Ġsuccessfully":8310,"roke":8311,">.":8312,"ĠIT":8313,"ĠDar":8314,"settings":8315,"achus":8316,"ogy":8317,"Ġreplace":8318,"1973":8319,"Ġnice":8320,"night":8321,"Ġkid":8322,"Enabled":8323,"gebra":8324,"Ġdefend":8325,"Ġends":8326,"Ġuniform":8327,"emon":8328,"arters":8329,"National":8330,"Storage":8331,"1968":8332,"zz":8333,"Ġven":8334,"ĠLook":8335,"ĠMcC":8336,"Ġroles":8337,"Ð°Ð":8338,"Ġvideos":8339,"........":8340,"ECT":8341,"eral":8342,"Ġbelieved":8343,"Ġtrigger":8344,"buf":8345,"Public":8346,"Ġpurposes":8347,"ĠEst":8348,"Ġexpos":8349,"Second":8350,"Ġparticipants":8351,"Ġholding":8352,"\\[":8353,"rie":8354,"centering":8355,"ĠAsh":8356,"GS":8357,"itu":8358,"Ġcycle":8359,"Ġwarn":8360,"inity":8361,"Ġmand":8362,"ĠAccess":8363,"asters":8364,"Ġintegr":8365,"Ġbond":8366,"ĠError":8367,"ĠSeason":8368,"pton":8369,"`,":8370,"Ġera":8371,"DL":8372,"ĠJSON":8373,"Ġkick":8374,"Ġcommitted":8375,"pled":8376,"fol":8377,"Ġbrowser":8378,"Ġdirectory":8379,"----------------------------------------------------------------":8380,"ĠUpdate":8381,"Ġsufficient":8382,"Ġcouncil":8383,"register":8384,"avor":8385,"Ġpolitician":8386,"etts":8387,"Ġplanned":8388,"mo":8389,"Ġexplore":8390,"ĠGre":8391,"Ġflat":8392,"BR":8393,"AF":8394,"ĠSpec":8395,"iration":8396,"Ġfreedom":8397,"ĠBoy":8398,"admin":8399,"mic":8400,"Two":8401,"Ġdress":8402,"apore":8403,"ĠSus":8404,"Ġanimal":8405,"ĠTerm":8406,"axy":8407,"Ġactors":8408,"Ġdecisions":8409,"Ġarrived":8410,"Ġgender":8411,"je":8412,"Early":8413,"cloud":8414,"rovers":8415,"Ġfaith":8416,"Ġindustrial":8417,"ĠEgypt":8418,"Exp":8419,"tabular":8420,"ĠBern":8421,"ivation":8422,"ga":8423,"Scope":8424,"udden":8425,"unct":8426,"uilt":8427,"Ġsubst":8428,"Ġassociation":8429,"BE":8430,"Ġturns":8431,"Ġteacher":8432,"Tube":8433,"Ġapproved":8434,"Ġsuggested":8435,"ĠBroad":8436,"Ġinner":8437,"Ġexcellent":8438,"Ġtele":8439,"wa":8440,"itutional":8441,"adoop":8442,"Just":8443,"vin":8444,"Ġsmooth":8445,"PER":8446,"ĠScotland":8447,"unny":8448,"Ġposted":8449,"SSERT":8450,"Pattern":8451,"IVE":8452,"ĠPrime":8453,"Ġthank":8454,"Ġtruly":8455,"oral":8456,"Ġos":8457,"Ġsand":8458,"ĠThree":8459,"widetilde":8460,"ĠPR":8461,"avid":8462,"etes":8463,"Ġarmy":8464,"Show":8465,"outs":8466,"Ġcommittee":8467,"merce":8468,"Ġathlet":8469,"Ġabsolute":8470,"ĠPakistan":8471,"Ġregul":8472,"ĠSaf":8473,"ĠFull":8474,"ĠCro":8475,"master":8476,"Ġhappens":8477,"Debug":8478,"profile":8479,"Ġneighborhood":8480,"Ġconsole":8481,"urd":8482,"Ġreceiving":8483,"Ġguy":8484,"Ã±":8485,"}]":8486,"arc":8487,"ussian":8488,"home":8489,"alid":8490,"Ġincreases":8491,"ĠRod":8492,"opl":8493,"Ġsympt":8494,"Ġclassic":8495,"Ġmuseum":8496,"panel":8497,"ĠCommon":8498,"160":8499,"Byte":8500,"virtual":8501,"Ġ(*":8502,"Äĩ":8503,"onia":8504,"entity":8505,"Ġprepared":8506,"ĠWilson":8507,"operation":8508,"omorph":8509,"Ġodd":8510,"Ġlies":8511,"ĠSep":8512,"Ġcircum":8513,"Ġhotel":8514,"equiv":8515,"Ġtreated":8516,"Ġ×":8517,"Ġmovies":8518,"Ġprovider":8519,"Ġinspired":8520,"ĠChair":8521,"ĠNext":8522,"ĠHard":8523,"ĠObama":8524,"Ġrough":8525,"Descriptor":8526,"dependent":8527,"ĠNon":8528,"Ġbridge":8529,"framework":8530,"ĠFox":8531,"ĠCustom":8532,"Ġincident":8533,"unately":8534,"ĠKorea":8535,"screen":8536,"Ġexperienced":8537,"Ġvisible":8538,"ermal":8539,"Ġblocks":8540,"ĠPhilipp":8541,"Ġpra":8542,"Media":8543,"ĠLatin":8544,"organ":8545,"uous":8546,"Copy":8547,"prene":8548,"Ġauthorities":8549,"ĠPath":8550,"Ġtwice":8551,"Ġwaiting":8552,"}+":8553,"Ġboundary":8554,"application":8555,"Ġvaccine":8556,"Ġupdates":8557,"Var":8558,"Ġhomes":8559,"ĠRog":8560,"essions":8561,"Ġopinion":8562,"1971":8563,"Ġ),":8564,"yo":8565,"ĠPrince":8566,"Ġnuclear":8567,"Ġinteraction":8568,"ARY":8569,"1940":8570,"Ġalloc":8571,"ĠExper":8572,"roud":8573,"Ġengineering":8574,"!âĢĿ":8575,"hentication":8576,"ĠNumber":8577,"ĠCirc":8578,"Ġaccident":8579,"Ġ<=":8580,"Ġmanage":8581,"Wrap":8582,"achusetts":8583,"ugby":8584,"anth":8585,"Ġterror":8586,"indent":8587,"1969":8588,"Delete":8589,"Ġderived":8590,"Ġurban":8591,"DT":8592,"ĠVill":8593,"Ġteaching":8594,"Ġfigures":8595,"Ġattributes":8596,"ĠEdward":8597,"ĠHTML":8598,"orough":8599,"yard":8600,"Ġalongside":8601,"fil":8602,"Ġincred":8603,"reprene":8604,"Ġraw":8605,"Boolean":8606,"Ġpeace":8607,"eld":8608,"igin":8609,"ĠAk":8610,"Ġspecifically":8611,"Ġtechnologies":8612,"ĠMinistry":8613,"uality":8614,"ĠArea":8615,"Nov":8616,"BUG":8617,"adelph":8618,"double":8619,"Ġplane":8620,"items":8621,"Ġmedium":8622,"attribute":8623,"occer":8624,"ĠEmpire":8625,"ĠWatch":8626,"ĠBad":8627,"Gen":8628,"fire":8629,"256":8630,"Ġliber":8631,"Ġinstalled":8632,"oir":8633,"chain":8634,"ĠSom":8635,"olt":8636,"MENT":8637,"Ġspons":8638,"Ġearned":8639,"Ġamazing":8640,"ĠChildren":8641,"101":8642,"Ġcash":8643,"Ġmac":8644,"raq":8645,"angular":8646,"ĠChampionships":8647,"Ġbrings":8648,"acket":8649,"Fields":8650,"Ġwitness":8651,"owa":8652,"ĠAirport":8653,"Register":8654,"1930":8655,"isc":8656,"ĠHas":8657,"ROM":8658,"cup":8659,"ĠStory":8660,"Mock":8661,"ori":8662,"ĠSche":8663,"Ġawards":8664,"ependence":8665,"ĠMajor":8666,"ĠKenn":8667,"ĠSteve":8668,"Cap":8669,"shall":8670,"Ġelev":8671,"Icon":8672,"\\!":8673,"Ġcart":8674,"shape":8675,"andra":8676,"ĠFair":8677,"ĠVideo":8678,"Editor":8679,"ĠPay":8680,"sid":8681,"ĠTem":8682,"Ġtopic":8683,"Ġmenu":8684,"Ġextr":8685,"rine":8686,"lix":8687,"Ġwatching":8688,"ĠPhot":8689,"Ġemphas":8690,"atar":8691,"ĠMir":8692,"teen":8693,"Ġinstrument":8694,"ĠGuard":8695,"Ġrelationships":8696,"ĠSupreme":8697,"Ġassigned":8698,"Ġfactory":8699,"Ġfinds":8700,"Ġinternet":8701,"Windows":8702,"ses":8703,"ulner":8704,"eting":8705,"Ġseemed":8706,"Ġmock":8707,"ĠAndroid":8708,"OO":8709,"Ġreader":8710,"ĠEastern":8711,"Ġagric":8712,"Ġhonor":8713,"unsigned":8714,"Ġprofessor":8715,"ĠOnline":8716,"Psi":8717,"}\"":8718,"Ġsubstant":8719,"Video":8720,"padding":8721,"Ġfeaturing":8722,"ĠOntario":8723,"Ġresearchers":8724,"Ġachieved":8725,"=\"../../../":8726,"Ġjustice":8727,"ĠHu":8728,"Spe":8729,"Ġcauses":8730,"Ġdir":8731,"Ġperman":8732,"ĠStation":8733,"Ġsynt":8734,"Ġaccomp":8735,"tn":8736,"Ġgrew":8737,"ĠPlease":8738,"ĠFunction":8739,"adelphia":8740,"world":8741,"###":8742,"ĠBattle":8743,"Ġemergency":8744,"points":8745,"ĠTask":8746,"Ġtested":8747,"ologist":8748,"fast":8749,"Ġmsg":8750,"ango":8751,"ICE":8752,"Ġwestern":8753,"ami":8754,"doi":8755,"Ġment":8756,"eria":8757,"ĠCas":8758,"amber":8759,"bul":8760,"Ġbow":8761,"brid":8762,"Ġjson":8763,"ĠMinnesota":8764,"ĠRon":8765,"ĠBell":8766,"uby":8767,"Ġhyper":8768,"Ġmort":8769,"exception":8770,"ĠVersion":8771,"ĠLabor":8772,"stat":8773,"umin":8774,"Ġacid":8775,"Ġrequests":8776,"ais":8777,"Ġadvice":8778,"Ġbright":8779,"ervative":8780,"DIR":8781,"Ġpure":8782,"Ġhandler":8783,"âĤ¬":8784,"Ġwouldn":8785,"Ġcollaboration":8786,"Ġplatforms":8787,"insert":8788,"Ġphotos":8789,"bro":8790,"Ġeasier":8791,"Ġhistoric":8792,"Ġexplain":8793,"RC":8794,"bad":8795,"ĠGovernor":8796,"Ġenabled":8797,"ensure":8798,"oret":8799,"LOG":8800,"Ġwidely":8801,"ĠBooks":8802,"FAULT":8803,"Ġrecognized":8804,"Ġfighting":8805,"ĠMember":8806,"Ġinvent":8807,"Ġconsumer":8808,"izz":8809,"Ġestate":8810,"Ġskin":8811,"Ġsides":8812,"]]":8813,"'))":8814,"Ġprimarily":8815,"Ġhouses":8816,"_->":8817,"Ġhearing":8818,"Ġmel":8819,"ĠClin":8820,"icing":8821,"Classes":8822,"ĠHong":8823,"Ġstorm":8824,"comment":8825,"Ġsharing":8826,"Ġpossibly":8827,"Ġtasks":8828,"Ġacting":8829,"alloc":8830,"ostic":8831,"1920":8832,"Ġpassing":8833,"Ġentertain":8834,"Ġsecondary":8835,"ĠIndex":8836,"INFO":8837,"duced":8838,"Ġcomedy":8839,"ĠProcess":8840,"Ġauthority":8841,"Ġpromin":8842,"Ġvocals":8843,"ĠCommunic":8844,"Bit":8845,"Ġearn":8846,"inton":8847,"\\{":8848,"worth":8849,"Initial":8850,"Ġmeasured":8851,"Ġrecip":8852,"rizona":8853,"Ġlicens":8854,"FS":8855,"Ġlay":8856,"ĠSoviet":8857,"ĠElizabeth":8858,".âĢĻ":8859,"regon":8860,"ĠWrit":8861,"Ġ'/":8862,"1945":8863,"Ġvolunte":8864,"wp":8865,"ĠIl":8866,"ĠHistoric":8867,"cred":8868,"ĠAS":8869,"erg":8870,"1967":8871,"Ġguard":8872,"Ġclassical":8873,"kes":8874,"Ġcensus":8875,"Ġnewly":8876,"Ġmarked":8877,"ĠViet":8878,"ĠLy":8879,"ĠUt":8880,"aren":8881,"category":8882,"_,":8883,"Ġbringing":8884,"unting":8885,"ĠNFL":8886,"Ġscholar":8887,"Ġlargely":8888,"Ġfinite":8889,"acts":8890,"Publ":8891,"Ġmil":8892,")/":8893,"Ġsettlement":8894,"ĠCorporation":8895,"EC":8896,"âĢ¦âĢ¦":8897,"Ġacquired":8898,"Ġsuggests":8899,"Rest":8900,"Phone":8901,"__(":8902,"isted":8903,"ĠUnivers":8904,"Ġdynamic":8905,"Main":8906,"ĠBon":8907,"Ġvary":8908,"Ġestimate":8909,"ĠElement":8910,"Notes":8911,"Send":8912,"fall":8913,"mi":8914,"Tests":8915,"wait":8916,"ĠColumbia":8917,"Ä±":8918,"forcement":8919,"ĠSem":8920,"aph":8921,"Ġoccurs":8922,"Ġordered":8923,"Tab":8924,"Ġreporting":8925,"ĠAli":8926,"Ġacknow":8927,"ĠEC":8928,"elegate":8929,"ods":8930,"Ġfilled":8931,"->_":8932,"Ġshares":8933,"Ġmanner":8934,"dependency":8935,"ĠComput":8936,"effect":8937,"Job":8938,"Ġreduction":8939,"ĠExecutive":8940,"hadoop":8941,"van":8942,"ennes":8943,"ĠCreek":8944,"ĠSpring":8945,"Symbol":8946,"Full":8947,"Ġadj":8948,"amental":8949,"dict":8950,"ĠTR":8951,"Internal":8952,"irms":8953,"Ġing":8954,"Ġformal":8955,"Ġguess":8956,"inv":8957,"-->":8958,"KEY":8959,"Ġok":8960,"HECK":8961,"Display":8962,"ĠForest":8963,"Ġpromote":8964,"Ġconfirm":8965,"Ġindicate":8966,"Ġpassion":8967,"Ġapart":8968,"linear":8969,"initial":8970,"Ġrepeated":8971,"Feature":8972,"ĠOnce":8973,"bling":8974,"avity":8975,"Ġexperts":8976,"anner":8977,"ĠToronto":8978,"Ġcaught":8979,"ĠAlb":8980,"Ġkeeping":8981,"Ġorders":8982,"Ġestablishments":8983,"Active":8984,"upload":8985,"zeta":8986,"ĠAnother":8987,"lemma":8988,"Ġatmosph":8989,"Rad":8990,"region":8991,"ĠLew":8992,"Del":8993,"LP":8994,"}=\\":8995,"Ġloop":8996,"Ġ${":8997,"Ġcampus":8998,"grid":8999,"Ġtypical":9000,"VD":9001,"ĠCost":9002,"Ñı":9003,"Ġexistence":9004,"Ġshooting":9005,"ĠHamilton":9006,"ĠRepresent":9007,"Ġacceler":9008,"ython":9009,"Ġafford":9010,"ĠKnow":9011,"ĠCat":9012,"Ġmal":9013,"Ġgrid":9014,"Ġnearby":9015,"iti":9016,"Ġoperators":9017,"ĠPen":9018,"ĠEs":9019,"Ġcharges":9020,"Pool":9021,"Ġautomatically":9022,"ĠColorado":9023,"ĠTam":9024,"Ġloved":9025,"aga":9026,"ĠPers":9027,"Ġplanet":9028,"ĠChen":9029,"mock":9030,"Ġentirely":9031,"GA":9032,"HTML":9033,"outer":9034,"Ġaccounts":9035,"Ġdomestic":9036,"ipality":9037,"ĠBa":9038,"Ġcookies":9039,"Ġaspects":9040,"Ġdepends":9041,"seud":9042,";/":9043,"ĠAz":9044,"Ġadm":9045,"Ġepisodes":9046,"Ġrent":9047,"ĠDefault":9048,"Ġrepresenting":9049,"Ġsimpl":9050,"ownt":9051,"ĠBal":9052,"Ġprivacy":9053,"Ġevening":9054,"Ġsurrounding":9055,"ĠMatt":9056,"ocker":9057,"GR":9058,"128":9059,"chor":9060,"Ġmir":9061,"Dem":9062,"ĠPortug":9063,"Ġton":9064,"tics":9065,"ĠDutch":9066,"Ġrenew":9067,"Ġtruck":9068,"Ġconstructed":9069,"SION":9070,"ĪĴ":9071,"Ġcycl":9072,"Ġcompr":9073,"ĠSant":9074,"abb":9075,"ĠHou":9076,"ĠMassachusetts":9077,"issue":9078,"ĠSearch":9079,"ĠSym":9080,"Ġyards":9081,"install":9082,"Ġ{};":9083,"Ġmaps":9084,"Ġcoal":9085,"Ġinstanceof":9086,"raham":9087,"110":9088,"possible":9089,"%.":9090,"protobuf":9091,"Ġliqu":9092,"ĠAnth":9093,"Ġsemi":9094,"Ġdelivered":9095,"Ġcapture":9096,"ĠJean":9097,"gov":9098,"Ġcos":9099,"Timeout":9100,"Ġmodified":9101,"ications":9102,"ĠDeb":9103,"ĠBit":9104,"1964":9105,"Ġspending":9106,"consin":9107,"law":9108,"ĠRos":9109,"auto":9110,"Ġcontribution":9111,"ordan":9112,"Ġcompare":9113,"Ġsupposed":9114,"Ġbass":9115,"enant":9116,"Ġcontained":9117,"\\]":9118,"adesh":9119,"erial":9120,"osophy":9121,"Ġnegot":9122,"clip":9123,"Obj":9124,"ĠTy":9125,"Ġpayment":9126,"islation":9127,"short":9128,"Ġserves":9129,"Ġsounds":9130,"Ġspectrum":9131,"*)":9132,"Ġlanguages":9133,"NotNull":9134,"Ġalleged":9135,"shop":9136,"footer":9137,"Ġfavour":9138,"andy":9139,"Many":9140,"special":9141,"oor":9142,"olis":9143,"Ġideal":9144,"Ġseed":9145,"ĠAvenue":9146,"heim":9147,"door":9148,"ulpt":9149,"Queue":9150,"Ġoptional":9151,"ĠInstagram":9152,"Ġgar":9153,"margin":9154,"ruption":9155,"ĠNick":9156,"vm":9157,"Extension":9158,"uma":9159,"structions":9160,"Ġwealth":9161,"Ġpatterns":9162,"Ġhealthy":9163,"ancel":9164,"hu":9165,"~~~~":9166,"iples":9167,"ulating":9168,"Ġsquad":9169,"Ġurg":9170,"bles":9171,"Ġdoubt":9172,"Ġcancell":9173,"Ġworldwide":9174,"Ġinteger":9175,"ĠExpl":9176,"Ġchannels":9177,"ĠSon":9178,"fony":9179,"Ġreaction":9180,"Ġ\"/":9181,"ailing":9182,"Ġexport":9183,"Ġcrowd":9184,"Ġdropped":9185,"Ġpriv":9186,"Ġshock":9187,"Ġhabit":9188,"Ġschedule":9189,"1965":9190,"Ġheav":9191,"ĠVen":9192,"Ġsnow":9193,"Ġcharged":9194,"ĠCountry":9195,"ĠDam":9196,"ĠAgain":9197,"tainment":9198,"Global":9199,"Ġjump":9200,"Ġacts":9201,"ĠArg":9202,"ĠLtd":9203,"ĠThrough":9204,"ydney":9205,"tenance":9206,"Ġconven":9207,"Ġstrike":9208,"Ġdetection":9209,"Ġdefeated":9210,"inline":9211,"Ġtitles":9212,"aska":9213,"Every":9214,"Ġcompre":9215,"scious":9216,"Events":9217,"gover":9218,"creen":9219,"rase":9220,"Ġsac":9221,"ĠAge":9222,"ĠAT":9223,"Ġstatistics":9224,"ĠFC":9225,"Ġdecade":9226,"estion":9227,"Ġidx":9228,"ĠCase":9229,"ogether":9230,"Ġdepending":9231,"ĠStaff":9232,"Ins":9233,"Ġmach":9234,"zone":9235,"ĠTurn":9236,"Ġdemocr":9237,"network":9238,"ĠFac":9239,"Ġbroken":9240,"PP":9241,"Ġwat":9242,"Ġtor":9243,"ĠVAL":9244,"hell":9245,"engers":9246,"Runtime":9247,"ĠSanta":9248,"Widget":9249,"Ġswe":9250,"ĠDisney":9251,"Ġwins":9252,"Ġrevenue":9253,"Ġprocedure":9254,"Ġstores":9255,"irement":9256,"Ġintelligence":9257,"jar":9258,"Ġpersonnel":9259,"notation":9260,"ODO":9261,"Ġinterests":9262,"ĠFre":9263,"Ġabstract":9264,"Ġce":9265,"opher":9266,"aki":9267,"Ġlinked":9268,"$)":9269,"Ġassets":9270,"Ġnarrow":9271,"ĠRegion":9272,"Changed":9273,"Å¡":9274,"Ġfifth":9275,"Ġlosing":9276,"Ġperspective":9277,"roit":9278,"Ġfeels":9279,"ĠFalse":9280,")=\\":9281,"University":9282,"icity":9283,"ureau":9284,"Ġconsidering":9285,"Ġstopped":9286,"Ġcontrols":9287,"His":9288,"Ġtherapy":9289,"Sym":9290,"gence":9291,"NOT":9292,"Ġlose":9293,"Ġlit":9294,"ĠIslands":9295,"sin":9296,"pa":9297,"king":9298,"Ġminute":9299,"deg":9300,"icious":9301,"Ġdoctor":9302,"ells":9303,"erves":9304,"Ġportion":9305,"Ġdimension":9306,"ĠYouTube":9307,")^{":9308,"Åį":9309,"??":9310,"Ġpoliticians":9311,"gers":9312,"season":9313,"toggle":9314,".*":9315,"ĠDavis":9316,"ĠIss":9317,"HR":9318,"ynamic":9319,"Ġongoing":9320,"Ġindicates":9321,"ĠIraq":9322,"ĠAD":9323,"Ret":9324,"ĠMill":9325,"ĠScholar":9326,"Ġsigns":9327,"ĠEconomic":9328,"ĠSoftware":9329,"Ġapproaches":9330,"ĠProvince":9331,"Ġminister":9332,"ĠAud":9333,"Ġguys":9334,"Ġresponsibility":9335,"enses":9336,"ifts":9337,"rops":9338,"Ġeat":9339,"ĠDu":9340,"Channel":9341,"ĠSat":9342,"sex":9343,"cam":9344,"Ġwa":9345,"assertEquals":9346,"Float":9347,"Ġdefinitely":9348,"Ġfamiliar":9349,"ĠBerlin":9350,"omy":9351,"month":9352,"Figure":9353,"cmd":9354,"rames":9355,"Ġpeak":9356,"oured":9357,"addr":9358,"record":9359,"Ġstanding":9360,"Ġexpanded":9361,"Ġdry":9362,"Lock":9363,"ĠĠĠĠĠĠĠĠĠĠĠĠĠĠĠĠĠĠĠĠĠĠĠĠ":9364,"ician":9365,"Ġrural":9366,"cohol":9367,"Database":9368,"ĠImage":9369,"low":9370,"ĠMO":9371,"een":9372,"important":9373,"Ġpublication":9374,"Ġadopted":9375,"ĠLow":9376,"Ġexperimental":9377,"ĠFuture":9378,"lyph":9379,"Most":9380,"ĠEll":9381,"atible":9382,"agues":9383,"ĠĠĠĠĠĠĠĠĠĠĠĠĠĠĠĠĠĠĠĠĠĠĠĠĠ":9384,"ĠMS":9385,"PORT":9386,"entials":9387,"annotation":9388,"ĠSingapore":9389,"Ġstored":9390,"edit":9391,"1966":9392,"ĠBall":9393,"game":9394,"Ġimplemented":9395,"ĠAnton":9396,"Ġprev":9397,"ĠWars":9398,"ĠON":9399,"ONE":9400,"Ġveg":9401,"events":9402,"Ġmagnetic":9403,"ĠPRO":9404,"Ġcorporate":9405,"ĠKir":9406,"Ġarts":9407,"Ġcloser":9408,"ĠParam":9409,"Ġclubs":9410,"Ġexcited":9411,"WN":9412,"family":9413,"edu":9414,"ĠJava":9415,"ĠConnect":9416,"Dialog":9417,"Ġconnections":9418,"ika":9419,"lights":9420,"PAR":9421,"Ġsam":9422,"ben":9423,"ĠCru":9424,"Ġdeleg":9425,"Attributes":9426,"Ġtech":9427,"ĠOfficer":9428,"Ġcontrovers":9429,"rog":9430,"Ġped":9431,"Ġrailway":9432,"Ġstable":9433,"iac":9434,"LIC":9435,"Package":9436,"rove":9437,"Ġcontrolled":9438,"Cast":9439,"ĠjQuery":9440,"Ġrecall":9441,"^+":9442,")}\\":9443,"////////////////////////////////":9444,"olid":9445,"Ġfounder":9446,"hensive":9447,"_(":9448,"Ġthick":9449,"Ġcontributions":9450,"Ġteachers":9451,"Ġaccuracy":9452,"Ġcovers":9453,"Ġdrivers":9454,"radius":9455,"Ġgreatest":9456,"Â©":9457,"Ġsudden":9458,"typeof":9459,"Ġreaders":9460,"Background":9461,"pson":9462,"Ġfiled":9463,"otted":9464,"Where":9465,"Ġelectronic":9466,"ipl":9467,"dimensional":9468,"ĠChange":9469,"Ġyounger":9470,"ulator":9471,"Further":9472,"Ġentr":9473,"[:":9474,"Ġdiam":9475,"Ġcontemporary":9476,"Ġrestaurant":9477,";<":9478,"ferred":9479,"Ġspan":9480,"Free":9481,"Ġcommonly":9482,"à¸":9483,"Ġships":9484,"Ġvotes":9485,"ĠTok":9486,"Ġinsurance":9487,"Ġresc":9488,"ĠHom":9489,"itled":9490,"Section":9491,"Ġadult":9492,"FILE":9493,"Auth":9494,"Ġec":9495,"spring":9496,"thur":9497,"ĠOxford":9498,"Ġng":9499,"YPE":9500,"Ġstrategies":9501,"Ġefficiency":9502,"ĠGa":9503,"Ġlegisl":9504,"HL":9505,"enum":9506,"Ġwallet":9507,"Ġveter":9508,"Ġrecognition":9509,"ĠUsing":9510,"Ġescape":9511,"ĠOregon":9512,"impl":9513,"eman":9514,"\")]":9515,"bserv":9516,"Ġstands":9517,"Ġassessment":9518,"Ġvertical":9519,"Ġbelief":9520,"MAX":9521,"ĠRyan":9522,"News":9523,"Ġconsumers":9524,"Ġinvestors":9525,"help":9526,"Bi":9527,"Ġtum":9528,"ĠRaj":9529,"Ġsoul":9530,"Ġreturning":9531,"lay":9532,"Ġprogramme":9533,"ĠGreg":9534,"Ġwhatever":9535,"super":9536,"Ġscheduled":9537,"ĠVictoria":9538,"printf":9539,"ĠOtt":9540,"=\"/":9541,"password":9542,"aron":9543,"ipped":9544,"GO":9545,"Ġrecovery":9546,"ĠMiller":9547,"Ġjudge":9548,"Ġconfidence":9549,"called":9550,"news":9551,"Ġreserved":9552,"Ġadults":9553,"Ġdeclared":9554,"Ġdrugs":9555,"ĠBand":9556,"ĠCopyright":9557,"South":9558,"bel":9559,"assertEqual":9560,"ĠChannel":9561,"Ġmechanism":9562,"ĠPhiladelphia":9563,"Ġusual":9564,"Ġapplicable":9565,"Ġbaseball":9566,"Transaction":9567,"ï¼":9568,"Ġcoeff":9569,"Ã£":9570,"ĠGets":9571,"Ġsilver":9572,"ĠAlexander":9573,"Ġdialog":9574,")))":9575,"lik":9576,"ĠOfficial":9577,"lan":9578,"Ġtail":9579,"each":9580,"oval":9581,"Ġsevere":9582,"Ġcab":9583,"Func":9584,"Ġdegrees":9585,"Ġaid":9586,"Ġcontinuous":9587,"aret":9588,"Ġfaster":9589,"Ġsubstantial":9590,"Ġstatements":9591,"achment":9592,"ĠCommand":9593,"ĠFord":9594,"elli":9595,"Ġarms":9596,"Ġfindings":9597,"ĠOs":9598,"ederation":9599,"Ġspl":9600,"Ġhumans":9601,"Character":9602,"akh":9603,"SIZE":9604,"Ġunable":9605,"Pres":9606,"ĠWat":9607,"RS":9608,"Ġfat":9609,"Ġvulner":9610,"Ġdispl":9611,"Ġperforming":9612,"Look":9613,"ĠPA":9614,"scribe":9615,"Ġstreets":9616,"ĠBol":9617,"Ġunderst":9618,"istical":9619,"Photo":9620,"ĠStephen":9621,"ĠHo":9622,"Ġultimately":9623,"General":9624,"Ġagents":9625,"fold":9626,"Ġwire":9627,"Ġfrequently":9628,"children":9629,"Ġoperated":9630,"fix":9631,"Ġawait":9632,"Ġmountain":9633,"folio":9634,"ycl":9635,"widehat":9636,"Ġdestination":9637,"cdots":9638,"defined":9639,"ĠTheorem":9640,"ĠAdam":9641,"anz":9642,"ĠCook":9643,"Ġorient":9644,"United":9645,"Ġhtml":9646,"ĠBBC":9647,"Ġwaves":9648,"ĠArizona":9649,"atern":9650,"Ġswim":9651,"Ġdiverse":9652,"ĠShort":9653,"ĠWhere":9654,"abric":9655,"Ġwear":9656,"ĠPoland":9657,"ĠHay":9658,"ĠGolden":9659,"fly":9660,"ĠCreat":9661,"thm":9662,"letion":9663,"dropdown":9664,"Ġarrested":9665,"Ġbuilder":9666,"also":9667,"Ġfly":9668,"txt":9669,"ĠBefore":9670,"ĠBrad":9671,"ĠTech":9672,"ugs":9673,"Ġcraft":9674,"Ġprogramming":9675,"etherlands":9676,"Ġuncertain":9677,"ĠNode":9678,"irth":9679,"Ġalter":9680,"Ġorganized":9681,"Ġpregn":9682,"Ġfiction":9683,"ailability":9684,"Files":9685,"ĠPut":9686,"redit":9687,"Ġremark":9688,"tip":9689,"Ġcontest":9690,".__":9691,"Ġdivided":9692,"VE":9693,":#":9694,"Writ":9695,"ĠSC":9696,"Ġsymptoms":9697,"twitter":9698,"Ġprospect":9699,"arry":9700,"Ġhaven":9701,"selected":9702,"Account":9703,"Ġsoldiers":9704,"READ":9705,"utely":9706,"Play":9707,"Ġtrained":9708,"Ġresistance":9709,"green":9710,"{{\\":9711,"ĠDonald":9712,"Ġ[];":9713,"\",\"":9714,"Ġexperiments":9715,"Ġarbit":9716,"Ġbodies":9717,"]:":9718,"Selector":9719,"STAT":9720,"(!":9721,"Associ":9722,"adr":9723,"Ġpromise":9724,"ĠRose":9725,"qquad":9726,"Ġstone":9727,"schema":9728,"ĠAh":9729,"Ġ\"\"":9730,"Ġcomposed":9731,"Ġabsor":9732,"Ġretired":9733,"ĠProduct":9734,"Christ":9735,"Ġsignature":9736,"{(":9737,"mediate":9738,"Ġgoods":9739,"Ġweapons":9740,"Ġbattery":9741,"Cond":9742,"Ġtypename":9743,"Ġtack":9744,"wall":9745,"typed":9746,"assets":9747,"ĠLev":9748,"sur":9749,"JSON":9750,"Ġadmin":9751,"Arch":9752,"uv":9753,"Ġgranted":9754,"Ġsections":9755,"Ġstret":9756,"Ġseeking":9757,"Oct":9758,"shift":9759,"Ġlayout":9760,"ĠRight":9761,"ourse":9762,"JECT":9763,"UID":9764,"ĠFOR":9765,"Ġending":9766,"inch":9767,"âĢĻ,":9768,"plus":9769,"ĠPot":9770,"Ġjavax":9771,"Ġcategories":9772,"uable":9773,"Ġeducational":9774,"jpg":9775,"ERE":9776,"indu":9777,"Brit":9778,"Ġtransformation":9779,"none":9780,"Ġsummary":9781,"ĠMagazine":9782,"bourne":9783,"Ġscal":9784,"thread":9785,"ĠDead":9786,"itis":9787,"asm":9788,"Ġmoments":9789,"Under":9790,"ĠHarry":9791,"unes":9792,"NT":9793,"Init":9794,"ĠRome":9795,"\">&":9796,"Msg":9797,"Ġtight":9798,"ĠDaily":9799,"Ġlimits":9800,"auge":9801,"ĠRa":9802,"agg":9803,"late":9804,"Ġextent":9805,"scroll":9806,"Ġrecommended":9807,"ĠĠĠĠĠĠĠĠĠĠĠĠĠĠĠĠĠĠĠĠĠĠĠĠĠĠĠĠĠĠĠĠĠĠĠĠĠĠĠĠĠĠĠĠĠĠĠĠĠĠĠĠĠĠĠĠĠĠĠĠĠĠĠĠ":9808,"Ġcoff":9809,"Ġkit":9810,"Ġconversation":9811,"Ġseats":9812,"hard":9813,"Ġcle":9814,"ĠWisconsin":9815,"Bas":9816,"results":9817,"Prop":9818,"iley":9819,"OM":9820,"Ġangle":9821,"Ġfn":9822,"ĠArm":9823,"}^{(":9824,"ounsel":9825,"Ġdescribes":9826,"ĠØ":9827,"Ġextensive":9828,"omial":9829,"ĠFind":9830,"unter":9831,"IGHT":9832,"ĠMarg":9833,"ĠWinter":9834,"Ag":9835,"xspace":9836,"sem":9837,"ĠPsych":9838,"ĠDark":9839,"Ġsetup":9840,"@\"":9841,"Ġlie":9842,"ĠHung":9843,"matrix":9844,"ĠMountain":9845,"Ġcref":9846,"Ġclosely":9847,"Ġinvolving":9848,"ĠTransport":9849,"save":9850,"Ġio":9851,"Ġextend":9852,"argument":9853,"ĠAdministration":9854,"ĠCP":9855,"eric":9856,"iversary":9857,"Ġnut":9858,"Ġusage":9859,"Ġexceed":9860,"bell":9861,"CF":9862,"iated":9863,"!\"":9864,"1963":9865,"ĠResource":9866,".~":9867,"ĠMD":9868,"Ġelectron":9869,"imit":9870,"Ġdeploy":9871,"Ġgap":9872,"Abstract":9873,"ĠDiego":9874,"Term":9875,"queue":9876,"Ġinvalid":9877,"Ġbrands":9878,"Transform":9879,"black":9880,"ĠFA":9881,"Ġexecution":9882,")\">":9883,"Ġinstant":9884,"ĠBru":9885,"\"`":9886,"flags":9887,"Ġ(_":9888,"arring":9889,"ĠDespite":9890,"Ġoccasion":9891,"Ġobservations":9892,"abil":9893,"ĠDeath":9894,"Ġduration":9895,"domain":9896,"Ġnewspaper":9897,"ĠCurrent":9898,")).":9899,"ĠBrian":9900,"Ġputting":9901,"izable":9902,"Items":9903,"Ġhosted":9904,"Ġcards":9905,"Ġexit":9906,"Ġperformances":9907,"Ġbaby":9908,"ĠGer":9909,"ĠManager":9910,"Ġfee":9911,"Ġhundreds":9912,"Ġassistant":9913,"hy":9914,"ĠÂ©":9915,"Ġbought":9916,"Ġgene":9917,"ibli":9918,"agu":9919,"()));":9920,"move":9921,"Ġattempts":9922,"Elements":9923,"Ġvisitors":9924,"Ġtopics":9925,"1962":9926,"udes":9927,"ĠOption":9928,"}|":9929,"sky":9930,"ĠStadium":9931,"norm":9932,"Logger":9933,"ĠSydney":9934,"Ġconcerned":9935,"ĠEmer":9936,"ships":9937,"Ġdb":9938,"Category":9939,"Ġlegislation":9940,"Constr":9941,"Ð´":9942,"ĠEntertainment":9943,"1944":9944,"Ġposts":9945,"ĠWel":9946,"including":9947,"ĠCulture":9948,"ĠMoh":9949,"Proxy":9950,"apply":9951,"ĠSenior":9952,"connection":9953,"Ġaccurate":9954,"otion":9955,"isition":9956,"ĠNations":9957,"loom":9958,"Keys":9959,"Day":9960,"ĠBC":9961,"()).":9962,"Ġindeed":9963,"Another":9964,"itut":9965,"agan":9966,"igate":9967,"aded":9968,"LINE":9969,"ĠProt":9970,"Ġcalculated":9971,"ĠLady":9972,"Ġeffectively":9973,"ĠSystems":9974,"rat":9975,"Ġevaluation":9976,"Ġassistance":9977,"ĠÂ·":9978,"oked":9979,"Ġequations":9980,"Ġproud":9981,"isode":9982,"mad":9983,"Although":9984,"ãĢ":9985,"primary":9986,"EXT":9987,"ĠBu":9988,"Ġexposure":9989,"ĠBlock":9990,"ĠÅ":9991,"Close":9992,"Ġsolo":9993,"Ġmess":9994,"ĠBudd":9995,"Ġwaste":9996,"plugins":9997,"agraph":9998,"ĠDNA":9999,"Ġaccompl":10000,"eli":10001,"ĠHeart":10002,"ĠPhoto":10003,"}^\\":10004,"Ġsubsequent":10005,"Find":10006,"ouri":10007,"Ġbinary":10008,"ĠGh":10009,")));":10010,"icians":10011,"Ġtechnique":10012,"Ġchampion":10013,"watch":10014,"pressed":10015,"Ġrh":10016,"Ġasking":10017,"inher":10018,"Activity":10019,"XT":10020,"Lo":10021,"Ġhall":10022,"area":10023,"oen":10024,"Ġsingles":10025,"Ġcharacteristics":10026,"Ġintent":10027,"180":10028,"itals":10029,"Ġsustainable":10030,"Ġmoves":10031,"ĠBuilding":10032,"Ġcontroller":10033,"ĠChall":10034,"ository":10035,"Ġmanufacturing":10036,"Ġaggreg":10037,"ailure":10038,"Ġflu":10039,"Ġguest":10040,"icide":10041,"textwidth":10042,"Ġstrongly":10043,"ĠEric":10044,"Ġfestival":10045,"Â®":10046,"etary":10047,"hav":10048,"Career":10049,"Ġwilling":10050,"ĠBox":10051,"ĠCovid":10052,"Ġexercise":10053,"&=":10054,"throws":10055,"ubs":10056,"metadata":10057,"ĠBelg":10058,"iami":10059,"Flags":10060,"fortunately":10061,"Ġletters":10062,"Ġencounter":10063,"istribution":10064,"ĠĠĠĠĠĠĠĠĠĠĠĠĠĠĠĠĠĠĠĠĠĠ":10065,"Ġvess":10066,"Ġapps":10067,"Ġ(@":10068,"anchester":10069,"alg":10070,"})\\":10071,"identifier":10072,"Generic":10073,"Ġdebate":10074,"Inv":10075,"}:":10076,"ĠVeg":10077,"alty":10078,"Ġfacilit":10079,"David":10080,"}_\\":10081,"Ġappend":10082,"Ġindicated":10083,"enumer":10084,"bot":10085,"Ġscenes":10086,"riate":10087,"ĠLiter":10088,"Ġwarning":10089,"Ġofficially":10090,"Ġproved":10091,"ĠConfig":10092,"Ġassembly":10093,"approx":10094,"Ġenhance":10095,"âĢĻ.":10096,"Ġpowers":10097,"Ġadvertising":10098,"roduction":10099,"asts":10100,"Ġpossibility":10101,"oped":10102,"ĠCloud":10103,"ensuremath":10104,"ĠLie":10105,"ĠBat":10106,"endor":10107,"Ġprincipal":10108,"Black":10109,"Ġshell":10110,"Ġdistingu":10111,"ĠInstead":10112,"Ġfaculty":10113,"Ġcaptured":10114,"HP":10115,"proto":10116,"Ġbomb":10117,"iterator":10118,"ĠHouston":10119,"Ġformula":10120,"Mich":10121,"ĠProte":10122,"ifiers":10123,"osed":10124,"ierarch":10125,"Memory":10126,"profit":10127,"ĠKevin":10128,"Ġfunc":10129,"pay":10130,"TABLE":10131,"Ġsyn":10132,"Ġdangerous":10133,"igenous":10134,"blockList":10135,"Ġagencies":10136,"holders":10137,"Ġpercentage":10138,"Ġdestroyed":10139,"Ġtaught":10140,"ĠAC":10141,"Ġride":10142,"Common":10143,"}\\,":10144,"Î±":10145,"ĠAlli":10146,"Ġ[[":10147,"Ġtargets":10148,"ĠStock":10149,"oli":10150,"Ġinnovation":10151,"OUT":10152,"Ġcurve":10153,"Ġparallel":10154,"Ant":10155,"DEBUG":10156,"Ġexplan":10157,"Ġprompt":10158,"Ġworse":10159,"Ġworst":10160,"Ġmouth":10161,"Ġincreasingly":10162,"lections":10163,"ennessee":10164,"Ġtroops":10165,"130":10166,"ĠScottish":10167,"Ġscientists":10168,"Ljava":10169,"Ang":10170,"duce":10171,"++;":10172,"Ġappreci":10173,"angers":10174,"ĠSher":10175,"isting":10176,"ĠCR":10177,"Ġproport":10178,"agen":10179,"Auto":10180,"aire":10181,"inema":10182,"Ġentertainment":10183,"axis":10184,"away":10185,"Ġnob":10186,"Ġaxis":10187,"Ġfunctional":10188,"Ġrect":10189,"Ġprime":10190,"ificial":10191,"ĠArgent":10192,"Ġemployee":10193,")),":10194,"yers":10195,"itivity":10196,"Ġphenomen":10197,"Iterator":10198,"Ġmatters":10199,"Ġminim":10200,"ĠReb":10201,"anny":10202,"cb":10203,"Sports":10204,"ĠHotel":10205,"Ġhero":10206,"Ġselling":10207,"International":10208,"West":10209,"ĠGallery":10210,"Ġpermission":10211,"Ġrisks":10212,"Ġdecide":10213,"ropical":10214,"ĠCapital":10215,"ĠEditor":10216,"ĠLes":10217,"Ġconvent":10218,"Space":10219,"gressive":10220,"ĠContin":10221,"asty":10222,"ï»":10223,"Ġdrawn":10224,"Ġwinners":10225,"ĠSi":10226,"Ġdataset":10227,"USE":10228,"Watch":10229,"ĠProperty":10230,"letter":10231,"ĠTra":10232,"Edit":10233,"handler":10234,"mask":10235,"Ġresulted":10236,"Ġpurchased":10237,"ĠSD":10238,"700":10239,"iga":10240,"ership":10241,"WR":10242,"ivated":10243,"Ġoperate":10244,"ivals":10245,"original":10246,"Ġoutcomes":10247,"Ġparticipate":10248,"Ġpropag":10249,"Ġabandon":10250,"cers":10251,"craft":10252,"ĠHollywood":10253,"Austral":10254,"icking":10255,"gments":10256,"Print":10257,"ĠSa":10258,"Ġsoil":10259,"ingham":10260,"ĠIV":10261,"Ġabuse":10262,"Ġlisting":10263,"ĠJenn":10264,"Ġhook":10265,"properties":10266,"ĠProp":10267,"ĠModern":10268,"ĠPrize":10269,"Ġloaded":10270,"Ġopposite":10271,"ĠBE":10272,"FR":10273,"Your":10274,"offs":10275,"Ġpun":10276,"when":10277,"pository":10278,"Ġpotentially":10279,"oices":10280,"Ġhealthcare":10281,"esome":10282,"Ġteen":10283,"Ġrequested":10284,"Ġvisited":10285,"ĠOlympic":10286,"ortion":10287,"Ġintegrated":10288,"Ġsky":10289,"Graph":10290,"à®":10291,"Ġpassword":10292,"ĠPlace":10293,"acher":10294,"igrants":10295,"material":10296,"ĠIowa":10297,"FIG":10298,"Total":10299,"çļ":10300,"(){":10301,"Ġhorse":10302,"Ġeastern":10303,"ĠEV":10304,"Expr":10305,"Ã£o":10306,"ĠLat":10307,"flix":10308,"asi":10309,"Ġhits":10310,"ĠBridge":10311,"ĠFall":10312,"ving":10313,"ĠRecord":10314,"Ġproperly":10315,"ĠCharl":10316,"Ġsuperv":10317,"ritical":10318,"ÙĦ":10319,"Ġfacing":10320,"Ġwelcome":10321,"Aug":10322,"recated":10323,"Yes":10324,"ĠKorean":10325,"ni":10326,"omatic":10327,"Ġthreshold":10328,"uction":10329,"Ġvelocity":10330,"numer":10331,"ĠKat":10332,"Ġlegend":10333,"Ġcreates":10334,"Protocol":10335,"Ġdates":10336,"upl":10337,"ĠDemocrats":10338,"125":10339,"Ġbench":10340,"Ġcommitment":10341,"Ġspeaking":10342,"Ġflags":10343,"Ġles":10344,"Ġplate":10345,"gi":10346,"ĠNetherlands":10347,"ĠAnalysis":10348,"allas":10349,"ĠDream":10350,"ĠKansas":10351,"Ġfeedback":10352,"Ġcapable":10353,"Ġloan":10354,"ĠJam":10355,"Ġgift":10356,"ĠAgency":10357,"Ġraces":10358,"ĠTai":10359,"Leg":10360,"VERSION":10361,"Plugin":10362,"Ġexplains":10363,"Cam":10364,"Ġprovince":10365,"1961":10366,"ĠIOException":10367,"channel":10368,"ancell":10369,"ĠĠĠĠĠĠĊ":10370,"Imp":10371,"oking":10372,"Please":10373,"ĠAmb":10374,"Ben":10375,"ï»¿":10376,"ĠRoll":10377,"ĠUl":10378,"ĠStudy":10379,"stances":10380,"Ġmo":10381,"mathsf":10382,"Ġcombat":10383,"çļĦ":10384,"Ð²":10385,"Ġprof":10386,"oche":10387,"Ġexciting":10388,"Ġ\\{":10389,"Ġexpensive":10390,"ĠFinancial":10391,"quarters":10392,"ĠPrivacy":10393,"Ġclassification":10394,"NULL":10395,"SQL":10396,"account":10397,"Ġopposition":10398,"Ġspoke":10399,"rell":10400,"hus":10401,"Ġimplies":10402,"eah":10403,"ĠGrant":10404,"Ġterr":10405,"cha":10406,"ĠJesus":10407,"Hz":10408,"ĠCond":10409,"ĠBalt":10410,"plicated":10411,"emony":10412,"Ġkilling":10413,"Ġhonest":10414,"enda":10415,"Ġdiversity":10416,"Ġmit":10417,"ĠConf":10418,"ellect":10419,"Ġmob":10420,"Ġwalking":10421,"Well":10422,"Parse":10423,"Fin":10424,"1942":10425,"Ġprofit":10426,"Ġunderlying":10427,"Music":10428,"tmp":10429,"aza":10430,"dem":10431,"Ġbeauty":10432,"ĠNAS":10433,"ĠLind":10434,"ĠAffairs":10435,"Ġdecor":10436,"ITE":10437,"Ġinteractions":10438,"ĠStandard":10439,"parameters":10440,"ĠOriginal":10441,"Ġsubjects":10442,"Ġyellow":10443,"onomy":10444,"Ġsuffered":10445,"kw":10446,"ĠAtlantic":10447,"Ġestimates":10448,"ĠPrinc":10449,"aze":10450,"Ġdynamics":10451,"erd":10452,"Ġprominent":10453,"Ġcopies":10454,"manager":10455,"semble":10456,"Ġpilot":10457,"Ġtransferred":10458,"Ġstrings":10459,"XML":10460,"controller":10461,"Ġtransmission":10462,"Ġtypeof":10463,"olds":10464,"Ġdefin":10465,"Ġlandscape":10466,"Ġchem":10467,"Ġbanks":10468,"Ġalert":10469,"ĠSI":10470,"elle":10471,"Ġencoding":10472,"Who":10473,"ibilities":10474,"gorithms":10475,"inf":10476,"Ġforg":10477,"Apr":10478,"Ġcm":10479,"Ġimmediate":10480,"Ġsurgery":10481,"dx":10482,"Ġinfection":10483,"ĠSound":10484,"bean":10485,"Ġfranch":10486,"Directory":10487,"Ġdebt":10488,"ĠĠĠĊ":10489,"Ġimplements":10490,"Ġentries":10491,"ĠEP":10492,"Ġmetric":10493,"total":10494,"ĠCorn":10495,"prec":10496,"Ġsteel":10497,"engine":10498,"ĠCorps":10499,"arity":10500,"Ġspr":10501,"Conn":10502,"ĠSource":10503,"tw":10504,"Ġpriority":10505,"Ġelig":10506,"Ġupcoming":10507,"Ġsole":10508,"Ġ$.":10509,"appoint":10510,"role":10511,"Ġthoughts":10512,"ĠPlaces":10513,"Ġmatching":10514,"Engine":10515,"Ġterritory":10516,"RES":10517,"Ġpersons":10518,"}}(":10519,"Opt":10520,"Loader":10521,"Films":10522,"NC":10523,"ugar":10524,"Ġmoder":10525,"since":10526,"1958":10527,"Ġstim":10528,"ĠTony":10529,"Ġchapter":10530,"ĠBh":10531,"Ġele":10532,"}\\\\":10533,"Ġarrang":10534,"Ġadds":10535,"dist":10536,"you":10537,"ghan":10538,"Mr":10539,"Ġreferences":10540,"Ġboys":10541,"Ġintroduction":10542,"depth":10543,"ĠPremier":10544,"tle":10545,"ĠAustin":10546,"Ġtalks":10547,"Ġmissed":10548,"Microsoft":10549,"=(":10550,"ĠSav":10551,"ÅĤ":10552,"Ġvictims":10553,"two":10554,"Ġcourses":10555,"Ġgained":10556,"Ġtough":10557,"Ġwalls":10558,"Ġhence":10559,"ibraries":10560,"Ġtradition":10561,"OF":10562,"ĠSP":10563,"Ġenv":10564,"Pay":10565,"oven":10566,"Ġsaved":10567,"anwhile":10568,"Ġtwenty":10569,"Ġdict":10570,"Ġsubsequently":10571,"ĠLewis":10572,"Tok":10573,"Ġrepresentative":10574,"ĠOw":10575,"Ġcriteria":10576,"ĠFront":10577,"Ġvoters":10578,"zero":10579,"Ġscores":10580,"zech":10581,"adi":10582,"getName":10583,"ĠVice":10584,"Ġdrag":10585,"Ġ(+":10586,"contains":10587,"Ġsculpt":10588,"Selected":10589,"owntown":10590,"Socket":10591,"Ġvice":10592,"jan":10593,"Ġexhibition":10594,"Panel":10595,"Ġcompliance":10596,"ometric":10597,"closed":10598,"Ġverify":10599,"1956":10600,"=\"\">":10601,"Ġsending":10602,"issues":10603,"Ġemotional":10604,"ĠRoss":10605,"ĠLater":10606,"SY":10607,"1959":10608,"ĠNa":10609,"iest":10610,"ĠSite":10611,"ĠImm":10612,"pres":10613,"Ġmeasurements":10614,"Ġprepare":10615,"Ġbands":10616,"GC":10617,"Layer":10618,"Ġfundamental":10619,"[$":10620,"Ġintegration":10621,"ĠGree":10622,"ĠSix":10623,"article":10624,"RAN":10625,"ju":10626,"Ġplenty":10627,"Ġstrip":10628,"Ġgate":10629,"Ġmonitoring":10630,"Also":10631,"ribed":10632,"PN":10633,"ĠSquare":10634,"'])":10635,"ceptions":10636,"cus":10637,"Ġcomposition":10638,"Ġnavigation":10639,"ĠForeign":10640,"ĠĠĠĠĠĠĠĠĠĠĠĠĠĠĠĠĠĠĠĠĠĠĠĠĠĠĠĠĠ":10641,"Äį":10642,"perial":10643,"acent":10644,"ĠLanguage":10645,"Ġassumed":10646,"platform":10647,"Ġtransparent":10648,"Ġtranslation":10649,"ordon":10650,"ĠDocument":10651,"Ġvirt":10652,"1939":10653,"IND":10654,"}}{\\":10655,"Double":10656,"argo":10657,"Ġaccommod":10658,"ĠTax":10659,"ulus":10660,"Make":10661,"ĠJordan":10662,"Ġaccessible":10663,"Lin":10664,"Ġasync":10665,"ifdef":10666,"ĠPitt":10667,"SM":10668,"ĠSky":10669,"Ġsuit":10670,"Ġlists":10671,"ainian":10672,"ĠPu":10673,"Region":10674,"Ġinfin":10675,"ĠSab":10676,"orne":10677,"ĠIL":10678,"123":10679,"Ġpit":10680,"UTF":10681,"Ġmine":10682,"Ġvon":10683,"Ġwrites":10684,"boost":10685,"Ġinhib":10686,"Ġwing":10687,"ĠCab":10688,"ĠHash":10689,"Ġdollars":10690,"1948":10691,"ĠHur":10692,"Attr":10693,"ĠTreat":10694,"Feb":10695,"aneous":10696,"BL":10697,"hol":10698,"roc":10699,"Ġdisk":10700,"gar":10701,"Ġboat":10702,"urers":10703,"Ġip":10704,"Perm":10705,"Oh":10706,"Ġproposal":10707,"Ġproviders":10708,"Ġscoring":10709,"Ġassign":10710,"Ġbroke":10711,"Ġairport":10712,"dy":10713,"}</":10714,"Ñĭ":10715,"Ġhockey":10716,"forward":10717,"Scroll":10718,"Ġstake":10719,"Her":10720,"expr":10721,"Ġgrown":10722,"ĠPract":10723,"ĠAnderson":10724,"ĠCambridge":10725,"ĠRow":10726,"Collections":10727,"emet":10728,"Ġanimation":10729,"Ġadministrative":10730,"Ġturning":10731,"Star":10732,"stats":10733,"Report":10734,"Ġimprovement":10735,"Ġrestrictions":10736,"bytes":10737,"Ġcircle":10738,"Ġmillions":10739,"ternoon":10740,"Ġpy":10741,"intend":10742,"hl":10743,"âĢĭ":10744,"Ġ$(\\":10745,"Ġattached":10746,"Cert":10747,"Ġreq":10748,"ellite":10749,"ĠRevolution":10750,"Ġintroduce":10751,"tex":10752,"Ġcoronavirus":10753,"Ġpractical":10754,"ĠPolish":10755,"Ġvast":10756,"putation":10757,"ĠInf":10758,"Dest":10759,"ĠRoy":10760,"onymous":10761,"rett":10762,"Pointer":10763,"Ġentreprene":10764,"Ġpert":10765,"360":10766,"Ġrg":10767,"eness":10768,"Ġoutcome":10769,"Ġinnovative":10770,"ĠTODO":10771,"Cre":10772,"Ġpictures":10773,"Ġforget":10774,"aux":10775,"Short":10776,"ters":10777,"ĠYears":10778,"Ġpasses":10779,"Ġmedicine":10780,"Ġracing":10781,"ĠTennessee":10782,"ĠHan":10783,"Ġtall":10784,"Ġvalign":10785,"Sch":10786,"Ġcausing":10787,"1957":10788,"cussion":10789,"Success":10790,"Ġlots":10791,"ĠTake":10792,"Ġregime":10793,"ĠYes":10794,"ĠIndiana":10795,"Ð¼":10796,"ĠAccount":10797,"NavBarCell":10798,"bits":10799,"ĠSri":10800,"ĠEdition":10801,"ĠJane":10802,"Ġstages":10803,"typedef":10804,"scr":10805,"rations":10806,"Ġwine":10807,"Ġgenus":10808,"ĠKy":10809,"Ġru":10810,"anga":10811,"Ġpublish":10812,"Ã¸":10813,"Route":10814,"blog":10815,"Ġwhereas":10816,"spirit":10817,"Ġiron":10818,"Ġtelling":10819,"Ġsuitable":10820,"Profile":10821,"Ġquiet":10822,"ÑĮ":10823,"Ġexplo":10824,"Ġpermanent":10825,"forms":10826,"Ġprefix":10827,"Ġdefeat":10828,"ĠOcean":10829,"Ġfaced":10830,"ĠTurkey":10831,"esis":10832,"git":10833,"itative":10834,"Ġversus":10835,"Ġha":10836,"ĠUnit":10837,"Stud":10838,"Adapter":10839,"Ġresolve":10840,"oa":10841,"Ġcolumns":10842,"Ġemployment":10843,"bec":10844,"Ġmusicians":10845,"Ġ..":10846,"ĠResources":10847,"Sequ":10848,"ĠMaria":10849,"Ġfrag":10850,"Ġappeal":10851,"Nodes":10852,"tools":10853,"ĠFollowing":10854,"urable":10855,"Mer":10856,"Ġcolle":10857,"iÄĩ":10858,"OB":10859,"circle":10860,"Ġoffices":10861,"Ġreligion":10862,"ols":10863,"pred":10864,"ĠHart":10865,"\\'":10866,"Services":10867,"Comment":10868,"UST":10869,"unnel":10870,"ĠShould":10871,"Statement":10872,"Ġpapers":10873,"Ġ&\\":10874,"Ġqueue":10875,"olitan":10876,"ymmet":10877,"ĠMoreover":10878,"Ġpointer":10879,"Ġgovernor":10880,"Ġroof":10881,"ById":10882,"Ġillegal":10883,"olly":10884,"LECT":10885,"(__":10886,"iva":10887,"ferences":10888,"ĠMemorial":10889,"Ġrevolution":10890,"UD":10891,"alm":10892,"Ġcompact":10893,"1943":10894,"Ġ(-":10895,"Ġcompetitive":10896,"Ġpairs":10897,"Ġda":10898,"StyleID":10899,"Ġrating":10900,"Ġegg":10901,"Ġbon":10902,"modules":10903,"Ġalgebra":10904,"Ġpresentation":10905,"Ġcovering":10906,"Miss":10907,"1941":10908,"keyword":10909,"Ġengaged":10910,"player":10911,"Ġwheel":10912,"ĠTurk":10913,"Ġlat":10914,"ĠIndones":10915,"Ġroy":10916,"Ġbuck":10917,"ĠLeon":10918,"Headers":10919,"Ġdocumentary":10920,"Ġcolors":10921,"Ġscatter":10922,"Ġaccused":10923,"Ġsweet":10924,"1955":10925,"Ġexcess":10926,"Ġsurprise":10927,"vard":10928,"lg":10929,"ĠCore":10930,"riers":10931,"1952":10932,"Remove":10933,"Ġemissions":10934,"making":10935,"ighth":10936,"usters":10937,"Ġcontribute":10938,"Ġparticles":10939,"Ġenjoyed":10940,"ista":10941,"ĠBush":10942,"Ġcomprehensive":10943,"Ġstood":10944,"ANT":10945,"UK":10946,"hidden":10947,"Ġadvis":10948,"URI":10949,"Ġdocumentation":10950,"ĠStone":10951,"ariant":10952,"FE":10953,"======":10954,"Ġpri":10955,"Ġemployed":10956,"Mac":10957,"neg":10958,"ĠDuke":10959,"flu":10960,"quir":10961,"ĠLA":10962,"Ġmm":10963,"Ġimpossible":10964,"ĠKhan":10965,"Ġshel":10966,"layer":10967,"Identifier":10968,"Ġlabels":10969,"Pod":10970,"Ġgrade":10971,"opes":10972,"Ġmeasurement":10973,"fi":10974,"Game":10975,"REE":10976,"trigger":10977,"Ġappearances":10978,"MR":10979,"Grid":10980,"ĠHave":10981,"ropy":10982,"Ġsupplement":10983,"ĠSarah":10984,"Ġinstances":10985,"ĠTag":10986,"ĠThose":10987,"Ġgiant":10988,"Ġchallenging":10989,"ĠBurn":10990,"pir":10991,"views":10992,"lah":10993,"iot":10994,"Ġbreaking":10995,"ĠðŁ":10996,"ĠPed":10997,"Namespace":10998,"ĠMit":10999,"nil":11000,"Ġcircumstances":11001,"1946":11002,"sa":11003,"Ġsitting":11004,"ĠDer":11005,"Ġsynd":11006,"antry":11007,"unique":11008,"Ġinterval":11009,"Matrix":11010,"rig":11011,"Ġdisabled":11012,"publ":11013,"Ġ%}":11014,"Ġcrucial":11015,"IPT":11016,"Ġpainting":11017,"ĠEffect":11018,"novation":11019,"Ġdriven":11020,"ĠQueens":11021,"Ġarbitr":11022,"Ġsomewhat":11023,"Ġaddresses":11024,"Ġpars":11025,"prefix":11026,"Ġcoffee":11027,"Len":11028,"thew":11029,"North":11030,"Ġregulations":11031,"Mut":11032,"Ġ{{":11033,"Join":11034,"SER":11035,"Ġpul":11036,"tons":11037,"Ġcrash":11038,"weg":11039,"ĠPatrick":11040,"Ġfulf":11041,".[":11042,"eros":11043,"Scale":11044,"ĠSweden":11045,"Ġsph":11046,"ĠZh":11047,"Ġcontents":11048,"appy":11049,"Ġrepro":11050,"Ġignore":11051,"Ġresponses":11052,"Ġapproval":11053,"Ġfasc":11054,"Ġ>>":11055,"ToString":11056,"editor":11057,"ACT":11058,"istence":11059,"ĠNever":11060,"Ġdisappe":11061,"ategor":11062,"Product":11063,"Ġevaluate":11064,"Ġsuspect":11065,"Ġliquid":11066,"Ġcompens":11067,"Ġsight":11068,"blue":11069,"Ġclock":11070,"Ġvoting":11071,"CESS":11072,"Ġbott":11073,"party":11074,"ĠRailway":11075,"plant":11076,"ĠSilver":11077,"video":11078,"Ġtempor":11079,"ented":11080,"ĠĠĠĠĠĠĠĠĠĠĠĠĠĠĠĠĠĠĠĠĠĠĠĠĠĠĠĠĠĠĠĠĠĠĠĠĠĠĠĠĠĠĠ":11081,"chestra":11082,"ĠMun":11083,"}+\\":11084,"Ġveget":11085,"ĠLemma":11086,"ĠVietnam":11087,"Ġmaintenance":11088,"Ġrising":11089,"Ġlift":11090,"Ġ).":11091,"Once":11092,"ĠJay":11093,"Ġlect":11094,"INS":11095,"Ġjournalist":11096,"Ġcolour":11097,"dam":11098,"ĠOS":11099,"Ġsoci":11100,"}'":11101,"Ġfaces":11102,"Compar":11103,"edded":11104,"1947":11105,"ĠSuch":11106,"specific":11107,"({\\":11108,"Ġbehaviour":11109,"Ġaffili":11110,"Div":11111,"Py":11112,"Ġrooms":11113,"Mapping":11114,"olving":11115,"ĠPartners":11116,"ĠTraining":11117,"Ġhandling":11118,"ĠFarm":11119,"Fix":11120,"Ġexposed":11121,"ĠManchester":11122,"Ġinh":11123,"limit":11124,"Ġ],":11125,"ras":11126,"ĠLoc":11127,"Ġassault":11128,"ĠMiami":11129,"complete":11130,"Ġholiday":11131,"Ġproducing":11132,"ando":11133,"attributes":11134,"ĠDefense":11135,"ĠAthlet":11136,"ĠArticle":11137,"hide":11138,"anka":11139,"Ġfoundation":11140,"ĠPO":11141,"azy":11142,"Ġpresents":11143,"ĠOak":11144,"TRUE":11145,"ĠRegional":11146,"uating":11147,"ĠNigeria":11148,"Ġcompute":11149,"jquery":11150,"eties":11151,"ĠBry":11152,"ĠTrail":11153,"ĠMessage":11154,"bat":11155,"Ġextreme":11156,"PATH":11157,"Ġsolve":11158,"Ġprofessionals":11159,"Ġsav":11160,"Ġbear":11161,"British":11162,"decl":11163,"Ġconversion":11164,"ĠScient":11165,"pur":11166,"ĠFinally":11167,"switch":11168,"Ġrear":11169,"Support":11170,"ĠBowl":11171,"vo":11172,"ante":11173,"Ġdepos":11174,"ĠSimon":11175,"Ġrig":11176,"ĠHarris":11177,"Ġtrading":11178,"Ġradius":11179,"ĠPhilippines":11180,"Failed":11181,"loor":11182,"rons":11183,"Enum":11184,"mutable":11185,"Ġsought":11186,"ĠPier":11187,"Trace":11188,"components":11189,"ĠRoute":11190,"ipping":11191,"ĠStore":11192,"Ġsees":11193,"ĠNative":11194,"Ġpodcast":11195,"Ġdevelopers":11196,"Ġdenote":11197,"oscow":11198,"Syntax":11199,"zo":11200,"Ġdesire":11201,"Ġbinding":11202,"cpp":11203,"aired":11204,"Ġcancel":11205,"brief":11206,"Ġstrategic":11207,"Ġwearing":11208,"Ġbigger":11209,"ĠDor":11210,"Ġconstraints":11211,"|^":11212,"Mc":11213,">:":11214,"ski":11215,"Ġur":11216,"EV":11217,"Variable":11218,"Ġmedian":11219,"week":11220,"1953":11221,"iology":11222,"Ã¡n":11223,"ĠPS":11224,"Ġpromoted":11225,"Ms":11226,"Ġbes":11227,"ĠWAR":11228,"Ġlayers":11229,"Life":11230,"EP":11231,"Ġinterior":11232,"=\"@":11233,"Ġlyr":11234,"ĠMaryland":11235,"Ġconcentration":11236,"ĠAllen":11237,"Ġinjured":11238,"Ġdestru":11239,"wing":11240,"Ġconverted":11241,"Ġxmlns":11242,"]$":11243,"ĠDoes":11244,"Ġspatial":11245,"ĠCaptain":11246,"Ġrelax":11247,"Review":11248,"Ġobjective":11249,"Ġjoining":11250,"ucket":11251,"Ġrelief":11252,"Ep":11253,"ipher":11254,"ADD":11255,"Ġplastic":11256,"Constants":11257,"ĠâĢĻ":11258,"CRE":11259,"Ġctx":11260,"webpack":11261,"ellar":11262,"Ġfootballer":11263,"Ġedges":11264,"Ġinvited":11265,"Ġsad":11266,"Prefix":11267,"Ġdipl":11268,"ĠSmall":11269,"Ġfake":11270,"Ġcopyright":11271,"Sync":11272,"echo":11273,"ĠLas":11274,"1954":11275,"imore":11276,"ĠMilitary":11277,"001":11278,"FP":11279,"nie":11280,"Ġconsumption":11281,"Ġ{'":11282,"Ġdual":11283,"witzer":11284,"ĠRequest":11285,"ĠĠĠĠĠĠĠĠĠĠĠĠĠĠĠĠĠĠĠĠĠĠĠĠĠĠ":11286,"Ġconstitu":11287,"Ġalcohol":11288,"headers":11289,"Ġtensor":11290,"outheast":11291,"Health":11292,"ĠLandroid":11293,"ectors":11294,"ĠHTTP":11295,"Ġheads":11296,"rystal":11297,"Ġpaths":11298,"UC":11299,"through":11300,"umps":11301,"ĠMoon":11302,"Ġmanagers":11303,"Ġstreaming":11304,"Ġneither":11305,"Ġcapabilities":11306,"svg":11307,"ĠNaz":11308,"Ġmeetings":11309,"ubble":11310,"Ġmapping":11311,"Ġpoet":11312,"January":11313,"Ġparticle":11314,"Ġcaptain":11315,"Ġyes":11316,"ARD":11317,"Ġrid":11318,"ĠBlog":11319,"tor":11320,"Ġnotable":11321,"Ġdemonstrated":11322,"Ġforth":11323,"Ġinjuries":11324,"enna":11325,"Ġcontributed":11326,"Children":11327,"ĠMoore":11328,"ĠStream":11329,"incess":11330,"stable":11331,"Ġfruit":11332,"Ġsevent":11333,"unning":11334,"Ġdisplayed":11335,"protected":11336,"ologists":11337,"zy":11338,"abama":11339,"chant":11340,"rift":11341,"ĠIndustry":11342,"Ġregularly":11343,"'));":11344,"Ġ[],":11345,"Ġchoices":11346,"cosystem":11347,"RT":11348,"riority":11349,"Ġ-\\":11350,"Ġpharm":11351,"Coll":11352,"achelor":11353,"Ġabsolutely":11354,"âĦ":11355,"Ġbelieves":11356,"Ġsizeof":11357,"coln":11358,"}},":11359,"Ġdiseases":11360,"ĠWalker":11361,"ĠNorm":11362,"prev":11363,"configuration":11364,"\"/":11365,"Ġdiscrim":11366,"Ġcompletion":11367,"rik":11368,"esterday":11369,"ĠVi":11370,"obby":11371,"vc":11372,"closure":11373,"Ġhole":11374,"ĠBuff":11375,"Ġexclusive":11376,"Copyright":11377,"amsung":11378,"Ġmomentum":11379,"ĠTravel":11380,"acking":11381,"ĠEver":11382,"about":11383,"rence":11384,"reset":11385,"ĠApplication":11386,"ĠTen":11387,"Ġrefers":11388,"ĠPalest":11389,"=-":11390,"Ġbund":11391,"Begin":11392,"Ġscr":11393,"Ġlawyer":11394,"ookie":11395,"Sur":11396,"Ġprocedures":11397,"junit":11398,"HA":11399,"ummy":11400,"ĠJacob":11401,"noindent":11402,"ceive":11403,"Ġgrass":11404,"1949":11405,"iary":11406,"Volume":11407,"Ġdismiss":11408,"will":11409,"ĠEarly":11410,"Ġticket":11411,")->":11412,"tic":11413,"changed":11414,"Ġsubsid":11415,"Ġbin":11416,"ĠBY":11417,"Ġdesired":11418,"ĠClark":11419,"Ġengagement":11420,"ĠRound":11421,"Ġundert":11422,"Cent":11423,"}-\\":11424,"ceptor":11425,"orry":11426,"Ġranked":11427,"Cluster":11428,"Ġtrials":11429,"exists":11430,"Ġfees":11431,"filename":11432,"reens":11433,"Ġguests":11434,"Ġfraction":11435,"ĠMrs":11436,"such":11437,"Ġjur":11438,"Ã©e":11439,"Ġ\",":11440,"witzerland":11441,"Ġinteract":11442,"makers":11443,"Polit":11444,"Ġtransactions":11445,"Ġqualified":11446,"ĠHawai":11447,"Ġbirds":11448,"ĠRefer":11449,"Ãº":11450,"LOCK":11451,"rophy":11452,"ĠSurvey":11453,"sea":11454,"sis":11455,"Props":11456,"Ġpiano":11457,"Ġmail":11458,"ĠWas":11459,"Ġcontinuing":11460,"pattern":11461,"ĠJoh":11462,"rolling":11463,"Ø±":11464,"Ġmeta":11465,"Ġsurve":11466,"Using":11467,"Single":11468,"Ġrein":11469,"ndef":11470,"BP":11471,"ĠMissouri":11472,"March":11473,"Like":11474,"GBT":11475,"Uri":11476,"Conf":11477,"emetery":11478,"tery":11479,"Ġparticipated":11480,"izon":11481,"hspace":11482,"Ġgarden":11483,"ogram":11484,"QU":11485,"Seg":11486,"Simple":11487,"Ġawareness":11488,"Cr":11489,"Ġfault":11490,"ĠWIT":11491,"Ġdescent":11492,".\");":11493,"Ġmetadata":11494,"Db":11495,"ĠExpress":11496,"Ġaged":11497,"Ġlistening":11498,"Ġast":11499,"Ġregistration":11500,"Ġmunicipal":11501,"Ġguidance":11502,"ĠAdvent":11503,"Ġwindows":11504,"Labels":11505,"Ġdetected":11506,"TIME":11507,"storage":11508,"Ġanalyz":11509,"Ġopposed":11510,"ĠGab":11511,"Ġdistricts":11512,"ĠDave":11513,"ĠSeattle":11514,"HTTP":11515,"don":11516,"uba":11517,"ĠGard":11518,"}}}":11519,"ALSE":11520,"Ġaims":11521,"Ġpresidential":11522,"Ġmg":11523,"Ġsubmitted":11524,"Java":11525,"ĠAmong":11526,"ĠDetroit":11527,"AE":11528,"mont":11529,"Ġanticip":11530,"ĠSever":11531,"otten":11532,"Ġgraduate":11533,"ĠTrade":11534,"Ġdire":11535,"ĠJosh":11536,"Ġsentence":11537,"CAA":11538,"onal":11539,"Ġpreced":11540,"ĠTE":11541,"Ġwonderful":11542,"ĠAnthony":11543,"![":11544,"iche":11545,"riends":11546,"Transport":11547,"oust":11548,"Ġknock":11549,"ĠEag":11550,"BB":11551,"Ġimpressive":11552,"definition":11553,"Ġmagic":11554,"Ġocean":11555,"Ġkil":11556,"Bel":11557,"------------":11558,"Ġgraduated":11559,"ĠArchitect":11560,"Ġfacts":11561,"Ġduty":11562,"ĠRepublicans":11563,"Ġdiagram":11564,"ĠKal":11565,"Ġtrends":11566,"Ġreplacement":11567,"Ġlib":11568,"secutive":11569,"Ġcommunications":11570,"Ġaccord":11571,"Ġafternoon":11572,"Ġbtn":11573,"Ġabsence":11574,"Ġfraud":11575,"inking":11576,"ĠMalays":11577,"Email":11578,"GP":11579,"Ġ\"<":11580,"Ġstrengthen":11581,"vspace":11582,"Ġinflation":11583,"irty":11584,"inos":11585,"Ġdrawing":11586,"Ġscenario":11587,"$}":11588,"done":11589,"owed":11590,"Ġnucle":11591,"Ġheavily":11592,"Ġmouse":11593,"Family":11594,"Ġgaming":11595,"Ġvoted":11596,"Ġbreath":11597,"aco":11598,"earing":11599,"sters":11600,"eping":11601,"Ġchose":11602,"Tele":11603,"aware":11604,"Details":11605,"Repository":11606,"ITION":11607,"neq":11608,"overty":11609,"Execut":11610,"Ġvaluable":11611,"Ġbrown":11612,"chell":11613,"Ã©s":11614,"Ġmembership":11615,"Ġtemperatures":11616,"LI":11617,"Rh":11618,"ishment":11619,"ĠAgric":11620,"Ġsed":11621,"Ġhorror":11622,"vironments":11623,"shadow":11624,"Ġox":11625,"/.":11626,"Pi":11627,"tabs":11628,"Ġwound":11629,"Ġcorrelation":11630,"ĠCow":11631,"Ġsin":11632,"uli":11633,"thon":11634,"Sam":11635,"Ġproxy":11636,"Ġdies":11637,"ĠCancer":11638,"Ġreasonable":11639,"Ġreaching":11640,"rg":11641,"details":11642,"para":11643,"ellectual":11644,"ĠYouth":11645,"Ġencourage":11646,"Ġpicked":11647,"ĠContent":11648,"Europe":11649,"Ġbeach":11650,"Ġboot":11651,"urches":11652,"Ġenum":11653,"Ġpolar":11654,"ĠAfghan":11655,"eras":11656,"ĠArk":11657,"ffff":11658,"FFFF":11659,"ĠBarn":11660,"ouses":11661,",'":11662,"Ġderiv":11663,"ĠNich":11664,"Ġconstructor":11665,"icky":11666,"Ġtemporary":11667,"ĠÐ¿":11668,"Ġvocal":11669,"razy":11670,"Ġstyles":11671,"PD":11672,"wich":11673,"ĠLib":11674,"orer":11675,"ĠCastle":11676,"Ġgam":11677,"iÃ³n":11678,"ÐµÐ½":11679,"ĠIE":11680,"Ġhardware":11681,"1900":11682,"Fore":11683,"mac":11684,"iop":11685,"eron":11686,"ctrine":11687,"Ġnarrative":11688,"Ġenforcement":11689,"Ġattorney":11690,"Ġrobust":11691,"Ġflying":11692,"ĠNev":11693,"################":11694,"Symfony":11695,"angel":11696,"Ġenemy":11697,"ĠHal":11698,"ilst":11699,"Generator":11700,"ifferent":11701,"Ġinvestigate":11702,"ĠPack":11703,"Ġtitled":11704,"Ġtowns":11705,"ĠPlus":11706,"ĠProm":11707,"ĠBab":11708,"Ġnovels":11709,"Ġdiscovery":11710,"Ġatmosphere":11711,"ĠPrivate":11712,"Ġunus":11713,"Ġworker":11714,"Ġrapidly":11715,"elson":11716,"isations":11717,"citet":11718,"âĦ¢":11719,"ogene":11720,"parser":11721,"Ġfib":11722,"ĠĠĠĠĠĠĠĠĠĠĠĠĠĠĠĠĠĠĠĠĠĠĠĠĠĠĠĠ":11723,"Ġhur":11724,"Ġlosses":11725,"jQuery":11726,"Even":11727,"ynomial":11728,"ĠNatural":11729,"Ġmining":11730,"Ġbare":11731,"Ġinitiative":11732,"ardo":11733,"åı":11734,"Ġreducing":11735,"Ġtmp":11736,"Ġminimal":11737,"Resources":11738,"Enter":11739,"Duration":11740,"ĠVegas":11741,"Struct":11742,"Ġweekly":11743,"ospitals":11744,"peror":11745,"1951":11746,"ĠKelly":11747,"rock":11748,"protocol":11749,"Ġhouseholds":11750,"western":11751,"acon":11752,"ĠDog":11753,"Ġprinciples":11754,"agh":11755,"VM":11756,"ĠHttp":11757,"Ġfarmers":11758,"Ġsizes":11759,"aro":11760,"ĠInteger":11761,"uscript":11762,"andal":11763,"estyle":11764,"Ġacknowled":11765,"Women":11766,"itemize":11767,"Ġfalls":11768,"Ġmodes":11769,"1936":11770,"inals":11771,"Ġtranslate":11772,"opic":11773,"owner":11774,"1917":11775,"Ġdimensions":11776,"rieved":11777,"Delegate":11778,"Ġcenters":11779,"Ġcyber":11780,"Ġtransportation":11781,"ĠGP":11782,"Named":11783,"Ġconj":11784,"\\,\\":11785,"ĠAnnual":11786,"ÑģÑĤ":11787,"ĠVin":11788,"iations":11789,"Ġnecessarily":11790,"wrapper":11791,"Wrapper":11792,"Ġancest":11793,"ĠChap":11794,"Ġinformed":11795,"Registry":11796,"Ġsimult":11797,"Ġexecute":11798,"acht":11799,"Ġemission":11800,")+":11801,"otte":11802,"ĠDallas":11803,"Ġhappening":11804,"Ġlaid":11805,"ĠEc":11806,"1918":11807,"Ġpointed":11808,"Ġdesigns":11809,"Ġownership":11810,"ĠNik":11811,"ĠDid":11812,"arest":11813,"UV":11814,"William":11815,"Ġstability":11816,"ĠPur":11817,"Ġpulled":11818,"Ġtries":11819,"serial":11820,"ĠassertThat":11821,"ATED":11822,"ĠPrint":11823,"ĠFROM":11824,"eval":11825,"Ġeigen":11826,"ste":11827,"pair":11828,"Ġapparently":11829,"ĠSafety":11830,"Stats":11831,"ĉĉĉĊ":11832,"wegian":11833,"Ġceremony":11834,"onna":11835,"oly":11836,"ĠLearning":11837,"ashes":11838,"Ġvictim":11839,"Ġdating":11840,"ULE":11841,"ĠMexican":11842,"orous":11843,"props":11844,"Ġgauge":11845,"ulous":11846,"ĠLimited":11847,"Ġtheatre":11848,"Ġ\"-":11849,"{$":11850,"underline":11851,"rupted":11852,"Ġfired":11853,"via":11854,"Ġopens":11855,"ĠEconomics":11856,"ĠAuthority":11857,"tags":11858,"ois":11859,"Stop":11860,"browser":11861,"pu":11862,"Ġbits":11863,"fx":11864,"ĠHoly":11865,"Ġflux":11866,"displayName":11867,"Ġease":11868,"ĠTokyo":11869,"ĠLOG":11870,"Browser":11871,"Ġrows":11872,"Press":11873,"picker":11874,"Î¿":11875,"Ġfranchise":11876,"ĠUI":11877,"random":11878,"ĠMelbourne":11879,"Ġwer":11880,"ĠGil":11881,"logger":11882,"ĠStill":11883,"plan":11884,"omot":11885,"ĠTel":11886,"=\"${":11887,"Ġnurs":11888,"City":11889,"eland":11890,"ĠCop":11891,"ĠArthur":11892,"lass":11893,"Ġantib":11894,"ĠRey":11895,"rying":11896,"Ġalive":11897,"asp":11898,"igious":11899,"Enumer":11900,"3333":11901,"lahoma":11902,"ĠPod":11903,"ĠCa":11904,".\",":11905,"Ġvertex":11906,"inar":11907,"Ġengineer":11908,"Ġroads":11909,"){\\":11910,"lu":11911,"Ġtrace":11912,"ANCE":11913,"orted":11914,"wick":11915,"provider":11916,"Ġillness":11917,"loyd":11918,"Cross":11919,"Ġentitled":11920,"stan":11921,"Ġrestaurants":11922,"REG":11923,"','":11924,"ĠCS":11925,"omas":11926,"oni":11927,"Ġauthent":11928,"Song":11929,"iph":11930,"Ġparliament":11931,"ORY":11932,"ĠJason":11933,"Ġthin":11934,"Ġconclusion":11935,"ĠMas":11936,"lett":11937,"ĠNature":11938,"dp":11939,"unicode":11940,"icut":11941,"nodes":11942,"ĠPa":11943,"Role":11944,"Ġlands":11945,"Ġbid":11946,"ĠTal":11947,"ĠBah":11948,"Ġmorph":11949,"ĠTher":11950,"ulum":11951,"ĠDick":11952,"Import":11953,"vs":11954,"ĠMicro":11955,"Ġexpat":11956,"MOD":11957,"Ġlux":11958,"ĠBan":11959,"ĠHold":11960,"Personal":11961,"ĠMoscow":11962,"Ġoptimal":11963,"Ġwaters":11964,"ĠiPhone":11965,"ĠNetflix":11966,"fd":11967,"Download":11968,"BM":11969,"ĠResponse":11970,"Ġbrothers":11971,"ĠSN":11972,"accept":11973,"rah":11974,"Environment":11975,"ĠJews":11976,"enabled":11977,"Ġcarrying":11978,"Ġmaintained":11979,"Ġreveals":11980,"ĠStudent":11981,"Ġguidelines":11982,"112":11983,"ĠBureau":11984,"arrant":11985,"ĠSport":11986,"ĠFurthermore":11987,"Help":11988,"ĠEnvironmental":11989,"fc":11990,"Ġtact":11991,"Ġintern":11992,"ige":11993,"FORM":11994,"expect":11995,"Based":11996,"]\\":11997,"ĠAndre":11998,"-$":11999,"tsd":12000,"PY":12001,"PG":12002,"ĠMarine":12003,"covery":12004,"Ġengage":12005,"ropolitan":12006,"~$":12007,"emia":12008,"Ġstruggle":12009,"odge":12010,"burn":12011,"Ġparticipation":12012,"unior":12013,"Ġstead":12014,"ĠStudents":12015,"amaz":12016,"ĠPhilip":12017,"Ġ'<":12018,"ĠKa":12019,"ĠMaterial":12020,"ĠGreece":12021,"ycle":12022,"Ġvisiting":12023,"Ġmunicipality":12024,")}{":12025,"idx":12026,"Ġtrouble":12027,"enable":12028,"Ġpossess":12029,"Ġforecast":12030,"Ġtox":12031,"Ġtrib":12032,"rible":12033,"Ġfinance":12034,"Native":12035,"Cloud":12036,"Ġsituations":12037,"Ġsessions":12038,"Ġuniverse":12039,"Ġvit":12040,"ĠNeed":12041,"Ġmarg":12042,"irlines":12043,">::":12044,"Language":12045,"ĠTalk":12046,"ĠEuro":12047,"ĠFellow":12048,"Ġ{\"":12049,"1938":12050,"ĠASSERT":12051,"Ġmarks":12052,"large":12053,"ĠGarden":12054,"cerning":12055,"hour":12056,"Ġdisappoint":12057,"Ġcorn":12058,"Ġreward":12059,"ĠHoward":12060,"ĠValid":12061,"Ġbacter":12062,"ĠInv":12063,"Ġprinciple":12064,"Ġprovision":12065,"Ġaver":12066,"Ġdefensive":12067,"Ġwond":12068,"ktop":12069,"ĠWH":12070,"Selection":12071,"Good":12072,"orient":12073,"Ġrefused":12074,"Framework":12075,"ĠTool":12076,"ÙĨ":12077,"inth":12078,"oda":12079,"ĠResults":12080,"Ġaccum":12081,"generated":12082,"oretical":12083,"Ġlegacy":12084,":\\":12085,"aturally":12086,"ĠER":12087,"ublin":12088,"aneously":12089,"Summary":12090,"tesy":12091,"April":12092,"ĠSn":12093,"Ġsurprising":12094,"ĠFa":12095,"Ġgovernments":12096,"ĠAst":12097,"Ġhide":12098,"NET":12099,"utter":12100,"Ġexplos":12101,"TF":12102,"AI":12103,"conn":12104,"Ġalgorithms":12105,"Ġrose":12106,"Phil":12107,"(@":12108,"San":12109,"Ġchildhood":12110,"Fact":12111,"ĠThird":12112,"Ġpaying":12113,"rooms":12114,"ĠLaure":12115,"Ġreleases":12116,"ryption":12117,"Ġclosing":12118,"Ġexecuted":12119,"ĠRO":12120,"Michael":12121,"anches":12122,"ĠDise":12123,"Domain":12124,"ĠJob":12125,"Ð¾Ð²":12126,"AY":12127,"Ġhell":12128,"Ġouter":12129,"oting":12130,"Ġfriendly":12131,"ometimes":12132,"Ali":12133,"Ġanywhere":12134,"METH":12135,"ĠNic":12136,"Shape":12137,"Paul":12138,"spir":12139,"ĠDur":12140,"opts":12141,"sol":12142,"Player":12143,"Ġreliable":12144,"Ġcompete":12145,"Ġoffensive":12146,"phony":12147,"Today":12148,"apsed":12149,"ĠHop":12150,"Ġpup":12151,"ĠJunior":12152,"Ġshots":12153,"ĠSQL":12154,"Dan":12155,")}$":12156,"Ġmathemat":12157,"ĠMeg":12158,"multi":12159,"library":12160,"Ġadventure":12161,"imm":12162,"ĠStew":12163,"Ġlowest":12164,"ivial":12165,"Ġpreferred":12166,"ĠMovie":12167,"Ġwrest":12168,"Ġhate":12169,"Ġtotally":12170,"ĠBull":12171,"atherine":12172,"Ġvalidation":12173,"Ġsimulation":12174,"Agent":12175,"ĠSwedish":12176,"Ġconcrete":12177,"Ġcatalog":12178,"uties":12179,"Ġconservation":12180,"endment":12181,"Ġexplanation":12182,"Ġselector":12183,"Win":12184,"Ġcoaches":12185,"Ġinvolves":12186,"Ġspecify":12187,"¬Ļ":12188,"cludes":12189,"Ġpoetry":12190,"Ġarc":12191,"(--":12192,"Mill":12193,"Ġanalys":12194,"NG":12195,"oenix":12196,"Ġhasn":12197,"ĠHans":12198,"Ġslowly":12199,"ASH":12200,"ĠIsraeli":12201,"Ġhosts":12202,"ĠLag":12203,"Ġguns":12204,"external":12205,"Ġsensitive":12206,"Ġdiscipl":12207,"Ġfirms":12208,"Ġoldest":12209,"audi":12210,"Ġ_{":12211,"Ġpayments":12212,"Following":12213,"Green":12214,"ĠFederation":12215,"Ġglob":12216,"apolis":12217,"Ġmanaging":12218,"elect":12219,"III":12220,"fred":12221,"Ġui":12222,"some":12223,"Ġroutes":12224,"Ġrefuge":12225,"icken":12226,"ĠMembers":12227,"ĠFinance":12228,"âĪĴ":12229,"zh":12230,"ĠPos":12231,"who":12232,"Bet":12233,"ĠGall":12234,"LY":12235,"glas":12236,"Ġroots":12237,"ĠThanks":12238,"Ġpopulations":12239,"Ġexpectations":12240,"facebook":12241,"Ġplugin":12242,"ders":12243,"ĠCert":12244,"ĠWy":12245,"Ġconsecutive":12246,"Ġfluid":12247,"Old":12248,"Ġvariant":12249,"oga":12250,"ĠâĨ":12251,"Ġoptical":12252,"Ġshopping":12253,"Stand":12254,"June":12255,"rays":12256,"COMP":12257,"ĠIslamic":12258,"Ġattempted":12259,"ĠKentucky":12260,"ĠPhill":12261,"Ġsick":12262,"ducer":12263,"aton":12264,"imental":12265,"Ġlake":12266,"FLA":12267,"iors":12268,"ĠAtlanta":12269,"ĠBatt":12270,"ippi":12271,"Rob":12272,"Ġheaders":12273,"115":12274,"Ġupload":12275,"ĠLegisl":12276,"ĠWhit":12277,"ĠMust":12278,"ques":12279,"ĠLabour":12280,"Ġsubmit":12281,"Ġpromotion":12282,"Rich":12283,"ti":12284,"Ð°Ð½":12285,"extern":12286,"Ġshr":12287,"Ġtrains":12288,"loop":12289,"indexOf":12290,"ĠAlabama":12291,"ĠMorgan":12292,"Ġacquisition":12293,"ĠRoberts":12294,"1937":12295,"ĠANY":12296,"ĠClinton":12297,"Ġhypothes":12298,"pub":12299,"Ġrespective":12300,"Ġham":12301,"Ġdat":12302,"ĠAttorney":12303,"former":12304,"ĠEss":12305,"ĠHighway":12306,"utenant":12307,"ĠDub":12308,"ĠGrow":12309,"Ġgang":12310,"105":12311,"Ġkeeps":12312,"condition":12313,"athy":12314,"works":12315,"Ġdose":12316,"Ġabund":12317,"ĠUkrainian":12318,"ĠTree":12319,"bet":12320,"Ġessentially":12321,"ĠPas":12322,"Ġbehalf":12323,"ANG":12324,"Ġunderstood":12325,"Ġrgba":12326,"Ġoccas":12327,"Ġdeals":12328,"builder":12329,"ĠCzech":12330,"Program":12331,"Ġdemonstrate":12332,"Ġslot":12333,"ĠSwitzerland":12334,"Ġlocally":12335,"enumerate":12336,"ibl":12337,"Ġdecline":12338,"Ġdesignated":12339,"job":12340,"usal":12341,"ĠSchools":12342,"âĢ¦]":12343,"Ġeq":12344,"UND":12345,"yg":12346,"Ġcomic":12347,"horizontal":12348,"leveland":12349,"coq":12350,"Ġseparated":12351,"Theta":12352,"TT":12353,"Ġhybrid":12354,"ostics":12355,"collection":12356,"Ġwebsites":12357,"omer":12358,"Ġtemp":12359,"Ġri":12360,"Ġpassengers":12361,"Ġreson":12362,"Ġcircuit":12363,"Ġroughly":12364,"hesis":12365,"ENSE":12366,"Ġlogger":12367,"Ġadmitted":12368,"aval":12369,"ĠFive":12370,"multicol":12371,"sys":12372,"Har":12373,"ĠBor":12374,"ĠStatus":12375,"ĠFO":12376,"dig":12377,"posing":12378,"Ġparking":12379,"Ġtx":12380,"ĠMayor":12381,"Ġdesigner":12382,"theorem":12383,"Ġimagine":12384,"throw":12385,"Ġmanip":12386,"uther":12387,"governor":12388,"Ġobservation":12389,"Ġimproving":12390,"ĠVillage":12391,"Ġmeets":12392,"imp":12393,"Ġ''":12394,"Ġforeach":12395,"Bound":12396,"Ġhist":12397,"ĠMatch":12398,"ĠNob":12399,"days":12400,"Ġtables":12401,"ĠDrive":12402,"ĠCart":12403,"Ġreveal":12404,"ĠDun":12405,"progress":12406,"Ġ@\"":12407,"ket":12408,"Ġbath":12409,"Ġevil":12410,"icular":12411,"ĠRelations":12412,"Ġpremier":12413,"Ġsle":12414,"lad":12415,"Ġbreed":12416,"Ġourselves":12417,"Ġdecrease":12418,"Ġputs":12419,"Ġtur":12420,"Ġpipeline":12421,"ĠAnne":12422,"cases":12423,"ĠServer":12424,"Ġreverse":12425,"ĠWhether":12426,"Ġlaugh":12427,"ĠProtection":12428,"ifting":12429,"iture":12430,".<":12431,"bus":12432,"ĠNap":12433,"equality":12434,"aura":12435,"ikip":12436,"James":12437,"Ġpartition":12438,"limits":12439,"jango":12440,"Ġsignals":12441,"dialog":12442,"Ġinstruction":12443,"Ġrecognize":12444,"Ġexpertise":12445,"Ġfol":12446,"Rober":12447,"ĠImages":12448,"Ġcompeted":12449,"Ġfolk":12450,"prod":12451,"140":12452,"Ġdust":12453,"anded":12454,"Ġecosystem":12455,"Ġthrown":12456,"Ġenthus":12457,"ĠCooper":12458,"Ùħ":12459,"Ġschema":12460,"ĠNorway":12461,"ĠLincoln":12462,"Ġfemales":12463,"napshot":12464,"ĠPrice":12465,"900":12466,"Ġorganic":12467,"establ":12468,"Ġsixth":12469,"agic":12470,"Ġtimeout":12471,"Ġconsequences":12472,"ÃŃa":12473,"ĠComments":12474,"services":12475,"Ġburied":12476,"ĠSex":12477,"report":12478,"Ġrequirement":12479,"xis":12480,"olves":12481,"METHOD":12482,"Ġrejected":12483,"Ġportray":12484,"ĠThings":12485,"Ġfalling":12486,"ĠBuck":12487,"Ġcomfortable":12488,"suit":12489,"phy":12490,"à¦":12491,"JS":12492,"ĠYet":12493,"Ġamounts":12494,"Ġ=========":12495,"Association":12496,"ĠHence":12497,"Ġretirement":12498,"Sem":12499,"multicolumn":12500,"Ġgenetic":12501,"Ġsigning":12502,"Ġscan":12503,"Contact":12504,"was":12505,"Ġgenre":12506,"rama":12507,"Ġfragment":12508,"Ġfold":12509,"Ġbold":12510,"Ġflash":12511,"ĠClimate":12512,"ĠDa":12513,"arse":12514,"ĠGib":12515,"ctic":12516,"ĠSin":12517,"Ġoutstanding":12518,"kee":12519,"Ġmonthly":12520,"users":12521,"rieve":12522,"enders":12523,"('.":12524,"shared":12525,"Ġconsent":12526,"Ġprohib":12527,"Ġsurvival":12528,"Ġ[\"":12529,"Ġtracking":12530,"ĠCape":12531,"Ġfurn":12532,"Fi":12533,"1919":12534,"Ġincredible":12535,"ĠAntonio":12536,"VALUE":12537,"Clear":12538,"olars":12539,"ĠCT":12540,"Ġlimitations":12541,"Ġeligible":12542,"%%%%":12543,"Ġregardless":12544,"Ġcutting":12545,"itter":12546,"ĠMagn":12547,"execute":12548,"ĠHeritage":12549,"Ġpeer":12550,"invalid":12551,"Ġskill":12552,"Ġphysics":12553,"ĠKam":12554,"ĠNAME":12555,"elve":12556,"errors":12557,"Ġvital":12558,"scal":12559,"Ġperiods":12560,"Ġkinds":12561,"ĠSingh":12562,"once":12563,"xygen":12564,"resources":12565,"ĠPlayer":12566,"Ġsynchron":12567,"ĠAdvis":12568,"mal":12569,"formed":12570,"Ġgay":12571,"ĠML":12572,"ĠWorking":12573,"nn":12574,"orses":12575,"ĠColon":12576,"clusions":12577,">()":12578,"groups":12579,"ĠNBA":12580,"Japan":12581,"ĠLeb":12582,"Endpoint":12583,"Ġstronger":12584,"kh":12585,"IMP":12586,"Ġdogs":12587,"1910":12588,"timeout":12589,"volume":12590,"1935":12591,"Super":12592,"Ġembr":12593,"ateral":12594,"vy":12595,"Ġbron":12596,"Ġnp":12597,"minus":12598,"ĠDean":12599,"ĠHug":12600,"mn":12601,"$_":12602,"BY":12603,"Ġrealized":12604,"Ġignored":12605,"ĠâĤ¬":12606,"ĠBus":12607,"ladesh":12608,"abetes":12609,"temp":12610,"Ġrotation":12611,"ĠWebsite":12612,"LED":12613,"Ġintegral":12614,",âĢĻ":12615,"August":12616,"Ġethnic":12617,"etition":12618,"Sharp":12619,"ĠSelect":12620,"Proto":12621,"verter":12622,"ĠSimilar":12623,"hot":12624,"ĠOpt":12625,"ĠBeng":12626,"Ġentering":12627,"Ġinstructions":12628,"Ġcomposer":12629,"aping":12630,"onical":12631,"^^":12632,"feature":12633,"detail":12634,"Ġanswers":12635,"Ġhopes":12636,"hedral":12637,"ĠUtah":12638,"clean":12639,"Ġbusy":12640,"ntil":12641,"aligned":12642,"rium":12643,"cluster":12644,"Ġpenalty":12645,"Ġoverl":12646,"Gover":12647,"ĠTa":12648,"ĠRelease":12649,"'$":12650,"Ġconcluded":12651,"ĠVolume":12652,"Ġnations":12653,"sburgh":12654,"Ġages":12655,"Ġgeneric":12656,"ĉĉĉĉĉĉĉĉĉ":12657,"alia":12658,"ĠChapter":12659,"Ġspokes":12660,"Ġtank":12661,"Ġbag":12662,"Ġaimed":12663,"ĠAlliance":12664,"Ġcelebrate":12665,"Ġfails":12666,"ieval":12667,"ceiver":12668,"async":12669,"Ġanniversary":12670,"ĠCrow":12671,"ĠWolf":12672,"Ġrum":12673,"Library":12674,"102":12675,"asant":12676,"Ġsnap":12677,"enny":12678,"bow":12679,"ĠKit":12680,"Ġchairman":12681,"Ġcollective":12682,"Ġtied":12683,"Ġdisorder":12684,"arma":12685,"Ġindustries":12686,"uer":12687,"ĠClear":12688,"Ġpseud":12689,"Ġfewer":12690,"Multi":12691,"Ġskip":12692,"ĠMaybe":12693,"Sequence":12694,"ĠOrganization":12695,"ĠDelhi":12696,"Ġlyrics":12697,"Ġinstallation":12698,"ikipedia":12699,"ifndef":12700,"Alex":12701,"Ġindicating":12702,"=\"\"":12703,"Mask":12704,"ĠDoctor":12705,"Ġspiritual":12706,"July":12707,"Wait":12708,"Ġcomplexity":12709,"Ġmachines":12710,"TEXT":12711,"mates":12712,"Ġopts":12713,"wild":12714,"ĠHope":12715,"127":12716,"1914":12717,"ĠAdditionally":12718,"CB":12719,"stage":12720,"Ġbias":12721,"ĠBishop":12722,"Ġrival":12723,"Ġemerging":12724,"ĠSM":12725,"ĠMonth":12726,"tableblock":12727,"ĠIndependent":12728,"Required":12729,"Ġca":12730,"Release":12731,"ĠRussell":12732,"ĠTelevision":12733,"Ġcomputed":12734,"olo":12735,"bara":12736,"rban":12737,"Ġrealize":12738,"ĠLiving":12739,"WI":12740,"ĠFil":12741,"percent":12742,"ÏĦ":12743,"Ġcup":12744,"October":12745,"Ġdiagnosis":12746,"Ġasset":12747,"ilters":12748,"Ġ];":12749,"Ġnan":12750,"*{":12751,"eyond":12752,"Ġracial":12753,"Plan":12754,"ĠStudio":12755,"Ign":12756,"Ġentrance":12757,"}}_":12758,"amps":12759,"winning":12760,"peat":12761,"Did":12762,"ĠWord":12763,"sidebar":12764,"Ġsinging":12765,"Ġoperational":12766,"ĠMission":12767,"Ġinclusion":12768,"Ġvariation":12769,"Ġclim":12770,"ĠAlbert":12771,"ĠGordon":12772,"Ġathletes":12773,"moz":12774,"Spr":12775,"Contin":12776,"Ã¼r":12777,"Ġseriously":12778,"ĠDouble":12779,"ĠPersonal":12780,"required":12781,"Ġelectricity":12782,"Original":12783,"maker":12784,"DM":12785,"Admin":12786,"ĠTemple":12787,"Ġkne":12788,"Ġarrival":12789,"ascular":12790,"bled":12791,"Ġpresc":12792,"enez":12793,"ĠAppe":12794,"undefined":12795,"flag":12796,"Ġmeat":12797,"iatric":12798,"ĠSelf":12799,"Math":12800,"urities":12801,"Ġ\\|":12802,"issippi":12803,"username":12804,"HC":12805,"1933":12806,"ĠCommunications":12807,"ĠBeck":12808,"Ġsettled":12809,"ĠSteel":12810,"Information":12811,"construct":12812,"AK":12813,"incial":12814,"Ġreset":12815,"irds":12816,"being":12817,"ĠBron":12818,"ĠHills":12819,"Ġweapon":12820,"Ġannouncement":12821,"Save":12822,"Ġrecommendations":12823,"ĠUr":12824,"ĠSmart":12825,"likely":12826,"elem":12827,"Ġtickets":12828,"ĠAle":12829,"umped":12830,"French":12831,"INTER":12832,"Ġsoccer":12833,"ĠMort":12834,"owski":12835,"ĠDeep":12836,"Ġtyped":12837,"ĠDue":12838,"Ġchecked":12839,"geon":12840,"supported":12841,"selector":12842,"inction":12843,"alytics":12844,"itarian":12845,"acked":12846,"Tax":12847,"ĠLam":12848,"acef":12849,"Ġtaxes":12850,"Serv":12851,"ĠAG":12852,"Ġblow":12853,"ĠPublished":12854,"Ġavailability":12855,"ĠResp":12856,"wealth":12857,"Ġnormally":12858,"DateTime":12859,"Ġpredicted":12860,"iously":12861,"ĠPred":12862,"Ġattribut":12863,"ĠExp":12864,"Ġwatched":12865,"kt":12866,"Ġlistener":12867,"ĠDak":12868,"proxy":12869,"ĠOd":12870,"Ġpublications":12871,"Connect":12872,"Ġplain":12873,"Ġble":12874,"Ġuncertainty":12875,"ATCH":12876,"ĠReserve":12877,"idal":12878,"Ġuniversities":12879,"ividual":12880,"Ġlogic":12881,"ĠBaltimore":12882,"Sing":12883,"Ġthousand":12884,"Execution":12885,"December":12886,"Bean":12887,"Ġinstitution":12888,"ÛĮ":12889,"feed":12890,"Password":12891,"oca":12892,"uj":12893,"Ġbatch":12894,"Ġads":12895,"ONG":12896,"Ġdirectors":12897,"Ġreact":12898,"ĠAuto":12899,"Ġinject":12900,"ĠHamp":12901,"1934":12902,"ĠPerformance":12903,"Mal":12904,"erto":12905,"Ġstretch":12906,"uda":12907,"Ġfantasy":12908,"ĠThough":12909,"Ġinterviews":12910,"Ġmechanisms":12911,"raig":12912,"theme":12913,"Ġbind":12914,"ounced":12915,"Ġprize":12916,"Ġnullptr":12917,"Ġshortly":12918,"Ġnam":12919,"Ġtheorem":12920,"Ġtemple":12921,"Ġsubscription":12922,"Ġconventional":12923,"ĉĠĠĠĠĠ":12924,"achel":12925,"Progress":12926,"ĠWrite":12927,"emies":12928,"Private":12929,"Ġequity":12930,"ĠChem":12931,"Ġdealing":12932,"ĠVirtual":12933,"Ġparser":12934,"Focus":12935,"ĠHD":12936,"ĠBrun":12937,"ĠShop":12938,"Ġbio":12939,"operatorname":12940,"Ġasks":12941,"Ġrational":12942,"ĠMarketing":12943,"ivia":12944,"Ġhat":12945,"oker":12946,"Film":12947,"Ġtags":12948,"assembly":12949,"MIN":12950,"ognitive":12951,"Ġphilosophy":12952,"Ġcenturies":12953,"Ġtouchdown":12954,"Card":12955,"DIS":12956,"Ġcoordinates":12957,"ĠOklahoma":12958,"Ġtargeted":12959,"Ġwedding":12960,"ĠVari":12961,"Ġliterary":12962,"Ġovers":12963,"erk":12964,"VP":12965,"Ġproven":12966,"Ġanalog":12967,"Ġingred":12968,"picture":12969,"ĠEmb":12970,"Ġenvironments":12971,"Ġtissue":12972,"testing":12973,"Ġsuffering":12974,"ixels":12975,"typen":12976,"Ġpic":12977,"ĠEvents":12978,"Ġbuying":12979,"uh":12980,"Ġdependent":12981,"ĠFL":12982,"Ġintention":12983,"Ġmales":12984,"\"|":12985,"ĠLE":12986,"ĠPerson":12987,"policy":12988,"ĠStudios":12989,"ea":12990,"Ġmyth":12991,"ĠSales":12992,"Ġreputation":12993,"Donald":12994,"Ġknowing":12995,"Ġindependence":12996,"Creat":12997,"Visible":12998,"unches":12999,"ĠABC":13000,"Ġunf":13001,"pin":13002,"Ġimprovements":13003,"Ġcomplement":13004,"ysical":13005,"tc":13006,"ĠSerb":13007,"abling":13008,"maven":13009,"Organ":13010,".:":13011,"NY":13012,"Ġarbitrary":13013,"ĠMess":13014,"Week":13015,"ocy":13016,"Real":13017,"Ġoutdoor":13018,"Ġproducers":13019,"Ġvillages":13020,"104":13021,"German":13022,"()))":13023,"EEEE":13024,"ASE":13025,"apos":13026,"Ġproduces":13027,"ĠGalaxy":13028,"olph":13029,"ĠKl":13030,"ilty":13031,"bg":13032,"variant":13033,"Master":13034,"notes":13035,"Ġdecay":13036,"Ġfrust":13037,"elihood":13038,"yy":13039,"Ġprops":13040,"Ġbounds":13041,"1929":13042,"release":13043,"ĠExchange":13044,"ials":13045,"Tom":13046,"Ġpanels":13047,"shal":13048,"avis":13049,"September":13050,"ĠDest":13051,"Ġscroll":13052,"Business":13053,"Est":13054,"Ġjoy":13055,"118":13056,"Ġargued":13057,"POST":13058,"Audio":13059,"Ġpersonality":13060,"diff":13061,"ĠNation":13062,"Interval":13063,"ĠGirls":13064,"sch":13065,"ĠMobile":13066,"ateur":13067,"Ġreceiver":13068,"leges":13069,"Ġestablishment":13070,"ĠMedal":13071,"Ġwithdraw":13072,"ĠObserv":13073,"ĠRab":13074,"objects":13075,"Texture":13076,"Ġstatistical":13077,"Ġmodules":13078,"Ġmini":13079,"Ġwet":13080,"Ġpushed":13081,"acer":13082,"?>":13083,"may":13084,"Ġadjacent":13085,"Ġcuts":13086,"theless":13087,";)":13088,"illiant":13089,"Diagn":13090,"Ġinstruments":13091,"STATE":13092,"Ġcorresponds":13093,"Ġinterpretation":13094,"ĠTaiwan":13095,"ĠPhD":13096,"Ġapplying":13097,"Sources":13098,"dk":13099,"ĠAlan":13100,"Ġenables":13101,"whel":13102,"ĠRace":13103,"Ġinputs":13104,"Ġlikes":13105,"texttt":13106,"rena":13107,"ĠChairman":13108,"Ġreserve":13109,"Ġconservative":13110,"transition":13111,"Ġunexpected":13112,"ĠContact":13113,"Ġfairly":13114,"Ġaccompan":13115,"Ġfocuses":13116,"IX":13117,"ushing":13118,"ikes":13119,"ĠHub":13120,"Special":13121,"Ġsuddenly":13122,"350":13123,"rating":13124,"plier":13125,"ĠInput":13126,"Ġtower":13127,"November":13128,"ĠReact":13129,"ortheast":13130,"Ġbone":13131,"fish":13132,"Ġstruck":13133,"Ġfabric":13134,"Ġpublicly":13135,"clipse":13136,"Ġcmd":13137,"Ġrub":13138,"usted":13139,"Ġprediction":13140,"{%":13141,"áĥ":13142,"ĠCredit":13143,"Ġmoth":13144,"Ġdebug":13145,"Ġexports":13146,"Ġheaded":13147,"ierarchy":13148,"Ġconcerning":13149,"Person":13150,"tests":13151,"ĠMand":13152,"Ġneck":13153,"ĠMos":13154,"Ġpolynomial":13155,"Ġtoler":13156,"ĠBrig":13157,"Ġmolecular":13158,"oi":13159,"available":13160,"ĠJos":13161,"Ġbars":13162,"typename":13163,"Nor":13164,"olute":13165,"Ġ?>":13166,"ĠArrayList":13167,"Ġrepair":13168,"ĠPlatform":13169,"Ġpassenger":13170,"SN":13171,"Ġtaste":13172,"ĠXML":13173,"ailand":13174,"Ġdemands":13175,"irates":13176,"ĠPlant":13177,"blem":13178,"\"><!--":13179,"Ġgolf":13180,"ĠRoom":13181,"Published":13182,"collapse":13183,"ĠBos":13184,"ĠAlbum":13185,"Ñĩ":13186,"ĠLGBT":13187,"Ġheadquarters":13188,"Ġfinger":13189,"âĢħ":13190,"Area":13191,"np":13192,"ĠCole":13193,"Ġconfront":13194,"Ġconsideration":13195,"Should":13196,"IDE":13197,"Ġclimb":13198,"Ġcollections":13199,"Ġstudying":13200,"resolve":13201,"flex":13202,"Ġapplies":13203,"ĠBrand":13204,"Ġsons":13205,"Ġportfolio":13206,"encer":13207,"Ġinvasion":13208,"Ġvibr":13209,"helper":13210,"login":13211,"Ġarmed":13212,"Ġfmt":13213,"Pers":13214,"tbody":13215,"ĠMcK":13216,"Basic":13217,"Ġpublishing":13218,"Ġfought":13219,"Ġradiation":13220,"lined":13221,"Ġgeometry":13222,"Bind":13223,"ĠGram":13224,"she":13225,"Ġlights":13226,"agent":13227,"Ġrecru":13228,"Sen":13229,"Own":13230,"Ġintensity":13231,"Ġdoors":13232,"single":13233,"Ġboss":13234,"ĠSac":13235,"Ġcritics":13236,"anim":13237,"Ġthermal":13238,"Ġmovements":13239,"Ġattacked":13240,"Ġstats":13241,"ĠBaseball":13242,"ĠLLC":13243,"1928":13244,"Ġsymmetry":13245,"attice":13246,"optional":13247,"fixed":13248,"Ġsurvive":13249,"Ġneutral":13250,"Lower":13251,"ĠTownship":13252,"iere":13253,"ĠInteg":13254,"Ġreads":13255,"ĠPaper":13256,"ewidth":13257,"ĠCommun":13258,"ĠNash":13259,"isd":13260,"ĠDim":13261,"ĠConnecticut":13262,"111":13263,"sync":13264,"Ġconcepts":13265,"hook":13266,"ruby":13267,"ĠBO":13268,"Ġmodify":13269,"Ġeating":13270,"ĠSH":13271,"Sep":13272,"ĠLoad":13273,"intell":13274,"Ã¥":13275,"Methods":13276,"ĠIC":13277,"Ġmigr":13278,"Power":13279,"eveloper":13280,"Ġvalidate":13281,".-":13282,"Ġ\\\"":13283,"ĠSquad":13284,"Ġcorrectly":13285,"IDTH":13286,"ĠClient":13287,"ĠJudge":13288,"ĠBreak":13289,"dates":13290,"Ġconsisting":13291,"ĠLane":13292,"ographical":13293,"commons":13294,"ouver":13295,"isely":13296,"outing":13297,"Ġcodes":13298,"Ġheritage":13299,"ĠIron":13300,"ĠVar":13301,"hom":13302,"BAR":13303,"bes":13304,"Flag":13305,"Ġassumption":13306,"vals":13307,"Ġneuro":13308,"Ġobserve":13309,"Ġtip":13310,"Fn":13311,"sn":13312,"pot":13313,"ĠLanka":13314,"Ġcalculate":13315,"Ġcolleagues":13316,"ajax":13317,"Ġdeeply":13318,"Ids":13319,"ĠPi":13320,"ĠEnc":13321,"ilib":13322,"ĠAbstract":13323,"mate":13324,"Ġpione":13325,"ELD":13326,"Ġstrange":13327,"Den":13328,"slice":13329,"Death":13330,"Ġcoinc":13331,"ĠWorth":13332,"ĠWorks":13333,"FM":13334,"orse":13335,"Ġconstantly":13336,"Ġintervention":13337,"Ġtom":13338,"abad":13339,"idency":13340,"Ġevaluated":13341,"QUE":13342,"Ġdelight":13343,"Ġchunk":13344,"graduate":13345,"tail":13346,"Ġresidential":13347,"Ġmilk":13348,"elfare":13349,"aho":13350,"ĠYan":13351,"Ġboundaries":13352,"puted":13353,"Despite":13354,"Ġpoverty":13355,"Ġdiscussions":13356,"Ġdinner":13357,"visible":13358,"ĠAnna":13359,"Ġregulation":13360,"Ġidentification":13361,"1932":13362,"ĠMatthew":13363,"Ġparish":13364,"izers":13365,"{\"":13366,"ĠFem":13367,"isons":13368,"Ġbuf":13369,"factory":13370,"ĠGrad":13371,"February":13372,"oton":13373,"Dim":13374,"pull":13375,"inded":13376,"ĠLevel":13377,"Ġoblig":13378,"intellij":13379,"Ġthemes":13380,"catch":13381,"Lear":13382,"tok":13383,"erick":13384,"Effect":13385,"Ġstick":13386,"compiler":13387,"reements":13388,"âĢ¦.":13389,"Ġcourts":13390,"oment":13391,"inian":13392,"liest":13393,"ĠSpirit":13394,"checkbox":13395,"esa":13396,"Because":13397,"ĠKings":13398,"good":13399,"Ġcounsel":13400,"ĠHero":13401,"<!":13402,"Ġ(âĢľ":13403,"Ġmayor":13404,"ĠMotor":13405,"Ġorganisation":13406,"have":13407,"ĠPharm":13408,"Ġidentical":13409,"ĠHost":13410,"Cur":13411,"ĠHelp":13412,"Ġartificial":13413,"ĠNi":13414,"iscal":13415,"Ġobviously":13416,"ĠDance":13417,"uis":13418,"Ġ^":13419,"checked":13420,"Ġtou":13421,"Ġreporter":13422,"Ġfest":13423,"ĠCELL":13424,"tri":13425,"extend":13426,"illery":13427,"Landroid":13428,";}":13429,"Ġanth":13430,"Ġinsight":13431,"zi":13432,"Live":13433,"Ġpreparation":13434,"116":13435,"Ġagricultural":13436,"Ġsync":13437,"ĠMock":13438,"Ġsalt":13439,"THE":13440,"****************************************************************":13441,"Ġbulk":13442,"ĠVik":13443,"Ġloading":13444,"orts":13445,"icients":13446,"osl":13447,"-(":13448,"Ġmarine":13449,"ĠPap":13450,"ibliography":13451,"Scal":13452,"ĠCell":13453,"ĠSimple":13454,"ĠFant":13455,"ĠAbb":13456,"Ġgrounds":13457,"ĠThompson":13458,"sun":13459,"fail":13460,"DEFAULT":13461,"leans":13462,"Ġrescue":13463,"dc":13464,"opter":13465,"Ġreply":13466,"Ġexplicitly":13467,"Ġsupporters":13468,"Ġinfluenced":13469,"olas":13470,"ĠPast":13471,"Ġmetab":13472,"Ġidentifier":13473,"ĠMunic":13474,"ationToken":13475,"Ġrenamed":13476,"lat":13477,"marks":13478,"ĠIR":13479,"ĠCB":13480,".\"\"\"":13481,"ĠMC":13482,"ĠDays":13483,"\\}$":13484,"isen":13485,"Mouse":13486,"Ġcheap":13487,"ĠFle":13488,"ĠĠĠĠĠĠĠĠĠĠĠĠĠĠĠĠĊ":13489,"Ġmagnitude":13490,"estone":13491,"rent":13492,"Ġconscious":13493,"ĠForces":13494,"ĠMarvel":13495,"Install":13496,"href":13497,"ĠStories":13498,"arios":13499,"ĠAbd":13500,"1922":13501,"ĠRap":13502,"Former":13503,"tf":13504,"Ġ=======":13505,"æľ":13506,"ĠSumm":13507,"Operator":13508,"written":13509,"Ġturb":13510,"ĠAgreement":13511,"Ġmanuscript":13512,"ĠPeace":13513,"Ġcomplicated":13514,"ĠLang":13515,"sample":13516,"actic":13517,"Ġ\"$":13518,"Ġflowers":13519,"Ġfemin":13520,"('/":13521,"Ġrepeat":13522,"Present":13523,"Ġdecent":13524,"Ġflights":13525,"SG":13526,"ĠAdams":13527,"iteral":13528,"ĠChristopher":13529,"Ġprinted":13530,"footnote":13531,"backs":13532,"Ġmile":13533,"Ġpace":13534,"ĠLess":13535,"Ġjazz":13536,")|":13537,"ĠMI":13538,"charge":13539,"Ġcontracts":13540,"Ġimpacts":13541,"Ġnumerical":13542,"Ġrely":13543,"VALID":13544,"Ġtiny":13545,"ĠBangladesh":13546,"Ġinsights":13547,"minute":13548,"ĠHell":13549,"Ġprecision":13550,"ricane":13551,"ĠMichel":13552,"ĠBoolean":13553,"Ġsurprised":13554,"porter":13555,"amazon":13556,"xs":13557,"Ġregulatory":13558,"iah":13559,"ĠPear":13560,"Nullable":13561,"Ġcrimes":13562,"Ġbiological":13563,"Validation":13564,"Ġclassified":13565,"Ġdowntown":13566,"Ġdial":13567,"there":13568,"Ġtub":13569,"connected":13570,"ĠCC":13571,"Ġ\\(":13572,"Ġelectro":13573,"Ġsoph":13574,"Ġoral":13575,"cca":13576,"ĠFern":13577,"iamond":13578,"\"],":13579,"cin":13580,"Ġcollapse":13581,"ĠAddress":13582,"ĠFight":13583,"Ġabandoned":13584,"Ġyesterday":13585,"python":13586,"ĠNCAA":13587,"ĠBeat":13588,"Ġamid":13589,"Ġpref":13590,"ĠBart":13591,"Ġequipped":13592,"Jack":13593,"Ġnominated":13594,"Ġdenied":13595,"ĠDublin":13596,"ĠWalter":13597,"Ġvisits":13598,"trace":13599,"aman":13600,"Ġencouraged":13601,"103":13602,"Ġmetrics":13603,"oids":13604,"Ġstarring":13605,"urations":13606,"Ġunusual":13607,"Ġheading":13608,"ĠDJ":13609,"Ġscalar":13610,"ĠBased":13611,"_);":13612,"Ġposter":13613,"Ġcertificate":13614,"uese":13615,"RED":13616,"Ġfishing":13617,"Ġwalked":13618,"umar":13619,"atile":13620,"ĠHit":13621,"urrence":13622,"SSL":13623,"Ġstadium":13624,"berry":13625,"Ġspark":13626,"ĠIndonesia":13627,"tar":13628,"ĠChampions":13629,"Ġspeaker":13630,"series":13631,"rf":13632,"ĠSW":13633,"Ġcalendar":13634,"1927":13635,"Ġsupplied":13636,"ĠMcG":13637,"ĠChallenge":13638,"EEEEFF":13639,"Ġhighlights":13640,"country":13641,"Ġsingular":13642,"Ġsharp":13643,"avit":13644,"Ġmanifest":13645,"ĠJonathan":13646,"Ġconnecting":13647,"Ġleaf":13648,"Finally":13649,"ĠCrown":13650,"jamin":13651,"ĠLawrence":13652,"Ġhelpful":13653,"OC":13654,"ĠPDF":13655,"ĠCass":13656,"ĠBio":13657,"1931":13658,"ĠGolf":13659,"ĠPeak":13660,"ĠMs":13661,"Ġstructural":13662,"Ġhurt":13663,"asma":13664,"Ġsupplies":13665,"à¤¾":13666,"Future":13667,"ĠMars":13668,"alion":13669,"ĠHarvard":13670,"uki":13671,"Ġchecks":13672,"Ġsatellite":13673,"ĠWithout":13674,"ĠAssistant":13675,"Ġcharts":13676,"Ġhip":13677,"Ġutility":13678,"Ġengines":13679,"Ġinvolvement":13680,"1912":13681,"Have":13682,"rient":13683,"Three":13684,"ĠStewart":13685,"plot":13686,"ikh":13687,"Ġmechanical":13688,"SCR":13689,"ĠSel":13690,"Ġpatch":13691,"ĠGiven":13692,"DATA":13693,"ĠDVD":13694,"raid":13695,"MODE":13696,"Ġbreast":13697,"ĠCou":13698,"1924":13699,")[":13700,"Example":13701,"Research":13702,"ĠChile":13703,"}^{-":13704,"ĠME":13705,"ĠHoll":13706,"Ġcomputing":13707,"owned":13708,"DEF":13709,"ĠCrime":13710,"cluding":13711,"hist":13712,"aning":13713,"ĠâĢł":13714,"atomic":13715,"Ġbreaks":13716,"Ġchronic":13717,"orable":13718,"uce":13719,"ĠMind":13720,"download":13721,"Ġflows":13722,"UES":13723,"compile":13724,"Ġnoticed":13725,"uet":13726,"exec":13727,"ĠHum":13728,"Ġinspiration":13729,"Ġperfectly":13730,"integ":13731,"Ġresponded":13732,"Ġuniversal":13733,"father":13734,"Ġfunny":13735,"ĠTurkish":13736,"Ġsoundtrack":13737,"Ġresidence":13738,"ĠFame":13739,"ArgumentException":13740,"Ġfeelings":13741,"Generated":13742,"Ġcable":13743,"outube":13744,"axies":13745,"claimed":13746,"ptic":13747,"Ġna":13748,"Move":13749,"Cred":13750,"Ġcoupling":13751,"zym":13752,"ĠOperation":13753,"sortValue":13754,"Ġexpatriate":13755,"ĠBruce":13756,"Ġentities":13757,"ĠBeaut":13758,"1925":13759,"ĠOK":13760,"Ġ\\;":13761,"Through":13762,"Ġfounding":13763,"ĠComment":13764,"Ġhired":13765,"Ġequally":13766,"Returns":13767,"Ġfleet":13768,"ĠPublishing":13769,"Ġedited":13770,"ĠHIV":13771,"ĠDouglas":13772,"Ġdoctors":13773,"ĠSets":13774,"efe":13775,"emed":13776,"ARN":13777,"Ġimmun":13778,"ĠRegiment":13779,"ĠDeputy":13780,"lia":13781,"Ġrugby":13782,"ymn":13783,"ĠKennedy":13784,"ĠAustria":13785,"ĠPlanning":13786,"Ġcompatible":13787,"Ġcharacteristic":13788,"Î¹":13789,"Ġreceives":13790,"ĠWang":13791,"WORD":13792,"hill":13793,"route":13794,"ĠJess":13795,"getValue":13796,"Ġvulnerable":13797,"Notification":13798,"=>":13799,"mouse":13800,"ACH":13801,"ĠTro":13802,"White":13803,"PUT":13804,"blank":13805,"Ġbull":13806,"etal":13807,"speed":13808,"1926":13809,"ĠNBC":13810,"ĠBed":13811,"Ġresident":13812,"terior":13813,"ĠElectric":13814,"Ġoffense":13815,"audio":13816,"Complete":13817,"ĠMerc":13818,"ĠLegal":13819,"navList":13820,"ĠComputer":13821,"ĠCleveland":13822,"ĠMaine":13823,"ĠDal":13824,"what":13825,"ĠMississippi":13826,"rev":13827,"Ġsuperior":13828,"ĠBetween":13829,"driver":13830,"ĠTrack":13831,"ĠAlber":13832,"riel":13833,"ĠJuan":13834,"Ġoccupied":13835,"allclasses":13836,"Ġcriticism":13837,"Ġdeput":13838,",.":13839,"memory":13840,"ĠPatri":13841,"Ġraising":13842,"Ġprivile":13843,"istol":13844,"aceut":13845,"SELECT":13846,"Ġtok":13847,"ĠPalace":13848,"Hub":13849,"Ġanalyst":13850,"boy":13851,"Ġ_,":13852,"Ġ'';":13853,"Ġmerge":13854,"Coord":13855,"ĠLouisiana":13856,"iverpool":13857,"ethe":13858,"Ġarrive":13859,"Ġsequences":13860,"Limit":13861,"Ġelsewhere":13862,"standard":13863,"ĠAnc":13864,"ambig":13865,"ĠGas":13866,"ashi":13867,"1921":13868,"ĠVector":13869,"Ġmoral":13870,"fg":13871,"constructor":13872,"Ġ[âĢ¦]":13873,"mc":13874,"annon":13875,"Ġthreats":13876,";\">":13877,"ĠWoman":13878,"othy":13879,"Ġconstraint":13880,"ĠPittsburgh":13881,"Flow":13882,"glyph":13883,"ĠDoc":13884,"Animation":13885,"Ġapartment":13886,"ĠRain":13887,"Ġhal":13888,"']['":13889,"ictional":13890,"ĠSwiss":13891,"Ġsignificance":13892,"pler":13893,"Ġviewed":13894,"Ġtheories":13895,"Ġske":13896,"ĠForum":13897,"Ġclip":13898,"Ġ([":13899,"Ġintellectual":13900,"Ġvertices":13901,"ĠRepresentatives":13902,"Ġinaug":13903,"<\\":13904,"Ġtips":13905,"ĠGro":13906,"Light":13907,"Ġaddressed":13908,"Ġcul":13909,"Ġkitchen":13910,"Ġintersection":13911,"Ġearthqu":13912,"Ġhospitals":13913,"Ġlegit":13914,"ĠDesc":13915,"Ġautomatic":13916,"hips":13917,"ĠNorwegian":13918,"Ġsubsc":13919,"('#":13920,"Ġwider":13921,"forming":13922,"Ġassociate":13923,"icked":13924,"oj":13925,"Ġmart":13926,"rin":13927,"ĠEpisode":13928,"Ok":13929,"asis":13930,"Ġfocusing":13931,"Ġoverse":13932,"ĠNep":13933,"AMP":13934,"Ġruled":13935,"Ġmanual":13936,"ĠNag":13937,"________":13938,"Ġbounded":13939,"Ġvaccines":13940,"Ġoperates":13941,"amous":13942,"runtime":13943,"duration":13944,"ĠBlood":13945,"lee":13946,"\"\"\"":13947,"Ġisolated":13948,"Ġmaxim":13949,"Ġformerly":13950,"Ġcharset":13951,"ĠWard":13952,"ĠAfghanistan":13953,"Ġå":13954,"Ġinequality":13955,"NavBarFont":13956,"Ġmigration":13957,"Material":13958,"ĠBible":13959,"ĠApache":13960,"Ġgram":13961,"ĠCos":13962,"Ġmeth":13963,"ido":13964,"Pal":13965,"ĠDB":13966,"olen":13967,"Related":13968,"Identity":13969,"licens":13970,"itations":13971,"ĠSud":13972,"inherit":13973,"sha":13974,"quality":13975,"Ġelectrical":13976,"IAL":13977,"println":13978,"agonal":13979,"ĠArgentina":13980,"Ġguarantee":13981,"Ġroyal":13982,"Ġordinary":13983,"ĠLcom":13984,"getElement":13985,"ĠBoys":13986,"xiety":13987,"Eq":13988,"Ġtow":13989,"igs":13990,"Pair":13991,"Ġaccordance":13992,"Ġtone":13993,"activity":13994,"Screen":13995,"Ġpersonally":13996,"Ġappointment":13997,"(\"/":13998,"Ġsimulations":13999,"ĠWright":14000,"Ġju":14001,"verb":14002,"Ġdrinking":14003,"Ġnaturally":14004,"ancouver":14005,"ĠReviews":14006,"tensor":14007,"eling":14008,"Ġsheet":14009,"Ġcurrency":14010,"rition":14011,"Ġtranslated":14012,"onz":14013,"Ġruling":14014,"issa":14015,"Ġcarefully":14016,"Ġsucceeded":14017,"Ġsacr":14018,"Ġ\"\",":14019,"ongo":14020,"ĠMother":14021,"ORK":14022,"Ġdominant":14023,"1911":14024,"ĠPolitical":14025,"Ġblank":14026,"Ġ'\\":14027,"radio":14028,"Ġadapted":14029,"bing":14030,"TX":14031,"Ġcrypto":14032,"}}_{":14033,"Ġ$|":14034,"ĠLP":14035,"Ġremoval":14036,"tha":14037,"assador":14038,"ĠSIZE":14039,"Ġtheoretical":14040,"Ġcann":14041,"Ġcounts":14042,"aba":14043,"Ġinduced":14044,"Ġworry":14045,"Constant":14046,"ĠDist":14047,"Ġmeters":14048,"Ġjournalists":14049,"Dictionary":14050,"live":14051,"dagger":14052,"idel":14053,"Ġoutbreak":14054,"jet":14055,"issance":14056,"'}":14057,"Ġcha":14058,"Team":14059,"1916":14060,"pkg":14061,"Ġpron":14062,"springframework":14063,"illo":14064,"vi":14065,"Ġgreatly":14066,"Ġenhanced":14067,"Canadian":14068,"Ġloyal":14069,"ĠOrth":14070,"107":14071,"Î½":14072,"Normal":14073,"warning":14074,"Ġmusician":14075,"ĠMalaysia":14076,"'];":14077,"ĠMut":14078,"Ġviolent":14079,"ĠNeg":14080,"ĠFinn":14081,"Ġbriefly":14082,"ousing":14083,"health":14084,"ĠCentury":14085,"ĠArchives":14086,"Ġreven":14087,"orus":14088,"Ġrepresentatives":14089,"á»":14090,"1923":14091,"ĠIllegal":14092,"Mus":14093,"GER":14094,"ĠYO":14095,"Ãł":14096,"ĠTar":14097,"hal":14098,"ARS":14099,"Pad":14100,"best":14101,"ĠHad":14102,"ĠIntelligence":14103,"Ġromantic":14104,"Ġgenes":14105,"ĠSenator":14106,"Ġdoi":14107,"ĠPortugal":14108,"Ġdivor":14109,"ÙĪ":14110,"Ġclar":14111,"Ġapproximation":14112,"Ġfunded":14113,"parts":14114,"Ġbasically":14115,"Ġsyndrome":14116,"contrib":14117,"ĠDescription":14118,"Ġcurves":14119,"ĠMoney":14120,"Ġsensor":14121,"Addr":14122,"Ġvolumes":14123,"Ġbeam":14124,"thy":14125,"ĠHunter":14126,"ensis":14127,"ĠGun":14128,"ĠAndy":14129,"console":14130,"validate":14131,"ĠIF":14132,"Ġprocessed":14133,"Ġrestricted":14134,"Append":14135,"ĠCBS":14136,"Ġjunior":14137,"Ġcommands":14138,"linewidth":14139,"Mount":14140,"made":14141,"Unknown":14142,"Throw":14143,"Tw":14144,"Ġtie":14145,"ĠTrib":14146,"topic":14147,"Eval":14148,"Ġgod":14149,"Ġwhilst":14150,"Ġinitiatives":14151,"Ġcompilation":14152,"Ġupgrade":14153,"Ġsoldier":14154,"Ġcelebrated":14155,"agination":14156,"alcon":14157,"STRING":14158,"Ġliterally":14159,"odox":14160,"Ġtheater":14161,"ĠShah":14162,"ĠKer":14163,"Ġdecom":14164,"osity":14165,"iri":14166,"Ġrestrict":14167,"$/":14168,"Ġpopularity":14169,"ĠNord":14170,"ĠĠĠĠĠĠĠĠĠĠĠĠĠĠĠĠĠĠĠĠĠĠĠĠĠĠĠĠĠĠ":14171,"Ġterminal":14172,"Ġeducated":14173,"extension":14174,"Ġrobot":14175,"ĠBelgium":14176,"ĠStop":14177,"Ġcoordinate":14178,"lon":14179,"(.":14180,"Ġreportedly":14181,"socket":14182,"Ġthinks":14183,"ĠFel":14184,"tre":14185,"oplus":14186,"Ġpaintings":14187,"LD":14188,"ĠNelson":14189,"merge":14190,"fare":14191,"Ġlang":14192,"uru":14193,"}%":14194,"Ġcursor":14195,"Tx":14196,"energy":14197,"WH":14198,"Ġanyway":14199,"Ġkernel":14200,"ympt":14201,"Ġprofiles":14202,"Ġrevers":14203,"dark":14204,"isan":14205,"animation":14206,"Ġoverwhel":14207,"Mart":14208,"CG":14209,"/_":14210,"TestCase":14211,"apeut":14212,"Ġcov":14213,"ĠCarter":14214,"aceutical":14215,"ĠConsider":14216,"Ġtennis":14217,"Ġhill":14218,"rypto":14219,"apis":14220,"ĠMethods":14221,"ĠWind":14222,"nik":14223,"ĠCharlie":14224,"Hon":14225,"Ġmuscle":14226,"Ġshouldn":14227,"ĠRobinson":14228,"Ġpub":14229,"Driver":14230,"sto":14231,"urse":14232,"Ġfrequent":14233,"Ġgenerator":14234,"quote":14235,"Ġsymbols":14236,"gies":14237,"Ġdisaster":14238,"Ġlawyers":14239,"LOC":14240,"Air":14241,"Ġastr":14242,"Ġsituated":14243,"Ġliked":14244,"iffs":14245,"ĠWhich":14246,"pread":14247,"Ġadaptation":14248,"Ġelder":14249,"abis":14250,"Ġangular":14251,"Ġpermit":14252,"ĠCG":14253,"destroy":14254,"mathscr":14255,"Ġcited":14256,"Ġ$\\{":14257,"ĠPhoenix":14258,"BIT":14259,"MF":14260,"eva":14261,"plane":14262,"bors":14263,"ĠCSS":14264,"rake":14265,"Ġcampaigns":14266,"School":14267,"separ":14268,":`":14269,"Ġanchor":14270,"ĠBrooklyn":14271,"cdn":14272,"ensitive":14273,"ARCH":14274,"cia":14275,"Ġpending":14276,"Ġsimultaneously":14277,"Ġbeer":14278,"Olymp":14279,"Edge":14280,"ĠConstitution":14281,"Condition":14282,"Ġtea":14283,"ĠRemove":14284,"Robert":14285,"109":14286,"ĠMarshall":14287,"Ġfinishing":14288,"Ġsegments":14289,"ĠNat":14290,"scar":14291,"Ġsustainability":14292,"Ġrounds":14293,"Ġexclus":14294,"inions":14295,"Ġbronze":14296,"ĠOptional":14297,"Ġoxygen":14298,"ĠCNN":14299,"1915":14300,"Az":14301,"Ġproteins":14302,"×ķ":14303,"Ġsurn":14304,"ĠHE":14305,"Insert":14306,"proved":14307,"Ġaccompanied":14308,"Ġdisturb":14309,"Ġdirections":14310,"ĠCer":14311,"essed":14312,"tk":14313,"Ġdifferential":14314,"trm":14315,"itudes":14316,"ĠStage":14317,"than":14318,"ĠAppro":14319,"TRY":14320,"Ġdeveloper":14321,"ĠTheater":14322,"ulu":14323,"isEmpty":14324,"Ġexpanding":14325,"Ġyields":14326,"ĠSustain":14327,"pload":14328,"Profess":14329,"1913":14330,"ĠZone":14331,"ĠThailand":14332,"Ġtrou":14333,"oria":14334,"Ġhint":14335,"ĠPython":14336,"ĠÐ²":14337,"Ġnick":14338,"ĠDenmark":14339,"Ġamongst":14340,"Raw":14341,"inces":14342,"walk":14343,"ilevel":14344,"icit":14345,"Updated":14346,"ĠSyria":14347,"oned":14348,"ĠSaudi":14349,"ĠRub":14350,"ĠTig":14351,"books":14352,"asa":14353,"Ġcrossing":14354,"Ġfoss":14355,"sb":14356,"Ġperturb":14357,"clone":14358,"Ġedit":14359,"ĠOrleans":14360,"zip":14361,"rices":14362,"ebr":14363,"Ġorganisations":14364,"CALL":14365,"Ġfiber":14366,"Ġcharacterized":14367,"Ġamplit":14368,"omed":14369,"Ġadequ":14370,"Ġdiet":14371,"Ġreviewed":14372,"Ġfolks":14373,"_+":14374,"AST":14375,"Ġjet":14376,"Ġwarrant":14377,"ĠGary":14378,"Ġjudges":14379,"Fragment":14380,"ĠODI":14381,"Ġanimated":14382,"ĠParent":14383,"beat":14384,"Ġdefines":14385,"Ġlanding":14386,"SW":14387,"Ġalias":14388,"ĠCarib":14389,"simple":14390,"boards":14391,"ĠAlice":14392,"ĠPeters":14393,"itol":14394,"uates":14395,"×Ļ":14396,"atrix":14397,"Ġbread":14398,"lessly":14399,"Ġsecretary":14400,"Ġlegs":14401,"ĠMarie":14402,"iang":14403,"prom":14404,"atasets":14405,"itutes":14406,"Ġgro":14407,"Ġstem":14408,"UTH":14409,"Ġlicensed":14410,"ĠHO":14411,"Ġnamely":14412,"Ġaside":14413,"Ġblind":14414,"yll":14415,"Ġtill":14416,"Ġsql":14417,"Series":14418,"ĠBody":14419,"Ġbat":14420,"Ġdeeper":14421,"Ġequality":14422,"Ġcooperation":14423,"Ġwhenever":14424,"Ġguilty":14425,"ĠReference":14426,">\\":14427,"ĠLanc":14428,"hatt":14429,"Ġdemocracy":14430,"ä»":14431,"Ġbranches":14432,"#{":14433,"erving":14434,"ĠPoll":14435,"Ġsuicide":14436,"VA":14437,"RPC":14438,"Ġdepression":14439,"Bal":14440,"HD":14441,"Ġgear":14442,"ĠReading":14443,"Ġreadonly":14444,"Ġenterprise":14445,"Ġterrit":14446,"Ġislands":14447,"108":14448,"udson":14449,"uum":14450,"Ġhoping":14451,"Ġdialogue":14452,"War":14453,"ĠRoger":14454,"idity":14455,"textrm":14456,"Site":14457,"ĠProfessional":14458,"Ġ($\\":14459,"ĠSamuel":14460,"ĠCensus":14461,"opens":14462,"Ġsummar":14463,"ĠQueensland":14464,"CTYPE":14465,"Ġperm":14466,"Ġspectral":14467,"icator":14468,"Ġoptimization":14469,"ĠEND":14470,"phant":14471,"Ġquantity":14472,"inburgh":14473,"Ġlogo":14474,"ĠBulg":14475,"notations":14476,"ĠHistorical":14477,"Ġcoefficients":14478,"Ġrarely":14479,"ĠOil":14480,"Ġchat":14481,"ĠClinical":14482,"ĠJu":14483,"Ġdevelopments":14484,"Ġrestore":14485,"eto":14486,"106":14487,"Ġartistic":14488,"ĠTarget":14489,"Skip":14490,"assertTrue":14491,"ĠRange":14492,"Ġ>>>":14493,"whe":14494,"mount":14495,"Ġdesert":14496,"ovak":14497,"Ġdescribing":14498,"ĠFranklin":14499,"ĠHind":14500,"Pred":14501,"subseteq":14502,"Ġion":14503,"anean":14504,"Ġirre":14505,"idespread":14506,"bd":14507,"ĠTogether":14508,"Ġweren":14509,"Ġregarded":14510,"Bro":14511,"Ã©t":14512,"ĠPil":14513,"Ġrunner":14514,"Ġgall":14515,"Consumer":14516,"ĠâĨĴ":14517,"variable":14518,"00000000":14519,"idges":14520,"Ġmerged":14521,"izard":14522,"Processor":14523,"ĠPope":14524,"ĠBaker":14525,"ĠConsult":14526,"goto":14527,"Ġbrilliant":14528,"ĠKaz":14529,"ĠClassic":14530,"Ġmes":14531,"ĠSamsung":14532,"Ġargue":14533,"Ġlifetime":14534,"ĠMetro":14535,"Ġresolved":14536,"ĠLock":14537,"Sample":14538,"pection":14539,"ĠImpact":14540,"living":14541,"ĠMitchell":14542,"celona":14543,"Binary":14544,"constr":14545,"Â·":14546,"anne":14547,"Ġcredits":14548,"=\\\"":14549,"ĠRat":14550,"Ġpermitted":14551,"ĠVent":14552,"ĠCampbell":14553,"nan":14554,"Ġlessons":14555,"Ġthorough":14556,"ivities":14557,"ĠALIGN":14558,"ĠAqu":14559,"Ġmountains":14560,"Ġnit":14561,"Ġpartially":14562,"ĉĠĠĠĠĠĠĠ":14563,"Ġdescript":14564,"team":14565,"Bad":14566,"Ġsatisfy":14567,"Ġmanufacturers":14568,"Ġtweet":14569,"MW":14570,"rank":14571,"Ġbelongs":14572,"Ġexpressions":14573,"sson":14574,"Ġdistributions":14575,"ynasty":14576,"ĠActive":14577,"irk":14578,"disable":14579,"charg":14580,"setup":14581,"Ġimaging":14582,"ĠExample":14583,"Ġincorporated":14584,"Ġdrums":14585,"Ġintense":14586,"ijing":14587,"operative":14588,"Ġorth":14589,"Indian":14590,"ĠMachine":14591,"Usage":14592,"origin":14593,"ĠDownload":14594,"ĠLeft":14595,"ĠInnovation":14596,"Tex":14597,"Ġdil":14598,"Ġpromoting":14599,"Ġranging":14600,"Span":14601,"Ġchurches":14602,"Ġinches":14603,"ĠIce":14604,"colLast":14605,
[...]
