#version: 0.2
Ġ Ġ
ĠĠ ĠĠ
i n
e r
Ġ t
o n
a t
r e
a n
h e
ĠĠ Ġ
e n
ĠĠĠĠ ĠĠĠĠ
o r
s t
a l
a r
Ġt he
l e
Ġ c
i t
i on
s e
Ġ a
i s
Ġ f
e s
Ġ o
r o
e d
i c
in g
Ġ p
Ġ w
Ġ s
c t
d e
Ġ b
Ġ in
ĠĠĠĠ ĠĠĠ
a s
an d
a m
o u
en t
e t
Ġo f
Ġ m
Ġ =
< /
ĉ ĉ
Ġ n
Ġ re
i l
o m
= "
Ġt o
Ġ and
c e
Ġ (
Ġ h
at ion
u r
) ;
o l
e l
Ġ d
i m
i g
i d
u t
Ġ <
Ġt h
Ġ S
- -
Ġ {
u n
o t
r a
i v
l o
e x
a g
i f
Ġ T
ĠĠĠĠĠĠĠĠ ĠĠĠ
Ġ C
u l
c h
a d
Ġ A
č Ċ
Ġ $
/ /
p e
Ġ *
t h
e m
Ġ v
at e
Ġ l
u e
u m
a b
Ġ \
p t
as s
Ġ is
c k
Ġ st
Ġ g
" >
t r
am e
Ġ }
Ġf or
i st
er s
Ġ I
Ġ M
h t
ct ion
Ġ "
u s
t er
l y
l ass
ĠĠĠĠĠĠĠĠ ĠĠĠĠĠĠĠĠ
a y
Ġc on
Ġ P
it h
i r
u b
Ġ on
e w
ag e
en d
Ġ se
ĠĠĠĠ Ġ
a v
( )
Ġ B
r i
Ġ e
o d
Ġb e
q u
o w
v er
s p
o de
a p
Ġ de
or t
* *
s s
u p
l i
Ġ R
es s
ur n
ou r
Ġ D
2 0
ex t
e ct
Ġ F
o p
Ġ H
Ġ L
al l
â Ģ
Ġc lass
in e
Ġ N
= =
n t
-- --
y pe
. .
t urn
Ġw ith
c on
ar t
e st
Ġth at
Ġp ro
at h
Ġ '
Ġ G
g et
Ġ an
Ġa s
Ġ E
m ent
a se
ab le
ro m
i z
l ic
it y
Ġ if
Ġ W
u re
in t
o re
1 9
p ort
ul t
ĠT he
I n
i le
ĠĠĠĠĠĠĠĠ ĠĠĠĠĠĠĠ
Ġw h
re f
k e
om p
Ġth is
ig ht
an s
t a
Ġb y
Ġ it
p er
_ {
Ġw as
pt ion
Ġ or
a c
er e
Ġ &
o c
an g
- >
a ck
Ġ O
at a
Ġ //
d er
i al
Ġ </
Ġ at
Ġ al
Ġ ex
o s
or m
0 0
ĉĉ ĉĉ
Ġre turn
e g
.. /
iv e
: :
Ġ Ċ
p h
i es
al ue
st r
an t
Ġf rom
b er
f f
Ġ r
our ce
n d
p l
o g
j ect
Ġ J
ar y
il l
Ġ -
Ġ y
re s
C on
m a
u se
R e
Ġa re
p ro
Ġ [
i b
l d
Ġ U
a re
Ġ @
ub lic
un ction
a st
se t
i p
t o
it e
m l
i re
a ce
at ed
" ,
Ġ he
ar am
Ġc h
t ext
ig n
) ,
c l
{ \
ess age
ou t
d iv
im e
( "
it ion
Ġ un
o v
u g
( );
ar d
> </
sp an
in d
) .
c ri
Ġ /
Ġn ot
Ġt r
Ġ lo
Ġ +
S t
d d
l f
Ġw e
Ġ le
Ġn ew
> <
' s
ic e
a ct
s er
Ġs h
c om
Ġ$ \
ul l
o st
tr ing
f t
---- ----
or d
' ,
i a
an ce
c al
E x
on g
u st
iz e
f orm
../ ../
T he
ar g
ro w
c c
20 1
ĠI n
ic h
Ġ K
Ġ |
s ource
u d
av e
Ġ V
Ġ j
or y
o k
or k
q ue
a k
m ath
im port
Ġ* /
** **
== ==
Ġn ame
l l
a in
ĉĉ ĉ
b ject
Ġc omp
ht ml
p ut
on e
s h
v ent
Ġ .
Ġh ref
f ig
i el
ĠĠĠĠĠĠĠĠ ĠĠĠĠĠĠĠĠĠĠĠ
Ġp l
ic al
f er
i de
en c
p s
lo w
en s
er t
Ġc om
( '
en ce
Ġ :
m essage
t e
Ġp ublic
p p
n ame
r or
iel d
Ġst r
ĠĠĠĠĠĠĠĠ Ġ
i ew
in k
Ġf unction
l ation
e c
en er
g e
d u
s o
ra y
ou nt
c he
) )
th is
o id
Ġre s
am p
tr ans
P ro
N ame
el l
re ss
il d
le ment
} }
E R
t d
Ġde f
le s
ĠT h
Ġ k
ou ld
Ġ= >
et h
ou nd
^ {
Ġ #
Ġin t
Ġc an
T ype
at or
Ġ âĢ
ow n
_ _
ation s
ter n
in al
th er
i an
O N
b o
al se
Ġt ype
e ar
S tring
I d
c ode
Ġwh ich
un d
Ġv ar
/ >
Ġse t
a ch
1 0
p aram
Ġh as
r y
de x
er v
âĢ Ļ
Ġ use
c ol
20 0
} \
ro up
he n
I N
Ġg et
re e
que st
} $
ab el
ĠS t
ir st
Ġh ave
ke y
ode l
le ct
# #
de f
re turn
" />
y st
e f
cri pt
t y
trans lation
p r
Ġv alue
ta in
o ver
is h
at ic
f o
Ġh is
i x
ĠC h
n e
Ġa b
c re
Ġp r
u al
er y
en g
lo ck
yst em
w e
e p
Ġ us
ar k
i o
at ch
Ġ ar
ap p
o int
Ġcon t
a il
ou s
Ġ !
Ġl ine
eth od
1 8
ic t
R E
ent s
e v
pe c
Ġcon st
se d
r it
Ġ im
o ol
a x
le d
} ,
( \
Ġse lf
pe ct
Ġ all
eg in
L ist
Ġd o
t ype
Ġ| |
Ġo ut
r ight
l ine
: //
ad d
se s
om e
at es
o b
c ation
ac he
am es
ut e
Ġ= =
Ġ _
ion s
R es
a ult
Ġd ata
ing s
um ber
u ct
Ġc ol
Ġ ro
b egin
ce ption
Ġy ou
Ġ id
m er
S T
on t
Ġ up
Ġn ull
Ġ el
e qu
er m
f ra
v al
it le
ot h
Ġw ill
"> <
Ġd is
Ġ i
Ġal so
Ġb ut
Ġon e
e y
1 2
v ar
s um
C h
le t
c lass
ur re
A T
Ġv oid
ht t
n g
ang e
Ġp art
Ġa ss
Ġw ere
Ġs u
Ġ `
ic s
ers ion
se lf
Ġf alse
_{ \
ĠĠĠĠĠĠĠĠ ĠĠĠĠĠ
ĠU n
w o
Ġ Y
ol d
v el
ad er
t he
c o
Ġ >
) $
O R
id th
) );
ĠĠĠĠĠĠĠĠĠĠĠĠĠĠĠĠ ĠĠĠĠĠĠĠ
an n
Ġ end
y n
A r
Ġa dd
Ġ er
m in
str ing
o f
ic k
l abel
iv ate
at er
T h
L E
f ter
et a
a ke
tr ib
ar ch
" );
is s
-------- --------
u de
ov e
1 6
Ġp re
t on
) :
t t
Ġf irst
Ġs p
Ġres ult
at ure
he d
y m
n b
**** ****
em ber
a w
um ent
c a
} {
Ġd es
le ft
V alue
Ġtr ue
A R
Ġo ver
d ata
y le
urre nt
t em
// //
if i
i e
j s
Ġm e
or g
D ata
b ack
if ic
av a
re ad
I D
lo cation
Ġthe ir
Ġp er
ption s
Ġt ime
o ck
ig h
C ol
f ile
as k
Ġ --
nb sp
c es
Ġ )
o le
u le
fra c
at ive
b ar
E N
u es
ĠI t
eng th
v e
c ent
m s
ĠĠĠĠ ĠĠ
ra ph
Ġt ra
or s
Ġel se
o se
sp on
Ġw hen
e q
al s
b r
as h
Ġin ter
ĠH e
an y
p x
ĠĠĠĠĠĠĠĠĠĠĠĠĠĠĠĠ ĠĠĠĠĠĠĠĠĠĠĠĠĠĠĠĠ
t il
it em
r m
per ty
Ġa p
Ġ qu
Ġo ther
v alue
Ġa g
A L
T o
Ġv al
Ġb o
li ent
Ġ/ **
==== ====
le ction
el y
Ġs up
Ġ en
ĠTh is
ire ct
S et
" )
âĢ ĵ
1 1
Ġpl ay
Ġc ase
tern al
Ġn e
p re
ar get
S S
Ġb u
Ġin st
an ag
lo g
s ub
Ġor g
Ġcom m
Ġstr ing
Ġw ork
Ġs o
os ition
Ġit s
i se
Ġs ub
con d
c ess
ou n
Ġ ra
( $
cc ess
ut ion
Ġ x
Ġm ore
d ate
cl ude
Ġc re
Ġc l
d a
c omp
] ;
Ġh ad
c ite
ul ar
E n
r ror
Ġt wo
in ed
ro id
Ġt e
qu ire
Ex ception
w ork
1 5
is hed
Ġ& &
ĠâĢ ĵ
ut h
b u
n ew
C omp
in s
Ġt est
Ġf ile
con t
Ġa pp
b le
19 9
y s
erv ice
ation al
Ġbe en
Ġf inal
Ġh er
Ġon ly
Ġre g
v iew
Ġthe y
' )
Ġfor m
Ġtr ans
Ġst atic
Ġan y
} )
ro und
B u
ĠC on
m ary
O bject
ol low
T est
ĠS tring
od y
$ .
id er
ag es
Ġs pec
s cript
r c
D E
Ġ! =
pl ay
Ġ// /
Ġf il
() .
t est
Ġ %
r am
p en
e e
ase d
at ing
3 2
s ize
' ]
math b
Ġo b
enc es
n ot
C T
$ ,
l ink
it s
at us
U n
ser v
re am
Ġin to
2 5
E rror
a ction
om m
ĠĠĠĠ Ċ
. </
G et
() );
ĠP ro
Ġth ere
um n
Ġn o
Ġwh o
n av
aram et
it ed
p ublic
Ġof f
T r
res ent
"> </
ib le
Ġ ext
Ġa ct
Con t
Ġpr ivate
K ey
re n
n ing
n er
Ġex p
r ame
c ed
Ġg o
ĠA r
Ġ em
Ġc o
, \
} .
Ġuse d
l ay
are nt
1 4
f or
ĉĉĉĉ ĉ
l and
Ġa d
p end
w w
S E
Ġl ist
l ist
Ġs c
V iew
im es
I T
b e
1 7
Ġy ear
r ic
he ck
Ġb ack
p ar
w ard
m od
1 3
ĠR e
[ '
or der
Ġwh ere
l er
i ous
an k
equ ation
A t
f ace
in dex
" ;
on s
. _
Ġb et
M E
F ile
str uct
Ġthe n
Ġf ollow
qu ot
er n
op le
ro ll
I m
ut il
amp le
Ġn umber
ra ct
cl ud
s on
w ay
=" +
lo ad
ou g
Ġun der
ff er
Ġl i
math cal
f unction
! --
A N
Ġre c
d is
Ġa fter
ind ow
Ġp e
Ġo bject
C O
Ġ ent
htt p
ur l
p ace
in ce
Ġ/ >
am b
g er
sum mary
Ġ key
ph a
s c
Ġch ar
' );
B y
iz ed
Ġg ener
f ield
re d
Q u
=" ../../
1 00
E vent
e b
l ang
y p
t op
Ġab out
it ies
] ,
f ore
ro l
il ity
ĠN ew
Ġd if
âĢ Ŀ
m e
} (
h o
ol og
ic es
Ġm a
if y
Ġd ist
g o
ug h
U L
Ġs ome
le te
iv ers
Ġpro v
() ,
con st
cri ption
Ġm ethod
on ent
Ġth an
ot t
mer ic
oc ument
in ter
H e
Ġm odel
Ġe vent
ĠE x
Ġre l
a ir
o ot
is ion
we en
Ġw ould
Re fer
ur ing
t ime
t able
b y
ack age
ist s
r ite
Ġm od
Ġm ay
a z
ĠA l
em ent
us er
g roup
Ġt itle
p i
Ġf ield
b ut
i ent
3 0
Ġsh ow
S h
} ^
w idth
p ath
Ġp ol
} _
Ġsu ch
al pha
ra w
Ġst art
il y
t s
Ġs er
T ime
or ld
ĠS h
C lass
Ġer ror
ur ation
re g
T ext
w h
Ġf e
or n
Ġs he
v en
v oid
ĠS e
Ġ arg
Ġim p
~ \
Ġk n
com m
m d
R O
ra p
19 8
" :
Re quest
ĠA n
g round
u i
In fo
I ON
Ġp h
6 4
A n
Ġo per
' :
/ *
` `
S e
.. .
Ġ ?
Ġs im
anag er
ifi ed
Ġre p
Ġ-- >
ro ugh
col or
or re
Ġcon s
Ġc all
] .
E lement
N ode
re ak
I tem
iv en
ri de
Ġbet ween
Ġ );
ot e
m p
iv er
al ly
P ath
2 2
Ġa cc
F or
m all
ce pt
T E
d t
L A
se ction
con fig
lo b
P E
op y
ar ray
ra d
/ **
ect or
Ġpro du
tr y
I nt
iz ation
ou se
5 0
it ial
p art
O n
A dd
Ġc al
Ġsh ould
ar s
Ġo ur
ole an
() )
f l
in es
i k
bo x
Ġthe m
T R
Ġin v
trib ute
ment s
In dex
in clude
Con fig
Ġin clud
Ġ Z
as on
Ġc urrent
oc i
at t
Ġ X
## ##
Con text
A s
Ġp oint
M ap
amb da
Ġus ing
c le
ĠW e
f in
ames pace
" "
us h
ĠĠĠĠĠĠĠĠĠĠĠĠĠĠĠĠ ĠĠĠĠĠĠĠĠĠĠĠ
w ord
og le
ect ed
Ġy our
Ġs ystem
Ġr un
Ġa m
) \
ign ed
F ield
Ġst ate
en se
Ġth row
Ġass ert
se arch
htt ps
un c
Ġe ach
Ġg roup
l ength
Ġm in
P I
ist er
A C
Ġ ed
w n
lo se
m u
st ance
ap i
St ate
d es
r id
Ġdif fer
ĠF or
enc y
n et
ate g
Ġh igh
it t
Ar ray
an e
Ġ( !
ch ool
spon se
= \
2 4
Ġe qu
F orm
a f
$ \
Ġf l
as ses
' t
Ġpe ople
m ap
tain er
Ġl ong
oth er
m an
= '
ĠI f
Ġ z
l t
t itle
il der
' ;
ĠA s
C ode
tr ue
Ġs ize
Ġf ound
re m
Ġre quest
Ġp o
er ror
oug h
E qu
D ef
Ġ} );
ic on
m odel
Ġm ost
ro p
meric an
am ma
19 7
Ġh and
O ver
} ;
b lock
ver t
ĠC ol
Refer ences
Ġ/ *
Ġre quire
r on
Ġne ed
ot s
Ġth rough
Ġex pect
3 3
id ent
//// ////
2 1
Ġl ink
m ed
Ġ u
Ġthe se
Ġe st
Ġar ray
a h
pt y
form ation
Ġ Q
S ervice
Ġst ud
ĠâĢ ľ
are d
ap ache
h at
r an
p on
Ġ} ,
D es
ow er
en u
port s
Ġs ol
Ġwh ile
h er
Ġdef ault
Ġe lement
b all
A l
Ġs ame
ens ion
I C
Ġa c
W ith
ff ect
in put
Ã ©
Ġd irect
="../../ ../../
o h
res ult
n ode
per t
******** ********
ĠD e
_ \
U R
00 0
N ot
le x
at s
F F
it or
ne ction
o bject
[ ]
S ize
tt p
Ġ import
ant s
Ġre m
Ġc ent
g t
Res ult
ig ma
Ġp ar
al ign
yn c
l ish
e ver
Ġag ain
Ġre ad
al e
> &
it er
pl ate
d ition
f ul
et s
val id
f rom
Ġcont ent
D e
b ody
et urn
b ers
O r
Ġr ight
ivers ity
lic ation
; &
ass ert
Ġse cond
ers on
ay s
M essage
ĠĠ Ċ
if e
de l
Ġa ut
o x
mathb b
ra g
il ter
cre ate
Ġh im
r u
Ġlo cal
a id
Ġt arget
Ġbe fore
4 0
Ġs rc
H and
Ġt ext
eg a
Ġ\ \
Ġg iven
c d
Ġw ell
sh ip
t n
able d
in fo
i er
Ġus er
v ersion
Ġs ign
+ +
g ram
ag s
Ġj ava
} _{
Ġn on
p o
- \
Ġp aramet
p le
Ġl arg
lo at
uth or
ust om
O f
Ġor der
b ase
ure s
Ġs ing
cont ent
on d
L O
def ault
ress ion
U p
\ \
Ġfollow ing
Ġli ke
} ^{
s w
Ġstr uct
U T
ical ly
or th
c ss
o ff
co pe
l p
ĠT r
Ġh ow
lect ed
iv es
at ri
ar n
ou th
b ol
ph i
Ġcon fig
is m
A D
Ġm y
he ad
W e
um er
ur y
Ġlo g
Ġ __
V al
C omm
iv ed
cal e
le g
st art
^ {\
A pp
Ġe ver
. "
j ava
Ġc a
I G
pert ies
Ġer r
Ġc orre
Ġst yle
2 3
ĠL e
Ġb ase
---------------- ----------------
Ġc ode
ĉĉĉĉ ĉĉ
L oc
=" ../
and roid
l a
Ġb oth
Ġt em
Ġw rit
Ġbe ing
end s
m y
Col or
M odel
Ġ art
Ġj ust
Ġ= ==
ut es
iss ion
ĠS ystem
Ġdo es
b f
id d
Ġyear s
l ambda
t ing
ma x
ath er
IN G
6 0
Ġsup port
p oint
m b
M L
u ary
UL L
re at
re ate
de pend
Ġl ast
U ser
am ily
Ġn ow
con text
s k
i able
L og
p ackage
u ch
Ġdiffer ent
Ġm em
S ystem
n o
Ġse e
Ġ{ \
I s
M anager
i ed
ou ble
t ings
vel op
p os
T D
Ġs ur
f alse
Ġc heck
Qu ery
; </
le ase
im it
Ġth ree
ist ory
pon se
=" #
Ġm ake
Ġp ath
e vent
Ġ: =
def ine
o ption
Ġs erv
od es
T able
v ir
st ate
lob al
Th is
we b
O ut
t en
Ġd uring
Ġv ersion
o ok
S er
Ġ} ;
ĠĠĠĠĠĠĠĠ ĠĠĠĠ
t ra
le ss
ott om
act ory
ig inal
ĠI s
n ext
Ġpro t
Ġm ed
c ore
ile d
ific ation
ym bol
b l
et work
Ġper form
E T
Ġto p
Ġde c
roll er
m ethod
C H
Ġb lock
Ġn ode
Ġap pro
ann el
ĠO n
k en
Ġin put
d own
c ount
ar m
us ing
E D
Ġm et
if t
M A
de v
s up
G roup
Pro perty
Ġm on
m et
======== ========
over n
se c
ĠG et
Ġbu ild
Ġt erm
ith ub
e ps
Ġval ues
ro ss
ur s
our ces
Ġc ould
Ġle ft
Ġcre ate
us s
d oc
il on
D O
) </
r al
Ġcon text
Ġpart ic
ent ial
M P
In ter
Ġte am
li b
Ġcon tain
< !--
Ġb el
n amespace
ĠA merican
ĠUn iversity
u age
Ġit em
d b
A B
Ġb reak
l ished
ww w
iv ing
ĠS c
Ġwh at
Ġf ind
Ġma de
Ġin dex
Ġinst ance
2 7
pro t
C lient
s ide
b eta
a it
Ġm any
I S
st yle
ĠR o
um e
" .
st atic
U N
Ġand roid
P l
in ing
ifi er
che ck
b ed
Ġm ax
olog y
ur al
Ġm ust
Ġcont in
2 8
g ithub
go ogle
Ġrec ord
mathb f
it ch
> (
s igma
Ġst d
ta il
ff ic
eg er
act er
F rom
ĠĠĠĠĠĠĠĠĠĠĠĠĠĠĠĠ ĠĠĠĠĠĠĠĠĠĠĠĠĠĠĠ
Tr ans
end er
Ġo pen
Ġ ,
ĠĠĠĠĠĠĠĠ ĠĠ
Ġch ild
ar ly
fin ished
Ġal low
pl ace
Ġb ool
ca use
Â ł
c er
6 6
yp es
orm al
t ab
EN T
atri x
R eg
Over ride
O T
Res ponse
us ic
Ġn il
che d
C ount
cent er
Ġp op
in a
M ethod
Ġp osition
ref er
arg in
ul ation
Ġv is
C E
o od
Ġpro cess
Ġbe cause
Ġre f
c all
Ġ( \
pr int
v ious
c y
C all
lic k
l ight
Ex ternal
se e
ist r
ok en
D is
C l
un finished
^{ -
al ity
Ġ( )
i um
n ull
M od
Ġb l
Ġdis c
ction s
Ġbe g
A ll
ĠI nd
Ġtr y
Ġin d
Ġle t
Ġlink s
i or
og raph
ĠC omp
Ġm an
c ord
ph p
] (
Ar g
i ev
Ġre fer
n s
ĠC omm
ual ly
r un
Ġs aid
Ġde velop
Ġn ext
ĠM ar
Ġo ptions
w ith
lo c
Ġm ap
t es
P h
sp ace
D ate
U til
che s
T H
ac es
ĠUn ited
Ġever y
Ġ$ (
w are
en e
er r
qu ery
Bu ilder
ĠC l
Ġm ov
Ġcol or
Ð °
ict ion
c ast
d ir
til de
ĠR es
Ġd r
Ġv iew
g y
Ġp ass
c urrent
2 6
r ing
) }
N ew
B ar
le m
Ġin formation
A ME
o in
a ut
ĠP h
Ġc oun
Ġs ource
2 9
a i
iv ity
d l
Ġre ce
] )
L o
a pe
an el
du ct
but ton
Ġlo w
oh n
I L
Ġresult s
on y
et er
o ptions
Ġs mall
q l
ĠL ist
Ġs ince
Ġf in
Ġm ult
* }
id ed
Ġcal led
+ \
Ġ< <
Ġfe ature
ĠE ng
che ma
g amma
t ual
e ch
ab ility
in ition
j av
Ġback ground
4 5
D el
ic y
math rm
p or
ĠA ss
ĠO r
im age
Ġt able
St ream
9 9
ar row
Ġcons ider
Ġm essage
at ter
ĠN ULL
re quest
d ay
Ġo wn
Ġb order
Re f
8 0
In put
i ence
Ð ¾
arg s
ĠA t
P r
iv ely
Ġap pe
Ġle vel
b ig
ĠS et
Ġ enc
del ta
c lient
in ation
p m
e k
A S
ail able
m o
T ra
Ġw idth
b tn
add ing
Ġb ro
ir c
Ġm ain
le y
ater ial
( (
il t
l ing
Ġle ad
5 5
id es
Ġd own
f unc
ĠS he
u les
ĠĠĠĠĠĠĠĠĠĠĠĠĠĠĠĠ Ġ
Ġ ->
b s
. ,
a u
Im age
P ar
Ġdes cri
ix ed
Ġin itial
spon d
it al
E S
G ener
r ho
aram s
ON T
Ġd id
ĠA nd
al k
u str
Ġa v
Ġg u
oot ball
A nd
Ġrep resent
um ents
am ed
U S
P aramet
St atus
Ġf act
a j
Ġre sponse
E nd
B lock
^ \
In stance
ta ck
r and
ur ity
A ction
Ġbo olean
Ġe ffect
I P
Ġpro ject
un e
u k
b um
ir d
Ġinclud ing
Ġkn own
Ġe ven
D I
Comp onent
N av
S ub
ess ion
in it
201 5
Ġl ater
Ġp resent
Ġm ark
he ader
Y PE
Ex p
he ight
Ġh ere
T oken
und le
Ġt ak
Ġd ocument
the ta
Ġpro perty
at ab
ĠĠĠĠĠĠĠĠ Ċ
om en
le v
Ġf our
er o
[ "
Ġv ery
Ġ Ð
Ġhe ad
Ġf a
Ġb ased
re t
Ġagain st
B ase
e lement
ĠĠĠĠĠĠĠĠ ĠĠĠĠĊ
p age
L ay
h and
ĉ Ċ
Ġid ent
ri b
ide o
( {
r t
201 7
} {\
Ġ" ""
nav bar
Ġm atch
c ase
op er
Ġw ay
Ġplay ers
Ġp ost
ser ver
s u
19 6
ĠM ay
lo y
S tr
app end
v ed
t x
ire d
y les
ĠY ou
n ect
ev el
str u
en ame
ĠH ow
Ġc le
B ut
g raph
A ct
ang le
ib r
al th
ĠP r
201 6
L ine
RE F
t arget
Ġ( $
fig ure
N S
c ated
B e
st er
ug in
om et
$ -
t imes
a pt
Ġs w
ta u
i us
at tern
id get
com e
act ive
iv al
Ġc ar
Ġp res
Ġout put
ore d
3 5
n ess
Ġpl ace
end ed
n u
Hand ler
i que
and s
20 19
] {
ol der
rit er
Ð µ
ĠC an
N ull
qu ad
ĠE n
E X
al y
le q
Ġfil m
om ain
p osition
Ġser ies
ang ed
x ml
Ġde v
Bu ffer
00 00
Ġc ount
p arent
s l
and ard
E d
ĠĠĠĠĠĠĠĠ ĠĠĠĠĠĠ
ĠSt ates
se lect
b ug
201 4
ex p
u ro
3 9
At tribute
Cont ent
in c
Ġsing le
o pt
0 1
Ġ+ =
ol ution
an sp
P oint
um p
x y
) {
js on
201 8
atab ase
ĠP l
se mb
h as
Ġin cre
th s
Ġo p
Ġs ervice
Ġlo ok
Ġpro gram
Ġl ang
Ġth ose
Ġkn ow
Ġex per
Ġb ound
bu ild
Ġex ample
ar i
v ider
ator s
or ies
O ptions
cre en
ĠJ an
Ġs chool
row s
3 4
u x
pt r
s im
ic ense
Ġg ame
ur ch
Ġo cc
r l
ateg ory
ch ild
Ġse ason
l in
Ġ čĊ
b ottom
N o
Ġsu ccess
ad ata
Ġcon dition
ĠB u
vir on
il li
H el
read y
b it
wh ere
Res ource
Ġhe lp
Ġw ant
part ial
ĠT o
19 4
ma in
Ġcon f
O P
S ource
m on
a int
Ġh ttp
ic le
or age
E L
R un
ĠA ll
Ġre al
L ink
g ener
m eta
as ure
Ġp ort
Equ al
old s
19 5
Ġw orld
ar ning
Ġor iginal
ou d
i ag
tern ational
i od
t al
* /
ĠJ ohn
Ġimp lement
F unction
S c
ĠW orld
an ces
Ġp arent
ef ore
Ġwith in
Ġim age
ĠW h
ĉĉĉĉ ĉĉĉĉ
m ember
ial og
op en
C K
Ġcomm un
def ined
ĠS p
ĠA d
Ġval id
Ġpo ss
pro perty
LA SS
F actory
ĠC ount
use d
L e
Ġo pt
Ġwith out
F A
ĠR eg
ss ion
s rc
g ress
Ġde pend
Ġun til
it ive
ag ue
E E
row ser
G L
Ġob tain
dis play
r ist
} (\
V ersion
7 5
en n
ĠC ar
ĠP ar
201 3
Def ault
is on
Ġa ction
W indow
Comm and
S P
O L
g le
f e
Ġr ange
F rame
re quire
$ {
Ġin clude
l s
lo cal
O per
Ġlarg e
St art
ĠO bject
iz er
Ġdis play
f irst
eq ref
as cript
Ġpro ble
im g
U E
pr ivate
mod ule
Ġse ver
Ġp age
m ark
et y
ust er
r s
Ġsp ace
im um
ast er
oc us
Ġs k
Ġex ist
201 0
ch ar
ang es
Ġf amily
Ġt ri
A P
Ġe v
A G
A ss
d o
im al
Ġst ill
Ġsup er
T ask
Ġs um
" ]
st atus
s ing
in ess
ĠA dd
Ġex ec
201 1
Ġadd ition
O S
av ing
at ely
f rame
s g
201 2
f low
Ġadd ress
p ost
p ush
~ ~
Ġbo ok
p ed
Tr ue
} );
Ġar ound
ft y
AT E
trib utes
ĠC o
w rite
Ġcont rol
ĠN one
}$ .
Ġest ab
Ġl abel
Ġdef ined
Ð ¸
bo ok
ĠN ational
lay out
f ont
O ff
im ation
Del ta
Ġp ub
Ġre source
3 6
Ġra d
way s
ĠF e
F l
}$ ,
Ġal bum
Ġl a
v is
ĠJ ul
ĠB l
Ġch ange
ĠI m
9 0
Ġ{ @
in fty
om ega
ĠB e
ĠT est
ĠC ent
Ex t
ĠN ov
overn ment
V ER
I t
N umber
ward s
ser t
al let
Ġm ak
yn am
H T
Ġl ife
Ġm uch
3 1
Ġp ower
Ġa ccess
ĠG u
3 7
Ġd on
| \
p ol
ap er
ig ation
c lose
p ack
ĠTh ere
Ġn etwork
k n
R eturn
Ġprot ected
ĠG e
T O
ith er
ĠW ar
C ell
des cription
Ġl ength
l ast
L abel
Ġc are
il er
end if
our n
o ber
Ġ< !--
ĠC al
stru ction
ĠP ol
he s
$ $
str ong
I f
Ġ et
ug ht
// /
P art
Ġt ake
ot ype
in st
Ġf ootball
Ġcomm and
Ġare a
F ONT
jav ascript
F I
ur ther
P RO
p ng
C heck
h ost
ch n
Ġre port
d f
Ġthrow s
3 8
Ġp erson
ear ch
Ġp os
p c
ĠI N
ĠB o
a e
fo ot
f ind
But ton
s ol
C reate
m enu
Ġc ell
eq n
ĠR eturn
he et
Con st
\ ,
p y
ot o
oc ol
Ġw on
i sed
ĠâĢ Ķ
im ary
S ON
param s
Ġass oci
Ġrequire d
Ġpre vious
in ary
Ġc lient
ĠY ork
ord ing
Ġgo od
v es
Ġm ag
Ġav ailable
ent ry
i ans
Ġbe h
O D
viron ment
//////// ////////
e ad
Ġorg an
res h
ĠA ug
P age
ib ility
Ġhe ight
pro ject
end ing
ĠS chool
P ol
if act
m em
ĠO ct
ob j
Ġab ove
s igned
x i
s i
0 5
Ġchar acter
Ġpr int
R ow
( &
Ġre t
n on
at form
Ġan other
Ġ( (
Ġexpect ed
on ents
Ġal ong
ĠG L
m it
re sponse
Ġlo ad
g or
Ġl aw
Ġbe st
Ġparamet er
amp les
Ġst at
Ġn ear
Ġat t
Ġcol umn
Ġ url
Ġbe c
ĠU S
Ġan n
AB LE
Ġc ap
Ġd ue
Ġto tal
Ġm argin
Ġ es
so le
Ġsh ort
Ġf ull
st ream
il ar
st d
Col umn
form at
set s
con tainer
ustr al
semb ly
ĠW est
Ġs ide
Ġgener al
el s
ic ro
o ke
ĠN o
s pec
ore m
Ñ Ĥ
ĠCount y
Ġb ir
ip le
al t
f ilter
l en
Ã ¡
ĠI nt
B ox
m t
Ġm usic
Ġbec ame
ĠA pp
Ġn um
re en
S pec
St yle
Ġg ra
ro du
i j
Cont roller
ĠThe y
am ent
Ġc ur
Ġext ends
" ).
ĠB rit
P re
List ener
op s
g ing
ĠF r
Ġc r
bo ard
om an
Equ als
Ġw in
im ate
ord s
Ġo ld
Ġ q
le ased
ir tual
up date
: </
us iness
`` `
B undle
Ġd ay
ĠS outh
pt ember
Ġs ong
w ide
Ġsever al
C ache
L ast
Ġ eng
0 7
Ġre n
< ?
ĠB y
ĠG ener
Ġres pect
F irst
n um
un g
serv ice
st yles
U I
200 9
4 4
o ice
m ber
on ly
IN T
Ġd iv
v ers
Ġob serv
Ġreg ion
ĠM in
S C
ca ption
M et
Form at
ĠĠĠĠĠĠĠĠĠĠĠĠĠĠĠĠ ĠĠĠĠĠĠĠĠĠĠĠĠĠĠĠĠĠĠĠ
20 20
F ilter
Ġ ke
A d
Ġpol it
ut ure
erm an
ac y
ann ot
ri or
Ġv ol
Ch ild
l im
Ġaut o
st ract
s mall
200 8
ĠSt ate
Ġh ost
" ),
c ul
ener gy
D et
ĠC LASS
bu f
Ch ar
ĠH REF
' '
Ġro le
Re ad
Ġcomp let
Ġparamet ers
Ġf ore
um b
ed ia
a de
ĠJan uary
nt ity
ra ft
u id
ig ger
Ġre lation
ra int
) (
s q
struct or
od ing
ĠA pr
0 8
Ġde ath
N O
S up
ud io
al es
Ġmod ule
ĠHow ever
ref ix
Ġoff ic
D ep
ys is
ĠS er
ug g
Val id
B U
oc ial
Ġc our
cd ot
Ġw indow
pect ed
C C
S p
ĠM arch
gor ith
c m
at tr
UR L
H E
c ache
im ent
Ġc atch
rem ove
ist or
j or
p loy
L ength
Ġal ready
Ġcorre spond
ta ct
M S
al ysis
W eb
ac ed
d raw
Ġf ont
U rl
Ð ½
Ġh ome
Ġup date
al f
le ge
Ġ ]
T em
sh ow
da pt
an c
t ag
li ed
Ġt ask
un k
B ack
Ġvar iable
Out put
Ġle g
if f
M ode
amp ion
Lay out
' ).
Ġo ption
Col lection
âĢ ľ
in stance
200 7
lect or
a im
ĠSe ptember
ĠAug ust
#### ####
refer ence
col umn
o y
ĠR ep
ĉ ĠĠĠ
CO L
Ġpro m
I M
kn own
app ing
depend ent
ĠS up
n ow
U M
g en
Ġdes ign
ck et
it es
se qu
ut ions
ĠOct ober
Ġde ter
re l
T YPE
Ġl ay
} [
ad o
Ġpoint s
le vel
Ġs pe
S ee
b ra
4 8
Ġst atus
ĠD es
Ġtra ck
Ġre st
Ġspec ified
am l
Up date
el se
n umber
Ġte chn
ĠJ une
_ .
cl asses
z e
he ther
om ic
l ap
ER R
A ut
im ension
Ġm at
Ġal ign
Ġse ction
Ġc lose
li p
g l
Ġmem bers
I Z
C ON
Ġm ass
i i
to ol
rib ution
st it
g ed
| -
Ġm ar
Ġf re
out put
ce mber
ch o
)$ .
ĠD ef
uro pe
ry pt
Ġcre ated
and om
ch ange
u c
O m
eqn array
. âĢĿ
D B
idd en
200 6
O b
s d
ĠJul y
Add ress
=" -
="../../../../ ../
ĠApr il
Ġc opy
Ġb ody
ĠA ustral
util s
ure d
Ñ Ģ
Ġcomp ut
as ic
Ġt urn
ĠE d
Ġ[ ]
eps ilon
ent ion
ial ly
N D
d om
Ġm ember
Ġf ail
tail s
Ġcall back
ft ware
ĠA PI
ist ic
Ġf ree
Ġpartic ular
Ġe arly
ad a
s m
20 00
k it
Ġre leased
Ġd ouble
Ġcon nection
T P
ĠAr ray
0 4
um an
pro to
f inal
ibr ary
Ġposs ible
ill ion
++ )
0 2
d r
Ġin ternal
ens or
u ck
m ar
re st
Pro vider
}} \
ass word
Ġn one
ĠC ity
F e
ĠI D
ĠB ut
h am
A M
an a
E m
ĠH T
Ser ver
Ġser ver
in o
ver se
u int
Ġs at
Ġ! ==
> >
rap per
d ict
ens ure
ca de
Ġn av
ĠA b
Ġinter est
pro cess
N AME
graph ics
s cope
r ont
m ult
ĠN orth
ĠP art
y nt
un it
ro y
Ġc ity
w indow
I I
d at
c ap
Ġwe ek
A b
ĠF ig
sup port
Ġc lo
anag ement
ex ec
ĠM an
i et
Ġd en
ER T
Ġfor mer
ic ation
il it
Ġre ma
ĠS te
Ġme asure
Ġchild ren
ire ction
n a
M em
**************** ****************
Ġprodu ct
f a
Ġf ew
Ġse arch
D ev
Ġf rame
CO DE
w ise
o o
0 6
ĠT ra
ĠNov ember
Ġevent s
ĠS w
off set
c s
0 9
Ġde l
P er
Ġe lect
Ġt imes
er a
Ġe ither
Ġcontin u
ĠE X
tem plate
R em
our s
Ġ energy
ĉĉĉĉ ĉĉĉ
C om
W idth
ist ry
fer ence
Ġde st
ograph y
on es
p ose
Ġl ight
ĠB ar
O pen
ps ilon
ĠC lass
ne y
cl us
Ġacc ount
ur g
sq rt
Ġsim ilar
j e
p ly
Ġper iod
c an
Om ega
Off set
Ġd er
Ġre du
par se
() ->
Ġpro f
am il
ĠR ec
ps i
C ase
Ġ* *
ĠL icense
ĠDe cember
or iz
} _{\
idd le
Ġplay ed
Ġa uthor
Ġform at
Ġma jor
En try
i as
c or
ir m
art ifact
Ġv ert
ĠF ile
Ġpro b
arg e
Ġv er
Ġinter face
Ð¾ Ð
Ġarg s
6 7
Ġd ate
Ġqu ery
Ġfile s
h ip
E ntity
Ġl imit
ĠU p
ther n
ĠG o
ĠS o
V ar
, "
prot otype
Ġelement s
Ġc ustom
ĠT e
at al
L I
Ġmodel s
Ġs l
ber t
ri but
Paramet er
Re cord
Ġm ode
T arget
Ġw rite
Ġre d
g es
A PI
m m
Config uration
Ġis s
ri ed
ig in
T ypes
Ã ³
Ġvar i
ce ll
T ree
av es
ch i
b a
cont rol
cript or
Ġad v
ens ity
^ *
Ġp ut
r ation
Util s
="../../../../ ../../
ĠW hen
] );
Ġm ove
Ġcom b
bo ol
Ġproble m
A ccess
ou ch
V is
f loat
ĠCh rist
( _
Ġmethod s
Ġle ss
br uary
Ġh istory
it ory
ĠE urope
d ocument
T ag
L evel
return s
I O
ĠA ct
ĠN ot
Ġind ic
b m
m atch
ĠA f
to ken
oug ht
Ġn amed
Ġu int
ĠD is
b orn
ĠT ype
ac ity
b ind
ri es
c i
id ual
l it
Ġme an
( [
ĠO F
y l
l ong
Ġse qu
re w
Un it
M ax
Ġ` `
P C
t ree
Ġg overnment
200 5
mod al
A cc
Ġcomp any
Ġrece ived
ĠC ont
li es
Cont rol
st rap
G amma
cle ar
ens ions
Ġw omen
ĠV al
A A
Ġl en
Ġpro perties
v are
bu ffer
P osition
4 7
Ġsh own
ro ot
Ġreturn ed
0 3
UL T
Ġ row
Inter face
r is
ã ģ
Ġinst all
ight s
Con tainer
el ine
comm on
âĢ Ķ
he m
M in
)$ ,
sub section
Ġprov ided
B ig
. /
ĠA fter
He ader
i res
Ġg l
b order
Ġf loat
Ġs ite
Ġ\ ,
sk ip
em pty
6 5
Ġfunction s
Ġint eg
itt le
ess ages
ĠK ing
Ġcomp et
Ñ ģ
og n
Ġspec ial
Ġp ot
Ġ{ }
Ġs ay
t ml
Lo ad
r ant
lay er
styles heet
W h
re et
d rop
bo ot
Ex ec
Ġp ay
Ġg lobal
Ġth ink
ĠBrit ish
Ġstud y
" ))
val u
ĠH ar
Ġm er
Ġc over
Ġd one
' ),
Ġstruct ure
Ġlang uage
ab ly
ord in
Con nection
K E
En c
se l
S chema
ansp ort
T op
ĠM c
AT ION
% ;
artifact Id
Ġstr ong
p is
Ã Ń
vare psilon
. $
Ġfil ter
B o
res ource
P O
Ġob j
action s
dev ice
Ġ$ {\
Mod ule
Ġbu ffer
S earch
Ġfield s
Ġle ast
] [
ĉ Ġ
Ġde cl
get her
Ġshow s
Ġto o
l ate
8 8
ot al
Ġst andard
: "
ma il
se cond
gorith m
Ġdescri bed
200 4
} =
enc ies
i ke
ct x
Ġint rodu
th ers
he l
pro p
Ġimport ant
lic it
ĠLe ague
Ġinv est
sh ould
) =
Ġin it
Ġappe ar
th ough
v ec
ĠFe bruary
Call back
Ġal ways
N ext
Loc ation
IG N
Ġg raph
Ġ ...
en v
He ight
ĠM e
V AL
ĠF l
U P
COL OR
Ġinclud ed
t ask
a uthor
ĠP er
ampion ship
ot ion
R ange
Ġ ide
Ġn ormal
de st
b efore
Ġst ream
Ġbu ilt
Ġar ch
Ġc or
W rite
ty p
Ġb and
ĠD ata
Ġar r
af e
A g
or ph
A V
{ {
Ġl ate
Ġw hether
h a
4 9
ard s
med i
so ft
con f
ĠW ith
7 7
Des cription
^{ (
Ġterm s
Q L
H ttp
group Id
th on
S ec
itt ed
iss ing
Ġx ml
ĠReturn s
Ġ* )
ĠCh ar
Ġs ent
ren ch
' >
Em pty
comm and
Ġv ia
P arams
S cript
p atch
om in
Ġp erm
W ork
Ġex pl
s ign
Ġlo cation
) ]
Ġto ok
> ,
Ġcent er
que ue
ed er
Ġp adding
model s
k s
pl it
E CT
ugg est
de bug
ĠD o
Ġs om
ail s
ĠM on
Ġcol lection
ĠH igh
} /
tt ps
eb ug
et ch
Ġse par
Ġcontain s
ã ĥ
Ġassoci ated
s cale
H ash
and ing
illi am
file s
Ġh ouse
Ġent er
Ġto wn
M enu
Ġplay er
ol ve
text bf
P o
ĠThe se
Ġc ache
a use
O p
r angle
() :
em ph
Ġne ver
he nt
w ait
IZ E
Ġ quest
ĠN S
Ġent ry
Ġspec ific
Pro cess
Ġreturn s
b in
Ġro ot
Ġch annel
Ġt yp
Ġoper ation
ct or
Q ue
ĠĠĠĠĠĠĠĠĠĠĠĠĠĠĠĠ ĠĠĠĠĠ
ult ure
Ġs pect
k ind
it u
ug ins
is f
include graphics
val ues
in ner
Ġth ird
Ġh ttps
Ġapp lication
Ġoff set
ent ly
back ground
Ġe as
Ġcomp onent
c ing
P e
Set tings
Ġfil ms
Ġg ames
Ġbel ow
ock et
m ut
ac ing
ĠC or
res sed
Ġrem ove
Ġbeg in
ond on
il le
Th read
Ġfil ename
Ġinst ead
ce ed
cent ury
: (
ĠS im
Ġadd ed
op h
In st
Ġ> =
Ġcle ar
im ages
F ont
row n
F O
Ġhe ld
Ġcare er
Ġqu ant
g ra
Ġp arams
Ġh app
J son
ĠH is
Ġt ypes
O ne
h ash
DI R
p ri
9 5
Ġbir ths
ĠEng lish
ad ow
Ġf urther
ly ing
var phi
Ġwrit ten
Ġfollow s
ĠS an
Ġprov ide
Ġa ge
ĠC reate
lev ision
ĠL og
m i
urs or
ĠR em
Ġm ight
}^ {\
id s
Ġse c
ase s
C o
ĠC oun
irect ory
t im
Ġre search
N one
ex pected
ver age
Ġpop ulation
doc s
Ġs che
ĠO ne
d ist
ST R
7 0
S H
right arrow
od ed
Ġw ater
g rad
po sed
O ption
ĠA rm
A fter
Ġf ive
av en
Ġlo cated
Ġ ;
th ing
Ġrem ov
b reak
} ).
om b
L et
ol ved
T I
Ġv irtual
Ch ange
Ġs ix
Ġfeature s
c il
ri end
ĠA g
C opy
4 2
og gle
ĠN ame
om ent
Ġme ans
Ġlow er
Ġ ::
Ġc rit
Ġre lease
Pro perties
Ġg e
olog ical
Ġim pro
ĠTr ans
D ec
T ER
âĢ ¦
Ġbeg an
Ser ial
Par ser
200 1
Ġact ive
& &
" ));
Ġc er
div idual
i ol
ent ity
ĠAr t
Ġph ys
Ġmed ia
C urrent
ĠJ ap
Ġover ride
ar ies
inter face
Ġrefer ence
Im pl
D L
st ack
Ġp at
Ġ" \
Ġa ir
Ġd at
Ġt w
Ġof ten
Ġc amp
oriz ont
ta ch
=" /
Ġm atrix
AC K
Ġperform ance
Ġw ar
Ġon ce
Int eger
Ġv ideo
Ġst ates
a ff
ob ile
Ġpub lished
Ġin s
Ġst ore
d ated
m ost
sp lit
Ġj ob
Ġit er
ĠAf ric
Ġsign ific
Ġren der
S ession
Ġb it
Ġg en
ffic ient
pro of
id ence
un ch
Ġcon trib
ĠN e
. \
a uth
Ġg reat
Ġ Â
Nav Bar
Pro ject
Ġestab lished
4 6
ms g
Ġdist ribution
ĠIn ter
ĠP ark
Ġ Qu
G e
ex ample
Ġat tribute
Ġcl ub
D ocument
Ġun it
c ard
i ents
od er
Ġse lected
Ġbo x
y ear
Ġh aving
% %
as ing
ic ip
Ġbet ter
ic a
foot er
ol l
is ing
f ord
( :
ĠA ir
ur b
ĠU R
& #
ĉĉ Ċ
ic ons
Ġbuild ing
P ort
Ġst ation
h over
se ssion
P os
ition s
Loc al
ĠI I
i ation
ound s
ut ed
de lete
ab or
ĠCol lege
Ġv ill
Ġam ong
Ġp air
b b
Ġcomp lex
ĠEx ception
Ġre cent
St ore
ĠB G
A merican
k a
lic e
Ġc ou
Ġst op
Ġd raw
ĠL a
Ġbl ack
ourn al
ge q
} ),
Ġ Ã
orizont al
8 5
b or
att le
ĠP res
ren der
ĠE ast
As ync
ĠL ondon
B C
a ul
[ \
Ġpot ential
Ġn ational
; ->
f il
Ġwork s
al le
ĠA meric
Ġch anges
Ġat tack
ĠW eb
================ ================
Ġdif f
PE CT
s ystem
Ġbe come
Ġde p
M atch
Ġ[ '
Ġm en
=" _
R ender
iz ing
ĠM y
Ġhas h
ã Ĥ
ing ton
ĠâĢ ĺ
ĠD av
am a
ĠD ep
Ġtrans form
D ir
. ~\
Ġcoun try
I V
Ġsol id
ma ke
S im
ĠP e
in ternal
Ġvar ious
Ġto gether
ĠB ro
s end
n ap
ĠR ev
ĠR ed
M M
ĠA cc
s v
ĠAss ert
Ġcomm on
C L
c r
s f
c at
i ef
Exp ression
Ġst ory
Ġf low
Ġb usiness
ĠS tr
g r
it ter
P tr
Ġobject s
tain s
u a
Ġtem plate
Ġa ff
## #
Ġac cept
istr ict
un der
il ities
Ġt ag
ä ¸
U B
ĠM ed
al d
200 3
AR T
eth ing
Ġem pty
Ġc y
Ġhand le
m at
S O
25 5
Ġcontin ue
Ġdes cription
Ġcl aim
ĠThe n
Ġs cale
m aterial
OR T
tem pt
w idget
Ġ ~
g ment
AL L
C D
Ġeng ine
iction ary
Ġv ector
V ert
Ġex ception
c over
ynam ic
Ġc ost
Ġgroup s
Ġn ames
p op
ym met
9 7
Hel per
as sed
pp ed
Ġke ep
ĠH ouse
c opy
Ġ( "
ic o
M O
Ġconst ant
c p
Ġn eg
E ng
Ġj av
ill s
r ics
m ode
Ġdevelop ment
Ø §
set tings
typ es
ĠA m
ĠS ch
Ġstart ed
ature s
Ġd ays
ul a
ist ics
Ġam ount
c lick
Ġd oc
S u
f s
l n
'] ,
Ġt im
Ġl ines
ur i
Ġr andom
v ey
? :
St at
ot a
Ġs cope
pl ugin
R el
ar ing
ab s
Ġan t
p anel
Ġoper ator
w s
em s
fra k
ick er
Ġh o
ĠD r
one y
Ġl and
I R
Ġro und
Ġconfig uration
iss ions
Ġed u
Ġpl an
ĠĠĠĠĠĠĠĠĠĠĠĠĠĠĠĠ ĠĠĠĠ
Ġin fo
Ġr ate
Ġgo ing
U se
Ġconsider ed
Ġf ar
Ġmult iple
I F
Ġf ac
H O
boot strap
m ic
Ġcan not
Th ere
Ġe cho
Le ft
ĠBG COLOR
C ore
Ġdev ice
I con
b ased
Pro t
Ġp ract
Ġin dividual
Ġse en
Ġb ar
to String
spon s
Ġspec ies
Paramet ers
ERR OR
E Q
ĠS ec
over line
ran ch
j oin
Ġann oun
ilit ary
at ural
200 2
ĠS ub
Ġs cal
H istory
IN E
y d
iz es
Dev ice
ec ess
ex port
= {
ĠT O
Ġdef ine
v an
Ġab le
iev e
) ^
ĠD E
ĠO R
ance l
ĠW illiam
5 7
T ool
Ġdist ribut
ĠS ee
ĠH er
in n
X X
C P
es h
M on
9 6
ra in
Ġde g
p ag
c ur
Ġcase s
Ã ¼
I ter
Ġsim ple
Ġass um
ĠM ap
Ġt re
a a
med ia
V ector
oci ation
S k
Ġcondition s
. }
Tem plate
em ents
Oper ation
Ġsol ution
Ġappro x
Ġcommun ity
Ġto ol
, âĢĿ
g reg
Ġre view
R ect
add ress
Or der
8 6
Ġf und
Ġin du
Ġac ross
st ore
re cord
ex ports
D raw
al led
dis abled
equ als
p adding
li er
ro s
ub e
D own
istr ation
Ġserv ices
r ict
Ġn umer
Ġsat isf
web kit
Ġarg uments
i ant
and id
Ġsystem s
W E
S ign
Tra ck
Ġsuccess ful
li ke
ix t
S w
Ġyou ng
ĠC heck
ĠĠĠĠĠĠĠĠĠĠĠĠĠĠĠĠ ĠĠĠĠĠĠĠĠĠĠĠĠĠĠĠĠĠĠĠĠĠĠĠ
trans form
Ġfa iled
Ġdef inition
f ony
Ġcal cul
leg ate
Ġse lection
it ect
act ers
Ġsignific ant
v ector
ym fony
ut or
Ġto ken
Ġdeter min
Hand le
D o
er ing
Ġst ar
param eter
uss ian
Refer ence
Ġt ree
j o
Ġg ive
N ames
comp onent
Ġh ard
H ost
Ġat tempt
Ġcent ury
B l
Ġc ross
In d
S tack
à ¤
g lobal
Ġe lection
math frak
id ing
Ġaddition al
Ġhow ever
Cl asses
urre n
Ġst ep
n ected
Ġg row
Ġd a
D D
Ġex cept
Ġs uggest
ĠF rench
Ġwork ing
Ġh alf
ain ed
Ġ} )
ip s
R ight
="../../ ../
ĠC om
as is
ad s
c ustom
Ġph ot
av ior
cri be
ĠS T
T itle
Ġmak ing
hand le
Ġf uture
Ġan alysis
-- >
ĠQ ue
Ã ¤
g n
5 9
ĠIn ternational
Ġp ack
Ġca pt
ĠEX PECT
ĠĠĠĠĠĠ Ċ
8 7
f act
` .
Ġp aper
5 00
s ite
y al
ut er
Ġde tails
u el
we ight
c f
> ();
ar a
Ġen vironment
ĠM od
ip p
r ange
ĠS k
Ġb orn
Ġex ists
Ġcons ist
H P
e le
est amp
U s
f ill
ĠL et
Ġl iter
Ġpar se
P ost
pos itory
Ġd i
ir cle
A pi
20 21
Ġe ar
D ebug
it ing
Ġm aterial
Ġa verage
su ccess
Ġun defined
h line
i ber
T im
Ġsub ject
app a
OR M
}, \
P R
Ġse ssion
Ġs end
Val ues
Ġtra ining
> .
r r
L ambda
if orm
ĠM ark
ug e
B O
equ al
t hen
el low
by te
h ib
C an
Ġsw itch
Ġserv ed
Ġag re
Ġde t
In valid
Ġc ame
Ġrun ning
a fter
ĠJ SON
AT A
lang le
M ult
ac cess
v as
Y ou
F alse
Ġli k
re a
K ind
Ġde lete
Ġse lect
ĠPh il
Met adata
ĠTr ue
en um
Ġhigh er
Ġj o
ri ef
Ġs ure
G ET
ca pe
re q
Ġcorrespond ing
Ġcorre ct
ĠN or
fo o
Bu ild
-- -
Ġarg ument
Ġcomp lete
Ġn ov
ĠG roup
s ort
Ġreg ister
Ġm illion
N um
pen ame
Ġde m
S erv
Test s
Ġre ason
block List
Ġprodu ction
C R
lo s
Ġl im
AT H
p g
icro soft
Ġh uman
v m
t oggle
ĠM o
Ġre ally
co q
Th at
lang uage
h an
$ (
AN D
( *
ang er
Ġa way
Ġs ocial
199 9
oci ety
frame work
b olds
annot ation
Ġn amespace
-------------------------------- --------------------------------
ĠD istrict
ĠM ich
Ġdoes n
ict ure
} "
qu are
je ction
| |
H as
if orn
re place
Ġof fer
Ġd atabase
& \
use s
depend ency
Ġcom e
ĠP ort
d s
Ġthe ory
De cl
yn ch
bolds ymbol
Ġaut om
aw s
omet ry
Ġact iv
pl ugins
f ocus
5 6
un n
Ph i
ers ist
App lication
ld ots
ain s
ol ume
Ð° Ð
ateg y
fl u
Ġb ig
S ION
Ġhe alth
i qu
ic les
end ar
Def inition
Ġd iag
i ra
Ġtak en
Ġd ensity
; /
L ong
ĠC ON
ark s
}} $
Ġo pp
ĠC O
; <
ĠCh ampionship
OR D
Se lect
Ġal t
Ġsequ ence
Ġth ough
i os
Ġgener ated
u ff
al low
ĠE l
Ġp ur
Re ader
ĠN OT
ĠO pen
land s
p ub
or ge
ĠG erman
ru pt
ĠF irst
__ (
out e
d ot
Ġs on
Ġrel ative
4 3
Ġobtain ed
de p
Ass ert
ĠC up
iforn ia
Ġrel ated
s ql
Ġg ot
tr ies
Ġset s
n es
k er
ch an
Ġfre qu
Ġk ind
Arg s
Ġcon tainer
Ġdist rict
co in
Ġby te
e h
Ġsupport ed
am era
8 9
s cal
Ġs ample
Ġappro ach
SE T
Ġad min
ank s
Ġhe ader
Ġun signed
av y
4 1
Ġtrans action
ers hip
Ġunder st
Ġen ough
S D
a el
N on
ynt ax
Ġreg ular
Ġz ero
z er
c ar
not e
j ust
Ġl ittle
Ġb en
wh ich
n ab
ch or
m box
Ġequ al
im ated
et ime
_ ;
. )
dapt er
p lement
x x
Ġbe com
he lp
bo olean
ind ing
ex ception
et ers
con nect
Ġte levision
U RE
M ember
R oot
He ad
By tes
P arent
et ing
Ġdirect ory
ĠL o
Ġw ent
ag ing
Ġcon c
y es
X ml
Ġp rior
ĠD ate
D F
\ |
B A
r d
cite p
field s
S L
D ialog
ar r
use um
Ġsom ething
De lete
G o
( -
Ġp attern
Ġn orth
ĠE vent
w in
ot imes
ase t
C A
C lick
Ġj son
Ġf all
Pol icy
it ude
Ġn ecess
ĠHT ML
Ġy et
y a
Ġp ast
Ġwe b
Ġo s
FA ULT
ann er
at io
ad min
n one
Ġcurrent ly
ly mp
c ategory
aut o
ĠB ase
ar io
P aram
Ġo thers
Ġd omain
G raph
k appa
h r
Ã ¶
oun ter
Ġas k
ĠB el
app lication
Ġprodu ced
un t
Ġth read
f n
Ġtem per
g u
Ġle d
100 0
cre t
ach ine
a ign
b urg
Ġmem ory
Ġd ied
ĉĉĉ Ċ
ile s
x is
Ġs m
Ġin c
o sed
Ġso ftware
reg ister
n ormal
ĠR E
Ġset ting
rag ment
V er
lap se
Ġs cript
d ouble
Ġs ort
en a
Ġ' /
Ġcon struct
ĠInd ian
En abled
Ġline ar
Ġright s
Ġcer tain
N et
Bo olean
ĠD iv
ĠO ut
z on
Ġexp ression
art ment
Ġem ploy
R ed
Ġcon vert
Ġwe bs
Ġl ive
W hen
Ġ+ +
key word
Ġ ign
ĠAustral ia
ĠGener al
p ress
tra ck
L IC
R A
Ġs ays
Ġmov ed
By te
ĠC re
ot ed
Ġg round
W riter
5 8
ĠS um
te ction
wh ite
7 6
Ġfor ce
m ing
Ġf ig
Ġph ase
Ġ( '
S A
Ġapp lic
Ġ< =
Ġallow ed
ĠF rom
Ġstud ents
Ġp assed
Ġitem s
Ġinclud es
vir tual
ĠS ervice
call back
t w
Ġwh ite
Ġp ackage
c pp
ul ated
ĠCal ifornia
Ġre pl
ĠN ote
Ġuse s
ho od
ĠA L
in sert
ĠF ran
TE D
p assword
ĠT ime
Arg ument
9 8
Ġin dependent
con nection
Ġinv oke
Ġc irc
{ }
ĠEng land
P ackage
iv il
Ġneed ed
h igh
"" "
Ġpol icy
an ish
M ock
rid ge
J ECT
Ġr ule
' ))
Ġin line
w rap
B ody
ub y
Ġacc ording
Ġch o
Ġbut ton
G E
Ġent ire
ĠAr g
ĠAmeric a
Ġun ique
at ory
Ġpos itive
Ġra ise
Des criptor
\ "
Result s
f ree
Ġw allet
ĠB er
Ġs creen
M ark
D oc
Ġh istor
ern el
inst all
res ses
em ail
Ġa ch
Ġh old
drop down
ĠS m
Ġchar acters
c irc
AG E
R ule
ĠD em
P T
ĠC our
com ment
ĠI S
20 22
ĠI O
Ġby tes
ad cast
at tribute
Ġset tings
stit ute
ĠRep ublic
w ner
ĠM ore
r ate
z z
} )$
Ġs outh
a ur
Ġoffic ial
v ing
ĠU ser
oper ator
ĠD on
Ġin ternational
sh ot
Ġb r
O K
om s
ĠP o
Ch annel
f ull
ession al
ak er
ce l
c it
Ġcol l
' re
Ġm sg
un ity
ed it
Ġap i
ĠH ol
ĠP re
Ġr ather
cl oud
T ab
Ġth us
I X
ĠM al
ts d
a o
ĠPres ident
ĠR iver
` ,
Dis play
sub set
A SS
Ġp ress
text it
l ines
/ \
Ġwe ight
Ġmax imum
item s
Ġrespect ively
Ġvill age
ap s
m argin
m id
Ġmak es
s in
at ives
F ig
ĠTh at
nab la
ĠR un
en ed
M D
ĠĠĠĠĠĠĠĠĠĠĠĠĠĠĠĠ ĠĠ
Ġint eger
ĠE m
\ [
r ames
Ġwh ose
Ġcon v
EN D
b ound
CT ION
Ġpro of
ĠS pec
C re
St orage
ĠA nt
it te
ill a
Ġh om
up le
Ġf ixed
ar p
ition al
ĠM ath
non umber
Ġreport ed
Ġex act
5 1
r ule
Ġth ings
mod ules
Ġdist ance
ĠInd ia
Ġw ord
Ġf em
a iled
Ġext ra
Ġb g
] ]
199 0
Ġ( *
ĠV alue
Ġch anged
Ġjav ax
Ġclo sed
J SON
Ch anged
ĠE rror
let ed
str ict
Ġpartic ip
E M
reg ion
Ġestab lish
Ġf ather
' .
Ġn et
C ustom
} -
itt ing
vent ion
") ]
Ġact ual
Ġe pis
re al
Ġwrit ing
Ġedu cation
Ġc ut
Ġw ait
Ġf ront
li de
ri p
Sh ow
h older
Ġe valu
am s
Field s
ĠF orm
key s
M y
pre t
ĠL oc
Id ent
Acc ount
Ġb tn
EX T
"> &
ĠL O
Ġm oment
Ġd b
ip eline
Ġ ill
199 8
ag ed
id a
Pe ople
Ġh tml
Ġs old
c md
Ġn odes
ĠS ince
ter m
sh ort
M ar
ĠM et
Ġcl uster
) "
ĠA p
c os
Que ue
st at
Ġerror s
=" ">
Ġf lo
ĠM ag
ane se
TE ST
Ġ ir
=" @
p resent
j query
ynch ron
ĠW ork
ĠP al
n umer
ĠP y
F ound
in itial
. *
Ġit self
c ial
sum er
Ġe con
m ission
Ob j
S igma
Ed it
Ġb i
ĠPart y
av or
D r
Ġpolit ical
Act ivity
Ġw est
Ġro t
ensure math
ast ic
rad ius
Ġcom ment
Ġequ ation
\ %
arg ument
~~ ~~
W idget
KE Y
Ġs ymbol
M eta
equ iv
==== ==
ul ly
IT Y
Ġt ell
ot es
s y
ĠSt reet
ache d
o om
ly ph
Ġde al
Ġprov ides
d im
Ġcon nect
con trib
Trans action
th read
Act ive
P RE
C al
Ġcour se
ach ing
J ob
m as
oc r
h s
TE X
Ġpart s
N e
H ow
sp ring
rom e
An y
8 2
Ġre v
om y
Ġneed s
Ġnot e
Ġ" /
inc ip
ado op
P op
able s
ĠO per
Ġother wise
@ "
ut f
Ġdisc uss
Ġrec ogn
an ies
Ġsur face
Ġannoun ced
atal og
Ġdirect ly
her it
ĠĠĠĠĠĠĠĠĠĠĠĠĠĠĠĠ ĠĠĠĠĠĠĠĠĠ
Ġwebs ite
FI LE
Ġd irection
8 4
Ġquest ion
5 4
Ġm anag
enc ed
ens ive
ĠCent er
\ !
Ġan aly
ch annel
sh ape
il led
Ġl ibrary
import ant
Ġpop ular
ang uage
E ach
qu ires
rom ise
Ġd ig
un signed
Ġsc ore
ĠUR L
ber g
3 00
) /
ĠJ ames
ic ate
st ats
Ġlo st
ar ison
is k
ro te
Ġoper ations
re c
ĠS ome
ĠCan ada
ĠA ward
ĠE nd
Ġcon sole
[ :
L ock
l or
M sg
P erm
ĠDav id
Ġassert Equals
Ġtra dition
ĠS en
S cope
ĠK ey
VER SION
n ost
Ġc ast
Ġcre d
Ġlo ss
ache s
HT ML
Ġg re
S end
ĠH el
sc roll
ad ian
S ymfony
Ġexist ing
Ġm ale
m ore
in line
Ġal gorithm
b and
16 0
ĠEurope an
5 2
m ock
; \
om as
ĠCoun cil
Ġv iol
Ext ension
Fl ags
A m
ĠO b
Ġm id
S um
as ons
Ġ$ {
L iving
quire d
as sets
Ġperform ed
leg al
Ġst age
pr imary
add r
C S
.. ..
ent er
proto buf
R et
Ġtak es
By Id
if est
st ep
m ine
Ġe ast
( !
() {
Ġpart y
4 00
m ove
Ġinstance of
A p
and er
5 3
d en
ĠU se
Ġare as
th at
raint s
ĠCh urch
{ -
N etwork
ĠDef ault
l g
Ġf ire
Ġw ide
Ġlarg er
Ġ ),
7 2
Ġt reat
en ing
ed s
P attern
ang o
hent ication
ĠL em
ĠB ra
Ġ% }
Ġa ward
s che
W S
w est
Var iable
Ġcomplet ed
Ġapp ly
ĠGo ogle
Ġim ages
ou l
ĠB r
Ġiss ue
Ġcl asses
Ġvis it
S o
Ġal most
Ġt y
Ġlead ing
d x
F T
Ġtrans ition
ĠBl ack
ul ations
h i
Ġser ial
ĠĠĠĠĠĠĠĠĠĠĠĠĠĠĠĠ ĠĠĠĠĠĠĠĠ
Ġed ge
}} {
av ed
Ġfact or
Ġallow s
Ġus ers
In itial
Ġcomp onents
Ġin flu
Ġst ack
ig en
M e
ĠF ield
al ax
Ġpr imary
g rid
Time out
ĠFr ance
] :
Ġp anel
Ġr ank
wo od
er g
Ġin f
led ge
t ic
S l
O M
B R
im pl
Ġco ordin
Ġm ot
ĠF alse
Ġdevelop ed
Ġv ers
p df
E l
ĠSt ud
F il
or ing
Ġth ought
ĠA ut
sol ute
)) )
ed ge
u ed
in i
overn or
Ġo l
Ġpre c
he st
v ille
Ġc andid
Ġm ock
s ave
Ġf ace
LO G
f ly
\ ]
on ic
pro duct
ul ate
Ġs itu
for ce
ĠG erm
S ing
Ġact ually
P S
it ar
Ġp y
Ġcont ract
print f
199 6
Ġequ ival
Ġtrans fer
pr ime
h adoop
art s
w rit
Ġwork ed
Ġext ension
ĠS ing
ri an
Ġlo ve
o e
s creen
f amily
ĠArm y
25 6
Ġt en
ic ult
iev ed
In ternal
Ġmon th
z eta
M an
st ar
T ABLE
Ġqu al
_ ->
ĠM ethod
P ATH
Ġ{ };
Ġst e
ixt ure
d ots
ĠM or
ĠF il
Item s
Lo ader
ĠR ich
//////////////// ////////////////
M ENT
P si
G B
r um
Ð »
199 7
Ġs igned
ĠR oman
ign ment
ag o
Ġvariable s
ert ific
Ġin side
Ġa void
AC E
P AR
Ġne igh
Ġexper iment
b on
form s
ut ing
On ly
ol ic
ĠP ublic
p ay
st on
pro perties
p ool
Ġle arn
ĠAr ch
CH E
ir it
Des c
Ġwrit er
web pack
Ñ ĥ
Ġhand ler
######## ########
U ID
d omain
est ed
Ġdeg ree
Log ger
str y
t ip
=" "
M edia
ĠSe ction
h orizontal
cont roller
ix el
G S
im ately
ĠO lymp
pl ing
Ġpl atform
Ġed itor
Ġw ords
F loat
ra b
T e
Ġ Î
Ġn atural
Ġtak ing
br id
Ġf ight
M ain
des c
ill ing
198 0
Window s
ç ļ
Ġout side
var iant
Ġnum bers
Ġdistribut ed
ri a
In it
ify ing
Ġreg ard
ma ster
Ġbg color
ac count
ĠT V
Ġexp ress
g it
() ));
ĠGe orge
Ġstr ict
= >
ech n
ut ive
ĠP aul
se ss
Ġma int
Event s
çļ Ħ
Ġpres ident
pro file
event s
Ġf riend
Hel p
ou thern
Ġ icon
ĠT able
Ġfe el
T S
ash ington
ri er
ĠB ook
Ġpre dict
Ġe ff
Ġm ilitary
Ġlay er
Ġtest s
Ġup on
! [
p are
Ġn g
Ġp aint
Ġpro posed
', '
Ġcon struction
ĠM art
ĠL aw
Sup port
Ġdeath s
Ġrepresent ation
wide tilde
Ġ[ ];
ĠCh ina
ĠRe ad
s chema
o ss
Ġcontain ing
P anel
N E
ar ily
k w
Ġmon ths
Ġh on
. __
Ġdescri be
A uth
Ġcon duct
tx t
Ġobserv ed
se lected
ĠD et
Ġopen ed
A dapter
pro du
AD D
P ool
Ġab s
point s
Ġm issing
T C
Str uct
Ġre place
D ist
A c
ĠA ng
ĠAss ociation
AR Y
} ]
th m
ĠAs sembly
Ġ& =
G rid
() ).
Ġup per
Ġb ad
Ġgo al
itte e
Ġw rote
apt er
Ġf unc
st op
fl ags
in v
B it
ĠE q
D irectory
Ġkey s
ĠC opy
ge bra
ĠIn st
ang ular
ĠM odel
Ġrelation ship
ĠH o
Ġn ative
ĠM ount
ï ¼
ind ent
ĠM er
ĠU K
S IZE
U LE
Ġlo ck
Ġc ore
Ġor igin
ĠPro v
En um
, -
b rowser
Ġsh ape
B rowser
Ġ util
ick et
Ġwh ole
Ġcent ral
Ġarch itect
7 9
Ġy ield
j ob
Ð º
z a
N ote
Ġn ight
RO M
ĠT ext
Ġres ources
Ġd imension
ur a
ol ver
oc ity
C le
Ġfl ag
6 8
equ ence
ĠJ ust
result s
)) );
ap pro
_ (
ĠM ac
Ġimplement ation
ĠĠĠĠĠĠĠĠĠĠĠĠĠĠĠĠ ĠĠĠĠĠĠ
Ġapp oint
type of
Ex pr
all s
N G
L S
} </
Ġd ir
ĠO ff
center ing
N ow
clus ion
lem ma
ĠM usic
ĠF ound
\ {
Ġm anager
In v
Ġ{ '
b al
Ġl ot
net ic
Ġdisc over
'] )
I B
an o
par ser
ĠD el
Con f
and ed
Ġper cent
comp onents
NavBar Cell
Re ce
Ġwh y
sec urity
erv e
p id
tab s
Ġsub s
7 8
m es
ĠUn ion
Ġt alk
h ome
Ġre spons
Se lector
th rows
Ġlong er
Sec urity
ree k
Ã §
r ong
ech o
Ġme chan
y per
Ġpro file
MA X
er ies
assert Equal
Ġlo c
Ġim medi
Ġde but
i pe
* )
ĠA ND
Re c
ĠT HE
Ġg ives
199 5
re v
++ ;
Ġiss ues
Ġb ottom
D A
ĠJ er
av i
ĠO ption
ty ped
Ġg r
ĠV er
du le
sup er
Ġeffect s
ant ic
Ġf ocus
Ġjo ined
} +
c b
ĠĠĠĠĠĠĠĠĠĠĠĠĠĠĠĠĠĠĠĠĠĠĠĠĠĠĠĠĠĠĠĠ ĠĠĠĠĠĠĠĠĠĠĠ
ang ing
ous ly
C lose
" `
p ite
ĠJ e
) ">
; "
Iter ator
ught er
de c
6 3
g in
Ġ= ========
ĠO ther
not ation
ak ing
To String
ĠN O
Ġfinal ly
Ġto day
ĠB en
assert Equals
Ġsign al
J ava
Ġent ity
Pro xy
) =\
ex ternal
Ġbeh avior
Ġs ound
c ut
ph one
y e
_ ,
log ger
ul er
at ively
Ġra il
S ymbol
197 0
ee k
Ġa uth
Not Null
an i
Ġv ict
a res
Ġs ave
por ary
Gener ic
Ġnew s
Ġal loc
Ġrad io
ĠG ra
Ġc ref
Ġexper ience
nap shot
ĠA N
j ar
Ġan g
6 9
sh ift
ĠIn stitute
Ġsec urity
ð Ł
ĠI P
Ġs ources
h ere
un icip
b ot
Ġfor ward
get Element
=" ${
Pl ugin
ĠThe orem
ĠBu ild
Ġmark et
Ġat tributes
Ġdirect or
Ġvol ume
ĠTO DO
p ing
Ġteam s
) ),
Ġch all
d ing
if ies
Ġapp lied
-> _
m anager
} =\
ĠL ong
Ġs il
I E
l imit
Ġc op
R est
UT F
Ġgener ate
Ġhim self
par a
$ /
ult ural
f aces
at ically
ed itor
L java
Ġremov ed
Ġun its
ĠDep artment
w ild
se y
ĠNew s
iter ator
ĠRo yal
ĠV iew
Ġr ules
de cl
ĠCon fig
P ORT
ĠDiv ision
Ġproble ms
ĠM em
S U
ĠCour t
config uration
k g
Ġm is
Y ear
Ġm ount
b ad
g an
Ġintrodu ced
ĠV ersion
ĠZ e
__ __
Ed itor
Ġcon tact
D uration
du cation
ĠAcc ording
ĠN ode
d ed
Ġle arning
Ġch ain
pr ing
Ġoff ice
est ival
Ġs ymmet
hand ler
sw itch
h idden
ĠGerm any
Ġcle an
Ġat tr
ĠS am
Ġde bug
Ġpolit ic
ĠD ay
F C
199 4
S QL
col lection
ST AT
Ġ io
Ġtr ansport
Ġe lem
Ġtemper ature
and ra
al loc
alle l
ar ter
t otal
il i
tab ular
id ers
Ġet c
air s
Ġcomp anies
nav List
j a
S ER
k i
ĠAustral ian
Ġstart ing
ĠD ev
Ġm atter
X ML
6 2
ĠL ou
At tributes
Ġincre ase
Ġra ce
ĠV AL
I MP
ĠJ ack
Lay er
Ġopt im
Ġread ing
Ġnecess ary
Ġst re
resh old
P ack
ĠC ode
n ames
ĠM at
line ar
Ġfin ite
Ġset t
ĠD ec
ask et
ĠPro ject
ed y
ĠH all
Ġv el
ĠRo ad
eder al
as c
Re pository
[ $
9 1
ine se
Ġt our
File s
Ġf amil
Ġro ute
Ġt ro
or se
A v
9 4
8 1
ie ce
are a
Ġcamp aign
Ġass ume
Ġp aram
ann ing
om orph
ĠM ary
l ers
Ġdef e
Ġus ually
) ).
get Name
con tains
ĠH and
ĠV ir
e ach
Re v
l as
Ar t
ĠW ashington
Ġmat ches
Ġt er
Ġor d
in ct
Ġgra du
om a
tool s
Ġprof essional
Ġs us
Ġxml ns
F R
Ġpro gress
ĠP ress
Aut o
Ġp ick
k ing
Ġv oc
B efore
P ay
M atrix
Ġfollow ed
az z
) ^{
Ġal though
Ġf n
g ba
Ġd am
ak es
sh ire
pec ially
ĠB ay
Ġm ut
h ing
Ġfin ished
Run time
w ell
eng ine
ri ends
b t
Ġmar ried
Ġbeh ind
Ġlik ely
pe at
Ġt ax
b our
t mp
ĠP ost
Ġplay ing
Ġn or
199 2
ĠComp any
p ass
sh adow
Ġ[ [
Ġdiff icult
IP T
ue st
Key s
Det ails
Ġsong s
ra ction
ĠRe act
is ation
Ġtr ansp
c is
ĠRo bert
ver y
d ates
Po inter
sub s
Ġas ync
Ġdes igned
33 33
Ġca use
ĠG reen
Ġm anagement
Ġnov el
Ġthere fore
w rapper
8 3
Ġre q
tr igger
ph er
st e
Ġin valid
Ġacc ur
Ġw aves
r b
or a
Fe ature
Ġa wait
. '
B P
el li
ens us
) }\
BU G
iz ations
os ite
ĠJap an
9 3
y ing
net work
ĠUp date
Ġ" "
g s
ĠW il
ĠL eg
9 2
ri al
Ġmod ern
Par se
le ep
Ġmult i
ĠA R
Se cond
$ )
Pro file
at ur
Ġb us
ĠO ver
ĠG r
al a
Ġro ck
S he
ĠWh ile
199 3
Ġre serv
ĠD irect
Ġpre vent
IN FO
FF FF
Ġl ib
Ġimplement s
Ġpresent ed
Ġal tern
Mem ory
Ġde ep
ĠP at
se m
Char acter
M apping
o on
e ffect
Ġpro ces
Ġqu ick
Ab stract
Ġass ist
Ġm oney
res ents
ĠR ad
ar ation
Trans form
all ery
ĠIn itial
ad es
ĠM ex
el f
ON E
app ly
: \
Ġenc oding
Ġrepl aced
D atabase
d irect
h ide
Ġexp licit
col Last
ĠA cade
Ġcontinu ed
= -
f ail
Ġexp lo
Ġrecord ed
", "
Ġch urch
ĠB est
u it
ĠIn c
6 1
Ġhe l
C I
v a
Pr int
M OD
col lapse
Ġco q
Ġro ad
Ġde part
Ġde mon
i am
Ġh it
ific ations
Ġb al
Ġex ternal
Ġem ail
Su ccess
k m
Ġw alk
ĠIs land
Ġst orage
sh all
D est
ra se
s ymbol
ĠA lex
Ġdiffer ence
ĠG od
S ince
Ġpo inter
7 4
CHE CK
p icker
. ~
ĠF re
Ġ ensure
by tes
F L
D ouble
Ġd im
d p
se ct
ĠY ear
ĠH en
Ġsp in
Ġlarg est
S cale
Ġ= ======
os en
Ġ" <
ra el
pro ps
Ġcomp ared
Ġwe ak
R oute
wh ile
av er
at ible
Ġst ars
Ġdest roy
> :
Ġm iddle
all classes
ateg ories
Ġen abled
d imension
Ġw ife
ĠS ociety
T erm
å ı
Ġl iving
col First
Ġprevious ly
ĠF unction
ĠT ur
Ġdid n
ĠC all
Ġse x
Ġun known
S ocket
fil ename
Ġsmall er
Comm on
Ã³ n
N ULL
Eng ine
) -
Prot ocol
Ġeff ort
S Y
pe ed
i h
c up
i ences
met adata
Ġon line
ĠD uring
P lay
sel ves
prot ected
li ance
Sc roll
Ġsup p
Ġsim ply
n ers
H ER
Ġbu ilder
ĠT w
aj ax
Ġprob ability
Ġ" ,
Ġsh are
Ġg as
Ġh ot
Ġ$ .
Ġart icle
">< !--
mut able
Ġre ve
Ġpro per
pro vider
Ġspe ed
ĠFig ure
ĉĉĉĉ ĉĉĉĉĉ
Ġm other
7 3
sw arm
n il
Ġm ention
Ġs ens
L P
ĠR ef
Ġcall s
sw er
W hat
ident ifier
ĠC r
ans ion
ĠT em
Ġperson al
Ġlo op
ĠE ar
r ine
Ġf ood
Ġinv olved
ĠR el
ĠP ub
Ġstud ies
Ġphys ical
Reg ister
Ident ifier
Back ground
Ġpro p
wild fly
ĠI d
s ur
Ġpass word
act or
ential s
F ailed
u an
in y
Ġcom es
Ġ Ø
var iable
Ġf it
R AN
b ul
Ġ? >
Dep end
ĠCl ub
Ġcoun ter
anc ial
ĠP en
Ġbo ard
Ġh idden
u fact
lo od
F unc
Ġthrough out
g a
j pg
l am
199 1
S ync
pl atform
LE CT
Ġsc en
}^ \
ĠC ong
ĠL android
Ġk m
Ġh olds
ĠAfric a
re set
P L
cre te
R ad
Ġstat ement
riter ia
Ġ( _
F IG
head ers
urren cy
sp ital
ĉ ĠĠĠĠĠ
Rem ove
ic ol
t body
ĠC am
gener ated
Ġb asis
d ialog
ĠRe search
Ġes pecially
: #
Ġ â
W A
Ġoption al
Ġeffect ive
ĠT ex
F in
p refix
Ġro om
ĠW indow
Ġc ategory
Ġcon nected
exec ute
Ġ ess
l an
ĠW hat
ĠC he
Mem bers
mo oth
um in
á ĥ
Ġ ri
Ġre quires
Ġbound ary
Ġab solute
gra de
W rapper
Ġt ab
ĠTh omas
Ġth ing
ĠWh ite
= (
F ull
D C
j ango
ĠSc ience
Ġnot hing
Ġsh ared
Se lected
E C
TEX T
w ik
ĠIt al
at tributes
7 1
ĠMich ael
Ġg ave
S che
D S
on ym
ĠT ask
typed ef
ag ger
it a
omet imes
Ġg alax
wide hat
er ial
ĠT own
-------- ----
ĠReg ister
ĠEx t
ance ll
S equence
Ġc tx
li ament
serv ices
Ġcon cept
Ġbecom es
ĠJ ava
ĠT echn
( __
Ġform ed
Ġvis ible
clud es
RE AD
the me
t ags
ĠN AME
al ed
Ġcon structor
Ġide a
ff ff
ĠB ig
ser ve
pro gress
J S
el t
Ġpol ice
evel op
IN D
Ġbook s
Const ants
ess or
F inal
Ag ent
St ep
P assword
Ġlevel s
ĠIO Exception
ĠĠĠĠĠĠĠĠĠĠĠĠĠĠĠĠ Ċ
Gener ator
Reg ion
Ġd ise
Ġrun s
us ion
Ġs ense
< !
umn i
Ġt x
k y
ĠCent ral
r f
con s
P erson
P A
{ (
N OT
Ġrece ive
sc r
il ation
F ail
Ġj ud
}_ \
q quad
Ġindu stry
is ions
ĠSh ow
ic ated
ĠD an
Ġimp act
view s
m aven
Ġh ours
Ġsub sequ
() </
pre cated
Ġdirect ed
Pro duct
Ġtype of
? >
Ġm us
ĠG ames
12 3
H R
Ġd ark
M ut
test s
Ġcon ver
cd ots
Ġappe ared
S eg
Ġf un
child ren
Ġg rant
iter al
c lo
Ġprob ably
cont in
Ġe ight
et te
ĠG old
Ġ[ ],
cd n
ĠN ow
ig ration
} |
A uthor
Ġex port
Ġin sert
Se lection
lo ader
S R
ĠG ets
Ġpl aces
ĠM essage
comp iler
Ġw atch
ĠSc ott
ma zon
ĠInt eger
G lobal
Ġc he
Ġg a
o ch
P P
at in
ĠS ur
on al
O UT
param eters
sv g
ĠSup er
}\ ,
ict or
Ġm essages
ĠM useum
ĠS al
M B
log in
Ġnav igation
. ");
Ġse m
ĠTh us
ertific ate
Ġs aw
am az
ex ists
Ġg ir
Ġb rowser
Ġsh ip
en umer
id x
O pt
Ġbel ong
B AR
her ited
Ġa dapt
ĠM ax
r uby
ĠF ore
at o
let on
ig hest
L INE
en ge
x html
Tra ce
Ġn u
Ġschool s
ĠJ ew
re es
il s
P y
Ġbir th
re y
Ġp ers
m itted
li br
Stat ement
G en
Ġdemon str
}} (
Ġtra vel
Ġ" -
P refix
M ore
pre v
ĠCan adian
! !
Ġsize of
Ġtem p
ann ed
AL SE
A X
un ique
az ine
CE SS
ĠĠĠĠĠĠĠĠĠĠĠĠĠĠĠĠ ĠĠĠĠĠĠĠĠĠĠĠĠĠ
N T
z one
Ġinst alled
Ġj oin
Ġup dated
T x
j unit
S pace
}) \
Ġso on
Sim ple
Ġ ×
spring framework
Ġben ef
Ġc ard
Ġact ivity
ol f
Ġb ranch
Ġ> >
p u
Ġset up
N N
19 60
ĠH istory
ĠI E
Ġid x
us form
numer usform
user name
C ategory
ĠN umber
text width
Ġinvest ig
D omain
com ing
Ġd ynam
orre ct
(' .
ĠKing dom
12 8
al and
> ::
Ġqu ality
ĠĠĠĠĠĠĠĠĠĠĠĠĠĠĠĠ ĠĠĠĠĠĠĠĠĠĠ
Ġcoun tries
Ġmin imum
Ġb asic
ĠH ash
Ġto wards
i ses
Ġun less
ĠAfric an
sh ared
im s
ĠIn dex
Ġ ip
ĠRe quest
AR N
Ġincre asing
O B
Ġ\ {
ĠJap anese
an cy
Ġf ast
fl ag
At tr
i en
oc aml
in et
Ġs plit
ĠAl so
ro om
ĠM a
N odes
os er
Ġa ud
if def
ĠT or
IT E
Ġs en
Ġdec ision
ĠH ere
pro v
Ġty pename
G u
ĠM ad
ĠL ine
ĠF inal
Con dition
Ġbegin ning
w ar
ĠĠĠ Ċ
{ %
Date Time
Ġch oice
O ther
are t
Ġblock s
ro le
Ġst ri
r ish
Ġ' <
ĠCol or
Pro ps
id ents
Se ction
tern et
Ġex hib
t ex
ĠHe alth
f ect
=" $
ĠC ath
ĠEx ec
D T
ĠOr der
.. .</
Ġ ui
ĠĠĠĠĠĠĠĠĠĠĠĠĠĠĠĠĠĠĠĠĠĠĠĠĠĠĠĠĠĠĠĠ ĠĠĠĠĠĠĠĠĠĠĠĠĠĠĠĠĠĠĠĠĠĠĠĠĠĠĠĠĠĠĠĠ
ĠChrist ian
ill er
Ġdo ing
C ar
Ġg rad
Gener ated
Ġf ully
x s
Ġproduct s
app ed
Ġr gba
d one
Ġm enu
Ġmin utes
Ġmult ip
Ġvert ical
k o
s pect
Ġsur v
Ġepis ode
N A
prot ocol
Ġtra in
ĠM us
Ġ ],
TI ME
ĠK e
198 9
ex tern
I ST
Ġre comm
ĠR ob
Ġuse ful
Ġf ix
de tails
ĠĠĠĠĠĠĠĠĠĠĠĠĠĠĠĠ ĠĠĠĠĠĠĠĠĠĠĠĠ
f ound
Ġstruct ures
ac ro
let ion
bu ilder
om ial
struct ure
Ġinter val
ĠS u
Ġd rop
F LA
Ġfor ms
iz able
j d
st orage
) ->
Ġbro adcast
Î ¿
Ġsol utions
s ys
ur t
Ġf oc
ick s
CT YPE
Re port
Ġim m
error s
Ġdes c
ĠV ol
re du
Ġj ournal
Ñ ı
ock er
ing u
tem p
asket ball
Ġneg ative
ĠH istor
} :
cit et
ĠT im
ĠF in
& =
Ġs low
ax is
art icle
ĠM iss
con n
Ġdeter mine
ĠRec ords
Ġb ring
il ing
ĠO ffic
Ġst aff
The n
Ġm aster
Ġlog ger
Ġ{ {
; ">
r ated
Ġ[ "
ab ilities
Ġalbum s
ro t
appro x
ol ar
Collection s
Ġlist ed
us ers
require d
ĠSe cond
Ġext ract
D iag
Ġcour t
ĠWest ern
Ġsh ift
Ġpar ser
rand om
i ers
h ol
incip al
it o
Ġd ro
Ġquant um
Ġlim ited
Ġfor ces
Ġb inary
Ġident ity
Ġre ached
HT TP
Ġrel ig
Ġd ram
ev al
ĠL u
Ġtra de
Ġin j
ele br
as y
Ġen v
Ġa ctions
p attern
Ġrecord s
ĠDem ocr
U SE
def inition
con struct
ĠCol lection
bl ue
IC E
ĠS O
Ad min
Text ure
it z
h ref
ĠB O
Ġnull ptr
M ake
amaz on
ĠCh inese
Ġpro ve
refer red
ist an
ĠFound ation
Ġfe ed
ĠAcade my
Ġp refix
P layer
ec ause
Ġto ld
ĠCar ol
198 8
B ook
st ant
ĠR ussian
Pro gress
ĠTex as
Sh ape
Ġequival ent
Ġex c
= #
Ġo wner
ar ator
ĠG reat
as sembly
ĠSer ies
B S
Ġchar set
Ġprot ocol
ser ial
Ġev idence
so cket
ĠU N
} '
ĠFran cis
Com ment
L a
oun try
Ġk illed
^ +
ĠLem ma
de tail
Ġrec over
Ġda ughter
print ln
at re
Vis ible
aj or
ĠHT TP
UR I
ail y
ir ing
Ġj Query
Ġelect ron
g reen
ed u
V M
Ġre tr
in valid
C RE
W N
rior ity
res ources
Ġse em
A rea
ro ke
A CT
ĠVir gin
Î ±
it able
' ));
C ap
y r
P ublic
b es
Ġch arge
Ġen um
Ġapp end
Ġfl ags
(' /
ĠE mp
Ġbl ue
ourn ament
Ġear lier
Ġ queue
Reg istry
Ġse ven
ĠSm ith
Ġle ague
ĠT R
B ind
DE FAULT
ĠCopy right
(' #
EE EE
Ġv eh
Sk ip
as er
b i
Cl uster
Ġrema ining
%% %%
ir med
Ġrema ins
s afe
Ġmet adata
en abled
Ġtechn ology
Ġsp ent
re lease
org an
}^{ (
Ġreg ions
Ġre main
fe ature
M ed
ou ter
Ġde cre
ĠItal ian
ion al
f ixed
Ġinv ol
y g
Ġrequest s
ĠL ife
Ġequ ations
Ġse cret
ic en
Sum mary
Ġfound ed
w atch
Ġs ports
f x
h ouse
h old
ĠT op
ĠFr ank
G ame
ov a
m ask
ĠM ont
Ġpre d
Ġab stract
ct rine
Ġcrit ical
Ġde tail
Ġany thing
Ġ$ (\
F ORM
ĠH ttp
str ument
f it
re me
Ġm or
ish ing
f ort
os h
Ġd u
Ġappe ars
Ġeas y
DO CTYPE
Ġsh all
W allet
up load
Ġfore ach
mer cial
Ġpub lish
ĠO f
Ġlook ing
Ġen able
Ã ¨
is l
n odes
ĠP ath
Ġf oot
ext ension
R ole
Ġrep resents
ra st
lo ok
Ġrepresent ed
Inst all
Ġext ended
ĠU I
r ift
irc raft
Ġc lick
Ġappro pri
Ġch arg
Ġe lected
M at
O ST
H igh
ĠA v
Ġ{ "
ĠM el
im ents
mo z
f ix
ĠIs rael
Frame work
check box
ĠP eter
Ġt it
Ġconc ern
Ġp ool
g lyph
Ġin ner
cre d
Ġg rid
ĠD i
ĠO ur
MOD ULE
Û Į
Ġt ouch
ex pr
Ġfail ure
Ġtest ing
ĠZe aland
h y
ĠChar les
j i
or ter
}\ \
Ġresult ing
Ġpract ice
Ġval ign
Ġpro xy
re land
' m
W R
Ġte ach
Ġde lay
Ġcol lect
ĠK ore
Ġdetermin ed
C red
ab it
" ],
cle an
Ġget ting
F S
index Of
Ġtr igger
ĉ ĠĠĠĠĠĠĠ
; }
f d
z ero
ĠR ock
L anguage
ollow ing
ĠA SS
ĠR ail
Ġinst it
ĠLou is
Ġhead ers
s ince
l legal
Ġt sd
. <
en able
de t
Ġpe ak
side bar
f ire
ĠC amp
ate way
Ġfem ale
Ġw oman
Ġp ush
Ġco ach
ĠN etwork
Ġl ack
Ġcap ital
IV E
St ats
Ġem bed
v ideo
AN G
( @
Ġ que
ĠMin ister
Ġpl ant
Ġra w
ĠJ ose
ĠPro gram
Ġr atio
E O
ĠP lay
in f
P ER
ĠS erv
play er
Ġ( [
198 7
sequ ence
) +
ĠA ction
Ġle ave
en ers
ov ers
Ġfig ure
V ideo
end or
ĠT wo
ĠArray List
n y
ex pect
TR UE
Ġc ulture
Ġpart ial
Ġframe work
re port
ĠV is
Ġf actory
ĠRes ource
ce ler
PO ST
Ġag ent
Inter val
en ch
Ġevent ually
Ġag o
Ġappoint ed
Return s
Ġgener ally
uss ia
ã Ģ
ĠS aint
Ġme et
he ast
st able
w all
Ø ±
ev en
as ync
Ġgu itar
ME TH
ĠG ame
T otal
] $
de g
Ġg old
P ub
ĠFor ce
bit r
U ri
} +\
ap os
D irect
PRO JECT
Element s
ap is
ib ly
i ro
b rief
Ġp urch
Ġsign ature
Res ources
Ġget s
Ġsum mary
Ġlet ter
Ġgre ater
im a
ĠO p
E rr
Ġcre ating
Go ogle
g ame
urre d
Ġe q
sign ature
Ġimmedi ately
ic ago
Ġmean ing
Serv ices
ĠLO G
Ġstre ng
Ġqu ite
ĠSum mer
Ġd omin
ĠP an
Ġst ra
iver se
v o
Ġco e
Ġall Classes
lev ant
Ġc ivil
p ull
Pro p
SC R
Ġpl aced
ĠG rand
Ġse gment
Ġre ader
Ġop port
Ġco ok
ig er
ĠallClasses Link
math sf
de velop
Ġpro ced
ĠFl or
ĠB ill
B E
w hen
' ];
Ġsche me
An imation
m atrix
Ġthem selves
z il
ĠRich ard
Ġm ind
Ġsc ient
Ġre strict
ot ing
Ġsecond s
ĠC le
' ll
pro xy
Vert ex
Pro v
ag ent
IG HT
Ġorgan ization
EEEE FF
ĠI ll
198 6
Ġcolumn s
E mail
Head ers
M er
De legate
k t
D ictionary
ĠL os
bl ank
Ġv s
ĠH ill
Ġlay out
LO CK
cal led
Ġb ur
\ '
R PC
Ġpres ence
Ġb all
Ġse ems
Ġw ave
ĠD u
N amespace
pe ople
dimension al
py thon
Ġcomp are
å Ī
e es
Ġn orm
cond ition
ĠC EL
Ġdown load
ĠSt art
b ro
b el
Ġde ad
ĠAn n
Ġs n
Ġart ists
Ġrecent ly
Ġh ighest
ist ers
ĠF ootball
al o
th row
Ġhe art
198 4
() ))
ä »
VAL UE
à ¸
Im port
Ġn p
( {\
an ced
Ġcont roller
Ġr isk
Ġmatch ing
^ ^
et t
Ġst ated
de ed
am ing
Ġmov ie
imit ive
Ġp ul
Sing le
Ġover all
Ġm d
ID TH
v s
ĠEx p
Ġm ix
b g
Ġc md
ĠT er
Ġex it
Ġn ature
al i
Ġsc ene
ac c
Ġtime out
ĠG en
OR TED
Ġden ote
Ġle ader
Ġa xis
group s
Ġo k
Ġcon sum
Ġs amples
ing er
st ra
Ġfamil ies
1 20
Ġcho ose
] \
Ġdr iver
Ġm achine
t k
Å ¡
Ġm ask
ore s
ĠEng ine
n orm
ĠM r
Ġs af
ĠM edia
' ve
F ind
w arning
Not ification
ĠN AV
INT ER
Ġgrow th
n n
ĠSt ar
Ġfrequ ency
ĠRes ult
'] ['
Ġsepar ate
n def
Ġ ).
Ġin n
ĠV ector
Ġdis k
ent al
ĠThere fore
ĠPro f
Ġsc ience
D at
Ġcell s
Ġstr ings
ĠPar is
Ġdep th
ĠA ust
ĠT om
ĠIm age
lo op
Ġask ed
198 5
Ġart ist
Ġbuild ings
amil ton
Ġstud ied
rel ated
f ol
Ġmet ric
Ġme as
Ġcom ing
Ġprodu ce
bl ack
ĠUn der
test ing
and a
Ġcomp ute
Ġt mp
Be an
w a
M C
ne q
RE Q
NavBar Font
n ce
u ation
ĠFil m
Ġb ul
ĠL in
G ER
ĠK n
Ġapplic ations
Ġev olution
Ġdec ided
Ġ& \
ĠP oint
al og
Ġb re
t ers
se ud
ĠP ri
Ġvert ex
Ġp en
» ¿
RE S
B ound
Ġre ct
Ä ģ
Ġmag netic
Ġst ay
Ġoriginal ly
P i
B egin
Ġpl ot
down load
Mult i
t c
Ġh arm
ĠComm ission
Ġcomput er
Ġdepend s
Ġocc up
in em
Ġ" $
ï »¿
Ã £
ect ors
Ġder ived
Ġver ify
ĠP age
Ġknow ledge
Ġill ustr
Ġbro ught
ĠG a
Ġest im
Ġfootball ers
Ðµ Ð
l at
j oy
M ouse
EN SE
Ñ Į
Ġis n
evelop ment
p a
Ġincre ased
P air
word s
comm ons
ĠE ND
METH OD
G R
get Value
s ample
C F
T V
Ï Ħ
Ġst and
w riter
st one
L en
Re quired
$ _
T A
Sh ort
C ast
W orld
ĠM ass
ĠM ake
Ġst ations
ĠC ast
Ġtry ing
Ġad opt
own er
VAL ID
gener ate
check ed
Ġwant ed
Ġex amples
pl ates
ass andra
Fl ag
Ġon es
m en
b ing
re p
" ].
con sole
ĠASS ERT
Ġ ];
ĠS un
ier arch
im in
iss ues
TR Y
w er
Ġne ut
; )
Ġimp lies
Ġb ank
P H
u ages
Ġm icro
s he
Ġdat aset
comp ile
E V
ĠAL IGN
F ragment
f lex
pe ar
if ndef
15 0
Ġal umni
cl uster
Sub s
ig an
Ġj s
ĠD en
Ġ ðŁ
ĠS QL
ĠV ictor
lic t
ĠS IZE
form ed
} -\
trans ition
Ġs s
time out
ĠS y
ĠW omen
A F
Form s
Ġp ri
Ġs ometimes
Ġtrans late
r ich
erv ed
Method s
ifi ers
L android
c am
Ġbro ther
U D
ĠC ap
ĠL ake
ut ch
ĠA c
) }{
ver ter
he el
p an
l arge
ĠB ack
DE BUG
Ġ' \
Ġca used
Ġgo es
Ġmin or
Ġm ixed
Ġsc roll
ĠSp anish
ock ey
as hed
op ed
L in
Ġfour th
h space
Ġl icense
Ġpl ugin
Ġant i
Ġs ch
up lic
Ġh ar
St op
Re p
ĠLoc al
Ġtradition al
US ER
ilt ers
ĠNAV BAR
the orem
Ä ±
) |
Ġun iform
Ġre ject
Ġrad ius
ĠF I
ĠOn ly
un ched
Ġatt ention
Ġest imate
or iginal
Ġthe me
Ġh um
æ ľ
Ġd ie
Ġread only
Id s
Ġleg al
ol a
Ġl atter
M ask
ĠOlymp ics
D em
IT ION
, '
Ġhigh light
198 3
Ġg reen
Ġrem ote
Ġ ul
f c
pl us
Ġre ach
(" /
pp ing
n el
ĠM ost
f r
Enc oded
Ġpre t
B B
Ġm ur
Ñ ĭ
Child ren
Ġent ries
hel per
c ircle
tra ce
Ġstud ent
ĠT H
ro ute
ST ATE
. ",
Ġeas ily
ile vel
brid ge
ĠCath olic
k ens
En ter
Ġcons ists
S ort
ĠIn put
N V
ch ain
Ġmov ement
ar ian
k ins
Ġse ll
ĠA S
clud ed
Ġg un
EL D
Ġcompet ition
Not es
p ower
{ {\
ge les
at ar
ĠGe org
Ġh yp
SE LECT
19 50
Ġexact ly
ĠE ducation
S creen
Pro gram
Ġdis abled
m ouse
P ass
I gn
ph ot
lip se
M ath
T ags
Ġassert That
ĠM il
sk i
Ġopen ing
Ġs chema
fin ite
Ġ\ |
} %
ap es
ĠY our
Ġv an
{ $
Ġw rong
ĠIt s
z ip
ta ched
Ġspect rum
Ġd ou
ĠF ROM
P U
ig r
ĠI mp
Ġman ufact
i ate
ĠI reland
W arning
if fer
Ġp ark
/ "
Ġd ict
n os
ole c
ot ic
pro d
Ġevery thing
libr ary
M T
Ġdocument ation
um my
Ġar bitr
Ġcol lege
kw args
yd ro
AP P
Ġwh om
Ġacc omp
Ġtreat ment
ou ses
arn ings
Ġproject s
ĠE lement
Ġvel ocity
Ġst ored
ched uler
ĠFlor ida
es ome
Ġch art
En umer
Ġc li
Ġd om
Ġc elebr
Det ail
Ġ- \
Ġst eps
End point
Ġ rows
ĠAN Y
Ġ ^
Ġch osen
k es
S ave
oth ing
T w
Ġv ir
operator name
Ġparticular ly
ĠS il
Ġequ ip
Ġan swer
}} {\
ĠG overnment
ĠC D
cl one
Ä ĩ
RE G
n p
Ġf riends
Ġenter ed
CO MP
vis ible
P HP
y an
Ġsh ot
2 13
ĠAn geles
ĠVal id
Ġcomp arison
Ġocc ur
option al
fer red
enumer ate
f ast
t ar
az y
sing le
NS String
' $
Ġsp an
="../../../../../../ ../
un defined
Ġcre ation
Ġtransp arent
Ġlist ener
ĠTe am
Ġpress ure
Ġab ility
P UT
s b
ĠAr ts
A re
ĠS ol
Ġm unicip
Ġbel ieve
or ation
Ġsur vey
Ġin sp
Ġb ra
Ġt ensor
p at
oper ation
ĠComm and
se ll
Ġexec ute
Ġa udio
Ġapprox imately
ar ant
p icture
Ġf avor
con structor
ancell ation
Ġap ilevel
198 2
ven ue
ĠAn y
ĠComm ittee
tach ment
Ġc hem
Ġc ursor
g ments
Ar ch
iv ation
ĠE ach
Ġcall ing
ĠAnd roid
ex ist
res olve
Ġcomplet ely
Ġpur pose
Ġg rand
Ġvers ions
dep th
Comp at
h om
Ġb ind
ag er
object s
Ġunderst and
Ġp ages
ĠHen ry
ĠBo ard
medi ate
ĠL ink
at ial
ĠRev iew
al ert
Ġre set
Ġneigh bor
no indent
Ġnav bar
Ã£ o
Ġredu ced
ĠD ocument
pol icy
Ġmod ified
Ġan imation
at omic
Al low
f g
ĠM ult
ad ing
g oto
J ohn
Ġpr iv
tr l
Ġprocess ing
sim ple
z en
in herit
Ġdisc us
: `
ad y
s ync
form ance
M IN
ic an
pl ot
for ward
C G
Ġredu ce
D on
Ġsk ip
Ġsur round
ĠĠĠĠĠĠĠĠĠĠĠĠĠĠĠĠ ĠĠĠĠĠĠĠĠĠĠĠĠĠĠ
S ample
run time
ish op
H ere
S cal
Ġal gebra
w br
Ġautom atically
Ġs light
Ġfeature d
is hes
ĠCh icago
ty pename
x space
ta int
Ġpro ps
Ġf ill
d atabase
Ġinterest ing
high light
******************************** ********************************
Ġcandid ate
Ġb rand
ĠL ibrary
Ġprogram s
\ /
Ġcap acity
ĠH ot
ff ix
M ove
En v
Ġexec ution
it ation
L L
\ ,\
Ġ( -
f actory
Ġspec ify
an ch
item ize
Ġinter pret
Ġ@ "
a ud
M I
ĠB it
}} ,
Ġun ion
ĠR et
Ġvari ety
s n
Ġmap s
ĠP et
con vert
Ġs ql
Ġa ircraft
Ġappropri ate
Ġ" ",
Ġturn ed
D b
g ers
Ġnot ice
er c
d ig
Pro to
ĠF estival
Ġw or
Ġ\ "
ast e
oc ation
Event Listener
ta iled
Ġbu f
Ġparent s
ĠWindow s
Ġvis ual
ĠVirgin ia
H S
d iff
ic ode
rit ory
over view
p ic
clus ive
Ġrema ined
under line
: @"
% ,
ar ia
Ġcrit ic
Ġstr ategy
Ġ ..
Tr ansport
Ġw ays
is ms
math scr
ĠSec ret
Ġrelation s
Ġgener ation
ic ator
Ġan im
Ġpr im
197 9
Ù Ĩ
Con structor
ĠSo ftware
w p
Serial izer
Ġm otion
ĠAl though
H ome
Ġactiv ities
sh al
support ed
ĠĠĠĠĠĠĠĠ ĠĠĊ
aw n
ace book
Ġact or
æ ĸ
ĠBo olean
l ated
{ "
b asic
> \
getElement ById
is Empty
iqu es
ĠM ur
App end
% "
Exec ution
g g
ĠCh ild
select or
r ank
AN T
Re lease
Ġopt s
re act
Ġmov ing
f i
) }$
Ġload ed
Ġnot ed
od ay
Ġtask s
Ġs quare
ĠT imes
b atch
ĠMex ico
ĠB ur
ĠN av
ĉ ĠĠ
Ġs b
iv ery
Ġlate st
em on
ĠS pace
ĠSte p
ĠOption al
valid ate
lo or
it iz
Comp iler
pe ated
ĠP RO
Ġsp aces
ian a
d ash
nav igation
ĠOr iginal
=\ "
ĠA mazon
v c
Con tact
Ġagre ed
ov iet
S ql
Test Case
SS L
opt s
cl aim
ĠM ain
Ġdepend encies
Î µ
yn omial
ic ies
c ceed
d uration
et ween
c li
Î ¹
F low
A ST
comp lete
F n
ac cept
on ce
s lice
ab out
not es
D IS
ym pt
Ġmed ical
ag raph
Ġplay s
olog ies
L imit
Ġf if
ĠK ar
Ġclass ical
AN CE
Ġign ore
198 1
dr iver
Ġmed al
LO C
ĉ čĊ
we et
log o
Ġhigh ly
un ct
Ġde ploy
ĠIn v
z ure
dis able
ĠMart in
D R
Ġsu fficient
sp acing
Ġres olution
t wo
DO M
F N
ĠL com
ĠO h
or igin
ĠJ un
ix els
Con n
ĠO ld
ry ption
t ics
Ġb attle
Ġass igned
ell ig
Ġex am
an imation
mer ge
Ġme eting
Ġfin ancial
spec ial
ĠE qu
Ġsuccessful ly
or ial
ed om
Ġsitu ation
ak a
ç Ķ
bo ost
du led
Ġ' ';
M ay
y y
MO DE
Q U
B atch
Ġpr ice
IN S
Ġre spond
Î ½
Ġs mooth
En vironment
Ġweek s
icen sed
d c
d i
Ġcomm it
p erson
Ġp ull
ĠJ o
Ġcur ve
Ġs al
L ook
at i
P Y
am ous
Ġinter action
ĠSw ed
6 00
Ġre li
ex it
min us
Object s
IO Exception
b its
ĠM icrosoft
Ġagre ement
dest roy
m n
s a
Ġd uration
it an
Ġref lect
d y
Ġsome one
( --
Ġla unch
N ative
n ative
ov ed
Ġsum mer
is set
ar c
(" #
id ae
ĠIt aly
pl an
Point s
ĠS ource
The me
Nav igation
our se
ĠT our
ust ers
act ivity
OR Y
D ATA
ĠM P
ĠSc ot
Ġexp ansion
Ġproces ses
Ġcal c
T T
Ġa ffect
h l
66 66
- $
pol y
Ġpl ane
O wn
ĠE v
Ġar m
m ann
Ġf lex
Valid ation
on a
Ġtyp ed
li e
Ġ" ";
trans action
up s
Con nect
Ġdiv ision
Ġno ise
v olume
S K
Ġtrans lation
CH AR
: [
v ity
ro ad
Ġcoll abor
Pl atform
m ag
ĠG ood
cal endar
Ġaward ed
() ),
cre ated
Y Y
Ġ' '
Ġnear ly
m essages
Ġposition s
Ġconst raints
in der
ĠR ussia
b log
ĠP op
ĠH ome
ful ly
H ub
ï¼ Į
k l
L ower
it ors
ĠB ank
Ġident ified
Ġmanag ed
å ®
197 8
t ical
Ġcon serv
sub mit
Ġimpro ve
stit ution
cover y
sy ch
clud ing
w orld
> )
Draw ing
R R
Ġcl oud
ĠJ ournal
Ġbe y
Input Stream
Ðµ Ð½
Ġquest ions
ell a
ent y
S ome
Un known
197 2
Ġest imated
t f
se par
St atic
Ġpre v
ud get
197 6
Ġfore ign
ck s
Const ant
Ġel if
Ġpart ition
z y
vert ical
å Ĳ
Ġchall eng
Ġinst ances
Ġdel iver
Ġoper ators
Ġho pe
v space
'] );
rad io
og ram
im p
ĠW rite
Ġappear ance
Ġm apping
ad or
/ _
Ġconnection s
B order
ain ing
Ġl at
on ical
Ġpo or
Ġl ives
Us age
ĠA wards
ĠH amilton
c ert
Ġs ys
Ġf rag
> "
ĠS earch
197 4
ĠC ustom
Ġw ind
S ur
Ġsc ored
method s
Ġm eta
n ob
ir ror
c atch
Ġp lease
Dr iver
Ġcomp act
ĠF ree
ĠC lient
Ġbey ond
Ġelect ric
Ġre levant
Ġsay ing
sp ort
Ġres olve
$ }
D ay
Ġan gle
T wo
Ġass ign
und red
mult i
Ġlead s
ĠS ocial
\ }$
/ ">
ĠCong ress
ĠB rown
Ġlist ing
Ġprot ect
Ġf ine
Ġobserv ations
f old
196 8
Valid ator
Argument Exception
ĠPe ople
G ui
Ġrespons ible
W ait
Ġhe avy
D iv
set up
Pr ivate
C ursor
ul ator
Ġgo als
ĠU s
Am ount
F ree
for Each
Ġcom ments
Ġen joy
STR ING
e a
R aw
grad le
ORD ER
F E
ge o
197 5
b d
Ġg iving
Ġ' ./
Ġ eth
Ġquick ly
Ġol der
Ġcont ents
Ġmag n
Ù Ħ
g est
Ġst ories
Ġstra ight
ext end
ap ers
Ġread y
ivers al
ĠYou ng
n eg
Us ers
ĠDirect or
Ġwin ning
Ġon to
Ġb rief
Ġdr ug
ĠP aramet
ĠL ove
ĠÐ ¿
Ġmajor ity
os itory
ĠH am
sc ss
Ġus age
ĠK h
BP ACK
D rop
Ġcon n
Ġf air
ian o
i per
Ġform ation
Ġvalid ate
Ġcom mercial
re ce
Ġm ission
Ġ _{
Ġend ed
de precated
ri age
i ar
ĠPro perty
ograph ic
fl at
ĠEn ter
um s
Ġmention ed
Ġreserv ed
se q
Ġre sp
Ġf arm
Ġun cer
Ġt ags
A udio
G O
H tml
ĠH on
Ġsu ffer
Ä į
Ġsing er
Ġfl ux
Ġla unched
rop y
IL D
Ġh yper
ĠD B
197 7
E arly
ell ing
en ses
u ous
Eng lish
or ient
b c
as ion
Ġprov ider
Ġs ynchron
Ġprodu cer
ĠL ee
Ġview s
second s
Ġpat ients
refer ences
ĠE li
Ġdist inct
Ġtool s
p aper
ad ium
stru ctions
pri se
er ry
Ġra ised
ĠG l
Ġtra ce
Ġpr ison
Ġcol span
Ġd ed
ĠM ov
Cle ar
f ront
Ġwrit ers
V olume
ĠS ets
u er
ĠB i
_ );
ĠL and
Render er
Ġocc urred
con tact
ĠPro cess
Ġpair s
Ġcorre lation
Ġ ">
C ALL
Ġa cade
Ġw ood
Ġse a
Cl oud
Ġthe orem
N ET
Ġcontinu ous
C aml
t or
o z
l int
cor por
E ST
W ord
ĠO l
Ġ" %
Ġmost ly
j ack
' d
Con sumer
Ġj oint
scal a
ĠB lock
SCR IPT
Ġinflu ence
Ġrepresent ing
Ġas pect
Ġpolitic ian
ug by
ĠX ML
Ġconstruct ed
ĠSt atus
pl er
C ONT
ĠBra zil
C LASS
' \
Ġindic ates
glyph icon
Ġecon omic
UM M
Ġdev ices
ac ific
k in
ĠW AR
I A
Ġcar ry
re cated
ĠComm un
ĠB re
Ġe arn
comm it
Ġpartic le
assert True
Ġsup ports
A ng
Ġess ential
ĠOff ice
Ġimplement ed
' }
ĠEar th
mon th
ĠS ta
Wh ile
Not Found
Sh ould
å ħ
S yntax
Ġlabel s
ĠSpec ial
Over view
S M
tain ment
ow ers
ĠW ill
co ok
ff ers
Ġper fect
ĠCarol ina
ĠA rab
Ġadd ing
Ġ ult
Ġhe nce
Ġocc urs
y cle
Ġarbitr ary
Ġmod al
Ġs afe
ĠAp ache
( .
Ġc os
Ġcomb ined
Ġv oice
Ð¸ Ð
A li
; |
nost ics
ĠC ross
D ATE
g ence
yl van
face book
F ore
ĠP R
B asic
ĠÂ £
W ORD
ff f
Ġp p
) [
Ð° Ð½
d irectory
ĠD O
V ID
lic ense
gorith ms
ĠCo q
Gener al
Th row
ĠPar liament
L ight
ĠS D
C ard
AT CH
ĠS und
ĠD evelopment
Ġre ports
# {
ce an
Ġ' .
Seg ment
Ġ} }
arg uments
r ick
N UM
lib s
F UN
w d
ASS ERT
Ġ_ ,
ĉĉĉĉ ĉĉĉĉĉĉ
i ated
p air
tr im
Ġed ition
197 3
ion e
Ġs ites
ch art
et o
c ient
B inding
/ {
STAT US
Comp lete
ch anged
ĠI ran
anag ed
. """
Ġth erm
f etch
Ġp ain
Ġd ialog
Ġadd resses
Ġprov iding
Ġf mt
ut down
per m
il a
ĠW IDTH
Ex ample
U sing
Ġd rag
Ġtyp ically
HER E
Ġco ast
25 0
ari ant
FF ER
N ormal
Ġtr ust
h aps
Ġd ynamic
S ep
ad r
8 00
Ġch unk
Ġestablish ments
Ġsh oot
Ġ_ .
ĠN avy
S V
Ġcontain ed
Log in
che n
if ically
}} _
Ġqu arter
D rag
Ġt ournament
cont ents
l us
Map per
Ġliter ature
ĠG al
/* !
n am
ĠW ood
hes is
CON FIG
Ġoff ers
Depend ency
Ġfact ors
Ġf le
ĠG lobal
197 1
ext ra
Ġserv e
O ur
ĠL i
const ant
Ġident ifier
ĠT ri
ĠB usiness
ĠF ort
Ġcon cent
ĠH aw
12 5
re ct
let s
Ġdiscus sed
Ġb asketball
bo se
NO DE
Ġem ission
low er
Ġb atch
Ġk ing
ass ign
ersist ent
Ġconsist ent
rypt ed
Group s
ph rase
ĠJ ud
Pl ace
D uring
ĠĠĠĠĠĠĠĠĠĠĠĠĠĠĠĠĠĠĠĠĠĠĠĠĠĠĠĠĠĠĠĠ ĠĠĠĠĠĠĠĠĠĠĠĠĠĠĠ
Ġbe aut
ĠI II
Ġdiag ram
EN V
view port
LO W
Ġse lector
ĠW ales
Process or
Ġpath s
ys ical
ĠS E
T ile
ell ar
J oin
N C
Ġmer ge
W rit
ch a
s ome
Ġdet ect
ĠW al
are er
Ġr ing
quot e
ĠD own
enc ode
Ġc ancel
ĠM ember
oun der
DE F
Rem ote
Pre v
lim its
Ġsp read
Ġv ote
ĠDes cription
Ø ¯
196 9
ss l
Ġph il
g z
Ġregister ed
get Id
Ġmeasure d
Ġfin ish
ĠV ar
ĠDE FAULT
Ġshow ing
Ġdest ination
ard en
m ond
ay lor
Ġown ed
Ġfl at
Ġpo et
ĠHe ad
Ġnetwork s
ĠA uthor
Con vert
Ġshow ed
IN ST
FI ELD
< <
r pc
Oper ator
hen s
Ġc amera
] ))
m c
ĠRem ove
ĠJ im
y er
display Name
Ġga uge
Ġis su
ĠJose ph
i ency
Ġinitial ly
em y
tw itter
Ġcontrib ution
av ailable
Ġform ula
, $
Ġperm issions
An notation
int eger
att ice
Ġcont rast
ĠSup port
Ġsu cceed
Ġtop ic
v ol
sub ject
Ġbound s
ĠĠĠĠĠĠĠĠĠĠĠĠĠĠĠĠĠĠĠĠĠĠĠĠĠĠĠĠĠĠĠĠ Ġ
greg ate
Ġ" .
ĠVal ley
ĠChampionship s
Ġas sembly
Ġf ragment
ĠS ign
tain ed
Ch ain
Ġr iver
ble m
Ġ il
C la
comp are
en ant
ec es
h ar
ho ok
UN D
ylvan ia
he tic
| ^
Ġ' ',
Ġor ient
Ġp od
Im plement
D om
Ġfor ced
Ġed ges
foot note
Ġpl ans
Add r
em pt
ĠI llegal
re ader
R C
m ms
g i
Ġp iece
re sp
Ġt or
ĠServ ices
ĠTr ump
;| &
The se
Ġstart s
ĠCont rol
Ù ħ
re po
OP T
ĠB ul
ab y
j ac
WE BPACK
ig a
Ġindividual s
Ġ> >>
ab e
G C
um es
ĠW IT
Ġth reat
i Ã³n
Ġvalid ation
F rames
ĠI rish
mem ory
AT TR
ĠAb stract
ans as
Res olver
Ġmus ical
Al loc
Ġch ief
Ġrequest ed
Ġ' %
10 1
Ġarchitect ure
- (
ĠIn formation
ĠM anagement
Ġ\ ;
Ġcent re
omet ric
m apping
j Query
Ġ ice
bu ilt
ĠWAR RAN
Ġaccept ed
Ġr an
Ġis land
qu is
Ġsc atter
Sp an
Ġtrack s
Column s
IMP ORTED
}} }
Ġcar ried
st o
UR CE
Ġhapp en
Error s
Ġr u
Ġw x
Ġcover ed
V E
Ġe igen
C enter
Ġop acity
ĠF urther
B est
ĠR est
po ses
ra pped
mult icol
t ouch
Ġann ual
head ing
Ġun d
iv ial
s ider
M icrosoft
ĠF ind
Ġclass Name
load ing
ong o
19 40
C ur
Set ting
Ġs aved
Ġdig ital
196 7
Ġpro pag
ĠB ob
load ed
ĠCh ief
per iment
os oph
be h
B ro
ost on
ĠC ard
Ġr ates
d ark
Null able
ĠS l
il arly
Ġz one
R ate
c assandra
ĠP ower
p et
to Be
Str ategy
n i
" },
Ġex change
ew idth
ĠS to
s ig
Ġl if
Ġd raft
Pro du
Ġim g
Ġc at
ĠRad io
b us
ck now
ĠE r
ĠCent re
nost ic
ĠJ son
Ġcomb ination
Ġstud io
Ġf irm
ĠSt at
F ocus
Ġconf irm
not ations
Ã ±
ĠAd min
Ġcou ple
The ta
Ġde tection
Pl an
Re al
ar se
.* ;
fe ed
ch er
ĠBl ue
B inary
M essages
Ġad just
go ing
~ $
S I
19 45
= %
ĠRes ponse
Con sole
Ġmur der
Id entity
f mt
Ġpro to
In sert
re pository
function s
multicol umn
Ac cept
est er
alt Color
We ight
Ġorder ed
Ġs ync
F older
pt on
anc ing
eth er
Ġexperiment al
Ġterm in
Ġpay load
Ġpret ty
Ġle aving
Ñģ ÑĤ
m k
Ġmin im
18 0
Tim er
ĠSer ver
Ġstat istics
ĠNor thern
C B
Ġw orth
Ġal ert
Ġim ag
Ġ Å
are n
V AR
ĠCol umb
ĠConfig uration
can vas
st anding
In formation
ott ed
us band
Ġ< -
Ġcomput ed
Ġexist ence
z h
Ed ge
HE AD
ual ity
ĠUS A
Ġcoordin ates
lic ations
Ġp i
ĠM en
ĠSec urity
ic ations
eng er
Ġs ocket
Ġspe ak
Enc oding
cf g
Ġw at
ph y
_ *
B ounds
Ġconst raint
Ġpol ynomial
Ġpro ceed
Ġgu ide
}^{ -
ok ed
Ġcommun ities
C apt
pro gram
B ottom
Ġdes pite
E q
ĠM ock
b old
text tt
element s
Perm ission
V ICE
Ġadmin istr
Ġser ious
Ġinter view
S N
atic s
RE D
z ing
R UN
UMM ARY
u v
Ġh or
am in
ur er
ĠGu ide
Ġcy cle
res ize
Ġt d
/ .
L eg
A xis
19 64
valid ation
Ġcalcul ated
Ġse asons
Ġst ats
and o
F urther
A UT
w allet
Ġs outhern
ĠSp ain
Ġbecom ing
ĠAs ia
al ing
T l
M aterial
Ġm obile
Ex port
Ġexp anded
Ġro b
Ġ$ _
> '
Ġ ig
ste in
ĠS ir
Ġ ----------------------------------------------------------------
Ġk ernel
EN TRY
str ings
w an
CO MM
Ġa x
ĠJ ac
Ph one
ĠProv ince
im plement
19 30
th rift
ck er
Ġindic ate
ĠComm on
p ad
elli j
Ġident ify
LI ST
Å Ĥ
Ġb in
Ġvert ices
Ġa im
F act
Ġnor thern
Ġpartic les
O F
ns ylvania
And roid
ust rial
Ġvoc als
Ġc ru
v in
d k
Ġmod ify
Ġ$\ {
s r
Ġde tailed
E ffect
Ġf raction
ol id
ĠF OR
ul y
ĠS oviet
ON G
Ġar rest
L ibrary
× ķ
Ġgalax ies
r ical
Ġexpl an
Sign ature
ĠHistor ic
Ġrefer red
ĠH a
ol k
grad ient
è ¯
Ġth r
h ow
s pe
I AL
d jango
> %
tr m
" /
Ġf ederal
ĠM iddle
ric es
ĠC SS
Ġnew sp
e per
! "
exp ression
C or
S m
ĠJ ones
al ias
Ġw ild
int ellij
Ð¾Ð ²
w edge
n of
DE X
ĠC G
rypt o
12 7
Ġform al
u uid
Cont ents
ĠA ccess
Copy right
Ġro ll
Ġinitial ize
tex trm
ic ine
os a
ĠCor por
Ġload ing
ĠApp lication
se lection
Ġmark ed
rodu ction
Ġrun time
ĠDe lete
How ever
Ġproced ure
ä º
ĠThe ir
Ġmaterial s
C M
Ġpar allel
Ġch ampionship
Row s
ĠS ar
B i
: '
^{ -\
_{ (
ĠC H
ĠT re
ĠĠĠĠĠĠĠĠĠĠĠĠĠĠĠĠ ĠĠĠĠĊ
Å į
Ġpro te
Ġrefer ences
ĠM u
Dep recated
in ity
Ġint ended
< \
as i
ac le
Ġ{ },
Ġadv ant
T y
Ġend point
Con verter
Ġlog ging
Ġm ouse
C oin
P od
Ġcomm ands
Ġang ular
Ġatt ended
Ġar ia
Ï ĥ
ĠO S
Ġoffic er
ir al
BU FFER
ĠEmp ire
Array List
M any
rag ma
Ġb its
p res
is c
Ġaltern ative
Ġslight ly
196 5
ierarch y
be an
sk y
U ST
ri ev
Ġsen ior
Ġs ociety
ä ½
R T
Ġdr ive
ĠA rea
( ()
ib li
subset eq
Ġexper iments
Ġ( $\
pre c
de cor
Ñ ĩ
S W
g b
d anger
m obile
por ter
ĠL ie
on ed
Ġshe ll
ĠP ak
Ġ} \
ĠDes ign
Ġscal ar
Ġapplic able
log ging
Ġsignificant ly
Const raint
S em
Ġf elt
Ab out
p ages
e lem
Ġal leg
ĠF acebook
A SE
ic ed
ĠR am
R o
T AG
ĠCon ference
Ġbal ance
a udio
Ġcomm ission
ĠG i
Ġre asons
H older
Ġdecl are
Ġl ived
Ġis ol
Ġ Query
aw a
pect ive
Ġ$ |
ĠSt andard
k top
tt s
"> (
enn is
AC H
Ġgu arant
ĠG ir
Ġa apt
Ġcomp osition
> ;
Ġh undred
St andard
Dep th
c raft
ĠB ad
PRO C
19 20
ĠL ord
ĠD ist
Ġcorrespond s
lect ric
ĠB oth
p kg
Task s
con v
Ġw all
B Y
Ġmain ly
Ġmon itor
Ġse mi
C md
ĠB attle
Ġder iv
Ġbeh avi
F uture
los ure
Ġplace holder
ĠTechn ology
> ()
P resent
an chor
ĠS UMMARY
Ġext end
Ġauth ors
Ġstreng th
Ġassum ed
ĠG re
ĠL iber
om er
al ink
gy pt
19 66
Ġp ure
B ool
L Y
Ġext rem
column s
LE D
ĠRe port
T Y
Ġc am
Ġrail way
od ies
Ġp il
1 10
ĠI tem
Ġc as
ĠW ay
Ġcapt ure
Z one
Ġmag azine
b lob
ser ies
MA P
s en
Ġ{ %
Ġo il
Ġwork ers
Re set
g if
s un
Ġc ircle
Ġnumer ous
j ax
Ġin variant
( ['
(' <
~~~~ ~~~~
ĠJohn son
ĠSim ple
Ġg uest
Ġal one
R out
ĠP ass
Ġhelp ed
Ġbound ed
h ard
patch er
nob r
ĠST ART
Fail ure
Ġrel atively
Ġchannel s
Ġgener ic
Ġfore st
ad oc
N amed
ash ion
os ing
ĠDemocr atic
air man
Ġs ynt
Ġgo ogle
Ġg overn
lin ewidth
ry st
Lo op
= $
decl are
Ġcommun ication
ĠTh read
p b
z ab
Ġinput s
ĠB ow
ĠU k
se x
F amily
Ġ ens
an aly
Ġperm ission
ol o
ĠBrit ain
Ġcomp atible
Ġde b
ĠStr uct
ĠIs lam
S core
Ser ies
Ġsatisf ies
AT ED
Sh ared
ĠL ight
Ġst able
ĠCh annel
Ġmet al
op es
Ġn ation
T F
us r
ĠD OM
Ġdoc uments
Ġp an
Ġrecord ing
C ounter
Ġrem ember
f re
Ġdepart ment
w t
S G
RE E
ĠCon text
(" %
d iag
Ġe p
ĠG reek
br and
tim estamp
im inal
create Element
ter min
ir ation
Ġoffer ed
Ġh our
**** **
atri ate
Ġv ac
es ian
os c
ĠS outhern
Ġin corpor
Ġdim ensions
ĠReg ion
f b
Ġf av
rel ative
Ġnumer ical
ĠOut put
00 1
un lock
Ï ģ
AT OR
Ð ²
Ġsecond ary
fol io
Ġh usband
Ġf ee
case s
int eg
ĠM ajor
ĠCont ent
Ġpol ar
ĠPl an
Ob server
Ġdis able
google apis
ĠPen nsylvania
el come
Ġhistor ical
ĠS ong
Ġth reshold
Ġb lood
ĠO N
top ic
lic enses
Ex ists
il ly
Ġenc ou
Ġtrans actions
Ġsymmet ry
lo ss
In ner
) ",
= [
Ġdram a
ent h
ĠL y
phot on
amazon aws
Ġc itiz
p ared
sp here
Ġse ctions
ĠU til
ab c
am i
Ġdynam ics
ffic ients
b p
ĠT ro
sol r
Arg uments
gener ator
å ¤
Ġth ous
Ġin come
Ġtyped ef
Ġinst ant
Ġw arning
Ġdiscuss ion
Ã¡ n
Run ner
Ġth ick
Option al
w arn
op lus
Ġc ensus
ĠVAL IGN
W atch
ĠRep resent
Ġevery one
class Name
Ġs am
s ym
B al
cri ptions
ord ers
ĠC ore
ĠC ivil
rt l
File Name
Ġn ine
RA Y
ay a
Serv let
_ )
Ġke pt
Ġdise ase
Ġal ias
Aut hentication
if ul
get Instance
Ġaccur acy
t i
li k
l ad
Ġcou p
G EN
ĠA tt
Ġv ary
Ġpart ies
n c
w ater
Ġcol on
Open Tl
Ġcount y
Ġunder lying
Ġ$ $
Ġ-- ></
Ġallow ing
Ġle tt
Un der
set minus
Ġm olec
Ġes cape
greg ation
D P
comp ute
b at
ĠCre ates
Fig ure
ĠR equ
ĠM any
ino is
Ġrelig ious
A tt
En able
Ġed it
Ġtechn iques
ĠM ah
Ġc ool
un a
ĠP rem
LE MENT
iss ue
ru les
ri e
__ )
HO ME
al igned
, .
UE ST
Ġvict ory
Ġe fficient
Ġloc ations
Ġuncer taint
in er
\ }
Ġp ert
Ġatt ract
Ġcomp iler
Ġar my
Ġclass ification
Ġcalcul ate
ĠU sing
è ¿
Ġs pl
Acc ording
Ġbo ost
ĠP acific
0000 00
Ġs izes
Ġf iction
stats models
Fil ms
i y
Do ctrine
equ ality
ĠC OL
urb an
}} _{
is er
Ġse ctor
ell er
Ġra re
C ancel
Sw itch
am m
ĠO x
link s
ĠL L
ersist ence
Po jo
Ġ ath
Ġoper ating
Ġtri al
Ġ( %
LE TE
Ġimpro v
æ ķ
Ġ` ``
Name Link
Table Row
Ġsaf ety
Ġf amous
b ury
c uss
S ame
ĠJer sey
H z
Ù Ī
ous ing
ĠF ire
st rip
' _
Ġprec ise
D ig
C areer
od d
Ġc b
ist ogram
b ell
Ġtim estamp
Ġex ports
Ġdiscover ed
ament al
M issing
ult y
ut s
Ġst ock
Ġmeasure ments
c ounter
m ac
Ġse at
ro uter
U ses
let es
Error f
ra ge
ãĢ Ĥ
jav ax
>< !--
Ġmod es
Ġph one
arch ive
Tim estamp
t ensor
Ġtra ffic
el astic
tr i
Ġ& #
Ġf an
ur ations
Ġapprox imation
ik i
ĠOffic ial
burg h
Ġsp irit
ĠB ern
Ġcomp osed
Ġflo or
od o
ĠL java
Ġ$ [
Ġspect ral
on to
ĠScot land
Ġb ug
) _
Ġl ies
rem arks
ĠAs ian
Ġf etch
Ġdefe ated
Ġb ridge
ĠCl asses
uplic ate
Ġso ft
Ġcop ies
× Ļ
ĠM id
Con tains
Ġconst it
Ġpart ner
P OS
å Ĭ
Ġorgan izations
ĠPro du
ARN ING
Ġprom ise
Ġun iversity
Ġlook s
j et
Ġclaim ed
rupt ed
ĠEx ample
Ġpol y
ref s
ĠFrancis co
Ġad ult
R andom
Ġw idget
av el
ĠV an
Ġlang uages
ĠN ight
Ġexec uted
N ational
Ġthe ore
ĠL ay
ER S
C ook
ĠK en
ĠR h
ĠLo ad
ĠO Caml
ĠH as
Ġexp ressed
Ġover flow
lin ux
ĠĠĠĠĠĠĠĠĠĠĠĠĠĠĠĠĠĠĠĠĠĠĠĠĠĠĠĠĠĠĠĠ ĠĠ
ĠJew ish
ĠW ell
depend ence
Met rics
Ver ify
Be en
ĠF ar
re peat
bul let
M R
Ġb undle
S ite
Ġ uri
pos al
Ġle aves
er ed
Ġbro ad
Ġc ities
st andard
Ġb log
Ġrep ository
196 3
Ġch ance
(" \
UB LIC
Exec ute
196 2
Ġrece iving
Ġlead ers
ĠĠĠĠĠĠĠĠĠĠĠĠĠĠĠĠĠĠĠĠĠĠĠĠĠĠĠĠĠĠĠĠ ĠĠĠĠ
Loc ale
} ",
ĠWilliam s
ĠSt ream
ĠL ast
Ġde comp
Ġs ending
in x
atur day
Ġnot es
c les
ĠOh io
ĠL ab
Ġb as
Ġst yles
p ur
Ġm o
omorph ism
ĠMich igan
Id x
st ates
Ġp al
E Y
P red
al g
it age
K it
c ursor
Line ar
Ġcontrib utions
Ġl ands
ĠB or
Ġp icture
================================ ================================
ĠW ater
m ime
ĠP ack
Ġgrow ing
Ex tra
Ġf older
Ġmeas ures
ĠRe al
Ġgen us
D TD
Ġeffort s
n ic
7 00
Ġ" '
onym ous
ĠĠĠĠĠĠĠĠĠĠĠĠĠĠĠĠĠĠĠĠĠĠĠĠĠĠĠĠĠĠĠĠ ĠĠĠĠĠ
OR K
% )
LA Y
UN T
ĠV irtual
Ġtrans formation
ird s
B IT
ab ric
Re act
Ġhand s
Ġh ook
c orre
ĠB oston
ĠQue en
Ġc lock
Ġart icles
B its
d agger
c u
Ġdepend ing
new command
Ġin ject
ĠOr gan
Ġpar sed
ĠI ter
Group Name
cre ment
AR D
Ġdel ta
rem ote
ĠCon f
Ġben ch
M aster
ĠG ar
Ġf ish
de lay
get String
Menu Item
Ġb right
ĠP lease
Ġmod ules
Output Stream
Ġro les
Control s
ĠR oute
Ġserv ing
sw ing
Ġpre m
Ù ĩ
ĠR ay
ĠUn it
Ign ore
Ġfe at
ĠHand le
Ġunderst anding
Ġopt imal
Dec imal
Ġho spital
h u
ĠH ence
BU ILD
Det ector
ĠK ong
Ġra pid
F ixture
sd k
Ġge ometry
Ġmoment um
ĠEd ward
Ġcle arly
Ġpr ime
P romise
Ġpack et
Ġabs or
Ġs ister
R ot
Ġrequire ments
S plit
Ġs ales
L icense
G IN
em bed
Ġprint f
ĠThe atre
Ġincre ases
y o
Ġf ans
Ġout er
po inter
ellig ence
per cent
et es
Ġup dates
ĠCo ast
Ġpl us
rit ical
Ġig et
ĠC urrent
ĠJ on
Ġres ist
ĠL ook
Ġdes ired
ĠI R
Ġg ap
gener al
Ġdec ay
As set
inter val
L ib
() ">
al so
Ġconvert ed
L iteral
der r
Ġv on
ĠSe a
ĠSund ay
ĠD ig
Ġinteg ral
g re
W IN
et ic
ĠA li
Ġse ed
ĠS ports
Ġassoci ation
CD ATA
a ired
ĠUR I
get Type
ĠPro position
Decl aration
Ġtri ed
Ġsing les
F ALSE
ĠBu ilder
ic ial
Ã ¸
A bs
ffic iency
Ġopport unity
Ġdecl ared
ign ore
( /
SO URCE
de ep
ur ies
Ġelection s
Ġsim ulation
pre vious
Ġstr ateg
Ġd og
< >();
Ġs yn
Ex pected
ĠJ S
ist ical
ĠT ran
M usic
att ed
ĠE con
Ġassert True
not ify
Ġexp onent
_{ {\
c ancel
Ġob vious
Ġend s
ĠC la
Ġad m
ict ures
w ill
ĉĉ ĠĠĠ
d irection
Ġwe ap
Ġst reet
D irection
Ġsup ply
V irtual
B L
Ġ| =
ĠComm unity
Ġtri p
Ġem er
f av
ĠC apt
Ð ´
ĠH uman
Ġinteg r
ĠRec ord
Ġb inding
Ġinterest ed
cache d
Ġtyp ical
Ġcan cer
tool tip
ĠAnd rew
code c
in cludes
Ġv e
TI ES
col on
Ġclaim s
ĠCh ange
Ġmechan ism
ĠPol icy
ĠA ws
LIC ENSE
Ġnew ly
ĠC y
ĠPy thon
Ġreve aled
ĠPol ice
Ġin strument
m oment
ur able
om atic
oll ary
" ];
Ġn om
Ġliter al
ĠW eek
ĠN on
ĠSen ate
Ġb ass
Ġwas n
o ir
Ġpass ing
ĠD ouble
ĠSt an
Ġuser name
b ench
ĠS and
r ons
C CESS
s uch
int s
Ġregion al
Ġsh ips
jack son
Exec utor
Ġdam age
link ed
rid ay
A ctions
Ġ' "
194 4
Ġc e
_ +
Ġcheck ed
) }(
ach use
Ġdiffer ences
Ġcomplet ion
ĠF C
ath an
! </
ĠE ven
Ġ- =
ĠGeorg ia
Ġach ieved
Ġen umer
On ce
act iv
] </
ab il
lo v
ĠD ar
ca pt
dat etime
ĠJ oe
h ave
Ġcell padding
ĉĉĉĉ Ċ
ĠE V
Ġexplan ation
pr iv
let ter
ĠK ent
ĠPar se
em porary
p ragma
l ab
] +
Ġan chor
sh are
achuse tts
Ġcoordin ate
Ġissu ed
Ġc ultural
Ġcell spacing
ĠRe ference
Ġp hen
ĠPhil ipp
ĠM ot
Ġcou pling
Ġsh op
SP AN
Ġf s
Ġp et
j oint
55 5
ĠT aylor
op am
s ent
Ġreturn ing
. ',
ĠA ff
Ġcor ner
Ġtw ice
B I
æ ĺ
External Task
Ġp m
Ġr at
amp ions
Ġk ill
M anagement
ĠÐ ²
ud es
is a
am ount
Ġo dd
Ġfail s
ĠW all
ĠWARRAN TIES
TO M
Ġsuggest ed
Part ition
unn el
T ouch
ĠP romise
V ec
ys ql
Ġattack s
ĠC ro
ĠBy te
ancellation Token
Ġoffic ers
ĠIll inois
Ġact ors
Ġprov ed
Ġassum ption
ĠJ r
Ġs ym
ĠLog ger
f ake
O wner
ĠS H
Ġconf irmed
Ġfind ing
ĠJ es
Ġcon vention
à ¥
Del ay
Ġdet ected
ops is
ĠPr ince
Ġbel ieved
rib ute
var i
ĠB ecause
Ġ| \
Ġin tr
V D
ĠPub lished
ct ree
Ġal gorithms
or i
IL ITY
Ġdec or
ĠCl oud
Ġpower ful
ens itive
Ġregard ing
sh a
In ternational
ĠE gypt
RE CT
Ġj ump
% "><
T uple
Ġind ices
ch unk
), \
Ø ª
M ag
m ov
serv able
g ov
ĠS em
Ġcandid ates
Ġlo s
St ub
aw esome
ExternalTask Pojo
Ġmor ning
O W
Ġv en
Ġpro min
og en
h pp
ing ham
f older
second ary
t l
Down load
_{ -
Ġcomp ar
os ity
Ġany one
Ã ¥
IM IT
Ġme ant
te en
Ġcoun cil
sp irit
fra gment
ĠSh ort
max cdn
P M
Ġcl one
Ġf ru
f p
Ġiter ator
Ġm ill
Ġam plit
D en
Ġs quad
ph ere
og ene
Pack et
Ġad vert
Ġm useum
Ġide as
ĠB al
196 1
Un ited
Ġprior ity
10 24
Ġach iev
F OR
h istory
Ġpur poses
get Message
Ġg oto
s lide
H ook
Ġsim ulations
[ (
D ynamic
l ife
ipp ing
-------- --
Ġhe at
Ġfl ight
ĠDan iel
e ff
Sh ader
Ġded icated
ĠL ittle
Ġhe ard
E st
ĠMore over
be ans
C UR
Ġapp arent
Ġre con
Ġwest ern
vent ory
serv let
S ources
U A
ce st
U ES
Ġconduct ed
Ġin form
Ġdeg rees
* {
Ġnear by
Ġt ail
Ġcom edy
on ia
ĠBu ffer
ĠS pring
Ġg ain
ĠL atin
get Class
ĠS end
? "
uck y
un known
Ġdes criptor
ĠN ext
col lect
ĠRun time
art ers
k et
ict ed
Ġri se
? âĢĿ
Ġgener ator
[] {
Trans ition
ĠS af
ĠT ag
b undle
el i
ĠB a
on omy
sub figure
tr ansport
ĠSt ation
ĠW alk
Ġcon ven
Ġconst ants
ĠR ow
s at
ĠK EY
B ad
ĠN et
M ov
Ġp seud
Ġsett lement
Ġe c
Ġoper ated
LO AD
Ġfoc used
>( <
Ġmed ium
enc oding
ĠL anguage
ixt ures
V O
present ation
Ġtre es
Ge ometry
Ġlim its
nof rame
ub ble
Ġv m
st ion
map s
Ġcache d
z ed
Ġbe at
Ġ< ?
Ġcon ference
×ķ ×
Ġan alog
Ġmeasure ment
ĠJe ff
Ġcon version
Ġdisplay ed
app le
B rit
Ġp aid
Ġch anging
Be h
IN VALID
ys ics
Ġ' #
Ġsub set
Ġb illion
fra structure
Ġord ers
Ġh ydro
ĉ ĠĠĠĠ
Ġop in
W est
am ber
l u
çĶ ¨
Ġfunction al
Ï Ģ
ĠS us
cl s
ĠL im
Ġvis ited
des ign
un te
Ġw ants
F ixed
TableRow Color
ex amples
G A
Ġn a
vert ex
Ġl attice
Ġro ugh
U CT
ide os
C trl
f an
ĠT erm
Load ing
Cont ract
Ġmot or
produ ction
Ġn omin
TR AN
ec lipse
Ġexplicit ly
ĠEn vironment
195 6
Ġlay ers
ibr aries
tain ing
ro g
Av ailable
m iddle
A nt
Ġprogram ming
d rag
Cre ated
195 8
Code c
: -
Ġdist ingu
Ġk w
ĠB ol
pub lish
Ġinteg ration
g overnor
place ment
Ġsom ew
T L
ĠCorpor ation
194 2
Ġin herit
au x
P lease
Ġintrodu ce
ĠW in
Mon th
Wh ere
Ġcoe fficients
ĠJack son
s quare
Ġt a
pear ance
ĠF ix
ater n
Ġign ored
go od
ĠF our
con nected
Ġac quired
Ġc ult
Ch art
Ġstrong ly
ĠCon st
ĠPort ug
Ġto ward
AV E
Ġrot ation
ĠA M
Ġp ipeline
in ject
Ġtr uth
BA SE
sem ble
Ġs an
Ġpe ace
Ġph oto
ĠA ri
Ġpr incipal
mem bers
Ġs qu
Ġsp ot
Ġbo y
Ġach ieve
Ġcontin ues
Ġf ake
pend ing
Match er
i Äĩ
bind ing
Ġconc ert
ĠE st
th ur
v endor
Ext ensions
Ġc art
Ġe yes
Ġp urs
.~ (\
ĠC a
ĠMus lim
BO OL
Diag nostics
195 9
Ġcl in
Ġposs ibly
Ġag ree
194 8
Ġl abor
G it
################ ################
pag ination
SS ION
ĠEast ern
Ġdiv ided
Ġm orph
ĠPro t
FORM AT
oc cer
Ġsp atial
Ġturn s
us hed
Ġact s
s ure
ĠSecret ary
spec ific
Re ason
Ġcl imate
ĠB ang
S ch
i pher
Ġbeg ins
Ã º
Ġlist s
Ġtext ure
Ġcover age
ĠB E
á »
Ġrec ip
ĠApp le
ut ter
Ġdescri bes
zab eth
C ountry
195 7
Ġmat hem
ĠW is
B ra
Ġgrant ed
Ġfor t
Ä ĥ
de code
Ã© e
Ġwon der
\! \!
Ġs port
de m
ĠComp onent
ĠM aster
Up load
if er
19 39
Ġas sess
a ui
EN ABLE
Ġinter actions
Ġe le
act ual
Support ed
z o
b an
ĠD utch
Al ert
ĠW at
ver ify
em it
eder ation
K e
D iff
> [
ordin ate
{ $\
ĠĠĠĠ čĊ
Ġc m
est ic
Ġf ellow
Ġmass ive
Ġ======= =
Ġin equality
ron ic
Ġequip ment
Ġact ing
new s
Ġs ides
l aw
An aly
list ener
po i
^ -
sc ore
late st
ĠAdd ress
Ġdestroy ed
Ġw it
add Class
Ġsupp lied
ĠC ase
Ġappro aches
ĠIn ternet
Ġe ase
Ġtell s
ul p
0000 0000
o pe
Ġcost s
con current
big g
Ġredu ction
$ ^{-
Ġ' @
ĠMass achusetts
ĠM ike
cre ens
Ġwin ner
OT TOM
ck ets
cl ine
Ġadopt ed
Ġreg ime
D id
Ġpro tection
R ules
M ill
ig ate
ĠN E
Ġat tached
P REF
FN GL
ĠR ights
) _{
Ġt al
Ġproper ly
Ġpattern s
Int ent
Ġh ide
ĠCon vert
fore ach
Ġchall enge
ĠF amily
Ġear th
part s
Ġex ceed
Ġm iles
ĠAut o
G ra
ĠPol and
end point
sub Nav
= &
Ġsubsequ ently
b ounds
u zz
Ass ociation
ul pt
Ġb ill
Ġs y
S ports
Ġde legate
Ġres idents
t le
Ġadmin istration
è ®
comp lex
Ġd ual
T yp
Ġ ĉ
che ster
red irect
Ġveh icle
tim eline
Ġcapt ured
annot ations
A I
ĠM O
TER N
M s
ĠG overnor
ouse l
ut able
out heast
RES ULT
CRE ATE
ĠT ool
lo cale
Ġyou th
ĠC R
c ross
__ ["
At trib
__ ,
P ower
att ers
Ġdes cent
}} (\
Ġtem por
=" {{
The y
C lo
M ust
Mut able
Exp ress
pr ite
99 99
') ->
Ġ å
Ġem b
qu ant
m ount
st ic
ADD ING
ĠS i
il ib
Mod ifier
c mp
Ġret ired
E nt
Ġreview s
v it
AR G
Ġsubsequ ent
> `
ĠĠĠĠĠĠĠĠĠĠĠĠĠĠĠĠĠĠĠĠĠĠĠĠĠĠĠĠĠĠĠĠ ĠĠĠĠĠĠ
ĠL ive
reate st
ĠTh ree
Ġthrow n
are st
ĠMod al
Ġadvant age
ĠColumb ia
ĠHo spital
æ Ī
ĠT ree
ĠJust ice
r as
Ġdo or
Ch o
ren ce
local host
cknow led
Ġd ut
sp in
ĠRepublic an
ĠCon nect
Ġa ware
Ġhand ling
\ _
ĠW ild
Ġmar riage
l ig
Ġpolitic ians
Ġfootball er
ĠCh ris
atter y
ĠPro p
Ġestim ates
ĠC ur
Ġtechn ical
ra q
C amera
Ġs and
ĠE very
Ġte le
Ġbu y
ĠOx ford
ĠTw itter
ĠR en
Ġrest aur
ĠT OP
ase ts
to ctree
Ġclub s
Ġn arrow
194 1
) },
ĠAir port
re spons
over ning
d on
Ġcur ves
ĠH ong
C annot
M F
Ġprof essor
Ġneighbor hood
s z
Ġb urn
Text View
ĠGener ated
pre d
Ġaff ected
ul s
PRO P
Ġgir l
cp u
Pr imary
Ġperform ing
h d
k ernel
ĠA th
ap h
p rom
yg on
Or igin
S ide
part y
Ġlog in
ĠJe an
ĠB BC
Work er
me an
ĠS che
Hash Map
ĠN a
Ġs un
wik i
it ical
ret ch
qu ency
ĠRail way
Ġp sych
Ġd aily
ĠSer ial
ĠS at
Ġexec utive
Ġre verse
ĠA re
Ġ# {
ab stract
ĠM ic
Ġ Ñģ
ĠN um
ĠD er
item pty
HO UT
nt ario
194 3
ĠA D
ĠW rit
if old
Ã ¢
ĠCon serv
In struction
Mark er
om itempty
Ġw rapper
Ġimp lied
Ġre peated
ĠP erson
Ġadv ance
Ġ' _
Ġem p
ĠBO OST
OL D
Ġqu eries
ĠBro ok
c ers
id i
spon ses
Ġlog ic
tim er
Ġde leted
ri ent
Ġred irect
____ ____
Ġsing ular
ĠA k
Ġin struction
Ġdi am
String Builder
Ġh ouses
ĠÂ ©
van ced
Mon itor
Ġtra ined
P riority
== =
ph ase
Ġchem ical
sh op
M achine
Ġpar a
> ${
ch ant
Ġsub stant
Ð ¼
Ġ" ${
Ġconf lict
te am
Bl ack
ĠF ederal
C ulture
re spond
194 6
Ġ+ \
âĢĿ .
ĠG raph
Ð° ÑĤ
for all
Ġc ars
ĠW ed
Rece ived
ĠH ung
(' ./
Ġdistribut ions
Ġfre edom
our ney
n ight
As sembly
sub subsection
L IN
ĠF ALSE
Ġarr ived
h base
B ridge
="../ _
Ġprim arily
ro vers
ĠWil son
195 2
ĠB as
Ġr ich
it zer
r ance
con cat
Fe atures
b inary
Ġepis odes
Ġpro port
ĠSc iences
enn es
Ġadv anced
ĠPr int
19 55
Ġcre ates
Ġmet rics
ĠAn other
Ġc lip
Ġw ish
en ess
yd ney
RE NT
Ġtarget s
T ex
ul f
s ime
Ġan cient
mat ches
ins on
Ġcol ors
Ġp ra
EV ENT
go og
ĠKore a
Ġcl usters
at ibility
U AL
t ile
pay load
View Controller
Per iod
Ġca uses
c ue
Ġh ole
Ġal pha
ars ing
ĠC as
ref resh
ship s
Ġearn ed
ta ke
Ġcomm only
Ġmay be
sime q
up dated
ox y
u ce
Ġcomp liance
]( #
st age
ate st
B ased
ĠAlex ander
Ġis instance
re lation
W ill
Å ¾
ch at
Ch unk
Ġperson nel
SP AC
Ġjob s
ĉĉĉĉĉĉĉĉ ĉĉĉ
ĠOper ation
un es
d ynamic
mu x
ĠChrist mas
ĠIn valid
" ])
Ġwide ly
ĠMed ical
* ,
Ġt f
exp and
Ġs ust
fl ush
Ġv ectors
ĠIs lands
Ġp ending
Ġcor por
S elf
Model s
Un iversity
Ġcontrol led
Ġ' -
med ium
Trans lation
c ourse
E P
Ġlink ed
g p
": "
XX XX
ĠGu ard
mark s
ou red
Ġcol lected
Ġmin imal
Ġimport ance
D ry
Ġimpro ved
Ġaud ience
G N
n l
ĠF rame
Ġst uff
she ll
Ġgu ard
Bu f
Ġcould n
Ġpol icies
Ġlimit ations
ĠD ebug
Ġpert urb
Data Type
Ch anges
\| _{
ĠProf essor
Run ning
vers ation
ph ony
Ġg lob
ĠAb out
ĠScott ish
ĠPl aces
Z ero
cri bed
Ġac celer
M ount
d st
Ġf resh
ĠC art
Sup er
s heet
pro c
B reak
; %
Qu ant
UR N
=- =-
ail ability
Ġp le
Ġc atalog
ear s
c op
Ġmat rices
195 4
Ġcorrect ly
Ġwork er
ic ity
ex cept
__ _
Pl ot
iffer ent
Ġphot ograph
ul ing
Ġs leep
Ġh abit
P ush
Ġg ather
Ġopt ical
ik a
Ġc ategories
fe atures
aa aa
" ?>
Ġd ictionary
C ity
ĠU P
Ġcl s
run ner
ĠB ORDER
="@ +
Ġfe et
it led
Ġs it
Ġwait ing
c urrency
get Attribute
ĠJ ob
ap ed
ĠB on
Ġhyp ot
Ġsepar ated
t p
depend encies
Ġlaw s
Ġt end
ĠVictor ia
sche mas
ĠS aturday
h olds
it ivity
) ^{\
Ġfac ilities
Ġcopy right
P ut
Ġhon or
> {
Ġfig ures
Ġadd r
N R
Fe ed
Ġfif th
ĠP HP
Ġofficial s
n ership
Ġacade mic
Ġa wards
'] .
Ġs ender
S napshot
Ġdr ink
Ġspect ra
not ification
f aster
ĠR og
ĠL ater
Ġimp licit
(" .
t oc
/ )
con sin
Ġ$ -
ll a
ĠB Y
Ġd st
Ġ' ''
An alysis
Ġus ual
ĠT ABLE
ĠP M
Ġp itch
ĠN ull
Ġtechn ique
Label s
Ġ" ;
gu ide
p in
194 7
en ance
H L
Brit ish
L at
Ġl ie
an im
Ġex pr
ĠC reek
ĠArg ument
Ġcre w
Ġhapp ens
E mit
Ġb old
d td
exec ution
Col l
Ġbro ken
Ġa w
ĠD ub
var s
ask a
el d
ss ue
Ġpe er
Ġindic ating
3 60
Part icip
dist ance
Ġide al
olog ist
Ġpl anning
ĠT ok
ĠCon sole
Ġin finite
**************************************************************** ********
ak i
act ic
Ġh ockey
Ġinvest igation
Or gan
Ðµ ÑĢ
$ ).
ĠV ideo
Form atter
Ġpi eces
$ $\
Ġ rom
ĠSe lect
INS ERT
Ġc ert
SP ACE
an alysis
REQ UEST
] ['
Ġlead ership
nes ota
Ġer a
/** */
P res
if ts
ĠR ender
Ex ist
Ġevalu ate
,\ ,
s ch
draw able
ĠBel g
ĠN ative
Ġden otes
AR RAY
b les
f all
rop ol
oun ce
Ġfil led
ĠS a
ĠS pe
ĠB ell
ST ART
An chor
riter ion
h ab
ĠAt l
Ġper haps
Ġfind s
n amed
ĠBer lin
Ġb udget
Ġg overning
iber n
F P
c ountry
dis patch
- ">
Ġint ent
Re quire
F actor
Ġa head
FLA G
Ġcr ime
Cal endar
Ġfeat uring
B ACK
Ġport ion
Ġext ensions
g lob
Ġa st
W in
Ġpre par
Ġhapp ened
db c
Ġattempt s
set Text
lap sed
}$ -
Ġ$ ('#
Ġspe ech
t v
Or iginal
th umb
Ġplan et
Ġtre nd
ĠC at
Ġt ick
text ure
Rel ation
cept or
Ġgrad ient
pm atrix
ĠJ oh
Ġsh ock
S am
> ../
al gorithm
put y
Ġp ixel
ĠA sh
195 3
ĠFinal ly
ud a
in ations
Ġexp and
Ġcons ult
Ġh uge
â Ķ
Ð ¿
ĠB ox
ĠÐ ½
ĠK im
ri um
itu ency
ane ous
Ġorgan ized
ĠH an
Ġf r
Ġrecomm end
od ot
St ud
Ġinter section
ct ors
Ġun able
Ġnu clear
Ġto kens
ĠL uc
nt il
jac ent
Ġn s
ĠC A
St ar
? ?
ĠD a
Ġcan vas
Struct ure
* >(
Ġob serve
az ure
c lip
Ġ Ø§
ext ensions
ĠF air
an th
L ike
R ob
ĠL ew
Pro f
] ->
ĠB and
label s
Ġ æ
Ġyield s
per p
pop up
ev in
CO M
im ize
H C
} "/>
Ġdef ines
fav icon
EX PORT
inc iple
% .
Graph ics
um ps
Look up
D ict
Ġ= \
Î ·
ĠS ant
Ġmagn itude
p ot
] }
Sec ret
Ġk new
ĠF und
194 9
F ac
ĠP ay
aw t
C over
ann a
separ ator
[ -
æķ °
CR IPT
Ġb att
Test ing
ĠPub lish
Ġd ire
urs ive
y ou
um a
ĠNS String
enn a
Ġsm art
ĠL ike
ph ia
A ustral
S outh
t one
F etch
per iod
Ġel imin
Ġexpl ain
Ġd anger
on om
Ġp erman
fa iled
Ġlearn ed
ke ep
Ġalong side
In jection
eg o
Ġpl ants
G P
Ġco ins
SPAC ING
Ġpl anned
Ġgalax y
or row
Ġexpl ained
ap y
w i
Ġc row
ĠMod ule
or er
Sh arp
)\ ,
Ġd t
ĠV iet
Ġd ance
ĠT y
ĠN Y
Ġem ph
Un iform
ĠD rag
script s
Ġmaint ain
E LEMENT
contin ue
rem ark
C SS
Ġprom pt
ag a
FFFF FF
Pay load
Ġsim pl
O ld
trans late
O FF
> .</
Ġm ail
bu cket
Tr igger
Ġobserv ation
sp h
Ġtable s
j an
Ġsche dule
Ġe lev
ID E
cuss ion
ĠTr ust
ident ity
ly n
Ã© s
Ġdepend ence
ĠM AX
RE SS
P ane
ĠK enn
as m
ĠAcc ount
%%%% %%%%
row Color
Ġwe ather
SU CCESS
ag on
O k
ĠEli zabeth
Y our
ist a
Ġpol l
ĠE ntity
ĠCol l
Ġsatisf y
Bit map
Ġlocal ly
ir t
Ex pect
st eps
Ġeast ern
process or
N ECT
rop ical
ĠCor ps
Ġtransfer red
Ġpack ages
Ġengine ering
man ifest
Comp onents
ĠSh ould
N ov
Ġ" #
m iss
Ġinn ov
int on
Ġrecogn ized
f rames
Ġlarg ely
ĠCEL L
ou rier
Ġtit les
Sep arator
cc cc
ord an
Ġbase ball
B el
G r
)} {\
u ing
WA RE
lic a
Ġre ality
S PE
Ġtre ated
Ġsymmet ric
k h
Ġrecomm ended
RE T
C LA
ĠRem arks
ĠAct ive
Ġnot ation
pack ages
mer ce
Ġmed ian
ir th
ĠG ro
Ġevalu ation
faster xml
as p
Ġo sc
Ġprec ision
Ġpay ment
omorph ic
Ġtro ops
ĠG er
ĠR om
pi pe
Ġfund s
App Compat
( `
Ġdem and
ad ed
195 1
P ress
Ġdro pped
: &
B us
op her
f ilters
Has Been
z ech
` :
ent ed
g ems
Ġscen ario
ĠHash Map
` )
40 4
ĠArg ent
Ġcon j
s ources
Ġfil ters
roll ers
vers ions
ra ine
ĠStud ies
Ġcon sumer
SS AGE
Ġ} ).
ĠIm mutable
ap ore
S F
J ust
ĠWIT HOUT
ang el
Ġb ed
Ġwe ights
Ġpolit ics
ĠPr ime
) ^{-
c as
Ġb ands
ĠR a
Str ip
An im
fra g
DE D
d ocker
ĠI F
ether lands
Ġw ire
Ġhold ing
ĠE ner
T ax
Des ign
ĠV ill
N ONE
Person al
Ġrem ark
av id
ok es
m ass
del phia
Tem p
sl ider
N eg
ĠL at
Ġp atch
) {\
Ġhel per
I p
ĠB rad
Ġinc ident
value Of
Ġhe ar
ĠTR UE
ĠPak istan
Ġd ust
Ġcli ents
Ġl ab
Ġsil ver
Ġf oo
Ġsex ual
ĠW HERE
Ġopp osite
s ass
P at
Q ual
ĠSur vey
D ITION
Ġst ellar
Ġm al
ĠN C
Part y
ĠCoun try
qu al
clus ions
pre pare
Ġteach er
Ġl y
L ines
U UID
mult ip
Ġp ixels
T ok
Ġprov ince
Ali as
mod ifier
ĠF ull
M ac
Ġm iss
m anagement
nos cript
at ile
w x
AR B
Icon Error
m ay
Java Script
Ġfund amental
ĠO s
Ġp owers
Ġend if
re ci
LP ADDING
Ġcontrol s
bour ne
ond ay
Lin q
b one
d n
el a
Ġm anner
19 36
project s
de ploy
Ġconsider ing
Ġcon sec
ĠIn it
Ġdefault s
Ġ. =
Ġsu itable
Ġatt end
ĠCEL LPADDING
Top ic
Ġnewsp aper
IT LE
Dis k
e in
ĠCELL SPACING
10 2
Ġ" _
P ipeline
ĠS ydney
Ġr ational
Ġremov es
ĠDate Time
ĠD am
de legate
Th us
cook ie
Ġsold iers
Ġ" )
he t
c n
set ting
ĠF riday
Tool s
des cribe
Pop up
H is
de fer
Ġsurround ing
Ġf ashion
yn opsis
Ġbe am
Vis ual
Ġspec ifically
Ġcustom er
ĠBe ach
mut ex
Ġ' ,
Ġact ress
u f
Ġher o
ĠApp end
T ip
Ġsol o
Ġcheck s
N ON
w ing
he ets
File Path
IconError Encoded
Ġs i
Ġh y
text sc
J an
cul ate
Set up
x sd
ĠR od
u z
ĠCol umn
ĠMin istry
ĠSup reme
ĠS on
respons ive
Ġphen omen
Bu cket
m f
ĠâĢ ¢
k ers
ĉĉ čĊ
: %
Ġlook ed
ad v
I ME
ĠIllegal ArgumentException
Sup press
S eq
EN CE
ir k
+ "
Serial ization
Ġlett ers
ĠV en
ĠMethod s
c x
arg v
Ġsl ot
ow a
Ġscient ific
Ġc ra
ĠA venue
Ġsuggest s
ĠP ut
ĠK el
Ġ" );
pl ane
D ao
Ġappear ances
ĠK IND
ĠT urn
Ġ ion
OB JECT
Ġnot ification
pe g
A E
ick y
d am
t ol
Int eg
Ġs pring
Ġinsp ired
Pe er
sur face
de mo
MP L
ĠOlymp ic
HasBeen Set
ymmet ric
d ays
ĠI raq
st ud
ist ed
Ġcred it
IN DEX
Ġserv es
ĠIN TO
Rad ius
om ics
Track er
ĠD atabase
RO OT
ĠW ho
s peed
Ġin deed
Ġ" [
FLA GS
in cluding
id ge
ĠP UBLIC
A Y
ĠT ry
ĠH y
N I
Ġauthor ity
Ġ&= &
shall er
Ġmunicip ality
Const raints
met ic
im b
ĠGa ussian
Ġman ifest
Ġdepend ency
pon d
Ġphys ics
redu ce
m ad
Ġf i
x l
} ))
Im p
Ġexpress ions
N a
' =>
reg on
str iction
Ġv otes
ĠB OTTOM
Mod ified
Ġli ber
Ġbehavi our
19 18
Ġrot ate
iz ers
Ġb ond
F H
task s
Ġsche duled
ind u
ut ation
Ġdef ense
M esh
Z oom
Ġassist ant
ost er
)\ \
l ua
st ri
Sc ene
TE GER
H ave
P ixel
11 1
Ġfac ility
Î »
Pre vious
he im
fl uid
se gment
b ec
Ġenc ode
m x
? </
Ġres on
ate ver
D one
M ail
M ost
ĠOn ce
Class Name
p ipeline
Ġstore s
S UB
Ġv es
ist ant
Ġoptim ization
writ ten
ĠIn ternal
ĠTor onto
ĠT YPE
ĉ ĠĠĠĠĠĠĠĠĠĠĠ
LE S
-------------------------------- ----------------
B ER
FA IL
Ġentire ly
sub string
ĠM arg
Ġsupport ing
Ġg it
Oper and
Ġ/ ><
ĠC F
Ġanim als
ĠPol ish
t re
ĠB C
Ġaccur ate
ç »
ĠL es
ial s
Ġhost ed
des criptor
b as
Pr ice
ĠEngine ering
Ġpro jection
Ġt uple
Ġenc oded
Ġro ut
Ġsol ve
G RO
.... ....
Ġg rew
Comm it
erv ation
Ġenvironment al
ĠImp lement
Ġcalc ulation
g ar
quest ion
V C
ĠW hether
Ġh ousing
Own Property
OPT ION
Ġher self
H er
A U
Ġretr ieve
Ð¾Ð »
i ative
ĠP ackage
S pe
Back up
po ch
Ġcomplex ity
Ġenc ounter
w as
Ġprom oted
Ġsec ure
ph an
Dist ance
Ġtem porary
Ġe ye
Ġt s
Access or
met rics
Ġsk ills
initial ize
X Y
at tach
B r
ĠH un
Ġam b
) *
ĠH ard
am ps
or ney
ort heast
ĠAnt on
S ig
Ġmin ute
ĠAn th
ut ors
Ġbo ot
MA GE
first row
tain ers
ĠL I
Ġcr iminal
' (
com b
Ġecon omy
19 38
r v
Ġ// -->
look up
ĠSte ve
Ġb ow
Ġextrem ely
Ġcont est
ou p
ĠB et
âĢĿ ,
Ġco al
Ġm om
Ġinvol ving
ibern ate
Ġe fficiency
Ġc odes
WR ITE
ĠWis consin
Ġw rap
1 16
out s
ver al
ind s
ĠF ollowing
Check ed
Â °
lic ity
Ġal ter
ĠH or
Ġvari ant
P ending
ĠĠĠĠĠĠĠĠĠĠĠĠĠĠĠĠĠĠĠĠĠĠĠĠĠĠĠĠĠĠĠĠ ĠĠĠĠĠĠĠĠĠĠĠĠĠĠĠĠĠĠĠ
ĠR aj
od s
Ġup load
ĠBook s
Ġw ing
å Ń
Ġequ als
g ui
Ġag ric
Ġro utes
Ġstop ped
W ORK
un ities
Ġviol ence
ĠSt adium
æ Ĺ
Ġhistor ic
ĠA T
Ġcol our
Ġterm inal
} )$.
dis k
ĠSt ore
ĠS ab
us al
stream ing
Ġbu cket
ig ator
ribut ed
o a
Ġtest ed
ĠQue ens
Met ric
Ġpromin ent
ilib rium
Ġend ing
W rap
H ar
per or
che stra
attr s
; ]
ĠO ntario
P adding
Ġc ov
ĠL ady
Ġdraw n
T ry
Ġb rain
ub ic
Ġveh icles
w eg
$ ~
ent ries
a ug
ĠS M
ĠS W
ant om
Ġs lo
Ġor ig
op ic
The orem
clo sed
ut enant
13 0
add ed
render er
Ġinstit utions
E r
ĠSan ta
ĠPri ze
Ġpat ient
iz ard
ed ed
Ġacc ident
ext ype
cs v
am ely
Ġv o
Ġw arm
âĢ ¢
r ink
He alth
Ġdr iving
Ġphil osoph
ĠTran sport
Ġf ell
AC CE
SER VER
ad apter
Ġreject ed
! (
ĠMin nesota
W eek
Ġin verse
ĠL td
Ġc riteria
p k
map sto
Ġwhere as
Set s
ou ri
re ason
Ġm ist
Ġb ias
Ġmin ister
Ġnu cle
ly wood
Enumer able
Ġdevelop ing
m ma
Ġfund ing
Ġcharg ed
K n
F ix
T imes
D M
ĠS SL
pr ice
! <
Ġg ar
}} ^
zon a
se ason
é Ģ
im m
Ġd ream
ĠI V
Ġdis patch
ĠPro duct
Ġsort ed
} &
F re
dat aset
Ġqu adr
Ġw arn
member NameLink
Ex it
Block s
A lt
h ill
l ator
ĠKore an
ĠC ache
V ol
Ġmer ged
ĠInitial ize
Ġinj ury
Ġref ers
AA AA
U K
Ġth er
Ġpublic ation
erc ise
Ġsp ons
ĠCon nection
C a
Ġrecogn ition
lic ated
br anch
Ġag ents
S ong
ĠO P
we ek
Ġbenef it
Ġhel ps
Ġcomp oser
Ġin herited
sequ ently
ĠString Builder
cript ors
Stack Trace
Array s
an es
5 12
Ã ł
c are
ĠĠĠĠĠĠĠĠĠĠĠĠĠĠĠĠĠĠĠĠĠĠĠĠĠĠĠĠĠĠĠĠ ĠĠĠĠĠĠĠĠ
ic ht
ub ern
d ers
ĠR ome
bra ce
Hel lo
Ġstat ements
itect ure
se cret
St age
m is
Ġs in
! =
ss ible
Pay ment
ot er
ateg or
Ġmount ain
p ers
Can vas
f riend
ing ly
od a
Ġest ate
S peed
Ġsc r
Ġindic ated
qu es
Ġind ustrial
Dest roy
s ocial
over ride
LA B
Ġsc an
Valid ate
W I
Ġren amed
Ï Ĥ
Ġosc ill
Ġpred iction
Ġsc ulpt
ryst al
ĠF ox
Cont in
Ġqual ified
IE W
de mic
Ġ ing
Ġf aster
Ġm ach
Ġpre ced
Ġh orizontal
A MP
ump y
loy ment
Ġcomput ation
×Ļ ×
Ġf ra
Ġexper i
ĠW ars
m ix
ell ite
Ġbul k
Ġwindow s
Ġtherm al
Ġcustom ers
Ġp ref
st ub
ĠD or
erial ize
ĠJac ob
Ġat mo
Per cent
Ġdefinition s
19 37
ĠH ay
Ġcomp ilation
^{ +
ident ial
ĠG iven
ĠEner gy
ĠH al
En tries
Te am
å ľ
Ġth ank
ic ing
Ġscal es
Ġcont rovers
Ġst one
run ning
C MD
Ġlocal e
Ġhe av
An notations
ne ut
Ġan notation
ĠT oken
ĠD ictionary
Ġres olved
ma ch
pl ain
ak ed
Ġs yntax
Re place
ĠSt ory
CO UNT
)$ -
ĠG reg
In ject
w alk
c us
1 12
Ġoffic ially
char acter
ĠS P
hash Code
form er
cy cle
ĠR ight
ĠO ptions
ĠN orm
ra it
enc ing
ur ance
ĠOther wise
ĠL ang
E valu
ĠĠ čĊ
19 19
ĠC orn
A K
w orth
S an
ĠN ations
ĠB ridge
Ġaccount s
ĠL icensed
Ġm el
id o
qu arters
Ġas ympt
ĠR on
ibr ation
Ġ} ),
19 00
:: $
Ġelectron ic
ip edia
Tw ig
per ial
Lower Case
Ġra ces
Ġto t
ant e
mark er
ME M
ron ze
Ġa f
ĠP layer
F ill
ĠB efore
ĠN etherlands
over lay
ĠT arget
Al pha
c v
Ġ urban
p n
ol ate
Ġpre pare
is o
Ġl umin
reg ular
Ðµ ÑĤ
Ġemploy ees
IN IT
Ġcharg es
Des cribe
Mill is
E s
in herited
Ġab ort
Ġst ress
an cer
'] ))
Ġr ural
ĠF uture
Ġcirc um
par agraph
Ġtim er
Ġre action
Ġex cell
G ateway
Ġc overs
Up dated
Ġgir ls
Ġm and
' },
P aint
Ġrepresent ative
Ġconver gence
Ġ* ,
ition ally
Ġdef end
ĠM IT
es cape
Ġc ab
Ġdifferent ial
C r
Ġwin ners
Ġencou rag
| _{
pro position
Ġkey board
AS H
St yles
Ġem erg
dir name
Ġperform ances
n ail
Conf irm
develop er
Ġca ref
L ang
="# "
cam el
ĠFore st
L ife
ĠE th
elastic search
f ac
AR GET
Ġman age
Ġpy thon
Comp arison
^^ ^^
Cook ie
ĠG allery
ĠFurther more
NG TH
E v
$ ;
ĠAt tribute
() ]
Int roduction
to Equal
Ġpr inciple
Ġar ms
ĠL abor
Spec ial
path s
ĠS ite
Ġ ../
Ġsequ ences
Ġab and
t ik
? (
Ġ à¤
u j
Ġaut hentication
iven ess
font s
ĠHamilton ian
II I
h al
Ġiter ation
hel lo
Vis ibility
ĠW el
c aret
ang a
Ġmark er
parent Node
Ġc p
Ġ ener
Ġindu ced
tool bar
ĠDav is
Comp letion
Ġch ampion
ol i
over flow
B M
Ġcompet ed
Ġscal ing
B g
Ġvari ation
th rough
Ġmusic ians
ĠStep hen
at om
ext ract
L R
Load ed
U C
Ġm asses
e ast
Ġreplace ment
Ġp asses
v et
st an
Ġfeed back
}^ *
Ġfa ith
c ity
he x
ĠF ilter
Scal ar
s ender
Re q
Ġex pert
ast y
ĠS V
Ġadministr ative
ĠFr ont
M o
u um
igh th
Ġinter act
ĠS ET
ĠD CHECK
Ø ³
Read y
ĠS C
ir y
Ġfl uid
ĠN iger
Ġ" +
cri ber
Ass ign
t m
Ġposs ibility
ĠRev olution
Final ly
u eto
Ġg one
ĠDes pite
Sh adow
Ġ ur
ĠAmeric ans
Rel ative
ĠL ock
ub le
Ġobject ive
Sc an
Ġext ent
Ġa ver
R outer
ic ian
em et
ĠGold en
__ .
S ent
Sche me
Data Source
ĠD ark
Ġh air
Ġ/ ></
illi seconds
Ġd yn
ro b
Ġd ense
Un ique
Vis itor
Ġident ical
Ġbeaut iful
Ġle af
ĠT ai
Ġrece iver
Ġen h
az e
ĠCam bridge
Ġstandard s
Ġeas ier
Ġ{ $
Ġmat ched
ĠBu dd
Ġst orm
ĠD est
Ġto String
... )
Ġor bit
gener ic
Ġrec all
Ġm ath
C ertificate
ĠS uch
z i
us age
Ġd ates
M IT
ĠG il
N umer
Dest ination
ith metic
Ġemploy ed
Ġprom otion
ul ating
ĠB asic
Ġm yst
] ).
Ġsol ar
Ext ract
Ġr m
the ad
14 0
Ġdat etime
set Attribute
ĠChild ren
K ernel
ĠCre ated
Ġsh adow
Ġlook up
ag en
iev al
ĠR os
ĠB AS
ĠCon stant
TEXT URE
Ġon click
Ġsatisf ied
Ġcomm ittee
Ġtheore tical
ĠR ose
at ype
Ġacc um
\ {\
19 2
Ġresult ed
10 5
Ã¼ r
ĠExp ression
ueto oth
Ġc ertificate
and y
ĠL ow
Ġcol d
urren ce
Ġr hs
50 9
Ġca ught
ogene ous
part ition
ur st
ĠM ust
19 33
cons ist
Al though
et c
Sl ot
Mer ge
all enge
ĠParamet ers
block s
ĠT al
==== =
L com
Ġpurch ased
19 14
ĠMount ain
ĉĉ Ġ
t z
Ġfight ing
G rad
C ould
con g
v ia
) }}
ĠG rid
Ġfrequ ently
Ġquant ity
ĠC ost
F ire
ĠC ulture
Ġ"- //
Ġy ellow
T ensor
ĠS ize
C ent
Ġx si
ĠD raw
Ġf rames
Ġbelong s
ĠS ound
pack et
S rc
Ġ( ;
ĠC are
v n
Ġ-- -
est ure
Ġocc asion
STR UCT
Ġdepend ent
Oper ations
L em
ĠPhil a
ĠSum mary
Ġlo sing
Mod al
âĢ ĺ
en vironment
Write Line
Ġf old
L ite
ĠC ub
Ref resh
Ġcalcul ations
19 35
Ch rist
Ġpass phrase
viron ments
o i
s With
at on
E ducation
id en
ĠIm Gui
Ġnot able
è ¡
Ġdec ades
append Child
up per
ĠK al
ĠD oug
reg istry
ĠBr ig
/ '
Ġkw args
Ex cel
ĠDu ke
ge ometry
ĠD un
ĠP si
]] ></
const raint
M ix
Ġse ss
y ard
Ġauthor ities
| }
ĠS in
FT WARE
Ġconfig ure
gr pc
ĠC ook
op acity
Ġtrans mission
ĠPrem ier
ĠL ear
ĠÃ ł
ĠPro perties
es is
Sur face
h box
ak h
ĠJava Script
ac ion
ME SSAGE
pre view
Ġv ent
S afe
ĠPr ivate
isl ative
" </
ĠAd am
Ġsymbol s
Ġf uel
Ġhot el
ĠR us
FR AME
m icrosoft
cond itions
ĠE RR
av al
pro b
amb ig
com ments
inter pret
Ref lection
An other
Path s
Ġsign als
config ure
en o
Ġw ins
ĠD C
Ġopin ion
ĠPl ace
ĠInst ead
p aces
Ġw a
Ġbig gest
" }
Ġcont emporary
] ),
ĠPhila delphia
ant asy
ad i
col l
O cc
Ġsubs cription
T ri
P rom
non atomic
10 4
AB ILITY
/ (
"> &#
al ty
P G
Ġk ick
ĠFore ign
Ġclose ly
L ive
ĠS ym
Ġpre pared
ĠI gn
m acro
app ings
âĶ Ģ
sc an
Ġm acro
ĠW inter
Ġadv oc
subs cribe
Ġaspect s
19 34
b ian
Ġm es
back end
Ġst ub
ĠA ge
Any Ref
ĠP a
ĠG ree
T X
Ġconfig ured
ĠColor ado
d ump
Ind icator
Ġcol lapse
Ġfl uct
Second s
allow ed
LI ENT
C tx
l on
ĠDev ice
Ġn ob
Ġattr s
we ak
ĠL ag
ig o
Al ignment
. ")
ep age
ring tone
sp i
Ġlist ening
qu id
Ġleg end
[ <
Ġs lice
ĠReg iment
B ranch
ĠĠĠĠĠ Ċ
Ġ" ./
Ġr c
ĠO regon
ines ses
Ġh orse
19 17
Ġgradu ated
ennes see
Ġb lo
U sed
Ġd x
Ġstat istical
f uture
s amples
R L
process ing
B LOCK
Ġsup posed
Ġn arr
Ġneg ot
Ã ½
S UP
Ġv ec
arg o
Ġs ock
O ct
ĠM atch
W arnings
' ):
Ġdefe at
Wh ite
and al
Ñ Ĩ
ra ined
ari os
ĠâĢ ¦
19 29
ĠB ru
order ed
Ġadd s
T ube
M r
ĠEd itor
ĠF oot
ĠU sed
Cle an
Ġexp atriate
SD K
Ġth anks
, </
ibli ography
Function s
> ()</
size of
Status Code
Ġappro ved
Ġmov es
Ġcharacter istic
Ġro uter
Ï ħ
l ot
ĠF ish
ĠTur key
Ġintrodu ction
Ġb odies
do or
per mission
or ough
ĠS om
is is
enc il
Ġhapp y
V ariant
D im
Ġp referred
ĠH art
neg ative
() [
ĠEn c
Ġproces sed
ĠInv est
D imension
bal ena
ure au
Ġcon clude
emet ery
Ġinvest ment
li a
or ange
dd en
p d
ex clude
Ġf ounder
qu o
al gebra
OR S
ug ar
n ov
urs day
Ġt error
Å Ł
; -
Ġte aching
prec ision
+ (
AR CH
ru ption
ĠC EO
n an
Ar r
100 00
P al
Ġprote in
com es
Ġs napshot
ĠDis play
bad ge
Ġrep ly
Ð ·
ĠP ur
m g
ur ches
re hens
am ar
ic ates
ĠÐ ¸
Ġref resh
Ġcomm itted
ag ram
e en
Ġinc orrect
Ġin structions
sm art
Ġcamp us
t bl
styles heets
D er
Ġm ac
ound ed
Ġlow est
l r
ef ef
ĠM obile
St mt
Ġyoung er
Capt ure
ta x
Ġb omb
Ġext ensive
F ollowing
sh iv
Ġscatter ing
Back end
ĠS ession
ott en
se ls
Ġst rip
Ġn ested
ĠA ud
}} ^{
Ġ\ (
Ġ{ ?
th ree
Ġin str
AME TER
Ġuncertaint y
s By
ast ers
fact or
ĠĠĠĠĠĠĠĠĠĠĠĠĠĠĠĠĠĠĠĠĠĠĠĠĠĠĠĠĠĠĠĠ ĠĠĠĠĠĠĠĠĠ
short cut
n ie
th ere
Ġsup erv
Ġdo ctor
ĠC HE
ĠSto ck
to LowerCase
Over lay
Ġpers pective
="# ">
Ġter ritory
ĠH ou
M AN
ĠA lf
TO OL
iv a
Ph oto
Ġsim ult
Ġp in
place holder
Ġread s
k ish
ĠB all
Ġamplit ude
Ġman ip
p referred
Ġcomp ile
Ġart s
Ġapp lying
ec ycle
Ġb ran
ĠM anager
weg ian
U int
ĠSing apore
G UI
CH AN
oriz on
ĠAdd ed
14 4
unn y
Ġab und
ĠO cean
Ġsynchron ized
Ġtr im
az el
Ġg ained
ĠM oh
Re ply
eng ers
ĠD eb
19 28
Are Equal
//////////////////////////////// ////////////////////////////////
Ġd ry
ol ute
ĠB an
C art
G uid
Ġmunicip al
I ES
Ġl ift
G erman
Enc oder
de termin
fin ity
ĠLew is
dest ination
Ġh all
ĠC ra
Ġpurch ase
ĠMar ia
ess aging
Ġthink ing
Ġconsist ing
ĠÐ ´
Ġd oll
B lob
h our
g ray
Ġst ability
ĠAg ain
mem Item
Ġt ile
Ġg ender
Ġg lass
Ġorient ation
ĠSwed en
}( {\
) +\
S n
vent h
Ġ(! (
ĠE ric
Ġan imal
AUT H
vent ure
ra ise
ord on
&= &
row se
Table s
Ñ ħ
default s
Ġap art
Ġt ight
Ġtw enty
ĠCar l
J s
al ion
tr ansp
9 00
N OS
h bar
Sche dule
Al gorithm
t uple
un ately
b est
am er
19 32
Ġle s
Ġprom ote
L D
N orth
v art
~ $\
p riority
tra in
Ġ[ {
R GB
s ame
Ġgraph s
le et
Ġjud ge
ust ed
Ġoutput s
ĠSwed ish
ma ker
ok er
Ġinteg rated
Ġbenef its
Ġs ale
ĠUn less
rid es
G a
Ġconf idence
Ñ ĸ
a que
F rench
poly mer
Ġequ ality
ib ling
R IGHT
Ġsc oring
Sub ject
LIC ATION
ĠS ymbol
Ġp or
help ers
c py
Ġnot ify
l ive
ĠG it
m ust
l iteral
Ġparticip ated
_ [
re verse
List eners
ĠB att
5 000
Ġdel ivery
ĠBuild ing
O G
Ġass ignment
Ġm s
sp ark
ĉĉĉĉĉĉĉĉ ĉĉĉĉ
Ġl l
ĠO t
G iven
PREF IX
Ġsum mar
ĠPh ot
Ġes cap
me asure
Particip ant
ac o
L ow
In f
l b
as set
ĠGL enum
Ġb an
Ġinter ior
end region
Ġcan onical
ĠI ce
FUN CTION
i em
Ġs ole
ĠBar on
---- -
Pro c
display style
Ã ª
ĠN az
v i
}} $.
Ġpercent age
N P
Cred entials
) }_{
ĠD at
r in
control s
ĠM ET
Ġre peat
work s
ac l
DO CK
if rame
Ġle ct
ip age
eli hood
Ġbel ief
Ġse ats
Ġre start
c lock
M en
ãģ ®
off s
subs cription
Ġ( `
ar ma
Ġta ught
met ric
R S
te le
( []
ss on
Stat istics
ĠP C
Ġ. /
MA SK
Ġre sponses
M al
Ġd s
0000 000
n pm
19 10
Ġlist en
P ASS
ur is
igr ants
F ROM
hed ral
ĠS quad
ĠSk y
ĠCh rome
g ies
ĠCapt ain
st ory
Ġeffect ively
u lo
Ġf ired
Ġ ut
w ind
z oom
Ġad jacent
ĠS cal
ĠF ood
end o
19 24
ĠL ev
ĠB ishop
Ġnov els
ĠVAL UES
Ġco inc
ĠA C
L C
Ġpers ons
Ġpredict ed
ĠCast le
Ġare n
U V
ãĥ ¼
Ġh its
Ġf estival
ubern etes
Ġf ear
Ret ry
AT URE
Reg istration
SH A
ile y
ĠT a
ul us
Ġsuffer ed
}} $,
File System
Up per
ĠInd ones
Ġnormal ized
Ġ' $
b x
ffff ff
iv als
Ġpost ed
ch anges
tik z
LI B
M ajor
Ġrad iation
min ipage
ues day
ĠLe on
Ġat trib
Comp lex
ĠAr thur
">( </
Ġd ot
Ġv ideos
=" //
Ġh op
: /
ĠStruct ure
Ġhouse holds
Ġret ire
; =
Ġport ray
Ġscore s
$ &
ich ol
Key word
Ġcomput ing
ĠÐ º
Ġrest ore
] -->
Ġrob ust
GL enum
ĠSta ff
}$ )
ĠM onday
../../ ../
Ġpost s
MA KE
text area
ĠE P
Ġ' ')
Comp are
Ġthread s
ic ular
ĠE lect
work er
ĠRes pond
ĠAth let
t iny
Ġel li
Ġint ensity
P icker
F IL
ĠMed al
Ġsam pling
Ġr ating
ĠGL int
ĠD oc
Allow ed
Pr imitive
INST ANCE
ĠM ilitary
) -\
Ġcho ices
i ations
10 7
oot strap
V ote
ĠAtl antic
ĠC irc
Ġcoe fficient
00 2
Ġst ands
Def ined
Ġcollection s
Ġsk y
es c
ĠDig ital
Ġpart nership
Conn ector
r at
ĠA h
Ġk id
ĠSt op
ĠL evel
Ġm k
Ġp ed
car ousel
} )$,
Ġsk in
ig e
ref lect
ĠPe ak
Ġar c
reg ex
ĠA st
Ġwrit es
Ġpaint ing
Ġtown s
less sim
mb ed
iv o
ĠT oday
ĠP ers
ĠK ansas
Ġsee k
ĠTrans itional
å Ľ
ĠRo ss
af ka
decor ation
ĠM un
Ġsim p
Ġcred entials
ap ps
Ġn ice
Co ins
Q t
ins ic
A IN
comp iled
ĠL abel
ap l
le e
sh arp
A zure
ped ia
ind ices
LE V
ar ity
Ġg ene
c ategories
ul k
ĠIndian a
App ly
Ġm it
Ġcharacter istics
Ġcitiz ens
J ap
es sed
ĠF all
u dd
Ġs urn
Sup p
Ġw inter
Ġhard ware
Ġch apter
remove Class
Ġarrest ed
p od
Ġw alls
Ġor th
vis ibility
ÃŃ a
l ined
@ {
ĠR ange
ä¸ Ń
Ġengine er
Ġult imately
Ġthous ands
Ġent ities
se ed
Ġapp lies
Ġknow s
Ġr anges
ĠVer ify
Ġopp osed
ĉĉĉĉĉĉ Ċ
Ġv ice
<? >
ĠE s
ah oma
å ¯
Ġr ugby
ites pace
ĠC hen
ĠM iller
AR K
Ġkeep ing
in verse
nes day
Event Args
ĠM att
Ġm arg
Ġy ards
Ġhost s
ĠB at
ĠT an
Ġbreak ing
ane ously
Ġinitial ized
Ġrec ru
Ġem otion
ĠAri zona
read cr
ch rome
ar on
Ġf ly
Ġst roke
st derr
Ġse gments
19 31
Ġk ids
T ick
Ġir on
Ġh a
ĠIm port
Ġpar ish
Ġg lyph
s creens
at ical
Ġat om
og y
S ol
ĠF ac
Ġreg istration
er al
Ġj et
ĠW ord
Me asure
Ġembed ded
Ġclass ic
Ġaut hent
ach er
co hol
c amera
Ġbl ank
W omen
p al
ropol itan
ĠCON DITION
A ug
Ġdocument ary
conf irm
å ¼
x f
. &
ĠB rand
ĠCHE CK
Ġconcern s
ĠSO FTWARE
at able
Al ign
Ġsh ut
Rad io
LE NGTH
ĠV AR
// ----------------------------------------------------------------
ĠV i
> ');
Ġyour self
Ġ Ä
Ġc ss
Ġr ig
ĠR PC
ĠG h
ĠMod ern
Ġrank ed
Ġre produ
Subs cription
ĠP ier
ow nt
ĠF lo
Ġtit led
ĠCont in
Ġchalleng es
com mod
inv oke
Character Offset
He ap
Ġ" ")
ĠInst all
tab End
ĠT ab
With out
Ġscen es
ĠAss oci
C y
ĠSh er
Ġ# #
Gener ate
* \
Ġb ought
Ġs a
11 4
Ġinvestig ate
post s
ĠCon struct
S cheduler
$ ),
j u
Ġ( );
Î ¼
sc ene
p f
TH ER
Ġ/ .
Pr iv
Ġhash Code
Ġas sets
it ative
und les
Ġb os
ĠW atch
uc ene
19 27
Ġdiscover y
Ġconsec utive
oc omp
Trans fer
Ġm ent
ĠM ill
Ġhand led
] >
un ing
Ġsp end
There fore
own ed
User name
C ost
ĠH ost
Ġp un
ĠG rant
Ð¾ ÑĢ
Ġimmedi ate
so ck
Ġd jango
ĠF ight
ĠN ick
Ġn amely
Ġag ency
Ġrelationship s
Ġsucceed ed
Ġa id
Ġbus inesses
wall paper
ĠS ymfony
19 22
: }
ĠSim on
tr as
Ġem it
Ġwe alth
Ġp iano
Ġdis crete
Ġs ac
(" -
Ġcertain ly
B D
ĠRet riev
Ġsch olar
ĠBAS IS
Ġca using
Ġdecl aration
A pis
ĠHot el
ren a
Rece ive
Ġ' ../
Ġcar bon
Ġen emy
For ce
Fore ign
v ard
vel ope
Ġc ro
Ġfac ulty
ĠU SE
az a
ĠC op
ĠM atrix
ra cy
Ġsub mit
e ction
------------ -
f ish
ob serv
Ġc ros
Ġalleg ed
b urn
M obile
ol y
Ġpr incip
/ #
west ern
C ss
Ġp refer
Ġ$ |\
c ost
] <
T oggle
Ġinstall ation
ĠF A
ĠTr igger
ĠTh rough
ct rl
AS C
alle st
ĠMem orial
ĠMag azine
Ġcon d
TO DO
ok ing
Ġrep o
Ġ[ \
ab a
ĠQ String
h w
Ġat tach
w ave
. ');
Ġrender ed
PAR AM
S in
H ide
Ġgener ating
Act or
Ġv ision
Ġrun ner
ant ly
ĠB rian
D a
---- ---
ĠN ever
Ġdecomp osition
ĠCONDITION S
ĠS ep
Ġvis ibility
bit coin
input s
Ġexception s
Ġsee ing
! \
T ITLE
ĠDe ad
abe led
Author ization
Ġclo ser
ĠHar ry
Ġpri est
dom in
F M
i pl
un i
book s
F i
ĠC zech
Ġdisc r
19 25
ĠJew s
w ick
Ġre try
ĠSw itch
ĠG ET
ĠCle ar
19 12
pro f
er os
Ġrel ax
ĠMal ays
> -
ĠCol on
Ġfem ales
h p
HO ST
Ġpro test
Ġplatform s
Un able
Ap pearance
ĠWh y
LO B
\ ":
Ġ ^{
periment al
Dec oder
19 21
Y es
Ġb ot
ann y
Ġtri es
First Name
ud o
ret val
Ġdom estic
st ances
10 3
ivers ary
NotFound Exception
ĠB rowser
sol id
ĠEnter tainment
ĠĠĠĠĠĠĠĠ čĊ
r x
variable s
Ġfl ash
ĠO k
ĠJ ordan
M iddle
Ġc c
Dis abled
Ġopp osition
ĠB h
Equal To
ĠTh row
ĠAl low
B T
ĠF ixed
c art
Ġc fg
g em
Ġtemper atures
to kens
St d
Ġtra ject
Par cel
p ref
Ġg reatest
For ward
s is
ĠP it
P TED
ul i
osc ow
ff ee
ĠS ave
implement ation
thread s
un stable
Ġaff ili
inal s
Ġs we
b re
Ġde precated
int ent
stat ement
ch arts
Ġc s
; ,
inem a
ĠT ennessee
Ġprogram me
Ð¸ ÑĤ
Ġdeliver ed
Ġconv ex
Ġs ensor
vis it
N ested
y arn
Ġad vis
ĠEx press
P K
Ġcook ie
Ġexplo re
Ġnecess arily
High light
for ge
ipp et
ĠS mall
Ġexp osed
Ġsomew hat
Ġleg acy
Ġhom es
> )</
h alf
ĠMex ican
Ġdi pl
per ature
h ot
Pro of
window s
Ġcr ash
ram mar
in ction
ĠS quare
pt s
Ġart ifact
Ġrecover y
ĠPhilipp ines
> /
++ ++
> ';
Prot otype
ĠMiss ouri
se p
Ġz ip
ĠA uth
ĠV o
ĠRe lease
H ex
ĠHol y
x ref
) --
Ġ' </
Ġattempt ed
19 15
Ġin comp
ĠIn stance
ĠCON FIG
ĠA WS
ap el
local s
Ġan imated
t ick
Ġpar liament
Ġoffer ing
Ġcon sequence
ĠAnd erson
Ass ignment
Ġsent ence
In line
sl ash
get Key
ĠH il
Ch oice
z ier
Tag Name
E very
ĠG ran
19 26
00 5
Request s
enn y
w ich
ĠB urn
ĠHe art
re ply
: =
19 16
iz z
ĠM it
custom er
Ġk illing
Ġcomput ational
ĠJ ane
play back
)) $
S heet
Ġinter mediate
Ġl t
Ġcheck ing
Ġcomp iled
Ġbel iev
F rag
H D
MS G
Ġg overnor
ĠO K
Bi ography
F oo
Pub lish
m issing
Sw ift
g h
Ġarray s
Ġb low
ĠInter face
ĠExec utive
Ġf ul
Ġoper ate
Last Name
R ich
un iform
i ator
ĠL ar
ĠE ll
erg i
Ġmix ing
get Text
ivers ities
Ġst anding
Ġt ip
re view
S ink
ĠE C
Ġas set
Ġtalk ing
Ġdesign ated
ĠAff airs
m ont
MS earch
A ir
pe er
ĠK han
go al
ĠD A
ĠF R
Ġ ì
ĠRequ ired
re ports
Ġstri ke
u ations
Ġst ages
Ġhe x
aw are
Ġcirc uit
rest ling
" =>
ĠI T
ĠD ream
(" <
ag ues
Inst ances
Ġin frastructure
}{ |
Ġopport unities
Dist ribution
Ġent ropy
Ġprodu ces
Ġc url
ĠF ederation
Ġprof ession
Ġhum ans
Ġalign ment
Ġmanag ers
g c
y aml
Ġdr ivers
Ġdescri bing
Ġabs ence
Ġ utils
Ġlo se
Ġprodu cing
Ġne ither
B usiness
Ġcap able
Ġvers us
Ġvol unte
ĠK a
job s
P ACK
U ntil
s leep
G ood
ĠOb ama
ĠT ony
Mult iple
sl ot
andid ate
Ġgra vity
iv ated
ĠCon structor
: **
ma jor
ĠA mb
ĠWh ere
Ġsatisf ying
Ġcomb at
Ġol dest
Ġpract ices
iam i
Ġth in
19 23
ĠSt one
Ġdat asets
Ġp apers
Ġcover ing
Dependency Injection
Ġp index
app y
if ference
Ġdraw ing
=" ./
Ġ{ })
ĠOffic er
Ch at
d ating
Browser Detector
LIN K
Ġgu ess
Im ages
ĠPl ant
n m
Dis patcher
as hes
t frac
DE LETE
D avid
ĠMult i
ro tt
C alled
Ġ! !
' +
O rient
Sh are
Ġm m
he ta
ĠF a
Ġessential ly
ak s
ĠMel bourne
ĠC atalog
end a
Ġdistrict s
ĠPhil ip
ĠNor way
att ing
}{ (
PAR AMETER
S mall
}\ ,\
Art ifact
C ross
C atalog
get Property
sp her
Ġrespons ibility
Ġcl ause
De ath
ial ect
it ched
Perm issions
LEV EL
Ġun iversal
W illiam
ĠF ellow
uth er
S ound
ab ama
LO AT
ĠE ns
ĠUk raine
t ract
ĠB run
Ġjournal ist
MA IN
Ġpotential ly
u y
force ment
ĠMary land
R atio
Ġsign ing
i ot
ĠPro file
Ġro bot
Ġexp os
Ġinter pol
Ġevalu ated
F ake
w ho
du ate
ang ers
Ġown ership
Head ing
Draw able
or acle
Comp leted
f loor
O C
Ġk il
Ã «
ĠCl ark
ĠA UT
Ġderiv ative
æ ī
Wh y
ĠCon tainer
Ġpro posal
col ors
Ġ( <
ĠH E
ĠHigh way
h abit
DE P
Ġgra vit
Ġm ales
ĠSt orage
$ _{
A f
In clude
Ġrepresent ations
Ġrough ly
s ap
"> Â
ens is
=" <?
($ _
O lymp
Al so
Ġv ul
Ġinterest s
Ġle mma
Ġro of
pre vent
p ixel
NOS CRIPT
Ġfavor ite
Ġdis ap
ĠM as
ge om
New s
b ow
ĠC ab
Ġaccess ible
Ġap ps
Su ite
add EventListener
Th reshold
Ġinv oked
we ather
S IGN
serial ize
B en
ĠE dition
mod ified
un ior
ĠO THER
Ġl ibraries
Ġj ourney
Com b
Ġre lying
ĠK now
s am
aw ay
ĠT EST
ĠS av
M ich
han ced
Ġweap ons
wh at
channel s
Ġex cess
w b
ĠĠĠĠĠĠĠĠĠĠĠĠĠĠĠĠĠĠĠĠĠĠĠĠĠĠĠĠĠĠĠĠ ĠĠĠĠĠĠĠĠĠĠ
ä¸ Ģ
st roke
ĠPal est
Ġim pl
sh ots
ĠC C
ç ½
Ġ(! $
ĠF ord
10 6
mult iple
ool s
Mod ules
Ġmark eting
s lf
ĠF loat
R ound
pre ter
Ġ Ã©
Ġcontrib uted
Ġun iverse
0 100
ĠE U
p ip
size i
Ġmov ies
Ú ©
re nt
itzer land
c oc
le af
Ġdef init
comm ands
DO WN
U Int
her ent
1 18
Ĩ Ĵ
tri angle
d m
Rout ing
ĠL iter
Ġharm ony
st mt
ĠD im
ĠL ind
ĠLin ux
ĠP AR
$ :
Ġred shift
avel ength
ĠBo y
Py thon
ro it
Ġp ip
TE S
Ġsur g
} >
Ġsens itive
e lect
ĠJun ior
****** /
sign al
ĠC ru
Ġrelig ion
] =
Ġfav our
Ġthe ories
ĉĉĉĉĉ Ċ
Ġbro ke
( ",
Ġwh atever
id ad
Ġ- &
Ġlo an
ĠD ATA
m any
am an
C lip
ev e
Ġresist ance
tem plates
Ġmom ents
Ġto wer
× Ķ
ĠL ib
Variable s
ĠH om
ĠParamet er
Ġra cing
DOCK ED
Ġsu ffix
Ġpl ain
Ġc ards
par allel
ĠCon dition
ĠA udio
Ġtra ins
Ġflow s
pay ment
screens aver
Block ly
Ġre striction
Ġarr ang
Ġinstit ution
ĠA P
Ġde cade
[ [
æĸ ĩ
Att empt
Ġpro files
Ġworld wide
ĠH ig
Ġmag net
Ġse d
ĠMar ine
Ġperman ent
Ġclo sure
ĠG ib
Fil m
ĠN FL
be at
11 5
V IEW
Ġm ort
Ġcount s
Ġcall er
Que stion
ue se
ĠS yntax
APP LICATION
ordin ates
comm un
24 0
Check er
C he
Ġor b
iss on
V P
ol is
sp l
Ġcon clusion
col n
ĠR yan
ĠM S
ĠS cript
H idden
Ġs pher
Ġpredict ions
Part s
Json Property
oss ible
em an
) })
pt ic
ĠM E
k ov
has OwnProperty
int o
Can adian
Ġlo ader
th ird
quis ition
Ġpract ical
Ġpil ot
Ġmay or
Ġsufficient ly
Ġthe atre
Th rough
D ot
n io
f w
Bl ue
Custom er
Ġden oted
ĠT en
Ġown ers
_ -
trans fer
ĠSen ior
ces sed
Link ed
ant ics
ACCE PTED
table s
Ġa dapter
ĠP ot
ma zing
Ġenc ryption
Al bum
Ġp ag
123 45
Ġest imation
el ve
ol ves
Ġexperi enced
par sed
ĠL eb
M argin
n it
W H
F ront
Ġro ots
Ġbrief ly
Ġvoc al
ĠAll en
r ang
Ġrestrict ed
Ġfunction ality
ĠDo ctor
ve e
Meta Data
Ġ ray
Input s
ard o
ell s
Ġexper iences
Ġr s
Ġparticip ants
A wards
W ARNING
Ġbur ied
GRO UP
}} )
Con struct
Beh avior
ver b
ĠDef inition
ĠR andom
Ġcy cl
ĠB us
orient ation
ot ers
ĠR ol
ĠD ue
PROP ERT
. $$
* .
ct l
ĠK y
Ġcal endar
Ġexcell ent
ĠF i
A CTION
ĠJes us
ill ery
Ġexhib ition
Prov ince
Ġde code
Ġre form
Rece iver
Ġjust ice
Ġlist eners
av atar
Ġs ig
Ġcollabor ation
ac er
ĠM unicip
Ġdevelop ers
F ilters
ĠBase ball
. ";
u pt
Un mar
Ġ( #
bo ss
ĠGener ate
Ġb rown
Inv oke
Ġinterpret ation
Ġrespect ive
String s
pr ising
ic ians
ph ab
å º
ĠH op
Ġair port
math op
Ġro yal
Ġpl ate
ĠC P
Å «
as a
ĠC ategory
Log ging
>: ]<
La unch
st ab
Ġat omic
Found ation
R B
Ġannoun ce
Ġs lide
Ġre tail
ir ty
DI RECT
ĠC er
ĠSet tings
R M
em pl
Ġreg istry
ic i
ate ur
b ors
Ñ Ī
Thread ing
Ġcon crete
Ġl ambda
ĠN othing
IT H
' }),
ĠP osition
ĠMed icine
ĠAl bert
l av
Ġout line
é ĩ
Ġd iver
Ġassum ptions
Ġsh aring
capt ure
ĠMo on
Ġreport ing
Fil ename
[ ];
ĠC lose
sub str
G T
Ġder ive
Th an
Ġadapt ed
ĠP A
Ġmaint ained
Ġcos m
m ysql
Ġb es
ĠF eb
Ġ[ #
ĠAr k
s napshot
Ġext reme
Ġeven ing
B ag
a ac
G reen
Ġin dependence
19 13
ĠGree ce
Ġre ar
nav Bar
ĠIn deed
Ġdec ide
(" [
ST RE
Ġup grade
ĠForm at
is or
Pop ulated
Ext ended
tr ivial
A ud
{ },
exception s
exist ing
Ġm ine
) '
Ġj e
CON NECT
Ã ´
Ġt body
ĠIP v
l iving
ĠS chema
ĠViet nam
t cp
Ġhouse hold
Ġback up
Ġmod er
Ġvir t
ĠOn line
St ates
H on
dim en
ĠTown ship
gu ard
Ġcon tribute
Ġre aching
N ER
Ġm ob
ĠS ri
ext ends
N or
Ġvill ages
b oth
Ġs now
b ower
Ġnorm ally
Ang le
( @"
qu ick
2 20
er as
Ġs ounds
c orrect
10 9
Ġint elligence
Ġm ile
Debug ger
Ġequ ilibrium
big l
Ġd ol
RO W
Typ ed
w en
li x
ĠBro ad
Ġra in
in ch
ar ith
ĠS ix
ĠÂ »
ĠAust ria
ĠB ah
ĠZ h
od b
] *
Ġsubstant ial
c lic
Ġtrack ing
S lice
Ġa u
im ination
un ion
Ġrepl acing
Ġind ent
ĠAdmin istration
Ġob server
ĠBut ton
Co ord
kl ahoma
ĠK at
Ġr id
Ġb id
Red irect
Ġprov ision
Ġpre mi
Ġch ose
ĠMem ory
Ġprem ier
qu iring
Ġdecre ase
ĠP erm
In s
Ġt ack
Ġne ural
= </
ĠC ape
Serial izable
H int
Ġl icensed
Ġw rapped
ĠD ocker
el led
ai ses
ĠP DF
() `
ĠA z
M c
Ġm esh
ĠV olume
ĠEn able
Un its
3 50
Ġphot os
r ino
Re view
ul um
Ġcre ative
we alth
Ġref used
Ġpost er
^* $
FO RE
ĠO pt
port folio
Ġspec ifies
spect or
Ph ase
Ġhelp ing
mon itor
ĠO FF
Add ed
Ġch airman
}) }
ab b
ĠU TC
Ġnomin ated
H orizontal
" |
ĠB lo
ĠCh ile
ĠCon stitution
vent ions
ĠRepresent atives
CE PT
æĺ ¯
ĠM oscow
ib ilities
x e
ta h
ro ph
ĠC red
ĠSystem s
ĠDon ald
leg end
Ġgra de
v p
Th rows
t age
Rel ated
ir i
ĠP rom
Perm alink
Ġmedal ists
ĠA V
P ages
p us
3 000
ĠTrans action
Ġ} {
I BU
MP TY
ĠD omin
Ġtrans lated
Ġch arts
b n
) &
iss ip
Comm ands
Olymp ic
ĠO UT
FH IR
numer ic
Ġutil ity
w m
CL U
oxy gen
ĠC S
ĠI owa
ĠĠĠĠĠĠĠĠĠĠĠĠĠĠ Ċ
u h
A WS
Ġassum ing
Ġarg v
ĠTh ird
Ġcont rad
ĠDi ego
Ġre new
Ġ} ));
AC HE
× ª
Ġin ternet
rop ic
Ġsw im
ĠArg s
ĠValue Error
Over flow
Ġsust ain
} `
ĠSe ason
ĠSil ver
Record s
ĠCon s
y ll
Ġco aches
Ġmy self
) >
sp it
ĠAn alysis
pend ed
att en
ĠS el
ĠHou ston
c atalog
Ġh alo
= .
Record ed
Ġclo sing
ĠDef ine
urch ase
K EN
Ġappear ing
Ġcom fort
** *
Ġconfig urations
Ġref lection
C am
ĠM rs
Ġtr ivial
u ent
la unch
ĠJ am
Ġoccup ied
Ġdis put
Type Name
")) );
Ġac id
;\ ;\
ĠDe ath
with out
Ġsix th
) ?
Ġdiag onal
UP DATE
=" {
ĠSing le
ic ut
Ġjo ining
Sh ift
Ġwith draw
ĠW ait
list s
is en
F oot
Ġman ual
v ature
ĠMo z
ĠRes ources
Ġmembers hip
ĠM C
d ensity
Ġalloc ated
Ġheav ily
big r
ur d
the less
Ġback end
Ġcr isis
Ġrequire ment
ar o
Ġs ink
Ġseem ed
A pr
ĠS port
r ans
TR ACE
Ġpresent ation
Ġac commod
st ers
ĠD aily
ĠF er
Ġinteg ers
G M
ĠVar iable
P an
] ];
est ing
Ġembed ding
Ġprecise ly
* >
sc ious
ĠQueens land
ĠMan chester
us cript
Ġd ump
Ġ$ ("#
Ġ} .
Ġent itled
ĠTok yo
Ġsign s
Ġm ental
Ġconcern ed
19 08
ĠX ml
Ġdire ctions
l arg
ĠId ent
navBar Cell
inn ed
ĠTra ck
ĠTem plate
C amp
leg ation
] $.
-> {
oc racy
12 4
ĠGener ic
ĠĠĠĠĠĠĠĠĠĠĠĠĠĠĠĠĠĠĠĠĠĠĠĠĠĠĠĠĠĠĠĠ ĠĠĠĠĠĠĠĠĠĠĠĠĠĠĠĠĠĠĠĠĠĠĠ
Ð¾Ð ´
Rev ision
ĠB ry
O ffic
Re cent
ĠL ore
field set
ri k
Ġimprov ement
S ender
ĠAnth ony
10 8
Ġt urb
Ġc raft
Ġfeel ing
Ġeducation al
is Array
'' '
ĠR ound
ĠCOL SPAN
Ġdec isions
ĠW H
Ġsu dden
su ite
1 32
Ġenh ance
Ġcapt ain
UN K
Ĥ ¬
ENT ER
form ing
Ġcomp ri
Ġa ux
Ġstar ring
g mail
ch arge
Ġ\ ]
N EL
T i
Ġm outh
ĠJ os
Ġtop ics
L ONG
ĠRo y
ĠE N
Cap acity
ĠT el
n ik
Ġpanel s
Ġ= ================================================================
Ġm irror
Ġregard ed
cast le
Ġs oci
Ġincre ment
Ġbro thers
v g
ĠFe ature
ĠD iag
V T
Process ing
æ ł
Part ial
Ġflo ating
ĠFre der
ĠG T
I MAGE
Ġ\ &
c ible
igen ous
ĠFI LE
18 90
ĠDocument ation
j sp
Ġf ixture
Ġ' {
er gy
form al
is lation
ĠHow ard
Ġp tr
AND LE
Ġsett led
ad apt
ynchron ous
ag u
Ġint ention
Cla use
ĠTh ursday
ĠB alt
comp act
3 20
i ac
Ġdr iven
Ġhypot hesis
\ .
W ar
19 11
fort unately
v y
Ġd f
ĠD ick
F ee
p ick
ĠTra ining
ĠM enu
Ġadv ice
getElement sBy
å Į
Ġstr ugg
ĠJ ay
Ġz oom
iv ot
out line
Ġp ray
Ġfall s
">< ![
NE W
ĠD IS
33 3
T IM
ĠD ol
ow ski
ĠB ody
se a
Im mutable
Ġcrit ics
Ġe poch
ce ived
ĠD I
Col lector
inc ial
Ġconnect ing
Ġneut ral
date picker
)) \
á º
Ġre ward
GEN ER
Ġpart ially
oth s
Ġwhen ever
ĠLe ft
on i
r ating
atur ally
Ġwor st
bo y
List s
Ø ¨
it ics
ĠT i
ĠIsrael i
Ġlog ical
Ġs ail
li est
Ġedu cated
sche me
in cess
Ġrad ial
et ition
Ġbound aries
Ġres cue
Ġprot otype
the mes
Ġdis p
99 9
ĠS Y
Rec ogn
ĠHol lywood
ĠD om
E lem
Ġperiod s
ĠPat rick
Ġw heel
Ġbo at
Ġb ronze
Ù Ĭ
// !
ĠS ide
, ...
M AC
g iven
oc a
ens ities
ĠAl abama
Suppress Warnings
Ġf aced
ab ul
ĠReg ional
M anaged
en ario
B IND
ĠR ey
T ARGET
button s
Ġcon sequ
Ġvol umes
Ġresearch ers
Ġimp ossible
Ġsubject s
Ġ/* !<
[] )
Ġinitial ization
Ġab use
Not ify
Ġstrateg ies
Ġre serve
Ġop am
as ide
E ast
ĠS N
olog ists
Ġt om
Ġfound ation
o es
C riteria
o or
Block Index
ĠĠĠĠĠĠĠĠĠĠĠĠĠĠĠĠĠĠĠĠĠĠĠĠĠĠĠĠĠĠĠĠ ĠĠĠĠĠĠĠĠĠĠĠĠ
the w
er on
string ify
ĠMc C
Austral ian
Event Handler
C odes
class v
ab solute
Ġid s
fl ux
it ches
Ġsu it
Ġcr ick
in th
ache lor
ĠAm ong
Ġreason able
ĠMe an
ĠA zure
> ("
B ibliography
Ġrestaur ant
cal c
Ġscript s
Ġpoint ed
ĠC omb
Ġmag ic
Ġdis s
Ġdr um
V IS
Ġinvol ves
g ather
ĠSw itzerland
Ġl it
Ġf aces
ĠLab our
vart heta
f un
XML Schema
ĠY outh
---- --
ĠIslam ic
Ġcomp lement
ä» ¶
\ }$.
vers al
L i
q view
em ploy
O RE
f ee
neut ral
St e
ĠF low
ĠB os
Ġat oms
ocomp lete
ĠF actory
Ġw ww
Pred icate
Loc ator
Ġweek end
ĠH ans
12 1
Ġclin ical
em ony
rain ian
ĠN ev
ĠGL uint
Ġte en
O s
Con sider
v r
æ İ
Ġs ought
Ġdemonstr ate
script style
res olved
ĠTra de
Ġdemonstr ated
-- ;
Ġconcent ration
Component Model
ĠAl bum
Ġsub group
Ġshoot ing
Is Null
Ġ" --
ĠB reak
C LIENT
print StackTrace
Ġgu y
ĠCollection s
}} _{\
Ġsch ol
ĠTest s
ma int
Ġto g
s aved
s ong
ĠE ag
Ġvari ations
Ġf olk
ĠG C
Ġinter rupt
ĠMem bers
Cre ation
COMM AND
F D
oper ating
Ġa cknowled
Image View
ĠDis ney
Ġpro g
Ġdef ining
Ġag ed
ĠE uro
Ġcoll ision
ĠNO TE
R ank
t b
Ġ" (
lock ed
inter faces
y ers
Ġsw iper
list en
Ġgood s
Ġfac ilit
fail ure
p ersistence
h ist
get Data
sw ap
Ġarch ive
Cl one
v oc
MA G
Ġpain ter
Ġdeploy ment
ect ure
âĶĢ âĶĢ
ÑĢ Ð°Ð
Ġparticip ate
sl ug
g ate
ke leton
cer ning
ING S
Ġmolec ular
Y P
Ġd y
CC CC
ang les
CO PY
inner HTML
Ġl ake
Ã§ Ã£o
Ġsh ares
r ig
Âł Âł
,\ \
d atab
Ġin fe
Ġcl im
pt o
Ġ( {
um bs
Ġdep ict
ym n
const ants
a con
Ġc line
å °
c z
å į
get Current
Ġpresident ial
at ivity
I tal
Ġautom atic
ĠWh it
TR A
Ġbring ing
By Name
ĠC hem
Ġextract ed
Ġt rib
O h
Ġf at
Ġconserv ation
C op
m anaged
Ġal location
sp aces
Ġdesc end
Ġp arsing
he alth
q q
ĠT uesday
Ġmax imal
Ġfl ush
Ġspe aking
ĠĠĠĠ ĉ
Sub mit
ĠMo ore
in ces
Ġvary ing
mach ine
F IN
S printf
ĠR T
Ġserial ized
OP EN
ĠFor ces
20 23
add on
Ġp a
el n
ad ers
c ov
list ing
Ġunderst ood
Ġformer ly
ĠAg ency
Ġexp los
Ġput s
Ġvari ance
en ix
Ġn ick
Ġover lap
Ġsu ite
Ġassoci ate
ver bose
ĠT itle
LE N
rest ore
Ä «
et al
F ast
get Default
io ce
inter action
an imate
Ġste el
Ġly rics
Ġinv ited
Reg ex
Ġdr ums
Ġar row
ĠD VD
leg es
access or
Ġp s
C ert
ownt own
Ġh un
copy right
Ġdeb ate
ĠCon sider
analy tics
d h
Instance Of
at iv
Ġf ib
opt im
el son
log ic
ambig uation
ymmet ry
iam ond
ifi able
Ġrender ing
ic ide
an ia
}} .
Sports people
Ġsess ions
Ġtog gle
R ober
ĠM achine
valid ator
keyword s
PO INT
Ġneigh bour
ĠKent ucky
re ject
Ġro oms
Ġg ro
e ed
Ġmark ets
ĠK evin
R ail
b ank
le arning
ĠC WE
Ġamount s
Ġ< ![
Ġrev olution
rehens ive
[ ],
' "
Ġe at
Ġeng ines
ĠMark et
Ġfle et
Ġtr uck
ĠC PU
Ġoff ices
ĠValid ate
Ġne arest
df s
Ġbran ches
set Value
UT C
inst ein
Ġse q
Implement ation
ĠDe ep
Dat aset
ĠYou Tube
="../ ..
Linear Layout
Ġe g
S chool
class path
Com bo
ĠP O
Sign al
Ġsp arse
Ġpop ulations
ĠG ard
C V
Ġbo ys
ĠPh illi
ynam ics
Ġs ons
ĠM A
> $
Ġf ault
Ġb irds
Man ifest
Ġwould n
och astic
A ff
P references
Ġremov ing
User Agent
ĠAs ync
æ į
Ġshort ly
(" ")]
DE VICE
ĠNor wegian
Ġover view
> ";
( <
Ġf ought
Ġhand les
L im
Emit ter
External Project
R G
Read Only
: @
Ġ( ),
Ġpart ners
Lem ma
char set
Ñ İ
pis ode
ĠN ik
de z
res olution
Ġapp reci
NAME SPACE
Ge ography
Ġin coming
Ġdou bt
E urope
ĠR ab
Ġhand lers
. ;
int ro
Ġpriv acy
u ate
Ġm art
/ $
br as
on der
ens ors
Ġbutton s
in ian
ĠS n
Byte Array
Ġman ifold
Ġpl ugins
R oman
umin ate
ĠV ice
ĠSquad ron
ĠD ra
ĠDe cl
Key board
ĠSt udio
ĠWal ter
ĠHar ris
ĠT reat
Ġpr ices
N U
Ġlos ses
Ġ[ ])
c ref
fl ash
Ġexp ensive
ĠL P
ĠO ak
Ġquant ities
Sm art
F B
Ġgun s
J o
ĠP ed
ĠV in
OD Y
C AP
el and
Ġdomin ant
Ġhead quarters
Ġ" :
Ġrelease s
ct ic
Ġm apped
ari ance
Ġcorre ction
B tn
b en
Ġarg ued
13 6
uer to
get Time
ĠR ule
] $,
ĠWed nesday
Ġre tain
Ġener gies
V A
Vert ical
ĠAppend ix
div ider
out ube
long rightarrow
ĠM D
sp ot
Ġattack ed
ĠG ab
H istor
Ġcross ing
Ġconstit ution
CON ST
ĠIN T
Ġdomin ated
V I
co ins
V oid
Ġs ight
Ġex ercise
Ġf erm
Ġp up
Ġorder ing
ä ¿
ĠLink ed
Ġv eter
Ġpseud o
ĠMon te
Ġre in
R oom
ĠS eg
Ġes c
ific ial
d v
t ot
S al
ĠL ank
Th ree
ĠU r
ur ric
Ġen vironments
sche dule
e or
ene z
ĠM ir
Ġsepar ation
Default s
Ġback ing
des cr
Ġlaw yer
ĠResult s
act ivate
dash board
AS K
Ġ( ,
Alloc ator
Ġh am
ast s
Ġ um
Ġregard less
Ġil legal
At tachment
Ġpres ents
Ġhe aring
Initial ize
Ġli quid
Ġst ead
Ġl aid
sub title
un its
ma king
Ġpres erve
oid s
roll ing
ĠA pi
ID ENT
Post ed
CK ET
Ġcommand er
c odes
Ġview ed
W ell
** :
Ġpro pose
Ġb rows
"> ,</
il st
get Logger
assert False
ĠDet erm
id al
ĠLin coln
pro blem
oc used
W alk
[ _
U i
ash board
ĠPl atform
Rec ip
ent ities
ug u
Ġphot on
Î ¯
jav ase
ĠEm peror
Ġl in
list ed
ĠD ur
g un
Ġg ate
Ġlands cape
ĠD al
Ġscient ists
xy gen
ĠZ end
r ison
Ġcharacter ized
------------ --
NO WN
ĠP as
s an
ĠD og
ocr atic
std out
d al
ed ing
ĠF ame
n ol
ĠL IC
ORM AL
Ġun us
ĠM iami
Ġed ited
sup ports
< >(
(( (
bm atrix
d w
Ġcomp ens
p es
ir ms
Ġprocess or
Ġsitu ated
table block
f our
J ames
Ġc ubic
ra c
in ator
Ġdet ector
conf irmed
Ġpoet ry
ĠN ag
IF T
F X
std lib
Ġtop ology
Ġemph as
Ġread ers
Ġdesign s
Ġsever e
Ġh olid
ĠF arm
ĠMot or
Ġsub mitted
dist ribution
ph oto
ort ed
D i
ĠAdd itionally
/ %
C li
(' ../
Ġspec ification
Ġv ast
b etween
ĠInt eg
ä¸ ª
ch oice
eg as
ĠCon tact
Ġm igration
"> @
Error Code
lov ak
Ġdesign er
ĠF ont
Comp ute
Render ing
ĠAn ne
ĠTem ple
P ad
Ġch air
Ġpe ers
F ollow
ĠB ound
ĠLoc ation
ĠO klahoma
Ġclass ified
11 11
m al
ram a
Ġv oted
Ġacc used
issip pi
ion ic
ĠGir l
ĠPro gress
g allery
ç ±
I ssue
Ġgeneral ized
do es
r atio
lay ers
igr ations
S uch
UM ENT
ov es
Ġto ler
Ġeng aged
document ation
aud i
\ ;
h int
Ġt on
Ġ! (
ĠTur kish
ĠB eng
ĠI C
Ġmusic ian
Ġdomain s
ens ing
b id
ĠWalk er
and box
ĠK er
Ġmod ification
ĠWork s
Ġrece ives
el lect
Ġturn ing
Ġtr uly
Ġin clusion
Ġstrict ly
Ġj azz
ĠVal ues
Ġfamil iar
Ġset Up
ev t
Cover age
Ġad res
Ġexpos ure
ĠT yp
Ġout come
ĠN ob
Î º
ĠPr iv
Mat ches
ĠI MP
ĠK o
or ig
ograph ical
Reg ular
ranch ise
ï ¿
ass oci
put ation
Ind ices
Ġmin ing
uk i
Ġ" {
Ġlumin osity
h us
an ion
M a
Ġcomp os
ul ative
m outh
re ement
Ġvict ims
Ġcon cluded
ri ers
is ons
> #
pe ction
M LE
ĠS ql
ĠT ar
PRO TO
rec v
D AT
L if
AS A
ĠNew ton
s amp
cur r
Ġwatch ing
ra ce
Ġp t
Ġh aven
ĠN ation
Ġre nt
Ġnot ion
sect s
od ge
âĢ ĭ
E mp
ĠN ap
Ġc ash
t an
app oint
c xx
13 5
ĠF ast
Ġbase line
L F
sw ers
ĠTe levision
ĠMar shall
Ġrapid ly
Ġcom ic
ĠEvent s
R I
n ia
N il
Ġapprox imate
contrib s
Ġf ol
Ġf lying
ce il
Ġident ification
ĠO tt
Ġisol ated
evel oper
or al
Ġenter ing
ic he
Ġan cest
Ġent rance
ather ine
NUM BER
< '
Ġd ashed
Ġst y
ĠG ordon
ĠN atural
um per
ĠS elf
ĠIn fan
Ġcook ies
k u
P aired
back s
Orient ation
Ġb lob
efef e
Ġserv ers
s il
d ummy
ĠF IX
Ġg iant
fil led
Ġst ood
erv es
it i
Ã¶ r
NO TE
f efefe
Http Request
16 9
Ġp c
ĠS tack
ĠSm art
å ĩ
Ġal cohol
qu er
Ġpr imitive
ch rom
19 05
pan ic
ĠQ t
ID s
Ġen ables
Ġ$ ,
ob s
Ġun expected
Ġhundred s
() "
IN PUT
ĠM ove
En code
bar a
Ġstart up
G re
Ġcour ses
Ġdirect ors
u is
Im g
x ff
Ġsup pose
h ibernate
Ī Ĵ
in formation
d ag
ĠRo ber
Get String
Tok ens
Ù ģ
net t
Get ter
Ġsche mes
ĠN an
is ations
il ine
ĠD ie
Red uce
Ġsimult aneously
Ġar ithmetic
P aul
ĠA le
ĠEar l
ir ical
Ġrender er
ĠRe set
Ġtem ple
ĠHel p
ĠV M
ha us
Ġassist ance
gra vity
Ġcent uries
ĠVill age
loy d
H ard
hold ers
em ale
) ";
ĠM aterial
Ġdut y
ĠB ush
Ġ) {
-------- ---
M us
Ġ" </
Ġ" ");
ok ia
Ġliter ary
F W
Ġre act
View ById
Ġinj ured
Ġsell ing
al tern
}[ \
ĠW y
Ġbreak s
Ġocc as
L T
ĠE ffect
N ay
Ġinflu enced
P ref
ĠL E
ON LY
, {\
o les
c out
section s
ment ion
os is
ams ung
ĠV ert
Ġstre ets
View s
Ġhead s
St ation
ĠD ave
Ġretire ment
et he
Ġnull able
ĠBow l
url s
M ass
c g
Ex change
ub er
lo ating
Ġkn ock
Ġn an
P reference
j boss
å® ļ
I ll
11 7
ik h
ç Ľ
ĠE nt
Ġgener ates
te ch
12 2
ĠB ureau
Ġeth nic
Link s
19 07
ĠW allet
Ġon going
ï¿ ½
$ {\
ig gers
Ġredu ces
C lock
Ġteach ers
Ñ Ħ
t odo
ĠWeb site
ĠLay out
ter ms
19 06
GL uint
ĠCal led
ç± »
lo ose
Ġbr ings
Ġst im
19 09
Ġre ception
Ġnon linear
g ulp
con duct
ĠLIC ENSE
re ach
ĠT ake
ĠN ichol
,\ ,\
Ġse es
ĠL an
Ġstudy ing
Throw able
Ġn ortheast
ĠSc ient
Ġc orn
Un lock
Ġf urn
request s
ĠLa ure
LE FT
ut t
Ġmis sed
ans wer
Ġin fer
Ġpublic ations
Ã ¦
ĠD M
ĠB egin
ag g
M arch
f m
get Context
16 8
Ġsat ellite
lan ta
Ġenc rypted
ĠHon or
) }.
ĠOper a
Ġdist ances
Ge o
Neg ative
Ġpass enger
ĠUS B
a is
Ġph ases
pub lished
Ġaccomp an
ĠExt ension
Ġappro val
Ġpro be
. (
uff le
"> '
Ġrecip ient
ĠE arly
ĠK it
Ġin vent
el lo
lector al
Ġfriend ly
cent ral
Op code
FA I
ĠSt yle
level and
ag netic
ĠRuntime Exception
ĠHer itage
i ota
ut ely
Ġm atters
Comp osite
Produ ction
Ġaband oned
Ġl ic
h yper
Operation Exception
Ġprint ed
ĠI ron
Art icle
Ġincreasing ly
-------- -
s izing
or ne
ig ious
USE D
Abs olute
linked ExternalProject
Ġcirc ular
Ġo x
Ġinit With
Opt s
lik ely
GB T
Ġs phere
ĠK az
Ġsc oped
De ep
Ġy es
Ġk it
min ute
Ġh al
ser if
et ary
Ä Ļ
lic ts
ĠAnton io
ĠE ver
Ġro ads
cover age
Ġsl ave
run t
u able
m icro
Ġex clusive
all as
Ð¾ ÑĤ
IT ER
ĠZ one
ĠDo es
f ar
ash i
Ġestablish ment
Ġleg islation
Ġoper a
Ġb on
Cl ub
Ġsurn ame
On Search
Ġdimension al
ĠN ames
R ay
l if
Ġex cit
cc c
Ġcoup led
B etween
ĠD NA
D X
x r
Ġitem Members
ĠL as
back up
Ġform ats
ĠConnect icut
ag an
Ġâ ĨĴ
linkedExternalProject Path
h ls
Ġ// !
Con s
ĠC orre
ĠB log
b ey
writ ing
ab ling
ĠSt ew
? )
ĠH u
d in
ĠC ow
Ġ ):
Ġsim ilarly
re tt
HP P
Ġemerg ency
m ill
Ġm i
G G
) }_
ph antom
dis ambiguation
Ġw ed
RET URN
Const ituency
ĠArgent ina
ĠS U
Ġregular ly
ĠDes cribe
re dis
ĠR ot
d frac
n r
H ence
omp son
pen se
Fin der
Add itional
S B
Ġperform s
ter ior
Int o
ĠRE AD
ĠP attern
Ġstream s
to k
Ġcallback s
Te levision
Ġpen alty
W rong
Ġb igger
ĠâĢ ł
A W
ĠSt age
Ġis omorphism
19 04
Ġcent ers
ĠHaw ai
at ers
ĠM ol
fin ish
TH E
Ġb ars
ĠCont roller
Ġlocal ized
ard ed
HEAD ER
ĠBu ck
ver sed
;& #
ĠProt ocol
ĠS TR
em p
ail and
V ill
Ġd type
ĠLem mon
ĠKe ep
Ġrest ored
he ap
ĠG arden
ĠBill board
oc he
empty set
b readcr
Ġmin i
Ġal ive
Dis able
Ġin habit
}} </
ĠL IMIT
CON F
z es
She ll
Ġtra il
Ġdanger ous
"> #
Ġtrans itions
S prite
pro fit
ĠH ockey
el o
Ġincorpor ated
o auth
Y ea
g han
ĠGL sizei
ul se
Ġvac uum
ĠN eg
ĠBul g
I llegal
Ġtop ological
over ty
Ġcap abilities
Ġa str
Ġdrug s
(' \
Ä ħ
r er
r ane
ĠP ra
TH READ
ĠDet roit
qu ality
ĠIn dependent
Ġr ival
ig rate
Ġadvert ising
phab et
Ġcarry ing
ĠAl an
Ġactiv ation
ĠH ug
ĠCh art
Ġinstr uments
ĠG O
Ġvisit ors
Ġsu ff
Ġacc ord
ĠC ell
je ctions
Ġll vm
Ġqu iet
30 4
g able
type param
Ġcer emony
Ġun iqu
Ġt icket
ĠS R
in burgh
Ġkey word
ĠCO M
}$ }
ĠOb serv
ĠInfan try
ĠP red
Ġput ting
Ġho les
"> "
Ã© n
ĠStud ios
Ph il
ac iÃ³n
Ġwe ar
Ġco in
it udes
Ġfilter ed
Ġjav adoc
pol l
S amples
F ace
ĠH D
P ersistent
oun ced
Ġbe ar
A lex
Ġass ault
Ġcru cial
C orre
Ġ\ !
Ġatmo sphere
as ma
Ġsitu ations
^{ (\
ST EM
)) {
ĠAt omic
Ġhistor ian
Ġimp ress
ĠDoug las
n est
es a
Ġequip ped
Ġaccess key
ĠW olf
Ġdebug ging
Aut om
Ġqu ote
Ġmark s
Ġmet res
Ġw orse
Ġse ar
ĠB arn
Ġpublish ing
) ',
Ġdiam eter
ch t
Tool bar
Clo sed
S ys
Ġsp ending
Ġo c
ĠF M
ud son
Ġis set
T LS
Ġshe et
sup p
C LO
i op
ac cord
f ather
pre dict
prevent Default
sh ader
Ġ{? }
re pre
ĠK itt
Ġag gregate
Ġwat ers
W W
D an
Ġfor get
Ġexc ited
Ġscen arios
\ -
Ind ian
="../../../../../../ ../../
ed ition
Ġfile d
Max imum
Ġas c
T ON
Ġdirect ive
st ock
æ ³
IT S
ĠV K
11 3
Ġmonitor ing
Ġillustr ated
Ġtechn ologies
Con version
og onal
Pl us
Ġa ired
Ġask ing
æľ ī
Non Null
Recorded Vote
Ġqu ot
Ġarr ival
Ġs occer
ĠDE BUG
im edia
Ġcommission ed
Ġa ug
Ġsum m
ke e
Ġfind ings
Ġcomp ression
Ex amples
et ype
}) =
Ġw avelength
ust ries
ĠSw iss
ĠM aur
ĠL ower
] ));
pro x
27 0
build ing
Ġcompet e
sk in
bel ow
Ġdev iation
ĠL INE
ĠT ak
Ġremain der
Q UE
Ġtem plates
ap k
P atch
> ',
"> {
ER Y
ĠN u
Dec or
orre nt
Res olve
\ }\
/ ******/
Ġsee king
ĠIter ator
Ġpick ed
Ġhor ror
Ġp ione
ĠR ap
Dem o
en kins
S at
ĠM ode
d ac
w ire
sw ift
Ġver ification
Ġh ol
W ire
widget s
ĠMET H
Ġrefer enced
ro zen
ĠCh ampions
AC CESS
Mult ip
Ġapparent ly
ĠC OP
Implement ed
Ġat tra
V R
ĠS IL
Ġcur vature
or ry
q a
For Key
mem item
e lection
Ġde pos
M X
ĠS ER
Ġp ictures
Ġmed icine
ĠNC AA
') ).
ĠBelg ium
Initial ized
Out come
Ġabsor ption
Sl ider
i ph
ĠEn try
iss ance
pp ers
Depend encies
ĠAn aly
Code Attribute
ĠAg ric
ug gle
ĠRes erve
ĠM ars
vir t
p romise
ĠCom ment
c amp
Ġperiod ic
B AD
n P
ĠSe attle
sec ure
Ġcrow d
SER VICE
ab i
TR ACT
ĠP ap
part icle
ĠLaw rence
! ");
S pring
ced ure
Ð¾Ð ±
Ġfluct uations
ii i
ÐµÐ½ Ð¸
se g
Ġ* **
ĠB es
ĠP FNGL
Supp lier
ĠM L
ts burgh
G l
CO RE
ore st
Con v
Ġpred icate
}) ^
Cre ator
Ġpro c
ref ox
Ġf d
S us
Ġcon versation
Ġru led
Aug ust
Ġfor g
Rot ation
Ġequival ence
R oy
ĠOrgan ization
Ġs alt
is Valid
ĠD ak
repre ne
ĠPortug uese
Ġasympt otic
Ġdec imal
im ore
ĠArm en
Ġconsist ed
end l
ili ary
am ents
f ollow
lim ited
ioce se
Ġsh a
ĠØ ¨
B orn
Ġ ÑĤ
Ġgu id
Ġins pect
Ġlif etime
Å Ļ
Ġsing ers
Ġch urches
Ġh ack
19 01
ĠAl ber
Ġgravit ational
F ootball
Ġg ang
Ġf itting
file Name
Ġmach ines
ou ches
Ġb are
Ġfrequ encies
F LOAT
Ġstrong er
ĠP ref
ĠF un
Click Listener
Ġman uscript
Doc s
IC K
ĠSu ccess
is i
. ]
"/ ></
V el
ĠM ission
th ick
im o
Ġ( @
aut hentication
V S
m usic
ĠC ole
PI O
ĠĠĠĠĠĠĠĠĠĠĠĠĠĠĠĠĠĠĠĠĠĠĠĠĠĠĠĠĠĠĠĠ ĠĠĠĠĠĠĠĠĠĠĠĠĠ
ĠR ace
A mazon
map per
Ġd iverse
ĠC emetery
L arge
Ġconsum ption
Ġcondition al
ah n
Ġcompet itions
Ġcorre ctions
Ġt ennis
ad os
ĠSD K
Ġt ar
Ġb anks
es lint
get User
ed e
ĠDe an
ĠTe le
iver pool
Ġlock ed
Ġmaint enance
Form er
ĠMay or
block quote
ĠI L
col s
ĠMalays ia
ĠR ect
ge bras
Ġsur faces
Ġconvention al
æ ŀ
end ers
' </
d type
Ġinter faces
ĠMay be
d ater
B ODY
ĠT ech
SE SSION
B ot
is ot
ĠH it
query Selector
] ",
ia h
O ps
Un ion
Ġcomp licated
Ġphilosoph y
Ġag encies
Ġdetermin es
ĠST AT
Ġme ets
cat Desc
Ġst ating
bar s
Ġg rown
Ġcancel led
PROPERT Y
oc al
Ġvol atile
ĠJ uan
ĠMov ie
ou stic
L ear
g uid
om ething
Not able
× ¨
Res ize
Ġw er
Ġfound ing
DE V
Ġvul ner
Ġappe al
ĠAf ghan
Ġguarant ee
Ġreal ized
Ð°Ð »
Ġlo go
Ñģ Ðº
x t
ers ions
S lide
read only
ĠEV ENT
Ġman ually
At tach
Ġc up
Dec ode
æ Ŀ
spec ies
ĠBO OL
ĠC L
ĠArt icle
ĠAb d
M igration
Ġm il
Ġd edu
ĠEns ure
S to
fre quency
ĠS creen
ber ry
Ġlo com
? .
text normal
Ġsp oke
Ar n
UM N
U TE
host s
Ġf acing
Inv ocation
} ")
ol ished
pret ty
Ġtransform ed
Ġb aby
Ġso il
Ġcomb ine
} ~
load s
ĠAuthor ity
sc opic
ou sed
utor ial
on line
or us
Ġclose st
enc er
' ><
A cade
Ġtrigger ed
ur u
Ġcorpor ate
:// $
nes ses
Ġparse Int
he at
Ġ$ ('.
column width
border ed
hl js
FAI LED
Ġdefault Value
Ġp ad
ard ing
V ars
un ix
Cache d
inherit Doc
ĠPe ace
enc oded
Ġi i
][ <
lad esh
Ġb attery
å ½
19 02
ĠM i
ĠB ou
\ |\
U INT
ENABLE D
exp ress
Ġs outheast
Ġt ied
4 50
Ġpro sec
Ġins urance
Ġmechan isms
Ð¾Ð ¼
Ġf iber
ĠY an
ĠS lo
M ilitary
Mar shal
R pc
Ġn ut
Call able
Re po
oper ations
Ġn aturally
inet ic
Ġsub str
v est
Ġdisplay s
Ent ities
ĠDef ense
Ġb at
alax y
J une
Ġwalk ing
b rew
Ġt ank
hib ition
sess ment
it ely
ĠPol y
ĠOr th
Ġste am
ĠNav al
Ġcircum stances
prot oc
F at
ant on
Apr il
Ġc urrency
Ġ( {\
che ll
Ġter rit
Ġweek ly
Ġcomp aring
Ġfin ishing
s yntax
Comp arator
getElementsBy TagName
r ust
p iece
ĠF inn
19 03
g ro
ĠPer formance
Ġconven ient
Ġsup plement
Comp any
define Property
m ate
ĠKel ly
Text Field
ĠCap ital
C at
h ub
ra ble
i ang
Ġden ied
å Ĩ
iv ia
ĠSh im
Ġsens itivity
H ot
og g
ĠSar ah
Ġsing ing
Ġ* */
l m
Ġstruct ural
ob e
Ġmanufact uring
ĠCl uster
Fin ished
f ade
ĠPublish ing
Ob serv
ĠP ho
ĠG P
O IN
ĠDub lin
UL AR
Ġst retch
Ġan om
Ġprov iders
ad just
Re presentation
Ġredu cing
ĠYear s
N orm
Î ³
Ġd ip
=' #
min imum
Ġform ally
Ġp b
Ġsignific ance
Ġrout ine
ĠI r
J uly
ĠHe ader
Pol y
ĠQue bec
ĠF al
Ġgradu ate
Ġt ropical
ol t
ĠH AL
Ġ ride
19 0
Ġt unnel
product s
ĠIndones ia
Ġassess ment
C N
Rober t
ĠPo pe
Produ cer
H om
om eter
Ġu uid
Ġge ometric
cred entials
B ecause
Ġf its
Ġhigh way
ĠCro at
b ash
Ġinterpret ed
ur ers
INTER N
k ed
Ġt ur
ak ers
Dep loyment
"> .</
ĠBatt alion
b usiness
il lo
Pos itive
P icture
Ġs ends
ug s
STAT IC
Ġremov al
Ġdynam ical
N ORMAL
Ġpres erved
ĠComp uter
ĠCommon wealth
Ġde ferred
Ġsm allest
Ġp ipe
Ġdef ect
um ed
Ġord inary
L ater
ĠMiss issippi
lic es
Ġpaint ings
null able
Com ments
ĠH amp
add itional
y ml
Prot os
Ġarg c
ĠLiber al
loc ations
Ġw ine
Ġpro x
Qu ick
j dbc
Ġanaly ze
ĠSy ria
Ġo vers
Ġreve als
j k
Ġt ill
Ġoper ates
Ġpri ze
Ġhy brid
Ġa mazing
Ġe val
Ġinsert ed
a us
k le
Ġtouch down
Ġad mitted
omin ator
Me an
Ġrep orter
Ġobtain ing
Fl ush
ĠJ ason
ĠY es
igh bor
Ġslow ly
ab ad
ĠM B
Ġadapt ation
000 1
Ġperm itted
Cred ential
Ġcon cat
\ )
Mich ael
Ġrecon struction
ĠS oc
18 80
" +
ers core
Ġwill ing
Ġconserv ative
> ",
Sup pose
17 0
ĠAdd s
ĠT otal
Ġan th
Ġcomp atibility
Ġre aches
el le
ĠOr chestra
Ġnumer us
A dapt
Pre view
J ack
ĠPr imary
ãĤ Ĵ
ĠBrazil ian
H ANDLE
se en
car bon
Ã© t
Ġfall ing
B log
{ })
ĠMin or
Ke ep
ĠLim ited
Ġh ired
Sin ergi
m r
d yn
6666 66
Ġqu asi
Ġve get
Ġg ift
un used
Arch ive
Ġsy nd
IL L
Ġ[ -
equ ations
ĠSam uel
Ġb ott
Ġadult s
S il
lo be
}} ^{\
Ġreg ex
ĠSing h
ĠCo oper
Ġv it
ant i
ĠW ARNING
ATTR IBU
ne e
ĠAl b
Ġt um
Ġinterval s
P FNGL
Ġreg ression
Ġpass engers
14 7
ĠPl ugin
Ġp id
H it
ĠDen mark
Ġf er
c id
ut o
ĠÃ ī
le ave
M ULT
Ð Ł
ĠERR OR
ĠN ash
ĠC E
ĠI M
feed back
Ġdise stab
f v
Ġprodu cers
Ġprincip les
ĠR aw
ide l
Ġed uc
ĠR O
lin der
ĠP ad
ĠM icro
RO P
ĠA BC
Ġg ray
2 30
oul der
ĠAl tern
un def
Ġt ang
Ġf itted
Ġdevelop er
get C
ĠIN TEGER
CP U
Up dates
}} }\
ĠMc G
Ġform ing
Ġthem es
Work s
ĠH ills
... "
Ġin vert
end ment
STRE AM
r gb
ĠTh ough
Ġt ub
Ġpass ion
bor ough
Ġpublish er
Ġl aser
ĠP eters
SE CON
| }{
Ġexpl ains
Ġenter tainment
Don ald
ĠU tah
ĠLouis iana
List View
Ġorgan isation
Ġst ochastic
pro port
Ġcheck sum
> =
Aut hent
Ġar med
"> :
ĠCh airman
Ġex clude
Ġlog s
Ġdef ensive
ĠH erm
current Time
ĠPh one
ival ent
Ġsurg ery
ĠCle an
ĠP ear
Ġconcept s
Ġlo ved
med skip
ge on
rot ate
. [
Ġh ierarchy
ĠH um
LOC AL
co ck
EQ UAL
D ER
Ġun lock
ĠCl inton
ĠL ane
ĠPortug al
G ed
ä¸ į
ter y
ĠK am
Ġmodel ing
or b
ĠT ig
th reshold
v ens
ched uling
ĠL ess
in ate
Ġis lands
Ġfor th
j q
Ġfru it
Jan uary
ĠC ONT
Start ed
ro ck
ĠHistor ical
en z
On line
Ġ] );
Ġcast le
Work flow
ĠS DL
Ġground s
l ings
it el
mid i
CUR RENT
}_{ -
Ġc um
og a
> @
pl aced
ĠDr ive
X i
Ġst adium
ĠP L
ĠH H
Ġres id
ĠNot es
F ar
c rypto
Ġmax im
ag ement
ourn als
ĠSchool s
ĠPh oto
ĠSaf ari
{ |
Ġfact s
ass ador
Ġoff ensive
c our
ex act
Ġindependent ly
ĠRus sell
vel ocity
Ġsp ac
ĠA ST
ĠEd inburgh
ĠF ive
rid ges
ĠCol omb
Content Type
More over
u art
Ar row
math comp
last ic
ĠB ranch
Ġclean up
Git Hub
re try
ĠJ osh
An swer
y ellow
n ested
ĠA B
Ġann iversary
Ġexhib it
Ġcop ied
perm alink
ver ts
Con nected
Ġin aug
ĠC lo
ĠBe h
ok u
Ġc d
host name
M art
ĠM ix
ĠVis ual
Ġrestrict ions
ol ving
ĠM eta
scal atest
ĠM organ
Ġl azy
Ġfoot er
Ġpr on
A ws
Ġf ranchise
work space
IN LINE
d ale
qu et
Ġiter ations
Ġmet ers
Ġ ÏĦ
in dependent
Hand lers
ĠSet ting
=" '
Ġcontinu ing
Ġcon cerning
ot ive
ĠMc K
m illion
od ox
j as
Ġoper and
ç½ ®
ism atch
Ġear liest
writ eln
P DF
i at
Ġw arnings
LA PI
ecess ary
ĠEn um
ar ound
eg e
Ġtri angle
Ġcommun ications
ĠSim ilarly
Ġexec utor
ĠE mer
Ġle x
}} =
åľ ¨
tw ig
ĠH ell
Ġre ign
Ġp ushed
ĠSe veral
q s
ĠG un
log ue
vet ica
j p
P D
ĠE p
s ites
"> )</
IF Y
ul ates
Ġvis itor
" <
Get Type
ĠK ir
my Item
) ];
Ġg allery
ĠHar vard
al ter
is p
DIS ABLE
Ġch ampions
ĠAct ivity
mk dir
Ġtal ent
ter ritory
Ġf est
m ne
ĠChrist opher
Ġ è
Ġfew er
Ġexponent ial
LE AN
EX P
Ġelect ro
ir ates
Ġw el
Ġaccompan ied
m atic
ĠĠĠĠĠĠĠĠĠĠĠĠĠĠĠĠĠĠĠĠĠĠĠĠĠĠĠĠĠĠĠĠ ĠĠĠĠĠĠĠĠĠĠĠĠĠĠ
Z ip
BE GIN
\% $
exp anded
I o
irm ingham
ĠJud ge
ustr y
B in
ĠU lt
FIL TER
Ġab sol
Serial ize
ob i
ch arg
source forge
H A
+ -
d id
Ġg fx
ĠBe at
Ġsepar ately
i pt
he art
Ġagric ultural
Ġenjoy ed
rol led
Ã³ w
itor ies
Oct ober
Ġgraph ics
P LAY
Ġcompet itive
TIME OUT
ot or
ĠPri x
NE SS
Ġdefinit ely
ĠH ub
Ġcur r
\ }$,
ĠB ab
ĠComp ute
em a
ĠG ray
ĠF ern
ĠP uerto
Ġdiscuss ions
Ġmet all
grad ed
ig ible
ĠD NS
Ġrecord ings
API ENTRY
Ġperm it
Ġdeal ing
ĠD irectory
Ġslo pe
Ġb ath
Ġset Timeout
Pub Key
Se ptember
12 9
amil ies
ĠN ormal
Ġdoc s
Res olution
ĠMor ris
% );
Ġh at
ur se
ĠS K
ĠAl liance
ĠKn ight
Ġcitiz en
Ġany where
F un
EE E
Ġre lay
ech an
B ur
Ġu id
Ġthous and
Ġpublic ly
Bu ilt
Ġexpect ation
Ġ ));
St amp
() }
An n
Ġinvestig ated
× ľ
ĠSpace watch
ĠAn na
c url
g res
in os
in variant
ig s
ĠP arent
sub menu
Ġtempor al
AT T
Direct ive
% ">
Ġ\ ,\
ĠStud y
= }
ĠU ri
OFF SET
Ġr is
Ġecon om
N d
ĠE ss
ay an
Ġg arden
ĠA I
p ine
Ġround s
Callback s
ĠBit coin
Ġmy th
. \\
Un expected
Ġreli ef
Ġsh arp
Rect angle
Ġcr icket
2 64
C AL
Ġre tained
Tra its
S ym
ĠTH IS
Ġr pc
Ġre venue
auth ors
é ¡
ĠF el
l c
Ġproced ures
open api
pro j
oc o
Ġj unior
ear ing
read able
Ġre ly
az ines
Se ason
! âĢĿ
ĠTh ailand
Ġtalk s
Comp atible
ĠBro adcast
Ġeigen values
ĠBrig ade
ĠF ried
user Id
call s
Ġtw elve
Ġgr pc
ĠT ax
l ucene
tra ining
' ></
ĠRes erved
Ġproport ional
ĠY ES
ĠRo om
Ġderiv atives
PHP Excel
bal ance
ĠD ance
Ġtot ally
or o
ou ver
Ġr ub
Ġsports people
ĠAust in
ol s
CL UD
for um
Ch rome
Ġdes ire
claim ed
Ġkind s
organ ization
ĠL am
ĠI l
Ġev il
Ġretr ieved
up edia
Ġver bose
View Model
ĠDe puty
CLUD ING
Ġin duct
ĠK r
ĠM ut
Ġq view
ow s
Ġpre gn
Ġweight ed
Ġin fl
m esh
log ical
æ Ķ
Ġch rom
Ġ<!-- [
con tainers
Ġv ic
ĠA lice
R ew
l v
ĠAt lanta
Pr incipal
ĠIm perial
ĠPal ace
ob server
ĠG all
Ġpro spect
CONT ENT
Pro pag
ance led
ĠS ud
ĠKenn edy
m issions
Null Exception
H AL
Ġsol ving
Id le
RE C
Ġaltern ate
Ġfile Name
D to
h um
re strict
Ġtro uble
~ (\
bl ing
ST D
ĠB ased
14 5
c riteria
Al tern
Sc ott
Ġinv asion
unt u
ĠEcon omic
Dis c
h ole
h dr
Ġ{ !
Offic ial
Ġreve al
normal ize
Ġcut s
ĠMet ro
ĠN am
Ġtell ing
per form
et ry
Ġsw ap
S ocial
Su ffix
F ran
ick en
ĠObject s
Ġgen re
( %
! ]
Table Name
Ġ _{\
ĠEx amples
re ll
b ia
cre ation
Ġm p
iv an
ik es
ellect ual
ertific ates
Ġs ympt
Ġmon ot
ĠSet up
ex c
Ġbeh alf
Ġhealth y
Button s
ĠCon vention
ĠBru ce
de leted
ĠÐ ·
Ġm ilit
De cember
Ġrect angle
rb an
in ated
Ø ´
br ane
$ };
F s
pr ings
Ġv oting
enc oder
æĹ ¶
ĠB inary
Ġexper ts
os lav
B N
as List
ĠF red
Ġimprov ements
s nap
Icon Success
SH OT
Ġd ating
cover ed
So ftware
ï¼ ļ
ĠP ART
ĠB art
Ġsystem atic
record s
ãģ Ļ
Help ers
ĠNiger ia
Ġs av
Ġv anish
ĠW right
azel cast
Ġqu ark
ĠBern ard
Bal ance
Å Ħ
root Scope
rece ive
go als
Ġrecover ed
al bum
an ne
E ven
ĠR y
ĠEx change
ADD RESS
um ption
det ect
ĠTh ose
ov y
ed a
Y S
ĠG on
ĠÐ ±
orient ed
Ġb eta
ĠD anish
"> =</
Ġi OS
Vis it
ÃŃ n
Trans actions
Ġh ip
Ġcomp la
'] [
ine a
G allery
ĠW E
ĠK ings
ĠCh o
Ġdisc ipl
E mbed
- %
j amin
Ġde bt
ov o
CONT RO
) (\
Ġ ib
. ')
ĠRog er
fold ing
ĠS S
ss h
let ing
ĠT ypes
tr on
ĠU INT
w ant
ess ions
ĠGir ls
us b
then Return
åı ĸ
Ġgreat ly
H H
Ġspec ifying
child node
ĠJon athan
ann on
Ġ ))
Ġas semb
tt ify
h fill
port let
Ġmanag ing
ĠLie utenant
depend s
} |\
A ge
Ġcol le
ĠCent ury
Ġdou b
Ged mo
Ġt ort
ĠD ialog
ĠW ard
Ġarr anged
ĠSub s
ro oms
Des erial
ĠC leveland
St udio
w so
Ġres idual
A RE
Ġra c
Ġin vari
PO SE
Ġun set
Ġpolar ization
18 98
Ġp ump
Ġch at
Ġport s
T ele
ĉ ĠĠĠĠĠĠĠĠĠĠĠĠĠĠĠ
sl ant
Ġgu ys
for ced
or ous
Ġmar ine
ar ations
Ġt all
ver ity
Ġ@ @
ĠE D
Ġnormal ize
Ġaff ord
Char Field
Ġen semble
ĠK on
is y
de cess
Numer ic
ĠY e
min or
Ġdistingu ish
ĠDemocr ats
Le ave
ĠC NN
ses sed
Ġro se
redu cible
) ");
L ess
2 60
Ġfe els
Ġhead ing
US B
Ġ ,\
x c
Ġke eps
ãĥ ³
Attr s
Ġa pt
con c
OP ER
] {\
Ġdifficult y
Transform er
Ġb om
Ġ( ((
avi ors
Ġm ess
ĠSup pose
Ġw ra
Ġb ird
Ġshould n
ADD R
ĠCO MM
ĠEd ge
ĠP od
). </
ught ers
Â ©
ĠC os
ĠN elson
ĠArk ansas
ke eper
ĠR ic
Ġs oul
comp ress
Ġchild hood
H I
in crement
a ho
Ġun iversities
ĠH ero
Ġquadr atic
ort ex
Ġdo cker
Ġelect rons
3333 3333
tikz picture
. :
F ACE
ĉĉĉ ĠĠĠ
ĠP un
$ ^
Ġpriv ile
Ġf o
bl ast
ĠUp per
Ġvis iting
3 75
de ps
script size
e se
Ġbe ach
20 4
Ġhead ed
publish er
Ġreli able
Ġcomp osite
Ġbox es
um ing
ĠCOP Y
F atal
ĠS A
IC ATION
18 99
Ġchalleng ing
IconSuccess Encoded
Ġo cean
Ġrank ing
transp arent
d ied
ith uan
Ġfair ly
k ar
Ġsynt hetic
Ġtri als
ĠLear ning
TH ON
Na N
ĠBo ys
Ġne uro
Number Of
ĠB etween
f ixture
Jap anese
Col ors
IC AL
Ġpat ent
le ading
ex e
Ġne ur
n able
Ġp our
Ġw elcome
Ġpay ments
Ġg ran
Ġorb ital
ĠS eq
AT IVE
tern oon
Ġstraight forward
ĠMur ray
ĠTh ompson
Or g
MPL ATE
Ġh orizon
mo ke
Install ation
ot ions
S DL
Ġstr uck
ik o
enez uel
ĠA qu
aut hent
ĠHel per
Ġmechan ical
ap olis
Ġsh utdown
g ow
aw ait
il ty
SN AP
Ġsus pect
Ġw aste
fig ures
final s
ĠCO VID
Ġt iny
ra v
Ġgre y
get Parent
B oth
Ġmov ements
ĠCh allenge
ĠInt ent
Â ½
lim inary
u ity
ma kers
Ġhon est
Ġcy cles
LOC ATION
P OL
^ (
Ġscr atch
ĠThe me
Pre c
Comp ar
ĠCatalog ue
ĠE le
y c
| $
Ġpul led
ir s
Ġvict im
datab ind
pl orer
Ġoper ational
n ed
re comm
Ġsecret ary
D ays
ĠM eg
Ġ[ &
DI O
ĠCheck s
new line
ĠType Error
æį ®
Ġm u
up les
Ġindic ator
Ġt ie
v v
d ns
r ub
Ġbase s
W M
Ġbrows ers
Ġcompar able
Ġinhabit ants
Organ ization
DEF IN
p ane
R aises
Ġrandom ly
Key words
ĠE rr
Ġc ited
Ġrev ision
Ġ? ?
k an
ne ed
ĠUtil s
T OP
Song s
perm issions
ĠDep end
Ġfore cast
Ġas ks
multi row
or ce
Ġw id
ĠR ain
Af ric
è ¦
Ã¨ re
INTERN AL
att an
ct ype
Ġd iversity
Ġ' [
à¤ ¾
Ġgr ass
Ġconj ug
Ġ' )
P AGE
m os
Ġs nap
b idden
r te
20 2
: =\
We ak
om i
hand lers
ĠP il
Ġcomp rehensive
success ful
ĠN ature
G esture
ĠF ourier
Ġc rypt
à ¦
Z end
p ym
Ġde struction
ĠC over
Spec ification
Ġconsider able
or ro
Ġop ens
Ġa ims
ĠAd ams
> *
su fficient
w l
Ġconsider ation
Ġincre d
Ġf inger
Ġs cre
Ġther apy
ath on
ide a
ĠS ac
Ġath let
ul u
ĠSt atic
Ġelse where
Ġacc essed
at tachment
g ol
ok a
ĠFin land
Ġbelong ing
Ġarch ae
Symbol s
ĠHig gs
ĠT IM
Ġlocal ity
ĠL iverpool
FAIL URE
ĠR ole
T M
Re ception
ĠIn fo
Ġimport ed
ĠP i
Ã§ o
ĠPr ice
Ġexpl oration
Ġalgebra ic
ĠU l
v ement
la de
Mod ify
ield s
ĠB UT
ĠJ u
ĠT rad
Ġtra ding
ĠStew art
Util ity
Mut ex
Ġd ress
inn ers
inherit doc
cc a
direct ive
Ġacc ret
ĠÐ ¼
Ä Ł
t ls
al ways
ĠN ic
Ġencounter ed
ĠBu ff
ĠP OST
iv ities
su ffix
Ġmarg inal
12 6
rang ian
B er
Ġs itting
ograph ics
") ).
({ },
Ġsk ill
c nt
FO UND
p ure
Ġdecl ine
m ong
scal ar
ĠMag ic
Ġserial izer
N EXT
Ġarr ive
i q
^{ *
Ġher itage
ĠR ub
ĠM ort
ĠP ush
Ġfem in
nos is
start ed
>{ @
Ġtr unc
sh ake
F ixtures
Ġun like
= _
ĠSh ah
Ġcour ts
ma de
Pl ugins
Ġpar agraph
h h
ĠE mail
Ġoccup ation
Ġb ag
type Name
Ġf asc
ĠMat thew
ost ream
ĠComm ander
ĠMar ie
wik ipedia
Config ure
}) (
OUT PUT
Ġev t
ID S
W ITH
P LA
ious ly
^* \
Dis covery
C Y
Ġst ops
Ġst abil
Ġact resses
man ual
d og
spec ified
S yn
Ġh older
F all
or por
re load
P en
rupted Exception
ĠR io
ĠC M
ĠVi enna
ĠMETH OD
vis ual
213 07
ĠB ed
ĠW i
EX CEPT
ĠC ensus
Ġc f
T oday
TO KEN
Do es
sql ite
ĠS ample
Util ities
WIN DO
Ġp sy
ĠD rop
Ġhe ap
ĠGu id
y our
d ue
urric ane
ĠR ugby
ĠW ind
Work space
Ġres idence
Ġiter ate
Ġis ot
+ '
Ġsil ent
Ġad vers
it is
unit Pattern
d g
16 5
Ġc ancellationToken
ĠW as
ob a
AR GS
Spec ify
al ia
Ġsh apes
Ġconf ront
ĠHo pe
l ift
fer ences
ĠS peed
Opt im
h arm
ĠMat hem
ĠWith out
ĠCamp bell
S i
Get Value
Ġsearch Box
17 5
Ġcirc les
consist ent
C ACHE
h op
n oc
ĠUk rainian
ĠD id
h ai
G old
Def ine
Ġaccomp any
it ness
has Next
ĠOb servable
ĠB ull
mid rule
ä ¹
Ġ` --
" &
Ġweap on
Ġm oth
ĠB ag
Lin ux
ro les
Ġag greg
S en
20 3
) ](
Ignore Case
) <
ĠK ind
ĠF erm
Ġd ummy
not ag
Ġde mo
~~~~~~~~ ~~~~~~~~
l ater
te chn
uc lide
ick ing
Ġd w
o j
Ġschol ars
Comp ile
Pack ages
B IN
Ġres ign
st ation
s ound
Ġsh orter
var rho
ĠExec ute
Ġse venth
State Exception
Ġre pe
Build ings
g ap
Un ity
Dis patch
/ ************************************************************************
18 70
Ġsol ved
L ab
th a
ĠHash Set
ĠĠĠĠĠĠĠĠĠĠĠĠĠĠĠĠ ĠĠĠĠĠĠĠĠĊ
ä¸ º
ĠVis it
ĠAl ban
ĠM os
================ ========
ĠStud ent
Style ID
Ġvar char
Ġover rid
w heel
Ġdam aged
Ġre putation
li ers
le ans
Ġo ct
W ords
ĠMont real
l ag
Q R
18 96
Ġm as
é Ļ
ĠGu y
PRE SS
Ġre construct
r us
Min imum
Ġcollect ive
Ġ$\ {\
Ġappoint ment
Ġtransport ation
ĠClass ic
del im
Ġg ay
ir l
Ġdist ribute
Ġemploy ment
real m
d or
] ):
Ġsp ark
T ake
rom agnetic
ĠOper ations
rec ogn
s uggest
Ġcontinu um
e z
Ġsurround ed
ĠA rena
ĠW oman
ĠCh amber
pres erve
Ro les
oc c
Ġun safe
Ġlog ged
inst ances
anc ouver
Ġcritic ism
ĠPar ser
w y
Ġs aving
Per formance
ĠG las
ĠMP s
integ ration
amp led
dd ie
Ġsurv ived
ĠBang ladesh
P TR
Request ed
Map s
ĠF LA
Ġan al
Ġath letes
Ġin set
ph ysical
Ġf atal
^* (
sw ith
p ause
Ġ( +
Ġbeaut y
C ircle
ĠV ik
re z
Ġval ley
* (
ĠT F
ĠIn sert
ĠSt ill
Col lect
Project s
ject ure
m q
an on
Ġl ots
isl ature
Ġuniform ly
De leted
em en
H W
ĠV el
Ġmount ed
E MPTY
El se
Ġfa de
bound ed
Ġp overty
s ar
et ics
ĠAust rian
c od
ĠCl in
ĠH ave
ĠSk ip
t pl
ĠC rown
R a
Ġb io
ĠWel sh
Ġunus ual
Ġsimilar ity
ĠMarg aret
inc orpor
Ch ars
Ġconv olution
Ġdecre ases
ĠJoh ann
VER TEX
Ġd uplicate
P a
rane an
Ġspect ro
ĠHung ary
Ġh ill
Ġl ap
Ġval uable
spher ic
CA SE
Ġra p
ĠAl gorithm
ĠPit tsburgh
Ġsuper ior
Nov ember
Ġv oters
pr ison
r w
18 95
ĠSh adow
ĠTai wan
Ġl anding
ĠSen ator
As String
hom epage
> {{
ĠAL L
get Node
ĠK ath
th an
18 97
T or
. {
Ġd Ã©
it ure
t own
ĠGra ham
ĠBrook lyn
Ġnumer ic
U X
cor ollary
Ital ian
ĠP atri
Serial ized
le w
Ðµ Ð»
Ġparticip ation
Ġdeploy ed
Ð° ÑĢ
Ġvari ants
ĠðŁ ĳ
') [
char At
Cal c
R ussian
tensor flow
ĠLe ad
ĠNe ed
b ach
Or Empty
D ark
Ġjud ges
ĠValid ation
p ent
T ur
Ġs ans
Ġres igned
W ho
Ġr v
f are
i est
Ġ= =====
del a
ĠUn iverse
Ġfrag ments
k k
ad ic
sp r
add le
Ġstream ing
Ð½ Ñĭ
Ġ/** <
ĠH old
ĠAR M
Ġbench mark
ĠLeg islative
Ġconven ience
RE SOURCE
Ġdiv isions
M ON
sp er
sh aped
Ġaccept s
Ġg rows
)) :
ital ic
Ġn ations
Ġc rystal
ĠSt ars
ĠN ar
Ġat tachment
b age
ro utes
Ġcaref ul
Ġwork flow
d z
get s
Exp atriate
ĠSE LECT
Ä Ľ
Ġlong est
ĠÐ¿ ÑĢ
s qu
Ġemploy ee
ĠRob inson
ĠI an
IN X
Ġcl ar
S pl
m ates
Ġtrans l
Ġneut rino
Ġrec urs
match er
Ġemotion al
Ġw et
Th umb
15 2
S ens
ĠP aram
ĠG ulf
Ġm illiseconds
Ġmer ger
ĠS ent
At Index
Ġperturb ation
C ritical
="# !"
ĠR oot
comp any
ĠW idget
Ġqu as
down arrow
Ġex tern
ĠN ep
ĠSh ared
)-- (
Ġelse if
ĠFreder ick
ke ley
fra ction
Ġal igned
Ġform atted
È Ļ
LOB AL
=-=- =-=-
Ġch rome
x a
ä ¼
ch ars
Ġconst itu
/ :
ĠB ey
if le
p ow
Ġs weet
Ġl n
r ss
" ):
( ',
Ġsur prising
pos itive
Ġsp ell
Inst ant
ÐµÐ ´
' })
( -\
O VER
back slash
ĠSt orm
2 32
ĠT E
Ġabsol utely
ĠL iving
Ġres idential
work flow
Ġra cial
node Type
Ġpopular ity
ins ula
lo on
assert Raises
rev ision
Cur ve
Ġag es
Ġon Click
ME DI
Ġver ified
Ġal i
Ġex cluded
sub sec
Ġpo em
ever y
ĠS ho
parse Int
Re peat
Ġelement ary
Ġac quisition
erv ing
ĠT rib
ĠB ible
Ġen hanced
Des criptors
Thread s
D ump
\! \
Ġp ole
Ġj uris
ĠAlf red
Ġse p
Ġbe an
Ex ports
ĠS G
Ġv a
Ġoccasion ally
r h
sat isf
ĠPort land
g ms
Cho ose
"> $
Ġperson ality
ograph er
Ġequ ally
P in
ĠM ail
Ġpos sess
SNAP SHOT
C ategories
Ġg od
z ym
Ã© r
MLE lement
T om
ĠG ot
ĠU pon
ĠTra vel
Ġprepar ation
Ġsus pended
GR AM
- "
Ġout standing
ĠPro tection
Ï ī
Ġl abeled
T W
re present
o ct
Bu ffers
ĠBro thers
k ubernetes
ĠR ES
B F
C OR
um ar
ĠG ary
reg istration
Ġshe l
/* .
ĠGe V
EN S
Ġcenter ed
ĠF ly
ĠB irmingham
Ã¡ s
r p
ĠFrank lin
---------------------------------------------------------------- ----------
U uid
Ġ ].
B ul
Ġan not
Ġtri ple
u ke
Ġany way
ĠP ract
ĠCh apter
Ã µ
ĠS pect
resource GroupName
Kn own
ĠA ch
ĠEd it
Tr im
or ia
Ġref id
Data Set
Non null
n ear
Ġ' --
Heading Color
Ad just
s mooth
S el
D ue
ĠU V
Ġmeet ings
' ",
Ġs ad
Ġrep air
Ġinj uries
Ġd war
Ġsur prise
Re search
Ph aser
MO VE
14 3
ĠDrag on
mark et
ĠCh ampion
ĠA SC
ĠChar acter
prom pt
APIENTRY P
Ġbr ick
ĠProdu ction
un icode
uclide an
2 10
n f
Ġh int
Å Ľ
Ġt abs
Ġo m
ĠAc cept
win ning
cont ract
40 1
Ġsim ulated
Ġlik elihood
ĠPo inter
ĠT ower
ĠP P
12 34
ĠAss istant
}/ \
B G
ĠInd ustry
ĠCon n
con sum
Ge orge
Ġdut ies
ĠCar ter
Quant ity
g rey
Ġguarant eed
ĠM and
h uman
ME TA
18 85
Ġwork space
ĠField s
VAR I
Ġed iting
Log ical
Y ES
Ġr ising
PT S
Ġuncertaint ies
Ġ*/ ;
i u
str ategy
Bo ard
in el
oth y
L IMIT
Ob servable
initial ized
;" |
ĠE lectric
cul ator
re ng
M Q
Ġf ishing
Ġe u
Ġenc oder
pi res
ĠDown load
ak en
Ġdis order
Ġsearch ing
Ġtim ing
Ġdoll ars
Bro adcast
ĠJ enn
å ·
ĠOr leans
ĠAnd y
bootstrap cdn
ĠD allas
ĠArray s
ĠLank a
stack rel
b rev
Ġan notations
Ġab c
Ġa ws
Ġens ures
Byte String
comp atible
Ġatt orney
m und
ĠK an
ĠM I
Ġtr ick
ĠBl ues
Ġconsist ency
por al
Ġhe ter
ĠComm ons
ĠMet ropolitan
, (
ĠB SD
log s
0 10
CLU DE
im er
max imum
BU F
Ġor ange
rece ived
ĠĠ ĉ
S uggest
Ġdig it
ol en
Ġpl ots
ĠK u
ĠY ang
$. }
s yn
At omic
usal em
on na
it ations
ĠH AVE
Get s
Ġp kg
ĠEm pty
4 80
User Id
Ġtext s
Ġconsequ ences
Sh utdown
May be
Ġbu ffers
el m
ĠAl ert
Action Bar
M EN
¼ </
Ġc v
Ġcl azz
ĠP resent
Ġpro pos
Ġav ailability
Ġcap s
Ġang les
t ap
sc ar
ĠBalt imore
Ġtransform ations
Mix in
t om
m igration
Ġb acter
ĠM IN
Ġ"\ "
ĠB U
ĠSt ra
Rem oved
S ta
Grad ient
Ġescap ed
Mar shaller
ĠðŁĳ ¼</
15 00
View er
ĠTra il
Ġre quiring
ath ers
it les
H o
ĠAng el
Ġconsum ers
Ġ( &
Ġan swers
dig est
ĠSh op
Ġdelay ed
Ġc rown
Ġpra ised
Res pon
Ġviol ation
Ġrom antic
T er
Ġth umb
At om
T echn
loc ated
s olution
res pect
Ġl hs
ĠD ays
Ġgener ators
ĠB ug
Ġd ensities
Ġcon tr
ĠU TF
Ġcomp l
18 60
Ġassert ion
Ġrat ios
Ġmod ifications
add All
S dk
t ow
L aw
Ã Ł
Ġrepresent atives
Ġnot ably
ĠCar ib
Ġattempt ing
ĠWIT H
14 6
ĠAl aska
Ġn umpy
Ġhom ogeneous
Ġp ersistent
Ġwh ilst
render ing
rot ation
' _{
ĠFrame work
P ag
J NI
Res p
Ġpul se
YY YY
| _
ÐµÐ ¼
Ġbeliev es
g ender
13 7
Ġattrib uted
Ġc riterion
ĠM is
ĠMa ine
ĠEv ans
ĠH ad
Leg acy
Instance State
id y
ĠT am
Ġpop ulated
b ie
æ Ń
Tree Node
Ġdyn asty
h it
j b
ĠF ail
Trans late
ĠMount ains
Gu ide
Ad s
ro ut
}{ {\
Ġaim ed
cl er
Ġco ffee
b anner
Ġj unction
Ass oci
2 11
al ph
Ġwe aring
L azy
b ai
AL LOW
f und
re quires
ra ck
ĠUn ivers
A MS
View port
ĠHamp shire
re ma
Ġsuccess or
il io
ra k
DE SCRIPT
Ġpl asma
ache l
Ġdis contin
Print f
Match ers
Ġp ersist
develop ment
Ġwit ness
ent e
ĠCommun ications
Ġthe ater
found ation
80 80
B and
ĠP ictures
left arrow
ĠD ES
Ġsub div
b az
Ġbur st
ĠThrow able
Set ter
W P
Ġadd ressed
incorpor ated
IS O
Ag gregate
Ġho spit
) `
K S
Ġ& $
Ġex ha
Ġfrequ ent
Start ing
ers h
su it
it ime
ri x
Ġd il
UNK NOWN
ĠDefault s
REQ UI
ĠRoman ia
Ġpolynomial s
Ġt m
SY S
Assert ion
ĠAdd itional
Ġpaint ed
ĠKar l
Ġim aging
comp letion
Ġform ul
ãĤ ¹
DA O
art icles
ri o
F old
Ġkil omet
"> [
ab ove
onom ous
Book s
ĠC T
ĠG ram
ĠĠĠĠĠĠĠĠĠĠĠĠĠĠĠĠĠĠĠĠĠĠĠĠĠĠĠĠĠĠĠĠ ĠĠĠĠĠĠĠĠĠĠĠĠĠĠĠĠ
________ ________
lo re
ĠC atal
Ġcon g
15 5
raw ler
Ġfarm ers
ĠT alk
Ġsurv ive
I FI
Ġtrans mit
Un icode
Ġgen etic
Ġw ider
ĠFin ancial
Î ®
Connection s
LI ED
T urn
ĠComp lex
f iction
ĠS audi
md i
ĠMad rid
é Ĺ
Fin ish
ĠRE ST
ester day
Ġdistingu ished
e i
lot te
Ġstr uggle
ak u
im ir
Ġg ateway
Ġvol tage
ĠCall back
) ^\
ĠPr incess
In herited
ĠAd v
ĠE lection
Ġpropag ation
Ġent ang
am o
Ġdiff usion
Ġ[ (
ordin ator
ĠFl ag
ĠMic hel
clus ively
å ¾
Ġcar rier
76 8
S IG
Ġspe aker
con sumer
ĠM aj
Ġsu icide
vent ures
ĠCh ron
SE C
ĠSp irit
ĠQ ual
Ġren ov
ĠR ural
elf are
Ġform ulation
16 6
ĠJim my
M icro
we ights
Out Of
m aml
fl are
Ġstreng then
per ience
Comp uter
Ġh ub
ĠL GBT
f lix
Pro jection
Stud ent
FUN C
Q T
=" .
ĠM ess
ĠPol itical
ĠH ind
ĠÂ ·
Hash Code
4 000
Ġf abric
Ġlength s
Ġf antasy
ĠP in
output s
ot he
ĠT ob
G rant
Ġthe ad
B ob
Buffer ed
s us
F our
up arrow
ev a
ĠF ine
ĠHung arian
start sWith
Ġleg s
Ġstay ed
sp lice
Initial izer
C AT
h yp
L M
:: ~
Ġreal m
oid al
gener ation
ĠMov ement
ira c
Sort ed
18 88
$ ^{
Ġph rase
ar th
Ð°Ð º
> ");
op enc
Analy zer
ext ended
ĠInitial ized
Ġsuffer ing
que e
Ġport ions
cap acity
ĠP S
sh utdown
13 3
O O
Http Servlet
ĠJ av
du al
let t
bra ins
sing leton
ces ses
Pol ygon
ĠCom ics
ĠK il
M id
Job s
Ġse aled
EO F
BY TE
SP H
: ",
Ĺ ãģ
Ð¾ Ð½
G LAPI
Ð¾Ð º
ĠC lick
Ġ'/ '
Writ able
Ġto w
Ġrecogn ize
iss a
") ),
ia o
ĠArch ive
Ġreg ulations
D eb
Ġ{ :
Ġdiagram s
ast ery
$- $
Ġres ize
loc ate
li ber
> ]
Q Name
tem perature
IS H
ĠBar ry
ĠApp ly
beh avior
Ġin ference
Ġm ixture
"> {{
A meric
Ġup coming
Ġreson ance
ĠEx pr
ĠR and
Ġcomp ound
Ï Į
ĠUs age
built in
ĠW ik
gra duate
y outube
Ġfoc uses
Ġjournal ists
ĠP anel
ĠU UID
corre spond
{ (\
list eners
to Array
C ENTER
Ġc able
ĠRem ote
do i
è §
set Name
B ank
2 25
b ird
ynt hetic
che str
Ġ} }</
m or
Ġre interpret
ĠSV G
ĠDak ota
Ġcho osing
c ill
draw er
ĉ ĠĊ
id le
em ies
ĠI SO
18 89
Ġimp ly
ĠFor um
Ġlo ops
Ġpro hib
Tool tip
c losure
Ġ[ `
ĠH end
get Int
to o
ish ops
ĠChar lie
ĠFoot notes
Ġindu ction
ĠS now
Ġinvol vement
ĠM ong
ĠV I
ĠAg ent
ì Ŀ
Code Dom
ç ī
ĠU E
CON TEXT
apt ers
Ġt act
op les
Ġcolon ial
M or
S equ
Vill ages
ex clusion
Call ing
Ġelect rical
j ournal
Ġin formed
ĠP aper
Ġan onymous
Pol itical
Ġhas n
Ġcelebr ated
c ritical
Ġprov en
Ġro uting
au er
L and
H EL
ac cur
ĠD J
ul atory
Ġbus y
abul ary
DE SC
âĢĻ .
Act ual
ĠM ER
sh im
L int
j vm
ĠV k
Ġguest s
ĠCar los
ĠCal endar
Str ict
7 50
is an
Ġne ck
Ġalloc ate
Ġv acc
ĠSh ape
à ¹
pred icate
ij ing
Ġbi ological
W ild
Ġsound track
ĠTrans form
o ft
Ph ysical
Ġven ues
aw k
sort ed
Ġtarget ed
Ġart istic
n v
ar us
pl ating
Ġauthor ization
D J
ĠJos Ã©
ac a
Foreign Key
Ġcool ing
ĠS ay
Al ready
l st
ĠAct or
ro st
itar ian
G lob
K HR
ri ble
Ġup dating
Ġtrans verse
ĠThe ory
cho ose
Ġsupport ers
Ġmathem atical
g ent
Ġplace ment
ĠM ak
n th
$ '
Ġgl u
å ¸
Ġorth ogonal
ĠCommun ist
ĠB aker
20 8
q t
U nd
level s
W ater
18 00
de ll
Ġhabit at
Es cape
C s
b et
Ġcompet ing
13 4
iter ranean
ĠT amil
Vertex Attrib
tele phony
Ġcontain ers
sp y
Ġarg ue
apt ist
ĠR u
Ġassert False
d iction
un ning
TERN AL
ck o
Ġs f
K ing
Qu ote
Ġdiag nostic
pro pto
St roke
D TO
hy thm
Ġ' *
18 94
re nd
Ġsub stit
ĠU int
Ġfun ctor
Spec ific
Ġd owntown
LE ASE
ĠM other
Ar c
her its
on ing
ĠS ort
Ġdep icted
UB LE
Ġh istogram
': '
seud o
Ġpro position
ĠP aint
ĠF light
Ġves sels
US A
Ġcorrespond ence
Ġshift ed
Ġsh allow
user Agent
Ġabund ance
k ill
M AT
moz illa
Ġspirit ual
Ġdec oder
Cred it
Ġaff airs
ens ively
thumb nail
Ġ{} ",
18 93
ĠAd vis
ĠDet ails
Ġintegr ity
ĠB lood
Ġun a
ĠI Enumerable
Ġcr imes
Ġmer chant
Ġfall back
Ġf printf
f ork
æ Į
Ġimplement ations
Ġ? ></
per formance
J e
Ġthought s
ĠP rad
ĠWar ren
Rail way
CK S
el rte
Ñ ī
Ġb one
ĠĠĠĠĠĠĠĠ ĠĊ
assert That
ud ge
ular ity
ĠTh or
J av
Ph ot
In crement
Ġdecor ated
Fe bruary
Ġst em
sl ides
ham mad
&= &\
ĠCart esian
> ")
Ġo mitted
18 92
] "
d up
Ġc ul
Ġ" __
ĠD ynamic
Ġtool tip
ĠP sych
Ġdrop down
g row
Ġmer ely
Ġwat ched
F K
Ġ ----------------
Ġdig est
Ġnarr ative
x si
Ġdiscr imin
Ġc av
Ġr anging
i ating
ris ing
Play ers
cred it
ĠA DD
em ed
Ġident ifying
Ġsimp licity
ĠV egas
%%%%%%%% %%%%%%%%
U ng
Ġpre view
dd y
Ġaf ternoon
E val
M ime
ĠR out
âĢĻ ,
Ġcon sp
Ġ_ ("
ĠPh ys
b ecause
Ġfra ud
w right
ss f
Ġhelp ful
g pu
ink s
valu ed
Ġimpro ving
R en
Dir ty
L ex
Tra de
Ġp d
LE T
Des pite
Ø ²
Comp ilation
s al
ml abel
Ap ache
ĠMit chell
Ġr ivers
Ġap artment
om o
Ġexp anding
ĠProf essional
Dis pose
Ġir reducible
param ref
>. <
ĠWay ne
Ø§ ÛĮ
h attan
Ð ³
ĠP os
14 9
Ġw ake
ĠR ank
Ġres ort
Ġout comes
ac re
ĠStan ley
v ik
Ġfilter ing
Ġst ake
Ġinv olve
enc ia
con cept
WE B
ier ra
ĠRail road
ĠB ot
Ġsup ers
P ull
Ġlo ose
Ġcons ent
re pos
Ġvis its
pop over
node Name
Ġstr ange
f ers
Ġc ous
Ġ* =
ht m
FE ATURE
Ġdetermin ing
P N
W IDTH
link col
Ġstrateg ic
el ian
ĠOtt oman
ĠThe ater
ĠDel hi
ĠSQL Exception
Ġh ist
Ġun used
ro uting
Ġse g
ĠR ick
form atter
ĠPh ysics
Med al
ib us
ol utions
Sec ure
Hash Set
ĠB illy
iel der
dev ices
n om
cal culate
ĠCamp aign
Ġdis appoint
Ġel der
ĠB asketball
v ect
ĠAd vanced
Ġcomm ut
Ġcommit ment
m ixed
Ġflow ers
>< ![
ATTRIBU TE
SE D
get All
ace ae
ER O
MA IL
AN Y
illa ume
ĠNorm an
Inf os
Ġglyph icon
Ġb ishop
Target s
Ġw ounded
H ASH
Channel s
Ġa de
Ġprison ers
ad vert
les cope
ry ing
Ġs cheduler
Exp and
Ġd ub
ĠO cc
Ġsp y
Ð½ Ð¾
og ue
ĠW a
Ġproport ion
R X
Ġphenomen on
Ġproject ed
in ite
Ġexist ed
ri el
ĠN BA
lic as
W T
ĠAr n
art z
Ġpoint ing
coc os
. âĢĻ
rece iver
Ġgovern ments
W arn
Ġcor rupt
ĠM oney
ĠĠĠĠĠĠĠĠĠĠĠĠĠĠĠĠĠĠĠĠĠĠĠĠĠĠĠĠĠĠĠĠ ĠĠĠĠĠĠĠĠĠĠĠĠĠĠĠĠĠ
Ġencourag ed
Ġend l
dat as
Ġpro ud
at trib
H y
Ġassum es
Ġ" *
Ġobvious ly
++ ]
ps on
Ġamong st
es ses
the y
0 200
Ġpass age
uk a
Ġes lint
ou ched
Ġpremier ed
ĠL ad
Co ordinate
search Box
Ġte ch
Ġs oph
mock ito
l azy
Coll ision
ĠHun ter
Ġmount ains
un ed
Ġserial ize
V ersions
bor ne
Ġbl ind
å Ģ
ĠCr ime
? ,
ĠTh er
\| _
eval uate
ĠTH REE
atern ion
m ers
as ant
Ġanaly tic
jet brains
W all
comp ressed
Ġposter ior
e fficient
Ġ' ;
el ines
ĠD omain
g ateway
Ġdef ence
$\ \
get Item
ANG LE
p read
/ ',
r hs
Ġ" @
Ġin tern
ĠRE G
In c
List en
Ġref lected
Ġdise ases
ĠV ari
Ġrow span
Ġclip board
Ġstead y
$ "
Ġind irect
Ġ' ../../
/ ?
ĠSh a
$\ ,
ĠFile s
m isc
ĠC ultural
it us
Ð¸ Ðº
Type Def
> }
Ġth orough
set Property
Ġcoast al
Ġneigh bors
Ġant icip
ĠEx ternal
deg ree
ĠM ind
m v
d ifferent
Ġ\ [
ĠQue stion
tr ip
ĠAfghan istan
Un defined
ĠJer usalem
e ing
be am
PO M
ĠCurrent ly
ĠM yst
R anges
ĠBroad way
ĠConserv ative
valid ators
cl ing
Ġref uge
ĠY O
T CP
ĠSaf ety
n ick
Ġs printf
Ġrel ating
de ad
Ġpl astic
D N
ro bot
Ġpark ing
Ġim prison
Ġsympt oms
Â ·
Ġs z
Ġch a
ĠK ur
col One
el if
ĠM ach
Ġr uling
ey er
SET T
Ġdem ands
Ġr anks
get Path
Ġget Name
work ing
ĠV a
dim s
one percent
æ Ģ
Qu ota
ater al
Ġing red
fin der
**************** ********
Ġcom ed
SY STEM
In ventory
ĠR ud
UR POSE
18 91
or ship
Decl ared
xx x
Ġb orders
cel ona
Europe an
Ġdocument ed
Off ice
Ġsuggest ing
ĠW ang
Ge V
ĠFin ance
19 3
ĠTig ers
S ING
ĠMon th
Tool Strip
h is
h n
ĠØ§ ÙĦ
e enth
Ġpay ing
g al
ativ istic
Ġdisp ersion
av g
ĠF riend
writ ers
erm ark
Ġon mouse
aaaa aaaa
st and
H over
Ġven ue
Ġves sel
Ġfund ed
_{ +
& =\
ĠUn supported
Ġdisap pe
st y
ribut ions
pro ved
ĠD R
Ġking dom
ĠBe aut
IT EM
ĠMar shal
Ġmatch er
Ġphot ography
Ġholid ay
Ġnorth west
ĠJ azz
18 65
Pr im
Ġaccret ion
Ġphot ons
20 5
dec imal
Ġforest s
âĢĵ âĢĵ
Fl ash
P eter
Ġbuild s
Ġencou rage
sw iper
ĠProp Types
im its
re ats
ain er
Ext ent
Ġdecre asing
Ġd ialect
Al location
pro logue
ins pect
files ystem
min a
m ob
Ġdes erial
Ġtra iling
bra cket
Or d
Ġsp oken
UL K
Ġover lay
DE C
Ġcheck point
T own
le arn
key board
mult line
ab ort
ĠS even
Ġs le
ĠH unt
ĠOpen SSL
int f
Ġintr insic
gle w
bin om
C urrency
re start
Ġmill ions
Ġ ------------------------------------------------
ĠC arn
So ft
cor ner
he ld
Ġh i
conn ector
Ġgu ilty
Ġexam ine
ĠPack ages
ĠLINE AR
Exception s
A IL
Ġp ic
Ġun f
ĠCirc uit
id ity
. ),
ist ically
ĠX XX
b ib
pare n
Ġpro ton
Rest ore
Ġart ificial
Ġsupp lies
ĠSw ift
IT NESS
ĠUn iversal
cons ider
prot ect
ĠCon trib
c rypt
ĠI con
ov ing
ar ial
Ġn it
Ġx hr
Ġactiv ist
SPH INX
Pub lished
ish ment
s cheduler
ap sed
Ġcluster ing
ĠM ack
Ġconst ituency
Ġinv ocation
T s
Ġexpect ations
sim ilar
comp uter
s ensitive
ĠT ournament
orange hill
R ing
ĠInd ians
Ġde puty
Ġgradu ally
photon ui
orangehill dev
ĠB ron
Ġbre ath
H ierarchy
og s
T abs
d ictionary
Ġinf lation
Ġch amber
ari ate
ĠFre edom
Enc ryption
ĠV enezuel
Ġshop ping
Ġtraject ory
d ro
Ġblock ed
Ġbar rier
ĠÎ ±
R TC
Out er
Ġrare ly
ĉĉĉ čĊ
le ad
ĠTro phy
Ġc od
Ġcred its
ĠPark er
/ @
15 1
Rep lication
Ġinter active
J ournal
val s
F it
ra cle
W ay
Ġfe as
ĠExec ution
Ġwed ding
D NS
Ġdo ors
Ġstr len
ĠSte el
Ġthreat ened
00 3
w ml
====== =
T K
Ġg em
Ġlight s
åĬ ł
Ġin jection
fore ign
ĠC el
Ġw ides
ĠSe lection
ĠF alls
u its
it ize
(' -
h m
Ġinit iative
ĠO wn
Ġres ident
ĠV ancouver
Ġgener a
Track ing
st ad
text color
-- ">
ĠL ion
ym ore
amp ed
Ġaver aged
ĠR uby
ĠLine ar
J ew
iem ann
Ã ī
ĠM ans
ĠUn like
ĠCl ar
Ġspl itting
ĠA F
n x
ĠQu ant
6 55
æĪ Ĳ
qu ake
ĠU g
M gr
a ire
| ^{
Ġ' ');
ĠG PU
ĠM ason
ĠL ex
SV G
ĠP ast
ĠN at
Ġext ending
ĠN ord
ENT S
Ġh ate
ult an
ĠR EQ
Fat alf
Ġo ps
Ġcompos ers
14 8
Call er
ĠG NU
Th omas
AUT O
ĠP rior
so lete
Ġobserv able
Ġ" ../
Ġpar ad
Ġestim ator
rist ol
v ision
hook s
ĠF ather
è¡ Į
Definition s
L ittle
\ ",
P ipe
\ +
to gether
Ġserious ly
Ġt ough
Ġre semb
E F
ĉĉĉ Ġ
Result Set
Ġ[] *
SQL ite
g md
Ġsurv ival
om ed
ĠC e
ĠR an
ĠGlas gow
Ġch ains
Ġm ic
Ġ/// <
Ġcap ability
clean up
Ġt il
Ġneut ron
PRO CESS
Sw ap
Ġun e
AR M
aval ry
ĠAPI ENTRY
subNav List
ĠC ov
ĠModel s
en berg
/ ${
. ">
Ġreal ize
ĠC row
Ġpop up
Ġten ant
Ġdis ag
Ġlo b
Y LE
ĠGi ants
ĠS ax
ĠCar lo
Ġfail ing
account s
(" {
ĠL A
å Ŀ
Ġl ad
18 50
IM ARY
ent o
imit ives
M ont
C orrect
x FF
e ur
Ġpre decess
13 8
Ġanaly zed
s To
æķ° æį®
Ġp reference
G overnment
is EqualTo
ĠV ER
b ishop
ent ric
Re porter
mar ine
ue z
Ġafter wards
ĠS outheast
pe z
7 20
R oll
h c
count s
ĠT u
Ġreal istic
C losure
er ase
j ena
is olate
ĠGre ater
ash a
ĠSoc orro
ĠColl ins
ĠTurn er
un set
Ġs ap
Text Box
ĠFI FA
Ġelimin ated
12345 67
oc y
Ġcorrelation s
U IT
ĠCO MP
end um
s chool
Ġnewsp apers
ĠEnvironment al
H uman
ential ly
d oxygen
ĠR unn
ĠR ing
ed ges
Â »
Ġad venture
Sc anner
eh icle
Ã Ĺ
Ġg al
br aska
ĠMar c
Ġpeak s
Byte Buffer
US H
ĠI ssue
Ġass ass
ĠMuslim s
F ault
S ibling
Ġen forcement
ĠVAL UE
CCCC FF
l iter
INST ALL
M acro
ĠJ ess
ĠD WORD
#### #
Ġc pu
Lock ed
R ST
model Version
ret ty
ĠS ex
cur ve
et ched
om at
ĉĉĉĉĉĉĉĉ ĉĉĉĉĉ
ĠYork shire
To Array
prov iders
ug oslav
enc rypted
fra red
et on
PE G
=\ {
)} (\
>> >
D Y
Ġcoup les
Ġhydro gen
ĠS r
Ġgra b
M irror
S y
ĠC arm
Ġ\ (\
met er
Ġprint ing
:: _
B UT
zer bai
Ġtick ets
J ul
mark down
Ġdog s
BUILD DIR
\ [\
Ġpower ed
ft p
ACT IVE
est im
Ġ"/ "
B attle
um i
Ġcomb ining
h or
Ġqu oted
off icial
no ise
qu arter
omb re
] ^
co ordinate
XXXX XXXX
Ġvalid ity
Ġindex ed
H ol
] ],
ĠF unc
&& \
Ġaug ment
M otion
ĠN ASA
ĠE S
ĠW ing
exec utor
ve led
ĠGL float
CLA RE
Ġm issions
C as
k b
bu ffers
ãĢ ģ
ĠH O
Propag ation
Ġt orn
Ġaware ness
iv ic
Ġ* _
ĠP ow
ĠAtt orney
Ġex iting
Ġint ense
ĠJohn ny
Ġent reprene
AB C
Ġw rest
Ġbrand s
Ġl as
Ġth irty
H en
R ock
p aint
ĠF UN
rit ic
Ġindex es
Ġo xygen
da o
ra f
Ġac oustic
æ ģ
ĠM ouse
const raints
Sh ard
ĠBen jamin
/ </
13 9
Ġcosm ological
Ġinfe ction
roup ed
Ġcut ting
*} [
ĠF leet
Ġthere by
ĠE valu
ert on
Ġnav al
et ies
ĠC amera
ĠB ud
ĠW ol
[ ^
op eng
Ġcomp ress
em or
Ġse l
ll vm
IN TEGER
22 2
ĠC I
ĠY u
memItem Left
us k
ĠR ico
æĸ °
Ù İ
ĠOr ange
ĠS L
ĠTra ce
b rowse
her ence
p q
Ġnormal ization
Ġa sp
ĠID s
U G
on ian
Ġch ip
Des ktop
Ġax es
Ġf oss
ist ance
Ġdecl ined
Ġlo yal
ĠF ab
Ġdig its
l bl
filter ed
form ula
CH ANT
LA ST
Ġsur pri
d ashed
Ġsac r
ĠAn imation
callback s
PR INT
ĠG round
18 64
p index
ĠCarib bean
open ed
mar shall
Ġview port
Ġda ughters
ro v
memItem Right
ĠPier re
Ġtra v
Ġd ated
Ġsem antic
un safe
up grade
ro at
Ġsub stitute
om on
Ġreg isters
bl ur
Ġstar red
ĠT X
Ġlaw yers
Ġknow ing
Ġ' :
Ġhook s
p ension
ĠE asy
18 86
Ġ$ ^{
!! !!
des ktop
Ġnow rap
>: <
ĠLIMIT ED
Ġviol ent
m iral
Ġins ight
ĠS occer
Ġrad ical
Ġsaf ely
aren cy
T ASK
ee per
C WE
Q String
collection s
00 000
Bl uetooth
alloc ate
beh aviors
ĠV iol
Ġ ic
Ġp as
Ġre actions
Dig est
Ġs ick
Ġde als
18 87
Ġend points
ĠLay er
Ġnom ination
track er
Ġ ist
Index Of
Ġmed ieval
Ġx s
Ġcred ited
ĠReg Exp
ĠI ss
can onical
ĠRober ts
Con cept
ĠInitial izes
> ".
Ġto x
Un install
D K
Î ¬
ĠH orse
prop ri
Ġcontrovers ial
De ad
FORE ACH
3 30
ĠĠĠĠĠĠĠ Ċ
Ġvar s
ster dam
New ton
m un
ĠMar vel
ĠT ed
prov ided
Imp licit
Ġt c
ĠUs ers
control led
ĠBar bara
skip Nav
Ġfinal s
R F
p md
parent s
author ized
AD ER
Ġbound ing
Ġvis bl
ĠWith in
Ġmorph ism
Ġex clusively
LO T
ĠD ir
Ġvir us
ĠS TD
Ġour selves
ĠColon el
Ġmem orial
f h
res olver
we ets
ĠEl li
ĠL yn
Ġbeg un
Ġwor ship
Ġwood en
w ifi
ip ment
mat ched
is ch
ot ton
Ġinter ference
sc ience
ĠO PT
ĠAp pe
ich i
ĠSte ven
Sh op
Enumer ator
Ġl ens
ĠCon struction
Ġ# ##
ĠSpec ifies
D U
//////// ////
ten ant
Ġq ub
ĠSt ories
pos able
Ġscal ed
2 15
ĠS equence
O Auth
Ġt one
Ġcon current
Ġde leg
ĠH at
Ġboot strap
Sp anish
Ġsequ el
in ria
ri z
Rich ard
aver age
j om
be zier
Ġun likely
Ġfoc using
text up
ĠCor ollary
ĠNov a
Ġacceler ation
ic ast
ĠW IN
ĠV ic
comp ilation
L ou
Ġsu cc
Ġspher ical
Ġfl avor
Ġnot iced
Ġdirect ories
x hr
St eps
Ġcritic ized
S ensor
Y M
Ġturb ul
ĠElement ary
Ġg olf
QU ERY
comm unity
ĠO d
it ud
Ġlocal s
TE MPLATE
im ity
Inter faces
Ġac quire
P referred
Lay ers
Ġget ter
Ġenc rypt
expect s
ĠU rban
Ġco ord
}. }
E AR
w ig
Ġc ategor
] /
ĠC ass
Ġdes ert
Ġcomb inations
ĠSal v
b ay
util ity
ĠR ET
00 4
ĠA y
os hi
gl Get
; ;
Ġ{ &
Ġcontract s
ĠM es
w g
Ġemer ged
k el
Ġin hib
Prot ected
Ġreported ly
ĠNot ice
ĠNav igation
ĠI de
ĠNaz i
enn ial
. -
N an
ri en
æĸ ¹
æİ ¥
IC S
h ad
ĠPho enix
C ut
Ġr um
aj a
her o
Ġg ard
ĠEgypt ian
ĠOrth odox
P et
Ġin cl
ĠF oo
pl ings
Ġint ellectual
* }{
ck ed
ä½ ¿
is abs
ĠLL C
Ġcontrib uting
ĠDer by
d ings
13 1
In strument
uch y
ĠIran ian
author ization
Ġinnov ation
B ench
ĠCh air
Ġpo ems
l ar
ley ball
Ġun icode
ĠHawai i
ir q
Con str
ĠE SP
ĠP URPOSE
Ġdepart ure
åĲ į
in vert
Ġmeas uring
Ġrestaur ants
J ac
Ð ¡
insert ion
M iss
Tra cing
Sp acing
Ġcor ruption
ĠPre vious
cloud flare
Display Name
up iter
Ġleg it
> ?
ĠExt ract
on o
ĠNot ification
ĠL ithuan
Ġar ise
Z Z
Ġ\ |\
dis miss
Ð¸ Ð½
Ġra ising
Ġs sl
Match ing
lic ate
40 3
Ġpart ly
! )
Ġdebut ed
ĠF itz
macro def
ĠO B
Add resses
err no
W elcome
i ors
r st
OB J
d ll
O ffer
Op acity
und a
H a
Ã¼ n
im ag
io let
Ġmor al
ta stic
un checked
Ġspec im
ĠS ans
Ġintrodu cing
=" __
Ġmk dir
EN UM
ĠFIX ME
Ð¾Ð ³
Ġisol ate
Ġrespond ed
Ġ$ ('
ĠOl iver
Ġmonth ly
ĠR acing
Ġsh ader
18 61
class List
ol ation
Ġhor ses
D ocker
è¦ ģ
Cent ral
å ¹
Ġcons ensus
de e
ĠS EC
Ag gregation
Ġg ear
>& #
s id
ĠG rad
Ġreg iment
ĠLag rangian
Th ird
ie u
ĠP ic
Key Value
ĠB row
Ret riev
exec utions
fin ement
Par allel
ĠDef ence
Ġdev oted
Ġinter cept
ĠIm ages
C ycle
Ġclaim ing
ut a
Ġmap per
æ³ ķ
l w
ob ar
Ġinit iated
Ġswim ming
ĠV erm
Pl ain
ĠT ensor
ĠRead ing
v b
Part icle
Ġtranslate Y
ass y
ĠAthlet ic
M il
ĠVin cent
Ġmag azines
release s
ĠAUT H
ĠPh D
ĠLog in
ĠGit Hub
Ġfiction al
le in
ĠLe ader
Express ions
bold math
iff s
ĠAnn ual
ix on
Pr inter
Command Line
Ġr t
ĠSer ge
Ġcas ual
Ġconv icted
Ġ" #{
RE SP
d an
Ġinflu ential
17 6
Ġinstrument al
ST ORE
Ġarrang ement
ĠP H
Ġelectric ity
ĠMu hammad
Fre quency
+ $
} ',
jav adoc
Spe aker
Tem plates
ĠN icol
qual ified
ĠConst ants
ĠId entity
rott le
ĠGu inea
ĠMet adata
Ġcount ing
b mp
Ġ' __
ĠNev ada
mat htt
Ð ±
Ġd rew
ãĤ ĭ
mis sed
b ur
ĠT EXT
Ġt ape
: !
FA CT
ĠI van
or um
30 1
Red u
Ġa qu
ä¸ ĭ
ĠP el
Ġsudden ly
Ġcon e
ER ENCE
Ġin fin
on er
DI V
Ġbas ically
Ġcol leges
Le ague
dec oder
Ġpaint ers
em in
Ġun ity
ĠInt elligence
l ane
Ġperfect ly
Ġelev ation
; "><
Up grade
al ous
Ġl ua
Ġtrans it
K ER
null ptr
Ġdrink ing
A verage
min i
DE CL
ĠCan cer
ĠCoun ter
Ġapprox im
contains Key
ĠL uther
}} ;
ĠFunction s
get Field
Ġwides pread
or able
Ġbirth day
in ja
Ġst ick
Ġcoll isions
Ġc rop
Ġactiv ated
Ġprof it
ĠTh ings
Ġver b
Ġcomment ed
22 4
t ier
Ġre dis
åħ ¥
so ftware
Pro position
Ġpet ition
C irc
ĠI o
ĠF ake
see k
ro d
db pedia
ĠQue ue
ĠTechn ical
he ll
Ġconf licts
Ġorgan isations
bour g
g ot
Ġfl av
Ġover se
pre ttify
Ġc trl
Ġcaref ully
ĠY et
ĠÎ ¼
iz ar
ĠK ap
ps is
Pro blem
Inter op
Ġinvest ors
Ung rouped
ent i
Ġneg lig
ĠCr icket
ĠF S
ĠRe ce
Ġstd out
Ġev ident
Ġsubs idi
M ATCH
arm ac
Ġsouth west
qu ate
er k
Bind ings
M ARK
e u
gress ive
} ">
an try
Ġs q
IG H
om ing
å ī
Ġport folio
et ric
UN IT
ĠHil bert
us ive
ĠTh anks
'] :
Loc ations
D eg
ens en
Ġgovern ed
ub a
1 19
Non User
ĠCat hedral
Ġp ow
Object Type
ĠDel ta
Ġre ven
Ġh over
Ġchar ity
stat istics
Build ing
Ġob lig
Ġrefer ring
Ġpos it
dr ive
Ġliber al
g d
Ġwind s
S IL
ĠL ost
ĠF E
cdn js
ush ing
Big g
P ART
r Ã©
Ġinsp iration
Ġguid ance
ST M
Tim eline
po ssible
hol m
Ġsub space
ĠStud ents
ĠComp lete
ĠUn ity
ĠB ootstrap
r df
Ġn od
chrom ium
ĠT s
Ġinter views
Ġsepar ator
ĠOper and
15 3
COL UMN
Con trib
ĠCommission er
B ill
Ġk inetic
urren der
diag ram
send coins
Ġmut ual
Ġp ng
@ @
Ġimplement ing
Ġqual ifying
ex change
ĠGra ce
Ð°Ð ´
COM PI
"] ["
ĠB ond
666666 67
å¯ ¹
Event Type
LE X
18 81
Ġprov incial
Ġfe es
Pl ane
ab olic
Ġexc iting
Ġguitar ist
ĠN ad
Ġt ear
Ġan ten
ra h
tim ing
åı ¯
IC ULAR
status Code
U tf
system s
RA W
M W
cell s
Sc oped
Ġresource GroupName
Ġan ymore
ĠS F
15 7
Ġent hus
Cla im
ĠG as
Ġ\ }
eng u
Ġk o
Ġlimit ation
è¡ ¨
ov iÄĩ
ipher al
ĠHar rison
m ir
ĠM ade
und o
Ġfl u
Diag nostic
(" ./
Ġind igenous
in ery
Ġis omorphic
BO X
s ynopsis
Ġcros sed
ym an
Ġback ward
ing ers
lo sed
at ra
key frames
Ġ Ñĥ
Ġmanufact urer
ĠLiter ature
ĠA rc
Ġle ts
ĠSong s
Ġuser Id
Ġbe er
Ġunder ground
Ġdetermin ation
mod ern
IB LE
Is Valid
ina e
Ġcrick eters
M Y
ĠArt ist
con struction
CHANT ABILITY
ĠSh apes
Ġportray ed
Ġfin ance
k r
ĠS ync
ĠB io
F rank
ĠD S
\ ">
g art
Ġqu ota
ric ulum
m el
Ġmolec ules
amp a
Ġagric ulture
ĠP assword
Ġtable Name
ULK AN
class Frame
Ġlog arith
asc ii
ĠMan hattan
Ġemp irical
ĠPriv acy
à ®
Ġdef ic
I CT
Ġv c
,... ,
Ġmark up
Ġc inema
ĠF riends
n ecessary
Ġestablish ing
H ouse
ow ed
28 0
ĠText ure
× ©
Ġk not
set State
che m
ĠAthlet ics
Ġm ature
s ynchron
ĠO blast
Ġaffect s
Ġhe lic
Xml Element
SH ORT
t oday
}^{ +
Ġimpress ive
ĠArch ives
' ',
IP v
Ġcar ries
umb ent
ĠSus an
ass o
ãĥ Ī
ĠJ a
;\ ;
Ġd otted
ĠA w
ĠF L
Ġfeel ings
f ive
Ġ" ]
ANG U
P s
Ġpl otted
ĠC BS
ri se
ack s
V ari
Î Ń
ĠK os
Ġcomp anion
Ġtempor arily
Ġhapp ening
Combo Box
Ġab road
W D
Ġas ide
Start up
ĠC ircle
}$ \
ogn itive
MAG ES
Ġdis cret
s outh
WA IT
ĉ ĠĠĠĠĠĠĠĠĠ
ĠB ind
ĠDr iver
Red is
ĠH indu
Ġattract ed
OnSearch Select
and as
IAL IZ
Ġbit map
D uplicate
default Value
acc um
full comment
Que st
proport ion
- }
ĠN ear
P AT
ĠC lay
Ġnot ing
rec ip
ĠAut hentication
Ġob st
ä¸ Ĭ
P ORTED
f k
c ou
ra ises
M vc
__ );
P IN
Account s
Comp osition
term inal
foot notes
ĠBe ck
ĠCON TRACT
Subs criber
ĠAut om
ĠG R
Ġip ut
cred ited
Integ ration
t el
Ġflo od
cast er
Ġe lectoral
18 84
D am
sp arse
il ers
user content
Ġ$ <
Ġpol ling
Ġprote ins
Album s
jav ac
Ġplan ets
ator ial
ĠChrist ians
Ġpre domin
Ġtra p
Ġvar ies
Ġel igible
ĠRev ision
ĠBelg ian
CharacterOffset End
qu iry
CharacterOffset Begin
ĠD raft
mt p
PR I
produ cer
Ġst ere
ĠIn nov
vert ices
chi at
ble ms
ĠBar celona
ri ors
Ġt v
if olds
Ġdir ty
) }$,
, %
re leased
table View
Ġcount ies
Ġ iv
ind icator
ĠS ources
Fl at
Ġphotograph s
(' _
Ġsomew here
ĠB ird
ĠF err
Ġun stable
ĠB right
IST S
= ${
b ac
al is
ĠL ud
ON Y
Ġm eg
ĠK irk
Tr ansp
Ġ================================================================= ========
ĠJ oy
Ġvalid ator
ĠCH AR
ĠAnd re
Ġpure ly
Qu eries
sh rink
$& $
ĠU rl
Ġorgan ic
Con sum
Ġcomplet es
g m
Ø§ Ø±
{ .
ĠA CTION
up al
Ġrest oration
Ã§ a
s af
Ġ@ {
Ġdialog ue
Ġsup press
17 2
bit map
Ġl ying
V m
ol ia
Ġwar rant
th y
Ġjust ify
^^^^ ^^^^
W il
X Path
fol k
To o
Ġreprodu ce
ĠL en
Exp licit
~ &
Ġcomp ressed
) }$.
Inter pol
ĠMunicip ality
Ġme at
Ġrock s
col ogy
× Ĳ
ol er
Ġ\ {\
ĠW es
ĠDis able
A ware
ression al
f name
RO WS
Ġre load
ĠF an
Ġd iet
Ġsh ipping
Ġinter vention
14 1
Ġ% (
Ġspecial ized
ĠPy Object
Ġl ux
Ġcl othing
stud ent
Ag greg
__( /*!
Ġbr ig
ĠR ou
co ord
Mon o
38 4
Ġstation ary
Vel ocity
Ġr h
Diag ram
ĠArch itecture
Ġsql ite
\ }.
sw agger
ION S
Ind ent
; :
ect ive
ĠSh ip
Ġmaint aining
8 75
Debugger NonUser
oc ities
type col
ĠE ug
ĠW R
Ġess ay
Å ¿
ur istic
ĠB rew
Ġn est
Ġimp osed
æģ ¯
m otion
num bers
Un supported
Ġm os
ĠT un
Ġ[ _
Ġpres sed
ĠK un
ĠCon figure
2 12
Ġoptim ized
Ġsp ots
Ġcontext s
18 82
Ġmon ument
andid ates
m alloc
Ġsold ier
Ġpart itions
ĠS ocket
Ġ" ).
Ġaff ine
Ġc ancellation
Ġeng age
effect ive
: ]
ĠL ate
Ġaccord ance
Ġeng agement
Index es
ĠJ ar
Ġt ends
Ġt issue
Ġg ent
Ġde eper
dr iven
Ġdatabase s
Comp act
J MS
SR C
Ġnew Value
$/ .
Ac celer
Ġcontrovers y
CHAN GE
S aint
Ġst mt
Ġ ÏĢ
Ġb link
Ġextra ction
V L
Ġactiv ists
= */
ĠB omb
Q uality
ĠB order
50 1
ĠVictor ian
ĠBe ijing
Gener ation
n ut
ov al
bul k
in cre
ĠAss ume
ib lings
tr ight
15 6
google ads
Ġexceed s
ch ip
n at
libr aries
ĠEx port
ah a
ĠGu illaume
md c
26 3
friend ly
Contin ue
Config s
ĠMer c
ĠAlex and
it ual
A st
Dev Express
DEF INE
Ġph p
å ±
am ine
Ġp ause
Ġauthor ized
Ġdefe ating
S un
t u
ĠR angers
Ġbusiness man
Ġprofession als
ĠSch olar
ur ities
if ting
Ġent ers
Ġann ually
Ġswitch ing
Ġm oon
Ġcle ared
L ng
Ġnon zero
ĠMed iterranean
G LOBAL
g om
60 1
ap ro
N ear
Ġel astic
\ },
Ġcol lapsed
Full Name
al one
ĠU SS
inc inn
ç ¤
T our
Bound ing
Ġopp onent
Ġw ings
ĠA GN
ĠH orn
ĠWrit ing
N ever
comp leted
è ½
Le af
Ġcon scious
ĠH ann
ĠR oll
Ã± a
v oice
ierarch ical
ant ine
Ġad s
Del im
ĠLeg end
ĠG em
Ġcomput ers
Ġre write
Ġnot ifications
Ġe cc
Ġ' &
Ġsurv iving
ĠPr im
f ocused
Ġsh ore
ĠC old
Ġconst rained
åĪ °
tra its
è ¾
Ġj u
the ory
ĠEqu ation
Ġimag ine
Ġ* );
Ġdeep ly
Ġreg ulation
ĠCred it
ĠC MD
( _.
track s
oth ic
Ġprov es
ĠMER CHANTABILITY
Ġh ang
Ġnew er
Ġreview ed
Ġpan demic
Ex act
CP P
ine e
Ġ ĉĉ
Ġ ~\
Ġp ian
Ġcre ator
Ġblock ing
ĠT CP
Ġev olved
ĠOff set
Ġ( __
45 6
ĠAnt ar
IN F
ĠRe ader
Ġ(* .
Evalu ation
ot ypes
Enc rypt
P rior
st orm
ĠLu ke
Ġcampaign s
Cap abilities
Ġrepeated ly
Ġgener ations
Not ice
bound ary
Ġdiv ide
Ġpos session
Ġband width
Ġconsist ently
Re call
Ġdou bles
ĠStat ement
String Utils
Ġbre ast
mux er
Call s
Work ing
ĠTo gether
P ur
Ġfor cing
Ġgather ed
ĠCol lect
Ġrecip ients
Ġprob abilities
ira cy
U id
Ġdevelop ments
ĠConf eder
Ġgo og
ĠK rist
he ses
Ġbut ter
Ġwebs ites
c ms
00 7
Ġ` $
ĠĠĠĠĠĠĠĠĠĠĠĠĠĠĠĠĠĠĠĠĠĠĠĠĠĠĠĠĠĠĠĠ ĠĠĠĠĠĠĠĠĠĠĠĠĠĠĠĠĠĠĠĠĠĠĠĠĠĠĠ
Ġpro tests
ĠMil an
EN SION
Ġord inal
ĠNever theless
ĠCom Visible
ç §
O LEAN
BIND ING
ass ignment
" })
dir ty
OPTION S
ĠC ant
SO CKET
ĠStat istics
H istogram
il o
Ġaccept able
ĠN i
18 8
Iter able
ĠMean while
Ġt ube
En ergy
Ġas h
}{ }
oper ative
Ġstop ping
M oney
incinn ati
M ad
b ane
ĠMon o
Ġqu it
man age
n orth
v k
sup erv
ĠSer bia
ĠA bu
s andbox
Ġf iring
: .
ĠS yn
ck e
ĠDet ail
[ @
ind a
ĠAPI s
ĠCom ments
Rout es
t alk
as ures
omm y
p ix
Roy al
S af
ĠD iamond
corre lation
ĠCra ig
M el
with in
has Class
be ing
áĥ Ĳ
ij k
l hs
ĠRich mond
ĠB our
serv ers
ĠG rey
Ġno except
\, ,
control cap
18 63
ED IT
Ġla ugh
( |
EX EC
ro se
cy clo
Dem ographics
15 9
Ġrec ursive
Ġfru str
18 75
ĠPro to
Ġmultip lication
ĠKen ya
B rows
Ġassoci ations
Ġbon us
Ġin struct
Ġover l
data Type
Ġhost name
L G
ĠC ob
ĠY ii
ĠChar lotte
ĠR TC
ĠT LS
Ġemer ging
Ġwonder ful
Ġb ubble
C ourse
ĠE instein
Ġcom ics
ĠPro test
Ġfil med
) ")
ĉĉĉĉĉĉĉĉ ĉĉĉĉĉĉ
Ġsp okes
14 2
D ummy
ĠP le
V K
Ġre nd
ag h
(" ");
lect ic
Bl ank
m eth
ĠT uple
sp el
Ġpack ets
Ġminor ity
Ġ ë
Ġdis connect
16 7
ĠĠĠĠĠĠĠĠĠĠĠĠĠĠĠĠĠĠĠĠĠĠĠĠĠĠĠĠĠĠĠĠ ĠĠĠĠĠĠĠĠĠĠĠĠĠĠĠĠĠĠ
Ġdetermin istic
Ġpl enty
ĠAlber ta
Ġ{ $\
ĠRe place
get Resource
act ivation
ir ts
Ġengine ers
o ses
Ġancest or
Ġaccompany ing
Second ary
ĠBer keley
Ref s
Ġcode c
WI SE
CA ST
Ġexplo red
Ġ× Ķ
è® ¾
ap ing
ew ay
ĠFinn ish
script scriptstyle
Ġ[ :
M oths
18 83
Ġevery where
Ġeigen value
v t
ĠColomb ia
h azelcast
è ¨
Ġtri be
ar ms
Ġgeneral ization
ĠRob in
pag er
m essaging
Num bers
text Color
Ġge omet
Ġill ness
ĠLeg al
Ġpurs ue
web site
Position s
Ġd ies
ĠPol itics
an imated
Ġ/ ^
P ATCH
ĠPhil osoph
ĠDiag nostic
us c
ov ich
ĠSp ark
t ies
PI X
') ),
C nt
Prov iders
Further more
ĠPref ecture
Ġviol in
Char acters
J ose
P ressed
Ġdec ides
Ġcomplet ing
Ġadm its
Ġmoder ate
Ġmon o
fil m
LAB LE
Ġi Phone
ĠF ormal
Ġor bits
Ġwalk ed
Ġview ers
bu ff
alloc ator
Dr ive
check er
Log ic
h istor
In variant
Comm un
ĠPar ish
ĠB ristol
eq z
ĠNe braska
Dim ensions
urs ing
Ġconstant ly
sym pad
Ġn b
full screen
Ġcomm une
imp licit
18 7
cite alt
Ġco aching
b lo
ĠK ay
und ant
ĠFac ulty
Ġpo ets
Ġde ck
Ġsurv iv
A cknowled
| _{\
Ġcelebr ate
Ġperson ally
d ie
mem Separator
ci pl
DebuggerNonUser CodeAttribute
}) =\
en os
ĠPRO VID
ph al
type NameLink
17 7
is ible
ĠB achelor
ĠE pisode
Ġtax es
× ŀ
ut ures
DO C
ĠPer u
ĠAnt i
Ġoff sets
H AS
Ġ' \\
66 6
Ġinnov ative
roll ment
ĠAuth ors
ĠS core
Ġnav igate
ĠPrad esh
ĠPART ICULAR
ĠS prings
Ġco operation
ĠFe atures
ä½¿ çĶ¨
B LE
ig ion
ĠS ad
j ud
ĠNew Page
Extract or
Ġselect ing
Ġopp onents
Ġtw in
Ġdram atic
ł ģ
Ġatt ending
Ġtrend s
ĠCo al
Ġam et
ĠS afe
UR ATION
Ġca ption
ĠM s
"/ ><
Ġt ension
Ġr ings
lish ments
as ia
un til
over e
Ġside bar
in ode
ĠIllegal StateException
Ġs ugar
ĠN BC
ĠFl ash
Ġlik es
ĠFerm i
'=> '
itt ers
small skip
Ġglob ally
S olution
Ġ" &
ull ivan
ĠPro xy
/ ,
ĠC UR
cont rollers
Feed back
A th
n okia
Ġside Weight
Ġb b
ĠS ony
ĠE sp
ĠSc ene
ĠM OD
effect s
dis crete
Inter ceptor
ĠRoman ian
ĠShe l
able View
ãģ Ĺãģ
he w
Ġg amma
] ])
x d
ĠI B
Ġbro ker
ig rated
Doc uments
ĠSaint s
Ġcons iders
x p
18 62
Ġb anned
Ġe ighth
In spector
List Item
ĠÐ½ Ð°
NS Mutable
ĠB ris
if s
Ġgen es
ĠB ir
Sp ot
Ġabs ent
ĠJer ry
ĠArab ia
Ġf ur
Ġp ho
// -->
ĠV oice
Ph p
W heel
Ġlik ed
he els
ĠG UI
Ġwh itespace
Ġcov ariance
ĠM UST
Check Box
ĠEq s
ĠCost a
ĠUn icode
connection s
ĠPerson al
ç Ĳ
Value Type
ĠComp are
h ive
k v
¦ Ĥ
Ġc argo
Ġmut able
p ersist
Ġb s
ĠS IGN
Im mediate
ĠCh anges
F ULL
Ad v
Char les
ĠSte vens
ĠZ ero
Product s
sph inx
ĠJ ama
Ġen emies
; ",
olo ad
} <
Ġcam eras
indu ced
Pro b
Ġ{ *}
tr insic
Middle ware
Ġterrit ories
Ġs pr
ĠSym phony
w r
de mn
ĠW riter
ĠT ib
Ġm eth
ĠEd wards
ta ken
pr im
ĠSh ang
Ġris ks
h istogram
Gu ard
inal ity
Ġfull Comment
ĠR C
RE L
ĠVAR CHAR
ĠH udson
AL LOC
Ġsent enced
ov an
ph on
Ġdifficult ies
ĠIMP LIED
t ips
PRE C
}) ^{
Ġconnect s
anc ers
Web Kit
Ġlimit ing
u u
Acade mic
H i
IP S
:: __
pro files
Ġb ary
header link
w rapped
am ination
Ġsh ots
target s
ĠSim ilar
Ġsub mission
Ġmechan ics
Ġscient ist
ĠS ales
ĠFran ces
Ġmanag es
ĠB B
m art
ĠFil ip
ĠGra de
Ġag gregation
Ġartifact s
Ġmand atory
im i
ij i
Stream s
Ġlabor atory
Ġgraph ic
(' %
Person nel
Ġpack ed
In fl
Ġwire less
align ment
hel m
ĠQue st
iet ies
ĠAm sterdam
Term s
olog ically
F riend
Ġal arm
Ġdis aster
N L
Ġchar s
Ġu k
Ġanaly tical
Condition al
J P
j peg
Ġhe ll
ĠTh ank
) _{\
i ology
¶ </
ĠEcon omics
ĠGe o
Ġharm onic
Return Value
Ġoccas ions
F acebook
r gba
20 6
Ġassert NotNull
DI F
ĠDo ctrine
Ġhon our
r ations
Date Format
ĠS PE
Ph ys
lap s
Al umni
ĠF if
Ġphys ically
Ġorig ins
Ġannounce ment
ĠKe ith
Ð» Ñı
2 33
ĠS eb
Ġtrans ient
register ed
Ġh unt
stri pe
T ap
[ ![
an z
Ġse ctors
ov en
ĠTool s
Ġn d
illi e
T G
Ġen zym
ĠB ool
Ġact ed
Ġadjust ed
maint ainer
Ġport al
Sche duled
inst alled
Ġsl ider
strict Equal
15 8
Ġ Ùħ
Ġch ron
ĠRepublic ans
Ġfail ures
r g
ĠD ou
In side
Ġb ay
Ġde fer
est ab
C atch
tright arrow
++ ){
I ss
Ġp ose
nt z
Index ed
Ðµ Ðº
Ø ¹
us a
loc ator
A mb
ĠA bs
cached L
M ur
R ULE
amp ing
github usercontent
sp rite
Form ats
ĠCl one
Ġchampionship s
Ġport rait
1 200
j ab
upedia Data
cachedL upediaData
Ġexp edition
deploy ment
P ick
Ġthe at
ĠP K
------------ ---
ĠHigh er
ĠMark ov
Play ing
Ġprom oting
ord inary
currentTime Millis
in struction
ĠNichol as
ST OP
Ð¸ Ñģ
Lif ecycle
ĉĉ ĠĠ
ĠC u
Ġqu ad
B ay
le f
Ġtranslate X
ĠPl us
ĠQu ick
Ġinc idents
MEM ORY
def n
H s
re tr
ĠB ath
18 78
Ġunit ary
am pton
id ency
symbol s
Ġsole ly
reng th
(" _
Ġj int
ok i
Ġsem antics
display math
play ing
Ġam big
Ġdon ated
Ġinflu ences
Ġanaly ses
Ġremark able
ceed ed
Ġ á
BUT TON
Ġconj unction
ĠPo isson
â ĪĴ
Ġj ack
stream s
Ġg host
B ug
Î ¸
Ġe leg
del ivery
uch i
N s
Ġt ies
ĠF iction
ĠSy rian
Tra it
18 76
Ġf ract
W F
ar an
y ield
ĠG row
à¥ į
F OS
ĠL ot
Ġload s
AC L
fe at
Ġpeak ed
al am
FI X
ĠG alaxy
ä ¾
S leep
Ï Ĩ
Ġas ynchronous
Ġcloud s
Ġb le
ĠMur phy
S ir
Ġtra ces
ĠV e
ĠUn known
. ).
dim ensions
ifest yle
int endo
Ġj ournals
le an
Ġmathem atics
EN ER
30 2
L ondon
len ium
Ð¸Ð ¼
lovak ia
A sc
lo sing
ex perimental
ĠB urg
ess a
= /
B rand
Ġh ls
Ġp g
ĠLabor atory
Ġinterpol ation
Start Time
Inter action
l ishes
Ch an
p ixels
Ġg all
ĠL ux
With in
ne z
We ather
ĠM all
Ġvar ied
at tack
Ġagre ements
g old
Not ifications
Ġitem prop
16 3
ĠInd ustrial
G ap
N ick
">Â ¶</
ĠPer iod
m other
test ng
el ly
ĠD b
ts a
opt er
< >
p ark
s ized
28 8
cknow ledge
c ards
s ensor
Ġqu otes
ĠV as
Ġele ven
Ġexec uting
CHAN NEL
P ers
ĠPerm ission
SE ARCH
Ġnumber Of
Ñ į
inter pol
b io
lo ve
ĠB og
15 4
Ġt p
\ }_{
iv ar
ĠC atherine
Bro ker
I OS
Ġre b
ĠMad ison
ä» ¥
Ġconn ector
ĠS id
Ġliter ally
Ġspeak ers
ll ing
ĠWar ner
Ġcous in
In str
Ġrat ings
mem name
Ġo w
Ġhistor ians
Ġflex ible
ĠNot Implemented
Ġreserv oir
Watch er
nol imits
v d
ĠT ru
ach i
C MAKE
le asing
'> ;
ab br
ĠG arc
ap on
ĠIn f
& -
ol ine
up pet
acion es
ASS IGN
ĠF u
Ġparticip ating
S py
position s
S PI
ĠT ouch
Res ume
tern als
st own
claim er
D ock
G al
tra ined
PRE V
t ically
ex cludes
ĠN amed
........ ........
Ġcommun icate
Ġh opes
Ġarchitect ural
Ġ========= ==
re cent
Ġmin isters
Ġc ow
az ard
ĠG ene
ĠN A
bol ic
material ize
s ens
icen ses
Ġal ien
Tw itter
ĠT S
ĠG ay
Ġsl ots
ĠPer ry
Ġlight ing
Ġcos mic
ot hes
log out
Ġmon arch
_ "
init With
Ġhighlight ed
~~ ~
map reduce
ND ER
ĠOver all
Foot er
ST AMP
ĠS ak
ĠT on
({ '
P ing
ĠS PI
Ġ} ];
Ġl p
Ġuniqu ely
g ie
ĠA zerbai
he size
Ġident ifies
ĠN g
ĠP ick
ĠF ailed
mod es
Ġt ons
âĢ ī
Ġgl ad
EX PECT
} ],
S nap
36 5
Ver b
ĥ ½
Ġs ax
ĠE ston
Ð°ÑĤ ÑĮ
G F
Ġspac etime
ere al
ĠB undle
M ale
Ġ( ).
ĠS olar
Ġr ated
Ġinter sect
ĠE u
Ġhe ating
Ġh r
un ches
Ġam ateur
he e
_{ [
ĠĠĠĠĠĠĠĠĠĠĠĠ čĊ
ĠP NG
ĠK i
C XX
b ias
ta wa
18 79
m ics
Å ¼
Ġround ed
Con current
akes pe
P ersistence
v codec
Ġb orrow
Ġdis joint
Ġsustain able
Ġmunicipal ities
ak t
Default Value
ĠN UM
ĠM otion
w at
ĠS UB
un wrap
ĠY am
Ġs ampled
col og
An not
Ġout break
Draw er
d ap
Ġab ilities
Hook s
k al
\, {\
ĠMax imum
" \
ari ans
Ġsec ured
ĠW restling
hard ware
P END
Ġtown ship
ĠB atch
UI Color
est imate
Con struction
orph ic
ĠTer ritory
ST YLE
Ġind ustries
ANGU AGE
SE PAR
ĠCub a
ab ar
Ġph on
ĠL ists
>: ][<
Ġtx t
Ġgold en
con taining
Ġover come
As sets
Ġg enu
Ġch iral
Access ibility
Ġillustr ate
ĠLar ry
Ġal gebras
>? [<
Gre ater
Ġfight er
Ġinn ings
T el
aut om
"] :
hen g
Ġgr ants
Ġse eds
ĠIn s
Ġaux iliary
] '
B ootstrap
`` .
Is rael
ĠBor ough
ĠEth iop
G rand
Ġin finity
18 5
PLA CE
Ġc oding
Ġdep ression
Ġor chestra
18 77
h ou
ah l
Rot ate
D ie
Ġ( []
gol ang
Ġsh ard
V ED
Ġo d
Ġs urrender
E con
big cup
ĠInst alled
Ġsurvey s
C LE
mine craft
Ġ utf
z eg
Aut ow
ĠF O
Ġmanufact urers
| =
bro adcast
Ġf usion
Ġf ires
G uest
is cal
Ad vanced
F lex
Function al
ĠBuff alo
ins ide
ĠCl are
ST AR
ĠEx tra
Ġmed als
"=> "
akespe are
Ġcolle agues
ĠURL s
G RE
Ġext ensively
power ed
18 74
18 71
pack aging
Ġweak ly
Ä ĵ
Ġd inner
ĠB ear
ĠB aptist
ĠF act
Ġbr illi
sub stack
Ġdu o
Ne eded
dela ide
Ġcontrad iction
. %
Ġh urt
Ġdescri ptions
Ġguide lines
get Content
w c
Mark up
ĠH RESULT
ĠSh aw
Tab Index
Ġper ception
breadcr umb
Ġm arch
ĠJ oint
ac i
edit able
AL IGN
ĠTo y
x sl
E lection
Ġful fill
m ud
ort ion
Ġequal To
ãģ «
Pointer Exception
ur bed
comp at
... ]
ĠForm ula
D evelopment
Ġl iv
ĠK in
ist ing
Ġsub sets
Property Name
Ġpl acing
Ġge odes
ellig ent
Ġfl ights
g wt
ĠM ul
Ġfor um
h all
Ġfor wards
Ġb a
assert Same
Ġsens ors
C fg
insert Before
Ġp arks
ĠB aby
(' :
Service Client
Ġde lim
te enth
Ġcab inet
ĠEx pected
ĠLOG GER
Ġdef ending
Christ ian
}[ !
ĠMap s
ĠPhilipp ine
Register ed
agent o
i ov
ĠH ob
ĠI da
Type Id
co ords
Ġrail road
ĠR ules
us hes
Ġp references
ĠV lad
Ch arts
ĠH tml
spec s
b h
PE D
Min or
ĠK ate
get State
ass igned
Ġcontrib utors
ere f
Ġres ume
raw l
Ġcoal ition
Prec ision
uls ion
) !
c ia
per iments
Big r
ep a
q p
ene ath
ra ils
che l
ĠT as
ĠMin i
y t
ĠL loyd
um bo
ĠL ions
Ġan ime
cos ystem
N Y
ac les
Ġcons olid
u o
As pect
Ġanalog ous
p v
= -\
C rypto
ĠR OW
Ġhelp ers
Ġconfirm ations
Ġn pm
top Nav
Ġreflect s
TRAN S
Nd Ex
ĠDen ver
cre st
aur us
Recip ients
Ġincomp atibility
Ġco herent
23 5
ĠT ang
Ġagre es
Ġcorre lated
Ġenter prise
s ix
. #
Analy tics
ĠBlo om
ĠB R
ĠJ OIN
18 67
çĲ Ĩ
Ġa xi
tag Name
ĠFish er
Ġf unny
PACK AGE
al ym
ip v
ĠArab ic
OP TS
Ġcal ibration
K B
Ġpreced ing
Ġtoler ance
ç Ĥ
ag ar
ĠSh are
avi our
loy ee
Ġemph asis
ĠE mb
cli ents
ASC II
A sp
ÑĨ Ð¸
Ġtab index
Ġ Ú©
im eter
get Parameter
Term inal
n z
Ġview ing
L ove
Ġbo ss
Ġfore ver
' ^
Ġover w
Ġlab our
Ġre build
ĠM asters
ĠLo op
Ġoptim ize
l ng
Class ification
Ġthink s
Ġminim ize
prof iler
ĠRem ember
FILE S
H F
Re covery
}} /
Block ing
ĠMer ge
Ġefficient ly
ĠUP nP
ast ro
Ġz ones
ĠV ec
Ġact ivate
ĠTer ry
k ern
Ġal phabet
ast ed
pro cessed
sp ro
ĠL arge
CO UN
ĠScient ific
math it
Ġr iding
Ġaccess or
ĠCal culate
18 72
et e
Publish er
ĠV ent
Ġre use
tr unc
Ap J
ug o
18 68
IV ATE
Ġdoc utils
Ġdiss ip
Ġfor k
string u
doc utils
Ġâ Ĥ¬
Bal ancer
Ch inese
ĠC ou
table Name
5 50
ĠPh ase
Document ation
Ġf ert
ĠPh ysical
Ġc ock
m ile
x b
ĠAv iation
I ce
ph ones
( **
cess ion
flu ence
Del ivery
sub equations
ĠAl ong
ENT IAL
Ġcontact s
ort on
bottom Nav
Ap ps
am ation
ĠC amb
ĠSh ar
Big l
Bit coin
pattern s
ĠP au
Ġel abor
Con serv
comp arison
leq slant
B inder
Ġdata Type
il ia
ĠJ oin
ĠCh i
Ġpremi ere
. (\
cal cul
Ġenumer able
ĠD ET
Ġhost ing
ps y
Ġconver ges
t id
Ġst rain
ĠM ask
Scal ing
R IDE
23 4
ocol ate
Ġcontinu ously
ĠHand ler
Ġtim eline
e ah
Ġim per
IC ES
wallet Main
H ung
ĠPl anning
ow l
& )
de comp
PY THON
Log s
ĠCan al
reg ression
Ġocc urrence
Ġc ust
ĠE M
Ġconsum e
Sm ith
Ġsh ifts
Ġin ventory
E lect
ur an
Ġdo ctors
Ġcl an
Ġpre liminary
Ġconfig urable
IS ING
ins ky
ĠGener ator
ĠInput Stream
Ġre lies
Ġv endor
Ġvol can
ĠSign al
dev tools
Level s
Ġprotocol s
ĠB inding
ij a
Ġdist inction
G lyph
Ð°Ð ²
w itch
w char
Ġt ex
ĠAl ways
Ġinternal ly
Ġexam ined
J K
Ġd uplic
ĠG URL
Ġover head
Ġhighlight s
({ "
ĠCre ative
w ang
Ġun changed
: $
v iz
Ġjo ins
Ġf p
ON SE
DO UBLE
mathbb m
ĠAv ailable
Ġchem istry
ĠBy tes
od ore
Ġeffect iveness
Ġhun ting
Autow ired
Ġfix es
Ġen abling
SECON DS
b abel
box es
ek yll
;-> <
Te X
footnotes ize
at um
ion es
ĠH aving
ol ph
ĠLu is
8 000
it ution
ĠS ynopsis
re presentation
ĠOper ator
Tax a
g host
N AM
ĠC riteria
Pres ident
ĠL isa
Ġbo ats
Ġenumer ate
Ġt aste
ĠR at
Ġstat ue
Ġattract ive
P B
Ġadmin ister
Ġde liber
TYPE S
ĠSTAT US
ĠC urt
add y
Ġqual ify
Ð°Ð½ Ð¸
Ġf illing
Ġmem ories
ĠP icture
ancell or
oper and
initial izer
-- )
Ġ ])
Ġown s
Ġtherm od
ep och
tra vis
="@ {
Ġste ep
Ġfest ivals
Element Type
ent ine
Ġsp acing
Ġg c
ĠV ULKAN
Ġ* (
cap s
Ġtranslation s
Ġvent ure
CT RL
ĠF ITNESS
Ġlast ed
ai ro
Ġtradition s
j er
amar in
ch r
ĠLO CK
^+ $
H op
Ġsurpri sed
Ġren ormal
ĠCustom er
re name
is se
as se
ask at
Ġrep lica
om es
av an
ĠEag les
Ġshort cut
Ġact ively
18 73
Ġmem o
uck land
Ġdol or
key Code
ãĢĤ </
Ġnomin ations
J im
Ġdis missed
Ġdisput e
n h
st ellar
Error Message
Reg Exp
bra ham
XX X
SA MP
ĠAt hens
ĠW onder
UT ION
Ġs ou
Im ports
empl ar
W at
Al ways
Ġjuris diction
F iction
im ap
Ġform atter
Ġtr iggers
ĠNe il
ic z
16 1
Ġte a
64 0
Ġcontinu ity
avor ite
IST ER
ĠM ongo
Ġcon clusions
Can onical
M is
ç łģ
Ġle an
ĠPol l
Ġif rame
R ol
Ġt ap
ĠRog ers
ĠFR AME
h ang
ĠM ann
re pr
ĠWork ing
G reat
Ġamplit udes
on ta
Ġyoung est
st retch
Ġv in
fo od
P NG
Ġtool bar
Ġ` .
Fl ora
^* _
åŃ Ĺ
get Column
Ġvolunte ers
Ġconcat en
find ViewById
op ol
OG LE
g ames
Ġm im
activ ated
Ġsear ches
ach t
Res erved
åĽ ŀ
Ł ¥
ic us
ĠCour se
if ace
vers ations
che v
\| ^
COMP ON
Prof iler
Ġem itted
lic h
ĠLa ura
Ġprom ising
dist ributed
Ġf irms
Ġchar ter
Ass ume
ĠCont ract
Order ed
Ġvan ishes
ĠPro blem
Let ter
ĠCont emporary
Afric an
V iol
ãĤ ¯
ĠCru z
ring ton
Ġtermin ated
Unmar shaller
/ ",
\ }}
Ġa ster
Ġsw itched
ah an
ĠSH ALL
des erialize
f ixtures
on load
ĠM uch
Ġmain stream
ĠN GC
exp licit
Click ed
b ill
im mer
20 9
PASS WORD
arg c
ĠSe an
Ġphys ician
t icket
im ode
ĠY ugoslav
Tr ust
Return Type
Ġsup ern
ĠR achel
Ġan isot
Ġexec utable
Ġd d
Ġimport s
Ġn aming
Ġprogress ive
E p
Dev ices
ĠS oph
iag o
ĠUn fortunately
Ġcomm emor
ĠE mber
Ġconf usion
Ġneighbor ing
c ats
Ġm b
ĠD eveloper
s ink
ĠBu ilt
field Name
ĠCo hen
Version UID
, &
o ad
Ġtra veled
em ens
bas ename
w al
ig ue
ĠC B
ĠH ook
ĠCon sumer
Ġp x
_{ -\
Ġorient ed
, ~
L uc
ĠS alt
ĠA PP
ot ives
less ly
' $.
n atural
ãĤ ¤
ĠMult iple
0 12
ar x
Ġb ridges
eg u
Ġm anga
ĠA aron
an de
+- +-
ĠS cale
ĠN HL
Ġb ash
iv ariate
ew ise
ĠBE GIN
gr p
Ġhealth care
ĠMont ana
K ar
oc co
pot ential
Ġir re
ĠReview s
c annot
é ¢
ĠC ould
Ġsub t
serial izer
ĠM T
ĠS ah
Vert ices
Ġbind ings
Ġth reats
atern al
en es
K K
ĠK ill
Ð¸ ÑĢ
ĠH em
Ġab brev
Ġsub tract
)= (
Ġre min
ĠO Auth
str cmp
not in
O l
W C
Ġm amm
z ig
Ġam pl
ĠC ome
Ġde emed
Prof essional
ĠAt tributes
Ġparliament ary
ĠRunn able
Ġad mit
ĠBer g
Â ®
yd ra
Ġfast est
im on
17 8
ĠW ire
ĠMor ning
m irror
Ġc hest
ag le
ï ¸
Ġspons ored
Ġsynd rome
CONTRO L
C ref
ĠQ CD
ĠD ennis
L atest
è ´
Ġcol ours
ic ul
16 2
tol ua
po ss
ç¤ º
Ġclass ifier
ĠS plit
Ġin complete
ĠB uch
18 66
Ġconfirm ation
B on
ĠHol land
Ġtraject ories
" '
ĠK id
R ating
ĠC ut
Mov ie
ĠR FC
custom ize
Check point
Ġa z
s lick
Arch itecture
cxx Function
Ġrep lication
ax es
uzz y
Ġoccur ring
or bit
ĠAdmin istr
Ġv ibr
Ġcou plings
Subs cribe
Place holder
Ġun cle
Ġcol s
Ðµ Ñģ
f link
Ġsl ides
Ġinst ability
Ġbe ating
Ġinn oc
cre ts
LAB EL
Ġm ysql
Ġde light
D roid
f req
g rant
Ġf led
ĠH IV
ĠBig Decimal
Medal ists
Or Builder
Ġimp lications
ĠSpec ifically
ĠT IME
Ġplan es
R P
Ġtr ump
Ġk inem
Ð Ĵ
Ġget Type
est amps
con verter
A H
Class Loader
16 4
Message Box
tra it
al ib
Ġr b
ĠFi refox
ĠA str
Th anks
ĠRep ository
ĠCamp us
Ġdedu ce
it ian
ĠSc roll
sc opy
Ġdifferent ly
ĠWat son
ĠS ox
ĠCh ap
17 3
ĠR idge
}{ *}{
Ġen velope
Ġlocal ization
M ex
res ume
S ynchron
ĠHar vey
ĠF ed
Se ed
Ġbehavi ors
Ġgra in
ĠA G
Ġv ital
ical s
He art
ĠImmutable List
é Ŀ
ĠB orn
ond s
Ġproject ive
bat im
For Testing
D WORD
th ink
ĠM echan
C riterion
Ð¸Ð ¹
ĠTest ing
DA Y
ĠArg uments
St ory
Ġscreen ing
Ġthick ness
Ġrev ised
iz a
Ġcol ony
ru id
Ġrecommend ations
4 28
ist ani
Ġf t
pro ve
ĠGuard ian
rema ining
"> ()</
Ġmyst ery
Right arrow
Ġsynt hesis
or ian
class method
A x
Ġcol lector
J oint
Ġtravel ing
Ġstruct ured
Exist ing
A wait
Ġ ^{\
ĠG B
Ġimm igrants
Ch apter
ĠS oul
lo de
ond o
ĠG len
18 69
Ġtra its
f lip
un s
from Now
Ġorgan ised
typeName Label
av ery
Ġmeaning ful
". /
Ġconf used
c ott
Î ´
ig g
trans lated
ĠR oche
H ours
ĠM aced
break ing
subs criptions
åĩ º
Ġmart ial
get Child
ĠW ant
ld ap
Ġsimpl ified
f loating
ĠGon z
ab ol
c ube
uzz le
R x
ĠIn stit
Ġarr ives
Ġscal a
ĠBeng al
form ats
">Â «
Unity Engine
Ġor n
Bra zil
e asy
ĠP enn
Ġapp ended
Ġmurder ed
Ġ< >
Ġfacilit ate
Ġ Ïĥ
ch apter
18 2
Ġm ad
Ġbefore Each
Ġvel ocities
ĠIn clude
NS Dictionary
Ġ' +
aut ore
xx xx
Relation ship
18 40
Ġaccept ance
Sing leton
ourn aments
SUP PORTED
F ort
p assed
Ġv i
ro e
Reduce Action
Par sed
Ġ' );
ust ain
30 3
ĠAl pha
bo at
ĠTr inity
Austral ia
ul ers
az i
Pro be
Ġd c
Ġ( .
()); </
} &\
ĠP ool
ĠR F
ens on
ĠM ig
ĠN umer
Ġrom ance
ĠA CE
ĠCl aret
Ġexhib its
H AN
K V
m us
Ġr ice
ĠSer bian
Ġw restling
ru it
au kee
Ġf lip
Ġl ingu
Ġpop ulate
SY NC
Ġdist urb
Ġin ser
ĠStr ong
ro gen
Ġhospit als
Ġw p
ĠC V
ok emon
at tempt
ĠO VER
Ġsim ulate
S on
Ġdis sol
S CHE
ling ton
get Bytes
is ers
ind ed
ĠQu arter
ĠK ra
ĠInter est
ĠMark eting
Ġt ours
mention ed
ĠCam eron
H alf
). __
ĠGh ana
ht c
ĠP ipeline
Ġproof s
Ġe ating
Ù Ĥ
Ġreg ener
> ().
G PU
b undles
ĠC Tx
ĠW u
Col s
40 5
M appings
ĠL if
Leg end
ĠFe ed
Ġb er
ĠF BI
Ġtra it
Ġpat rol
Ġvar ieties
ĠBuffer ed
port al
ĠG olf
ĠO scar
view er
ĠUp dates
r ition
ĠWh ich
Ġdis miss
Ġquot ient
M aker
ĠA CT
Ġst olen
M aint
ĠN ak
Ġper cussion
ph ra
comp oser
(' [
Run nable
Ġplay offs
Ġcy clic
Ġvo ices
ĠA u
Comp ound
a head
x it
Ù ¾
}} =\
ĠDel aware
Ġsent ences
ĠR iemann
On ClickListener
activ em
jd k
: {
\, .
Ġpers u
Ġmil k
ac ular
ĠHel en
M g
Ġid le
Ġb ip
lf ind
Ġmuseum s
Bl end
Ġguarant ees
Ġeg gs
P iece
Sim ilar
Ðº Ð°
AT FORM
ĠDemocr at
P ager
um ann
Ġj ury
\\ \
may be
Ġen demic
} ");
Ġb read
EN O
Ġtrans mitted
dir s
i oc
quant ity
N othing
cri bers
comp uted
@ ",
Ġdiff ers
Ġstri king
` );
ut ton
}} ,\
Col our
Ġem issions
f ielder
Ï ĩ
Log o
ĠS ame
Ġh align
ĠL ength
Ġelimin ate
ĠA round
Complex ity
Con tainers
Ġp ace
em e
ĠL iga
ä¿ ¡
00 6
Re verse
**** *
vis ions
Runtime Exception
Ð ¹
Ġdr ift
re search
ĠHe avy
cond itional
Al ive
Ġdec oding
ĠDA MAGES
ĠNep al
+ =
ĠIN CLUDING
r ice
function al
) |\
at z
Writ ten
orph ism
ĠStan ford
re ve
con j
arn ess
pe m
Ġlink ing
c ass
st a
È Ľ
Ġj ail
ĠRepresent ative
Ġhon ors
ĠD yn
LA S
Ġtransform s
Anim ator
ĠK ol
Ġmark ers
Tim ing
rf loor
(" ",
Ġb unch
Ġkit chen
DE CLARE
Ġdec oded
Ġprom ises
T B
ber ger
Ġdemonstr ates
C andidate
ĠH ide
or f
is Null
8 90
Ch ina
b urst
Ġconsum ed
Ġpl ural
Ġdr ives
pl aces
Cho oser
Ġprepar ing
CI AL
ĠMoz illa
ĠW heel
Min utes
Ġdecre ased
Ġel s
uint ptr
Ġgradu ating
( /\
is Function
rem oved
Ġbright ness
ĠR outer
Qu ad
Ġimm igration
ï¸ ı
W as
ĠB eth
Ġfavour ite
am y
ĠF etch
bell ion
/ &
] []{
Ca ption
Aud it
ĠUE FA
t lement
so ap
")) )
R D
ĠR ivers
Ġbelief s
e o
uck er
ãĥ ĥ
Ġsub class
Ġcall able
Ġsus pension
Ġcompens ation
ĠCon sequently
ject ed
A cl
re ts
Ġmod ifier
Ġappro ached
ĠWeek ly
elect ron
Ġretr iev
C AN
Mark et
fall back
st raction
ĠT ol
Ġ" ."
Ġr itual
as ym
get Last
illi an
as pect
Ġline arly
Ġindu ces
ĠEnter prise
ĠPhilli ps
n od
Ġgrand father
Ġdes ktop
Q A
Ġch ronic
not ifications
net s
kn ow
Ġsus pic
Ġ` <
ĠY ellow
Ġd p
div id
Ġart illery
Ġn ic
ish a
` ;
b illing
PH A
' )$
ĠSlo ven
Spec ies
Ġprom ised
Ġle ak
ci pe
check ered
S a
ist le
MB OL
ĠPROVID ED
w izard
Local ized
ing o
Ġsome how
Property Changed
Ġcult ures
ĠFil ms
Ġj oy
ĠPro vider
Ġback wards
name of
ET HER
By Key
ĠMun ich
Ġsub section
Drop down
ĠLI ABILITY
er ious
Ġth rew
ph ant
mark up
Ġvulner able
( ...
A ML
z el
St encil
Ġsh oulder
Ġ========= =
Rec v
Ġveter an
C U
Ġd rain
24 5
Ġcore s
I VER
Ġcont rolling
ur as
ĠS ig
dis pose
Ġout door
ĠIn n
Ġperm utation
pym el
& $
p mb
et ta
ĠEx pect
Ġhand ed
ĠD ise
Ġcon formal
M u
Http Client
DEFIN ED
h ours
ĠC ox
Seg ments
Ġr and
Ġprov isions
cook ies
Place ment
Ã ¯
H our
um m
Ġj ew
ĠDis covery
ĠH ugh
ĠAd miral
net ty
Ġleg islative
Ġsign atures
Ġt ribute
Ġro ster
Ġdem ocracy
v l
p reference
Ġnegot iations
F raction
ĠF ill
file path
Ġpropos als
$ _{\
get File
Ġ{ });
Ġo u
ĠS ou
dot net
18 48
P rem
D ROP
Hon ours
20 7
Int Ptr
tr an
17 1
ĠConserv ation
Ġsk etch
Jew ish
M ary
T rad
in ating
ĠE uclidean
Ġaffili ated
sur ance
ĠPalest inian
T reat
Ġt ale
Ø§ ÙĨ
lf loor
ik ing
Ġg rammar
= (\
Sw ed
mid t
Ġcomp ounds
Ġcelebr ation
Web API
b org
ĠD evelop
Ġst derr
ĠIn struction
ert y
urren ces
Ġm igrations
ĠA DC
CT L
h ort
m peg
dd d
ick ets
Ġcon vey
}_{ {\
WR AP
Ġaccur ately
Ġbroadcast ing
Contact s
Dig ital
ĠS ultan
iv odes
ol ly
ĠS ierra
ĠC es
ĠH amb
Ġpe oples
match ing
Ġp ale
am d
leg ated
18 6
Ġsqu ares
ĠCh at
ĠJust in
Ġ*/ ,
Ġintrodu ces
à¥ ĩ
file set
ĠWe ather
Ġcam ps
ĠA delaide
22 22
ĠBro ther
Dist ributed
.. "><
Ġchunk s
ĠC incinnati
J O
u ated
ĠO ri
Ġcontinu ation
ĠCons ult
Ġdro ps
="../../../../ .."><
ĠS ed
ok o
Ġsk i
Un ary
te in
iter ation
Ġcollect ing
! ",
Ġsh ops
set Enabled
ĠInst agram
ig uous
Ġconcert s
Ġcros ses
Deserial izer
Ġsquad ron
ĠCom merce
Ġarrang ements
Ġc ave
Ġs isters
ivodes hip
g ency
key down
ToolStrip MenuItem
D MA
) ])
Ġb ins
ĠRel ations
az ar
P ixels
oc hem
Ġpotential s
ĠBob by
com bo
EN C
Ġsimpl ify
ĠAgric ulture
oc am
Ã¶ n
ĠChristian ity
Ġtrib es
ul ators
Ġ$\ |
s low
ĠCOPY RIGHT
T ail
} ~\
ĠIce land
Ġb rew
áĥ ĺ
Mus ical
Ġbu ff
develop ers
[] []
Ġl ig
ĠAg reement
Ġed itors
SPE C
++++ ++++
H ive
WINDO W
= $(
Ġw s
w aukee
Table Model
ĠAng lo
r n
Ġev ac
Ġtele phone
bu ck
Field Name
ne eds
Ġtrack er
var pi
Is olate
scroll Top
Ne ed
L ie
sh ops
ĠRequ ire
Disc ography
Ġl ac
dis connect
Ġexec ut
sell ing
] ^{
Ġbel t
v dots
R uby
Ġ ----------
ĠTh ink
Ġsupp ressed
yy yy
ch k
ĠB S
Ġpre st
={ '
FI RST
Ġle ase
ĠLuc as
r q
p it
Cell s
Ġorigin ated
ain ter
Ġsl aves
c ould
ĠQ R
Ġanim ations
pp le
ST ACK
ĠFor ward
× ĳ
Ġdiscr imination
ĠE L
ĠSte am
Americ a
F rance
H old
Ġexam ination
A ust
itud inal
Sim ilarly
Ġlat ent
Ġfraction al
spe aker
B a
op ing
Ġult ra
="../.. ">
an onymous
ĠR M
Ġz eros
ĠScal a
sp atial
TRAN SL
ĠP rest
ĠPen insula
Ġinject ed
st udio
Count s
Ġh itting
ont ology
Ġy esterday
ĠUp dated
Wh ich
Ġwalk s
Framework Bundle
ĠF at
Ġdiag nosis
åī į
Ġbu ying
ĠSo on
Access Token
L ost
l is
ĠTh under
i ance
Ġgroup ed
assert Is
ĠMar io
Ġl ip
O Caml
r k
set ter
Ġint ra
Ġ` ${
in us
Ġexpect s
Ġaccount ing
ĠL is
ph inx
From String
Ġpl ug
Ġthrow ing
Ġserial ization
activem q
Ġinit i
Decor ator
sk a
Ġserial VersionUID
Ġperturb ations
ĠV eter
Ġharm on
iline ar
def s
}) _{
d ifference
ĠP av
Ġde formation
col our
Ġsim pler
Ġexha ust
Prom pt
P arsing
RAN GE
Ġb ike
Ġob sc
ĠInd icates
} ):
× §
Cap ability
ĠCorre spond
ad as
Se veral
ç ¼
Ġoverse as
ĠN athan
19 1
Ġare na
Ġar ises
Ph ysics
) ((
Ġn m
pack ed
18 9
Ġen force
Ġwor ry
$ ('#
it on
Y ARN
de tach
ĠS oci
oun cy
Ġten ure
Î¿ Ïħ
. }\
Ġext inction
PRO GRAM
S LO
), (
dis c
ĠPer form
ĠArt ists
up id
Ġda emon
ĠF ra
p refs
RE NDER
ĠVert ex
E sc
start swith
UST OM
cre ator
n umpy
not ice
ĠEn cyclo
ingu ished
Ġcivil ian
: _
Re public
Ġsegment ation
ĠComp iler
Ġident ities
dig it
file Path
åŃ ĺ
D H
ĠD od
st ead
PHP Parser
B bb
ar as
Ġexplos ion
g uest
ps z
Ġret val
ĠTransport ation
R DF
Ġswe ep
or ious
ĠUS ER
ĠMunicip al
ctx t
h orn
p lex
Ab a
)} _{\
K L
class ification
ĠJeff erson
ĠE uler
Ġens uring
J ar
Ġip sum
æŀ ľ
in fin
inter est
Ag ain
schema Location
Con d
Ġimag inary
Ġautom ated
N u
ĠCh and
v skip
Ġcontr ary
Ġpo ison
met ry
Ð¾Ð» ÑĮ
Qual ified
spr intf
Ġexp ired
= ['
sh i
Ġscholar ship
all ing
Ġj ar
ott ing
Ver ification
itel ist
g dx
Resource Manager
Ġh ab
Ġsw ift
be k
ĠMet al
Ġdis placement
ĠSh akespeare
ĠRep resents
Ġpod cast
Camp aign
ĠA uckland
over set
ann i
? '
at em
if ice
' $,
Ġm v
Ġed itions
H yper
ĠB L
ĠAn im
Real m
ĠN ET
big array
T icks
che my
ch tml
bind ings
T ech
f u
sv n
Ġsuggest ions
ĠVerm ont
% {
f ab
s ched
Ġd in
ĠP ent
iz za
Ġa mp
Frame buffer
ĠRetriev e
Ġl ung
print s
find utils
associ ated
ĠB in
Ġlocom otives
ant lr
ĠÎ ´
S parse
ĠH av
Ã© d
itte es
Ġfind utils
ĠA ber
Ġbad ge
the se
ä¸Ģ ä¸ª
f ollowing
ĠInt el
ĠGener ation
it ol
ĠA ld
Ġar rows
Ġphenomen a
ĠBris bane
ak ov
Ġatt itude
Ġanal yst
Or Default
ĠCh a
âĢ¦ .
Ġsettlement s
re ck
User Name
gom ery
Ġcert ified
ĠN y
ugg ed
Ġburn ing
Ġdist ant
NS Array
Dec ision
RE LEASE
dis p
Change Listener
Sto ck
Ġdem olished
en viron
ĠM M
Ġshe ar
E B
Ġstart Time
mut ed
en i
id ay
Ġdec rypt
ĠM ine
og o
25 4
ĠAb bey
glob als
accord ion
Ġdec ays
e lected
ag gregate
Ġex terior
18 59
ash ing
ĠNE W
in str
ay er
Ġso ap
Ġposs ibilities
T IP
X tra
ig rant
ĠShe ll
Ġover write
Ġmut ation
pol ar
g as
Ġt weet
m gr
le en
qu in
Ġsp ir
Sol r
Ġw ard
tr ust
SE QU
ĠDET AIL
ĠC itiz
Ġst ride
erm al
Ġhom ot
Ġinteract ing
Ġbl ues
arr ison
top ics
Ġrad ar
STR A
SEPAR ATOR
Ġ rib
Ġtra ded
Ġres olver
Ġcom ma
($ (
Ġback ed
Ġre built
ĠCh apel
number Of
ĠVo ivodeship
c andidate
ĠCom edy
)) ]
ĠA my
Upper Case
Clean up
ark er
ag ers
ag ain
lev ance
ab we
pro jection
R V
Ġant ib
Ġtest Get
pri ses
Ġdescend ants
v id
Ġc ant
Ġp it
ira ble
/ -
Ġscatter ed
Ġexport ed
è¯ ·
ĠCG Rect
ĠBroadcast ing
ĠArgument NullException
P ot
Conf lict
Ġformul as
="../.. ">Â«
Ġroll ing
Ġdwar f
Ġp unct
"> -
| .
Ġinvestig ations
ĠCONT ENT
Ret ention
ĠSecond ary
Ġg ains
ĠM ills
ĠIN DEX
- '
ĠE g
cc i
Ġdis ks
ĠC hel
Sp in
Ġin ferred
Ġre name
Mock ito
person al
pur ple
M N
İ ·
ĠMe asure
h im
ĠCl imate
Ġfoot age
Ġbo ards
Ġcomfort able
ĠPeters burg
ĠBy z
ĠAir lines
4 16
P ic
Ġfollow ers
Ġdepart ments
Ġt ier
ĠLe eds
R AD
Ġloc ate
22 6
Ġref ere
** /
Def unct
ĠSp ider
C ause
Ġf Ã¼r
Ġpat ches
ĠSerial izable
ĠSt uart
mar shal
k ube
ĠLe o
CF G
æľ ¬
L u
ram ed
ĠSing les
Ġalter ed
inherit ance
Ġmist ake
ar ry
}} )$
Layout Params
M ongo
}^{ (\
Ð ¶
Ġecon omics
en ames
inc eton
stri ped
çĤ ¹
ĠF T
ĠCong o
B at
all a
ST OR
S igned
v iol
Ġlie utenant
× ¢
ĠL ov
Ġsynt hes
ran o
subscription Id
M ixed
ĠB ak
Ġget attr
í ķ
' }\
Ġt anks
Ġtri but
Ġform atting
text sf
Spec ifier
p ig
Ġvari ability
ĠPlan et
Ġcon jecture
4 32
ĠC Wallet
17 9
Ġcy linder
@ \
s udo
ĠC li
de ck
ve ill
hand ed
Ġmot ivated
ĠLeb anon
ĠTim er
M agento
} ";
AX B
light s
Ġsubsidi ary
et ra
ĠB A
Ġem ails
ĠCo ach
Ġb ull
AL TER
30 6
Ġrun ners
al an
Ġcon form
ĠE T
D umper
end ent
ĠAR ISING
Ġearth quake
Ġcorn ers
ĠI X
s ynt
Pro x
iv ative
åĪ Ĩ
y u
end ant
Ġmar ry
/ ><
Ġs prite
et ches
Ġfit ness
Spec ified
equals IgnoreCase
Ġm appings
Ġplay off
ĠD h
Ġcontrib utor
zh ou
ĠLeon ard
Ġentang lement
Ġf ed
Ġst uck
ĠIn spector
ĠTreat y
Ill uminate
x path
ĠE state
ĠHe brew
Ġd os
Dep artment
ĠC ris
get Request
ĠZh ang
Co ordinates
Cre ating
ĠG PIO
Check s
}. \
Ġpredecess or
Ġrelax ation
col group
st ars
mod ify
Ġelli ptic
ĠV ision
Group Id
"] );
m itting
rans late
Ġfarm ing
Ġaccommod ate
ex emplar
of ill
ĠVen ice
ĠP I
Ġexc av
Require ment
ĠV ery
IF ICATION
Ġsyn onym
H am
V B
Ġrecru it
ic ating
æĸĩ ä»¶
ĠVenezuel a
Ð ŀ
ĠD irac
ff bb
Ġsc ar
)) ))
Out line
ĠG host
Ġte eth
åĬ ¨
ff ield
ĠHttp Response
ĠJul ian
ĠLI ABLE
ĠRey n
Ġpoint ers
Ġhop ing
ĠD eg
Ġset ter
Ġtensor flow
F LOW
Ġm g
VO KE
Off sets
Edit able
recogn ized
V o
ict ory
ĠGerm ans
Ġper ceived
VAL UES
Ġbatt les
Scott ish
Ġal liance
list item
4 20
Ġfun eral
5 37
Ġhe t
G er
ST ER
Field Type
L y
in ced
Ġb alls
åı ĳ
ĠE ddie
pos ing
Ġfall en
F ly
d ip
EXT ENSION
ĉ ĠĠĠĠĠĠĠĠ
Ġconsider ably
Ġsort ing
net beans
Ġmus cle
d ma
A jax
struct ures
ĠCroat ia
open ssl
ĠForm er
cord ova
Med ical
Ġalleg ations
Inv oice
Stream ing
ĉĉĉĉ Ġ
Ġm ines
Ġexception al
à¤ °
ĠH alf
Ġbl k
ĠSte in
Ġd ans
us erm
Ġan imate
Ġhar der
[...]
