{
  "version": "1.0",
  "truncation": null,
  "padding": null,
  "added_tokens": [
    {
      "id": 0,
      "content": "[UNK]",
      "single_word": false,
      "lstrip": false,
      "rstrip": false,
      "normalized": false,
      "special": true
    }
  ],
  "normalizer": null,
  "pre_tokenizer": {
    "type": "Sequence",
    "pretokenizers": [
      {
        "type": "Digits",
        "individual_digits": false
      },
      {
        "type": "ByteLevel",
        "add_prefix_space": false,
        "trim_offsets": true,
        "use_regex": true
      }
    ]
  },
  "post_processor": null,
  "decoder": null,
  "model": {
    "type": "BPE",
    "dropout": null,
    "unk_token": "[UNK]",
    "continuing_subword_prefix": null,
    "end_of_word_suffix": null,
    "fuse_unk": false,
    "byte_fallback": false,
    "vocab": {
      "[UNK]": 0,
      "!": 1,
      "\"": 2,
      "#": 3,
      "$": 4,
      "%": 5,
      "&": 6,
      "'": 7,
      "(": 8,
      ")": 9,
      "*": 10,
      "+": 11,
      ",": 12,
      "-": 13,
      ".": 14,
      "/": 15,
      "0": 16,
      "1": 17,
      "2": 18,
      "3": 19,
      "4": 20,
      "5": 21,
      "6": 22,
      "7": 23,
      "8": 24,
      "9": 25,
      ":": 26,
      ";": 27,
      "<": 28,
      "=": 29,
      ">": 30,
      "?": 31,
      "@": 32,
      "A": 33,
      "B": 34,
      "C": 35,
      "D": 36,
      "E": 37,
      "F": 38,
      "G": 39,
      "H": 40,
      "I": 41,
      "J": 42,
      "K": 43,
      "L": 44,
      "M": 45,
      "N": 46,
      "O": 47,
      "P": 48,
      "Q": 49,
      "R": 50,
      "S": 51,
      "T": 52,
      "U": 53,
      "V": 54,
      "W": 55,
      "X": 56,
      "Y": 57,
      "Z": 58,
      "[": 59,
      "\\": 60,
      "]": 61,
      "^": 62,
      "_": 63,
      "`": 64,
      "a": 65,
      "b": 66,
      "c": 67,
      "d": 68,
      "e": 69,
      "f": 70,
      "g": 71,
      "h": 72,
      "i": 73,
      "j": 74,
      "k": 75,
      "l": 76,
      "m": 77,
      "n": 78,
      "o": 79,
      "p": 80,
      "q": 81,
      "r": 82,
      "s": 83,
      "t": 84,
      "u": 85,
      "v": 86,
      "w": 87,
      "x": 88,
      "y": 89,
      "z": 90,
      "{": 91,
      "|": 92,
      "}": 93,
      "~": 94,
      "¡": 95,
      "¢": 96,
      "£": 97,
      "¤": 98,
      "¥": 99,
      "¦": 100,
      "§": 101,
      "¨": 102,
      "©": 103,
      "ª": 104,
      "«": 105,
      "¬": 106,
      "®": 107,
      "¯": 108,
      "°": 109,
      "±": 110,
      "²": 111,
      "³": 112,
      "´": 113,
      "µ": 114,
      "¶": 115,
      "·": 116,
      "¸": 117,
      "¹": 118,
      "º": 119,
      "»": 120,
      "¼": 121,
      "½": 122,
      "¾": 123,
      "¿": 124,
      "Â": 125,
      "Ã": 126,
      "Ä": 127,
      "Å": 128,
      "Æ": 129,
      "Ç": 130,
      "È": 131,
      "É": 132,
      "Ê": 133,
      "Ë": 134,
      "Ì": 135,
      "Í": 136,
      "Î": 137,
      "Ï": 138,
      "Ð": 139,
      "Ñ": 140,
      "Ò": 141,
      "Ó": 142,
      "Ô": 143,
      "Õ": 144,
      "Ö": 145,
      "×": 146,
      "Ø": 147,
      "Ù": 148,
      "Ú": 149,
      "Û": 150,
      "Ü": 151,
      "Ý": 152,
      "Þ": 153,
      "ß": 154,
      "à": 155,
      "á": 156,
      "â": 157,
      "ã": 158,
      "ä": 159,
      "å": 160,
      "æ": 161,
      "ç": 162,
      "è": 163,
      "é": 164,
      "ê": 165,
      "ë": 166,
      "ì": 167,
      "í": 168,
      "î": 169,
      "ï": 170,
      "ð": 171,
      "ñ": 172,
      "ò": 173,
      "ó": 174,
      "ô": 175,
      "Ā": 176,
      "ā": 177,
      "Ă": 178,
      "ă": 179,
      "Ą": 180,
      "ą": 181,
      "Ć": 182,
      "ć": 183,
      "Ĉ": 184,
      "ĉ": 185,
      "Ċ": 186,
      "ċ": 187,
      "Č": 188,
      "č": 189,
      "Ď": 190,
      "ď": 191,
      "Đ": 192,
      "đ": 193,
      "Ē": 194,
      "ē": 195,
      "Ĕ": 196,
      "ĕ": 197,
      "Ė": 198,
      "ė": 199,
      "Ę": 200,
      "ę": 201,
      "Ě": 202,
      "ě": 203,
      "Ĝ": 204,
      "ĝ": 205,
      "Ğ": 206,
      "ğ": 207,
      "Ġ": 208,
      "ġ": 209,
      "Ģ": 210,
      "ģ": 211,
      "Ĥ": 212,
      "ĥ": 213,
      "Ħ": 214,
      "ħ": 215,
      "Ĩ": 216,
      "ĩ": 217,
      "Ī": 218,
      "ī": 219,
      "Ĭ": 220,
      "ĭ": 221,
      "Į": 222,
      "į": 223,
      "İ": 224,
      "ı": 225,
      "Ĳ": 226,
      "ĳ": 227,
      "Ĵ": 228,
      "ĵ": 229,
      "Ķ": 230,
      "ķ": 231,
      "ĸ": 232,
      "Ĺ": 233,
      "ĺ": 234,
      "Ļ": 235,
      "ļ": 236,
      "Ľ": 237,
      "ľ": 238,
      "Ŀ": 239,
      "ŀ": 240,
      "Ł": 241,
      "ł": 242,
      "Ń": 243,
      "ĠĠ": 244,
      "ĠĠĠĠ": 245,
      "in": 246,
      "er": 247,
      "Ġt": 248,
      "on": 249,
      "at": 250,
      "re": 251,
      "an": 252,
      "he": 253,
      "ĠĠĠ": 254,
      "en": 255,
      "ĠĠĠĠĠĠĠĠ": 256,
      "or": 257,
      "st": 258,
      "al": 259,
      "ar": 260,
      "Ġthe": 261,
      "le": 262,
      "Ġc": 263,
      "it": 264,
      "ion": 265,
      "se": 266,
      "Ġa": 267,
      "is": 268,
      "Ġf": 269,
      "es": 270,
      "Ġo": 271,
      "ro": 272,
      "ed": 273,
      "ic": 274,
      "ing": 275,
      "Ġp": 276,
      "Ġw": 277,
      "Ġs": 278,
      "ct": 279,
      "de": 280,
      "Ġb": 281,
      "Ġin": 282,
      "ĠĠĠĠĠĠĠ": 283,
      "as": 284,
      "and": 285,
      "am": 286,
      "ou": 287,
      "ent": 288,
      "et": 289,
      "Ġof": 290,
      "Ġm": 291,
      "Ġ=": 292,
      "</": 293,
      "ĉĉ": 294,
      "Ġn": 295,
      "Ġre": 296,
      "il": 297,
      "om": 298,
      "=\"": 299,
      "Ġto": 300,
      "Ġand": 301,
      "ce": 302,
      "Ġ(": 303,
      "Ġh": 304,
      "ation": 305,
      "ur": 306,
      ");": 307,
      "ol": 308,
      "el": 309,
      "Ġd": 310,
      "im": 311,
      "ig": 312,
      "id": 313,
      "ut": 314,
      "Ġ<": 315,
      "Ġth": 316,
      "ĠS": 317,
      "--": 318,
      "Ġ{": 319,
      "un": 320,
      "ot": 321,
      "ra": 322,
      "iv": 323,
      "lo": 324,
      "ex": 325,
      "ag": 326,
      "if": 327,
      "ĠT": 328,
      "ĠĠĠĠĠĠĠĠĠĠĠ": 329,
      "ĠC": 330,
      "ul": 331,
      "ch": 332,
      "ad": 333,
      "ĠA": 334,
      "čĊ": 335,
      "Ġ$": 336,
      "//": 337,
      "pe": 338,
      "Ġ*": 339,
      "th": 340,
      "em": 341,
      "Ġv": 342,
      "ate": 343,
      "Ġl": 344,
      "ue": 345,
      "um": 346,
      "ab": 347,
      "Ġ\\": 348,
      "pt": 349,
      "ass": 350,
      "Ġis": 351,
      "ck": 352,
      "Ġst": 353,
      "Ġg": 354,
      "\">": 355,
      "tr": 356,
      "ame": 357,
      "Ġ}": 358,
      "Ġfor": 359,
      "ist": 360,
      "ers": 361,
      "ĠI": 362,
      "ĠM": 363,
      "ht": 364,
      "ction": 365,
      "Ġ\"": 366,
      "us": 367,
      "ter": 368,
      "ly": 369,
      "lass": 370,
      "ĠĠĠĠĠĠĠĠĠĠĠĠĠĠĠĠ": 371,
      "ay": 372,
      "Ġcon": 373,
      "ĠP": 374,
      "ith": 375,
      "ir": 376,
      "ub": 377,
      "Ġon": 378,
      "ew": 379,
      "age": 380,
      "end": 381,
      "Ġse": 382,
      "ĠĠĠĠĠ": 383,
      "av": 384,
      "()": 385,
      "ĠB": 386,
      "ri": 387,
      "Ġe": 388,
      "od": 389,
      "Ġbe": 390,
      "qu": 391,
      "ow": 392,
      "ver": 393,
      "sp": 394,
      "ode": 395,
      "ap": 396,
      "Ġde": 397,
      "ort": 398,
      "**": 399,
      "ss": 400,
      "up": 401,
      "li": 402,
      "ĠR": 403,
      "ess": 404,
      "urn": 405,
      "our": 406,
      "ĠD": 407,
      "20": 408,
      "ext": 409,
      "ect": 410,
      "ĠF": 411,
      "op": 412,
      "ĠH": 413,
      "ĠL": 414,
      "all": 415,
      "âĢ": 416,
      "Ġclass": 417,
      "ine": 418,
      "ĠN": 419,
      "==": 420,
      "nt": 421,
      "----": 422,
      "ype": 423,
      "..": 424,
      "turn": 425,
      "Ġwith": 426,
      "con": 427,
      "art": 428,
      "est": 429,
      "Ġthat": 430,
      "Ġpro": 431,
      "ath": 432,
      "Ġ'": 433,
      "ĠG": 434,
      "get": 435,
      "Ġan": 436,
      "Ġas": 437,
      "ĠE": 438,
      "ment": 439,
      "ase": 440,
      "able": 441,
      "rom": 442,
      "iz": 443,
      "lic": 444,
      "ity": 445,
      "Ġif": 446,
      "ĠW": 447,
      "ure": 448,
      "int": 449,
      "ore": 450,
      "19": 451,
      "port": 452,
      "ult": 453,
      "ĠThe": 454,
      "In": 455,
      "ile": 456,
      "ĠĠĠĠĠĠĠĠĠĠĠĠĠĠĠ": 457,
      "Ġwh": 458,
      "ref": 459,
      "ke": 460,
      "omp": 461,
      "Ġthis": 462,
      "ight": 463,
      "ans": 464,
      "ta": 465,
      "Ġby": 466,
      "Ġit": 467,
      "per": 468,
      "_{": 469,
      "Ġwas": 470,
      "ption": 471,
      "Ġor": 472,
      "ac": 473,
      "ere": 474,
      "Ġ&": 475,
      "oc": 476,
      "ang": 477,
      "->": 478,
      "ack": 479,
      "ĠO": 480,
      "ata": 481,
      "Ġ//": 482,
      "der": 483,
      "ial": 484,
      "Ġ</": 485,
      "Ġat": 486,
      "Ġal": 487,
      "Ġex": 488,
      "os": 489,
      "orm": 490,
      "00": 491,
      "ĉĉĉĉ": 492,
      "Ġreturn": 493,
      "eg": 494,
      "../": 495,
      "ive": 496,
      "::": 497,
      "ĠĊ": 498,
      "ph": 499,
      "ies": 500,
      "alue": 501,
      "str": 502,
      "ant": 503,
      "Ġfrom": 504,
      "ber": 505,
      "ff": 506,
      "Ġr": 507,
      "ource": 508,
      "nd": 509,
      "pl": 510,
      "og": 511,
      "ject": 512,
      "ĠJ": 513,
      "ary": 514,
      "ill": 515,
      "Ġ-": 516,
      "Ġy": 517,
      "res": 518,
      "Con": 519,
      "ma": 520,
      "use": 521,
      "Re": 522,
      "Ġare": 523,
      "pro": 524,
      "Ġ[": 525,
      "ib": 526,
      "ld": 527,
      "ĠU": 528,
      "are": 529,
      "Ġ@": 530,
      "ublic": 531,
      "unction": 532,
      "ast": 533,
      "set": 534,
      "ip": 535,
      "to": 536,
      "ite": 537,
      "ml": 538,
      "ire": 539,
      "ace": 540,
      "ated": 541,
      "\",": 542,
      "Ġhe": 543,
      "aram": 544,
      "Ġch": 545,
      "text": 546,
      "ign": 547,
      "),": 548,
      "cl": 549,
      "{\\": 550,
      "essage": 551,
      "out": 552,
      "div": 553,
      "ime": 554,
      "(\"": 555,
      "ition": 556,
      "Ġun": 557,
      "ov": 558,
      "ug": 559,
      "();": 560,
      "ard": 561,
      "></": 562,
      "span": 563,
      "ind": 564,
      ").": 565,
      "cri": 566,
      "Ġ/": 567,
      "Ġnot": 568,
      "Ġtr": 569,
      "Ġlo": 570,
      "Ġ+": 571,
      "St": 572,
      "dd": 573,
      "lf": 574,
      "Ġwe": 575,
      "Ġle": 576,
      "Ġnew": 577,
      "><": 578,
      "'s": 579,
      "ice": 580,
      "act": 581,
      "ser": 582,
      "Ġsh": 583,
      "com": 584,
      "Ġ$\\": 585,
      "ull": 586,
      "ost": 587,
      "tring": 588,
      "ft": 589,
      "--------": 590,
      "ord": 591,
      "',": 592,
      "ia": 593,
      "ance": 594,
      "cal": 595,
      "Ex": 596,
      "ong": 597,
      "ust": 598,
      "ize": 599,
      "form": 600,
      "../../": 601,
      "The": 602,
      "arg": 603,
      "row": 604,
      "cc": 605,
      "201": 606,
      "ĠIn": 607,
      "ich": 608,
      "ĠK": 609,
      "Ġ|": 610,
      "source": 611,
      "ud": 612,
      "ave": 613,
      "ĠV": 614,
      "Ġj": 615,
      "ory": 616,
      "ok": 617,
      "ork": 618,
      "que": 619,
      "ak": 620,
      "math": 621,
      "import": 622,
      "Ġ*/": 623,
      "****": 624,
      "====": 625,
      "Ġname": 626,
      "ll": 627,
      "ain": 628,
      "ĉĉĉ": 629,
      "bject": 630,
      "Ġcomp": 631,
      "html": 632,
      "put": 633,
      "one": 634,
      "sh": 635,
      "vent": 636,
      "Ġ.": 637,
      "Ġhref": 638,
      "fig": 639,
      "iel": 640,
      "ĠĠĠĠĠĠĠĠĠĠĠĠĠĠĠĠĠĠĠ": 641,
      "Ġpl": 642,
      "ical": 643,
      "fer": 644,
      "ide": 645,
      "enc": 646,
      "ps": 647,
      "low": 648,
      "ens": 649,
      "ert": 650,
      "Ġcom": 651,
      "('": 652,
      "ence": 653,
      "Ġ:": 654,
      "message": 655,
      "te": 656,
      "Ġpublic": 657,
      "pp": 658,
      "name": 659,
      "ror": 660,
      "ield": 661,
      "Ġstr": 662,
      "ĠĠĠĠĠĠĠĠĠ": 663,
      "iew": 664,
      "ink": 665,
      "Ġfunction": 666,
      "lation": 667,
      "ec": 668,
      "ener": 669,
      "ge": 670,
      "du": 671,
      "so": 672,
      "ray": 673,
      "ount": 674,
      "che": 675,
      "))": 676,
      "this": 677,
      "oid": 678,
      "Ġres": 679,
      "amp": 680,
      "trans": 681,
      "Pro": 682,
      "Name": 683,
      "ell": 684,
      "ress": 685,
      "ild": 686,
      "lement": 687,
      "}}": 688,
      "ER": 689,
      "td": 690,
      "Ġdef": 691,
      "les": 692,
      "ĠTh": 693,
      "Ġk": 694,
      "ould": 695,
      "Ġ=>": 696,
      "eth": 697,
      "ound": 698,
      "^{": 699,
      "Ġ#": 700,
      "Ġint": 701,
      "Ġcan": 702,
      "Type": 703,
      "ator": 704,
      "ĠâĢ": 705,
      "own": 706,
      "__": 707,
      "ations": 708,
      "tern": 709,
      "inal": 710,
      "ther": 711,
      "ian": 712,
      "ON": 713,
      "bo": 714,
      "alse": 715,
      "Ġtype": 716,
      "ear": 717,
      "String": 718,
      "Id": 719,
      "code": 720,
      "Ġwhich": 721,
      "und": 722,
      "Ġvar": 723,
      "/>": 724,
      "Ġset": 725,
      "ach": 726,
      "10": 727,
      "param": 728,
      "Ġhas": 729,
      "ry": 730,
      "dex": 731,
      "erv": 732,
      "âĢĻ": 733,
      "Ġuse": 734,
      "col": 735,
      "200": 736,
      "}\\": 737,
      "roup": 738,
      "hen": 739,
      "IN": 740,
      "Ġget": 741,
      "ree": 742,
      "quest": 743,
      "}$": 744,
      "abel": 745,
      "ĠSt": 746,
      "irst": 747,
      "Ġhave": 748,
      "key": 749,
      "odel": 750,
      "lect": 751,
      "##": 752,
      "def": 753,
      "return": 754,
      "\"/>": 755,
      "yst": 756,
      "ef": 757,
      "cript": 758,
      "ty": 759,
      "translation": 760,
      "pr": 761,
      "Ġvalue": 762,
      "tain": 763,
      "over": 764,
      "ish": 765,
      "atic": 766,
      "fo": 767,
      "Ġhis": 768,
      "ix": 769,
      "ĠCh": 770,
      "ne": 771,
      "Ġab": 772,
      "cre": 773,
      "Ġpr": 774,
      "ual": 775,
      "ery": 776,
      "eng": 777,
      "lock": 778,
      "ystem": 779,
      "we": 780,
      "ep": 781,
      "Ġus": 782,
      "ark": 783,
      "io": 784,
      "atch": 785,
      "Ġar": 786,
      "app": 787,
      "oint": 788,
      "Ġcont": 789,
      "ail": 790,
      "ous": 791,
      "Ġ!": 792,
      "Ġline": 793,
      "ethod": 794,
      "18": 795,
      "ict": 796,
      "RE": 797,
      "ents": 798,
      "ev": 799,
      "pec": 800,
      "Ġconst": 801,
      "sed": 802,
      "rit": 803,
      "Ġim": 804,
      "ool": 805,
      "ax": 806,
      "led": 807,
      "},": 808,
      "(\\": 809,
      "Ġself": 810,
      "pect": 811,
      "Ġall": 812,
      "egin": 813,
      "List": 814,
      "Ġdo": 815,
      "type": 816,
      "Ġ||": 817,
      "Ġout": 818,
      "right": 819,
      "line": 820,
      "://": 821,
      "add": 822,
      "ses": 823,
      "ome": 824,
      "ates": 825,
      "ob": 826,
      "cation": 827,
      "ache": 828,
      "ames": 829,
      "ute": 830,
      "Ġ==": 831,
      "Ġ_": 832,
      "ions": 833,
      "Res": 834,
      "ault": 835,
      "Ġdata": 836,
      "ings": 837,
      "umber": 838,
      "uct": 839,
      "Ġcol": 840,
      "Ġro": 841,
      "begin": 842,
      "ception": 843,
      "Ġyou": 844,
      "Ġid": 845,
      "mer": 846,
      "ST": 847,
      "ont": 848,
      "Ġup": 849,
      "Ġnull": 850,
      "Ġel": 851,
      "equ": 852,
      "erm": 853,
      "fra": 854,
      "val": 855,
      "itle": 856,
      "oth": 857,
      "Ġwill": 858,
      "\"><": 859,
      "Ġdis": 860,
      "Ġi": 861,
      "Ġalso": 862,
      "Ġbut": 863,
      "Ġone": 864,
      "ey": 865,
      "12": 866,
      "var": 867,
      "sum": 868,
      "Ch": 869,
      "let": 870,
      "class": 871,
      "urre": 872,
      "AT": 873,
      "Ġvoid": 874,
      "htt": 875,
      "ng": 876,
      "ange": 877,
      "Ġpart": 878,
      "Ġass": 879,
      "Ġwere": 880,
      "Ġsu": 881,
      "Ġ`": 882,
      "ics": 883,
      "ersion": 884,
      "self": 885,
      "Ġfalse": 886,
      "_{\\": 887,
      "ĠĠĠĠĠĠĠĠĠĠĠĠĠ": 888,
      "ĠUn": 889,
      "wo": 890,
      "ĠY": 891,
      "old": 892,
      "vel": 893,
      "ader": 894,
      "the": 895,
      "co": 896,
      "Ġ>": 897,
      ")$": 898,
      "OR": 899,
      "idth": 900,
      "));": 901,
      "ĠĠĠĠĠĠĠĠĠĠĠĠĠĠĠĠĠĠĠĠĠĠĠ": 902,
      "ann": 903,
      "Ġend": 904,
      "yn": 905,
      "Ar": 906,
      "Ġadd": 907,
      "Ġer": 908,
      "min": 909,
      "string": 910,
      "of": 911,
      "ick": 912,
      "label": 913,
      "ivate": 914,
      "ater": 915,
      "Th": 916,
      "LE": 917,
      "fter": 918,
      "eta": 919,
      "ake": 920,
      "trib": 921,
      "arch": 922,
      "\");": 923,
      "iss": 924,
      "----------------": 925,
      "ude": 926,
      "ove": 927,
      "16": 928,
      "Ġpre": 929,
      "ton": 930,
      "):": 931,
      "tt": 932,
      "Ġfirst": 933,
      "Ġsp": 934,
      "Ġresult": 935,
      "ature": 936,
      "hed": 937,
      "ym": 938,
      "nb": 939,
      "********": 940,
      "ember": 941,
      "aw": 942,
      "ument": 943,
      "ca": 944,
      "}{": 945,
      "Ġdes": 946,
      "left": 947,
      "Value": 948,
      "Ġtrue": 949,
      "AR": 950,
      "Ġover": 951,
      "data": 952,
      "yle": 953,
      "urrent": 954,
      "tem": 955,
      "////": 956,
      "ifi": 957,
      "ie": 958,
      "js": 959,
      "Ġme": 960,
      "org": 961,
      "Data": 962,
      "back": 963,
      "ific": 964,
      "ava": 965,
      "read": 966,
      "ID": 967,
      "location": 968,
      "Ġtheir": 969,
      "Ġper": 970,
      "ptions": 971,
      "Ġtime": 972,
      "ock": 973,
      "igh": 974,
      "Col": 975,
      "file": 976,
      "ask": 977,
      "Ġ--": 978,
      "nbsp": 979,
      "ces": 980,
      "Ġ)": 981,
      "ole": 982,
      "ule": 983,
      "frac": 984,
      "ative": 985,
      "bar": 986,
      "EN": 987,
      "ues": 988,
      "ĠIt": 989,
      "ength": 990,
      "ve": 991,
      "cent": 992,
      "ms": 993,
      "ĠĠĠĠĠĠ": 994,
      "raph": 995,
      "Ġtra": 996,
      "ors": 997,
      "Ġelse": 998,
      "ose": 999,
      "spon": 1000,
      "Ġwhen": 1001,
      "eq": 1002,
      "als": 1003,
      "br": 1004,
      "ash": 1005,
      "Ġinter": 1006,
      "ĠHe": 1007,
      "any": 1008,
      "px": 1009,
      "ĠĠĠĠĠĠĠĠĠĠĠĠĠĠĠĠĠĠĠĠĠĠĠĠĠĠĠĠĠĠĠĠ": 1010,
      "til": 1011,
      "item": 1012,
      "rm": 1013,
      "perty": 1014,
      "Ġap": 1015,
      "Ġqu": 1016,
      "Ġother": 1017,
      "value": 1018,
      "Ġag": 1019,
      "AL": 1020,
      "To": 1021,
      "Ġval": 1022,
      "Ġbo": 1023,
      "lient": 1024,
      "Ġ/**": 1025,
      "========": 1026,
      "lection": 1027,
      "ely": 1028,
      "Ġsup": 1029,
      "Ġen": 1030,
      "ĠThis": 1031,
      "irect": 1032,
      "Set": 1033,
      "\")": 1034,
      "âĢĵ": 1035,
      "11": 1036,
      "Ġplay": 1037,
      "Ġcase": 1038,
      "ternal": 1039,
      "Ġne": 1040,
      "pre": 1041,
      "arget": 1042,
      "SS": 1043,
      "Ġbu": 1044,
      "Ġinst": 1045,
      "anag": 1046,
      "log": 1047,
      "sub": 1048,
      "Ġorg": 1049,
      "Ġcomm": 1050,
      "Ġstring": 1051,
      "Ġwork": 1052,
      "Ġso": 1053,
      "osition": 1054,
      "Ġits": 1055,
      "ise": 1056,
      "Ġsub": 1057,
      "cond": 1058,
      "cess": 1059,
      "oun": 1060,
      "Ġra": 1061,
      "($": 1062,
      "ccess": 1063,
      "ution": 1064,
      "Ġx": 1065,
      "Ġmore": 1066,
      "date": 1067,
      "clude": 1068,
      "Ġcre": 1069,
      "Ġcl": 1070,
      "da": 1071,
      "comp": 1072,
      "];": 1073,
      "Ġhad": 1074,
      "cite": 1075,
      "ular": 1076,
      "En": 1077,
      "rror": 1078,
      "Ġtwo": 1079,
      "ined": 1080,
      "roid": 1081,
      "Ġte": 1082,
      "quire": 1083,
      "Exception": 1084,
      "work": 1085,
      "15": 1086,
      "ished": 1087,
      "Ġ&&": 1088,
      "ĠâĢĵ": 1089,
      "uth": 1090,
      "bu": 1091,
      "new": 1092,
      "Comp": 1093,
      "ins": 1094,
      "Ġtest": 1095,
      "Ġfile": 1096,
      "cont": 1097,
      "Ġapp": 1098,
      "ble": 1099,
      "199": 1100,
      "ys": 1101,
      "ervice": 1102,
      "ational": 1103,
      "Ġbeen": 1104,
      "Ġfinal": 1105,
      "Ġher": 1106,
      "Ġonly": 1107,
      "Ġreg": 1108,
      "view": 1109,
      "Ġthey": 1110,
      "')": 1111,
      "Ġform": 1112,
      "Ġtrans": 1113,
      "Ġstatic": 1114,
      "Ġany": 1115,
      "})": 1116,
      "round": 1117,
      "Bu": 1118,
      "ĠCon": 1119,
      "mary": 1120,
      "Object": 1121,
      "ollow": 1122,
      "Test": 1123,
      "ĠString": 1124,
      "ody": 1125,
      "$.": 1126,
      "ider": 1127,
      "ages": 1128,
      "Ġspec": 1129,
      "script": 1130,
      "rc": 1131,
      "DE": 1132,
      "Ġ!=": 1133,
      "play": 1134,
      "Ġ///": 1135,
      "Ġfil": 1136,
      "().": 1137,
      "test": 1138,
      "Ġ%": 1139,
      "ram": 1140,
      "pen": 1141,
      "ee": 1142,
      "ased": 1143,
      "ating": 1144,
      "32": 1145,
      "size": 1146,
      "']": 1147,
      "mathb": 1148,
      "Ġob": 1149,
      "ences": 1150,
      "not": 1151,
      "CT": 1152,
      "$,": 1153,
      "link": 1154,
      "its": 1155,
      "atus": 1156,
      "Un": 1157,
      "serv": 1158,
      "ream": 1159,
      "Ġinto": 1160,
      "25": 1161,
      "Error": 1162,
      "action": 1163,
      "omm": 1164,
      "ĠĠĠĠĊ": 1165,
      ".</": 1166,
      "Get": 1167,
      "());": 1168,
      "ĠPro": 1169,
      "Ġthere": 1170,
      "umn": 1171,
      "Ġno": 1172,
      "Ġwho": 1173,
      "nav": 1174,
      "aramet": 1175,
      "ited": 1176,
      "public": 1177,
      "Ġoff": 1178,
      "Tr": 1179,
      "resent": 1180,
      "\"></": 1181,
      "ible": 1182,
      "Ġext": 1183,
      "Ġact": 1184,
      "Cont": 1185,
      "Ġprivate": 1186,
      "Key": 1187,
      "ren": 1188,
      "ning": 1189,
      "ner": 1190,
      "Ġexp": 1191,
      "rame": 1192,
      "ced": 1193,
      "Ġgo": 1194,
      "ĠAr": 1195,
      "Ġem": 1196,
      "Ġco": 1197,
      ",\\": 1198,
      "}.": 1199,
      "Ġused": 1200,
      "lay": 1201,
      "arent": 1202,
      "14": 1203,
      "for": 1204,
      "ĉĉĉĉĉ": 1205,
      "land": 1206,
      "Ġad": 1207,
      "pend": 1208,
      "ww": 1209,
      "SE": 1210,
      "Ġlist": 1211,
      "list": 1212,
      "Ġsc": 1213,
      "View": 1214,
      "imes": 1215,
      "IT": 1216,
      "be": 1217,
      "17": 1218,
      "Ġyear": 1219,
      "ric": 1220,
      "heck": 1221,
      "Ġback": 1222,
      "par": 1223,
      "ward": 1224,
      "mod": 1225,
      "13": 1226,
      "ĠRe": 1227,
      "['": 1228,
      "order": 1229,
      "Ġwhere": 1230,
      "ler": 1231,
      "ious": 1232,
      "ank": 1233,
      "equation": 1234,
      "At": 1235,
      "face": 1236,
      "index": 1237,
      "\";": 1238,
      "ons": 1239,
      "._": 1240,
      "Ġbet": 1241,
      "ME": 1242,
      "File": 1243,
      "struct": 1244,
      "Ġthen": 1245,
      "Ġfollow": 1246,
      "quot": 1247,
      "ern": 1248,
      "ople": 1249,
      "roll": 1250,
      "Im": 1251,
      "util": 1252,
      "ample": 1253,
      "Ġnumber": 1254,
      "ract": 1255,
      "clud": 1256,
      "son": 1257,
      "way": 1258,
      "=\"+": 1259,
      "load": 1260,
      "oug": 1261,
      "Ġunder": 1262,
      "ffer": 1263,
      "Ġli": 1264,
      "mathcal": 1265,
      "function": 1266,
      "!--": 1267,
      "AN": 1268,
      "Ġrec": 1269,
      "dis": 1270,
      "Ġafter": 1271,
      "indow": 1272,
      "Ġpe": 1273,
      "Ġobject": 1274,
      "CO": 1275,
      "Ġent": 1276,
      "http": 1277,
      "url": 1278,
      "pace": 1279,
      "ince": 1280,
      "Ġ/>": 1281,
      "amb": 1282,
      "ger": 1283,
      "summary": 1284,
      "Ġkey": 1285,
      "pha": 1286,
      "sc": 1287,
      "Ġchar": 1288,
      "');": 1289,
      "By": 1290,
      "ized": 1291,
      "Ġgener": 1292,
      "field": 1293,
      "red": 1294,
      "Qu": 1295,
      "=\"../../": 1296,
      "100": 1297,
      "Event": 1298,
      "eb": 1299,
      "lang": 1300,
      "yp": 1301,
      "top": 1302,
      "Ġabout": 1303,
      "ities": 1304,
      "],": 1305,
      "fore": 1306,
      "rol": 1307,
      "ility": 1308,
      "ĠNew": 1309,
      "Ġdif": 1310,
      "âĢĿ": 1311,
      "me": 1312,
      "}(": 1313,
      "ho": 1314,
      "olog": 1315,
      "ices": 1316,
      "Ġma": 1317,
      "ify": 1318,
      "Ġdist": 1319,
      "go": 1320,
      "ugh": 1321,
      "UL": 1322,
      "Ġsome": 1323,
      "lete": 1324,
      "ivers": 1325,
      "Ġprov": 1326,
      "(),": 1327,
      "const": 1328,
      "cription": 1329,
      "Ġmethod": 1330,
      "onent": 1331,
      "Ġthan": 1332,
      "ott": 1333,
      "meric": 1334,
      "ocument": 1335,
      "inter": 1336,
      "He": 1337,
      "Ġmodel": 1338,
      "Ġevent": 1339,
      "ĠEx": 1340,
      "Ġrel": 1341,
      "air": 1342,
      "oot": 1343,
      "ision": 1344,
      "ween": 1345,
      "Ġwould": 1346,
      "Refer": 1347,
      "uring": 1348,
      "time": 1349,
      "table": 1350,
      "by": 1351,
      "ackage": 1352,
      "ists": 1353,
      "rite": 1354,
      "Ġmod": 1355,
      "Ġmay": 1356,
      "az": 1357,
      "ĠAl": 1358,
      "ement": 1359,
      "user": 1360,
      "group": 1361,
      "Ġtitle": 1362,
      "pi": 1363,
      "Ġfield": 1364,
      "but": 1365,
      "ient": 1366,
      "30": 1367,
      "Ġshow": 1368,
      "Sh": 1369,
      "}^": 1370,
      "width": 1371,
      "path": 1372,
      "Ġpol": 1373,
      "}_": 1374,
      "Ġsuch": 1375,
      "alpha": 1376,
      "raw": 1377,
      "Ġstart": 1378,
      "ily": 1379,
      "ts": 1380,
      "Ġser": 1381,
      "Time": 1382,
      "orld": 1383,
      "ĠSh": 1384,
      "Class": 1385,
      "Ġerror": 1386,
      "uration": 1387,
      "reg": 1388,
      "Text": 1389,
      "wh": 1390,
      "Ġfe": 1391,
      "orn": 1392,
      "Ġshe": 1393,
      "ven": 1394,
      "void": 1395,
      "ĠSe": 1396,
      "Ġarg": 1397,
      "Ġimp": 1398,
      "~\\": 1399,
      "Ġkn": 1400,
      "comm": 1401,
      "md": 1402,
      "RO": 1403,
      "rap": 1404,
      "198": 1405,
      "\":": 1406,
      "Request": 1407,
      "ĠAn": 1408,
      "ground": 1409,
      "ui": 1410,
      "Info": 1411,
      "ION": 1412,
      "Ġph": 1413,
      "64": 1414,
      "An": 1415,
      "Ġoper": 1416,
      "':": 1417,
      "/*": 1418,
      "``": 1419,
      "Se": 1420,
      "...": 1421,
      "Ġ?": 1422,
      "Ġsim": 1423,
      "anager": 1424,
      "ified": 1425,
      "Ġrep": 1426,
      "Ġ-->": 1427,
      "rough": 1428,
      "color": 1429,
      "orre": 1430,
      "Ġcons": 1431,
      "Ġcall": 1432,
      "].": 1433,
      "Element": 1434,
      "Node": 1435,
      "reak": 1436,
      "Item": 1437,
      "iven": 1438,
      "ride": 1439,
      "Ġbetween": 1440,
      "Ġ);": 1441,
      "ote": 1442,
      "mp": 1443,
      "iver": 1444,
      "ally": 1445,
      "Path": 1446,
      "22": 1447,
      "Ġacc": 1448,
      "For": 1449,
      "mall": 1450,
      "cept": 1451,
      "TE": 1452,
      "dt": 1453,
      "LA": 1454,
      "section": 1455,
      "config": 1456,
      "lob": 1457,
      "PE": 1458,
      "opy": 1459,
      "array": 1460,
      "rad": 1461,
      "/**": 1462,
      "ector": 1463,
      "Ġprodu": 1464,
      "try": 1465,
      "Int": 1466,
      "ization": 1467,
      "ouse": 1468,
      "50": 1469,
      "itial": 1470,
      "part": 1471,
      "On": 1472,
      "Add": 1473,
      "Ġcal": 1474,
      "Ġshould": 1475,
      "ars": 1476,
      "Ġour": 1477,
      "olean": 1478,
      "())": 1479,
      "fl": 1480,
      "ines": 1481,
      "ik": 1482,
      "box": 1483,
      "Ġthem": 1484,
      "TR": 1485,
      "Ġinv": 1486,
      "tribute": 1487,
      "ments": 1488,
      "Index": 1489,
      "include": 1490,
      "Config": 1491,
      "Ġinclud": 1492,
      "ĠZ": 1493,
      "ason": 1494,
      "Ġcurrent": 1495,
      "oci": 1496,
      "att": 1497,
      "ĠX": 1498,
      "####": 1499,
      "Context": 1500,
      "As": 1501,
      "Ġpoint": 1502,
      "Map": 1503,
      "ambda": 1504,
      "Ġusing": 1505,
      "cle": 1506,
      "ĠWe": 1507,
      "fin": 1508,
      "amespace": 1509,
      "\"\"": 1510,
      "ush": 1511,
      "ĠĠĠĠĠĠĠĠĠĠĠĠĠĠĠĠĠĠĠĠĠĠĠĠĠĠĠ": 1512,
      "word": 1513,
      "ogle": 1514,
      "ected": 1515,
      "Ġyour": 1516,
      "Ġsystem": 1517,
      "Ġrun": 1518,
      "Ġam": 1519,
      ")\\": 1520,
      "igned": 1521,
      "Field": 1522,
      "Ġstate": 1523,
      "ense": 1524,
      "Ġthrow": 1525,
      "Ġassert": 1526,
      "search": 1527,
      "https": 1528,
      "unc": 1529,
      "Ġeach": 1530,
      "Ġgroup": 1531,
      "length": 1532,
      "Ġmin": 1533,
      "PI": 1534,
      "ister": 1535,
      "AC": 1536,
      "Ġed": 1537,
      "wn": 1538,
      "lose": 1539,
      "mu": 1540,
      "stance": 1541,
      "api": 1542,
      "State": 1543,
      "des": 1544,
      "rid": 1545,
      "Ġdiffer": 1546,
      "ĠFor": 1547,
      "ency": 1548,
      "net": 1549,
      "ateg": 1550,
      "Ġhigh": 1551,
      "itt": 1552,
      "Array": 1553,
      "ane": 1554,
      "Ġ(!": 1555,
      "chool": 1556,
      "sponse": 1557,
      "=\\": 1558,
      "24": 1559,
      "Ġequ": 1560,
      "Form": 1561,
      "af": 1562,
      "$\\": 1563,
      "Ġfl": 1564,
      "asses": 1565,
      "'t": 1566,
      "Ġpeople": 1567,
      "map": 1568,
      "tainer": 1569,
      "Ġlong": 1570,
      "other": 1571,
      "man": 1572,
      "='": 1573,
      "ĠIf": 1574,
      "Ġz": 1575,
      "lt": 1576,
      "title": 1577,
      "ilder": 1578,
      "';": 1579,
      "ĠAs": 1580,
      "Code": 1581,
      "true": 1582,
      "Ġsize": 1583,
      "Ġfound": 1584,
      "rem": 1585,
      "Ġrequest": 1586,
      "Ġpo": 1587,
      "error": 1588,
      "ough": 1589,
      "Equ": 1590,
      "Def": 1591,
      "Ġ});": 1592,
      "icon": 1593,
      "model": 1594,
      "Ġmost": 1595,
      "rop": 1596,
      "merican": 1597,
      "amma": 1598,
      "197": 1599,
      "Ġhand": 1600,
      "Over": 1601,
      "};": 1602,
      "block": 1603,
      "vert": 1604,
      "ĠCol": 1605,
      "References": 1606,
      "Ġ/*": 1607,
      "Ġrequire": 1608,
      "ron": 1609,
      "Ġneed": 1610,
      "ots": 1611,
      "Ġthrough": 1612,
      "Ġexpect": 1613,
      "33": 1614,
      "ident": 1615,
      "////////": 1616,
      "21": 1617,
      "Ġlink": 1618,
      "med": 1619,
      "Ġu": 1620,
      "Ġthese": 1621,
      "Ġest": 1622,
      "Ġarray": 1623,
      "ah": 1624,
      "pty": 1625,
      "formation": 1626,
      "ĠQ": 1627,
      "Service": 1628,
      "Ġstud": 1629,
      "ĠâĢľ": 1630,
      "ared": 1631,
      "apache": 1632,
      "hat": 1633,
      "ran": 1634,
      "pon": 1635,
      "Ġ},": 1636,
      "Des": 1637,
      "ower": 1638,
      "enu": 1639,
      "ports": 1640,
      "Ġsol": 1641,
      "Ġwhile": 1642,
      "her": 1643,
      "Ġdefault": 1644,
      "Ġelement": 1645,
      "ball": 1646,
      "Al": 1647,
      "Ġsame": 1648,
      "ension": 1649,
      "IC": 1650,
      "Ġac": 1651,
      "With": 1652,
      "ffect": 1653,
      "input": 1654,
      "Ã©": 1655,
      "Ġdirect": 1656,
      "=\"../../../../": 1657,
      "oh": 1658,
      "result": 1659,
      "node": 1660,
      "pert": 1661,
      "****************": 1662,
      "ĠDe": 1663,
      "_\\": 1664,
      "UR": 1665,
      "000": 1666,
      "Not": 1667,
      "lex": 1668,
      "ats": 1669,
      "FF": 1670,
      "itor": 1671,
      "nection": 1672,
      "object": 1673,
      "[]": 1674,
      "Size": 1675,
      "ttp": 1676,
      "Ġimport": 1677,
      "ants": 1678,
      "Ġrem": 1679,
      "Ġcent": 1680,
      "gt": 1681,
      "Result": 1682,
      "igma": 1683,
      "Ġpar": 1684,
      "align": 1685,
      "ync": 1686,
      "lish": 1687,
      "ever": 1688,
      "Ġagain": 1689,
      "Ġread": 1690,
      "ale": 1691,
      ">&": 1692,
      "iter": 1693,
      "plate": 1694,
      "dition": 1695,
      "ful": 1696,
      "ets": 1697,
      "valid": 1698,
      "from": 1699,
      "Ġcontent": 1700,
      "De": 1701,
      "body": 1702,
      "eturn": 1703,
      "bers": 1704,
      "Or": 1705,
      "Ġright": 1706,
      "iversity": 1707,
      "lication": 1708,
      ";&": 1709,
      "assert": 1710,
      "Ġsecond": 1711,
      "erson": 1712,
      "ays": 1713,
      "Message": 1714,
      "ĠĠĊ": 1715,
      "ife": 1716,
      "del": 1717,
      "Ġaut": 1718,
      "ox": 1719,
      "mathbb": 1720,
      "rag": 1721,
      "ilter": 1722,
      "create": 1723,
      "Ġhim": 1724,
      "ru": 1725,
      "Ġlocal": 1726,
      "aid": 1727,
      "Ġtarget": 1728,
      "Ġbefore": 1729,
      "40": 1730,
      "Ġsrc": 1731,
      "Hand": 1732,
      "Ġtext": 1733,
      "ega": 1734,
      "Ġ\\\\": 1735,
      "Ġgiven": 1736,
      "cd": 1737,
      "Ġwell": 1738,
      "ship": 1739,
      "tn": 1740,
      "abled": 1741,
      "info": 1742,
      "ier": 1743,
      "Ġuser": 1744,
      "version": 1745,
      "Ġsign": 1746,
      "++": 1747,
      "gram": 1748,
      "ags": 1749,
      "Ġjava": 1750,
      "}_{": 1751,
      "Ġnon": 1752,
      "po": 1753,
      "-\\": 1754,
      "Ġparamet": 1755,
      "ple": 1756,
      "Ġlarg": 1757,
      "loat": 1758,
      "uthor": 1759,
      "ustom": 1760,
      "Of": 1761,
      "Ġorder": 1762,
      "base": 1763,
      "ures": 1764,
      "Ġsing": 1765,
      "content": 1766,
      "ond": 1767,
      "LO": 1768,
      "default": 1769,
      "ression": 1770,
      "Up": 1771,
      "\\\\": 1772,
      "Ġfollowing": 1773,
      "Ġlike": 1774,
      "}^{": 1775,
      "sw": 1776,
      "Ġstruct": 1777,
      "UT": 1778,
      "ically": 1779,
      "orth": 1780,
      "css": 1781,
      "off": 1782,
      "cope": 1783,
      "lp": 1784,
      "ĠTr": 1785,
      "Ġhow": 1786,
      "lected": 1787,
      "ives": 1788,
      "atri": 1789,
      "arn": 1790,
      "outh": 1791,
      "bol": 1792,
      "phi": 1793,
      "Ġconfig": 1794,
      "ism": 1795,
      "AD": 1796,
      "Ġmy": 1797,
      "head": 1798,
      "We": 1799,
      "umer": 1800,
      "ury": 1801,
      "Ġlog": 1802,
      "Ġ__": 1803,
      "Val": 1804,
      "Comm": 1805,
      "ived": 1806,
      "cale": 1807,
      "leg": 1808,
      "start": 1809,
      "^{\\": 1810,
      "App": 1811,
      "Ġever": 1812,
      ".\"": 1813,
      "java": 1814,
      "Ġca": 1815,
      "IG": 1816,
      "perties": 1817,
      "Ġerr": 1818,
      "Ġcorre": 1819,
      "Ġstyle": 1820,
      "23": 1821,
      "ĠLe": 1822,
      "Ġbase": 1823,
      "--------------------------------": 1824,
      "Ġcode": 1825,
      "ĉĉĉĉĉĉ": 1826,
      "Loc": 1827,
      "=\"../": 1828,
      "android": 1829,
      "la": 1830,
      "Ġboth": 1831,
      "Ġtem": 1832,
      "Ġwrit": 1833,
      "Ġbeing": 1834,
      "ends": 1835,
      "my": 1836,
      "Color": 1837,
      "Model": 1838,
      "Ġart": 1839,
      "Ġjust": 1840,
      "Ġ===": 1841,
      "utes": 1842,
      "ission": 1843,
      "ĠSystem": 1844,
      "Ġdoes": 1845,
      "bf": 1846,
      "idd": 1847,
      "Ġyears": 1848,
      "lambda": 1849,
      "ting": 1850,
      "max": 1851,
      "ather": 1852,
      "ING": 1853,
      "60": 1854,
      "Ġsupport": 1855,
      "point": 1856,
      "mb": 1857,
      "ML": 1858,
      "uary": 1859,
      "ULL": 1860,
      "reat": 1861,
      "reate": 1862,
      "depend": 1863,
      "Ġlast": 1864,
      "User": 1865,
      "amily": 1866,
      "Ġnow": 1867,
      "context": 1868,
      "sk": 1869,
      "iable": 1870,
      "Log": 1871,
      "package": 1872,
      "uch": 1873,
      "Ġdifferent": 1874,
      "Ġmem": 1875,
      "System": 1876,
      "no": 1877,
      "Ġsee": 1878,
      "Ġ{\\": 1879,
      "Is": 1880,
      "Manager": 1881,
      "ied": 1882,
      "ouble": 1883,
      "tings": 1884,
      "velop": 1885,
      "pos": 1886,
      "TD": 1887,
      "Ġsur": 1888,
      "false": 1889,
      "Ġcheck": 1890,
      "Query": 1891,
      ";</": 1892,
      "lease": 1893,
      "imit": 1894,
      "Ġthree": 1895,
      "istory": 1896,
      "ponse": 1897,
      "=\"#": 1898,
      "Ġmake": 1899,
      "Ġpath": 1900,
      "event": 1901,
      "Ġ:=": 1902,
      "define": 1903,
      "option": 1904,
      "Ġserv": 1905,
      "odes": 1906,
      "Table": 1907,
      "vir": 1908,
      "state": 1909,
      "lobal": 1910,
      "This": 1911,
      "web": 1912,
      "Out": 1913,
      "ten": 1914,
      "Ġduring": 1915,
      "Ġversion": 1916,
      "ook": 1917,
      "Ser": 1918,
      "Ġ};": 1919,
      "ĠĠĠĠĠĠĠĠĠĠĠĠ": 1920,
      "tra": 1921,
      "less": 1922,
      "ottom": 1923,
      "actory": 1924,
      "iginal": 1925,
      "ĠIs": 1926,
      "next": 1927,
      "Ġprot": 1928,
      "Ġmed": 1929,
      "core": 1930,
      "iled": 1931,
      "ification": 1932,
      "ymbol": 1933,
      "bl": 1934,
      "etwork": 1935,
      "Ġperform": 1936,
      "ET": 1937,
      "Ġtop": 1938,
      "Ġdec": 1939,
      "roller": 1940,
      "method": 1941,
      "CH": 1942,
      "Ġblock": 1943,
      "Ġnode": 1944,
      "Ġappro": 1945,
      "annel": 1946,
      "ĠOn": 1947,
      "ken": 1948,
      "Ġinput": 1949,
      "down": 1950,
      "count": 1951,
      "arm": 1952,
      "using": 1953,
      "ED": 1954,
      "Ġmet": 1955,
      "ift": 1956,
      "MA": 1957,
      "dev": 1958,
      "sup": 1959,
      "Group": 1960,
      "Property": 1961,
      "Ġmon": 1962,
      "met": 1963,
      "================": 1964,
      "overn": 1965,
      "sec": 1966,
      "ĠGet": 1967,
      "Ġbuild": 1968,
      "Ġterm": 1969,
      "ithub": 1970,
      "eps": 1971,
      "Ġvalues": 1972,
      "ross": 1973,
      "urs": 1974,
      "ources": 1975,
      "Ġcould": 1976,
      "Ġleft": 1977,
      "Ġcreate": 1978,
      "uss": 1979,
      "doc": 1980,
      "ilon": 1981,
      "DO": 1982,
      ")</": 1983,
      "ral": 1984,
      "Ġcontext": 1985,
      "Ġpartic": 1986,
      "ential": 1987,
      "MP": 1988,
      "Inter": 1989,
      "Ġteam": 1990,
      "lib": 1991,
      "Ġcontain": 1992,
      "<!--": 1993,
      "Ġbel": 1994,
      "namespace": 1995,
      "ĠAmerican": 1996,
      "ĠUniversity": 1997,
      "uage": 1998,
      "Ġitem": 1999,
      "db": 2000,
      "AB": 2001,
      "Ġbreak": 2002,
      "lished": 2003,
      "www": 2004,
      "iving": 2005,
      "ĠSc": 2006,
      "Ġwhat": 2007,
      "Ġfind": 2008,
      "Ġmade": 2009,
      "Ġindex": 2010,
      "Ġinstance": 2011,
      "27": 2012,
      "prot": 2013,
      "Client": 2014,
      "side": 2015,
      "beta": 2016,
      "ait": 2017,
      "Ġmany": 2018,
      "IS": 2019,
      "style": 2020,
      "ĠRo": 2021,
      "ume": 2022,
      "\".": 2023,
      "static": 2024,
      "UN": 2025,
      "Ġandroid": 2026,
      "Pl": 2027,
      "ining": 2028,
      "ifier": 2029,
      "check": 2030,
      "bed": 2031,
      "Ġmax": 2032,
      "ology": 2033,
      "ural": 2034,
      "Ġmust": 2035,
      "Ġcontin": 2036,
      "28": 2037,
      "github": 2038,
      "google": 2039,
      "Ġrecord": 2040,
      "mathbf": 2041,
      "itch": 2042,
      ">(": 2043,
      "sigma": 2044,
      "Ġstd": 2045,
      "tail": 2046,
      "ffic": 2047,
      "eger": 2048,
      "acter": 2049,
      "From": 2050,
      "ĠĠĠĠĠĠĠĠĠĠĠĠĠĠĠĠĠĠĠĠĠĠĠĠĠĠĠĠĠĠĠ": 2051,
      "Trans": 2052,
      "ender": 2053,
      "Ġopen": 2054,
      "Ġ,": 2055,
      "ĠĠĠĠĠĠĠĠĠĠ": 2056,
      "Ġchild": 2057,
      "arly": 2058,
      "finished": 2059,
      "Ġallow": 2060,
      "place": 2061,
      "Ġbool": 2062,
      "cause": 2063,
      "Âł": 2064,
      "cer": 2065,
      "66": 2066,
      "ypes": 2067,
      "ormal": 2068,
      "tab": 2069,
      "ENT": 2070,
      "atrix": 2071,
      "Reg": 2072,
      "Override": 2073,
      "OT": 2074,
      "Response": 2075,
      "usic": 2076,
      "Ġnil": 2077,
      "ched": 2078,
      "Count": 2079,
      "center": 2080,
      "Ġpop": 2081,
      "ina": 2082,
      "Method": 2083,
      "Ġposition": 2084,
      "refer": 2085,
      "argin": 2086,
      "ulation": 2087,
      "Ġvis": 2088,
      "CE": 2089,
      "ood": 2090,
      "Ġprocess": 2091,
      "Ġbecause": 2092,
      "Ġref": 2093,
      "call": 2094,
      "Ġ(\\": 2095,
      "print": 2096,
      "vious": 2097,
      "cy": 2098,
      "Call": 2099,
      "lick": 2100,
      "light": 2101,
      "External": 2102,
      "see": 2103,
      "istr": 2104,
      "oken": 2105,
      "Dis": 2106,
      "Cl": 2107,
      "unfinished": 2108,
      "^{-": 2109,
      "ality": 2110,
      "Ġ()": 2111,
      "ium": 2112,
      "null": 2113,
      "Mod": 2114,
      "Ġbl": 2115,
      "Ġdisc": 2116,
      "ctions": 2117,
      "Ġbeg": 2118,
      "All": 2119,
      "ĠInd": 2120,
      "Ġtry": 2121,
      "Ġind": 2122,
      "Ġlet": 2123,
      "Ġlinks": 2124,
      "ior": 2125,
      "ograph": 2126,
      "ĠComp": 2127,
      "Ġman": 2128,
      "cord": 2129,
      "php": 2130,
      "](": 2131,
      "Arg": 2132,
      "iev": 2133,
      "Ġrefer": 2134,
      "ns": 2135,
      "ĠComm": 2136,
      "ually": 2137,
      "run": 2138,
      "Ġsaid": 2139,
      "Ġdevelop": 2140,
      "Ġnext": 2141,
      "ĠMar": 2142,
      "Ġoptions": 2143,
      "with": 2144,
      "loc": 2145,
      "Ġmap": 2146,
      "tes": 2147,
      "Ph": 2148,
      "space": 2149,
      "Date": 2150,
      "Util": 2151,
      "ches": 2152,
      "TH": 2153,
      "aces": 2154,
      "ĠUnited": 2155,
      "Ġevery": 2156,
      "Ġ$(": 2157,
      "ware": 2158,
      "ene": 2159,
      "err": 2160,
      "query": 2161,
      "Builder": 2162,
      "ĠCl": 2163,
      "Ġmov": 2164,
      "Ġcolor": 2165,
      "Ð°": 2166,
      "iction": 2167,
      "cast": 2168,
      "dir": 2169,
      "tilde": 2170,
      "ĠRes": 2171,
      "Ġdr": 2172,
      "Ġview": 2173,
      "gy": 2174,
      "Ġpass": 2175,
      "current": 2176,
      "26": 2177,
      "ring": 2178,
      ")}": 2179,
      "New": 2180,
      "Bar": 2181,
      "lem": 2182,
      "Ġinformation": 2183,
      "AME": 2184,
      "oin": 2185,
      "aut": 2186,
      "ĠPh": 2187,
      "Ġcoun": 2188,
      "Ġsource": 2189,
      "29": 2190,
      "ai": 2191,
      "ivity": 2192,
      "dl": 2193,
      "Ġrece": 2194,
      "])": 2195,
      "Lo": 2196,
      "ape": 2197,
      "anel": 2198,
      "duct": 2199,
      "button": 2200,
      "Ġlow": 2201,
      "ohn": 2202,
      "IL": 2203,
      "Ġresults": 2204,
      "ony": 2205,
      "eter": 2206,
      "options": 2207,
      "Ġsmall": 2208,
      "ql": 2209,
      "ĠList": 2210,
      "Ġsince": 2211,
      "Ġfin": 2212,
      "Ġmult": 2213,
      "*}": 2214,
      "ided": 2215,
      "Ġcalled": 2216,
      "+\\": 2217,
      "Ġ<<": 2218,
      "Ġfeature": 2219,
      "ĠEng": 2220,
      "chema": 2221,
      "gamma": 2222,
      "tual": 2223,
      "ech": 2224,
      "ability": 2225,
      "inition": 2226,
      "jav": 2227,
      "Ġbackground": 2228,
      "45": 2229,
      "Del": 2230,
      "icy": 2231,
      "mathrm": 2232,
      "por": 2233,
      "ĠAss": 2234,
      "ĠOr": 2235,
      "image": 2236,
      "Ġtable": 2237,
      "Stream": 2238,
      "99": 2239,
      "arrow": 2240,
      "Ġconsider": 2241,
      "Ġmessage": 2242,
      "atter": 2243,
      "ĠNULL": 2244,
      "request": 2245,
      "day": 2246,
      "Ġown": 2247,
      "Ġborder": 2248,
      "Ref": 2249,
      "80": 2250,
      "Input": 2251,
      "ience": 2252,
      "Ð¾": 2253,
      "args": 2254,
      "ĠAt": 2255,
      "Pr": 2256,
      "ively": 2257,
      "Ġappe": 2258,
      "Ġlevel": 2259,
      "big": 2260,
      "ĠSet": 2261,
      "Ġenc": 2262,
      "delta": 2263,
      "client": 2264,
      "ination": 2265,
      "pm": 2266,
      "ek": 2267,
      "AS": 2268,
      "ailable": 2269,
      "mo": 2270,
      "Tra": 2271,
      "Ġwidth": 2272,
      "btn": 2273,
      "adding": 2274,
      "Ġbro": 2275,
      "irc": 2276,
      "Ġmain": 2277,
      "ley": 2278,
      "aterial": 2279,
      "((": 2280,
      "ilt": 2281,
      "ling": 2282,
      "Ġlead": 2283,
      "55": 2284,
      "ides": 2285,
      "Ġdown": 2286,
      "func": 2287,
      "ĠShe": 2288,
      "ules": 2289,
      "ĠĠĠĠĠĠĠĠĠĠĠĠĠĠĠĠĠ": 2290,
      "Ġ->": 2291,
      "bs": 2292,
      ".,": 2293,
      "au": 2294,
      "Image": 2295,
      "Par": 2296,
      "Ġdescri": 2297,
      "ixed": 2298,
      "Ġinitial": 2299,
      "spond": 2300,
      "ital": 2301,
      "ES": 2302,
      "Gener": 2303,
      "rho": 2304,
      "arams": 2305,
      "ONT": 2306,
      "Ġdid": 2307,
      "ĠAnd": 2308,
      "alk": 2309,
      "ustr": 2310,
      "Ġav": 2311,
      "Ġgu": 2312,
      "ootball": 2313,
      "And": 2314,
      "Ġrepresent": 2315,
      "uments": 2316,
      "amed": 2317,
      "US": 2318,
      "Paramet": 2319,
      "Status": 2320,
      "Ġfact": 2321,
      "aj": 2322,
      "Ġresponse": 2323,
      "End": 2324,
      "Block": 2325,
      "^\\": 2326,
      "Instance": 2327,
      "tack": 2328,
      "rand": 2329,
      "urity": 2330,
      "Action": 2331,
      "Ġboolean": 2332,
      "Ġeffect": 2333,
      "IP": 2334,
      "Ġproject": 2335,
      "une": 2336,
      "uk": 2337,
      "bum": 2338,
      "ird": 2339,
      "Ġincluding": 2340,
      "Ġknown": 2341,
      "Ġeven": 2342,
      "DI": 2343,
      "Component": 2344,
      "Nav": 2345,
      "Sub": 2346,
      "ession": 2347,
      "init": 2348,
      "2015": 2349,
      "Ġlater": 2350,
      "Ġpresent": 2351,
      "Ġmark": 2352,
      "header": 2353,
      "YPE": 2354,
      "Exp": 2355,
      "height": 2356,
      "Ġhere": 2357,
      "Token": 2358,
      "undle": 2359,
      "Ġtak": 2360,
      "Ġdocument": 2361,
      "theta": 2362,
      "Ġproperty": 2363,
      "atab": 2364,
      "ĠĠĠĠĠĠĠĠĊ": 2365,
      "omen": 2366,
      "lev": 2367,
      "Ġfour": 2368,
      "ero": 2369,
      "[\"": 2370,
      "Ġvery": 2371,
      "ĠÐ": 2372,
      "Ġhead": 2373,
      "Ġfa": 2374,
      "Ġbased": 2375,
      "ret": 2376,
      "Ġagainst": 2377,
      "Base": 2378,
      "element": 2379,
      "ĠĠĠĠĠĠĠĠĠĠĠĠĊ": 2380,
      "page": 2381,
      "Lay": 2382,
      "hand": 2383,
      "ĉĊ": 2384,
      "Ġident": 2385,
      "rib": 2386,
      "ideo": 2387,
      "({": 2388,
      "rt": 2389,
      "2017": 2390,
      "}{\\": 2391,
      "Ġ\"\"\"": 2392,
      "navbar": 2393,
      "Ġmatch": 2394,
      "case": 2395,
      "oper": 2396,
      "Ġway": 2397,
      "Ġplayers": 2398,
      "Ġpost": 2399,
      "server": 2400,
      "su": 2401,
      "196": 2402,
      "ĠMay": 2403,
      "loy": 2404,
      "Str": 2405,
      "append": 2406,
      "ved": 2407,
      "tx": 2408,
      "ired": 2409,
      "yles": 2410,
      "ĠYou": 2411,
      "nect": 2412,
      "evel": 2413,
      "stru": 2414,
      "ename": 2415,
      "ĠHow": 2416,
      "Ġcle": 2417,
      "But": 2418,
      "graph": 2419,
      "Act": 2420,
      "angle": 2421,
      "ibr": 2422,
      "alth": 2423,
      "ĠPr": 2424,
      "2016": 2425,
      "Line": 2426,
      "REF": 2427,
      "target": 2428,
      "Ġ($": 2429,
      "figure": 2430,
      "NS": 2431,
      "cated": 2432,
      "Be": 2433,
      "ster": 2434,
      "ugin": 2435,
      "omet": 2436,
      "$-": 2437,
      "times": 2438,
      "apt": 2439,
      "Ġsw": 2440,
      "tau": 2441,
      "ius": 2442,
      "attern": 2443,
      "idget": 2444,
      "come": 2445,
      "active": 2446,
      "ival": 2447,
      "Ġcar": 2448,
      "Ġpres": 2449,
      "Ġoutput": 2450,
      "ored": 2451,
      "35": 2452,
      "ness": 2453,
      "Ġplace": 2454,
      "ended": 2455,
      "nu": 2456,
      "Handler": 2457,
      "ique": 2458,
      "ands": 2459,
      "2019": 2460,
      "]{": 2461,
      "older": 2462,
      "riter": 2463,
      "Ðµ": 2464,
      "ĠCan": 2465,
      "Null": 2466,
      "quad": 2467,
      "ĠEn": 2468,
      "EX": 2469,
      "aly": 2470,
      "leq": 2471,
      "Ġfilm": 2472,
      "omain": 2473,
      "position": 2474,
      "Ġseries": 2475,
      "anged": 2476,
      "xml": 2477,
      "Ġdev": 2478,
      "Buffer": 2479,
      "0000": 2480,
      "Ġcount": 2481,
      "parent": 2482,
      "sl": 2483,
      "andard": 2484,
      "Ed": 2485,
      "ĠĠĠĠĠĠĠĠĠĠĠĠĠĠ": 2486,
      "ĠStates": 2487,
      "select": 2488,
      "bug": 2489,
      "2014": 2490,
      "exp": 2491,
      "uro": 2492,
      "39": 2493,
      "Attribute": 2494,
      "Content": 2495,
      "inc": 2496,
      "Ġsingle": 2497,
      "opt": 2498,
      "01": 2499,
      "Ġ+=": 2500,
      "olution": 2501,
      "ansp": 2502,
      "Point": 2503,
      "ump": 2504,
      "xy": 2505,
      "){": 2506,
      "json": 2507,
      "2018": 2508,
      "atabase": 2509,
      "ĠPl": 2510,
      "semb": 2511,
      "has": 2512,
      "Ġincre": 2513,
      "ths": 2514,
      "Ġop": 2515,
      "Ġservice": 2516,
      "Ġlook": 2517,
      "Ġprogram": 2518,
      "Ġlang": 2519,
      "Ġthose": 2520,
      "Ġknow": 2521,
      "Ġexper": 2522,
      "Ġbound": 2523,
      "build": 2524,
      "Ġexample": 2525,
      "ari": 2526,
      "vider": 2527,
      "ators": 2528,
      "ories": 2529,
      "Options": 2530,
      "creen": 2531,
      "ĠJan": 2532,
      "Ġschool": 2533,
      "rows": 2534,
      "34": 2535,
      "ux": 2536,
      "ptr": 2537,
      "sim": 2538,
      "icense": 2539,
      "Ġgame": 2540,
      "urch": 2541,
      "Ġocc": 2542,
      "rl": 2543,
      "ategory": 2544,
      "child": 2545,
      "Ġseason": 2546,
      "lin": 2547,
      "ĠčĊ": 2548,
      "bottom": 2549,
      "No": 2550,
      "Ġsuccess": 2551,
      "adata": 2552,
      "Ġcondition": 2553,
      "ĠBu": 2554,
      "viron": 2555,
      "illi": 2556,
      "Hel": 2557,
      "ready": 2558,
      "bit": 2559,
      "where": 2560,
      "Resource": 2561,
      "Ġhelp": 2562,
      "Ġwant": 2563,
      "partial": 2564,
      "ĠTo": 2565,
      "194": 2566,
      "main": 2567,
      "Ġconf": 2568,
      "OP": 2569,
      "Source": 2570,
      "mon": 2571,
      "aint": 2572,
      "Ġhttp": 2573,
      "icle": 2574,
      "orage": 2575,
      "EL": 2576,
      "Run": 2577,
      "ĠAll": 2578,
      "Ġreal": 2579,
      "Link": 2580,
      "gener": 2581,
      "meta": 2582,
      "asure": 2583,
      "Ġport": 2584,
      "Equal": 2585,
      "olds": 2586,
      "195": 2587,
      "Ġworld": 2588,
      "arning": 2589,
      "Ġoriginal": 2590,
      "oud": 2591,
      "iag": 2592,
      "ternational": 2593,
      "iod": 2594,
      "tal": 2595,
      "*/": 2596,
      "ĠJohn": 2597,
      "Ġimplement": 2598,
      "Function": 2599,
      "Sc": 2600,
      "ĠWorld": 2601,
      "ances": 2602,
      "Ġparent": 2603,
      "efore": 2604,
      "Ġwithin": 2605,
      "Ġimage": 2606,
      "ĠWh": 2607,
      "ĉĉĉĉĉĉĉĉ": 2608,
      "member": 2609,
      "ialog": 2610,
      "open": 2611,
      "CK": 2612,
      "Ġcommun": 2613,
      "defined": 2614,
      "ĠSp": 2615,
      "ĠAd": 2616,
      "Ġvalid": 2617,
      "Ġposs": 2618,
      "property": 2619,
      "LASS": 2620,
      "Factory": 2621,
      "ĠCount": 2622,
      "used": 2623,
      "Le": 2624,
      "Ġopt": 2625,
      "Ġwithout": 2626,
      "FA": 2627,
      "ĠReg": 2628,
      "ssion": 2629,
      "src": 2630,
      "gress": 2631,
      "Ġdepend": 2632,
      "Ġuntil": 2633,
      "itive": 2634,
      "ague": 2635,
      "EE": 2636,
      "rowser": 2637,
      "GL": 2638,
      "Ġobtain": 2639,
      "display": 2640,
      "rist": 2641,
      "}(\\": 2642,
      "Version": 2643,
      "75": 2644,
      "enn": 2645,
      "ĠCar": 2646,
      "ĠPar": 2647,
      "2013": 2648,
      "Default": 2649,
      "ison": 2650,
      "Ġaction": 2651,
      "Window": 2652,
      "Command": 2653,
      "SP": 2654,
      "OL": 2655,
      "gle": 2656,
      "fe": 2657,
      "Ġrange": 2658,
      "Frame": 2659,
      "require": 2660,
      "${": 2661,
      "Ġinclude": 2662,
      "ls": 2663,
      "local": 2664,
      "Oper": 2665,
      "Ġlarge": 2666,
      "Start": 2667,
      "ĠObject": 2668,
      "izer": 2669,
      "Ġdisplay": 2670,
      "first": 2671,
      "eqref": 2672,
      "ascript": 2673,
      "Ġproble": 2674,
      "img": 2675,
      "UE": 2676,
      "private": 2677,
      "module": 2678,
      "Ġsever": 2679,
      "Ġpage": 2680,
      "mark": 2681,
      "ety": 2682,
      "uster": 2683,
      "rs": 2684,
      "Ġspace": 2685,
      "imum": 2686,
      "aster": 2687,
      "ocus": 2688,
      "Ġsk": 2689,
      "Ġexist": 2690,
      "2010": 2691,
      "char": 2692,
      "anges": 2693,
      "Ġfamily": 2694,
      "Ġtri": 2695,
      "AP": 2696,
      "Ġev": 2697,
      "AG": 2698,
      "Ass": 2699,
      "do": 2700,
      "imal": 2701,
      "Ġstill": 2702,
      "Ġsuper": 2703,
      "Task": 2704,
      "Ġsum": 2705,
      "\"]": 2706,
      "status": 2707,
      "sing": 2708,
      "iness": 2709,
      "ĠAdd": 2710,
      "Ġexec": 2711,
      "2011": 2712,
      "Ġaddition": 2713,
      "OS": 2714,
      "aving": 2715,
      "ately": 2716,
      "frame": 2717,
      "sg": 2718,
      "2012": 2719,
      "flow": 2720,
      "Ġaddress": 2721,
      "post": 2722,
      "push": 2723,
      "~~": 2724,
      "Ġbook": 2725,
      "ped": 2726,
      "True": 2727,
      "});": 2728,
      "Ġaround": 2729,
      "fty": 2730,
      "ATE": 2731,
      "tributes": 2732,
      "ĠCo": 2733,
      "write": 2734,
      "Ġcontrol": 2735,
      "ĠNone": 2736,
      "}$.": 2737,
      "Ġestab": 2738,
      "Ġlabel": 2739,
      "Ġdefined": 2740,
      "Ð¸": 2741,
      "book": 2742,
      "ĠNational": 2743,
      "layout": 2744,
      "font": 2745,
      "Off": 2746,
      "imation": 2747,
      "Delta": 2748,
      "Ġpub": 2749,
      "Ġresource": 2750,
      "36": 2751,
      "Ġrad": 2752,
      "ways": 2753,
      "ĠFe": 2754,
      "Fl": 2755,
      "}$,": 2756,
      "Ġalbum": 2757,
      "Ġla": 2758,
      "vis": 2759,
      "ĠJul": 2760,
      "ĠBl": 2761,
      "Ġchange": 2762,
      "ĠIm": 2763,
      "90": 2764,
      "Ġ{@": 2765,
      "infty": 2766,
      "omega": 2767,
      "ĠBe": 2768,
      "ĠTest": 2769,
      "ĠCent": 2770,
      "Ext": 2771,
      "ĠNov": 2772,
      "overnment": 2773,
      "VER": 2774,
      "It": 2775,
      "Number": 2776,
      "wards": 2777,
      "sert": 2778,
      "allet": 2779,
      "Ġmak": 2780,
      "ynam": 2781,
      "HT": 2782,
      "Ġlife": 2783,
      "Ġmuch": 2784,
      "31": 2785,
      "Ġpower": 2786,
      "Ġaccess": 2787,
      "ĠGu": 2788,
      "37": 2789,
      "Ġdon": 2790,
      "|\\": 2791,
      "pol": 2792,
      "aper": 2793,
      "igation": 2794,
      "close": 2795,
      "pack": 2796,
      "ĠThere": 2797,
      "Ġnetwork": 2798,
      "kn": 2799,
      "Return": 2800,
      "Ġprotected": 2801,
      "ĠGe": 2802,
      "TO": 2803,
      "ither": 2804,
      "ĠWar": 2805,
      "Cell": 2806,
      "description": 2807,
      "Ġlength": 2808,
      "last": 2809,
      "Label": 2810,
      "Ġcare": 2811,
      "iler": 2812,
      "endif": 2813,
      "ourn": 2814,
      "ober": 2815,
      "Ġ<!--": 2816,
      "ĠCal": 2817,
      "struction": 2818,
      "ĠPol": 2819,
      "hes": 2820,
      "$$": 2821,
      "strong": 2822,
      "If": 2823,
      "Ġet": 2824,
      "ught": 2825,
      "///": 2826,
      "Part": 2827,
      "Ġtake": 2828,
      "otype": 2829,
      "inst": 2830,
      "Ġfootball": 2831,
      "Ġcommand": 2832,
      "Ġarea": 2833,
      "FONT": 2834,
      "javascript": 2835,
      "FI": 2836,
      "urther": 2837,
      "PRO": 2838,
      "png": 2839,
      "Check": 2840,
      "host": 2841,
      "chn": 2842,
      "Ġreport": 2843,
      "df": 2844,
      "Ġthrows": 2845,
      "38": 2846,
      "Ġperson": 2847,
      "earch": 2848,
      "Ġpos": 2849,
      "pc": 2850,
      "ĠIN": 2851,
      "ĠBo": 2852,
      "ae": 2853,
      "foot": 2854,
      "find": 2855,
      "Button": 2856,
      "sol": 2857,
      "Create": 2858,
      "menu": 2859,
      "Ġcell": 2860,
      "eqn": 2861,
      "ĠReturn": 2862,
      "heet": 2863,
      "Const": 2864,
      "\\,": 2865,
      "py": 2866,
      "oto": 2867,
      "ocol": 2868,
      "Ġwon": 2869,
      "ised": 2870,
      "ĠâĢĶ": 2871,
      "imary": 2872,
      "SON": 2873,
      "params": 2874,
      "Ġassoci": 2875,
      "Ġrequired": 2876,
      "Ġprevious": 2877,
      "inary": 2878,
      "Ġclient": 2879,
      "ĠYork": 2880,
      "ording": 2881,
      "Ġgood": 2882,
      "ves": 2883,
      "Ġmag": 2884,
      "Ġavailable": 2885,
      "entry": 2886,
      "ians": 2887,
      "Ġbeh": 2888,
      "OD": 2889,
      "vironment": 2890,
      "////////////////": 2891,
      "ead": 2892,
      "Ġorgan": 2893,
      "resh": 2894,
      "ĠAug": 2895,
      "Page": 2896,
      "ibility": 2897,
      "Ġheight": 2898,
      "project": 2899,
      "ending": 2900,
      "ĠSchool": 2901,
      "Pol": 2902,
      "ifact": 2903,
      "mem": 2904,
      "ĠOct": 2905,
      "obj": 2906,
      "Ġabove": 2907,
      "signed": 2908,
      "xi": 2909,
      "si": 2910,
      "05": 2911,
      "Ġcharacter": 2912,
      "Ġprint": 2913,
      "Row": 2914,
      "(&": 2915,
      "Ġret": 2916,
      "non": 2917,
      "atform": 2918,
      "Ġanother": 2919,
      "Ġ((": 2920,
      "Ġexpected": 2921,
      "onents": 2922,
      "Ġalong": 2923,
      "ĠGL": 2924,
      "mit": 2925,
      "response": 2926,
      "Ġload": 2927,
      "gor": 2928,
      "Ġlaw": 2929,
      "Ġbest": 2930,
      "Ġparameter": 2931,
      "amples": 2932,
      "Ġstat": 2933,
      "Ġnear": 2934,
      "Ġatt": 2935,
      "Ġcolumn": 2936,
      "Ġurl": 2937,
      "Ġbec": 2938,
      "ĠUS": 2939,
      "Ġann": 2940,
      "ABLE": 2941,
      "Ġcap": 2942,
      "Ġdue": 2943,
      "Ġtotal": 2944,
      "Ġmargin": 2945,
      "Ġes": 2946,
      "sole": 2947,
      "Ġshort": 2948,
      "Ġfull": 2949,
      "stream": 2950,
      "ilar": 2951,
      "std": 2952,
      "Column": 2953,
      "format": 2954,
      "sets": 2955,
      "container": 2956,
      "ustral": 2957,
      "sembly": 2958,
      "ĠWest": 2959,
      "Ġside": 2960,
      "Ġgeneral": 2961,
      "els": 2962,
      "icro": 2963,
      "oke": 2964,
      "ĠNo": 2965,
      "spec": 2966,
      "orem": 2967,
      "ÑĤ": 2968,
      "ĠCounty": 2969,
      "Ġbir": 2970,
      "iple": 2971,
      "alt": 2972,
      "filter": 2973,
      "len": 2974,
      "Ã¡": 2975,
      "ĠInt": 2976,
      "Box": 2977,
      "mt": 2978,
      "Ġmusic": 2979,
      "Ġbecame": 2980,
      "ĠApp": 2981,
      "Ġnum": 2982,
      "reen": 2983,
      "Spec": 2984,
      "Style": 2985,
      "Ġgra": 2986,
      "rodu": 2987,
      "ij": 2988,
      "Controller": 2989,
      "ĠThey": 2990,
      "ament": 2991,
      "Ġcur": 2992,
      "Ġextends": 2993,
      "\").": 2994,
      "ĠBrit": 2995,
      "Pre": 2996,
      "Listener": 2997,
      "ops": 2998,
      "ging": 2999,
      "ĠFr": 3000,
      "Ġcr": 3001,
      "board": 3002,
      "oman": 3003,
      "Equals": 3004,
      "Ġwin": 3005,
      "imate": 3006,
      "ords": 3007,
      "Ġold": 3008,
      "Ġq": 3009,
      "leased": 3010,
      "irtual": 3011,
      "update": 3012,
      ":</": 3013,
      "usiness": 3014,
      "```": 3015,
      "Bundle": 3016,
      "Ġday": 3017,
      "ĠSouth": 3018,
      "ptember": 3019,
      "Ġsong": 3020,
      "wide": 3021,
      "Ġseveral": 3022,
      "Cache": 3023,
      "Last": 3024,
      "Ġeng": 3025,
      "07": 3026,
      "Ġren": 3027,
      "<?": 3028,
      "ĠBy": 3029,
      "ĠGener": 3030,
      "Ġrespect": 3031,
      "First": 3032,
      "num": 3033,
      "ung": 3034,
      "service": 3035,
      "styles": 3036,
      "UI": 3037,
      "2009": 3038,
      "44": 3039,
      "oice": 3040,
      "mber": 3041,
      "only": 3042,
      "INT": 3043,
      "Ġdiv": 3044,
      "vers": 3045,
      "Ġobserv": 3046,
      "Ġregion": 3047,
      "ĠMin": 3048,
      "SC": 3049,
      "caption": 3050,
      "Met": 3051,
      "Format": 3052,
      "ĠĠĠĠĠĠĠĠĠĠĠĠĠĠĠĠĠĠĠĠĠĠĠĠĠĠĠĠĠĠĠĠĠĠĠ": 3053,
      "2020": 3054,
      "Filter": 3055,
      "Ġke": 3056,
      "Ad": 3057,
      "Ġpolit": 3058,
      "uture": 3059,
      "erman": 3060,
      "acy": 3061,
      "annot": 3062,
      "rior": 3063,
      "Ġvol": 3064,
      "Child": 3065,
      "lim": 3066,
      "Ġauto": 3067,
      "stract": 3068,
      "small": 3069,
      "2008": 3070,
      "ĠState": 3071,
      "Ġhost": 3072,
      "\"),": 3073,
      "cul": 3074,
      "energy": 3075,
      "Det": 3076,
      "ĠCLASS": 3077,
      "buf": 3078,
      "Char": 3079,
      "ĠHREF": 3080,
      "''": 3081,
      "Ġrole": 3082,
      "Read": 3083,
      "Ġcomplet": 3084,
      "Ġparameters": 3085,
      "Ġfore": 3086,
      "umb": 3087,
      "edia": 3088,
      "ade": 3089,
      "ĠJanuary": 3090,
      "ntity": 3091,
      "raft": 3092,
      "uid": 3093,
      "igger": 3094,
      "Ġrelation": 3095,
      "raint": 3096,
      ")(": 3097,
      "sq": 3098,
      "structor": 3099,
      "oding": 3100,
      "ĠApr": 3101,
      "08": 3102,
      "Ġdeath": 3103,
      "NO": 3104,
      "Sup": 3105,
      "udio": 3106,
      "ales": 3107,
      "Ġmodule": 3108,
      "ĠHowever": 3109,
      "refix": 3110,
      "Ġoffic": 3111,
      "Dep": 3112,
      "ysis": 3113,
      "ĠSer": 3114,
      "ugg": 3115,
      "Valid": 3116,
      "BU": 3117,
      "ocial": 3118,
      "Ġcour": 3119,
      "cdot": 3120,
      "Ġwindow": 3121,
      "pected": 3122,
      "CC": 3123,
      "Sp": 3124,
      "ĠMarch": 3125,
      "gorith": 3126,
      "cm": 3127,
      "attr": 3128,
      "URL": 3129,
      "HE": 3130,
      "cache": 3131,
      "iment": 3132,
      "Ġcatch": 3133,
      "remove": 3134,
      "istor": 3135,
      "jor": 3136,
      "ploy": 3137,
      "Length": 3138,
      "Ġalready": 3139,
      "Ġcorrespond": 3140,
      "tact": 3141,
      "MS": 3142,
      "alysis": 3143,
      "Web": 3144,
      "aced": 3145,
      "draw": 3146,
      "Ġfont": 3147,
      "Url": 3148,
      "Ð½": 3149,
      "Ġhome": 3150,
      "Ġupdate": 3151,
      "alf": 3152,
      "lege": 3153,
      "Ġ]": 3154,
      "Tem": 3155,
      "show": 3156,
      "dapt": 3157,
      "anc": 3158,
      "tag": 3159,
      "lied": 3160,
      "Ġtask": 3161,
      "unk": 3162,
      "Back": 3163,
      "Ġvariable": 3164,
      "Output": 3165,
      "Ġleg": 3166,
      "iff": 3167,
      "Mode": 3168,
      "ampion": 3169,
      "Layout": 3170,
      "').": 3171,
      "Ġoption": 3172,
      "Collection": 3173,
      "âĢľ": 3174,
      "instance": 3175,
      "2007": 3176,
      "lector": 3177,
      "aim": 3178,
      "ĠSeptember": 3179,
      "ĠAugust": 3180,
      "########": 3181,
      "reference": 3182,
      "column": 3183,
      "oy": 3184,
      "ĠRep": 3185,
      "ĉĠĠĠ": 3186,
      "COL": 3187,
      "Ġprom": 3188,
      "IM": 3189,
      "known": 3190,
      "apping": 3191,
      "dependent": 3192,
      "ĠSup": 3193,
      "now": 3194,
      "UM": 3195,
      "gen": 3196,
      "Ġdesign": 3197,
      "cket": 3198,
      "ites": 3199,
      "sequ": 3200,
      "utions": 3201,
      "ĠOctober": 3202,
      "Ġdeter": 3203,
      "rel": 3204,
      "TYPE": 3205,
      "Ġlay": 3206,
      "}[": 3207,
      "ado": 3208,
      "Ġpoints": 3209,
      "level": 3210,
      "Ġspe": 3211,
      "See": 3212,
      "bra": 3213,
      "48": 3214,
      "Ġstatus": 3215,
      "ĠDes": 3216,
      "Ġtrack": 3217,
      "Ġrest": 3218,
      "Ġspecified": 3219,
      "aml": 3220,
      "Update": 3221,
      "else": 3222,
      "number": 3223,
      "Ġtechn": 3224,
      "ĠJune": 3225,
      "_.": 3226,
      "classes": 3227,
      "ze": 3228,
      "hether": 3229,
      "omic": 3230,
      "lap": 3231,
      "ERR": 3232,
      "Aut": 3233,
      "imension": 3234,
      "Ġmat": 3235,
      "Ġalign": 3236,
      "Ġsection": 3237,
      "Ġclose": 3238,
      "lip": 3239,
      "gl": 3240,
      "Ġmembers": 3241,
      "IZ": 3242,
      "CON": 3243,
      "Ġmass": 3244,
      "ii": 3245,
      "tool": 3246,
      "ribution": 3247,
      "stit": 3248,
      "ged": 3249,
      "|-": 3250,
      "Ġmar": 3251,
      "Ġfre": 3252,
      "output": 3253,
      "cember": 3254,
      "cho": 3255,
      ")$.": 3256,
      "ĠDef": 3257,
      "urope": 3258,
      "rypt": 3259,
      "Ġcreated": 3260,
      "andom": 3261,
      "change": 3262,
      "uc": 3263,
      "Om": 3264,
      "eqnarray": 3265,
      ".âĢĿ": 3266,
      "DB": 3267,
      "idden": 3268,
      "2006": 3269,
      "Ob": 3270,
      "sd": 3271,
      "ĠJuly": 3272,
      "Address": 3273,
      "=\"-": 3274,
      "=\"../../../../../": 3275,
      "ĠApril": 3276,
      "Ġcopy": 3277,
      "Ġbody": 3278,
      "ĠAustral": 3279,
      "utils": 3280,
      "ured": 3281,
      "ÑĢ": 3282,
      "Ġcomput": 3283,
      "asic": 3284,
      "Ġturn": 3285,
      "ĠEd": 3286,
      "Ġ[]": 3287,
      "epsilon": 3288,
      "ention": 3289,
      "ially": 3290,
      "ND": 3291,
      "dom": 3292,
      "Ġmember": 3293,
      "Ġfail": 3294,
      "tails": 3295,
      "Ġcallback": 3296,
      "ftware": 3297,
      "ĠAPI": 3298,
      "istic": 3299,
      "Ġfree": 3300,
      "Ġparticular": 3301,
      "Ġearly": 3302,
      "ada": 3303,
      "sm": 3304,
      "2000": 3305,
      "kit": 3306,
      "Ġreleased": 3307,
      "Ġdouble": 3308,
      "Ġconnection": 3309,
      "TP": 3310,
      "ĠArray": 3311,
      "04": 3312,
      "uman": 3313,
      "proto": 3314,
      "final": 3315,
      "ibrary": 3316,
      "Ġpossible": 3317,
      "illion": 3318,
      "++)": 3319,
      "02": 3320,
      "dr": 3321,
      "Ġinternal": 3322,
      "ensor": 3323,
      "uck": 3324,
      "mar": 3325,
      "rest": 3326,
      "Provider": 3327,
      "}}\\": 3328,
      "assword": 3329,
      "Ġnone": 3330,
      "ĠCity": 3331,
      "Fe": 3332,
      "ĠID": 3333,
      "ĠBut": 3334,
      "ham": 3335,
      "AM": 3336,
      "ana": 3337,
      "Em": 3338,
      "ĠHT": 3339,
      "Server": 3340,
      "Ġserver": 3341,
      "ino": 3342,
      "verse": 3343,
      "uint": 3344,
      "Ġsat": 3345,
      "Ġ!==": 3346,
      ">>": 3347,
      "rapper": 3348,
      "dict": 3349,
      "ensure": 3350,
      "cade": 3351,
      "Ġnav": 3352,
      "ĠAb": 3353,
      "Ġinterest": 3354,
      "process": 3355,
      "NAME": 3356,
      "graphics": 3357,
      "scope": 3358,
      "ront": 3359,
      "mult": 3360,
      "ĠNorth": 3361,
      "ĠPart": 3362,
      "ynt": 3363,
      "unit": 3364,
      "roy": 3365,
      "Ġcity": 3366,
      "window": 3367,
      "II": 3368,
      "dat": 3369,
      "cap": 3370,
      "Ġweek": 3371,
      "Ab": 3372,
      "ĠFig": 3373,
      "support": 3374,
      "Ġclo": 3375,
      "anagement": 3376,
      "exec": 3377,
      "ĠMan": 3378,
      "iet": 3379,
      "Ġden": 3380,
      "ERT": 3381,
      "Ġformer": 3382,
      "ication": 3383,
      "ilit": 3384,
      "Ġrema": 3385,
      "ĠSte": 3386,
      "Ġmeasure": 3387,
      "Ġchildren": 3388,
      "irection": 3389,
      "na": 3390,
      "Mem": 3391,
      "********************************": 3392,
      "Ġproduct": 3393,
      "fa": 3394,
      "Ġfew": 3395,
      "Ġsearch": 3396,
      "Dev": 3397,
      "Ġframe": 3398,
      "CODE": 3399,
      "wise": 3400,
      "oo": 3401,
      "06": 3402,
      "ĠTra": 3403,
      "ĠNovember": 3404,
      "Ġevents": 3405,
      "ĠSw": 3406,
      "offset": 3407,
      "cs": 3408,
      "09": 3409,
      "Ġdel": 3410,
      "Per": 3411,
      "Ġelect": 3412,
      "Ġtimes": 3413,
      "era": 3414,
      "Ġeither": 3415,
      "Ġcontinu": 3416,
      "ĠEX": 3417,
      "template": 3418,
      "Rem": 3419,
      "ours": 3420,
      "Ġenergy": 3421,
      "ĉĉĉĉĉĉĉ": 3422,
      "Com": 3423,
      "Width": 3424,
      "istry": 3425,
      "ference": 3426,
      "Ġdest": 3427,
      "ography": 3428,
      "ones": 3429,
      "pose": 3430,
      "Ġlight": 3431,
      "ĠBar": 3432,
      "Open": 3433,
      "psilon": 3434,
      "ĠClass": 3435,
      "ney": 3436,
      "clus": 3437,
      "Ġaccount": 3438,
      "urg": 3439,
      "sqrt": 3440,
      "Ġsimilar": 3441,
      "je": 3442,
      "ply": 3443,
      "Ġperiod": 3444,
      "can": 3445,
      "Omega": 3446,
      "Offset": 3447,
      "Ġder": 3448,
      "Ġredu": 3449,
      "parse": 3450,
      "()->": 3451,
      "Ġprof": 3452,
      "amil": 3453,
      "ĠRec": 3454,
      "psi": 3455,
      "Case": 3456,
      "Ġ**": 3457,
      "ĠLicense": 3458,
      "ĠDecember": 3459,
      "oriz": 3460,
      "}_{\\": 3461,
      "iddle": 3462,
      "Ġplayed": 3463,
      "Ġauthor": 3464,
      "Ġformat": 3465,
      "Ġmajor": 3466,
      "Entry": 3467,
      "ias": 3468,
      "cor": 3469,
      "irm": 3470,
      "artifact": 3471,
      "Ġvert": 3472,
      "ĠFile": 3473,
      "Ġprob": 3474,
      "arge": 3475,
      "Ġver": 3476,
      "Ġinterface": 3477,
      "Ð¾Ð": 3478,
      "Ġargs": 3479,
      "67": 3480,
      "Ġdate": 3481,
      "Ġquery": 3482,
      "Ġfiles": 3483,
      "hip": 3484,
      "Entity": 3485,
      "Ġlimit": 3486,
      "ĠUp": 3487,
      "thern": 3488,
      "ĠGo": 3489,
      "ĠSo": 3490,
      "Var": 3491,
      ",\"": 3492,
      "prototype": 3493,
      "Ġelements": 3494,
      "Ġcustom": 3495,
      "ĠTe": 3496,
      "atal": 3497,
      "LI": 3498,
      "Ġmodels": 3499,
      "Ġsl": 3500,
      "bert": 3501,
      "ribut": 3502,
      "Parameter": 3503,
      "Record": 3504,
      "Ġmode": 3505,
      "Target": 3506,
      "Ġwrite": 3507,
      "Ġred": 3508,
      "ges": 3509,
      "API": 3510,
      "mm": 3511,
      "Configuration": 3512,
      "Ġiss": 3513,
      "ried": 3514,
      "igin": 3515,
      "Types": 3516,
      "Ã³": 3517,
      "Ġvari": 3518,
      "cell": 3519,
      "Tree": 3520,
      "aves": 3521,
      "chi": 3522,
      "ba": 3523,
      "control": 3524,
      "criptor": 3525,
      "Ġadv": 3526,
      "ensity": 3527,
      "^*": 3528,
      "Ġput": 3529,
      "ration": 3530,
      "Utils": 3531,
      "=\"../../../../../../": 3532,
      "ĠWhen": 3533,
      "]);": 3534,
      "Ġmove": 3535,
      "Ġcomb": 3536,
      "bool": 3537,
      "Ġproblem": 3538,
      "Access": 3539,
      "ouch": 3540,
      "Vis": 3541,
      "float": 3542,
      "ĠChrist": 3543,
      "(_": 3544,
      "Ġmethods": 3545,
      "Ġless": 3546,
      "bruary": 3547,
      "Ġhistory": 3548,
      "itory": 3549,
      "ĠEurope": 3550,
      "document": 3551,
      "Tag": 3552,
      "Level": 3553,
      "returns": 3554,
      "IO": 3555,
      "ĠAct": 3556,
      "ĠNot": 3557,
      "Ġindic": 3558,
      "bm": 3559,
      "match": 3560,
      "ĠAf": 3561,
      "token": 3562,
      "ought": 3563,
      "Ġnamed": 3564,
      "Ġuint": 3565,
      "ĠDis": 3566,
      "born": 3567,
      "ĠType": 3568,
      "acity": 3569,
      "bind": 3570,
      "ries": 3571,
      "ci": 3572,
      "idual": 3573,
      "lit": 3574,
      "Ġmean": 3575,
      "([": 3576,
      "ĠOF": 3577,
      "yl": 3578,
      "long": 3579,
      "Ġsequ": 3580,
      "rew": 3581,
      "Unit": 3582,
      "Max": 3583,
      "Ġ``": 3584,
      "PC": 3585,
      "tree": 3586,
      "Ġgovernment": 3587,
      "2005": 3588,
      "modal": 3589,
      "Acc": 3590,
      "Ġcompany": 3591,
      "Ġreceived": 3592,
      "ĠCont": 3593,
      "lies": 3594,
      "Control": 3595,
      "strap": 3596,
      "Gamma": 3597,
      "clear": 3598,
      "ensions": 3599,
      "Ġwomen": 3600,
      "ĠVal": 3601,
      "AA": 3602,
      "Ġlen": 3603,
      "Ġproperties": 3604,
      "vare": 3605,
      "buffer": 3606,
      "Position": 3607,
      "47": 3608,
      "Ġshown": 3609,
      "root": 3610,
      "Ġreturned": 3611,
      "03": 3612,
      "ULT": 3613,
      "Ġrow": 3614,
      "Interface": 3615,
      "ris": 3616,
      "ãģ": 3617,
      "Ġinstall": 3618,
      "ights": 3619,
      "Container": 3620,
      "eline": 3621,
      "common": 3622,
      "âĢĶ": 3623,
      "hem": 3624,
      "Min": 3625,
      ")$,": 3626,
      "subsection": 3627,
      "Ġprovided": 3628,
      "Big": 3629,
      "./": 3630,
      "ĠAfter": 3631,
      "Header": 3632,
      "ires": 3633,
      "Ġgl": 3634,
      "border": 3635,
      "Ġfloat": 3636,
      "Ġsite": 3637,
      "Ġ\\,": 3638,
      "skip": 3639,
      "empty": 3640,
      "65": 3641,
      "Ġfunctions": 3642,
      "Ġinteg": 3643,
      "ittle": 3644,
      "essages": 3645,
      "ĠKing": 3646,
      "Ġcompet": 3647,
      "Ñģ": 3648,
      "ogn": 3649,
      "Ġspecial": 3650,
      "Ġpot": 3651,
      "Ġ{}": 3652,
      "Ġsay": 3653,
      "tml": 3654,
      "Load": 3655,
      "rant": 3656,
      "layer": 3657,
      "stylesheet": 3658,
      "Wh": 3659,
      "reet": 3660,
      "drop": 3661,
      "boot": 3662,
      "Exec": 3663,
      "Ġpay": 3664,
      "Ġglobal": 3665,
      "Ġthink": 3666,
      "ĠBritish": 3667,
      "Ġstudy": 3668,
      "\"))": 3669,
      "valu": 3670,
      "ĠHar": 3671,
      "Ġmer": 3672,
      "Ġcover": 3673,
      "Ġdone": 3674,
      "'),": 3675,
      "Ġstructure": 3676,
      "Ġlanguage": 3677,
      "ably": 3678,
      "ordin": 3679,
      "Connection": 3680,
      "KE": 3681,
      "Enc": 3682,
      "sel": 3683,
      "Schema": 3684,
      "ansport": 3685,
      "Top": 3686,
      "ĠMc": 3687,
      "ATION": 3688,
      "%;": 3689,
      "artifactId": 3690,
      "Ġstrong": 3691,
      "pis": 3692,
      "ÃŃ": 3693,
      "varepsilon": 3694,
      ".$": 3695,
      "Ġfilter": 3696,
      "Bo": 3697,
      "resource": 3698,
      "PO": 3699,
      "Ġobj": 3700,
      "actions": 3701,
      "device": 3702,
      "Ġ${\\": 3703,
      "Module": 3704,
      "Ġbuffer": 3705,
      "Search": 3706,
      "Ġfields": 3707,
      "Ġleast": 3708,
      "][": 3709,
      "ĉĠ": 3710,
      "Ġdecl": 3711,
      "gether": 3712,
      "Ġshows": 3713,
      "Ġtoo": 3714,
      "late": 3715,
      "88": 3716,
      "otal": 3717,
      "Ġstandard": 3718,
      ":\"": 3719,
      "mail": 3720,
      "second": 3721,
      "gorithm": 3722,
      "Ġdescribed": 3723,
      "2004": 3724,
      "}=": 3725,
      "encies": 3726,
      "ike": 3727,
      "ctx": 3728,
      "Ġintrodu": 3729,
      "thers": 3730,
      "hel": 3731,
      "prop": 3732,
      "Ġimportant": 3733,
      "licit": 3734,
      "ĠLeague": 3735,
      "Ġinvest": 3736,
      "should": 3737,
      ")=": 3738,
      "Ġinit": 3739,
      "Ġappear": 3740,
      "though": 3741,
      "vec": 3742,
      "ĠFebruary": 3743,
      "Callback": 3744,
      "Ġalways": 3745,
      "Next": 3746,
      "Location": 3747,
      "IGN": 3748,
      "Ġgraph": 3749,
      "Ġ...": 3750,
      "env": 3751,
      "Height": 3752,
      "ĠMe": 3753,
      "VAL": 3754,
      "ĠFl": 3755,
      "UP": 3756,
      "COLOR": 3757,
      "Ġincluded": 3758,
      "task": 3759,
      "author": 3760,
      "ĠPer": 3761,
      "ampionship": 3762,
      "otion": 3763,
      "Range": 3764,
      "Ġide": 3765,
      "Ġnormal": 3766,
      "dest": 3767,
      "before": 3768,
      "Ġstream": 3769,
      "Ġbuilt": 3770,
      "Ġarch": 3771,
      "Ġcor": 3772,
      "Write": 3773,
      "typ": 3774,
      "Ġband": 3775,
      "ĠData": 3776,
      "Ġarr": 3777,
      "afe": 3778,
      "Ag": 3779,
      "orph": 3780,
      "AV": 3781,
      "{{": 3782,
      "Ġlate": 3783,
      "Ġwhether": 3784,
      "ha": 3785,
      "49": 3786,
      "ards": 3787,
      "medi": 3788,
      "soft": 3789,
      "conf": 3790,
      "ĠWith": 3791,
      "77": 3792,
      "Description": 3793,
      "^{(": 3794,
      "Ġterms": 3795,
      "QL": 3796,
      "Http": 3797,
      "groupId": 3798,
      "thon": 3799,
      "Sec": 3800,
      "itted": 3801,
      "issing": 3802,
      "Ġxml": 3803,
      "ĠReturns": 3804,
      "Ġ*)": 3805,
      "ĠChar": 3806,
      "Ġsent": 3807,
      "rench": 3808,
      "'>": 3809,
      "Empty": 3810,
      "command": 3811,
      "Ġvia": 3812,
      "Params": 3813,
      "Script": 3814,
      "patch": 3815,
      "omin": 3816,
      "Ġperm": 3817,
      "Work": 3818,
      "Ġexpl": 3819,
      "sign": 3820,
      "Ġlocation": 3821,
      ")]": 3822,
      "Ġtook": 3823,
      ">,": 3824,
      "Ġcenter": 3825,
      "queue": 3826,
      "eder": 3827,
      "Ġpadding": 3828,
      "models": 3829,
      "ks": 3830,
      "plit": 3831,
      "ECT": 3832,
      "uggest": 3833,
      "debug": 3834,
      "ĠDo": 3835,
      "Ġsom": 3836,
      "ails": 3837,
      "ĠMon": 3838,
      "Ġcollection": 3839,
      "ĠHigh": 3840,
      "}/": 3841,
      "ttps": 3842,
      "ebug": 3843,
      "etch": 3844,
      "Ġsepar": 3845,
      "Ġcontains": 3846,
      "ãĥ": 3847,
      "Ġassociated": 3848,
      "scale": 3849,
      "Hash": 3850,
      "anding": 3851,
      "illiam": 3852,
      "files": 3853,
      "Ġhouse": 3854,
      "Ġenter": 3855,
      "Ġtown": 3856,
      "Menu": 3857,
      "Ġplayer": 3858,
      "olve": 3859,
      "textbf": 3860,
      "Po": 3861,
      "ĠThese": 3862,
      "Ġcache": 3863,
      "ause": 3864,
      "Op": 3865,
      "rangle": 3866,
      "():": 3867,
      "emph": 3868,
      "Ġnever": 3869,
      "hent": 3870,
      "wait": 3871,
      "IZE": 3872,
      "Ġquest": 3873,
      "ĠNS": 3874,
      "Ġentry": 3875,
      "Ġspecific": 3876,
      "Process": 3877,
      "Ġreturns": 3878,
      "bin": 3879,
      "Ġroot": 3880,
      "Ġchannel": 3881,
      "Ġtyp": 3882,
      "Ġoperation": 3883,
      "ctor": 3884,
      "Que": 3885,
      "ĠĠĠĠĠĠĠĠĠĠĠĠĠĠĠĠĠĠĠĠĠ": 3886,
      "ulture": 3887,
      "Ġspect": 3888,
      "kind": 3889,
      "itu": 3890,
      "ugins": 3891,
      "isf": 3892,
      "includegraphics": 3893,
      "values": 3894,
      "inner": 3895,
      "Ġthird": 3896,
      "Ġhttps": 3897,
      "Ġapplication": 3898,
      "Ġoffset": 3899,
      "ently": 3900,
      "background": 3901,
      "Ġeas": 3902,
      "Ġcomponent": 3903,
      "cing": 3904,
      "Pe": 3905,
      "Settings": 3906,
      "Ġfilms": 3907,
      "Ġgames": 3908,
      "Ġbelow": 3909,
      "ocket": 3910,
      "mut": 3911,
      "acing": 3912,
      "ĠCor": 3913,
      "ressed": 3914,
      "Ġremove": 3915,
      "Ġbegin": 3916,
      "ondon": 3917,
      "ille": 3918,
      "Thread": 3919,
      "Ġfilename": 3920,
      "Ġinstead": 3921,
      "ceed": 3922,
      "century": 3923,
      ":(": 3924,
      "ĠSim": 3925,
      "Ġadded": 3926,
      "oph": 3927,
      "Inst": 3928,
      "Ġ>=": 3929,
      "Ġclear": 3930,
      "images": 3931,
      "Font": 3932,
      "rown": 3933,
      "FO": 3934,
      "Ġheld": 3935,
      "Ġcareer": 3936,
      "Ġquant": 3937,
      "gra": 3938,
      "Ġparams": 3939,
      "Ġhapp": 3940,
      "Json": 3941,
      "ĠHis": 3942,
      "Ġtypes": 3943,
      "One": 3944,
      "hash": 3945,
      "DIR": 3946,
      "pri": 3947,
      "95": 3948,
      "Ġbirths": 3949,
      "ĠEnglish": 3950,
      "adow": 3951,
      "Ġfurther": 3952,
      "lying": 3953,
      "varphi": 3954,
      "Ġwritten": 3955,
      "Ġfollows": 3956,
      "ĠSan": 3957,
      "Ġprovide": 3958,
      "Ġage": 3959,
      "ĠCreate": 3960,
      "levision": 3961,
      "ĠLog": 3962,
      "mi": 3963,
      "ursor": 3964,
      "ĠRem": 3965,
      "Ġmight": 3966,
      "}^{\\": 3967,
      "ids": 3968,
      "Ġsec": 3969,
      "ases": 3970,
      "Co": 3971,
      "ĠCoun": 3972,
      "irectory": 3973,
      "tim": 3974,
      "Ġresearch": 3975,
      "None": 3976,
      "expected": 3977,
      "verage": 3978,
      "Ġpopulation": 3979,
      "docs": 3980,
      "Ġsche": 3981,
      "ĠOne": 3982,
      "dist": 3983,
      "STR": 3984,
      "70": 3985,
      "SH": 3986,
      "rightarrow": 3987,
      "oded": 3988,
      "Ġwater": 3989,
      "grad": 3990,
      "posed": 3991,
      "Option": 3992,
      "ĠArm": 3993,
      "After": 3994,
      "Ġfive": 3995,
      "aven": 3996,
      "Ġlocated": 3997,
      "Ġ;": 3998,
      "thing": 3999,
      "Ġremov": 4000,
      "break": 4001,
      "}).": 4002,
      "omb": 4003,
      "Let": 4004,
      "olved": 4005,
      "TI": 4006,
      "Ġvirtual": 4007,
      "Change": 4008,
      "Ġsix": 4009,
      "Ġfeatures": 4010,
      "cil": 4011,
      "riend": 4012,
      "ĠAg": 4013,
      "Copy": 4014,
      "42": 4015,
      "oggle": 4016,
      "ĠName": 4017,
      "oment": 4018,
      "Ġmeans": 4019,
      "Ġlower": 4020,
      "Ġ::": 4021,
      "Ġcrit": 4022,
      "Ġrelease": 4023,
      "Properties": 4024,
      "Ġge": 4025,
      "ological": 4026,
      "Ġimpro": 4027,
      "ĠTrans": 4028,
      "Dec": 4029,
      "TER": 4030,
      "âĢ¦": 4031,
      "Ġbegan": 4032,
      "Serial": 4033,
      "Parser": 4034,
      "2001": 4035,
      "Ġactive": 4036,
      "&&": 4037,
      "\"));": 4038,
      "Ġcer": 4039,
      "dividual": 4040,
      "iol": 4041,
      "entity": 4042,
      "ĠArt": 4043,
      "Ġphys": 4044,
      "Ġmedia": 4045,
      "Current": 4046,
      "ĠJap": 4047,
      "Ġoverride": 4048,
      "aries": 4049,
      "interface": 4050,
      "Ġreference": 4051,
      "Impl": 4052,
      "DL": 4053,
      "stack": 4054,
      "Ġpat": 4055,
      "Ġ\"\\": 4056,
      "Ġair": 4057,
      "Ġdat": 4058,
      "Ġtw": 4059,
      "Ġoften": 4060,
      "Ġcamp": 4061,
      "orizont": 4062,
      "tach": 4063,
      "=\"/": 4064,
      "Ġmatrix": 4065,
      "ACK": 4066,
      "Ġperformance": 4067,
      "Ġwar": 4068,
      "Ġonce": 4069,
      "Integer": 4070,
      "Ġvideo": 4071,
      "Ġstates": 4072,
      "aff": 4073,
      "obile": 4074,
      "Ġpublished": 4075,
      "Ġins": 4076,
      "Ġstore": 4077,
      "dated": 4078,
      "most": 4079,
      "split": 4080,
      "Ġjob": 4081,
      "Ġiter": 4082,
      "ĠAfric": 4083,
      "Ġsignific": 4084,
      "Ġrender": 4085,
      "Session": 4086,
      "Ġbit": 4087,
      "Ġgen": 4088,
      "fficient": 4089,
      "proof": 4090,
      "idence": 4091,
      "unch": 4092,
      "Ġcontrib": 4093,
      "ĠNe": 4094,
      ".\\": 4095,
      "auth": 4096,
      "Ġgreat": 4097,
      "ĠÂ": 4098,
      "NavBar": 4099,
      "Project": 4100,
      "Ġestablished": 4101,
      "46": 4102,
      "msg": 4103,
      "Ġdistribution": 4104,
      "ĠInter": 4105,
      "ĠPark": 4106,
      "ĠQu": 4107,
      "Ge": 4108,
      "example": 4109,
      "Ġattribute": 4110,
      "Ġclub": 4111,
      "Document": 4112,
      "Ġunit": 4113,
      "card": 4114,
      "ients": 4115,
      "oder": 4116,
      "Ġselected": 4117,
      "Ġbox": 4118,
      "year": 4119,
      "Ġhaving": 4120,
      "%%": 4121,
      "asing": 4122,
      "icip": 4123,
      "Ġbetter": 4124,
      "ica": 4125,
      "footer": 4126,
      "oll": 4127,
      "ising": 4128,
      "ford": 4129,
      "(:": 4130,
      "ĠAir": 4131,
      "urb": 4132,
      "ĠUR": 4133,
      "&#": 4134,
      "ĉĉĊ": 4135,
      "icons": 4136,
      "Ġbuilding": 4137,
      "Port": 4138,
      "Ġstation": 4139,
      "hover": 4140,
      "session": 4141,
      "Pos": 4142,
      "itions": 4143,
      "Local": 4144,
      "ĠII": 4145,
      "iation": 4146,
      "ounds": 4147,
      "uted": 4148,
      "delete": 4149,
      "abor": 4150,
      "ĠCollege": 4151,
      "Ġvill": 4152,
      "Ġamong": 4153,
      "Ġpair": 4154,
      "bb": 4155,
      "Ġcomplex": 4156,
      "ĠException": 4157,
      "Ġrecent": 4158,
      "Store": 4159,
      "ĠBG": 4160,
      "American": 4161,
      "ka": 4162,
      "lice": 4163,
      "Ġcou": 4164,
      "Ġstop": 4165,
      "Ġdraw": 4166,
      "ĠLa": 4167,
      "Ġblack": 4168,
      "ournal": 4169,
      "geq": 4170,
      "}),": 4171,
      "ĠÃ": 4172,
      "orizontal": 4173,
      "85": 4174,
      "bor": 4175,
      "attle": 4176,
      "ĠPres": 4177,
      "render": 4178,
      "ĠEast": 4179,
      "Async": 4180,
      "ĠLondon": 4181,
      "BC": 4182,
      "aul": 4183,
      "[\\": 4184,
      "Ġpotential": 4185,
      "Ġnational": 4186,
      ";->": 4187,
      "fil": 4188,
      "Ġworks": 4189,
      "alle": 4190,
      "ĠAmeric": 4191,
      "Ġchanges": 4192,
      "Ġattack": 4193,
      "ĠWeb": 4194,
      "================================": 4195,
      "Ġdiff": 4196,
      "PECT": 4197,
      "system": 4198,
      "Ġbecome": 4199,
      "Ġdep": 4200,
      "Match": 4201,
      "Ġ['": 4202,
      "Ġmen": 4203,
      "=\"_": 4204,
      "Render": 4205,
      "izing": 4206,
      "ĠMy": 4207,
      "Ġhash": 4208,
      "ãĤ": 4209,
      "ington": 4210,
      "ĠâĢĺ": 4211,
      "ĠDav": 4212,
      "ama": 4213,
      "ĠDep": 4214,
      "Ġtransform": 4215,
      "Dir": 4216,
      ".~\\": 4217,
      "Ġcountry": 4218,
      "IV": 4219,
      "Ġsolid": 4220,
      "make": 4221,
      "Sim": 4222,
      "ĠPe": 4223,
      "internal": 4224,
      "Ġvarious": 4225,
      "Ġtogether": 4226,
      "ĠBro": 4227,
      "send": 4228,
      "nap": 4229,
      "ĠRev": 4230,
      "ĠRed": 4231,
      "MM": 4232,
      "ĠAcc": 4233,
      "sv": 4234,
      "ĠAssert": 4235,
      "Ġcommon": 4236,
      "CL": 4237,
      "cr": 4238,
      "sf": 4239,
      "cat": 4240,
      "ief": 4241,
      "Expression": 4242,
      "Ġstory": 4243,
      "Ġflow": 4244,
      "Ġbusiness": 4245,
      "ĠStr": 4246,
      "gr": 4247,
      "itter": 4248,
      "Ptr": 4249,
      "Ġobjects": 4250,
      "tains": 4251,
      "ua": 4252,
      "Ġtemplate": 4253,
      "Ġaff": 4254,
      "###": 4255,
      "Ġaccept": 4256,
      "istrict": 4257,
      "under": 4258,
      "ilities": 4259,
      "Ġtag": 4260,
      "ä¸": 4261,
      "UB": 4262,
      "ĠMed": 4263,
      "ald": 4264,
      "2003": 4265,
      "ART": 4266,
      "ething": 4267,
      "Ġempty": 4268,
      "Ġcy": 4269,
      "Ġhandle": 4270,
      "mat": 4271,
      "SO": 4272,
      "255": 4273,
      "Ġcontinue": 4274,
      "Ġdescription": 4275,
      "Ġclaim": 4276,
      "ĠThen": 4277,
      "Ġscale": 4278,
      "material": 4279,
      "ORT": 4280,
      "tempt": 4281,
      "widget": 4282,
      "Ġ~": 4283,
      "gment": 4284,
      "ALL": 4285,
      "CD": 4286,
      "Ġengine": 4287,
      "ictionary": 4288,
      "Ġvector": 4289,
      "Vert": 4290,
      "Ġexception": 4291,
      "cover": 4292,
      "ynamic": 4293,
      "Ġcost": 4294,
      "Ġgroups": 4295,
      "Ġnames": 4296,
      "pop": 4297,
      "ymmet": 4298,
      "97": 4299,
      "Helper": 4300,
      "assed": 4301,
      "pped": 4302,
      "Ġkeep": 4303,
      "ĠHouse": 4304,
      "copy": 4305,
      "Ġ(\"": 4306,
      "ico": 4307,
      "MO": 4308,
      "Ġconstant": 4309,
      "cp": 4310,
      "Ġneg": 4311,
      "Eng": 4312,
      "Ġjav": 4313,
      "ills": 4314,
      "rics": 4315,
      "mode": 4316,
      "Ġdevelopment": 4317,
      "Ø§": 4318,
      "settings": 4319,
      "types": 4320,
      "ĠAm": 4321,
      "ĠSch": 4322,
      "Ġstarted": 4323,
      "atures": 4324,
      "Ġdays": 4325,
      "ula": 4326,
      "istics": 4327,
      "Ġamount": 4328,
      "click": 4329,
      "Ġdoc": 4330,
      "Su": 4331,
      "fs": 4332,
      "ln": 4333,
      "'],": 4334,
      "Ġtim": 4335,
      "Ġlines": 4336,
      "uri": 4337,
      "Ġrandom": 4338,
      "vey": 4339,
      "?:": 4340,
      "Stat": 4341,
      "ota": 4342,
      "Ġscope": 4343,
      "plugin": 4344,
      "Rel": 4345,
      "aring": 4346,
      "abs": 4347,
      "Ġant": 4348,
      "panel": 4349,
      "Ġoperator": 4350,
      "ws": 4351,
      "ems": 4352,
      "frak": 4353,
      "icker": 4354,
      "Ġho": 4355,
      "ĠDr": 4356,
      "oney": 4357,
      "Ġland": 4358,
      "IR": 4359,
      "Ġround": 4360,
      "Ġconfiguration": 4361,
      "issions": 4362,
      "Ġedu": 4363,
      "Ġplan": 4364,
      "ĠĠĠĠĠĠĠĠĠĠĠĠĠĠĠĠĠĠĠĠ": 4365,
      "Ġinfo": 4366,
      "Ġrate": 4367,
      "Ġgoing": 4368,
      "Use": 4369,
      "Ġconsidered": 4370,
      "Ġfar": 4371,
      "Ġmultiple": 4372,
      "IF": 4373,
      "Ġfac": 4374,
      "HO": 4375,
      "bootstrap": 4376,
      "mic": 4377,
      "Ġcannot": 4378,
      "There": 4379,
      "Ġecho": 4380,
      "Left": 4381,
      "ĠBGCOLOR": 4382,
      "Core": 4383,
      "Ġdevice": 4384,
      "Icon": 4385,
      "based": 4386,
      "Prot": 4387,
      "Ġpract": 4388,
      "Ġindividual": 4389,
      "Ġseen": 4390,
      "Ġbar": 4391,
      "toString": 4392,
      "spons": 4393,
      "Ġspecies": 4394,
      "Parameters": 4395,
      "ERROR": 4396,
      "EQ": 4397,
      "ĠSec": 4398,
      "overline": 4399,
      "ranch": 4400,
      "join": 4401,
      "Ġannoun": 4402,
      "ilitary": 4403,
      "atural": 4404,
      "2002": 4405,
      "ĠSub": 4406,
      "Ġscal": 4407,
      "History": 4408,
      "INE": 4409,
      "yd": 4410,
      "izes": 4411,
      "Device": 4412,
      "ecess": 4413,
      "export": 4414,
      "={": 4415,
      "ĠTO": 4416,
      "Ġdefine": 4417,
      "van": 4418,
      "Ġable": 4419,
      "ieve": 4420,
      ")^": 4421,
      "ĠDE": 4422,
      "ĠOR": 4423,
      "ancel": 4424,
      "ĠWilliam": 4425,
      "57": 4426,
      "Tool": 4427,
      "Ġdistribut": 4428,
      "ĠSee": 4429,
      "ĠHer": 4430,
      "inn": 4431,
      "XX": 4432,
      "CP": 4433,
      "esh": 4434,
      "Mon": 4435,
      "96": 4436,
      "rain": 4437,
      "Ġdeg": 4438,
      "pag": 4439,
      "cur": 4440,
      "Ġcases": 4441,
      "Ã¼": 4442,
      "Iter": 4443,
      "Ġsimple": 4444,
      "Ġassum": 4445,
      "ĠMap": 4446,
      "Ġtre": 4447,
      "aa": 4448,
      "media": 4449,
      "Vector": 4450,
      "ociation": 4451,
      "Sk": 4452,
      "Ġconditions": 4453,
      ".}": 4454,
      "Template": 4455,
      "ements": 4456,
      "Operation": 4457,
      "Ġsolution": 4458,
      "Ġapprox": 4459,
      "Ġcommunity": 4460,
      "Ġtool": 4461,
      ",âĢĿ": 4462,
      "greg": 4463,
      "Ġreview": 4464,
      "Rect": 4465,
      "address": 4466,
      "Order": 4467,
      "86": 4468,
      "Ġfund": 4469,
      "Ġindu": 4470,
      "Ġacross": 4471,
      "store": 4472,
      "record": 4473,
      "exports": 4474,
      "Draw": 4475,
      "alled": 4476,
      "disabled": 4477,
      "equals": 4478,
      "padding": 4479,
      "lier": 4480,
      "ros": 4481,
      "ube": 4482,
      "Down": 4483,
      "istration": 4484,
      "Ġservices": 4485,
      "rict": 4486,
      "Ġnumer": 4487,
      "Ġsatisf": 4488,
      "webkit": 4489,
      "Ġarguments": 4490,
      "iant": 4491,
      "andid": 4492,
      "Ġsystems": 4493,
      "WE": 4494,
      "Sign": 4495,
      "Track": 4496,
      "Ġsuccessful": 4497,
      "like": 4498,
      "ixt": 4499,
      "Sw": 4500,
      "Ġyoung": 4501,
      "ĠCheck": 4502,
      "ĠĠĠĠĠĠĠĠĠĠĠĠĠĠĠĠĠĠĠĠĠĠĠĠĠĠĠĠĠĠĠĠĠĠĠĠĠĠĠ": 4503,
      "transform": 4504,
      "Ġfailed": 4505,
      "Ġdefinition": 4506,
      "fony": 4507,
      "Ġcalcul": 4508,
      "legate": 4509,
      "Ġselection": 4510,
      "itect": 4511,
      "acters": 4512,
      "Ġsignificant": 4513,
      "vector": 4514,
      "ymfony": 4515,
      "utor": 4516,
      "Ġtoken": 4517,
      "Ġdetermin": 4518,
      "Handle": 4519,
      "Do": 4520,
      "ering": 4521,
      "Ġstar": 4522,
      "parameter": 4523,
      "ussian": 4524,
      "Reference": 4525,
      "Ġtree": 4526,
      "jo": 4527,
      "Ġgive": 4528,
      "Names": 4529,
      "component": 4530,
      "Ġhard": 4531,
      "Host": 4532,
      "Ġattempt": 4533,
      "Ġcentury": 4534,
      "Bl": 4535,
      "Ġcross": 4536,
      "Ind": 4537,
      "Stack": 4538,
      "à¤": 4539,
      "global": 4540,
      "Ġelection": 4541,
      "mathfrak": 4542,
      "iding": 4543,
      "Ġadditional": 4544,
      "Ġhowever": 4545,
      "Classes": 4546,
      "urren": 4547,
      "Ġstep": 4548,
      "nected": 4549,
      "Ġgrow": 4550,
      "Ġda": 4551,
      "DD": 4552,
      "Ġexcept": 4553,
      "Ġsuggest": 4554,
      "ĠFrench": 4555,
      "Ġworking": 4556,
      "Ġhalf": 4557,
      "ained": 4558,
      "Ġ})": 4559,
      "ips": 4560,
      "Right": 4561,
      "=\"../../../": 4562,
      "ĠCom": 4563,
      "asis": 4564,
      "ads": 4565,
      "custom": 4566,
      "Ġphot": 4567,
      "avior": 4568,
      "cribe": 4569,
      "ĠST": 4570,
      "Title": 4571,
      "Ġmaking": 4572,
      "handle": 4573,
      "Ġfuture": 4574,
      "Ġanalysis": 4575,
      "-->": 4576,
      "ĠQue": 4577,
      "Ã¤": 4578,
      "gn": 4579,
      "59": 4580,
      "ĠInternational": 4581,
      "Ġpack": 4582,
      "Ġcapt": 4583,
      "ĠEXPECT": 4584,
      "ĠĠĠĠĠĠĊ": 4585,
      "87": 4586,
      "fact": 4587,
      "`.": 4588,
      "Ġpaper": 4589,
      "500": 4590,
      "site": 4591,
      "yal": 4592,
      "uter": 4593,
      "Ġdetails": 4594,
      "uel": 4595,
      "weight": 4596,
      "cf": 4597,
      ">();": 4598,
      "ara": 4599,
      "Ġenvironment": 4600,
      "ĠMod": 4601,
      "ipp": 4602,
      "range": 4603,
      "ĠSk": 4604,
      "Ġborn": 4605,
      "Ġexists": 4606,
      "Ġconsist": 4607,
      "HP": 4608,
      "ele": 4609,
      "estamp": 4610,
      "Us": 4611,
      "fill": 4612,
      "ĠLet": 4613,
      "Ġliter": 4614,
      "Ġparse": 4615,
      "Post": 4616,
      "pository": 4617,
      "Ġdi": 4618,
      "ircle": 4619,
      "Api": 4620,
      "2021": 4621,
      "Ġear": 4622,
      "Debug": 4623,
      "iting": 4624,
      "Ġmaterial": 4625,
      "Ġaverage": 4626,
      "success": 4627,
      "Ġundefined": 4628,
      "hline": 4629,
      "iber": 4630,
      "Tim": 4631,
      "Ġsubject": 4632,
      "appa": 4633,
      "ORM": 4634,
      "},\\": 4635,
      "PR": 4636,
      "Ġsession": 4637,
      "Ġsend": 4638,
      "Values": 4639,
      "Ġtraining": 4640,
      ">.": 4641,
      "rr": 4642,
      "Lambda": 4643,
      "iform": 4644,
      "ĠMark": 4645,
      "uge": 4646,
      "BO": 4647,
      "equal": 4648,
      "then": 4649,
      "ellow": 4650,
      "byte": 4651,
      "hib": 4652,
      "Can": 4653,
      "Ġswitch": 4654,
      "Ġserved": 4655,
      "Ġagre": 4656,
      "Ġdet": 4657,
      "Invalid": 4658,
      "Ġcame": 4659,
      "Ġrunning": 4660,
      "after": 4661,
      "ĠJSON": 4662,
      "ATA": 4663,
      "langle": 4664,
      "Mult": 4665,
      "access": 4666,
      "vas": 4667,
      "You": 4668,
      "False": 4669,
      "Ġlik": 4670,
      "rea": 4671,
      "Kind": 4672,
      "Ġdelete": 4673,
      "Ġselect": 4674,
      "ĠPhil": 4675,
      "Metadata": 4676,
      "ĠTrue": 4677,
      "enum": 4678,
      "Ġhigher": 4679,
      "Ġjo": 4680,
      "rief": 4681,
      "Ġsure": 4682,
      "GET": 4683,
      "cape": 4684,
      "req": 4685,
      "Ġcorresponding": 4686,
      "Ġcorrect": 4687,
      "ĠNor": 4688,
      "foo": 4689,
      "Build": 4690,
      "---": 4691,
      "Ġargument": 4692,
      "Ġcomplete": 4693,
      "Ġnov": 4694,
      "ĠGroup": 4695,
      "sort": 4696,
      "Ġregister": 4697,
      "Ġmillion": 4698,
      "Num": 4699,
      "pename": 4700,
      "Ġdem": 4701,
      "Serv": 4702,
      "Tests": 4703,
      "Ġreason": 4704,
      "blockList": 4705,
      "Ġproduction": 4706,
      "CR": 4707,
      "los": 4708,
      "Ġlim": 4709,
      "ATH": 4710,
      "pg": 4711,
      "icrosoft": 4712,
      "Ġhuman": 4713,
      "vm": 4714,
      "toggle": 4715,
      "ĠMo": 4716,
      "Ġreally": 4717,
      "coq": 4718,
      "That": 4719,
      "language": 4720,
      "han": 4721,
      "$(": 4722,
      "AND": 4723,
      "(*": 4724,
      "anger": 4725,
      "Ġaway": 4726,
      "Ġsocial": 4727,
      "1999": 4728,
      "ociety": 4729,
      "framework": 4730,
      "bolds": 4731,
      "annotation": 4732,
      "Ġnamespace": 4733,
      "----------------------------------------------------------------": 4734,
      "ĠDistrict": 4735,
      "ĠMich": 4736,
      "Ġdoesn": 4737,
      "icture": 4738,
      "}\"": 4739,
      "quare": 4740,
      "jection": 4741,
      "||": 4742,
      "Has": 4743,
      "iforn": 4744,
      "replace": 4745,
      "Ġoffer": 4746,
      "Ġdatabase": 4747,
      "&\\": 4748,
      "uses": 4749,
      "dependency": 4750,
      "Ġcome": 4751,
      "ĠPort": 4752,
      "ds": 4753,
      "Ġtheory": 4754,
      "Decl": 4755,
      "ynch": 4756,
      "boldsymbol": 4757,
      "Ġautom": 4758,
      "aws": 4759,
      "ometry": 4760,
      "Ġactiv": 4761,
      "plugins": 4762,
      "focus": 4763,
      "56": 4764,
      "unn": 4765,
      "Phi": 4766,
      "ersist": 4767,
      "Application": 4768,
      "ldots": 4769,
      "ains": 4770,
      "olume": 4771,
      "Ð°Ð": 4772,
      "ategy": 4773,
      "flu": 4774,
      "Ġbig": 4775,
      "SION": 4776,
      "Ġhealth": 4777,
      "iqu": 4778,
      "icles": 4779,
      "endar": 4780,
      "Definition": 4781,
      "Ġdiag": 4782,
      "ira": 4783,
      "Ġtaken": 4784,
      "Ġdensity": 4785,
      ";/": 4786,
      "Long": 4787,
      "ĠCON": 4788,
      "arks": 4789,
      "}}$": 4790,
      "Ġopp": 4791,
      "ĠCO": 4792,
      ";<": 4793,
      "ĠChampionship": 4794,
      "ORD": 4795,
      "Select": 4796,
      "Ġalt": 4797,
      "Ġsequence": 4798,
      "Ġthough": 4799,
      "ios": 4800,
      "Ġgenerated": 4801,
      "uff": 4802,
      "allow": 4803,
      "ĠEl": 4804,
      "Ġpur": 4805,
      "Reader": 4806,
      "ĠNOT": 4807,
      "ĠOpen": 4808,
      "lands": 4809,
      "pub": 4810,
      "orge": 4811,
      "ĠGerman": 4812,
      "rupt": 4813,
      "ĠFirst": 4814,
      "__(": 4815,
      "oute": 4816,
      "dot": 4817,
      "Ġson": 4818,
      "Ġrelative": 4819,
      "43": 4820,
      "Ġobtained": 4821,
      "dep": 4822,
      "Assert": 4823,
      "ĠCup": 4824,
      "ifornia": 4825,
      "Ġrelated": 4826,
      "sql": 4827,
      "Ġgot": 4828,
      "tries": 4829,
      "Ġsets": 4830,
      "nes": 4831,
      "ker": 4832,
      "chan": 4833,
      "Ġfrequ": 4834,
      "Ġkind": 4835,
      "Args": 4836,
      "Ġcontainer": 4837,
      "Ġdistrict": 4838,
      "coin": 4839,
      "Ġbyte": 4840,
      "eh": 4841,
      "Ġsupported": 4842,
      "amera": 4843,
      "89": 4844,
      "scal": 4845,
      "Ġsample": 4846,
      "Ġapproach": 4847,
      "SET": 4848,
      "Ġadmin": 4849,
      "anks": 4850,
      "Ġheader": 4851,
      "Ġunsigned": 4852,
      "avy": 4853,
      "41": 4854,
      "Ġtransaction": 4855,
      "ership": 4856,
      "Ġunderst": 4857,
      "Ġenough": 4858,
      "SD": 4859,
      "ael": 4860,
      "Non": 4861,
      "yntax": 4862,
      "Ġregular": 4863,
      "Ġzero": 4864,
      "zer": 4865,
      "car": 4866,
      "note": 4867,
      "just": 4868,
      "Ġlittle": 4869,
      "Ġben": 4870,
      "which": 4871,
      "nab": 4872,
      "chor": 4873,
      "mbox": 4874,
      "Ġequal": 4875,
      "imated": 4876,
      "etime": 4877,
      "_;": 4878,
      ".)": 4879,
      "dapter": 4880,
      "plement": 4881,
      "xx": 4882,
      "Ġbecom": 4883,
      "help": 4884,
      "boolean": 4885,
      "inding": 4886,
      "exception": 4887,
      "eters": 4888,
      "connect": 4889,
      "Ġtelevision": 4890,
      "URE": 4891,
      "Member": 4892,
      "Root": 4893,
      "Head": 4894,
      "Bytes": 4895,
      "Parent": 4896,
      "eting": 4897,
      "Ġdirectory": 4898,
      "ĠLo": 4899,
      "Ġwent": 4900,
      "aging": 4901,
      "Ġconc": 4902,
      "yes": 4903,
      "Xml": 4904,
      "Ġprior": 4905,
      "ĠDate": 4906,
      "DF": 4907,
      "\\|": 4908,
      "BA": 4909,
      "rd": 4910,
      "citep": 4911,
      "fields": 4912,
      "SL": 4913,
      "Dialog": 4914,
      "arr": 4915,
      "useum": 4916,
      "Ġsomething": 4917,
      "Delete": 4918,
      "Go": 4919,
      "(-": 4920,
      "Ġpattern": 4921,
      "Ġnorth": 4922,
      "ĠEvent": 4923,
      "win": 4924,
      "otimes": 4925,
      "aset": 4926,
      "CA": 4927,
      "Click": 4928,
      "Ġjson": 4929,
      "Ġfall": 4930,
      "Policy": 4931,
      "itude": 4932,
      "Ġnecess": 4933,
      "ĠHTML": 4934,
      "Ġyet": 4935,
      "ya": 4936,
      "Ġpast": 4937,
      "Ġweb": 4938,
      "Ġos": 4939,
      "FAULT": 4940,
      "anner": 4941,
      "atio": 4942,
      "admin": 4943,
      "none": 4944,
      "Ġcurrently": 4945,
      "lymp": 4946,
      "category": 4947,
      "auto": 4948,
      "ĠBase": 4949,
      "ario": 4950,
      "Param": 4951,
      "Ġothers": 4952,
      "Ġdomain": 4953,
      "Graph": 4954,
      "kappa": 4955,
      "hr": 4956,
      "Ã¶": 4957,
      "ounter": 4958,
      "Ġask": 4959,
      "ĠBel": 4960,
      "application": 4961,
      "Ġproduced": 4962,
      "unt": 4963,
      "Ġthread": 4964,
      "fn": 4965,
      "Ġtemper": 4966,
      "gu": 4967,
      "Ġled": 4968,
      "1000": 4969,
      "cret": 4970,
      "achine": 4971,
      "aign": 4972,
      "burg": 4973,
      "Ġmemory": 4974,
      "Ġdied": 4975,
      "ĉĉĉĊ": 4976,
      "iles": 4977,
      "xis": 4978,
      "Ġsm": 4979,
      "Ġinc": 4980,
      "osed": 4981,
      "Ġsoftware": 4982,
      "register": 4983,
      "normal": 4984,
      "ĠRE": 4985,
      "Ġsetting": 4986,
      "ragment": 4987,
      "Ver": 4988,
      "lapse": 4989,
      "Ġscript": 4990,
      "double": 4991,
      "Ġsort": 4992,
      "ena": 4993,
      "Ġ'/": 4994,
      "Ġconstruct": 4995,
      "ĠIndian": 4996,
      "Enabled": 4997,
      "Ġlinear": 4998,
      "Ġrights": 4999,
      "Ġcertain": 5000,
      "Net": 5001,
      "Boolean": 5002,
      "ĠDiv": 5003,
      "ĠOut": 5004,
      "zon": 5005,
      "Ġexpression": 5006,
      "artment": 5007,
      "Ġemploy": 5008,
      "Red": 5009,
      "Ġconvert": 5010,
      "Ġwebs": 5011,
      "Ġlive": 5012,
      "When": 5013,
      "Ġ++": 5014,
      "keyword": 5015,
      "Ġign": 5016,
      "ĠAustralia": 5017,
      "ĠGeneral": 5018,
      "press": 5019,
      "track": 5020,
      "LIC": 5021,
      "RA": 5022,
      "Ġsays": 5023,
      "Ġmoved": 5024,
      "Byte": 5025,
      "ĠCre": 5026,
      "oted": 5027,
      "Ġground": 5028,
      "Writer": 5029,
      "58": 5030,
      "ĠSum": 5031,
      "tection": 5032,
      "white": 5033,
      "76": 5034,
      "Ġforce": 5035,
      "ming": 5036,
      "Ġfig": 5037,
      "Ġphase": 5038,
      "Ġ('": 5039,
      "SA": 5040,
      "Ġapplic": 5041,
      "Ġ<=": 5042,
      "Ġallowed": 5043,
      "ĠFrom": 5044,
      "Ġstudents": 5045,
      "Ġpassed": 5046,
      "Ġitems": 5047,
      "Ġincludes": 5048,
      "virtual": 5049,
      "ĠService": 5050,
      "callback": 5051,
      "tw": 5052,
      "Ġwhite": 5053,
      "Ġpackage": 5054,
      "cpp": 5055,
      "ulated": 5056,
      "ĠCalifornia": 5057,
      "Ġrepl": 5058,
      "ĠNote": 5059,
      "Ġuses": 5060,
      "hood": 5061,
      "ĠAL": 5062,
      "insert": 5063,
      "ĠFran": 5064,
      "TED": 5065,
      "password": 5066,
      "ĠTime": 5067,
      "Argument": 5068,
      "98": 5069,
      "Ġindependent": 5070,
      "connection": 5071,
      "Ġinvoke": 5072,
      "Ġcirc": 5073,
      "{}": 5074,
      "ĠEngland": 5075,
      "Package": 5076,
      "ivil": 5077,
      "Ġneeded": 5078,
      "high": 5079,
      "\"\"\"": 5080,
      "Ġpolicy": 5081,
      "anish": 5082,
      "Mock": 5083,
      "ridge": 5084,
      "JECT": 5085,
      "Ġrule": 5086,
      "'))": 5087,
      "Ġinline": 5088,
      "wrap": 5089,
      "Body": 5090,
      "uby": 5091,
      "Ġaccording": 5092,
      "Ġcho": 5093,
      "Ġbutton": 5094,
      "GE": 5095,
      "Ġentire": 5096,
      "ĠArg": 5097,
      "ĠAmerica": 5098,
      "Ġunique": 5099,
      "atory": 5100,
      "Ġpositive": 5101,
      "Ġraise": 5102,
      "Descriptor": 5103,
      "\\\"": 5104,
      "Results": 5105,
      "free": 5106,
      "Ġwallet": 5107,
      "ĠBer": 5108,
      "Ġscreen": 5109,
      "Mark": 5110,
      "Doc": 5111,
      "Ġhistor": 5112,
      "ernel": 5113,
      "install": 5114,
      "resses": 5115,
      "email": 5116,
      "Ġach": 5117,
      "Ġhold": 5118,
      "dropdown": 5119,
      "ĠSm": 5120,
      "Ġcharacters": 5121,
      "circ": 5122,
      "AGE": 5123,
      "Rule": 5124,
      "ĠDem": 5125,
      "PT": 5126,
      "ĠCour": 5127,
      "comment": 5128,
      "ĠIS": 5129,
      "2022": 5130,
      "ĠIO": 5131,
      "Ġbytes": 5132,
      "adcast": 5133,
      "attribute": 5134,
      "Ġsettings": 5135,
      "stitute": 5136,
      "ĠRepublic": 5137,
      "wner": 5138,
      "ĠMore": 5139,
      "rate": 5140,
      "zz": 5141,
      "})$": 5142,
      "Ġsouth": 5143,
      "aur": 5144,
      "Ġofficial": 5145,
      "ving": 5146,
      "ĠUser": 5147,
      "operator": 5148,
      "ĠDon": 5149,
      "Ġinternational": 5150,
      "shot": 5151,
      "Ġbr": 5152,
      "OK": 5153,
      "oms": 5154,
      "ĠPo": 5155,
      "Channel": 5156,
      "full": 5157,
      "essional": 5158,
      "aker": 5159,
      "cel": 5160,
      "cit": 5161,
      "Ġcoll": 5162,
      "'re": 5163,
      "Ġmsg": 5164,
      "unity": 5165,
      "edit": 5166,
      "Ġapi": 5167,
      "ĠHol": 5168,
      "ĠPre": 5169,
      "Ġrather": 5170,
      "cloud": 5171,
      "Tab": 5172,
      "Ġthus": 5173,
      "IX": 5174,
      "ĠMal": 5175,
      "tsd": 5176,
      "ao": 5177,
      "ĠPresident": 5178,
      "ĠRiver": 5179,
      "`,": 5180,
      "Display": 5181,
      "subset": 5182,
      "ASS": 5183,
      "Ġpress": 5184,
      "textit": 5185,
      "lines": 5186,
      "/\\": 5187,
      "Ġweight": 5188,
      "Ġmaximum": 5189,
      "items": 5190,
      "Ġrespectively": 5191,
      "Ġvillage": 5192,
      "aps": 5193,
      "margin": 5194,
      "mid": 5195,
      "Ġmakes": 5196,
      "sin": 5197,
      "atives": 5198,
      "Fig": 5199,
      "ĠThat": 5200,
      "nabla": 5201,
      "ĠRun": 5202,
      "ened": 5203,
      "MD": 5204,
      "ĠĠĠĠĠĠĠĠĠĠĠĠĠĠĠĠĠĠ": 5205,
      "Ġinteger": 5206,
      "ĠEm": 5207,
      "\\[": 5208,
      "rames": 5209,
      "Ġwhose": 5210,
      "Ġconv": 5211,
      "END": 5212,
      "bound": 5213,
      "CTION": 5214,
      "Ġproof": 5215,
      "ĠSpec": 5216,
      "Cre": 5217,
      "Storage": 5218,
      "ĠAnt": 5219,
      "itte": 5220,
      "illa": 5221,
      "Ġhom": 5222,
      "uple": 5223,
      "Ġfixed": 5224,
      "arp": 5225,
      "itional": 5226,
      "ĠMath": 5227,
      "nonumber": 5228,
      "Ġreported": 5229,
      "Ġexact": 5230,
      "51": 5231,
      "rule": 5232,
      "Ġthings": 5233,
      "modules": 5234,
      "Ġdistance": 5235,
      "ĠIndia": 5236,
      "Ġword": 5237,
      "Ġfem": 5238,
      "ailed": 5239,
      "Ġextra": 5240,
      "Ġbg": 5241,
      "]]": 5242,
      "1990": 5243,
      "Ġ(*": 5244,
      "ĠValue": 5245,
      "Ġchanged": 5246,
      "Ġjavax": 5247,
      "Ġclosed": 5248,
      "JSON": 5249,
      "Changed": 5250,
      "ĠError": 5251,
      "leted": 5252,
      "strict": 5253,
      "Ġparticip": 5254,
      "EM": 5255,
      "region": 5256,
      "Ġestablish": 5257,
      "Ġfather": 5258,
      "'.": 5259,
      "Ġnet": 5260,
      "Custom": 5261,
      "}-": 5262,
      "itting": 5263,
      "vention": 5264,
      "\")]": 5265,
      "Ġactual": 5266,
      "Ġepis": 5267,
      "real": 5268,
      "Ġwriting": 5269,
      "Ġeducation": 5270,
      "Ġcut": 5271,
      "Ġwait": 5272,
      "Ġfront": 5273,
      "lide": 5274,
      "rip": 5275,
      "Show": 5276,
      "holder": 5277,
      "Ġevalu": 5278,
      "ams": 5279,
      "Fields": 5280,
      "ĠForm": 5281,
      "keys": 5282,
      "My": 5283,
      "pret": 5284,
      "ĠLoc": 5285,
      "Ident": 5286,
      "Account": 5287,
      "Ġbtn": 5288,
      "EXT": 5289,
      "\">&": 5290,
      "ĠLO": 5291,
      "Ġmoment": 5292,
      "Ġdb": 5293,
      "ipeline": 5294,
      "Ġill": 5295,
      "1998": 5296,
      "aged": 5297,
      "ida": 5298,
      "People": 5299,
      "Ġhtml": 5300,
      "Ġsold": 5301,
      "cmd": 5302,
      "Ġnodes": 5303,
      "ĠSince": 5304,
      "term": 5305,
      "short": 5306,
      "Mar": 5307,
      "ĠMet": 5308,
      "Ġcluster": 5309,
      ")\"": 5310,
      "ĠAp": 5311,
      "cos": 5312,
      "Queue": 5313,
      "stat": 5314,
      "Ġerrors": 5315,
      "=\"\">": 5316,
      "Ġflo": 5317,
      "ĠMag": 5318,
      "anese": 5319,
      "TEST": 5320,
      "Ġir": 5321,
      "=\"@": 5322,
      "present": 5323,
      "jquery": 5324,
      "ynchron": 5325,
      "ĠWork": 5326,
      "ĠPal": 5327,
      "numer": 5328,
      "ĠPy": 5329,
      "Found": 5330,
      "initial": 5331,
      ".*": 5332,
      "Ġitself": 5333,
      "cial": 5334,
      "sumer": 5335,
      "Ġecon": 5336,
      "mission": 5337,
      "Obj": 5338,
      "Sigma": 5339,
      "Edit": 5340,
      "Ġbi": 5341,
      "ĠParty": 5342,
      "avor": 5343,
      "Dr": 5344,
      "Ġpolitical": 5345,
      "Activity": 5346,
      "Ġwest": 5347,
      "Ġrot": 5348,
      "ensuremath": 5349,
      "astic": 5350,
      "radius": 5351,
      "Ġcomment": 5352,
      "Ġequation": 5353,
      "\\%": 5354,
      "argument": 5355,
      "~~~~": 5356,
      "Widget": 5357,
      "KEY": 5358,
      "Ġsymbol": 5359,
      "Meta": 5360,
      "equiv": 5361,
      "======": 5362,
      "ully": 5363,
      "ITY": 5364,
      "Ġtell": 5365,
      "otes": 5366,
      "sy": 5367,
      "ĠStreet": 5368,
      "ached": 5369,
      "oom": 5370,
      "lyph": 5371,
      "Ġdeal": 5372,
      "Ġprovides": 5373,
      "dim": 5374,
      "Ġconnect": 5375,
      "contrib": 5376,
      "Transaction": 5377,
      "thread": 5378,
      "Active": 5379,
      "PRE": 5380,
      "Cal": 5381,
      "Ġcourse": 5382,
      "aching": 5383,
      "Job": 5384,
      "mas": 5385,
      "ocr": 5386,
      "hs": 5387,
      "TEX": 5388,
      "Ġparts": 5389,
      "Ne": 5390,
      "How": 5391,
      "spring": 5392,
      "rome": 5393,
      "Any": 5394,
      "82": 5395,
      "Ġrev": 5396,
      "omy": 5397,
      "Ġneeds": 5398,
      "Ġnote": 5399,
      "Ġ\"/": 5400,
      "incip": 5401,
      "adoop": 5402,
      "Pop": 5403,
      "ables": 5404,
      "ĠOper": 5405,
      "Ġotherwise": 5406,
      "@\"": 5407,
      "utf": 5408,
      "Ġdiscuss": 5409,
      "Ġrecogn": 5410,
      "anies": 5411,
      "Ġsurface": 5412,
      "Ġannounced": 5413,
      "atalog": 5414,
      "Ġdirectly": 5415,
      "herit": 5416,
      "ĠĠĠĠĠĠĠĠĠĠĠĠĠĠĠĠĠĠĠĠĠĠĠĠĠ": 5417,
      "Ġwebsite": 5418,
      "FILE": 5419,
      "Ġdirection": 5420,
      "84": 5421,
      "Ġquestion": 5422,
      "54": 5423,
      "Ġmanag": 5424,
      "enced": 5425,
      "ensive": 5426,
      "ĠCenter": 5427,
      "\\!": 5428,
      "Ġanaly": 5429,
      "channel": 5430,
      "shape": 5431,
      "illed": 5432,
      "Ġlibrary": 5433,
      "important": 5434,
      "Ġpopular": 5435,
      "anguage": 5436,
      "Each": 5437,
      "quires": 5438,
      "romise": 5439,
      "Ġdig": 5440,
      "unsigned": 5441,
      "Ġscore": 5442,
      "ĠURL": 5443,
      "berg": 5444,
      "300": 5445,
      ")/": 5446,
      "ĠJames": 5447,
      "icate": 5448,
      "stats": 5449,
      "Ġlost": 5450,
      "arison": 5451,
      "isk": 5452,
      "rote": 5453,
      "Ġoperations": 5454,
      "rec": 5455,
      "ĠSome": 5456,
      "ĠCanada": 5457,
      "ĠAward": 5458,
      "ĠEnd": 5459,
      "Ġconsole": 5460,
      "[:": 5461,
      "Lock": 5462,
      "lor": 5463,
      "Msg": 5464,
      "Perm": 5465,
      "ĠDavid": 5466,
      "ĠassertEquals": 5467,
      "Ġtradition": 5468,
      "ĠSen": 5469,
      "Scope": 5470,
      "ĠKey": 5471,
      "VERSION": 5472,
      "nost": 5473,
      "Ġcast": 5474,
      "Ġcred": 5475,
      "Ġloss": 5476,
      "aches": 5477,
      "HTML": 5478,
      "Ġgre": 5479,
      "Send": 5480,
      "ĠHel": 5481,
      "scroll": 5482,
      "adian": 5483,
      "Symfony": 5484,
      "Ġexisting": 5485,
      "Ġmale": 5486,
      "more": 5487,
      "inline": 5488,
      "Ġalgorithm": 5489,
      "band": 5490,
      "160": 5491,
      "ĠEuropean": 5492,
      "52": 5493,
      "mock": 5494,
      ";\\": 5495,
      "omas": 5496,
      "ĠCouncil": 5497,
      "Ġviol": 5498,
      "Extension": 5499,
      "Flags": 5500,
      "Am": 5501,
      "ĠOb": 5502,
      "Ġmid": 5503,
      "Sum": 5504,
      "asons": 5505,
      "Ġ${": 5506,
      "Living": 5507,
      "quired": 5508,
      "assets": 5509,
      "Ġperformed": 5510,
      "legal": 5511,
      "Ġstage": 5512,
      "primary": 5513,
      "addr": 5514,
      "CS": 5515,
      "....": 5516,
      "enter": 5517,
      "protobuf": 5518,
      "Ret": 5519,
      "Ġtakes": 5520,
      "ById": 5521,
      "ifest": 5522,
      "step": 5523,
      "mine": 5524,
      "Ġeast": 5525,
      "(!": 5526,
      "(){": 5527,
      "Ġparty": 5528,
      "400": 5529,
      "move": 5530,
      "Ġinstanceof": 5531,
      "Ap": 5532,
      "ander": 5533,
      "53": 5534,
      "den": 5535,
      "ĠUse": 5536,
      "Ġareas": 5537,
      "that": 5538,
      "raints": 5539,
      "ĠChurch": 5540,
      "{-": 5541,
      "Network": 5542,
      "ĠDefault": 5543,
      "lg": 5544,
      "Ġfire": 5545,
      "Ġwide": 5546,
      "Ġlarger": 5547,
      "Ġ),": 5548,
      "72": 5549,
      "Ġtreat": 5550,
      "ening": 5551,
      "eds": 5552,
      "Pattern": 5553,
      "ango": 5554,
      "hentication": 5555,
      "ĠLem": 5556,
      "ĠBra": 5557,
      "Ġ%}": 5558,
      "Ġaward": 5559,
      "sche": 5560,
      "WS": 5561,
      "west": 5562,
      "Variable": 5563,
      "Ġcompleted": 5564,
      "Ġapply": 5565,
      "ĠGoogle": 5566,
      "Ġimages": 5567,
      "oul": 5568,
      "ĠBr": 5569,
      "Ġissue": 5570,
      "Ġclasses": 5571,
      "Ġvisit": 5572,
      "So": 5573,
      "Ġalmost": 5574,
      "Ġty": 5575,
      "Ġleading": 5576,
      "dx": 5577,
      "FT": 5578,
      "Ġtransition": 5579,
      "ĠBlack": 5580,
      "ulations": 5581,
      "hi": 5582,
      "Ġserial": 5583,
      "ĠĠĠĠĠĠĠĠĠĠĠĠĠĠĠĠĠĠĠĠĠĠĠĠ": 5584,
      "Ġedge": 5585,
      "}}{": 5586,
      "aved": 5587,
      "Ġfactor": 5588,
      "Ġallows": 5589,
      "Ġusers": 5590,
      "Initial": 5591,
      "Ġcomponents": 5592,
      "Ġinflu": 5593,
      "Ġstack": 5594,
      "igen": 5595,
      "Me": 5596,
      "ĠField": 5597,
      "alax": 5598,
      "Ġprimary": 5599,
      "grid": 5600,
      "Timeout": 5601,
      "ĠFrance": 5602,
      "]:": 5603,
      "Ġpanel": 5604,
      "Ġrank": 5605,
      "wood": 5606,
      "erg": 5607,
      "Ġinf": 5608,
      "ledge": 5609,
      "tic": 5610,
      "Sl": 5611,
      "OM": 5612,
      "BR": 5613,
      "impl": 5614,
      "Ġcoordin": 5615,
      "Ġmot": 5616,
      "ĠFalse": 5617,
      "Ġdeveloped": 5618,
      "Ġvers": 5619,
      "pdf": 5620,
      "El": 5621,
      "ĠStud": 5622,
      "Fil": 5623,
      "oring": 5624,
      "Ġthought": 5625,
      "ĠAut": 5626,
      "solute": 5627,
      ")))": 5628,
      "edge": 5629,
      "ued": 5630,
      "ini": 5631,
      "overnor": 5632,
      "Ġol": 5633,
      "Ġprec": 5634,
      "hest": 5635,
      "ville": 5636,
      "Ġcandid": 5637,
      "Ġmock": 5638,
      "save": 5639,
      "Ġface": 5640,
      "LOG": 5641,
      "fly": 5642,
      "\\]": 5643,
      "onic": 5644,
      "product": 5645,
      "ulate": 5646,
      "Ġsitu": 5647,
      "force": 5648,
      "ĠGerm": 5649,
      "Sing": 5650,
      "Ġactually": 5651,
      "PS": 5652,
      "itar": 5653,
      "Ġpy": 5654,
      "Ġcontract": 5655,
      "printf": 5656,
      "1996": 5657,
      "Ġequival": 5658,
      "Ġtransfer": 5659,
      "prime": 5660,
      "hadoop": 5661,
      "arts": 5662,
      "writ": 5663,
      "Ġworked": 5664,
      "Ġextension": 5665,
      "ĠSing": 5666,
      "rian": 5667,
      "Ġlove": 5668,
      "oe": 5669,
      "screen": 5670,
      "family": 5671,
      "ĠArmy": 5672,
      "256": 5673,
      "Ġten": 5674,
      "icult": 5675,
      "ieved": 5676,
      "Internal": 5677,
      "Ġmonth": 5678,
      "zeta": 5679,
      "Man": 5680,
      "star": 5681,
      "TABLE": 5682,
      "Ġqual": 5683,
      "_->": 5684,
      "ĠMethod": 5685,
      "PATH": 5686,
      "Ġ{};": 5687,
      "Ġste": 5688,
      "ixture": 5689,
      "dots": 5690,
      "ĠMor": 5691,
      "ĠFil": 5692,
      "Items": 5693,
      "Loader": 5694,
      "ĠRich": 5695,
      "////////////////////////////////": 5696,
      "MENT": 5697,
      "Psi": 5698,
      "GB": 5699,
      "rum": 5700,
      "Ð»": 5701,
      "1997": 5702,
      "Ġsigned": 5703,
      "ĠRoman": 5704,
      "ignment": 5705,
      "ago": 5706,
      "Ġvariables": 5707,
      "ertific": 5708,
      "Ġinside": 5709,
      "Ġavoid": 5710,
      "ACE": 5711,
      "PAR": 5712,
      "Ġneigh": 5713,
      "Ġexperiment": 5714,
      "bon": 5715,
      "forms": 5716,
      "uting": 5717,
      "Only": 5718,
      "olic": 5719,
      "ĠPublic": 5720,
      "pay": 5721,
      "ston": 5722,
      "properties": 5723,
      "pool": 5724,
      "Ġlearn": 5725,
      "ĠArch": 5726,
      "CHE": 5727,
      "irit": 5728,
      "Desc": 5729,
      "Ġwriter": 5730,
      "webpack": 5731,
      "Ñĥ": 5732,
      "Ġhandler": 5733,
      "################": 5734,
      "UID": 5735,
      "domain": 5736,
      "ested": 5737,
      "Ġdegree": 5738,
      "Logger": 5739,
      "stry": 5740,
      "tip": 5741,
      "=\"\"": 5742,
      "Media": 5743,
      "ĠSection": 5744,
      "horizontal": 5745,
      "controller": 5746,
      "ixel": 5747,
      "GS": 5748,
      "imately": 5749,
      "ĠOlymp": 5750,
      "pling": 5751,
      "Ġplatform": 5752,
      "Ġeditor": 5753,
      "Ġwords": 5754,
      "Float": 5755,
      "rab": 5756,
      "Te": 5757,
      "ĠÎ": 5758,
      "Ġnatural": 5759,
      "Ġtaking": 5760,
      "brid": 5761,
      "Ġfight": 5762,
      "Main": 5763,
      "desc": 5764,
      "illing": 5765,
      "1980": 5766,
      "Windows": 5767,
      "çļ": 5768,
      "Ġoutside": 5769,
      "variant": 5770,
      "Ġnumbers": 5771,
      "Ġdistributed": 5772,
      "ria": 5773,
      "Init": 5774,
      "ifying": 5775,
      "Ġregard": 5776,
      "master": 5777,
      "Ġbgcolor": 5778,
      "account": 5779,
      "ĠTV": 5780,
      "Ġexpress": 5781,
      "git": 5782,
      "()));": 5783,
      "ĠGeorge": 5784,
      "Ġstrict": 5785,
      "=>": 5786,
      "echn": 5787,
      "utive": 5788,
      "ĠPaul": 5789,
      "sess": 5790,
      "Ġmaint": 5791,
      "Events": 5792,
      "çļĦ": 5793,
      "Ġpresident": 5794,
      "profile": 5795,
      "events": 5796,
      "Ġfriend": 5797,
      "Help": 5798,
      "outhern": 5799,
      "Ġicon": 5800,
      "ĠTable": 5801,
      "Ġfeel": 5802,
      "TS": 5803,
      "ashington": 5804,
      "rier": 5805,
      "ĠBook": 5806,
      "Ġpredict": 5807,
      "Ġeff": 5808,
      "Ġmilitary": 5809,
      "Ġlayer": 5810,
      "Ġtests": 5811,
      "Ġupon": 5812,
      "![": 5813,
      "pare": 5814,
      "Ġng": 5815,
      "Ġpaint": 5816,
      "Ġproposed": 5817,
      "','": 5818,
      "Ġconstruction": 5819,
      "ĠMart": 5820,
      "ĠLaw": 5821,
      "Support": 5822,
      "Ġdeaths": 5823,
      "Ġrepresentation": 5824,
      "widetilde": 5825,
      "Ġ[];": 5826,
      "ĠChina": 5827,
      "ĠRead": 5828,
      "schema": 5829,
      "oss": 5830,
      "Ġcontaining": 5831,
      "Panel": 5832,
      "NE": 5833,
      "arily": 5834,
      "kw": 5835,
      "Ġmonths": 5836,
      "Ġhon": 5837,
      ".__": 5838,
      "Ġdescribe": 5839,
      "Auth": 5840,
      "Ġconduct": 5841,
      "txt": 5842,
      "Ġobserved": 5843,
      "selected": 5844,
      "ĠDet": 5845,
      "Ġopened": 5846,
      "Adapter": 5847,
      "produ": 5848,
      "ADD": 5849,
      "Pool": 5850,
      "Ġabs": 5851,
      "points": 5852,
      "Ġmissing": 5853,
      "TC": 5854,
      "Struct": 5855,
      "Ġreplace": 5856,
      "Dist": 5857,
      "Ac": 5858,
      "ĠAng": 5859,
      "ĠAssociation": 5860,
      "ARY": 5861,
      "}]": 5862,
      "thm": 5863,
      "ĠAssembly": 5864,
      "Ġ&=": 5865,
      "Grid": 5866,
      "()).": 5867,
      "Ġupper": 5868,
      "Ġbad": 5869,
      "Ġgoal": 5870,
      "ittee": 5871,
      "Ġwrote": 5872,
      "apter": 5873,
      "Ġfunc": 5874,
      "stop": 5875,
      "flags": 5876,
      "inv": 5877,
      "Bit": 5878,
      "ĠEq": 5879,
      "Directory": 5880,
      "Ġkeys": 5881,
      "ĠCopy": 5882,
      "gebra": 5883,
      "ĠInst": 5884,
      "angular": 5885,
      "ĠModel": 5886,
      "Ġrelationship": 5887,
      "ĠHo": 5888,
      "Ġnative": 5889,
      "ĠMount": 5890,
      "ï¼": 5891,
      "indent": 5892,
      "ĠMer": 5893,
      "ĠUK": 5894,
      "SIZE": 5895,
      "ULE": 5896,
      "Ġlock": 5897,
      "Ġcore": 5898,
      "Ġorigin": 5899,
      "ĠProv": 5900,
      "Enum": 5901,
      ",-": 5902,
      "browser": 5903,
      "Ġshape": 5904,
      "Browser": 5905,
      "Ġutil": 5906,
      "icket": 5907,
      "Ġwhole": 5908,
      "Ġcentral": 5909,
      "Ġarchitect": 5910,
      "79": 5911,
      "Ġyield": 5912,
      "job": 5913,
      "Ðº": 5914,
      "za": 5915,
      "Note": 5916,
      "Ġnight": 5917,
      "ROM": 5918,
      "ĠText": 5919,
      "Ġresources": 5920,
      "Ġdimension": 5921,
      "ura": 5922,
      "olver": 5923,
      "ocity": 5924,
      "Cle": 5925,
      "Ġflag": 5926,
      "68": 5927,
      "equence": 5928,
      "ĠJust": 5929,
      "results": 5930,
      ")));": 5931,
      "appro": 5932,
      "_(": 5933,
      "ĠMac": 5934,
      "Ġimplementation": 5935,
      "ĠĠĠĠĠĠĠĠĠĠĠĠĠĠĠĠĠĠĠĠĠĠ": 5936,
      "Ġappoint": 5937,
      "typeof": 5938,
      "Expr": 5939,
      "alls": 5940,
      "NG": 5941,
      "LS": 5942,
      "}</": 5943,
      "Ġdir": 5944,
      "ĠOff": 5945,
      "centering": 5946,
      "Now": 5947,
      "clusion": 5948,
      "lemma": 5949,
      "ĠMusic": 5950,
      "ĠFound": 5951,
      "\\{": 5952,
      "Ġmanager": 5953,
      "Inv": 5954,
      "Ġ{'": 5955,
      "bal": 5956,
      "Ġlot": 5957,
      "netic": 5958,
      "Ġdiscover": 5959,
      "'])": 5960,
      "IB": 5961,
      "ano": 5962,
      "parser": 5963,
      "ĠDel": 5964,
      "Conf": 5965,
      "anded": 5966,
      "Ġpercent": 5967,
      "components": 5968,
      "NavBarCell": 5969,
      "Rece": 5970,
      "Ġwhy": 5971,
      "security": 5972,
      "erve": 5973,
      "pid": 5974,
      "tabs": 5975,
      "Ġsubs": 5976,
      "78": 5977,
      "mes": 5978,
      "ĠUnion": 5979,
      "Ġtalk": 5980,
      "home": 5981,
      "Ġrespons": 5982,
      "Selector": 5983,
      "throws": 5984,
      "Ġlonger": 5985,
      "Security": 5986,
      "reek": 5987,
      "Ã§": 5988,
      "rong": 5989,
      "echo": 5990,
      "Ġmechan": 5991,
      "yper": 5992,
      "Ġprofile": 5993,
      "MAX": 5994,
      "eries": 5995,
      "assertEqual": 5996,
      "Ġloc": 5997,
      "Ġimmedi": 5998,
      "Ġdebut": 5999,
      "ipe": 6000,
      "*)": 6001,
      "ĠAND": 6002,
      "Rec": 6003,
      "ĠTHE": 6004,
      "Ġgives": 6005,
      "1995": 6006,
      "rev": 6007,
      "++;": 6008,
      "Ġissues": 6009,
      "Ġbottom": 6010,
      "DA": 6011,
      "ĠJer": 6012,
      "avi": 6013,
      "ĠOption": 6014,
      "typed": 6015,
      "Ġgr": 6016,
      "ĠVer": 6017,
      "dule": 6018,
      "super": 6019,
      "Ġeffects": 6020,
      "antic": 6021,
      "Ġfocus": 6022,
      "Ġjoined": 6023,
      "}+": 6024,
      "cb": 6025,
      "ĠĠĠĠĠĠĠĠĠĠĠĠĠĠĠĠĠĠĠĠĠĠĠĠĠĠĠĠĠĠĠĠĠĠĠĠĠĠĠĠĠĠĠ": 6026,
      "anging": 6027,
      "ously": 6028,
      "Close": 6029,
      "\"`": 6030,
      "pite": 6031,
      "ĠJe": 6032,
      ")\">": 6033,
      ";\"": 6034,
      "Iterator": 6035,
      "ughter": 6036,
      "dec": 6037,
      "63": 6038,
      "gin": 6039,
      "Ġ=========": 6040,
      "ĠOther": 6041,
      "notation": 6042,
      "aking": 6043,
      "ToString": 6044,
      "ĠNO": 6045,
      "Ġfinally": 6046,
      "Ġtoday": 6047,
      "ĠBen": 6048,
      "assertEquals": 6049,
      "Ġsignal": 6050,
      "Java": 6051,
      "Ġentity": 6052,
      "Proxy": 6053,
      ")=\\": 6054,
      "external": 6055,
      "Ġbehavior": 6056,
      "Ġsound": 6057,
      "cut": 6058,
      "phone": 6059,
      "ye": 6060,
      "_,": 6061,
      "logger": 6062,
      "uler": 6063,
      "atively": 6064,
      "Ġrail": 6065,
      "Symbol": 6066,
      "1970": 6067,
      "eek": 6068,
      "Ġauth": 6069,
      "NotNull": 6070,
      "ani": 6071,
      "Ġvict": 6072,
      "ares": 6073,
      "Ġsave": 6074,
      "porary": 6075,
      "Generic": 6076,
      "Ġnews": 6077,
      "Ġalloc": 6078,
      "Ġradio": 6079,
      "ĠGra": 6080,
      "Ġcref": 6081,
      "Ġexperience": 6082,
      "napshot": 6083,
      "ĠAN": 6084,
      "jar": 6085,
      "Ġang": 6086,
      "69": 6087,
      "shift": 6088,
      "ĠInstitute": 6089,
      "Ġsecurity": 6090,
      "ðŁ": 6091,
      "ĠIP": 6092,
      "Ġsources": 6093,
      "here": 6094,
      "unicip": 6095,
      "bot": 6096,
      "Ġforward": 6097,
      "getElement": 6098,
      "=\"${": 6099,
      "Plugin": 6100,
      "ĠTheorem": 6101,
      "ĠBuild": 6102,
      "Ġmarket": 6103,
      "Ġattributes": 6104,
      "Ġdirector": 6105,
      "Ġvolume": 6106,
      "ĠTODO": 6107,
      "ping": 6108,
      "Ġteams": 6109,
      ")),": 6110,
      "Ġchall": 6111,
      "ding": 6112,
      "ifies": 6113,
      "Ġapplied": 6114,
      "->_": 6115,
      "manager": 6116,
      "}=\\": 6117,
      "ĠLong": 6118,
      "Ġsil": 6119,
      "IE": 6120,
      "limit": 6121,
      "Ġcop": 6122,
      "Rest": 6123,
      "UTF": 6124,
      "Ġgenerate": 6125,
      "Ġhimself": 6126,
      "para": 6127,
      "$/": 6128,
      "ultural": 6129,
      "faces": 6130,
      "atically": 6131,
      "editor": 6132,
      "Ljava": 6133,
      "Ġremoved": 6134,
      "Ġunits": 6135,
      "ĠDepartment": 6136,
      "wild": 6137,
      "sey": 6138,
      "ĠNews": 6139,
      "iterator": 6140,
      "ĠRoyal": 6141,
      "ĠView": 6142,
      "Ġrules": 6143,
      "decl": 6144,
      "ĠConfig": 6145,
      "PORT": 6146,
      "ĠDivision": 6147,
      "Ġproblems": 6148,
      "ĠMem": 6149,
      "SU": 6150,
      "ĠCourt": 6151,
      "configuration": 6152,
      "kg": 6153,
      "Ġmis": 6154,
      "Year": 6155,
      "Ġmount": 6156,
      "bad": 6157,
      "gan": 6158,
      "Ġintroduced": 6159,
      "ĠVersion": 6160,
      "ĠZe": 6161,
      "____": 6162,
      "Editor": 6163,
      "Ġcontact": 6164,
      "Duration": 6165,
      "ducation": 6166,
      "ĠAccording": 6167,
      "ĠNode": 6168,
      "ded": 6169,
      "Ġlearning": 6170,
      "Ġchain": 6171,
      "pring": 6172,
      "Ġoffice": 6173,
      "estival": 6174,
      "Ġsymmet": 6175,
      "handler": 6176,
      "switch": 6177,
      "hidden": 6178,
      "ĠGermany": 6179,
      "Ġclean": 6180,
      "Ġattr": 6181,
      "ĠSam": 6182,
      "Ġdebug": 6183,
      "Ġpolitic": 6184,
      "ĠDay": 6185,
      "FC": 6186,
      "1994": 6187,
      "SQL": 6188,
      "collection": 6189,
      "STAT": 6190,
      "Ġio": 6191,
      "Ġtransport": 6192,
      "Ġelem": 6193,
      "Ġtemperature": 6194,
      "andra": 6195,
      "alloc": 6196,
      "allel": 6197,
      "arter": 6198,
      "total": 6199,
      "ili": 6200,
      "tabular": 6201,
      "iders": 6202,
      "Ġetc": 6203,
      "airs": 6204,
      "Ġcompanies": 6205,
      "navList": 6206,
      "ja": 6207,
      "SER": 6208,
      "ki": 6209,
      "ĠAustralian": 6210,
      "Ġstarting": 6211,
      "ĠDev": 6212,
      "Ġmatter": 6213,
      "XML": 6214,
      "62": 6215,
      "ĠLou": 6216,
      "Attributes": 6217,
      "Ġincrease": 6218,
      "Ġrace": 6219,
      "ĠVAL": 6220,
      "IMP": 6221,
      "ĠJack": 6222,
      "Layer": 6223,
      "Ġoptim": 6224,
      "Ġreading": 6225,
      "Ġnecessary": 6226,
      "Ġstre": 6227,
      "reshold": 6228,
      "Pack": 6229,
      "ĠCode": 6230,
      "names": 6231,
      "ĠMat": 6232,
      "linear": 6233,
      "Ġfinite": 6234,
      "Ġsett": 6235,
      "ĠDec": 6236,
      "asket": 6237,
      "ĠProject": 6238,
      "edy": 6239,
      "ĠHall": 6240,
      "Ġvel": 6241,
      "ĠRoad": 6242,
      "ederal": 6243,
      "asc": 6244,
      "Repository": 6245,
      "[$": 6246,
      "91": 6247,
      "inese": 6248,
      "Ġtour": 6249,
      "Files": 6250,
      "Ġfamil": 6251,
      "Ġroute": 6252,
      "Ġtro": 6253,
      "orse": 6254,
      "Av": 6255,
      "94": 6256,
      "81": 6257,
      "iece": 6258,
      "area": 6259,
      "Ġcampaign": 6260,
      "Ġassume": 6261,
      "Ġparam": 6262,
      "anning": 6263,
      "omorph": 6264,
      "ĠMary": 6265,
      "lers": 6266,
      "Ġdefe": 6267,
      "Ġusually": 6268,
      ")).": 6269,
      "getName": 6270,
      "contains": 6271,
      "ĠHand": 6272,
      "ĠVir": 6273,
      "each": 6274,
      "Rev": 6275,
      "las": 6276,
      "Art": 6277,
      "ĠWashington": 6278,
      "Ġmatches": 6279,
      "Ġter": 6280,
      "Ġord": 6281,
      "inct": 6282,
      "Ġgradu": 6283,
      "oma": 6284,
      "tools": 6285,
      "Ġprofessional": 6286,
      "Ġsus": 6287,
      "Ġxmlns": 6288,
      "FR": 6289,
      "Ġprogress": 6290,
      "ĠPress": 6291,
      "Auto": 6292,
      "Ġpick": 6293,
      "king": 6294,
      "Ġvoc": 6295,
      "Before": 6296,
      "Pay": 6297,
      "Matrix": 6298,
      "Ġfollowed": 6299,
      "azz": 6300,
      ")^{": 6301,
      "Ġalthough": 6302,
      "Ġfn": 6303,
      "gba": 6304,
      "Ġdam": 6305,
      "akes": 6306,
      "shire": 6307,
      "pecially": 6308,
      "ĠBay": 6309,
      "Ġmut": 6310,
      "hing": 6311,
      "Ġfinished": 6312,
      "Runtime": 6313,
      "well": 6314,
      "engine": 6315,
      "riends": 6316,
      "bt": 6317,
      "Ġmarried": 6318,
      "Ġbehind": 6319,
      "Ġlikely": 6320,
      "peat": 6321,
      "Ġtax": 6322,
      "bour": 6323,
      "tmp": 6324,
      "ĠPost": 6325,
      "Ġplaying": 6326,
      "Ġnor": 6327,
      "1992": 6328,
      "ĠCompany": 6329,
      "pass": 6330,
      "shadow": 6331,
      "Ġ[[": 6332,
      "Ġdifficult": 6333,
      "IPT": 6334,
      "uest": 6335,
      "Keys": 6336,
      "Details": 6337,
      "Ġsongs": 6338,
      "raction": 6339,
      "ĠReact": 6340,
      "isation": 6341,
      "Ġtransp": 6342,
      "cis": 6343,
      "ĠRobert": 6344,
      "very": 6345,
      "dates": 6346,
      "Pointer": 6347,
      "subs": 6348,
      "Ġasync": 6349,
      "Ġdesigned": 6350,
      "3333": 6351,
      "Ġcause": 6352,
      "ĠGreen": 6353,
      "Ġmanagement": 6354,
      "Ġnovel": 6355,
      "Ġtherefore": 6356,
      "wrapper": 6357,
      "83": 6358,
      "Ġreq": 6359,
      "trigger": 6360,
      "pher": 6361,
      "ste": 6362,
      "Ġinvalid": 6363,
      "Ġaccur": 6364,
      "Ġwaves": 6365,
      "rb": 6366,
      "ora": 6367,
      "Feature": 6368,
      "Ġawait": 6369,
      ".'": 6370,
      "BP": 6371,
      "elli": 6372,
      "ensus": 6373,
      ")}\\": 6374,
      "BUG": 6375,
      "izations": 6376,
      "osite": 6377,
      "ĠJapan": 6378,
      "93": 6379,
      "ying": 6380,
      "network": 6381,
      "ĠUpdate": 6382,
      "Ġ\"\"": 6383,
      "gs": 6384,
      "ĠWil": 6385,
      "ĠLeg": 6386,
      "92": 6387,
      "rial": 6388,
      "Ġmodern": 6389,
      "Parse": 6390,
      "leep": 6391,
      "Ġmulti": 6392,
      "ĠAR": 6393,
      "Second": 6394,
      "$)": 6395,
      "Profile": 6396,
      "atur": 6397,
      "Ġbus": 6398,
      "ĠOver": 6399,
      "ĠGr": 6400,
      "ala": 6401,
      "Ġrock": 6402,
      "She": 6403,
      "ĠWhile": 6404,
      "1993": 6405,
      "Ġreserv": 6406,
      "ĠDirect": 6407,
      "Ġprevent": 6408,
      "INFO": 6409,
      "FFFF": 6410,
      "Ġlib": 6411,
      "Ġimplements": 6412,
      "Ġpresented": 6413,
      "Ġaltern": 6414,
      "Memory": 6415,
      "Ġdeep": 6416,
      "ĠPat": 6417,
      "sem": 6418,
      "Character": 6419,
      "Mapping": 6420,
      "oon": 6421,
      "effect": 6422,
      "Ġproces": 6423,
      "Ġquick": 6424,
      "Abstract": 6425,
      "Ġassist": 6426,
      "Ġmoney": 6427,
      "resents": 6428,
      "ĠRad": 6429,
      "aration": 6430,
      "Transform": 6431,
      "allery": 6432,
      "ĠInitial": 6433,
      "ades": 6434,
      "ĠMex": 6435,
      "elf": 6436,
      "ONE": 6437,
      "apply": 6438,
      ":\\": 6439,
      "Ġencoding": 6440,
      "Ġreplaced": 6441,
      "Database": 6442,
      "direct": 6443,
      "hide": 6444,
      "Ġexplicit": 6445,
      "colLast": 6446,
      "ĠAcade": 6447,
      "Ġcontinued": 6448,
      "=-": 6449,
      "fail": 6450,
      "Ġexplo": 6451,
      "Ġrecorded": 6452,
      "\",\"": 6453,
      "Ġchurch": 6454,
      "ĠBest": 6455,
      "uit": 6456,
      "ĠInc": 6457,
      "61": 6458,
      "Ġhel": 6459,
      "CI": 6460,
      "va": 6461,
      "Print": 6462,
      "MOD": 6463,
      "collapse": 6464,
      "Ġcoq": 6465,
      "Ġroad": 6466,
      "Ġdepart": 6467,
      "Ġdemon": 6468,
      "iam": 6469,
      "Ġhit": 6470,
      "ifications": 6471,
      "Ġbal": 6472,
      "Ġexternal": 6473,
      "Ġemail": 6474,
      "Success": 6475,
      "km": 6476,
      "Ġwalk": 6477,
      "ĠIsland": 6478,
      "Ġstorage": 6479,
      "shall": 6480,
      "Dest": 6481,
      "rase": 6482,
      "symbol": 6483,
      "ĠAlex": 6484,
      "Ġdifference": 6485,
      "ĠGod": 6486,
      "Since": 6487,
      "Ġpointer": 6488,
      "74": 6489,
      "CHECK": 6490,
      "picker": 6491,
      ".~": 6492,
      "ĠFre": 6493,
      "Ġensure": 6494,
      "bytes": 6495,
      "FL": 6496,
      "Double": 6497,
      "Ġdim": 6498,
      "dp": 6499,
      "sect": 6500,
      "ĠYear": 6501,
      "ĠHen": 6502,
      "Ġspin": 6503,
      "Ġlargest": 6504,
      "Scale": 6505,
      "Ġ=======": 6506,
      "osen": 6507,
      "Ġ\"<": 6508,
      "rael": 6509,
      "props": 6510,
      "Ġcompared": 6511,
      "Ġweak": 6512,
      "Route": 6513,
      "while": 6514,
      "aver": 6515,
      "atible": 6516,
      "Ġstars": 6517,
      "Ġdestroy": 6518,
      ">:": 6519,
      "Ġmiddle": 6520,
      "allclasses": 6521,
      "ategories": 6522,
      "Ġenabled": 6523,
      "dimension": 6524,
      "Ġwife": 6525,
      "ĠSociety": 6526,
      "Term": 6527,
      "åı": 6528,
      "Ġliving": 6529,
      "colFirst": 6530,
      "Ġpreviously": 6531,
      "ĠFunction": 6532,
      "ĠTur": 6533,
      "Ġdidn": 6534,
      "ĠCall": 6535,
      "Ġsex": 6536,
      "Ġunknown": 6537,
      "Socket": 6538,
      "filename": 6539,
      "Ġsmaller": 6540,
      "Common": 6541,
      "Ã³n": 6542,
      "NULL": 6543,
      "Engine": 6544,
      ")-": 6545,
      "Protocol": 6546,
      "Ġeffort": 6547,
      "SY": 6548,
      "peed": 6549,
      "ih": 6550,
      "cup": 6551,
      "iences": 6552,
      "metadata": 6553,
      "Ġonline": 6554,
      "ĠDuring": 6555,
      "Play": 6556,
      "selves": 6557,
      "protected": 6558,
      "liance": 6559,
      "Scroll": 6560,
      "Ġsupp": 6561,
      "Ġsimply": 6562,
      "ners": 6563,
      "HER": 6564,
      "Ġbuilder": 6565,
      "ĠTw": 6566,
      "ajax": 6567,
      "Ġprobability": 6568,
      "Ġ\",": 6569,
      "Ġshare": 6570,
      "Ġgas": 6571,
      "Ġhot": 6572,
      "Ġ$.": 6573,
      "Ġarticle": 6574,
      "\"><!--": 6575,
      "mutable": 6576,
      "Ġreve": 6577,
      "Ġproper": 6578,
      "provider": 6579,
      "Ġspeed": 6580,
      "ĠFigure": 6581,
      "ĉĉĉĉĉĉĉĉĉ": 6582,
      "Ġmother": 6583,
      "73": 6584,
      "swarm": 6585,
      "nil": 6586,
      "Ġmention": 6587,
      "Ġsens": 6588,
      "LP": 6589,
      "ĠRef": 6590,
      "Ġcalls": 6591,
      "swer": 6592,
      "What": 6593,
      "identifier": 6594,
      "ĠCr": 6595,
      "ansion": 6596,
      "ĠTem": 6597,
      "Ġpersonal": 6598,
      "Ġloop": 6599,
      "ĠEar": 6600,
      "rine": 6601,
      "Ġfood": 6602,
      "Ġinvolved": 6603,
      "ĠRel": 6604,
      "ĠPub": 6605,
      "Ġstudies": 6606,
      "Ġphysical": 6607,
      "Register": 6608,
      "Identifier": 6609,
      "Background": 6610,
      "Ġprop": 6611,
      "wildfly": 6612,
      "ĠId": 6613,
      "sur": 6614,
      "Ġpassword": 6615,
      "actor": 6616,
      "entials": 6617,
      "Failed": 6618,
      "uan": 6619,
      "iny": 6620,
      "Ġcomes": 6621,
      "ĠØ": 6622,
      "variable": 6623,
      "Ġfit": 6624,
      "RAN": 6625,
      "bul": 6626,
      "Ġ?>": 6627,
      "Depend": 6628,
      "ĠClub": 6629,
      "Ġcounter": 6630,
      "ancial": 6631,
      "ĠPen": 6632,
      "Ġboard": 6633,
      "Ġhidden": 6634,
      "ufact": 6635,
      "lood": 6636,
      "Func": 6637,
      "Ġthroughout": 6638,
      "ga": 6639,
      "jpg": 6640,
      "lam": 6641,
      "1991": 6642,
      "Sync": 6643,
      "platform": 6644,
      "LECT": 6645,
      "Ġscen": 6646,
      "}^\\": 6647,
      "ĠCong": 6648,
      "ĠLandroid": 6649,
      "Ġkm": 6650,
      "Ġholds": 6651,
      "ĠAfrica": 6652,
      "reset": 6653,
      "PL": 6654,
      "crete": 6655,
      "Rad": 6656,
      "Ġstatement": 6657,
      "riteria": 6658,
      "Ġ(_": 6659,
      "FIG": 6660,
      "headers": 6661,
      "urrency": 6662,
      "spital": 6663,
      "ĉĠĠĠĠĠ": 6664,
      "Remove": 6665,
      "icol": 6666,
      "tbody": 6667,
      "ĠCam": 6668,
      "generated": 6669,
      "Ġbasis": 6670,
      "dialog": 6671,
      "ĠResearch": 6672,
      "Ġespecially": 6673,
      ":#": 6674,
      "Ġâ": 6675,
      "WA": 6676,
      "Ġoptional": 6677,
      "Ġeffective": 6678,
      "ĠTex": 6679,
      "Fin": 6680,
      "prefix": 6681,
      "Ġroom": 6682,
      "ĠWindow": 6683,
      "Ġcategory": 6684,
      "Ġconnected": 6685,
      "execute": 6686,
      "Ġess": 6687,
      "lan": 6688,
      "ĠWhat": 6689,
      "ĠChe": 6690,
      "Members": 6691,
      "mooth": 6692,
      "umin": 6693,
      "áĥ": 6694,
      "Ġri": 6695,
      "Ġrequires": 6696,
      "Ġboundary": 6697,
      "Ġabsolute": 6698,
      "grade": 6699,
      "Wrapper": 6700,
      "Ġtab": 6701,
      "ĠThomas": 6702,
      "Ġthing": 6703,
      "ĠWhite": 6704,
      "=(": 6705,
      "Full": 6706,
      "DC": 6707,
      "jango": 6708,
      "ĠScience": 6709,
      "Ġnothing": 6710,
      "Ġshared": 6711,
      "Selected": 6712,
      "EC": 6713,
      "TEXT": 6714,
      "wik": 6715,
      "ĠItal": 6716,
      "attributes": 6717,
      "71": 6718,
      "ĠMichael": 6719,
      "Ġgave": 6720,
      "Sche": 6721,
      "DS": 6722,
      "onym": 6723,
      "ĠTask": 6724,
      "typedef": 6725,
      "agger": 6726,
      "ita": 6727,
      "ometimes": 6728,
      "Ġgalax": 6729,
      "widehat": 6730,
      "erial": 6731,
      "ĠTown": 6732,
      "------------": 6733,
      "ĠRegister": 6734,
      "ĠExt": 6735,
      "ancell": 6736,
      "Sequence": 6737,
      "Ġctx": 6738,
      "liament": 6739,
      "services": 6740,
      "Ġconcept": 6741,
      "Ġbecomes": 6742,
      "ĠJava": 6743,
      "ĠTechn": 6744,
      "(__": 6745,
      "Ġformed": 6746,
      "Ġvisible": 6747,
      "cludes": 6748,
      "READ": 6749,
      "theme": 6750,
      "tags": 6751,
      "ĠNAME": 6752,
      "aled": 6753,
      "Ġconstructor": 6754,
      "Ġidea": 6755,
      "ffff": 6756,
      "ĠBig": 6757,
      "serve": 6758,
      "progress": 6759,
      "JS": 6760,
      "elt": 6761,
      "Ġpolice": 6762,
      "evelop": 6763,
      "IND": 6764,
      "Ġbooks": 6765,
      "Constants": 6766,
      "essor": 6767,
      "Final": 6768,
      "Agent": 6769,
      "Step": 6770,
      "Password": 6771,
      "Ġlevels": 6772,
      "ĠIOException": 6773,
      "ĠĠĠĠĠĠĠĠĠĠĠĠĠĠĠĠĊ": 6774,
      "Generator": 6775,
      "Region": 6776,
      "Ġdise": 6777,
      "Ġruns": 6778,
      "usion": 6779,
      "Ġsense": 6780,
      "<!": 6781,
      "umni": 6782,
      "Ġtx": 6783,
      "ky": 6784,
      "ĠCentral": 6785,
      "rf": 6786,
      "cons": 6787,
      "Person": 6788,
      "PA": 6789,
      "{(": 6790,
      "NOT": 6791,
      "Ġreceive": 6792,
      "scr": 6793,
      "ilation": 6794,
      "Fail": 6795,
      "Ġjud": 6796,
      "}_\\": 6797,
      "qquad": 6798,
      "Ġindustry": 6799,
      "isions": 6800,
      "ĠShow": 6801,
      "icated": 6802,
      "ĠDan": 6803,
      "Ġimpact": 6804,
      "views": 6805,
      "maven": 6806,
      "Ġhours": 6807,
      "Ġsubsequ": 6808,
      "()</": 6809,
      "precated": 6810,
      "Ġdirected": 6811,
      "Product": 6812,
      "Ġtypeof": 6813,
      "?>": 6814,
      "Ġmus": 6815,
      "ĠGames": 6816,
      "123": 6817,
      "HR": 6818,
      "Ġdark": 6819,
      "Mut": 6820,
      "tests": 6821,
      "Ġconver": 6822,
      "cdots": 6823,
      "Ġappeared": 6824,
      "Seg": 6825,
      "Ġfun": 6826,
      "children": 6827,
      "Ġgrant": 6828,
      "iteral": 6829,
      "clo": 6830,
      "Ġprobably": 6831,
      "contin": 6832,
      "Ġeight": 6833,
      "ette": 6834,
      "ĠGold": 6835,
      "Ġ[],": 6836,
      "cdn": 6837,
      "ĠNow": 6838,
      "igration": 6839,
      "}|": 6840,
      "Author": 6841,
      "Ġexport": 6842,
      "Ġinsert": 6843,
      "Selection": 6844,
      "loader": 6845,
      "SR": 6846,
      "ĠGets": 6847,
      "Ġplaces": 6848,
      "ĠMessage": 6849,
      "compiler": 6850,
      "Ġwatch": 6851,
      "ĠScott": 6852,
      "mazon": 6853,
      "ĠInteger": 6854,
      "Global": 6855,
      "Ġche": 6856,
      "Ġga": 6857,
      "och": 6858,
      "PP": 6859,
      "atin": 6860,
      "ĠSur": 6861,
      "onal": 6862,
      "OUT": 6863,
      "parameters": 6864,
      "svg": 6865,
      "ĠSuper": 6866,
      "}\\,": 6867,
      "ictor": 6868,
      "Ġmessages": 6869,
      "ĠMuseum": 6870,
      "ĠSal": 6871,
      "MB": 6872,
      "login": 6873,
      "Ġnavigation": 6874,
      ".\");": 6875,
      "Ġsem": 6876,
      "ĠThus": 6877,
      "ertificate": 6878,
      "Ġsaw": 6879,
      "amaz": 6880,
      "exists": 6881,
      "Ġgir": 6882,
      "Ġbrowser": 6883,
      "Ġship": 6884,
      "enumer": 6885,
      "idx": 6886,
      "Opt": 6887,
      "Ġbelong": 6888,
      "BAR": 6889,
      "herited": 6890,
      "Ġadapt": 6891,
      "ĠMax": 6892,
      "ruby": 6893,
      "ĠFore": 6894,
      "ato": 6895,
      "leton": 6896,
      "ighest": 6897,
      "LINE": 6898,
      "enge": 6899,
      "xhtml": 6900,
      "Trace": 6901,
      "Ġnu": 6902,
      "Ġschools": 6903,
      "ĠJew": 6904,
      "rees": 6905,
      "ils": 6906,
      "Py": 6907,
      "Ġbirth": 6908,
      "rey": 6909,
      "Ġpers": 6910,
      "mitted": 6911,
      "libr": 6912,
      "Statement": 6913,
      "Gen": 6914,
      "Ġdemonstr": 6915,
      "}}(": 6916,
      "Ġtravel": 6917,
      "Ġ\"-": 6918,
      "Prefix": 6919,
      "More": 6920,
      "prev": 6921,
      "ĠCanadian": 6922,
      "!!": 6923,
      "Ġsizeof": 6924,
      "Ġtemp": 6925,
      "anned": 6926,
      "ALSE": 6927,
      "AX": 6928,
      "unique": 6929,
      "azine": 6930,
      "CESS": 6931,
      "ĠĠĠĠĠĠĠĠĠĠĠĠĠĠĠĠĠĠĠĠĠĠĠĠĠĠĠĠĠ": 6932,
      "NT": 6933,
      "zone": 6934,
      "Ġinstalled": 6935,
      "Ġjoin": 6936,
      "Ġupdated": 6937,
      "Tx": 6938,
      "junit": 6939,
      "Space": 6940,
      "})\\": 6941,
      "Ġsoon": 6942,
      "Simple": 6943,
      "Ġ×": 6944,
      "springframework": 6945,
      "Ġbenef": 6946,
      "Ġcard": 6947,
      "Ġactivity": 6948,
      "olf": 6949,
      "Ġbranch": 6950,
      "Ġ>>": 6951,
      "pu": 6952,
      "Ġsetup": 6953,
      "NN": 6954,
      "1960": 6955,
      "ĠHistory": 6956,
      "ĠIE": 6957,
      "Ġidx": 6958,
      "usform": 6959,
      "numerusform": 6960,
      "username": 6961,
      "Category": 6962,
      "ĠNumber": 6963,
      "textwidth": 6964,
      "Ġinvestig": 6965,
      "Domain": 6966,
      "coming": 6967,
      "Ġdynam": 6968,
      "orrect": 6969,
      "('.": 6970,
      "ĠKingdom": 6971,
      "128": 6972,
      "aland": 6973,
      ">::": 6974,
      "Ġquality": 6975,
      "ĠĠĠĠĠĠĠĠĠĠĠĠĠĠĠĠĠĠĠĠĠĠĠĠĠĠ": 6976,
      "Ġcountries": 6977,
      "Ġminimum": 6978,
      "Ġbasic": 6979,
      "ĠHash": 6980,
      "Ġtowards": 6981,
      "ises": 6982,
      "Ġunless": 6983,
      "ĠAfrican": 6984,
      "shared": 6985,
      "ims": 6986,
      "ĠIndex": 6987,
      "Ġip": 6988,
      "ĠRequest": 6989,
      "ARN": 6990,
      "Ġincreasing": 6991,
      "OB": 6992,
      "Ġ\\{": 6993,
      "ĠJapanese": 6994,
      "ancy": 6995,
      "Ġfast": 6996,
      "flag": 6997,
      "Attr": 6998,
      "ien": 6999,
      "ocaml": 7000,
      "inet": 7001,
      "Ġsplit": 7002,
      "ĠAlso": 7003,
      "room": 7004,
      "ĠMa": 7005,
      "Nodes": 7006,
      "oser": 7007,
      "Ġaud": 7008,
      "ifdef": 7009,
      "ĠTor": 7010,
      "ITE": 7011,
      "Ġsen": 7012,
      "Ġdecision": 7013,
      "ĠHere": 7014,
      "prov": 7015,
      "Ġtypename": 7016,
      "Gu": 7017,
      "ĠMad": 7018,
      "ĠLine": 7019,
      "ĠFinal": 7020,
      "Condition": 7021,
      "Ġbeginning": 7022,
      "war": 7023,
      "ĠĠĠĊ": 7024,
      "{%": 7025,
      "DateTime": 7026,
      "Ġchoice": 7027,
      "Other": 7028,
      "aret": 7029,
      "Ġblocks": 7030,
      "role": 7031,
      "Ġstri": 7032,
      "rish": 7033,
      "Ġ'<": 7034,
      "ĠColor": 7035,
      "Props": 7036,
      "idents": 7037,
      "Section": 7038,
      "ternet": 7039,
      "Ġexhib": 7040,
      "tex": 7041,
      "ĠHealth": 7042,
      "fect": 7043,
      "=\"$": 7044,
      "ĠCath": 7045,
      "ĠExec": 7046,
      "DT": 7047,
      "ĠOrder": 7048,
      "...</": 7049,
      "Ġui": 7050,
      "ĠĠĠĠĠĠĠĠĠĠĠĠĠĠĠĠĠĠĠĠĠĠĠĠĠĠĠĠĠĠĠĠĠĠĠĠĠĠĠĠĠĠĠĠĠĠĠĠĠĠĠĠĠĠĠĠĠĠĠĠĠĠĠĠ": 7051,
      "ĠChristian": 7052,
      "iller": 7053,
      "Ġdoing": 7054,
      "Car": 7055,
      "Ġgrad": 7056,
      "Generated": 7057,
      "Ġfully": 7058,
      "xs": 7059,
      "Ġproducts": 7060,
      "apped": 7061,
      "Ġrgba": 7062,
      "done": 7063,
      "Ġmenu": 7064,
      "Ġminutes": 7065,
      "Ġmultip": 7066,
      "Ġvertical": 7067,
      "ko": 7068,
      "spect": 7069,
      "Ġsurv": 7070,
      "Ġepisode": 7071,
      "NA": 7072,
      "protocol": 7073,
      "Ġtrain": 7074,
      "ĠMus": 7075,
      "Ġ],": 7076,
      "TIME": 7077,
      "ĠKe": 7078,
      "1989": 7079,
      "extern": 7080,
      "IST": 7081,
      "Ġrecomm": 7082,
      "ĠRob": 7083,
      "Ġuseful": 7084,
      "Ġfix": 7085,
      "details": 7086,
      "ĠĠĠĠĠĠĠĠĠĠĠĠĠĠĠĠĠĠĠĠĠĠĠĠĠĠĠĠ": 7087,
      "found": 7088,
      "Ġstructures": 7089,
      "acro": 7090,
      "letion": 7091,
      "builder": 7092,
      "omial": 7093,
      "structure": 7094,
      "Ġinterval": 7095,
      "ĠSu": 7096,
      "Ġdrop": 7097,
      "FLA": 7098,
      "Ġforms": 7099,
      "izable": 7100,
      "jd": 7101,
      "storage": 7102,
      ")->": 7103,
      "Ġbroadcast": 7104,
      "Î¿": 7105,
      "Ġsolutions": 7106,
      "sys": 7107,
      "urt": 7108,
      "Ġfoc": 7109,
      "icks": 7110,
      "CTYPE": 7111,
      "Report": 7112,
      "Ġimm": 7113,
      "errors": 7114,
      "Ġdesc": 7115,
      "ĠVol": 7116,
      "redu": 7117,
      "Ġjournal": 7118,
      "Ñı": 7119,
      "ocker": 7120,
      "ingu": 7121,
      "temp": 7122,
      "asketball": 7123,
      "Ġnegative": 7124,
      "ĠHistor": 7125,
      "}:": 7126,
      "citet": 7127,
      "ĠTim": 7128,
      "ĠFin": 7129,
      "&=": 7130,
      "Ġslow": 7131,
      "axis": 7132,
      "article": 7133,
      "ĠMiss": 7134,
      "conn": 7135,
      "Ġdetermine": 7136,
      "ĠRecords": 7137,
      "Ġbring": 7138,
      "iling": 7139,
      "ĠOffic": 7140,
      "Ġstaff": 7141,
      "Then": 7142,
      "Ġmaster": 7143,
      "Ġlogger": 7144,
      "Ġ{{": 7145,
      ";\">": 7146,
      "rated": 7147,
      "Ġ[\"": 7148,
      "abilities": 7149,
      "Ġalbums": 7150,
      "rot": 7151,
      "approx": 7152,
      "olar": 7153,
      "Collections": 7154,
      "Ġlisted": 7155,
      "users": 7156,
      "required": 7157,
      "ĠSecond": 7158,
      "Ġextract": 7159,
      "Diag": 7160,
      "Ġcourt": 7161,
      "ĠWestern": 7162,
      "Ġshift": 7163,
      "Ġparser": 7164,
      "random": 7165,
      "iers": 7166,
      "hol": 7167,
      "incipal": 7168,
      "ito": 7169,
      "Ġdro": 7170,
      "Ġquantum": 7171,
      "Ġlimited": 7172,
      "Ġforces": 7173,
      "Ġbinary": 7174,
      "Ġidentity": 7175,
      "Ġreached": 7176,
      "HTTP": 7177,
      "Ġrelig": 7178,
      "Ġdram": 7179,
      "eval": 7180,
      "ĠLu": 7181,
      "Ġtrade": 7182,
      "Ġinj": 7183,
      "elebr": 7184,
      "asy": 7185,
      "Ġenv": 7186,
      "Ġactions": 7187,
      "pattern": 7188,
      "Ġrecords": 7189,
      "ĠDemocr": 7190,
      "USE": 7191,
      "definition": 7192,
      "construct": 7193,
      "ĠCollection": 7194,
      "blue": 7195,
      "ICE": 7196,
      "ĠSO": 7197,
      "Admin": 7198,
      "Texture": 7199,
      "itz": 7200,
      "href": 7201,
      "ĠBO": 7202,
      "Ġnullptr": 7203,
      "Make": 7204,
      "amazon": 7205,
      "ĠChinese": 7206,
      "Ġprove": 7207,
      "referred": 7208,
      "istan": 7209,
      "ĠFoundation": 7210,
      "Ġfeed": 7211,
      "ĠAcademy": 7212,
      "Ġprefix": 7213,
      "Player": 7214,
      "ecause": 7215,
      "Ġtold": 7216,
      "ĠCarol": 7217,
      "1988": 7218,
      "Book": 7219,
      "stant": 7220,
      "ĠRussian": 7221,
      "Progress": 7222,
      "ĠTexas": 7223,
      "Shape": 7224,
      "Ġequivalent": 7225,
      "Ġexc": 7226,
      "=#": 7227,
      "Ġowner": 7228,
      "arator": 7229,
      "ĠGreat": 7230,
      "assembly": 7231,
      "ĠSeries": 7232,
      "BS": 7233,
      "Ġcharset": 7234,
      "Ġprotocol": 7235,
      "serial": 7236,
      "Ġevidence": 7237,
      "socket": 7238,
      "ĠUN": 7239,
      "}'": 7240,
      "ĠFrancis": 7241,
      "Comment": 7242,
      "La": 7243,
      "ountry": 7244,
      "Ġkilled": 7245,
      "^+": 7246,
      "ĠLemma": 7247,
      "detail": 7248,
      "Ġrecover": 7249,
      "Ġdaughter": 7250,
      "println": 7251,
      "atre": 7252,
      "Visible": 7253,
      "ajor": 7254,
      "ĠHTTP": 7255,
      "URI": 7256,
      "aily": 7257,
      "iring": 7258,
      "ĠjQuery": 7259,
      "Ġelectron": 7260,
      "green": 7261,
      "edu": 7262,
      "VM": 7263,
      "Ġretr": 7264,
      "invalid": 7265,
      "CRE": 7266,
      "WN": 7267,
      "riority": 7268,
      "resources": 7269,
      "Ġseem": 7270,
      "Area": 7271,
      "roke": 7272,
      "ACT": 7273,
      "ĠVirgin": 7274,
      "Î±": 7275,
      "itable": 7276,
      "'));": 7277,
      "Cap": 7278,
      "yr": 7279,
      "Public": 7280,
      "bes": 7281,
      "Ġcharge": 7282,
      "Ġenum": 7283,
      "Ġappend": 7284,
      "Ġflags": 7285,
      "('/": 7286,
      "ĠEmp": 7287,
      "Ġblue": 7288,
      "ournament": 7289,
      "Ġearlier": 7290,
      "Ġqueue": 7291,
      "Registry": 7292,
      "Ġseven": 7293,
      "ĠSmith": 7294,
      "Ġleague": 7295,
      "ĠTR": 7296,
      "Bind": 7297,
      "DEFAULT": 7298,
      "ĠCopyright": 7299,
      "('#": 7300,
      "EEEE": 7301,
      "Ġveh": 7302,
      "Skip": 7303,
      "aser": 7304,
      "bi": 7305,
      "Cluster": 7306,
      "Ġremaining": 7307,
      "%%%%": 7308,
      "irmed": 7309,
      "Ġremains": 7310,
      "safe": 7311,
      "Ġmetadata": 7312,
      "enabled": 7313,
      "Ġtechnology": 7314,
      "Ġspent": 7315,
      "release": 7316,
      "organ": 7317,
      "}^{(": 7318,
      "Ġregions": 7319,
      "Ġremain": 7320,
      "feature": 7321,
      "Med": 7322,
      "outer": 7323,
      "Ġdecre": 7324,
      "ĠItalian": 7325,
      "ional": 7326,
      "fixed": 7327,
      "Ġinvol": 7328,
      "yg": 7329,
      "Ġrequests": 7330,
      "ĠLife": 7331,
      "Ġequations": 7332,
      "Ġsecret": 7333,
      "icen": 7334,
      "Summary": 7335,
      "Ġfounded": 7336,
      "watch": 7337,
      "Ġsports": 7338,
      "fx": 7339,
      "house": 7340,
      "hold": 7341,
      "ĠTop": 7342,
      "ĠFrank": 7343,
      "Game": 7344,
      "ova": 7345,
      "mask": 7346,
      "ĠMont": 7347,
      "Ġpred": 7348,
      "Ġabstract": 7349,
      "ctrine": 7350,
      "Ġcritical": 7351,
      "Ġdetail": 7352,
      "Ġanything": 7353,
      "Ġ$(\\": 7354,
      "FORM": 7355,
      "ĠHttp": 7356,
      "strument": 7357,
      "fit": 7358,
      "reme": 7359,
      "Ġmor": 7360,
      "ishing": 7361,
      "fort": 7362,
      "osh": 7363,
      "Ġdu": 7364,
      "Ġappears": 7365,
      "Ġeasy": 7366,
      "DOCTYPE": 7367,
      "Ġshall": 7368,
      "Wallet": 7369,
      "upload": 7370,
      "Ġforeach": 7371,
      "mercial": 7372,
      "Ġpublish": 7373,
      "ĠOf": 7374,
      "Ġlooking": 7375,
      "Ġenable": 7376,
      "Ã¨": 7377,
      "isl": 7378,
      "nodes": 7379,
      "ĠPath": 7380,
      "Ġfoot": 7381,
      "extension": 7382,
      "Role": 7383,
      "Ġrepresents": 7384,
      "rast": 7385,
      "look": 7386,
      "Ġrepresented": 7387,
      "Install": 7388,
      "Ġextended": 7389,
      "ĠUI": 7390,
      "rift": 7391,
      "ircraft": 7392,
      "Ġclick": 7393,
      "Ġappropri": 7394,
      "Ġcharg": 7395,
      "Ġelected": 7396,
      "Mat": 7397,
      "OST": 7398,
      "High": 7399,
      "ĠAv": 7400,
      "Ġ{\"": 7401,
      "ĠMel": 7402,
      "iments": 7403,
      "moz": 7404,
      "fix": 7405,
      "ĠIsrael": 7406,
      "Framework": 7407,
      "checkbox": 7408,
      "ĠPeter": 7409,
      "Ġtit": 7410,
      "Ġconcern": 7411,
      "Ġpool": 7412,
      "glyph": 7413,
      "Ġinner": 7414,
      "cred": 7415,
      "Ġgrid": 7416,
      "ĠDi": 7417,
      "ĠOur": 7418,
      "MODULE": 7419,
      "ÛĮ": 7420,
      "Ġtouch": 7421,
      "expr": 7422,
      "Ġfailure": 7423,
      "Ġtesting": 7424,
      "ĠZealand": 7425,
      "hy": 7426,
      "ĠCharles": 7427,
      "ji": 7428,
      "orter": 7429,
      "}\\\\": 7430,
      "Ġresulting": 7431,
      "Ġpractice": 7432,
      "Ġvalign": 7433,
      "Ġproxy": 7434,
      "reland": 7435,
      "'m": 7436,
      "WR": 7437,
      "Ġteach": 7438,
      "Ġdelay": 7439,
      "Ġcollect": 7440,
      "ĠKore": 7441,
      "Ġdetermined": 7442,
      "Cred": 7443,
      "abit": 7444,
      "\"],": 7445,
      "clean": 7446,
      "Ġgetting": 7447,
      "FS": 7448,
      "indexOf": 7449,
      "Ġtrigger": 7450,
      "ĉĠĠĠĠĠĠĠ": 7451,
      ";}": 7452,
      "fd": 7453,
      "zero": 7454,
      "ĠRock": 7455,
      "Language": 7456,
      "ollowing": 7457,
      "ĠASS": 7458,
      "ĠRail": 7459,
      "Ġinstit": 7460,
      "ĠLouis": 7461,
      "Ġheaders": 7462,
      "since": 7463,
      "llegal": 7464,
      "Ġtsd": 7465,
      ".<": 7466,
      "enable": 7467,
      "det": 7468,
      "Ġpeak": 7469,
      "sidebar": 7470,
      "fire": 7471,
      "ĠCamp": 7472,
      "ateway": 7473,
      "Ġfemale": 7474,
      "Ġwoman": 7475,
      "Ġpush": 7476,
      "Ġcoach": 7477,
      "ĠNetwork": 7478,
      "Ġlack": 7479,
      "Ġcapital": 7480,
      "IVE": 7481,
      "Stats": 7482,
      "Ġembed": 7483,
      "video": 7484,
      "ANG": 7485,
      "(@": 7486,
      "Ġque": 7487,
      "ĠMinister": 7488,
      "Ġplant": 7489,
      "Ġraw": 7490,
      "ĠJose": 7491,
      "ĠProgram": 7492,
      "Ġratio": 7493,
      "EO": 7494,
      "ĠPlay": 7495,
      "inf": 7496,
      "PER": 7497,
      "ĠServ": 7498,
      "player": 7499,
      "Ġ([": 7500,
      "1987": 7501,
      "sequence": 7502,
      ")+": 7503,
      "ĠAction": 7504,
      "Ġleave": 7505,
      "eners": 7506,
      "overs": 7507,
      "Ġfigure": 7508,
      "Video": 7509,
      "endor": 7510,
      "ĠTwo": 7511,
      "ĠArrayList": 7512,
      "ny": 7513,
      "expect": 7514,
      "TRUE": 7515,
      "Ġculture": 7516,
      "Ġpartial": 7517,
      "Ġframework": 7518,
      "report": 7519,
      "ĠVis": 7520,
      "Ġfactory": 7521,
      "ĠResource": 7522,
      "celer": 7523,
      "POST": 7524,
      "Ġagent": 7525,
      "Interval": 7526,
      "ench": 7527,
      "Ġeventually": 7528,
      "Ġago": 7529,
      "Ġappointed": 7530,
      "Returns": 7531,
      "Ġgenerally": 7532,
      "ussia": 7533,
      "ãĢ": 7534,
      "ĠSaint": 7535,
      "Ġmeet": 7536,
      "heast": 7537,
      "stable": 7538,
      "wall": 7539,
      "Ø±": 7540,
      "even": 7541,
      "async": 7542,
      "Ġguitar": 7543,
      "METH": 7544,
      "ĠGame": 7545,
      "Total": 7546,
      "]$": 7547,
      "deg": 7548,
      "Ġgold": 7549,
      "Pub": 7550,
      "ĠForce": 7551,
      "bitr": 7552,
      "Uri": 7553,
      "}+\\": 7554,
      "apos": 7555,
      "Direct": 7556,
      "PROJECT": 7557,
      "Elements": 7558,
      "apis": 7559,
      "ibly": 7560,
      "iro": 7561,
      "brief": 7562,
      "Ġpurch": 7563,
      "Ġsignature": 7564,
      "Resources": 7565,
      "Ġgets": 7566,
      "Ġsummary": 7567,
      "Ġletter": 7568,
      "Ġgreater": 7569,
      "ima": 7570,
      "ĠOp": 7571,
      "Err": 7572,
      "Ġcreating": 7573,
      "Google": 7574,
      "game": 7575,
      "urred": 7576,
      "Ġeq": 7577,
      "signature": 7578,
      "Ġimmediately": 7579,
      "icago": 7580,
      "Ġmeaning": 7581,
      "Services": 7582,
      "ĠLOG": 7583,
      "Ġstreng": 7584,
      "Ġquite": 7585,
      "ĠSummer": 7586,
      "Ġdomin": 7587,
      "ĠPan": 7588,
      "Ġstra": 7589,
      "iverse": 7590,
      "vo": 7591,
      "Ġcoe": 7592,
      "ĠallClasses": 7593,
      "levant": 7594,
      "Ġcivil": 7595,
      "pull": 7596,
      "Prop": 7597,
      "SCR": 7598,
      "Ġplaced": 7599,
      "ĠGrand": 7600,
      "Ġsegment": 7601,
      "Ġreader": 7602,
      "Ġopport": 7603,
      "Ġcook": 7604,
      "iger": 7605,
      "ĠallClassesLink": 7606,
      "mathsf": 7607,
      "develop": 7608,
      "Ġproced": 7609,
      "ĠFlor": 7610,
      "ĠBill": 7611,
      "BE": 7612,
      "when": 7613,
      "'];": 7614,
      "Ġscheme": 7615,
      "Animation": 7616,
      "matrix": 7617,
      "Ġthemselves": 7618,
      "zil": 7619,
      "ĠRichard": 7620,
      "Ġmind": 7621,
      "Ġscient": 7622,
      "Ġrestrict": 7623,
      "oting": 7624,
      "Ġseconds": 7625,
      "ĠCle": 7626,
      "'ll": 7627,
      "proxy": 7628,
      "Vertex": 7629,
      "Prov": 7630,
      "agent": 7631,
      "IGHT": 7632,
      "Ġorganization": 7633,
      "EEEEFF": 7634,
      "ĠIll": 7635,
      "1986": 7636,
      "Ġcolumns": 7637,
      "Email": 7638,
      "Headers": 7639,
      "Mer": 7640,
      "Delegate": 7641,
      "kt": 7642,
      "Dictionary": 7643,
      "ĠLos": 7644,
      "blank": 7645,
      "Ġvs": 7646,
      "ĠHill": 7647,
      "Ġlayout": 7648,
      "LOCK": 7649,
      "called": 7650,
      "Ġbur": 7651,
      "\\'": 7652,
      "RPC": 7653,
      "Ġpresence": 7654,
      "Ġball": 7655,
      "Ġseems": 7656,
      "Ġwave": 7657,
      "ĠDu": 7658,
      "Namespace": 7659,
      "people": 7660,
      "dimensional": 7661,
      "python": 7662,
      "Ġcompare": 7663,
      "åĪ": 7664,
      "ees": 7665,
      "Ġnorm": 7666,
      "condition": 7667,
      "ĠCEL": 7668,
      "Ġdownload": 7669,
      "ĠStart": 7670,
      "bro": 7671,
      "bel": 7672,
      "Ġdead": 7673,
      "ĠAnn": 7674,
      "Ġsn": 7675,
      "Ġartists": 7676,
      "Ġrecently": 7677,
      "Ġhighest": 7678,
      "isters": 7679,
      "ĠFootball": 7680,
      "alo": 7681,
      "throw": 7682,
      "Ġheart": 7683,
      "1984": 7684,
      "()))": 7685,
      "ä»": 7686,
      "VALUE": 7687,
      "à¸": 7688,
      "Import": 7689,
      "Ġnp": 7690,
      "({\\": 7691,
      "anced": 7692,
      "Ġcontroller": 7693,
      "Ġrisk": 7694,
      "Ġmatching": 7695,
      "^^": 7696,
      "ett": 7697,
      "Ġstated": 7698,
      "deed": 7699,
      "aming": 7700,
      "Ġmovie": 7701,
      "imitive": 7702,
      "Ġpul": 7703,
      "Single": 7704,
      "Ġoverall": 7705,
      "Ġmd": 7706,
      "IDTH": 7707,
      "vs": 7708,
      "ĠExp": 7709,
      "Ġmix": 7710,
      "bg": 7711,
      "Ġcmd": 7712,
      "ĠTer": 7713,
      "Ġexit": 7714,
      "Ġnature": 7715,
      "ali": 7716,
      "Ġscene": 7717,
      "acc": 7718,
      "Ġtimeout": 7719,
      "ĠGen": 7720,
      "ORTED": 7721,
      "Ġdenote": 7722,
      "Ġleader": 7723,
      "Ġaxis": 7724,
      "groups": 7725,
      "Ġok": 7726,
      "Ġconsum": 7727,
      "Ġsamples": 7728,
      "inger": 7729,
      "stra": 7730,
      "Ġfamilies": 7731,
      "120": 7732,
      "Ġchoose": 7733,
      "]\\": 7734,
      "Ġdriver": 7735,
      "Ġmachine": 7736,
      "tk": 7737,
      "Å¡": 7738,
      "Ġmask": 7739,
      "ores": 7740,
      "ĠEngine": 7741,
      "norm": 7742,
      "ĠMr": 7743,
      "Ġsaf": 7744,
      "ĠMedia": 7745,
      "'ve": 7746,
      "Find": 7747,
      "warning": 7748,
      "Notification": 7749,
      "ĠNAV": 7750,
      "INTER": 7751,
      "Ġgrowth": 7752,
      "nn": 7753,
      "ĠStar": 7754,
      "Ġfrequency": 7755,
      "ĠResult": 7756,
      "']['": 7757,
      "Ġseparate": 7758,
      "ndef": 7759,
      "Ġ).": 7760,
      "Ġinn": 7761,
      "ĠVector": 7762,
      "Ġdisk": 7763,
      "ental": 7764,
      "ĠTherefore": 7765,
      "ĠProf": 7766,
      "Ġscience": 7767,
      "Dat": 7768,
      "Ġcells": 7769,
      "Ġstrings": 7770,
      "ĠParis": 7771,
      "Ġdepth": 7772,
      "ĠAust": 7773,
      "ĠTom": 7774,
      "ĠImage": 7775,
      "loop": 7776,
      "Ġasked": 7777,
      "1985": 7778,
      "Ġartist": 7779,
      "Ġbuildings": 7780,
      "amilton": 7781,
      "Ġstudied": 7782,
      "related": 7783,
      "fol": 7784,
      "Ġmetric": 7785,
      "Ġmeas": 7786,
      "Ġcoming": 7787,
      "Ġproduce": 7788,
      "black": 7789,
      "ĠUnder": 7790,
      "testing": 7791,
      "anda": 7792,
      "Ġcompute": 7793,
      "Ġtmp": 7794,
      "Bean": 7795,
      "wa": 7796,
      "MC": 7797,
      "neq": 7798,
      "REQ": 7799,
      "NavBarFont": 7800,
      "nce": 7801,
      "uation": 7802,
      "ĠFilm": 7803,
      "Ġbul": 7804,
      "ĠLin": 7805,
      "GER": 7806,
      "ĠKn": 7807,
      "Ġapplications": 7808,
      "Ġevolution": 7809,
      "Ġdecided": 7810,
      "Ġ&\\": 7811,
      "ĠPoint": 7812,
      "alog": 7813,
      "Ġbre": 7814,
      "ters": 7815,
      "seud": 7816,
      "ĠPri": 7817,
      "Ġvertex": 7818,
      "Ġpen": 7819,
      "»¿": 7820,
      "RES": 7821,
      "Bound": 7822,
      "Ġrect": 7823,
      "Äģ": 7824,
      "Ġmagnetic": 7825,
      "Ġstay": 7826,
      "Ġoriginally": 7827,
      "Pi": 7828,
      "Begin": 7829,
      "Ġplot": 7830,
      "download": 7831,
      "Multi": 7832,
      "tc": 7833,
      "Ġharm": 7834,
      "ĠCommission": 7835,
      "Ġcomputer": 7836,
      "Ġdepends": 7837,
      "Ġoccup": 7838,
      "inem": 7839,
      "Ġ\"$": 7840,
      "ï»¿": 7841,
      "Ã£": 7842,
      "ectors": 7843,
      "Ġderived": 7844,
      "Ġverify": 7845,
      "ĠPage": 7846,
      "Ġknowledge": 7847,
      "Ġillustr": 7848,
      "Ġbrought": 7849,
      "ĠGa": 7850,
      "Ġestim": 7851,
      "Ġfootballers": 7852,
      "ÐµÐ": 7853,
      "lat": 7854,
      "joy": 7855,
      "Mouse": 7856,
      "ENSE": 7857,
      "ÑĮ": 7858,
      "Ġisn": 7859,
      "evelopment": 7860,
      "pa": 7861,
      "Ġincreased": 7862,
      "Pair": 7863,
      "words": 7864,
      "commons": 7865,
      "ĠEND": 7866,
      "METHOD": 7867,
      "GR": 7868,
      "getValue": 7869,
      "sample": 7870,
      "CF": 7871,
      "TV": 7872,
      "ÏĦ": 7873,
      "Ġstand": 7874,
      "writer": 7875,
      "stone": 7876,
      "Len": 7877,
      "Required": 7878,
      "$_": 7879,
      "TA": 7880,
      "Short": 7881,
      "Cast": 7882,
      "World": 7883,
      "ĠMass": 7884,
      "ĠMake": 7885,
      "Ġstations": 7886,
      "ĠCast": 7887,
      "Ġtrying": 7888,
      "Ġadopt": 7889,
      "owner": 7890,
      "VALID": 7891,
      "generate": 7892,
      "checked": 7893,
      "Ġwanted": 7894,
      "Ġexamples": 7895,
      "plates": 7896,
      "assandra": 7897,
      "Flag": 7898,
      "Ġones": 7899,
      "men": 7900,
      "bing": 7901,
      "rep": 7902,
      "\"].": 7903,
      "console": 7904,
      "ĠASSERT": 7905,
      "Ġ];": 7906,
      "ĠSun": 7907,
      "ierarch": 7908,
      "imin": 7909,
      "issues": 7910,
      "TRY": 7911,
      "wer": 7912,
      "Ġneut": 7913,
      ";)": 7914,
      "Ġimplies": 7915,
      "Ġbank": 7916,
      "PH": 7917,
      "uages": 7918,
      "Ġmicro": 7919,
      "she": 7920,
      "Ġdataset": 7921,
      "compile": 7922,
      "EV": 7923,
      "ĠALIGN": 7924,
      "Fragment": 7925,
      "flex": 7926,
      "pear": 7927,
      "ifndef": 7928,
      "150": 7929,
      "Ġalumni": 7930,
      "cluster": 7931,
      "Subs": 7932,
      "igan": 7933,
      "Ġjs": 7934,
      "ĠDen": 7935,
      "ĠðŁ": 7936,
      "ĠSQL": 7937,
      "ĠVictor": 7938,
      "lict": 7939,
      "ĠSIZE": 7940,
      "formed": 7941,
      "}-\\": 7942,
      "transition": 7943,
      "Ġss": 7944,
      "timeout": 7945,
      "ĠSy": 7946,
      "ĠWomen": 7947,
      "AF": 7948,
      "Forms": 7949,
      "Ġpri": 7950,
      "Ġsometimes": 7951,
      "Ġtranslate": 7952,
      "rich": 7953,
      "erved": 7954,
      "Methods": 7955,
      "ifiers": 7956,
      "Landroid": 7957,
      "cam": 7958,
      "Ġbrother": 7959,
      "UD": 7960,
      "ĠCap": 7961,
      "ĠLake": 7962,
      "utch": 7963,
      "ĠAc": 7964,
      ")}{": 7965,
      "verter": 7966,
      "heel": 7967,
      "pan": 7968,
      "large": 7969,
      "ĠBack": 7970,
      "DEBUG": 7971,
      "Ġ'\\": 7972,
      "Ġcaused": 7973,
      "Ġgoes": 7974,
      "Ġminor": 7975,
      "Ġmixed": 7976,
      "Ġscroll": 7977,
      "ĠSpanish": 7978,
      "ockey": 7979,
      "ashed": 7980,
      "oped": 7981,
      "Lin": 7982,
      "Ġfourth": 7983,
      "hspace": 7984,
      "Ġlicense": 7985,
      "Ġplugin": 7986,
      "Ġanti": 7987,
      "Ġsch": 7988,
      "uplic": 7989,
      "Ġhar": 7990,
      "Stop": 7991,
      "Rep": 7992,
      "ĠLocal": 7993,
      "Ġtraditional": 7994,
      "USER": 7995,
      "ilters": 7996,
      "ĠNAVBAR": 7997,
      "theorem": 7998,
      "Ä±": 7999,
      ")|": 8000,
      "Ġuniform": 8001,
      "Ġreject": 8002,
      "Ġradius": 8003,
      "ĠFI": 8004,
      "ĠOnly": 8005,
      "unched": 8006,
      "Ġattention": 8007,
      "Ġestimate": 8008,
      "original": 8009,
      "Ġtheme": 8010,
      "Ġhum": 8011,
      "æľ": 8012,
      "Ġdie": 8013,
      "Ġreadonly": 8014,
      "Ids": 8015,
      "Ġlegal": 8016,
      "ola": 8017,
      "Ġlatter": 8018,
      "Mask": 8019,
      "ĠOlympics": 8020,
      "Dem": 8021,
      "ITION": 8022,
      ",'": 8023,
      "Ġhighlight": 8024,
      "1983": 8025,
      "Ġgreen": 8026,
      "Ġremote": 8027,
      "Ġul": 8028,
      "fc": 8029,
      "plus": 8030,
      "Ġreach": 8031,
      "(\"/": 8032,
      "pping": 8033,
      "nel": 8034,
      "ĠMost": 8035,
      "fr": 8036,
      "Encoded": 8037,
      "Ġpret": 8038,
      "BB": 8039,
      "Ġmur": 8040,
      "Ñĭ": 8041,
      "Children": 8042,
      "Ġentries": 8043,
      "helper": 8044,
      "circle": 8045,
      "trace": 8046,
      "Ġstudent": 8047,
      "ĠTH": 8048,
      "route": 8049,
      "STATE": 8050,
      ".\",": 8051,
      "Ġeasily": 8052,
      "ilevel": 8053,
      "bridge": 8054,
      "ĠCatholic": 8055,
      "kens": 8056,
      "Enter": 8057,
      "Ġconsists": 8058,
      "Sort": 8059,
      "ĠInput": 8060,
      "NV": 8061,
      "chain": 8062,
      "Ġmovement": 8063,
      "arian": 8064,
      "kins": 8065,
      "Ġsell": 8066,
      "ĠAS": 8067,
      "cluded": 8068,
      "Ġgun": 8069,
      "ELD": 8070,
      "Ġcompetition": 8071,
      "Notes": 8072,
      "power": 8073,
      "{{\\": 8074,
      "geles": 8075,
      "atar": 8076,
      "ĠGeorg": 8077,
      "Ġhyp": 8078,
      "SELECT": 8079,
      "1950": 8080,
      "Ġexactly": 8081,
      "ĠEducation": 8082,
      "Screen": 8083,
      "Program": 8084,
      "Ġdisabled": 8085,
      "mouse": 8086,
      "Pass": 8087,
      "Ign": 8088,
      "phot": 8089,
      "lipse": 8090,
      "Math": 8091,
      "Tags": 8092,
      "ĠassertThat": 8093,
      "ĠMil": 8094,
      "ski": 8095,
      "Ġopening": 8096,
      "Ġschema": 8097,
      "finite": 8098,
      "Ġ\\|": 8099,
      "}%": 8100,
      "apes": 8101,
      "ĠYour": 8102,
      "Ġvan": 8103,
      "{$": 8104,
      "Ġwrong": 8105,
      "ĠIts": 8106,
      "zip": 8107,
      "tached": 8108,
      "Ġspectrum": 8109,
      "Ġdou": 8110,
      "ĠFROM": 8111,
      "PU": 8112,
      "igr": 8113,
      "ĠImp": 8114,
      "Ġmanufact": 8115,
      "iate": 8116,
      "ĠIreland": 8117,
      "Warning": 8118,
      "iffer": 8119,
      "Ġpark": 8120,
      "/\"": 8121,
      "Ġdict": 8122,
      "nos": 8123,
      "olec": 8124,
      "otic": 8125,
      "prod": 8126,
      "Ġeverything": 8127,
      "library": 8128,
      "MT": 8129,
      "Ġdocumentation": 8130,
      "ummy": 8131,
      "Ġarbitr": 8132,
      "Ġcollege": 8133,
      "kwargs": 8134,
      "ydro": 8135,
      "APP": 8136,
      "Ġwhom": 8137,
      "Ġaccomp": 8138,
      "Ġtreatment": 8139,
      "ouses": 8140,
      "arnings": 8141,
      "Ġprojects": 8142,
      "ĠElement": 8143,
      "Ġvelocity": 8144,
      "Ġstored": 8145,
      "cheduler": 8146,
      "ĠFlorida": 8147,
      "esome": 8148,
      "Ġchart": 8149,
      "Enumer": 8150,
      "Ġcli": 8151,
      "Ġdom": 8152,
      "Ġcelebr": 8153,
      "Detail": 8154,
      "Ġ-\\": 8155,
      "Ġsteps": 8156,
      "Endpoint": 8157,
      "Ġrows": 8158,
      "ĠANY": 8159,
      "Ġ^": 8160,
      "Ġchosen": 8161,
      "kes": 8162,
      "Save": 8163,
      "othing": 8164,
      "Tw": 8165,
      "Ġvir": 8166,
      "operatorname": 8167,
      "Ġparticularly": 8168,
      "ĠSil": 8169,
      "Ġequip": 8170,
      "Ġanswer": 8171,
      "}}{\\": 8172,
      "ĠGovernment": 8173,
      "ĠCD": 8174,
      "clone": 8175,
      "Äĩ": 8176,
      "REG": 8177,
      "np": 8178,
      "Ġfriends": 8179,
      "Ġentered": 8180,
      "COMP": 8181,
      "visible": 8182,
      "PHP": 8183,
      "yan": 8184,
      "Ġshot": 8185,
      "213": 8186,
      "ĠAngeles": 8187,
      "ĠValid": 8188,
      "Ġcomparison": 8189,
      "Ġoccur": 8190,
      "optional": 8191,
      "ferred": 8192,
      "enumerate": 8193,
      "fast": 8194,
      "tar": 8195,
      "azy": 8196,
      "single": 8197,
      "NSString": 8198,
      "'$": 8199,
      "Ġspan": 8200,
      "=\"../../../../../../../": 8201,
      "undefined": 8202,
      "Ġcreation": 8203,
      "Ġtransparent": 8204,
      "Ġlistener": 8205,
      "ĠTeam": 8206,
      "Ġpressure": 8207,
      "Ġability": 8208,
      "PUT": 8209,
      "sb": 8210,
      "ĠArts": 8211,
      "Are": 8212,
      "ĠSol": 8213,
      "Ġmunicip": 8214,
      "Ġbelieve": 8215,
      "oration": 8216,
      "Ġsurvey": 8217,
      "Ġinsp": 8218,
      "Ġbra": 8219,
      "Ġtensor": 8220,
      "pat": 8221,
      "operation": 8222,
      "ĠCommand": 8223,
      "sell": 8224,
      "Ġexecute": 8225,
      "Ġaudio": 8226,
      "Ġapproximately": 8227,
      "arant": 8228,
      "picture": 8229,
      "Ġfavor": 8230,
      "constructor": 8231,
      "ancellation": 8232,
      "Ġapilevel": 8233,
      "1982": 8234,
      "venue": 8235,
      "ĠAny": 8236,
      "ĠCommittee": 8237,
      "tachment": 8238,
      "Ġchem": 8239,
      "Ġcursor": 8240,
      "gments": 8241,
      "Arch": 8242,
      "ivation": 8243,
      "ĠEach": 8244,
      "Ġcalling": 8245,
      "ĠAndroid": 8246,
      "exist": 8247,
      "resolve": 8248,
      "Ġcompletely": 8249,
      "Ġpurpose": 8250,
      "Ġgrand": 8251,
      "Ġversions": 8252,
      "depth": 8253,
      "Compat": 8254,
      "hom": 8255,
      "Ġbind": 8256,
      "ager": 8257,
      "objects": 8258,
      "Ġunderstand": 8259,
      "Ġpages": 8260,
      "ĠHenry": 8261,
      "ĠBoard": 8262,
      "mediate": 8263,
      "ĠLink": 8264,
      "atial": 8265,
      "ĠReview": 8266,
      "alert": 8267,
      "Ġreset": 8268,
      "Ġneighbor": 8269,
      "noindent": 8270,
      "Ġnavbar": 8271,
      "Ã£o": 8272,
      "Ġreduced": 8273,
      "ĠDocument": 8274,
      "policy": 8275,
      "Ġmodified": 8276,
      "Ġanimation": 8277,
      "atomic": 8278,
      "Allow": 8279,
      "fg": 8280,
      "ĠMult": 8281,
      "ading": 8282,
      "goto": 8283,
      "John": 8284,
      "Ġpriv": 8285,
      "trl": 8286,
      "Ġprocessing": 8287,
      "simple": 8288,
      "zen": 8289,
      "inherit": 8290,
      "Ġdiscus": 8291,
      ":`": 8292,
      "ady": 8293,
      "sync": 8294,
      "formance": 8295,
      "MIN": 8296,
      "ican": 8297,
      "plot": 8298,
      "forward": 8299,
      "CG": 8300,
      "Ġreduce": 8301,
      "Don": 8302,
      "Ġskip": 8303,
      "Ġsurround": 8304,
      "ĠĠĠĠĠĠĠĠĠĠĠĠĠĠĠĠĠĠĠĠĠĠĠĠĠĠĠĠĠĠ": 8305,
      "Sample": 8306,
      "runtime": 8307,
      "ishop": 8308,
      "Here": 8309,
      "Scal": 8310,
      "Ġalgebra": 8311,
      "wbr": 8312,
      "Ġautomatically": 8313,
      "Ġslight": 8314,
      "Ġfeatured": 8315,
      "ishes": 8316,
      "ĠChicago": 8317,
      "typename": 8318,
      "xspace": 8319,
      "taint": 8320,
      "Ġprops": 8321,
      "Ġfill": 8322,
      "database": 8323,
      "Ġinteresting": 8324,
      "highlight": 8325,
      "****************************************************************": 8326,
      "Ġcandidate": 8327,
      "Ġbrand": 8328,
      "ĠLibrary": 8329,
      "Ġprograms": 8330,
      "\\/": 8331,
      "Ġcapacity": 8332,
      "ĠHot": 8333,
      "ffix": 8334,
      "Move": 8335,
      "Env": 8336,
      "Ġexecution": 8337,
      "itation": 8338,
      "LL": 8339,
      "\\,\\": 8340,
      "Ġ(-": 8341,
      "factory": 8342,
      "Ġspecify": 8343,
      "anch": 8344,
      "itemize": 8345,
      "Ġinterpret": 8346,
      "Ġ@\"": 8347,
      "aud": 8348,
      "MI": 8349,
      "ĠBit": 8350,
      "}},": 8351,
      "Ġunion": 8352,
      "ĠRet": 8353,
      "Ġvariety": 8354,
      "sn": 8355,
      "Ġmaps": 8356,
      "ĠPet": 8357,
      "convert": 8358,
      "Ġsql": 8359,
      "Ġaircraft": 8360,
      "Ġappropriate": 8361,
      "Ġ\"\",": 8362,
      "Ġturned": 8363,
      "Db": 8364,
      "gers": 8365,
      "Ġnotice": 8366,
      "erc": 8367,
      "dig": 8368,
      "Proto": 8369,
      "ĠFestival": 8370,
      "Ġwor": 8371,
      "Ġ\\\"": 8372,
      "aste": 8373,
      "ocation": 8374,
      "EventListener": 8375,
      "tailed": 8376,
      "Ġbuf": 8377,
      "Ġparents": 8378,
      "ĠWindows": 8379,
      "Ġvisual": 8380,
      "ĠVirginia": 8381,
      "HS": 8382,
      "diff": 8383,
      "icode": 8384,
      "ritory": 8385,
      "overview": 8386,
      "pic": 8387,
      "clusive": 8388,
      "Ġremained": 8389,
      "underline": 8390,
      ":@\"": 8391,
      "%,": 8392,
      "aria": 8393,
      "Ġcritic": 8394,
      "Ġstrategy": 8395,
      "Ġ..": 8396,
      "Transport": 8397,
      "Ġways": 8398,
      "isms": 8399,
      "mathscr": 8400,
      "ĠSecret": 8401,
      "Ġrelations": 8402,
      "Ġgeneration": 8403,
      "icator": 8404,
      "Ġanim": 8405,
      "Ġprim": 8406,
      "1979": 8407,
      "ÙĨ": 8408,
      "Constructor": 8409,
      "ĠSoftware": 8410,
      "wp": 8411,
      "Serializer": 8412,
      "Ġmotion": 8413,
      "ĠAlthough": 8414,
      "Home": 8415,
      "Ġactivities": 8416,
      "shal": 8417,
      "supported": 8418,
      "ĠĠĠĠĠĠĠĠĠĠĊ": 8419,
      "awn": 8420,
      "acebook": 8421,
      "Ġactor": 8422,
      "æĸ": 8423,
      "ĠBoolean": 8424,
      "lated": 8425,
      "{\"": 8426,
      "basic": 8427,
      ">\\": 8428,
      "getElementById": 8429,
      "isEmpty": 8430,
      "iques": 8431,
      "ĠMur": 8432,
      "Append": 8433,
      "%\"": 8434,
      "Execution": 8435,
      "gg": 8436,
      "ĠChild": 8437,
      "selector": 8438,
      "rank": 8439,
      "ANT": 8440,
      "Release": 8441,
      "Ġopts": 8442,
      "react": 8443,
      "Ġmoving": 8444,
      "fi": 8445,
      ")}$": 8446,
      "Ġloaded": 8447,
      "Ġnoted": 8448,
      "oday": 8449,
      "Ġtasks": 8450,
      "Ġsquare": 8451,
      "ĠTimes": 8452,
      "batch": 8453,
      "ĠMexico": 8454,
      "ĠBur": 8455,
      "ĠNav": 8456,
      "ĉĠĠ": 8457,
      "Ġsb": 8458,
      "ivery": 8459,
      "Ġlatest": 8460,
      "emon": 8461,
      "ĠSpace": 8462,
      "ĠStep": 8463,
      "ĠOptional": 8464,
      "validate": 8465,
      "loor": 8466,
      "itiz": 8467,
      "Compiler": 8468,
      "peated": 8469,
      "ĠPRO": 8470,
      "Ġspaces": 8471,
      "iana": 8472,
      "dash": 8473,
      "navigation": 8474,
      "ĠOriginal": 8475,
      "=\\\"": 8476,
      "ĠAmazon": 8477,
      "vc": 8478,
      "Contact": 8479,
      "Ġagreed": 8480,
      "oviet": 8481,
      "Sql": 8482,
      "TestCase": 8483,
      "SSL": 8484,
      "opts": 8485,
      "claim": 8486,
      "ĠMain": 8487,
      "Ġdependencies": 8488,
      "Îµ": 8489,
      "ynomial": 8490,
      "icies": 8491,
      "cceed": 8492,
      "duration": 8493,
      "etween": 8494,
      "cli": 8495,
      "Î¹": 8496,
      "Flow": 8497,
      "AST": 8498,
      "complete": 8499,
      "Fn": 8500,
      "accept": 8501,
      "once": 8502,
      "slice": 8503,
      "about": 8504,
      "notes": 8505,
      "DIS": 8506,
      "ympt": 8507,
      "Ġmedical": 8508,
      "agraph": 8509,
      "Ġplays": 8510,
      "ologies": 8511,
      "Limit": 8512,
      "Ġfif": 8513,
      "ĠKar": 8514,
      "Ġclassical": 8515,
      "ANCE": 8516,
      "Ġignore": 8517,
      "1981": 8518,
      "driver": 8519,
      "Ġmedal": 8520,
      "LOC": 8521,
      "ĉčĊ": 8522,
      "weet": 8523,
      "logo": 8524,
      "Ġhighly": 8525,
      "unct": 8526,
      "Ġdeploy": 8527,
      "ĠInv": 8528,
      "zure": 8529,
      "disable": 8530,
      "ĠMartin": 8531,
      "DR": 8532,
      "Ġsufficient": 8533,
      "spacing": 8534,
      "Ġresolution": 8535,
      "two": 8536,
      "DOM": 8537,
      "FN": 8538,
      "ĠLcom": 8539,
      "ĠOh": 8540,
      "origin": 8541,
      "ĠJun": 8542,
      "ixels": 8543,
      "Conn": 8544,
      "ĠOld": 8545,
      "ryption": 8546,
      "tics": 8547,
      "Ġbattle": 8548,
      "Ġassigned": 8549,
      "ellig": 8550,
      "Ġexam": 8551,
      "animation": 8552,
      "merge": 8553,
      "Ġmeeting": 8554,
      "Ġfinancial": 8555,
      "special": 8556,
      "ĠEqu": 8557,
      "Ġsuccessfully": 8558,
      "orial": 8559,
      "edom": 8560,
      "Ġsituation": 8561,
      "aka": 8562,
      "çĶ": 8563,
      "boost": 8564,
      "duled": 8565,
      "Ġ'';": 8566,
      "May": 8567,
      "yy": 8568,
      "MODE": 8569,
      "QU": 8570,
      "Batch": 8571,
      "Ġprice": 8572,
      "INS": 8573,
      "Ġrespond": 8574,
      "Î½": 8575,
      "Ġsmooth": 8576,
      "Environment": 8577,
      "Ġweeks": 8578,
      "icensed": 8579,
      "dc": 8580,
      "di": 8581,
      "Ġcommit": 8582,
      "person": 8583,
      "Ġpull": 8584,
      "ĠJo": 8585,
      "Ġcurve": 8586,
      "Ġsal": 8587,
      "Look": 8588,
      "ati": 8589,
      "PY": 8590,
      "amous": 8591,
      "Ġinteraction": 8592,
      "ĠSwed": 8593,
      "600": 8594,
      "Ġreli": 8595,
      "exit": 8596,
      "minus": 8597,
      "Objects": 8598,
      "IOException": 8599,
      "bits": 8600,
      "ĠMicrosoft": 8601,
      "Ġagreement": 8602,
      "destroy": 8603,
      "mn": 8604,
      "sa": 8605,
      "Ġduration": 8606,
      "itan": 8607,
      "Ġreflect": 8608,
      "dy": 8609,
      "Ġsomeone": 8610,
      "(--": 8611,
      "Ġlaunch": 8612,
      "Native": 8613,
      "native": 8614,
      "oved": 8615,
      "Ġsummer": 8616,
      "isset": 8617,
      "arc": 8618,
      "(\"#": 8619,
      "idae": 8620,
      "ĠItaly": 8621,
      "plan": 8622,
      "Points": 8623,
      "ĠSource": 8624,
      "Theme": 8625,
      "Navigation": 8626,
      "ourse": 8627,
      "ĠTour": 8628,
      "usters": 8629,
      "activity": 8630,
      "ORY": 8631,
      "DATA": 8632,
      "ĠMP": 8633,
      "ĠScot": 8634,
      "Ġexpansion": 8635,
      "Ġprocesses": 8636,
      "Ġcalc": 8637,
      "TT": 8638,
      "Ġaffect": 8639,
      "hl": 8640,
      "6666": 8641,
      "-$": 8642,
      "poly": 8643,
      "Ġplane": 8644,
      "Own": 8645,
      "ĠEv": 8646,
      "Ġarm": 8647,
      "mann": 8648,
      "Ġflex": 8649,
      "Validation": 8650,
      "ona": 8651,
      "Ġtyped": 8652,
      "lie": 8653,
      "Ġ\"\";": 8654,
      "transaction": 8655,
      "ups": 8656,
      "Connect": 8657,
      "Ġdivision": 8658,
      "Ġnoise": 8659,
      "volume": 8660,
      "SK": 8661,
      "Ġtranslation": 8662,
      "CHAR": 8663,
      ":[": 8664,
      "vity": 8665,
      "road": 8666,
      "Ġcollabor": 8667,
      "Platform": 8668,
      "mag": 8669,
      "ĠGood": 8670,
      "calendar": 8671,
      "Ġawarded": 8672,
      "()),": 8673,
      "created": 8674,
      "YY": 8675,
      "Ġ''": 8676,
      "Ġnearly": 8677,
      "messages": 8678,
      "Ġpositions": 8679,
      "Ġconstraints": 8680,
      "inder": 8681,
      "ĠRussia": 8682,
      "blog": 8683,
      "ĠPop": 8684,
      "ĠHome": 8685,
      "fully": 8686,
      "Hub": 8687,
      "ï¼Į": 8688,
      "kl": 8689,
      "Lower": 8690,
      "itors": 8691,
      "ĠBank": 8692,
      "Ġidentified": 8693,
      "Ġmanaged": 8694,
      "å®": 8695,
      "1978": 8696,
      "tical": 8697,
      "Ġconserv": 8698,
      "submit": 8699,
      "Ġimprove": 8700,
      "stitution": 8701,
      "covery": 8702,
      "sych": 8703,
      "cluding": 8704,
      "world": 8705,
      ">)": 8706,
      "Drawing": 8707,
      "RR": 8708,
      "Ġcloud": 8709,
      "ĠJournal": 8710,
      "Ġbey": 8711,
      "InputStream": 8712,
      "ÐµÐ½": 8713,
      "Ġquestions": 8714,
      "ella": 8715,
      "enty": 8716,
      "Some": 8717,
      "Unknown": 8718,
      "1972": 8719,
      "Ġestimated": 8720,
      "tf": 8721,
      "separ": 8722,
      "Static": 8723,
      "Ġprev": 8724,
      "udget": 8725,
      "1976": 8726,
      "Ġforeign": 8727,
      "cks": 8728,
      "Constant": 8729,
      "Ġelif": 8730,
      "Ġpartition": 8731,
      "zy": 8732,
      "vertical": 8733,
      "åĲ": 8734,
      "Ġchalleng": 8735,
      "Ġinstances": 8736,
      "Ġdeliver": 8737,
      "Ġoperators": 8738,
      "Ġhope": 8739,
      "vspace": 8740,
      "']);": 8741,
      "radio": 8742,
      "ogram": 8743,
      "imp": 8744,
      "ĠWrite": 8745,
      "Ġappearance": 8746,
      "Ġmapping": 8747,
      "ador": 8748,
      "/_": 8749,
      "Ġconnections": 8750,
      "Border": 8751,
      "aining": 8752,
      "Ġlat": 8753,
      "onical": 8754,
      "Ġpoor": 8755,
      "Ġlives": 8756,
      "Usage": 8757,
      "ĠAwards": 8758,
      "ĠHamilton": 8759,
      "cert": 8760,
      "Ġsys": 8761,
      "Ġfrag": 8762,
      ">\"": 8763,
      "ĠSearch": 8764,
      "1974": 8765,
      "ĠCustom": 8766,
      "Ġwind": 8767,
      "Sur": 8768,
      "Ġscored": 8769,
      "methods": 8770,
      "Ġmeta": 8771,
      "nob": 8772,
      "irror": 8773,
      "catch": 8774,
      "Ġplease": 8775,
      "Driver": 8776,
      "Ġcompact": 8777,
      "ĠFree": 8778,
      "ĠClient": 8779,
      "Ġbeyond": 8780,
      "Ġelectric": 8781,
      "Ġrelevant": 8782,
      "Ġsaying": 8783,
      "sport": 8784,
      "Ġresolve": 8785,
      "$}": 8786,
      "Day": 8787,
      "Ġangle": 8788,
      "Two": 8789,
      "Ġassign": 8790,
      "undred": 8791,
      "multi": 8792,
      "Ġleads": 8793,
      "ĠSocial": 8794,
      "\\}$": 8795,
      "/\">": 8796,
      "ĠCongress": 8797,
      "ĠBrown": 8798,
      "Ġlisting": 8799,
      "Ġprotect": 8800,
      "Ġfine": 8801,
      "Ġobservations": 8802,
      "fold": 8803,
      "1968": 8804,
      "Validator": 8805,
      "ArgumentException": 8806,
      "ĠPeople": 8807,
      "Gui": 8808,
      "Ġresponsible": 8809,
      "Wait": 8810,
      "Ġheavy": 8811,
      "Div": 8812,
      "setup": 8813,
      "Private": 8814,
      "Cursor": 8815,
      "ulator": 8816,
      "Ġgoals": 8817,
      "ĠUs": 8818,
      "Amount": 8819,
      "Free": 8820,
      "forEach": 8821,
      "Ġcomments": 8822,
      "Ġenjoy": 8823,
      "STRING": 8824,
      "ea": 8825,
      "Raw": 8826,
      "gradle": 8827,
      "ORDER": 8828,
      "FE": 8829,
      "geo": 8830,
      "1975": 8831,
      "bd": 8832,
      "Ġgiving": 8833,
      "Ġ'./": 8834,
      "Ġeth": 8835,
      "Ġquickly": 8836,
      "Ġolder": 8837,
      "Ġcontents": 8838,
      "Ġmagn": 8839,
      "ÙĦ": 8840,
      "gest": 8841,
      "Ġstories": 8842,
      "Ġstraight": 8843,
      "extend": 8844,
      "apers": 8845,
      "Ġready": 8846,
      "iversal": 8847,
      "ĠYoung": 8848,
      "neg": 8849,
      "Users": 8850,
      "ĠDirector": 8851,
      "Ġwinning": 8852,
      "Ġonto": 8853,
      "Ġbrief": 8854,
      "Ġdrug": 8855,
      "ĠParamet": 8856,
      "ĠLove": 8857,
      "ĠÐ¿": 8858,
      "Ġmajority": 8859,
      "ository": 8860,
      "ĠHam": 8861,
      "scss": 8862,
      "Ġusage": 8863,
      "ĠKh": 8864,
      "BPACK": 8865,
      "Drop": 8866,
      "Ġconn": 8867,
      "Ġfair": 8868,
      "iano": 8869,
      "iper": 8870,
      "Ġformation": 8871,
      "Ġvalidate": 8872,
      "Ġcommercial": 8873,
      "rece": 8874,
      "Ġmission": 8875,
      "Ġ_{": 8876,
      "Ġended": 8877,
      "deprecated": 8878,
      "riage": 8879,
      "iar": 8880,
      "ĠProperty": 8881,
      "ographic": 8882,
      "flat": 8883,
      "ĠEnter": 8884,
      "ums": 8885,
      "Ġmentioned": 8886,
      "Ġreserved": 8887,
      "seq": 8888,
      "Ġresp": 8889,
      "Ġfarm": 8890,
      "Ġuncer": 8891,
      "Ġtags": 8892,
      "Audio": 8893,
      "GO": 8894,
      "Html": 8895,
      "ĠHon": 8896,
      "Ġsuffer": 8897,
      "Äį": 8898,
      "Ġsinger": 8899,
      "Ġflux": 8900,
      "Ġlaunched": 8901,
      "ropy": 8902,
      "ILD": 8903,
      "Ġhyper": 8904,
      "ĠDB": 8905,
      "1977": 8906,
      "Early": 8907,
      "elling": 8908,
      "enses": 8909,
      "uous": 8910,
      "English": 8911,
      "orient": 8912,
      "bc": 8913,
      "asion": 8914,
      "Ġprovider": 8915,
      "Ġsynchron": 8916,
      "Ġproducer": 8917,
      "ĠLee": 8918,
      "Ġviews": 8919,
      "seconds": 8920,
      "Ġpatients": 8921,
      "references": 8922,
      "ĠEli": 8923,
      "Ġdistinct": 8924,
      "Ġtools": 8925,
      "paper": 8926,
      "adium": 8927,
      "structions": 8928,
      "prise": 8929,
      "erry": 8930,
      "Ġraised": 8931,
      "ĠGl": 8932,
      "Ġtrace": 8933,
      "Ġprison": 8934,
      "Ġcolspan": 8935,
      "Ġded": 8936,
      "ĠMov": 8937,
      "Clear": 8938,
      "front": 8939,
      "Ġwriters": 8940,
      "Volume": 8941,
      "ĠSets": 8942,
      "uer": 8943,
      "ĠBi": 8944,
      "_);": 8945,
      "ĠLand": 8946,
      "Renderer": 8947,
      "Ġoccurred": 8948,
      "contact": 8949,
      "ĠProcess": 8950,
      "Ġpairs": 8951,
      "Ġcorrelation": 8952,
      "Ġ\">": 8953,
      "CALL": 8954,
      "Ġacade": 8955,
      "Ġwood": 8956,
      "Ġsea": 8957,
      "Cloud": 8958,
      "Ġtheorem": 8959,
      "NET": 8960,
      "Ġcontinuous": 8961,
      "Caml": 8962,
      "tor": 8963,
      "oz": 8964,
      "lint": 8965,
      "corpor": 8966,
      "EST": 8967,
      "Word": 8968,
      "ĠOl": 8969,
      "Ġ\"%": 8970,
      "Ġmostly": 8971,
      "jack": 8972,
      "'d": 8973,
      "Consumer": 8974,
      "Ġjoint": 8975,
      "scala": 8976,
      "ĠBlock": 8977,
      "SCRIPT": 8978,
      "Ġinfluence": 8979,
      "Ġrepresenting": 8980,
      "Ġaspect": 8981,
      "Ġpolitician": 8982,
      "ugby": 8983,
      "ĠXML": 8984,
      "Ġconstructed": 8985,
      "ĠStatus": 8986,
      "pler": 8987,
      "CONT": 8988,
      "ĠBrazil": 8989,
      "CLASS": 8990,
      "'\\": 8991,
      "Ġindicates": 8992,
      "glyphicon": 8993,
      "Ġeconomic": 8994,
      "UMM": 8995,
      "Ġdevices": 8996,
      "acific": 8997,
      "kin": 8998,
      "ĠWAR": 8999,
      "IA": 9000,
      "Ġcarry": 9001,
      "recated": 9002,
      "ĠCommun": 9003,
      "ĠBre": 9004,
      "Ġearn": 9005,
      "commit": 9006,
      "Ġparticle": 9007,
      "assertTrue": 9008,
      "Ġsupports": 9009,
      "Ang": 9010,
      "Ġessential": 9011,
      "ĠOffice": 9012,
      "Ġimplemented": 9013,
      "'}": 9014,
      "ĠEarth": 9015,
      "month": 9016,
      "ĠSta": 9017,
      "While": 9018,
      "NotFound": 9019,
      "Should": 9020,
      "åħ": 9021,
      "Syntax": 9022,
      "Ġlabels": 9023,
      "ĠSpecial": 9024,
      "Overview": 9025,
      "SM": 9026,
      "tainment": 9027,
      "owers": 9028,
      "ĠWill": 9029,
      "cook": 9030,
      "ffers": 9031,
      "Ġperfect": 9032,
      "ĠCarolina": 9033,
      "ĠArab": 9034,
      "Ġadding": 9035,
      "Ġult": 9036,
      "Ġhence": 9037,
      "Ġoccurs": 9038,
      "ycle": 9039,
      "Ġarbitrary": 9040,
      "Ġmodal": 9041,
      "Ġsafe": 9042,
      "ĠApache": 9043,
      "(.": 9044,
      "Ġcos": 9045,
      "Ġcombined": 9046,
      "Ġvoice": 9047,
      "Ð¸Ð": 9048,
      "Ali": 9049,
      ";|": 9050,
      "nostics": 9051,
      "ĠCross": 9052,
      "DATE": 9053,
      "gence": 9054,
      "ylvan": 9055,
      "facebook": 9056,
      "Fore": 9057,
      "ĠPR": 9058,
      "Basic": 9059,
      "ĠÂ£": 9060,
      "WORD": 9061,
      "fff": 9062,
      "Ġpp": 9063,
      ")[": 9064,
      "Ð°Ð½": 9065,
      "directory": 9066,
      "ĠDO": 9067,
      "VID": 9068,
      "license": 9069,
      "gorithms": 9070,
      "ĠCoq": 9071,
      "General": 9072,
      "Throw": 9073,
      "ĠParliament": 9074,
      "Light": 9075,
      "ĠSD": 9076,
      "Card": 9077,
      "ATCH": 9078,
      "ĠSund": 9079,
      "ĠDevelopment": 9080,
      "Ġreports": 9081,
      "#{": 9082,
      "cean": 9083,
      "Ġ'.": 9084,
      "Segment": 9085,
      "Ġ}}": 9086,
      "arguments": 9087,
      "rick": 9088,
      "NUM": 9089,
      "libs": 9090,
      "FUN": 9091,
      "wd": 9092,
      "ASSERT": 9093,
      "Ġ_,": 9094,
      "ĉĉĉĉĉĉĉĉĉĉ": 9095,
      "iated": 9096,
      "pair": 9097,
      "trim": 9098,
      "Ġedition": 9099,
      "1973": 9100,
      "ione": 9101,
      "Ġsites": 9102,
      "chart": 9103,
      "eto": 9104,
      "cient": 9105,
      "Binding": 9106,
      "/{": 9107,
      "STATUS": 9108,
      "Complete": 9109,
      "changed": 9110,
      "ĠIran": 9111,
      "anaged": 9112,
      ".\"\"\"": 9113,
      "Ġtherm": 9114,
      "fetch": 9115,
      "Ġpain": 9116,
      "Ġdialog": 9117,
      "Ġaddresses": 9118,
      "Ġproviding": 9119,
      "Ġfmt": 9120,
      "utdown": 9121,
      "perm": 9122,
      "ila": 9123,
      "ĠWIDTH": 9124,
      "Example": 9125,
      "Using": 9126,
      "Ġdrag": 9127,
      "Ġtypically": 9128,
      "HERE": 9129,
      "Ġcoast": 9130,
      "250": 9131,
      "ariant": 9132,
      "FFER": 9133,
      "Normal": 9134,
      "Ġtrust": 9135,
      "haps": 9136,
      "Ġdynamic": 9137,
      "Sep": 9138,
      "adr": 9139,
      "800": 9140,
      "Ġchunk": 9141,
      "Ġestablishments": 9142,
      "Ġshoot": 9143,
      "Ġ_.": 9144,
      "ĠNavy": 9145,
      "SV": 9146,
      "Ġcontained": 9147,
      "Login": 9148,
      "chen": 9149,
      "ifically": 9150,
      "}}_": 9151,
      "Ġquarter": 9152,
      "Drag": 9153,
      "Ġtournament": 9154,
      "contents": 9155,
      "lus": 9156,
      "Mapper": 9157,
      "Ġliterature": 9158,
      "ĠGal": 9159,
      "/*!": 9160,
      "nam": 9161,
      "ĠWood": 9162,
      "hesis": 9163,
      "CONFIG": 9164,
      "Ġoffers": 9165,
      "Dependency": 9166,
      "Ġfactors": 9167,
      "Ġfle": 9168,
      "ĠGlobal": 9169,
      "1971": 9170,
      "extra": 9171,
      "Ġserve": 9172,
      "Our": 9173,
      "ĠLi": 9174,
      "constant": 9175,
      "Ġidentifier": 9176,
      "ĠTri": 9177,
      "ĠBusiness": 9178,
      "ĠFort": 9179,
      "Ġconcent": 9180,
      "ĠHaw": 9181,
      "125": 9182,
      "rect": 9183,
      "lets": 9184,
      "Ġdiscussed": 9185,
      "Ġbasketball": 9186,
      "bose": 9187,
      "NODE": 9188,
      "Ġemission": 9189,
      "lower": 9190,
      "Ġbatch": 9191,
      "Ġking": 9192,
      "assign": 9193,
      "ersistent": 9194,
      "Ġconsistent": 9195,
      "rypted": 9196,
      "Groups": 9197,
      "phrase": 9198,
      "ĠJud": 9199,
      "Place": 9200,
      "During": 9201,
      "ĠĠĠĠĠĠĠĠĠĠĠĠĠĠĠĠĠĠĠĠĠĠĠĠĠĠĠĠĠĠĠĠĠĠĠĠĠĠĠĠĠĠĠĠĠĠĠ": 9202,
      "Ġbeaut": 9203,
      "ĠIII": 9204,
      "Ġdiagram": 9205,
      "ENV": 9206,
      "viewport": 9207,
      "LOW": 9208,
      "Ġselector": 9209,
      "ĠWales": 9210,
      "Processor": 9211,
      "Ġpaths": 9212,
      "ysical": 9213,
      "ĠSE": 9214,
      "Tile": 9215,
      "ellar": 9216,
      "Join": 9217,
      "NC": 9218,
      "Ġmerge": 9219,
      "Writ": 9220,
      "cha": 9221,
      "some": 9222,
      "Ġdetect": 9223,
      "ĠWal": 9224,
      "areer": 9225,
      "Ġring": 9226,
      "quote": 9227,
      "ĠDown": 9228,
      "encode": 9229,
      "Ġcancel": 9230,
      "ĠMember": 9231,
      "ounder": 9232,
      "DEF": 9233,
      "Remote": 9234,
      "Prev": 9235,
      "limits": 9236,
      "Ġspread": 9237,
      "Ġvote": 9238,
      "ĠDescription": 9239,
      "Ø¯": 9240,
      "1969": 9241,
      "ssl": 9242,
      "Ġphil": 9243,
      "gz": 9244,
      "Ġregistered": 9245,
      "getId": 9246,
      "Ġmeasured": 9247,
      "Ġfinish": 9248,
      "ĠVar": 9249,
      "ĠDEFAULT": 9250,
      "Ġshowing": 9251,
      "Ġdestination": 9252,
      "arden": 9253,
      "mond": 9254,
      "aylor": 9255,
      "Ġowned": 9256,
      "Ġflat": 9257,
      "Ġpoet": 9258,
      "ĠHead": 9259,
      "Ġnetworks": 9260,
      "ĠAuthor": 9261,
      "Convert": 9262,
      "Ġshowed": 9263,
      "INST": 9264,
      "FIELD": 9265,
      "<<": 9266,
      "rpc": 9267,
      "Operator": 9268,
      "hens": 9269,
      "Ġcamera": 9270,
      "]))": 9271,
      "mc": 9272,
      "ĠRemove": 9273,
      "ĠJim": 9274,
      "yer": 9275,
      "displayName": 9276,
      "Ġgauge": 9277,
      "Ġissu": 9278,
      "ĠJoseph": 9279,
      "iency": 9280,
      "Ġinitially": 9281,
      "emy": 9282,
      "twitter": 9283,
      "Ġcontribution": 9284,
      "available": 9285,
      "Ġformula": 9286,
      ",$": 9287,
      "Ġpermissions": 9288,
      "Annotation": 9289,
      "integer": 9290,
      "attice": 9291,
      "Ġcontrast": 9292,
      "ĠSupport": 9293,
      "Ġsucceed": 9294,
      "Ġtopic": 9295,
      "vol": 9296,
      "subject": 9297,
      "Ġbounds": 9298,
      "ĠĠĠĠĠĠĠĠĠĠĠĠĠĠĠĠĠĠĠĠĠĠĠĠĠĠĠĠĠĠĠĠĠ": 9299,
      "gregate": 9300,
      "Ġ\".": 9301,
      "ĠValley": 9302,
      "ĠChampionships": 9303,
      "Ġassembly": 9304,
      "Ġfragment": 9305,
      "ĠSign": 9306,
      "tained": 9307,
      "Chain": 9308,
      "Ġriver": 9309,
      "blem": 9310,
      "Ġil": 9311,
      "Cla": 9312,
      "compare": 9313,
      "enant": 9314,
      "eces": 9315,
      "har": 9316,
      "hook": 9317,
      "UND": 9318,
      "ylvania": 9319,
      "hetic": 9320,
      "|^": 9321,
      "Ġ'',": 9322,
      "Ġorient": 9323,
      "Ġpod": 9324,
      "Implement": 9325,
      "Dom": 9326,
      "Ġforced": 9327,
      "Ġedges": 9328,
      "footnote": 9329,
      "Ġplans": 9330,
      "Addr": 9331,
      "empt": 9332,
      "ĠIllegal": 9333,
      "reader": 9334,
      "RC": 9335,
      "mms": 9336,
      "gi": 9337,
      "Ġpiece": 9338,
      "resp": 9339,
      "Ġtor": 9340,
      "ĠServices": 9341,
      "ĠTrump": 9342,
      ";|&": 9343,
      "These": 9344,
      "Ġstarts": 9345,
      "ĠControl": 9346,
      "Ùħ": 9347,
      "repo": 9348,
      "OPT": 9349,
      "ĠBul": 9350,
      "aby": 9351,
      "jac": 9352,
      "WEBPACK": 9353,
      "iga": 9354,
      "Ġindividuals": 9355,
      "Ġ>>>": 9356,
      "abe": 9357,
      "GC": 9358,
      "umes": 9359,
      "ĠWIT": 9360,
      "Ġthreat": 9361,
      "iÃ³n": 9362,
      "Ġvalidation": 9363,
      "Frames": 9364,
      "ĠIrish": 9365,
      "memory": 9366,
      "ATTR": 9367,
      "ĠAbstract": 9368,
      "ansas": 9369,
      "Resolver": 9370,
      "Ġmusical": 9371,
      "Alloc": 9372,
      "Ġchief": 9373,
      "Ġrequested": 9374,
      "Ġ'%": 9375,
      "101": 9376,
      "Ġarchitecture": 9377,
      "-(": 9378,
      "ĠInformation": 9379,
      "ĠManagement": 9380,
      "Ġ\\;": 9381,
      "Ġcentre": 9382,
      "ometric": 9383,
      "mapping": 9384,
      "jQuery": 9385,
      "Ġice": 9386,
      "built": 9387,
      "ĠWARRAN": 9388,
      "Ġaccepted": 9389,
      "Ġran": 9390,
      "Ġisland": 9391,
      "quis": 9392,
      "Ġscatter": 9393,
      "Span": 9394,
      "Ġtracks": 9395,
      "Columns": 9396,
      "IMPORTED": 9397,
      "}}}": 9398,
      "Ġcarried": 9399,
      "sto": 9400,
      "URCE": 9401,
      "Ġhappen": 9402,
      "Errors": 9403,
      "Ġru": 9404,
      "Ġwx": 9405,
      "Ġcovered": 9406,
      "VE": 9407,
      "Ġeigen": 9408,
      "Center": 9409,
      "Ġopacity": 9410,
      "ĠFurther": 9411,
      "Best": 9412,
      "ĠRest": 9413,
      "poses": 9414,
      "rapped": 9415,
      "multicol": 9416,
      "touch": 9417,
      "Ġannual": 9418,
      "heading": 9419,
      "Ġund": 9420,
      "ivial": 9421,
      "sider": 9422,
      "Microsoft": 9423,
      "ĠFind": 9424,
      "ĠclassName": 9425,
      "loading": 9426,
      "ongo": 9427,
      "1940": 9428,
      "Cur": 9429,
      "Setting": 9430,
      "Ġsaved": 9431,
      "Ġdigital": 9432,
      "1967": 9433,
      "Ġpropag": 9434,
      "ĠBob": 9435,
      "loaded": 9436,
      "ĠChief": 9437,
      "periment": 9438,
      "osoph": 9439,
      "beh": 9440,
      "Bro": 9441,
      "oston": 9442,
      "ĠCard": 9443,
      "Ġrates": 9444,
      "dark": 9445,
      "Nullable": 9446,
      "ĠSl": 9447,
      "ilarly": 9448,
      "Ġzone": 9449,
      "Rate": 9450,
      "cassandra": 9451,
      "ĠPower": 9452,
      "pet": 9453,
      "toBe": 9454,
      "Strategy": 9455,
      "ni": 9456,
      "\"},": 9457,
      "Ġexchange": 9458,
      "ewidth": 9459,
      "ĠSto": 9460,
      "sig": 9461,
      "Ġlif": 9462,
      "Ġdraft": 9463,
      "Produ": 9464,
      "Ġimg": 9465,
      "Ġcat": 9466,
      "ĠRadio": 9467,
      "bus": 9468,
      "cknow": 9469,
      "ĠEr": 9470,
      "ĠCentre": 9471,
      "nostic": 9472,
      "ĠJson": 9473,
      "Ġcombination": 9474,
      "Ġstudio": 9475,
      "Ġfirm": 9476,
      "ĠStat": 9477,
      "Focus": 9478,
      "Ġconfirm": 9479,
      "notations": 9480,
      "Ã±": 9481,
      "ĠAdmin": 9482,
      "Ġcouple": 9483,
      "Theta": 9484,
      "Ġdetection": 9485,
      "Plan": 9486,
      "Real": 9487,
      "arse": 9488,
      ".*;": 9489,
      "feed": 9490,
      "cher": 9491,
      "ĠBlue": 9492,
      "Binary": 9493,
      "Messages": 9494,
      "Ġadjust": 9495,
      "going": 9496,
      "~$": 9497,
      "SI": 9498,
      "1945": 9499,
      "=%": 9500,
      "ĠResponse": 9501,
      "Console": 9502,
      "Ġmurder": 9503,
      "Identity": 9504,
      "fmt": 9505,
      "Ġproto": 9506,
      "Insert": 9507,
      "repository": 9508,
      "functions": 9509,
      "multicolumn": 9510,
      "Accept": 9511,
      "ester": 9512,
      "altColor": 9513,
      "Weight": 9514,
      "Ġordered": 9515,
      "Ġsync": 9516,
      "Folder": 9517,
      "pton": 9518,
      "ancing": 9519,
      "ether": 9520,
      "Ġexperimental": 9521,
      "Ġtermin": 9522,
      "Ġpayload": 9523,
      "Ġpretty": 9524,
      "Ġleaving": 9525,
      "ÑģÑĤ": 9526,
      "mk": 9527,
      "Ġminim": 9528,
      "180": 9529,
      "Timer": 9530,
      "ĠServer": 9531,
      "Ġstatistics": 9532,
      "ĠNorthern": 9533,
      "CB": 9534,
      "Ġworth": 9535,
      "Ġalert": 9536,
      "Ġimag": 9537,
      "ĠÅ": 9538,
      "aren": 9539,
      "VAR": 9540,
      "ĠColumb": 9541,
      "ĠConfiguration": 9542,
      "canvas": 9543,
      "standing": 9544,
      "Information": 9545,
      "otted": 9546,
      "usband": 9547,
      "Ġ<-": 9548,
      "Ġcomputed": 9549,
      "Ġexistence": 9550,
      "zh": 9551,
      "Edge": 9552,
      "HEAD": 9553,
      "uality": 9554,
      "ĠUSA": 9555,
      "Ġcoordinates": 9556,
      "lications": 9557,
[...]
