#version: 0.2
Ġ Ġ
ĠĠ ĠĠ
Ġ t
i n
e r
o n
Ġ a
h e
r e
a t
e n
o r
s t
Ġt he
a l
a n
ĠĠ Ġ
i t
Ġ c
a r
ĠĠĠĠ ĠĠĠĠ
l e
i on
Ġ s
Ġ o
i s
e s
e d
Ġ f
Ġ w
in g
Ġ p
i c
r o
Ġ b
n d
Ġ in
a s
e t
Ġo f
c t
o u
Ġ d
Ġ m
en t
e l
a m
Ġa nd
Ġt o
Ġ h
ĠĠĠĠ ĠĠĠ
i l
o m
Ġ re
Ġ n
i d
Ġt h
i g
Ġ (
a c
o l
at ion
Ġ S
i m
Ġ =
u r
u t
o t
ĉ ĉ
Ġ T
Ġ e
< /
Ġ l
s e
a d
i v
Ġ C
Ġ A
= "
o d
c e
a g
) ;
Ġ $
u l
Ġ \
i f
Ġ is
- -
t h
Ġ {
Ġ g
Ġ <
u n
a y
o w
e m
c h
Ġ I
Ġf or
Ġ v
a b
p e
Ġ M
u m
u s
Ġ st
at e
č Ċ
â Ģ
er s
ĠĠĠĠĠĠĠĠ ĠĠĠ
l y
q u
a p
Ġ on
/ /
t r
i st
as s
Ġb e
Ġ P
it h
o c
e x
i r
Ġ *
h t
Ġ B
t er
Ġc on
ct ion
a v
am e
p t
e st
v er
en d
Ġ R
2 0
Ġ }
Ġa s
e w
an d
" >
Ġ D
Ġth at
Ġ "
u b
re s
Ġ H
Ġ F
u p
Ġw ith
l ass
u e
es s
Ġ L
r i
e f
or t
ag e
ou r
Ġa l
o p
Ġ N
ĠĠĠĠĠĠĠĠ ĠĠĠĠĠĠĠĠ
a in
Ġa n
Ġp ro
Ġw h
o s
Ġ W
ĠĠĠĠ Ġ
Ġ G
e ct
l i
at h
Ġ E
( )
ĠT he
ro m
it y
Ġ it
in e
ar t
ur n
o re
_ {
n t
Ġe x
* *
. .
Ġb y
Ġ r
s p
er e
Ġc om
k e
m ent
ig ht
1 9
Ġw as
e c
o g
Ġa t
ex t
ac k
Ġ y
i z
ab le
Ġ or
e g
Ġth is
p l
Ġc lass
al l
u re
ul t
Ġ O
y pe
p ort
-- --
t urn
Ġ &
il l
= =
i al
i es
i le
iv e
Ġa re
p er
re f
an s
Ġ if
Ġ '
an t
an g
Ġf rom
l d
g et
od e
Ġ J
u d
Ġt r
c on
0 0
st r
e p
or m
in t
Ġ he
b er
a ct
a st
ĠĠĠĠĠĠĠĠ ĠĠĠĠĠĠĠ
âĢ Ļ
{ \
Ġ Ċ
in d
Ġw e
Ġ -
ar y
l ic
I n
Ġ U
u nd
as e
Ġc h
o v
pt ion
f f
at a
a re
ar d
e v
Ġn ot
c om
i p
Ġ le
at ed
it e
i b
ac e
Ġs h
or d
Ġ$ \
ou t
u g
i re
Ġ //
av e
ig n
p ro
el l
Ġre turn
a k
' s
o st
t o
j ect
T he
al ue
: :
ĉĉ ĉĉ
it ion
Ġ </
- >
Ġs e
im e
p h
s er
m ath
.. /
u st
20 1
) ,
ic h
id e
p le
c l
ic e
Ġ âĢ
Ġ K
on g
i a
m a
our ce
t ext
) .
il d
Ġ [
g e
un ction
C on
ub lic
o k
ic al
or k
f t
Ġ us
Ġ j
ĠI n
Ġp l
Ġ V
Ġn ew
Ġ @
c c
l o
en s
ar am
" ,
f orm
an ce
l oc
en ce
S t
d d
Ġ +
c ri
or y
s s
Ġc an
ou ld
ro w
el f
m l
Ġre s
Ġh ave
} \
( "
d iv
on e
p ut
e ar
Ġ k
ation s
s et
Ġa r
Ġ /
r a
ul l
( );
ess age
ĠT h
res s
ĠS t
Ġ un
} $
d u
sp an
u se
^ {
iz e
> </
Ġ im
Ġal l
Ġ |
Ġh as
en c
ac h
th er
s o
Ġy ou
Ġwh ich
Ġa b
E x
Ġa p
' ,
he n
en er
> <
f r
tr ing
---- ----
f ig
e qu
c al
ent s
in k
Ġst r
i an
l l
Ġcon t
ou s
ow n
a il
Ġh is
i el
er r
s h
../ ../
ou nt
i ew
1 0
o b
Ġ .
et h
Ġn ame
iel d
e le
Ġd ef
ĠC h
} }
Ġ* /
c he
Ġf unction
20 0
t e
Ġp ublic
ĉĉ ĉ
re e
ou nd
on d
p s
ir st
** **
is h
Ġ :
r ay
om e
u al
Ġo ut
o ver
er v
== ==
in al
( \
ar k
t a
Ġd o
at or
ht ml
Ġb ut
Ġin t
e b
Ġp r
ter n
Ġw ill
ab el
er m
Ġcom p
n ame
Ġh ref
c k
cl ud
le s
ĠĠĠĠĠĠĠĠ ĠĠĠĠĠĠĠĠĠĠĠ
f er
( '
Ġs et
ĠĠĠĠĠĠĠĠ Ġ
eg in
ol l
) )
r y
P ro
Ġg et
p r
Ġ up
ol d
n e
Ġon e
E R
o id
y st
th is
b egin
od el
ic t
t y
s ource
Ġd is
Ġv ar
o ol
o ok
Ġ ro
er y
} ,
ro up
N ame
m essage
at es
ot h
Ġo b
Ġe v
er t
ion s
le d
m er
pe ct
r ight
Ġ #
o int
Ġal so
i x
Ġm e
1 8
Ġp art
Ġw ere
O N
r ap
ing s
tr ans
Ġ qu
pe c
en g
r it
o se
Ġ _
l ation
Ġ Y
ke y
Ġs u
s um
T ype
yst em
Ġt ype
# #
Ġthe ir
im port
t d
I N
_{ \
p aram
i o
c re
el y
Ġ= >
w o
a x
ic s
a ke
I d
al se
) $
or s
âĢ Ŀ
S tring
l ine
at ch
Ġs p
ap p
1 2
Ġv alue
c ol
at ic
Ġp re
a w
um ber
le ct
re turn
cri pt
ar g
} {
ic k
/ >
n g
c ode
Ġm ore
t he
Ġthe y
Ġp er
he d
at er
am es
Ġm an
f o
Ġs o
eth od
Ġit s
Ġo ver
w e
u ct
loc k
f ter
is s
Ġd ata
on t
Ġf irst
ĠI t
T h
R E
Ġl ine
Ġa g
ĠU n
u ild
e q
Ġt ime
: //
l abel
ov e
ig h
ang e
Ġwh o
" />
d ef
et a
Ġd es
C om
Ġc l
fr ac
Ġs elf
m b
v e
p os
Ġn e
oc k
Ġw hen
Ġo ther
Ġw ork
Ġ !
i e
ur re
Ġh ad
trans lation
c lass
ad d
Ġd e
y s
Ġin ter
R es
Ġh er
Ġa dd
p on
Ġ i
Ġ| |
S T
an n
Ġc ol
Ġ el
t on
ro und
Ġcon st
Ġbe en
ut e
a ult
Ġ id
t ype
Ġg o
ĠH e
L ist
if ic
o x
ce ption
_ _
le ft
r m
1 6
v ar
o f
Ġ end
m s
ay s
at ive
C h
Ġt wo
t t
A T
Ġ en
Ġan y
Ġres ult
y n
Ġ und
em ber
Ġs up
al s
ar ch
ĠâĢ ĵ
Ġa d
an c
c ent
ation al
Ġ= =
rap h
Ġcom m
ul ar
math b
u es
le ment
ht t
it le
id th
Ġab out
Ġre qu
ac he
Ġl i
Ġn ull
ou n
ĠTh is
g r
Ġy ear
ut ion
1 1
t ain
Ġon ly
am p
Ġin to
i ed
Ġs ub
as h
c o
is e
ers ion
re ad
ĠâĢ ľ
s on
ad e
e ad
"> <
Ġ `
v ent
c ite
Ġth ere
ou g
Ġpl ay
O R
Ġ >
c ess
Ġre g
Ġv oid
Ġof f
am ple
v al
at ing
Ġc re
$ .
1 5
oll ow
urre nt
Ġth an
on s
tr ib
Ġn o
A r
) :
$ ,
Ġt e
as ed
Ġb et
m in
iv ate
L E
Ġp e
ĠC om
op le
math cal
i ous
Ġa cc
} )
Ġs ome
um ent
s ub
as k
ire ct
, \
Ġ use
Ġf alse
Ġp os
Ġw ould
) );
b ar
ĠĠĠĠĠĠĠĠ ĠĠĠĠĠ
y le
Ġin clud
A R
Ġa ct
im es
} .
Ġwh ere
I D
Ġin d
am b
ut h
Ġk n
b ack
Ġtr ue
ĠĠĠĠĠĠĠĠĠĠĠĠĠĠĠĠ ĠĠĠĠĠĠĠ
Ġtr ans
str ing
it s
r r
or g
d er
ption s
n ing
19 9
Ġo ur
w ork
s elf
Ġfor m
Ġ err
ĠP ro
T r
âĢ ĵ
it ed
t s
" );
Ġin st
b ject
in ed
res ent
pl ic
Ġl oc
Ġv al
id er
e e
ĠA r
em ent
-------- --------
w ard
Ġs c
n er
l and
Ġd if
ser t
o y
Ġund er
b le
Ġthe n
e y
u le
ib le
ug h
Ġo p
Ġs pec
Ġre l
eng th
ol og
er n
il ity
at ure
o le
equ ation
Ġ --
it em
Ġor g
l og
E N
Ġb ack
Ġs he
al ly
ag es
Ġd ec
Ġf ollow
le ction
t em
2 5
d ata
f ile
1 3
ow er
it ies
per ty
a ction
u res
Ġ x
Ġa fter
**** ****
is hed
Ġ )
Ġus ed
Ġel se
av a
Ġt est
1 7
1 4
p re
D ata
A L
V alue
Ġre c
ĠN ew
Ġf il
o ot
Ġy our
T o
Ġc ase
enc es
an k
} (
Ġc o
Ġre m
Ġpro v
ph a
S S
ic es
ser v
R ef
Ġs ec
Ġf e
C ol
iv ers
in ce
.. .
// //
ĠĠĠĠ ĠĠ
v alue
Ġsu ch
} _
ar get
d a
od y
Ġs a
c a
Ġg ener
i er
or ld
erv ice
Ġm ay
tern al
ĠĠĠĠĠĠĠĠĠĠĠĠĠĠĠĠ ĠĠĠĠĠĠĠĠĠĠĠĠĠĠĠĠ
u ff
we en
Ġthe m
li ent
v iew
Ġ ent
a ir
Ġd ist
Ġp h
Ġsh ow
Ġch ar
w w
Ġf inal
" )
~ \
} ^
f l
Ġ/ **
n ot
c ed
ev el
S et
ist s
loc ation
ĠC on
n b
t ing
ro ugh
Ġf l
ur ing
Ġcon s
re am
Ġn umber
Ġstr ing
ĠS h
Ġm odel
d ate
mer ic
ment s
h at
ĠW e
al pha
ĠT r
b r
iz ed
ĠA l
n ew
i ent
in s
ar s
ep end
il y
et er
3 2
Ġp ol
p ress
con t
Ex ception
f or
3 0
Ġpe ople
re d
( $
Ġ Q
Ġs im
b e
E rr
p x
==== ====
E n
y p
Ġf ile
r u
m an
in es
w n
Ġbet ween
' ]
ad er
Ġ& &
p p
m ary
um n
ĠA n
h o
Ġ// /
re n
Ġc or
ro id
' )
at us
Ġli ke
nb sp
is ion
Ġa c
t est
Ġpro du
v el
el ta
oug h
Ġdif fer
ĠA s
O bject
Ġst atic
Ġg r
an y
Ġl ist
ro l
Ġm ost
Ġin v
pl ay
Ġh igh
are nt
Ġa m
ire d
et s
t ed
Ġthe se
C T
ĠS tring
D E
y m
T est
g er
Ġst art
1 00
s c
amb da
cc ess
Ġs ystem
A N
a z
Ġst ud
] ;
Ġp oint
Ġth rough
s ize
S E
I T
Ġ %
Ġg iv
Ġe ach
ĠE x
() .
he ck
str uct
f ace
as on
Ġpr ivate
Ġ! =
or n
w h
s cript
Ġj ust
Ġd et
Ġm y
p i
Ġsh ould
U n
r c
) \
Ġs er
e ver
Ġe ver
Con t
Ġh ow
Ġm ethod
ot e
m all
' t
oc i
iv er
b y
Ġne ed
m od
Ġm od
Ġob ject
Ġo per
Err or
ĠF or
() );
Ġh im
Ġc al
oth er
re qu
G et
B y
m e
Ġwh at
ĉĉĉĉ ĉ
Ġs ign
ch ool
Ġ Z
if y
l ink
ap t
ro ll
5 0
ot s
re at
Ġap p
r ic
"> </
a h
c es
iz ation
i k
Ġas s
Ġf ield
Ġ ed
ord er
19 8
Ġex t
se ction
Ġ key
le t
M E
Ġe qu
2 2
Ġm in
Ġw ell
Ġe ff
Ġus ing
. _
Ġsa id
l er
Ġd r
f ore
n av
I nd
am ma
p ublic
ĠĠĠĠ Ċ
= \
Ġag ain
I m
l ang
Ġp aram
A s
if e
ou se
V iew
w idth
Ġl ong
l ist
en se
Ġg roup
p ar
evel op
f ul
" ;
C lass
t il
Ġst ate
Ġe m
ot t
us s
f unction
Ġ X
C O
. </
[ '
$ \
Ġf ound
m u
j s
ce pt
form ation
id ent
htt p
Ġb r
ar ray
_ \
if ied
ĠA meric
ind ow
ers on
Ġs ame
F ile
sum mary
Ġre p
w ay
at t
ind ex
S h
o h
Ġse e
ut il
mathb b
A t
Ġc all
in ter
Ġr un
u ch
al ign
p ace
in clud
Ġ\ \
} _{
lo ad
Ġr ight
enc y
ag er
re g
R equ
is m
re ak
2 4
Ġwh ile
ur l
ĠS e
Ġs ol
Ġcom ple
t ime
t op
are d
oc ument
} ^{
al e
Ġyear s
t able
ant s
d is
K ey
Ġe st
cri ption
ig ma
F or
g o
c le
ect or
Ġh and
l ay
tr y
Ġn ow
A n
00 0
Ġc ould
ivers ity
2 1
r ite
' );
Ref er
f ield
Ġc urrent
! --
ra w
Ġre ad
] ,
ĠI f
W e
6 4
g y
Ġc ent
Ġbe ing
Ġf r
=" ../../
eg a
Ġbe fore
a j
- \
lo b
h er
ical ly
Ġs ur
Ġar g
() ,
p art
ist er
us h
ĠI nd
O n
ri b
o ad
Ġdo es
com m
Ġsec ond
Ġdiffer ent
g roup
Ġre sp
t en
## ##
Ġsup port
ĠC ol
v oid
ph i
g round
Ġt itle
Ġb oth
ur ation
U L
or th
r on
op y
m ed
19 7
l p
ect ed
Ġ u
gr am
Ġm ake
p ath
Ġd irect
ess ion
qu e
R O
b ers
ack age
qu ot
=" +
Ġ z
pon se
ath er
uff er
re m
Ġex pect
Ġever y
it ial
] .
^ {\
et work
Ġb o
Ġn on
l ambda
b f
Ġman y
ar n
T ime
Ġim port
A C
Ġar t
ro ss
I ON
col or
con st
Ġap pro
l ish
E vent
ca use
an e
Requ est
ou th
us er
Ġgiv en
Ġl ast
' :
b all
Ġs ing
Ġor der
d ay
Ġat t
Ġth ree
Ġb el
Ġbe cause
Ġp ass
d ition
Ġ/ >
mathb f
Ã ©
Ġb l
Ġl ink
Ġm on
I nt
o od
c d
Ġs ize
4 0
T ext
. "
Ġb uild
ut ton
Ġper form
Ġ ?
ain s
P E
ro p
it or
ĠI s
Ġg u
Ġfollow ing
as es
og le
\ \
E lement
Ġm ade
et ers
olog y
Ġpro cess
ĠS c
at s
al ity
" :
Ġpart ic
2 3
ent ial
Ġm ed
Ġ );
L A
ĠF r
Ġm at
ur y
ens ion
le ss
m d
Ġf ind
T E
b o
Ġd id
ĠR es
Ġw rit
Ġm em
/ *
Ġf act
Ġth row
Ġd uring
per t
In fo
Ġf am
Ġev en
A dd
Ġs erv
se arch
ep s
Th is
Ġkn ow
} ;
uth or
Ġas sert
Ġ{ \
M an
Ġerr or
htt ps
N ode
Ind ex
I C
iv ed
Ġev ent
iss ion
Q u
i ence
un c
over n
/ **
` `
P ath
e k
ual ly
Con fig
ole an
m p
Ġdis c
Ġm ain
() )
al k
ĠA nd
Ġe lement
w ord
Ġte am
port s
f in
Ġt erm
ur al
ak ing
P aram
i ev
ar m
I tem
Ġrequ est
M ap
Ġre le
il on
l ength
ction s
iv es
con fig
T R
6 0
ain ing
F ield
ĠUn iversity
A l
Ġstr uct
Ġd evelop
m it
Refer ences
Ġv ery
b eta
trib ute
Ġw ay
3 3
ch n
ar ly
D ef
m ap
d es
Ġ-- >
St ate
ĠO n
st ance
Ġto p
. ,
Con text
Ġcont in
Ġa ut
E qu
ist ory
Ġc oun
r ide
ames pace
id d
s y
20 19
R e
ĠD e
P I
d t
Ġp ar
Ġm ov
it er
Ġo wn
u c
el s
end s
o ff
Ġd own
s igma
ĠĠ Ċ
Ġar ray
W ith
Ar ray
ĠĠĠĠĠĠĠĠĠĠĠĠĠĠĠĠ ĠĠĠĠĠĠĠĠĠĠĠ
ar i
tt p
" "
ild e
Ġl ook
a f
F F
Ġvar i
Ġ( !
âĢ ľ
se c
pt y
U R
ĠR e
ĠC l
ul ation
ate g
= '
N ot
Ġin formation
us ic
n ode
F orm
ust om
Ġop en
s ide
r al
ig inal
a it
ac es
ar ge
in a
um er
ur s
n ess
O ver
t itle
m odel
plic ation
O r
ef ore
Ġ( \
Ġh ere
Ġt em
Ġt arget
* }
ic on
' ;
Ġloc al
Ġch ild
Ġle ad
mb ol
Ġ} );
) }
s w
n et
ap i
2 7
Ġcont ent
ĠP h
Ġm ust
ab ility
Ġl og
er ing
Ġp op
Ġcons ider
2 8
iv ely
u i
al th
Ġle ft
tr ue
Ġall ow
os s
[ ]
i or
ri x
v ir
ĠM ar
u ck
ĠAmeric an
Ġm et
Ġv is
Ġt ext
Ġ/ *
in put
v ious
Ġdef ault
Ġf in
it al
ver t
ĠL e
ap ache
. âĢĿ
^{ -
S ervice
u f
b ox
ut es
Ġs ince
Ġeff ect
Ġth ose
ign ed
ak es
oh n
Ġw orld
Ġs mall
Ġ} ,
Ġbe g
Ġs l
res ult
ĠP r
Ġex per
b lock
Ġrec ord
f rom
b s
D es
201 8
Ġre f
ag s
ev ice
ob ject
id es
S ize
Ġus er
+ \
o ber
err or
b ody
ile d
ific ation
ĠS he
og raph
he ad
lob al
fig ure
act er
pon ent
math rm
Res ult
A D
ĠY ou
Ġb ro
l ished
in ess
od es
iv ing
en u
le y
g amma
b l
ist r
s k
//// ////
Ġc ar
n o
L O
im it
="../../ ../../
ass ert
cal e
Ġpro t
ĠO r
pert ies
2 6
re t
B uild
Ġn ext
Ġm uch
ail s
M essage
F r
yn c
val id
P h
cre ate
ma x
en e
H e
M A
******** ********
Ġm ult
m et
Ġex ample
Ġw ant
et urn
Ġresult s
Ġap pe
ir c
Ġm ark
b ig
pl ate
id ed
ĠE ng
i um
Ġle vel
p or
h ip
Ġval ues
our ces
Ġpos s
il ter
Ġc heck
2 9
Ġ ,
com p
ĠUn ited
ww w
Ġre ce
201 7
u str
un e
^ \
Ġagain st
ast er
sh ip
Ġinclud ing
d elta
def ault
Ġgo od
} {\
om en
Ġp ath
p m
U T
Ġin cre
Ġhe lp
C ode
en n
ĠS ystem
ĠH ow
Ġc a
Ġp resent
Ġle t
ou ble
able d
if t
tr act
I G
O f
v ersion
+ +
ir d
Ġtr y
in ation
Ġv ersion
> &
H and
Ġd on
ar row
le q
Ġb lock
IN G
Ġp ost
Ġb reak
the ta
Ġa v
I s
E D
ĠA d
I S
u age
Ġ$ (
g t
ĠM ay
L oc
I t
Ġcomm un
us ing
Ġst ill
com e
it t
l a
re ate
co pe
Ġcal led
Ġhe ad
lo at
Ġre al
du ct
201 6
Ġg ame
sp ace
M odel
st ate
orm al
M L
p oint
w are
Ġf our
t ab
it ch
Ġv iew
ict ion
Ġrep resent
Ġj ava
u ro
in fo
l t
Ġin put
ĠB r
Ġt yp
pos ition
Ġcre ate
ail able
t ings
m y
Ġc le
A B
ĠW h
Ġp res
Ġs rc
Ġ: =
che s
and s
ĠG r
Ġpos ition
s up
V al
ĠA t
Ġd ep
Ġc ode
r ho
] {
Ġa round
Ġpro ject
st art
" .
A ll
ne ction
cont ent
um p
Ġm ax
lect ed
Ġb ased
Ġan al
4 5
a i
Ġst yle
8 0
ĉĉĉĉ ĉĉ
201 5
Ġn ode
Ġt ake
H E
us iness
o in
t imes
Ġ_ _
a ut
c ss
Ġid ent
b ase
Ġb ook
=" ../
Ġex pl
iv al
Ġ= ==
Ġpro gram
se e
ac y
ol v
on y
Ġpro ble
Ġp at
Ġdes cri
ĠA ll
ott om
Ġre fer
Ġkn own
Ġc r
re c
Ġs chool
Ġex p
Ġb ase
ĠJ an
Ġm ap
et y
a pe
d own
M P
t n
Ġp erson
eq ref
$ -
}$ ,
che d
is ed
b ed
n ext
19 6
ic y
E T
iv ity
Ġl ife
L og
ta u
ic le
nd er
res p
u x
qu ad
includ e
s l
Ġp ower
Ġo ld
---------------- ----------------
ater ial
}$ .
ĠG et
ĠP l
Ġcon text
T able
ĠS p
ele te
Ġcon fig
Ġl ater
s q
Ġpl ace
ain ed
Ġth ink
ide o
press ion
roll er
In ter
Col or
A S
9 9
av ing
end ed
N ew
t es
S er
Ġs om
ĠâĢ Ķ
j ava
O ut
Ġinst ance
p ackage
Ġdist rib
ĠM an
am ed
201 4
F rom
pl oy
o ption
Man ager
ol ution
w ith
Â ł
; &
in c
U p
k en
ĠB l
U ser
Ġwith out
Ġ} ;
oc us
l ing
Ġt ri
he s
Ġcon dition
ĠCom m
Ġit em
lic k
in ition
st yle
} (\
Ġbe st
con text
Ġind ex
ur ity
Ġd el
ĠJ ohn
p en
r ist
tain er
def ine
P l
ore d
f e
as ure
Ġch ang
end er
Ġser ies
ith ub
Ġsing le
ĠE n
; </
ĠC an
er o
3 5
Com m
n u
il t
Ġlink s
at ely
overn ment
D O
âĢ ¦
part ial
tern ational
and roid
wh ere
Pro perty
A nd
ele ct
anc es
U N
ear ch
ĠC ar
w ays
ug g
Ġs ource
P r
u les
Ġfil m
and ard
Ġwith in
UL L
EN T
Ġc ap
pro t
ator s
or ies
Ġcon f
ref er
ĠT o
ĠĠĠĠĠĠĠĠ ĠĠĠĠ
ad i
it ive
Ġs k
Ġd ay
Ġb ound
str u
Ġc our
w eb
Ġo cc
Ġd i
ang le
ĠC ent
ft y
Ġcom put
at ures
201 3
an sp
le m
Ġo ptions
d b
E S
ug ht
T D
Ġl arge
u k
20 20
Ġfam ily
ple ment
c ast
Ġre port
f alse
c ount
=" #
che ck
g ithub
ition al
ur ch
Ġsu ccess
r t
Ġse ver
m ethod
ĠSt ates
th s
ĠN ov
G roup
is on
Tr ans
ix ed
b um
Ġ Ð
Ġob tain
st atic
in fty
ĠThe y
Ġse ason
Ġ čĊ
Ġan other
O T
Ġl a
Ġf oot
ĠĠĠĠĠĠĠĠ ĠĠ
Ġ enc
Ġin itial
I L
i que
R eg
p ed
ur ther
C lient
Ġcont rol
ev ent
S ystem
l ight
t ilde
ib r
Ġbe h
ĠJ ul
| \
Res ponse
ĠU S
go ogle
Ġl aw
i od
ain t
ĠW orld
Ex ternal
Ġsp ace
Ġt able
Ġc are
c ore
om ega
R ec
vir on
pr int
Ġ ke
Ġs w
Ġan n
201 2
) </
ord ing
Ġis s
D is
C ount
on se
Ġst d
aj or
ann el
Ġn etwork
eg er
read y
Ġun til
0 1
Qu ery
a ff
Ġplay ers
if ier
5 5
> (
ord s
Ġb ool
re l
ut ions
Ġad v
n amespace
Ġadd ress
201 1
Ġresp onse
Ġim p
Ġorg an
] (
Ġcol or
ĠB ut
l in
Ð °
d oc
um e
ok en
Ġa ction
Ġo pt
m at
Ġd em
c it
Ar g
D elta
u ary
C all
um ents
< !--
Ġor iginal
ount y
resp ond
201 0
our n
======== ========
Ġs ervice
ar r
ward s
R ead
op er
Ġn il
Ġch ange
Ġs um
Ġm essage
Ġs ay
ar ning
Ġte chn
Ġ( )
eq n
s im
Ġand roid
3 9
U S
ĠB e
Ġback ground
ĠĠĠĠĠĠĠĠĠĠĠĠĠĠĠĠ ĠĠĠĠĠĠĠĠĠĠĠĠĠĠĠ
lo se
ĠO ct
Ġrequ ire
Over ride
Ġwe ek
act ory
Ġp o
g ress
3 4
b utton
Ġ et
Ġres pect
ĠN ational
Ġpro perty
eb ug
Ġacc ess
ap er
C E
c all
Build er
ith er
Ġal ong
Ġto t
t ual
Ġn ear
M ethod
h old
d e
ĠL ist
Ġare a
pro v
se mb
n ect
M od
n ull
ou d
ĠT e
ĠâĢ ĺ
ag ue
Ġinclud e
3 1
A d
il ar
Ġex ist
ĠP ol
D ate
un g
Ġinter est
o ptions
d om
ĠA ug
Ġs pe
a im
b it
Ġf ull
B ar
ĠC o
il li
v en
im al
Ġm atch
3 7
en ame
arg in
ĠY ork
I P
oc ial
T H
im ate
ĠR eg
N A
ĠI m
ĠG u
ĠN o
Ġgener al
Ġm ass
Ġav ailable
Ġab ove
ro du
Ġd epend
x i
ĠP ar
Ġm ag
Ġd ocument
and om
b uild
3 6
ore m
Ð ¾
ĠS et
um an
Ġb order
Ġb u
, âĢĿ
Ġl ang
Ġc ell
D I
I f
pos ed
Ġle g
] )
Ġp ub
Ġchar acter
ĠC al
ĠW est
St ream
ener gy
am ent
Ġ eng
ut ed
c urrent
Ġr ange
im um
at ab
e ction
Ġt urn
Ġm usic
ĠS chool
li b
Ġf a
le x
Im age
Ġb as
end ing
qu ery
Ġh ome
ĠG e
raph ics
m ber
i ans
tr a
ra ft
Ġf ew
Ġd ue
c apt
Ġpol it
fin ished
ic ial
19 4
ill ion
le g
U til
ic a
9 0
âĢ Ķ
ph p
c er
Ġ es
$ $
cent er
st it
an el
ĠW ar
Ġst at
Ġest ab
Ġpre vious
6 6
Ġh app
ef f
Ġw in
Ġre t
19 5
re en
d ir
N o
Ġout put
ent ion
al es
at ter
B e
( (
pec ial
Ġ( $
Ġd om
Ġim age
ĠM in
ic ro
Ġass oci
ch o
Ġsever al
S ub
ON T
k s
Ð µ
Ġ< <
Ġsh ort
3 8
ut ure
Ġw idth
oug ht
Ġdes ign
in it
viron ment
C H
om an
h and
ĠĠĠĠĠĠĠĠĠĠĠĠĠĠĠĠ Ġ
pl ace
Ġob serv
requ est
n s
ys is
im age
ĠA ss
Ġsup er
a u
ĠA pr
r am
Ġe lect
ĉ Ċ
ert ain
F l
ma il
stru ction
ustr al
Ġto o
In put
yn am
St atus
al f
g or
ĠS outh
Ġdef ined
ag ement
Ġh ttp
7 5
un finished
f unc
arg s
ĠM ed
pt ember
c lient
ĠHow ever
} [
cd ot
itt le
\ ,
cre en
ĠSt ate
B lock
o pt
G ener
O P
Ġs ide
j av
Ġal bum
Ġp arent
200 9
ĠJan uary
} }\
0 5
E nd
ĠB y
C l
u ed
our s
Ġf ree
ot o
Ġp age
P ar
ĠB rit
Ġprodu ct
Ġpro m
ĠM arch
Ġcl os
Ġas sum
ĠTh ere
ac ed
or age
d l
ag ed
S c
in ary
ip le
Ġ- >
erm an
ne y
rit er
Ġtot al
n ow
Ġh old
Ġpartic ular
Ġs it
im ent
uro pe
row s
Ġinv est
ĠS up
E d
Y PE
r un
z e
able s
Ġf ore
S tr
b ook
Ġcomp on
ser ver
Ġs m
( {
act ive
ĠC ounty
ay out
Ġs ong
Ġex ec
on es
Ġal ready
Ġbo olean
Ġv ol
Ġa ff
capt ion
und le
Ġme an
ight s
In stance
ps i
add ing
d o
Ġc ur
ic ense
Ġ" ""
ĠA b
Ġl arg
ĠR ep
O S
P os
he ight
Ġcor respond
c m
gor ith
ib ility
Ġreg ion
Ġposs ible
us ed
Ġs at
Ġp ut
Ġre st
200 8
Ġrequ ired
ens ure
T oken
) {
le ge
E E
Ġexpect ed
00 00
he ader
y les
d f
N S
N av
ab ly
Ġb usiness
A ct
d ec
n on
o ice
ateg ory
t x
Ġg l
ĠJ une
ĠN ULL
Ġw he
Ġde ath
c ame
eg r
o op
c or
ap s
Ġc ount
che ma
Ġg reat
id get
o ke
Ġmem bers
om et
app end
m ark
ĠOct ober
ĠS o
ce mber
Ġ energy
Ġpro b
ur g
Ġpoint s
L ine
Ġcomp any
p age
Ġd iv
O ptions
ĠS ec
' '
im ation
ĠC ity
O L
a e
)$ .
h as
ĠA p
ĠAug ust
R A
ĠF ig
D ec
Ġl ow
re ct
Ġbe came
Ġval id
B ase
C ell
Ġl ength
ĠSe ptember
A pp
Ġt imes
Ġe arly
i j
Ġpro f
[ "
Com ponent
Ġgo ing
S P
Ġne ver
Ġproble m
atab ase
ĠB o
Ġc ity
Ġle ss
ad a
ig ation
H ead
Ġstud y
Ġqu est
ac hed
A ction
er a
Ġme asure
c ul
Ġm ajor
Ġre du
ĠJul y
ist ic
} _{\
li ed
ĠA dd
Ġro le
t arget
Ġw on
E X
S ource
and ing
if f
Ġ ide
ĠCh rist
Equ al
0 8
eqn array
Ġl abel
ri or
) (
Ġdet erm
ist or
x y
O ff
Ġs y
Ġm ar
ĠD r
ĠE d
j son
RE F
4 4
N ull
fr ame
ĠApr il
ps ilon
al t
F A
Ð ¸
Ġre ally
ĠF l
il it
Ġp ort
Ġfoot ball
Ġimport ant
b tn
ĠP art
Ġsim ilar
ĠĠĠĠĠĠĠĠ Ċ
Ġd en
ĠF eb
O m
l s
ĠĠĠĠĠĠĠĠ ĠĠĠĠĊ
Ġchild ren
st er
Ġ+ =
Ġse ction
p ose
is ing
ĠS er
Ġal ways
A p
th ing
Ġh ost
um b
ĠN orth
Ġg overnment
ug in
Ġ Â
epend ent
p arent
Ġtr ack
ĠI nt
at form
ĠQ u
c y
ĠĠĠĠĠĠĠĠ ĠĠĠĠĠĠ
h am
Hand ler
B uffer
sy mbol
n own
ĠR ec
id ual
oc ol
nav bar
Ġp ot
* /
Ġcom b
mod ule
m ember
ĠA ustral
Ġbet ter
fo ot
ĠW ith
text bf
p tr
ud e
ial og
Ġb ir
th ers
ĠT est
am a
ad ata
7 0
eps ilon
ust er
ch ild
Com p
s g
Cont ent
Ġle ast
H T
Ġm ight
pro perty
, "
Ġl ight
O per
l im
ĠG ener
Ġper iod
E L
re w
ĠNov ember
u ation
ĠE urope
Ġd est
200 7
M S
ĠC ont
s rc
4 8
fl ow
im ary
in o
se qu
eth ing
ard s
R un
c ell
an ch
Ġre search
Ġdis play
S elect
Ġspec ial
ot ype
Ġw omen
an a
Ġparam eters
Ġa uthor
cl us
se lect
O D
r id
Ġb ody
ĠDe cember
C K
b ottom
ĠM c
ĠD es
Ġe ither
iz er
sq rt
c ase
Ġh istory
Ġstr ong
om ic
i ke
F actory
Ġb ig
Om ega
W h
f irst
d r
AT E
v ers
Def ault
Ġg row
ep ar
x ml
Res ource
Ġin s
un k
v ision
st atus
op s
Ġs ays
S ec
Ġfor mer
Ġr a
Ġc over
d ict
v are
^ *
G L
v es
B ig
Ġshow s
U E
sub section
e ed
Ġst ory
S p
Ġe as
Ġparam eter
im ension
Ġl ate
C C
ele ment
ri ed
V ersion
p ost
r l
ac ing
Ġmodel s
ad io
ch ar
Ġcol umn
trib utes
Ġacc ount
Ã ¡
ĠW hen
Ġt ask
dis play
LA SS
Ġn um
li es
n a
F unction
G amma
Ġsh own
g es
Ġdisc uss
St art
At tribute
s i
er ed
ĠI I
g ed
re et
ĠO bject
h ost
)$ ,
0 4
L ink
ĠM e
ar ing
vare psilon
Ġind ic
ru ary
Ġp ay
pr ivate
P art
ĠN ot
Ġse em
#### ####
d et
s ol
ak en
Ġpr int
Ġw ater
Ġe p
Tr ue
P oint
200 6
g ener
A G
F I
m eta
b old
l ast
Ġre cent
Ġh ard
ĠC or
Ñ Ĥ
Ġv ir
f ind
Ġres ource
amp ion
ĠS w
m ult
Ġm ember
re st
Ġs ample
Ġev ents
Ġd er
ther n
A P
op en
ĠA ct
" ]
Ġc lient
Ġfe ature
Ġre d
Ġint rodu
0 9
U s
av es
// /
V ER
ĠN one
~ ~
0 7
Ġf ri
st ream
Ġst andard
Ġcomp et
Ġcomm and
le ase
ch i
N umber
$ {
on ly
Fr ame
Ġcre ated
og n
Ġd one
} );
id s
S C
T O
row ser
m m
^{ (
ure d
p ush
Ġl oad
w rite
Ġterm s
th ough
p ng
ĠR eturn
ir m
p ly
em ph
Ġc lose
st d
Ġs ite
Ġprov ide
ap an
re ed
20 00
Ġ q
Comm and
0 2
Ġprot ected
p y
Ġc ustom
Ġrele ased
ĠI N
er efore
idd le
el ine
ĠA ir
Ġf ar
w ise
ansp ort
al y
ĠD ef
ĠG o
ent ly
Ġl imit
Ġf urther
str ong
Ġd eb
St yle
Pro v
Ġperform ance
ĠC lass
s mall
ot ion
in st
Ġim plement
ĠK ing
ĠD is
p c
p ack
im g
as cript
Ġse qu
} =
Ġfr ame
g le
he et
P age
ograph y
t ag
Ġc ost
Ġto ok
Ġa ir
so le
ĠB ar
C reate
b m
action s
S up
g en
Ġme ans
ĠCom p
g ing
id ence
op h
Ġthrow s
W indow
Ġse arch
Ġplay ed
m ost
l en
eg raphics
includ egraphics
F irst
0 6
}^ {\
Ġcont ain
Ġd ev
F ONT
c ap
art ment
L abel
Ġof ten
ĠA fter
ens ity
li p
od ing
lay out
ft ware
B U
cl ose
T ask
a ul
m em
idd en
Ġcoun try
form at
loc al
ud io
ĠO ne
ĠThe se
d raw
Ġar r
i ol
ad em
R ow
ugg est
ob j
Ġwhe ther
Ġh ouse
Ġsign ific
des cription
Ġo ption
ĉĉĉĉ ĉĉĉĉ
Ġcom e
Ġh aving
Ġ< !--
one y
ĠO ff
S ee
P ol
H el
Ġd ouble
Ġsom ething
ĠFeb ruary
Ġhe ight
Ġph ys
Ġm om
i i
Ġ{ @
ver age
if act
ire ction
al let
ĠD o
pect ed
Ġqu ant
Ġc he
is f
ri es
pro ject
Ġprov ided
n um
Ġs ent
u ccess
Ġke ep
) =
Ġd ays
Ġto get
ab or
Ġbe come
ch ange
Ð ½
Ġc oll
Ġpr act
Ġst atus
ic ient
Ġth ird
olv ed
Ġstruct ure
gorith m
Ġc amp
AB LE
Ġg ames
Ġtoget her
Ġl ittle
Ġm ove
Ġcl aim
ã ģ
il le
0 3
ĠR ev
it ory
ult ure
m ar
iev e
Ġ$ {\
Ġam ong
Ġmethod s
r angle
ĠP res
Ġc atch
Ġin div
semb ly
ĠV al
Ġc opy
Ġac ross
Form at
L ast
var phi
Ġf ive
Ġrece ived
C heck
Ġan t
ex p
ibr ary
Ġunder st
ĠP ark
Ġw indow
Ġext ends
Ġg ot
Ġf und
ed er
at al
Ġpot ential
I M
ĠH igh
IN T
5 9
R eturn
m on
v ec
( &
Ġg ive
v is
A b
Ġc ou
end if
ond on
ock et
i ents
var i
S ON
ist ry
Ġ\ ,
p ol
s m
Ġb and
Ġv ia
Ġse en
as ing
Cont roller
Ġhe alth
" ).
Ġfollow s
Ġto wn
b uf
Ġab le
Ġj ob
res ponse
i res
olog ical
6 7
il er
ĠCh ar
ĠC oun
ĠBrit ish
am s
Ġv ert
yp es
ĠM on
Ġon ce
lection s
Ġcommun ity
app ing
Ġatt ack
Ġpl an
ro y
Ġw rite
Ġc rit
ent ry
Ġlang uage
ic ation
ens or
Ġbel ow
ĠAr t
Ġin du
m ain
at as
con d
List ener
Ġar ch
le vel
Ġ( (
med i
ur b
Ġal ign
ing ton
jav ascript
Ġs pect
ĠD av
Ġa ge
or ph
A ss
Col umn
Ġd ate
ay er
Ġ ]
str act
P RO
Ġt ele
ĠA fr
Equ als
L et
Ġdif f
ig ger
Ġv ideo
Ġv er
bo ard
Ġrel ations
Ġh uman
200 5
U M
Ġt w
8 8
Ġs che
Ġli k
Ġg lobal
s f
up date
ann ot
ou ch
4 9
Ġelement s
Ġth ings
Ch ild
o o
em ents
Ġas k
Ġm aking
Ġa way
B utton
6 5
Ġs ix
ĠP er
s igned
ge q
B ox
Ġfe atures
i ef
c il
ig r
F ilter
i et
Ġdevelop ment
Ġ` `
ill s
Ġfunction s
m enu
fer ence
u id
Ġyou ng
Ġb it
Ġ url
Ġm iss
Ġdescri bed
ord in
Ġup date
f ilter
pro of
Ġpro perties
R ep
//////// ////////
ag ing
Ġd eg
Ġn amed
Ġre view
con tainer
ition s
N O
Ġaut o
o pe
Ġmed ia
Ġcon struct
ap ter
Ġcomple x
serv ice
Ġs epar
ĠH is
m t
n ers
Ġm en
ĉ ĠĠĠ
pl it
> >
Ġform at
ourn al
Ġst ates
ĠTh at
av el
at tr
Ġdistrib ution
ĠR uss
y d
Ex t
Ġm argin
c an
Ġindiv idual
M et
< ?
it es
Ġof fer
Ch ar
U I
right arrow
Ġhe ld
4 7
Ġ ...
Ġl ower
Ġinclud ed
Ġspec ific
. ~\
Ġed uc
es e
al d
Ġst op
Ġsu ff
Ġbeg in
Ġc y
ly ing
ĠI D
ef ined
he l
et ing
Ġm er
Ġr ate
Ġc ross
Ġt re
Ġn ec
Ġbl ack
Ġcon c
to ol
Ġbu ilt
r ing
Ġwork ing
q l
Ġf uture
. }
iv en
ĠThe n
ĠP e
over line
ĠU p
f ont
d ev
is es
Ġassoci ated
h a
[ \
param s
Ñ Ģ
" ),
B C
Ġth ough
Ġg en
Ġs ocial
ĠEng lish
Val id
Ġcle ar
O b
Ġen ough
ĠB ro
Ġg raph
D et
Ġl and
ren ch
E nt
il ities
ĠC LASS
Ġf ocus
P re
Ġtr ad
B undle
M em
Ġbuild ing
ĠS tr
n umber
un ch
b ased
p o
B ack
Ġwrit ten
ce ed
T em
ĠL a
Ġn ormal
Ġp ast
st yles
col umn
Ġst ep
Ġsignific ant
refer ence
UR L
ref ix
Ġwork s
} ).
ĠJ apan
ĠH ouse
ĠĠĠĠĠĠĠĠĠĠĠĠĠĠĠĠ ĠĠĠĠĠĠĠĠĠĠĠĠĠĠĠĠĠĠĠ
cle ar
W eb
ĠM y
M ode
.. ..
at ural
Ġc ame
in stance
Ġf ac
T P
Ġm illion
ac ity
am l
Ġin ternal
Ġw ar
E m
Y ou
Ġn ational
ĠH REF
Ġadd ed
ĠS im
| -
Ġpop ulation
Ġn eg
g l
CO L
L ength
: </
c el
row n
Ġvar ious
ĠE ast
ĠA rm
sh ow
ĠA g
Ġcon trib
ĠL ondon
Ġserv ices
y ear
att le
Ġinst ead
Ġre ason
p ass
ER R
Ġann oun
rem ove
_ .
fr ak
ĠS ch
Ġspec ified
l it
ig in
200 4
Ġf ail
Ġk ind
b orn
a use
Ġp erm
ĠA m
Ġph ot
P er
Ġoff icial
Ġs ure
P C
& \
ang ed
Ġplay er
k nown
A ut
ar ies
Ġsystem s
Out put
Ġser ver
A M
Ġtr aining
Ġcare er
or iz
L ayout
Ġstart ed
N D
Ġh alf
ch an
ĠO F
ov ed
}, \
Ġcomm on
i as
A cc
ele g
Add ress
S pec
b or
Ġchang es
Ġc ertain
ã ĥ
oc r
Ġs uggest
ĠLe ague
A A
Ġbeg an
Ġanal ysis
so ft
Ġe ar
o on
Ġb en
id ing
ĠH ar
T YPE
ev en
s cope
ag n
Ġmat rix
un it
S I
`` `
Ġgr ad
Ġreturn ed
Ġm aterial
ug e
Ġp aper
Ġdoes n
Ã ³
' ).
f ord
i ber
Ġfe el
l ong
e h
Ġn av
ĠIn ter
pro cess
ĠCol lege
Ġpub lished
ĠD ep
Ġf ont
Ġcall back
ex ec
iz ing
Ġsim ple
Ġappe ar
Ġsat isf
C ON
Ġmod ule
Ġst ream
Ġc ases
ens ions
tt ps
Ġfield s
Ġappro ach
7 7
bold symbol
9 5
O ne
h ib
Ġconsider ed
Ġe mb
it ter
ĠH er
Ġl ove
Ġem ploy
W idth
w ide
ry pt
Ġp air
av en
Ġn one
prot otype
ĠL icense
ym met
ĠTr ans
Ġcont ains
el se
Ġcondition s
b a
ile s
util s
sup port
w rap
p ing
os p
Ġg e
Ġse lect
ER T
h line
ĠW illi
ĠH T
out put
Ġgroup s
Ġp ress
ex ample
ĠM ark
Ġh ttps
adi us
ampion ship
R em
enc ies
Ġm ode
Ġhigh er
ak er
A meric
Ġstud ents
Ġo thers
s d
is k
ĠL et
NA ME
Ġloc ated
Ġtyp es
Ġap plication
tem pt
="../../../../ ../
Ġth ought
Ġloc ation
4 6
D B
Ġ row
Ġsol ution
Ġcan not
Ser ver
Ġhow ever
Ġr andom
) ^
Ġconst ant
ĠE X
am ily
U rl
f inal
Ġeng ine
4 2
T ag
Ġ! ==
} ),
ell ing
off set
math frak
) ]
Ġcomp os
Ġm akes
sk ip
plic it
ĠAr ray
C ache
Ġam ount
ilit ary
Ġl im
Ġac cept
Ġin it
A fter
Ġl ot
Ġt aken
Ã Ń
ĠR ed
I I
Ġro und
Ġinter face
Ġun it
Ġ[ ]
ess ages
class es
Ġin f
++ )
Ġfile s
C D
ĠA c
Ġappro x
ĠIn ternational
Ð¾ Ð
pro to
li er
un ity
Ġwh y
al le
Ġen vironment
b ind
ver se
Ġadd ition
} }$
Ġex press
ound s
Th ere
( _
H ow
Ġwe bs
8 5
Ġa verage
Ġt alk
Up date
ul a
Ġw ent
ic les
I O
Ñ ģ
ic ip
Ġcontin ue
f a
pro p
Ġcour se
ic an
Ġy et
Ġact iv
Ġmult iple
Ġsub ject
C L
oci ety
d ep
Ġs em
Ġb ox
Ġl ines
u el
ĠA PI
Ġst ation
200 1
Ġs cal
M in
Ġl ive
L ambda
Ġcl ub
requ ire
em pty
Prov ider
return s
s pec
k it
li ke
. \
Ġoper ation
Ġb ar
ĠD ata
par se
Ġv ill
ol ve
min istr
y l
Ġfil ms
Ġestab lished
ad es
Ġcons ist
ist ics
res h
w indow
' re
Ġl oss
Ġprodu ction
Ġe con
fl u
Ġinst all
ĠM ore
Ġh om
Ġbeh av
ĠM ich
ob ile
ld ots
lang le
Ġqu ery
cont rol
N ext
: "
M ax
Ġg round
Ġto ol
Ġcent er
Ġp ur
Ġs cale
ĠS k
. )
ĠAmeric a
ĠPh il
Ġat tempt
ĠA cc
ot a
ot al
Ġvis it
app a
n ab
Ġa ch
ĠS an
I V
P e
and id
istr ict
Ġthe ory
in ner
Ġob j
it ect
a el
ã Ĥ
Off set
à ¤
r is
Ġch o
Ġf all
C ase
ing le
T arget
Ġcompon ent
d epend
ĠS m
A ccess
o z
**************** ****************
Ġre pl
Ġfil ter
Ġrefer ence
Ġ* *
t ask
s cale
ĠE l
c i
200 3
Ġcal cul
Ġfl ow
il led
ĠT ype
Ġacc ording
=" -
ĠW eb
Ġt reat
Ġl iter
V is
c od
Ġcol lection
P O
ic o
W ork
i qu
Ġnec ess
oci ation
ĠPres ident
Ġrele ase
if orn
Ġsuccess ful
s v
Ġf requ
S y
art ifact
Ġr ather
Ent ity
\ |
Ġd evice
w ait
Ġu int
du c
old er
Ġro ot
Ġexper ience
ĠA pp
AT ION
Ġent ire
ĠE m
ĉĉĉĉ ĉĉĉ
l ate
iz es
ell ow
Ġn ov
Ġtrans form
ĠR em
Ġreturn s
at tern
Ġbe com
Ġact ive
T ypes
Ġmom ent
ĠG roup
} /
D r
a ught
Ġadd itional
Ġquest ion
u int
Ġev al
En try
Config uration
Ġcomple te
G e
Ġc ut
] );
Ġv ector
tem plate
5 00
Util s
b in
ar a
ho od
Ġ ill
() ->
Ġobtain ed
Un it
anc ed
Cont rol
T op
ĠF irst
i ers
oot str
Ã ¼
6 8
lay er
Ġdef ine
iforn ia
UL T
Ġc irc
Ġresp ons
cit ep
et ch
ip s
U P
Ġrel ated
cent ury
Americ an
L evel
Ġcorrespond ing
b ool
Ġf ig
ĠR ef
Ġdet ails
to ken
ast ic
Ġcent ury
act ers
. $
ĠG L
Ġl en
k a
Ġdid n
Ġent ry
A V
il i
. /
K E
un n
Ġle arn
Ġint egr
ab s
d ated
Ġto day
a ur
Ġoper ator
O p
Ġt im
Ph i
5 7
Loc ation
ĠD on
sp lit
m atch
en ed
A g
ache s
CO DE
a ign
Ġse lected
or ge
ach ine
at ory
O pen
f loat
om b
Ġrun ning
Ġact ually
vent ion
Param eter
comm and
tr ies
Ġcomm it
id ge
20 21
b reak
9 7
d ocument
ĠNew s
Ġdef inition
ĠF rom
ĠD em
T ree
ootstr ap
ĠĠĠĠĠĠĠĠĠĠĠĠĠĠĠĠ ĠĠĠĠĠ
Ġn umer
ri a
Ġcon nection
Ġoff set
at rix
Ġreg ular
Ġnew s
ĠN or
av y
comm on
Con tainer
Ġf loat
B o
ĠI r
Pro cess
Ex ec
Ġarg s
ro ot
L oad
W hen
Ġn ight
] [
c r
land s
a uthor
P ost
ir it
C o
he nt
ad ow
d ist
Ġde al
k appa
s ign
Ġpartic ip
ĠL og
ĠS ub
W hat
ict ure
Ġal most
sh ould
und er
Ġb uffer
ĠF rench
m ing
ĠU s
ĠC our
Ġspec ies
r ict
Ġf it
ef t
n ected
un t
ot imes
file s
' ),
( [
ed ia
200 2
\ %
C P
Ġap plic
X X
Ġp rior
ul ly
Ġ Ã
H O
Ġbir ths
Ġcor rect
Ġex act
Ġn ames
Ġ[ '
S cript
Ġit er
led ge
ĠS ee
iv il
ct x
Inter face
Ġd ynam
d ot
Ġwh ite
r ics
c ache
Q L
ĠReturn s
ate gy
R ange
Ġfr ont
Th at
Ġb orn
t ree
use um
b uffer
9 8
} )$
Ġpolit ical
res ource
Ġind ependent
Ġneed ed
cript or
an ies
ic ult
val ues
He ight
ri ef
ex pected
Ġpos itive
m ore
{ {
Ġrem ove
Ġf av
> ,
Ġreport ed
Ġest im
Ġex ists
nab la
ĠD ec
ĠF ile
t ml
Ġright s
ĠW hat
ensure math
" ))
Ġim prov
Head er
Ġtem per
Ġth ing
Ġle d
D e
ub e
at ives
ĠInd ia
Ġvir tual
th on
wh ich
text it
Ġs on
="../../../../ ../../
Ġrespect ively
Ġc apt
sub set
in n
Z E
Ġwebs ite
Ġro om
o om
Ġpro p
Ġaut om
ty p
F ig
ens ive
st ant
ve y
5 8
ĠL aw
Ġneed s
Ġpol icy
Ġin ternational
con f
Ġsol id
stit ute
Call back
Ġinclud es
ĠCent er
H ash
Ġp ack
ĠCal ifornia
qu are
Ġdec l
Ġp ain
% %
S earch
Ġb i
W rite
Ġobject s
Ġv iol
Ġrec ogn
I F
Ġcon v
ĠRep ublic
ĠAustral ia
S im
Ġph ase
Ġ{ }
lic e
Ġth us
or ing
icro soft
gr ad
Ġd ensity
9 6
str y
u it
Ġst ar
B l
artifact Id
j ust
mb ox
Ġex ception
el t
Ġcon ver
Ġt ell
om y
ĠO ut
y es
ĠD i
Ġun ique
w id
ĠT V
ĠU K
ĠInd ian
u ous
COL OR
Ġits elf
Ġwh ose
styles heet
ang er
5 6
Ġz ero
M M
ot ed
IG N
us es
Ġh istor
C opy
D irect
R L
ĠA nt
Ġ ~
model s
ĠN e
Ġmark et
ĠP ort
Des cription
ark s
Ġset s
AR T
Ġf ace
A PI
Ġf ight
d evice
Ġf em
Ġserv ed
Ġt aking
M O
Ġsequ ence
ir cle
Ġch all
ĠN S
Ġw ords
Ġ* )
p atch
Ġ ;
S igma
ĠD istrict
'] ,
Ġp ers
ut able
Ġmon ths
Pos ition
H ttp
ca pe
ms g
y a
Ġd raw
ĠC reate
Ġt akes
ĠDav id
Ġfor ce
ma z
Th read
ed d
l or
Ġd ig
h an
Ġiss ue
b ra
lo od
ank s
ĠP al
Ġcurrent ly
ĠV ir
ur i
Ġw ord
Ġsur face
Set tings
ag ment
Ġprof ession
J son
Ġb ad
4 1
Ġequ al
b b
' >
c os
ĠT O
ach ing
Ġwho le
ĉ Ġ
= {
d at
Ġ ::
mod al
Ġcon str
Ġwrit ing
S O
L I
it ude
Param s
Ġro ad
ĠM al
Ġex cept
Ġ ir
Ġprov ides
D o
an ish
Ġdes cription
r s
F e
u a
ĠSt ud
t im
ĠC O
Ġpart y
Mod ule
4 3
ĠGener al
Ġcon tr
Ġd oc
group Id
Ġpro of
Pro ject
ul ated
ĠEng land
Ġline ar
Ġmon th
d en
Ġcom ment
Ġf ire
ĠM od
Ġare as
c ing
z z
Ġus es
ain ts
Ġm ot
ar io
d rop
Ġfil ename
Ġfa iled
AC K
Ġcre d
Em pty
o ch
ĠS en
Ġm oney
N one
if orm
c irc
h ash
ĠS y
ag on
ĠSt reet
oy al
Ġpop ular
a id
back ground
oriz ont
Ġconfig uration
Ġprodu ced
pecial ly
O ption
Ġs ort
Ġdist rict
st ack
199 9
Ġch annel
ut or
ct or
ĉĉ Ċ
E CT
f ill
Ġchar acters
ĠG erman
Ġhand le
im ages
ĠBl ack
b urg
Ġem pty
k ind
Ġt ree
ĠP at
V AL
ma ke
as c
R I
n es
non umber
Ġin flu
c s
Ġex pression
ĠW ork
ĠO b
S H
G r
tain s
ĠS T
am era
B A
Ġbro ad
Ø §
Ġpre dict
ul ations
\ [
ĠAs sert
C A
ent ity
C urrent
Ġper cent
Ġt ax
Loc al
Ch ange
Ġep is
ĠH ol
=" _
f s
% ;
Ġso ftware
Ġl ost
Ġgener ated
C an
n ap
Ġdist ance
DI R
ĠS ince
Ġs old
Ġst ore
ĠJ ames
ĠC he
R el
ĠD E
Ġset ting
o e
8 6
ĠR E
Ġd ied
Ġpat tern
Ġiss ues
Ġarg ument
H istory
Col lection
Ġparam s
b efore
at io
Ġmov ed
d ots
P ort
b order
c ial
Ġn orth
Ġwe ight
wid et
Ġrelations hip
ĠP aul
Ġs end
S D
h ing
d ebug
Ġ> =
Ġle arning
Ġmem ory
Pro perties
Ġmult i
U B
Ġw ait
8 7
OR T
F ont
re a
Ġpro posed
F O
Ġp adding
Ġst age
ot es
Ġf ather
id a
}} {
S o
ad o
err y
ro te
} -
ĠCoun cil
ig en
G E
Int eger
D ocument
Con nection
g u
Ġse lection
en ing
wo od
g n
Ġsupport ed
Ġw alk
{ -
z er
T I
el ves
ĠCan ada
Ġs creen
V ert
Ġlead ing
ä ¸
ber g
Ġallow ed
ru pt
Ser ial
equ al
Ġs ound
ĠR ead
Ġn atural
Ġp ick
orizont al
: (
Nav Bar
Ġreg ister
m ission
w in
cent ering
Ġal gorithm
Rec ord
Ġf ixed
ĠC up
e al
g reg
ĠO pen
ĠS ome
ĠEurope an
r d
Ġed ge
Ġt ag
iss ions
i os
" ));
d elete
T ER
pon ents
Ġreg ard
Ġs ex
ĠH am
l n
ĠJ ust
Ġin c
i ation
ĠB uild
Ġcom es
widet ilde
() :
Ġfri end
ĠB ook
t hen
Ġbeh ind
Ã ¤
Ġat tribute
Ġover ride
ĠS ervice
( -
j ection
Ġup on
ĠR ober
Ġ" \
ang es
IN E
urs or
Ġf ood
Ġarg uments
Ġannoun ced
Ġpres ident
M on
Ġpre c
Ġtele vision
ĠR iver
AL L
AT A
Ġdirect ly
ra z
a uth
as ons
Ġout side
at ur
E ng
ol ic
D ir
ag o
Ġequ ation
Ġmat ter
ĠCh ina
Ġqu e
P o
L e
ĠSe ction
p df
P tr
Ġclos ed
cri be
S ession
Ġh on
n ormal
Ġm id
$ (
ĠB G
se cond
ĠD iv
u ate
Ġfor ward
St ore
D F
ĠS um
ĠM et
d s
omet ry
ri an
ĠD irect
ĠB el
Ġro t
? :
Ġon line
Ġcon tract
th m
Ġne igh
ug ins
al led
Oper ation
ĠTh om
Ġperson al
Ġtem plate
Ġpart s
\ !
I R
ple te
iction ary
Ġh it
Ġlik ely
Ġdevelop ed
Ġrel ative
m aterial
inter face
s in
Ġcomple t
ut ive
Ġcont act
w s
ĠC r
& &
Pro t
x is
ar ter
ly mp
Ġlarg er
Ġst ri
As ync
Ġx ml
p op
Ġ( "
ĠB er
anc ial
ĠC heck
Ġw or
y ing
Ġpass ed
Ġme chan
atas et
Ġvari able
t og
ind ing
il m
add ress
V ari
Ġqu ick
Ġund efined
{ }
Ġim ages
enc ed
PE CT
& #
Ġst re
Ġd irection
5 1
Ġsw itch
ĠCh ampionship
o oth
in ated
et ime
M enu
Ġ ign
he t
Ġcon duct
C ore
Ġcon sum
c opy
H ost
in ing
inc ip
m id
Ġnot e
M y
ĠO R
ĠG od
-- -
Ġs outh
urre n
Ġcomp ar
Ġdo ing
Ġfact or
Ġestab lish
j oin
struct or
ĠM ag
Ġin fo
s end
Ġwork ed
ĠPart y
param eter
b and
ĠT ime
ag ram
not e
oper ator
Ġeffect s
ĠR ich
Ġexper iment
Ġproble ms
eleg ate
ĠQ ue
Ã ¶
Ġus ers
it ing
Ġmax imum
Ġs cope
ĠEx ception
Ġc andid
s ite
ash ington
M e
/ \
C R
Ġincre ase
Ġto ld
p ite
Ġhas h
ĠAr ch
m as
ĠM or
Par ser
S A
v as
7 6
Ġv ers
( :
ber t
Or der
Ġin side
Ġhim self
Ġcomp anies
Ġsh all
we ight
j o
pl ing
M atch
S k
Ġdeg ree
Ġdisc over
Ġs ens
Ġa ward
ĠD ay
I con
In st
ri ate
Ġide a
Ġchang ed
c ard
Ġart icle
Ġgiv es
M ar
erv ices
e in
Ġwe b
s ystem
Ġro ck
ĠH all
yn ch
ar ily
Ġdiff icult
Ġs us
Ġeff ort
Ġg re
te e
ro om
Ġperform ed
ou l
v ille
c p
Ġgo al
Ġw est
D own
Ġsh are
25 5
v ector
ix t
B O
oc al
h ad
Ġben ef
as ic
Ġsec urity
c ur
N ames
a a
h r
ĠE rr
D evice
Ġact ual
ill ing
ĠP re
Ġimp act
Im pl
Param eters
r ong
typ es
Refer ence
c over
Ġw atch
S w
b on
foot er
w idget
ol ume
Ġs ense
Ġj o
St at
ĠN ote
d i
Ġpl atform
ĠE nd
Ġindu stry
Ġd am
Ġlook ing
Ġs ession
st on
iev ed
ir l
lo or
im ately
str ict
m ode
Ġ& =
Ġc ast
Ġr ule
Ġm ind
Ġallow s
ST R
ann ing
p g
ound ation
Ġs il
Ġag o
Ġcon nect
trans form
oun ter
AN D
Ġlong er
D D
I ter
S ign
Ġan sw
tab ular
v ents
Ġnum bers
d est
8 9
L eft
ex port
ro s
s cal
all s
P L
Ġpro gress
Ġequ ival
b ootstrap
eg ment
in ternal
Ġbr ing
ĠDep artment
y e
Ġh ot
ĠL em
Ġt our
5 4
199 0
f g
Ġe cho
G o
Ġn odes
pr ime
Ġv ict
R ev
ERR OR
Ġnot hing
ĠRes earch
; ->
R ight
! !
\ ]
S chema
ĠA ward
tr ack
Ġa void
U se
Ġoper ations
ĠCh urch
5 2
Ġm ilitary
and er
w ner
en v
Ġre v
Ġes pecially
Ġcou ple
ad ian
to String
n ov
ĠP ublic
; \
M ult
c lick
Ġt en
E M
Ġim m
Ġeduc ation
Ġcamp aign
ex ports
Ġitem s
Ġim medi
Ġdem on
Ġcon struction
ver y
fo o
S l
Ġw rote
P ass
S L
ĠM art
in i
=" /
Ġde ep
3 00
Ġt ro
Hel per
Ġanal y
an i
doc s
Ġacc ur
Ġapp ly
ĠM ap
T e
Ġm ention
N et
en a
V ector
Ġoff ice
ĠJ ack
h over
Ġpro te
, -
Ġre nder
T im
a fter
ĠHe alth
ify ing
at ively
100 0
i ences
ĠG erm
199 8
eder al
Tr ack
Ġspe ed
ĠBG COLOR
ĠĠĠĠĠĠĠĠĠĠĠĠĠĠĠĠ ĠĠĠĠ
re q
clud e
Ġobserv ed
ĠIn stitute
w itter
m es
s uccess
} +
lang uage
ĠWilli am
a res
p anel
5 3
Ġr ank
Ex pression
Ġvill age
al ax
Ġh ours
ĠM usic
g lobal
ĠĠĠĠĠĠĠĠĠĠĠĠĠĠĠĠ ĠĠĠĠĠĠĠĠĠĠĠĠĠĠĠĠĠĠĠĠĠĠĠ
ĠA ng
h i
v m
id ay
Ġman agement
Ġhe art
Ġpr imary
c at
Ġh y
Ġread ing
g s
P H
med ia
ap se
ĠM ac
Ġexist ing
================ ================
ĠB en
ar p
ĠR oad
ĠF orm
Ġsy mbol
Ġqu al
f ect
ĠAss ociation
ĠFr ance
ist ance
Ġplay ing
ĠT HE
a o
Ġpol ice
Ġth read
Ġprob ably
ĠCour t
} ]
ĠN ame
Tem plate
Ġother wise
OR D
Ġget ting
ess or
T itle
Ġre ve
equ als
\ {
th at
nt ax
Ġl iving
Ġtrans fer
Ġqu ality
7 8
ter m
ou thern
B ut
ĠGo ogle
Ġsim ply
Ġop port
Dec l
est amp
F alse
ra el
K ind
ĠE q
af e
-- >
Ġmod ern
Ġdiffer ence
ĠGe orge
P R
Ġet c
P S
Ġto ken
P T
Ġcomp ared
W E
b ound
Ġe ast
it ar
Ġco ordin
In valid
## #
Ġarch itect
Ġe mail
for ce
Q ue
v an
Ġsign al
ac cess
equ iv
Ġs cript
Ġe lection
ĠP ost
ant ic
Ġm or
| |
ĠThe orem
com ponent
j oy
Ġinv olved
f ocus
hand le
E Q
} =\
Ġ ess
re nder
ĠC re
ĠN ow
pl ugin
out e
he lp
N on
U RE
Ġpar se
ic ons
Ġcompon ents
' m
Ġtechn ology
ĠP ress
f ree
Ġ} )
w est
annot ation
ern el
Ġj av
Ġoff ic
r um
ic ate
ĠA L
L ong
Ġab s
Ġcent ral
ĠC ap
Ġany thing
Ġdirect or
M D
ĠO f
dis abled
K e
Ġstud ies
ie ce
ĠEX PECT
4 00
Ġm ale
Hand le
Ġnecess ary
ĠTr ue
clus ion
Ġdes igned
ĠG reen
d irect
Ex p
Ġphys ical
ĠD ate
20 22
ĠWh ile
on ic
o ader
p ub
Ġdom ain
G ET
ex ception
Ġs aw
Ġa ud
an o
Ġd elete
g in
Ġclass es
st ar
re al
est ival
T ool
v ant
Class es
D ep
k er
Val ues
ĠTe chn
x x
Ġtrans ition
ĠW ashington
f ony
Ġth erefore
h igh
Ġf un
A pi
Ġqu ite
co in
Ġj oin
199 6
ed ge
Ġca use
ers hip
Ġus ually
Ġrepresent ation
ĠO per
Ġlevel s
Ġs ymmet
ill a
ym fony
Ġpresent ed
) }\
Ġfin ite
Ġra ise
d el
Ġr ace
Ġseem s
Ġeffect ive
z eta
7 2
Ġproduct s
ele br
ov ers
Ġsc en
Ġex tra
web kit
ion al
Ġbut ton
air s
c oll
pr ing
i us
ar th
r ange
ĠT able
se y
net ic
Arg s
C S
H as
ĠC ON
Ġset tings
Pe ople
P A
ip p
Ġtr ansport
Ġcomple ted
Ġbel ieve
Ġbook s
Ap plication
ĠS am
AT H
s ession
Ġopt im
f n
e es
cl oud
ĠR equ
> ();
D raw
Ġal t
imension al
Ġbas is
osp ital
Ġn u
Ġ â
Ġdec ision
N ow
en um
im s
Ġup per
OR M
ĠY ear
end ar
Ġ ensure
ĠM em
Ġn amespace
Ġintrodu ced
c ustom
ge bra
g raph
ĠI S
As sert
O K
8 4
rom e
Ġthrough out
Ġapp lied
p adding
ul ate
Ġhe ader
Ġnov el
Ġd atabase
uf act
Ġac qu
ĠO ur
Test s
Ġres ources
re es
( *
ĠR un
B r
ĠSc ience
ĠL eg
Ġal though
ick er
) =\
Ġc ache
Ġcontain er
Ð »
c up
ĠB ay
Ġso on
Ġteam s
up le
Ġr ules
ines e
act or
set tings
Ġinvest ig
Ġdemon str
ee k
Ġfinal ly
Ġtrans action
con nect
lem ma
ri er
Read er
is ation
Def inition
Ġassum e
Ġerr ors
199 7
Ġsub s
SE T
ĠB ase
od er
Ġfollow ed
ĠM er
Ġr adio
Ġstart ing
aw s
in y
_ ;
C al
depend ency
Ġbehav ior
c ar
] ]
Ġopen ed
Ġn et
Ġg as
ĠB est
Ġc ult
he st
Met adata
ĠA ut
f ort
Ġal tern
Ġd ark
Ġn or
' .
in sert
av ed
ĠD et
erv e
text width
l am
ĠMich ael
Ġm other
P si
ĠH el
ĠM at
Ġvari ables
Ġan g
}_ \
M ark
Ġconc ern
Result s
ĠO ther
o res
ĠUn ion
ĠComp any
\ "
G B
ree k
Ġr isk
C lick
Ġev idence
it able
Ġcom ing
ĠIs land
Ġy ield
w ell
Ġab sol
s ort
Ġtemper ature
t ty
por ary
ĠJ SON
wh ite
P arent
ĠL ou
ri al
Ġbo ard
R ender
ind ent
ĠRober t
D ebug
V er
Ġg ave
R ect
ĠP y
$ )
Ġj ud
9 4
if est
F T
Ġcoun tries
R ed
ĠM ary
8 2
Ġst aff
by te
Ġsh ip
Ġto wards
ic ol
iz ations
` .
st ep
Ġmin utes
Ġapp oint
> .
Ġlarg est
g an
ĠC ong
Ġp ackage
Ġo s
N um
Ġw oman
pro x
en ge
ic i
is ions
-------------------------------- --------------------------------
Ġin j
Ġm ount
ĠĠĠĠĠĠĠĠĠĠĠĠĠĠĠĠ ĠĠ
Ġcol lect
on a
r ule
Ġ er
198 0
us ion
ĠO ver
frame work
S ION
ĠM r
ur t
Ġprofession al
ĠAfr ica
######## ########
Ġme et
ĠIn c
Ġstat ement
Ġcon cept
C I
ĠDem ocr
Ġset t
ms elves
Ġs ources
' ve
Ġtry ing
) ^{
field s
il ies
St ack
B ody
S he
ĠM ount
Ġsign ed
l as
al a
ĠFig ure
; <
ĠK e
Ġis n
St orage
ĠArm y
ĠT om
Arg ument
Ġwrit er
u ated
bo olean
ĠT ex
block List
' ))
Ġby te
ĠA lex
b our
Ġ( '
Ġad ministr
}^ \
p ers
ain e
in ct
ĠO lymp
Ð º
Ġask ed
rec ated
Ġthe mselves
ĠĠĠĠĠĠ Ċ
Ġch oice
Ġunderst and
9 2
om orph
__ (
Ġl ibrary
D om
Ġro ute
Ġincre asing
ĠJ ew
ĠR oman
J ob
M ore
ro ad
ĠWh ite
ac ement
Ġd ro
Ġeas y
ail y
Ġsome one
M ock
Ġhold s
ĠHT ML
Ġprob ability
Ġmiss ing
ĠU se
ick et
i pe
9 1
ĠFr anc
c ategory
Ġc op
d ouble
ĠGerm any
ĠH ere
leg al
ĠM ath
ĠL O
ur a
="../../ ../
Ġv eh
el oc
tern et
Ġsp in
ĠG old
av er
Ġcle an
Ġw ife
Ġ\ {
N ote
Ġe mer
atal og
anc y
rom ise
ill er
mit ted
Ġl ayer
Ġsh ape
id ers
z a
al ysis
ĠI O
ĠJ er
Ġa uth
Ġbecom es
} "
Ġfe ed
w rit
N N
Ġf ast
Ġj son
Ġor igin
and ed
Ġtr avel
v est
Ġd aught
sq l
Ġgrow th
rap per
cl os
FA ULT
Ġdistrib uted
Ġrecent ly
Ġ' /
re ement
Ġdirect ory
re place
Pol icy
Ġsur v
A m
cd ots
ĠErr or
et t
Ġin line
f ull
Ġevery thing
pe ed
Ġext ension
ut ing
Ġro b
ĠR ob
reg ister
Ġmov ie
By te
Bo olean
) -
Ġcontin ued
Ġjo ined
By tes
` ,
ð Ł
os en
call back
Ġcour t
ĠPro ject
a iled
9 3
Ġman ager
ĠD el
em ail
Ġsmall er
C re
En abled
mer cial
Ġdescri be
Ġed itor
aut o
Ġm us
Ġwant ed
id ents
ond s
Ġh ope
E l
con dition
li ance
le ep
il ton
al ian
Ġby tes
Ġ$ {
ĠS ociety
Ġrel ig
Ġknow ledge
Ġvol ume
ynch ron
Ġcor re
} |
Ġch arg
ing er
Ġb ottom
vir tual
Ġor d
ĠR oyal
m ock
Ġpro per
math sf
Ġb all
HT ML
Ġs ave
D elete
ĠIn st
) /
' ll
Ġsong s
ĠF e
P P
art s
Ġte ach
6 3
ous ly
Ġpract ice
R oot
ĠAustral ian
Ġc ore
ĠAc adem
Ġsol utions
ĠV alue
ĠN OT
Ġcont aining
D ialog
h y
wide hat
Ġpre p
tog gle
Ġ+ +
Ġun signed
ip eline
ĠT own
ĠPro v
evelop ment
Ġprevious ly
S ince
ĠCl ub
}) \
ĠM iss
et te
S e
Ġst e
hold er
om a
ĠR el
Ġen joy
An y
ĠTr ump
ub y
ĠTh us
li ament
Ġre lation
199 5
ĠL ong
}} (
Ġre comm
ĠE vent
Ġtest s
ert ific
Ġst ay
ec ause
N E
Ġlim ited
sh ire
c pp
em s
Ġde ad
pl ugins
Ġst ars
f it
Ġm iddle
Ġ" /
Ġschool s
ĠRev iew
ĠV er
co q
ol ar
f il
ĠSup er
ĠS l
ir ing
q quad
ou b
Ġun its
r or
L P
al ed
Ġpat ients
ad min
res hold
M sg
ĠD an
Ġat tr
O M
} :
ĠF ield
L iving
pro duct
ĠM ad
Ġquant um
ĠU ser
Ġan im
6 2
Ġl oop
Ġs plit
Ġe ight
Ġtr ain
ond er
key s
AG E
Ġhe l
Ġpart ial
Ġm is
Ġcoun ter
Ġstr ict
EN D
Ġcl uster
W riter
{ (
ĠT ur
R ule
duc ation
Ġre pe
ag ger
ac c
k i
l ines
197 0
ind er
Ġget s
ĠAn n
ap plication
16 0
c md
ĠPro gram
Ġl ack
ĠM ex
Ġcon nected
ans ion
ĠIs rael
am i
E ach
Ġ< =
et ic
Ġear lier
ed y
Ġc ulture
Ġsa f
Ġpro file
app ed
}^{ (
S um
ĠSc ott
ask et
Ġtreat ment
ĠM us
CT ION
Ġimplement ation
pro ve
IT Y
T S
ro t
st ore
ĠF ore
Ġdeath s
Ob j
eth er
con trib
Ġst ack
Ġrece ive
Ġmar ried
mod ules
Ġl ock
mat rix
Ġh ous
F L
A ME
Ġb al
h s
D oc
Ġex hib
ts d
P op
Ġle ave
Ġn ature
ĠF in
Sh ow
all ow
com ment
& =
pp ed
sc r
T ab
Ġinv oke
p ool
re y
L S
m i
at ically
in ate
F C
Ġpolit ic
k y
P ackage
un icip
ĠB ig
Ġfri ends
sh ort
Ġf ully
er ies
M ain
ĠSh ow
ĠĠĠĠĠĠĠĠĠĠĠĠĠĠĠĠ ĠĠĠĠĠĠĠĠĠ
rel ated
__ __
Ġrem oved
ri p
Ġbegin ning
Ch anged
Ġbound ary
Ġsc ore
B S
Ġm sg
s pect
") ]
ang uage
Ġstre ng
ĠM useum
Ġm ut
Ġcap ital
KE Y
im ents
Ġact ivity
ser ve
res ents
sh ot
Ġsc ient
pass word
v ed
TE ST
Ġm ock
alle l
Ġpl aces
form s
Ġrem ains
M eta
Ġr ail
ĠH en
ix el
ĠS al
Ġgener ate
Ġth reat
Ġrecord ed
du le
Ġrequ ires
ol f
ic ated
Ġinterest ing
D i
if ies
Ġh um
Ġsh ared
had oop
ĠAcc ording
en umer
Ġcrit ical
ĠChrist ian
vari ant
Ġc ard
ĠH istory
or ation
Ġdef e
ple ments
proto buf
ig hest
Ġpre vent
Ġcell s
ĠAfr ican
199 4
TE D
ect ors
C ustom
Ġp y
cre te
Ġrem ain
od ed
ib ly
ĠThom as
re me
az ine
Ġf ra
7 9
6 1
7 4
Ġd ed
e ch
Ġinter view
6 9
W S
Ġre serv
Ar t
ev e
Field s
Ġdest roy
ĠM ethod
d x
Ġatt ention
8 3
Ġpro ve
P RE
Ġpl ot
ĠT or
Ġfl ag
wh ile
os ph
Ġwe ak
Ġch urch
Ġfin ished
Ġelect ron
Ġb g
ĠY our
D L
set s
A c
Ġon es
ly ph
ent al
ens us
Ġfin ancial
ĠSer ies
iver se
ĠTex as
ĠM odel
Ġex plicit
J ECT
Ġbir th
AC E
ĠF inal
Ġ{ };
n ce
Ġrun s
or a
ĠCent ral
8 1
ynam ic
SS ERT
t ip
item s
D A
m argin
199 2
ann ed
gr id
in line
Ġ Î
inst all
W idget
Ġgo es
ist an
a ud
ĠSm ith
Ġinv olv
overn or
ateg ories
ĉĉĉ Ċ
st at
Ġs s
. ~
Ġassert Equals
sh ape
}\ \
ĠDiv ision
reg ion
Ġn om
Ġleg al
Ġsc ience
Ġc elebr
am ing
f aces
Ġmean ing
line ar
Ġj ournal
n one
Ġchar ge
Ġ$ (\
Ġsl ow
Ġcall s
Ġw rong
ĠS ur
at re
Ġw ays
Que ue
Act ive
I X
Ġk illed
Con st
ĠG reat
in itial
Ġst and
V ar
7 1
ĠCh inese
ign ment
R et
j a
h ouse
Ġp urch
7 3
ict or
Ġappe ared
ĠP o
az z
ĠM o
Ġw allet
Ġpl ant
ed it
On ly
Ġquest ions
Ġfor ces
Ġneg ative
est ed
om ial
ol ver
agn ost
Ġc ook
M ENT
Ġh tml
Ġbl ue
ĠLem ma
=" ">
In itial
ĠU RL
E C
ĠJapan ese
Ġbas ic
B R
Ġfav or
ĠAr g
Ġinst it
ele ction
ĠD uring
ĠCar ol
S U
ĠA v
at tribute
Ġdis e
b i
c ut
ĠC opy
Ġepis ode
ĠN O
Ġch ain
it z
es h
Ġw ide
ud d
ĠP ub
P ool
Ġinter pre
it a
ĠF oot
HE CK
N etwork
et imes
ĠRuss ian
Ġs n
ĠK ey
all ery
EX T
com ing
Id ent
Ġser ial
Ġbro ught
Ġtr ade
Ġmain tain
Ġpro ced
Ġl o
as y
Ġg alax
Ġfor ms
199 3
J SON
Ġcon sole
G S
Ġbe aut
The n
ĠGr and
}\ ,
ĠW il
Ġme as
Ġuse ful
key word
sp ring
FI LE
t ex
Ġ icon
Ġs even
Ġv s
! [
Ġ ),
Ġbel ong
ress ion
A uth
Ġconst it
g a
S end
. *
Ġfig ure
ĠT op
ĠL ife
ick s
T ABLE
Des criptor
Ġappro p
s che
Ġappe ars
Ġc ivil
Ġd b
^ +
ĠH ill
s ur
ent er
Ġpre d
Ġin sp
or ter
Time out
Ġmin imum
ĠV iew
Ġs en
ut f
Ġp anel
Ġjav ax
Ġsc ene
ĠAl so
Ġtr ansp
Ġrec over
ĠSt ar
Ġform ed
25 6
ĠM ont
r adius
Ġsec ret
Ġsub sequ
put e
Ġint eger
ĠW indow
n umer
ĠF oundation
igr ation
S cope
ĠCom mit
ot ic
d im
ĠFr ank
; /
Ġh or
Ġincre ased
ĠR ock
struct ure
A tt
st op
Ġab ility
Ġdeterm ined
ĠA N
Ġg a
h ol
Ġk m
U ID
Ġt err
Ġn ative
ĠAs sembly
ann els
Ġ& \
Ġc ategory
con nection
s ample
Ġf air
ann er
=" @
T C
th read
Ġt ouch
st ats
Ġchall eng
add r
Ġb tn
sc roll
ig er
Ġdeterm ine
ing u
des c
os h
Ġgr ant
Ġb ank
ec k
==== ==
Trans action
Ġover all
Ã §
Ġant i
ĠFranc is
ple x
im pl
~~ ~~
her it
ab ilities
Ġsay ing
cit et
d ates
Ġme eting
ĠWest ern
Ġsp ent
n ames
el er
bit r
Ġlate st
ĠT im
Ġexact ly
Ġp ark
Ġrepl aced
Ġgre ater
result s
ĠPro f
ĠC amp
ish ing
Ġdec re
y r
Ġst orage
M C
Ġapplic ations
du ction
Dis play
ĠE v
j query
Ġdec ided
ï ¼
k m
print f
k r
X ml
( !
Ġpr ice
h aps
ĠC ath
Ġl ives
AR Y
ĠI P
Ġd imension
and a
Ġper fect
ang o
ens es
ad y
Ġpres ence
Ġa ctions
ĠG ames
Acc ount
Ġill ustr
199 1
[ :
E O
ĠC all
drop down
irc raft
ĠP eter
Ġfem ale
ĠT em
] $
Ġm icro
Ġstud ent
l ers
ĠK ore
Ġcho ose
ĠCan adian
() {
Ġs ports
P erm
Ġdaught er
G u
at in
. __
ĠP lay
Ġun known
un signed
Ġequival ent
Ġp en
Ġev olution
S ymfony
Ġre ached
all oc
Ġkey s
Ġl ay
ĠPe ople
Ġdeb ut
} +\
Ġp ul
ace book
ĠT ext
ĠDef ault
ul er
Ġident ity
Ñ ĥ
Ġcomplet ely
ĠĠĠĠĠĠĠĠĠĠĠĠĠĠĠĠ ĠĠĠĠĠĠĠĠ
ap prox
Ġeas ily
Ġg un
= >
ĠMin ister
Ġre ach
ixt ure
= (
Sup port
Ġap i
Ġr ap
ĠB ill
pro file
se ct
Ġ util
Ġimmedi ately
Ġdirect ed
sup er
ang ular
pon s
L ock
Ġresult ing
ĠKing dom
)) )
Ġequ ip
Ch annel
ĠV ol
C ar
Ġframe work
as er
Ġg old
b al
Ġd ir
Ġm ur
Ġd im
Ġgener ally
Ġmat ches
arg ument
anc el
or ida
ĠA ND
il s
maz on
Ġsche me
Ġex ternal
Ġdel iver
Ġ( *
at o
ĠĠĠ Ċ
iv acy
ĠH and
Ġcomput er
ant a
Ġin cor
m ove
Ġf ix
Ġv eloc
ell ig
Ġturn ed
Ġ% }
ut y
Ġb ur
"> &
ic ago
ĠN umber
LO G
Ġevery one
ole c
ç ļ
Ed itor
ĠI d
P ORT
Ġpre tty
Ġfam ilies
P attern
Ġstruct ures
ĠM ax
B it
ĠT wo
hent ication
ĠA R
Ext ension
Ġparticular ly
ĠRich ard
Ġle ader
u an
ific ations
Ġtest ing
Ġc ref
Sec urity
pro perties
Ġass ist
Ġsom etimes
ĠComm ission
ĠC D
ĠO p
is l
point s
p resent
Ġtrad itional
ĠN etwork
] :
ph one
Ġco ach
Ġweek s
Ġequ ations
Ġprodu ce
çļ Ħ
Ġa wait
Ġorgan ization
ov es
Ġproject s
By Id
MA X
Ġman ufact
ĠS ing
log ger
re land
Log ger
bl ack
ĠÂ £
Ġsh ot
al i
ass ets
import ant
Ġhand ler
le v
TE X
ĠF alse
ad s
ty ped
Ġst ories
ĠVir gin
f ly
er c
el li
Ġh ighest
Ġt it
ĠAcadem y
Ġdr ug
pr imary
p ay
Ġsit uation
fl ags
Ġrecord s
ĠG en
? âĢĿ
om s
Ġh yp
ak ers
ĠMed ia
g it
ĠM el
rec ord
Ġpub lish
" `
F inal
Ġhigh ly
Ġinstance of
Ġim prove
Ġal loc
s creen
ĠTh erefore
Ġbg color
Ġreg ions
b ul
Ġh idden
Ġr atio
Ġent ity
h space
Ġfrequ ency
() ));
os itory
Ġn orm
Ġbe y
Ġ> >
C le
t ion
ĠJ ose
Ġg reen
rid ge
ect s
Ġrep resents
Ġmov ement
ĠU nder
Con f
in v
s ave
u ing
ĠM ost
C or
M B
ĠSt ep
= -
org an
ne q
ĠG overnment
Mem ory
Ġactiv ities
} -\
D on
VER SION
Ġpress ure
type of
assert Equal
Ġent er
R est
F loat
}} {\
it iz
cont roller
N G
sy ch
Ġche m
Sy mbol
Ġstr ategy
r b
at ial
os ing
In it
ell a
Ġmed ical
ĠB i
D S
ne ctions
uss ian
Ġbey ond
B efore
O ur
Ġden ote
Ġad opt
Ġpe ak
I E
M ember
ev ents
SI ZE
ĠB usiness
Ġin str
' $
ast e
m aster
Ġart ists
@ "
Ġc lick
Ġco eff
Ġlist ed
)) );
b es
Ġre strict
Ġsample s
ĠS und
ĠSec ond
ĠV ersion
as hed
d em
* )
Str uct
ĠLou is
def ined
ab it
th let
ĠZ eal
F ound
Ġpr incip
Ġb us
ĠCol or
Ġrem aining
Ġhapp y
St ep
Ġm ix
{ {\
Ġparent s
s chema
ploy ment
sec urity
ri end
Ġext ended
RO M
the orem
Ġimp lies
j ob
ĠĠĠĠĠĠĠĠĠĠĠĠĠĠĠĠ ĠĠĠĠĠĠ
Fl ags
Ġm achine
Ġst ra
ĠReg ister
G rid
Ġcontin uous
D atabase
sh all
b ing
Ġw orth
W A
ĠG ame
con s
Ġp refer
En cod
Ġart ist
Ġb ul
O ther
L oader
_ ->
Ġex am
P AR
que ue
Ġsl ight
d imensional
sh ift
n etwork
Ġpl aced
tx t
Ġevent ually
198 9
g ence
P ATH
//////////////// ////////////////
Ġne ut
ĠChar les
Ġp or
ĠL os
H ere
Ġo wner
ik i
Ġp ush
Ġre li
M edia
olog ies
yd ro
Ġr adi
in em
Ġun less
ĠZeal and
Ġprogram s
the me
Ġnear ly
} </
A v
not ation
ĠV is
N e
Ex pr
_ ,
Ġser ious
ĠM A
k w
Ġgr and
h av
T V
AD D
Ġup dated
Direct ory
se lected
av ity
ĠJ ournal
ir med
Ġat tributes
re v
Ġ\ |
ar ant
ĠBo ard
and ra
asket ball
Ġoff ers
Ġsur pr
Ã³ n
] \
Ed it
19 60
S R
ĠCong ress
ĠS un
Ġf unc
ĠW omen
Ġ[ [
ent y
Act ivity
k ing
Ġun c
Ġcre ating
Ġexample s
ĠOr der
def inition
ow ers
Ġv oice
cont in
Item s
Ġm aster
ot ing
ed s
Ġst ated
Ð° Ð
y an
Ġfail ure
Ġdet ail
Pro p
b ad
Ġca used
ĠC ode
th rows
NavBar Cell
M atrix
Ġecon omic
ĠL ake
Ġest imate
Ġpur pose
tr igger
Ġopen ing
l g
Ġmov ing
Ġsum mer
tab s
ĠUS A
Ġ$ .
E vents
x space
item ize
uck et
ĠA tt
ĠEng ine
ĠH ot
eng ine
ourn ament
ĠD en
Ġst eps
Ġex tract
. '
ĠRec ords
Ġrepresent ed
Ġun ion
k g
umn i
Ġp ool
f amily
w ar
Ġocc up
g g
ook s
Ġgiv ing
Ġquick ly
er ial
Ġprot ocol
Ġh arm
is ms
Ġp lease
we et
Ġm essages
Ġd rop
it ation
ĠC ons
Ġ- \
dom ain
Ġag ent
ĠEx ec
ĠS il
) ),
reed om
ist rib
() ).
Ġex c
man ager
in f
Ġ[ ];
ĠT imes
e cho
Ġvari ety
ĠG ood
web pack
ĠM ass
pos ite
ol a
e an
u ke
Window s
L IC
Ġw aves
iqu es
Ġstud ied
h orizontal
Ġcom mercial
Ġin sert
In ternal
ollow ing
Ġansw er
) +
Ġstra ight
od ay
Re ce
urren cy
c f
Ġpo or
assert Equals
ĠL ine
Ġim ag
ĠI ll
fr ont
Ä ±
Ġle ague
Ġno ise
D C
Ġsepar ate
pos itory
r ase
++ ;
Ġcon serv
; "
Ġbuild er
Ġhigh light
Not Null
D el
Ġredu ced
Ġabsol ute
Ġcol lege
{ $
Prot ocol
lo ok
At tributes
ut er
Ġcom ments
gr ade
Ġsur round
est ion
Ġmin or
Ġgu itar
k in
ĠFl orida
=" "
istr ation
Ġd ataset
nap shot
Ġl if
Ġn g
ĠRuss ia
ist ent
ĠO ption
Ġess ential
Ġneigh bor
Ġblock s
ge les
c b
Ġe arn
Gener ic
ĠTO DO
ĠB ank
Iter ator
enumer ate
Ġcoll abor
Ġprot ect
Ġmag netic
ĠDirect or
ĠFor ce
Ġp m
am er
Ġwas n
und red
ĠPar is
ĠIt alian
t otal
ri z
ĠN ode
Ġredu ce
ar ation
ĠH istor
12 8
Ġc li
Ġw ild
) ).
h ome
Ġgener ation
Ġe lem
are t
at ible
I B
ack et
ĠF ilm
urre d
198 8
ac count
A uthor
ĠGe org
k o
ĠĠĠĠĠĠĠĠĠĠĠĠĠĠĠĠĠĠĠĠĠĠĠĠĠĠĠĠĠĠĠĠ ĠĠĠĠĠĠĠĠĠĠĠ
tool s
oc ation
Ġm otion
Ġany one
b u
S cale
j i
n y
ĠE ducation
d eg
Ġbro ther
Ġr ad
ul y
Select or
Y ear
ĠU N
Ġs al
im a
are a
ĠOff ice
Ġrem ember
H R
Ġa mb
ĠG a
l imit
Ġbr anch
ĠCommit tee
Ġcompet ition
Ġ= ========
h ere
Ġpl ans
ĠF unction
ĠW ill
is hes
Trans form
P i
12 3
ock er
ĠP an
ĠG l
J ava
ĠCh ild
Ġ{ '
En c
hand ler
m o
| ^
ertific ate
Ġsh oot
Ġfound ed
j pg
Ġt ab
BU G
ol k
Ġe lected
' d
ig an
p a
ir ls
Ġl atter
ential s
ĠS O
'] )
Ġcar ry
res et
riter ia
m iss
Ġmet ric
ĠC ast
Ġre ports
ym pt
h idden
on ym
( {\
ĠAn geles
15 0
m en
In v
Ġun iform
Ġb attle
no indent
ĠUp date
Ġpart ners
pos es
Ġin ner
) }{
Ġenc oding
Ġvis ual
Ġas pect
T erm
Mem bers
ch annel
Con str
ud get
cent r
Ġs ch
Ġrele vant
ĠE arth
C lose
ĠB ur
En um
R AN
Ġvis ible
Des c
ed itor
if ul
Ġlet ter
un ched
Ġpass word
e ach
Ġf elt
v space
Ġbu y
he ast
ĠAr ts
Ġcap acity
Ġsuff icient
Ġshow ed
Ġar m
i h
Ġp ages
Ġ" "
Pl ugin
j ar
Ad apter
r ine
Ġbuild ings
Ġapprop riate
) ">
ang ing
ĠI reland
S QL
ĠC le
Ġelect ric
Ġpol y
Ġar bitr
Ġch osen
Ġread y
F ull
", "
P ub
S uccess
ĠP et
Ġint eg
Ġdig ital
Ġcompar ison
z one
Ġdr iver
Ġmention ed
P anel
ĠV ictor
w er
Ġag reement
it ness
ĠO ld
Ġtr ust
Pro file
Ġp iece
ĠM ur
Ġf arm
Ġhand s
Ġcon sequ
ĠA ust
ĠL in
To String
Ġfour th
f ail
are n
oth ing
Ġre tr
P erson
Ġd u
) "
Ġlead s
Ġw ind
Ġvert ex
} '
typed ef
hes is
Ġocc ur
Ġhe avy
ĠF re
ĠR ail
ens ed
UT F
Ġprocess es
ful ly
Ġa xis
ĠO h
ĠIt s
Ġbroad cast
ĠCh icago
ĠCon fig
ĠJ un
Ġa ircraft
Ġal gebra
P ublic
ĠB rown
Ġfact ors
ĠSc ot
ĠSec ret
eta iled
Ġ io
Ġdep art
Ġpl ane
$ _
her ited
Ġr ates
t mp
Ġas ync
Ġalbum s
Pr int
L java
n orm
ĠT ra
est s
erv ed
', '
ĠB u
ĠE ach
by tes
T A
Ġnot ice
config uration
in os
ĠS ol
-> _
Ġ ip
Ġv ote
ĠF estival
Ġspect rum
L a
G raph
i en
z ero
art icle
cal led
Ġla unch
li e
Ġset up
Ġsh ift
ĠK n
S ection
ov ing
math scr
Ke ys
ã Ģ
M I
ist ers
cre d
hen s
Ġpl ays
Run time
ON E
å ı
sw itch
com ponents
yn omial
operator name
ut ch
Ġnetwork s
Ġth r
sum er
get Element
Ġp oll
w a
it ors
Ġsup p
Ġin valid
il ation
v s
ven ue
ex ternal
Ġtr igger
ac le
IP T
Ġdown load
ĠTe am
Ġin form
ĠT ask
ĠL ibrary
Ġ( _
P lay
Ġ Ø
ĠD ev
$ }
Ġs egment
b rowser
w ild
ap ers
Ġprov iding
Ġident ified
S ER
test s
atur day
Ã ¨
Ġ eth
ĠAl though
Ġfore ign
v a
ar ian
bl ue
N ULL
al o
Ġ ul
Ġemb edd
P ay
Rep ository
âĢĿ .
Par se
iter ator
ĠS ocial
Ġdev ices
Ġcomput e
he m
Aut o
Ġim plements
par a
Ġder ived
1 20
op l
ĠF acebook
Ġoriginal ly
Ġmajor ity
p an
con tains
ĠD evelopment
Ġcons ists
app ly
ax is
ĠB ack
Ġoper ators
ST AT
Ġappoint ed
D uration
ele ase
Ġveloc ity
Ġinflu ence
Ġlaw s
ĠĠĠĠĠĠĠĠĠĠĠĠĠĠĠĠĠĠĠĠĠĠĠĠĠĠĠĠĠĠĠĠ ĠĠĠĠĠĠĠĠĠĠĠĠĠĠĠĠĠĠĠĠĠĠĠĠĠĠĠĠĠĠĠĠ
Ġass ess
id x
> :
c ient
Ġm ill
ce an
U LE
C RE
det ails
Ġh op
Ġb re
raz il
Ġ" ,
198 7
Ġ ×
Ġqu arter
Ġ" <
ĠV AL
min us
Pro xy
ĠMart in
ev al
ov a
Ġc ru
pl atform
Ġen able
ab y
: \
p ower
met adata
ĠF ree
u ages
Ġf ine
ĠAn y
G lobal
if ically
Ġres olution
Ġmap s
Ġdes c
Ġdep th
Ġdepend s
ĠJ ava
X ML
ĠB re
Ġm ission
ic ies
Ġref lect
Ġcandid ate
Ġd raft
ĠT our
Ġb rief
ĠE qu
[ $
ĠAir port
r f
param eters
Ġon to
}} _
F ailed
Ġinter action
J ohn
Ġsit es
Ġcomp are
Ġnot ed
ag raph
at i
Ġsm ooth
Wh ile
t ers
ĠP oint
Ġf irm
) }$
Ġsecond s
ĠIO Exception
F il
Ġc at
stit ution
Ġ ut
Ġlook s
clus ive
Ġj oint
Ġsp read
Ġl ib
Det ails
ĠSp anish
Ġindividual s
g reen
ĠS ervices
ĠĠĠĠĠĠĠĠĠĠĠĠĠĠĠĠ ĠĠĠĠĠĠĠĠĠĠĠĠĠ
198 6
Ġhapp en
$ /
ro ke
it o
Ġdr ive
Ġh ar
Ġs quare
Ġex port
Ġb log
Ġb inary
ĠH ome
M at
\ ,\
Ġoption al
ĠD C
I ST
Ġrespons ible
ĠMan agement
ĠA ction
ĠD om
Ġopport unity
Ġ( -
Ġcrit ic
Ġin fin
Ġp le
Ġen abled
Ġxml ns
m ut
sub s
Ġd oub
d p
er g
ex ists
Ab stract
Ġwh om
B rowser
G en
~ $
Ġclass ical
Ġm ixed
Ġinst alled
Comm on
D ouble
i ro
ri age
M ed
ĠSum mer
Ġse a
ell er
B E
Ġb rowser
Ġw ood
Fe ature
Ġr g
nav List
ĠCath olic
Ġf ans
Ġpr im
Back ground
Ġapprox imately
ĠP enn
Ġcall ing
Ġapp end
ĠJ ud
x s
S ome
Ġhy per
ch or
198 5
Ġe igen
ore t
Ñ ı
D est
Ġb lood
ĠL ove
\ }$
S ample
198 4
Ġtool s
Ġestim ated
Ġw id
ĠP aram
Ġch ance
ach ment
ic ine
F S
Ġp ull
Ġre q
ĠM a
Ġdel ay
Ġconf lic
il ing
under line
ĠEn ter
in ations
IN D
Ġdis k
ĠComm un
Ġh ol
Ġg irl
ĠWindow s
Ġsign ature
ĠR et
r andom
Vari able
ar c
C ap
Ġf n
Ġv an
Ġsp aces
Ġsaf ety
ĠP M
S pace
ĠSt at
Ġhe ard
d ialog
ap es
Ġdiscuss ed
Ġmost ly
Ġsa fe
ard en
ic ations
est er
Ġold er
Ġs ociety
F R
p at
anc ing
Ġp an
ĠHen ry
Ġn ation
S che
Ġw ave
ĠFoot ball
se ud
V ideo
u z
Sc roll
Ġcl oud
as is
Ġtrans l
Ġvert ical
Ġa im
Reg ister
Ġview s
ult s
ĠM ain
I A
st orage
M apping
IC E
get Name
Ġpo inter
File s
Ġe yes
F ail
ĠAr ab
cl aim
h ide
Po inter
r ich
Ġthem e
sk i
Ġmag n
Ġac adem
Ġdes pite
Ġprocess ing
Ġnav igation
o les
ĠJ im
RE AD
con n
Ġf le
Pro duct
pro ps
ĠL ee
N T
Ġder iv
Ġth ous
ars ed
Ġf if
ici ency
ay lor
Ġcontr ast
Ġsp irit
Ġw at
ĠB O
M ay
ĠT H
Ġpre m
F IG
Ġann ual
Ġtr aff
FF FF
Ġst ations
ĠG ets
Ġdise ase
ĠA S
ĠVirgin ia
b el
ĠĠĠĠĠĠĠĠĠĠĠĠĠĠĠĠ ĠĠĠĠĠĠĠĠĠĠ
Ġadv ant
Ġv oc
Ġal one
Ġra ised
Ġresp ond
Ġtype of
Ġgr id
Ġw rap
H ome
as ion
Ġl ab
LE CT
H igh
Ġcommun ities
ac ro
ĠCent re
}} ,
ĠHe ad
F unc
Ġre con
n el
text tt
Ġshow ing
ĠMex ico
ri ze
ĠIn formation
t body
ĠYou ng
exec ute
Ġsp ot
Ġexp ansion
if fer
prot ected
R oute
iv ery
os is
ograph ic
Ġmur der
anc er
Ġre ject
ĠSund ay
ĠP age
ĠL and
eff ect
%% %%
Ġenc our
A re
- $
ĠOn ly
Ġen h
pro d
ĠL i
Ġmor ning
f ound
sh adow
Ġag reed
ĠVal ley
Ġc os
Col lections
ĠE li
mult icol
ĠSt art
child ren
ĠIn itial
Ġ\ (
O pt
F LA
Ġunderst anding
ĠHam ilton
W orld
P y
Ġsy nt
Ġsus p
Ġgo als
( __
ĠP ower
Ġre ader
ĠCopy right
_ (
Ġ= ======
t ags
b ut
ook ie
ĠO l
Ġserv e
Ġph one
ash ion
ĠS pec
ĠH ash
u ations
L ayer
Ex ample
st anding
Ġcomb ined
ĠA wards
ĠM ult
Ġ _{
}} }
J S
H S
ĠIr an
Ġ? >
ĠP ath
ĠW ell
f ire
Ġro ll
Select ed
ir a
ĠPar liament
Rem ove
Ġliter ature
Ġre place
ĠL android
=" ${
Ġend ed
Ġfeature d
Pro ps
Ġtask s
Ġdist inct
im inal
ĠT re
multicol umn
Ġext rem
ĠF urther
head ers
< \
Ġac com
press ed
Ġal leg
all classes
ĉĉĉĉ ĉĉĉĉĉ
coll apse
od d
col Last
ad or
D T
Ġrequest s
Ġm enu
Ġob vious
st one
Ġcon centr
i ate
ĠW ood
at tributes
Const ants
Ġtr a
prov ider
Ġwork ers
IV E
B P
g est
ian a
col lection
s ingle
S Y
Ġfl at
ad ium
Ġd at
Ġr aw
-------- ----
W rapper
Ġm ys
Ġ ðŁ
Ġhe nce
Ġmod ified
s ince
Text ure
iz able
Ġsize of
ĠAt l
ĠM il
? >
Ġph il
iv ial
go ing
m utable
Ġm obile
p refix
form ance
S ocket
The se
Ġcomb ination
ĠB ob
ĠInd ex
dep th
pre v
ĠP ass
Ġr adius
Ġmaterial s
Ġcur ve
Go ogle
u er
n il
aw n
det ail
he mat
Ġo k
How ever
ĠTechn ology
Ġman aged
ian o
Ġcre ation
Ġwin ning
A F
N OT
ish op
l ig
Ġh undred
ĠP ac
col First
el a
Ġa udio
aj ax
Ġco ast
I MP
oc aml
ĠJ o
S ync
wrap per
ĠI l
j ango
s he
m ask
19 50
Ġag ree
Ġ[ "
it an
b ot
pect ive
prot ocol
ĠA uthor
Ġp p
Ġdet ection
Ġw all
comp iler
ĠG lobal
M T
Ġo il
S ingle
ĠH aw
A rea
Ġad apt
ic ed
Ġab stract
ier arch
end or
ff ff
c hen
serv ices
Ġthe orem
ĠS pecial
Ġstr ateg
Ġsignificant ly
Ġed ges
Ġgrow ing
Ġin tr
ĠL ink
b its
ĠE lect
Ġsum mary
Eng ine
C ategory
Ġdiscuss ion
z en
s pecial
Ġch art
ĠIt aly
pos s
Ag ent
The y
ĠM P
Ġfact ory
n eg
l ow
Ġcolumn s
198 3
Ġcle arly
Ġm ask
pl ot
25 0
ĠSw ed
Ġtr uth
Ġpr ison
Ġf ill
Ġident ify
f d
Ġconstruct or
li br
Ġre asons
ĠRe port
ĠPol icy
par ser
ivers al
Ġobserv ations
k ins
At tr
Ġcent re
ĠP op
U SE
w hen
Ġact or
r uby
IT E
ĠRes ource
Ġrem ained
Ġfor ced
os oph
Ġent ered
Ġposition s
g ame
ĠRequ est
D epend
ĠInt eger
up s
Ġque ue
AL SE
Ġan gle
fil ename
d one
Ġ ice
T ags
Ġconsist ent
ate way
Ġcl in
att ice
Ġadd ing
sv g
Ġ$\ {
Ù Ħ
Ġd og
V M
m aven
Ident ifier
Ġc tx
pro gress
Ġconstr aints
ĠK ar
et ween
mult i
">< !--
ĠRe act
ust rial
ck now
Ġ[ ],
Ġw ants
ĠCh ief
pl us
ro le
g ers
ĠE ven
T x
side bar
Ġcar ried
Ġ{ {
j e
r ick
TEX T
Ġch ief
Ġed ition
Ġmatch ing
Ġla unched
Ġp ert
Ġvers ions
um s
Ġlog ger
Ġop in
Ġex change
Sim ple
= #
Ġt x
ĠIm age
ĠM icrosoft
ĠA M
O B
P refix
Ġcon vert
ĠAs ia
ak a
ĠM ov
Ġar rest
L L
Ġj Query
us band
het ic
pe ople
en abled
Ġf ederal
m ann
t w
ell o
M OD
Ġcommun ication
Ġ" -
Ġhelp ed
gorith ms
Ġc amera
F ind
Ġtyp ically
in ant
omet ric
em y
198 2
build er
err ors
Re port
Ġr ing
}^{ -
am m
un ct
word s
Char acter
O UT
ĠA mazon
Ġfl ags
Ġs ales
Ġkn ew
equ ence
Ġl icense
ĠD own
C red
Ġauth ors
in et
< !
Tr ace
Ġs qu
Ġstart s
ĠThe ir
Ġstreng th
Ġform ation
Ġform ula
w all
: #
pe ar
A CT
6 00
Ġl ayout
ĠFr iday
ĠM ake
ch ain
Ġlead ers
33 33
user name
ele ted
Ġm unicip
Com par
Ġke pt
h om
IG HT
Ġr are
ell ar
Ġmet adata
il arly
Ġcan cer
Ġeffort s
Ġpro ceed
Com ment
Ġco q
Ġcl imate
ĠS ar
ex pect
Ġtri al
Ġc itiz
oc key
Ġslight ly
ĠW AR
ĠEx t
f ix
Ġk ing
tr m
Ġcomp act
Ġinterest ed
(' .
Ġpartic le
Ġle aving
Ġst ock
D em
Ġread only
el come
Ġth erm
N odes
Ġ\ ;
am az
ellig ence
Ð ´
Ġmeasure d
Ġnull ptr
Ġcal c
ĠE con
ĠĠĠĠĠĠĠĠĠĠĠĠĠĠĠĠ Ċ
Ġtri ed
ĠL ocal
ser ial
ĠS aturday
ĠCarol ina
ĠM iddle
() </
sh ared
j unit
aly t
lim its
Ġexist ence
log in
n n
us ers
ĠG i
Ġcontrib ution
ad r
h ar
en able
dec l
. ");
) |
Ġpol ynomial
oper ation
H ER
sp irit
tex trm
Ġb illion
ad ing
.... ....
Ġaccur acy
ĠDes ign
á ĥ
Ġexper iments
Ġcost s
B AR
ou ter
ĠM os
up lic
Ġre ct
ĠF ort
Ġn p
ĠC ross
ĠJ ones
w riter
Ġad just
sw arm
p u
Ġp icture
if iers
cle an
% ,
IN FO
b ury
Ġcont roller
b x
tem p
ond ay
197 9
Ġp refix
gener ated
Ab out
ĠĠĠĠĠĠĠĠĠĠĠĠĠĠĠĠ ĠĠĠĠĠĠĠĠĠĠĠĠ
Ġc ool
ĠAnd roid
res ources
Head ers
Ġhe ar
ec es
p attern
Ġpart ies
UR I
Ġbecom ing
Ġat tract
st able
ĠIs lam
Ġwe ap
\ '
Ġt ensor
ĠE very
k l
or iginal
ĠI E
Ġpower ful
p icture
ĠM essage
s el
8 00
Pass word
Ġaltern ative
Ġgu arant
ĠC ard
ĠT ri
Pro gress
Ġh our
G ame
Ġal umni
rop y
Ġappear ance
Ġclaim s
Ġdiv ision
Date Time
du led
subset eq
wild fly
ĠOlymp ics
por ation
sign ature
plic ations
s ys
Reg istry
Ġent ries
foot note
D P
Ġeff icient
ct rine
Hel p
ar ia
nd ef
Ġm olec
ĠN av
The ta
Ġstr ings
Ġsuccessful ly
Ġis land
Ġga uge
ĠN AME
ĠE p
L INE
y er
clud ed
Ġlist en
Ġver ify
Ġu i
Ġl ic
Ġide as
oun try
Ġaward ed
Ġex it
ĠII I
Ġs ector
ĠBl ue
Ġcover ed
Ġarchitect ure
Ä ģ
p et
Con dition
Ġen v
Ġg overn
ĠL ord
Ġdi agram
ĠL iber
en ch
O ST
ĠComm unity
C G
Ġautom atically
ĠSec urity
Ġoffer ed
fe ature
Ġfl ux
ĠH a
Ġw onder
un ique
W N
Ġsur vey
Ġspe ak
) ->
Ġh uge
Gener ator
Ġmus ical
ĠPl an
por ate
Stat ement
Ġt al
P U
Cl uster
Ġproced ure
Sum mary
n amed
al ing
lo op
P layer
T wo
ew idth
iss ues
; }
ĠS I
> ::
âĢĿ ,
Ġ' <
Ġpart ner
lyph icon
Ġp ure
w orld
T otal
st ein
b rief
Ġst ored
Ġsh op
Ġcy cle
ĠT R
up load
ĠW al
{ %
Ġp i
Ġp aid
od ies
E V
ĠB razil
ys ical
Ġexperiment al
ra wn
CE SS
for ward
ag ent
h ow
Ġa ware
HT TP
Ġt or
(' #
Ġ{ "
Ġaff ect
Ġbehav i
Ġrem ote
comm it
n am
Ġmin im
ĠHT TP
not es
Ġex cit
M icrosoft
w p
IT ION
Ġindic ates
Sh ape
ident ifier
w an
cd n
play er
Ġtechn iques
f old
ex pr
198 1
rodu ction
Ġe q
Reg ion
ĠJohn son
es ome
Ġhouse hold
ĠS aint
Ġhapp ened
Ġpartic les
âĢ ĺ
Ġsen ior
Ġso ft
ĠE mp
Ġinit i
s afe
ĠT witter
C F
Ġin come
Ġoffic er
Ġwrit ers
f c
Ġinter val
Res ources
Ġhead ers
Ġconstruct ed
Ġf lex
ap os
rior ity
ĠB oth
Ġexec ution
at ar
t c
ĠJ ac
Ġsk ip
ig ital
Ġcom pl
Im port
% )
ner gy
Ġrel atively
Ġr an
al g
r ate
Ġf ru
Ġd etailed
pl an
EE EE
Ġfam ous
Ġmay be
Ġcont ained
ĠP RO
Ġmon itor
Ġtr ail
Ġstr ugg
Î ±
Ġmeas ures
ĠC y
ĠH ttp
ĠW ales
Ġmet al
ĠS ports
B ound
"" "
Ġlook ed
Ġcalcul ated
Ġrequire ments
Ġdynam ic
p erson
ĠIr ish
if old
Ġp od
ov iet
S ort
Ġl ived
ĠEx ample
us form
numer usform
Ġsc ored
TR UE
D elegate
index Of
Ġp il
ĠM i
ur er
Ġchar set
ĠC A
set minus
ĠD O
ĠJose ph
ĠW eek
ĠB ow
Ġ ],
ĠOr iginal
Ġfore st
U ri
Ġbr and
ĠR adio
is er
h ref
Ġrelig ious
Ġ" $
Ġb oy
ĠW ay
S election
spring framework
Ġr ac
RE S
Ġf loor
Ġf ish
Ġad j
ĠA ccess
197 6
f ast
ĠG al
str a
; ">
' ));
x html
Ġfin ish
l ife
R C
TI ME
Ġdam age
own er
is c
ĠL ab
ĠP ak
Ø ±
S M
Ġtraff ic
Ġpair s
ĠT ele
R T
ĠH uman
Ã £
ĠE r
imit ive
Sk ip
test ing
Ġpo et
Ġocc urs
Ġdo or
Ġ il
c ircle
ĠCon ference
align ed
Ġ ..
ost on
Ġass igned
197 8
Ġr iver
ry st
Ġin nov
Ġprop ag
pt on
f ixed
Ġsh ut
å Ī
em on
as ync
Ġdet ect
Ġd ict
Ġh usband
}} _{
ĠW he
medi ate
1 10
opl us
Ġh ospital
Sec ond
G O
Ġocc urred
Ġtrack s
ĠU I
F in
PO ST
ess ions
Inst all
t wo
ual ity
Ġpol ar
stru ctions
ĠB ul
Ġform al
if i
d y
ĠA ff
Ġdec om
ĠSt e
Ġst uff
ĠSup port
Ġsc atter
ĠâĢ ¦
r ical
ĠNor thern
th row
Ġach iev
Ġsing er
ĠCol umb
re port
f i
ĠâĢ ¢
ur ies
u v
B B
Ġst ress
av or
ide os
f ol
Ġp hen
ĠK h
ĠW ed
L anguage
DE FAULT
Ġvert ices
Ġle tt
check box
=" $
Ġarbitr ary
ĠA re
Ġfind ing
Ġfore ach
Ġsu c
amaz on
Ġfootball ers
Ð ²
Ġown ed
it age
ĠS and
CT YPE
Ġl at
ĠJew ish
ĠM any
Ġb ill
on ical
W allet
Ġo dd
. <
Mult i
Ġr ise
R ole
Ġper haps
Sh ort
ust ers
il a
Ġr u
ST ATE
St ats
van ia
ĠV ari
Ġdynam ics
ĠW ild
ĠC a
ul f
ĠPro cess
urb an
Ġhistor ical
Ġrap id
Ñ Į
Ġme ant
Ġm iles
equ ality
ament al
ex tern
Ġsom ew
ust ain
Ġc ities
Sub s
and on
ĠW ater
Ġsup ply
ĠCol lection
Ġ$ |
r ift
Ġpart ition
Ġth reshold
in valid
m ir
M er
fl ag
Ġart icles
Ġad vert
pl ates
n odes
Ġlabel s
Fig ure
e a
Ġincre ases
B ind
requ ired
time out
ĠSp ain
Ġchall enge
Ġto ward
Con n
Ġv ac
Ġrefer red
d iff
d c
ĠS QL
197 2
w arning
ch er
197 5
v ideo
Ġcomput ed
Ġtem p
Ġpl us
Vis ible
Ġd uration
Ġstud io
m ond
Ñ ĭ
(' /
Ġorgan izations
gy pt
' }
^ ^
ER S
Ġprodu cer
ĠAp ple
Ġpro xy
Ġor ient
Id s
iv ation
Ġcont em
Ġ rows
Ġexpress ed
Acc ording
Ġopt imal
ĠC are
ĉ ĠĠĠĠĠ
Ġoper ating
Ġach ieve
Be an
Ġ ).
^{ -\
ä »
Ġl ands
Ġint ended
Ġcontin ues
197 7
Ġregard ing
197 4
Ġcon nections
Ġsymmet ry
li k
LO CK
sub figure
C M
if def
Ġdiffer ences
ĠLO G
ĠE lement
Ġscal ar
Ġallow ing
Ġk ill
Ġapp arent
ĠC ustom
um my
ID TH
Ġveh icle
Ġnumer ous
bl ank
R R
Ġcould n
F ORM
ĠC H
Ġbound ed
ĠJ on
EEEE FF
Ġfra ction
Ġs ph
E ST
lin ewidth
co res
as i
ĠS ource
o es
Ġdep artment
ĠH on
ĠSo ftware
ĠL ead
pl er
ans as
Ġtime out
Ġregister ed
group s
Ġrepresent ing
Ġindic ate
Encod ed
ĠS ir
Ġa f
c uss
D uring
ab out
Ġbal ance
our se
ĠT w
Ġmed al
P Y
es ian
Ġf ear
n ic
m oz
s ocket
Ġlist ener
Ġreve aled
Ġa w
st o
Ġm apping
ĠL ight
Ġtrans late
ĠF amily
ĠC EL
il ly
... </
DO CTYPE
mon th
B ook
ĠBrit ain
Î ¿
Ġsp an
ĠN ight
und efined
Ġprov ider
s en
Ġst able
or ial
Ġsuc ceed
ĠChrist mas
Not es
Event Listener
Ġd ie
Ð ¼
ĠArray List
eng er
Ġhe at
Ġst reet
in ity
og en
Ġcult ural
Us ing
Ġp et
L C
Ġinitial ly
Ġ( $\
En ter
ĠM en
St op
ĠH y
as sembly
c ases
ĠD ocument
ĠR est
n p
Ġrg ba
Ġd ream
Ġs un
M ask
E q
Ġc md
\ }
ict ures
ĠWilli ams
Ġn ine
Ġpro pos
Ġimplement ed
Ġcon vers
Ġval ign
ĠN avy
od ec
Ġbe at
Ġsp atial
ist ed
ĠW all
Ġaud ience
Ġfe et
Å ¡
196 8
Ġsupport s
ul ator
Frame work
am pling
ĠL ast
Ġre ality
Ġfl ight
Com ple
197 3
Dom ain
Gener ated
ĠT aylor
ĠG re
Ġem ission
Ġd ebug
ĠComm and
M ath
Ġd aily
p icker
our ney
ap y
ud a
E mail
_ *
Ġdr ink
Ġtop ic
Ġpar ser
Ġs ell
RE Q
F urther
Ġattack s
urs day
Ġdis abled
iter al
Ġmain ly
Ġw arn
Ġc ircle
ĠS ign
ult y
ist ence
ab eth
air man
uck y
() ))
' \
ack s
aw a
k ens
ĠB ecause
ĠS E
Ġnew sp
» ¿
Ar ch
C ast
ĠS outhern
c ert
Ġl ies
um es
Ġch annels
Ġb asketball
( @
ut s
con sole
Ġorder ed
Ġrest aur
Ġsatisf ies
Ä ĩ
ph y
ĠVal id
id el
Ġmoment um
am in
ĠRe al
ï »¿
Ġf iction
Fl ag
Ġ( [
b log
ĠCont rol
NavBar Font
Ġb right
Ġsem i
Ġb urn
Ġb ind
S m
INT ER
enn is
ĠB lock
Ġbeaut iful
^ -
Ġs outhern
ĠPro perty
Ġ ult
Ġdiscover ed
DE BUG
Fr agment
Ġconf irm
b ro
Return s
Ã£ o
Fl ow
Sy ntax
Ġa head
Ġcustom ers
Ġequip ment
Ġaccept ed
ĠF I
Ġcomm ission
Ġinst ances
w edge
/ "
Ġ ens
ĠFrancis co
sy l
Ġj ump
Ġass ign
sim ple
ĠC oll
ĠS earch
B est
Ġmeasure ments
Ġp urs
ĠScot land
Ġf an
Ġt ournament
ath an
m c
k et
Ġcon ference
d agger
ĠV ector
Ġappro aches
py thon
N amespace
Ġloc ations
ĠDemocr atic
r g
Ġ$ [
ff ect
Ġassum ed
ĠSen ate
Ġd anger
ĠM ot
Ġle aves
or al
Ġv ary
B I
l an
Ġdest ination
'] ['
Ġw ish
ĠJ oe
Ġnot es
ĠK en
Ġbo ost
u ce
Ġcorrespond s
Ġr ich
Ġdoc uments
b g
Ġex tr
view s
r im
Ġatt end
Ġk ids
ĠAb out
" ],
Ġexpl an
Ġin struction
_ +
Ġthink ing
Ġse ctions
_{ (
print ln
down load
Ġd ialog
ird s
t or
r ices
? "
ĠF ire
Ġmass ive
ag ers
ĠH or
s n
L in
Ġgalax ies
V D
Ġinterpre t
EN SE
ĠH ence
Ġel im
Ġcon vention
Ġmark ed
Ġg ain
Ġsc roll
ĠAnd rew
u um
ĠOr gan
ĠM ike
M iss
Pro gram
W rit
cl uster
Ġreserv ed
Ġan imation
Ġpro ps
10 1
or row
ĠĠĠĠĠĠĠĠĠĠĠĠĠĠĠĠ ĠĠĠĠĠĠĠĠĠĠĠĠĠĠ
S ervices
ult ural
h ab
Ġdocument ation
Ġrecord ing
ĠThe atre
Inter val
Ġz one
un ities
L ook
ot on
Ġtransp arent
Ġadvant age
face book
ix els
Ġl abor
com plete
Ġmechan ism
ĠPac ific
Ġc ars
p ull
l arge
un te
ĠUs ing
w ater
ble m
en ant
Method s
Ġm d
lo ader
check ed
el i
Ġnor thern
ues day
tr ace
Ġcontrib utions
R PC
Ġh ers
ĠAN Y
ĠQue en
Ġp al
s a
f x
h ard
Ġus age
ĠL uc
Ġph oto
D ictionary
Ġf resh
Ġg ap
V ir
Ġpl anning
Ġapprox imation
ĠN AV
12 5
Ġach ieved
ĠL y
Ġ ];
ĠW alk
ĠR ights
Ġfocus ed
Ġ} \
ĠM id
og y
Ġear th
æ ľ
un a
ĠPol ice
Ġc row
Gener al
! "
e per
Ġt rib
N ative
ĠCh ris
ĠE ND
Ġse at
m ouse
Ġsm art
ĠR o
Ġign ore
ch a
Ġmult ip
E arly
Ġcapt ure
Ġtre nd
ic ients
Ġtrans formation
* {
W R
Not ification
Ðµ Ð½
Ġt end
' _
az y
Eng lish
ĠJer sey
ĠU kr
n i
Ġmag azine
Ġclaim ed
S cal
Ġis ol
Ġf lo
j d
res olve
ĠC ivil
Ġpar allel
197 1
P air
Ġprote ction
ate ver
Ġsk ills
Ġall Classes
Ġ$ $
ord ers
Ġid x
ion e
196 9
t ar
ĠComm on
æ ĸ
F E
S K
Ġbenef it
Ġlearn ed
ĠSe a
syl vania
ĠMed ical
ĠJack son
Ġchang ing
ĠP rem
Ġstat istics
ĠallClasses Link
PRO JECT
An imation
Ġcor ner
L en
J oin
ĠA SSERT
Ġturn s
S ur
pol y
Ġtechn ical
ĠR am
Ġth er
select or
Ġpl ugin
u ite
: `
A ng
Ġend s
ok ed
reate st
Ġap pre
Ġsecond ary
ĠB ern
Child ren
lip se
Ġpolitic ian
p air
Ġcan cel
Ġtyp ical
ilt ers
Ġcred it
VAL UE
Ġrecomm end
ĠS ong
Ġ ^
ra structure
Ġofficial s
SE LECT
el d
am ps
Ġc ounty
Ġtr ace
Ġjob s
Ġh ydro
Ġf reedom
P ER
Cl oud
ĠJ eff
F ree
og ram
Ġ> >>
En umer
. ",
P M
Ġnumer ical
b c
ĠJ es
f lex
Ġbr ain
Ġvict ory
ĠIn ternet
op ed
/ _
est ic
ĠR os
ĠBo olean
Ġar my
ĠMus lim
Ġinst ant
18 0
Ġres idents
ent h
Ġun iversity
Ġecon omy
cl one
Ġfr ag
ad el
Ġexec ute
En vironment
Ġcoordin ates
Ġext end
ĠW ho
Ġded icated
Ù Ĩ
ra q
option al
ab il
Element s
ĠF und
; )
h u
Ġse ed
ĠR ay
ĠGeorg ia
trans ition
Ġcon figure
Ġcol on
oll ary
Ġinvest igation
Ġdepend ing
Ġse asons
Ġpath s
Ġcorre lation
Ġs ister
D ay
Ġatt ended
Cont act
ĠCo ast
im ated
or ient
Ġres olve
Ġen um
Ġfe at
ver b
Ġb ed
ĠC amb
ĠG reek
Ġtrans lation
p ag
ug by
Ġspec ify
ĠMore over
ĠT ro
Ġbound s
Ġconf irmed
Ġr at
or ough
att ers
Ġiss ued
2 13
Ġnu clear
support ed
e z
t k
id ae
high light
ĠP lease
pro du
ĠIn put
S equence
ĠE nt
ĠL ittle
196 7
Requ ired
w atch
Ġb uf
Ġspe ech
Ġsim ulation
SC R
Ġpat ient
ĠF ar
ched uler
v in
on al
Ġtyp ename
object s
Ġhapp ens
b as
Ġal gorithms
Ġoffic ers
nes day
Ġt sd
Ġg ather
ĠM onday
ĠN et
u zz
Re al
Ġclass ification
ĠL im
Ġmod es
burg h
o ir
ĠM ajor
MOD ULE
Ġdr iving
m ic
Ġg one
Ġintrodu ce
z ure
ist ical
Ġanaly t
Ġf re
Ġadministr ation
VAL ID
Ġconduct ed
if ndef
Ġtre es
ĠB as
s es
Ġcont ents
ĠF ind
is a
ĠDan iel
Ad min
Ġdr ama
Ġimport ance
Ġact ress
ass andra
ron ic
Ġdef ense
Ġp sych
c li
am el
pe at
U D
on to
Ġassert That
Ġmot or
D ATA
at omic
CO MP
ĠN on
ĠV an
ĠF ROM
ĠS pace
(" /
Ġtell s
Ġex cell
ĠL ive
ĠEmp ire
Ġm eta
sk y
C apt
Q U
Ġsuggest ed
C are
Ġdem and
ĠSt andard
B egin
ĠB attle
Ġ| \
Ġapplic able
Ġposs ibly
US ER
M any
Ġprov ed
AN CE
ĠGu ide
per iment
Comp at
D ev
Ġag greg
Ġassum ption
Ġth ick
Ġb udget
Ġl attice
Ã ±
ĠCon f
hel per
Ġplan et
T T
R S
ĠW in
Ġt mp
ĠL ie
19 40
Ġexpl ain
Ġs port
f riend
V olume
ĠN E
z ip
Ġspect ral
if er
in ator
Ġpur poses
Ġ\ "
à ¥
ĠL u
'] ;
g i
ext ension
) _{
à ¸
C B
on ce
Ġinteg ral
Ġk ernel
Con s
Ġtr ained
ay a
Vert ex
ap is
r ad
Ġs chema
Ġbel ieved
iss ue
y y
ĠN ext
T ra
se x
run time
M ouse
ME TH
Ġe ye
Ġb in
Ġcandid ates
pro xy
Pr ivate
Ġw arm
r an
tain ed
c are
ing ly
ĠB ad
ĠP H
Ġdeg rees
ĠB oston
I gn
V E
fl at
Ġin equality
us hed
f actory
Ġcons ult
Ġfr agment
ĠO x
{ "
Ġ' \
d ependent
m osph
Ġpol icies
ĠCar l
on om
Ġcou pling
Ġshe ll
Ġcover age
Ġch ampionship
vis ible
ib li
re lease
Ï Ħ
set up
cre ens
Ġcr ime
Ġtalk ing
Å į
S ave
Ġbeg ins
Ġa x
ĠJust ice
Ġexp anded
ev in
Ĥ ¬
Ġinstr ument
D iv
Ġlist ing
Exec ution
ĠN Y
ĠM ic
ĠMich igan
se g
H z
AN T
Ġbr idge
RE G
Ġf ellow
App end
D b
big g
put er
ino is
an imation
get Value
h l
N amed
" ].
ĠÐ ¿
19 45
Ġcoun cil
Ġvoc als
Ġs ides
ĠSI ZE
Ġinter actions
em pt
19 64
che ster
ar se
Ġconstr aint
Ġdec ay
ist ing
poss ible
Ġord ers
ĠJ r
s pe
ĠNAV BAR
ĠC ro
Û Į
ile vel
V ID
Ġrefer ences
Ġphot ograph
ĠM ah
Ġpass ing
ĠM u
ĠOh io
ĠE gypt
Ġlang uages
Ġredu ction
å ®
Sh ould
U nder
Ġserv ing
b asic
Ġimprov ed
Ġ' '
M ake
Ġro ugh
ug s
Ġmeasure ment
} %
ĠAs ian
Ġs yn
00 1
OR TED
ĠL ike
ĠSt an
Ġregion al
omorph ism
Ġc ursor
Ġchem ical
ĠH arr
Ù ħ
Ġtw ice
% "
Ġpre v
), \
ĠE st
OR Y
w t
ud es
Ġb its
ĠA ge
ĠH ospital
ed u
Ġrot ation
LO C
ĠK ong
Ġaff ected
Ġaddress es
y cle
ĠS oviet
pr ise
ict ed
L ower
ĠF OR
Ġhers elf
ĠR om
Ġlim its
Ġunder lying
Ġs leep
Con nect
ĠEn vironment
Ġunc ertain
Ġlead ership
Ġro les
Ġ rom
Ġrequest ed
ri e
sc ss
Ġide al
am ber
Ġestim ates
kw args
M ag
Ġsh ock
Ġes cape
Det ail
NS String
, '
F ocus
or ney
ĠX ML
Ġres et
L android
Ġrece iving
ĠS pring
ro g
ĠV ideo
}} (\
Ġcertain ly
ĠPro position
plement ation
Ġpolit ics
s lice
v o
om ent
ĠBro ad
z abeth
ition ally
Ġben ch
Ġexec utive
ic ator
ĠO N
Ġan cient
, $
Ġstrong ly
int on
19 30
Ġs ynchron
new s
libr ary
bo ost
ĠPol it
SS L
k es
ĠS D
C oll
Copy right
ĠS us
Ġrec ip
ch anged
Ġcon n
ĠPenn sylvania
Ġs eg
Ġpr ime
ĠPhil ipp
or igin
Ġfund ing
Ġyou th
ir t
k t
W arning
ĠW at
ĠRepublic an
ĠPr ince
ĠO S
og ene
ĠF our
ĠF ederal
ĠAp ache
> \
L imit
H ub
p are
ĠR h
Ġexpl ained
agon al
ĠWh y
Ġconc ert
Ġdis s
B i
b d
S erv
ĠA li
ac cept
con structor
Ġv en
Ġ} }
Ġr ain
ĠEd ward
r adio
Ġc er
P lease
ĠS i
ol t
ï¼ Į
be an
Ph one
Ġsim ulations
ĠBe ach
Ġact ing
Ġgu ess
Ġdescri bes
Ġreview s
N C
ĠÂ »
F UN
P UT
Ġup dates
Ġn ice
G A
ĠB it
tr i
ĠA rea
Ġind eed
Tr ansport
Wh y
Ġbig gest
ro ute
EL D
fol io
Ġd oll
Ġex pert
method s
se par
Ġanim als
ir ation
Ġdist ingu
ĠK ent
Ġrepe ated
Valid ation
Ġestablish ments
Ġact s
Ġreg ime
******************************** ********************************
ĠChampionship s
End point
Ġcitiz ens
Dr iver
Ġwait ing
J ust
ic ode
) [
Ġcr iminal
as m
ĠP erson
196 6
is set
Ġus ual
Ġarr ived
Ġneighbor hood
im b
ç Ķ
Ġcol lected
Ġmed ium
Ġal ert
Ġadv anced
Ġe lections
b p
dr iver
ext end
å Ĳ
c les
y o
ok es
F ore
S ql
Ġemploy ees
M ove
âĢ ¢
Ġ" ",
and o
or i
Ġconsider ing
con struct
ĠRef er
ĠS om
The me
Ġmar riage
ry ption
Pl an
ĠM aster
Ġh air
Ġin variant
Ġt ags
Ġsex ual
Ġb atch
ĠD B
new command
ĠSecret ary
Ġassoci ation
Ġfac ilities
for all
Ġs an
Ġf ashion
Ġcon ven
ong o
Ġm ist
L eg
cre t
Ġs aved
Ġw arning
cknow led
Ġdis pl
Ġfunction al
P D
C ard
IO Exception
Ġlay ers
w d
Ġle s
Ġadv ance
ĠW IT
comp ile
g lyphicon
Ġvalid ate
ur ations
ĠG ar
å ħ
I AL
t p
ĠRep resent
over view
Ġwe ather
ĠC lient
ap h
t witter
Ġn arr
Ġact ors
ĠC ase
Ġman ner
Ġhyp ot
sub subsection
19 20
ĠS em
ĠCon serv
Ġinvest ment
Ġload ed
ak ed
Ġdes ired
Ġgener ic
MO DE
ist ant
196 5
ĠT erm
Ġf ant
Ġpattern s
ĠSc iences
ĠÂ ©
ĠMc C
) }(
Ġtre ated
te en
Ġextrem ely
Ġsub stant
ĠL ew
Ġopt s
Ġbenef its
ĠP R
art ers
n ight
ĠM O
Ġem ph
Ġs b
op es
Ġf mt
ĠAd ministr
pp ing
u ency
Ġknow s
S creen
Object s
Ġviol ence
ur ance
Argument Exception
Ġm yst
M IN
Ġthe oret
tr l
ty pen
Ġfig ures
Ġap ilevel
Ġcop ies
Ġthan ks
v olume
AN G
Ġcompos ed
ĠS elect
Ġ_ .
re act
r ons
ress ed
Ġgu ide
L ight
ex it
l aw
s ync
ver ter
Ġpre par
r ank
d atabase
Ġexper i
Ġenvironment al
el ly
hav ior
p res
anc ell
N ational
G C
il ib
dest roy
Ġd a
W ait
Ġm useum
Ġprom ise
Ġvalid ation
atas ets
Ġdepend encies
ĠS at
ad ed
Con stant
Con structor
Ġfor t
ãĢ Ĥ
s ome
l ab
Ġex erc
ĠS ets
Ġthan k
ĠProf essor
A li
Ġpro port
Ġam plit
ĠH as
\ _
Ġnear by
m ag
: [
ic ity
s ig
ĠF air
Ġcoeff icients
ĠM ember
v c
Un known
ĠAd v
W ORD
function s
> )
d ig
O wn
Ġdim ensions
d uration
Ġp owers
and y
O F
semb le
vari able
R elease
c atch
Ġas sembly
7 00
us et
Ġg lass
Ġopin ion
Ġadopt ed
unn y
Ġp itch
ĠI raq
Ġnew ly
m k
Ġw itness
ow s
A xis
Ġs ql
b ell
Ġac comp
STR ING
_{ {\
N R
_{ -
Ġpr iv
Ġt ail
ĠD ar
_ );
Ġacc eler
Ġwest ern
s uch
av id
f etch
f all
m n
Ġabs or
Î ½
ĠM ir
ĠAL IGN
Ġare n
C ONT
ĠOption al
tr im
METH OD
Ġperm it
epend ence
Ġpi eces
ĠSt ation
Ġca uses
z h
Ġ' ./
ĠAn other
i ant
getElement ById
Ġpert urb
l at
Ġsh if
ĠR og
Ġfind s
Ġinc ident
typen ame
Ġwin ner
pol icy
act ivity
qu ote
Ġfund s
ĠOb ama
ĠTh ree
Test Case
Ġg irls
Ġmys elf
Ġdistrib utions
Ġcre w
ĠTh ursday
Y Y
Ġeval uation
Ġperm ission
is Empty
ĠS af
Ġwid ely
ĠO FF
Ġbro ken
Ġang ular
B asic
cre ated
t f
() ),
Ġsub set
opt s
Ġperform ing
ill is
Ġspec ifically
ĠBro ok
por al
bul let
ele d
valid ate
ater n
Ġsing ular
on ia
> ;
CD ATA
)\ ,
ĠKore a
="../../../../../../ ../
sub mit
Serial izer
Ġdevelop ing
Form s
Ġ" ";
Ġyour self
agnost ic
ĠS pe
Ġtr av
Ġphen omen
dis able
Ġhold ing
ro vers
re ce
Ġtechn ique
Ġm o
Ġpro min
DE F
ĠL atin
N ormal
Ġfil led
m essages
Ġb ass
Ġintegr ation
Ġfa ith
ĠTr ust
Ġs izes
ask a
Ġdr ag
\ )
En v
Ġc lock
ĉ ĠĠĠĠĠĠĠ
Process or
Oper ator
Input Stream
M essages
IL D
Ġcom edy
ĠRes ponse
Ġli ber
fe ed
Ġ" %
Ġcli ents
Ġtri p
et es
# {
Ġad min
ĠWil son
dep recated
W ord
Ġ+ \
g ency
Ġconflic t
mer ge
Ġentire ly
enn es
Ġcalcul ate
ĠE U
Ġd ance
Ġc old
Ġin n
ĠF il
ag a
Not Found
ĠSt ory
ĠK im
Ġ' ';
trans action
ĠL o
Ġacadem ic
agnost ics
mem ory
ord an
Wh ere
v ing
ab ric
in herit
Ġf ee
Ġc art
Ġn arrow
ĠSt atus
Ġgu y
Ġstandard s
Ġpl ants
J an
ĠB ang
per m
iven ess
ĠEast ern
Ġscient ific
Ġ era
ĠB BC
Ġprincip al
Ġd ual
Ð° Ð½
Ġrem ark
a ired
T y
ps on
ĠIll inois
Ġge ometry
Ġ@ "
log o
Ġm ir
ĠStud ies
ly wood
ĠK r
ĠP en
Ġcustom er
ĠBook s
Ġt ick
R aw
P od
ĠHistor ic
S em
ĠR a
AR N
Valid ator
ĠB a
Ġfund amental
ĠAp plication
ĠA T
ac ent
ann a
Ġsuggest s
us al
cont act
aps ed
Ġob serve
ĠA sh
Ġchalleng es
U ST
S ch
Å Ĥ
Ġt error
Ġselect or
ĠFinal ly
ele m
ĠT uesday
ĠD ub
Ġpor tr
ak i
Ġdiv ided
= [
evelop er
D R
Ġmin imal
Ġhel ps
ĠW rite
ĠH ard
vert ical
Ġrail way
( --
Ä į
W est
ĠOff icial
Ġprof essor
IN S
ĠW rit
Ġden otes
ĠC ount
P ack
ĠCh ange
Ġinput s
ĠC EO
Ġfavor ite
Ġscen ario
ĠIn vest
b atch
Ġprogram ming
Ð¾Ð ²
Ġhous es
'] );
D IS
P ers
om ics
ĠC urrent
) _
Ġdet ected
con str
Ġeff iciency
Ñģ ÑĤ
Ġsee ing
Ġveh icles
) ^{\
ĠL ear
clos ed
ire ment
ĠCor poration
Ġgu ard
un es
Ġmat rices
le ts
al ert
inc iple
i Ã³n
eg o
us r
Ġnav bar
ĠDes cription
Ġsc r
g on
N UM
it ivity
Pro to
ind s
G ER
ip her
12 7
Ġl ie
F amily
ĠS a
ex tra
ĠS C
nav igation
Ġs ending
sh al
ys ics
Ġtyp ed
Ġst ats
- (
av ailable
\! \!
br id
ĠSt eve
Ġs ud
Ġperm issions
AT ED
un ately
Ġacqu ired
Ġdec ades
ĠRec ord
Ġdi am
in son
Ġs ys
Con sumer
Ġm ouse
ĠW is
s heet
ul ing
onym ous
p ot
ierarch y
Ġmod ify
ĠC at
ĠAb stract
al ty
B inding
A udio
ost er
Post ed
j Query
ob s
Ġprim arily
rit ical
Ġtrans actions
Ġel if
L Y
Us ers
Ġcol span
ent ed
Ġreturn ing
Ġdecl ared
Ġ_ ,
Ġwould n
S V
sp acing
Ġteach er
ĠB al
Ġcur ves
R ate
Ġout er
Ġopport unities
Ġcharg ed
Ġinsp ired
ĠE nergy
Ġex ceed
Ġc e
Ġeval uate
M R
[] {
ret ch
Ġsh ips
Ġsupport ing
maz ing
em ic
ĠSh ort
Ġs pring
ĠR oute
Ġdefe ated
Ġport ion
Map per
Ġopt ical
Ġinj ury
A bs
ĠE th
Ġpe ace
? ?
p aper
Ġh ole
ĠH ong
ĠIn f
ra ham
atter y
T F
PH P
ĠC ore
Ġident ifier
/ {
g oto
ĠGu ard
ĠR en
d k
ĠIs lands
N ET
Ġcontrol led
C ur
Ġv ectors
ORD ER
t i
ĠL oad
ch art
ub ble
UM M
per p
init ely
Ġc ategories
ĠRem ove
Ġcomp r
ĠProv ince
Ġhon or
196 3
/ ">
}$ -
al so
W atch
ĠColumb ia
Ã ¢
Ġsubsequ ent
Ġlink ed
Ġem otion
Ġsett lement
as p
H tml
comm ons
ul s
Com plete
ur able
/ .
col on
Ġsup posed
Ġca ref
ĠT y
valid ation
Ġpl anned
sub ject
se q
id i
M aterial
g ov
Ġc ensus
Ġepis odes
Ġin vent
Ġm orph
ou red
Over view
uset ts
Ġcirc um
Î ¹
ph rase
,\ ,
Ġp seud
amp ions
ach usetts
alyt ics
Ġexplan ation
enc ing
Ġk ick
ic er
lic ense
Us age
Ġproper ly
Ġcoordin ate
Ġm el
min ute
ĠAmeric ans
N ov
on omy
Ñ ĩ
ĠIl legal
nes ota
int eger
ĠOn ce
ĠDE FAULT
B atch
ow ed
ĠWed nesday
i per
re lation
." ""
Draw ing
Comp iler
Ġca ught
Ġv ision
sh op
Ġf ell
ser ies
ĠCh annel
Ġar ms
y ou
ĠV iet
Ġsec ure
Ġlarg ely
b ec
Ġfac ility
Ġrun time
Ġop posite
oc cer
Ġ' ',
Am ount
Ġat mosph
Ġre action
ĉ čĊ
Ġtro ub
se m
act ic
) ^{-
F act
uff ers
can vas
d on
Ġbusiness es
j ack
t an
ĠC art
IN ST
w arn
\| _{
Ġcapt ured
ĠL com
Ġcr is
Ġsol ve
196 2
Ġoper ated
ĠG overnor
}^ *
ph ia
Ġag ents
ĠB ell
Ġs quad
Ġs ym
ĠH om
SCR IPT
Ġhous ing
Nav igation
vent ure
Ġpred iction
e en
Ġk id
ĠUn it
Ġobserv ation
ĠĠĠĠĠĠĠĠĠĠĠĠĠĠĠĠĠĠĠĠĠĠĠĠĠĠĠĠĠĠĠĠ ĠĠĠĠĠĠĠĠĠĠĠĠĠĠĠ
Ġfeat uring
Ġexplicit ly
Un ited
Ġcomm only
Set ting
ĠReg ion
P at
: @"
yd ney
ass ign
Ġf ake
ĠPak istan
an z
Ġthous ands
Ġacc ident
Th us
ĠPr ime
pre c
re du
Ġpost ed
ĠEli zabeth
pon ential
Ġstop ped
St ud
im m
it led
it zer
olog ist
ĠS che
v als
os ed
in er
C LASS
gener ate
Id entity
pro gram
Ġaccur ate
Ġyield s
go od
OP T
Al loc
ĠPort ug
Ġaspect s
em an
Ġcon j
to Be
Str ategy
Ġ" .
) {\
Ġdestroy ed
ĠN a
C la
ap ed
B rit
Ġhot el
ĠB et
Pl atform
Ġf uel
Ġhe av
A nt
th rift
Ġpolitic ians
adel phia
Ġsol ar
head ing
ĠS ab
ul pt
ĠC ur
Ex port
St andard
Ġsatisf y
eder ation
f mt
ott en
Ġsubstant ial
ĠJ ean
ĠWAR RAN
ĠV ill
Ġmer ge
col lect
Ġexp and
ear s
op her
Ġcomm ands
ĠF ull
ri um
for Each
Ġconver ted
Ġs ale
E st
Ġv ideos
F n
A ST
Ġfight ing
Ġengine ering
Ġauthor ity
P resent
ĠP ers
Ġb inding
ĠSer ver
Ġp erman
bu ilt
Ġdisplay ed
arg uments
% .
const ant
Ġ&= &
Ġanal og
Ġlog ging
Ġb ands
ĠScott ish
Ġearn ed
ĠB on
ĠD eb
ĠEngine ering
HE AD
On ce
B inary
pl oad
ĠL td
re le
UN D
Ġw ire
Ġcharg es
ĠA k
ĠCl oud
ĠD utch
an th
ge o
Ġg ender
ident ial
ĠAlex ander
Ġprep ared
Ġsu itable
Ġcomplex ity
Ġdro pped
ĠĠĠĠĠĠĠĠĠĠĠĠĠĠĠĠĠĠĠĠĠĠĠĠĠĠĠĠĠĠĠĠ Ġ
i ated
Res olver
Ġa wards
an es
ĠK enn
li bs
Ġnu cle
u y
iv ated
ane ous
Ġli qu
Ġdifferent ial
Ġcomp atible
ig ate
ili ar
Ġinvolv ing
Ġmod ules
Ġcompos ition
Ġs and
Ġrecogn ized
[ -
N V
Ġphil osoph
ĠF ood
Ġeas ier
CH AR
tain ment
Ġbehavi our
res ize
[ (
ĠC am
por ated
Ġsurround ing
Ġde ploy
in ating
Ġpers pective
ĠA D
Depend ency
Ġseem ed
Cle ar
C ALL
scal a
ind u
ĠB oy
w ill
Î µ
ĠSup reme
P red
Ġgrant ed
ĠCon nect
Ġgrad ient
ĠW IDTH
Ġload ing
{ $\
S egment
Ġfeel ing
ast ers
Log in
Ġfeed back
Ġorgan ized
Sp an
ĠB and
Ed ge
Ġattempt s
Ġobject ive
c ounter
Ġcontrol s
Th row
$ $\
DO M
b us
ĠH un
Ġg rew
LE D
os a
ĠOx ford
Ġdef end
ic ing
comp are
con v
Ġwhere as
rem ark
Man agement
In sert
Un iversity
a is
ä º
g re
ĠC SS
Ġf ails
istrib ution
Ġt ight
ĉ ĠĠ
rupt ed
Ġfav our
Ġsp end
Ġres c
p ur
Ġ ing
Tim er
ĠW ars
Rem ote
y ard
F uture
Ġalong side
Ġcom fort
c ross
mer ce
m ac
Ġv on
Ġmod al
194 4
Ġmin ute
An other
Ġj ourney
Ġst ellar
A UT
assert True
Ù Ī
Ġrecogn ition
Ġclass ic
Ġa thlet
unn el
M usic
Ġprior ity
Ġh abit
Ġatt ached
U C
B L
Ġ' .
ĠE s
ĠVictor ia
A X
Ġrec all
B al
ap ore
Pre v
display Name
Â °
dist rib
Ġsim pl
Ġl ists
Ġst yles
ĠF C
.~ (\
~ $\
Ġal ter
ĠAn th
spec ific
Ġsp ons
$ ).
Ġm ach
Ġret ired
F older
ĠB ox
direct ory
cont ents
196 1
ĠS H
nt ario
D rop
Ġdr am
ĠM ock
ĠT urn
s un
RE D
Ġsche dule
V ec
" },
Ġserv es
k top
Ġexec uted
Ġoptim ization
b at
Ġposs ibility
AR D
HER E
ĠChild ren
Ġm al
Ġf aster
Ġelectron ic
ĠB all
Ġe lev
ĠF ox
Ġind ustrial
Ġ urban
Ġ$ -
Ġun able
ar l
Ġfif th
Ġp ri
=\ "
Ġinfin ite
p ir
; |
ĠM S
E val
ĠPro t
)} {\
w orth
RA Y
Ġd rawn
Ġdec or
Ġdepend ence
) },
Ġconsum er
Ġd ot
are st
Ġexcell ent
Ø ¯
################ ################
am ely
Ġind ices
Ġinstit utions
rypt o
Ġco al
Ġc m
Render er
C md
th ur
Ġe le
ĠCont ent
ail ability
Ġin ject
LO W
Ġap art
Ġstat ements
In formation
Null able
bind ing
ä ½
AC H
Ġlog ic
ibr aries
Ġsymmet ric
Ġpay ment
ĠC G
at riate
Ġkeep ing
ĠT ag
Ġprote in
S outh
Care er
Ġwh atever
ĠB E
0000 00
Ġoffer ing
ĠCoun try
get Id
St atic
}} ^
ĠĠĠĠĠĠĠĠ ĠĠĊ
rypt ed
z y
] ))
j et
l ower
load ed
Ġhistor ic
Ġcomplet ion
ĠL ic
Ġmark eting
Ġan imal
ĠSt ream
Ġconcern s
FF ER
Ġcon version
] }
ĠGa ussian
f ake
R out
c u
A SSERT
text sc
In ternational
ĠO C
Ġnot ation
Bl ack
W ell
ĠAg ain
ce st
s ime
S ite
Ġcommit ted
ten ance
Ġj s
Ġs ocket
Ġtit les
ĠP ay
Ġcre ates
Ġexpl ore
res pons
h ot
Ġsing les
ĉĉĉĉ ĉĉĉĉĉĉ
p b
Ġpurch ase
Ġphys ics
um a
T ile
d ark
Ġtrans mission
ĠN C
ĠG ro
Ġtarget s
L ib
ĠC OL
rop ol
Ġwe ights
im p
sime q
Ġd ire
sc ill
ĠR od
ĠAd am
iffer ent
Ġs ounds
Ġend ing
Ġext ent
ir th
ik a
× ķ
Y our
B Y
ex pression
z o
Ġm ail
Ġag ency
Ġres on
Ġmet rics
h ave
ĠMass achusetts
Ġcar bon
V I
ĠL abor
Ġ= \
Ġg ar
Err ors
out heast
Ġex pos
ĠN iger
Ġlett ers
Ġcol ors
ĠR ight
> "
ĠT oday
ĠFurther more
} &
Ġsee k
ĠPub lish
Ġ Å
s r
S peed
Ġcheck ed
Ġsubsequ ently
Ġc overs
T w
Ġend point
Ġman age
. ;
ĠC as
Ġc as
ĠC ond
)\ \
n ative
(" #
clud es
ĠBer lin
cri bed
MA P
se lection
Ġp aint
Ġex ports
ar ry
Ġsold iers
gener al
cuss ion
ig a
STAT US
includ ing
Ġmagn itude
Ġmov ies
Ġcomp liance
Ġconst ants
Ġperson nel
ele ments
Ġbel ief
A SE
We ight
) ",
Ġpartners hip
Ġadv oc
è ¯
ĠL ook
clus ions
st andard
i y
ĠStr uct
ĠS ant
ĠW atch
ac r
} )$.
Ġh ide
ĠK ir
Ġs ync
Ph oto
Ġb undle
ĠAl b
ĠO s
j ax
av it
Ġconver gence
el astic
LI ST
An notation
T Y
des ign
Ġprom pt
ag en
ĠT ok
Ġclub s
L oop
s ass
ap ol
ĠBuild er
op ic
Ġaccount s
Add r
cal endar
t ouch
ĠC reek
Ġc odes
ĠPr int
P res
Ġbel iev
ĠB at
view port
ap ple
Ġbe am
Ġtro ops
And roid
Ġinter section
load ing
.* ;
w ing
Ġwatch ing
M aster
Ġtr uly
TR Y
elli j
ĠTh read
os es
Y es
AT OR
ĠC ost
ĠConfig uration
C enter
Ġ' %
ĠS on
S W
E P
Fr ames
v ol
ĠDav is
al ink
ĠS M
tool tip
Ġrob ust
å ¤
Ġent r
d ash
Ġt d
in x
ilib rium
3 60
H is
Ġv ent
Ġmom ents
cri ptions
grad le
Ġed it
he im
Final ly
C HECK
Fail ure
rem arks
ov al
Sh ader
ĠH o
Ġm igr
el le
rel ative
Row s
ss ue
plic ated
Ġp ra
ul ating
Ġdel ivery
Ġclos er
ĠD ouble
p kg
cc cc
int ellij
ĠM arg
Ġsk in
ĠD u
m ass
Ġweek end
Ġhand ling
ĠA venue
CON FIG
XX XX
out s
ation Token
ly n
}} ^{
ĠS uch
ow a
ĠP C
ĠT ool
ĠOb serv
Ġpay load
Ġgen us
ĠTor onto
Ġ ">
read er
Ġest ate
Ġappre ci
H L
00 5
ĠPro p
Ġro ut
Ġst ores
Ġclass Name
Ġpublic ation
eng ers
Ġc ert
Ġrelationship s
con nected
Ð ¿
Ġenc ounter
ru ption
ĠMin istry
Ġmov es
Ġmount ain
od ot
Ġa ver
Ġsil ver
= $
app y
AT CH
R andom
re pository
M ost
Ġconf idence
Ġp ipeline
195 8
com es
ĠSim ple
put ation
Ġgener ator
Ġs ustain
Con sole
;| &
Ġrel ax
195 9
UMM ARY
Ġtest ed
m ms
ct ic
pm atrix
Ġmed ian
R ot
Ã ¸
å Ĭ
column s
Ġcontem porary
Ġloc ally
Ġc ab
æ ķ
Ġp ref
Ġspect ra
ĠS anta
ĠG reg
Ġparticip ants
Ġindic ated
Enc oding
g z
Ġem it
l f
Ġpr inciple
Ġsepar ated
ĠPol and
con vert
Ġag ric
map sto
Ġop acity
U K
Ġcalc ulation
Ġd ust
ul i
Ġsup erv
not ations
C ity
Ġclos ely
Ġlimit ations
Ġ{ %
Ġover l
ĠN ick
Al though
ĠD ark
ut ors
Ã© e
194 2
C ursor
Ġexper iences
L ike
Ġeven ing
Ġcont rovers
M ac
Ġsche duled
Ġqu adr
M s
ĠH ay
Ġte aching
Ġpract ices
u ction
t ik
st ates
Dep th
Ġw a
enc ode
$ ^{-
LE MENT
R ob
ĠInst ead
Column s
Ġinter act
ĠMin nesota
Ġexpl o
t ensor
m obile
' (
ĠL ady
Ġv ot
Ġl y
194 8
p ages
Ġ ig
ON G
195 6
Constr aint
ĠD er
de ep
ĠD igital
ĠS ep
RE E
ĠR ow
ĠH ung
Ġb ow
Ġsign als
Ġauthor ities
) +\
Ġst orm
ĠS ydney
u j
Fil ms
Ġr ational
P ower
class Name
enn a
AT TR
reg on
s b
ĠSt adium
ĠA ud
con sin
F P
Label s
Ġpro jection
Ġm ent
ĠE ll
Ġsol o
ĠStep hen
Ġign ored
a ug
Ġrecomm ended
19 39
egr ation
Ġindu ced
Ġmass es
Ġcorrect ly
ĠP ut
Ġneg ot
T ube
p id
Ġn ob
par agraph
er al
ak s
Ġ{ $
Ġ{ },
( ()
ĠFore st
Ġclin ical
Ġim g
Ġ$ _
Ġpost s
Ġperform ances
Ġannoun ce
ĠL ow
sequ ence
D id
" /
$ ;
Group s
B order
ĠVir tual
Ã¡ n
Ġemploy ed
com plex
A I
F oot
en ers
Ġcrow d
ĠI V
Ġbase ball
ĠPh ot
ff f
let ter
Cont ents
Ġc atalog
Ġre verse
az e
66 66
B ottom
Ã º
Ġcomput ation
Ġb ias
Ġrec ru
Ġpack et
Ġeffect ively
G N
ĠI T
ordin ate
Ch ain
Perm ission
map s
ĠCo q
lic enses
er red
it i
V AR
Ġl ose
cover y
Ġp un
Ġw ww
um ps
Ġre pository
ab c
Ġa ria
Ġdis ap
D at
Ġg ene
Ġmin ister
! âĢĿ
bour ne
Sh ared
ĠT am
alt Color
st ances
oun ce
Ġhum ans
Ġpro test
ĠR O
Ġappro ved
Ġphot os
omorph ic
Ġwe alth
F OR
ate st
Ġl osing
Ġcommit tee
sh are
ĠTr ansport
Ġa st
Ġtheoret ical
Ġst ands
ĠR on
ĠD or
H C
ĠApp end
grad ient
)$ -
s at
ell ite
Ġcol our
ĠV en
c assandra
Ġrepresent ative
Ġcre ative
ph ase
Ġsk y
form ed
ĠL ag
Ġadv ice
sc ore
Ġassist ant
ether lands
Ġm ental
Ġvari ation
u uid
ĠJ son
13 0
St ar
BP ACK
Ġr ural
ĠSe ason
T uple
ac on
ĠPy thon
Ġtransfer red
Ch rist
Ac cept
Ġw inter
create Element
Ġtim estamp
m ma
195 7
ĠQu ery
al gorithm
Ġo scill
over ning
Ġ< -
ĠL anguage
refer red
è ¿
Ġ ener
Group Name
Ġs we
The orem
Ġ ion
Ġv otes
Ġalleg ed
Style ID
Ġext ensive
act ual
Ġc riteria
Ġhelp ing
err ing
ĠJ S
Ġocc asion
link s
anch or
ar ity
ĠD oug
Ġown ers
T ouch
b lob
FI ELD
Dep recated
t iny
ryst al
Ġc ov
ĠB ru
Ġst ability
M r
Ġcopy right
Ġnewsp aper
ĠPub lished
S ame
Ġst anding
ĠN ative
Ġintrodu ction
Ġp ed
Ġgu ys
W IN
a udio
O ct
Ġjust ice
force ment
eli hood
Ġb odies
ĠOlymp ic
NO DE
G R
ĠT ree
D en
Ġhom es
× Ļ
W rap
Z one
d jango
Ġn a
ĠRes ult
A Y
Ġg reatest
ĠL ater
ĠAss oci
po inter
Sign ature
Ġsum mar
ĠBr ad
Ser ies
G P
T L
Ġpr ices
G EN
top ic
ĠLew is
E very
ĠT al
por ter
s quare
Ġgo ogle
Ġliter al
ĠSh ould
Ġgalax y
Ġ ----------------------------------------------------------------
Ġcris is
Ġgu est
Ġpr ivacy
Ġcon sec
"> (
ĠB efore
MA GE
ship s
ĠP os
ĠF ac
194 6
} ))
ĠL es
P romise
ĠD elete
Ġdoub t
ĠKore an
ĠK now
Ġleg end
j oint
Ass ociation
V ICE
ĠG iven
Ġdes cent
ĠS ite
Ġf etch
om atic
r pc
R a
Ġpro to
Ġjud ge
ĠS UMMARY
( .
ĠArg ent
ar on
Ġan chor
Ġsur g
Ġw x
Ġt er
re po
10 24
Ġdo ctor
Ġret ail
Ġinitial ize
jav ax
W in
Ġvol unte
p end
arr ing
Ġinterest s
Ġr ig
Ġcon clude
fore ach
Ġ& #
ĠD NA
Ġh aven
ĠC R
z ed
ĠAdd ress
log ging
Ġeast ern
CO MM
Vir tual
F RA
Ġgraph s
ĠBel g
ĠC ub
ĠMed icine
S ports
ĠF uture
pr iv
Ġf ly
Ġtherm al
ĠB ol
ĠG allery
ĠF ish
Ob server
Ġb an
Ġthrow n
ag ma
ĠHot el
ateg or
t le
Ġas ympt
____ ____
ĠD am
Ġmat hemat
n ob
se ason
Ġst one
Ġprov ince
r ame
pro b
j b
ĠDon ald
get Instance
ist ogram
**** **
Ġsatisf ied
Ġinf rastructure
194 3
Ġw ins
Array List
I Z
Pro f
ĠAut o
rel ations
ok ing
Ġch apter
ĠAnt on
Ġcho ices
Ġprom ote
ag g
C r
Ġover flow
ĠPro duct
co hol
Down load
c raft
194 1
is or
ĉĉ ĠĠĠ
II I
: '
ĠR ose
Ġintegr ated
T ele
Ġe ase
Ġaff ili
ĠColor ado
ĠOut put
ic ian
Ġinvestig ate
ound ed
ĠE V
C ounter
Ġweap ons
Ġcl usters
Ġscen es
Ġdec isions
C ancel
Ġw idget
ph ant
= %
Ġ à¤
Ġb omb
Arg uments
ĠCre ates
OR K
Ġfrequ ently
ĠRail way
Ġvis ited
Ġd ry
Be en
ĠST ART
S plit
Decl aration
Pre vious
H er
Ġv o
ĠM att
Ġprec ision
(" %
Int roduction
d irection
Ġcr ash
O ld
Ã© s
Ġapp lying
Ġwork er
Ġw ing
Ġs pl
Ġindic ating
Ġar c
Ġf i
L ibrary
amazon aws
Ġ uri
ou ri
Ġ' ''
19 55
Ġsim ult
Ġpe er
Ġdem ocr
Ġsh aring
ĠB C
u ity
Ġs cores
pro position
Ġar ts
Ġexperi enced
ĠP rize
er ic
> ()
Brit ish
Al so
Ġin ternet
is ely
> '
R UN
ad oc
Ġprep are
Ġc lip
Â ©
ic ious
Ġre str
Ġdis able
Ġprogram me
Ġuncertain ty
ĠO cean
ch ant
ĠPhil adelphia
Ġd elta
ĠClass es
er es
Ġimp lied
Ġpredict ed
p ad
Miss ing
Con tains
ari os
_ )
ze ch
Ġcamp us
H older
Ġman ifold
< <
uplic ate
ĠDes pite
Ġsud den
Ġbreak ing
Ġm and
B ounds
Ġdeliver ed
Ġsequ ences
Ġident ical
r ink
ord on
LA Y
Ð ·
ann y
patch er
M ut
Ġre nd
ul ner
ell s
ast y
in ch
ĠN ations
ĠÐ ²
Ġy ards
sol r
ĠI ter
A ustral
ĠTur key
Ġen umer
BU FFER
Ġhost ed
Ġh all
ĠB udd
Ġb ought
Ġdec ade
Ge ometry
ĠWh ere
Point s
B IT
Ġhor se
Ġs ampling
ĠL ang
Ġab andon
O h
Ġnecess arily
riz ona
Ġcharacter istics
ĠC ulture
ĠSt ock
ĠVAL IGN
ĉ ĠĠĠĠ
G IN
qu ant
Ġcalcul ations
ivers ary
Ġent ertain
C oin
Ġsp ac
ymmet ric
f p
ĠF ollowing
Sw itch
UE ST
ur d
ut ely
tim estamp
Ġl um
h d
s ch
it ative
Option al
ile y
str ings
ibr ation
Met rics
or er
Ex ists
Ġrespons ibility
> %
le ton
ars ing
Ġexpress ions
ĠSt ore
Error f
me an
g ar
ĠD ead
per ial
Ġf old
10 2
Ġplace holder
ession al
a us
ow nt
Ġref ers
an ches
del ay
d anger
B ool
Ġa mazing
all enge
ĠP romise
h istory
ĠSt aff
en ess
n c
ennes see
Ġscal es
ĠG er
ĠOn line
F N
ĠM iller
Ġyoung er
ĠP ack
194 7
Ġman ifest
Ġ Ø§
Ġb ug
Ġher o
( ['
\ {\
(' <
Tim estamp
Ġconcern ed
Ġscal ing
pre vious
195 2
Ġult imately
ĠC ru
Or iginal
is ode
Ag greg
Id x
ĠL at
Ġd ates
AV E
Ġsomew hat
ĠCon text
Ġcomp iler
ru les
tik z
m oment
ĠO ntario
Ġc ro
Ġas sets
Res et
Ġstat istical
Ġl oved
ir al
Us es
Ġr aces
g if
} }$,
Ġresearch ers
ĠBr idge
Ġcap able
Ġpromin ent
Ġk illing
Ġwor st
Ġsh adow
rem ote
fort unately
m ad
Ġcomput ing
ĠS ound
er os
En able
^{ +
L em
Sup er
Ġp ixel
ĠTh rough
ĠĠĠĠĠĠĠĠĠĠĠĠĠĠĠĠĠĠĠĠĠĠĠĠĠĠĠĠĠĠĠĠ ĠĠ
an im
re peat
ut r
form er
EN V
ou ston
Ġinter ior
ke ep
Ġim pl
D ynamic
ĠRev olution
ane ously
$ ~
Ġresult ed
Ġ Ñģ
Ġwor se
ixt ures
w allet
Ġcont est
Or gan
ĠA P
Ġp arsed
Z ero
ĠI R
Ġd atasets
ĠMount ain
Ġofficial ly
n os
ĠD ir
Ġf estival
Ġbr ings
fe ction
Ġdeb ate
h al
ĠSk y
w br
Ġmark ets
ĠS end
re nd
An alysis
Ġs in
Ġsent ence
ĠGold en
ogene ous
Ġcharacter istic
ĠRefer ence
ĠJ ordan
br and
New s
c fg
WE BPACK
requ ency
c ancel
Ġch unk
B its
In ner
Ġradi ation
Ġ ĉ
ip age
Ġprom otion
Ġstrateg ies
P ress
Ġ| =
Ġco inc
che stra
D iff
Ġsub mit
ach er
s ym
Ġtable s
Ġd elegate
cept or
195 4
Ġpract ical
__ )
ĠF all
Ġpre ced
ĠMag azine
f b
Ġh its
ĠMan ager
Ġsupp lied
ĠAcc ount
Ġhe aring
Ġdef ines
Ġin fer
D ATE
Ġint elligence
ĠCol umn
ĠW inter
Ġcomp re
Ġv ess
pl ane
an alysis
te ction
ig gs
L icense
ĠR ome
W arn
Ġdec ide
ĠC orn
Ġe at
Ġpl ate
Ġb at
S epar
Ø ª
14 0
UB LIC
em it
l u
T AG
ph oton
Ġadd s
st rip
qu arters
Ġcan cell
Ġman ip
com pute
qu es
, .
ĠEd itor
arch ive
ĠCor ps
il bert
pear ance
Ġm ort
B ad
E ffect
Ġm ess
ĠE ric
ĠD OM
ĠN ever
Ġs now
Ġdepend ent
Ġt on
un ing
Ġread ers
IMP ORTED
C ent
Ġpercent age
ing ham
b undle
Ġy ellow
ĠL oc
ug ar
Dr ag
~~~~ ~~~~
ĠExec utive
Ġf older
Ġimmedi ate
Ġor th
Ġsign s
Ġres istance
iev al
Ġy es
Ġa id
Ġdi agn
ĠBuild ing
Ġuser name
fr ag
Ġpass es
i Äĩ
part y
h pp
re ll
Ġint ent
K it
ĠR eb
m ay
ades h
Run ner
m iddle
sl ash
Ġ" '
ĠM ill
LIC ENSE
Mon th
ort heast
B M
Ġrelig ion
aw ay
Ġarrest ed
Ġp ray
x sd
Ġtw enty
LE TE
>( <
ĠF ord
} }$.
com b
W ill
ĠSing apore
p rom
lo om
edd ing
ĠHamilton ian
u et
Ġp ixels
ĠHar ry
TI ES
D M
Ġsh ares
* ,
ĠWhe ther
L ife
Ġlist ening
l int
Exec utor
Ġt ack
Ġne ither
Ġfam iliar
S ol
iv als
Ġad ult
writ ten
ĠE dition
195 3
Ġor bit
Ġterm inal
ĠU RI
gener ator
ĠH al
sh a
Ġdef initely
Control s
Ġrepl acement
>< !--
ĠF ix
ou rier
Ġg overning
ĠN etherlands
ĠMal ays
ever al
S ources
Ġac id
ĠE P
O C
k h
Ġ' _
Ġcook ies
ĠD aily
ĠR yan
Ġequ ality
Ġd eleted
Ġb old
ick y
Output Stream
ik ip
ant e
Line ar
part s
itor ies
or ry
Ġab use
æ ĺ
s is
ang a
ĠEx pl
Ġg lob
t l
sl ider
Ġf s
cre ment
c ref
Ġ' "
} )$,
uck s
pro duction
ĠOper ation
Ġf ol
Ġdom estic
PRO P
Ġv eg
Ġpotential ly
th rough
s peed
u ating
ĠB Y
Ġp atch
Ġc ash
Ġab und
ĠWARRAN TIES
n l
E v
Ġsc ulpt
em bed
Ġsatisf ying
rop ical
In f
Ġimprov ement
c ow
iz ers
Ġp apers
Ġt aught
display style
ĠPar se
U pload
Ġreport ing
Ġir on
. [
ĠP ot
194 9
O wner
T ax
ĠÐ ½
Ġh un
st age
Ġ` ``
Ã ¥
ĠB rian
) -\
ĠCamb ridge
d am
Ġn amely
Ġfr ames
Ġtr ivial
RE CT
Ġc raft
ĠR aj
TR AN
ĠCont in
SO UR
DE X
ag an
plic ity
Ġse ats
] +
lin ux
do or
dat etime
G iven
Ġtra ject
| }
P G
ist a
Ġh orizontal
ĠC hen
ĠQue ens
11 1
B ased
az a
Ġh ockey
ĠA C
Ign ore
Ġfound er
Ġw alls
Ġenh ance
Ï ģ
Ġvers us
Ġm m
) }_{
Ġdr ivers
Ġwindow s
Ġqu eries
ĠFore ign
B el
< >();
end a
ial s
i ors
Ġmusic ians
Con verter
B ro
Ġdisc rim
ĠPol ish
itect ure
ĠWis consin
ĠD ream
Ġwin ners
Ï ĥ
Ġc ub
igh th
min ipage
ro uter
ĠĠĠĠĠĠĠĠĠĠĠĠĠĠĠĠĠĠĠĠĠĠĠĠĠĠĠĠĠĠĠĠ ĠĠĠĠ
Do ctrine
Ġcirc uit
link ed
Ġpredict ions
Ġfl uid
ou st
Ġthe ories
; ;
less sim
Ġbul k
C amera
Ġal pha
ĠMark et
un lock
dist ance
U V
ak h
an try
sd k
Ġm arg
Ġspe aking
Ġpurch ased
ĠK a
ang el
Ġop position
Ġrespons es
Ex pected
ĠP A
d st
e ah
ang ers
Ġk it
Ġcoeff icient
Ġb att
ĠN orm
M illis
incip al
viron ments
i ations
Ġv m
Pl ace
Ġbring ing
ĠInd ones
ĠD IS
Ġterr itory
and al
Ġrece iver
ĠS u
Ġlow est
D irection
Ġle ct
SS ION
Ġwrit es
o a
ĠB uffer
ĠL java
Ð° ÑĤ
w iki
Ġv ice
Ġtri ple
ikip edia
ĠGr ant
ĠJew s
Ġj et
o or
ĠO regon
ĠPal est
Ġleg isl
c ursor
nt il
get Message
BA SE
an ia
ĠR oss
ens itive
BU ILD
ib ilities
Ġfootball er
S F
ĠD uke
Av ailable
Ġal ias
Ġs ed
Ext ensions
Ġshoot ing
Ġfor g
Ġfl uct
Ġch ampion
Ġun iverse
Ġim press
Ġr id
d ays
es is
M ount
oriz on
ĠS W
Ġstri ke
AS H
t ile
Ġro utes
od o
195 1
g ies
m ount
ox y
IL ITY
Ġexc ited
H ave
Ġquant ity
Ġcomput ational
qu ir
Ġin herit
: }
ĠL ind
Ġpil ot
ir ms
p ref
ĠG ree
example s
Ġre b
inter val
Ġappear ances
Ġcollabor ation
Ġex cess
Ġpers ons
od a
Ġtem porary
Ġm it
Ġcover ing
h bar
Ġscatter ing
ĠT ai
Ġacc um
Ġ( +
Ġinstit ution
et ies
ĠEnter tainment
c ers
Ġincre d
l ot
Ġso le
âĢ ĭ
ff ee
ĠS V
Ġassert True
ĠO t
Ġtyped ef
f ac
Ġsuff ered
ĠĠĠĠĠĠĠĠĠĠĠĠĠĠĠĠĠĠĠĠĠĠĠĠĠĠĠĠĠĠĠĠ ĠĠĠĠĠ
ym ph
she ll
get String
Ġdocument ary
od s
ĠFr ont
ag ues
c lic
Ġext reme
ĠHe art
Ġworld wide
Ġdep os
Ġdiscover y
Ġessential ly
Ġarr ang
U A
ĠA mb
Ġcheck s
Ġm outh
ĠSystem s
Loc ale
Th erefore
ĠLe on
/ (
Ġreject ed
M F
u able
Ġte en
ĠIt em
Ġim possible
ri ends
Ġvir t
D avid
Ġrestaur ant
ri ent
p in
is lation
Ġsch olar
hens ive
Col lect
UN T
Ver ify
Ġpropos al
: =
Ġc b
ĠSim on
w ick
Ġg ained
b ench
cod ec
ific ial
Ġmax im
" ];
am ount
IC ATION
HO ME
ac er
Ġsu it
A ug
E Y
b inary
ĠDe ath
Ġcl one
k ish
Ġcon clusion
n ie
ĠL ev
get Type
Ù ĩ
o i
Ġdecom position
F ALSE
ro b
om m
/* !
ĠPl aces
ĠW ord
-------- --
Ġgood s
we ek
Ġl it
Ġprom oted
reg ular
ĠCap tain
File Name
ĠMod ern
ĠB or
Ġmag ic
per or
Ġne ural
cl ine
ĠĠ čĊ
Ġst ages
| _{
al ias
Ġop posed
pre d
not ify
osp it
ĠAtl antic
ĠCast le
ĠM it
ign ore
Ġask ing
Ġf at
} ",
es ides
Ġreason able
Ġcon d
Ġrecover y
R ules
w eg
Ġadj acent
Ġdefe at
ĠJac ob
ops is
F i
Ġpass ion
Part ition
Task s
ĠM oh
Aut hentication
j an
v endor
Ġamplit ude
te am
F eed
Ġtrad ition
ĠSer ial
ĠB urn
ĠC ab
Ġre nt
ĠÂ ·
Dec imal
ĠHol lywood
Ġth in
ur st
Ġ' @
Ġp iano
Ġro y
Sh ift
ta ke
Ġint ensity
Ġconv ex
Ġim plicit
g ems
Ġsymbol s
ĠT ony
em et
1 12
stats models
Del ay
Ġconsequ ence
ul p
ĉĉĉĉ Ċ
19 36
1 16
Ġ-- ></
Ġcon tribute
Ġqual ified
Ġ ri
atur ally
Ġprefer red
olv ing
ĠT err
Ġf ired
ss l
ĠW el
L IN
X Y
off s
99 99
Ġca using
Person al
Ġun ivers
Pol it
Ġf aces
Ġtemper atures
$ ),
S elf
ac o
ĠMem orial
P OS
UR N
Ġdr iven
ver ify
Sec ret
ĠPr ivate
Ġad m
riter ion
Ġoper ate
ĠF A
ĠPl ace
ĠUkr aine
Name Link
è ®
Ġh a
Ġab ort
×ķ ×
pt ic
Ġaccom pl
Ġdis crete
Rev iew
Ġad ap
Pr imary
Ġin verse
ĠN AS
ĠN az
Ġplatform s
Ġaccom mod
ĠN FL
man agement
(" \
Ġiter ation
Ġnot able
ĠAnd erson
w as
Ġprodu cing
at ibility
Ġdefinition s
sp in
app oint
Ġsl ot
ĠDis ney
Re ason
Ġcan vas
Ġwill ing
An im
ĠFr ame
ĠPrem ier
Ġabs ence
Ġd st
ĠV i
Ġread s
He alth
ĠH art
Ġconsist ing
ï ¿
Ġ[ \
10 5
Ġpres erv
Ġen emy
Ġair port
ct ree
enc oding
Ġig et
Ġvari ant
f older
Ġcoll apse
is ition
ĠL ib
Ġrep ly
D TD
Pol y
ĠJ ane
ĠSwed en
Ġput ting
Ġor ig
Table Row
Support ed
ĠK at
ĠM ilitary
v ia
Ġeduc ational
mem bers
ĠJes us
Hash Map
second ary
tim er
Ġsens itive
her ent
Ġd ictionary
10 4
Ġhon est
Ġneut r
Part icip
ĠSh er
ĠA h
Ġtem ple
S pecial
Ġm atters
el lect
5 12
Ġp ending
ĠB log
ĠS av
ve h
Ġunderst ood
Ġp it
IM IT
Ġdes criptor
ĠN ull
y ers
M ich
Ġbo ys
jack son
Ex tra
m apping
ĠK al
aw esome
Ġr is
Ġ- =
c lip
Model s
G ood
Ġfac ulty
HO UT
Ġour s
or se
Ġex ponential
Ġext ensions
exp and
ain er
Ġre ward
ĠR oll
n an
SP AN
l ive
Trans lation
! </
i em
Ġconvers ation
TO M
ad v
Ġre new
Ġrepresent ations
C ulture
Ġn s
m ix
19 18
F ixed
ĠPh oto
od ge
ĠBy te
Ġdanger ous
tain ing
sw ing
at iv
Ġcomb at
ro ph
Ġliqu id
) }}
li x
ĠCom ponent
f av
inem a
Exec ute
com ple
br idge
b ug
Ġadministr ative
ĠO P
}( {\
Ġcell padding
Ġhundred s
G a
Ġmunicip ality
enn y
N orth
ĠH an
Ġpain ting
Ġapp lies
ri ev
st an
19 38
Ġ å
ĠSt one
RES ULT
ock s
Ġtechn ologies
t ail
Ġbro ke
ĠP layer
re p
Ġs pr
St ub
Ġb ond
a ire
c ountry
en z
Ġfe els
ĠC red
]] ></
S G
qu o
em ony
Ġfact s
E p
h ook
&= &
Ġeval uated
Ġcompos er
%%%% %%%%
ĠChe m
ĠAdministr ation
19 00
}{ |
ï¿ ½
Ġmod er
Ġrespect ive
ĠT YPE
ID E
refer ences
Per iod
A ctions
Cont in
Ġscient ists
ĠInd eed
Ġro of
Ch anges
Ġ( %
Ġfor get
__ ,
55 5
ĠJ oh
ra ction
M c
i pl
Ù Ĭ
CO M
ĠY es
ĠM as
Ġgr avity
Ġdemonstr ated
g raphics
Cre ated
}$ )
( /
Ġc ached
P ush
urs ive
Ġfil ters
Ġm es
id o
Ġin structions
Ġv eter
Ġcontr ad
big l
add Class
ĠLog ger
ĠN eed
Ġvisit ors
çĶ ¨
Ġcell spacing
Ġt ip
N P
pos ing
w ho
A E
Ġin tern
pl ain
Ġpost er
ĠT ennessee
Te am
ĠM oon
r ig
ĠM obile
ĠS in
unk nown
ĠPhilipp ines
j u
Part y
Ġrev olution
Ġbelong s
ĠOff icer
mit ter
ÑĢ Ðµ
Ġb aby
. âĢĻ
Ġex posed
c ourse
ĠG h
F ollowing
ĠMethod s
ĠT OP
Ġfac ilit
Ġhost s
av is
19 37
, ...
et ary
================================ ================================
M ust
A U
Ġr ide
w hat
ob serv
Ġqu iet
Ġpresent ation
Ġcan onical
ĠL iter
Ġcl im
ĠMar ia
ĠF ight
a ux
Ġm ine
Ġm ob
Ġs event
Ġtown s
P REF
ĠM ust
ic ular
ĠHand le
st ud
OL D
neg ative
pr agma
O k
inter pre
Di agnostics
h box
Ġdemonstr ate
Ġturn ing
Ġm ile
Ġprec isely
ĠS mall
TER N
tr ansport
Ob serv
ĠN um
Con vert
Ġpack ages
` )
W eek
Ġv ast
l oss
Ġden oted
Ġes cap
ov en
s ure
ĠOC aml
Ġdecl are
get Class
t oc
M achine
Ġtalk s
ut ies
Ġsc oring
ast s
Ex pect
ĠCl ark
Ġprint f
ĠP DF
ĠIn valid
Ġtext ure
ren ce
Ġres olved
ĠA rizona
9 00
fr ames
ĠSur vey
annot ations
google apis
Ġexhib ition
(' ./
big r
fe atures
Ġprodu ces
Po jo
vert ex
Ġinterpret ation
ĠD un
per iod
Ġpoint ed
ĠU til
T yp
ĠD est
S am
il k
Pl ot
y cl
Ġest imation
urren ce
Ġpres ents
Ġ$ |\
ĠAn alysis
LO AD
Ġexp ensive
Ġ' #
arg o
h ill
Ġsubject s
ĠĠĠĠĠĠĠĠĠĠĠĠĠĠĠĠ ĠĠĠĠĊ
Ġdi pl
Ġcru cial
T ok
met ric
B reak
Ġr ating
Ġlog in
no frame
d ynamic
ex cept
i able
fl ush
Ġd t
ĠYou Tube
Serv let
ĠI L
d n
m f
Ġmiss ed
ĠS to
Ġout come
Ġwe ar
Q t
Ġk w
Ġdrug s
et r
ĠMA X
ĠR ad
Ġreg istration
Ġgener ating
ĠB arn
hed ral
ĠAff airs
ĠC irc
s z
Ġgu id
Ġteach ers
Ġat trib
F M
ĠLab our
re nt
P al
ĠK evin
ĠS P
Ġiter ator
in ction
Ġsee king
Ġro ots
Ġfl u
label s
ĠF ALSE
h our
Ġassum ptions
N ON
mark s
b urn
Ġexerc ise
. ',
Ġinvolv es
Ġaut hent
TH ER
w ich
ro ck
ub b
Ġdis miss
work s
A K
Ġle mma
O FF
ĠP it
Ġp ictures
Ġh ook
Ġbo at
Ġhard ware
con current
Ġfind ings
alle st
in cess
ĠO k
] ->
ĠA thlet
Ġs ight
Pro of
ĠS quare
Ġstre ets
S ong
U CT
Ġtri es
Ġd iverse
ap l
s u
stit uency
T ex
Ġst ead
ĠF ellow
ip h
emet ery
Ġk il
Ġr acing
ĠM L
In struction
v ard
Ġon going
at on
Ġsc an
ĠMe an
cl s
sl ide
av al
put ed
iber n
'] .
ĠT ry
Ġvict ims
ĠAct ive
fr agment
Ġle af
met ic
in herited
Ġb id
Ġsufficient ly
O G
Ġcor porate
ĠDo ctor
Ġstri p
ic ide
k ernel
Ġt um
olv es
L at
re pre
F ac
Ġto kens
ĠM atch
FLA GS
ĠIndian a
d frac
aw are
ĠGener ated
ĠM D
_ -
Ġorient ation
list ener
ĠA ws
clos ure
ĠU l
Load ing
Ġrot ate
âĢĻ .
EV ENT
oc om
Ġch ose
fg han
Ġrough ly
Ġenc oded
W illi
Ġaccess ible
æķ °
us cript
b one
Ġt urb
el led
e ast
ĠK ansas
Ġg oto
Ġ-- -
iz z
M al
ail ing
ob by
ĠT ake
Ġ" ${
n ed
ĠEx press
ĠL eb
M o
\ ;
dec ode
Ġco ins
FLA G
est ab
Ġsw im
Ġmunicip al
Ġcon crete
con g
LE S
Ġconserv ation
b ow
col n
re present
mat ches
qu est
B D
Ġd iver
Ġsp oke
ch at
ag u
ĠMar c
ro it
Ġg it
b est
op am
æ Ī
st e
Ġt uple
ut enant
Qu ant
ĠIn v
Ġaff ord
ĠRes ources
Ġre form
Ġwalk ing
Ġw ine
Ġc ards
Ġins urance
ĠAg ency
L i
Ġpar a
Ġtrack ing
B us
N umer
f red
re ason
Ġs elling
) })
ah oma
ub er
Ġsp ending
Ġnov els
Ġrepe at
S an
as hes
C trl
') ->
Ġtot ally
Ġperman ent
up dated
}{ (
ic ians
d ers
Ġtal ent
Con tract
th ere
Ġ# {
= &
ĠP rom
Ġshe et
ĠR ange
ĠM rs
": "
ĠSil ver
C odec
IN VALID
to ctree
Ġint ention
Ġenjoy ed
Ġst ood
ĠPro du
ĠTr ack
v et
Ġposs ess
Ġs oci
19 19
ĠSwed ish
ĠB an
Ġred irect
! \
Ġemer gency
Ass et
Ġexpl os
ĠO ak
ĠCl in
SP ACE
Ġcl s
Ġc ertificate
Ġderiv ative
exec ution
roll ers
ct ors
ab a
Ġs ensor
Ġfl ash
Ġconsec utive
Ġg iant
Ġw rest
Ġd ense
repre ne
Ġf ault
I ME
c n
U nd
Ġw rapper
ĠHol y
ust ed
Fe atures
RE SS
(" .
> ${
B ridge
er d
Ġpro spect
Ġs oul
ur is
ur ches
æ Ĺ
Ġse es
Ġgrad uated
serv let
St age
ul us
() ">
Ġpl ain
Ġhead s
Ġd x
ig e
ĠViet nam
Mark er
Ġincreasing ly
ĠS ix
Ġ\ (\
M utable
S ide
he ets
ref resh
tr ain
ĠP ier
ester day
Ġrank ed
Ġhousehold s
AR G
ĠM E
u h
ĠOther wise
Ġparticip ate
ĠAr thur
ĠK EY
br ace
ĠH op
ĠT ABLE
Ġparticip ated
SP AC
ĠCon vert
Ġdraw ing
Ġapparent ly
ache l
ĠR oy
Ġtop ics
ĠHash Map
Ch o
Ġw elcome
P acket
ĠP a
B ER
Det ector
ustr y
P ut
ĠH ouston
Ġappe al
In jection
Ġembedd ed
Match er
th umb
Ch art
S napshot
ĠIslam ic
ĠPat rick
LA B
ĠDi ego
cer ning
ĠT a
Ġap ps
Ġheav ily
Ġ urg
Ġdecre ase
ĠR ic
Ġste el
ich ol
ĠT er
ec lipse
Ġt elling
pub lish
/ )
Ġad ults
ĠL L
ĠB ishop
i ac
A pr
not ification
Ġroom s
Ġent ropy
Ġre ar
Ġattempt ed
View Controller
eg as
ort s
Ġnormal ized
Ġre in
Ġg overnor
ab stract
uff ix
ĠIsrael i
m ont
Sup press
ĠG ab
Ġb ott
BO OL
st ory
ĠS pr
Ġmix ing
== =
ĠC ook
ĠTr aining
ĠPhil ip
ĠC op
c v
Run ning
Ġbig ger
Ġwhe el
1 18
Ġlo an
red irect
=" {{
ous es
0000 0000
ĠHigh way
ĠAll en
ĠIm mutable
" |
Ġequ ilibrium
Ġman agers
Ġexpos ure
char acter
sur face
â Ĥ¬
S core
Ġun iversal
ce ived
] </
ĠP O
Ġfall s
Ġd ress
ĠM un
Com mit
ĠRun time
Ġil legal
ĠMan chester
Ġembedd ing
Ġpresident ial
ĠV ar
Ġassess ment
Wh ite
Ġthe atre
Ġconfig urations
G reen
empty set
un ior
ĠIn ternal
ĠBO OST
Ġexpl ains
Ġdire ctions
Ġre plic
Ġthought s
Bit map
Ġass ignment
ĠB ry
C annot
the less
Ġown ership
Ġmolec ular
contin ue
âĢĻ ,
ub ern
19 35
ĠSm art
local host
Or igin
Ġjournal ist
$ :
ĠH D
all as
tern oon
ure au
Ġrequire ment
Ġg ro
Class Name
R ich
se a
Ġs i
ĠJ am
t v
ĠCon stitution
fa iled
om ot
ĠMiss ouri
Ġv ulner
Ġlands cape
be ans
ĠAnth ony
ĠA z
at ile
aud i
Ġv ocal
Ġf lying
ropol itan
ĠWIT HOUT
ĠR oom
ãģ ®
v art
Ġtit led
EN ABLE
Ġcontrib uted
Ġa apt
Ġinter mediate
ĠB reak
ĠMary land
Ġ======= =
Ġadd r
Ġengine er
ump y
end o
Ġpar liament
Ġnot ion
ĠB ush
Ġgr avit
at ivity
ous el
h alf
ĠG irl
Ġequ als
Re act
W I
Ġgr ade
Ġre named
ĠA st
Ġacc used
Ġent itled
="../ _
ĠSen ior
Ġs ender
iz ard
ĠO pt
qu al
19 33
Icon Error
T X
Ġpro ud
ĠTr ade
Ġsubs cription
Ġclos ure
D ITION
ĠP ur
ugg ing
Ġre aching
set Text
ver ted
ĠT reat
et al
Ġcompet ed
r at
Ġperiod s
ĠSy ria
end point
Ġrestrict ed
i est
ĠD ick
ut down
] $.
ĠI F
19 17
Ġdevelop ers
Trans ition
ADD ING
E LEMENT
SU C
H ol
act s
Ġhypot hesis
W omen
ĠT en
ĠMar ine
ĠG ib
loc ale
fin ite
includ es
ch anges
Ġgrow n
Ġpro pose
Ġver b
G ui
ab ama
Ġabsol utely
Ġoutput s
OT TOM
Ġc p
the w
Ġm acro
ĠJ ay
U AL
Ġconcentr ation
ĠReg ional
l on
max cdn
Ġfem ales
Ġcol lections
Ġmat ched
Ġas set
Ġbas eline
App Compat
ĠĠĠĠĠĠĠĠĠĠĠĠĠĠĠĠĠĠĠĠĠĠĠĠĠĠĠĠĠĠĠĠ ĠĠĠĠĠĠ
L D
Ġis instance
IconError Encoded
C UR
f ish
ownt own
Ġb anks
ri ers
Ġa cknowled
ĠWh it
Ġm ath
Ġassum ing
Serial ization
\ }$.
Ġst im
Ġexper ts
pop up
ĠH ost
" ])
Ph il
T og
Ġb are
Ġfound ation
ĠK han
Ġass istance
Ġflow s
weg ian
$ &
Ġh am
ãĥ ¼
Ġ' ,
19 14
ĠAppend ix
N a
Ġmer ged
3 50
P riority
ĠS n
Ġadvert ising
Ġbound aries
F actor
Ġmembers hip
Ġacc ord
if ts
Ï Ģ
value Of
ĠR ound
Ĩ Ĵ
row se
19 2
Ġf ib
o j
ĠL I
Ġwhen ever
Sc ene
Ġr anges
L iteral
Ġnot ification
A SS
C MD
D istance
Ġfile d
EX PORT
ef e
up per
Ġsever e
Ġprov ision
i ot
}} _{\
Ġev il
Å Ł
Ġ< ?
Ġnorm ally
F etch
ĠF ederation
Ġe c
Ġcomp ens
Ġleg islation
ĠCl inton
uth er
Ġentertain ment
A MP
des cribe
Ġind ependence
hold ers
ĠMi ami
ĠL evel
}[ \
tool bar
tim eline
l ined
ab ul
Ġleg acy
c ity
,\ \
Ġs ought
ĠF le
)) $
DE D
Ġre venue
pre pare
M en
itzer land
@ {
al gebra
10 7
Ġag encies
Vis ual
10 3
iv a
om er
decl are
ĠIllegal ArgumentException
ĠK y
Ġemph as
Des ign
AP P
ĠMot or
process or
ache lor
å Ń
id al
L ive
sub Nav
Ġp up
Ġl ots
ĠD atabase
a ui
ant ed
Sh arp
w i
ic ates
Ġmonitor ing
}} )
ious ly
Ġsus pect
ĠG ard
d ocker
Al pha
ĠTh ird
ĠN ation
pi pe
Ġ" _
Ġjoin ing
Ġbrief ly
ĠT ax
on na
ĠD a
h us
Dis k
ul k
ĠSar ah
os l
med ium
Ġdesign s
Å ¾
Ġs ad
11 4
t re
Ġref used
ut ter
Ġinv ited
Ġg ate
ri k
cul ate
Ġsup pose
B ACK
t frac
Ġent ities
ĠSt op
Ġfr anch
ĠB ORDER
CR IPT
Ġatmosph ere
Ġan notation
Ġin herited
K ernel
Ġass ault
d m
Ġfor th
+ "
ĠE ver
C ountry
Ġprocess ed
Ġmark er
Tr igger
Ġtr im
Com ponents
CRE ATE
Ġd ies
ig ator
ust ries
Ġmaintain ed
Ġhealth y
Ġretr ieve
AR RAY
ĠB ra
40 4
ĠM C
ch rome
ĠE RR
Ġstrong er
Rece ived
plement ed
Ġ' -
ST ART
Ġbe ar
ĠCons ider
el and
el son
__ ["
ĠD VD
Ġal ive
h ang
T ry
gu ide
ĠR ab
Ġinstall ation
amb ig
Ġdesign ated
ren a
in ject
Ġm ac
Ġamount s
Ġdef orm
Ġpop ulations
d elegate
M AN
Ġun us
ĠMay be
E s
Ã¼ r
ĠArg ument
p ond
String Builder
ĠI owa
Ġal cohol
Ġcircum stances
Has Been
Ġpick ed
Ġor b
ĉĉ čĊ
set ting
Ġreal ized
[ <
late st
F ix
RE T
ĠF a
Compar ison
Q ual
Ġsit uations
F D
ĠGree ce
Ġf asc
Set up
ĠLic ensed
ĠN ev
Ġcy cl
TableRow Color
ĠN ob
el ve
ĠTR UE
F rench
ĠMo ore
ĠF arm
ĠAm ong
Test ing
ĠK IND
19 10
c op
Ġf aced
tr ivial
r ang
T ri
in ian
w alk
Struct ure
is o
over ty
C LA
Ġbl ank
Ġrapid ly
ĠJ ob
Ġch air
as ma
Ġcomple ment
on i
Ġbro thers
] $,
Ġdescri bing
il st
w en
Can vas
ĠDemocr ats
sequ ently
ins ic
19 34
Ġther apy
ĠC zech
pro fit
> {
Ġchalleng ing
Cons ider
ĠB alt
Ġlaw yer
rop ic
ĠHarr is
MP L
Ali as
D ict
Ġf olk
ĠS quad
ĠMel bourne
( `
Ġslow ly
ar ith
Ġpro files
Access or
Ġput s
N I
Ġdom inant
}\ ,\
ĠPr ivacy
ME SS
Mod ifier
p n
" ?>
b ors
ident ity
ĠReg iment
Ġb on
Ġdi agonal
rt l
v i
Ġs av
ĠDef inition
+ (
Ġincor rect
qu estion
P ixel
Ġcons c
Ġf acing
ĠV ice
External Task
! (
P aul
Ġb ath
run ning
ch unk
avel ength
I p
Ġp in
Text View
redu ce
ĠMed al
item pty
Ġder ive
he ta
Ġsit ting
å ľ
19 29
ĠA gr
Ġop ens
ol i
v ect
v ature
west ern
ĠTem ple
ĠC P
Ġelect ro
Ġs cre
Capt ure
shall er
iv idual
con cat
om itempty
ĠSc ient
Ġag ed
f aster
ĠK it
ĠD ue
raz y
Mod ified
ĉĉĉĉĉĉ Ċ
Ġd uty
respons ive
Up dated
Ġ* ,
out ube
**************************************************************** ********
ĠJun ior
ĠM IT
Menu Item
pag ination
var s
Ġto wer
Ġprincip les
Mon itor
ig o
ExternalTask Pojo
ĠS port
ard o
ĠCap ital
t m
Ġ. =
is ations
ĠA uth
ĠHow ard
he el
ĠG raph
se cret
separ ator
Ġsur ve
^* $
Ġcomp ilation
Ġcon form
ow ski
Ġe g
ĠNor way
Ġpoet ry
P ane
Ġ" #
ĠCEL L
op acity
% "><
ĠD ictionary
Ġth ir
U int
Ġw aste
ĠNS String
Cal endar
SOUR CE
11 5
SPAC ING
me asure
c urrency
Ġdes ire
Ġold est
t ol
r as
ĠO ptions
Ġto ler
Ġdepend ency
Ġvari ations
ear ing
Ġbur ied
ĠY outh
L R
HasBeen Set
C art
Form atter
Tool s
Ġsurpr ise
it Hub
ĠT arget
Ġw er
Ġview ed
Ġeng aged
lo pe
G M
Ġdis p
ĠSer b
Ġv oted
Ġf oo
ĠV olume
V O
project s
pr ice
I l
= .
Ġconvention al
Ġf lood
I ES
ĠD ave
C ould
Work er
S rc
Ġcom ic
ĠMod al
J apan
B u
Ġseg ments
ĠE vents
clud ing
est ure
G erman
V ol
ĉĉĉĉĉĉĉĉ ĉĉĉ
ec ess
Ġrest ore
19 32
Ġenc ode
Ġhel per
Ġm ales
ĠD og
Al ert
Ġtroub le
Ġk in
IE W
ĠTok yo
c ost
' =>
ĠCh ile
ĠL eft
ors es
Ġclos ing
Ġinj ured
Ġb irds
leg es
Ġ ^{
Ġpro sec
olog ists
Pr ice
m aking
d td
Ġut ility
19 28
in th
ibli ography
ĠH u
we ak
ĠS R
ĠĠĠĠĠ Ċ
ĠRes ults
Ġvari ance
Ġloss es
Ġdistrict s
ol ute
ĠB asic
erial ize
Ġsett led
Ġident ification
ĠDe ep
ĠS ingle
ĠB AS
ĠN atural
Ġtr ains
ĠMult i
F ixture
" =>
Look up
Ġgun s
ĠB ron
M ix
Ġup load
W H
ĠMos cow
Ġconsum ption
j or
ĠTh ose
Ġh int
ĠD M
Ġsch ol
def er
r uct
g lob
ok er
Ġconstit ution
Ġh ate
Ġsimult aneously
m ys
ĠUn less
Ġrem oves
ĠMod ule
Ġcour ses
gener ic
="@ +
Ġd ele
Ġh al
Ġconfigure d
st ri
C SS
Ġcheck ing
Ð ¹
Sl ot
s yn
comm un
Ġla id
Ġcov ari
igen ous
Ġf urn
Ġd iversity
Pe er
ĠÃ ł
Ġ$ ('#
B usiness
fl uid
Ġpul led
M IT
con duct
apt ers
ĠC ape
ri ble
pl acement
man ifest
ĠDo es
script s
D ry
ĠPl ant
... )
Ġsign ing
Enumer able
Met ric
Ġmechan isms
Ġex clusive
D ig
idel ines
N eg
- ">
ac ion
l ad
Ġsy ntax
Ð¾Ð »
O cc
Ġcarry ing
ĠEnt ity
ĠIm port
H y
i at
ĠSt udio
R ober
hib ition
Ġsepar ation
append Child
}} .
Ġb rown
' },
ĠS ri
ĠUs ed
ĠF ound
li a
um in
Ġ" [
et c
ul um
Ġin clusion
ext ensions
Ġrad ial
Ġv it
ĠT oken
ĠBr ig
Ġg arden
=- =-
ig ious
i op
Ðµ ÑĤ
Data Type
L ang
In s
Ġpar ish
ĠPH P
Ġrob ot
Ġh at
ĠA I
roll ing
Ġsub mitted
Ġoff ices
get Attribute
ĠI mp
ĠWalk er
Ġco aches
ĠE ag
W ho
c mp
ibern ate
str ument
Ġportr ay
cl ock
b matrix
Ġhand led
×Ļ ×
Ġpartial ly
st ers
ol ph
c ached
ic ut
ĠE uro
Ġ" );
Ġcom plicated
LP ADDING
kl ahoma
draw able
Ġmed icine
Ġo cean
ÃŃ a
ĠCol on
iss ip
}) }
Sc an
ĠMem bers
Ġt s
) &
Ġcount s
WA RE
Ġcommun ications
ĠMex ican
Are Equal
Ġdeb t
inst ein
ĠG T
at able
ĠR ender
Ġsurg ery
ĠT ab
Ġpan els
Java Script
th ree
ĠCELL SPACING
ĠT rib
Ġregard less
Ġn aturally
Ġs weet
ĠLeg isl
Ġs lice
Ġsurpr ising
Ġemotion al
och astic
ĠCEL LPADDING
Ġsort ed
Ġsucceed ed
Ġst roke
ĠAl bert
Ġbeaut y
v y
Ġcompet itive
ĠLin ux
Ġin h
pe g
REQ UEST
Ġs essions
un s
> `
Ġsix th
Ġneigh bour
Ġdefault s
re tt
ĠTe ch
Ġalign ment
i ota
Ġnon linear
Ġt ough
ĠO K
é Ģ
if ference
ul o
pay load
p al
Ġb ars
Ġmain tenance
Ġroad s
Ġpre gn
ĠAr k
000 1
igr ants
10 6
sche mas
mult ip
Ġtim er
t one
script size
em pl
ĠB att
19 22
ac ht
pro f
f actor
cp u
Ġdr um
Ġ} ).
vent ions
E ven
z oom
ĠM ars
sp ir
opt im
Ġs ympt
Ġattack ed
ĠInitial ize
Ġguarant ee
Ch unk
ĠM and
cy cle
gress ive
ellect ual
Ex it
Ġanal ys
Ġprec ise
S UB
Th rough
Ġre vers
ge br
ĠHaw ai
Ġend if
ru ction
ĠDef ense
Key word
P ipeline
B uf
Ġanim ated
Ġrele ases
W ORK
ĠP UBLIC
condition s
H ello
] ['
Ġm s
un ion
IT LE
Int ent
ch arge
l b
> .</
D one
se p
s ocial
Ġscen arios
Ġbr on
Ġsur faces
trans late
ia h
Ġbl ow
Ġregular ly
ur ric
p d
Ġcorre ction
f ilters
u its
Ġen vironments
Ġf erm
Ġrestr iction
IL L
act iv
z ing
Ġch airman
Ġveg et
task s
> ../
N ECT
run ner
ĠJ ason
Ġref resh
Ġkn ock
omet imes
Ġin fl
ick ing
ĠDate Time
lik ely
ĠE arly
C ost
periment al
! =
ĠCh ap
ç »
ĠC S
per ature
U ES
ĠL as
N eed
Ġst ub
bar a
() [
c sv
en o
Ġ" ;
Ġrepl acing
Ġredu cing
Ġb os
Ġadap ted
ĠB eng
Ġmanufact uring
nob r
ĠL ock
S pe
Sche me
ĠPro perties
ĠG arden
Ġdom inated
am an
Ġfew er
Ġv oting
ĠT og
Ġme ets
ynam ics
ĠVari able
dis patch
ĠLin coln
J o
D er
Ã ł
En tries
Ġcompre hensive
W ARN
depend encies
ut ation
ĠM atrix
p ic
op ens
E urope
14 4
10 8
Ġquant ities
M esh
ĠH ans
ĠC C
Ġ( @
L ines
al ion
ĠP ed
Ġhy brid
Ġaut hentication
Ġa ug
ĠS elf
Ġarg ued
iss on
om as
ĠE mb
Sh are
ĠP red
Ñ Ĩ
F eb
Ġfriend ly
/** */
Ġcer emony
Ġb attery
m aker
ol ly
ĠBow l
M ail
Ġproced ures
? )
in us
b n
pack ages
M arch
} >
Ġaf ternoon
Ġly rics
Ġd yn
Ġregard ed
ta h
Pay ment
Ġso il
M ajor
Ġo x
Ġfall ing
dem o
ĠEcon omic
us age
db c
SUC CESS
FA IL
Separ ator
Ġoccup ied
Ġstudy ing
st eps
; %
Ġ æ
ĠH ave
ĠA fghan
ĠD raw
li est
ens ing
pre view
Ġgeneral ized
oid s
J ames
ĠJava Script
L ite
N ONE
Ġcap abilities
z i
Ġmach ines
ĠÐ ¸
Tem p
ĠBase ball
or ne
Ġcontin uing
ve e
ĠK elly
Ġt y
Lem ma
Ġredu ces
am ond
ĠW HERE
Ġvot ers
ĠG ordon
Ġeth nic
ĠB us
}} }\
ram a
he x
e u
Ġ ur
ĠHer itage
ĠV in
ather ine
Ġcal endar
] ).
ĠN ik
ar o
Bl ue
ĠD ebug
Ġconnect ing
Ġcos m
m x
fig ures
h base
Rel ated
Ġinter pol
Ġstruct ural
Ġvary ing
ĠStud y
Ġl ibraries
Pop up
Ġcent ers
sub string
Ġpen alty
ĠMem ory
Ø ³
inal s
` :
19 27
be at
V R
Ġdet ector
, {\
ke e
Own Property
div ision
j sp
as a
ĠLim ited
Ġkind s
sc an
B ecause
arg v
Ġlog ical
Z oom
ul atory
Ġappro val
Ġmax imal
Ġrece ives
und ers
ĠMov ie
ur ers
Ġvill ages
le arning
ĠS ave
end ment
row Color
F ill
ĠC F
Ġ} ),
Ġart ifact
Ġreve als
Ġtransl ated
\ /
g ate
Ġmark s
Ġsens itivity
19 31
multi row
Ġman ual
ĠRem arks
. ")
faster xml
Ġany where
Ġbe ach
stream ing
19 24
Ġsat ellite
Ġappe aring
ĠKent ucky
F ire
Ġocc as
op ol
s ources
xy gen
ĠAn ne
Ġwonder ful
T imes
cript ors
ex pl
Ġfair ly
Ġm esh
Ġ\ ]
\ }$,
trans l
ĠAl abama
Ġresc ue
Ġdiscuss ions
Track er
24 0
Ġcol le
Ġp ip
100 00
Ġbre ath
b oot
Scal ar
ene z
ep age
Ġvict im
ĠE u
ĠSw itzerland
Ġdep ict
text ure
ĠSchool s
De ath
) }_
ist ol
G RO
en ix
Ġne uro
Ġreve al
Ġconcept s
Ġa ims
ent ries
RO OT
Ġexp atriate
2 20
Ġun expected
ur se
Ġb reed
Ex tract
ĠL abel
ĠW as
ĠI C
st ub
ĠLa ure
Ġinstr uments
seg ment
Ġt icket
Ġpl enty
order ed
Ġeng ines
Ġexcit ing
Ġfle et
p ending
k n
ank a
Ġcharacter ized
Ġbreak s
app ings
Ġdoll ars
Ġre produ
H ar
c ookie
ĠTown ship
Ġmay or
Ġb rows
âĢ¦ .
Ġat omic
vart heta
vent ory
$ _{
Ġfru it
a que
Ġsche mes
A ir
Ġequip ped
Ġapprox imate
V C
ĠWeb site
ĠVill age
Ġ( ;
ĠDC HECK
Ġthous and
\ |\
As sembly
S UP
g p
Ġcent uries
Ġprov en
sl ant
Ġen ables
Ġed ited
nos cript
Ġup grade
ĠH ug
RE NT
Ġwat ched
Ġcut s
T ip
Ġr ugby
gr pc
mut ex
oun ced
H D
Ġcon cerning
ĠEx p
Ġarr ival
Gr ad
Ġliter ary
TEXT URE
FORM AT
it is
Ġout line
}_{ -
ĠM icro
Ġke eps
ĠD id
Ġanaly ze
pro c
10 9
Ġco ffee
r v
ĠParam eters
Ġdef ining
At trib
Ġthread s
Ġstrict ly
ĠB ah
---- ---
Oper and
OR S
Ġobvious ly
V P
'] ))
FFFF FF
50 9
ĠJ osh
Ġmin ing
Ġshort ly
Ġmill ions
Ġn an
ĠE mer
ĠS cript
ĠA le
Ġa ux
Ġvol t
' ):
ĠC NN
B T
add ed
C ookie
Ġassoci ate
G ateway
Ġdesign er
Ġcouple d
Ġillustr ated
è ¡
block s
Ġcompet e
ab e
ĠSe attle
Ġprem ier
F oundation
old s
An chor
With out
re ts
Ġl ake
Ġ" )
Ġb ucket
ĠMalays ia
Ġnom inated
u ent
column width
Th ree
-------------------------------- ----------------
ĠSum mary
F ilm
en vironment
back slash
ĠH ad
sample s
il ty
ubern etes
E ast
Ġener gies
ĠW y
ĠS ud
Ġst retch
Ġecon om
: &
ĠPh illi
v n
uet ooth
ii i
Ġhor ror
Un iform
Ġl l
Ġwat ers
id ad
ig s
Ġneut ral
ĠIm m
ĠP as
Ġisol ated
ĠGr id
Dest roy
ate ur
w x
Ġpy thon
ĠS ize
Ġtop ology
ĠPe ak
ĠCon sole
ĠD oc
ant on
we alth
Ġv acc
ĠDr ive
ME M
RA M
Ġmag net
Ġdeal ing
ymmet ry
ne ed
Don ald
Sur face
19 23
ĠLear ning
Ġgu ests
styles heets
Ġcross ing
' +
Ġcred entials
ĉĉ Ġ
g ui
Ġb ot
Ã© t
s ent
Ġphilosoph y
Read y
g ray
un ks
S eq
vel ope
ec onds
com par
u is
ĠH E
Ġcrit ics
d ag
p ipeline
b oy
) *
is ons
Ġgr ass
ik es
le e
ĠSt ill
Cle an
Ġoff ensive
Lower Case
form ing
et ition
Ġcon cluded
Ref lection
ĠN othing
Ġt ile
Ġbeh alf
elastic search
ann on
h ist
Ġdis patch
Ġansw ers
ĠF M
â Ķ
Ġd s
ĠDom in
C he
initial ize
S PE
R M
Ġemploy ment
Ġdis appoint
at ype
Ġf ought
fav icon
J une
ĠR ap
Ġclass ified
ke leton
ĠĠĠĠĠĠĠĠĠĠĠĠĠĠĠĠĠĠĠĠĠĠĠĠĠĠĠĠĠĠĠĠ ĠĠĠĠĠĠĠĠĠĠĠĠĠĠĠĠĠĠĠ
Function s
d ataset
script style
ĠSt ew
P adding
Ġcap tain
Ġconsum ers
ĠYear s
å Ľ
ĠM organ
ĠTur kish
Ã ½
Ġg ang
Î »
path s
)) \
] {\
Ġde ployment
ĠS el
mod ifier
Ġprov iders
Ġph ases
ĠB OTTOM
Ġfunction ality
CH AN
G G
Ġd ump
n ail
w ave
St yles
Ġtrad ing
: %
ans wer
Me asure
Ġg ay
im ore
Ġcommit ment
Ġs ink
Ġch at
ĠM ission
Ġfit ting
File Path
aw t
end ers
ĠD al
L ow
ĠArt icle
met rics
Ġ( `
Ġadv ers
D im
ues e
ĠAuthor ity
ams ung
m ust
ĠB os
ill ery
19 25
Ġf abric
ot ions
po i
WR ITE
per cent
id en
N or
on ed
Ġent ering
Ġb oot
ĠM achine
MS G
H om
ĠI gn
ĠMay or
gu ard
p f
EN TRY
Rel ative
FRA ME
Ġcoll ision
g h
Ġir re
allow ed
pack et
ĠFre der
R B
P ending
ĠP S
subs cribe
} "/>
gebr as
ob e
ĠM aterial
ĠF ilter
NG TH
Ġreli able
br ane
Ġconserv ative
og onal
et ric
S n
iver pool
ĠCo oper
Ġad mitted
Ġre act
ic he
Ġsh arp
Ï Ĥ
AR GET
ens ities
S ent
C ross
ĠPol y
19 21
Ġord inary
AT URE
B en
Mich ael
d ating
u pt
> [
D ao
lo yd
Ad v
ĠFin ancial
ĠUn ivers
Set s
des criptor
Ġup coming
Ġre serve
Pro du
ĠE C
ct rl
Ġinvestig ated
P rom
post s
m icrosoft
Ġa str
ĠD ur
iv o
ĠF ant
Ġimag ine
Ġman uscript
ter y
ĠĠĠĠĠĠĠĠĠĠĠĠĠĠĠĠĠĠĠĠĠĠĠĠĠĠĠĠĠĠĠĠ ĠĠĠĠĠĠĠĠ
Array s
t uple
inc ial
U UID
| }{
ĠM unicip
Un ique
T l
Ġval uable
T HE
G raphics
00 2
S ing
Ġre ly
text color
not ag
do i
Top ic
19 26
Sh adow
Ġautom atic
Ġgrad uate
es c
ĠTh ough
ĠB ureau
inos ity
] =
ant ly
Ġweek ly
P an
Ġne arest
ĠL E
ĠC L
over flow
ĠH um
Ġmin i
Lin q
rb an
ĠI ron
Ġsing ing
Ġt iny
I ll
Ġw ond
Ġto m
D an
ĠPr act
EE E
Ġweap on
f w
ĠL P
Ġreli ef
ĠCont act
ĠAdd itionally
first row
Ġrep orter
Ġaccomp an
c as
ĠC ole
t ility
ĠS ession
) --
Ġbr anches
r and
foot notes
ĠL A
ĠS cal
ĠD A
ĠCon nection
Ġhol iday
e ing
Block s
Ġt ang
] ),
attr s
et he
Ġd eleg
R adio
Ġch arts
Ġbeliev es
_ [
ĠY an
os er
ĠAng el
5 000
ĠBr un
19 12
Ġr ival
ey ond
ĠCon stant
Ġinflu enced
ĠC ell
ĠF ive
room s
Y S
Ġsim ilarly
Ġ// -->
S afe
Ġp ump
G T
ig ible
]( #
mark er
ick en
Ġret irement
R oom
ĠL ore
ce il
iv ia
L ead
Ġcook ie
Ġhas n
ĠR elease
Ġdirect ors
T om
Ġany way
Ġinj uries
lo be
Up per
Ġback up
Ġann iversary
F ollow
---- -
Ġemploy ee
Ġrun ner
Ġreal ize
Ġconsequ ences
Ðµ ÑĢ
Rep ly
Ass ign
Ġprot otype
Ġf ul
ĠÐ º
Ġs le
ĠB ible
S mall
ĠAl an
process ing
Ġrender ed
Ġel li
Â ®
ĠS ET
ph ab
dir name
h w
ass et
Ġla ugh
Ġp a
ex tract
J uly
ĠĠĠĠ čĊ
ĠT i
ĠÐ ´
ĠB h
Ġdisc ipl
ĠString Builder
Ġpr on
$ };
se ed
Ġpublic ations
ĠDe an
Ġentr ance
Ġout comes
to Equal
Load ed
Ġm igration
;\ ;\
Ä ĥ
ĠH ills
Ġconven ient
ĠEx pression
ĠAust ria
spect or
sp ot
ĠU P
IN IT
ĠAl bum
Ī Ĵ
n m
Mer ge
che ll
ĠMc G
ĠSw itch
Ġphot on
ĠTr avel
Ġpres erve
ĠC ow
Ġpass enger
^^ ^^
Ġd ashed
og a
ir i
In ject
Ġactiv ation
s ame
ĠGr ad
ĠRepresent atives
Data Source
Pay load
Ġdom ains
un ning
Ġpass engers
Ġwe aring
hel lo
Ġsy nd
back end
Event Args
ĠP ear
V S
Ġqu ote
ĠK er
A rm
H AND
o is
Ġhapp ening
cri ber
OB JECT
Apr il
Can adian
m ate
ĠCh allenge
Ġj azz
Ġtri als
ext ype
}} ^{\
med skip
MESS AGE
ĠBar on
oust ic
Jan uary
ĠJ os
ik h
19 16
s creens
GB T
d ump
Ġhead quarters
up id
Ġloc ale
ĠDoug las
e i
c aret
Trans fer
ith metic
Ġvisit ing
ĠD evice
ĠH it
Comple tion
ĠHel p
m outh
Ġpublish ing
J s
ĠDet roit
ĠL am
Ġrem oving
Ġserious ly
Sec onds
Ġf its
tikz picture
Ġt ank
IN DEX
\ ":
dr ag
Ġconsider ation
Ġun iqu
ĠAt tribute
par allel
Ġestablish ment
SH A
P ad
Ġm art
int o
}) =
ĠWal ter
J ack
ĠInd ependent
Ġnarr ative
}) ^
c art
b ounds
det erm
issip pi
Ġs ons
av ers
ab b
ĠT alk
Ġimprov ements
PRO C
ĠWork s
ne ut
,\ ,\
Ġb ag
Ġqu asi
Ġp rize
ĠN u
Ġextract ed
A zure
ĠCom par
ĠE N
==== =
Oper ations
m ov
Ġr hs
s ong
ber ry
Warn ings
or ous
Ġdef ensive
ĠS SL
Ġre start
Ġan om
ĠCom ments
Path s
b ucket
H int
B LOCK
ĠA udio
att ach
Ġprint ed
Ġs napshot
Ġmodel ing
et ry
Ġâ ĨĴ
Ġf iber
Ġdat etime
ot er
Ġexception s
ĠA lice
non atomic
Comple ted
Ġfrequ encies
H I
Ġvol umes
l arg
Ġn ested
Ġt ied
ĠCre ated
Ġorder ing
Ġad mit
M ov
ĠH ope
Ġlook up
ĠFor ces
Ġstr ange
Pub lish
Ġsystem atic
ĠB ed
it udes
R adius
look up
oc a
el ines
Sub ject
the ad
Ġal location
ĠC HECK
ĠCom ment
ĠK am
ph an
f act
ĠCle ar
T oday
br anch
/ #
Ġbus y
Ġequ ally
H ence
ĠW ait
e or
St mt
or ce
dis k
C ertificate
Ġsk ill
ap ps
Ġat om
Ġc url
19 15
re view
ĠP ackage
Aug ust
cast le
Ġan th
ĠIn s
ĠO klahoma
Ġmeet ings
SER VER
r ides
Ġsph ere
Ġep och
Al t
Al gorithm
ĠR andom
99 9
Ġn ick
Ġhe ll
at om
ĠC T
} |\
Stack Trace
Ġlic ensed
ĠEx per
Ġsignific ance
Ġflo ating
ed uc
S ig
b t
Valid ate
Ġx si
c am
Ġvac uum
Ġabandon ed
Ġours elves
ĠM eg
Ġperform s
ograph ical
ac ef
ib ling
ĠF ame
ĠPer formance
Ġkw args
ĠBru ce
Ġd imensional
* >(
d ensity
p aces
; ]
A lex
Ġr ising
Ġre ception
Ġ/ ></
Ġexhib it
ge ometry
DE P
Ġstrugg le
Ġp ione
es cape
AB C
Ġreg ulations
Ġst arring
Ġ} {
az ure
D ot
Ġl aser
Ġh ip
CL U
Dest ination
Ġ" +
footnotes ize
Ġr c
ail and
Ġref lection
Ġo vers
ordin ates
L o
L ear
ind ices
Ġover view
Ġtop ological
ĠPart ners
long rightarrow
nov ation
[] )
ĠTele vision
sc ene
b oth
Ñ ħ
M ass
ec ycle
ĠMar shall
. ]
an ion
Ġto String
S lice
Ġf oc
Ġh ack
ĠAtl anta
ĠCom ics
ĠFe ature
Ġse ar
Ġd ip
c py
Ġtrans itions
Ġfra ud
Ġr m
Conf irm
D ist
ĠN ature
ag netic
ĠSt orage
AUT H
uer to
Ġ. /
ash i
Ġinvest ors
Ġhead ing
ĠJud ge
T ick
N L
W ar
Ġeduc ated
Ġres id
Ġsurv ival
Ġmechan ical
H A
Ġlif etime
Ġhe x
\ }\
Ġs urn
Ġback ing
Ġbox es
Ġf ro
Cred entials
DITION S
t ele
Ġne ur
ĠN eg
Ġpublic ly
Ġas ks
ĠAl liance
, </
Ġsit uated
ĠKe ep
ĠInst all
Ġgen etic
Ġstr uck
Ġwrap ped
AR CH
Ġfore cast
level and
g c
AC CE
Ġst y
in burgh
Ġpay ing
S al
Particip ant
in verse
E r
} ~
AB ILITY
A ud
11 7
Ġd ial
Ġem pir
bo ards
ĠB ody
Ġsuper ior
. $$
ass oci
12 4
ĠNiger ia
Ġb om
Check ed
Ġatt orney
V ote
" </
3 000
Ġcur vature
Ġdesc end
ĠÐ ¾
enc il
Ġqu ot
book s
ĠAnton io
parent Node
ater al
Ġmy th
ĠP erm
Ġro se
Ġexpect ation
c x
Ġthem es
Oct ober
Back end
ĠForm at
pos er
? (
Ġge ometric
Ġfranch ise
K S
Ġattr s
G uid
at ers
p riority
Ġformer ly
Constr aints
** *
Ġincre ment
Ġf inger
__ .
Ġarr ive
ĠIndones ia
Ġinform ed
m ers
Ġfant asy
All ow
M art
com ments
Ġrecon struction
Ġn ations
ĠM I
ĠOper a
Ġar med
Ġpark ing
Ġc urrency
sp i
in formation
ĠN ichol
ĠW i
Ġ( #
ĠE ss
Ġadapt ation
al ia
r x
ĠWith out
Bi ography
19 13
hash Code
Ġorgan isation
w ind
ĠD I
f ather
ipp et
ili ary
Ġsol ving
Ġw el
Be havior
aly zer
Ġtr unc
Ġhead ed
he alth
ra ke
Ġcut ting
N OS
af ka
Ġdecl aration
help ers
T ensor
ym n
ĠC os
ĠThom pson
Ġarg ue
ĠAust in
Ġgen re
pt o
Ġparticip ation
ĠG all
y ll
ard ing
ĠTra il
Ġtransport ation
d ed
Ġnot ify
Ġru led
le tt
Ġre aches
Ġmov ements
or ange
Ġant icip
V A
ect ure
........ ........
ĠV o
ĠTh ank
l if
un iform
ld s
ĠAb b
ĠN ap
ab ling
ĠPro file
k ar
ĠL ane
ain ian
Rober t
c ord
OPT ION
^{ (\
place holder
ĠB ased
v g
ĠOrgan ization
] <
H on
S ound
ĠN ash
Ġdec line
ĠS ide
ĠF ast
O lymp
ĠC lose
render er
FT WARE
Ġasympt otic
en berg
Ġs ick
Ġdist ances
Ġp ushed
back s
ĠG O
ish ment
Subs cription
ĠPublish ing
Ġpl astic
button s
Ġinteg ers
ĠInd ustry
Î ·
sp ark
Ġroy al
ĠD allas
ĠĠĠĠĠĠĠĠĠĠĠĠĠĠĠĠĠĠĠĠĠĠĠĠĠĠĠĠĠĠĠĠ ĠĠĠĠĠĠĠĠĠ
Ġchild hood
M obile
INS ERT
">( </
ĠA qu
H ook
t b
ĠBAS IS
Ġ/ ><
ĠP od
Al ignment
Ġtem poral
it ely
ĠH ell
over ride
Ġserv ers
ĠDr agon
it ure
sc opic
cor rect
) >
Ġbas ically
ĠU r
ens is
Ġrem oval
Ġdev iation
k ov
Ġgr ab
Ġtouch down
T or
Ġr um
ĠCh apter
Ð ±
sect s
Ġarch ive
> )</
Des cribe
uk i
Ġground s
PREF IX
Ġs occer
=" <?
ĠH amp
Ġman aging
Ġdr ums
Ġencour age
"> &#
Ġstrateg ic
Ġsub group
Ġshould n
ĠChrist opher
Ġcon front
P ref
ĠC ache
Ġat oms
qu ality
Ġr ub
ref lect
sol id
Ġarray s
Ġalloc ated
Ġ"- //
Ġbron ze
Ġh oles
Ġtransform ed
ac l
ĠY et
ter ior
Ġpro be
with out
More over
Ġg ift
ĠCON DITIONS
Ġincor porated
Ġinnov ation
Ġtr uck
Ġc od
Ġre tain
to LowerCase
Ġd ating
Stat istics
Ġc up
ĠN ic
Ã ª
prov ed
ĠC ancer
d eveloper
M AC
Ġindependent ly
Ġb ird
Ġis omorphism
13 5
Ġrandom ly
ĠAl tern
er ical
R outer
sub sec
Ġgener ates
Ġart ificial
inn ed
Ġgreat ly
ĠPe ace
C amp
Ġpriv ile
ĠSing h
Ġcomp iled
ĠEx change
ĠConnect icut
ĠSaf ety
ĠR ot
ush ing
P ID
pe er
Ġt ur
Ġ[ -
Ġte ch
aint ies
ĠCh airman
Ġob server
Ġelse where
in ces
Ġag es
Ġen semble
Ġt all
ĠF O
Å «
st mt
ens ors
ĠCon struct
ĠLaw rence
Ġcomp ile
CO UNT
alax y
f uture
Ġ ì
Ġro uter
ĠPro tection
Vis ibility
ou ver
FUN CTION
^{ *
Encod er
V EL
Ġreg ression
Ġimpress ive
Se ptember
Ã ´
set Attribute
ort ed
EN CE
Per cent
q q
Ġher itage
Str ip
Ġf unny
claim ed
text area
ĠSim ilarly
ĠMc K
Ġspec ification
ĠE arl
Ġaware ness
part ition
Ġdispl ays
Ġimprov ing
Ġh ired
Ġpro x
Ġst abil
std lib
ĠD im
am ents
ĠN i
HO ST
Ġsurv ive
Ġfem in
P icker
Ġs alt
Mod al
Form er
hy thm
Ġknow ing
ĠBe at
Ġwalk ed
AA AA
ad apter
Ch at
Ġexpl oration
Ġprof it
Ġjud g
Fore ign
Ġperiod ic
ĠArgent ina
re ach
Ġround s
Ġcomp aring
Ref resh
Ġfarm ers
f lix
ĠS peed
u u
Ñ ĸ
Ġy esterday
ĠDub lin
ĠCom puter
Ġaddress ed
p us
Att empt
19 11
Ġform ing
R ound
prec ision
Ġout standing
Ġden ied
Ġperfect ly
L com
f loor
Ġres idual
ing ers
a ac
Ġcommand er
ts burgh
over lay
ĠTai wan
File System
Ġcollect ive
iss ance
ĠE ff
H am
p od
ĠAl ber
ta x
Ġre try
per mission
ra ig
å ¯
Ġst ake
../../ ../
Ġcomb ine
ĠS yn
ĠF al
Ġcy l
font s
EN C
Ġ' ')
ĠR ule
t ick
n pm
Ġequival ence
TE S
ĠQueens land
ĠL iving
ĠNew ton
ĠA BC
ĠP ho
V IEW
Ġnot iced
ĠY O
Ġdiam eter
Ġperson ality
ss on
Reg istration
c amel
Ġf est
ĠK az
m issions
ab ad
Ġun like
Ġd y
Ġ\ !
Ġreg istry
Ġt ar
pi res
B oth
man y
Ð¸ ÑĤ
Ġsuff ering
Ġp overty
? </
S en
ha us
c ategories
Ġh ospit
oc he
17 0
f our
g ather
ĠD ak
TO OL
Ġch rom
ĠP ap
="# "
Ġsl ave
Ġsw it
Ġstreng then
n est
end region
Ġco in
ener ate
M us
l r
Ġas c
Ġdynam ical
Requ ire
andid ate
ifi able
ID ENT
l iving
m g
th ird
ge on
n ik
m atic
ĠR T
ĠL ess
writ ing
ĠS ex
ĠPl atform
ĠStruct ure
Ġrecogn ize
Ġprocess or
Ġre putation
ĠS A
ĠNor wegian
ĠS uccess
Sup pose
ass ador
Ġlisten ers
uff le
Re place
Ġl ift
Rece ive
ĠW oman
Ġstraight forward
DI F
itar ian
Ġp s
List eners
c amera
Ġtick ets
Ġw avelength
ĠJon athan
li ers
Conn ector
c ill
âĢ ī
: -
t alk
R GB
Ġdog s
ĠCro at
: =\
B ucket
Ġex pr
Ġcour ts
3 20
Ġp tr
Ġhe lic
Ġlik elihood
Ġcall er
Sche dule
ĠK ath
Ar r
à ®
sl f
">< ![
" }
ud son
sh arp
Ġcons ent
Ġrep air
sign al
Ġcondition al
2 30
Def ined
reg istry
member NameLink
inv oke
ĠRes erve
ä¸ Ń
r ac
ĠRes erved
ĠPal ace
ust ering
Ġinitial ized
ul ates
ul ative
D a
A ff
m ates
ĠVer ify
em ale
Ġmer ely
Ġ ,\
R IGHT
Ġad venture
ĠI OD
MA SK
LO AT
control s
um ption
LE NGTH
Ġoper ates
ĠH IV
ĠStud ios
Ġst ochastic
ne e
Ġprodu cers
Ġsm allest
Ġrestrict ions
ĠStud ent
Ġt act
ĠPr ice
in ite
ourn als
ĠRel ations
Ġdifficult y
reg ex
q t
Ġcl ar
ĠAn na
pan ic
ov ak
ĠHon or
ĠRes pond
Ġw et
ri el
pt s
mem Item
Ġt ill
ĠD ist
Ġ$\ {\
Ġins ight
. ');
ool s
b etween
ĠD ance
om eter
ĠC PU
ĠCh rome
dest ination
ĠF red
table s
Ġunus ual
Ġt unnel
Me an
ĠBul g
Ġshe l
="# ">
default s
ĠJ enn
p lier
id ges
Ġb le
we ather
Willi am
D istribution
Ġmusic ian
Vari ant
For ce
Ġsup ers
Ġwor ry
ĠH old
Ġstream ing
ĠS oc
Pl us
Ġinv oked
ĠB ull
ol o
ĠM B
Ġstream s
ĠCommun ications
Ġspirit ual
] *
st roke
ĠRuss ell
road cast
phant om
Ġsynt hesis
build ing
20 23
mat htt
M iddle
trans fer
ffff ff
p oll
Ġt f
ĠFor um
Ġz oom
ĠW right
St d
Ġinnov ative
m acro
Ġsu ite
tain ers
res olution
Ġz ip
work er
Ġspe aker
ĠA WS
Ġoper a
S yn
ĠDis play
interpre t
ĠV egas
Vari ables
Ġqu ark
Ġacqu isition
ev a
Ex press
Ġoper ational
Ġin vari
int ro
re verse
E lect
ĠA B
ĠB art
ement ia
Ġlocal ized
ĠC atalog
}$ }
Ġtri angle
å ¼
ang les
18 90
Ġl ights
Nov ember
B lob
N U
op ter
A wards
N ING
Mult iple
ul se
ĠSp irit
Ġpo em
; -
ĠM oz
an ne
ĠGr am
Ġ$ ,
ĠCent ury
Ġ' $
Ġis lands
Ġvis ibility
ĠS audi
ĠK ings
Ġst adium
Ġmarg inal
om ething
ĠRog er
Ġlik ed
Ġg od
Ġdest ruction
to kens
ĠO wn
Ġsudden ly
ĠP si
Ġpseud o
Ġb acter
ant ics
ĠZ one
LO B
Ġharm ony
Ġch a
ym e
ra id
ĠNot es
Ġs oph
Ġs acr
ĠG raham
Ġcorre ctions
ou p
//////////////////////////////// ////////////////////////////////
Ġ[ {
ĠM aur
second s
Ġrac ial
Ġenh anced
. (
ĠCol lections
First Name
Ġshop ping
ĠPh ys
Ġun f
ele ss
Ġbl ind
ĠM ess
Ġde als
ĠR PC
Ð¾ ÑĢ
ĠSy mbol
h p
ĠF inn
Ġrecover ed
ch arg
Ġlog o
Ġhelp ful
h int
und les
lock ed
ert ainties
Ġclose st
Ġeigen values
sm art
S ocial
C V
}\ |
Ġpain tings
Ġcirc ular
Ġderiv atives
ir ates
ĠB uck
ĠT itle
ĠN ag
ĠAnd y
remove Class
Ġwith draw
ĠT ar
ĠTest s
ĠSt age
Ġmet res
Ge ography
ĠSh op
pre dict
ĠOr th
AR K
Ġsynchron ized
p iece
Ġr s
Ġform ally
ĠCon vention
Ġdistingu ish
ĠR ain
size of
qu er
E ducation
Ġsupport ers
y t
Ġguid ance
const ants
ĠSw iss
Ġhigh way
ik ing
vent ures
Ġexpect ations
ĠMur ray
s With
H idden
Th anks
Ġto x
}} =
ĠRequ ired
ĠG ET
ĠU SE
Ġre lying
{ |
) }.
Ġw ider
av atar
em en
Ġ\ ,\
um inate
ab i
ERT Y
19 08
Ġdise ases
Ã «
Equal To
as ant
Ġrep o
(" -
ĠP ope
mult iple
Ġaim ed
ĠB uff
aa aa
Ġinh abit
ĠF i
Ġdevelop er
ĠM ind
Ġkey board
Ġen forcement
over y
Ġind ent
4 50
Ġgravit ational
STR UCT
S uch
oc ent
Ġsympt oms
ĠH oll
ĠAtt orney
Ġfluct uations
Ġmod ification
ĠDet erm
ites pace
ro tt
SD K
ev ens
Ġph arm
stat ement
S eg
m aml
ĠS creen
Ġ Ä
Ġb one
Ġl anding
ĠF L
tra its
ĠPl us
Ġrout ine
or b
Ġm ilit
Status Code
s ender
ĠT s
C atalog
Res earch
Ġmor al
C over
ĠH iggs
lic t
win ning
te ch
en ario
Ġhe ter
De cember
Ġd il
get Text
Ġpublish er
^* \
Ġvolt age
ut t
å º
ĠP L
conf irm
g em
ath ers
sp aces
Ġfe es
Rep resent
Ġaccompan ied
Ġm k
ĠG ray
ĠP sych
Ġas semb
Ġweight ed
short cut
App ly
et ics
Ġing red
ĠAd ams
ancell ationToken
N EL
qu is
struct ed
iss a
ĠMor ris
Art ifact
R G
Ġdo ors
Ġgovern ments
\% $
For ward
> ()</
if rame
S chool
Ġdis ag
subs cription
Ġsepar ately
Ġh ill
Ġris ks
ard ed
bl ing
Austral ian
ĠBelg ium
Im ages
ph ere
11 3
ĠH ero
ĠN eb
ob i
Ġpain ter
part icle
F ROM
Ġst ick
ĠB egin
Ġsl ide
Ġrest ored
ĠTh ings
Ġprepar ation
c z
Ġf ishing
Ġar row
Last Name
p k
Ġpl asma
Ġv anish
Ġpass phrase
ĠTrans itional
Ġpermit ted
Ġfit ted
h h
Ġin fection
ĠT EST
ch arts
miss ing
anc ouver
Ġt ou
Ġm eters
! ]
em ies
Ġ utils
ma jor
get s
ĠCh ampions
Ġw edding
Ġth orough
ĠG irls
Ġan cest
j amin
Ġ" ./
ĠH eb
Prov ince
0 100
Ġred shift
om i
Ġbr ands
Ñ Ī
Error Code
ĠHistor ical
Ġs ends
ĠSt yle
ĠKn ight
un ed
ĠN elson
ĠMiss issippi
Ġleg s
l ings
Ġm i
ĠAb d
ĠArm en
U ntil
ĠA UT
enc er
Ġent reprene
Ġcr ick
Ġf o
ĠP resent
equ ations
Ġpe ers
Ġmar ine
g un
ah n
ex clude
ĠL iverpool
Ġs ig
ov o
Ġes c
ĠEm peror
Ġprofession als
á »
Ġcritic ism
Ġcr imes
Ġn ortheast
INST ANCE
ĠW ard
Ġp sy
Ġbr illi
ĠT otal
Ġh urt
Ġtarget ed
ĠMat thew
ĠEd inburgh
im its
C N
u art
ä¸ Ģ
p ixel
ĠP eters
Ġsurpr ised
ĠRob inson
ĠU V
math op
ĠTh row
Ġt ennis
S heet
/ '
ect ive
=" //
ĠM es
An n
apol is
h is
ra ise
Ġc able
S IGN
Ġt ort
ĠCon n
Olymp ic
. \\
Ġpay ments
Ġmir ror
Ġc um
Ġstead y
Ġm apped
ĠChar lie
Ġsp arse
Ġm ic
Ġst ops
On line
Ġcompar able
ĠAnn ual
St ation
Ġi Phone
ĠMon te
Ġb es
ĠSam uel
Ex cel
30 1
s leep
Ġpr imitive
R eq
om ing
Ġg ray
Ġagric ultural
ĠI ce
pro blem
Ġent hus
Ġremain der
F ake
ĠClass ic
AR B
arr ant
Ġiniti ative
ro se
ĠP aper
Record ed
16 9
ĠM other
Ġpar ad
; ,
Back up
NotFound Exception
Ġunivers ities
ç ½
Ġconsist ency
Ġsol ved
ĠTh anks
il ine
ĠJ uan
Ġathlet es
æ ī
od ox
Ġsomew here
ĠAl gorithm
ĠHar vard
TR A
ĠDec l
S N
Ġfin ishing
St ates
Ġgen es
Ġ! !
comp act
comp iled
ex isting
Ġim aging
12 1
ĠEnvironment al
ĠTh ailand
Ġ# #
User name
Ġh orizon
Comp are
Ġbench mark
Ġin duct
ĠG ary
Ġcaref ully
ĠS ymfony
g mail
ĠS everal
Ġj unior
Ġfocus es
st ation
bit coin
tr ansp
ug u
Ġin coming
H istor
Ġ(! (
ĠF ont
Ġlab eled
Ġc ited
Ġin hib
Le ave
ĠStew art
Ġinter vals
Ġill ness
Ġdeterm ines
Th reshold
Ġch urches
Request s
sc ar
> ';
ĠO UT
y arn
or us
ĠM ix
Ġinv olve
Any Ref
elf are
ĠCamp bell
Ind ian
Ġcub ic
ĠMic hel
row th
Ġperson ally
M LE
Ġlock ed
ĠId ent
d eb
w ire
G F
m al
ĠB ou
ced ure
in istic
um per
ant i
re ements
ol ate
ĠWar ren
ĠH erm
Ġvir us
Ġatt ach
C tx
ĠTr igger
duc ible
Ġl in
Ġcaref ul
f ar
ĠI an
Ġspec ifies
DO CK
Ġcho osing
az el
Ġmet all
Ġme at
ynchron ous
Ġpar agraph
bad ge
Ġdiff usion
an on
Ġdis order
Ġsp ark
ment ion
ĠK o
Ġtw elve
bal ena
ĠN BA
leg end
L M
ĠSen ator
ĠT el
Dec oder
O s
Ġt one
Vis itor
Tw ig
date picker
// ----------------------------------------------------------------
Ġlik es
ill o
ĠSt ars
T ake
mod ified
Ġfound ing
Ġwh ilst
field set
t bl
Ġrepresent atives
est ing
enez uel
Ġsu icide
ĠDown load
ĠF ern
ĠMet ro
ĠSquad ron
ĠSO FTWARE
ĠF el
Ġarr anged
Ġinterpre ted
om es
Ġph rase
Ġeng age
Ġcr ack
ambig uation
bel ow
!! !!
m akers
ĠSh ip
>: ]<
ĠL anc
F ast
config ure
Ġsimilar ity
qu et
ĠG il
u ates
ĉĉĉĉĉĉĉĉ ĉĉĉĉ
ĠM s
Gener ate
Ġconsider able
own ed
P DF
ĠSch olar
12 2
MA IN
n ia
Ġin aug
tr ait
Ġrecip ient
ĠP il
Ġbe er
ĠReview s
Ġinterview s
oc ese
ĠR aw
ĠF actory
K EN
ĠMag ic
Des pite
PA SS
<? >
X i
19 0
( -\
ĠR achel
Ġ( <
ĠE sp
Ġsearch ing
Ġpro hib
Ġl ux
Ġcy cles
ĠB etween
ĠR y
ĠW ind
Ġb oss
P ACK
dec oration
'' '
C alled
ĠSt ories
Ġst ating
Co ins
ĠL LC
Ġexam ine
Ġap artment
:: $
Ġfru str
Ġthink s
ĠR at
Ġbutton s
oth s
Ġpres erved
Ġdem ands
å Į
sh iv
Ġb eta
ĠElect ric
ĠCr ime
S us
ĠIN TO
em ed
NE W
19 09
ĠTh er
Ġconj ug
R atio
ĠDen mark
ject ure
f un
Ġrend ering
Ġ$ ^{
Ġd jango
Ġav ailability
$ {\
an alytics
ane an
Ġfrequ ent
Ġsecret ary
Meta Data
Ġ' </
ĠLouis iana
atab ases
ĠMar vel
Ġenc ryption
em a
Ap pearance
Ġconsc ious
M W
Ġcommission ed
ĠAd vis
ig g
Ġeng agement
ĠKenn edy
bor ough
ĠLink ed
ĠD ays
Add ed
123 45
Off icial
ĠB ab
is y
Ph aser
ĠD ATA
ĠAdd ed
ĠK ind
Ġperturb ation
ul ous
ãĤ Ĵ
CL I
mys ql
le ans
ch t
ecess ary
ĠB utton
High light
Ġd inner
16 8
ol id
ĠE D
Ġre ign
Ġ[ #
R ail
f are
Ġelect rons
ĠBrook lyn
F B
ĠG un
pre vent
Ġrecord ings
ind ependent
ot he
Ġcomp ression
Ġex ha
ĠF ried
vari ables
ĠU tah
> ');
ot ropic
Tog gle
Ġaccord ance
cor ollary
Ġunc ertainties
ĠP ast
Ġb ases
ĠDef ine
Ġmedal ists
Ġaug ment
Ġinv asion
Prot otype
std err
he art
Ġp index
ĠL ower
constr aint
Ġs aving
ĠBo ys
ĠGu y
Debug ger
ĠIm ages
s By
Part ial
ĠInst agram
oth y
ĠØ§ ÙĦ
x ref
Ġpolar ization
Ġgu ilty
ĠM ET
H ide
E mb
ĠPortug al
R oman
Ġwebs ites
Act or
go al
ĠInter face
im o
ched uling
Ġto w
t z
{ },
sl ot
ĠAss istant
Ġul tr
Ġcelebr ate
AC HE
c odes
Ġorb ital
Ġfeel ings
T M
Ġinvolv ement
PI O
> $
S il
ĠS now
ĠF loat
Ġp ipe
Ind icator
Ġproport ional
Ġc fg
ĠR ub
Ang le
read cr
vis it
eb ook
av ia
Ġsynt hetic
ĠPortug uese
Ġiter ations
ĠJ ess
comm ands
An notations
ab sol
N orm
Ġsim ulated
F oo
s qu
Ġliter ally
Ġuniform ly
Ġnull able
Ġphenomen on
amer as
n io
Ġin ference
] -->
20 2
U Int
ur u
Ġear liest
ĠPolit ical
W alk
US A
g ow
Ġproport ion
Ġenc oder
st ock
r atio
ring tone
RO W
rol led
$. }
$ }}
ĠC E
Qu estion
Art icle
Ġg host
ĠM ort
Ġas ide
Dis abled
æĸ ĩ
Ġrom antic
df s
Ġval ley
CON ST
ĠNC AA
hy per
Ġtrend s
Ġcancel led
p referred
Ġsil ent
= </
se en
ĠO tt
Us ed
Ġlum inosity
Ġh alo
] >
MA KE
Ġrel ating
B etween
------------ -
window s
Ġhistor ian
ĠCar ter
A mazon
B ibliography
job s
ac red
ĠU TC
Sc ott
B N
ul u
Ġleg it
P K
ĠFin ance
Author ization
Ġsp ell
re ply
In line
ĠLiber al
dd ie
az ines
Un able
d al
G old
our t
add EventListener
gr avity
View s
ĠDep uty
ag greg
ĠP arent
Table s
x it
Ġdecre ases
l ua
Ġg raphics
Write Line
M a
ĠC lick
Ġfin ance
Ġdeep ly
ĠArch ives
le ading
get Key
Ġform ulation
Ġpul se
ed a
ĠN ep
Ä Ł
Ġob lig
19 05
Al ign
ĠMon th
ĠParam eter
ĠT ower
ĠCom put
the y
ic ht
Ġres idential
section s
H ard
++ ++
ĠIm perial
clus ively
ĠBang l
im plementation
Ġtim ing
Ġc c
list ed
L ab
od ash
Ġint ellectual
Ġrad ical
[ _
Ġang les
Ġsustain able
ĠNav al
****** /
Ġins pect
ĠSet tings
add le
! )
ĠTrans action
uff icient
ĠC row
ĠC emetery
Ð¾Ð ´
Ġtransform ations
Ph ase
ĠMont real
Ġ( ),
Ġinitial ization
ĠStud ents
Ġhand les
2 11
ĠCon st
Ġrequ iring
om p
H ot
math it
Ġmount ains
Ø ¨
as ide
Ġconsist ed
Ġtax es
Ġ" :
r ace
Head ing
ĠOr chestra
custom er
Ġschol ars
ĠCon structor
Ġb io
on line
ĠNAS A
f ef
S pr
h op
Ġscript s
ĠP i
ĠR ace
car ousel
ĠCommon wealth
ĠSh ar
ĠCred it
Ġelect rical
c ov
ĠE val
Ġthe ater
Al bum
art z
Ġident ifying
ar ound
Pub lished
NOS CRIPT
i q
ĠBr and
Ġsurround ed
ĠCol omb
Ġcirc les
ar ial
L arge
à¤ ¾
iv ari
Ġevery where
ĠB ag
ĠG ulf
Ex pl
Ġpro position
Pr imitive
× Ķ
P aint
T ITLE
( ",
or ate
b ie
ic ulture
col ors
I ssue
Ġg ent
Ġtr ick
Ġhash Code
* }{
ĠT ig
Ġrestaur ants
tab End
ifest yle
Ġsing ers
. &
Ġhop es
Ġbi ological
i ology
Ġ\ &
Ġc ss
ret val
distrib ution
irm ingham
Ġdam aged
ĠS ay
Ġw ake
att en
Ġconstant ly
ÐµÐ½ Ð¸
er k
cho ice
h ai
Ġr uling
ĠMarg aret
AME TER
sche me
Ġp ole
S uite
LIN K
Ġs urre
um ed
ĠG ot
T ON
Ġun likely
Ġreal istic
Ġform ats
Ġpri est
h uman
DI RECT
Ġc ry
LE N
ĠO THER
Ġf er
ĠBro thers
Ġr anging
ĠC leveland
ĠE le
Th an
Ġd f
z ier
ĠBalt imore
ING S
Ġviol ent
Ġaggreg ate
ĠUn iverse
ĠH end
f requency
Ġencour aged
Ġcelebr ated
Ġsuff ix
Ġobtain ing
lim ited
Ġbur st
th ick
Ġamong st
ĠS S
ĠB rowser
Ġven ue
ĠCont ainer
Ġstay ed
ĠPerson al
Abs olute
Ġdisap pe
ĠE mber
"/ ></
T i
loc als
Ġoverl ap
um ing
ĠS pect
* .
Ġ' ../
thread s
ĠPolit ics
ĠBr anch
Ġmonth ly
im iter
Ġrare ly
x e
Te chn
Ï ħ
ĠF light
7 50
ĠU rban
re ck
ig gers
input s
Work s
ĠVis ual
ĠM yst
Custom er
String s
res olved
pub lished
F ilters
ç Ľ
ac cur
Ġexp anding
) ?
Ġappoint ment
Ġc ul
ĠQue bec
G l
W IT
g ent
ĠSup pose
ĠT yp
Ġvis its
S at
en h
Ġfl av
Ġv ec
Ġtext s
LE VEL
Ġg allery
ess ment
ĠG las
Ġsub str
Ġ/ .
---- --
y c
og ue
| $
ph oto
ĠRef orm
× ª
Ġany more
ĠL ocation
UP DATE
Ġinter vention
S cheduler
ĠJ en
lot te
ĠĠĠĠĠĠĠĠ čĊ
ir k
g iven
Ġ um
Ġg olf
ĠT an
Fr ont
Tag Name
ĠSub s
UM ENT
Ġnec k
phab et
Ġd owntown
ĠĠĠĠĠĠĠĠĠĠĠĠĠĠĠĠĠĠĠĠĠĠĠĠĠĠĠĠĠĠĠĠ ĠĠĠĠĠĠĠĠĠĠ
Ġg enu
Ġpopular ity
ĠP ad
Ġscr atch
Ġsp okes
UT C
ĠF ly
Ġfe as
equ ate
y aml
27 0
Ġneigh bors
on z
m ade
ot hes
Ġres idence
Ġsh orter
Dependency Injection
A fr
Ġt body
ĠB ound
rom agnetic
Vis it
Ġdialog ue
Ġg rows
Ġt issue
Rece iver
Ġtem por
Ġdel ight
Ġemer ging
U G
Ġ( );
ĠBl ues
id ity
Ġtrigger ed
ĠThe ory
Ġelement ary
ĠRepublic ans
um ar
Ġed iting
ĠSh ah
Î ¼
C at
ĠAl aska
S in
In clude
Ġw av
Ġs outheast
ĠT E
PAR AM
ol ished
cc c
ĠDel hi
ĠF ourier
Ġg ear
ort ex
ĠO d
ĠAfghan istan
R ay
Ġtrans f
ut o
ĠVal ues
Ġstart up
Ret ry
Ġ} .
ĠC rown
Ġtraject ory
C a
r ust
ĠFin land
te chn
Ġh ierarchy
Open Tl
ĠB lood
ast ed
Ġdis cre
Ġl ambda
19 04
ed ition
) ^\
19 06
Ġgre y
is an
Con version
Ġrem ind
eb ox
vis ibility
ĠFrank lin
ĠD epend
ĠM ove
I r
al ph
D imension
Ġim pr
ĠM ach
Ġinter rupt
onom ous
ĠR and
L uc
N ested
ĠW olf
ĠMar ie
ĠP un
F H
ĠL ayout
ĠCal led
ou ple
Ġf uck
Ġfoc using
h ou
erv ation
ĠMin or
fail ure
ĠH ockey
Ġj uris
O rient
B ur
le af
Ġa ired
less ly
14 7
tr aining
Ġinsp iration
æ ł
Ġd uties
ath on
Ġreg ulation
igh bor
Ġra ising
ak u
ĠUp per
ĠThe ater
ĠPr incess
Ġcompet itions
Ġor ange
Rec ords
=" {
is i
ĠOr leans
last ic
Ġ\ |\
Ġon click
ĠRead ing
re ports
Ġconv olution
F IN
Ã§ Ã£o
Ã© r
ĠInt elligence
Ġsusp ended
ID S
ol en
iff s
Ġc rystal
ist ically
Instance Of
Ù ģ
FO RE
av ery
Ġste am
De ep
Ġl oader
Ġsh apes
\| _
ĠW ang
ĠJim my
b re
PRO TO
ik o
p arsed
ĠQ String
Ġrank ing
Ġl t
) '
Ġcr icket
rg b
& =\
Ġsurv ived
Ġsuggest ing
in variant
Ġpro c
ĠValid ate
ĠP uerto
Ġbelong ing
amp ed
Ġport folio
end ering
Ġl os
t ot
Ġs lope
r h
all ing
pos al
Ġres ign
w hel
tri angle
Ġst em
ĠM ason
Ġp and
p romise
Ġ{ })
Pop ulated
urric ane
or o
ĠCh o
~ (\
Ġad s
Ġel der
ic it
Ñ İ
S i
( []
d ale
Ġin comp
ĠTh or
N Y
ok u
iv an
Ġfund ed
cel ona
h ole
d w
r ans
ĠUn iversal
Par cel
. -
om on
Ġoccasion ally
ĠG P
ĠEv ans
ĠPr imary
Ġsupp lies
' _{
f ee
Ġ ../
Ġform ul
W D
ĠT ob
aut ore
Inst ances
serial ize
oc o
ĠMat hemat
ĠIP v
ur ities
Ġref uge
Ġbirth day
ĠF reedom
ib bean
erm i
usal em
2 25
(" <
Ġl oyal
ĠF ixed
ĠSh adow
ĠR ick
Ġver ification
Draw able
pe ated
Ġquadr atic
UN K
Ġmolec ules
Âł Âł
ĠCle an
c uda
DO WN
P ages
PO INT
ĠPh one
sw er
Fr ag
Ġdrink ing
m usic
Ġguarant eed
Ġattempt ing
ĠPat ri
Ġm oon
us c
C op
Ġinf lation
ĠGe V
v k
) (\
Ġc s
Ġorth ogonal
Ġsome how
Pro c
B orn
Ġent ang
B ot
k le
ĠCh ron
for ced
C odes
et o
Ġc ogn
Ġt ie
Ġbu ying
' "
ex tr
ograph er
ĠEd ge
Ġjud ges
ens ively
å °
Part s
op les
Ġorgan ic
elect ric
grad uate
2 60
c ours
F our
ĠM ak
ĠPh D
ing e
Block ly
Ġf ixture
() ]
Fil ename
ĠComm ons
Ġcast le
m illion
Ġs el
ay an
ĠHun ter
Feb ruary
has OwnProperty
ĠCh amber
it ro
Ġgl ad
ĠPort land
R ank
Ġlong est
ĠP rix
R F
Ġcomp ound
Over lay
â Ĩ
Ã© n
ĠF riend
CE PT
Ġcompet ing
or ship
ÑĢ Ð°Ð
ĠG ra
Ac adem
ol utions
ĠC ass
Ġh ang
Ġh orses
pe ction
12 6
ĠPos ition
ĠW ol
ĠEn able
exception s
Ġt aste
H orizontal
ĠS r
ĠBroad cast
id y
ĠA zure
ĠB aker
19 07
iv ities
Act ual
Ġre tained
iv ot
ĠE T
ĠC over
S pring
Ġsim plicity
Ġhealth care
Operation Exception
ĠOper ations
ann es
M ir
Ġres ident
Ġjournal ists
Ġcompos ite
Ġdeploy ed
s lds
t own
b ecause
ĠR io
Ġanaly zed
down arrow
hat tan
ĠMuslim s
am ilies
ĠA ch
Sub mit
Ġintegr ity
Sports people
__ _
Ġsp oken
be ing
ĠBern ard
w ik
ĉĉĉĉĉ Ċ
C ss
Ġindu ction
Ġabsor ption
Ġwer en
Ġdes ert
Ġ" ")
oxy gen
Reg ular
UM N
Ġaltern ate
Ġde eper
ĠQ t
ä» ¶
ĠM ut
ĠF ather
ash board
Ġmathemat ical
Ġpre t
Ġpass age
ro d
() `
ac ew
Ass ignment
Im mutable
Ġgener ators
dis ambiguation
Ġp ic
ĠBrazil ian
T ur
ĠW a
Ge orge
Ġphot ography
L if
ĠS chema
ĠG C
ĠD ie
ĠF err
ĠBe aut
Un mar
TO DO
Ġimp ly
dim en
ENT ER
do es
B as
H ex
Ġo xygen
Ġsh ots
DE LETE
Ġcontract s
Ġch ains
Ġbrows ers
ter ed
ok ia
Dis patcher
Z ip
Ġi OS
Ġm ixture
D eb
um bs
ĠSt orm
Ġev ident
R oll
P TED
Ġart istic
Ġviol ation
rang ian
: /
ey er
Ġre actions
Ġinter ference
Ġt ropical
ĠLeg al
b idden
ĠM ail
stack rel
ĠIn it
ĠC WE
ĠV AR
Ġoccup ation
Ġchar ity
| ^{
T LS
i ang
ĠC atal
Ġdec ode
m r
ĠR ole
MA G
Ġpolynomial s
13 6
H H
Ġ _{\
Ġcontrovers ial
ĠChrist ians
sub str
j q
net t
qu ick
Ġf atal
ĠV iol
Ġcar rier
Ġliber al
neut ral
rot ate
ĠM aj
Max imum
ond a
ok a
Ġre ven
s ing
Ġm eth
å į
ock ets
ĠIN T
I FI
Ġinter faces
Rev ision
ud ge
G re
Ġcl ause
Ġgr pc
Ġcomfort able
é ĩ
text sf
ĠPit tsburgh
ĠO cc
Ġposter ior
Ġsevent h
æĺ ¯
Do es
Ġgu idelines
urch ase
($ _
b ank
cl ide
ĠSte el
ĠL GBT
tem plates
M argin
Ġpl ots
ĠGener ic
Ġcor ruption
Ġthere by
Ġaccomp any
ĠA V
ĠH O
sh ots
Ġf irms
ĠI MP
Ġ' {
2 64
M ilitary
ĠCh art
Add itional
ĠQu ant
ĠI ss
Ġprote ins
Ġbre ast
T ARGET
Event Handler
Reg ex
Â »
ĠInf antry
Ġtrans mit
Initial ize
( @"
i ator
Ġalgebra ic
Ġens ures
Ġelectric ity
By Name
Ġc rypt
17 5
33 3
Ġlaw yers
Ġaff airs
ĠC ensus
ĠJ u
ac les
ĠWh ich
CO PY
*} [
E lem
Ġman ually
ĠP oll
Ġch ampions
quir y
Ġ(! $
0000 000
ĠAp pe
ĠValue Error
Ġpain ted
Ġt ub
Ġbar rier
ad ies
l iteral
All owed
Ġthreat ened
p read
err anean
IC K
up arrow
ĠGener ate
ĠMit chell
> /
amer on
Ġmill is
om ed
Ġl ying
Ð ³
get Property
Ġj oy
orient ation
L T
Ġdeterm ining
PL ICATION
Ġh ist
Ġc rown
le te
^* (
ĠPark er
ĠL anka
ĠB ec
ĠV M
ĠK on
cy cl
ip art
ĠS K
Link s
Ġrespond ed
Ġencounter ed
B log
h ind
ĉ ĠĠĠĠĠĠĠĠĠĠĠ
Ġdevelop ments
s id
âĶ Ģ
GEN ER
Ġpred icate
st and
Ġdep icted
Ġhom ogeneous
Ġport s
Ġv e
s ap
D ataset
Mod ules
s an
Ġch amber
Ġpro ton
Ġref lected
ĠI ssue
\! \
/ $
=\ {
Ġlab our
p ick
ĠPro duction
MS earch
ĠB illy
ĠIn stance
ĠN am
-> {
re ject
Ġannounce ment
absol ute
Ġp arsing
pay ment
Ã ¦
h it
if le
F ace
[ ],
Ġgener ations
get Default
19 01
or able
ĠK u
12 9
Ġcoun sel
Rec ip
S ink
ĠCol lect
ine a
Ġ// !
AS C
ord inary
Ġfore ver
Ġh ub
V ill
Ġdram atic
Ġattrib uted
w b
Ġkit chen
Ġcorrespond ence
ri ors
Log ging
am ous
ĠA y
ĠU pon
ĠSt re
Ġvari ants
ĠUS B
ĠY ang
ãĥ ³
ĠÃ ī
DOCK ED
ap ing
Ġdis aster
Ġorgan isations
ĠJ azz
}/ \
Ġcomb ining
ĠC M
erv es
ĠMark eting
ĠSh are
d evelop
Ã¶ r
Ġpat ent
f m
... "
Vert ical
ad os
ch annels
Ġflow ers
G UI
for ge
Ke ep
Ġr anks
Ġrat ios
N ay
ĠV ancouver
Ġj u
L ater
Ġinter active
ĠProf essional
ol s
ĠC ategory
ĠS N
Ġp our
ĠP ictures
15 5
sw ap
LI B
ĠBill board
v p
Ġremark able
sec ure
Ġsh a
Cre ation
Ġdelay ed
ĠArk ansas
w l
ught er
Ġwarn ings
ac iÃ³n
Ġwor ship
log ical
r ub
Ġb ike
ĠExample s
Ġhydro gen
Ġc ock
Ġpoint ing
A IN
å Ĩ
ĠWel sh
ç ±
15 2
ĠNO TE
Tele vision
ĠC arn
th an
un used
Ġmem ories
fef efe
b age
Ġdef ence
ĠD J
og ical
ĠIn n
Ġdistingu ished
ĠP ref
inner HTML
Ġj e
y outube
ĠL INE
ĠS ales
ĠBar ry
ĠMad rid
jb oss
Is Null
O ps
ĠSy ntax
ort ion
Ġar ise
Ġcent ered
Ġd egr
Ġgather ed
Ġempir ical
x ff
Ġhighlight s
ĠM enu
Ġloc omot
Ġhand lers
Example s
og s
NAME SPACE
ĠM oney
ke ley
Ġspe akers
d id
ĠCON FIG
ĠE mail
ploy ee
Ġcons ensus
Ġfavour ite
Ġ( ,
Com b
18 80
ĠArch ive
ST RE
un ches
Perm alink
im ir
col ogy
ER Y
14 5
: **
Ġo ct
Ġen emies
ĠWay ne
Ġdef erred
> ("
Ġm as
"> ,</
ĠT it
Ġcred its
; =
Rout ing
ĠM is
ĠCamp aign
Ġst ere
Ġlength s
Ġcomput ers
Ġclaim ing
Ġint ense
string ify
------------ --
Ġabund ance
Ġhop ing
Json Property
at en
utr ition
Check er
deg ree
"> {
ro c
S B
m icro
bor ne
' </
M ot
Ġcontin uum
ĠMov ement
x l
cur r
g gle
GRO UP
Ġdec ent
F ee
ĠI SO
ĠVis it
wall paper
inter action
Ġthreat s
cons istent
lo ating
ĠF iction
Ġmount ed
OD Y
ä¸ ª
ĠN an
ĠS TR
ph ones
Ġintrodu cing
ĠBar bara
Ġ( {\
ext ends
ar us
Ġper ception
16 5
L and
Ġemer ged
l ists
in ar
ĠAdv anced
Ġel igible
ĠColl ins
C AP
h arm
ĠEcon omics
Ġcap ability
Ġsuff er
Ġinsert ed
OP EN
Ġphotograph s
capt ure
Ġl ens
ĠG round
ĠO il
&= &\
Ä «
tes y
ĠD ocker
Com plex
I MAGE
à ¦
Ġp ose
Ġconsist ently
Ù İ
pos able
Ġ rib
Serial izable
Ġsplit ting
Ġproject ed
Ġcolle agues
. ";
19 03
or ig
asc ade
el m
ĠA ld
ĠD anish
o ft
os ure
. :
Ġindic ator
Ġmeas uring
Ġv ital
Ġserial ized
Ġcom ed
ĠPho enix
U INT
30 4
Ġc ous
å ĩ
Ġmyst ery
ĠJ O
inter faces
vel oc
ij ing
Ġincred ible
Ġp ad
oper ative
cos ystem
in ates
Ġex clusively
L ONG
ĠP or
dr iven
Ġst upid
mon itor
ĠA rr
Ġem issions
ĠCl imate
ĠMount ains
or acle
ĠCOL SPAN
M icro
min imum
list ing
orient ed
ĠProt ocol
sche dule
Ġturb ul
}. }
H it
P aired
ĠVAL UES
utor ial
Ġconven ience
Ġind ustries
Red irect
ĠEn c
Typ ed
V T
Ġneutr ino
std out
Ġscreen ing
æ į
M X
ĠF alls
Ġ& $
ĠAl fred
ac a
ĠTem plate
Ġre vision
Cl ub
Ch oice
B ag
play back
ĠDes cribe
i am
ĠAr n
copy right
b en
Ġcolon ial
Ġdeterm ination
ĠUkr ainian
J im
$ '
res pect
inc or
ĠM aine
I BU
P atch
Ġw ides
"> Â
ion ic
Ġarg v
ĠP P
ith uan
nav Bar
2 10
Ġs id
Ġarch ae
ival ent
Ġll vm
d ing
Ġs ail
Ġmaintain ing
May be
h fill
od b
Ġreported ly
{ (\
it ime
ĠHamp shire
S printf
g uid
urs ing
ge om
ĠĠĠĠĠĠĠĠĠĠĠĠĠĠ Ċ
ĠQ ual
ĠS ample
it ations
ĠA rena
us ive
Ġbeg un
id ays
vious ly
ins ula
ĠF ine
Ġim plications
istrib uted
is Array
el n
ĠGL enum
å® ļ
Get String
Not able
ĠH ind
Ġ âĢĻ
Ġ" --
Ġinhabit ants
Ġvis itor
Ġant ib
ĠC ultural
Ġarrang ement
} `
Ġv ibr
Ġmut ual
Input s
Ġover se
Th ank
Ġvess el
Ġe ating
ĠS even
Ġreview ed
b ach
Ġar ithmetic
ĠStan ley
ff ic
ĠOr ange
Ġreg ex
F it
R ussian
ĠTh ink
Ġreson ance
cal c
Ġcl othing
Ġb unch
Ġdig it
PAR AMETER
ter ms
GL enum
spec ified
m und
Ġm ilk
ĠP AR
ers h
Ġ Ã©
RET URN
Ġch ip
ĠAt omic
Ġover come
Ġind irect
ho o
Ġm a
uk a
Ġver ified
Ġshif ted
d v
ĠDak ota
h um
He ap
Inv oke
to o
Ġin fr
b an
ĠC er
C ert
el ian
ĠF un
Ġcomm ut
ĠN ear
s it
Ġd w
Sign al
Read Only
Ġex clude
ĠJer usalem
verb ose
ĠVi enna
ĠT ak
bound ed
ellig ent
ĠSet ting
ĠK itt
Ġtem plates
c amp
or ia
ch rom
Ġgrad ually
List s
U i
Ġcas ual
ACCE PTED
. ),
Ġ- &
eff icient
Ġforest s
an Ã§
ann ah
Man aged
>< ![
ĠPh ysics
Ġpropag ation
K ing
define Property
cover ed
Ġswim ming
ĠFI LE
Ġwe ird
aver se
Ġf ur
ograph ics
' }),
ĠEp isode
Ñ Ħ
ĠCh ampion
Ġi i
Con struct
ĠF riends
pos itive
y our
Ġmanufact urer
L ER
C ached
Ġ ):
19 02
f iction
ĠCh air
Ġcomp atibility
Un its
Ġdo ctors
mark et
contrib uted
d iction
port folio
ĠLead er
int endo
Ġtrans it
Ġexist ed
Ġb orders
Y ea
ac re
Initial ized
Link ed
List View
Ġref erring
un stable
Ġaw esome
Ġdev oted
re strict
Ġac oustic
Suppress Warnings
ĠĠĠĠĠĠĠĠĠĠĠĠĠĠĠĠĠĠĠĠĠĠĠĠĠĠĠĠĠĠĠĠ ĠĠĠĠĠĠĠĠĠĠĠĠ
ĠCl ar
Ġtrans verse
numer ic
Ġl oud
Co ord
ĠM ol
+ -
c atalog
Ġ$ ("#
Ġpet ition
Ġb lob
De ployment
Ġg ard
Ġeffect iveness
request s
comp ass
mult line
ĠĠĠĠĠĠĠĠĠĠĠĠĠĠĠĠĠĠĠĠĠĠĠĠĠĠĠĠĠĠĠĠ ĠĠĠĠĠĠĠĠĠĠĠĠĠĠĠĠĠĠĠĠĠĠĠ
W W
ĠS ER
pl ings
ct l
CON NECT
ĠSus an
F LOAT
ĠB irmingham
ĠSt even
ĠAnt i
Ġn ut
Com ments
Ġcar ries
M or
ç± »
ĠTH IS
ĠDocument ation
Ġpod cast
Ġqu oted
Ġaff ects
Ġco operation
TE GER
left arrow
Ã¨ re
ĠBangl adesh
Ġte a
[ [
t cp
Ġm ad
Ġb less
Ġal igned
Ġcor relations
Ġre semb
s il
Ġanalys es
ĠDet ails
d atab
Ġnot ably
log ic
ĠJ e
Pred icate
Perm issions
Ġex cluded
ri eve
ĠCart esian
Ġt ale
Ġo c
Ġam pl
Con stituency
ocom plete
Ġcoast al
Ġpos it
Mat ches
Ġfilter ed
Ġspect ro
$\ \
ĠT F
chi at
indu ced
W ords
ĠS erv
Aut hent
product s
C ategories
m achine
Ġg all
ãģ Ļ
tr on
ĠMP s
Ġdecre asing
ĠAr gs
Ġc ow
Named Cell
char set
Ġimm igration
Ġcomb inations
Ġun w
Ġal ien
Ġlight ing
is ers
ĠH unt
Ġp reference
Ġâ Ĥ¬
L aw
Comp any
T urn
ĠM ans
list en
Ġexpert ise
ĠFreder ick
f re
int egr
Ġdiagram s
CC CC
clide an
ĠL ost
ab ove
ĠTechn ical
f und
}{ {\
Ġflex ible
Collect or
Ġto ggle
Ġdis contin
ĠG as
ĠN ames
Ġid s
ri en
Ġc razy
ĠV ert
r aska
oc y
V IS
* \
g ro
ever y
Ġsem antic
Type Name
Com pute
u on
La unch
c g
ot ton
A W
Ġd type
20 4
Br anch
Foot ball
ĠB row
Ġd ensities
ad just
un its
H P
ĠR ank
Thread ing
ĠNev ada
loc ations
Ġfail ing
Ġd ub
Ph ysical
Block Index
call s
ir ts
Ġrel ay
Ġcap s
Ġt ube
ĠAg reement
ĠRober ts
-------- -
: @
)} (\
g ap
Ġven ues
ĠK ate
ur ring
ast ore
Ġd rew
ĠArab ia
ah a
P eter
ĠAL L
ĠLeg end
M id
pers istence
ĠU g
yn n
Un lock
Ġt ension
act ed
Ġres ort
Ġactiv ist
c url
INTER N
ĠZ e
Ġcouple s
op ing
tog ether
ĠIn fo
n om
Cap acity
th a
ĠP ri
u cc
ĠSh a
iem ann
mid rule
ĠN ormal
val ued
ĠBen jamin
Ġrom ance
spir acy
Ġan ten
Ġc ameras
im er
Ġsound track
Ġfl ush
ĠR ele
Ġle ts
C XX
Ġass ass
Rich ard
ĠWrit ing
Ġm oth
sh aped
eg e
b id
æ İ
ĠR ES
ĠHung ary
ad ers
ĠP ART
ac ular
ex ist
Ġprov es
k k
ĠCons ult
s napshot
ĠG alaxy
Ass oci
C lip
q a
ĠMet ropolitan
ĠComm ander
13 2
Pro duction
Ġdep recated
Ġpower ed
ĠUn like
? .
ä ¿
i pt
ĠKar l
he ll
int ent
Ġfol ks
Ġsp ots
ĠCon struction
Rot ation
we ets
oc c
Ġlog s
de ploy
,... ,
N il
erg i
15 00
back up
Ġhold er
estab lished
tr ight
"> "
Ġt ape
ĠBroad way
k ern
â Ħ
Ġanalyt ic
Ġrecommend ations
ĠV enezuel
RO P
ÃŃ n
Con v
Ġ} ));
ĠC OP
ĠRet riev
Ġrepeated ly
Ġsurn ame
se ek
Ġpart ly
Ġsub stit
Filter Database
F ar
j k
int egration
Ġmid field
ĠM ack
ĠTurn er
Ġaver aged
Ġst uck
u ator
ĠL isa
assert False
ĠCom plex
ĠBatt alion
Recorded Vote
enn ial
ĠGr ace
Ġh o
Ġpl ugins
m ill
"> #
Ġd war
Ġen z
au er
Ġun lock
Ind ices
qu ire
ier ra
Cl one
Ġhabit at
Ð° Ð»
* >
Ġaccess ed
ci pl
Ge V
F IL
je ctions
ĠB rew
ĠBrig ade
Ġphys ically
th reshold
end um
ash ing
Ġdec imal
Sw ift
to k
Ä ħ
navBar Cell
Ġbon us
Ġcount ing
ĠConserv ative
aren cy
ĠB ond
bar s
Ext ended
W ild
ĠF IX
(" [
her o
ĠT ypes
æ ³
ĠP ic
ĠH at
im edia
Ġr ivers
ĠB loom
] ];
Ġdes per
Work flow
WARN ING
sub title
ĠTerm s
he ther
Ġdecl ined
Ġcop ied
B F
ĠSe pt
success ful
car bon
Ġdec oder
ertific ates
= }
Browser Detector
"> '
Ġdiv isions
ĠCont roller
T OP
ro at
Ġrock s
us hes
ĠA f
ĠR ing
Ð¾Ð ¼
Ġl azy
Ġpl acement
Ġkey word
NO WN
ĠCar ibbean
Ġp ag
Ġrender er
Ġdemocr acy
ĠM all
ĠBit coin
Ġext ending
ag h
d ater
ĠCor ollary
ot ypes
or ro
AT T
Ġess ay
Ġblock ed
new line
Î º
ĠI de
M EN
oc on
ĠPl anning
veh icle
d or
Ġab road
Ġprom oting
it ud
P N
Ġdel iber
Ġpo ems
Ġking dom
ĠWork ing
ir s
Ġsum m
Ġshould er
ĠAg ent
fl ux
Ġs ust
Ġback end
Ġfor cing
Ġpro tests
ah l
N EXT
ab ol
Ġl ap
ĠArt ist
Opt im
Ġlabor atory
Ġf usion
ĠE ffect
ĠEn try
> -
poly mer
am ination
equ e
ĠD ise
st orm
as ures
ra h
] ^
or um
he ld
Ġev olved
Ġche st
Sample s
vers ions
Ġneg lig
ĠShe l
g allery
t ec
ue z
}) (
P reference
Ġpure ly
BU FR
Ġs ugar
Rel ation
Ġposs ession
G I
Ġfant astic
) _{\
J ul
ĠC hel
Ġmiss ions
IF T
I o
Ġ\ [
Ġsw ap
1 19
ĠSy rian
ential ly
ĠUn fortunately
f ollow
Ġover whel
=" ./
Default s
$ ^
Ġcy ber
Ġl unch
14 6
Ġdep ression
ĠJ oy
ĠU nd
ĠGr an
Ġvulner able
file Name
Bu ilt
Th rows
Ġthir ty
ĠS U
ĠP ain
icult ural
H uman
et ta
ĠJohn ny
ĠMed it
av i
Ġmain stream
W P
ield s
ĠRE AD
Ġexpl ored
Ġun ity
Ġsequ el
Ġp ace
ĠCommission er
Ġd ated
ĠC old
N ER
dom inant
Ġminor ity
Ġdisc ount
ĠS L
Rep o
ĠHawai i
, (
ĠS ony
hip s
ĠMan hattan
Ġt ends
ĠArch itecture
ob a
e enth
}$ \
Ġreal m
i u
Ġgr an
ĠC raig
-------- ---
co ins
Component Model
S ender
ace ae
cre ation
Ġfl ower
æľ ī
os c
che m
oper ating
Ġattract ive
> ";
d type
ĠL uke
Ġse q
Byte Array
Ġt orn
ĠBar celona
ĠR u
organ ization
Ġdepart ure
LE FT
Ġ( {
Ġmod ifications
Ġcallback s
Ġs ep
J O
Ġal i
bin om
ĠParliament ary
Ġwides pread
lin ing
ĠInd ians
MP TY
Ġj unction
18 00
ĠSh im
ĠL arry
M ad
Ġl ov
Ġcon gress
Al tern
ser ts
c xx
ĠQu est
el ing
ĠB ot
Ġ" (
az ard
an imate
{ .
ĠOl iver
ar an
ĠL ion
conf irmed
Ġcool ing
Ġund ert
B er
Ġob st
Pre view
ĠGi ants
Ġle an
Ġche ap
Ġsurv iv
D AT
ke eper
') ).
Ġf iring
cite alt
unt u
[ ];
ĠP el
Ġmoder ate
Ġp c
B tn
ĠR oot
ĠC ome
screens aver
w y
/ ******/
ĠP attern
Ġfl ights
et ter
ĠB asketball
ĠS ent
r us
ĠF E
4 000
Ġgr am
Ġassert ion
ad ic
Ġprom ising
ĠDen ver
18 98
oss ible
r int
s amp
add on
CK ET
Ðº Ð°
ĠW E
Ġmist ake
A CTION
XML Schema
ĠSpr ings
Ġb orrow
Ġenc rypted
Cl osed
getElement sBy
w m
Europe an
Ġpeak s
Ġdisp ersion
ĠP E
}{ *}{
Ġst eal
Ġd ummy
ĠV k
}^{ +
Ġun n
ĠAnd re
ĠThe me
Ĺ ãģ
ĠP ow
l m
Ġad apter
Ġvo ices
Ġatt ending
ĠDr ag
Ġaccept able
}[ !
al tern
ref ox
Ġmem brane
ĠFac ulty
E mitter
Ġhard er
Ġopin ions
Ġobserv able
Further more
n ol
\ },
l c
Ġt ies
Ġs nap
cknowled g
Ġim posed
Ġa qu
Ap is
mes h
Ġvolunte ers
A ws
Â ·
ĠA F
tright arrow
Ġan onymous
r adi
13 3
ĠN at
Ġactiv ists
13 4
Ġfl avor
ĠGlas gow
ol ia
Ġmer ger
Ġnot ing
Ġcommun icate
rit ic
ĠSt ack
Ġ ~\
18 99
c ook
at ics
b ib
akes pe
Ġrail road
Ġ) {
ĠD rop
in ance
Orient ation
Ġad res
Ġwood en
Ġab b
Ġch ronic
s izing
Cre ator
Trans l
ĠIran ian
ĠC I
ric ulum
ig ion
ĠSt ein
Ġc riterion
Ġin cl
ĠSp ot
Ġvess els
: ",
plic a
ag i
ĠK le
-- ;
Ġ/* !
Ġappreci ate
ĠB ird
Fr ank
Ġw ounded
Ġwire less
Ġunder ground
Ġpurs ue
L ou
ex act
ĠExt ension
ĠMean while
Ġ ib
la unch
Ġcontrib uting
il o
ĠF BI
Ġneut ron
Å Ļ
ĠN ord
ament o
ph ot
Ġf d
sp l
Cla use
Ġco aching
Alloc ator
ene ath
Ġreflect s
Work space
Japan ese
is cal
ĠRes et
ĠD ementia
ordin ator
Ġoff ense
ĠCO M
Numer ic
Ġth umb
Im plementation
ver ts
b usiness
Ġmeaning ful
Py thon
J ew
ĠR ugby
ar ms
Ġstation ary
Ġprison ers
ĠP ick
ĠV a
ĠNot ice
18 70
v t
co ordinate
bold math
ĠL IC
Com posite
Ġnewsp apers
ĠS id
Ġimplement ing
Ġs creens
et on
Ġdist urb
CP P
var rho
Ġsub space
Ġincor por
ĠK rist
/ %
ĠLie utenant
Ġagric ulture
Ġb ull
Ġg al
Ġcom ics
(' ../
d ro
asc ular
b ird
get Time
U TE
Ġ= ================================================================
get Logger
ĠCre ative
amp a
ĠAr c
Tok ens
Ġrefer enced
< >(
uss ia
erm ont
ĠK an
Ġres igned
ers ions
Ġfrag ments
ĠK ap
ism iss
Ġult imate
Ġ ÑĤ
ink s
Ä Ļ
m is
] ));
s al
Ġr iding
overs et
F at
ĠR acing
ism atch
off icial
ĠMer c
Ġpre dec
, âĢĻ
i ov
37 5
Ġstop ping
Ġs am
Ð Ł
Ġstr ain
Ġtalk ed
A ge
ĠLiter ature
sup erv
ĠAdd itional
ĠÐ ·
R D
Ġdiagn osis
print StackTrace
hl js
g overnor
Ġl oves
on ing
ent ities
16 6
Ġmed ieval
) ";
ĠZ end
w right
Ġbuild s
Not ify
x f
Ġop ponent
14 3
ĠS EC
ĠStat istics
å ½
leq slant
Inv ocation
Ph ot
s ess
ph ysical
Process ing
G reat
h ibernate
Ðº Ð¸
Linear Layout
g ender
ĠTam il
Ġacqu ire
ast ery
H en
ĠAv ailable
sur ance
duc ational
Ġpre lim
akespe are
Ġdem o
Ġrect angle
' ><
Ġins ights
Ġmys ql
p el
ham mad
Ġintr insic
er ious
D ue
ĠWith in
ĠR ud
Th omas
Ġparticip ating
Ġhar vest
Ġprogress ive
em in
00 3
Ġtw in
H ASH
Ú ©
Ġf oss
Pres ident
CP U
ĠĠĠĠĠĠĠĠĠĠĠĠĠĠĠĠĠĠĠĠĠĠĠĠĠĠĠĠĠĠĠĠ ĠĠĠĠĠĠĠĠĠĠĠĠĠĠ
act ivate
Ġwind s
Ġestablish ing
ĠS Y
ĠN BC
Ġcampaign s
ĠP le
Ġex tern
ĠJ a
Ġattract ed
get Current
pro pto
Ġview ers
Ġsup press
;& #
on omic
Ġirre ducible
over e
Mag ick
it ual
Ġb read
Ġr h
Ġdec k
Ġapprox im
11 11
TH READ
Ġc rop
18 95
Sl ider
ĠC ov
ĠRoman ia
Ġtom orrow
che str
USE D
Ġsuccess or
ĠTrans form
ĠKen ya
ĠB io
$- $
b z
Ġs ectors
ĠCar lo
ĠR ules
Ġg rap
Ġle x
Off ice
Ġescap ed
ĠH indu
C s
Ġc am
ĠG olf
ĠEth iop
qu ake
Ġless ons
os hi
âĦ ¢
Ġis set
Ġadm its
Pr im
s chool
Ġ\ {\
ĠTog ether
ĠB eck
ĠChar acter
ĠC apt
in ery
Ġdaught ers
Ġprint ing
Ġafter wards
Pro position
She ll
Ġinflu ential
ĠB apt
Ġconflic ts
Ġhun ting
url s
ex press
Ġexam ined
ST EM
Ġp uzz
du al
Ġpers istent
ser if
ĠA verage
Ġdocument ed
Ġestim ator
ĠCom pute
grad ed
ĠCarl os
Ġal gebras
C lock
ĠW rest
ig uous
ĠT oy
script scriptstyle
unit Pattern
ĠRob in
S un
Ġmechan ics
ĠCommun ist
l ap
p ip
13 7
Ġ nd
ess aging
Ġsens ors
ĠC arm
ash a
ĠL ot
W ater
Ġ! (
Ġl ung
ĠPro gress
Ġcross ed
v d
Ġpre view
fl ash
ĠMedit erranean
A WS
PROP ERTY
ĠS olar
B in
User Agent
Ġdep uty
B ODY
F un
NO TE
Ġbrilli ant
Ġcl othes
Ġact ively
ĠAdd s
Ġag enda
Opt s
ĠI o
ĠFl ash
Ġsup plement
Ġengine ers
prevent Default
el ist
Ġl iv
}) ^{
20 3
Ġj ew
Ġaccess key
Ġ< ![
valid ator
Ġmanufact urers
Ġprov isions
vis ual
break ing
e ur
ĠS F
sp er
!! !
ĠH orn
ass y
big cup
Per formance
Ġtack le
æ ŀ
am pton
n x
as List
ĠM eta
Ġfit ness
Sm art
ast ing
Ġglob ally
n f
q s
" +
Loc ator
ĠN ad
n r
Ġre fin
Ġacceler ation
et ype
P icture
Ġp arks
Ġatt itude
ĠA w
get Data
ĠRe ce
Def ine
ĠJ erry
per form
ĠEnter prise
ĠP rior
)-- (
educ ation
d ummy
ĠS eb
ĠW ing
ance led
Pro blem
][ <
ORM AL
rest ore
Ġhad n
Un ion
P a
Q UE
c out
ĠĠĠĠ ĉ
Ġsole ly
ab olic
ul ators
ĠN A
d z
k an
Ġcelebr ation
ular ity
ĠObserv able
R ST
ĠChar lotte
ĠAust rian
l st
NA P
Ġc oding
ri o
ĠSV G
Ġcon fer
Ar n
14 9
P oll
NUM BER
ĠV ent
DE V
ĠInd ustrial
acef ul
enc ia
Int o
Ġelim inated
Ġro uting
Ġqu it
Ġsynt hes
CLU DE
L ondon
Ġt ap
Ġr ay
ed ges
ous ing
× ¨
Ġc inema
ĠE lection
ĠGre ater
sm ooth
Ġtravel ing
Man ifest
Ġprob abilities
Ġemph asis
iz ar
feed back
ĠB ud
Key board
Ġcons iders
sup ports
ĠAct ivity
Ġsaf ely
prot oc
ĠFle et
ĠJ oin
Sh ip
ĠY ES
Ġ/** <
d g
Ġful fill
Ġw arrant
ĠX ml
W T
Ġre loc
Ġwith d
ĠSe an
Ġscient ist
ac co
Res olution
final s
ĠB right
b uffers
Ġretr ieved
ew ay
Dis c
ĠH aving
ĠFl ow
B ill
im ity
Ġvar ied
c ritical
IC AL
Ġl ip
ĠW H
add er
t ies
L ess
ĠA pi
Ġm ild
ter min
Ġdifficult ies
Ġdec ides
ĠElement ary
us k
13 8
HEAD ER
ST M
lay ers
Pers istent
text up
keyword s
ter rit
class v
Ġdi agnostic
Ġp b
ĠLabor atory
DE CL
E ff
ens en
V oid
ĠBe ing
g ie
B AD
K nown
Big l
Ġab ilities
olog ically
ĠF itz
friend ly
L ittle
Ġphot ons
urs ion
Ġop am
Ġwalk s
os ity
Ġin jection
u o
cknow ledge
Ġin set
Ġ( âĢľ
ill ance
Ġj ail
f ade
B ooks
P OL
ĠPh arm
rec v
Z Z
Ġh istogram
pro j
Comm ands
) ',
"> )</
ĠCo al
Ġexception al
Ġsph erical
ĠRep ly
ĠNorm an
ĠAct or
ĠH em
ix on
ĠDef ence
at ched
FA I
Ġg ains
DE VICE
Ġm p
Qu ick
Ġnormal ization
Transform er
l ag
border ed
Ġr ings
d h
s aved
Ġenter prise
ĠHe ader
Ġtr ap
Ġlog arith
Ġband width
ĠS ad
Res olve
(( (
Ġdistrib ute
Ġout door
)) {
\ }.
art icles
ĠC ONT
ĠDirect ory
H ouse
cho ose
Ġship ping
Ġinstrument al
o ons
Ġiniti ated
ĠTig ers
Ġ' [
r age
Ġpra ised
ĠC BS
Ġatt achment
G allery
14 8
m art
( <
ĠS ymph
ĠD ialog
AP PLICATION
UL AR
hol m
ĠSD K
Ġ* */
(" ")]
M el
B g
0 10
Ġbe an
ĠVin cent
cred entials
ĠL uther
Ġsh ore
abul ary
Image View
Ġplan ets
Ã³ w
INTERN AL
Ġun stable
ĠHarr ison
Ġinit With
set Value
ĠEn sure
ev t
Ġroll ing
w heel
up les
ĠC ould
Ġsh it
on aut
ON LY
Ġsubs idi
Ġdream s
ĠS outheast
ph ony
Ġacc ret
Ġcloud s
Ġa pt
b uck
ast ro
IN PUT
Ġim per
C li
ate ful
Ġcor rupt
ĠAs ync
Dis able
Ġfr act
oc hem
ĠT X
ĠW ire
osp el
Ġcon dem
ĠCO VID
fold ing
sh ader
Ġparse Int
ĠP in
ativ istic
ID s
Ġshif ts
ĠW onder
Ġdis pute
RE C
v ation
ĠL ate
ĠK ay
Ġpropos als
âĢ¦ ]
Ġsc rap
Ġfor um
ĠEqu ation
Ġcur r
CON F
ĠMur phy
Ġillustr ate
ĠSh apes
Att achment
R eb
ab etes
ĠM uch
OP ER
Ġcount ies
Ġconv icted
ĠH AL
lo ose
Sup plier
ãĤ ¹
ĠLegisl ative
Ġcon e
c nt
veloc ity
ĠGu id
Ġop ponents
pre tty
Ġmem orial
Ġhospit als
Ġpush ing
Start ed
Ġkin etic
Ġshut down
... ]
40 1
Ġs orry
ĠH im
Ġt ips
on ian
Ver b
K HR
Un expected
Spr ite
eg u
Ġrest oration
Ġ" ");
ĠV oice
ĠWIT H
Ġsports people
Ġhuman ity
ĠJust in
as ia
ĠF ab
ĠEd it
CONT RO
Ġchem istry
ĠM ode
Ġk iss
Ġassum es
und o
en ium
Ġrat ings
Il legal
Ġm ature
Ġgraph ic
effect ive
ĠB aby
Tool bar
ra f
b ash
ad itional
ert on
Ġview ing
m other
ĠL ex
W elcome
ĠFant asy
Icon Success
Ġvent ure
Ġc ategor
am o
cent ral
Ġinflu ences
ag ation
ĠKe ith
ĠD NS
m ile
ĠE M
rec ords
Ġunit ary
ĠR an
Ġveter an
> ",
Ġvar ies
Ġefficient ly
ĠSw ift
Ġdiv ide
bal ance
F inder
Ġcomp anion
uck er
Ġimpr ison
ĠSp acew
C ref
ĠPhil osoph
æ Ķ
Ġgr ants
18 60
tem perature
W ire
Ġmag azines
Ġcomment ed
m ine
Rec ogn
ĠLe ave
Dec ode
$ ^{
x c
Ġexpl oring
Ġcoll isions
Ġw ings
ĠHor se
un i
Ġa uction
h n
U r
Ġsample d
ĠNever theless
k ill
Ġconf used
Ġex ponent
ec ca
Ar row
ij i
2 32
() "
ĠCl uster
Ġm arch
W rong
p ent
è ¦
Ġsh ops
enc oded
ĠS ql
Ġdifferent ly
ĠH ilbert
ĠL IMIT
Ġhappy Shift
g om
or ious
ĠG host
ĠIter ator
ĠMark ov
Ġan ime
ĠCon trib
\, ,
Ġcompens ation
20 8
13 1
Ġactress es
Ã Ł
ĠA aron
ĠG M
Ġc ust
View Model
Ġprepar ing
J ournal
Ġprotocol s
W ay
f olk
Ġfun ctor
ĠNaz i
ĠL ux
ĠV ery
Î ¯
AT IVE
× ľ
18 96
fin ish
Y P
iv ic
ĠEV ENT
ĠN icol
oper ations
Ġup dating
Ġann ually
ĠV I
Im g
Rec ent
cons ider
> =
Ġmar ry
Ġsc oped
ĠCost a
Dem o
ĠE state
ĠCurrent ly
sy ntax
G D
Ġv ic
\ [\
im ag
is co
18 97
Ch ina
TR ACT
Ġsynd rome
ĠG R
ĠA my
ugg ed
bour g
D ark
table block
ĠMor ning
IT S
Ġcomple ting
It alian
Ġsub stitute
T s
Å Ħ
Ġloop s
ĠRail road
cor respond
Ġport ions
m el
ia o
ĠK in
Ġph osph
id ency
p ow
Ġbr ick
load s
Ġsure ly
o auth
read able
ster dam
ĠPer haps
eh icle
Ġcon clusions
Ġstri king
Ġt ons
| _
Ġl uck
ĠF iles
;" |
dash board
ĠC AN
ish ops
ack ets
an ese
P ART
Ġimport ed
go og
Ġprom ised
Ġfacilit ate
Ġgold en
Ġtele phone
L ove
ĠV eter
Ġclass ifier
Ġanal yst
Ġcontrovers y
ĠT erry
æ Ŀ
^* _
Ġag reements
R ad
\ }_{
Ġden om
Ġcult ures
adem ark
Ġhighlight ed
& &\
et e
ĠĠĠĠĠĠĠĠĠĠĠĠĠĠĠĠĠĠĠĠĠĠĠĠĠĠĠĠĠĠĠĠ ĠĠĠĠĠĠĠĠĠĠĠĠĠ
Ġbl ame
Ġf ert
Ġanalyt ical
Ġbelief s
j ud
Ġin ches
Ġvalid ity
B and
M ont
Ġrecru it
o ct
' })
ĠBo eing
Ġse eds
ĠG rey
ĠWar ner
IconSuccess Encoded
Ġpoly mer
des cr
block quote
ĠYork shire
ro v
Ġte eth
ĠÃ Ĺ
Ġcre ator
Ġspecial ized
s ound
Ġple asure
ĠLIC ENSE
Ġg ross
il ia
18 88
ind a
Ġapprop ri
Ġg aming
Ġconf usion
n P
Ġcoal ition
B IND
ĠC lay
cel and
ess a
Ġp ill
Ġexam ination
> ',
Ġmus cle
ĠMad ison
Ġreg ulatory
ĠBe ijing
Ġb ubble
Ġel abor
scal ar
è §
Ġsm ile
CLI ENT
per formance
Ġsold ier
Is rael
l is
d ied
ob server
=" '
m ime
Ġconver ges
g al
ĠT ournament
re z
Ġd Ã©
ĠSpacew atch
Ġ$ ('.
ĠR ico
ocol ate
ÑĢ Ð¸
Ġaccept s
Ġcontrad iction
ĠR out
g res
Ġplot ted
ĠSong s
ĠE SP
Ġconf ident
NE SS
ĠNeb raska
Ġaccept ance
ĠLa ura
g ulp
Ð½ Ñĭ
V ars
Ġpre mi
ĠAuth ors
P references
) }$.
Ġhand ed
Big r
! ");
U X
Ġcol leges
Ġpop ulated
Cred it
Polit ical
C LO
ĠK ids
uch y
ĠBr istol
Ġr ab
ĠEgypt ian
// !
Ġens uring
Ġhit ting
ĠERR OR
ĠK os
20 5
Ġcomple tes
ur bed
Ġdr ives
Ġe cosystem
Ġg ateway
ĠF er
Ġeg gs
ĠCont em
J ac
Ġun e
N ever
d ashed
Fin ished
ĠD ig
Ġel astic
LOC AL
æĹ ¶
Ġm amm
Ġcor related
Ġgeneral ization
ä ¹
Get ter
Al location
Ġspeak s
w so
ĠR AF
ĠLag rangian
ĠRuntime Exception
ĠKir k
{ })
Ġeigen value
Ġm os
ï¼ ļ
om o
Min imum
ub a
ent i
Ġsub stance
Ġcomp ress
Ġb anned
Ġtrad itions
text normal
Ġch iral
Ġset Up
IC S
So ft
Organ ization
ĠW allet
EX P
Ġfight er
IS H
mar ine
Ġwork flow
op ath
no ise
ĠSer ge
Ġm g
ĠC ircle
Qu ote
ä¸ į
Ġaf raid
C ut
ĠU lt
sl ug
ĠD raft
Ġnom ination
Ġlimit ing
ĠY e
Ġhost ing
SE CON
J P
Ġgr ain
ĠFl ore
ĠD elta
Ġf ires
ĠBat man
is Valid
ĠR ect
LOB AL
rot ation
15 7
fin ity
and box
Ġqu as
ĠÐ ¼
territ ory
Ġconj unction
ĠInter view
j ournal
Ġpack ed
BE GIN
Log ical
OFF SET
Ġsent ences
h ub
al bum
Ġf illing
> #
Ġse aled
ĠCamp us
div ider
def n
Ġsusp ension
om at
g b
Ġdoll ar
ĠHung arian
Ġde emed
ĠOrth odox
ĠD S
Song s
Ġpo ison
ig ue
Ġo l
Ġspec im
18 85
ĠMin i
ĠF ermi
Ġact ed
ĠCO MM
not in
ĠMET H
ĠR angers
b readcr
Ġpre val
Writ able
Ġshall ow
pro port
ob b
ADD R
ĠGuard ian
D J
qu arter
Ġposs ibilities
Ġ\ }
work ing
inc inn
look ing
com press
Ġfall en
Ġtw ist
Ġton ight
tr ained
ĠCustom er
_{ +
ĠAir lines
e ctions
ĠUs ers
2 12
Ġburn ing
d ue
Ġcl ustering
T IM
Ġt ear
Ġp t
Ġh unt
] ",
Ġfoot age
Ġsur f
it ol
ĠC ameron
åľ ¨
cul ator
ac ies
ĠNet flix
jav ase
Cred ential
C AT
ĠVictor ian
ĠG ay
eng u
ĠFil ip
Neg ative
l ater
ew ise
Ġdyn asty
ĠC ut
En code
Ġprom ises
Ex change
ĠK i
âĢ¦ âĢ¦
Ġcontain ers
, ,
ĠM asters
L F
ĠAl ert
Over flow
tr action
Ġap ple
um i
Big g
Ġfiction al
C y
Ġre fr
Ġre lies
type param
Produ cer
Rel ations
ĠR ural
ĠC amera
Ġter rible
ĠAlber ta
K G
con sum
Ġt weet
m os
Ġd eter
c rypto
col s
ĠD rama
15 1
sim ilar
Ġan not
Ġinc idents
Ġdi et
ĠNov a
st ad
Ġaccret ion
C AL
umb ent
SE D
b ishop
ĠØ ¨
Arch ive
Ġtour ism
Ġoptim ized
M igration
b ian
50 1
C ircle
Ġs ake
Ġag rees
ĠType Error
Ġbut ter
ierarch ical
G overnment
al ways
ĠU INT
Ġaux iliary
C riteria
Ġun set
="../ ..
ĠCom plete
ĠAb u
RE ST
\ -
k u
s ized
b anner
ĠN ar
n od
Ġadmin ister
ĠK ur
Ġdiss ip
Pub Key
B ob
document ation
amp ing
Ġcap ac
Ġem p
ĠFl ag
Ġhon our
P en
ĠN HS
Ġscal ed
l uc
ĠSpec ifically
Ġbare ly
"> =</
em b
hand lers
Ġin vention
Ġj ury
Ġn ose
ĠCat hedral
Ġcancell ationToken
ĠF eed
erm ark
ol er
ical s
Ã µ
ĠCirc uit
sup p
map per
Ġswitch ing
Throw able
sub equations
Ġdeb ugging
Ġut ter
if ted
Ġcomm em
ov y
Ġco herent
mem item
ĠAgain st
SE C
Ġlo ose
Ġmon ot
Ġdoc s
ĠE instein
Ġun ve
ĠSh aw
D ER
Ġlat ent
Ar c
Se ason
Ġl ady
ĠB inary
Ġlog ged
ĠC itiz
ĠG em
BU F
Ġlett ing
query Selector
re try
ĠCon tract
h dr
ĠB achelor
Ġconstr ained
ĠAlex and
View ById
ĠAl ong
LE ASE
cred it
ĠD at
â ĪĴ
ç½ ®
ĠO scar
Ġjav adoc
Ġadjust ed
EN S
ĠDer by
Ġclean up
ĠValid ation
str ategy
Ġim pression
13 9
ĠPalest inian
incinn ati
Ġcou plings
ave led
ĠH ub
ĠP ush
Ġblock ing
w ang
ĠJ oint
ĠC B
b ai
Ġr ally
ret ty
m ot
ĠF ro
Ġabs ent
TO KEN
r ant
ack ed
Ġent ers
Ġcontinuous ly
ĠT ib
Ġdecre ased
atern ion
Ġcomp ounds
hes es
aut hentication
4 80
n able
Ġt il
ĠB UT
n ear
if s
Ġhe ating
d ll
ĠDE BUG
al og
ĠT u
Ġdemonstr ates
="../../../../../../ ../../
th al
(' \
")) );
STAT IC
Ġal arm
Ġf ade
get Context
ĠEl li
Ġtrail er
Ġdro ve
Ġminim ize
Ġple ased
14 1
36 5
Ġo mitted
s elling
Ã¡ s
T own
Ġloc als
Ġep ic
Ġbo ats
open api
Http Request
comp any
Ġverb ose
W O
t ap
Ã Ĺ
am med
ĠB urg
D MA
ĠB S
class path
C am
ĠW es
att achment
Ð½ Ð¾
Ġep id
ĠAc cept
Ġjo ins
d imension
Ġplan es
" <
Ġ" </
ĠS oul
Ġsp y
Ġthick ness
add y
Ġp ow
ay ers
sc opy
ist le
op edia
Ġdirect ive
Bal ance
ent e
ĠY am
Ġcompl aint
Ġb ay
Ġcal ibration
ĠS occer
ĠAss ume
mention ed
Ġen abling
b ur
ich i
i ating
Ġd uplicate
ĠR uby
Ġsec ured
ult an
R en
Ġe cc
Ġdist inction
ĠA G
Re ception
MLE lement
ack er
ĠCon sumer
H i
In c
hen g
Ġsegment ation
ex c
log ue
ĠModel s
Ex ist
Ġpre st
Ġp ian
her ence
Ġd ish
ĠW W
Ġitem Members
ace ut
Res ize
n ick
the ory
ĠGL int
Ġcontr ary
Ġdefault Value
Ġharm onic
ĠBO OL
rf loor
Ġ{ $\
ud o
. ).
Ġd uplic
ĠF if
} <
max imum
Ġsub mission
N F
r p
S dk
contrib s
ĠNe uro
TIME OUT
then Return
Ġprefer ences
ĠFrame work
Ġelim inate
sh ops
New ton
Ġarrang ements
ĠSk ip
Im p
nt hetic
ĠT on
ĠBro ther
eg ral
ing ing
Non null
ĠDemocr at
} ")
ĠAll ow
M ULT
Ġc v
Ġdro ps
LE AN
18 89
ĠP D
ĠL en
Ġdiscrim ination
Ġas h
ĠSim ilar
om eters
Ġbreak fast
ĠEq s
22 4
18 94
ĠĠĠĠĠĠĠ Ċ
ĠBu ilt
ĠApp ly
Ġb rew
"> @
}} ,\
Not ice
Ġimm un
Ġcancell ation
ĠCru z
ĠP erry
ĠSh akespeare
Ġeng aging
Ġman ages
Ġdot ted
lf loor
á ½
ĠL it
est im
Ġr ated
Ġaud iences
H a
ĠSh ang
tensor flow
us p
ĠFil ms
Ġviol in
é Ļ
Ch apter
p ared
ĠCom edy
ĠAnt ar
B IN
ĠM ong
ĠPier re
ĠMe chan
Ġalleg ations
Ġemb od
Ġprov incial
ĠÐ ±
Des erial
Ġmot ivated
14 2
Ġanalog ous
ĠV ik
Ġdescri ptions
Ġd ying
Ġimplement ations
Ġb alls
vet ica
el o
Ġlux ury
Cur ve
Ġf ed
in ced
Ġdo se
Ġper pet
r ain
is se
Ġorig ins
t it
Cal c
Ġt une
Ra ises
ell ers
C ritical
ĠC ox
Ġnorth west
ĠC elebr
rec ogn
* (
olec ular
P ing
ĠMar x
l iter
Ġhard ly
writ ers
Ġthrow ing
ĠQu estion
sw ift
Ġis omorphic
Ġrep lied
H AL
ĠRog ers
power ed
n ested
as per
ATTR IBU
" ):
c aster
ator ial
External Project
Ġoccas ions
% );
ĠAthlet ic
R P
G RA
3 30
ĠF ail
Ġactiv ated
if ice
sp ired
ĠC V
ĠH udson
Ðµ Ð»
Ġtr ump
ĠBer keley
FAI LED
> @
ex per
ĠMu hammad
Ph ys
ĠFish er
im eter
On Search
) }$,
p ine
Ġlimit ation
in ja
mir al
null able
ĠInter est
ĠS oph
andid ates
ĠP OST
sp h
Ġnav al
Ġiter ate
IF Y
ĠA GN
Ġsm oke
F re
Ġd ol
ĠB eth
Ġaccount ing
ĠChristian ity
sh ake
Ġb ishop
ĠHigh er
Callback s
Ġsurve ys
Ġselect ing
Ġextr action
ĠSaf ari
Im plemented
Ġdir ty
Ġspons ored
+ $
Ġaccur ately
ĠJ av
K n
Ġappro ached
ĠPro blem
Lin ux
Ġth rew
Ġequ ity
Ġauthor ized
Ġcle ared
Ġmon ument
ĠScient ific
Ġsp ir
ĠC ant
enc oder
Ġwild life
light s
Ġh ur
is ch
ĠRich mond
Ġim pe
oid al
}} </
Ġconnect s
eg en
Ġco ord
Ġl as
un ix
aj a
ĠC ad
Ġcon ce
IT ER
an che
Pr incipal
ĠHel en
ĠT un
22 2
:// $
Ġbr ut
Ġintrodu ces
my Item
R endering
Pro b
ĠZ ero
Ġvol can
det ect
Ġimm igrants
Ġqu otes
ĠPer u
ut ers
Ġan notations
ĠIn novation
Serial ize
P LAY
Ġcheck sum
resource GroupName
ä ¼
ĠOver all
ach i
Ġr hythm
ĠSt evens
ĠPar ish
M ur
'] [
ĠB ug
18 91
20 6
ĠW orth
read only
ĠStr ateg
ĠL ithuan
ĠW R
ĠU E
Ġevery body
ocr atic
ĠNichol as
x t
s am
th lete
w oman
ak ov
18 93
Ġimpact s
o ard
ĠE ar
Ġsoph istic
C ACHE
ĠB ear
ĠAn imation
ĠL arge
ap on
st own
ĠÐ½ Ð°
Ġcont rolling
ĠSet up
"> :
ĠStat ement
uls ion
Dis covery
Ġgr ave
Ġobject ives
Ġconstit uency
Ġl obby
ĠEd wards
Aut om
ĠConserv ation
Ġset Timeout
E nergy
** :
Ġch ron
ĠH H
Ġcitiz en
Ġcred ited
ĠL loyd
ps y
aut hent
access or
udd y
Ġcritic ized
Ġlaws uit
U tility
Compar ator
Ġbe ating
ĠP anel
Ignore Case
W IDTH
ĠV K
Ġsp o
7 68
d og
ĠE S
ĠColomb ia
15 4
Text Field
ĠM otion
ĠJos Ã©
il ateral
is ible
Pl ane
ec raft
ĠN intendo
Hand lers
Start ing
end l
ĠWat son
v v
scal atest
à¥ į
ĠM agn
Ġpl acing
Cent ral
Î ³
Ġfail ures
ĠLINE AR
Config ure
un icode
Ġr ice
w al
ĠB ir
CO RE
Ġrid ic
Ġcovari ance
Build ings
pr ises
ĠJenn ifer
Rec all
ĠS IL
ĠB arr
d an
w ikipedia
Ġb eneath
se ver
b olic
ĠGu inea
P in
ĠRem ember
) <
sole te
spec ies
on er
ĠB our
az i
lo ver
Wh ich
Ġdo zen
ĠTransport ation
d ifferent
Ġsee ks
Byte String
R ock
Ġa cknowledge
Ġh ung
ĠN HL
Ġsup ern
Ġreprodu ce
Ġecon omics
Bo ard
Ġ" {
ĠBuff alo
im on
mu x
min or
Pos itive
k now
Ġ( ((
Ġz ones
Ġfoot er
c ence
F K
ĠP icture
SE SSION
ĠUtil s
ĠB ath
ug osl
Ġevery day
inem atic
ĠPl ugin
Ġemail s
h aw
for um
' ',
ĠField s
Ġnob ody
ĠAv iation
Ġo w
ach ers
ĠTr ain
ä¸ º
ĠSoc orro
ĠIn surance
Ġ@ @
Ġconv inced
Ġor bits
Ġcontin uity
Non Null
single ton
Ġelev ation
Ġgovern ed
an ian
air y
Ġout break
ĠTro phy
ĠEn um
ar ations
ĠC u
Ġfast est
im ony
v ik
I ce
Ġk iller
Action Bar
ĠL ud
add itional
Ġok ay
F ACE
Ġown s
Ġel ite
Ġind igenous
ĠPro test
Ġcy clic
ĠCub a
Ġprelim inary
Ġcor ners
Call ing
y ellow
Ġe leg
ley ball
cod er
H PP
ĠV ic
ĠD R
ĠCo hen
Ap ple
Ġbal anced
Ġswe ep
Hel pers
Represent ation
} ~\
ĠR ou
ore ms
Ġdes erial
Ġg fx
ĠW ikipedia
Ġuniqu ely
Ġjust ify
Ġen orm
Ġoper and
Ġcon current
Ġback ward
W M
ĠY a
ag ar
m or
ĠDr ug
ĠCom ple
HAND LE
Ġfinal s
Let ter
28 0
St udio
Ġoccur ring
Ġc argo
B ank
15 6
}) =\
Ġc d
V K
ĠK id
p ark
ĠV ision
18 92
ĠMe eting
ĠG len
raw l
XXXX XXXX
ĠS ax
Ġdo i
D X
Ġvar s
ĠNe il
ĠGr ade
}} =\
ĠEag les
ra is
Ġvirt ually
ari ans
ĠCl aim
^ (
ĠI MAGE
Ġcompos ers
cover age
ist ency
Ġcous in
Ġc f
ov an
Ad just
ĠF LA
Ġpers u
ĠK l
ĉĉĉ ĠĠĠ
sp ort
Ġher oes
Ġcontact s
Ġpremi ere
Ġw elfare
Ġag gressive
P rec
Ġcons olid
Stud ent
Ġportr ait
as se
15 9
Direct or
}{ }
Ġext ensively
normal ize
Ġpress ed
auth ors
w ig
Pr iv
) ](
St e
Ġwork space
Ġrev ised
åı ĸ
Ġspec ifying
Ġreason ing
form ula
cr im
tw ig
Ġp id
Ġloc ality
ĠAgr iculture
Ġ ));
ĠC atherine
7 20
er gy
land o
Ġste ep
Ġpro l
Te ch
Ġt ours
Ġaff ine
Ġinvestig ations
D ays
ob ar
con tract
ĠMil an
Exp atriate
Ġdef ending
ĠF ed
æį ®
Ġm eg
ĠR ivers
Ġdu o
he w
Ġoverse as
ĠContem porary
Ġassoci ations
So ftware
Job s
res olver
Get Value
Ġtrib ute
ĠC ris
. }\
ĠU SS
ict ions
it ious
Ġdis joint
ĠCal endar
Ġexplos ion
xi ety
é Ĺ
AC CESS
Ġadvant ages
Ġexha ust
Ġf ut
Con nected
Char les
Ġnav igate
Sm ith
ta wa
Ġinter cept
oot ing
Ġrem arks
cur ve
ĠS ym
Ġob sc
Ge o
ick ed
Click Listener
Ġtum or
ht m
ĠCr icket
mk dir
Ð½ Ð¸
ĠRe yn
Ġexhib its
Ġdecor ated
incor porated
Observ able
ĠN ak
Ġbro ker
E con
Ġarr ives
F atal
Op code
f ive
Ġan ger
Ġax es
bl ast
Null Exception
Ġprem ium
Ġfollow ers
Ġm ice
m ne
n ets
Ġa est
Ġnon zero
Ġ iv
et ched
Å Ľ
15 8
Ġguarant ees
Ġ ----------------
le arn
Ġarchitect ural
ĠOtt oman
B ul
STRE AM
ĠS aints
ĠM end
Ġ' )
ENABLE D
ab we
up iter
Ġmathemat ics
s outh
im ize
Ġtri be
Ġin ev
Ġqual ifying
s ock
ĠM ari
Ñ ī
Ġst olen
Trans actions
small skip
ĠHar vey
ĠD ES
get C
ie u
ĠST AT
Ġb ootstrap
ĠSh ared
widget s
Ġdist ant
Q T
Ġdev ast
aval ry
Ġc amps
Ġl ifestyle
Ġmyst erious
ĠM IN
ĠColon el
z ens
Ġcosm ological
H F
ev ille
di ag
Ġachiev ement
F acebook
ĠI van
cred ited
atern al
end ors
Ġinfin ity
Tra its
ĠV lad
$\ ,
ĠCheck s
ĠF ollow
Ġun s
SER VICE
Ġhar ass
Ġf ate
FN GL
ĠB order
Ġingred ients
Ġspecial ist
Ġmulti plication
M ary
A cknowledg
Ġ] );
Com puter
Ġph ones
ĠCour se
Ġguitar ist
hab ilit
MPL ATE
ĠFr ances
E F
ĠT ed
Ġelect oral
Ġ* **
b ay
Ġthe at
Ġnumer ic
Sort ed
ĠP ra
host name
Ġre n
ĠR iemann
ĠJ ar
cap acity
ĠN ancy
ĠEx pr
Ġcollect ing
Th ird
") ).
ett i
ĠCom merce
ĠY u
18 50
ick ets
Ġtoler ance
h m
in crement
Ġph on
Ã ī
th ink
ĠA round
An swer
am ar
ĠSymph ony
ĠK ill
Ġper ceived
ond e
ĠStr ategy
Ġbar rel
match er
Ġstar red
P AGE
Ġsu ck
ĠPh ysical
ĠB og
param ref
we ights
c ue
ĠB U
ĠG arc
iz za
Ġpe oples
Ġtra its
Ġp ounds
ĠCl are
% ">
Ġd atabases
ĠFe atures
ap k
arn ess
ĠWell s
ĠTo o
est imate
pl ating
Prot os
ĠForm ula
Ġcontext s
Doc s
Ġs q
"> .</
& $
/ ><
d yn
Ġro ster
Ġphenomen a
Ġpray er
le f
Ġal lies
ĠD ennis
Ass ume
R o
00 4
ĠI M
Ġfilter ing
Number Of
T our
Ġch ap
Ġh i
Ġland ed
f v
Ġs lic
N ORMAL
h yp
um ble
ĠA str
ãĤ ĭ
Na N
ĠB B
Work ing
Ġinn ings
Ġs ou
Ġback ed
Dis patch
Ġor al
Ġbound ing
Ġnegot iations
O RE
S uffix
ĠM ann
ãģ Ĺãģ
Ġmer chant
Ġsuggest ions
Ġtrans mitted
S uggest
Ġwork shop
Ġsub section
Ġinst ability
ĠMe asure
m ixed
Ġreserv oir
B ay
Ġc avity
sat isf
ĠCom b
um ann
Writ ten
imb abwe
l ishes
getElementsBy TagName
v dots
ort on
ME DI
_{ -\
ke es
Ġu uid
ĠA bs
Project s
ĠWeek ly
================ ========
o ys
Ġun safe
requ ires
t u
M ON
| _{\
ĠCar r
Ġsurv iving
red is
Ġdon ated
Ġimag inary
Ġ ÏĦ
pl ays
Ġm im
con sc
ull ivan
G ed
ĠG NU
anc ers
ĠStr ong
Ġn ights
Type Def
ĠH AVE
Ġj ournals
Ġseem ingly
ĠIn iti
fo od
Ġmind s
ĠCh anges
Ġalleged ly
ĠE asy
Direct ive
) ];
Util ities
ĠRem ote
Ġang ry
Ġenthus i
k ed
ĠPo isson
- "
) ");
um m
12 34
man aged
PE G
Map s
ĠBet ter
emph asis
Ġcos mic
F s
Ġr itual
Ġincred ibly
sub stack
ĠConf eder
15 3
ĠÎ ¼
Ġtraject ories
Ent ities
Ġdismiss ed
Ġwarn ed
ol ine
ĠB orn
ĠCOP Y
Ġs isters
Ġe ighth
Ġshe ar
Attr s
Ġg em
Tr ump
Ġvol atile
List en
nt z
Cho ose
ĠM ouse
St amp
Ġqual ify
s ites
ir able
start ed
J ose
Ð ¶
Ġsl aves
Ġdeterm inistic
ĠG PU
ĠCh a
Ġ/// <
work flow
Ġ* _
ĠUp dated
Ġge odes
Ġnom ine
ĠG A
0 200
Ä Ľ
Ġsouth west
rele vant
p it
Ġperturb ations
ĠD evelop
EX CEPT
ĠQu arter
Com bo
Ġinter fer
Ġquarter back
he ap
ĠB eyond
Ġint u
Ġfil med
O VER
IN LINE
be havior
Ġsk i
ĠLem mon
in ology
Sim ilarly
} ',
ĠU ri
$ _{\
Ġg ates
Ġpsych ological
ãĥ Ī
ĠL ar
Ch rome
Ġfile Name
Ġa ws
ern ess
ext ended
em ption
Americ a
user Id
Dep artment
CONT ENT
ĠLet ter
Ch ris
Ġmorph ism
p mb
ĠCon sequently
au kee
en es
ĠM ul
Ġpick s
ĠM OD
math ds
Ġover head
Ġbo ards
^+ $
ĠFinn ish
ĠInt el
G esture
man ifold
Aggreg ate
Ġartifact s
Ġorgan ised
Ġm ood
c id
Ġf lip
Ġlegisl ative
ĠCh and
Or g
Ġtr aveled
ic z
ĠMont ana
Comp atible
uck land
ex e
ĠF ake
Ġexec utor
ĠMet al
æĸ ¹
P s
sc apes
Ġmillis econds
Ġsub sets
Poly gon
ĠPer iod
Ġbehavi ors
Ġscholar ship
f ixture
Ġpl ates
ape ut
ĠRe ports
aur us
Ġinvent ory
ai ro
\| ^
CL UD
, ~
c ot
%%%%%%%% %%%%%%%%
ĠC UR
current Time
ib lings
Ġweak ly
c ock
k b
st ead
EQ UAL
ĠIn stit
ever se
ExternalProject Path
clos ing
am ine
User Id
á º
Ġtr aces
ĠQ CD
ĠFI FA
s uffix
ĠEvery thing
le ave
ĠD anny
ĠB R
ĠAl pha
Ġmand atory
Christ ian
ĠBeng al
D ead
CLUD ING
Cl osure
O O
D to
g ot
Ġc ave
aw ait
Up dates
SD L
writ eln
17 6
ĠAm sterdam
ĠWAR NING
Ġr ape
PO SE
Ã¼ n
f ilm
ĠHash Set
S ys
EO F
). </
COMM AND
G itHub
un ate
ĠR S
/ ************************************************************************
ĠCh i
AS K
ĠForm er
Ġsub tle
Ġbank ing
s nap
n orth
Ġjuris diction
18 87
Ġin clusive
é ¡
ĠG onz
Ġentreprene ur
. ')
d atas
Leg acy
ethe less
ĠL an
ĠG ene
Ġ$\ |
] []{
RE L
Ġrelax ation
m igr
ble ms
other apy
Ġdepart ments
k ubernetes
ĠB omb
Ġtool tip
Ex act
und ef
linked ExternalProjectPath
ĠR M
hand ed
({ },
18 65
ro les
ĠId entity
ut a
sc ience
' $.
Ġsil ence
Ġrecogn ised
IFI ER
ĠL ov
path y
P ac
In stant
ĠCor p
ĠJ ama
Ġv i
Ġv endor
Ġcon vey
Exp and
Ġgather ing
18 5
gener ation
Ġtrail ing
Ġtempor arily
rele ased
Ġt ent
ĠCh oice
h all
Build ing
ĠN athan
Ġem otions
An alyzer
Ġtal ented
d raft
vers ation
ĠDir ac
ĠLeb anon
Ġnumer us
Res p
Ġsubstantial ly
1 200
Ġar ising
Ġsqu ares
Y M
Ġneighbor ing
| =
Ġamplit udes
ĠS uz
Ġge omet
Ġle ak
Ġch apters
Ġiniti atives
go als
assert Raises
ĠArab ic
perm alink
us a
Thread s
ĠCatalog ue
Ġpul s
Ġround ed
Ġcor por
Ġvolunte er
N ear
å ·
Ġphys ician
23 5
Ġload s
en ue
Ġpost ing
Ø ´
ĠS ometimes
ose x
Ġport al
im ap
Ġent ert
Ġsk etch
Ġ( .
ĠV el
zer bai
Ġch ances
Fl ush
}} )$
ĠMov ies
A h
Ġ ))
Ġa ster
S ym
r w
S ir
Com position
Ġthe sis
ĠS alt
ĠĠĠĠĠĠĠĠĠĠĠĠĠĠĠĠĠĠĠĠĠĠĠĠĠĠĠĠĠĠĠĠ ĠĠĠĠĠĠĠĠĠĠĠĠĠĠĠĠ
ĠEx cell
alt ies
mod ern
Ġimm une
Ġb atter
Ġco at
Ġextra ordinary
ĠA ST
ĠIn sert
is b
Ġansw ered
F all
Ġred und
A MS
Ġf ingers
Ġh ooks
ä¸ Ĭ
inst ances
å Ģ
al am
ĠC urt
ĠW riter
COL UMN
Ġf led
Ġres ume
ĠAR M
Ġn ic
00 7
Ġrad ar
ĠS eq
Ġicon ic
Ġev ac
Ġrel ate
Sh op
Ġmurder ed
Ġs cheduler
R oyal
ER O
Inter op
Ġhum or
ĠBre xit
A mb
ack ing
Ġachiev ing
Ġpremier ed
seud o
Ġam id
TR ACE
ĠSerb ia
F ort
Ġa u
ro uting
Ġident ifies
ĠQ uality
tt ify
ĠLuc as
.. ...
ĠSt atic
Mix in
en os
. },
x d
Ġsent enced
orph ism
Ġ ].
Ġtown ship
Ġcert ified
v b
( %
CRE X
Ġor chestra
mid t
uch i
Ġdeform ation
im an
ĠF at
get Parent
Sp anish
Ġm ast
comm unity
ĠTool s
T CP
Ø ¹
ĠF uel
m ind
Rail way
Ġro l
exp anded
Â ½
ĠP ent
] /
Ġdig its
te es
âĢĿ )
Ġread ily
Ġprotect ing
g ol
ĠI da
fe ctions
' -
ĠB esides
in cre
ĠSt uart
Ġautom ated
ĠObject s
Ġ ^{\
16 7
Ġd ad
ĠArray s
Ġbul let
im i
C U
ĠE ug
Ġstep ped
Ġorient ed
Ġb lo
LE T
ĠEm ma
Ġcre am
ĠGener ation
ĠT odd
Ġg otten
type Name
av an
Key words
G al
row ing
Ġterr itories
}_{ {\
ĠLu is
eg ree
Ġtrust ed
Ġfeas ible
S to
ĠM ER
tr ip
:: _
Ġpre dominant
ãĢ ģ
ĠI celand
ub le
ok emon
Mod ify
ĠPr adesh
Ġsear ches
re vision
ĠTr inity
ĠWe ather
size i
S ens
Ġcomment ary
m q
Ġten ant
Des criptors
Ġf t
ur istic
Ġn od
Ġadv is
ĠG itHub
Match ers
ĠL ions
Ġan is
ĠOak land
Sl ide
Ġs ock
ĠB ass
ĠDis covery
S olution
c ott
Ġaccompl ished
Request ed
ĠAssoci ate
Ġl ingu
Ġg amma
\| _{\
Ġl iver
the mes
ipher al
in el
Ġnew er
N an
View er
aver age
IS O
Ġauthor ization
ĠMon itor
sk in
h or
Ġam ateur
ĠBut ler
ĠB irth
Ġl ucky
LA S
Ġindex ed
h ls
Ġele ven
ĠW alt
Ġwrest ling
Ġexec ut
m eth
ĠG oth
R ew
oc co
ĠS ox
ĠSo on
Ġart work
r ating
Ġphotograph er
Ġnormal ize
Ġpack ets
Ġmin istry
ĠS election
un ting
Ġsus pected
Ġded uce
Ġfriend ship
ĠL if
Ġplay off
j p
Ġdesign ers
Ġout s
S pl
stat istics
Ġc ryst
) |\
ADD RESS
Ġdraw s
FIL TER
Ġreg iment
To o
adi ents
Depend encies
. {
pect ives
________ ________
author ized
ĠCo ach
Ġv el
Ġplay offs
cor ner
Ġdeb uted
Ġun used
ĠAthlet ics
ĠB L
Att ach
J on
ĠD ol
Ġocc urrence
has Next
ĠEm pty
ss h
ĠDe al
SH OT
w aukee
ĠS yl
ĠSc i
Ġburn ed
ĠHeb rew
asm ine
rupted Exception
Ġsimpl ified
Ġs ans
Ġbr idges
ĠF ace
L ex
Ġfest ivals
B on
Ġw ars
ĠK el
s uite
Ġs z
Ġaccompany ing
p ause
ĠTre as
- %
rec ip
ĠB A
Ġvari eties
Content Type
Ġe y
Ġb ab
EN UM
18 61
El se
b az
ĠCon cert
Ġle ase
Ġed itors
Part icle
r idden
ĠAn cient
TH ON
Ġcol ours
Contin ue
Ġbel t
ĠB ach
Ġpreced ing
/ ?
Gr and
H aving
ĠM om
Ġd ancing
m ong
ĠImp act
Ġinteract ing
ĠG lass
30 2
ĠL is
form al
ĠV as
ĠMar io
38 4
ĠCO MP
Ġreg isters
Ġ{ !
ib us
Ġwant ing
Ġadapt ive
ĠInt egr
ĠDom ain
s uggest
Print f
ĠS ans
Ġconform al
>> >
DI O
ah an
ĠR ey
ĠPlan et
dig est
HO W
N s
c ategor
od ic
ĠX X
Austral ia
inherit Doc
Ġcivil ian
Ġs word
Ġ[ (
Ġ$ <
amb ers
al one
Col ors
Ġvan ishes
ĠClin ical
ct ype
erm al
Ġstrugg ling
Ġindu ces
real m
al ter
Ġg onna
Ġswit ched
' ></
Ļ Ĥ
amb le
Ġtransl ations
PI X
Ġsh ame
sh ore
v r
ĠP T
ĠV ict
tri ang
Ġsc andal
DIS ABLE
@ {}
ac ements
ĠExper ience
Ġident ities
Ġb onds
Ġar ises
æ Ń
Ġdoub les
Ġanom al
Ġformul as
Button s
er ie
Ġal phabet
Ġimprov es
Ġcompr ises
te enth
Ġsw iper
In crement
m eter
)= (
F W
Ġg ig
Ap J
Ġbatt les
N d
cell s
gom ery
cess ion
ĠX XX
comp atible
Ġmot ivation
l ift
F ixtures
In spector
Call able
Fin ish
av g
ĠR C
ĠBelg ian
Ġc odec
Ġsim pler
Ġac res
ĠLead ership
it us
ĠSol utions
d up
ul in
Ġconnect ivity
it on
p w
Ġbusiness man
g rey
Ġn m
Ġpo ets
ela ide
ancell or
Ġb other
Ġgenu ine
B G
19 3
ĠD oll
io let
ĠDIS PID
P rior
ĠPr im
Ġremember ed
æ Į
level s
c riteria
uss els
Ġre normal
16 4
ĠGh ana
ĠH alf
Ġres ist
S eed
AT O
sort ed
d eleted
ĠAl loc
Ġsurre nder
ĠNash ville
Ġconfirm ation
B bb
\, {\
pe st
ĠL ED
ĠO ri
rece ive
ĠS old
ens on
av ern
ĠPh ase
ĠB orough
24 5
Ag ain
Ð ¡
ĠS eg
ch r
18 7
PRE SS
ent ine
Ġinterpol ation
=" .
ĠD ynamic
Con nections
Ġaffect ing
ok i
Ġexp ense
ĠH ob
L atest
Ġad option
Ġsum mit
Ġcorrect ed
ĠA ber
ĠTh an
Ġoptim ize
ĠBapt ist
)) :
Ġcapt ion
Ġcab inet
lic h
ĠUn ity
Ġaccommod ate
Y ES
at z
mid i
Ġso ap
REQ UI
Ġb ugs
Rect angle
Ged mo
Ġcon spiracy
Ġfre ely
> ")
ĠY ellow
FE ATURE
/ :
U psilon
Ġy ard
ĠLine ar
Ġdead line
superv ised
c in
n z
= -\
ord ion
el ia
Ġdispl acement
WIT H
Q R
âĶĢ âĶĢ
ĠWrest ling
Ġstri kes
ĠTr uth
ĠDr iver
ĠJeff erson
( |
ĠTh under
ĠTechn ologies
Ġb ills
d ns
Ġm anga
ĠT ell
Ġperm utation
åĬ ł
ĠS ak
18 86
Ġme al
ep per
it ches
We ak
L ee
Ġconstit u
Dan iel
} ],
ĠSp ark
P B
Ġinvestig ating
Ġportray ed
M ike
ĠPhilipp ine
e er
ĠS ah
p ure
fore ign
ĠStan ford
ĠR uth
In side
Ġline arly
23 4
ĠInt ent
IN X
be it
Ġtag ged
rece ived
p aren
ĠM ade
Or Empty
datab ind
ĠF an
Ġin cent
ĠS ale
ĠPhilli ps
ĠLe o
M i
am ation
Ġfarm ing
ĠCommun ication
ĠBob by
Ø ©
ĠAd venture
Ġalter ed
S everal
Ġvari ability
6 55
Ġb uck
Ġlink ing
Ġtarget ing
Ġdiscuss ing
Ġnot ifications
Ġfraction al
sen al
ĠK il
Ġab c
K K
Loc ations
umb ai
parent s
ĠUs age
OB J
N ick
ĠDi agnostic
Ġ"\ "
und a
ten ess
Ġre ceptor
Ġd ocker
' }\
ĠE ld
hom ology
Ġb ol
As String
Ġterror ist
ĠG ate
Ġhe ap
d ead
Th umb
Ġcharacter ization
t odo
Ā Ā
depend s
Mar shaller
Ġjudg ment
Ġrefuge es
Ġparam et
eloc ity
ĠHug hes
D am
ĠE ve
Ġw is
s ens
Ġ$ $\
ĠSh ape
Ch inese
Get Type
ĠLiber ty
C irc
le ad
ĠI con
ĠU int
ĠQu ick
? ,
F X
l ar
ling ton
ĠRE Q
ef orm
itud inal
S NAP
ĠT ouch
\, .
ĠCond ition
Ġconsider ably
Ġsh rink
28 8
Ġcompet itors
ĠZ hang
Ġcoll apsed
ĠEm ily
Table Name
Ġmut ation
Ġmain tains
empl ar
or ator
Ġun clear
be am
ĠDi amond
Comm un
R X
Ġ[ &
open ed
ĠO m
int age
ond o
16 1
ĠB ak
prot ect
eval uate
å ¸
flu ence
Ġprov ing
r te
Ġpresent ing
Ġin complete
Ġ[ `
s olution
18 64
Ġprogram mes
ĠN om
Install ation
v skip
18 8
ĠJul ian
Ġcogn itive
ER E
ĠBer g
Ġp ink
Ġ<!-- [
Ġcard inal
Ġneighbour hood
Ġs ke
ĠN y
Ġexpect s
b urst
Ġh orn
ee per
ç ī
ì Ŀ
ĠM aced
ĠRepresent ative
R NA
Ġsett le
Ġlov ely
Ġn umpy
s ensitive
Ġo m
Le ague
ad vert
ĠProduct s
Ġaccompl ish
W all
Ġcell ular
ĠLeon ard
ĠK ash
Ġlast ed
3 80
st reet
ĠAut om
N othing
Subs cribe
Ġexceed s
Ġp unct
ĠW idget
Ġalloc ate
play ing
Ġlocal ization
Ġfun eral
Ġh iding
Dir ty
qu in
Ġen velope
å ¾
reg istration
FUN C
Ġw orn
pl aced
Ġv in
Ġk nee
Ġmethod ology
ĠEu clidean
ĠMETH OD
S ar
Ġexp edition
ost ream
col lections
Ġun changed
ĠMult iple
ĠS ter
x r
ĠD aw
Ġpregn ant
Ġe u
ĠCom mercial
ĠJer emy
ĠM T
Ġdig est
_{ [
Ġpoor ly
che l
18 84
Ġrele g
ĠRe ed
Ġbro ader
Ġcop per
18 81
Ġtour ist
Ġa z
Ġend l
ĠPal m
ĠTre k
G lob
ov ich
log s
ĠS z
Ġpart itions
Ġb uffers
ĠE ston
Ġ[] *
VAR I
Ġintegr ate
"=> "
K B
Ġh anging
Ġsh aped
Ġun cle
filter ed
col our
im ited
ere k
ĠExec ution
in ely
Ġmin isters
Ġpre vention
17 8
re load
ĠPract ice
Ġeditor ial
h ydro
ep h
Ġinter sect
ol lo
iline ar
Ġveloc ities
ast ian
Ġdec ays
ĠH R
ED IT
ĠS uite
ij k
Ġare na
Pro jection
Ġrock et
is EqualTo
Ġhot els
CA SE
ot yp
ĠĠĠĠĠĠĠĠ ĠĊ
ed e
Ġtw isted
LOC ATION
ĠVenezuel a
ĠR idge
Med al
Ġint elligent
W as
ist ani
j dbc
y ml
Ġsust ained
3 40
Ġret ro
Ġstay ing
Ġrecip ients
Ġ= =====
Ġs sl
dr ive
expect s
it ian
ng th
ĠM aps
z ant
Ġb ary
H W
Ġinvest ments
ess ors
OUT PUT
T witter
l ant
con sumer
Ġmer ch
ĠSal v
Ġe gg
ĠP sy
Ġdis orders
ant om
ide a
hen e
Ġsuper conduct
Ġquot ient
Ind ia
con j
. (\
ced es
ins ky
Ġ$ [\
Right arrow
DEF IN
ĠAl ways
Ġstruct ured
ish a
pr im
urs es
Grad ient
Ġneur ons
ĠE L
Ġ ic
D ele
>{ @
ĠS ierra
UNK NOWN
Ġmon arch
ĠAb raham
Ġharm on
Ġl hs
Ġst ret
ĠA DD
r ss
Ġgrand father
ĠS ort
Ġc ad
Ġc ele
Vill ages
Ġg aps
Ġtrad ed
ĠNep al
In ventory
Red uce
( ',
= _
M ongo
ĠCan al
Ġtrib es
I EEE
}_{ (
Ġcon jecture
ĠM ine
M AT
ic ating
Ġformat ted
A st
Ġs its
Tr im
Ġdiff ers
Sin ergi
M Q
ĠB und
Ġattr action
Ġpat rol
19 1
ĠHoll and
Ġw ishes
Ġwe igh
Ġpract ition
Ġproof s
h istor
R pc
Ġex terior
p ym
Ġapp ar
Ġmunicipal ities
est rian
ĠL oop
ĠV ermont
amp ire
ĠX box
Cor rect
DE SC
Ġcol ored
Ġund ers
ĠMathemat ics
È Ļ
at trib
Ġinternational ly
omorph isms
ĠPo inter
ÑĨ Ð¸
80 80
ag ic
Ã± a
Ġn erv
ĠAt hens
MO VE
' )$
ĠProdu ctions
mall oc
D TO
ĠK ol
I ts
Ġh ab
ors ion
Ġgener a
Ġtri ps
Id le
Or d
ĠCoun ter
B a
Ġyoung est
her its
align ment
it ize
ĠG B
Ġattr actions
ĠCon stituency
Ġdefe ating
op al
Ext ent
d ac
Ġsus cept
ĠTh r
Ġdr ain
AD C
S aint
Ġtr apped
prov ided
Ġp ig
ĠFa ith
Ġt abs
State Exception
ĠHill ary
Ġspac etime
be hav
') [
17 7
ĠCall back
ok o
Ġim pressed
Ġ* =
Ġattack ing
p ane
(" _
initial ized
ĠB uch
Al ready
ĠPark s
L y
Ġdr ift
bo ys
60 1
D K
Code Attribute
Ġattend ance
ĠHall ow
D eleted
Inter action
Ð¾ ÑĤ
Ġnob le
he nd
Ġ{ :
Sh utdown
Ġincor porate
parse Int
Ġprox imity
associ ated
man ual
Hash Code
Ġadvers arial
f eld
Ġbi ology
;\ ;
inherit doc
Ap ache
Ġst unning
Ġlegend ary
Ġre interpret
Ġbright ness
Ġdes ktop
Ġpaint ers
g ateway
math comp
Ġaddress ing
ĠRE ST
ovak ia
P ipe
Stud y
Ġre public
67 8
r ise
æ Ģ
Buffer ed
ĠBl ake
l v
Ġg lyphicon
x a
Ġt rem
ĠF u
ĠK un
Ġbott le
Ġ} }</
ia z
17 2
ag ain
autore f
Ġs hed
ĠComp etition
Ġconscious ness
Ġconstitution al
PT S
ol ition
Gu ide
At Index
MA IL
Ġcomp ressed
ĠAn imal
Ġconsum ed
Ġpand emic
() }
ceed ed
control led
Ġspeed s
Ġwarm ing
6 50
Ġun em
Ġap olog
Ġb uses
Ġsup pressed
ĠArt ists
Enumer ator
Ï ī
prom pt
Con sum
H o
ĠMunicip al
it ting
ber ger
WIN DO
ĠExec ute
ĠT S
aged y
Ġb ins
ĠC incinnati
ĠR ah
ĠRead er
Mut ex
Ġassist ed
ak ef
Ġarg c
ĠRes pons
Ġstat ue
ĠU UID
Ġsh ar
ST ER
SC HE
Ġair line
US H
S a
h c
elect ed
Heading Color
Ġst er
Ġal liance
ĠP UR
Ġarr iving
ĠT ensor
ĠM R
source forge
Ġr pc
ivari ate
Ġde ce
ten ant
Comp ilation
f ork
Ġpl ug
Ġmob ility
or ian
Ġemploy er
ĠHar bor
ĠW IN
host s
Ġproceed ings
mathbb m
ĠPlay ers
ong ue
sh utdown
Ġaggreg ation
get Int
ENT S
Ġmuseum s
Ġwealth y
Ġr v
S PI
Ġcheck point
bound ary
A verage
S ensor
Ġun ions
IT EM
Ġbl ues
m otion
18 75
Ġconvers ations
Ġdemocr atic
ĠG ov
direct ive
ĠG ang
00 6
G od
K ER
Ġclos es
SY S
Ġx hr
ĠH appy
ĠAm endment
ĠPet e
Ġcal m
Ġmark ers
) !
ll a
act ing
Ġmon ster
Ġpat ches
Und efined
n at
Ġo ps
Ġcharg ing
ĠVAL UE
Ġcompl aints
Ġtrav ers
sh ine
Hash Set
Ġexpl aining
Ġsophistic ated
cri bers
char At
ĠWild life
W il
ĠS or
ĠS amsung
Ġ} {\
Ġon Click
D evelopment
Ġprot agon
Ġmanufact ured
Afr ican
t ls
ark er
st y
ĠS afe
ĠT I
get User
Ġ[ âĢ¦]
r ab
Ġj ets
Ġ\\ [
rece iver
ĠSt ef
P TR
}\ ;
ĠCroat ia
ĠWall ace
Ġ è
Ġw ard
ĠH amb
ĠPro b
Ġimportant ly
Ġ ub
list eners
ĠCr iminal
Char Field
ĠD od
40 3
Ġref ere
Ð¾Ð ±
k el
Ġd ots
Ġu v
IP S
Es cape
io x
h ooks
ĠT IM
Ġdeliver ing
ĠWood s
ĠS PI
Ġre nown
Ġlearn s
C os
ĠN amed
}) -
ject ive
Ġtim eline
Eval uation
å Ŀ
focus ed
Ġproject ive
Ġpoll ution
M acro
ĠD eveloper
] ],
status Code
Ġfasc inating
Ġentang lement
ro utes
Ġcompr ising
Ġs lip
og g
C AR
Ġins pection
18 82
L azy
Jew ish
ĠV A
Ġsim ulate
t om
ĠTrans fer
ĠW u
ĠG it
FO UND
v iol
Ġp ause
node Type
can onical
5 50
Fl at
ĠR F
ĠâĢ Ŀ
Ġthe ad
ap pe
print s
system s
] ^{
yl an
"> {{
Ġup set
å ī
Ġget ter
ĠG ive
publish er
li pped
c ards
Ġo vs
ĠA ve
Tem plates
track s
Ġch rome
V ersions
d eps
Ġfight ers
work space
Ġtransform s
Ġmag ical
compar ison
ĠInd ependence
ĠÎ ±
å ¹
ĠTy ler
Ġfro zen
ag le
Ġsec rets
Qu ota
Ġclean ing
ĠM az
}$ $
Ġbad ly
ing o
Ġby pass
ĠC inema
ĠNav igation
CK S
v ectors
bro ok
C AN
\ .
ip ment
Ġval ued
doc utils
B attle
UB LE
equal ities
30 3
Ġmake up
Ġcre atures
Ġmode led
W L
Ġt anks
Ġcollect or
ĠE ddie
O Auth
18 63
ĠAll ah
Ġelli ptic
r st
Ġb uff
ir q
ĠN J
16 2
ĠDefault s
Ġsign atures
ogen ic
m un
D igital
ou pling
ĠBi ology
ĠF ri
ĠG overn
get Path
H ey
ĠHe avy
ĠMus ical
Ġindex es
] ):
Ġcontrib utors
G LOBAL
S pect
re comm
ĠLear n
log y
Ġwor ried
ĠTerr itory
> }
B LE
Ġoff line
ĠArch itect
~~~~~~~~ ~~~~~~~~
Ġto ll
Ġcontrad ict
E mit
18 78
C ENTER
Ġcomm une
To Array
Ġsuff ices
us b
Ġcol ony
Ġbr ig
Ġgard ens
ver gence
18 83
it he
Ġen force
Ġen compass
Ġdest ruct
Ġforg otten
ĠN ine
Ġeval uating
F lex
Ġtreat ments
ĠTest ing
Ġacknowled ged
I ss
P ull
Ġhop ed
ĠW ould
Ġhistor ians
un til
Ġsc iences
ãģ «
p es
} &\
Ð½ Ð°
ĠIn side
aur ant
represent ation
t ier
à¤ °
+ '
ĠT ang
ers et
æĸ °
ĠG ilbert
ig m
Ġcent res
Ġre write
r in
Ġn aming
ĠU TF
C ycle
Ġtrans ient
17 1
Ġchampionship s
ĠR us
00 8
ç ¤
Display Name
Ġconduct ing
Track ing
Ġconcert s
mark down
' $,
k ers
Ġ ug
Ġcor rel
Ġproceed s
17 4
Ġdrop down
Ġflex ibility
Ġad mission
Ġnom inations
Ġad equate
cat Desc
Ġpeak ed
Ġgr ateful
Ġj oke
Ġp ale
Ġparticip ant
Sim ilar
:: __
con tainers
vert ices
ot opy
ĠA uckland
s cheduler
Spec ific
Ġlegit imate
to Array
W ashington
insert ion
Ġdef ect
Sp ot
Ġsurve illance
B roadcast
Con serv
Ġhon ors
Con struction
amb ling
Ġinn ocent
ĠS ustain
Rep ublic
ĠS ame
ch ars
con tr
Ġaffili ated
bin ing
Ind eed
Ġdro pping
ĠR av
B UT
Ġl n
20 9
G UID
Ġcross es
d ip
z s
Fl ash
sp ons
Pat ient
ĠCon v
am ic
og an
Ġsc ar
Ġsearch Box
% ),
con taining
Ġst reak
DO C
SP H
ĠSpe aker
ĠSum mit
Ġreserv es
Ġes lint
ĠB ald
CT L
li um
ast rop
Ġ` --
ĠE ye
AN Y
Ġquant itative
Ġh over
AR GS
Ġaff air
J av
il inx
c ro
ĠFunction s
Foreign Key
ĠM ills
Ġobserv ing
di agram
Ġdec oding
YY YY
nol imits
ĠLink s
Rem oved
Ġ Ùħ
Ġwhe els
Spec ify
re ction
Quant ity
ĠB H
)} _{\
ĠUn supported
Ġrig id
Ġ{ {\
Ġk o
ac i
Ġdiver gence
Ġcrick eters
ĠCh ang
IG H
Ġsk ew
ĠT IME
roll ment
Ġten ure
AL LOW
Ġac ute
ĠSc ar
Ġmatch er
idel ity
ĠAn im
Ġrow span
Tag ged
A RE
in ion
> *
x FF
Ġdistinct ive
ĠGro ve
Ġra ises
Ġm ere
Ġb er
ĠL oss
= (\
br ains
pred icate
E MPTY
um ably
pol it
st retch
ĠT ol
Ġfall back
Ġfood s
Im plicit
Ġche ese
xx x
M u
With in
LI ED
Ġisol ation
Ġs overe
ĠTreat y
Ġpregn ancy
F und
Ġgent le
R anges
opt imal
ĠðŁ ĳ
> {{
Ġmem o
pro ach
Ġdem anding
"> [
Ġabb rev
ĠEn cycl
G AN
port let
Ġexp enses
n ut
ific ant
Ġtherm od
Pack ages
Ġfl our
Ġwitness es
Ð°Ð½ Ð¸
F iction
ION S
Ġe arning
6666 66
ĠArn old
ap prop
f illed
Ġrec ursive
ĠWork ers
ĠA SC
Ġsuggest ion
Ġt v
inc eton
oph one
ad j
RE SP
ET A
Ġachiev es
ĠSch w
ĠHol mes
Sw ap
Ġc ant
ĠJ ung
Ġox id
Ġenorm ous
L u
osph ere
Ġsub tract
Con trib
20 7
perm issions
Ġc attle
Ġexpect ing
ĠM ask
Ġaud it
ĠST ATE
j ab
Ġev t
estab lish
ĠEx ternal
Str ict
Ġfle w
f on
AR M
L iber
ĠTr ace
Ġl ig
ĠE ST
Ġworld s
18 2
ĠZ imbabwe
Y LE
Ġadv ances
ĠE g
und ay
P et
ĠR ac
FAIL URE
Mart in
r ated
ber y
Ġembedd ings
Ġb a
ĠR ena
Out er
at ra
act ivation
Ill uminate
18 71
pot ential
ff ield
At om
S el
t ou
}) _{
ĠB SD
ĠS weet
ad apt
Ġ' --
ĠN g
Ġutil ize
ad vant
Ġun a
M IC
Ġsl ots
26 3
P t
r ors
] "
BO X
Ġr b
Ġav iation
Ġw ound
ĠI BM
ĠChap el
ĠYan kees
cer pt
add All
Ġpick ing
Ġend points
ĠPar ser
Ġrecommend ation
id ually
ĠGreg ory
Ġrele asing
Comp ile
im od
Inter faces
æķ° æį®
sp rite
Ġmed als
Ġelse if
Dis pose
Ġsem antics
Publish er
transp arent
P ag
Ġin vert
Definition s
E U
at um
Ġscatter ed
V L
ĠID s
Ù Ĥ
Mult ip
Ġconcentr ated
Ġexcit ation
asc ii
ra ising
Ġchar ter
are l
ourn aments
Ġh ire
ME S
Ġaccording ly
Ġconsider ations
Ġbacter ia
ĠC LI
Ġcour age
Ġtang ent
orph ic
sp y
Ġres ize
Ġchalleng ed
upload s
ĠPen insula
:: ~
set Property
Ġpat ron
T alk
ĠP av
L IMIT
Ġadvoc ate
le en
18 76
ĠEx pect
ĠSp ider
k al
}} ^{(
Ġ" __
You ng
ĠLi u
Field Type
Ġthr iller
ĠGard ens
ĠT ags
ĠT D
Sc ience
s ix
F ive
Ġass ists
ele t
Gu ard
Err s
Ġparliament ary
R oles
b rowse
Ġsal ary
ĠD ifferent
Op acity
Ġprevent ing
Second ary
ent ric
ĠY ugosl
G ets
ĠAl t
libr aries
Ġvol unt
start sWith
45 6
37 0
= /
è¦ ģ
A LE
Ġa er
Ġs ax
ĠL apl
avor ite
Ġv a
Ġcompar isons
Adv anced
64 0
Ġsh ader
Mar shal
ĠG uild
=-=- =-=-
Res pons
PHP Excel
Ġd ressed
Dem ographics
Ch annels
Ġearth quake
è¡ Į
~ (
ĠDel aware
RA W
ĠProgram me
$& $
") ),
Ġpil ots
ĠNor folk
Ġtrad itionally
2 15
eff ects
Ep isode
Ġed itions
ÑĤ Ð¸
files ystem
SNAP SHOT
em e
Ch ars
ĠApp lied
ĠS cale
in as
ĠAr ctic
ĠNew castle
Ġm ate
ĠM ob
ĠP ool
ĠR oche
Ġfeed ing
Ġelev ated
Ġbroadcast ing
ib e
18 62
ĠR A
Ġ? ></
Ġcomb ines
K im
process ed
min ster
C Y
ĠH ugh
Int egration
Ġt m
em p
Ġmiss ile
/ @
â ĸ
est yle
17 3
Ġign or
am on
um bo
Ad s
Ġb is
ĠEx tract
Ġ á
ĠU ntil
constr aints
ĠF RA
at ri
ĠR isk
Ġsp ont
ĠA DC
Ġan ch
Ġcomm od
Ġcontin uation
77 7
ĠM iles
Ġmolec ule
Ġaver aging
re search
Ġsh ield
Ġ" *
en i
J oe
Ġhom eless
Play ers
Ġnucle us
Ġcyl inder
pop over
Ġsl ower
ĠReg Exp
ap a
ĠPers ian
ĠHel per
ĠMun ich
Ġc oc
PR INT
Ġ_ ("
Ġyour s
raw ler
Ġbl end
ĠP FNGL
W hether
18 4
Ġorigin ated
Ġt c
dis crete
author ization
ĠInvest ment
Ġsimpl ify
And rew
Ġd ining
27 5
lic al
P ick
Ġw ore
ĠR alph
}} }$
ĠSc ene
Ġintern ally
' ",
h art
ĠF unc
Result Set
à¥ ĩ
P F
P ur
Ġcomp ass
rel ax
B H
ĠEmer gency
ic us
Ġafford able
Ġob l
Ġpotential s
Y eah
ĠT CP
Ġadv ised
B uffers
ĠLog in
track er
ĠMarc us
ĠL ists
22 6
Ð» Ð¸
r ases
Fat alf
Ġsubsidi ary
b ibli
claim er
ĠHe at
ĠF oster
Ġexp ose
ĠF S
Ġsh oes
ĠOt tawa
ir y
arr ass
M otion
Index Of
ĠAd elaide
mat ched
Ġpat ri
conn ector
cal cul
ĠPar ad
ml abel
re pos
Ġr am
Ġre use
Mean while
ow l
nt hesis
Pro vision
Ġrob ots
Prop agation
>: <
8 75
r ag
Ð¾Ð ³
Ġcro ps
ĠHallow een
Ġcart oon
Ġt a
ĠB lo
At omic
Ġcook ing
Ġann oy
Ġgener ality
ĠM aking
Ġutil ized
m v
ĠI v
ĠP and
Out Of
Ġ'/ '
ĠNE W
il ers
Ġsol ver
ĠEag le
ĠAUT H
ĠReyn olds
Ġdim in
ĠPro to
v oc
get Item
make box
Ġ ë
ĠP rest
form atter
Ġaccept ing
ĠSp encer
Ġtr ait
ĠK aren
account s
< '
R ele
Ġre build
Ġatmosph eric
ur as
art et
Ġhyper bolic
Ġshel ter
ic ans
Ġs ew
Ġf reed
Ġsav ings
Ġnews letter
Ġas ynchronous
sp arse
J K
Ġ@ {
is en
ĠT as
ĠS ou
ator ies
p ager
ĠS ey
Re peat
sw ick
Ġp orn
position s
ur ious
ĠC elt
Ð¾Ð º
Term s
am y
Ġnumer ically
Ġreplic a
C OR
Ġ\ #
Ġv ig
ĠInt roduction
Initial izer
Ġm u
Ġ( &
Ġe ager
Ġimp ose
Ġ\, ,
hom epage
ĠBr ain
Ġh ills
moz illa
Ġpun ishment
ro bot
am as
Ġcapt ures
Un supported
unc an
Ġbe ings
18 68
ĠOr lando
Am ong
Ġanth rop
Ġw age
Can ada
Ġsoci eties
null ptr
FH IR
inter est
Ġcon greg
23 1
l ov
ĠA part
iz a
ĠI Enumerable
Ġch icken
Ġs ang
Te X
& -
ME TA
Ġbur den
D N
Ġtox ic
ĠN GC
ĠCh at
17 9
ar ma
Ġcon gr
pro per
fl are
Ġimport s
Ġexec uting
Target s
ĠL amb
ĠF IG
Z end
18 79
register ed
ass ignment
Ġper cussion
el if
ĠM PI
Ġlif ted
00 000
cu ador
Ġf ame
out ing
Academ ic
r n
Ġf iscal
uis ine
ĠRem ark
le an
anc ies
Ġdeg ener
ĠMunicip ality
node Name
ĠâĢ ł
Ind ent
Assert ions
ĠMax imum
ĠAPI s
) |^
Ġt uning
Ġc line
Ġobserv ational
Ġconc aten
Ġserial ize
Ġtrav els
ĠAd min
ĠSand ers
ĠF ocus
Ġan xiety
Cart esian
ĠMO RE
ĠS urg
Ġless on
Ġsp acing
dev ices
edd ed
Ġbank rupt
Address es
Ġl p
St roke
ATTRIBU TE
der iv
Ġprevent ed
Ġdisappe ared
Ch an
G H
com fort
Ġill um
dim ensions
ĠS plit
ish i
Ġsort s
Ġdemonstr ation
Ġconcentr ations
Ġemit ted
Ġpredec essor
p index
ĠL ands
For Key
Ġillustr ates
Ġmist akes
Ġm ines
ĠR osen
ĠT itan
m ob
). }
ĠRE G
ĠJ et
ĠNorth west
ĠRec all
b rit
un set
View port
Ġcount ed
Ġpre vents
LA ST
åĲ į
col One
Ġgrad uating
transl ated
ĠO B
ĠIn stitution
Ġfurn iture
> ?
Trans late
min i
g lass
g ames
Ġmort ality
ju ana
ĠB ent
Ġpoll ing
n ell
ĠM ig
s af
ur ated
Ġastr onom
ĠD h
ĠJ ake
ann i
Ġbe ars
ĠMichel le
ĠSh in
W C
Ġg lobe
Assert ion
Ġsummar ized
Ġgu ided
Ġpull ing
Ġfif ty
}. \
ĠGab riel
e o
Ġencour aging
ĠTib et
} ):
so ftware
ĠMar shal
Ġext inction
Ġmet aph
ĠEx port
Ġmod est
Ġterm inated
Ġret reat
as ive
3333 3333
ĠBudd hist
ĠM ik
Ġinf ected
ĠClar ke
t el
Ġy eah
ĠTom my
] _
2 16
Ġn ons
DE SCRIPT
Ġaut onomous
v id
ex emplar
ĠW ant
M ah
l os
ĠL ooks
Ġbenef icial
with in
Ġexecut ives
ĠS PE
d ictionary
Ġ' ');
Ex plicit
rott le
pr ising
Ġunder go
Par allel
S ING
comple tion
ĠE R
idd ing
Ġbar riers
Ġtour ists
x si
G s
= {\
Ġmot iv
h orn
in tr
Ġp d
Ex per
Ġgu ards
ĠP I
Ġp ocket
30 8
') \
ĠVen ice
ĠAbb ey
S ales
key frames
sub float
ĠL ayer
S ibling
: ]
illa ume
O l
V ED
Ġm eter
il io
Ġcru ise
ĠInitial izes
end ent
Ġevolution ary
P V
ĠShang hai
V an
Ġsculpt ure
Ge org
{ [
Ġgrad es
Ġmart ial
E th
z es
EX TERN
Ġsh ower
alloc ate
AUT O
CHAN NEL
m ud
ĠTh ir
/* .
Ġoverwhel ming
ĠD istribution
++ ]
ĠMont gomery
ĠC IA
ĠM M
ĠP att
Ġview er
Ġcur ious
Ġindic ation
hard ware
; :
L os
Ġd ock
Ġpro jections
M ic
' }$
x hr
Ġb ones
Ġterr ain
pat ient
L it
ĠHit ler
ĠG OP
ĠHe aven
ĠYO U
Ġformal ism
Ġ Ñĥ
ĠW A
ĠE ight
Inf os
P referred
g lyph
Th ough
Ġfix es
u ario
ong s
Ġcurrent s
Ġmer c
sql ite
(" {
Ġexplo it
Ġto mb
H op
n othing
le et
Ġelect romagnetic
Ġprop ri
Ġbackground s
erg us
ina e
er i
Ġcontrib utor
Ġdwar f
li ps
Object Type
com puter
Ġ{} ",
Car A
ĠLe eds
Ġdepart Speed
Ġcompos itions
ĠCl iff
ĠFlore nce
ĠA CT
ĠW or
Ġemp ire
Ġloc ate
Ġrg b
BY TE
emph is
Ġexhib ited
T reat
ĠOr d
Ġinv ocation
LO T
ĠDes ert
Num bers
Ġa thlete
ĠUp dates
B uck
M gr
ar u
ĠG EN
}} }{
C urrency
G it
Ġintr ig
ic ion
Ġweak ness
Ġre cept
22 1
Serial ized
ĠA zerbai
ĠH av
32 1
Ġjournal ism
Ġbi ography
Ġ( ).
elect ron
ãĤ ¤
Ġrenown ed
or ic
itor ial
Ġcour tesy
U ng
ĠS leep
In herited
/ ',
sh rink
Ġdiscipl ine
Ġnom inal
ens ation
Ġrot ating
Ġun icode
bl ur
ĠSecond ary
Ġdescend ants
Ġa xi
ĠPhilosoph y
P ot
er ase
at em
Ġsum s
un ted
æ³ ķ
out line
illi an
}\ }$
Ġar rows
ital ic
azel cast
C as
Ġf printf
ĠD yn
Ġobserv ables
ĠC off
ĠCol in
Ġrun ners
ĠProp Types
g overnment
Ð¾ Ð½
Ġhistor ically
Tr ust
Byte Buffer
Ġlo ans
pre ced
Character Offset
Col lege
f h
g old
mar shall
Ġderiv ation
Ġrac ist
åı ¯
un wrap
ĠV ER
Ġsettlement s
Ñ į
Album s
ĠPref ecture
r hs
Ġc ig
Ġs ne
stream s
D U
Tool tip
Ġn inth
Ġtrav elling
c ms
Fr ance
icy cle
Ġfif teen
clean up
Bound ing
ĠF oo
Ġabort ion
æĪ Ĳ
Ġback wards
Enc ryption
Ġt ired
ĠC es
Ġbe aring
aw i
default Value
DA O
ex change
iev es
RA P
Ġâ Ķ
Ġexc av
Ġlect ure
j vm
Ġn est
18 67
Ã© d
IST S
ĠC rit
Key Value
is ure
Ġ' ;
Ġsw ift
ask at
thumb nail
he y
Ġal umin
Ġab oard
ĠChel sea
}^ +
dir ty
Ġresource GroupName
acc um
any on
w ent
ĠM umbai
Ġget Name
18 77
Instance State
Ġresearch er
Ġdirect ories
ĠPack ages
D ash
="# !"
ACT IVE
consc ious
C ong
IN CLUDE
Ġclip board
w r
ĠAnd r
jet brains
}; \
ĠMet adata
18 1
Rec on
st arter
Ġex iting
Ġz eros
ĠBulg aria
Ġunn ecessary
ref s
ĠThrow able
ĠPUR POSE
Sc anner
ĠLore ntz
ĠMan ufact
âĢ¦ âĢĿ
Real m
id le
K O
Ġ ------------------------------------------------
Ġr t
ĠPo etry
Ġc ere
ĠBry an
ĠK or
ĠSpec ifies
ĠĠĠĠĠĠĠĠĠĠĠĠĠĠĠĠ ĠĠĠĠĠĠĠĠĊ
He art
Ġk ills
Ġim perial
Ġb ail
ĠN umer
Ġdo zens
sm ith
Ġpar ity
Ġhar sh
ell ites
term inal
Ġneglig ible
ou x
à ´
ĠIraq i
dec om
PO M
2 14
t ro
os i
Ġre nov
ĠH app
Ġviol ations
ĠF ashion
^{ [
é ¢
ch itz
Ġcre ature
y u
ĠG E
ĠE ither
ĠA ur
av in
PRO G
Ġinaug ural
Ġin equalities
S omething
ĠM UST
18 9
ah u
Ġnow rap
Ġoffset s
bul k
G reg
m igration
ĠF act
ĠS oci
Ġl on
um ph
Al umni
Ġmanip ulation
Ġaccommod ation
st re
Inter pol
ĠR ams
lo y
dec imal
v ance
ç §
igr ant
Ġqu ota
Ġodd s
Ġreport ers
ĠHy per
Log ic
Ġd os
be zier
ĠW I
Q uality
h appy
Ġre called
ĠS ources
Ø ²
ĠH ousing
Ġadvert is
ĠPalest ine
Ġ\ }$
CT RL
alyt ic
sp lice
Ġtr act
Tree Node
ĠCong o
user content
M ex
man uel
Ġor chestr
Ï Į
Ġt iles
Ġst om
ĠSerb ian
Ġreli ability
f u
ĠBroadcast ing
Ġcounter part
ĠE uler
ĠTh ai
ĠG az
Ġancest or
Ġfin itely
n ational
M Y
struct ures
ĠBro s
) `
ow ing
è¡ ¨
al in
Ġsome body
~~ ~
ĠF IT
Ġenjoy ing
output s
ic ast
ĠCh an
**************** ********
h im
QU ERY
Cla im
P IN
Ġtable t
Ġconstruct ing
des ktop
bootstrap cdn
ĠR ice
Exception s
ĠHer bert
Ġtact ics
Ġle ver
Gr ant
ro e
Ġmod ular
Prof essional
# .
ĠO thers
ĠDise ase
L int
get Resource
EM ENT
Ġpal ace
Ġfor wards
ĠG W
16 3
cal culate
Ġconst expr
Ġgovern ance
Å ¼
ĠD ame
EN SION
function al
Ġdiscuss es
(' -
Ġb ell
sub division
Ġpsych ology
Ġasympt ot
Ġdiv orce
Ġhe aling
18 72
Ġst mt
up pet
Ġsh ard
18 40
Ġen rolled
pe x
dis c
h ort
ĠH ur
Ġfoss il
P RI
ĠC ool
ĠK re
DA Y
æ ģ
Ġ× Ķ
p q
S leep
Ġs cheduling
ens ely
ĠNetwork s
R oad
ist ro
B razil
Ġt ier
}= (
ĠC oul
Ġcomput ations
23 7
ct uary
Out come
Ġment ions
rele ases
/ ,
al is
FORE ACH
> ".
Ġtest imony
ĠSl oven
Ġ= &
Gener ation
set Name
ĠSc ore
eck o
ĠUn known
Ġpr ide
m and
st ellar
Un icode
ĠR I
get Node
Ġdef inite
http Request
it ary
18 6
ey l
Ġregular ization
Ġor n
habilit ation
ject ed
eres a
Ġ' *
Tr ansp
exec utor
Mod ern
ĠSche dule
CUR RENT
ch air
Con current
ĠSw an
Ġsm oking
E t
alth ough
Ġsl ider
Ġreal ization
ĠPy Object
Ġl ag
Ġmod elling
ĠRod rig
ul ers
ĠPass word
Ġcha os
18 59
ch anging
Ġpair ing
Ġkid n
ĠInd ividual
H ierarchy
g id
imit ives
Ġjoint ly
ĠPeters burg
mock ito
ress es
ĠIniti ative
ĠMc Donald
SPH INX
ec a
Ġsmart phone
ĠLIMIT ED
18 3
quant um
assert That
Extract or
ĠDev on
i ago
con cept
Gu est
Ġ\ :
Ġper f
Ġprof its
iz ational
Ġhand ful
WE B
hem atic
M ATCH
Un ary
Play ing
Ġ" ../
err no
ycl er
Ġanticip ated
aut om
Ġque en
cipl inary
)) $.
ro ut
Ġstr len
omb re
itt ers
ud ed
Ġbreed ing
ĠS ure
Value Type
root Scope
Ġw are
ra ises
Ġcoordin ator
i our
eg an
}, {\
- )
Ġachiev ements
A ust
ĠT EXT
Ġl ane
ĠV R
ãĥ ĥ
st ed
Ġview port
[ @
¼ </
Ġke en
M oney
f lip
18 74
Ġnerv ous
R ing
av our
), (
R h
d oxygen
Requ irement
Ġsurviv ors
j en
ĠW o
Ġli ability
Ġnetwork ing
ĠCy ber
Ġillustr ation
Ġlat ency
ys ide
AD O
bor o
Ġp ng
ĠFour th
ra pe
r ice
18 73
Ġ? ?
\ }}
30 5
ĠðŁĳ ¼</
pres erve
proport ion
ĠUg anda
l w
names e
\ ",
ĠV ec
ĠJul ia
å¯ ¹
Ġ icons
ĠB in
Ġs printf
Ġblock chain
ĠRoman ian
ĠR af
ĠHis panic
Ġdef ender
er sey
ĠShe ll
Ġadministr ator
ore l
}| ^
Ġspread ing
ĠIs aac
ap id
Ġend orse
hel m
l azy
ĠS ultan
Ġann ih
D ump
St ock
cell color
ĠHe ights
ĠĠĠĠĠĠĠĠĠĠĠĠĠĠĠĠĠĠĠĠĠĠĠĠĠĠĠĠĠĠĠĠ ĠĠĠĠĠĠĠĠĠĠĠĠĠĠĠĠĠ
ĠPart icip
Ġconver ge
ĠBen nett
ĠHar old
ov iÄĩ
H AS
Ġco res
ĠDo ctrine
Ġd c
66 6
ĠK umar
Dev ices
18 69
ĠIn cre
Ġintegr als
n or
Ġst ays
Sec ure
ĠS UB
av o
ĠJ in
ĠHer z
>. <
S IG
St eve
model Version
Lear n
Ġwis dom
ats u
SY STEM
c ern
str action
Ġcalcul ating
Ġvacc ine
J eff
L es
Ġwhere in
Single ton
d istrict
Ġ" @
Ġprodu ctions
Ġneg lect
put es
ol in
+- +-
Ġdis cret
ĠOper ator
18 66
rend ering
d ismiss
Ġspect acular
Spec ification
Ġf ool
Ġover lay
F ood
D Y
ĠRetriev ed
ĠW ag
ĠSt and
30 6
found er
Ġrac ism
Ġpra ise
Ġo prot
ĠPer form
ãĢĤ </
C ES
Ġc pu
Ġwork shops
Ġed u
Ġg aining
Data Set
ĠSur v
INST ALL
ess el
ard i
Ġbr acket
ĠMil waukee
ĠR ate
Ġir regular
Hy per
ĠPr ison
I SS
ĠMe V
Ġappar atus
Ġrefer endum
c rypt
æ µ
ĠY uk
ĠKnow ledge
it ars
CLA RE
r df
the se
Ġart illery
CONTRO L
al ic
Ġk g
Ġb link
Ġsl avery
26 5
ycl ing
Doc uments
ĠP ul
Ġ} $
Ġrol led
Ġb esides
Ġinject ed
] ])
Ġthr one
Bind ings
8 000
CCCC FF
ak t
rog ate
Ġs f
CHAN GE
ĠR ET
Ġassert False
Ġindiv idually
H ung
G erm
ĠIn tern
Ġline up
ĠOpen SSL
dig it
[...]
