{"[UNK]":0,"!":1,"\"":2,"#":3,"$":4,"%":5,"&":6,"'":7,"(":8,")":9,"*":10,"+":11,",":12,"-":13,".":14,"/":15,"0":16,"1":17,"2":18,"3":19,"4":20,"5":21,"6":22,"7":23,"8":24,"9":25,":":26,";":27,"<":28,"=":29,">":30,"?":31,"@":32,"A":33,"B":34,"C":35,"D":36,"E":37,"F":38,"G":39,"H":40,"I":41,"J":42,"K":43,"L":44,"M":45,"N":46,"O":47,"P":48,"Q":49,"R":50,"S":51,"T":52,"U":53,"V":54,"W":55,"X":56,"Y":57,"Z":58,"[":59,"\\":60,"]":61,"^":62,"_":63,"`":64,"a":65,"b":66,"c":67,"d":68,"e":69,"f":70,"g":71,"h":72,"i":73,"j":74,"k":75,"l":76,"m":77,"n":78,"o":79,"p":80,"q":81,"r":82,"s":83,"t":84,"u":85,"v":86,"w":87,"x":88,"y":89,"z":90,"{":91,"|":92,"}":93,"~":94,"¡":95,"¢":96,"£":97,"¤":98,"¥":99,"¦":100,"§":101,"¨":102,"©":103,"ª":104,"«":105,"¬":106,"®":107,"¯":108,"°":109,"±":110,"²":111,"³":112,"´":113,"µ":114,"¶":115,"·":116,"¸":117,"¹":118,"º":119,"»":120,"¼":121,"½":122,"¾":123,"¿":124,"Â":125,"Ã":126,"Ä":127,"Å":128,"Æ":129,"Ç":130,"È":131,"É":132,"Ê":133,"Ë":134,"Ì":135,"Í":136,"Î":137,"Ï":138,"Ð":139,"Ñ":140,"Ò":141,"Ó":142,"Ô":143,"Õ":144,"Ö":145,"×":146,"Ø":147,"Ù":148,"Ú":149,"Û":150,"Ü":151,"Ý":152,"Þ":153,"ß":154,"à":155,"á":156,"â":157,"ã":158,"ä":159,"å":160,"æ":161,"ç":162,"è":163,"é":164,"ê":165,"ë":166,"ì":167,"í":168,"î":169,"ï":170,"ð":171,"ò":172,"ó":173,"ô":174,"Ā":175,"ā":176,"Ă":177,"ă":178,"Ą":179,"ą":180,"Ć":181,"ć":182,"Ĉ":183,"ĉ":184,"Ċ":185,"ċ":186,"Č":187,"č":188,"Ď":189,"ď":190,"Đ":191,"đ":192,"Ē":193,"ē":194,"Ĕ":195,"ĕ":196,"Ė":197,"ė":198,"Ę":199,"ę":200,"Ě":201,"ě":202,"Ĝ":203,"ĝ":204,"Ğ":205,"ğ":206,"Ġ":207,"ġ":208,"Ģ":209,"ģ":210,"Ĥ":211,"ĥ":212,"Ħ":213,"ħ":214,"Ĩ":215,"ĩ":216,"Ī":217,"ī":218,"Ĭ":219,"ĭ":220,"Į":221,"į":222,"İ":223,"ı":224,"Ĳ":225,"ĳ":226,"Ĵ":227,"ĵ":228,"Ķ":229,"ķ":230,"ĸ":231,"Ĺ":232,"ĺ":233,"Ļ":234,"ļ":235,"Ľ":236,"ľ":237,"Ŀ":238,"ŀ":239,"Ł":240,"ł":241,"Ń":242,"ĠĠ":243,"ĠĠĠĠ":244,"Ġt":245,"in":246,"er":247,"on":248,"Ġa":249,"he":250,"re":251,"at":252,"en":253,"or":254,"st":255,"Ġthe":256,"al":257,"an":258,"ĠĠĠ":259,"it":260,"Ġc":261,"ar":262,"ĠĠĠĠĠĠĠĠ":263,"le":264,"ion":265,"Ġs":266,"Ġo":267,"is":268,"es":269,"ed":270,"Ġf":271,"Ġw":272,"ing":273,"Ġp":274,"ic":275,"ro":276,"Ġb":277,"nd":278,"Ġin":279,"as":280,"et":281,"Ġof":282,"ct":283,"ou":284,"Ġd":285,"Ġm":286,"ent":287,"el":288,"am":289,"Ġand":290,"Ġto":291,"Ġh":292,"ĠĠĠĠĠĠĠ":293,"il":294,"om":295,"Ġre":296,"Ġn":297,"id":298,"Ġth":299,"ig":300,"Ġ(":301,"ac":302,"ol":303,"ation":304,"ĠS":305,"im":306,"Ġ=":307,"ur":308,"ut":309,"ot":310,"ĉĉ":311,"ĠT":312,"Ġe":313,"</":314,"Ġl":315,"se":316,"ad":317,"iv":318,"ĠC":319,"ĠA":320,"=\"":321,"od":322,"ce":323,"ag":324,");":325,"Ġ$":326,"ul":327,"Ġ\\":328,"if":329,"Ġis":330,"--":331,"th":332,"Ġ{":333,"Ġg":334,"Ġ<":335,"un":336,"ay":337,"ow":338,"em":339,"ch":340,"ĠI":341,"Ġfor":342,"Ġv":343,"ab":344,"pe":345,"ĠM":346,"um":347,"us":348,"Ġst":349,"ate":350,"čĊ":351,"âĢ":352,"ers":353,"ĠĠĠĠĠĠĠĠĠĠĠ":354,"ly":355,"qu":356,"ap":357,"Ġon":358,"//":359,"tr":360,"ist":361,"ass":362,"Ġbe":363,"ĠP":364,"ith":365,"oc":366,"ex":367,"ir":368,"Ġ*":369,"ht":370,"ĠB":371,"ter":372,"Ġcon":373,"ction":374,"av":375,"ame":376,"pt":377,"est":378,"ver":379,"end":380,"ĠR":381,"20":382,"Ġ}":383,"Ġas":384,"ew":385,"and":386,"\">":387,"ĠD":388,"Ġthat":389,"Ġ\"":390,"ub":391,"res":392,"ĠH":393,"ĠF":394,"up":395,"Ġwith":396,"lass":397,"ue":398,"ess":399,"ĠL":400,"ri":401,"ef":402,"ort":403,"age":404,"our":405,"Ġal":406,"op":407,"ĠN":408,"ĠĠĠĠĠĠĠĠĠĠĠĠĠĠĠĠ":409,"ain":410,"Ġan":411,"Ġpro":412,"Ġwh":413,"os":414,"ĠW":415,"ĠĠĠĠĠ":416,"ĠG":417,"ect":418,"li":419,"ath":420,"ĠE":421,"()":422,"ĠThe":423,"rom":424,"ity":425,"Ġit":426,"ine":427,"art":428,"urn":429,"ore":430,"_{":431,"nt":432,"Ġex":433,"**":434,"..":435,"Ġby":436,"Ġr":437,"sp":438,"ere":439,"Ġcom":440,"ke":441,"ment":442,"ight":443,"19":444,"Ġwas":445,"ec":446,"og":447,"Ġat":448,"ext":449,"ack":450,"Ġy":451,"iz":452,"able":453,"Ġor":454,"eg":455,"Ġthis":456,"pl":457,"Ġclass":458,"all":459,"ure":460,"ult":461,"ĠO":462,"ype":463,"port":464,"----":465,"turn":466,"Ġ&":467,"ill":468,"==":469,"ial":470,"ies":471,"ile":472,"ive":473,"Ġare":474,"per":475,"ref":476,"ans":477,"Ġif":478,"Ġ'":479,"ant":480,"ang":481,"Ġfrom":482,"ld":483,"get":484,"ode":485,"ĠJ":486,"ud":487,"Ġtr":488,"con":489,"00":490,"str":491,"ep":492,"orm":493,"int":494,"Ġhe":495,"ber":496,"act":497,"ast":498,"ĠĠĠĠĠĠĠĠĠĠĠĠĠĠĠ":499,"âĢĻ":500,"{\\":501,"ĠĊ":502,"ind":503,"Ġwe":504,"Ġ-":505,"ary":506,"lic":507,"In":508,"ĠU":509,"und":510,"ase":511,"Ġch":512,"ov":513,"ption":514,"ff":515,"ata":516,"are":517,"ard":518,"ev":519,"Ġnot":520,"com":521,"ip":522,"Ġle":523,"ated":524,"ite":525,"ib":526,"ace":527,"Ġsh":528,"ord":529,"Ġ$\\":530,"out":531,"ug":532,"ire":533,"Ġ//":534,"ave":535,"ign":536,"pro":537,"ell":538,"Ġreturn":539,"ak":540,"'s":541,"ost":542,"to":543,"ject":544,"The":545,"alue":546,"::":547,"ĉĉĉĉ":548,"ition":549,"Ġ</":550,"->":551,"Ġse":552,"ime":553,"ph":554,"ser":555,"math":556,"../":557,"ust":558,"201":559,"),":560,"ich":561,"ide":562,"ple":563,"cl":564,"ice":565,"ĠâĢ":566,"ĠK":567,"ong":568,"ia":569,"ma":570,"ource":571,"text":572,").":573,"ild":574,"Ġ[":575,"ge":576,"unction":577,"Con":578,"ublic":579,"ok":580,"ical":581,"ork":582,"ft":583,"Ġus":584,"Ġj":585,"ĠIn":586,"Ġpl":587,"ĠV":588,"Ġnew":589,"Ġ@":590,"cc":591,"lo":592,"ens":593,"aram":594,"\",":595,"form":596,"ance":597,"loc":598,"ence":599,"St":600,"dd":601,"Ġ+":602,"cri":603,"ory":604,"ss":605,"Ġcan":606,"ould":607,"row":608,"elf":609,"ml":610,"Ġres":611,"Ġhave":612,"}\\":613,"(\"":614,"div":615,"one":616,"put":617,"ear":618,"Ġk":619,"ations":620,"set":621,"Ġar":622,"Ġ/":623,"ra":624,"ull":625,"();":626,"essage":627,"ĠTh":628,"ress":629,"ĠSt":630,"Ġun":631,"}$":632,"du":633,"span":634,"use":635,"^{":636,"ize":637,"></":638,"Ġim":639,"Ġall":640,"Ġ|":641,"Ġhas":642,"enc":643,"ach":644,"ther":645,"so":646,"Ġyou":647,"Ġwhich":648,"Ġab":649,"Ex":650,"Ġap":651,"',":652,"hen":653,"ener":654,"><":655,"fr":656,"tring":657,"--------":658,"fig":659,"equ":660,"cal":661,"ents":662,"ink":663,"Ġstr":664,"ian":665,"ll":666,"Ġcont":667,"ous":668,"own":669,"ail":670,"Ġhis":671,"iel":672,"err":673,"sh":674,"../../":675,"ount":676,"iew":677,"10":678,"ob":679,"Ġ.":680,"eth":681,"Ġname":682,"ield":683,"ele":684,"Ġdef":685,"ĠCh":686,"}}":687,"Ġ*/":688,"che":689,"Ġfunction":690,"200":691,"te":692,"Ġpublic":693,"ĉĉĉ":694,"ree":695,"ound":696,"ond":697,"ps":698,"irst":699,"****":700,"ish":701,"Ġ:":702,"ray":703,"ome":704,"ual":705,"Ġout":706,"over":707,"erv":708,"====":709,"inal":710,"(\\":711,"ark":712,"ta":713,"Ġdo":714,"ator":715,"html":716,"Ġbut":717,"Ġint":718,"eb":719,"Ġpr":720,"tern":721,"Ġwill":722,"abel":723,"erm":724,"Ġcomp":725,"name":726,"Ġhref":727,"ck":728,"clud":729,"les":730,"ĠĠĠĠĠĠĠĠĠĠĠĠĠĠĠĠĠĠĠ":731,"fer":732,"('":733,"Ġset":734,"ĠĠĠĠĠĠĠĠĠ":735,"egin":736,"oll":737,"))":738,"ry":739,"Pro":740,"Ġget":741,"pr":742,"Ġup":743,"old":744,"ne":745,"Ġone":746,"ER":747,"oid":748,"yst":749,"this":750,"begin":751,"odel":752,"ict":753,"ty":754,"source":755,"Ġdis":756,"Ġvar":757,"ool":758,"ook":759,"Ġro":760,"ery":761,"},":762,"roup":763,"Name":764,"message":765,"ates":766,"oth":767,"Ġob":768,"Ġev":769,"ert":770,"ions":771,"led":772,"mer":773,"pect":774,"right":775,"Ġ#":776,"oint":777,"Ġalso":778,"ix":779,"Ġme":780,"18":781,"Ġpart":782,"Ġwere":783,"ON":784,"rap":785,"ings":786,"trans":787,"Ġqu":788,"pec":789,"eng":790,"rit":791,"ose":792,"Ġ_":793,"lation":794,"ĠY":795,"key":796,"Ġsu":797,"sum":798,"Type":799,"ystem":800,"Ġtype":801,"##":802,"Ġtheir":803,"import":804,"td":805,"IN":806,"_{\\":807,"param":808,"io":809,"cre":810,"ely":811,"Ġ=>":812,"wo":813,"ax":814,"ics":815,"ake":816,"Id":817,"alse":818,")$":819,"ors":820,"âĢĿ":821,"String":822,"line":823,"atch":824,"Ġsp":825,"app":826,"12":827,"Ġvalue":828,"col":829,"atic":830,"Ġpre":831,"aw":832,"umber":833,"lect":834,"return":835,"cript":836,"arg":837,"}{":838,"ick":839,"/>":840,"ng":841,"code":842,"Ġmore":843,"the":844,"Ġthey":845,"Ġper":846,"hed":847,"ater":848,"ames":849,"Ġman":850,"fo":851,"Ġso":852,"ethod":853,"Ġits":854,"Ġover":855,"we":856,"uct":857,"lock":858,"fter":859,"iss":860,"Ġdata":861,"ont":862,"Ġfirst":863,"ĠIt":864,"Th":865,"RE":866,"Ġline":867,"Ġag":868,"ĠUn":869,"uild":870,"eq":871,"Ġtime":872,"://":873,"label":874,"ove":875,"igh":876,"ange":877,"Ġwho":878,"\"/>":879,"def":880,"eta":881,"Ġdes":882,"Com":883,"Ġcl":884,"frac":885,"Ġself":886,"mb":887,"ve":888,"pos":889,"Ġne":890,"ock":891,"Ġwhen":892,"Ġother":893,"Ġwork":894,"Ġ!":895,"ie":896,"urre":897,"Ġhad":898,"translation":899,"class":900,"add":901,"Ġde":902,"ys":903,"Ġinter":904,"Res":905,"Ġher":906,"Ġadd":907,"pon":908,"Ġi":909,"Ġ||":910,"ST":911,"ann":912,"Ġcol":913,"Ġel":914,"ton":915,"round":916,"Ġconst":917,"Ġbeen":918,"ute":919,"ault":920,"Ġid":921,"type":922,"Ġgo":923,"ĠHe":924,"List":925,"ific":926,"ox":927,"ception":928,"__":929,"left":930,"rm":931,"16":932,"var":933,"of":934,"Ġend":935,"ms":936,"ays":937,"ative":938,"Ch":939,"Ġtwo":940,"tt":941,"AT":942,"Ġen":943,"Ġany":944,"Ġresult":945,"yn":946,"Ġund":947,"ember":948,"Ġsup":949,"als":950,"arch":951,"ĠâĢĵ":952,"Ġad":953,"anc":954,"cent":955,"ational":956,"Ġ==":957,"raph":958,"Ġcomm":959,"ular":960,"mathb":961,"ues":962,"lement":963,"htt":964,"itle":965,"idth":966,"Ġabout":967,"Ġrequ":968,"ache":969,"Ġli":970,"Ġnull":971,"oun":972,"ĠThis":973,"gr":974,"Ġyear":975,"ution":976,"11":977,"tain":978,"Ġonly":979,"amp":980,"Ġinto":981,"ied":982,"Ġsub":983,"ash":984,"co":985,"ise":986,"ersion":987,"read":988,"ĠâĢľ":989,"son":990,"ade":991,"ead":992,"\"><":993,"Ġ`":994,"vent":995,"cite":996,"Ġthere":997,"oug":998,"Ġplay":999,"OR":1000,"Ġ>":1001,"cess":1002,"Ġreg":1003,"Ġvoid":1004,"Ġoff":1005,"ample":1006,"val":1007,"ating":1008,"Ġcre":1009,"$.":1010,"15":1011,"ollow":1012,"urrent":1013,"Ġthan":1014,"ons":1015,"trib":1016,"Ġno":1017,"Ar":1018,"):":1019,"$,":1020,"Ġte":1021,"ased":1022,"Ġbet":1023,"min":1024,"ivate":1025,"LE":1026,"Ġpe":1027,"ĠCom":1028,"ople":1029,"mathcal":1030,"ious":1031,"Ġacc":1032,"})":1033,"Ġsome":1034,"ument":1035,"sub":1036,"ask":1037,"irect":1038,",\\":1039,"Ġuse":1040,"Ġfalse":1041,"Ġpos":1042,"Ġwould":1043,"));":1044,"bar":1045,"ĠĠĠĠĠĠĠĠĠĠĠĠĠ":1046,"yle":1047,"Ġinclud":1048,"AR":1049,"Ġact":1050,"imes":1051,"}.":1052,"Ġwhere":1053,"ID":1054,"Ġind":1055,"amb":1056,"uth":1057,"Ġkn":1058,"back":1059,"Ġtrue":1060,"ĠĠĠĠĠĠĠĠĠĠĠĠĠĠĠĠĠĠĠĠĠĠĠ":1061,"Ġtrans":1062,"string":1063,"its":1064,"rr":1065,"org":1066,"der":1067,"ptions":1068,"ning":1069,"199":1070,"Ġour":1071,"work":1072,"self":1073,"Ġform":1074,"Ġerr":1075,"ĠPro":1076,"Tr":1077,"âĢĵ":1078,"ited":1079,"ts":1080,"\");":1081,"Ġinst":1082,"bject":1083,"ined":1084,"resent":1085,"plic":1086,"Ġloc":1087,"Ġval":1088,"ider":1089,"ee":1090,"ĠAr":1091,"ement":1092,"----------------":1093,"ward":1094,"Ġsc":1095,"ner":1096,"land":1097,"Ġdif":1098,"sert":1099,"oy":1100,"Ġunder":1101,"ble":1102,"Ġthen":1103,"ey":1104,"ule":1105,"ible":1106,"ugh":1107,"Ġop":1108,"Ġspec":1109,"Ġrel":1110,"ength":1111,"olog":1112,"ern":1113,"ility":1114,"ature":1115,"ole":1116,"equation":1117,"Ġ--":1118,"item":1119,"Ġorg":1120,"log":1121,"EN":1122,"Ġback":1123,"Ġshe":1124,"ally":1125,"ages":1126,"Ġdec":1127,"Ġfollow":1128,"lection":1129,"tem":1130,"25":1131,"data":1132,"file":1133,"13":1134,"ower":1135,"ities":1136,"perty":1137,"action":1138,"ures":1139,"Ġx":1140,"Ġafter":1141,"********":1142,"ished":1143,"Ġ)":1144,"Ġused":1145,"Ġelse":1146,"ava":1147,"Ġtest":1148,"17":1149,"14":1150,"pre":1151,"Data":1152,"AL":1153,"Value":1154,"Ġrec":1155,"ĠNew":1156,"Ġfil":1157,"oot":1158,"Ġyour":1159,"To":1160,"Ġcase":1161,"ences":1162,"ank":1163,"}(":1164,"Ġco":1165,"Ġrem":1166,"Ġprov":1167,"pha":1168,"SS":1169,"ices":1170,"serv":1171,"Ref":1172,"Ġsec":1173,"Ġfe":1174,"Col":1175,"ivers":1176,"ince":1177,"...":1178,"////":1179,"ĠĠĠĠĠĠ":1180,"value":1181,"Ġsuch":1182,"}_":1183,"arget":1184,"da":1185,"ody":1186,"Ġsa":1187,"ca":1188,"Ġgener":1189,"ier":1190,"orld":1191,"ervice":1192,"Ġmay":1193,"ternal":1194,"ĠĠĠĠĠĠĠĠĠĠĠĠĠĠĠĠĠĠĠĠĠĠĠĠĠĠĠĠĠĠĠĠ":1195,"uff":1196,"ween":1197,"Ġthem":1198,"lient":1199,"view":1200,"Ġent":1201,"air":1202,"Ġdist":1203,"Ġph":1204,"Ġshow":1205,"Ġchar":1206,"ww":1207,"Ġfinal":1208,"\")":1209,"~\\":1210,"}^":1211,"fl":1212,"Ġ/**":1213,"not":1214,"ced":1215,"evel":1216,"Set":1217,"ists":1218,"location":1219,"ĠCon":1220,"nb":1221,"ting":1222,"rough":1223,"Ġfl":1224,"uring":1225,"Ġcons":1226,"ream":1227,"Ġnumber":1228,"Ġstring":1229,"ĠSh":1230,"Ġmodel":1231,"date":1232,"meric":1233,"ments":1234,"hat":1235,"ĠWe":1236,"alpha":1237,"ĠTr":1238,"br":1239,"ized":1240,"ĠAl":1241,"new":1242,"ient":1243,"ins":1244,"ars":1245,"epend":1246,"ily":1247,"eter":1248,"32":1249,"Ġpol":1250,"press":1251,"cont":1252,"Exception":1253,"for":1254,"30":1255,"Ġpeople":1256,"red":1257,"($":1258,"ĠQ":1259,"Ġsim":1260,"be":1261,"Err":1262,"px":1263,"========":1264,"En":1265,"yp":1266,"Ġfile":1267,"ru":1268,"man":1269,"ines":1270,"wn":1271,"Ġbetween":1272,"']":1273,"ader":1274,"Ġ&&":1275,"pp":1276,"mary":1277,"umn":1278,"ĠAn":1279,"ho":1280,"Ġ///":1281,"ren":1282,"Ġcor":1283,"roid":1284,"')":1285,"atus":1286,"Ġlike":1287,"nbsp":1288,"ision":1289,"Ġac":1290,"test":1291,"Ġprodu":1292,"vel":1293,"elta":1294,"ough":1295,"Ġdiffer":1296,"ĠAs":1297,"Object":1298,"Ġstatic":1299,"Ġgr":1300,"any":1301,"Ġlist":1302,"rol":1303,"Ġmost":1304,"Ġinv":1305,"play":1306,"Ġhigh":1307,"arent":1308,"Ġam":1309,"ired":1310,"ets":1311,"ted":1312,"Ġthese":1313,"CT":1314,"ĠString":1315,"DE":1316,"ym":1317,"Test":1318,"ger":1319,"Ġstart":1320,"100":1321,"sc":1322,"ambda":1323,"ccess":1324,"Ġsystem":1325,"AN":1326,"az":1327,"Ġstud":1328,"];":1329,"Ġpoint":1330,"Ġthrough":1331,"size":1332,"SE":1333,"IT":1334,"Ġ%":1335,"Ġgiv":1336,"Ġeach":1337,"ĠEx":1338,"().":1339,"heck":1340,"struct":1341,"face":1342,"ason":1343,"Ġprivate":1344,"Ġ!=":1345,"orn":1346,"wh":1347,"script":1348,"Ġjust":1349,"Ġdet":1350,"Ġmy":1351,"pi":1352,"Ġshould":1353,"Un":1354,"rc":1355,")\\":1356,"Ġser":1357,"ever":1358,"Ġever":1359,"Cont":1360,"Ġhow":1361,"Ġmethod":1362,"ote":1363,"mall":1364,"'t":1365,"oci":1366,"iver":1367,"by":1368,"Ġneed":1369,"mod":1370,"Ġmod":1371,"Ġobject":1372,"Ġoper":1373,"Error":1374,"ĠFor":1375,"());":1376,"Ġhim":1377,"Ġcal":1378,"other":1379,"requ":1380,"Get":1381,"By":1382,"me":1383,"Ġwhat":1384,"ĉĉĉĉĉ":1385,"Ġsign":1386,"chool":1387,"ĠZ":1388,"ify":1389,"link":1390,"apt":1391,"roll":1392,"50":1393,"ots":1394,"reat":1395,"Ġapp":1396,"ric":1397,"\"></":1398,"ah":1399,"ces":1400,"ization":1401,"ik":1402,"Ġass":1403,"Ġfield":1404,"Ġed":1405,"order":1406,"198":1407,"Ġext":1408,"section":1409,"Ġkey":1410,"let":1411,"ME":1412,"Ġequ":1413,"22":1414,"Ġmin":1415,"Ġwell":1416,"Ġeff":1417,"Ġusing":1418,"._":1419,"Ġsaid":1420,"ler":1421,"Ġdr":1422,"fore":1423,"nav":1424,"Ind":1425,"amma":1426,"public":1427,"ĠĠĠĠĊ":1428,"=\\":1429,"Ġagain":1430,"Im":1431,"lang":1432,"Ġparam":1433,"As":1434,"ife":1435,"ouse":1436,"View":1437,"width":1438,"Ġlong":1439,"list":1440,"ense":1441,"Ġgroup":1442,"par":1443,"evelop":1444,"ful":1445,"\";":1446,"Class":1447,"til":1448,"Ġstate":1449,"Ġem":1450,"ott":1451,"uss":1452,"function":1453,"ĠX":1454,"CO":1455,".</":1456,"['":1457,"$\\":1458,"Ġfound":1459,"mu":1460,"js":1461,"cept":1462,"formation":1463,"ident":1464,"http":1465,"Ġbr":1466,"array":1467,"_\\":1468,"ified":1469,"ĠAmeric":1470,"indow":1471,"erson":1472,"Ġsame":1473,"File":1474,"summary":1475,"Ġrep":1476,"way":1477,"att":1478,"index":1479,"Sh":1480,"oh":1481,"Ġsee":1482,"util":1483,"mathbb":1484,"At":1485,"Ġcall":1486,"inter":1487,"Ġrun":1488,"uch":1489,"align":1490,"pace":1491,"includ":1492,"Ġ\\\\":1493,"}_{":1494,"load":1495,"Ġright":1496,"ency":1497,"ager":1498,"reg":1499,"Requ":1500,"ism":1501,"reak":1502,"24":1503,"Ġwhile":1504,"url":1505,"ĠSe":1506,"Ġsol":1507,"Ġcomple":1508,"time":1509,"top":1510,"ared":1511,"ocument":1512,"}^{":1513,"ale":1514,"Ġyears":1515,"table":1516,"ants":1517,"dis":1518,"Key":1519,"Ġest":1520,"cription":1521,"igma":1522,"For":1523,"go":1524,"cle":1525,"ector":1526,"Ġhand":1527,"lay":1528,"try":1529,"Ġnow":1530,"An":1531,"000":1532,"Ġcould":1533,"iversity":1534,"21":1535,"rite":1536,"');":1537,"Refer":1538,"field":1539,"Ġcurrent":1540,"!--":1541,"raw":1542,"Ġread":1543,"],":1544,"ĠIf":1545,"We":1546,"64":1547,"gy":1548,"Ġcent":1549,"Ġbeing":1550,"Ġfr":1551,"=\"../../":1552,"ega":1553,"Ġbefore":1554,"aj":1555,"-\\":1556,"lob":1557,"her":1558,"ically":1559,"Ġsur":1560,"Ġarg":1561,"(),":1562,"part":1563,"ister":1564,"ush":1565,"ĠInd":1566,"On":1567,"rib":1568,"oad":1569,"Ġdoes":1570,"comm":1571,"Ġsecond":1572,"Ġdifferent":1573,"group":1574,"Ġresp":1575,"ten":1576,"####":1577,"Ġsupport":1578,"ĠCol":1579,"void":1580,"phi":1581,"ground":1582,"Ġtitle":1583,"Ġboth":1584,"uration":1585,"UL":1586,"orth":1587,"ron":1588,"opy":1589,"med":1590,"197":1591,"lp":1592,"ected":1593,"Ġu":1594,"gram":1595,"Ġmake":1596,"path":1597,"Ġdirect":1598,"ession":1599,"que":1600,"RO":1601,"bers":1602,"ackage":1603,"quot":1604,"=\"+":1605,"Ġz":1606,"ponse":1607,"ather":1608,"uffer":1609,"rem":1610,"Ġexpect":1611,"Ġevery":1612,"itial":1613,"].":1614,"^{\\":1615,"etwork":1616,"Ġbo":1617,"Ġnon":1618,"lambda":1619,"bf":1620,"Ġmany":1621,"arn":1622,"Time":1623,"Ġimport":1624,"AC":1625,"Ġart":1626,"ross":1627,"ION":1628,"color":1629,"const":1630,"Ġappro":1631,"lish":1632,"Event":1633,"cause":1634,"ane":1635,"Request":1636,"outh":1637,"user":1638,"Ġgiven":1639,"Ġlast":1640,"':":1641,"ball":1642,"Ġsing":1643,"Ġorder":1644,"day":1645,"Ġatt":1646,"Ġthree":1647,"Ġbel":1648,"Ġbecause":1649,"Ġpass":1650,"dition":1651,"Ġ/>":1652,"mathbf":1653,"Ã©":1654,"Ġbl":1655,"Ġlink":1656,"Ġmon":1657,"Int":1658,"ood":1659,"cd":1660,"Ġsize":1661,"40":1662,"Text":1663,".\"":1664,"Ġbuild":1665,"utton":1666,"Ġperform":1667,"Ġ?":1668,"ains":1669,"PE":1670,"rop":1671,"itor":1672,"ĠIs":1673,"Ġgu":1674,"Ġfollowing":1675,"ases":1676,"ogle":1677,"\\\\":1678,"Element":1679,"Ġmade":1680,"eters":1681,"ology":1682,"Ġprocess":1683,"ĠSc":1684,"ats":1685,"ality":1686,"\":":1687,"Ġpartic":1688,"23":1689,"ential":1690,"Ġmed":1691,"Ġ);":1692,"LA":1693,"ĠFr":1694,"Ġmat":1695,"ury":1696,"ension":1697,"less":1698,"md":1699,"Ġfind":1700,"TE":1701,"bo":1702,"Ġdid":1703,"ĠRes":1704,"Ġwrit":1705,"Ġmem":1706,"/*":1707,"Ġfact":1708,"Ġthrow":1709,"Ġduring":1710,"pert":1711,"Info":1712,"Ġfam":1713,"Ġeven":1714,"Add":1715,"Ġserv":1716,"search":1717,"eps":1718,"This":1719,"Ġknow":1720,"};":1721,"uthor":1722,"Ġassert":1723,"Ġ{\\":1724,"Man":1725,"Ġerror":1726,"https":1727,"Node":1728,"Index":1729,"IC":1730,"ived":1731,"Ġevent":1732,"ission":1733,"Qu":1734,"ience":1735,"unc":1736,"overn":1737,"/**":1738,"``":1739,"Path":1740,"ek":1741,"ually":1742,"Config":1743,"olean":1744,"mp":1745,"Ġdisc":1746,"Ġmain":1747,"())":1748,"alk":1749,"ĠAnd":1750,"Ġelement":1751,"word":1752,"Ġteam":1753,"ports":1754,"fin":1755,"Ġterm":1756,"ural":1757,"aking":1758,"Param":1759,"iev":1760,"arm":1761,"Item":1762,"Ġrequest":1763,"Map":1764,"Ġrele":1765,"ilon":1766,"length":1767,"ctions":1768,"ives":1769,"config":1770,"TR":1771,"60":1772,"aining":1773,"Field":1774,"ĠUniversity":1775,"Al":1776,"Ġstruct":1777,"Ġdevelop":1778,"mit":1779,"References":1780,"Ġvery":1781,"beta":1782,"tribute":1783,"Ġway":1784,"33":1785,"chn":1786,"arly":1787,"Def":1788,"map":1789,"des":1790,"Ġ-->":1791,"State":1792,"ĠOn":1793,"stance":1794,"Ġtop":1795,".,":1796,"Context":1797,"Ġcontin":1798,"Ġaut":1799,"Equ":1800,"istory":1801,"Ġcoun":1802,"ride":1803,"amespace":1804,"idd":1805,"sy":1806,"2019":1807,"Re":1808,"ĠDe":1809,"PI":1810,"dt":1811,"Ġpar":1812,"Ġmov":1813,"iter":1814,"Ġown":1815,"uc":1816,"els":1817,"ends":1818,"off":1819,"Ġdown":1820,"sigma":1821,"ĠĠĊ":1822,"Ġarray":1823,"With":1824,"Array":1825,"ĠĠĠĠĠĠĠĠĠĠĠĠĠĠĠĠĠĠĠĠĠĠĠĠĠĠĠ":1826,"ari":1827,"ttp":1828,"\"\"":1829,"ilde":1830,"Ġlook":1831,"af":1832,"FF":1833,"Ġvari":1834,"Ġ(!":1835,"âĢľ":1836,"sec":1837,"pty":1838,"UR":1839,"ĠRe":1840,"ĠCl":1841,"ulation":1842,"ateg":1843,"='":1844,"Not":1845,"Ġinformation":1846,"usic":1847,"node":1848,"Form":1849,"ustom":1850,"Ġopen":1851,"side":1852,"ral":1853,"iginal":1854,"ait":1855,"aces":1856,"arge":1857,"ina":1858,"umer":1859,"urs":1860,"ness":1861,"Over":1862,"title":1863,"model":1864,"plication":1865,"Or":1866,"efore":1867,"Ġ(\\":1868,"Ġhere":1869,"Ġtem":1870,"Ġtarget":1871,"*}":1872,"icon":1873,"';":1874,"Ġlocal":1875,"Ġchild":1876,"Ġlead":1877,"mbol":1878,"Ġ});":1879,")}":1880,"sw":1881,"net":1882,"api":1883,"27":1884,"Ġcontent":1885,"ĠPh":1886,"Ġmust":1887,"ability":1888,"Ġlog":1889,"ering":1890,"Ġpop":1891,"Ġconsider":1892,"28":1893,"ively":1894,"ui":1895,"alth":1896,"Ġleft":1897,"true":1898,"Ġallow":1899,"oss":1900,"[]":1901,"ior":1902,"rix":1903,"vir":1904,"ĠMar":1905,"uck":1906,"ĠAmerican":1907,"Ġmet":1908,"Ġvis":1909,"Ġtext":1910,"Ġ/*":1911,"input":1912,"vious":1913,"Ġdefault":1914,"Ġfin":1915,"ital":1916,"vert":1917,"ĠLe":1918,"apache":1919,".âĢĿ":1920,"^{-":1921,"Service":1922,"uf":1923,"box":1924,"utes":1925,"Ġsince":1926,"Ġeffect":1927,"Ġthose":1928,"igned":1929,"akes":1930,"ohn":1931,"Ġworld":1932,"Ġsmall":1933,"Ġ},":1934,"Ġbeg":1935,"Ġsl":1936,"result":1937,"ĠPr":1938,"Ġexper":1939,"block":1940,"Ġrecord":1941,"from":1942,"bs":1943,"Des":1944,"2018":1945,"Ġref":1946,"ags":1947,"evice":1948,"object":1949,"ides":1950,"Size":1951,"Ġuser":1952,"+\\":1953,"ober":1954,"error":1955,"body":1956,"iled":1957,"ification":1958,"ĠShe":1959,"ograph":1960,"head":1961,"lobal":1962,"figure":1963,"acter":1964,"ponent":1965,"mathrm":1966,"Result":1967,"AD":1968,"ĠYou":1969,"Ġbro":1970,"lished":1971,"iness":1972,"odes":1973,"iving":1974,"enu":1975,"ley":1976,"gamma":1977,"bl":1978,"istr":1979,"sk":1980,"////////":1981,"Ġcar":1982,"no":1983,"LO":1984,"imit":1985,"=\"../../../../":1986,"assert":1987,"cale":1988,"Ġprot":1989,"ĠOr":1990,"perties":1991,"26":1992,"ret":1993,"Build":1994,"Ġnext":1995,"Ġmuch":1996,"ails":1997,"Message":1998,"Fr":1999,"ync":2000,"valid":2001,"Ph":2002,"create":2003,"max":2004,"ene":2005,"He":2006,"MA":2007,"****************":2008,"Ġmult":2009,"met":2010,"Ġexample":2011,"Ġwant":2012,"eturn":2013,"Ġresults":2014,"Ġappe":2015,"irc":2016,"Ġmark":2017,"big":2018,"plate":2019,"ided":2020,"ĠEng":2021,"ium":2022,"Ġlevel":2023,"por":2024,"hip":2025,"Ġvalues":2026,"ources":2027,"Ġposs":2028,"ilter":2029,"Ġcheck":2030,"29":2031,"Ġ,":2032,"comp":2033,"ĠUnited":2034,"www":2035,"Ġrece":2036,"2017":2037,"ustr":2038,"une":2039,"^\\":2040,"Ġagainst":2041,"aster":2042,"ship":2043,"Ġincluding":2044,"delta":2045,"default":2046,"Ġgood":2047,"}{\\":2048,"omen":2049,"Ġpath":2050,"pm":2051,"UT":2052,"Ġincre":2053,"Ġhelp":2054,"Code":2055,"enn":2056,"ĠSystem":2057,"ĠHow":2058,"Ġca":2059,"Ġpresent":2060,"Ġlet":2061,"ouble":2062,"abled":2063,"ift":2064,"tract":2065,"IG":2066,"Of":2067,"version":2068,"++":2069,"ird":2070,"Ġtry":2071,"ination":2072,"Ġversion":2073,">&":2074,"Hand":2075,"Ġdon":2076,"arrow":2077,"leq":2078,"Ġblock":2079,"ING":2080,"Ġpost":2081,"Ġbreak":2082,"theta":2083,"Ġav":2084,"Is":2085,"ED":2086,"ĠAd":2087,"IS":2088,"uage":2089,"Ġ$(":2090,"gt":2091,"ĠMay":2092,"Loc":2093,"It":2094,"Ġcommun":2095,"using":2096,"Ġstill":2097,"come":2098,"itt":2099,"la":2100,"reate":2101,"cope":2102,"Ġcalled":2103,"Ġhead":2104,"loat":2105,"Ġreal":2106,"duct":2107,"2016":2108,"Ġgame":2109,"space":2110,"Model":2111,"state":2112,"ormal":2113,"ML":2114,"point":2115,"ware":2116,"Ġfour":2117,"tab":2118,"itch":2119,"Ġview":2120,"iction":2121,"Ġrepresent":2122,"Ġjava":2123,"uro":2124,"info":2125,"lt":2126,"Ġinput":2127,"ĠBr":2128,"Ġtyp":2129,"position":2130,"Ġcreate":2131,"ailable":2132,"tings":2133,"my":2134,"Ġcle":2135,"AB":2136,"ĠWh":2137,"Ġpres":2138,"Ġsrc":2139,"Ġ:=":2140,"ches":2141,"ands":2142,"ĠGr":2143,"Ġposition":2144,"sup":2145,"Val":2146,"ĠAt":2147,"Ġdep":2148,"Ġcode":2149,"rho":2150,"]{":2151,"Ġaround":2152,"Ġproject":2153,"start":2154,"\".":2155,"All":2156,"nection":2157,"content":2158,"ump":2159,"Ġmax":2160,"lected":2161,"Ġbased":2162,"Ġanal":2163,"45":2164,"ai":2165,"Ġstyle":2166,"80":2167,"ĉĉĉĉĉĉ":2168,"2015":2169,"Ġnode":2170,"Ġtake":2171,"HE":2172,"usiness":2173,"oin":2174,"times":2175,"Ġ__":2176,"aut":2177,"css":2178,"Ġident":2179,"base":2180,"Ġbook":2181,"=\"../":2182,"Ġexpl":2183,"ival":2184,"Ġ===":2185,"Ġprogram":2186,"see":2187,"acy":2188,"olv":2189,"ony":2190,"Ġproble":2191,"Ġpat":2192,"Ġdescri":2193,"ĠAll":2194,"ottom":2195,"Ġrefer":2196,"Ġknown":2197,"Ġcr":2198,"rec":2199,"Ġschool":2200,"Ġexp":2201,"Ġbase":2202,"ĠJan":2203,"Ġmap":2204,"ety":2205,"ape":2206,"down":2207,"MP":2208,"tn":2209,"Ġperson":2210,"eqref":2211,"$-":2212,"}$,":2213,"ched":2214,"ised":2215,"bed":2216,"next":2217,"196":2218,"icy":2219,"ET":2220,"ivity":2221,"Ġlife":2222,"Log":2223,"tau":2224,"icle":2225,"nder":2226,"resp":2227,"ux":2228,"quad":2229,"include":2230,"sl":2231,"Ġpower":2232,"Ġold":2233,"--------------------------------":2234,"aterial":2235,"}$.":2236,"ĠGet":2237,"ĠPl":2238,"Ġcontext":2239,"Table":2240,"ĠSp":2241,"elete":2242,"Ġconfig":2243,"Ġlater":2244,"sq":2245,"Ġplace":2246,"ained":2247,"Ġthink":2248,"ideo":2249,"pression":2250,"roller":2251,"Inter":2252,"Color":2253,"AS":2254,"99":2255,"aving":2256,"ended":2257,"New":2258,"tes":2259,"Ser":2260,"Ġsom":2261,"ĠâĢĶ":2262,"java":2263,"Out":2264,"Ġinstance":2265,"package":2266,"Ġdistrib":2267,"ĠMan":2268,"amed":2269,"2014":2270,"From":2271,"ploy":2272,"option":2273,"Manager":2274,"olution":2275,"with":2276,"Âł":2277,";&":2278,"inc":2279,"Up":2280,"ken":2281,"ĠBl":2282,"User":2283,"Ġwithout":2284,"Ġ};":2285,"ocus":2286,"ling":2287,"Ġtri":2288,"hes":2289,"Ġcondition":2290,"ĠComm":2291,"Ġitem":2292,"lick":2293,"inition":2294,"style":2295,"}(\\":2296,"Ġbest":2297,"context":2298,"Ġindex":2299,"urity":2300,"Ġdel":2301,"ĠJohn":2302,"pen":2303,"rist":2304,"tainer":2305,"define":2306,"Pl":2307,"ored":2308,"fe":2309,"asure":2310,"Ġchang":2311,"ender":2312,"Ġseries":2313,"ithub":2314,"Ġsingle":2315,"ĠEn":2316,";</":2317,"ĠCan":2318,"ero":2319,"35":2320,"Comm":2321,"nu":2322,"ilt":2323,"Ġlinks":2324,"ately":2325,"overnment":2326,"DO":2327,"âĢ¦":2328,"partial":2329,"ternational":2330,"android":2331,"where":2332,"Property":2333,"And":2334,"elect":2335,"ances":2336,"UN":2337,"earch":2338,"ĠCar":2339,"ways":2340,"ugg":2341,"Ġsource":2342,"Pr":2343,"ules":2344,"Ġfilm":2345,"andard":2346,"Ġwithin":2347,"ULL":2348,"ENT":2349,"Ġcap":2350,"prot":2351,"ators":2352,"ories":2353,"Ġconf":2354,"refer":2355,"ĠTo":2356,"ĠĠĠĠĠĠĠĠĠĠĠĠ":2357,"adi":2358,"itive":2359,"Ġsk":2360,"Ġday":2361,"Ġbound":2362,"stru":2363,"Ġcour":2364,"web":2365,"Ġocc":2366,"Ġdi":2367,"angle":2368,"ĠCent":2369,"fty":2370,"Ġcomput":2371,"atures":2372,"2013":2373,"ansp":2374,"lem":2375,"Ġoptions":2376,"db":2377,"ES":2378,"ught":2379,"TD":2380,"Ġlarge":2381,"uk":2382,"2020":2383,"Ġfamily":2384,"plement":2385,"cast":2386,"Ġreport":2387,"false":2388,"count":2389,"=\"#":2390,"check":2391,"github":2392,"itional":2393,"urch":2394,"Ġsuccess":2395,"rt":2396,"Ġsever":2397,"method":2398,"ĠStates":2399,"ths":2400,"ĠNov":2401,"Group":2402,"ison":2403,"Trans":2404,"ixed":2405,"bum":2406,"ĠÐ":2407,"Ġobtain":2408,"static":2409,"infty":2410,"ĠThey":2411,"Ġseason":2412,"ĠčĊ":2413,"Ġanother":2414,"OT":2415,"Ġla":2416,"Ġfoot":2417,"ĠĠĠĠĠĠĠĠĠĠ":2418,"Ġenc":2419,"Ġinitial":2420,"IL":2421,"ique":2422,"Reg":2423,"ped":2424,"urther":2425,"Client":2426,"Ġcontrol":2427,"event":2428,"System":2429,"light":2430,"tilde":2431,"ibr":2432,"Ġbeh":2433,"ĠJul":2434,"|\\":2435,"Response":2436,"ĠUS":2437,"google":2438,"Ġlaw":2439,"iod":2440,"aint":2441,"ĠWorld":2442,"External":2443,"Ġspace":2444,"Ġtable":2445,"Ġcare":2446,"core":2447,"omega":2448,"Rec":2449,"viron":2450,"print":2451,"Ġke":2452,"Ġsw":2453,"Ġann":2454,"2012":2455,")</":2456,"ording":2457,"Ġiss":2458,"Dis":2459,"Count":2460,"onse":2461,"Ġstd":2462,"ajor":2463,"annel":2464,"Ġnetwork":2465,"eger":2466,"ready":2467,"Ġuntil":2468,"01":2469,"Query":2470,"aff":2471,"Ġplayers":2472,"ifier":2473,"55":2474,">(":2475,"ords":2476,"Ġbool":2477,"rel":2478,"utions":2479,"Ġadv":2480,"namespace":2481,"Ġaddress":2482,"2011":2483,"Ġresponse":2484,"Ġimp":2485,"Ġorgan":2486,"](":2487,"Ġcolor":2488,"ĠBut":2489,"lin":2490,"Ð°":2491,"doc":2492,"ume":2493,"oken":2494,"Ġaction":2495,"Ġopt":2496,"mat":2497,"Ġdem":2498,"cit":2499,"Arg":2500,"Delta":2501,"uary":2502,"Call":2503,"uments":2504,"<!--":2505,"Ġoriginal":2506,"ounty":2507,"respond":2508,"2010":2509,"ourn":2510,"================":2511,"Ġservice":2512,"arr":2513,"wards":2514,"Read":2515,"oper":2516,"Ġnil":2517,"Ġchange":2518,"Ġsum":2519,"Ġmessage":2520,"Ġsay":2521,"arning":2522,"Ġtechn":2523,"Ġ()":2524,"eqn":2525,"sim":2526,"Ġandroid":2527,"39":2528,"US":2529,"ĠBe":2530,"Ġbackground":2531,"ĠĠĠĠĠĠĠĠĠĠĠĠĠĠĠĠĠĠĠĠĠĠĠĠĠĠĠĠĠĠĠ":2532,"lose":2533,"ĠOct":2534,"Ġrequire":2535,"Override":2536,"Ġweek":2537,"actory":2538,"Ġpo":2539,"gress":2540,"34":2541,"button":2542,"Ġet":2543,"Ġrespect":2544,"ĠNational":2545,"Ġproperty":2546,"ebug":2547,"Ġaccess":2548,"aper":2549,"CE":2550,"call":2551,"Builder":2552,"ither":2553,"Ġalong":2554,"Ġtot":2555,"tual":2556,"Ġnear":2557,"Method":2558,"hold":2559,"de":2560,"ĠList":2561,"Ġarea":2562,"prov":2563,"semb":2564,"nect":2565,"Mod":2566,"null":2567,"oud":2568,"ĠTe":2569,"ĠâĢĺ":2570,"ague":2571,"Ġinclude":2572,"31":2573,"Ad":2574,"ilar":2575,"Ġexist":2576,"ĠPol":2577,"Date":2578,"ung":2579,"Ġinterest":2580,"options":2581,"dom":2582,"ĠAug":2583,"Ġspe":2584,"aim":2585,"bit":2586,"Ġfull":2587,"Bar":2588,"ĠCo":2589,"illi":2590,"ven":2591,"imal":2592,"Ġmatch":2593,"37":2594,"ename":2595,"argin":2596,"ĠYork":2597,"IP":2598,"ocial":2599,"TH":2600,"imate":2601,"ĠReg":2602,"NA":2603,"ĠIm":2604,"ĠGu":2605,"ĠNo":2606,"Ġgeneral":2607,"Ġmass":2608,"Ġavailable":2609,"Ġabove":2610,"rodu":2611,"Ġdepend":2612,"xi":2613,"ĠPar":2614,"Ġmag":2615,"Ġdocument":2616,"andom":2617,"build":2618,"36":2619,"orem":2620,"Ð¾":2621,"ĠSet":2622,"uman":2623,"Ġborder":2624,"Ġbu":2625,",âĢĿ":2626,"Ġlang":2627,"Ġcell":2628,"DI":2629,"If":2630,"posed":2631,"Ġleg":2632,"])":2633,"Ġpub":2634,"Ġcharacter":2635,"ĠCal":2636,"ĠWest":2637,"Stream":2638,"energy":2639,"ament":2640,"Ġeng":2641,"uted":2642,"current":2643,"Ġrange":2644,"imum":2645,"atab":2646,"ection":2647,"Ġturn":2648,"Ġmusic":2649,"ĠSchool":2650,"lib":2651,"Ġfa":2652,"lex":2653,"Image":2654,"Ġbas":2655,"ending":2656,"query":2657,"Ġhome":2658,"ĠGe":2659,"raphics":2660,"mber":2661,"ians":2662,"tra":2663,"raft":2664,"Ġfew":2665,"Ġdue":2666,"capt":2667,"Ġpolit":2668,"finished":2669,"icial":2670,"194":2671,"illion":2672,"leg":2673,"Util":2674,"ica":2675,"90":2676,"âĢĶ":2677,"php":2678,"cer":2679,"Ġes":2680,"$$":2681,"center":2682,"stit":2683,"anel":2684,"ĠWar":2685,"Ġstat":2686,"Ġestab":2687,"Ġprevious":2688,"66":2689,"Ġhapp":2690,"eff":2691,"Ġwin":2692,"Ġret":2693,"195":2694,"reen":2695,"dir":2696,"No":2697,"Ġoutput":2698,"ention":2699,"ales":2700,"atter":2701,"Be":2702,"((":2703,"pecial":2704,"Ġ($":2705,"Ġdom":2706,"Ġimage":2707,"ĠMin":2708,"icro":2709,"Ġassoci":2710,"cho":2711,"Ġseveral":2712,"Sub":2713,"ONT":2714,"ks":2715,"Ðµ":2716,"Ġ<<":2717,"Ġshort":2718,"38":2719,"uture":2720,"Ġwidth":2721,"ought":2722,"Ġdesign":2723,"init":2724,"vironment":2725,"CH":2726,"oman":2727,"hand":2728,"ĠĠĠĠĠĠĠĠĠĠĠĠĠĠĠĠĠ":2729,"place":2730,"Ġobserv":2731,"request":2732,"ns":2733,"ysis":2734,"image":2735,"ĠAss":2736,"Ġsuper":2737,"au":2738,"ĠApr":2739,"ram":2740,"Ġelect":2741,"ĉĊ":2742,"ertain":2743,"Fl":2744,"mail":2745,"struction":2746,"ustral":2747,"Ġtoo":2748,"Input":2749,"ynam":2750,"Status":2751,"alf":2752,"gor":2753,"ĠSouth":2754,"Ġdefined":2755,"agement":2756,"Ġhttp":2757,"75":2758,"unfinished":2759,"func":2760,"args":2761,"ĠMed":2762,"ptember":2763,"client":2764,"ĠHowever":2765,"}[":2766,"cdot":2767,"ittle":2768,"\\,":2769,"creen":2770,"ĠState":2771,"Block":2772,"opt":2773,"Gener":2774,"OP":2775,"Ġside":2776,"jav":2777,"Ġalbum":2778,"Ġparent":2779,"2009":2780,"ĠJanuary":2781,"}}\\":2782,"05":2783,"End":2784,"ĠBy":2785,"Cl":2786,"ued":2787,"ours":2788,"Ġfree":2789,"oto":2790,"Ġpage":2791,"Par":2792,"ĠBrit":2793,"Ġproduct":2794,"Ġprom":2795,"ĠMarch":2796,"Ġclos":2797,"Ġassum":2798,"ĠThere":2799,"aced":2800,"orage":2801,"dl":2802,"aged":2803,"Sc":2804,"inary":2805,"iple":2806,"Ġ->":2807,"erman":2808,"ney":2809,"riter":2810,"Ġtotal":2811,"now":2812,"Ġhold":2813,"Ġparticular":2814,"Ġsit":2815,"iment":2816,"urope":2817,"rows":2818,"Ġinvest":2819,"ĠSup":2820,"Ed":2821,"YPE":2822,"run":2823,"ze":2824,"ables":2825,"Ġfore":2826,"Str":2827,"book":2828,"Ġcompon":2829,"server":2830,"Ġsm":2831,"({":2832,"active":2833,"ĠCounty":2834,"ayout":2835,"Ġsong":2836,"Ġexec":2837,"ones":2838,"Ġalready":2839,"Ġboolean":2840,"Ġvol":2841,"Ġaff":2842,"caption":2843,"undle":2844,"Ġmean":2845,"ights":2846,"Instance":2847,"psi":2848,"adding":2849,"do":2850,"Ġcur":2851,"icense":2852,"Ġ\"\"\"":2853,"ĠAb":2854,"Ġlarg":2855,"ĠRep":2856,"OS":2857,"Pos":2858,"height":2859,"Ġcorrespond":2860,"cm":2861,"gorith":2862,"ibility":2863,"Ġregion":2864,"Ġpossible":2865,"used":2866,"Ġsat":2867,"Ġput":2868,"Ġrest":2869,"2008":2870,"Ġrequired":2871,"ensure":2872,"Token":2873,"){":2874,"lege":2875,"EE":2876,"Ġexpected":2877,"0000":2878,"header":2879,"yles":2880,"df":2881,"NS":2882,"Nav":2883,"ably":2884,"Ġbusiness":2885,"Act":2886,"dec":2887,"non":2888,"oice":2889,"ategory":2890,"tx":2891,"Ġgl":2892,"ĠJune":2893,"ĠNULL":2894,"Ġwhe":2895,"Ġdeath":2896,"came":2897,"egr":2898,"oop":2899,"cor":2900,"aps":2901,"Ġcount":2902,"chema":2903,"Ġgreat":2904,"idget":2905,"oke":2906,"Ġmembers":2907,"omet":2908,"append":2909,"mark":2910,"ĠOctober":2911,"ĠSo":2912,"cember":2913,"Ġenergy":2914,"Ġprob":2915,"urg":2916,"Ġpoints":2917,"Line":2918,"Ġcompany":2919,"page":2920,"Ġdiv":2921,"Options":2922,"ĠSec":2923,"''":2924,"imation":2925,"ĠCity":2926,"OL":2927,"ae":2928,")$.":2929,"has":2930,"ĠAp":2931,"ĠAugust":2932,"RA":2933,"ĠFig":2934,"Dec":2935,"Ġlow":2936,"rect":2937,"Ġbecame":2938,"Ġvalid":2939,"Base":2940,"Cell":2941,"Ġlength":2942,"ĠSeptember":2943,"App":2944,"Ġtimes":2945,"Ġearly":2946,"ij":2947,"Ġprof":2948,"[\"":2949,"Component":2950,"Ġgoing":2951,"SP":2952,"Ġnever":2953,"Ġproblem":2954,"atabase":2955,"ĠBo":2956,"Ġcity":2957,"Ġless":2958,"ada":2959,"igation":2960,"Head":2961,"Ġstudy":2962,"Ġquest":2963,"ached":2964,"Action":2965,"era":2966,"Ġmeasure":2967,"cul":2968,"Ġmajor":2969,"Ġredu":2970,"ĠJuly":2971,"istic":2972,"}_{\\":2973,"lied":2974,"ĠAdd":2975,"Ġrole":2976,"target":2977,"Ġwon":2978,"EX":2979,"Source":2980,"anding":2981,"iff":2982,"Ġide":2983,"ĠChrist":2984,"Equal":2985,"08":2986,"eqnarray":2987,"Ġlabel":2988,"rior":2989,")(":2990,"Ġdeterm":2991,"istor":2992,"xy":2993,"Off":2994,"Ġsy":2995,"Ġmar":2996,"ĠDr":2997,"ĠEd":2998,"json":2999,"REF":3000,"44":3001,"Null":3002,"frame":3003,"ĠApril":3004,"psilon":3005,"alt":3006,"FA":3007,"Ð¸":3008,"Ġreally":3009,"ĠFl":3010,"ilit":3011,"Ġport":3012,"Ġfootball":3013,"Ġimportant":3014,"btn":3015,"ĠPart":3016,"Ġsimilar":3017,"ĠĠĠĠĠĠĠĠĊ":3018,"Ġden":3019,"ĠFeb":3020,"Om":3021,"ls":3022,"ĠĠĠĠĠĠĠĠĠĠĠĠĊ":3023,"Ġchildren":3024,"ster":3025,"Ġ+=":3026,"Ġsection":3027,"pose":3028,"ising":3029,"ĠSer":3030,"Ġalways":3031,"Ap":3032,"thing":3033,"Ġhost":3034,"umb":3035,"ĠNorth":3036,"Ġgovernment":3037,"ugin":3038,"ĠÂ":3039,"ependent":3040,"parent":3041,"Ġtrack":3042,"ĠInt":3043,"atform":3044,"ĠQu":3045,"cy":3046,"ĠĠĠĠĠĠĠĠĠĠĠĠĠĠ":3047,"ham":3048,"Handler":3049,"Buffer":3050,"symbol":3051,"nown":3052,"ĠRec":3053,"idual":3054,"ocol":3055,"navbar":3056,"Ġpot":3057,"*/":3058,"Ġcomb":3059,"module":3060,"member":3061,"ĠAustral":3062,"Ġbetter":3063,"foot":3064,"ĠWith":3065,"textbf":3066,"ptr":3067,"ude":3068,"ialog":3069,"Ġbir":3070,"thers":3071,"ĠTest":3072,"ama":3073,"adata":3074,"70":3075,"epsilon":3076,"uster":3077,"child":3078,"Comp":3079,"sg":3080,"Content":3081,"Ġleast":3082,"HT":3083,"Ġmight":3084,"property":3085,",\"":3086,"Ġlight":3087,"Oper":3088,"lim":3089,"ĠGener":3090,"Ġperiod":3091,"EL":3092,"rew":3093,"ĠNovember":3094,"uation":3095,"ĠEurope":3096,"Ġdest":3097,"2007":3098,"MS":3099,"ĠCont":3100,"src":3101,"48":3102,"flow":3103,"imary":3104,"ino":3105,"sequ":3106,"ething":3107,"ards":3108,"Run":3109,"cell":3110,"anch":3111,"Ġresearch":3112,"Ġdisplay":3113,"Select":3114,"Ġspecial":3115,"otype":3116,"Ġwomen":3117,"ana":3118,"Ġparameters":3119,"Ġauthor":3120,"clus":3121,"select":3122,"OD":3123,"rid":3124,"Ġbody":3125,"ĠDecember":3126,"CK":3127,"bottom":3128,"ĠMc":3129,"ĠDes":3130,"Ġeither":3131,"izer":3132,"sqrt":3133,"case":3134,"Ġhistory":3135,"Ġstrong":3136,"omic":3137,"ike":3138,"Factory":3139,"Ġbig":3140,"Omega":3141,"Wh":3142,"first":3143,"dr":3144,"ATE":3145,"vers":3146,"Default":3147,"Ġgrow":3148,"epar":3149,"xml":3150,"Resource":3151,"Ġins":3152,"unk":3153,"vision":3154,"status":3155,"ops":3156,"Ġsays":3157,"Sec":3158,"Ġformer":3159,"Ġra":3160,"Ġcover":3161,"dict":3162,"vare":3163,"^*":3164,"GL":3165,"ves":3166,"Big":3167,"Ġshows":3168,"UE":3169,"subsection":3170,"eed":3171,"Ġstory":3172,"Sp":3173,"Ġeas":3174,"Ġparameter":3175,"imension":3176,"Ġlate":3177,"CC":3178,"element":3179,"ried":3180,"Version":3181,"post":3182,"rl":3183,"acing":3184,"Ġmodels":3185,"adio":3186,"char":3187,"Ġcolumn":3188,"tributes":3189,"Ġaccount":3190,"Ã¡":3191,"ĠWhen":3192,"Ġtask":3193,"display":3194,"LASS":3195,"Ġnum":3196,"lies":3197,"na":3198,"Function":3199,"Gamma":3200,"Ġshown":3201,"ges":3202,"Ġdiscuss":3203,"Start":3204,"Attribute":3205,"si":3206,"ered":3207,"ĠII":3208,"ged":3209,"reet":3210,"ĠObject":3211,"host":3212,")$,":3213,"04":3214,"Link":3215,"ĠMe":3216,"aring":3217,"varepsilon":3218,"Ġindic":3219,"ruary":3220,"Ġpay":3221,"private":3222,"Part":3223,"ĠNot":3224,"Ġseem":3225,"########":3226,"det":3227,"sol":3228,"aken":3229,"Ġprint":3230,"Ġwater":3231,"Ġep":3232,"True":3233,"Point":3234,"2006":3235,"gener":3236,"AG":3237,"FI":3238,"meta":3239,"bold":3240,"last":3241,"Ġrecent":3242,"Ġhard":3243,"ĠCor":3244,"ÑĤ":3245,"Ġvir":3246,"find":3247,"Ġresource":3248,"ampion":3249,"ĠSw":3250,"mult":3251,"Ġmember":3252,"rest":3253,"Ġsample":3254,"Ġevents":3255,"Ġder":3256,"thern":3257,"AP":3258,"open":3259,"ĠAct":3260,"\"]":3261,"Ġclient":3262,"Ġfeature":3263,"Ġred":3264,"Ġintrodu":3265,"09":3266,"Us":3267,"aves":3268,"///":3269,"VER":3270,"ĠNone":3271,"~~":3272,"07":3273,"Ġfri":3274,"stream":3275,"Ġstandard":3276,"Ġcompet":3277,"Ġcommand":3278,"lease":3279,"chi":3280,"Number":3281,"${":3282,"only":3283,"Frame":3284,"Ġcreated":3285,"ogn":3286,"Ġdone":3287,"});":3288,"ids":3289,"SC":3290,"TO":3291,"rowser":3292,"mm":3293,"^{(":3294,"ured":3295,"push":3296,"Ġload":3297,"write":3298,"Ġterms":3299,"though":3300,"png":3301,"ĠReturn":3302,"irm":3303,"ply":3304,"emph":3305,"Ġclose":3306,"std":3307,"Ġsite":3308,"Ġprovide":3309,"apan":3310,"reed":3311,"2000":3312,"Ġq":3313,"Command":3314,"02":3315,"Ġprotected":3316,"py":3317,"Ġcustom":3318,"Ġreleased":3319,"ĠIN":3320,"erefore":3321,"iddle":3322,"eline":3323,"ĠAir":3324,"Ġfar":3325,"wise":3326,"ansport":3327,"aly":3328,"ĠDef":3329,"ĠGo":3330,"ently":3331,"Ġlimit":3332,"Ġfurther":3333,"strong":3334,"Ġdeb":3335,"Style":3336,"Prov":3337,"Ġperformance":3338,"ĠClass":3339,"small":3340,"otion":3341,"inst":3342,"Ġimplement":3343,"ĠKing":3344,"ĠDis":3345,"pc":3346,"pack":3347,"img":3348,"ascript":3349,"Ġsequ":3350,"}=":3351,"Ġframe":3352,"gle":3353,"heet":3354,"Page":3355,"ography":3356,"tag":3357,"Ġcost":3358,"Ġtook":3359,"Ġair":3360,"sole":3361,"ĠBar":3362,"Create":3363,"bm":3364,"actions":3365,"Sup":3366,"gen":3367,"Ġmeans":3368,"ĠComp":3369,"ging":3370,"idence":3371,"oph":3372,"Ġthrows":3373,"Window":3374,"Ġsearch":3375,"Ġplayed":3376,"most":3377,"len":3378,"egraphics":3379,"includegraphics":3380,"First":3381,"06":3382,"}^{\\":3383,"Ġcontain":3384,"Ġdev":3385,"FONT":3386,"cap":3387,"artment":3388,"Label":3389,"Ġoften":3390,"ĠAfter":3391,"ensity":3392,"lip":3393,"oding":3394,"layout":3395,"ftware":3396,"BU":3397,"close":3398,"Task":3399,"aul":3400,"mem":3401,"idden":3402,"Ġcountry":3403,"format":3404,"local":3405,"udio":3406,"ĠOne":3407,"ĠThese":3408,"draw":3409,"Ġarr":3410,"iol":3411,"adem":3412,"Row":3413,"uggest":3414,"obj":3415,"Ġwhether":3416,"Ġhouse":3417,"Ġsignific":3418,"description":3419,"Ġoption":3420,"ĉĉĉĉĉĉĉĉ":3421,"Ġcome":3422,"Ġhaving":3423,"Ġ<!--":3424,"oney":3425,"ĠOff":3426,"See":3427,"Pol":3428,"Hel":3429,"Ġdouble":3430,"Ġsomething":3431,"ĠFebruary":3432,"Ġheight":3433,"Ġphys":3434,"Ġmom":3435,"ii":3436,"Ġ{@":3437,"verage":3438,"ifact":3439,"irection":3440,"allet":3441,"ĠDo":3442,"pected":3443,"Ġquant":3444,"Ġche":3445,"isf":3446,"ries":3447,"project":3448,"Ġprovided":3449,"num":3450,"Ġsent":3451,"uccess":3452,"Ġkeep":3453,")=":3454,"Ġdays":3455,"Ġtoget":3456,"abor":3457,"Ġbecome":3458,"change":3459,"Ð½":3460,"Ġcoll":3461,"Ġpract":3462,"Ġstatus":3463,"icient":3464,"Ġthird":3465,"olved":3466,"Ġstructure":3467,"gorithm":3468,"Ġcamp":3469,"ABLE":3470,"Ġgames":3471,"Ġtogether":3472,"Ġlittle":3473,"Ġmove":3474,"Ġclaim":3475,"ãģ":3476,"ille":3477,"03":3478,"ĠRev":3479,"itory":3480,"ulture":3481,"mar":3482,"ieve":3483,"Ġ${\\":3484,"Ġamong":3485,"Ġmethods":3486,"rangle":3487,"ĠPres":3488,"Ġcatch":3489,"Ġindiv":3490,"sembly":3491,"ĠVal":3492,"Ġcopy":3493,"Ġacross":3494,"Format":3495,"Last":3496,"varphi":3497,"Ġfive":3498,"Ġreceived":3499,"Check":3500,"Ġant":3501,"exp":3502,"ibrary":3503,"Ġunderst":3504,"ĠPark":3505,"Ġwindow":3506,"Ġextends":3507,"Ġgot":3508,"Ġfund":3509,"eder":3510,"atal":3511,"Ġpotential":3512,"IM":3513,"ĠHigh":3514,"INT":3515,"59":3516,"Return":3517,"mon":3518,"vec":3519,"(&":3520,"Ġgive":3521,"vis":3522,"Ab":3523,"Ġcou":3524,"endif":3525,"ondon":3526,"ocket":3527,"ients":3528,"vari":3529,"SON":3530,"istry":3531,"Ġ\\,":3532,"pol":3533,"sm":3534,"Ġband":3535,"Ġvia":3536,"Ġseen":3537,"asing":3538,"Controller":3539,"Ġhealth":3540,"\").":3541,"Ġfollows":3542,"Ġtown":3543,"buf":3544,"Ġable":3545,"Ġjob":3546,"response":3547,"ires":3548,"ological":3549,"67":3550,"iler":3551,"ĠChar":3552,"ĠCoun":3553,"ĠBritish":3554,"ams":3555,"Ġvert":3556,"ypes":3557,"ĠMon":3558,"Ġonce":3559,"lections":3560,"Ġcommunity":3561,"apping":3562,"Ġattack":3563,"Ġplan":3564,"roy":3565,"Ġwrite":3566,"Ġcrit":3567,"entry":3568,"Ġlanguage":3569,"ication":3570,"ensor":3571,"Ġbelow":3572,"ĠArt":3573,"Ġindu":3574,"main":3575,"atas":3576,"cond":3577,"Listener":3578,"Ġarch":3579,"level":3580,"Ġ((":3581,"medi":3582,"urb":3583,"Ġalign":3584,"ington":3585,"javascript":3586,"Ġspect":3587,"ĠDav":3588,"Ġage":3589,"orph":3590,"Ass":3591,"Column":3592,"Ġdate":3593,"ayer":3594,"Ġ]":3595,"stract":3596,"PRO":3597,"Ġtele":3598,"ĠAfr":3599,"Equals":3600,"Let":3601,"Ġdiff":3602,"igger":3603,"Ġvideo":3604,"Ġver":3605,"board":3606,"Ġrelations":3607,"Ġhuman":3608,"2005":3609,"UM":3610,"Ġtw":3611,"88":3612,"Ġsche":3613,"Ġlik":3614,"Ġglobal":3615,"sf":3616,"update":3617,"annot":3618,"ouch":3619,"49":3620,"Ġelements":3621,"Ġthings":3622,"Child":3623,"oo":3624,"ements":3625,"Ġask":3626,"Ġmaking":3627,"Ġaway":3628,"Button":3629,"65":3630,"Ġsix":3631,"ĠPer":3632,"signed":3633,"geq":3634,"Box":3635,"Ġfeatures":3636,"ief":3637,"cil":3638,"igr":3639,"Filter":3640,"iet":3641,"Ġdevelopment":3642,"Ġ``":3643,"ills":3644,"Ġfunctions":3645,"menu":3646,"ference":3647,"uid":3648,"Ġyoung":3649,"Ġbit":3650,"Ġurl":3651,"Ġmiss":3652,"Ġdescribed":3653,"ordin":3654,"Ġupdate":3655,"filter":3656,"proof":3657,"Ġproperties":3658,"Rep":3659,"////////////////":3660,"aging":3661,"Ġdeg":3662,"Ġnamed":3663,"Ġreview":3664,"container":3665,"itions":3666,"NO":3667,"Ġauto":3668,"ope":3669,"Ġmedia":3670,"Ġconstruct":3671,"apter":3672,"Ġcomplex":3673,"service":3674,"Ġsepar":3675,"ĠHis":3676,"mt":3677,"ners":3678,"Ġmen":3679,"ĉĠĠĠ":3680,"plit":3681,">>":3682,"Ġformat":3683,"ournal":3684,"Ġstates":3685,"ĠThat":3686,"avel":3687,"attr":3688,"Ġdistribution":3689,"ĠRuss":3690,"yd":3691,"Ext":3692,"Ġmargin":3693,"can":3694,"Ġindividual":3695,"Met":3696,"<?":3697,"ites":3698,"Ġoffer":3699,"Char":3700,"UI":3701,"rightarrow":3702,"Ġheld":3703,"47":3704,"Ġ...":3705,"Ġlower":3706,"Ġincluded":3707,"Ġspecific":3708,".~\\":3709,"Ġeduc":3710,"ese":3711,"ald":3712,"Ġstop":3713,"Ġsuff":3714,"Ġbegin":3715,"Ġcy":3716,"lying":3717,"ĠID":3718,"efined":3719,"hel":3720,"eting":3721,"Ġmer":3722,"Ġrate":3723,"Ġcross":3724,"Ġtre":3725,"Ġnec":3726,"Ġblack":3727,"Ġconc":3728,"tool":3729,"Ġbuilt":3730,"ring":3731,"Ġworking":3732,"ql":3733,"Ġfuture":3734,".}":3735,"iven":3736,"ĠThen":3737,"ĠPe":3738,"overline":3739,"ĠUp":3740,"font":3741,"dev":3742,"ises":3743,"Ġassociated":3744,"ha":3745,"[\\":3746,"params":3747,"ÑĢ":3748,"\"),":3749,"BC":3750,"Ġthough":3751,"Ġgen":3752,"Ġsocial":3753,"ĠEnglish":3754,"Valid":3755,"Ġclear":3756,"Ob":3757,"Ġenough":3758,"ĠBro":3759,"Ġgraph":3760,"Det":3761,"Ġland":3762,"rench":3763,"Ent":3764,"ilities":3765,"ĠCLASS":3766,"Ġfocus":3767,"Pre":3768,"Ġtrad":3769,"Bundle":3770,"Mem":3771,"Ġbuilding":3772,"ĠStr":3773,"number":3774,"unch":3775,"based":3776,"po":3777,"Back":3778,"Ġwritten":3779,"ceed":3780,"Tem":3781,"ĠLa":3782,"Ġnormal":3783,"Ġpast":3784,"styles":3785,"column":3786,"Ġstep":3787,"Ġsignificant":3788,"reference":3789,"URL":3790,"refix":3791,"Ġworks":3792,"}).":3793,"ĠJapan":3794,"ĠHouse":3795,"ĠĠĠĠĠĠĠĠĠĠĠĠĠĠĠĠĠĠĠĠĠĠĠĠĠĠĠĠĠĠĠĠĠĠĠ":3796,"clear":3797,"Web":3798,"ĠMy":3799,"Mode":3800,"....":3801,"atural":3802,"Ġcame":3803,"instance":3804,"Ġfac":3805,"TP":3806,"Ġmillion":3807,"acity":3808,"aml":3809,"Ġinternal":3810,"Ġwar":3811,"Em":3812,"You":3813,"Ġnational":3814,"ĠHREF":3815,"Ġadded":3816,"ĠSim":3817,"|-":3818,"Ġpopulation":3819,"Ġneg":3820,"gl":3821,"COL":3822,"Length":3823,":</":3824,"cel":3825,"rown":3826,"Ġvarious":3827,"ĠEast":3828,"ĠArm":3829,"show":3830,"ĠAg":3831,"Ġcontrib":3832,"ĠLondon":3833,"Ġservices":3834,"year":3835,"attle":3836,"Ġinstead":3837,"Ġreason":3838,"pass":3839,"ERR":3840,"Ġannoun":3841,"remove":3842,"_.":3843,"frak":3844,"ĠSch":3845,"Ġspecified":3846,"lit":3847,"igin":3848,"2004":3849,"Ġfail":3850,"Ġkind":3851,"born":3852,"ause":3853,"Ġperm":3854,"ĠAm":3855,"Ġphot":3856,"Per":3857,"Ġofficial":3858,"Ġsure":3859,"PC":3860,"&\\":3861,"anged":3862,"Ġplayer":3863,"known":3864,"Aut":3865,"aries":3866,"Ġsystems":3867,"Output":3868,"Ġserver":3869,"AM":3870,"Ġtraining":3871,"Ġcareer":3872,"oriz":3873,"Layout":3874,"Ġstarted":3875,"ND":3876,"Ġhalf":3877,"chan":3878,"ĠOF":3879,"oved":3880,"},\\":3881,"Ġcommon":3882,"ias":3883,"Acc":3884,"eleg":3885,"Address":3886,"Spec":3887,"bor":3888,"Ġchanges":3889,"Ġcertain":3890,"ãĥ":3891,"ocr":3892,"Ġsuggest":3893,"ĠLeague":3894,"AA":3895,"Ġbegan":3896,"Ġanalysis":3897,"soft":3898,"Ġear":3899,"oon":3900,"Ġben":3901,"iding":3902,"ĠHar":3903,"TYPE":3904,"even":3905,"scope":3906,"agn":3907,"Ġmatrix":3908,"unit":3909,"SI":3910,"```":3911,"Ġgrad":3912,"Ġreturned":3913,"Ġmaterial":3914,"uge":3915,"Ġpaper":3916,"Ġdoesn":3917,"Ã³":3918,"').":3919,"ford":3920,"iber":3921,"Ġfeel":3922,"long":3923,"eh":3924,"Ġnav":3925,"ĠInter":3926,"process":3927,"ĠCollege":3928,"Ġpublished":3929,"ĠDep":3930,"Ġfont":3931,"Ġcallback":3932,"exec":3933,"izing":3934,"Ġsimple":3935,"Ġappear":3936,"Ġsatisf":3937,"CON":3938,"Ġmodule":3939,"Ġstream":3940,"Ġcases":3941,"ensions":3942,"ttps":3943,"Ġfields":3944,"Ġapproach":3945,"77":3946,"boldsymbol":3947,"95":3948,"One":3949,"hib":3950,"Ġconsidered":3951,"Ġemb":3952,"itter":3953,"ĠHer":3954,"Ġlove":3955,"Ġemploy":3956,"Width":3957,"wide":3958,"rypt":3959,"Ġpair":3960,"aven":3961,"Ġnone":3962,"prototype":3963,"ĠLicense":3964,"ymmet":3965,"ĠTrans":3966,"Ġcontains":3967,"else":3968,"Ġconditions":3969,"ba":3970,"iles":3971,"utils":3972,"support":3973,"wrap":3974,"ping":3975,"osp":3976,"Ġge":3977,"Ġselect":3978,"ERT":3979,"hline":3980,"ĠWilli":3981,"ĠHT":3982,"output":3983,"Ġgroups":3984,"Ġpress":3985,"example":3986,"ĠMark":3987,"Ġhttps":3988,"adius":3989,"ampionship":3990,"Rem":3991,"encies":3992,"Ġmode":3993,"Ġhigher":3994,"aker":3995,"Americ":3996,"Ġstudents":3997,"Ġothers":3998,"sd":3999,"isk":4000,"ĠLet":4001,"NAME":4002,"Ġlocated":4003,"Ġtypes":4004,"Ġapplication":4005,"tempt":4006,"=\"../../../../../":4007,"Ġthought":4008,"Ġlocation":4009,"46":4010,"DB":4011,"Ġrow":4012,"Ġsolution":4013,"Ġcannot":4014,"Server":4015,"Ġhowever":4016,"Ġrandom":4017,")^":4018,"Ġconstant":4019,"ĠEX":4020,"amily":4021,"Url":4022,"final":4023,"Ġengine":4024,"42":4025,"Tag":4026,"Ġ!==":4027,"}),":4028,"elling":4029,"offset":4030,"mathfrak":4031,")]":4032,"Ġcompos":4033,"Ġmakes":4034,"skip":4035,"plicit":4036,"ĠArray":4037,"Cache":4038,"Ġamount":4039,"ilitary":4040,"Ġlim":4041,"Ġaccept":4042,"Ġinit":4043,"After":4044,"Ġlot":4045,"Ġtaken":4046,"ÃŃ":4047,"ĠRed":4048,"II":4049,"Ġround":4050,"Ġinterface":4051,"Ġunit":4052,"Ġ[]":4053,"essages":4054,"classes":4055,"Ġinf":4056,"++)":4057,"Ġfiles":4058,"CD":4059,"ĠAc":4060,"Ġapprox":4061,"ĠInternational":4062,"Ð¾Ð":4063,"proto":4064,"lier":4065,"unity":4066,"Ġwhy":4067,"alle":4068,"Ġenvironment":4069,"bind":4070,"verse":4071,"Ġaddition":4072,"}}$":4073,"Ġexpress":4074,"ounds":4075,"There":4076,"(_":4077,"How":4078,"Ġwebs":4079,"85":4080,"Ġaverage":4081,"Ġtalk":4082,"Update":4083,"ula":4084,"Ġwent":4085,"icles":4086,"IO":4087,"Ñģ":4088,"icip":4089,"Ġcontinue":4090,"fa":4091,"prop":4092,"Ġcourse":4093,"ican":4094,"Ġyet":4095,"Ġactiv":4096,"Ġmultiple":4097,"Ġsubject":4098,"CL":4099,"ociety":4100,"dep":4101,"Ġsem":4102,"Ġbox":4103,"Ġlines":4104,"uel":4105,"ĠAPI":4106,"Ġstation":4107,"2001":4108,"Ġscal":4109,"Min":4110,"Ġlive":4111,"Lambda":4112,"Ġclub":4113,"require":4114,"empty":4115,"Provider":4116,"returns":4117,"spec":4118,"kit":4119,"like":4120,".\\":4121,"Ġoperation":4122,"Ġbar":4123,"ĠData":4124,"parse":4125,"Ġvill":4126,"olve":4127,"ministr":4128,"yl":4129,"Ġfilms":4130,"Ġestablished":4131,"ades":4132,"Ġconsist":4133,"istics":4134,"resh":4135,"window":4136,"'re":4137,"Ġloss":4138,"Ġproduction":4139,"Ġecon":4140,"flu":4141,"Ġinstall":4142,"ĠMore":4143,"Ġhom":4144,"Ġbehav":4145,"ĠMich":4146,"obile":4147,"ldots":4148,"langle":4149,"Ġquery":4150,"control":4151,"Next":4152,":\"":4153,"Max":4154,"Ġground":4155,"Ġtool":4156,"Ġcenter":4157,"Ġpur":4158,"Ġscale":4159,"ĠSk":4160,".)":4161,"ĠAmerica":4162,"ĠPhil":4163,"Ġattempt":4164,"ĠAcc":4165,"ota":4166,"otal":4167,"Ġvisit":4168,"appa":4169,"nab":4170,"Ġach":4171,"ĠSan":4172,"IV":4173,"Pe":4174,"andid":4175,"istrict":4176,"Ġtheory":4177,"inner":4178,"Ġobj":4179,"itect":4180,"ael":4181,"ãĤ":4182,"Offset":4183,"à¤":4184,"ris":4185,"Ġcho":4186,"Ġfall":4187,"Case":4188,"ingle":4189,"Target":4190,"Ġcomponent":4191,"depend":4192,"ĠSm":4193,"Access":4194,"oz":4195,"********************************":4196,"Ġrepl":4197,"Ġfilter":4198,"Ġreference":4199,"Ġ**":4200,"task":4201,"scale":4202,"ĠEl":4203,"ci":4204,"2003":4205,"Ġcalcul":4206,"Ġflow":4207,"illed":4208,"ĠType":4209,"Ġaccording":4210,"=\"-":4211,"ĠWeb":4212,"Ġtreat":4213,"Ġliter":4214,"Vis":4215,"cod":4216,"Ġcollection":4217,"PO":4218,"ico":4219,"Work":4220,"iqu":4221,"Ġnecess":4222,"ociation":4223,"ĠPresident":4224,"Ġrelease":4225,"iforn":4226,"Ġsuccessful":4227,"sv":4228,"Ġfrequ":4229,"Sy":4230,"artifact":4231,"Ġrather":4232,"Entity":4233,"\\|":4234,"Ġdevice":4235,"wait":4236,"Ġuint":4237,"duc":4238,"older":4239,"Ġroot":4240,"Ġexperience":4241,"ĠApp":4242,"ATION":4243,"Ġentire":4244,"ĠEm":4245,"ĉĉĉĉĉĉĉ":4246,"late":4247,"izes":4248,"ellow":4249,"Ġnov":4250,"Ġtransform":4251,"ĠRem":4252,"Ġreturns":4253,"attern":4254,"Ġbecom":4255,"Ġactive":4256,"Types":4257,"Ġmoment":4258,"ĠGroup":4259,"}/":4260,"Dr":4261,"aught":4262,"Ġadditional":4263,"Ġquestion":4264,"uint":4265,"Ġeval":4266,"Entry":4267,"Configuration":4268,"Ġcomplete":4269,"Ge":4270,"Ġcut":4271,"]);":4272,"Ġvector":4273,"template":4274,"500":4275,"Utils":4276,"bin":4277,"ara":4278,"hood":4279,"Ġill":4280,"()->":4281,"Ġobtained":4282,"Unit":4283,"anced":4284,"Control":4285,"Top":4286,"ĠFirst":4287,"iers":4288,"ootstr":4289,"Ã¼":4290,"68":4291,"layer":4292,"Ġdefine":4293,"ifornia":4294,"ULT":4295,"Ġcirc":4296,"Ġrespons":4297,"citep":4298,"etch":4299,"ips":4300,"UP":4301,"Ġrelated":4302,"century":4303,"American":4304,"Level":4305,"Ġcorresponding":4306,"bool":4307,"Ġfig":4308,"ĠRef":4309,"Ġdetails":4310,"token":4311,"astic":4312,"Ġcentury":4313,"acters":4314,".$":4315,"ĠGL":4316,"Ġlen":4317,"ka":4318,"Ġdidn":4319,"Ġentry":4320,"AV":4321,"ili":4322,"./":4323,"KE":4324,"unn":4325,"Ġlearn":4326,"Ġintegr":4327,"abs":4328,"dated":4329,"Ġtoday":4330,"aur":4331,"Ġoperator":4332,"Op":4333,"Ġtim":4334,"Phi":4335,"57":4336,"Location":4337,"ĠDon":4338,"split":4339,"match":4340,"ened":4341,"Ag":4342,"aches":4343,"CODE":4344,"aign":4345,"Ġselected":4346,"orge":4347,"achine":4348,"atory":4349,"Open":4350,"float":4351,"omb":4352,"Ġrunning":4353,"Ġactually":4354,"vention":4355,"Parameter":4356,"command":4357,"tries":4358,"Ġcommit":4359,"idge":4360,"2021":4361,"break":4362,"97":4363,"document":4364,"ĠNews":4365,"Ġdefinition":4366,"ĠFrom":4367,"ĠDem":4368,"Tree":4369,"ootstrap":4370,"ĠĠĠĠĠĠĠĠĠĠĠĠĠĠĠĠĠĠĠĠĠ":4371,"Ġnumer":4372,"ria":4373,"Ġconnection":4374,"Ġoffset":4375,"atrix":4376,"Ġregular":4377,"Ġnews":4378,"ĠNor":4379,"avy":4380,"common":4381,"Container":4382,"Ġfloat":4383,"Bo":4384,"ĠIr":4385,"Process":4386,"Exec":4387,"Ġargs":4388,"root":4389,"Load":4390,"When":4391,"Ġnight":4392,"][":4393,"cr":4394,"lands":4395,"author":4396,"Post":4397,"irit":4398,"Co":4399,"hent":4400,"adow":4401,"dist":4402,"Ġdeal":4403,"kappa":4404,"sign":4405,"Ġparticip":4406,"ĠLog":4407,"ĠSub":4408,"What":4409,"icture":4410,"Ġalmost":4411,"should":4412,"under":4413,"Ġbuffer":4414,"ĠFrench":4415,"ming":4416,"ĠUs":4417,"ĠCour":4418,"Ġspecies":4419,"rict":4420,"Ġfit":4421,"eft":4422,"nected":4423,"unt":4424,"otimes":4425,"files":4426,"'),":4427,"([":4428,"edia":4429,"2002":4430,"\\%":4431,"CP":4432,"Ġapplic":4433,"XX":4434,"Ġprior":4435,"ully":4436,"ĠÃ":4437,"HO":4438,"Ġbirths":4439,"Ġcorrect":4440,"Ġexact":4441,"Ġnames":4442,"Ġ['":4443,"Script":4444,"Ġiter":4445,"ledge":4446,"ĠSee":4447,"ivil":4448,"ctx":4449,"Interface":4450,"Ġdynam":4451,"dot":4452,"Ġwhite":4453,"rics":4454,"cache":4455,"QL":4456,"ĠReturns":4457,"ategy":4458,"Range":4459,"Ġfront":4460,"That":4461,"Ġborn":4462,"tree":4463,"useum":4464,"buffer":4465,"98":4466,"})$":4467,"Ġpolitical":4468,"resource":4469,"Ġindependent":4470,"Ġneeded":4471,"criptor":4472,"anies":4473,"icult":4474,"values":4475,"Height":4476,"rief":4477,"expected":4478,"Ġpositive":4479,"more":4480,"{{":4481,"Ġremove":4482,"Ġfav":4483,">,":4484,"Ġreported":4485,"Ġestim":4486,"Ġexists":4487,"nabla":4488,"ĠDec":4489,"ĠFile":4490,"tml":4491,"Ġrights":4492,"ĠWhat":4493,"ensuremath":4494,"\"))":4495,"Ġimprov":4496,"Header":4497,"Ġtemper":4498,"Ġthing":4499,"Ġled":4500,"De":4501,"ube":4502,"atives":4503,"ĠIndia":4504,"Ġvirtual":4505,"thon":4506,"which":4507,"textit":4508,"Ġson":4509,"=\"../../../../../../":4510,"Ġrespectively":4511,"Ġcapt":4512,"subset":4513,"inn":4514,"ZE":4515,"Ġwebsite":4516,"Ġroom":4517,"oom":4518,"Ġprop":4519,"Ġautom":4520,"typ":4521,"Fig":4522,"ensive":4523,"stant":4524,"vey":4525,"58":4526,"ĠLaw":4527,"Ġneeds":4528,"Ġpolicy":4529,"Ġinternational":4530,"conf":4531,"Ġsolid":4532,"stitute":4533,"Callback":4534,"Ġincludes":4535,"ĠCenter":4536,"Hash":4537,"Ġpack":4538,"ĠCalifornia":4539,"quare":4540,"Ġdecl":4541,"Ġpain":4542,"%%":4543,"Search":4544,"Ġbi":4545,"Write":4546,"Ġobjects":4547,"Ġviol":4548,"Ġrecogn":4549,"IF":4550,"Ġconv":4551,"ĠRepublic":4552,"ĠAustralia":4553,"Sim":4554,"Ġphase":4555,"Ġ{}":4556,"lice":4557,"Ġthus":4558,"oring":4559,"icrosoft":4560,"grad":4561,"Ġdensity":4562,"96":4563,"stry":4564,"uit":4565,"Ġstar":4566,"Bl":4567,"artifactId":4568,"just":4569,"mbox":4570,"Ġexception":4571,"elt":4572,"Ġconver":4573,"Ġtell":4574,"omy":4575,"ĠOut":4576,"yes":4577,"ĠDi":4578,"Ġunique":4579,"wid":4580,"ĠTV":4581,"ĠUK":4582,"ĠIndian":4583,"uous":4584,"COLOR":4585,"Ġitself":4586,"Ġwhose":4587,"stylesheet":4588,"anger":4589,"56":4590,"Ġzero":4591,"MM":4592,"oted":4593,"IGN":4594,"uses":4595,"Ġhistor":4596,"Copy":4597,"Direct":4598,"RL":4599,"ĠAnt":4600,"Ġ~":4601,"models":4602,"ĠNe":4603,"Ġmarket":4604,"ĠPort":4605,"Description":4606,"arks":4607,"Ġsets":4608,"ART":4609,"Ġface":4610,"API":4611,"Ġfight":4612,"device":4613,"Ġfem":4614,"Ġserved":4615,"Ġtaking":4616,"MO":4617,"Ġsequence":4618,"ircle":4619,"Ġchall":4620,"ĠNS":4621,"Ġwords":4622,"Ġ*)":4623,"patch":4624,"Ġ;":4625,"Sigma":4626,"ĠDistrict":4627,"'],":4628,"Ġpers":4629,"utable":4630,"Ġmonths":4631,"Position":4632,"Http":4633,"cape":4634,"msg":4635,"ya":4636,"Ġdraw":4637,"ĠCreate":4638,"Ġtakes":4639,"ĠDavid":4640,"Ġforce":4641,"maz":4642,"Thread":4643,"edd":4644,"lor":4645,"Ġdig":4646,"han":4647,"Ġissue":4648,"bra":4649,"lood":4650,"anks":4651,"ĠPal":4652,"Ġcurrently":4653,"ĠVir":4654,"uri":4655,"Ġword":4656,"Ġsurface":4657,"Settings":4658,"agment":4659,"Ġprofession":4660,"Json":4661,"Ġbad":4662,"41":4663,"Ġequal":4664,"bb":4665,"'>":4666,"cos":4667,"ĠTO":4668,"aching":4669,"Ġwhole":4670,"ĉĠ":4671,"={":4672,"dat":4673,"Ġ::":4674,"modal":4675,"Ġconstr":4676,"Ġwriting":4677,"SO":4678,"LI":4679,"itude":4680,"Params":4681,"Ġroad":4682,"ĠMal":4683,"Ġexcept":4684,"Ġir":4685,"Ġprovides":4686,"Do":4687,"anish":4688,"Ġdescription":4689,"rs":4690,"Fe":4691,"ua":4692,"ĠStud":4693,"tim":4694,"ĠCO":4695,"Ġparty":4696,"Module":4697,"43":4698,"ĠGeneral":4699,"Ġcontr":4700,"Ġdoc":4701,"groupId":4702,"Ġproof":4703,"Project":4704,"ulated":4705,"ĠEngland":4706,"Ġlinear":4707,"Ġmonth":4708,"den":4709,"Ġcomment":4710,"Ġfire":4711,"ĠMod":4712,"Ġareas":4713,"cing":4714,"zz":4715,"Ġuses":4716,"aints":4717,"Ġmot":4718,"ario":4719,"drop":4720,"Ġfilename":4721,"Ġfailed":4722,"ACK":4723,"Ġcred":4724,"Empty":4725,"och":4726,"ĠSen":4727,"Ġmoney":4728,"None":4729,"iform":4730,"circ":4731,"hash":4732,"ĠSy":4733,"agon":4734,"ĠStreet":4735,"oyal":4736,"Ġpopular":4737,"aid":4738,"background":4739,"orizont":4740,"Ġconfiguration":4741,"Ġproduced":4742,"pecially":4743,"Option":4744,"Ġsort":4745,"Ġdistrict":4746,"stack":4747,"1999":4748,"Ġchannel":4749,"utor":4750,"ctor":4751,"ĉĉĊ":4752,"ECT":4753,"fill":4754,"Ġcharacters":4755,"ĠGerman":4756,"Ġhandle":4757,"images":4758,"ĠBlack":4759,"burg":4760,"Ġempty":4761,"kind":4762,"Ġtree":4763,"ĠPat":4764,"VAL":4765,"make":4766,"asc":4767,"RI":4768,"nes":4769,"nonumber":4770,"Ġinflu":4771,"cs":4772,"Ġexpression":4773,"ĠWork":4774,"ĠOb":4775,"SH":4776,"Gr":4777,"tains":4778,"ĠST":4779,"amera":4780,"BA":4781,"Ġbroad":4782,"Ø§":4783,"Ġpredict":4784,"ulations":4785,"\\[":4786,"ĠAssert":4787,"CA":4788,"entity":4789,"Current":4790,"Ġpercent":4791,"Ġtax":4792,"Local":4793,"Change":4794,"Ġepis":4795,"ĠHol":4796,"=\"_":4797,"fs":4798,"%;":4799,"Ġsoftware":4800,"Ġlost":4801,"Ġgenerated":4802,"Can":4803,"nap":4804,"Ġdistance":4805,"DIR":4806,"ĠSince":4807,"Ġsold":4808,"Ġstore":4809,"ĠJames":4810,"ĠChe":4811,"Rel":4812,"ĠDE":4813,"Ġsetting":4814,"oe":4815,"86":4816,"ĠRE":4817,"Ġdied":4818,"Ġpattern":4819,"Ġissues":4820,"Ġargument":4821,"History":4822,"Collection":4823,"Ġparams":4824,"before":4825,"atio":4826,"Ġmoved":4827,"dots":4828,"Port":4829,"border":4830,"cial":4831,"Ġnorth":4832,"Ġweight":4833,"widet":4834,"Ġrelationship":4835,"ĠPaul":4836,"Ġsend":4837,"SD":4838,"hing":4839,"debug":4840,"Ġ>=":4841,"Ġlearning":4842,"Ġmemory":4843,"Properties":4844,"Ġmulti":4845,"UB":4846,"Ġwait":4847,"87":4848,"ORT":4849,"Font":4850,"rea":4851,"Ġproposed":4852,"FO":4853,"Ġpadding":4854,"Ġstage":4855,"otes":4856,"Ġfather":4857,"ida":4858,"}}{":4859,"So":4860,"ado":4861,"erry":4862,"rote":4863,"}-":4864,"ĠCouncil":4865,"igen":4866,"GE":4867,"Integer":4868,"Document":4869,"Connection":4870,"gu":4871,"Ġselection":4872,"ening":4873,"wood":4874,"gn":4875,"Ġsupported":4876,"Ġwalk":4877,"{-":4878,"zer":4879,"TI":4880,"elves":4881,"ĠCanada":4882,"Ġscreen":4883,"Vert":4884,"Ġleading":4885,"ä¸":4886,"berg":4887,"Ġallowed":4888,"rupt":4889,"Serial":4890,"equal":4891,"Ġsound":4892,"ĠRead":4893,"Ġnatural":4894,"Ġpick":4895,"orizontal":4896,":(":4897,"NavBar":4898,"Ġregister":4899,"mission":4900,"win":4901,"centering":4902,"Ġalgorithm":4903,"Record":4904,"Ġfixed":4905,"ĠCup":4906,"eal":4907,"greg":4908,"ĠOpen":4909,"ĠSome":4910,"ĠEuropean":4911,"rd":4912,"Ġedge":4913,"Ġtag":4914,"issions":4915,"ios":4916,"\"));":4917,"delete":4918,"TER":4919,"ponents":4920,"Ġregard":4921,"Ġsex":4922,"ĠHam":4923,"ln":4924,"ĠJust":4925,"Ġinc":4926,"iation":4927,"ĠBuild":4928,"Ġcomes":4929,"widetilde":4930,"():":4931,"Ġfriend":4932,"ĠBook":4933,"then":4934,"Ġbehind":4935,"Ã¤":4936,"Ġattribute":4937,"Ġoverride":4938,"ĠService":4939,"(-":4940,"jection":4941,"Ġupon":4942,"ĠRober":4943,"Ġ\"\\":4944,"anges":4945,"INE":4946,"ursor":4947,"Ġfood":4948,"Ġarguments":4949,"Ġannounced":4950,"Ġpresident":4951,"Mon":4952,"Ġprec":4953,"Ġtelevision":4954,"ĠRiver":4955,"ALL":4956,"ATA":4957,"Ġdirectly":4958,"raz":4959,"auth":4960,"asons":4961,"Ġoutside":4962,"atur":4963,"Eng":4964,"olic":4965,"Dir":4966,"ago":4967,"Ġequation":4968,"Ġmatter":4969,"ĠChina":4970,"Ġque":4971,"Po":4972,"Le":4973,"ĠSection":4974,"pdf":4975,"Ptr":4976,"Ġclosed":4977,"cribe":4978,"Session":4979,"Ġhon":4980,"normal":4981,"Ġmid":4982,"$(":4983,"ĠBG":4984,"second":4985,"ĠDiv":4986,"uate":4987,"Ġforward":4988,"Store":4989,"DF":4990,"ĠSum":4991,"ĠMet":4992,"ds":4993,"ometry":4994,"rian":4995,"ĠDirect":4996,"ĠBel":4997,"Ġrot":4998,"?:":4999,"Ġonline":5000,"Ġcontract":5001,"thm":5002,"Ġneigh":5003,"ugins":5004,"alled":5005,"Operation":5006,"ĠThom":5007,"Ġpersonal":5008,"Ġtemplate":5009,"Ġparts":5010,"\\!":5011,"IR":5012,"plete":5013,"ictionary":5014,"Ġhit":5015,"Ġlikely":5016,"Ġdeveloped":5017,"Ġrelative":5018,"material":5019,"interface":5020,"sin":5021,"Ġcomplet":5022,"utive":5023,"Ġcontact":5024,"ws":5025,"ĠCr":5026,"&&":5027,"Prot":5028,"xis":5029,"arter":5030,"lymp":5031,"Ġlarger":5032,"Ġstri":5033,"Async":5034,"Ġxml":5035,"pop":5036,"Ġ(\"":5037,"ĠBer":5038,"ancial":5039,"ĠCheck":5040,"Ġwor":5041,"ying":5042,"Ġpassed":5043,"Ġmechan":5044,"ataset":5045,"Ġvariable":5046,"tog":5047,"inding":5048,"ilm":5049,"address":5050,"Vari":5051,"Ġquick":5052,"Ġundefined":5053,"{}":5054,"Ġimages":5055,"enced":5056,"PECT":5057,"&#":5058,"Ġstre":5059,"Ġdirection":5060,"51":5061,"Ġswitch":5062,"ĠChampionship":5063,"ooth":5064,"inated":5065,"etime":5066,"Menu":5067,"Ġign":5068,"het":5069,"Ġconduct":5070,"Core":5071,"Ġconsum":5072,"copy":5073,"Host":5074,"ining":5075,"incip":5076,"mid":5077,"Ġnote":5078,"My":5079,"ĠOR":5080,"ĠGod":5081,"---":5082,"Ġsouth":5083,"urren":5084,"Ġcompar":5085,"Ġdoing":5086,"Ġfactor":5087,"Ġestablish":5088,"join":5089,"structor":5090,"ĠMag":5091,"Ġinfo":5092,"send":5093,"Ġworked":5094,"ĠParty":5095,"parameter":5096,"band":5097,"ĠTime":5098,"agram":5099,"note":5100,"operator":5101,"Ġeffects":5102,"ĠRich":5103,"Ġexperiment":5104,"Ġproblems":5105,"elegate":5106,"ĠQue":5107,"Ã¶":5108,"Ġusers":5109,"iting":5110,"Ġmaximum":5111,"Ġscope":5112,"ĠException":5113,"Ġcandid":5114,"site":5115,"ashington":5116,"Me":5117,"/\\":5118,"CR":5119,"Ġincrease":5120,"Ġtold":5121,"pite":5122,"Ġhash":5123,"ĠArch":5124,"mas":5125,"ĠMor":5126,"Parser":5127,"SA":5128,"vas":5129,"76":5130,"Ġvers":5131,"(:":5132,"bert":5133,"Order":5134,"Ġinside":5135,"Ġhimself":5136,"Ġcompanies":5137,"Ġshall":5138,"weight":5139,"jo":5140,"pling":5141,"Match":5142,"Sk":5143,"Ġdegree":5144,"Ġdiscover":5145,"Ġsens":5146,"Ġaward":5147,"ĠDay":5148,"Icon":5149,"Inst":5150,"riate":5151,"Ġidea":5152,"Ġchanged":5153,"card":5154,"Ġarticle":5155,"Ġgives":5156,"Mar":5157,"ervices":5158,"ein":5159,"Ġweb":5160,"system":5161,"Ġrock":5162,"ĠHall":5163,"ynch":5164,"arily":5165,"Ġdifficult":5166,"Ġsus":5167,"Ġeffort":5168,"Ġgre":5169,"tee":5170,"room":5171,"Ġperformed":5172,"oul":5173,"ville":5174,"cp":5175,"Ġgoal":5176,"Ġwest":5177,"Down":5178,"Ġshare":5179,"255":5180,"vector":5181,"ixt":5182,"BO":5183,"ocal":5184,"had":5185,"Ġbenef":5186,"asic":5187,"Ġsecurity":5188,"cur":5189,"Names":5190,"aa":5191,"hr":5192,"ĠErr":5193,"Device":5194,"Ġactual":5195,"illing":5196,"ĠPre":5197,"Ġimpact":5198,"Impl":5199,"Parameters":5200,"rong":5201,"types":5202,"Reference":5203,"cover":5204,"Ġwatch":5205,"Sw":5206,"bon":5207,"footer":5208,"widget":5209,"olume":5210,"Ġsense":5211,"Ġjo":5212,"Stat":5213,"ĠNote":5214,"di":5215,"Ġplatform":5216,"ĠEnd":5217,"Ġindustry":5218,"Ġdam":5219,"Ġlooking":5220,"Ġsession":5221,"ston":5222,"ieved":5223,"irl":5224,"loor":5225,"imately":5226,"strict":5227,"mode":5228,"Ġ&=":5229,"Ġcast":5230,"Ġrule":5231,"Ġmind":5232,"Ġallows":5233,"STR":5234,"anning":5235,"pg":5236,"oundation":5237,"Ġsil":5238,"Ġago":5239,"Ġconnect":5240,"transform":5241,"ounter":5242,"AND":5243,"Ġlonger":5244,"DD":5245,"Iter":5246,"Sign":5247,"Ġansw":5248,"tabular":5249,"vents":5250,"Ġnumbers":5251,"dest":5252,"89":5253,"Left":5254,"export":5255,"ros":5256,"scal":5257,"alls":5258,"PL":5259,"Ġprogress":5260,"Ġequival":5261,"bootstrap":5262,"egment":5263,"internal":5264,"Ġbring":5265,"ĠDepartment":5266,"ye":5267,"Ġhot":5268,"ĠLem":5269,"Ġtour":5270,"54":5271,"1990":5272,"fg":5273,"Ġecho":5274,"Go":5275,"Ġnodes":5276,"prime":5277,"Ġvict":5278,"Rev":5279,"ERROR":5280,"Ġnothing":5281,"ĠResearch":5282,";->":5283,"Right":5284,"!!":5285,"\\]":5286,"Schema":5287,"ĠAward":5288,"track":5289,"Ġavoid":5290,"Use":5291,"Ġoperations":5292,"ĠChurch":5293,"52":5294,"Ġmilitary":5295,"ander":5296,"wner":5297,"env":5298,"Ġrev":5299,"Ġespecially":5300,"Ġcouple":5301,"adian":5302,"toString":5303,"nov":5304,"ĠPublic":5305,";\\":5306,"Mult":5307,"click":5308,"Ġten":5309,"EM":5310,"Ġimm":5311,"Ġeducation":5312,"Ġcampaign":5313,"exports":5314,"Ġitems":5315,"Ġimmedi":5316,"Ġdemon":5317,"Ġconstruction":5318,"very":5319,"foo":5320,"Sl":5321,"Ġwrote":5322,"Pass":5323,"SL":5324,"ĠMart":5325,"ini":5326,"=\"/":5327,"Ġdeep":5328,"300":5329,"Ġtro":5330,"Helper":5331,"Ġanaly":5332,"ani":5333,"docs":5334,"Ġaccur":5335,"Ġapply":5336,"ĠMap":5337,"Te":5338,"Ġmention":5339,"Net":5340,"ena":5341,"Vector":5342,"Ġoffice":5343,"ĠJack":5344,"hover":5345,"Ġprote":5346,",-":5347,"Ġrender":5348,"Tim":5349,"after":5350,"ĠHealth":5351,"ifying":5352,"atively":5353,"1000":5354,"iences":5355,"ĠGerm":5356,"1998":5357,"ederal":5358,"Track":5359,"Ġspeed":5360,"ĠBGCOLOR":5361,"ĠĠĠĠĠĠĠĠĠĠĠĠĠĠĠĠĠĠĠĠ":5362,"req":5363,"clude":5364,"Ġobserved":5365,"ĠInstitute":5366,"witter":5367,"mes":5368,"success":5369,"}+":5370,"language":5371,"ĠWilliam":5372,"ares":5373,"panel":5374,"53":5375,"Ġrank":5376,"Expression":5377,"Ġvillage":5378,"alax":5379,"Ġhours":5380,"ĠMusic":5381,"global":5382,"ĠĠĠĠĠĠĠĠĠĠĠĠĠĠĠĠĠĠĠĠĠĠĠĠĠĠĠĠĠĠĠĠĠĠĠĠĠĠĠ":5383,"ĠAng":5384,"hi":5385,"vm":5386,"iday":5387,"Ġmanagement":5388,"Ġheart":5389,"Ġprimary":5390,"cat":5391,"Ġhy":5392,"Ġreading":5393,"gs":5394,"PH":5395,"media":5396,"apse":5397,"ĠMac":5398,"Ġexisting":5399,"================================":5400,"ĠBen":5401,"arp":5402,"ĠRoad":5403,"ĠForm":5404,"Ġsymbol":5405,"Ġqual":5406,"fect":5407,"ĠAssociation":5408,"ĠFrance":5409,"istance":5410,"Ġplaying":5411,"ĠTHE":5412,"ao":5413,"Ġpolice":5414,"Ġthread":5415,"Ġprobably":5416,"ĠCourt":5417,"}]":5418,"ĠName":5419,"Template":5420,"Ġotherwise":5421,"ORD":5422,"Ġgetting":5423,"essor":5424,"Title":5425,"Ġreve":5426,"equals":5427,"\\{":5428,"that":5429,"ntax":5430,"Ġliving":5431,"Ġtransfer":5432,"Ġquality":5433,"78":5434,"term":5435,"outhern":5436,"But":5437,"ĠGoogle":5438,"Ġsimply":5439,"Ġopport":5440,"Decl":5441,"estamp":5442,"False":5443,"rael":5444,"Kind":5445,"ĠEq":5446,"afe":5447,"-->":5448,"Ġmodern":5449,"Ġdifference":5450,"ĠGeorge":5451,"PR":5452,"Ġetc":5453,"PS":5454,"Ġtoken":5455,"PT":5456,"Ġcompared":5457,"WE":5458,"bound":5459,"Ġeast":5460,"itar":5461,"Ġcoordin":5462,"Invalid":5463,"###":5464,"Ġarchitect":5465,"Ġemail":5466,"force":5467,"Que":5468,"van":5469,"Ġsignal":5470,"access":5471,"equiv":5472,"Ġscript":5473,"Ġelection":5474,"ĠPost":5475,"antic":5476,"Ġmor":5477,"||":5478,"ĠTheorem":5479,"component":5480,"joy":5481,"Ġinvolved":5482,"focus":5483,"handle":5484,"EQ":5485,"}=\\":5486,"Ġess":5487,"render":5488,"ĠCre":5489,"ĠNow":5490,"plugin":5491,"oute":5492,"help":5493,"Non":5494,"URE":5495,"Ġparse":5496,"icons":5497,"Ġcomponents":5498,"'m":5499,"Ġtechnology":5500,"ĠPress":5501,"free":5502,"Ġ})":5503,"west":5504,"annotation":5505,"ernel":5506,"Ġjav":5507,"Ġoffic":5508,"rum":5509,"icate":5510,"ĠAL":5511,"Long":5512,"Ġabs":5513,"Ġcentral":5514,"ĠCap":5515,"Ġanything":5516,"Ġdirector":5517,"MD":5518,"ĠOf":5519,"disabled":5520,"Ke":5521,"Ġstudies":5522,"iece":5523,"ĠEXPECT":5524,"400":5525,"Ġmale":5526,"Handle":5527,"Ġnecessary":5528,"ĠTrue":5529,"clusion":5530,"Ġdesigned":5531,"ĠGreen":5532,"direct":5533,"Exp":5534,"Ġphysical":5535,"ĠDate":5536,"2022":5537,"ĠWhile":5538,"onic":5539,"oader":5540,"pub":5541,"Ġdomain":5542,"GET":5543,"exception":5544,"Ġsaw":5545,"Ġaud":5546,"ano":5547,"Ġdelete":5548,"gin":5549,"Ġclasses":5550,"star":5551,"real":5552,"estival":5553,"Tool":5554,"vant":5555,"Classes":5556,"Dep":5557,"ker":5558,"Values":5559,"ĠTechn":5560,"xx":5561,"Ġtransition":5562,"ĠWashington":5563,"fony":5564,"Ġtherefore":5565,"high":5566,"Ġfun":5567,"Api":5568,"Ġquite":5569,"coin":5570,"Ġjoin":5571,"1996":5572,"edge":5573,"Ġcause":5574,"ership":5575,"Ġusually":5576,"Ġrepresentation":5577,"ĠOper":5578,"Ġlevels":5579,"Ġsymmet":5580,"illa":5581,"ymfony":5582,"Ġpresented":5583,")}\\":5584,"Ġfinite":5585,"Ġraise":5586,"del":5587,"Ġrace":5588,"Ġseems":5589,"Ġeffective":5590,"zeta":5591,"72":5592,"Ġproducts":5593,"elebr":5594,"overs":5595,"Ġscen":5596,"Ġextra":5597,"webkit":5598,"ional":5599,"Ġbutton":5600,"airs":5601,"coll":5602,"pring":5603,"ius":5604,"arth":5605,"range":5606,"ĠTable":5607,"sey":5608,"netic":5609,"Args":5610,"CS":5611,"Has":5612,"ĠCON":5613,"Ġsettings":5614,"People":5615,"PA":5616,"ipp":5617,"Ġtransport":5618,"Ġcompleted":5619,"Ġbelieve":5620,"Ġbooks":5621,"Application":5622,"ĠSam":5623,"ATH":5624,"session":5625,"Ġoptim":5626,"fn":5627,"ees":5628,"cloud":5629,"ĠRequ":5630,">();":5631,"Draw":5632,"Ġalt":5633,"imensional":5634,"Ġbasis":5635,"ospital":5636,"Ġnu":5637,"Ġâ":5638,"Ġdecision":5639,"Now":5640,"enum":5641,"ims":5642,"Ġupper":5643,"ORM":5644,"ĠYear":5645,"endar":5646,"Ġensure":5647,"ĠMem":5648,"Ġnamespace":5649,"Ġintroduced":5650,"custom":5651,"gebra":5652,"graph":5653,"ĠIS":5654,"Assert":5655,"OK":5656,"84":5657,"rome":5658,"Ġthroughout":5659,"Ġapplied":5660,"padding":5661,"ulate":5662,"Ġheader":5663,"Ġnovel":5664,"Ġdatabase":5665,"ufact":5666,"Ġacqu":5667,"ĠOur":5668,"Tests":5669,"Ġresources":5670,"rees":5671,"(*":5672,"ĠRun":5673,"Br":5674,"ĠScience":5675,"ĠLeg":5676,"Ġalthough":5677,"icker":5678,")=\\":5679,"Ġcache":5680,"Ġcontainer":5681,"Ð»":5682,"cup":5683,"ĠBay":5684,"Ġsoon":5685,"Ġteams":5686,"uple":5687,"Ġrules":5688,"inese":5689,"actor":5690,"settings":5691,"Ġinvestig":5692,"Ġdemonstr":5693,"eek":5694,"Ġfinally":5695,"Ġtransaction":5696,"connect":5697,"lemma":5698,"rier":5699,"Reader":5700,"isation":5701,"Definition":5702,"Ġassume":5703,"Ġerrors":5704,"1997":5705,"Ġsubs":5706,"SET":5707,"ĠBase":5708,"oder":5709,"Ġfollowed":5710,"ĠMer":5711,"Ġradio":5712,"Ġstarting":5713,"aws":5714,"iny":5715,"_;":5716,"Cal":5717,"dependency":5718,"Ġbehavior":5719,"car":5720,"]]":5721,"Ġopened":5722,"Ġnet":5723,"Ġgas":5724,"ĠBest":5725,"Ġcult":5726,"hest":5727,"Metadata":5728,"ĠAut":5729,"fort":5730,"Ġaltern":5731,"Ġdark":5732,"Ġnor":5733,"'.":5734,"insert":5735,"aved":5736,"ĠDet":5737,"erve":5738,"textwidth":5739,"lam":5740,"ĠMichael":5741,"Ġmother":5742,"Psi":5743,"ĠHel":5744,"ĠMat":5745,"Ġvariables":5746,"Ġang":5747,"}_\\":5748,"Mark":5749,"Ġconcern":5750,"Results":5751,"ĠOther":5752,"ores":5753,"ĠUnion":5754,"ĠCompany":5755,"\\\"":5756,"GB":5757,"reek":5758,"Ġrisk":5759,"Click":5760,"Ġevidence":5761,"itable":5762,"Ġcoming":5763,"ĠIsland":5764,"Ġyield":5765,"well":5766,"Ġabsol":5767,"sort":5768,"Ġtemperature":5769,"tty":5770,"porary":5771,"ĠJSON":5772,"white":5773,"Parent":5774,"ĠLou":5775,"rial":5776,"Ġboard":5777,"Render":5778,"indent":5779,"ĠRobert":5780,"Debug":5781,"Ver":5782,"Ġgave":5783,"Rect":5784,"ĠPy":5785,"$)":5786,"Ġjud":5787,"94":5788,"ifest":5789,"FT":5790,"Ġcountries":5791,"Red":5792,"ĠMary":5793,"82":5794,"Ġstaff":5795,"byte":5796,"Ġship":5797,"Ġtowards":5798,"icol":5799,"izations":5800,"`.":5801,"step":5802,"Ġminutes":5803,"Ġappoint":5804,">.":5805,"Ġlargest":5806,"gan":5807,"ĠCong":5808,"Ġpackage":5809,"Ġos":5810,"Num":5811,"Ġwoman":5812,"prox":5813,"enge":5814,"ici":5815,"isions":5816,"----------------------------------------------------------------":5817,"Ġinj":5818,"Ġmount":5819,"ĠĠĠĠĠĠĠĠĠĠĠĠĠĠĠĠĠĠ":5820,"Ġcollect":5821,"ona":5822,"rule":5823,"Ġer":5824,"1980":5825,"usion":5826,"ĠOver":5827,"framework":5828,"SION":5829,"ĠMr":5830,"urt":5831,"Ġprofessional":5832,"ĠAfrica":5833,"################":5834,"Ġmeet":5835,"ĠInc":5836,"Ġstatement":5837,"Ġconcept":5838,"CI":5839,"ĠDemocr":5840,"Ġsett":5841,"mselves":5842,"Ġsources":5843,"'ve":5844,"Ġtrying":5845,")^{":5846,"fields":5847,"ilies":5848,"Stack":5849,"Body":5850,"She":5851,"ĠMount":5852,"Ġsigned":5853,"las":5854,"ala":5855,"ĠFigure":5856,";<":5857,"ĠKe":5858,"Ġisn":5859,"Storage":5860,"ĠArmy":5861,"ĠTom":5862,"Argument":5863,"Ġwriter":5864,"uated":5865,"boolean":5866,"ĠTex":5867,"blockList":5868,"'))":5869,"Ġbyte":5870,"ĠAlex":5871,"bour":5872,"Ġ('":5873,"Ġadministr":5874,"}^\\":5875,"pers":5876,"aine":5877,"inct":5878,"ĠOlymp":5879,"Ðº":5880,"Ġasked":5881,"recated":5882,"Ġthemselves":5883,"ĠĠĠĠĠĠĊ":5884,"Ġchoice":5885,"Ġunderstand":5886,"92":5887,"omorph":5888,"__(":5889,"Ġlibrary":5890,"Dom":5891,"Ġroute":5892,"Ġincreasing":5893,"ĠJew":5894,"ĠRoman":5895,"Job":5896,"More":5897,"road":5898,"ĠWhite":5899,"acement":5900,"Ġdro":5901,"Ġeasy":5902,"aily":5903,"Ġsomeone":5904,"Mock":5905,"Ġholds":5906,"ĠHTML":5907,"Ġprobability":5908,"Ġmissing":5909,"ĠUse":5910,"icket":5911,"ipe":5912,"91":5913,"ĠFranc":5914,"category":5915,"Ġcop":5916,"double":5917,"ĠGermany":5918,"ĠHere":5919,"legal":5920,"ĠMath":5921,"ĠLO":5922,"ura":5923,"=\"../../../":5924,"Ġveh":5925,"eloc":5926,"ternet":5927,"Ġspin":5928,"ĠGold":5929,"aver":5930,"Ġclean":5931,"Ġwife":5932,"Ġ\\{":5933,"Note":5934,"Ġemer":5935,"atalog":5936,"ancy":5937,"romise":5938,"iller":5939,"mitted":5940,"Ġlayer":5941,"Ġshape":5942,"iders":5943,"za":5944,"alysis":5945,"ĠIO":5946,"ĠJer":5947,"Ġauth":5948,"Ġbecomes":5949,"}\"":5950,"Ġfeed":5951,"writ":5952,"NN":5953,"Ġfast":5954,"Ġjson":5955,"Ġorigin":5956,"anded":5957,"Ġtravel":5958,"vest":5959,"Ġdaught":5960,"sql":5961,"Ġgrowth":5962,"rapper":5963,"clos":5964,"FAULT":5965,"Ġdistributed":5966,"Ġrecently":5967,"Ġ'/":5968,"reement":5969,"Ġdirectory":5970,"replace":5971,"Policy":5972,"Ġsurv":5973,"Am":5974,"cdots":5975,"ĠError":5976,"ett":5977,"Ġinline":5978,"full":5979,"Ġeverything":5980,"peed":5981,"Ġextension":5982,"uting":5983,"Ġrob":5984,"ĠRob":5985,"register":5986,"Ġmovie":5987,"Byte":5988,"Boolean":5989,")-":5990,"Ġcontinued":5991,"Ġjoined":5992,"Bytes":5993,"`,":5994,"ðŁ":5995,"osen":5996,"callback":5997,"Ġcourt":5998,"ĠProject":5999,"ailed":6000,"93":6001,"Ġmanager":6002,"ĠDel":6003,"email":6004,"Ġsmaller":6005,"Cre":6006,"Enabled":6007,"mercial":6008,"Ġdescribe":6009,"Ġeditor":6010,"auto":6011,"Ġmus":6012,"Ġwanted":6013,"idents":6014,"onds":6015,"Ġhope":6016,"El":6017,"condition":6018,"liance":6019,"leep":6020,"ilton":6021,"alian":6022,"Ġbytes":6023,"Ġ${":6024,"ĠSociety":6025,"Ġrelig":6026,"Ġknowledge":6027,"Ġvolume":6028,"ynchron":6029,"Ġcorre":6030,"}|":6031,"Ġcharg":6032,"inger":6033,"Ġbottom":6034,"virtual":6035,"Ġord":6036,"ĠRoyal":6037,"mock":6038,"Ġproper":6039,"mathsf":6040,"Ġball":6041,"HTML":6042,"Ġsave":6043,"Delete":6044,"ĠInst":6045,")/":6046,"'ll":6047,"Ġsongs":6048,"ĠFe":6049,"PP":6050,"arts":6051,"Ġteach":6052,"63":6053,"ously":6054,"Ġpractice":6055,"Root":6056,"ĠAustralian":6057,"Ġcore":6058,"ĠAcadem":6059,"Ġsolutions":6060,"ĠValue":6061,"ĠNOT":6062,"Ġcontaining":6063,"Dialog":6064,"hy":6065,"widehat":6066,"Ġprep":6067,"toggle":6068,"Ġ++":6069,"Ġunsigned":6070,"ipeline":6071,"ĠTown":6072,"ĠProv":6073,"evelopment":6074,"Ġpreviously":6075,"Since":6076,"ĠClub":6077,"})\\":6078,"ĠMiss":6079,"ette":6080,"Se":6081,"Ġste":6082,"holder":6083,"oma":6084,"ĠRel":6085,"Ġenjoy":6086,"Any":6087,"ĠTrump":6088,"uby":6089,"ĠThus":6090,"liament":6091,"Ġrelation":6092,"1995":6093,"ĠLong":6094,"}}(":6095,"Ġrecomm":6096,"ĠEvent":6097,"Ġtests":6098,"ertific":6099,"Ġstay":6100,"ecause":6101,"NE":6102,"Ġlimited":6103,"shire":6104,"cpp":6105,"ems":6106,"Ġdead":6107,"plugins":6108,"Ġstars":6109,"fit":6110,"Ġmiddle":6111,"Ġ\"/":6112,"Ġschools":6113,"ĠReview":6114,"ĠVer":6115,"coq":6116,"olar":6117,"fil":6118,"ĠSuper":6119,"ĠSl":6120,"iring":6121,"qquad":6122,"oub":6123,"Ġunits":6124,"ror":6125,"LP":6126,"aled":6127,"Ġpatients":6128,"admin":6129,"reshold":6130,"Msg":6131,"ĠDan":6132,"Ġattr":6133,"OM":6134,"}:":6135,"ĠField":6136,"Living":6137,"product":6138,"ĠMad":6139,"Ġquantum":6140,"ĠUser":6141,"Ġanim":6142,"62":6143,"Ġloop":6144,"Ġsplit":6145,"Ġeight":6146,"Ġtrain":6147,"onder":6148,"keys":6149,"AGE":6150,"Ġhel":6151,"Ġpartial":6152,"Ġmis":6153,"Ġcounter":6154,"Ġstrict":6155,"END":6156,"Ġcluster":6157,"Writer":6158,"{(":6159,"ĠTur":6160,"Rule":6161,"ducation":6162,"Ġrepe":6163,"agger":6164,"acc":6165,"ki":6166,"lines":6167,"1970":6168,"inder":6169,"Ġgets":6170,"ĠAnn":6171,"application":6172,"160":6173,"cmd":6174,"ĠProgram":6175,"Ġlack":6176,"ĠMex":6177,"Ġconnected":6178,"ansion":6179,"ĠIsrael":6180,"ami":6181,"Each":6182,"Ġ<=":6183,"etic":6184,"Ġearlier":6185,"edy":6186,"Ġculture":6187,"Ġsaf":6188,"Ġprofile":6189,"apped":6190,"}^{(":6191,"Sum":6192,"ĠScott":6193,"asket":6194,"Ġtreatment":6195,"ĠMus":6196,"CTION":6197,"Ġimplementation":6198,"prove":6199,"ITY":6200,"TS":6201,"rot":6202,"store":6203,"ĠFore":6204,"Ġdeaths":6205,"Obj":6206,"ether":6207,"contrib":6208,"Ġstack":6209,"Ġreceive":6210,"Ġmarried":6211,"modules":6212,"Ġlock":6213,"matrix":6214,"Ġhous":6215,"FL":6216,"AME":6217,"Ġbal":6218,"hs":6219,"Doc":6220,"Ġexhib":6221,"tsd":6222,"Pop":6223,"Ġleave":6224,"Ġnature":6225,"ĠFin":6226,"Show":6227,"allow":6228,"comment":6229,"&=":6230,"pped":6231,"scr":6232,"Tab":6233,"Ġinvoke":6234,"pool":6235,"rey":6236,"LS":6237,"mi":6238,"atically":6239,"inate":6240,"FC":6241,"Ġpolitic":6242,"ky":6243,"Package":6244,"unicip":6245,"ĠBig":6246,"Ġfriends":6247,"short":6248,"Ġfully":6249,"eries":6250,"Main":6251,"ĠShow":6252,"ĠĠĠĠĠĠĠĠĠĠĠĠĠĠĠĠĠĠĠĠĠĠĠĠĠ":6253,"related":6254,"____":6255,"Ġremoved":6256,"rip":6257,"Ġbeginning":6258,"Changed":6259,"Ġboundary":6260,"Ġscore":6261,"BS":6262,"Ġmsg":6263,"spect":6264,"\")]":6265,"anguage":6266,"Ġstreng":6267,"ĠMuseum":6268,"Ġmut":6269,"Ġcapital":6270,"KEY":6271,"iments":6272,"Ġactivity":6273,"serve":6274,"resents":6275,"shot":6276,"Ġscient":6277,"password":6278,"ved":6279,"TEST":6280,"Ġmock":6281,"allel":6282,"Ġplaces":6283,"forms":6284,"Ġremains":6285,"Meta":6286,"Ġrail":6287,"ĠHen":6288,"ixel":6289,"ĠSal":6290,"Ġgenerate":6291,"Ġthreat":6292,"Ġrecorded":6293,"dule":6294,"Ġrequires":6295,"olf":6296,"icated":6297,"Ġinteresting":6298,"Di":6299,"ifies":6300,"Ġhum":6301,"Ġshared":6302,"hadoop":6303,"ĠAccording":6304,"enumer":6305,"Ġcritical":6306,"ĠChristian":6307,"variant":6308,"Ġcard":6309,"ĠHistory":6310,"oration":6311,"Ġdefe":6312,"plements":6313,"protobuf":6314,"ighest":6315,"Ġprevent":6316,"Ġcells":6317,"ĠAfrican":6318,"1994":6319,"TED":6320,"ectors":6321,"Custom":6322,"Ġpy":6323,"crete":6324,"Ġremain":6325,"oded":6326,"ibly":6327,"ĠThomas":6328,"reme":6329,"azine":6330,"Ġfra":6331,"79":6332,"61":6333,"74":6334,"Ġded":6335,"ech":6336,"Ġinterview":6337,"69":6338,"WS":6339,"Ġreserv":6340,"Art":6341,"eve":6342,"Fields":6343,"Ġdestroy":6344,"ĠMethod":6345,"dx":6346,"Ġattention":6347,"83":6348,"Ġprove":6349,"PRE":6350,"Ġplot":6351,"ĠTor":6352,"Ġflag":6353,"while":6354,"osph":6355,"Ġweak":6356,"Ġchurch":6357,"Ġfinished":6358,"Ġelectron":6359,"Ġbg":6360,"ĠYour":6361,"DL":6362,"sets":6363,"Ac":6364,"Ġones":6365,"lyph":6366,"ental":6367,"ensus":6368,"Ġfinancial":6369,"ĠSeries":6370,"iverse":6371,"ĠTexas":6372,"ĠModel":6373,"Ġexplicit":6374,"JECT":6375,"Ġbirth":6376,"ACE":6377,"ĠFinal":6378,"Ġ{};":6379,"nce":6380,"Ġruns":6381,"ora":6382,"ĠCentral":6383,"81":6384,"ynamic":6385,"SSERT":6386,"tip":6387,"items":6388,"DA":6389,"margin":6390,"1992":6391,"anned":6392,"grid":6393,"inline":6394,"ĠÎ":6395,"install":6396,"Widget":6397,"Ġgoes":6398,"istan":6399,"aud":6400,"ĠSmith":6401,"Ġinvolv":6402,"overnor":6403,"ategories":6404,"ĉĉĉĊ":6405,"stat":6406,"Ġss":6407,".~":6408,"ĠassertEquals":6409,"shape":6410,"}\\\\":6411,"ĠDivision":6412,"region":6413,"Ġnom":6414,"Ġlegal":6415,"Ġscience":6416,"Ġcelebr":6417,"aming":6418,"faces":6419,"Ġmeaning":6420,"linear":6421,"Ġjournal":6422,"none":6423,"Ġcharge":6424,"Ġ$(\\":6425,"Ġslow":6426,"Ġcalls":6427,"Ġwrong":6428,"ĠSur":6429,"atre":6430,"Ġways":6431,"Queue":6432,"Active":6433,"IX":6434,"Ġkilled":6435,"Const":6436,"ĠGreat":6437,"initial":6438,"Ġstand":6439,"Var":6440,"71":6441,"ĠChinese":6442,"ignment":6443,"Ret":6444,"ja":6445,"house":6446,"Ġpurch":6447,"73":6448,"ictor":6449,"Ġappeared":6450,"ĠPo":6451,"azz":6452,"ĠMo":6453,"Ġwallet":6454,"Ġplant":6455,"edit":6456,"Only":6457,"Ġquestions":6458,"Ġforces":6459,"Ġnegative":6460,"ested":6461,"omial":6462,"olver":6463,"agnost":6464,"Ġcook":6465,"MENT":6466,"Ġhtml":6467,"Ġblue":6468,"ĠLemma":6469,"=\"\">":6470,"Initial":6471,"ĠURL":6472,"EC":6473,"ĠJapanese":6474,"Ġbasic":6475,"BR":6476,"Ġfavor":6477,"ĠArg":6478,"Ġinstit":6479,"election":6480,"ĠDuring":6481,"ĠCarol":6482,"SU":6483,"ĠAv":6484,"attribute":6485,"Ġdise":6486,"bi":6487,"cut":6488,"ĠCopy":6489,"Ġepisode":6490,"ĠNO":6491,"Ġchain":6492,"itz":6493,"esh":6494,"Ġwide":6495,"udd":6496,"ĠPub":6497,"Pool":6498,"Ġinterpre":6499,"ita":6500,"ĠFoot":6501,"HECK":6502,"Network":6503,"etimes":6504,"ĠRussian":6505,"Ġsn":6506,"ĠKey":6507,"allery":6508,"EXT":6509,"coming":6510,"Ident":6511,"Ġserial":6512,"Ġbrought":6513,"Ġtrade":6514,"Ġmaintain":6515,"Ġproced":6516,"Ġlo":6517,"asy":6518,"Ġgalax":6519,"Ġforms":6520,"1993":6521,"JSON":6522,"Ġconsole":6523,"GS":6524,"Ġbeaut":6525,"Then":6526,"ĠGrand":6527,"}\\,":6528,"ĠWil":6529,"Ġmeas":6530,"Ġuseful":6531,"keyword":6532,"spring":6533,"FILE":6534,"tex":6535,"Ġicon":6536,"Ġseven":6537,"Ġvs":6538,"![":6539,"Ġ),":6540,"Ġbelong":6541,"ression":6542,"Auth":6543,"Ġconstit":6544,"ga":6545,"Send":6546,".*":6547,"Ġfigure":6548,"ĠTop":6549,"ĠLife":6550,"icks":6551,"TABLE":6552,"Descriptor":6553,"Ġapprop":6554,"sche":6555,"Ġappears":6556,"Ġcivil":6557,"Ġdb":6558,"^+":6559,"ĠHill":6560,"sur":6561,"enter":6562,"Ġpred":6563,"Ġinsp":6564,"orter":6565,"Timeout":6566,"Ġminimum":6567,"ĠView":6568,"Ġsen":6569,"utf":6570,"Ġpanel":6571,"Ġjavax":6572,"Ġscene":6573,"ĠAlso":6574,"Ġtransp":6575,"Ġrecover":6576,"ĠStar":6577,"Ġformed":6578,"256":6579,"ĠMont":6580,"radius":6581,"Ġsecret":6582,"Ġsubsequ":6583,"pute":6584,"Ġinteger":6585,"ĠWindow":6586,"numer":6587,"ĠFoundation":6588,"igration":6589,"Scope":6590,"ĠCommit":6591,"otic":6592,"dim":6593,"ĠFrank":6594,";/":6595,"Ġhor":6596,"Ġincreased":6597,"ĠRock":6598,"structure":6599,"Att":6600,"stop":6601,"Ġability":6602,"Ġdetermined":6603,"ĠAN":6604,"Ġga":6605,"hol":6606,"Ġkm":6607,"UID":6608,"Ġterr":6609,"Ġnative":6610,"ĠAssembly":6611,"annels":6612,"Ġ&\\":6613,"Ġcategory":6614,"connection":6615,"sample":6616,"Ġfair":6617,"anner":6618,"=\"@":6619,"TC":6620,"thread":6621,"Ġtouch":6622,"stats":6623,"Ġchalleng":6624,"addr":6625,"Ġbtn":6626,"scroll":6627,"iger":6628,"Ġdetermine":6629,"ingu":6630,"desc":6631,"osh":6632,"Ġgrant":6633,"Ġbank":6634,"eck":6635,"======":6636,"Transaction":6637,"Ġoverall":6638,"Ã§":6639,"Ġanti":6640,"ĠFrancis":6641,"plex":6642,"impl":6643,"~~~~":6644,"herit":6645,"abilities":6646,"Ġsaying":6647,"citet":6648,"dates":6649,"Ġmeeting":6650,"ĠWestern":6651,"Ġspent":6652,"names":6653,"eler":6654,"bitr":6655,"Ġlatest":6656,"ĠTim":6657,"Ġexactly":6658,"Ġpark":6659,"Ġreplaced":6660,"Ġgreater":6661,"results":6662,"ĠProf":6663,"ĠCamp":6664,"ishing":6665,"Ġdecre":6666,"yr":6667,"Ġstorage":6668,"MC":6669,"Ġapplications":6670,"duction":6671,"Display":6672,"ĠEv":6673,"jquery":6674,"Ġdecided":6675,"ï¼":6676,"km":6677,"printf":6678,"kr":6679,"Xml":6680,"(!":6681,"Ġprice":6682,"haps":6683,"ĠCath":6684,"Ġlives":6685,"ARY":6686,"ĠIP":6687,"Ġdimension":6688,"anda":6689,"Ġperfect":6690,"ango":6691,"enses":6692,"ady":6693,"Ġpresence":6694,"Ġactions":6695,"ĠGames":6696,"Account":6697,"Ġillustr":6698,"1991":6699,"[:":6700,"EO":6701,"ĠCall":6702,"dropdown":6703,"ircraft":6704,"ĠPeter":6705,"Ġfemale":6706,"ĠTem":6707,"]$":6708,"Ġmicro":6709,"Ġstudent":6710,"lers":6711,"ĠKore":6712,"Ġchoose":6713,"ĠCanadian":6714,"(){":6715,"Ġsports":6716,"Perm":6717,"Ġdaughter":6718,"Gu":6719,"atin":6720,".__":6721,"ĠPlay":6722,"Ġunknown":6723,"unsigned":6724,"Ġequivalent":6725,"Ġpen":6726,"Ġevolution":6727,"Symfony":6728,"Ġreached":6729,"alloc":6730,"Ġkeys":6731,"Ġlay":6732,"ĠPeople":6733,"Ġdebut":6734,"}+\\":6735,"Ġpul":6736,"acebook":6737,"ĠText":6738,"ĠDefault":6739,"uler":6740,"Ġidentity":6741,"Ñĥ":6742,"Ġcompletely":6743,"ĠĠĠĠĠĠĠĠĠĠĠĠĠĠĠĠĠĠĠĠĠĠĠĠ":6744,"approx":6745,"Ġeasily":6746,"Ġgun":6747,"=>":6748,"ĠMinister":6749,"Ġreach":6750,"ixture":6751,"=(":6752,"Support":6753,"Ġapi":6754,"Ġrap":6755,"ĠBill":6756,"profile":6757,"sect":6758,"Ġutil":6759,"Ġimmediately":6760,"Ġdirected":6761,"super":6762,"angular":6763,"pons":6764,"Lock":6765,"Ġresulting":6766,"ĠKingdom":6767,")))":6768,"Ġequip":6769,"Channel":6770,"ĠVol":6771,"Car":6772,"Ġframework":6773,"aser":6774,"Ġgold":6775,"bal":6776,"Ġdir":6777,"Ġmur":6778,"Ġdim":6779,"Ġgenerally":6780,"Ġmatches":6781,"argument":6782,"ancel":6783,"orida":6784,"ĠAND":6785,"ils":6786,"mazon":6787,"Ġscheme":6788,"Ġexternal":6789,"Ġdeliver":6790,"Ġ(*":6791,"ato":6792,"ĠĠĠĊ":6793,"ivacy":6794,"ĠHand":6795,"Ġcomputer":6796,"anta":6797,"Ġincor":6798,"move":6799,"Ġfix":6800,"Ġveloc":6801,"ellig":6802,"Ġturned":6803,"Ġ%}":6804,"uty":6805,"Ġbur":6806,"\">&":6807,"icago":6808,"ĠNumber":6809,"LOG":6810,"Ġeveryone":6811,"olec":6812,"çļ":6813,"Editor":6814,"ĠId":6815,"PORT":6816,"Ġpretty":6817,"Ġfamilies":6818,"Pattern":6819,"Ġstructures":6820,"ĠMax":6821,"Bit":6822,"ĠTwo":6823,"hentication":6824,"ĠAR":6825,"Extension":6826,"Ġparticularly":6827,"ĠRichard":6828,"Ġleader":6829,"uan":6830,"ifications":6831,"Ġtesting":6832,"Ġcref":6833,"Security":6834,"properties":6835,"Ġassist":6836,"Ġsometimes":6837,"ĠCommission":6838,"ĠCD":6839,"ĠOp":6840,"isl":6841,"points":6842,"present":6843,"Ġtraditional":6844,"ĠNetwork":6845,"]:":6846,"phone":6847,"Ġcoach":6848,"Ġweeks":6849,"Ġequations":6850,"Ġproduce":6851,"çļĦ":6852,"Ġawait":6853,"Ġorganization":6854,"oves":6855,"Ġprojects":6856,"ById":6857,"MAX":6858,"Ġmanufact":6859,"ĠSing":6860,"logger":6861,"reland":6862,"Logger":6863,"black":6864,"ĠÂ£":6865,"Ġshot":6866,"ali":6867,"assets":6868,"important":6869,"Ġhandler":6870,"lev":6871,"TEX":6872,"ĠFalse":6873,"ads":6874,"typed":6875,"Ġstories":6876,"ĠVirgin":6877,"fly":6878,"erc":6879,"elli":6880,"Ġhighest":6881,"Ġtit":6882,"ĠAcademy":6883,"Ġdrug":6884,"primary":6885,"pay":6886,"Ġsituation":6887,"flags":6888,"Ġrecords":6889,"ĠGen":6890,"?âĢĿ":6891,"oms":6892,"Ġhyp":6893,"akers":6894,"ĠMedia":6895,"git":6896,"ĠMel":6897,"record":6898,"Ġpublish":6899,"\"`":6900,"Final":6901,"Ġhighly":6902,"Ġinstanceof":6903,"Ġimprove":6904,"Ġalloc":6905,"screen":6906,"ĠTherefore":6907,"Ġbgcolor":6908,"Ġregions":6909,"bul":6910,"Ġhidden":6911,"Ġratio":6912,"Ġentity":6913,"hspace":6914,"Ġfrequency":6915,"()));":6916,"ository":6917,"Ġnorm":6918,"Ġbey":6919,"Ġ>>":6920,"Cle":6921,"tion":6922,"ĠJose":6923,"Ġgreen":6924,"ridge":6925,"ects":6926,"Ġrepresents":6927,"Ġmovement":6928,"ĠUnder":6929,"Conf":6930,"inv":6931,"save":6932,"uing":6933,"ĠMost":6934,"Cor":6935,"MB":6936,"ĠStep":6937,"=-":6938,"organ":6939,"neq":6940,"ĠGovernment":6941,"Memory":6942,"Ġactivities":6943,"}-\\":6944,"Don":6945,"VERSION":6946,"Ġpressure":6947,"typeof":6948,"assertEqual":6949,"Ġenter":6950,"Rest":6951,"Float":6952,"}}{\\":6953,"itiz":6954,"controller":6955,"NG":6956,"sych":6957,"Ġchem":6958,"Symbol":6959,"Ġstrategy":6960,"rb":6961,"atial":6962,"osing":6963,"Init":6964,"ella":6965,"Ġmedical":6966,"ĠBi":6967,"DS":6968,"nections":6969,"ussian":6970,"Ġbeyond":6971,"Before":6972,"Our":6973,"Ġdenote":6974,"Ġadopt":6975,"Ġpeak":6976,"IE":6977,"Member":6978,"events":6979,"SIZE":6980,"ĠBusiness":6981,"Ġinstr":6982,"'$":6983,"aste":6984,"master":6985,"Ġartists":6986,"@\"":6987,"Ġclick":6988,"Ġcoeff":6989,"Ġlisted":6990,")));":6991,"bes":6992,"Ġrestrict":6993,"Ġsamples":6994,"ĠSund":6995,"ĠSecond":6996,"ĠVersion":6997,"ashed":6998,"dem":6999,"*)":7000,"Struct":7001,"ĠLouis":7002,"defined":7003,"abit":7004,"thlet":7005,"ĠZeal":7006,"Found":7007,"Ġprincip":7008,"Ġbus":7009,"ĠColor":7010,"Ġremaining":7011,"Ġhappy":7012,"Step":7013,"Ġmix":7014,"{{\\":7015,"Ġparents":7016,"schema":7017,"ployment":7018,"security":7019,"riend":7020,"Ġextended":7021,"ROM":7022,"theorem":7023,"Ġimplies":7024,"job":7025,"ĠĠĠĠĠĠĠĠĠĠĠĠĠĠĠĠĠĠĠĠĠĠ":7026,"Flags":7027,"Ġmachine":7028,"Ġstra":7029,"ĠRegister":7030,"Grid":7031,"Ġcontinuous":7032,"Database":7033,"shall":7034,"bing":7035,"Ġworth":7036,"WA":7037,"ĠGame":7038,"cons":7039,"Ġprefer":7040,"Encod":7041,"Ġartist":7042,"Ġbul":7043,"Other":7044,"Loader":7045,"_->":7046,"Ġexam":7047,"PAR":7048,"queue":7049,"Ġslight":7050,"dimensional":7051,"shift":7052,"network":7053,"Ġplaced":7054,"txt":7055,"Ġeventually":7056,"1989":7057,"gence":7058,"PATH":7059,"////////////////////////////////":7060,"Ġneut":7061,"ĠCharles":7062,"Ġpor":7063,"ĠLos":7064,"Here":7065,"Ġowner":7066,"iki":7067,"Ġpush":7068,"Ġreli":7069,"Media":7070,"ologies":7071,"ydro":7072,"Ġradi":7073,"inem":7074,"Ġunless":7075,"ĠZealand":7076,"Ġprograms":7077,"theme":7078,"Ġnearly":7079,"}</":7080,"Av":7081,"notation":7082,"ĠVis":7083,"Ne":7084,"Expr":7085,"_,":7086,"Ġserious":7087,"ĠMA":7088,"kw":7089,"Ġgrand":7090,"hav":7091,"TV":7092,"ADD":7093,"Ġupdated":7094,"Directory":7095,"selected":7096,"avity":7097,"ĠJournal":7098,"irmed":7099,"Ġattributes":7100,"rev":7101,"Ġ\\|":7102,"arant":7103,"ĠBoard":7104,"andra":7105,"asketball":7106,"Ġoffers":7107,"Ġsurpr":7108,"Ã³n":7109,"]\\":7110,"Edit":7111,"1960":7112,"SR":7113,"ĠCongress":7114,"ĠSun":7115,"Ġfunc":7116,"ĠWomen":7117,"Ġ[[":7118,"enty":7119,"Activity":7120,"king":7121,"Ġunc":7122,"Ġcreating":7123,"Ġexamples":7124,"ĠOrder":7125,"definition":7126,"owers":7127,"Ġvoice":7128,"contin":7129,"Items":7130,"Ġmaster":7131,"oting":7132,"eds":7133,"Ġstated":7134,"Ð°Ð":7135,"yan":7136,"Ġfailure":7137,"Ġdetail":7138,"Prop":7139,"bad":7140,"Ġcaused":7141,"ĠCode":7142,"throws":7143,"NavBarCell":7144,"Matrix":7145,"Ġeconomic":7146,"ĠLake":7147,"Ġestimate":7148,"Ġpurpose":7149,"trigger":7150,"Ġopening":7151,"lg":7152,"Ġmoving":7153,"Ġsummer":7154,"tabs":7155,"ĠUSA":7156,"Ġ$.":7157,"Events":7158,"xspace":7159,"itemize":7160,"ucket":7161,"ĠAtt":7162,"ĠEngine":7163,"ĠHot":7164,"engine":7165,"ournament":7166,"ĠDen":7167,"Ġsteps":7168,"Ġextract":7169,".'":7170,"ĠRecords":7171,"Ġrepresented":7172,"Ġunion":7173,"kg":7174,"umni":7175,"Ġpool":7176,"family":7177,"war":7178,"Ġoccup":7179,"gg":7180,"ooks":7181,"Ġgiving":7182,"Ġquickly":7183,"erial":7184,"Ġprotocol":7185,"Ġharm":7186,"isms":7187,"Ġplease":7188,"weet":7189,"Ġmessages":7190,"Ġdrop":7191,"itation":7192,"ĠCons":7193,"Ġ-\\":7194,"domain":7195,"Ġagent":7196,"ĠExec":7197,"ĠSil":7198,")),":7199,"reedom":7200,"istrib":7201,"()).":7202,"Ġexc":7203,"manager":7204,"inf":7205,"Ġ[];":7206,"ĠTimes":7207,"echo":7208,"Ġvariety":7209,"ĠGood":7210,"webpack":7211,"ĠMass":7212,"posite":7213,"ola":7214,"ean":7215,"uke":7216,"Windows":7217,"LIC":7218,"Ġwaves":7219,"iques":7220,"Ġstudied":7221,"horizontal":7222,"Ġcommercial":7223,"Ġinsert":7224,"Internal":7225,"ollowing":7226,"Ġanswer":7227,")+":7228,"Ġstraight":7229,"oday":7230,"Rece":7231,"urrency":7232,"cf":7233,"Ġpoor":7234,"assertEquals":7235,"ĠLine":7236,"Ġimag":7237,"ĠIll":7238,"front":7239,"Ä±":7240,"Ġleague":7241,"Ġnoise":7242,"DC":7243,"Ġseparate":7244,"pository":7245,"rase":7246,"++;":7247,"Ġconserv":7248,";\"":7249,"Ġbuilder":7250,"Ġhighlight":7251,"NotNull":7252,"Del":7253,"Ġreduced":7254,"Ġabsolute":7255,"Ġcollege":7256,"{$":7257,"Protocol":7258,"look":7259,"Attributes":7260,"uter":7261,"Ġcomments":7262,"grade":7263,"Ġsurround":7264,"estion":7265,"Ġminor":7266,"Ġguitar":7267,"kin":7268,"ĠFlorida":7269,"=\"\"":7270,"istration":7271,"Ġdataset":7272,"napshot":7273,"Ġlif":7274,"Ġng":7275,"ĠRussia":7276,"istent":7277,"ĠOption":7278,"Ġessential":7279,"Ġneighbor":7280,"Ġblocks":7281,"geles":7282,"cb":7283,"Ġearn":7284,"Generic":7285,"ĠTODO":7286,"ĠBank":7287,"Iterator":7288,"enumerate":7289,"Ġcollabor":7290,"Ġprotect":7291,"Ġmagnetic":7292,"ĠDirector":7293,"ĠForce":7294,"Ġpm":7295,"amer":7296,"Ġwasn":7297,"undred":7298,"ĠParis":7299,"ĠItalian":7300,"total":7301,"riz":7302,"ĠNode":7303,"Ġreduce":7304,"aration":7305,"ĠHistor":7306,"128":7307,"Ġcli":7308,"Ġwild":7309,")).":7310,"home":7311,"Ġgeneration":7312,"Ġelem":7313,"aret":7314,"atible":7315,"IB":7316,"acket":7317,"ĠFilm":7318,"urred":7319,"1988":7320,"account":7321,"Author":7322,"ĠGeorg":7323,"ko":7324,"ĠĠĠĠĠĠĠĠĠĠĠĠĠĠĠĠĠĠĠĠĠĠĠĠĠĠĠĠĠĠĠĠĠĠĠĠĠĠĠĠĠĠĠ":7325,"tools":7326,"ocation":7327,"Ġmotion":7328,"Ġanyone":7329,"bu":7330,"Scale":7331,"ji":7332,"ny":7333,"ĠEducation":7334,"deg":7335,"Ġbrother":7336,"Ġrad":7337,"uly":7338,"Selector":7339,"Year":7340,"ĠUN":7341,"Ġsal":7342,"ima":7343,"area":7344,"ĠOffice":7345,"Ġremember":7346,"HR":7347,"Ġamb":7348,"ĠGa":7349,"limit":7350,"Ġbranch":7351,"ĠCommittee":7352,"Ġcompetition":7353,"Ġ=========":7354,"here":7355,"Ġplans":7356,"ĠFunction":7357,"ĠWill":7358,"ishes":7359,"Transform":7360,"Pi":7361,"123":7362,"ocker":7363,"ĠPan":7364,"ĠGl":7365,"Java":7366,"ĠChild":7367,"Ġ{'":7368,"Enc":7369,"handler":7370,"mo":7371,"|^":7372,"ertificate":7373,"Ġshoot":7374,"Ġfounded":7375,"jpg":7376,"Ġtab":7377,"BUG":7378,"olk":7379,"Ġelected":7380,"'d":7381,"igan":7382,"pa":7383,"irls":7384,"Ġlatter":7385,"entials":7386,"ĠSO":7387,"'])":7388,"Ġcarry":7389,"reset":7390,"riteria":7391,"miss":7392,"Ġmetric":7393,"ĠCast":7394,"Ġreports":7395,"ympt":7396,"hidden":7397,"onym":7398,"({\\":7399,"ĠAngeles":7400,"150":7401,"men":7402,"Inv":7403,"Ġuniform":7404,"Ġbattle":7405,"noindent":7406,"ĠUpdate":7407,"Ġpartners":7408,"poses":7409,"Ġinner":7410,")}{":7411,"Ġencoding":7412,"Ġvisual":7413,"Ġaspect":7414,"Term":7415,"Members":7416,"channel":7417,"Constr":7418,"udget":7419,"centr":7420,"Ġsch":7421,"Ġrelevant":7422,"ĠEarth":7423,"Close":7424,"ĠBur":7425,"Enum":7426,"RAN":7427,"Ġvisible":7428,"Desc":7429,"editor":7430,"iful":7431,"Ġletter":7432,"unched":7433,"Ġpassword":7434,"each":7435,"Ġfelt":7436,"vspace":7437,"Ġbuy":7438,"heast":7439,"ĠArts":7440,"Ġcapacity":7441,"Ġsufficient":7442,"Ġshowed":7443,"Ġarm":7444,"ih":7445,"Ġpages":7446,"Ġ\"\"":7447,"Plugin":7448,"jar":7449,"Adapter":7450,"rine":7451,"Ġbuildings":7452,"Ġappropriate":7453,")\">":7454,"anging":7455,"ĠIreland":7456,"SQL":7457,"ĠCle":7458,"Ġelectric":7459,"Ġpoly":7460,"Ġarbitr":7461,"Ġchosen":7462,"Ġready":7463,"Full":7464,"\",\"":7465,"Pub":7466,"Success":7467,"ĠPet":7468,"Ġinteg":7469,"Ġdigital":7470,"Ġcomparison":7471,"zone":7472,"Ġdriver":7473,"Ġmentioned":7474,"Panel":7475,"ĠVictor":7476,"wer":7477,"Ġagreement":7478,"itness":7479,"ĠOld":7480,"Ġtrust":7481,"Profile":7482,"Ġpiece":7483,"ĠMur":7484,"Ġfarm":7485,"Ġhands":7486,"Ġconsequ":7487,"ĠAust":7488,"ĠLin":7489,"ToString":7490,"Ġfourth":7491,"fail":7492,"aren":7493,"othing":7494,"Ġretr":7495,"Person":7496,"Ġdu":7497,")\"":7498,"Ġleads":7499,"Ġwind":7500,"Ġvertex":7501,"}'":7502,"typedef":7503,"hesis":7504,"Ġoccur":7505,"Ġheavy":7506,"ĠFre":7507,"ĠRail":7508,"ensed":7509,"UTF":7510,"Ġprocesses":7511,"fully":7512,"Ġaxis":7513,"ĠOh":7514,"ĠIts":7515,"Ġbroadcast":7516,"ĠChicago":7517,"ĠConfig":7518,"ĠJun":7519,"Ġaircraft":7520,"Ġalgebra":7521,"Public":7522,"ĠBrown":7523,"Ġfactors":7524,"ĠScot":7525,"ĠSecret":7526,"etailed":7527,"Ġio":7528,"Ġdepart":7529,"Ġplane":7530,"$_":7531,"herited":7532,"Ġrates":7533,"tmp":7534,"Ġasync":7535,"Ġalbums":7536,"Print":7537,"Ljava":7538,"norm":7539,"ĠTra":7540,"ests":7541,"erved":7542,"','":7543,"ĠBu":7544,"ĠEach":7545,"bytes":7546,"TA":7547,"Ġnotice":7548,"configuration":7549,"inos":7550,"ĠSol":7551,"->_":7552,"Ġip":7553,"Ġvote":7554,"ĠFestival":7555,"Ġspectrum":7556,"La":7557,"Graph":7558,"ien":7559,"zero":7560,"article":7561,"called":7562,"Ġlaunch":7563,"lie":7564,"Ġsetup":7565,"Ġshift":7566,"ĠKn":7567,"Section":7568,"oving":7569,"mathscr":7570,"Keys":7571,"ãĢ":7572,"MI":7573,"isters":7574,"cred":7575,"hens":7576,"Ġplays":7577,"Runtime":7578,"ONE":7579,"åı":7580,"switch":7581,"components":7582,"ynomial":7583,"operatorname":7584,"utch":7585,"Ġnetworks":7586,"Ġthr":7587,"sumer":7588,"getElement":7589,"Ġpoll":7590,"wa":7591,"itors":7592,"Ġsupp":7593,"Ġinvalid":7594,"ilation":7595,"vs":7596,"venue":7597,"external":7598,"Ġtrigger":7599,"acle":7600,"IPT":7601,"Ġdownload":7602,"ĠTeam":7603,"Ġinform":7604,"ĠTask":7605,"ĠLibrary":7606,"Ġ(_":7607,"Play":7608,"ĠØ":7609,"ĠDev":7610,"$}":7611,"Ġsegment":7612,"browser":7613,"wild":7614,"apers":7615,"Ġproviding":7616,"Ġidentified":7617,"SER":7618,"tests":7619,"aturday":7620,"Ã¨":7621,"Ġeth":7622,"ĠAlthough":7623,"Ġforeign":7624,"va":7625,"arian":7626,"blue":7627,"NULL":7628,"alo":7629,"Ġul":7630,"Ġembedd":7631,"Pay":7632,"Repository":7633,"âĢĿ.":7634,"Parse":7635,"iterator":7636,"ĠSocial":7637,"Ġdevices":7638,"Ġcompute":7639,"hem":7640,"Auto":7641,"Ġimplements":7642,"para":7643,"Ġderived":7644,"120":7645,"opl":7646,"ĠFacebook":7647,"Ġoriginally":7648,"Ġmajority":7649,"pan":7650,"contains":7651,"ĠDevelopment":7652,"Ġconsists":7653,"apply":7654,"axis":7655,"ĠBack":7656,"Ġoperators":7657,"STAT":7658,"Ġappointed":7659,"Duration":7660,"elease":7661,"Ġvelocity":7662,"Ġinfluence":7663,"Ġlaws":7664,"ĠĠĠĠĠĠĠĠĠĠĠĠĠĠĠĠĠĠĠĠĠĠĠĠĠĠĠĠĠĠĠĠĠĠĠĠĠĠĠĠĠĠĠĠĠĠĠĠĠĠĠĠĠĠĠĠĠĠĠĠĠĠĠĠ":7665,"Ġassess":7666,"idx":7667,">:":7668,"cient":7669,"Ġmill":7670,"cean":7671,"ULE":7672,"CRE":7673,"details":7674,"Ġhop":7675,"Ġbre":7676,"razil":7677,"Ġ\",":7678,"1987":7679,"Ġ×":7680,"Ġquarter":7681,"Ġ\"<":7682,"ĠVAL":7683,"minus":7684,"Proxy":7685,"ĠMartin":7686,"eval":7687,"ova":7688,"Ġcru":7689,"platform":7690,"Ġenable":7691,"aby":7692,":\\":7693,"power":7694,"metadata":7695,"ĠFree":7696,"uages":7697,"Ġfine":7698,"ĠAny":7699,"Global":7700,"ifically":7701,"Ġresolution":7702,"Ġmaps":7703,"Ġdesc":7704,"Ġdepth":7705,"Ġdepends":7706,"ĠJava":7707,"XML":7708,"ĠBre":7709,"Ġmission":7710,"icies":7711,"Ġreflect":7712,"Ġcandidate":7713,"Ġdraft":7714,"ĠTour":7715,"Ġbrief":7716,"ĠEqu":7717,"[$":7718,"ĠAirport":7719,"rf":7720,"parameters":7721,"Ġonto":7722,"}}_":7723,"Failed":7724,"Ġinteraction":7725,"John":7726,"Ġsites":7727,"Ġcompare":7728,"Ġnoted":7729,"agraph":7730,"ati":7731,"Ġsmooth":7732,"While":7733,"ters":7734,"ĠPoint":7735,"Ġfirm":7736,")}$":7737,"Ġseconds":7738,"ĠIOException":7739,"Fil":7740,"Ġcat":7741,"stitution":7742,"Ġut":7743,"Ġlooks":7744,"clusive":7745,"Ġjoint":7746,"Ġspread":7747,"Ġlib":7748,"Details":7749,"ĠSpanish":7750,"Ġindividuals":7751,"green":7752,"ĠServices":7753,"ĠĠĠĠĠĠĠĠĠĠĠĠĠĠĠĠĠĠĠĠĠĠĠĠĠĠĠĠĠ":7754,"1986":7755,"Ġhappen":7756,"$/":7757,"roke":7758,"ito":7759,"Ġdrive":7760,"Ġhar":7761,"Ġsquare":7762,"Ġexport":7763,"Ġblog":7764,"Ġbinary":7765,"ĠHome":7766,"Mat":7767,"\\,\\":7768,"Ġoptional":7769,"ĠDC":7770,"IST":7771,"Ġresponsible":7772,"ĠManagement":7773,"ĠAction":7774,"ĠDom":7775,"Ġopportunity":7776,"Ġ(-":7777,"Ġcritic":7778,"Ġinfin":7779,"Ġple":7780,"Ġenabled":7781,"Ġxmlns":7782,"mut":7783,"subs":7784,"Ġdoub":7785,"dp":7786,"erg":7787,"exists":7788,"Abstract":7789,"Ġwhom":7790,"Browser":7791,"Gen":7792,"~$":7793,"Ġclassical":7794,"Ġmixed":7795,"Ġinstalled":7796,"Common":7797,"Double":7798,"iro":7799,"riage":7800,"Med":7801,"ĠSummer":7802,"Ġsea":7803,"eller":7804,"BE":7805,"Ġbrowser":7806,"Ġwood":7807,"Feature":7808,"Ġrg":7809,"navList":7810,"ĠCatholic":7811,"Ġfans":7812,"Ġprim":7813,"Background":7814,"Ġapproximately":7815,"ĠPenn":7816,"Ġcalling":7817,"Ġappend":7818,"ĠJud":7819,"xs":7820,"Some":7821,"Ġhyper":7822,"chor":7823,"1985":7824,"Ġeigen":7825,"oret":7826,"Ñı":7827,"Dest":7828,"Ġblood":7829,"ĠLove":7830,"\\}$":7831,"Sample":7832,"1984":7833,"Ġtools":7834,"Ġestimated":7835,"Ġwid":7836,"ĠParam":7837,"Ġchance":7838,"achment":7839,"icine":7840,"FS":7841,"Ġpull":7842,"Ġreq":7843,"ĠMa":7844,"Ġdelay":7845,"Ġconflic":7846,"iling":7847,"underline":7848,"ĠEnter":7849,"inations":7850,"IND":7851,"Ġdisk":7852,"ĠCommun":7853,"Ġhol":7854,"Ġgirl":7855,"ĠWindows":7856,"Ġsignature":7857,"ĠRet":7858,"random":7859,"Variable":7860,"arc":7861,"Cap":7862,"Ġfn":7863,"Ġvan":7864,"Ġspaces":7865,"Ġsafety":7866,"ĠPM":7867,"Space":7868,"ĠStat":7869,"Ġheard":7870,"dialog":7871,"apes":7872,"Ġdiscussed":7873,"Ġmostly":7874,"Ġsafe":7875,"arden":7876,"ications":7877,"ester":7878,"Ġolder":7879,"Ġsociety":7880,"FR":7881,"pat":7882,"ancing":7883,"Ġpan":7884,"ĠHenry":7885,"Ġnation":7886,"Sche":7887,"Ġwave":7888,"ĠFootball":7889,"seud":7890,"Video":7891,"uz":7892,"Scroll":7893,"Ġcloud":7894,"asis":7895,"Ġtransl":7896,"Ġvertical":7897,"Ġaim":7898,"Register":7899,"Ġviews":7900,"ults":7901,"ĠMain":7902,"IA":7903,"storage":7904,"Mapping":7905,"ICE":7906,"getName":7907,"Ġpointer":7908,"Files":7909,"Ġeyes":7910,"Fail":7911,"ĠArab":7912,"claim":7913,"hide":7914,"Pointer":7915,"rich":7916,"Ġtheme":7917,"ski":7918,"Ġmagn":7919,"Ġacadem":7920,"Ġdespite":7921,"Ġprocessing":7922,"Ġnavigation":7923,"oles":7924,"ĠJim":7925,"READ":7926,"conn":7927,"Ġfle":7928,"Product":7929,"props":7930,"ĠLee":7931,"NT":7932,"Ġderiv":7933,"Ġthous":7934,"arsed":7935,"Ġfif":7936,"iciency":7937,"aylor":7938,"Ġcontrast":7939,"Ġspirit":7940,"Ġwat":7941,"ĠBO":7942,"May":7943,"ĠTH":7944,"Ġprem":7945,"FIG":7946,"Ġannual":7947,"Ġtraff":7948,"FFFF":7949,"Ġstations":7950,"ĠGets":7951,"Ġdisease":7952,"ĠAS":7953,"ĠVirginia":7954,"bel":7955,"ĠĠĠĠĠĠĠĠĠĠĠĠĠĠĠĠĠĠĠĠĠĠĠĠĠĠ":7956,"Ġadvant":7957,"Ġvoc":7958,"Ġalone":7959,"Ġraised":7960,"Ġrespond":7961,"Ġtypeof":7962,"Ġgrid":7963,"Ġwrap":7964,"Home":7965,"asion":7966,"Ġlab":7967,"LECT":7968,"High":7969,"Ġcommunities":7970,"acro":7971,"ĠCentre":7972,"}},":7973,"ĠHead":7974,"Func":7975,"Ġrecon":7976,"nel":7977,"texttt":7978,"Ġshowing":7979,"ĠMexico":7980,"rize":7981,"ĠInformation":7982,"tbody":7983,"ĠYoung":7984,"execute":7985,"Ġspot":7986,"Ġexpansion":7987,"iffer":7988,"protected":7989,"Route":7990,"ivery":7991,"osis":7992,"ographic":7993,"Ġmurder":7994,"ancer":7995,"Ġreject":7996,"ĠSunday":7997,"ĠPage":7998,"ĠLand":7999,"effect":8000,"%%%%":8001,"Ġencour":8002,"Are":8003,"-$":8004,"ĠOnly":8005,"Ġenh":8006,"prod":8007,"ĠLi":8008,"Ġmorning":8009,"found":8010,"shadow":8011,"Ġagreed":8012,"ĠValley":8013,"Ġcos":8014,"Collections":8015,"ĠEli":8016,"multicol":8017,"ĠStart":8018,"children":8019,"ĠInitial":8020,"Ġ\\(":8021,"Opt":8022,"FLA":8023,"Ġunderstanding":8024,"ĠHamilton":8025,"World":8026,"Py":8027,"Ġsynt":8028,"Ġsusp":8029,"Ġgoals":8030,"(__":8031,"ĠPower":8032,"Ġreader":8033,"ĠCopyright":8034,"_(":8035,"Ġ=======":8036,"tags":8037,"but":8038,"ookie":8039,"ĠOl":8040,"Ġserve":8041,"Ġphone":8042,"ashion":8043,"ĠSpec":8044,"ĠHash":8045,"uations":8046,"Layer":8047,"Example":8048,"standing":8049,"Ġcombined":8050,"ĠAwards":8051,"ĠMult":8052,"Ġ_{":8053,"}}}":8054,"JS":8055,"HS":8056,"ĠIran":8057,"Ġ?>":8058,"ĠPath":8059,"ĠWell":8060,"fire":8061,"Ġroll":8062,"Selected":8063,"ira":8064,"ĠParliament":8065,"Remove":8066,"Ġliterature":8067,"Ġreplace":8068,"ĠLandroid":8069,"=\"${":8070,"Ġended":8071,"Ġfeatured":8072,"Props":8073,"Ġtasks":8074,"Ġdistinct":8075,"iminal":8076,"ĠTre":8077,"multicolumn":8078,"Ġextrem":8079,"ĠFurther":8080,"headers":8081,"<\\":8082,"Ġaccom":8083,"pressed":8084,"Ġalleg":8085,"allclasses":8086,"ĉĉĉĉĉĉĉĉĉ":8087,"collapse":8088,"odd":8089,"colLast":8090,"ador":8091,"DT":8092,"Ġrequests":8093,"Ġmenu":8094,"Ġobvious":8095,"stone":8096,"Ġconcentr":8097,"iate":8098,"ĠWood":8099,"attributes":8100,"Constants":8101,"Ġtra":8102,"provider":8103,"Ġworkers":8104,"IVE":8105,"BP":8106,"gest":8107,"iana":8108,"collection":8109,"single":8110,"SY":8111,"Ġflat":8112,"adium":8113,"Ġdat":8114,"Ġraw":8115,"------------":8116,"Wrapper":8117,"Ġmys":8118,"ĠðŁ":8119,"Ġhence":8120,"Ġmodified":8121,"since":8122,"Texture":8123,"izable":8124,"Ġsizeof":8125,"ĠAtl":8126,"ĠMil":8127,"?>":8128,"Ġphil":8129,"ivial":8130,"going":8131,"mutable":8132,"Ġmobile":8133,"prefix":8134,"formance":8135,"Socket":8136,"These":8137,"Ġcombination":8138,"ĠBob":8139,"ĠIndex":8140,"depth":8141,"prev":8142,"ĠPass":8143,"Ġradius":8144,"Ġmaterials":8145,"Ġcurve":8146,"Google":8147,"uer":8148,"nil":8149,"awn":8150,"detail":8151,"hemat":8152,"Ġok":8153,"However":8154,"ĠTechnology":8155,"Ġmanaged":8156,"iano":8157,"Ġcreation":8158,"Ġwinning":8159,"AF":8160,"NOT":8161,"ishop":8162,"lig":8163,"Ġhundred":8164,"ĠPac":8165,"colFirst":8166,"ela":8167,"Ġaudio":8168,"ajax":8169,"Ġcoast":8170,"IMP":8171,"ocaml":8172,"ĠJo":8173,"Sync":8174,"wrapper":8175,"ĠIl":8176,"jango":8177,"she":8178,"mask":8179,"1950":8180,"Ġagree":8181,"Ġ[\"":8182,"itan":8183,"bot":8184,"pective":8185,"protocol":8186,"ĠAuthor":8187,"Ġpp":8188,"Ġdetection":8189,"Ġwall":8190,"compiler":8191,"ĠGlobal":8192,"MT":8193,"Ġoil":8194,"Single":8195,"ĠHaw":8196,"Area":8197,"Ġadapt":8198,"iced":8199,"Ġabstract":8200,"ierarch":8201,"endor":8202,"ffff":8203,"chen":8204,"services":8205,"Ġtheorem":8206,"ĠSpecial":8207,"Ġstrateg":8208,"Ġsignificantly":8209,"Ġedges":8210,"Ġgrowing":8211,"Ġintr":8212,"ĠLink":8213,"bits":8214,"ĠElect":8215,"Ġsummary":8216,"Engine":8217,"Category":8218,"Ġdiscussion":8219,"zen":8220,"special":8221,"Ġchart":8222,"ĠItaly":8223,"poss":8224,"Agent":8225,"They":8226,"ĠMP":8227,"Ġfactory":8228,"neg":8229,"low":8230,"Ġcolumns":8231,"1983":8232,"Ġclearly":8233,"Ġmask":8234,"plot":8235,"250":8236,"ĠSwed":8237,"Ġtruth":8238,"Ġprison":8239,"Ġfill":8240,"Ġidentify":8241,"fd":8242,"Ġconstructor":8243,"libr":8244,"Ġreasons":8245,"ĠReport":8246,"ĠPolicy":8247,"parser":8248,"iversal":8249,"Ġobservations":8250,"kins":8251,"Attr":8252,"Ġcentre":8253,"ĠPop":8254,"USE":8255,"when":8256,"Ġactor":8257,"ruby":8258,"ITE":8259,"ĠResource":8260,"Ġremained":8261,"Ġforced":8262,"osoph":8263,"Ġentered":8264,"Ġpositions":8265,"game":8266,"ĠRequest":8267,"Depend":8268,"ĠInteger":8269,"ups":8270,"Ġqueue":8271,"ALSE":8272,"Ġangle":8273,"filename":8274,"done":8275,"Ġice":8276,"Tags":8277,"Ġconsistent":8278,"ateway":8279,"Ġclin":8280,"attice":8281,"Ġadding":8282,"svg":8283,"Ġ$\\{":8284,"ÙĦ":8285,"Ġdog":8286,"VM":8287,"maven":8288,"Identifier":8289,"Ġctx":8290,"progress":8291,"Ġconstraints":8292,"ĠKar":8293,"etween":8294,"multi":8295,"\"><!--":8296,"ĠReact":8297,"ustrial":8298,"cknow":8299,"Ġ[],":8300,"Ġwants":8301,"ĠChief":8302,"plus":8303,"role":8304,"gers":8305,"ĠEven":8306,"Tx":8307,"sidebar":8308,"Ġcarried":8309,"Ġ{{":8310,"je":8311,"rick":8312,"TEXT":8313,"Ġchief":8314,"Ġedition":8315,"Ġmatching":8316,"Ġlaunched":8317,"Ġpert":8318,"Ġversions":8319,"ums":8320,"Ġlogger":8321,"Ġopin":8322,"Ġexchange":8323,"Simple":8324,"=#":8325,"Ġtx":8326,"ĠImage":8327,"ĠMicrosoft":8328,"ĠAM":8329,"OB":8330,"Prefix":8331,"Ġconvert":8332,"ĠAsia":8333,"aka":8334,"ĠMov":8335,"Ġarrest":8336,"LL":8337,"ĠjQuery":8338,"usband":8339,"hetic":8340,"people":8341,"enabled":8342,"Ġfederal":8343,"mann":8344,"tw":8345,"ello":8346,"MOD":8347,"Ġcommunication":8348,"Ġ\"-":8349,"Ġhelped":8350,"gorithms":8351,"Ġcamera":8352,"Find":8353,"Ġtypically":8354,"inant":8355,"ometric":8356,"emy":8357,"1982":8358,"builder":8359,"errors":8360,"Report":8361,"Ġring":8362,"}^{-":8363,"amm":8364,"unct":8365,"words":8366,"Character":8367,"OUT":8368,"ĠAmazon":8369,"Ġflags":8370,"Ġsales":8371,"Ġknew":8372,"equence":8373,"Ġlicense":8374,"ĠDown":8375,"Cred":8376,"Ġauthors":8377,"inet":8378,"<!":8379,"Trace":8380,"Ġsqu":8381,"Ġstarts":8382,"ĠTheir":8383,"Ġstrength":8384,"Ġformation":8385,"Ġformula":8386,"wall":8387,":#":8388,"pear":8389,"ACT":8390,"600":8391,"Ġlayout":8392,"ĠFriday":8393,"ĠMake":8394,"chain":8395,"Ġleaders":8396,"3333":8397,"username":8398,"eleted":8399,"Ġmunicip":8400,"Compar":8401,"Ġkept":8402,"hom":8403,"IGHT":8404,"Ġrare":8405,"ellar":8406,"Ġmetadata":8407,"ilarly":8408,"Ġcancer":8409,"Ġefforts":8410,"Ġproceed":8411,"Comment":8412,"Ġcoq":8413,"Ġclimate":8414,"ĠSar":8415,"expect":8416,"Ġtrial":8417,"Ġcitiz":8418,"ockey":8419,"Ġslightly":8420,"ĠWAR":8421,"ĠExt":8422,"fix":8423,"Ġking":8424,"trm":8425,"Ġcompact":8426,"Ġinterested":8427,"('.":8428,"Ġparticle":8429,"Ġleaving":8430,"Ġstock":8431,"Dem":8432,"Ġreadonly":8433,"elcome":8434,"Ġtherm":8435,"Nodes":8436,"Ġ\\;":8437,"amaz":8438,"elligence":8439,"Ð´":8440,"Ġmeasured":8441,"Ġnullptr":8442,"Ġcalc":8443,"ĠEcon":8444,"ĠĠĠĠĠĠĠĠĠĠĠĠĠĠĠĠĊ":8445,"Ġtried":8446,"ĠLocal":8447,"serial":8448,"ĠSaturday":8449,"ĠCarolina":8450,"ĠMiddle":8451,"()</":8452,"shared":8453,"junit":8454,"alyt":8455,"limits":8456,"Ġexistence":8457,"login":8458,"nn":8459,"users":8460,"ĠGi":8461,"Ġcontribution":8462,"adr":8463,"har":8464,"enable":8465,"decl":8466,".\");":8467,")|":8468,"Ġpolynomial":8469,"operation":8470,"HER":8471,"spirit":8472,"textrm":8473,"Ġbillion":8474,"ading":8475,"........":8476,"Ġaccuracy":8477,"ĠDesign":8478,"áĥ":8479,"Ġexperiments":8480,"Ġcosts":8481,"BAR":8482,"outer":8483,"ĠMos":8484,"uplic":8485,"Ġrect":8486,"ĠFort":8487,"Ġnp":8488,"ĠCross":8489,"ĠJones":8490,"writer":8491,"Ġadjust":8492,"swarm":8493,"pu":8494,"Ġpicture":8495,"ifiers":8496,"clean":8497,"%,":8498,"INFO":8499,"bury":8500,"Ġcontroller":8501,"bx":8502,"temp":8503,"onday":8504,"1979":8505,"Ġprefix":8506,"generated":8507,"About":8508,"ĠĠĠĠĠĠĠĠĠĠĠĠĠĠĠĠĠĠĠĠĠĠĠĠĠĠĠĠ":8509,"Ġcool":8510,"ĠAndroid":8511,"resources":8512,"Headers":8513,"Ġhear":8514,"eces":8515,"pattern":8516,"Ġparties":8517,"URI":8518,"Ġbecoming":8519,"Ġattract":8520,"stable":8521,"ĠIslam":8522,"Ġweap":8523,"\\'":8524,"Ġtensor":8525,"ĠEvery":8526,"kl":8527,"original":8528,"ĠIE":8529,"Ġpowerful":8530,"picture":8531,"ĠMessage":8532,"sel":8533,"800":8534,"Password":8535,"Ġalternative":8536,"Ġguarant":8537,"ĠCard":8538,"ĠTri":8539,"Progress":8540,"Ġhour":8541,"Game":8542,"Ġalumni":8543,"ropy":8544,"Ġappearance":8545,"Ġclaims":8546,"Ġdivision":8547,"DateTime":8548,"duled":8549,"subseteq":8550,"wildfly":8551,"ĠOlympics":8552,"poration":8553,"signature":8554,"plications":8555,"sys":8556,"Registry":8557,"Ġentries":8558,"footnote":8559,"DP":8560,"Ġefficient":8561,"ctrine":8562,"Help":8563,"aria":8564,"ndef":8565,"Ġmolec":8566,"ĠNav":8567,"Theta":8568,"Ġstrings":8569,"Ġsuccessfully":8570,"Ġisland":8571,"Ġgauge":8572,"ĠNAME":8573,"ĠEp":8574,"LINE":8575,"yer":8576,"cluded":8577,"Ġlisten":8578,"Ġverify":8579,"Ġui":8580,"Ġlic":8581,"Ġideas":8582,"ountry":8583,"Ġawarded":8584,"Ġexit":8585,"ĠIII":8586,"Ġsector":8587,"ĠBlue":8588,"Ġcovered":8589,"Ġarchitecture":8590,"Äģ":8591,"pet":8592,"Condition":8593,"Ġenv":8594,"Ġgovern":8595,"ĠLord":8596,"Ġdiagram":8597,"ĠLiber":8598,"ench":8599,"OST":8600,"ĠCommunity":8601,"CG":8602,"Ġautomatically":8603,"ĠSecurity":8604,"Ġoffered":8605,"feature":8606,"Ġflux":8607,"ĠHa":8608,"Ġwonder":8609,"unique":8610,"WN":8611,"Ġsurvey":8612,"Ġspeak":8613,")->":8614,"Ġhuge":8615,"Generator":8616,"Ġmusical":8617,"ĠPlan":8618,"porate":8619,"Statement":8620,"Ġtal":8621,"PU":8622,"Cluster":8623,"Ġprocedure":8624,"Summary":8625,"named":8626,"aling":8627,"loop":8628,"Player":8629,"Two":8630,"ewidth":8631,"issues":8632,";}":8633,"ĠSI":8634,">::":8635,"âĢĿ,":8636,"Ġ'<":8637,"Ġpartner":8638,"lyphicon":8639,"Ġpure":8640,"world":8641,"Total":8642,"stein":8643,"brief":8644,"Ġstored":8645,"Ġshop":8646,"Ġcycle":8647,"ĠTR":8648,"upload":8649,"ĠWal":8650,"{%":8651,"Ġpi":8652,"Ġpaid":8653,"odies":8654,"EV":8655,"ĠBrazil":8656,"ysical":8657,"Ġexperimental":8658,"rawn":8659,"CESS":8660,"forward":8661,"agent":8662,"how":8663,"Ġaware":8664,"HTTP":8665,"Ġtor":8666,"('#":8667,"Ġ{\"":8668,"Ġaffect":8669,"Ġbehavi":8670,"Ġremote":8671,"commit":8672,"nam":8673,"Ġminim":8674,"ĠHTTP":8675,"notes":8676,"Ġexcit":8677,"Microsoft":8678,"wp":8679,"ITION":8680,"Ġindicates":8681,"Shape":8682,"identifier":8683,"wan":8684,"cdn":8685,"player":8686,"Ġtechniques":8687,"fold":8688,"expr":8689,"1981":8690,"roduction":8691,"Ġeq":8692,"Region":8693,"ĠJohnson":8694,"esome":8695,"Ġhousehold":8696,"ĠSaint":8697,"Ġhappened":8698,"Ġparticles":8699,"âĢĺ":8700,"Ġsenior":8701,"Ġsoft":8702,"ĠEmp":8703,"Ġiniti":8704,"safe":8705,"ĠTwitter":8706,"CF":8707,"Ġincome":8708,"Ġofficer":8709,"Ġwriters":8710,"fc":8711,"Ġinterval":8712,"Resources":8713,"Ġheaders":8714,"Ġconstructed":8715,"Ġflex":8716,"apos":8717,"riority":8718,"ĠBoth":8719,"Ġexecution":8720,"atar":8721,"tc":8722,"ĠJac":8723,"Ġskip":8724,"igital":8725,"Ġcompl":8726,"Import":8727,"%)":8728,"nergy":8729,"Ġrelatively":8730,"Ġran":8731,"alg":8732,"rate":8733,"Ġfru":8734,"Ġdetailed":8735,"plan":8736,"EEEE":8737,"Ġfamous":8738,"Ġmaybe":8739,"Ġcontained":8740,"ĠPRO":8741,"Ġmonitor":8742,"Ġtrail":8743,"Ġstrugg":8744,"Î±":8745,"Ġmeasures":8746,"ĠCy":8747,"ĠHttp":8748,"ĠWales":8749,"Ġmetal":8750,"ĠSports":8751,"Bound":8752,"\"\"\"":8753,"Ġlooked":8754,"Ġcalculated":8755,"Ġrequirements":8756,"Ġdynamic":8757,"person":8758,"ĠIrish":8759,"ifold":8760,"Ġpod":8761,"oviet":8762,"Sort":8763,"Ġlived":8764,"ĠExample":8765,"usform":8766,"numerusform":8767,"Ġscored":8768,"TRUE":8769,"Delegate":8770,"indexOf":8771,"Ġpil":8772,"ĠMi":8773,"urer":8774,"Ġcharset":8775,"ĠCA":8776,"setminus":8777,"ĠDO":8778,"ĠJoseph":8779,"ĠWeek":8780,"ĠBow":8781,"Ġ],":8782,"ĠOriginal":8783,"Ġforest":8784,"Uri":8785,"Ġbrand":8786,"ĠRadio":8787,"iser":8788,"href":8789,"Ġreligious":8790,"Ġ\"$":8791,"Ġboy":8792,"ĠWay":8793,"Selection":8794,"springframework":8795,"Ġrac":8796,"RES":8797,"Ġfloor":8798,"Ġfish":8799,"Ġadj":8800,"ĠAccess":8801,"1976":8802,"fast":8803,"ĠGal":8804,"stra":8805,";\">":8806,"'));":8807,"xhtml":8808,"Ġfinish":8809,"life":8810,"RC":8811,"TIME":8812,"Ġdamage":8813,"owner":8814,"isc":8815,"ĠLab":8816,"ĠPak":8817,"Ø±":8818,"SM":8819,"Ġtraffic":8820,"Ġpairs":8821,"ĠTele":8822,"RT":8823,"ĠHuman":8824,"Ã£":8825,"ĠEr":8826,"imitive":8827,"Skip":8828,"testing":8829,"Ġpoet":8830,"Ġoccurs":8831,"Ġdoor":8832,"Ġil":8833,"circle":8834,"ĠConference":8835,"aligned":8836,"Ġ..":8837,"oston":8838,"Ġassigned":8839,"1978":8840,"Ġriver":8841,"ryst":8842,"Ġinnov":8843,"Ġpropag":8844,"pton":8845,"fixed":8846,"Ġshut":8847,"åĪ":8848,"emon":8849,"async":8850,"Ġdetect":8851,"Ġdict":8852,"Ġhusband":8853,"}}_{":8854,"ĠWhe":8855,"mediate":8856,"110":8857,"oplus":8858,"Ġhospital":8859,"Second":8860,"GO":8861,"Ġoccurred":8862,"Ġtracks":8863,"ĠUI":8864,"Fin":8865,"POST":8866,"essions":8867,"Install":8868,"two":8869,"uality":8870,"Ġpolar":8871,"structions":8872,"ĠBul":8873,"Ġformal":8874,"ifi":8875,"dy":8876,"ĠAff":8877,"Ġdecom":8878,"ĠSte":8879,"Ġstuff":8880,"ĠSupport":8881,"Ġscatter":8882,"ĠâĢ¦":8883,"rical":8884,"ĠNorthern":8885,"throw":8886,"Ġachiev":8887,"Ġsinger":8888,"ĠColumb":8889,"report":8890,"fi":8891,"ĠâĢ¢":8892,"uries":8893,"uv":8894,"BB":8895,"Ġstress":8896,"avor":8897,"ideos":8898,"fol":8899,"Ġphen":8900,"ĠKh":8901,"ĠWed":8902,"Language":8903,"DEFAULT":8904,"Ġvertices":8905,"Ġlett":8906,"checkbox":8907,"=\"$":8908,"Ġarbitrary":8909,"ĠAre":8910,"Ġfinding":8911,"Ġforeach":8912,"Ġsuc":8913,"amazon":8914,"Ġfootballers":8915,"Ð²":8916,"Ġowned":8917,"itage":8918,"ĠSand":8919,"CTYPE":8920,"Ġlat":8921,"ĠJewish":8922,"ĠMany":8923,"Ġbill":8924,"onical":8925,"Wallet":8926,"Ġodd":8927,".<":8928,"Multi":8929,"Ġrise":8930,"Role":8931,"Ġperhaps":8932,"Short":8933,"usters":8934,"ila":8935,"Ġru":8936,"STATE":8937,"Stats":8938,"vania":8939,"ĠVari":8940,"Ġdynamics":8941,"ĠWild":8942,"ĠCa":8943,"ulf":8944,"ĠProcess":8945,"urban":8946,"Ġhistorical":8947,"Ġrapid":8948,"ÑĮ":8949,"Ġmeant":8950,"Ġmiles":8951,"equality":8952,"amental":8953,"extern":8954,"Ġsomew":8955,"ustain":8956,"Ġcities":8957,"Subs":8958,"andon":8959,"ĠWater":8960,"Ġsupply":8961,"ĠCollection":8962,"Ġ$|":8963,"rift":8964,"Ġpartition":8965,"Ġthreshold":8966,"invalid":8967,"mir":8968,"Mer":8969,"flag":8970,"Ġarticles":8971,"Ġadvert":8972,"plates":8973,"nodes":8974,"Ġlabels":8975,"Figure":8976,"ea":8977,"Ġincreases":8978,"Bind":8979,"required":8980,"timeout":8981,"ĠSpain":8982,"Ġchallenge":8983,"Ġtoward":8984,"Conn":8985,"Ġvac":8986,"Ġreferred":8987,"diff":8988,"dc":8989,"ĠSQL":8990,"1972":8991,"warning":8992,"cher":8993,"1975":8994,"video":8995,"Ġcomputed":8996,"Ġtemp":8997,"Ġplus":8998,"Visible":8999,"Ġduration":9000,"Ġstudio":9001,"mond":9002,"Ñĭ":9003,"('/":9004,"Ġorganizations":9005,"gypt":9006,"'}":9007,"^^":9008,"ERS":9009,"Ġproducer":9010,"ĠApple":9011,"Ġproxy":9012,"Ġorient":9013,"Ids":9014,"ivation":9015,"Ġcontem":9016,"Ġrows":9017,"Ġexpressed":9018,"According":9019,"Ġoptimal":9020,"ĠCare":9021,"ĉĠĠĠĠĠ":9022,"Ġoperating":9023,"Ġachieve":9024,"Bean":9025,"Ġ).":9026,"^{-\\":9027,"ä»":9028,"Ġlands":9029,"Ġintended":9030,"Ġcontinues":9031,"1977":9032,"Ġregarding":9033,"1974":9034,"Ġconnections":9035,"Ġsymmetry":9036,"lik":9037,"LOCK":9038,"subfigure":9039,"CM":9040,"ifdef":9041,"Ġdifferences":9042,"ĠLOG":9043,"ĠElement":9044,"Ġscalar":9045,"Ġallowing":9046,"Ġkill":9047,"Ġapparent":9048,"ĠCustom":9049,"ummy":9050,"IDTH":9051,"Ġvehicle":9052,"Ġnumerous":9053,"blank":9054,"RR":9055,"Ġcouldn":9056,"FORM":9057,"ĠCH":9058,"Ġbounded":9059,"ĠJon":9060,"EEEEFF":9061,"Ġfraction":9062,"Ġsph":9063,"EST":9064,"linewidth":9065,"cores":9066,"asi":9067,"ĠSource":9068,"oes":9069,"Ġdepartment":9070,"ĠHon":9071,"ĠSoftware":9072,"ĠLead":9073,"pler":9074,"ansas":9075,"Ġtimeout":9076,"Ġregistered":9077,"groups":9078,"Ġrepresenting":9079,"Ġindicate":9080,"Encoded":9081,"ĠSir":9082,"Ġaf":9083,"cuss":9084,"During":9085,"about":9086,"Ġbalance":9087,"ourse":9088,"ĠTw":9089,"Ġmedal":9090,"PY":9091,"esian":9092,"Ġfear":9093,"nic":9094,"moz":9095,"socket":9096,"Ġlistener":9097,"Ġrevealed":9098,"Ġaw":9099,"sto":9100,"Ġmapping":9101,"ĠLight":9102,"Ġtranslate":9103,"ĠFamily":9104,"ĠCEL":9105,"illy":9106,"...</":9107,"DOCTYPE":9108,"month":9109,"Book":9110,"ĠBritain":9111,"Î¿":9112,"Ġspan":9113,"ĠNight":9114,"undefined":9115,"Ġprovider":9116,"sen":9117,"Ġstable":9118,"orial":9119,"Ġsucceed":9120,"ĠChristmas":9121,"Notes":9122,"EventListener":9123,"Ġdie":9124,"Ð¼":9125,"ĠArrayList":9126,"enger":9127,"Ġheat":9128,"Ġstreet":9129,"inity":9130,"ogen":9131,"Ġcultural":9132,"Using":9133,"Ġpet":9134,"LC":9135,"Ġinitially":9136,"Ġ($\\":9137,"Enter":9138,"ĠMen":9139,"Stop":9140,"ĠHy":9141,"assembly":9142,"cases":9143,"ĠDocument":9144,"ĠRest":9145,"np":9146,"Ġrgba":9147,"Ġdream":9148,"Ġsun":9149,"Mask":9150,"Eq":9151,"Ġcmd":9152,"\\}":9153,"ictures":9154,"ĠWilliams":9155,"Ġnine":9156,"Ġpropos":9157,"Ġimplemented":9158,"Ġconvers":9159,"Ġvalign":9160,"ĠNavy":9161,"odec":9162,"Ġbeat":9163,"Ġspatial":9164,"isted":9165,"ĠWall":9166,"Ġaudience":9167,"Ġfeet":9168,"Å¡":9169,"1968":9170,"Ġsupports":9171,"ulator":9172,"Framework":9173,"ampling":9174,"ĠLast":9175,"Ġreality":9176,"Ġflight":9177,"Comple":9178,"1973":9179,"Domain":9180,"Generated":9181,"ĠTaylor":9182,"ĠGre":9183,"Ġemission":9184,"Ġdebug":9185,"ĠCommand":9186,"Math":9187,"Ġdaily":9188,"picker":9189,"ourney":9190,"apy":9191,"uda":9192,"Email":9193,"_*":9194,"Ġdrink":9195,"Ġtopic":9196,"Ġparser":9197,"Ġsell":9198,"REQ":9199,"Further":9200,"Ġattacks":9201,"ursday":9202,"Ġdisabled":9203,"iteral":9204,"Ġmainly":9205,"Ġwarn":9206,"Ġcircle":9207,"ĠSign":9208,"ulty":9209,"istence":9210,"abeth":9211,"airman":9212,"ucky":9213,"()))":9214,"'\\":9215,"acks":9216,"awa":9217,"kens":9218,"ĠBecause":9219,"ĠSE":9220,"Ġnewsp":9221,"»¿":9222,"Arch":9223,"Cast":9224,"ĠSouthern":9225,"cert":9226,"Ġlies":9227,"umes":9228,"Ġchannels":9229,"Ġbasketball":9230,"(@":9231,"uts":9232,"console":9233,"Ġordered":9234,"Ġrestaur":9235,"Ġsatisfies":9236,"Äĩ":9237,"phy":9238,"ĠValid":9239,"idel":9240,"Ġmomentum":9241,"amin":9242,"ĠReal":9243,"ï»¿":9244,"Ġfiction":9245,"Flag":9246,"Ġ([":9247,"blog":9248,"ĠControl":9249,"NavBarFont":9250,"Ġbright":9251,"Ġsemi":9252,"Ġburn":9253,"Ġbind":9254,"Sm":9255,"INTER":9256,"ennis":9257,"ĠBlock":9258,"Ġbeautiful":9259,"^-":9260,"Ġsouthern":9261,"ĠProperty":9262,"Ġult":9263,"Ġdiscovered":9264,"DEBUG":9265,"Fragment":9266,"Ġconfirm":9267,"bro":9268,"Returns":9269,"Ã£o":9270,"Flow":9271,"Syntax":9272,"Ġahead":9273,"Ġcustomers":9274,"Ġequipment":9275,"Ġaccepted":9276,"ĠFI":9277,"Ġcommission":9278,"Ġinstances":9279,"wedge":9280,"/\"":9281,"Ġens":9282,"ĠFrancisco":9283,"syl":9284,"Ġjump":9285,"Ġassign":9286,"simple":9287,"ĠColl":9288,"ĠSearch":9289,"Best":9290,"Ġmeasurements":9291,"Ġpurs":9292,"ĠScotland":9293,"Ġfan":9294,"Ġtournament":9295,"athan":9296,"mc":9297,"ket":9298,"Ġconference":9299,"dagger":9300,"ĠVector":9301,"Ġapproaches":9302,"python":9303,"Namespace":9304,"Ġlocations":9305,"ĠDemocratic":9306,"rg":9307,"Ġ$[":9308,"ffect":9309,"Ġassumed":9310,"ĠSenate":9311,"Ġdanger":9312,"ĠMot":9313,"Ġleaves":9314,"oral":9315,"Ġvary":9316,"BI":9317,"lan":9318,"Ġdestination":9319,"']['":9320,"Ġwish":9321,"ĠJoe":9322,"Ġnotes":9323,"ĠKen":9324,"Ġboost":9325,"uce":9326,"Ġcorresponds":9327,"Ġrich":9328,"Ġdocuments":9329,"bg":9330,"Ġextr":9331,"views":9332,"rim":9333,"Ġattend":9334,"Ġkids":9335,"ĠAbout":9336,"\"],":9337,"Ġexplan":9338,"Ġinstruction":9339,"_+":9340,"Ġthinking":9341,"Ġsections":9342,"_{(":9343,"println":9344,"download":9345,"Ġdialog":9346,"irds":9347,"tor":9348,"rices":9349,"?\"":9350,"ĠFire":9351,"Ġmassive":9352,"agers":9353,"ĠHor":9354,"sn":9355,"Lin":9356,"Ġgalaxies":9357,"VD":9358,"Ġinterpret":9359,"ENSE":9360,"ĠHence":9361,"Ġelim":9362,"Ġconvention":9363,"Ġmarked":9364,"Ġgain":9365,"Ġscroll":9366,"ĠAndrew":9367,"uum":9368,"ĠOrgan":9369,"ĠMike":9370,"Miss":9371,"Program":9372,"Writ":9373,"cluster":9374,"Ġreserved":9375,"Ġanimation":9376,"Ġprops":9377,"101":9378,"orrow":9379,"ĠĠĠĠĠĠĠĠĠĠĠĠĠĠĠĠĠĠĠĠĠĠĠĠĠĠĠĠĠĠ":9380,"Services":9381,"ultural":9382,"hab":9383,"Ġdocumentation":9384,"Ġrecording":9385,"ĠTheatre":9386,"Interval":9387,"Ġzone":9388,"unities":9389,"Look":9390,"oton":9391,"Ġtransparent":9392,"Ġadvantage":9393,"facebook":9394,"ixels":9395,"Ġlabor":9396,"complete":9397,"Ġmechanism":9398,"ĠPacific":9399,"Ġcars":9400,"pull":9401,"large":9402,"unte":9403,"ĠUsing":9404,"water":9405,"blem":9406,"enant":9407,"Methods":9408,"Ġmd":9409,"loader":9410,"checked":9411,"eli":9412,"Ġnorthern":9413,"uesday":9414,"trace":9415,"Ġcontributions":9416,"RPC":9417,"Ġhers":9418,"ĠANY":9419,"ĠQueen":9420,"Ġpal":9421,"sa":9422,"fx":9423,"hard":9424,"Ġusage":9425,"ĠLuc":9426,"Ġphoto":9427,"Dictionary":9428,"Ġfresh":9429,"Ġgap":9430,"Vir":9431,"Ġplanning":9432,"Ġapproximation":9433,"ĠNAV":9434,"125":9435,"Ġachieved":9436,"ĠLy":9437,"Ġ];":9438,"ĠWalk":9439,"ĠRights":9440,"Ġfocused":9441,"Ġ}\\":9442,"ĠMid":9443,"ogy":9444,"Ġearth":9445,"æľ":9446,"una":9447,"ĠPolice":9448,"Ġcrow":9449,"General":9450,"!\"":9451,"eper":9452,"Ġtrib":9453,"Native":9454,"ĠChris":9455,"ĠEND":9456,"Ġseat":9457,"mouse":9458,"Ġsmart":9459,"ĠRo":9460,"Ġignore":9461,"cha":9462,"Ġmultip":9463,"Early":9464,"Ġcapture":9465,"Ġtrend":9466,"icients":9467,"Ġtransformation":9468,"*{":9469,"WR":9470,"Notification":9471,"ÐµÐ½":9472,"Ġtend":9473,"'_":9474,"azy":9475,"English":9476,"ĠJersey":9477,"ĠUkr":9478,"ni":9479,"Ġmagazine":9480,"Ġclaimed":9481,"Scal":9482,"Ġisol":9483,"Ġflo":9484,"jd":9485,"resolve":9486,"ĠCivil":9487,"Ġparallel":9488,"1971":9489,"Pair":9490,"Ġprotection":9491,"atever":9492,"Ġskills":9493,"ĠallClasses":9494,"Ġ$$":9495,"orders":9496,"Ġidx":9497,"ione":9498,"1969":9499,"tar":9500,"ĠCommon":9501,"æĸ":9502,"FE":9503,"SK":9504,"Ġbenefit":9505,"Ġlearned":9506,"ĠSea":9507,"sylvania":9508,"ĠMedical":9509,"ĠJackson":9510,"Ġchanging":9511,"ĠPrem":9512,"Ġstatistics":9513,"ĠallClassesLink":9514,"PROJECT":9515,"Animation":9516,"Ġcorner":9517,"Len":9518,"Join":9519,"ĠASSERT":9520,"Ġturns":9521,"Sur":9522,"poly":9523,"Ġtechnical":9524,"ĠRam":9525,"Ġther":9526,"selector":9527,"Ġplugin":9528,"uite":9529,":`":9530,"Ang":9531,"Ġends":9532,"oked":9533,"reatest":9534,"Ġappre":9535,"Ġsecondary":9536,"ĠBern":9537,"Children":9538,"lipse":9539,"Ġpolitician":9540,"pair":9541,"Ġcancel":9542,"Ġtypical":9543,"ilters":9544,"Ġcredit":9545,"VALUE":9546,"Ġrecommend":9547,"ĠSong":9548,"Ġ^":9549,"rastructure":9550,"Ġofficials":9551,"SELECT":9552,"eld":9553,"amps":9554,"Ġcounty":9555,"Ġtrace":9556,"Ġjobs":9557,"Ġhydro":9558,"Ġfreedom":9559,"PER":9560,"Cloud":9561,"ĠJeff":9562,"Free":9563,"ogram":9564,"Ġ>>>":9565,"Enumer":9566,".\",":9567,"PM":9568,"Ġnumerical":9569,"bc":9570,"ĠJes":9571,"flex":9572,"Ġbrain":9573,"Ġvictory":9574,"ĠInternet":9575,"oped":9576,"/_":9577,"estic":9578,"ĠRos":9579,"ĠBoolean":9580,"Ġarmy":9581,"ĠMuslim":9582,"Ġinstant":9583,"180":9584,"Ġresidents":9585,"enth":9586,"Ġuniversity":9587,"Ġeconomy":9588,"clone":9589,"Ġfrag":9590,"adel":9591,"Ġexecute":9592,"Environment":9593,"Ġcoordinates":9594,"Ġextend":9595,"ĠWho":9596,"Ġdedicated":9597,"ÙĨ":9598,"raq":9599,"optional":9600,"abil":9601,"Elements":9602,"ĠFund":9603,";)":9604,"hu":9605,"Ġseed":9606,"ĠRay":9607,"ĠGeorgia":9608,"transition":9609,"Ġconfigure":9610,"Ġcolon":9611,"ollary":9612,"Ġinvestigation":9613,"Ġdepending":9614,"Ġseasons":9615,"Ġpaths":9616,"Ġcorrelation":9617,"Ġsister":9618,"Day":9619,"Ġattended":9620,"Contact":9621,"ĠCoast":9622,"imated":9623,"orient":9624,"Ġresolve":9625,"Ġenum":9626,"Ġfeat":9627,"verb":9628,"Ġbed":9629,"ĠCamb":9630,"ĠGreek":9631,"Ġtranslation":9632,"pag":9633,"ugby":9634,"Ġspecify":9635,"ĠMoreover":9636,"ĠTro":9637,"Ġbounds":9638,"Ġconfirmed":9639,"Ġrat":9640,"orough":9641,"atters":9642,"Ġissued":9643,"213":9644,"Ġnuclear":9645,"supported":9646,"ez":9647,"tk":9648,"idae":9649,"highlight":9650,"ĠPlease":9651,"produ":9652,"ĠInput":9653,"Sequence":9654,"ĠEnt":9655,"ĠLittle":9656,"1967":9657,"Required":9658,"watch":9659,"Ġbuf":9660,"Ġspeech":9661,"Ġsimulation":9662,"SCR":9663,"Ġpatient":9664,"ĠFar":9665,"cheduler":9666,"vin":9667,"onal":9668,"Ġtypename":9669,"objects":9670,"Ġhappens":9671,"bas":9672,"Ġalgorithms":9673,"Ġofficers":9674,"nesday":9675,"Ġtsd":9676,"Ġgather":9677,"ĠMonday":9678,"ĠNet":9679,"uzz":9680,"Real":9681,"Ġclassification":9682,"ĠLim":9683,"Ġmodes":9684,"burgh":9685,"oir":9686,"ĠMajor":9687,"MODULE":9688,"Ġdriving":9689,"mic":9690,"Ġgone":9691,"Ġintroduce":9692,"zure":9693,"istical":9694,"Ġanalyt":9695,"Ġfre":9696,"Ġadministration":9697,"VALID":9698,"Ġconducted":9699,"ifndef":9700,"Ġtrees":9701,"ĠBas":9702,"ses":9703,"Ġcontents":9704,"ĠFind":9705,"isa":9706,"ĠDaniel":9707,"Admin":9708,"Ġdrama":9709,"Ġimportance":9710,"Ġactress":9711,"assandra":9712,"ronic":9713,"Ġdefense":9714,"Ġpsych":9715,"cli":9716,"amel":9717,"peat":9718,"UD":9719,"onto":9720,"ĠassertThat":9721,"Ġmotor":9722,"DATA":9723,"atomic":9724,"COMP":9725,"ĠNon":9726,"ĠVan":9727,"ĠFROM":9728,"ĠSpace":9729,"(\"/":9730,"Ġtells":9731,"Ġexcell":9732,"ĠLive":9733,"ĠEmpire":9734,"Ġmeta":9735,"sky":9736,"Capt":9737,"QU":9738,"Ġsuggested":9739,"Care":9740,"Ġdemand":9741,"ĠStandard":9742,"Begin":9743,"ĠBattle":9744,"Ġ|\\":9745,"Ġapplicable":9746,"Ġpossibly":9747,"USER":9748,"Many":9749,"Ġproved":9750,"ANCE":9751,"ĠGuide":9752,"periment":9753,"Compat":9754,"Dev":9755,"Ġaggreg":9756,"Ġassumption":9757,"Ġthick":9758,"Ġbudget":9759,"Ġlattice":9760,"Ã±":9761,"ĠConf":9762,"helper":9763,"Ġplanet":9764,"TT":9765,"RS":9766,"ĠWin":9767,"Ġtmp":9768,"ĠLie":9769,"1940":9770,"Ġexplain":9771,"Ġsport":9772,"friend":9773,"Volume":9774,"ĠNE":9775,"zip":9776,"Ġspectral":9777,"ifer":9778,"inator":9779,"Ġpurposes":9780,"Ġ\\\"":9781,"à¥":9782,"ĠLu":9783,"'];":9784,"gi":9785,"extension":9786,")_{":9787,"à¸":9788,"CB":9789,"once":9790,"Ġintegral":9791,"Ġkernel":9792,"Cons":9793,"Ġtrained":9794,"aya":9795,"Vertex":9796,"apis":9797,"rad":9798,"Ġschema":9799,"Ġbelieved":9800,"issue":9801,"yy":9802,"ĠNext":9803,"Tra":9804,"sex":9805,"runtime":9806,"Mouse":9807,"METH":9808,"Ġeye":9809,"Ġbin":9810,"Ġcandidates":9811,"proxy":9812,"Private":9813,"Ġwarm":9814,"ran":9815,"tained":9816,"care":9817,"ingly":9818,"ĠBad":9819,"ĠPH":9820,"Ġdegrees":9821,"ĠBoston":9822,"Ign":9823,"VE":9824,"flat":9825,"Ġinequality":9826,"ushed":9827,"factory":9828,"Ġconsult":9829,"Ġfragment":9830,"ĠOx":9831,"{\"":9832,"Ġ'\\":9833,"dependent":9834,"mosph":9835,"Ġpolicies":9836,"ĠCarl":9837,"onom":9838,"Ġcoupling":9839,"Ġshell":9840,"Ġcoverage":9841,"Ġchampionship":9842,"visible":9843,"ibli":9844,"release":9845,"ÏĦ":9846,"setup":9847,"creens":9848,"Ġcrime":9849,"Ġtalking":9850,"Åį":9851,"Save":9852,"Ġbegins":9853,"Ġax":9854,"ĠJustice":9855,"Ġexpanded":9856,"evin":9857,"Ĥ¬":9858,"Ġinstrument":9859,"Div":9860,"Ġlisting":9861,"Execution":9862,"ĠNY":9863,"ĠMic":9864,"ĠMichigan":9865,"seg":9866,"Hz":9867,"ANT":9868,"Ġbridge":9869,"REG":9870,"Ġfellow":9871,"Append":9872,"Db":9873,"bigg":9874,"puter":9875,"inois":9876,"animation":9877,"getValue":9878,"hl":9879,"Named":9880,"\"].":9881,"ĠÐ¿":9882,"1945":9883,"Ġcouncil":9884,"Ġvocals":9885,"Ġsides":9886,"ĠSIZE":9887,"Ġinteractions":9888,"empt":9889,"1964":9890,"chester":9891,"arse":9892,"Ġconstraint":9893,"Ġdecay":9894,"isting":9895,"possible":9896,"Ġorders":9897,"ĠJr":9898,"spe":9899,"ĠNAVBAR":9900,"ĠCro":9901,"ÛĮ":9902,"ilevel":9903,"VID":9904,"Ġreferences":9905,"Ġphotograph":9906,"ĠMah":9907,"Ġpassing":9908,"ĠMu":9909,"ĠOhio":9910,"ĠEgypt":9911,"Ġlanguages":9912,"Ġreduction":9913,"å®":9914,"Should":9915,"Under":9916,"Ġserving":9917,"basic":9918,"Ġimproved":9919,"Ġ''":9920,"Make":9921,"Ġrough":9922,"ugs":9923,"Ġmeasurement":9924,"}%":9925,"ĠAsian":9926,"Ġsyn":9927,"001":9928,"ORTED":9929,"ĠLike":9930,"ĠStan":9931,"Ġregional":9932,"omorphism":9933,"Ġcursor":9934,"Ġchemical":9935,"ĠHarr":9936,"Ùħ":9937,"Ġtwice":9938,"%\"":9939,"Ġprev":9940,"),\\":9941,"ĠEst":9942,"ORY":9943,"wt":9944,"udes":9945,"Ġbits":9946,"ĠAge":9947,"ĠHospital":9948,"edu":9949,"Ġrotation":9950,"LOC":9951,"ĠKong":9952,"Ġaffected":9953,"Ġaddresses":9954,"ycle":9955,"ĠSoviet":9956,"prise":9957,"icted":9958,"Lower":9959,"ĠFOR":9960,"Ġherself":9961,"ĠRom":9962,"Ġlimits":9963,"Ġunderlying":9964,"Ġsleep":9965,"Connect":9966,"ĠEnvironment":9967,"Ġuncertain":9968,"Ġleadership":9969,"Ġroles":9970,"Ġrom":9971,"Ġrequested":9972,"rie":9973,"scss":9974,"Ġideal":9975,"amber":9976,"Ġestimates":9977,"kwargs":9978,"Mag":9979,"Ġshock":9980,"Ġescape":9981,"Detail":9982,"NSString":9983,",'":9984,"Focus":9985,"orney":9986,"ĠXML":9987,"Ġreset":9988,"Landroid":9989,"Ġreceiving":9990,"ĠSpring":9991,"rog":9992,"ĠVideo":9993,"}}(\\":9994,"Ġcertainly":9995,"ĠProposition":9996,"plementation":9997,"Ġpolitics":9998,"slice":9999,"vo":10000,"oment":10001,"ĠBroad":10002,"zabeth":10003,"itionally":10004,"Ġbench":10005,"Ġexecutive":10006,"icator":10007,"ĠON":10008,"Ġancient":10009,",$":10010,"Ġstrongly":10011,"inton":10012,"1930":10013,"Ġsynchron":10014,"news":10015,"library":10016,"boost":10017,"ĠPolit":10018,"SSL":10019,"kes":10020,"ĠSD":10021,"Coll":10022,"Copyright":10023,"ĠSus":10024,"Ġrecip":10025,"changed":10026,"Ġconn":10027,"ĠPennsylvania":10028,"Ġseg":10029,"Ġprime":10030,"ĠPhilipp":10031,"origin":10032,"Ġfunding":10033,"Ġyouth":10034,"irt":10035,"kt":10036,"Warning":10037,"ĠWat":10038,"ĠRepublican":10039,"ĠPrince":10040,"ĠOS":10041,"ogene":10042,"ĠFour":10043,"ĠFederal":10044,"ĠApache":10045,">\\":10046,"Limit":10047,"Hub":10048,"pare":10049,"ĠRh":10050,"Ġexplained":10051,"agonal":10052,"ĠWhy":10053,"Ġconcert":10054,"Ġdiss":10055,"Bi":10056,"bd":10057,"Serv":10058,"ĠAli":10059,"accept":10060,"constructor":10061,"Ġven":10062,"Ġ}}":10063,"Ġrain":10064,"ĠEdward":10065,"radio":10066,"Ġcer":10067,"Please":10068,"ĠSi":10069,"olt":10070,"ï¼Į":10071,"bean":10072,"Phone":10073,"Ġsimulations":10074,"ĠBeach":10075,"Ġacting":10076,"Ġguess":10077,"Ġdescribes":10078,"Ġreviews":10079,"NC":10080,"ĠÂ»":10081,"FUN":10082,"PUT":10083,"Ġupdates":10084,"Ġnice":10085,"GA":10086,"ĠBit":10087,"tri":10088,"ĠArea":10089,"Ġindeed":10090,"Transport":10091,"Why":10092,"Ġbiggest":10093,"route":10094,"ELD":10095,"folio":10096,"Ġdoll":10097,"Ġexpert":10098,"methods":10099,"separ":10100,"Ġanimals":10101,"iration":10102,"Ġdistingu":10103,"ĠKent":10104,"Ġrepeated":10105,"Validation":10106,"Ġestablishments":10107,"Ġacts":10108,"Ġregime":10109,"****************************************************************":10110,"ĠChampionships":10111,"Endpoint":10112,"Ġcitizens":10113,"Driver":10114,"Ġwaiting":10115,"Just":10116,"icode":10117,")[":10118,"Ġcriminal":10119,"asm":10120,"ĠPerson":10121,"1966":10122,"isset":10123,"Ġusual":10124,"Ġarrived":10125,"Ġneighborhood":10126,"imb":10127,"çĶ":10128,"Ġcollected":10129,"Ġmedium":10130,"Ġalert":10131,"Ġadvanced":10132,"Ġelections":10133,"bp":10134,"driver":10135,"extend":10136,"åĲ":10137,"cles":10138,"yo":10139,"okes":10140,"Fore":10141,"Sql":10142,"Ġemployees":10143,"Move":10144,"âĢ¢":10145,"Ġ\"\",":10146,"ando":10147,"ori":10148,"Ġconsidering":10149,"construct":10150,"ĠRefer":10151,"ĠSom":10152,"Theme":10153,"Ġmarriage":10154,"ryption":10155,"Plan":10156,"ĠMaster":10157,"Ġhair":10158,"Ġinvariant":10159,"Ġtags":10160,"Ġsexual":10161,"Ġbatch":10162,"ĠDB":10163,"newcommand":10164,"ĠSecretary":10165,"Ġassociation":10166,"Ġfacilities":10167,"forall":10168,"Ġsan":10169,"Ġfashion":10170,"Ġconven":10171,"ongo":10172,"Ġmist":10173,"Leg":10174,"cret":10175,"Ġsaved":10176,"Ġwarning":10177,"cknowled":10178,"Ġdispl":10179,"Ġfunctional":10180,"PD":10181,"Card":10182,"IOException":10183,"Ġlayers":10184,"wd":10185,"Ġles":10186,"Ġadvance":10187,"ĠWIT":10188,"compile":10189,"glyphicon":10190,"Ġvalidate":10191,"urations":10192,"ĠGar":10193,"åħ":10194,"IAL":10195,"tp":10196,"ĠRepresent":10197,"overview":10198,"Ġweather":10199,"ĠClient":10200,"aph":10201,"twitter":10202,"Ġnarr":10203,"Ġactors":10204,"ĠCase":10205,"Ġmanner":10206,"Ġhypot":10207,"subsubsection":10208,"1920":10209,"ĠSem":10210,"ĠConserv":10211,"Ġinvestment":10212,"Ġloaded":10213,"aked":10214,"Ġdesired":10215,"Ġgeneric":10216,"MODE":10217,"istant":10218,"1965":10219,"ĠTerm":10220,"Ġfant":10221,"Ġpatterns":10222,"ĠSciences":10223,"ĠÂ©":10224,"ĠMcC":10225,")}(":10226,"Ġtreated":10227,"teen":10228,"Ġextremely":10229,"Ġsubstant":10230,"ĠLew":10231,"Ġopts":10232,"Ġbenefits":10233,"ĠPR":10234,"arters":10235,"night":10236,"ĠMO":10237,"Ġemph":10238,"Ġsb":10239,"opes":10240,"Ġfmt":10241,"ĠAdministr":10242,"pping":10243,"uency":10244,"Ġknows":10245,"Screen":10246,"Objects":10247,"Ġviolence":10248,"urance":10249,"ArgumentException":10250,"Ġmyst":10251,"MIN":10252,"Ġtheoret":10253,"trl":10254,"typen":10255,"Ġfigures":10256,"Ġapilevel":10257,"Ġcopies":10258,"Ġthanks":10259,"volume":10260,"ANG":10261,"Ġcomposed":10262,"ĠSelect":10263,"Ġ_.":10264,"react":10265,"rons":10266,"ressed":10267,"Ġguide":10268,"Light":10269,"exit":10270,"law":10271,"sync":10272,"verter":10273,"Ġprepar":10274,"rank":10275,"database":10276,"Ġexperi":10277,"Ġenvironmental":10278,"elly":10279,"havior":10280,"pres":10281,"ancell":10282,"National":10283,"GC":10284,"ilib":10285,"destroy":10286,"Ġda":10287,"Wait":10288,"Ġmuseum":10289,"Ġpromise":10290,"Ġvalidation":10291,"atasets":10292,"Ġdependencies":10293,"ĠSat":10294,"aded":10295,"Constant":10296,"Constructor":10297,"Ġfort":10298,"ãĢĤ":10299,"some":10300,"lab":10301,"Ġexerc":10302,"ĠSets":10303,"Ġthank":10304,"ĠProfessor":10305,"Ali":10306,"Ġproport":10307,"Ġamplit":10308,"ĠHas":10309,"\\_":10310,"Ġnearby":10311,"mag":10312,":[":10313,"icity":10314,"sig":10315,"ĠFair":10316,"Ġcoefficients":10317,"ĠMember":10318,"vc":10319,"Unknown":10320,"ĠAdv":10321,"WORD":10322,"functions":10323,">)":10324,"dig":10325,"Own":10326,"Ġdimensions":10327,"duration":10328,"Ġpowers":10329,"andy":10330,"OF":10331,"semble":10332,"variable":10333,"Release":10334,"catch":10335,"Ġassembly":10336,"700":10337,"uset":10338,"Ġglass":10339,"Ġopinion":10340,"Ġadopted":10341,"unny":10342,"Ġpitch":10343,"ĠIraq":10344,"Ġnewly":10345,"mk":10346,"Ġwitness":10347,"ows":10348,"Axis":10349,"Ġsql":10350,"bell":10351,"Ġaccomp":10352,"STRING":10353,"_{{\\":10354,"NR":10355,"_{-":10356,"Ġpriv":10357,"Ġtail":10358,"ĠDar":10359,"_);":10360,"Ġacceler":10361,"Ġwestern":10362,"such":10363,"avid":10364,"fetch":10365,"fall":10366,"mn":10367,"Ġabsor":10368,"Î½":10369,"ĠMir":10370,"ĠALIGN":10371,"Ġaren":10372,"CONT":10373,"ĠOptional":10374,"trim":10375,"METHOD":10376,"Ġpermit":10377,"ependence":10378,"Ġpieces":10379,"ĠStation":10380,"Ġcauses":10381,"zh":10382,"Ġ'./":10383,"ĠAnother":10384,"iant":10385,"getElementById":10386,"Ġperturb":10387,"lat":10388,"Ġshif":10389,"ĠRog":10390,"Ġfinds":10391,"Ġincident":10392,"typename":10393,"Ġwinner":10394,"policy":10395,"activity":10396,"quote":10397,"Ġfunds":10398,"ĠObama":10399,"ĠThree":10400,"TestCase":10401,"Ġgirls":10402,"Ġmyself":10403,"Ġdistributions":10404,"Ġcrew":10405,"ĠThursday":10406,"YY":10407,"Ġevaluation":10408,"Ġpermission":10409,"isEmpty":10410,"ĠSaf":10411,"Ġwidely":10412,"ĠOFF":10413,"Ġbroken":10414,"Ġangular":10415,"Basic":10416,"created":10417,"tf":10418,"()),":10419,"Ġsubset":10420,"opts":10421,"Ġperforming":10422,"illis":10423,"Ġspecifically":10424,"ĠBrook":10425,"poral":10426,"bullet":10427,"eled":10428,"validate":10429,"atern":10430,"Ġsingular":10431,"onia":10432,">;":10433,"CDATA":10434,")\\,":10435,"ĠKorea":10436,"=\"../../../../../../../":10437,"submit":10438,"Serializer":10439,"Ġdeveloping":10440,"Forms":10441,"Ġ\"\";":10442,"Ġyourself":10443,"agnostic":10444,"ĠSpe":10445,"Ġtrav":10446,"Ġphenomen":10447,"disable":10448,"Ġholding":10449,"rovers":10450,"rece":10451,"Ġtechnique":10452,"Ġmo":10453,"Ġpromin":10454,"DEF":10455,"ĠLatin":10456,"Normal":10457,"Ġfilled":10458,"messages":10459,"Ġbass":10460,"Ġintegration":10461,"Ġfaith":10462,"ĠTrust":10463,"Ġsizes":10464,"aska":10465,"Ġdrag":10466,"\\)":10467,"Env":10468,"Ġclock":10469,"ĉĠĠĠĠĠĠĠ":10470,"Processor":10471,"Operator":10472,"InputStream":10473,"Messages":10474,"ILD":10475,"Ġcomedy":10476,"ĠResponse":10477,"Ġliber":10478,"feed":10479,"Ġ\"%":10480,"Ġclients":10481,"Ġtrip":10482,"etes":10483,"#{":10484,"Ġadmin":10485,"ĠWilson":10486,"deprecated":10487,"Word":10488,"Ġ+\\":10489,"gency":10490,"Ġconflict":10491,"merge":10492,"Ġentirely":10493,"ennes":10494,"Ġcalculate":10495,"ĠEU":10496,"Ġdance":10497,"Ġcold":10498,"Ġinn":10499,"ĠFil":10500,"aga":10501,"NotFound":10502,"ĠStory":10503,"ĠKim":10504,"Ġ'';":10505,"transaction":10506,"ĠLo":10507,"Ġacademic":10508,"agnostics":10509,"memory":10510,"ordan":10511,"Where":10512,"ving":10513,"abric":10514,"inherit":10515,"Ġfee":10516,"Ġcart":10517,"Ġnarrow":10518,"ĠStatus":10519,"Ġguy":10520,"Ġstandards":10521,"Ġplants":10522,"Jan":10523,"ĠBang":10524,"perm":10525,"iveness":10526,"ĠEastern":10527,"Ġscientific":10528,"Ġera":10529,"ĠBBC":10530,"Ġprincipal":10531,"Ġdual":10532,"Ð°Ð½":10533,"Ġremark":10534,"aired":10535,"Ty":10536,"pson":10537,"ĠIllinois":10538,"Ġgeometry":10539,"Ġ@\"":10540,"logo":10541,"Ġmir":10542,"ĠStudies":10543,"lywood":10544,"ĠKr":10545,"ĠPen":10546,"Ġcustomer":10547,"ĠBooks":10548,"Ġtick":10549,"Raw":10550,"Pod":10551,"ĠHistoric":10552,"Sem":10553,"ĠRa":10554,"ARN":10555,"Validator":10556,"ĠBa":10557,"Ġfundamental":10558,"ĠApplication":10559,"ĠAT":10560,"acent":10561,"anna":10562,"Ġsuggests":10563,"usal":10564,"contact":10565,"apsed":10566,"Ġobserve":10567,"ĠAsh":10568,"Ġchallenges":10569,"UST":10570,"Sch":10571,"ÅĤ":10572,"Ġterror":10573,"Ġselector":10574,"ĠFinally":10575,"elem":10576,"ĠTuesday":10577,"ĠDub":10578,"Ġportr":10579,"aki":10580,"Ġdivided":10581,"=[":10582,"eveloper":10583,"DR":10584,"Ġminimal":10585,"Ġhelps":10586,"ĠWrite":10587,"ĠHard":10588,"vertical":10589,"Ġrailway":10590,"(--":10591,"Äį":10592,"West":10593,"ĠOfficial":10594,"Ġprofessor":10595,"INS":10596,"ĠWrit":10597,"Ġdenotes":10598,"ĠCount":10599,"Pack":10600,"ĠChange":10601,"Ġinputs":10602,"ĠCEO":10603,"Ġfavorite":10604,"Ġscenario":10605,"ĠInvest":10606,"batch":10607,"Ġprogramming":10608,"Ð¾Ð²":10609,"Ġhouses":10610,"']);":10611,"DIS":10612,"Pers":10613,"omics":10614,"ĠCurrent":10615,")_":10616,"Ġdetected":10617,"constr":10618,"Ġefficiency":10619,"ÑģÑĤ":10620,"Ġseeing":10621,"Ġvehicles":10622,")^{\\":10623,"ĠLear":10624,"closed":10625,"irement":10626,"ĠCorporation":10627,"Ġguard":10628,"unes":10629,"Ġmatrices":10630,"lets":10631,"alert":10632,"inciple":10633,"iÃ³n":10634,"ego":10635,"usr":10636,"Ġnavbar":10637,"ĠDescription":10638,"Ġscr":10639,"gon":10640,"NUM":10641,"itivity":10642,"Proto":10643,"inds":10644,"GER":10645,"ipher":10646,"127":10647,"Ġlie":10648,"Family":10649,"ĠSa":10650,"extra":10651,"ĠSC":10652,"navigation":10653,"Ġsending":10654,"shal":10655,"ysics":10656,"Ġtyped":10657,"Ġstats":10658,"-(":10659,"available":10660,"\\!\\!":10661,"brid":10662,"ĠSteve":10663,"Ġsud":10664,"Ġpermissions":10665,"ATED":10666,"unately":10667,"Ġacquired":10668,"Ġdecades":10669,"ĠRecord":10670,"Ġdiam":10671,"inson":10672,"Ġsys":10673,"Consumer":10674,"Ġmouse":10675,"ĠWis":10676,"sheet":10677,"uling":10678,"onymous":10679,"pot":10680,"ierarchy":10681,"Ġmodify":10682,"ĠCat":10683,"ĠAbstract":10684,"alty":10685,"Binding":10686,"Audio":10687,"oster":10688,"Posted":10689,"jQuery":10690,"obs":10691,"Ġprimarily":10692,"ritical":10693,"Ġtransactions":10694,"Ġelif":10695,"LY":10696,"Users":10697,"Ġcolspan":10698,"ented":10699,"Ġreturning":10700,"Ġdeclared":10701,"Ġ_,":10702,"Ġwouldn":10703,"SV":10704,"spacing":10705,"Ġteacher":10706,"ĠBal":10707,"Ġcurves":10708,"Rate":10709,"Ġouter":10710,"Ġopportunities":10711,"Ġcharged":10712,"Ġinspired":10713,"ĠEnergy":10714,"Ġexceed":10715,"Ġce":10716,"Ġevaluate":10717,"MR":10718,"[]{":10719,"retch":10720,"Ġships":10721,"Ġsupporting":10722,"mazing":10723,"emic":10724,"ĠShort":10725,"Ġspring":10726,"ĠRoute":10727,"Ġdefeated":10728,"Ġportion":10729,"Mapper":10730,"Ġoptical":10731,"Ġinjury":10732,"Abs":10733,"ĠEth":10734,"Ġpeace":10735,"??":10736,"paper":10737,"Ġhole":10738,"ĠHong":10739,"ĠInf":10740,"raham":10741,"attery":10742,"TF":10743,"PHP":10744,"ĠCore":10745,"Ġidentifier":10746,"/{":10747,"goto":10748,"ĠGuard":10749,"ĠRen":10750,"dk":10751,"ĠIslands":10752,"NET":10753,"Ġcontrolled":10754,"Cur":10755,"Ġvectors":10756,"ORDER":10757,"ti":10758,"ĠLoad":10759,"chart":10760,"ubble":10761,"UMM":10762,"perp":10763,"initely":10764,"Ġcategories":10765,"ĠRemove":10766,"Ġcompr":10767,"ĠProvince":10768,"Ġhonor":10769,"1963":10770,"/\">":10771,"}$-":10772,"also":10773,"Watch":10774,"ĠColumbia":10775,"Ã¢":10776,"Ġsubsequent":10777,"Ġlinked":10778,"Ġemotion":10779,"Ġsettlement":10780,"asp":10781,"Html":10782,"commons":10783,"uls":10784,"Complete":10785,"urable":10786,"/.":10787,"colon":10788,"Ġsupposed":10789,"Ġcaref":10790,"ĠTy":10791,"validation":10792,"Ġplanned":10793,"subject":10794,"seq":10795,"idi":10796,"Material":10797,"gov":10798,"Ġcensus":10799,"Ġepisodes":10800,"Ġinvent":10801,"Ġmorph":10802,"oured":10803,"Overview":10804,"usetts":10805,"Ġcircum":10806,"Î¹":10807,"phrase":10808,",\\,":10809,"Ġpseud":10810,"ampions":10811,"achusetts":10812,"alytics":10813,"Ġexplanation":10814,"encing":10815,"Ġkick":10816,"icer":10817,"license":10818,"Usage":10819,"Ġproperly":10820,"Ġcoordinate":10821,"Ġmel":10822,"minute":10823,"ĠAmericans":10824,"Nov":10825,"onomy":10826,"Ñĩ":10827,"ĠIllegal":10828,"nesota":10829,"integer":10830,"ĠOnce":10831,"ĠDEFAULT":10832,"Batch":10833,"owed":10834,"ĠWednesday":10835,"iper":10836,"relation":10837,".\"\"\"":10838,"Drawing":10839,"Compiler":10840,"Ġcaught":10841,"Ġvision":10842,"shop":10843,"Ġfell":10844,"series":10845,"ĠChannel":10846,"Ġarms":10847,"you":10848,"ĠViet":10849,"Ġsecure":10850,"Ġlargely":10851,"bec":10852,"Ġfacility":10853,"Ġruntime":10854,"Ġopposite":10855,"occer":10856,"Ġ'',":10857,"Amount":10858,"Ġatmosph":10859,"Ġreaction":10860,"ĉčĊ":10861,"Ġtroub":10862,"sem":10863,"actic":10864,")^{-":10865,"Fact":10866,"uffers":10867,"canvas":10868,"don":10869,"Ġbusinesses":10870,"jack":10871,"tan":10872,"ĠCart":10873,"INST":10874,"warn":10875,"\\|_{":10876,"Ġcaptured":10877,"ĠLcom":10878,"Ġcris":10879,"Ġsolve":10880,"1962":10881,"Ġoperated":10882,"ĠGovernor":10883,"}^*":10884,"phia":10885,"Ġagents":10886,"ĠBell":10887,"Ġsquad":10888,"Ġsym":10889,"ĠHom":10890,"SCRIPT":10891,"Ġhousing":10892,"Navigation":10893,"venture":10894,"Ġprediction":10895,"een":10896,"Ġkid":10897,"ĠUnit":10898,"Ġobservation":10899,"ĠĠĠĠĠĠĠĠĠĠĠĠĠĠĠĠĠĠĠĠĠĠĠĠĠĠĠĠĠĠĠĠĠĠĠĠĠĠĠĠĠĠĠĠĠĠĠ":10900,"Ġfeaturing":10901,"Ġexplicitly":10902,"United":10903,"Ġcommonly":10904,"Setting":10905,"ĠRegion":10906,"Pat":10907,":@\"":10908,"ydney":10909,"assign":10910,"Ġfake":10911,"ĠPakistan":10912,"anz":10913,"Ġthousands":10914,"Ġaccident":10915,"Thus":10916,"ĠPrime":10917,"prec":10918,"redu":10919,"Ġposted":10920,"ĠElizabeth":10921,"ponential":10922,"Ġstopped":10923,"Stud":10924,"imm":10925,"itled":10926,"itzer":10927,"ologist":10928,"ĠSche":10929,"vals":10930,"osed":10931,"iner":10932,"CLASS":10933,"generate":10934,"Identity":10935,"program":10936,"Ġaccurate":10937,"Ġyields":10938,"good":10939,"OPT":10940,"Alloc":10941,"ĠPortug":10942,"Ġaspects":10943,"eman":10944,"Ġconj":10945,"toBe":10946,"Strategy":10947,"Ġ\".":10948,"){\\":10949,"Ġdestroyed":10950,"ĠNa":10951,"Cla":10952,"aped":10953,"Brit":10954,"Ġhotel":10955,"ĠBet":10956,"Platform":10957,"Ġfuel":10958,"Ġheav":10959,"Ant":10960,"thrift":10961,"Ġpoliticians":10962,"adelphia":10963,"Ġsolar":10964,"heading":10965,"ĠSab":10966,"ulpt":10967,"ĠCur":10968,"Export":10969,"Standard":10970,"Ġsatisfy":10971,"ederation":10972,"fmt":10973,"otten":10974,"Ġsubstantial":10975,"ĠJean":10976,"ĠWARRAN":10977,"ĠVill":10978,"Ġmerge":10979,"collect":10980,"Ġexpand":10981,"ears":10982,"opher":10983,"Ġcommands":10984,"ĠFull":10985,"rium":10986,"forEach":10987,"Ġconverted":10988,"Ġsale":10989,"Est":10990,"Ġvideos":10991,"Fn":10992,"AST":10993,"Ġfighting":10994,"Ġengineering":10995,"Ġauthority":10996,"Present":10997,"ĠPers":10998,"Ġbinding":10999,"ĠServer":11000,"Ġperman":11001,"built":11002,"Ġdisplayed":11003,"arguments":11004,"%.":11005,"constant":11006,"Ġ&=&":11007,"Ġanalog":11008,"Ġlogging":11009,"Ġbands":11010,"ĠScottish":11011,"Ġearned":11012,"ĠBon":11013,"ĠDeb":11014,"ĠEngineering":11015,"HEAD":11016,"Once":11017,"Binary":11018,"pload":11019,"ĠLtd":11020,"rele":11021,"UND":11022,"Ġwire":11023,"Ġcharges":11024,"ĠAk":11025,"ĠCloud":11026,"ĠDutch":11027,"anth":11028,"geo":11029,"Ġgender":11030,"idential":11031,"ĠAlexander":11032,"Ġprepared":11033,"Ġsuitable":11034,"Ġcomplexity":11035,"Ġdropped":11036,"ĠĠĠĠĠĠĠĠĠĠĠĠĠĠĠĠĠĠĠĠĠĠĠĠĠĠĠĠĠĠĠĠĠ":11037,"iated":11038,"Resolver":11039,"Ġawards":11040,"anes":11041,"ĠKenn":11042,"libs":11043,"Ġnucle":11044,"uy":11045,"ivated":11046,"aneous":11047,"Ġliqu":11048,"Ġdifferential":11049,"Ġcompatible":11050,"igate":11051,"iliar":11052,"Ġinvolving":11053,"Ġmodules":11054,"Ġcomposition":11055,"Ġsand":11056,"Ġrecognized":11057,"[-":11058,"NV":11059,"Ġphilosoph":11060,"ĠFood":11061,"Ġeasier":11062,"CHAR":11063,"tainment":11064,"Ġbehaviour":11065,"resize":11066,"[(":11067,"ĠCam":11068,"porated":11069,"Ġsurrounding":11070,"Ġdeploy":11071,"inating":11072,"Ġperspective":11073,"ĠAD":11074,"Dependency":11075,"Ġseemed":11076,"Clear":11077,"CALL":11078,"scala":11079,"indu":11080,"ĠBoy":11081,"will":11082,"Îµ":11083,"ĠSupreme":11084,"Pred":11085,"Ġgranted":11086,"ĠConnect":11087,"Ġgradient":11088,"ĠWIDTH":11089,"Ġloading":11090,"{$\\":11091,"Segment":11092,"Ġfeeling":11093,"asters":11094,"Login":11095,"Ġfeedback":11096,"Ġorganized":11097,"Span":11098,"ĠBand":11099,"Edge":11100,"Ġattempts":11101,"Ġobjective":11102,"counter":11103,"Ġcontrols":11104,"Throw":11105,"$$\\":11106,"DOM":11107,"bus":11108,"ĠHun":11109,"Ġgrew":11110,"LED":11111,"osa":11112,"ĠOxford":11113,"Ġdefend":11114,"icing":11115,"compare":11116,"conv":11117,"Ġwhereas":11118,"remark":11119,"Management":11120,"Insert":11121,"University":11122,"ais":11123,"äº":11124,"gre":11125,"ĠCSS":11126,"Ġfails":11127,"istribution":11128,"Ġtight":11129,"ĉĠĠ":11130,"rupted":11131,"Ġfavour":11132,"Ġspend":11133,"Ġresc":11134,"pur":11135,"Ġing":11136,"Timer":11137,"ĠWars":11138,"Remote":11139,"yard":11140,"Future":11141,"Ġalongside":11142,"Ġcomfort":11143,"cross":11144,"merce":11145,"mac":11146,"Ġvon":11147,"Ġmodal":11148,"1944":11149,"Ġminute":11150,"Another":11151,"Ġjourney":11152,"Ġstellar":11153,"AUT":11154,"assertTrue":11155,"ÙĪ":11156,"Ġrecognition":11157,"Ġclassic":11158,"Ġathlet":11159,"unnel":11160,"Music":11161,"Ġpriority":11162,"Ġhabit":11163,"Ġattached":11164,"UC":11165,"BL":11166,"Ġ'.":11167,"ĠEs":11168,"ĠVictoria":11169,"AX":11170,"Ġrecall":11171,"Bal":11172,"apore":11173,"Prev":11174,"displayName":11175,"Â°":11176,"distrib":11177,"Ġsimpl":11178,"Ġlists":11179,"Ġstyles":11180,"ĠFC":11181,".~(\\":11182,"~$\\":11183,"Ġalter":11184,"ĠAnth":11185,"specific":11186,"Ġspons":11187,"$).":11188,"Ġmach":11189,"Ġretired":11190,"Folder":11191,"ĠBox":11192,"directory":11193,"contents":11194,"1961":11195,"ĠSH":11196,"ntario":11197,"Drop":11198,"Ġdram":11199,"ĠMock":11200,"ĠTurn":11201,"sun":11202,"RED":11203,"Ġschedule":11204,"Vec":11205,"\"},":11206,"Ġserves":11207,"ktop":11208,"Ġexecuted":11209,"Ġoptimization":11210,"bat":11211,"Ġpossibility":11212,"ARD":11213,"HERE":11214,"ĠChildren":11215,"Ġmal":11216,"Ġfaster":11217,"Ġelectronic":11218,"ĠBall":11219,"Ġelev":11220,"ĠFox":11221,"Ġindustrial":11222,"Ġurban":11223,"Ġ$-":11224,"Ġunable":11225,"arl":11226,"Ġfifth":11227,"Ġpri":11228,"=\\\"":11229,"Ġinfinite":11230,"pir":11231,";|":11232,"ĠMS":11233,"Eval":11234,"ĠProt":11235,")}{\\":11236,"worth":11237,"RAY":11238,"Ġdrawn":11239,"Ġdecor":11240,"Ġdependence":11241,")},":11242,"Ġconsumer":11243,"Ġdot":11244,"arest":11245,"Ġexcellent":11246,"Ø¯":11247,"################################":11248,"amely":11249,"Ġindices":11250,"Ġinstitutions":11251,"rypto":11252,"Ġcoal":11253,"Ġcm":11254,"Renderer":11255,"Cmd":11256,"thur":11257,"Ġele":11258,"ĠContent":11259,"ailability":11260,"Ġinject":11261,"LOW":11262,"Ġapart":11263,"Ġstatements":11264,"Information":11265,"Nullable":11266,"binding":11267,"ä½":11268,"ACH":11269,"Ġlogic":11270,"ibraries":11271,"Ġsymmetric":11272,"Ġpayment":11273,"ĠCG":11274,"atriate":11275,"Ġkeeping":11276,"ĠTag":11277,"Ġprotein":11278,"South":11279,"Career":11280,"Ġwhatever":11281,"ĠBE":11282,"000000":11283,"Ġoffering":11284,"ĠCountry":11285,"getId":11286,"Static":11287,"}}^":11288,"ĠĠĠĠĠĠĠĠĠĠĊ":11289,"rypted":11290,"zy":11291,"]))":11292,"jet":11293,"lower":11294,"loaded":11295,"Ġhistoric":11296,"Ġcompletion":11297,"ĠLic":11298,"Ġmarketing":11299,"Ġanimal":11300,"ĠStream":11301,"Ġconcerns":11302,"FFER":11303,"Ġconversion":11304,"]}":11305,"ĠGaussian":11306,"fake":11307,"Rout":11308,"cu":11309,"ASSERT":11310,"textsc":11311,"International":11312,"ĠOC":11313,"Ġnotation":11314,"Black":11315,"Well":11316,"ĠAgain":11317,"cest":11318,"sime":11319,"Site":11320,"Ġcommitted":11321,"tenance":11322,"Ġjs":11323,"Ġsocket":11324,"Ġtitles":11325,"ĠPay":11326,"Ġcreates":11327,"Ġexplore":11328,"respons":11329,"hot":11330,"Ġsingles":11331,"ĉĉĉĉĉĉĉĉĉĉ":11332,"pb":11333,"Ġpurchase":11334,"Ġphysics":11335,"uma":11336,"Tile":11337,"dark":11338,"Ġtransmission":11339,"ĠNC":11340,"ĠGro":11341,"Ġtargets":11342,"Lib":11343,"ĠCOL":11344,"ropol":11345,"Ġweights":11346,"imp":11347,"simeq":11348,"Ġdire":11349,"scill":11350,"ĠRod":11351,"ĠAdam":11352,"ifferent":11353,"Ġsounds":11354,"Ġending":11355,"Ġextent":11356,"irth":11357,"ika":11358,"×ķ":11359,"Your":11360,"BY":11361,"expression":11362,"zo":11363,"Ġmail":11364,"Ġagency":11365,"Ġreson":11366,"Ġmetrics":11367,"have":11368,"ĠMassachusetts":11369,"Ġcarbon":11370,"VI":11371,"ĠLabor":11372,"Ġ=\\":11373,"Ġgar":11374,"Errors":11375,"outheast":11376,"Ġexpos":11377,"ĠNiger":11378,"Ġletters":11379,"Ġcolors":11380,"ĠRight":11381,">\"":11382,"ĠToday":11383,"ĠFurthermore":11384,"}&":11385,"Ġseek":11386,"ĠPublish":11387,"ĠÅ":11388,"sr":11389,"Speed":11390,"Ġchecked":11391,"Ġsubsequently":11392,"Ġcovers":11393,"Tw":11394,"Ġendpoint":11395,"Ġmanage":11396,".;":11397,"ĠCas":11398,"Ġcas":11399,"ĠCond":11400,")\\\\":11401,"native":11402,"(\"#":11403,"cludes":11404,"ĠBerlin":11405,"cribed":11406,"MAP":11407,"selection":11408,"Ġpaint":11409,"Ġexports":11410,"arry":11411,"Ġsoldiers":11412,"general":11413,"cussion":11414,"iga":11415,"STATUS":11416,"including":11417,"Ġmagnitude":11418,"Ġmovies":11419,"Ġcompliance":11420,"Ġconstants":11421,"Ġpersonnel":11422,"elements":11423,"Ġbelief":11424,"ASE":11425,"Weight":11426,")\",":11427,"Ġpartnership":11428,"Ġadvoc":11429,"è¯":11430,"ĠLook":11431,"clusions":11432,"standard":11433,"iy":11434,"ĠStruct":11435,"ĠSant":11436,"ĠWatch":11437,"acr":11438,"})$.":11439,"Ġhide":11440,"ĠKir":11441,"Ġsync":11442,"Photo":11443,"Ġbundle":11444,"ĠAlb":11445,"ĠOs":11446,"jax":11447,"avit":11448,"Ġconvergence":11449,"elastic":11450,"LIST":11451,"Annotation":11452,"TY":11453,"design":11454,"Ġprompt":11455,"agen":11456,"ĠTok":11457,"Ġclubs":11458,"Loop":11459,"sass":11460,"apol":11461,"ĠBuilder":11462,"opic":11463,"Ġaccounts":11464,"Addr":11465,"calendar":11466,"touch":11467,"ĠCreek":11468,"Ġcodes":11469,"ĠPrint":11470,"Pres":11471,"Ġbeliev":11472,"ĠBat":11473,"viewport":11474,"apple":11475,"Ġbeam":11476,"Ġtroops":11477,"Android":11478,"Ġintersection":11479,"loading":11480,".*;":11481,"wing":11482,"Ġwatching":11483,"Master":11484,"Ġtruly":11485,"TRY":11486,"ellij":11487,"ĠThread":11488,"oses":11489,"Yes":11490,"ATOR":11491,"ĠCost":11492,"ĠConfiguration":11493,"Center":11494,"Ġ'%":11495,"ĠSon":11496,"SW":11497,"EP":11498,"Frames":11499,"vol":11500,"ĠDavis":11501,"alink":11502,"ĠSM":11503,"tooltip":11504,"Ġrobust":11505,"å¤":11506,"Ġentr":11507,"dash":11508,"Ġtd":11509,"inx":11510,"ilibrium":11511,"360":11512,"His":11513,"Ġvent":11514,"Ġmoments":11515,"criptions":11516,"gradle":11517,"Ġedit":11518,"heim":11519,"Finally":11520,"CHECK":11521,"Failure":11522,"remarks":11523,"oval":11524,"Shader":11525,"ĠHo":11526,"Ġmigr":11527,"elle":11528,"relative":11529,"Rows":11530,"ssue":11531,"plicated":11532,"Ġpra":11533,"ulating":11534,"Ġdelivery":11535,"Ġcloser":11536,"ĠDouble":11537,"pkg":11538,"cccc":11539,"intellij":11540,"ĠMarg":11541,"Ġskin":11542,"ĠDu":11543,"mass":11544,"Ġweekend":11545,"Ġhandling":11546,"ĠAvenue":11547,"CONFIG":11548,"XXXX":11549,"outs":11550,"ationToken":11551,"lyn":11552,"}}^{":11553,"ĠSuch":11554,"owa":11555,"ĠPC":11556,"ĠTool":11557,"ĠObserv":11558,"Ġpayload":11559,"Ġgenus":11560,"ĠToronto":11561,"Ġ\">":11562,"reader":11563,"Ġestate":11564,"Ġappreci":11565,"HL":11566,"005":11567,"ĠProp":11568,"Ġrout":11569,"Ġstores":11570,"ĠclassName":11571,"Ġpublication":11572,"engers":11573,"Ġcert":11574,"Ġrelationships":11575,"connected":11576,"Ð¿":11577,"Ġencounter":11578,"ruption":11579,"ĠMinistry":11580,"Ġmoves":11581,"Ġmountain":11582,"odot":11583,"Ġaver":11584,"Ġsilver":11585,"=$":11586,"appy":11587,"ATCH":11588,"Random":11589,"repository":11590,"Most":11591,"Ġconfidence":11592,"Ġpipeline":11593,"1958":11594,"comes":11595,"ĠSimple":11596,"putation":11597,"Ġgenerator":11598,"Ġsustain":11599,"Console":11600,";|&":11601,"Ġrelax":11602,"1959":11603,"UMMARY":11604,"Ġtested":11605,"mms":11606,"ctic":11607,"pmatrix":11608,"Ġmedian":11609,"Rot":11610,"Ã¸":11611,"åĬ":11612,"columns":11613,"Ġcontemporary":11614,"Ġlocally":11615,"Ġcab":11616,"æķ":11617,"Ġpref":11618,"Ġspectra":11619,"ĠSanta":11620,"ĠGreg":11621,"Ġparticipants":11622,"Ġindicated":11623,"Encoding":11624,"gz":11625,"Ġemit":11626,"lf":11627,"Ġprinciple":11628,"Ġseparated":11629,"ĠPoland":11630,"convert":11631,"Ġagric":11632,"mapsto":11633,"Ġopacity":11634,"UK":11635,"Ġcalculation":11636,"Ġdust":11637,"uli":11638,"Ġsuperv":11639,"notations":11640,"City":11641,"Ġclosely":11642,"Ġlimitations":11643,"Ġ{%":11644,"Ġoverl":11645,"ĠNick":11646,"Although":11647,"ĠDark":11648,"utors":11649,"Ã©e":11650,"1942":11651,"Cursor":11652,"Ġexperiences":11653,"Like":11654,"Ġevening":11655,"Ġcontrovers":11656,"Mac":11657,"Ġscheduled":11658,"Ġquadr":11659,"Ms":11660,"ĠHay":11661,"Ġteaching":11662,"Ġpractices":11663,"uction":11664,"tik":11665,"states":11666,"Depth":11667,"Ġwa":11668,"encode":11669,"$^{-":11670,"LEMENT":11671,"Rob":11672,"ĠInstead":11673,"Columns":11674,"Ġinteract":11675,"ĠMinnesota":11676,"Ġexplo":11677,"tensor":11678,"mobile":11679,"'(":11680,"ĠLady":11681,"Ġvot":11682,"Ġly":11683,"1948":11684,"pages":11685,"Ġig":11686,"ONG":11687,"1956":11688,"Constraint":11689,"ĠDer":11690,"deep":11691,"ĠDigital":11692,"ĠSep":11693,"REE":11694,"ĠRow":11695,"ĠHung":11696,"Ġbow":11697,"Ġsignals":11698,"Ġauthorities":11699,")+\\":11700,"Ġstorm":11701,"ĠSydney":11702,"uj":11703,"Films":11704,"Ġrational":11705,"Power":11706,"className":11707,"enna":11708,"ATTR":11709,"regon":11710,"sb":11711,"ĠStadium":11712,"ĠAud":11713,"consin":11714,"FP":11715,"Labels":11716,"Ġprojection":11717,"Ġment":11718,"ĠEll":11719,"Ġsolo":11720,"ĠStephen":11721,"Ġignored":11722,"aug":11723,"Ġrecommended":11724,"1939":11725,"egration":11726,"Ġinduced":11727,"Ġmasses":11728,"Ġcorrectly":11729,"ĠPut":11730,"Ġnegot":11731,"Tube":11732,"pid":11733,"Ġnob":11734,"paragraph":11735,"eral":11736,"aks":11737,"Ġ{$":11738,"Ġ{},":11739,"(()":11740,"ĠForest":11741,"Ġclinical":11742,"Ġimg":11743,"Ġ$_":11744,"Ġposts":11745,"Ġperformances":11746,"Ġannounce":11747,"ĠLow":11748,"sequence":11749,"Did":11750,"\"/":11751,"$;":11752,"Groups":11753,"Border":11754,"ĠVirtual":11755,"Ã¡n":11756,"Ġemployed":11757,"complex":11758,"AI":11759,"Foot":11760,"eners":11761,"Ġcrowd":11762,"ĠIV":11763,"Ġbaseball":11764,"ĠPhot":11765,"fff":11766,"letter":11767,"Contents":11768,"Ġcatalog":11769,"Ġreverse":11770,"aze":11771,"6666":11772,"Bottom":11773,"Ãº":11774,"Ġcomputation":11775,"Ġbias":11776,"Ġrecru":11777,"Ġpacket":11778,"Ġeffectively":11779,"GN":11780,"ĠIT":11781,"ordinate":11782,"Chain":11783,"Permission":11784,"maps":11785,"ĠCoq":11786,"licenses":11787,"erred":11788,"iti":11789,"VAR":11790,"Ġlose":11791,"covery":11792,"Ġpun":11793,"Ġwww":11794,"umps":11795,"Ġrepository":11796,"abc":11797,"Ġaria":11798,"Ġdisap":11799,"Dat":11800,"Ġgene":11801,"Ġminister":11802,"!âĢĿ":11803,"bourne":11804,"Shared":11805,"ĠTam":11806,"altColor":11807,"stances":11808,"ounce":11809,"Ġhumans":11810,"Ġprotest":11811,"ĠRO":11812,"Ġapproved":11813,"Ġphotos":11814,"omorphic":11815,"Ġwealth":11816,"FOR":11817,"atest":11818,"Ġlosing":11819,"Ġcommittee":11820,"share":11821,"ĠTransport":11822,"Ġast":11823,"Ġtheoretical":11824,"Ġstands":11825,"ĠRon":11826,"ĠDor":11827,"HC":11828,"ĠAppend":11829,"gradient":11830,")$-":11831,"sat":11832,"ellite":11833,"Ġcolour":11834,"ĠVen":11835,"cassandra":11836,"Ġrepresentative":11837,"Ġcreative":11838,"phase":11839,"Ġsky":11840,"formed":11841,"ĠLag":11842,"Ġadvice":11843,"score":11844,"Ġassistant":11845,"etherlands":11846,"Ġmental":11847,"Ġvariation":11848,"uuid":11849,"ĠJson":11850,"130":11851,"Star":11852,"BPACK":11853,"Ġrural":11854,"ĠSeason":11855,"Tuple":11856,"acon":11857,"ĠPython":11858,"Ġtransferred":11859,"Christ":11860,"Accept":11861,"Ġwinter":11862,"createElement":11863,"Ġtimestamp":11864,"mma":11865,"1957":11866,"ĠQuery":11867,"algorithm":11868,"Ġoscill":11869,"overning":11870,"Ġ<-":11871,"ĠLanguage":11872,"referred":11873,"è¿":11874,"Ġener":11875,"GroupName":11876,"Ġswe":11877,"Theorem":11878,"Ġion":11879,"Ġvotes":11880,"Ġalleged":11881,"StyleID":11882,"Ġextensive":11883,"actual":11884,"Ġcriteria":11885,"Ġhelping":11886,"erring":11887,"ĠJS":11888,"Ġoccasion":11889,"links":11890,"anchor":11891,"arity":11892,"ĠDoug":11893,"Ġowners":11894,"Touch":11895,"blob":11896,"FIELD":11897,"Deprecated":11898,"tiny":11899,"rystal":11900,"Ġcov":11901,"ĠBru":11902,"Ġstability":11903,"Mr":11904,"Ġcopyright":11905,"Ġnewspaper":11906,"ĠPublished":11907,"Same":11908,"Ġstanding":11909,"ĠNative":11910,"Ġintroduction":11911,"Ġped":11912,"Ġguys":11913,"WIN":11914,"audio":11915,"Oct":11916,"Ġjustice":11917,"forcement":11918,"elihood":11919,"Ġbodies":11920,"ĠOlympic":11921,"NODE":11922,"GR":11923,"ĠTree":11924,"Den":11925,"Ġhomes":11926,"×Ļ":11927,"Wrap":11928,"Zone":11929,"django":11930,"Ġna":11931,"ĠResult":11932,"AY":11933,"Ġgreatest":11934,"ĠLater":11935,"ĠAssoci":11936,"pointer":11937,"Signature":11938,"Ġsummar":11939,"ĠBrad":11940,"Series":11941,"GP":11942,"TL":11943,"Ġprices":11944,"GEN":11945,"topic":11946,"ĠLewis":11947,"Every":11948,"ĠTal":11949,"porter":11950,"square":11951,"Ġgoogle":11952,"Ġliteral":11953,"ĠShould":11954,"Ġgalaxy":11955,"Ġ----------------------------------------------------------------":11956,"Ġcrisis":11957,"Ġguest":11958,"Ġprivacy":11959,"Ġconsec":11960,"\">(":11961,"ĠBefore":11962,"MAGE":11963,"ships":11964,"ĠPos":11965,"ĠFac":11966,"1946":11967,"}))":11968,"ĠLes":11969,"Promise":11970,"ĠDelete":11971,"Ġdoubt":11972,"ĠKorean":11973,"ĠKnow":11974,"Ġlegend":11975,"joint":11976,"Association":11977,"VICE":11978,"ĠGiven":11979,"Ġdescent":11980,"ĠSite":11981,"Ġfetch":11982,"omatic":11983,"rpc":11984,"Ra":11985,"Ġproto":11986,"Ġjudge":11987,"ĠSUMMARY":11988,"(.":11989,"ĠArgent":11990,"aron":11991,"Ġanchor":11992,"Ġsurg":11993,"Ġwx":11994,"Ġter":11995,"repo":11996,"1024":11997,"Ġdoctor":11998,"Ġretail":11999,"Ġinitialize":12000,"javax":12001,"Win":12002,"Ġvolunte":12003,"pend":12004,"arring":12005,"Ġinterests":12006,"Ġrig":12007,"Ġconclude":12008,"foreach":12009,"Ġ&#":12010,"ĠDNA":12011,"Ġhaven":12012,"ĠCR":12013,"zed":12014,"ĠAddress":12015,"logging":12016,"Ġeastern":12017,"COMM":12018,"Virtual":12019,"FRA":12020,"Ġgraphs":12021,"ĠBelg":12022,"ĠCub":12023,"ĠMedicine":12024,"Sports":12025,"ĠFuture":12026,"priv":12027,"Ġfly":12028,"Ġthermal":12029,"ĠBol":12030,"ĠGallery":12031,"ĠFish":12032,"Observer":12033,"Ġban":12034,"Ġthrown":12035,"agma":12036,"ĠHotel":12037,"ategor":12038,"tle":12039,"Ġasympt":12040,"________":12041,"ĠDam":12042,"Ġmathemat":12043,"nob":12044,"season":12045,"Ġstone":12046,"Ġprovince":12047,"rame":12048,"prob":12049,"jb":12050,"ĠDonald":12051,"getInstance":12052,"istogram":12053,"******":12054,"Ġsatisfied":12055,"Ġinfrastructure":12056,"1943":12057,"Ġwins":12058,"ArrayList":12059,"IZ":12060,"Prof":12061,"ĠAuto":12062,"relations":12063,"oking":12064,"Ġchapter":12065,"ĠAnton":12066,"Ġchoices":12067,"Ġpromote":12068,"agg":12069,"Cr":12070,"Ġoverflow":12071,"ĠProduct":12072,"cohol":12073,"Download":12074,"craft":12075,"1941":12076,"isor":12077,"ĉĉĠĠĠ":12078,"III":12079,":'":12080,"ĠRose":12081,"Ġintegrated":12082,"Tele":12083,"Ġease":12084,"Ġaffili":12085,"ĠColorado":12086,"ĠOutput":12087,"ician":12088,"Ġinvestigate":12089,"ounded":12090,"ĠEV":12091,"Counter":12092,"Ġweapons":12093,"Ġclusters":12094,"Ġscenes":12095,"Ġdecisions":12096,"Cancel":12097,"Ġwidget":12098,"phant":12099,"=%":12100,"Ġà¤":12101,"Ġbomb":12102,"Arguments":12103,"ĠCreates":12104,"ORK":12105,"Ġfrequently":12106,"ĠRailway":12107,"Ġvisited":12108,"Ġdry":12109,"Been":12110,"ĠSTART":12111,"Split":12112,"Declaration":12113,"Previous":12114,"Her":12115,"Ġvo":12116,"ĠMatt":12117,"Ġprecision":12118,"(\"%":12119,"Introduction":12120,"direction":12121,"Ġcrash":12122,"Old":12123,"Ã©s":12124,"Ġapplying":12125,"Ġworker":12126,"Ġwing":12127,"Ġspl":12128,"Ġindicating":12129,"Ġarc":12130,"Ġfi":12131,"Library":12132,"amazonaws":12133,"Ġuri":12134,"ouri":12135,"Ġ'''":12136,"1955":12137,"Ġsimult":12138,"Ġpeer":12139,"Ġdemocr":12140,"Ġsharing":12141,"ĠBC":12142,"uity":12143,"Ġscores":12144,"proposition":12145,"Ġarts":12146,"Ġexperienced":12147,"ĠPrize":12148,"eric":12149,">()":12150,"British":12151,"Also":12152,"Ġinternet":12153,"isely":12154,">'":12155,"RUN":12156,"adoc":12157,"Ġprepare":12158,"Ġclip":12159,"Â©":12160,"icious":12161,"Ġrestr":12162,"Ġdisable":12163,"Ġprogramme":12164,"Ġuncertainty":12165,"ĠOcean":12166,"chant":12167,"ĠPhiladelphia":12168,"Ġdelta":12169,"ĠClasses":12170,"eres":12171,"Ġimplied":12172,"Ġpredicted":12173,"pad":12174,"Missing":12175,"Contains":12176,"arios":12177,"_)":12178,"zech":12179,"Ġcampus":12180,"Holder":12181,"Ġmanifold":12182,"<<":12183,"uplicate":12184,"ĠDespite":12185,"Ġsudden":12186,"Ġbreaking":12187,"Ġmand":12188,"Bounds":12189,"Ġdelivered":12190,"Ġsequences":12191,"Ġidentical":12192,"rink":12193,"ordon":12194,"LAY":12195,"Ð·":12196,"anny":12197,"patcher":12198,"Mut":12199,"Ġrend":12200,"ulner":12201,"ells":12202,"asty":12203,"inch":12204,"ĠNations":12205,"ĠÐ²":12206,"Ġyards":12207,"solr":12208,"ĠIter":12209,"Austral":12210,"ĠTurkey":12211,"Ġenumer":12212,"BUFFER":12213,"Ġhosted":12214,"Ġhall":12215,"ĠBudd":12216,"Ġbought":12217,"Ġdecade":12218,"Geometry":12219,"ĠWhere":12220,"Points":12221,"BIT":12222,"Ġhorse":12223,"Ġsampling":12224,"ĠLang":12225,"Ġabandon":12226,"Oh":12227,"Ġnecessarily":12228,"rizona":12229,"Ġcharacteristics":12230,"ĠCulture":12231,"ĠStock":12232,"ĠVALIGN":12233,"ĉĠĠĠĠ":12234,"GIN":12235,"quant":12236,"Ġcalculations":12237,"iversary":12238,"Ġentertain":12239,"Coin":12240,"Ġspac":12241,"ymmetric":12242,"fp":12243,"ĠFollowing":12244,"Switch":12245,"UEST":12246,"urd":12247,"utely":12248,"timestamp":12249,"Ġlum":12250,"hd":12251,"sch":12252,"itative":12253,"Optional":12254,"iley":12255,"strings":12256,"ibration":12257,"Metrics":12258,"orer":12259,"Exists":12260,"Ġresponsibility":12261,">%":12262,"leton":12263,"arsing":12264,"Ġexpressions":12265,"ĠStore":12266,"Errorf":12267,"mean":12268,"gar":12269,"ĠDead":12270,"perial":12271,"Ġfold":12272,"102":12273,"Ġplaceholder":12274,"essional":12275,"aus":12276,"ownt":12277,"Ġrefers":12278,"anches":12279,"delay":12280,"danger":12281,"Bool":12282,"Ġamazing":12283,"allenge":12284,"ĠPromise":12285,"history":12286,"ĠStaff":12287,"eness":12288,"nc":12289,"ennessee":12290,"Ġscales":12291,"ĠGer":12292,"ĠOnline":12293,"FN":12294,"ĠMiller":12295,"Ġyounger":12296,"ĠPack":12297,"1947":12298,"Ġmanifest":12299,"ĠØ§":12300,"Ġbug":12301,"Ġhero":12302,"(['":12303,"\\{\\":12304,"('<":12305,"Timestamp":12306,"Ġconcerned":12307,"Ġscaling":12308,"previous":12309,"1952":12310,"Ġultimately":12311,"ĠCru":12312,"Original":12313,"isode":12314,"Aggreg":12315,"Idx":12316,"ĠLat":12317,"Ġdates":12318,"AVE":12319,"Ġsomewhat":12320,"ĠContext":12321,"Ġcompiler":12322,"rules":12323,"tikz":12324,"moment":12325,"ĠOntario":12326,"Ġcro":12327,"Ġassets":12328,"Reset":12329,"Ġstatistical":12330,"Ġloved":12331,"iral":12332,"Uses":12333,"Ġraces":12334,"gif":12335,"}}$,":12336,"Ġresearchers":12337,"ĠBridge":12338,"Ġcapable":12339,"Ġprominent":12340,"Ġkilling":12341,"Ġworst":12342,"Ġshadow":12343,"remote":12344,"fortunately":12345,"mad":12346,"Ġcomputing":12347,"ĠSound":12348,"eros":12349,"Enable":12350,"^{+":12351,"Lem":12352,"Super":12353,"Ġpixel":12354,"ĠThrough":12355,"ĠĠĠĠĠĠĠĠĠĠĠĠĠĠĠĠĠĠĠĠĠĠĠĠĠĠĠĠĠĠĠĠĠĠ":12356,"anim":12357,"repeat":12358,"utr":12359,"former":12360,"ENV":12361,"ouston":12362,"Ġinterior":12363,"keep":12364,"Ġimpl":12365,"Dynamic":12366,"ĠRevolution":12367,"aneously":12368,"$~":12369,"Ġresulted":12370,"ĠÑģ":12371,"Ġworse":12372,"ixtures":12373,"wallet":12374,"Ġcontest":12375,"Organ":12376,"ĠAP":12377,"Ġparsed":12378,"Zero":12379,"ĠIR":12380,"Ġdatasets":12381,"ĠMountain":12382,"Ġofficially":12383,"nos":12384,"ĠDir":12385,"Ġfestival":12386,"Ġbrings":12387,"fection":12388,"Ġdebate":12389,"hal":12390,"ĠSky":12391,"wbr":12392,"Ġmarkets":12393,"ĠSend":12394,"rend":12395,"Analysis":12396,"Ġsin":12397,"Ġsentence":12398,"ĠGolden":12399,"ogeneous":12400,"Ġcharacteristic":12401,"ĠReference":12402,"ĠJordan":12403,"brand":12404,"News":12405,"cfg":12406,"WEBPACK":12407,"requency":12408,"cancel":12409,"Ġchunk":12410,"Bits":12411,"Inner":12412,"Ġradiation":12413,"Ġĉ":12414,"ipage":12415,"Ġpromotion":12416,"Ġstrategies":12417,"Press":12418,"Ġ|=":12419,"Ġcoinc":12420,"chestra":12421,"Diff":12422,"Ġsubmit":12423,"acher":12424,"sym":12425,"Ġtables":12426,"Ġdelegate":12427,"ceptor":12428,"1954":12429,"Ġpractical":12430,"__)":12431,"ĠFall":12432,"Ġpreced":12433,"ĠMagazine":12434,"fb":12435,"Ġhits":12436,"ĠManager":12437,"Ġsupplied":12438,"ĠAccount":12439,"Ġhearing":12440,"Ġdefines":12441,"Ġinfer":12442,"DATE":12443,"Ġintelligence":12444,"ĠColumn":12445,"ĠWinter":12446,"Ġcompre":12447,"Ġvess":12448,"plane":12449,"analysis":12450,"tection":12451,"iggs":12452,"License":12453,"ĠRome":12454,"Warn":12455,"Ġdecide":12456,"ĠCorn":12457,"Ġeat":12458,"Ġplate":12459,"Ġbat":12460,"Separ":12461,"Øª":12462,"140":12463,"UBLIC":12464,"emit":12465,"lu":12466,"TAG":12467,"photon":12468,"Ġadds":12469,"strip":12470,"quarters":12471,"Ġcancell":12472,"Ġmanip":12473,"compute":12474,"ques":12475,",.":12476,"ĠEditor":12477,"archive":12478,"ĠCorps":12479,"ilbert":12480,"pearance":12481,"Ġmort":12482,"Bad":12483,"Effect":12484,"Ġmess":12485,"ĠEric":12486,"ĠDOM":12487,"ĠNever":12488,"Ġsnow":12489,"Ġdependent":12490,"Ġton":12491,"uning":12492,"Ġreaders":12493,"IMPORTED":12494,"Cent":12495,"Ġpercentage":12496,"ingham":12497,"bundle":12498,"Ġyellow":12499,"ĠLoc":12500,"ugar":12501,"Drag":12502,"~~~~~~~~":12503,"ĠExecutive":12504,"Ġfolder":12505,"Ġimmediate":12506,"Ġorth":12507,"Ġsigns":12508,"Ġresistance":12509,"ieval":12510,"Ġyes":12511,"Ġaid":12512,"Ġdiagn":12513,"ĠBuilding":12514,"Ġusername":12515,"frag":12516,"Ġpasses":12517,"iÄĩ":12518,"party":12519,"hpp":12520,"rell":12521,"Ġintent":12522,"Kit":12523,"ĠReb":12524,"may":12525,"adesh":12526,"Runner":12527,"middle":12528,"slash":12529,"Ġ\"'":12530,"ĠMill":12531,"LICENSE":12532,"Month":12533,"ortheast":12534,"BM":12535,"Ġreligion":12536,"away":12537,"Ġarrested":12538,"Ġpray":12539,"xsd":12540,"Ġtwenty":12541,"LETE":12542,">(<":12543,"ĠFord":12544,"}}$.":12545,"comb":12546,"Will":12547,"ĠSingapore":12548,"prom":12549,"loom":12550,"edding":12551,"ĠHamiltonian":12552,"uet":12553,"Ġpixels":12554,"ĠHarry":12555,"TIES":12556,"DM":12557,"Ġshares":12558,"*,":12559,"ĠWhether":12560,"Life":12561,"Ġlistening":12562,"lint":12563,"Executor":12564,"Ġtack":12565,"Ġneither":12566,"Ġfamiliar":12567,"Sol":12568,"ivals":12569,"Ġadult":12570,"written":12571,"ĠEdition":12572,"1953":12573,"Ġorbit":12574,"Ġterminal":12575,"ĠURI":12576,"generator":12577,"ĠHal":12578,"sha":12579,"Ġdefinitely":12580,"Controls":12581,"Ġreplacement":12582,"><!--":12583,"ĠFix":12584,"ourier":12585,"Ġgoverning":12586,"ĠNetherlands":12587,"ĠMalays":12588,"everal":12589,"Sources":12590,"Ġacid":12591,"ĠEP":12592,"OC":12593,"kh":12594,"Ġ'_":12595,"Ġcookies":12596,"ĠDaily":12597,"ĠRyan":12598,"Ġequality":12599,"Ġdeleted":12600,"Ġbold":12601,"icky":12602,"OutputStream":12603,"ikip":12604,"ante":12605,"Linear":12606,"parts":12607,"itories":12608,"orry":12609,"Ġabuse":12610,"æĺ":12611,"sis":12612,"anga":12613,"ĠExpl":12614,"Ġglob":12615,"tl":12616,"slider":12617,"Ġfs":12618,"crement":12619,"cref":12620,"Ġ'\"":12621,"})$,":12622,"ucks":12623,"production":12624,"ĠOperation":12625,"Ġfol":12626,"Ġdomestic":12627,"PROP":12628,"Ġveg":12629,"Ġpotentially":12630,"through":12631,"speed":12632,"uating":12633,"ĠBY":12634,"Ġpatch":12635,"Ġcash":12636,"Ġabund":12637,"ĠWARRANTIES":12638,"nl":12639,"Ev":12640,"Ġsculpt":12641,"embed":12642,"Ġsatisfying":12643,"ropical":12644,"Inf":12645,"Ġimprovement":12646,"cow":12647,"izers":12648,"Ġpapers":12649,"Ġtaught":12650,"displaystyle":12651,"ĠParse":12652,"Upload":12653,"Ġreporting":12654,"Ġiron":12655,".[":12656,"ĠPot":12657,"1949":12658,"Owner":12659,"Tax":12660,"ĠÐ½":12661,"Ġhun":12662,"stage":12663,"Ġ```":12664,"Ã¥":12665,"ĠBrian":12666,")-\\":12667,"ĠCambridge":12668,"dam":12669,"Ġnamely":12670,"Ġframes":12671,"Ġtrivial":12672,"RECT":12673,"Ġcraft":12674,"ĠRaj":12675,"TRAN":12676,"ĠContin":12677,"SOUR":12678,"DEX":12679,"agan":12680,"plicity":12681,"Ġseats":12682,"]+":12683,"linux":12684,"door":12685,"datetime":12686,"Given":12687,"Ġtraject":12688,"|}":12689,"PG":12690,"ista":12691,"Ġhorizontal":12692,"ĠChen":12693,"ĠQueens":12694,"111":12695,"Based":12696,"aza":12697,"Ġhockey":12698,"ĠAC":12699,"Ignore":12700,"Ġfounder":12701,"Ġwalls":12702,"Ġenhance":12703,"Ïģ":12704,"Ġversus":12705,"Ġmm":12706,")}_{":12707,"Ġdrivers":12708,"Ġwindows":12709,"Ġqueries":12710,"ĠForeign":12711,"Bel":12712,"<>();":12713,"enda":12714,"ials":12715,"iors":12716,"Ġmusicians":12717,"Converter":12718,"Bro":12719,"Ġdiscrim":12720,"ĠPolish":12721,"itecture":12722,"ĠWisconsin":12723,"ĠDream":12724,"Ġwinners":12725,"Ïĥ":12726,"Ġcub":12727,"ighth":12728,"minipage":12729,"router":12730,"ĠĠĠĠĠĠĠĠĠĠĠĠĠĠĠĠĠĠĠĠĠĠĠĠĠĠĠĠĠĠĠĠĠĠĠĠ":12731,"Doctrine":12732,"Ġcircuit":12733,"linked":12734,"Ġpredictions":12735,"Ġfluid":12736,"oust":12737,"Ġtheories":12738,";;":12739,"lesssim":12740,"Ġbulk":12741,"Camera":12742,"Ġalpha":12743,"ĠMarket":12744,"unlock":12745,"distance":12746,"UV":12747,"akh":12748,"antry":12749,"sdk":12750,"Ġmarg":12751,"Ġspeaking":12752,"Ġpurchased":12753,"ĠKa":12754,"angel":12755,"Ġopposition":12756,"Ġresponses":12757,"Expected":12758,"ĠPA":12759,"dst":12760,"eah":12761,"angers":12762,"Ġkit":12763,"Ġcoefficient":12764,"Ġbatt":12765,"ĠNorm":12766,"Millis":12767,"incipal":12768,"vironments":12769,"iations":12770,"Ġvm":12771,"Place":12772,"Ġbringing":12773,"ĠIndones":12774,"ĠDIS":12775,"Ġterritory":12776,"andal":12777,"Ġreceiver":12778,"ĠSu":12779,"Ġlowest":12780,"Direction":12781,"Ġlect":12782,"SSION":12783,"Ġwrites":12784,"oa":12785,"ĠBuffer":12786,"ĠLjava":12787,"Ð°ÑĤ":12788,"wiki":12789,"Ġvice":12790,"Ġtriple":12791,"ikipedia":12792,"ĠGrant":12793,"ĠJews":12794,"Ġjet":12795,"oor":12796,"ĠOregon":12797,"ĠPalest":12798,"Ġlegisl":12799,"cursor":12800,"ntil":12801,"getMessage":12802,"BASE":12803,"ania":12804,"ĠRoss":12805,"ensitive":12806,"BUILD":12807,"ibilities":12808,"Ġfootballer":12809,"SF":12810,"ĠDuke":12811,"Available":12812,"Ġalias":12813,"Ġsed":12814,"Extensions":12815,"Ġshooting":12816,"Ġforg":12817,"Ġfluct":12818,"Ġchampion":12819,"Ġuniverse":12820,"Ġimpress":12821,"Ġrid":12822,"days":12823,"esis":12824,"Mount":12825,"orizon":12826,"ĠSW":12827,"Ġstrike":12828,"ASH":12829,"tile":12830,"Ġroutes":12831,"odo":12832,"1951":12833,"gies":12834,"mount":12835,"oxy":12836,"ILITY":12837,"Ġexcited":12838,"Have":12839,"Ġquantity":12840,"Ġcomputational":12841,"quir":12842,"Ġinherit":12843,":}":12844,"ĠLind":12845,"Ġpilot":12846,"irms":12847,"pref":12848,"ĠGree":12849,"examples":12850,"Ġreb":12851,"interval":12852,"Ġappearances":12853,"Ġcollaboration":12854,"Ġexcess":12855,"Ġpersons":12856,"oda":12857,"Ġtemporary":12858,"Ġmit":12859,"Ġcovering":12860,"hbar":12861,"Ġscattering":12862,"ĠTai":12863,"Ġaccum":12864,"Ġ(+":12865,"Ġinstitution":12866,"eties":12867,"ĠEntertainment":12868,"cers":12869,"Ġincred":12870,"lot":12871,"Ġsole":12872,"âĢĭ":12873,"ffee":12874,"ĠSV":12875,"ĠassertTrue":12876,"ĠOt":12877,"Ġtypedef":12878,"fac":12879,"Ġsuffered":12880,"ĠĠĠĠĠĠĠĠĠĠĠĠĠĠĠĠĠĠĠĠĠĠĠĠĠĠĠĠĠĠĠĠĠĠĠĠĠ":12881,"ymph":12882,"shell":12883,"getString":12884,"Ġdocumentary":12885,"ods":12886,"ĠFront":12887,"agues":12888,"clic":12889,"Ġextreme":12890,"ĠHeart":12891,"Ġworldwide":12892,"Ġdepos":12893,"Ġdiscovery":12894,"Ġessentially":12895,"Ġarrang":12896,"UA":12897,"ĠAmb":12898,"Ġchecks":12899,"Ġmouth":12900,"ĠSystems":12901,"Locale":12902,"Therefore":12903,"ĠLeon":12904,"/(":12905,"Ġrejected":12906,"MF":12907,"uable":12908,"Ġteen":12909,"ĠItem":12910,"Ġimpossible":12911,"riends":12912,"Ġvirt":12913,"David":12914,"Ġrestaurant":12915,"rient":12916,"pin":12917,"islation":12918,"Ġscholar":12919,"hensive":12920,"Collect":12921,"UNT":12922,"Verify":12923,"Ġproposal":12924,":=":12925,"Ġcb":12926,"ĠSimon":12927,"wick":12928,"Ġgained":12929,"bench":12930,"codec":12931,"ificial":12932,"Ġmaxim":12933,"\"];":12934,"amount":12935,"ICATION":12936,"HOME":12937,"acer":12938,"Ġsuit":12939,"Aug":12940,"EY":12941,"binary":12942,"ĠDeath":12943,"Ġclone":12944,"kish":12945,"Ġconclusion":12946,"nie":12947,"ĠLev":12948,"getType":12949,"Ùĩ":12950,"oi":12951,"Ġdecomposition":12952,"FALSE":12953,"rob":12954,"omm":12955,"/*!":12956,"ĠPlaces":12957,"ĠWord":12958,"----------":12959,"Ġgoods":12960,"week":12961,"Ġlit":12962,"Ġpromoted":12963,"regular":12964,"ĠCaptain":12965,"FileName":12966,"ĠModern":12967,"ĠBor":12968,"Ġmagic":12969,"peror":12970,"Ġneural":12971,"cline":12972,"ĠĠčĊ":12973,"Ġstages":12974,"|_{":12975,"alias":12976,"Ġopposed":12977,"pred":12978,"notify":12979,"ospit":12980,"ĠAtlantic":12981,"ĠCastle":12982,"ĠMit":12983,"ignore":12984,"Ġasking":12985,"Ġfat":12986,"}\",":12987,"esides":12988,"Ġreasonable":12989,"Ġcond":12990,"Ġrecovery":12991,"Rules":12992,"weg":12993,"Ġadjacent":12994,"Ġdefeat":12995,"ĠJacob":12996,"opsis":12997,"Fi":12998,"Ġpassion":12999,"Partition":13000,"Tasks":13001,"ĠMoh":13002,"Authentication":13003,"jan":13004,"vendor":13005,"Ġamplitude":13006,"team":13007,"Feed":13008,"Ġtradition":13009,"ĠSerial":13010,"ĠBurn":13011,"ĠCab":13012,"Ġrent":13013,"ĠÂ·":13014,"Decimal":13015,"ĠHollywood":13016,"Ġthin":13017,"urst":13018,"Ġ'@":13019,"Ġpiano":13020,"Ġroy":13021,"Shift":13022,"take":13023,"Ġintensity":13024,"Ġconvex":13025,"Ġimplicit":13026,"gems":13027,"Ġsymbols":13028,"ĠTony":13029,"emet":13030,"112":13031,"statsmodels":13032,"Delay":13033,"Ġconsequence":13034,"ulp":13035,"ĉĉĉĉĊ":13036,"1936":13037,"116":13038,"Ġ--></":13039,"Ġcontribute":13040,"Ġqualified":13041,"Ġri":13042,"aturally":13043,"Ġpreferred":13044,"olving":13045,"ĠTerr":13046,"Ġfired":13047,"ssl":13048,"ĠWel":13049,"LIN":13050,"XY":13051,"offs":13052,"9999":13053,"Ġcausing":13054,"Personal":13055,"Ġunivers":13056,"Polit":13057,"Ġfaces":13058,"Ġtemperatures":13059,"$),":13060,"Self":13061,"aco":13062,"ĠMemorial":13063,"POS":13064,"URN":13065,"Ġdriven":13066,"verify":13067,"Secret":13068,"ĠPrivate":13069,"Ġadm":13070,"riterion":13071,"Ġoperate":13072,"ĠFA":13073,"ĠPlace":13074,"ĠUkraine":13075,"NameLink":13076,"è®":13077,"Ġha":13078,"Ġabort":13079,"×ķ×":13080,"ptic":13081,"Ġaccompl":13082,"Ġdiscrete":13083,"Review":13084,"Ġadap":13085,"Primary":13086,"Ġinverse":13087,"ĠNAS":13088,"ĠNaz":13089,"Ġplatforms":13090,"Ġaccommod":13091,"ĠNFL":13092,"management":13093,"(\"\\":13094,"Ġiteration":13095,"Ġnotable":13096,"ĠAnderson":13097,"was":13098,"Ġproducing":13099,"atibility":13100,"Ġdefinitions":13101,"spin":13102,"appoint":13103,"Ġslot":13104,"ĠDisney":13105,"Reason":13106,"Ġcanvas":13107,"Ġwilling":13108,"Anim":13109,"ĠFrame":13110,"ĠPremier":13111,"Ġabsence":13112,"Ġdst":13113,"ĠVi":13114,"Ġreads":13115,"Health":13116,"ĠHart":13117,"Ġconsisting":13118,"ï¿":13119,"Ġ[\\":13120,"105":13121,"Ġpreserv":13122,"Ġenemy":13123,"Ġairport":13124,"ctree":13125,"encoding":13126,"Ġiget":13127,"Ġvariant":13128,"folder":13129,"Ġcollapse":13130,"isition":13131,"ĠLib":13132,"Ġreply":13133,"DTD":13134,"Poly":13135,"ĠJane":13136,"ĠSweden":13137,"Ġputting":13138,"Ġorig":13139,"TableRow":13140,"Supported":13141,"ĠKat":13142,"ĠMilitary":13143,"via":13144,"Ġeducational":13145,"members":13146,"ĠJesus":13147,"HashMap":13148,"secondary":13149,"timer":13150,"Ġsensitive":13151,"herent":13152,"Ġdictionary":13153,"104":13154,"Ġhonest":13155,"Ġneutr":13156,"Particip":13157,"ĠSher":13158,"ĠAh":13159,"Ġtemple":13160,"Special":13161,"Ġmatters":13162,"ellect":13163,"512":13164,"Ġpending":13165,"ĠBlog":13166,"ĠSav":13167,"veh":13168,"Ġunderstood":13169,"Ġpit":13170,"IMIT":13171,"Ġdescriptor":13172,"ĠNull":13173,"yers":13174,"Mich":13175,"Ġboys":13176,"jackson":13177,"Extra":13178,"mapping":13179,"ĠKal":13180,"awesome":13181,"Ġris":13182,"Ġ-=":13183,"clip":13184,"Models":13185,"Good":13186,"Ġfaculty":13187,"HOUT":13188,"Ġours":13189,"orse":13190,"Ġexponential":13191,"Ġextensions":13192,"expand":13193,"ainer":13194,"Ġreward":13195,"ĠRoll":13196,"nan":13197,"SPAN":13198,"live":13199,"Translation":13200,"!</":13201,"iem":13202,"Ġconversation":13203,"TOM":13204,"adv":13205,"Ġrenew":13206,"Ġrepresentations":13207,"Culture":13208,"Ġns":13209,"mix":13210,"1918":13211,"Fixed":13212,"ĠPhoto":13213,"odge":13214,"ĠByte":13215,"Ġdangerous":13216,"taining":13217,"swing":13218,"ativ":13219,"Ġcombat":13220,"roph":13221,"Ġliquid":13222,")}}":13223,"lix":13224,"ĠComponent":13225,"fav":13226,"inema":13227,"Execute":13228,"comple":13229,"bridge":13230,"bug":13231,"Ġadministrative":13232,"ĠOP":13233,"}({\\":13234,"Ġcellpadding":13235,"Ġhundreds":13236,"Ga":13237,"Ġmunicipality":13238,"enny":13239,"North":13240,"ĠHan":13241,"Ġpainting":13242,"Ġapplies":13243,"riev":13244,"stan":13245,"1938":13246,"Ġå":13247,"ĠStone":13248,"RESULT":13249,"ocks":13250,"Ġtechnologies":13251,"tail":13252,"Ġbroke":13253,"ĠPlayer":13254,"rep":13255,"Ġspr":13256,"Stub":13257,"Ġbond":13258,"aire":13259,"country":13260,"enz":13261,"Ġfeels":13262,"ĠCred":13263,"]]></":13264,"SG":13265,"quo":13266,"emony":13267,"Ġfacts":13268,"Ep":13269,"hook":13270,"&=&":13271,"Ġevaluated":13272,"Ġcomposer":13273,"%%%%%%%%":13274,"ĠChem":13275,"ĠAdministration":13276,"1900":13277,"}{|":13278,"ï¿½":13279,"Ġmoder":13280,"Ġrespective":13281,"ĠTYPE":13282,"IDE":13283,"references":13284,"Period":13285,"Actions":13286,"Contin":13287,"Ġscientists":13288,"ĠIndeed":13289,"Ġroof":13290,"Changes":13291,"Ġ(%":13292,"Ġforget":13293,"__,":13294,"555":13295,"ĠJoh":13296,"raction":13297,"Mc":13298,"ipl":13299,"ÙĬ":13300,"COM":13301,"ĠYes":13302,"ĠMas":13303,"Ġgravity":13304,"Ġdemonstrated":13305,"graphics":13306,"Created":13307,"}$)":13308,"(/":13309,"Ġcached":13310,"Push":13311,"ursive":13312,"Ġfilters":13313,"Ġmes":13314,"ido":13315,"Ġinstructions":13316,"Ġveter":13317,"Ġcontrad":13318,"bigl":13319,"addClass":13320,"ĠLogger":13321,"ĠNeed":13322,"Ġvisitors":13323,"çĶ¨":13324,"Ġcellspacing":13325,"Ġtip":13326,"NP":13327,"posing":13328,"who":13329,"AE":13330,"Ġintern":13331,"plain":13332,"Ġposter":13333,"ĠTennessee":13334,"Team":13335,"ĠMoon":13336,"rig":13337,"ĠMobile":13338,"ĠSin":13339,"unknown":13340,"ĠPhilippines":13341,"ju":13342,"Party":13343,"Ġrevolution":13344,"Ġbelongs":13345,"ĠOfficer":13346,"mitter":13347,"ÑĢÐµ":13348,"Ġbaby":13349,".âĢĻ":13350,"Ġexposed":13351,"course":13352,"ĠGh":13353,"Following":13354,"ĠMethods":13355,"ĠTOP":13356,"Ġfacilit":13357,"Ġhosts":13358,"avis":13359,"1937":13360,",...":13361,"etary":13362,"================================================================":13363,"Must":13364,"AU":13365,"Ġride":13366,"what":13367,"observ":13368,"Ġquiet":13369,"Ġpresentation":13370,"Ġcanonical":13371,"ĠLiter":13372,"Ġclim":13373,"ĠMaria":13374,"ĠFight":13375,"aux":13376,"Ġmine":13377,"Ġmob":13378,"Ġsevent":13379,"Ġtowns":13380,"PREF":13381,"ĠMust":13382,"icular":13383,"ĠHandle":13384,"stud":13385,"OLD":13386,"negative":13387,"pragma":13388,"Ok":13389,"interpre":13390,"Diagnostics":13391,"hbox":13392,"Ġdemonstrate":13393,"Ġturning":13394,"Ġmile":13395,"Ġprecisely":13396,"ĠSmall":13397,"TERN":13398,"transport":13399,"Observ":13400,"ĠNum":13401,"Convert":13402,"Ġpackages":13403,"`)":13404,"Week":13405,"Ġvast":13406,"loss":13407,"Ġdenoted":13408,"Ġescap":13409,"oven":13410,"sure":13411,"ĠOCaml":13412,"Ġdeclare":13413,"getClass":13414,"toc":13415,"Machine":13416,"Ġtalks":13417,"uties":13418,"Ġscoring":13419,"asts":13420,"Expect":13421,"ĠClark":13422,"Ġprintf":13423,"ĠPDF":13424,"ĠInvalid":13425,"Ġtexture":13426,"rence":13427,"Ġresolved":13428,"ĠArizona":13429,"900":13430,"frames":13431,"ĠSurvey":13432,"annotations":13433,"googleapis":13434,"Ġexhibition":13435,"('./":13436,"bigr":13437,"features":13438,"Ġproduces":13439,"Pojo":13440,"vertex":13441,"Ġinterpretation":13442,"ĠDun":13443,"period":13444,"Ġpointed":13445,"ĠUtil":13446,"Typ":13447,"ĠDest":13448,"Sam":13449,"ilk":13450,"Plot":13451,"ycl":13452,"Ġestimation":13453,"urrence":13454,"Ġpresents":13455,"Ġ$|\\":13456,"ĠAnalysis":13457,"LOAD":13458,"Ġexpensive":13459,"Ġ'#":13460,"argo":13461,"hill":13462,"Ġsubjects":13463,"ĠĠĠĠĠĠĠĠĠĠĠĠĠĠĠĠĠĠĠĠĊ":13464,"Ġdipl":13465,"Ġcrucial":13466,"Tok":13467,"metric":13468,"Break":13469,"Ġrating":13470,"Ġlogin":13471,"noframe":13472,"dynamic":13473,"except":13474,"iable":13475,"flush":13476,"Ġdt":13477,"ĠYouTube":13478,"Servlet":13479,"ĠIL":13480,"dn":13481,"mf":13482,"Ġmissed":13483,"ĠSto":13484,"Ġoutcome":13485,"Ġwear":13486,"Qt":13487,"Ġkw":13488,"Ġdrugs":13489,"etr":13490,"ĠMAX":13491,"ĠRad":13492,"Ġregistration":13493,"Ġgenerating":13494,"ĠBarn":13495,"hedral":13496,"ĠAffairs":13497,"ĠCirc":13498,"sz":13499,"Ġguid":13500,"Ġteachers":13501,"Ġattrib":13502,"FM":13503,"ĠLabour":13504,"rent":13505,"Pal":13506,"ĠKevin":13507,"ĠSP":13508,"Ġiterator":13509,"inction":13510,"Ġseeking":13511,"Ġroots":13512,"Ġflu":13513,"labels":13514,"ĠFALSE":13515,"hour":13516,"Ġassumptions":13517,"NON":13518,"marks":13519,"burn":13520,"Ġexercise":13521,".',":13522,"Ġinvolves":13523,"Ġauthent":13524,"THER":13525,"wich":13526,"rock":13527,"ubb":13528,"Ġdismiss":13529,"works":13530,"AK":13531,"Ġlemma":13532,"OFF":13533,"ĠPit":13534,"Ġpictures":13535,"Ġhook":13536,"Ġboat":13537,"Ġhardware":13538,"concurrent":13539,"Ġfindings":13540,"allest":13541,"incess":13542,"ĠOk":13543,"]->":13544,"ĠAthlet":13545,"Ġsight":13546,"Proof":13547,"ĠSquare":13548,"Ġstreets":13549,"Song":13550,"UCT":13551,"Ġtries":13552,"Ġdiverse":13553,"apl":13554,"su":13555,"stituency":13556,"Tex":13557,"Ġstead":13558,"ĠFellow":13559,"iph":13560,"emetery":13561,"Ġkil":13562,"Ġracing":13563,"ĠML":13564,"Instruction":13565,"vard":13566,"Ġongoing":13567,"aton":13568,"Ġscan":13569,"ĠMean":13570,"cls":13571,"slide":13572,"aval":13573,"puted":13574,"ibern":13575,"'].":13576,"ĠTry":13577,"Ġvictims":13578,"ĠActive":13579,"fragment":13580,"Ġleaf":13581,"metic":13582,"inherited":13583,"Ġbid":13584,"Ġsufficiently":13585,"OG":13586,"Ġcorporate":13587,"ĠDoctor":13588,"Ġstrip":13589,"icide":13590,"kernel":13591,"Ġtum":13592,"olves":13593,"Lat":13594,"repre":13595,"Fac":13596,"Ġtokens":13597,"ĠMatch":13598,"FLAGS":13599,"ĠIndiana":13600,"dfrac":13601,"aware":13602,"ĠGenerated":13603,"ĠMD":13604,"_-":13605,"Ġorientation":13606,"listener":13607,"ĠAws":13608,"closure":13609,"ĠUl":13610,"Loading":13611,"Ġrotate":13612,"âĢĻ.":13613,"EVENT":13614,"ocom":13615,"Ġchose":13616,"fghan":13617,"Ġroughly":13618,"Ġencoded":13619,"Willi":13620,"Ġaccessible":13621,"æķ°":13622,"uscript":13623,"bone":13624,"Ġturb":13625,"elled":13626,"east":13627,"ĠKansas":13628,"Ġgoto":13629,"Ġ---":13630,"izz":13631,"Mal":13632,"ailing":13633,"obby":13634,"ĠTake":13635,"Ġ\"${":13636,"ned":13637,"ĠExpress":13638,"ĠLeb":13639,"Mo":13640,"\\;":13641,"decode":13642,"Ġcoins":13643,"FLAG":13644,"estab":13645,"Ġswim":13646,"Ġmunicipal":13647,"Ġconcrete":13648,"cong":13649,"LES":13650,"Ġconservation":13651,"bow":13652,"coln":13653,"represent":13654,"matches":13655,"quest":13656,"BD":13657,"Ġdiver":13658,"Ġspoke":13659,"chat":13660,"agu":13661,"ĠMarc":13662,"roit":13663,"Ġgit":13664,"best":13665,"opam":13666,"æĪ":13667,"ste":13668,"Ġtuple":13669,"utenant":13670,"Quant":13671,"ĠInv":13672,"Ġafford":13673,"ĠResources":13674,"Ġreform":13675,"Ġwalking":13676,"Ġwine":13677,"Ġcards":13678,"Ġinsurance":13679,"ĠAgency":13680,"Li":13681,"Ġpara":13682,"Ġtracking":13683,"Bus":13684,"Numer":13685,"fred":13686,"reason":13687,"Ġselling":13688,")})":13689,"ahoma":13690,"uber":13691,"Ġspending":13692,"Ġnovels":13693,"Ġrepeat":13694,"San":13695,"ashes":13696,"Ctrl":13697,"')->":13698,"Ġtotally":13699,"Ġpermanent":13700,"updated":13701,"}{(":13702,"icians":13703,"ders":13704,"Ġtalent":13705,"Contract":13706,"there":13707,"Ġ#{":13708,"=&":13709,"ĠProm":13710,"Ġsheet":13711,"ĠRange":13712,"ĠMrs":13713,"\":\"":13714,"ĠSilver":13715,"Codec":13716,"INVALID":13717,"toctree":13718,"Ġintention":13719,"Ġenjoyed":13720,"Ġstood":13721,"ĠProdu":13722,"ĠTrack":13723,"vet":13724,"Ġpossess":13725,"Ġsoci":13726,"1919":13727,"ĠSwedish":13728,"ĠBan":13729,"Ġredirect":13730,"!\\":13731,"Ġemergency":13732,"Asset":13733,"Ġexplos":13734,"ĠOak":13735,"ĠClin":13736,"SPACE":13737,"Ġcls":13738,"Ġcertificate":13739,"Ġderivative":13740,"execution":13741,"rollers":13742,"ctors":13743,"aba":13744,"Ġsensor":13745,"Ġflash":13746,"Ġconsecutive":13747,"Ġgiant":13748,"Ġwrest":13749,"Ġdense":13750,"reprene":13751,"Ġfault":13752,"IME":13753,"cn":13754,"Und":13755,"Ġwrapper":13756,"ĠHoly":13757,"usted":13758,"Features":13759,"RESS":13760,"(\".":13761,">${":13762,"Bridge":13763,"erd":13764,"Ġprospect":13765,"Ġsoul":13766,"uris":13767,"urches":13768,"æĹ":13769,"Ġsees":13770,"Ġgraduated":13771,"servlet":13772,"Stage":13773,"ulus":13774,"()\">":13775,"Ġplain":13776,"Ġheads":13777,"Ġdx":13778,"ige":13779,"ĠVietnam":13780,"Marker":13781,"Ġincreasingly":13782,"ĠSix":13783,"Ġ\\(\\":13784,"Mutable":13785,"Side":13786,"heets":13787,"refresh":13788,"train":13789,"ĠPier":13790,"esterday":13791,"Ġranked":13792,"Ġhouseholds":13793,"ARG":13794,"ĠME":13795,"uh":13796,"ĠOtherwise":13797,"Ġparticipate":13798,"ĠArthur":13799,"ĠKEY":13800,"brace":13801,"ĠHop":13802,"ĠTABLE":13803,"Ġparticipated":13804,"SPAC":13805,"ĠConvert":13806,"Ġdrawing":13807,"Ġapparently":13808,"achel":13809,"ĠRoy":13810,"Ġtopics":13811,"ĠHashMap":13812,"Cho":13813,"Ġwelcome":13814,"Packet":13815,"ĠPa":13816,"BER":13817,"Detector":13818,"ustry":13819,"Put":13820,"ĠHouston":13821,"Ġappeal":13822,"Injection":13823,"Ġembedded":13824,"Matcher":13825,"thumb":13826,"Chart":13827,"Snapshot":13828,"ĠIslamic":13829,"ĠPatrick":13830,"LAB":13831,"ĠDiego":13832,"cerning":13833,"ĠTa":13834,"Ġapps":13835,"Ġheavily":13836,"Ġurg":13837,"Ġdecrease":13838,"ĠRic":13839,"Ġsteel":13840,"ichol":13841,"ĠTer":13842,"eclipse":13843,"Ġtelling":13844,"publish":13845,"/)":13846,"Ġadults":13847,"ĠLL":13848,"ĠBishop":13849,"iac":13850,"Apr":13851,"notification":13852,"Ġrooms":13853,"Ġentropy":13854,"Ġrear":13855,"Ġattempted":13856,"ViewController":13857,"egas":13858,"orts":13859,"Ġnormalized":13860,"Ġrein":13861,"Ġgovernor":13862,"abstract":13863,"uffix":13864,"ĠIsraeli":13865,"mont":13866,"Suppress":13867,"ĠGab":13868,"Ġbott":13869,"BOOL":13870,"story":13871,"ĠSpr":13872,"Ġmixing":13873,"===":13874,"ĠCook":13875,"ĠTraining":13876,"ĠPhilip":13877,"ĠCop":13878,"cv":13879,"Running":13880,"Ġbigger":13881,"Ġwheel":13882,"118":13883,"Ġloan":13884,"redirect":13885,"=\"{{":13886,"ouses":13887,"00000000":13888,"ĠHighway":13889,"ĠAllen":13890,"ĠImmutable":13891,"\"|":13892,"Ġequilibrium":13893,"Ġmanagers":13894,"Ġexposure":13895,"character":13896,"surface":13897,"âĤ¬":13898,"Score":13899,"Ġuniversal":13900,"ceived":13901,"]</":13902,"ĠPO":13903,"Ġfalls":13904,"Ġdress":13905,"ĠMun":13906,"Commit":13907,"ĠRuntime":13908,"Ġillegal":13909,"ĠManchester":13910,"Ġembedding":13911,"Ġpresidential":13912,"ĠVar":13913,"Ġassessment":13914,"White":13915,"Ġtheatre":13916,"Ġconfigurations":13917,"Green":13918,"emptyset":13919,"unior":13920,"ĠInternal":13921,"ĠBOOST":13922,"Ġexplains":13923,"Ġdirections":13924,"Ġreplic":13925,"Ġthoughts":13926,"Bitmap":13927,"Ġassignment":13928,"ĠBry":13929,"Cannot":13930,"theless":13931,"Ġownership":13932,"Ġmolecular":13933,"continue":13934,"âĢĻ,":13935,"ubern":13936,"1935":13937,"ĠSmart":13938,"localhost":13939,"Origin":13940,"Ġjournalist":13941,"$:":13942,"ĠHD":13943,"allas":13944,"ternoon":13945,"ureau":13946,"Ġrequirement":13947,"Ġgro":13948,"ClassName":13949,"Rich":13950,"sea":13951,"Ġsi":13952,"ĠJam":13953,"tv":13954,"ĠConstitution":13955,"failed":13956,"omot":13957,"ĠMissouri":13958,"Ġvulner":13959,"Ġlandscape":13960,"beans":13961,"ĠAnthony":13962,"ĠAz":13963,"atile":13964,"audi":13965,"Ġvocal":13966,"Ġflying":13967,"ropolitan":13968,"ĠWITHOUT":13969,"ĠRoom":13970,"ãģ®":13971,"vart":13972,"Ġtitled":13973,"ENABLE":13974,"Ġcontributed":13975,"Ġaapt":13976,"Ġintermediate":13977,"ĠBreak":13978,"ĠMaryland":13979,"Ġ========":13980,"Ġaddr":13981,"Ġengineer":13982,"umpy":13983,"endo":13984,"Ġparliament":13985,"Ġnotion":13986,"ĠBush":13987,"Ġgravit":13988,"ativity":13989,"ousel":13990,"half":13991,"ĠGirl":13992,"Ġequals":13993,"React":13994,"WI":13995,"Ġgrade":13996,"Ġrenamed":13997,"ĠAst":13998,"Ġaccused":13999,"Ġentitled":14000,"=\"../_":14001,"ĠSenior":14002,"Ġsender":14003,"izard":14004,"ĠOpt":14005,"qual":14006,"1933":14007,"IconError":14008,"TX":14009,"Ġproud":14010,"ĠTrade":14011,"Ġsubscription":14012,"Ġclosure":14013,"DITION":14014,"ĠPur":14015,"ugging":14016,"Ġreaching":14017,"setText":14018,"verted":14019,"ĠTreat":14020,"etal":14021,"Ġcompeted":14022,"rat":14023,"Ġperiods":14024,"ĠSyria":14025,"endpoint":14026,"Ġrestricted":14027,"iest":14028,"ĠDick":14029,"utdown":14030,"]$.":14031,"ĠIF":14032,"1917":14033,"Ġdevelopers":14034,"Transition":14035,"ADDING":14036,"ELEMENT":14037,"SUC":14038,"Hol":14039,"acts":14040,"Ġhypothesis":14041,"Women":14042,"ĠTen":14043,"ĠMarine":14044,"ĠGib":14045,"locale":14046,"finite":14047,"includes":14048,"changes":14049,"Ġgrown":14050,"Ġpropose":14051,"Ġverb":14052,"Gui":14053,"abama":14054,"Ġabsolutely":14055,"Ġoutputs":14056,"OTTOM":14057,"Ġcp":14058,"thew":14059,"Ġmacro":14060,"ĠJay":14061,"UAL":14062,"Ġconcentration":14063,"ĠRegional":14064,"lon":14065,"maxcdn":14066,"Ġfemales":14067,"Ġcollections":14068,"Ġmatched":14069,"Ġasset":14070,"Ġbaseline":14071,"AppCompat":14072,"ĠĠĠĠĠĠĠĠĠĠĠĠĠĠĠĠĠĠĠĠĠĠĠĠĠĠĠĠĠĠĠĠĠĠĠĠĠĠ":14073,"LD":14074,"Ġisinstance":14075,"IconErrorEncoded":14076,"CUR":14077,"fish":14078,"owntown":14079,"Ġbanks":14080,"riers":14081,"Ġacknowled":14082,"ĠWhit":14083,"Ġmath":14084,"Ġassuming":14085,"Serialization":14086,"\\}$.":14087,"Ġstim":14088,"Ġexperts":14089,"popup":14090,"ĠHost":14091,"\"])":14092,"Phil":14093,"Tog":14094,"Ġbare":14095,"Ġfoundation":14096,"ĠKhan":14097,"Ġassistance":14098,"Ġflows":14099,"wegian":14100,"$&":14101,"Ġham":14102,"ãĥ¼":14103,"Ġ',":14104,"1914":14105,"ĠAppendix":14106,"Na":14107,"Ġmerged":14108,"350":14109,"Priority":14110,"ĠSn":14111,"Ġadvertising":14112,"Ġboundaries":14113,"Factor":14114,"Ġmembership":14115,"Ġaccord":14116,"ifts":14117,"ÏĢ":14118,"valueOf":14119,"ĠRound":14120,"ĨĴ":14121,"rowse":14122,"192":14123,"Ġfib":14124,"oj":14125,"ĠLI":14126,"Ġwhenever":14127,"Scene":14128,"Ġranges":14129,"Literal":14130,"Ġnotification":14131,"ASS":14132,"CMD":14133,"Distance":14134,"Ġfiled":14135,"EXPORT":14136,"efe":14137,"upper":14138,"Ġsevere":14139,"Ġprovision":14140,"iot":14141,"}}_{\\":14142,"Ġevil":14143,"ÅŁ":14144,"Ġ<?":14145,"Ġnormally":14146,"Fetch":14147,"ĠFederation":14148,"Ġec":14149,"Ġcompens":14150,"Ġlegislation":14151,"ĠClinton":14152,"uther":14153,"Ġentertainment":14154,"AMP":14155,"describe":14156,"Ġindependence":14157,"holders":14158,"ĠMiami":14159,"ĠLevel":14160,"}[\\":14161,"toolbar":14162,"timeline":14163,"lined":14164,"abul":14165,"Ġlegacy":14166,"city":14167,",\\\\":14168,"Ġsought":14169,"ĠFle":14170,"))$":14171,"DED":14172,"Ġrevenue":14173,"prepare":14174,"Men":14175,"itzerland":14176,"@{":14177,"algebra":14178,"107":14179,"Ġagencies":14180,"Visual":14181,"103":14182,"iva":14183,"omer":14184,"declare":14185,"ĠIllegalArgumentException":14186,"ĠKy":14187,"Ġemphas":14188,"Design":14189,"APP":14190,"ĠMotor":14191,"processor":14192,"achelor":14193,"åŃ":14194,"idal":14195,"Live":14196,"subNav":14197,"Ġpup":14198,"Ġlots":14199,"ĠDatabase":14200,"aui":14201,"anted":14202,"Sharp":14203,"wi":14204,"icates":14205,"Ġmonitoring":14206,"}})":14207,"iously":14208,"Ġsuspect":14209,"ĠGard":14210,"docker":14211,"Alpha":14212,"ĠThird":14213,"ĠNation":14214,"pipe":14215,"Ġ\"_":14216,"Ġjoining":14217,"Ġbriefly":14218,"ĠTax":14219,"onna":14220,"ĠDa":14221,"hus":14222,"Disk":14223,"ulk":14224,"ĠSarah":14225,"osl":14226,"medium":14227,"Ġdesigns":14228,"Å¾":14229,"Ġsad":14230,"114":14231,"tre":14232,"Ġrefused":14233,"utter":14234,"Ġinvited":14235,"Ġgate":14236,"rik":14237,"culate":14238,"Ġsuppose":14239,"BACK":14240,"tfrac":14241,"Ġentities":14242,"ĠStop":14243,"Ġfranch":14244,"ĠBORDER":14245,"CRIPT":14246,"Ġatmosphere":14247,"Ġannotation":14248,"Ġinherited":14249,"Kernel":14250,"Ġassault":14251,"dm":14252,"Ġforth":14253,"+\"":14254,"ĠEver":14255,"Country":14256,"Ġprocessed":14257,"Ġmarker":14258,"Trigger":14259,"Ġtrim":14260,"Components":14261,"CREATE":14262,"Ġdies":14263,"igator":14264,"ustries":14265,"Ġmaintained":14266,"Ġhealthy":14267,"Ġretrieve":14268,"ARRAY":14269,"ĠBra":14270,"404":14271,"ĠMC":14272,"chrome":14273,"ĠERR":14274,"Ġstronger":14275,"Received":14276,"plemented":14277,"Ġ'-":14278,"START":14279,"Ġbear":14280,"ĠConsider":14281,"eland":14282,"elson":14283,"__[\"":14284,"ĠDVD":14285,"Ġalive":14286,"hang":14287,"Try":14288,"guide":14289,"ĠRab":14290,"Ġinstallation":14291,"ambig":14292,"Ġdesignated":14293,"rena":14294,"inject":14295,"Ġmac":14296,"Ġamounts":14297,"Ġdeform":14298,"Ġpopulations":14299,"delegate":14300,"MAN":14301,"Ġunus":14302,"ĠMaybe":14303,"Es":14304,"Ã¼r":14305,"ĠArgument":14306,"pond":14307,"StringBuilder":14308,"ĠIowa":14309,"Ġalcohol":14310,"Ġcircumstances":14311,"HasBeen":14312,"Ġpicked":14313,"Ġorb":14314,"ĉĉčĊ":14315,"setting":14316,"Ġrealized":14317,"[<":14318,"latest":14319,"Fix":14320,"RET":14321,"ĠFa":14322,"Comparison":14323,"Qual":14324,"Ġsituations":14325,"FD":14326,"ĠGreece":14327,"Ġfasc":14328,"Setup":14329,"ĠLicensed":14330,"ĠNev":14331,"Ġcycl":14332,"TableRowColor":14333,"ĠNob":14334,"elve":14335,"ĠTRUE":14336,"French":14337,"ĠMoore":14338,"ĠFarm":14339,"ĠAmong":14340,"Testing":14341,"ĠKIND":14342,"1910":14343,"cop":14344,"Ġfaced":14345,"trivial":14346,"rang":14347,"Tri":14348,"inian":14349,"walk":14350,"Structure":14351,"iso":14352,"overty":14353,"CLA":14354,"Ġblank":14355,"Ġrapidly":14356,"ĠJob":14357,"Ġchair":14358,"asma":14359,"Ġcomplement":14360,"oni":14361,"Ġbrothers":14362,"]$,":14363,"Ġdescribing":14364,"ilst":14365,"wen":14366,"Canvas":14367,"ĠDemocrats":14368,"sequently":14369,"insic":14370,"1934":14371,"Ġtherapy":14372,"ĠCzech":14373,"profit":14374,">{":14375,"Ġchallenging":14376,"Consider":14377,"ĠBalt":14378,"Ġlawyer":14379,"ropic":14380,"ĠHarris":14381,"MPL":14382,"Alias":14383,"Dict":14384,"Ġfolk":14385,"ĠSquad":14386,"ĠMelbourne":14387,"(`":14388,"Ġslowly":14389,"arith":14390,"Ġprofiles":14391,"Accessor":14392,"Ġputs":14393,"NI":14394,"Ġdominant":14395,"}\\,\\":14396,"ĠPrivacy":14397,"MESS":14398,"Modifier":14399,"pn":14400,"\"?>":14401,"bors":14402,"identity":14403,"ĠRegiment":14404,"Ġbon":14405,"Ġdiagonal":14406,"rtl":14407,"vi":14408,"Ġsav":14409,"ĠDefinition":14410,"+(":14411,"Ġincorrect":14412,"question":14413,"Pixel":14414,"Ġconsc":14415,"Ġfacing":14416,"ĠVice":14417,"ExternalTask":14418,"!(":14419,"Paul":14420,"Ġbath":14421,"running":14422,"chunk":14423,"avelength":14424,"Ip":14425,"Ġpin":14426,"TextView":14427,"reduce":14428,"ĠMedal":14429,"itempty":14430,"Ġderive":14431,"heta":14432,"Ġsitting":14433,"åľ":14434,"1929":14435,"ĠAgr":14436,"Ġopens":14437,"oli":14438,"vect":14439,"vature":14440,"western":14441,"ĠTemple":14442,"ĠCP":14443,"Ġelectro":14444,"Ġscre":14445,"Capture":14446,"shaller":14447,"ividual":14448,"concat":14449,"omitempty":14450,"ĠScient":14451,"Ġaged":14452,"faster":14453,"ĠKit":14454,"ĠDue":14455,"razy":14456,"Modified":14457,"ĉĉĉĉĉĉĊ":14458,"Ġduty":14459,"responsive":14460,"Updated":14461,"Ġ*,":14462,"outube":14463,"************************************************************************":14464,"ĠJunior":14465,"ĠMIT":14466,"MenuItem":14467,"pagination":14468,"vars":14469,"Ġtower":14470,"Ġprinciples":14471,"Monitor":14472,"igo":14473,"ExternalTaskPojo":14474,"ĠSport":14475,"ardo":14476,"ĠCapital":14477,"tm":14478,"Ġ.=":14479,"isations":14480,"ĠAuth":14481,"ĠHoward":14482,"heel":14483,"ĠGraph":14484,"secret":14485,"separator":14486,"Ġsurve":14487,"^*$":14488,"Ġcompilation":14489,"Ġconform":14490,"owski":14491,"Ġeg":14492,"ĠNorway":14493,"Ġpoetry":14494,"Pane":14495,"Ġ\"#":14496,"ĠCELL":14497,"opacity":14498,"%\"><":14499,"ĠDictionary":14500,"Ġthir":14501,"Uint":14502,"Ġwaste":14503,"ĠNSString":14504,"Calendar":14505,"SOURCE":14506,"115":14507,"SPACING":14508,"measure":14509,"currency":14510,"Ġdesire":14511,"Ġoldest":14512,"tol":14513,"ras":14514,"ĠOptions":14515,"Ġtoler":14516,"Ġdependency":14517,"Ġvariations":14518,"earing":14519,"Ġburied":14520,"ĠYouth":14521,"LR":14522,"HasBeenSet":14523,"Cart":14524,"Formatter":14525,"Tools":14526,"Ġsurprise":14527,"itHub":14528,"ĠTarget":14529,"Ġwer":14530,"Ġviewed":14531,"Ġengaged":14532,"lope":14533,"GM":14534,"Ġdisp":14535,"ĠSerb":14536,"Ġvoted":14537,"Ġfoo":14538,"ĠVolume":14539,"VO":14540,"projects":14541,"price":14542,"Il":14543,"=.":14544,"Ġconventional":14545,"Ġflood":14546,"IES":14547,"ĠDave":14548,"Could":14549,"Worker":14550,"Src":14551,"Ġcomic":14552,"ĠModal":14553,"Japan":14554,"Bu":14555,"Ġsegments":14556,"ĠEvents":14557,"cluding":14558,"esture":14559,"German":14560,"Vol":14561,"ĉĉĉĉĉĉĉĉĉĉĉ":14562,"ecess":14563,"Ġrestore":14564,"1932":14565,"Ġencode":14566,"Ġhelper":14567,"Ġmales":14568,"ĠDog":14569,"Alert":14570,"Ġtrouble":14571,"Ġkin":14572,"IEW":14573,"ĠTokyo":14574,"cost":14575,"'=>":14576,"ĠChile":14577,"ĠLeft":14578,"orses":14579,"Ġclosing":14580,"Ġinjured":14581,"Ġbirds":14582,"leges":14583,"Ġ^{":14584,"Ġprosec":14585,"ologists":14586,"Price":14587,"making":14588,"dtd":14589,"Ġutility":14590,"1928":14591,"inth":14592,"ibliography":14593,"ĠHu":14594,"weak":14595,"ĠSR":14596,"ĠĠĠĠĠĊ":14597,"ĠResults":14598,"Ġvariance":14599,"Ġlosses":14600,"Ġdistricts":14601,"olute":14602,"ĠBasic":14603,"erialize":14604,"Ġsettled":14605,"Ġidentification":14606,"ĠDeep":14607,"ĠSingle":14608,"ĠBAS":14609,"ĠNatural":14610,"Ġtrains":14611,"ĠMulti":14612,"Fixture":14613,"\"=>":14614,"Lookup":14615,"Ġguns":14616,"ĠBron":14617,"Mix":14618,"Ġupload":14619,"WH":14620,"ĠMoscow":14621,"Ġconsumption":14622,"jor":14623,"ĠThose":14624,"Ġhint":14625,"ĠDM":14626,"Ġschol":14627,"defer":14628,"ruct":14629,"glob":14630,"oker":14631,"Ġconstitution":14632,"Ġhate":14633,"Ġsimultaneously":14634,"mys":14635,"ĠUnless":14636,"Ġremoves":14637,"ĠModule":14638,"Ġcourses":14639,"generic":14640,"=\"@+":14641,"Ġdele":14642,"Ġhal":14643,"Ġconfigured":14644,"stri":14645,"CSS":14646,"Ġchecking":14647,"Ð¹":14648,"Slot":14649,"syn":14650,"commun":14651,"Ġlaid":14652,"Ġcovari":14653,"igenous":14654,"Ġfurn":14655,"Ġdiversity":14656,"Peer":14657,"ĠÃł":14658,"Ġ$('#":14659,"Business":14660,"fluid":14661,"Ġpulled":14662,"MIT":14663,"conduct":14664,"apters":14665,"ĠCape":14666,"rible":14667,"placement":14668,"manifest":14669,"ĠDoes":14670,"scripts":14671,"Dry":14672,"ĠPlant":14673,"...)":14674,"Ġsigning":14675,"Enumerable":14676,"Metric":14677,"Ġmechanisms":14678,"Ġexclusive":14679,"Dig":14680,"idelines":14681,"Neg":14682,"-\">":14683,"acion":14684,"lad":14685,
[...]
