#version: 0.2
t h
i n
Ġ a
Ġ th
o n
r e
t i
Ġth e
e r
e n
Ġ \
Ġ s
a l
Ġ o
Ġ Ġ
Ġ $
t e
o r
i s
Ġ c
a r
ti on
a n
l e
Ġ f
Ġ w
Ġo f
m a
e s
Ġ t
Ġ p
Ġ in
Ġa n
Ġ b
r o
in g
Ġ d
{ \
t a
r a
i g
e d
Ġan d
e l
i c
a t
Ġt o
l a
i t
e c
Ġ e
_ {
Ġ m
a s
Ġ is
h e
o m
Ġ re
u s
Ġ$ \
en t
o l
ĠĠ ĠĠ
Ġ n
Ġ (
e t
s i
Ġ h
u n
q u
ma th
c e
a tion
a m
Ġ T
e g
Ġf or
l y
v e
c h
u r
o w
s t
} \
Ġ g
č Ċ
u m
} $
u l
Ġ l
^ {
i m
en d
o t
v er
Ġ &
i th
Ġth at
d e
Ġ Ċ
p h
i l
Ġc on
Ġ on
i te
Ġ S
ig h
c al
Ġw e
te d
Ġa s
Ġw ith
r i
( \
u re
Ġb e
} }
Ġ A
re f
g e
Ġ C
c t
u t
Ġp ro
o d
eg in
ra c
b egin
f t
Ġa l
2 0
i d
igh t
Ġ I
i r
_ {\
Ġ v
) $
s e
Ġb y
i f
Ġ ma
Ġe x
p p
Ġa re
Ġ M
Ġw h
} {
it y
in e
Ġ F
t er
b le
a d
ĠT he
f rac
e ta
re s
c ite
p er
t s
, \
e q
e qu
Ġc om
an d
o re
u b
Ġ B
} )
Ġ =
Ġ P
c tion
r ight
un d
te x
ro m
Ġ H
Ġs t
m b
o s
ti c
ti m
Ġd e
Ġa t
la b
Ġ L
r m
p a
math b
lab el
Ġ W
ĠĠĠĠ ĠĠĠĠ
} ,
Ġ R
$ ,
Ġ it
p le
Ġf rom
$ .
ĠĠ Ġ
r an
equ ation
d a
math cal
Ġ us
Ġ D
i v
le ft
T he
is t
er s
Ġo r
ic h
} .
Ġth is
i z
tex t
Ġ E
Ġs h
s s
Ġ -
Ġ N
â Ģ
u p
t o
m ent
} (
tion s
re n
a te
y s
Ġ G
ig n
d i
f or
Ġs u
Ġc an
} ^
Ġc o
~ \
1 9
ec t
a ve
} _
f ig
Ġre s
Ġp ar
p ar
c k
th er
l o
ph a
ti al
m u
ec tion
al pha
Ġc h
c es
e m
l ow
d ot
an t
) \
ti ve
Ġ le
d u
he re
Ġwh ich
d s
f f
1 0
in t
l u
el l
p si
al l
si on
e w
en er
re d
$ \
el ta
i on
il l
Ġh ave
p l
Ġm e
i es
r u
a p
ĠI n
Ġw as
l ine
Ġm od
am ma
s o
en ce
ĠT h
ic al
_ \
Ġ +
a ch
eg a
ar y
a b
p ro
Ġs e
Ġp o
ti l
Ġ k
s um
Ġo b
d er
h o
mathb b
Ġ\ \
as e
= \
Ġs p
} ^{
Ġs ta
} _{
ig ma
i a
20 1
Ġn ot
- \
Ġa pp
f e
b er
o g
Ġ O
b o
en s
Ġ un
tim es
a k
0 0
^ {\
ph i
Ġ y
c c
i de
on g
s ub
th e
o u
m s
v el
o us
an g
) ,
a y
la mb
lamb da
Ġ {\
) .
o p
Ġb o
ta in
p i
ro w
b f
fe ren
o f
r ic
Ġ qu
ri b
or k
I n
l on
w o
Ġal l
Ġn o
Ġ ra
a ct
Ġ J
d ing
o ur
Ġmod el
h i
ul ar
mathb f
u tion
v i
an ce
h at
un ction
al u
pa ce
psi lon
Ġh as
o ver
Ġon e
Ġ K
s igma
a re
Ġsh ow
ar i
p o
am e
ra y
Ġ U
Ġ im
f in
^{ -
Ġd is
Ġp er
w e
Ġn e
Ġ( \
ra ph
Ġ r
ation s
p on
s ection
} {\
b eta
re e
om e
ar d
til de
ol low
Ġf i
c lu
al ign
te s
Ġm o
Ġd if
Ġal so
x i
Ġt wo
Ġ i
al ly
g h
g amma
Ġs et
math rm
+ \
' s
Ġ te
20 0
Ġd a
Ġf unction
or s
tim e
us t
Ġcon t
Ġf ollow
Ġa d
ta tion
Ġe qu
* }
um ber
c ent
p t
th eta
ĠW e
Ġs im
Ġres ul
ul d
n o
o c
ent s
c on
Ġ V
d elta
Ġp a
es s
^ \
er v
$ -
or t
r ho
Ġe v
] {
Ġc or
e x
) }
id th
u la
Ġsu ch
b ar
es t
le q
a ted
ar ray
dot s
ta u
\ \
s et
ti es
p res
k e
ir st
p s
Ġ if
Ġin ter
er m
fig ure
Ġg ener
Ġ he
Ġw here
}$ ,
i al
Ġw ill
}$ .
Ġo ur
Ġ en
Ġda ta
} (\
Ġs ub
Ġf in
Ġd ist
ic s
| \
le s
le d
t ing
b ig
a g
Ġb et
1 2
p ec
Ġd o
n u
ys te
W e
eq ref
ar k
or y
Ġdif feren
am ple
ti cal
w idth
Ġa r
c ed
a pp
r y
l i
Ġp h
at ure
Ġ j
Ġ time
Ġt ran
ft y
Ġ ver
par tial
in fty
om ega
Ġon ly
ite m
Ġ la
c ap
for m
. .
or m
Ġthe n
Ġo ut
a ble
e ar
Ġg iv
Ġe ach
Ġcon st
Ġv alu
ti t
s f
Ġ x
is h
âĢ Ļ
Ġo ver
s c
eq n
ar row
Ġs ol
i an
t ri
we en
Ġs o
n e
u d
und er
Ġthe re
as t
Ġd es
Ġit s
p e
Ġf irst
ĠTh is
ĉ ĉ
Ġre g
c om
Ġa bo
Ġl o
ma tion
T h
Ġm ore
Ġ {
Ġs yste
D elta
m m
Ġb ut
ta b
y n
Ġ ro
Ġbet ween
v es
ĠĠĠĠĠĠĠĠ ĠĠĠĠĠĠĠĠ
Ġo ther
am et
el d
Ġth an
i re
p end
a c
l l
v ar
il ity
o uld
Ġre la
si tion
Ġs c
in ce
qu ad
Ġc ase
m o
o se
Ġan y
u e
Ġs ome
Ġn on
Ġp re
Ġcom p
si m
\ ,
clu d
Ġthe ir
Ġp res
Ġthe se
} }\
di tion
c dot
s ec
a us
Ġ âĢ
Ġ [
Ġe le
Ġc la
)$ .
ore m
s pace
ow n
Ġapp ro
Ġh igh
} [
Ġ es
g es
g y
Ġt ra
iz e
m all
s erv
Ġe ff
at or
ol ds
Ġs a
on d
as ed
e psilon
g ra
Ġd ec
Ġwe re
eqn array
ment s
Ġc ol
a ck
1 1
p m
$ $
Ġ$ (
Ġwh en
O m
it s
ch i
Ġfor m
Ġde fin
a ge
Ġn umber
r t
Ġl ar
1 8
is e
} _{\
Om ega
Ġo p
t en
r im
Ġgiv en
Ġa cc
Ġus ing
Ġp la
g le
ĠF or
Ġw ork
Ġ u
Ġin te
ces s
Ġus e
Ġl ine
Ġbe en
ru ct
Ġm an
i p
r on
^ *
s q
a v
m in
ro up
cent er
Ġob tain
e ver
Ġcon si
w here
o k
Ġus ed
Ġ |
Ġpar amet
Ġin to
1 5
p ut
Ġbo und
G amma
in d
)$ ,
f i
u al
Ġdis c
ir c
th od
r al
Ġpar tic
Ġ X
t y
iz ation
ĠF ig
w ide
c ol
Ġb ec
p la
ang le
Ġ Y
Ġa g
a in
Ġ "
Ġsta te
Ġc al
Ġ up
sq rt
Ġdifferen t
Ġ }
ol og
tri x
Ġ under
on e
Ġresul ts
ul ti
Ġ z
Ġc l
Ġl i
Ġin c
Ġs ame
g er
1 6
ro und
Ġ$ {\
o te
as ure
ic e
f ra
Ġf act
text bf
ĠĠĠĠ ĠĠĠ
Ġtran s
sub section
vel y
Ġfollow ing
) =
v are
iz ed
} =
Ġor der
Ġ čĊ
vare psilon
Ġst ar
Ġcom ple
right arrow
}^ {\
ĠI t
1 3
ic i
c y
ta ble
s h
Ġp l
^{ (
or d
n ing
b ra
Ġh is
- -
Ġpro v
Ġthe y
res pon
ol d
ow er
Ġa c
as es
m e
u gh
Ġan al
ener gy
m p
o un
Ġc ur
en tial
i x
raph ics
Ġs ec
Ġs ign
ran gle
Ġ\ ,
ĠC h
Ġme thod
i ver
y mb
g or
Ġp ol
in clud
l ic
ti vely
ymb ol
ft er
eg raphics
includ egraphics
cap tion
Ġsyste m
in s
19 9
en sion
Ġo per
Ġob serv
ter n
at ing
1 4
Ġma y
Ġdist rib
Ġs pace
if ic
var phi
Ġme asure
Ġre pres
ow ever
o x
e p
Ġf e
c i
Ġas sum
. ~\
p os
Ġbo th
Ġcor respon
} ,\
Ġ Q
Ġd en
Ġpro du
. ,
b m
et ric
Ġt ak
le m
in ed
c m
Ġma ss
ge q
n on
Ġw ell
ĠĠ Ċ
Ġch ar
em ph
k s
ou gh
e f
Ġfi eld
Ġk n
im ension
Ġex t
am b
. }
& \
) ^
over line
la tion
ruct ure
pro of
ĠĠĠĠ Ġ
Ġf o
i le
Ġin d
Ġs mall
el y
Ġs ur
ti ma
an n
2 5
Ġw ould
Ġn ew
Ġ energy
in ts
Ġs cal
' '
al ity
c ted
a u
Ġpro ble
v ec
t on
Ġpo int
F or
1 7
il ar
Ġv ari
t t
gor ith
Ġd ire
m er
ti v
Ġdes c
Ġg o
Ġin t
po sition
fra k
}) .
a x
Ġmo st
Ġse e
ĠH e
b olds
Ġper form
f a
Ġconsi der
bolds ymbol
for mation
h line
Ġg roup
lo g
[ \
m on
Ġs te
e v
in ing
p ort
B ig
i tion
Ġt y
is ts
ate s
f ic
an s
j ect
ul t
al s
j ec
} }$
c o
in es
Ġcla ss
w ork
l angle
ens ity
ĠU n
Ġa b
Ġm in
ion s
Ġsp ec
ĠA n
Ġsu pp
o ut
en g
ens ure
Ġs ing
o b
um er
math frak
amb da
aus e
L ambda
Ġsp ect
p tion
Ġp os
Ġ Z
Ġgener al
ver y
l dots
u tions
Ġabo ut
2 1
Ġpro per
y mm
ar ch
Ġi ma
Ġl im
is m
app a
Ġvalu e
Ġlar ge
ren t
de f
n ab
c l
P hi
ro ugh
. \
ol ution
L et
u ch
ro du
Ġvalu es
s k
Ġex per
Ġpro cess
id en
orm al
at er
Ġcor re
on s
Ġin v
nab la
Ġex ample
k appa
Ġfollow s
si ble
pl it
p ect
Ġ `
Ġm ulti
er o
pl ic
3 0
Ġabo ve
cite p
ro ss
et work
Ġst ructure
ref ore
Ġth ree
Ġcom pa
Ġshow n
Ġwh o
Ġre qu
Ġin de
Ġes tima
rim e
Ġ ran
u te
Th is
mb ox
Ġg ra
ula tion
Ġma t
um n
Ġh ad
ur ing
ction s
o v
ect or
er r
u ra
Ġ ,
Ġ ed
or ph
n er
Ġresul t
} )$
ab ility
en cy
Ġmodel s
Ġde pend
o times
Ġcon s
Ġlo cal
ĠP ro
2 2
Ġinc re
Ġdefin ed
a tive
Ġy ou
ul l
tex tit
l im
Ġma g
ra w
c irc
i ties
5 0
non umber
ical ly
i ve
Ġp e
Ġra di
en tation
Ġsec ond
l d
\ |
et erm
Ġpro b
i ed
ing s
Ġe very
ff ici
in u
gorith m
S igma
v en
\ %
h a
Ġwh ile
ti sf
m is
b it
u g
ur ther
Ġs ince
Ġne ed
Ġt er
Ġdistrib ution
r it
p or
) )
ensure math
Ġa fter
Ġst r
c or
i j
s ing
Ġproble m
ic k
yn am
Ġb el
z e
Ġcal c
Ġeff ec
\ [
}) ,
Ġdesc rib
ur n
}} {
Ġpar t
Ġre al
i e
Ġ iden
ation al
Ġappro ach
en ted
i b
Ġc ent
se e
2 4
Ġst ud
ĠS t
/ \
Ġle ad
s ed
i ly
Ġin s
ĠA l
Ġde f
Ġs ection
er n
Ġth rough
Ġsim ilar
le ss
v ed
Ġter ms
Ġn etwork
Ġn ow
\ !
w ith
Ġsa tisf
ar g
ur al
t al
Ġb ack
m od
ia ble
red ic
Ġ <
l ish
w h
Ġy ear
Ġa m
Ġfe ature
wide tilde
} -
Ġver y
âĢ Ŀ
Ġd ensity
Ġcon tain
Ġdo es
i qu
ĠTh en
el f
{ -
es e
Ġpla y
vi ous
er t
Ġd er
le ar
y le
Ġfo und
Ġparamet ers
ma in
et ry
Ġma trix
Ġle t
s ta
r in
Ġd eterm
an e
Ġequ ation
Ġpartic ular
Ġobtain ed
a i
ent ly
is ion
Ġh y
Ġres pec
eng th
ys is
Ġ .
p rime
ĠC on
2 3
Ġs ample
la ck
ro p
is tic
Ġdisc us
i tial
Ġre f
ĠâĢ ĵ
w ard
ĠA s
m an
Ġ q
o per
n ess
center ing
Ġb ased
; \
Ġg et
F ig
Ġin clu
ot ential
Ġpa per
s u
Ġele ct
ite d
Ġw or
Ġs um
ti ce
r um
Ġg raph
Ġb as
Ġre du
Ġt erm
Ġ` `
k ing
Ġma in
mb er
Ġsol ution
Ġthe m
ge bra
Ġshow s
tab ular
Ġbec ause
t ure
Ġl ow
u di
Ġexper im
Ġ :
) =\
si tive
in al
Ġfunction s
Ġev en
bo x
Ġd ue
Ġ end
l ing
ĠE q
19 8
olog y
em ma
ĠI f
n ot
Ġcorrespon ding
Ġf a
\ ]
4 0
Ġf lu
} +
ĠL et
Ġsing le
z eta
m ed
b e
Ġto p
\ {
p an
Ġline ar
Ġcom pon
d is
Ġman y
Ġfin ite
Ġp redic
ĠC om
Ġs our
l and
Ġappro xi
an ge
Ġ right
ar t
Ġde te
Ġl ong
e e
Ġco uld
Ġt ri
iver s
and om
el s
Ġco un
Ġthe ory
Ġsu per
) ;
act er
Ġre c
m ark
vel op
x im
Ġs equ
Ġof f
Ġconst ant
ec h
el ds
âĢ ĵ
ma trix
b y
) }\
) ^{
. ~
re st
Ġh er
R e
Ġch o
Ġv ar
} =\
ĠThe orem
Ġst and
Ġpo ints
Ġ& =
iv al
ĠH owever
as h
Ġsh ould
Ġcon dition
~ ~
Ġcont inu
fa ce
a ys
Ġad dition
f o
Ġsta tes
f ul
Ġop tim
m per
Ġal low
s er
Ġin formation
$ )
Ġle ar
Ġfin d
Ġrespec tively
} ;
Ġcomp u
C on
Ġf re
th m
om orph
le ct
p r
Ġle vel
} ]
{ (
Ġparamet er
et s
Ġcom m
Ġin itial
Ġd imension
Ġph ase
Ġf il
Ġfi x
pos ed
A s
Ġf ra
Ġs ize
) (
Ġpro of
Ġprov id
o ple
ra te
Ġp otential
Ġint rodu
Ġin st
Ġstud y
Ġ ent
Ġm on
n g
Ġag ain
ant um
Ġind ic
ma x
o th
Ġv i
at ors
us ter
Ġ err
d raw
Ġs ymm
Ġd eg
6 0
Ġp ower
Ġpos sible
s si
Ġh and
ro l
}_ \
Ġanal ysis
Ġli ke
Ġbe ing
a th
10 0
c dots
p re
ta tions
mis sion
Ġh ow
al ax
Ġe t
Ġl at
de red
pend ent
Ġcon n
Ġ( $
os s
as on
Ġcomple x
mper ature
00 0
Ġw ay
{ {\
ula tions
}^ \
} |
Ġs er
v ing
wide hat
u c
Ġth ose
Ġa ct
20 20
u il
E x
Ġcont rib
d f
c er
Ġpa ir
ur b
Ġme an
res s
Ġmin im
Ġvar iable
Ġstr ong
ver age
Ġlim it
Ġ- -
Ġs he
lem ma
}) \
ĠĠĠĠ ĠĠ
Ġor ig
I t
Ġv ector
2 7
Ġal gorithm
in k
st yle
Ġma p
Ġpres ent
di tions
Ġder iv
Ġex pres
Ġim port
Ġdire ct
as s
Ġcon ver
Ġ >
q quad
h en
Ġk e
ĠS ection
ĠT o
t ra
^ +
text width
ent al
Ġchar acter
Ġte st
a ction
Ġas so
u ally
e ps
4 5
Ġma xim
ch o
}\ ,
le t
Ġra te
Ġr andom
ĠFig ure
Ġ here
ĠâĢ ľ
201 8
ec k
& =
i er
}} (
s cal
Ġreg ion
ti s
re at
Ġex ist
Ġwith in
Ġs pa
w ar
n ew
ch n
20 19
i i
n ame
ĠN ew
Ġd ynam
on al
i od
en e
Ġ\ {
2 8
Ġre st
an ts
c ia
201 7
Ġto tal
P si
ne tic
Ġm om
0 5
us ion
o st
.. .
}^{ (
mu la
Ġkn own
7 5
Ġf our
Ġcl os
, -
ĠL emma
Ġcom b
Ġ left
ver t
Ġd uring
Ġa v
Ġc lo
k et
se qu
Ġte mperature
Ġpre vious
ĠD e
til l
Ġ$ (\
pro p
Ġin f
3 3
T o
od es
Ġc ar
il s
no te
Ġd eta
wh ich
sub set
vi ew
Ġconst ra
ĠS ta
Ġprob ability
V ert
u th
ri d
tiv ity
i red
Ġg alax
2 6
Ġdef ine
Ġo cc
f ore
S T
}\ \
Ġde velop
Ġz ero
c os
Ġty pe
Ġd ia
Ġf am
Ġsyste ms
col or
Ġobserv ed
Ġqu antum
app ro
oper ator
ex p
c up
ri pt
y ing
Ġl ower
Ġcon ditions
Ġal ong
Ġte chn
201 6
] $
math sf
gra m
A n
Ġm ust
Ġwh at
Ġ& \
( {\
9 0
u de
Ġkn ow
Ġsign ific
tical ly
3 5
v alu
Ġph ot
Ġperform ance
c ing
mer ic
Ġfact or
is on
tic s
P ro
b ility
Ġm uch
si ze
fo ot
w ay
Ġty p
Ġex pec
} +\
ru le
Ġst udi
Ġex ists
e ffici
ĠO n
Ġhigh er
Ġran ge
Ġiden ti
cite t
Ġpo sitive
an ti
pla y
tion al
ind ent
re ad
ĠR e
Ġth us
h space
Ġmethod s
Ġequ ival
equ iv
Ġr un
| ^
Ġcl uster
m id
Ġe ar
lo ck
m and
I f
Ġs en
Ġcur rent
201 5
Ġstand ard
an ces
ĠN o
Ġproper ties
Ġal gebra
feren ce
si de
hi p
al le
Ġc irc
Ġn ormal
I I
Ġ| |
s mall
Ġc re
Ġre le
or n
x space
Ġpe ople
Ġassum e
cia ted
Ġbe fore
i o
Ġl oc
} :
ord in
H e
Ġph ys
Ġima ge
p df
ula ted
o ther
e V
Ġv is
Ġf urther
Ġwith out
Ġimport ant
}} {\
' $
re g
w n
s in
operator name
Ġsim ple
Ġc ross
Ġfre qu
st ra
m it
3 2
Ġre ad
d imension
de fin
or ding
v al
Ġma ke
Ġne ar
Ġpo p
ly ing
Ġc ases
Ġfix ed
foot note
n eq
Ġapp ear
Ġop en
Ġj ust
Ġp ri
si an
g round
iv id
Ġm ed
) ]
o h
0 1
201 4
pl ies
Ġdes ign
ith er
Ġsp in
olog ical
Ġsequ ence
Ġden ote
} -\
Ġequ ations
Ġg e
ru ction
Ġla st
Ġma de
x t
Ġ times
tex ts
) -
Ġcont rol
ha vi
st ar
y er
Ġl ines
a w
le ction
pp er
ot s
Ġoper ator
Ġcom par
Ġe as
Ġl ength
19 7
Ġpro posed
) }{
b al
Ġ- \
ari ant
ol l
Ġsignific ant
om in
Ġbound ary
Ġp ub
Ġtak e
ti g
Ġtra ining
sion s
Ġad d
sk ip
0 8
el oc
Ġim pro
Ġa round
Ġh el
2 9
if e
b ack
Ġprodu ct
the orem
Ġ ide
Ġs till
no indent
ic es
Ġper iod
$ }
i k
S S
Ġb uil
iqu e
si ve
Ġdescrib ed
Ġa ction
umer ate
ĠS ince
4 8
ec ted
ĠB y
l ight
Ġf it
Ġas s
Ġcal led
as ing
Ġcons ist
Ġyear s
o int
Ġin put
s on
Ġpa th
Ġasso ciated
ct or
Ġv eloc
Ġres pect
Ġev alu
Ġg u
en umerate
if ied
um e
ver al
Ġab s
da g
is ed
Ġs erv
) }$
Ġs em
Ġdata set
re en
Ġcont ra
Ġapp lic
Ġbel ow
in ation
] \
Ġ )
ma te
Ġinte rest
ĠĠĠĠĠĠĠĠĠĠĠĠĠĠĠĠ ĠĠĠĠĠĠĠĠĠĠĠĠĠĠĠĠ
Ġsur face
item ize
scal e
ĠL e
il d
201 3
9 9
Ġanal y
Ġa verage
ivers ity
ti o
Ġeff ect
Ġl ight
Ġb and
ver s
ĠTh us
ot t
Ġerr or
Ġse par
\ ,\
Ġno de
Ġscal e
cho ol
Ġle ast
Ġse veral
Ġfor mula
Ġbe havi
dimension al
Ġinclu ding
Ġdist ance
to p
Ġf ree
v space
Ġ /
lu e
Ġb est
Ġn umer
m ul
Ġinte g
Ġex act
al e
A l
Ġin du
om ial
Ġconsi dered
ce pt
Ġim plies
Ġw rit
Ġl oss
in ally
ut o
Ġcon f
feren ces
sc r
Ġfeature s
Ġt ru
Ġcomple te
g g
Ġf low
~ $
Ġb i
Ġden o
Ġmom ent
( -
0 3
fic ation
Ġd own
d en
0 4
big g
Ġext end
Ġsa id
Ġco effici
o id
Ġh al
201 2
ol umn
Ġar g
in ary
ter s
Ġm etric
um b
Ġob jec
at ch
ar s
ed ge
Ġex p
Ġt as
Ġlar ger
ĠTh ese
l at
Ġ _{
Ġsour ce
s plit
appro x
\ }$
Ġgo od
re ak
Ġf ull
}} _
Ġwe ight
Ġle ss
20 10
Ġlear ning
ĠA meric
ĠR o
oun t
ig en
or th
) +
hi le
an y
9 5
ĉ Ċ
t or
Ġc lear
Ġ\ |
Ġre ma
mul tic
b ased
ĠA r
te q
th ough
B y
6 5
en ces
Ġch ange
w ise
201 1
Ġh om
a h
Ġele ments
no de
g an
}} }
Ġelect ron
Ġc y
t le
Ġcomm un
Ġne xt
s te
Ġed ge
^ -
multic olumn
Ġmag netic
Ġele ment
pl us
Ġh im
Ġser ies
b b
am es
u le
tic es
C h
mo oth
ĠE x
r ing
Ġgiv es
Ġsol utions
E R
am p
Ġa uth
A S
Ġspect rum
math scr
3 4
Ġinde pendent
Ġfi elds
y m
Ġa chi
la ss
ex t
t urb
r ite
pp ing
v an
Ġwe ak
r is
Ġn at
3 8
0 6
ĠA d
or der
Ġdefin ition
st o
Ġco up
Ġp ers
plic it
Ġste p
C om
th at
& &
st and
rac tion
Ġch ang
ĠM ore
Ġstar s
Ġvi ew
Ġpl an
Ġpro ve
Ġa ff
A R
Ġsupp ort
ech an
Ġun it
ver se
l in
P i
i or
ens or
se teq
line ar
at ter
Ġprov ide
la ble
0 2
ric t
}^{ -
3 6
{ $
Ġin clud
om en
Ġl it
Ġme ans
Ġc a
0 7
) :
Ġe ither
Ġveloc ity
Ġcla ssi
ir re
Ġthe refore
Ġsc he
Ġp an
ma tic
ĠĠĠĠĠĠĠĠ ĠĠĠ
N N
Ġv ol
ure s
ĠS h
Ġsp e
Ġinte gra
Ġrela tion
ma t
Ġse en
w ays
ma g
b all
Ġre cent
et y
tab lish
A T
The ta
Ġh olds
} '
Ġestima te
in ter
ran s
Ġexpec ted
j or
o le
tit y
le cted
da y
Ġno te
Ġw ave
ir on
Ġv ia
Ġ el
Ġe mp
) ,\
Ġs ide
ega tive
ĠS o
p ic
Ġrela tions
u pp
Ġch ann
g ence
text rm
6 4
if orm
fin ite
text tt
mo st
under line
ec ess
Ġco ordin
Ġfin al
sub seteq
od y
lo bal
ch ed
Ġres pon
< \
ĠThe refore
Ġl og
Ġ$ |
ĠR es
Ġg ive
tation al
Ġeffec tive
tern al
r ary
Ġy our
Ġqu anti
Ġf ew
Ġ\ ;
p ly
oc us
Ġev olution
Ġrela ted
Ġy i
av ing
po se
ves tig
{ }
l er
3 1
ai lable
am il
Ġne ut
Ġ$\ {
Ġc ri
k es
Ġset s
ĠC o
ĠT able
Ġocc ur
Ġreg ular
Ġrepres entation
Ġc ap
Ġbet ter
si d
3 7
Ġb ro
ĠA t
in c
Ġb lack
pro d
ir d
S ince
us e
Ġinv ol
om es
Ġfam ily
g ed
n ormal
min us
Ġgener ated
m ore
yn omial
Ġeffec ts
li ed
Ġe mb
con st
ou th
Ġm ark
Ġre ce
Ġcompon ent
Ġm is
re m
_ +
Th en
O n
war ds
m ic
Ġpo sition
st er
200 9
* {
Ġthe orem
Ġm en
la ted
Ġflu x
^{ -\
og raph
c le
Ġg row
Ġ( $\
n ow
Ġvariable s
d d
au ge
Ġcompon ents
s p
Ġpre c
ra tion
fi ed
Ġdifferen ce
Ġl ater
Ġev ent
) |
a z
ur y
Ġan other
8 0
ge ther
Ġima ges
5 5
over n
Ġre se
o plus
ma p
Ġequ al
im e
t r
th ing
i ble
par t
20 21
or ies
Ġre t
}} _{
dag ger
Ġt rac
Ġsu c
Ġtran sition
Ġdeg ree
Ġt urn
Ġc er
set minus
4 4
Ġcompa red
Ġla w
ĠS ec
Ġes tablish
arg et
Ġeff ici
Ġare a
Ġra tio
ĠC ar
Ġco st
Ġim ple
Ġh owever
fig ura
Ġg as
Ġd ri
0 9
Ġh ist
Ġqu es
Ġcontinu ous
\ }
Ġvari ous
omorph ism
f ill
n orm
Ġav ailable
hi ft
lo y
Ġcontain s
Ġset ting
rac y
Ġm echan
ul ts
Ġe mission
Ġe igen
le c
200 8
g s
) {\
u ted
Ġs ay
Ã ©
ĠĠ ĠĊ
ĠUn iversity
ĠP ar
Ġagain st
ore d
Ġin vestig
Ġfra m
i ate
Ġm y
Ġc ell
Ġlo ok
g en
Ġpres ented
Ġgalax ies
Ġge om
\ '
Ġsign al
th es
} /
Ġf ocus
Ġbas is
Ġb lock
a de
ĠThe re
Ġs qu
ap e
Ġ$ -
}} ,
l n
Ġin equ
Ġhel p
C D
ĠA pp
Ġmulti ple
Ġrequ ire
Ġen c
Ġd id
b ul
led ge
Ġ ill
Ġ$ [
con t
ĠC ol
w edge
$ _
Ġv al
Ġs mooth
6 7
Ġorig inal
Ġno ise
um ent
bo und
ĠĠĠĠĠĠĠĠ Ġ
Ġproper ty
Ġhy per
9 8
Ġpol ynomial
iz ing
Ġp ur
ti tion
Ġsh ort
Ġmaxim um
sc ript
Ġm ix
ti ves
Ġsymm etry
Re ferences
Ġaddition al
g o
Ġf ar
line width
200 6
Ġc ate
ĠN ote
i um
Ġm et
Ġre ach
Ġn ecess
ivid ual
Ġcom mon
Ġ label
Ġsta tis
Ġinteg ral
6 8
200 7
amil ton
ta ge
Ġth ough
Ġs elf
_{ (
v iron
Ġex ten
Ġobserv ations
Ġclo se
ri es
Ġd el
Ġmat ch
Ġdire ction
Ġfrequ ency
ta tive
s up
o ck
Ġdo main
ĠP h
Ġequival ent
4 7
Ġ |\
Ġu pper
Ġbound ed
Ġback ground
ut ure
te st
ri ption
iv en
ang u
re l
m ulti
Ġp rim
Ġmag n
Ġinclu de
Ġun cer
id ence
)\ ,
id es
_ *
si tions
Ġdec re
dis play
Ġspec ific
li ke
Ġoper ators
al th
Ġcan not
Ġinter action
Ġcur ve
a ta
,\ ,
Ġh ence
ho od
ĠThe y
Ġapproxi mation
N ote
Ġrese arch
sub figure
com mand
Ġsmall er
si te
Ġte am
ĠA ss
g ing
a ctions
3 9
Ġal ways
Ġwh ose
4 9
d ist
ll ar
ĠF e
Ġnat ural
ul ly
Ġli k
lim its
pa ge
Ġre ason
Ġ ti
oll ary
Ġapp lied
Ġout put
_{ {\
Ġg round
Ġpro fi
te red
re es
ĠAn d
Ġg auge
Ġf ig
oh n
y mp
Ġsu ffici
Ġper turb
in a
Ġtru e
_{ -
Ġgroup s
Ġmat ter
Ġspec ial
Ġw he
Ġtak en
b or
Ġ( -
Ġo wn
Ġex pl
b s
med iate
Ġat ta
pa ct
tic le
Ġre pla
aus sian
read y
Ġpartic les
e ff
Ġemb ed
res h
h t
alle l
ect ors
g roup
col on
Ġver tex
{ $\
ĠC oun
) }(
Ġcon figura
it al
Ġpartic le
P S
u racy
Ġw rite
U n
po int
Ġpla ce
A N
Ġ }\
Ġinde x
Ġclos ed
Ġw a
Ġne igh
h y
Ġacc ording
Ġcon c
Ġdisc re
Ġsub set
Ġ\ (
Ġrela tive
vi al
' ,
an k
}} (\
Ġbec omes
\! \!
ew ork
Ġcoup ling
Ġre d
Ġsim ulations
Ġcent ral
Ġdynam ics
op e
Ġext ra
ĠAmeric an
/ /
rop y
ric es
' \
Ġs yn
Ġind ividual
il i
Ġp rin
d if
ous e
umb ers
il ities
Ġreg ions
Ġun iform
Ġbehavi or
ĠB o
m entation
ut ing
Ġcho ice
200 5
ĠPro position
Ġen ough
Ġdif f
' _
on t
Ġnumer ical
Ġcer tain
Ġrequ ired
Ġdeterm ined
Ġn uc
M S
Ġw idth
la tions
Ġto gether
un e
en c
re t
Ġp at
Ġt arget
Ġf und
ak e
Ġmoment um
Ġspect ral
align ed
Ġphys ical
Ġre por
Ġm ight
bul let
Ġam plit
Ġst rate
u ple
Ġd i
Ġmo de
}$ -
iv ed
7 0
Ġsatisf ies
Ġs k
) /
Ġwor ld
Ġex pon
pp ed
si der
us ic
Ġpe ak
) _{
amilton ian
d es
r r
Ġsc en
iz es
Ġp rac
re am
v ari
A C
ĠE ng
f unction
th s
Ġat t
per p
o ff
] [
et er
or ld
os en
Ġsour ces
s l
Ġam ong
ta te
Ġal ready
Ġse arch
Ġg ame
Ġoptim al
Ġl ife
Ġ+ \
) ^{\
Ġrepres ent
Ġev ents
Ġit er
Ġdiscus sed
ĠA ll
Ġex pla
Ġre mo
E q
Ġex plicit
defin ition
as tic
l ong
e k
Ġpub lic
Ġco ur
f y
i ft
Ġma ps
Ġcri tical
Ġl in
.~ (\
u ro
ĠI s
pan sion
Ġref er
ou ble
Ġan g
6 6
Ġlat tice
Ġc all
ĠM e
Ġo pp
Ġclass ical
Ġimpro ve
r and
I C
S t
Ġradi us
te ad
Ġun ique
ec e
8 5
Ġpro ced
Ġs ite
Ġn am
fi eld
ber t
Ġ: =
Ġke y
Ġval id
Ġd omin
Ġexperim ents
n al
s pec
sim eq
s tit
Ġor gan
Ġobjec ts
ula te
ott om
Ġde mon
end ix
Ġar bit
Ġthe rm
k n
Ġg lobal
) ^{-
Ġcompa ct
ĠC or
Ġt r
Ġof ten
ĠO ne
for all
Ġst ra
Ġh ard
Ġpol ar
I S
ter ial
ĠH ence
d o
w w
9 7
ĉĉ ĉ
$ ^{-
ymp to
um in
Ġs it
Ġco de
i ence
n d
Ġprovid ed
sub subsection
m ar
Ġma jor
200 4
Ġra ther
Ġdirect ly
Ġen viron
Ġcla im
d eg
en n
: //
} %
in ess
Ġrest ric
Ġat om
ol ic
ĠUn ited
I N
Ġconn ected
D E
pro du
Ġac ross
um an
Ġa ble
Ġconst ruction
Ġ&= &
Ġwrit ten
Ġcorrespon ds
Ġc os
20 00
Ġwhe ther
j ection
Ġmeasure d
Ġcol umn
d own
Ġproble ms
= (
Ġver sion
Ġdec ay
x y
Ġpl ot
ĠB e
d ed
Ġsample s
a red
' t
f lo
Ġv an
Ġcontrib ution
Ġincre ase
Ġapproxi mate
ser ve
Ġun til
b lack
$ ).
ener al
g ies
c ial
Ġver tices
Ġla yer
ĠW ith
Ġincre asing
it ch
pa g
N o
Ġl ist
Ġsupp or
^{ +
: \
er y
Ġacc ount
Ġinequ ality
Ġc aus
ĠB ut
texts c
Ġintrodu ced
Ġf uture
le y
Ġprovid es
i res
Ġcoeffici ents
l an
ran ge
Ġ '
}^ *
Ġdeta ils
Ġwork s
Ġsche me
4 6
9 6
if y
Ġal most
Ġderiv ed
er ing
Ġunder stand
Ġh or
Ġperform ed
Ġman if
Ġsc atter
Ġmeasure ments
c ur
Ġpop ulation
Ġad j
Ġassum ption
Ġspa tial
Ġallow s
s w
a ther
m y
Ġret urn
Ġresul ting
Ġacc uracy
Ġfram ework
p c
ĠW hen
d ec
ph er
ri p
g ory
Ġde v
Ġb ran
Ġg re
Ġcompar ison
D e
Ġcorre lation
is ing
A A
Ġexpres sion
Ġob ject
Ġdec om
d t
~ $\
ĠM ar
Ġrepres en
= -
4 2
Ġn umbers
. "
Ġn odes
Ġinst ance
un t
Ġcon text
Ġmo tion
Ġpro jec
f act
Ġcon ven
ĠR ef
Ġscal ar
Ġor bit
Ġn egative
os p
Ġcomp ute
u ation
Ġag ree
Ġear ly
) }{\
p matrix
Ġbec ome
Ġpl ane
Ġlear n
Ġill ust
ar ies
ar ge
c an
h om
ve x
v ant
In t
Ġth ird
rodu ction
$ $\
Ġthe ore
Ġchann el
Ġde p
upp ose
He re
um p
ab ly
Ġapp ly
Ġscen ari
c ases
Ġins tead
4 3
Ġcalc ulated
ari ly
Ġma terial
)\ \
Ġst o
Ġsim ulation
Ġtas k
Ġpri or
Ġen ti
O S
Ġt w
Ġro le
Ġ ec
gorith ms
Ġar ch
Ġed ges
Ġconstra ints
ite ct
f rom
} )$.
Ġdistrib utions
te in
Ġto o
Ġh aving
ĠMore over
$ (
5 7
ĠS ch
angu age
Ġspect ra
Ġsu g
] ,
w are
Ġlin ks
ce ed
ĠO ur
Ġqu as
Ġ= \
ĠR ec
Ġb en
I R
a cc
z ero
p ri
Ġstudi es
o ve
Ġcur ves
ab s
Ġconsist ent
u les
urther more
}} ^
in de
is ted
Ġse em
di ent
iv ing
al k
Ġcorrespon d
Ġlead s
mb ers
Ġdeno tes
ĠHe re
Ġf la
p ng
Ġb reak
Fig ure
ĠN ational
a il
5 8
a f
ĠC an
he m
Ġpat tern
sf er
Ġcon du
p ol
M C
Ġdepend ence
od ot
Ġstar t
Ġstudi ed
is ms
)$ -
Ġro b
em pt
ta g
m ma
Ġinv ariant
Ġg overn
Ġhe ad
ĠH amiltonian
Ġ text
Ġhal f
he ad
og ene
Ġt ensor
g raph
ĠM ay
200 3
im ilar
Ġpres s
us h
end s
Ġchang es
O ur
ce p
ash ed
Ġpan el
Ġs chool
E S
re mark
Ġb egin
A P
Ġnetwork s
ĠL i
ous ly
C C
map sto
N ow
Ġatta ck
ĠS e
Ġex pansion
a ir
Ġch osen
Ġs oc
d le
Ġexperim ental
on om
c ell
Ġd ual
i ti
Ġa x
ĠJ an
Ġinter pre
clu de
ren g
ten tion
Ġminim um
Ġconst ruct
) _
Ġsug ges
) {
I D
par amet
Ġlead ing
Ġwor ds
Ġpo st
Ġdif fic
ĠC ent
\| _{
u k
y ers
Ġ _
5 6
new command
Ġre view
Ġin finite
F T
The re
for ms
Ġca pa
Ġredu ced
ri ed
A L
iz on
Ġste llar
Ġdete ction
se m
ib ri
Ġpol ic
d x
Ġtak ing
d im
ĠJ ohn
in f
Ġsymm etric
Ġch eck
Ġd one
The orem
i ma
N et
Ġproced ure
ĠM on
Th us
Ġc ut
$ ~
Ġmagn it
ĠS he
os ed
A M
" ,
ĠF rom
Ġques tion
il ibri
4 1
Ġch ild
Ġchar ge
Ġsen se
Ġfil m
ĠC O
ĠI I
E E
Ġw in
mod el
Ġso ft
us iness
kn own
ĠG aussian
= {
Â ł
Ġa mo
and id
âĢ ľ
z ed
Ġcompu ted
ding s
| _{
el i
ĠO r
Ġmen tion
omorph ic
u tes
am pl
. âĢĿ
Ġan gle
Ġs w
ru cted
Ġfor mation
ĠP o
Ġal gorithms
sta ck
ĠM an
n a
_ -
lo c
7 7
Ġdepend s
Ġsing ular
ag es
Ġplay ers
8 8
pro position
Ġmod es
H owever
Ġcharacter istic
Ġcon sequ
Ġtyp es
s ol
Ġprodu ction
Ġcol or
Ġmat rices
ĠS c
Ġbo ok
ĠN e
C O
Ġn ame
min i
e le
Ġcho ose
ĠM a
al y
\ {\
b a
$ ;
Ġw ar
ds hift
}} ^{
Ġas ympto
le vel
Ġch ain
ĠF ran
i led
' (
Ġt ree
Ġ$ $
Ġprocess es
h bar
Ġdia g
Ġmo ve
ren ce
Ġdescrib e
it z
display style
Ġdia gram
ti k
Ġinterest ing
b and
el ine
Ġpar tial
Ġh ome
Ġ row
R es
irre p
Ġpres ence
Ġyi elds
ĠSta tes
Ġcorre ct
o und
ern el
Ġtak es
Ġc are
il la
Ġran k
ĉĉ ĉĉ
Ġs eg
Ġh ar
Ġinclud ed
Ġ ess
Ġintrodu ce
6 9
Ġgalax y
ac y
Ġcol l
Ġeigen valu
v ity
s es
Ġpos si
Ġexample s
Ġsim ply
sta te
an a
Ġd ay
Ġclass es
Ġlit er
Ġus er
Ġfi ve
cl usion
Ġarbit rary
\ _
Ġd iv
ic ro
on ic
Ġqu ark
Ġen g
Ġvol ume
Ġstructure s
ĠS te
Ġdis k
i ally
Ġlo op
thes is
y l
d ro
b its
\ "
Ġfo ot
A B
cl us
Ġcon v
Ġincre ases
ĠâĢ Ķ
Ġrepor ted
ide o
Ġexperim ent
Ġm em
F rom
Ġlat ter
Ġres olution
' )
Ġcent er
Ġse ason
Ġma kes
Ġenviron ment
Ġw ind
Ġemp loy
ev ed
Ġsh ift
b old
Ġm er
Ġtrans form
Ġspa ces
si ties
Ġst reng
l s
li p
}( {\
ilibri um
200 2
ĠF irst
Ġt reat
Ġeas ily
in v
Ġb ase
h box
Ġd ouble
Ġf ore
Ġconver gence
Ġachi e
Ġad op
' }
Ġenti re
da ta
Ġfig ure
Ġ ru
Ġqu ad
Ġt or
Ġnecess ary
Ġf ac
Ġestima tes
Ġuse ful
th ers
o od
ate ly
Ġs plit
av y
) +\
Ġpair s
ma tions
Ġlar g
mini page
P h
Ġscatter ing
ve y
ific ation
Ġdeterm ine
N R
&= &
al g
Ġvan ish
L e
m pt
} }$,
} }$.
in o
Ġinter actions
Ġm id
or g
ĠIn di
}{ |
m c
al gebra
Ġbe am
8 7
ex ample
Ġco ver
ci ple
ty pe
ĠU S
Ġup da
Ġspe ed
Ġcompu tation
} )$,
M ore
Ġapproach es
l or
Ġth resh
Ġmeasure ment
Ġt able
c ong
} &
Ġass ign
Ġbro ad
Ġfact ors
Ġco uple
Ġpro pag
n t
b um
ograph y
Ġp ul
P R
Ġrepres ents
Ġc andid
int y
R ec
}{ (
i ous
ura te
ĠA ust
ma ss
ill ion
u ary
ĠP a
Ġle mma
) -\
}$ )
gra ms
mp or
Ġch all
Ġf raction
Ġextend ed
Ġan ti
Ġdifferen tial
Ġrele vant
Ġsta ble
Ġorig in
Ġa da
Ġrema ins
Ġd raw
Ġsh ape
Ġo sc
b in
enc ies
Ġcoun t
Ġexist ence
Ġob serve
u es
ber g
Ġ ~
Ġrequ ires
Ġv ectors
Ġrec ord
ĠB ri
A t
tik z
k er
Ġan no
$ ),
Ġop tical
ch ange
Ġtran sfer
C S
E D
ĠC al
ĠA fter
ĠW ar
s ymm
Ġform er
5 9
Ġim pact
ta inty
v ent
Ġexact ly
od el
Ġauth or
Ġarch itect
Ġmass es
pic ture
Ġh app
Ġestima ted
Ġsta tion
Ġal tern
u ations
ec ause
" .
Ġb in
Ġn orm
ampl ing
200 1
Ġanal og
5 2
s a
Ġme mbers
A d
) )$
yste m
6 3
Ġg reat
Ġ$ |\
Ġa uto
S O
Ġsatisf y
Ġsignificant ly
en ti
la p
- $
la sh
Ġpro gram
oun g
) }_{
ĠS ci
b i
Ġw ant
is ter
) },
Ġd on
Ġp ut
ĠP re
Ġdevelop ed
rit er
i am
o de
Ġdiscus s
Ġd ark
ĠW orld
og n
st s
O ne
Ġamplit ude
Ġre l
Ġp ass
Ġma king
Ġm orph
Ġh old
D F
ra m
ĠJ u
Ġclassi fication
Ġus es
ag raph
f it
s ur
Ġa ge
z ation
~~ ~~
Ġprodu ced
ĠG e
Ġre dshift
5 4
ir al
H z
Ġlik ely
Ġinf lu
Ġcoordin ates
un g
: }
el er
less sim
de ed
o y
L S
c r
Ġg ap
Ġsuppor ted
Ġl and
ĠM in
Ġste ps
Ġcon ta
qu e
Ġl umin
ar ds
Ġapplic ations
b ur
Ġpar ts
ti ble
[ (
Ġsh all
ĠY ork
u ck
od ing
Ġh uman
Ġre ference
7 8
L P
Ġcons ists
Ġarg ument
d ers
W ith
col umn
ti mation
Ġknow ledge
t rans
ĠĠĠĠĠĠĠĠ ĠĠ
Ġbran ch
com ple
Ġtrans formation
5 3
6 2
Ġra tes
Ġs light
Ġf lat
Ġassum ed
Ġcompa re
ĠĠĠĠĠĠĠĠ ĠĠĠĠĠĠĠ
ĠĠĠĠ Ċ
ub lic
Ġno tation
k en
5 1
ogene ous
Ġs ix
Ġabs or
Ġres on
Ġiden tity
Ġsim pl
in te
Ġerr ors
Ġpress ure
Ġb inary
Ġinter val
Ġw ater
Ġcontrib utions
al es
Ġle g
iqu es
Ġde ep
o ber
Ġm usic
Ġmo lec
Ġad van
Ġpub lish
k y
row n
Int roduction
Ġc am
ĠE uro
. $
Ġb ar
Ġess ential
d ic
h am
se ud
end ed
ĠA ug
ĠS chool
Ġapplic ation
Ġcalc ulations
Ġflu ct
Ġeas y
Ġindu ced
Ġd iver
Ġhy po
W hen
ear ch
ct ing
,\ \
Ġw on
Ġprofi le
ti sh
it or
our s
Ġu til
Ġc ore
in y
Ġcon clude
is c
The refore
f ree
S U
Ġn eg
Ġfra me
ing u
h tt
Ġfor ce
ur ity
Ġsuc ces
big l
Ġstrate gy
5 00
Ġcate gory
$ _{
Ġhor izon
I M
Ġdesc ription
igh ted
ĠO ct
as ter
it ing
Ġmagnit ude
Ġreg ime
S P
Ġke ep
am ental
^* $
,\ ,\
Ġloc ated
9 4
al t
ra tic
ran t
Ġp ref
Ġf ully
st ructure
O R
ĠSta te
om an
Ġconstra int
Ġb ul
ne y
Ġits elf
on es
Ġpa ck
in ct
Ġpredic tion
9 3
Ġon es
E C
is ation
big r
ag ue
c lass
Ġpol i
c ref
Ġf un
Ġl anguage
Ġconfigura tion
D M
[ -
an te
Ġneed ed
er a
lo cal
n i
Ġoptim ization
Ġde vi
Ġstreng th
di ag
com p
Ġbec ame
os ity
Ġre const
ag ed
ĠS outh
dition al
ho ut
ĠR eg
Ġinte ger
Ġcalc ulation
Ġcontra st
ma s
Ġradi o
Ġv o
Ġexten sion
id ent
G C
Ġsqu are
Ġgra dient
Ġgo al
Ġsu ff
Ġobserv ation
b ut
f low
M e
ĠS ep
Ġbel ong
] $.
is k
a ce
Ġcluster s
te mber
Ġ\ !
tab ility
al i
\ ;
Ġrespon se
b lue
Ġgraph s
h an
Ġin ner
] {\
Ġac cess
Ġs ymbol
Ġs ent
li er
. )
Ġa way
Ġsol id
Ġwho le
Ġof fic
Ġ ener
e y
Ġm ar
Ġcommun ic
ĠCoun ty
ĠC l
cc cc
Ġdiscus sion
z z
Ġd ra
Ġse lected
sid ent
6 1
B C
ĠE n
Ġb ir
Ġon ce
Ġpro ject
for d
Ġb lue
c ity
Ġtheore tical
cal l
9 2
ĠJan uary
{ {
Ġ ensure
ud es
Ġcon vex
Ġdevelop ment
v a
Ġneigh bor
Ġneut rin
Ġbo x
ĠB ar
Ġo ri
$ :
Ġstr ing
d frac
| |
Ġauth ors
du al
sc op
Ġne ver
Ġal bum
Ġde ath
Ġk ine
Ġ[ \
Ġcap ture
Ġprin ciple
Ġform al
ck now
E N
Ġ rule
Ex ternal
res sion
ĠP ol
ĠM arch
il le
Ġs low
Ġnuc le
Ġp ure
ur ch
) }}
Ġhist ory
ul i
d y
: =
Ġal ign
Ġp as
Ġ{ $
Ġcour se
pr il
Ġang ular
Ġtechn iques
Ġav oid
A r
Ġexpon ential
I T
P T
Ġ\ &
Ġlevel s
math op
Ġamo unt
oc i
Ġscal es
ĠM ark
c ript
Ġuncer tainty
ĠG erm
Ġdeno ted
Ġdiscre te
ĠH ar
Ġex ec
Ġto ol
on ical
Ġk ernel
Ġagree ment
] }
, {\
Ġent ropy
M R
b el
F inally
Ġcirc le
Ġide a
ĠG u
Ġestablish ed
cor re
\ }$.
Ġminim al
Ġqu ality
Ġbound s
is s
Ġinclud es
Ġim mediate
Ġthresh old
Ġliter ature
Ġpar tition
Ġb ig
Ġtherm al
ic ity
199 8
cc ording
S ee
ir t
flo or
Ġcom e
Ġgo ing
Ġpolic y
ro ug
Ġma ch
Ġgrow th
Ġre si
le ge
m es
Ġj o
Ġappear s
Ġ\ ]
Ġscal ing
roug hout
Ġcoeffici ent
^{ *
Ġg en
, $
) )\
v is
ĠTh at
Ġover all
Ġto wards
th is
Ġh ole
un c
ur s
199 9
u x
Ġor th
Ġar ti
Ġstrong ly
ian s
per im
}[ \
Ġg ain
F e
Ġs ong
Ġpol y
ĠEuro pe
] $,
Ġal though
Ġappro pri
ve mber
}\ ,\
Ġl ink
Ġth ink
M A
Ġdemon stra
ĠW hile
ece mber
Th ese
Ġin side
ed u
Ġb usiness
Ġsatisf ying
h and
ell ip
Ġtra ject
Ġ *
Ġus ually
Ġex hi
Ġb und
Ġs us
}} )
v ision
S ec
ĠJ une
Ġgener ate
}} _{\
8 4
pec ially
P C
Ġ$ {
ĠF inally
ol ute
Ġr ing
Ġlim ited
Ġmechan ism
v ature
Ġide al
Ġsta ge
Ġax is
bra ce
Ġon line
8 9
ys et
Ġda ys
Ġat tention
Ġn ature
ther n
Ġf erm
at ory
ĠN ow
Ġro tation
Ġprov ed
Ġcomb ination
Ġpar allel
Ġqu ite
Ġinc l
en ess
L E
com m
ch astic
ĠSep tember
Ġfor ms
Ġw ord
f ect
A pp
end ing
y ond
Ġc ity
] .
Ġbas ic
.. .,
][ ]{
lab or
ĠM ed
Ġus ers
io ta
Ġa im
Ġstra ight
empt yset
$ {\
ron t
}) }
Ġc li
p tions
Ġgener ally
Ġacc urate
ĠOct ober
p id
Ġcomplex ity
ĠP er
ĠĠĠĠĠĠĠĠ ĠĠĠĠ
m ented
Ġis su
Ġdimension s
Ġse lection
u ff
Ġla yers
A ss
Ġs m
ig gs
Ġquas i
S I
Ġidenti fied
iv es
c a
ĠC ity
8 6
âĢ Ķ
Ġmem ory
Ġm es
om etric
is es
iz ations
Ġada p
ish ed
Ġm icro
Ġrepres ented
is ions
Ġredu ction
S M
ch eck
s qu
Ġph en
Ġdataset s
Ġprodu ce
L O
S h
bo ok
ĠJu ly
ssi ve
S o
âĢ ¦
Ġv ary
t wo
Ġwe b
su per
Ġv ideo
7 2
id s
rac k
\ )
long rightarrow
Ġequ ilibrium
Ġv ac
Ġrec ogn
, âĢĿ
Ġgovern ment
Ġcom mu
}) =
Ġcon serv
an i
Ġth ick
ĠâĢ ĺ
ĠA pril
imilar ly
) }_
Ġun its
s lash
Ġcom pe
rac ted
ĠAug ust
Ġsoc ial
ct ors
ĠN orth
L i
ĠY ou
ad a
t frac
Ġfoot ball
Ġdecom position
Ġa ir
Ġsub group
Ġh ol
Ġserv ice
n et
Ġrela tively
um ents
if ically
Ġro und
ran g
jec tive
s ue
Ġmention ed
U sing
ĠA g
Ġcomp any
Ġdiffic ult
ĠF urthermore
mu lation
ĠT ra
Ġloc ation
Ġre pe
en se
}} .
Ġcon cent
ar p
ĠQ u
r s
Ġ& &
ra ted
O N
Ġtas ks
od er
r ist
Ġ ion
Ġclear ly
Ġlit tle
Ġpri v
d et
Ġstar ting
dis c
st r
}} ^{\
m ann
ĠE d
}_{ -
Ġ ^{
Ġachie ve
mag netic
v ector
Ġconf ir
Ġlong er
;\ ;\
Ġmeasure s
script size
ĠM c
Ġneed s
| -
Ġcalc ulate
Ġconst ructed
ar c
Ġfund amental
Ġex pect
Ġcommun ity
es sion
Ġpro por
he ight
$ &
Ġadd ed
b ru
m ing
7 6
Ġre port
con s
Ġn or
s pa
ĠAust ral
Ġes timation
Ġgeom etry
Ġdeta iled
Ġa ut
S C
Ġcoun ter
Ġtyp ical
k a
Ġo thers
Ġre ve
o la
Ġweight s
b as
con n
ĠNo vember
ve e
Ġsuffici ently
Ġslight ly
Ġsit uation
Ġno vel
}} }\
Ġindic ates
s uch
Ġpers on
Ġrece ived
}) ^
Ġlarg est
$ };
9 1
Ġredu ce
ĠE qu
Ġp ix
Ġpro jection
ĠD ecember
Ġscenari o
c he
ro ll
Ġrecent ly
Ġsub sequ
Ġe p
a tives
Ġfunction al
ak ing
Ġb os
L emma
b matrix
u per
de pendent
b ody
Ġp ic
) --
Ġvis ual
Ġsum mar
ĠApp endix
Ġfe ed
j oint
ĠU sing
Ġg ames
al og
Ġdist inct
} ~
ollow ing
Ġconsider ing
Ġrema ining
Ġstate ment
b ly
Ġmanif old
Ġin verse
Ġrob ust
Ġ tit
N e
Ġre mark
Ġoper ation
Ġbuil t
ce ment
th en
Ġact ually
Ġrepresen tations
si tivity
Ġ$ .
ĠD i
mit ted
g et
ar ante
Ġconn ection
Ġac tive
ĠF our
8 2
ĠL ie
ell ing
Ġexp lo
8 3
Ġphys ics
Ġp i
ĠM o
= "
Ġre main
able s
C o
Ġspec ies
res ults
defin ed
Ġbe h
Ġidenti fy
pa th
Ġsol ve
ĠP e
D P
re la
Ġmaxim al
fa ces
Ġes pecially
Ġrele ased
en ing
Ġphen omen
Ġdifferen ces
ĠR ep
Ġb ody
m n
di re
Ġcom es
ma tically
os ing
S ch
Ġeffici ency
r up
st rate
Ġhe alth
C P
al gorithm
ĠW ill
par agraph
for ward
Ġdep th
Ġmulti plic
E T
column width
Ġev idence
Ġcontain ing
Ġexp and
Ġcomplete ly
Ġhe ight
bra tion
Ġat te
for t
Ġener gies
all s
ad ing
Ġbuil ding
s elf
Ġcoordin ate
Ġphot on
tri vial
Ġsuffici ent
Ġ\ (\
L L
et al
Ġp ast
Ġstatis tical
n ers
d el
00 00
| }{
Ġallow ed
ĠH igh
Ġ$ ,
Ġres our
Ġup on
Ġd ust
a ma
Ġp ay
G N
Ġpro te
sem ble
ub e
Ġdiag onal
r ig
ĠA f
Ġde al
\ }\
Ġsem i
ĠL ag
ĠS M
E M
ure d
o ti
it ary
Ġo ld
7 3
Ġtra ined
Ġout side
ĠT e
t ot
Ġplay ed
| }
S F
h ar
Ġs l
/ (
id ed
Ġa rm
Ġne ural
Ġasympto tic
ĠO b
Ġoper ations
form al
Ġp seud
ant om
7 4
Pro of
m ary
he rent
Ġy et
Ġ }{
Ġsa ys
Ġevalu ation
er g
199 7
Ġembed ding
c ase
Ġexpres sed
ĠA c
Ġst rict
}} =
Ġto ok
c d
rib ution
Ġlim its
Ġ( {\
is ely
Ġ irre
Ġconst ants
Ġfa ce
Ġc riter
r un
bru ary
vi tational
Ġd oc
ĠD o
Ġar ri
Ġsucces sf
part ment
ĠIn tern
Ġb ottom
Ġabs olute
Ġappropri ate
Ġcur vature
F irst
Ġ ^
H ence
Ġma ssive
Ġuncer tain
Ġcont ent
: =\
c el
Ġindic ate
ĠS w
Ġgener ation
Ġm ess
tain ed
Ġsec tions
Ġhy dro
Ġcol lection
\ }$,
7 9
Ġhigh ly
Ġradi al
Ġvari ation
Ġc ry
Ġvari ety
Ġassum ptions
sl ant
Ġs ampling
rid ge
y pe
b ib
Ġis sue
hem ical
Ġpredic ted
Ġab und
Ġtri vial
Ġsta bility
s table
Ġconsequ ence
199 6
Ġcon j
ap an
Ġlumin osity
A ll
Ġan sw
s pect
Ġex ternal
Ġcy cle
ĠL a
Ġdis per
Ġo dd
Ġpublish ed
multi row
Ġtop ological
med skip
y r
re w
} |\
Ġcre ated
Ġprevious ly
ff ic
ĠK ing
Ġpro f
Ġderiv ative
ĠG al
a e
Ġis omorphism
}$ }
Ġwork ing
ĠD ist
ci ble
c f
8 1
Ġnam ely
Ġgu arante
in i
ĠG ra
w ell
Ġb eg
Ġt un
Ġad v
Ġ ri
Ġe mer
om b
d ynam
c ome
Ġa ver
Ġadd ress
Ġbe yond
Ġshow ed
Ġdynam ical
Ġexist ing
Ġb al
Ġnon linear
p ite
Ġwh y
i table
ĠW h
ed om
\ |\
rop ic
sub sec
ivers al
ed er
= .
( (
age ment
ĠP la
Ġelect ric
re qu
N ew
Ġco p
Ġru les
Ġconta ct
S ection
Ġ %
Ġex am
Ġfor ward
a ves
& =\
var theta
Ġapp lying
ch ar
Ġapproximate ly
vel ength
Ġpredic tions
Ġme mber
Ġchild ren
^{ (\
ble m
Ġg rid
) })
Ġevalu ate
Ġder ive
Ġdete cted
at s
Ġ ellip
Ġpro to
ec ts
k i
Ġachi eved
Ġother wise
Ġcontain ed
b reak
Ġben ef
ust om
Ġus ual
ut er
Ġcate gor
ip al
Ġprim ary
er ies
et ing
Ġh ouse
Ġcan onical
3 00
for mations
ĠIn deed
g ener
Ġwh ite
Ġb right
res sed
iver se
in ted
ar ing
Ġacc eler
Ġw omen
if f
Ġcos m
s ch
Ġcompu tational
b r
b l
Ġradi ation
pl ot
7 1
I m
Ġre call
Ġtechn ique
ĠAl so
ĠB ra
Ġgeneral ized
Ġdistrib uted
c il
Ġwe ek
.. ..
ric e
k m
s y
Ġh o
Ġco inc
en ta
t iny
Ġdimension al
Ġcomb ined
fin ition
ĠEng lish
el low
X i
ot op
Ġwhere as
Ġla te
it er
amp ions
Ġj oint
Ġ #
res ted
Ġbi as
Ġgre ater
clus ions
ce ption
Ġear lier
^* \
Ġ ve
Ġdepend ing
Ġseem s
Ġc m
ve red
b et
P ar
Ġh ost
Ġfil ter
v ol
Ġt ry
l ength
figure s
P P
\% $
ri ef
Ġoccur s
Ġare as
Ġk ind
Ġintegra tion
G B
Ġd ashed
Ġacc re
gra mm
ĠE l
ĠFe bruary
Ġlocal ly
Ġdec ision
S E
ph ys
h ol
Ġmean ing
or ing
et ries
f il
le x
Ġse lect
Con sider
e lect
Ġtra in
Ġag ent
+ (
Ġvari ance
c la
ra di
Ġim p
Ġsc ore
m ult
equation s
Ġcomp an
S D
no ther
ĠW est
C or
S et
L B
S uppose
ill s
Ġsim plic
Ġex cept
^* (
Ġon to
Ġrec over
Ġfluct uations
ond on
c tive
Ġinc or
G L
f lu
Ġexplicit ly
Ġma pping
Ġto wn
An d
Ġform ed
Ġunder lying
Ġhe avy
l ies
Ġprac tice
a o
Ġbul k
v ised
Ġproduct s
ĠBri tish
math it
h ic
Ġtyp ically
Ġeng ine
lo op
Ġinde ed
Ġm illion
Ġre ally
ĠG eV
) ^\
Ġinter nal
Ġgra vity
u um
Ġpres erv
ĠRes earch
A fter
ren ch
ph antom
or ds
our nal
no tag
Ġchall en
ĠD es
ĠB ay
Ġ$\ {\
ĠE ach
an o
Ġob vious
Ġcell s
Ġj et
og onal
Ġprec isely
al se
Ġhigh est
}\ |
Ġrun ning
Ġe m
Ġtreat ment
ĠL o
tikz picture
Ġcount ry
Ġsto chastic
Ġsu gg
Ġw ide
pl an
Ġnam ed
p g
Ġd ro
Ġpop ular
Ġsugg est
Ġte mpor
M N
re et
Ġpla s
Ġsub ject
Ġf av
rip ts
T r
Ġplay er
Ġquanti ties
Ġprob ab
o res
pro cess
Ġpa ti
cont inu
Ġequival ence
ĠI R
ad s
Ġdesign ed
Ġso und
mon ic
rang ian
Ġdeg rees
Ġpro pose
Ġarchitect ure
Ġeffici ent
Ġdeterm in
o ted
p en
re al
d om
S R
ight s
Ġeigenvalu es
] (
Ġfollow ed
Ġsatisf ied
( -\
ĠH iggs
ro scop
i ra
w a
or i
Ġsh ock
i tions
Ġh eld
Big g
circ le
Ġ ,\
Ġinvol ved
il bert
Ġs par
ĠH is
Ġper fect
bold math
Ġres ol
Ġcy c
A D
Ġelect ro
Ġd x
10 00
M M
Ġst ory
~ (\
Ġchann els
Ġst yle
Ġf ast
down arrow
al ysis
Ġdes ired
199 5
Ġth in
Ġcomp uting
Ġcontra dic
Ġe q
ist ory
Ġver tical
par allel
Ġcorre ctions
Ġthe ories
' _{
Ġ ]
ac tic
Ġro ot
ĠR us
on y
Ġdeta il
vari ance
sk i
ĠP ark
G iven
Ġrela x
Ġk m
ap s
Ġdist ingu
one y
! \
eli hood
ter m
Ġperturb ation
Ġcon cept
Ġtrac k
More over
ĠE ar
el ves
Ġreg ard
Ġmach ine
O T
G u
Ġb ur
su pp
ĠCh ar
Ġpic ture
Ġsequ ences
id den
l ig
C M
Ġind ust
ĠD av
Ġc ru
hi ps
r ich
par ison
. \\
si a
Ġ\ ,\
m un
Ġec onom
stit ute
ĠS pec
Ġra pid
am ent
Ġmod ule
Ġar ticle
v ect
Ġincre ased
Ġe f
Ġte le
ĠS an
Ġneutrin o
pro b
h igh
ĠĠĠĠĠĠĠĠ ĠĠĠĠĠ
u tive
Ġhypo thesis
ot ing
cor ollary
Ġfa il
Ġ Â
Ġsuc cess
Ġw id
Ġf ri
Ġrelations hip
\! \
Ġimple mentation
Ġdete ctor
Ġext rem
I F
back slash
c s
Ġbund le
S tate
t ors
Ġth roughout
}{ *
Ġ ;
Ġinvestig ate
Ġhal o
Ġgra vitational
a j
Ġt re
Ġconc ern
Ġd ivid
ra ft
Ġed uc
u it
Ġrec ur
Ġre produ
Ġint ensity
Ġissu es
n n
is ot
ĠA ir
$. }
Ġd ig
ĠS ub
t ru
Ġr isk
Ġcre ate
ult ane
S L
stack rel
ĠJ apan
Ġc at
Ġas k
Ġb it
ura tion
P U
Ġv s
Ġb rief
| ^{
)} (\
us ed
Ġmo tiv
20 22
ĠSci ence
b orn
> \
r d
ĠM ich
! ]
ol ing
Ġstud ents
Ġmod ified
ul ating
Ġd est
ĠAf ric
us ing
text color
Ġm arg
Ġobjec tive
Ġpo sitions
d iv
, "
Ġapp e
Ġtrans port
Ġinflu ence
Ġexpla in
ĠB ro
Ġle d
Ġbeg an
as ons
or ts
Ġin ver
Ġyi eld
ad y
t an
ĠAl though
Ġassum ing
Ġparticular ly
Ġpolar ization
cal led
Ġy oung
Ġcom po
Ġinv ari
pt on
Ġcommunic ation
h al
b re
Ġanno un
Ġfre edom
ĠL ondon
ĠG reen
ĠS uppose
Ġflu id
par ticle
k in
n el
Ġex ci
Ġqu an
Ġsu itable
ĠS U
Ġaltern ative
Ġla ck
a uto
s ign
erm i
Ġunderstand ing
Ġ _{\
pl ane
Ġinde pend
B S
C A
| $
b p
-- -
$- $
en ed
D ef
t w
g eneral
Ġrun s
b on
Ġcorre ction
Ġmed ia
ar ding
w hile
Ġshow ing
footnote size
Ġfil ms
ar ith
Ġet c
a res
b il
m en
Ġwind ow
Ġcom position
Ġro ugh
ww w
Ġcal i
199 0
ma ge
Ġuncertain ties
r ins
}$ \
Ġopp o
y ear
Ġst ream
om etry
ĠFour ier
ag ing
n egative
Ġs lo
199 4
is son
du cible
ob s
Ġpath s
pres sion
Ġuniform ly
Ġexper ience
em ark
Ġdis play
{ (\
Ġ math
S p
Ġis o
ject ure
the less
} /\
Ġstatis tics
Ġatt rib
i em
Ġac qu
as sum
n s
Ġv irt
i ent
Ġcons tit
i ta
ĠA rm
ment ary
Ġex change
Ġtra ce
Ġstar ted
v s
ill ing
prop to
on ds
mod ule
Ġserv ices
in put
Ġasso ci
Ġimmediate ly
z ing
P e
D A
O b
*} [
Ġvac uum
ĠS uch
Ġmix ing
Ġmatch ing
Ġnuc lear
&= &\
f er
) (\
Ġev ol
Ġph ases
P re
x x
Ġte ll
Ġt en
la s
W hile
C ol
$ ^
up arrow
Ġac tiv
ĠM odel
C H
Ġpro ceed
Ġb ra
Ġbehavi our
Ġsur vey
}^{ +
Q u
Ġrepla ced
y a
Ġhe at
Ġmark et
_{ +
{ .
un ch
Ġcare er
G eV
G R
) }.
Ġdynam ic
sc ripts
Ġcandid ate
ra d
Ġre cor
Ġf ront
ĠH er
ĠM or
S ub
r ical
)-- (
Ġden sities
Ġwa velength
Ġsol ar
Ġd ot
Ġac tivity
re me
ii i
g u
Ġdis pla
s us
R R
Ġconfigura tions
ĠH ouse
pa ir
var rho
ul us
ti an
Ġcontinu um
Ġr ise
st an
Ġcon sum
Ġcouple d
ĠG iven
Ġno ted
h fill
e led
ĠB er
Ġclo ud
e red
Ġp en
Ġperiod ic
ĠĠĠĠĠĠĠĠ ĠĠĠĠĠĠ
Ġthan k
ĠLe ague
l ings
ĠS ome
Ġa ctions
Ġgener ic
Ġabsor ption
pos es
Ġdeg ener
M P
g a
N ext
n es
I P
Ġprofi les
h u
Ġf ine
Ġocc up
ĠN or
ub ble
Ġnormal ized
Ġan om
Ġst ress
Ġs ector
t ran
ĠG o
Ġpur pose
$\ ,
th ick
du c
Ġc ame
end er
Ġproto col
Ġtri ple
inv ariant
Ġc ustom
199 2
A p
Ġ\ [
}{ {\
ran k
Ġc hemical
Ġreve al
g ather
Ġve hic
L A
im its
ĠS p
Ġcl ub
ĠT rans
& &\
Ġquad ratic
ĠCol lege
Ġacc om
Ġpro g
Ġconj ug
iz er
land s
ad d
ch ang
ĠC M
Ġques tions
ste p
c ar
Ġanaly tic
Ġlabel s
cons ist
Ġpartic ip
Ġtri ang
Ġaff ect
Ġatom s
Ġ lab
Ġexpla ined
ĠA m
d ens
tic les
a fter
Ġequ ality
v als
c z
n ol
Ġsign als
Ġn ational
Ġquan tity
Ġconv olution
Ġb all
B H
Ġden se
A meric
Ġtemperature s
Ġsupp ose
Ġfin ding
al low
dif f
Ġexpres sions
text normal
co de
mult line
$ ^{
la w
Ġevalu ated
Ġcomb in
ĠWill iam
Ġsugges ts
tiv istic
Ġhom ogeneous
Ġw ays
k ern
Ġtrans mission
Ġelectron s
199 3
S A
g ent
Ġcont in
c ription
Ġfor ces
vi ties
e ma
es tern
S im
texts f
b ottom
Ġtest ing
H C
Ġg lu
T able
inde x
Ġde mand
Ġm eta
ren ts
}. }
I G
k o
Ġthough t
ti os
Ġgeom etric
n um
\| _
Ġag g
Ġun known
po ch
Ġmo ving
c as
htt ps
D R
the re
ish ing
Ġf lo
Ġorbit al
ort un
=\ {
u cl
Ġpl at
Ġl ies
pher ical
Ġdiff usion
}) ^{
Ġv ic
fa ult
Ġneighbor hood
Ġnear ly
Ġfa ir
Ġdisper sion
math tt
Ġiden tical
Ġno tion
l arge
clu ding
Ġep is
op tim
ĠD ata
$\ \
ct s
er red
Ġc ult
c at
P r
F R
Ġpropor tional
Ġsim ultane
Ġredu ces
Ġfit ting
ĠIntern ational
ob serv
Ġsta ted
s ystem
ĠG R
Ġact ual
C T
Ġl ot
Ġpolynomial s
b ase
B e
Ġout er
1 20
d r
R ight
Ġfor mulation
Ġdevi ation
ri er
text up
Ġindic es
{ |
Ġalgebra ic
Ã ¡
Ġimpro ved
ur ally
s ect
ĠS im
Ġf all
m om
Ġplan et
Ġcar ried
Ġadvan tage
Ġd edu
u el
left arrow
Ġbel ie
valu e
Ġsepar ate
v ille
Ġcorre lations
ĠCor ollary
ĠB el
s ample
Ġ ~\
Ġinter mediate
ĠLag rangian
paramet er
ĠD M
it ter
sequ ently
re te
L R
ke y
Ġa st
po le
n am
ma ins
w ave
om s
Ġfrequ encies
Ġpossi bility
ch mark
un ct
ev en
] ^
c ipal
N S
Ġorth ogonal
I s
4 00
ap ter
se p
Ġincor por
ul er
B o
Ġsem an
Ġinte rested
u i
$ '
Ġemp ir
tima te
h ang
Ġpattern s
Ġtrans verse
Ġsite s
Ġinter n
h as
c line
Ġmed ium
bin om
, ...,
Ġs izes
Ġqu ick
Ġ$ ^{
Ġth ings
Ġbuil d
y al
ar a
Ġbeh ind
Ġaccre tion
Ġosc il
Ġdecre ases
Ġl isted
small skip
or tion
c ast
Ġst ri
Ġas ymm
dif feren
Ġt ren
Ġdepend ent
Ġsh are
Ġstraight forward
ĠH ol
H E
Ġsol ving
squ are
Ġiter ation
or ation
Ġcent ury
. $$
Ġpro gramm
Ġmain ly
Ġsub space
ĠCon sider
so ur
Ġsoft ware
Ġband s
ĠS T
15 0
l en
L T
ĠCh ris
ĠP ri
Ġmix ed
ol ar
Ġref lect
Ġtit le
- (
H om
H S
cent ury
ier arch
if orn
Ġg reen
Ġtop ology
re pres
Ġsome thing
g n
S e
form ed
@ {
Ġwa ves
Ġsepar ation
Ġa mb
ol i
po ints
Ġs ym
ri al
Ġcapa city
Ġcry st
Ġl ens
Ġv illa
Ġ und
ĠCent er
y p
on ly
l ines
ot o
at t
Ġfin ally
Ġtra vel
Ġp rime
Ġsp read
Ġdia grams
ĉĉ Ċ
Ġmet all
Ġimple mented
ĠF rench
}) +
Ġf rac
ers on
}^ +
Ġen semble
Ġgo es
set s
Ġra tional
Ġdire cted
Ġcurrent ly
Ġtran sitions
Americ an
Ġdire ctions
F F
il itary
Ġcaus ed
) _{\
Ġass ess
Ġimport ance
Ġhist or
iem ann
Ġcom plic
ir ing
` `
Ġarg uments
ax is
a rent
c tic
symm etric
Ġte ach
\ }.
er ve
rins ic
res p
k l
im es
Ġde pic
Ġper mu
Ġli ve
sub equations
Ġab ility
a a
D B
Ġs ure
ĠO ther
Ġupda te
g r
iforn ia
Ġdemon strate
d ensity
ef ore
ĠT ech
Ġdescrib es
am s
Ġinst rum
lo ad
Ġun ion
Ġexpec tation
Ġgener ating
Ġprec ision
ho p
Ġun iversal
Ġirre ducible
reg ular
Ġ\ {\
Ġinter section
Ġneut ron
Ġconn ec
) }$.
Ġn orth
a tively
Ġat m
Ġ ...
ce il
Ġcategor ies
Ġprocess ing
Ġme as
Ġact s
ins tein
Ġc le
Ġnew s
Ġderiv atives
b rid
big cup
a ff
Ġor ders
n y
Ġansw er
\ [\
$ }}
ĠC la
Ġs il
Ġg ot
Ġtrans lation
C ar
Ġblock s
Ġdecre ase
ĠAl gorithm
Ġmetric s
Ġlow est
Ġmolec ular
Ġag ents
o i
min ist
b ot
C l
}[ !
S te
c oun
ĠĠ čĊ
Ġad ding
ĠEurope an
cap e
Ġar t
Ġre comm
Ġsen sitivity
t f
Ġset up
Ġ\ |\
cor respon
ĠC our
an cial
Ġnecess arily
a vi
E P
Ġima g
ti fied
Ġferm ion
ing ton
Ġp r
Ġdel ay
ĠS erv
Ġr ig
Ġbegin ning
de pend
ed y
Ġwe ighted
Ġmorph ism
Ġ- --
and s
j i
i eld
def n
Pro position
ine ar
Ap J
}) =\
Ġs ched
Ġvari ations
ĠG roup
al ities
ch es
Ġbas eline
Ġchar ged
G e
D S
Ġsim ulated
m its
o ot
ch ron
Ġ @
ĠH ilbert
S pec
d ash
* *
com pa
E s
Ġfe el
Ġinter act
ĠW ork
Ġc ause
le ase
Ġh ours
t z
L o
N A
AT E
C R
Ġlo st
Ġfeed back
Ġb orn
ti fication
C ref
O M
Ġoffic ial
P er
ĠEq s
ĠM ag
Ġstrict ly
Ġscenari os
Ġalgebra s
z a
y e
the tic
\, {\
im in
Ġsyste matic
Ġgiv ing
me asure
bo ur
Ġt urb
Ġfam il
ĠR ed
M L
ĠIndi a
E nd
ĠIn te
Ġbel i
f irst
\ },
ĠF ound
h ance
Ġessential ly
Ġbir ths
P o
cal e
Ġp ort
ĠGerm an
ĠS ur
Ġra tios
or ge
Ġp ick
f ying
} >
les c
nol imits
if ted
cite alt
Ġsec urity
ran e
ric k
f s
Ġw ent
Ġno tice
Ġoppo site
ph ase
Ġtempor al
Ġprovid ing
ĠA ccording
la te
Ġcom ing
Ġadop ted
Ġ{ $\
si vely
) }$,
scripts cript
_{ -\
\ }_{
Ġe ver
ing er
Ġsc i
n m
ĠEqu ation
Ġse ven
ĠAmeric a
wo od
ph as
mid rule
ĠB lack
scriptscript style
Ġserv ed
ĠP lan
Ġdisc over
Ġpo ster
Ġprec ise
Ġt ang
o ph
Ġphot ons
Ġrestric tion
ĠV i
Ġtra de
Ġcosm ological
ĠIn ter
ĠSec ond
Ġwor th
leq slant
}} ,\
ĠW hat
dition ally
V ID
ĠNew s
Ġmon ot
Ġn ull
Ġtra ditional
Ġh ierarch
ĠR iver
m ith
Ġinterpre tation
B ut
err or
^+ $
Ġhorizon tal
ĠF in
olog ies
Ġfamil ies
omorph isms
B M
ĠG eneral
Ġmodel ing
n eg
angle ment
Ġ{ };
ul ty
la m
199 1
^* _
Ġacc oun
;\ ;
Res ults
Ġf em
Ġch iral
ĠL y
Ġsur faces
ĠCoun cil
ite s
1 10
ĠCal ifornia
ma ted
Ġ ign
act ers
pa ign
M od
Ġh ot
id a
W hat
con ver
ĠO f
Ġmon ths
Ġturn s
c en
Ġ\ }
Ġcon clusion
L a
Ġto day
Ġreach ed
Ġ tes
P A
no v
Ġcomp uter
Ġpoli tical
Ġsimilar ly
ĠL aw
Ġre normal
Ġm u
Ġintegra ted
ĠD em
a el
Ġamplit udes
Ġcar ry
ĠD ef
Ġhad ron
E qu
b olic
ti zation
ag er
) >
ĠU K
at tle
g ments
ĠH all
us sion
Ġreconst ruction
pre c
Ġrele ase
Ġp ow
ĠF ermi
iv il
Ġqu e
Ġn ight
d ashed
low er
Ġman ner
b d
Ġindic ated
im al
Ġent ries
ĠCh ina
Ġrandom ly
Ġfun ctor
Ġmain tain
-- --
Ġeigenvalu e
in du
Ġlog arith
Ġma x
Ġneut ral
Ġad vers
op s
' $.
tri ang
in ner
la yer
id ing
Ġar c
function s
Ġconver ges
Ġbelie ve
Ġdist ances
ĠS imilarly
B bb
Ġsugges ted
ens us
Ġdomin ant
Ġreson ance
ĠA GN
ĠIn stitute
ĠCh ampions
198 0
Ġs on
Ġb l
B A
}{ }
Ġexpl ore
ĠCon t
I V
| _{\
amet er
Ġapp arent
Ġinter face
tri angle
ĠPre sident
am ily
aw a
if old
Ġdefin es
ĠU V
ĠS ee
el ian
Ġv or
Ġs ens
Ġmid dle
Ġsche mes
Ġe poch
Ġsta tic
Rec all
ta ting
Ġqu ar
ĠQ CD
Ġsen sitive
ĠS en
fi er
ĠĠĠĠĠĠĠĠĠĠĠĠĠĠĠĠĠĠĠĠĠĠĠĠĠĠĠĠĠĠĠĠ ĠĠĠĠĠĠĠĠĠĠĠĠĠĠĠĠĠĠĠĠĠĠĠĠĠĠĠĠĠĠĠĠ
Ġ Ð
Ġinvol ving
Ġtrans formations
h ave
Ġcontin ue
}\ ;
m al
rim in
Ġget s
Ġim ply
Ġmis sing
Ġb re
Ġweb site
ucl ide
Ġre w
om ew
Ġs outh
and er
F C
ĠM y
new line
m f
Ġrefer red
Ġlik elihood
Ġpredic t
Ġsw itch
com ing
Ġpro ton
( [
Ġsimplic ity
ĠS uper
Ġan isot
ĠA ct
cknow led
Big l
Ġf its
fi le
b ed
Ġp rice
id el
Ġb ary
ti vities
Ġsk y
Ġf le
m i
Ġpa ge
ic o
Ġunit ary
Ġmod ern
R E
on a
_{ [
\| ^
Ġs at
Ġd ate
b ilities
con f
Ġlo ve
Ġcomm it
ann el
Ġor dered
Ġtraject ory
Ġcoll ision
Ġis omorphic
) [
Ġtest s
Ġatom ic
uclide an
( $
ĠB oth
Ġsc reen
| _
F L
Ġkine tic
R el
ch ing
f ont
ĠS et
Ġtechn ology
M T
Ġn arrow
Ġpar ty
Ġdifferen ti
ĠJ o
h ed
und ers
Ġpriv ate
Ġun iqu
Ġvary ing
ĠT V
Ġdefin itions
ac ob
Ġcandid ates
Ġsp here
Ġdev ice
Ġresour ces
ĠE ast
Ġfla v
ĠEng land
} ~\
Ġcon formal
sp in
ph ot
ist or
Ġsur round
II I
ĠH ow
ĠDe partment
Ġcoup lings
}} =\
) &
ĠAustral ia
Ġstation ary
an ks
con dition
rac ket
Ġh tt
an cy
ou ra
Ġext racted
D ata
Ġprof ession
ĠUn der
Ġor d
ch ain
Ġreg ression
Ġrestric ted
Ġge odes
ĠRep ublic
ĠDist rict
oci ation
B ar
Ġin ference
Ġli e
Ġslo pe
ĠCan ada
Ġqu ery
ck s
Ġmo ved
Ġconn ect
Ġincl usion
ann ed
cknow ledge
stan tial
Ġindu ction
B ox
Ġemploy ed
D C
Ġsign ature
Ġde b
le g
me an
}{* }{
Ġconf idence
ĠB ecause
Ġtr ig
Ġsa f
Ġsol ved
Ġremo ved
ma ke
T S
= -\
Ġimprove ment
Ġori entation
Ġte m
Ġt end
at ri
o o
Ġsta t
use um
od ynam
ĠS N
te e
)= (
Big r
por ts
con stra
sto od
ad es
ms elves
Ġent er
ic a
s at
Ġver sus
E n
Ġevent ually
mod els
res pec
M a
valu ed
ĠG overn
re lated
ĠM ax
ĠS a
n ed
Ġinvestig ated
appro xi
Ġgener ator
jec ted
osp here
Ġagg reg
Ġw alk
Ġthe mselves
T e
Ġrecord ed
Ġb ring
a ut
ate ll
} <
Ġwrit ing
Ġsuccessf ul
b ro
Ġdomin ated
Ġannoun ced
oti ent
F urthermore
Ġgeneral ization
Ġen hance
wh en
. (\
Ġlook ing
Ġanaly ze
ĠSt reet
ir r
Ġdev ices
ore nt
not in
Ġpla ced
ĠT r
Ġh idden
Ġsplit ting
Ġa udi
Ġ& $
Ġem phas
v dots
as c
Ġprobab ilities
Ġj us
Ġmost ly
Ġplot ted
ac tive
) |\
ĠDav id
Ġp atch
Ġconsist ing
ĠI II
ĠCh rist
ĠP al
Ġor bits
go ing
c ate
u ds
Ġosc ill
s ince
Ġpers onal
ĠD en
ĠPo isson
Ġmajor ity
if ying
Ġw all
w t
paramet ers
ĠDi rac
Ġabs ence
ĠT wo
Ġt rees
\ /
od ed
c rib
Ġpix el
ist ance
ĠDe finition
D es
Ġestima tor
v olution
] =
Ġcondition al
\, ,
a cent
ĠFound ation
Ġdo mains
en sive
Ġpo or
O P
rum p
Ġdiv is
un ic
ist ry
ĠTech n
pec ts
Ġlearn ed
Ġopp ortun
O C
ĠR iemann
hy per
$ _{\
Ġre p
Ġmom ents
Ġcol labor
ro b
Al though
Ġd t
M F
Ġmin or
Ġchar acters
Ġbreak ing
al d
' )$
Ġturb ul
& -
Ġcon to
i en
Ġpla ys
Ġd ied
Ġatte mpt
Ġben chmark
ult ra
I A
ĠR ad
ste ad
ĠR ich
g ers
Ġcharacteristic s
ĠS D
Ġmet al
Ġposter ior
alle st
U l
Ã ³
ĠK e
}} )$
Ġmath ema
g re
orent z
Ġempir ical
Ġsimilar ity
U psilon
ap la
i ant
li k
Ġprob ably
pro per
Ġdec ays
Ġh it
Ġpseud o
Ġspace time
l m
ĠS un
c ross
l ist
Ġhar monic
Ġmaterial s
Ġs pherical
Ġnat urally
C N
Ġcru cial
Ġintern ational
al so
ĠD ec
ĠO ff
ar ity
Ġexhi bit
Ġillust rated
Ġpan els
Ġsuper con
j k
)} _{\
' $,
Ġcharacter ized
lo b
Ġsh ell
com pon
cite d
T H
O r
Ġtele vision
ruct ural
Ġtechn ical
' }\
Ġgener ators
G M
Ġco variance
12 8
tri es
bet ween
198 9
P a
Ġcompar able
Ġwork ed
Ġdecre asing
otop y
Ġc ard
Ġplas ma
math ds
Ġexpl an
Ġinter vals
jec ts
Ġver ify
Ġdemonstra ted
Ġis ot
Ġsp an
comple te
Ġrepla ce
roscop ic
C E
int ro
Ġvanish es
Ġimple ment
ĠD uring
Ġ rac
ĠN etwork
Ġstrate gies
Ġinitial ly
st ream
fin ity
Ġrequire ments
Ġprac tical
Ġprin cipal
m ix
Ġsta bil
Ġpati ents
Ġrough ly
Ġaff ine
Ġread er
B B
Ġmed ian
Ġsh or
ĠM od
mpt y
Ġc odes
spec ial
ĠMon te
Ġle ave
ĠJ ames
Ġsur pr
lear ly
Ġme et
Ġdo ing
vi e
me thod
com b
Ġfa ther
er c
per iod
cy c
Ġ ir
sk y
Ġd u
po lation
. },
ĠC up
Ġcat alog
mo de
op t
Ġreason able
sub stack
Ġgra du
ner gy
ĠL ab
the ory
Ġloc ations
Ġcompan ies
Ġinst ances
Ġfour th
Ġm ind
Ġcontradic tion
Ġpropag ation
Ġabund ance
li ography
Ġperturb ations
ra tes
Right arrow
Ġang les
Ġg ave
Ġel se
per turb
ow s
Ġcluster ing
) |^
Ġac cep
ĠM al
Ġpl us
}) _{
| =
Ġsome times
Ġh on
n umber
ro te
Ġ Ã
Ġsub stantial
P I
in ction
g in
Ġsci enti
ĠB rown
con d
form ing
le v
ver b
Ġanal ys
u ge
Ġtool s
Ġ$\ |
Ġdistingu ish
Ġs omew
00 1
Ġti gh
D isc
hom ology
b c
Ġpro mo
Ġcomple ted
ab ove
flo at
il led
Ġweak ly
Ġtraject ories
Ġmess age
Ġindust ry
à ¤
qu ark
Ġaff ected
Ġinteg ers
ru g
ic tion
& $
ĠC R
mom ent
Ġnormal ization
Ġint rinsic
Ġin fra
. }\
s en
ĠS to
over set
Ġallow ing
Ġs ides
Ġun iverse
Ġre asons
ex ists
alle y
ĠD iv
Ġre action
S c
Ġele ction
Ġa ward
G S
Ġsubset s
Ġb ad
lig ible
Ġchang ed
i pa
s m
Ġeffec tively
Ġro ad
l floor
Ġprojec tive
Ġoff er
c ut
Ġcho ices
Ġsc ience
Ġvi o
Ġsetting s
symm etry
ĠCh urch
Ġchang ing
u y
Ġcompar ing
Ġt ail
Ġfe as
r floor
Ġcolumn s
C F
h aps
Ġwid ely
hi re
] ^{
htt p
ĠS i
ab a
Ġinter ior
Ġdefin ing
qu id
d ri
yste ms
Ġcoll isions
ĠFran ce
Ġdoc ument
Ġcon e
Ġcam paign
inde pendent
ĠZ e
Ġpro position
re du
T T
loc ation
A V
cent ric
M o
Ġunder stood
Ġco ach
198 8
Ġspec ified
* \
Ġcontrib ute
Ġassign ed
i ke
wh ite
Ġe ight
ĠSt ar
Ġ$ <
ĠD ire
g reen
co ordin
Ġflow s
Ġa xi
Ġellip tic
av ity
ĠPh ys
v skip
Ġb r
Ġl iving
se y
Ġso on
stra ct
ri tical
Ġpossi bly
str ong
Ġsimultane ously
Ġre ferences
w in
~ (
Ġmon th
Ġf aster
Ġiter ations
Ġc ub
se mb
)} =
Ġperform ing
Ġj ud
display math
Ġdis joint
ĠC NN
di ents
fi x
ree k
clud ed
Ġinv est
ur l
Ġdis e
we ight
P E
ou thern
ta ted
ĠCom mun
Ġcontinu ed
) ).
A ccording
Ġpro pos
Ġ }}
Ġsh ared
es ts
Ġm ut
p otential
r ong
U V
ĠI ts
ĠAss ume
Ġstrong er
Ġfo od
Ġm i
m l
Ġco herent
}_{ {\
Ġcont roll
ST ATE
Ġveloc ities
ĠPa ul
ĠHe alth
l oss
tab ly
Ġmark ed
Ġent anglement
ĠI m
Ġro om
z en
Ġdivid ed
198 7
Ġsymbol s
} &\
P s
Ass ume
Ġtru th
f l
Ġlab eled
s hift
Ġelectron ic
lap se
Ġdete ct
Ġprodu ces
ĠPar ty
dist ribution
un it
Ġspe ak
Ġpl ots
Ġ$ [\
Ġm oney
bel ow
L C
ash ington
ĠEx ample
Ġho les
Ġcan cel
Ġ }$
Ġrepresent ing
U T
Ġfin ancial
t b
Ġconcent ration
at ural
Ġdis si
mathbb m
bound ed
Ġrepe ated
Ġd war
Ġcent re
Ġinst ant
ĠN GC
Ġcol lected
Ġg ran
ir us
Ġpro grams
ĠC ap
Ġpers pec
Ð ¾
I l
Ġe mpty
( {
ĠF il
A G
Ġcon dens
Ġre sid
Ġvirt ual
ĠA lex
lec tive
dire ct
Ġman agement
Ġ }{\
ĠEar th
Ġlinear ly
Ġinput s
Ġp ush
L M
ĠIn d
i us
ils on
tru e
f old
18 0
ĠA ward
d z
ĠD is
Ġvis ible
ari al
Ġinvol ves
ĠL eg
e th
qu es
c Q
= (\
Ġterm in
Ex ample
Ġla ser
ĠB H
ĠR emark
Ġquick ly
ad ian
pos sible
Ġidenti fication
Ġsm allest
Ġact ing
Ġtre ated
Ġappe ared
Ġsubsequ ent
are st
phys ical
pi red
Ġre ct
ĠV ol
ĠH y
T R
Ġdiscus sions
Ġsur v
Ġanalog ous
M odel
Ġdedu ce
H D
j o
sc he
d eterm
Ġin ten
Ġf ight
pan y
ĠD el
we ak
ur ning
ĠCO VID
ĠO ver
Ġadop t
Ġ{ {\
Ġf alse
Ġstar ts
Ġcompa tible
pro blem
Ġc e
h ard
}) -
Ġrespon sible
osp ital
han ced
' }$
A E
}}\ ,
Ġa ug
unders et
ĠO ut
conn ected
he rence
Ġar ray
Ġrespec tive
Ġextrem ely
}_ +
Ġsub section
ta tes
Ġseg ment
ic on
Ġnon zero
}} }{
, ~
Ġw rote
Ġchall eng
}, {\
Ġadj acent
ĠB i
pres s
Ġanaly tical
ly mp
Ġ$ $\
Ġqu ali
T ra
}) )
valu es
Ġsuff ices
ro t
f ull
cl uster
Ġal one
Ġcriter ion
ĠS ing
Ġcomp osed
Ġex ception
ag o
Ã Ń
{ [
ĠWh ite
P M
Ġeduc ation
Ġmod ules
Ġli ft
R eg
j pg
H T
tain s
Ġpla ces
Ġas pects
et te
Ġcoun tries
sec ond
Ġextra ct
Ġcover ing
ta il
Ġvilla ge
ĠS um
}. \
Ġpeak s
i ps
ĠB as
ĠM il
Ġcirc uit
$ (\
}= (
og en
cal c
re c
it on
Ġappear ance
lear ning
l r
ĠĠĠĠĠĠĠĠĠĠĠĠĠĠĠĠ ĠĠĠ
if ies
ĠV er
script style
ĠM id
Ġ tim
ĠE uclidean
n os
Ġt ax
Ġbound aries
Ġsum mary
Ġsepar ated
cc c
ren ew
ps ch
center line
ra t
Ġqu otient
h er
Ġindividual s
Ġfi re
Ġpres ents
ĠP l
form ance
Ġread ing
ĠS ol
l b
Ġcomplic ated
Ġbelong s
c lip
Ġcontra ct
g ray
Ġplay ing
Ġresi dual
) )$.
ma tics
ra ise
ev al
ple ctic
es ian
Ġex ceed
ru ctions
ve re
Ġoff ice
m I
). }
eder al
Ġexpon ent
ch er
es tiv
Ġfi ber
ĠB en
ĠAss ociation
ĠS oci
}_{ (
ad ed
an ced
Ġ ^{\
ĠMark ov
Ġar row
Ġcol lect
Ġle aves
Ġsub stit
Ġmin utes
Ġpul se
z y
ima ges
psch itz
Ġfram es
ite ms
Ġembed ded
es ides
Ġth ing
ines e
Ġclos ely
Ġintegral s
ĠM ost
Ġsta ck
ĠIndi an
Ġreg arding
so ft
ĠL u
ĠQ ue
Ġrepresen tative
g iven
Ġtherm odynam
li e
pher ic
i tation
Ġindu ces
\| _{\
Ġel imin
= =
ĠG od
D D
ĠR oman
Ġj ob
R ef
Ġindepend ently
sim ple
Ġreturn ed
Ġd rop
Y i
pa red
C L
Ġm ale
O f
ĠCour t
Ġpaper s
Ġc he
i tive
ay lor
empt y
Ġdri ving
Ġde formation
k K
Ġsecond ary
Ġconfir med
O e
Ġsc ores
R o
'' ,
Ġs atell
w ord
Ġintrodu ction
Ġbos on
Ġtr unc
P l
^- $
erm an
Ġbrief ly
k ov
el t
' =
}| ^
om ing
198 6
bur g
sub float
comple x
Ġread s
Ġr ich
de te
Ġ$- $
}) (
ex ist
Ġsa w
H M
ti tions
Ġcle an
p ot
Ġteam s
Ġ ĉ
P D
ed ic
ĠL orentz
Ġtes ted
ĠGe orge
Ġcom ments
S um
s ho
Ã ¼
Ġpi ec
197 0
sur face
ĠD ay
Ph ys
Ġformal ism
Ġcon jecture
ĠG re
res ult
re lation
Ġnumer ically
u fact
ĠP ort
ĠA rt
Ġch urch
S imilarly
Ġrequire ment
th an
Ġattack s
Ġphot o
Ġcorrespond ence
]{ .
Ġro ck
respec tively
ĠL and
Ġtra ffic
renew command
U R
) !
ĠS oc
Ġhim self
Ġexci tation
Ġright s
25 0
p es
Ġex cited
O p
\, .
Ġconven tional
ĠP an
ĠG old
Ġpartial ly
S ome
ine ment
i pped
u v
Ġcorre lated
ĠThe ir
^ +\
av en
ever theless
ed s
Ġspec ifically
Ġcondu ct
du e
Ġsh ap
ĠM C
ĠT ur
Ġco oling
Ġcam era
ch y
Ġhyper bolic
ĠJ ack
Ġrelax ation
J Q
o ta
Ġar ise
}( -
ĠGerm any
Ð °
' )\
Ġmechan isms
Ġse x
requ ency
Ġcriter ia
Ġcost s
Ġvis it
A nother
Ġm ilitary
Ġfinite ly
Ġno thing
ugh ter
Ġinc ident
el se
g al
}$ ).
}^{ (\
Ġspar se
Ġac cept
ĠAss um
Ġdist rict
Ġun stable
}} +
os pheric
}\ !
ĠUn ion
auto ref
D o
Ġdoes n
ol f
Ġchallen ge
Ġvi ol
Ġremo ve
Ġtri angle
ex perim
umer ical
Ġco verage
ill er
Ġdisc rimin
sh arp
fin al
re a
ĠBo ok
Ġgener ality
Ġover lap
Ġper cent
ma il
os c
D ec
ĠP r
T wo
Ġent ry
}} }$
fin ed
Ġcontrol led
S Y
Ġag o
A F
Ġen able
b lock
Ġcali bration
V ar
Ġf ir
Ġcirc ular
Ġsta ff
Ġide as
Ġ items
Ġchar ges
Ġin finity
pro te
as so
ari an
ĠM eV
Ġma sk
per s
ĠW ashington
ĠP ress
p ed
no ise
lesc ope
ĠF urther
Ġsc ene
Ġobserv ables
Ġcirc les
Ġconstra ined
or age
ten ess
ĠR el
12 5
Ġpotential s
Ġst op
ĠT ime
ig ens
Ġex cess
ĠRec all
ĠT w
}\ }$
Ġdes pite
da te
198 5
B F
ĠS y
Ġmulti pl
198 4
ĠIn c
ti bility
Ð µ
Ġrow s
Ġseg mentation
ili ary
~ {\
fact or
Ġt ro
Y ou
Ġaver aged
Ġorig inally
Ġpix els
@ {}
Ġste ady
ari o
Ġw atch
Ġhapp ens
ash ion
Ġdid n
Ġfav or
ĠE ven
art in
bo ard
g on
st on
S i
B R
Ġcos mic
Ġapp lies
Ġfin ds
Ġwhen ever
Ġsub t
Ġn et
Ġad mits
Ġt al
Ġpul s
Ġmove ment
Ġorgan ized
H ow
ĠC P
Ġhy brid
Pe ople
T V
rough t
ri an
us es
ĠB ur
ro y
te mperature
Ġrecogn ition
ima ge
Ġmes h
equ ival
ec tive
ra b
ur rent
Ġparamet ri
Ġro ots
ura ble
Ġdraw n
ĠC lass
ĠSoci ety
Ġlat ent
g ets
Ġm us
Ġre n
U S
w est
Ġto ward
v in
p mb
oid al
Ġpower ful
Ġdri ven
te en
Ġcommon ly
Ġinvestig ation
Ġfi le
re p
g l
LB J
ĠT ex
ub V
Ġbro ken
si bility
G s
an ted
Ġra ce
l ink
JQ Yi
Y kK
Ġdirect or
Ul I
MN mI
oi ubV
tf Gu
cQ LBJ
YkK oiubV
YkKoiubV tfGu
JQYi UlI
ĠD r
Ġra re
i tations
ĠB est
Ġco vered
u zz
Ġdescrib ing
Ġins tability
ĠC ase
super vised
T E
Ġli quid
YkKoiubVtfGu Oe
Ġh um
Ġ er
Ġillust rate
up ling
Ġinter ference
Ġsomew hat
Ġout per
Ġpow ers
ĠCar lo
Ġvanish ing
= {\
Ġre li
^{ [
Ġcondu cted
Ġp ull
Ġconven ient
ĠD a
Ġex pos
ĠB a
sim ilar
Ġg ate
Ġab elian
if feren
pec ted
ĠU p
ĠM usic
p ower
left rightarrow
om y
Ġto ld
Ġ\ :
Ġst ructural
ĠV ir
Ġshe ar
Ġinvari ance
Ġreal istic
O ther
Ġto t
ĠS er
ĠL ou
Ġdeath s
Ġg rant
r g
O D
Ġm or
Ġmed ical
Ġex c
Ġoff ers
le ctions
Ġ\, ,
\' {
)\ ,\
] _{
v ariant
: :
Ġatte mp
ĠRo ad
Ġextend s
Ġplat form
ĠE instein
ers hip
) }^
Ġgen us
Ġext reme
fra me
sol id
Ġext ent
u a
ho le
duc ation
Con t
Ġpol ice
ow ski
t x
te mpor
+ }
it t
Ġj ournal
ane ous
Ġh ope
ĠB ob
as i
Ġbal ance
N D
}} -
Ġconserv ation
) /\
ear s
( |
Ġseman tic
ud y
Ġsepar ately
h skip
Ġjo ined
ro id
Ġmag ne
big skip
Ġclos er
' (\
elect ron
Ġac tivities
ĠE m
R S
Ġbook s
ti te
G A
Ġsign ed
G P
ĠArm y
ĠM ac
Ġinf lation
z er
Ġrela tivistic
Ġneg ligible
Ġcyc les
Ġorder ing
ĠA b
og le
Ġprofession al
Ġsh o
Ġcho osing
Ġfit ted
ĠL apla
ĠM at
O ut
ove red
Ġmix ture
Ġw ish
Ġcop y
Ġprob e
Ġp ion
Ġchalleng ing
Ġmetall icity
Ġc en
Ġj ump
Ġdiff er
Ġderiv ation
Ġopen ed
co vered
Ġinterpre ted
Ã ¶
Ġ\ #
w ill
un k
T hat
Ġconsist ency
sh ort
rit ten
ĠN ot
Ġfig ures
Ġ ultra
em p
Ġca ref
Ġco homology
Ġma c
Ġcol d
Ġin j
Ġembed dings
H istory
ib ility
Ġa f
Ġpre vent
ĠCom pany
Ġdel iver
el ines
Ġre ward
ĠAc ade
Ġn ames
Ġpen al
Ġtor us
Ġsh arp
O ver
tiv eness
Ġinvol ve
Ġtren d
Ġad minist
}}\ \
t un
is y
Ġa ux
Ġdefin ite
o mas
Ġmo ther
Ġsymm etries
op en
The y
ĠRo yal
tit ude
stand ing
\ }}
im um
Ġask ed
Ġcol our
Ġbir th
Ġmarg inal
Ġelement ary
Ġrece ive
Ġanaly zed
): =\
Ġtigh t
Ġstud ent
Ġhe ter
ĠMich ael
k ip
ĠAustral ian
Ġh ous
Ġpur poses
10 1
Ġgrow ing
om ic
ĠT op
Ġmathema tical
con v
Ġhe art
Ġanom al
Ġef fort
$ =
Ġmod uli
ĠS al
ot or
sa tisf
lo od
for mula
un iform
Ġim plic
or bit
\ -
Ġsaf ety
ir l
ĠA nother
ĠC hi
ĠR ob
x rightarrow
b es
pol ar
Ġser ve
V M
Ġclos ure
te l
Ġiso lated
Ġ\ }$
et ro
um ps
h l
semb ly
ough t
l der
Ġas ser
au th
sec tions
Ġout come
col head
od d
ew ise
c ore
Ġsta y
Ġget ting
ĠS pace
Ġoutput s
ator ial
\!\! \!\!
pol y
ti le
Ġto ur
Ġe ast
ing ly
Ġhigh light
25 6
Ġg old
p y
E L
f lat
ĠA R
Ġdisc overed
Ġim plicit
ul ator
ou ple
198 3
M ar
Ġmatch es
Ġformula s
Ġferm ions
mer cial
uto ff
id er
Ġpro ves
Ġperspec tive
ev olution
ĠB al
Ġdeterm ines
ĠC as
Ġgeodes ic
Ġins er
bigg l
Ġres erv
Ġsample d
bigg r
Ġins tit
K L
ST M
ĠO p
ĠE uler
Ġfri ends
F il
Ġdot ted
a ver
Ġpriv acy
ĠT rump
Ġw est
Ġcross ing
po sitions
Ġacceler ation
Ġperiod s
Ġdri ve
Ġrecomm end
inte gra
s ome
Ġdiver gence
ll ig
z o
mis sible
p redic
g tr
correspon ding
ore l
th ree
angu ages
S ta
Ġinequ alities
Ġregular ization
ĠS upp
ĠDem oc
consist ent
deg ree
Ġepis ode
estiv al
S N
Ġel astic
Ġschool s
optim al
d al
Ġcomm and
) ),
ĠP at
C al
Ġindic ating
h or
Ġs n
$- -
Ġhol omorphic
b an
ĠJ acob
ĠV ic
f r
text style
, (
Ġfocus ed
}$ ;
Ġmo ves
u ed
s ym
od al
Ġtang ent
Ġprojec ts
e ks
Ġbo ard
Ex perim
cep ts
Ġz one
it ar
ĠCh inese
ĠS am
Ġexec ution
pro v
6 00
Ġobserv able
Ġpermu tation
Ġradi i
Ġord inary
' ,\
pla te
Ġpotential ly
Ġ )$
Ġdig ital
Ġnear by
ad o
Ġsingular ity
Ġend s
Ġvehic le
Ġexpres s
T rans
Ġclassi fier
arg ets
p d
Ġver sions
198 2
Ġra il
Ġcap ital
Ġrepla cing
u z
Ġlaw s
ĠC ho
}] $
ĠC ong
Ġimag inary
ta ges
Ġar ises
ĠD on
Ġpre sident
Ġb ud
Ġb atch
N T
w orld
ĠH en
Ġcombin ations
ĠB an
Ġ\\ [
ĠIs land
Ġmultiplic ation
fig s
Ġmanif olds
Ġtrans mit
Ġre tri
moment um
mb f
Ġoscil lations
Ġcirc um
di tive
Ġc ele
F A
Ġsp ir
Ġref lection
for ts
ĠM ary
er ry
Ġc ra
ĠAr ch
Ġdec ided
ĠD ue
Al so
},\ \
Ġb rought
ĠĠĠĠĠĠĠĠĠĠĠĠĠĠĠĠ Ġ
cy cle
ĠC ons
Ġprog ress
P O
}} +\
ĠC ath
ĠC he
make box
Ġf light
bib liography
ĠAfric a
ht bp
Ð ¸
cla im
G G
Ġconnec tions
j a
ĠM us
ific ations
ĠM r
Ġf an
Ġview ed
ful ly
rela x
u pper
re asing
c lear
Ġ$ -\
Ġran ges
as k
Ġenc oun
velop ment
Ġauto matically
Ġspe ech
Ġc red
spa ces
Ġsong s
Ġlong it
cell color
}$ $
Ġp ip
ĠSpec ifically
16 0
I ST
Ġenc oura
Le ft
_{ {
B s
Ġresour ce
E d
ver tex
Ġe igens
Ġj ets
s mooth
Ġstat us
c is
tic k
Ġpro mis
sing le
Ġgener ates
Ġthan ks
com mu
cer ning
ch en
Ġsur ve
Ġcomb ining
Ġorgan ization
Ġcol ors
}] \
ĠO lymp
ĠT or
Ġloop s
Ġper forms
Ġturn ed
for ce
Ġne ur
$& $
ĠN ext
fort un
Ġquark s
L iving
ĠM ad
r andom
Ġw ife
Ġlocal ization
en tion
Ġcon clusions
b ile
T op
Ġde ad
r ish
o cc
os es
ĠT ype
ĠC am
EE E
Ġchallen ges
Ġcol lapse
Ġfrac tional
en a
os ted
I ON
B i
Ġma ster
big oplus
ti a
Ġcen tered
Ġen hanced
Ġf ill
m et
Ġcryst al
com es
}{ $
) ~\
ĠSt and
B L
Ġth reat
ri a
}} ^{(
), (
Ġde m
ĠCl ub
^{ {\
12 3
ĠL at
Ġsent ence
Ġsupercon du
ĠM ex
] _
cur rent
w as
b ors
ear ning
ĠTh omas
Ġvalid ation
B E
ven tion
M on
ĠF ar
& +
Ġfeas ible
y es
I d
as ion
ĠF ri
ĠCent ral
K S
A g
ĠW al
Ġsuccessf ully
Ġsyn thetic
C s
gtr sim
* {-
s yn
Ġmo un
Ġo w
ĠS P
ĠIn stead
F S
ĠT own
s ess
Ġde fe
Ġmolec ules
Ġrapid ly
nu al
top rule
C ase
Ġupda ted
Ġfail ure
Ġtw ice
) <
st ro
Ġb ars
ĠS mith
ER T
Ġg ene
Ġun less
Ġleg al
Ġmar ried
Ġguarante e
Ġop tion
Ġpas sing
en berg
Ġreal ized
in st
Ġc avity
Com parison
Ġobserv ational
sour ce
Ġcoun ts
Ġprojec ted
ĠRo bert
an aly
t ensor
sh ell
Ġman ufact
G D
Ġdes cent
our ce
Ġpoli tic
or ig
Ġim m
Ex t
Ġcompu tations
Ġin iti
ĠRes ults
ess or
Ġcour t
dynam ic
Ġpure ly
ĠDiv ision
deg ener
Ġwork ers
V D
Ġdo ub
Ġan ni
Ġhom otopy
Ġmon itor
Ġima ging
Ġdetermin istic
eq q
Ġun ity
Ġrepor ts
ĠW ilson
Ġpref e
ĠGal actic
) {$
Ġcaus es
ĠN S
ub lish
ĠH am
R ev
] ^{\
Un der
Ġbenef it
Ġke pt
th in
M ax
pi re
[ {\
ell er
Ġdi ameter
lin ec
olic y
ĠS at
Ġqu bit
}) }\
Fig ures
19 60
+ |
se par
Ġra d
ra ys
he res
Ġrob ot
cont rol
ti fic
ra tive
Ġreveal ed
st ring
ĠF ore
Ġd y
ĠMa jor
] }\
ĠMe thod
re ct
th le
pe ak
Ġaux iliary
in ds
Ġt ag
B ecause
Ġintrodu cing
Ġref ers
dec om
irr or
Ġf ul
I L
Ġst orage
ĠF lor
ĠP ost
com pact
Ġproof s
ra tio
Ġconsider ation
Ġpolic ies
s he
ĠB ol
Ġstand s
al ing
E ach
b ers
produ ct
j oy
prote ct
Ġd uration
, .
Ġhom omorphism
ĠA cc
Ġcompe tition
ĠSt udi
m etric
de fault
Ġprogramm ing
b ecause
back ground
h old
Ġinter view
au x
Ġsp ot
C an
198 1
Ġequ als
Ġfri end
F urther
ĠTex as
Ġdise ase
_{ (\
ĠAfric an
differen t
Ġopen ing
). $$
v ia
Ġdata base
irc raft
Ġp red
ĠO pen
Ġplan ets
cl osed
l ar
Ġeconom ic
Ġpo inted
pan ish
e per
ugh t
Th m
E ar
c lo
ĠH el
Ġpop ulations
an alysis
~~~~ ~~~~
der iv
Ġexplan ation
Ġex cell
ant ly
Ġparticip ants
Ġvari ability
In deed
f ol
st ruction
Ġef forts
) ~
ĠD R
Ġdis app
Ġnon e
Ġhand le
Ġenc oder
ai led
Ġflux es
ĠP DF
Ġto uch
Ġsym plectic
ĠS O
u ma
ĠL ist
' re
Ġen velop
y an
s olution
ch or
Ġd s
Ġexam ine
ĠH o
Ġke V
coun ter
Ġout flow
compon ent
< /
197 9
man ifold
Ġhydro gen
f requency
}$ ),
ul omb
}{ $\
ĠAn g
xy matrix
Ġfle xi
ĠM is
ĠRe view
Ġt ends
Ġstudy ing
ĠPro f
Ġlimit ing
Ġconver ge
Ġentire ly
un ts
Ġpur ch
iti an
Ġfra g
Ġphenomen on
re size
Ġenviron ments
ho ok
ĠN a
V er
Ġtry ing
qu antum
Ġ erg
it ness
Ġcontrol s
sh ot
ĠS C
ĠE s
di am
Ġtrac ks
ĠL ib
8 00
c p
M an
Ġisot ropic
Ġm ul
A b
T M
g ral
ĠP ublic
Ġl ives
ĠSc ot
Ġne arest
alax y
Ġsta ges
ĠCon sequently
Ġt a
Ġ item
t ree
ĠY oung
al a
c over
ar se
var pi
Ġt argets
ĠP art
Ġb ins
Ġrel ig
Ġnucle i
Ġdual ity
ĠJ e
ĠJ ew
i ro
Ġdri ft
ograph ic
( $\
l brace
ĠC D
ch annel
C V
Ġcommu tative
ĠJ ose
au chy
de ep
Ġ id
G ra
Ġc ast
v ectors
do main
at en
Ġs ensor
l ined
Ġcre ation
ĠF ollowing
Con clusion
continu ous
il ing
us s
la st
Ġachie ves
Ġreturn s
Ġlo ad
Ġpla te
Ġst ore
Ġse p
F ollowing
Ġdepic ted
- {\
A ut
it tle
b uil
] \\
Ġadvers arial
Ġdi pole
ul o
ĠK ar
Ġrecor ds
cho ose
Ġregular ity
Ġreach es
ser ver
Ġh und
is o
Ġ\| _{
G a
ht b
resize box
g ls
Ġlarg ely
ven ue
al ian
Ġdep loy
Ġl anguages
tra ining
Ġd edic
indu ced
ĠPro v
Ġmagn et
Ġpre par
res olution
ulti mate
ĠKing dom
}} }{\
N C
ĠRus sian
spec ific
v c
* }\
er os
erm itian
Ġsh ot
Ġfin dings
t d
mod ules
us ted
ĠCan adian
iz able
ser ies
Ġchain s
q q
s n
au g
ĠT om
bibliography style
ang er
et ers
Ġclo uds
st one
Ġoper ating
set length
Ġg rand
Ġover la
)} ,\
]{. /
^* (\
s hip
Ġpro min
con j
Ġw ire
se q
ĠT aylor
+ $
Ġplan ning
de p
pa city
Ġsqu ares
b ran
Ġinteract ing
sin h
ĠChris tian
_ _
az ine
et t
Ġwe eks
ho st
und s
b rary
Ġle aving
us ive
ĠCom mission
con vex
bo th
re land
> $
Ġappear ing
}. $
re y
Ġw anted
os h
ĠC a
ĠOb serv
Ġprov en
Ġpi ece
Ġcommun ities
Ġ\, .
Ġco vers
Ġsummar ized
Ġcontinu ity
ĠNew ton
ĠK ore
ĠJapan ese
N E
U C
Ġtop ic
in cluding
}) ^{\
Ġme eting
pla ce
tra ined
Ġcapture d
In ter
Ġcon sec
Ġ ice
Ġpack age
ĠC H
ĠC E
Ġw oman
Ġsurround ing
): =
P ol
c ritical
Ex p
const ant
ĠH ill
ĠAg ain
T C
fortun ately
Ġsp orts
v v
ĠG reat
Ġconjug ate
| {\
Ġmis sion
Ġlet ter
Ġf usion
Ġfor mat
ment al
ĠA M
ne ut
Ġdegener ate
ĠW ay
Ġcult ure
ĠS pa
G eneral
p ation
Ġredu cing
Ġadj ust
Ġph on
il os
Ġeffici ently
ĠM useum
sh ape
Ġnumer ous
bottom rule
Ġlogarith mic
Ġs we
og ram
ĠM er
Ġcyc lic
ok ing
li ament
- $\
G AN
Ġstate ments
od ies
h s
B D
ĠIs ra
ad j
Ġradi ative
Ġrig id
ĠS NR
Ġprim arily
stand ard
) )=
ud inal
Ġb low
Ġmom enta
ĠE nergy
k ins
Ġ[ -
P L
Ġgo als
Ġtri al
Ġtrac king
G r
ĠD isc
Ġper haps
el le
' }(
Ġm m
Ġsingular ities
)} =\
Ġdete ctors
B O
}} )\
aus s
F M
cos ity
ta tively
ad ow
W h
F ix
an c
Ġalign ment
o inted
Ġsignific ance
p q
Ġse a
Ġre ly
Ġelectro magnetic
Ġcoinc ides
11 1
ĠServ ice
Ġlead er
c tivity
Ġda ughter
effici ent
Ġd amp
ĠBay esian
ĉ Ġ
vers ely
M in
Ġexten sions
R C
ce q
Ġexponential ly
NR AS
Sec ond
ĠE v
Ġfem ale
h ab
E l
Ġc ivil
Ġsp ins
ĠB r
S he
Ġcop ies
ste llar
Ġvol tage
Ġclaim ed
ĠS ystem
ĠM ass
Z Z
ĠOff ice
Ġpas sed
hom ogeneous
L U
Ġclassi fied
b x
our n
tain ing
Ġ{ }
ĠN N
fo und
ack now
ĠR am
oot ball
)$ }
ĠAcade my
^ *}
T L
ĠW estern
bo ut
ĉ čĊ
P rop
Ġapproxi mations
Ġneutrin os
aba tic
Ġlocal ized
Ġh op
Ġanalys es
Ġc utoff
ĠMin ister
l ind
^{ *}
Ġhapp en
Ġne ither
ĠR a
o ir
.\ ]
e eq
Ġbright ness
X X
b racket
ic ago
bound ary
po sitive
ide os
E ng
Ġlength s
re v
197 7
Ġactiv ation
Ġequ ipped
b ec
al and
Ġexten sive
el ding
Ġb is
Ġw rong
de x
}) ^{-
' -
coordin ate
Ġband width
ĠM el
}$ :
Ġsequ ential
lim it
Ġsoc i
Ġpo le
Ġanni hi
ig ration
Ġpos sess
Ġ\ )
Ġsta tions
No tice
A m
)$ $
q ed
ĠNo tice
Ġachi ev
ĠE ducation
Ġd ie
war z
Ġfin ish
p f
Ġcon cepts
Ġsyn chron
Ġconf lic
Ġan ten
Ġland s
Ġn ine
Ġf ashion
\\ \
pr int
colon eqq
and ra
Ġcom ment
e ach
Ġt alk
Ġk illed
ste in
il istic
ĠH a
ĠPro of
Ġde but
ad dle
ĠĠĠĠĠĠĠĠĠĠĠĠĠĠĠĠ ĠĠĠĠĠĠĠ
crib ed
Ġdis order
Ġcor ner
Ġ )\
Ġensure s
Ġinf er
}. $$
ĠC y
Ġsit uations
Ġsay ing
ĠWe b
ĠVir gin
ĠD u
Ġsp ent
197 8
bra ted
ĠCar ol
diag onal
Ġcl in
ĠGovern ment
Ġvari ational
vers al
Ġro ute
ĠH istory
Ġt ens
DB LP
ĠFran k
Ġcar bon
Ġevery thing
ymm etric
Ġb its
tot al
r brace
Ġasymm etry
Ġrest rict
ĠM ulti
ĠP eter
ĠĠĠĠĠĠ ĠĊ
B P
par tite
ĠH aw
Ġshift s
ĠRo ck
vel oc
rac tive
ever al
Ġmo bile
Ġapplic able
Ġw al
char acter
b eq
}\ )
Ġrel iable
ma xim
em an
m cite
at re
Ñ Ĥ
ph en
chang ed
th ese
Ġop tions
M ulti
+ +
ta s
Ġd et
Ġdisplay ed
d omin
or ted
ex act
cos h
Ġb rand
Ġarg ue
Ġseg ments
ĠI V
Ġkeep ing
Ġutil ity
Ġcut s
os a
Ġproper ly
es ter
10 5
Ġmod er
Ġsub graph
ĠB ig
}{ !
ĠB ill
Ġrequ est
Ġen ables
b ining
}} ^\
en tations
D i
in n
Ġext raction
pres sed
g ue
Ġany thing
Ġser ver
Ch ar
in ity
um ann
sequ ence
Ġcri tic
re ed
ĠĠĠĠĠĠĠĠĠĠĠĠĠĠĠĠ ĠĠ
u tation
}$ ~
ĠS eries
Ġvar ies
Ġ â
il inear
F P
Ġi i
Ġemp lo
{- }
ĠG W
ric tion
Ġpar ity
> ]
Ġhe avi
Ġb ubble
pe ed
Ġequival ently
Ġqu al
197 6
Ġnon trivial
ĠTechn ology
N on
Ġcorrect ly
var iable
Ġop in
Ġc amp
f la
Ġsupp ressed
Ġ labor
at o
E V
Ġas pect
sta tic
ig u
ĠL ife
H H
D en
ĠG ames
ĠS ha
Ġfa ces
fra g
Ġclaim s
{ |\
Ġs ort
Ġphenomen a
k k
Ġloss es
$ }\
ĠFlor ida
Ġla y
ĠChampions hip
p op
Ġenc oding
p ass
Ġperturb ative
'' .
Ġphot ometric
ult ure
r ically
ro g
g lobal
Ġc um
Ġch ec
Ð ½
pa ck
Ġapproxi mated
Ġasympto tically
Ġdeterm ination
Ġexcell ent
cate gory
Ġori ented
}) }{
Ġdevi ations
lat tice
D uring
Ġpart ners
thes es
Ġco oper
ĠO per
}= -
Ġp ortion
h n
ĠAd ditionally
Ġpa rent
ĠN evertheless
depend ence
R T
w ang
Ġcre ating
Ġform ally
n etwork
Ġla test
Ġsol d
}} _\
des cription
Ġli brary
ent y
ĠFig s
Ġb ank
ĠM any
\" {
sing ular
, }
ur istic
Ġneigh bors
Ġ ultimate
Ġobtain s
Ġcomple ment
corre lation
Ġassign ment
Ġo lder
B T
Ġlog ic
ra s
+ {\
Ġexpl ored
Ġre ti
ĠM L
b t
Ġp ump
ĠY ear
Ġtun nel
dynam ics
Ġman ip
Ġf ol
ĠIn t
Ġarti sts
S ol
Ġsec ret
Ġd ial
Ġpl ans
Ġth ous
Ġre plic
Ġcom mercial
M NRAS
Ġcub ic
r ust
ĠĠĠĠ ĠĊ
ĠFran cis
$ ^{\
' m
Ġdiscre pan
Ġdiv ision
onal d
scale box
Ġadap ted
cur ve
Ġrobust ness
ist ant
th rough
Ġb us
Ġopportun ity
r arily
in itial
fe red
Ġuniqu ely
f ies
h olds
ĠLi pschitz
algorithm ic
c v
T ime
le mentary
dist ance
Ġqu bits
) )$,
rib utions
M c
mit tee
ĠH op
ĠW il
Ġch ance
Ġd im
ĠL os
ĠRec ords
Ġe V
Ġhe ating
~~ ~
ho u
Ġsec onds
b en
Ġthick ness
Ġlook s
}} }}
D s
Ġminim ize
h el
ic ular
Ġabund ances
ĠIt alian
Ġmo vie
ĠJ er
}) :
ab olic
Ġfa ith
Ġ est
@{ }}
w er
Ġrema ined
raise box
De finition
Ġour s
it ory
Ġen joy
Ġvo cal
Ġsome one
tra ct
Ġsimpl ified
Ġmod ification
v o
go od
Ġwor st
ĠLou is
ot al
or a
ĠChar les
Ġpre ced
Ġeas ier
e mb
un ched
Ġgra dients
} ;\
Ġjo in
Ġfound ed
ra ms
ĠI ll
Ġgrow s
ĠL HC
Ġco ol
Ġupda tes
ĠPar is
com ment
ĠE lect
om er
Ġg lob
Ġbenef its
) _\
ĠG a
ul ing
S W
ĠL in
Ġfor ced
Ġdeterm ining
Ġreprodu ce
Ġf er
umn i
Ġacc um
ph y
Ġassoci ation
Ġla unch
Ġcompo site
Ġan n
Ġe mo
Ġcomp re
rin k
Ġg lass
Ġcomp ens
under brace
form er
Ġconnect ing
ĠH D
14 0
Ġwin ning
f our
Ġmode led
Ġamo unts
Ġcontinu es
P N
Ġch i
19 75
Ġele cted
Ġex clus
C a
cor r
Ġsurpr ising
Ġdiscover y
ron e
es ted
Ġs ch
| }{\
w ho
ĠT imes
Ġim possible
algebra s
ket ball
Ġmod ular
Ġpo se
Ġadap tive
Ġstr ings
Ġbuil dings
ĠT eV
Ġfil ters
Ġn an
Ġtw ist
ĠG rand
ho use
lim inary
ĠI reland
MS E
J ohn
Ġinvari ants
w an
Ġread y
D ist
e es
ir ich
D T
Ġglu on
K K
197 4
Ġfir m
_{ |
ĠIn formation
ig er
Ġcoun ting
ĠS F
Ġexpos ure
Ġgra ded
Ġlo ck
ature s
] }$
}\, ,
ĠB C
Ġbud get
or ial
ĠZe aland
no va
Ġfin ished
A c
im ent
Ġpa ges
Ġm ill
geq slant
dri ven
Ġsh ip
H ar
h d
Ġpar ton
u an
par ts
Ġsuppor ts
Ġguarante es
ig an
Ġar ising
ro s
sat z
Ġqu eries
m r
G aussian
ĠR ic
B as
L ong
Ġver ified
ĠEng ine
po st
Ġview s
ces sible
Ġ\ %
Ġcaus al
Ġfact s
ĠCo ulomb
Ġdiffic ulty
ov a
Ġhelp ful
ĠP R
Ġcomb ine
In te
ĠWe yl
). $
ĠS panish
Ġrenormal ization
= }
ĠSoc ial
Ġfac ili
f g
pend icular
ĠH istor
Ġanom aly
te m
1 12
Ġshap es
Ġconvolution al
Ġmechan ics
E X
ĠF R
13 0
Ġdedic ated
Ġins pired
or dered
err ing
Ġcomple tes
ĠE very
Ġhard ware
an cing
Ġar range
Ġmeas uring
rit ing
au ti
c u
Ġmechan ical
ĠH or
j et
197 3
ra tions
ak es
Ġreconst ructed
Ġro tational
Col or
Ġn ation
Ġquanti tative
irich let
el a
Ġflav or
o is
\ @
Ġatm osphere
Ġcomple tion
Ġg al
Ġf if
Ġscal ed
as tern
Ġgu itar
ĠOn ly
Ġsurve ys
Ġre ci
ĠOn ce
Ġfil led
I EEE
ĠP y
}$ \\
Ġobtain ing
en ced
ĠB usiness
Ġre ality
^* _{
E Q
Ġsatell ite
Ġform ing
Ġdis ks
Ġvor tex
L ist
Ġ$\ |\
Ġcoinc ide
com parison
Ġab stract
Ġbranch ing
Ġvis cosity
Ġexpand ed
H A
ĠF ace
cen tage
Ġc as
equ ilibrium
ĠS il
Con clusions
Ġsum mer
s d
Ġrecover y
Ġconsec utive
Ġcom pression
ut ter
Ġsimple st
z il
Ġt ension
M eV
Ġbec oming
Ġvari ant
sta tes
Ġregard ed
Ġpl ant
in to
ĠB ased
Ġconven tion
Ġpar ties
U p
Ġde fault
Ġvehic les
Ġredshift s
Ġst ories
Ġexhi bits
de mic
res sive
phot on
in for
Ġhistor ical
Ġar ticles
hook rightarrow
ar ma
process ing
Ġh uge
Ġobserv ing
Ġg un
class ical
ĠR ail
Ġbin ding
fix ed
vious ly
t rim
ron ic
Ġpair ing
ut ch
Ġsummar ize
Ġn a
Ġmultiplic ity
Ġv ision
Ġadj oint
in er
B efore
act or
ĠL ake
v dash
up si
e ties
Ġse vere
B ack
z on
ac he
Ġa cknowled
Ġno isy
Ġepoch s
Ġquanti zation
Ġtor sion
Ġhierarch y
ret ch
ĠB S
ĠG rant
Ġs pl
ad ic
^* ,
Ġcharacter ization
Ġre ver
Ġp sy
Ġa ircraft
auth or
Ġmagnit udes
Ġmer ger
Ġvo ice
ess el
ol ved
ĠR ay
Ġtransform ed
Ġp or
Ġpa rents
ĠY our
Ġoptim ized
Ġpartic ipa
Ġs ight
Ġmeas urable
\, $
s pan
Ġdif fe
Ġrel ies
g color
C NN
Ġ\\ \
197 2
upsi lon
ĠP enn
}}{ (
ĠPro gram
ĠUn iverse
Ġp le
Ġaccurate ly
ren ces
Ġpres entation
Ġhtt ps
is ons
or ough
ula tive
Ġal le
n or
),\ \
r n
Ġbos ons
i as
ch arge
] )
ist an
ra in
Ġdevelop ing
it o
Ġsubsequ ently
Ġ Î
u er
l st
ma k
Ġresol ved
}, $
itz er
N L
d dot
ĠC ur
Ġcall s
Ġro tating
Ġle ague
H O
Ġa u
Ġra ised
r ceil
Ġst ock
ĠOr der
por tation
ig roup
ro magnetic
c ian
' .
Ġdwar f
( (\
Ġm ur
d v
Ġinter polation
t ory
Ġad ditive
Ġenhance ment
Ġ ..
Ġsh ifted
Ġext inction
ĠCh icago
ord an
Ġ( )
Ġrelations hips
Ġoff set
Ġturbul ence
$\ %
lo v
ĠM S
Ġconsum ption
ĠV al
b is
}) ,\
frac tion
ti tive
ĠB ell
Ġarbit rarily
) )}
Ã ¨
n ear
ma y
Ġ iron
Ġmess ages
N P
ĠAn y
period ic
ĠÂ £
ble s
Ġv on
G al
ol s
ĠG ood
ple x
Ġexperiment ally
Ġv ideos
ĠGe org
ĠBo ard
Ġthermodynam ic
Ġconta min
G E
ĠN AS
Ġcon cerning
Ġd il
Ġreal ization
| }\
ro ad
on ym
gra vity
Ġprodu cing
Ġcapa ble
Ġac ade
ĠJ ournal
Ġ ions
Ġg iant
veloc ity
}^{ *
Ġnot ing
Ġconver s
Ġconto ur
ger y
ĠL ee
over rightarrow
Ġsum s
Ġpropos al
ĠL ong
Ġan tic
Ġarti st
Ġquar ter
Ġfactor ization
Ġin jective
ate st
Ġimpro ves
o ke
ĠIt aly
degener ate
} '$
l ceil
Ġsign s
Ġeffec tiveness
ĠB orel
Ġconcern s
n l
L ab
In d
Ġcharacter ize
S ing
Ġscienti fic
Ã ¤
Ġb id
air s
Ġtran si
Ġfrequ ently
tic ular
h aus
ĠM artin
Ġfi la
et o
R L
n as
ĠAn ge
$ ~\
um es
N O
Ġcol lege
Ġcomple teness
Ġs ket
ĠCent re
H y
la d
Ġv ote
le vant
ĠG ener
T A
b ell
Ġbro ther
h ow
dire ction
clud es
ilos oph
Ġco res
ver ti
op y
Ġalbum s
ce an
Ġr ings
ĠĠĠĠĠĠĠĠĠĠĠĠĠĠĠĠ ĠĠĠĠ
\% ,
Ġarri ve
Ġes cape
ĠCom mittee
Ġconc rete
)$ ;
ĠDef ine
Ġda ily
Ġ til
Ġro ll
ab i
Ġc row
ĠB et
s r
ĠVic tor
pa ren
Ġbo ost
ote l
\\ [
ĠUS A
@ {\
Ġplan ar
ne igh
Ġspir it
the ore
Ġ{ {
ak i
res sing
ĠGo ogle
'' $
}} -\
Ġb ond
Ġprov ing
Ġmass less
Ġse ed
Ġhel ps
lin der
f un
Ġim posed
)$ )
ĠG ar
19 50
B ased
ore n
z ens
M I
s un
Ġsimpl er
ĠS imilar
g ar
tain ment
ĠAr ts
Ġhom ology
Ġb order
Ġaccoun ts
Ġsc ope
Ġcertain ly
ter ms
Ġstra in
ĠAn alysis
Ġresearch ers
sc ope
flu x
Ġmotiv ated
Ġdissi pation
Ġsa fe
p in
Ġlongit udinal
G Hz
Ġf ailed
inte gral
Ġrestric tions
* {\
p ur
Ġapp ointed
Ġexci tations
G o
Ġtrig ger
assum ption
Ġcheck ed
Ġl ic
Ġp il
ĠV is
Ġpre m
ĠReg ion
R ep
Me thod
Ġre me
n p
Ġvio lation
av al
sh ow
ed ding
Ġout comes
ang led
Ġslow ly
Ġm ic
ĠDe velopment
ro om
w ords
IN G
f ast
ĠC S
Ġindepend ence
ĠP rin
co st
ĠC auchy
ĠSD SS
qu ality
Ġinc ome
p at
Ġimprove ments
Ġmes on
m ers
Ġtell s
Ġtot ally
Ġk pc
ĠAnge les
ĠD an
Ġpiec es
Ġweak er
M ain
the o
ous tic
Ġequ ally
g as
rip tions
Ġmicro scop
)} }\
is tered
Ġremain der
olog ically
hen sive
M ed
Ġintegra ble
ĠMe an
Ġs un
Ġco arse
t ty
). \
b ing
Ġinf erred
Ġaver aging
Ġequ ip
Ġsupp ly
Ġpreserv es
_{\ {
Ġneigh bour
dot ted
H I
Cor ollary
with out
h ad
Ġadvan ced
L ie
Ġgeom et
ĠSte p
Ġb gcolor
d or
|\ ,
oid s
no align
Ġshor ter
M y
ĠO ffic
Ġ }(
Ġconcern ed
ke V
b u
ru it
Ġpip eline
Ġspe aking
par ticles
Ġe th
m t
Ġst ored
ĠD ra
ĠAl ice
i y
ĠRich ard
ten sion
Ġbar rier
Ġdetermin ant
Ġsm art
p rim
ĠD C
F W
Com p
Ġexpl oration
Ġrew rite
th us
ĠPe ople
Ġdiag nos
Ñ Ģ
Ġserv es
ĠM as
ex pected
Ġwor se
Ġinver tible
Ġcontroll er
Ġm irror
}\, .
ĠP ic
Ġproced ures
ĠC ross
% )
am ber
Ġam pl
Ġbegin s
su c
ta ck
. ][]{
ssi fication
r f
az z
Ġre covered
Ġvalid ity
ĠM R
ĠJose ph
Ġsh aring
Ġla unched
Ġpromin ent
Ġcur rents
Ġresi du
im ple
Ġbeli ef
ĠS u
fi elds
Ñ ģ
w ater
pa per
uth or
Ġanisot ropy
Ġb lood
Ġbranch es
Ġwrit er
Ġis land
Ġbeli eved
pa re
Ġdispla cement
arc sec
av ig
vari ate
m d
Ġof fered
}- -\
Ġpati ent
Ġfam ous
M D
ĠW omen
ĠDire ctor
Ġso le
Ġsqu ared
}$ &
19 68
Ġrequ iring
Ġprim itive
Ġdivis or
Ġle pton
Ġg a
Ġad missible
Ġremo ving
urb an
Ġfa ils
Ġad mit
Ġin nov
Ġa di
Ġfi les
) )^
] ;
ĠL ine
el astic
Ġpropor tion
Ġdec ades
Ġg amma
Ġint ended
M at
H L
Ġaccep ted
Ġquali tative
Ġs le
ĠStand ard
ari ties
Ġthere by
Ġarg ued
ern els
Ġengine ering
ĠS R
Ġapp endix
Ġcorre cted
Ste p
ti fy
Ġto urn
Ġenvironment al
ĠJ ones
Ġs end
Ġidenti ties
ta tor
et ri
as hi
ĠRiemann ian
Ġre verse
Ġbund les
T ho
Ġbox es
Ġconstit u
B a
Ġdec isions
Ġpair wise
A cknowledge
lic ation
ouple d
g i
r k
197 1
ĠA I
lab ility
F s
] _{\
Ġth read
c n
E u
Ġcalc ulating
Ġan nual
ĠS ect
Ġoscil lation
ĠAd S
ĠG en
., ][]{
! }
w orth
Ġper pendicular
Ġoper ated
ta ur
ĠP M
ult ural
ĠCong ress
Ġarchitect ures
im plies
E W
g t
Ġde le
Ġlink ed
Ġreve als
ĠFor ce
ĠB ank
and a
f ollowing
ĠVirgin ia
ting s
l vert
Ġrect angle
spect rum
ĠH on
ĠS und
Ġillust rates
ish er
Ġbary on
Ġpar ad
Ġaut omorphism
K e
Ġdimension less
ili pp
Ġ& -
R a
ĠG PU
Ġgu ess
Ġco herence
Ġsc an
Ġevery one
Ġsus cep
ĠS FR
Ġacqu ired
Ġthere in
5 12
| $.
ĠF ootball
ur t
ĠCath olic
Ġassum es
iv ely
B ound
ang ular
Ġprojec tions
radi us
Ġb are
n ext
Ġsk ew
es tima
ine q
Ġb ridge
19 69
Ġmod ulation
Ġfeature d
Ġinst al
ĠRef s
Ġenvelop e
H o
Ġc od
' ve
ĠC learly
Ġinter sect
Ġintegra ting
ĠA v
Ġact or
ĠM em
, $$
H igh
Ġneg lect
Ġreview s
Ġconfir m
ij k
Ġins ight
l ife
Ġb u
Ġgu ide
idel ity
O L
St ar
bur st
is sion
ura ted
Ġre min
Ġn m
pro j
we ighted
ĠL ove
om o
_+ $
ĠPro ject
V i
Ġdest roy
Ġbra in
Ġch ampions
con sider
Ġmod elling
ta ke
e igen
reg ion
ĠM ur
Ġo il
Ġsc at
val id
gra d
27 0
Ġinfra red
ent ropy
Ġintrodu ces
y i
ta ct
Ġsimpl ify
Ġw itness
ĠY ang
ins on
ĠPlan ck
di um
Ġpa int
Ġs in
)- (
ĠRus sia
Ġcon g
v ance
Ġextend ing
rac le
ĠDe ep
ri age
Ġl ists
Ġal location
Ġconsequ ences
ĠK a
Ġra y
Ġtri ed
ĠFil m
ĠAssum ption
la y
Ġidenti fying
ti er
S uch
}= -\
dec ay
Ġnucle us
Ġlife time
ref e
Ġexpand ing
ci ent
M ark
av a
Ġlim itations
Ġaim s
Ġhelp ed
Ġec centric
llig ence
Ġm unic
}{ -
sq cup
Ġe mit
ia ted
Ġvari ants
Ġfore st
la tes
.\ ,\
ĠW ood
Ġhtt p
. ;
C I
ifferen t
ĠJ un
g est
ĠM ach
Ġh ospital
g ap
Ġsupport ing
{ }\
Ġw ood
B el
d on
T ype
k h
sc atter
app endix
[ ]{
ĠF und
Ġsoci ety
Ġra w
B N
Ġa part
Ġcan cer
)\ |_{
}: \
R ad
Ġd ip
Ġrece iver
Ġk ernels
Ġco variant
ĠI mage
Ġpres erve
)\ ;
r vert
Ġev ident
ob ject
Ġper centage
Ġmut ual
Ġw alls
ĠS L
Ġmorph isms
Def ine
p to
Ġwh om
ĠMex ico
ĠN on
Ġconven ience
fic ial
V ol
Ġle af
$ ^\
b os
D ue
ĠT em
ĠSw ed
R emark
Ġattemp ts
ĠT a
Ġb ath
S a
per ture
Ġpromis ing
ad joint
Equ ation
la g
Ġcontinuous ly
Ġqu en
Ġres cal
pr ing
Ġformula ted
our ces
! !
ĠL earning
ob tained
Ġt rib
ĠP A
od ay
Ġanomal ous
ĠF estival
eff ective
h r
Ġe ye
P G
^+ _
}\ |_{
Ġdec oder
mo ve
ĠCM B
Ġp p
}) }{\
Ġd iversity
Ġaudi o
con c
, +
Ġm al
Ġno tations
ĠSum mer
Ġadv ance
Ġadd ressed
ĠP res
Ġex cluded
ri e
ĠR un
Ġnew ly
tabular newline
ĠLo cal
ri z
Ġgeneral ize
B I
^* $.
the y
ti zed
ĠP ra
Ġcol lective
ah ler
rr or
s ystems
l anguage
Disc ussion
vel oper
Ġphot ometry
d ouble
Ġcom pi
Ġtriang les
ffici ent
xy gen
ir ls
Ġinver sion
ba tim
od ge
Ġdemonstra tes
al la
00 5
Ġtun ing
Ġfrac tions
Ġdoc uments
la ps
O O
Ġsubgroup s
d p
b ol
S to
D is
it an
}: =\
Ġamb igu
n ight
^+ (
' }{
Ġprobab ilistic
ĠD ar
od ic
Ġpref erred
Ġfund ing
Ġs ti
S H
ĠS k
Q CD
am i
repres entation
Ġal pha
Ġf elt
it ors
Ġcollabor ation
Ġh our
nu cle
Ġread ily
lik ely
til ity
13 5
T P
ĠMid dle
ĠHen ry
Ġadap tation
s ma
Ġconserv ed
Ġcent ers
s ig
h ist
Ġfac ilities
Ġen for
Ġaward ed
R A
Ġconsi ders
inc ar
all en
{- .
ad er
Ġtem plate
ab y
Ġb illion
V I
ĠC os
ĠJ ust
Ġim pose
ar m
ĠP ower
)} ]
Ġs al
---- ----
11 5
Ġb ases
pl ied
ĠV an
Ġp itch
ĠSec ret
3 60
ex pon
ĠC PU
Ġestima ting
D L
Ġb la
Ġtw isted
2 10
F I
ĠF red
Ġfew er
Ġpar abolic
\ `
}\ |\
ĠThe ore
ĠP ac
F in
Ġti dal
pos ing
ĠJ im
ard ed
Ġlet ters
Ġmon omial
19 67
Ġd ots
Ġcustom ers
ric ket
Ġcli ent
ĠB ern
Ġman ager
is ters
Ġexp ensive
)}\ \
Ġis n
fit ting
me tic
A cc
}} %
P lan
B oth
erc ise
ĠN am
Ġast ro
Ġro ut
Ġref lected
Ġch ose
Ġre actions
ak a
Ġpers ist
Ġoutper forms
Ġminim izing
A U
ĠC lo
M or
Ġob server
le in
Ġconsider ations
Ġset t
Ġreach ing
K M
u u
scal ar
Ġend ed
f m
Ġ$ ^
Ġattrib utes
Ġpar titions
Ġarm s
S w
us band
Ġover view
rela tivistic
> >
ĠT im
Ġiter ative
Ġrecor ding
Ġc ities
Ġchi ef
Ġhe uristic
Ġspect roscopic
Ġbin aries
n atural
approxi mation
Ġreg imes
hal f
Ġser ious
Ġme re
ard en
Ġion ization
. \,
par ing
proper ties
Ġreason ing
d g
Ġsp iral
ĠRad io
Ġconver sion
Ġenc oded
Ġs outhern
m arg
ul ner
F G
atri x
Ġreson ances
v est
ĠH ome
Ġmin i
ĠT ri
tra tion
Ġfore ign
Ġpropag ator
Ġpan demic
Ġmo tions
^* $,
ic ine
}} |
s ame
Ġt uple
on to
ĠS E
co upling
ĠB lue
ĠDes ign
ĠM icro
Ġexper ien
Ġk inds
Ġinstrum ent
N i
ĠA P
ĠC at
ri ers
ps frag
ĠMan agement
ĠSci ences
i ers
ra p
G en
S cript
Ġag rees
Ġmus ical
Ġen tity
ĠTw itter
Ġconver ted
Ġaff ects
al go
Ġf ans
ĠK o
ps on
k ar
sta ge
pl ots
Ġus age
ĠI N
ĠD ev
B r
Ġnor thern
ĠT our
Ġdiver se
Ġs tim
Ġin gre
" )
Ġear th
Ġpolar ized
ĠMed ia
' +
pl er
ĠCom p
Ġmod ulo
the red
Ġin er
Ġobvious ly
ig ital
ran ce
ĠTe am
Ġalign ed
tz mann
ian o
Ð¾ Ð
R G
Ġma s
^* )
im port
M ost
ran ts
Ġpo les
ĠJohn son
19 64
ĠDes pite
ĠB ack
rup t
ĠF ield
ĠIsra el
Ġn omin
Ġre ar
Ġhand s
ĠL ord
Ġs up
Ġtransfer red
ad ap
ple t
App endix
ĠF re
Ġdamp ing
bas is
Ġdiff ers
le ading
Ġuniqu eness
ĠCom mon
Ġlens ing
Ġsens ors
ĠServ ices
ĠP S
tra ce
Ġif f
Ġperform ances
ĠT est
the ast
h h
ra tional
Ġv acc
R ed
flu id
Ġconstra in
B er
ĠD irichlet
linec ite
$ _\
ĠE con
Ġed ition
Ġwon der
ther mal
}^ -
o tic
all ery
p us
Ġpar k
$ ]
al f
Ġinfinite ly
Ġf ederal
Ġevalu ating
Ġconserv ative
Ġmagne tization
d oc
st art
Ġsec ure
et ary
ĠSh ow
) ]{
c are
Ġwar m
Ġcom mission
ĠG Hz
ĠF ix
ĠJ ul
ĠR ev
d l
r l
Ġsim ulate
Ġcondu ctivity
Ġatta ched
diag ram
ĠB ir
triang leq
= $
ĠA rab
Ġpenal ty
des ign
ĠP op
ici ties
math rel
ĠV alley
Ġtr ust
yn man
Ġb odies
r b
Ġprior i
Ġg ates
f amily
10 2
Ġcompan ion
Ġimplic ations
Ġfermion ic
Ġac cessible
Ġaccom pan
ĠR ight
Ġphys ically
Ġv ice
ĠP C
ĠF ree
g rid
Ġarrow s
ĠH uman
Ġgreat ly
Ġspatial ly
Ġanaly tically
2 20
})+ (\
Ġhe ar
im od
Ġpa id
Ġada pt
Ġt ack
Sum mary
}} }(
Ġset tle
. }.
Ġun like
Ġcli mate
Ġal umni
Ġm otor
Ġn ice
E G
conn ection
Ġgra te
il er
ĠB re
ĠĠĠĠĠĠĠĠ Ċ
m ond
Ġmethod ology
qu anti
{ #
> ,
Ġleg is
Ġj unction
Ġdiscrepan cy
ĠĠĠĠĠĠĠĠĠĠĠĠĠĠĠĠ ĠĠĠĠĠ
ĠN i
Ġorgan izations
{ -\
z im
F orm
Ġran ging
Ġs ales
Ġhierarch ical
ĠA wards
' _{\
Ġcor ollary
ĠS ky
Ġsuc ceed
se en
Ġconto urs
Ġanisot ropic
ĠTh ree
Ġres istance
ole an
p x
Ġcor por
Ġvari eties
] ,\
f erm
Ġda mage
^ -\
ĠG ib
B ra
exp and
= #
Ġatm ospheric
Ġan satz
Ġrespon ses
Ġdifferenti able
Ġst rip
ock ey
ĠS ar
n ik
ĠFace book
ver sion
ĠSur vey
Ġbelong ing
Ġneg lected
Ġturbul ent
Ġa cknowledge
Ġopp osed
aw are
Ġcorre l
L ag
Ġfluct uation
vi et
at on
Ġb attle
19 65
]{ $
on linecite
ĉ ĠĠĠ
Ġteach er
ĠSpec ial
k pc
Ġins p
Ġd r
Ġcon ference
Ġw ild
ref n
hi o
Ġmod ify
t rac
Ġresul ted
j e
ĠS ho
og ue
im als
ĠK en
Ġc iti
par se
Ġconc aten
B G
fi ers
d m
ch a
ĠI D
el la
}{ .
Phys Rev
ĠCarol ina
Ġreson ant
Ġpreserv ing
' ll
v able
Ġte lescope
Ġdesign s
roscop y
Ġph one
3 50
I J
Ġcont rary
Ġpack et
}\ {
Ġme mb
Ġannihi lation
par a
compa re
van ishing
Ġclo ck
A cknowled
yl van
ad i
tic ity
. }}
ĠChi ef
Ġp in
other wise
fil led
Ġbound ing
Ġ\ ,\,
P ri
w p
Ġoccur red
Ġwavelength s
Ġdec la
or ous
Ġfair ly
\% .
ic ial
qu ar
ĠM ont
ĠN Y
act ing
Ġsum mation
ĠN P
Ad S
ĠCh ild
C la
Ġo xygen
Ġlead ers
g auge
Ġclass ic
Ġc oding
mat ch
Ġj obs
Ġ ens
ĠH ubble
ĠL im
C ho
Ġpreserv ed
s ity
W ang
de v
Ġnucle on
Ġpredic ts
pres erv
scal ing
Ġn om
b n
te sian
le ton
Ġover come
10 4
Ġin jection
Ġkine matic
Ġsuggest ing
T F
Ġconstruct ing
gg ed
Ġtheore ms
ĠL O
ach ing
Ġfam ili
Ġ era
sem i
Ġemphas ize
re r
Ear ly
f ollow
ĠE nd
conver gence
M ay
sh ap
ĠFigure s
tempor ary
ĠP en
g p
s ys
Ġc us
Ġran king
Ġsub jects
vol ume
spect ral
Ġdef ect
ĠLib rary
ĠO ld
Ġro les
Ġoscill ator
Ġfif th
Ġpro tein
}$ };
Ġvalu able
Ġcar s
Ġcounter part
Ġd rug
7 00
Ġf alls
ĠAt lan
Ġ= &
L in
ĠA L
Ġmat ched
Ġb ill
Ã³ n
exist ence
ĠS us
iz ers
I refn
ma ges
on ically
ĠD E
Ġ },
Ġcomp ris
A O
b est
ĠL og
Ġp rices
ĠRe pres
en um
tikz cd
19 66
ĠBra zil
Ġmonitor ing
) }}{
L em
| ,
C lass
D G
Ġsen ior
ĠBan ach
Ġsp ont
Ġk ing
Ġtop ics
Ġtable s
ĠP rodu
Ġcompre hensive
B en
Ġpre pared
ti e
Ġnon negative
at ers
10 8
} ''
)$ :
ĠC re
Ġconsider able
ĠCol umb
Ġoccup ied
z hang
B ri
se arch
Ġ ur
Ġma pped
ĠC amp
a verage
ĠB ow
Ġexpon ents
G W
Ġpatch es
Ġmarg in
ira ble
Ġlat tices
Ġpart ner
is enberg
vi ally
Ġhadron ic
check mark
Ġtrans forms
Ġse es
}) +\
Ġarti ficial
men tations
on av
Ġcont raction
ell i
Ġsyn thesis
or al
)} +
Ġexpla ins
lim in
ĠA ma
ord on
ĠA D
Ġindu ce
ph one
Ġsc ored
Ġz eros
Ġpr ison
ur i
es timate
Ġflo or
V s
ag ree
Ġover head
k g
Ġri ver
Ġsuper nova
put ing
) }^{
math ord
Ġconsist ently
Ġpossi bilities
ty p
Ġpass es
ĠM et
]{ @{}
Ġst ru
Ġterm inal
[ ]
Ġsing er
Ġequip ment
ĠJo e
am big
por ted
Ġhal os
Ġ rid
Ġw ants
Ġmod ulus
Ġ$( {\
tis m
;\;\ ;\;\
Ġspec ify
ĠNor thern
for ma
ter ior
ru ctive
valu ation
)^{ -\
le ment
ind ic
big cap
Ġbran e
R F
T or
co v
phys ics
Ġsur jective
Ġsent ences
ĠCon n
pre ceq
Ġprote ction
}=\ {
Bo ok
f unc
ĠR em
Ġsubstantial ly
par am
E ven
u ated
Ġno tic
Ġwrit ers
ĠSe a
Ġadi abatic
Ġdec ide
z i
Ġno tes
Ġimpro ving
ic an
Ġminim ization
G raph
Ġtren ds
ylvan ia
ĠP olicy
w all
in ality
Ġco ast
ĠOlymp ics
har monic
Ġsee k
observ ed
Ġsem igroup
Ġconsequ ently
Ġed itor
sche me
Ġh usband
Ġman us
ĠU l
Ġbos onic
Ġfac ility
}} ;
Ġattrib uted
ta sk
p rin
le ts
Ġdiv ide
Ġob sta
us tice
ĠT ru
ogene ity
ry st
rg b
Ġclos est
Ġattrib ute
ĠSa int
Ġl ived
Ġman aged
p lying
ĠM en
Ġcli ents
W W
cas ting
ĠC A
ĉĉ ĉĉĉ
ĠG ro
Ġdri ver
Ġremark able
qu ote
Ġpre liminary
&& &&
the ir
Ġpoint ing
ourn als
z es
Ġsuper vised
ris is
ord ers
ver batim
ĠG ame
Ġswitch ing
Ġany one
t arget
Ġevery where
M ag
Ġsepar able
ost on
or ate
pi x
ol ars
ĉĉ ĉĊ
ula tes
pm od
g ency
ell s
Ġcoun ty
Ġsupp ression
onom y
perturb ative
s ampling
Ġdegener acy
ĠB on
ĠN C
ge red
J y
par tition
Ġregard less
S B
ĠNe umann
\ ).
Ġc rim
ĠV o
ĠAn n
Ġasymm etric
auti ful
ĠC L
ro tate
Pro b
Ġopin ion
Ġgal actic
in formation
ab out
ab e
ĠĠĠĠĠĠĠĠĠĠĠĠĠĠĠĠ ĠĠĠĠĠĠĠĠ
Ġcomplex es
p as
y o
Ġt err
th on
sta tis
ĠWith out
Ġsupercondu cting
w art
SS M
D av
| <
Ġtourn ament
prob ability
pro pag
b one
u its
)\, ,
Ġenti ties
ĠPro blem
h es
ches ter
ĠS ED
ĠB lo
b rane
ol is
Ġ$ %
ĠCh ern
Ġestima tors
00 2
b ury
ĠI rish
ou g
Ġevolution ary
ĠB la
im eter
dep th
ed ia
Ġchar t
b und
Ġdec oding
Ġn il
onav irus
Ġpro xim
ĠM u
to gether
n it
ĠL ast
Ġun able
V V
un ov
Ġoffic er
Ġgraph ene
Ġshe af
ĠSpa in
Ġabsolute ly
Ġg irl
ĠM oun
Ġarri val
Ġexplo it
os er
Ġpre tty
ĠM A
$ /
ĠC are
Ġeconom y
Ġsimplic ial
i ences
Ġatt ractive
ĠB uil
^{- (
ĠLi ber
l c
,\,\ ,\,\
Ġc f
bib item
Ġdistingu ished
Ġs ake
c ence
ign er
Ġdis p
l Vert
Ġc lip
small matrix
ĠCommun ity
rm s
ĠĠĠĠĠĠĠĠĠĠĠĠĠĠĠĠ ĠĠĠĠĠĠ
elect ric
lic k
M O
' ^
Ġcy lind
ĠAm ong
Ġv ot
ĠSch r
Ġs ends
is er
Ġra ys
Ġa perture
Ġneur ons
Ġ& =\
lo ok
Ġ( "
ĠWilliam s
Ġp ron
), $
ĠA C
ĠA re
ĠL ight
ĠW ater
ov ing
vi an
Ġdec o
con e
ĠC amb
Ġdispla ys
Ġpublic ation
ak er
Ġconsider ably
24 0
F i
Ġguarante ed
] =\
Ġincreasing ly
Ġpro tot
ĠDen ote
ention ed
\ ;\
âĢĿ .
E F
_{ *
,\ ;
ĠG reek
rom e
Eng lish
Ġ( .
ot stra
Ġpredic tive
Ġbreak s
v y
Ġquanti fy
= [
Ġcl ar
Ġtimes cale
Ġremo te
Ġun iversity
Ġim per
Ġadvan tages
ĠW ind
bo lev
ĠA sia
Ġultimate ly
( |\
Ass um
Ġhypo theses
on ormal
W ill
hem istry
Acknowledge ments
Ġdist urb
Ġclin ical
Ġprinciple s
im pro
Ġte tra
' d
arg ed
Ġanalog ue
Ġdeal ing
ĠD un
uk awa
Ġdev oted
Ġb atter
Ġvari ed
var sigma
Ġcombin atorial
Ġa head
k ens
Ġpa in
Ġfla g
Ġd og
ur ies
ĠRe al
ount ry
Ġn ative
ĠPar liament
at z
}^{ [
j j
Ġ{ (
Ġele v
sch ild
ĠSc ott
at uring
Ġp ed
ĠE M
Ġy ellow
W B
Ġp lease
commu tative
ĠEx perim
t rack
Lo cal
}) \\
if olds
Ġb uff
Ġe yes
Ġsupp osed
S upp
Ġintegra te
res on
=\ !
ĠAd am
f ac
Ġdist ortion
Ġheavi ly
T eV
ur day
Ġaccom pl
Ġperfect ly
10 7
tra cting
Ġc asc
ans as
p b
om eter
Ġplan es
}}( {\
10 3
)+ (
e a
Ġde veloper
Ġac oustic
ĠCon ference
Ġepis odes
Ġsee ing
f ri
Ġreflect s
re ds
Ġv ulner
ĠF C
Ġto ler
Ġpro m
ĠC T
ĠD own
ĠM P
ep ing
Ġch apter
tra in
Ġrepla cement
ĠS outhern
)}{ (
\ ),
Ġhe ard
Rel ated
ĠSt an
c b
Ġmotiv ation
H F
al o
Ġinfra structure
)= -
Ġequ iv
ual ity
Ġrecogn ized
pe ople
Ġbas ketball
Ġutil ize
ĠEn ter
Ġfootball ers
Ġindic ator
Ġasser tion
)} +\
p ul
ĠT er
Ġprepar ation
Ġpar a
ev ent
Ġpl anned
Ġcy linder
Ġassoci ate
On ce
Ġc ensus
Ġle ak
equival ent
Ġoptim ize
u led
Ġsearch es
Ġmor ning
v p
col l
loc ated
zim uth
Ġ ly
us er
ĠLab or
ani el
}}{ {\
\ >
Ġmod ifications
Ġmoder ate
rest ingly
ĠN avy
L D
Ġmi tig
Ġf illing
Ġcomple mentary
up s
Ġch air
Ġapproxi ma
Ġoper ate
Ġcult ural
Ġg l
N a
X Y
n ecess
u in
}^{ -\
s ylvania
Ġto ken
Ġserv ing
Ġstudi o
Ġconflic t
Ġmicroscop ic
ever y
ĠI C
itect ure
Ġsuper ior
orem entioned
Ġen tered
ĠB R
Ġresid ents
Ġinterpre t
st ances
Ġfilter ing
Ġpar agraph
ĠM iss
ĠSund ay
J o
ĠS ong
ol or
ij ection
lim sup
Ġse at
Ġs ave
Ġgap s
Ġfamili ar
Ġwe ather
ver gence
}{ (\
ici ally
Ġcompa c
v or
Ġprote ct
Ġa de
Ġin coming
ĠM ain
ran ch
k ernel
ces sion
CD M
.... ....
sk a
ĠCor por
ĠBrown ian
ĠR L
Ġsat uration
nam ed
as ympto
ev alu
ut s
ĠC C
ll ll
Ġcompar isons
Ġtriang ular
Ġmonot onic
E ff
ĠL ittle
S ym
19 40
}} [
ĠN ov
ar di
os is
ĠJ es
Ġsub spaces
19 63
hi b
ĠJ eff
Ġown ed
chi ve
u ing
vi ation
differen tial
Ġst reet
10 6
ach es
ĠIntern et
ĠF ort
H R
Ġexper t
S imilar
Ġhum ans
ĠPh il
al p
Ġg ray
}) ]
Ġs la
Ġissu ed
on ed
c re
rib uted
)= -\
te ction
IF AR
Ġocc asion
Ġrela te
or row
Ġs addle
g ic
ĠS W
ay a
is ition
Ġo mit
Ġaxi al
con ditions
gra de
cent ral
Ġneighbor ing
Ġkn ot
D I
Ġb an
igh th
Ġfor cing
Ġcompe titive
}: =
c les
Ä ģ
sim al
Ġmonot one
}} /
w ind
Ġpref er
ĠI S
ĠL ater
iz ab
ink owski
ĠLapla cian
ĠO F
}) ;
M any
ex pansion
Ġmu on
Ġm el
Ġexam ined
rup tion
ur c
ĠT ro
out put
Ġd op
ul ties
Ġatt end
Ġar ith
al most
ĠJ ordan
ĠW ales
s is
Ġdis continu
Ġvic tim
Ġdro pped
os si
bre ve
Me an
Ġin direct
_* $
c C
i et
O I
)\, .
Ġpolitic ian
def ine
Ġf ish
qu bit
bra tions
\ #
17 0
+ }$
Ġmultiplic ative
Ġa ges
Ġreconst ruct
m kern
Ġparamet ric
ici ous
Ġeigens tates
rop ical
ĠB efore
19 62
ĠH ard
ĠAlex ander
ĠG lobal
C learly
i tage
Ġexhi b
ĠF orm
igh test
sh own
D on
G reen
? âĢĿ
ĠW in
\% )
rack ets
Ġf resh
ch est
ĠO x
Ġaf orementioned
Ġglob ally
. ]
s eg
vi o
| ^{\
P op
Ġbehavi ors
Ġste ep
}( (
do or
Ġquad ra
F our
ĠF a
ĠR F
Ġdi am
Ġor b
L ine
ai lability
Ġsk ills
=\ ,
Ġwidth s
Ġnew spa
v ate
Ġ\ ;\;
Ġscen es
pres ent
Ġe mail
Ġbal anced
Ġden omin
-\ !
sp here
No tes
cm id
O V
ĠM ari
Ġmolec ule
s el
Ġde partment
ĠBri tain
Ġcaref ully
Ġtens ors
ti st
Ġd rum
Ġmeaning ful
ĠS ign
Ġ }_{
Ġb ott
onom ous
cmid rule
l ot
ĠB at
Ġcre w
math ring
}= {\
}$. }
Ġmed al
Ġ$( -
Ġmon op
Ġn avig
ĠMin istry
constra ined
n one
d V
ĠT HE
ĠS and
Ġgra ins
Ġa zimuth
} <\
ĠA U
Ġpul ses
Ġcomputation ally
ĠP as
W ork
ĠS qu
o sities
Ġtechn ologies
Com bining
Ġme ant
bi ased
O U
Ã §
Ġpo si
ĠT ele
Ġno table
Ġaccom mod
ĠPh ilipp
ino is
Ġprotocol s
li ers
inter action
ĠS pect
bur gh
Ġb if
i math
ran ged
Ġreme mber
f p
Ġs ession
or gan
Ġb uy
L u
ht ml
Ġse asons
Ġtrac es
Ġexten sively
Ġb ag
im g
Ġatt ended
)}\ ,
ĠA st
di e
ĠP oint
Ġrepe at
osp it
Ġcol on
cyc lic
Ġred und
A I
Ġle pt
am plit
Ġinvest ment
Ġspa cing
h ence
Ġbur st
Ġanalog y
ec om
qu asi
t uple
un te
raph ic
ian a
Ġpro test
ĠP ak
Ġcosm ology
Ġax es
ĠS m
Ġconnec tivity
n ic
ub b
Ġin herent
}^{ {\
ĠA ff
Ġprodu cer
ĠMich igan
ab ric
ss on
Ġloc us
art an
Ġremark s
ĠI ran
Ġindust rial
Ġbroad cast
}} ]
ĠL STM
ur ance
Ġincorpor ate
f ar
V is
} &=&
Ġseman tics
m em
ĠPac ific
on i
19 30
Ġfocus ing
$ {
equ al
Ġrelig ious
Ġbi partite
Ġpreced ing
H ol
Ġapp re
tran sition
Ġdra ma
Ġstructure d
ĠB ud
$\ {
he im
; "
graph s
Ġauto matic
acknow led
Ġad verti
{ %
B V
H a
Ġver ification
ĠB u
ĠT R
Ġphot ograph
o tes
ron s
Ġansw ers
19 20
ĠDemoc ratic
it ons
Ġact ress
Ġdro ps
lu es
Ġfix ing
Ġph ra
con clusion
) <\
Ġres taur
Ġun changed
t own
ĠC ivil
f und
}^* $
Ġint ui
Ġsp ring
Ġcy cl
ĠF amily
Ġex pan
NN s
Ġreal ize
ĠE P
amp ion
Ġstreng ths
Ġbas elines
Ġsol di
)} -
Ġfocus es
mathb in
Ġrep ul
ord ance
Ġneighbour hood
| $,
ĠL ow
ĠPhys ics
Ġmag azine
with in
b v
d B
Ġ$ +
Ġun likely
c M
f re
Ġsuper symmetric
b ow
ĠâĢ ¦
Ġtrans it
asso ciated
Ġrece ives
Ġutil ized
Ġthous ands
Ġref inement
}) /
Ġre v
Ġmach ines
ĠA sh
bas ic
c us
Ġsol ver
ĠOther wise
inc re
ĠO hio
sec ts
ĠQue en
Ġdef ense
ĠFri day
ĠPenn sylvania
T aking
Ġphon on
ĠM i
ta ils
Ġmaxim ize
ers onal
in finite
Ġa p
Ġevol ve
Ġper man
00 3
11 3
Ġ lying
ĠPol ice
Ġsingle t
) {$\
Ġyi elding
Ġillust ration
r Vert
Ġexception al
limin aries
Ġend ing
14 4
or ption
ma ps
Ġdiscre tization
sta t
_* \
ĠR GB
17 5
Ġwid er
M B
s tability
}) _
ear ing
ĠLat in
Ġa ware
Ġfra ct
bel ian
Ġade qu
Ġoccur rence
_* (
m orph
Ġadminist ration
Ġcons ensus
Ġtrunc ated
Ġp c
Ġlog ical
Ġv en
approxi mate
Ġcard inality
19 45
d b
li u
Ġofficial s
Ġint ra
Ġstand ards
ĠRes Net
Ġbr ings
er as
Ġwas n
rac tions
S uper
g lu
S ur
Ġdomin ates
ĠCar l
W A
E very
Ġs ectors
ip ality
Ġselect ing
Ġrece iving
star s
Ġexper iences
f b
ĠWe ek
Ġlook ed
n ull
ĠB esides
Ġestablish ments
Ġhapp ened
Ġde eper
M ac
Ġf ellow
Ġc atch
corre lated
Ġoffic ers
}{* }{\
L arge
con figura
Ġback ward
C at
Eu Script
Ġsyn thes
D em
Ġplat forms
Ġcontrib utes
ĠCon f
Ġtra p
rm k
ith ub
Ġcapa bilities
+ |\
Ġregion al
Ġd elta
cer tain
ĠM ath
Ġsuper symmetry
d den
ĠS ports
amet ers
sc rib
Ġcum ulative
M s
Ġdef ects
ĠOr gan
Ġcaref ul
Ġincl ination
els on
Ġemploy ees
Ġquali tatively
ab in
row th
es tablish
ot ent
Ġgra in
Ġd anger
N ot
Ġb ilinear
Ġtunnel ing
f eld
19 61
Ġexec uted
Ġtransi ent
gor ies
Ġround s
d ra
arge ted
Ġopportun ities
ĠB ru
c A
L og
C G
tern atively
Ġcol laps
ĠSen ate
Ġdo or
Ã ¢
Ġgre y
ĠAnd rew
res olved
ĠCol or
Ġarri ved
ĠC ro
Ġdiff use
Ġb racket
app ed
Ġpur su
Ġhar mon
- }
Ġreserv oir
ĠS up
no tation
Ġsched ule
Ġe mitted
Ġanaly zing
ĠF i
ge ometric
Ġpe ace
r times
Ġt we
lab eled
hal o
D el
ĠEngine ering
se x
ĠĠĠĠ ĠĠĊ
el ly
Ġcaus ing
H P
ĠN ight
}) -\
Ġrew ritten
Ġat ten
Ġph ilosoph
Ġanten na
) &=
u j
re view
put er
Ġkn ew
o ch
oun ger
C hen
u ition
\ },\
ort ing
}\ ]
Ġlabel led
_+ (
s tation
= &
ĠSo viet
Ġsem ic
ĠEm pire
Ġide als
Ġscat tered
Ġins ights
ent ral
Ġt urning
col sep
ĠLi ke
or di
ĠK im
Ġfa int
ow ed
ĠE xt
i ance
Ġstatis tically
o ured
ide al
Ġaudi ence
C B
us ual
en ius
ĠC ast
Ġassess ment
ĠE W
{ +
ĠG alaxy
Ġorth onormal
Ġvic inity
Ġfil tration
ĠStudi es
ĠPla y
Ġsol ves
A ust
N umerical
ĠT re
)\ |
Ġspan ning
Ġdec ade
ao tic
Ġn ar
Ġal ter
Ġ urban
row e
Ġ ...,
Ġo pacity
ĠC irc
ĠP i
ik i
ut y
Ġv ast
no thing
Ġsl ice
V al
M E
mid t
Ġun de
en ger
ĠA B
Ġb ijection
Ġeigen vectors
t p
Ġde par
Ġow ner
og rams
ĠNAS A
ĠW ed
ĠJ on
(\ {
stit uting
ĠB attle
ĠPro per
Ġvic tory
Ġa id
Ġflexi ble
Ġwe alth
Ġsurv ival
an de
Ġtri als
ĠPro cess
Ġact ors
me as
h size
10 9
Ġmes ons
gra dient
Ġcre ates
pol ynomial
su cc
Ġgain ed
Ġthrough put
ĠFrancis co
Ġexperien ced
Ġtim ing
ĠHop f
Ġsto pping
Ġjoint ly
\, $\
all ing
Ġgre atest
ĠInd ust
D er
p n
. (
pa rent
k j
ĠS hi
Ġours elves
uck y
Ġbusiness es
o S
Ġfi bers
sid ed
Ġsn ap
ĠM I
D u
^* $-
ann er
Ġpsy ch
Ġperturb ed
Ġincorpor ated
Ġb log
Ġprote cted
ĠP rem
H u
Ġacknowled ges
qu et
Ġshor test
Ġtriple t
eps f
cl os
R ob
or b
/ .
}} ^{-
ĠApp ro
v ents
set counter
Ġbig ger
ĠGeorg ia
d h
Ġresol ve
es is
ob j
Ġmed i
ĠSto kes
A v
U E
An y
}| $
I E
Ġbeam s
ĠB and
ĠR G
Ġspect roscopy
Ġpron oun
Ġun ivers
ĠM ah
P b
ĠS yn
Ġlat ency
enn is
ĠT aking
ture s
ĠMax well
s tab
comb ination
C y
12 6
ĠI o
ĠV ari
un a
Ġcon cludes
Ġtrans mitted
Ġhydro dynamic
Ġmin ima
v ac
ĠCont rol
id al
ĠA bout
off s
ĠPo incar
Ġw estern
J an
" ]
ĠA S
ĠG r
Ġno tions
Ġvocal s
Ġacade mic
Ġexper ts
ul f
Ġspa c
Ġcondens ate
u ous
U N
'' (
< -
Ġv irus
Ġan imals
ial s
ab c
ĠI sing
Ġremo val
Al gorithm
Ġto kens
ĠHe ad
Ġsh ares
ro matic
ĠBro ad
Ġpuls ar
^{ '
Ġele ctions
Ġfe et
Ġr is
Ġh ab
Ġalong side
Ġjud ge
)$ \
Ġcapture s
ĠH ermitian
) &=&
Ġgain s
Ġs ister
Ġsub algebra
w al
ĠH ospital
pot ent
Ġg ar
Ġnor ms
ĠS ir
ĠB ang
ĠThe ory
ĠP rime
Ġhas h
d ark
sup set
par ticular
2 30
Ġoccur ring
p seud
fra red
9 00
, -\
lic ations
il de
ĠH art
Ġf id
11 4
Un iversity
ĠB ul
\| _\
Ġarm y
B est
mid dle
r c
u ble
$ [
av g
int en
Ġsu dden
eck er
Ġf uel
an chor
ĠKore a
k t
ent er
ĠA ut
ĠJew ish
ĠMa the
, ...
Ġcapa bility
produ ction
ĠS S
R N
ĠJack son
over y
R em
be am
ĠTh om
y y
ec tions
ĠMajor ana
int on
ion ization
ĠU k
T I
ĠA sian
Ġconcent rated
Ġcounter parts
ĠO k
Ġcol ored
Ġp y
Ġout lined
)\ )
Ġwire less
ĠMed ical
Ġhol ding
izab eth
Ġcompu tes
disc rete
ĠSec urity
Ġmanus cript
ĠLapla ce
do es
12 1
}_ *
fact s
n c
equiv ariant
ĠSU SY
Ġwa iting
at om
Ġlands cape
is ations
Ġs and
G ener
{( -
Å į
Ġprocess ed
cal ar
Ġt ube
Ġauto ma
Ġcred it
s v
ĠF ra
Ġscreen ing
tit le
Ġver sa
Ġag reed
" >
Ġp m
Ġsh allow
ens ing
b g
he t
Acknowled gments
Ġdwar fs
il lo
Ġcon cluded
19 0
Ġad ds
Ġcon fined
DE s
acknowled gments
Ġmemb rane
Ġin her
Ġsole ly
Ġ( (
ĠB oston
ola te
Ġsignature s
Ġwe ap
Ġdraw ing
C are
ĠIll inois
ĠF W
ĠC u
ele ment
rob enius
Ġc ube
s g
11 8
Ob serv
Ġarith metic
ĠB ase
il ly
19 59
Ġt ub
Ġthin king
de fi
ĠD NA
Ġmi les
Ġsw im
Ġ ~~
Ġexpec tations
lect ric
const ruction
ist ration
N F
Ġsmooth ing
Ġfor th
ĠSch warz
ĠJer sey
ĠJ ustice
te chn
ath an
New ton
ĠC ard
Ġc rime
Ġbackground s
G T
ic ks
12 7
Ġ ?
{ }{
e ve
Con sequently
Ġdissi pa
ĠG raph
ĠThe atre
ci ation
ĠLand au
11 7
s lo
ĠSt ud
ĠH om
Ġcarry ing
b ad
et ts
N ational
ĠD al
ta tors
it ten
si tes
Ġpermu tations
v as
ha o
ĠSat urday
re lations
c F
a ult
Ġelimin ate
ss ue
G roup
S ep
bes gue
ta x
\ &
\, (
19 58
Ġyou th
gener ated
sign ific
Ä ĩ
ĠCo ast
Z hang
Den ote
our ney
ĠK ent
Ġstatis tic
Ġrele vance
Ġast ron
Ġb ed
P la
$. \
ĠW is
Ġcoun table
Ġdiffic ulties
Ġa thle
Ġon set
Ġfore ground
Ġinstit utions
ure r
rowe ak
Ġbo y
Ġb ol
D ia
ĠC ra
Ob serve
tun ing
ĠChrist mas
2 25
L y
Ġt rim
hed ral
Ag ain
}= (\
Ġsubsequ ence
dor ff
tan h
Ġvol umes
Ġbig gest
ap unov
Ġevol ved
as y
bra ket
te t
Ġsus p
Ġ+ (
d dots
hand ed
Ġmore over
Ġadv oc
Ġk ick
Ġg ender
S m
ĠM pc
min imal
Ġshe et
Ġwindow s
Ġcar ries
ĠF ederal
H amiltonian
v ary
Ġinstrum ents
Ġent angled
Ġmain tained
Ġsh adow
Ġen rich
Ġ( -\
Ġlumin osities
if er
Ġval ence
Ġsp anned
Ġexec utive
t bl
mcite default
ĠBro ok
12 4
Ġwin ner
Ġgradu ally
st retch
Ġg ri
ian ts
Ġun bounded
l umin
omes tic
ĠF lo
ĠH an
eps fig
E A
ĠCla im
ublish ed
uc ial
di a
we re
high er
Ġamb ient
Ġ$< $
ĠM ike
ĠI P
ĠJ r
ĠProv ince
ĠD ub
Ġinter fer
Ġscal ars
ach el
ĠAs sembly
) ^*
Ġf l
s b
12 2
Ġco ok
v acy
Ġknow s
C u
eg o
ĠTra ining
ĠK ir
}) _{\
at tention
}}$ -
A u
pres sive
ĠH ous
ĠC e
dots c
Ġd z
Ġmere ly
Ġfe aturing
ater al
Ġciti zens
mod es
Ġtru ly
Ġ\ }$.
ĠF unction
rin o
ĠD utch
ĠBol tzmann
d n
ĠD ri
Ġextrem al
L ast
Ġstand ing
Ġspin or
si mula
pre ad
ĠT ake
Ġab use
ĠF uture
Ġcustom er
ĠAd minist
on ia
c ard
Ġwin ds
},\ ,
g ithub
i mag
Ġmark s
Ġpublic ly
ĠG P
Ġmark ets
il st
Ġco al
O F
19 57
Ġformula te
Ġf idelity
)) =\
hor izon
Ġsure ly
alk er
Ġrese m
Ġn ega
Ġresidu als
Al g
Ġb alls
ĠD ark
viron ment
}{ |\
ĠT i
ĠF air
ĠR en
Ġsub strate
ĠR ou
ĠJ ud
Ġpl ants
ĠN LO
ĠT y
ĠK ong
ĠY ukawa
lik elihood
Ġread ers
preserv ing
K T
Ġlead ership
mat ter
Ġlogarith m
dis k
Ġpr int
Ġmar riage
Ġspar sity
ĠA tt
11 6
Ġan cient
h ot
Ġsubstit ution
Ġrail way
4 50
Ġpro gen
ĠC V
ĠF L
s peed
Ġo mitted
alax ies
structure s
Ġsens ing
\, ,\
enti fic
H am
ĠG et
Ġaddition ally
T i
'' )
P art
Ġs ending
Ġformula e
Ġdeliver y
ĠProf essor
Ġm ild
bound s
ta ken
ph ia
X iv
Ġhist ogram
n at
ma c
Back ground
b h
Ġbe autiful
v x
00 4
f n
Ġsimultane ous
ĠD eta
re dshift
Ġnorm ally
et urn
Ġre infor
Ġso ph
ma king
neigh bor
group s
19 56
Ġgra v
Ġ& &\
rob ust
disc ussion
per t
ĠPort ug
wo uld
gra ded
he ther
ĠW i
Ġoccup ation
Ġs mo
ĠL P
ĠS tation
ĠCom mand
Ġsl ot
Ġsum mand
ig m
ĠT ran
ant ine
Ġli ber
ĠN umber
re x
)/ (
F unction
ĠS everal
Ġhund reds
Ġcol le
Ġcont ro
ach us
- >
Ġaug mentation
C ap
Ġo racle
}\ !\
ann a
+ (\
Ġtri vially
@ {-
Ġon going
) &\
ĠT al
rela tive
âĢ ĺ
k w
I mage
ren e
who se
\ :
$. \\
~ ,
c ies
li ps
Ġreal izations
$ },
t m
d w
int rodu
em ission
Ġclassi fy
in it
eg u
da p
r ison
ive red
Ġfla re
Ġce re
ĠPa uli
Ġlo se
nes day
Des pite
ning s
S em
ĠE gy
c rit
== ==
is a
Ġcommu te
con serv
em s
Ġmer gers
min imum
ĠM D
}) (\
14 5
ir ty
$ ^{+
ĠM ount
Ġinflu enced
ĠMus lim
ĠRepublic an
Ġcirc uits
$ |
yp es
Ġh air
fin ing
Ġrank ed
d yn
$ }.
Ġimp lying
}' \
G F
t ens
Ġis otop
Ġparameter ized
K w
)} )$
clo se
}\ }_{
re z
ĠC ov
Ġmembers hip
can onical
M AP
aus dorff
W S
he v
paramet ric
ĠC F
bal ance
Ġspl its
Ġp lu
F IG
scatter ing
ub er
Rec ently
S NR
Ġreg ret
ĠS A
ĠChampions hips
l ighted
Ġhe x
Ġsub tle
ĠPh ot
ĠD er
M pc
Ġp al
Ġsp heres
H er
ĠH ad
Ġtrunc ation
Ġgrate ful
al ong
ĠTheore ms
c O
ĠPol ish
constra int
j u
Ġnom inal
Ġra m
Ġ\ ;\
Ġunder go
ce ived
ĠP age
ĠCon serv
V S
ut ers
C ons
ate ver
ĠA uthor
achus etts
Ġcomp la
Ġneigh bo
Q A
Ġpil ot
ke leton
experim ents
ĠF ac
l ers
shap ed
Experim ental
Ġspecific ation
1 19
Ġent ering
Ġren der
Ġsk in
eli ke
d S
r us
Ġdomin ate
ss ec
Ġprac tices
ĠW here
Ġful fill
new page
M W
ĠS Ne
chang es
it ting
ĠAssum ing
ĠA u
}- {\
ĠIn f
ĠColumb ia
ab ilities
cur ves
T D
Ġ& +
Ġvalu ed
ĠH amilton
Ġre fined
li ft
ĠU N
Ġex ercise
Re al
Ġtrans action
0 10
Ġgeom etries
Ġc risis
ro ot
Ġaccept ance
Ġign ore
Ġincor rect
ĠHe isenberg
Ġhous ing
O per
oc y
Ġb rackets
be red
O B
0 15
ra ting
ĠLeg end
te mp
Ġ ),
Ġy ounger
Ġhous es
Ġcar rier
dynam ical
thin space
ĠN ash
ĠM inkowski
lim ited
t urn
Ġsuff er
Ġ ^{-
Ġc ro
R P
rom an
Ġpoli tics
ĠScot land
App lying
A dd
c H
ĠF act
T est
ev in
Ġre mn
" :
Ġkine matics
0 25
redu ced
Ġd ream
Ġcommunic ations
13 4
Ġtri p
Ġequiv ariant
si bly
Ġs ell
y d
bran es
p ow
den se
Ġan onym
Ġf ron
th resh
Ġoper ational
Ġm igration
aver aged
S pect
13 2
Ġcra sh
T ok
' =\
c ous
iction ary
b ach
cccc cccc
ob ile
pla in
cal i
Ġcontamin ation
ĠAl f
Ġabsor bed
pg f
Ġiden tically
Ġas sembly
ar o
Ġconst ructions
ĠW ho
ag a
ĠF ellow
ã ģ
ĠMc C
Ġign ored
B ur
Ġbi ological
Ġpo ol
ĠA uto
Ġhund red
th ur
Ġpre sid
Ġpla us
ĠSo ft
Ġpass age
ĠPr ince
Ġdestroy ed
ul li
or o
tab len
ro se
Ġde formations
to pe
}^{ *}
Ġprogramm e
] +
/ {\
âĢĿ ,
ĠEd ward
n orth
Ġfund s
Ġdefe ated
Ġh olog
Ġle ver
Ġpro mpt
ĠMon day
})- (\
ĠUn fortunately
ĠL ive
19 55
st udi
ĠFe ynman
Ġ& $\
}[ (
Ġdist ant
Ġplanet ary
analy tic
ĠOn line
inter pre
_ +\
ĠH ong
Ġfun ctors
ĠH ear
sma sh
bi as
ĠE astern
ĠC er
ĠA rea
Ġsc oring
Ġinterest s
od a
Ġk ee
] ^-
IN E
ĠIn itial
ĠS ystems
ĠPa per
ĠG auss
Ġdes irable
ĠB is
Ġtran sf
var nothing
ĠI SM
ĠF ull
ĠLe ft
olog ist
Ġpro p
id ance
ĠSecret ary
ues day
Ġemplo ying
ĠM aster
l ds
ĠN one
ĠL ew
}_{ +
vi ve
g ate
) &=\
st ruct
Ġdecom posed
P ic
z h
Ġbas s
Ġbi ased
ĠCh apter
)\ }$
man y
gg ing
ferm ion
ĠL uc
H ome
Ġim plied
N orm
diam ond
D iff
app ing
Ġ&= &\
Ġsh aded
ĠRic ci
Ġsqu ee
Ġacqu isition
le e
Ġp ec
Ġlet ting
Ġcor pus
ĠG AN
enn es
Ġrecur sive
Ġsket ch
Ġar cs
Ġh its
ĠB l
Ġm im
rr rr
Ġmac roscopic
aut y
Ġgener ative
)] \
5 000
Ġdesc riptions
Ġexpan sions
Ġgeomet rical
ors hip
Ġex terior
Ġener ge
urs day
Ġque ue
ĠN O
W here
p is
S V
' |
ign ed
es h
Ġdepend ency
j l
tra ctor
ĠD igital
m v
Ġcross es
sho uld
o ma
E nergy
Ġch aotic
Ġrequ ests
per formance
alu e
Ġvis ited
M id
19 48
Ġlim itation
EN T
Ġachiev ing
ĠS em
ĠM N
otstra p
r put
ĠOx ford
ĠE ff
19 44
P ost
Ġpres cription
Ġjo ining
Ġfacili tate
ĠC oll
ah n
ĠGR B
Ġinvestig ations
ĠQu antum
}\ }
ĠĠĠĠĠĠĠĠĠĠĠĠĠĠĠĠ ĠĠĠĠĠĠĠĠĠĠĠ
au er
Ġslow er
Ġnotic ed
Ġb ow
rot ron
M ass
Ġtra pped
Ġconduct ance
Ġcommu tes
spect ra
p z
Î ±
ĠTh ird
Ġprefe rence
Ġsupp ress
Ġ\ '
Ġdecre ased
ĠâĢ ¢
in verse
ĠHistor ic
er on
Ġb on
Ġsing les
mon ot
. -
r v
Ġpredic ting
c ular
be ing
ĠC FT
Ġsto res
Ġm useum
se lect
Ġlabor atory
\ }^
Ġelse where
Ġlearn s
ĉĉĉĉ ĉĉĉĉ
op es
Ġdete cting
f c
pres sible
N GC
ĠW ang
Ġdynam ically
Ġelect rical
ĠN atural
ĠTh ough
ĠK ey
Ġen em
n umerical
Ġphys ic
Ġgovern ed
ch rotron
Ġl osing
Ġsus tain
[ -\
ĠF P
Ġoff ering
Ġo range
B lack
ble ms
ĠU AV
U K
mm ode
Ġput ting
Ġfor get
V ari
Ġg ather
Ġdown load
ta t
me ans
ĠU s
Ġpack ets
determ in
Ġth row
Ġmin us
Ġto wer
Ġbif urc
expon ential
be a
Ġmorph ology
th al
Ġreli ability
Ġreg istered
Ġemer ging
Ġent ers
Ġsh ips
Ġel ab
eff ect
ĠAnd erson
Ġthresh olds
hy dro
Ġ }^{
Ġ< \
}) )$
Ġviol ence
Ġtrans lated
w ing
Ġmo bility
Ġcontrib uted
Ġaggreg ate
ther lands
ĠH R
ens en
Ġaggreg ation
ok es
ly wood
ĠBe ach
d in
g ame
inc reasing
un ing
p ref
if mmode
Ġadj usted
Ġb old
Ġ( {
ĠV illa
id ae
Ġen code
int roduction
Ġcall ing
c D
ric s
Ġvo tes
cas ts
ĠOn t
Ġimp urity
N G
Ġman age
c P
ad or
Ġhel icity
an ta
- {
Ġdete ctions
ĠD L
Ġper i
sc ore
l t
ap ore
ĠS I
ĠH as
K a
O s
Ġcor ners
k ine
O H
ĠG L
Ġcontinu ation
ĠB or
Ġsuscep tibility
Ġd oll
HT ML
multi put
Ġwa it
S G
b R
Ġm ental
19 39
Ġparametri zation
e h
ĠLe besgue
example s
ĠAma zon
Ġinte lligence
ow ards
eng ers
Ġquas ars
cal es
Ġproton s
Ġro tations
Ġaug mented
ĠOr ig
Ġs lic
S ci
ĠP hi
enn a
w s
@ \
eq no
Ġcod imension
Ġmac ro
- |
P H
ma ch
) ]$
Ġadv ice
ĠMass achusetts
Ġcom edy
Ġth orough
Ġconver t
Ġchec king
ĠEl izabeth
Ġdel ivered
Ġinj ury
ĠH ung
ĠNam ely
Ġorbit als
Ġbe at
ĠC IFAR
Ġass ist
ĠOb serve
ens es
}} },
ul ting
po ol
c it
Ġf inger
e ref
Ġw el
Th roughout
man ifolds
Ġf at
A ug
ar ound
gra ined
16 5
it ro
Ġfrequ ent
15 5
[ ]{\
T ag
ĠE U
Ġsuper position
ur ious
Ġdef end
et nam
no ck
/ (\
Ġpiec ewise
Ġsem is
Ġav ailability
ll l
he at
ig g
Pro blem
nes ota
ar ticle
Ġre pair
ĠTe lescope
Ġrandom ized
;\;\ ;
compon ents
Ġcontrib uting
ĠFore st
i ously
so uth
con sin
Ġrelax ed
pos able
SF R
Ġout line
ĠAmeric ans
ĠAir port
Left rightarrow
dif ference
it ched
Ġaccep table
Ġfav our
Ġh ospit
ma jor
19 2
Ġleg end
Ġabs ent
Ġfre ely
Ġmer ging
[ $
Plan ck
W hy
ĠSo bolev
ĠR od
pat tern
ut ting
g m
Ġc ache
[- >]
S er
Ġcon ject
Ġst range
) ^{(
Ġsched uled
ĠM W
ĠK now
Ġper mit
Ġs quad
13 7
Ġop tically
Ġellip tical
| |\
Ġacceler ated
Ġfund ed
}$ \,
p unct
ĠVi ew
avi er
Ġgre w
ĠP L
In tern
hi bit
ĠA li
d c
ig a
ĠRec ently
Ġteach ing
min im
j an
Ġmo v
bal anced
\ (
Ġsex ual
{$ {\
Ġcommit tee
ĠK al
Ġacc ordance
Ġexceed s
ĠF ox
19 54
Ġho pping
oc ation
ĠR E
Ġperson nel
}( [
Ġconf usion
] )$
f alse
Ð »
Ġad vent
ĠT ok
ee a
ul pt
Ġti p
ĠSte ve
ĠA ND
3 20
D ire
en able
k ers
Ġst ret
osp in
Ġarrange ment
ced ure
are a
Ġeas tern
Ġan imal
M Hz
Ġshock s
mic ro
Ġfil tered
B ERT
Ġb omb
| ^{-
ĠH un
re ll
Ġdimension ality
es sions
Ġo x
f ront
Ġretri eval
Ġex posed
19 53
Ġcoun cil
Ġhost s
Ġinstrum ental
ĠCo oper
K P
ĠCorpor ation
ĠL A
Ġc ricket
Ġre new
T s
po si
Li u
r or
ĠJe an
small er
Ġru led
bas eline
ĠN et
v r
ma tical
Ġhead s
Ġpoly mer
w ich
In put
Ġexclus ive
yn olds
Ġelect roweak
ĠAn th
\/ }
A ct
res tima
Ġhigh lighted
ĠH I
Ġbe ta
ĠF M
M ich
Ġvisual ization
Ġ\ >
Ġdown stream
ĠA ction
ĠG i
Ġdepend encies
Ġsubt raction
Ġapparent ly
ĠM g
Ġa wards
13 6
la v
od rom
c ot
Ġf riction
ul um
Ġg host
Ġrel ating
Ġra ise
Un ited
ĠPol i
Ġdifferent ly
Ġla s
Care er
ĠW at
lo ads
Ġclub s
Ġg one
fri end
us ions
Ġsyste matically
b end
ĠObserv atory
' })
ion e
Ġhapp y
Ġfor b
sc ription
Ġirre levant
bund le
ma ster
Ġattemp ted
n r
ĠM ater
Ġ[ (
S u
m echan
ia o
| (
Ġ$ >
R M
big wedge
Ġmur der
im p
inter acting
Ġt argeted
ĠApp le
des cribed
ĠĠĠĠĠĠĠĠĠĠĠĠĠĠĠĠ ĠĠĠĠĠĠĠĠĠ
) *
Ġrecur rent
Ġb rown
po ut
ting ale
Ġw ing
al ed
at us
cc er
break ing
Ġcon temporary
ĠF ried
Ġk ill
Sp in
ĠU se
Ġpla in
Ġin set
ĠL S
Ġtheore tically
determ ined
Ġd ic
Ġcur ved
ĠUn like
ar ab
Ġpec uli
e ther
Ġdist inction
mp ort
Ġsched uling
Ġfid ucial
Ġvis cous
c ub
Ġtun ed
25 5
Ġphenomen ological
ĠH ay
l p
consist ency
Ġsucces sive
f an
Th ree
Ġimplicit ly
Ġprof essor
Ġd ance
Ġcon texts
s ight
Ġadvers ary
k u
Con n
)+ (\
Ġh ers
ty pes
Ġt um
or ov
Ġp unct
Ġcancel lation
ĠK illing
) }}{\
ĠR og
Ġf ell
am an
ur is
ag ers
ĠT ab
ĠW el
Ġaltern ating
Y M
19 52
ĠM ill
our se
Ġout going
cho ice
)= (\
pp ler
im it
rotate box
Ġj umps
Ġsto pped
ĠCamb ridge
Ġexplo sion
Ġrecomm ended
Ġhon or
ir s
}$ }\
ĠA venue
V A
Ġrecommend ation
Ġh a
Ġh ero
Ġcatalog ue
Ġrespon d
lim inf
Ġinstant aneous
Ġend points
Ġf abric
ĠBook s
H is
ĠSt ra
ĠSup reme
c L
ĠEx ec
Ġimple mentations
Ġis ometry
ra ine
Ġinteg rand
Ġthe me
al though
id ity
Ġpromo te
rup ted
Ġreg ister
ĠD ynam
Ġresi due
Ġastro physical
ĠP et
T ab
App ro
Ġbatter y
} &=
Ġencoun ter
iver sities
Ã ±
Ġoverla pping
ĠW hy
xi al
D a
ĠCE O
um ar
le f
Pl ot
w eg
y z
ric ts
' )$.
tru th
box times
el o
pro ton
eder ation
ĠS co
Ġshort ly
ond o
Ġint uition
Ġreason ably
Ġm ort
W orld
Ġspeak er
Te X
Ġcouple s
ĠIs lands
Ġspont aneous
Ġse ats
Ġauthor ity
ĠV I
ĠAn ton
Fil ms
an es
ĠBer lin
Ġdevelop ments
Ġw ins
' }(\
Ġhyper surface
tran sfer
vec tive
Ġmaintain ing
Ġfa ult
Ġaver ages
Ġ\| _
Ġfaith ful
add plot
{ ,
ĠY es
bra te
con tra
Ġm ining
3 000
Ġf ly
o e
proper ty
ex pl
multi ple
Ġinsp ection
}) }$
[ $\
ĠF isher
Ġcross over
Ġtal king
ĠWith in
Ġmoun tain
Ġencoura ge
ĠB BC
Ġear ned
Ġf ro
ĠC N
Ġbul ge
Ġpart ly
Ġaddress es
Spec ifically
ĠI T
Ġex clude
ĠC I
ĠP SF
Ġcomp r
deriv ative
ĠTh ose
{\ '
O PT
ĠTor onto
Ġvor tices
H K
ur ities
ĠV en
{ }^
Ġv oting
ordi al
ĠGovern or
pp ings
Ġdete c
ĠSec tions
f ine
ĠS on
ha ves
Ġsch olars
Ġm ig
ĠMod els
d R
Ġcompo und
inten ance
hed ron
Ġm ys
Ġsoph istic
pend ing
ent ry
r h
Ġag ric
Ġcalc ulus
z ech
Ġne b
ĠD FT
ĠDav is
n ice
irt ual
par ity
, ~\
Ġreti red
Ġmay be
C am
19 41
ĠPol and
Ġes tate
ĠWed nesday
Ġaccompan ied
ĠM Hz
tiv ated
el lo
ed ges
Ġappro ved
Ġsti ff
marg in
Ġf old
est yle
), $$
ĠT O
Ġdra ft
ori ented
Ġde formed
}) \,
ĠH es
ĠK ol
Ġre jected
ĠVictor ia
Ġs ac
Ġclassi fiers
Ġrepresen ta
Ġtor ic
g ment
ab ling
atri ate
Ġab and
Ġwal ks
ution al
Ġindu ctive
ĠOnt ario
van ced
19 42
Ġkee ps
Ġsp ons
O h
method s
] &
ĠApp lying
AR T
un s
Ġf ruit
b k
Ġhouse holds
Ġcircum stances
redu ction
m g
Ġauthor ities
,- .
T ilde
S en
Ġk id
oding er
13 3
appro ach
Ġcomp eting
12 9
ĠCom pton
Â °
ĠTh rough
Ġun con
Ġir regular
S yn
ĠM arg
Ġhelp ing
Ġsatell ites
M g
e b
V C
ĠP O
N ormal
Ġhom es
Ġrela tes
ĠF ire
yp ical
par box
per son
necess ary
- )
t re
ĠA T
Ġ\ [\
Ġres um
ĠS tein
| +
Ġst y
ĠC reek
cia tive
Y ER
fil ter
xi ma
Ġinf ection
Ġk ids
ĠH ur
ĠSy d
10 24
Ġchec ks
M ap
Ġdra g
Ġeccentric ity
ĠR ights
Ġfi bration
Ġprior ity
Ġs ale
Ġvalu ation
B al
Ġde ple
Ġinfinite simal
o z
+\ !
Ġpos ted
Ġun ified
Ġcl ick
Ġin complete
ĠL arge
sum mary
Ġbuff er
om et
Ġob sc
Ġme ets
Ġmin ute
ab ul
19 51
ok ed
S outh
}\ }$.
Ġdoc um
decom position
ã ĥ
Ġsuper gravity
conver ted
Ġv alley
= ~
T ri
la del
tab ilities
' }}
Ġch amber
Ġindex ed
ti f
Ġdeb ate
ĠNe therlands
00 7
Ġtri es
mag nit
e ast
o ul
ĠL as
Ġstream ing
Ġpronoun ced
Ġpolitic ians
pro file
) })\
ine ma
Ġinst ructions
19 46
Ġsur gery
list ing
a way
be havi
Ġp ra
tab colsep
ĠReg ister
Ġconj unction
19 47
idel ines
Ġmulti variate
gener ic
Ġre tail
Ġle verage
ĠM yr
Ġestablish ing
}\| _
Ġex it
Ġdec or
d k
Ġtra ding
amplit ude
Ġfrag mentation
id ers
Ġrig orous
L ee
n an
ut en
ĠF inal
up date
ĠLa ure
Ġrecogn ize
da ys
Ġen umer
Ġcontradic ts
ĠR V
ĠT ai
ĠH u
Ġun supervised
Ġy r
P DF
data set
' },
pla tes
Ġsil ver
Ġmanif est
ps line
ĠB ad
ac ency
Ġdest ination
Ġinitial ization
ĠF er
Ġdiffe omorphism
ĠN E
Ġlay out
o cal
Ġinstal led
L and
ĠD ifferent
import ant
M al
L STM
n b
Ġcom pl
Ġper c
Ġaccording ly
domin ated
+ {
ĠT oday
gal actic
& +\
st ance
re ma
ĠW ild
mo tion
Ġsearch ing
)} -\
Q Q
_{ |\
Ġa wa
ed e
}\, {\
Ġcompa res
Ġlemma s
Ġle s
ile y
od s
reg on
Ġman ual
Ġag ency
Ã £
Ġmut ually
ĠL es
00 6
Ġfound ation
ladel phia
Ġh osted
ĠU r
array stretch
22 4
)= {\
Ġcong ru
ra q
Ġre fe
ĠBel g
Ġprim es
}{! }{
Ġad vis
14 3
Ġpurch ase
Ġtit les
ĠCh annel
til lation
}+ {\
Ġbi ases
ĠH and
sample s
mat rices
Ġenc ry
Ġparad igm
ĠWis consin
F ree
do i
ĠP or
Ġman ually
K A
n k
Ġsh ut
Ġproxim ity
B l
Ġnon empty
Ġconjug ation
ubb ard
ĠRail way
Ġra in
ĠN iger
Ġobjec tives
Ġcell ular
hy p
Ġconstit ute
ĠSan ta
Ġfi bre
T ext
ĠD aniel
Ġachiev able
Ġazimuth al
^- _
if ier
Ġpropag ating
Ġe ase
S everal
follow s
Ġb at
ĠV ideo
Ġparticipa te
ber ger
ter min
Ġpoint wise
Ġb urn
Ġm and
ex cept
ĠTr ust
ĠO ri
Ġmat ters
? }
K B
ĠR andom
wa velength
Ch apter
Ġnil potent
Ġs ought
ĠGal ois
Ġtra ins
ĠPh ase
Ġflexi bility
form ally
Ġre venue
Ġvi rial
om ers
ĠCommun ic
Ġ }^{\
ĠOp tim
ĠL td
Ġret urning
Ġg irls
Ġrun time
Ġsp end
Ġpri ors
Ġbring ing
Example s
Ġan tis
Op tim
}' _
'' \
Ġpref ix
ish es
Ġgran ted
M AT
ĠT uesday
av ed
Ġvol unte
le xi
Ġco vari
ĠD P
Ġsol iton
Ġdecom pose
] }(
Ġerg odic
ag g
Ġhand ling
Ġconver gent
). \]
y u
Ġevol ves
normal size
ĠJacob ian
v ard
Ġ )^
Ġhar der
ĠV ar
sol utions
Ġmy ster
Ġstream s
lass ical
/ $
th a
Ġch rom
ĠScot tish
s gn
Ġsequ el
Ġpred omin
g ences
19 43
Ġbroad er
V ec
j ust
ĠR aj
n od
Ġproceed s
en tic
set up
Ġmin ister
bour ne
ĠRe ad
Ġis omorphisms
la tive
Ġappear ances
f ted
s al
am ing
ĠCh air
t u
Ġslo pes
Ġsubstit uting
ĠB ridge
i u
Ġf oli
Ġd ry
~ .
ĠC li
Ġgu idance
triang ler
^* _{\
orig in
m ill
Ġb onds
Ġsc ript
reg ation
Ġhel ium
19 49
rin king
Aust ral
ber ts
Ġdie lectric
tag on
ĠS mall
texts l
, +\
Ġdecla red
C ur
st udy
ag ain
Ġass istance
j ournals
S pa
ang les
ĠSyd ney
id ay
pro jection
con text
Ġa ds
Ġreprodu ced
à ¥
)} ;
be en
N or
m or
ĠF robenius
I X
back s
Ġhistor ic
- .
ic ate
ĠRep ort
ure au
Ġdemand s
un ique
ĠA la
}) ^\
Ġsub stitute
ĠH al
! \!
ĠPak istan
E instein
Ġtermin ology
ĠA F
Ġde als
Per formance
ic z
Ġgood s
Ġfar m
Ġr ural
ĠMin nesota
Ġdeploy ed
Ġmon oidal
> }[
Ġspeed s
Ġfunction als
Ġdenomin ator
og on
Will iam
ant ry
ol der
clus ive
}\ ;\
De ep
u tational
= &\
S ign
Ġoper ates
diff usion
Ġ utter
mag ne
sign al
lar ger
ple s
row ave
Ġbeh ave
L F
Ġcor onavirus
ĠĠĠĠĠĠĠĠĠĠĠĠĠĠĠĠ ĠĠĠĠĠĠĠĠĠĠ
are t
ĠGu ide
cep tions
Ġdec line
spa tial
) }_\
Ġlabel ing
Ġmodel led
ĠL ar
In itial
S tr
g ni
Ġd omestic
ph on
p red
b us
ular ity
Ġoptim ality
d am
Ġle x
}| ^{
ĠSt udy
Ġgrow n
Ġparametri zed
Ġin homogeneous
Ġantic ipa
st ers
ĠA stro
normal ized
ĠY et
ĠK err
Ġbase ball
Ġna ive
istic s
observ ations
Ġgeodes ics
ĠMil ky
ĠVi etnam
ĠC ru
Ġmultipl ied
ol o
\!\! \!
Ġnewspa per
" ;
K er
w en
C as
fi les
ĠH z
ren cy
Ġreview ed
c S
ex plicit
Ġhers elf
ak ed
Ġheter ogeneous
w hat
Ġpay ment
Ġdri vers
4 000
ĠLy apunov
| >
Ð º
Ġquadra ture
ĠTh ursday
}] ,
C ov
' _\
0 11
du ality
}} )$.
si zed
Ġchampions hip
ra tor
po les
ou d
refe rence
Ġpropos als
le igh
g f
el led
ĠK ra
ru gs
Ġcommit ted
14 7
ĠN SF
}{ @{}
Ġaccoun ting
Ġass istant
Ġun usual
ele ments
K im
Ġrac es
G H
}^* \
Ġmer ged
po on
p ure
ĠR S
Ġnon local
Ġob ey
ĠW a
ĠAst ron
Ġdivid ing
Ġconf inement
13 8
o les
triangler ight
o on
Pro per
ci ally
Ġlept ons
k r
R ic
o pher
ivid ually
Ġrepresenta tives
}_{ [
{\ ,
Ġp run
Ġrela tivity
Ġthe ra
Ġcrow d
\ })
Ġrad ical
Ġw ra
ĠP ur
Ġimplement ing
Ġcryst als
ĠMo on
Ġambigu ity
il arities
tit led
Ġshe aves
Ġprov ince
fa ir
ay er
Ġtor que
ĠSh ort
Ġac id
Ġt ab
Ġbe haves
In stead
T a
ĠG C
fe as
Ġf ear
S ports
Ġn ur
Ġfall ing
F ull
S pace
station ary
radi ation
ĠSing apore
ĠR R
ĠKe pler
Assum ing
*}[ !
Ġjus tified
ĠM F
Ġdisc i
Ġt ur
v b
Ĥ ¬
ĠGib bs
B TH
os hi
Î ¿
Ġacc ident
^- (
c am
fra m
ĠC ub
ĠW D
Ġsol o
general ized
ĠR ome
ĠF ood
Ġinten sities
T ech
re ets
ĠP rim
Ġmis sed
ĠT M
Ġa w
ĠA ge
ma ts
doc ument
M u
po lated
Ġtro ops
al an
th ew
Ġplaus ible
ĠS V
Ġsoldi ers
Ġs i
19 5
G re
Ġj ourney
00 8
ĠM iller
ĠE vent
Ġcomp rom
ĠN ic
}+ (
ap or
tiv ation
Ġlong est
}$ (
Ġas sets
Ġsur vive
q w
Ġtw enty
p et
ĠK n
st ant
Bri tish
Ġd ens
}' (
Ġrecur sion
Ġcon test
ĠCon dition
Ġ$ *
ak ov
ĠC ountry
Ġpicture s
N ame
ba ma
m el
ĠL R
let ter
sur faces
ĠSt rate
se lection
Ġfeel ing
}} &
Ġab st
Ġfair ness
er al
Ġcali brated
Ġw inter
YER WB
BTH YERWB
ĠW ars
M ills
Ġscienti sts
Ġcomb ines
Ġreport ing
Ġaut onomous
Ġax ion
Ġf ed
ĠS ab
Ġcamp us
Ġpoor ly
Ġpromo ted
Ġar ranged
24 5
Ġf iction
Ġbas ically
ĠG yr
Ġevalu ations
Ġc up
ĠD oug
Ġphot os
w ritten
fill draw
Ġincl usive
ĠC ox
i h
Ġcol ours
)=\ {
F OR
o om
sw itch
Ġweight ing
ĠHar ris
] ]
inte rest
ar Xiv
ĠE ric
ĠD A
ĠR os
Ġpost s
Ġvo la
Ã¡ n
Ġneg oti
G et
Ġpas sive
T ake
con du
compa tible
Ġcylind rical
Ġm il
E SS
Ġf ake
ut or
}) )\
ow a
Ġex haus
Ġquad rup
_+ ^
T ube
) }^{\
z ier
ĠB iden
F low
Ġcross ed
Ġperman ent
- (\
b atch
Ġh otel
id ents
c ers
ĠBuil ding
Ġim posing
Ġsym pt
ens tein
Ġsophistic ated
over ning
c aus
c ount
Ġ- (
s hi
prec ision
}{! }{\
equival ence
Ġ }}\
15 00
ingu ish
P F
Ġinter faces
Ġsat urated
tempor al
le an
ĠM and
ĠN L
asympto tic
si mulation
c X
19 36
du ate
Ġoff icially
Ġh ull
fol io
ul ators
19 00
Ġmark eting
Ġt ropical
ta king
el ve
Ġrob ots
ĠKore an
ĠR h
ĠR om
ĠO l
op tical
no ulli
\ }}\
}. \\
Ġinter stellar
Ġreg istration
w u
plan es
P y
ĠĠĠĠĠĠĠĠĠĠĠĠĠĠĠĠ ĠĠĠĠĠĠĠĠĠĠĠĠ
ĠP lease
arc s
ĠR u
Q C
Ġlinear ized
Ġopp on
urrent ly
A K
G O
d ating
put y
d ir
19 17
der ived
Ï Ħ
ch ild
}) |
Ġintui tive
orig inal
Ġdial ogue
com mon
Ġd B
Ġelimin ated
Ġattack er
ĠG ran
J u
ĠL F
]{ $\
Ġla g
chang ing
fore ach
Ġblock chain
Ġden oting
Ġs now
Ġconcent rations
}. \]
Q L
ĠSc he
ĠFor d
Ġtrans actions
ĠA z
duc tivity
Ġsuff ered
T otal
0000 00
Ġh ockey
ak h
Ġsepar ating
mix ed
20 5
oper ators
cyc les
Ġinv olution
enn y
Ġdecay ing
ĠP T
ĠS n
ĠP H
Ġcl ump
Ġseem ed
ĠSta tis
Ġun clear
ĠCo de
uper script
13 1
elf are
J ust
f all
Ġinter sects
texts uperscript
Ġquas ar
Ġ$ {{\
ĠC orn
ĠG ab
Ġob e
e ither
orth ogonal
})$ -
Ġ$ }
G old
ĠAdminist ration
Ġe jec
at op
em eter
a os
B uil
Y au
B ay
18 5
Ġevol ving
Ã£ o
ĠAr gent
press ure
N at
Ġd ates
align at
Ġpoly tope
H iggs
iter ature
Ġexclus ively
Ġcompa tibility
Ġoptim um
rim ination
ĠH i
Ġph y
inde q
Ġ\ {(
Ġfight ing
ĠS earch
Ġsmooth ness
bos on
Ġar ts
Ġstrong est
vi tation
Ġauto mated
Ġne uro
Ġdesc end
un i
ĠSchwarz schild
AN D
un ce
ĠJacob i
vio let
Ġmov ies
Ġsp ots
Ġst one
0 12
en o
ol itan
pos sibly
Ġcere mon
An alysis
ater n
observ ation
v phantom
ex tension
& $\
gh an
measure d
IM O
sh ows
Ġl if
ha w
G K
pi ration
Ġhon est
s ymbol
in frared
Ġcasc ade
ĠSt ory
ĠN az
p ing
ĠH ausdorff
$ +$
af ety
Ġ$\ ,
Ġdif fraction
Ġ\! \
Ġcam eras
Ġtimes cales
effici ents
Ġra ting
Ġanno tations
Ġsub system
Ġregular ly
ra ts
re ach
Ġcrim inal
L ow
h ref
E nt
Ġdedu ced
Ġcl arity
Ġins tabilities
Ġ ille
un iversal
re si
et ti
Ġsound s
si dered
Ġro oted
Ġmove ments
ĠD NN
Ġown ers
T ran
disc us
ag ues
Ġrenormal ized
N M
Ar ch
Ġsyn chrotron
Ġ ).
W est
re call
Ġdo ctor
Ġprim ordial
Ġqu iver
Ġrela y
] },
l k
Ġc ot
Ġemer gence
fe fe
Ġcontroll ing
b w
Ġcontra cts
Ġtown s
Y ang
Ġle ct
2 16
y ang
PR L
Ġhouse hold
U s
Ġcondu ction
_- $
19 18
ĠW ell
e u
Ġr ising
pr ise
Ġinter ven
ĠMal ay
ĠPri ze
Ġdoub t
Ġres c
ft en
ĠN ations
fe ature
Ġran ks
t n
Ġeigen functions
N umber
Ġhyper plane
ag ent
F inal
pos it
Ġmonot onically
x z
2 60
Ġkn ots
Ġtrans lations
Ġstru gg
Ġemer gency
ĠR H
}. )
inter val
Ġrepeated ly
Ġprotot ype
Ġaim ed
Fig s
Ġrout ine
ĠSt one
R ich
Ġa ma
Ġv oc
ev ol
ĠFW HM
s parse
** **
Ġdeveloper s
Ġre volution
Ġimpact s
Ġin hab
ĠL ady
Ġidenti fies
ĠAg ency
ĠB rand
Ġinst ruction
B K
rest ric
Ġk il
i la
ĠK h
ĠPol y
Ġexpl oring
, [
Ġdesign ated
Ġmusic ians
Ġdec on
Ġmas ks
ph ra
le ad
Ġre tain
Ġimportant ly
Å ¡
}] $.
lem an
ĠChild ren
ĉ ĠĠ
Ġconfir ms
ĠM ix
Ġpublic ations
ĠWork s
Ġpre pare
Ġan ces
ĠS ym
W F
at omic
e z
ĠWh it
Ġbre ath
Ġalle ged
Ġre wards
15 4
Ġwave function
ast ro
13 9
Ġin com
Ġtack le
S ource
m k
Ġresol utions
ĠL am
theore tic
al ph
ĠPer formance
}, $$
ĠB ERT
ĠGold en
dec reasing
14 8
Ġion ized
19 37
dis per
Ġro uting
x u
ã Ĥ
ĠA k
cer tainty
ĠMar sh
ĠB ox
Ġconn ects
tic ip
ĠN at
ĠLew is
S n
âĢ ¢
Ġcompo unds
C r
constra ints
Ġwal king
Ġmer ge
ĠE th
ĠMicro soft
ĠR oss
Ġcom pressed
ĠN FL
is si
\,\ ,
onom ic
te ch
ren ess
ĠG er
Ġlocal ity
C he
w riter
te ll
Ġb row
^* )$
re ment
Ġw ound
ĠMed icine
Ġeigen vector
Ġoppo sition
O rig
re cur
P an
Ġmo ck
B u
ra mid
ĠS till
sto chastic
l os
Ġas king
Ġde x
ĠS olar
W E
id ation
ĠCon jecture
ĠIn stit
7 50
ĠSub section
l f
ĠS itter
the refore
Ġb io
Ġy es
ĠMo ore
Ġex em
ĠP ear
ĠH odge
Ġpo oling
Ġhighlight s
M usic
3 30
ip edia
B on
Ġind ividually
w ick
G ar
ir ical
Ã© e
eg al
Ġens uring
E t
ĠDu ke
Ġcut ting
Ġun biased
Ġconvers ation
ti fying
Ġdefinite ly
Ġf rust
Ġbur sts
ĠCh en
t uring
Ġdeg ra
^* =
ĠB os
28 0
Ġutil izing
Ġpick ed
ĠEar ly
ĠMoun tain
coordin ates
Ġre cal
R I
: {\
ĠRe ynolds
14 2
A bout
M n
Ġhar m
Ġb ug
Ġworld wide
b ay
Ġdisc s
b X
Ġwrite s
riz ona
Ġop ens
Ġ _\
ĠS pring
16 8
op ic
With out
rad ation
ĠF A
ĠSqu are
* (
Ġend point
Ġvalid ate
Ġemission s
B st
L inear
ĠE mp
Ġingre dients
ĠW all
di ble
Ġadequ ate
ĠO regon
'' }
if ford
D own
Ġback bone
ur g
Ġencoun tered
Ph ase
19 38
S an
ĠT an
be it
u is
Ġrespon sibility
ĠS lo
Ġwh atever
Ġend owed
ĠExample s
ĠBo olean
ĠQue ens
S ect
ĠI raq
wide text
text backslash
19 35
ĠE ll
}& =\
Ġdem oc
Ad ditionally
Ġexplan ations
M ath
Ġmath e
B esides
hol der
Qu antum
Ġrecur rence
variable s
T w
20 8
}/ {\
ĠR evolution
cap es
experim ent
) &=&\
Ġfavor ite
am in
Ġsusp ension
Ġwh ilst
chest ra
t v
ĠW ard
uk i
eff ects
ti se
Ġmunic ipality
B ro
ĠB orn
= |
th em
Ġst uff
we b
ĠHamiltonian s
Ġbenchmark s
cla ssi
Ġpurch ased
Ġanten nas
Ġincorpor ating
Ġfa ced
Ġcont ents
Ġwork er
ĠP ublish
Ġinc idence
ost er
Ġvis ibility
ential ly
ession al
Ġ( ``
ang a
Ġchar ts
! }\
Experim ents
ĠSim on
ok er
ili ation
P oint
tim ent
Ġar rested
Ġterr itory
odrom y
maxim um
ĠJ oh
Ġsimple x
rop ri
, {
F N
Ġs an
over s
ĠL an
de m
Ġ à¤
slash ed
h fil
im ir
cor por
c oupled
}\ {\
agree ment
Ġsugges tions
ĠLemma s
Ġorb ifold
ĠNetwork s
Y ear
Dav id
P Y
ĠS H
Ġout liers
arab ic
R us
g alaxies
Ġconver se
g ov
Ġb anks
co h
H aving
Ġc ited
P V
ĠSto ck
ĠE nt
Ġpo ur
v ark
ĠO cean
Ġar rays
Ġanomal ies
ques tion
ding er
Ġmag ic
Ġcol lections
IS E
ĠP ier
ĠT en
ĠCon versely
Ġstri king
Ġland mark
Ġenable d
b efore
acknow ledge
ĠD O
th y
Ġqu oted
Ġquanti zed
w atch
T em
o pp
C ross
F ar
quar ters
Ġgre edy
c li
ys hift
Ġhor iz
ĠInte l
Ġmulti plying
it eness
15 2
ĠR T
Po isson
Ġjus tice
si l
Ġwas te
Ġt error
C hi
ma de
Ġknow ing
flu ct
P unct
}[ {\
S un
e vi
Î ½
ĠAtlan tic
Ġvot ers
Ġdeploy ment
sc ious
Ġh all
ĠOlymp ic
Ġc ash
Ġfra gments
Ġ /\
or ange
ryst al
ĠAn ti
Ġemer ge
ĠMethod s
g am
ik ipedia
ĠDa ily
cross ing
t c
Ġsim ilarities
mer ce
)( -
Ġ rib
rog ate
Ġhyper parameters
& -\
g cd
dete ction
ĠD omin
polar ized
Ġ/ /
L at
ĠCar tesian
Ġwin ners
ly n
}^{ +\
ĠW inter
mak ec
' ]
Ġbary ons
Ġad ult
mo lec
Ġdelay ed
and y
ll bracket
Ġtra dition
Ġno tably
pe red
ĠMod ern
Ġsettle ment
A X
ch el
n f
mat ching
sh ots
Ġre con
ret urn
s we
ti ous
rr bracket
S ystem
ograph ical
Ġin jected
olog ists
conj ug
ĠL ik
Sch warz
Ġun expected
band s
allen ge
Ġsta ting
Ġlist ing
enc oder
ĠSte phen
Ġempir ically
Ġiner tial
23 5
act ory
S ong
lies t
ĠV a
000 1
Ġpeculi ar
ĠW igner
s ug
mper or
Ġfem ales
se ason
}}$ )
ec ke
Ġ ic
ĠT am
Ġindic ation
Ġgener ations
Con v
ĠColor ado
Â ©
ĠR ose
ĠMean while
AS P
Ġv oid
ĠF l
vary ing
iv ari
des h
fig ref
dist ributed
Ġdouble t
ĠInte restingly
Ġo c
le mm
Ġto m
Ġtext ure
Ġtrans portation
ĠPhi ladelphia
ĠMark et
Ġconv ection
t ang
H op
ĠI MF
m outh
ĠH ST
Ġd uty
Ġhex ag
ĠĠĠĠĠĠĠĠĠĠĠĠĠĠĠĠ ĠĠĠĠĠĠĠĠĠĠĠĠĠĠĠ
cla ssification
Ġan chor
Ġper mission
ĠLe on
Ġneur on
Ġinter net
as ymp
en ko
Ġ }.
to col
pri or
ĠCh ang
Ġcus p
Ġgene tic
Vi ew
ĠUn it
Ġadj acency
Ġthe sis
Ġdel ays
N I
h m
Ġfootball er
Ġtrans late
Ġ .\
Ġinten se
Ġappropri ately
Ġrect angular
Ġt iny
Ġimplic ation
Ġbo otstrap
Ġplate au
Q U
Re ad
] -
Ġadminist rative
Ġgra de
ĠAll en
Ġma intenance
mo ving
Ġins urance
MA SS
E v
A ng
Ġste el
m eta
Ġ& \\
ab elian
2 11
Ġ texts
Ġke ys
Ġpers ons
i ors
b inary
g ot
for th
ĠD onald
cor ner
bf series
red it
df n
ĠSwed ish
o led
Ġsix th
Ġsynchron ization
Ġsub mitted
ces sf
Ġfo under
magnit ude
Ġmunic ipal
st d
,\ ,\,
tific ations
ĠD ia
Ġsee king
Ġeven ing
Ġanno tation
Ġta ught
ĠH ot
Ġp iano
acc uracy
Intern ational
14 6
str ut
} &=&\
* [
Ġ rms
ĠN orm
Ġcap tion
vark appa
ex tra
Ġexc iting
Ġfila ments
Ġmanufact uring
Ġpen et
}} }_
Ġholog raphic
experim ental
in j
Ġinter vention
ev y
F un
T W
ĠF r
Ġser vers
Ġappe al
Ġexplo iting
Ġatt racted
ĠSupp ort
Res earch
Sto kes
b ary
c G
0 33
ĠA mb
ĠL yn
sour i
R D
B W
rit ers
Ġhealth y
K E
ou ville
over view
ĠB lock
m og
p al
Ġp un
ĠCor ps
function al
' }^
Ġharmon ics
ib liography
Ġ( +
ĠG ri
Ġsmooth ly
ad van
lumin osity
$ |\
ub script
15 8
Ġfac ulty
Ġanno tated
ĠMe asure
ut ri
Ġbenef icial
makec ell
ĠC artan
Ġg au
Ġinvestig ating
Ġ\ }$,
ĠM un
Ġplace ment
r q
ĠD y
ĠSta dium
ĠE rror
ĠO bama
ard o
n x
simula tions
Ġ ^\
Ġexplo ited
Eq s
Ġper ception
D r
Ġdra s
pix el
Ġpres cribed
Me mbers
Ġavoid ed
Ġacqu ire
Ġle gs
ĠLag range
k al
gener ation
c od
Ġpopular ity
Ġcompris es
15 6
Ġab bre
Ġcould n
Ġdisapp ear
ĠV in
Ġc hemistry
Ġreci pro
Ġcondition ed
C W
po thesis
Ġsub script
av ailable
vis ual
ĠOver all
Ġwill ing
Ġestablish es
Ġconsum er
to ur
Ġtrans lates
ĠPla ces
ta kes
ĠC all
eg as
\{ (
Ġinflu ences
is tically
Ġbroad ening
Ġconvex ity
Ġshow er
ĠBri an
r ine
G ood
)) _{
S che
15 7
A x
N evertheless
ĠNe ural
Ġo pt
L G
ĠImage Net
u ine
om al
P oli
T ru
Ġm ile
erm ost
Ġen abling
N Y
^+ $,
Ġdiscus sing
Ġh ur
ĠN R
corre ct
Ġcryst all
Ġdefe at
N orth
Ġin formed
^{+ }
ĠP it
ĠDo ppler
Ġh un
Ġro utes
Ġm s
L HC
ed ing
ĠA BC
A f
ant on
Ġre tained
ĠK L
Ġmultipl ier
prov ided
v f
Ġextra polation
eta ble
ple te
emeter y
Ġbl ind
ke e
Ġconv in
te p
Ġcon es
ĠP sy
ens ed
D iv
ed a
d N
fl align
=\ {\
Ġm outh
ann i
Ġcompact ness
}) ).
ivers ary
uc lear
ĠL ower
thresh old
lesc opes
Ġw ww
Ġt une
ĠV e
ĠS ix
ĠZ hang
ĠMem orial
Ġb ought
c lock
Ġch ampion
Ġpuls ars
ul atory
^+ ,
ĠPrem ier
Ġinitial ized
Ġweek end
g alaxy
0 30
Ġoff line
Ġo ve
}}\ ,\
Ġsett led
Ġejec ta
di an
ĠLabor atory
E uro
en te
Ġt rick
Ġimag ine
? "
Ġfit ness
} ~~
Pre vious
o or
10 000
Ġiter atively
Ġarti facts
Q R
Ġv iable
ĠCons tit
Ġmonop ole
}\ }$,
}| _{
AT ION
0 16
Ġla p
Am ong
Ġfila ment
ĠL ind
F D
pl ine
Ġf lip
Ġaut omorphisms
lst listing
I ll
ver si
Ġgu est
tablen ote
Ġensemble s
Ġauth entic
en table
ĠEqu ations
Ġca ught
{ .}
Ġsp ort
ĠN ick
Ġmaxim ally
} ]{
ĠP lat
ues tion
i ber
ĠP D
M U
Ġpos es
ui tively
Ġtro uble
3 25
C U
Ġfac ing
Ġobsta cle
Ġrecommend ations
Ġdepic ts
Ġhe aring
Ġd up
Ġmys elf
Ġsol vable
H el
den oted
w i
ta iled
^+ _{
ĠI mm
acc urate
ĠB ose
Ġlumin ous
Ġsub category
% .
f mf
Ġris ks
nucle on
Ġv ent
ĠW ol
. ).
normal font
w d
Ġim mer
Ġmul tic
ĠB all
Ġeduc ational
ĠSwed en
Ġd ictionary
Ġto y
ĠF la
\ (\
St and
Ġhadron s
g ives
Ġori entations
P at
ennes see
Ġf as
Ġbifurc ation
Ġcl im
opy right
( .
allow break
Ġsurround ed
c ube
Ġanaly se
Ġaltern ate
Ġb uck
ĠMag azine
Ġex otic
ĠPy thon
Ġchar m
ĠGra ss
Ġcompo sitions
0 20
E rror
v ct
tern ative
' ),
clos ure
c E
in os
lu x
Ġn ano
Ġprote ins
17 6
Ġmathema tics
'' _
Ġcar ds
ĠM HD
k el
g b
comm unic
Ġair port
ies t
glu on
Ġdiscrimin ator
oc or
Ġlo an
Ġmetall ic
l ater
Ġcre ative
F B
Ġg ro
Ġpoly gon
la h
Ġengine er
Re view
m tx
ren a
ĠRo y
Ġinter sections
Ġrescal ing
ar ia
ĠA h
ĠM SE
Ġcontinu ing
Ġin tention
ĠD ream
ir y
Ġup coming
Ġsimpl ifies
texts ubscript
O ct
ul s
ĠDeta ils
fin d
Ġy ards
forma tive
Ġst ops
co lation
Ġconc ert
us al
Ġdesign ing
Ġrescal ed
b urn
ren ormal
\! -\!
loy d
s ay
mix ing
ĠNor way
rid ges
non linear
}} )$,
ĠM O
ĠCl ark
Ġre combination
19 33
Ġstri ke
q a
ĠC zech
P W
Ġcomm ands
ĠÂ »
establish ed
Ġparticip ation
t l
Ġun e
Ġwhe el
ĠT ony
Ġcooper ation
Ġoptim izing
ĠCast le
Ġ\ |^
Ġsh i
H V
ext ended
ĠBra d
ch ap
Ġeng ines
uzz y
Ġgran ts
Ġch ir
in line
c B
.~ (
ĠJ up
inu ous
S al
ĠM n
Ġst ro
ĠCh andra
A lex
Î ¹
iz ability
Ġasympto tics
E lect
ro tation
cccc c
strong ly
ĠMet rop
ĠK ansas
Ġcolor ing
ĠL anguage
ĠEnter tainment
{ }_
ĠT ree
[ (\
I B
ĠCom pared
ĠExec utive
K ey
Ġprocess or
Ð ²
Ġdra matically
}^* (
ĠD or
Ġro of
Ġsc ulpt
th ose
cont ribution
an ov
Ġful filled
}} }_{
ĠĠĠĠĠĠĠĠĠĠĠĠĠĠĠĠ ĠĠĠĠĠĠĠĠĠĠĠĠĠĠ
Ġprefe rences
ast y
ch apter
Ġmonotonic ity
A J
ĠP ad
8 50
ĠS ri
Ġf estival
nam ely
Ġparticipa ted
in als
ol y
pp i
Ġpartners hip
Ġb acter
ĠOffic ial
f d
{- }\
ĠP ut
Ġcos ine
Ġmis s
fram ework
o vian
Ġta ils
14 9
con clusions
acc ording
S ha
b right
Ġbran es
On ly
ra ce
ĠNewton ian
Ġcon vective
b eg
ola s
$ }{
Ġbur ied
Ġd S
Ġinter active
Ġk illing
ou theast
Ġh am
Ġv eg
Ġl ingu
}, ~\
Ġup dating
^+ }
Ġtoler ance
div ision
ta m
ĠConsider ing
)$ ).
adap tive
ion al
ust ration
Ġalpha bet
ag u
Ġz ones
s z
ĠO t
Ġdiver gent
Ġinnov ation
ĠW ord
Ġrestaur ant
ma terial
ist ing
Ġma ppings
Ġhor se
Ġfix es
plan et
Ġ )}
h c
R ay
ĠTo gether
ĠMe mber
Ġpull back
W D
ann y
Ġbur ning
ne ed
ĠIndi ana
Ġ( [
Ġpossess es
P ublic
f ly
Ġs igma
Ġpropag ate
ho ff
ull er
Ġli br
Ġtravel ing
Ġpro fit
Ġhand led
d rome
ĠCh ap
: #
Sub stituting
Ġ Å
ding ton
Ġvacc ine
ĠYou Tube
ĠG l
Ġg ift
M ix
Ġemer ged
Ġsta ys
k T
15 9
ĠP ath
Ġiso lation
[ ][
os calar
Ġinser ted
Ġdissipa tive
Ġsit uated
Ġre co
O pen
Ġti ssue
Ġelectric ity
Ġcross ings
Ġco gni
Ġgraph ical
Ġwe ar
ĠO ak
L aw
Ġse eds
0 50
ric ing
cluster s
Ġinf ected
19 34
Con f
un ning
Ġsho oting
Ġdeg radation
Ġsu ited
ĠCom parison
reg ions
sub ject
ag an
Ġsympt oms
ĠP ack
ogen ous
Ġconcent rate
ivari ate
F E
ĠC CD
Ġpos it
P ersonal
Ġd rugs
Ġcomb at
co hol
14 1
19 19
ĠT H
Ġconv ol
ĠB PS
hol m
teen th
Ġanalys ed
ĠReg iment
C oun
Ġlift ing
h dots
: $
16 7
ĠF o
Ġaccoun ted
Ġcry pto
Ġdop ing
ĠHar ry
Des cription
ul der
Ā Ā
Ġanonym ous
ĠB og
dic tion
ĠLe ad
ĠDis ney
Ġregular ized
multi plic
Ġatt raction
im ination
m ust
Ġiniti ated
Ġins u
ĠI den
Ġatta ch
F r
ri f
Ġ$[ -
Ġdanger ous
}} }(\
Ġgen es
M r
h b
w estern
K D
ĠSe ason
Ġfurther more
Ġres is
R ank
ar on
, *
ins ky
Ġg overning
ĠTh anks
rop ies
sc en
ĠN A
19 29
Ġsle ep
)\ }
Ġinser tion
Ġdist ricts
pro ve
Ġdiam ond
A verage
_- (
Ġla id
Ġphilosoph y
Ġderiv ing
Ġide mp
ĠE mer
hyper ref
p k
ĠTable s
& \\
il ateral
ĠT otal
ĠP CA
Ġclos ing
ĠO s
b ri
Ġo cean
ĠBis hop
c ra
Ġhalo es
Ġview ing
ec es
assum ing
new s
ĠSo und
Ġreinfor cement
27 5
ĠN ormal
supp ort
ĠWind ows
Ġapp oint
Ġ\; ,
ĠK i
j p
IC E
s pe
ĠAr thur
Ġground s
Ġcli que
us ta
si ans
satisf ies
ĠK K
buil d
c N
Ġti ed
Ġcons isted
\% $.
ĠA thle
Ġsuper vision
ors es
Ġfi led
Ġtem plates
Ġis lands
Ġplas tic
ĠPhilipp ines
ĠG reg
lon e
Ġdocument ary
}( -\
Ġlist en
Ġrelig ion
ĠU pper
ĠCon c
}] $,
ĠT ar
ĠJes us
da ted
Ġminim izes
Ġag encies
ĠP rom
in der
Ġcorrel ator
y ard
ĠP ay
The ore
n h
Ġmaxim izing
jec tions
Ġdra matic
od ers
ĠL em
mm ar
Ġvirt ually
ĠTrans former
Ġpa ren
en et
ĠA rizona
in ters
Ġsymbol ic
Ġ }(\
ĠW as
expand after
; {\
Ġst orm
5 50
19 28
}\ |^
iam i
pher ically
D ynam
ĠL ang
Ġref erring
Ġtw in
iam ond
ĠCom bining
el and
Ġrare ly
J acob
other mal
ir k
Ġs ink
B ol
Ġpro xy
Ġaffect ing
ĠRou te
Ġsum ming
en z
)\ }_{
Ġsurpr ise
tific ate
23 4
Ġpaint ing
Ġp uzz
ron ze
ys on
ĠG allery
ĠJ am
Ġcla use
. ''
3 75
Ġat tained
corre cted
R andom
Ġapproach ing
algebra ic
Ġprac tically
V P
hi er
Ġminim izer
ag en
tit udes
des crib
ĠCl uster
ĠJew s
ĠD oc
cate gories
uten ant
at ta
ĠPro gramm
ch arged
Ġfla sh
Ġphra se
ĠT D
ins ki
osc ow
d ig
ik es
Ġold est
ec tic
ho ps
Ġavoid ing
Ġs elling
Ġgeneral izes
icon du
loy ment
con sidered
ĠPe ak
itzer land
k now
j s
book s
Ñ ĥ
and o
av oid
Ġcho oses
Com paring
Ġmill ions
Ġf lying
play er
ĠAff airs
F ra
Ġn ested
r p
cell s
Ġlo ading
Ġsuper fluid
Tra ining
3 45
)| $
ĠMC MC
ĠTur key
text qu
Ġdetec table
Ġmanip ulation
ĠOffic er
Ġre ject
ĠMar ia
Li ke
abul ary
Sing le
Ġ& :=
par k
Ġreflect ing
Ġsub manifold
ĠĠĠ čĊ
i int
a tivity
ĠR A
dist ributions
. ),
Q N
Ġp od
U P
Ġqu iet
00 9
is ible
ri k
Ġwould n
19 14
ĠE ss
ĠHigh way
Ġamong st
fic ations
C FT
Ġmic rowave
Ã ¸
Ġflav our
M atrix
15 1
F O
U L
Ġcour ses
Ġrac ing
ĠP ass
ĠA PI
' )}
in fo
ogon ality
[ [
Ġso il
Ġframework s
Ġfluct u
Ġgu y
Ġgradu ated
u f
sur vey
Ġw ake
ĠS ite
^{( -
b z
Eq n
Ġre vis
ex pression
Ġt on
ot ter
Ġcomp uters
Ġsp ending
Ġspread ing
rac tical
ig e
ĠL M
ĠCal c
Ġcogni tive
Ġbro ke
tr unc
I ts
ĠJ ac
S k
h p
Ġcol linear
ha i
Å Ĥ
ed ral
ad v
B rown
ĠH otel
ĠR NN
bm od
Ġaxi oms
ĠE T
: \,
Ġteach ers
ar poon
Ġpo sitivity
Ġtit led
AC S
decom p
Pre liminaries
g rowth
Ġin elastic
as pect
ab stract
bra tional
ĠB P
ordin ary
. '
d ale
circ led
Ġsh oot
ĠHear t
Gamma c
v ation
ĠP N
ĠG il
Ġconven tions
Ġpack ing
Ġpion e
Ġ$\ #
V ideo
Ġhealth care
ĠS av
ĠC r
ĠR yan
F ermi
Ġnonlinear ity
M as
O ff
33 3
ĠHes sian
av egu
}] .
Ġtrig gered
se lected
Ġthous and
}{ {
ĠP redic
15 3
rest ling
is hi
ymm etry
Ġweap ons
arg o
Ġsubt racted
ay an
au di
ĠDi ego
ic ide
Ġent rance
Ġnovel s
] ^{-
Ġch aos
Ġmod est
}( {
ĠF ock
Ġtriang ulation
re ason
Ġsub mission
| )
Ġdesc ript
Ġcompe te
K o
Ġdifferenti ation
Ġ tick
ĠTh roughout
Ġn odal
0 13
Ġextra cting
Ġprem ie
ĠMach ine
us ually
Ġrapid ity
in ian
Ġadv ances
ĠFe b
C os
Ġfla res
Ġadop ting
Bbb k
Ġm ine
po or
Ġrandom ness
Di rac
)) ^{
Ġbright er
ĠM oh
ĠJ ava
Ġfore cast
20 2
Or der
Ġport folio
ĠP I
b ases
ĠJ ane
' }$.
ĠM ilitary
ĠÂ ·
U M
\% }
Ġwatch ing
' )$,
Ġep ide
linec olor
d E
ĠBo y
ach er
f its
ĠMis souri
19 15
Ġis ospin
oc a
Ġwave let
ĠG h
Ġanti fer
Ġpresent ing
Ġdivis ors
ĠS el
ĠEx p
Ġyour self
ĠMan chester
Ġslic es
Ġro bo
ĠBel ow
ĠV ice
atch ing
Ġinstant on
pr ising
for mulation
,\ ]
Ġdes ire
v ens
ĠP DE
J D
18 8
ess age
ĠInte gra
ener gies
Ġun seen
Ch ris
bul k
Ġa er
EC T
ĠIn s
Ġnavig ation
_{ [\
h uman
plan ar
] \,
Ġglu ons
K h
M en
19 32
ĠHol lywood
ĠIs la
reat ment
Ġfrag ment
K n
Li pschitz
l g
}$ =
= >
Ġd ans
ĠS quad
re q
pseud o
ĠT ennessee
ĠG T
ĠK lein
st op
Ġsh op
Ġd ash
Ġow ing
Ġgri ds
19 27
Ġeng aged
ĠO S
frac tive
Ġdepar ture
l q
ĠR ac
ĠBay es
ĠM es
Com mun
Ġ !
Ġsec re
Ġtop ologically
app ropri
ĠQ SO
Ġcontext ual
Ġis ometric
fact ors
configura tion
ma ssive
he avy
Ġforb idden
ene z
v t
arg min
eler ation
ĠM art
Ġgu idelines
)| ^{
ĠW olf
Ġret ro
n odes
Ġh ang
< $
Ġfer romagnetic
R V
Ġa ud
Ġpropag ators
Ġro yal
ĠT ak
ra ther
ov ich
Ġmet ers
Ġdiver gences
)} }$
S ample
en cing
ĠInd ones
Ġch ap
rib ute
\!\! \
Ġgovern or
P osted
F rench
AB C
ĠCal abi
v u
da ble
om eters
os ph
}} |\
ĠM T
k ish
om ics
correspon ds
Ġrefe ree
iden tity
ĠCap tain
ĠB L
^{* }$
d q
la im
ff ee
ir th
Ġwor lds
valid ation
deg r
Ġcontact s
ĠTown ship
um ination
K ar
Ġs lab
s it
ĠG lo
Ġear liest
' /
con jecture
ĠH ER
Ġpre val
ĠFore ign
Ġfeas ibility
lb rack
bas elines
compa red
c ould
ĠCo hen
Ġpush ed
Ġb esides
Ġperiod icity
h on
inte ger
Ġfro zen
ĠI ce
19 10
ima ted
Ġwave form
Ġredund ant
co efficients
P ower
ĠJ ay
Ġconsum ers
Ġ| {\
L ife
19 22
* }{
Ġconcept ual
Ġdivid es
Ġp ray
Ġre feren
N etwork
Ġmul tim
17 4
vers arial
Ġport ray
Ġma xima
Ġgener ically
19 24
& (
te es
weg ian
| .
Ġbe auty
ĠS ource
Ġsil icon
ĠĠĠĠĠĠĠĠĠĠĠĠĠĠĠĠ ĠĠĠĠĠĠĠĠĠĠĠĠĠ
Ġrest ored
In f
G erman
ĠR ub
Ġspect ro
Ġthermodynam ics
Ġunivers ality
Ġingre dient
Ġin consistent
Ġmultiple t
Ġexpla ining
j ets
pro fit
ĠD am
Ġjournal ist
Ġdip lo
Ġvis its
cont ent
ĠU E
Ġpo et
Ġnever theless
d der
inter actions
ĠSci entific
ill ary
Wh ite
perturb ed
end o
Ġcap turing
ĠBlo ch
.} ~\
class es
Ġvio lated
ĠE mb
0 75
ma sk
ĠS VM
ĠC ulture
c ro
Ġdise ases
calc ulated
J e
' }{\
\, {
S il
Ġw et
ĠProper ty
out er
ĠBo und
ut t
Ġwith draw
ps fig
E valuation
Ġtriple s
Ġdisc rimination
Ġtrans parent
Ġlater al
pz c
Ġbreak down
Ġ\\ &\
16 6
ris k
Ġcompu table
ĠE r
Ġpresid ential
ure rs
Ġro oms
E vent
Ġth r
ĠLe vi
ma d
Ġob lig
ĠPri or
}} :
Ġadverti sing
li ve
Ġre named
b ridge
n umer
Ġred den
ĠAc cess
T rack
Ġped est
igen ous
Ġprogen itor
ĠMary land
Ä į
co herent
an th
Ġinc en
Ġ| ^
Ġs essions
em e
ĠO R
Ġgroup oid
B lue
b ab
Ġmon oid
lo ading
Ġb unch
ĠDo ctor
Ġman agers
met all
v d
. :
Ġen force
ĠB run
Ġbe ar
Ġer up
Ġfi b
Ġp iv
Ã© s
] }{
Ġantis ymmetric
Ġsp urious
len eck
Ġi ii
Ġare n
0 24
g ressive
Ġen comp
F ield
ĠB essel
19 16
Ġc r
ren d
ĠL ink
vi ate
P res
ĠDe ath
ĠRam an
ĠIo T
Ġcompac tification
nod ata
Ġama zing
Ġal loc
equ ality
th ird
Ġm ales
ĠG un
Ġfunction ality
on der
17 1
pro ject
17 7
udi o
Ġstabil izer
Ġgen uine
ĠRo berts
_* (\
Over all
Ġapproxima ting
C ha
ĠN ich
Ġref ine
W itten
Ġoutflow s
end ment
16 4
ĠRegion al
ĠG M
ĠCo ok
on z
qu as
/ }
Ġtran sitive
c g
Ġpa ired
ĠMN IST
is omorphism
b ys
19 6
V R
cite alp
1 200
ĠDe ad
del ay
maxim al
Ġcollect ing
19 25
}) .}
Ġprob es
nov ation
s tive
og y
22 2
ist inguish
Ġoutper form
M i
h il
Ġsh ar
si e
16 2
Ġindic ators
18 9
Ġaccommod ate
C K
Ġda mag
c T
ĠF ederation
ĠR id
' :
$- $\
Ġrequ ested
complex ity
f arcs
ĠK er
}$ }}
ĠR ow
li ance
Ġcor onal
Ġsp o
iden tified
ĠU pon
trans form
row s
Ġmon odromy
Ġquadrup ole
de velop
$. )
isot ropic
}| }
19 26
Ġw aven
ĠAd vanced
ĠG B
Ġrepul sive
ĠH E
Ġf ain
ilibri a
ĠEgy pt
ĠM DP
ĠF ight
viron mental
Ġemo tional
ĠCho ose
Consider ing
sho ck
W L
out s
Ġn eck
Ġj un
ĠSil ver
cc i
ta h
ĠPat rick
ĠL inear
ab und
integra tion
ire cted
)} |
Ġas ks
19 31
ĠSh er
Ġad mitted
Ġmet als
Ġhome omorphism
Ġim pressive
ĠUk raine
Ġdiagnos is
ark s
Ġcl umps
ĠD G
( )
t xt
iv ity
ti sts
Ġ\ }.
m x
Ġs ter
)\ |^
)] .
}^+ $
m eter
Ġatten uation
L earning
ĠI r
ĠI a
mod al
ĠD ep
ĠP ow
ĠAl ternatively
Ph ot
}$ '
y x
Ġs keleton
Ġenem y
Ġsty les
Ġconc ave
H en
ist ence
Ġdri ves
Ġposi tively
Ġsk ill
Ġb ic
Ġpar liament
Ġen l
ĠSen ior
Ġpersist ent
ĠS ample
99 9
$\% $
}} [\
P al
ĠRe LU
Ġrecor dings
ĠK han
Ġappro val
ĠPro p
Ġpredic tor
Ġt ac
Ġsit ting
P ath
Ġdis ordered
Ġv eter
Ġcentral ity
fe atures
Ġcorpor ate
Ġthe atre
Ġst reets
ĠPal est
ĠD ol
co in
Ġdeep ly
Ġiner tia
Ġaccompl ished
Ġquar tic
work s
M il
Ġcompe ted
Ġenerge tic
Ġsummar izes
B ern
res pect
ĠAss oc
J apan
correspon d
Ġcovari ates
p ion
Ġenter tainment
ĠTra de
si vity
Ġtra il
ĠB ou
AC E
Ġtre ating
)) )
Y es
Ġat tor
AT L
en tative
osp heres
Ġattack ed
ĠA TL
Ġex clusion
math pzc
ci ties
)$ \\
ev a
z hou
sup seteq
_ -\
ne e
sc i
ĠM att
ĠM ars
Ġenc odes
ĠHol y
T ele
ver tices
Ġag ed
che t
Out put
uma bly
ĠN ar
u ese
ĠH ans
fi ve
Ġlin king
Ġlo ved
" |
J S
) ;\
b q
Ġn ic
Ġvirt ue
hold ers
or on
AR S
ĠT es
eg el
Ġri de
ifferen tial
Ġcommu tation
ar bit
ĠM ap
Ġpass engers
& {\
Ġneb ula
ĠCol lection
rep rene
Ġs ali
ru c
rac ies
i q
ĠQu ar
M er
Ġtend ency
I tal
23 1
Ġrele ases
squ ares
ub ert
own ed
control led
G i
Ġdoub ly
ĠAnth ony
Ġ$ >$
ĠL MC
ĠG ordon
Ġte en
\,\ %
tw isted
Ġfoli ation
ĠThom pson
Ġte lescopes
H on
Ġbir ds
Ġhist ograms
Ġf ranch
M yr
iv an
W u
Ġprov ision
ane ously
pro por
Ġconstit utes
Ñ ı
ĠLab our
acknowledge ments
aff ine
in ations
Ġmed icine
Ġvisit ors
Ġprovid er
ear ly
ect ing
Sim ons
ĠHous ton
ty le
0 40
PC A
Ġcorrel ators
AL L
ĠP E
Ġbo at
Ġop tics
ĠLorentz ian
ction al
ale ph
ĠH ubbard
is i
Ġsus pend
ĠSt ructure
Ġsu it
prin ciple
Bigg l
w rite
19 12
Ġbo ys
pro blems
Ġen titled
mem ory
17 8
Ġselect s
Ġview point
Ġlegis lation
t owards
Ġthera py
Ġste re
Ġpar ish
Un fortunately
Ġch ip
Ġ tic
Ġ )$.
Ġin evi
Ġb aby
ĠN ik
m ol
ĠM oscow
New s
pair s
ĠE ve
16 9
Ġec ho
ĠI owa
ĠBe the
ĠK os
ĠA verage
18 7
p here
vari ety
ho ur
in z
to on
Ġfe els
Ġpeak ed
Ġcompi lation
2 90
Ġspecial ized
ho ma
Ġpla cing
}\, (
Ġsl it
respon se
j m
0 14
A H
ange vin
K G
Ġat tractor
Ġvis iting
structure d
Ġl ifted
18 4
Ġdemonstra ting
sim pl
st rict
Ġ\; .
ses sion
Q P
i mation
inter cal
}, ...,
Ġref used
Ġv ital
Ġro ads
Fil m
ĠS eg
Ġun correlated
ate gory
ĠPri vacy
Ġshell s
: (
la tex
Ġstrate gic
Ġunit arity
yp ically
bar a
pp ers
ec raft
g onal
n ie
Ed ge
adj ust
si x
Ġoscill ators
irrep bar
lab ama
{ ,}
Ġ\ }_{
Ġmaintain s
t ar
Ġh az
achel or
ĠD ur
Ġcooper ative
}} ),
Ġad ults
ĠAr k
Ġalgorithm ic
}- (
19 23
Ġin formative
Ġpartition ing
Ġel ig
Ġaltern atives
j ump
satisf ying
un ion
Ġk nock
Ġpul led
Ġrad ar
ĠS in
rug gle
c x
Ġthread s
Ġdest ruction
Q M
Ġsw itched
Ġmonomial s
] }{\
par ty
end ar
Ġcorrect ness
$ ''
Ġunit al
ĠLin col
neut ral
ĠR an
Ġcele brated
Ä ±
Ġ ,\\
F ran
llig ent
Ġemploy ment
Ġtransmit ter
Ġpre vents
b ian
Ġgeneral ised
$& $\
Ġmulti ply
ĠF ive
Ġfir ms
3 65
ĠS pr
tis tic
J L
scal es
Ġcompens ation
Ġsem icondu
Ġdiscontinu ity
ĠB us
F a
Ġsupp lementary
}}$ }
ĠM B
B orn
trans formation
ĠTok yo
sol ar
end a
~ ~\
ob tain
Ġsta ke
W ar
Ġellip so
ol k
Ġinsu fficient
ĠCap ital
D IF
}= [
ĠB reak
Ġpro poses
b at
Ġcommu tator
V e
Ġpre cession
ev ing
D O
we alth
Ġparticip ant
Ġcomp os
Ġinv ited
Ġemphas is
Ġprun ing
ĠR M
Ġdiscus ses
ĠP ed
Ġrecur sively
ĠBer noulli
s ell
ĠPla ce
ĠClo ud
nice frac
Sim ulation
Ġpromo tion
pop ulation
We b
ĠLeg is
P lease
): \
M arch
R u
Ġan ne
Ġqu ies
Ġcommit ment
S at
in ch
ĠB urn
ĠMat thew
Ġfac ial
Ġshift ing
Ġellip se
19 21
Ġsmooth ed
L ip
ol ding
Ġpre ci
ti ans
L im
ĠK u
quad ratic
Ġru g
mod ified
ne ural
D H
S mith
Ġprovid ers
ĠE X
Ġcomp oser
ser vers
Ġremn ant
Ġfor t
$ ^+$
hol omorphic
Com ment
Ġser ial
corre ction
Ġsucceed ed
Ġsurprising ly
r ally
ĠPla yer
Ġhard ly
Ġdecom positions
ĠJ os
inc ial
Ġheavi er
Ġinter play
Ġd imin
ĠL L
/ [
_{ ,
t os
ĠF IR
BH s
Ġtw elve
La TeX
Con versely
x size
r ar
Ġapplic ability
Ġstack ed
ĠA belian
Ġre lic
alla x
Ġreprodu ces
Ġin aug
ĠN ag
t um
ri tic
T B
ĠK y
ĠHow ard
em ed
Ġexhib ition
ĠMel bourne
ĠG ard
ine quality
ĠM rs
epsf xsize
ch iral
ĠK evin
Ġbubble s
Ġtang ential
Ġsuper potential
Ġvulner able
p olicy
Ġput s
Ġcondens ation
20 7
ĠIn dependent
so und
Ġk a
ĠMex ican
' )^
Ġbut ton
Ġ }^
on line
ĠHaw ai
~ }
ĠBet ween
Ġmu tation
Ġrecal ling
}~ (
Ġg uil
)$. }
Ġdep ths
Ġquanti tatively
Ġcompris ing
H or
theore tical
Ġg y
Ġsemic lassical
ĠM E
- ,
ĠN IR
labor ation
W omen
20 4
17 3
Ġemer ges
radi al
}/ {
Ġassign ments
Ġcommunic ate
Ġminor ity
2 12
Ġpay off
om on
ĠN ev
Ġ\| _{\
h owever
Ġemit ting
ĠC lin
19 4
Ġoptim izer
ĠAd ams
ĠSw itzerland
Ġw avegu
Ġar rest
Ġemplo ys
W ell
i ang
om ical
Ġde leg
hib ition
ĠC ore
f li
Ġviol ating
> =
B ell
restric ted
Ġcomm uting
Ġoffic es
Inte gra
la homa
wh el
occ ur
Long rightarrow
S cal
k p
so v
Ġdis mis
repres ent
eg er
ĠS r
ĠM U
Ġdec l
Ġlic ense
ĠA ra
Ġla ke
] ^\
Ġcondu cting
! âĢĿ
ĠO DE
ĠGre ece
Dist ribution
Ġflu ids
Ġhigh way
Ġsp ans
ĠG A
ĠSw iss
ð Ł
Ġweek ly
Bigg r
Ġdis ent
R O
Ġt ank
Over view
v id
ĠR est
Ġ\! \!
con ven
I O
for table
Ġconstitu ent
b Z
worth y
am ard
d op
oted bl
Ġal located
ĠM ol
Ġexhib ited
Ġre versal
ĠMed al
Ġampl ification
&+ &
ĠH erm
j math
ĠATL AS
Ð ¼
ĠRes pon
Ġd ies
H ilbert
\% $,
Ġgu ard
ple mentation
textqu otedbl
Ġw ings
Ġspecific ations
$- -$
cos m
ĠB ry
at ar
integra ted
con cent
Ġvictim s
ĠC ape
chron ous
ti ent
Ġdeco herence
Ġsp oke
ĠK am
Ġdemonstra tion
-------- --------
he ating
Ġpo etry
tic a
Ġacc used
pol ating
Ġf m
ĠK an
tab ase
Ġint rac
fl ush
ĠB uck
sc ience
ĠOb viously
Ġdo se
Ġappre ci
rest riction
Ġ($ (
Ġ\ },
ke ep
ĠTai wan
ĠN ature
T ur
20 23
Ġcoinc idence
Ġille gal
G lobal
48 0
Ġpas sion
ĠP ick
bin ding
be zier
ĠFred er
g ain
ĠD ave
ĠAccording ly
spec tive
Ġ ĉĉ
ĠEcon omic
Ã º
d ust
Ġorigin ating
ĠE V
Ġcomple ting
ĠCh an
Ġel ong
Ma jor
Ġequival ences
~$ {\
Ġalgebra ically
Ġexec ute
ĠSta ge
Ġenjoy ed
studi ed
Ġlog istic
enta tives
C lo
Ġcontro versi
m us
Ġchar ging
17 2
ĠAnd roid
si le
statis tical
Ġdim er
pa y
ĠS ti
Ġsu i
effici ency
$ )}
ĠM eta
Ī Ĵ
0 22
S mall
Ġo u
ĠCol on
Ġs tick
arc min
Ġtempor ary
Ġsp ite
Ġr um
Ġcent uries
19 3
Ġint rig
su it
Ġcategor ical
ĠMor se
Ġpredomin antly
om ed
Ġdivis ible
_{ _{\
Ġas set
Ġper colation
ĠSing le
Ġsaf ely
Ġdis connected
ĠS even
ĠM SSM
Ġins ert
Ġdeco upling
ĠM echan
ĠG as
ĠM ove
spec ified
Ġdeb t
Ġpredic ate
ĠY outh
feas ible
Ġadd ressing
ĠAust ria
con ditional
Ġorgan ic
den ote
Ġcons ult
Ġvo ted
Ġgra ding
ĠB ureau
R oman
Ġformula tions
ĠCas imir
Ġto ugh
ph an
18 00
om etries
ĠRec ent
ĠF OR
Pa ul
ap y
ĠFirst ly
Ġcoach es
ĠS elf
' )=
H ard
Pol y
ĠW u
Ġtransform er
Ġreli ef
Ġf li
Ġtra v
Ġtrac ed
dete cted
Ġpla tes
ĠEx pl
Ġ }_
Ġaccum ulation
Ġs pherically
ex change
suc cessf
ga thered
measure ment
Ġc rack
jec tivity
Ġdevelop s
Ġex cluding
0 35
Rec ent
or ms
Ġf asc
Ġconjug acy
ĠAl bert
Ġ till
depend ing
Ġn um
Ġclar ify
y ellow
Ġun labeled
Ġqu atern
Ġel imination
neut rino
Ġw ine
ĠY e
Ġnormal ised
R iemann
k im
Ġas semble
K R
Ġfo cal
Ġchair man
Ġcoun ted
}\ }\
Ġrestric ting
Ġprin ted
Th anks
ÃŃ a
Ġline width
discus sed
ĠMor gan
Ġlibr aries
28 8
Ġbar riers
! (
measure ments
ides pread
Ġbin omial
F ore
Ġdiver ges
lect ing
ol er
ot er
Let t
b la
s low
produ ced
Ġscan ning
Ġill umin
ump tions
ĠW atch
Ġspeak ers
evalu ation
Ġleg i
te o
ĠR on
trans lation
pan el
buil ding
ĠZ ar
mod ular
Ġcharacter izing
ĠS B
Ġawa reness
ur us
tor us
Ġemo tion
Ġout break
ĠI M
W ave
Ġobsta cles
ĠLe vel
propag ation
Ġb ending
Î µ
Ġres erve
ĠM LP
ĠM iami
{ +}
Ġhe mis
id ently
Ġparticip ating
17 9
ĠĠĠĠĠĠĠĠĠĠĠĠĠĠĠĠĠĠĠĠĠĠĠĠĠĠĠĠĠĠĠĠĠĠĠĠĠĠĠĠĠĠĠĠĠĠĠĠĠĠĠĠĠĠĠĠĠĠĠĠĠĠĠĠ ĠĠĠĠĠĠĠĠĠĠĠĠĠĠĠĠĠĠĠĠĠĠĠĠĠĠĠĠĠĠĠĠĠĠĠĠĠĠĠĠĠĠĠĠĠĠĠĠĠĠĠĠĠĠĠĠĠĠĠĠĠĠĠĠ
si di
oy al
Ġinvest ors
c ision
Par ameter
V a
s hire
K O
R en
ĠH aving
Ġsto od
ĠInt roduction
Ġb orrow
ĠSt ars
rem um
ber ry
an ne
}' ,
Ġcompe tit
in ternal
ig rants
tal ion
per fect
Ġproble matic
Ġsur rogate
W R
Euro pe
Ġd eter
Ġasso ciative
Ġe gg
6 50
Z h
! "
C re
Ġf urn
Ġexem pl
h ape
at um
squ ared
3 40
D onald
Ġ= -
orbit al
ti um
b eck
ĠI d
tes ted
sc reen
ab lation
Ġbuil ds
Ġs ed
ĠF al
Ġlaw yer
en sitive
ĠW y
Ġo d
Ġsub mit
ers tein
ĠD yn
J ack
ge ometry
Ġmeet ings
Ġinv ent
A tt
ut ors
C e
ĠCom plex
Ġpass enger
Ġactiv ated
ĠLim ited
Ġbro thers
Ġneutron s
u table
ival ent
bo ve
' }$,
Ġestablish ment
Ġbounded ness
Ġabsor bing
Ġaccum ulated
as ym
Ġmitig ate
U B
Ï ĥ
Ġpar king
_{ _
4 95
Ġp ad
U I
ĠC hile
Ġredu ctions
ĠLi u
om ent
ĠCom puter
âĢĻ ,
ins tead
R edu
Ġd yn
ms kip
Ġga thered
Ġd ating
te or
16 3
lec tively
Spec ial
ĠB O
Me asure
ĠD S
ĠKent ucky
Ġen jo
ĠM ic
dire cted
ĠJun ior
With in
sour ces
f ocus
ĠDef ense
ĠDemoc rats
fund amental
19 08
H i
s ong
Ġme V
buil t
Ġvoc abulary
Ġexam ination
iv a
in vestig
mog orov
de tails
Ġsu ite
ĠE R
^{\ ,
ĠB ush
ĠSta ff
top ological
Ġam ple
P rodu
ĠHy per
Cal c
ĠK elly
w r
Ġpack ages
hu ang
Ġh at
ci tation
cur vature
ĠN ative
ach i
D W
Ġan th
cap tions
big vee
Ġcal or
ĠSoft ware
are r
Ġfe e
$\ ;
^{ }_{
Ġwin ding
20 3
ĠL iver
Ġspace times
}}, {\
20 6
where as
lect ual
Ġti e
Ġconcaten ation
pa ths
Ġrestric ts
30 4
ĠL au
x p
Ġoscill atory
n ia
pres sions
un itary
ĠT it
s pherical
18 3
ĠDire ct
ĠE C
0 23
Ġra ising
Ġvilla ges
Un like
ĠUp date
IEEE eqnarray
Ġre act
ĠTem ple
20 9
Ġflat ten
or ne
The ir
ĠAd d
Ġdiagnos tic
ug by
Ġw elfare
Ġinver ted
Ġmetall icities
J M
ob jects
PR B
abin et
b A
Ġcoordin ation
Ġeng age
ĠD og
Ġresem bles
Ġbl ur
ĠG irl
M artin
ro ck
ĉĉĉĉ ĉĉ
Ġgeomet rically
sp ot
ĠI mag
Ġsp ike
Ġheight s
)$ ]
Ġsen timent
S ho
Ġmar tingale
Ġdest ro
ce ments
ambig uation
ir it
Ġgra ss
ĠAl ber
etro it
Ġparameter ization
Ġd am
Ġtrans l
Ġarc sec
local ly
B et
Ġra tings
P Q
Ġas c
ul se
)) -
ĠD VD
ex pec
defin ite
ĠN V
h k
Ġl ots
uck er
Lab el
N s
bur sts
Ġg r
Ġequ ilibria
sen sitive
f amil
ĠBar on
Ġ. &
}/ (
ĠPDF s
Ġreci pi
Ġmis match
Ġtreat ments
2 15
ĠW o
Ġs ph
Ġto w
Ġk in
ra it
}$ ~\
ĠG la
Ġquen ched
comp uted
Ġill umination
ĠPh ill
Ġaxi om
}_{ (\
M us
Ġc raft
Ġminim ized
Ġcri tics
Ġmer ch
J ames
% ,
assum e
align ment
Ġthough ts
Ġf ic
P B
hy thm
Ġqual ified
Ġt ric
Ġre lying
ĠVilla ge
ĠE ag
fol ding
Ġfas test
ĠFin ancial
ĠSh an
ĠMc K
N am
et ch
Ġcar riers
le ave
Ġapp s
ĠK ur
ĠCon struction
n umbers
Ġout standing
. âĢĻ
ĠT rib
ĠN ation
ĠT S
el der
Ġsemis imple
d F
f ish
ĠIR S
ĠA labama
ank a
Ġ$ +$
Ġavoid s
D eta
Ġstar ring
Ġsa v
Ġ& &&
ru led
Ġcompact ly
Ġexpec ts
v ich
Ġhit ting
Ġreserv ed
Ġfavor able
Ġtwe ets
ĠH ills
I a
in th
res sively
sim plic
V an
Ġvor ticity
ste ps
Ġph arma
ĠT un
Ġinte l
Ġrug by
Ġcom oving
ĠRo und
lat on
ĠV ery
ĠHigh er
(\ |
ĠB rig
ĠK enn
ad ditional
radi o
Ġele g
Ġexp atriate
Ġt ape
)\ !
k x
com par
_{ _{
ĠG S
ĠM itch
ĠS GD
omo tive
ren tial
Ġsepar ations
Ġrender ing
T O
Ġad min
ĠF S
ĠH F
Ġcompi led
ĠCov id
over pic
te rex
Ġconver ging
Ġdemand ing
Ġpur sue
Ġinter change
ectic ut
b ord
end ers
os yn
vi ol
Ġcondition ing
ĠMo vie
Ġsuccess or
_{ *}
we et
g ress
Ġopin ions
Ġdil aton
ĠC MS
A rt
ĠM unic
Ġreg ulations
v m
Ġto x
Ġformer ly
ĠE OS
Ġv essel
\! =\!
ĠC B
[ ][]{
Ġs ons
alu es
tor sion
ĠG Cs
: [
v n
Ġfla gs
ĠCl ifford
Ġinj ured
Ġm ent
] +\
Ġre jection
Ġreg ulation
con tains
Ġs y
Ġout burst
ĠS pe
ĠC ow
Ġremo ves
Ġob s
Ġarri ves
Ġflight s
H aw
triangle left
Ġs alt
ar n
: \\
Ġsyn drome
Ġgradu ate
med ium
men tion
ĠW or
Ġser iously
Ġrever sed
Ġaf for
DM M
4 75
re tt
ĠWal ter
Ġr ush
path y
ĠCom puting
z an
Ġtell ing
sh a
reng th
Ġw aters
re action
Ġintegra bility
Ġeng agement
Ġal cohol
\ ^
Ġs ad
ro tating
ĠL ane
Ġreti rement
Ġau ction
ĠH orn
r lap
Ġind istinguish
pend ence
ĠD ick
ed back
ĠE dition
Ġt all
ĠY u
\, }
amb ers
}' )
Ġhist ories
Ġincre ment
Ch rist
)\ ]
Ġti le
Ġobe ys
? ?
ul ant
l ived
Ġfle et
ĠF low
ĠLaw rence
Ġb ump
ry ing
Ġh aven
Ġaband oned
f box
Ġlight er
2 13
Ġdesign er
Ġsus pect
ĠF ast
ob jective
Ġac tively
Q E
Ġtal ks
Ġw idespread
B lock
L oc
f av
Ġprob able
baselines kip
Ġref uge
Ġsche matic
T ree
Ġpre condition
ĠY an
IN R
Ġp t
ĠK az
Hy per
y ou
pa ired
pro jective
ot ors
Ġsc ans
Pa per
ĠWeb site
ĠQ ED
polar ization
Ġcom ic
ĠD B
@{- }[
const ruct
ĠSing h
ĠF ind
Ġfree ze
Ġsk ip
ch t
ĠÂ ©
N B
Ġre form
ĠIn dex
^+ $.
sol ved
h f
process es
Ġcar di
ĠA p
19 07
oti ents
Ġpre gn
ĠIsla mic
Ġdomin ating
Ġmoun ted
Ġtransf ers
S am
Form er
ĠBase ball
Ġed ited
g ons
Ġst ruggle
Ġfact ory
Ġfore sts
wart z
ĠRay leigh
gh t
t bp
r ings
light s
ĠI l
ct an
ĠB uff
mon t
ob e
Ġlift s
sub fig
_+ ,
app y
Ġown ership
aspect ratio
itro gen
0 18
G ordon
Ġdiscre tized
Ass ociation
w f
ram ework
Ġelab orate
ok en
behavi or
I o
Ð ´
19 05
eterm in
Ġly rics
ĠPh oto
ĠDoug las
B ase
ĠSchool s
Z ero
Ġexam ining
Ġhom otop
ĠB EC
ĠH ugh
Ġinc ur
22 8
Can adian
6 25
la re
q n
is en
ts burgh
Ġneighborhood s
Ġsa ved
Ġbeh alf
ĠIsra eli
Ġmed ic
Ġsimpl ification
ĠC G
Ġrest oration
ĠHer itage
Ġeduc ated
Ġtra pping
Ġnomin ated
Ġgen re
Ġassign s
Ġat tain
Ġri val
Ġper ceived
16 1
Ġfinish es
Ġprom ise
Ġde uter
Ġgu ided
up ta
Ġautoma ton
}} }$.
aff ected
B an
R eturn
Ġal beit
ĠL oss
ĠAn ne
log arith
Con stra
ep tion
GB T
Ġelectro static
Ġdrum s
Ġceremon y
ĠP ho
rom ov
Ġro tate
Ġincorpor ates
k le
ĠR and
ss s
19 11
ĠGR Bs
Ġes cap
els en
itch en
ĠEx press
hier arch
M ad
ian chi
Four ier
ta tivity
C urrent
ta ctic
q c
T an
Ġ )^{
pack age
s yste
Ġneighbo urs
Ġconstant ly
f ire
Ġla dder
Ġ- {\
Ġbary onic
Ġcor ona
26 5
Ġcap tain
v ir
am ount
ces sive
Ġany more
ĠAust in
x iv
^{* }\
Ġcook ies
bro ken
ĠI mages
w alk
Ġa cyclic
cont ributions
Ġbr ightest
Ġgun s
Ġretri eved
ĠK el
ĠIn vest
M OS
eg ree
emb ed
19 13
ĠPro b
Ġdomin ance
ĠB lu
occ up
Ġorig ins
Ġcondens ed
C ode
it arian
q p
v w
ĠEar l
Ġorigin ate
Ġassoci ations
ĠF ame
ĠW alker
Ġmaxim ization
ti que
ĠO h
, &
I r
Ġv ox
Ġdef ici
Ġread out
De ath
Ġflo ating
uer to
ĠDist ribution
u racies
bro ad
an alog
Ġf ading
Ġwe aring
issi ppi
Con dition
Ġpe er
eg e
Ġpro sec
Ġgu ys
ap olis
0 27
Ġsatisf actory
Ġdiff usive
b be
0 45
s ense
Ġro tated
Ġadjust ment
f u
Ġquanti fied
\ }\\
he el
ich i
inter section
[- >,
Ġterm ination
set ting
Bas ic
{ =
ĠO H
V E
st en
ok a
Ġann ulus
}} }^
à ¸
ĠM os
ĠL D
Ġref lections
G overn
g aussian
z ag
23 8
mat r
volution al
Ġfra ud
Ġfail ures
Ġco in
ĠC W
Ġte ch
Ġso ul
uniform ly
h ill
x shift
Ġmal icious
h ler
Ġw orm
Ġjus tify
terex ample
Ġa side
Ġj azz
ĠD D
ĠE D
~~~~~~~~ ~~~~~~~~
ĠR i
h ome
Ġmay or
Ġcent roid
ov ed
Ġund irected
Ġc ave
Ġnon commutative
Ġcompan ions
ĠÃ ł
op ter
ĠCh ange
_{\ !
ex am
ĠR ap
38 4
Ġche ap
U U
ĠGa ia
co up
Ġliter ary
Ġglu ing
Ġbelief s
p ublic
ex pect
nu clear
Ġtal ent
ĠHar vard
Ġmorph ological
Ġapproach ed
ĠF le
ĠB ull
ĠTele vision
}$ ]
ro d
22 7
Ġcharacter izes
Ġstabil ization
Ġequ atorial
A W
ecom posable
L ight
b ia
ĠW ikipedia
ĠMay or
Ġfin ance
ick ing
So ft
comp utation
d W
P os
3 15
L ower
no on
ens pace
pect rum
Ġam enable
ĠOrgan ization
ĠAl bum
end i
)] ,
Ġpress ures
Ġint ent
Ġpur ple
appropri ate
ort on
Ġover whel
ĠCon v
Ġland ing
long mapsto
ĠV alue
Ġout ward
Ġenfor cement
Tho ugh
F u
0 60
Ġpos et
Austral ian
et z
ĠRepres entatives
Ġnecess ity
inu x
ĠAl an
ish ment
Ġconject ured
ĠC DF
Ġsupercon ductivity
ĠFellow ship
Ġnar rative
Ġdis continuous
z ar
Ġim mun
Ġast rom
ĠHistor ical
Ġvola tility
Ġg arden
Th ird
ĠK ron
ĠG arden
Ġ$\ {(
ĠAn aly
Ġspin ors
Ġsoft max
ck et
U D
es pecially
Ġoff ensive
F ace
q r
iss ance
com position
ĠE le
osc opic
Ġbelie ves
T im
it ants
ĠB log
ear n
ĠIn st
ĠCNN s
Bel ow
ĠAg ree
ĠPan el
Ġinflation ary
lip se
signific ant
Ġel der
S earch
}, {
F ont
Ġencoun ters
p atch
ĠL ev
Ġsupernova e
C ast
ĠM obile
ĠMar ine
nos tic
W in
or tions
or able
âĢĻ .
ĠAuthor ity
pis ode
Ġblock ing
Ġhead quarters
Ø §
ĠL C
um s
Ġdirect ors
ik a
}}_{ {\
^+ (\
ĠBer ry
Ġstiff ness
| ^\
ĠTra vel
Ġredden ing
Ġf ought
}} }$,
D ifferent
Ad ditional
Ġsuff ers
Ġg lo
min ute
Ġcoal ition
mes on
I den
b ons
reson ant
ĠH S
Ġsome how
ple ss
ero id
ĠD id
ĠR MS
ĠP eters
thod ox
L oss
Ġ\ `
ĠW right
22 3
{\ ,\
mu ch
Ġsl iding
Car lo
ĠBow l
St ructure
L apla
ĠAGN s
IG O
t in
Ġco ales
Ġencoura ged
K ing
" ).
} *{
ĠN aval
b box
Ġsearch ed
ir ds
^* ,\
An n
Y u
c et
Ġvis ually
Ġrac ial
comp ute
Ġleak age
pi ece
ĠB ottom
ĠP il
tis ation
T aylor
^* )\
3 10
T X
Ġre vised
Ġn ick
Ġinstit ution
son ic
entral ized
Ġla ugh
ac ute
ĠR equ
Method s
Ġmim ic
scal ed
Ġorigin ates
Ġ ''
Ġtransform ing
Ġsequential ly
{\ |
J une
comb ined
Ġele ven
N V
Ġen orm
ĠCh allenge
mo id
Ġany where
Ġgra sp
M is
Ġex o
IR E
ĠFor mula
ĠQueens land
U pper
k b
ap oration
ita t
cept ual
uff le
ore r
Ġper mitted
Ġre connection
Data set
\ })$
Ġvi brational
c R
tim ore
ĠR ather
Ġdec ides
inst ance
Ġst retch
C irc
Ġp ricing
Ġassign ing
ĠY ears
ĠE valuation
H ER
b P
in variance
Ġaff il
CV PR
ot ti
lef teq
ph ic
ann els
G yr
ĠI mport
Ġb lo
H B
ĠI de
ĠV la
> <
ĠVol ume
H as
0 17
19 09
M V
Ġp up
Ġanticipa ted
T om
N U
}) }.
N LO
ut z
ĠS ud
p rom
ĠAf ghan
Ġrep utation
18 6
Ġun iversities
ĠEx change
Ĩ Ĵ
Bi ography
um ph
continu um
ass erstein
J ones
ta min
Ġarrange ments
par ams
24 6
l iving
E m
Ġpo ison
ig s
ĠAl ong
Ġswitch es
P en
ĠFe ature
ĠC ay
Ġin n
cen tered
Ġpublish ing
Ï ģ
dec re
ĠPe ace
Ġmonth ly
imod ule
Ġoccasion ally
ann ot
Ġsup remum
f am
| /
mass es
impro ved
$\ ,\
Ġdeple tion
phon on
P redic
Ġ roman
Ġsh ed
till ery
> {\
ĠConn ecticut
IS A
Ġ\ @
Ġcos et
Ġca ta
Ġsuff ering
ĠArch itecture
ĠPortug uese
Tho mas
Ġpol ym
determin istic
A ir
ĠR ick
Pro f
del ux
}) },
Ġ" \
)] ^
^{* }_{
b ank
app ear
un skip
lov ak
q bezier
are to
Ġmis sions
clo ud
Ġsc in
fra ct
C oh
Ġres ort
po late
ism ic
Ġdro plet
ĠP rice
Ġdist inc
ĠMan ager
Ġcritic ism
A uthor
Ġdiscrimin ant
ĠT ag
Ġtop ologies
}| =
ext rem
F ri
order ing
A ction
}} )^
ĠRel ations
}\ \[
k ed
Ġh oney
Stand ard
j ee
Ġsymm et
Ġtuple s
it ol
Ġdec oupled
Ġsta dium
ĠLincol n
ĠW rite
hed ra
ĠEq n
Ġres p
in berg
Ġd ub
ur u
)\ |_
requ ire
ĠSecond ly
Tech n
Jan uary
Ġro se
Ġtub es
bec omes
S oc
so le
Ġprim al
}} }}\
ĠOk lahoma
es timation
" ),
Ġc able
A belian
Ġbe ach
ĠK S
Ġrec ru
L ater
ĠT rin
ti les
ver ty
Ġconvers ations
ĠT erm
Ġsol itons
18 2
ĠSch ur
clear page
{\ "
d ivid
qu a
ge on
] )\
ĠB F
Ġsim ulator
Ġpol lu
Ġmor al
ĠIndust ry
ĠMari e
S ources
Ġsepar ates
ĠSe attle
Ġhapp ening
Ġfriend ly
app lication
ĠS peed
Ġpar allax
sa fe
ra ge
similar ity
Ġresid ential
Ġwel come
Ġanalog ously
Ġbott leneck
S hi
n il
ĠA G
Ġadop tion
ĠStar ting
ro ids
id o
Ġviol ent
ĠVis ual
in burgh
is sa
Ġhol iday
mag net
S tra
ather ine
ĠS port
Ġiter ated
Ġpl enty
}\| _{\
Ġsynthes ized
M G
ĠRob inson
ĠU L
ĉĉ čĊ
color MAT
Ġdoll ars
P ort
ĠRes ources
Ġinflu ential
ĠMis sion
Et Al
ĠS tri
ĠB eng
}) ),
Ġdro pout
Ġvio lations
delux etable
Ġh os
ĠNor wegian
Ġch ord
ĠData set
Ġoff sets
ma to
to o
6 40
ĠT rac
d P
Ġsl ots
or us
im odal
ĠIn vestig
2 14
iff alse
l label
Ġh ub
Ġwork flow
30 5
optim ization
Ġstack ing
c riter
Ġ )$,
n old
Ġprodu cers
Ġsta g
Ġdata bases
Ġrestric tive
ogen ic
Ġintersect ing
al id
Ġpro ud
ss ues
Ġdef ensive
Ġcour ts
og raphics
Ġinnov ative
and al
posi ted
ĠR ank
Ġrece ption
ĠC ustom
*} %
Ġcol lo
im m
A GN
Ġtrac table
p he
ĠN ak
Ġoper a
AS E
Ge ography
Cl uster
ot to
pon ent
Ġg ases
Ġpo verty
Ġtor oidal
ĠA bb
ĠB it
ĠDel hi
Ġsub systems
| =\
r cl
Ġg lue
ci bility
ma tes
19 06
Ġfract al
]^- {\
ar atus
Ġins piration
r ity
paramet ri
ĠSar ah
}\, ,\
ĠAg ric
Ġfranch ise
ĠN OT
isk i
ocor relation
ĠA UC
Ġpol l
P rin
mic ron
y on
Ġp ions
ip olar
u chi
Ġsub tracting
ĠAd vent
Ġfore casting
Ġsuspend ed
en semble
ĠG ene
A pril
ign e
ĠAd ditional
sta gram
is omorphic
respec tive
D AR
Ġcongru ence
23 2
ĠAn t
,\ {
F re
Ġsec ular
hu a
=\ ;
spec ies
ĠSw ift
ĠW riting
ator ies
Ġderiv ations
Aug ust
A re
Ġflu ores
ĠSol id
R B
ĠJup iter
gra vitational
) )\\
| |_{
ĠF ab
Ġcons ent
un certainty
p v
ric ulum
ok s
col ored
res timate
ĠG amma
Ġstru ck
N H
ĠV GG
A ff
}_ -
ĠU T
la ce
ĠB in
Ġweb sites
19 04
l ia
ĠP b
va e
ĠRich ards
M el
it ure
Ġcon ges
ĠP rac
-\ ,
Ġin hibit
Ġla titude
domin ant
Ġm arch
ĠL ock
], [
restima ted
Ġinj uries
h orn
Ġl ane
ST AR
Ġdis advan
)) (
t k
ĠAl liance
v on
Ġmusic ian
O pt
30 1
m ut
inv ol
ac tivity
Ġresis tivity
Ġr ub
Ġsol vers
integra ble
O lymp
Ġdisc arded
corre lations
Ġelev ation
i at
^* }\
dimension s
ĠS MC
tun ed
ĠA x
col our
Ġmod ifying
new theorem
A uto
v ic
Ġ$\ ,\
Ġredu cible
split ting
ma pping
Ġprob ed
Ġmask ed
Ġemploy ee
Ġreco il
W il
Ġaggreg ated
Ġb ird
Ġassess ed
ĠN elson
c if
Ġ ties
ĠNone theless
A wards
Ġ`` \
ĠAtlan ta
" =>
b C
Ġperson ality
ĠBelg ium
\ }^{
y k
}} }.
ĠB D
xi om
Ġinser ting
Ġob servers
rat ch
Ġbra id
Ġcompr ised
vers es
Ġnucle ons
Ġexp ense
tr ig
paren cy
v k
ĠE oS
__ __
ĠHard y
Ġincom pressible
et ale
22 6
oc he
Ġwhere in
ĠIs lam
Ġsupp lied
ĠC le
Ġfain ter
b rand
suc ceq
ĠJ ason
Ġafter wards
Ġorgan isation
^* _\
ĠFin ance
H W
Ġfi red
y c
}) --
Ġdras tically
Ġ\\ [-
H N
ĠGra ham
ĠE FT
disper sion
ĠStud ent
| _\
approximate ly
Mich ael
on na
ĠS afety
Ġste m
ĠNiger ia
r ub
Ġmet res
certain ties
Ġeq s
L eg
ma tive
24 8
the ight
Con vergence
H il
Ġarm ed
Ġcub es
Ġh ate
a ti
we ights
ĠDo es
w inger
Ġeigens tate
plot one
Ġdirection al
f urther
ĠD ouble
Ġearth qu
23 7
predic tion
li ver
Ġgeneral izations
emb edding
co ck
Ġfan ta
tra ject
Ġd ressed
Ġb lu
ire ctional
Ġg raphics
ĠN ame
Ġti les
ĠSquad ron
no break
| \\
g d
^{* }(
Des ign
pos al
dis si
re cent
18 90
ĠR ain
$ -\
ĠT el
Ġinf laton
weak ly
Ġh ill
Ġdo ors
ĠPhil ip
Ġhospit ality
B ibliography
g c
ĠG O
Ġr uling
err ors
colorMAT HA
m illion
ĠD ak
ĠF ed
ext rac
Ġinf low
] $-
f olds
estima tes
is ta
ĠR ol
Ġste ms
Ġpolar isation
Ġtum or
d ar
Ġ\, {\
corre ctions
Ġal ive
^- ,
Ġsevere ly
ge bro
Ġch ronic
Ġfin ishing
Ġresi li
Ġc ul
}| _{\
ĠP V
Ġtem ple
x b
ĠGrass mann
}] =
en ix
produ cts
:=\ {
)} :
ax ter
ĠEx per
R un
ER S
me V
ring e
Ġorth ogonality
ĠI ron
Ġlight ing
Ph one
Ġinten sive
Ġresid ence
g iving
re levant
Ġpop ulated
Ġmark ers
ran ging
Ġsnap shot
B la
Ġpublish er
ĠR ate
Ġman aging
Ġill ness
Ju ly
S y
We ak
ĠFor ces
no un
repres entations
Ġshap ed
Ġign oring
{ <
Ġun resolved
pro posed
enc il
repres ented
Ġ`` $
Ġf uzzy
Ġdraw s
l um
or pdf
Ġen closed
Ġattempt ing
hem es
T N
ĠCom paring
ĠA bra
rom eter
A bs
s ent
Ġs ig
Ġsnap shots
Ġsupp lies
Ġ[ {\
Ġv ir
ĠO sc
mid way
cite author
jo in
J ac
sample d
mak ers
ĠU C
Ġpay ing
ĠM ake
tex orpdf
sw ap
Ph oto
Ġfem in
C all
m os
p ted
Ġgovern ments
Ġsp oken
spec ially
ĠM M
Ġde position
Ġhere after
texorpdf string
ak u
Ġpri ze
Ġarri ving
or ney
Ġprac tition
k an
Ġfol k
Ġg iants
ĠK ondo
Ġpow ered
ĠH it
sen sitivity
Ġsudden ly
ann es
lip tic
[- ]
gra v
Ġ Ã©
re ens
Ġhyper graph
Ġann iversary
Ġg ang
ou ver
Ġshe ets
ĠG ray
Ġemphas ized
bor ne
n ar
Ġutil izes
Ġhom omorphisms
Ġcancel led
e i
z one
Ġasymm etries
g ive
ens is
in corpor
mark ed
D ep
Ġpartition ed
ĠPh D
Ġwe igh
mu tation
f lip
Ġ= (
Ġseem ingly
Ġrecover s
ĠC emetery
Ġal tered
S b
ĠD etroit
Ġexpres sing
Ġmaxim izes
comple teness
Ob viously
calc ulations
ĠEd ge
nik ov
ĠS G
ĠHa ar
im an
ĠS ac
Ġinc o
Ġconstruct s
Ġorigin ated
M icro
E ducation
ĠO N
rin ks
{ ~
ĠE S
Ġmu ons
Ġl os
}' _{
Ġt one
Ġin hom
ev ents
Ġ. $$
IM P
ion ic
Ġun w
W al
ĠBe yond
ĠChar lie
qu ist
ĠB oh
F ind
pp o
ĠK at
,... ,\
om m
ph asing
ĠE volution
m rm
ib n
ĠDub lin
Ġmultipl iers
Ġtru ck
Ġth ro
ĠS ex
yi elds
as er
ĠLegend re
ĠComp ute
2 18
respon ding
Ġcard inal
character istic
bo y
Ġchurch es
ĠArgent ina
Ġ: \
B or
win ning
ĠH ell
Ġtran sc
ĠMiss issippi
P t
ing roup
Ġnotice able
erv es
R H
f ew
Ġsubgraph s
Ġ ridge
vers y
Ġinterpre tations
Ġbal ancing
Ġremark ably
Vis ual
Q S
b ic
ival ently
zz i
ether ian
c hemical
d uring
$ }\\
T x
ĠE mperor
cccc cc
\ }=
o a
ĠI mper
28 5
Ġrecipro cal
int ing
28 6
Ġeffici encies
Ġdro pping
Ġl ightest
Ġsho pping
B in
)! }
{ }{\
ĠSt rong
Ġmultiple ts
ĠW R
Ġd rink
Ġ\\ &
ĠDe an
Ġconf used
ul in
ĠM uch
Ġim balance
No de
S eg
Ġw edge
ĠL iving
ĠN LS
row color
Ġpa inter
cy cl
Ġins ensitive
W a
ĠT F
O A
Ġsuppor ters
abs orption
ellip tic
ĠBru ce
H an
Ġan ch
ĠC DM
Ġpri vi
Ġ} %
)) }\
Ġpred ecess
Ġspec ifying
mat ched
IN T
mes h
Ġagric ultural
j amin
ol id
ĠB ed
Ġs or
typ ically
Ġh ired
},\ ,\
|| _
P ark
ti z
at tack
T ak
Ġgroup ed
ob i
E mp
ver tical
Es tima
j us
og a
Ġg ay
ol sep
under standing
ple ts
m h
id ential
disc re
ĠCommunic ations
w ig
ĠF an
Ġspa ced
D ecember
19 1
ang ers
Ġcolle agues
sh ifted
R v
d rop
ĠK il
introdu ced
pla cing
Ġsurv iving
ĠF ern
Ġinterview s
ign ment
di vergence
In v
Ġoscill ating
4 40
}( |
beg ingroup
Ġstring ent
g low
Ġis othermal
ĠM AP
ĠW oman
Ġstro ke
ess els
ĠT ext
Ġabst raction
ruled tabular
Ġsing ing
N u
Ġfund ament
pres ented
Ġpush ing
Ġmention ing
ba um
S K
We yl
ĠH end
Ġper mits
ĠB B
ĠR y
Ġins ulator
ĠElect ric
meas urable
al ty
}$ &$
mon th
ĠPart ners
] _\
d ote
Ġmem ories
Ġexper tise
ĠAnton io
ab o
ĠU tah
ĠF un
so ciation
_+ }
S elf
ĠLiber al
per f
mit t
Ġdamag ed
ĠFin n
Ġcompens ate
Ġn ations
Ġal titude
24 7
ind ividual
Ġroll ing
ĠB aker
ĠN H
Ġlo aded
er k
ĠK on
Ġcent res
Ġinvolve ment
}[ ]
^{+ }\
O k
Ġn itrogen
ĠM otor
Ġprocess ors
Oct ober
2 17
ĠA A
by e
Ġchild hood
Ġwar ning
\!\!\!\! \!\!\!\!
b rown
Ġup stream
ĠA pr
Ġun ambig
qu er
Ġmo on
Ġlo ose
extrac olsep
fun ctor
level and
ĠSp in
Ġso ccer
ĠCh a
cor o
ĠLe o
Ġc ad
ĠJ a
An ders
Ġde emed
ĠTra il
Ġmy th
Ġglob ular
ĠPortug al
Â Ģ
pre ced
Ch ang
Ġhead ing
= {(
26 4
enum i
as ant
ĠH C
i w
Ġspac ecraft
Ġins pect
ĠTru e
S z
ex ten
com bin
25 7
Ġfound ing
illo uin
Ġaccess ed
Ġprog ressive
ect ure
ind ices
ens on
sequ ences
)| _{
Ġproject or
Sh ort
d amp
G ray
en vironment
ĠN BA
Ġcontroversi al
mate ur
Ġclassi fying
end or
fa ther
hy brid
Ġab lation
Ġincl usions
ĠCl inton
) '
ĠN eg
Ġreson ator
Ġcommission ed
mo ther
ĠJ en
Ġacceler ate
fill ing
Ġcon ce
Ġsh rink
ir m
ĠF u
Ġra ises
ĠStudi os
and ro
cap s
Ġgu ests
mention ed
ĠB erg
vari ation
ad missible
ĠD J
ri el
timate ly
Ġindistinguish able
ĠS z
Ġfirst ly
Ġre formula
ĠD OS
calc ulation
lar ation
Ġquies cent
Ġ& (
AC T
ĠD ie
neg ligible
qu al
Ġexpos ures
Ġb ronze
ĠM ul
f uture
ĠC ensus
ĠN ear
}$ --
* ,
Ġimp ed
Ġpaint ings
| <\
ĠT as
ĠC ele
ĠT E
Ġvot er
})-- (\
K u
ĠO cc
Ġste am
Ġtranslation al
Ġc rown
Ġsta cks
r w
ÂĢ Â
be h
Ġ ^{(
E volution
Ġ }\\
Ġfer ro
ĠC ost
Ġcla uses
_{+ }
Ġsee ks
Ġ= -\
Ġr ises
Ġfe es
ta k
ĠAppro xi
ĠS id
}_{\ {
co eff
Ġf ont
Ġhe ated
ĠN W
Ġscal ability
item sep
_ *}
{ ``
ĠR eturn
q s
ĠB aby
Ġexp ed
ĠTur kish
my vec
Ġtag s
' }^{
er ts
se man
Ġ ĉĊ
qu ery
ĠR C
Ġbroad ly
ij ing
D N
Ġreg ards
Inte restingly
ĠF all
S Z
ĠR ule
gra duate
I mages
Ġb es
i ation
# #
d og
16 00
des c
Ġnumer ator
pla cement
SD SS
Ġde part
25 8
W N
ĠA N
Ġpro s
den sities
ĠB A
Ġcomm ander
bor ough
Ġwonder ful
fa il
Ġiniti ative
l it
ĠArm en
Ġs ick
Ġpres umably
pre vious
Ġsub sidi
Ġbeg un
epsf box
Ġbus y
Ġob struction
O K
d an
ĠJ oint
T Z
ĠA GB
$, $
Ġthem es
Ġphon ons
}} }^{
ĠAd v
Ġsum med
Ġd ress
rac tible
pro c
hol tz
ĠAct ually
E uler
Ġdup lic
ir ts
Sta tis
l ang
ĠĠĠĠĠĠĠĠ ĠĠĠĊ
big otimes
Ġhor ror
R b
Ġinstal lation
Str ong
Ġco pper
ip otent
Ġhost ing
im etric
c op
d it
Ġde alt
ĠI CM
Ġconv ic
Ġcampaign s
pe tition
Var id
ĠP uerto
Ġrigid ity
Ġcoll ider
Ġyield ed
T ax
Ġb att
38 0
Ġexc iton
ps hire
j ud
l iv
ĠF ly
m etal
ic acy
ER N
S ig
23 3
top es
ĠExperim ental
st rom
ĠM ack
con tact
Ġneglect ing
ĠLouis iana
Ġhyper parameter
Ġ$| {\
ĠT ask
bo ards
ef ul
R X
Ġsen si
Ġlinear ity
Ġquasi particle
eder ated
ĠStan ley
ar ra
ol in
ĠAr chive
Ġout door
|}{ }
Ġultra violet
ĠGener ation
Lag rangian
ob a
Ġh ref
In dian
Ġind ecomposable
, (\
Ġat titude
d os
as ts
E mb
a fe
ĠO P
ĠEd inburgh
Ġp et
Ġj uris
W ho
In s
Ġresult ant
ĠDe te
Res Net
F it
Ġdis tillation
less ly
ĠLi ouville
' $-
Ġim poses
Omega f
B ob
per m
ĠB E
ĠK ings
] (\
ĠT err
ĠRus sell
Ġprofession als
\| ^{
dis ambiguation
Ġin qu
Ġb one
ĠSam uel
ĠCamp bell
Ġco ffee
ĠMark eting
ĠA le
Ġgra mmar
F lo
ant or
ĠChrist opher
ill ance
Ġinv asion
24 3
ĠEd itor
Ġdig its
ĠMor ris
Ġcollabor ative
Ġs orted
{\ #
rest rial
el ing
peak er
Ġpos ed
Ġess ence
ĠDal las
Ġh orses
)) +
Ġcompe titions
Sep tember
ar ctan
ac s
Ch eck
Ġ$ =
ĠC U
ĠC el
ag i
Ġdig raph
Pri or
Ġt ap
Ġhistor ian
Ġrec re
AC K
Ġ }}{
ĠD ance
ĠPro tection
Ġresem ble
ĠB h
Ġdefin able
O ffic
Ver tex
allow s
23 6
Ġseven th
Ġpy ramid
Q ue
ĠG round
continu ity
Ġattor ney
amma d
ke ley
ĠĠĠĠĠĠĠĠ ĠĊ
Ġhead ed
tw ist
Â ±
ĠN avier
Ġ} =
Ġperspec tives
[ {
h phantom
pla ced
tal ias
L am
ail and
exist ing
cite talias
Ġsc ar
Or gan
Ġsomew here
ĉĉĉĉ Ċ
ĠEv ans
Experim ent
s ti
T er
w y
di es
vari ants
Ġpro mp
plan etary
p u
23 9
ĠBrazil ian
Ġprepar ing
cali bration
dis joint
X u
ĠP ers
inter mediate
h art
- |\
swe red
Sch midt
Ġbrand s
Ġun constrained
ĠP P
Ġg est
Ġrepe ating
ĠL en
Ġcont racted
bra ting
Ġflav ors
ad ows
ĠFin land
Ġind oor
No vember
Ġthreat s
^{ {
ge odes
ht p
3 12
q i
Ġdistinc tive
)$ };
}) /\
Ġindu c
' ;
ic ed
cle an
C Y
Ġcirc ulation
Ġbol ometric
g un
it ories
adi abatic
ĠP ope
D et
Ġre ign
ĠB ab
Ġintrig uing
}\ ,\,
Ġ& {\
qu ette
ti fies
C ond
ĠAstron omy
able d
h is
Ġe at
Ġdoub ling
B re
Ġspec ifies
ve v
Ġpor tions
ĠCommon wealth
Ġelig ible
W ould
ub ov
ĠP od
be y
end group
ĠL LC
ĠR HS
0 26
separ ated
roll ing
Ġsecret ary
A rm
Ġh i
}} )}
Ġre vol
( [\
4 20
iqu eness
. [
ol ished
$$ {\
ĠCar ter
tt t
Ġswim ming
ĠM atrix
con sum
ĠDri ve
Ġappe aling
con formal
29 5
Ġpic ks
ĠM IMO
ĠP ersonal
Ġan c
Ġtrans versal
r z
po ster
Ġtrac ing
Ġrestaur ants
Ġterm ed
ĠDe tection
bran ch
Olymp ic
ĠInte lligence
Ġvari ances
ĠGu ard
L I
ĠLik ewise
Ġthe ta
ĠI F
Ġsui tably
Ġ })
Ġde posited
ĠPar ameters
ĠNC AA
Tag s
re rs
22 9
W i
Ġin form
Ġex changes
Ġk ink
ĠPublish ing
ĠT ax
Ġmod alities
ĠLiver pool
ad ded
Ġcondu ctor
Res ult
Ġion izing
Ġbe er
No table
Ġbre vity
Ġb ot
ĠP on
âĢ ī
|}{ $
Ġcoun ties
Ġconf ident
ĠConstit ution
ĠC rown
ortun ately
ĠCon vention
re tion
c um
30 8
Ġcollision al
25 3
Ġher itage
id ental
@ /
Ġredund ancy
se veral
ĠSet ting
Ġmixture s
Ġpay ments
or bits
Ġequal ities
Y Y
LT E
pan ies
c annot
U se
Ġde pression
o tion
Ch andra
4 60
Ġod ds
Ġ ub
s till
ĠD IS
diag rams
Ġdisapp ears
r ise
Ġn ights
}\ \\
Ġimmer sion
Ġb orders
W Z
id able
Ġreli ably
Ġlingu istic
em ale
Ġm irr
ĠIR AS
Ġter ri
)\ }$.
Ġup ward
)) }{
simple x
v g
su ally
ĠF ine
Ġre cept
Ġindust ries
Ġ$ &$
lo ch
Ġan swered
on ium
ĠSta t
Ġantifer romagnetic
ĠH ero
res is
Ġ} ;
ve led
&& +\
Ġcompl iance
iz z
Ġsh ots
ven ted
ĠChair man
Ġqu ote
) [\
Ġswe et
cite year
Ġz oom
ĠMur ray
tab il
monot onic
}} ).
ĠC ari
Ġdiv or
h bt
Ñ ĭ
Ġinher ited
Ġdocum entation
K ra
18 1
le ast
Ġsa ving
quark s
g ro
Ġd v
ĠMe mbers
ĠPal ace
Ġdiscrimin ative
ĠAn na
Ġplu g
l us
rain ian
gener ating
l ich
la yers
Ġrela tional
ĠX MM
ĠCent ury
Ġex isted
ĠDisc ussion
ĠBud d
Ġheter ogeneity
ĠB ah
roll er
Ġpick ing
Ġsim ulating
Th rough
ole cular
ĠDen mark
run ning
osen ess
GC N
> }
Ġatm ospheres
Ġsurv ived
Ġneighbo uring
; \\
ch an
ĉĉ Ġ
v et
ert z
Ġany way
\ )-
Ġan nu
Ġover fitting
ĠCh amber
K lein
Ġsh el
19 03
Ġidemp otent
Ġec os
' ).
In dex
Ġ\ ).
y f
ĠA V
col lapse
ĠM etro
lexi ve
Ġjun ior
Ġ< /
}) }(
Ġcor ruption
arbit rary
19 01
Ġres et
are l
P as
\ }}$
Ġs lip
Ġd Ã©
load ed
ĠMathe matics
B Z
ĠC over
perturb ation
g ri
le ased
J P
ĠSte wart
Ġn utri
c K
Ġj am
33 5
Ġdon or
vis or
Ġafter noon
Ġvisual ize
s pl
Ġdisturb ance
Ġsch olar
B ul
Tele vision
Ġb ridges
the astern
ĠBe ing
Ġencoura ging
Ġliber al
ĠPit tsburgh
ro oms
ho v
ĠK night
Ġinv alid
ĠH T
metall icity
ĠY a
ĠCro a
co inc
t g
w right
}}{ }
j n
p w
ĠS ain
pp y
Ñģ ÑĤ
6 000
ĠJud ge
ĠS OC
H istor
erm al
Ġb le
40 5
Ġcontra cting
heim er
ï ¿
st ress
ĠIn stagram
om i
erv ed
typ ical
Q G
ac i
Ġ( |
Ġver ifies
ĠQue bec
Ro bert
ugh ters
Ġvol can
Ġrest ore
un ted
N W
enn ett
ĠC redit
O G
Ġarchitect ural
C oll
arg max
Ġlight s
st ore
Ġg ad
Ġed it
ĠSm art
Y oung
pla ys
$ }}}
Ġca ution
$\ ,$
^{ |
ĠH ave
Ġcentral ized
}| |
Ġaccompl ish
f h
ĠB eck
Ġvalid ated
ĠRec ord
ph ones
ull ivan
real istic
Ġb end
ue z
Ġdel iber
anc ouver
um my
Ġimple ments
Ġinteg rity
Ġrever sible
Ġhoriz ons
Ġwaven umber
Ġtil t
{ [\
us c
b ined
30 3
H s
row ing
war m
ĠRes erve
Ġvac ua
24 4
cover ing
F amily
Ġen thus
30 7
C li
}} /\
Ġreg ulatory
Al ternatively
Ġfar mers
R i
v ideo
) "
S eq
ĠR edu
Con struction
ĠR ab
_{ <
Ġbur den
ĠHaw king
Ġmotiv ates
asc ular
\ }_
m ia
Ġintel lectual
s ort
oc o
PhysRev Lett
g w
Ġunder ground
Ġadjust ing
ĠP un
Tru e
5 60
Ġrepul sion
st ri
ĠF I
No tation
Ġcon scious
Å «
is te
Ġdes k
Ġutil ization
Ġoccup ancy
Ġre sident
rol led
s frac
ĠAnd y
Ġsustain able
Ġun necessary
pe z
Ġarch ae
D ri
mb b
ĠT u
Ġra tion
den ces
Ã ´
Ġpreserv ation
V o
Ġa ired
Ġmedal ists
M atch
e al
Ġmar ine
ĠInf antry
ĠM atter
\ {-
off set
Ġquen ching
ĠN ur
$\ {\
Ġpump ing
ol ph
per ature
Ġorgan ised
Ġisotop ic
or ously
Ġbre ast
ĠRog er
Ġtas te
Ġlens es
Ġspirit ual
Ġ| |\
P ress
Ġco cycle
Ġdet uning
) }},
}\ :
F K
w or
ĠO tt
Ġnega tively
ĠAng el
........ ........
S tation
Ġphenomen ology
Ġmathe matically
R am
0 28
Ġwork load
Ġed iting
trans port
Ġabund ant
Ġt ennis
Ġinterfer ometer
' }_{
emp irical
Ġleg acy
Ġpost pon
Ġ~ ,
ĠT ower
ĠS ay
ĠP G
Ġpre processing
Ġc inema
Ġsatisf action
Dire ct
ampl er
S r
p ublished
M ur
IF A
n ames
ĠMR I
Ġcrystall ine
de le
ub a
ĠColl ins
ĠG irls
ĠF ront
zz o
em er
no tes
ar u
Ġan imated
ĠT ig
Ġtim elike
ĠE mm
W P
in clude
Ġprob ing
Ġlist ening
abs or
Ġdifferenti ate
g el
sub t
ser ting
ĠBo ys
Ġsk i
ad ditive
sk ew
Ġjud ges
x c
Ġvi olate
Ġde fic
h in
Ġimp urities
ĠM AC
50 1
Ġent reprene
ĠHun ter
ĠPlan ning
Ġinter tw
Ġear n
E ll
.. .\
Ġobserv es
Ġdown ward
Ġreplic a
ĠStud ents
Ġenorm ous
ph ony
ĠPrim ary
Ġev il
ĠCan cer
ogn ition
Ġon t
Ġcer tificate
ĠDist ance
ĠT X
+\ ,
const ructed
l j
ï¿ ½
Ġ ×
Ġco fi
Ġc oded
H at
OR E
ĠAgree ment
Ġtic ket
= |\
tas tic
w riting
ĠE p
Ġconstra ining
' ))
et up
bet ter
Ġsign ing
b ag
^{+ }$
ie ve
ing ers
ĠAtt orney
Ġcrim es
D ark
Ġ($ {\
rins ically
App lication
han cing
ra pid
W T
ming ham
Ġsing ers
Ġprefe rential
se k
ho les
Ġback ing
En c
keep aspectratio
el in
; ][]{
| +|
ment ing
con taining
27 3
Ġoccur rences
ester day
Ġbare ly
ĠTrans port
char ges
ĠS ant
ĠRob in
ĠE ver
scrib e
F o
re versal
color ing
Ġdevi ate
re mo
ĠC ab
ĠG ary
Com plex
Ġ: =\
ĠBill board
ĠP atri
ves ted
Ġacknowled ged
oper ation
morph ism
Ġsyn tax
hic le
R Q
u w
Ġl ith
ĠC rim
reson ance
ĠHad amard
Ġphy si
ĠAss umptions
|\ ,\
^- _{
ĠEn vironmental
L ang
le af
res ulting
ĠE li
Ġfore casts
Ġtouch down
network s
andid ate
in ery
iden tification
Ġmon ola
Ġconst ructive
ĠSp itzer
d est
ĠH il
Ġab rupt
Ġg ross
N AS
c bs
ĠBe at
Ġfeed ing
Ġco hom
oper ative
Ġwavegu ide
Ġv essels
ĠC AR
abe tes
20 48
hyper bolic
Ġstay ed
we i
ĠIndones ia
is ch
as m
ĠV egas
Ġmesh es
Ġconvol utions
r x
ĠHon or
enez uel
Com pared
pher al
Ġmort ality
Ġveg eta
f requ
Ġpersist ence
ĠChar lot
ĠR AM
Ġretri eve
co efficient
Ġprom oting
ĠUn iversal
Ġcent red
Ġdiv isions
Ġremin d
trac king
}{ =}
Ġweak ness
Ġdu ties
ĠA dap
ro ut
Ġla min
Ġven ues
od o
Ġcontra stive
ĠEn vironment
IM E
$ }_
ay ashi
ira s
Set ting
Ġdispla cements
cyc lo
le pton
os ely
Ġdist ortions
Ġmarg inally
differen ti
ex ternal
ĠF ish
hat tan
app lied
&& +
, ''
J J
se ment
an al
p ush
en ne
^* }$
Ġinte lligent
3 90
j ournal
Ġdown town
az ines
Ġnor theast
re ver
ĠCl ar
Ġprevent ing
ola tes
ĠH ockey
Ġexpres ses
hard t
ĠSupp lementary
Ġdiscrepan cies
S ame
f are
ĠCom ics
Ġex ceptions
Ġblock ed
99 99
^- $,
D ay
G ame
Ġal umin
ĠB ible
g old
ĠV R
ou ch
^{* *
Ġmeta stable
Pop ulated
ces e
uds on
ang el
ĠHor izon
pro ved
Ġcharacter ised
ande z
l arg
ex c
Ġsub jected
ĠL angevin
Ġaltern atively
Ġsupercondu ctors
ĠAr ticle
Mean while
pos itory
Ġconver ged
D ev
Ġmain stream
Ġnormal isation
ĠMalay sia
ĠCh eck
Ġz eta
Ġtheore tic
ĠBas ic
Ġsuscep tible
_{\ {\
Ġ ult
}_{ {
tex theight
Ġsw ap
arch itecture
mis s
\}. $$
ibn iz
ĠJon athan
ĠIn put
}] }
anc ies
Ġqu otients
Ġhand ed
b j
ĠTh ings
we ek
ĠKol mogorov
k d
k ind
ow itz
Ġcontroll ers
ĠAL MA
Ġc ow
Ġfanta sy
Ġaut ocorrelation
ĠM ir
Ġstar burst
Ġl ip
ĠC urrent
ĠN ob
the tical
Ġconf ron
}_+ $
ul u
ĠA th
3 21
ĠR ing
coun ting
â Ĥ¬
Ad am
Ġhydro dynamics
I so
Ġal leg
ĠBar ry
C er
W rite
ĠQ uestion
sto ck
T erm
ac ies
U SA
Europe an
Ġencomp ass
S ize
C ut
R equ
as ions
Ġelectron ics
Ġre med
Ġe jected
Oper ator
18 80
J K
ket ch
lst inline
Z e
Ġim pr
Ġcomplic ations
stab il
Ġinco herent
Ġdeb ris
Ġscal able
rm e
ĠR osen
sing let
n ell
Ġar chive
cur l
Ġrespec ts
Ġiter ate
ä ¸
h g
ar r
ĠZe eman
ĠU ser
Ġdepic t
ĠCox eter
Ġpseud oscalar
ĠOr chestra
Ġsingle ton
Ġhospit als
24 9
ti ght
Ġsuff ix
neut ron
Ġlegi timate
ĠN umerical
q t
statis tics
ass ador
un ity
Ġreveal ing
pul se
N one
ies z
ĠPark er
ĠBr illouin
at m
Y our
Ġaff airs
ph oto
ĠG ate
}}$ \
Ġencry ption
G ro
R est
Ġcas ual
m holtz
Ġansw ering
Ġdial og
j t
yn chronous
ori entation
e om
sc l
ĠP le
f k
ĠA bs
Ġhard ness
ĠAlf red
),\ ,
te llar
Ġg olf
subset neq
0 90
Ġloc ate
ĠE rn
e mber
\! +\!
ĠSch midt
Ġ{ -
ĠC ell
Ġf iring
ĠG ulf
our t
Ġeigen function
ĠZar iski
G l
Ġcon cluding
Ġmod ulated
c ip
w b
lefteq n
ĠD ate
Ġmat roid
Ġbi ology
fli x
ar ts
im pact
Ġbi jective
atter ing
or ro
Ġbel t
ĠF E
Our s
ardi an
Ġcolon ial
ben chmark
Ã ¥
ĠR ud
26 7
pp e
dis p
Ġtor i
Ġeth nic
0 29
us tered
ĠT ob
Ġinst all
Ġtarget ing
Ġw ires
G auss
Ġenrich ed
H all
}= "
Ġb lues
Ġph osph
Ġcons ul
ĠS equ
m ps
Ġch at
Ġelliptic ity
L V
Ġfin er
Ġposi tives
ter y
depend s
vac uum
ĠJ azz
ĠĠĠĠĠĠĠĠĠĠĠĠĠĠĠĠĠĠĠĠĠĠĠĠĠĠĠĠĠĠĠĠ ĠĠĠĠĠĠĠ
pro cedure
Ġp orts
ot ts
Ġapp aratus
Ġtra ditionally
Ġhyper surfaces
ĠPl us
ĠP etro
Ġres ign
ĠRe ference
Ġcomprom ise
^{ +\
~$ (
Ġwish es
Ġt rem
ĠJohn ny
ĠEv ents
ĠC ut
ec m
J C
Ġoppon ent
Ġsub sections
ĠNe ed
Ġround ed
+ }\
ĠK as
Ġincre mental
ĠR ace
Ġsem in
ĠSen ator
Ġdistingu ishing
Proper ties
b ug
24 1
ĠL ess
ĠN LP
H G
ex pla
Ġhop es
ĠC olumn
Ġemer gent
ĠWar ren
Ġmoun tains
in ver
In c
end ices
ck er
model ing
ĠL INE
ific ant
top ology
# \
ĠL inux
ĠR X
oun ted
H uman
j b
ĠO d
x a
Ġexhibit ing
> [
18 97
oc lin
}} )=
et ta
Spect ral
Ġ( ,
ĠBal timore
ĠGri ff
R ail
ĠDan ish
Ġ ~~~
um i
ĠA bd
Ġlim b
Ġhol onomy
Sci ence
Ġin fo
ur st
mon s
AN S
k not
rane an
Eff ect
F rank
id i
ĠJim my
n z
ĠD ES
ĠKenn edy
Ġdig it
Ġinhab itants
ĠN ord
ĠM V
Ġclaim ing
}} })
19 02
bf m
11 11
ĠRo om
Ġjo ins
Ġdis ruption
Ġequ i
Ġop tional
Cho ose
Star ting
ĠUr ban
Ġend omorphism
ĠStrate gy
j unction
$$ (
ut ton
con tained
Ġh ip
ĠCon stra
Ġtermin ates
Ġsupercondu ctor
er gy
st y
Ġrepla ces
Ġreprodu cing
molec ular
l ature
posed ness
Ġparton s
vi Äĩ
eli ef
Ġeconom ics
oren stein
Ġst uck
( "
Ġdis aster
Ar g
ĠReview s
7 20
)$ _
fre q
c els
Ġs tic
Ġlo yal
ĠDe pending
Ġdeter ior
Ġappreci ate
red ited
Ġsin us
ĠG uil
horizon tal
P ad
Ġg allery
ang ent
Ġmultipl icities
Ġc ath
ĠG ross
mark et
ĠC BS
St ud
Ġn est
oc on
Ġless er
Ġca vities
d A
Ġsquee zing
ĠS ame
ĠPsy ch
tablenote mark
ide finite
com puting
Ġbo unce
F uture
ĠCol omb
ĠGal ile
ĠL B
L ink
Ġresidu es
Ġnum bered
Ġexceed ing
ĠA FM
3 27
table s
ĠPoli tical
M Z
ĠSt ore
pro files
it ous
z el
Ġf ishing
Ġmus cle
CO N
Ġresc ue
}{ }{
ĠAn nual
==== ====
O DE
bbe an
H Y
exp lo
ĠOper ations
Ġun ification
Ġden ied
ĠJu an
Ġcom fortable
ĠP areto
Ġcoun terexample
ĠBang la
ĠFreder ick
Ġun ve
Ġmon och
di ed
av an
Ġdef ence
Ġliter ally
W ilson
Ġannoun cement
c of
ĠVi enna
rat ory
f usion
fla vor
osc ill
Ġcy ber
ans atz
F lor
b H
Ġpre trained
Ġforth coming
Ġsu ble
PS L
Ġsetup s
ĠD ays
}(\ {
Ġexpand s
Ġ(- .
separ ation
Ġra mp
e ared
ĠM ik
Ġlack ing
eq s
L ittle
Ġpro l
Ġsub division
b vec
y cle
a pa
ï ¼
Ġab ilities
ĠS now
}=\ {\
Ġ rom
e lection
t rees
ĠL anka
D an
here after
irre ducible
St ring
$ }}\
Ï Ĥ
Ġ )=
ĠIn novation
}] _{
F l
D im
M ilitary
Ġ }_{\
coll ision
ma ble
erm ann
Sports people
S qu
}$ /
is cher
Ġoccup y
e re
Ġass isted
em en
ĠBrook lyn
F und
S chool
ffici ency
}_{ -\
Ġoptim isation
2 21
ĠIs a
ĠStatis tics
spec ts
ĠI L
Ġ= >
Ġtrac er
| ~
in ating
Ġeff icacy
25 00
Char acter
ĠB our
Ġ`` $\
select font
Ġtrav elling
ĠS uc
\\ &
Ġar tistic
Ġtick ets
ĠQ D
Ġexplo its
) }^{(
n ets
ol ov
S us
T HE
d as
ag ar
) >\
ri de
orph ism
Ġengine ers
ade qu
MN IST
is cent
che z
r ighth
Ġlo be
Q D
Ġwor ry
Ġex erc
go al
Ġappoint ment
M em
Ġbu ying
ĠG D
Q ual
unit length
ĠB rit
Ġ ~~~~
Ġdec ouple
ĠI an
Ġun perturbed
Ġlo ads
ĠBH s
C ard
g ow
M ah
Ġa partment
Ġnormal ize
Ġjus tification
ĠMitch ell
Ñ ĩ
ov al
Ġathle tes
4 25
ĠC rime
ap tic
ste ady
ĠAust rian
ĠSp irit
Ge orge
Ġmanif es
E B
ed it
over la
D if
b io
Other wise
Ġindex es
Ġb read
^* -
45 6
Ġroman tic
Ġpur ity
Ġconfir mation
Ġapproxima tes
Ġg od
Ġfav ored
a q
w hether
le ans
interest ing
Observ ations
dote q
Ġg la
Ġquanti le
Ġj ack
Ġdispla ced
ĠB io
st rength
Ac ade
{ }$
ĠR MSE
33 6
L AT
Ġhexag onal
Int ro
Ġ\ ;\;\;
}^* _
End For
E ast
S AT
N um
}) (-
lo oking
Ġsugges tion
T G
ĠDak ota
ĠH M
Ġsu icide
ĠO range
bys hev
Ġev iden
, |
Ġco us
Ġg ear
Ġweap on
Ġdec lined
ĠH P
co prod
ĠMc G
Set Kw
Ġundergo es
Ġ }$,
im i
Ġspin ning
ĠD elta
Ġclean ing
Ġrear range
w itz
stra ight
ĠEx cell
60 6
as aki
ĠM ind
Ġpa ce
Ġconc urrent
un es
Ġsp okes
Ġp df
ĠS ide
Ġgraph ic
ĠMarsh all
ĠPer haps
acc i
inf er
Ġtax es
Ġbrow ser
ĠImper ial
con tour
Ġmod ality
ĠCh ain
Ġs ib
Ġmark ing
32 9
tific ial
ĠI GM
b rac
har a
K F
L N
Ġl ux
ot ype
Ġelimin ating
ĠA y
ĠIm pact
] :
27 9
Ġprog ression
Y an
s pring
An aly
SU SY
R NA
ill iant
_+ (\
35 5
ĠM ak
Ġtight ly
ĠS ak
ĠRepublic ans
P rim
Ġ }$.
C AR
ing ham
Ġro t
ĠA part
Ġadvent ure
Ġhar vest
Ġconstitu ents
se a
ĠF F
en v
Ġisot ropy
ĠWay ne
ĠFre edom
m iral
Ġrepe tition
Ġsa il
28 4
Rad io
pi p
H ermitian
ĠL ic
ĠGu y
ĠL oren
Ġsyste matics
ĠEd dington
PhysRev B
left margin
Ġprog ressively
ĠT on
Ġjournal ists
P ut
abs olute
Ġoverla ps
ĠF ramework
ag on
ega cy
Ġlock ed
Ġtr usted
rig id
Ġcycl ot
I ter
ĠS uz
Ġcost ly
Ġsquee zed
Ġ il
M ach
Ġf ossi
ĠM other
Ġsci ences
prin cipal
ge o
int ensity
to y
electron s
Ġli kes
ĠSol utions
ĠKron ecker
] -\
Ġ iv
ĠD if
Ġcontain er
Ġc ulti
Equ ations
ex ec
ĠAl b
Ġlock down
Ġis ometries
ĠR oll
ĠPre sid
ĠPer u
rect angle
D ra
Ġvolunte ers
C ost
en hanced
AM P
sub caption
$) :
Ġspont aneously
P erson
Ġv in
37 0
Ġdog s
Ġtempor arily
W C
ĠC ole
V alue
ĠEx tra
ac ted
lat tices
ĠWork ing
ĠStudi o
Ġcollaps ed
Ġex cite
Ġhemis phere
mean ing
{ *
mathb old
ĠFri ends
s ector
Ġ+ +(
Ġver tically
Ġheuristic s
Work s
ĠD ise
ĠI BM
45 5
Ġgold en
Ġes c
w id
ĠTh ailand
Ġro d
Ġperiod ically
an ic
d war
Jacob i
ull back
lo ying
ĠHung arian
ĠB right
ĠB ron
ĠPort land
' -\
le ads
Ġli qu
ĠP ref
Ġpa inted
Ġb rick
Ġmanufact urer
Ġple asure
Ġub iqu
T y
| +\
Î ¼
develop ed
Ã ł
al ways
ĠJ oy
linear ity
ĠN ep
Ġcan onically
Ġdist orted
Ġtechn ological
S erv
ĠN an
ĠB es
Ġpo em
Ġre called
40 1
ĠAcc uracy
th r
Ġth irty
Ġfail ing
ĠCla ssification
S ir
lear n
ĠAr ray
Ġpollu tion
E O
Ġpath way
t ro
ĠR ange
ĠMove ment
Ġbroad band
mach ine
ĠArk ansas
ĠDe ut
Ġreach able
estima ted
a per
ĠE u
Ġsyn tactic
Ġse lective
Ġautoma ta
ĠInte rest
ĠSy ria
fluct uations
rr r
Ġ} =\
Ġmeta data
Assum ption
i ently
re k
art z
pon s
Ġsignal ing
direct ly
L ou
Ġt ach
27 8
d M
Pro j
Ġnorth west
z s
ĠB CS
Ġsol vent
Qu anti
ĠAfghan istan
F er
x f
_{ >
ĠBe ijing
ĠMa ur
Ġwave forms
ĠF ano
Ġrespon ded
ĠPre vious
ĠN y
Ġcomm ented
Ġtext ual
ine a
ĠO il
Ġconflic ts
Ġw edding
Ġ- {
Ġorgan isations
Ġre ven
Ġadj unction
Ġconges tion
}' (\
Ġimm une
Ġh ide
I K
Le vel
Ġcl ustered
\; ,
30 2
Ġrece ivers
alog ously
Ġven ue
ĠC leveland
Ġemo tions
Â ®
di pole
li b
Ġsus tained
atell ite
A h
R W
s ar
uk a
inf lu
ĠG UT
ĠF ather
25 2
ul ous
18 70
ĠB M
ĠSim ulation
R ock
ĠCon ditions
Ġwatch ed
kine tic
ĠSub sequently
ĠConserv ative
u h
ĠS gr
ĠM ori
c ocy
Ġcast le
k f
chain s
ĠD F
Ġp ile
ĠF lu
Ch ap
ĠMont real
rel iable
+ (-
ĠPri vate
am y
ant le
h all
ĠGPU s
Ġtrig gers
Soc ial
Ġsc ratch
Ġlear ner
ĠB ranch
ĠW MAP
ĠV ancouver
ĠS po
ou x
Ġra ted
ĠSM BH
Ġcontro versy
Ġout lier
Ġspec im
Ġf ate
Ġflow ing
_* ^
^{( +
pre lim
Ġhome omorphic
p ad
Ä ĥ
~\ (
ram ified
Mod els
Land au
ĠT T
Ġâ ĨĴ
ĠP ast
ĠG all
ric ane
ĠEs tima
V AE
i op
}} )^{
ert urb
IT Y
ĠWh ich
ĠOper ation
expec tation
er kin
ĠWi ener
pro f
ĠF light
Ġphot ography
Ġadv ection
Ġdo ctors
ĠS om
cbs afe
ĠHy dro
ĠA da
ĠB uch
Ġflow ers
ote ls
ĠOrig inal
Ġpreci pi
D FT
Ġsub structure
40 8
ma ker
{ {{\
)-- (-
Ġh orn
Ġste ering
finite ly
} >\
\; .
ĠClass ic
ij kl
ch annels
ĠR ugby
over lap
Ġbut ter
ĠMa ine
ĠPhys ical
ĠMem ory
{\ {
Ġocc l
V illa
Ġo ct
ex citation
imple mentation
it ual
sc at
ar xiv
Ġp ink
Ġv apor
33 33
ĠPri x
ĠShan non
Ġelectro des
chi p
Ġ\,\ ,\,
Ġdiffe omorphisms
Ġphotograph s
ĠP SR
On line
' +\
T oday
e en
For mula
anni hi
Ġcon vey
27 7
28 7
Ġsky rm
I rr
Ġthe ater
Ġev aporation
ĠH ecke
a xial
Par ameters
Ġcor on
ĠTechn ical
$ +
ĠR as
ill i
Ġosc illa
Ġun successf
Ġass ault
Ġd g
ĠC old
for mat
sub group
37 8
ĠHung ary
ĠCap itol
m ir
ol en
Ġthorough ly
Ġ( ),
ĠUl tra
4 35
cut s
Ðµ Ð½
ĠFrank lin
18 99
X B
qu ali
H ub
Ġfor mats
Ġim pa
ĠSc en
analy tical
Ġ\ ,\,\
incre ase
Ġbon us
{ },
Ġ$ )
IEEE proof
ho sts
Song s
v mode
it ored
cap ture
g age
Ġindu cing
Ġepide mic
w rap
im s
ste alth
plan ets
Ġcoast al
ĠT uring
ĠC SI
Ġste eper
ĠC ount
sub subsec
Ġdiff ering
preced ented
ĠĠ ĉ
ĠI SO
V ir
z ig
Ġrese mb
ĠOr leans
Ġguil ty
ĠDe puty
ula y
pi le
Ġtrans parency
25 9
ox ide
mission s
IV E
ped ia
Ġfold ed
am er
C ity
sur ance
ĠHawai i
ĠMetrop olitan
ĠA ST
Ġint rinsically
Ġaccept ing
Ġfol ding
Ġre ionization
Sim ple
ĠMarg aret
clock wise
S tein
ĠF ro
ĠB lues
ac l
N ak
R NN
ru les
Ġmag non
eman tic
ĠA ud
ĠBro thers
Hu ang
de mon
fact ual
âĢ¦ .
Ġfeel ings
Ġc i
ĠSt ream
prim ary
ul ent
ans en
Ġun ions
uth ors
Ġinduc tively
Ġjunction s
cm ark
ĠExperim ent
\\ [-
l hd
Ã ª
graph ic
s x
ĠS ad
26 9
Ġtrans pose
Ġcon formally
med ia
Cl ub
u art
Ġd ich
ĠF O
Ġprec urs
Ġrecover ing
ĠCM E
di ver
ov ic
Ġclo thing
Ġ( ;
Ġ= $
ĠL GBT
)\ |\
op oul
ib ly
ĠLaure nt
ab el
impro ve
w c
Im plementation
}\ ).
24 2
ĠPrin cess
A k
W at
)}( {\
! )
+\ |
ĠEn c
Ġlever aging
Y e
Ġma ser
Ġdec k
18 98
trans verse
28 3
chi at
ster dam
Ġlik ewise
D ual
z hu
26 8
Ġdocum ented
d il
ĠEcon omics
F ootball
Ġdeno ising
ĠE lementary
18 95
ling ton
Ġcorresponding ly
30 6
leave vmode
Ġl oses
ul ants
Ġactiv ations
Ġproceed ing
ĠP roduction
)} [
H and
Ġsur name
Ġperc enti
Ġinf ections
Ï Ģ
Ġim pression
Ġ~ .
Ġinherent ly
ĠD T
P age
Ġmod al
Ġpre defined
Ġlik ed
D ouble
ac o
Rus sian
Ġma il
Ġsche ma
b rew
Ġspeed up
ĠHis pan
f j
hl ung
Ġec lipse
Sem i
Ġelev ated
b G
ĠHe avy
. ]{
Ġda ted
ne ys
lec tivity
prov ide
I H
n is
ed uc
S pe
Ġb uses
Ġinst anti
oth y
Ġsho ulder
plicit ly
od ia
Ġins ulating
oth ing
year s
* -
b ubble
ĠW hether
Ġresol ving
cub ic
un gs
ĠM IT
Ġiter ates
ĠN ap
K now
ĠZ one
O ld
8 000
ĠG az
Ġaccre ted
Ġd io
app lications
ĠSt ories
Ġfac ets
Ġdiver ge
Ġenrich ment
b id
^{- }
plic ation
ĠP os
ill ust
Ġmedia ted
ĠF T
The ory
Ġsub urb
neighbor hood
Ġs outheast
ĠLy man
ÑĢ Ð°
Ġsil ent
mcite Set
flow s
Ġrobo tic
Ġsub halo
usal em
mciteSet Bst
Ġwhere by
Ġradi ally
)) }{\
Ġbacter ia
e poch
0 21
0 95
: ]
a con
Ġhom ogeneity
Ġindic ative
can cel
d at
ĠIn iti
Ġzero th
ĠR io
block s
ĠMater ials
ĠAlber ta
K N
ĠAl ban
Ġstress es
ĠProgramm e
Ġstra tification
Ġshock ed
Ġremn ants
ĠBern ard
ĠP ap
Ġ ðŁ
ĠĠĠĠĠĠĠĠĠĠĠĠĠĠĠĠĠĠĠĠĠĠĠĠĠĠĠĠĠĠĠĠ Ġ
requ ired
Ġtravel s
Ġextra polated
g om
ps y
Ġdiff us
and ing
ru d
Ġexhaus tive
40 4
29 8
com po
Ġelastic ity
Ġex changed
Ġhyper geometric
sr c
Ġindirect ly
Ġ Ä
ĠD W
^{ }_
ĠL DA
Ġover se
Ġan xi
sc an
ne ider
prising ly
Ġequ ity
ĠLINE AR
Ġres igned
cl s
ĠSte el
hib ited
Ġf ur
ch air
{} &
ĠW W
ĠI van
Ġk g
Ġbas in
vari ational
Ġj u
black square
Ġking dom
be yond
ĠL oc
graph y
Ġs ine
ĠBer keley
ang ling
Ġdip olar
D ensity
sec ref
Ã© n
B and
_+ $,
ik h
Cont rol
il o
Ġaccre ting
z w
ub o
ĠE SP
ĠL ax
ĠGener ally
ĠR ico
}{ }^
ĠN BC
Ġswe ep
Ġm g
ĠB lood
ĠRe ading
ĠBar bara
D y
Ġr he
Ġremin iscent
oun ts
Ġderiv es
Ġrib bon
ĠW ave
v rule
m ics
)$ &
Ġexplo res
Ġbirth day
â Ħ
til ing
t ur
Ġac ted
ĠInter view
ĠCont inu
conjug ate
C ube
ix on
d T
ĠMulti ple
Q s
}}\ ;
Ġsummand s
Ġd atum
ordin ate
rist ol
Ġcele brate
: =(
re ction
_{- }
ĠAnd re
Ġb oss
ĠM eg
por al
Ġpredic tors
Ġaxis ymmetric
oclin ic
a is
ĠS K
ĠT urn
Ġmirr ors
+ ,
ĠT ypically
29 6
ĠMan hattan
ĠB ag
Ġ- .
ĠRid ge
ma sh
os cil
Ġtag ged
ĠBat talion
ad ays
communic ation
Ġcaus ality
re pe
ĠW ick
ac cess
ĠAl pha
iter ranean
ĠCont in
_- ^
Ġdisper sions
ĠP erson
^{- }$
Ġsub stance
ĠâĢ ł
Ġti ps
4 10
ĠN M
ov o
stra hlung
ĠF itz
Ġec lips
le ep
ĠT ensor
Ġg apped
}} '
re ck
Ġre pository
Ġe mis
ĠX X
Ġmen tions
Ġchar ity
st ory
um mer
ĠM Ps
Ġcompetit ors
ĠS ize
Ġex position
G er
un supervised
)$ ),
Ġco h
Ġmotiv ate
Ġdens ely
Ġsuper script
ĠSe lection
process ed
leg end
war ding
sid es
AM E
ins ula
Ã «
Ġmanufact urers
Ġprotest s
al one
p tian
C ent
ĠD io
Ġlongit ude
separ able
ĠO PE
55 5
h istory
om p
L Y
vari ous
Mark ov
scrib ed
am ong
Ġpos session
& ~
C entral
}' }
Ġsystem ic
Fe ature
30 9
Ġsurpr ised
G rant
ess ment
flush left
Ġsurv iv
uc id
Ġdra in
ĠBen jamin
ĠRail road
ec tious
Ġgather ing
] _-
le tt
Ġinv oke
Ġperson ally
Ġeleg ant
< {\
Ġaim ing
Ġiso chron
ĠR IS
d X
pro gram
sug ges
> -
B ru
z antine
ate gories
Ġsav ings
Ġsubt ree
m art
Ġgra vitation
S tab
Ġh ack
Ġconfir ming
M etric
n ick
H J
)\ |_{\
Ġdiam onds
ĠHam pshire
g rand
Ġ$ =$
Ġcon ical
Ġun physical
)) ^{-
ĠN uclear
Ġ[ $
Ġinst ruct
ĠMoun tains
Ġmyster y
Ġdisci pl
ĠB ianchi
ĠMag ic
C ore
Ġenfor ced
ĠCari bbean
4 65
ĠPro positions
ĠAss istant
ĠBroad way
cont in
ĠProf essional
Ġagric ulture
al ia
}} &\
ĠL iterature
an other
Ġscienti st
ĠSoc orro
Ġchir ality
18 60
G ib
ol ine
Ġproceed ings
ĠAla ska
b E
r Ã©
ta ker
fefe fe
un ting
Ġpath ways
Ġ{ [
Ġlaw yers
ĠCol laboration
Reg arding
ĠPoli tics
Ġdec entralized
}}{ {
Ġless ons
Ġasser tions
}^* (\
is ite
8 14
es c
ĠA qu
Ġsouth west
res ol
Ġinf all
l ra
Up date
Ġphra ses
)) ,\
Ġren dered
C ritical
ĠN u
ĠPic tures
in side
H Z
H art
Ġflo od
Ġestima tions
b log
Ġd rinking
Ġext rinsic
Ġconcaten ated
ĠS or
ĠM s
Ġstret ching
} *
Ġexec uting
x s
regular ity
ĠP U
re search
F ried
pp en
Ġtrans ported
He alth
ĠM ell
Fin ite
S VM
he et
27 6
Ġshar ply
V ic
Lag range
Ġa es
^+ )
ak s
b low
Ġlower ing
ard less
termin al
Ġt au
Ġ- >
29 9
ĠL T
ill ar
ĠBir mingham
ĠMater ial
Ġreci pe
Ġaf ford
ĠL amb
ched ule
% %
ĠV EV
He ad
Ġ\! \!\!
Ã¨ re
Ġpolar izations
e ing
Ġal gebro
ĠCra ig
ĠCommand er
ĠB N
cy an
P eter
^- }
Ġcritic ized
ĠArab ic
ĠT amil
andid ates
em ann
Ġdele ted
ĠĠĠĠĠĠĠĠĠĠĠĠĠĠĠĠĠĠĠĠĠĠĠĠĠĠĠĠĠĠĠĠ ĠĠ
ĠV as
ĠQ ual
ĠMon th
F ollow
par ation
dop ed
Ġin ject
ĠGre y
Ġimm igration
f v
Ġb ull
] }$.
3 24
Y S
Ġequ ili
W el
Ġpro pri
0 48
Ġcom pres
ĠC row
um ble
Ġpe tition
signific antly
Ear th
Ill ustration
Ġelectro de
ĠThe ater
\, (\
ĠLe ban
N LS
d G
ĠMar c
S l
ĠV enezuel
min or
Ġphot onic
at ron
se ven
scen ario
ĠS ug
ef ully
Af ric
L p
ex a
ij i
ĠPh y
f ref
Ġevalu ates
25 4
g ical
ca pacity
Ġnon degenerate
ta d
T own
ale y
Ġfundament ally
Ġho ok
Ġimper fect
ĠMuslim s
arpoon up
Ġcon figure
ĠPho enix
its hape
ĠOr thodox
Ġord inal
R ate
}). $$
G I
Ġfluctu ating
ĠP in
rin os
Ġp it
ĠS ales
B PS
pi res
Ġthreat ened
3 48
ick en
incre ases
7 07
j ar
Ġd rew
Ġassemble d
Ġview ers
concent ration
ac le
Ġafter glow
Fe bruary
ad ay
ĠK ath
Ġalle viate
con dens
Ġmulti pole
er i
ĠMin or
ĠPer iod
' }=
^* =\
i tative
Î ·
ĠA rena
P et
R GB
ĠPar ticip
Ġc rop
ĠSt ring
S pan
e ig
an no
lo gy
Ġ$( -\
}} ]\
ĠR abi
Ġprior iti
ĠS PT
phen omen
ĠM ott
ĠP F
Ġsymm etri
ĠBuff alo
h ances
ip es
ĠCom ments
M et
Ġh urt
F an
Ġcompens ated
Ġob li
ation ally
allow ed
Ġisotop es
n us
Ġg all
Ġcompar ative
Ġc itation
Ġg aussian
Ġsh ield
Ġsw ing
D oc
w ire
label s
Ġdec iding
Ġpoly topes
Ġtriang ulated
ĠFac ulty
m ph
ĠR et
Ġconc ur
Ġambigu ous
Ġdecor ated
le mental
}\ ),
Ġagg ressive
ĠTer ms
ve k
)) ^{\
Ġwh ence
Ġstag gered
Ġc itations
ĠF alls
Ġannu ally
so cial
ĠN ad
Ġresol vent
ĠR ee
circ ular
Ġkine matical
9 80
or ated
ut rino
Î »
eterm ined
m Jy
26 6
29 3
Ġev ac
Ġdisper sive
Ġri vers
ĠStan ford
ĠFar m
un ar
Ġro l
}} }^{\
Ġ[ $\
tru ecm
0 19
Ġconsum ed
ji ang
Appro xi
4 48
m w
Ġlinear ization
or tium
Ġ( @
v irtual
pi racy
'' _{
33 7
sq subseteq
Ġthin ks
Ġcatalog s
Long leftrightarrow
Ġv ib
ak is
c opy
ĠP ain
Ġjud gment
prov ides
captions etup
ase ous
ĠProper ties
ĠWel sh
C AT
Ġwell s
Ġactiv ist
Ġnon singular
ene ath
inter face
am ed
supp orted
Ġs its
ffici ently
Ġdefic it
Ġsub lattice
ĠPh ilosoph
AN T
Ġstabil ize
l times
Ġsimpl ifying
Ġlic ensed
ĠC ultural
pa c
ie ties
os ov
ĠIndust rial
Acc uracy
Ġin i
ep he
w aves
Ġacc uracies
Ġcur rency
Ġkey words
Ġ= =
Ġcompr ise
K ol
ran es
ff e
^* }(
Ch ina
Ð ·
{$ (
l la
om aly
.. ...
m j
Ġe pic
endi eck
Ġunder going
{ }_{
0000 0000
' }_
Ġincre ments
Ġocc asions
Ġatt ending
Ġ ell
Ġdis agree
in as
Ġdamp ed
Ġsem inal
ac cep
Ġoc ta
M H
Ġsp ikes
ĠMar vel
Ġacceler ator
] /
Ġoppon ents
d j
ene tic
Ġrun ner
â ĪĴ
Cont inu
she af
exact ly
Ġinitial ize
ĠM all
ĠChris tians
Ġsurve illance
ĠWar ner
c w
q b
E r
ah l
Ġen tails
Max well
Ġc rust
Ġt ort
Ġan t
Ġcopy right
C MS
th endieck
Ġp end
Ġinc idents
Ġgrav iton
1 100
P DE
Ġun affected
Ġcor ro
li quid
ĠG las
ĠL ad
ĠH ope
\| $
Ġmach inery
Ġfollow ers
ale z
Ġreported ly
B usiness
in di
Ġmon itored
ĠTra in
Ġd inner
ĠS pi
Ġdis agreement
Ġmer id
) }}(
f le
ok ker
97 8
slo pe
ĠCommission er
Ġpractition ers
)) ;
7 68
in on
qu otient
Ġse ver
18 96
pen alty
. &
Ġp ot
Ġe ating
ĠV II
Ġfo o
Ġparad ox
ch art
Ġthere of
ta ch
ĠSte vens
ab ad
Ġpers u
ĠG CN
ĠZ ero
J im
ĠMad rid
rac ks
Ġno ises
s j
33 1
ph ases
Ġmer it
t ry
Ġre side
Ġfoot print
ĠAlf v
Ġpuzz le
26 2
\ ;\;
ĠPear son
Ġma mm
0 65
im oto
y ama
ĠC ass
lu ded
ĠKar l
bis hop
enn ifer
Ġcur riculum
}}{ =}
Ġspac elike
: -
ĠĠĠĠĠĠĠĠ ĠĠĠĠĊ
Cla ssification
Ġcri tically
Ġstra tified
D iamond
ĠK id
Ġcoun sel
iter ation
Ġcolle ges
Ġanne aling
q g
ĠS audi
Ġwave functions
$ ]{
ter ing
ĠH B
ci pl
Ġdraw back
ĠLo ok
se pp
18 75
ĠÐ ¿
Optim al
ĠT ate
strate gy
ĠB illy
Ġun precedented
Ġbl ank
U pon
star ting
38 5
Ġhypo thes
|\ ;
Ġj ournals
In formation
na ti
Ġund ers
ĠDa tabase
ĠJ ar
ĠK in
med ian
pr l
Ġhyper fine
ĠChar acter
Ġi Phone
B ou
Ġme at
ĠE L
) }),
G reek
deg rees
Ġbin ned
Ġloc omo
O W
vi ations
29 7
B is
Ġg ard
Ġch est
Ġor g
Ġda ughters
ĠCh ampion
dec oder
ĠPlan et
ĠApp lication
ĠT ed
Ġmoder ately
ĠDra gon
c avity
ĠĠĠĠ ĉ
Ġelect oral
Ġc s
fin als
I mport
ne arest
o ften
{ _
ers chel
satisf y
Ġreal izing
/ {
od ium
Ġpra ised
b M
ol ly
Ġco existence
two head
K W
g lass
im posed
4 68
k it
ĠF at
circ uit
29 2
)| =
Ġmer omorphic
Ġpromis ed
G h
Ġup grade
Ġsuff ice
3 23
Ġr hythm
con cept
ĠPro test
28 9
ourn ament
ĠA round
Ġ} ,\
Ġacceler ating
Z n
| }$
Ġan imation
34 6
cast le
Ġposit ron
ag ner
Ġver ifying
ĠLeg al
Ġhaz ard
fin itions
ĠS cal
ĠJer usalem
Ġph antom
Ġposition al
C AL
oo ft
Ġsemicondu ctor
R et
pa ges
}+ {
Ġ$| |
DF OR
Ġlack s
Ġper me
Ġp s
ĠSte ven
ĠSpr ings
g iant
Ġk itchen
Ġsat ura
mac ro
ĠL ak
ĠFor um
Ġensure d
b ud
Ġme th
ĠD ig
Ġfruit ful
$ }$
c rop
ĠG PS
Ġproject ing
\},\ {
ĠNev ada
al gorithms
ĠSt art
Ġact u
rb rack
un its
ĠMa j
tes y
\\ &\
S el
= +
14 00
Ġarg ues
ĠPrin ciple
ĠForm ally
Ġcomp elling
Ġactress es
Ġqu i
C Z
ĠPh arma
cet on
ist ent
Sche matic
un ks
Ġcom fort
5 40
) )\,
Ġstar red
Ġenumer ation
L ik
ut ta
\, |\,
Japan ese
D ar
H ST
op al
Ġworks hop
Do main
K al
overla pping
}). $
ĠL TE
}~ ,
Ġimpr ison
ĠSt orm
ĠDec ision
Ġcred its
Ġnormal izing
k on
b T
Ġal together
ĠB ap
ĠW ing
Ġhyper planes
Ġbehavior al
Ob ject
Ġ\ ),
Ġcer tified
ĠB AO
Pro v
Ġion ic
Is ra
Offic ial
measure s
viol ating
se ed
Ġrec ruit
LE U
ge om
Ġinv isible
Ġquen ch
cel and
Ġstim ulus
R ew
th ia
Ġinteract s
ĠVari ous
c U
et own
Ġinf imum
_- ,
las tic
fin ding
found ed
ĠPier re
pen cer
ab b
Ġ[ ]
h aving
Ġclass ically
Ġhand les
Ġge o
4 64
e as
ri ans
B ottom
ĠP u
w ald
SP s
9 50
g auss
az ar
| |^
interpre tation
Ġprem ium
Ġcon cer
Ġsus pected
dete ctor
z x
Ġb rew
}} ^*
deriv atives
propor tional
se min
mon o
26 3
estiv als
Ġprac tic
){ };
ĠL ac
Ġstabil ized
Act ually
out ube
Ġass ass
ĠB rew
pr ints
35 7
light gray
ĠJul ia
S plit
X R
o tation
y oung
Ġpo inter
Ġinter cept
ĠCos ta
Ġ$* $-
Ġproxim al
conn ect
}$ },
Ġpro long
Ġmis take
Ġinterven tions
Ġmet er
osyn thesis
Ġc ust
Ġpi pe
Ġ um
ri ors
EN DFOR
Ñ Į
on ian
)^ +
Ġactiv ists
ra tors
Ġcylind ers
(\ |\
ĠÃ ī
Ġmedi eval
ĠJ S
Ġac ute
inc ell
Ġcontradic ting
ĠS AT
ring ton
End Punct
mcite Bst
Add EndPunct
ĠNorm an
Ġfib res
Would AddEndPunct
poster ior
mciteBst WouldAddEndPunct
Ġc lon
str ings
ĠSha h
ec ond
ĠV ision
}' ,\
Ġtermin ate
ĠOper a
ĠFe atures
Ġcat aly
}) =(
da tes
f icially
Ġphot ospheric
}, ~
i ar
ĠK ap
Ġsla ve
Ġphot osphere
ĠRe lease
E p
rm n
Ġgroup ing
mark s
Ġposition ed
sc hemes
ĠInitial ly
f w
Ġfor got
se v
ĠR N
Omega e
ĠRel ig
FW HM
Ġbi ke
9 60
ĠLie utenant
ĠS ax
if th
Ġcollaps ing
eng ine
IS M
Ġfun ny
C opyright
W igner
over all
Ġbar rel
ĠCommon s
eigen values
Ġspons ored
P roduction
Ġinter polating
ĠSh el
ĠTrans form
ab ilistic
ail ing
Ġimm ers
B all
Pl ots
ĠLuc as
Ġre active
had ron
G rad
Ġpro hi
ĠR ena
Ġreal izes
ĠLu ther
ĠM PI
s an
oun ter
Av g
3 22
ost ructure
CM B
hal os
ia h
tab incell
omet rically
Ġf al
ri fic
Ġrepor ter
id ad
ĠState ment
ĠCam paign
R ule
Ġde phasing
ĠGold stone
}_{ >
u ph
z k
th read
ĠSh ang
ĠMil an
Ġdescend ants
v q
ĠL G
Ġtown ship
L orentz
Ġc hem
Ġstret ched
6 67
Ġ\ {-
label led
33 9
IS O
mom ents
ĠNaz i
h ifted
ce u
il ia
Ġm os
ĠF el
sub ref
L ondon
Ġg ent
ĠH ai
mar ine
Ġmem orial
}). \
ĠM ann
ĠQ FT
onom etric
ĠT P
ab cd
Ġgra dual
su fficient
> </
in ated
C amp
us a
45 8
A dap
Ġin efficient
ing e
Ġun ipotent
at oms
Ġabsor b
Ġspec ially
Ġrect angles
F ock
fold ed
(\ {\
' )=\
ac re
sl ice
F ac
k ms
Ġtw ists
ĠExperim ents
ĠD ro
c I
ĠZ h
ĠLet ter
ch as
Ġbe aring
Ġab normal
Ġmark er
as ive
ĠB und
Ġinter fe
Ġaccep ts
fic tion
Ġlife times
40 7
ĠCarl os
Ġun related
^{- (\
Ġin no
Ġsem idefinite
M art
ĠIn surance
ĠNN LO
ĠT arget
Ġf on
Ġg aming
Ġdesign ers
Ġfluores cence
stit ution
Ġl oud
Ġtra veled
Ġadj o
r ut
ĠG onz
18 50
ID S
Ġnewspa pers
3 11
Ġdef lection
F act
h rule
Ġdistribution al
Ġs ke
cc ur
sim ultane
F rance
Ġpri est
Ġpropag ates
Ġstrength en
ĠBar cel
Ġdiagonal ization
Ġaccompan ying
Ġte a
)}{ |
ĠC OS
ĠL ith
ans on
ĠĠĠĠĠĠĠĠĠĠĠĠĠĠĠĠĠĠĠĠĠĠĠĠĠĠĠĠĠĠĠĠ ĠĠĠ
ĠDef ence
nucle us
Ġcol oured
ĠDynam ics
ĠS Y
ĠT A
Ġsec ured
Ġe ighth
No ise
Ma the
Ġag ing
Ġbe ating
}( (\
Ġco ck
ill en
ĠI EEE
ug os
End Sep
Mid EndSep
MidEndSep Punct
D K
ĠLe ader
re ts
Ġt ale
Ġtail ored
mciteSetBst MidEndSepPunct
27 4
ĠMur phy
ĠH udson
monot one
si bilities
ĠS la
ĠRich mond
ĠInt uitively
ĠQ uality
Pro posed
ĠT rack
ĠCo al
ĠF ul
Ġfore ver
lo se
pl ant
18 85
fol k
configura tions
Ġdemoc racy
Ġen hances
}^{\ ,
\{ -\
) })^
land er
famil ies
Ġresi ding
Q ED
ĠBrig ade
i pi
ly eq
Ġaff ir
g end
Int rodu
Ġgrate fully
Ġgener a
Ġcode word
3 95
] }}
inc are
Ġelong ated
si fication
ĠRec on
Ġsubstit uted
}) )$.
^+ _{\
Ġess ay
Ġex cessive
ĠEd wards
righth arpoonup
ĠO B
r ys
Ġ+ {\
Ġdyn asty
Ġis olate
ĠR ot
34 7
ĠDisc overy
as a
Ġre taining
}^ +\
log ical
ĠC ricket
),\ ]
Ġpull ing
w au
acc eler
Ġvo ices
ĠRoman ia
E U
test ing
ĠCharlot te
os ta
+ [
ens urate
Ġst ressed
Ġint end
Ġst oring
ĠW es
Ġplane te
o es
mo v
Ġbi rational
A mb
0 32
Ġex cur
}| $.
ĠHar rison
Ġfavour ite
Ġsc reens
Ġcombin ator
ro ots
ro e
Ġw rest
^{+ }_{
ĠBlo om
pa ces
comp utational
tri ple
ann ah
Ġgra ting
Ġabsor bers
L ind
18 88
g pp
Ġtri ps
ĠMark ovian
cluster ing
n mid
Ġh int
Ġlow ered
Ġwound ed
Ġtra ver
sol ve
Ġenl arged
27 2
pur ple
Ġo k
ero ids
su ff
ression al
3 13
Ph Rv
Ġanaly tics
Ġspir als
ĠF IG
Ġthere after
$}} ;
b ird
ĠM AR
Ġsynchron ous
b ie
ĠG romov
Ġab road
Reg ular
Ġcol li
'' (\
ach ed
Ġcalc ulates
ĠB ond
W ind
he eler
Ġauthentic ation
}) >
opoul os
] }_{
tig ation
imod ular
ol ith
Ġre actor
ĠD I
ticular ly
Ġe jection
ier ra
Ġmel ting
Ġpsych ological
Ġasser ts
Ġm ari
ĠJ ensen
Ġhab itat
a ulay
ĠE E
ĠMay be
Ġwood en
mciteBstWouldAddEndPunct true
25 1
18 93
z t
Ġpo ems
^+ }\
Ġport rait
osa ic
p rice
Ġh ermitian
}} }_{\
ĠC iti
ball s
de z
33 4
Ġg ym
W H
en burg
ĠC urrently
amb u
hom omorphism
Ġpenet ration
B ad
Ġmen u
ĠG ram
A a
p tive
f iable
Ġcy an
m A
S GD
{ =}
ĠSe lect
ĠP SD
Ġro cks
28 1
pur pose
Ġpar ks
36 8
L ove
Ġsub jective
Ġauto encoder
ĠJoseph son
Ġcorrect ing
oli ubov
\% \\
MR I
ĠHam ming
ĠBern stein
ĠWat son
Ġdesc ending
33 8
Ġk nee
Ġcont ractible
mid punct
mcitedefault sepp
mcitedefault midpunct
mcitedefaultsepp unct
Ġp es
G Y
ĠT ib
Ġprov incial
Re pres
Ġrew riting
ĠH IV
un til
Ġdisc ount
Hop f
ren der
Ke pler
com puter
35 3
Ġlay ered
ĠM etric
data sets
ĠIndi ans
Ġl ig
Ġhas n
Ital ian
^{ |\
Ġcondens ates
ĠSED s
Ġminim ally
ĠKir k
sh orts
Ġdescript ors
{ }^{
ĠL IGO
Ġtrem end
Ġj oy
Ġreprodu ction
Pre sident
Ġsports people
Ġco ins
ĠKnow ledge
a ft
ĠTh er
ast ron
Ġâ Ĥ¬
Go ogle
anta sy
def eq
bf x
n ega
ĠCay ley
Ġextra ordinary
Ġattack ing
is cal
g k
ĠN T
ĠSub stituting
Ġp rone
Ġdis orders
ĠBangla desh
twohead rightarrow
ã Ģ
Ġsp ell
sequ ent
Ġrig orously
J ew
ĠV A
loop s
ĠLast ly
B ey
Ġhypo thetical
Ġperi pheral
ĠO w
m ega
$ ?
ĠS DE
Ġnow here
ĠC hat
Ġpro positions
Ġdistrib ute
ic t
Ġrecon ci
_+ $.
ĠD est
ĠO T
Ġy esterday
ĠB lan
Ch ild
Ġintui tively
Ġhomotop ic
he x
Sh ow
ĠArch ives
ĠUk rainian
Poli tical
4 90
Ġ ero
ĠA SR
ĠL EP
pt onic
in en
Ġoverwhel ming
] %
ĠR P
ams ung
m il
Ġemb od
] }$,
Ġmaxim ized
Ġn u
rel la
div is
Ġprogen itors
reg ime
Ġmin ds
Ġmagn ification
V ector
Ġle ts
Ġbo olean
vere ign
Ġwitness es
+\ |\
Ġvol tages
ĠAt tack
D f
ÃŃ n
K i
CO VID
gener ator
observ able
Ġstraightforward ly
F ast
ĠTo y
incorpor ated
Ġl ung
am ents
Ġz ig
am o
duc ational
C over
ĠH V
ven tional
Ġair line
Der iv
L W
R an
ĠYork shire
)] $.
ĠK or
ĠR isk
pro jected
Ġcal endar
ult an
ĠCon tact
45 7
As ympto
Ġbin ning
Ġhop ing
Ġdis reg
a ire
g ie
ĠĠĠĠ čĊ
Ġconven iently
ĠOptim ization
}. }.
geodes ic
' >
end punct
Ġvan illa
Ġsort ing
hel p
ĠF D
H ist
Ġw ars
font size
ĠSong s
ĠV LA
29 4
br ity
xx x
ĠR ules
ple y
ĠSho uld
mcitedefault endpunct
)\ }\
ĠTur ner
de e
ĠRac ing
Ġhand ful
ĠCli mate
Ġmultim odal
Ġsta ying
ĠKen ya
mis es
Ġ* /
ĠRepres entative
ess ential
small setminus
Ġhel ic
Ġpro found
Ex act
sy st
I de
ĠObserv ations
m ight
00 000
Ġassoci ates
she ar
us z
Ġprison ers
Ġin accurate
ĠSc ore
! $
Ġtil ing
ĠJeff erson
eng uin
ĠSh ar
5 20
18 92
ivers it
z ul
á »
ren kov
Ġch ances
First ly
ĠL E
ĠMor ning
Ġbr illiant
Ġ$\ \
Ġdetermin ants
aus sians
Ġconver ting
}} ~
ĠM ason
}' $.
39 7
cs name
Ġ âĢĻ
Ġparen theses
g lob
Ġpropag ated
ĠMin i
Rich ard
Ġconstitu ency
Ġdouble s
Rec eption
Ġlas ted
b ins
oron oi
F red
J ose
run k
Ġfic tional
l und
ĠF ollow
Ġvent ure
Ġsali ent
Ġh ints
lo o
ĠK itt
wau kee
up shape
Ġco bord
do ub
35 9
ĠE pisode
c V
ĠNe uro
i tives
}{ }^{
an im
E con
ho o
Ġ\ <
ĠSus an
Ġnucle ation
qed here
Ġo pa
ĠN HL
\, =\,
Ġtra ded
Ġtriple ts
Ġnic ely
un certainties
Ġearthqu ake
ĠRH IC
Ġex port
ĠS DP
Ġin ward
ta gs
ari ans
Ġver b
Ġmask ing
Ġinv oked
Ġgu iding
ele mentary
ĠAm sterdam
us ers
ĠDen ver
n om
ĠW asserstein
Pro cess
Ġdetermin ations
ĠClass ical
is p
Ġbo ards
loc ations
Ġlex ic
es ome
ow ers
Ġx y
predic ted
18 94
Ġcoach ing
ox y
Ġyoung est
Ġenjo ys
Ġco variate
s A
Ġis otopy
Ġarg uing
ĠCh er
l isted
ĠM PC
N atural
ine z
ĠL ost
Ġwas h
Ġvulner ability
Ġdro plets
ie u
ĠM aking
Ġmu tations
b S
ĠO liver
99 8
m ology
ĠSer ge
S cale
ĠD raw
fac ial
05 5
Ġcoll iding
P u
Ġsh ore
li o
ira tes
Ġat tains
&- &
Ġne matic
ĠFlo quet
ĠM atch
Dec lare
Ġat tract
Ġlo b
R od
z u
osp el
Ġastron omical
ATL AS
u til
Ġredu ctive
: }}
D IS
}, -
ĠInd ividual
ĠCat alog
Ġtran scription
ceu tical
). \\
ar ms
M arg
Ġpar sing
ĠL ines
enti st
friend ly
ĠS l
to urs
Ġnarrow er
H ad
Ġreg ulated
ĠBas ketball
qu en
18 89
oun ting
val ent
Ġf b
ĀĀ ĀĀ
u ously
ro le
ĠH alf
Ġman ages
ĠH ank
ial gebra
Ġimmers ed
ĠJ in
ĠCommun ist
D om
Ġevery day
imension al
ĠRad on
e j
Ġpredecess or
Ġa ster
ass isted
Ġseg regation
48 5
Ġ| _{
Ġdynam o
Com mon
b D
Re ference
Ġcompos ers
Ġde pos
Ġtechn ically
inter ior
ĠMo tion
up mu
gra ding
Ġmon o
ĠM erc
sat urated
g overn
ll er
Ġn s
Ġ\% $
Ġst reak
ĠMed iterranean
ĠT C
Ġat tra
Ġincre dible
CD F
Ġmil k
line arities
Ġdecom poses
elect ro
Ġstri ps
Ġassess ing
Ġhighlight ing
A z
Ġequ id
ĠCom merce
de en
ĠS tyle
Ġ(\ %)
led own
Ġunder taken
ĠT ol
ev o
ern andez
03 6
34 4
A MS
Ġwra pped
sn r
R K
ĠE rd
res ta
Ġter restrial
mag enta
Ġimped ance
Ġg aseous
ont inuous
ĠB ath
Ġde puty
gre y
Ġcred ited
Ġattach ment
Ġastrom etric
k z
^{ [\
ĠCh ronic
Ġabsor ber
logarith mic
B Y
ĠL ate
Ġdi lation
Ġoptim ally
Ġillust rative
Ġdo zen
j ohn
ear th
no ff
ĠBarcel ona
Sc ot
xi e
ĠG y
^- )
wind ow
ĠQuar ter
un if
Ġcru de
n ature
c q
er ner
per cent
Ġpreval ence
Ġres ist
Ġsub module
ĠRe ed
ĠM ess
ĠR oth
Ġin tact
ĠL if
Ġpro spects
ĠD ensity
Ġreg ulator
Ġdel ivers
tikz style
Nam ely
ĠT reat
ĠS par
)} &
app ears
Ġspec ta
Ġtag ging
Ġnomin ation
Pri vate
conserv ation
om position
ĠW onder
Ġco ars
dif fic
ĠCla y
Z E
te ps
Sim on
W s
}{\ |
Ġund es
ĠKe ith
, ..
Ġwalk ed
Ġpedest rian
complete ly
back ward
tw itter
( );
Second ly
$ );
P f
n w
Ġrank ings
; \,
per formed
Ġterr itories
Ġshow ers
Ġno se
triang ledown
Ġqual ify
Ġtrac ker
ĠB ristol
ĠR B
ucl id
C ell
T ask
ec onomic
ĠE lection
ĉĉ ĠĠĠ
C ra
Ġir respective
T ex
t up
know ledge
ine e
}= {
ci um
Ġ. $
Ġref lexive
})$ }
Ġdifferential s
ĠAgain st
8 75
ron es
Ġdisp ute
G rand
set t
Ġdo i
ĠLegis lative
i os
z hao
if iers
Ġun fortunately
ari ance
Ġdis charge
ĠLar ry
ĠPro file
03 4
Z W
Ġinst ructive
acc ount
ĠN FW
omin us
C hat
}}\ |
fra mes
k v
tor ic
she et
ĠB omb
^\ #
Ġcalor imeter
b ane
}^{+ }
Ġcrow ds
18 65
Ġevent ual
Ġfac et
cate gor
Ġg er
Ġ\, |\,
build rel
Ġcon form
Ġdiscrimin ate
R ober
Ġv iral
Ġch lor
Ġpre vented
col im
Ġcult ures
ĠR O
Ġrecogn ised
ĠNet flix
un o
:\ :\
Ġscreen ed
n v
ch osen
ĠProcess ing
Ġelder ly
ĠB ran
Ġmand atory
Ġresearch er
Ġtreat s
Ġtigh ter
Ġbeam forming
Ġintern ally
ĠCirc uit
}} }{{\
Ġpres ently
ough ly
umb ent
Ġ( (\
serv ice
AS H
AM A
re cted
Ġdeliver ing
F V
S equ
ke eping
Ġste ad
To gether
Ġtrac ers
dri ft
if next
table head
Ġaer ial
] }.
Ġun ivariate
Ġcatalog ues
Ġgran ular
ĠB art
vis ory
Ġinher it
k os
Ġin ches
ĠT ang
Ġvalu ations
Ġtrans vers
ifnext char
l li
Ġcoinc ident
ĠNich olas
}~ {\
Ġadapt ing
ĠRog ers
4 30
s tic
b ps
Ġcomm em
L ocation
S ky
plic ations
Ġpe ers
ĠSet up
ĠTheore tical
L es
du ction
ms strahlung
ĠJ erry
e ight
Ġgain ing
Ġ$( (
S ar
Mon te
Ġmonoch romatic
er ted
caus al
ad dition
big sqcup
Ġeng aging
ĠVin cent
ĠG olf
C iv
N ik
}) |\
]^- {
Ġam id
ĠLe ibniz
Ġillust rating
Ġme teor
Ġsupp lement
Ġdel icate
35 8
const r
bary on
Ġdemonstra tions
GR B
Last ly
p se
Ġm ult
ĠGre ater
, ][]{
pro g
pr p
Ġc argo
ĠE ug
Ġmag azines
Ġguitar ist
âĦ ¢
circ les
S olution
}) {\
ĠW alk
Ġcol lectively
Ġeven ly
Ġret arded
F isher
ĠS VD
ĠC i
ĠMax imum
Ġstock s
B ir
is ers
_{\ ,
ĠG F
Ġj ury
rm d
~~ ~\
n j
Ġbe ars
ĠM oney
03 7
redu ce
2 19
ĠOtt oman
K r
ĠV LB
l ens
Ġprodu ctivity
Ġwitness ed
he alth
Ġv es
ces sibility
ĠK P
ĠPo ints
re ported
26 1
ĠL loyd
Ġgen ome
35 6
IC S
est y
App lications
m ans
ta c
Ġtra ditions
W atch
ĠW F
gre edy
ĠTran sfer
h agen
lu gging
Ġdiscre ti
ĠKepler ian
ĠTrans portation
T it
Ġa mm
CO M
ĠAg ent
Ġinn ermost
ex pressed
pr f
do mains
Ġhon our
l is
ĠDes cription
Ġn aval
sk ii
ĠC CS
Ġal i
kins on
ĠEvent ually
el ong
Ġrele g
Ġmake up
&& &
;\;\;\;\ ;\;\;\;\
H al
i T
}\, $
Ġhydro dynamical
Ġb less
}) }}
Ġquad ru
Ġsen sible
Ġmultiple s
ĠPic ard
Ġsoldi er
ĠV irtual
[...]
