{"[UNK]":0,"!":1,"\"":2,"#":3,"$":4,"%":5,"&":6,"'":7,"(":8,")":9,"*":10,"+":11,",":12,"-":13,".":14,"/":15,"0":16,"1":17,"2":18,"3":19,"4":20,"5":21,"6":22,"7":23,"8":24,"9":25,":":26,";":27,"<":28,"=":29,">":30,"?":31,"@":32,"A":33,"B":34,"C":35,"D":36,"E":37,"F":38,"G":39,"H":40,"I":41,"J":42,"K":43,"L":44,"M":45,"N":46,"O":47,"P":48,"Q":49,"R":50,"S":51,"T":52,"U":53,"V":54,"W":55,"X":56,"Y":57,"Z":58,"[":59,"\\":60,"]":61,"^":62,"_":63,"`":64,"a":65,"b":66,"c":67,"d":68,"e":69,"f":70,"g":71,"h":72,"i":73,"j":74,"k":75,"l":76,"m":77,"n":78,"o":79,"p":80,"q":81,"r":82,"s":83,"t":84,"u":85,"v":86,"w":87,"x":88,"y":89,"z":90,"{":91,"|":92,"}":93,"~":94,"¡":95,"¢":96,"£":97,"¤":98,"¥":99,"¦":100,"§":101,"¨":102,"©":103,"ª":104,"«":105,"¬":106,"®":107,"¯":108,"°":109,"±":110,"²":111,"³":112,"´":113,"µ":114,"¶":115,"·":116,"¸":117,"¹":118,"º":119,"»":120,"¼":121,"½":122,"¾":123,"¿":124,"Â":125,"Ã":126,"Ä":127,"Å":128,"Æ":129,"Ç":130,"È":131,"É":132,"Ê":133,"Ë":134,"Ì":135,"Í":136,"Î":137,"Ï":138,"Ð":139,"Ñ":140,"Ò":141,"Ó":142,"Ô":143,"Õ":144,"Ö":145,"×":146,"Ø":147,"Ù":148,"Ú":149,"Û":150,"Ü":151,"Ý":152,"Þ":153,"ß":154,"à":155,"á":156,"â":157,"ã":158,"ä":159,"å":160,"æ":161,"ç":162,"è":163,"é":164,"ê":165,"ë":166,"ì":167,"í":168,"î":169,"ï":170,"ð":171,"ó":172,"ô":173,"Ā":174,"ā":175,"Ă":176,"ă":177,"Ą":178,"ą":179,"Ć":180,"ć":181,"Ĉ":182,"ĉ":183,"Ċ":184,"ċ":185,"Č":186,"č":187,"Ď":188,"ď":189,"Đ":190,"đ":191,"Ē":192,"ē":193,"Ĕ":194,"ĕ":195,"Ė":196,"ė":197,"Ę":198,"ę":199,"Ě":200,"ě":201,"Ĝ":202,"ĝ":203,"Ğ":204,"ğ":205,"Ġ":206,"ġ":207,"Ģ":208,"ģ":209,"Ĥ":210,"ĥ":211,"Ħ":212,"ħ":213,"Ĩ":214,"ĩ":215,"Ī":216,"ī":217,"Ĭ":218,"ĭ":219,"Į":220,"į":221,"İ":222,"ı":223,"Ĳ":224,"ĳ":225,"Ĵ":226,"ĵ":227,"Ķ":228,"ķ":229,"ĸ":230,"Ĺ":231,"ĺ":232,"Ļ":233,"ļ":234,"Ľ":235,"ľ":236,"Ŀ":237,"ŀ":238,"Ł":239,"ł":240,"Ń":241,"th":242,"in":243,"Ġa":244,"Ġth":245,"on":246,"re":247,"ti":248,"Ġthe":249,"er":250,"en":251,"Ġ\\":252,"Ġs":253,"al":254,"Ġo":255,"ĠĠ":256,"Ġ$":257,"te":258,"or":259,"is":260,"Ġc":261,"ar":262,"tion":263,"an":264,"le":265,"Ġf":266,"Ġw":267,"Ġof":268,"ma":269,"es":270,"Ġt":271,"Ġp":272,"Ġin":273,"Ġan":274,"Ġb":275,"ro":276,"ing":277,"Ġd":278,"{\\":279,"ta":280,"ra":281,"ig":282,"ed":283,"Ġand":284,"el":285,"ic":286,"at":287,"Ġto":288,"la":289,"it":290,"ec":291,"Ġe":292,"_{":293,"Ġm":294,"as":295,"Ġis":296,"he":297,"om":298,"Ġre":299,"us":300,"Ġ$\\":301,"ent":302,"ol":303,"ĠĠĠĠ":304,"Ġn":305,"Ġ(":306,"et":307,"si":308,"Ġh":309,"un":310,"qu":311,"math":312,"ce":313,"ation":314,"am":315,"ĠT":316,"eg":317,"Ġfor":318,"ly":319,"ve":320,"ch":321,"ur":322,"ow":323,"st":324,"}\\":325,"Ġg":326,"čĊ":327,"um":328,"}$":329,"ul":330,"Ġl":331,"^{":332,"im":333,"end":334,"ot":335,"ver":336,"Ġ&":337,"ith":338,"Ġthat":339,"de":340,"ĠĊ":341,"ph":342,"il":343,"Ġcon":344,"Ġon":345,"ite":346,"ĠS":347,"igh":348,"cal":349,"Ġwe":350,"ted":351,"Ġas":352,"Ġwith":353,"ri":354,"(\\":355,"ure":356,"Ġbe":357,"}}":358,"ĠA":359,"ref":360,"ge":361,"ĠC":362,"ct":363,"ut":364,"Ġpro":365,"od":366,"egin":367,"rac":368,"begin":369,"ft":370,"Ġal":371,"20":372,"id":373,"ight":374,"ĠI":375,"ir":376,"_{\\":377,"Ġv":378,")$":379,"se":380,"Ġby":381,"if":382,"Ġma":383,"Ġex":384,"pp":385,"Ġare":386,"ĠM":387,"Ġwh":388,"}{":389,"ity":390,"ine":391,"ĠF":392,"ter":393,"ble":394,"ad":395,"ĠThe":396,"frac":397,"eta":398,"res":399,"cite":400,"per":401,"ts":402,",\\":403,"eq":404,"equ":405,"Ġcom":406,"and":407,"ore":408,"ub":409,"ĠB":410,"})":411,"Ġ=":412,"ĠP":413,"ction":414,"right":415,"und":416,"tex":417,"rom":418,"ĠH":419,"Ġst":420,"mb":421,"os":422,"tic":423,"tim":424,"Ġde":425,"Ġat":426,"lab":427,"ĠL":428,"rm":429,"pa":430,"mathb":431,"label":432,"ĠW":433,"ĠĠĠĠĠĠĠĠ":434,"},":435,"ĠR":436,"$,":437,"Ġit":438,"ple":439,"Ġfrom":440,"$.":441,"ĠĠĠ":442,"ran":443,"equation":444,"da":445,"mathcal":446,"Ġus":447,"ĠD":448,"iv":449,"left":450,"The":451,"ist":452,"ers":453,"Ġor":454,"ich":455,"}.":456,"Ġthis":457,"iz":458,"text":459,"ĠE":460,"Ġsh":461,"ss":462,"Ġ-":463,"ĠN":464,"âĢ":465,"up":466,"to":467,"ment":468,"}(":469,"tions":470,"ren":471,"ate":472,"ys":473,"ĠG":474,"ign":475,"di":476,"for":477,"Ġsu":478,"Ġcan":479,"}^":480,"Ġco":481,"~\\":482,"19":483,"ect":484,"ave":485,"}_":486,"fig":487,"Ġres":488,"Ġpar":489,"par":490,"ck":491,"ther":492,"lo":493,"pha":494,"tial":495,"mu":496,"ection":497,"alpha":498,"Ġch":499,"ces":500,"em":501,"low":502,"dot":503,"ant":504,")\\":505,"tive":506,"Ġle":507,"du":508,"here":509,"Ġwhich":510,"ds":511,"ff":512,"10":513,"int":514,"lu":515,"ell":516,"psi":517,"all":518,"sion":519,"ew":520,"ener":521,"red":522,"$\\":523,"elta":524,"ion":525,"ill":526,"Ġhave":527,"pl":528,"Ġme":529,"ies":530,"ru":531,"ap":532,"ĠIn":533,"Ġwas":534,"line":535,"Ġmod":536,"amma":537,"so":538,"ence":539,"ĠTh":540,"ical":541,"_\\":542,"Ġ+":543,"ach":544,"ega":545,"ary":546,"ab":547,"pro":548,"Ġse":549,"Ġpo":550,"til":551,"Ġk":552,"sum":553,"Ġob":554,"der":555,"ho":556,"mathbb":557,"Ġ\\\\":558,"ase":559,"=\\":560,"Ġsp":561,"}^{":562,"Ġsta":563,"}_{":564,"igma":565,"ia":566,"201":567,"Ġnot":568,"-\\":569,"Ġapp":570,"fe":571,"ber":572,"og":573,"ĠO":574,"bo":575,"ens":576,"Ġun":577,"times":578,"ak":579,"00":580,"^{\\":581,"phi":582,"Ġy":583,"cc":584,"ide":585,"ong":586,"sub":587,"the":588,"ou":589,"ms":590,"vel":591,"ous":592,"ang":593,"),":594,"ay":595,"lamb":596,"lambda":597,"Ġ{\\":598,").":599,"op":600,"Ġbo":601,"tain":602,"pi":603,"row":604,"bf":605,"feren":606,"of":607,"ric":608,"Ġqu":609,"rib":610,"ork":611,"In":612,"lon":613,"wo":614,"Ġall":615,"Ġno":616,"Ġra":617,"act":618,"ĠJ":619,"ding":620,"our":621,"Ġmodel":622,"hi":623,"ular":624,"mathbf":625,"ution":626,"vi":627,"ance":628,"hat":629,"unction":630,"alu":631,"pace":632,"psilon":633,"Ġhas":634,"over":635,"Ġone":636,"ĠK":637,"sigma":638,"are":639,"Ġshow":640,"ari":641,"po":642,"ame":643,"ray":644,"ĠU":645,"Ġim":646,"fin":647,"^{-":648,"Ġdis":649,"Ġper":650,"we":651,"Ġne":652,"Ġ(\\":653,"raph":654,"Ġr":655,"ations":656,"pon":657,"section":658,"}{\\":659,"beta":660,"ree":661,"ome":662,"ard":663,"tilde":664,"ollow":665,"Ġfi":666,"clu":667,"align":668,"tes":669,"Ġmo":670,"Ġdif":671,"Ġalso":672,"xi":673,"Ġtwo":674,"Ġi":675,"ally":676,"gh":677,"gamma":678,"Ġset":679,"mathrm":680,"+\\":681,"'s":682,"Ġte":683,"200":684,"Ġda":685,"Ġfunction":686,"ors":687,"time":688,"ust":689,"Ġcont":690,"Ġfollow":691,"Ġad":692,"tation":693,"Ġequ":694,"*}":695,"umber":696,"cent":697,"pt":698,"theta":699,"ĠWe":700,"Ġsim":701,"Ġresul":702,"uld":703,"no":704,"oc":705,"ents":706,"con":707,"ĠV":708,"delta":709,"Ġpa":710,"ess":711,"^\\":712,"erv":713,"$-":714,"ort":715,"rho":716,"Ġev":717,"]{":718,"Ġcor":719,"ex":720,")}":721,"idth":722,"ula":723,"Ġsuch":724,"bar":725,"est":726,"leq":727,"ated":728,"array":729,"dots":730,"tau":731,"\\\\":732,"set":733,"ties":734,"pres":735,"ke":736,"irst":737,"ps":738,"Ġif":739,"Ġinter":740,"erm":741,"figure":742,"Ġgener":743,"Ġhe":744,"Ġwhere":745,"}$,":746,"ial":747,"Ġwill":748,"}$.":749,"Ġour":750,"Ġen":751,"Ġdata":752,"}(\\":753,"Ġsub":754,"Ġfin":755,"Ġdist":756,"ics":757,"|\\":758,"les":759,"led":760,"ting":761,"big":762,"ag":763,"Ġbet":764,"12":765,"pec":766,"Ġdo":767,"nu":768,"yste":769,"We":770,"eqref":771,"ark":772,"ory":773,"Ġdifferen":774,"ample":775,"tical":776,"width":777,"Ġar":778,"ced":779,"app":780,"ry":781,"li":782,"Ġph":783,"ature":784,"Ġj":785,"Ġtime":786,"Ġtran":787,"fty":788,"Ġver":789,"partial":790,"infty":791,"omega":792,"Ġonly":793,"item":794,"Ġla":795,"cap":796,"form":797,"..":798,"orm":799,"Ġthen":800,"Ġout":801,"able":802,"ear":803,"Ġgiv":804,"Ġeach":805,"Ġconst":806,"Ġvalu":807,"tit":808,"sf":809,"Ġx":810,"ish":811,"âĢĻ":812,"Ġover":813,"sc":814,"eqn":815,"arrow":816,"Ġsol":817,"ian":818,"tri":819,"ween":820,"Ġso":821,"ne":822,"ud":823,"under":824,"Ġthere":825,"ast":826,"Ġdes":827,"Ġits":828,"pe":829,"Ġfirst":830,"ĠThis":831,"ĉĉ":832,"Ġreg":833,"com":834,"Ġabo":835,"Ġlo":836,"mation":837,"Th":838,"Ġmore":839,"Ġ{":840,"Ġsyste":841,"Delta":842,"mm":843,"Ġbut":844,"tab":845,"yn":846,"Ġro":847,"Ġbetween":848,"ves":849,"ĠĠĠĠĠĠĠĠĠĠĠĠĠĠĠĠ":850,"Ġother":851,"amet":852,"eld":853,"Ġthan":854,"ire":855,"pend":856,"ac":857,"ll":858,"var":859,"ility":860,"ould":861,"Ġrela":862,"sition":863,"Ġsc":864,"ince":865,"quad":866,"Ġcase":867,"mo":868,"ose":869,"Ġany":870,"ue":871,"Ġsome":872,"Ġnon":873,"Ġpre":874,"Ġcomp":875,"sim":876,"\\,":877,"clud":878,"Ġtheir":879,"Ġpres":880,"Ġthese":881,"}}\\":882,"dition":883,"cdot":884,"sec":885,"aus":886,"ĠâĢ":887,"Ġ[":888,"Ġele":889,"Ġcla":890,")$.":891,"orem":892,"space":893,"own":894,"Ġappro":895,"Ġhigh":896,"}[":897,"Ġes":898,"ges":899,"gy":900,"Ġtra":901,"ize":902,"mall":903,"serv":904,"Ġeff":905,"ator":906,"olds":907,"Ġsa":908,"ond":909,"ased":910,"epsilon":911,"gra":912,"Ġdec":913,"Ġwere":914,"eqnarray":915,"ments":916,"Ġcol":917,"ack":918,"11":919,"pm":920,"$$":921,"Ġ$(":922,"Ġwhen":923,"Om":924,"its":925,"chi":926,"Ġform":927,"Ġdefin":928,"age":929,"Ġnumber":930,"rt":931,"Ġlar":932,"18":933,"ise":934,"}_{\\":935,"Omega":936,"Ġop":937,"ten":938,"rim":939,"Ġgiven":940,"Ġacc":941,"Ġusing":942,"Ġpla":943,"gle":944,"ĠFor":945,"Ġwork":946,"Ġu":947,"Ġinte":948,"cess":949,"Ġuse":950,"Ġline":951,"Ġbeen":952,"ruct":953,"Ġman":954,"ip":955,"ron":956,"^*":957,"sq":958,"av":959,"min":960,"roup":961,"center":962,"Ġobtain":963,"ever":964,"Ġconsi":965,"where":966,"ok":967,"Ġused":968,"Ġ|":969,"Ġparamet":970,"Ġinto":971,"15":972,"put":973,"Ġbound":974,"Gamma":975,"ind":976,")$,":977,"fi":978,"ual":979,"Ġdisc":980,"irc":981,"thod":982,"ral":983,"Ġpartic":984,"ĠX":985,"ty":986,"ization":987,"ĠFig":988,"wide":989,"col":990,"Ġbec":991,"pla":992,"angle":993,"ĠY":994,"Ġag":995,"ain":996,"Ġ\"":997,"Ġstate":998,"Ġcal":999,"Ġup":1000,"sqrt":1001,"Ġdifferent":1002,"Ġ}":1003,"olog":1004,"trix":1005,"Ġunder":1006,"one":1007,"Ġresults":1008,"ulti":1009,"Ġz":1010,"Ġcl":1011,"Ġli":1012,"Ġinc":1013,"Ġsame":1014,"ger":1015,"16":1016,"round":1017,"Ġ${\\":1018,"ote":1019,"asure":1020,"ice":1021,"fra":1022,"Ġfact":1023,"textbf":1024,"ĠĠĠĠĠĠĠ":1025,"Ġtrans":1026,"subsection":1027,"vely":1028,"Ġfollowing":1029,")=":1030,"vare":1031,"ized":1032,"}=":1033,"Ġorder":1034,"ĠčĊ":1035,"varepsilon":1036,"Ġstar":1037,"Ġcomple":1038,"rightarrow":1039,"}^{\\":1040,"ĠIt":1041,"13":1042,"ici":1043,"cy":1044,"table":1045,"sh":1046,"Ġpl":1047,"^{(":1048,"ord":1049,"ning":1050,"bra":1051,"Ġhis":1052,"--":1053,"Ġprov":1054,"Ġthey":1055,"respon":1056,"old":1057,"ower":1058,"Ġac":1059,"ases":1060,"me":1061,"ugh":1062,"Ġanal":1063,"energy":1064,"mp":1065,"oun":1066,"Ġcur":1067,"ential":1068,"ix":1069,"raphics":1070,"Ġsec":1071,"Ġsign":1072,"rangle":1073,"Ġ\\,":1074,"ĠCh":1075,"Ġmethod":1076,"iver":1077,"ymb":1078,"gor":1079,"Ġpol":1080,"includ":1081,"lic":1082,"tively":1083,"ymbol":1084,"fter":1085,"egraphics":1086,"includegraphics":1087,"caption":1088,"Ġsystem":1089,"ins":1090,"199":1091,"ension":1092,"Ġoper":1093,"Ġobserv":1094,"tern":1095,"ating":1096,"14":1097,"Ġmay":1098,"Ġdistrib":1099,"Ġspace":1100,"ific":1101,"varphi":1102,"Ġmeasure":1103,"Ġrepres":1104,"owever":1105,"ox":1106,"ep":1107,"Ġfe":1108,"ci":1109,"Ġassum":1110,".~\\":1111,"pos":1112,"Ġboth":1113,"Ġcorrespon":1114,"},\\":1115,"ĠQ":1116,"Ġden":1117,"Ġprodu":1118,".,":1119,"bm":1120,"etric":1121,"Ġtak":1122,"lem":1123,"ined":1124,"cm":1125,"Ġmass":1126,"geq":1127,"non":1128,"Ġwell":1129,"ĠĠĊ":1130,"Ġchar":1131,"emph":1132,"ks":1133,"ough":1134,"ef":1135,"Ġfield":1136,"Ġkn":1137,"imension":1138,"Ġext":1139,"amb":1140,".}":1141,"&\\":1142,")^":1143,"overline":1144,"lation":1145,"ructure":1146,"proof":1147,"ĠĠĠĠĠ":1148,"Ġfo":1149,"ile":1150,"Ġind":1151,"Ġsmall":1152,"ely":1153,"Ġsur":1154,"tima":1155,"ann":1156,"25":1157,"Ġwould":1158,"Ġnew":1159,"Ġenergy":1160,"ints":1161,"Ġscal":1162,"''":1163,"ality":1164,"cted":1165,"au":1166,"Ġproble":1167,"vec":1168,"ton":1169,"Ġpoint":1170,"For":1171,"17":1172,"ilar":1173,"Ġvari":1174,"tt":1175,"gorith":1176,"Ġdire":1177,"mer":1178,"tiv":1179,"Ġdesc":1180,"Ġgo":1181,"Ġint":1182,"position":1183,"frak":1184,"}).":1185,"ax":1186,"Ġmost":1187,"Ġsee":1188,"ĠHe":1189,"bolds":1190,"Ġperform":1191,"fa":1192,"Ġconsider":1193,"boldsymbol":1194,"formation":1195,"hline":1196,"Ġgroup":1197,"log":1198,"[\\":1199,"mon":1200,"Ġste":1201,"ev":1202,"ining":1203,"port":1204,"Big":1205,"ition":1206,"Ġty":1207,"ists":1208,"ates":1209,"fic":1210,"ans":1211,"ject":1212,"ult":1213,"als":1214,"jec":1215,"}}$":1216,"co":1217,"ines":1218,"Ġclass":1219,"work":1220,"langle":1221,"ensity":1222,"ĠUn":1223,"Ġab":1224,"Ġmin":1225,"ions":1226,"Ġspec":1227,"ĠAn":1228,"Ġsupp":1229,"out":1230,"eng":1231,"ensure":1232,"Ġsing":1233,"ob":1234,"umer":1235,"mathfrak":1236,"ambda":1237,"ause":1238,"Lambda":1239,"Ġspect":1240,"ption":1241,"Ġpos":1242,"ĠZ":1243,"Ġgeneral":1244,"very":1245,"ldots":1246,"utions":1247,"Ġabout":1248,"21":1249,"Ġproper":1250,"ymm":1251,"arch":1252,"Ġima":1253,"Ġlim":1254,"ism":1255,"appa":1256,"Ġvalue":1257,"Ġlarge":1258,"rent":1259,"def":1260,"nab":1261,"cl":1262,"Phi":1263,"rough":1264,".\\":1265,"olution":1266,"Let":1267,"uch":1268,"rodu":1269,"Ġvalues":1270,"sk":1271,"Ġexper":1272,"Ġprocess":1273,"iden":1274,"ormal":1275,"ater":1276,"Ġcorre":1277,"ons":1278,"Ġinv":1279,"nabla":1280,"Ġexample":1281,"kappa":1282,"Ġfollows":1283,"sible":1284,"plit":1285,"pect":1286,"Ġ`":1287,"Ġmulti":1288,"ero":1289,"plic":1290,"30":1291,"Ġabove":1292,"citep":1293,"ross":1294,"etwork":1295,"Ġstructure":1296,"refore":1297,"Ġthree":1298,"Ġcompa":1299,"Ġshown":1300,"Ġwho":1301,"Ġrequ":1302,"Ġinde":1303,"Ġestima":1304,"rime":1305,"Ġran":1306,"ute":1307,"This":1308,"mbox":1309,"Ġgra":1310,"ulation":1311,"Ġmat":1312,"umn":1313,"Ġhad":1314,"uring":1315,"ctions":1316,"ov":1317,"ector":1318,"err":1319,"ura":1320,"Ġ,":1321,"Ġed":1322,"orph":1323,"ner":1324,"Ġresult":1325,"})$":1326,"ability":1327,"ency":1328,"Ġmodels":1329,"Ġdepend":1330,"otimes":1331,"Ġcons":1332,"Ġlocal":1333,"ĠPro":1334,"22":1335,"Ġincre":1336,"Ġdefined":1337,"ative":1338,"Ġyou":1339,"ull":1340,"textit":1341,"lim":1342,"Ġmag":1343,"raw":1344,"circ":1345,"ities":1346,"50":1347,"nonumber":1348,"ically":1349,"ive":1350,"Ġpe":1351,"Ġradi":1352,"entation":1353,"Ġsecond":1354,"ld":1355,"\\|":1356,"eterm":1357,"Ġprob":1358,"ied":1359,"ings":1360,"Ġevery":1361,"ffici":1362,"inu":1363,"gorithm":1364,"Sigma":1365,"ven":1366,"\\%":1367,"ha":1368,"Ġwhile":1369,"tisf":1370,"mis":1371,"bit":1372,"ug":1373,"urther":1374,"Ġsince":1375,"Ġneed":1376,"Ġter":1377,"Ġdistribution":1378,"rit":1379,"por":1380,"))":1381,"ensuremath":1382,"Ġafter":1383,"Ġstr":1384,"cor":1385,"ij":1386,"sing":1387,"Ġproblem":1388,"ick":1389,"ynam":1390,"Ġbel":1391,"ze":1392,"Ġcalc":1393,"Ġeffec":1394,"\\[":1395,"}),":1396,"Ġdescrib":1397,"urn":1398,"}}{":1399,"Ġpart":1400,"Ġreal":1401,"ie":1402,"Ġiden":1403,"ational":1404,"Ġapproach":1405,"ented":1406,"ib":1407,"Ġcent":1408,"see":1409,"24":1410,"Ġstud":1411,"ĠSt":1412,"/\\":1413,"Ġlead":1414,"sed":1415,"ily":1416,"Ġins":1417,"ĠAl":1418,"Ġdef":1419,"Ġsection":1420,"ern":1421,"Ġthrough":1422,"Ġsimilar":1423,"less":1424,"ved":1425,"Ġterms":1426,"Ġnetwork":1427,"Ġnow":1428,"\\!":1429,"with":1430,"Ġsatisf":1431,"arg":1432,"ural":1433,"tal":1434,"Ġback":1435,"mod":1436,"iable":1437,"redic":1438,"Ġ<":1439,"lish":1440,"wh":1441,"Ġyear":1442,"Ġam":1443,"Ġfeature":1444,"widetilde":1445,"}-":1446,"Ġvery":1447,"âĢĿ":1448,"Ġdensity":1449,"Ġcontain":1450,"Ġdoes":1451,"iqu":1452,"ĠThen":1453,"elf":1454,"{-":1455,"ese":1456,"Ġplay":1457,"vious":1458,"ert":1459,"Ġder":1460,"lear":1461,"yle":1462,"Ġfound":1463,"Ġparameters":1464,"main":1465,"etry":1466,"Ġmatrix":1467,"Ġlet":1468,"sta":1469,"rin":1470,"Ġdeterm":1471,"ane":1472,"Ġequation":1473,"Ġparticular":1474,"Ġobtained":1475,"ai":1476,"ently":1477,"ision":1478,"Ġhy":1479,"Ġrespec":1480,"ength":1481,"ysis":1482,"Ġ.":1483,"prime":1484,"ĠCon":1485,"23":1486,"Ġsample":1487,"lack":1488,"rop":1489,"istic":1490,"Ġdiscus":1491,"itial":1492,"Ġref":1493,"ĠâĢĵ":1494,"ward":1495,"ĠAs":1496,"man":1497,"Ġq":1498,"oper":1499,"ness":1500,"centering":1501,"Ġbased":1502,";\\":1503,"Ġget":1504,"Fig":1505,"Ġinclu":1506,"otential":1507,"Ġpaper":1508,"su":1509,"Ġelect":1510,"ited":1511,"Ġwor":1512,"Ġsum":1513,"tice":1514,"rum":1515,"Ġgraph":1516,"Ġbas":1517,"Ġredu":1518,"Ġterm":1519,"Ġ``":1520,"king":1521,"Ġmain":1522,"mber":1523,"Ġsolution":1524,"Ġthem":1525,"gebra":1526,"Ġshows":1527,"tabular":1528,"Ġbecause":1529,"ture":1530,"Ġlow":1531,"udi":1532,"Ġexperim":1533,"Ġ:":1534,")=\\":1535,"sitive":1536,"inal":1537,"Ġfunctions":1538,"Ġeven":1539,"box":1540,"Ġdue":1541,"Ġend":1542,"ling":1543,"ĠEq":1544,"198":1545,"ology":1546,"emma":1547,"ĠIf":1548,"not":1549,"Ġcorresponding":1550,"Ġfa":1551,"\\]":1552,"40":1553,"Ġflu":1554,"}+":1555,"ĠLet":1556,"Ġsingle":1557,"zeta":1558,"med":1559,"be":1560,"Ġtop":1561,"\\{":1562,"pan":1563,"Ġlinear":1564,"Ġcompon":1565,"dis":1566,"Ġmany":1567,"Ġfinite":1568,"Ġpredic":1569,"ĠCom":1570,"Ġsour":1571,"land":1572,"Ġapproxi":1573,"ange":1574,"Ġright":1575,"art":1576,"Ġdete":1577,"Ġlong":1578,"ee":1579,"Ġcould":1580,"Ġtri":1581,"ivers":1582,"andom":1583,"els":1584,"Ġcoun":1585,"Ġtheory":1586,"Ġsuper":1587,");":1588,"acter":1589,"Ġrec":1590,"mark":1591,"velop":1592,"xim":1593,"Ġsequ":1594,"Ġoff":1595,"Ġconstant":1596,"ech":1597,"elds":1598,"âĢĵ":1599,"matrix":1600,"by":1601,")}\\":1602,")^{":1603,".~":1604,"rest":1605,"Ġher":1606,"Re":1607,"Ġcho":1608,"Ġvar":1609,"}=\\":1610,"ĠTheorem":1611,"Ġstand":1612,"Ġpoints":1613,"Ġ&=":1614,"ival":1615,"ĠHowever":1616,"ash":1617,"Ġshould":1618,"Ġcondition":1619,"~~":1620,"Ġcontinu":1621,"face":1622,"ays":1623,"Ġaddition":1624,"fo":1625,"Ġstates":1626,"ful":1627,"Ġoptim":1628,"mper":1629,"Ġallow":1630,"ser":1631,"Ġinformation":1632,"$)":1633,"Ġlear":1634,"Ġfind":1635,"Ġrespectively":1636,"};":1637,"Ġcompu":1638,"Con":1639,"Ġfre":1640,"thm":1641,"omorph":1642,"lect":1643,"pr":1644,"Ġlevel":1645,"}]":1646,"{(":1647,"Ġparameter":1648,"ets":1649,"Ġcomm":1650,"Ġinitial":1651,"Ġdimension":1652,"Ġphase":1653,"Ġfil":1654,"Ġfix":1655,"posed":1656,"As":1657,"Ġfra":1658,"Ġsize":1659,")(":1660,"Ġproof":1661,"Ġprovid":1662,"ople":1663,"rate":1664,"Ġpotential":1665,"Ġintrodu":1666,"Ġinst":1667,"Ġstudy":1668,"Ġent":1669,"Ġmon":1670,"ng":1671,"Ġagain":1672,"antum":1673,"Ġindic":1674,"max":1675,"oth":1676,"Ġvi":1677,"ators":1678,"uster":1679,"Ġerr":1680,"draw":1681,"Ġsymm":1682,"Ġdeg":1683,"60":1684,"Ġpower":1685,"Ġpossible":1686,"ssi":1687,"Ġhand":1688,"rol":1689,"}_\\":1690,"Ġanalysis":1691,"Ġlike":1692,"Ġbeing":1693,"ath":1694,"100":1695,"cdots":1696,"pre":1697,"tations":1698,"mission":1699,"Ġhow":1700,"alax":1701,"Ġet":1702,"Ġlat":1703,"dered":1704,"pendent":1705,"Ġconn":1706,"Ġ($":1707,"oss":1708,"ason":1709,"Ġcomplex":1710,"mperature":1711,"000":1712,"Ġway":1713,"{{\\":1714,"ulations":1715,"}^\\":1716,"}|":1717,"Ġser":1718,"ving":1719,"widehat":1720,"uc":1721,"Ġthose":1722,"Ġact":1723,"2020":1724,"uil":1725,"Ex":1726,"Ġcontrib":1727,"df":1728,"cer":1729,"Ġpair":1730,"urb":1731,"Ġmean":1732,"ress":1733,"Ġminim":1734,"Ġvariable":1735,"Ġstrong":1736,"verage":1737,"Ġlimit":1738,"Ġ--":1739,"Ġshe":1740,"lemma":1741,"})\\":1742,"ĠĠĠĠĠĠ":1743,"Ġorig":1744,"It":1745,"Ġvector":1746,"27":1747,"Ġalgorithm":1748,"ink":1749,"style":1750,"Ġmap":1751,"Ġpresent":1752,"ditions":1753,"Ġderiv":1754,"Ġexpres":1755,"Ġimport":1756,"Ġdirect":1757,"ass":1758,"Ġconver":1759,"Ġ>":1760,"qquad":1761,"hen":1762,"Ġke":1763,"ĠSection":1764,"ĠTo":1765,"tra":1766,"^+":1767,"textwidth":1768,"ental":1769,"Ġcharacter":1770,"Ġtest":1771,"action":1772,"Ġasso":1773,"ually":1774,"eps":1775,"45":1776,"Ġmaxim":1777,"cho":1778,"}\\,":1779,"let":1780,"Ġrate":1781,"Ġrandom":1782,"ĠFigure":1783,"Ġhere":1784,"ĠâĢľ":1785,"2018":1786,"eck":1787,"&=":1788,"ier":1789,"}}(":1790,"scal":1791,"Ġregion":1792,"tis":1793,"reat":1794,"Ġexist":1795,"Ġwithin":1796,"Ġspa":1797,"war":1798,"new":1799,"chn":1800,"2019":1801,"ii":1802,"name":1803,"ĠNew":1804,"Ġdynam":1805,"onal":1806,"iod":1807,"ene":1808,"Ġ\\{":1809,"28":1810,"Ġrest":1811,"ants":1812,"cia":1813,"2017":1814,"Ġtotal":1815,"Psi":1816,"netic":1817,"Ġmom":1818,"05":1819,"usion":1820,"ost":1821,"...":1822,"}^{(":1823,"mula":1824,"Ġknown":1825,"75":1826,"Ġfour":1827,"Ġclos":1828,",-":1829,"ĠLemma":1830,"Ġcomb":1831,"Ġleft":1832,"vert":1833,"Ġduring":1834,"Ġav":1835,"Ġclo":1836,"ket":1837,"sequ":1838,"Ġtemperature":1839,"Ġprevious":1840,"ĠDe":1841,"till":1842,"Ġ$(\\":1843,"prop":1844,"Ġinf":1845,"33":1846,"To":1847,"odes":1848,"Ġcar":1849,"ils":1850,"note":1851,"Ġdeta":1852,"which":1853,"subset":1854,"view":1855,"Ġconstra":1856,"ĠSta":1857,"Ġprobability":1858,"Vert":1859,"uth":1860,"rid":1861,"tivity":1862,"ired":1863,"Ġgalax":1864,"26":1865,"Ġdefine":1866,"Ġocc":1867,"fore":1868,"ST":1869,"}\\\\":1870,"Ġdevelop":1871,"Ġzero":1872,"cos":1873,"Ġtype":1874,"Ġdia":1875,"Ġfam":1876,"Ġsystems":1877,"color":1878,"Ġobserved":1879,"Ġquantum":1880,"appro":1881,"operator":1882,"exp":1883,"cup":1884,"ript":1885,"ying":1886,"Ġlower":1887,"Ġconditions":1888,"Ġalong":1889,"Ġtechn":1890,"2016":1891,"]$":1892,"mathsf":1893,"gram":1894,"An":1895,"Ġmust":1896,"Ġwhat":1897,"Ġ&\\":1898,"({\\":1899,"90":1900,"ude":1901,"Ġknow":1902,"Ġsignific":1903,"tically":1904,"35":1905,"valu":1906,"Ġphot":1907,"Ġperformance":1908,"cing":1909,"meric":1910,"Ġfactor":1911,"ison":1912,"tics":1913,"Pro":1914,"bility":1915,"Ġmuch":1916,"size":1917,"foot":1918,"way":1919,"Ġtyp":1920,"Ġexpec":1921,"}+\\":1922,"rule":1923,"Ġstudi":1924,"Ġexists":1925,"effici":1926,"ĠOn":1927,"Ġhigher":1928,"Ġrange":1929,"Ġidenti":1930,"citet":1931,"Ġpositive":1932,"anti":1933,"play":1934,"tional":1935,"indent":1936,"read":1937,"ĠRe":1938,"Ġthus":1939,"hspace":1940,"Ġmethods":1941,"Ġequival":1942,"equiv":1943,"Ġrun":1944,"|^":1945,"Ġcluster":1946,"mid":1947,"Ġear":1948,"lock":1949,"mand":1950,"If":1951,"Ġsen":1952,"Ġcurrent":1953,"2015":1954,"Ġstandard":1955,"ances":1956,"ĠNo":1957,"Ġproperties":1958,"Ġalgebra":1959,"ference":1960,"side":1961,"hip":1962,"alle":1963,"Ġcirc":1964,"Ġnormal":1965,"II":1966,"Ġ||":1967,"small":1968,"Ġcre":1969,"Ġrele":1970,"orn":1971,"xspace":1972,"Ġpeople":1973,"Ġassume":1974,"ciated":1975,"Ġbefore":1976,"io":1977,"Ġloc":1978,"}:":1979,"ordin":1980,"He":1981,"Ġphys":1982,"Ġimage":1983,"pdf":1984,"ulated":1985,"other":1986,"eV":1987,"Ġvis":1988,"Ġfurther":1989,"Ġwithout":1990,"Ġimportant":1991,"}}{\\":1992,"'$":1993,"reg":1994,"wn":1995,"sin":1996,"operatorname":1997,"Ġsimple":1998,"Ġcross":1999,"Ġfrequ":2000,"stra":2001,"mit":2002,"32":2003,"Ġread":2004,"dimension":2005,"defin":2006,"ording":2007,"val":2008,"Ġmake":2009,"Ġnear":2010,"Ġpop":2011,"lying":2012,"Ġcases":2013,"Ġfixed":2014,"footnote":2015,"neq":2016,"Ġappear":2017,"Ġopen":2018,"Ġjust":2019,"Ġpri":2020,"sian":2021,"ground":2022,"ivid":2023,"Ġmed":2024,")]":2025,"oh":2026,"01":2027,"2014":2028,"plies":2029,"Ġdesign":2030,"ither":2031,"Ġspin":2032,"ological":2033,"Ġsequence":2034,"Ġdenote":2035,"}-\\":2036,"Ġequations":2037,"Ġge":2038,"ruction":2039,"Ġlast":2040,"Ġmade":2041,"xt":2042,"Ġtimes":2043,"texts":2044,")-":2045,"Ġcontrol":2046,"havi":2047,"star":2048,"yer":2049,"Ġlines":2050,"aw":2051,"lection":2052,"pper":2053,"ots":2054,"Ġoperator":2055,"Ġcompar":2056,"Ġeas":2057,"Ġlength":2058,"197":2059,"Ġproposed":2060,")}{":2061,"bal":2062,"Ġ-\\":2063,"ariant":2064,"oll":2065,"Ġsignificant":2066,"omin":2067,"Ġboundary":2068,"Ġpub":2069,"Ġtake":2070,"tig":2071,"Ġtraining":2072,"sions":2073,"Ġadd":2074,"skip":2075,"08":2076,"eloc":2077,"Ġimpro":2078,"Ġaround":2079,"Ġhel":2080,"29":2081,"ife":2082,"back":2083,"Ġproduct":2084,"theorem":2085,"Ġide":2086,"Ġstill":2087,"noindent":2088,"ices":2089,"Ġperiod":2090,"$}":2091,"ik":2092,"SS":2093,"Ġbuil":2094,"ique":2095,"sive":2096,"Ġdescribed":2097,"Ġaction":2098,"umerate":2099,"ĠSince":2100,"48":2101,"ected":2102,"ĠBy":2103,"light":2104,"Ġfit":2105,"Ġass":2106,"Ġcalled":2107,"asing":2108,"Ġconsist":2109,"Ġyears":2110,"oint":2111,"Ġinput":2112,"son":2113,"Ġpath":2114,"Ġassociated":2115,"ctor":2116,"Ġveloc":2117,"Ġrespect":2118,"Ġevalu":2119,"Ġgu":2120,"enumerate":2121,"ified":2122,"ume":2123,"veral":2124,"Ġabs":2125,"dag":2126,"ised":2127,"Ġserv":2128,")}$":2129,"Ġsem":2130,"Ġdataset":2131,"reen":2132,"Ġcontra":2133,"Ġapplic":2134,"Ġbelow":2135,"ination":2136,"]\\":2137,"Ġ)":2138,"mate":2139,"Ġinterest":2140,"ĠĠĠĠĠĠĠĠĠĠĠĠĠĠĠĠĠĠĠĠĠĠĠĠĠĠĠĠĠĠĠĠ":2141,"Ġsurface":2142,"itemize":2143,"scale":2144,"ĠLe":2145,"ild":2146,"2013":2147,"99":2148,"Ġanaly":2149,"Ġaverage":2150,"iversity":2151,"tio":2152,"Ġeffect":2153,"Ġlight":2154,"Ġband":2155,"vers":2156,"ĠThus":2157,"ott":2158,"Ġerror":2159,"Ġsepar":2160,"\\,\\":2161,"Ġnode":2162,"Ġscale":2163,"chool":2164,"Ġleast":2165,"Ġseveral":2166,"Ġformula":2167,"Ġbehavi":2168,"dimensional":2169,"Ġincluding":2170,"Ġdistance":2171,"top":2172,"Ġfree":2173,"vspace":2174,"Ġ/":2175,"lue":2176,"Ġbest":2177,"Ġnumer":2178,"mul":2179,"Ġinteg":2180,"Ġexact":2181,"ale":2182,"Al":2183,"Ġindu":2184,"omial":2185,"Ġconsidered":2186,"cept":2187,"Ġimplies":2188,"Ġwrit":2189,"Ġloss":2190,"inally":2191,"uto":2192,"Ġconf":2193,"ferences":2194,"scr":2195,"Ġfeatures":2196,"Ġtru":2197,"Ġcomplete":2198,"gg":2199,"Ġflow":2200,"~$":2201,"Ġbi":2202,"Ġdeno":2203,"Ġmoment":2204,"(-":2205,"03":2206,"fication":2207,"Ġdown":2208,"den":2209,"04":2210,"bigg":2211,"Ġextend":2212,"Ġsaid":2213,"Ġcoeffici":2214,"oid":2215,"Ġhal":2216,"2012":2217,"olumn":2218,"Ġarg":2219,"inary":2220,"ters":2221,"Ġmetric":2222,"umb":2223,"Ġobjec":2224,"atch":2225,"ars":2226,"edge":2227,"Ġexp":2228,"Ġtas":2229,"Ġlarger":2230,"ĠThese":2231,"lat":2232,"Ġ_{":2233,"Ġsource":2234,"split":2235,"approx":2236,"\\}$":2237,"Ġgood":2238,"reak":2239,"Ġfull":2240,"}}_":2241,"Ġweight":2242,"Ġless":2243,"2010":2244,"Ġlearning":2245,"ĠAmeric":2246,"ĠRo":2247,"ount":2248,"igen":2249,"orth":2250,")+":2251,"hile":2252,"any":2253,"95":2254,"ĉĊ":2255,"tor":2256,"Ġclear":2257,"Ġ\\|":2258,"Ġrema":2259,"multic":2260,"based":2261,"ĠAr":2262,"teq":2263,"though":2264,"By":2265,"65":2266,"ences":2267,"Ġchange":2268,"wise":2269,"2011":2270,"Ġhom":2271,"ah":2272,"Ġelements":2273,"node":2274,"gan":2275,"}}}":2276,"Ġelectron":2277,"Ġcy":2278,"tle":2279,"Ġcommun":2280,"Ġnext":2281,"ste":2282,"Ġedge":2283,"^-":2284,"multicolumn":2285,"Ġmagnetic":2286,"Ġelement":2287,"plus":2288,"Ġhim":2289,"Ġseries":2290,"bb":2291,"ames":2292,"ule":2293,"tices":2294,"Ch":2295,"mooth":2296,"ĠEx":2297,"ring":2298,"Ġgives":2299,"Ġsolutions":2300,"ER":2301,"amp":2302,"Ġauth":2303,"AS":2304,"Ġspectrum":2305,"mathscr":2306,"34":2307,"Ġindependent":2308,"Ġfields":2309,"ym":2310,"Ġachi":2311,"lass":2312,"ext":2313,"turb":2314,"rite":2315,"pping":2316,"van":2317,"Ġweak":2318,"ris":2319,"Ġnat":2320,"38":2321,"06":2322,"ĠAd":2323,"order":2324,"Ġdefinition":2325,"sto":2326,"Ġcoup":2327,"Ġpers":2328,"plicit":2329,"Ġstep":2330,"Com":2331,"that":2332,"&&":2333,"stand":2334,"raction":2335,"Ġchang":2336,"ĠMore":2337,"Ġstars":2338,"Ġview":2339,"Ġplan":2340,"Ġprove":2341,"Ġaff":2342,"AR":2343,"Ġsupport":2344,"echan":2345,"Ġunit":2346,"verse":2347,"lin":2348,"Pi":2349,"ior":2350,"ensor":2351,"seteq":2352,"linear":2353,"atter":2354,"Ġprovide":2355,"lable":2356,"02":2357,"rict":2358,"}^{-":2359,"36":2360,"{$":2361,"Ġinclud":2362,"omen":2363,"Ġlit":2364,"Ġmeans":2365,"Ġca":2366,"07":2367,"):":2368,"Ġeither":2369,"Ġvelocity":2370,"Ġclassi":2371,"irre":2372,"Ġtherefore":2373,"Ġsche":2374,"Ġpan":2375,"matic":2376,"ĠĠĠĠĠĠĠĠĠĠĠ":2377,"NN":2378,"Ġvol":2379,"ures":2380,"ĠSh":2381,"Ġspe":2382,"Ġintegra":2383,"Ġrelation":2384,"mat":2385,"Ġseen":2386,"ways":2387,"mag":2388,"ball":2389,"Ġrecent":2390,"ety":2391,"tablish":2392,"AT":2393,"Theta":2394,"Ġholds":2395,"}'":2396,"Ġestimate":2397,"inter":2398,"rans":2399,"Ġexpected":2400,"jor":2401,"ole":2402,"tity":2403,"lected":2404,"day":2405,"Ġnote":2406,"Ġwave":2407,"iron":2408,"Ġvia":2409,"Ġel":2410,"Ġemp":2411,"),\\":2412,"Ġside":2413,"egative":2414,"ĠSo":2415,"pic":2416,"Ġrelations":2417,"upp":2418,"Ġchann":2419,"gence":2420,"textrm":2421,"64":2422,"iform":2423,"finite":2424,"texttt":2425,"most":2426,"underline":2427,"ecess":2428,"Ġcoordin":2429,"Ġfinal":2430,"subseteq":2431,"ody":2432,"lobal":2433,"ched":2434,"Ġrespon":2435,"<\\":2436,"ĠTherefore":2437,"Ġlog":2438,"Ġ$|":2439,"ĠRes":2440,"Ġgive":2441,"tational":2442,"Ġeffective":2443,"ternal":2444,"rary":2445,"Ġyour":2446,"Ġquanti":2447,"Ġfew":2448,"Ġ\\;":2449,"ply":2450,"ocus":2451,"Ġevolution":2452,"Ġrelated":2453,"Ġyi":2454,"aving":2455,"pose":2456,"vestig":2457,"{}":2458,"ler":2459,"31":2460,"ailable":2461,"amil":2462,"Ġneut":2463,"Ġ$\\{":2464,"Ġcri":2465,"kes":2466,"Ġsets":2467,"ĠCo":2468,"ĠTable":2469,"Ġoccur":2470,"Ġregular":2471,"Ġrepresentation":2472,"Ġcap":2473,"Ġbetter":2474,"sid":2475,"37":2476,"Ġbro":2477,"ĠAt":2478,"inc":2479,"Ġblack":2480,"prod":2481,"ird":2482,"Since":2483,"use":2484,"Ġinvol":2485,"omes":2486,"Ġfamily":2487,"ged":2488,"normal":2489,"minus":2490,"Ġgenerated":2491,"more":2492,"ynomial":2493,"Ġeffects":2494,"lied":2495,"Ġemb":2496,"const":2497,"outh":2498,"Ġmark":2499,"Ġrece":2500,"Ġcomponent":2501,"Ġmis":2502,"rem":2503,"_+":2504,"Then":2505,"On":2506,"wards":2507,"mic":2508,"Ġposition":2509,"ster":2510,"2009":2511,"*{":2512,"Ġtheorem":2513,"Ġmen":2514,"lated":2515,"Ġflux":2516,"^{-\\":2517,"ograph":2518,"cle":2519,"Ġgrow":2520,"Ġ($\\":2521,"now":2522,"Ġvariables":2523,"dd":2524,"auge":2525,"Ġcomponents":2526,"sp":2527,"Ġprec":2528,"ration":2529,"fied":2530,"Ġdifference":2531,"Ġlater":2532,"Ġevent":2533,")|":2534,"az":2535,"ury":2536,"Ġanother":2537,"80":2538,"gether":2539,"Ġimages":2540,"55":2541,"overn":2542,"Ġrese":2543,"oplus":2544,"map":2545,"Ġequal":2546,"ime":2547,"tr":2548,"thing":2549,"ible":2550,"part":2551,"2021":2552,"ories":2553,"Ġret":2554,"}}_{":2555,"dagger":2556,"Ġtrac":2557,"Ġsuc":2558,"Ġtransition":2559,"Ġdegree":2560,"Ġturn":2561,"Ġcer":2562,"setminus":2563,"44":2564,"Ġcompared":2565,"Ġlaw":2566,"ĠSec":2567,"Ġestablish":2568,"arget":2569,"Ġeffici":2570,"Ġarea":2571,"Ġratio":2572,"ĠCar":2573,"Ġcost":2574,"Ġimple":2575,"Ġhowever":2576,"figura":2577,"Ġgas":2578,"Ġdri":2579,"09":2580,"Ġhist":2581,"Ġques":2582,"Ġcontinuous":2583,"\\}":2584,"Ġvarious":2585,"omorphism":2586,"fill":2587,"norm":2588,"Ġavailable":2589,"hift":2590,"loy":2591,"Ġcontains":2592,"Ġsetting":2593,"racy":2594,"Ġmechan":2595,"ults":2596,"Ġemission":2597,"Ġeigen":2598,"lec":2599,"2008":2600,"gs":2601,"){\\":2602,"uted":2603,"Ġsay":2604,"Ã©":2605,"ĠĠĠĊ":2606,"ĠUniversity":2607,"ĠPar":2608,"Ġagainst":2609,"ored":2610,"Ġinvestig":2611,"Ġfram":2612,"iate":2613,"Ġmy":2614,"Ġcell":2615,"Ġlook":2616,"gen":2617,"Ġpresented":2618,"Ġgalaxies":2619,"Ġgeom":2620,"\\'":2621,"Ġsignal":2622,"thes":2623,"}/":2624,"Ġfocus":2625,"Ġbasis":2626,"Ġblock":2627,"ade":2628,"ĠThere":2629,"Ġsqu":2630,"ape":2631,"Ġ$-":2632,"}},":2633,"ln":2634,"Ġinequ":2635,"Ġhelp":2636,"CD":2637,"ĠApp":2638,"Ġmultiple":2639,"Ġrequire":2640,"Ġenc":2641,"Ġdid":2642,"bul":2643,"ledge":2644,"Ġill":2645,"Ġ$[":2646,"cont":2647,"ĠCol":2648,"wedge":2649,"$_":2650,"Ġval":2651,"Ġsmooth":2652,"67":2653,"Ġoriginal":2654,"Ġnoise":2655,"ument":2656,"bound":2657,"ĠĠĠĠĠĠĠĠĠ":2658,"Ġproperty":2659,"Ġhyper":2660,"98":2661,"Ġpolynomial":2662,"izing":2663,"Ġpur":2664,"tition":2665,"Ġshort":2666,"Ġmaximum":2667,"script":2668,"Ġmix":2669,"tives":2670,"Ġsymmetry":2671,"References":2672,"Ġadditional":2673,"go":2674,"Ġfar":2675,"linewidth":2676,"2006":2677,"Ġcate":2678,"ĠNote":2679,"ium":2680,"Ġmet":2681,"Ġreach":2682,"Ġnecess":2683,"ividual":2684,"Ġcommon":2685,"Ġlabel":2686,"Ġstatis":2687,"Ġintegral":2688,"68":2689,"2007":2690,"amilton":2691,"tage":2692,"Ġthough":2693,"Ġself":2694,"_{(":2695,"viron":2696,"Ġexten":2697,"Ġobservations":2698,"Ġclose":2699,"ries":2700,"Ġdel":2701,"Ġmatch":2702,"Ġdirection":2703,"Ġfrequency":2704,"tative":2705,"sup":2706,"ock":2707,"Ġdomain":2708,"ĠPh":2709,"Ġequivalent":2710,"47":2711,"Ġ|\\":2712,"Ġupper":2713,"Ġbounded":2714,"Ġbackground":2715,"uture":2716,"test":2717,"ription":2718,"iven":2719,"angu":2720,"rel":2721,"multi":2722,"Ġprim":2723,"Ġmagn":2724,"Ġinclude":2725,"Ġuncer":2726,"idence":2727,")\\,":2728,"ides":2729,"_*":2730,"sitions":2731,"Ġdecre":2732,"display":2733,"Ġspecific":2734,"like":2735,"Ġoperators":2736,"alth":2737,"Ġcannot":2738,"Ġinteraction":2739,"Ġcurve":2740,"ata":2741,",\\,":2742,"Ġhence":2743,"hood":2744,"ĠThey":2745,"Ġapproximation":2746,"Note":2747,"Ġresearch":2748,"subfigure":2749,"command":2750,"Ġsmaller":2751,"site":2752,"Ġteam":2753,"ĠAss":2754,"ging":2755,"actions":2756,"39":2757,"Ġalways":2758,"Ġwhose":2759,"49":2760,"dist":2761,"llar":2762,"ĠFe":2763,"Ġnatural":2764,"ully":2765,"Ġlik":2766,"limits":2767,"page":2768,"Ġreason":2769,"Ġti":2770,"ollary":2771,"Ġapplied":2772,"Ġoutput":2773,"_{{\\":2774,"Ġground":2775,"Ġprofi":2776,"tered":2777,"rees":2778,"ĠAnd":2779,"Ġgauge":2780,"Ġfig":2781,"ohn":2782,"ymp":2783,"Ġsuffici":2784,"Ġperturb":2785,"ina":2786,"Ġtrue":2787,"_{-":2788,"Ġgroups":2789,"Ġmatter":2790,"Ġspecial":2791,"Ġwhe":2792,"Ġtaken":2793,"bor":2794,"Ġ(-":2795,"Ġown":2796,"Ġexpl":2797,"bs":2798,"mediate":2799,"Ġatta":2800,"pact":2801,"ticle":2802,"Ġrepla":2803,"aussian":2804,"ready":2805,"Ġparticles":2806,"eff":2807,"Ġembed":2808,"resh":2809,"ht":2810,"allel":2811,"ectors":2812,"group":2813,"colon":2814,"Ġvertex":2815,"{$\\":2816,"ĠCoun":2817,")}(":2818,"Ġconfigura":2819,"ital":2820,"Ġparticle":2821,"PS":2822,"uracy":2823,"Ġwrite":2824,"Un":2825,"point":2826,"Ġplace":2827,"AN":2828,"Ġ}\\":2829,"Ġindex":2830,"Ġclosed":2831,"Ġwa":2832,"Ġneigh":2833,"hy":2834,"Ġaccording":2835,"Ġconc":2836,"Ġdiscre":2837,"Ġsubset":2838,"Ġ\\(":2839,"Ġrelative":2840,"vial":2841,"',":2842,"ank":2843,"}}(\\":2844,"Ġbecomes":2845,"\\!\\!":2846,"ework":2847,"Ġcoupling":2848,"Ġred":2849,"Ġsimulations":2850,"Ġcentral":2851,"Ġdynamics":2852,"ope":2853,"Ġextra":2854,"ĠAmerican":2855,"//":2856,"ropy":2857,"rices":2858,"'\\":2859,"Ġsyn":2860,"Ġindividual":2861,"ili":2862,"Ġprin":2863,"dif":2864,"ouse":2865,"umbers":2866,"ilities":2867,"Ġregions":2868,"Ġuniform":2869,"Ġbehavior":2870,"ĠBo":2871,"mentation":2872,"uting":2873,"Ġchoice":2874,"2005":2875,"ĠProposition":2876,"Ġenough":2877,"Ġdiff":2878,"'_":2879,"ont":2880,"Ġnumerical":2881,"Ġcertain":2882,"Ġrequired":2883,"Ġdetermined":2884,"Ġnuc":2885,"MS":2886,"Ġwidth":2887,"lations":2888,"Ġtogether":2889,"une":2890,"enc":2891,"ret":2892,"Ġpat":2893,"Ġtarget":2894,"Ġfund":2895,"ake":2896,"Ġmomentum":2897,"Ġspectral":2898,"aligned":2899,"Ġphysical":2900,"Ġrepor":2901,"Ġmight":2902,"bullet":2903,"Ġamplit":2904,"Ġstrate":2905,"uple":2906,"Ġdi":2907,"Ġmode":2908,"}$-":2909,"ived":2910,"70":2911,"Ġsatisfies":2912,"Ġsk":2913,")/":2914,"Ġworld":2915,"Ġexpon":2916,"pped":2917,"sider":2918,"usic":2919,"Ġpeak":2920,")_{":2921,"amiltonian":2922,"des":2923,"rr":2924,"Ġscen":2925,"izes":2926,"Ġprac":2927,"ream":2928,"vari":2929,"AC":2930,"ĠEng":2931,"function":2932,"ths":2933,"Ġatt":2934,"perp":2935,"off":2936,"][":2937,"eter":2938,"orld":2939,"osen":2940,"Ġsources":2941,"sl":2942,"Ġamong":2943,"tate":2944,"Ġalready":2945,"Ġsearch":2946,"Ġgame":2947,"Ġoptimal":2948,"Ġlife":2949,"Ġ+\\":2950,")^{\\":2951,"Ġrepresent":2952,"Ġevents":2953,"Ġiter":2954,"Ġdiscussed":2955,"ĠAll":2956,"Ġexpla":2957,"Ġremo":2958,"Eq":2959,"Ġexplicit":2960,"definition":2961,"astic":2962,"long":2963,"ek":2964,"Ġpublic":2965,"Ġcour":2966,"fy":2967,"ift":2968,"Ġmaps":2969,"Ġcritical":2970,"Ġlin":2971,".~(\\":2972,"uro":2973,"ĠIs":2974,"pansion":2975,"Ġrefer":2976,"ouble":2977,"Ġang":2978,"66":2979,"Ġlattice":2980,"Ġcall":2981,"ĠMe":2982,"Ġopp":2983,"Ġclassical":2984,"Ġimprove":2985,"rand":2986,"IC":2987,"St":2988,"Ġradius":2989,"tead":2990,"Ġunique":2991,"ece":2992,"85":2993,"Ġproced":2994,"Ġsite":2995,"Ġnam":2996,"field":2997,"bert":2998,"Ġ:=":2999,"Ġkey":3000,"Ġvalid":3001,"Ġdomin":3002,"Ġexperiments":3003,"nal":3004,"spec":3005,"simeq":3006,"stit":3007,"Ġorgan":3008,"Ġobjects":3009,"ulate":3010,"ottom":3011,"Ġdemon":3012,"endix":3013,"Ġarbit":3014,"Ġtherm":3015,"kn":3016,"Ġglobal":3017,")^{-":3018,"Ġcompact":3019,"ĠCor":3020,"Ġtr":3021,"Ġoften":3022,"ĠOne":3023,"forall":3024,"Ġstra":3025,"Ġhard":3026,"Ġpolar":3027,"IS":3028,"terial":3029,"ĠHence":3030,"do":3031,"ww":3032,"97":3033,"ĉĉĉ":3034,"$^{-":3035,"ympto":3036,"umin":3037,"Ġsit":3038,"Ġcode":3039,"ience":3040,"nd":3041,"Ġprovided":3042,"subsubsection":3043,"mar":3044,"Ġmajor":3045,"2004":3046,"Ġrather":3047,"Ġdirectly":3048,"Ġenviron":3049,"Ġclaim":3050,"deg":3051,"enn":3052,"://":3053,"}%":3054,"iness":3055,"Ġrestric":3056,"Ġatom":3057,"olic":3058,"ĠUnited":3059,"IN":3060,"Ġconnected":3061,"DE":3062,"produ":3063,"Ġacross":3064,"uman":3065,"Ġable":3066,"Ġconstruction":3067,"Ġ&=&":3068,"Ġwritten":3069,"Ġcorresponds":3070,"Ġcos":3071,"2000":3072,"Ġwhether":3073,"jection":3074,"Ġmeasured":3075,"Ġcolumn":3076,"down":3077,"Ġproblems":3078,"=(":3079,"Ġversion":3080,"Ġdecay":3081,"xy":3082,"Ġplot":3083,"ĠBe":3084,"ded":3085,"Ġsamples":3086,"ared":3087,"'t":3088,"flo":3089,"Ġvan":3090,"Ġcontribution":3091,"Ġincrease":3092,"Ġapproximate":3093,"serve":3094,"Ġuntil":3095,"black":3096,"$).":3097,"eneral":3098,"gies":3099,"cial":3100,"Ġvertices":3101,"Ġlayer":3102,"ĠWith":3103,"Ġincreasing":3104,"itch":3105,"pag":3106,"No":3107,"Ġlist":3108,"Ġsuppor":3109,"^{+":3110,":\\":3111,"ery":3112,"Ġaccount":3113,"Ġinequality":3114,"Ġcaus":3115,"ĠBut":3116,"textsc":3117,"Ġintroduced":3118,"Ġfuture":3119,"ley":3120,"Ġprovides":3121,"ires":3122,"Ġcoefficients":3123,"lan":3124,"range":3125,"Ġ'":3126,"}^*":3127,"Ġdetails":3128,"Ġworks":3129,"Ġscheme":3130,"46":3131,"96":3132,"ify":3133,"Ġalmost":3134,"Ġderived":3135,"ering":3136,"Ġunderstand":3137,"Ġhor":3138,"Ġperformed":3139,"Ġmanif":3140,"Ġscatter":3141,"Ġmeasurements":3142,"cur":3143,"Ġpopulation":3144,"Ġadj":3145,"Ġassumption":3146,"Ġspatial":3147,"Ġallows":3148,"sw":3149,"ather":3150,"my":3151,"Ġreturn":3152,"Ġresulting":3153,"Ġaccuracy":3154,"Ġframework":3155,"pc":3156,"ĠWhen":3157,"dec":3158,"pher":3159,"rip":3160,"gory":3161,"Ġdev":3162,"Ġbran":3163,"Ġgre":3164,"Ġcomparison":3165,"De":3166,"Ġcorrelation":3167,"ising":3168,"AA":3169,"Ġexpression":3170,"Ġobject":3171,"Ġdecom":3172,"dt":3173,"~$\\":3174,"ĠMar":3175,"Ġrepresen":3176,"=-":3177,"42":3178,"Ġnumbers":3179,".\"":3180,"Ġnodes":3181,"Ġinstance":3182,"unt":3183,"Ġcontext":3184,"Ġmotion":3185,"Ġprojec":3186,"fact":3187,"Ġconven":3188,"ĠRef":3189,"Ġscalar":3190,"Ġorbit":3191,"Ġnegative":3192,"osp":3193,"Ġcompute":3194,"uation":3195,"Ġagree":3196,"Ġearly":3197,")}{\\":3198,"pmatrix":3199,"Ġbecome":3200,"Ġplane":3201,"Ġlearn":3202,"Ġillust":3203,"aries":3204,"arge":3205,"can":3206,"hom":3207,"vex":3208,"vant":3209,"Int":3210,"Ġthird":3211,"roduction":3212,"$$\\":3213,"Ġtheore":3214,"Ġchannel":3215,"Ġdep":3216,"uppose":3217,"Here":3218,"ump":3219,"ably":3220,"Ġapply":3221,"Ġscenari":3222,"cases":3223,"Ġinstead":3224,"43":3225,"Ġcalculated":3226,"arily":3227,"Ġmaterial":3228,")\\\\":3229,"Ġsto":3230,"Ġsimulation":3231,"Ġtask":3232,"Ġprior":3233,"Ġenti":3234,"OS":3235,"Ġtw":3236,"Ġrole":3237,"Ġec":3238,"gorithms":3239,"Ġarch":3240,"Ġedges":3241,"Ġconstraints":3242,"itect":3243,"from":3244,"})$.":3245,"Ġdistributions":3246,"tein":3247,"Ġtoo":3248,"Ġhaving":3249,"ĠMoreover":3250,"$(":3251,"57":3252,"ĠSch":3253,"anguage":3254,"Ġspectra":3255,"Ġsug":3256,"],":3257,"ware":3258,"Ġlinks":3259,"ceed":3260,"ĠOur":3261,"Ġquas":3262,"Ġ=\\":3263,"ĠRec":3264,"Ġben":3265,"IR":3266,"acc":3267,"zero":3268,"pri":3269,"Ġstudies":3270,"ove":3271,"Ġcurves":3272,"abs":3273,"Ġconsistent":3274,"ules":3275,"urthermore":3276,"}}^":3277,"inde":3278,"isted":3279,"Ġseem":3280,"dient":3281,"iving":3282,"alk":3283,"Ġcorrespond":3284,"Ġleads":3285,"mbers":3286,"Ġdenotes":3287,"ĠHere":3288,"Ġfla":3289,"png":3290,"Ġbreak":3291,"Figure":3292,"ĠNational":3293,"ail":3294,"58":3295,"af":3296,"ĠCan":3297,"hem":3298,"Ġpattern":3299,"sfer":3300,"Ġcondu":3301,"pol":3302,"MC":3303,"Ġdependence":3304,"odot":3305,"Ġstart":3306,"Ġstudied":3307,"isms":3308,")$-":3309,"Ġrob":3310,"empt":3311,"tag":3312,"mma":3313,"Ġinvariant":3314,"Ġgovern":3315,"Ġhead":3316,"ĠHamiltonian":3317,"Ġtext":3318,"Ġhalf":3319,"head":3320,"ogene":3321,"Ġtensor":3322,"graph":3323,"ĠMay":3324,"2003":3325,"imilar":3326,"Ġpress":3327,"ush":3328,"ends":3329,"Ġchanges":3330,"Our":3331,"cep":3332,"ashed":3333,"Ġpanel":3334,"Ġschool":3335,"ES":3336,"remark":3337,"Ġbegin":3338,"AP":3339,"Ġnetworks":3340,"ĠLi":3341,"ously":3342,"CC":3343,"mapsto":3344,"Now":3345,"Ġattack":3346,"ĠSe":3347,"Ġexpansion":3348,"air":3349,"Ġchosen":3350,"Ġsoc":3351,"dle":3352,"Ġexperimental":3353,"onom":3354,"cell":3355,"Ġdual":3356,"iti":3357,"Ġax":3358,"ĠJan":3359,"Ġinterpre":3360,"clude":3361,"reng":3362,"tention":3363,"Ġminimum":3364,"Ġconstruct":3365,")_":3366,"Ġsugges":3367,"){":3368,"ID":3369,"paramet":3370,"Ġleading":3371,"Ġwords":3372,"Ġpost":3373,"Ġdiffic":3374,"ĠCent":3375,"\\|_{":3376,"uk":3377,"yers":3378,"Ġ_":3379,"56":3380,"newcommand":3381,"Ġreview":3382,"Ġinfinite":3383,"FT":3384,"There":3385,"forms":3386,"Ġcapa":3387,"Ġreduced":3388,"ried":3389,"AL":3390,"izon":3391,"Ġstellar":3392,"Ġdetection":3393,"sem":3394,"ibri":3395,"Ġpolic":3396,"dx":3397,"Ġtaking":3398,"dim":3399,"ĠJohn":3400,"inf":3401,"Ġsymmetric":3402,"Ġcheck":3403,"Ġdone":3404,"Theorem":3405,"ima":3406,"Net":3407,"Ġprocedure":3408,"ĠMon":3409,"Thus":3410,"Ġcut":3411,"$~":3412,"Ġmagnit":3413,"ĠShe":3414,"osed":3415,"AM":3416,"\",":3417,"ĠFrom":3418,"Ġquestion":3419,"ilibri":3420,"41":3421,"Ġchild":3422,"Ġcharge":3423,"Ġsense":3424,"Ġfilm":3425,"ĠCO":3426,"ĠII":3427,"EE":3428,"Ġwin":3429,"model":3430,"Ġsoft":3431,"usiness":3432,"known":3433,"ĠGaussian":3434,"={":3435,"Âł":3436,"Ġamo":3437,"andid":3438,"âĢľ":3439,"zed":3440,"Ġcomputed":3441,"dings":3442,"|_{":3443,"eli":3444,"ĠOr":3445,"Ġmention":3446,"omorphic":3447,"utes":3448,"ampl":3449,".âĢĿ":3450,"Ġangle":3451,"Ġsw":3452,"ructed":3453,"Ġformation":3454,"ĠPo":3455,"Ġalgorithms":3456,"stack":3457,"ĠMan":3458,"na":3459,"_-":3460,"loc":3461,"77":3462,"Ġdepends":3463,"Ġsingular":3464,"ages":3465,"Ġplayers":3466,"88":3467,"proposition":3468,"Ġmodes":3469,"However":3470,"Ġcharacteristic":3471,"Ġconsequ":3472,"Ġtypes":3473,"sol":3474,"Ġproduction":3475,"Ġcolor":3476,"Ġmatrices":3477,"ĠSc":3478,"Ġbook":3479,"ĠNe":3480,"CO":3481,"Ġname":3482,"mini":3483,"ele":3484,"Ġchoose":3485,"ĠMa":3486,"aly":3487,"\\{\\":3488,"ba":3489,"$;":3490,"Ġwar":3491,"dshift":3492,"}}^{":3493,"Ġasympto":3494,"level":3495,"Ġchain":3496,"ĠFran":3497,"iled":3498,"'(":3499,"Ġtree":3500,"Ġ$$":3501,"Ġprocesses":3502,"hbar":3503,"Ġdiag":3504,"Ġmove":3505,"rence":3506,"Ġdescribe":3507,"itz":3508,"displaystyle":3509,"Ġdiagram":3510,"tik":3511,"Ġinteresting":3512,"band":3513,"eline":3514,"Ġpartial":3515,"Ġhome":3516,"Ġrow":3517,"Res":3518,"irrep":3519,"Ġpresence":3520,"Ġyields":3521,"ĠStates":3522,"Ġcorrect":3523,"ound":3524,"ernel":3525,"Ġtakes":3526,"Ġcare":3527,"illa":3528,"Ġrank":3529,"ĉĉĉĉ":3530,"Ġseg":3531,"Ġhar":3532,"Ġincluded":3533,"Ġess":3534,"Ġintroduce":3535,"69":3536,"Ġgalaxy":3537,"acy":3538,"Ġcoll":3539,"Ġeigenvalu":3540,"vity":3541,"ses":3542,"Ġpossi":3543,"Ġexamples":3544,"Ġsimply":3545,"state":3546,"ana":3547,"Ġday":3548,"Ġclasses":3549,"Ġliter":3550,"Ġuser":3551,"Ġfive":3552,"clusion":3553,"Ġarbitrary":3554,"\\_":3555,"Ġdiv":3556,"icro":3557,"onic":3558,"Ġquark":3559,"Ġeng":3560,"Ġvolume":3561,"Ġstructures":3562,"ĠSte":3563,"Ġdisk":3564,"ially":3565,"Ġloop":3566,"thesis":3567,"yl":3568,"dro":3569,"bits":3570,"\\\"":3571,"Ġfoot":3572,"AB":3573,"clus":3574,"Ġconv":3575,"Ġincreases":3576,"ĠâĢĶ":3577,"Ġreported":3578,"ideo":3579,"Ġexperiment":3580,"Ġmem":3581,"From":3582,"Ġlatter":3583,"Ġresolution":3584,"')":3585,"Ġcenter":3586,"Ġseason":3587,"Ġmakes":3588,"Ġenvironment":3589,"Ġwind":3590,"Ġemploy":3591,"eved":3592,"Ġshift":3593,"bold":3594,"Ġmer":3595,"Ġtransform":3596,"Ġspaces":3597,"sities":3598,"Ġstreng":3599,"ls":3600,"lip":3601,"}({\\":3602,"ilibrium":3603,"2002":3604,"ĠFirst":3605,"Ġtreat":3606,"Ġeasily":3607,"inv":3608,"Ġbase":3609,"hbox":3610,"Ġdouble":3611,"Ġfore":3612,"Ġconvergence":3613,"Ġachie":3614,"Ġadop":3615,"'}":3616,"Ġentire":3617,"data":3618,"Ġfigure":3619,"Ġru":3620,"Ġquad":3621,"Ġtor":3622,"Ġnecessary":3623,"Ġfac":3624,"Ġestimates":3625,"Ġuseful":3626,"thers":3627,"ood":3628,"ately":3629,"Ġsplit":3630,"avy":3631,")+\\":3632,"Ġpairs":3633,"mations":3634,"Ġlarg":3635,"minipage":3636,"Ph":3637,"Ġscattering":3638,"vey":3639,"ification":3640,"Ġdetermine":3641,"NR":3642,"&=&":3643,"alg":3644,"Ġvanish":3645,"Le":3646,"mpt":3647,"}}$,":3648,"}}$.":3649,"ino":3650,"Ġinteractions":3651,"Ġmid":3652,"org":3653,"ĠIndi":3654,"}{|":3655,"mc":3656,"algebra":3657,"Ġbeam":3658,"87":3659,"example":3660,"Ġcover":3661,"ciple":3662,"type":3663,"ĠUS":3664,"Ġupda":3665,"Ġspeed":3666,"Ġcomputation":3667,"})$,":3668,"More":3669,"Ġapproaches":3670,"lor":3671,"Ġthresh":3672,"Ġmeasurement":3673,"Ġtable":3674,"cong":3675,"}&":3676,"Ġassign":3677,"Ġbroad":3678,"Ġfactors":3679,"Ġcouple":3680,"Ġpropag":3681,"nt":3682,"bum":3683,"ography":3684,"Ġpul":3685,"PR":3686,"Ġrepresents":3687,"Ġcandid":3688,"inty":3689,"Rec":3690,"}{(":3691,"ious":3692,"urate":3693,"ĠAust":3694,"mass":3695,"illion":3696,"uary":3697,"ĠPa":3698,"Ġlemma":3699,")-\\":3700,"}$)":3701,"grams":3702,"mpor":3703,"Ġchall":3704,"Ġfraction":3705,"Ġextended":3706,"Ġanti":3707,"Ġdifferential":3708,"Ġrelevant":3709,"Ġstable":3710,"Ġorigin":3711,"Ġada":3712,"Ġremains":3713,"Ġdraw":3714,"Ġshape":3715,"Ġosc":3716,"bin":3717,"encies":3718,"Ġcount":3719,"Ġexistence":3720,"Ġobserve":3721,"ues":3722,"berg":3723,"Ġ~":3724,"Ġrequires":3725,"Ġvectors":3726,"Ġrecord":3727,"ĠBri":3728,"At":3729,"tikz":3730,"ker":3731,"Ġanno":3732,"$),":3733,"Ġoptical":3734,"change":3735,"Ġtransfer":3736,"CS":3737,"ED":3738,"ĠCal":3739,"ĠAfter":3740,"ĠWar":3741,"symm":3742,"Ġformer":3743,"59":3744,"Ġimpact":3745,"tainty":3746,"vent":3747,"Ġexactly":3748,"odel":3749,"Ġauthor":3750,"Ġarchitect":3751,"Ġmasses":3752,"picture":3753,"Ġhapp":3754,"Ġestimated":3755,"Ġstation":3756,"Ġaltern":3757,"uations":3758,"ecause":3759,"\".":3760,"Ġbin":3761,"Ġnorm":3762,"ampling":3763,"2001":3764,"Ġanalog":3765,"52":3766,"sa":3767,"Ġmembers":3768,"Ad":3769,"))$":3770,"ystem":3771,"63":3772,"Ġgreat":3773,"Ġ$|\\":3774,"Ġauto":3775,"SO":3776,"Ġsatisfy":3777,"Ġsignificantly":3778,"enti":3779,"lap":3780,"-$":3781,"lash":3782,"Ġprogram":3783,"oung":3784,")}_{":3785,"ĠSci":3786,"bi":3787,"Ġwant":3788,"ister":3789,")},":3790,"Ġdon":3791,"Ġput":3792,"ĠPre":3793,"Ġdeveloped":3794,"riter":3795,"iam":3796,"ode":3797,"Ġdiscuss":3798,"Ġdark":3799,"ĠWorld":3800,"ogn":3801,"sts":3802,"One":3803,"Ġamplitude":3804,"Ġrel":3805,"Ġpass":3806,"Ġmaking":3807,"Ġmorph":3808,"Ġhold":3809,"DF":3810,"ram":3811,"ĠJu":3812,"Ġclassification":3813,"Ġuses":3814,"agraph":3815,"fit":3816,"sur":3817,"Ġage":3818,"zation":3819,"~~~~":3820,"Ġproduced":3821,"ĠGe":3822,"Ġredshift":3823,"54":3824,"iral":3825,"Hz":3826,"Ġlikely":3827,"Ġinflu":3828,"Ġcoordinates":3829,"ung":3830,":}":3831,"eler":3832,"lesssim":3833,"deed":3834,"oy":3835,"LS":3836,"cr":3837,"Ġgap":3838,"Ġsupported":3839,"Ġland":3840,"ĠMin":3841,"Ġsteps":3842,"Ġconta":3843,"que":3844,"Ġlumin":3845,"ards":3846,"Ġapplications":3847,"bur":3848,"Ġparts":3849,"tible":3850,"[(":3851,"Ġshall":3852,"ĠYork":3853,"uck":3854,"oding":3855,"Ġhuman":3856,"Ġreference":3857,"78":3858,"LP":3859,"Ġconsists":3860,"Ġargument":3861,"ders":3862,"With":3863,"column":3864,"timation":3865,"Ġknowledge":3866,"trans":3867,"ĠĠĠĠĠĠĠĠĠĠ":3868,"Ġbranch":3869,"comple":3870,"Ġtransformation":3871,"53":3872,"62":3873,"Ġrates":3874,"Ġslight":3875,"Ġflat":3876,"Ġassumed":3877,"Ġcompare":3878,"ĠĠĠĠĠĠĠĠĠĠĠĠĠĠĠ":3879,"ĠĠĠĠĊ":3880,"ublic":3881,"Ġnotation":3882,"ken":3883,"51":3884,"ogeneous":3885,"Ġsix":3886,"Ġabsor":3887,"Ġreson":3888,"Ġidentity":3889,"Ġsimpl":3890,"inte":3891,"Ġerrors":3892,"Ġpressure":3893,"Ġbinary":3894,"Ġinterval":3895,"Ġwater":3896,"Ġcontributions":3897,"ales":3898,"Ġleg":3899,"iques":3900,"Ġdeep":3901,"ober":3902,"Ġmusic":3903,"Ġmolec":3904,"Ġadvan":3905,"Ġpublish":3906,"ky":3907,"rown":3908,"Introduction":3909,"Ġcam":3910,"ĠEuro":3911,".$":3912,"Ġbar":3913,"Ġessential":3914,"dic":3915,"ham":3916,"seud":3917,"ended":3918,"ĠAug":3919,"ĠSchool":3920,"Ġapplication":3921,"Ġcalculations":3922,"Ġfluct":3923,"Ġeasy":3924,"Ġinduced":3925,"Ġdiver":3926,"Ġhypo":3927,"When":3928,"earch":3929,"cting":3930,",\\\\":3931,"Ġwon":3932,"Ġprofile":3933,"tish":3934,"itor":3935,"ours":3936,"Ġutil":3937,"Ġcore":3938,"iny":3939,"Ġconclude":3940,"isc":3941,"Therefore":3942,"free":3943,"SU":3944,"Ġneg":3945,"Ġframe":3946,"ingu":3947,"htt":3948,"Ġforce":3949,"urity":3950,"Ġsucces":3951,"bigl":3952,"Ġstrategy":3953,"500":3954,"Ġcategory":3955,"$_{":3956,"Ġhorizon":3957,"IM":3958,"Ġdescription":3959,"ighted":3960,"ĠOct":3961,"aster":3962,"iting":3963,"Ġmagnitude":3964,"Ġregime":3965,"SP":3966,"Ġkeep":3967,"amental":3968,"^*$":3969,",\\,\\":3970,"Ġlocated":3971,"94":3972,"alt":3973,"ratic":3974,"rant":3975,"Ġpref":3976,"Ġfully":3977,"structure":3978,"OR":3979,"ĠState":3980,"oman":3981,"Ġconstraint":3982,"Ġbul":3983,"ney":3984,"Ġitself":3985,"ones":3986,"Ġpack":3987,"inct":3988,"Ġprediction":3989,"93":3990,"Ġones":3991,"EC":3992,"isation":3993,"bigr":3994,"ague":3995,"class":3996,"Ġpoli":3997,"cref":3998,"Ġfun":3999,"Ġlanguage":4000,"Ġconfiguration":4001,"DM":4002,"[-":4003,"ante":4004,"Ġneeded":4005,"era":4006,"local":4007,"ni":4008,"Ġoptimization":4009,"Ġdevi":4010,"Ġstrength":4011,"diag":4012,"comp":4013,"Ġbecame":4014,"osity":4015,"Ġreconst":4016,"aged":4017,"ĠSouth":4018,"ditional":4019,"hout":4020,"ĠReg":4021,"Ġinteger":4022,"Ġcalculation":4023,"Ġcontrast":4024,"mas":4025,"Ġradio":4026,"Ġvo":4027,"Ġextension":4028,"ident":4029,"GC":4030,"Ġsquare":4031,"Ġgradient":4032,"Ġgoal":4033,"Ġsuff":4034,"Ġobservation":4035,"but":4036,"flow":4037,"Me":4038,"ĠSep":4039,"Ġbelong":4040,"]$.":4041,"isk":4042,"ace":4043,"Ġclusters":4044,"tember":4045,"Ġ\\!":4046,"tability":4047,"ali":4048,"\\;":4049,"Ġresponse":4050,"blue":4051,"Ġgraphs":4052,"han":4053,"Ġinner":4054,"]{\\":4055,"Ġaccess":4056,"Ġsymbol":4057,"Ġsent":4058,"lier":4059,".)":4060,"Ġaway":4061,"Ġsolid":4062,"Ġwhole":4063,"Ġoffic":4064,"Ġener":4065,"ey":4066,"Ġmar":4067,"Ġcommunic":4068,"ĠCounty":4069,"ĠCl":4070,"cccc":4071,"Ġdiscussion":4072,"zz":4073,"Ġdra":4074,"Ġselected":4075,"sident":4076,"61":4077,"BC":4078,"ĠEn":4079,"Ġbir":4080,"Ġonce":4081,"Ġproject":4082,"ford":4083,"Ġblue":4084,"city":4085,"Ġtheoretical":4086,"call":4087,"92":4088,"ĠJanuary":4089,"{{":4090,"Ġensure":4091,"udes":4092,"Ġconvex":4093,"Ġdevelopment":4094,"va":4095,"Ġneighbor":4096,"Ġneutrin":4097,"Ġbox":4098,"ĠBar":4099,"Ġori":4100,"$:":4101,"Ġstring":4102,"dfrac":4103,"||":4104,"Ġauthors":4105,"dual":4106,"scop":4107,"Ġnever":4108,"Ġalbum":4109,"Ġdeath":4110,"Ġkine":4111,"Ġ[\\":4112,"Ġcapture":4113,"Ġprinciple":4114,"Ġformal":4115,"cknow":4116,"EN":4117,"Ġrule":4118,"External":4119,"ression":4120,"ĠPol":4121,"ĠMarch":4122,"ille":4123,"Ġslow":4124,"Ġnucle":4125,"Ġpure":4126,"urch":4127,")}}":4128,"Ġhistory":4129,"uli":4130,"dy":4131,":=":4132,"Ġalign":4133,"Ġpas":4134,"Ġ{$":4135,"Ġcourse":4136,"pril":4137,"Ġangular":4138,"Ġtechniques":4139,"Ġavoid":4140,"Ar":4141,"Ġexponential":4142,"IT":4143,"PT":4144,"Ġ\\&":4145,"Ġlevels":4146,"mathop":4147,"Ġamount":4148,"oci":4149,"Ġscales":4150,"ĠMark":4151,"cript":4152,"Ġuncertainty":4153,"ĠGerm":4154,"Ġdenoted":4155,"Ġdiscrete":4156,"ĠHar":4157,"Ġexec":4158,"Ġtool":4159,"onical":4160,"Ġkernel":4161,"Ġagreement":4162,"]}":4163,",{\\":4164,"Ġentropy":4165,"MR":4166,"bel":4167,"Finally":4168,"Ġcircle":4169,"Ġidea":4170,"ĠGu":4171,"Ġestablished":4172,"corre":4173,"\\}$.":4174,"Ġminimal":4175,"Ġquality":4176,"Ġbounds":4177,"iss":4178,"Ġincludes":4179,"Ġimmediate":4180,"Ġthreshold":4181,"Ġliterature":4182,"Ġpartition":4183,"Ġbig":4184,"Ġthermal":4185,"icity":4186,"1998":4187,"ccording":4188,"See":4189,"irt":4190,"floor":4191,"Ġcome":4192,"Ġgoing":4193,"Ġpolicy":4194,"roug":4195,"Ġmach":4196,"Ġgrowth":4197,"Ġresi":4198,"lege":4199,"mes":4200,"Ġjo":4201,"Ġappears":4202,"Ġ\\]":4203,"Ġscaling":4204,"roughout":4205,"Ġcoefficient":4206,"^{*":4207,"Ġgen":4208,",$":4209,"))\\":4210,"vis":4211,"ĠThat":4212,"Ġoverall":4213,"Ġtowards":4214,"this":4215,"Ġhole":4216,"unc":4217,"urs":4218,"1999":4219,"ux":4220,"Ġorth":4221,"Ġarti":4222,"Ġstrongly":4223,"ians":4224,"perim":4225,"}[\\":4226,"Ġgain":4227,"Fe":4228,"Ġsong":4229,"Ġpoly":4230,"ĠEurope":4231,"]$,":4232,"Ġalthough":4233,"Ġappropri":4234,"vember":4235,"}\\,\\":4236,"Ġlink":4237,"Ġthink":4238,"MA":4239,"Ġdemonstra":4240,"ĠWhile":4241,"ecember":4242,"These":4243,"Ġinside":4244,"edu":4245,"Ġbusiness":4246,"Ġsatisfying":4247,"hand":4248,"ellip":4249,"Ġtraject":4250,"Ġ*":4251,"Ġusually":4252,"Ġexhi":4253,"Ġbund":4254,"Ġsus":4255,"}})":4256,"vision":4257,"Sec":4258,"ĠJune":4259,"Ġgenerate":4260,"}}_{\\":4261,"84":4262,"pecially":4263,"PC":4264,"Ġ${":4265,"ĠFinally":4266,"olute":4267,"Ġring":4268,"Ġlimited":4269,"Ġmechanism":4270,"vature":4271,"Ġideal":4272,"Ġstage":4273,"Ġaxis":4274,"brace":4275,"Ġonline":4276,"89":4277,"yset":4278,"Ġdays":4279,"Ġattention":4280,"Ġnature":4281,"thern":4282,"Ġferm":4283,"atory":4284,"ĠNow":4285,"Ġrotation":4286,"Ġproved":4287,"Ġcombination":4288,"Ġparallel":4289,"Ġquite":4290,"Ġincl":4291,"eness":4292,"LE":4293,"comm":4294,"chastic":4295,"ĠSeptember":4296,"Ġforms":4297,"Ġword":4298,"fect":4299,"App":4300,"ending":4301,"yond":4302,"Ġcity":4303,"].":4304,"Ġbasic":4305,"...,":4306,"][]{":4307,"labor":4308,"ĠMed":4309,"Ġusers":4310,"iota":4311,"Ġaim":4312,"Ġstraight":4313,"emptyset":4314,"${\\":4315,"ront":4316,"})}":4317,"Ġcli":4318,"ptions":4319,"Ġgenerally":4320,"Ġaccurate":4321,"ĠOctober":4322,"pid":4323,"Ġcomplexity":4324,"ĠPer":4325,"ĠĠĠĠĠĠĠĠĠĠĠĠ":4326,"mented":4327,"Ġissu":4328,"Ġdimensions":4329,"Ġselection":4330,"uff":4331,"Ġlayers":4332,"Ass":4333,"Ġsm":4334,"iggs":4335,"Ġquasi":4336,"SI":4337,"Ġidentified":4338,"ives":4339,"ca":4340,"ĠCity":4341,"86":4342,"âĢĶ":4343,"Ġmemory":4344,"Ġmes":4345,"ometric":4346,"ises":4347,"izations":4348,"Ġadap":4349,"ished":4350,"Ġmicro":4351,"Ġrepresented":4352,"isions":4353,"Ġreduction":4354,"SM":4355,"check":4356,"squ":4357,"Ġphen":4358,"Ġdatasets":4359,"Ġproduce":4360,"LO":4361,"Sh":4362,"book":4363,"ĠJuly":4364,"ssive":4365,"So":4366,"âĢ¦":4367,"Ġvary":4368,"two":4369,"Ġweb":4370,"super":4371,"Ġvideo":4372,"72":4373,"ids":4374,"rack":4375,"\\)":4376,"longrightarrow":4377,"Ġequilibrium":4378,"Ġvac":4379,"Ġrecogn":4380,",âĢĿ":4381,"Ġgovernment":4382,"Ġcommu":4383,"})=":4384,"Ġconserv":4385,"ani":4386,"Ġthick":4387,"ĠâĢĺ":4388,"ĠApril":4389,"imilarly":4390,")}_":4391,"Ġunits":4392,"slash":4393,"Ġcompe":4394,"racted":4395,"ĠAugust":4396,"Ġsocial":4397,"ctors":4398,"ĠNorth":4399,"Li":4400,"ĠYou":4401,"ada":4402,"tfrac":4403,"Ġfootball":4404,"Ġdecomposition":4405,"Ġair":4406,"Ġsubgroup":4407,"Ġhol":4408,"Ġservice":4409,"net":4410,"Ġrelatively":4411,"uments":4412,"ifically":4413,"Ġround":4414,"rang":4415,"jective":4416,"sue":4417,"Ġmentioned":4418,"Using":4419,"ĠAg":4420,"Ġcompany":4421,"Ġdifficult":4422,"ĠFurthermore":4423,"mulation":4424,"ĠTra":4425,"Ġlocation":4426,"Ġrepe":4427,"ense":4428,"}}.":4429,"Ġconcent":4430,"arp":4431,"ĠQu":4432,"rs":4433,"Ġ&&":4434,"rated":4435,"ON":4436,"Ġtasks":4437,"oder":4438,"rist":4439,"Ġion":4440,"Ġclearly":4441,"Ġlittle":4442,"Ġpriv":4443,"det":4444,"Ġstarting":4445,"disc":4446,"str":4447,"}}^{\\":4448,"mann":4449,"ĠEd":4450,"}_{-":4451,"Ġ^{":4452,"Ġachieve":4453,"magnetic":4454,"vector":4455,"Ġconfir":4456,"Ġlonger":4457,";\\;\\":4458,"Ġmeasures":4459,"scriptsize":4460,"ĠMc":4461,"Ġneeds":4462,"|-":4463,"Ġcalculate":4464,"Ġconstructed":4465,"arc":4466,"Ġfundamental":4467,"Ġexpect":4468,"Ġcommunity":4469,"ession":4470,"Ġpropor":4471,"height":4472,"$&":4473,"Ġadded":4474,"bru":4475,"ming":4476,"76":4477,"Ġreport":4478,"cons":4479,"Ġnor":4480,"spa":4481,"ĠAustral":4482,"Ġestimation":4483,"Ġgeometry":4484,"Ġdetailed":4485,"Ġaut":4486,"SC":4487,"Ġcounter":4488,"Ġtypical":4489,"ka":4490,"Ġothers":4491,"Ġreve":4492,"ola":4493,"Ġweights":4494,"bas":4495,"conn":4496,"ĠNovember":4497,"vee":4498,"Ġsufficiently":4499,"Ġslightly":4500,"Ġsituation":4501,"Ġnovel":4502,"}}}\\":4503,"Ġindicates":4504,"such":4505,"Ġperson":4506,"Ġreceived":4507,"})^":4508,"Ġlargest":4509,"$};":4510,"91":4511,"Ġreduce":4512,"ĠEqu":4513,"Ġpix":4514,"Ġprojection":4515,"ĠDecember":4516,"Ġscenario":4517,"che":4518,"roll":4519,"Ġrecently":4520,"Ġsubsequ":4521,"Ġep":4522,"atives":4523,"Ġfunctional":4524,"aking":4525,"Ġbos":4526,"Lemma":4527,"bmatrix":4528,"uper":4529,"dependent":4530,"body":4531,"Ġpic":4532,")--":4533,"Ġvisual":4534,"Ġsummar":4535,"ĠAppendix":4536,"Ġfeed":4537,"joint":4538,"ĠUsing":4539,"Ġgames":4540,"alog":4541,"Ġdistinct":4542,"}~":4543,"ollowing":4544,"Ġconsidering":4545,"Ġremaining":4546,"Ġstatement":4547,"bly":4548,"Ġmanifold":4549,"Ġinverse":4550,"Ġrobust":4551,"Ġtit":4552,"Ne":4553,"Ġremark":4554,"Ġoperation":4555,"Ġbuilt":4556,"cement":4557,"then":4558,"Ġactually":4559,"Ġrepresentations":4560,"sitivity":4561,"Ġ$.":4562,"ĠDi":4563,"mitted":4564,"get":4565,"arante":4566,"Ġconnection":4567,"Ġactive":4568,"ĠFour":4569,"82":4570,"ĠLie":4571,"elling":4572,"Ġexplo":4573,"83":4574,"Ġphysics":4575,"Ġpi":4576,"ĠMo":4577,"=\"":4578,"Ġremain":4579,"ables":4580,"Co":4581,"Ġspecies":4582,"results":4583,"defined":4584,"Ġbeh":4585,"Ġidentify":4586,"path":4587,"Ġsolve":4588,"ĠPe":4589,"DP":4590,"rela":4591,"Ġmaximal":4592,"faces":4593,"Ġespecially":4594,"Ġreleased":4595,"ening":4596,"Ġphenomen":4597,"Ġdifferences":4598,"ĠRep":4599,"Ġbody":4600,"mn":4601,"dire":4602,"Ġcomes":4603,"matically":4604,"osing":4605,"Sch":4606,"Ġefficiency":4607,"rup":4608,"strate":4609,"Ġhealth":4610,"CP":4611,"algorithm":4612,"ĠWill":4613,"paragraph":4614,"forward":4615,"Ġdepth":4616,"Ġmultiplic":4617,"ET":4618,"columnwidth":4619,"Ġevidence":4620,"Ġcontaining":4621,"Ġexpand":4622,"Ġcompletely":4623,"Ġheight":4624,"bration":4625,"Ġatte":4626,"fort":4627,"Ġenergies":4628,"alls":4629,"ading":4630,"Ġbuilding":4631,"self":4632,"Ġcoordinate":4633,"Ġphoton":4634,"trivial":4635,"Ġsufficient":4636,"Ġ\\(\\":4637,"LL":4638,"etal":4639,"Ġpast":4640,"Ġstatistical":4641,"ners":4642,"del":4643,"0000":4644,"|}{":4645,"Ġallowed":4646,"ĠHigh":4647,"Ġ$,":4648,"Ġresour":4649,"Ġupon":4650,"Ġdust":4651,"ama":4652,"Ġpay":4653,"GN":4654,"Ġprote":4655,"semble":4656,"ube":4657,"Ġdiagonal":4658,"rig":4659,"ĠAf":4660,"Ġdeal":4661,"\\}\\":4662,"Ġsemi":4663,"ĠLag":4664,"ĠSM":4665,"EM":4666,"ured":4667,"oti":4668,"itary":4669,"Ġold":4670,"73":4671,"Ġtrained":4672,"Ġoutside":4673,"ĠTe":4674,"tot":4675,"Ġplayed":4676,"|}":4677,"SF":4678,"har":4679,"Ġsl":4680,"/(":4681,"ided":4682,"Ġarm":4683,"Ġneural":4684,"Ġasymptotic":4685,"ĠOb":4686,"Ġoperations":4687,"formal":4688,"Ġpseud":4689,"antom":4690,"74":4691,"Proof":4692,"mary":4693,"herent":4694,"Ġyet":4695,"Ġ}{":4696,"Ġsays":4697,"Ġevaluation":4698,"erg":4699,"1997":4700,"Ġembedding":4701,"case":4702,"Ġexpressed":4703,"ĠAc":4704,"Ġstrict":4705,"}}=":4706,"Ġtook":4707,"cd":4708,"ribution":4709,"Ġlimits":4710,"Ġ({\\":4711,"isely":4712,"Ġirre":4713,"Ġconstants":4714,"Ġface":4715,"Ġcriter":4716,"run":4717,"bruary":4718,"vitational":4719,"Ġdoc":4720,"ĠDo":4721,"Ġarri":4722,"Ġsuccessf":4723,"partment":4724,"ĠIntern":4725,"Ġbottom":4726,"Ġabsolute":4727,"Ġappropriate":4728,"Ġcurvature":4729,"First":4730,"Ġ^":4731,"Hence":4732,"Ġmassive":4733,"Ġuncertain":4734,"Ġcontent":4735,":=\\":4736,"cel":4737,"Ġindicate":4738,"ĠSw":4739,"Ġgeneration":4740,"Ġmess":4741,"tained":4742,"Ġsections":4743,"Ġhydro":4744,"Ġcollection":4745,"\\}$,":4746,"79":4747,"Ġhighly":4748,"Ġradial":4749,"Ġvariation":4750,"Ġcry":4751,"Ġvariety":4752,"Ġassumptions":4753,"slant":4754,"Ġsampling":4755,"ridge":4756,"ype":4757,"bib":4758,"Ġissue":4759,"hemical":4760,"Ġpredicted":4761,"Ġabund":4762,"Ġtrivial":4763,"Ġstability":4764,"stable":4765,"Ġconsequence":4766,"1996":4767,"Ġconj":4768,"apan":4769,"Ġluminosity":4770,"All":4771,"Ġansw":4772,"spect":4773,"Ġexternal":4774,"Ġcycle":4775,"ĠLa":4776,"Ġdisper":4777,"Ġodd":4778,"Ġpublished":4779,"multirow":4780,"Ġtopological":4781,"medskip":4782,"yr":4783,"rew":4784,"}|\\":4785,"Ġcreated":4786,"Ġpreviously":4787,"ffic":4788,"ĠKing":4789,"Ġprof":4790,"Ġderivative":4791,"ĠGal":4792,"ae":4793,"Ġisomorphism":4794,"}$}":4795,"Ġworking":4796,"ĠDist":4797,"cible":4798,"cf":4799,"81":4800,"Ġnamely":4801,"Ġguarante":4802,"ini":4803,"ĠGra":4804,"well":4805,"Ġbeg":4806,"Ġtun":4807,"Ġadv":4808,"Ġri":4809,"Ġemer":4810,"omb":4811,"dynam":4812,"come":4813,"Ġaver":4814,"Ġaddress":4815,"Ġbeyond":4816,"Ġshowed":4817,"Ġdynamical":4818,"Ġexisting":4819,"Ġbal":4820,"Ġnonlinear":4821,"pite":4822,"Ġwhy":4823,"itable":4824,"ĠWh":4825,"edom":4826,"\\|\\":4827,"ropic":4828,"subsec":4829,"iversal":4830,"eder":4831,"=.":4832,"((":4833,"agement":4834,"ĠPla":4835,"Ġelectric":4836,"requ":4837,"New":4838,"Ġcop":4839,"Ġrules":4840,"Ġcontact":4841,"Section":4842,"Ġ%":4843,"Ġexam":4844,"Ġforward":4845,"aves":4846,"&=\\":4847,"vartheta":4848,"Ġapplying":4849,"char":4850,"Ġapproximately":4851,"velength":4852,"Ġpredictions":4853,"Ġmember":4854,"Ġchildren":4855,"^{(\\":4856,"blem":4857,"Ġgrid":4858,")})":4859,"Ġevaluate":4860,"Ġderive":4861,"Ġdetected":4862,"ats":4863,"Ġellip":4864,"Ġproto":4865,"ects":4866,"ki":4867,"Ġachieved":4868,"Ġotherwise":4869,"Ġcontained":4870,"break":4871,"Ġbenef":4872,"ustom":4873,"Ġusual":4874,"uter":4875,"Ġcategor":4876,"ipal":4877,"Ġprimary":4878,"eries":4879,"eting":4880,"Ġhouse":4881,"Ġcanonical":4882,"300":4883,"formations":4884,"ĠIndeed":4885,"gener":4886,"Ġwhite":4887,"Ġbright":4888,"ressed":4889,"iverse":4890,"inted":4891,"aring":4892,"Ġacceler":4893,"Ġwomen":4894,"iff":4895,"Ġcosm":4896,"sch":4897,"Ġcomputational":4898,"br":4899,"bl":4900,"Ġradiation":4901,"plot":4902,"71":4903,"Im":4904,"Ġrecall":4905,"Ġtechnique":4906,"ĠAlso":4907,"ĠBra":4908,"Ġgeneralized":4909,"Ġdistributed":4910,"cil":4911,"Ġweek":4912,"....":4913,"rice":4914,"km":4915,"sy":4916,"Ġho":4917,"Ġcoinc":4918,"enta":4919,"tiny":4920,"Ġdimensional":4921,"Ġcombined":4922,"finition":4923,"ĠEnglish":4924,"ellow":4925,"Xi":4926,"otop":4927,"Ġwhereas":4928,"Ġlate":4929,"iter":4930,"ampions":4931,"Ġjoint":4932,"Ġ#":4933,"rested":4934,"Ġbias":4935,"Ġgreater":4936,"clusions":4937,"ception":4938,"Ġearlier":4939,"^*\\":4940,"Ġve":4941,"Ġdepending":4942,"Ġseems":4943,"Ġcm":4944,"vered":4945,"bet":4946,"Par":4947,"Ġhost":4948,"Ġfilter":4949,"vol":4950,"Ġtry":4951,"length":4952,"figures":4953,"PP":4954,"\\%$":4955,"rief":4956,"Ġoccurs":4957,"Ġareas":4958,"Ġkind":4959,"Ġintegration":4960,"GB":4961,"Ġdashed":4962,"Ġaccre":4963,"gramm":4964,"ĠEl":4965,"ĠFebruary":4966,"Ġlocally":4967,"Ġdecision":4968,"SE":4969,"phys":4970,"hol":4971,"Ġmeaning":4972,"oring":4973,"etries":4974,"fil":4975,"lex":4976,"Ġselect":4977,"Consider":4978,"elect":4979,"Ġtrain":4980,"Ġagent":4981,"+(":4982,"Ġvariance":4983,"cla":4984,"radi":4985,"Ġimp":4986,"Ġscore":4987,"mult":4988,"equations":4989,"Ġcompan":4990,"SD":4991,"nother":4992,"ĠWest":4993,"Cor":4994,"Set":4995,"LB":4996,"Suppose":4997,"ills":4998,"Ġsimplic":4999,"Ġexcept":5000,"^*(":5001,"Ġonto":5002,"Ġrecover":5003,"Ġfluctuations":5004,"ondon":5005,"ctive":5006,"Ġincor":5007,"GL":5008,"flu":5009,"Ġexplicitly":5010,"Ġmapping":5011,"Ġtown":5012,"And":5013,"Ġformed":5014,"Ġunderlying":5015,"Ġheavy":5016,"lies":5017,"Ġpractice":5018,"ao":5019,"Ġbulk":5020,"vised":5021,"Ġproducts":5022,"ĠBritish":5023,"mathit":5024,"hic":5025,"Ġtypically":5026,"Ġengine":5027,"loop":5028,"Ġindeed":5029,"Ġmillion":5030,"Ġreally":5031,"ĠGeV":5032,")^\\":5033,"Ġinternal":5034,"Ġgravity":5035,"uum":5036,"Ġpreserv":5037,"ĠResearch":5038,"After":5039,"rench":5040,"phantom":5041,"ords":5042,"ournal":5043,"notag":5044,"Ġchallen":5045,"ĠDes":5046,"ĠBay":5047,"Ġ$\\{\\":5048,"ĠEach":5049,"ano":5050,"Ġobvious":5051,"Ġcells":5052,"Ġjet":5053,"ogonal":5054,"Ġprecisely":5055,"alse":5056,"Ġhighest":5057,"}\\|":5058,"Ġrunning":5059,"Ġem":5060,"Ġtreatment":5061,"ĠLo":5062,"tikzpicture":5063,"Ġcountry":5064,"Ġstochastic":5065,"Ġsugg":5066,"Ġwide":5067,"plan":5068,"Ġnamed":5069,"pg":5070,"Ġdro":5071,"Ġpopular":5072,"Ġsuggest":5073,"Ġtempor":5074,"MN":5075,"reet":5076,"Ġplas":5077,"Ġsubject":5078,"Ġfav":5079,"ripts":5080,"Tr":5081,"Ġplayer":5082,"Ġquantities":5083,"Ġprobab":5084,"ores":5085,"process":5086,"Ġpati":5087,"continu":5088,"Ġequivalence":5089,"ĠIR":5090,"ads":5091,"Ġdesigned":5092,"Ġsound":5093,"monic":5094,"rangian":5095,"Ġdegrees":5096,"Ġpropose":5097,"Ġarchitecture":5098,"Ġefficient":5099,"Ġdetermin":5100,"oted":5101,"pen":5102,"real":5103,"dom":5104,"SR":5105,"ights":5106,"Ġeigenvalues":5107,"](":5108,"Ġfollowed":5109,"Ġsatisfied":5110,"(-\\":5111,"ĠHiggs":5112,"roscop":5113,"ira":5114,"wa":5115,"ori":5116,"Ġshock":5117,"itions":5118,"Ġheld":5119,"Bigg":5120,"circle":5121,"Ġ,\\":5122,"Ġinvolved":5123,"ilbert":5124,"Ġspar":5125,"ĠHis":5126,"Ġperfect":5127,"boldmath":5128,"Ġresol":5129,"Ġcyc":5130,"AD":5131,"Ġelectro":5132,"Ġdx":5133,"1000":5134,"MM":5135,"Ġstory":5136,"~(\\":5137,"Ġchannels":5138,"Ġstyle":5139,"Ġfast":5140,"downarrow":5141,"alysis":5142,"Ġdesired":5143,"1995":5144,"Ġthin":5145,"Ġcomputing":5146,"Ġcontradic":5147,"Ġeq":5148,"istory":5149,"Ġvertical":5150,"parallel":5151,"Ġcorrections":5152,"Ġtheories":5153,"'_{":5154,"Ġ]":5155,"actic":5156,"Ġroot":5157,"ĠRus":5158,"ony":5159,"Ġdetail":5160,"variance":5161,"ski":5162,"ĠPark":5163,"Given":5164,"Ġrelax":5165,"Ġkm":5166,"aps":5167,"Ġdistingu":5168,"oney":5169,"!\\":5170,"elihood":5171,"term":5172,"Ġperturbation":5173,"Ġconcept":5174,"Ġtrack":5175,"Moreover":5176,"ĠEar":5177,"elves":5178,"Ġregard":5179,"Ġmachine":5180,"OT":5181,"Gu":5182,"Ġbur":5183,"supp":5184,"ĠChar":5185,"Ġpicture":5186,"Ġsequences":5187,"idden":5188,"lig":5189,"CM":5190,"Ġindust":5191,"ĠDav":5192,"Ġcru":5193,"hips":5194,"rich":5195,"parison":5196,".\\\\":5197,"sia":5198,"Ġ\\,\\":5199,"mun":5200,"Ġeconom":5201,"stitute":5202,"ĠSpec":5203,"Ġrapid":5204,"ament":5205,"Ġmodule":5206,"Ġarticle":5207,"vect":5208,"Ġincreased":5209,"Ġef":5210,"Ġtele":5211,"ĠSan":5212,"Ġneutrino":5213,"prob":5214,"high":5215,"ĠĠĠĠĠĠĠĠĠĠĠĠĠ":5216,"utive":5217,"Ġhypothesis":5218,"oting":5219,"corollary":5220,"Ġfail":5221,"ĠÂ":5222,"Ġsuccess":5223,"Ġwid":5224,"Ġfri":5225,"Ġrelationship":5226,"\\!\\":5227,"Ġimplementation":5228,"Ġdetector":5229,"Ġextrem":5230,"IF":5231,"backslash":5232,"cs":5233,"Ġbundle":5234,"State":5235,"tors":5236,"Ġthroughout":5237,"}{*":5238,"Ġ;":5239,"Ġinvestigate":5240,"Ġhalo":5241,"Ġgravitational":5242,"aj":5243,"Ġtre":5244,"Ġconcern":5245,"Ġdivid":5246,"raft":5247,"Ġeduc":5248,"uit":5249,"Ġrecur":5250,"Ġreprodu":5251,"Ġintensity":5252,"Ġissues":5253,"nn":5254,"isot":5255,"ĠAir":5256,"$.}":5257,"Ġdig":5258,"ĠSub":5259,"tru":5260,"Ġrisk":5261,"Ġcreate":5262,"ultane":5263,"SL":5264,"stackrel":5265,"ĠJapan":5266,"Ġcat":5267,"Ġask":5268,"Ġbit":5269,"uration":5270,"PU":5271,"Ġvs":5272,"Ġbrief":5273,"|^{":5274,")}(\\":5275,"used":5276,"Ġmotiv":5277,"2022":5278,"ĠScience":5279,"born":5280,">\\":5281,"rd":5282,"ĠMich":5283,"!]":5284,"oling":5285,"Ġstudents":5286,"Ġmodified":5287,"ulating":5288,"Ġdest":5289,"ĠAfric":5290,"using":5291,"textcolor":5292,"Ġmarg":5293,"Ġobjective":5294,"Ġpositions":5295,"div":5296,",\"":5297,"Ġappe":5298,"Ġtransport":5299,"Ġinfluence":5300,"Ġexplain":5301,"ĠBro":5302,"Ġled":5303,"Ġbegan":5304,"asons":5305,"orts":5306,"Ġinver":5307,"Ġyield":5308,"ady":5309,"tan":5310,"ĠAlthough":5311,"Ġassuming":5312,"Ġparticularly":5313,"Ġpolarization":5314,"called":5315,"Ġyoung":5316,"Ġcompo":5317,"Ġinvari":5318,"pton":5319,"Ġcommunication":5320,"hal":5321,"bre":5322,"Ġannoun":5323,"Ġfreedom":5324,"ĠLondon":5325,"ĠGreen":5326,"ĠSuppose":5327,"Ġfluid":5328,"particle":5329,"kin":5330,"nel":5331,"Ġexci":5332,"Ġquan":5333,"Ġsuitable":5334,"ĠSU":5335,"Ġalternative":5336,"Ġlack":5337,"auto":5338,"sign":5339,"ermi":5340,"Ġunderstanding":5341,"Ġ_{\\":5342,"plane":5343,"Ġindepend":5344,"BS":5345,"CA":5346,"|$":5347,"bp":5348,"---":5349,"$-$":5350,"ened":5351,"Def":5352,"tw":5353,"general":5354,"Ġruns":5355,"bon":5356,"Ġcorrection":5357,"Ġmedia":5358,"arding":5359,"while":5360,"Ġshowing":5361,"footnotesize":5362,"Ġfilms":5363,"arith":5364,"Ġetc":5365,"ares":5366,"bil":5367,"men":5368,"Ġwindow":5369,"Ġcomposition":5370,"Ġrough":5371,"www":5372,"Ġcali":5373,"1990":5374,"mage":5375,"Ġuncertainties":5376,"rins":5377,"}$\\":5378,"Ġoppo":5379,"year":5380,"Ġstream":5381,"ometry":5382,"ĠFourier":5383,"aging":5384,"negative":5385,"Ġslo":5386,"1994":5387,"isson":5388,"ducible":5389,"obs":5390,"Ġpaths":5391,"pression":5392,"Ġuniformly":5393,"Ġexperience":5394,"emark":5395,"Ġdisplay":5396,"{(\\":5397,"Ġmath":5398,"Sp":5399,"Ġiso":5400,"jecture":5401,"theless":5402,"}/\\":5403,"Ġstatistics":5404,"Ġattrib":5405,"iem":5406,"Ġacqu":5407,"assum":5408,"ns":5409,"Ġvirt":5410,"ient":5411,"Ġconstit":5412,"ita":5413,"ĠArm":5414,"mentary":5415,"Ġexchange":5416,"Ġtrace":5417,"Ġstarted":5418,"vs":5419,"illing":5420,"propto":5421,"onds":5422,"module":5423,"Ġservices":5424,"input":5425,"Ġassoci":5426,"Ġimmediately":5427,"zing":5428,"Pe":5429,"DA":5430,"Ob":5431,"*}[":5432,"Ġvacuum":5433,"ĠSuch":5434,"Ġmixing":5435,"Ġmatching":5436,"Ġnuclear":5437,"&=&\\":5438,"fer":5439,")(\\":5440,"Ġevol":5441,"Ġphases":5442,"Pre":5443,"xx":5444,"Ġtell":5445,"Ġten":5446,"las":5447,"While":5448,"Col":5449,"$^":5450,"uparrow":5451,"Ġactiv":5452,"ĠModel":5453,"CH":5454,"Ġproceed":5455,"Ġbra":5456,"Ġbehaviour":5457,"Ġsurvey":5458,"}^{+":5459,"Qu":5460,"Ġreplaced":5461,"ya":5462,"Ġheat":5463,"Ġmarket":5464,"_{+":5465,"{.":5466,"unch":5467,"Ġcareer":5468,"GeV":5469,"GR":5470,")}.":5471,"Ġdynamic":5472,"scripts":5473,"Ġcandidate":5474,"rad":5475,"Ġrecor":5476,"Ġfront":5477,"ĠHer":5478,"ĠMor":5479,"Sub":5480,"rical":5481,")--(":5482,"Ġdensities":5483,"Ġwavelength":5484,"Ġsolar":5485,"Ġdot":5486,"Ġactivity":5487,"reme":5488,"iii":5489,"gu":5490,"Ġdispla":5491,"sus":5492,"RR":5493,"Ġconfigurations":5494,"ĠHouse":5495,"pair":5496,"varrho":5497,"ulus":5498,"tian":5499,"Ġcontinuum":5500,"Ġrise":5501,"stan":5502,"Ġconsum":5503,"Ġcoupled":5504,"ĠGiven":5505,"Ġnoted":5506,"hfill":5507,"eled":5508,"ĠBer":5509,"Ġcloud":5510,"ered":5511,"Ġpen":5512,"Ġperiodic":5513,"ĠĠĠĠĠĠĠĠĠĠĠĠĠĠ":5514,"Ġthank":5515,"ĠLeague":5516,"lings":5517,"ĠSome":5518,"Ġactions":5519,"Ġgeneric":5520,"Ġabsorption":5521,"poses":5522,"Ġdegener":5523,"MP":5524,"ga":5525,"Next":5526,"nes":5527,"IP":5528,"Ġprofiles":5529,"hu":5530,"Ġfine":5531,"Ġoccup":5532,"ĠNor":5533,"ubble":5534,"Ġnormalized":5535,"Ġanom":5536,"Ġstress":5537,"Ġsector":5538,"tran":5539,"ĠGo":5540,"Ġpurpose":5541,"$\\,":5542,"thick":5543,"duc":5544,"Ġcame":5545,"ender":5546,"Ġprotocol":5547,"Ġtriple":5548,"invariant":5549,"Ġcustom":5550,"1992":5551,"Ap":5552,"Ġ\\[":5553,"}{{\\":5554,"rank":5555,"Ġchemical":5556,"Ġreveal":5557,"gather":5558,"Ġvehic":5559,"LA":5560,"imits":5561,"ĠSp":5562,"Ġclub":5563,"ĠTrans":5564,"&&\\":5565,"Ġquadratic":5566,"ĠCollege":5567,"Ġaccom":5568,"Ġprog":5569,"Ġconjug":5570,"izer":5571,"lands":5572,"add":5573,"chang":5574,"ĠCM":5575,"Ġquestions":5576,"step":5577,"car":5578,"Ġanalytic":5579,"Ġlabels":5580,"consist":5581,"Ġparticip":5582,"Ġtriang":5583,"Ġaffect":5584,"Ġatoms":5585,"Ġlab":5586,"Ġexplained":5587,"ĠAm":5588,"dens":5589,"ticles":5590,"after":5591,"Ġequality":5592,"vals":5593,"cz":5594,"nol":5595,"Ġsignals":5596,"Ġnational":5597,"Ġquantity":5598,"Ġconvolution":5599,"Ġball":5600,"BH":5601,"Ġdense":5602,"Americ":5603,"Ġtemperatures":5604,"Ġsuppose":5605,"Ġfinding":5606,"allow":5607,"diff":5608,"Ġexpressions":5609,"textnormal":5610,"code":5611,"multline":5612,"$^{":5613,"law":5614,"Ġevaluated":5615,"Ġcombin":5616,"ĠWilliam":5617,"Ġsuggests":5618,"tivistic":5619,"Ġhomogeneous":5620,"Ġways":5621,"kern":5622,"Ġtransmission":5623,"Ġelectrons":5624,"1993":5625,"SA":5626,"gent":5627,"Ġcontin":5628,"cription":5629,"Ġforces":5630,"vities":5631,"ema":5632,"estern":5633,"Sim":5634,"textsf":5635,"bottom":5636,"Ġtesting":5637,"HC":5638,"Ġglu":5639,"Table":5640,"index":5641,"Ġdemand":5642,"Ġmeta":5643,"rents":5644,"}.}":5645,"IG":5646,"ko":5647,"Ġthought":5648,"tios":5649,"Ġgeometric":5650,"num":5651,"\\|_":5652,"Ġagg":5653,"Ġunknown":5654,"poch":5655,"Ġmoving":5656,"cas":5657,"https":5658,"DR":5659,"there":5660,"ishing":5661,"Ġflo":5662,"Ġorbital":5663,"ortun":5664,"=\\{":5665,"ucl":5666,"Ġplat":5667,"Ġlies":5668,"pherical":5669,"Ġdiffusion":5670,"})^{":5671,"Ġvic":5672,"fault":5673,"Ġneighborhood":5674,"Ġnearly":5675,"Ġfair":5676,"Ġdispersion":5677,"mathtt":5678,"Ġidentical":5679,"Ġnotion":5680,"large":5681,"cluding":5682,"Ġepis":5683,"optim":5684,"ĠData":5685,"$\\\\":5686,"cts":5687,"erred":5688,"Ġcult":5689,"cat":5690,"Pr":5691,"FR":5692,"Ġproportional":5693,"Ġsimultane":5694,"Ġreduces":5695,"Ġfitting":5696,"ĠInternational":5697,"observ":5698,"Ġstated":5699,"system":5700,"ĠGR":5701,"Ġactual":5702,"CT":5703,"Ġlot":5704,"Ġpolynomials":5705,"base":5706,"Be":5707,"Ġouter":5708,"120":5709,"dr":5710,"Right":5711,"Ġformulation":5712,"Ġdeviation":5713,"rier":5714,"textup":5715,"Ġindices":5716,"{|":5717,"Ġalgebraic":5718,"Ã¡":5719,"Ġimproved":5720,"urally":5721,"sect":5722,"ĠSim":5723,"Ġfall":5724,"mom":5725,"Ġplanet":5726,"Ġcarried":5727,"Ġadvantage":5728,"Ġdedu":5729,"uel":5730,"leftarrow":5731,"Ġbelie":5732,"value":5733,"Ġseparate":5734,"ville":5735,"Ġcorrelations":5736,"ĠCorollary":5737,"ĠBel":5738,"sample":5739,"Ġ~\\":5740,"Ġintermediate":5741,"ĠLagrangian":5742,"parameter":5743,"ĠDM":5744,"itter":5745,"sequently":5746,"rete":5747,"LR":5748,"key":5749,"Ġast":5750,"pole":5751,"nam":5752,"mains":5753,"wave":5754,"oms":5755,"Ġfrequencies":5756,"Ġpossibility":5757,"chmark":5758,"unct":5759,"even":5760,"]^":5761,"cipal":5762,"NS":5763,"Ġorthogonal":5764,"Is":5765,"400":5766,"apter":5767,"sep":5768,"Ġincorpor":5769,"uler":5770,"Bo":5771,"Ġseman":5772,"Ġinterested":5773,"ui":5774,"$'":5775,"Ġempir":5776,"timate":5777,"hang":5778,"Ġpatterns":5779,"Ġtransverse":5780,"Ġsites":5781,"Ġintern":5782,"has":5783,"cline":5784,"Ġmedium":5785,"binom":5786,",...,":5787,"Ġsizes":5788,"Ġquick":5789,"Ġ$^{":5790,"Ġthings":5791,"Ġbuild":5792,"yal":5793,"ara":5794,"Ġbehind":5795,"Ġaccretion":5796,"Ġoscil":5797,"Ġdecreases":5798,"Ġlisted":5799,"smallskip":5800,"ortion":5801,"cast":5802,"Ġstri":5803,"Ġasymm":5804,"differen":5805,"Ġtren":5806,"Ġdependent":5807,"Ġshare":5808,"Ġstraightforward":5809,"ĠHol":5810,"HE":5811,"Ġsolving":5812,"square":5813,"Ġiteration":5814,"oration":5815,"Ġcentury":5816,".$$":5817,"Ġprogramm":5818,"Ġmainly":5819,"Ġsubspace":5820,"ĠConsider":5821,"sour":5822,"Ġsoftware":5823,"Ġbands":5824,"ĠST":5825,"150":5826,"len":5827,"LT":5828,"ĠChris":5829,"ĠPri":5830,"Ġmixed":5831,"olar":5832,"Ġreflect":5833,"Ġtitle":5834,"-(":5835,"Hom":5836,"HS":5837,"century":5838,"ierarch":5839,"iforn":5840,"Ġgreen":5841,"Ġtopology":5842,"repres":5843,"Ġsomething":5844,"gn":5845,"Se":5846,"formed":5847,"@{":5848,"Ġwaves":5849,"Ġseparation":5850,"Ġamb":5851,"oli":5852,"points":5853,"Ġsym":5854,"rial":5855,"Ġcapacity":5856,"Ġcryst":5857,"Ġlens":5858,"Ġvilla":5859,"Ġund":5860,"ĠCenter":5861,"yp":5862,"only":5863,"lines":5864,"oto":5865,"att":5866,"Ġfinally":5867,"Ġtravel":5868,"Ġprime":5869,"Ġspread":5870,"Ġdiagrams":5871,"ĉĉĊ":5872,"Ġmetall":5873,"Ġimplemented":5874,"ĠFrench":5875,"})+":5876,"Ġfrac":5877,"erson":5878,"}^+":5879,"Ġensemble":5880,"Ġgoes":5881,"sets":5882,"Ġrational":5883,"Ġdirected":5884,"Ġcurrently":5885,"Ġtransitions":5886,"American":5887,"Ġdirections":5888,"FF":5889,"ilitary":5890,"Ġcaused":5891,")_{\\":5892,"Ġassess":5893,"Ġimportance":5894,"Ġhistor":5895,"iemann":5896,"Ġcomplic":5897,"iring":5898,"``":5899,"Ġarguments":5900,"axis":5901,"arent":5902,"ctic":5903,"symmetric":5904,"Ġteach":5905,"\\}.":5906,"erve":5907,"rinsic":5908,"resp":5909,"kl":5910,"imes":5911,"Ġdepic":5912,"Ġpermu":5913,"Ġlive":5914,"subequations":5915,"Ġability":5916,"aa":5917,"DB":5918,"Ġsure":5919,"ĠOther":5920,"Ġupdate":5921,"gr":5922,"ifornia":5923,"Ġdemonstrate":5924,"density":5925,"efore":5926,"ĠTech":5927,"Ġdescribes":5928,"ams":5929,"Ġinstrum":5930,"load":5931,"Ġunion":5932,"Ġexpectation":5933,"Ġgenerating":5934,"Ġprecision":5935,"hop":5936,"Ġuniversal":5937,"Ġirreducible":5938,"regular":5939,"Ġ\\{\\":5940,"Ġintersection":5941,"Ġneutron":5942,"Ġconnec":5943,")}$.":5944,"Ġnorth":5945,"atively":5946,"Ġatm":5947,"Ġ...":5948,"ceil":5949,"Ġcategories":5950,"Ġprocessing":5951,"Ġmeas":5952,"Ġacts":5953,"instein":5954,"Ġcle":5955,"Ġnews":5956,"Ġderivatives":5957,"brid":5958,"bigcup":5959,"aff":5960,"Ġorders":5961,"ny":5962,"Ġanswer":5963,"\\[\\":5964,"$}}":5965,"ĠCla":5966,"Ġsil":5967,"Ġgot":5968,"Ġtranslation":5969,"Car":5970,"Ġblocks":5971,"Ġdecrease":5972,"ĠAlgorithm":5973,"Ġmetrics":5974,"Ġlowest":5975,"Ġmolecular":5976,"Ġagents":5977,"oi":5978,"minist":5979,"bot":5980,"Cl":5981,"}[!":5982,"Ste":5983,"coun":5984,"ĠĠčĊ":5985,"Ġadding":5986,"ĠEuropean":5987,"cape":5988,"Ġart":5989,"Ġrecomm":5990,"Ġsensitivity":5991,"tf":5992,"Ġsetup":5993,"Ġ\\|\\":5994,"correspon":5995,"ĠCour":5996,"ancial":5997,"Ġnecessarily":5998,"avi":5999,"EP":6000,"Ġimag":6001,"tified":6002,"Ġfermion":6003,"ington":6004,"Ġpr":6005,"Ġdelay":6006,"ĠServ":6007,"Ġrig":6008,"Ġbeginning":6009,"depend":6010,"edy":6011,"Ġweighted":6012,"Ġmorphism":6013,"Ġ---":6014,"ands":6015,"ji":6016,"ield":6017,"defn":6018,"Proposition":6019,"inear":6020,"ApJ":6021,"})=\\":6022,"Ġsched":6023,"Ġvariations":6024,"ĠGroup":6025,"alities":6026,"ches":6027,"Ġbaseline":6028,"Ġcharged":6029,"Ge":6030,"DS":6031,"Ġsimulated":6032,"mits":6033,"oot":6034,"chron":6035,"Ġ@":6036,"ĠHilbert":6037,"Spec":6038,"dash":6039,"**":6040,"compa":6041,"Es":6042,"Ġfeel":6043,"Ġinteract":6044,"ĠWork":6045,"Ġcause":6046,"lease":6047,"Ġhours":6048,"tz":6049,"Lo":6050,"NA":6051,"ATE":6052,"CR":6053,"Ġlost":6054,"Ġfeedback":6055,"Ġborn":6056,"tification":6057,"Cref":6058,"OM":6059,"Ġofficial":6060,"Per":6061,"ĠEqs":6062,"ĠMag":6063,"Ġstrictly":6064,"Ġscenarios":6065,"Ġalgebras":6066,"za":6067,"ye":6068,"thetic":6069,"\\,{\\":6070,"imin":6071,"Ġsystematic":6072,"Ġgiving":6073,"measure":6074,"bour":6075,"Ġturb":6076,"Ġfamil":6077,"ĠRed":6078,"ML":6079,"ĠIndia":6080,"End":6081,"ĠInte":6082,"Ġbeli":6083,"first":6084,"\\},":6085,"ĠFound":6086,"hance":6087,"Ġessentially":6088,"Ġbirths":6089,"Po":6090,"cale":6091,"Ġport":6092,"ĠGerman":6093,"ĠSur":6094,"Ġratios":6095,"orge":6096,"Ġpick":6097,"fying":6098,"}>":6099,"lesc":6100,"nolimits":6101,"ifted":6102,"citealt":6103,"Ġsecurity":6104,"rane":6105,"rick":6106,"fs":6107,"Ġwent":6108,"Ġnotice":6109,"Ġopposite":6110,"phase":6111,"Ġtemporal":6112,"Ġproviding":6113,"ĠAccording":6114,"late":6115,"Ġcoming":6116,"Ġadopted":6117,"Ġ{$\\":6118,"sively":6119,")}$,":6120,"scriptscript":6121,"_{-\\":6122,"\\}_{":6123,"Ġever":6124,"inger":6125,"Ġsci":6126,"nm":6127,"ĠEquation":6128,"Ġseven":6129,"ĠAmerica":6130,"wood":6131,"phas":6132,"midrule":6133,"ĠBlack":6134,"scriptscriptstyle":6135,"Ġserved":6136,"ĠPlan":6137,"Ġdiscover":6138,"Ġposter":6139,"Ġprecise":6140,"Ġtang":6141,"oph":6142,"Ġphotons":6143,"Ġrestriction":6144,"ĠVi":6145,"Ġtrade":6146,"Ġcosmological":6147,"ĠInter":6148,"ĠSecond":6149,"Ġworth":6150,"leqslant":6151,"}},\\":6152,"ĠWhat":6153,"ditionally":6154,"VID":6155,"ĠNews":6156,"Ġmonot":6157,"Ġnull":6158,"Ġtraditional":6159,"Ġhierarch":6160,"ĠRiver":6161,"mith":6162,"Ġinterpretation":6163,"But":6164,"error":6165,"^+$":6166,"Ġhorizontal":6167,"ĠFin":6168,"ologies":6169,"Ġfamilies":6170,"omorphisms":6171,"BM":6172,"ĠGeneral":6173,"Ġmodeling":6174,"neg":6175,"anglement":6176,"Ġ{};":6177,"ulty":6178,"lam":6179,"1991":6180,"^*_":6181,"Ġaccoun":6182,";\\;":6183,"Results":6184,"Ġfem":6185,"Ġchiral":6186,"ĠLy":6187,"Ġsurfaces":6188,"ĠCouncil":6189,"ites":6190,"110":6191,"ĠCalifornia":6192,"mated":6193,"Ġign":6194,"acters":6195,"paign":6196,"Mod":6197,"Ġhot":6198,"ida":6199,"What":6200,"conver":6201,"ĠOf":6202,"Ġmonths":6203,"Ġturns":6204,"cen":6205,"Ġ\\}":6206,"Ġconclusion":6207,"La":6208,"Ġtoday":6209,"Ġreached":6210,"Ġtes":6211,"PA":6212,"nov":6213,"Ġcomputer":6214,"Ġpolitical":6215,"Ġsimilarly":6216,"ĠLaw":6217,"Ġrenormal":6218,"Ġmu":6219,"Ġintegrated":6220,"ĠDem":6221,"ael":6222,"Ġamplitudes":6223,"Ġcarry":6224,"ĠDef":6225,"Ġhadron":6226,"Equ":6227,"bolic":6228,"tization":6229,"ager":6230,")>":6231,"ĠUK":6232,"attle":6233,"gments":6234,"ĠHall":6235,"ussion":6236,"Ġreconstruction":6237,"prec":6238,"Ġrelease":6239,"Ġpow":6240,"ĠFermi":6241,"ivil":6242,"Ġque":6243,"Ġnight":6244,"dashed":6245,"lower":6246,"Ġmanner":6247,"bd":6248,"Ġindicated":6249,"imal":6250,"Ġentries":6251,"ĠChina":6252,"Ġrandomly":6253,"Ġfunctor":6254,"Ġmaintain":6255,"----":6256,"Ġeigenvalue":6257,"indu":6258,"Ġlogarith":6259,"Ġmax":6260,"Ġneutral":6261,"Ġadvers":6262,"ops":6263,"'$.":6264,"triang":6265,"inner":6266,"layer":6267,"iding":6268,"Ġarc":6269,"functions":6270,"Ġconverges":6271,"Ġbelieve":6272,"Ġdistances":6273,"ĠSimilarly":6274,"Bbb":6275,"Ġsuggested":6276,"ensus":6277,"Ġdominant":6278,"Ġresonance":6279,"ĠAGN":6280,"ĠInstitute":6281,"ĠChampions":6282,"1980":6283,"Ġson":6284,"Ġbl":6285,"BA":6286,"}{}":6287,"Ġexplore":6288,"ĠCont":6289,"IV":6290,"|_{\\":6291,"ameter":6292,"Ġapparent":6293,"Ġinterface":6294,"triangle":6295,"ĠPresident":6296,"amily":6297,"awa":6298,"ifold":6299,"Ġdefines":6300,"ĠUV":6301,"ĠSee":6302,"elian":6303,"Ġvor":6304,"Ġsens":6305,"Ġmiddle":6306,"Ġschemes":6307,"Ġepoch":6308,"Ġstatic":6309,"Recall":6310,"tating":6311,"Ġquar":6312,"ĠQCD":6313,"Ġsensitive":6314,"ĠSen":6315,"fier":6316,"ĠĠĠĠĠĠĠĠĠĠĠĠĠĠĠĠĠĠĠĠĠĠĠĠĠĠĠĠĠĠĠĠĠĠĠĠĠĠĠĠĠĠĠĠĠĠĠĠĠĠĠĠĠĠĠĠĠĠĠĠĠĠĠĠ":6317,"ĠÐ":6318,"Ġinvolving":6319,"Ġtransformations":6320,"have":6321,"Ġcontinue":6322,"}\\;":6323,"mal":6324,"rimin":6325,"Ġgets":6326,"Ġimply":6327,"Ġmissing":6328,"Ġbre":6329,"Ġwebsite":6330,"uclide":6331,"Ġrew":6332,"omew":6333,"Ġsouth":6334,"ander":6335,"FC":6336,"ĠMy":6337,"newline":6338,"mf":6339,"Ġreferred":6340,"Ġlikelihood":6341,"Ġpredict":6342,"Ġswitch":6343,"coming":6344,"Ġproton":6345,"([":6346,"Ġsimplicity":6347,"ĠSuper":6348,"Ġanisot":6349,"ĠAct":6350,"cknowled":6351,"Bigl":6352,"Ġfits":6353,"file":6354,"bed":6355,"Ġprice":6356,"idel":6357,"Ġbary":6358,"tivities":6359,"Ġsky":6360,"Ġfle":6361,"mi":6362,"Ġpage":6363,"ico":6364,"Ġunitary":6365,"Ġmodern":6366,"RE":6367,"ona":6368,"_{[":6369,"\\|^":6370,"Ġsat":6371,"Ġdate":6372,"bilities":6373,"conf":6374,"Ġlove":6375,"Ġcommit":6376,"annel":6377,"Ġordered":6378,"Ġtrajectory":6379,"Ġcollision":6380,"Ġisomorphic":6381,")[":6382,"Ġtests":6383,"Ġatomic":6384,"uclidean":6385,"($":6386,"ĠBoth":6387,"Ġscreen":6388,"|_":6389,"FL":6390,"Ġkinetic":6391,"Rel":6392,"ching":6393,"font":6394,"ĠSet":6395,"Ġtechnology":6396,"MT":6397,"Ġnarrow":6398,"Ġparty":6399,"Ġdifferenti":6400,"ĠJo":6401,"hed":6402,"unders":6403,"Ġprivate":6404,"Ġuniqu":6405,"Ġvarying":6406,"ĠTV":6407,"Ġdefinitions":6408,"acob":6409,"Ġcandidates":6410,"Ġsphere":6411,"Ġdevice":6412,"Ġresources":6413,"ĠEast":6414,"Ġflav":6415,"ĠEngland":6416,"}~\\":6417,"Ġconformal":6418,"spin":6419,"phot":6420,"istor":6421,"Ġsurround":6422,"III":6423,"ĠHow":6424,"ĠDepartment":6425,"Ġcouplings":6426,"}}=\\":6427,")&":6428,"ĠAustralia":6429,"Ġstationary":6430,"anks":6431,"condition":6432,"racket":6433,"Ġhtt":6434,"ancy":6435,"oura":6436,"Ġextracted":6437,"Data":6438,"Ġprofession":6439,"ĠUnder":6440,"Ġord":6441,"chain":6442,"Ġregression":6443,"Ġrestricted":6444,"Ġgeodes":6445,"ĠRepublic":6446,"ĠDistrict":6447,"ociation":6448,"Bar":6449,"Ġinference":6450,"Ġlie":6451,"Ġslope":6452,"ĠCanada":6453,"Ġquery":6454,"cks":6455,"Ġmoved":6456,"Ġconnect":6457,"Ġinclusion":6458,"anned":6459,"cknowledge":6460,"stantial":6461,"Ġinduction":6462,"Box":6463,"Ġemployed":6464,"DC":6465,"Ġsignature":6466,"Ġdeb":6467,"leg":6468,"mean":6469,"}{*}{":6470,"Ġconfidence":6471,"ĠBecause":6472,"Ġtrig":6473,"Ġsaf":6474,"Ġsolved":6475,"Ġremoved":6476,"make":6477,"TS":6478,"=-\\":6479,"Ġimprovement":6480,"Ġorientation":6481,"Ġtem":6482,"Ġtend":6483,"atri":6484,"oo":6485,"Ġstat":6486,"useum":6487,"odynam":6488,"ĠSN":6489,"tee":6490,")=(":6491,"Bigr":6492,"ports":6493,"constra":6494,"stood":6495,"ades":6496,"mselves":6497,"Ġenter":6498,"ica":6499,"sat":6500,"Ġversus":6501,"En":6502,"Ġeventually":6503,"models":6504,"respec":6505,"Ma":6506,"valued":6507,"ĠGovern":6508,"related":6509,"ĠMax":6510,"ĠSa":6511,"ned":6512,"Ġinvestigated":6513,"approxi":6514,"Ġgenerator":6515,"jected":6516,"osphere":6517,"Ġaggreg":6518,"Ġwalk":6519,"Ġthemselves":6520,"Te":6521,"Ġrecorded":6522,"Ġbring":6523,"aut":6524,"atell":6525,"}<":6526,"Ġwriting":6527,"Ġsuccessful":6528,"bro":6529,"Ġdominated":6530,"Ġannounced":6531,"otient":6532,"Furthermore":6533,"Ġgeneralization":6534,"Ġenhance":6535,"when":6536,".(\\":6537,"Ġlooking":6538,"Ġanalyze":6539,"ĠStreet":6540,"irr":6541,"Ġdevices":6542,"orent":6543,"notin":6544,"Ġplaced":6545,"ĠTr":6546,"Ġhidden":6547,"Ġsplitting":6548,"Ġaudi":6549,"Ġ&$":6550,"Ġemphas":6551,"vdots":6552,"asc":6553,"Ġprobabilities":6554,"Ġjus":6555,"Ġmostly":6556,"Ġplotted":6557,"active":6558,")|\\":6559,"ĠDavid":6560,"Ġpatch":6561,"Ġconsisting":6562,"ĠIII":6563,"ĠChrist":6564,"ĠPal":6565,"Ġorbits":6566,"going":6567,"cate":6568,"uds":6569,"Ġoscill":6570,"since":6571,"Ġpersonal":6572,"ĠDen":6573,"ĠPoisson":6574,"Ġmajority":6575,"ifying":6576,"Ġwall":6577,"wt":6578,"parameters":6579,"ĠDirac":6580,"Ġabsence":6581,"ĠTwo":6582,"Ġtrees":6583,"\\/":6584,"oded":6585,"crib":6586,"Ġpixel":6587,"istance":6588,"ĠDefinition":6589,"Des":6590,"Ġestimator":6591,"volution":6592,"]=":6593,"Ġconditional":6594,"\\,,":6595,"acent":6596,"ĠFoundation":6597,"Ġdomains":6598,"ensive":6599,"Ġpoor":6600,"OP":6601,"rump":6602,"Ġdivis":6603,"unic":6604,"istry":6605,"ĠTechn":6606,"pects":6607,"Ġlearned":6608,"Ġopportun":6609,"OC":6610,"ĠRiemann":6611,"hyper":6612,"$_{\\":6613,"Ġrep":6614,"Ġmoments":6615,"Ġcollabor":6616,"rob":6617,"Although":6618,"Ġdt":6619,"MF":6620,"Ġminor":6621,"Ġcharacters":6622,"Ġbreaking":6623,"ald":6624,"')$":6625,"Ġturbul":6626,"&-":6627,"Ġconto":6628,"ien":6629,"Ġplays":6630,"Ġdied":6631,"Ġattempt":6632,"Ġbenchmark":6633,"ultra":6634,"IA":6635,"ĠRad":6636,"stead":6637,"ĠRich":6638,"gers":6639,"Ġcharacteristics":6640,"ĠSD":6641,"Ġmetal":6642,"Ġposterior":6643,"allest":6644,"Ul":6645,"Ã³":6646,"ĠKe":6647,"}})$":6648,"Ġmathema":6649,"gre":6650,"orentz":6651,"Ġempirical":6652,"Ġsimilarity":6653,"Upsilon":6654,"apla":6655,"iant":6656,"lik":6657,"Ġprobably":6658,"proper":6659,"Ġdecays":6660,"Ġhit":6661,"Ġpseudo":6662,"Ġspacetime":6663,"lm":6664,"ĠSun":6665,"cross":6666,"list":6667,"Ġharmonic":6668,"Ġmaterials":6669,"Ġspherical":6670,"Ġnaturally":6671,"CN":6672,"Ġcrucial":6673,"Ġinternational":6674,"also":6675,"ĠDec":6676,"ĠOff":6677,"arity":6678,"Ġexhibit":6679,"Ġillustrated":6680,"Ġpanels":6681,"Ġsupercon":6682,"jk":6683,")}_{\\":6684,"'$,":6685,"Ġcharacterized":6686,"lob":6687,"Ġshell":6688,"compon":6689,"cited":6690,"TH":6691,"Or":6692,"Ġtelevision":6693,"ructural":6694,"Ġtechnical":6695,"'}\\":6696,"Ġgenerators":6697,"GM":6698,"Ġcovariance":6699,"128":6700,"tries":6701,"between":6702,"1989":6703,"Pa":6704,"Ġcomparable":6705,"Ġworked":6706,"Ġdecreasing":6707,"otopy":6708,"Ġcard":6709,"Ġplasma":6710,"mathds":6711,"Ġexplan":6712,"Ġintervals":6713,"jects":6714,"Ġverify":6715,"Ġdemonstrated":6716,"Ġisot":6717,"Ġspan":6718,"complete":6719,"Ġreplace":6720,"roscopic":6721,"CE":6722,"intro":6723,"Ġvanishes":6724,"Ġimplement":6725,"ĠDuring":6726,"Ġrac":6727,"ĠNetwork":6728,"Ġstrategies":6729,"Ġinitially":6730,"stream":6731,"finity":6732,"Ġrequirements":6733,"Ġpractical":6734,"Ġprincipal":6735,"mix":6736,"Ġstabil":6737,"Ġpatients":6738,"Ġroughly":6739,"Ġaffine":6740,"Ġreader":6741,"BB":6742,"Ġmedian":6743,"Ġshor":6744,"ĠMod":6745,"mpty":6746,"Ġcodes":6747,"special":6748,"ĠMonte":6749,"Ġleave":6750,"ĠJames":6751,"Ġsurpr":6752,"learly":6753,"Ġmeet":6754,"Ġdoing":6755,"vie":6756,"method":6757,"comb":6758,"Ġfather":6759,"erc":6760,"period":6761,"cyc":6762,"Ġir":6763,"sky":6764,"Ġdu":6765,"polation":6766,".},":6767,"ĠCup":6768,"Ġcatalog":6769,"mode":6770,"opt":6771,"Ġreasonable":6772,"substack":6773,"Ġgradu":6774,"nergy":6775,"ĠLab":6776,"theory":6777,"Ġlocations":6778,"Ġcompanies":6779,"Ġinstances":6780,"Ġfourth":6781,"Ġmind":6782,"Ġcontradiction":6783,"Ġpropagation":6784,"Ġabundance":6785,"liography":6786,"Ġperturbations":6787,"rates":6788,"Rightarrow":6789,"Ġangles":6790,"Ġgave":6791,"Ġelse":6792,"perturb":6793,"ows":6794,"Ġclustering":6795,")|^":6796,"Ġaccep":6797,"ĠMal":6798,"Ġplus":6799,"})_{":6800,"|=":6801,"Ġsometimes":6802,"Ġhon":6803,"number":6804,"rote":6805,"ĠÃ":6806,"Ġsubstantial":6807,"PI":6808,"inction":6809,"gin":6810,"Ġscienti":6811,"ĠBrown":6812,"cond":6813,"forming":6814,"lev":6815,"verb":6816,"Ġanalys":6817,"uge":6818,"Ġtools":6819,"Ġ$\\|":6820,"Ġdistinguish":6821,"Ġsomew":6822,"001":6823,"Ġtigh":6824,"Disc":6825,"homology":6826,"bc":6827,"Ġpromo":6828,"Ġcompleted":6829,"above":6830,"float":6831,"illed":6832,"Ġweakly":6833,"Ġtrajectories":6834,"Ġmessage":6835,"Ġindustry":6836,"à¤":6837,"quark":6838,"Ġaffected":6839,"Ġintegers":6840,"rug":6841,"iction":6842,"&$":6843,"ĠCR":6844,"moment":6845,"Ġnormalization":6846,"Ġintrinsic":6847,"Ġinfra":6848,".}\\":6849,"sen":6850,"ĠSto":6851,"overset":6852,"Ġallowing":6853,"Ġsides":6854,"Ġuniverse":6855,"Ġreasons":6856,"exists":6857,"alley":6858,"ĠDiv":6859,"Ġreaction":6860,"Sc":6861,"Ġelection":6862,"Ġaward":6863,"GS":6864,"Ġsubsets":6865,"Ġbad":6866,"ligible":6867,"Ġchanged":6868,"ipa":6869,"sm":6870,"Ġeffectively":6871,"Ġroad":6872,"lfloor":6873,"Ġprojective":6874,"Ġoffer":6875,"cut":6876,"Ġchoices":6877,"Ġscience":6878,"Ġvio":6879,"Ġsettings":6880,"symmetry":6881,"ĠChurch":6882,"Ġchanging":6883,"uy":6884,"Ġcomparing":6885,"Ġtail":6886,"Ġfeas":6887,"rfloor":6888,"Ġcolumns":6889,"CF":6890,"haps":6891,"Ġwidely":6892,"hire":6893,"]^{":6894,"http":6895,"ĠSi":6896,"aba":6897,"Ġinterior":6898,"Ġdefining":6899,"quid":6900,"dri":6901,"ystems":6902,"Ġcollisions":6903,"ĠFrance":6904,"Ġdocument":6905,"Ġcone":6906,"Ġcampaign":6907,"independent":6908,"ĠZe":6909,"Ġproposition":6910,"redu":6911,"TT":6912,"location":6913,"AV":6914,"centric":6915,"Mo":6916,"Ġunderstood":6917,"Ġcoach":6918,"1988":6919,"Ġspecified":6920,"*\\":6921,"Ġcontribute":6922,"Ġassigned":6923,"ike":6924,"white":6925,"Ġeight":6926,"ĠStar":6927,"Ġ$<":6928,"ĠDire":6929,"green":6930,"coordin":6931,"Ġflows":6932,"Ġaxi":6933,"Ġelliptic":6934,"avity":6935,"ĠPhys":6936,"vskip":6937,"Ġbr":6938,"Ġliving":6939,"sey":6940,"Ġsoon":6941,"stract":6942,"ritical":6943,"Ġpossibly":6944,"strong":6945,"Ġsimultaneously":6946,"Ġreferences":6947,"win":6948,"~(":6949,"Ġmonth":6950,"Ġfaster":6951,"Ġiterations":6952,"Ġcub":6953,"semb":6954,")}=":6955,"Ġperforming":6956,"Ġjud":6957,"displaymath":6958,"Ġdisjoint":6959,"ĠCNN":6960,"dients":6961,"fix":6962,"reek":6963,"cluded":6964,"Ġinvest":6965,"url":6966,"Ġdise":6967,"weight":6968,"PE":6969,"outhern":6970,"tated":6971,"ĠCommun":6972,"Ġcontinued":6973,")).":6974,"According":6975,"Ġpropos":6976,"Ġ}}":6977,"Ġshared":6978,"ests":6979,"Ġmut":6980,"potential":6981,"rong":6982,"UV":6983,"ĠIts":6984,"ĠAssume":6985,"Ġstronger":6986,"Ġfood":6987,"Ġmi":6988,"ml":6989,"Ġcoherent":6990,"}_{{\\":6991,"Ġcontroll":6992,"STATE":6993,"Ġvelocities":6994,"ĠPaul":6995,"ĠHealth":6996,"loss":6997,"tably":6998,"Ġmarked":6999,"Ġentanglement":7000,"ĠIm":7001,"Ġroom":7002,"zen":7003,"Ġdivided":7004,"1987":7005,"Ġsymbols":7006,"}&\\":7007,"Ps":7008,"Assume":7009,"Ġtruth":7010,"fl":7011,"Ġlabeled":7012,"shift":7013,"Ġelectronic":7014,"lapse":7015,"Ġdetect":7016,"Ġproduces":7017,"ĠParty":7018,"distribution":7019,"unit":7020,"Ġspeak":7021,"Ġplots":7022,"Ġ$[\\":7023,"Ġmoney":7024,"below":7025,"LC":7026,"ashington":7027,"ĠExample":7028,"Ġholes":7029,"Ġcancel":7030,"Ġ}$":7031,"Ġrepresenting":7032,"UT":7033,"Ġfinancial":7034,"tb":7035,"Ġconcentration":7036,"atural":7037,"Ġdissi":7038,"mathbbm":7039,"bounded":7040,"Ġrepeated":7041,"Ġdwar":7042,"Ġcentre":7043,"Ġinstant":7044,"ĠNGC":7045,"Ġcollected":7046,"Ġgran":7047,"irus":7048,"Ġprograms":7049,"ĠCap":7050,"Ġperspec":7051,"Ð¾":7052,"Il":7053,"Ġempty":7054,"({":7055,"ĠFil":7056,"AG":7057,"Ġcondens":7058,"Ġresid":7059,"Ġvirtual":7060,"ĠAlex":7061,"lective":7062,"direct":7063,"Ġmanagement":7064,"Ġ}{\\":7065,"ĠEarth":7066,"Ġlinearly":7067,"Ġinputs":7068,"Ġpush":7069,"LM":7070,"ĠInd":7071,"ius":7072,"ilson":7073,"true":7074,"fold":7075,"180":7076,"ĠAward":7077,"dz":7078,"ĠDis":7079,"Ġvisible":7080,"arial":7081,"Ġinvolves":7082,"ĠLeg":7083,"eth":7084,"ques":7085,"cQ":7086,"=(\\":7087,"Ġtermin":7088,"Example":7089,"Ġlaser":7090,"ĠBH":7091,"ĠRemark":7092,"Ġquickly":7093,"adian":7094,"possible":7095,"Ġidentification":7096,"Ġsmallest":7097,"Ġacting":7098,"Ġtreated":7099,"Ġappeared":7100,"Ġsubsequent":7101,"arest":7102,"physical":7103,"pired":7104,"Ġrect":7105,"ĠVol":7106,"ĠHy":7107,"TR":7108,"Ġdiscussions":7109,"Ġsurv":7110,"Ġanalogous":7111,"Model":7112,"Ġdeduce":7113,"HD":7114,"jo":7115,"sche":7116,"determ":7117,"Ġinten":7118,"Ġfight":7119,"pany":7120,"ĠDel":7121,"weak":7122,"urning":7123,"ĠCOVID":7124,"ĠOver":7125,"Ġadopt":7126,"Ġ{{\\":7127,"Ġfalse":7128,"Ġstarts":7129,"Ġcompatible":7130,"problem":7131,"Ġce":7132,"hard":7133,"})-":7134,"Ġresponsible":7135,"ospital":7136,"hanced":7137,"'}$":7138,"AE":7139,"}}\\,":7140,"Ġaug":7141,"underset":7142,"ĠOut":7143,"connected":7144,"herence":7145,"Ġarray":7146,"Ġrespective":7147,"Ġextremely":7148,"}_+":7149,"Ġsubsection":7150,"tates":7151,"Ġsegment":7152,"icon":7153,"Ġnonzero":7154,"}}}{":7155,",~":7156,"Ġwrote":7157,"Ġchalleng":7158,"},{\\":7159,"Ġadjacent":7160,"ĠBi":7161,"press":7162,"Ġanalytical":7163,"lymp":7164,"Ġ$$\\":7165,"Ġquali":7166,"Tra":7167,"}))":7168,"values":7169,"Ġsuffices":7170,"rot":7171,"full":7172,"cluster":7173,"Ġalone":7174,"Ġcriterion":7175,"ĠSing":7176,"Ġcomposed":7177,"Ġexception":7178,"ago":7179,"ÃŃ":7180,"{[":7181,"ĠWhite":7182,"PM":7183,"Ġeducation":7184,"Ġmodules":7185,"Ġlift":7186,"Reg":7187,"jpg":7188,"HT":7189,"tains":7190,"Ġplaces":7191,"Ġaspects":7192,"ette":7193,"Ġcountries":7194,"second":7195,"Ġextract":7196,"Ġcovering":7197,"tail":7198,"Ġvillage":7199,"ĠSum":7200,"}.\\":7201,"Ġpeaks":7202,"ips":7203,"ĠBas":7204,"ĠMil":7205,"Ġcircuit":7206,"$(\\":7207,"}=(":7208,"ogen":7209,"calc":7210,"rec":7211,"iton":7212,"Ġappearance":7213,"learning":7214,"lr":7215,"ĠĠĠĠĠĠĠĠĠĠĠĠĠĠĠĠĠĠĠ":7216,"ifies":7217,"ĠVer":7218,"scriptstyle":7219,"ĠMid":7220,"Ġtim":7221,"ĠEuclidean":7222,"nos":7223,"Ġtax":7224,"Ġboundaries":7225,"Ġsummary":7226,"Ġseparated":7227,"ccc":7228,"renew":7229,"psch":7230,"centerline":7231,"rat":7232,"Ġquotient":7233,"her":7234,"Ġindividuals":7235,"Ġfire":7236,"Ġpresents":7237,"ĠPl":7238,"formance":7239,"Ġreading":7240,"ĠSol":7241,"lb":7242,"Ġcomplicated":7243,"Ġbelongs":7244,"clip":7245,"Ġcontract":7246,"gray":7247,"Ġplaying":7248,"Ġresidual":7249,"))$.":7250,"matics":7251,"raise":7252,"eval":7253,"plectic":7254,"esian":7255,"Ġexceed":7256,"ructions":7257,"vere":7258,"Ġoffice":7259,"mI":7260,").}":7261,"ederal":7262,"Ġexponent":7263,"cher":7264,"estiv":7265,"Ġfiber":7266,"ĠBen":7267,"ĠAssociation":7268,"ĠSoci":7269,"}_{(":7270,"aded":7271,"anced":7272,"Ġ^{\\":7273,"ĠMarkov":7274,"Ġarrow":7275,"Ġcollect":7276,"Ġleaves":7277,"Ġsubstit":7278,"Ġminutes":7279,"Ġpulse":7280,"zy":7281,"images":7282,"pschitz":7283,"Ġframes":7284,"items":7285,"Ġembedded":7286,"esides":7287,"Ġthing":7288,"inese":7289,"Ġclosely":7290,"Ġintegrals":7291,"ĠMost":7292,"Ġstack":7293,"ĠIndian":7294,"Ġregarding":7295,"soft":7296,"ĠLu":7297,"ĠQue":7298,"Ġrepresentative":7299,"given":7300,"Ġthermodynam":7301,"lie":7302,"pheric":7303,"itation":7304,"Ġinduces":7305,"\\|_{\\":7306,"Ġelimin":7307,"==":7308,"ĠGod":7309,"DD":7310,"ĠRoman":7311,"Ġjob":7312,"Ref":7313,"Ġindependently":7314,"simple":7315,"Ġreturned":7316,"Ġdrop":7317,"Yi":7318,"pared":7319,"CL":7320,"Ġmale":7321,"Of":7322,"ĠCourt":7323,"Ġpapers":7324,"Ġche":7325,"itive":7326,"aylor":7327,"empty":7328,"Ġdriving":7329,"Ġdeformation":7330,"kK":7331,"Ġsecondary":7332,"Ġconfirmed":7333,"Oe":7334,"Ġscores":7335,"Ro":7336,"'',":7337,"Ġsatell":7338,"word":7339,"Ġintroduction":7340,"Ġboson":7341,"Ġtrunc":7342,"Pl":7343,"^-$":7344,"erman":7345,"Ġbriefly":7346,"kov":7347,"elt":7348,"'=":7349,"}|^":7350,"oming":7351,"1986":7352,"burg":7353,"subfloat":7354,"complex":7355,"Ġreads":7356,"Ġrich":7357,"dete":7358,"Ġ$-$":7359,"})(":7360,"exist":7361,"Ġsaw":7362,"HM":7363,"titions":7364,"Ġclean":7365,"pot":7366,"Ġteams":7367,"Ġĉ":7368,"PD":7369,"edic":7370,"ĠLorentz":7371,"Ġtested":7372,"ĠGeorge":7373,"Ġcomments":7374,"Sum":7375,"sho":7376,"Ã¼":7377,"Ġpiec":7378,"1970":7379,"surface":7380,"ĠDay":7381,"Phys":7382,"Ġformalism":7383,"Ġconjecture":7384,"ĠGre":7385,"result":7386,"relation":7387,"Ġnumerically":7388,"ufact":7389,"ĠPort":7390,"ĠArt":7391,"Ġchurch":7392,"Similarly":7393,"Ġrequirement":7394,"than":7395,"Ġattacks":7396,"Ġphoto":7397,"Ġcorrespondence":7398,"]{.":7399,"Ġrock":7400,"respectively":7401,"ĠLand":7402,"Ġtraffic":7403,"renewcommand":7404,"UR":7405,")!":7406,"ĠSoc":7407,"Ġhimself":7408,"Ġexcitation":7409,"Ġrights":7410,"250":7411,"pes":7412,"Ġexcited":7413,"Op":7414,"\\,.":7415,"Ġconventional":7416,"ĠPan":7417,"ĠGold":7418,"Ġpartially":7419,"Some":7420,"inement":7421,"ipped":7422,"uv":7423,"Ġcorrelated":7424,"ĠTheir":7425,"^+\\":7426,"aven":7427,"evertheless":7428,"eds":7429,"Ġspecifically":7430,"Ġconduct":7431,"due":7432,"Ġshap":7433,"ĠMC":7434,"ĠTur":7435,"Ġcooling":7436,"Ġcamera":7437,"chy":7438,"Ġhyperbolic":7439,"ĠJack":7440,"Ġrelaxation":7441,"JQ":7442,"ota":7443,"Ġarise":7444,"}(-":7445,"ĠGermany":7446,"Ð°":7447,"')\\":7448,"Ġmechanisms":7449,"Ġsex":7450,"requency":7451,"Ġcriteria":7452,"Ġcosts":7453,"Ġvisit":7454,"Another":7455,"Ġmilitary":7456,"Ġfinitely":7457,"Ġnothing":7458,"ughter":7459,"Ġincident":7460,"else":7461,"gal":7462,"}$).":7463,"}^{(\\":7464,"Ġsparse":7465,"Ġaccept":7466,"ĠAssum":7467,"Ġdistrict":7468,"Ġunstable":7469,"}}+":7470,"ospheric":7471,"}\\!":7472,"ĠUnion":7473,"autoref":7474,"Do":7475,"Ġdoesn":7476,"olf":7477,"Ġchallenge":7478,"Ġviol":7479,"Ġremove":7480,"Ġtriangle":7481,"experim":7482,"umerical":7483,"Ġcoverage":7484,"iller":7485,"Ġdiscrimin":7486,"sharp":7487,"final":7488,"rea":7489,"ĠBook":7490,"Ġgenerality":7491,"Ġoverlap":7492,"Ġpercent":7493,"mail":7494,"osc":7495,"Dec":7496,"ĠPr":7497,"Two":7498,"Ġentry":7499,"}}}$":7500,"fined":7501,"Ġcontrolled":7502,"SY":7503,"Ġago":7504,"AF":7505,"Ġenable":7506,"block":7507,"Ġcalibration":7508,"Var":7509,"Ġfir":7510,"Ġcircular":7511,"Ġstaff":7512,"Ġideas":7513,"Ġitems":7514,"Ġcharges":7515,"Ġinfinity":7516,"prote":7517,"asso":7518,"arian":7519,"ĠMeV":7520,"Ġmask":7521,"pers":7522,"ĠWashington":7523,"ĠPress":7524,"ped":7525,"noise":7526,"lescope":7527,"ĠFurther":7528,"Ġscene":7529,"Ġobservables":7530,"Ġcircles":7531,"Ġconstrained":7532,"orage":7533,"teness":7534,"ĠRel":7535,"125":7536,"Ġpotentials":7537,"Ġstop":7538,"ĠTime":7539,"igens":7540,"Ġexcess":7541,"ĠRecall":7542,"ĠTw":7543,"}\\}$":7544,"Ġdespite":7545,"date":7546,"1985":7547,"BF":7548,"ĠSy":7549,"Ġmultipl":7550,"1984":7551,"ĠInc":7552,"tibility":7553,"Ðµ":7554,"Ġrows":7555,"Ġsegmentation":7556,"iliary":7557,"~{\\":7558,"factor":7559,"Ġtro":7560,"You":7561,"Ġaveraged":7562,"Ġoriginally":7563,"Ġpixels":7564,"@{}":7565,"Ġsteady":7566,"ario":7567,"Ġwatch":7568,"Ġhappens":7569,"ashion":7570,"Ġdidn":7571,"Ġfavor":7572,"ĠEven":7573,"artin":7574,"board":7575,"gon":7576,"ston":7577,"Si":7578,"BR":7579,"Ġcosmic":7580,"Ġapplies":7581,"Ġfinds":7582,"Ġwhenever":7583,"Ġsubt":7584,"Ġnet":7585,"Ġadmits":7586,"Ġtal":7587,"Ġpuls":7588,"Ġmovement":7589,"Ġorganized":7590,"How":7591,"ĠCP":7592,"Ġhybrid":7593,"People":7594,"TV":7595,"rought":7596,"rian":7597,"uses":7598,"ĠBur":7599,"roy":7600,"temperature":7601,"Ġrecognition":7602,"image":7603,"Ġmesh":7604,"equival":7605,"ective":7606,"rab":7607,"urrent":7608,"Ġparametri":7609,"Ġroots":7610,"urable":7611,"Ġdrawn":7612,"ĠClass":7613,"ĠSociety":7614,"Ġlatent":7615,"gets":7616,"Ġmus":7617,"Ġren":7618,"US":7619,"west":7620,"Ġtoward":7621,"vin":7622,"pmb":7623,"oidal":7624,"Ġpowerful":7625,"Ġdriven":7626,"teen":7627,"Ġcommonly":7628,"Ġinvestigation":7629,"Ġfile":7630,"rep":7631,"gl":7632,"LBJ":7633,"ĠTex":7634,"ubV":7635,"Ġbroken":7636,"sibility":7637,"Gs":7638,"anted":7639,"Ġrace":7640,"link":7641,"JQYi":7642,"YkK":7643,"Ġdirector":7644,"UlI":7645,"MNmI":7646,"oiubV":7647,"tfGu":7648,"cQLBJ":7649,"YkKoiubV":7650,"YkKoiubVtfGu":7651,"JQYiUlI":7652,"ĠDr":7653,"Ġrare":7654,"itations":7655,"ĠBest":7656,"Ġcovered":7657,"uzz":7658,"Ġdescribing":7659,"Ġinstability":7660,"ĠCase":7661,"supervised":7662,"TE":7663,"Ġliquid":7664,"YkKoiubVtfGuOe":7665,"Ġhum":7666,"Ġer":7667,"Ġillustrate":7668,"upling":7669,"Ġinterference":7670,"Ġsomewhat":7671,"Ġoutper":7672,"Ġpowers":7673,"ĠCarlo":7674,"Ġvanishing":7675,"={\\":7676,"Ġreli":7677,"^{[":7678,"Ġconducted":7679,"Ġpull":7680,"Ġconvenient":7681,"ĠDa":7682,"Ġexpos":7683,"ĠBa":7684,"similar":7685,"Ġgate":7686,"Ġabelian":7687,"ifferen":7688,"pected":7689,"ĠUp":7690,"ĠMusic":7691,"power":7692,"leftrightarrow":7693,"omy":7694,"Ġtold":7695,"Ġ\\:":7696,"Ġstructural":7697,"ĠVir":7698,"Ġshear":7699,"Ġinvariance":7700,"Ġrealistic":7701,"Other":7702,"Ġtot":7703,"ĠSer":7704,"ĠLou":7705,"Ġdeaths":7706,"Ġgrant":7707,"rg":7708,"OD":7709,"Ġmor":7710,"Ġmedical":7711,"Ġexc":7712,"Ġoffers":7713,"lections":7714,"Ġ\\,,":7715,"\\'{":7716,")\\,\\":7717,"]_{":7718,"variant":7719,"::":7720,"Ġattemp":7721,"ĠRoad":7722,"Ġextends":7723,"Ġplatform":7724,"ĠEinstein":7725,"ership":7726,")}^":7727,"Ġgenus":7728,"Ġextreme":7729,"frame":7730,"solid":7731,"Ġextent":7732,"ua":7733,"hole":7734,"ducation":7735,"Cont":7736,"Ġpolice":7737,"owski":7738,"tx":7739,"tempor":7740,"+}":7741,"itt":7742,"Ġjournal":7743,"aneous":7744,"Ġhope":7745,"ĠBob":7746,"asi":7747,"Ġbalance":7748,"ND":7749,"}}-":7750,"Ġconservation":7751,")/\\":7752,"ears":7753,"(|":7754,"Ġsemantic":7755,"udy":7756,"Ġseparately":7757,"hskip":7758,"Ġjoined":7759,"roid":7760,"Ġmagne":7761,"bigskip":7762,"Ġcloser":7763,"'(\\":7764,"electron":7765,"Ġactivities":7766,"ĠEm":7767,"RS":7768,"Ġbooks":7769,"tite":7770,"GA":7771,"Ġsigned":7772,"GP":7773,"ĠArmy":7774,"ĠMac":7775,"Ġinflation":7776,"zer":7777,"Ġrelativistic":7778,"Ġnegligible":7779,"Ġcycles":7780,"Ġordering":7781,"ĠAb":7782,"ogle":7783,"Ġprofessional":7784,"Ġsho":7785,"Ġchoosing":7786,"Ġfitted":7787,"ĠLapla":7788,"ĠMat":7789,"Out":7790,"overed":7791,"Ġmixture":7792,"Ġwish":7793,"Ġcopy":7794,"Ġprobe":7795,"Ġpion":7796,"Ġchallenging":7797,"Ġmetallicity":7798,"Ġcen":7799,"Ġjump":7800,"Ġdiffer":7801,"Ġderivation":7802,"Ġopened":7803,"covered":7804,"Ġinterpreted":7805,"Ã¶":7806,"Ġ\\#":7807,"will":7808,"unk":7809,"That":7810,"Ġconsistency":7811,"short":7812,"ritten":7813,"ĠNot":7814,"Ġfigures":7815,"Ġultra":7816,"emp":7817,"Ġcaref":7818,"Ġcohomology":7819,"Ġmac":7820,"Ġcold":7821,"Ġinj":7822,"Ġembeddings":7823,"History":7824,"ibility":7825,"Ġaf":7826,"Ġprevent":7827,"ĠCompany":7828,"Ġdeliver":7829,"elines":7830,"Ġreward":7831,"ĠAcade":7832,"Ġnames":7833,"Ġpenal":7834,"Ġtorus":7835,"Ġsharp":7836,"Over":7837,"tiveness":7838,"Ġinvolve":7839,"Ġtrend":7840,"Ġadminist":7841,"}}\\\\":7842,"tun":7843,"isy":7844,"Ġaux":7845,"Ġdefinite":7846,"omas":7847,"Ġmother":7848,"Ġsymmetries":7849,"open":7850,"They":7851,"ĠRoyal":7852,"titude":7853,"standing":7854,"\\}}":7855,"imum":7856,"Ġasked":7857,"Ġcolour":7858,"Ġbirth":7859,"Ġmarginal":7860,"Ġelementary":7861,"Ġreceive":7862,"Ġanalyzed":7863,"):=\\":7864,"Ġtight":7865,"Ġstudent":7866,"Ġheter":7867,"ĠMichael":7868,"kip":7869,"ĠAustralian":7870,"Ġhous":7871,"Ġpurposes":7872,"101":7873,"Ġgrowing":7874,"omic":7875,"ĠTop":7876,"Ġmathematical":7877,"conv":7878,"Ġheart":7879,"Ġanomal":7880,"Ġeffort":7881,"$=":7882,"Ġmoduli":7883,"ĠSal":7884,"otor":7885,"satisf":7886,"lood":7887,"formula":7888,"uniform":7889,"Ġimplic":7890,"orbit":7891,"\\-":7892,"Ġsafety":7893,"irl":7894,"ĠAnother":7895,"ĠChi":7896,"ĠRob":7897,"xrightarrow":7898,"bes":7899,"polar":7900,"Ġserve":7901,"VM":7902,"Ġclosure":7903,"tel":7904,"Ġisolated":7905,"Ġ\\}$":7906,"etro":7907,"umps":7908,"hl":7909,"sembly":7910,"ought":7911,"lder":7912,"Ġasser":7913,"auth":7914,"sections":7915,"Ġoutcome":7916,"colhead":7917,"odd":7918,"ewise":7919,"core":7920,"Ġstay":7921,"Ġgetting":7922,"ĠSpace":7923,"Ġoutputs":7924,"atorial":7925,"\\!\\!\\!\\!":7926,"poly":7927,"tile":7928,"Ġtour":7929,"Ġeast":7930,"ingly":7931,"Ġhighlight":7932,"256":7933,"Ġgold":7934,"py":7935,"EL":7936,"flat":7937,"ĠAR":7938,"Ġdiscovered":7939,"Ġimplicit":7940,"ulator":7941,"ouple":7942,"1983":7943,"Mar":7944,"Ġmatches":7945,"Ġformulas":7946,"Ġfermions":7947,"mercial":7948,"utoff":7949,"ider":7950,"Ġproves":7951,"Ġperspective":7952,"evolution":7953,"ĠBal":7954,"Ġdetermines":7955,"ĠCas":7956,"Ġgeodesic":7957,"Ġinser":7958,"biggl":7959,"Ġreserv":7960,"Ġsampled":7961,"biggr":7962,"Ġinstit":7963,"KL":7964,"STM":7965,"ĠOp":7966,"ĠEuler":7967,"Ġfriends":7968,"Fil":7969,"Ġdotted":7970,"aver":7971,"Ġprivacy":7972,"ĠTrump":7973,"Ġwest":7974,"Ġcrossing":7975,"positions":7976,"Ġacceleration":7977,"Ġperiods":7978,"Ġdrive":7979,"Ġrecommend":7980,"integra":7981,"some":7982,"Ġdivergence":7983,"llig":7984,"zo":7985,"missible":7986,"predic":7987,"gtr":7988,"corresponding":7989,"orel":7990,"three":7991,"anguages":7992,"Sta":7993,"Ġinequalities":7994,"Ġregularization":7995,"ĠSupp":7996,"ĠDemoc":7997,"consistent":7998,"degree":7999,"Ġepisode":8000,"estival":8001,"SN":8002,"Ġelastic":8003,"Ġschools":8004,"optimal":8005,"dal":8006,"Ġcommand":8007,")),":8008,"ĠPat":8009,"Cal":8010,"Ġindicating":8011,"hor":8012,"Ġsn":8013,"$--":8014,"Ġholomorphic":8015,"ban":8016,"ĠJacob":8017,"ĠVic":8018,"fr":8019,"textstyle":8020,",(":8021,"Ġfocused":8022,"}$;":8023,"Ġmoves":8024,"ued":8025,"sym":8026,"odal":8027,"Ġtangent":8028,"Ġprojects":8029,"eks":8030,"Ġboard":8031,"Experim":8032,"cepts":8033,"Ġzone":8034,"itar":8035,"ĠChinese":8036,"ĠSam":8037,"Ġexecution":8038,"prov":8039,"600":8040,"Ġobservable":8041,"Ġpermutation":8042,"Ġradii":8043,"Ġordinary":8044,"',\\":8045,"plate":8046,"Ġpotentially":8047,"Ġ)$":8048,"Ġdigital":8049,"Ġnearby":8050,"ado":8051,"Ġsingularity":8052,"Ġends":8053,"Ġvehicle":8054,"Ġexpress":8055,"Trans":8056,"Ġclassifier":8057,"argets":8058,"pd":8059,"Ġversions":8060,"1982":8061,"Ġrail":8062,"Ġcapital":8063,"Ġreplacing":8064,"uz":8065,"Ġlaws":8066,"ĠCho":8067,"}]$":8068,"ĠCong":8069,"Ġimaginary":8070,"tages":8071,"Ġarises":8072,"ĠDon":8073,"Ġpresident":8074,"Ġbud":8075,"Ġbatch":8076,"NT":8077,"world":8078,"ĠHen":8079,"Ġcombinations":8080,"ĠBan":8081,"Ġ\\\\[":8082,"ĠIsland":8083,"Ġmultiplication":8084,"figs":8085,"Ġmanifolds":8086,"Ġtransmit":8087,"Ġretri":8088,"momentum":8089,"mbf":8090,"Ġoscillations":8091,"Ġcircum":8092,"ditive":8093,"Ġcele":8094,"FA":8095,"Ġspir":8096,"Ġreflection":8097,"forts":8098,"ĠMary":8099,"erry":8100,"Ġcra":8101,"ĠArch":8102,"Ġdecided":8103,"ĠDue":8104,"Also":8105,"},\\\\":8106,"Ġbrought":8107,"ĠĠĠĠĠĠĠĠĠĠĠĠĠĠĠĠĠ":8108,"cycle":8109,"ĠCons":8110,"Ġprogress":8111,"PO":8112,"}}+\\":8113,"ĠCath":8114,"ĠChe":8115,"makebox":8116,"Ġflight":8117,"bibliography":8118,"ĠAfrica":8119,"htbp":8120,"Ð¸":8121,"claim":8122,"GG":8123,"Ġconnections":8124,"ja":8125,"ĠMus":8126,"ifications":8127,"ĠMr":8128,"Ġfan":8129,"Ġviewed":8130,"fully":8131,"relax":8132,"upper":8133,"reasing":8134,"clear":8135,"Ġ$-\\":8136,"Ġranges":8137,"ask":8138,"Ġencoun":8139,"velopment":8140,"Ġautomatically":8141,"Ġspeech":8142,"Ġcred":8143,"spaces":8144,"Ġsongs":8145,"Ġlongit":8146,"cellcolor":8147,"}$$":8148,"Ġpip":8149,"ĠSpecifically":8150,"160":8151,"IST":8152,"Ġencoura":8153,"Left":8154,"_{{":8155,"Bs":8156,"Ġresource":8157,"Ed":8158,"vertex":8159,"Ġeigens":8160,"Ġjets":8161,"smooth":8162,"Ġstatus":8163,"cis":8164,"tick":8165,"Ġpromis":8166,"single":8167,"Ġgenerates":8168,"Ġthanks":8169,"commu":8170,"cerning":8171,"chen":8172,"Ġsurve":8173,"Ġcombining":8174,"Ġorganization":8175,"Ġcolors":8176,"}]\\":8177,"ĠOlymp":8178,"ĠTor":8179,"Ġloops":8180,"Ġperforms":8181,"Ġturned":8182,"force":8183,"Ġneur":8184,"$&$":8185,"ĠNext":8186,"fortun":8187,"Ġquarks":8188,"Living":8189,"ĠMad":8190,"random":8191,"Ġwife":8192,"Ġlocalization":8193,"ention":8194,"Ġconclusions":8195,"bile":8196,"Top":8197,"Ġdead":8198,"rish":8199,"occ":8200,"oses":8201,"ĠType":8202,"ĠCam":8203,"EEE":8204,"Ġchallenges":8205,"Ġcollapse":8206,"Ġfractional":8207,"ena":8208,"osted":8209,"ION":8210,"Bi":8211,"Ġmaster":8212,"bigoplus":8213,"tia":8214,"Ġcentered":8215,"Ġenhanced":8216,"Ġfill":8217,"met":8218,"Ġcrystal":8219,"comes":8220,"}{$":8221,")~\\":8222,"ĠStand":8223,"BL":8224,"Ġthreat":8225,"ria":8226,"}}^{(":8227,"),(":8228,"Ġdem":8229,"ĠClub":8230,"^{{\\":8231,"123":8232,"ĠLat":8233,"Ġsentence":8234,"Ġsupercondu":8235,"ĠMex":8236,"]_":8237,"current":8238,"was":8239,"bors":8240,"earning":8241,"ĠThomas":8242,"Ġvalidation":8243,"BE":8244,"vention":8245,"Mon":8246,"ĠFar":8247,"&+":8248,"Ġfeasible":8249,"yes":8250,"Id":8251,"asion":8252,"ĠFri":8253,"ĠCentral":8254,"KS":8255,"Ag":8256,"ĠWal":8257,"Ġsuccessfully":8258,"Ġsynthetic":8259,"Cs":8260,"gtrsim":8261,"*{-":8262,"syn":8263,"Ġmoun":8264,"Ġow":8265,"ĠSP":8266,"ĠInstead":8267,"FS":8268,"ĠTown":8269,"sess":8270,"Ġdefe":8271,"Ġmolecules":8272,"Ġrapidly":8273,"nual":8274,"toprule":8275,"Case":8276,"Ġupdated":8277,"Ġfailure":8278,"Ġtwice":8279,")<":8280,"stro":8281,"Ġbars":8282,"ĠSmith":8283,"ERT":8284,"Ġgene":8285,"Ġunless":8286,"Ġlegal":8287,"Ġmarried":8288,"Ġguarantee":8289,"Ġoption":8290,"Ġpassing":8291,"enberg":8292,"Ġrealized":8293,"inst":8294,"Ġcavity":8295,"Comparison":8296,"Ġobservational":8297,"source":8298,"Ġcounts":8299,"Ġprojected":8300,"ĠRobert":8301,"analy":8302,"tensor":8303,"shell":8304,"Ġmanufact":8305,"GD":8306,"Ġdescent":8307,"ource":8308,"Ġpolitic":8309,"orig":8310,"Ġimm":8311,"Ext":8312,"Ġcomputations":8313,"Ġiniti":8314,"ĠResults":8315,"essor":8316,"Ġcourt":8317,"dynamic":8318,"Ġpurely":8319,"ĠDivision":8320,"degener":8321,"Ġworkers":8322,"VD":8323,"Ġdoub":8324,"Ġanni":8325,"Ġhomotopy":8326,"Ġmonitor":8327,"Ġimaging":8328,"Ġdeterministic":8329,"eqq":8330,"Ġunity":8331,"Ġreports":8332,"ĠWilson":8333,"Ġprefe":8334,"ĠGalactic":8335,"){$":8336,"Ġcauses":8337,"ĠNS":8338,"ublish":8339,"ĠHam":8340,"Rev":8341,"]^{\\":8342,"Under":8343,"Ġbenefit":8344,"Ġkept":8345,"thin":8346,"Max":8347,"pire":8348,"[{\\":8349,"eller":8350,"Ġdiameter":8351,"linec":8352,"olicy":8353,"ĠSat":8354,"Ġqubit":8355,"})}\\":8356,"Figures":8357,"1960":8358,"+|":8359,"separ":8360,"Ġrad":8361,"rays":8362,"heres":8363,"Ġrobot":8364,"control":8365,"tific":8366,"rative":8367,"Ġrevealed":8368,"string":8369,"ĠFore":8370,"Ġdy":8371,"ĠMajor":8372,"]}\\":8373,"ĠMethod":8374,"rect":8375,"thle":8376,"peak":8377,"Ġauxiliary":8378,"inds":8379,"Ġtag":8380,"Because":8381,"Ġintroducing":8382,"Ġrefers":8383,"decom":8384,"irror":8385,"Ġful":8386,"IL":8387,"Ġstorage":8388,"ĠFlor":8389,"ĠPost":8390,"compact":8391,"Ġproofs":8392,"ratio":8393,"Ġconsideration":8394,"Ġpolicies":8395,"she":8396,"ĠBol":8397,"Ġstands":8398,"aling":8399,"Each":8400,"bers":8401,"product":8402,"joy":8403,"protect":8404,"Ġduration":8405,",.":8406,"Ġhomomorphism":8407,"ĠAcc":8408,"Ġcompetition":8409,"ĠStudi":8410,"metric":8411,"default":8412,"Ġprogramming":8413,"because":8414,"background":8415,"hold":8416,"Ġinterview":8417,"aux":8418,"Ġspot":8419,"Can":8420,"1981":8421,"Ġequals":8422,"Ġfriend":8423,"Further":8424,"ĠTexas":8425,"Ġdisease":8426,"_{(\\":8427,"ĠAfrican":8428,"different":8429,"Ġopening":8430,").$$":8431,"via":8432,"Ġdatabase":8433,"ircraft":8434,"Ġpred":8435,"ĠOpen":8436,"Ġplanets":8437,"closed":8438,"lar":8439,"Ġeconomic":8440,"Ġpointed":8441,"panish":8442,"eper":8443,"ught":8444,"Thm":8445,"Ear":8446,"clo":8447,"ĠHel":8448,"Ġpopulations":8449,"analysis":8450,"~~~~~~~~":8451,"deriv":8452,"Ġexplanation":8453,"Ġexcell":8454,"antly":8455,"Ġparticipants":8456,"Ġvariability":8457,"Indeed":8458,"fol":8459,"struction":8460,"Ġefforts":8461,")~":8462,"ĠDR":8463,"Ġdisapp":8464,"Ġnone":8465,"Ġhandle":8466,"Ġencoder":8467,"ailed":8468,"Ġfluxes":8469,"ĠPDF":8470,"Ġtouch":8471,"Ġsymplectic":8472,"ĠSO":8473,"uma":8474,"ĠList":8475,"'re":8476,"Ġenvelop":8477,"yan":8478,"solution":8479,"chor":8480,"Ġds":8481,"Ġexamine":8482,"ĠHo":8483,"ĠkeV":8484,"counter":8485,"Ġoutflow":8486,"component":8487,"</":8488,"1979":8489,"manifold":8490,"Ġhydrogen":8491,"frequency":8492,"}$),":8493,"ulomb":8494,"}{$\\":8495,"ĠAng":8496,"xymatrix":8497,"Ġflexi":8498,"ĠMis":8499,"ĠReview":8500,"Ġtends":8501,"Ġstudying":8502,"ĠProf":8503,"Ġlimiting":8504,"Ġconverge":8505,"Ġentirely":8506,"unts":8507,"Ġpurch":8508,"itian":8509,"Ġfrag":8510,"Ġphenomenon":8511,"resize":8512,"Ġenvironments":8513,"hook":8514,"ĠNa":8515,"Ver":8516,"Ġtrying":8517,"quantum":8518,"Ġerg":8519,"itness":8520,"Ġcontrols":8521,"shot":8522,"ĠSC":8523,"ĠEs":8524,"diam":8525,"Ġtracks":8526,"ĠLib":8527,"800":8528,"cp":8529,"Man":8530,"Ġisotropic":8531,"Ġmul":8532,"Ab":8533,"TM":8534,"gral":8535,"ĠPublic":8536,"Ġlives":8537,"ĠScot":8538,"Ġnearest":8539,"alaxy":8540,"Ġstages":8541,"ĠConsequently":8542,"Ġta":8543,"Ġitem":8544,"tree":8545,"ĠYoung":8546,"ala":8547,"cover":8548,"arse":8549,"varpi":8550,"Ġtargets":8551,"ĠPart":8552,"Ġbins":8553,"Ġrelig":8554,"Ġnuclei":8555,"Ġduality":8556,"ĠJe":8557,"ĠJew":8558,"iro":8559,"Ġdrift":8560,"ographic":8561,"($\\":8562,"lbrace":8563,"ĠCD":8564,"channel":8565,"CV":8566,"Ġcommutative":8567,"ĠJose":8568,"auchy":8569,"deep":8570,"Ġid":8571,"Gra":8572,"Ġcast":8573,"vectors":8574,"domain":8575,"aten":8576,"Ġsensor":8577,"lined":8578,"Ġcreation":8579,"ĠFollowing":8580,"Conclusion":8581,"continuous":8582,"iling":8583,"uss":8584,"last":8585,"Ġachieves":8586,"Ġreturns":8587,"Ġload":8588,"Ġplate":8589,"Ġstore":8590,"Ġsep":8591,"Following":8592,"Ġdepicted":8593,"-{\\":8594,"Aut":8595,"ittle":8596,"buil":8597,"]\\\\":8598,"Ġadversarial":8599,"Ġdipole":8600,"ulo":8601,"ĠKar":8602,"Ġrecords":8603,"choose":8604,"Ġregularity":8605,"Ġreaches":8606,"server":8607,"Ġhund":8608,"iso":8609,"Ġ\\|_{":8610,"Ga":8611,"htb":8612,"resizebox":8613,"gls":8614,"Ġlargely":8615,"venue":8616,"alian":8617,"Ġdeploy":8618,"Ġlanguages":8619,"training":8620,"Ġdedic":8621,"induced":8622,"ĠProv":8623,"Ġmagnet":8624,"Ġprepar":8625,"resolution":8626,"ultimate":8627,"ĠKingdom":8628,"}}}{\\":8629,"NC":8630,"ĠRussian":8631,"specific":8632,"vc":8633,"*}\\":8634,"eros":8635,"ermitian":8636,"Ġshot":8637,"Ġfindings":8638,"td":8639,"modules":8640,"usted":8641,"ĠCanadian":8642,"izable":8643,"series":8644,"Ġchains":8645,"qq":8646,"sn":8647,"aug":8648,"ĠTom":8649,"bibliographystyle":8650,"anger":8651,"eters":8652,"Ġclouds":8653,"stone":8654,"Ġoperating":8655,"setlength":8656,"Ġgrand":8657,"Ġoverla":8658,")},\\":8659,"]{./":8660,"^*(\\":8661,"ship":8662,"Ġpromin":8663,"conj":8664,"Ġwire":8665,"seq":8666,"ĠTaylor":8667,"+$":8668,"Ġplanning":8669,"dep":8670,"pacity":8671,"Ġsquares":8672,"bran":8673,"Ġinteracting":8674,"sinh":8675,"ĠChristian":8676,"__":8677,"azine":8678,"ett":8679,"Ġweeks":8680,"host":8681,"unds":8682,"brary":8683,"Ġleaving":8684,"usive":8685,"ĠCommission":8686,"convex":8687,"both":8688,"reland":8689,">$":8690,"Ġappearing":8691,"}.$":8692,"rey":8693,"Ġwanted":8694,"osh":8695,"ĠCa":8696,"ĠObserv":8697,"Ġproven":8698,"Ġpiece":8699,"Ġcommunities":8700,"Ġ\\,.":8701,"Ġcovers":8702,"Ġsummarized":8703,"Ġcontinuity":8704,"ĠNewton":8705,"ĠKore":8706,"ĠJapanese":8707,"NE":8708,"UC":8709,"Ġtopic":8710,"including":8711,"})^{\\":8712,"Ġmeeting":8713,"place":8714,"trained":8715,"Ġcaptured":8716,"Inter":8717,"Ġconsec":8718,"Ġice":8719,"Ġpackage":8720,"ĠCH":8721,"ĠCE":8722,"Ġwoman":8723,"Ġsurrounding":8724,"):=":8725,"Pol":8726,"critical":8727,"Exp":8728,"constant":8729,"ĠHill":8730,"ĠAgain":8731,"TC":8732,"fortunately":8733,"Ġsports":8734,"vv":8735,"ĠGreat":8736,"Ġconjugate":8737,"|{\\":8738,"Ġmission":8739,"Ġletter":8740,"Ġfusion":8741,"Ġformat":8742,"mental":8743,"ĠAM":8744,"neut":8745,"Ġdegenerate":8746,"ĠWay":8747,"Ġculture":8748,"ĠSpa":8749,"General":8750,"pation":8751,"Ġreducing":8752,"Ġadjust":8753,"Ġphon":8754,"ilos":8755,"Ġefficiently":8756,"ĠMuseum":8757,"shape":8758,"Ġnumerous":8759,"bottomrule":8760,"Ġlogarithmic":8761,"Ġswe":8762,"ogram":8763,"ĠMer":8764,"Ġcyclic":8765,"oking":8766,"liament":8767,"-$\\":8768,"GAN":8769,"Ġstatements":8770,"odies":8771,"hs":8772,"BD":8773,"ĠIsra":8774,"adj":8775,"Ġradiative":8776,"Ġrigid":8777,"ĠSNR":8778,"Ġprimarily":8779,"standard":8780,"))=":8781,"udinal":8782,"Ġblow":8783,"Ġmomenta":8784,"ĠEnergy":8785,"kins":8786,"Ġ[-":8787,"PL":8788,"Ġgoals":8789,"Ġtrial":8790,"Ġtracking":8791,"Gr":8792,"ĠDisc":8793,"Ġperhaps":8794,"elle":8795,"'}(":8796,"Ġmm":8797,"Ġsingularities":8798,")}=\\":8799,"Ġdetectors":8800,"BO":8801,"}})\\":8802,"auss":8803,"FM":8804,"cosity":8805,"tatively":8806,"adow":8807,"Wh":8808,"Fix":8809,"anc":8810,"Ġalignment":8811,"ointed":8812,"Ġsignificance":8813,"pq":8814,"Ġsea":8815,"Ġrely":8816,"Ġelectromagnetic":8817,"Ġcoincides":8818,"111":8819,"ĠService":8820,"Ġleader":8821,"ctivity":8822,"Ġdaughter":8823,"efficient":8824,"Ġdamp":8825,"ĠBayesian":8826,"ĉĠ":8827,"versely":8828,"Min":8829,"Ġextensions":8830,"RC":8831,"ceq":8832,"Ġexponentially":8833,"NRAS":8834,"Second":8835,"ĠEv":8836,"Ġfemale":8837,"hab":8838,"El":8839,"Ġcivil":8840,"Ġspins":8841,"ĠBr":8842,"She":8843,"Ġcopies":8844,"stellar":8845,"Ġvoltage":8846,"Ġclaimed":8847,"ĠSystem":8848,"ĠMass":8849,"ZZ":8850,"ĠOffice":8851,"Ġpassed":8852,"homogeneous":8853,"LU":8854,"Ġclassified":8855,"bx":8856,"ourn":8857,"taining":8858,"Ġ{}":8859,"ĠNN":8860,"found":8861,"acknow":8862,"ĠRam":8863,"ootball":8864,")$}":8865,"ĠAcademy":8866,"^*}":8867,"TL":8868,"ĠWestern":8869,"bout":8870,"ĉčĊ":8871,"Prop":8872,"Ġapproximations":8873,"Ġneutrinos":8874,"abatic":8875,"Ġlocalized":8876,"Ġhop":8877,"Ġanalyses":8878,"Ġcutoff":8879,"ĠMinister":8880,"lind":8881,"^{*}":8882,"Ġhappen":8883,"Ġneither":8884,"ĠRa":8885,"oir":8886,".\\]":8887,"eeq":8888,"Ġbrightness":8889,"XX":8890,"bracket":8891,"icago":8892,"boundary":8893,"positive":8894,"ideos":8895,"Eng":8896,"Ġlengths":8897,"rev":8898,"1977":8899,"Ġactivation":8900,"Ġequipped":8901,"bec":8902,"aland":8903,"Ġextensive":8904,"elding":8905,"Ġbis":8906,"Ġwrong":8907,"dex":8908,"})^{-":8909,"'-":8910,"coordinate":8911,"Ġbandwidth":8912,"ĠMel":8913,"}$:":8914,"Ġsequential":8915,"limit":8916,"Ġsoci":8917,"Ġpole":8918,"Ġannihi":8919,"igration":8920,"Ġpossess":8921,"Ġ\\)":8922,"Ġstations":8923,"Notice":8924,"Am":8925,")$$":8926,"qed":8927,"ĠNotice":8928,"Ġachiev":8929,"ĠEducation":8930,"Ġdie":8931,"warz":8932,"Ġfinish":8933,"pf":8934,"Ġconcepts":8935,"Ġsynchron":8936,"Ġconflic":8937,"Ġanten":8938,"Ġlands":8939,"Ġnine":8940,"Ġfashion":8941,"\\\\\\":8942,"print":8943,"coloneqq":8944,"andra":8945,"Ġcomment":8946,"each":8947,"Ġtalk":8948,"Ġkilled":8949,"stein":8950,"ilistic":8951,"ĠHa":8952,"ĠProof":8953,"Ġdebut":8954,"addle":8955,"ĠĠĠĠĠĠĠĠĠĠĠĠĠĠĠĠĠĠĠĠĠĠĠ":8956,"cribed":8957,"Ġdisorder":8958,"Ġcorner":8959,"Ġ)\\":8960,"Ġensures":8961,"Ġinfer":8962,"}.$$":8963,"ĠCy":8964,"Ġsituations":8965,"Ġsaying":8966,"ĠWeb":8967,"ĠVirgin":8968,"ĠDu":8969,"Ġspent":8970,"1978":8971,"brated":8972,"ĠCarol":8973,"diagonal":8974,"Ġclin":8975,"ĠGovernment":8976,"Ġvariational":8977,"versal":8978,"Ġroute":8979,"ĠHistory":8980,"Ġtens":8981,"DBLP":8982,"ĠFrank":8983,"Ġcarbon":8984,"Ġeverything":8985,"ymmetric":8986,"Ġbits":8987,"total":8988,"rbrace":8989,"Ġasymmetry":8990,"Ġrestrict":8991,"ĠMulti":8992,"ĠPeter":8993,"ĠĠĠĠĠĠĠĊ":8994,"BP":8995,"partite":8996,"ĠHaw":8997,"Ġshifts":8998,"ĠRock":8999,"veloc":9000,"ractive":9001,"everal":9002,"Ġmobile":9003,"Ġapplicable":9004,"Ġwal":9005,"character":9006,"beq":9007,"}\\)":9008,"Ġreliable":9009,"maxim":9010,"eman":9011,"mcite":9012,"atre":9013,"ÑĤ":9014,"phen":9015,"changed":9016,"these":9017,"Ġoptions":9018,"Multi":9019,"++":9020,"tas":9021,"Ġdet":9022,"Ġdisplayed":9023,"domin":9024,"orted":9025,"exact":9026,"cosh":9027,"Ġbrand":9028,"Ġargue":9029,"Ġsegments":9030,"ĠIV":9031,"Ġkeeping":9032,"Ġutility":9033,"Ġcuts":9034,"osa":9035,"Ġproperly":9036,"ester":9037,"105":9038,"Ġmoder":9039,"Ġsubgraph":9040,"ĠBig":9041,"}{!":9042,"ĠBill":9043,"Ġrequest":9044,"Ġenables":9045,"bining":9046,"}}^\\":9047,"entations":9048,"Di":9049,"inn":9050,"Ġextraction":9051,"pressed":9052,"gue":9053,"Ġanything":9054,"Ġserver":9055,"Char":9056,"inity":9057,"umann":9058,"sequence":9059,"Ġcritic":9060,"reed":9061,"ĠĠĠĠĠĠĠĠĠĠĠĠĠĠĠĠĠĠ":9062,"utation":9063,"}$~":9064,"ĠSeries":9065,"Ġvaries":9066,"Ġâ":9067,"ilinear":9068,"FP":9069,"Ġii":9070,"Ġemplo":9071,"{-}":9072,"ĠGW":9073,"riction":9074,"Ġparity":9075,">]":9076,"Ġheavi":9077,"Ġbubble":9078,"peed":9079,"Ġequivalently":9080,"Ġqual":9081,"1976":9082,"Ġnontrivial":9083,"ĠTechnology":9084,"Non":9085,"Ġcorrectly":9086,"variable":9087,"Ġopin":9088,"Ġcamp":9089,"fla":9090,"Ġsuppressed":9091,"Ġlabor":9092,"ato":9093,"EV":9094,"Ġaspect":9095,"static":9096,"igu":9097,"ĠLife":9098,"HH":9099,"Den":9100,"ĠGames":9101,"ĠSha":9102,"Ġfaces":9103,"frag":9104,"Ġclaims":9105,"{|\\":9106,"Ġsort":9107,"Ġphenomena":9108,"kk":9109,"Ġlosses":9110,"$}\\":9111,"ĠFlorida":9112,"Ġlay":9113,"ĠChampionship":9114,"pop":9115,"Ġencoding":9116,"pass":9117,"Ġperturbative":9118,"''.":9119,"Ġphotometric":9120,"ulture":9121,"rically":9122,"rog":9123,"global":9124,"Ġcum":9125,"Ġchec":9126,"Ð½":9127,"pack":9128,"Ġapproximated":9129,"Ġasymptotically":9130,"Ġdetermination":9131,"Ġexcellent":9132,"category":9133,"Ġoriented":9134,"})}{":9135,"Ġdeviations":9136,"lattice":9137,"During":9138,"Ġpartners":9139,"theses":9140,"Ġcooper":9141,"ĠOper":9142,"}=-":9143,"Ġportion":9144,"hn":9145,"ĠAdditionally":9146,"Ġparent":9147,"ĠNevertheless":9148,"dependence":9149,"RT":9150,"wang":9151,"Ġcreating":9152,"Ġformally":9153,"network":9154,"Ġlatest":9155,"Ġsold":9156,"}}_\\":9157,"description":9158,"Ġlibrary":9159,"enty":9160,"ĠFigs":9161,"Ġbank":9162,"ĠMany":9163,"\\\"{":9164,"singular":9165,",}":9166,"uristic":9167,"Ġneighbors":9168,"Ġultimate":9169,"Ġobtains":9170,"Ġcomplement":9171,"correlation":9172,"Ġassignment":9173,"Ġolder":9174,"BT":9175,"Ġlogic":9176,"ras":9177,"+{\\":9178,"Ġexplored":9179,"Ġreti":9180,"ĠML":9181,"bt":9182,"Ġpump":9183,"ĠYear":9184,"Ġtunnel":9185,"dynamics":9186,"Ġmanip":9187,"Ġfol":9188,"ĠInt":9189,"Ġartists":9190,"Sol":9191,"Ġsecret":9192,"Ġdial":9193,"Ġplans":9194,"Ġthous":9195,"Ġreplic":9196,"Ġcommercial":9197,"MNRAS":9198,"Ġcubic":9199,"rust":9200,"ĠĠĠĠĠĊ":9201,"ĠFrancis":9202,"$^{\\":9203,"'m":9204,"Ġdiscrepan":9205,"Ġdivision":9206,"onald":9207,"scalebox":9208,"Ġadapted":9209,"curve":9210,"Ġrobustness":9211,"istant":9212,"through":9213,"Ġbus":9214,"Ġopportunity":9215,"rarily":9216,"initial":9217,"fered":9218,"Ġuniquely":9219,"fies":9220,"holds":9221,"ĠLipschitz":9222,"algorithmic":9223,"cv":9224,"Time":9225,"lementary":9226,"distance":9227,"Ġqubits":9228,"))$,":9229,"ributions":9230,"Mc":9231,"mittee":9232,"ĠHop":9233,"ĠWil":9234,"Ġchance":9235,"Ġdim":9236,"ĠLos":9237,"ĠRecords":9238,"ĠeV":9239,"Ġheating":9240,"~~~":9241,"hou":9242,"Ġseconds":9243,"ben":9244,"Ġthickness":9245,"Ġlooks":9246,"}}}}":9247,"Ds":9248,"Ġminimize":9249,"hel":9250,"icular":9251,"Ġabundances":9252,"ĠItalian":9253,"Ġmovie":9254,"ĠJer":9255,"}):":9256,"abolic":9257,"Ġfaith":9258,"Ġest":9259,"@{}}":9260,"wer":9261,"Ġremained":9262,"raisebox":9263,"Definition":9264,"Ġours":9265,"itory":9266,"Ġenjoy":9267,"Ġvocal":9268,"Ġsomeone":9269,"tract":9270,"Ġsimplified":9271,"Ġmodification":9272,"vo":9273,"good":9274,"Ġworst":9275,"ĠLouis":9276,"otal":9277,"ora":9278,"ĠCharles":9279,"Ġpreced":9280,"Ġeasier":9281,"emb":9282,"unched":9283,"Ġgradients":9284,"};\\":9285,"Ġjoin":9286,"Ġfounded":9287,"rams":9288,"ĠIll":9289,"Ġgrows":9290,"ĠLHC":9291,"Ġcool":9292,"Ġupdates":9293,"ĠParis":9294,"comment":9295,"ĠElect":9296,"omer":9297,"Ġglob":9298,"Ġbenefits":9299,")_\\":9300,"ĠGa":9301,"uling":9302,"SW":9303,"ĠLin":9304,"Ġforced":9305,"Ġdetermining":9306,"Ġreproduce":9307,"Ġfer":9308,"umni":9309,"Ġaccum":9310,"phy":9311,"Ġassociation":9312,"Ġlaunch":9313,"Ġcomposite":9314,"Ġann":9315,"Ġemo":9316,"Ġcompre":9317,"rink":9318,"Ġglass":9319,"Ġcompens":9320,"underbrace":9321,"former":9322,"Ġconnecting":9323,"ĠHD":9324,"140":9325,"Ġwinning":9326,"four":9327,"Ġmodeled":9328,"Ġamounts":9329,"Ġcontinues":9330,"PN":9331,"Ġchi":9332,"1975":9333,"Ġelected":9334,"Ġexclus":9335,"Ca":9336,"corr":9337,"Ġsurprising":9338,"Ġdiscovery":9339,"rone":9340,"ested":9341,"Ġsch":9342,"|}{\\":9343,"who":9344,"ĠTimes":9345,"Ġimpossible":9346,"algebras":9347,"ketball":9348,"Ġmodular":9349,"Ġpose":9350,"Ġadaptive":9351,"Ġstrings":9352,"Ġbuildings":9353,"ĠTeV":9354,"Ġfilters":9355,"Ġnan":9356,"Ġtwist":9357,"ĠGrand":9358,"house":9359,"liminary":9360,"ĠIreland":9361,"MSE":9362,"John":9363,"Ġinvariants":9364,"wan":9365,"Ġready":9366,"Dist":9367,"ees":9368,"irich":9369,"DT":9370,"Ġgluon":9371,"KK":9372,"1974":9373,"Ġfirm":9374,"_{|":9375,"ĠInformation":9376,"iger":9377,"Ġcounting":9378,"ĠSF":9379,"Ġexposure":9380,"Ġgraded":9381,"Ġlock":9382,"atures":9383,"]}$":9384,"}\\,,":9385,"ĠBC":9386,"Ġbudget":9387,"orial":9388,"ĠZealand":9389,"nova":9390,"Ġfinished":9391,"Ac":9392,"iment":9393,"Ġpages":9394,"Ġmill":9395,"geqslant":9396,"driven":9397,"Ġship":9398,"Har":9399,"hd":9400,"Ġparton":9401,"uan":9402,"parts":9403,"Ġsupports":9404,"Ġguarantees":9405,"igan":9406,"Ġarising":9407,"ros":9408,"satz":9409,"Ġqueries":9410,"mr":9411,"Gaussian":9412,"ĠRic":9413,"Bas":9414,"Long":9415,"Ġverified":9416,"ĠEngine":9417,"post":9418,"Ġviews":9419,"cessible":9420,"Ġ\\%":9421,"Ġcausal":9422,"Ġfacts":9423,"ĠCoulomb":9424,"Ġdifficulty":9425,"ova":9426,"Ġhelpful":9427,"ĠPR":9428,"Ġcombine":9429,"Inte":9430,"ĠWeyl":9431,").$":9432,"ĠSpanish":9433,"Ġrenormalization":9434,"=}":9435,"ĠSocial":9436,"Ġfacili":9437,"fg":9438,"pendicular":9439,"ĠHistor":9440,"Ġanomaly":9441,"tem":9442,"112":9443,"Ġshapes":9444,"Ġconvolutional":9445,"Ġmechanics":9446,"EX":9447,"ĠFR":9448,"130":9449,"Ġdedicated":9450,"Ġinspired":9451,"ordered":9452,"erring":9453,"Ġcompletes":9454,"ĠEvery":9455,"Ġhardware":9456,"ancing":9457,"Ġarrange":9458,"Ġmeasuring":9459,"riting":9460,"auti":9461,"cu":9462,"Ġmechanical":9463,"ĠHor":9464,"jet":9465,"1973":9466,"rations":9467,"akes":9468,"Ġreconstructed":9469,"Ġrotational":9470,"Color":9471,"Ġnation":9472,"Ġquantitative":9473,"irichlet":9474,"ela":9475,"Ġflavor":9476,"ois":9477,"\\@":9478,"Ġatmosphere":9479,"Ġcompletion":9480,"Ġgal":9481,"Ġfif":9482,"Ġscaled":9483,"astern":9484,"Ġguitar":9485,"ĠOnly":9486,"Ġsurveys":9487,"Ġreci":9488,"ĠOnce":9489,"Ġfilled":9490,"IEEE":9491,"ĠPy":9492,"}$\\\\":9493,"Ġobtaining":9494,"enced":9495,"ĠBusiness":9496,"Ġreality":9497,"^*_{":9498,"EQ":9499,"Ġsatellite":9500,"Ġforming":9501,"Ġdisks":9502,"Ġvortex":9503,"List":9504,"Ġ$\\|\\":9505,"Ġcoincide":9506,"comparison":9507,"Ġabstract":9508,"Ġbranching":9509,"Ġviscosity":9510,"Ġexpanded":9511,"HA":9512,"ĠFace":9513,"centage":9514,"Ġcas":9515,"equilibrium":9516,"ĠSil":9517,"Conclusions":9518,"Ġsummer":9519,"sd":9520,"Ġrecovery":9521,"Ġconsecutive":9522,"Ġcompression":9523,"utter":9524,"Ġsimplest":9525,"zil":9526,"Ġtension":9527,"MeV":9528,"Ġbecoming":9529,"Ġvariant":9530,"states":9531,"Ġregarded":9532,"Ġplant":9533,"into":9534,"ĠBased":9535,"Ġconvention":9536,"Ġparties":9537,"Up":9538,"Ġdefault":9539,"Ġvehicles":9540,"Ġredshifts":9541,"Ġstories":9542,"Ġexhibits":9543,"demic":9544,"ressive":9545,"photon":9546,"infor":9547,"Ġhistorical":9548,"Ġarticles":9549,"hookrightarrow":9550,"arma":9551,"processing":9552,"Ġhuge":9553,"Ġobserving":9554,"Ġgun":9555,"classical":9556,"ĠRail":9557,"Ġbinding":9558,"fixed":9559,"viously":9560,"trim":9561,"ronic":9562,"Ġpairing":9563,"utch":9564,"Ġsummarize":9565,"Ġna":9566,"Ġmultiplicity":9567,"Ġvision":9568,"Ġadjoint":9569,"iner":9570,"Before":9571,"actor":9572,"ĠLake":9573,"vdash":9574,"upsi":9575,"eties":9576,"Ġsevere":9577,"Back":9578,"zon":9579,"ache":9580,"Ġacknowled":9581,"Ġnoisy":9582,"Ġepochs":9583,"Ġquantization":9584,"Ġtorsion":9585,"Ġhierarchy":9586,"retch":9587,"ĠBS":9588,"ĠGrant":9589,"Ġspl":9590,"adic":9591,"^*,":9592,"Ġcharacterization":9593,"Ġrever":9594,"Ġpsy":9595,"Ġaircraft":9596,"author":9597,"Ġmagnitudes":9598,"Ġmerger":9599,"Ġvoice":9600,"essel":9601,"olved":9602,"ĠRay":9603,"Ġtransformed":9604,"Ġpor":9605,"Ġparents":9606,"ĠYour":9607,"Ġoptimized":9608,"Ġparticipa":9609,"Ġsight":9610,"Ġmeasurable":9611,"\\,$":9612,"span":9613,"Ġdiffe":9614,"Ġrelies":9615,"gcolor":9616,"CNN":9617,"Ġ\\\\\\":9618,"1972":9619,"upsilon":9620,"ĠPenn":9621,"}}{(":9622,"ĠProgram":9623,"ĠUniverse":9624,"Ġple":9625,"Ġaccurately":9626,"rences":9627,"Ġpresentation":9628,"Ġhttps":9629,"isons":9630,"orough":9631,"ulative":9632,"Ġalle":9633,"nor":9634,"),\\\\":9635,"rn":9636,"Ġbosons":9637,"ias":9638,"charge":9639,"])":9640,"istan":9641,"rain":9642,"Ġdeveloping":9643,"ito":9644,"Ġsubsequently":9645,"ĠÎ":9646,"uer":9647,"lst":9648,"mak":9649,"Ġresolved":9650,"},$":9651,"itzer":9652,"NL":9653,"ddot":9654,"ĠCur":9655,"Ġcalls":9656,"Ġrotating":9657,"Ġleague":9658,"HO":9659,"Ġau":9660,"Ġraised":9661,"rceil":9662,"Ġstock":9663,"ĠOrder":9664,"portation":9665,"igroup":9666,"romagnetic":9667,"cian":9668,"'.":9669,"Ġdwarf":9670,"((\\":9671,"Ġmur":9672,"dv":9673,"Ġinterpolation":9674,"tory":9675,"Ġadditive":9676,"Ġenhancement":9677,"Ġ..":9678,"Ġshifted":9679,"Ġextinction":9680,"ĠChicago":9681,"ordan":9682,"Ġ()":9683,"Ġrelationships":9684,"Ġoffset":9685,"Ġturbulence":9686,"$\\%":9687,"lov":9688,"ĠMS":9689,"Ġconsumption":9690,"ĠVal":9691,"bis":9692,"}),\\":9693,"fraction":9694,"titive":9695,"ĠBell":9696,"Ġarbitrarily":9697,"))}":9698,"Ã¨":9699,"near":9700,"may":9701,"Ġiron":9702,"Ġmessages":9703,"NP":9704,"ĠAny":9705,"periodic":9706,"ĠÂ£":9707,"bles":9708,"Ġvon":9709,"Gal":9710,"ols":9711,"ĠGood":9712,"plex":9713,"Ġexperimentally":9714,"Ġvideos":9715,"ĠGeorg":9716,"ĠBoard":9717,"Ġthermodynamic":9718,"Ġcontamin":9719,"GE":9720,"ĠNAS":9721,"Ġconcerning":9722,"Ġdil":9723,"Ġrealization":9724,"|}\\":9725,"road":9726,"onym":9727,"gravity":9728,"Ġproducing":9729,"Ġcapable":9730,"Ġacade":9731,"ĠJournal":9732,"Ġions":9733,"Ġgiant":9734,"velocity":9735,"}^{*":9736,"Ġnoting":9737,"Ġconvers":9738,"Ġcontour":9739,"gery":9740,"ĠLee":9741,"overrightarrow":9742,"Ġsums":9743,"Ġproposal":9744,"ĠLong":9745,"Ġantic":9746,"Ġartist":9747,"Ġquarter":9748,"Ġfactorization":9749,"Ġinjective":9750,"atest":9751,"Ġimproves":9752,"oke":9753,"ĠItaly":9754,"degenerate":9755,"}'$":9756,"lceil":9757,"Ġsigns":9758,"Ġeffectiveness":9759,"ĠBorel":9760,"Ġconcerns":9761,"nl":9762,"Lab":9763,"Ind":9764,"Ġcharacterize":9765,"Sing":9766,"Ġscientific":9767,"Ã¤":9768,"Ġbid":9769,"airs":9770,"Ġtransi":9771,"Ġfrequently":9772,"ticular":9773,"haus":9774,"ĠMartin":9775,"Ġfila":9776,"eto":9777,"RL":9778,"nas":9779,"ĠAnge":9780,"$~\\":9781,"umes":9782,"NO":9783,"Ġcollege":9784,"Ġcompleteness":9785,"Ġsket":9786,"ĠCentre":9787,"Hy":9788,"lad":9789,"Ġvote":9790,"levant":9791,"ĠGener":9792,"TA":9793,"bell":9794,"Ġbrother":9795,"how":9796,"direction":9797,"cludes":9798,"ilosoph":9799,"Ġcores":9800,"verti":9801,"opy":9802,"Ġalbums":9803,"cean":9804,"Ġrings":9805,"ĠĠĠĠĠĠĠĠĠĠĠĠĠĠĠĠĠĠĠĠ":9806,"\\%,":9807,"Ġarrive":9808,"Ġescape":9809,"ĠCommittee":9810,"Ġconcrete":9811,")$;":9812,"ĠDefine":9813,"Ġdaily":9814,"Ġtil":9815,"Ġroll":9816,"abi":9817,"Ġcrow":9818,"ĠBet":9819,"sr":9820,"ĠVictor":9821,"paren":9822,"Ġboost":9823,"otel":9824,"\\\\[":9825,"ĠUSA":9826,"@{\\":9827,"Ġplanar":9828,"neigh":9829,"Ġspirit":9830,"theore":9831,"Ġ{{":9832,"aki":9833,"ressing":9834,"ĠGoogle":9835,"''$":9836,"}}-\\":9837,"Ġbond":9838,"Ġproving":9839,"Ġmassless":9840,"Ġseed":9841,"Ġhelps":9842,"linder":9843,"fun":9844,"Ġimposed":9845,")$)":9846,"ĠGar":9847,"1950":9848,"Based":9849,"oren":9850,"zens":9851,"MI":9852,"sun":9853,"Ġsimpler":9854,"ĠSimilar":9855,"gar":9856,"tainment":9857,"ĠArts":9858,"Ġhomology":9859,"Ġborder":9860,"Ġaccounts":9861,"Ġscope":9862,"Ġcertainly":9863,"terms":9864,"Ġstrain":9865,"ĠAnalysis":9866,"Ġresearchers":9867,"scope":9868,"flux":9869,"Ġmotivated":9870,"Ġdissipation":9871,"Ġsafe":9872,"pin":9873,"Ġlongitudinal":9874,"GHz":9875,"Ġfailed":9876,"integral":9877,"Ġrestrictions":9878,"*{\\":9879,"pur":9880,"Ġappointed":9881,"Ġexcitations":9882,"Go":9883,"Ġtrigger":9884,"assumption":9885,"Ġchecked":9886,"Ġlic":9887,"Ġpil":9888,"ĠVis":9889,"Ġprem":9890,"ĠRegion":9891,"Rep":9892,"Method":9893,"Ġreme":9894,"np":9895,"Ġviolation":9896,"aval":9897,"show":9898,"edding":9899,"Ġoutcomes":9900,"angled":9901,"Ġslowly":9902,"Ġmic":9903,"ĠDevelopment":9904,"room":9905,"words":9906,"ING":9907,"fast":9908,"ĠCS":9909,"Ġindependence":9910,"ĠPrin":9911,"cost":9912,"ĠCauchy":9913,"ĠSDSS":9914,"quality":9915,"Ġincome":9916,"pat":9917,"Ġimprovements":9918,"Ġmeson":9919,"mers":9920,"Ġtells":9921,"Ġtotally":9922,"Ġkpc":9923,"ĠAngeles":9924,"ĠDan":9925,"Ġpieces":9926,"Ġweaker":9927,"Main":9928,"theo":9929,"oustic":9930,"Ġequally":9931,"gas":9932,"riptions":9933,"Ġmicroscop":9934,")}}\\":9935,"istered":9936,"Ġremainder":9937,"ologically":9938,"hensive":9939,"Med":9940,"Ġintegrable":9941,"ĠMean":9942,"Ġsun":9943,"Ġcoarse":9944,"tty":9945,").\\":9946,"bing":9947,"Ġinferred":9948,"Ġaveraging":9949,"Ġequip":9950,"Ġsupply":9951,"Ġpreserves":9952,"_{\\{":9953,"Ġneighbour":9954,"dotted":9955,"HI":9956,"Corollary":9957,"without":9958,"had":9959,"Ġadvanced":9960,"Lie":9961,"Ġgeomet":9962,"ĠStep":9963,"Ġbgcolor":9964,"dor":9965,"|\\,":9966,"oids":9967,"noalign":9968,"Ġshorter":9969,"My":9970,"ĠOffic":9971,"Ġ}(":9972,"Ġconcerned":9973,"keV":9974,"bu":9975,"ruit":9976,"Ġpipeline":9977,"Ġspeaking":9978,"particles":9979,"Ġeth":9980,"mt":9981,"Ġstored":9982,"ĠDra":9983,"ĠAlice":9984,"iy":9985,"ĠRichard":9986,"tension":9987,"Ġbarrier":9988,"Ġdeterminant":9989,"Ġsmart":9990,"prim":9991,"ĠDC":9992,"FW":9993,"Comp":9994,"Ġexploration":9995,"Ġrewrite":9996,"thus":9997,"ĠPeople":9998,"Ġdiagnos":9999,"ÑĢ":10000,"Ġserves":10001,"ĠMas":10002,"expected":10003,"Ġworse":10004,"Ġinvertible":10005,"Ġcontroller":10006,"Ġmirror":10007,"}\\,.":10008,"ĠPic":10009,"Ġprocedures":10010,"ĠCross":10011,"%)":10012,"amber":10013,"Ġampl":10014,"Ġbegins":10015,"suc":10016,"tack":10017,".][]{":10018,"ssification":10019,"rf":10020,"azz":10021,"Ġrecovered":10022,"Ġvalidity":10023,"ĠMR":10024,"ĠJoseph":10025,"Ġsharing":10026,"Ġlaunched":10027,"Ġprominent":10028,"Ġcurrents":10029,"Ġresidu":10030,"imple":10031,"Ġbelief":10032,"ĠSu":10033,"fields":10034,"Ñģ":10035,"water":10036,"paper":10037,"uthor":10038,"Ġanisotropy":10039,"Ġblood":10040,"Ġbranches":10041,"Ġwriter":10042,"Ġisland":10043,"Ġbelieved":10044,"pare":10045,"Ġdisplacement":10046,"arcsec":10047,"avig":10048,"variate":10049,"md":10050,"Ġoffered":10051,"}--\\":10052,"Ġpatient":10053,"Ġfamous":10054,"MD":10055,"ĠWomen":10056,"ĠDirector":10057,"Ġsole":10058,"Ġsquared":10059,"}$&":10060,"1968":10061,"Ġrequiring":10062,"Ġprimitive":10063,"Ġdivisor":10064,"Ġlepton":10065,"Ġga":10066,"Ġadmissible":10067,"Ġremoving":10068,"urban":10069,"Ġfails":10070,"Ġadmit":10071,"Ġinnov":10072,"Ġadi":10073,"Ġfiles":10074,"))^":10075,"];":10076,"ĠLine":10077,"elastic":10078,"Ġproportion":10079,"Ġdecades":10080,"Ġgamma":10081,"Ġintended":10082,"Mat":10083,"HL":10084,"Ġaccepted":10085,"Ġqualitative":10086,"Ġsle":10087,"ĠStandard":10088,"arities":10089,"Ġthereby":10090,"Ġargued":10091,"ernels":10092,"Ġengineering":10093,"ĠSR":10094,"Ġappendix":10095,"Ġcorrected":10096,"Step":10097,"tify":10098,"Ġtourn":10099,"Ġenvironmental":10100,"ĠJones":10101,"Ġsend":10102,"Ġidentities":10103,"tator":10104,"etri":10105,"ashi":10106,"ĠRiemannian":10107,"Ġreverse":10108,"Ġbundles":10109,"Tho":10110,"Ġboxes":10111,"Ġconstitu":10112,"Ba":10113,"Ġdecisions":10114,"Ġpairwise":10115,"Acknowledge":10116,"lication":10117,"oupled":10118,"gi":10119,"rk":10120,"1971":10121,"ĠAI":10122,"lability":10123,"Fs":10124,"]_{\\":10125,"Ġthread":10126,"cn":10127,"Eu":10128,"Ġcalculating":10129,"Ġannual":10130,"ĠSect":10131,"Ġoscillation":10132,"ĠAdS":10133,"ĠGen":10134,".,][]{":10135,"!}":10136,"worth":10137,"Ġperpendicular":10138,"Ġoperated":10139,"taur":10140,"ĠPM":10141,"ultural":10142,"ĠCongress":10143,"Ġarchitectures":10144,"implies":10145,"EW":10146,"gt":10147,"Ġdele":10148,"Ġlinked":10149,"Ġreveals":10150,"ĠForce":10151,"ĠBank":10152,"anda":10153,"following":10154,"ĠVirginia":10155,"tings":10156,"lvert":10157,"Ġrectangle":10158,"spectrum":10159,"ĠHon":10160,"ĠSund":10161,"Ġillustrates":10162,"isher":10163,"Ġbaryon":10164,"Ġparad":10165,"Ġautomorphism":10166,"Ke":10167,"Ġdimensionless":10168,"ilipp":10169,"Ġ&-":10170,"Ra":10171,"ĠGPU":10172,"Ġguess":10173,"Ġcoherence":10174,"Ġscan":10175,"Ġeveryone":10176,"Ġsuscep":10177,"ĠSFR":10178,"Ġacquired":10179,"Ġtherein":10180,"512":10181,"|$.":10182,"ĠFootball":10183,"urt":10184,"ĠCatholic":10185,"Ġassumes":10186,"ively":10187,"Bound":10188,"angular":10189,"Ġprojections":10190,"radius":10191,"Ġbare":10192,"next":10193,"Ġskew":10194,"estima":10195,"ineq":10196,"Ġbridge":10197,"1969":10198,"Ġmodulation":10199,"Ġfeatured":10200,"Ġinstal":10201,"ĠRefs":10202,"Ġenvelope":10203,"Ho":10204,"Ġcod":10205,"'ve":10206,"ĠClearly":10207,"Ġintersect":10208,"Ġintegrating":10209,"ĠAv":10210,"Ġactor":10211,"ĠMem":10212,",$$":10213,"High":10214,"Ġneglect":10215,"Ġreviews":10216,"Ġconfirm":10217,"ijk":10218,"Ġinsight":10219,"life":10220,"Ġbu":10221,"Ġguide":10222,"idelity":10223,"OL":10224,"Star":10225,"burst":10226,"ission":10227,"urated":10228,"Ġremin":10229,"Ġnm":10230,"proj":10231,"weighted":10232,"ĠLove":10233,"omo":10234,"_+$":10235,"ĠProject":10236,"Vi":10237,"Ġdestroy":10238,"Ġbrain":10239,"Ġchampions":10240,"consider":10241,"Ġmodelling":10242,"take":10243,"eigen":10244,"region":10245,"ĠMur":10246,"Ġoil":10247,"Ġscat":10248,"valid":10249,"grad":10250,"270":10251,"Ġinfrared":10252,"entropy":10253,"Ġintroduces":10254,"yi":10255,"tact":10256,"Ġsimplify":10257,"Ġwitness":10258,"ĠYang":10259,"inson":10260,"ĠPlanck":10261,"dium":10262,"Ġpaint":10263,"Ġsin":10264,")-(":10265,"ĠRussia":10266,"Ġcong":10267,"vance":10268,"Ġextending":10269,"racle":10270,"ĠDeep":10271,"riage":10272,"Ġlists":10273,"Ġallocation":10274,"Ġconsequences":10275,"ĠKa":10276,"Ġray":10277,"Ġtried":10278,"ĠFilm":10279,"ĠAssumption":10280,"lay":10281,"Ġidentifying":10282,"tier":10283,"Such":10284,"}=-\\":10285,"decay":10286,"Ġnucleus":10287,"Ġlifetime":10288,"refe":10289,"Ġexpanding":10290,"cient":10291,"Mark":10292,"ava":10293,"Ġlimitations":10294,"Ġaims":10295,"Ġhelped":10296,"Ġeccentric":10297,"lligence":10298,"Ġmunic":10299,"}{-":10300,"sqcup":10301,"Ġemit":10302,"iated":10303,"Ġvariants":10304,"Ġforest":10305,"lates":10306,".\\,\\":10307,"ĠWood":10308,"Ġhttp":10309,".;":10310,"CI":10311,"ifferent":10312,"ĠJun":10313,"gest":10314,"ĠMach":10315,"Ġhospital":10316,"gap":10317,"Ġsupporting":10318,"{}\\":10319,"Ġwood":10320,"Bel":10321,"don":10322,"Type":10323,"kh":10324,"scatter":10325,"appendix":10326,"[]{":10327,"ĠFund":10328,"Ġsociety":10329,"Ġraw":10330,"BN":10331,"Ġapart":10332,"Ġcancer":10333,")\\|_{":10334,"}:\\":10335,"Rad":10336,"Ġdip":10337,"Ġreceiver":10338,"Ġkernels":10339,"Ġcovariant":10340,"ĠImage":10341,"Ġpreserve":10342,")\\;":10343,"rvert":10344,"Ġevident":10345,"object":10346,"Ġpercentage":10347,"Ġmutual":10348,"Ġwalls":10349,"ĠSL":10350,"Ġmorphisms":10351,"Define":10352,"pto":10353,"Ġwhom":10354,"ĠMexico":10355,"ĠNon":10356,"Ġconvenience":10357,"ficial":10358,"Vol":10359,"Ġleaf":10360,"$^\\":10361,"bos":10362,"Due":10363,"ĠTem":10364,"ĠSwed":10365,"Remark":10366,"Ġattempts":10367,"ĠTa":10368,"Ġbath":10369,"Sa":10370,"perture":10371,"Ġpromising":10372,"adjoint":10373,"Equation":10374,"lag":10375,"Ġcontinuously":10376,"Ġquen":10377,"Ġrescal":10378,"pring":10379,"Ġformulated":10380,"ources":10381,"!!":10382,"ĠLearning":10383,"obtained":10384,"Ġtrib":10385,"ĠPA":10386,"oday":10387,"Ġanomalous":10388,"ĠFestival":10389,"effective":10390,"hr":10391,"Ġeye":10392,"PG":10393,"^+_":10394,"}\\|_{":10395,"Ġdecoder":10396,"move":10397,"ĠCMB":10398,"Ġpp":10399,"})}{\\":10400,"Ġdiversity":10401,"Ġaudio":10402,"conc":10403,",+":10404,"Ġmal":10405,"Ġnotations":10406,"ĠSummer":10407,"Ġadvance":10408,"Ġaddressed":10409,"ĠPres":10410,"Ġexcluded":10411,"rie":10412,"ĠRun":10413,"Ġnewly":10414,"tabularnewline":10415,"ĠLocal":10416,"riz":10417,"Ġgeneralize":10418,"BI":10419,"^*$.":10420,"they":10421,"tized":10422,"ĠPra":10423,"Ġcollective":10424,"ahler":10425,"rror":10426,"systems":10427,"language":10428,"Discussion":10429,"veloper":10430,"Ġphotometry":10431,"double":10432,"Ġcompi":10433,"Ġtriangles":10434,"fficient":10435,"xygen":10436,"irls":10437,"Ġinversion":10438,"batim":10439,"odge":10440,"Ġdemonstrates":10441,"alla":10442,"005":10443,"Ġtuning":10444,"Ġfractions":10445,"Ġdocuments":10446,"laps":10447,"OO":10448,"Ġsubgroups":10449,"dp":10450,"bol":10451,"Sto":10452,"Dis":10453,"itan":10454,"}:=\\":10455,"Ġambigu":10456,"night":10457,"^+(":10458,"'}{":10459,"Ġprobabilistic":10460,"ĠDar":10461,"odic":10462,"Ġpreferred":10463,"Ġfunding":10464,"Ġsti":10465,"SH":10466,"ĠSk":10467,"QCD":10468,"ami":10469,"representation":10470,"Ġalpha":10471,"Ġfelt":10472,"itors":10473,"Ġcollaboration":10474,"Ġhour":10475,"nucle":10476,"Ġreadily":10477,"likely":10478,"tility":10479,"135":10480,"TP":10481,"ĠMiddle":10482,"ĠHenry":10483,"Ġadaptation":10484,"sma":10485,"Ġconserved":10486,"Ġcenters":10487,"sig":10488,"hist":10489,"Ġfacilities":10490,"Ġenfor":10491,"Ġawarded":10492,"RA":10493,"Ġconsiders":10494,"incar":10495,"allen":10496,"{-.":10497,"ader":10498,"Ġtemplate":10499,"aby":10500,"Ġbillion":10501,"VI":10502,"ĠCos":10503,"ĠJust":10504,"Ġimpose":10505,"arm":10506,"ĠPower":10507,")}]":10508,"Ġsal":10509,"--------":10510,"115":10511,"Ġbases":10512,"plied":10513,"ĠVan":10514,"Ġpitch":10515,"ĠSecret":10516,"360":10517,"expon":10518,"ĠCPU":10519,"Ġestimating":10520,"DL":10521,"Ġbla":10522,"Ġtwisted":10523,"210":10524,"FI":10525,"ĠFred":10526,"Ġfewer":10527,"Ġparabolic":10528,"\\`":10529,"}\\|\\":10530,"ĠTheore":10531,"ĠPac":10532,"Fin":10533,"Ġtidal":10534,"posing":10535,"ĠJim":10536,"arded":10537,"Ġletters":10538,"Ġmonomial":10539,"1967":10540,"Ġdots":10541,"Ġcustomers":10542,"ricket":10543,"Ġclient":10544,"ĠBern":10545,"Ġmanager":10546,"isters":10547,"Ġexpensive":10548,")}\\\\":10549,"Ġisn":10550,"fitting":10551,"metic":10552,"Acc":10553,"}}%":10554,"Plan":10555,"Both":10556,"ercise":10557,"ĠNam":10558,"Ġastro":10559,"Ġrout":10560,"Ġreflected":10561,"Ġchose":10562,"Ġreactions":10563,"aka":10564,"Ġpersist":10565,"Ġoutperforms":10566,"Ġminimizing":10567,"AU":10568,"ĠClo":10569,"Mor":10570,"Ġobserver":10571,"lein":10572,"Ġconsiderations":10573,"Ġsett":10574,"Ġreaching":10575,"KM":10576,"uu":10577,"scalar":10578,"Ġended":10579,"fm":10580,"Ġ$^":10581,"Ġattributes":10582,"Ġpartitions":10583,"Ġarms":10584,"Sw":10585,"usband":10586,"Ġoverview":10587,"relativistic":10588,">>":10589,"ĠTim":10590,"Ġiterative":10591,"Ġrecording":10592,"Ġcities":10593,"Ġchief":10594,"Ġheuristic":10595,"Ġspectroscopic":10596,"Ġbinaries":10597,"natural":10598,"approximation":10599,"Ġregimes":10600,"half":10601,"Ġserious":10602,"Ġmere":10603,"arden":10604,"Ġionization":10605,".\\,":10606,"paring":10607,"properties":10608,"Ġreasoning":10609,"dg":10610,"Ġspiral":10611,"ĠRadio":10612,"Ġconversion":10613,"Ġencoded":10614,"Ġsouthern":10615,"marg":10616,"ulner":10617,"FG":10618,"atrix":10619,"Ġresonances":10620,"vest":10621,"ĠHome":10622,"Ġmini":10623,"ĠTri":10624,"tration":10625,"Ġforeign":10626,"Ġpropagator":10627,"Ġpandemic":10628,"Ġmotions":10629,"^*$,":10630,"icine":10631,"}}|":10632,"same":10633,"Ġtuple":10634,"onto":10635,"ĠSE":10636,"coupling":10637,"ĠBlue":10638,"ĠDesign":10639,"ĠMicro":10640,"Ġexperien":10641,"Ġkinds":10642,"Ġinstrument":10643,"Ni":10644,"ĠAP":10645,"ĠCat":10646,"riers":10647,"psfrag":10648,"ĠManagement":10649,"ĠSciences":10650,"iers":10651,"rap":10652,"Gen":10653,"Script":10654,"Ġagrees":10655,"Ġmusical":10656,"Ġentity":10657,"ĠTwitter":10658,"Ġconverted":10659,"Ġaffects":10660,"algo":10661,"Ġfans":10662,"ĠKo":10663,"pson":10664,"kar":10665,"stage":10666,"plots":10667,"Ġusage":10668,"ĠIN":10669,"ĠDev":10670,"Br":10671,"Ġnorthern":10672,"ĠTour":10673,"Ġdiverse":10674,"Ġstim":10675,"Ġingre":10676,"\")":10677,"Ġearth":10678,"Ġpolarized":10679,"ĠMedia":10680,"'+":10681,"pler":10682,"ĠComp":10683,"Ġmodulo":10684,"thered":10685,"Ġiner":10686,"Ġobviously":10687,"igital":10688,"rance":10689,"ĠTeam":10690,"Ġaligned":10691,"tzmann":10692,"iano":10693,"Ð¾Ð":10694,"RG":10695,"Ġmas":10696,"^*)":10697,"import":10698,"Most":10699,"rants":10700,"Ġpoles":10701,"ĠJohnson":10702,"1964":10703,"ĠDespite":10704,"ĠBack":10705,"rupt":10706,"ĠField":10707,"ĠIsrael":10708,"Ġnomin":10709,"Ġrear":10710,"Ġhands":10711,"ĠLord":10712,"Ġsup":10713,"Ġtransferred":10714,"adap":10715,"plet":10716,"Appendix":10717,"ĠFre":10718,"Ġdamping":10719,"basis":10720,"Ġdiffers":10721,"leading":10722,"Ġuniqueness":10723,"ĠCommon":10724,"Ġlensing":10725,"Ġsensors":10726,"ĠServices":10727,"ĠPS":10728,"trace":10729,"Ġiff":10730,"Ġperformances":10731,"ĠTest":10732,"theast":10733,"hh":10734,"rational":10735,"Ġvacc":10736,"Red":10737,"fluid":10738,"Ġconstrain":10739,"Ber":10740,"ĠDirichlet":10741,"linecite":10742,"$_\\":10743,"ĠEcon":10744,"Ġedition":10745,"Ġwonder":10746,"thermal":10747,"}^-":10748,"otic":10749,"allery":10750,"pus":10751,"Ġpark":10752,"$]":10753,"alf":10754,"Ġinfinitely":10755,"Ġfederal":10756,"Ġevaluating":10757,"Ġconservative":10758,"Ġmagnetization":10759,"doc":10760,"start":10761,"Ġsecure":10762,"etary":10763,"ĠShow":10764,")]{":10765,"care":10766,"Ġwarm":10767,"Ġcommission":10768,"ĠGHz":10769,"ĠFix":10770,"ĠJul":10771,"ĠRev":10772,"dl":10773,"rl":10774,"Ġsimulate":10775,"Ġconductivity":10776,"Ġattached":10777,"diagram":10778,"ĠBir":10779,"triangleq":10780,"=$":10781,"ĠArab":10782,"Ġpenalty":10783,"design":10784,"ĠPop":10785,"icities":10786,"mathrel":10787,"ĠValley":10788,"Ġtrust":10789,"ynman":10790,"Ġbodies":10791,"rb":10792,"Ġpriori":10793,"Ġgates":10794,"family":10795,"102":10796,"Ġcompanion":10797,"Ġimplications":10798,"Ġfermionic":10799,"Ġaccessible":10800,"Ġaccompan":10801,"ĠRight":10802,"Ġphysically":10803,"Ġvice":10804,"ĠPC":10805,"ĠFree":10806,"grid":10807,"Ġarrows":10808,"ĠHuman":10809,"Ġgreatly":10810,"Ġspatially":10811,"Ġanalytically":10812,"220":10813,"})+(\\":10814,"Ġhear":10815,"imod":10816,"Ġpaid":10817,"Ġadapt":10818,"Ġtack":10819,"Summary":10820,"}}}(":10821,"Ġsettle":10822,".}.":10823,"Ġunlike":10824,"Ġclimate":10825,"Ġalumni":10826,"Ġmotor":10827,"Ġnice":10828,"EG":10829,"connection":10830,"Ġgrate":10831,"iler":10832,"ĠBre":10833,"ĠĠĠĠĠĠĠĠĊ":10834,"mond":10835,"Ġmethodology":10836,"quanti":10837,"{#":10838,">,":10839,"Ġlegis":10840,"Ġjunction":10841,"Ġdiscrepancy":10842,"ĠĠĠĠĠĠĠĠĠĠĠĠĠĠĠĠĠĠĠĠĠ":10843,"ĠNi":10844,"Ġorganizations":10845,"{-\\":10846,"zim":10847,"Form":10848,"Ġranging":10849,"Ġsales":10850,"Ġhierarchical":10851,"ĠAwards":10852,"'_{\\":10853,"Ġcorollary":10854,"ĠSky":10855,"Ġsucceed":10856,"seen":10857,"Ġcontours":10858,"Ġanisotropic":10859,"ĠThree":10860,"Ġresistance":10861,"olean":10862,"px":10863,"Ġcorpor":10864,"Ġvarieties":10865,"],\\":10866,"ferm":10867,"Ġdamage":10868,"^-\\":10869,"ĠGib":10870,"Bra":10871,"expand":10872,"=#":10873,"Ġatmospheric":10874,"Ġansatz":10875,"Ġresponses":10876,"Ġdifferentiable":10877,"Ġstrip":10878,"ockey":10879,"ĠSar":10880,"nik":10881,"ĠFacebook":10882,"version":10883,"ĠSurvey":10884,"Ġbelonging":10885,"Ġneglected":10886,"Ġturbulent":10887,"Ġacknowledge":10888,"Ġopposed":10889,"aware":10890,"Ġcorrel":10891,"Lag":10892,"Ġfluctuation":10893,"viet":10894,"aton":10895,"Ġbattle":10896,"1965":10897,"]{$":10898,"onlinecite":10899,"ĉĠĠĠ":10900,"Ġteacher":10901,"ĠSpecial":10902,"kpc":10903,"Ġinsp":10904,"Ġdr":10905,"Ġconference":10906,"Ġwild":10907,"refn":10908,"hio":10909,"Ġmodify":10910,"trac":10911,"Ġresulted":10912,"je":10913,"ĠSho":10914,"ogue":10915,"imals":10916,"ĠKen":10917,"Ġciti":10918,"parse":10919,"Ġconcaten":10920,"BG":10921,"fiers":10922,"dm":10923,"cha":10924,"ĠID":10925,"ella":10926,"}{.":10927,"PhysRev":10928,"ĠCarolina":10929,"Ġresonant":10930,"Ġpreserving":10931,"'ll":10932,"vable":10933,"Ġtelescope":10934,"Ġdesigns":10935,"roscopy":10936,"Ġphone":10937,"350":10938,"IJ":10939,"Ġcontrary":10940,"Ġpacket":10941,"}\\{":10942,"Ġmemb":10943,"Ġannihilation":10944,"para":10945,"compare":10946,"vanishing":10947,"Ġclock":10948,"Acknowled":10949,"ylvan":10950,"adi":10951,"ticity":10952,".}}":10953,"ĠChief":10954,"Ġpin":10955,"otherwise":10956,"filled":10957,"Ġbounding":10958,"Ġ\\,\\,":10959,"Pri":10960,"wp":10961,"Ġoccurred":10962,"Ġwavelengths":10963,"Ġdecla":10964,"orous":10965,"Ġfairly":10966,"\\%.":10967,"icial":10968,"quar":10969,"ĠMont":10970,"ĠNY":10971,"acting":10972,"Ġsummation":10973,"ĠNP":10974,"AdS":10975,"ĠChild":10976,"Cla":10977,"Ġoxygen":10978,"Ġleaders":10979,"gauge":10980,"Ġclassic":10981,"Ġcoding":10982,"match":10983,"Ġjobs":10984,"Ġens":10985,"ĠHubble":10986,"ĠLim":10987,"Cho":10988,"Ġpreserved":10989,"sity":10990,"Wang":10991,"dev":10992,"Ġnucleon":10993,"Ġpredicts":10994,"preserv":10995,"scaling":10996,"Ġnom":10997,"bn":10998,"tesian":10999,"leton":11000,"Ġovercome":11001,"104":11002,"Ġinjection":11003,"Ġkinematic":11004,"Ġsuggesting":11005,"TF":11006,"Ġconstructing":11007,"gged":11008,"Ġtheorems":11009,"ĠLO":11010,"aching":11011,"Ġfamili":11012,"Ġera":11013,"semi":11014,"Ġemphasize":11015,"rer":11016,"Early":11017,"follow":11018,"ĠEnd":11019,"convergence":11020,"May":11021,"shap":11022,"ĠFigures":11023,"temporary":11024,"ĠPen":11025,"gp":11026,"sys":11027,"Ġcus":11028,"Ġranking":11029,"Ġsubjects":11030,"volume":11031,"spectral":11032,"Ġdefect":11033,"ĠLibrary":11034,"ĠOld":11035,"Ġroles":11036,"Ġoscillator":11037,"Ġfifth":11038,"Ġprotein":11039,"}$};":11040,"Ġvaluable":11041,"Ġcars":11042,"Ġcounterpart":11043,"Ġdrug":11044,"700":11045,"Ġfalls":11046,"ĠAtlan":11047,"Ġ=&":11048,"Lin":11049,"ĠAL":11050,"Ġmatched":11051,"Ġbill":11052,"Ã³n":11053,"existence":11054,"ĠSus":11055,"izers":11056,"Irefn":11057,"mages":11058,"onically":11059,"ĠDE":11060,"Ġ},":11061,"Ġcompris":11062,"AO":11063,"best":11064,"ĠLog":11065,"Ġprices":11066,"ĠRepres":11067,"enum":11068,"tikzcd":11069,"1966":11070,"ĠBrazil":11071,"Ġmonitoring":11072,")}}{":11073,"Lem":11074,"|,":11075,"Class":11076,"DG":11077,"Ġsenior":11078,"ĠBanach":11079,"Ġspont":11080,"Ġking":11081,"Ġtopics":11082,"Ġtables":11083,"ĠProdu":11084,"Ġcomprehensive":11085,"Ben":11086,"Ġprepared":11087,"tie":11088,"Ġnonnegative":11089,"aters":11090,"108":11091,"}''":11092,")$:":11093,"ĠCre":11094,"Ġconsiderable":11095,"ĠColumb":11096,"Ġoccupied":11097,"zhang":11098,"Bri":11099,"search":11100,"Ġur":11101,"Ġmapped":11102,"ĠCamp":11103,"average":11104,"ĠBow":11105,"Ġexponents":11106,"GW":11107,"Ġpatches":11108,"Ġmargin":11109,"irable":11110,"Ġlattices":11111,"Ġpartner":11112,"isenberg":11113,"vially":11114,"Ġhadronic":11115,"checkmark":11116,"Ġtransforms":11117,"Ġsees":11118,"})+\\":11119,"Ġartificial":11120,"mentations":11121,"onav":11122,"Ġcontraction":11123,"elli":11124,"Ġsynthesis":11125,"oral":11126,")}+":11127,"Ġexplains":11128,"limin":11129,"ĠAma":11130,"ordon":11131,"ĠAD":11132,"Ġinduce":11133,"phone":11134,"Ġscored":11135,"Ġzeros":11136,"Ġprison":11137,"uri":11138,"estimate":11139,"Ġfloor":11140,"Vs":11141,"agree":11142,"Ġoverhead":11143,"kg":11144,"Ġriver":11145,"Ġsupernova":11146,"puting":11147,")}^{":11148,"mathord":11149,"Ġconsistently":11150,"Ġpossibilities":11151,"typ":11152,"Ġpasses":11153,"ĠMet":11154,"]{@{}":11155,"Ġstru":11156,"Ġterminal":11157,"[]":11158,"Ġsinger":11159,"Ġequipment":11160,"ĠJoe":11161,"ambig":11162,"ported":11163,"Ġhalos":11164,"Ġrid":11165,"Ġwants":11166,"Ġmodulus":11167,"Ġ$({\\":11168,"tism":11169,";\\;\\;\\;\\":11170,"Ġspecify":11171,"ĠNorthern":11172,"forma":11173,"terior":11174,"ructive":11175,"valuation":11176,")^{-\\":11177,"lement":11178,"indic":11179,"bigcap":11180,"Ġbrane":11181,"RF":11182,"Tor":11183,"cov":11184,"physics":11185,"Ġsurjective":11186,"Ġsentences":11187,"ĠConn":11188,"preceq":11189,"Ġprotection":11190,"}=\\{":11191,"Book":11192,"func":11193,"ĠRem":11194,"Ġsubstantially":11195,"param":11196,"Even":11197,"uated":11198,"Ġnotic":11199,"Ġwriters":11200,"ĠSea":11201,"Ġadiabatic":11202,"Ġdecide":11203,"zi":11204,"Ġnotes":11205,"Ġimproving":11206,"ican":11207,"Ġminimization":11208,"Graph":11209,"Ġtrends":11210,"ylvania":11211,"ĠPolicy":11212,"wall":11213,"inality":11214,"Ġcoast":11215,"ĠOlympics":11216,"harmonic":11217,"Ġseek":11218,"observed":11219,"Ġsemigroup":11220,"Ġconsequently":11221,"Ġeditor":11222,"scheme":11223,"Ġhusband":11224,"Ġmanus":11225,"ĠUl":11226,"Ġbosonic":11227,"Ġfacility":11228,"}};":11229,"Ġattributed":11230,"task":11231,"prin":11232,"lets":11233,"Ġdivide":11234,"Ġobsta":11235,"ustice":11236,"ĠTru":11237,"ogeneity":11238,"ryst":11239,"rgb":11240,"Ġclosest":11241,"Ġattribute":11242,"ĠSaint":11243,"Ġlived":11244,"Ġmanaged":11245,"plying":11246,"ĠMen":11247,"Ġclients":11248,"WW":11249,"casting":11250,"ĠCA":11251,"ĉĉĉĉĉ":11252,"ĠGro":11253,"Ġdriver":11254,"Ġremarkable":11255,"quote":11256,"Ġpreliminary":11257,"&&&&":11258,"their":11259,"Ġpointing":11260,"ournals":11261,"zes":11262,"Ġsupervised":11263,"risis":11264,"orders":11265,"verbatim":11266,"ĠGame":11267,"Ġswitching":11268,"Ġanyone":11269,"target":11270,"Ġeverywhere":11271,"Mag":11272,"Ġseparable":11273,"oston":11274,"orate":11275,"pix":11276,"olars":11277,"ĉĉĉĊ":11278,"ulates":11279,"pmod":11280,"gency":11281,"ells":11282,"Ġcounty":11283,"Ġsuppression":11284,"onomy":11285,"perturbative":11286,"sampling":11287,"Ġdegeneracy":11288,"ĠBon":11289,"ĠNC":11290,"gered":11291,"Jy":11292,"partition":11293,"Ġregardless":11294,"SB":11295,"ĠNeumann":11296,"\\).":11297,"Ġcrim":11298,"ĠVo":11299,"ĠAnn":11300,"Ġasymmetric":11301,"autiful":11302,"ĠCL":11303,"rotate":11304,"Prob":11305,"Ġopinion":11306,"Ġgalactic":11307,"information":11308,"about":11309,"abe":11310,"ĠĠĠĠĠĠĠĠĠĠĠĠĠĠĠĠĠĠĠĠĠĠĠĠ":11311,"Ġcomplexes":11312,"pas":11313,"yo":11314,"Ġterr":11315,"thon":11316,"statis":11317,"ĠWithout":11318,"Ġsuperconducting":11319,"wart":11320,"SSM":11321,"Dav":11322,"|<":11323,"Ġtournament":11324,"probability":11325,"propag":11326,"bone":11327,"uits":11328,")\\,,":11329,"Ġentities":11330,"ĠProblem":11331,"hes":11332,"chester":11333,"ĠSED":11334,"ĠBlo":11335,"brane":11336,"olis":11337,"Ġ$%":11338,"ĠChern":11339,"Ġestimators":11340,"002":11341,"bury":11342,"ĠIrish":11343,"oug":11344,"Ġevolutionary":11345,"ĠBla":11346,"imeter":11347,"depth":11348,"edia":11349,"Ġchart":11350,"bund":11351,"Ġdecoding":11352,"Ġnil":11353,"onavirus":11354,"Ġproxim":11355,"ĠMu":11356,"together":11357,"nit":11358,"ĠLast":11359,"Ġunable":11360,"VV":11361,"unov":11362,"Ġofficer":11363,"Ġgraphene":11364,"Ġsheaf":11365,"ĠSpain":11366,"Ġabsolutely":11367,"Ġgirl":11368,"ĠMoun":11369,"Ġarrival":11370,"Ġexploit":11371,"oser":11372,"Ġpretty":11373,"ĠMA":11374,"$/":11375,"ĠCare":11376,"Ġeconomy":11377,"Ġsimplicial":11378,"iences":11379,"Ġattractive":11380,"ĠBuil":11381,"^{-(":11382,"ĠLiber":11383,"lc":11384,",\\,\\,\\,\\":11385,"Ġcf":11386,"bibitem":11387,"Ġdistinguished":11388,"Ġsake":11389,"cence":11390,"igner":11391,"Ġdisp":11392,"lVert":11393,"Ġclip":11394,"smallmatrix":11395,"ĠCommunity":11396,"rms":11397,"ĠĠĠĠĠĠĠĠĠĠĠĠĠĠĠĠĠĠĠĠĠĠ":11398,"electric":11399,"lick":11400,"MO":11401,"'^":11402,"Ġcylind":11403,"ĠAmong":11404,"Ġvot":11405,"ĠSchr":11406,"Ġsends":11407,"iser":11408,"Ġrays":11409,"Ġaperture":11410,"Ġneurons":11411,"Ġ&=\\":11412,"look":11413,"Ġ(\"":11414,"ĠWilliams":11415,"Ġpron":11416,"),$":11417,"ĠAC":11418,"ĠAre":11419,"ĠLight":11420,"ĠWater":11421,"oving":11422,"vian":11423,"Ġdeco":11424,"cone":11425,"ĠCamb":11426,"Ġdisplays":11427,"Ġpublication":11428,"aker":11429,"Ġconsiderably":11430,"240":11431,"Fi":11432,"Ġguaranteed":11433,"]=\\":11434,"Ġincreasingly":11435,"Ġprotot":11436,"ĠDenote":11437,"entioned":11438,"\\;\\":11439,"âĢĿ.":11440,"EF":11441,"_{*":11442,",\\;":11443,"ĠGreek":11444,"rome":11445,"English":11446,"Ġ(.":11447,"otstra":11448,"Ġpredictive":11449,"Ġbreaks":11450,"vy":11451,"Ġquantify":11452,"=[":11453,"Ġclar":11454,"Ġtimescale":11455,"Ġremote":11456,"Ġuniversity":11457,"Ġimper":11458,"Ġadvantages":11459,"ĠWind":11460,"bolev":11461,"ĠAsia":11462,"Ġultimately":11463,"(|\\":11464,"Assum":11465,"Ġhypotheses":11466,"onormal":11467,"Will":11468,"hemistry":11469,"Acknowledgements":11470,"Ġdisturb":11471,"Ġclinical":11472,"Ġprinciples":11473,"impro":11474,"Ġtetra":11475,"'d":11476,"arged":11477,"Ġanalogue":11478,"Ġdealing":11479,"ĠDun":11480,"ukawa":11481,"Ġdevoted":11482,"Ġbatter":11483,"Ġvaried":11484,"varsigma":11485,"Ġcombinatorial":11486,"Ġahead":11487,"kens":11488,"Ġpain":11489,"Ġflag":11490,"Ġdog":11491,"uries":11492,"ĠReal":11493,"ountry":11494,"Ġnative":11495,"ĠParliament":11496,"atz":11497,"}^{[":11498,"jj":11499,"Ġ{(":11500,"Ġelev":11501,"schild":11502,"ĠScott":11503,"aturing":11504,"Ġped":11505,"ĠEM":11506,"Ġyellow":11507,"WB":11508,"Ġplease":11509,"commutative":11510,"ĠExperim":11511,"track":11512,"Local":11513,"})\\\\":11514,"ifolds":11515,"Ġbuff":11516,"Ġeyes":11517,"Ġsupposed":11518,"Supp":11519,"Ġintegrate":11520,"reson":11521,"=\\!":11522,"ĠAdam":11523,"fac":11524,"Ġdistortion":11525,"Ġheavily":11526,"TeV":11527,"urday":11528,"Ġaccompl":11529,"Ġperfectly":11530,"107":11531,"tracting":11532,"Ġcasc":11533,"ansas":11534,"pb":11535,"ometer":11536,"Ġplanes":11537,"}}({\\":11538,"103":11539,")+(":11540,"ea":11541,"Ġdeveloper":11542,"Ġacoustic":11543,"ĠConference":11544,"Ġepisodes":11545,"Ġseeing":11546,"fri":11547,"Ġreflects":11548,"reds":11549,"Ġvulner":11550,"ĠFC":11551,"Ġtoler":11552,"Ġprom":11553,"ĠCT":11554,"ĠDown":11555,"ĠMP":11556,"eping":11557,"Ġchapter":11558,"train":11559,"Ġreplacement":11560,"ĠSouthern":11561,")}{(":11562,"\\),":11563,"Ġheard":11564,"Related":11565,"ĠStan":11566,"cb":11567,"Ġmotivation":11568,"HF":11569,"alo":11570,"Ġinfrastructure":11571,")=-":11572,"Ġequiv":11573,"uality":11574,"Ġrecognized":11575,"people":11576,"Ġbasketball":11577,"Ġutilize":11578,"ĠEnter":11579,"Ġfootballers":11580,"Ġindicator":11581,"Ġassertion":11582,")}+\\":11583,"pul":11584,"ĠTer":11585,"Ġpreparation":11586,"Ġpara":11587,"event":11588,"Ġplanned":11589,"Ġcylinder":11590,"Ġassociate":11591,"Once":11592,"Ġcensus":11593,"Ġleak":11594,"equivalent":11595,"Ġoptimize":11596,"uled":11597,"Ġsearches":11598,"Ġmorning":11599,"vp":11600,"coll":11601,"located":11602,"zimuth":11603,"Ġly":11604,"user":11605,"ĠLabor":11606,"aniel":11607,"}}{{\\":11608,"\\>":11609,"Ġmodifications":11610,"Ġmoderate":11611,"restingly":11612,"ĠNavy":11613,"LD":11614,"Ġmitig":11615,"Ġfilling":11616,"Ġcomplementary":11617,"ups":11618,"Ġchair":11619,"Ġapproxima":11620,"Ġoperate":11621,"Ġcultural":11622,"Ġgl":11623,"Na":11624,"XY":11625,"necess":11626,"uin":11627,"}^{-\\":11628,"sylvania":11629,"Ġtoken":11630,"Ġserving":11631,"Ġstudio":11632,"Ġconflict":11633,"Ġmicroscopic":11634,"every":11635,"ĠIC":11636,"itecture":11637,"Ġsuperior":11638,"orementioned":11639,"Ġentered":11640,"ĠBR":11641,"Ġresidents":11642,"Ġinterpret":11643,"stances":11644,"Ġfiltering":11645,"Ġparagraph":11646,"ĠMiss":11647,"ĠSunday":11648,"Jo":11649,"ĠSong":11650,"olor":11651,"ijection":11652,"limsup":11653,"Ġseat":11654,"Ġsave":11655,"Ġgaps":11656,"Ġfamiliar":11657,"Ġweather":11658,"vergence":11659,"}{(\\":11660,"icially":11661,"Ġcompac":11662,"vor":11663,"Ġprotect":11664,"Ġade":11665,"Ġincoming":11666,"ĠMain":11667,"ranch":11668,"kernel":11669,"cession":11670,"CDM":11671,"........":11672,"ska":11673,"ĠCorpor":11674,"ĠBrownian":11675,"ĠRL":11676,"Ġsaturation":11677,"named":11678,"asympto":11679,"evalu":11680,"uts":11681,"ĠCC":11682,"llll":11683,"Ġcomparisons":11684,"Ġtriangular":11685,"Ġmonotonic":11686,"Eff":11687,"ĠLittle":11688,"Sym":11689,"1940":11690,"}}[":11691,"ĠNov":11692,"ardi":11693,"osis":11694,"ĠJes":11695,"Ġsubspaces":11696,"1963":11697,"hib":11698,"ĠJeff":11699,"Ġowned":11700,"chive":11701,"uing":11702,"viation":11703,"differential":11704,"Ġstreet":11705,"106":11706,"aches":11707,"ĠInternet":11708,"ĠFort":11709,"HR":11710,"Ġexpert":11711,"Similar":11712,"Ġhumans":11713,"ĠPhil":11714,"alp":11715,"Ġgray":11716,"})]":11717,"Ġsla":11718,"Ġissued":11719,"oned":11720,"cre":11721,"ributed":11722,")=-\\":11723,"tection":11724,"IFAR":11725,"Ġoccasion":11726,"Ġrelate":11727,"orrow":11728,"Ġsaddle":11729,"gic":11730,"ĠSW":11731,"aya":11732,"isition":11733,"Ġomit":11734,"Ġaxial":11735,"conditions":11736,"grade":11737,"central":11738,"Ġneighboring":11739,"Ġknot":11740,"DI":11741,"Ġban":11742,"ighth":11743,"Ġforcing":11744,"Ġcompetitive":11745,"}:=":11746,"cles":11747,"Äģ":11748,"simal":11749,"Ġmonotone":11750,"}}/":11751,"wind":11752,"Ġprefer":11753,"ĠIS":11754,"ĠLater":11755,"izab":11756,"inkowski":11757,"ĠLaplacian":11758,"ĠOF":11759,"});":11760,"Many":11761,"expansion":11762,"Ġmuon":11763,"Ġmel":11764,"Ġexamined":11765,"ruption":11766,"urc":11767,"ĠTro":11768,"output":11769,"Ġdop":11770,"ulties":11771,"Ġattend":11772,"Ġarith":11773,"almost":11774,"ĠJordan":11775,"ĠWales":11776,"sis":11777,"Ġdiscontinu":11778,"Ġvictim":11779,"Ġdropped":11780,"ossi":11781,"breve":11782,"Mean":11783,"Ġindirect":11784,"_*$":11785,"cC":11786,"iet":11787,"OI":11788,")\\,.":11789,"Ġpolitician":11790,"define":11791,"Ġfish":11792,"qubit":11793,"brations":11794,"\\#":11795,"170":11796,"+}$":11797,"Ġmultiplicative":11798,"Ġages":11799,"Ġreconstruct":11800,"mkern":11801,"Ġparametric":11802,"icious":11803,"Ġeigenstates":11804,"ropical":11805,"ĠBefore":11806,"1962":11807,"ĠHard":11808,"ĠAlexander":11809,"ĠGlobal":11810,"Clearly":11811,"itage":11812,"Ġexhib":11813,"ĠForm":11814,"ightest":11815,"shown":11816,"Don":11817,"Green":11818,"?âĢĿ":11819,"ĠWin":11820,"\\%)":11821,"rackets":11822,"Ġfresh":11823,"chest":11824,"ĠOx":11825,"Ġaforementioned":11826,"Ġglobally":11827,".]":11828,"seg":11829,"vio":11830,"|^{\\":11831,"Pop":11832,"Ġbehaviors":11833,"Ġsteep":11834,"}((":11835,"door":11836,"Ġquadra":11837,"Four":11838,"ĠFa":11839,"ĠRF":11840,"Ġdiam":11841,"Ġorb":11842,"Line":11843,"ailability":11844,"Ġskills":11845,"=\\,":11846,"Ġwidths":11847,"Ġnewspa":11848,"vate":11849,"Ġ\\;\\;":11850,"Ġscenes":11851,"present":11852,"Ġemail":11853,"Ġbalanced":11854,"Ġdenomin":11855,"-\\!":11856,"sphere":11857,"Notes":11858,"cmid":11859,"OV":11860,"ĠMari":11861,"Ġmolecule":11862,"sel":11863,"Ġdepartment":11864,"ĠBritain":11865,"Ġcarefully":11866,"Ġtensors":11867,"tist":11868,"Ġdrum":11869,"Ġmeaningful":11870,"ĠSign":11871,"Ġ}_{":11872,"Ġbott":11873,"onomous":11874,"cmidrule":11875,"lot":11876,"ĠBat":11877,"Ġcrew":11878,"mathring":11879,"}={\\":11880,"}$.}":11881,"Ġmedal":11882,"Ġ$(-":11883,"Ġmonop":11884,"Ġnavig":11885,"ĠMinistry":11886,"constrained":11887,"none":11888,"dV":11889,"ĠTHE":11890,"ĠSand":11891,"Ġgrains":11892,"Ġazimuth":11893,"}<\\":11894,"ĠAU":11895,"Ġpulses":11896,"Ġcomputationally":11897,"ĠPas":11898,"Work":11899,"ĠSqu":11900,"osities":11901,"Ġtechnologies":11902,"Combining":11903,"Ġmeant":11904,"biased":11905,"OU":11906,"Ã§":11907,"Ġposi":11908,"ĠTele":11909,"Ġnotable":11910,"Ġaccommod":11911,"ĠPhilipp":11912,"inois":11913,"Ġprotocols":11914,"liers":11915,"interaction":11916,"ĠSpect":11917,"burgh":11918,"Ġbif":11919,"imath":11920,"ranged":11921,"Ġremember":11922,"fp":11923,"Ġsession":11924,"organ":11925,"Ġbuy":11926,"Lu":11927,"html":11928,"Ġseasons":11929,"Ġtraces":11930,"Ġextensively":11931,"Ġbag":11932,"img":11933,"Ġattended":11934,")}\\,":11935,"ĠAst":11936,"die":11937,"ĠPoint":11938,"Ġrepeat":11939,"ospit":11940,"Ġcolon":11941,"cyclic":11942,"Ġredund":11943,"AI":11944,"Ġlept":11945,"amplit":11946,"Ġinvestment":11947,"Ġspacing":11948,"hence":11949,"Ġburst":11950,"Ġanalogy":11951,"ecom":11952,"quasi":11953,"tuple":11954,"unte":11955,"raphic":11956,"iana":11957,"Ġprotest":11958,"ĠPak":11959,"Ġcosmology":11960,"Ġaxes":11961,"ĠSm":11962,"Ġconnectivity":11963,"nic":11964,"ubb":11965,"Ġinherent":11966,"}^{{\\":11967,"ĠAff":11968,"Ġproducer":11969,"ĠMichigan":11970,"abric":11971,"sson":11972,"Ġlocus":11973,"artan":11974,"Ġremarks":11975,"ĠIran":11976,"Ġindustrial":11977,"Ġbroadcast":11978,"}}]":11979,"ĠLSTM":11980,"urance":11981,"Ġincorporate":11982,"far":11983,"Vis":11984,"}&=&":11985,"Ġsemantics":11986,"mem":11987,"ĠPacific":11988,"oni":11989,"1930":11990,"Ġfocusing":11991,"${":11992,"equal":11993,"Ġreligious":11994,"Ġbipartite":11995,"Ġpreceding":11996,"Hol":11997,"Ġappre":11998,"transition":11999,"Ġdrama":12000,"Ġstructured":12001,"ĠBud":12002,"$\\{":12003,"heim":12004,";\"":12005,"graphs":12006,"Ġautomatic":12007,"acknowled":12008,"Ġadverti":12009,"{%":12010,"BV":12011,"Ha":12012,"Ġverification":12013,"ĠBu":12014,"ĠTR":12015,"Ġphotograph":12016,"otes":12017,"rons":12018,"Ġanswers":12019,"1920":12020,"ĠDemocratic":12021,"itons":12022,"Ġactress":12023,"Ġdrops":12024,"lues":12025,"Ġfixing":12026,"Ġphra":12027,"conclusion":12028,")<\\":12029,"Ġrestaur":12030,"Ġunchanged":12031,"town":12032,"ĠCivil":12033,"fund":12034,"}^*$":12035,"Ġintui":12036,"Ġspring":12037,"Ġcycl":12038,"ĠFamily":12039,"Ġexpan":12040,"NNs":12041,"Ġrealize":12042,"ĠEP":12043,"ampion":12044,"Ġstrengths":12045,"Ġbaselines":12046,"Ġsoldi":12047,")}-":12048,"Ġfocuses":12049,"mathbin":12050,"Ġrepul":12051,"ordance":12052,"Ġneighbourhood":12053,"|$,":12054,"ĠLow":12055,"ĠPhysics":12056,"Ġmagazine":12057,"within":12058,"bv":12059,"dB":12060,"Ġ$+":12061,"Ġunlikely":12062,"cM":12063,"fre":12064,"Ġsupersymmetric":12065,"bow":12066,"ĠâĢ¦":12067,"Ġtransit":12068,"associated":12069,"Ġreceives":12070,"Ġutilized":12071,"Ġthousands":12072,"Ġrefinement":12073,"})/":12074,"Ġrev":12075,"Ġmachines":12076,"ĠAsh":12077,"basic":12078,"cus":12079,"Ġsolver":12080,"ĠOtherwise":12081,"incre":12082,"ĠOhio":12083,"sects":12084,"ĠQueen":12085,"Ġdefense":12086,"ĠFriday":12087,"ĠPennsylvania":12088,"Taking":12089,"Ġphonon":12090,"ĠMi":12091,"tails":12092,"Ġmaximize":12093,"ersonal":12094,"infinite":12095,"Ġap":12096,"Ġevolve":12097,"Ġperman":12098,"003":12099,"113":12100,"Ġlying":12101,"ĠPolice":12102,"Ġsinglet":12103,"){$\\":12104,"Ġyielding":12105,"Ġillustration":12106,"rVert":12107,"Ġexceptional":12108,"liminaries":12109,"Ġending":12110,"144":12111,"orption":12112,"maps":12113,"Ġdiscretization":12114,"stat":12115,"_*\\":12116,"ĠRGB":12117,"175":12118,"Ġwider":12119,"MB":12120,"stability":12121,"})_":12122,"earing":12123,"ĠLatin":12124,"Ġaware":12125,"Ġfract":12126,"belian":12127,"Ġadequ":12128,"Ġoccurrence":12129,"_*(":12130,"morph":12131,"Ġadministration":12132,"Ġconsensus":12133,"Ġtruncated":12134,"Ġpc":12135,"Ġlogical":12136,"Ġven":12137,"approximate":12138,"Ġcardinality":12139,"1945":12140,"db":12141,"liu":12142,"Ġofficials":12143,"Ġintra":12144,"Ġstandards":12145,"ĠResNet":12146,"Ġbrings":12147,"eras":12148,"Ġwasn":12149,"ractions":12150,"Super":12151,"glu":12152,"Sur":12153,"Ġdominates":12154,"ĠCarl":12155,"WA":12156,"Every":12157,"Ġsectors":12158,"ipality":12159,"Ġselecting":12160,"Ġreceiving":12161,"stars":12162,"Ġexperiences":12163,"fb":12164,"ĠWeek":12165,"Ġlooked":12166,"null":12167,"ĠBesides":12168,"Ġestablishments":12169,"Ġhappened":12170,"Ġdeeper":12171,"Mac":12172,"Ġfellow":12173,"Ġcatch":12174,"correlated":12175,"Ġofficers":12176,"}{*}{\\":12177,"Large":12178,"configura":12179,"Ġbackward":12180,"Cat":12181,"EuScript":12182,"Ġsynthes":12183,"Dem":12184,"Ġplatforms":12185,"Ġcontributes":12186,"ĠConf":12187,"Ġtrap":12188,"rmk":12189,"ithub":12190,"Ġcapabilities":12191,"+|\\":12192,"Ġregional":12193,"Ġdelta":12194,"certain":12195,"ĠMath":12196,"Ġsupersymmetry":12197,"dden":12198,"ĠSports":12199,"ameters":12200,"scrib":12201,"Ġcumulative":12202,"Ms":12203,"Ġdefects":12204,"ĠOrgan":12205,"Ġcareful":12206,"Ġinclination":12207,"elson":12208,"Ġemployees":12209,"Ġqualitatively":12210,"abin":12211,"rowth":12212,"establish":12213,"otent":12214,"Ġgrain":12215,"Ġdanger":12216,"Not":12217,"Ġbilinear":12218,"Ġtunneling":12219,"feld":12220,"1961":12221,"Ġexecuted":12222,"Ġtransient":12223,"gories":12224,"Ġrounds":12225,"dra":12226,"argeted":12227,"Ġopportunities":12228,"ĠBru":12229,"cA":12230,"Log":12231,"CG":12232,"ternatively":12233,"Ġcollaps":12234,"ĠSenate":12235,"Ġdoor":12236,"Ã¢":12237,"Ġgrey":12238,"ĠAndrew":12239,"resolved":12240,"ĠColor":12241,"Ġarrived":12242,"ĠCro":12243,"Ġdiffuse":12244,"Ġbracket":12245,"apped":12246,"Ġpursu":12247,"Ġharmon":12248,"-}":12249,"Ġreservoir":12250,"ĠSup":12251,"notation":12252,"Ġschedule":12253,"Ġemitted":12254,"Ġanalyzing":12255,"ĠFi":12256,"geometric":12257,"Ġpeace":12258,"rtimes":12259,"Ġtwe":12260,"labeled":12261,"halo":12262,"Del":12263,"ĠEngineering":12264,"sex":12265,"ĠĠĠĠĠĠĊ":12266,"elly":12267,"Ġcausing":12268,"HP":12269,"ĠNight":12270,"})-\\":12271,"Ġrewritten":12272,"Ġatten":12273,"Ġphilosoph":12274,"Ġantenna":12275,")&=":12276,"uj":12277,"review":12278,"puter":12279,"Ġknew":12280,"och":12281,"ounger":12282,"Chen":12283,"uition":12284,"\\},\\":12285,"orting":12286,"}\\]":12287,"Ġlabelled":12288,"_+(":12289,"station":12290,"=&":12291,"ĠSoviet":12292,"Ġsemic":12293,"ĠEmpire":12294,"Ġideals":12295,"Ġscattered":12296,"Ġinsights":12297,"entral":12298,"Ġturning":12299,"colsep":12300,"ĠLike":12301,"ordi":12302,"ĠKim":12303,"Ġfaint":12304,"owed":12305,"ĠExt":12306,"iance":12307,"Ġstatistically":12308,"oured":12309,"ideal":12310,"Ġaudience":12311,"CB":12312,"usual":12313,"enius":12314,"ĠCast":12315,"Ġassessment":12316,"ĠEW":12317,"{+":12318,"ĠGalaxy":12319,"Ġorthonormal":12320,"Ġvicinity":12321,"Ġfiltration":12322,"ĠStudies":12323,"ĠPlay":12324,"Ġsolves":12325,"Aust":12326,"Numerical":12327,"ĠTre":12328,")\\|":12329,"Ġspanning":12330,"Ġdecade":12331,"aotic":12332,"Ġnar":12333,"Ġalter":12334,"Ġurban":12335,"rowe":12336,"Ġ...,":12337,"Ġopacity":12338,"ĠCirc":12339,"ĠPi":12340,"iki":12341,"uty":12342,"Ġvast":12343,"nothing":12344,"Ġslice":12345,"Val":12346,"ME":12347,"midt":12348,"Ġunde":12349,"enger":12350,"ĠAB":12351,"Ġbijection":12352,"Ġeigenvectors":12353,"tp":12354,"Ġdepar":12355,"Ġowner":12356,"ograms":12357,"ĠNASA":12358,"ĠWed":12359,"ĠJon":12360,"(\\{":12361,"stituting":12362,"ĠBattle":12363,"ĠProper":12364,"Ġvictory":12365,"Ġaid":12366,"Ġflexible":12367,"Ġwealth":12368,"Ġsurvival":12369,"ande":12370,"Ġtrials":12371,"ĠProcess":12372,"Ġactors":12373,"meas":12374,"hsize":12375,"109":12376,"Ġmesons":12377,"gradient":12378,"Ġcreates":12379,"polynomial":12380,"succ":12381,"Ġgained":12382,"Ġthroughput":12383,"ĠFrancisco":12384,"Ġexperienced":12385,"Ġtiming":12386,"ĠHopf":12387,"Ġstopping":12388,"Ġjointly":12389,"\\,$\\":12390,"alling":12391,"Ġgreatest":12392,"ĠIndust":12393,"Der":12394,"pn":12395,".(":12396,"parent":12397,"kj":12398,"ĠShi":12399,"Ġourselves":12400,"ucky":12401,"Ġbusinesses":12402,"oS":12403,"Ġfibers":12404,"sided":12405,"Ġsnap":12406,"ĠMI":12407,"Du":12408,"^*$-":12409,"anner":12410,"Ġpsych":12411,"Ġperturbed":12412,"Ġincorporated":12413,"Ġblog":12414,"Ġprotected":12415,"ĠPrem":12416,"Hu":12417,"Ġacknowledges":12418,"quet":12419,"Ġshortest":12420,"Ġtriplet":12421,"epsf":12422,"clos":12423,"Rob":12424,"orb":12425,"/.":12426,"}}^{-":12427,"ĠAppro":12428,"vents":12429,"setcounter":12430,"Ġbigger":12431,"ĠGeorgia":12432,"dh":12433,"Ġresolve":12434,"esis":12435,"obj":12436,"Ġmedi":12437,"ĠStokes":12438,"Av":12439,"UE":12440,"Any":12441,"}|$":12442,"IE":12443,"Ġbeams":12444,"ĠBand":12445,"ĠRG":12446,"Ġspectroscopy":12447,"Ġpronoun":12448,"Ġunivers":12449,"ĠMah":12450,"Pb":12451,"ĠSyn":12452,"Ġlatency":12453,"ennis":12454,"ĠTaking":12455,"tures":12456,"ĠMaxwell":12457,"stab":12458,"combination":12459,"Cy":12460,"126":12461,"ĠIo":12462,"ĠVari":12463,"una":12464,"Ġconcludes":12465,"Ġtransmitted":12466,"Ġhydrodynamic":12467,"Ġminima":12468,"vac":12469,"ĠControl":12470,"idal":12471,"ĠAbout":12472,"offs":12473,"ĠPoincar":12474,"Ġwestern":12475,"Jan":12476,"\"]":12477,"ĠAS":12478,"ĠGr":12479,"Ġnotions":12480,"Ġvocals":12481,"Ġacademic":12482,"Ġexperts":12483,"ulf":12484,"Ġspac":12485,"Ġcondensate":12486,"uous":12487,"UN":12488,"''(":12489,"<-":12490,"Ġvirus":12491,"Ġanimals":12492,"ials":12493,"abc":12494,"ĠIsing":12495,"Ġremoval":12496,"Algorithm":12497,"Ġtokens":12498,"ĠHead":12499,"Ġshares":12500,"romatic":12501,"ĠBroad":12502,"Ġpulsar":12503,"^{'":12504,"Ġelections":12505,"Ġfeet":12506,"Ġris":12507,"Ġhab":12508,"Ġalongside":12509,"Ġjudge":12510,")$\\":12511,"Ġcaptures":12512,"ĠHermitian":12513,")&=&":12514,"Ġgains":12515,"Ġsister":12516,"Ġsubalgebra":12517,"wal":12518,"ĠHospital":12519,"potent":12520,"Ġgar":12521,"Ġnorms":12522,"ĠSir":12523,"ĠBang":12524,"ĠTheory":12525,"ĠPrime":12526,"Ġhash":12527,"dark":12528,"supset":12529,"particular":12530,"230":12531,"Ġoccurring":12532,"pseud":12533,"frared":12534,"900":12535,",-\\":12536,"lications":12537,"ilde":12538,"ĠHart":12539,"Ġfid":12540,"114":12541,"University":12542,"ĠBul":12543,"\\|_\\":12544,"Ġarmy":12545,"Best":12546,"middle":12547,"rc":12548,"uble":12549,"$[":12550,"avg":12551,"inten":12552,"Ġsudden":12553,"ecker":12554,"Ġfuel":12555,"anchor":12556,"ĠKorea":12557,"kt":12558,"enter":12559,"ĠAut":12560,"ĠJewish":12561,"ĠMathe":12562,",...":12563,"Ġcapability":12564,"production":12565,"ĠSS":12566,"RN":12567,"ĠJackson":12568,"overy":12569,"Rem":12570,"beam":12571,"ĠThom":12572,"yy":12573,"ections":12574,"ĠMajorana":12575,"inton":12576,"ionization":12577,"ĠUk":12578,"TI":12579,"ĠAsian":12580,"Ġconcentrated":12581,"Ġcounterparts":12582,"ĠOk":12583,"Ġcolored":12584,"Ġpy":12585,"Ġoutlined":12586,")\\)":12587,"Ġwireless":12588,"ĠMedical":12589,"Ġholding":12590,"izabeth":12591,"Ġcomputes":12592,"discrete":12593,"ĠSecurity":12594,"Ġmanuscript":12595,"ĠLaplace":12596,"does":12597,"121":12598,"}_*":12599,"facts":12600,"nc":12601,"equivariant":12602,"ĠSUSY":12603,"Ġwaiting":12604,"atom":12605,"Ġlandscape":12606,"isations":12607,"Ġsand":12608,"Gener":12609,"{(-":12610,"Åį":12611,"Ġprocessed":12612,"calar":12613,"Ġtube":12614,"Ġautoma":12615,"Ġcredit":12616,"sv":12617,"ĠFra":12618,"Ġscreening":12619,"title":12620,"Ġversa":12621,"Ġagreed":12622,"\">":12623,"Ġpm":12624,"Ġshallow":12625,"ensing":12626,"bg":12627,"het":12628,"Acknowledgments":12629,"Ġdwarfs":12630,"illo":12631,"Ġconcluded":12632,"190":12633,"Ġadds":12634,"Ġconfined":12635,"DEs":12636,"acknowledgments":12637,"Ġmembrane":12638,"Ġinher":12639,"Ġsolely":12640,"Ġ((":12641,"ĠBoston":12642,"olate":12643,"Ġsignatures":12644,"Ġweap":12645,"Ġdrawing":12646,"Care":12647,"ĠIllinois":12648,"ĠFW":12649,"ĠCu":12650,"element":12651,"robenius":12652,"Ġcube":12653,"sg":12654,"118":12655,"Observ":12656,"Ġarithmetic":12657,"ĠBase":12658,"illy":12659,"1959":12660,"Ġtub":12661,"Ġthinking":12662,"defi":12663,"ĠDNA":12664,"Ġmiles":12665,"Ġswim":12666,"Ġ~~":12667,"Ġexpectations":12668,"lectric":12669,"construction":12670,"istration":12671,"NF":12672,"Ġsmoothing":12673,"Ġforth":12674,"ĠSchwarz":12675,"ĠJersey":12676,"ĠJustice":12677,"techn":12678,"athan":12679,"Newton":12680,"ĠCard":12681,"Ġcrime":12682,"Ġbackgrounds":12683,"GT":12684,"icks":12685,"127":12686,"Ġ?":12687,"{}{":12688,"eve":12689,"Consequently":12690,"Ġdissipa":12691,"ĠGraph":12692,"ĠTheatre":12693,"ciation":12694,"ĠLandau":12695,"117":12696,"slo":12697,"ĠStud":12698,"ĠHom":12699,"Ġcarrying":12700,"bad":12701,"etts":12702,"National":12703,"ĠDal":12704,"tators":12705,"itten":12706,"sites":12707,"Ġpermutations":12708,"vas":12709,"hao":12710,"ĠSaturday":12711,"relations":12712,"cF":12713,"ault":12714,"Ġeliminate":12715,"ssue":12716,"Group":12717,"Sep":12718,"besgue":12719,"tax":12720,"\\&":12721,"\\,(":12722,"1958":12723,"Ġyouth":12724,"generated":12725,"signific":12726,"Äĩ":12727,"ĠCoast":12728,"Zhang":12729,"Denote":12730,"ourney":12731,"ĠKent":12732,"Ġstatistic":12733,"Ġrelevance":12734,"Ġastron":12735,"Ġbed":12736,"Pla":12737,"$.\\":12738,"ĠWis":12739,"Ġcountable":12740,"Ġdifficulties":12741,"Ġathle":12742,"Ġonset":12743,"Ġforeground":12744,"Ġinstitutions":12745,"urer":12746,"roweak":12747,"Ġboy":12748,"Ġbol":12749,"Dia":12750,"ĠCra":12751,"Observe":12752,"tuning":12753,"ĠChristmas":12754,"225":12755,"Ly":12756,"Ġtrim":12757,"hedral":12758,"Again":12759,"}=(\\":12760,"Ġsubsequence":12761,"dorff":12762,"tanh":12763,"Ġvolumes":12764,"Ġbiggest":12765,"apunov":12766,"Ġevolved":12767,"asy":12768,"braket":12769,"tet":12770,"Ġsusp":12771,"Ġ+(":12772,"ddots":12773,"handed":12774,"Ġmoreover":12775,"Ġadvoc":12776,"Ġkick":12777,"Ġgender":12778,"Sm":12779,"ĠMpc":12780,"minimal":12781,"Ġsheet":12782,"Ġwindows":12783,"Ġcarries":12784,"ĠFederal":12785,"Hamiltonian":12786,"vary":12787,"Ġinstruments":12788,"Ġentangled":12789,"Ġmaintained":12790,"Ġshadow":12791,"Ġenrich":12792,"Ġ(-\\":12793,"Ġluminosities":12794,"ifer":12795,"Ġvalence":12796,"Ġspanned":12797,"Ġexecutive":12798,"tbl":12799,"mcitedefault":12800,"ĠBrook":12801,"124":12802,"Ġwinner":12803,"Ġgradually":12804,"stretch":12805,"Ġgri":12806,"iants":12807,"Ġunbounded":12808,"lumin":12809,"omestic":12810,"ĠFlo":12811,"ĠHan":12812,"epsfig":12813,"EA":12814,"ĠClaim":12815,"ublished":12816,"ucial":12817,"dia":12818,"were":12819,"higher":12820,"Ġambient":12821,"Ġ$<$":12822,"ĠMike":12823,"ĠIP":12824,"ĠJr":12825,"ĠProvince":12826,"ĠDub":12827,"Ġinterfer":12828,"Ġscalars":12829,"achel":12830,"ĠAssembly":12831,")^*":12832,"Ġfl":12833,"sb":12834,"122":12835,"Ġcook":12836,"vacy":12837,"Ġknows":12838,"Cu":12839,"ego":12840,"ĠTraining":12841,"ĠKir":12842,"})_{\\":12843,"attention":12844,"}}$-":12845,"Au":12846,"pressive":12847,"ĠHous":12848,"ĠCe":12849,"dotsc":12850,"Ġdz":12851,"Ġmerely":12852,"Ġfeaturing":12853,"ateral":12854,"Ġcitizens":12855,"modes":12856,"Ġtruly":12857,"Ġ\\}$.":12858,"ĠFunction":12859,"rino":12860,"ĠDutch":12861,"ĠBoltzmann":12862,"dn":12863,"ĠDri":12864,"Ġextremal":12865,"Last":12866,"Ġstanding":12867,"Ġspinor":12868,"simula":12869,"pread":12870,"ĠTake":12871,"Ġabuse":12872,"ĠFuture":12873,"Ġcustomer":12874,"ĠAdminist":12875,"onia":12876,"card":12877,"Ġwinds":12878,"},\\,":12879,"github":12880,"imag":12881,"Ġmarks":12882,"Ġpublicly":12883,"ĠGP":12884,"Ġmarkets":12885,"ilst":12886,"Ġcoal":12887,"OF":12888,"1957":12889,"Ġformulate":12890,"Ġfidelity":12891,"))=\\":12892,"horizon":12893,"Ġsurely":12894,"alker":12895,"Ġresem":12896,"Ġnega":12897,"Ġresiduals":12898,"Alg":12899,"Ġballs":12900,"ĠDark":12901,"vironment":12902,"}{|\\":12903,"ĠTi":12904,"ĠFair":12905,"ĠRen":12906,"Ġsubstrate":12907,"ĠRou":12908,"ĠJud":12909,"Ġplants":12910,"ĠNLO":12911,"ĠTy":12912,"ĠKong":12913,"ĠYukawa":12914,"likelihood":12915,"Ġreaders":12916,"preserving":12917,"KT":12918,"Ġleadership":12919,"matter":12920,"Ġlogarithm":12921,"disk":12922,"Ġprint":12923,"Ġmarriage":12924,"Ġsparsity":12925,"ĠAtt":12926,"116":12927,"Ġancient":12928,"hot":12929,"Ġsubstitution":12930,"Ġrailway":12931,"450":12932,"Ġprogen":12933,"ĠCV":12934,"ĠFL":12935,"speed":12936,"Ġomitted":12937,"alaxies":12938,"structures":12939,"Ġsensing":12940,"\\,,\\":12941,"entific":12942,"Ham":12943,"ĠGet":12944,"Ġadditionally":12945,"Ti":12946,"'')":12947,"Part":12948,"Ġsending":12949,"Ġformulae":12950,"Ġdelivery":12951,"ĠProfessor":12952,"Ġmild":12953,"bounds":12954,"taken":12955,"phia":12956,"Xiv":12957,"Ġhistogram":12958,"nat":12959,"mac":12960,"Background":12961,"bh":12962,"Ġbeautiful":12963,"vx":12964,"004":12965,"fn":12966,"Ġsimultaneous":12967,"ĠDeta":12968,"redshift":12969,"Ġnormally":12970,"eturn":12971,"Ġreinfor":12972,"Ġsoph":12973,"making":12974,"neighbor":12975,"groups":12976,"1956":12977,"Ġgrav":12978,"Ġ&&\\":12979,"robust":12980,"discussion":12981,"pert":12982,"ĠPortug":12983,"would":12984,"graded":12985,"hether":12986,"ĠWi":12987,"Ġoccupation":12988,"Ġsmo":12989,"ĠLP":12990,"ĠStation":12991,"ĠCommand":12992,"Ġslot":12993,"Ġsummand":12994,"igm":12995,"ĠTran":12996,"antine":12997,"Ġliber":12998,"ĠNumber":12999,"rex":13000,")/(":13001,"Function":13002,"ĠSeveral":13003,"Ġhundreds":13004,"Ġcolle":13005,"Ġcontro":13006,"achus":13007,"->":13008,"Ġaugmentation":13009,"Cap":13010,"Ġoracle":13011,"}\\!\\":13012,"anna":13013,"+(\\":13014,"Ġtrivially":13015,"@{-":13016,"Ġongoing":13017,")&\\":13018,"ĠTal":13019,"relative":13020,"âĢĺ":13021,"kw":13022,"Image":13023,"rene":13024,"whose":13025,"\\:":13026,"$.\\\\":13027,"~,":13028,"cies":13029,"lips":13030,"Ġrealizations":13031,"$},":13032,"tm":13033,"dw":13034,"introdu":13035,"emission":13036,"Ġclassify":13037,"init":13038,"egu":13039,"dap":13040,"rison":13041,"ivered":13042,"Ġflare":13043,"Ġcere":13044,"ĠPauli":13045,"Ġlose":13046,"nesday":13047,"Despite":13048,"nings":13049,"Sem":13050,"ĠEgy":13051,"crit":13052,"====":13053,"isa":13054,"Ġcommute":13055,"conserv":13056,"ems":13057,"Ġmergers":13058,"minimum":13059,"ĠMD":13060,"})(\\":13061,"145":13062,"irty":13063,"$^{+":13064,"ĠMount":13065,"Ġinfluenced":13066,"ĠMuslim":13067,"ĠRepublican":13068,"Ġcircuits":13069,"$|":13070,"ypes":13071,"Ġhair":13072,"fining":13073,"Ġranked":13074,"dyn":13075,"$}.":13076,"Ġimplying":13077,"}'\\":13078,"GF":13079,"tens":13080,"Ġisotop":13081,"Ġparameterized":13082,"Kw":13083,")})$":13084,"close":13085,"}\\}_{":13086,"rez":13087,"ĠCov":13088,"Ġmembership":13089,"canonical":13090,"MAP":13091,"ausdorff":13092,"WS":13093,"hev":13094,"parametric":13095,"ĠCF":13096,"balance":13097,"Ġsplits":13098,"Ġplu":13099,"FIG":13100,"scattering":13101,"uber":13102,"Recently":13103,"SNR":13104,"Ġregret":13105,"ĠSA":13106,"ĠChampionships":13107,"lighted":13108,"Ġhex":13109,"Ġsubtle":13110,"ĠPhot":13111,"ĠDer":13112,"Mpc":13113,"Ġpal":13114,"Ġspheres":13115,"Her":13116,"ĠHad":13117,"Ġtruncation":13118,"Ġgrateful":13119,"along":13120,"ĠTheorems":13121,"cO":13122,"ĠPolish":13123,"constraint":13124,"ju":13125,"Ġnominal":13126,"Ġram":13127,"Ġ\\;\\":13128,"Ġundergo":13129,"ceived":13130,"ĠPage":13131,"ĠConserv":13132,"VS":13133,"uters":13134,"Cons":13135,"atever":13136,"ĠAuthor":13137,"achusetts":13138,"Ġcompla":13139,"Ġneighbo":13140,"QA":13141,"Ġpilot":13142,"keleton":13143,"experiments":13144,"ĠFac":13145,"lers":13146,"shaped":13147,"Experimental":13148,"Ġspecification":13149,"119":13150,"Ġentering":13151,"Ġrender":13152,"Ġskin":13153,"elike":13154,"dS":13155,"rus":13156,"Ġdominate":13157,"ssec":13158,"Ġpractices":13159,"ĠWhere":13160,"Ġfulfill":13161,"newpage":13162,"MW":13163,"ĠSNe":13164,"changes":13165,"itting":13166,"ĠAssuming":13167,"ĠAu":13168,"}-{\\":13169,"ĠInf":13170,"ĠColumbia":13171,"abilities":13172,"curves":13173,"TD":13174,"Ġ&+":13175,"Ġvalued":13176,"ĠHamilton":13177,"Ġrefined":13178,"lift":13179,"ĠUN":13180,"Ġexercise":13181,"Real":13182,"Ġtransaction":13183,"010":13184,"Ġgeometries":13185,"Ġcrisis":13186,"root":13187,"Ġacceptance":13188,"Ġignore":13189,"Ġincorrect":13190,"ĠHeisenberg":13191,"Ġhousing":13192,"Oper":13193,"ocy":13194,"Ġbrackets":13195,"bered":13196,"OB":13197,"015":13198,"rating":13199,"ĠLegend":13200,"temp":13201,"Ġ),":13202,"Ġyounger":13203,"Ġhouses":13204,"Ġcarrier":13205,"dynamical":13206,"thinspace":13207,"ĠNash":13208,"ĠMinkowski":13209,"limited":13210,"turn":13211,"Ġsuffer":13212,"Ġ^{-":13213,"Ġcro":13214,"RP":13215,"roman":13216,"Ġpolitics":13217,"ĠScotland":13218,"Applying":13219,"Add":13220,"cH":13221,"ĠFact":13222,"Test":13223,"evin":13224,"Ġremn":13225,"\":":13226,"Ġkinematics":13227,"025":13228,"reduced":13229,"Ġdream":13230,"Ġcommunications":13231,"134":13232,"Ġtrip":13233,"Ġequivariant":13234,"sibly":13235,"Ġsell":13236,"yd":13237,"branes":13238,"pow":13239,"dense":13240,"Ġanonym":13241,"Ġfron":13242,"thresh":13243,"Ġoperational":13244,"Ġmigration":13245,"averaged":13246,"Spect":13247,"132":13248,"Ġcrash":13249,"Tok":13250,"'=\\":13251,"cous":13252,"ictionary":13253,"bach":13254,"cccccccc":13255,"obile":13256,"plain":13257,"cali":13258,"Ġcontamination":13259,"ĠAlf":13260,"Ġabsorbed":13261,"pgf":13262,"Ġidentically":13263,"Ġassembly":13264,"aro":13265,"Ġconstructions":13266,"ĠWho":13267,"aga":13268,"ĠFellow":13269,"ãģ":13270,"ĠMcC":13271,"Ġignored":13272,"Bur":13273,"Ġbiological":13274,"Ġpool":13275,"ĠAuto":13276,"Ġhundred":13277,"thur":13278,"Ġpresid":13279,"Ġplaus":13280,"ĠSoft":13281,"Ġpassage":13282,"ĠPrince":13283,"Ġdestroyed":13284,"ulli":13285,"oro":13286,"tablen":13287,"rose":13288,"Ġdeformations":13289,"tope":13290,"}^{*}":13291,"Ġprogramme":13292,"]+":13293,"/{\\":13294,"âĢĿ,":13295,"ĠEdward":13296,"north":13297,"Ġfunds":13298,"Ġdefeated":13299,"Ġholog":13300,"Ġlever":13301,"Ġprompt":13302,"ĠMonday":13303,"})-(\\":13304,"ĠUnfortunately":13305,"ĠLive":13306,"1955":13307,"studi":13308,"ĠFeynman":13309,"Ġ&$\\":13310,"}[(":13311,"Ġdistant":13312,"Ġplanetary":13313,"analytic":13314,"ĠOnline":13315,"interpre":13316,"_+\\":13317,"ĠHong":13318,"Ġfunctors":13319,"ĠHear":13320,"smash":13321,"bias":13322,"ĠEastern":13323,"ĠCer":13324,"ĠArea":13325,"Ġscoring":13326,"Ġinterests":13327,"oda":13328,"Ġkee":13329,"]^-":13330,"INE":13331,"ĠInitial":13332,"ĠSystems":13333,"ĠPaper":13334,"ĠGauss":13335,"Ġdesirable":13336,"ĠBis":13337,"Ġtransf":13338,"varnothing":13339,"ĠISM":13340,"ĠFull":13341,"ĠLeft":13342,"ologist":13343,"Ġprop":13344,"idance":13345,"ĠSecretary":13346,"uesday":13347,"Ġemploying":13348,"ĠMaster":13349,"lds":13350,"ĠNone":13351,"ĠLew":13352,"}_{+":13353,"vive":13354,"gate":13355,")&=\\":13356,"struct":13357,"Ġdecomposed":13358,"Pic":13359,"zh":13360,"Ġbass":13361,"Ġbiased":13362,"ĠChapter":13363,")\\}$":13364,"many":13365,"gging":13366,"fermion":13367,"ĠLuc":13368,"Home":13369,"Ġimplied":13370,"Norm":13371,"diamond":13372,"Diff":13373,"apping":13374,"Ġ&=&\\":13375,"Ġshaded":13376,"ĠRicci":13377,"Ġsquee":13378,"Ġacquisition":13379,"lee":13380,"Ġpec":13381,"Ġletting":13382,"Ġcorpus":13383,"ĠGAN":13384,"ennes":13385,"Ġrecursive":13386,"Ġsketch":13387,"Ġarcs":13388,"Ġhits":13389,"ĠBl":13390,"Ġmim":13391,"rrrr":13392,"Ġmacroscopic":13393,"auty":13394,"Ġgenerative":13395,")]\\":13396,"5000":13397,"Ġdescriptions":13398,"Ġexpansions":13399,"Ġgeometrical":13400,"orship":13401,"Ġexterior":13402,"Ġenerge":13403,"ursday":13404,"Ġqueue":13405,"ĠNO":13406,"Where":13407,"pis":13408,"SV":13409,"'|":13410,"igned":13411,"esh":13412,"Ġdependency":13413,"jl":13414,"tractor":13415,"ĠDigital":13416,"mv":13417,"Ġcrosses":13418,"should":13419,"oma":13420,"Energy":13421,"Ġchaotic":13422,"Ġrequests":13423,"performance":13424,"alue":13425,"Ġvisited":13426,"Mid":13427,"1948":13428,"Ġlimitation":13429,"ENT":13430,"Ġachieving":13431,"ĠSem":13432,"ĠMN":13433,"otstrap":13434,"rput":13435,"ĠOxford":13436,"ĠEff":13437,"1944":13438,"Post":13439,"Ġprescription":13440,"Ġjoining":13441,"Ġfacilitate":13442,"ĠColl":13443,"ahn":13444,"ĠGRB":13445,"Ġinvestigations":13446,"ĠQuantum":13447,"}\\}":13448,"ĠĠĠĠĠĠĠĠĠĠĠĠĠĠĠĠĠĠĠĠĠĠĠĠĠĠĠ":13449,"auer":13450,"Ġslower":13451,"Ġnoticed":13452,"Ġbow":13453,"rotron":13454,"Mass":13455,"Ġtrapped":13456,"Ġconductance":13457,"Ġcommutes":13458,"spectra":13459,"pz":13460,"Î±":13461,"ĠThird":13462,"Ġpreference":13463,"Ġsuppress":13464,"Ġ\\'":13465,"Ġdecreased":13466,"ĠâĢ¢":13467,"inverse":13468,"ĠHistoric":13469,"eron":13470,"Ġbon":13471,"Ġsingles":13472,"monot":13473,".-":13474,"rv":13475,"Ġpredicting":13476,"cular":13477,"being":13478,"ĠCFT":13479,"Ġstores":13480,"Ġmuseum":13481,"select":13482,"Ġlaboratory":13483,"\\}^":13484,"Ġelsewhere":13485,"Ġlearns":13486,"ĉĉĉĉĉĉĉĉ":13487,"opes":13488,"Ġdetecting":13489,"fc":13490,"pressible":13491,"NGC":13492,"ĠWang":13493,"Ġdynamically":13494,"Ġelectrical":13495,"ĠNatural":13496,"ĠThough":13497,"ĠKey":13498,"Ġenem":13499,"numerical":13500,"Ġphysic":13501,"Ġgoverned":13502,"chrotron":13503,"Ġlosing":13504,"Ġsustain":13505,"[-\\":13506,"ĠFP":13507,"Ġoffering":13508,"Ġorange":13509,"Black":13510,"blems":13511,"ĠUAV":13512,"UK":13513,"mmode":13514,"Ġputting":13515,"Ġforget":13516,"Vari":13517,"Ġgather":13518,"Ġdownload":13519,"tat":13520,"means":13521,"ĠUs":13522,"Ġpackets":13523,"determin":13524,"Ġthrow":13525,"Ġminus":13526,"Ġtower":13527,"Ġbifurc":13528,"exponential":13529,"bea":13530,"Ġmorphology":13531,"thal":13532,"Ġreliability":13533,"Ġregistered":13534,"Ġemerging":13535,"Ġenters":13536,"Ġships":13537,"Ġelab":13538,"effect":13539,"ĠAnderson":13540,"Ġthresholds":13541,"hydro":13542,"Ġ}^{":13543,"Ġ<\\":13544,"}))$":13545,"Ġviolence":13546,"Ġtranslated":13547,"wing":13548,"Ġmobility":13549,"Ġcontributed":13550,"Ġaggregate":13551,"therlands":13552,"ĠHR":13553,"ensen":13554,"Ġaggregation":13555,"okes":13556,"lywood":13557,"ĠBeach":13558,"din":13559,"game":13560,"increasing":13561,"uning":13562,"pref":13563,"ifmmode":13564,"Ġadjusted":13565,"Ġbold":13566,"Ġ({":13567,"ĠVilla":13568,"idae":13569,"Ġencode":13570,"introduction":13571,"Ġcalling":13572,"cD":13573,"rics":13574,"Ġvotes":13575,"casts":13576,"ĠOnt":13577,"Ġimpurity":13578,"NG":13579,"Ġmanage":13580,"cP":13581,"ador":13582,"Ġhelicity":13583,"anta":13584,"-{":13585,"Ġdetections":13586,"ĠDL":13587,"Ġperi":13588,"score":13589,"lt":13590,"apore":13591,"ĠSI":13592,"ĠHas":13593,"Ka":13594,"Os":13595,"Ġcorners":13596,"kine":13597,"OH":13598,"ĠGL":13599,"Ġcontinuation":13600,"ĠBor":13601,"Ġsusceptibility":13602,"Ġdoll":13603,"HTML":13604,"multiput":13605,"Ġwait":13606,"SG":13607,"bR":13608,"Ġmental":13609,"1939":13610,"Ġparametrization":13611,"eh":13612,"ĠLebesgue":13613,"examples":13614,"ĠAmazon":13615,"Ġintelligence":13616,"owards":13617,"engers":13618,"Ġquasars":13619,"cales":13620,"Ġprotons":13621,"Ġrotations":13622,"Ġaugmented":13623,"ĠOrig":13624,"Ġslic":13625,"Sci":13626,"ĠPhi":13627,"enna":13628,"ws":13629,"@\\":13630,"eqno":13631,"Ġcodimension":13632,"Ġmacro":13633,"-|":13634,"PH":13635,"mach":13636,")]$":13637,"Ġadvice":13638,"ĠMassachusetts":13639,"Ġcomedy":13640,"Ġthorough":13641,"Ġconvert":13642,"Ġchecking":13643,"ĠElizabeth":13644,"Ġdelivered":13645,"Ġinjury":13646,"ĠHung":13647,"ĠNamely":13648,"Ġorbitals":13649,"Ġbeat":13650,"ĠCIFAR":13651,"Ġassist":13652,"ĠObserve":13653,"enses":13654,"}}},":13655,"ulting":13656,"pool":13657,"cit":13658,"Ġfinger":13659,"eref":13660,"Ġwel":13661,"Throughout":13662,"manifolds":13663,"Ġfat":13664,"Aug":13665,"around":13666,"grained":13667,"165":13668,"itro":13669,"Ġfrequent":13670,"155":13671,"[]{\\":13672,"Tag":13673,"ĠEU":13674,"Ġsuperposition":13675,"urious":13676,"Ġdefend":13677,"etnam":13678,"nock":13679,"/(\\":13680,"Ġpiecewise":13681,"Ġsemis":13682,"Ġavailability":13683,"lll":13684,"heat":13685,"igg":13686,"Problem":13687,"nesota":13688,"article":13689,"Ġrepair":13690,"ĠTelescope":13691,"Ġrandomized":13692,";\\;\\;":13693,"components":13694,"Ġcontributing":13695,"ĠForest":13696,"iously":13697,"south":13698,"consin":13699,"Ġrelaxed":13700,"posable":13701,"SFR":13702,"Ġoutline":13703,"ĠAmericans":13704,"ĠAirport":13705,"Leftrightarrow":13706,"difference":13707,"itched":13708,"Ġacceptable":13709,"Ġfavour":13710,"Ġhospit":13711,"major":13712,"192":13713,"Ġlegend":13714,"Ġabsent":13715,"Ġfreely":13716,"Ġmerging":13717,"[$":13718,"Planck":13719,"Why":13720,"ĠSobolev":13721,"ĠRod":13722,"pattern":13723,"utting":13724,"gm":13725,"Ġcache":13726,"[->]":13727,"Ser":13728,"Ġconject":13729,"Ġstrange":13730,")^{(":13731,"Ġscheduled":13732,"ĠMW":13733,"ĠKnow":13734,"Ġpermit":13735,"Ġsquad":13736,"137":13737,"Ġoptically":13738,"Ġelliptical":13739,"||\\":13740,"Ġaccelerated":13741,"Ġfunded":13742,"}$\\,":13743,"punct":13744,"ĠView":13745,"avier":13746,"Ġgrew":13747,"ĠPL":13748,"Intern":13749,"hibit":13750,"ĠAli":13751,"dc":13752,"iga":13753,"ĠRecently":13754,"Ġteaching":13755,"minim":13756,"jan":13757,"Ġmov":13758,"balanced":13759,"\\(":13760,"Ġsexual":13761,"{${\\":13762,"Ġcommittee":13763,"ĠKal":13764,"Ġaccordance":13765,"Ġexceeds":13766,"ĠFox":13767,"1954":13768,"Ġhopping":13769,"ocation":13770,"ĠRE":13771,"Ġpersonnel":13772,"}([":13773,"Ġconfusion":13774,"])$":13775,"false":13776,"Ð»":13777,"Ġadvent":13778,"ĠTok":13779,"eea":13780,"ulpt":13781,"Ġtip":13782,"ĠSteve":13783,"ĠAND":13784,"320":13785,"Dire":13786,"enable":13787,"kers":13788,"Ġstret":13789,"ospin":13790,"Ġarrangement":13791,"cedure":13792,"area":13793,"Ġeastern":13794,"Ġanimal":13795,"MHz":13796,"Ġshocks":13797,"micro":13798,"Ġfiltered":13799,"BERT":13800,"Ġbomb":13801,"|^{-":13802,"ĠHun":13803,"rell":13804,"Ġdimensionality":13805,"essions":13806,"Ġox":13807,"front":13808,"Ġretrieval":13809,"Ġexposed":13810,"1953":13811,"Ġcouncil":13812,"Ġhosts":13813,"Ġinstrumental":13814,"ĠCooper":13815,"KP":13816,"ĠCorporation":13817,"ĠLA":13818,"Ġcricket":13819,"Ġrenew":13820,"Ts":13821,"posi":13822,"Liu":13823,"ror":13824,"ĠJean":13825,"smaller":13826,"Ġruled":13827,"baseline":13828,"ĠNet":13829,"vr":13830,"matical":13831,"Ġheads":13832,"Ġpolymer":13833,"wich":13834,"Input":13835,"Ġexclusive":13836,"ynolds":13837,"Ġelectroweak":13838,"ĠAnth":13839,"\\/}":13840,"Act":13841,"restima":13842,"Ġhighlighted":13843,"ĠHI":13844,"Ġbeta":13845,"ĠFM":13846,"Mich":13847,"Ġvisualization":13848,"Ġ\\>":13849,"Ġdownstream":13850,"ĠAction":13851,"ĠGi":13852,"Ġdependencies":13853,"Ġsubtraction":13854,"Ġapparently":13855,"ĠMg":13856,"Ġawards":13857,"136":13858,"lav":13859,"odrom":13860,"cot":13861,"Ġfriction":13862,"ulum":13863,"Ġghost":13864,"Ġrelating":13865,"Ġraise":13866,"United":13867,"ĠPoli":13868,"Ġdifferently":13869,"Ġlas":13870,"Career":13871,"ĠWat":13872,"loads":13873,"Ġclubs":13874,"Ġgone":13875,"friend":13876,"usions":13877,"Ġsystematically":13878,"bend":13879,"ĠObservatory":13880,"'})":13881,"ione":13882,"Ġhappy":13883,"Ġforb":13884,"scription":13885,"Ġirrelevant":13886,"bundle":13887,"master":13888,"Ġattempted":13889,"nr":13890,"ĠMater":13891,"Ġ[(":13892,"Su":13893,"mechan":13894,"iao":13895,"|(":13896,"Ġ$>":13897,"RM":13898,"bigwedge":13899,"Ġmurder":13900,"imp":13901,"interacting":13902,"Ġtargeted":13903,"ĠApple":13904,"described":13905,"ĠĠĠĠĠĠĠĠĠĠĠĠĠĠĠĠĠĠĠĠĠĠĠĠĠ":13906,")*":13907,"Ġrecurrent":13908,"Ġbrown":13909,"pout":13910,"tingale":13911,"Ġwing":13912,"aled":13913,"atus":13914,"ccer":13915,"breaking":13916,"Ġcontemporary":13917,"ĠFried":13918,"Ġkill":13919,"Spin":13920,"ĠUse":13921,"Ġplain":13922,"Ġinset":13923,"ĠLS":13924,"Ġtheoretically":13925,"determined":13926,"Ġdic":13927,"Ġcurved":13928,"ĠUnlike":13929,"arab":13930,"Ġpeculi":13931,"ether":13932,"Ġdistinction":13933,"mport":13934,"Ġscheduling":13935,"Ġfiducial":13936,"Ġviscous":13937,"cub":13938,"Ġtuned":13939,"255":13940,"Ġphenomenological":13941,"ĠHay":13942,"lp":13943,"consistency":13944,"Ġsuccessive":13945,"fan":13946,"Three":13947,"Ġimplicitly":13948,"Ġprofessor":13949,"Ġdance":13950,"Ġcontexts":13951,"sight":13952,"Ġadversary":13953,"ku":13954,"Conn":13955,")+(\\":13956,"Ġhers":13957,"types":13958,"Ġtum":13959,"orov":13960,"Ġpunct":13961,"Ġcancellation":13962,"ĠKilling":13963,")}}{\\":13964,"ĠRog":13965,"Ġfell":13966,"aman":13967,"uris":13968,"agers":13969,"ĠTab":13970,"ĠWel":13971,"Ġalternating":13972,"YM":13973,"1952":13974,"ĠMill":13975,"ourse":13976,"Ġoutgoing":13977,"choice":13978,")=(\\":13979,"ppler":13980,"imit":13981,"rotatebox":13982,"Ġjumps":13983,"Ġstopped":13984,"ĠCambridge":13985,"Ġexplosion":13986,"Ġrecommended":13987,"Ġhonor":13988,"irs":13989,"}$}\\":13990,"ĠAvenue":13991,"VA":13992,"Ġrecommendation":13993,"Ġha":13994,"Ġhero":13995,"Ġcatalogue":13996,"Ġrespond":13997,"liminf":13998,"Ġinstantaneous":13999,"Ġendpoints":14000,"Ġfabric":14001,"ĠBooks":14002,"His":14003,"ĠStra":14004,"ĠSupreme":14005,"cL":14006,"ĠExec":14007,"Ġimplementations":14008,"Ġisometry":14009,"raine":14010,"Ġintegrand":14011,"Ġtheme":14012,"although":14013,"idity":14014,"Ġpromote":14015,"rupted":14016,"Ġregister":14017,"ĠDynam":14018,"Ġresidue":14019,"Ġastrophysical":14020,"ĠPet":14021,"Tab":14022,"Appro":14023,"Ġbattery":14024,"}&=":14025,"Ġencounter":14026,"iversities":14027,"Ã±":14028,"Ġoverlapping":14029,"ĠWhy":14030,"xial":14031,"Da":14032,"ĠCEO":14033,"umar":14034,"lef":14035,"Plot":14036,"weg":14037,"yz":14038,"ricts":14039,"')$.":14040,"truth":14041,"boxtimes":14042,"elo":14043,"proton":14044,"ederation":14045,"ĠSco":14046,"Ġshortly":14047,"ondo":14048,"Ġintuition":14049,"Ġreasonably":14050,"Ġmort":14051,"World":14052,"Ġspeaker":14053,"TeX":14054,"Ġcouples":14055,"ĠIslands":14056,"Ġspontaneous":14057,"Ġseats":14058,"Ġauthority":14059,"ĠVI":14060,"ĠAnton":14061,"Films":14062,"anes":14063,"ĠBerlin":14064,"Ġdevelopments":14065,"Ġwins":14066,"'}(\\":14067,"Ġhypersurface":14068,"transfer":14069,"vective":14070,"Ġmaintaining":14071,"Ġfault":14072,"Ġaverages":14073,"Ġ\\|_":14074,"Ġfaithful":14075,"addplot":14076,"{,":14077,"ĠYes":14078,"brate":14079,"contra":14080,"Ġmining":14081,"3000":14082,"Ġfly":14083,"oe":14084,"property":14085,"expl":14086,"multiple":14087,"Ġinspection":14088,"})}$":14089,"[$\\":14090,"ĠFisher":14091,"Ġcrossover":14092,"Ġtalking":14093,"ĠWithin":14094,"Ġmountain":14095,"Ġencourage":14096,"ĠBBC":14097,"Ġearned":14098,"Ġfro":14099,"ĠCN":14100,"Ġbulge":14101,"Ġpartly":14102,"Ġaddresses":14103,"Specifically":14104,"ĠIT":14105,"Ġexclude":14106,"ĠCI":14107,"ĠPSF":14108,"Ġcompr":14109,"derivative":14110,"ĠThose":14111,"{\\'":14112,"OPT":14113,"ĠToronto":14114,"Ġvortices":14115,"HK":14116,"urities":14117,"ĠVen":14118,"{}^":14119,"Ġvoting":14120,"ordial":14121,"ĠGovernor":14122,"ppings":14123,"Ġdetec":14124,"ĠSections":14125,"fine":14126,"ĠSon":14127,"haves":14128,"Ġscholars":14129,"Ġmig":14130,"ĠModels":14131,"dR":14132,"Ġcompound":14133,"intenance":14134,"hedron":14135,"Ġmys":14136,"Ġsophistic":14137,"pending":14138,"entry":14139,"rh":14140,"Ġagric":14141,"Ġcalculus":14142,"zech":14143,"Ġneb":14144,"ĠDFT":14145,"ĠDavis":14146,"nice":14147,"irtual":14148,"parity":14149,",~\\":14150,"Ġretired":14151,"Ġmaybe":14152,"Cam":14153,"1941":14154,"ĠPoland":14155,"Ġestate":14156,"ĠWednesday":14157,"Ġaccompanied":14158,"ĠMHz":14159,"tivated":14160,"ello":14161,"edges":14162,"Ġapproved":14163,"Ġstiff":14164,"margin":14165,"Ġfold":14166,"estyle":14167,"),$$":14168,"ĠTO":14169,"Ġdraft":14170,"oriented":14171,"Ġdeformed":14172,"})\\,":14173,"ĠHes":14174,"ĠKol":14175,"Ġrejected":14176,"ĠVictoria":14177,"Ġsac":14178,"Ġclassifiers":14179,"Ġrepresenta":14180,"Ġtoric":14181,"gment":14182,"abling":14183,"atriate":14184,"Ġaband":14185,"Ġwalks":14186,"utional":14187,"Ġinductive":14188,"ĠOntario":14189,"vanced":14190,"1942":14191,"Ġkeeps":14192,"Ġspons":14193,"Oh":14194,"methods":14195,"]&":14196,"ĠApplying":14197,"ART":14198,"uns":14199,"Ġfruit":14200,"bk":14201,"Ġhouseholds":14202,"Ġcircumstances":14203,"reduction":14204,"mg":14205,"Ġauthorities":14206,",-.":14207,"Tilde":14208,"Sen":14209,"Ġkid":14210,"odinger":14211,"133":14212,"approach":14213,"Ġcompeting":14214,"129":14215,"ĠCompton":14216,"Â°":14217,"ĠThrough":14218,"Ġuncon":14219,"Ġirregular":14220,"Syn":14221,"ĠMarg":14222,"Ġhelping":14223,"Ġsatellites":14224,"Mg":14225,"eb":14226,"VC":14227,"ĠPO":14228,"Normal":14229,"Ġhomes":14230,"Ġrelates":14231,"ĠFire":14232,"ypical":14233,"parbox":14234,"person":14235,"necessary":14236,"-)":14237,"tre":14238,"ĠAT":14239,"Ġ\\[\\":14240,"Ġresum":14241,"ĠStein":14242,"|+":14243,"Ġsty":14244,"ĠCreek":14245,"ciative":14246,"YER":14247,"filter":14248,"xima":14249,"Ġinfection":14250,"Ġkids":14251,"ĠHur":14252,"ĠSyd":14253,"1024":14254,"Ġchecks":14255,"Map":14256,"Ġdrag":14257,"Ġeccentricity":14258,"ĠRights":14259,"Ġfibration":14260,"Ġpriority":14261,"Ġsale":14262,"Ġvaluation":14263,"Bal":14264,"Ġdeple":14265,"Ġinfinitesimal":14266,"oz":14267,"+\\!":14268,"Ġposted":14269,"Ġunified":14270,"Ġclick":14271,"Ġincomplete":14272,"ĠLarge":14273,"summary":14274,"Ġbuffer":14275,"omet":14276,"Ġobsc":14277,"Ġmeets":14278,"Ġminute":14279,"abul":14280,"1951":14281,"oked":14282,"South":14283,"}\\}$.":14284,"Ġdocum":14285,"decomposition":14286,"ãĥ":14287,"Ġsupergravity":14288,"converted":14289,"Ġvalley":14290,"=~":14291,"Tri":14292,"ladel":14293,"tabilities":14294,"'}}":14295,"Ġchamber":14296,"Ġindexed":14297,"tif":14298,"Ġdebate":14299,"ĠNetherlands":14300,"007":14301,"Ġtries":14302,"magnit":14303,"east":14304,"oul":14305,"ĠLas":14306,"Ġstreaming":14307,"Ġpronounced":14308,"Ġpoliticians":14309,"profile":14310,")})\\":14311,"inema":14312,"Ġinstructions":14313,"1946":14314,"Ġsurgery":14315,"listing":14316,"away":14317,"behavi":14318,"Ġpra":14319,"tabcolsep":14320,"ĠRegister":14321,"Ġconjunction":14322,"1947":14323,"idelines":14324,"Ġmultivariate":14325,"generic":14326,"Ġretail":14327,"Ġleverage":14328,"ĠMyr":14329,"Ġestablishing":14330,"}\\|_":14331,"Ġexit":14332,"Ġdecor":14333,"dk":14334,"Ġtrading":14335,"amplitude":14336,"Ġfragmentation":14337,"iders":14338,"Ġrigorous":14339,"Lee":14340,"nan":14341,"uten":14342,"ĠFinal":14343,"update":14344,"ĠLaure":14345,"Ġrecognize":14346,"days":14347,"Ġenumer":14348,"Ġcontradicts":14349,"ĠRV":14350,"ĠTai":14351,"ĠHu":14352,"Ġunsupervised":14353,"Ġyr":14354,"PDF":14355,"dataset":14356,"'},":14357,"plates":14358,"Ġsilver":14359,"Ġmanifest":14360,"psline":14361,"ĠBad":14362,"acency":14363,"Ġdestination":14364,"Ġinitialization":14365,"ĠFer":14366,"Ġdiffeomorphism":14367,"ĠNE":14368,"Ġlayout":14369,"ocal":14370,"Ġinstalled":14371,"Land":14372,"ĠDifferent":14373,"important":14374,"Mal":14375,"LSTM":14376,"nb":14377,"Ġcompl":14378,"Ġperc":14379,"Ġaccordingly":14380,"dominated":14381,"+{":14382,"ĠToday":14383,"galactic":14384,"&+\\":14385,"stance":14386,"rema":14387,"ĠWild":14388,"motion":14389,"Ġsearching":14390,")}-\\":14391,"QQ":14392,"_{|\\":14393,"Ġawa":14394,"ede":14395,"}\\,{\\":14396,"Ġcompares":14397,"Ġlemmas":14398,"Ġles":14399,"iley":14400,"ods":14401,"regon":14402,"Ġmanual":14403,"Ġagency":14404,"Ã£":14405,"Ġmutually":14406,"ĠLes":14407,"006":14408,"Ġfoundation":14409,"ladelphia":14410,"Ġhosted":14411,"ĠUr":14412,"arraystretch":14413,"224":14414,")={\\":14415,"Ġcongru":14416,"raq":14417,"Ġrefe":14418,"ĠBelg":14419,"Ġprimes":14420,"}{!}{":14421,"Ġadvis":14422,
[...]
