#version: 0.2
Ġ t
Ġ Ġ
i n
Ġ a
h e
o n
e r
r e
Ġt he
a t
e n
Ġ s
o r
a n
i t
i s
e s
Ġ o
Ġ w
a l
Ġ c
ĠĠ ĠĠ
e d
a r
Ġ f
n d
in g
Ġ p
Ġ b
Ġo f
i on
Ġ in
i c
o u
l e
a s
Ġa nd
Ġ m
Ġt o
Ġ d
r o
en t
Ġ h
c t
e l
i l
e t
Ġt h
s t
o m
Ġ S
Ġ re
a m
Ġ n
Ġ T
â Ģ
Ġ l
Ġ C
Ġ A
o l
i g
Ġ e
i d
o t
at ion
i m
a c
u t
Ġ (
u r
i v
Ġ is
Ġ g
a d
Ġ I
Ġ M
ĠĠ Ġ
Ġf or
u s
l y
o w
a y
Ġ on
ĠĠĠĠ ĠĠĠĠ
Ġ \
Ġb e
c e
Ġ P
er s
Ġ B
Ġ $
c h
u l
i r
Ġs t
it h
e m
Ġth at
u n
t er
a g
2 0
s e
v er
i f
Ġ H
o d
Ġa s
Ġw ith
Ġ R
Ġ D
u m
a b
he r
Ġ F
v e
Ġc on
is t
t h
r a
Ġa l
Ġ W
Ġ L
Ġa n
q u
es t
an d
ĠT he
at e
Ġ N
Ġw h
Ġ it
Ġp ro
o p
Ġ v
âĢ Ļ
h t
Ġ G
Ġ y
Ġw as
r i
re s
Ġ E
p e
o c
il l
Ġa t
e w
Ġb y
it y
o s
en d
es s
ro m
Ġ he
Ġd e
Ġc om
1 9
p p
o re
ou r
ct ion
{ \
Ġe x
Ġa re
or t
Ġ r
ar t
a in
Ġ J
l d
Ġs e
i es
a k
Ġ or
p t
u b
Ġf rom
an t
Ġ O
ĠĠĠĠ ĠĠĠ
ig ht
Ġ =
m ent
iv e
al l
u re
Ġ âĢ
u d
t e
at h
Ġw e
in e
i al
n t
Ġh a
g e
Ġth is
as s
o g
u st
ar d
T he
Ġ U
Ġs h
am e
p l
Ġc h
č Ċ
b er
Ġn ot
p er
ac k
' s
el l
ĉ ĉ
20 1
Ġ "
_ {
u e
p h
r ou
ag e
Ġ u
e g
ic h
Ġ le
Ġ K
Ġ k
as t
an s
i z
Ġ <
Ġ us
Ġc l
e ct
i a
at ed
o st
f f
ar y
0 0
. .
- -
Ġp l
c l
Ġha ve
Ġ &
) ;
ou t
ic al
a re
a p
ul t
= "
it e
Ġs u
o k
Ġ$ \
Ġy ou
ĠI n
or m
Ġ Ċ
on g
e ar
ou ld
i p
i re
ĠS t
or k
Ġ {
ig n
Ġa b
Ġt r
id e
m ath
x t
Ġh is
Ġcom p
or d
Ġh as
ab le
om e
Ġc an
it ion
a v
/ /
Ġ V
ac e
Ġw he
Ġ j
ic e
Ġal l
en ce
e p
in d
f er
t her
< /
o v
c on
Ġre s
i an
c c
in t
im e
ou s
ation s
Ġwh ich
en s
a ct
Ġ -
âĢ Ŀ
i k
an g
i e
er e
Ġ un
ĠĠĠĠĠĠĠĠ ĠĠĠ
i b
t o
as e
Ġcon t
Ġa d
) ,
g h
ĠC h
r u
s o
f t
r y
d u
p ort
Ġ im
Ġb ut
} \
Ġ *
re f
ion s
ĠT h
an ce
on e
) .
Ġw ill
} $
m a
ur n
i le
il d
Ġthe ir
Ġg o
ac h
^ {
Ġa r
f orm
or y
Ġon e
Ġo ut
Ġn e
Ġm e
en c
al ly
Ġd o
ent s
20 0
is h
Ġw ere
er v
l ic
Ġ if
ou nt
Ġwh o
Ġthe y
Ġ }
m er
res s
ou nd
o ok
I n
ow n
c om
r ic
ar k
Ġal so
Ġ Y
l l
1 0
o b
Ġu p
n e
ĠâĢ ľ
Ġp er
re e
Ġp art
or s
Ġm ore
el y
Ġd is
Ġn ew
Ġ en
Ġs c
ir st
ol l
Ġe v
Ġt e
ak e
a il
ro w
ter n
Ġm an
Ġs p
ĠĠĠĠĠĠĠĠ ĠĠĠĠĠĠĠĠ
o se
Ġa g
w o
v el
ol d
r it
Ġo ther
Ġs o
" >
at es
Ġh ad
} }
Ġit s
ver y
Ġ her
e c
e f
( \
in k
Ġ qu
t a
he d
ĠI t
r ing
1 8
Ġab out
p s
Ġp re
cl ud
j ect
ay s
Ġa pp
g et
Ġw ork
Ġ |
Ġbe en
s p
Ġy ear
e x
ĠH e
ĠU n
eg in
nd er
Ġs a
w e
ri b
oc k
am p
ĠĠĠĠ Ġ
at a
s s
Ġo ver
te xt
ik e
* *
b egin
ĠâĢ ĵ
Ġcl ass
at er
f ter
od e
l i
Ġf irst
n g
ing s
Ġt ime
f r
er m
ation al
t he
on d
p ro
c al
v i
) $
t urn
Ġw ould
Ġp e
an c
Ġ '
t y
pe ct
en er
us e
op le
ic s
_ {\
c k
ic k
is s
Ġthe re
on s
Ġ ro
a w
o ol
Ġwhe n
Ġan y
ub lic
Ġt wo
u al
e qu
y st
le ct
Ġth an
r ight
Ġd es
S t
Ġre c
o int
ig h
Ġo ur
er t
u g
Ġin to
o y
e y
Ġs ome
et h
Ġk n
on t
pe c
o ver
ad e
l es
re at
Ġof f
Ġin ter
} {
el f
1 2
i el
Ġas s
Ġcom m
Ġin d
Ġpl ay
Ġthe m
Ġo b
Ġa cc
r am
Ġb et
pt ion
ab el
r m
Ġp r
Ġ [
} ,
Ġbe c
Ġg et
Ġm od
Ġs he
iv ers
Ġon ly
ol og
Ġde f
Ġs et
ar i
ul l
Ġcon s
fr ac
un ction
ul ar
-- --
s h
u p
rou nd
em ber
Ġu nder
ic t
if ic
Ġin clud
( )
Ġn o
as ed
t r
in al
l and
ĠW e
yst em
o od
ĠC om
Ġpe ople
n ing
Ġy our
re d
Ġ +
iel d
Ġa ct
ot h
Ġre g
it ed
or ld
Ġwhe re
is e
Ġs ub
w ard
y s
id ent
= =
e q
ĠN ew
o ve
c ite
Ġf e
Ġb l
at ive
it ies
Ġl ike
f ig
p r
Ġsa id
i x
ut ion
y pe
ĠS e
s c
i ed
Ġv al
ĠTh is
h at
em ent
oll ow
1 1
Ġre l
i o
Ġd if
iz e
Ġa fter
Ġre turn
19 9
at ing
Ġat t
Ġa m
an k
Ġwh at
math b
Ġf l
rou gh
l ine
âĢ ĵ
Ġin v
im es
Ġsu ch
ou gh
ar ch
al s
1 5
ĠP ro
Ġad d
a x
Ġtr ans
Ġj ust
Ġpro v
c re
Ġin t
w n
mer ic
Ġm y
le t
l abel
Ġthe n
ur ing
or n
a use
Ġm ay
Ġp ol
ĠA r
Ġp h
Ġp os
um ber
an ge
ow er
Ġh im
1 6
Ġm ost
res ent
Ġh ow
it t
il ity
y m
u res
ra ph
ĠĠĠĠĠĠĠĠ ĠĠĠĠĠĠĠ
re n
i ent
Ġb u
Ġc ol
c ed
Ġst ud
c ess
ment s
Ġsh ow
R e
p os
p ar
il y
Ġfor m
u es
Ġb ack
we en
ĠD e
it s
, \
Ġf ollow
Ġth rough
Ġthe se
pp ort
$ ,
ĠR e
ĠA l
m an
$ .
math cal
in ce
.. .
Ġre m
ar s
am b
d er
our ce
u nd
c ent
enc es
ib le
1 7
le ft
e k
t t
in s
ar g
Ġc o
Ġ end
Ġe m
Ġpro du
p ut
as h
Ġ /
Ġl oc
if e
o ot
Ġcon st
am es
et a
" ,
rou p
ch ool
he n
Ġyear s
he s
T h
Ġbet ween
Ġt ra
ĠS h
1 3
o f
Ġw ell
r ay
Ġf unction
Ġf il
Ġres ult
a ir
ist s
Ġp ublic
} .
an y
a h
in ed
o x
con d
r al
Ġdif fer
Ġ //
equ ation
Ġ ent
} )
1 4
as on
Ġd ist
ra ct
Ġ .
Ġag ain
Ġs erv
is m
ire ct
b le
Ġc ould
Ġs pec
Ġa c
s et
Ġg ener
t s
an n
Ġin st
u ch
Ġs im
o h
ou n
in es
Ġus ed
ĠA meric
at ch
vel op
ru ct
t on
Ġ| |
Ġus e
g an
id er
at ure
Ġe ff
ot her
} (
ĠA n
Ġd ata
ers on
vi ew
p le
3 0
Ġs m
E R
E x
ĠL e
Ġc all
Ġne ed
oc i
} ^
ut h
ivers ity
Ġs ystem
a pp
al e
ic es
- >
Ġd et
: :
el s
us s
is ion
at or
ction s
en g
f ul
h ip
ĉĉ ĉĉ
Ġp oint
~ \
n er
} _
Ġn ame
' t
Ġ @
Ġbe ing
m s
Ġn ow
Ġs ur
Ġ< /
ph a
is hed
Ġe very
Ġkn ow
v ent
er r
ĠF or
d a
2 5
: //
d ay
Ġ Z
iv es
Ġman y
. âĢĿ
w ay
l ed
Ġc ur
W e
Ġd id
ut e
Ġs ign
ak ing
Ġe ach
ag es
Ġex t
p en
Ġre qu
Ġs er
ĠC l
âĢ ľ
iz ed
at t
y n
a ve
re nt
v al
19 8
Ġ Q
Ġg r
Ġh igh
Ġr ight
f ore
Ġse e
Ġ ed
Ġev en
c es
Ġar t
form ation
Ġch ar
er n
ĠS c
al pha
or th
e ver
ĠT r
i er
Ġbec ause
a z
u c
.. /
Ġc or
ĠI nd
Ġl ong
ou se
t ing
Ġp ar
at ic
at her
Ġsh ould
p art
Ġst art
Ġl ine
m in
Ġm in
ĠA nd
2 1
olog y
Ġm ade
w w
i ence
ot s
Ġs ame
Ġde c
Ġf ound
00 0
er y
Ġ very
Ġn umber
Ġg u
Ġle ad
Ġex p
. ,
v en
t en
Ġ est
Ġc ount
re ad
I N
ant s
) \
Ġm ake
Ġo wn
Ġ i
Ġb el
et s
Ġf am
Ġb oth
Ġc ent
Ġ :
Ġbe fore
Ġw ay
iv en
Ġwh ile
O N
ou th
Ġe ar
ical ly
al k
Ġth ree
Ġm on
ot e
Ġe qu
a u
g y
Ġ ra
m l
eth od
el ta
s ub
em b
Ġdo es
t ain
al th
r on
Ġdiffer ent
a j
Ġex per
f l
ĠC on
ĠA s
s on
Ġl ook
Ġc ase
P ro
Ġde velop
5 0
Ġapp ro
h o
Ġm ed
Ġw orld
g ram
Ġdis c
o ad
20 19
o id
$ \
ĠUn iversity
2 2
Ġre ad
ess age
ro ss
ch n
amb da
Ġre p
Ġhe l
e e
Ġte am
Ġc re
Ġo per
Ġ #
Ġst r
ĠI s
iv er
ire d
ĠA d
Ġd uring
Ġth ose
iv ing
Ġse cond
Ġsu pport
I t
u ally
Ġf in
ur al
Ġ el
Ġs ol
ce pt
' ,
Ġpart ic
Ġv ari
ur y
ĠB l
ĠF r
( "
Ġe le
Ġm ov
C h
c ol
( );
i ew
Ġa p
Ġm uch
_ \
C on
ion al
Ġst ate
in ess
b y
am ma
Ġl ast
. "
Ġd own
iz ation
19 7
e b
ĠC ol
Ġth ink
Ġf act
2 4
i ous
Ġd r
v ed
mathb b
are d
us ic
al ity
Ġper form
Ġgo od
S T
s um
v ers
b all
ĠS p
w ork
Ġf ind
m u
n ess
in a
he re
R E
as k
Ġus ing
it al
A T
= \
Ġw rit
âĢ ¦
Ġc ar
} _{
ab l
amp le
sp an
ĠP h
an e
Ġh and
Ġ\ \
enc y
as es
Ġval ue
---- ----
Ġs ing
} ^{
Ġre le
Ġhe re
ĠS he
** **
Ġr un
Ġd on
Ġcomm un
id th
oh n
ĠE x
eg a
Ġd irect
Ġcont in
g er
et er
ĠH ow
b ar
g ht
fer ences
ig ma
od y
ar m
ĠCom m
le y
f or
Ġw ant
> </
d iv
ak es
ĠP l
p on
ĠM ar
Ġhel p
Ġ X
o ber
iv ed
ro l
Ġs l
2 3
en se
ot t
g r
ĠAmeric an
Ġex pl
ĠâĢ Ķ
ĠY ou
us iness
iss ion
y p
Ġst ill
Ġt erm
b s
Ġagain st
ri pt
- \
ph i
Ġt est
Ġin formation
ial ly
Ġre port
Ġl ife
Ġp erson
om en
Ġm ain
ist ory
Ġn on
, âĢĿ
) )
201 8
Ġl ist
ir c
Ġor der
Ġt ype
Th is
o le
Ġinclud ing
ĠO n
A R
um ent
Ġeff ect
et y
al ign
en n
Ġmod el
Ġb ook
Ġcons ider
Ġa round
m e
Ġp op
ition s
Ġpro cess
> <
Ġch ild
Ġdes c
ĠM ay
Ġt ake
is ter
Ġ* /
u ro
ht t
Ġs ince
cc ess
ĠE ng
Ġc a
^ {\
Ġg l
ĠâĢ ĺ
Ġc our
if ied
_ _
p i
ĠUn ited
e le
19 6
tern al
Ġsm all
Ġg ame
Ġo pen
b r
ĠB ut
C om
Ġs om
Ġc he
iv ely
i qu
s elf
n ment
Ã ©
ĠR es
Ġ x
Ġap pe
Ġf ield
in ing
Ġfollow ing
d ef
Ġm at
le ar
i or
r ist
ric t
Ġm ark
Ġs chool
Ġa v
ul ation
v ing
m ed
un e
Ġgo ver
Ġbu ild
ĠI f
4 0
b l
Ġp res
or g
c o
Ġre al
201 7
Ġp ass
re am
Ġv is
Ġs ay
Ġc are
ĠP r
b e
b f
Ġim port
l ambda
ĉĉ ĉ
Ġrec ord
Ġs elf
ĠW h
ĠJ an
v es
ir d
ub l
ep s
201 6
Ġ {\
O R
y ing
l ess
Ġg iven
mathb f
re en
Ġdes ign
Ġf our
ht ml
ĠO r
Ġg roup
ain s
Ġpos s
Ġd ay
Ġhe ad
Ġprov id
ĠĠĠĠĠĠĠĠ ĠĠĠĠĠĠĠĠĠĠĠ
Ġp resent
uth or
ab ility
Ġb est
Ġto p
Ġpro gram
../ ../
ĠA ll
Ġl ink
20 20
ĠU S
Ġp ost
ar n
ar ge
os s
le x
se ction
il on
ĠThe y
Ġre ce
Ġin s
t il
Ġchar act
Ġst at
Ġp ower
Ġin cre
Ġb r
l ation
y le
Ġst and
Ġp at
is ed
2 6
Re ferences
== ==
Ġl aw
Ġwe ek
b ack
2 7
vi ous
n ot
Ġcur rent
ĠĠĠĠĠĠĠĠ Ġ
201 5
k e
ĠJ ohn
it le
2 8
g g
p or
th is
ac y
Ġall ow
ĠC ent
er ing
1 00
Ġpro f
ill ion
tern ational
Ġm ethod
Ġre st
c he
et work
( '
a i
Ġg reat
Ġor ig
og raph
) :
r is
Ġpl ace
A N
201 4
Ġm et
A L
end s
d d
ĠT e
Ġde p
o ard
Ġfam ily
E N
ĠA ss
are nt
it em
A S
en e
Ġis s
Ġle vel
ro p
ac es
Ġh ref
ver t
fer ence
at ely
âĢ Ķ
Ġf r
Ġte chn
ct or
i um
t d
Ġt ri
Ġan al
u ck
Ġloc al
ild e
ĠC ar
Ġpro per
tr ans
iv ate
Ġ z
Ġan n
ĠN ov
Ġinter est
u ly
v ar
um p
Ġm ust
A s
d e
ur ch
Ġfil m
Ġor gan
c ur
ang le
es c
um an
a ult
p re
ĠC an
Ġb ro
Ġpro ble
ff ic
ent ial
th s
c d
Ġe lect
iv al
Ġb re
Ġcon d
rib ut
2 9
Ġd em
Ġan other
ĠT o
or ies
T ype
Ġ >
al se
at s
ert ain
H e
Ġle ft
N ame
Ġd el
Ġre f
A r
ĠB e
Ġkn own
F or
ĠM an
in c
ra w
Ġne xt
s igma
Ġ --
^{ -
b eta
m od
Ġser ies
ad d
A n
par am
n ame
w ays
ĠSt ates
Ġw in
op e
a im
um n
Ġf inal
Ġse ver
Ġse ason
\ \
ou ght
Ġh ome
Ġad v
Ġle g
Ġ( \
s ource
Ġl ater
u ary
Ġk e
Ġwith out
ĠW orld
r ation
pl oy
emb ers
i am
s erv
oc ial
ent ly
Ġb ased
} {\
Ġgo ing
201 3
pl ay
Ġcon f
Ġm ult
Ġcall ed
ĠR ep
O n
aj or
Ġf ew
Ġbe h
in ation
Ġre ally
Ġpol it
im port
ĠN ational
ĠO ct
Ġex pect
us h
ce ption
Ġs pe
Ġpro ject
C l
R es
Ġwith in
ĠC ount
Ġo ld
y l
Ġm usic
Ġinv est
le ction
I d
Ġin c
math rm
ĠA t
u le
B y
Ġs ays
Ġb usiness
ur ther
ĠA ust
id d
201 2
our n
Ġoff ic
p m
* }
um b
m essage
i ans
Ġo pt
ar get
Ġto o
ĠP ol
Ġim p
Ġn ear
ĠY ork
ward s
Ġt urn
E S
itt le
st r
+ \
as ter
iv id
ic le
ur s
it ive
il ar
ĠG u
Ġtr ue
ir on
Ġresult s
Ġrep resent
ĠB r
l ing
Ġ `
ĠS u
Ġ ident
I D
ĠA ug
ĠG r
ag n
g amma
cl ass
p ond
Ġs k
Ġv ers
st and
Ġev ent
old s
St ring
T o
err or
end ed
ne y
Ġl im
Ġc ap
ord s
ord ing
ĠN o
re g
T r
Ġo cc
s er
Ġl arge
Ġha pp
Ġc r
ep end
ent ion
um er
re m
ri es
I T
ar ray
Ġal ong
e xt
ĠE uro
con om
a f
ate g
] {
com m
ro ll
ail able
201 0
fig ure
ĠThe re
f ace
ition al
Ġen g
Ġman ag
re turn
ĠM ed
ĠS chool
3 2
6 0
201 1
Ġme as
Ġv iew
Ġf oot
ĠA pr
Ġare a
Ġun til
P h
w idth
Ġst ruct
f o
Ġgover nment
Ġ ve
ar row
Ġ Â
ĠW ar
eng th
ol ution
à ¤
ĠG e
Ġplay ers
the ta
Ġpro te
se arch
u ild
Ġne ver
Ġ et
U n
Ġdesc rib
d elta
) }
Ġg row
b ig
^ \
n ew
ĠF l
ang u
Ġch ang
b ol
b um
anc es
al es
m p
l er
st it
Ġqu est
a pe
Ġle t
Ġt em
Ġcomp any
ĠSt ate
m ber
ac he
i od
ĠS outh
ab ly
ĠC o
4 5
le q
ight s
om an
Ġbel ie
Ġin it
Ġob ject
ĠJan uary
ta u
Ġpar am
pt ember
Ġ !
ĠM arch
ag ue
Ġl and
Ġ ide
Ġa ff
o or
n ect
um e
Ġl ess
Ġres pect
c er
Ġl a
ĠCh rist
Ġst ory
r ho
A l
$ -
it or
ĠP ar
Ġp ut
Ġk ey
Ġsu ccess
L E
ore d
se c
c ode
pon se
Ġsp ace
I C
b ox
ide o
u ff
im ate
if t
Ġ ,
eth ing
3 3
A C
Ġb ig
Ġf ull
th ing
Ġsever al
Ġel se
if y
is on
g in
Ġse em
s ide
ĠM in
ĠE d
}$ ,
Ġ= >
us ed
op t
}$ .
le g
a per
ap s
ĠC ity
con t
al f
ro du
Ġsing le
} (\
Ġbet ter
un g
os p
ty pe
it er
Ġch ange
L ist
in clud
qu ad
re qu
Ġh tt
on y
ce mber
Ġen er
Ġd i
Ġex ample
e ad
Ġ )
19 5
# #
eq ref
ific ation
ĠEuro pe
os ed
Ġimport ant
w are
Ġb as
Ġcharact er
ĠC al
ĠJ une
Ġgener al
sp ace
Ġest abl
Ġprodu ct
Ġme an
k s
ĠB rit
i ents
ure d
ob al
Ġm ajor
Ġr ad
Ġd ue
ĠJ uly
at ors
am ent
V al
he ad
w here
Ġm ight
it her
le ge
ic y
Ġpl an
t imes
our ces
Ġa ut
ĠS te
Ġsh ort
ow s
Ġhe alth
Ġear ly
3 5
c a
Ġpartic ular
Ġs ong
Ġm ass
ĠOct ober
Ġpro m
Ġe as
ĠApr il
ress ion
Ġinclud e
il it
ww w
w it
Ġg ot
Ġav ailable
Ġc ity
Ġre t
Ġw omen
Ġcom e
ard s
Ġde ath
Ġact iv
v iron
Ġsu pp
u ed
.. ..
ĠF eb
ĠSe ptember
ĠE n
pl es
g round
" .
end ing
Ġs um
du ct
Ġf ac
ĠAug ust
Ġm embers
e v
8 0
Ġcount ry
ut ure
Ġw ater
Ġcont rol
f ield
is ing
our s
ĠS o
t ime
/ >
Ġf ree
Ġal ways
Ġto t
ĠA f
w h
il t
a ction
Ġserv ice
Ġchild ren
ym bol
S h
Ġar g
ĠW ill
Ġab ove
ĠA m
ĠHow ever
Ġs it
ĠN orth
ĠW ith
Ġob tain
ĠA b
Ġ _
ĠM c
un c
ĠCount y
Ġh ard
id es
Ġsom ething
er ed
ust om
Ġm ar
part ial
ain ed
ĠP art
200 9
u k
a ut
it ing
l og
Ġw ar
at ures
3 1
ft y
rib ution
on es
l oc
ri x
r or
Ġlink s
port s
ĠNov ember
am ed
Ġf ore
Ġacc ess
Ġw on
Ġa uthor
Ġp ubl
Ġl arg
Ġth ings
ad a
ĠAust ral
ĠDe cember
i pp
Ġal bum
I S
Ġde v
re t
Â ł
Ġstud y
Ġf ri
Ġc rit
ra ft
19 4
ĠTh at
ĠH ar
ĠĠĠĠĠĠĠĠĠĠĠĠĠĠĠĠ ĠĠĠĠĠĠĠĠĠĠĠĠĠĠĠĠ
Ġt imes
Ġl ittle
e ction
C ont
Ġn etwork
Ġh istory
A M
Ġ= =
Ġle ast
a ff
Ġre du
ist or
read y
, "
Ġb ound
Ġs ide
Ġsim ilar
in fty
Ġp ot
o ff
E D
id ence
om ega
Ġener gy
Ġpr ivate
Ġh ig
and s
Ġpro b
re w
n u
Ġv ar
Ġch o
ĠD r
Ġd ays
200 8
Ġc ost
Ġph ot
Ġbec ame
ĠG erm
| \
k ey
ĠP res
Ġc over
ĠR eg
em pt
" />
l ish
ater ial
iqu e
t ilde
Ġinv ol
h am
Ġsu per
Ġf ar
t est
Ġapp lic
oc ument
Ġim pro
op y
Ġn ull
Ġdisc uss
Ġl ow
Ġc al
E C
Ġposs ible
Ġas k
et ers
one y
Ġstr ong
Ġob serv
Ġc lear
Ġh uman
Ġpre vious
Ġcl aim
ru ction
ra p
Ġf und
g o
ru ary
et ing
x i
ys is
ir l
Ġcomp let
I f
Ġass oci
Ġper iod
her n
0 1
Ġc amp
Ġcommun ity
viron ment
il es
Ġs ize
ĠB ar
Ġcom b
Ġf alse
Ġp ract
ak en
Ġto ok
trans lation
Ġre search
Ġm illion
Ġv ol
Ġfor mer
ivid ual
Ġm en
ĠA pp
d ate
av a
ri ption
re l
m et
D elta
Ġex ist
ĠB y
Ġyou ng
pl ic
Ġv oid
ict ion
Ġof ten
Ġp ay
angu age
in o
Ġspec ial
ist ic
ens ion
Ġfe el
9 0
Ġan t
s k
Ġha ving
an a
ed er
Ġa way
Ġac ross
le ment
st er
Ġl ik
im ent
r ite
ri ed
s w
ord er
Ġbec ome
Ġc ult
Ġ enc
ain t
Ġof fer
Ġt itle
Ġproble m
Ġpoint s
ĠM e
Ġc ell
at ter
re et
ĠĠĠĠ ĠĠ
Ġl ove
Ġl ot
t ies
ar ing
3 6
Ġcomp ut
ra in
Ġal ready
d is
Ġprov ide
er o
ĠW est
Ġs at
Ġt yp
m ost
Ġm aking
ib r
Ġdet erm
Ġd om
z e
3 7
Ġam ong
l im
th ough
Ġst ring
ail s
Ġs ocial
Ġshow s
Ġa ir
htt p
Ġg ive
ĠA g
Ġf urther
ab or
Ġf oc
c hes
if f
u ation
orm al
" )
oun c
op h
Ġf ive
al d
200 7
A nd
Ġl ight
Ġdevelop ment
Ġsign ific
lect ed
Ġ$ (
ul es
Ġin f
i ol
im al
Ġto get
Ġtoget her
olog ical
n ow
in ter
Ġab le
3 4
Ġtr ad
Ġre view
c ast
m m
Ġed uc
a pt
C ol
ĠC or
ĠO ne
Ġin te
a ul
Ġp ort
Ġfoot ball
Ġe p
Ġc ame
Ġke ep
ĠI I
Ġde b
ear ch
ur g
Ġwork ing
ĠFeb ruary
Ġp ast
ĠG l
op er
ac ed
ond on
Ġt alk
a e
res pond
ĠD av
Ġse en
cd ot
Ġt arget
Ġem ploy
Ġme ans
**** ****
ĠA ir
m at
Ġth ough
eq n
i j
ĠC ont
Ġth ought
cl us
i ber
E T
og n
st ring
Ġtot al
Ġwh y
s u
ore m
v ision
ĠK ing
3 9
Ġind ust
Ġh ouse
ĠW hen
A P
ĠP e
Ġk ill
ess ion
ĠAr t
I nd
ĠC he
Ex ternal
Ġg ames
6 4
"> <
Ġar r
op s
7 0
ens ure
Ġind ividual
ig ure
m y
se e
Ġpos ition
U S
ourn al
ĠS er
Ġb ir
Ġm om
Ġd en
row n
m ary
ĠAf ric
Ġa ction
ap an
eps ilon
Ġorig inal
Ġpre d
il le
3 8
Ġcomp et
ĠP ark
Ġb o
Ġth ird
} }\
ĠA fter
C O
ĠH is
Ġval ues
Ġj o
Ġe conom
ell ing
ie f
)$ .
con st
b ject
ud e
} [
Ġint rodu
Ġunder stand
ĠE l
Ġf uture
Ġperform ance
am a
Ġse ction
od es
$ $
ĠR uss
ĠQ u
Ġg en
Ġvers ion
Ġstud ents
Ġro le
N ew
R O
s el
Ġtr ack
b ook
ur b
Ġc ou
s q
Ġm ot
Ġ id
oc r
pos ed
Ġplay ed
erv ice
Ġen ough
\ ,
Ġc ertain
Ġs ite
200 6
ĠA ct
re st
c her
Ġserv ices
ĠĠ Ċ
Ġacc ount
ip s
Ġatt ack
le ase
et t
n a
] ,
ĠThe se
Ġrel ations
r t
Ġte xt
Ġph ys
u x
ĠH ouse
s im
Ġa ge
ir t
Ġcont ent
Ġp ri
Ġcon c
Ġk ind
id s
t op
ver age
ad em
rou ps
og le
9 9
ĠCom p
val ue
d ata
u f
Ġexper ience
Ġother s
Ġterm s
g ed
0 5
id ge
-------- --------
p ons
ib ility
ĠD ep
Ġex c
Ġr ange
ĠP er
em ents
n ers
Ġe ver
Ġrele ased
Ġcour se
L L
Ġdid n
Ġcomm on
Ġb en
Ġp ath
e ed
} _{\
Ġsignific ant
Ġn ational
amp ions
Ġt reat
n o
Ġc oll
ĠR ec
itt ed
as ing
Ġl og
l oad
Ġe ither
Ġm ember
o on
7 5
l in
Ġf ail
c m
' )
y d
ut ions
col or
Ġhe ld
W h
ref ore
Ġs ix
bs ite
Ġt re
Ġsh own
ĠCh ar
ĠAmeric a
ĠL ondon
ĠW hat
Ġto day
Ġche ck
ix ed
oci ety
ĠĠĠĠĠĠĠĠ ĠĠĠĠĠ
ĠPres ident
Ġd one
se qu
ograph y
ro id
Ġon ce
Ġre ason
O m
er a
ĠS m
D ata
Ġbuild ing
ĠM on
Ġann oun
ip le
ĠBrit ish
ĠL a
// //
ing ton
Ġto wn
ener al
ounc il
htt ps
en ed
is k
I ON
Ġind ic
Ġb ring
Ġw ent
il ities
es e
raph ics
ĠB ro
ĠEng lish
Ġin fl
S e
Ġadd ress
Ġcor respond
Ġbl ack
ill s
Ġmed ia
w ith
S c
Ġv ideo
Ġj ob
Ġrequ ire
le m
H ow
le te
] .
at ural
est s
Ġh alf
W ith
Ġbre ak
t able
A ll
W hat
ic ro
ĠIn ternational
Ġb and
Ġs ound
ĠNew s
ps i
Ġs ent
un ity
f ord
Ġbl ock
ĠĠĠĠĠĠĠĠĠĠĠĠĠĠĠĠ ĠĠĠĠĠĠĠ
Ġth ing
g ress
ab les
Ġdif f
E r
Ġm akes
Y ou
Ġcre ate
re ed
ra k
h ib
P l
Ġp ress
ĠS ec
ĠA ng
Ġd ou
ĠS ch
A D
Ġstart ed
ma il
Ġw ind
ĠG o
ĠM y
Ġsu gg
al t
i et
Ġev ents
ĠN ot
d om
yn am
ĠH igh
Ġb ody
Ġl ive
ch ie
Ġwhe ther
20 00
Ġc irc
r an
Ġde g
Ġ es
epend ent
ĠD o
Ġre pl
Ġnew s
Ġrece ived
ou d
Ġvari ous
in ary
Ġab s
g or
ĠH er
Ġst yle
Ġm ax
c y
pos ition
ĠD is
s m
ec ut
pp er
im um
b it
" );
n b
Val ue
Ġn ight
Ġfe ature
ag ed
Ġreg ion
Ġm aterial
Om ega
ir m
Ġt w
Ġre fer
0 8
ad es
b or
Ġm iss
H E
Ġh ost
text bf
ĠM ich
)$ ,
B ut
ĠA rm
The re
et ic
ain ing
Ġs ource
Ġcare er
ĠV al
N ot
y ear
i us
ren ch
I m
ps ilon
200 5
ĠJ apan
ay er
o e
sc ript
Ġo pp
^ *
end er
S S
Ġs w
Ġmod els
ĠC our
' '
ĠD ist
Ġbe gan
Ġt aken
ĠSt ud
ilit ary
ĠI m
Ġs ure
Ġwork s
ur ation
ĠCol lege
Ġm em
Ġh om
4 8
m it
Ġst ates
Ġ& &
ĠM ark
Ġd er
g es
c hed
Ġquest ion
Ġpolit ical
Ġdescrib ed
Ġcor re
Ġpr im
a el
Ġhow ever
B C
Ġb i
Ġb ase
t ab
Ġp ur
E n
b m
Ġar ch
au gh
ish ing
Ġpubl ished
G et
Ġcl ose
Ġd est
s l
ag er
Ġb it
G amma
min ist
5 5
ch i
Ġ/ **
0 4
Ġsa f
Ġcomp lex
Ġfe atures
U R
Ġst op
B l
ĠPh il
Ġdoes n
Ġle arn
Ġbel ow
Ġsystem s
sub section
Ġr ate
Ġappro ach
ĠS w
O r
b ased
ĠL aw
Ġc ustom
a ign
Ġpot ential
att le
iv ity
p x
Ġpop ulation
idd le
Ġy et
Ġbe gin
' re
du c
Ġm oney
gor ith
Ġm or
as c
rib ute
O T
Ġinclud ed
id ed
Ġh old
0 7
Ġre d
an ies
Ġc reat
Ġde al
pl it
eqn array
Ġn eg
ĠM ore
ut il
Ġmark et
Ġinvest ig
0 6
ac hed
ple ment
Ġact ually
it es
ĠWill iam
ric k
Ġt ell
Ġg round
Ġcon nect
Ġc ases
0 9
an ch
L e
Ġ %
a it
Ġanal ysis
} ;
Ġp arent
sq rt
Ġr ather
a id
A t
Ġbu ilt
f ile
um ents
Ġdef ined
^{ (
c le
Ġp aper
ĠU K
u el
Ġoffic ial
) );
Ġtra ining
l ist
Ġwrit ten
Ġte le
Ġs pect
ic les
Ġa ud
es tern
M od
un ch
Ġ// /
P ar
s ize
Ġappe ar
ĠInd ia
Ġim age
Ġhig her
Ġprovid ed
i res
I M
om et
Ġ error
v are
Ġadd ition
Ġprote ct
Ġdef in
ĠE m
Ġal most
Ġgr ad
if orn
Ġch all
D E
200 4
am ples
Ġto ld
Ġp o
iv il
Ġ ill
Ġf all
Ġres pons
ul ated
4 4
Ġmon ths
Ġfollow s
nb sp
ĠM r
Ġacc ording
is f
] ;
Ġf av
ca ption
ly ing
. )
Ġrequ ired
Ġc ross
ag s
Ġm atch
med i
g l
Ġv ia
Ġent ire
Ġf ile
Ġprodu ction
ce ed
I G
IN G
Ġn amed
Ġen vironment
ul ations
Ġconsider ed
right arrow
Ġst atic
( $
in ally
ĠLe ague
ĠS an
ut es
Ġmeas ure
Ġg roups
ak er
ok e
Ex ception
it te
Ġstruct ure
Ġprof ess
ĠThe n
Ġv iol
Ġo p
iforn ia
Ġl ower
or ge
h old
art ment
ann el
ar a
0 2
and om
Ġt ax
v is
Ġl oss
ens ity
Ġc ut
Ġproper ty
Ġcre ated
Ġpartic ip
Ġa chie
Ġcomp on
Ġhtt p
at ory
w ide
Ġsub ject
ank s
vare psilon
em ph
Ġ$ {\
==== ====
}^ {\
Ġcl ub
f unction
ĠD em
Ġfoc us
Ġcl os
ĠCent er
Ã ¡
al y
6 5
Ġse par
m ark
ĠA c
ĠT V
I s
Ġper cent
Ġwe bsite
ru g
Ġres ponse
ampions hip
Ġ ver
Ġn ov
h a
0 3
h ood
s y
O bject
Ġv ill
d own
Ġl ate
n on
Ġd iv
un k
Ġexpect ed
p oint
Ġloc ated
Ġb ar
Ġeng ine
il i
Ġa verage
Ġst ar
pec ially
ĠD on
ar ies
ĠS ystem
is es
o o
Ġ\ ,
Ġpart y
U T
x im
Ġcond itions
Ġbe com
S et
eg raphics
includ egraphics
at us
ĠAss oci
Ġperson al
i i
} =
Ġplay er
om b
ĠHe alth
re c
ĠG od
Ġ čĊ
Ġcal c
D e
Q u
he l
Ġm er
B ig
m on
av es
Ġse qu
Ġfr ont
ĠSt ring
ĠIn stit
Ġest im
Ġqu ant
Ġt aking
ĠD es
l ink
Ġrec ogn
S ee
Ġc y
ĠM or
Ġrequ est
ĠP at
ĠT ra
ens ive
ĠTr ans
Ġro om
Ġus er
Ġf ace
Ġgl obal
Ġf ood
r ad
Ġ! =
Ġl o
Ġwho le
p ath
Ġben ef
ĠS en
O S
use um
ĠE ast
sel ves
Ġcom es
Ġreport ed
ic a
ch an
av y
Ġstand ard
el t
am s
oun ter
) =
ag ing
ĠR ed
qu e
Ġne cess
ign ed
Ġiss ues
Ġp age
ian ce
Ġdo ing
r angle
L et
Ġm ove
F rom
Ġdist ribution
iz ing
Ġp ers
ĠDav id
Ġtr y
ic ult
g ing
loc ation
Ġam ount
cent er
Ġare as
Ġmom ent
Ġe y
Ġfil ms
com p
ĠG over
ĠAustral ia
Ġchang es
ĠN e
200 3
Ġestabl ished
av ing
b ody
Ġin ternational
Ġd ocument
Ġs ym
4 9
p d
led ge
Ġr ound
ĠCh ina
Ġright s
Ġag o
ĠCal ifornia
o res
b orn
A meric
itt ing
Ġindust ry
Cl ass
Ġro ad
C C
ĠH ol
at ives
Ġst ation
cur ity
Ġinit ial
Ġatt empt
pro of
Ġac cept
Ġadd ed
M an
un ic
Ġm ap
ge q
ĠF rom
Ġo pport
ĠBl ack
anc ial
Ġset t
Ġcons ist
r c
j oy
Ġst re
Ġst e
ind ex
Ġbeh ind
Ġm ind
ic o
Ġse x
Ġspec ific
Ġf un
V iew
ĠS im
b olds
( ).
I I
Ġlook ing
Ġmon th
eder al
at form
ibr ary
n es
ĠF irst
Ġcour t
Ġor g
h ing
a ur
Er ror
Ġcomp anies
Ġl ed
ĠRep ublic
Ġvis it
Ġh istor
en ing
land s
un t
Ġassoci ated
ar ning
st ate
g en
K ey
Ġl anguage
ĠCour t
ĠJ ust
Ġsh all
Ġcent ury
Ġpres ident
Ġm agn
bolds ymbol
ĠInd ian
var phi
Ġw ords
Ġrec ent
Ġs on
| -
l ight
Ġc ode
ĠSt reet
it ect
Ġso ft
v ille
Ġd at
Ġbelie ve
l or
n own
Ġin put
Ġeff ort
ĠC ons
ĠIn ter
ne ction
em s
Ġf ather
Ġca pt
Ġneed s
" :
ĠF rench
Ġlik ely
Ġimp act
Ġ err
I nt
Ġw alk
Ġh on
Ġiss ue
S p
Ġb ad
Ġmat ter
Ġbro ad
9 5
Ġon line
ress ed
Ġt able
4 7
ĠO ff
ov ed
W hen
Ġcan not
ĠB ook
pp ed
ac hes
Ġf ight
ĠDep artment
ou l
sum mary
ĠEurope an
Ġinfl u
sh ip
Ġcont ract
T est
ot ed
wo od
Ġrelations hip
ac ing
Ġf ire
Ġg e
Ġup on
per ty
Ġcon text
Ġpop ular
Ġrel ated
air s
in n
ig ital
f rak
Ġin j
Ġsugg est
Ġrele ase
ĠG roup
Ġcamp aign
() );
ĠEng land
ic on
Ġide a
Ġwh ite
. ~\
Ġhim self
and id
ult s
Ġreg ard
Ġhe art
Ġbeh av
ĠA cc
Ġsc he
ro te
ell ow
ast ic
Ġtechn ology
o ice
Ġpol icy
6 6
C H
ur l
Ġ Ð
Ġs ens
ma x
ĠĠĠĠ Ċ
row s
Ġreg ular
ĠP aul
Ġl ost
ĠP al
itte e
Ġp ack
ĠC O
l ike
Ġf requ
d en
200 2
Ġim m
anc ed
" ;
w ise
over line
ĠD ay
id ay
ĠJ ames
. }
Ġass um
p ublic
ĠC ouncil
us ing
i ences
ul ly
Ġt akes
Ġinst ead
Ġim plement
Ġsol ution
A dd
ĠL et
C T
ug ht
ĠE ar
ĠTr ump
Ġsat isf
Ġs old
ott om
b ed
20 21
ĠP ort
Ġget ting
ash ington
p ly
N o
p ose
ĠCan ada
at ur
Ġspec ies
Ġpol ice
Ġm ag
S E
Ġ ...
Ġh or
f rom
Ġlim it
Ġart icle
ul a
in ated
Ġinclud es
Ġb orn
Ġes pecially
e es
A d
200 1
oy al
m ing
or ing
Ġits elf
n ov
im ens
[ \
ĠH am
Ġs em
I L
ach ing
Ġeduc ation
I P
p ite
Ġl iter
Ġsh are
Ġv ict
}, \
and er
Ġf em
Ġannoun ced
A pp
& \
Ġthe ory
ĠM od
ĠD irect
Ġwho se
g roup
Ġinte gr
y a
us es
Ġcomp lete
Ġlead ers
Ġdiff icult
li er
Ġw atch
ĉĉĉĉ ĉ
Ġde cl
Ġtem per
ve y
A B
Ġpri or
ĠG eneral
Ġsim ple
Ġele ment
ra z
) ^
Ġsuccess ful
Ġcontin ue
c ial
Ġst ep
"> </
Ġs ense
Ġse arch
in st
oc al
Ġoff ice
Ġan g
ist ry
Ġd ate
Ġqu ick
Ġfri end
f ect
ĠF il
ist ics
ĠS k
Ġwork ed
U N
li ed
Ġn atural
. </
Ġconst ant
ĠA nt
m ar
Ġh ours
r ong
ĠDist rict
Ġs us
ĠO f
ot o
Ġwrit ing
R equ
Ġt ask
ar ter
) (
n ode
St ate
Ġen joy
Ġback ground
T R
ma z
Ġep is
Americ an
Ġex act
ĠM al
at al
. _
A G
Ġp ie
D ef
' );
Ġev idence
Ġcond ition
ra el
Ġqu ite
5 00
4 6
c ome
ac her
o ch
Ġass ert
Ġseem s
as ons
Ġlead ing
Ġserv ed
Ġincre ase
Ġtra vel
Ġpos itive
ĠB er
Ġout side
Ġd ied
Ġp ick
ĠR ober
Ġr isk
Ġd ire
Ġcol or
Ġfor ward
Ġcom ment
S u
ĠR ich
ag ement
w id
Ġ ?
gorith m
Ġw or
Ġd am
Ġl iving
' m
} ).
e ff
ele br
math frak
Ġa ward
Ġadd itional
Ġmethod s
Ġany thing
Ġj ud
T ime
st yle
Ġm other
Ġfunction s
Ġprovid es
Ġpat ients
A fter
S P
Ġl ines
Ġl ength
m ult
ĠI N
ĠTh om
m ore
P r
Ġt our
Ġcom ing
F F
ĠRes earch
ĠI nt
f ort
u nder
Ġan sw
Ġcont act
ĠInstit ute
Ġneed ed
ag o
Ġg raph
Ġl abel
Ġconc ern
O ver
Ġnot hing
ag on
Ġqu ality
Ġplay ing
all s
u ge
Ġm ilitary
Ġn ormal
Ġcount ries
m ission
7 8
ĠR iver
L O
Ġobtain ed
Ġse curity
Ġask ed
p ack
Ġl at
ĠD ef
Ġprob ably
ĠGerm an
id a
Ġw rote
Ġg irl
Ġmult iple
Ġsome one
b ut
Ġcontin u
Ġsa w
Ġb oard
Ġst age
[ '
Ġ( $
Ġparam eters
Ġro ck
n av
S o
ri an
Ġbook s
ol ic
ber g
Ġre ve
osp ital
Ġdec ision
Ġaff ect
L ambda
h line
ĠCh urch
Ġth us
Ġdevelop ed
Ġm id
Ġle arning
ĠL ist
Ġinvol ved
ad er
ĠM art
ok en
ang er
ot a
Ġc red
ĠG reen
Ġproble ms
4 2
Ġprodu ced
ĠW ork
Ġde ep
Ġcon duct
b oard
ĠJ ack
z z
} }$
Ġm ention
s f
Ġappro xim
Ġmanag ement
Ġst ri
Ġst aff
O ne
ub e
ot es
ĠV ol
ĠD an
cent ury
Ġme et
o om
Ġcommun ic
Ġh ot
Ġproduct s
Ġ ess
ĠM usic
i ers
ĠW ashington
Ġinst ance
F r
cre t
j s
ĠP ress
Ġdem on
I R
ĠTe chn
ĠF ig
ĠD i
Ġn orth
Ġne igh
Ġele ments
( ),
Ġwant ed
n y
a res
Ġrun ning
rou ght
Ġthem selves
ĠPart y
all ed
b t
ĠB el
Ġcurrent ly
Ġtr ying
ĠE v
an el
Ġocc ur
8 8
c ing
Ġmod ern
Ġsur face
s cal
F orm
l o
ld ots
Ġmov ed
ĠH all
' ve
Ġeffect s
ĠG et
Ġcent er
ĠO ur
Ġto ol
Ġdis play
Ã ³
ar ily
ch ange
umb ers
! !
P s
ensure math
l angle
ĠD iv
Ġpre t
he t
Ġev al
Ġcont ribut
Ġh it
ve c
Ph i
Ġass ist
Ġpro posed
' :
ateg ory
p ace
Ġw ord
b and
enc ed
A A
ĠR et
ar r
p ed
Ġw rite
l a
d raw
ail y
ĠC ong
Ġdet ails
Ġw oman
ĠS ing
Ġind ex
Ġdeg ree
os ition
Ġu nd
ra v
ĠWh ile
Ġso on
Ġ/ >
Ġhtt ps
Ġs il
ĠO ut
Ġc andid
or ph
A ss
Ġre v
Ġfor ce
Ġstud ies
ĠAr ch
ew ork
Ġm essage
A b
Ġmult i
Ġn ode
ĠGe orge
it ar
c irc
ol ar
Ġrespect ively
Ġve h
ĠC up
Ð °
Ġt en
n s
Ġun ique
ffic ient
F ile
` `
Ġthrough out
ou ch
qu are
app a
Ġe mer
7 7
8 5
ĠN ow
Ġmov ie
Ġn ames
I V
Ġevery thing
' ]
est ival
Ð ¾
Ġdirect or
Ġfl ow
ĠAssoci ation
Ġsim ply
F il
ĠY ear
Ġpred ict
Ġcharact ers
ĠSu per
Ġsu ff
Ġn umer
Ġg ives
ĠS ome
Ġacc om
EN T
Ġlong er
Ġ );
Ġbir ths
n et
Ġr andom
Ġconst ruct
Ġc le
ad o
M A
Ġst ay
ĠCl ass
ari o
Ġtele vision
Ã Ń
Ġd raw
ĠMich ael
ĠWh ite
P e
Ġg re
l ength
199 9
Ġg ave
ĠSc ience
Ġme chan
Ġun it
ri e
Ġb ox
E qu
ro om
Ġopt ions
ĠP ublic
D is
E vent
ro y
Ġp ain
Ġproper ties
Ġs outh
d o
Ġr ace
ist an
m ap
M S
Ġnov el
! --
Ġele ction
Ġrec ently
ĠFr ance
Ġind ependent
Ġtreat ment
Ġgrow th
ail ed
f in
ĠA N
cite p
p ri
wh ich
Ġd ynam
Ġpr inc
vers e
ĠS am
Ġal ign
ĠF ound
st on
f oot
Ġgo al
Ġread ing
ĠDem ocr
er ve
Ġdep end
abl a
ort hern
ĠAfric a
ĠA ward
uf act
In fo
B e
am ily
ĠQ ue
ĠS ince
Ġis n
O f
Ġdesign ed
ĠRe view
id ents
ob ile
l t
Ġrel ig
ap ter
ab led
d t
Ġ q
ĠAd d
Ġ: =
enc ies
ict ure
Ġde part
Ġfri ends
i os
ĠR oad
text it
u ate
M P
ill ed
T hat
R ec
Ġleg al
Ġmin utes
Ġph ase
el ine
Ġad minist
e ch
ĠIn c
Ġlevel s
} )$
al ed
Ġr at
ĠAng el
Ġim medi
augh ter
a ctions
Ġapplic ation
ĠM ag
ous ly
/ *
4 3
O D
Ġto wards
ac c
Ġc am
v ant
n abla
Ġcol lection
ĠCh ampionship
ĠS ub
Ġsc reen
Ġdis e
ĠT ex
\ |
Ġcent ral
ord in
ĠFr anc
m en
il ies
Ġch arg
k nown
ĠU s
ĠM ary
ines e
ĠIs rael
ĠM at
ad ian
T ext
Ġconst ruction
iz es
../../ ../../
Ġb all
Ġpart s
ur t
ex p
Ġcomp ared
out hern
sub set
Ġmat rix
Ġag re
Ġw ond
is ions
Ġth reat
ri ef
al ing
Ġout put
9 8
ĠL eg
Ġd ensity
Tr ans
Ġbe aut
c ell
Ġdirect ly
Ġl ives
ri al
ĠP ost
Ġp ark
m itted
ul ate
Ġinter view
Ġex ecut
Ġsur v
Ġaut om
k en
Ġevery one
5 6
Ġcon fig
ra ction
Ġteam s
Ġac qu
vers ion
Ġdet ect
b ra
Ġknow ledge
4 1
m box
tr ue
b re
Ġar ray
Ġg as
ot imes
Ġtrans fer
ĠB en
tern et
Ġpl atform
Ġcult ure
F ield
ĠJ ew
Ġim ages
Ġval id
E d
on a
Ġprofess ional
us er
Ġfin ancial
ir it
ro s
Ġeff ic
Ġpr int
Ġsc ient
Requ est
199 0
Ġdef ault
ri a
Ġlarg er
Ġsc ale
duc ation
} ),
v est
ap i
Ġparam eter
ent al
ĠB ay
ĠSe ction
ĠS um
f ess
er c
at ively
Ġcon v
ust er
Ð µ
Ġpresent ed
. \
Ġan im
Ġal though
r ide
5 8
wid et
Ġpract ice
v an
5 7
ĠL ou
it ude
ĠB est
bl ock
N ode
wit ter
h and
Ġw ays
ly mp
r d
Ġd ark
Ġde ad
Ġquest ions
P ath
Ġqu al
Ġloc ation
ĠB uild
Ġnot e
9 6
P ost
E L
Ġl ack
Ġc elebr
\ %
Ġwe ight
k a
ĠM et
Ġcont ains
ĠComp any
ĠAn n
Ġsay ing
Ġus es
ĠT om
Ġus ually
ĠD ec
ĠC r
ĠH ere
Ġeas y
Ġschool s
Ġw ife
Ġdiffer ence
ou te
ac ity
k i
Ġpro of
c os
n ed
w ord
ĠA re
Ġins ide
Ġsc ience
Ġbas is
Ġvill age
k appa
is her
Ġperform ed
pr int
Ġcorrespond ing
Ã ¼
\ !
Ġh um
Ġpre c
ĠS ociety
vent ion
9 7
Ġspe ed
Ġallow ed
esc ription
i ation
Ġeffect ive
Ġstat us
Ġcom pl
ole an
Ġad j
=" +
in i
widet ilde
ĠS l
Ġtyp es
Ġmain tain
Ġh ous
Ġinterest ing
b b
Ġh ope
ĠM ac
Ġc ause
Ġbro ther
irt ual
Ġcomp ar
Ġ` `
Ġinst it
ĠR ob
In ter
ĠY our
Ġreturn ed
Ġdist ance
Ġre comm
Ġm ach
ant ic
199 8
ĠA lex
h aps
ur ity
Ġact ive
O P
r um
Ġc ast
Ġexper iment
ĠGerm any
Ġincre asing
Ġn ature
ol f
Ġphys ical
ust r
ig ation
pec ial
m d
it ch
~ ~
Ind ex
Ġle ave
Ġdist rict
ĠG reat
Ġchall eng
Ġarch itect
ĠP re
T E
Ġn umbers
ĠD el
Ġfollow ed
Ġb rought
ate gy
Ġh op
Ġlarg est
Ġm us
c or
pt ions
Ġet c
O M
Ġd rug
res h
Ġcon cept
Ġacc ur
id ing
th m
ay out
Ġme eting
he st
Ġline ar
ĠT HE
Ġnecess ary
ĠS ervice
Ġt er
an o
b on
Ġus ers
ĠUn ion
Ġr ank
O L
ĠV ir
b o
w in
N A
ĠS ur
Ġestabl ish
S ervice
ĠIs land
ĠM iss
() )
st ruct
y r
Ġcorre ct
w rit
ĠB re
s in
Ġm is
Ġsc en
ĠM ex
R eg
os ing
ĠF in
Ġanal y
ĠM us
S er
B uild
w ell
ĠPro gram
A tt
ef ore
ĠS al
/ **
Ġs y
E E
' ll
Ġcol lect
S C
Ġb oy
\ [
it iz
6 7
Ġdev ice
Ġst ories
Ġthe refore
ad y
mer cial
ber t
{ -
Ġcap ital
Ġfav or
u i
Ġ Ã
Ġcontin ued
li ament
ĠPe ople
Ġm ale
Ġear lier
ĠTex as
ĠG old
il s
ip al
ĠH istory
x y
6 8
c ap
O ut
ree k
Ġobserv ed
iz ations
Ġcl osed
M L
if ying
sy ch
ra int
Ġa im
Ġfact or
pl ate
ers ion
F A
n or
Ġp urch
S ub
is ation
h i
le vel
Ġmed ical
Ġper fect
Con text
or age
Ġc ivil
Ġin sp
Ġgo es
Ġdist ribut
Ġsong s
Ġun c
Con fig
Ġdemon str
Ġdel iver
v oid
Ġweek s
ĠO ther
Ġal tern
Ġeconom ic
S he
Ġh y
Ġse ek
Ġ/ *
en a
ag ram
ĠN or
Ġe ight
oc ol
S igma
it ation
Ġapp oint
Ġc opy
Ġdire ction
t itle
Ġdou ble
ed y
Ġcol umn
Ġstre ng
t es
Ġst ru
ĠR ad
Ġst ream
M y
it z
Ġs n
C E
ĠComm ission
Ġrad io
Ġf ast
ig en
Ġw rong
Ġatt ention
? âĢĿ
Ġ â
Ġh ol
Ġfield s
+ +
anc y
velop ment
Ġcho ice
m iss
c el
Ġlim ited
ov ers
Ġstud ent
ĠSm ith
ĠSer ies
ĠChrist ian
ĠRober t
Ġav oid
Ġprim ary
ĠAc adem
ĠZ e
Ð ¸
Ġs ort
con fig
Ġcont ain
wit ch
Ġtr ade
Ġst ra
Ġser ious
Ġun ivers
ĠR ock
Ġany one
ĠSc ott
an i
Ġallow s
Ġb ank
ĠCl ub
al a
clus ion
Ġex hib
In st
}} {
******** ********
oc ation
ron ic
Ġsur pr
Ġstat ement
Ġget s
ir ing
m as
Ġf air
Ġl oad
5 9
en ge
Ġtrans form
erv ices
for ce
ec ause
Ġpret ty
Ġpl aces
o oth
ad ing
Ġdisc over
Ġequ ation
Ġset s
non umber
yn c
o z
d ots
ĠArm y
ĠM useum
in it
Ġtrans port
ĠF ore
Ġant i
F L
Ġcell s
p at
cont ent
ĠB ill
ak ers
Ġg un
Ġ( )
Ġo ption
az ine
Ġim pl
act ive
Ġsom et
Ġed ge
ĠĠĠĠĠĠĠĠĠĠĠĠĠĠĠĠ ĠĠĠĠĠĠĠĠĠĠĠ
ĠA P
er ia
199 7
## ##
âĢĿ .
ĠGover nment
ĠCh inese
Ġr ules
Ġopen ed
ell ig
M ap
Ġs en
Ġdec ided
pl ace
Ġch urch
ic ense
ĠM ount
Ġwas n
Ġintrodu ced
Ġpat tern
ĠO b
R ep
i ant
ĠM ad
ĠS und
Ġj ournal
Ġincre ased
Ġf it
S ystem
Ġw orth
Ġmean ing
emb ly
Ġe mail
ed ia
ĠR oyal
Ġex ists
5 1
Ġrem ains
Ġm ount
erv ed
Ġchang ed
199 6
cent ering
Ġpl ant
st e
ĠR el
ĠU p
u it
an ish
Ġfin ally
ĠO F
ĠC amp
ĠH ill
om a
ult ure
ĠCent ral
Ġactiv ities
/ \
5 2
por ary
Ġv s
ĠB ig
Ġab ility
p ing
A cc
ib ly
Ġparent s
Ġfam ilies
Ġsoft ware
Ġkill ed
ĠB usiness
Ġd ram
ap ache
ĠAustral ian
Ġbecom es
Ġse ven
Ġpro p
ĠW il
ĠT est
ĠMin ister
Ġstart ing
Ġrem ain
qu ot
ĠJ ournal
ĠK h
ĠUS A
Ġoper ations
re me
in put
ĠIn st
f il
ĠO ver
d ot
Ġtemper ature
Ġb order
l am
Ġb ur
ĠL em
G e
Ġdef ine
Ġset ting
Ġ ir
Ġf ram
Ġbl ood
Ġp air
al ian
Ġturn ed
ĠR oman
n el
ct ors
ĠThom as
ĠCong ress
ĠI r
Ġjo ined
k y
Ġoper ation
Ġman ufact
Ġdeb ut
ĠB oard
t ot
P ol
Ġparticular ly
re y
Ġro b
Ġcomplet ed
roll er
Ġm ur
ĠSt ar
Ġsh ot
pon ent
Ġsit uation
Ġex cept
[ ]
Ġbegin ning
Ġcrit ical
ĠK e
Ġ( !
Ġpro gress
ru pt
ĠAfric an
T able
" "
ĠT ur
//// ////
Ġlat est
Ġf a
ob ject
Ġconst it
Ġse lected
ed ic
Ġpr ice
E lement
Ġve ctor
Ġcou ple
Ġw ide
us ion
5 4
ĠT own
198 0
ass ert
ig r
ven ue
Ġz ero
o at
pd f
ĠCar ol
Ġs ources
ĠÂ £
ĠFranc is
u ated
ĠL ife
ã ģ
b uild
Ġr ule
pre t
Ġres ources
er ry
Ġbir th
C ode
pt y
Ġequ ival
Ġt im
Ġactiv ity
C L
p ol
Ġcomm and
p age
ot ion
Ġf ixed
ĠF ace
P S
in ct
ã ĥ
Ġon es
Ġfe ed
Ġoff ers
Ġs ample
Ġprogram s
Ġw idth
5 3
Ġor d
ud d
ĠJ ul
ĠP M
' ;
and a
ab s
def ine
\ ]
ĠA tt
ĠComm ittee
Ġp m
n ames
Ġ ult
Ġnear ly
if orm
in y
ĠE r
Ar ray
ĠAir port
in fo
Ġexp and
b our
a ud
Ġpre m
ĠS un
d r
z a
Ġc ard
ĠFl or
g u
Ġn ation
sm all
Ġa w
Ġal gorithm
ĠH en
Ġb al
Ġpart ners
Ġup d
Ġrem ember
Ġsol utions
M ar
Ġst ars
ĉ Ċ
Ġopport unity
.... ....
Pe ople
Ġth row
Ġbe y
L og
Ġf elt
v ement
ĠDirect or
ĠL and
ĠU nder
Ġsequ ence
M ore
ful ly
Ġproject s
ic ol
che ck
Ġequ al
ĠT ime
it able
Ġ} ,
pl ing
Ġass ess
3 00
ict or
Ġbey ond
Ġfor ces
Ġsl ow
idd en
Ġcont r
ĠFr ank
ent y
Ġn uc
ĠGo ogle
U L
Ã ¶
Ġ ensure
Ġprevious ly
} -
Ġd ro
ĠO pen
et her
ĠE ducation
ĠW estern
Ġ __
at re
199 5
ĠP eter
it a
Ġse lect
B ar
ĠO lymp
Ġsp ent
reed om
Ġ} );
Ġ-- >
T H
tab ular
Ġmov ement
Ġepis ode
ĠOff ice
Ġre ference
Ġhigh ly
ĠT or
ound s
Ġmar ried
I A
Ġsign ed
ab ase
pect ed
r un
Ġpl ans
ĠC ath
ĠDiv ision
al ax
P E
Ġn om
Ġex am
u a
ĠB i
Ġbu y
F irst
st ream
Ġf ully
ĠR em
Ġp ull
T S
Ġm iddle
Ġs ports
Ġbehav ior
g est
Ġlead er
Ġsomet imes
18 8
al le
ĠGr and
l ang
ĠL at
e an
ĠB ank
E O
Ġhe ard
Ġappe ared
Ġsh oot
Ġ er
Ġcon nection
ri er
Ġorgan ization
ĠRuss ian
Ġcomplet ely
ĠSe e
ĠS y
Ġpre vent
H and
Ġext ra
Ġse c
ĠI S
iv acy
B A
Ġhand s
Ġapp ly
if ul
Ġc ook
R A
ĠG ood
Ġmem ory
b urg
Ġrece ive
Ġse cret
ent ially
ild ren
Ġsum mer
imens ional
Ġh ar
Ġoper ator
h ouse
ĠM el
com ing
; \
Ġp oor
P art
C ount
Ġg old
Ġover all
Ġchar ge
os en
th at
g t
Ġsc ene
Ġd aughter
on ic
ic ago
Ġp le
O ur
Ġgr and
ann ed
Ġs ociety
und red
c ount
7 6
if ier
ur a
P re
Ġv oice
Ġre ach
Ġfl u
Ġg iving
ĠC D
l ong
S ize
00 00
Ġp en
ill er
Ġtra in
Ġpro ced
Ġexp ression
U s
Ġtrad itional
ĠM ost
F l
ĠF e
h ost
Ġpre p
Ġrecord ed
C D
Ġh olds
g s
Ġim ag
ĠFound ation
B S
Ġf ans
ĠRich ard
Ġw a
mod el
Ġre pe
ot ic
199 4
Ġm icro
It em
ter m
Ġd igital
Ġexp ress
ill ing
ant a
Ġcomput er
Ġra il
Ġdef e
ĠH el
ĠD ata
ĠM ont
ay ers
li ent
Ġpolit ic
Ġan c
ĠA M
Ġsupport ed
ric s
Ġf igure
ĠC ap
d et
ĠD uring
Ġad apt
ĠVir gin
ro ad
os h
Ġimpro ve
uff er
Ġdise ase
b ase
ĠT op
Ġcompon ent
ĠRuss ia
Ġquick ly
Ġwe b
ĠJ ose
Ġappe ars
ans ion
ĠT imes
Ġche m
im ents
Ġd im
Ġ à¤
ĠThe orem
T D
Ġpass ed
G r
Ġpres ence
{ (
Ġj ava
ak s
le ctions
al and
Ġcoll abor
Ġpress ure
Ġass ume
m es
pr ime
ĠS et
à ¥
d ing
Ġart ist
Ġc op
C A
Ġapp lied
ĠSec ret
re land
ĠK ore
res ult
Ġart ists
st ant
) ]
Com m
Par am
Ġbl og
b a
ĠâĢ ¢
z er
Ġdeath s
Ġb us
Ġsaf ety
Ġte acher
ĠW ind
ĠCan adian
ask et
il ton
Ġwrit er
st ar
Ġappro pri
Ġres pond
atur day
C he
ĠĠĠĠĠĠĠĠ ĠĠ
) =\
H istory
Ġkn ew
Ġfem ale
Com p
Ġch annel
Ġf arm
Ġhe ar
Ġdem and
Ġad opt
im inal
Ġv ote
or ial
}\ ,
Ġeas ily
ĠW omen
Ġsmall er
M essage
ĠM er
erv ation
ric es
Ġsol id
Ġreg ister
6 9
} +
Ġmax imum
Ġcar ry
g ment
so ft
E nt
Ġmov ing
Ġgener ally
Ġrest rict
Ġ ign
Ġgre ater
ĠJapan ese
ĠĠĠĠĠĠĠĠ ĠĠĠĠ
Ġvari ety
h space
Ġin ternal
Ġexact ly
N S
Ġpur pose
es ter
Ġgr ant
Ġro t
197 0
ĠS ocial
Ġst ore
Ġexist ing
ĠF igure
ĠS ervices
Ġwork ers
Ġdefin ition
Ġopt im
D A
p arent
we b
Ġd u
cre ate
Ġsp in
N ow
ĠA p
ĠB rown
ĠT wo
20 22
\ {
ow ers
Ġg reen
E M
ang ed
ĠM ass
lic k
Ġform ed
scal e
Ġsc ore
Ñ Ĥ
st art
Ġey es
ĠLou is
i as
ĠTh us
ĠSund ay
Ġreport s
Ġin form
199 2
ĠRe v
C an
Mod el
Ġc ounter
Ġch ance
as y
Ġt ree
Ġco ach
} =\
Ġcons um
} ]
Ġlook s
Ġpro ve
Ġb illion
Ġform s
Ġ ens
c an
Ġsh ip
od ay
| |
ĠB ur
D on
Ġcol lege
Ġindividual s
U p
Ġshow ed
ĠL os
Ġdeterm ined
ĠFr iday
ell a
AS S
Ġrun s
Ġun its
ur rent
ur ance
I F
ing u
re ate
R et
p ass
ig an
Ġhig hest
7 2
du ction
Ġw ild
ef ul
c ase
Ġm ode
= '
pro p
j ava
ĠMed ia
ĠPro ject
Ġopen ing
6 1
Ġ esc
in ner
in ition
ĠG ames
ĠJ o
t ocol
Ġfin ite
is l
E nd
ec k
6 3
ĠAcadem y
includ e
U LL
ĠFlor ida
om orph
Ġth ous
Ġal leg
Ġla unc
Ġsur round
ĠW ed
199 3
ĠD et
Ġfore ign
f e
Ġconnect ed
Ġwond er
ens us
ĠI ran
Ġcom ments
S ince
def ault
g n
ĠO ffic
te x
Ġt it
Ġenc our
z eta
uth ors
Ð ½
Ġbl ue
Ġagre ement
Ġtr ust
ĠO per
Ġprovid ing
et te
ĠDe velopment
p id
Ġansw er
ĠPro v
Ġf ederal
D r
ĠFil m
Ġqu arter
Ġstra ight
) ^{
ĠSt r
Ġo il
Ġsym met
ot ing
Ġabs ol
ĠPro fess
app ing
Ġf irm
ĠE q
Ġde cre
Ġpie ce
ĠE nd
ĠChar les
Ġro ll
P C
ĠKing dom
ic it
ial og
ud get
Ġapplic ations
Ġcompon ents
}^ \
Ġgener ated
Ġcan cer
Ġ& =
Ġre ached
ĠFace book
Ġp lease
Ġt ouch
gr ad
ĠS ol
D o
Ġm arg
olog ies
i h
in em
Ġ row
9 3
ĠM o
Ġc ru
i en
pp ing
Ġs rc
6 2
Ġcom mercial
Ġelect ric
or ter
ul f
Ġcle an
ĠRep ort
Ġsl ight
Ġmor ning
Ġent er
Ġprodu ce
Ġc atch
cd ots
Ġmajor ity
ĠO h
Ġn il
O C
Ġ vert
ĠL ake
iz er
ĠEar th
F C
Ġprob ability
c up
Ġobject s
w est
C all
ĠH ome
Ġu pper
go ogle
app ro
The y
Ġact ual
Ġimmedi ately
ĠM ov
Ġm ission
Ġbr and
A ct
Ġk m
Ġst ated
=" ../../../../
; &
or por
Ġent ry
Ġcl imate
d oc
g ar
ĠJ ud
ri age
Ġsign al
az z
Ġevent ually
Ġwe ak
Ġs al
Ġl if
ĠS il
Ġfail ed
ĠP et
Ġunderstand ing
Ġas pect
ĠM a
ol k
ĠM ur
' d
Ġs ch
Ġal one
g ent
n ce
ĠT re
Ġgrow ing
Ġcost s
ĠZe aland
b an
Ġ eth
ed s
act ory
Ġc orn
p ng
ill a
ed ge
Ġcho ose
ond ay
Ġdr ive
Ġdirect ed
9 4
ĠS T
Ġcommun ities
we et
}_ \
ĠF orm
ĠPar is
Ġag ree
ĠMart in
c ore
Ġca used
Ġhe ight
Ġup date
ist ance
cur rent
ĠL ove
ĠWe ek
val id
Ġocc up
Ġop in
Ġc itiz
ĠH ot
y an
Ġtrans ition
S te
Ġcl in
ic ine
ar p
ĠSh ow
ĠCh icago
Ġac adem
}} (
as tern
) }\
Ġtrans l
Ġother wise
yd ro
pect ive
ĠN etwork
ge bra
Ġwind ow
Ġob vious
Ġcl ient
oot ball
Ġfin ished
Ġpl aced
av en
Ġf ine
9 2
Ġtri al
ĠAl so
Ġcompet ition
irc raft
im b
ĠF estival
ĠI reland
Ġ= ==
v a
ã Ĥ
rib e
E ng
ard en
> &
ĠGe org
Ġfact ors
th let
AT E
Ġsub sequ
it ors
L iving
ing er
ĠAngel es
Ġh undred
ĠP ri
Ġr ates
Ġbas ic
as ion
U M
Ġdes pite
Ġhapp ened
âĢ ĺ
199 1
Ġstr ategy
n ote
ĠW ood
ĠAr ts
ul ed
Ġh yp
Ġneigh bor
Ġrecord s
x space
ind ing
ruct ure
Ġw id
Ġs ales
T V
anc ing
O W
cher s
Ġm ut
---------------- ----------------
ĠAt l
ĠC am
Ġth r
wide hat
^ +
Ġsp read
ĠSe cond
sk ip
ark s
ĠD en
Ñ Ģ
Ġw ave
os is
$ )
o very
Ġm ess
ap ers
rel ated
7 4
Ġf ig
Ġann ual
S ource
Ġmin or
Ġarg ument
il ed
text width
b ur
it ness
ĠK n
Ġmanag er
Ġmention ed
Ġtr uth
lem ma
ĠJ un
m id
ĠAr ab
Ġinst r
Ġh uge
Ġrel ative
Ġc ore
ole c
con text
math sf
Ġmur der
Ġcon clud
Ġrespons ible
j o
un ities
Ġeffort s
ĠAcc ording
H S
Ġse lection
Ġcon ver
D F
om s
il er
ind er
Ġres ource
Ġmiss ing
Col or
Ġin nov
ĠMan agement
F ig
C o
Ġph one
Ġstru gg
Wh ile
Ġnot ed
ĠâĢ ¦
ĠL ong
=" #
R ef
Ġm aster
Ġbe g
ĠO l
Ġneg ative
Ġprotect ed
Ġbel ong
ĠL u
le ep
7 1
ĠPl an
ash ion
Ġw ants
Ġsh ared
Ġpl ays
P er
Ġclaim s
i xt
ĠV ictor
ĠA ut
G roup
Ġinflu ence
ĠU N
Ġa ctions
Ġw ood
Ġs ymbol
h as
Ġ\ {
Ġvol ume
ĠE ven
ĠT im
Ġev olution
N N
st atic
ĠS pe
dis play
ab y
Ġw est
Ġse a
iqu es
ĠEng ine
) {
Ġlook ed
ĠS aturday
Ġill ustr
ĠE conom
ĠI ll
9 1
ĠC ast
Ġc ry
P A
H ere
od ing
Re ad
Ġb rief
ĠTechn ology
Ġgener ation
Man ager
u an
}) \
at o
Ġ} ;
Ġle ague
Ġcon cent
de v
Ġsit es
Ġinst all
E m
Pro perty
ĠP o
P R
Ġpr ison
Ġcrit ic
Ġhapp en
ĉĉĉĉ ĉĉ
âĢĿ ,
Ġdom ain
st ract
Ġd oc
Ġdat as
ust ain
Ġst ock
) -
or ation
Ġclass es
Ġrequ ires
pos es
M ethod
Ġe ast
c it
ĠC are
Ġp aint
Ġb ul
cl es
Ġdeterm ine
Im age
S A
Ġp aid
Ġar rest
im age
Ġy ield
Ġa ware
ĠJ im
Ġhe avy
Ġsh ape
Ġcor por
. ~
Ġstr ateg
ĠMex ico
Ġrel ation
ism s
ĠIt alian
p ers
h ab
Ġc ool
ĠW ell
Ġlet ter
Ġbuild ings
fl ow
Ã ¤
Ġ ut
Ġhelp ed
is hes
ĠAl though
am ing
w ar
ĠV er
Ġw at
7 3
Ġrepresent ation
Ġm ix
ĠCent re
Ġb ool
Ġlist ed
t em
Ġp oll
Ġinit i
ĠO ld
ig ration
L ast
Ġpart ies
Ġem b
Ġed itor
roll ed
Ġrele vant
4 00
Ġn one
Ġsp irit
Ġf ear
Ġident ity
Ġfour th
a ught
Ġc at
Ġclear ly
el er
H T
C R
Ġgu itar
Ġb attle
ĠCath olic
Ġext rem
} |
con tain
b i
ĠG en
Ġco ordin
Ġs end
stand ing
ĠPl ay
( (
Ġthink ing
Ġread y
Ġjo in
ĠT our
ĠH uman
asket ball
E X
ĠB oy
ed u
Ġwh om
as hed
om in
Ġide as
s pec
ĠIt s
Ġident ified
Ġb ill
D ate
if ically
p c
Ġcomp os
r im
Ġcon sequ
ĠN ote
ip ment
Ġar m
p an
Ġredu ce
Ġr ac
7 9
c ss
b ound
Ġredu ced
ĠH istor
ĠG ar
Ġd og
ĠSc ot
ack s
a o
J ohn
m ethod
Res ponse
Ġre asons
ues day
ari ant
re al
m ember
Ġa part
Ġadv ant
Qu ery
ĠP ower
ĠIs lam
ut y
Ġser ve
ĠE very
Ġstruct ures
ĠB u
q quad
Ġvis ual
Ġv an
Ġreg ions
l ock
The n
G B
{ {\
ang ing
Ġper haps
196 0
Ġtri ed
oper at
row d
Ġ Î
ĠPol icy
er em
Ġph il
Ġref lect
Ġdesc ription
Ġpol ic
ĠLe e
Ġus eful
ĠCh ief
Ġh ospital
ĠP enn
Ġne ut
ĠT able
ers ey
Ġn av
Ġh arm
Ch ar
B ack
Ġinterest ed
Ġinter pret
198 9
Ġen h
Ġlead s
Ġgo als
ĠB o
A m
ĠVirgin ia
Ġvict im
i ency
C lient
ren ce
ĠRec ords
ĠTe am
ce an
ĠC L
p ost
Ġt al
ĠAs ia
Ġk ids
ab ilities
operat orn
ar ant
D S
ro ph
us band
ri end
Ps i
Ġbound ary
y les
ĠM ain
ak istan
Ġform at
lic t
Ġelect ed
Ġit ems
om y
ĠIn formation
Ġdo or
Ġd ream
p o
k ins
ĠPar liament
Ġquant um
Ġit em
, -
ateg ories
ĠFor ce
operatorn ame
raz il
sc r
U E
ult ural
S im
ĠB ob
ul s
f alse
Ġv el
op l
ellig ence
Ġapproxim ately
U ser
EC T
O ff
Ġp anel
C ar
ĠSt at
Ġpro test
og en
ON T
Ġs ell
Ġra ised
r idge
pack age
ĠM il
str ong
á ĥ
ĠWe b
Ġdest roy
ell ed
em porary
ĠThe ir
art s
urs day
in ate
198 8
Ġ ;
wh ile
Ġcap acity
Ġpe ace
Ġcall s
Ġsa ve
Ġst eps
ĠYou ng
C S
Ġfe et
op en
Ñ ģ
Ġcreat ing
Ġstud ied
Ġwin ning
Ġend ed
Ġd edic
ĠIt aly
ĠD ou
Ġpower ful
T e
ĠThe refore
Ġresult ing
Ġmost ly
erm an
g ers
ĠD u
Ġn orm
ĠJohn son
ner gy
Ġb ottom
Ġt ick
Ġm ill
re es
Ġcustom ers
ĠL ord
cre te
Ġmaterial s
or a
ĠA wards
Ġla unch
( -
Ġsepar ate
h y
ect or
ĠDe v
Ġfound ed
Ġra re
Ġoffer ed
Ġsh op
& =
ĠM icro
Ġdiscuss ion
Ġappropri ate
ĠW ater
il ing
Ġke pt
ig ger
all ery
alle l
ĠM onday
G L
N ext
ER S
Ġ$ (\
ĠR E
% )
Ġw el
ian a
ens or
Ġre ality
k er
ĠE lect
ol ved
ĠSp anish
m ain
Ġf if
Ġse ctor
Ġ ]
ĠB et
Ġbeaut iful
Ġon to
Ġdev ices
Ġeconom y
comm and
he m
Ġveh icle
ĠT witter
}^{ (
nes day
f irst
ĠVal ley
ut ch
Ġp sych
res ents
ĠM ax
ĠComm unity
ĠG ame
ĠL ibrary
Ġj oint
Ġsen ior
Ġext ended
Ġold er
Ġmach ine
c are
ĠF ort
ĠJ ones
Ġown ers
Ġd aily
Ġp urs
ph p
Ġoffic er
Res ult
Ġsh ift
ĠLem ma
T op
Ġmot ion
Ġl atter
ac ement
Ġw all
est ic
E xt
Ġconst raint
s plit
ĠK ar
C P
ĠR ail
Ġatt ract
Ġch ief
sh ire
os oph
Ġorig inally
> >
ollow ing
; </
Ġmin imum
ch o
ĠM em
S U
Ġm iles
d l
Ġprocess es
Ġco ast
lic ation
Ġpart ner
fr ont
Ġwe ap
Ġofficial s
] (
M e
Ġhapp y
ĠW ho
Ġcontin ues
Ġinc ome
se ar
ir med
=" ../
Ġreturn s
ĠF ree
Ġrepresent ed
ourn ament
y er
Ġs un
f s
ĠS pecial
f ree
Ġc ert
Ġp ages
Ġprof ile
ĠP ac
b ul
Ġrepl aced
ian o
ag ger
ĠV is
ĠH aw
Ġfil ter
ER T
f it
urn s
ĠA v
Ġle aving
] [
ay lor
ĠL im
Ġr out
d i
Ġcult ural
Ġsaf e
as ure
ĠCarol ina
Ġshow ing
ĠT ri
Ġsu fficient
ock et
ol a
Ġlaunc hed
8 6
Ġbecom ing
Ġrelig ious
Ġtalk ing
ang es
Ġfr ame
Ġ& \
ĠS and
ĠEn ter
Over ride
Ġdiscuss ed
G o
Ġa ircraft
he ight
equ iv
Ġaud ience
ĠB as
St ream
Ġsus p
names pace
Ġst d
Ġa x
ĠHen ry
L A
Ġview s
Ġchall enge
Ġfam ous
Ġa f
Ġsignificant ly
s pect
Ġnot ice
Ġfor ced
======== ========
ĠSte p
Ġsp ot
N e
g ence
os c
oc ity
l ies
p ress
ĠR ef
maz on
el ess
Ġequival ent
Ġcar ried
Ġrem aining
Ġcertain ly
Ġregard ing
Ġrat io
k in
Ġsex ual
d b
l ig
ĠL iber
Ð¾ Ð
w a
Ġp icture
Build er
ĠSp ring
Ġd anger
Ġpl ot
Ġmeas ures
Ġappoint ed
Ġs amples
}\ \
ick s
Ġcl oud
ĠS ar
hen s
Ġear th
Ġcandid ate
Ġorgan izations
as er
Ġqu e
Ġex amples
Ġex ception
Ġc ategory
L abel
Ġfrequ ency
ind ent
ur ies
umn i
ĠW al
Ġp et
Ġsk ills
Ġst uff
ic an
Ġpro ceed
Ġme ant
Ġcon ference
Ġp ush
AT ION
Ġalbum s
ĠRe ad
Ġa head
Ġplan ning
Ġfram ework
Ġch osen
Ġl ayer
Ġcent re
Ġmay be
r id
Ġdr ink
in os
g color
Ġdescrib e
) </
j ection
Ġh usband
as te
c all
Ġlaw s
ĠE p
Ġto ward
g reg
Ġs yn
Ġpro pos
Ġbenef it
The se
ĠJ es
Ġest imate
G u
O per
ĠL in
Ġr ise
ĠM en
at ically
Ġcover ed
l ife
od ies
Ġr oute
Ġf an
ĠHe ad
> (
ivers e
ĠChrist mas
Ġestim ated
ĠCor por
go ing
} :
Ġg alax
ĠMed ical
e vent
ris is
Ġl ived
ĠĠĠĠĠĠĠĠĠĠĠĠĠĠĠĠ Ġ
Bl ock
Ġinvest ment
our ney
Ġexp ansion
ad ow
ys elf
Ġrem oved
g ener
con s
Ġorig in
Ġcontr ast
Ġh our
ĠF ield
Ġed ition
du le
y e
at i
act er
ĠSum mer
row ser
it age
ost on
O ther
b al
] )
198 6
Ġhistor ical
f unc
ens es
198 7
Ġbenef its
i pl
Ġsche me
c ar
Ġinter face
Ġliter ature
ith ub
ĠGl obal
clus ive
Ġc ities
Ġdam age
cl aim
Ġg one
How ever
Ġtest ing
( {\
Ġm obile
Ġ< <
Ġbe at
Ġhy per
Ġart icles
ĠM any
n ull
stit ution
ĠSen ate
in ations
Ġb rain
F T
Ġ ice
ĠÂ »
ri z
al ysis
Ġrep resents
| ^
H el
or ney
Ġpre fer
Ġmagn etic
ig inal
ĠH or
Ġstreng th
E W
cit et
< !--
Ġp il
Ġmus ical
Ġv ir
Ġapp arent
Ġcommunic ation
ĠI D
ĠW ay
Ġcon vers
ĠL og
Ġident ify
we ight
ĠF und
Ġrecomm end
Ġfore st
urb an
Ġbroad cast
Ġre sear
M ay
Ġhe ro
M C
R el
ing ly
Ġimpl ies
Ġnetwork s
ograph ic
Ġs quare
Ġunc ertain
ĠF amily
Ġ ~
per ties
ĠF ootball
Ġa uthors
ĠN Y
id ers
os es
Ar t
ot hes
8 9
Ġst ations
Ġv irtual
N ote
ar ian
Ġrem ained
Ġad vert
Ġvari ables
Ġno ise
Ġun s
ĠT uesday
d imensional
B ase
' $
Ġw ait
Ġfeature d
Ġsom ew
ĠB ow
E l
Ġsm ooth
ĠPol ice
p ower
Ġt rou
Ġemploy ees
Ġtool s
are n
I O
ĠE qu
Ġcould n
Ġtre nd
i ate
ĠP op
Ġdis s
opt ions
S ec
ĠĠĠĠĠĠĠĠĠĠĠĠĠĠĠĠ ĠĠĠĠĠĠĠĠĠĠĠĠĠĠĠ
Ġadminist ration
Ġcomb ination
Ġun iform
ĠWh y
ĠCon ference
Ġden ote
Ġw arm
ate ver
cl ient
Ġrequire ments
Ġcomb ined
Ġexc ell
Ġequ ations
Ġmanag ed
Ġfl oor
Ġs ession
m ond
ad ium
ĠSt and
Ġfil es
ĠJose ph
Ġit er
Ġexper t
Ġs av
ru it
In put
ĠE ach
he mat
Ġreve aled
b el
opy right
ph one
] $
Ġfund ing
Ġres olution
Ġdepart ment
E ar
ĠL ab
ĠA ff
Ġleaders hip
Ġf reedom
198 4
Ġres idents
ans as
} +\
Ġequ ipment
Ġand roid
L S
Ġgu y
ĠSecret ary
Ġviol ence
L ine
ĠWilliam s
Ġcons ult
ĠJ eff
u ations
ĠM ike
St atus
c ript
w an
15 0
Ġst reet
Ġl ock
Ġ( "
8 4
Ġtra ffic
ribut es
Ġrest aur
G l
Ġis land
Ġatt end
am in
ĠDes ign
Ġd rop
ist ers
un te
ok es
Ġspect rum
ĠF ederal
ĠSw ed
Ġb gcolor
and roid
ĠP akistan
ĠI d
qu ery
al i
ĠF urther
U til
ĠS ports
ch ar
ĠP an
Wh y
ĠJ on
D es
Post ed
W ork
ĠSec urity
Ġk ing
8 7
j a
Ġvari able
al o
ĠAb out
Ġl iber
8 2
S ome
Ġcr iminal
ĠCh ris
Ġcomm it
on ly
ĠP ubl
Ġmod ule
Ġd ivid
Ġoper ating
Ġb udget
am m
R un
ĠOb ama
loc al
i pe
Ġc ars
ore t
om ic
ol ve
ĠBl ue
ĠOr der
ĠE U
anc he
I ST
Ġch ain
f ill
Ġcompar ison
ir a
Ġag ent
Ġaltern ative
ĠTh ursday
Ġm yself
Ġex ec
Ġch air
st ra
Ġslight ly
oth ing
Ġdist inct
ific ations
Ġmet al
d s
pos s
umer ate
u ing
ĠChar l
Ġspec ified
Ġaward ed
ult y
ĠN ight
uss ian
ĠBrit ain
id el
T O
Ġfind ing
8 3
n ormal
Ġcr ime
Ġbig gest
ic ed
om ial
}} {\
ag ged
ĠII I
ent ed
Ġpolit ics
ĠJ oe
att ers
math scr
Ġinvestig ation
ĠE mp
ĠR ights
ĠM iddle
at rix
gy pt
Ġd oll
( {
Ġpat ient
g ithub
198 5
ipp ed
ĠC oll
r ich
ĠM u
f inal
Ġcitiz ens
Ġt end
ĠPol it
h an
ĠW all
ĠJust ice
Ġown er
yp es
in et
Ġcam era
Ġser ver
Ġp p
ĠIn ternet
s en
ĠC y
ĠWed nesday
ck now
C ons
Ġw ish
Ġ util
a a
ĠJ ac
Ġn et
g ency
ĠĠĠĠĠĠĠĠ ĠĠĠĠĠĠ
Ġpl ane
let s
Ġnumer ous
Ġlearn ed
uck y
ĠCol umb
T C
fin ished
Ġinter action
Ġtri p
Ġprote ction
ste in
Ġf ant
ĠE ll
he nt
A V
Ġey e
Ġcont aining
anc er
Ġrem ove
M M
ĠB ack
ish op
Ġdi agn
Ġcred it
Ġappear ance
ĠD own
l ook
ĠB razil
Ġrel atively
ĠH on
F e
R em
Ġent ertain
ĠMus lim
St art
ne q
Ġn or
ĠJew ish
Ġn ine
opt ion
} -\
et ime
d at
Ġra pid
ĠAnd rew
Ġp hen
Ġknow s
Ġdef ense
Ġfa ith
omet ry
Ġfail ure
âĢ ¢
Ġenvironment al
Ġf resh
Ġco e
Ġl ibrary
r l
ict ures
Ġachie ve
Ġl abor
Ã ¨
Ġt un
Ġcons ists
ĠG a
ock ey
ell er
sc ape
Ġwrit ers
ĠFrancis co
Ġopport unities
it an
add ing
b ottom
ĠC ross
ĠA ge
ĠAN D
ĠR un
Ġtechn ical
] \
c hen
Ġb ed
Ġconsist ent
or row
man n
Ġr an
mult icol
Acc ording
Ġs witch
ide os
ak a
ĠS up
Ġsm art
Ġf re
Ġc rowd
the orem
fr ast
ĠRad io
T oken
og rap
ĠA uthor
ĠC ard
k m
Ġexist ence
ĠK en
ĠN orthern
ĠH a
Ġiss ued
ĠB ecause
Ġex change
Ġm ist
N et
j av
{ }
du ced
app end
but ton
Ġform ation
Ġext ension
~ $
Ġoffic ers
ic ip
ĠB oth
erson al
ĠIr ish
ĠL uc
RE F
multicol umn
Ġnuc lear
ĠAmeric ans
1 000
ĠF ire
Ġm yst
ĠT ele
L ink
Ġ\ |
ĠSp ain
ĠT em
i ro
it ely
Ġhand le
& &
Ġr iver
M on
Ġr ich
Ġcomm ission
ent ry
ĠW ild
N ull
Ġexpl icit
Ġnew sp
Ġdr iving
ĠIn vest
ĠN ULL
Ġle tt
Ġstand ards
8 1
Ġf le
Ġstud io
Ġt ro
Ġra ise
Ġt error
col umn
Ġopin ion
Ġtell s
Ġwould n
ind ow
T P
and on
Ġ- \
H ome
ĠR am
Ġpe ak
ĠC ivil
ig er
Ġal t
in f
Ġsupp ly
rom e
Ġstart s
k o
mod ule
Ġd raft
ĠOr gan
R C
S I
Ġv oc
ĠN one
h ar
c s
Ġdet ail
Ġun ion
t arget
or al
Ġclass ical
ad ata
Ġtest s
Ġf ix
sec ut
19 50
Ġhe at
Ġspe ech
Ġn ative
Ġpos itions
AM E
n orm
Ġexper i
Ġsur vey
Ġyou th
Ġdevelop ing
igh ter
ĠR o
the n
leg al
B O
im a
on ym
Ġpolic ies
Ġbusiness es
r ical
en umerate
M in
con nect
ĠProfess or
n am
um s
d ir
ath an
Ġro ot
N av
ĠC A
ĠL ine
Ġa maz
ĠC EO
Ġsc ored
Ġn ice
Ġun iversity
Ġchalleng es
Ġv ac
h ow
ab eth
b ury
il ly
Ġrefer red
L C
Ġgover n
is er
p ir
Ġadvant age
ĠT H
Ġun known
in ity
Ġattack s
ĠT er
Ġpo et
Ġcre w
d ec
p y
Ġdiscover ed
Ġext ends
Ġconduct ed
Ġexecut ive
ĠM ot
Ġthan k
v ol
Ġdiffer ences
ĠS aint
b ell
Ġsee ing
ĠV an
Ġl ic
Ġact or
ple te
se lect
ĠC H
Ġun less
S D
} /
Ġr ing
v space
il a
ĠJ ersey
G ener
ik i
item ize
Ġmat ches
Ġphot o
Ġspe ak
ne xt
arg s
Ġm aps
Equ al
Ġmass ive
Ġbo olean
ĠW rit
ĠL ike
ĠT ype
Ġag reed
requ est
Ġtechn iques
Ġjob s
iv ery
Ġsing er
Ġprocess ing
ĠF ar
X X
Ġfac ilities
ĠU k
Ġdef end
) }{
ĠInd ust
Ġdec ades
s g
l aw
Ġsc hed
Cont ent
yl van
Ġexpl ain
ĠDan iel
Ġanim als
p g
ĠC a
el a
ĠAn y
Ġter rit
M et
ĠE X
ĠS outhern
if act
Ġvict ory
z en
Ġinc orpor
Ġex erc
int on
ð Ł
line ar
Ġfoc used
ĠCol or
if ies
Ġ il
Ġp an
Ġadj ust
es h
od d
198 3
d ep
Ġd ie
Ġo dd
Ġpl us
Ä ģ
Ġdim ension
P P
ĠE nergy
per t
Ġw itness
Ġmar riage
Ġent ered
Ġimport ance
IN E
Ġdedic ated
Ġdiv ision
Ġtyp ically
hent ic
Ġeffic ient
ĠB ase
) }$
P oint
Ġl ov
Ġexp ressed
Ġman if
Ġdr iver
b in
O ptions
Ġder ived
Ġmeas ured
Ġfavor ite
ĠMich igan
T Y
Ġgu ess
frast ructure
Ġse at
ĠDemocr atic
no indent
Ġclaim ed
Ġl ies
ser ver
ĠH ospital
Che ck
Ġbr anch
IN T
w rite
ov iet
1 20
Ġcont ribution
ph as
ĠP rem
Ġm olec
Ġsp aces
Inst ance
ĠA ud
ra q
ad or
ĠG al
Ġem bed
t ra
P i
ag raph
ĠIn s
ĠC amb
w ater
if er
ac le
ĠM id
Ġfl at
pt on
Ġfund s
ra wn
ĠCo ast
f ont
Ġsh ock
R I
ins on
ĠF red
Ġcontinu ous
ĠCar l
Ġst orage
Ġint ended
ĠHam ilton
\ ,\
Ġd ig
Ġarchitect ure
c over
Ġsp ring
ĠB oston
198 2
Ġsy nt
ĠJ r
ĠGeorg ia
* {
Ġp ure
ol es
Ġfund ament
Ġen em
amp ion
Ġown ed
Ġexper iments
v in
ap ed
Ġsc ript
tot ype
Ġc os
W rit
l ast
ĠG irl
A ction
Ġ- >
ĠScot land
$ }
head er
ri p
Ġm ixed
ĠSe a
m osp
Ġs qu
ĠT aylor
ĠL i
ĠPac ific
Ġdown load
ĠK ey
Ġthan ks
Ġre form
ĠT O
het ic
Ġbehav i
ĠPh ys
l en
Ġaut o
ird s
Ġdep th
ru le
ĠO k
od ed
Ġal gebra
appro x
Ġs ister
ĠStud ies
ĠE xt
Ġallow ing
Ġle aves
ĠL ast
V is
l n
Ġfl ight
he ast
? "
ĠAd minist
B I
te ger
angu ages
Ġseem ed
Ġfeel ing
Ġcall ing
ug in
W ill
Ġgu arant
au ge
Ġcon vert
d ist
ĠG ra
Ġher self
g a
Ġg ain
Ġare n
ĠS ir
ĠJack son
ĠA mazon
ploy ment
Ġs port
}} _
ĠQue en
Ġpol y
Ġbu ff
Ġobserv ations
n ic
197 9
D et
Ġadminist r
Ġimplement ation
Ġin equ
! âĢĿ
ĠS ong
at uring
ĠThe atre
d escription
Ã³ n
pl oad
ylvan ia
Ġthous ands
Ġexpl ained
Ġem ot
Ġextrem ely
ĠW alk
Ġl i
in er
ann els
Ġha ir
ĠApp le
ĠN umber
" ).
mat rix
Ġdet ailed
Ġpur poses
C al
Com ponent
Ġyour self
Ġext ract
Ġmag azine
Ġthe rm
Ġ rom
S m
Ġincre ases
ĠG re
ad el
Ġturn s
Ġcy cle
Ġconf irmed
c r
Ġmon itor
ĠA D
Ġtre es
Ġrem ov
Ġcom fort
Ġg rav
Ġvel ocity
Ġj ump
S pec
Ex p
Ġf ashion
Ġh ab
Ġanc ient
vi ation
Ġadd ing
ĠA R
so le
Ġmot or
ĠO bject
Ġs plit
Ġoper ators
Ab out
ĠE gypt
Ġst ress
Ġ" ""
Ġcirc um
Ġnot es
Ġc old
M ed
p a
ly wood
Ġa st
Ġhapp ens
Ġreg ional
a fter
ĠM ah
enn is
tr ack
ĠV iew
ĠAs ian
l s
ĠD ar
N umber
Ġpost ed
Ġm unic
ĠBook s
b u
Ġag ency
pro cess
p ool
ĠC all
Ġth rows
Ġsh ut
Ġconfig uration
ent h
. [
Ġv ision
P D
Ġf ellow
" ),
im g
ĠL ittle
Ġl ab
ĠL ight
ĠD E
Ġscient ific
Ġdistribut ed
ele ment
o ir
Ġbelie ved
Ġsim pl
Ġem pty
est ed
Ġveh icles
P L
a uthor
im ately
Ġcl ick
Ġto w
Ġchang ing
s he
Ġproced ure
l ib
epend ence
ĠSc iences
Ġinj ury
Ġex ternal
V ert
d es
ad ers
A ut
Ġin tr
ĠT w
Ġacadem ic
ĠRe al
em ic
ĠH y
sc he
Ġwe ather
Ġman ner
og y
ap pe
Att ribute
Ġhe nce
ĠB ern
Ġdoc uments
r s
ĠBe ach
Ġdram a
Ġgu ide
Pro v
ecut ive
Ġserv ing
D uring
g raph
198 1
Ġf uel
Ġconc ert
Ġind eed
B ook
ov a
Ġn arr
ym met
eng er
un ately
\ }$
ĠW ales
Ġpre par
cl ose
P T
^ -
Ġgl ass
B L
Ġtr uly
O pen
pl ed
un finished
re ct
under line
Ġdou bt
ĠĠĠĠĠĠĠĠ Ċ
Ġar bit
ens ions
Ġmain ly
st atus
ĠR ay
od er
Ġcre ation
ĠSp ace
ob e
se y
bur gh
ud den
ĠM ethod
Ġin n
Ġchem ical
Ġs ale
ĠAss embly
u er
Ġtrack s
[ "
Ġk id
Ġgirl s
Ġrecord ing
op her
ĠB ul
Tr ue
ĠN avy
Ġad m
Ġerr ors
Ġatt ended
AR T
ĠO x
Ġs outhern
l ines
Ġf ell
Ġreview s
) +
erv ative
pr ivate
Ġdel ay
ĠR om
Ġad vent
on to
P age
Ġneighbor hood
ĠPhil ipp
Ġsupp osed
D irect
= >
ad s
Ġbeg ins
p resent
Ġfl ag
ĠR os
un s
Ġrec over
Ġj ourney
ino is
Ġgener ate
Ġfor t
en ame
ĠOh io
u ps
Ġcandid ates
J ust
S O
AN D
pro ject
s ylvania
iz abeth
Ġs ustain
is c
Ġhous ing
Ġb asketball
Ġform al
atal og
r ate
}} }
ĠSte ve
H O
ĠTr ust
ĠL ive
Ġder iv
Ġapp rec
Ġpl ants
ur er
ict ed
F I
Ġaffect ed
j e
rou d
Ġarr ived
Ġachie ved
i y
Ġplan et
M O
Ġth ick
ear s
g ate
ĠK ong
Ġk ick
F unction
= {
Ġw ww
Ġp ool
Ġfig ures
c uss
' .
af e
Ġsuggest ed
Ġst rict
Ġp al
B ox
Ġloc ations
Ġcomp act
D esc
ex pected
ĠW at
Ġess ential
K E
ĠB al
ĠS om
ul ating
ĠG reek
Ġel im
B uffer
ott ed
Ġh ydro
Ġdem ocr
ĠOlymp ics
Ġc ouncil
ion e
Ġele ctions
Ġclin ical
st one
Ġauthor ity
Ġcount y
ĠRepublic an
ly n
ob s
ĠP ass
ition ally
us hed
ĠSt an
Ġweek end
Ġint ers
ĠU se
ĠP C
ĠW he
ro t
Ġcorn er
Ġ+ =
Ġarg uments
197 8
ĠF our
Ġs am
n umber
ĠChe ck
Ġg ra
ĠM aster
Ġis ol
ĠL o
Ġexperiment al
Ġdi agram
Ġact ing
er ies
ĠPro te
Ġform ula
V D
ĠĠĠ Ċ
Ġn orthern
F igure
Ġprodu cer
ĠBro ok
ĠF ood
Ġd ance
* /
Ġimpro ved
Ġt ournament
25 0
end ar
Ġaccur acy
ĠI raq
ĠEn vironment
197 6
Ġre nder
ili ar
Ġcur ve
Ġs ides
Ġhe aring
Ġfac ility
Ġcl uster
Ġb urn
Ġend s
Ġmarg in
ĠReg ister
ap es
Ġexcell ent
Ġin ner
Ġar my
M ark
Ġconstruct ed
Ġdynam ics
J an
Ġem phas
Ġcontribut ions
Ġgu ys
Ġinit ially
Ġact s
ost er
x ml
ĠP oint
ĠOn ly
Hand ler
ĠI P
Ġconcern s
Ġb att
197 5
Ġposs ibly
Ġwatch ing
Ã §
Ġexper iences
Ġdom in
L a
f ound
Ġmov ies
ay a
__ __
ĠC ur
Ġbal ance
R L
M en
ĠR og
ĠS at
Ġpartners hip
ord ers
Ġoffer ing
Ġqu ery
ĠL ear
Ġdat abase
val ues
ĠCh air
u ous
ut s
pt r
Ġadv ance
Ġjust ice
Ġse gment
Ġentire ly
Ġtre ated
Ġn odes
Ġconf lict
Ġal umni
Ġtyp ical
Ġsub stant
com es
Ġt or
Ġsub s
Ġc risis
l anguage
Ġspec ifically
Ġappro aches
bre ak
Ġthe rap
Ġr ough
yn omial
197 7
g ral
ch ild
Ġinstit utions
Ġm useum
st ances
Ġdet ection
Ġconsider ing
Ġm ental
art ers
Ġcharg es
aw a
ĠB ell
Ġse asons
Ġsupport ing
ĠH and
f riend
ĠL icense
Ġcover age
Ġmark eting
ĠS us
st ack
Ġpract ices
Ġthem e
Ġadv oc
ident ial
6 00
197 2
ann a
p es
Ġcharg ed
Ġpie ces
Ġadv anced
ĠN S
Ġcol on
Ġdep ends
ĠT oday
Ġadv ice
f a
F O
R S
Ġsett ings
Ġdec isions
ors hip
b ro
ĠSup reme
ĠBro ad
Res ource
ĠKore a
ir al
Ġhel ps
ĠK im
Ġp un
ro vers
Ġprof ession
ĠC at
P ort
ĠTh ree
ĠK ent
Ġf ish
pro perty
ell ar
ograp her
Ġaccept ed
Ġwh atever
Ġim plic
back ground
Ġinstr ument
at ial
Ġlist en
am ber
ĠAd v
Ġsound s
iven ess
D P
ĠN OT
ĠC ro
ĠMc C
Ġfav our
ĠR h
Ġre tain
Ġwin ner
\ '
Ġcomm itted
ir ty
ĠPr ime
ĠE astern
Ġcont ained
} '
ĠB ang
j i
ap se
n ight
Ġsu c
Ġre ject
ĠCh ildren
j son
Ġfight ing
it ory
Ġfin ish
Ġhold ing
? ?
Â ©
Ġfind s
Ġclass ic
ĠSu pport
Def ault
Ġb right
Ġcom plic
Ġhelp ing
osoph y
ĠM A
ol t
Ġl oved
rodu ction
Ġth read
Ġ era
ĠS her
ob j
Ġte aching
Ġb ond
Ġsugg ests
Ġass ign
197 4
or ough
ĠF air
text rm
Ġpl anned
ual ity
Ġsc ope
Ġpartic les
Ġinc ident
ĠN av
s pe
Ġide al
ĠR en
Ġamaz ing
Ġsp end
Ġp it
x x
AL L
Ġtw ice
Ġsem i
ĠSt ory
P RO
ĠEmp ire
Ġsc al
Ġmet ric
We b
c oh
F actory
Ġacc ident
et ch
D av
Ġat mosp
yd ney
ĠHar ris
Ġprov ed
Ġ _{
Ġthe orem
ur d
Ġinterest s
ĠL y
te en
" ]
Ġch ampionship
el ly
ĠN ame
ES S
us al
M ax
Ġin fo
Ġex pos
serv ice
ĠI T
se ud
Ġv ary
Ġredu ction
and y
Ġs leep
ĠGu ide
te gr
ĠPenn sylvania
ant ly
et ts
ĠW is
und le
L oad
d eg
ot al
bl ack
c at
b uf
if fer
Ġdatas et
Ġinsp ired
Ġv en
ak ed
r as
act or
t ag
ĠF inal
A re
ĠAg ain
Ġs an
W orld
res hold
Ġ( (
197 3
Ġhigh light
al g
poss ible
Ġupd ated
ĠS hed
ĠK enn
Ġeven ing
OR T
Ġan imal
Ġpol ar
Ġhot el
ĠS ep
Ġpurch ase
Ġorder ed
f ind
Ġauthor ities
Ġl ie
ĠC ode
S H
ĠPr ince
ĠL ink
i ples
Ġret ail
Ġsuc ceed
Ġc art
Ġcol lected
Ġelect ron
Ġsecond s
cont in
Ġus ual
Ġhom es
Ġelect ronic
ps on
Ġg rew
ĠA sh
new s
omet ric
Ġst able
min us
old er
ĠH ard
Ġp owers
ur i
ĠCom put
ĠV ill
// /
app ed
196 8
f aces
ĉĉĉĉ ĉĉĉĉ
ĠW in
ĠG ener
Ġmed ium
u zz
8 00
ĠA ction
Ġmark ets
}} _{
Ġtra ined
s d
ple x
Comm and
Ġannoun ce
ĠP age
pro d
Ġoccur red
ra ine
P M
ĠD C
eb ug
= #
Ġcl ients
ĠGu ard
ĠL ew
Ġaspect s
Ġcomm ittee
ern el
Ġwa iting
ĠF ox
ut ely
A c
ĠH ig
Ġfr ag
1 10
AB LE
ĠH T
Ġpers pective
Ġalleg ed
V ersion
ĠSe ason
Ġwe alth
ĠC irc
Ġa cknow
Ġse ctions
Ġphot os
}^{ -
Ġhor iz
d im
ev in
Ġrem ark
ĠC ost
Ġhous es
Ġact ress
ĠWil son
Ġindic ate
Ġexpl ore
S L
ĠPh ot
ĠN et
an es
Ġ{ @
ĠCorpor ation
S l
Ġprop ag
S che
Ġregister ed
V ER
Ġg ar
Ġe igen
ĠIll inois
Ġport ion
ud es
ĠE th
j ust
Ġca ught
ach us
Ġre action
Ġsc atter
ĠSu pp
ast ers
h r
ex ample
Ġinc red
197 1
Ġpro min
ĠS oviet
ĠEd ward
ff ect
if ts
D I
Ġv ent
s up
St at
Ġ urban
Ġwid ely
N ational
M E
ĠH ong
em an
Ġbr idge
Ġord ers
Ġcomp are
C reate
s rc
Ġappro ved
The ta
Ġb ow
ĠI ss
Ġkeep ing
ap ore
Ġrepe ated
T wo
Ġm el
k ing
\ "
ĠB BC
Ġ$\ {
pe ople
Ġdefin itely
ĠMod el
ĠAn other
Ġdeg rees
P op
Ġlarg ely
Ġmed al
Ġfootball ers
n um
S ty
le ments
Ar g
Ġest ate
Ġread ers
A ust
form at
su pport
Ġprep ared
ĠL ie
Ġstrong ly
er al
e z
Ġcalc ulated
Ġindust rial
Ġaud io
Ġhon or
form ance
Ġcar bon
Ġphen omen
ĠDon ald
an th
Ġs oul
Ġv ideos
196 9
Ġca uses
force ment
ĠSt ation
olog ist
ri ate
enc ing
P at
Ġa wards
Ġha ven
Ġb omb
ĠV ideo
Ġpack age
W E
ĠC orn
Ġassoci ation
Ġcustom er
F urther
m t
ist ant
ĠA L
Ġsol ar
b ass
sh ow
Ġact ors
Ġnear by
ĠUn ivers
Ġabs or
} );
Ġcreat ive
ar c
ain e
Ġsp ons
Ġneg ot
$ _
em ble
ew idth
ĠAn th
Ġmin im
Ġanaly t
are t
Ġoff set
Ġreg ime
Ø §
Ġw estern
V ID
D ec
im er
ĠMore over
Ġor ient
Ġarbit r
}} ,
Ġmechan ism
ĠE st
ĠL td
Ġdec ade
Ġengine ering
ĠIn it
Ġs ac
ĠB attle
ĠM ajor
ĠG i
P H
ĠP en
ell o
ne ctions
S ON
p ush
h igh
ind s
ĠMicro soft
Ġvol unte
Ġpar allel
or i
Ġre pro
Ġsur g
Ġhe av
ipp ing
ĠR a
Ġb an
Ġang le
ou ble
ist ration
ter ed
Ġbring s
ĠM ir
E v
{ $
Ġre li
ĠM ult
Ġstand ing
ele te
Ġs pl
Ġadopt ed
Ġco al
text tt
ĠN on
Ġm ent
Ġexperi enced
Ġag ents
ist ical
Ġper man
wh ite
ĠCon f
pr ise
< \
Ġopp os
ref ix
Ġfundament al
oc us
Eng lish
Ġp od
ist ed
) /
Ġp rices
ĠB a
p op
Ġf iction
m eta
ug by
gr ade
19 30
v ard
on ia
Ġpr iv
ont al
Ġlo op
erv es
Ġjud ge
F R
Ġdeb ate
Ġocc urs
ph ia
ĠWind ows
h ire
w orth
Ġn arrow
19 40
Ġbro ken
v ements
am i
Ġm ir
Ġfl ux
ĠC apt
ab il
achus etts
M D
. âĢĻ
N ov
S R
ĠB ad
An y
Ġv ot
Ġestim ates
U I
Ġmoment um
w orld
l ers
ĠR od
Ġs oc
ell i
ord an
Ġprim arily
Ġm ort
ĠF re
C urrent
ĠB on
Ġrece iving
Ġintrodu ce
Ġb ass
ĠL abor
l ik
T ask
Ġcom edy
Ġl ose
im ary
el i
ĠO R
er g
Ġ iron
Ġear ned
end if
ĠEx ecutive
Ġsub set
ĠMed icine
Ġsub sc
il ation
R ow
Se lect
foot note
Ġconcern ed
ĠS ign
Ġpartic le
N O
Ġ icon
I B
Ġfe aturing
s ign
Ġh idden
Ġmark ed
ĠE nt
Ġprofess or
ĠA k
Ġgreat est
ĠP lease
Ġro les
ou red
n i
Ġvers ions
c ard
fr ame
ĠÂ ·
Â °
Ġrelationship s
Ġpolitic ian
res ponse
Ġcy cl
Ġcont emporary
S earch
as i
gorith ms
Ġread er
e ah
ĠLat in
Ġg ender
ĠU r
it o
Ġhistor ic
Ġb atter
ĠP ers
it led
c alled
Ġr ul
Ġtask s
Ġdom estic
id ae
adel phia
( &
Ġcon ven
Ġ\ ;
Ġs udden
Ġl ay
r ange
Con st
Ġsurround ing
Ġprote in
con f
Ġab use
Ġ( -
ĠC ase
r at
inst ance
y o
ĠO p
Ġar ms
ĠM ic
ĠCl ark
Ġclos er
aw n
L ocation
ry pt
opl us
) |
{ {
ĠS a
r ant
out s
is a
Ġrecogn ized
Ġopt imal
Ġsuccessful ly
Ġindic ates
ab b
Ġlim its
ress ive
Ġwor se
Ġpol ynomial
ĠV iet
ĠT erm
ĠA T
Ġpen al
ĠEl izabeth
un a
eg o
Ġint elligence
Ġpass ion
F ONT
Ġf lex
up date
in v
Ġrespons ibility
i able
Ġv acc
$ {
Ġbound ed
T em
ĠOn ce
Ã ±
Ġpro port
Ġstat istics
se cond
ĠW ars
Ġbring ing
Ġpass ing
Ġsec ure
Ð »
//////// ////////
Ġf illed
ĠEngine ering
ĠC ook
nav bar
th ur
m ic
align ed
_ *
ru ption
i ated
196 7
Ġstop ped
Ġhum ans
Ġmeasure ments
Ġin frastructure
Ġsk in
Ġmin ister
Ġparticip ants
ĠA venue
Ġwin ter
UR L
ĠM ap
Ear ly
av or
Ġinvol ving
19 45
bt n
Form at
ĠRep resent
Ġs we
ĠColumb ia
rop y
In it
Ġc ash
W ell
Ġin ternet
let on
Ġc e
Ġsecond ary
Ġresear chers
um es
un ting
Ġassum ed
c ut
Ġrepl ace
en ess
ing le
ĠComm on
Ġl it
C ON
Ġver tex
ĠJes us
Ġ\ (
Ġpro tocol
$ (
un it
ĠL ook
ist ent
Ġepis odes
Ġass igned
ĠM O
ĠN C
p et
enn es
Ġp ed
ĠD am
ĠM arg
Ġposs ibility
iam ond
m ut
G A
Ġch annels
10 1
c f
Ġst orm
ain ts
Ġtop ic
ĠD aily
lin ewidth
Ġdist ingu
Ġdynam ic
Equ als
Ġg auge
subset eq
Ġt on
ĠStep hen
ag a
ce ived
el se
Ġmot iv
Ġgu ard
Ġl anguages
O h
Ġsh ares
Ġdep ending
og g
Ġf ra
Ġch art
b as
ĠA ccess
ĠM P
att ice
Ġhon est
Ġper t
Ġdel ivery
Ġprogram me
Ġl iqu
Ġcirc le
a ug
Ġeffic iency
d esc
se x
ĠD igital
ĠL ocal
A Y
T ag
S M
C are
Ġmom ents
ĠM ember
ĠJ am
Add ress
Ġsub t
. ;
const ruct
ir k
âĢĻ .
Ġinter actions
ens ed
re nder
Ġacc eler
D escription
ĠP y
Ġocc asion
Ġvoc als
Ġem ission
ess ions
ic ial
ĠAd am
Ġ$ |
ĠVictor ia
Ġeas ier
k es
ul pt
Ġinstit ution
ĠComm unic
A F
s or
Ġf ont
Ġdis pl
Ġperform ing
Ġserv es
Ġalong side
Ġz one
ĠR on
ĠH om
Ġag ric
ĠN ick
Ġrecogn ition
Ġed ges
Ġl icense
iv ial
196 5
ĠR aj
Ġdo ctor
Ġcomp re
Ġrelig ion
Ġmin ute
Ġcapt ure
ĠDav is
ask a
in ating
ĠO N
AC K
contain er
V er
Ġext ent
ĠH ence
ĠM att
C ase
w ing
Ġtrans formation
Ġabsol ute
Ã ¢
Ġclass ification
ĠOx ford
196 4
Ġoppos ite
Ġg ap
ĠAre a
ĠB all
h u
Ġad ult
O K
Ġdro pped
Ġstat ements
Ġstand s
Ġspe aking
Ġf raction
i ary
ixt ure
M r
Ġre nt
Ġfe els
" =>
cal e
ĠN ext
writ er
d y
imens ions
Ġdescrib es
comm on
tt p
ock s
Ġshoot ing
Ġpolitic ians
. /
fort unately
set minus
ĠIs lands
red it
19 20
B est
ĠS af
oper ation
ov en
P O
Ġcl ust
ĠS on
ĠB ru
ff ee
Ġsh ips
ĠB and
Ġn ob
Ġacqu ired
Ġcont rovers
ow nt
^{ -\
Ġprom ote
D ep
ĠÂ ©
nes ota
C or
os a
Ġwill ing
Ġins urance
Ġc as
Ġdec ay
ow a
ĠH REF
Ġcorpor ate
Ġ ðŁ
ĠMin istry
Ġrec ip
Ġf ill
b les
Val id
Ġdeliver ed
Ġen able
Ġele v
Ġ( $\
âĢĻ ,
Ġl osing
ĠMass achusetts
def inition
Ġsch olar
Ġm atters
asc ript
Ġclos ely
Ġwor st
the w
Ġpattern s
Ġfam iliar
Ġfunction al
n eg
ĠD ark
Ġcont rolled
ic ious
Ġexp on
Ġpublic ation
Ġb ands
ĠEx per
Ġsold iers
iss ions
Ġconf irm
ind u
ï ¿
ĠJ ean
ĠChampionship s
a ver
Ġa thlet
Ġw arn
ĠM ill
m o
ĠGover nor
L ength
ĠD utch
ĠS pec
ĠS C
Ġt ag
d el
ĠTor onto
ĠFore st
Ġexpl an
iction ary
Ġnew ly
Ġconf idence
B U
Ġorgan ized
ent er
Ġweap ons
Ġinequ ality
N on
sh ift
ĠPort ug
ĠCon nect
Ġblock s
Ġfl ood
. '
Ġman age
Ġdivid ed
l ayout
f ast
Ġ url
Ġs quad
T ags
Ġeval uation
Ġaff ord
Ġtechn ique
Un iversity
ĠTh rough
s ol
Le vel
ĠW el
con sin
Ġrad ius
Ġs and
T ube
ĠAP I
ar ry
Ġaccount s
Ġassum ption
L ocal
ĠC ru
ain er
eng ers
S um
ĠA li
is lation
E very
S ign
U RE
y ers
Ġtechn ologies
ï¿ ½
ĠC R
ol is
Res ults
ol s
Ġp ra
ann er
w edge
s es
Ġpr ivacy
J o
Up date
ĠC as
Ġaccur ate
ym pt
ĠOn line
ĠUs ing
Ġinte gral
ab et
! "
se ct
ĠBr ad
. $
Ġar ts
R ight
ER R
Ð º
ĠD NA
Ġesc ape
c ases
Ġthe oret
Ġm il
or gan
ĠR equ
ĠCount ry
n amed
ades h
Ġpart ial
Ġdrug s
B R
ĠCont rol
iz z
r ons
ĠĠĠĠĠĠĠĠ ĠĠĠĠĊ
ĠH ay
Ġw ire
ĠS anta
cl os
Ġb odies
ix el
ĠAlex ander
Ġfif th
Ch rist
Ġconstraint s
M T
Ġa id
t ask
Ġindic ated
ĠScott ish
Cont roller
ĠB at
= (
Ġv ul
ST R
M at
ĠE vent
men u
Ġch apter
Ġexc ited
An other
ars er
Tr ack
ĠO nt
br id
Ġarrest ed
S w
Ġh ole
H is
he red
Ġp roud
Ġg ather
ro g
Ġcamp us
Ġh all
Ġw ins
ar ia
ĠR est
Ġvis ible
Fil ter
Ġput ting
Out put
sc ope
h av
Ġsign s
Ġ$ [
ak i
Ġscen es
\ }
ru ctions
ĠBl og
Ġte en
A ccess
Ġend ing
ĠS ydney
ĠW atch
Al though
Ġcook ies
Ġun able
ĠW here
Ġm ask
196 6
Ġf at
Ġr ural
Ġmess ages
ĠB ra
T ra
ĠDe ad
sk y
ou ston
param s
Ġask ing
D D
he rent
ir ms
ĠR ight
ĠY es
Ġsh aring
r ance
k it
Ġmod ified
ĠMag azine
st ood
ĠC ON
ĠCL ASS
riz ona
ĠA st
pro v
ser ve
t ree
Ġult imately
Ġoper ated
ĠV en
ivers ary
Ġsim ulation
iam i
e en
ĠO bs
Ġc ab
bour ne
D em
Ġb ought
oll ary
ĠB ol
miss ions
Ġleg isl
Ġt aught
ĠE s
Ġtit les
Ġcomp osed
Ġperson nel
ĠT am
Ġc overs
Ġcon vent
l ow
Not es
A uthor
Ġapproxim ation
ĠBer lin
ĠF ile
hens ive
Ġe at
Ġmount ain
Ġr is
Ġext ensive
out put
Y es
Un it
B r
el lect
ch ron
ĠSt aff
ic ide
D ev
st d
Ġt ight
Ġcou pling
Ġst one
Col umn
im ages
Ġhundred s
Ġra in
Ġy es
Ġf ly
ĠN ations
b oy
Ġdanger ous
og ene
Ġsymmet ry
Ġseek ing
fil ter
Ġins ert
su per
ĠSing apore
Ġsupport s
Ġnewsp aper
k ind
ĠF inally
Ġkill ing
Un ited
sh op
Ġpr ime
ic ian
Ġac id
List ener
th on
og ether
ĠHistor ic
Ġappe al
Q L
-- -
at tr
oun sel
k et
Ġc erem
Ġlink ed
sub figure
ĠD ate
O b
ript or
Ġsp ending
d x
ing ham
anche ster
Ġt ail
L ong
ve ctor
tain ment
_{ (
Ġr ig
fl oat
Ġfact s
Ġperform ances
G E
Ġ$ -
ĠC ub
Ġun f
Ġd ual
ĠF ord
ang ers
Ġcommon ly
Ġaccom pl
D B
ĠPro position
ou ri
ak h
Ġcap able
Ġyoung er
Ġnumer ical
Ġtalk s
Ġf estival
ĠS uch
Ġd ry
_ +
CO L
ĠP rom
Ġear n
C ell
Ġ[ ]
Ġprogram ming
S ch
Ġfor g
M ost
pro to
ad ed
Ġrepresent ing
Ġrec all
Ġ ing
Ġdec ide
omorph ism
Ġtr uck
osp it
ik a
Ġdefe ated
Ġt elling
ĠA h
P o
Ġcomp ute
Dav id
ether lands
ĠM iller
Ġm and
Ġv ess
Ġreg ul
Ġp airs
Ġst ret
ire ment
Ġemer gency
ĠI mm
ĠF ac
( [
ĠHar ry
B o
Ġb aby
ĠS em
à ¦
Ġworld wide
d irect
Ġeduc ational
Ġeffect ively
Ġmod es
Su pp
D own
ar on
ĠProv ince
Ġobject ive
Ġconvers ation
az a
Ġpost s
ĠColor ado
Ġgrant ed
Ġprinc ipal
ach ment
Ġd rawn
lim its
ann ot
Ġimplement ed
ĠS E
Ġmeasure ment
ĠR yan
Ġc ategories
Ġvictim s
ĠInst ead
r ine
all ow
Ġgr id
Ġfrequ ently
ĠMar sh
ĠSo ft
Ġf ol
Ġcons c
ip eline
pre ne
Ġexpl o
ef ined
ĠE ric
Ġteacher s
ĠR ome
Ġtr igger
ĠĠĠĠĠĠĠĠĠĠĠĠĠĠĠĠ ĠĠĠĠĠĠĠĠĠĠĠĠĠĠĠĠĠĠĠ
ren cy
Ġs now
P ack
ĠB rian
P I
Ġv eter
B rit
Ġcollabor ation
' ).
ynam ic
ĠK now
ann y
Ġfil ed
a is
ĠS ant
Ġcorre lation
ĠL ow
Ġestablish ments
ib li
ĠHot el
H z
Ġthought s
ten ance
Ġto m
ag ues
Ġclub s
m em
im ation
t x
Ġag encies
), \
Ġext end
Ġmor ph
Ġret ired
Ġintrodu ction
Ġsubsequ ent
Ġtro ops
Ġattempt s
Ġt um
oc ated
\! \!
Ġsw im
p erson
is ode
Ġg ene
z ero
ĠSh ort
G eneral
sh ot
D O
Ġm outh
Ġ* *
Ġpers ons
: \
Fr ame
or ry
Ġarr ang
ym ph
Ġfeed back
Ġal gorithms
Ġlett ers
A g
app oint
um a
Ret urn
ile y
Ġassess ment
le e
Ġscient ists
Ġdis k
AG E
Ġres id
ĠC reek
sh ould
âĢ¦ .
Ġre new
D C
Ġsol o
Ġreport ing
Ġrail way
Ġfor get
Sty le
ĠMark et
ĠF ull
ĠT urn
re prene
ip ality
Ġc ro
s uch
ect ed
Ġin tern
rem ove
ĠC re
aw ay
iss ue
reg on
Ġexper ts
196 3
S outh
ri um
it ivity
ĠHol lywood
ĠH o
Ġc raft
P ublic
ĠCamb ridge
Ġsche dule
Ġsol ve
Ġsatisf ies
ĠTur key
Ġhab it
Ġrepresent ative
fer red
Ġab andon
ĠPh oto
eder ation
Pro ject
ĠG ro
Ġcapt ured
C ache
**************** ****************
ĠF C
Ġwhere as
re ll
Ġint ent
Ġprinc iple
includ ing
Ġres c
Ġcons umer
Ġsim ulations
ĠS av
Ġt ack
Ġsp oke
ag an
Ġtal ent
ĠIn f
Ġdestroy ed
a us
le an
Ġfind ings
Ġtw enty
Ä ĩ
igr ants
Ġim possible
Ġm ac
ĠJew s
in ite
Ġpract ical
Al so
R ed
Ġex ceed
il ib
St ud
Ġ urg
Ġv otes
O p
ĠN FL
Ġopp osition
ĠH u
ĠL ady
Ġbehavi our
T A
ric ts
Ġpay ment
qu ir
t an
' \
B i
à¤ ¾
d agger
Ġtrans mission
ĠPhil adelphia
ĠJ enn
ne ver
ffic ients
ĠCh ild
Ġqu ad
l ights
put e
Ġl y
Ġscen ario
ĠH op
Ġmin imal
ĠM ach
_{ {\
ĠAdminist ration
D R
; "
ĠDes pite
#### ####
j pg
Ġrev olution
col on
ĠE N
Ph oto
ĠBro ther
Ġboy s
Ġbut ton
ĠK at
H L
ĠTr ue
Ġenc ounter
< ?
G R
ĠB efore
ok ing
Off set
New s
u able
G en
Ġ< !--
Ġcorrespond s
Ġcomp osition
Ġsil ver
ĠN a
q l
fl u
Ġstrateg ies
ĠJ er
Ġbo ost
on al
end ix
ĠS n
rick et
Ġvisit ors
h ard
Ġg od
Z E
mer ce
s i
Ġobserv ation
Ġs ad
G C
N ames
big g
Ġo vers
_ .
Ġrem ote
Ġsomew hat
}} (\
Ġabsol utely
iv als
ĠBel g
ĠPal est
aw s
Ġr ide
C lick
ĠGold en
o es
Ġcont est
c i
ail ing
Ġinst alled
ĠCon st
' _
Ġreason able
ĠPol and
Ġf aster
U K
Ġcharacter istics
Ġe c
Ġsp atial
ĠT ony
IG N
Ġdecl ared
Ġf asc
Ġtrad ition
Ġexerc ise
Ġc m
Ġexpand ed
M ode
W here
el d
ic ity
jav ascript
un ct
Ġst ick
mod els
Ġrestaur ant
ent ity
ers e
ĠL iter
ĠH as
Ġstri ke
Ġenjoy ed
h ol
Ġbase ball
S ection
ul us
Ġs elling
Ġemploy ed
Ġmov es
Ġk it
ĠPr ivacy
But ton
Ġtrans lation
S N
Ġd iverse
Ġgood s
Ġintegr ated
ĠP ay
Ġv ast
Ġ| \
Ġy ards
P res
ĠRev olution
text sc
Ġvert ical
ĠB C
ĠLew is
ĠCl inton
v y
Ġcall back
ĠMin nesota
ut r
ĠP R
Ġdeb t
ĠT al
ĠSt art
ast y
Ġm eta
d ed
Ġne ither
Ġnecess arily
Ġpert urb
and ra
~ $\
Ġbuff er
ĠAnt on
Ġvert ices
% ,
Ġcontrol s
ĠP ot
Ĥ ¬
ĠG allery
ult ane
ester day
Ġassist ance
Ġ }\
ett ings
ĠCl in
an z
r ase
ĠI V
Ġsu it
ĠEx pl
Ġrel ax
ific ate
Ġwel come
ĠChe m
Ġad ults
Ġdisc rim
anch ise
M ich
Ġl ayers
Ġcon j
ĠOnt ario
ir ation
ater n
Ġwas te
Ġv irt
y ou
Ġw aves
ĠTrans port
Ġam plit
U rl
ribut ed
Ġd ust
Ġse ats
et ies
b en
ĠCon stitution
ĠD ream
ĠWis consin
Ġres istance
M ult
ĠC ulture
196 2
Ġtherap y
Param eter
ĠD O
ro ot
se ason
`` `
Ġinter val
Ġon going
B undle
ut t
ĠD om
ir th
y ard
Ġaff ili
âĢ ī
O ct
H igh
ĠD un
ĠP ack
Ġcircum stances
Å į
c raft
Ġwonder ful
ord on
ĠT ok
ĠFore ign
= -
Ġvis ited
Ġpropos al
........ ........
m ad
gh an
el le
Ġshe ll
ubl ished
ĠM oh
Ġspect ral
ĠL es
ĠBr idge
Ġb anks
Ġre venue
B efore
A p
Y ear
Ġinvestig ate
ĠH ung
ast s
ib ilities
ĠHe art
ĠAff airs
ĠDe ath
Ġsever e
Ġc ensus
Ġmag ic
e h
ĠD er
Ġcl ar
) _{
Ġdis appe
Ġex clud
Ġgalax ies
ĠS i
ĠM and
B M
T ER
v o
ut en
Ġfor th
Ġent ity
ĠB udd
ĠDis ney
it ative
Ġresult ed
ĠO t
Ġass ets
Ġhor se
Ġso le
Se cond
Ġfound er
ĠOffic er
Ġinte ger
Ġev il
ĠPri ze
al let
ĠSc he
à ¸
E ach
ĠG ree
Ġopt ical
ä ¸
Ġsum mary
Ġhealth y
Ġleg islation
h om
Ph one
ĠG reg
Ġhyp othes
A ug
h or
ĠAr gent
coh ol
P U
Ġupd ates
Ġphot ograph
Ġsym pt
ĠS ab
ĠSystem s
empt y
Ġob serve
Ġw alls
end a
Ġpil ot
ĠGr ant
rie ved
Ġassist ant
t wo
ĠF all
Ġpromin ent
D T
Ġcop ies
Ġm ine
ĠR ose
act s
16 0
ĠN az
T arget
Ġimmedi ate
Ġb ra
Ġenh ance
f ol
b ot
Ġqu iet
ĠO cean
et ary
Ġwalk ing
ĠT en
Ġ ri
hold er
Ġth reshold
Ġmiss ed
Ġsched uled
Ġsk y
ĠOffic ial
~~ ~~
] ]
Ġp ictures
cont rol
Ġunivers e
Ġstre ets
Ġl ots
Ġexpos ure
Q ue
U nder
Ġcon nections
)\ ,
Ġg ift
Ġcon clusion
OR D
Ġsu itable
Ġincreasing ly
d rop
ĠYou Tube
ĠN AS
Ġben ch
f i
ell ite
eff ect
f iles
idel ines
Ġgu est
f ire
ĠCh annel
y al
ĠFurther more
Ġturn ing
Ġcomb at
ĠN etherlands
sub subsection
Ġprom pt
g ments
b ec
st ep
est ion
ag g
Ġintegr ation
requ ire
Ġsus pect
II I
Ġsuff ered
ĠSt ock
Ġacc ord
return s
Sc ript
ĠG er
Ġunder lying
ell s
ĠS N
Ġres on
St r
es ides
tern oon
Ġoffic ially
ĠSt adium
che stra
Ġd ialog
196 1
Ġaccom mod
off set
u z
am ely
ĠS ound
ĠC ustom
Ġbre aking
Ġacc used
w ick
Ġcur ves
Ġfac ulty
Ġw ing
Ġtest ed
Ġtot ally
Ġh its
ĠAg ency
st yles
let ed
d est
arch y
Ġleg end
Ġsing les
Ġl en
ag en
u pp
Ġcol our
ĠBuild ing
ĠW inter
Ġapparent ly
Ġopp on
Ġwe ar
r ig
Ġdistribut ions
Ġb inary
Ġ> >
Ġtem plate
Ġair port
B E
Ser ver
te ct
% .
es ome
Ġp apers
rib ed
Ġsurpr ise
ĠT ai
UL T
Ġst ores
ĠK ansas
Ġd ress
Ġf aces
Ġsubsequ ently
S k
ad i
ĠCol lection
Ġexhib ition
Ġm al
d oor
Ġv o
ĠS O
ĠJ ordan
ĠA z
ĠK evin
W rite
ĠB ush
Ġsent ence
s ystem
s ur
Ġpl ate
: </
ac ent
OR M
Ġeas tern
Ent ry
ĠN O
a ire
}^ *
ĠMem orial
Ġreturn ing
ĠA rizona
Ġor b
ound ed
ĠAtl antic
Ġimpro vement
L P
un ter
n ie
per ial
su ccess
Ġr id
Ġsign als
inem a
L ayout
}$ -
194 4
med ia
++ )
Ġexpl ains
or ne
ĠHow ard
ĠMount ain
ac cess
Ġsubject s
br ace
) ^{\
Ġcomput ed
Â ®
Ġpl enty
T ypes
ĠEnter tainment
ĠS oc
St ar
ĠM ake
ess ed
Ġil legal
Ġcover ing
ennes see
Ġcont ribute
ic ians
Ġvul ner
Ġe cho
put ation
Ġphys ics
ĠPr inc
12 5
ĠSk y
Ġcomp ens
i at
Ġtrans action
ĠN ever
Ġr u
ĠL ind
Ġfac ilit
ĠTur k
Ġext reme
Ġst ability
m c
Ġdr iven
Ġs ight
ĠS ite
j u
Ġarbitr ary
ble m
ul i
Ġst ood
Ġpurch ased
f ull
ĠG il
ĠLab our
Ġsing ular
pl om
Ġs itting
st al
ĠMr s
Ġproper ly
Ġpot entially
Ġemot ional
clus ions
ĠH ouston
D ist
Ġro of
Ġfl oat
Ġres erved
ĠF uture
Ġpres ents
P lease
Ġmass es
par se
Ġcon ve
Ġrecomm ended
d ocument
Ġbu nd
ĠR oss
AP I
Ġunder stood
T ree
Ġtransfer red
Ġdocument ary
Ġatt ribute
end ment
Ġhe ll
Ġautom atically
for ward
qu arters
au x
Ġapplic able
() ->
M B
rib le
Ch ild
ra ined
Ġterrit ory
Ġhost ed
) }(
G O
ĠC ond
M any
ĠC reat
ĠRet urns
V ol
medi ate
Ġcomplex ity
ĠKore an
Ġcoe fficients
ĠH art
Ġcommit ment
Ġtem por
ĠTh ose
ĠMod ern
els on
Ġir re
Ġex cess
point s
=" ../../
Ġass ault
Ġexc iting
Ġinter ior
Ġexp ensive
ĠIslam ic
Î ±
Ġoper ate
ĠH al
Ġ$ {
u ency
IT Y
for all
ĠC ab
E q
Ġc ards
ĉ ĠĠĠ
Ġemploy ment
pro totype
ĠEX P
cuss ion
d on
Ġsc ulpt
12 8
Ġre ferences
ĠB ox
Ġf ab
M R
Aust ral
ĠM iami
Ġbro ke
ch a
Ġfac ing
as p
Th us
Ġtra il
lement ary
Ġrob ust
Ġst im
ĠLe on
Ġentertain ment
Ġv ice
ĠHol y
Ġlo an
i ot
Ġg iant
Ġmill ions
ĠDemocr ats
Ġo k
Ġm ob
Ġst ack
U P
Ġanal og
Ġh ate
um in
ĠSen ior
Ġvers us
ĠAnd erson
En c
Ġex port
Ġch ampion
Ġax is
h us
Ġwin ners
Ġprov ince
Ġpercent age
is ely
12 3
W est
ĠV ice
Ġgrow n
Ġdoll ars
ĠJ ane
V ideo
m al
Ġnuc le
ĠL ag
c ers
Ġenem y
ĉĉ Ċ
Ġcirc uit
ian g
Ñ ĥ
Ġsc ores
Ġsp an
Ġbeaut y
ownt own
ĠOlymp ic
Ġhead s
Ġmat hemat
c oll
Ġabs ence
m atch
op ic
H er
D at
F inally
N C
ĠT ax
_{ -
is ition
,\ ,
Ġland scape
ro ke
ĠC rit
ĠSim on
ant ry
ĠO regon
Ġpoint ed
ĠRail way
ol itan
W ho
ĠS P
Ġinvest ors
Ġy ellow
195 8
ĠReg ion
M embers
ĠUk raine
st o
bl ue
Ġdis miss
Ġg ained
Ġbo at
new command
Ġopp osed
i ac
ar ation
raz y
ĠM anchester
Ġl attice
Ġcho ices
} %
ĠI l
ĠMan ager
ĠCap ital
ĠM ath
18 0
ut her
Ġeval uate
Ġse es
Ġj ur
ĠQue ens
ĠL ater
Ġl ift
Ġsur ve
ĠT R
Ġde ploy
Ġrec overy
Ġpresent ation
U C
ĠI mp
g ov
M usic
ĠDo ctor
Ġs oci
ĠM D
cer ning
Ġmod er
Or der
aly t
ĠPrem ier
un es
ĠC reate
ort ion
Ġsett lement
ot ten
ĠR oll
id ance
ĠCh ange
d epend
ĠPro duct
7 00
Ġout come
w ho
rop ical
Ġmusic ians
Ġdes ire
Ġd uty
Ġconstit ution
Ġparticip ate
ĠAnd roid
Ġexpl os
l ah
st at
Ġr aces
Ġp ul
P ass
ĠA S
ĠJac ob
ĠT reat
ic ate
ra pper
Ġover l
D ocument
Ġl es
Ġwrit es
TY PE
Ġreg ulations
Ġs ought
Pro cess
Ġser ial
Ġbelie ves
over ty
Ġst ages
Ġpresident ial
Ġpred iction
ĠP A
ĠMar c
Ġu int
ĠG arden
Ġcr ash
ĉ Ġ
Ġrot ation
195 9
Ġle ct
Ġdefe at
ĠEconom ic
Ġden otes
ĠR oy
Ġdes ired
ie ce
do i
Ġtarget s
igh th
in ch
Ġv on
ĠPat rick
Ġdr ivers
Ġdetect ed
art icle
Ġr ub
Prov ider
aud i
Ġse ed
Ġdemonstr ated
Bl ack
l ie
Ġbig ger
Ġf ib
19 39
const ruction
Ġ! ==
Ġca using
Ġpre gn
ĠDi ego
m ake
IC E
Cont rol
Ġprov ider
Ġadvert ising
Ġvot ers
ellect ual
ĠPhilipp ines
Ġm m
ĠM oon
Ġre ar
N one
Ġ( +
Ġp itch
Ġimag ine
v as
Ġre b
Ġ+ \
Ġess entially
Ġprodu cing
art ifact
Ġsim ultane
Ġcrit eria
pro fit
ul ous
ou st
j an
ĠV eg
Ġa ver
Ġsatisf y
Ġst ored
Ġg ate
ĠS quare
ĠCont in
ĠTra vel
Ġuncertain ty
y es
est yle
194 2
atur ally
ĠInd ones
sh ips
ĠSar ah
k g
Ġdepend ence
r ated
let ter
Ġdisc overy
am er
at in
ĠE mer
194 8
ĠMar ia
V I
Ġeng aged
AC T
z ed
il st
195 6
âĢ ĭ
def ined
ĠĠĠĠĠĠĠĠĠĠĠĠĠĠĠĠ ĠĠĠĠĠ
Ġrad iation
Ġd iversity
Ġfe e
In ternational
az e
Ġr ational
ĠF ollowing
Å ¡
Ġp seud
Ġvari ation
Ġag greg
ri ers
ure au
mult i
en z
m ode
Ġpain ting
Rec ord
Ġd imensions
col n
ĠFin ancial
ok ed
Ġdis p
Ġra w
âĢ¦ âĢ¦
ish ment
Ġdemonstr ate
ĠSt one
Ġent itled
ĠS D
ĠSim ilar
ĠAr ray
r r
ob by
Ġtheoret ical
Ġexec ution
leg es
R T
ĠCast le
Ġadministr ative
st op
ious ly
Ġsurg ery
av el
ĠMe an
g ame
v ised
Config uration
ro it
Ġconsum ers
A pr
Ġperman ent
Ġde leg
Ġgen us
Ġt ensor
Ġaut hentic
u ating
ĠF ri
Ġscal ar
E ST
Ġb in
d ict
J son
b ool
D i
Ġto ken
' ),
Ġb are
\| _{
Ġprinc iples
hold ers
ilib rium
pm atrix
ex ec
H ar
ĠG h
Ġshe l
Ġyield s
Ġch ose
Y our
Ġfac ed
Ġmagn itude
ĠCh all
195 7
T im
gress ive
ĠP itt
E uro
Ch ange
Ġsurpr ising
Ġste el
ik ip
ĠI owa
ĠIsrael i
am l
Ġatmosp here
agon al
ĠLim ited
ap y
ĠDu ke
ĠC ancer
M ain
ĠH app
u v
Care er
g reen
per p
our se
ĠCapt ain
Ġm it
Ġaf ternoon
il ty
ĠCor ps
w ords
o a
Ġ ::
Ġinv ited
bl og
ĠN ig
off s
Ġcol le
Ġd ates
Ġchalleng ing
f ly
Ġatt ached
ra it
Ġgr ade
R ad
Ġconcent ration
Ġliqu id
ĠM ilitary
Ġconclud e
Ġb rowser
ĠP ut
Ġw ed
Ġlaw yer
ĠFr ont
ĠMor ris
194 1
ig ious
Ġst ead
ĠSwed en
ol ly
ze ch
b efore
Ġwhe el
em et
Ġtop ics
c ert
ĠB ab
ep ing
Ġl augh
Ã £
in ction
F S
on na
ĠJ ay
ĠEx p
ĠF OR
Ġrequ ests
Ġin duced
sp ir
ri or
ur ches
Ġobvious ly
enn a
Ġcompre hensive
ĠDef ense
d em
Ġbre ath
Ġmed icine
Ġte ach
) ^{-
w s
ĠN eed
ur ers
Ġtra v
Ġt all
ĠTe ch
Ġ{ }
Ġv oted
Ġp iano
pro duct
Ġhapp ening
ĠMat thew
res ults
Ġw ine
N orth
Ġdis appoint
Ġtemper atures
Ġfact ory
ĠN orm
Ġco inc
Ġre in
om er
Ġam b
R ange
h olds
Ġstrugg le
ab ama
ĠD ave
Ġloc ally
Ġapp lying
al so
Le ft
ateg or
es is
Ġh ockey
Ġse vent
ĠAnth ony
ĠComm and
Ġpick ed
ĠD id
ink ing
( _
Ġbe ar
K e
M I
Ġdifferent ial
Ġth in
ĠSing h
d f
Ġs weet
ĠA C
Ġtrou ble
Ġf lying
Ġroom s
b at
ĠH ur
field s
ty pes
m ers
L ook
Ġcomp at
ĠEd ition
Ġinj ured
Ġst ellar
3 60
ost ic
ph ant
ĠS earch
Ġe gg
ĠTe xt
W idth
li x
class es
Pro perties
Ġbe am
ĠL O
Ġpubl isher
Ġal ive
Us ing
inal s
Ġreal ized
U se
ĠTh anks
Ġfound ation
od ge
195 5
D el
ĠD or
ĠRec ord
S ports
bl ing
ĠMiss ouri
ĠStud y
ĠMary land
Ġpredict ed
ĠT ennessee
ĠD ick
Ste p
Ġdes cent
Ġcommunic ations
Ar ch
Ġheav ily
Re ference
Ġun us
ĠP ract
On ly
ĠO s
ĠAf ghan
Ġcontain er
Ġch a
ĠF I
ĠTr ade
Ġent ries
M c
m i
Ġman ip
h ang
Ġpull ed
t oken
S pe
ĠP ath
all as
25 6
$ $\
Ġref uge
Ġjournal ist
Ġcoordin ates
Ġt ough
ĠH an
ĠAll en
Ġab und
ĠSc ient
tem plate
ikip edia
Ġsign ature
Ġappro val
Ġproced ures
194 3
Ġt urb
ĠA I
Ġref ers
ĠL A
ĠC art
ĠF a
Ġinnov ation
ri k
: "
st ers
ĠP ier
Ġinv ent
igen ous
ĠF arm
Ġmanufact uring
act ic
C ast
Ġper mission
w all
w eg
Ġadv is
set t
in cess
Ġb on
Ġpre ced
m aking
A nt
ĠRes ources
Ser ial
Ġcons ervation
P os
Ġr acing
}} ^
Ġl ists
Ġmed ian
Ġinterpret ation
Fil ms
Ġatt orney
Ġpass es
Ġlabel s
ĠAn ne
Ġcarry ing
rem ark
Ġinter act
ut ed
Ġfl o
Cont ainer
Ã¡ n
ĠF A
olog ists
Ġnov els
ĠAr thur
} )$.
Ġm apping
at on
=" -
pon ents
He ader
per or
ĠViet nam
Ġappear ances
Brit ish
doc s
ĠE ver
Ġinvol ves
Ġcompet itive
Ġre ct
ific ial
Ġv oting
at ar
Ġcontinu ing
pt ic
p ot
ĠB ry
ĠEd itor
ĠC urrent
v ari
ond er
ol y
Ġtherm al
ire ction
ĠIndian a
Ġde com
Ġplatform s
IV E
Ġcru cial
ĠM it
aw are
ĠJ oh
H A
^{ +
c ache
ĠY outh
Ġreal ize
)\ \
p icture
w ich
13 0
Ġp y
Ġconver gence
ĠB arn
ĠT ake
Ġjo ining
ĠPl ace
v s
ĠO ak
ĠInd ex
t ri
Ġanc est
{ $\
t w
ĠG ard
agn etic
ffic ial
m ass
ĠV i
ul ator
Ġup coming
Ġin her
res ource
wit zer
Ġthe ories
ig a
194 7
194 6
ĠL ib
ĠF ind
ĠMo ore
sc reen
el and
Ġserious ly
Ġinv ariant
Ġarg s
Ġdec or
gl obal
Ġsubs id
Ġh at
H C
ist ing
$ ).
AN T
Ġre ward
are st
Ġnarr ative
emet ery
form s
Ġla id
h s
Ġbrother s
Ġm o
Ġt rib
Ġlist ing
st ore
ĠC E
ĠVal ue
h ome
Ent ity
ĠMal ays
Ġpop ulations
Ġhol iday
Ġregular ly
Ġris ks
Ġslow ly
as m
Ġstat istical
ag u
ĠN ob
) "
is ations
ĠMay be
F ind
V AL
Ġc atalog
Ġacknow led
Ġm ock
Ġaccess ible
Ġour selves
ĠA G
ĠKh an
ĠArch itect
Ġab stract
roll ing
du ce
Ġrank ed
r ang
ĠPro cess
F ree
Ġco ffee
Ġbl ow
Ġbi as
Ġ$ $
b ad
Ġex posed
] );
A ng
ele ction
p res
um ps
form ed
195 4
iffer ent
Ġoff ices
Ġpar liament
z y
Ass oci
Ġk il
ĠTra ining
Ġlow est
Ġro yal
Ġstrong er
Ġconsequ ences
m aster
Util s
St and
ĠSil ver
Inter face
ĠAuthor ity
Ġref used
Ġexplan ation
ĠInd eed
ĠAss ert
Ġwar ning
ĠY et
Ġg ay
Em pty
ĠE c
Ġv ocal
Ġmed ic
ĠSt ill
ĠM un
us cript
Ġbound s
ĠIm age
y cl
m ont
lah oma
c p
Ġpart ition
$ ^{-
ĠJ ason
ĠR ick
Ġre aching
Ġs ick
Ġcharacter istic
sc ill
ot te
er en
re ference
' }
Ġbeh alf
ĠP sych
u y
Ġsens itive
Ġprom ise
Ġinform ed
) _
cl osed
witzer land
ĠP RO
Ġcomput ation
E ven
re ement
i est
bul let
ĠDo es
ant e
Ġh ur
ĠH ave
N AME
ĠPl aces
er k
M ember
Ġin hib
b et
pl us
CO DE
e lect
ĠW as
195 2
ĠK r
Ġg ro
ĠS U
.~ (\
ist a
Ġadd s
s ime
) }{\
Ġprom oted
Ġmain tenance
Ġrespons es
un ning
Ġcan cell
ack ing
osc ow
ĠB h
d am
Ġmeet ings
Ġde pos
AT H
W A
Ġob j
ang a
artifact Id
l an
ct ic
Ġfra ud
Ġkn ock
Ġg arden
ĠS port
Ġgr ass
Ġ ur
sime q
Ġen forcement
ER E
Ġcont rad
m b
Ġwe aring
H R
V ar
ĠW olf
ear ing
ĠP a
Ġimp ressive
eli hood
ĠB uck
sk i
="../../../../ ../
Th read
ĠSy ria
Ġconsum ption
t ers
onym ous
H ost
Ġre cept
Ġemploy ee
EN D
Ġs ending
ĠD VD
Ġin hab
Ġhor ror
Ġinj uries
ĠB an
Ġsit uations
ĉĉĉĉ ĉĉĉ
Ġdest ination
omet imes
Ġcontribut ed
Ġn amely
AS E
ĠAd vent
ĠNor way
Ġlist ening
he et
Ġmatch ing
Ġover ride
Ġfall s
Ġsymmet ric
o op
Ġar c
ĠReg ional
ĠS ix
Ġthe atre
ĠAn alysis
Ġphil osophy
ĠAm ong
Ġmonitor ing
ĠB alt
ĠPh ill
M edia
ĠR ey
omorph ic
Ġpres c
ĠN ature
ĠSe attle
Ġmembers hip
Ġs in
Ġstr ange
O ption
ather ine
E Q
Ġpro s
ĠT her
ĠT el
C opyright
out heast
Ġ> =
Ġte ch
ĠSm all
Ġunivers al
Ġso il
Ġv it
G ood
w atch
Ġcour ses
f all
H as
ill iant
Ġfun ny
Ġex clusive
ang el
Ġrespect ive
Ġpost er
Ġrel ief
ĠK a
Ġout er
ĠStand ard
Ġgrad uate
Ġsub mitted
Call back
it ter
Ġcre ates
clos ure
195 3
Ġsympt oms
Re view
Ġrapid ly
Ġmat rices
Ġus age
Ġdisc ipl
int end
t ik
Ġsc oring
Ġf ault
Ġr ating
Ġcomp ris
Ġbe ach
ĠS ri
ĠM S
Ġaware ness
Ġas ympt
Ġro ots
th rough
ener gy
H ttp
Ġnot able
ĠSh ar
b uffer
equ al
Ġgrad ient
Ġad min
Ġs izes
ĠP ed
se a
m ma
ĠK al
}} ^{
ĠArt icle
e in
Ġoptim ization
the less
Ġgovern ments
or ous
Ġspect ra
re tt
â Ĩ
Ġpre v
Ġset up
H ash
h ash
Ġwat ched
U D
qu es
Ġel ig
Ġfair ly
25 5
pl an
Ġj et
fol io
st ance
f amily
Pol it
ĠTh ird
ĠPol ish
ĠS M
ĠR ub
ĠGree ce
AC E
ĠH D
P aul
Ġmaintain ed
ĠC ole
A v
fl oor
ta h
ron ze
it is
Go ogle
ĠPart ners
Ġencour age
Ġb ott
L eg
iv a
Ġpay ing
S ettings
up id
k h
up le
Ġad mitted
Ġ ×
ank a
Ġdraw ing
Mod ule
ch ant
Ġcom ic
COL OR
> ,
Ġbelie f
cl ip
Ġcon cerning
rop olitan
Ġwat ers
Ġvir us
ement ia
o is
ĠL as
ĠK elly
ĠJ osh
Ġprofession als
Ġmen u
ĠYear s
Will iam
Ġcomplet ion
Ġconsider ation
Ġve ctors
ĠR oom
b urn
d ependent
od ot
s v
Ġtit led
Ġgu ests
Ġsum mar
p ur
Ġb ath
Ġroad s
194 9
Ġy esterday
l av
ĠL yn
? :
u int
ĠMel bourne
D ay
Ġknow ing
Ġgrad uated
Ġamount s
ĠC C
Ġstrateg ic
ar se
Ġd a
P G
ram a
Ġgen etic
Ġcomput ing
Ġval uable
Ġind ependence
ĠT alk
rest ling
w indow
ĠN atural
k ee
L ife
00 1
Ġg ang
util s
arg o
Ġtri es
Ġsy nd
Ph il
ors es
Ġinnov ative
Ġneut ral
on ical
Ġdisplay ed
Ġpl astic
bs ites
Ġout comes
Ġvis iting
Oper ation
b ow
Ġf ired
ĠC ape
com ponent
Ã£ o
ag h
Ġme ets
Ġprov ision
Ġor th
Ġhas h
Ġn ations
Par ams
Ġflu id
ĠSe ver
Ġrough ly
V E
ol i
ĠD at
) {\
P osition
id en
er as
Ġcol ors
ĠG ab
Ġcour ts
Ġreve als
ĠSur vey
the re
ĠMov ie
ang o
Ġ= \
ĠLa ure
Ġpoet ry
Ġtra ject
Su pport
Ġchild hood
Ġf ruit
Ġloss es
Ġsc r
Ġsav ed
Ġcl ock
ĠB G
Ġperiod s
Ġsepar ated
ĠAr k
dev ice
Ġinf inite
ug g
Ġt ou
ĠU ser
ous es
et al
Ġve get
Ġtown s
Ġ Å
' (
Ġk ernel
ĠEx press
Ġmax im
B B
Ġthous and
W S
Ġpath s
Ġgun s
s ort
ĠCh apter
Ġa er
ut ies
st an
Ġreve al
)$ -
Pre vious
ĠG ib
The orem
Mich ael
Ġb irds
Ġsc ales
Ġaim s
form er
Ä ±
ĠAl abama
ĠE ss
Ġparticip ated
Ġcerem ony
c lear
iver pool
ĠA thlet
ĠMar ine
Ġdesign s
ĠBr ig
Ġint ensity
ail ability
Ġfant asy
ĠAl an
ache lor
Ġwind ows
ĠAcc ount
ĠGa ussian
ĠEar ly
w en
in th
ĠM as
ra ig
In teger
Ġo cean
V ari
Ġcopy right
ram ework
10 5
ĠAtt orney
Å Ĥ
u h
Ġr ising
GB T
Ġattempt ed
Ġmanag ers
Ġpro hib
Ġprec isely
ug s
Ġtrad ing
ol id
secut ive
A f
Ġwor ry
Ġant icip
ĠB or
erv ing
ĠN ev
Ġrequire ment
ĠE P
d ebug
ĠLin coln
Ġd uration
19 17
T itle
ĠBow l
ac on
Ġsub stit
group Id
Ġsequ ences
roph y
Ġfall ing
M arch
ĠB att
in ian
che ll
Ġcon crete
Ġf olk
Ġmor al
Ġkind s
ĠRet urn
Ġocc as
Ġb rown
Ġnot ion
Ġb oot
ph an
ĠPhil ip
W indow
Ġanal ys
Ġeth nic
w estern
ax is
Ġge ometry
G S
mon th
Ð ²
Ġ ion
J une
ter y
Ġhas n
om ot
tik z
i ology
He ight
Ġprov en
ĠL anguage
w ill
Ġansw ers
ĠM embers
Ġconclud ed
Ġsam pling
Jan uary
ĠB ishop
Ġfe es
Ġprep are
M em
el ve
ĠR ound
gl as
- $
Ġan ch
Ġengine er
Ġconsequ ence
ic ular
st rap
ĠM L
ĠR ow
195 1
F eb
Ñ ı
Ġag ed
ig e
Ġspirit ual
e ctions
s ite
s is
Ġf ulf
ch ain
Ġke eps
not es
On ce
h ou
Ġ[ [
Ġsurpr ised
anc hes
Ġal cohol
ic ons
og ram
ĠC op
Ġst ake
Ġconvent ional
ĠMex ican
Ġo scill
F ollowing
ig ate
r ank
Ġd ict
Ġport ray
Ġ" \
Ġdecre ase
ĠF ellow
Ġdeal ing
ĠTra il
ĠHer itage
Ġequ ality
Ġrequest ed
ĠSoft ware
19 18
Ġgalax y
ĠVill age
R ich
ĠB O
elf are
ĠE ag
ar o
u ction
cre en
ĠAust in
or iginal
ĠPe ace
Ġdepend ent
Ġlik ed
L ike
& #
s end
ĠB ah
ĠMay or
Int roduction
C ent
Ġbatter y
v ens
ĠD ur
Ġarg ued
ĠE ffect
\ _
op es
and o
Ġ* )
Ġparticip ation
ab out
Ġany where
ool s
Ġass embly
Ġgener ic
Ġd ies
Ġhouse hold
and al
s n
Ġchair man
Pl ay
Ġgover nor
Ġhealth care
Ġconvert ed
ia h
id al
ol ph
ĠMor gan
% ;
ĠCom ments
Ġdr um
Ġatt ributes
ĠJud ge
Su per
Ġb id
ĠP S
ĠĠĠĠĠĠĠĠĠĠĠĠĠĠĠĠ ĠĠĠĠ
ĠG iven
Back ground
Ġconsist ing
pro position
ĠAg ric
J P
Ġcolumn s
Ġbul k
w as
K ind
ĠB ureau
B el
Ġc ov
ĠTh ough
Ġeng age
lik ely
om as
hed ral
ul er
19 00
Ġex it
R ober
ubl in
: (
Ġsatisf ying
Ġsubstant ial
ĠG all
map sto
param eter
st able
on i
Con nection
Ġtri als
B P
if ting
ĠG ordon
Ġsurv ival
Exp ression
ene z
Ġh ospit
Ġmy th
Ġann iversary
Ġpark ing
E P
ĠHaw ai
ĠC opyright
ol ver
Ġsuff ering
ĠN ation
Ġag es
L ear
Ġredu cing
Ġthink s
Ġde lete
Ġexplicit ly
Ġmunic ipal
) },
re q
Ġtr ace
oy d
V ector
Ġident ical
D L
[ (
19 36
Ġcon front
Ġkey s
display style
ĠD a
ĠCl oud
Ġrecogn ize
Ġdesign ated
am ps
B N
t ml
ĠDe an
be an
w hen
ig in
Ġre plic
ack et
F P
Ġcons ent
Ġoff ensive
ĠSaf ety
Ġsing ing
ĠLear ning
Ġdi plom
ĠF ather
ĠH ans
ĠAd vis
play er
od ox
ĠN ich
Ġaccord ance
ul um
Ġnot ation
Ġdiscuss ions
Ġcent ers
Ġcons ervative
ph y
sh ort
b ian
en ix
Ġgu idance
ip her
F ont
form ing
ĠB ible
Ġadvent ure
ĠF ederation
Sh ow
ibr aries
C ore
Ġident ification
Ġrepl acement
end ers
Ġprior ity
J ames
ĠF ive
ĠCO VID
ĠUn it
ap ing
T oday
Ġh am
Ġany way
Ġcut s
Ġaccom pan
Ã© e
Ġcalc ulation
Ġtransport ation
over nment
Ġbus y
Ġunder t
B re
t im
Ã ¸
spec ific
ĠSwed ish
u um
Ġprof it
Im pl
Ġcont roller
Ġint ention
: #
ĠM eg
ct x
Ġx ml
ĠHigh way
Ġqual ified
ug ins
Ġ âĢĻ
| _{
ĠG ene
Ġhard ware
Ġapp s
ĠAll iance
Ġp adding
Ġold est
AT A
ĠS ex
cl ick
Sche ma
J uly
Ġdise ases
nov ation
Ġsatisf ied
Ġfew er
Ġsett led
Ġf urn
Ġfriend ly
C ap
viron ments
ĠT a
Ġcomplic ated
ĠV in
Ġcalc ulate
Ġcompl iance
Ġ$ .
ĠEx ception
I E
Ġal ert
The refore
Ġpro jection
ĠS witzerland
ĠUp date
ard o
Ġgen re
As ync
Ġhead er
ĠV ari
ĠProte ction
oc a
os ph
ows ki
G ET
Ġarg ue
Ġwe ights
Ġdire ctions
Ġent reprene
hes is
() :
Con nect
d ers
ĠChair man
weg ian
ĠH ub
Ġsupp ose
ens ing
Ġj azz
Ġnot iced
Ġdist ricts
Ġne ural
" ))
ogene ous
St ore
b led
Ġview ed
Ġmechan isms
ĠN ik
ro ck
Ġt y
Ã º
Ġfl ows
f red
Ġprovid ers
F ound
Ġpro t
AR Y
Ġcent uries
ĠM oscow
, ...
ĠW ord
Ġbur ied
Ġbre ast
jo in
Ġsudden ly
e ven
ĠR ic
Ġb le
Aug ust
% %
ir us
ind ed
w p
Ġc ache
Ġinst ruction
Ġsustain able
Ġl ake
M er
ĠTok yo
Ġh ook
ĠL iving
uten ant
Ġtow er
Ġstud ying
Ġinst ances
Ġowners hip
it ure
Ġill ness
Ġn urs
ĠJ ava
\ )
p red
as ma
Ġlog ic
f n
Ġperson ally
Ġperfect ly
Ġmolec ular
Ġas ks
Ġent hus
er on
ĠW H
ache l
i ere
Ġf ought
19 38
Ġne ck
ĠM C
Gl obal
b order
Ġhead ed
Ġcollect ive
D ir
Ġpro spect
ed ing
i Ã³n
m akers
in ternal
co in
Ġh urt
ol ars
itar ian
pen se
Ġbas ically
Ġfootball er
Ġpubl ishing
s ession
Ġro se
Ġflu ct
Ġweek ly
Ġâ Ĩ
c ong
Ġm g
ĠG un
Ġequ ally
Ġb its
pro tect
Label s
ĠD og
Hel per
em ail
Ġt ank
cl oud
Ġdel ight
Ġre putation
ĠSchool s
ĠWh it
b oot
ist ence
Ġsk ill
Ġinst ruct
Ġprom otion
Don ald
ĠRober ts
ĠRel ations
ĠH ell
Ġcon secutive
B ecause
ĠB uff
Ġfin ance
b old
ĠD al
g i
ari os
pl ane
ĠM other
N T
ĠB os
m n
Ġadj acent
Ġl ux
Ġmov ements
Ġpredict ions
ĠM ess
I ES
Ġgu ilty
ĠR oute
A E
Ġco aches
ib l
Ġm es
ĠBl ood
im ore
Apr il
Ġen abled
ĠSp irit
ON E
Ġprodu ces
av al
ĠS ource
Ġly rics
Ġassum ptions
Ġsurv ive
$ ;
} )$,
ĠV ersion
Ġn aturally
Ġattack ed
Ġexecut ed
Ġret irement
Ġweap on
Ġiniti ative
s a
Ġar med
v ia
f old
ĠTh ings
Ġmer ely
Ġgraph s
L em
Ġstru ck
ĠInst agram
ĠD omin
Ġlik es
Ġinstr uments
pd ated
Ġconcept s
Ġarr ival
ĠH it
ĠT y
Ġde als
F ull
Ġapp lies
ic ut
Ġal ter
ĠM ission
at hered
oc y
Ġprem ier
Rep ort
f ather
Ġord inary
W omen
ĠMed ic
ĠCol on
Ġj un
$ ~
} &
iment al
Ġuns igned
arg in
Ġem issions
ĠMc G
ĠĠĠĠĠĠĠĠĠĠĠĠĠĠĠĠĠĠĠĠĠĠĠĠĠĠĠĠĠĠĠĠ ĠĠĠĠĠĠĠĠĠĠĠĠĠĠĠĠĠĠĠĠĠĠĠĠĠĠĠĠĠĠĠĠ
ĠPolit ics
Ġj oy
ĠOk lahoma
Ġbr ands
D oc
oun ce
Ġhop es
L oc
10 2
Ġpenal ty
ĠS audi
ane ous
ĠFin ance
sp ring
ĠG L
ĠIndust ry
Ġcalc ulations
Ġwalk ed
d ale
RO M
s ch
Ġr um
14 0
Ġrele ases
Ġinters ection
Ġop ens
ial ize
Ġclust ers
Ġconsc ious
Ġdirect ors
ou ver
Ġexpect ations
Ġtax es
ĠC ow
Ġsh arp
Ġfarm ers
iz able
Ġcoordin ate
ĠSt ew
Ġ&= &
ĠB ull
Ġtick ets
Ġimpro ving
\ {\
Ġsufficient ly
Ġt err
ĠB E
Ġaddress es
Euro pe
Ġinst ant
Ġreg istration
Ġf ake
ĠPro p
Th anks
i ors
Ġins ight
Ġreject ed
Ġdo ors
ĠI L
ĠAnn ual
Ġfr anchise
ow ed
s em
iff s
Ġcompos er
Ġcr imes
ĠWalk er
ĠN ative
Ġmark s
Ġcl imb
ĠEnvironment al
l ad
Ġdis ag
Ġp overty
ang ular
ĠDet roit
Ð ¼
S ession
Ġto x
ĠR at
Ġ( '
Ġcompet e
10 4
ĠH um
Ġn um
ĠBru ce
Ġinf ection
D om
ie val
, '
Ġsat ellite
al id
ĠS H
à¤ °
est abl
Ġsupport ers
Ġdecl ine
Ġshort ly
Ġph arm
z ing
Ġregard less
ĠEXP ECT
Col lection
ipp i
Ġent ering
ĠCo oper
I ter
I X
Ġf uck
Ġground s
D M
ĠPl us
i ative
19 37
Ġdevelop ers
Ä į
on om
Ġelectric ity
Ġbound aries
Ġbrief ly
Ġtem porary
Ġhouse holds
Ġnorm ally
b ind
Ġincred ible
ĠP ho
im p
Ġhy brid
") );
ĠF ant
Ġestablish ment
ĠRes ults
ĠCons ider
P arent
l u
ĠS ac
Ġpro pose
ĠAl ber
Ġdatas ets
Ġin clusion
Ġpass engers
ap el
1 12
he im
Ġcut ting
D an
E p
Ġinterview s
g ly
com plete
Ġdomin ant
ey ond
Def inition
Ġnegot i
) )$
ĠU lt
Ġliter ary
ĠBl ock
Ġcon sole
ĠAp pe
ĠLeg isl
ĠKent ucky
ick er
Ġpublic ations
ĠA qu
g ies
Ġc odes
ap olis
Ġmix ing
Ġsp okes
M ENT
ic ing
Ã© s
ĠDr ive
Ġequ ipped
ĠP ur
Ġob st
ĠVeg as
Ġo x
em en
19 14
Ġcapt ain
Ġent rance
Ġamplit ude
Ġunivers ities
F E
ol ves
at ers
T HE
od a
iv ation
or us
com ment
Ġmach ines
Ġdef ensive
hand le
K S
ĠCommunic ations
Ġhand ling
Ġinflu enced
Ġcelebr ate
Ġb inding
Ġto ler
De cember
B en
Ġtrend s
level and
Ġc ounsel
Ġaddress ed
ĠMc K
par ison
ĠWe bsite
d ouble
ĠI R
Ġt ied
Ġh ide
ĠP as
ã Ģ
u j
Nav Bar
9 00
out ube
Ġorgan isation
ĠAl bert
Ġperson ality
Ġsix th
ac o
par agraph
J apan
plic ity
Ġfeel ings
Ġmin ing
room s
Ġjur is
ĠSh ould
Ġtr ick
) -\
Ġb oss
Ġher itage
Param eters
Ġcon version
Ġtick et
Ġunus ual
ĠDe ep
App lication
cy cl
V P
Ġpublic ly
ac ht
Ġestim ation
co very
ĠU RL
it ations
e per
Ġint ellectual
Ġreli able
ĠF unction
Ġt aste
Ġcrit ics
Ù Ħ
Ġdeep ly
styles heet
t i
Ġr ival
ro le
ĠReview s
Ġeng agement
Ġexp at
ĠY O
st ory
ĠC zech
' ],
h l
Ġh ist
Ġbr illiant
Ġeval uated
ĠAnd re
add ress
Ġfil ename
Ð ´
ĠP DF
S am
RE S
bar a
) }_{
ĠWith out
Ġt ub
Ġwe bsites
om ent
s ome
C ond
Ġprefer red
ĠJun ior
Ġang ular
19 19
ĠLe aders
c ategory
ĠD ub
Ġneigh bour
Ġsub mit
ĠF L
Ġout standing
Ġ> >>
Ġscatter ing
ĠChrist opher
im m
Ġk ne
Ġaim ed
S ur
Ġisol ated
ĠComm un
Ġliter ally
ĠK it
cc a
Ġmanag ing
v m
Ġfl ash
Ġtra ins
Ġleg it
19 35
Ġt iny
ĠS in
inter face
Ġshop ping
Ġrepresent ations
Ġcap abilities
ys ical
Oct ober
Ġden ied
N E
) +\
C ustom
Ġdis crete
ĠD rug
ĠD ue
ĠV o
} }$.
c ref
fo o
ĠCent ury
Ġfem ales
Ġed ited
ĠPro perty
Ġhost s
T T
Ġacqu isition
x it
P tr
v als
am an
oun ced
d iff
ĠAtl anta
ĠB us
ĠStud ents
Ġdemocr acy
Ġh ier
dom ain
ĠH ug
ĠV AL
Ġsignific ance
ĠBe at
Ġput s
Ġob lig
Ġrestrict ed
ĠM s
Ġw eren
Ġor bit
Ġguarant ee
Ġhypothes is
ĠT ask
Ġdep ict
Ġb ars
av ed
Ġsimultane ously
Ġgen u
u pload
Ġre act
IN D
ĠHamilton ian
ĠF un
Ġviol ent
| }
Ġne uro
Ġdem ands
og a
Ġtrack ing
Ġman uscript
claim ed
W ind
S an
Ġb ird
Ġsomew here
ĠM ars
Ġdest ruction
ic he
Ġpar agraph
Ġign ore
Ġelect ro
Ī Ĵ
re ens
em pl
Ġclos ing
S y
enn y
ymmet ric
a ired
le ans
ĠI ron
Ġver ify
ern ame
Ġstret ch
Ġres ort
P ersonal
Ġd iam
) ).
Ġdog s
ĠD allas
ĠTem ple
ĠLaw rence
Ġrul ing
ĠD ak
ĠR u
ĠT rib
ĠCol omb
Ġrad ical
we alth
Ġreg ulation
Ġimpro vements
ERR OR
Ġfore cast
Se ptember
Ġfem in
19 33
Ġread s
mod al
lo op
sc ribe
R ob
Ġrob ot
anc ouver
Ġelse where
B ody
F alse
ĠThom pson
} }$,
l ate
z one
Ġan th
ĠFor um
Ġfol ks
Ġparam s
Ġpri ze
Ġl um
Ġcare fully
ĠAnd y
Ġt ab
ve e
m ates
Ġindic ating
ĠW y
ha ust
Ġd edu
Ġs oph
IM E
pl ot
G iven
is ons
Ġstruct ural
Ġabandon ed
i op
Ġche ap
Ġt ur
Ġp and
Ġj u
Ġdesign er
Ġpar ish
h our
Ġs essions
Ġwork er
it udes
D raw
ĠPolit ical
ust ration
Ġp ushed
ĠP ear
m outh
ĠW ard
Ġmunic ipality
ĠM uch
ick ing
inc ial
Ġacc um
iss ippi
Ġcomfort able
ĠTele vision
Ġsuper ior
Ġconstant ly
Ġpass enger
w hel
Ġ ^
Ġl ayout
Ġt issue
Nov ember
Ġsac r
ch annel
anc ell
Ġs ons
ĠT ro
ĠMot or
Ġland s
su it
Ġre verse
Ġd inner
Ġneigh b
Ġcor rel
Men u
ĠRuss ell
win ning
3 50
Ġi Phone
ĠH ills
less sim
Ġwith draw
cc cc
ĠE C
Ġf old
ĠEp isode
O bs
ĠOr th
Ġsc aling
Ġexpl oration
b es
ĠK ings
ĠH ero
l arge
ĠC S
Ġdist urb
du ctor
Ġrec ru
Ġsepar ation
d elete
Re ader
ĠPr ice
st age
est amp
="../../../../ ../../
U ST
N G
Î ¿
ab ad
ĠAss istant
z o
ĠSt ore
im s
ect s
ĠMic hel
oust ic
rou s
Ġfocus es
key s
i em
Ġcross ing
Ġbu ying
Ġn a
ĠA BC
Ġequ ilibrium
Ġ ),
Ġwhe never
Ġemer ging
al ia
ĠAdd itionally
ms g
Sp ace
B as
: =
ĠWal ter
=" /
Ġcritic ism
ĠP od
ĠH oll
ort heast
ĠHar vard
oc he
Ġdom inated
Ġbu ck
Ġgreat ly
ĠW oman
Ġdes k
ĠLe vel
ÃŃ a
fr am
j ar
anc el
10 3
Ġby te
as hes
ag ic
Ġ ..
et ition
Ġ( @
S em
reg ular
ĠStud ent
web kit
ĠL iverpool
ip age
im mer
}( {\
we ek
ail and
an ne
Ġregard ed
Ġf est
T ele
Ġl ights
Ġinst ructions
Ġillustr ated
Sec urity
19 10
Ġr uled
oc ent
c ustom
ĠRog er
ĠG ram
Ġkey board
Ġc up
ĠD ocument
es y
Ġprodu cers
gr id
Ġmin i
Ġ{ };
ogg le
Ġp ione
Ġre con
Ġc ub
equ ate
ĠK ath
Ġnom inated
Ġpriv ile
ĠP ast
ĠN HS
s ince
ĠCr ime
Ġre ly
Ġk in
11 1
if iers
ĠN E
ren a
Ġoccup ied
Ass ert
Ġliber al
ĠReg iment
Ġdialog ue
ĠPer formance
ĠAfghan istan
ik ing
c pp
ĠDel hi
Ġinvestig ated
ol ving
Ġleg acy
ĠPubl ishing
Ġb ag
ĠAnton io
C r
H D
ĠNig eria
ĠP ersonal
A lex
ick en
Ġposs ess
; ->
Ġas ide
ĠTai wan
ĠM aterial
ĠN BA
Ġvill ages
T om
ĠC hen
ĠTurk ish
Ġterm inal
Ġd iver
Ġcoe fficient
ĠK y
Ġpan els
Ġt act
Ġtem ple
ud a
uer to
T erm
Ġgrav ity
f und
ĠTh ank
H P
ĠS quad
Ġf irms
ĠTr ack
ial s
A pi
Ġsoc cer
}{ |
}$ )
Ġm ile
ĠPr ivate
Ġinvol vement
Ġapart ment
ĠF er
or ient
Ġarr ive
b x
or ia
Ġd ating
ĠCar ter
) --
F IG
Ġcor on
M ac
ĠAl bum
ĠGirl s
Ġsign ing
ĠC ore
hy thm
trans form
19 29
min ipage
Ġsu icide
g ood
Ġcontract s
M iss
li est
m ay
p ay
Ġhead quarters
Ġund efined
ra id
ĠKenn edy
Ġmay or
R R
Ġp ump
Ġeng ines
ge on
Ġmem ories
G reen
ĠVol ume
Ġt ort
] }
Ġin line
Ġdr ag
Ġm art
Ġevery where
Ġhop ing
Ġdis order
ĠA le
Ġen vironments
m aterial
ĠRepublic ans
by te
ĠPr int
ĠRob inson
Ġw et
I LL
Ġemb od
Hand le
Ġnames pace
Ġre vers
Ġant ib
back s
Ġwh ilst
ĠEv ents
Ġrout es
Ġaccompan ied
Ġ[ '
Ġ( âĢľ
ik h
l at
}{ (
Ġstring s
Ġvari ations
Ġrestrict ions
ĠB ou
I con
, $
LO C
F rench
Ġcoll apse
ol o
Ġj av
an im
as ant
ĠC NN
ĠAb b
ĠH ad
Ġst upid
Ġlimit ations
Ġl oyal
Ġin ject
ĠP il
get s
ĠAn na
Ġexpert ise
ĠC lear
F M
Ġf iber
F in
Ġrep air
ĠInd ependent
ĠFor ces
ot on
Ġf ishing
Ġt ables
ĠInter view
n an
ĠN ash
em ed
Ġrel ating
Ġwed ding
ĠL am
A ud
Ġd owntown
Ġlaw yers
Ġprec ision
ĠN ic
Ġres idential
Ġde cent
es ian
ĠD ance
math op
He alth
ĠFred er
bu ilt
ĠPh D
ĠArch ives
M al
ĠP aper
19 34
Ġassum ing
S ym
m ir
Ġm ilit
: }
Ġrepresent atives
p adding
Ġpet ition
f lix
ĠĠĠĠĠĠĠĠĠĠĠĠĠĠĠĠ ĠĠ
t witter
Ġf ro
Ġpl ain
Ġme at
n etwork
Ġgener ating
ĠJon athan
Ġrac ial
ĠR ab
ef ully
ĠSch olar
ch arge
ĠO wn
ik es
pro file
ĠU tah
ĠAust ria
ĠCont act
Writ er
ĠSe lect
Ġcharacter ized
ĠN elson
Ġmechan ical
ig s
ĠL LC
Ġsome how
Ġb old
block List
Ġw ider
let ion
M art
ant ed
um ar
Ġpart ially
Ġpar se
sequ ently
Tem plate
Ġbl ind
ĠAd ams
Ġhelp ful
ord inary
ĠG ary
Ġh ired
Ġg ent
Ã¼ r
ĠD est
Ġnav igation
19 32
ĠIndones ia
Ġtalk ed
Ï Ħ
ĠD M
cy cle
ex port
ĠR ain
ĠB urn
Con f
ou rier
br idge
to String
Ġ{ $
irl ines
ister ed
Ġcou pled
n ell
Ġl aser
Er r
G erman
AR D
Ġw ra
Ġun likely
ack ed
IN S
Ġun expected
De cl
Ġ+ +
ĠRes erve
Ġte a
Ġmyst ery
Ġc ir
ĠD ublin
P ORT
j oint
Dev ice
Ġun like
Ġimm igration
Ġc ogn
Ġre ven
ash i
Ġpod cast
ĠDou glas
ĠH IV
Ġcolle agues
ĠM ust
Ġinter vention
B ased
LO G
t n
================ ================
ĠCom ment
ĠOrgan ization
Ġfavour ite
et ry
Ġm ad
Ġexhib it
Ġsh ots
Ġm ales
_ -
Ġ$ |\
Ġres olve
Ġdirect ory
bass ador
ĠBr un
rit ical
Ġbi ological
h ave
Ġtarget ed
ĠE T
Ġquant ity
Ġcol lections
ĠBase ball
Des pite
Ġsens itivity
Ġ Ø
Ġt one
et he
Ġrestaur ants
ĠBG COLOR
ograph ical
Ġmil k
ush ing
R oot
Ġprec ise
ĠSen ator
ater al
ĠConnect icut
inst ein
ĠT OD
Ġgener ations
ĠWork s
In valid
ĠWeek ly
Ġst yles
, âĢĻ
Ġres ident
Ġadapt ed
Ġprof iles
Ġf ails
Ġcompet ed
s burgh
ed it
Ġclass ified
not ation
ĠN ag
ĠC T
c opy
l ined
Ġm igr
g eneral
Ġrecommend ations
as a
Ġbreak s
ï ¼
Desc riptor
ĠJ os
ad min
Ġprepar ation
w ait
ann on
her ic
Ġannounce ment
ĠCharl ie
ĠHT ML
Ġcomm ut
Form er
sc ar
ĠSt ories
r ane
Ġmonth ly
ĠLeg al
Ġpay ments
grad uate
10 6
Ġhead ing
work s
$ ),
A K
ĠHistor ical
p air
Ġspe aker
d ays
ĠL E
âĢ¦ ]
( *
Ġbund le
N um
ĠĠĠĠĠĠĠĠĠĠĠĠĠĠĠĠĠĠĠĠĠĠĠĠĠĠĠĠĠĠĠĠ ĠĠĠĠĠĠĠ
_ ;
ĠB art
ch ildren
ĠMalays ia
( :
Ġconve x
an ia
ag ers
Ġinsp iration
in burgh
ĠW right
Pol icy
M icro
RE E
Ġfant astic
eng ine
ĠStud ios
P al
Ġ[ \
ĠL ang
Ġpaint ings
equ als
vious ly
F amily
ĠBar on
end or
xy gen
ĠM ort
ĠB ed
Ġpr on
ĠOr leans
ĠL GBT
Ġmanif est
ĠD ementia
ap shot
ĠG row
ĠSt ars
ĠIm ages
ĠM os
I AL
Ġdo ctors
or er
ĠS el
Ġencour aged
ber ry
p anel
Ġcont ents
ur ations
ĠK am
Ġgu idelines
ĠF ight
ir ates
IT E
ĠMed al
Ġv ital
Ġshould n
ĠCl imate
Ġcorrect ly
Ġthem es
Ġstar ring
j amin
Ġthreat s
ĠBrook lyn
m ate
Pro p
r in
Th ank
Ġdescrib ing
Ġsche mes
dis c
S en
ĠB Y
ĠG R
Ġappro x
Ġrep orter
or able
Ġc ul
Ġorient ation
b us
Ġvis its
' >
Ġdes per
Re v
Ġfle et
u id
ential s
nt il
R est
Ġj e
writ ten
ef e
ĠB ased
Ġtrans c
Ed itor
ĠPal ace
ou ter
rom ise
ĠL ock
Ġamong st
Ġc ited
Ġc able
Ġchar ity
Ġbe er
rop ic
op ter
ĠTown ship
M s
ov ing
Ġbelong s
N etwork
Ġinvol ve
Ġby tes
19 28
ct rine
ĠO S
ra ctions
Ġth orough
A U
Ġcor ruption
ĠF O
alax y
N OT
ĠWh ich
Ġprov isions
ĠArgent ina
ĠS ud
Ġra ising
Ġc razy
ĠM ind
ĠF ame
Ġadapt ation
ĠGra ham
Ġsc an
Ġth rown
Ġstay ed
P ress
Ġcomput ational
Ġden oted
ĠR ace
ol as
Ġfore ver
be ing
Ġjud ges
ĠEx change
ĠPl ayer
ĠF reedom
Ġh ill
Cont act
Ġs ed
ĠT ob
ĠG ill
Ġenc oding
ter ior
Dis play
ĠG ulf
se curity
t frac
Ġappe aring
ĠJ ess
w hat
Ġdis aster
Ġdifficult y
h ot
ĠF le
Ġfund ed
Ġen ables
}} _{\
Ġsecret ary
ĠSh op
l on
N Y
Ġind epend
ĠH old
Ġgl ad
ĠRes ource
Ġexpress ions
Ġm ail
t own
Rober t
Ġassoci ate
al ion
ĠK az
Ġagric ultural
en v
ur able
ĠPl ant
uc lear
Ġrece iver
ate ur
ĠBoy s
M F
Ġfocus ing
$ &
) ),
ĠL ane
Ġorgan ic
G P
B D
ar iance
Ġanim ation
enez uel
it ational
Th ree
om al
Ġe ase
ok er
Fil m
/ .
Ġs ke
ĠLe ft
rupt ed
Ġelig ible
ĠL ess
ĠElect ric
ins ert
Ġb ull
m aker
ĠLouis iana
Ġing red
t ry
11 5
ĠB eng
r atic
usal em
abet es
Ġapprec iate
a uth
aut o
oth s
f ish
Ġcelebr ated
rec ord
Ġstream ing
Ġconven ient
à¥ į
Ġl ad
ues e
Ġde eper
Ġenh anced
F ollow
Ġ\ !
By tes
hip s
19 22
Ġcl im
ĠMon th
t or
Ġrep ly
S ong
sh ape
Ġmult ip
ĠS now
ĠP ope
ĠAl ice
Ġb io
Ġgen es
ĠD ays
Ġd ens
Cons ider
Ġl oud
ynam ics
ĠAl b
Ġremov al
ĠP erson
Ġd ense
Ġdrink ing
Ġut ility
ĠSw iss
re present
re ck
Ġpar ad
p in
Ġconnect ing
Ġeduc ated
cond ition
M eta
Ġrom antic
Ġconsider able
ĠApp endix
Ñ ĭ
ĠBelg ium
$ };
Ġt ie
Ġincorpor ated
ĠV iol
fram ework
Ġlif etime
19 15
Ġch urches
ĠCamp bell
re ation
Ġg olf
19 16
Ġcos m
re le
ourn als
Ġorgan isations
reg ion
ĠRepresent atives
Ġsit uated
pl ugin
Ġprom ot
book s
Ġoper ational
19 27
. -
Ġrece ives
Ġfab ric
Ġsimilar ly
op les
1 18
F i
Ġcan cel
Ġleg s
f are
ĠO il
! )
Ġtransl ated
Ġd ial
Ġad mit
Ġe ating
Ġsuff er
ĠPro du
Ġmet rics
ĠCh ile
quir y
ĠI C
Ġd uties
uk i
Ġsh r
eng ths
ub s
ĠF isher
ĠO d
t re
Ġres erve
Ġscen arios
Ġphot ographer
Ġindust ries
connect ed
ous ing
ra ham
Ġinstall ation
Ġhol es
Ġbr anches
Ġredu ces
Ġdis abled
ut ter
ĠUr ban
Ġpe er
D IR
Ġf inger
ĠJim my
dis abled
B et
Ġdiv or
ii i
Ġd il
ce ive
ĠC ell
Ġcount s
oid s
Ġle mma
G M
Ġprint ed
ĠO pt
Ġderiv ative
}\ ,\
b matrix
depend ency
Ġoption al
Ġrare ly
ĠMiss issippi
ĠB it
M us
ĠKn ight
Ġhoriz ontal
p aren
W ar
ĠC leveland
10 8
By te
G ame
Ġinv erse
## #
Ġmusic ian
IG HT
ĠMur ray
T otal
Ġb ike
ĠW IT
19 24
Ġdram atic
S n
W atch
u is
Ġoper ates
id get
ĠM unic
Ġresc ue
Ġ} )
ĠM yst
Ġneut r
ĠStud io
ĠB eck
ch anged
ĠCh o
Ġb one
US A
ĠAb d
) }}
ĠMuslim s
proto buf
ĠI an
ĠCon vention
ĠC redit
Ġign ored
Ġmagn et
19 31
ĠOr iginal
ĠEr ror
Ġsp oken
Ġjournal ists
ĠP L
ĠK ir
th an
ric ane
ĠGu y
irm ingham
Ġg ear
ĠBet ween
ION S
Ġcon vention
ĠĠĠĠĠĠ Ċ
dep th
Ġph rase
Ġtrans actions
Ġkit chen
Ġle af
re place
Ġo s
Class es
Ġmar ine
ĠNAS A
Ġin aug
ĠGr ad
iss a
im pl
n atural
ĠM agn
ĠF al
Ġh ang
Ġb ot
Ġel der
Ġw ake
ĠM obile
ĠStew art
ĠS A
ĠT ree
ov es
ĠF el
Ġgl ob
LE CT
h bar
Ġr ugby
asc ular
Ġdef ines
the y
Ġbas eline
am ous
t ons
Ġfound ing
Ġj ury
ĠDep uty
ĠT ar
ĠD J
Ġinv oke
KE Y
Ev ents
Ġcorre ction
ĠS W
ibli ography
Ġcheck ed
ĠN eg
ar ity
ĠComput er
Ġover whel
ĠMon te
Ġart istic
Met adata
ill ery
Ġelect rical
Ġad vers
Ġast ron
Ġch rom
Ġb unch
=" _
Ġrespond ed
Ġphotograph s
S ET
H on
st ud
Ġp ace
` .
ĠRe lease
19 26
Ġl ying
oth y
"=> "
Ġmet ers
Ġtr ivial
ij ing
ĠSm art
Ġap i
all ing
ys et
com b
ĠWar ren
are a
Ġd imensional
Ġmount ains
Ġres idence
ĠQueens land
h box
Ġis lands
c am
ĠS EC
Ġshe et
19 21
Ġsymbol s
Ġregul atory
Ġex haust
ix els
och astic
n n
Ġn an
ĠP eters
iv ia
Ġactiv ists
In s
w ind
Ġcam eras
is cal
Ġt ale
Ġch arts
ĠPat ri
10 7
ĠW W
Ġex clus
Ġc ock
th a
Ġexam ine
Ġsur faces
ĠP ap
ac les
Ġre named
v irtual
chi at
J ack
ĠT ower
. :
Ġbirth day
ĠV ancouver
ple ments
Ġt ip
Ġany more
Ġsupp lies
Ġthe ater
En ter
Ġdeterm ination
ĠM E
Ġsystem atic
F ore
um ption
ĠT oy
ĠC ass
ur u
Ġdevelop ments
mod ules
ing ers
Ġint ense
Ġre aches
Ġco operation
Ġres erv
à¥ ĩ
Ġde put
? )
el ing
Ġst adium
Ġathlet es
ol en
ps hire
ĠCont ent
ĠMark eting
] $.
ĠC raig
Ġhigh lights
Ġvary ing
Ġinter mediate
ĠNor wegian
19 25
ĠArm en
Ġoff ense
ĠEconom ics
ĠB ond
Ġc ow
ĠC os
Ġjun ior
Ġcomp an
&= &
r ations
p atch
bor ough
^* $
Ġt ang
Ġphot ography
19 12
Re al
Ġs alt
cept ions
Ġem otion
Ġc od
spir acy
> ();
s at
ĠAg reement
Ġdecom position
Ġwire less
\ }$.
Ġpass age
Ġaff airs
ĠCamp aign
Ġland ing
) )\
im it
ĠD ise
Ġformer ly
Ġcon form
R ule
ĠN at
ĠBl oom
Ġarr anged
iss ance
Ġhigh way
Ġwe ird
ĠBr and
â Ħ
Ġlov es
ĠL anka
Ġrepl acing
ET H
cos ystem
ĠTh ailand
m ock
Ġrepe at
Ġmod ules
Ġremark able
Val ues
ĠJ u
is en
Com mon
part y
l adesh
T ax
i Äĩ
Ġsens or
ĠF ern
ib ration
D id
r age
ĠInt elligence
Ġphenomen on
ĠPe ak
Ġembed ded
ĠCh ampions
h over
Ġwar rant
cel ona
ort ed
ĠPro f
Ġcompens ation
Ġatt itude
Ġg ram
O k
E mail
Ġsurround ed
ĠS elf
ĠF em
ĠParliament ary
sett ings
b est
ĠPar am
ri el
ĠBalt imore
ym n
Ġ rows
Ġas c
Ġf its
L i
o il
e a
ict ional
Ġdes ert
Ġinput s
Ġr anging
ĠMar vel
ĠMat hemat
Ġf itting
enc er
Ġscreen ing
tot al
$ :
Ġag enda
ĠMarg aret
Ġse ar
ellig ent
math it
ĠOr chestra
M ock
h al
-- >
Ġev ident
Ġthreat ened
ĠLiber al
ĠDr agon
h ist
C ity
eth yl
Ġp ric
Fe ature
Ġdel iber
Sh ort
n one
ĠRe ading
con nection
Ġprote ins
ĠK er
V A
Ġappoint ment
n umer
ill o
ĠĠĠĠĠĠĠĠĠĠĠĠĠĠĠĠ ĠĠĠĠĠĠĠĠĠ
ĠI ce
Th rough
d frac
ĠCh amber
Wh ite
Arg ument
ro sc
Ġfrequ ent
ĠL ore
ĠApp ro
e ach
Ġmain stream
ex ports
Ġstrict ly
Q U
m ade
!! !
ĠChrist ians
Ġopin ions
Ġt ill
iz ers
verse as
Ġc rown
ĠU l
__ (
ne x
Ġquant ities
Î ¹
ac cept
ĠBe aut
ist ically
ĠC ert
N R
ĠPho enix
Ġ\ (\
Ġg all
b ing
Ġg host
Ġsucceed ed
b p
Ġdiagn osis
m ac
Ġh al
ĠSe pt
Ġch ronic
Ġp sy
Ġre construction
ah n
ĠObs erv
Ġdeterm in
Associ ation
al gorithm
t age
T ab
Ġmet res
Ġtw elve
Ġess ay
ĠâĨ Ĵ
Rel ated
g ow
Ġde ck
min ute
oc ese
utr ition
oc ate
Ġdesc ript
Ġmist ake
Stand ard
Ġvulner able
Ġclaim ing
}[ \
Ġem pir
T ests
ĠM aur
Ġview ers
Ġent ropy
app lication
in ces
pl er
b c
ĠSam uel
qu er
Field s
ĠP uerto
Ġm oon
Ġinhab it
Ġposs ession
aught ers
rad ius
ill ance
mark s
ĠT s
ĠSt re
Ġpand emic
Ġinv ention
ĠPortug al
Ġtouch down
ĠB illy
ĠSte ven
te ch
Ġun con
Ġround s
ĠH im
Ġdocument ation
Ġpl asma
C ategory
-------------------------------- --------------------------------
Ġg athered
Ġhe ter
ĠDen mark
Ġdr ums
Id ent
S end
spe ed
l ay
Ġper mit
Ġent ities
Or gan
Ġult imate
ee per
Ġdep ression
Ġven ue
Ġjud gment
on omy
Ġanal yst
Ġmax imal
Ġprom oting
C ur
ĠBrother s
ĠP O
ss on
Bo olean
amb ig
on z
19 23
rain ian
ver b
Ġstead y
Ġh ip
Can adian
ĠEd inburgh
iv an
ĠOper a
10 9
Ġmir ror
ĠW ang
Ġdream s
ĠPlan ning
Ġprotest s
Ġform ing
Ġoper a
Ch annel
P arser
m argin
Ġp ipeline
Ġhuman ity
Ġsp ark
D en
Ġsurv iv
ĠShe l
ĠIn n
ĠMarsh all
Ġple ased
ĠG ets
ond a
foot er
w he
pt o
O ld
stit uency
ĠF ab
plic ation
Ġexpand ing
c ross
Ġn ick
Ġimplic ations
ĠPri or
Ġst abil
ĠChall enge
F lo
| }{
hel p
g ression
w alk
ĠIn v
abl ing
A ir
M sg
Ġsh it
and ed
Pres ident
Ġa ug
ĠJer usalem
Ġder ive
Pro fess
M ean
r ise
ĠT un
Ġvolunte ers
ĠO K
Ġret rie
ĠR and
F inal
P RE
h ill
Ġvo ices
ĠWhe ther
ĠP oll
Ġb os
Ġh int
}} )
à ®
Ġgr ab
Ġconst ants
Ġart ificial
Ã ł
Ġc ref
Ġless ons
> .
est one
import ant
u ity
Ġm ic
empt yset
et ric
ĠF BI
X T
ver e
Ġal ien
yl er
Ġanim ated
ĠC rown
Ġsub stance
ĠPubl ished
Ġm igration
ĠF inn
less ly
Ġpro secut
pro b
De ath
Ġass et
Ġfin ishing
Ġanaly ze
Ġcho osing
ĠLu ke
ĠPort land
big l
Ġmodel ing
id ays
ace ut
ĠEm peror
ĠSh ah
w ave
ĠAl tern
Ġdiam eter
ĠT ed
Ġex tr
al ph
ex ception
Ġcompar able
her s
c ia
O pt
app er
Ġdefin itions
S W
ĠH ope
Ġvar iance
ĠB aker
Ar gs
Ġl ib
sc ription
ĠProfess ional
Ġrom ance
Act ive
R ender
B usiness
our t
ĠArab ia
ĠSever al
ig m
Ġl unch
HT ML
Ġaf raid
ĠWay ne
n ik
Ġcompat ible
w ild
mark et
ĠRet rieved
ock er
Ġsuggest ing
Ġinv alid
ĠCons ult
ĠC ultural
Ġsh adow
ĠH E
Feb ruary
ick ets
s quare
ĠL anc
G reat
ĠMar ie
Ġhad n
Ġab road
u ates
ĠL P
Ġindepend ently
param eters
ĠF alse
W H
Ġch amber
Ġre ign
] $,
ĠC ome
ĠH unter
sq l
ĠN ep
,\ \
L in
ac ular
ĠJ e
Ġreview ed
V M
C oll
Ġs urn
ĠPer haps
ĠThe ory
Ġp ref
ĠN eb
ĠT ig
Ed it
ĠG P
ĠĠĠĠĠĠĠĠĠĠĠĠĠĠĠĠ ĠĠĠĠĠĠĠĠ
Ġe q
Ġpurs ue
Ġvol umes
z es
Ġenem ies
Ġim aging
Ġinv asion
he ro
Ġhard er
ĠDak ota
br as
Ġman ual
Ġph ases
Ġcas ual
Ġp atch
val uation
ĠApp lication
M atch
Ġdam aged
Ġvalid ation
it ol
Ġs wit
ĠR O
- (
Ġass emb
Ġcounter part
n est
Trans port
B oth
Ġsyn chron
ĠMet ro
F ORM
Ġr anks
Ġcomm ander
Ġgener ator
Ġflow ers
Ġl ung
j ud
Ġst ating
ĠC ry
Ġcontrovers ial
Ġl uck
hat tan
Ġautom atic
Ġav ailability
Ġin fer
Ġst em
Ġdef ence
p iece
or ious
th read
ex ists
Ġemer ged
Ġpopular ity
Ġj ail
Ġconf ident
ĠClass ic
Ġpres erve
ĠH end
Ġsch olars
Ġst uck
Ġsol ving
ĠEv ans
}} .
Ġl ens
P od
b one
ĠCor p
k l
Ġb es
ĠNC AA
Ġover come
En abled
ail ure
pro perties
ate ful
Ġrequ iring
Ġviol ation
Ġnon linear
P ublished
Sim ilar
Ġs ust
en um
iss on
big r
> \
ĠFrank lin
ĠG as
Ġb at
ĠN ap
ĠJ SON
Ġcan n
ĠIran ian
im ony
ĠN i
Ġener gies
ir ts
Ġb ub
Ġqu ote
Ġpass word
ĠS ay
hav ior
Ġsurv ived
ĠC her
p read
pos itory
b n
ĠJust in
S ing
ĠT ru
ib bean
ĠTerm s
m ill
Ġse gments
m its
, {\
S ymbol
Ġrecord ings
Ġsp ots
FA ULT
Ġsu gar
Ġexpat riate
ant i
ĠSt age
Ġspe akers
iv ated
ĠThe ater
Ġche st
L at
Ġclos ure
am ents
Ġconf lic
ĠS oul
E ducation
Ġins ights
Ġport folio
Ġhospit als
y ll
Ġh unt
et ics
l arg
ĠAn c
Ġcare ful
ĠDis c
Ġrecover ed
Ġfrag ment
Ġcampaign s
C opy
19 11
Ġâ Ĥ¬
Ġm ouse
Ġrece ption
Ġproport ion
Stat ement
cl ine
ĠJ uan
Ġne ur
ĠĠĠĠĠĠĠĠĠĠĠĠĠĠĠĠ ĠĠĠĠĠĠ
Ġcompl aint
Ġmaintain ing
Ġmanufact urer
Ġn g
Ġconsist ently
Ab stract
ĠK l
Ġh orses
Ġf erm
ĠJ azz
Ġ< =
ul ative
ĠE V
c ity
ĠPitt sburgh
Pro of
h ai
in ar
Ã ¥
ant um
ĠOr ange
Ġspe aks
k ov
Ġminor ity
Ġs orry
az ines
Ġf er
ĠBe ing
____ ____
face book
Ġaw esome
ĠL l
ĠIn tegr
ĠR ap
ĠP i
Ġarrang ement
Ġback ing
Ġdetect or
ĠF ried
ĠH unt
Ġ( *
d iction
L Y
ig inally
Ġpo em
u ct
ĠH il
writ ing
Ġcar rier
ĠM oney
F ace
ed a
Ġf oss
Ġc yl
Ġvess el
ĠOper ation
Ġexp ed
ĠSimilar ly
L aw
Ġbeg un
ĠK ate
Ġres ign
Ġt el
Ġter rible
e ast
w t
Ġt ennis
Ġcl othing
Ġevery body
ĠSt orm
build ing
Ġapprox imate
ĠDe b
Ġun w
Ġrank ing
Ġmanufact urers
con duct
ĠChe l
M W
ĠI O
Ġste am
ĠLe ban
ĠAgain st
ym e
Ġdispl ays
Ġ' /
ĠS ony
pe ction
E st
ĠS S
Ġsynd rome
ĠJ oy
' ))
ut able
re port
ĠCh ron
ĠMit chell
ĠLe ader
ĠPr incess
Ge orge
aceut ical
H am
ul u
ab is
ĠW i
own ed
Ñ Į
ab e
t xt
Ġequ ity
ab a
ĠColl ins
Ġb orrow
/ (
Ġdo se
EC K
Ġcommission ed
long rightarrow
Ġeng aging
12 7
Ã© t
Ġthere by
Ġreal istic
neg ative
h uman
ĠW a
ĠC emetery
ĠE dd
ides pread
Ġreported ly
Ġo xygen
og ue
ĉĉĉ Ċ
19 13
D ialog
qu is
; <
L ondon
Ġvac uum
Ġsp r
iss ues
ĠBl ues
ams ung
;\ ;\
P erson
ĠMont real
}} }\
Ġattract ive
ĠK o
ĠS pect
Sum mary
Ch ina
Wind ows
TE ST
ec ution
ĠH erm
J ECT
Ġth irty
Ġco oper
Ġg ard
L D
im ated
Ġha z
Ġcomput ers
ĠP un
ĠMain e
uns igned
ĠRob in
Ġt ies
Ġw elfare
ĠI F
az y
l ayer
ul ates
ĠT ol
ĠF M
}) }
v art
ĠM es
Ġeffect iveness
t iny
ur se
) [
âĦ ¢
Ġload ed
it i
Ġb ronze
Tr ump
ĠSte el
ĠCommon wealth
P erm
Ġdesc end
Ġj ew
\ ;
ant on
res p
ĠP ictures
op ath
ac er
Ġcomp eting
ĠEar l
er ious
ĠAl aska
Ġc ous
requ ency
ĠJ en
ĠLiter ature
ĠM all
Ġ{ {
ĠE lection
ĠComm ons
ĠE le
Ġcred its
Ġt rem
Ġfl av
Ġfl ights
ĠIns urance
Ġcl othes
ph ase
D elete
v ature
Ġperiod ic
ĠA B
Ġst ops
E lect
me an
Î µ
ud son
ec ess
ĠR y
Ġcult ures
Ġtom orrow
je ctions
Ġc ricket
ĠS ales
ĠR ot
Î ½
Ġshould er
ĠC le
Com ment
B it
Ġv ibr
app y
Ġcond em
ĠF iction
ĠC P
th y
Ġton ight
id ges
ĠMov ement
Ġcomp aring
Ġp in
Ġt ips
B ro
ann es
ĠA the
ĠUn fortunately
Ġcert ificate
Ġ\ ]
s pecial
Ġbox es
ens is
Ġatt ending
Ġembed ding
Ġs ail
it ual
ĠC arn
Jo in
Ġn ut
rec ated
Ġcelebr ation
S ources
item s
Ġre actions
pen ame
Ġt ension
ĠE li
Ġact ively
pr ison
W R
aps ed
Ġdef ining
c od
qu ality
g roups
red ited
C F
Ġsusp ended
Ġlic ensed
oc hem
yn asty
Ġsupp lied
bo olean
ĠBar ry
is an
Austral ian
Ġcur rency
Ġper mitted
ĠMag ic
ĠH em
ĠPro duction
ann ah
Ġbelie fs
if le
Ġpaint ed
ĠOl iver
ymmet ry
Ġst ere
O wn
Ġimpact s
it err
ew ay
k w
S chool
ov ak
Ġprison ers
ĠL ic
let t
Ġactiv ation
Ġlux ury
ĠD ie
` ,
Ġens emble
w rap
ric ulum
Ġref lected
ash ing
Ġterm in
ĠN EW
Ġdis pute
ex ternal
Ġref lection
ĠCro at
Ġr anges
Ġim pe
Ġfrequ encies
Ġbl ame
v on
j ob
Ġm ixture
18 90
Ġd ad
Ġvari ant
$ _{
Ġexclus ively
ho le
ĠS ide
ĠV enezuel
iz ontal
ation ally
ĠG alaxy
Ġcan onical
") ]
ĠCharl otte
ĠHon or
ĠBar bara
Ġvacc ine
as is
u its
ĠF R
ĠF ro
ĠC ensus
f ocus
erem y
ĠGl as
Ġsil ent
Ġident ifying
Ġple asure
ĠÐ ¿
ĠP ant
ir i
ru p
ĠInter est
US E
ĠB irmingham
ĠNav al
Ġf itted
Ġse ctors
vert ed
Ġcal endar
look ing
P eter
Acc ount
ĠO cc
ĠHel p
ens ively
Ġform ally
Eng ine
v ideo
ig g
Ġn it
ĠTechn ical
More over
S al
ĠR acing
st ats
Y PE
Ġmanif old
EX T
Ġinc hes
In v
su pp
le ading
Ġp ic
Ġtext s
f ony
ĠPark er
Pack age
ĠN ad
be at
Ġm emb
Ġactiv ist
S pecial
Ġbuild er
Ġdi agonal
op ed
ĠPr imary
ĠG ot
Ġbl ank
}) =
m other
ard ing
ex per
Ġg allery
Ġarch ae
Ġtrans parent
ĠV eter
ĠÂ §
onom ous
ser ies
Ġcoll ision
Ġpush ing
A rm
Ġdo i
ĠTer rit
Ġbur st
apt ers
ĠQue bec
RE AD
Ġgrow s
. ),
ag ment
Ġveter an
Ġp uzz
Ġm sg
__ _
Ġsm ile
Ġvent ure
ĠC BS
[ -
ue z
Ġtransl ate
Ġco ord
H ence
ĠL ad
@ {
Ġb atch
ol utions
Ġne arest
ĠH orn
Ġprogress ive
ch arg
Ġtransform ed
Ġexpl oring
ĠD ir
ĠAr g
ow ell
Sc ott
Ġhe lic
ĠS L
ĠA rena
ĠB R
ĠArk ansas
ĠN othing
Ġcon gress
Ġpri est
ĠSt ream
circ le
ĠBre ak
ath on
St ack
h op
Ġo w
ĠOper ations
ĠBre xit
ot ton
Ġdev oted
= .
J ob
Ġdi et
ĠWrit ing
ĠPh arm
P ower
d in
Ob j
Ġear liest
ĠQu est
Ġmeaning ful
ĠS I
av an
ĠInd ians
W el
}) ^
X i
Ġcoast al
pl ugins
Ġgeneral ized
Ġreflect s
um my
osp el
Ġpro xy
Ġdiscrim ination
Ġrad ial
Ġexpect ation
it ime
ĠO ption
ĠCommission er
c in
2 20
Ġt ropical
Ġbr ut
ĠB ron
ĠBang ladesh
pl ant
Â »
ĠP ad
Ġperform s
Ġaccom p
ĠMach ine
ed ly
ĠFac ulty
Pr int
ĠM aj
enn ial
Ġb ene
Ġlab our
Ġprom ising
Ġrestrict ion
ĠSpe ed
Ġb read
Ġrefer ring
Ġp uls
Ġstraight forward
ect ure
nt ax
ĠR io
Ġ ).
iv ities
init ial
Ġanaly zed
Ġdisc ount
Ġw allet
ay an
ĠP red
ĠZ one
Ġp or
G old
Ġres olved
}_{ -
Ġ ^{
ĠF alls
ĠUn iverse
ĠS ad
ĠBe ijing
Ġinter ference
ĠPol y
Ġsure ly
" |
Ġoccasion ally
o ft
ĠHawai i
13 5
Ġdom ains
ĠE state
ĠWork ing
Ġprom ised
ĠC over
Ġlabor atory
Ġr ally
}$ }
C M
Ġcomb ine
Ġcar ries
Ø ±
Ġ å
ie v
Ġphot on
Ġrec ruit
St orage
Ġimm un
19 08
Ġlight ing
Ġqu ot
Ġass ass
ĠC atal
ĠH aving
Ġenter prise
iterr ane
ĠBen jamin
11 4
b ers
j et
ĠDe velop
qu ote
ĠAut o
} "
ĠF ine
Ġcl ip
ĠRep ly
Ġd rew
ĠG T
Ġparticip ating
Ġincred ibly
L ock
is p
ling ton
ĠFri ends
r andom
20 23
Ġagric ulture
Ġphys ically
M or
ev ents
Ġmet ab
L ive
ĠRe le
ĠM ack
i w
Ġiniti atives
ĠS R
ĠV I
Ġexam ination
S un
Ġlik elihood
Ġover view
fig ures
B Y
Ġin ev
Ġvess els
Ġg aming
i ota
ink s
r ass
Pro duct
D iv
re v
Ġd ated
Ġdis cret
Ext ension
Ġfram es
sl ant
Ġflex ible
ĠKen ya
ign ment
ĠG ate
ph ones
ĠAnt i
Ġpro be
ĠBar celona
ĠCons ervative
Ġanalys es
ĠD R
Ġqu asi
ĠP resent
ge bras
Ġhard ly
Ġtravel ing
ĠS ug
Ġemphas is
ĠL ower
Ġcitiz en
w er
he art
ĠOrth odox
Ġsearch ing
P AR
Ġval ley
ĠG round
ĠA y
ator ial
Ġintegr ity
B T
rist ol
ig ion
ĠStan ley
Ġtun nel
An n
Ġw idespread
ĠN BC
ĠPortug uese
Ġel ite
ro se
Ġgover ning
u art
Ġrest ored
comm unic
Ġind ices
Ġfe as
Ġ[ âĢ¦]
n ol
ĠS ym
ĠMean while
or rect
Ġassert Equals
Ġunder ground
ĠCh a
ĠHam pshire
Ġdeterm ining
W in
ĠGr iff
Ġdecl ined
G raph
ĠTh or
Ġut ter
Ġcast le
Ġt we
C am
m g
ĠJohn ny
b its
ig o
Ġseek s
ĠUnivers al
Ġg ross
Ġgre y
Ġsp ac
ey er
Ġsevent h
ac co
in line
er ion
ĠNet flix
og an
im its
Ġimp ression
h ind
âĢĿ )
", "
Â ·
Ġse cre
Ġun iqu
Ġout door
om es
Ex per
Ġreg ression
ine a
ado op
Ġfoot age
ĠN ear
l iving
Ġf ur
Ġim posed
g un
ac re
g b
ĠSus an
Ġcolon ial
ĠDef ault
="../../ ../
ri ors
Ind ian
text color
add r
ĠCo al
ĠHig gs
}} ^{\
ĠIs a
cast le
l oss
Ġtempor al
ĠM i
Ġpat ent
Ġfl ags
Ch ildren
Ġnob ody
ĠH ockey
ex pl
ound ing
Ġalleg ations
Ġdevelop er
ĠC itiz
Lem ma
Rich ard
ĠA ld
Ġm ice
Ġrepeated ly
Ġs aving
ins ic
ĠL ost
ĠNew ton
reg ister
Ġelement ary
Ġr iding
bre aking
ĠFin land
Ġearth qu
In ternal
.. ...
MA X
ĠF IG
Ġiter ation
Ġtim ing
id o
ĠC old
P ay
Ġgrad ually
Ġlum inos
Ġl ip
Ġu pload
Ġep ic
Ġbare ly
ĠA SS
Ġp ixel
C ho
Ġaud iences
O lymp
Ġexception al
S ingle
Ġswim ming
Ġmind s
lim it
Ġprepar ing
duc ational
Ġsc ream
Ġsub section
Ġdistingu ish
Ġst yl
ĠL uther
Ġremov ing
) &
r ust
u ke
Ġsupp lement
Ġdist ances
os itory
Ġhistor ian
Le ave
f an
Ġp ole
Ġen orm
ĠB rew
ĠMad rid
re lation
Ġassign ment
X ml
iterrane an
ĠV ery
ob i
ĠW onder
Ġe cosystem
ĠK rist
b ach
ĠO tt
Ġa ired
Ġc ust
B orn
D ouble
Ġang ry
B ur
H ave
Ġpre val
Se lected
olog ically
ĠV ent
Ġexam ined
ĠAr n
k ar
if ice
Ġevery day
Å «
3 20
ess ment
ĠK ids
ĠBroad way
ĠAlber ta
Ġfall en
Ġ} {
ers et
ĠR ule
Ġking dom
ch ing
ook ie
Ġac oustic
Ġattempt ing
Ġep id
om ed
Ġinfl ation
Ġgr ants
He ad
cm d
] :
Pr ivate
Ġdoll ar
he astern
ĠNev ada
Ġmoder ate
Ġor al
ron es
ĠW or
ili ary
Ġaw ait
Ġmiss ions
Ġh ung
l ive
Ġsp here
ĠC elebr
Ġth ro
ĠDen ver
bor ne
r ac
ĠC M
ĠCreat ive
Ġasympt otic
ĠC lick
Ġt ons
in ced
11 6
tikz picture
ins ula
Cl oud
fin ite
ĠSe ven
ĠH ind
Ġsepar ately
k t
Ġob l
att ribute
Ġco aching
ĠJenn ifer
4 50
Ġcommunic ate
R ect
ĠIm perial
Bi ography
id ad
11 3
sh ops
ĠBul gar
ĠN ar
er ver
Ġsh ops
Ġc inema
Ġimm igrants
ĠL arry
Ġcir cles
m illion
wid get
ĠU pon
. *
Ġres emb
ĠCar ibbean
Ġnom ination
ĠKar l
\ }$,
Ġens uring
Europe an
Ġlaw suit
Ġb ases
ĠAm y
al gebra
ĠR ud
ĠArch ive
) }_
Ġcon figure
g rav
Ġg raphics
Ġj son
column width
ĠO P
ĠC ou
grad ed
xi ety
ĠCh ampion
Ġmid field
ĠO ri
Ġrid ic
Ġclos est
ĠT an
Ġup set
o ons
Ġpropos als
ĠCom ics
r ays
Ġp up
se lected
ĠK irk
Ġg onna
out ing
ID S
lic ations
Ġam pl
Ðµ Ð½
It ems
Ã ´
ĠMan hattan
Ġtour ism
Ġscient ist
Ġcirc ular
Ġd ub
Ġpain ter
Ġp ub
Ġexist ed
m el
ĠMe eting
ro gen
ĠDou ble
ĠBrazil ian
own er
au er
Ù ħ
Ġextra ordinary
Ġbelong ing
dr iven
Time out
Ġmet all
s ym
ĠI de
iz ard
Ġl ucky
Ġdeg ener
Ġextract ed
he ta
ĠG ray
an alysis
end um
f act
Ġge ometric
us ive
Ġk iss
Ġque ue
Ġarrang ements
ess ages
Ġexec ute
ĠJ ob
Ġele m
cur s
he ll
ĠPr adesh
ĠConst ruction
Sc ope
r ish
Ġdepart ure
Ġoppon ents
b ie
am ic
Ġlif estyle
ĠA LL
A wards
We ek
Ġstri king
th al
Ch anged
ĠIss ue
P y
Ġnewsp apers
Ġd ashed
th ree
Ġconsist ed
Ġhabit at
Ġn ic
Ġtack le
Ġ' '
ĠPhys ics
inst all
Ġmarg inal
M ad
ĠT itle
sp ot
not ag
v ation
Ġann ually
Ġpubl ish
ĠH ost
ari ans
24 0
ĠT ogether
Ġmolec ules
M ajor
Ġcompet itions
Ġoccup ation
l ia
annot ation
Ġabsor ption
Ġm ild
!! !!
Ġestabl ishing
Ġdev ast
ov o
T w
ST ATE
17 0
D est
Ġfor cing
ĠLe ave
uss ia
us c
ut o
Ġadvert is
sh ore
Ġforest s
t ar
ĠT it
ĠArt ist
Ġper pet
om atic
C I
Ġsole ly
Ġsh orter
ĠBl u
Ġh itting
T ake
om on
ĠKe ith
Ä «
f ar
Ġmer ged
Ġrandom ly
W he
Ġult ra
Ġcontribut ing
qu al
Fr ank
ĠGr ace
\ |\
UN D
Ġburn ing
ĠN ode
ĠB enn
Ġch ampions
Ġrout ine
ed itor
e enth
11 7
ĠM is
Ġatt ributed
z i
list ed
Ġpart ly
ict ions
Ù Ĩ
ne cess
ĠIndust rial
L iter
ĠTre as
ĠJ erry
Ġm ood
Ġl ady
Ġconv inced
Ġmut ual
Ġw orship
Ġat oms
ĠSt op
ĠMur phy
ĠPro test
Ġconstit u
Ġd aughters
ĠU pper
Ñģ ÑĤ
M a
f eed
L ove
S ocial
om ing
Ġan ger
L INE
Ġfor um
ĠB ody
Ġmus cle
Ġun em
M ill
iv o
ĠG O
ĠTurn er
Ġpark s
ĠâĢ Ŀ
l ower
Ġjav ax
Ġcou ples
Ġis omorphism
Ġwild life
paren cy
RE D
Ġsm oke
Ġwarm ing
Ġdr ives
ĠS olar
u cl
ĠR ank
as et
Ġgot ten
on ies
S eg
ĠG ay
n ia
Ġcheck s
O fficial
Ġemot ions
m itting
ra h
pre c
Ġdet er
am ine
Ġagre ements
Ġtop ological
ĠMin or
ĠP ick
pass word
Ġis ot
iv ic
Ġim plements
act eria
Ġneighb ors
ah o
Ġwind s
ĠIn novation
Supp ose
Ġsusp ension
um ed
ab i
Ġd ip
ĠFe ature
Ġfail ing
ie ve
Ġstri p
st ock
ĠF err
intend o
acc ount
Que ue
Ġaffect s
Ġtal ented
AT ED
Ġem power
Ġhydro gen
b oth
ĠU g
ĠRes ponse
ĠSing le
ĠNaz i
other apy
Ġintrodu cing
Flo at
D ebug
Ġsing ers
re view
Ġexp enses
$ {\
m ove
Ġdem ol
Ġstrugg ling
ĠK u
Ġch ances
F our
S il
)) )
s un
de velop
ĠCam eron
ham mad
w iki
Ġinvest ments
S Y
Ġde emed
ĠClin ical
Ġcomp lement
Ġte eth
Ġst ochastic
19 09
boot strap
am az
ri en
d p
Ġp ounds
Ġpre lim
K ing
Ġat omic
Ġengine ers
Ġs hed
Ġg ains
Ġdeploy ed
Ġnormal ized
ĠM essage
S F
s ave
G a
or o
par a
ordin ate
ĠP arent
ind a
t ail
multi row
Ġcorre ctions
id ency
G F
19 05
ĠRes erved
ĠSpring s
Ġbon us
Ġ\ ,\
N umer
Ġdo zen
Ġwalk s
ĠDemocr at
Ġlong est
d ag
id ity
á »
Ġpos it
Ġch ains
Ġsu pers
Ġend ors
. ]
Ġview ing
Ġpo inter
Ġdifficult ies
Ġd ying
ĠSp ot
Ġprem ium
M ass
ion ed
em on
Ġinterpret ed
v ance
Ġin sect
Af ric
Ġconv icted
Ġcons ensus
in tegr
ĠR ing
Pro file
Ġhoriz on
un ion
Ġdis put
Ġsub group
s ong
Ġ" /
assert Equal
ĠInf antry
ĠB ird
ĠFil ms
Ġl iv
Ġmod ify
+ (
as ia
Ġproport ional
f our
st ration
M ake
Ġseem ingly
uck s
Ġ-- -
h alf
} |\
Ġjuris diction
St op
Ġw avel
om i
Ġproject ed
un ate
Ġprocess ed
Ġneg lig
Ġhar ass
t oggle
ĠC F
2 13
Ġn ose
ĠCru z
s elling
Ex ample
Ġun ve
ĠMor ning
Ġg est
Ġob sc
Ġproceed ings
lim ited
Ġde viation
Ġpsych ological
Ġ" "
ĠN am
ĠM ason
Ġsp ell
Ġinflu ential
Ġar ise
Ġb orders
Ġdecre ases
Ġw ounded
ĠA aron
Ġsu ck
ĠAm endment
ĠM asters
Ġinter fer
Ġenthus i
M o
call back
Ġsl ot
Ġdep icted
ĠW ikipedia
ĠG M
Ġh tml
Ġequival ence
Th omas
ĠL ux
og onal
AT O
hib ition
Ġt ape
Ġp ill
Ġab ilities
ĠH az
ak u
ul ent
sl ash
te am
Ġhand led
Gr id
ĠGi ants
ĠS ymph
Ġanch or
ĠW AR
ĠGlas gow
pect ives
com ponents
Ġl os
P ool
com put
AS H
fl ags
Ġnot ing
ĠMov ies
Ġfacilit ate
J SON
Ġst rain
ĠR achel
ĠWith in
ĠVi enna
Cl ose
Ġ Ä
ÑĢ Ð°
Ġlog o
Ġrat ings
C lear
ĠO scar
ĠTe acher
» ¿
Ġtra iler
am ination
Ġcap s
Ġentreprene ur
Ġev olved
Ġt ens
19 06
Ġven ues
Dat abase
ĠC ov
U ID
m ask
Ġinter active
ĠTransport ation
ier ra
OR Y
ĠHe b
Ġprov es
ĠCon stituency
vol ume
chn ology
Ġcross ed
b ia
indu ced
Ġhero es
Ġag gressive
Su ccess
Ġinhabit ants
Ġspec ify
Ġcr ack
Ġsol ved
ĠG host
ĠSe an
Ġfl ower
akes pe
r aska
Ġc rick
ĠP ra
Ġpre st
ĠG olf
f iction
Ġt ube
L and
ĠR ules
Ġ io
amp ed
Ð ·
Ġhand ed
Ġsubsc ription
Ġicon ic
ĠMet ropolitan
E V
ï »¿
ĠBill board
Ġexpl ored
ĠP el
Ġnegoti ations
ĠLa ura
Ġfasc inating
ĠPer ry
ix on
Ġcool ing
Ġimm une
ĠT otal
id i
av irus
ĠSh are
Ġtrad itions
ĠF ed
Ġam id
ĠAdv anced
J ul
d ash
ĠFant asy
config uration
Ġbank ing
ul ing
Ġcy cles
Ġmar ry
F ramework
^{ (\
Ġconfig urations
ĠDown load
S QL
hab ilit
m ag
Ġcap ability
Ġtraject ory
[ :
at ile
h arm
ĠB apt
Ġcom ics
ĠC ould
ĠW ould
ard ed
Ġderiv atives
Ġle an
ĠC arm
m atic
Ġvari ed
Ġwood en
ĠCarl os
ĠImp act
ĠB aby
alyt ics
ĠL oc
C apt
ĠWar ner
ĠMethod s
rom agnetic
Ġext ending
struct ure
Ġc oc
Fl ags
f olk
ĠCon stant
Ġlabel ed
Ġlett ing
Is rael
Ġh unting
Ġoppon ent
Ġr ivers
ĠIm pro
Ġad s
Ġtum or
Char acter
um ing
Ġalign ment
ster dam
Ġfr ustr
Ġcorrespond ence
Ġfluct uations
Ġsh ore
Ġdynam ical
T M
Ġim prison
Ġconf used
Ġinc idents
ĠDan ish
Ï ģ
Ġremain der
Ġinflu ences
Ġinvestig ations
ĠV el
ah a
Ġed iting
ord ered
Ġbatt les
ch t
Ġf ate
gener ated
c b
Ġattract ed
duc ible
Ġo verseas
Ġrest ore
Ġcur vature
Ġinter vals
Ġtrans it
IP T
ĠL ot
Ġwant ing
P N
ĠBern ard
Ġre construct
ĠC ars
Ġtrad em
ĠM erc
Ġsequ el
M aster
ĠY ang
Ġcount ies
Ġspecial ist
e conom
Ġmem orial
cont roller
ĠK el
Ġt ags
En vironment
{ "
ĠStat istics
ose x
H istor
Ġhar vest
ĠCirc uit
12 1
ĠCr iminal
ĠM ade
^{ *
ĠY ank
Ġpres erved
Ġmyst erious
s ing
Ġdemocr atic
ĠK il
ĠF itz
ĠT arget
ĠL isa
Ġin cent
Ġvirt ually
Ġpo ison
cal c
ĠJ oint
ĠN ord
script size
ĠR s
og ical
Ġper ception
ĠB right
) })
^* \
Ġsu pre
ĠF ast
Ġf ert
em a
iz on
ĠHill ary
Ġintr ig
L R
Ġafford able
V ERS
Ġbar rier
que ue
man ager
)) );
ĠY u
Ġaccept able
m f
Ġdeput y
ĠS r
pt a
ke ley
Ñ ĩ
Ġph ones
ĠPalest inian
Ġrun ner
uck er
ĠNe il
ĠB io
Ġaug ment
F lor
ĠP ic
as ive
d ig
R a
Ġsold ier
Ġlock ed
Ġmet adata
Ġcloud s
} ~
ist le
Ġbut ter
Ġdistingu ished
Ġt ends
ĠP le
12 4
Cont in
ĠM ans
}} =
Ġvol tage
Ġgather ing
Ġ$ ,
Ġqu ark
ĠK itt
Ġst unning
ĠD oc
B ER
e or
Ġt ar
am y
Ġaccept ance
og s
p ic
Ġsh ipping
clud e
Ġtrans itions
Ġmeas uring
H ub
Ġterror ist
for ced
Ġchem istry
Ġprotect ing
rang ian
akespe are
H om
cel and
19 07
Ġf ract
Ġobject ives
Ġcheck ing
ĠR ico
Ġn ights
Ġnot ably
inn ed
Ġsp ir
M el
st ates
Ġp ose
Ġgraph ic
OW N
Ġuncertain ties
Ġm arch
ĠH R
//////////////// ////////////////
li ers
Ġcontr ary
Ġdro ve
ĠR av
ĠE D
Ġlog ical
Ġch at
Ġcol leges
Ġt weet
de ep
plic it
19 04
ĠP rix
Ġb ills
et o
Ġa ux
Ġor ange
ĠBroad cast
ĠCamp us
u gh
f ers
ĠF ROM
L java
ys ics
ĠV oice
Ġtri ple
y g
P Y
ĠG ov
ĠGuard ian
Pro gram
ac ies
i pt
h h
ĠPract ice
Ġw is
Init ial
Ġlegisl ative
P ad
S at
s ingle
Ġin herent
Ġmed ieval
b ai
Ġansw ered
re ction
Ġdifferent ly
on ed
Ġdis orders
Ġpoll ution
Ġdec ides
Ġm ath
ĠSquad ron
A I
ĠF ish
Ġsec ured
B F
Ġ rib
ĠSu ccess
Down load
Ġpro l
Ġind irect
the me
Ġuniform ly
on ing
Ġkill er
Ġmathemat ical
ĠW es
ĠEx ample
ow der
Ġpower ed
ĠM atch
Ġexpon ential
ĠInvest ment
Ġgold en
Ġroll ing
Ġdepart ments
Ġform ulation
Ġemploy er
ĠK ay
ĠChristian ity
vart heta
ĠM ak
Ġst roke
ĠN icol
Ġvolunte er
ĠM om
E ast
Ġdecre ased
Ġph osph
Olymp ic
Ġcontrovers y
T ool
ĠFl ight
Ġpack et
][ ]{
ĠS eg
ash a
in ery
Ġb ug
Ġcomp ilation
M atrix
p aper
ĠP H
Ġle ts
Ġretain ed
ell ers
Ġas h
Ġr hythm
ik o
}\ |
ĠCost a
Ġwork shop
Ġgenu ine
Ġsl ope
ĠMount ains
M ag
Ġcert ified
ĠB ud
Ġm eth
ort s
C ard
ç ļ
Ġalleged ly
ĠK an
In formation
ĠM Ps
Ġsum m
T ur
Ġcon clusions
ju ana
Ġl obby
e u
ĠK le
Ġempir ical
AN G
Ġpro sec
ĠP ul
ĠY am
Ġsw ing
Ġw ars
Ù Ī
Ġconf usion
Ġper ceived
med skip
ari juana
B ill
se par
ĠC atherine
Ġhand ler
Ġdelay ed
ĠS yn
Ġaccomp any
ĠCons ervation
Ġeconom ics
Ex pl
Ġsmall est
Ã ª
18 80
ĠLeaders hip
Ġt orn
Ġup grade
ĠEgypt ian
Ġrock s
Ġhon our
Ġcons iders
Ġgrav itational
Ġtele phone
count ry
Ġp ixels
em or
ad ows
Ġpers u
os opher
pp ers
Ġmeta ph
et on
Ġcam ps
clip se
ach ine
ĠComm ander
ĠF if
Ġcon spiracy
Ġf ool
Ġwarn ed
Ġconstitution al
ens itive
qu est
th rows
ĠHung ary
ent o
Ġposs ibilities
ĠStr ateg
Ġcry stal
7 50
Ġal arm
sche ma
s ample
Ġconscious ness
ge x
ĠAl fred
St ation
ĠCub a
atern al
ĠFreder ick
ocol ate
ĠSupp ose
ĠD iamond
ĠMO RE
Ġpoint ing
C ross
ry ption
12 2
å ı
ĠS ometimes
19 01
ow ing
ĠAb u
Ġpre vention
Ġtrans mit
] {\
Ġim per
Ġs le
EE E
Iter ator
N or
ĠD eg
Ph ot
Ġp ars
g it
Ġed it
r ative
Ġcomb ining
ĠSy rian
ĠUk rainian
Ġimp ly
ĠS F
ST AT
pos al
ine e
Ġac res
Ġtest imony
Ġp refix
ops is
Ġprem iere
Ã «
c ost
Ġrac ism
Ġd ish
Bl ue
Ġinstrument al
F iles
amp a
am med
ip es
ĠR T
Ġsl ave
us k
à¤ ¿
Ġs ends
Ġsum mit
Ġra pe
Ġ% }
Ġang les
ĠRequ est
Ġaccount ing
a uc
Ġdeterm ines
\ }\
ĠNot ice
z ens
Ġd ump
Ġshift ed
ick ed
sh a
V C
ject ure
) ">
ro v
ĠTr uth
Ġsil ence
in ely
J S
ĠN iger
Ac adem
Ġegg s
im ir
Hel p
Ġsc reens
pr ises
Ġrest oration
Ġimplic it
re ach
h is
Ġtw in
Ġwor ried
Ġm os
ĠBr anch
Ġste ep
em ption
Ġlov ely
Ġfit ness
fe ature
he ld
et ta
Ġdeliver ing
on ce
Ġinc orrect
f g
Ġcoal ition
Ġpul se
U ES
ĠS oph
ĠS ent
######## ########
Ġa qu
ĠMed iterranean
Ġth rew
ĠJ a
f c
ĠSh a
Ġr itual
Ġsh ield
Ġsoph istic
ĠCont ract
Ġt ours
vent ions
l g
ĠB egin
A uth
stand ard
u ce
Ġd iamond
ĠCont emporary
ĠW alt
T or
ĠP ent
ĠCon c
ĠD rama
y outube
Ġappro ached
Ġf iscal
ĠH at
Ġd b
equ ations
Ġt une
Ġl ap
Ġguarant eed
ĠHarris on
Ġsh apes
Ġm amm
ut ing
Ġs ake
des ign
Ġw ings
ps y
ĠT ak
Ġpe oples
Ġadopt ion
to ol
Ġrac ist
ick et
b ank
Ġdis contin
ĠRich mond
Ġbe ating
ĠLabor atory
ĠC u
ĠAl ban
t ed
ĠSong s
Ġabund ance
ĠF riend
Reg ister
Y eah
Ġn erv
Ġsimilar ity
ok a
Ġen velop
Ġposter ior
ĠAud io
M ilitary
Ġlo ose
ar ith
int o
Ġin duct
m ount
Ġpr ay
Pro xy
: =\
Ġinstance of
Des ign
! ]
ĠBat man
Pl ot
Trans action
Ġtr im
Ġpolar ization
ĠR ugby
d c
n m
Ġl ibraries
land o
Ġgr an
ern ess
v c
ĠG rey
Ġà¤ ķ
sh aped
ĠEvery thing
c ounter
ĠB L
Ġconvers ations
path y
itte es
S ever
Res earch
ĠSte vens
um m
çļ Ħ
Ġele g
w oman
Ġb rick
ĠK id
Ġrepl ied
Ġt ribute
Ġel abor
ra pe
Ġweight ed
sub sec
th row
Ġsc andal
v ine
ĠFa ith
Ġadm its
Ġcy ber
ĠR angers
Ġh yd
Ï ĥ
^ ^
Ġbene ath
Ġ\ &
ĠCom merce
ĠIm port
Ġf ighter
m und
Ġexc it
Ġmedal ists
ĠE SP
Ġprom ises
R oman
Ġsh ame
ĠBet ter
ĠT ry
ob serv
ĠF ourier
Ġs isters
Ġpar a
Re lease
Ġdiv isions
ĠB ear
Ġconj ug
P rior
Ġconsist ency
drop down
Ġb anned
Pl an
==== ==
Ġd ancing
Ġin duction
Ġpl ug
Ġimpl ied
Ġmat ched
Ġcomment ed
ol ia
ĠV ision
Ġsim ulated
ĠM ut
ĠAdd ress
L ou
Ch ris
ele gate
Ġresid ual
ĠT X
Ġint elligent
R ussian
ĠL ate
h idden
Ġok ay
2 10
G G
phant om
ĠT ag
S ep
os lav
op edia
Ġact ed
Ä ĥ
N D
s ys
ĠAgric ulture
ĠGre ater
Ġbroad er
. ).
com plex
Ġpr ayer
ĠWel sh
ĠK ash
Ġli ability
ambig uation
Ġoccas ions
ĠH udson
Ġe uro
serv ices
LE D
pan ic
Ġdef ending
[ $
Ġb il
w right
f ight
Ġall ies
Ġtreat ments
ĠH indu
h adoop
function s
\! \
i ov
Ġdist inction
ĠS ustain
k n
Ġpl ots
ĠB ristol
ass ets
ars et
ĠV erm
ĠF at
Ġcour age
ag ar
Ġcogn itive
Ġrail road
ish ops
ĠM ail
rict ion
fl at
Ġh ub
19 03
Ind ia
Ġpure ly
Ġlegend ary
to o
Ġachie vement
ĠA ve
}{ {\
us ers
Ġprogram mes
ĠLeg end
Ġb ab
ĠA w
ĠVin cent
Ġpred omin
et e
tri angle
C reat
L ight
Ġpseud o
ĠEd wards
sim ple
_ ,
Ġsim plicity
Ġun ity
ob a
Ġboard s
ĠWat son
H ol
ĠEth iop
ĠLin ux
r ift
az i
r and
ĠP erm
Pro tocol
) ^\
re ated
Ġart ifact
ĠCh and
ĠB achelor
Ġr ated
Ġstay ing
du ces
sp ired
ĠSol utions
struct or
Ġhighlight ed
Ġat tr
el ines
ĠTig ers
Ġserv ers
Ġphys ician
ĠV ik
am ilies
Ġ} }
orne ys
ĠNorm an
ĠS aints
Ġelect rons
p ire
ew ise
ĠUn like
Pop ulated
assert Equals
Ġpo ems
Ġrecip ient
cer pt
Ġspons ored
av ailable
( !
Ġqu oted
b ecause
Ġb ind
ĠR ural
ĠM ong
ĠGover n
Ġlo ans
M ount
ort ex
res pect
id x
ĠHe at
ĠCol lect
ĠL ion
inc inn
ĠMil an
Ġen z
ĠEx cell
æ ľ
ĠDe al
Ġdiscuss ing
Ġacknow ledge
ĠAssoci ate
Ġm ere
ĠK ind
script style
her ical
ĠSt atus
ĠIn teger
Ġa est
Ġg ly
ĠQu arter
Ġsurve illance
v or
Ġer u
ĠF an
Ġfunction ality
Ġcompl aints
ĠE ST
ĠRoman ia
C amp
ĠMad ison
Ġd x
per iod
uk a
R ail
Ġd war
! \
web pack
che m
ĠGr an
pl ates
pr imary
det ails
Select or
Ġpost ing
Ġhum or
Ġcomp ound
Ġc av
Ġin cl
ĠHig her
ĠTam il
Ġst olen
ĠW ag
N ET
ĠHar vey
Ġaddress ing
E ffect
plement ation
Ġpregn ant
ett ers
Ġencounter ed
Ġmag azines
Ġiniti ated
19 0
ĠT ab
V ill
() {
ĠT on
Ġcomm ands
Ġsub str
Ġhom eless
Ġbur den
Ġsh ifts
0000 0000
Ġhost ing
2 30
Ġbe ings
Ġfollow ers
Ð¾Ð ²
Ġs its
ĠL en
ĠArchitect ure
Log ger
ĠCl are
Ġrefuge es
ol ine
Ġloc omot
Ġdismiss ed
Ġse eds
ĠSh aw
ĠT erry
air y
au kee
âĢ ħ
Ġdiff usion
Not Null
Ġinn ocent
Ġobtain ing
ĠFl ore
Ġper mut
ari ous
Ġorig ins
Ġbl ast
Ġ$\ {\
Ġh ire
protect ed
Ġg ri
ach i
ĠTr ad
Ġdi abetes
B IT
ĠT u
Ġprelim inary
ĠF ollow
ov ich
ĠPro file
Ġste pped
J im
Ġbreak fast
sen al
hol m
18 00
r h
Ġaccompl ished
ĠProduct s
Ġmort ality
ĠO DI
pos ing
Load er
Ġp ending
FI LE
ĠS id
pl atform
Ġwe igh
Ġs id
14 4
ish a
Ġv ic
Ġcent ered
Res ources
det ail
b d
j query
ab ul
ĠAN Y
Ġimportant ly
Ġstri kes
incinn ati
ĠEd ge
Ġauthor ized
en berg
ĠCl ay
F ar
w art
Gener ic
"> &
ĠE sp
ĠK on
ĠExper ience
ĠMet al
Direct ory
ategor ized
Ġd ys
Ġac ute
ĠB omb
Ġland ed
T F
Ġmin istry
O H
Ġgr ateful
E lements
Ġre n
ĠDef ence
itt ers
ĠJeff erson
ul in
ĠRog ers
ĠB eyond
ir s
Ġdiv is
friend ly
T ABLE
Ġex pense
Ġrev ised
Ġc um
Ġsynt hetic
h aw
B ibliography
Ġd ivers
ĠC row
h ook
app ly
Ġf atal
int age
ĠSh ang
Ġl iver
ĠW ing
Ġinn ings
ĠR A
ĠD raw
ar us
agon ist
ĠEnter prise
ĠB eth
R ole
e val
ĠCommun ist
ĠE lementary
Ġb om
ull ivan
Ġsus pected
ir able
ĠC IA
ĠCon fig
ass oci
Ġtr ump
ro d
c ano
** *
at iv
ch anges
man if
Ġrat ios
Ġcal m
Ġreson ance
Ġ{ '
Ġw ishes
ĠScient ific
Ġde ployment
Ġrel ate
Ġcomment ary
Ġenorm ous
ar an
Ġdef ic
Ġsubt le
ad ic
-> _
al ities
Ġtw ist
il ia
ĠQ uality
Ġext ensions
zer bai
h all
AN CE
Ġsome body
ĠMar x
UT F
ĠNich olas
ar re
add y
Ġarchitect ural
Ġglob ally
h n
N EW
12 6
ĠGl ass
Ġreserv oir
ĠColomb ia
Ġdefend ant
Ġpra ised
Ġred shift
ĠBatt alion
Ġvol unt
ĠKe ep
ĠH ash
Ġp our
is ot
Ġemploy ers
Ġcons olid
upload s
ĠK os
aged y
un ing
Ġaltern ate
Ġad equate
Ġelim inate
Do es
Ġwith d
Ġ[ ];
Ġscholar ship
Ġres igned
Ġstream s
R oute
Ġap olog
ï¿½ ï¿½
cor ollary
Mult i
ĠCom b
Ġan ten
Ġ( {\
Ġimp ressed
contain s
Ġsav ings
Ġh o
ĠH ousing
Ġex ports
ĠSim ple
ĠT rain
Ġf unc
() ).
ĠC ut
C y
Ġagre es
p al
Ġlist ener
Ġorder ing
Ġpregn ancy
ĠS QL
() ));
ish ments
Ġf usion
ĠSt ra
H en
he alth
h fill
Ġgovern ance
Ġn od
amb ers
r ub
OC K
}{ *
met ic
R ock
T ex
om eter
ĠB irth
Ġluminos ity
ĠJ ama
19 02
ĠR isk
ĠMont ana
l ass
ĠP E
st orm
ĠB ot
Ġind igenous
Const raint
us p
Ġpract ition
Ġadvoc ate
ĠĠĠĠĠĠĠĠĠĠĠĠĠĠĠĠ ĠĠĠĠĠĠĠĠĠĠ
ĠM oz
B ad
he rence
Ġt ut
Ġstop ping
Ġload ing
Ġcollect ing
Dis c
ĠEm ma
SI ZE
. \\
ĠAv ailable
Ġfriend ship
equ ence
et r
ĠN A
Ġrecogn ised
Ġremember ed
ut f
â ĪĴ
add le
Ġrem arks
Ġwhere in
Ġtop ology
est ing
17 5
by tes
P resent
âĢ¦ âĢĿ
olec ular
at ics
to ols
ĠNever theless
G od
vis or
Sim ple
ĠD ig
â Ĥ¬
est on
op ing
Pl ugin
r ors
Ġback ed
( -\
ia o
J ew
Ġbar rel
ĠForm er
ĠVis ual
ĠCl aim
nol imits
Ġmotiv ated
Ġf ed
ĠAl t
ĠL ith
on line
Ġgl obe
C a
z b
ĠN ancy
ack er
Ġstat s
h um
U G
ĠM I
Ġbo ats
F ootball
Ġt ap
Ġcur ious
io x
Ġfl avor
Col lections
Ġ ul
foot notes
Ġwitness es
w aukee
d ialog
che ster
Ġmod ification
cle an
sc roll
ĠN an
tr igger
lear ning
f ixed
Ġmount ed
Ġemail s
ĠReport s
as ures
ĠWe ather
bet ween
Ġdist ant
18 70
M OD
Ġacqu ire
ĠR ivers
ĠP icture
ÃŃ n
r Ã©
Ġvari ants
Ġstreng the
g om
ta wa
ĠQ ual
Pl ayer
ce il
Ġillustr ate
ĠB ath
Ġann oy
ĠPl atform
Ġbond s
Ġsh oes
ĠB asketball
Ġinvestig ating
_ ->
AM P
Ġhe m
( @
Ġb alls
Ġapp end
U B
Ġgr ace
init ely
ĠVictor ian
ĠTh ink
ĠW orth
ĠTo o
\% $
ĠSer ver
Ġorgan ised
Ge ography
Run time
VERS ION
ĠG ive
M ary
Ġexclud ed
Ġbet a
M apping
ĠSymph ony
o i
Ġ{ "
Ġingred ients
Ġprov incial
ĠArab ic
par allel
ĠNeb raska
i eg
ĠE ld
Ġcourt esy
Ġme al
Ġab ol
Mem ory
g row
Ġin comp
Ġarr ives
Ġaccur ately
ĠU V
ĠAl ong
ĠB JP
Ġdemonstr ates
Ġprocess or
umb ai
Ġforg otten
Ġabs ent
Ġign or
ĠStr ategy
Ġdu o
ĠR ange
A li
Ġeigen values
Ġg ray
Ġlegit imate
ract ed
Ġcontinu um
ech o
ĠHor se
Ġconflic ts
cons ider
Ġcomplet ing
Ġc ave
Ġr ings
ĠPhill ips
A gent
ĠCat hedral
Ġfun eral
UR I
establ ished
Ġsurn ame
Ġc ig
Ġbench mark
Direct or
a very
Ġcont rolling
Ġthe sis
ĠĠĠĠĠĠĠĠĠĠĠĠĠĠĠĠ ĠĠĠĠĠĠĠĠĠĠĠĠĠ
n l
ĠB S
ĠSh akespeare
Ð ¿
ens en
Ġf ingers
co q
Ġafter wards
ĠMu hammad
Det ails
C V
NavBar Cell
Ġmer ger
Ġless on
Ġro ster
set s
Ġsust ained
qu arter
ĠHel en
im edia
Ġan xiety
Im port
ĠDise ase
Ġprint ing
ar ms
ro b
Ġchalleng ed
O B
ĠEm ily
AD D
oe ing
con v
L ead
Ġperturb ation
Ġcompris es
Ġep och
m oment
Ġpr ide
Ġf iring
Ġintern ationally
ĠE ve
Ġmag ical
Ġmurder ed
Ġconcent rations
ĠC ox
ĠMe chan
s chool
F ire
ĠAm sterdam
Ġwealth y
ĠS or
Ġw age
ĠP in
app rop
res ources
Ġ ,\
Ġfil ters
ĠBuff alo
)-- (
Tele vision
ĠB ass
ĠW E
oc co
oper ator
Ġadvant ages
J ud
footnotes ize
ĠGe V
S cale
ĠC er
sp in
Ġdeb ug
ĠV ict
orpor ated
ĠCo hen
By Id
Ġcom ed
Ġpe aks
ĠSc i
Ġso vere
ot he
Ġmon ument
ed ed
ĠBi ology
Ġdon ated
Ġt ired
ip art
print f
ĠS alt
ĠHar per
Ġtri angle
C ert
Ġthe at
ĠSoc cer
Ġpack ages
un ique
Ġachie ving
ograph ics
Ġsw ord
ĠAlex and
Ġh anging
ĠCom edy
ac a
Ġcru ise
Ser ies
Pro to
ĠT odd
W idget
ĠC ant
ĠK ill
ĠBrig ade
ĠSand ers
J ava
Ġrad ar
ĠSpe aker
P red
Ġb uses
Ġfast est
iz a
Ġjo ins
Ġaver aged
ĠB iden
ĠTOD O
Ġodd s
ĠE mail
Ġt ent
ĠD aw
Ġelect oral
ort on
P anel
ĠM ario
ĠM ol
ĠW rite
ĠDef inition
Ġdraw s
Ġens ures
Ġr h
= $
ment ioned
ĠD B
Ġoutput s
comp are
Ġm ature
Ġcorpor ations
Ġcontinu ously
y y
igh bor
if iable
Ġsound track
" `
ts d
ocr atic
Ġdisappe ar
ĠH ob
Ġthrow ing
hand ler
Sports people
Ġoverwhel ming
N P
Ġsm oking
ĠMathemat ics
=" @
OR K
d istance
ĠI E
our g
ĠP ain
Ġat om
W ed
cl uster
er ie
Ġbel t
_ (
ĠD ennis
ĠMaterial s
ĠSer ge
om ething
Ġcomb inations
Ġhot els
ĠSum mit
ĠPhil osophy
N ULL
ĠB A
A h
ĠCap itol
Ġqual ify
ĠMult i
Ġ( ;
C ategories
Ġb ay
ut ers
Ġ( ),
if i
at ivity
14 5
Ġblock ed
ĠV A
> !
Ġfor b
ĠBob by
ĠV irtual
Ġdiagram s
iz za
Ġport rait
c ott
Ġa uction
Ġen abling
ĠLear n
sequ ence
Ġtour ist
met adata
Ġpred ecess
Ġdens ities
Ġpick s
P ER
view s
AT CH
Ġsurve ys
ĠĠĠĠĠĠĠĠĠĠĠĠĠĠĠĠĠĠĠĠĠĠĠĠĠĠĠĠĠĠĠĠ ĠĠĠĠĠĠĠĠĠĠĠ
ĠA round
ub er
Book s
ĠNot es
Ġfood s
L ayer
Ġpack ed
S ER
Ġch apters
ĠY e
ut ic
Ġcous in
m usic
ĠLegisl ative
Ġin ference
st ation
ĠEm ploy
ĠLie utenant
H y
Ġj ournals
ĠTre k
M ath
g ather
ĠLiber ty
ĠV ic
ĠWork ers
or ic
Ġman ages
ĠÃ ł
ĠNep al
s witch
Sh ould
Ġaffect ing
Ġimplement ing
ag i
Ġinstitution al
Ġre q
Ġmechan ics
Ġcomp elling
Ġquad ratic
Ġsem antic
Rem ove
Wh ich
com fort
Ġan ime
Ġcancell ed
Rad io
Att ributes
Ġres et
ĠD ra
Ġsubstant ially
à¤ Ĥ
Ġpl acing
Ġn ortheast
ĠPier re
Ġwis dom
Ġcount ing
ĠLet ter
ĠA irlines
ĠUn c
ah l
ixt ures
ens on
dis ambiguation
ethe less
ĠM ann
Ġsc iences
ĠT rophy
ab we
G D
deg ree
Ġdocument ed
Ġal le
Ġsh aped
Ġelim inated
Ġexplos ion
s ized
ĠA verage
ĠN athan
Ġcomp ounds
Ġrec ur
ĠðŁ ĺ
ĠYO U
ĠOver all
el ia
Ġbul let
ĠA x
Ļ Ĥ
ĠL if
eng u
Cl uster
uss els
Ġch ip
ĠCo ach
ĠI celand
ĠLuc as
in her
Ġtri ps
pl ain
Ġmer ge
Ġpl aint
}$ \
f ix
ĠT ib
L en
ĠA F
ced es
Ġencour aging
Ġsub mission
Ġcook ing
Ġmist akes
Ġf ires
ĠD raft
res et
Ġform ul
ĠCons erv
par ser
$. }
rol ogy
rupt cy
ogen ic
Ġst om
ĠAr ctic
Ġw rest
Ġtox ic
Ġp a
ol ute
ou p
Pat tern
Act ivity
ĠCommunic ation
Â Ģ
Ġh alo
j or
Ġcon ce
27 0
Ġtravel ed
ĠWell s
ot ype
Ġsens ors
ĠA viation
Ġfest ivals
Ġcry st
row se
Ġhop ed
ĠM ick
Ġassoci ations
Ġg ig
Ġj oke
ĠT ournament
Ġhom ogeneous
Ġres ist
ID E
ĠHit ler
Ġj unction
ĠId ent
ĠS amsung
OM E
n il
Ġneutr ino
per ature
Ġjournal ism
ĠC ricket
Ġgener ates
Ġy ard
p rom
15 5
^* (
Ġpro totype
Ġcl ause
Ġpresent ing
cons istent
ĠG onz
Ġrec ycl
Ġcomp ass
ĠCom plex
Ġcond itional
Ġdro ps
ĠJ eremy
ress ing
Japan ese
Ġkne e
in formation
B AR
d one
er os
B al
l as
ĠE R
Ġcomp ly
Ġorb ital
J ose
om o
Aut o
Vol ume
*} [
bar rass
Ġefficient ly
Ġc argo
ĠEag les
* )
ĠVis it
Ġbal anced
Ġsc ar
s it
Ġf o
ox y
Ġart work
Ġaggreg ate
Ġas ync
q q
i u
Ġad mission
imb abwe
ĠE ug
ĠL ex
Ġto ll
Ġbi ology
Ġre nown
Ġcur riculum
da pt
W ater
ex pect
ĠP os
ĠIN TO
ĠG A
W ashington
ĠAn imal
12 9
necess ary
f d
Ġflo ating
Ġf ictional
sh adow
Ġcre am
Ġhe ating
++ ;
ounc ing
Ġ= ========
Ġc rop
Mean while
Ġaccess ed
pro gram
Over view
Ġlim iting
18 99
1 19
igr ant
P ers
Ġprof its
Ġpro position
ĠChel sea
Ġprof ound
Ġdou b
Ġqu eries
ĠC urt
18 98
Ġspect acular
ĠAp ache
ĠG C
ĠS urg
Po inter
. $$
w ant
{ %
ĠH alf
ĠR ou
Ġdecl are
Ġsal ary
-------- ----
Ġconven ience
b ishop
p ub
Ġconduct ing
ĠN HL
ym an
Ġtax p
ĠD esc
ĠC ad
ĠSt ri
Ġdecre asing
am ation
AC H
ve ct
Ġret reat
Ġattend ance
ĠS ure
' _{
b rit
m art
Ġvar ies
ĠRe ference
ĠM end
ĠProgram s
ĠS old
Ġent ers
ĠTechn ologies
Ġst er
ĠPl ayers
Ġ# >!
amp ire
ĠTh an
', '
ETH OD
IS S
h ad
Å ¾
us hes
Ġch ron
ĠG raph
sh are
ĠDer by
Ġcharg ing
Ġl on
ON G
Ġint ens
Ġgent le
M ike
ĠF u
ĠP ub
S ervices
h ide
Further more
un ger
Ġdemand ing
Ġburn ed
sc ious
{ |
text up
Ġeditor ial
ur st
Ġarch ive
Ġfoss il
Ġt ong
r b
ĠBer keley
re lease
Ġed itors
g al
Ġre vel
× Ļ
Ġapp ar
Ġconj unction
ĠSh ip
Ġdesign ers
Ġcon vey
Ġalgebra ic
Ġenjoy ing
ĠYork shire
; /
greg ation
Ġinher ited
Ġ( ,
qu et
ond e
Sh are
H ey
L anguage
f ive
M AN
Ġi OS
ĠAust rian
Ġown s
Ġsk ip
à¥ Ģ
ĠMan ufact
L I
ĠM ul
ĠN intendo
Ġattack ing
Ġ{ $\
p ages
t v
Ġcompet itors
) }.
ri ber
s ymbol
Ġcomp ression
ĠM illion
Ġcomp iled
. __
am o
Ġsk i
Ġsur render
P DF
Ġpsych ology
Ġsent ences
Ġqual ifying
ĠSo on
ĠArt ists
Dan iel
Ġcivil ian
ĠI van
ĠB orn
ĠGu inea
H i
To String
tr im
Ġcompris ing
Lear ning
R ay
Ġnews letter
ro c
ek s
Ġbad ly
Ġke en
Ġde vi
Ġcor rupt
Se ason
Sym fony
K ar
ĠL ud
Ġsent enced
Char les
Ġche ese
Ġpat ri
sc ience
ĠAl gorithm
d or
Ġbl ess
se p
ĠM idd
Ġquarter back
Ġdisp ersion
Ġsu ite
ĠPet e
ĠPar ish
ere k
F ort
B ob
type of
requ ired
Ġev ac
les h
Ġsaf ely
mar ine
& =\
c amp
T ech
Ġnerv ous
Ġhe aven
d ings
Ġsustain ability
C ong
ĠAr c
Ġplan ets
ĠUS D
ĠPlan et
H ouse
Ġheart s
Ġfeed ing
g iving
ĠÃ ī
d ie
ĠS ale
ĠPark s
Ġmathemat ics
l ab
ra ising
Work s
ar ial
Ġoccur ring
sh all
or ro
ra ise
ĠW u
support ed
ab ove
Ġwond ering
Ġo ct
Th ose
V R
g age
Ġcritic ized
g ary
Ġab ortion
Ġequ als
ĠAnt ar
ph al
re z
or b
em ia
um ble
ĠProgram me
Ġassess ed
Ġunc lear
Ġd ot
J on
iter ator
S ave
ĠAdvent ure
ĠR ole
Ġcab inet
15 00
ĠWood s
om pass
=" "
pol icy
Ġorth ogonal
l ibrary
Ġen v
el ian
UT H
stack rel
Z Z
Ġadv ised
ĠFl ash
ĠLu is
im o
Ġr ice
I ll
ĠStan ford
,\ ,\
pol y
id ation
re ason
'] )
Ġrecommend ation
ĠB ald
Ġfl ed
Ġl engths
Ġmon ster
ĠDat abase
ĠVenezuel a
g ie
Ġ\ |\
ĠD oll
Cond ition
Ġpick ing
Ġd ining
m ans
ĠS ah
Ġdis ability
ÂĢ Â
Ġg al
writ ers
Ġaff air
P ut
Ġtrans mitted
Ġt ast
ĠComp etition
re p
ty ped
be cca
20 2
Ġmemb rane
Ġread ily
Sm ith
H a
left arrow
p u
ĠGl en
Ġd ressed
ub a
c z
Ġc inem
ĠRe form
Ġf illing
Ġsoci eties
CH ECK
p ine
Ġworld s
ai ro
Ġanalyt ical
Ġe ighth
FF FF
Ġanalyt ic
t ags
ĠL ions
Ġv ig
ris on
Ġweak ness
ĠEmer gency
ĠVal ent
b ane
d ated
ĠD elta
ĠAthlet ic
Ġdon ations
Ġmer ch
Ex pr
Ġkid n
f ac
Christ ian
Ad apter
bel ow
om eters
Ġall iance
Ġcust ody
Ġall ocation
yn chron
ĠLl oyd
res pons
H aving
ĠRe ed
g ement
Ġvari eties
CT ION
Ġstrugg les
Ġsuccess or
j ournal
is co
ra red
l iter
Ġh orn
ĠV lad
ĠNe uro
Ġterror ism
ĠT E
ĠHung arian
Ġsur f
CO MP
Ġbar riers
A z
F uture
H or
Ġhe aling
ĠCh art
Par se
Ġpassion ate
Ġbel oved
Ã¨ re
Ġspl itting
... ]
Ġadjust ed
ĠPer u
G overnment
min ster
Ġshel ter
ĠK umar
ĠN J
Ġf ut
ĠCom mercial
Ġdo zens
int ers
Ġrad i
ela ide
ĠC ob
ff icking
Rep ository
H ot
Ġtarget ing
th ick
Cl ub
ĠAb raham
Ġtrem end
Ġcompos ite
Ġsecre ts
ĠM aking
ĠTh under
ĠJ ar
18 60
Ġcompan ion
b rief
Ch apter
Ġexpl aining
it ud
ĠOther wise
Ġdivor ce
mat htt
d ensity
Ġspecial ized
en able
ĠHT TP
Ġwork shops
ĠL arge
Ġ ip
ĠRail road
gom ery
Ġsynt hesis
i per
ess a
sc ore
3 000
Ġen act
ubl isher
Tr ace
IC K
U LE
Ġfl our
Const ants
Micro soft
Ġdr unk
k ed
ĠAnc ient
if ference
Ġout break
Ġtrans verse
p are
ex cept
ĠAdvis ory
Ġb acteria
iat ric
in ion
ĠUg anda
G T
Ã© n
final s
habilit ation
ĠGr ade
Ġconv olution
ĠP D
l it
act ivity
Ġsett le
. ",
ĠSp ac
ĠFil ip
$ /
n c
ĠSt orage
Ġpre ference
Ġins pect
O cc
F act
ĠSur v
ĠSc ar
) (\
Ġrecept or
Ġj Query
ĠSu z
osoph ical
Ġsurv iving
ĠRod rig
Ġguitar ist
2 25
B er
ĠS ter
Ġinter pol
sub ject
\| _
Ġres erves
F unc
Not able
;\ ;
May be
Polit ical
ex pr
ĠC lean
Ġpl ates
f ef
Ġde leted
ĠCons umer
Ġmuseum s
back slash
Ġped est
Ġam end
Ġterrit ories
RE G
key word
t c
Ġch icken
tr ace
18 95
P an
pl ings
Ġcop per
ĠEvery one
Ġdes erve
Ġz ones
Ġan not
Ġflex ibility
Ġsubstit ute
ĠCal c
ĠSh adow
ĠCon cert
Ġinf ected
ar as
b ird
Ġpun ishment
Ġg rain
ãģ ®
o j
Ġpolynomial s
H uman
op ol
Ġinj ection
| $
m iral
ĠApp lied
Ġmotiv ation
M ur
trans ition
ĠNash ville
Ġt u
pol it
ĠL INE
RE SS
Ġsort s
Ġp ocket
head ers
m k
he res
Ġdim in
Ġsophistic ated
Ġsl aves
Ġsche ma
Ġin quiry
Ġem br
ĠCirc le
Vari able
Ġp ink
Ã¶ r
t mp
ĠW restling
Ġem barrass
ĠB ert
Ġgrand father
Ġimag ination
Û Į
Â ½
j ango
t k
13 6
e very
he w
ĠD anny
lect ic
X ML
Ġd ir
ff ff
Ġtour ists
ult an
$\ ,
Ġneut ron
Ġmob ility
ress es
ĠP av
run ner
ĠT yler
13 4
ĠBut ler
ĠLeban on
ig ator
Ġanticip ated
Ġintrodu ces
Ġcreat ures
Ġgra ve
INS ERT
Ġclass room
Ġgener ators
Ð ¹
Ġy eah
Ġs ne
ĠGard ens
Ù Ĭ
ĠK aren
det erm
ĠS ox
ĠI o
ĠM ix
th lete
N odes
C ref
Ġdig it
ĠB rain
N ever
ĠSte in
Ġco at
ĠNov a
ett i
ĠComp anies
ipp er
esc ope
Ġb reat
S B
Ġsize of
unt ed
Te am
ĠJos Ã©
Ġfil med
13 2
s b
Ġt ears
ĠPhilipp ine
Ġplan es
bl ank
$ ^
ĠDe cl
att ing
K K
S ocket
Ġf n
D ou
ĠLag rangian
ipl inary
ĠB esides
Ġpro c
à¤ ¨
ĠNY C
p ublished
Ġplay off
Ġtransform ations
Ġconsult ation
| ^{
Ġb tn
Ġexhib its
ĠOak land
Ġcry pt
Ġmorph ism
res ize
18 97
{ (\
ley ball
ĠColon el
de cl
Ġdest ro
bo ost
ĠShar ma
Ġoverl ap
ĠV ar
18 96
ch air
he imer
ĠGh ana
en abled
M ah
Ġl ingu
Ġ elli
Ġarg ues
ap or
ĠRepresent ative
Ġad verse
Ġachie vements
Ġc attle
at omic
ĠAss essment
ounc ill
Ġviol in
ĠPh ase
te chn
Wel come
in cre
se en
ĠF oot
un ts
n olds
Ġf ier
Ġsc rew
ĠHoll and
st ead
ĠTh r
C at
re ts
ĠEdd ie
ĠS creen
Ġnav al
ĠGener ation
ine ar
Reg ion
qu in
ĠPal m
ĠT error
ĠIn fo
ring ton
Ġp ig
ĠBapt ist
... "
Ġtechn ological
Ġp orn
Ġn ons
Ġplay offs
w al
x sd
ov ic
ĠA bs
ĠO w
Fil ed
spect or
hor izontal
Ġacknowled ged
Ġphil osopher
) >
Ġacceler ation
Ġcorrel ations
ĠD im
ĠJ ake
ost ics
Ġcent res
Ġext ensively
ĠChem ical
Ġass ists
Ġsl avery
Ġspeed s
Ġp ale
Ġirre ducible
Ġfarm ing
ĠPubl isher
Ġfre ely
Ġins pection
ĠDel aware
ĠTreat ment
ĠK ur
ĠSe b
æ ĸ
Ġpoor ly
Ġt agged
Ġb rows
ĠN urs
ĠU pdated
ĠÂ ±
O UT
Ġco ins
b rowser
ha us
Ġbl ues
Ġport s
in te
ĠArt icles
Å Ł
ĠW ant
Ġtype of
XX XX
Un ivers
Ġco herent
Ġf isher
ĠOr lando
Ġelev ated
Reg istry
small skip
Ġveter ans
D uration
B u
Ġsurviv ors
Ġmin isters
Ġg ast
/ "
ĠS outheast
ĠU E
found er
anc ers
Ġcub ic
Ġwra pped
Ġtem p
Ġpe ers
Ġ( _
op al
all oc
os hi
ĠH ab
Ġgu ided
V O
Ġhand ful
Ġvalid ate
is ch
It alian
sh ared
Ġarr iving
Ġle ase
=" ">
ĠCar lo
ah u
ar ound
Ġt ribe
ĠDr ag
is i
Ġpl acement
ĠPod cast
Ġde ce
ĠE ye
ĠO pp
Ġcollabor ative
Â Ń
}^ +
ĠAthe ns
ĠM B
str ument
L uc
ĠCour se
L ater
N a
ĠB urg
Ġdiagn osed
char acter
Ġam endment
Ġlog ger
ĠF ashion
Ġatt raction
Ġg ifts
yl an
g ender
M ov
Ġob s
}}\ ,
Ġsuggest ions
Ġrefer endum
orient ed
ĠÎ ¼
Ġm esh
C B
AN S
Ġdark ness
ĠÐ ²
! [
Ġcl er
F ailed
Ġearn ings
fef efe
J ac
ect ive
am pton
Ġgard ens
" ],
ĠR idge
Ġstation ary
C AR
Ġde ar
Ġtext ure
ĠWild life
ĠU I
ĠFle et
Ġfinal s
is y
ancell or
ĠAb stract
ĠPr ison
Ġviol ations
ĠEconom y
Ġrenown ed
Ġdiv ide
Ġp ian
Ġk g
IS H
Ġqu as
Ġcare ers
on ian
ĠHeb rew
ich i
Ġpull ing
ĠSal v
Gener ator
Ġcle ver
Ġyoung est
Ġj ack
Ġun ions
ĠStand ards
ĠIss ues
18 50
le en
Th ough
ilt ers
ĠAcadem ic
Ġelder ly
p refix
ĠSu ite
Ġexpl ores
ĠR alph
ĠĠĠĠĠĠĠĠĠĠĠĠĠĠĠĠ ĠĠĠĠĠĠĠĠĠĠĠĠ
Ġlast ed
ĠCorpor ate
um ably
Ġbott le
pe at
ĠStat ement
Ġembod iment
ĠA zerbai
Ġexecut ives
Ġadv ances
effect ive
Ġd rain
Ġreport ers
Ġw it
z h
ĠC incinnati
ĠCor ollary
log ger
Ġdel ivers
ĠCustom er
Ġg ates
Ġcreat ivity
ĠC ategory
Ġin ad
ĠA part
ĠAct ive
Ġnorth west
Ġsp arse
ĠC lient
Ġint u
ãĥ ¼
Ġf t
P ATH
p it
ĠBl ake
Art icle
Ġt anks
ic iary
ĠE M
ĠC inema
Ġstreng then
Ġr amp
col lection
Ġdistinct ive
ĠR aw
~ (\
ĠD ictionary
Ġwhe els
h ref
Ġcontinu ity
ren ew
ĠD escription
Ġmiss ile
Ġsus cept
Ġeth ical
ĠL amb
EN SE
prov ider
Ġconcert s
ĠInit iative
Ġaccommod ate
ĠZ hang
Ġbre ach
Ġcred ited
Ġreason ing
ĉĉĉĉ ĉĉĉĉĉ
$\ \
oy s
Ġw orn
Ġear ning
ĠR uth
um i
Ġcook ie
ĠW ire
Ġcontact s
ĠIn side
ĠSpec ifically
oc o
ĠN ine
ĠU P
Ġdead ly
Ġcha os
const ant
r us
ĠS ave
Ġearthqu ake
Ġdiscipl ine
ĠAdd itional
ĠSt rong
vis ible
Ġany body
Ġout s
get Name
if def
eg u
Austral ia
Ġestim ator
r f
ĠN ATO
Ġreform s
K n
Ġcomm emor
ĠD I
ĠS ierra
Ġsc roll
od ic
oot ing
ĠS oci
ind ependent
Ġconnect s
ent i
)} (\
ĠX box
Ġstat ue
boy s
unc an
L ittle
16 5
ard i
Ġf oo
Ġrespons ibilities
d k
× ķ
ĠHar bor
uls ion
ĠG oth
Ġout line
ĠSp encer
arch ive
ĠInstit ution
Ġcro ps
sc apes
Ġpros per
Ġan onymous
pre ced
uck land
Ġ ],
A x
t ensor
And rew
ĠDis covery
Ġb ishop
Ġun lock
Ġdisag ree
ĠSt yle
att ributes
Ġrender ed
sv g
Ġinvest ed
$ '
arg ument
ĠRon ald
On line
ĠY ellow
Ġe ager
Ġmod est
down load
Ġ Ñģ
ĠRem ember
Ġd t
ĠT es
Ġsl ide
Ġex terior
Ġsh irt
Ġthick ness
ĠP att
p her
s al
Ġar ising
B ound
Ġsubsid iary
Ġs li
Ġdiscuss es
ĠG and
Ġle ather
ĠB ris
Ġrel ies
Ġ _{\
Ġfle w
Ġcor related
Ġpro pri
Ġal ike
ĠDirect ors
Ġor chestra
ĠO bl
ĠJul ia
ĠM ills
ĠPar ad
ĠR ac
Ġr iders
B rowser
ĠBu y
Ġchar ter
it us
m ot
Com put
Ġmethod ology
Ġdead line
Ġf ru
Ġdon ation
Ġphenomen a
Ġb ust
ĠR ather
Are a
ĠMus ical
ĠSud an
[ [
D epend
it ic
ĠIn put
Pro duction
Ġtra p
Key s
bro ok
J eff
ph abet
op ts
test ing
Ġcancell ation
ut ton
Pl ace
ĠD ol
Ġreg ards
Ġcorn ers
}. }
Ġvis itor
Ġline up
aj a
Ġcart oon
ĠOther s
Ġref use
ĠCh an
err ors
L o
Sec ret
Ġtrav elling
And roid
Ġaccommod ation
ĠDub ai
ad vant
Ġkin etic
Ġenc ompass
Ġra ises
Ġpat rol
Ġh iding
st ad
=\ {
ĠFI FA
Ġintr insic
op a
ĠCh oice
Ġr ic
Ġassist ed
ĠIO Exception
in is
Ġext raction
Ġnation wide
Aud io
Ġa uth
Ġeth ics
pr us
Ġtrad ed
Ġpra ise
ĠY eah
ĠColumb us
v et
d n
u on
Ġw ard
s am
ĠS V
L T
Ġper f
Ġform ats
ĠHug hes
D er
ĠL is
Ġbr idges
Ġjud icial
ä º
ĠCom plete
Ġcorpor ation
Ġpropag anda
Al bum
ib e
ĠG ang
Ġ" <
P refix
ĠV eh
Ġhier archy
Ï Ĥ
Ġw ore
Ġh ills
Ġfear s
Ġ\ [
AR K
ĠB ec
ĠF ly
ĠB udget
ĠLe o
ĠB og
um ph
Ġair line
] ^
Ġautom ated
S ync
13 3
Ġtravel s
tab s
ĠMichel le
Ġp ension
fl ag
Ġthr iller
ĠDet ails
Ġdam ages
oca ust
Ġten ure
pat tern
Ġpeace ful
Ġf ame
ĠT ell
ring e
ĠCl ose
5 12
n ational
Ġcon e
Ġqu it
ug oslav
ĠFr an
Ġun e
| _
ĠCh i
ĠEn s
ĠR ES
} >
Ġfif ty
M ot
Ġdisappe ared
ĠðŁ ĻĤ
Ġb esides
Ġsh ar
bell ion
Ġjust ify
ĠInd ependence
Ġindic ator
Ġvalid ity
ĠJam ie
ol ith
St ruct
unc hes
ĠPop ular
build er
Ġmer c
Ġe ars
ili ation
Ġfin ancing
ĠD od
Ġal pha
ĠCol in
N F
Ġre vis
br and
ang led
Pro gress
Ġsynt hes
ian ces
Ġs outheast
Ġexcept ions
Ġproceed s
Ġatmosp heric
pro ps
ĠBer g
Names pace
Ġleg ally
Ġconstruct or
Ġconstit uency
ĠSc ript
Ġver ified
se q
ĠChem istry
ĠG amb
M ont
Ġw ound
w ig
Ġportray ed
ĠConf eder
Ġreal m
( __
S ir
B egin
Ġpl ural
ĠR oche
Ġimpe achment
13 8
c ass
S uch
Ġbe ars
con n
text normal
Ġpil ots
Ġcontrad iction
ĠT i
Ġprest igious
B ay
ĠSt uart
be it
ĠAd vert
Cent ral
ĠPhot os
ie ge
ĠP ref
Ġg amb
ĠL an
F ac
ew atch
Ġsan ctions
m ov
Ġindic ation
up arrow
def n
ĠK yle
Ġrem ind
ĠLink s
H ard
Ġtr unc
Ġint im
anc ies
E conom
ĠS ax
Ġsmart phone
Ġwork place
Ġbe aring
ĠLe eds
Ġnob le
G rad
ĠC elt
ĠAssoci ated
Ġinher it
our ne
18 65
ĠB uch
ĠC SS
as se
ĠL oad
ĠEqu ation
ĠMem ory
Ġoblig ations
Face book
S ar
H I
Ġim perial
Ġprim itive
16 4
ic ism
ĠJ ur
Ġconsider ably
ĠD A
N ative
S V
Ġanth rop
ĠG OP
An alysis
Ġfight ers
ĠRest aur
ĠRes pons
down arrow
ĠHe aven
u cc
Ġfurn iture
Ġ Ø§
ĠĠ čĊ
Ġco in
Ġun cle
Ġam bit
Ġback up
Ġhead ers
f requency
Ġval ign
Ġprov ing
P ing
T agged
ĠBeng al
A bs
bor o
amaz on
ĠM umbai
ĠPr im
W alk
19 2
ĠBen ef
pm b
So ft
c ourse
Ġill um
Ġall oc
yl um
ok u
Ġprevent ing
; }
ĠZ immer
t b
im eter
Ġtrans parency
18 61
ĠIn ternal
ac cur
ang les
ĠSer bia
Ġ[ "
Ġxml ns
L ower
Ġan omal
Ġw restling
. (
Ġball ot
N AS
$ ^{
Ġr ush
Ġcab in
pr ising
Ġcompos ers
Ã Ĺ
iem ann
ĠP anel
Ġrele asing
Ġreason ably
Ġele ven
ĠGrad uate
fil ename
Ġall ocated
Ġep it
cknow led
ĠVAL UES
tem p
m icro
ur ities
cl one
ert s
Ġl ymph
% ),
U ri
B s
uck et
Ġden y
F D
R oyal
mod ern
ĠF oster
ov an
18 93
G N
Ġdescript ions
U pdated
Ġconnect ivity
Ġmac ro
Ġtrust ed
W C
ĠOt tawa
5 000
ou x
Ġcreat or
Ġun stable
Ġdr ift
ç Ķ
Ġcell ular
Ġam ateur
Ġar row
hy per
Ġdrink s
Ġspec ification
Ġentertain ing
ĠNew castle
ĠGrow th
ĠLeon ard
Ġactress es
ator ies
Ġatt ractions
Gr and
} /\
Ġal igned
Can ada
eg al
ock ets
Ġbenef icial
in ement
Ġbuild s
Ġr ab
ia z
Ġgod s
ĠRe act
Pro position
T own
pro gress
em e
ĠMarc us
d ark
ĠBas ic
P ac
ĠPart icip
UN T
Ġcle ared
Ġunc over
Ġsacr ifice
Dom ain
emph is
ĠAll ah
ll a
Ġloc als
Ġtra pped
bold math
ĠB ir
Ġdisappoint ed
\ [\
ert on
Ġd ynasty
ĠH O
s pl
r v
Ġm i
du cer
Ġper ipher
Ġhar sh
Fl ow
AV E
is ure
,... ,
L ow
Ġam big
im en
ĠM T
Com b
T ri
ĠKash mir
w rapper
sub equations
Ġdro pping
10 16
Ġfulf ill
OS E
ul o
Ġresear cher
Ġcann abis
Ġa viation
13 7
Ġswitch ing
mult line
Ġinf ections
ent e
] =
Ġmaintain s
ĠPut in
Ġre ass
18 85
Ġmanufact ured
Ġexped ition
ij i
Ġtact ics
Ġappar atus
Ge V
S ite
Ġaccept ing
Ġsac red
hentic ation
ĠPro b
Ġs ew
Ġpre ferences
ag ent
Ġhon ored
188 9
ĠMil waukee
ĠCond itions
ĠA ub
Ġprotocol s
S election
g on
Ġin coming
ĠM ig
ĠB ak
Ġm arijuana
ĠL ED
ribut ions
Ġtrib es
ucl ide
ĠZ imbabwe
ĠN uclear
inv ariant
Ġtempor arily
D ue
I mm
Ġal tered
Ġdiagn ostic
ĠR ice
ur as
Ġstock s
St ill
ĠTr inity
ĠU ntil
ĠWrit er
Ġp ond
ĠPhys ical
Ġport ions
ĠS weet
6 50
Ġbehavi ors
ĠEag le
ĠF ix
Ġtr agedy
Ġre pository
Ġfl aw
ĠS K
g ba
Ġor che
ĠM iles
ab ases
Ġtreat ing
ĠClark e
ĠMe et
Ġdecl aration
j unit
C enter
ĠF DA
pre v
ĠM otion
ĠM R
ĠM ull
d ied
Ġcrit erion
ĠBro s
h istory
l ag
d og
ĠK urt
Ġmand atory
ĠH arm
W il
ĠEn cycl
Ġem pire
he nd
ĠJul ian
ĠWall ace
if ully
18 92
ok o
Ï Ģ
te enth
Ġbeat en
aster y
Ġexpect ing
Ġcert ification
Ġroll ed
Ġgirl friend
Ġt ear
14 7
t elling
ĠN AME
ĠTom my
Ġincorpor ate
18 91
Sm all
k an
ĠF erm
ĠP T
ĠCl iff
Ġlift ed
Ġp ipe
Ġsouth west
Ġd y
Ad v
Ġnom inations
umb ent
ĠESP N
ig ue
18 88
c us
ĠJess ica
n odes
ĠR osen
com ed
exec ute
mid rule
ro e
in yl
ĠE ight
AL SE
ĠA er
ie u
ĠK i
TR UE
at able
ĠK ap
ĠPresident ial
Ġcol ours
av ier
. <
Ġl ane
Ġvis ibility
Ġpropag ation
bas ic
Ġfil ing
ĠInd igenous
Ġ\ {\
Am ong
Ġacc ret
E U
Ġcontrad ict
Ġwitness ed
Ġw ise
st orage
~~~~ ~~~~
ĠHor ror
Ġsl ice
Ġvir al
) _{\
ra ve
Ġp upp
Ġworth y
AR CH
36 5
ĠP ink
ond o
ĠNor folk
Ġin clusive
ag ine
Ġcol span
plic ate
Q UE
Ġm a
val ued
Ġbusiness man
Ġsk illed
Ġesc aped
st eps
ĠMun ich
ĠCon vers
Ġlit igation
ĠLe ad
r ates
Ġdesper ate
Ġare na
ĠH P
BU G
sh arp
Ch inese
TE XT
pro pto
Ġiter ations
O l
ĠNorth west
Ġtra ct
Ġnot ification
Pol ice
ĠL it
ĠM ob
ath i
Ġshe ep
th ood
ĠCh ang
ins ky
å ħ
Ġkick ed
Ġmark er
I ran
Ġenc oded
Ġcos mic
Ġident ities
ĠD h
oy le
Ġhol idays
Method s
Ġminim ize
preced ented
Ġconsult ant
ĠHe avy
cur ities
ĠBenn ett
You ng
Ġmod ifications
Ġinterview ed
ĠPsych ology
Ġm akers
Ġneighbor ing
S i
el astic
she ll
t ok
ah an
ĠForm ula
Ġg aining
Ġneighbour hood
m un
J ournal
Ġ| ___
Ġisol ation
Ġu i
INT ER
cur sor
ĠBrook s
Ġaffili ated
ĠChar acter
Ġh orm
cl ock
w ear
ud s
Ġlat ent
f un
ĠA id
g overnment
ĠS witch
Ġspread ing
ĠC V
in ator
Ġ" -
ĠProdu ctions
with out
xim ity
en o
ĠCh uck
Ġlog ging
ĠCar r
Ġf are
ĠSu ff
ĠAd elaide
Ġhistor ically
Ġparliament ary
ĠS aw
Ġrec alled
bound ed
Ġwh is
Ġhop efully
Ġinst ability
oll o
Ġfif teen
Ġactiv ated
e ur
ĠHall ow
Ġstrugg led
sim ilar
ed e
13 1
end ors
18 94
anc k
Ġra p
e fficient
ĠT D
ĠM az
Ġdam n
Ġrec urs
ĠHol mes
Ġimp ose
Mart in
ĠW A
ĠRel igion
Ġrel atives
duc ing
Ġstar red
x s
Ġintegr ate
ĠGro ve
Ġinte gers
ra f
C ost
å ®
ĠD W
d ynamic
Ġdis closure
Ġb icy
Ġcomb ines
ĠB order
Ġcons erv
ĠO wen
Ġqu art
ah oo
Ġend e
? >
Song s
ĠAg ent
Ġf u
role um
Ġun success
ĠMc Donald
Sever al
\ }.
ĠT ool
Ġqu otes
With out
g iven
Ġfor ty
âĨ ĳ
3 30
20 5
Ġet ern
ĠI gn
p b
ĠBelg ian
ĠVerm ont
ĠLi u
ĠS z
ĠC G
Ġapproach ing
Ġpremier ed
Ġscr atch
ĠA ber
ĠEN D
ĠHapp y
int ro
Ġconstit ute
P rom
ĠV as
Ġtrad itionally
ĠPer iod
o fficial
ĠR af
Ġswit ched
ĠIsa ac
ĠL ov
Ġsports people
part icle
hem atic
ĠCh ap
Ġadmin istered
ĠV R
ĠM ine
Ġval ued
iz ational
Ġpo ets
udd y
Ġh ack
Fr ance
Tr ust
ĠLink ed
s ocial
ĠD ame
Ġexp end
Ġpsy chiat
res olution
am as
ĠCO L
Ġkill s
Ġb ol
St ats
uc le
Ġtime out
roll ers
Ġm asc
d irection
ĠUs ed
pos itive
Ġvari ability
v able
Ġb ags
Ġde alt
Ġph on
ĠP and
Ġal umin
S elf
cd n
IC S
Ġd ign
K L
_{ [
Ġd irty
Ġb other
ens ation
Ġdemon stration
k ens
p end
ĠT rial
Ġfeas ible
u pper
Ġmin eral
UR N
M IN
ĠId aho
& &\
He aders
Ġimpro ves
LOC K
Writ ten
EN S
Ġla pt
ĠCurrent ly
Ġex empl
Ġpreced ing
Ġs el
Ġrel ates
s ig
Ġal gebras
ĠDou g
Ġnow here
fil m
ĠShang hai
ĠA V
F un
mat ory
Ġelev ation
T y
aj ax
sw arm
Ġdis rupt
Ġsk etch
C rit
itz er
EE EE
ĠSt a
miss ible
ĠV ector
ĠF est
Ġreve aling
Ġhol y
ĠEv il
ĠSpac ewatch
S cal
ĠEv olution
Ġquant itative
Ġhon ors
T IM
Ġw are
Ġoccas ional
ĠOtt oman
r ised
Ġen force
ä »
ĠFl ag
ĉ čĊ
Ġcou p
k ers
Ġh ug
ĠM IT
Pass word
Ġpurs uit
ĠCoal ition
ĠF E
Ġcoll isions
Ġmetab ol
* \
Ġcon ferences
Lear n
Ġb ail
Ġclean ing
f actor
ĠC ool
ĠR andom
any on
Ġb ones
elling ton
ĠRem ove
ĠLith uan
Ġambit ious
Ġsub space
J oe
ĠO z
text sf
b atch
Ġab oard
ĠJo an
oid al
FL AG
. --
Vis it
ver tex
ĠAm bassador
Ġemer ge
ĠO m
bin om
ari um
Ġdis pers
old ing
oph one
il ogy
n ob
9 78
Dep artment
Ġphot ons
ĠTreat y
ur ious
Ġrep ublic
Ġdr illing
ace ae
ll i
IN FO
in ent
Ġb ell
test s
ĠSher iff
Ġident ifier
ĠRey nolds
S und
ĠC risis
r ator
ĠI M
en os
Ġgu ards
Ġp ist
Ġvill ain
ĠFlore nce
Ġp unk
leq slant
Ġless er
ke ep
Ġmart ial
ĠGu ild
Ġcru el
Ġ" ,
ĠCh apel
">< !--
ĠBo olean
Ġlov ing
as ync
d al
ion ic
uclide an
ãĢ Ĥ
M il
Ġconcent rated
Ġvac ation
ĠF act
) }$.
Ġstruct ured
Ident ifier
ĠZ ero
EL D
ĠE sc
N ormal
ĠC I
ĠB anks
f lex
in as
U psilon
oot s
Ġrespect ed
Ġlaunch ing
ĠÂ «
W ord
ĠR S
Ste ve
Ag ain
H ello
ĠP om
ĠBry an
Ġexhib ited
ĠCol umn
ibl ical
h d
ch art
Ġridic ulous
c ou
Ġdemand ed
ĠS ak
ific ant
Ġmed i
opt ional
Ġrel ay
ĠE t
ĠR ah
ĠHer ald
Ġpric ing
&= &\
Ġreli ability
ĠIn cre
ent ric
ĠLind a
g re
cre ated
En um
Ġsculpt ure
ĠF actory
Ġconv ince
Ġ\ }
Ġ= ======
I Z
Ġpat ron
Ġcelebr ating
Ġpay load
Ġd elta
Ġproduct ivity
Ã ¦
check ed
ĠR ams
anch or
() </
Ġo ught
Ġshall ow
ĠFour th
own ers
Ġconsider ations
Ġcor p
Id entity
Ġess ence
ari us
ĠMont gomery
Ġsp herical
rypt ed
Ġsp ite
U V
Ġtrans cript
Ġp unch
m aven
z ant
Ġv i
ĠJ obs
Ġrevolution ary
Ġpl ugin
Ġrele g
Ġs ink
Ġcivil ians
ĠC raw
Add itional
typed ef
ĠE instein
us a
Ġspect rosc
exp ression
List en
ĠS ets
ĠB ag
Ġpoll s
vi ol
L ab
Ġpers pectives
ĠCon sequently
15 2
Ġdebut ed
ĠK un
Com parison
p ad
Bas ic
\ },
ĠW R
Ġgr at
Ġp arser
T ON
pro duction
Ġhapp iness
nav List
Ġdram atically
Ġexperi encing
Or iginal
ĠBrad ley
ĠVen ice
ĠCom pl
power ed
I mp
ct uary
col m
ĠGerm ans
Ind eed
Ġpath way
wild fly
Ġlaunc hes
mid t
F ive
2 12
W rapper
idd ing
ul atory
ĠFr ances
ĠPen insula
'' '
ĠAng els
ĠWag ner
Ġem brace
ĠInt el
Ġgeneral ization
Ġthe rape
ĠB und
ĠCh ase
pro tocol
14 3
ĠPalest ine
xt on
Ġind oor
Ġl ang
ĠZ ion
Ġsurprising ly
Ġle ak
VI EW
ĠV e
Ġdis cre
man uel
M ex
in valid
ĠC ounsel
ill es
Ġop acity
Ġutil ized
I gn
ĠH av
Ġcol ony
ibl ings
{ .
ĠE mm
Ġthreat ening
(' .
Sc roll
13 9
Ġcomm od
Ġunem ployment
G erm
c ock
ĠCh arg
vel t
we ak
ĠCong o
Pro ps
w ang
Ã¡ s
Ġprosec ution
STR ING
ĠR ut
cont rolled
y t
Ġver b
Ġrob ots
F ix
at io
Ġhaz ard
Ġ[ ],
Ġrenew able
ĠA uckland
M aterial
c n
ĠM ead
ĠPro gress
ĠP owell
At tr
Ġmulti pl
ĠQu estion
Ġneighborhood s
L ee
coll apse
Ġlearn s
ung le
Ġver ification
Ġnull ptr
ĠTour ism
itud inal
ch at
Ġmother s
st own
ĠInt roduction
ĠSom ething
Ġfun ctor
olog ic
Ġgr ades
ĠJ in
^+ $
Ġillustr ates
t m
ĠR C
by e
ĠA ctor
Date Time
Ġsec ular
ut ral
ur ated
> ::
I ts
Ġclust ering
ĠHu gh
od ium
Ġpl otted
Â £
ĠPo etry
m itt
ĠR ena
ĠK in
ĠP ret
Ġliter al
ĠE ston
h im
vent h
t body
Ġmem orable
er als
Ġstake holders
%% %%
ri pp
ĠAn al
B ul
Ġcelebr ity
ĠB ent
ari ate
Ġd ictionary
m oz
brit ies
ĠB B
In vest
Ġg aps
ĠO C
Ġj ets
uch i
) ->
h art
ĠHop kins
In f
}) ^{
188 7
}{ }
Ġlack ing
sh ine
du al
Ġconfigure d
Ġacc us
ext ension
ĠTre nd
pro xy
28 0
Ġsport ing
ru gg
CO M
Ġtou ched
t alk
m are
Ġlo ops
O F
ar in
Ġrock et
N L
ĠD S
Ġover head
Ġmake up
Ġreven ge
Ġadvent ures
ĠSoc orro
R NA
: @
aut ore
ur an
ĠR ush
OL D
ĠInd ies
ĠCan al
Ġtruck s
over view
ĠRe id
Ġprivile ge
Ð° Ð½
Ġar ises
Ġinv ite
ĠAthlet ics
Ġw ages
ĠI SS
20 3
S ample
ä ½
H F
dr iver
ĠG az
Ġprevent ed
Ġoccur rence
Ġstrong est
Ġscatter ed
cite alt
rad io
ĠB ach
188 6
g io
Ġen rolled
ĠTerrit ory
Ġl in
ĠS cre
Ġaux iliary
us on
ĠLINE AR
ot ics
Ġpro gression
Ġam ended
Ġprob abilities
Ġc ere
ĠS Y
Ġprotest ers
Com plete
ĠLand roid
Rep ublic
ĠHallow een
n p
ĠCom par
Ġunder go
}^{ +
Ġst ones
th ird
}[ !
Ġrem inded
Ġque en
z el
ph ot
Ġhold er
Ġprem ises
ex tern
ed uc
ĠM ental
Sc ience
Ġarg uing
ĠHur ricane
16 8
Ġpolit ically
Ġfin est
Ġnurs ing
ar u
hand ed
Ġfar ms
andid ate
Ġund ers
Ġwel comed
Ġfle e
ĠW end
ĠE S
å ¤
ĠY ale
aval ry
ĠF erg
ĠInd ividual
log in
Ġhistor ians
Ġconv iction
Ġsam pled
Sp anish
Ġobl igation
ic ated
Ġfro zen
Ġtra its
G s
re a
Sh ape
26 0
ne um
ver ter
ĠBr ussels
Big g
ĠBudd hist
}} ,\
Ġqual ities
Ġspokes man
ĠAl pha
ĠPro tocol
ast ics
PO ST
we i
ĠT at
ĠYank ees
u u
ĠGreg ory
A ST
c rit
it ary
ĠHol iday
ĠRom ance
ĠArn old
Re ception
ĠMunic ipal
Ġob server
Ġle ver
ph oton
al one
ĠC PU
Look ing
et own
Ġsub div
14 6
ĠN ak
h istor
approp riate
Ġutil ize
Ġfuck ing
u ant
18 64
ĠBar ack
9 11
Ġdiss ip
Trans form
Ġvers e
Ġaltern atives
ĠDe leg
Ġtra ils
ĠLem mon
Ġtremend ous
ĠB orough
big cup
') );
Ġs our
Ġdraw ings
\ }_{
h orn
ang ered
ĠEx pert
ĠC ities
ĠA j
Ġassum es
v dots
Ġc ad
c op
ing o
Ġal i
AT URE
osp here
a que
ĠPy thon
Ġpal ace
i ological
est ers
ann i
Ġn inth
Ġunf air
ron ics
Ġguarant ees
act ers
Ġtrigger ed
G al
Ġres il
O O
j ack
ĠDec ision
Ġun fortunately
L ibrary
ĠL akes
Ġbet ray
econom ic
ele brities
umb led
Ġn urse
un iform
ff ield
all classes
ian e
IC ENSE
Ġprodu ctions
nd ef
ass embly
angle ment
inc orporated
Ġblock ing
> :
ĠE L
Ġtra uma
ĠMark ov
Ġuniqu ely
Ġsh ower
Ġtradem ark
=" ${
Ġavoid ed
Ġinc idence
col Last
Ġwork force
Ġlic ence
script ions
N orm
ĠWrit ers
ĠP apers
EN CE
k now
Ġn erve
14 8
ul se
ĠR M
Ġcompos itions
ĠCl aire
Ġrecip ients
t f
Î ·
Ġm aj
00 2
14 9
ĠH amb
arent ly
ĠPublic ations
Ġste al
C RE
Ġbackground s
Ġsuggest ion
C G
c aster
Ġtour ing
Ġse am
Ġbre eding
d ue
Ġ$ ^{
Ġperform ers
ĠDemocr acy
Ġcoron avirus
ĠK or
Y Y
ĠAbb ey
Com par
Ex pat
g irl
Ġkn ife
AR N
Ġsp ont
Ġre nov
Ġwavel ength
en za
Ġw reck
Ġsatisf action
M id
R ound
K im
ffic iency
I ss
ĠH ttp
orph ism
Ġunder graduate
ĠMc L
." );
at om
Sk ip
Ġstart up
ĠPro blem
Ġconst rained
ĠS ullivan
ĠTh ai
14 1
ĠT as
ĠS end
Ġlog arith
ĠUn less
rele ased
ĠVol unte
Ed ge
Ġdevelop s
v d
ĠMon itor
cent ral
Ġprec ip
Ġchemical s
ĠArm ed
Ġrecon c
ĠGu pta
I l
S ame
ic ation
Ġdeleg ate
Ġc ant
Ġharm ony
Ġtong ue
ĠD awn
UT C
Ġsa x
alth ough
ĠAh med
L ib
Ġout per
Ġbi ography
abul ary
Ġorb its
Ġthorough ly
ĠM ock
ĠAn a
Ġs ang
ĠUS B
ĠPot ter
ĠX ML
}) =\
Ġgover ned
Ġs i
Ġsp y
ĠK ol
ĠASS ERT
Ġanalyt ics
Ġsp o
Ġaut onomous
Ġpresc ribed
Ġdel ays
Ġcar riers
Ġselect ing
us ername
Ġout lined
ĠSw an
Ġport al
Ġas pir
IS E
ĠPal mer
ĠI BM
ch anging
Ġsear ches
Ġdes erves
ÑĢ Ðµ
Ġh alt
IL D
20 8
ress ions
Ġnon profit
Ġanalog ous
Ġexcell ence
Ġinvest ing
ĠLook ing
ĠMot ors
Ġun precedented
ĠInt o
ud ed
Ġc ens
Ġn p
Ad min
Ġharm onic
Ġfaith ful
ble ms
Ġthere of
ĠColl abor
p ie
$- $
ab c
col First
Ġpublisher s
F OR
P ub
ol er
................ ................
ĠJes se
urch ase
Ġgrad uating
ĠGab riel
w ent
Ġint imate
Ġo h
ĠIn j
ook s
Ġst ays
tr ivial
Ġv iable
N ick
ĠT yp
Ġadvoc acy
ativ istic
od s
Ġtw isted
ecut or
Ġrelax ation
flu ence
b age
K O
, .
Ġevolution ary
Ġth ir
Ġc oding
Ġchampionship s
| &
Ġb arg
Ġurg ed
Ġrel uct
Ġpresc ription
Ġint ra
Ġcomp rised
Ġfail ures
ck er
am matory
ĠPh one
ovak ia
b inding
Ġsp are
ĠP rest
ĠSum mary
ĠS cal
ĠPre vention
or igin
Ġf ights
ber ger
Ġadapt ive
il o
ĠN y
ĠE PA
Ġche er
Ġsleep ing
Ġfilm ing
Ġ' <
ĠR F
Similar ly
Ġgen ius
t p
umer able
ĠS ession
uch y
188 1
S creen
ĠL oss
T our
ĠT aking
ĠB oeing
Ġapprec iated
Ġtraject ories
Â «
ĠWIT H
ĠExcell ence
Sp an
ark er
Ġc iting
ĠS ett
Ġto b
oun ge
c orn
ak ov
ĠCare er
Ġexpect s
Jose ph
Ġcan vas
Ġprompt ed
Ġlocal ized
R en
iz arre
Ġbed room
D u
V ir
Ġconver ges
Ġjump ed
ry s
Ġannoun ces
n ut
is o
ic z
AR S
ĠS yl
ĠL abel
ĠB un
enc ia
IT ION
ĠCroat ia
Afric an
Ġsurg ical
ĠJo el
LA Y
p ent
Ġt ales
Ġshock ed
I sl
ĠO pport
os i
ident ifier
Fr iday
ĠN R
=\ "
ivid ually
ĠHealth care
Ġmicro sc
The ir
Ġbub ble
B road
f eld
00 5
run ning
Oper ator
Ġstom ach
ĠT rou
Ġphys icians
ĠGil bert
Ġp owder
Ġinter pre
ĠEn c
Ġtoler ance
es a
Ġcharacter ization
f its
ĠAd ult
ĠN ames
ĠNetwork s
ĠFellow ship
ĠP oss
âĢ¦ ..
Ġdelight ed
u ador
}} )$
Ġpartnership s
ĠD ad
Ġadvoc ates
Ġm ines
Ġpre view
Ġsuper vision
work ing
Ġw rap
ces ter
t le
pl acement
B ank
mem ory
Ã Ł
ĠCy prus
Build ings
D igital
print ln
ic i
ose velt
ĠFinn ish
S ol
f b
al in
Ġto ss
ĠHis panic
Ġgrand mother
Ġpers istent
ric ks
Ġreven ues
Ġmem oir
ĠÐ ½
Ġexcit ement
c atch
ask at
2 15
ĠHar old
* ,
ival ent
Ġperman ently
ĠPro ceed
Ġexc use
oc ene
n ai
re ational
ĠP it
Ġdesign ing
Ġband width
Ġed itions
18 5
att ed
ĠH ass
ĠL etters
Ġlast ing
ĠĠĠĠĠĠĠĠĠĠĠĠĠĠĠĠ ĠĠĠĠĠĠĠĠĠĠĠĠĠĠ
ĠC anyon
Ġout lets
ĠWest minster
ĠLuc y
Ġparticip ant
ĠCE LL
ĠBr andon
T L
T alk
O ST
at ra
ĠT iger
ĠW inn
ĠN as
Ġpro ps
ĠTh ought
Cal ifornia
ĠTib et
Ġch ocolate
IN K
å Ī
Ġm im
Ġro ok
Ġland mark
A X
Ġincre ment
Ġcreat ure
Ġorig inated
w d
Ġes cal
Ġtreat y
Ġinsp iring
con c
ĠReg ulation
Ġcitizens hip
re nd
Expat riate
ĠD ifferent
ust ers
ĠMin i
ĠD uncan
Ġpres ervation
Ġinaug ural
Ġper mits
ĠElect ronic
ĠTreas ury
ear ly
(' #
Ġprec ious
M ir
Part icip
Con stant
Ġcomplic ations
ĠW ine
Ġlect ure
j k
14 2
Ġn inet
Ġcou plings
Ġinf ect
: [
Ġment ions
Ġext inction
) !
Ġacc idents
Ġc md
Ġtri o
Ġs ync
Ġcross es
oy age
Ġf oster
Ġtr aces
Ġopp osing
f actory
... )
De ep
Ġcompar isons
ĠSeb ast
Ġm eter
H H
J un
im als
Ġquestion ed
cor respond
D ark
Ġmer chant
}{* }{
< <
Ġbow l
188 4
Ġselect or
ĠPear l
m aps
Ġsett lements
aud io
ĠIraq i
Ġin duces
Ġdec ays
Un known
Ġneg lect
bol ic
bo at
log o
ĠLat est
b g
Ġsp otted
ta x
atter y
Ġenjoy s
Ġbrut al
Ġwe aken
an mar
Ġun necessary
Ġatt orneys
Count ry
D elegate
en es
Fl ag
Americ a
ĠWar riors
_{ -\
play ing
Ġdiplom atic
ĠG y
Ġdecor ated
Ġbl end
Ġen roll
Ġdiv ine
Ġrele vance
Ġcosm ological
Ġh iring
Ġtyp ed
! <
ĠC ord
Ġun ited
We ight
Ġ ];
m ons
m ix
Ġret ro
Ġoffer ings
Ġg orge
Ġstr at
ĠA chie
Ġch ore
Ġl oses
Ġharass ment
Ġce iling
Ġc ord
Ġproduct ive
Ġre ck
à¤ ¤
Ġsever ely
W ait
Ġexplo it
c ro
im an
link s
Ġc her
ĠP ont
UM M
T ok
Ġthr one
Th ird
18 62
ĠDev il
Ġb out
Ġorient ed
Ð ±
Ġcount ed
Ġopen ly
Ġinsp ire
Ġneur ons
m os
Ġdis joint
Ġdepend encies
M AP
ĠPartners hip
ĠBris bane
Ġgener ous
unc hed
Ġdefe ating
Ġover night
Ġjoint ly
i q
ĠSp ider
ur ved
gener ation
At l
Ġis omorphic
ĠAd miral
Ġeval uating
< !
Ġrent al
ag le
he y
Ġle verage
Ġclar ity
Ġcompass ion
20 4
Ġrun time
Ġbr ig
Ġil leg
s afe
clud ing
Ġf ung
Ġfore ach
Ġnew est
ĠHil bert
W O
le v
Ġend point
Ġ æ
Ġre nd
18 63
Requ ired
rid or
B rien
Ġbroadcast ing
Å Ħ
ĠF ramework
Ġse al
ĠDes ert
j ab
Ġ ~\
Ġmod ular
ĠCitiz ens
Ġend less
Ġtem pt
188 2
ĠL iv
) }$,
ourn aments
ĠV ern
Ġhonest ly
Ġbut tons
ĠCom ing
Ġthe ft
ĠB ee
in j
' ',
Ġre un
M ove
ĠPers ian
var rho
ĠG W
Ġnetwork ing
Ġpro ximity
ĠJul ie
Bet ween
or p
ri o
Ġc ater
ĠMyst ery
Ġgame play
Ġd ash
Ġtend ency
ĠA A
Ġharm on
cover ed
Ġdou bles
Ġto ile
M obile
K A
Ġobserv ing
Ġclimb ing
ĠP ok
() ))
m ile
ut er
Ġbreak down
at z
Ġmark ers
ĠU C
ĠMc Car
Ġpoly mer
y ang
Ġprior ities
ce iver
Ġconfirm ation
R andom
\, {\
H op
S aint
w yn
ne apolis
End point
aint ed
ĠL ik
ĠEll is
ĠG em
c ology
p ull
ĠR NA
Ġcontin ent
Ġinter ventions
renew command
l b
Ġident ifies
Ver tex
Î ¼
Ġstreng ths
;" |
ID TH
Ġaw a
op ard
ĠM ik
Ġmon ot
Enc oded
ĠN om
Ġlink ing
Ġsqu ares
C ould
Ġtable t
ĠS ays
Ġn u
S equence
Ġun t
f x
Ġp iv
Ġinv ented
ian i
Ġnation ally
ject ive
Inter val
l ord
r ina
ĠPart ner
est e
m ine
Ġc ategor
Ġd ock
ĠS qu
Ġinvest or
AM ES
w y
Ġcov ariance
5 50
ĠT agged
ĠCa uc
Ġ( #
oph ob
Ġse p
Off ice
Ġexc av
ĠS ey
asc ade
ĠCry stal
set up
Ġrender ing
im on
Ġse curities
ĠSh ield
Ġsl ip
? !
Ġmed als
rit is
ĠPro perties
un al
Ph ys
Ġinvent ory
Ġcast ing
Ġa u
ĠG aza
Ġbab ies
Ġcapt ures
ĠÐ ¸
um ann
ĠFe atures
Ġelectron ics
C red
not in
Ġart ic
stit ute
comm ons
n ar
Ġdest inations
pro blem
Ġmunicipal ities
Ġa fore
rou te
ĠY ugoslav
Ġhand les
ish i
Ġnormal ization
ĠAzerbai jan
h m
Ġper cussion
Ġrun ners
ĠS TE
Ġgu ides
Ġsubset s
Ġca ution
D IS
Ġcap ac
ĠThe od
ĠHer z
20 6
Ġch unk
c reat
Ġf ond
Ñ Ĩ
ĠAnn iversary
Ġre vision
oper ative
Ġl over
Ġdis advant
OR S
" },
/ _
et ed
ĠL ives
An imation
} &\
Ġc tx
Ġl as
Ã ī
15 1
ĠC ash
ĠH ait
Ġm ph
Ġfar mer
el ong
ag ain
ĠH aven
time out
Ġcontribut es
t z
col lect
ĠT all
Ġr gba
om aly
ĠSocial ist
ar ma
Ġfac ial
con sum
atin um
Ġa thlete
Ġcatalog ue
Ã³ w
ol and
gg reg
ĠArm strong
Ġenvelop e
ĠRes ort
Ġsh a
c ov
ĠPo isson
Ġcontact ed
Ġprov inces
Ġbi om
m iddle
ĠT ray
St age
mont on
Ġn aked
Ġpaint ers
z ip
ĠO g
t oc
v oc
ĠRe becca
40 4
D eb
cc entric
Ġgl ac
CL A
ĠKnow ledge
n ick
Ġc ats
ele ments
ĠT ang
ĠL ac
Ġpreval ence
W estern
Ġwrit ings
Ġthread s
ĠV ers
ĠĠĠĠĠĠĠĠĠĠĠĠĠĠĠĠ Ċ
Ġrenew ed
Ġr het
ĠPhot ography
Ġm aker
clud ed
S EC
Ġs lee
Ġemb ry
emb ourg
Ġp ays
Ġprohib ited
Ġread only
Ġsur ge
Ġbu zz
man y
ĠGl enn
} </
E s
ĠRay mond
ĠCon text
E nergy
ĠW ake
Ġge odes
ĠDirect ory
Us ers
ĠNS W
Null able
ĠB ever
D iff
L y
15 7
Ġpract ically
Ġshow case
Ġfe ver
Jew ish
D ictionary
ĠW er
Event Listener
ĠBulgar ia
is ers
Ġdis hes
Ġpress ed
Ġfinal e
B uff
ĠR us
ENT S
Ġdis par
Ġgen res
Ġel astic
W ood
Ġlimit ation
art icles
}) _{
Ġeigen value
ur bs
) |\
ĠPrinc ipal
à §
ĠSw ift
ĠTri p
ĠG MT
Ġpass ive
ri ends
Ġtr ig
Ġrece ipt
Ġover look
t ic
ĠQuest ions
it on
Ġspons or
oc ities
gr ades
ĠBar r
ĠMer cedes
ĠK as
ĠK end
ĠCal gary
ĠB MW
Ġch lor
ĠA way
ĠA ri
gu ard
Ġmo ist
Ġt ender
ĠW ords
Ġdispl acement
ĠC N
ĠT ampa
Ġshe ar
et erm
ot ypes
arch ical
\| ^
ĠV illa
Ġsimpl er
Ġexcess ive
Ġavoid ing
t ake
ft en
se lection
Ġcomp rom
Ġcur sor
15 6
ĠRe ally
T I
d ashed
Set ting
av in
ĠCab inet
let te
Ġir regular
ĠW ald
50 1
Ġexhib itions
Ġbes ide
ĠIndust ries
Ġd otted
Pl us
Ġsupposed ly
Ġsl ower
inter pret
ĠAppe als
á º
ĠF eed
B log
h ig
ĠÃ Ĺ
ĠSche dule
ek ing
ĠB rief
Ġcol ored
SS L
ĠSim pson
ĠS eth
Ġsimpl ified
Ġundert aken
Ġpri ests
Ġtrans fers
Ġr ifle
Ġch iral
ĠHe ath
Ġdef ender
Ġinf inity
ĠHer bert
Ġlisten ers
Ġinteract ing
ĠS leep
16 9
Rec all
ĠF resh
Sp ring
C N
n ative
Ġm ud
Ġgl ory
Ġstre ak
m ith
un ks
Ġcav ity
pd ates
ast ed
Ġtob acco
al am
Ġdef icit
le vard
ĠEx amples
Ġir r
B ind
sl ice
Ġconclud es
Ġcon ductor
Ġcomp romise
s outh
ĠS ER
ic ion
tr l
inter est
Ġamplit udes
Ġhom osex
C ounter
Ġinev itable
ĠN H
G ER
******************************** ********************************
ric ia
Ġaud it
W W
ĠBer ry
est imate
and ez
B a
whe el
Ġper missions
Ġemb ark
it ars
Ġto y
ct ive
ĠG ent
ĠFem ale
ĠHe ights
16 6
W arning
ĠW ellington
/ -
000 1
Ġin ch
Ġthere after
Ġinst antly
Ġb ump
Ġn est
Ġ? >
ĠD iana
Ġvis a
ĠL or
ĠI g
Ġcon jecture
ĠF ra
oun ces
Ġaff ine
ĠGl obe
ĠDur ham
ĠTH IS
Ġexpon ent
amp ing
omb ie
Ġtown ship
ĠS ize
Ġh oney
Id s
Ġbuy ers
ull ah
ĠC B
ĠB ears
ĠVeter ans
t ip
ĠAngel a
ĠP U
Ġconform al
index Of
c ially
ĠM emphis
ĠIS BN
g ae
ĠR an
oom s
m r
ĠAr senal
= [
Ġex empt
Ġpron ounced
' $.
IC T
Ġr ay
ific ates
ĠPeters burg
ĠD ylan
al is
Col lege
Ġload s
Ġimag inary
à¥ ĭ
}) )
Ġsubstr ate
Ġreg ulated
Ġins u
ĠSuper man
EEEE FF
Ġl akes
ĠBeaut y
M att
Ġwithdraw al
S aturday
oc ide
Ġsh ifting
P UT
Cons umer
os ity
99 9
ĠU FC
Ge org
ĠD iet
Ġlad ies
Ġhe x
33 3
pir atory
Ping back
Ġsegment ation
at em
me asure
å Ĳ
Com pat
Ġgrad uation
Ġpain ful
ros so
ĠRichard son
Ġathlet ic
ĠAst ron
Ġpro to
Ġcul min
pos itions
Ġ ĉ
ĠL ocation
ĠN AV
Ġstud ios
Ġeffic acy
c as
am on
ell ites
ĠR aid
p f
ĠAdvent ures
ĠGene va
C ONT
v ars
Ġst ir
ĠH off
ve x
ol ation
Per haps
ra ining
Ġclin ic
ĠO ptions
B rian
ut ory
Vis ual
Ġflood ing
k el
Le ague
Ġf lesh
ĠL L
Ġdef ended
h ydro
spring framework
Ġexp ans
ĠEx hibition
Ġl un
T en
ven ile
Ġtrav elled
Ġre de
B bb
W ild
ih ad
D EC
ĠH us
qu ant
Ġtim eline
is ible
Ġid x
ĠNob el
Ġpop ulated
ĠD IS
Ā Ā
Ġs ocket
Serial izer
Ġpen et
V ICE
f ail
aw i
ĠCol lections
ĠReg ulations
New ton
vari able
ĠM aced
ĠG or
Ġaw ful
et es
yst er
RE T
ĠĠĠĠ čĊ
ĠP AR
ĠEffect s
h agen
ĠTe en
Ġcorrect ed
Ġcycl ing
et itive
Ġpar as
Ġpur ple
ĠW WE
ph rase
ĠR ise
tr ation
or um
Ġprotect ive
SE LECT
g mail
Î »
O s
Ġch arset
ting ham
C art
Ġunit ary
Ġelect romagnetic
ĠIl legal
g art
Ġinter ven
ĠEth ics
ĠBroadcast ing
Ch ief
Ġconsult ing
ĠG B
Ġreg ret
Rec ent
names e
Ġto kens
ub ern
VAL UE
18 78
Vis ible
out ed
ĠBul let
ol an
Ġob ey
Ġill ustration
eg an
ĠLib ya
ĠSh ir
Ġsn ap
ong o
Ġadvis or
ĠB elf
Ġrot ating
F und
M ask
ĠCard inals
r ases
ĠU TC
ĠK re
Ġlegisl ature
Rail way
process ing
sign ature
AC C
ĠA CC
Ġpit cher
Ġbe ef
U CT
ĠAng lo
ch ief
16 7
ĠMan uel
le vant
) ?
ag ne
F oot
ĠKn ights
p ark
Ġsm ell
Ġwas h
ty p
ingu ished
ĠProject s
Ġpro jections
Ġyour s
Ġassert That
ĠMur der
ĠJo in
ul ence
V s
Ġbit ter
ĠLyn ch
Ġartifact s
ĠGe off
Ġaccompany ing
ĠTh read
Ġcoordin ator
Ġinsert ed
Ġspir its
ĠK E
Ġc ris
r ag
Ġgener a
Ġaccret ion
188 3
ĠL uck
ĠAl ger
ĠSl oven
18 76
Ġass ured
arn ings
Ġsent iment
ett es
enz ie
enc il
Ġenc oder
Ġcriminal s
Vill ages
ĠMor occo
cont rib
Ġbre w
ĠB il
Ġvirt ue
Ret urns
Ġback ward
ĠAut om
ĠML B
F ocus
Ġter rain
ĠSac ram
enti eth
ĠRena issance
Q ual
Ġtr agic
ĠG ates
Ġapprec iation
Ap J
ĠL odge
Di agn
Ġdies el
âĢ ²
Ġbe aches
oc used
ĠHero es
vert ical
Ġdraft ed
Ġc and
ific ent
18 71
ĠUs ers
op oly
ĠRec ent
S ide
Ġfin anc
Ġafore mentioned
Ġpup ils
ĠS ang
ĠOcc up
ĠP am
ĠFl at
_{ +
ĠShe ll
ris k
Ġprospect s
ath y
ĠLat ino
Ġadd iction
Ġthro at
g ray
Ġloc ality
ogn ition
ĠJosh ua
Ġaccording ly
acter ial
ĠF olk
Ġwood s
ĠHol ocaust
Ġind ividually
Ġbu f
ĠCl a
} ~\
ĠClass es
Ġprot agonist
Ġsacr ific
Ġwe aker
F red
Ġb er
Ġconf idential
l ater
Ġwh ites
15 8
top ic
15 3
Ġdr agon
Fe atures
ĠWat ers
ĠM N
ĠCy ber
ĠU t
p n
B us
10 24
Ġretail ers
ET A
ĠTher apy
Ġm s
Ġr ivals
P air
; ">
om p
itt en
T er
Ġtherape utic
Ġre ver
ĠB ened
Ġev olve
cess ion
Ġdo ctrine
Ġsupp ressed
ĠMorris on
b ay
in fl
id y
ĠB in
& $
Ġproject ive
Ġrepro duce
Ġdrum mer
Ġmand ate
ĠDir ac
Ġs ung
ĠC av
Ġfl ip
ĠP orter
ant om
ĠH ERE
Ġrem inds
Ġfunction ing
opt im
Ġjust ified
Ġsubsc rib
DO CT
ĠBarn es
ĠToy ota
ug u
ĠNov el
Ġscr ut
ĠAndrew s
ĠV it
pred ict
numer us
method s
k ward
Ġl ig
l m
Dist ribution
Ġunve iled
Ġm apped
40 1
Ġs iblings
Ġac claimed
numerus form
im od
lic enses
ĠLe v
Ġassert ion
Text ure
ĠArray List
Ġte aches
Sub scribe
ĠRh ode
HT TP
Ġdesk top
ĠGar cia
Ġpurch asing
ĠM oses
(' /
ort ium
cont act
Ġw ors
ĠP sy
Ġpractition ers
st ed
Ġco h
Ġtow ers
ĠM W
d z
18 40
P a
R ank
Ġjew el
ĠBa iley
al ous
ĠCy cl
Ġdisc overs
ĠEngine er
r ants
s ed
| _{\
Me et
sol id
Ġpre y
Ġformul as
ĠRo osevelt
c ery
Ġcirc ulation
ab stract
clud es
ĠSte phan
Ġl ob
sc ss
olt z
Ġv inyl
Ġhelic opter
c ritical
Act ual
m ouse
ac iÃ³n
Ġsqu ee
ĠV a
Ġcount less
ĠKr ish
print s
Ġd w
ĠC W
ploy ed
Ġret ire
ĠSh ore
Ġbelong ed
Ġs inc
ĠB T
Ġcounterpart s
T urn
Ġl ips
Ġind ie
Ġess ays
ĠM aps
stan bul
18 75
LO W
Ġb ats
ring ing
arm ing
Ġreg iment
L iber
uis ine
ĠA ur
Ġadjust ment
Ġredu nd
Ġcat ast
B H
l ated
ĠEll en
object s
Ø ª
ĠD erek
ben ch
Ġcyl inder
check box
ope z
Ġreflect ing
áĥ Ĳ
á Ģ
ĠS ymbol
ĠJeff rey
Ġconcept ual
ĠH ood
ĠSus sex
ap a
ĠQ atar
k k
Ñ ħ
Ġrig id
? âĢĻ
Â ±
Ġvit amin
ars ity
Ġinter cept
15 4
Fr agment
is cher
em er
Ġdem o
NavBar Font
Ġm anga
ĠN L
man agement
Ġflo ors
Ġauthentic ation
Ġelabor ate
F eed
Ġpre jud
Ac cept
Ġpredomin antly
B razil
ĠDar win
super vised
A cknowled
; )
th ink
Ġan isot
at en
Ġnav igate
Ġsu ited
Ġwar fare
Hen ry
Ġsil ly
N I
30 1
ĠO H
ser ial
Ġassemb led
S erv
Ġsign aling
Ã± a
Ġme als
ĠGr ass
Ġr ises
Ġcrit ically
roph ic
ĠRes olution
Ġp el
s ync
Inst all
B rown
Ġinter im
Ġsum s
Ġnorm s
en i
Ġdiscret ion
$ }}
ht m
b usiness
DE FAULT
ĠJ ourney
Ġca usal
ĠS hen
ra its
Ġres ume
\\ \\
hel per
l p
cc c
duct ive
in ers
it as
Ġpres umably
T unes
und efined
HE AD
communic ations
ex amples
Ġle agues
à¤ ķ
ĠG roups
ĠTrans fer
Ġdis abilities
osp ace
Ġc emetery
Ġin complete
Ġbomb ing
Ġi Pad
cond itions
Ġcomplet es
y our
w arning
D b
Ġf right
ber y
Ġpenal ties
p icker
ĠD y
S K
re ne
is le
Ġbe ats
App le
F s
Ġimport ed
Ġcoll apsed
ĠR iemann
d uration
ĠU til
15 9
ĠLyn n
Âł Âł
ĠDav ies
ar is
ry ing
Ġide ology
idel ity
Ġvolunt ary
ĠInvest ig
ĠInit ial
an imation
Ġpress ing
Ġcoord ination
ĠY emen
Ġpredecess or
Ġ} {\
Ġweak ly
ri ans
oc on
Ġtort ure
á ¹
g oto
Ġge omet
Ġbreath ing
Ġmort gage
od ia
ew s
Ġbank ruptcy
ordin ator
pl ess
V an
atern ity
U ntil
X Y
Ġt et
Ġin cur
ĠOption al
s qu
Inter view
Ġmodel ed
con sole
Ġpurs uing
av our
B on
| =
Dr iver
appro xim
ĠC ork
ĠPop ulation
s r
Ad am
ĠCh ad
Ġen um
side bar
Med al
S ound
ias m
... </
ĠAgric ultural
Ġs ulf
Ġhor rible
C ome
f urt
ud ge
comp iler
Ġmut ation
T witter
ĠL ok
'] ['
ov sky
ĠDist ribution
Te chn
ĠSI ZE
iff e
Ġm ant
dist ribution
Ġro d
ĠGu est
Ġm ate
ĠA CT
Ġshare holders
Ġcivil ization
Ġmolec ule
br is
gu ide
ĠSecond ary
Be an
ĠKaz akh
Ġfrag ments
Ġbo om
Ġexerc ises
S a
ĠC yr
ĠCar bon
c ue
ĠR oth
ill ary
18 67
ĠPed ro
Ġun anim
ĠS ultan
ĠS erv
C ulture
Ġancest ors
f ake
Ġbom bs
ĠJama ica
Ġam bassador
Ġste ering
Ġp ec
ĠPl aza
ig hed
Ġg reed
ĠIn g
ĠWork shop
ĠE aster
Y P
Ġa ster
atter ing
Ġnecess ity
Valid ation
Str ategy
ĠMan ila
Ø ¯
sp aces
Profess ional
1 200
ĠBe hind
ou bt
Ġcal ibration
ans on
ri ent
N eed
Ġc ure
R aw
ĠC it
ĠL I
get Value
abl o
ĠC raft
ĠEm ployment
emb ed
Ġconsum ed
Ġterror ists
tain ing
R ot
ĠG ospel
Ġabsor bed
rest rial
% "
Ġinv itation
F ood
Ġt mp
ina e
ĠFerm i
Ġb ush
ag ination
Ġdepos its
ĠÎ ±
ĠRoman ian
Ġty pename
ĠMax well
' }\
ĠT M
Ġche aper
ĠU T
Ġsc aled
22 4
' )$
ĠF lying
Ġde formation
Ġhor r
Ġpeak ed
Ġcustom s
car bon
ĠPlay Station
ĠLeg acy
ore ms
Ġor n
ĠG ross
ĠT ouch
ur ally
she et
Ġs ailing
ol ics
ext ra
Ġtransc ription
C over
ik er
B inding
ĠViol ence
ri ages
ot er
ĠM atter
Ġdis charge
ĠC atalog
ĠH ir
Ġmut ations
h ra
ĠSt ructure
ĉ ĠĠĠĠĠ
Ġre he
Ġqu arters
Ġmod elling
16 2
Ġs ql
ĠEv idence
Ġmem or
ĠLeg ion
ap is
the ir
Ġhous ed
Comm unity
tra ining
n om
Ġd irt
Ġf el
ew ard
ĠLaw s
Profess or
Ġatt ach
Ġaffili ate
f u
leg iate
Ġn ep
Ġp ile
kins on
ĠU nd
Ġbeaut ifully
por ter
Ġp ip
at omy
g ust
ĠApp lications
ĠRat ings
Î º
Ġperturb ations
D a
20 7
Ġjump ing
F ailure
ĠH onda
al ter
av ia
ĠMunic ipality
Ġboy friend
Ġst iff
Ġte ens
urved ic
Ġillustr ations
ĠH our
Ġ$\ |
Ġinequ alities
h p
Ġtim ely
ĠEthiop ia
Ġdisput es
ĠL ars
ed o
ĠW ol
A mazon
ĠH od
Ġsign atures
Ġaest hetic
Ġdis able
en h
ĠF o
Ġoptim ized
ĠBy zant
ĠP ere
Ġout rage
ĠEngine ers
et ooth
ĠRel ated
The me
V ictor
or f
Ġf older
Ġon set
ĠEncycl opedia
18 79
Ġreg ener
ann ers
d ifferent
Ġ ib
ĠF ont
Ġc otton
Ġcre ep
ĠAd rian
23 5
Ġgen ome
ĠPer th
Ġfound ations
Ġlist ened
ĠL ar
Ġdefend ers
V irtual
ĠThrough out
ĠQu ick
intend ent
Ġbre ed
Y et
Man agement
R o
ĠIS O
Ġ$ [\
res olve
im i
Ġdefin ite
bal ance
Ġloyal ty
el in
ant o
ĠE asy
= -\
pos ium
Ġby pass
Ð ³
Ġnurs es
Ġanalyst s
ast ically
Ġpros pective
kw args
ĠP rec
Ġse ized
Ġ" [
Al tern
Ġgrad uates
ĠHend erson
en vironment
Ġaccept s
Ġmanip ulation
ĠGib son
Ġquot ient
Ġbuck et
ĠN atal
Ġshould ers
Ġfig ured
L os
Ġshe ets
ĠJ S
atic an
Ġvot er
ĠS ans
Be ing
Ġag ing
Ġth y
ut a
read er
Ġins isted
const raint
Ġviol ated
n is
Ġchar m
ĠIndian apolis
ĠSp ons
Ġ\ "
ĠField s
Ġsp ray
ĠAl f
ĠNo ah
ĠJ ak
ĠEr nest
ĠâĢ ł
ament al
B ottom
dest roy
ĠNiger ian
' -
Ġre lying
ab olic
per m
ex it
Ġpack aging
ĠEvent ually
M ic
ĠL ak
Ġ' \
avor ite
ĠPrinc eton
est y
Ġdef ect
ON D
IC ATION
ï ¬
ĠGr id
@ {}
Ġh il
ĠSol id
Ġcl one
ĠShe ffield
Gener ated
gr and
b ib
ĠS ame
ĠSh ows
C md
Ġst ressed
ĠPat ients
Ġalt ogether
Ġaver aging
ĠSh in
rat io
Ġknock ed
Ġretrie ve
Ġt ier
ĠN I
ĠRes pond
Ġdestro ying
Ġth under
Z one
Ġt ournaments
angel ical
L es
ell ows
ĠK erry
Ġev olving
Ġdiff ers
18 72
Ġoff shore
Ġtim ber
Ġalt itude
Sund ay
ĠKn ox
Ġdeliber ately
ĠMal colm
Ġeleg ant
Ġinf ant
s ame
sub stack
ĠW on
ĠO UT
Ġvan ishes
Ġr am
ĠAss ume
r ink
Ġpath ways
ĠLO G
Ġresign ation
T yp
ĠW ait
Ġdel icious
Ġ um
il ion
per formance
ĠEq s
Sy ntax
ĠS askat
Not ice
Ġdec iding
Car l
es pecially
Ġpr ince
Ġ" ",
Ġwond ered
Ġmet als
Ġcontext s
enn ium
s z
Ġspec ulation
Ġf mt
ount ers
Ġdedu ce
Ġpotential s
Ġdwar f
Ġr ats
Ġbatter ies
Ġatt itudes
Ġdist ribute
37 5
~ (
ru ce
Ġc er
ĠRes ult
Ġdevast ating
Ġd s
ĠCon nection
ĠL il
ill on
Ġdesign ation
ĠD ow
lyn n
17 6
ĠMan aging
DE F
Pr inc
Ep isode
ca pt
ĠN GC
ant ics
ĠV II
Ġachie ves
Ġb oring
Ġtrans plant
Ġk inem
ĠNe u
Ġpharm aceutical
Ġsuper hero
Ġinvestig ators
Ġexclud e
Ġbath room
mer ge
Lat est
Ġd rought
ĠP osition
ĠY uk
}} =\
ĠHe in
ced ure
iod iversity
Ġnew er
Ġvic inity
gly ph
Rec ip
ĠCom ic
ĠSte am
ĠTrans it
ĠPan ama
ogen esis
ĠArch ae
F ast
ĠP ars
ĠK iss
E ric
ĠC AN
ĠG DP
get Element
Ġunder way
ST M
Ġsummar ized
x html
Ġpres idency
aj i
Ã© r
k u
do es
ĠW ave
Ġarch ives
Ġrot ate
ĠC oul
vent ional
n orth
45 6
} <
Ġw and
ĠR d
Ġimpact ed
ĠRh odes
18 77
Ġgar age
c ry
board s
Ġl ighter
Ġclass ifier
Ġperform er
Ð° ÑĤ
"" "
L android
In c
Ġquiet ly
ĠVlad imir
L arge
ors che
K it
Ġart illery
ĠRem ark
Ġacc ent
Th row
Academ ic
P et
py thon
ins ki
uff le
ĠN ormal
an ol
og o
Ġman ually
Ġcompl ain
Ä Ł
G re
16 1
ĠChe ster
Mod ern
Ġd ots
ï¼ Į
Ġst ance
g ue
ĠF ocus
IC AL
Ġg i
Ġ" $
Ġun ified
Ġnom inee
former ly
ĠB our
que z
rub y
s il
ĠQ CD
B G
Ġdepend ency
Ġconv inc
Ġg am
est ock
Ġinter faces
ĠStrateg ic
Ġb eds
do ors
Ġqual ification
d an
Ġdat abases
Ġtransport ed
Ġtherm od
Ġ& $
ĠL ed
ĠBre nd
Ġreal ization
ure auc
ĠPatri ots
link ed
per ed
the ory
ĠAn alytics
ĠStock holm
Ġ( [
^* _
w ikipedia
Ġca f
Ġu ph
ĠMedic are
iov ascular
VAL ID
b ard
Ġvol cano
Y S
es ar
Ġin duce
ĠV otes
ace y
Ġth umb
Ġcl ay
Lou is
ic us
ĠT ours
Ġgl uc
ĠGre ens
or ate
ĠH ern
ĠSol omon
or se
Ġdes irable
ĠAtt ack
Ġspecific ations
Ex ec
sm art
Ġexpress ing
head ed
ĠImm igration
, (
Ġle ar
ĠTe aching
ĠAg es
Ġvacc ines
ĠC e
Ġpat ches
Ġfirm ly
sl ide
Ġkil ometers
fr ames
rodu ced
Ġred es
pos ite
sw er
ĠJam mu
F W
run time
H ung
A st
Ġl overs
Ġrub ber
Ġtal ents
Ġteen age
Ġ ell
ĠAb original
ĠE ducational
ĠAmeric as
Ġn utrition
. }\
Ġre wards
18 66
ĠE uclidean
Ġcont ested
Ġover flow
sw ick
charg ed
os ion
ĠMal ta
ch itz
Sw ed
ĠD rew
Ġint ake
in teger
Ġkil omet
and ro
Ġwhere ver
ĠCrit ical
Ġdon or
Ġcapt uring
at ta
Ġh i
Ġdedic ation
Ġlect ures
Ġlocal ization
ac ements
Ġres ur
ib a
ĠG ust
Ġbelie ving
och ond
Ass ume
Ġ Ã©
DOCT YPE
ORD ER
C irc
s ocket
18 74
ĠTest ament
az ar
Ġdom inate
ew ater
ĠAbd ul
Ġsong writer
Ġtrib al
A sh
H aw
Ġvel ocities
ĠJoh annes
Ġins ult
ran o
Ġdescend ants
8 50
s an
ak y
Ġpres erving
Ġint ensive
cl er
the m
Ġvibr ant
Ġfort une
ĠN W
uc he
Ins ert
ĠFif th
ĠP ray
ĠG ren
Ġce ase
* {-
ir ate
app le
Big l
17 7
Ġenc ounters
Ġcelebr ates
ĠAh mad
Ġm d
m embers
Ġsymbol ic
Ġide als
Ġliter acy
new line
ĠM M
Fr anc
18 68
ĠR iv
autore f
ov al
Ġapp l
% ).
Ġnon zero
)= (
comp act
Ġcongress ional
al ong
ĠCon n
Pac ific
ĠChar ter
G reg
ĠS it
Ġbl ur
S yn
Big r
Ġb ary
Ġsupp liers
C ritical
V ery
IG H
Ġentreprene urs
ĠT ong
ĠS ara
Ġadvis ory
Ġdepos it
ĠTe a
ĠBl air
Ġv endors
gl ass
ĠInter ior
bur st
Ġs b
lect ric
Ġrecruit ment
Ġfavor able
s ix
Ġd ive
Ġrespond ing
Ġpuzz le
18 30
ĠTw enty
s yn
22 2
F ederal
el o
L imit
ĠArch bishop
Ġsimilar ities
ĠKenn eth
Ġc ake
ĠF eder
al ym
ym es
ograph s
met ric
ĠUnc ategorized
Ġabs urd
ĠEc uador
Ġt at
MOD ULE
ĠCurt is
K en
Ġback s
aid en
add ed
ĠN g
Ġtun ed
Ġpun ct
Ġb rak
Ġsort ed
on so
ĠB ound
Ġmanufact ure
Ġsur pass
Un fortunately
D im
Ġâ ī
×Ļ ×
Ġseason al
Ġc ement
ĠT ow
em p
ore n
Ġprison er
Ġsoc io
head s
op p
ma jor
T uple
Ġsuper b
ER Y
ĠH i
aur us
R ate
ĠR ate
ocr acy
- ,
A BC
it ated
C K
cal endar
ours es
ĠTray von
A W
Cont ents
Ġhom ot
oc aml
Ġchrom os
iv ariate
18 73
Ġencour ages
Ġmob il
Ġtechn ically
Ġapplic ant
load ing
Pl atform
av i
Ġcontract or
Ġlist ings
Ġtun ing
' $,
n od
Ġref uses
ĠCal endar
Ġintegr ating
r floor
mon ary
S ta
Ġrank ings
nt z
ĠSt ay
à¤ ¯
B atch
Ġconf irms
Ġcrick eters
ĠC ounter
ap est
Ġre normal
ĠC rist
ol in
Ġposition ed
Ġl ag
Ġl anes
ĠTru ck
Ġdeter ior
valid ation
MO DE
select or
in el
are l
Ġd umb
ĠAssoci ates
ĠRef uge
ĠH S
Ġal phabet
RE CT
E th
ĠEm irates
ĠN Z
Ġmotor cycle
m obile
if ndef
Ġb is
ĠDev on
Ġdemol ished
ĠT ales
B ern
Ï ħ
C NN
Ġbro ker
ĠDay ton
Ġimag ery
ĠCarol ine
f illed
Ġcost ume
ĠIt em
Ġopt s
ĠMin neapolis
/ {
ine es
F K
ĠPakistan i
in x
Cal endar
ĠProm ise
qu estion
Ġst ub
ĠSt ruct
Ġdeal er
ĠArmen ian
M N
b org
r ice
Ġspac etime
con ver
ãĥ ³
H o
ĠSer bian
ĠD in
ap os
ic ode
over nor
Av ailable
Ġp ier
Ġd Ã©
Ġhe d
ĠB rent
lic ense
ĠCub an
Ġrelax ed
S us
S ort
CO MM
ios ity
m and
Spe aking
Ġsu its
16 3
Ġpione er
Ġde grad
ograp hed
ĠIs le
Ġcr ashed
Ġindic ators
cons ist
ĠOut put
Ġmedic ation
Ġneg lected
Ġe ccentric
l floor
ra pped
Ch icago
ĠB od
c ies
ĠBor is
r ically
ĠC ay
Ġple asant
f air
Ġaer ial
her bal
": "
ĠH ours
ĠMult iple
D NA
ĠRe ve
}. \
de ad
ĠQu art
Ġs q
ĠNot re
Sub ject
Ġphil osophical
g as
ĠH ack
Ġconf ined
ĠLaure n
ĠZimmer man
ĠSy nd
ad os
ĠPr ide
Ġround ed
Ġener get
F older
est im
w ire
ram es
Ġn ost
ĠTre vor
. },
ĠK ra
olith ic
ow itz
ĠĠĠĠĠĠĠĠĠĠĠĠĠĠĠĠĠĠĠĠĠĠĠĠĠĠĠĠĠĠĠĠ Ġ
ĠEs sex
Ġab normal
M ouse
AS P
ĠM eyer
Ġcor ps
Ġlaw makers
ĠDi agn
ĠAL IGN
in us
ĠR iley
Ġsuccess ive
Ġg rap
m inded
Ġcirc uits
Ġcurrent s
M ust
È Ļ
Ġch orus
] +
_ );
R ussia
en ic
Ġcred entials
g reat
ĠE lement
ES CO
ĠBel ow
Ġanaly zing
Ke ep
Ġco hom
ĠP or
omorph isms
rel ative
bass y
ĠC ec
com pute
e i
ĠSc ore
ĠD olph
oc cup
C s
m essages
ĠCh anges
Ġh ind
ĠSub ject
o qu
Ġde pr
2 11
Ġ$ $\
cont ents
Ġblog s
Ġrec reational
Ġposit ively
F use
ĠT ennis
Ġche ss
ĠW ey
lic an
Ġqual itative
Ġgo ogle
Ġcon current
ĠPro of
Ġsc ary
Ġsuff ices
Ġb achelor
ĠAndre a
Ġb izarre
ĠLe af
Ġflow ing
ir ie
ott i
Ġo l
ĠAm anda
ĠB urns
Ġtra fficking
Ġmark ing
U r
ĠT ips
Ġintent ions
Ġappe als
Ġfru its
Draw ing
L ie
S port
18 69
Ġco q
Ġcard inal
Ġimm ers
ĠAppe al
Ġcl an
ips chitz
alyt ic
Ġsusp icious
27 5
Ġsupp ression
Ġemer gence
Right arrow
ĠP iano
Ġno isy
Ġfre ight
Ġemphas ize
Ġâ ĪĴ
Ġgreen house
St ock
Ġview er
Ġclick ing
> "
17 2
Ġsupport ive
ĠLou ise
Ġwa ited
Ġteen ager
Step hen
trans fer
ixt y
inher it
Ġcontin uation
ĠMar co
ĠClass ical
ĠM AN
ĠJ et
ĠV K
Ġso ap
Ġent anglement
ĠClin ic
S ix
Ġres p
Ġsu cc
Ġfound ers
Rem ote
ĠC el
rug u
ig nt
Ġrec ipe
Ġneglig ible
ĠG ender
ick y
30 4
ĠCar roll
) ",
, [
l ings
opt imal
Cal c
ys on
load er
Com mit
×ķ ×
N orthern
Ã ¯
is se
ĠC ult
ĠSurg ery
ĠF ul
Ġpro long
ĠE valuation
18 48
Ġrem n
ĠTes la
00 3
t rain
Mon th
( .
ear chers
Ġ ions
Ġmur ders
year s
Ġblood y
ĠObserv atory
L IST
Ġdef ects
Ġserv ant
ĠDet erm
ph oto
ĠM ale
ĠMod els
ĠPer fect
ĠRec all
Ġfemin ist
ext end
en burg
D rop
ĠS ed
Ġcomplex es
Ġaw kward
ĠHen ri
Ġac ids
ĠC ategories
em it
Ġsc ared
Ġreconstruct ed
Ġhab its
ĠBou levard
ĠMig uel
ĠS part
D ES
Ġche f
Ġarchitect s
ĠH ydro
p aid
17 9
)} =
Ġobserv able
17 4
ĠGet ty
Ġd os
ĠS of
ov iÄĩ
T reat
ĠW ins
Ġshe er
b is
Ġp ap
Ġsound ed
Ġrecru ited
ĠB row
out heastern
Ġnucle us
Ġdiscre p
OP T
Ġo mitted
ĠM t
Ġconsequ ently
ĠGrand e
ers hip
ĠF ear
Al umni
Argument Exception
ele m
h aul
A H
Ġparad igm
Ġobst acles
Ġenjoy able
ol esc
AP P
Ch anges
Ġspan ning
pt ical
en ary
Ġreal ised
Ġlic ensing
ĠZ amb
c ence
Pr ice
ĠAp ost
Ġt x
Ġirre levant
ĠGo ing
pr im
Tex as
rosso ver
Ġm asters
Ġrel ie
Ġun changed
Rem ember
Ġadministr ator
u ably
ĠT IM
Ġun comfort
ĠUlt imate
FORM AT
App ro
)} _{\
Ġwarn ings
in ians
Ġplant ed
G EN
Ġlinear ly
Ġfr ank
Ġmulti plication
ay urvedic
ĠAl ways
ĠTest ing
ĠC ertain
ĠM ari
Ġinf antry
r ab
le igh
ĠAll an
Que en
h yp
um en
ĠCont est
US ER
Ġn m
ot yp
Ex ecution
ĠW ere
Ġstar ter
ith metic
ĠMat rix
inf all
ĠKle in
3 10
Ġlater al
ĠTrib une
Z ero
[ ]{
ĠS ic
Cl imate
cor rect
ĠTas man
Ġcommand ed
ĠHapp ened
ĠSug ar
Ġorgan ize
ĠÐ ¾
ĠPl ans
Ġbe et
Ġk ings
parent s
\ /
Ġenc ryption
ha o
Ġde er
}) (
Ġcyl ind
âĢ ³
ĠC ort
U AL
ĠT anz
Ġsuper vised
ĠBer k
es ity
Ġappe aling
ight y
ĠBi ography
ĠTh ing
im ming
ĠH ann
Ġb ugs
tra ined
ne ath
ĠEll i
Ġnot ify
Ġse aled
un i
ĠMon ica
ighbor hood
ĠÐ º
20 9
ĠEd it
Ġrul er
Ġpar ade
Inst ead
Ġreb ounds
st ri
Ġ' ',
ast ing
Ġch apel
ĠMethod ist
Ġaut ism
Ġcard iac
Ġg em
ph on
ott age
Ġsubject ed
W ire
ĠS SL
Ġpol es
Ġa z
ĠC li
ĠA ch
ĠSing les
in vest
Ġden ial
f p
Ġs ys
op ting
Ġafter math
ĠH M
Ġsupp ress
Ġpurs uant
Ġdemonstr ating
Ġinsu fficient
30 3
string s
Ġaccompl ish
Ġf et
}_{ {\
Ġann ih
Ġphil anth
Input Stream
Ġserv ants
ĠAsh ley
ĠLegisl ature
) |^
r ans
Ġoptim ize
Ġprol ifer
ure ment
Ġenthus iasm
is Empty
ĠA maz
ĠDef ine
ĠLog an
Ġbra ve
f ox
ig i
ty pename
grad ient
L ess
in itions
Ġint act
IO Exception
ed ar
ĠMc N
tt es
Ġstat istically
Ġcho ir
Part y
Add r
Ġer ected
ĠDev ice
us ions
'' .
PD ATE
f m
Ġref ined
st en
ĠPaul o
Ġs lic
Ġ\| _{
IN ST
ĠGer ald
Ġ@ "
ĠBeaut iful
T X
ĠIn spector
ath a
land er
Ġtransl ations
ĠMcCar thy
( |
ĠD j
Ġver dict
di ag
ĠF ighter
Sc hed
CL ASS
ĠProceed ings
ad ays
Ġenter prises
Ġh ull
ĠSustain able
ĠG PS
inst on
Ġdiver gence
Ġport able
Ġenhance ment
ĠB end
Ġpl ed
ĠZ ach
Ġ/* !<
ĠComput ing
worth y
Ġr ides
= &
Ġparam et
Ġaut umn
ĠRele ases
Ġtouch ing
ful ness
Ġu gly
ĠPoint s
ĠR as
Ġimp air
M iddle
Ġpriv ately
ĠM ang
Ġse as
ats u
$ (\
18 2
Ġpurs ued
Ġbas ement
PRO JECT
k ill
Ġdon ors
Ġexc itation
ĠT itan
Ġdown stream
Ġo c
Ġv intage
Not ification
B inary
ĠA W
ĠSpe ech
open hagen
ĠG E
Ġdetect ors
war z
Ġcomm ittees
ĠIn tern
Ġcan al
ĠHy per
Ġatt ain
Ġhuman itarian
Ġchar ming
ru ck
4 80
Ġrandom ized
) *
Ġmetaph or
ĠH annah
ĠE lections
(" #
ĠBeat les
EN G
ĠZ en
Ġgu ilt
Ġinstit ute
ÑĢ Ð¸
Ġveget ables
un n
Ġham mer
i ago
Ġj am
Ġcommun e
pat ient
valid ate
ĠTun is
en stein
Ġrest art
Î ²
Ġinsect s
Ġmach inery
ĠRestaur ant
h ouses
$ _{\
Ġ ub
Ġex otic
pert urb
Ġpurch ases
Ġinv ari
ĠBudd h
v r
Ġcontain ers
ass y
ĠProtest ant
ĠD ust
â ĸ
Ġf erry
ract or
Ġn aming
Ġrecru iting
Ġprom otes
y u
ĠWAR R
}\ ;
Ġex cerpt
Ġch ase
Ġsp iral
H ig
Ġp aired
Ġle x
18 7
ĠPref ecture
b inary
N UM
17 1
po inter
R oad
ol ate
Ġmiss iles
se cret
ĠCh in
24 5
E ll
ĠRodrig uez
Ġpro ton
ĠSom erset
ĠAG N
ĠCorn er
Over all
St ructure
Ġre jection
AN N
ĠE DT
ass o
Ġdr one
Ġsw ift
ĠT err
Ġal beit
ile vel
L ag
Ġsuspect s
Ġw itch
ĠB P
ĠAnn ie
int s
high light
k ok
Ġhe ated
Ġen rich
Ġbehavior al
Get ty
oun s
Ġremov es
$& $
ĠC hern
pher d
D ar
ĠLiter ary
ĠStart ing
ĠS B
Ġch ips
ĠUE FA
ĠE yes
up iter
An th
ur istic
if a
od o
ĠG ir
Ġt ensions
elect ric
l r
Ġne u
Ġlog in
ro ots
Ġloc ate
Ġdetect ive
ĠBe havior
allow ed
ĠB H
ĠBur ton
ĠM ets
ce ans
k al
ĠRe agan
3 40
ĠĠĠĠ ĠĊ
Ġre built
Ġprev ents
Ġtre asure
sh ots
Ġhead lines
Fore ign
Ġser um
ine z
Ġtheat rical
ul ators
oy a
d m
T imes
Ġgorge ous
na issance
th ritis
Ġ[ ...]
ĠBut ter
Gr ade
Ġmyth ology
Ġkid ney
stitution al
AT OR
ĠObl ast
Ġinc umbent
U A
ord e
Ġorgan izing
16 00
ĠH unting
the se
Ù ĩ
?? ??
Ġpar ity
Ġfraction al
Ġin k
Ġflag ship
Ġde bris
ato es
gest ion
ĠSalv ador
ec hes
18 4
R ules
Ġp ad
at ible
Ġd ent
form al
z on
ell ular
ĠWal sh
ĠM BA
no ise
Ġaccident ally
Ġinter change
Pr imary
F ixed
Ġc elebrities
Ġj okes
quir ies
Ġsub stances
Ã© d
Ġcrowd s
ĠFerg uson
Ġg reet
um per
Ġsex ually
ĠChief s
Ġpan ic
Ġplaint iff
Ġbas in
ĠP ool
ĠR um
33 33
Ġliber ty
ĠK oh
ĠAll ied
Ġup graded
el ic
et c
Ġrem inder
associ ated
ĠR ica
ĠBr ady
Ġpl aus
Ġlong itudinal
ĠEd monton
ĠÃ ¢
Ġsett lers
ĠH ook
j ee
l ane
Ġform ations
Ġassess ments
Germ any
M ut
del ay
ĠLes lie
G roups
ac ious
19 3
h ran
Con structor
ĠA uthors
ch or
Ġbox ing
Ġst raw
ĠR out
ĠT roy
M achine
Ġmet ast
CR IPT
18 59
ĠQu inn
ĠCase y
ĠExp ression
Whe ther
ER N
dis able
23 1
Ġdece ased
Ġacadem ics
ruct ive
hel m
abb ing
ĠSand y
ĠViet namese
ĠBrun swick
Ġpermut ation
ĠM orm
Det ail
\ -
Ġcontribut or
spec ies
ĠMedic aid
M onday
Ġhyper bolic
ĠHard y
int ell
Ġce ased
ĠJ ets
ĠMe asure
Ġpharm ac
Ġstory telling
ĠBelf ast
er i
Ġbright ness
ĠM olecular
ĠK ang
inc ome
ĠM eta
ely n
Process or
Ġcont ing
ĠPre vious
Ġevent ual
ĠWel come
k le
ĠB AS
g ements
ĠI v
11 11
Ġsoul s
cho ose
ĠDE FAULT
F G
ĠW inner
ĠN P
Ġhom etown
Ġscript s
Ġspec imens
ĠL on
b ons
Ġpersonal ities
at ility
U k
." ""
ĠS ons
Ġair ports
spe aking
="../../../../../../ ../
ĠR anch
Ġcar ing
hard t
Ġab bre
Ġf ence
Run ner
Stat istics
le ys
che wan
Build ing
' ];
il ateral
Ġlong time
ĠChrist ine
fe atures
re act
ĠAl leg
ĠKer ala
ut z
Ġg rief
Ġb ins
Ġpresent ations
ĠS isters
Ġm oth
Ġsupp orter
ĠG ift
dis k
W ould
ĠRoberts on
Ġthere in
ĠM oss
Ġrespond ents
Ġrook ie
Ġs aves
Ġtor que
he x
Person nel
ĠCan on
Ġrev ival
ĠT C
h skip
ĠK ick
Ġro oted
Ġpress ures
Ġref res
ĠB ren
Ġaccount ability
ram id
ĠRet ail
O G
p kg
Ġcapital ism
ĠW HO
Ġz oom
W as
construct or
b eck
bul ance
ĠArmen ia
Ġvan ishing
Ġg ym
fore ach
^ +\
RA Y
Ġall Classes
Ġb ore
Ġch ol
ĠSec urities
ĠH ear
ĠLaw yers
ro ve
Ġn s
pro port
ig ating
Ġg odd
Ġsat ellites
ĠIS IS
Ġrevers ed
is ive
Ġnucle i
00 4
Test Case
Ġdegrad ation
ĠBuild er
ad oc
ĠBel arus
K R
ĠD ale
Ġsquad ron
Ġmaxim ize
ĠAltern ative
ĠallClasses Link
W ay
Ar thur
Ġred irect
Ġintrig uing
c ourt
Ġincorpor ating
z ig
J ean
e lected
ĠThe me
Ð¾Ð »
ly mouth
fort unate
ĠTri ple
ib ling
ĠT N
ĠN V
ĠM ile
esters hire
Ġgener ality
Ġb apt
Ġ$ <
Ġex clusion
Ġbos on
ĠJohn s
Ġblock chain
pl aced
Ġcl oth
ĠMy anmar
Ġsh ake
Ġsa fer
ices ter
disc iplinary
ad ians
Ġmon etary
) )$.
Ġru ins
om ics
sl o
c u
Ġprior it
Ġutil izing
ĠL enn
Ġtax i
Ġconver ge
P ark
h urst
Ġnever theless
Ġexplos ive
, ~
Ġreal ise
ĠEug ene
Ġrel ocated
= (\
N othing
ĠE rik
ount ain
Object s
Ġproof s
ĠR AF
00 7
ĠCO MP
ĠFr aser
ĠF ut
55 5
M arg
å Ń
M u
T aking
all a
ĠJava Script
i ya
^{ [
Ġment or
ĠA RE
Ġan omaly
Ġgu itars
Ġt witter
ch urch
ĠL t
Ġapplic ants
dat abase
Ġb ite
ĠE E
Ġobserv ational
Ġnumer ically
L oop
ĠS ue
ing e
Ġimag ined
D ATA
N eg
j Query
Ġatt achment
ĠRe uters
ĠFor ward
Ġdepart ed
Ġf etch
ĠL ines
Ġsk ull
Ġvulner ability
ay ette
Ġharm ful
ard less
head ing
iox ide
Ġmon sters
Ġar rows
Ġappro ve
Col umb
ad v
}_ +
Ġj acket
Ġinv isible
17 8
- )
p olar
op us
end ant
ĠRe ality
ĠON E
Ġsystem ic
Ġcomp iler
Ġmid st
ĠCorn ell
Ġfe at
18 9
tr acks
Ġproblem atic
Ġfib ers
Ġmer it
y cle
ĠA IDS
Ġv ine
Ġid i
Ġanten na
ĠR he
ib an
ĠAl z
gr at
Ġancest ry
r ules
ic ht
ĠD w
ĠD ob
ĠBas in
Ġhe sit
Run ning
th rift
Ġr ust
G allery
ĠTr in
uli ar
ĠSacram ento
ĠCor on
ĠT ickets
r ar
ĠPr ague
ĠD oor
ort heastern
rel ations
g ard
Ġenc ode
ĠD as
Ġacadem y
ĠK ane
B uy
li um
ĠGu itar
\, ,
Sh ared
Ġmain land
ĠRel igious
ĠIn come
Ġgo alk
sub float
ap on
ĠEx ped
ident ity
Ġi Tunes
Ġm all
andid ates
i ating
Dem ographics
Ġcr ude
Sc ient
p ref
ad h
Ġb orough
ĠB ug
yl on
ac ional
âĨ Ĳ
Ġl ith
ĠNot tingham
Ġw orm
ad al
Ġrem ix
Ġw ished
Ġcomp lementary
ĠId entity
Nav igation
ĠDis cussion
ĠM ode
ĠDr um
found ed
Ġcalc ulating
Ġmid night
Ġpol ym
23 4
ĠD epend
sp acing
Ġmot ions
Ġlack s
Ġpair ing
Ġpit ched
Ġtack les
Ġec ological
{ [
Ġd airy
Ġb ureauc
Ġre per
3 80
le af
0 10
ĠM ist
Fig ures
ĠH BO
ĠEnt ry
v v
ĠP ages
Ġexp ose
fund ing
Î ³
th ouse
30 5
AM A
ĠNews letter
se ctions
ĠR egin
Ġeconom ies
ĠCour ts
F all
Ġintegr als
Ġdepict s
ĠL iga
Ġfund raising
Ġw ounds
> )
ain es
IP S
ĠDe ut
Ġhat red
Con vert
ĠE RA
Ġsub urb
ĠSing er
Ġlocomot ives
R on
Ġd well
Ġorgan isms
sm ooth
K evin
Ġstat ute
Col lect
ĠLa unch
ĠLux embourg
ĠA sc
ĠOut standing
ĠProdu cer
id ian
Ġdem ographic
}\ !
Ġfin itely
33 5
Ġfavor ites
Ġmidfield er
ĠFilip ino
Ġsub marine
ĠCon cept
Ðµ ÑĤ
Ġmot if
G ate
H ER
ĠW ade
Ġu pl
AT TR
ĠRuss ians
NS String
Ġto oth
Ġfor wards
ĠI sh
pi res
Ġpos ed
ĠNap ole
ĠRe venue
Ġcalc ium
w ould
Ġappropri ately
ĠBern ie
ĠChrist ie
Scott ish
ĠRoll ing
n ings
Ġcontract ors
Ġcum ulative
min a
Ġg ut
ug hed
Ġconstruct ing
fin ity
ĠR AM
ok ia
overs et
ud er
Ġdetermin istic
por al
Ġlaugh ing
Ġen larg
ĠGram my
' }$
iss et
r ace
em ale
ĠW ik
J ones
ĠConfeder ate
Ġsk ew
ĠIn frastructure
R h
Ġt a
anc a
ĠEst abl
Ġg a
ĠG it
Ġcontin ually
Ġdeb ates
Ġin con
ĠT ools
ĠOr iginally
ĠN ice
ĠSouth west
Ġr ushed
18 57
fore st
Ġmet ropolitan
Ġlif ting
an ium
ĠMar tha
Ġre habilitation
an ic
Stud ent
ĠClear ly
ASS ERT
Ġdub bed
ĠS ou
Ġg rip
ĠMon ster
it Ã©
d ad
l ived
Ġour s
}) -
Ġca ption
Ġcom merce
Ġover t
Ġc atal
ĠEnt reprene
Ġrefuge e
22 6
We bsite
ĠCelt ic
Ġdet ention
D OM
R F
Ġab st
Log in
oc om
ograph ies
t ouch
any a
ox ic
Ġ_ ,
O x
Ġgr asp
nt hesis
17 3
;& #
ij k
Ġ umb
trans port
tr on
Ġsens ing
pri or
b ands
Us age
Ġinform al
read s
n ear
Ġg ymn
ĠNAV BAR
\!\! \!\!
ĠR oh
ĠC ir
ignt y
amm ation
Ġret ros
Ġhost ile
art a
Ġunder went
T x
Ġcharacter ize
intell ij
d eb
Ġexplo itation
ĠElli ott
rem arks
I rish
Ġsn apshot
Ġvict ories
od ec
Ġstory line
Ġlength y
ĠB oss
P ublisher
BL IC
Ġde port
v ie
Ġl od
Ġphys ic
Ġra infall
Ġtable ts
is che
ĠG D
ĠR EC
(" /
Ġswe pt
av ian
Ġsubsc ribe
ib les
Ġorgan izational
> $
ĠR B
ĠAl most
Ġge ographic
k ip
Ġb ishops
am ount
Ġt issues
18 6
ĠM ove
S on
ĠR andy
Ġarr ays
Ġutter ly
I reland
ĠP ine
z hou
Ġ{ {\
it ably
ĠCon v
Ġtum ors
Ġtwe ets
Ġreview ing
Ġinter rupt
Th ursday
ĠMar riage
ex act
En v
sur face
ess el
Ġ' ';
âĢĶ âĢĶ
ĠCr us
Ġsid ew
Ã¼ n
cass andra
ĠT win
ĠG Z
omot ive
ĠMerc ury
A ge
Test ing
S orry
18 3
pl oma
Ġne at
De velopment
Ġconstit utes
] ))
Ġdis posal
Ġaff irm
Error f
Ġexam ining
IM PORT
Ġlic enses
ĠProte ct
Ġarchae ological
ĠI stanbul
ĠBright on
harm onic
ĠT OP
ĠC ann
pos er
Ã ½
Ġpos es
Ġign oring
ĠDeg ree
ĠâĢ º
ath olic
Ġcan on
ĠX X
Ġprem ise
Ġf als
ĠQu ery
j d
Ġem peror
Ġwat ches
Rep resent
Ġspace craft
M ETHOD
Seg ment
With in
re b
G AN
Ġfin ishes
Res olver
Ġlie utenant
ass ign
Ġval ve
Ġspokes person
en eg
ĠO ber
Ġbreak through
Ġurg ent
}= (
Ġl ately
/ ">
Ġg amma
Ġ! !
ĠØ§ ÙĦ
t l
22 8
ĠBur ke
it ate
Ġquestion ing
Ġpal m
Ġunsuccess ful
Ġmask s
Ġupd ating
ĠWeek end
erv ille
Ġp neum
Ġfilter ed
ĠChron icle
Ġkeyboard s
ĠAlexand ria
Ġthe or
Ġc ute
Ġl azy
ĠRe ich
Ġtang ent
Ġt ile
For ce
C ALL
Ġconvent ions
Ġto ys
Ġ" .
ĠY an
Con sole
ĠManufact uring
Ġ }$
Ġd ancers
ĠH ospit
23 2
ĠMA X
ĠKit chen
Ġlapt op
P akistan
ĠĠĠĠĠĠĠĠĠĠĠĠĠĠĠĠĠĠĠĠĠĠĠĠĠĠĠĠĠĠĠĠ ĠĠĠĠĠĠĠĠĠĠĠĠĠĠĠ
Ġsc rap
aff e
can ic
al ink
Ġcon qu
ogram s
ip ur
to olt
ĠTim othy
iling ual
ada pt
Ġdiscipl ines
/ #
Ġmet eor
ĠInvest igation
N atural
me as
Ġenz yme
Ġint end
ĠF uk
Ġswe at
ĠGriff in
Ġapp rent
= {\
Ġdisc ourse
ov ina
Ind ust
Line ar
Ġamend ments
ĠMan ual
fr ag
direct ory
Ġarg uably
ĠN u
tem perature
Ġnovel ist
Ġur ge
ĠDis play
Ġla ughed
ĠDem on
E ducational
ĠRe ader
> [
T uesday
Ġinf rared
Ġm aternal
cl ub
ĠDep ression
Through out
Ġapart ments
RO W
2 14
ĠT urb
os er
part s
ĠK aw
Ġc raw
Ġsell s
y en
IS A
Ġra id
Ġterm ination
Sche dule
ĠT yr
Ġsupp lier
ĠNew man
sub mit
Ġp av
Ġcont amination
Be en
Ġc uisine
ĠWy oming
load ed
Ġsched uling
ma pping
ĠIndones ian
st ars
Ġat he
ĠAp ollo
Ġmist aken
m ust
ĠCond ition
ĠV atican
Ġf ixture
ĠD rop
To o
ĠExt ra
ĠCre ates
st roke
22 3
'] );
ĠS UMM
Ġbill ions
amm ad
al an
ĠFre eman
l ov
Ġcar ved
ĠBro ck
! ,
Ġr ider
ĠV iv
ht ra
ĠV ac
Ġinnov ations
ĠRe b
Ġend emic
Ġhead line
26 5
ĠRich ards
Ġh ood
Miss ing
Ġconf using
ĠCard inal
m eter
Ġdis closed
ĠJen kins
ĠS ig
Ġ" ";
Ġfilter ing
Ġsha ft
M oths
Ġu pt
e ous
ĠCO MM
var pi
Block ly
p od
Ġl ord
ĠS ister
ĠMark ets
Ġst air
Valid ator
B rad
tt ar
um atic
Ġwh istle
Ġdec oder
Ġelim ination
18 1
h appy
Ġcollect or
37 0
Ġm igrants
ĠL av
ĠSc oring
ĠAct ivity
ĠPack age
Ġimm igrant
ĠPost ed
k ern
om ore
18 58
ĠK arn
eng es
Ġfilm maker
Ġ" %
Ġcolon ies
ĠJ ed
ĉĉĉĉ Ċ
ĠB M
ĠKenn y
ĠT ests
áĥ ĺ
B and
ĠK ab
by ter
Reg ular
nav igation
Ġderiv ation
ĠZ oo
ING S
Ġbe ams
Ġsimpl ify
ĠM uk
arm ed
^- $
& -
Ġhe al
ass er
26 4
Ġsomet ime
Ġsimpl est
pot ential
ĠDi ocese
Ġpromot ional
Liter al
sh al
song writer
ĠD L
ĠWind sor
ĠContin ue
Ġt enth
ĠRec ently
Pro b
Ġpil gr
Ġs her
ĠM use
Ġsp ine
ĠArgent ine
ĠP engu
res olved
Ġveget ation
C ro
unk nown
In tegr
Ġtrou bles
" ].
Ġdirect ing
Ġarm or
ĠPet erson
Ġcomm enced
ĠCongress ional
Ġconcent rate
ĠW ays
Ġforth coming
f uture
ĠN GO
vi o
/ )
Ġtr am
Ch ain
ĠFinal s
ĠEm bassy
S ex
st ellar
P rem
ĠL ip
ict ured
De velop
ĠRoche ster
D ead
res a
\| _{\
ĠCorn wall
ĠF lem
Sh arp
im ag
ĠLore n
Ġpian ist
we ets
RE L
pat hetic
ĠM Y
Ġout let
ar ance
Ġdep ths
ĠI EEE
umber land
30 8
c ats
ĠM TV
Ġt idal
ĠD ent
pr ice
comm end
ĠT rent
ĠHom es
Ġreg imes
ĠApp ly
Ġinstruct or
Ġin ability
Ġinst inct
Ġprint s
T ouch
a verage
m us
Ġcar cin
Ġsuccess ion
ĠCam era
Ġnumber ed
ĠAs k
and in
Ġuncomfort able
ĠSc ene
he ng
und ers
An c
cl air
ns ic
Ġplay wright
An notation
w ald
Ġ\ #
Ġspec ially
ĠEl se
ĠS afe
are ttes
Ġcl ips
co ordinate
Ġamb ient
ĠS ul
CE PT
Ġbur ial
' )\
Point s
IL ITY
cl amation
ĠCent ers
de al
ĠMu eller
ĠFl oor
ĠTH AT
Ġsear ched
M IT
Ġbroad ly
lem en
Ġreb els
Ġsever ity
Ġir rit
Sign ature
ĠB ore
ĠP owers
ĠDomin ican
ĠG N
}\ }$
f ollow
R oll
IC A
ĠWes ley
v skip
enc ode
ĠBay esian
ĠHamb urg
ĠK err
T AG
Ġrepro duction
Ġt v
=" $
ĠCath olics
Ġcasual ties
ĠP P
op ened
urt le
SC R
n as
C reated
ĠF acts
Ġtem ples
Al t
DE BUG
Ġexpon entially
et z
Ġcondem ned
B order
AS C
ĠF REE
comp ile
Ġl ined
âĢĿ :
Ġland scapes
St an
F n
M ale
ĠReg istration
Ġmagn ificent
ĠDra ke
rel im
ug ged
Ġadv ancing
J es
trans action
ĠBre tt
ĠPl ate
he ne
d h
Ġout look
Work ing
ĠL iz
ĠHind i
ild a
ĠGand hi
ĠBel le
md c
Sm art
Ġord in
v ik
() ),
Ġelli ptic
am ar
or ers
if est
CON FIG
K G
Ġdisturb ing
ĠGreat est
ĠP eg
ĠHe y
à¤ ²
}} }$
ĠSh aron
ĠT ank
ĠA U
] ^{
p lectic
Ġsl opes
Ġus eless
Ġd oses
ess es
c ot
ĠMe V
p ract
}_{ (
gener ate
Ġaim ing
Ġinitial ize
ĠV ideos
Ġthr illed
ĠRE AD
}} }{
}( -
Ġrem inis
Ġf art
et ically
Ġprop he
c v
f ood
und a
Ġdiss olved
S ug
ĠL opez
w ere
Ġexceed s
Ġcolle ague
Ġg y
Ġrelig ions
Im ages
ĠAnd ers
Ġformal ism
18 55
o S
act ual
flu id
Ġdis close
ĠConfig uration
ĠA ires
ĠKing ston
ĠCole man
anth a
Ġhil arious
V T
Ġsem if
ĠRevolution ary
ĠL com
Ġwh olly
Ġer g
ĠRos a
Ġmod ulation
P OS
Â ´
ĠS TR
Sum mer
con j
ĠHay es
ĠBos nia
Ġc rap
fig s
Ġb urg
ĠK om
Con nell
Ġfix ing
Ġglass es
Ġepid emic
g em
ipe g
ĠC openhagen
ĠO st
ĠGl ou
Ġperipher al
D ave
Ġ< -
Ġemploy ing
in ja
um at
Ġpack ets
Ġadd itive
Ġin ert
ien ne
H M
ĠTh u
Ġrep airs
ĠAm b
Ġgrab bed
Ġin vert
Ġ" '
ĠCo ffee
ĠAr r
Ġden omin
ĠI ter
ph ib
ĠGet ting
Ġcoinc ide
Ġbeh ave
FF ER
Ġfl ank
ĠAct ress
âĢ¦âĢ¦ âĢ¦âĢ¦
Ġrect angle
pro duced
tain ed
ĠEx pect
o ct
Ġcreat ors
ĠI X
Ġ| =
Ġrefer enced
Album s
Ġs ailed
M essages
ĠR ising
Ġstra ins
Ġt ire
Ap pe
ĠRock y
Ġst aged
Ġbl essed
pos able
ĠMan it
Ġa pt
ĠFranc o
D utch
à ¹
Ġmeant ime
Ġroll s
ĠW IDTH
ident ified
Ġbl own
St atic
ĠAtl as
Ġthr ust
b id
Ph ase
Tim estamp
toolt ip
ĉ ĠĠĠĠĠĠĠ
F N
ĠH yp
ĠBas il
ĠWar wick
ĠEqu ity
Ġwhe at
ĠAN C
Stud ents
icular ly
M apper
Ġtri umph
grav ity
d id
ĠG ur
ic ates
Ġr ays
ĠR id
Ġf li
Ġcar n
Ġpredict ive
Ġsuper conduct
Ġemploy s
ĠWars aw
Tra vel
h on
pe x
Ġfl ies
e o
Ġsp ins
Sc ore
g p
Ġp erv
ĠTra vis
w at
Ø ³
ĠB le
Ġdou bled
G irl
ĠT ale
ĠC rew
Ġse ating
3 25
Ġr ushing
a ph
19 1
assert True
Ġspons ors
mathbb m
ĠC and
ĠL ay
rict ed
ĠTra ffic
Ġwid ow
Render er
C ES
S plit
K T
Ġautom ation
Pre v
Ġcompat ibility
App end
Ġrig orous
Ġre organ
). }
Ġal ias
su its
L im
F B
k top
ch ard
ĠB oot
ordin ates
us age
Ġswe ep
PH P
rol ogical
Mus ical
J O
Ġst alk
Ñģ Ðº
Ġ( .
ist on
Ġge ographical
Ġcomed ian
Ġtr ash
Ġadvers arial
l ists
ĠAc cept
y on
Ġc ra
R os
Ġcon grat
Ġregular ization
R PC
ĠÐ ´
ĠS ob
ĠFran Ã§
ĠNe ither
Every thing
it ored
mun ition
Ġm eg
inds ay
Ġunder neath
Ġd iving
ter ms
2 16
Ġs or
ĠChe v
ĠBar b
Ġhold ers
ĠRen ew
Ġexplan ations
Ġdys function
ass is
Ġfe ather
Ġwell s
Ġrecogn ise
ĠEs pecially
ex isting
ĠJack ie
Ġin ning
Ġsocial ist
Or iginally
ĠConstitution al
Ġc ops
ĠWalk ing
per cent
Ġeduc ate
sche me
Ġd ont
od i
Re ason
fl ows
Ġdeleg ation
Ġd read
K h
iment ary
Ġdis gust
Ġt uple
Con clusion
Ġselect ive
ĠWord Press
ĠCom bat
30 2
Ġpract iced
itect ure
Ġorg ans
ĠImm un
ĠS ites
ĠSur rey
Spe ed
Ġabund ant
ĠCert ificate
Ġspecial ists
ĠP u
Column s
Ġun rest
sub scribe
Ġoscill ations
Ġdign ity
Ġex changes
Ġt sd
18 51
à ¯
Ġp anc
as per
ĠH ull
in ars
ĠL C
ĠEld er
ch oice
Ġ' ./
G ar
gl s
ĠProp het
In ternet
ĠHand le
ĠP G
ĠHol ly
TER N
C redit
Comp iler
A ff
l ining
ĠS ector
Ġ$- $
sh aw
Ġgram mar
Ġdis pat
eb ox
ĠT ags
Rec ently
Ch art
ĠAr row
A thlet
Ġret rieved
hel ial
Ġmus cles
k ernel
ak o
Ex pected
UR CE
dep recated
ch in
Ġcycl ic
ĠIo T
ing en
Ġrecept ors
0000 00
] ).
Ġcon ceived
Ġstand ings
Ġcost ly
ĠBe ast
Ġconvinc ing
Ġfresh man
Ġstat utory
IM IT
Ġshock ing
f est
yr ac
Ġp ine
+ |
Ġopp ose
ĠW I
T ony
Ġfr ustration
ey e
Cont ract
f mt
ĠMon roe
S and
il ight
ant is
Ġk icks
au f
ĠH ip
stat ement
ĠBry ant
ad just
He art
act ing
18 54
for Each
ĠNic ole
Ġdr ill
Ġca res
D ER
ĠE uler
Ġembed dings
L icense
Ġd ioxide
R ows
m or
Ġbranch ing
Ġd ancer
ĠCar p
Ġtransform s
b ial
ĠAn imation
ĠA dapt
æ Ī
ĠE ither
T ry
Ġch airs
ĠK w
Ġsoc ially
F UN
ancell ation
fill draw
aa aa
J am
ped o
Ġ\ :
Ġl bs
Ġv ivid
Ġtou ches
ĠSant iago
ll er
st re
Ġre lied
Ġnot ified
Ġres piratory
Ġnick name
Ġt ribut
Ġto pped
re peat
urs or
R M
Ex amples
ĠMod i
ĠVal id
FI ELD
Ġsp ends
ĠFl ow
Ġvol leyball
ot ive
Ġapp le
Ġsec uring
Ġp ants
Ġdial ect
L u
Ġnit rogen
ĠSher man
ĠMaur ice
P ot
ĠR N
Ġ\, ,
ĠIll ustr
Ġ ....
ĠF en
ĠRaid ers
ĠSebast ian
ĠKazakh stan
ĠAlb any
Ġclar ify
al ias
ĠG ru
Ġforg ot
ak is
Ġref resh
Numer ics
] ),
Ġstr anger
as aki
ĠW ool
In cre
ĠEd mund
ĠBald win
ĠJ unction
W ORD
ĠB ast
P ier
if les
ont r
22 7
Ġc ivic
B oard
Ġcont empl
ĠArm s
Ġble eding
D ynamic
Arg uments
Ġignor ance
ĠWe bb
Ġrem ed
ĠRe fer
ĠRequ ired
ĠT ir
ĠDiv ine
al ert
Ġb ipart
sh i
Ġback wards
Ġdis gu
ĠNew port
Ġj umps
Ġcommun ist
Ġemphas ized
ĠW id
Ġsaf egu
aret te
ĠEd gar
ĠCor b
ĠK ai
ĠCh rome
anc o
Ġtermin ology
Ġadv ise
Ġunderstand s
Ġbi ased
Am ount
M ail
Un ion
ĠPun jab
ĠEv an
x rightarrow
Ġnons ense
ĠLore ntz
Ġreg ulate
ĠSe lection
Ġst amp
ĠTe ams
Ġpro poses
Ġwithd rew
W T
Ġste aling
) }^
G er
Ġi i
Ġre write
ad itional
Ġsn ake
Ġm ol
Qu estion
in ical
Ġform ulated
ĠTop ics
. (\
ĠC ul
ĠZ h
ba um
ell ation
Ġ' ''
ro gate
m agn
ĠV il
ram er
ĠSh annon
ph ysical
Ġman eu
Ġb arn
I AN
Ġimport s
Ġwh oles
ng th
29 0
ĠS ach
Ġf oul
Ġt oured
Ġel dest
Ġgar bage
orth y
Ġel if
ĠSt ark
Ġbr ass
23 7
Ġun fortunate
Ġins ane
Ġeduc ators
22 9
ow l
AS K
ĠJac ques
ec urity
ari at
Ġcatch ing
respect ively
L M
Err ors
Ġm elt
Ġlog s
50 9
Cont ains
ĠI MP
18 56
Ġmon astery
ĠEd en
ĠDr iver
ĠSpring field
Ġassign ments
ĠSil va
ĠHug o
og l
inter val
100 00
Ġpri zes
ochem ical
ĠWe ight
' ,\
atter ed
Ġcred ibility
Ġtouchdown s
Pr im
Decl aration
Ġsen ator
b ral
Ġb anner
Ġne o
ar ag
ĠV P
ĠPost s
re search
cur rency
Ġaccount ed
Ġsynt ax
ĠD OM
ĠG iant
ack ets
Ġcomput ations
an an
it at
Ġl ar
Ġclear ing
Ġcry ing
Ġgenu inely
ĠUlt ra
Ġre build
Per formance
Ġimprison ment
K N
yp se
D am
Ġan nex
ff f
rit z
ĠSte fan
Ġcur ved
Ġspr int
Ġd ans
Ġvis ually
ĠSaskat chewan
Ġle isure
af a
Ġsoon er
ne ider
ĠCl ara
ĠPublisher s
Ġf riction
W all
ighth ouse
Ġdetect ing
en ario
ĠCh ain
UT E
ĠB ey
g ang
ote chnology
Ġshoot er
Ġph rases
Ġmar itime
al ore
ĠH ua
ĠSac red
Ġ ig
Polit ics
' =
L ICENSE
ĠSh i
Ġreal izes
: `
Ġend angered
Ä Ļ
se gment
ĠJ O
Ġkilomet res
ĠGu atem
ĠOt to
ĠN ixon
he id
ĠP orsche
S ql
ĠBr as
ĠTh reat
Sh op
ĠBened ict
Ġsubscrib ers
st airs
ject ed
ĠAng lican
Ġfre el
Ġimprison ed
ĠMy ers
ĠLa ur
getElement ById
à¤ ®
Ġref und
Ġbott les
âĢĿ ?
ĠP lymouth
log ging
Leg al
ot ional
Ñ ĸ
Ġsexual ity
Ġlay ing
Ġ\ }$
iqu it
Ġforb idden
Ġbroad band
ĠPant hers
D ig
' +
Ġgrad ed
23 9
ĠSp in
Ġp ause
ĠOffic ers
Ġhere in
l ar
ĠScot ia
T aylor
Ġas ylum
Med ical
Dep th
ĠNurs ing
t u
fl ies
[...]
