{"[UNK]":0,"!":1,"\"":2,"#":3,"$":4,"%":5,"&":6,"'":7,"(":8,")":9,"*":10,"+":11,",":12,"-":13,".":14,"/":15,"0":16,"1":17,"2":18,"3":19,"4":20,"5":21,"6":22,"7":23,"8":24,"9":25,":":26,";":27,"<":28,"=":29,">":30,"?":31,"@":32,"A":33,"B":34,"C":35,"D":36,"E":37,"F":38,"G":39,"H":40,"I":41,"J":42,"K":43,"L":44,"M":45,"N":46,"O":47,"P":48,"Q":49,"R":50,"S":51,"T":52,"U":53,"V":54,"W":55,"X":56,"Y":57,"Z":58,"[":59,"\\":60,"]":61,"^":62,"_":63,"`":64,"a":65,"b":66,"c":67,"d":68,"e":69,"f":70,"g":71,"h":72,"i":73,"j":74,"k":75,"l":76,"m":77,"n":78,"o":79,"p":80,"q":81,"r":82,"s":83,"t":84,"u":85,"v":86,"w":87,"x":88,"y":89,"z":90,"{":91,"|":92,"}":93,"~":94,"¡":95,"¢":96,"£":97,"¤":98,"¥":99,"¦":100,"§":101,"¨":102,"©":103,"ª":104,"«":105,"¬":106,"®":107,"¯":108,"°":109,"±":110,"²":111,"³":112,"´":113,"µ":114,"¶":115,"·":116,"¸":117,"¹":118,"º":119,"»":120,"¼":121,"½":122,"¾":123,"¿":124,"Â":125,"Ã":126,"Ä":127,"Å":128,"Æ":129,"Ç":130,"È":131,"É":132,"Ê":133,"Ë":134,"Ì":135,"Í":136,"Î":137,"Ï":138,"Ð":139,"Ñ":140,"Ò":141,"Ó":142,"Ô":143,"Õ":144,"Ö":145,"×":146,"Ø":147,"Ù":148,"Ú":149,"Û":150,"Ü":151,"Ý":152,"Þ":153,"ß":154,"à":155,"á":156,"â":157,"ã":158,"ä":159,"å":160,"æ":161,"ç":162,"è":163,"é":164,"ê":165,"ë":166,"ì":167,"í":168,"î":169,"ï":170,"ð":171,"ò":172,"ó":173,"ô":174,"Ā":175,"ā":176,"Ă":177,"ă":178,"Ą":179,"ą":180,"Ć":181,"ć":182,"Ĉ":183,"ĉ":184,"Ċ":185,"ċ":186,"Č":187,"č":188,"Ď":189,"ď":190,"Đ":191,"đ":192,"Ē":193,"ē":194,"Ĕ":195,"ĕ":196,"Ė":197,"ė":198,"Ę":199,"ę":200,"Ě":201,"ě":202,"Ĝ":203,"ĝ":204,"Ğ":205,"ğ":206,"Ġ":207,"ġ":208,"Ģ":209,"ģ":210,"Ĥ":211,"ĥ":212,"Ħ":213,"ħ":214,"Ĩ":215,"ĩ":216,"Ī":217,"ī":218,"Ĭ":219,"ĭ":220,"Į":221,"į":222,"İ":223,"ı":224,"Ĳ":225,"ĳ":226,"Ĵ":227,"ĵ":228,"Ķ":229,"ķ":230,"ĸ":231,"Ĺ":232,"ĺ":233,"Ļ":234,"ļ":235,"Ľ":236,"ľ":237,"Ŀ":238,"ŀ":239,"Ł":240,"ł":241,"Ń":242,"Ġt":243,"ĠĠ":244,"in":245,"Ġa":246,"he":247,"on":248,"er":249,"re":250,"Ġthe":251,"at":252,"en":253,"Ġs":254,"or":255,"an":256,"it":257,"is":258,"es":259,"Ġo":260,"Ġw":261,"al":262,"Ġc":263,"ĠĠĠĠ":264,"ed":265,"ar":266,"Ġf":267,"nd":268,"ing":269,"Ġp":270,"Ġb":271,"Ġof":272,"ion":273,"Ġin":274,"ic":275,"ou":276,"le":277,"as":278,"Ġand":279,"Ġm":280,"Ġto":281,"Ġd":282,"ro":283,"ent":284,"Ġh":285,"ct":286,"el":287,"il":288,"et":289,"Ġth":290,"st":291,"om":292,"ĠS":293,"Ġre":294,"am":295,"Ġn":296,"ĠT":297,"âĢ":298,"Ġl":299,"ĠC":300,"ĠA":301,"ol":302,"ig":303,"Ġe":304,"id":305,"ot":306,"ation":307,"im":308,"ac":309,"ut":310,"Ġ(":311,"ur":312,"iv":313,"Ġis":314,"Ġg":315,"ad":316,"ĠI":317,"ĠM":318,"ĠĠĠ":319,"Ġfor":320,"us":321,"ly":322,"ow":323,"ay":324,"Ġon":325,"ĠĠĠĠĠĠĠĠ":326,"Ġ\\":327,"Ġbe":328,"ce":329,"ĠP":330,"ers":331,"ĠB":332,"Ġ$":333,"ch":334,"ul":335,"ir":336,"Ġst":337,"ith":338,"em":339,"Ġthat":340,"un":341,"ter":342,"ag":343,"20":344,"se":345,"ver":346,"if":347,"ĠH":348,"od":349,"Ġas":350,"Ġwith":351,"ĠR":352,"ĠD":353,"um":354,"ab":355,"her":356,"ĠF":357,"ve":358,"Ġcon":359,"ist":360,"th":361,"ra":362,"Ġal":363,"ĠW":364,"ĠL":365,"Ġan":366,"qu":367,"est":368,"and":369,"ĠThe":370,"ate":371,"ĠN":372,"Ġwh":373,"Ġit":374,"Ġpro":375,"op":376,"Ġv":377,"âĢĻ":378,"ht":379,"ĠG":380,"Ġy":381,"Ġwas":382,"ri":383,"res":384,"ĠE":385,"pe":386,"oc":387,"ill":388,"Ġat":389,"ew":390,"Ġby":391,"ity":392,"os":393,"end":394,"ess":395,"rom":396,"Ġhe":397,"Ġde":398,"Ġcom":399,"19":400,"pp":401,"ore":402,"our":403,"ction":404,"{\\":405,"Ġex":406,"Ġare":407,"ort":408,"Ġr":409,"art":410,"ain":411,"ĠJ":412,"ld":413,"Ġse":414,"ies":415,"ak":416,"Ġor":417,"pt":418,"ub":419,"Ġfrom":420,"ant":421,"ĠO":422,"ĠĠĠĠĠĠĠ":423,"ight":424,"Ġ=":425,"ment":426,"ive":427,"all":428,"ure":429,"ĠâĢ":430,"ud":431,"te":432,"ath":433,"Ġwe":434,"ine":435,"ial":436,"nt":437,"Ġha":438,"ge":439,"Ġthis":440,"ass":441,"og":442,"ust":443,"ard":444,"The":445,"ĠU":446,"Ġsh":447,"ame":448,"pl":449,"Ġch":450,"čĊ":451,"ber":452,"Ġnot":453,"per":454,"ack":455,"'s":456,"ell":457,"ĉĉ":458,"201":459,"Ġ\"":460,"_{":461,"ue":462,"ph":463,"rou":464,"age":465,"Ġu":466,"eg":467,"ich":468,"Ġle":469,"ĠK":470,"Ġk":471,"ast":472,"ans":473,"iz":474,"Ġ<":475,"Ġus":476,"Ġcl":477,"ect":478,"ia":479,"ated":480,"ost":481,"ff":482,"ary":483,"00":484,"..":485,"--":486,"Ġpl":487,"cl":488,"Ġhave":489,"Ġ&":490,");":491,"out":492,"ical":493,"are":494,"ap":495,"ult":496,"=\"":497,"ite":498,"Ġsu":499,"ok":500,"Ġ$\\":501,"Ġyou":502,"ĠIn":503,"orm":504,"ĠĊ":505,"ong":506,"ear":507,"ould":508,"ip":509,"ire":510,"ĠSt":511,"ork":512,"Ġ{":513,"ign":514,"Ġab":515,"Ġtr":516,"ide":517,"math":518,"xt":519,"Ġhis":520,"Ġcomp":521,"ord":522,"Ġhas":523,"able":524,"ome":525,"Ġcan":526,"ition":527,"av":528,"//":529,"ĠV":530,"ace":531,"Ġwhe":532,"Ġj":533,"ice":534,"Ġall":535,"ence":536,"ep":537,"ind":538,"fer":539,"ther":540,"</":541,"ov":542,"con":543,"Ġres":544,"ian":545,"cc":546,"int":547,"ime":548,"ous":549,"ations":550,"Ġwhich":551,"ens":552,"act":553,"Ġ-":554,"âĢĿ":555,"ik":556,"ang":557,"ie":558,"ere":559,"Ġun":560,"ĠĠĠĠĠĠĠĠĠĠĠ":561,"ib":562,"to":563,"ase":564,"Ġcont":565,"Ġad":566,"),":567,"gh":568,"ĠCh":569,"ru":570,"so":571,"ft":572,"ry":573,"du":574,"port":575,"Ġim":576,"Ġbut":577,"}\\":578,"Ġ*":579,"ref":580,"ions":581,"ĠTh":582,"ance":583,"one":584,").":585,"Ġwill":586,"}$":587,"ma":588,"urn":589,"ile":590,"ild":591,"Ġtheir":592,"Ġgo":593,"ach":594,"^{":595,"Ġar":596,"form":597,"ory":598,"Ġone":599,"Ġout":600,"Ġne":601,"Ġme":602,"enc":603,"ally":604,"Ġdo":605,"ents":606,"200":607,"ish":608,"Ġwere":609,"erv":610,"lic":611,"Ġif":612,"ount":613,"Ġwho":614,"Ġthey":615,"Ġ}":616,"mer":617,"ress":618,"ound":619,"ook":620,"In":621,"own":622,"com":623,"ric":624,"ark":625,"Ġalso":626,"ĠY":627,"ll":628,"10":629,"ob":630,"Ġup":631,"ne":632,"ĠâĢľ":633,"Ġper":634,"ree":635,"Ġpart":636,"ors":637,"Ġmore":638,"ely":639,"Ġdis":640,"Ġnew":641,"Ġen":642,"Ġsc":643,"irst":644,"oll":645,"Ġev":646,"Ġte":647,"ake":648,"ail":649,"row":650,"tern":651,"Ġman":652,"Ġsp":653,"ĠĠĠĠĠĠĠĠĠĠĠĠĠĠĠĠ":654,"ose":655,"Ġag":656,"wo":657,"vel":658,"old":659,"rit":660,"Ġother":661,"Ġso":662,"\">":663,"ates":664,"Ġhad":665,"}}":666,"Ġits":667,"very":668,"Ġher":669,"ec":670,"ef":671,"(\\":672,"ink":673,"Ġqu":674,"ta":675,"hed":676,"ĠIt":677,"ring":678,"18":679,"Ġabout":680,"ps":681,"Ġpre":682,"clud":683,"ject":684,"ays":685,"Ġapp":686,"get":687,"Ġwork":688,"Ġ|":689,"Ġbeen":690,"sp":691,"Ġyear":692,"ex":693,"ĠHe":694,"ĠUn":695,"egin":696,"nder":697,"Ġsa":698,"we":699,"rib":700,"ock":701,"amp":702,"ĠĠĠĠĠ":703,"ata":704,"ss":705,"Ġover":706,"text":707,"ike":708,"**":709,"begin":710,"ĠâĢĵ":711,"Ġclass":712,"ater":713,"fter":714,"ode":715,"li":716,"Ġfirst":717,"ng":718,"ings":719,"Ġtime":720,"fr":721,"erm":722,"ational":723,"the":724,"ond":725,"pro":726,"cal":727,"vi":728,")$":729,"turn":730,"Ġwould":731,"Ġpe":732,"anc":733,"Ġ'":734,"ty":735,"pect":736,"ener":737,"use":738,"ople":739,"ics":740,"_{\\":741,"ck":742,"ick":743,"iss":744,"Ġthere":745,"ons":746,"Ġro":747,"aw":748,"ool":749,"Ġwhen":750,"Ġany":751,"ublic":752,"Ġtwo":753,"ual":754,"equ":755,"yst":756,"lect":757,"Ġthan":758,"right":759,"Ġdes":760,"St":761,"Ġrec":762,"oint":763,"igh":764,"Ġour":765,"ert":766,"ug":767,"Ġinto":768,"oy":769,"ey":770,"Ġsome":771,"eth":772,"Ġkn":773,"ont":774,"pec":775,"over":776,"ade":777,"les":778,"reat":779,"Ġoff":780,"Ġinter":781,"}{":782,"elf":783,"12":784,"iel":785,"Ġass":786,"Ġcomm":787,"Ġind":788,"Ġplay":789,"Ġthem":790,"Ġob":791,"Ġacc":792,"ram":793,"Ġbet":794,"ption":795,"abel":796,"rm":797,"Ġpr":798,"Ġ[":799,"},":800,"Ġbec":801,"Ġget":802,"Ġmod":803,"Ġshe":804,"ivers":805,"Ġonly":806,"olog":807,"Ġdef":808,"Ġset":809,"ari":810,"ull":811,"Ġcons":812,"frac":813,"unction":814,"ular":815,"----":816,"sh":817,"up":818,"round":819,"ember":820,"Ġunder":821,"ict":822,"ific":823,"Ġinclud":824,"()":825,"Ġno":826,"ased":827,"tr":828,"inal":829,"land":830,"ĠWe":831,"ystem":832,"ood":833,"ĠCom":834,"Ġpeople":835,"ning":836,"Ġyour":837,"red":838,"Ġ+":839,"ield":840,"Ġact":841,"oth":842,"Ġreg":843,"ited":844,"orld":845,"Ġwhere":846,"ise":847,"Ġsub":848,"ward":849,"ys":850,"ident":851,"==":852,"eq":853,"ĠNew":854,"ove":855,"cite":856,"Ġfe":857,"Ġbl":858,"ative":859,"ities":860,"Ġlike":861,"fig":862,"pr":863,"Ġsaid":864,"ix":865,"ution":866,"ype":867,"ĠSe":868,"sc":869,"ied":870,"Ġval":871,"ĠThis":872,"hat":873,"ement":874,"ollow":875,"11":876,"Ġrel":877,"io":878,"Ġdif":879,"ize":880,"Ġafter":881,"Ġreturn":882,"199":883,"ating":884,"Ġatt":885,"Ġam":886,"ank":887,"Ġwhat":888,"mathb":889,"Ġfl":890,"rough":891,"line":892,"âĢĵ":893,"Ġinv":894,"imes":895,"Ġsuch":896,"ough":897,"arch":898,"als":899,"15":900,"ĠPro":901,"Ġadd":902,"ax":903,"Ġtrans":904,"Ġjust":905,"Ġprov":906,"cre":907,"Ġint":908,"wn":909,"meric":910,"Ġmy":911,"let":912,"label":913,"Ġthen":914,"uring":915,"orn":916,"ause":917,"Ġmay":918,"Ġpol":919,"ĠAr":920,"Ġph":921,"Ġpos":922,"umber":923,"ange":924,"ower":925,"Ġhim":926,"16":927,"Ġmost":928,"resent":929,"Ġhow":930,"itt":931,"ility":932,"ym":933,"ures":934,"raph":935,"ĠĠĠĠĠĠĠĠĠĠĠĠĠĠĠ":936,"ren":937,"ient":938,"Ġbu":939,"Ġcol":940,"ced":941,"Ġstud":942,"cess":943,"ments":944,"Ġshow":945,"Re":946,"pos":947,"par":948,"ily":949,"Ġform":950,"ues":951,"Ġback":952,"ween":953,"ĠDe":954,"its":955,",\\":956,"Ġfollow":957,"Ġthrough":958,"Ġthese":959,"pport":960,"$,":961,"ĠRe":962,"ĠAl":963,"man":964,"$.":965,"mathcal":966,"ince":967,"...":968,"Ġrem":969,"ars":970,"amb":971,"der":972,"ource":973,"und":974,"cent":975,"ences":976,"ible":977,"17":978,"left":979,"ek":980,"tt":981,"ins":982,"arg":983,"Ġco":984,"Ġend":985,"Ġem":986,"Ġprodu":987,"put":988,"ash":989,"Ġ/":990,"Ġloc":991,"ife":992,"oot":993,"Ġconst":994,"ames":995,"eta":996,"\",":997,"roup":998,"chool":999,"hen":1000,"Ġyears":1001,"hes":1002,"Th":1003,"Ġbetween":1004,"Ġtra":1005,"ĠSh":1006,"13":1007,"of":1008,"Ġwell":1009,"ray":1010,"Ġfunction":1011,"Ġfil":1012,"Ġresult":1013,"air":1014,"ists":1015,"Ġpublic":1016,"}.":1017,"any":1018,"ah":1019,"ined":1020,"ox":1021,"cond":1022,"ral":1023,"Ġdiffer":1024,"Ġ//":1025,"equation":1026,"Ġent":1027,"})":1028,"14":1029,"ason":1030,"Ġdist":1031,"ract":1032,"Ġ.":1033,"Ġagain":1034,"Ġserv":1035,"ism":1036,"irect":1037,"ble":1038,"Ġcould":1039,"Ġspec":1040,"Ġac":1041,"set":1042,"Ġgener":1043,"ts":1044,"ann":1045,"Ġinst":1046,"uch":1047,"Ġsim":1048,"oh":1049,"oun":1050,"ines":1051,"Ġused":1052,"ĠAmeric":1053,"atch":1054,"velop":1055,"ruct":1056,"ton":1057,"Ġ||":1058,"Ġuse":1059,"gan":1060,"ider":1061,"ature":1062,"Ġeff":1063,"other":1064,"}(":1065,"ĠAn":1066,"Ġdata":1067,"erson":1068,"view":1069,"ple":1070,"30":1071,"Ġsm":1072,"ER":1073,"Ex":1074,"ĠLe":1075,"Ġcall":1076,"Ġneed":1077,"oci":1078,"}^":1079,"uth":1080,"iversity":1081,"Ġsystem":1082,"app":1083,"ale":1084,"ices":1085,"->":1086,"Ġdet":1087,"::":1088,"els":1089,"uss":1090,"ision":1091,"ator":1092,"ctions":1093,"eng":1094,"ful":1095,"hip":1096,"ĉĉĉĉ":1097,"Ġpoint":1098,"~\\":1099,"ner":1100,"}_":1101,"Ġname":1102,"'t":1103,"Ġ@":1104,"Ġbeing":1105,"ms":1106,"Ġnow":1107,"Ġsur":1108,"Ġ</":1109,"pha":1110,"ished":1111,"Ġevery":1112,"Ġknow":1113,"vent":1114,"err":1115,"ĠFor":1116,"da":1117,"25":1118,"://":1119,"day":1120,"ĠZ":1121,"ives":1122,"Ġmany":1123,".âĢĿ":1124,"way":1125,"led":1126,"Ġcur":1127,"We":1128,"Ġdid":1129,"ute":1130,"Ġsign":1131,"aking":1132,"Ġeach":1133,"ages":1134,"Ġext":1135,"pen":1136,"Ġrequ":1137,"Ġser":1138,"ĠCl":1139,"âĢľ":1140,"ized":1141,"att":1142,"yn":1143,"ave":1144,"rent":1145,"val":1146,"198":1147,"ĠQ":1148,"Ġgr":1149,"Ġhigh":1150,"Ġright":1151,"fore":1152,"Ġsee":1153,"Ġed":1154,"Ġeven":1155,"ces":1156,"Ġart":1157,"formation":1158,"Ġchar":1159,"ern":1160,"ĠSc":1161,"alpha":1162,"orth":1163,"ever":1164,"ĠTr":1165,"ier":1166,"Ġbecause":1167,"az":1168,"uc":1169,"../":1170,"Ġcor":1171,"ĠInd":1172,"Ġlong":1173,"ouse":1174,"ting":1175,"Ġpar":1176,"atic":1177,"ather":1178,"Ġshould":1179,"part":1180,"Ġstart":1181,"Ġline":1182,"min":1183,"Ġmin":1184,"ĠAnd":1185,"21":1186,"ology":1187,"Ġmade":1188,"ww":1189,"ience":1190,"ots":1191,"Ġsame":1192,"Ġdec":1193,"Ġfound":1194,"000":1195,"ery":1196,"Ġvery":1197,"Ġnumber":1198,"Ġgu":1199,"Ġlead":1200,"Ġexp":1201,".,":1202,"ven":1203,"ten":1204,"Ġest":1205,"Ġcount":1206,"read":1207,"IN":1208,"ants":1209,")\\":1210,"Ġmake":1211,"Ġown":1212,"Ġi":1213,"Ġbel":1214,"ets":1215,"Ġfam":1216,"Ġboth":1217,"Ġcent":1218,"Ġ:":1219,"Ġbefore":1220,"Ġway":1221,"iven":1222,"Ġwhile":1223,"ON":1224,"outh":1225,"Ġear":1226,"ically":1227,"alk":1228,"Ġthree":1229,"Ġmon":1230,"ote":1231,"Ġequ":1232,"au":1233,"gy":1234,"Ġra":1235,"ml":1236,"ethod":1237,"elta":1238,"sub":1239,"emb":1240,"Ġdoes":1241,"tain":1242,"alth":1243,"ron":1244,"Ġdifferent":1245,"aj":1246,"Ġexper":1247,"fl":1248,"ĠCon":1249,"ĠAs":1250,"son":1251,"Ġlook":1252,"Ġcase":1253,"Pro":1254,"Ġdevelop":1255,"50":1256,"Ġappro":1257,"ho":1258,"Ġmed":1259,"Ġworld":1260,"gram":1261,"Ġdisc":1262,"oad":1263,"2019":1264,"oid":1265,"$\\":1266,"ĠUniversity":1267,"22":1268,"Ġread":1269,"essage":1270,"ross":1271,"chn":1272,"ambda":1273,"Ġrep":1274,"Ġhel":1275,"ee":1276,"Ġteam":1277,"Ġcre":1278,"Ġoper":1279,"Ġ#":1280,"Ġstr":1281,"ĠIs":1282,"iver":1283,"ired":1284,"ĠAd":1285,"Ġduring":1286,"Ġthose":1287,"iving":1288,"Ġsecond":1289,"Ġsupport":1290,"It":1291,"ually":1292,"Ġfin":1293,"ural":1294,"Ġel":1295,"Ġsol":1296,"cept":1297,"',":1298,"Ġpartic":1299,"Ġvari":1300,"ury":1301,"ĠBl":1302,"ĠFr":1303,"(\"":1304,"Ġele":1305,"Ġmov":1306,"Ch":1307,"col":1308,"();":1309,"iew":1310,"Ġap":1311,"Ġmuch":1312,"_\\":1313,"Con":1314,"ional":1315,"Ġstate":1316,"iness":1317,"by":1318,"amma":1319,"Ġlast":1320,".\"":1321,"Ġdown":1322,"ization":1323,"197":1324,"eb":1325,"ĠCol":1326,"Ġthink":1327,"Ġfact":1328,"24":1329,"ious":1330,"Ġdr":1331,"ved":1332,"mathbb":1333,"ared":1334,"usic":1335,"ality":1336,"Ġperform":1337,"Ġgood":1338,"ST":1339,"sum":1340,"vers":1341,"ball":1342,"ĠSp":1343,"work":1344,"Ġfind":1345,"mu":1346,"ness":1347,"ina":1348,"here":1349,"RE":1350,"ask":1351,"Ġusing":1352,"ital":1353,"AT":1354,"=\\":1355,"Ġwrit":1356,"âĢ¦":1357,"Ġcar":1358,"}_{":1359,"abl":1360,"ample":1361,"span":1362,"ĠPh":1363,"ane":1364,"Ġhand":1365,"Ġ\\\\":1366,"ency":1367,"ases":1368,"Ġvalue":1369,"--------":1370,"Ġsing":1371,"}^{":1372,"Ġrele":1373,"Ġhere":1374,"ĠShe":1375,"****":1376,"Ġrun":1377,"Ġdon":1378,"Ġcommun":1379,"idth":1380,"ohn":1381,"ĠEx":1382,"ega":1383,"Ġdirect":1384,"Ġcontin":1385,"ger":1386,"eter":1387,"ĠHow":1388,"bar":1389,"ght":1390,"ferences":1391,"igma":1392,"ody":1393,"arm":1394,"ĠComm":1395,"ley":1396,"for":1397,"Ġwant":1398,"></":1399,"div":1400,"akes":1401,"ĠPl":1402,"pon":1403,"ĠMar":1404,"Ġhelp":1405,"ĠX":1406,"ober":1407,"ived":1408,"rol":1409,"Ġsl":1410,"23":1411,"ense":1412,"ott":1413,"gr":1414,"ĠAmerican":1415,"Ġexpl":1416,"ĠâĢĶ":1417,"ĠYou":1418,"usiness":1419,"ission":1420,"yp":1421,"Ġstill":1422,"Ġterm":1423,"bs":1424,"Ġagainst":1425,"ript":1426,"-\\":1427,"phi":1428,"Ġtest":1429,"Ġinformation":1430,"ially":1431,"Ġreport":1432,"Ġlife":1433,"Ġperson":1434,"omen":1435,"Ġmain":1436,"istory":1437,"Ġnon":1438,",âĢĿ":1439,"))":1440,"2018":1441,"Ġlist":1442,"irc":1443,"Ġorder":1444,"Ġtype":1445,"This":1446,"ole":1447,"Ġincluding":1448,"ĠOn":1449,"AR":1450,"ument":1451,"Ġeffect":1452,"ety":1453,"align":1454,"enn":1455,"Ġmodel":1456,"Ġbook":1457,"Ġconsider":1458,"Ġaround":1459,"me":1460,"Ġpop":1461,"itions":1462,"Ġprocess":1463,"><":1464,"Ġchild":1465,"Ġdesc":1466,"ĠMay":1467,"Ġtake":1468,"ister":1469,"Ġ*/":1470,"uro":1471,"htt":1472,"Ġsince":1473,"ccess":1474,"ĠEng":1475,"Ġca":1476,"^{\\":1477,"Ġgl":1478,"ĠâĢĺ":1479,"Ġcour":1480,"ified":1481,"__":1482,"pi":1483,"ĠUnited":1484,"ele":1485,"196":1486,"ternal":1487,"Ġsmall":1488,"Ġgame":1489,"Ġopen":1490,"br":1491,"ĠBut":1492,"Com":1493,"Ġsom":1494,"Ġche":1495,"ively":1496,"iqu":1497,"self":1498,"nment":1499,"Ã©":1500,"ĠRes":1501,"Ġx":1502,"Ġappe":1503,"Ġfield":1504,"ining":1505,"Ġfollowing":1506,"def":1507,"Ġmat":1508,"lear":1509,"ior":1510,"rist":1511,"rict":1512,"Ġmark":1513,"Ġschool":1514,"Ġav":1515,"ulation":1516,"ving":1517,"med":1518,"une":1519,"Ġgover":1520,"Ġbuild":1521,"ĠIf":1522,"40":1523,"bl":1524,"Ġpres":1525,"org":1526,"co":1527,"Ġreal":1528,"2017":1529,"Ġpass":1530,"ream":1531,"Ġvis":1532,"Ġsay":1533,"Ġcare":1534,"ĠPr":1535,"be":1536,"bf":1537,"Ġimport":1538,"lambda":1539,"ĉĉĉ":1540,"Ġrecord":1541,"Ġself":1542,"ĠWh":1543,"ĠJan":1544,"ves":1545,"ird":1546,"ubl":1547,"eps":1548,"2016":1549,"Ġ{\\":1550,"OR":1551,"ying":1552,"less":1553,"Ġgiven":1554,"mathbf":1555,"reen":1556,"Ġdesign":1557,"Ġfour":1558,"html":1559,"ĠOr":1560,"Ġgroup":1561,"ains":1562,"Ġposs":1563,"Ġday":1564,"Ġhead":1565,"Ġprovid":1566,"ĠĠĠĠĠĠĠĠĠĠĠĠĠĠĠĠĠĠĠ":1567,"Ġpresent":1568,"uthor":1569,"ability":1570,"Ġbest":1571,"Ġtop":1572,"Ġprogram":1573,"../../":1574,"ĠAll":1575,"Ġlink":1576,"2020":1577,"ĠUS":1578,"Ġpost":1579,"arn":1580,"arge":1581,"oss":1582,"lex":1583,"section":1584,"ilon":1585,"ĠThey":1586,"Ġrece":1587,"Ġins":1588,"til":1589,"Ġcharact":1590,"Ġstat":1591,"Ġpower":1592,"Ġincre":1593,"Ġbr":1594,"lation":1595,"yle":1596,"Ġstand":1597,"Ġpat":1598,"ised":1599,"26":1600,"References":1601,"====":1602,"Ġlaw":1603,"Ġweek":1604,"back":1605,"27":1606,"vious":1607,"not":1608,"Ġcurrent":1609,"ĠĠĠĠĠĠĠĠĠ":1610,"2015":1611,"ke":1612,"ĠJohn":1613,"itle":1614,"28":1615,"gg":1616,"por":1617,"this":1618,"acy":1619,"Ġallow":1620,"ĠCent":1621,"ering":1622,"100":1623,"Ġprof":1624,"illion":1625,"ternational":1626,"Ġmethod":1627,"Ġrest":1628,"che":1629,"etwork":1630,"('":1631,"ai":1632,"Ġgreat":1633,"Ġorig":1634,"ograph":1635,"):":1636,"ris":1637,"Ġplace":1638,"AN":1639,"2014":1640,"Ġmet":1641,"AL":1642,"ends":1643,"dd":1644,"ĠTe":1645,"Ġdep":1646,"oard":1647,"Ġfamily":1648,"EN":1649,"ĠAss":1650,"arent":1651,"item":1652,"AS":1653,"ene":1654,"Ġiss":1655,"Ġlevel":1656,"rop":1657,"aces":1658,"Ġhref":1659,"vert":1660,"ference":1661,"ately":1662,"âĢĶ":1663,"Ġfr":1664,"Ġtechn":1665,"ctor":1666,"ium":1667,"td":1668,"Ġtri":1669,"Ġanal":1670,"uck":1671,"Ġlocal":1672,"ilde":1673,"ĠCar":1674,"Ġproper":1675,"trans":1676,"ivate":1677,"Ġz":1678,"Ġann":1679,"ĠNov":1680,"Ġinterest":1681,"uly":1682,"var":1683,"ump":1684,"Ġmust":1685,"As":1686,"de":1687,"urch":1688,"Ġfilm":1689,"Ġorgan":1690,"cur":1691,"angle":1692,"esc":1693,"uman":1694,"ault":1695,"pre":1696,"ĠCan":1697,"Ġbro":1698,"Ġproble":1699,"ffic":1700,"ential":1701,"ths":1702,"cd":1703,"Ġelect":1704,"ival":1705,"Ġbre":1706,"Ġcond":1707,"ribut":1708,"29":1709,"Ġdem":1710,"Ġanother":1711,"ĠTo":1712,"ories":1713,"Type":1714,"Ġ>":1715,"alse":1716,"ats":1717,"ertain":1718,"He":1719,"Ġleft":1720,"Name":1721,"Ġdel":1722,"Ġref":1723,"Ar":1724,"ĠBe":1725,"Ġknown":1726,"For":1727,"ĠMan":1728,"inc":1729,"raw":1730,"Ġnext":1731,"sigma":1732,"Ġ--":1733,"^{-":1734,"beta":1735,"mod":1736,"Ġseries":1737,"add":1738,"An":1739,"param":1740,"name":1741,"ways":1742,"ĠStates":1743,"Ġwin":1744,"ope":1745,"aim":1746,"umn":1747,"Ġfinal":1748,"Ġsever":1749,"Ġseason":1750,"\\\\":1751,"ought":1752,"Ġhome":1753,"Ġadv":1754,"Ġleg":1755,"Ġ(\\":1756,"source":1757,"Ġlater":1758,"uary":1759,"Ġke":1760,"Ġwithout":1761,"ĠWorld":1762,"ration":1763,"ploy":1764,"embers":1765,"iam":1766,"serv":1767,"ocial":1768,"ently":1769,"Ġbased":1770,"}{\\":1771,"Ġgoing":1772,"2013":1773,"play":1774,"Ġconf":1775,"Ġmult":1776,"Ġcalled":1777,"ĠRep":1778,"On":1779,"ajor":1780,"Ġfew":1781,"Ġbeh":1782,"ination":1783,"Ġreally":1784,"Ġpolit":1785,"import":1786,"ĠNational":1787,"ĠOct":1788,"Ġexpect":1789,"ush":1790,"ception":1791,"Ġspe":1792,"Ġproject":1793,"Cl":1794,"Res":1795,"Ġwithin":1796,"ĠCount":1797,"Ġold":1798,"yl":1799,"Ġmusic":1800,"Ġinvest":1801,"lection":1802,"Id":1803,"Ġinc":1804,"mathrm":1805,"ĠAt":1806,"ule":1807,"By":1808,"Ġsays":1809,"Ġbusiness":1810,"urther":1811,"ĠAust":1812,"idd":1813,"2012":1814,"ourn":1815,"Ġoffic":1816,"pm":1817,"*}":1818,"umb":1819,"message":1820,"ians":1821,"Ġopt":1822,"arget":1823,"Ġtoo":1824,"ĠPol":1825,"Ġimp":1826,"Ġnear":1827,"ĠYork":1828,"wards":1829,"Ġturn":1830,"ES":1831,"ittle":1832,"str":1833,"+\\":1834,"aster":1835,"ivid":1836,"icle":1837,"urs":1838,"itive":1839,"ilar":1840,"ĠGu":1841,"Ġtrue":1842,"iron":1843,"Ġresults":1844,"Ġrepresent":1845,"ĠBr":1846,"ling":1847,"Ġ`":1848,"ĠSu":1849,"Ġident":1850,"ID":1851,"ĠAug":1852,"ĠGr":1853,"agn":1854,"gamma":1855,"class":1856,"pond":1857,"Ġsk":1858,"Ġvers":1859,"stand":1860,"Ġevent":1861,"olds":1862,"String":1863,"To":1864,"error":1865,"ended":1866,"ney":1867,"Ġlim":1868,"Ġcap":1869,"ords":1870,"ording":1871,"ĠNo":1872,"reg":1873,"Tr":1874,"Ġocc":1875,"ser":1876,"Ġlarge":1877,"Ġhapp":1878,"Ġcr":1879,"epend":1880,"ention":1881,"umer":1882,"rem":1883,"ries":1884,"IT":1885,"array":1886,"Ġalong":1887,"ext":1888,"ĠEuro":1889,"conom":1890,"af":1891,"ateg":1892,"]{":1893,"comm":1894,"roll":1895,"ailable":1896,"2010":1897,"figure":1898,"ĠThere":1899,"face":1900,"itional":1901,"Ġeng":1902,"Ġmanag":1903,"return":1904,"ĠMed":1905,"ĠSchool":1906,"32":1907,"60":1908,"2011":1909,"Ġmeas":1910,"Ġview":1911,"Ġfoot":1912,"ĠApr":1913,"Ġarea":1914,"Ġuntil":1915,"Ph":1916,"width":1917,"Ġstruct":1918,"fo":1919,"Ġgovernment":1920,"Ġve":1921,"arrow":1922,"ĠÂ":1923,"ĠWar":1924,"ength":1925,"olution":1926,"à¤":1927,"ĠGe":1928,"Ġplayers":1929,"theta":1930,"Ġprote":1931,"search":1932,"uild":1933,"Ġnever":1934,"Ġet":1935,"Un":1936,"Ġdescrib":1937,"delta":1938,")}":1939,"Ġgrow":1940,"big":1941,"^\\":1942,"new":1943,"ĠFl":1944,"angu":1945,"Ġchang":1946,"bol":1947,"bum":1948,"ances":1949,"ales":1950,"mp":1951,"ler":1952,"stit":1953,"Ġquest":1954,"ape":1955,"Ġlet":1956,"Ġtem":1957,"Ġcompany":1958,"ĠState":1959,"mber":1960,"ache":1961,"iod":1962,"ĠSouth":1963,"ably":1964,"ĠCo":1965,"45":1966,"leq":1967,"ights":1968,"oman":1969,"Ġbelie":1970,"Ġinit":1971,"Ġobject":1972,"ĠJanuary":1973,"tau":1974,"Ġparam":1975,"ptember":1976,"Ġ!":1977,"ĠMarch":1978,"ague":1979,"Ġland":1980,"Ġide":1981,"Ġaff":1982,"oor":1983,"nect":1984,"ume":1985,"Ġless":1986,"Ġrespect":1987,"cer":1988,"Ġla":1989,"ĠChrist":1990,"Ġstory":1991,"rho":1992,"Al":1993,"$-":1994,"itor":1995,"ĠPar":1996,"Ġput":1997,"Ġkey":1998,"Ġsuccess":1999,"LE":2000,"ored":2001,"sec":2002,"code":2003,"ponse":2004,"Ġspace":2005,"IC":2006,"box":2007,"ideo":2008,"uff":2009,"imate":2010,"ift":2011,"Ġ,":2012,"ething":2013,"33":2014,"AC":2015,"Ġbig":2016,"Ġfull":2017,"thing":2018,"Ġseveral":2019,"Ġelse":2020,"ify":2021,"ison":2022,"gin":2023,"Ġseem":2024,"side":2025,"ĠMin":2026,"ĠEd":2027,"}$,":2028,"Ġ=>":2029,"used":2030,"opt":2031,"}$.":2032,"leg":2033,"aper":2034,"aps":2035,"ĠCity":2036,"cont":2037,"alf":2038,"rodu":2039,"Ġsingle":2040,"}(\\":2041,"Ġbetter":2042,"ung":2043,"osp":2044,"type":2045,"iter":2046,"Ġchange":2047,"List":2048,"includ":2049,"quad":2050,"requ":2051,"Ġhtt":2052,"ony":2053,"cember":2054,"Ġener":2055,"Ġdi":2056,"Ġexample":2057,"ead":2058,"Ġ)":2059,"195":2060,"##":2061,"eqref":2062,"ification":2063,"ĠEurope":2064,"osed":2065,"Ġimportant":2066,"ware":2067,"Ġbas":2068,"Ġcharacter":2069,"ĠCal":2070,"ĠJune":2071,"Ġgeneral":2072,"space":2073,"Ġestabl":2074,"Ġproduct":2075,"Ġmean":2076,"ks":2077,"ĠBrit":2078,"ients":2079,"ured":2080,"obal":2081,"Ġmajor":2082,"Ġrad":2083,"Ġdue":2084,"ĠJuly":2085,"ators":2086,"ament":2087,"Val":2088,"head":2089,"where":2090,"Ġmight":2091,"ither":2092,"lege":2093,"icy":2094,"Ġplan":2095,"times":2096,"ources":2097,"Ġaut":2098,"ĠSte":2099,"Ġshort":2100,"ows":2101,"Ġhealth":2102,"Ġearly":2103,"35":2104,"ca":2105,"Ġparticular":2106,"Ġsong":2107,"Ġmass":2108,"ĠOctober":2109,"Ġprom":2110,"Ġeas":2111,"ĠApril":2112,"ression":2113,"Ġinclude":2114,"ilit":2115,"www":2116,"wit":2117,"Ġgot":2118,"Ġavailable":2119,"Ġcity":2120,"Ġret":2121,"Ġwomen":2122,"Ġcome":2123,"ards":2124,"Ġdeath":2125,"Ġactiv":2126,"viron":2127,"Ġsupp":2128,"ued":2129,"....":2130,"ĠFeb":2131,"ĠSeptember":2132,"ĠEn":2133,"ples":2134,"ground":2135,"\".":2136,"ending":2137,"Ġsum":2138,"duct":2139,"Ġfac":2140,"ĠAugust":2141,"Ġmembers":2142,"ev":2143,"80":2144,"Ġcountry":2145,"uture":2146,"Ġwater":2147,"Ġcontrol":2148,"field":2149,"ising":2150,"ours":2151,"ĠSo":2152,"time":2153,"/>":2154,"Ġfree":2155,"Ġalways":2156,"Ġtot":2157,"ĠAf":2158,"wh":2159,"ilt":2160,"action":2161,"Ġservice":2162,"Ġchildren":2163,"ymbol":2164,"Sh":2165,"Ġarg":2166,"ĠWill":2167,"Ġabove":2168,"ĠAm":2169,"ĠHowever":2170,"Ġsit":2171,"ĠNorth":2172,"ĠWith":2173,"Ġobtain":2174,"ĠAb":2175,"Ġ_":2176,"ĠMc":2177,"unc":2178,"ĠCounty":2179,"Ġhard":2180,"ides":2181,"Ġsomething":2182,"ered":2183,"ustom":2184,"Ġmar":2185,"partial":2186,"ained":2187,"ĠPart":2188,"2009":2189,"uk":2190,"aut":2191,"iting":2192,"log":2193,"Ġwar":2194,"atures":2195,"31":2196,"fty":2197,"ribution":2198,"ones":2199,"loc":2200,"rix":2201,"ror":2202,"Ġlinks":2203,"ports":2204,"ĠNovember":2205,"amed":2206,"Ġfore":2207,"Ġaccess":2208,"Ġwon":2209,"Ġauthor":2210,"Ġpubl":2211,"Ġlarg":2212,"Ġthings":2213,"ada":2214,"ĠAustral":2215,"ĠDecember":2216,"ipp":2217,"Ġalbum":2218,"IS":2219,"Ġdev":2220,"ret":2221,"Âł":2222,"Ġstudy":2223,"Ġfri":2224,"Ġcrit":2225,"raft":2226,"194":2227,"ĠThat":2228,"ĠHar":2229,"ĠĠĠĠĠĠĠĠĠĠĠĠĠĠĠĠĠĠĠĠĠĠĠĠĠĠĠĠĠĠĠĠ":2230,"Ġtimes":2231,"Ġlittle":2232,"ection":2233,"Cont":2234,"Ġnetwork":2235,"Ġhistory":2236,"AM":2237,"Ġ==":2238,"Ġleast":2239,"aff":2240,"Ġredu":2241,"istor":2242,"ready":2243,",\"":2244,"Ġbound":2245,"Ġside":2246,"Ġsimilar":2247,"infty":2248,"Ġpot":2249,"off":2250,"ED":2251,"idence":2252,"omega":2253,"Ġenergy":2254,"Ġprivate":2255,"Ġhig":2256,"ands":2257,"Ġprob":2258,"rew":2259,"nu":2260,"Ġvar":2261,"Ġcho":2262,"ĠDr":2263,"Ġdays":2264,"2008":2265,"Ġcost":2266,"Ġphot":2267,"Ġbecame":2268,"ĠGerm":2269,"|\\":2270,"key":2271,"ĠPres":2272,"Ġcover":2273,"ĠReg":2274,"empt":2275,"\"/>":2276,"lish":2277,"aterial":2278,"ique":2279,"tilde":2280,"Ġinvol":2281,"ham":2282,"Ġsuper":2283,"Ġfar":2284,"test":2285,"Ġapplic":2286,"ocument":2287,"Ġimpro":2288,"opy":2289,"Ġnull":2290,"Ġdiscuss":2291,"Ġlow":2292,"Ġcal":2293,"EC":2294,"Ġpossible":2295,"Ġask":2296,"eters":2297,"oney":2298,"Ġstrong":2299,"Ġobserv":2300,"Ġclear":2301,"Ġhuman":2302,"Ġprevious":2303,"Ġclaim":2304,"ruction":2305,"rap":2306,"Ġfund":2307,"go":2308,"ruary":2309,"eting":2310,"xi":2311,"ysis":2312,"irl":2313,"Ġcomplet":2314,"If":2315,"Ġassoci":2316,"Ġperiod":2317,"hern":2318,"01":2319,"Ġcamp":2320,"Ġcommunity":2321,"vironment":2322,"iles":2323,"Ġsize":2324,"ĠBar":2325,"Ġcomb":2326,"Ġfalse":2327,"Ġpract":2328,"aken":2329,"Ġtook":2330,"translation":2331,"Ġresearch":2332,"Ġmillion":2333,"Ġvol":2334,"Ġformer":2335,"ividual":2336,"Ġmen":2337,"ĠApp":2338,"date":2339,"ava":2340,"ription":2341,"rel":2342,"met":2343,"Delta":2344,"Ġexist":2345,"ĠBy":2346,"Ġyoung":2347,"plic":2348,"Ġvoid":2349,"iction":2350,"Ġoften":2351,"Ġpay":2352,"anguage":2353,"ino":2354,"Ġspecial":2355,"istic":2356,"ension":2357,"Ġfeel":2358,"90":2359,"Ġant":2360,"sk":2361,"Ġhaving":2362,"ana":2363,"eder":2364,"Ġaway":2365,"Ġacross":2366,"lement":2367,"ster":2368,"Ġlik":2369,"iment":2370,"rite":2371,"ried":2372,"sw":2373,"order":2374,"Ġbecome":2375,"Ġcult":2376,"Ġenc":2377,"aint":2378,"Ġoffer":2379,"Ġtitle":2380,"Ġproblem":2381,"Ġpoints":2382,"ĠMe":2383,"Ġcell":2384,"atter":2385,"reet":2386,"ĠĠĠĠĠĠ":2387,"Ġlove":2388,"Ġlot":2389,"ties":2390,"aring":2391,"36":2392,"Ġcomput":2393,"rain":2394,"Ġalready":2395,"dis":2396,"Ġprovide":2397,"ero":2398,"ĠWest":2399,"Ġsat":2400,"Ġtyp":2401,"most":2402,"Ġmaking":2403,"ibr":2404,"Ġdeterm":2405,"Ġdom":2406,"ze":2407,"37":2408,"Ġamong":2409,"lim":2410,"though":2411,"Ġstring":2412,"ails":2413,"Ġsocial":2414,"Ġshows":2415,"Ġair":2416,"http":2417,"Ġgive":2418,"ĠAg":2419,"Ġfurther":2420,"abor":2421,"Ġfoc":2422,"ches":2423,"iff":2424,"uation":2425,"ormal":2426,"\")":2427,"ounc":2428,"oph":2429,"Ġfive":2430,"ald":2431,"2007":2432,"And":2433,"Ġlight":2434,"Ġdevelopment":2435,"Ġsignific":2436,"lected":2437,"Ġ$(":2438,"ules":2439,"Ġinf":2440,"iol":2441,"imal":2442,"Ġtoget":2443,"Ġtogether":2444,"ological":2445,"now":2446,"inter":2447,"Ġable":2448,"34":2449,"Ġtrad":2450,"Ġreview":2451,"cast":2452,"mm":2453,"Ġeduc":2454,"apt":2455,"Col":2456,"ĠCor":2457,"ĠOne":2458,"Ġinte":2459,"aul":2460,"Ġport":2461,"Ġfootball":2462,"Ġep":2463,"Ġcame":2464,"Ġkeep":2465,"ĠII":2466,"Ġdeb":2467,"earch":2468,"urg":2469,"Ġworking":2470,"ĠFebruary":2471,"Ġpast":2472,"ĠGl":2473,"oper":2474,"aced":2475,"ondon":2476,"Ġtalk":2477,"ae":2478,"respond":2479,"ĠDav":2480,"Ġseen":2481,"cdot":2482,"Ġtarget":2483,"Ġemploy":2484,"Ġmeans":2485,"********":2486,"ĠAir":2487,"mat":2488,"Ġthough":2489,"eqn":2490,"ij":2491,"ĠCont":2492,"Ġthought":2493,"clus":2494,"iber":2495,"ET":2496,"ogn":2497,"string":2498,"Ġtotal":2499,"Ġwhy":2500,"su":2501,"orem":2502,"vision":2503,"ĠKing":2504,"39":2505,"Ġindust":2506,"Ġhouse":2507,"ĠWhen":2508,"AP":2509,"ĠPe":2510,"Ġkill":2511,"ession":2512,"ĠArt":2513,"Ind":2514,"ĠChe":2515,"External":2516,"Ġgames":2517,"64":2518,"\"><":2519,"Ġarr":2520,"ops":2521,"70":2522,"ensure":2523,"Ġindividual":2524,"igure":2525,"my":2526,"see":2527,"Ġposition":2528,"US":2529,"ournal":2530,"ĠSer":2531,"Ġbir":2532,"Ġmom":2533,"Ġden":2534,"rown":2535,"mary":2536,"ĠAfric":2537,"Ġaction":2538,"apan":2539,"epsilon":2540,"Ġoriginal":2541,"Ġpred":2542,"ille":2543,"38":2544,"Ġcompet":2545,"ĠPark":2546,"Ġbo":2547,"Ġthird":2548,"}}\\":2549,"ĠAfter":2550,"CO":2551,"ĠHis":2552,"Ġvalues":2553,"Ġjo":2554,"Ġeconom":2555,"elling":2556,"ief":2557,")$.":2558,"const":2559,"bject":2560,"ude":2561,"}[":2562,"Ġintrodu":2563,"Ġunderstand":2564,"ĠEl":2565,"Ġfuture":2566,"Ġperformance":2567,"ama":2568,"Ġsection":2569,"odes":2570,"$$":2571,"ĠRuss":2572,"ĠQu":2573,"Ġgen":2574,"Ġversion":2575,"Ġstudents":2576,"Ġrole":2577,"New":2578,"RO":2579,"sel":2580,"Ġtrack":2581,"book":2582,"urb":2583,"Ġcou":2584,"sq":2585,"Ġmot":2586,"Ġid":2587,"ocr":2588,"posed":2589,"Ġplayed":2590,"ervice":2591,"Ġenough":2592,"\\,":2593,"Ġcertain":2594,"Ġsite":2595,"2006":2596,"ĠAct":2597,"rest":2598,"cher":2599,"Ġservices":2600,"ĠĠĊ":2601,"Ġaccount":2602,"ips":2603,"Ġattack":2604,"lease":2605,"ett":2606,"na":2607,"],":2608,"ĠThese":2609,"Ġrelations":2610,"rt":2611,"Ġtext":2612,"Ġphys":2613,"ux":2614,"ĠHouse":2615,"sim":2616,"Ġage":2617,"irt":2618,"Ġcontent":2619,"Ġpri":2620,"Ġconc":2621,"Ġkind":2622,"ids":2623,"top":2624,"verage":2625,"adem":2626,"roups":2627,"ogle":2628,"99":2629,"ĠComp":2630,"value":2631,"data":2632,"uf":2633,"Ġexperience":2634,"Ġothers":2635,"Ġterms":2636,"ged":2637,"05":2638,"idge":2639,"----------------":2640,"pons":2641,"ibility":2642,"ĠDep":2643,"Ġexc":2644,"Ġrange":2645,"ĠPer":2646,"ements":2647,"ners":2648,"Ġever":2649,"Ġreleased":2650,"Ġcourse":2651,"LL":2652,"Ġdidn":2653,"Ġcommon":2654,"Ġben":2655,"Ġpath":2656,"eed":2657,"}_{\\":2658,"Ġsignificant":2659,"Ġnational":2660,"ampions":2661,"Ġtreat":2662,"no":2663,"Ġcoll":2664,"ĠRec":2665,"itted":2666,"asing":2667,"Ġlog":2668,"load":2669,"Ġeither":2670,"Ġmember":2671,"oon":2672,"75":2673,"lin":2674,"Ġfail":2675,"cm":2676,"')":2677,"yd":2678,"utions":2679,"color":2680,"Ġheld":2681,"Wh":2682,"refore":2683,"Ġsix":2684,"bsite":2685,"Ġtre":2686,"Ġshown":2687,"ĠChar":2688,"ĠAmerica":2689,"ĠLondon":2690,"ĠWhat":2691,"Ġtoday":2692,"Ġcheck":2693,"ixed":2694,"ociety":2695,"ĠĠĠĠĠĠĠĠĠĠĠĠĠ":2696,"ĠPresident":2697,"Ġdone":2698,"sequ":2699,"ography":2700,"roid":2701,"Ġonce":2702,"Ġreason":2703,"Om":2704,"era":2705,"ĠSm":2706,"Data":2707,"Ġbuilding":2708,"ĠMon":2709,"Ġannoun":2710,"iple":2711,"ĠBritish":2712,"ĠLa":2713,"////":2714,"ington":2715,"Ġtown":2716,"eneral":2717,"ouncil":2718,"https":2719,"ened":2720,"isk":2721,"ION":2722,"Ġindic":2723,"Ġbring":2724,"Ġwent":2725,"ilities":2726,"ese":2727,"raphics":2728,"ĠBro":2729,"ĠEnglish":2730,"Ġinfl":2731,"Se":2732,"Ġaddress":2733,"Ġcorrespond":2734,"Ġblack":2735,"ills":2736,"Ġmedia":2737,"with":2738,"Sc":2739,"Ġvideo":2740,"Ġjob":2741,"Ġrequire":2742,"lem":2743,"How":2744,"lete":2745,"].":2746,"atural":2747,"ests":2748,"Ġhalf":2749,"With":2750,"Ġbreak":2751,"table":2752,"All":2753,"What":2754,"icro":2755,"ĠInternational":2756,"Ġband":2757,"Ġsound":2758,"ĠNews":2759,"psi":2760,"Ġsent":2761,"unity":2762,"ford":2763,"Ġblock":2764,"ĠĠĠĠĠĠĠĠĠĠĠĠĠĠĠĠĠĠĠĠĠĠĠ":2765,"Ġthing":2766,"gress":2767,"ables":2768,"Ġdiff":2769,"Er":2770,"Ġmakes":2771,"You":2772,"Ġcreate":2773,"reed":2774,"rak":2775,"hib":2776,"Pl":2777,"Ġpress":2778,"ĠSec":2779,"ĠAng":2780,"Ġdou":2781,"ĠSch":2782,"AD":2783,"Ġstarted":2784,"mail":2785,"Ġwind":2786,"ĠGo":2787,"ĠMy":2788,"Ġsugg":2789,"alt":2790,"iet":2791,"Ġevents":2792,"ĠNot":2793,"dom":2794,"ynam":2795,"ĠHigh":2796,"Ġbody":2797,"Ġlive":2798,"chie":2799,"Ġwhether":2800,"2000":2801,"Ġcirc":2802,"ran":2803,"Ġdeg":2804,"Ġes":2805,"ependent":2806,"ĠDo":2807,"Ġrepl":2808,"Ġnews":2809,"Ġreceived":2810,"oud":2811,"Ġvarious":2812,"inary":2813,"Ġabs":2814,"gor":2815,"ĠHer":2816,"Ġstyle":2817,"Ġmax":2818,"cy":2819,"position":2820,"ĠDis":2821,"sm":2822,"ecut":2823,"pper":2824,"imum":2825,"bit":2826,"\");":2827,"nb":2828,"Value":2829,"Ġnight":2830,"Ġfeature":2831,"aged":2832,"Ġregion":2833,"Ġmaterial":2834,"Omega":2835,"irm":2836,"Ġtw":2837,"Ġrefer":2838,"08":2839,"ades":2840,"bor":2841,"Ġmiss":2842,"HE":2843,"Ġhost":2844,"textbf":2845,"ĠMich":2846,")$,":2847,"But":2848,"ĠArm":2849,"There":2850,"etic":2851,"aining":2852,"Ġsource":2853,"Ġcareer":2854,"ĠVal":2855,"Not":2856,"year":2857,"ius":2858,"rench":2859,"Im":2860,"psilon":2861,"2005":2862,"ĠJapan":2863,"ayer":2864,"oe":2865,"script":2866,"Ġopp":2867,"^*":2868,"ender":2869,"SS":2870,"Ġsw":2871,"Ġmodels":2872,"ĠCour":2873,"''":2874,"ĠDist":2875,"Ġbegan":2876,"Ġtaken":2877,"ĠStud":2878,"ilitary":2879,"ĠIm":2880,"Ġsure":2881,"Ġworks":2882,"uration":2883,"ĠCollege":2884,"Ġmem":2885,"Ġhom":2886,"48":2887,"mit":2888,"Ġstates":2889,"Ġ&&":2890,"ĠMark":2891,"Ġder":2892,"ges":2893,"ched":2894,"Ġquestion":2895,"Ġpolitical":2896,"Ġdescribed":2897,"Ġcorre":2898,"Ġprim":2899,"ael":2900,"Ġhowever":2901,"BC":2902,"Ġbi":2903,"Ġbase":2904,"tab":2905,"Ġpur":2906,"En":2907,"bm":2908,"Ġarch":2909,"augh":2910,"ishing":2911,"Ġpublished":2912,"Get":2913,"Ġclose":2914,"Ġdest":2915,"sl":2916,"ager":2917,"Ġbit":2918,"Gamma":2919,"minist":2920,"55":2921,"chi":2922,"Ġ/**":2923,"04":2924,"Ġsaf":2925,"Ġcomplex":2926,"Ġfeatures":2927,"UR":2928,"Ġstop":2929,"Bl":2930,"ĠPhil":2931,"Ġdoesn":2932,"Ġlearn":2933,"Ġbelow":2934,"Ġsystems":2935,"subsection":2936,"Ġrate":2937,"Ġapproach":2938,"ĠSw":2939,"Or":2940,"based":2941,"ĠLaw":2942,"Ġcustom":2943,"aign":2944,"Ġpotential":2945,"attle":2946,"ivity":2947,"px":2948,"Ġpopulation":2949,"iddle":2950,"Ġyet":2951,"Ġbegin":2952,"'re":2953,"duc":2954,"Ġmoney":2955,"gorith":2956,"Ġmor":2957,"asc":2958,"ribute":2959,"OT":2960,"Ġincluded":2961,"ided":2962,"Ġhold":2963,"07":2964,"Ġred":2965,"anies":2966,"Ġcreat":2967,"Ġdeal":2968,"plit":2969,"eqnarray":2970,"Ġneg":2971,"ĠMore":2972,"util":2973,"Ġmarket":2974,"Ġinvestig":2975,"06":2976,"ached":2977,"plement":2978,"Ġactually":2979,"ites":2980,"ĠWilliam":2981,"rick":2982,"Ġtell":2983,"Ġground":2984,"Ġconnect":2985,"Ġcases":2986,"09":2987,"anch":2988,"Le":2989,"Ġ%":2990,"ait":2991,"Ġanalysis":2992,"};":2993,"Ġparent":2994,"sqrt":2995,"Ġrather":2996,"aid":2997,"At":2998,"Ġbuilt":2999,"file":3000,"uments":3001,"Ġdefined":3002,"^{(":3003,"cle":3004,"Ġpaper":3005,"ĠUK":3006,"uel":3007,"Ġofficial":3008,"));":3009,"Ġtraining":3010,"list":3011,"Ġwritten":3012,"Ġtele":3013,"Ġspect":3014,"icles":3015,"Ġaud":3016,"estern":3017,"Mod":3018,"unch":3019,"Ġ///":3020,"Par":3021,"size":3022,"Ġappear":3023,"ĠIndia":3024,"Ġimage":3025,"Ġhigher":3026,"Ġprovided":3027,"ires":3028,"IM":3029,"omet":3030,"Ġerror":3031,"vare":3032,"Ġaddition":3033,"Ġprotect":3034,"Ġdefin":3035,"ĠEm":3036,"Ġalmost":3037,"Ġgrad":3038,"iforn":3039,"Ġchall":3040,"DE":3041,"2004":3042,"amples":3043,"Ġtold":3044,"Ġpo":3045,"ivil":3046,"Ġill":3047,"Ġfall":3048,"Ġrespons":3049,"ulated":3050,"44":3051,"Ġmonths":3052,"Ġfollows":3053,"nbsp":3054,"ĠMr":3055,"Ġaccording":3056,"isf":3057,"];":3058,"Ġfav":3059,"caption":3060,"lying":3061,".)":3062,"Ġrequired":3063,"Ġcross":3064,"ags":3065,"Ġmatch":3066,"medi":3067,"gl":3068,"Ġvia":3069,"Ġentire":3070,"Ġfile":3071,"Ġproduction":3072,"ceed":3073,"IG":3074,"ING":3075,"Ġnamed":3076,"Ġenvironment":3077,"ulations":3078,"Ġconsidered":3079,"rightarrow":3080,"Ġstatic":3081,"($":3082,"inally":3083,"ĠLeague":3084,"ĠSan":3085,"utes":3086,"Ġmeasure":3087,"Ġgroups":3088,"aker":3089,"oke":3090,"Exception":3091,"itte":3092,"Ġstructure":3093,"Ġprofess":3094,"ĠThen":3095,"Ġviol":3096,"Ġop":3097,"ifornia":3098,"Ġlower":3099,"orge":3100,"hold":3101,"artment":3102,"annel":3103,"ara":3104,"02":3105,"andom":3106,"Ġtax":3107,"vis":3108,"Ġloss":3109,"ensity":3110,"Ġcut":3111,"Ġproperty":3112,"Ġcreated":3113,"Ġparticip":3114,"Ġachie":3115,"Ġcompon":3116,"Ġhttp":3117,"atory":3118,"wide":3119,"Ġsubject":3120,"anks":3121,"varepsilon":3122,"emph":3123,"Ġ${\\":3124,"========":3125,"}^{\\":3126,"Ġclub":3127,"function":3128,"ĠDem":3129,"Ġfocus":3130,"Ġclos":3131,"ĠCenter":3132,"Ã¡":3133,"aly":3134,"65":3135,"Ġsepar":3136,"mark":3137,"ĠAc":3138,"ĠTV":3139,"Is":3140,"Ġpercent":3141,"Ġwebsite":3142,"rug":3143,"Ġresponse":3144,"ampionship":3145,"Ġver":3146,"Ġnov":3147,"ha":3148,"03":3149,"hood":3150,"sy":3151,"Object":3152,"Ġvill":3153,"down":3154,"Ġlate":3155,"non":3156,"Ġdiv":3157,"unk":3158,"Ġexpected":3159,"point":3160,"Ġlocated":3161,"Ġbar":3162,"Ġengine":3163,"ili":3164,"Ġaverage":3165,"Ġstar":3166,"pecially":3167,"ĠDon":3168,"aries":3169,"ĠSystem":3170,"ises":3171,"oo":3172,"Ġ\\,":3173,"Ġparty":3174,"UT":3175,"xim":3176,"Ġconditions":3177,"Ġbecom":3178,"Set":3179,"egraphics":3180,"includegraphics":3181,"atus":3182,"ĠAssoci":3183,"Ġpersonal":3184,"ii":3185,"}=":3186,"Ġplayer":3187,"omb":3188,"ĠHealth":3189,"rec":3190,"ĠGod":3191,"ĠčĊ":3192,"Ġcalc":3193,"De":3194,"Qu":3195,"hel":3196,"Ġmer":3197,"Big":3198,"mon":3199,"aves":3200,"Ġsequ":3201,"Ġfront":3202,"ĠString":3203,"ĠInstit":3204,"Ġestim":3205,"Ġquant":3206,"Ġtaking":3207,"ĠDes":3208,"link":3209,"Ġrecogn":3210,"See":3211,"Ġcy":3212,"ĠMor":3213,"Ġrequest":3214,"ĠPat":3215,"ĠTra":3216,"ensive":3217,"ĠTrans":3218,"Ġroom":3219,"Ġuser":3220,"Ġface":3221,"Ġglobal":3222,"Ġfood":3223,"rad":3224,"Ġ!=":3225,"Ġlo":3226,"Ġwhole":3227,"path":3228,"Ġbenef":3229,"ĠSen":3230,"OS":3231,"useum":3232,"ĠEast":3233,"selves":3234,"Ġcomes":3235,"Ġreported":3236,"ica":3237,"chan":3238,"avy":3239,"Ġstandard":3240,"elt":3241,"ams":3242,"ounter":3243,")=":3244,"aging":3245,"ĠRed":3246,"que":3247,"Ġnecess":3248,"igned":3249,"Ġissues":3250,"Ġpage":3251,"iance":3252,"Ġdoing":3253,"rangle":3254,"Let":3255,"Ġmove":3256,"From":3257,"Ġdistribution":3258,"izing":3259,"Ġpers":3260,"ĠDavid":3261,"Ġtry":3262,"icult":3263,"ging":3264,"location":3265,"Ġamount":3266,"center":3267,"Ġareas":3268,"Ġmoment":3269,"Ġey":3270,"Ġfilms":3271,"comp":3272,"ĠGover":3273,"ĠAustralia":3274,"Ġchanges":3275,"ĠNe":3276,"2003":3277,"Ġestablished":3278,"aving":3279,"body":3280,"Ġinternational":3281,"Ġdocument":3282,"Ġsym":3283,"49":3284,"pd":3285,"ledge":3286,"Ġround":3287,"ĠChina":3288,"Ġrights":3289,"Ġago":3290,"ĠCalifornia":3291,"ores":3292,"born":3293,"Americ":3294,"itting":3295,"Ġindustry":3296,"Class":3297,"Ġroad":3298,"CC":3299,"ĠHol":3300,"atives":3301,"Ġstation":3302,"curity":3303,"Ġinitial":3304,"Ġattempt":3305,"proof":3306,"Ġaccept":3307,"Ġadded":3308,"Man":3309,"unic":3310,"Ġmap":3311,"geq":3312,"ĠFrom":3313,"Ġopport":3314,"ĠBlack":3315,"ancial":3316,"Ġsett":3317,"Ġconsist":3318,"rc":3319,"joy":3320,"Ġstre":3321,"Ġste":3322,"index":3323,"Ġbehind":3324,"Ġmind":3325,"ico":3326,"Ġsex":3327,"Ġspecific":3328,"Ġfun":3329,"View":3330,"ĠSim":3331,"bolds":3332,"().":3333,"II":3334,"Ġlooking":3335,"Ġmonth":3336,"ederal":3337,"atform":3338,"ibrary":3339,"nes":3340,"ĠFirst":3341,"Ġcourt":3342,"Ġorg":3343,"hing":3344,"aur":3345,"Error":3346,"Ġcompanies":3347,"Ġled":3348,"ĠRepublic":3349,"Ġvisit":3350,"Ġhistor":3351,"ening":3352,"lands":3353,"unt":3354,"Ġassociated":3355,"arning":3356,"state":3357,"gen":3358,"Key":3359,"Ġlanguage":3360,"ĠCourt":3361,"ĠJust":3362,"Ġshall":3363,"Ġcentury":3364,"Ġpresident":3365,"Ġmagn":3366,"boldsymbol":3367,"ĠIndian":3368,"varphi":3369,"Ġwords":3370,"Ġrecent":3371,"Ġson":3372,"|-":3373,"light":3374,"Ġcode":3375,"ĠStreet":3376,"itect":3377,"Ġsoft":3378,"ville":3379,"Ġdat":3380,"Ġbelieve":3381,"lor":3382,"nown":3383,"Ġinput":3384,"Ġeffort":3385,"ĠCons":3386,"ĠInter":3387,"nection":3388,"ems":3389,"Ġfather":3390,"Ġcapt":3391,"Ġneeds":3392,"\":":3393,"ĠFrench":3394,"Ġlikely":3395,"Ġimpact":3396,"Ġerr":3397,"Int":3398,"Ġwalk":3399,"Ġhon":3400,"Ġissue":3401,"Sp":3402,"Ġbad":3403,"Ġmatter":3404,"Ġbroad":3405,"95":3406,"Ġonline":3407,"ressed":3408,"Ġtable":3409,"47":3410,"ĠOff":3411,"oved":3412,"When":3413,"Ġcannot":3414,"ĠBook":3415,"pped":3416,"aches":3417,"Ġfight":3418,"ĠDepartment":3419,"oul":3420,"summary":3421,"ĠEuropean":3422,"Ġinflu":3423,"ship":3424,"Ġcontract":3425,"Test":3426,"oted":3427,"wood":3428,"Ġrelationship":3429,"acing":3430,"Ġfire":3431,"Ġge":3432,"Ġupon":3433,"perty":3434,"Ġcontext":3435,"Ġpopular":3436,"Ġrelated":3437,"airs":3438,"inn":3439,"igital":3440,"frak":3441,"Ġinj":3442,"Ġsuggest":3443,"Ġrelease":3444,"ĠGroup":3445,"Ġcampaign":3446,"());":3447,"ĠEngland":3448,"icon":3449,"Ġidea":3450,"Ġwhite":3451,".~\\":3452,"Ġhimself":3453,"andid":3454,"ults":3455,"Ġregard":3456,"Ġheart":3457,"Ġbehav":3458,"ĠAcc":3459,"Ġsche":3460,"rote":3461,"ellow":3462,"astic":3463,"Ġtechnology":3464,"oice":3465,"Ġpolicy":3466,"66":3467,"CH":3468,"url":3469,"ĠÐ":3470,"Ġsens":3471,"max":3472,"ĠĠĠĠĊ":3473,"rows":3474,"Ġregular":3475,"ĠPaul":3476,"Ġlost":3477,"ĠPal":3478,"ittee":3479,"Ġpack":3480,"ĠCO":3481,"like":3482,"Ġfrequ":3483,"den":3484,"2002":3485,"Ġimm":3486,"anced":3487,"\";":3488,"wise":3489,"overline":3490,"ĠDay":3491,"iday":3492,"ĠJames":3493,".}":3494,"Ġassum":3495,"public":3496,"ĠCouncil":3497,"using":3498,"iences":3499,"ully":3500,"Ġtakes":3501,"Ġinstead":3502,"Ġimplement":3503,"Ġsolution":3504,"Add":3505,"ĠLet":3506,"CT":3507,"ught":3508,"ĠEar":3509,"ĠTrump":3510,"Ġsatisf":3511,"Ġsold":3512,"ottom":3513,"bed":3514,"2021":3515,"ĠPort":3516,"Ġgetting":3517,"ashington":3518,"ply":3519,"No":3520,"pose":3521,"ĠCanada":3522,"atur":3523,"Ġspecies":3524,"Ġpolice":3525,"Ġmag":3526,"SE":3527,"Ġ...":3528,"Ġhor":3529,"from":3530,"Ġlimit":3531,"Ġarticle":3532,"ula":3533,"inated":3534,"Ġincludes":3535,"Ġborn":3536,"Ġespecially":3537,"ees":3538,"Ad":3539,"2001":3540,"oyal":3541,"ming":3542,"oring":3543,"Ġitself":3544,"nov":3545,"imens":3546,"[\\":3547,"ĠHam":3548,"Ġsem":3549,"IL":3550,"aching":3551,"Ġeducation":3552,"IP":3553,"pite":3554,"Ġliter":3555,"Ġshare":3556,"Ġvict":3557,"},\\":3558,"ander":3559,"Ġfem":3560,"Ġannounced":3561,"App":3562,"&\\":3563,"Ġtheory":3564,"ĠMod":3565,"ĠDirect":3566,"Ġwhose":3567,"group":3568,"Ġintegr":3569,"ya":3570,"uses":3571,"Ġcomplete":3572,"Ġleaders":3573,"Ġdifficult":3574,"lier":3575,"Ġwatch":3576,"ĉĉĉĉĉ":3577,"Ġdecl":3578,"Ġtemper":3579,"vey":3580,"AB":3581,"Ġprior":3582,"ĠGeneral":3583,"Ġsimple":3584,"Ġelement":3585,"raz":3586,")^":3587,"Ġsuccessful":3588,"Ġcontinue":3589,"cial":3590,"Ġstep":3591,"\"></":3592,"Ġsense":3593,"Ġsearch":3594,"inst":3595,"ocal":3596,"Ġoffice":3597,"Ġang":3598,"istry":3599,"Ġdate":3600,"Ġquick":3601,"Ġfriend":3602,"fect":3603,"ĠFil":3604,"istics":3605,"ĠSk":3606,"Ġworked":3607,"UN":3608,"lied":3609,"Ġnatural":3610,".</":3611,"Ġconstant":3612,"ĠAnt":3613,"mar":3614,"Ġhours":3615,"rong":3616,"ĠDistrict":3617,"Ġsus":3618,"ĠOf":3619,"oto":3620,"Ġwriting":3621,"Requ":3622,"Ġtask":3623,"arter":3624,")(":3625,"node":3626,"State":3627,"Ġenjoy":3628,"Ġbackground":3629,"TR":3630,"maz":3631,"Ġepis":3632,"American":3633,"Ġexact":3634,"ĠMal":3635,"atal":3636,"._":3637,"AG":3638,"Ġpie":3639,"Def":3640,"');":3641,"Ġevidence":3642,"Ġcondition":3643,"rael":3644,"Ġquite":3645,"500":3646,"46":3647,"come":3648,"acher":3649,"och":3650,"Ġassert":3651,"Ġseems":3652,"asons":3653,"Ġleading":3654,"Ġserved":3655,"Ġincrease":3656,"Ġtravel":3657,"Ġpositive":3658,"ĠBer":3659,"Ġoutside":3660,"Ġdied":3661,"Ġpick":3662,"ĠRober":3663,"Ġrisk":3664,"Ġdire":3665,"Ġcolor":3666,"Ġforward":3667,"Ġcomment":3668,"Su":3669,"ĠRich":3670,"agement":3671,"wid":3672,"Ġ?":3673,"gorithm":3674,"Ġwor":3675,"Ġdam":3676,"Ġliving":3677,"'m":3678,"}).":3679,"eff":3680,"elebr":3681,"mathfrak":3682,"Ġaward":3683,"Ġadditional":3684,"Ġmethods":3685,"Ġanything":3686,"Ġjud":3687,"Time":3688,"style":3689,"Ġmother":3690,"Ġfunctions":3691,"Ġprovides":3692,"Ġpatients":3693,"After":3694,"SP":3695,"Ġlines":3696,"Ġlength":3697,"mult":3698,"ĠIN":3699,"ĠThom":3700,"more":3701,"Pr":3702,"Ġtour":3703,"Ġcoming":3704,"FF":3705,"ĠResearch":3706,"ĠInt":3707,"fort":3708,"under":3709,"Ġansw":3710,"Ġcontact":3711,"ĠInstitute":3712,"Ġneeded":3713,"ago":3714,"Ġgraph":3715,"Ġlabel":3716,"Ġconcern":3717,"Over":3718,"Ġnothing":3719,"agon":3720,"Ġquality":3721,"Ġplaying":3722,"alls":3723,"uge":3724,"Ġmilitary":3725,"Ġnormal":3726,"Ġcountries":3727,"mission":3728,"78":3729,"ĠRiver":3730,"LO":3731,"Ġobtained":3732,"Ġsecurity":3733,"Ġasked":3734,"pack":3735,"Ġlat":3736,"ĠDef":3737,"Ġprobably":3738,"ĠGerman":3739,"ida":3740,"Ġwrote":3741,"Ġgirl":3742,"Ġmultiple":3743,"Ġsomeone":3744,"but":3745,"Ġcontinu":3746,"Ġsaw":3747,"Ġboard":3748,"Ġstage":3749,"['":3750,"Ġ($":3751,"Ġparameters":3752,"Ġrock":3753,"nav":3754,"So":3755,"rian":3756,"Ġbooks":3757,"olic":3758,"berg":3759,"Ġreve":3760,"ospital":3761,"Ġdecision":3762,"Ġaffect":3763,"Lambda":3764,"hline":3765,"ĠChurch":3766,"Ġthus":3767,"Ġdeveloped":3768,"Ġmid":3769,"Ġlearning":3770,"ĠList":3771,"Ġinvolved":3772,"ader":3773,"ĠMart":3774,"oken":3775,"anger":3776,"ota":3777,"Ġcred":3778,"ĠGreen":3779,"Ġproblems":3780,"42":3781,"Ġproduced":3782,"ĠWork":3783,"Ġdeep":3784,"Ġconduct":3785,"board":3786,"ĠJack":3787,"zz":3788,"}}$":3789,"Ġmention":3790,"sf":3791,"Ġapproxim":3792,"Ġmanagement":3793,"Ġstri":3794,"Ġstaff":3795,"One":3796,"ube":3797,"otes":3798,"ĠVol":3799,"ĠDan":3800,"century":3801,"Ġmeet":3802,"oom":3803,"Ġcommunic":3804,"Ġhot":3805,"Ġproducts":3806,"Ġess":3807,"ĠMusic":3808,"iers":3809,"ĠWashington":3810,"Ġinstance":3811,"Fr":3812,"cret":3813,"js":3814,"ĠPress":3815,"Ġdemon":3816,"IR":3817,"ĠTechn":3818,"ĠFig":3819,"ĠDi":3820,"Ġnorth":3821,"Ġneigh":3822,"Ġelements":3823,"(),":3824,"Ġwanted":3825,"ny":3826,"ares":3827,"Ġrunning":3828,"rought":3829,"Ġthemselves":3830,"ĠParty":3831,"alled":3832,"bt":3833,"ĠBel":3834,"Ġcurrently":3835,"Ġtrying":3836,"ĠEv":3837,"anel":3838,"Ġoccur":3839,"88":3840,"cing":3841,"Ġmodern":3842,"Ġsurface":3843,"scal":3844,"Form":3845,"lo":3846,"ldots":3847,"Ġmoved":3848,"ĠHall":3849,"'ve":3850,"Ġeffects":3851,"ĠGet":3852,"Ġcenter":3853,"ĠOur":3854,"Ġtool":3855,"Ġdisplay":3856,"Ã³":3857,"arily":3858,"change":3859,"umbers":3860,"!!":3861,"Ps":3862,"ensuremath":3863,"langle":3864,"ĠDiv":3865,"Ġpret":3866,"het":3867,"Ġeval":3868,"Ġcontribut":3869,"Ġhit":3870,"vec":3871,"Phi":3872,"Ġassist":3873,"Ġproposed":3874,"':":3875,"ategory":3876,"pace":3877,"Ġword":3878,"band":3879,"enced":3880,"AA":3881,"ĠRet":3882,"arr":3883,"ped":3884,"Ġwrite":3885,"la":3886,"draw":3887,"aily":3888,"ĠCong":3889,"Ġdetails":3890,"Ġwoman":3891,"ĠSing":3892,"Ġindex":3893,"Ġdegree":3894,"osition":3895,"Ġund":3896,"rav":3897,"ĠWhile":3898,"Ġsoon":3899,"Ġ/>":3900,"Ġhttps":3901,"Ġsil":3902,"ĠOut":3903,"Ġcandid":3904,"orph":3905,"Ass":3906,"Ġrev":3907,"Ġforce":3908,"Ġstudies":3909,"ĠArch":3910,"ework":3911,"Ġmessage":3912,"Ab":3913,"Ġmulti":3914,"Ġnode":3915,"ĠGeorge":3916,"itar":3917,"circ":3918,"olar":3919,"Ġrespectively":3920,"Ġveh":3921,"ĠCup":3922,"Ð°":3923,"Ġten":3924,"ns":3925,"Ġunique":3926,"fficient":3927,"File":3928,"``":3929,"Ġthroughout":3930,"ouch":3931,"quare":3932,"appa":3933,"Ġemer":3934,"77":3935,"85":3936,"ĠNow":3937,"Ġmovie":3938,"Ġnames":3939,"IV":3940,"Ġeverything":3941,"']":3942,"estival":3943,"Ð¾":3944,"Ġdirector":3945,"Ġflow":3946,"ĠAssociation":3947,"Ġsimply":3948,"Fil":3949,"ĠYear":3950,"Ġpredict":3951,"Ġcharacters":3952,"ĠSuper":3953,"Ġsuff":3954,"Ġnumer":3955,"Ġgives":3956,"ĠSome":3957,"Ġaccom":3958,"ENT":3959,"Ġlonger":3960,"Ġ);":3961,"Ġbirths":3962,"net":3963,"Ġrandom":3964,"Ġconstruct":3965,"Ġcle":3966,"ado":3967,"MA":3968,"Ġstay":3969,"ĠClass":3970,"ario":3971,"Ġtelevision":3972,"ÃŃ":3973,"Ġdraw":3974,"ĠMichael":3975,"ĠWhite":3976,"Pe":3977,"Ġgre":3978,"length":3979,"1999":3980,"Ġgave":3981,"ĠScience":3982,"Ġmechan":3983,"Ġunit":3984,"rie":3985,"Ġbox":3986,"Equ":3987,"room":3988,"Ġoptions":3989,"ĠPublic":3990,"Dis":3991,"Event":3992,"roy":3993,"Ġpain":3994,"Ġproperties":3995,"Ġsouth":3996,"do":3997,"Ġrace":3998,"istan":3999,"map":4000,"MS":4001,"Ġnovel":4002,"!--":4003,"Ġelection":4004,"Ġrecently":4005,"ĠFrance":4006,"Ġindependent":4007,"Ġtreatment":4008,"Ġgrowth":4009,"ailed":4010,"fin":4011,"ĠAN":4012,"citep":4013,"pri":4014,"which":4015,"Ġdynam":4016,"Ġprinc":4017,"verse":4018,"ĠSam":4019,"Ġalign":4020,"ĠFound":4021,"ston":4022,"foot":4023,"Ġgoal":4024,"Ġreading":4025,"ĠDemocr":4026,"erve":4027,"Ġdepend":4028,"abla":4029,"orthern":4030,"ĠAfrica":4031,"ĠAward":4032,"ufact":4033,"Info":4034,"Be":4035,"amily":4036,"ĠQue":4037,"ĠSince":4038,"Ġisn":4039,"Of":4040,"Ġdesigned":4041,"ĠReview":4042,"idents":4043,"obile":4044,"lt":4045,"Ġrelig":4046,"apter":4047,"abled":4048,"dt":4049,"Ġq":4050,"ĠAdd":4051,"Ġ:=":4052,"encies":4053,"icture":4054,"Ġdepart":4055,"Ġfriends":4056,"ios":4057,"ĠRoad":4058,"textit":4059,"uate":4060,"MP":4061,"illed":4062,"That":4063,"Rec":4064,"Ġlegal":4065,"Ġminutes":4066,"Ġphase":4067,"eline":4068,"Ġadminist":4069,"ech":4070,"ĠInc":4071,"Ġlevels":4072,"})$":4073,"aled":4074,"Ġrat":4075,"ĠAngel":4076,"Ġimmedi":4077,"aughter":4078,"actions":4079,"Ġapplication":4080,"ĠMag":4081,"ously":4082,"/*":4083,"43":4084,"OD":4085,"Ġtowards":4086,"acc":4087,"Ġcam":4088,"vant":4089,"nabla":4090,"Ġcollection":4091,"ĠChampionship":4092,"ĠSub":4093,"Ġscreen":4094,"Ġdise":4095,"ĠTex":4096,"\\|":4097,"Ġcentral":4098,"ordin":4099,"ĠFranc":4100,"men":4101,"ilies":4102,"Ġcharg":4103,"known":4104,"ĠUs":4105,"ĠMary":4106,"inese":4107,"ĠIsrael":4108,"ĠMat":4109,"adian":4110,"Text":4111,"Ġconstruction":4112,"izes":4113,"../../../../":4114,"Ġball":4115,"Ġparts":4116,"urt":4117,"exp":4118,"Ġcompared":4119,"outhern":4120,"subset":4121,"Ġmatrix":4122,"Ġagre":4123,"Ġwond":4124,"isions":4125,"Ġthreat":4126,"rief":4127,"aling":4128,"Ġoutput":4129,"98":4130,"ĠLeg":4131,"Ġdensity":4132,"Trans":4133,"Ġbeaut":4134,"cell":4135,"Ġdirectly":4136,"Ġlives":4137,"rial":4138,"ĠPost":4139,"Ġpark":4140,"mitted":4141,"ulate":4142,"Ġinterview":4143,"Ġexecut":4144,"Ġsurv":4145,"Ġautom":4146,"ken":4147,"Ġeveryone":4148,"56":4149,"Ġconfig":4150,"raction":4151,"Ġteams":4152,"Ġacqu":4153,"version":4154,"Ġdetect":4155,"bra":4156,"Ġknowledge":4157,"41":4158,"mbox":4159,"true":4160,"bre":4161,"Ġarray":4162,"Ġgas":4163,"otimes":4164,"Ġtransfer":4165,"ĠBen":4166,"ternet":4167,"Ġplatform":4168,"Ġculture":4169,"Field":4170,"ĠJew":4171,"Ġimages":4172,"Ġvalid":4173,"Ed":4174,"ona":4175,"Ġprofessional":4176,"user":4177,"Ġfinancial":4178,"irit":4179,"ros":4180,"Ġeffic":4181,"Ġprint":4182,"Ġscient":4183,"Request":4184,"1990":4185,"Ġdefault":4186,"ria":4187,"Ġlarger":4188,"Ġscale":4189,"ducation":4190,"}),":4191,"vest":4192,"api":4193,"Ġparameter":4194,"ental":4195,"ĠBay":4196,"ĠSection":4197,"ĠSum":4198,"fess":4199,"erc":4200,"atively":4201,"Ġconv":4202,"uster":4203,"Ðµ":4204,"Ġpresented":4205,".\\":4206,"Ġanim":4207,"Ġalthough":4208,"ride":4209,"58":4210,"widet":4211,"Ġpractice":4212,"van":4213,"57":4214,"ĠLou":4215,"itude":4216,"ĠBest":4217,"block":4218,"Node":4219,"witter":4220,"hand":4221,"Ġways":4222,"lymp":4223,"rd":4224,"Ġdark":4225,"Ġdead":4226,"Ġquestions":4227,"Path":4228,"Ġqual":4229,"Ġlocation":4230,"ĠBuild":4231,"Ġnote":4232,"96":4233,"Post":4234,"EL":4235,"Ġlack":4236,"Ġcelebr":4237,"\\%":4238,"Ġweight":4239,"ka":4240,"ĠMet":4241,"Ġcontains":4242,"ĠCompany":4243,"ĠAnn":4244,"Ġsaying":4245,"Ġuses":4246,"ĠTom":4247,"Ġusually":4248,"ĠDec":4249,"ĠCr":4250,"ĠHere":4251,"Ġeasy":4252,"Ġschools":4253,"Ġwife":4254,"Ġdifference":4255,"oute":4256,"acity":4257,"ki":4258,"Ġproof":4259,"cos":4260,"ned":4261,"word":4262,"ĠAre":4263,"Ġinside":4264,"Ġscience":4265,"Ġbasis":4266,"Ġvillage":4267,"kappa":4268,"isher":4269,"Ġperformed":4270,"print":4271,"Ġcorresponding":4272,"Ã¼":4273,"\\!":4274,"Ġhum":4275,"Ġprec":4276,"ĠSociety":4277,"vention":4278,"97":4279,"Ġspeed":4280,"Ġallowed":4281,"escription":4282,"iation":4283,"Ġeffective":4284,"Ġstatus":4285,"Ġcompl":4286,"olean":4287,"Ġadj":4288,"=\"+":4289,"ini":4290,"widetilde":4291,"ĠSl":4292,"Ġtypes":4293,"Ġmaintain":4294,"Ġhous":4295,"Ġinteresting":4296,"bb":4297,"Ġhope":4298,"ĠMac":4299,"Ġcause":4300,"Ġbrother":4301,"irtual":4302,"Ġcompar":4303,"Ġ``":4304,"Ġinstit":4305,"ĠRob":4306,"Inter":4307,"ĠYour":4308,"Ġreturned":4309,"Ġdistance":4310,"Ġrecomm":4311,"Ġmach":4312,"antic":4313,"1998":4314,"ĠAlex":4315,"haps":4316,"urity":4317,"Ġactive":4318,"OP":4319,"rum":4320,"Ġcast":4321,"Ġexperiment":4322,"ĠGermany":4323,"Ġincreasing":4324,"Ġnature":4325,"olf":4326,"Ġphysical":4327,"ustr":4328,"igation":4329,"pecial":4330,"md":4331,"itch":4332,"~~":4333,"Index":4334,"Ġleave":4335,"Ġdistrict":4336,"ĠGreat":4337,"Ġchalleng":4338,"Ġarchitect":4339,"ĠPre":4340,"TE":4341,"Ġnumbers":4342,"ĠDel":4343,"Ġfollowed":4344,"Ġbrought":4345,"ategy":4346,"Ġhop":4347,"Ġlargest":4348,"Ġmus":4349,"cor":4350,"ptions":4351,"Ġetc":4352,"OM":4353,"Ġdrug":4354,"resh":4355,"Ġconcept":4356,"Ġaccur":4357,"iding":4358,"thm":4359,"ayout":4360,"Ġmeeting":4361,"hest":4362,"Ġlinear":4363,"ĠTHE":4364,"Ġnecessary":4365,"ĠService":4366,"Ġter":4367,"ano":4368,"bon":4369,"Ġusers":4370,"ĠUnion":4371,"Ġrank":4372,"OL":4373,"ĠVir":4374,"bo":4375,"win":4376,"NA":4377,"ĠSur":4378,"Ġestablish":4379,"Service":4380,"ĠIsland":4381,"ĠMiss":4382,"())":4383,"struct":4384,"yr":4385,"Ġcorrect":4386,"writ":4387,"ĠBre":4388,"sin":4389,"Ġmis":4390,"Ġscen":4391,"ĠMex":4392,"Reg":4393,"osing":4394,"ĠFin":4395,"Ġanaly":4396,"ĠMus":4397,"Ser":4398,"Build":4399,"well":4400,"ĠProgram":4401,"Att":4402,"efore":4403,"ĠSal":4404,"/**":4405,"Ġsy":4406,"EE":4407,"'ll":4408,"Ġcollect":4409,"SC":4410,"Ġboy":4411,"\\[":4412,"itiz":4413,"67":4414,"Ġdevice":4415,"Ġstories":4416,"Ġtherefore":4417,"ady":4418,"mercial":4419,"bert":4420,"{-":4421,"Ġcapital":4422,"Ġfavor":4423,"ui":4424,"ĠÃ":4425,"Ġcontinued":4426,"liament":4427,"ĠPeople":4428,"Ġmale":4429,"Ġearlier":4430,"ĠTexas":4431,"ĠGold":4432,"ils":4433,"ipal":4434,"ĠHistory":4435,"xy":4436,"68":4437,"cap":4438,"Out":4439,"reek":4440,"Ġobserved":4441,"izations":4442,"Ġclosed":4443,"ML":4444,"ifying":4445,"sych":4446,"raint":4447,"Ġaim":4448,"Ġfactor":4449,"plate":4450,"ersion":4451,"FA":4452,"nor":4453,"Ġpurch":4454,"Sub":4455,"isation":4456,"hi":4457,"level":4458,"Ġmedical":4459,"Ġperfect":4460,"Context":4461,"orage":4462,"Ġcivil":4463,"Ġinsp":4464,"Ġgoes":4465,"Ġdistribut":4466,"Ġsongs":4467,"Ġunc":4468,"Config":4469,"Ġdemonstr":4470,"Ġdeliver":4471,"void":4472,"Ġweeks":4473,"ĠOther":4474,"Ġaltern":4475,"Ġeconomic":4476,"She":4477,"Ġhy":4478,"Ġseek":4479,"Ġ/*":4480,"ena":4481,"agram":4482,"ĠNor":4483,"Ġeight":4484,"ocol":4485,"Sigma":4486,"itation":4487,"Ġappoint":4488,"Ġcopy":4489,"Ġdirection":4490,"title":4491,"Ġdouble":4492,"edy":4493,"Ġcolumn":4494,"Ġstreng":4495,"tes":4496,"Ġstru":4497,"ĠRad":4498,"Ġstream":4499,"My":4500,"itz":4501,"Ġsn":4502,"CE":4503,"ĠCommission":4504,"Ġradio":4505,"Ġfast":4506,"igen":4507,"Ġwrong":4508,"Ġattention":4509,"?âĢĿ":4510,"Ġâ":4511,"Ġhol":4512,"Ġfields":4513,"++":4514,"ancy":4515,"velopment":4516,"Ġchoice":4517,"miss":4518,"cel":4519,"Ġlimited":4520,"overs":4521,"Ġstudent":4522,"ĠSmith":4523,"ĠSeries":4524,"ĠChristian":4525,"ĠRobert":4526,"Ġavoid":4527,"Ġprimary":4528,"ĠAcadem":4529,"ĠZe":4530,"Ð¸":4531,"Ġsort":4532,"config":4533,"Ġcontain":4534,"witch":4535,"Ġtrade":4536,"Ġstra":4537,"Ġserious":4538,"Ġunivers":4539,"ĠRock":4540,"Ġanyone":4541,"ĠScott":4542,"ani":4543,"Ġallows":4544,"Ġbank":4545,"ĠClub":4546,"ala":4547,"clusion":4548,"Ġexhib":4549,"Inst":4550,"}}{":4551,"****************":4552,"ocation":4553,"ronic":4554,"Ġsurpr":4555,"Ġstatement":4556,"Ġgets":4557,"iring":4558,"mas":4559,"Ġfair":4560,"Ġload":4561,"59":4562,"enge":4563,"Ġtransform":4564,"ervices":4565,"force":4566,"ecause":4567,"Ġpretty":4568,"Ġplaces":4569,"ooth":4570,"ading":4571,"Ġdiscover":4572,"Ġequation":4573,"Ġsets":4574,"nonumber":4575,"ync":4576,"oz":4577,"dots":4578,"ĠArmy":4579,"ĠMuseum":4580,"init":4581,"Ġtransport":4582,"ĠFore":4583,"Ġanti":4584,"FL":4585,"Ġcells":4586,"pat":4587,"content":4588,"ĠBill":4589,"akers":4590,"Ġgun":4591,"Ġ()":4592,"Ġoption":4593,"azine":4594,"Ġimpl":4595,"active":4596,"Ġsomet":4597,"Ġedge":4598,"ĠĠĠĠĠĠĠĠĠĠĠĠĠĠĠĠĠĠĠĠĠĠĠĠĠĠĠ":4599,"ĠAP":4600,"eria":4601,"1997":4602,"####":4603,"âĢĿ.":4604,"ĠGovernment":4605,"ĠChinese":4606,"Ġrules":4607,"Ġopened":4608,"ellig":4609,"Map":4610,"Ġsen":4611,"Ġdecided":4612,"place":4613,"Ġchurch":4614,"icense":4615,"ĠMount":4616,"Ġwasn":4617,"Ġintroduced":4618,"Ġpattern":4619,"ĠOb":4620,"Rep":4621,"iant":4622,"ĠMad":4623,"ĠSund":4624,"Ġjournal":4625,"Ġincreased":4626,"Ġfit":4627,"System":4628,"Ġworth":4629,"Ġmeaning":4630,"embly":4631,"Ġemail":4632,"edia":4633,"ĠRoyal":4634,"Ġexists":4635,"51":4636,"Ġremains":4637,"Ġmount":4638,"erved":4639,"Ġchanged":4640,"1996":4641,"centering":4642,"Ġplant":4643,"ste":4644,"ĠRel":4645,"ĠUp":4646,"uit":4647,"anish":4648,"Ġfinally":4649,"ĠOF":4650,"ĠCamp":4651,"ĠHill":4652,"oma":4653,"ulture":4654,"ĠCentral":4655,"Ġactivities":4656,"/\\":4657,"52":4658,"porary":4659,"Ġvs":4660,"ĠBig":4661,"Ġability":4662,"ping":4663,"Acc":4664,"ibly":4665,"Ġparents":4666,"Ġfamilies":4667,"Ġsoftware":4668,"Ġkilled":4669,"ĠBusiness":4670,"Ġdram":4671,"apache":4672,"ĠAustralian":4673,"Ġbecomes":4674,"Ġseven":4675,"Ġprop":4676,"ĠWil":4677,"ĠTest":4678,"ĠMinister":4679,"Ġstarting":4680,"Ġremain":4681,"quot":4682,"ĠJournal":4683,"ĠKh":4684,"ĠUSA":4685,"Ġoperations":4686,"reme":4687,"input":4688,"ĠInst":4689,"fil":4690,"ĠOver":4691,"dot":4692,"Ġtemperature":4693,"Ġborder":4694,"lam":4695,"Ġbur":4696,"ĠLem":4697,"Ge":4698,"Ġdefine":4699,"Ġsetting":4700,"Ġir":4701,"Ġfram":4702,"Ġblood":4703,"Ġpair":4704,"alian":4705,"Ġturned":4706,"ĠRoman":4707,"nel":4708,"ctors":4709,"ĠThomas":4710,"ĠCongress":4711,"ĠIr":4712,"Ġjoined":4713,"ky":4714,"Ġoperation":4715,"Ġmanufact":4716,"Ġdebut":4717,"ĠBoard":4718,"tot":4719,"Pol":4720,"Ġparticularly":4721,"rey":4722,"Ġrob":4723,"Ġcompleted":4724,"roller":4725,"Ġmur":4726,"ĠStar":4727,"Ġshot":4728,"ponent":4729,"Ġsituation":4730,"Ġexcept":4731,"[]":4732,"Ġbeginning":4733,"Ġcritical":4734,"ĠKe":4735,"Ġ(!":4736,"Ġprogress":4737,"rupt":4738,"ĠAfrican":4739,"Table":4740,"\"\"":4741,"ĠTur":4742,"////////":4743,"Ġlatest":4744,"Ġfa":4745,"object":4746,"Ġconstit":4747,"Ġselected":4748,"edic":4749,"Ġprice":4750,"Element":4751,"Ġvector":4752,"Ġcouple":4753,"Ġwide":4754,"usion":4755,"54":4756,"ĠTown":4757,"1980":4758,"assert":4759,"igr":4760,"venue":4761,"Ġzero":4762,"oat":4763,"pdf":4764,"ĠCarol":4765,"Ġsources":4766,"ĠÂ£":4767,"ĠFrancis":4768,"uated":4769,"ĠLife":4770,"ãģ":4771,"build":4772,"Ġrule":4773,"pret":4774,"Ġresources":4775,"erry":4776,"Ġbirth":4777,"Code":4778,"pty":4779,"Ġequival":4780,"Ġtim":4781,"Ġactivity":4782,"CL":4783,"pol":4784,"Ġcommand":4785,"page":4786,"otion":4787,"Ġfixed":4788,"ĠFace":4789,"PS":4790,"inct":4791,"ãĥ":4792,"Ġones":4793,"Ġfeed":4794,"Ġoffers":4795,"Ġsample":4796,"Ġprograms":4797,"Ġwidth":4798,"53":4799,"Ġord":4800,"udd":4801,"ĠJul":4802,"ĠPM":4803,"';":4804,"anda":4805,"abs":4806,"define":4807,"\\]":4808,"ĠAtt":4809,"ĠCommittee":4810,"Ġpm":4811,"names":4812,"Ġult":4813,"Ġnearly":4814,"iform":4815,"iny":4816,"ĠEr":4817,"Array":4818,"ĠAirport":4819,"info":4820,"Ġexpand":4821,"bour":4822,"aud":4823,"Ġprem":4824,"ĠSun":4825,"dr":4826,"za":4827,"Ġcard":4828,"ĠFlor":4829,"gu":4830,"Ġnation":4831,"small":4832,"Ġaw":4833,"Ġalgorithm":4834,"ĠHen":4835,"Ġbal":4836,"Ġpartners":4837,"Ġupd":4838,"Ġremember":4839,"Ġsolutions":4840,"Mar":4841,"Ġstars":4842,"ĉĊ":4843,"Ġopportunity":4844,"........":4845,"People":4846,"Ġthrow":4847,"Ġbey":4848,"Log":4849,"Ġfelt":4850,"vement":4851,"ĠDirector":4852,"ĠLand":4853,"ĠUnder":4854,"Ġsequence":4855,"More":4856,"fully":4857,"Ġprojects":4858,"icol":4859,"check":4860,"Ġequal":4861,"ĠTime":4862,"itable":4863,"Ġ},":4864,"pling":4865,"Ġassess":4866,"300":4867,"ictor":4868,"Ġbeyond":4869,"Ġforces":4870,"Ġslow":4871,"idden":4872,"Ġcontr":4873,"ĠFrank":4874,"enty":4875,"Ġnuc":4876,"ĠGoogle":4877,"UL":4878,"Ã¶":4879,"Ġensure":4880,"Ġpreviously":4881,"}-":4882,"Ġdro":4883,"ĠOpen":4884,"ether":4885,"ĠEducation":4886,"ĠWestern":4887,"Ġ__":4888,"atre":4889,"1995":4890,"ĠPeter":4891,"ita":4892,"Ġselect":4893,"Bar":4894,"ĠOlymp":4895,"Ġspent":4896,"reedom":4897,"Ġ});":4898,"Ġ-->":4899,"TH":4900,"tabular":4901,"Ġmovement":4902,"Ġepisode":4903,"ĠOffice":4904,"Ġreference":4905,"Ġhighly":4906,"ĠTor":4907,"ounds":4908,"Ġmarried":4909,"IA":4910,"Ġsigned":4911,"abase":4912,"pected":4913,"run":4914,"Ġplans":4915,"ĠCath":4916,"ĠDivision":4917,"alax":4918,"PE":4919,"Ġnom":4920,"Ġexam":4921,"ua":4922,"ĠBi":4923,"Ġbuy":4924,"First":4925,"stream":4926,"Ġfully":4927,"ĠRem":4928,"Ġpull":4929,"TS":4930,"Ġmiddle":4931,"Ġsports":4932,"Ġbehavior":4933,"gest":4934,"Ġleader":4935,"Ġsometimes":4936,"188":4937,"alle":4938,"ĠGrand":4939,"lang":4940,"ĠLat":4941,"ean":4942,"ĠBank":4943,"EO":4944,"Ġheard":4945,"Ġappeared":4946,"Ġshoot":4947,"Ġer":4948,"Ġconnection":4949,"rier":4950,"Ġorganization":4951,"ĠRussian":4952,"Ġcompletely":4953,"ĠSee":4954,"ĠSy":4955,"Ġprevent":4956,"Hand":4957,"Ġextra":4958,"Ġsec":4959,"ĠIS":4960,"ivacy":4961,"BA":4962,"Ġhands":4963,"Ġapply":4964,"iful":4965,"Ġcook":4966,"RA":4967,"ĠGood":4968,"Ġmemory":4969,"burg":4970,"Ġreceive":4971,"Ġsecret":4972,"entially":4973,"ildren":4974,"Ġsummer":4975,"imensional":4976,"Ġhar":4977,"Ġoperator":4978,"house":4979,"ĠMel":4980,"coming":4981,";\\":4982,"Ġpoor":4983,"Part":4984,"Count":4985,"Ġgold":4986,"Ġoverall":4987,"Ġcharge":4988,"osen":4989,"that":4990,"gt":4991,"Ġscene":4992,"Ġdaughter":4993,"onic":4994,"icago":4995,"Ġple":4996,"Our":4997,"Ġgrand":4998,"anned":4999,"Ġsociety":5000,"undred":5001,"count":5002,"76":5003,"ifier":5004,"ura":5005,"Pre":5006,"Ġvoice":5007,"Ġreach":5008,"Ġflu":5009,"Ġgiving":5010,"ĠCD":5011,"long":5012,"Size":5013,"0000":5014,"Ġpen":5015,"iller":5016,"Ġtrain":5017,"Ġproced":5018,"Ġexpression":5019,"Us":5020,"Ġtraditional":5021,"ĠMost":5022,"Fl":5023,"ĠFe":5024,"host":5025,"Ġprep":5026,"Ġrecorded":5027,"CD":5028,"Ġholds":5029,"gs":5030,"Ġimag":5031,"ĠFoundation":5032,"BS":5033,"Ġfans":5034,"ĠRichard":5035,"Ġwa":5036,"model":5037,"Ġrepe":5038,"otic":5039,"1994":5040,"Ġmicro":5041,"Item":5042,"term":5043,"Ġdigital":5044,"Ġexpress":5045,"illing":5046,"anta":5047,"Ġcomputer":5048,"Ġrail":5049,"Ġdefe":5050,"ĠHel":5051,"ĠData":5052,"ĠMont":5053,"ayers":5054,"lient":5055,"Ġpolitic":5056,"Ġanc":5057,"ĠAM":5058,"Ġsupported":5059,"rics":5060,"Ġfigure":5061,"ĠCap":5062,"det":5063,"ĠDuring":5064,"Ġadapt":5065,"ĠVirgin":5066,"road":5067,"osh":5068,"Ġimprove":5069,"uffer":5070,"Ġdisease":5071,"base":5072,"ĠTop":5073,"Ġcomponent":5074,"ĠRussia":5075,"Ġquickly":5076,"Ġweb":5077,"ĠJose":5078,"Ġappears":5079,"ansion":5080,"ĠTimes":5081,"Ġchem":5082,"iments":5083,"Ġdim":5084,"Ġà¤":5085,"ĠTheorem":5086,"TD":5087,"Ġpassed":5088,"Gr":5089,"Ġpresence":5090,"{(":5091,"Ġjava":5092,"aks":5093,"lections":5094,"aland":5095,"Ġcollabor":5096,"Ġpressure":5097,"Ġassume":5098,"mes":5099,"prime":5100,"ĠSet":5101,"à¥":5102,"ding":5103,"Ġartist":5104,"Ġcop":5105,"CA":5106,"Ġapplied":5107,"ĠSecret":5108,"reland":5109,"ĠKore":5110,"result":5111,"Ġartists":5112,"stant":5113,")]":5114,"Comm":5115,"Param":5116,"Ġblog":5117,"ba":5118,"ĠâĢ¢":5119,"zer":5120,"Ġdeaths":5121,"Ġbus":5122,"Ġsafety":5123,"Ġteacher":5124,"ĠWind":5125,"ĠCanadian":5126,"asket":5127,"ilton":5128,"Ġwriter":5129,"star":5130,"Ġappropri":5131,"Ġrespond":5132,"aturday":5133,"Che":5134,"ĠĠĠĠĠĠĠĠĠĠ":5135,")=\\":5136,"History":5137,"Ġknew":5138,"Ġfemale":5139,"Comp":5140,"Ġchannel":5141,"Ġfarm":5142,"Ġhear":5143,"Ġdemand":5144,"Ġadopt":5145,"iminal":5146,"Ġvote":5147,"orial":5148,"}\\,":5149,"Ġeasily":5150,"ĠWomen":5151,"Ġsmaller":5152,"Message":5153,"ĠMer":5154,"ervation":5155,"rices":5156,"Ġsolid":5157,"Ġregister":5158,"69":5159,"}+":5160,"Ġmaximum":5161,"Ġcarry":5162,"gment":5163,"soft":5164,"Ent":5165,"Ġmoving":5166,"Ġgenerally":5167,"Ġrestrict":5168,"Ġign":5169,"Ġgreater":5170,"ĠJapanese":5171,"ĠĠĠĠĠĠĠĠĠĠĠĠ":5172,"Ġvariety":5173,"hspace":5174,"Ġinternal":5175,"Ġexactly":5176,"NS":5177,"Ġpurpose":5178,"ester":5179,"Ġgrant":5180,"Ġrot":5181,"1970":5182,"ĠSocial":5183,"Ġstore":5184,"Ġexisting":5185,"ĠFigure":5186,"ĠServices":5187,"Ġworkers":5188,"Ġdefinition":5189,"Ġoptim":5190,"DA":5191,"parent":5192,"web":5193,"Ġdu":5194,"create":5195,"Ġspin":5196,"Now":5197,"ĠAp":5198,"ĠBrown":5199,"ĠTwo":5200,"2022":5201,"\\{":5202,"owers":5203,"Ġgreen":5204,"EM":5205,"anged":5206,"ĠMass":5207,"lick":5208,"Ġformed":5209,"scale":5210,"Ġscore":5211,"ÑĤ":5212,"start":5213,"Ġeyes":5214,"ĠLouis":5215,"ias":5216,"ĠThus":5217,"ĠSunday":5218,"Ġreports":5219,"Ġinform":5220,"1992":5221,"ĠRev":5222,"Can":5223,"Model":5224,"Ġcounter":5225,"Ġchance":5226,"asy":5227,"Ġtree":5228,"Ġcoach":5229,"}=\\":5230,"Ġconsum":5231,"}]":5232,"Ġlooks":5233,"Ġprove":5234,"Ġbillion":5235,"Ġforms":5236,"Ġens":5237,"can":5238,"Ġship":5239,"oday":5240,"||":5241,"ĠBur":5242,"Don":5243,"Ġcollege":5244,"Ġindividuals":5245,"Up":5246,"Ġshowed":5247,"ĠLos":5248,"Ġdetermined":5249,"ĠFriday":5250,"ella":5251,"ASS":5252,"Ġruns":5253,"Ġunits":5254,"urrent":5255,"urance":5256,"IF":5257,"ingu":5258,"reate":5259,"Ret":5260,"pass":5261,"igan":5262,"Ġhighest":5263,"72":5264,"duction":5265,"Ġwild":5266,"eful":5267,"case":5268,"Ġmode":5269,"='":5270,"prop":5271,"java":5272,"ĠMedia":5273,"ĠProject":5274,"Ġopening":5275,"61":5276,"Ġesc":5277,"inner":5278,"inition":5279,"ĠGames":5280,"ĠJo":5281,"tocol":5282,"Ġfinite":5283,"isl":5284,"End":5285,"eck":5286,"63":5287,"ĠAcademy":5288,"include":5289,"ULL":5290,"ĠFlorida":5291,"omorph":5292,"Ġthous":5293,"Ġalleg":5294,"Ġlaunc":5295,"Ġsurround":5296,"ĠWed":5297,"1993":5298,"ĠDet":5299,"Ġforeign":5300,"fe":5301,"Ġconnected":5302,"Ġwonder":5303,"ensus":5304,"ĠIran":5305,"Ġcomments":5306,"Since":5307,"default":5308,"gn":5309,"ĠOffic":5310,"tex":5311,"Ġtit":5312,"Ġencour":5313,"zeta":5314,"uthors":5315,"Ð½":5316,"Ġblue":5317,"Ġagreement":5318,"Ġtrust":5319,"ĠOper":5320,"Ġproviding":5321,"ette":5322,"ĠDevelopment":5323,"pid":5324,"Ġanswer":5325,"ĠProv":5326,"Ġfederal":5327,"Dr":5328,"ĠFilm":5329,"Ġquarter":5330,"Ġstraight":5331,")^{":5332,"ĠStr":5333,"Ġoil":5334,"Ġsymmet":5335,"oting":5336,"Ġabsol":5337,"ĠProfess":5338,"apping":5339,"Ġfirm":5340,"ĠEq":5341,"Ġdecre":5342,"Ġpiece":5343,"ĠEnd":5344,"ĠCharles":5345,"Ġroll":5346,"PC":5347,"ĠKingdom":5348,"icit":5349,"ialog":5350,"udget":5351,"Ġapplications":5352,"Ġcomponents":5353,"}^\\":5354,"Ġgenerated":5355,"Ġcancer":5356,"Ġ&=":5357,"Ġreached":5358,"ĠFacebook":5359,"Ġplease":5360,"Ġtouch":5361,"grad":5362,"ĠSol":5363,"Do":5364,"Ġmarg":5365,"ologies":5366,"ih":5367,"inem":5368,"Ġrow":5369,"93":5370,"ĠMo":5371,"Ġcru":5372,"ien":5373,"pping":5374,"Ġsrc":5375,"62":5376,"Ġcommercial":5377,"Ġelectric":5378,"orter":5379,"ulf":5380,"Ġclean":5381,"ĠReport":5382,"Ġslight":5383,"Ġmorning":5384,"Ġenter":5385,"Ġproduce":5386,"Ġcatch":5387,"cdots":5388,"Ġmajority":5389,"ĠOh":5390,"Ġnil":5391,"OC":5392,"Ġvert":5393,"ĠLake":5394,"izer":5395,"ĠEarth":5396,"FC":5397,"Ġprobability":5398,"cup":5399,"Ġobjects":5400,"west":5401,"Call":5402,"ĠHome":5403,"Ġupper":5404,"google":5405,"appro":5406,"They":5407,"Ġactual":5408,"Ġimmediately":5409,"ĠMov":5410,"Ġmission":5411,"Ġbrand":5412,"Act":5413,"Ġkm":5414,"Ġstated":5415,"=\"../../../../":5416,";&":5417,"orpor":5418,"Ġentry":5419,"Ġclimate":5420,"doc":5421,"gar":5422,"ĠJud":5423,"riage":5424,"Ġsignal":5425,"azz":5426,"Ġeventually":5427,"Ġweak":5428,"Ġsal":5429,"Ġlif":5430,"ĠSil":5431,"Ġfailed":5432,"ĠPet":5433,"Ġunderstanding":5434,"Ġaspect":5435,"ĠMa":5436,"olk":5437,"ĠMur":5438,"'d":5439,"Ġsch":5440,"Ġalone":5441,"gent":5442,"nce":5443,"ĠTre":5444,"Ġgrowing":5445,"Ġcosts":5446,"ĠZealand":5447,"ban":5448,"Ġeth":5449,"eds":5450,"actory":5451,"Ġcorn":5452,"png":5453,"illa":5454,"edge":5455,"Ġchoose":5456,"onday":5457,"Ġdrive":5458,"Ġdirected":5459,"94":5460,"ĠST":5461,"Ġcommunities":5462,"weet":5463,"}_\\":5464,"ĠForm":5465,"ĠParis":5466,"Ġagree":5467,"ĠMartin":5468,"core":5469,"Ġcaused":5470,"Ġheight":5471,"Ġupdate":5472,"istance":5473,"current":5474,"ĠLove":5475,"ĠWeek":5476,"valid":5477,"Ġoccup":5478,"Ġopin":5479,"Ġcitiz":5480,"ĠHot":5481,"yan":5482,"Ġtransition":5483,"Ste":5484,"Ġclin":5485,"icine":5486,"arp":5487,"ĠShow":5488,"ĠChicago":5489,"Ġacadem":5490,"}}(":5491,"astern":5492,")}\\":5493,"Ġtransl":5494,"Ġotherwise":5495,"ydro":5496,"pective":5497,"ĠNetwork":5498,"gebra":5499,"Ġwindow":5500,"Ġobvious":5501,"Ġclient":5502,"ootball":5503,"Ġfinished":5504,"Ġplaced":5505,"aven":5506,"Ġfine":5507,"92":5508,"Ġtrial":5509,"ĠAlso":5510,"Ġcompetition":5511,"ircraft":5512,"imb":5513,"ĠFestival":5514,"ĠIreland":5515,"Ġ===":5516,"va":5517,"ãĤ":5518,"ribe":5519,"Eng":5520,"arden":5521,">&":5522,"ĠGeorg":5523,"Ġfactors":5524,"thlet":5525,"ATE":5526,"Ġsubsequ":5527,"itors":5528,"Living":5529,"inger":5530,"ĠAngeles":5531,"Ġhundred":5532,"ĠPri":5533,"Ġrates":5534,"Ġbasic":5535,"asion":5536,"UM":5537,"Ġdespite":5538,"Ġhappened":5539,"âĢĺ":5540,"1991":5541,"Ġstrategy":5542,"note":5543,"ĠWood":5544,"ĠArts":5545,"uled":5546,"Ġhyp":5547,"Ġneighbor":5548,"Ġrecords":5549,"xspace":5550,"inding":5551,"ructure":5552,"Ġwid":5553,"Ġsales":5554,"TV":5555,"ancing":5556,"OW":5557,"chers":5558,"Ġmut":5559,"--------------------------------":5560,"ĠAtl":5561,"ĠCam":5562,"Ġthr":5563,"widehat":5564,"^+":5565,"Ġspread":5566,"ĠSecond":5567,"skip":5568,"arks":5569,"ĠDen":5570,"ÑĢ":5571,"Ġwave":5572,"osis":5573,"$)":5574,"overy":5575,"Ġmess":5576,"apers":5577,"related":5578,"74":5579,"Ġfig":5580,"Ġannual":5581,"Source":5582,"Ġminor":5583,"Ġargument":5584,"iled":5585,"textwidth":5586,"bur":5587,"itness":5588,"ĠKn":5589,"Ġmanager":5590,"Ġmentioned":5591,"Ġtruth":5592,"lemma":5593,"ĠJun":5594,"mid":5595,"ĠArab":5596,"Ġinstr":5597,"Ġhuge":5598,"Ġrelative":5599,"Ġcore":5600,"olec":5601,"context":5602,"mathsf":5603,"Ġmurder":5604,"Ġconclud":5605,"Ġresponsible":5606,"jo":5607,"unities":5608,"Ġefforts":5609,"ĠAccording":5610,"HS":5611,"Ġselection":5612,"Ġconver":5613,"DF":5614,"oms":5615,"iler":5616,"inder":5617,"Ġresource":5618,"Ġmissing":5619,"Color":5620,"Ġinnov":5621,"ĠManagement":5622,"Fig":5623,"Co":5624,"Ġphone":5625,"Ġstrugg":5626,"While":5627,"Ġnoted":5628,"ĠâĢ¦":5629,"ĠLong":5630,"=\"#":5631,"Ref":5632,"Ġmaster":5633,"Ġbeg":5634,"ĠOl":5635,"Ġnegative":5636,"Ġprotected":5637,"Ġbelong":5638,"ĠLu":5639,"leep":5640,"71":5641,"ĠPlan":5642,"ashion":5643,"Ġwants":5644,"Ġshared":5645,"Ġplays":5646,"Per":5647,"Ġclaims":5648,"ixt":5649,"ĠVictor":5650,"ĠAut":5651,"Group":5652,"Ġinfluence":5653,"ĠUN":5654,"Ġactions":5655,"Ġwood":5656,"Ġsymbol":5657,"has":5658,"Ġ\\{":5659,"Ġvolume":5660,"ĠEven":5661,"ĠTim":5662,"Ġevolution":5663,"NN":5664,"static":5665,"ĠSpe":5666,"display":5667,"aby":5668,"Ġwest":5669,"Ġsea":5670,"iques":5671,"ĠEngine":5672,"){":5673,"Ġlooked":5674,"ĠSaturday":5675,"Ġillustr":5676,"ĠEconom":5677,"ĠIll":5678,"91":5679,"ĠCast":5680,"Ġcry":5681,"PA":5682,"Here":5683,"oding":5684,"Read":5685,"Ġbrief":5686,"ĠTechnology":5687,"Ġgeneration":5688,"Manager":5689,"uan":5690,"})\\":5691,"ato":5692,"Ġ};":5693,"Ġleague":5694,"Ġconcent":5695,"dev":5696,"Ġsites":5697,"Ġinstall":5698,"Em":5699,"Property":5700,"ĠPo":5701,"PR":5702,"Ġprison":5703,"Ġcritic":5704,"Ġhappen":5705,"ĉĉĉĉĉĉ":5706,"âĢĿ,":5707,"Ġdomain":5708,"stract":5709,"Ġdoc":5710,"Ġdatas":5711,"ustain":5712,"Ġstock":5713,")-":5714,"oration":5715,"Ġclasses":5716,"Ġrequires":5717,"poses":5718,"Method":5719,"Ġeast":5720,"cit":5721,"ĠCare":5722,"Ġpaint":5723,"Ġbul":5724,"cles":5725,"Ġdetermine":5726,"Image":5727,"SA":5728,"Ġpaid":5729,"Ġarrest":5730,"image":5731,"Ġyield":5732,"Ġaware":5733,"ĠJim":5734,"Ġheavy":5735,"Ġshape":5736,"Ġcorpor":5737,".~":5738,"Ġstrateg":5739,"ĠMexico":5740,"Ġrelation":5741,"isms":5742,"ĠItalian":5743,"pers":5744,"hab":5745,"Ġcool":5746,"ĠWell":5747,"Ġletter":5748,"Ġbuildings":5749,"flow":5750,"Ã¤":5751,"Ġut":5752,"Ġhelped":5753,"ishes":5754,"ĠAlthough":5755,"aming":5756,"war":5757,"ĠVer":5758,"Ġwat":5759,"73":5760,"Ġrepresentation":5761,"Ġmix":5762,"ĠCentre":5763,"Ġbool":5764,"Ġlisted":5765,"tem":5766,"Ġpoll":5767,"Ġiniti":5768,"ĠOld":5769,"igration":5770,"Last":5771,"Ġparties":5772,"Ġemb":5773,"Ġeditor":5774,"rolled":5775,"Ġrelevant":5776,"400":5777,"Ġnone":5778,"Ġspirit":5779,"Ġfear":5780,"Ġidentity":5781,"Ġfourth":5782,"aught":5783,"Ġcat":5784,"Ġclearly":5785,"eler":5786,"HT":5787,"CR":5788,"Ġguitar":5789,"Ġbattle":5790,"ĠCatholic":5791,"Ġextrem":5792,"}|":5793,"contain":5794,"bi":5795,"ĠGen":5796,"Ġcoordin":5797,"Ġsend":5798,"standing":5799,"ĠPlay":5800,"((":5801,"Ġthinking":5802,"Ġready":5803,"Ġjoin":5804,"ĠTour":5805,"ĠHuman":5806,"asketball":5807,"EX":5808,"ĠBoy":5809,"edu":5810,"Ġwhom":5811,"ashed":5812,"omin":5813,"Ġideas":5814,"spec":5815,"ĠIts":5816,"Ġidentified":5817,"Ġbill":5818,"Date":5819,"ifically":5820,"pc":5821,"Ġcompos":5822,"rim":5823,"Ġconsequ":5824,"ĠNote":5825,"ipment":5826,"Ġarm":5827,"pan":5828,"Ġreduce":5829,"Ġrac":5830,"79":5831,"css":5832,"bound":5833,"Ġreduced":5834,"ĠHistor":5835,"ĠGar":5836,"Ġdog":5837,"ĠScot":5838,"acks":5839,"ao":5840,"John":5841,"method":5842,"Response":5843,"Ġreasons":5844,"uesday":5845,"ariant":5846,"real":5847,"member":5848,"Ġapart":5849,"Ġadvant":5850,"Query":5851,"ĠPower":5852,"ĠIslam":5853,"uty":5854,"Ġserve":5855,"ĠEvery":5856,"Ġstructures":5857,"ĠBu":5858,"qquad":5859,"Ġvisual":5860,"Ġvan":5861,"Ġregions":5862,"lock":5863,"Then":5864,"GB":5865,"{{\\":5866,"anging":5867,"Ġperhaps":5868,"1960":5869,"Ġtried":5870,"operat":5871,"rowd":5872,"ĠÎ":5873,"ĠPolicy":5874,"erem":5875,"Ġphil":5876,"Ġreflect":5877,"Ġdescription":5878,"Ġpolic":5879,"ĠLee":5880,"Ġuseful":5881,"ĠChief":5882,"Ġhospital":5883,"ĠPenn":5884,"Ġneut":5885,"ĠTable":5886,"ersey":5887,"Ġnav":5888,"Ġharm":5889,"Char":5890,"Back":5891,"Ġinterested":5892,"Ġinterpret":5893,"1989":5894,"Ġenh":5895,"Ġleads":5896,"Ġgoals":5897,"ĠBo":5898,"Am":5899,"ĠVirginia":5900,"Ġvictim":5901,"iency":5902,"Client":5903,"rence":5904,"ĠRecords":5905,"ĠTeam":5906,"cean":5907,"ĠCL":5908,"post":5909,"Ġtal":5910,"ĠAsia":5911,"Ġkids":5912,"abilities":5913,"operatorn":5914,"arant":5915,"DS":5916,"roph":5917,"usband":5918,"riend":5919,"Psi":5920,"Ġboundary":5921,"yles":5922,"ĠMain":5923,"akistan":5924,"Ġformat":5925,"lict":5926,"Ġelected":5927,"Ġitems":5928,"omy":5929,"ĠInformation":5930,"Ġdoor":5931,"Ġdream":5932,"po":5933,"kins":5934,"ĠParliament":5935,"Ġquantum":5936,"Ġitem":5937,",-":5938,"ategories":5939,"ĠForce":5940,"operatorname":5941,"razil":5942,"scr":5943,"UE":5944,"ultural":5945,"Sim":5946,"ĠBob":5947,"uls":5948,"false":5949,"Ġvel":5950,"opl":5951,"elligence":5952,"Ġapproximately":5953,"User":5954,"ECT":5955,"Off":5956,"Ġpanel":5957,"Car":5958,"ĠStat":5959,"Ġprotest":5960,"ogen":5961,"ONT":5962,"Ġsell":5963,"Ġraised":5964,"ridge":5965,"package":5966,"ĠMil":5967,"strong":5968,"áĥ":5969,"ĠWeb":5970,"Ġdestroy":5971,"elled":5972,"emporary":5973,"ĠTheir":5974,"arts":5975,"ursday":5976,"inate":5977,"1988":5978,"Ġ;":5979,"while":5980,"Ġcapacity":5981,"Ġpeace":5982,"Ġcalls":5983,"Ġsave":5984,"Ġsteps":5985,"ĠYoung":5986,"CS":5987,"Ġfeet":5988,"open":5989,"Ñģ":5990,"Ġcreating":5991,"Ġstudied":5992,"Ġwinning":5993,"Ġended":5994,"Ġdedic":5995,"ĠItaly":5996,"ĠDou":5997,"Ġpowerful":5998,"Te":5999,"ĠTherefore":6000,"Ġresulting":6001,"Ġmostly":6002,"erman":6003,"gers":6004,"ĠDu":6005,"Ġnorm":6006,"ĠJohnson":6007,"nergy":6008,"Ġbottom":6009,"Ġtick":6010,"Ġmill":6011,"rees":6012,"Ġcustomers":6013,"ĠLord":6014,"crete":6015,"Ġmaterials":6016,"ora":6017,"ĠAwards":6018,"Ġlaunch":6019,"(-":6020,"Ġseparate":6021,"hy":6022,"ector":6023,"ĠDev":6024,"Ġfounded":6025,"Ġrare":6026,"Ġoffered":6027,"Ġshop":6028,"&=":6029,"ĠMicro":6030,"Ġdiscussion":6031,"Ġappropriate":6032,"ĠWater":6033,"iling":6034,"Ġkept":6035,"igger":6036,"allery":6037,"allel":6038,"ĠMonday":6039,"GL":6040,"Next":6041,"ERS":6042,"Ġ$(\\":6043,"ĠRE":6044,"%)":6045,"Ġwel":6046,"iana":6047,"ensor":6048,"Ġreality":6049,"ker":6050,"ĠElect":6051,"olved":6052,"ĠSpanish":6053,"main":6054,"Ġfif":6055,"Ġsector":6056,"Ġ]":6057,"ĠBet":6058,"Ġbeautiful":6059,"Ġonto":6060,"Ġdevices":6061,"Ġeconomy":6062,"command":6063,"hem":6064,"Ġvehicle":6065,"ĠTwitter":6066,"}^{(":6067,"nesday":6068,"first":6069,"ĠValley":6070,"utch":6071,"Ġpsych":6072,"resents":6073,"ĠMax":6074,"ĠCommunity":6075,"ĠGame":6076,"ĠLibrary":6077,"Ġjoint":6078,"Ġsenior":6079,"Ġextended":6080,"Ġolder":6081,"Ġmachine":6082,"care":6083,"ĠFort":6084,"ĠJones":6085,"Ġowners":6086,"Ġdaily":6087,"Ġpurs":6088,"php":6089,"Ġofficer":6090,"Result":6091,"Ġshift":6092,"ĠLemma":6093,"Top":6094,"Ġmotion":6095,"Ġlatter":6096,"acement":6097,"Ġwall":6098,"estic":6099,"Ext":6100,"Ġconstraint":6101,"split":6102,"ĠKar":6103,"CP":6104,"ĠRail":6105,"Ġattract":6106,"Ġchief":6107,"shire":6108,"osoph":6109,"Ġoriginally":6110,">>":6111,"ollowing":6112,";</":6113,"Ġminimum":6114,"cho":6115,"ĠMem":6116,"SU":6117,"Ġmiles":6118,"dl":6119,"Ġprocesses":6120,"Ġcoast":6121,"lication":6122,"Ġpartner":6123,"front":6124,"Ġweap":6125,"Ġofficials":6126,"](":6127,"Me":6128,"Ġhappy":6129,"ĠWho":6130,"Ġcontinues":6131,"Ġincome":6132,"sear":6133,"irmed":6134,"=\"../":6135,"Ġreturns":6136,"ĠFree":6137,"Ġrepresented":6138,"ournament":6139,"yer":6140,"Ġsun":6141,"fs":6142,"ĠSpecial":6143,"free":6144,"Ġcert":6145,"Ġpages":6146,"Ġprofile":6147,"ĠPac":6148,"bul":6149,"Ġreplaced":6150,"iano":6151,"agger":6152,"ĠVis":6153,"ĠHaw":6154,"Ġfilter":6155,"ERT":6156,"fit":6157,"urns":6158,"ĠAv":6159,"Ġleaving":6160,"][":6161,"aylor":6162,"ĠLim":6163,"Ġrout":6164,"di":6165,"Ġcultural":6166,"Ġsafe":6167,"asure":6168,"ĠCarolina":6169,"Ġshowing":6170,"ĠTri":6171,"Ġsufficient":6172,"ocket":6173,"ola":6174,"Ġlaunched":6175,"86":6176,"Ġbecoming":6177,"Ġreligious":6178,"Ġtalking":6179,"anges":6180,"Ġframe":6181,"Ġ&\\":6182,"ĠSand":6183,"ĠEnter":6184,"Override":6185,"Ġdiscussed":6186,"Go":6187,"Ġaircraft":6188,"height":6189,"equiv":6190,"Ġaudience":6191,"ĠBas":6192,"Stream":6193,"Ġsusp":6194,"namespace":6195,"Ġstd":6196,"Ġax":6197,"ĠHenry":6198,"LA":6199,"Ġviews":6200,"Ġchallenge":6201,"Ġfamous":6202,"Ġaf":6203,"Ġsignificantly":6204,"spect":6205,"Ġnotice":6206,"Ġforced":6207,"================":6208,"ĠStep":6209,"Ġspot":6210,"Ne":6211,"gence":6212,"osc":6213,"ocity":6214,"lies":6215,"press":6216,"ĠRef":6217,"mazon":6218,"eless":6219,"Ġequivalent":6220,"Ġcarried":6221,"Ġremaining":6222,"Ġcertainly":6223,"Ġregarding":6224,"Ġratio":6225,"kin":6226,"Ġsexual":6227,"db":6228,"lig":6229,"ĠLiber":6230,"Ð¾Ð":6231,"wa":6232,"Ġpicture":6233,"Builder":6234,"ĠSpring":6235,"Ġdanger":6236,"Ġplot":6237,"Ġmeasures":6238,"Ġappointed":6239,"Ġsamples":6240,"}\\\\":6241,"icks":6242,"Ġcloud":6243,"ĠSar":6244,"hens":6245,"Ġearth":6246,"Ġcandidate":6247,"Ġorganizations":6248,"aser":6249,"Ġque":6250,"Ġexamples":6251,"Ġexception":6252,"Ġcategory":6253,"Label":6254,"Ġfrequency":6255,"indent":6256,"uries":6257,"umni":6258,"ĠWal":6259,"Ġpet":6260,"Ġskills":6261,"Ġstuff":6262,"ican":6263,"Ġproceed":6264,"Ġmeant":6265,"Ġconference":6266,"Ġpush":6267,"ATION":6268,"Ġalbums":6269,"ĠRead":6270,"Ġahead":6271,"Ġplanning":6272,"Ġframework":6273,"Ġchosen":6274,"Ġlayer":6275,"Ġcentre":6276,"Ġmaybe":6277,"rid":6278,"Ġdrink":6279,"inos":6280,"gcolor":6281,"Ġdescribe":6282,")</":6283,"jection":6284,"Ġhusband":6285,"aste":6286,"call":6287,"Ġlaws":6288,"ĠEp":6289,"Ġtoward":6290,"greg":6291,"Ġsyn":6292,"Ġpropos":6293,"Ġbenefit":6294,"These":6295,"ĠJes":6296,"Ġestimate":6297,"Gu":6298,"Oper":6299,"ĠLin":6300,"Ġrise":6301,"ĠMen":6302,"atically":6303,"Ġcovered":6304,"life":6305,"odies":6306,"Ġroute":6307,"Ġfan":6308,"ĠHead":6309,">(":6310,"iverse":6311,"ĠChristmas":6312,"Ġestimated":6313,"ĠCorpor":6314,"going":6315,"}:":6316,"Ġgalax":6317,"ĠMedical":6318,"event":6319,"risis":6320,"Ġlived":6321,"ĠĠĠĠĠĠĠĠĠĠĠĠĠĠĠĠĠ":6322,"Block":6323,"Ġinvestment":6324,"ourney":6325,"Ġexpansion":6326,"adow":6327,"yself":6328,"Ġremoved":6329,"gener":6330,"cons":6331,"Ġorigin":6332,"Ġcontrast":6333,"Ġhour":6334,"ĠField":6335,"Ġedition":6336,"dule":6337,"ye":6338,"ati":6339,"acter":6340,"ĠSummer":6341,"rowser":6342,"itage":6343,"oston":6344,"Other":6345,"bal":6346,"])":6347,"1986":6348,"Ġhistorical":6349,"func":6350,"enses":6351,"1987":6352,"Ġbenefits":6353,"ipl":6354,"Ġscheme":6355,"car":6356,"Ġinterface":6357,"Ġliterature":6358,"ithub":6359,"ĠGlobal":6360,"clusive":6361,"Ġcities":6362,"Ġdamage":6363,"claim":6364,"Ġgone":6365,"However":6366,"Ġtesting":6367,"({\\":6368,"Ġmobile":6369,"Ġ<<":6370,"Ġbeat":6371,"Ġhyper":6372,"Ġarticles":6373,"ĠMany":6374,"null":6375,"stitution":6376,"ĠSenate":6377,"inations":6378,"Ġbrain":6379,"FT":6380,"Ġice":6381,"ĠÂ»":6382,"riz":6383,"alysis":6384,"Ġrepresents":6385,"|^":6386,"Hel":6387,"orney":6388,"Ġprefer":6389,"Ġmagnetic":6390,"iginal":6391,"ĠHor":6392,"Ġstrength":6393,"EW":6394,"citet":6395,"<!--":6396,"Ġpil":6397,"Ġmusical":6398,"Ġvir":6399,"Ġapparent":6400,"Ġcommunication":6401,"ĠID":6402,"ĠWay":6403,"Ġconvers":6404,"ĠLog":6405,"Ġidentify":6406,"weight":6407,"ĠFund":6408,"Ġrecommend":6409,"Ġforest":6410,"urban":6411,"Ġbroadcast":6412,"Ġresear":6413,"May":6414,"Ġhero":6415,"MC":6416,"Rel":6417,"ingly":6418,"Ġimplies":6419,"Ġnetworks":6420,"ographic":6421,"Ġsquare":6422,"Ġuncertain":6423,"ĠFamily":6424,"Ġ~":6425,"perties":6426,"ĠFootball":6427,"Ġauthors":6428,"ĠNY":6429,"iders":6430,"oses":6431,"Art":6432,"othes":6433,"89":6434,"Ġstations":6435,"Ġvirtual":6436,"Note":6437,"arian":6438,"Ġremained":6439,"Ġadvert":6440,"Ġvariables":6441,"Ġnoise":6442,"Ġuns":6443,"ĠTuesday":6444,"dimensional":6445,"Base":6446,"'$":6447,"Ġwait":6448,"Ġfeatured":6449,"Ġsomew":6450,"ĠBow":6451,"El":6452,"Ġsmooth":6453,"ĠPolice":6454,"power":6455,"Ġtrou":6456,"Ġemployees":6457,"Ġtools":6458,"aren":6459,"IO":6460,"ĠEqu":6461,"Ġcouldn":6462,"Ġtrend":6463,"iate":6464,"ĠPop":6465,"Ġdiss":6466,"options":6467,"Sec":6468,"ĠĠĠĠĠĠĠĠĠĠĠĠĠĠĠĠĠĠĠĠĠĠĠĠĠĠĠĠĠĠĠ":6469,"Ġadministration":6470,"Ġcombination":6471,"Ġuniform":6472,"ĠWhy":6473,"ĠConference":6474,"Ġdenote":6475,"Ġwarm":6476,"atever":6477,"client":6478,"Ġrequirements":6479,"Ġcombined":6480,"Ġexcell":6481,"Ġequations":6482,"Ġmanaged":6483,"Ġfloor":6484,"Ġsession":6485,"mond":6486,"adium":6487,"ĠStand":6488,"Ġfiles":6489,"ĠJoseph":6490,"Ġiter":6491,"Ġexpert":6492,"Ġsav":6493,"ruit":6494,"Input":6495,"ĠEach":6496,"hemat":6497,"Ġrevealed":6498,"bel":6499,"opyright":6500,"phone":6501,"]$":6502,"Ġfunding":6503,"Ġresolution":6504,"Ġdepartment":6505,"Ear":6506,"ĠLab":6507,"ĠAff":6508,"Ġleadership":6509,"Ġfreedom":6510,"1984":6511,"Ġresidents":6512,"ansas":6513,"}+\\":6514,"Ġequipment":6515,"Ġandroid":6516,"LS":6517,"Ġguy":6518,"ĠSecretary":6519,"Ġviolence":6520,"Line":6521,"ĠWilliams":6522,"Ġconsult":6523,"ĠJeff":6524,"uations":6525,"ĠMike":6526,"Status":6527,"cript":6528,"wan":6529,"150":6530,"Ġstreet":6531,"Ġlock":6532,"Ġ(\"":6533,"84":6534,"Ġtraffic":6535,"ributes":6536,"Ġrestaur":6537,"Gl":6538,"Ġisland":6539,"Ġattend":6540,"amin":6541,"ĠDesign":6542,"Ġdrop":6543,"isters":6544,"unte":6545,"okes":6546,"Ġspectrum":6547,"ĠFederal":6548,"ĠSwed":6549,"Ġbgcolor":6550,"android":6551,"ĠPakistan":6552,"ĠId":6553,"query":6554,"ali":6555,"ĠFurther":6556,"Util":6557,"ĠSports":6558,"char":6559,"ĠPan":6560,"Why":6561,"ĠJon":6562,"Des":6563,"Posted":6564,"Work":6565,"ĠSecurity":6566,"Ġking":6567,"87":6568,"ja":6569,"Ġvariable":6570,"alo":6571,"ĠAbout":6572,"Ġliber":6573,"82":6574,"Some":6575,"Ġcriminal":6576,"ĠChris":6577,"Ġcommit":6578,"only":6579,"ĠPubl":6580,"Ġmodule":6581,"Ġdivid":6582,"Ġoperating":6583,"Ġbudget":6584,"amm":6585,"Run":6586,"ĠObama":6587,"local":6588,"ipe":6589,"Ġcars":6590,"oret":6591,"omic":6592,"olve":6593,"ĠBlue":6594,"ĠOrder":6595,"ĠEU":6596,"anche":6597,"IST":6598,"Ġchain":6599,"fill":6600,"Ġcomparison":6601,"ira":6602,"Ġagent":6603,"Ġalternative":6604,"ĠThursday":6605,"Ġmyself":6606,"Ġexec":6607,"Ġchair":6608,"stra":6609,"Ġslightly":6610,"othing":6611,"Ġdistinct":6612,"ifications":6613,"Ġmetal":6614,"ds":6615,"poss":6616,"umerate":6617,"uing":6618,"ĠCharl":6619,"Ġspecified":6620,"Ġawarded":6621,"ulty":6622,"ĠNight":6623,"ussian":6624,"ĠBritain":6625,"idel":6626,"TO":6627,"Ġfinding":6628,"83":6629,"normal":6630,"Ġcrime":6631,"Ġbiggest":6632,"iced":6633,"omial":6634,"}}{\\":6635,"agged":6636,"ĠIII":6637,"ented":6638,"Ġpolitics":6639,"ĠJoe":6640,"atters":6641,"mathscr":6642,"Ġinvestigation":6643,"ĠEmp":6644,"ĠRights":6645,"ĠMiddle":6646,"atrix":6647,"gypt":6648,"Ġdoll":6649,"({":6650,"Ġpatient":6651,"github":6652,"1985":6653,"ipped":6654,"ĠColl":6655,"rich":6656,"ĠMu":6657,"final":6658,"Ġcitizens":6659,"Ġtend":6660,"ĠPolit":6661,"han":6662,"ĠWall":6663,"ĠJustice":6664,"Ġowner":6665,"ypes":6666,"inet":6667,"Ġcamera":6668,"Ġserver":6669,"Ġpp":6670,"ĠInternet":6671,"sen":6672,"ĠCy":6673,"ĠWednesday":6674,"cknow":6675,"Cons":6676,"Ġwish":6677,"Ġutil":6678,"aa":6679,"ĠJac":6680,"Ġnet":6681,"gency":6682,"ĠĠĠĠĠĠĠĠĠĠĠĠĠĠ":6683,"Ġplane":6684,"lets":6685,"Ġnumerous":6686,"Ġlearned":6687,"ucky":6688,"ĠColumb":6689,"TC":6690,"finished":6691,"Ġinteraction":6692,"Ġtrip":6693,"Ġprotection":6694,"stein":6695,"Ġfant":6696,"ĠEll":6697,"hent":6698,"AV":6699,"Ġeye":6700,"Ġcontaining":6701,"ancer":6702,"Ġremove":6703,"MM":6704,"ĠBack":6705,"ishop":6706,"Ġdiagn":6707,"Ġcredit":6708,"Ġappearance":6709,"ĠDown":6710,"look":6711,"ĠBrazil":6712,"Ġrelatively":6713,"ĠHon":6714,"Fe":6715,"Rem":6716,"Ġentertain":6717,"ĠMuslim":6718,"Start":6719,"neq":6720,"Ġnor":6721,"ĠJewish":6722,"Ġnine":6723,"option":6724,"}-\\":6725,"etime":6726,"dat":6727,"Ġrapid":6728,"ĠAndrew":6729,"Ġphen":6730,"Ġknows":6731,"Ġdefense":6732,"Ġfaith":6733,"ometry":6734,"Ġfailure":6735,"âĢ¢":6736,"Ġenvironmental":6737,"Ġfresh":6738,"Ġcoe":6739,"Ġlibrary":6740,"rl":6741,"ictures":6742,"Ġachieve":6743,"Ġlabor":6744,"Ã¨":6745,"Ġtun":6746,"Ġconsists":6747,"ĠGa":6748,"ockey":6749,"eller":6750,"scape":6751,"Ġwriters":6752,"ĠFrancisco":6753,"Ġopportunities":6754,"itan":6755,"adding":6756,"bottom":6757,"ĠCross":6758,"ĠAge":6759,"ĠAND":6760,"ĠRun":6761,"Ġtechnical":6762,"]\\":6763,"chen":6764,"Ġbed":6765,"Ġconsistent":6766,"orrow":6767,"mann":6768,"Ġran":6769,"multicol":6770,"According":6771,"Ġswitch":6772,"ideos":6773,"aka":6774,"ĠSup":6775,"Ġsmart":6776,"Ġfre":6777,"Ġcrowd":6778,"theorem":6779,"frast":6780,"ĠRadio":6781,"Token":6782,"ograp":6783,"ĠAuthor":6784,"ĠCard":6785,"km":6786,"Ġexistence":6787,"ĠKen":6788,"ĠNorthern":6789,"ĠHa":6790,"Ġissued":6791,"ĠBecause":6792,"Ġexchange":6793,"Ġmist":6794,"Net":6795,"jav":6796,"{}":6797,"duced":6798,"append":6799,"button":6800,"Ġformation":6801,"Ġextension":6802,"~$":6803,"Ġofficers":6804,"icip":6805,"ĠBoth":6806,"ersonal":6807,"ĠIrish":6808,"ĠLuc":6809,"REF":6810,"multicolumn":6811,"Ġnuclear":6812,"ĠAmericans":6813,"1000":6814,"ĠFire":6815,"Ġmyst":6816,"ĠTele":6817,"Link":6818,"Ġ\\|":6819,"ĠSpain":6820,"ĠTem":6821,"iro":6822,"itely":6823,"Ġhandle":6824,"&&":6825,"Ġriver":6826,"Mon":6827,"Ġrich":6828,"Ġcommission":6829,"entry":6830,"ĠWild":6831,"Null":6832,"Ġexplicit":6833,"Ġnewsp":6834,"Ġdriving":6835,"ĠInvest":6836,"ĠNULL":6837,"Ġlett":6838,"Ġstandards":6839,"81":6840,"Ġfle":6841,"Ġstudio":6842,"Ġtro":6843,"Ġraise":6844,"Ġterror":6845,"column":6846,"Ġopinion":6847,"Ġtells":6848,"Ġwouldn":6849,"indow":6850,"TP":6851,"andon":6852,"Ġ-\\":6853,"Home":6854,"ĠRam":6855,"Ġpeak":6856,"ĠCivil":6857,"iger":6858,"Ġalt":6859,"inf":6860,"Ġsupply":6861,"rome":6862,"Ġstarts":6863,"ko":6864,"module":6865,"Ġdraft":6866,"ĠOrgan":6867,"RC":6868,"SI":6869,"Ġvoc":6870,"ĠNone":6871,"har":6872,"cs":6873,"Ġdetail":6874,"Ġunion":6875,"target":6876,"oral":6877,"Ġclassical":6878,"adata":6879,"Ġtests":6880,"Ġfix":6881,"secut":6882,"1950":6883,"Ġheat":6884,"Ġspeech":6885,"Ġnative":6886,"Ġpositions":6887,"AME":6888,"norm":6889,"Ġexperi":6890,"Ġsurvey":6891,"Ġyouth":6892,"Ġdeveloping":6893,"ighter":6894,"ĠRo":6895,"then":6896,"legal":6897,"BO":6898,"ima":6899,"onym":6900,"Ġpolicies":6901,"Ġbusinesses":6902,"rical":6903,"enumerate":6904,"Min":6905,"connect":6906,"ĠProfessor":6907,"nam":6908,"ums":6909,"dir":6910,"athan":6911,"Ġroot":6912,"Nav":6913,"ĠCA":6914,"ĠLine":6915,"Ġamaz":6916,"ĠCEO":6917,"Ġscored":6918,"Ġnice":6919,"Ġuniversity":6920,"Ġchallenges":6921,"Ġvac":6922,"how":6923,"abeth":6924,"bury":6925,"illy":6926,"Ġreferred":6927,"LC":6928,"Ġgovern":6929,"iser":6930,"pir":6931,"Ġadvantage":6932,"ĠTH":6933,"Ġunknown":6934,"inity":6935,"Ġattacks":6936,"ĠTer":6937,"Ġpoet":6938,"Ġcrew":6939,"dec":6940,"py":6941,"Ġdiscovered":6942,"Ġextends":6943,"Ġconducted":6944,"Ġexecutive":6945,"ĠMot":6946,"Ġthank":6947,"vol":6948,"Ġdifferences":6949,"ĠSaint":6950,"bell":6951,"Ġseeing":6952,"ĠVan":6953,"Ġlic":6954,"Ġactor":6955,"plete":6956,"select":6957,"ĠCH":6958,"Ġunless":6959,"SD":6960,"}/":6961,"Ġring":6962,"vspace":6963,"ila":6964,"ĠJersey":6965,"Gener":6966,"iki":6967,"itemize":6968,"Ġmatches":6969,"Ġphoto":6970,"Ġspeak":6971,"next":6972,"args":6973,"Ġmaps":6974,"Equal":6975,"Ġmassive":6976,"Ġboolean":6977,"ĠWrit":6978,"ĠLike":6979,"ĠType":6980,"Ġagreed":6981,"request":6982,"Ġtechniques":6983,"Ġjobs":6984,"ivery":6985,"Ġsinger":6986,"Ġprocessing":6987,"ĠFar":6988,"XX":6989,"Ġfacilities":6990,"ĠUk":6991,"Ġdefend":6992,")}{":6993,"ĠIndust":6994,"Ġdecades":6995,"sg":6996,"law":6997,"Ġsched":6998,"Content":6999,"ylvan":7000,"Ġexplain":7001,"ĠDaniel":7002,"Ġanimals":7003,"pg":7004,"ĠCa":7005,"ela":7006,"ĠAny":7007,"Ġterrit":7008,"Met":7009,"ĠEX":7010,"ĠSouthern":7011,"ifact":7012,"Ġvictory":7013,"zen":7014,"Ġincorpor":7015,"Ġexerc":7016,"inton":7017,"ðŁ":7018,"linear":7019,"Ġfocused":7020,"ĠColor":7021,"ifies":7022,"Ġil":7023,"Ġpan":7024,"Ġadjust":7025,"esh":7026,"odd":7027,"1983":7028,"dep":7029,"Ġdie":7030,"Ġodd":7031,"Ġplus":7032,"Äģ":7033,"Ġdimension":7034,"PP":7035,"ĠEnergy":7036,"pert":7037,"Ġwitness":7038,"Ġmarriage":7039,"Ġentered":7040,"Ġimportance":7041,"INE":7042,"Ġdedicated":7043,"Ġdivision":7044,"Ġtypically":7045,"hentic":7046,"Ġefficient":7047,"ĠBase":7048,")}$":7049,"Point":7050,"Ġlov":7051,"Ġexpressed":7052,"Ġmanif":7053,"Ġdriver":7054,"bin":7055,"Options":7056,"Ġderived":7057,"Ġmeasured":7058,"Ġfavorite":7059,"ĠMichigan":7060,"TY":7061,"Ġguess":7062,"frastructure":7063,"Ġseat":7064,"ĠDemocratic":7065,"noindent":7066,"Ġclaimed":7067,"Ġlies":7068,"server":7069,"ĠHospital":7070,"Check":7071,"Ġbranch":7072,"INT":7073,"write":7074,"oviet":7075,"120":7076,"Ġcontribution":7077,"phas":7078,"ĠPrem":7079,"Ġmolec":7080,"Ġspaces":7081,"Instance":7082,"ĠAud":7083,"raq":7084,"ador":7085,"ĠGal":7086,"Ġembed":7087,"tra":7088,"Pi":7089,"agraph":7090,"ĠIns":7091,"ĠCamb":7092,"water":7093,"ifer":7094,"acle":7095,"ĠMid":7096,"Ġflat":7097,"pton":7098,"Ġfunds":7099,"rawn":7100,"ĠCoast":7101,"font":7102,"Ġshock":7103,"RI":7104,"inson":7105,"ĠFred":7106,"Ġcontinuous":7107,"ĠCarl":7108,"Ġstorage":7109,"Ġintended":7110,"ĠHamilton":7111,"\\,\\":7112,"Ġdig":7113,"Ġarchitecture":7114,"cover":7115,"Ġspring":7116,"ĠBoston":7117,"1982":7118,"Ġsynt":7119,"ĠJr":7120,"ĠGeorgia":7121,"*{":7122,"Ġpure":7123,"oles":7124,"Ġfundament":7125,"Ġenem":7126,"ampion":7127,"Ġowned":7128,"Ġexperiments":7129,"vin":7130,"aped":7131,"Ġscript":7132,"totype":7133,"Ġcos":7134,"Writ":7135,"last":7136,"ĠGirl":7137,"Action":7138,"Ġ->":7139,"ĠScotland":7140,"$}":7141,"header":7142,"rip":7143,"Ġmixed":7144,"ĠSea":7145,"mosp":7146,"Ġsqu":7147,"ĠTaylor":7148,"ĠLi":7149,"ĠPacific":7150,"Ġdownload":7151,"ĠKey":7152,"Ġthanks":7153,"Ġreform":7154,"ĠTO":7155,"hetic":7156,"Ġbehavi":7157,"ĠPhys":7158,"len":7159,"Ġauto":7160,"irds":7161,"Ġdepth":7162,"rule":7163,"ĠOk":7164,"oded":7165,"Ġalgebra":7166,"approx":7167,"Ġsister":7168,"ĠStudies":7169,"ĠExt":7170,"Ġallowing":7171,"Ġleaves":7172,"ĠLast":7173,"Vis":7174,"ln":7175,"Ġflight":7176,"heast":7177,"?\"":7178,"ĠAdminist":7179,"BI":7180,"teger":7181,"anguages":7182,"Ġseemed":7183,"Ġfeeling":7184,"Ġcalling":7185,"ugin":7186,"Will":7187,"Ġguarant":7188,"auge":7189,"Ġconvert":7190,"dist":7191,"ĠGra":7192,"Ġherself":7193,"ga":7194,"Ġgain":7195,"Ġaren":7196,"ĠSir":7197,"ĠJackson":7198,"ĠAmazon":7199,"ployment":7200,"Ġsport":7201,"}}_":7202,"ĠQueen":7203,"Ġpoly":7204,"Ġbuff":7205,"Ġobservations":7206,"nic":7207,"1979":7208,"Det":7209,"Ġadministr":7210,"Ġimplementation":7211,"Ġinequ":7212,"!âĢĿ":7213,"ĠSong":7214,"aturing":7215,"ĠTheatre":7216,"description":7217,"Ã³n":7218,"pload":7219,"ylvania":7220,"Ġthousands":7221,"Ġexplained":7222,"Ġemot":7223,"Ġextremely":7224,"ĠWalk":7225,"Ġli":7226,"iner":7227,"annels":7228,"Ġhair":7229,"ĠApple":7230,"ĠNumber":7231,"\").":7232,"matrix":7233,"Ġdetailed":7234,"Ġpurposes":7235,"Cal":7236,"Component":7237,"Ġyourself":7238,"Ġextract":7239,"Ġmagazine":7240,"Ġtherm":7241,"Ġrom":7242,"Sm":7243,"Ġincreases":7244,"ĠGre":7245,"adel":7246,"Ġturns":7247,"Ġcycle":7248,"Ġconfirmed":7249,"cr":7250,"Ġmonitor":7251,"ĠAD":7252,"Ġtrees":7253,"Ġremov":7254,"Ġcomfort":7255,"Ġgrav":7256,"Ġvelocity":7257,"Ġjump":7258,"Spec":7259,"Exp":7260,"Ġfashion":7261,"Ġhab":7262,"Ġancient":7263,"viation":7264,"Ġadding":7265,"ĠAR":7266,"sole":7267,"Ġmotor":7268,"ĠObject":7269,"Ġsplit":7270,"Ġoperators":7271,"About":7272,"ĠEgypt":7273,"Ġstress":7274,"Ġ\"\"\"":7275,"Ġcircum":7276,"Ġnotes":7277,"Ġcold":7278,"Med":7279,"pa":7280,"lywood":7281,"Ġast":7282,"Ġhappens":7283,"Ġregional":7284,"after":7285,"ĠMah":7286,"ennis":7287,"track":7288,"ĠView":7289,"ĠAsian":7290,"ls":7291,"ĠDar":7292,"Number":7293,"Ġposted":7294,"Ġmunic":7295,"ĠBooks":7296,"bu":7297,"Ġagency":7298,"process":7299,"pool":7300,"ĠCall":7301,"Ġthrows":7302,"Ġshut":7303,"Ġconfiguration":7304,"enth":7305,".[":7306,"Ġvision":7307,"PD":7308,"Ġfellow":7309,"\"),":7310,"img":7311,"ĠLittle":7312,"Ġlab":7313,"ĠLight":7314,"ĠDE":7315,"Ġscientific":7316,"Ġdistributed":7317,"element":7318,"oir":7319,"Ġbelieved":7320,"Ġsimpl":7321,"Ġempty":7322,"ested":7323,"Ġvehicles":7324,"PL":7325,"author":7326,"imately":7327,"Ġclick":7328,"Ġtow":7329,"Ġchanging":7330,"she":7331,"Ġprocedure":7332,"lib":7333,"ependence":7334,"ĠSciences":7335,"Ġinjury":7336,"Ġexternal":7337,"Vert":7338,"des":7339,"aders":7340,"Aut":7341,"Ġintr":7342,"ĠTw":7343,"Ġacademic":7344,"ĠReal":7345,"emic":7346,"ĠHy":7347,"sche":7348,"Ġweather":7349,"Ġmanner":7350,"ogy":7351,"appe":7352,"Attribute":7353,"Ġhence":7354,"ĠBern":7355,"Ġdocuments":7356,"rs":7357,"ĠBeach":7358,"Ġdrama":7359,"Ġguide":7360,"Prov":7361,"ecutive":7362,"Ġserving":7363,"During":7364,"graph":7365,"1981":7366,"Ġfuel":7367,"Ġconcert":7368,"Ġindeed":7369,"Book":7370,"ova":7371,"Ġnarr":7372,"ymmet":7373,"enger":7374,"unately":7375,"\\}$":7376,"ĠWales":7377,"Ġprepar":7378,"close":7379,"PT":7380,"^-":7381,"Ġglass":7382,"BL":7383,"Ġtruly":7384,"Open":7385,"pled":7386,"unfinished":7387,"rect":7388,"underline":7389,"Ġdoubt":7390,"ĠĠĠĠĠĠĠĠĊ":7391,"Ġarbit":7392,"ensions":7393,"Ġmainly":7394,"status":7395,"ĠRay":7396,"oder":7397,"Ġcreation":7398,"ĠSpace":7399,"obe":7400,"sey":7401,"burgh":7402,"udden":7403,"ĠMethod":7404,"Ġinn":7405,"Ġchemical":7406,"Ġsale":7407,"ĠAssembly":7408,"uer":7409,"Ġtracks":7410,"[\"":7411,"Ġkid":7412,"Ġgirls":7413,"Ġrecording":7414,"opher":7415,"ĠBul":7416,"True":7417,"ĠNavy":7418,"Ġadm":7419,"Ġerrors":7420,"Ġattended":7421,"ART":7422,"ĠOx":7423,"Ġsouthern":7424,"lines":7425,"Ġfell":7426,"Ġreviews":7427,")+":7428,"ervative":7429,"private":7430,"Ġdelay":7431,"ĠRom":7432,"Ġadvent":7433,"onto":7434,"Page":7435,"Ġneighborhood":7436,"ĠPhilipp":7437,"Ġsupposed":7438,"Direct":7439,"=>":7440,"ads":7441,"Ġbegins":7442,"present":7443,"Ġflag":7444,"ĠRos":7445,"uns":7446,"Ġrecover":7447,"Ġjourney":7448,"inois":7449,"Ġgenerate":7450,"Ġfort":7451,"ename":7452,"ĠOhio":7453,"ups":7454,"Ġcandidates":7455,"Just":7456,"SO":7457,"AND":7458,"project":7459,"sylvania":7460,"izabeth":7461,"Ġsustain":7462,"isc":7463,"Ġhousing":7464,"Ġbasketball":7465,"Ġformal":7466,"atalog":7467,"rate":7468,"}}}":7469,"ĠSteve":7470,"HO":7471,"ĠTrust":7472,"ĠLive":7473,"Ġderiv":7474,"Ġapprec":7475,"Ġplants":7476,"urer":7477,"icted":7478,"FI":7479,"Ġaffected":7480,"je":7481,"roud":7482,"Ġarrived":7483,"Ġachieved":7484,"iy":7485,"Ġplanet":7486,"MO":7487,"Ġthick":7488,"ears":7489,"gate":7490,"ĠKong":7491,"Ġkick":7492,"Function":7493,"={":7494,"Ġwww":7495,"Ġpool":7496,"Ġfigures":7497,"cuss":7498,"'.":7499,"afe":7500,"Ġsuggested":7501,"Ġstrict":7502,"Ġpal":7503,"Box":7504,"Ġlocations":7505,"Ġcompact":7506,"Desc":7507,"expected":7508,"ĠWat":7509,"Ġessential":7510,"KE":7511,"ĠBal":7512,"ĠSom":7513,"ulating":7514,"ĠGreek":7515,"Ġelim":7516,"Buffer":7517,"otted":7518,"Ġhydro":7519,"Ġdemocr":7520,"ĠOlympics":7521,"Ġcouncil":7522,"ione":7523,"Ġelections":7524,"Ġclinical":7525,"stone":7526,"Ġauthority":7527,"Ġcounty":7528,"ĠRepublican":7529,"lyn":7530,"obs":7531,"ĠPass":7532,"itionally":7533,"ushed":7534,"ĠStan":7535,"Ġweekend":7536,"Ġinters":7537,"ĠUse":7538,"ĠPC":7539,"ĠWhe":7540,"rot":7541,"Ġcorner":7542,"Ġ+=":7543,"Ġarguments":7544,"1978":7545,"ĠFour":7546,"Ġsam":7547,"number":7548,"ĠCheck":7549,"Ġgra":7550,"ĠMaster":7551,"Ġisol":7552,"ĠLo":7553,"Ġexperimental":7554,"Ġdiagram":7555,"Ġacting":7556,"eries":7557,"ĠProte":7558,"Ġformula":7559,"VD":7560,"ĠĠĠĊ":7561,"Ġnorthern":7562,"Figure":7563,"Ġproducer":7564,"ĠBrook":7565,"ĠFood":7566,"Ġdance":7567,"*/":7568,"Ġimproved":7569,"Ġtournament":7570,"250":7571,"endar":7572,"Ġaccuracy":7573,"ĠIraq":7574,"ĠEnvironment":7575,"1976":7576,"Ġrender":7577,"iliar":7578,"Ġcurve":7579,"Ġsides":7580,"Ġhearing":7581,"Ġfacility":7582,"Ġcluster":7583,"Ġburn":7584,"Ġends":7585,"Ġmargin":7586,"ĠRegister":7587,"apes":7588,"Ġexcellent":7589,"Ġinner":7590,"Ġarmy":7591,"Mark":7592,"Ġconstructed":7593,"Ġdynamics":7594,"Jan":7595,"Ġemphas":7596,"Ġcontributions":7597,"Ġguys":7598,"Ġinitially":7599,"Ġacts":7600,"oster":7601,"xml":7602,"ĠPoint":7603,"ĠOnly":7604,"Handler":7605,"ĠIP":7606,"Ġconcerns":7607,"Ġbatt":7608,"1975":7609,"Ġpossibly":7610,"Ġwatching":7611,"Ã§":7612,"Ġexperiences":7613,"Ġdomin":7614,"La":7615,"found":7616,"Ġmovies":7617,"aya":7618,"____":7619,"ĠCur":7620,"Ġbalance":7621,"RL":7622,"Men":7623,"ĠRog":7624,"ĠSat":7625,"Ġpartnership":7626,"orders":7627,"Ġoffering":7628,"Ġquery":7629,"ĠLear":7630,"Ġdatabase":7631,"values":7632,"ĠChair":7633,"uous":7634,"uts":7635,"ptr":7636,"Ġadvance":7637,"Ġjustice":7638,"Ġsegment":7639,"Ġentirely":7640,"Ġtreated":7641,"Ġnodes":7642,"Ġconflict":7643,"Ġalumni":7644,"Ġtypical":7645,"Ġsubstant":7646,"comes":7647,"Ġtor":7648,"Ġsubs":7649,"Ġcrisis":7650,"language":7651,"Ġspecifically":7652,"Ġapproaches":7653,"break":7654,"Ġtherap":7655,"Ġrough":7656,"ynomial":7657,"1977":7658,"gral":7659,"child":7660,"Ġinstitutions":7661,"Ġmuseum":7662,"stances":7663,"Ġdetection":7664,"Ġconsidering":7665,"Ġmental":7666,"arters":7667,"Ġcharges":7668,"awa":7669,"ĠBell":7670,"Ġseasons":7671,"Ġsupporting":7672,"ĠHand":7673,"friend":7674,"ĠLicense":7675,"Ġcoverage":7676,"Ġmarketing":7677,"ĠSus":7678,"stack":7679,"Ġpractices":7680,"Ġtheme":7681,"Ġadvoc":7682,"idential":7683,"600":7684,"1972":7685,"anna":7686,"pes":7687,"Ġcharged":7688,"Ġpieces":7689,"Ġadvanced":7690,"ĠNS":7691,"Ġcolon":7692,"Ġdepends":7693,"ĠToday":7694,"Ġadvice":7695,"fa":7696,"FO":7697,"RS":7698,"Ġsettings":7699,"Ġdecisions":7700,"orship":7701,"bro":7702,"ĠSupreme":7703,"ĠBroad":7704,"Resource":7705,"ĠKorea":7706,"iral":7707,"Ġhelps":7708,"ĠKim":7709,"Ġpun":7710,"rovers":7711,"Ġprofession":7712,"ĠCat":7713,"Port":7714,"ĠThree":7715,"ĠKent":7716,"Ġfish":7717,"property":7718,"ellar":7719,"ographer":7720,"Ġaccepted":7721,"Ġwhatever":7722,"Ġimplic":7723,"background":7724,"Ġinstrument":7725,"atial":7726,"Ġlisten":7727,"amber":7728,"ĠAdv":7729,"Ġsounds":7730,"iveness":7731,"DP":7732,"ĠNOT":7733,"ĠCro":7734,"ĠMcC":7735,"Ġfavour":7736,"ĠRh":7737,"Ġretain":7738,"Ġwinner":7739,"\\'":7740,"Ġcommitted":7741,"irty":7742,"ĠPrime":7743,"ĠEastern":7744,"Ġcontained":7745,"}'":7746,"ĠBang":7747,"ji":7748,"apse":7749,"night":7750,"Ġsuc":7751,"Ġreject":7752,"ĠChildren":7753,"json":7754,"Ġfighting":7755,"itory":7756,"Ġfinish":7757,"Ġholding":7758,"??":7759,"Â©":7760,"Ġfinds":7761,"Ġclassic":7762,"ĠSupport":7763,"Default":7764,"Ġbright":7765,"Ġcomplic":7766,"Ġhelping":7767,"osophy":7768,"ĠMA":7769,"olt":7770,"Ġloved":7771,"roduction":7772,"Ġthread":7773,"Ġera":7774,"ĠSher":7775,"obj":7776,"Ġteaching":7777,"Ġbond":7778,"Ġsuggests":7779,"Ġassign":7780,"1974":7781,"orough":7782,"ĠFair":7783,"textrm":7784,"Ġplanned":7785,"uality":7786,"Ġscope":7787,"Ġparticles":7788,"Ġincident":7789,"ĠNav":7790,"spe":7791,"Ġideal":7792,"ĠRen":7793,"Ġamazing":7794,"Ġspend":7795,"Ġpit":7796,"xx":7797,"ALL":7798,"Ġtwice":7799,"Ġsemi":7800,"ĠStory":7801,"PRO":7802,"ĠEmpire":7803,"Ġscal":7804,"Ġmetric":7805,"Web":7806,"coh":7807,"Factory":7808,"Ġaccident":7809,"etch":7810,"Dav":7811,"Ġatmosp":7812,"ydney":7813,"ĠHarris":7814,"Ġproved":7815,"Ġ_{":7816,"Ġtheorem":7817,"urd":7818,"Ġinterests":7819,"ĠLy":7820,"teen":7821,"\"]":7822,"Ġchampionship":7823,"elly":7824,"ĠName":7825,"ESS":7826,"usal":7827,"Max":7828,"Ġinfo":7829,"Ġexpos":7830,"service":7831,"ĠIT":7832,"seud":7833,"Ġvary":7834,"Ġreduction":7835,"andy":7836,"Ġsleep":7837,"ĠGuide":7838,"tegr":7839,"ĠPennsylvania":7840,"antly":7841,"etts":7842,"ĠWis":7843,"undle":7844,"Load":7845,"deg":7846,"otal":7847,"black":7848,"cat":7849,"buf":7850,"iffer":7851,"Ġdataset":7852,"Ġinspired":7853,"Ġven":7854,"aked":7855,"ras":7856,"actor":7857,"tag":7858,"ĠFinal":7859,"Are":7860,"ĠAgain":7861,"Ġsan":7862,"World":7863,"reshold":7864,"Ġ((":7865,"1973":7866,"Ġhighlight":7867,"alg":7868,"possible":7869,"Ġupdated":7870,"ĠShed":7871,"ĠKenn":7872,"Ġevening":7873,"ORT":7874,"Ġanimal":7875,"Ġpolar":7876,"Ġhotel":7877,"ĠSep":7878,"Ġpurchase":7879,"Ġordered":7880,"find":7881,"Ġauthorities":7882,"Ġlie":7883,"ĠCode":7884,"SH":7885,"ĠPrince":7886,"ĠLink":7887,"iples":7888,"Ġretail":7889,"Ġsucceed":7890,"Ġcart":7891,"Ġcollected":7892,"Ġelectron":7893,"Ġseconds":7894,"contin":7895,"Ġusual":7896,"Ġhomes":7897,"Ġelectronic":7898,"pson":7899,"Ġgrew":7900,"ĠAsh":7901,"news":7902,"ometric":7903,"Ġstable":7904,"minus":7905,"older":7906,"ĠHard":7907,"Ġpowers":7908,"uri":7909,"ĠComput":7910,"ĠVill":7911,"///":7912,"apped":7913,"1968":7914,"faces":7915,"ĉĉĉĉĉĉĉĉ":7916,"ĠWin":7917,"ĠGener":7918,"Ġmedium":7919,"uzz":7920,"800":7921,"ĠAction":7922,"Ġmarkets":7923,"}}_{":7924,"Ġtrained":7925,"sd":7926,"plex":7927,"Command":7928,"Ġannounce":7929,"ĠPage":7930,"prod":7931,"Ġoccurred":7932,"raine":7933,"PM":7934,"ĠDC":7935,"ebug":7936,"=#":7937,"Ġclients":7938,"ĠGuard":7939,"ĠLew":7940,"Ġaspects":7941,"Ġcommittee":7942,"ernel":7943,"Ġwaiting":7944,"ĠFox":7945,"utely":7946,"Ac":7947,"ĠHig":7948,"Ġfrag":7949,"110":7950,"ABLE":7951,"ĠHT":7952,"Ġperspective":7953,"Ġalleged":7954,"Version":7955,"ĠSeason":7956,"Ġwealth":7957,"ĠCirc":7958,"Ġacknow":7959,"Ġsections":7960,"Ġphotos":7961,"}^{-":7962,"Ġhoriz":7963,"dim":7964,"evin":7965,"Ġremark":7966,"ĠCost":7967,"Ġhouses":7968,"Ġactress":7969,"ĠWilson":7970,"Ġindicate":7971,"Ġexplore":7972,"SL":7973,"ĠPhot":7974,"ĠNet":7975,"anes":7976,"Ġ{@":7977,"ĠCorporation":7978,"Sl":7979,"Ġpropag":7980,"Sche":7981,"Ġregistered":7982,"VER":7983,"Ġgar":7984,"Ġeigen":7985,"ĠIllinois":7986,"Ġportion":7987,"udes":7988,"ĠEth":7989,"just":7990,"Ġcaught":7991,"achus":7992,"Ġreaction":7993,"Ġscatter":7994,"ĠSupp":7995,"asters":7996,"hr":7997,"example":7998,"Ġincred":7999,"1971":8000,"Ġpromin":8001,"ĠSoviet":8002,"ĠEdward":8003,"ffect":8004,"ifts":8005,"DI":8006,"Ġvent":8007,"sup":8008,"Stat":8009,"Ġurban":8010,"Ġwidely":8011,"National":8012,"ME":8013,"ĠHong":8014,"eman":8015,"Ġbridge":8016,"Ġorders":8017,"Ġcompare":8018,"Create":8019,"src":8020,"Ġapproved":8021,"Theta":8022,"Ġbow":8023,"ĠIss":8024,"Ġkeeping":8025,"apore":8026,"Ġrepeated":8027,"Two":8028,"Ġmel":8029,"king":8030,"\\\"":8031,"ĠBBC":8032,"Ġ$\\{":8033,"people":8034,"Ġdefinitely":8035,"ĠModel":8036,"ĠAnother":8037,"Ġdegrees":8038,"Pop":8039,"Ġlargely":8040,"Ġmedal":8041,"Ġfootballers":8042,"num":8043,"Sty":8044,"lements":8045,"Arg":8046,"Ġestate":8047,"Ġreaders":8048,"Aust":8049,"format":8050,"support":8051,"Ġprepared":8052,"ĠLie":8053,"Ġstrongly":8054,"eral":8055,"ez":8056,"Ġcalculated":8057,"Ġindustrial":8058,"Ġaudio":8059,"Ġhonor":8060,"formance":8061,"Ġcarbon":8062,"Ġphenomen":8063,"ĠDonald":8064,"anth":8065,"Ġsoul":8066,"Ġvideos":8067,"1969":8068,"Ġcauses":8069,"forcement":8070,"ĠStation":8071,"ologist":8072,"riate":8073,"encing":8074,"Pat":8075,"Ġawards":8076,"Ġhaven":8077,"Ġbomb":8078,"ĠVideo":8079,"Ġpackage":8080,"WE":8081,"ĠCorn":8082,"Ġassociation":8083,"Ġcustomer":8084,"Further":8085,"mt":8086,"istant":8087,"ĠAL":8088,"Ġsolar":8089,"bass":8090,"show":8091,"Ġactors":8092,"Ġnearby":8093,"ĠUnivers":8094,"Ġabsor":8095,"});":8096,"Ġcreative":8097,"arc":8098,"aine":8099,"Ġspons":8100,"Ġnegot":8101,"$_":8102,"emble":8103,"ewidth":8104,"ĠAnth":8105,"Ġminim":8106,"Ġanalyt":8107,"aret":8108,"Ġoffset":8109,"Ġregime":8110,"Ø§":8111,"Ġwestern":8112,"VID":8113,"Dec":8114,"imer":8115,"ĠMoreover":8116,"Ġorient":8117,"Ġarbitr":8118,"}},":8119,"Ġmechanism":8120,"ĠEst":8121,"ĠLtd":8122,"Ġdecade":8123,"Ġengineering":8124,"ĠInit":8125,"Ġsac":8126,"ĠBattle":8127,"ĠMajor":8128,"ĠGi":8129,"PH":8130,"ĠPen":8131,"ello":8132,"nections":8133,"SON":8134,"push":8135,"high":8136,"inds":8137,"ĠMicrosoft":8138,"Ġvolunte":8139,"Ġparallel":8140,"ori":8141,"Ġrepro":8142,"Ġsurg":8143,"Ġheav":8144,"ipping":8145,"ĠRa":8146,"Ġban":8147,"Ġangle":8148,"ouble":8149,"istration":8150,"tered":8151,"Ġbrings":8152,"ĠMir":8153,"Ev":8154,"{$":8155,"Ġreli":8156,"ĠMult":8157,"Ġstanding":8158,"elete":8159,"Ġspl":8160,"Ġadopted":8161,"Ġcoal":8162,"texttt":8163,"ĠNon":8164,"Ġment":8165,"Ġexperienced":8166,"Ġagents":8167,"istical":8168,"Ġperman":8169,"white":8170,"ĠConf":8171,"prise":8172,"<\\":8173,"Ġoppos":8174,"refix":8175,"Ġfundamental":8176,"ocus":8177,"English":8178,"Ġpod":8179,"isted":8180,")/":8181,"Ġprices":8182,"ĠBa":8183,"pop":8184,"Ġfiction":8185,"meta":8186,"ugby":8187,"grade":8188,"1930":8189,"vard":8190,"onia":8191,"Ġpriv":8192,"ontal":8193,"Ġloop":8194,"erves":8195,"Ġjudge":8196,"FR":8197,"Ġdebate":8198,"Ġoccurs":8199,"phia":8200,"ĠWindows":8201,"hire":8202,"worth":8203,"Ġnarrow":8204,"1940":8205,"Ġbroken":8206,"vements":8207,"ami":8208,"Ġmir":8209,"Ġflux":8210,"ĠCapt":8211,"abil":8212,"achusetts":8213,"MD":8214,".âĢĻ":8215,"Nov":8216,"SR":8217,"ĠBad":8218,"Any":8219,"Ġvot":8220,"Ġestimates":8221,"UI":8222,"Ġmomentum":8223,"world":8224,"lers":8225,"ĠRod":8226,"Ġsoc":8227,"elli":8228,"ordan":8229,"Ġprimarily":8230,"Ġmort":8231,"ĠFre":8232,"Current":8233,"ĠBon":8234,"Ġreceiving":8235,"Ġintroduce":8236,"Ġbass":8237,"ĠLabor":8238,"lik":8239,"Task":8240,"Ġcomedy":8241,"Ġlose":8242,"imary":8243,"eli":8244,"ĠOR":8245,"erg":8246,"Ġiron":8247,"Ġearned":8248,"endif":8249,"ĠExecutive":8250,"Ġsubset":8251,"ĠMedicine":8252,"Ġsubsc":8253,"ilation":8254,"Row":8255,"Select":8256,"footnote":8257,"Ġconcerned":8258,"ĠSign":8259,"Ġparticle":8260,"NO":8261,"Ġicon":8262,"IB":8263,"Ġfeaturing":8264,"sign":8265,"Ġhidden":8266,"Ġmarked":8267,"ĠEnt":8268,"Ġprofessor":8269,"ĠAk":8270,"Ġgreatest":8271,"ĠPlease":8272,"Ġroles":8273,"oured":8274,"ni":8275,"Ġversions":8276,"card":8277,"frame":8278,"ĠÂ·":8279,"Â°":8280,"Ġrelationships":8281,"Ġpolitician":8282,"response":8283,"Ġcycl":8284,"Ġcontemporary":8285,"Search":8286,"asi":8287,"gorithms":8288,"Ġreader":8289,"eah":8290,"ĠLatin":8291,"Ġgender":8292,"ĠUr":8293,"ito":8294,"Ġhistoric":8295,"Ġbatter":8296,"ĠPers":8297,"itled":8298,"called":8299,"Ġrul":8300,"Ġtasks":8301,"Ġdomestic":8302,"idae":8303,"adelphia":8304,"(&":8305,"Ġconven":8306,"Ġ\\;":8307,"Ġsudden":8308,"Ġlay":8309,"range":8310,"Const":8311,"Ġsurrounding":8312,"Ġprotein":8313,"conf":8314,"Ġabuse":8315,"Ġ(-":8316,"ĠCase":8317,"rat":8318,"instance":8319,"yo":8320,"ĠOp":8321,"Ġarms":8322,"ĠMic":8323,"ĠClark":8324,"Ġcloser":8325,"awn":8326,"Location":8327,"rypt":8328,"oplus":8329,")|":8330,"{{":8331,"ĠSa":8332,"rant":8333,"outs":8334,"isa":8335,"Ġrecognized":8336,"Ġoptimal":8337,"Ġsuccessfully":8338,"Ġindicates":8339,"abb":8340,"Ġlimits":8341,"ressive":8342,"Ġworse":8343,"Ġpolynomial":8344,"ĠViet":8345,"ĠTerm":8346,"ĠAT":8347,"Ġpenal":8348,"ĠElizabeth":8349,"una":8350,"ego":8351,"Ġintelligence":8352,"Ġpassion":8353,"FONT":8354,"Ġflex":8355,"update":8356,"inv":8357,"Ġresponsibility":8358,"iable":8359,"Ġvacc":8360,"${":8361,"Ġbounded":8362,"Tem":8363,"ĠOnce":8364,"Ã±":8365,"Ġproport":8366,"Ġstatistics":8367,"second":8368,"ĠWars":8369,"Ġbringing":8370,"Ġpassing":8371,"Ġsecure":8372,"Ð»":8373,"////////////////":8374,"Ġfilled":8375,"ĠEngineering":8376,"ĠCook":8377,"navbar":8378,"thur":8379,"mic":8380,"aligned":8381,"_*":8382,"ruption":8383,"iated":8384,"1967":8385,"Ġstopped":8386,"Ġhumans":8387,"Ġmeasurements":8388,"Ġinfrastructure":8389,"Ġskin":8390,"Ġminister":8391,"Ġparticipants":8392,"ĠAvenue":8393,"Ġwinter":8394,"URL":8395,"ĠMap":8396,"Early":8397,"avor":8398,"Ġinvolving":8399,"1945":8400,"btn":8401,"Format":8402,"ĠRepresent":8403,"Ġswe":8404,"ĠColumbia":8405,"ropy":8406,"Init":8407,"Ġcash":8408,"Well":8409,"Ġinternet":8410,"leton":8411,"Ġce":8412,"Ġsecondary":8413,"Ġresearchers":8414,"umes":8415,"unting":8416,"Ġassumed":8417,"cut":8418,"Ġreplace":8419,"eness":8420,"ingle":8421,"ĠCommon":8422,"Ġlit":8423,"CON":8424,"Ġvertex":8425,"ĠJesus":8426,"Ġ\\(":8427,"Ġprotocol":8428,"$(":8429,"unit":8430,"ĠLook":8431,"istent":8432,"Ġepisodes":8433,"Ġassigned":8434,"ĠMO":8435,"ĠNC":8436,"pet":8437,"ennes":8438,"Ġped":8439,"ĠDam":8440,"ĠMarg":8441,"Ġpossibility":8442,"iamond":8443,"mut":8444,"GA":8445,"Ġchannels":8446,"101":8447,"cf":8448,"Ġstorm":8449,"aints":8450,"Ġtopic":8451,"ĠDaily":8452,"linewidth":8453,"Ġdistingu":8454,"Ġdynamic":8455,"Equals":8456,"Ġgauge":8457,"subseteq":8458,"Ġton":8459,"ĠStephen":8460,"aga":8461,"ceived":8462,"else":8463,"Ġmotiv":8464,"Ġguard":8465,"Ġlanguages":8466,"Oh":8467,"Ġshares":8468,"Ġdepending":8469,"ogg":8470,"Ġfra":8471,"Ġchart":8472,"bas":8473,"ĠAccess":8474,"ĠMP":8475,"attice":8476,"Ġhonest":8477,"Ġpert":8478,"Ġdelivery":8479,"Ġprogramme":8480,"Ġliqu":8481,"Ġcircle":8482,"aug":8483,"Ġefficiency":8484,"desc":8485,"sex":8486,"ĠDigital":8487,"ĠLocal":8488,"AY":8489,"Tag":8490,"SM":8491,"Care":8492,"Ġmoments":8493,"ĠMember":8494,"ĠJam":8495,"Address":8496,"Ġsubt":8497,".;":8498,"construct":8499,"irk":8500,"âĢĻ.":8501,"Ġinteractions":8502,"ensed":8503,"render":8504,"Ġacceler":8505,"Description":8506,"ĠPy":8507,"Ġoccasion":8508,"Ġvocals":8509,"Ġemission":8510,"essions":8511,"icial":8512,"ĠAdam":8513,"Ġ$|":8514,"ĠVictoria":8515,"Ġeasier":8516,"kes":8517,"ulpt":8518,"Ġinstitution":8519,"ĠCommunic":8520,"AF":8521,"sor":8522,"Ġfont":8523,"Ġdispl":8524,"Ġperforming":8525,"Ġserves":8526,"Ġalongside":8527,"Ġzone":8528,"ĠRon":8529,"ĠHom":8530,"Ġagric":8531,"ĠNick":8532,"Ġrecognition":8533,"Ġedges":8534,"Ġlicense":8535,"ivial":8536,"1965":8537,"ĠRaj":8538,"Ġdoctor":8539,"Ġcompre":8540,"Ġreligion":8541,"Ġminute":8542,"Ġcapture":8543,"ĠDavis":8544,"aska":8545,"inating":8546,"ĠON":8547,"ACK":8548,"container":8549,"Ver":8550,"Ġextent":8551,"ĠHence":8552,"ĠMatt":8553,"Case":8554,"wing":8555,"Ġtransformation":8556,"Ġabsolute":8557,"Ã¢":8558,"Ġclassification":8559,"ĠOxford":8560,"1964":8561,"Ġopposite":8562,"Ġgap":8563,"ĠArea":8564,"ĠBall":8565,"hu":8566,"Ġadult":8567,"OK":8568,"Ġdropped":8569,"Ġstatements":8570,"Ġstands":8571,"Ġspeaking":8572,"Ġfraction":8573,"iary":8574,"ixture":8575,"Mr":8576,"Ġrent":8577,"Ġfeels":8578,"\"=>":8579,"cale":8580,"ĠNext":8581,"writer":8582,"dy":8583,"imensions":8584,"Ġdescribes":8585,"common":8586,"ttp":8587,"ocks":8588,"Ġshooting":8589,"Ġpoliticians":8590,"./":8591,"fortunately":8592,"setminus":8593,"ĠIslands":8594,"redit":8595,"1920":8596,"Best":8597,"ĠSaf":8598,"operation":8599,"oven":8600,"PO":8601,"Ġclust":8602,"ĠSon":8603,"ĠBru":8604,"ffee":8605,"Ġships":8606,"ĠBand":8607,"Ġnob":8608,"Ġacquired":8609,"Ġcontrovers":8610,"ownt":8611,"^{-\\":8612,"Ġpromote":8613,"Dep":8614,"ĠÂ©":8615,"nesota":8616,"Cor":8617,"osa":8618,"Ġwilling":8619,"Ġinsurance":8620,"Ġcas":8621,"Ġdecay":8622,"owa":8623,"ĠHREF":8624,"Ġcorporate":8625,"ĠðŁ":8626,"ĠMinistry":8627,"Ġrecip":8628,"Ġfill":8629,"bles":8630,"Valid":8631,"Ġdelivered":8632,"Ġenable":8633,"Ġelev":8634,"Ġ($\\":8635,"âĢĻ,":8636,"Ġlosing":8637,"ĠMassachusetts":8638,"definition":8639,"Ġscholar":8640,"Ġmatters":8641,"ascript":8642,"Ġclosely":8643,"Ġworst":8644,"thew":8645,"Ġpatterns":8646,"Ġfamiliar":8647,"Ġfunctional":8648,"neg":8649,"ĠDark":8650,"Ġcontrolled":8651,"icious":8652,"Ġexpon":8653,"Ġpublication":8654,"Ġbands":8655,"ĠExper":8656,"Ġsoldiers":8657,"issions":8658,"Ġconfirm":8659,"indu":8660,"ï¿":8661,"ĠJean":8662,"ĠChampionships":8663,"aver":8664,"Ġathlet":8665,"Ġwarn":8666,"ĠMill":8667,"mo":8668,"ĠGovernor":8669,"Length":8670,"ĠDutch":8671,"ĠSpec":8672,"ĠSC":8673,"Ġtag":8674,"del":8675,"ĠToronto":8676,"ĠForest":8677,"Ġexplan":8678,"ictionary":8679,"Ġnewly":8680,"Ġconfidence":8681,"BU":8682,"Ġorganized":8683,"enter":8684,"Ġweapons":8685,"Ġinequality":8686,"Non":8687,"shift":8688,"ĠPortug":8689,"ĠConnect":8690,"Ġblocks":8691,"Ġflood":8692,".'":8693,"Ġmanage":8694,"Ġdivided":8695,"layout":8696,"fast":8697,"Ġurl":8698,"Ġsquad":8699,"Tags":8700,"Ġevaluation":8701,"Ġafford":8702,"Ġtechnique":8703,"University":8704,"ĠThrough":8705,"sol":8706,"Level":8707,"ĠWel":8708,"consin":8709,"Ġradius":8710,"Ġsand":8711,"Tube":8712,"ĠAPI":8713,"arry":8714,"Ġaccounts":8715,"Ġassumption":8716,"Local":8717,"ĠCru":8718,"ainer":8719,"engers":8720,"Sum":8721,"ĠAli":8722,"islation":8723,"Every":8724,"Sign":8725,"URE":8726,"yers":8727,"Ġtechnologies":8728,"ï¿½":8729,"ĠCR":8730,"olis":8731,"Results":8732,"ols":8733,"Ġpra":8734,"anner":8735,"wedge":8736,"ses":8737,"Ġprivacy":8738,"Jo":8739,"Update":8740,"ĠCas":8741,"Ġaccurate":8742,"ympt":8743,"ĠOnline":8744,"ĠUsing":8745,"Ġintegral":8746,"abet":8747,"!\"":8748,"sect":8749,"ĠBrad":8750,".$":8751,"Ġarts":8752,"Right":8753,"ERR":8754,"Ðº":8755,"ĠDNA":8756,"Ġescape":8757,"cases":8758,"Ġtheoret":8759,"Ġmil":8760,"organ":8761,"ĠRequ":8762,"ĠCountry":8763,"named":8764,"adesh":8765,"Ġpartial":8766,"Ġdrugs":8767,"BR":8768,"ĠControl":8769,"izz":8770,"rons":8771,"ĠĠĠĠĠĠĠĠĠĠĠĠĊ":8772,"ĠHay":8773,"Ġwire":8774,"ĠSanta":8775,"clos":8776,"Ġbodies":8777,"ixel":8778,"ĠAlexander":8779,"Ġfifth":8780,"Christ":8781,"Ġconstraints":8782,"MT":8783,"Ġaid":8784,"task":8785,"Ġindicated":8786,"ĠScottish":8787,"Controller":8788,"ĠBat":8789,"=(":8790,"Ġvul":8791,"STR":8792,"Mat":8793,"ĠEvent":8794,"menu":8795,"Ġchapter":8796,"Ġexcited":8797,"Another":8798,"arser":8799,"Track":8800,"ĠOnt":8801,"brid":8802,"Ġarrested":8803,"Sw":8804,"Ġhole":8805,"His":8806,"hered":8807,"Ġproud":8808,"Ġgather":8809,"rog":8810,"Ġcampus":8811,"Ġhall":8812,"Ġwins":8813,"aria":8814,"ĠRest":8815,"Ġvisible":8816,"Filter":8817,"Ġputting":8818,"Output":8819,"scope":8820,"hav":8821,"Ġsigns":8822,"Ġ$[":8823,"aki":8824,"Ġscenes":8825,"\\}":8826,"ructions":8827,"ĠBlog":8828,"Ġteen":8829,"Access":8830,"Ġending":8831,"ĠSydney":8832,"ĠWatch":8833,"Although":8834,"Ġcookies":8835,"Ġunable":8836,"ĠWhere":8837,"Ġmask":8838,"1966":8839,"Ġfat":8840,"Ġrural":8841,"Ġmessages":8842,"ĠBra":8843,"Tra":8844,"ĠDead":8845,"sky":8846,"ouston":8847,"params":8848,"Ġasking":8849,"DD":8850,"herent":8851,"irms":8852,"ĠRight":8853,"ĠYes":8854,"Ġsharing":8855,"rance":8856,"kit":8857,"Ġmodified":8858,"ĠMagazine":8859,"stood":8860,"ĠCON":8861,"ĠCLASS":8862,"rizona":8863,"ĠAst":8864,"prov":8865,"serve":8866,"tree":8867,"Ġultimately":8868,"Ġoperated":8869,"ĠVen":8870,"iversary":8871,"Ġsimulation":8872,"iami":8873,"een":8874,"ĠObs":8875,"Ġcab":8876,"bourne":8877,"Dem":8878,"Ġbought":8879,"ollary":8880,"ĠBol":8881,"missions":8882,"Ġlegisl":8883,"Ġtaught":8884,"ĠEs":8885,"Ġtitles":8886,"Ġcomposed":8887,"Ġpersonnel":8888,"ĠTam":8889,"Ġcovers":8890,"Ġconvent":8891,"low":8892,"Notes":8893,"Author":8894,"Ġapproximation":8895,"ĠBerlin":8896,"ĠFile":8897,"hensive":8898,"Ġeat":8899,"Ġmountain":8900,"Ġris":8901,"Ġextensive":8902,"output":8903,"Yes":8904,"Unit":8905,"Br":8906,"ellect":8907,"chron":8908,"ĠStaff":8909,"icide":8910,"Dev":8911,"std":8912,"Ġtight":8913,"Ġcoupling":8914,"Ġstone":8915,"Column":8916,"images":8917,"Ġhundreds":8918,"Ġrain":8919,"Ġyes":8920,"Ġfly":8921,"ĠNations":8922,"boy":8923,"Ġdangerous":8924,"ogene":8925,"Ġsymmetry":8926,"Ġseeking":8927,"filter":8928,"Ġinsert":8929,"super":8930,"ĠSingapore":8931,"Ġsupports":8932,"Ġnewspaper":8933,"kind":8934,"ĠFinally":8935,"Ġkilling":8936,"United":8937,"shop":8938,"Ġprime":8939,"ician":8940,"Ġacid":8941,"Listener":8942,"thon":8943,"ogether":8944,"ĠHistoric":8945,"Ġappeal":8946,"QL":8947,"---":8948,"attr":8949,"ounsel":8950,"ket":8951,"Ġcerem":8952,"Ġlinked":8953,"subfigure":8954,"ĠDate":8955,"Ob":8956,"riptor":8957,"Ġspending":8958,"dx":8959,"ingham":8960,"anchester":8961,"Ġtail":8962,"Long":8963,"vector":8964,"tainment":8965,"_{(":8966,"Ġrig":8967,"float":8968,"Ġfacts":8969,"Ġperformances":8970,"GE":8971,"Ġ$-":8972,"ĠCub":8973,"Ġunf":8974,"Ġdual":8975,"ĠFord":8976,"angers":8977,"Ġcommonly":8978,"Ġaccompl":8979,"DB":8980,"ĠProposition":8981,"ouri":8982,"akh":8983,"Ġcapable":8984,"Ġyounger":8985,"Ġnumerical":8986,"Ġtalks":8987,"Ġfestival":8988,"ĠSuch":8989,"Ġdry":8990,"_+":8991,"COL":8992,"ĠProm":8993,"Ġearn":8994,"Cell":8995,"Ġ[]":8996,"Ġprogramming":8997,"Sch":8998,"Ġforg":8999,"Most":9000,"proto":9001,"aded":9002,"Ġrepresenting":9003,"Ġrecall":9004,"Ġing":9005,"Ġdecide":9006,"omorphism":9007,"Ġtruck":9008,"ospit":9009,"ika":9010,"Ġdefeated":9011,"Ġtelling":9012,"ĠAh":9013,"Po":9014,"Ġcompute":9015,"David":9016,"etherlands":9017,"ĠMiller":9018,"Ġmand":9019,"Ġvess":9020,"Ġregul":9021,"Ġpairs":9022,"Ġstret":9023,"irement":9024,"Ġemergency":9025,"ĠImm":9026,"ĠFac":9027,"([":9028,"ĠHarry":9029,"Bo":9030,"Ġbaby":9031,"ĠSem":9032,"à¦":9033,"Ġworldwide":9034,"direct":9035,"Ġeducational":9036,"Ġeffectively":9037,"Ġmodes":9038,"Supp":9039,"Down":9040,"aron":9041,"ĠProvince":9042,"Ġobjective":9043,"Ġconversation":9044,"aza":9045,"Ġposts":9046,"ĠColorado":9047,"Ġgranted":9048,"Ġprincipal":9049,"achment":9050,"Ġdrawn":9051,"limits":9052,"annot":9053,"Ġimplemented":9054,"ĠSE":9055,"Ġmeasurement":9056,"ĠRyan":9057,"Ġcategories":9058,"Ġvictims":9059,"ĠInstead":9060,"rine":9061,"allow":9062,"Ġgrid":9063,"Ġfrequently":9064,"ĠMarsh":9065,"ĠSoft":9066,"Ġfol":9067,"Ġconsc":9068,"ipeline":9069,"prene":9070,"Ġexplo":9071,"efined":9072,"ĠEric":9073,"Ġteachers":9074,"ĠRome":9075,"Ġtrigger":9076,"ĠĠĠĠĠĠĠĠĠĠĠĠĠĠĠĠĠĠĠĠĠĠĠĠĠĠĠĠĠĠĠĠĠĠĠ":9077,"rency":9078,"Ġsnow":9079,"Pack":9080,"ĠBrian":9081,"PI":9082,"Ġveter":9083,"Brit":9084,"Ġcollaboration":9085,"').":9086,"ynamic":9087,"ĠKnow":9088,"anny":9089,"Ġfiled":9090,"ais":9091,"ĠSant":9092,"Ġcorrelation":9093,"ĠLow":9094,"Ġestablishments":9095,"ibli":9096,"ĠHotel":9097,"Hz":9098,"Ġthoughts":9099,"tenance":9100,"Ġtom":9101,"agues":9102,"Ġclubs":9103,"mem":9104,"imation":9105,"tx":9106,"Ġagencies":9107,"),\\":9108,"Ġextend":9109,"Ġmorph":9110,"Ġretired":9111,"Ġintroduction":9112,"Ġsubsequent":9113,"Ġtroops":9114,"Ġattempts":9115,"Ġtum":9116,"ocated":9117,"\\!\\!":9118,"Ġswim":9119,"person":9120,"isode":9121,"Ġgene":9122,"zero":9123,"ĠShort":9124,"General":9125,"shot":9126,"DO":9127,"Ġmouth":9128,"Ġ**":9129,"Ġpersons":9130,":\\":9131,"Frame":9132,"orry":9133,"Ġarrang":9134,"ymph":9135,"Ġfeedback":9136,"Ġalgorithms":9137,"Ġletters":9138,"Ag":9139,"appoint":9140,"uma":9141,"Return":9142,"iley":9143,"Ġassessment":9144,"lee":9145,"Ġscientists":9146,"Ġdisk":9147,"AGE":9148,"Ġresid":9149,"ĠCreek":9150,"should":9151,"âĢ¦.":9152,"Ġrenew":9153,"DC":9154,"Ġsolo":9155,"Ġreporting":9156,"Ġrailway":9157,"Ġforget":9158,"Style":9159,"ĠMarket":9160,"ĠFull":9161,"ĠTurn":9162,"reprene":9163,"ipality":9164,"Ġcro":9165,"such":9166,"ected":9167,"Ġintern":9168,"remove":9169,"ĠCre":9170,"away":9171,"issue":9172,"regon":9173,"Ġexperts":9174,"1963":9175,"South":9176,"rium":9177,"itivity":9178,"ĠHollywood":9179,"ĠHo":9180,"Ġcraft":9181,"Public":9182,"ĠCambridge":9183,"Ġschedule":9184,"Ġsolve":9185,"Ġsatisfies":9186,"ĠTurkey":9187,"Ġhabit":9188,"Ġrepresentative":9189,"ferred":9190,"Ġabandon":9191,"ĠPhoto":9192,"ederation":9193,"Project":9194,"ĠGro":9195,"Ġcaptured":9196,"Cache":9197,"********************************":9198,"ĠFC":9199,"Ġwhereas":9200,"rell":9201,"Ġintent":9202,"Ġprinciple":9203,"including":9204,"Ġresc":9205,"Ġconsumer":9206,"Ġsimulations":9207,"ĠSav":9208,"Ġtack":9209,"Ġspoke":9210,"agan":9211,"Ġtalent":9212,"ĠInf":9213,"Ġdestroyed":9214,"aus":9215,"lean":9216,"Ġfindings":9217,"Ġtwenty":9218,"Äĩ":9219,"igrants":9220,"Ġimpossible":9221,"Ġmac":9222,"ĠJews":9223,"inite":9224,"Ġpractical":9225,"Also":9226,"Red":9227,"Ġexceed":9228,"ilib":9229,"Stud":9230,"Ġurg":9231,"Ġvotes":9232,"Op":9233,"ĠNFL":9234,"Ġopposition":9235,"ĠHu":9236,"ĠLady":9237,"Ġbehaviour":9238,"TA":9239,"ricts":9240,"Ġpayment":9241,"quir":9242,"tan":9243,"'\\":9244,"Bi":9245,"à¤¾":9246,"dagger":9247,"Ġtransmission":9248,"ĠPhiladelphia":9249,"ĠJenn":9250,"never":9251,"fficients":9252,"ĠChild":9253,"Ġquad":9254,"lights":9255,"pute":9256,"Ġly":9257,"Ġscenario":9258,"ĠHop":9259,"Ġminimal":9260,"ĠMach":9261,"_{{\\":9262,"ĠAdministration":9263,"DR":9264,";\"":9265,"ĠDespite":9266,"########":9267,"jpg":9268,"Ġrevolution":9269,"colon":9270,"ĠEN":9271,"Photo":9272,"ĠBrother":9273,"Ġboys":9274,"Ġbutton":9275,"ĠKat":9276,"HL":9277,"ĠTrue":9278,"Ġencounter":9279,"<?":9280,"GR":9281,"ĠBefore":9282,"oking":9283,"Offset":9284,"News":9285,"uable":9286,"Gen":9287,"Ġ<!--":9288,"Ġcorresponds":9289,"Ġcomposition":9290,"Ġsilver":9291,"ĠNa":9292,"ql":9293,"flu":9294,"Ġstrategies":9295,"ĠJer":9296,"Ġboost":9297,"onal":9298,"endix":9299,"ĠSn":9300,"ricket":9301,"Ġvisitors":9302,"hard":9303,"Ġgod":9304,"ZE":9305,"merce":9306,"si":9307,"Ġobservation":9308,"Ġsad":9309,"GC":9310,"Names":9311,"bigg":9312,"Ġovers":9313,"_.":9314,"Ġremote":9315,"Ġsomewhat":9316,"}}(\\":9317,"Ġabsolutely":9318,"ivals":9319,"ĠBelg":9320,"ĠPalest":9321,"aws":9322,"Ġride":9323,"Click":9324,"ĠGolden":9325,"oes":9326,"Ġcontest":9327,"ci":9328,"ailing":9329,"Ġinstalled":9330,"ĠConst":9331,"'_":9332,"Ġreasonable":9333,"ĠPoland":9334,"Ġfaster":9335,"UK":9336,"Ġcharacteristics":9337,"Ġec":9338,"Ġspatial":9339,"ĠTony":9340,"IGN":9341,"Ġdeclared":9342,"Ġfasc":9343,"Ġtradition":9344,"Ġexercise":9345,"Ġcm":9346,"Ġexpanded":9347,"Mode":9348,"Where":9349,"eld":9350,"icity":9351,"javascript":9352,"unct":9353,"Ġstick":9354,"models":9355,"Ġrestaurant":9356,"entity":9357,"erse":9358,"ĠLiter":9359,"ĠHas":9360,"Ġstrike":9361,"Ġenjoyed":9362,"hol":9363,"Ġbaseball":9364,"Section":9365,"ulus":9366,"Ġselling":9367,"Ġemployed":9368,"Ġmoves":9369,"Ġkit":9370,"ĠPrivacy":9371,"Button":9372,"Ġtranslation":9373,"SN":9374,"Ġdiverse":9375,"Ġgoods":9376,"Ġintegrated":9377,"ĠPay":9378,"Ġvast":9379,"Ġ|\\":9380,"Ġyards":9381,"Pres":9382,"ĠRevolution":9383,"textsc":9384,"Ġvertical":9385,"ĠBC":9386,"ĠLewis":9387,"ĠClinton":9388,"vy":9389,"Ġcallback":9390,"ĠMinnesota":9391,"utr":9392,"ĠPR":9393,"Ġdebt":9394,"ĠTal":9395,"ĠStart":9396,"asty":9397,"Ġmeta":9398,"ded":9399,"Ġneither":9400,"Ġnecessarily":9401,"Ġperturb":9402,"andra":9403,"~$\\":9404,"Ġbuffer":9405,"ĠAnton":9406,"Ġvertices":9407,"%,":9408,"Ġcontrols":9409,"ĠPot":9410,"Ĥ¬":9411,"ĠGallery":9412,"ultane":9413,"esterday":9414,"Ġassistance":9415,"Ġ}\\":9416,"ettings":9417,"ĠClin":9418,"anz":9419,"rase":9420,"ĠIV":9421,"Ġsuit":9422,"ĠExpl":9423,"Ġrelax":9424,"ificate":9425,"Ġwelcome":9426,"ĠChem":9427,"Ġadults":9428,"Ġdiscrim":9429,"anchise":9430,"Mich":9431,"Ġlayers":9432,"Ġconj":9433,"ĠOntario":9434,"iration":9435,"atern":9436,"Ġwaste":9437,"Ġvirt":9438,"you":9439,"Ġwaves":9440,"ĠTransport":9441,"Ġamplit":9442,"Url":9443,"ributed":9444,"Ġdust":9445,"Ġseats":9446,"eties":9447,"ben":9448,"ĠConstitution":9449,"ĠDream":9450,"ĠWisconsin":9451,"Ġresistance":9452,"Mult":9453,"ĠCulture":9454,"1962":9455,"Ġtherapy":9456,"Parameter":9457,"ĠDO":9458,"root":9459,"season":9460,"```":9461,"Ġinterval":9462,"Ġongoing":9463,"Bundle":9464,"utt":9465,"ĠDom":9466,"irth":9467,"yard":9468,"Ġaffili":9469,"âĢī":9470,"Oct":9471,"High":9472,"ĠDun":9473,"ĠPack":9474,"Ġcircumstances":9475,"Åį":9476,"craft":9477,"Ġwonderful":9478,"ordon":9479,"ĠTok":9480,"ĠForeign":9481,"=-":9482,"Ġvisited":9483,"Ġproposal":9484,"................":9485,"mad":9486,"ghan":9487,"elle":9488,"Ġshell":9489,"ublished":9490,"ĠMoh":9491,"Ġspectral":9492,"ĠLes":9493,"ĠBridge":9494,"Ġbanks":9495,"Ġrevenue":9496,"Before":9497,"Ap":9498,"Year":9499,"Ġinvestigate":9500,"ĠHung":9501,"asts":9502,"ibilities":9503,"ĠHeart":9504,"ĠAffairs":9505,"ĠDeath":9506,"Ġsevere":9507,"Ġcensus":9508,"Ġmagic":9509,"eh":9510,"ĠDer":9511,"Ġclar":9512,")_{":9513,"Ġdisappe":9514,"Ġexclud":9515,"Ġgalaxies":9516,"ĠSi":9517,"ĠMand":9518,"BM":9519,"TER":9520,"vo":9521,"uten":9522,"Ġforth":9523,"Ġentity":9524,"ĠBudd":9525,"ĠDisney":9526,"itative":9527,"Ġresulted":9528,"ĠOt":9529,"Ġassets":9530,"Ġhorse":9531,"Ġsole":9532,"Second":9533,"Ġfounder":9534,"ĠOfficer":9535,"Ġinteger":9536,"Ġevil":9537,"ĠPrize":9538,"allet":9539,"ĠSche":9540,"à¸":9541,"Each":9542,"ĠGree":9543,"Ġoptical":9544,"ä¸":9545,"Ġsummary":9546,"Ġhealthy":9547,"Ġlegislation":9548,"hom":9549,"Phone":9550,"ĠGreg":9551,"Ġhypothes":9552,"Aug":9553,"hor":9554,"ĠArgent":9555,"cohol":9556,"PU":9557,"Ġupdates":9558,"Ġphotograph":9559,"Ġsympt":9560,"ĠSab":9561,"ĠSystems":9562,"empty":9563,"Ġobserve":9564,"Ġwalls":9565,"enda":9566,"Ġpilot":9567,"ĠGrant":9568,"rieved":9569,"Ġassistant":9570,"two":9571,"ĠFall":9572,"Ġprominent":9573,"DT":9574,"Ġcopies":9575,"Ġmine":9576,"ĠRose":9577,"acts":9578,"160":9579,"ĠNaz":9580,"Target":9581,"Ġimmediate":9582,"Ġbra":9583,"Ġenhance":9584,"fol":9585,"bot":9586,"Ġquiet":9587,"ĠOcean":9588,"etary":9589,"Ġwalking":9590,"ĠTen":9591,"Ġri":9592,"holder":9593,"Ġthreshold":9594,"Ġmissed":9595,"Ġscheduled":9596,"Ġsky":9597,"ĠOfficial":9598,"~~~~":9599,"]]":9600,"Ġpictures":9601,"control":9602,"Ġuniverse":9603,"Ġstreets":9604,"Ġlots":9605,"Ġexposure":9606,"Que":9607,"Under":9608,"Ġconnections":9609,")\\,":9610,"Ġgift":9611,"Ġconclusion":9612,"ORD":9613,"Ġsuitable":9614,"Ġincreasingly":9615,"drop":9616,"ĠYouTube":9617,"ĠNAS":9618,"Ġbench":9619,"fi":9620,"ellite":9621,"effect":9622,"files":9623,"idelines":9624,"Ġguest":9625,"fire":9626,"ĠChannel":9627,"yal":9628,"ĠFurthermore":9629,"Ġturning":9630,"Ġcombat":9631,"ĠNetherlands":9632,"subsubsection":9633,"Ġprompt":9634,"gments":9635,"bec":9636,"step":9637,"estion":9638,"agg":9639,"Ġintegration":9640,"require":9641,"Ġsuspect":9642,"III":9643,"Ġsuffered":9644,"ĠStock":9645,"Ġaccord":9646,"returns":9647,"Script":9648,"ĠGer":9649,"Ġunderlying":9650,"ells":9651,"ĠSN":9652,"Ġreson":9653,"Str":9654,"esides":9655,"ternoon":9656,"Ġofficially":9657,"ĠStadium":9658,"chestra":9659,"Ġdialog":9660,"1961":9661,"Ġaccommod":9662,"offset":9663,"uz":9664,"amely":9665,"ĠSound":9666,"ĠCustom":9667,"Ġbreaking":9668,"Ġaccused":9669,"wick":9670,"Ġcurves":9671,"Ġfaculty":9672,"Ġwing":9673,"Ġtested":9674,"Ġtotally":9675,"Ġhits":9676,"ĠAgency":9677,"styles":9678,"leted":9679,"dest":9680,"archy":9681,"Ġlegend":9682,"Ġsingles":9683,"Ġlen":9684,"agen":9685,"upp":9686,"Ġcolour":9687,"ĠBuilding":9688,"ĠWinter":9689,"Ġapparently":9690,"Ġoppon":9691,"Ġwear":9692,"rig":9693,"Ġdistributions":9694,"Ġbinary":9695,"Ġ>>":9696,"Ġtemplate":9697,"Ġairport":9698,"BE":9699,"Server":9700,"tect":9701,"%.":9702,"esome":9703,"Ġpapers":9704,"ribed":9705,"Ġsurprise":9706,"ĠTai":9707,"ULT":9708,"Ġstores":9709,"ĠKansas":9710,"Ġdress":9711,"Ġfaces":9712,"Ġsubsequently":9713,"Sk":9714,"adi":9715,"ĠCollection":9716,"Ġexhibition":9717,"Ġmal":9718,"door":9719,"Ġvo":9720,"ĠSO":9721,"ĠJordan":9722,"ĠAz":9723,"ĠKevin":9724,"Write":9725,"ĠBush":9726,"Ġsentence":9727,"system":9728,"sur":9729,"Ġplate":9730,":</":9731,"acent":9732,"ORM":9733,"Ġeastern":9734,"Entry":9735,"ĠNO":9736,"aire":9737,"}^*":9738,"ĠMemorial":9739,"Ġreturning":9740,"ĠArizona":9741,"Ġorb":9742,"ounded":9743,"ĠAtlantic":9744,"Ġimprovement":9745,"LP":9746,"unter":9747,"nie":9748,"perial":9749,"success":9750,"Ġrid":9751,"Ġsignals":9752,"inema":9753,"Layout":9754,"}$-":9755,"1944":9756,"media":9757,"++)":9758,"Ġexplains":9759,"orne":9760,"ĠHoward":9761,"ĠMountain":9762,"access":9763,"Ġsubjects":9764,"brace":9765,")^{\\":9766,"Ġcomputed":9767,"Â®":9768,"Ġplenty":9769,"Types":9770,"ĠEntertainment":9771,"ĠSoc":9772,"Star":9773,"ĠMake":9774,"essed":9775,"Ġillegal":9776,"Ġcovering":9777,"ennessee":9778,"Ġcontribute":9779,"icians":9780,"Ġvulner":9781,"Ġecho":9782,"putation":9783,"Ġphysics":9784,"ĠPrinc":9785,"125":9786,"ĠSky":9787,"Ġcompens":9788,"iat":9789,"Ġtransaction":9790,"ĠNever":9791,"Ġru":9792,"ĠLind":9793,"Ġfacilit":9794,"ĠTurk":9795,"Ġextreme":9796,"Ġstability":9797,"mc":9798,"Ġdriven":9799,"Ġsight":9800,"ĠSite":9801,"ju":9802,"Ġarbitrary":9803,"blem":9804,"uli":9805,"Ġstood":9806,"Ġpurchased":9807,"full":9808,"ĠGil":9809,"ĠLabour":9810,"Ġsingular":9811,"plom":9812,"Ġsitting":9813,"stal":9814,"ĠMrs":9815,"Ġproperly":9816,"Ġpotentially":9817,"Ġemotional":9818,"clusions":9819,"ĠHouston":9820,"Dist":9821,"Ġroof":9822,"Ġfloat":9823,"Ġreserved":9824,"ĠFuture":9825,"Ġpresents":9826,"Please":9827,"Ġmasses":9828,"parse":9829,"Ġconve":9830,"Ġrecommended":9831,"document":9832,"Ġbund":9833,"ĠRoss":9834,"API":9835,"Ġunderstood":9836,"Tree":9837,"Ġtransferred":9838,"Ġdocumentary":9839,"Ġattribute":9840,"endment":9841,"Ġhell":9842,"Ġautomatically":9843,"forward":9844,"quarters":9845,"aux":9846,"Ġapplicable":9847,"()->":9848,"MB":9849,"rible":9850,"Child":9851,"rained":9852,"Ġterritory":9853,"Ġhosted":9854,")}(":9855,"GO":9856,"ĠCond":9857,"Many":9858,"ĠCreat":9859,"ĠReturns":9860,"Vol":9861,"mediate":9862,"Ġcomplexity":9863,"ĠKorean":9864,"Ġcoefficients":9865,"ĠHart":9866,"Ġcommitment":9867,"Ġtempor":9868,"ĠThose":9869,"ĠModern":9870,"elson":9871,"Ġirre":9872,"Ġexcess":9873,"points":9874,"=\"../../":9875,"Ġassault":9876,"Ġexciting":9877,"Ġinterior":9878,"Ġexpensive":9879,"ĠIslamic":9880,"Î±":9881,"Ġoperate":9882,"ĠHal":9883,"Ġ${":9884,"uency":9885,"ITY":9886,"forall":9887,"ĠCab":9888,"Eq":9889,"Ġcards":9890,"ĉĠĠĠ":9891,"Ġemployment":9892,"prototype":9893,"ĠEXP":9894,"cussion":9895,"don":9896,"Ġsculpt":9897,"128":9898,"Ġreferences":9899,"ĠBox":9900,"Ġfab":9901,"MR":9902,"Austral":9903,"ĠMiami":9904,"Ġbroke":9905,"cha":9906,"Ġfacing":9907,"asp":9908,"Thus":9909,"Ġtrail":9910,"lementary":9911,"Ġrobust":9912,"Ġstim":9913,"ĠLeon":9914,"Ġentertainment":9915,"Ġvice":9916,"ĠHoly":9917,"Ġloan":9918,"iot":9919,"Ġgiant":9920,"Ġmillions":9921,"ĠDemocrats":9922,"Ġok":9923,"Ġmob":9924,"Ġstack":9925,"UP":9926,"Ġanalog":9927,"Ġhate":9928,"umin":9929,"ĠSenior":9930,"Ġversus":9931,"ĠAnderson":9932,"Enc":9933,"Ġexport":9934,"Ġchampion":9935,"Ġaxis":9936,"hus":9937,"Ġwinners":9938,"Ġprovince":9939,"Ġpercentage":9940,"isely":9941,"123":9942,"West":9943,"ĠVice":9944,"Ġgrown":9945,"Ġdollars":9946,"ĠJane":9947,"Video":9948,"mal":9949,"Ġnucle":9950,"ĠLag":9951,"cers":9952,"Ġenemy":9953,"ĉĉĊ":9954,"Ġcircuit":9955,"iang":9956,"Ñĥ":9957,"Ġscores":9958,"Ġspan":9959,"Ġbeauty":9960,"owntown":9961,"ĠOlympic":9962,"Ġheads":9963,"Ġmathemat":9964,"coll":9965,"Ġabsence":9966,"match":9967,"opic":9968,"Her":9969,"Dat":9970,"Finally":9971,"NC":9972,"ĠTax":9973,"_{-":9974,"isition":9975,",\\,":9976,"Ġlandscape":9977,"roke":9978,"ĠCrit":9979,"ĠSimon":9980,"antry":9981,"ĠOregon":9982,"Ġpointed":9983,"ĠRailway":9984,"olitan":9985,"Who":9986,"ĠSP":9987,"Ġinvestors":9988,"Ġyellow":9989,"1958":9990,"ĠRegion":9991,"Members":9992,"ĠUkraine":9993,"sto":9994,"blue":9995,"Ġdismiss":9996,"Ġgained":9997,"Ġboat":9998,"newcommand":9999,"Ġopposed":10000,"iac":10001,"aration":10002,"razy":10003,"ĠManchester":10004,"Ġlattice":10005,"Ġchoices":10006,"}%":10007,"ĠIl":10008,"ĠManager":10009,"ĠCapital":10010,"ĠMath":10011,"180":10012,"uther":10013,"Ġevaluate":10014,"Ġsees":10015,"Ġjur":10016,"ĠQueens":10017,"ĠLater":10018,"Ġlift":10019,"Ġsurve":10020,"ĠTR":10021,"Ġdeploy":10022,"Ġrecovery":10023,"Ġpresentation":10024,"UC":10025,"ĠImp":10026,"gov":10027,"Music":10028,"ĠDoctor":10029,"Ġsoci":10030,"ĠMD":10031,"cerning":10032,"Ġmoder":10033,"Order":10034,"alyt":10035,"ĠPremier":10036,"unes":10037,"ĠCreate":10038,"ortion":10039,"Ġsettlement":10040,"otten":10041,"ĠRoll":10042,"idance":10043,"ĠChange":10044,"depend":10045,"ĠProduct":10046,"700":10047,"Ġoutcome":10048,"who":10049,"ropical":10050,"Ġmusicians":10051,"Ġdesire":10052,"Ġduty":10053,"Ġconstitution":10054,"Ġparticipate":10055,"ĠAndroid":10056,"Ġexplos":10057,"lah":10058,"stat":10059,"Ġraces":10060,"Ġpul":10061,"Pass":10062,"ĠAS":10063,"ĠJacob":10064,"ĠTreat":10065,"icate":10066,"rapper":10067,"Ġoverl":10068,"Document":10069,"Ġles":10070,"Ġwrites":10071,"TYPE":10072,"Ġregulations":10073,"Ġsought":10074,"Process":10075,"Ġserial":10076,"Ġbelieves":10077,"overty":10078,"Ġstages":10079,"Ġpresidential":10080,"Ġprediction":10081,"ĠPA":10082,"ĠMarc":10083,"Ġuint":10084,"ĠGarden":10085,"Ġcrash":10086,"ĉĠ":10087,"Ġrotation":10088,"1959":10089,"Ġlect":10090,"Ġdefeat":10091,"ĠEconomic":10092,"Ġdenotes":10093,"ĠRoy":10094,"Ġdesired":10095,"iece":10096,"doi":10097,"Ġtargets":10098,"ighth":10099,"inch":10100,"Ġvon":10101,"ĠPatrick":10102,"Ġdrivers":10103,"Ġdetected":10104,"article":10105,"Ġrub":10106,"Provider":10107,"audi":10108,"Ġseed":10109,"Ġdemonstrated":10110,"Black":10111,"lie":10112,"Ġbigger":10113,"Ġfib":10114,"1939":10115,"construction":10116,"Ġ!==":10117,"Ġcausing":10118,"Ġpregn":10119,"ĠDiego":10120,"make":10121,"ICE":10122,"Control":10123,"Ġprovider":10124,"Ġadvertising":10125,"Ġvoters":10126,"ellectual":10127,"ĠPhilippines":10128,"Ġmm":10129,"ĠMoon":10130,"Ġrear":10131,"None":10132,"Ġ(+":10133,"Ġpitch":10134,"Ġimagine":10135,"vas":10136,"Ġreb":10137,"Ġ+\\":10138,"Ġessentially":10139,"Ġproducing":10140,"artifact":10141,"Ġsimultane":10142,"Ġcriteria":10143,"profit":10144,"ulous":10145,"oust":10146,"jan":10147,"ĠVeg":10148,"Ġaver":10149,"Ġsatisfy":10150,"Ġstored":10151,"Ġgate":10152,"ĠSquare":10153,"ĠContin":10154,"ĠTravel":10155,"Ġuncertainty":10156,"yes":10157,"estyle":10158,"1942":10159,"aturally":10160,"ĠIndones":10161,"ships":10162,"ĠSarah":10163,"kg":10164,"Ġdependence":10165,"rated":10166,"letter":10167,"Ġdiscovery":10168,"amer":10169,"atin":10170,"ĠEmer":10171,"1948":10172,"ĠMaria":10173,"VI":10174,"Ġengaged":10175,"ACT":10176,"zed":10177,"ilst":10178,"1956":10179,"âĢĭ":10180,"defined":10181,"ĠĠĠĠĠĠĠĠĠĠĠĠĠĠĠĠĠĠĠĠĠ":10182,"Ġradiation":10183,"Ġdiversity":10184,"Ġfee":10185,"International":10186,"aze":10187,"Ġrational":10188,"ĠFollowing":10189,"Å¡":10190,"Ġpseud":10191,"Ġvariation":10192,"Ġaggreg":10193,"riers":10194,"ureau":10195,"multi":10196,"enz":10197,"mode":10198,"Ġpainting":10199,"Record":10200,"Ġdimensions":10201,"coln":10202,"ĠFinancial":10203,"oked":10204,"Ġdisp":10205,"Ġraw":10206,"âĢ¦âĢ¦":10207,"ishment":10208,"Ġdemonstrate":10209,"ĠStone":10210,"Ġentitled":10211,"ĠSD":10212,"ĠSimilar":10213,"ĠArray":10214,"rr":10215,"obby":10216,"Ġtheoretical":10217,"Ġexecution":10218,"leges":10219,"RT":10220,"ĠCastle":10221,"Ġadministrative":10222,"stop":10223,"iously":10224,"Ġsurgery":10225,"avel":10226,"ĠMean":10227,"game":10228,"vised":10229,"Configuration":10230,"roit":10231,"Ġconsumers":10232,"Apr":10233,"Ġpermanent":10234,"Ġdeleg":10235,"Ġgenus":10236,"Ġtensor":10237,"Ġauthentic":10238,"uating":10239,"ĠFri":10240,"Ġscalar":10241,"EST":10242,"Ġbin":10243,"dict":10244,"Json":10245,"bool":10246,"Di":10247,"Ġtoken":10248,"'),":10249,"Ġbare":10250,"\\|_{":10251,"Ġprinciples":10252,"holders":10253,"ilibrium":10254,"pmatrix":10255,"exec":10256,"Har":10257,"ĠGh":10258,"Ġshel":10259,"Ġyields":10260,"Ġchose":10261,"Your":10262,"Ġfaced":10263,"Ġmagnitude":10264,"ĠChall":10265,"1957":10266,"Tim":10267,"gressive":10268,"ĠPitt":10269,"Euro":10270,"Change":10271,"Ġsurprising":10272,"Ġsteel":10273,"ikip":10274,"ĠIowa":10275,"ĠIsraeli":10276,"aml":10277,"Ġatmosphere":10278,"agonal":10279,"ĠLimited":10280,"apy":10281,"ĠDuke":10282,"ĠCancer":10283,"Main":10284,"ĠHapp":10285,"uv":10286,"Career":10287,"green":10288,"perp":10289,"ourse":10290,"ĠCaptain":10291,"Ġmit":10292,"Ġafternoon":10293,"ilty":10294,"ĠCorps":10295,"words":10296,"oa":10297,"Ġ::":10298,"Ġinvited":10299,"blog":10300,"ĠNig":10301,"offs":10302,"Ġcolle":10303,"Ġdates":10304,"Ġchallenging":10305,"fly":10306,"Ġattached":10307,"rait":10308,"Ġgrade":10309,"Rad":10310,"Ġconcentration":10311,"Ġliquid":10312,"ĠMilitary":10313,"Ġconclude":10314,"Ġbrowser":10315,"ĠPut":10316,"Ġwed":10317,"Ġlawyer":10318,"ĠFront":10319,"ĠMorris":10320,"1941":10321,"igious":10322,"Ġstead":10323,"ĠSweden":10324,"olly":10325,"zech":10326,"before":10327,"Ġwheel":10328,"emet":10329,"Ġtopics":10330,"cert":10331,"ĠBab":10332,"eping":10333,"Ġlaugh":10334,"Ã£":10335,"inction":10336,"FS":10337,"onna":10338,"ĠJay":10339,"ĠExp":10340,"ĠFOR":10341,"Ġrequests":10342,"Ġinduced":10343,"spir":10344,"rior":10345,"urches":10346,"Ġobviously":10347,"enna":10348,"Ġcomprehensive":10349,"ĠDefense":10350,"dem":10351,"Ġbreath":10352,"Ġmedicine":10353,"Ġteach":10354,")^{-":10355,"ws":10356,"ĠNeed":10357,"urers":10358,"Ġtrav":10359,"Ġtall":10360,"ĠTech":10361,"Ġ{}":10362,"Ġvoted":10363,"Ġpiano":10364,"product":10365,"Ġhappening":10366,"ĠMatthew":10367,"results":10368,"Ġwine":10369,"North":10370,"Ġdisappoint":10371,"Ġtemperatures":10372,"Ġfactory":10373,"ĠNorm":10374,"Ġcoinc":10375,"Ġrein":10376,"omer":10377,"Ġamb":10378,"Range":10379,"holds":10380,"Ġstruggle":10381,"abama":10382,"ĠDave":10383,"Ġlocally":10384,"Ġapplying":10385,"also":10386,"Left":10387,"ategor":10388,"esis":10389,"Ġhockey":10390,"Ġsevent":10391,"ĠAnthony":10392,"ĠCommand":10393,"Ġpicked":10394,"ĠDid":10395,"inking":10396,"(_":10397,"Ġbear":10398,"Ke":10399,"MI":10400,"Ġdifferential":10401,"Ġthin":10402,"ĠSingh":10403,"df":10404,"Ġsweet":10405,"ĠAC":10406,"Ġtrouble":10407,"Ġflying":10408,"Ġrooms":10409,"bat":10410,"ĠHur":10411,"fields":10412,"types":10413,"mers":10414,"Look":10415,"Ġcompat":10416,"ĠEdition":10417,"Ġinjured":10418,"Ġstellar":10419,"360":10420,"ostic":10421,"phant":10422,"ĠSearch":10423,"Ġegg":10424,"ĠText":10425,"Width":10426,"lix":10427,"classes":10428,"Properties":10429,"Ġbeam":10430,"ĠLO":10431,"Ġpublisher":10432,"Ġalive":10433,"Using":10434,"inals":10435,"Ġrealized":10436,"Use":10437,"ĠThanks":10438,"Ġfoundation":10439,"odge":10440,"1955":10441,"Del":10442,"ĠDor":10443,"ĠRecord":10444,"Sports":10445,"bling":10446,"ĠMissouri":10447,"ĠStudy":10448,"ĠMaryland":10449,"Ġpredicted":10450,"ĠTennessee":10451,"ĠDick":10452,"Step":10453,"Ġdescent":10454,"Ġcommunications":10455,"Arch":10456,"Ġheavily":10457,"Reference":10458,"Ġunus":10459,"ĠPract":10460,"Only":10461,"ĠOs":10462,"ĠAfghan":10463,"Ġcontainer":10464,"Ġcha":10465,"ĠFI":10466,"ĠTrade":10467,"Ġentries":10468,"Mc":10469,"mi":10470,"Ġmanip":10471,"hang":10472,"Ġpulled":10473,"token":10474,"Spe":10475,"ĠPath":10476,"allas":10477,"256":10478,"$$\\":10479,"Ġrefuge":10480,"Ġjournalist":10481,"Ġcoordinates":10482,"Ġtough":10483,"ĠHan":10484,"ĠAllen":10485,"Ġabund":10486,"ĠScient":10487,"template":10488,"ikipedia":10489,"Ġsignature":10490,"Ġapproval":10491,"Ġprocedures":10492,"1943":10493,"Ġturb":10494,"ĠAI":10495,"Ġrefers":10496,"ĠLA":10497,"ĠCart":10498,"ĠFa":10499,"Ġinnovation":10500,"rik":10501,":\"":10502,"sters":10503,"ĠPier":10504,"Ġinvent":10505,"igenous":10506,"ĠFarm":10507,"Ġmanufacturing":10508,"actic":10509,"Cast":10510,"Ġpermission":10511,"wall":10512,"weg":10513,"Ġadvis":10514,"sett":10515,"incess":10516,"Ġbon":10517,"Ġpreced":10518,"making":10519,"Ant":10520,"ĠResources":10521,"Serial":10522,"Ġconservation":10523,"Pos":10524,"Ġracing":10525,"}}^":10526,"Ġlists":10527,"Ġmedian":10528,"Ġinterpretation":10529,"Films":10530,"Ġattorney":10531,"Ġpasses":10532,"Ġlabels":10533,"ĠAnne":10534,"Ġcarrying":10535,"remark":10536,"Ġinteract":10537,"uted":10538,"Ġflo":10539,"Container":10540,"Ã¡n":10541,"ĠFA":10542,"ologists":10543,"Ġnovels":10544,"ĠArthur":10545,"})$.":10546,"Ġmapping":10547,"aton":10548,"=\"-":10549,"ponents":10550,"Header":10551,"peror":10552,"ĠVietnam":10553,"Ġappearances":10554,"British":10555,"docs":10556,"ĠEver":10557,"Ġinvolves":10558,"Ġcompetitive":10559,"Ġrect":10560,"ificial":10561,"Ġvoting":10562,"atar":10563,"Ġcontinuing":10564,"ptic":10565,"pot":10566,"ĠBry":10567,"ĠEditor":10568,"ĠCurrent":10569,"vari":10570,"onder":10571,"oly":10572,"Ġthermal":10573,"irection":10574,"ĠIndiana":10575,"Ġdecom":10576,"Ġplatforms":10577,"IVE":10578,"Ġcrucial":10579,"ĠMit":10580,"aware":10581,"ĠJoh":10582,"HA":10583,"^{+":10584,"cache":10585,"ĠYouth":10586,"Ġrealize":10587,")\\\\":10588,"picture":10589,"wich":10590,"130":10591,"Ġpy":10592,"Ġconvergence":10593,"ĠBarn":10594,"ĠTake":10595,"Ġjoining":10596,"ĠPlace":10597,"vs":10598,"ĠOak":10599,"ĠIndex":10600,"tri":10601,"Ġancest":10602,"{$\\":10603,"tw":10604,"ĠGard":10605,"agnetic":10606,"fficial":10607,"mass":10608,"ĠVi":10609,"ulator":10610,"Ġupcoming":10611,"Ġinher":10612,"resource":10613,"witzer":10614,"Ġtheories":10615,"iga":10616,"1947":10617,"1946":10618,"ĠLib":10619,"ĠFind":10620,"ĠMoore":10621,"screen":10622,"eland":10623,"Ġseriously":10624,"Ġinvariant":10625,"Ġargs":10626,"Ġdecor":10627,"global":10628,"Ġsubsid":10629,"Ġhat":10630,"HC":10631,"isting":10632,"$).":10633,"ANT":10634,"Ġreward":10635,"arest":10636,"Ġnarrative":10637,"emetery":10638,"forms":10639,"Ġlaid":10640,"hs":10641,"Ġbrothers":10642,"Ġmo":10643,"Ġtrib":10644,"Ġlisting":10645,"store":10646,"ĠCE":10647,"ĠValue":10648,"home":10649,"Entity":10650,"ĠMalays":10651,"Ġpopulations":10652,"Ġholiday":10653,"Ġregularly":10654,"Ġrisks":10655,"Ġslowly":10656,"asm":10657,"Ġstatistical":10658,"agu":10659,"ĠNob":10660,")\"":10661,"isations":10662,"ĠMaybe":10663,"Find":10664,"VAL":10665,"Ġcatalog":10666,"Ġacknowled":10667,"Ġmock":10668,"Ġaccessible":10669,"Ġourselves":10670,"ĠAG":10671,"ĠKhan":10672,"ĠArchitect":10673,"Ġabstract":10674,"rolling":10675,"duce":10676,"Ġranked":10677,"rang":10678,"ĠProcess":10679,"Free":10680,"Ġcoffee":10681,"Ġblow":10682,"Ġbias":10683,"Ġ$$":10684,"bad":10685,"Ġexposed":10686,"]);":10687,"Ang":10688,"election":10689,"pres":10690,"umps":10691,"formed":10692,"1954":10693,"ifferent":10694,"Ġoffices":10695,"Ġparliament":10696,"zy":10697,"Associ":10698,"Ġkil":10699,"ĠTraining":10700,"Ġlowest":10701,"Ġroyal":10702,"Ġstronger":10703,"Ġconsequences":10704,"master":10705,"Utils":10706,"Stand":10707,"ĠSilver":10708,"Interface":10709,"ĠAuthority":10710,"Ġrefused":10711,"Ġexplanation":10712,"ĠIndeed":10713,"ĠAssert":10714,"Ġwarning":10715,"ĠYet":10716,"Ġgay":10717,"Empty":10718,"ĠEc":10719,"Ġvocal":10720,"Ġmedic":10721,"ĠStill":10722,"ĠMun":10723,"uscript":10724,"Ġbounds":10725,"ĠImage":10726,"ycl":10727,"mont":10728,"lahoma":10729,"cp":10730,"Ġpartition":10731,"$^{-":10732,"ĠJason":10733,"ĠRick":10734,"Ġreaching":10735,"Ġsick":10736,"Ġcharacteristic":10737,"scill":10738,"otte":10739,"eren":10740,"reference":10741,"'}":10742,"Ġbehalf":10743,"ĠPsych":10744,"uy":10745,"Ġsensitive":10746,"Ġpromise":10747,"Ġinformed":10748,")_":10749,"closed":10750,"witzerland":10751,"ĠPRO":10752,"Ġcomputation":10753,"Even":10754,"reement":10755,"iest":10756,"bullet":10757,"ĠDoes":10758,"ante":10759,"Ġhur":10760,"ĠHave":10761,"NAME":10762,"ĠPlaces":10763,"erk":10764,"Member":10765,"Ġinhib":10766,"bet":10767,"plus":10768,"CODE":10769,"elect":10770,"ĠWas":10771,"1952":10772,"ĠKr":10773,"Ġgro":10774,"ĠSU":10775,".~(\\":10776,"ista":10777,"Ġadds":10778,"sime":10779,")}{\\":10780,"Ġpromoted":10781,"Ġmaintenance":10782,"Ġresponses":10783,"unning":10784,"Ġcancell":10785,"acking":10786,"oscow":10787,"ĠBh":10788,"dam":10789,"Ġmeetings":10790,"Ġdepos":10791,"ATH":10792,"WA":10793,"Ġobj":10794,"anga":10795,"artifactId":10796,"lan":10797,"ctic":10798,"Ġfraud":10799,"Ġknock":10800,"Ġgarden":10801,"ĠSport":10802,"Ġgrass":10803,"Ġur":10804,"simeq":10805,"Ġenforcement":10806,"ERE":10807,"Ġcontrad":10808,"mb":10809,"Ġwearing":10810,"HR":10811,"Var":10812,"ĠWolf":10813,"earing":10814,"ĠPa":10815,"Ġimpressive":10816,"elihood":10817,"ĠBuck":10818,"ski":10819,"=\"../../../../../":10820,"Thread":10821,"ĠSyria":10822,"Ġconsumption":10823,"ters":10824,"onymous":10825,"Host":10826,"Ġrecept":10827,"Ġemployee":10828,"END":10829,"Ġsending":10830,"ĠDVD":10831,"Ġinhab":10832,"Ġhorror":10833,"Ġinjuries":10834,"ĠBan":10835,"Ġsituations":10836,"ĉĉĉĉĉĉĉ":10837,"Ġdestination":10838,"ometimes":10839,"Ġcontributed":10840,"Ġnamely":10841,"ASE":10842,"ĠAdvent":10843,"ĠNorway":10844,"Ġlistening":10845,"heet":10846,"Ġmatching":10847,"Ġoverride":10848,"Ġfalls":10849,"Ġsymmetric":10850,"oop":10851,"Ġarc":10852,"ĠRegional":10853,"ĠSix":10854,"Ġtheatre":10855,"ĠAnalysis":10856,"Ġphilosophy":10857,"ĠAmong":10858,"Ġmonitoring":10859,"ĠBalt":10860,"ĠPhill":10861,"Media":10862,"ĠRey":10863,"omorphic":10864,"Ġpresc":10865,"ĠNature":10866,"ĠSeattle":10867,"Ġmembership":10868,"Ġsin":10869,"Ġstrange":10870,"Option":10871,"atherine":10872,"EQ":10873,"Ġpros":10874,"ĠTher":10875,"ĠTel":10876,"Copyright":10877,"outheast":10878,"Ġ>=":10879,"Ġtech":10880,"ĠSmall":10881,"Ġuniversal":10882,"Ġsoil":10883,"Ġvit":10884,"Good":10885,"watch":10886,"Ġcourses":10887,"fall":10888,"Has":10889,"illiant":10890,"Ġfunny":10891,"Ġexclusive":10892,"angel":10893,"Ġrespective":10894,"Ġposter":10895,"Ġrelief":10896,"ĠKa":10897,"Ġouter":10898,"ĠStandard":10899,"Ġgraduate":10900,"Ġsubmitted":10901,"Callback":10902,"itter":10903,"Ġcreates":10904,"closure":10905,"1953":10906,"Ġsymptoms":10907,"Review":10908,"Ġrapidly":10909,"Ġmatrices":10910,"Ġusage":10911,"Ġdiscipl":10912,"intend":10913,"tik":10914,"Ġscoring":10915,"Ġfault":10916,"Ġrating":10917,"Ġcompris":10918,"Ġbeach":10919,"ĠSri":10920,"ĠMS":10921,"Ġawareness":10922,"Ġasympt":10923,"Ġroots":10924,"through":10925,"energy":10926,"Http":10927,"Ġnotable":10928,"ĠShar":10929,"buffer":10930,"equal":10931,"Ġgradient":10932,"Ġadmin":10933,"Ġsizes":10934,"ĠPed":10935,"sea":10936,"mma":10937,"ĠKal":10938,"}}^{":10939,"ĠArticle":10940,"ein":10941,"Ġoptimization":10942,"theless":10943,"Ġgovernments":10944,"orous":10945,"Ġspectra":10946,"rett":10947,"âĨ":10948,"Ġprev":10949,"Ġsetup":10950,"Hash":10951,"hash":10952,"Ġwatched":10953,"UD":10954,"ques":10955,"Ġelig":10956,"Ġfairly":10957,"255":10958,"plan":10959,"Ġjet":10960,"folio":10961,"stance":10962,"family":10963,"Polit":10964,"ĠThird":10965,"ĠPolish":10966,"ĠSM":10967,"ĠRub":10968,"ĠGreece":10969,"ACE":10970,"ĠHD":10971,"Paul":10972,"Ġmaintained":10973,"ĠCole":10974,"Av":10975,"floor":10976,"tah":10977,"ronze":10978,"itis":10979,"Google":10980,"ĠPartners":10981,"Ġencourage":10982,"Ġbott":10983,"Leg":10984,"iva":10985,"Ġpaying":10986,"Settings":10987,"upid":10988,"kh":10989,"uple":10990,"Ġadmitted":10991,"Ġ×":10992,"anka":10993,"Ġdrawing":10994,"Module":10995,"chant":10996,"Ġcomic":10997,"COLOR":10998,">,":10999,"Ġbelief":11000,"clip":11001,"Ġconcerning":11002,"ropolitan":11003,"Ġwaters":11004,"Ġvirus":11005,"ementia":11006,"ois":11007,"ĠLas":11008,"ĠKelly":11009,"ĠJosh":11010,"Ġprofessionals":11011,"Ġmenu":11012,"ĠYears":11013,"William":11014,"Ġcompletion":11015,"Ġconsideration":11016,"Ġvectors":11017,"ĠRoom":11018,"burn":11019,"dependent":11020,"odot":11021,"sv":11022,"Ġtitled":11023,"Ġguests":11024,"Ġsummar":11025,"pur":11026,"Ġbath":11027,"Ġroads":11028,"1949":11029,"Ġyesterday":11030,"lav":11031,"ĠLyn":11032,"?:":11033,"uint":11034,"ĠMelbourne":11035,"Day":11036,"Ġknowing":11037,"Ġgraduated":11038,"Ġamounts":11039,"ĠCC":11040,"Ġstrategic":11041,"arse":11042,"Ġda":11043,"PG":11044,"rama":11045,"Ġgenetic":11046,"Ġcomputing":11047,"Ġvaluable":11048,"Ġindependence":11049,"ĠTalk":11050,"restling":11051,"window":11052,"ĠNatural":11053,"kee":11054,"Life":11055,"001":11056,"Ġgang":11057,"utils":11058,"argo":11059,"Ġtries":11060,"Ġsynd":11061,"Phil":11062,"orses":11063,"Ġinnovative":11064,"Ġneutral":11065,"onical":11066,"Ġdisplayed":11067,"Ġplastic":11068,"bsites":11069,"Ġoutcomes":11070,"Ġvisiting":11071,"Operation":11072,"bow":11073,"Ġfired":11074,"ĠCape":11075,"component":11076,"Ã£o":11077,"agh":11078,"Ġmeets":11079,"Ġprovision":11080,"Ġorth":11081,"Ġhash":11082,"Ġnations":11083,"Params":11084,"Ġfluid":11085,"ĠSever":11086,"Ġroughly":11087,"VE":11088,"oli":11089,"ĠDat":11090,"){\\":11091,"Position":11092,"iden":11093,"eras":11094,"Ġcolors":11095,"ĠGab":11096,"Ġcourts":11097,"Ġreveals":11098,"ĠSurvey":11099,"there":11100,"ĠMovie":11101,"ango":11102,"Ġ=\\":11103,"ĠLaure":11104,"Ġpoetry":11105,"Ġtraject":11106,"Support":11107,"Ġchildhood":11108,"Ġfruit":11109,"Ġlosses":11110,"Ġscr":11111,"Ġsaved":11112,"Ġclock":11113,"ĠBG":11114,"Ġperiods":11115,"Ġseparated":11116,"ĠArk":11117,"device":11118,"Ġinfinite":11119,"ugg":11120,"Ġtou":11121,"ĠUser":11122,"ouses":11123,"etal":11124,"Ġveget":11125,"Ġtowns":11126,"ĠÅ":11127,"'(":11128,"Ġkernel":11129,"ĠExpress":11130,"Ġmaxim":11131,"BB":11132,"Ġthousand":11133,"WS":11134,"Ġpaths":11135,"Ġguns":11136,"sort":11137,"ĠChapter":11138,"Ġaer":11139,"uties":11140,"stan":11141,"Ġreveal":11142,")$-":11143,"Previous":11144,"ĠGib":11145,"Theorem":11146,"Michael":11147,"Ġbirds":11148,"Ġscales":11149,"Ġaims":11150,"former":11151,"Ä±":11152,"ĠAlabama":11153,"ĠEss":11154,"Ġparticipated":11155,"Ġceremony":11156,"clear":11157,"iverpool":11158,"ĠAthlet":11159,"ĠMarine":11160,"Ġdesigns":11161,"ĠBrig":11162,"Ġintensity":11163,"ailability":11164,"Ġfantasy":11165,"ĠAlan":11166,"achelor":11167,"Ġwindows":11168,"ĠAccount":11169,"ĠGaussian":11170,"ĠEarly":11171,"wen":11172,"inth":11173,"ĠMas":11174,"raig":11175,"Integer":11176,"Ġocean":11177,"Vari":11178,"Ġcopyright":11179,"ramework":11180,"105":11181,"ĠAttorney":11182,"ÅĤ":11183,"uh":11184,"Ġrising":11185,"GBT":11186,"Ġattempted":11187,"Ġmanagers":11188,"Ġprohib":11189,"Ġprecisely":11190,"ugs":11191,"Ġtrading":11192,"olid":11193,"secutive":11194,"Af":11195,"Ġworry":11196,"Ġanticip":11197,"ĠBor":11198,"erving":11199,"ĠNev":11200,"Ġrequirement":11201,"ĠEP":11202,"debug":11203,"ĠLincoln":11204,"Ġduration":11205,"1917":11206,"Title":11207,"ĠBowl":11208,"acon":11209,"Ġsubstit":11210,"groupId":11211,"Ġsequences":11212,"rophy":11213,"Ġfalling":11214,"March":11215,"ĠBatt":11216,"inian":11217,"chell":11218,"Ġconcrete":11219,"Ġfolk":11220,"Ġmoral":11221,"Ġkinds":11222,"ĠReturn":11223,"Ġoccas":11224,"Ġbrown":11225,"Ġnotion":11226,"Ġboot":11227,"phan":11228,"ĠPhilip":11229,"Window":11230,"Ġanalys":11231,"Ġethnic":11232,"western":11233,"axis":11234,"Ġgeometry":11235,"GS":11236,"month":11237,"Ð²":11238,"Ġion":11239,"June":11240,"tery":11241,"Ġhasn":11242,"omot":11243,"tikz":11244,"iology":11245,"Height":11246,"Ġproven":11247,"ĠLanguage":11248,"will":11249,"Ġanswers":11250,"ĠMembers":11251,"Ġconcluded":11252,"Ġsampling":11253,"January":11254,"ĠBishop":11255,"Ġfees":11256,"Ġprepare":11257,"Mem":11258,"elve":11259,"ĠRound":11260,"glas":11261,"-$":11262,"Ġanch":11263,"Ġengineer":11264,"Ġconsequence":11265,"icular":11266,"strap":11267,"ĠML":11268,"ĠRow":11269,"1951":11270,"Feb":11271,"Ñı":11272,"Ġaged":11273,"ige":11274,"Ġspiritual":11275,"ections":11276,"site":11277,"sis":11278,"Ġfulf":11279,"chain":11280,"Ġkeeps":11281,"notes":11282,"Once":11283,"hou":11284,"Ġ[[":11285,"Ġsurprised":11286,"anches":11287,"Ġalcohol":11288,"icons":11289,"ogram":11290,"ĠCop":11291,"Ġstake":11292,"Ġconventional":11293,"ĠMexican":11294,"Ġoscill":11295,"Following":11296,"igate":11297,"rank":11298,"Ġdict":11299,"Ġportray":11300,"Ġ\"\\":11301,"Ġdecrease":11302,"ĠFellow":11303,"Ġdealing":11304,"ĠTrail":11305,"ĠHeritage":11306,"Ġequality":11307,"Ġrequested":11308,"ĠSoftware":11309,"1918":11310,"Ġgalaxy":11311,"ĠVillage":11312,"Rich":11313,"ĠBO":11314,"elfare":11315,"ĠEag":11316,"aro":11317,"uction":11318,"creen":11319,"ĠAustin":11320,"original":11321,"ĠPeace":11322,"Ġdependent":11323,"Ġliked":11324,"Like":11325,"&#":11326,"send":11327,"ĠBah":11328,"ĠMayor":11329,"Introduction":11330,"Cent":11331,"Ġbattery":11332,"vens":11333,"ĠDur":11334,"Ġargued":11335,"ĠEffect":11336,"\\_":11337,"opes":11338,"ando":11339,"Ġ*)":11340,"Ġparticipation":11341,"about":11342,"Ġanywhere":11343,"ools":11344,"Ġassembly":11345,"Ġgeneric":11346,"Ġdies":11347,"Ġhousehold":11348,"andal":11349,"sn":11350,"Ġchairman":11351,"Play":11352,"Ġgovernor":11353,"Ġhealthcare":11354,"Ġconverted":11355,"iah":11356,"idal":11357,"olph":11358,"ĠMorgan":11359,"%;":11360,"ĠComments":11361,"Ġdrum":11362,"Ġattributes":11363,"ĠJudge":11364,"Super":11365,"Ġbid":11366,"ĠPS":11367,"ĠĠĠĠĠĠĠĠĠĠĠĠĠĠĠĠĠĠĠĠ":11368,"ĠGiven":11369,"Background":11370,"Ġconsisting":11371,"proposition":11372,"ĠAgric":11373,"JP":11374,"Ġcolumns":11375,"Ġbulk":11376,"was":11377,"Kind":11378,"ĠBureau":11379,"Bel":11380,"Ġcov":11381,"ĠThough":11382,"Ġengage":11383,"likely":11384,"omas":11385,"hedral":11386,"uler":11387,"1900":11388,"Ġexit":11389,"Rober":11390,"ublin":11391,":(":11392,"Ġsatisfying":11393,"Ġsubstantial":11394,"ĠGall":11395,"mapsto":11396,"parameter":11397,"stable":11398,"oni":11399,"Connection":11400,"Ġtrials":11401,"BP":11402,"ifting":11403,"ĠGordon":11404,"Ġsurvival":11405,"Expression":11406,"enez":11407,"Ġhospit":11408,"Ġmyth":11409,"Ġanniversary":11410,"Ġparking":11411,"EP":11412,"ĠHawai":11413,"ĠCopyright":11414,"olver":11415,"Ġsuffering":11416,"ĠNation":11417,"Ġages":11418,"Lear":11419,"Ġreducing":11420,"Ġthinks":11421,"Ġdelete":11422,"Ġexplicitly":11423,"Ġmunicipal":11424,")},":11425,"req":11426,"Ġtrace":11427,"oyd":11428,"Vector":11429,"Ġidentical":11430,"DL":11431,"[(":11432,"1936":11433,"Ġconfront":11434,"Ġkeys":11435,"displaystyle":11436,"ĠDa":11437,"ĠCloud":11438,"Ġrecognize":11439,"Ġdesignated":11440,"amps":11441,"BN":11442,"tml":11443,"ĠDean":11444,"bean":11445,"when":11446,"igin":11447,"Ġreplic":11448,"acket":11449,"FP":11450,"Ġconsent":11451,"Ġoffensive":11452,"ĠSafety":11453,"Ġsinging":11454,"ĠLearning":11455,"Ġdiplom":11456,"ĠFather":11457,"ĠHans":11458,"ĠAdvis":11459,"player":11460,"odox":11461,"ĠNich":11462,"Ġaccordance":11463,"ulum":11464,"Ġnotation":11465,"Ġdiscussions":11466,"Ġcenters":11467,"Ġconservative":11468,"phy":11469,"short":11470,"bian":11471,"enix":11472,"Ġguidance":11473,"ipher":11474,"Font":11475,"forming":11476,"ĠBible":11477,"Ġadventure":11478,"ĠFederation":11479,"Show":11480,"ibraries":11481,"Core":11482,"Ġidentification":11483,"Ġreplacement":11484,"enders":11485,"Ġpriority":11486,"James":11487,"ĠFive":11488,"ĠCOVID":11489,"ĠUnit":11490,"aping":11491,"Today":11492,"Ġham":11493,"Ġanyway":11494,"Ġcuts":11495,"Ġaccompan":11496,"Ã©e":11497,"Ġcalculation":11498,"Ġtransportation":11499,"overnment":11500,"Ġbusy":11501,"Ġundert":11502,"Bre":11503,"tim":11504,"Ã¸":11505,"specific":11506,"ĠSwedish":11507,"uum":11508,"Ġprofit":11509,"Impl":11510,"Ġcontroller":11511,"Ġintention":11512,":#":11513,"ĠMeg":11514,"ctx":11515,"Ġxml":11516,"ĠHighway":11517,"Ġqualified":11518,"ugins":11519,"ĠâĢĻ":11520,"|_{":11521,"ĠGene":11522,"Ġhardware":11523,"Ġapps":11524,"ĠAlliance":11525,"Ġpadding":11526,"Ġoldest":11527,"ATA":11528,"ĠSex":11529,"click":11530,"Schema":11531,"July":11532,"Ġdiseases":11533,"novation":11534,"Ġsatisfied":11535,"Ġfewer":11536,"Ġsettled":11537,"Ġfurn":11538,"Ġfriendly":11539,"Cap":11540,"vironments":11541,"ĠTa":11542,"Ġcomplicated":11543,"ĠVin":11544,"Ġcalculate":11545,"Ġcompliance":11546,"Ġ$.":11547,"ĠException":11548,"IE":11549,"Ġalert":11550,"Therefore":11551,"Ġprojection":11552,"ĠSwitzerland":11553,"ĠUpdate":11554,"ardo":11555,"Ġgenre":11556,"Async":11557,"Ġheader":11558,"ĠVari":11559,"ĠProtection":11560,"oca":11561,"osph":11562,"owski":11563,"GET":11564,"Ġargue":11565,"Ġweights":11566,"Ġdirections":11567,"Ġentreprene":11568,"hesis":11569,"():":11570,"Connect":11571,"ders":11572,"ĠChairman":11573,"wegian":11574,"ĠHub":11575,"Ġsuppose":11576,"ensing":11577,"Ġjazz":11578,"Ġnoticed":11579,"Ġdistricts":11580,"Ġneural":11581,"\"))":11582,"ogeneous":11583,"Store":11584,"bled":11585,"Ġviewed":11586,"Ġmechanisms":11587,"ĠNik":11588,"rock":11589,"Ġty":11590,"Ãº":11591,"Ġflows":11592,"fred":11593,"Ġproviders":11594,"Found":11595,"Ġprot":11596,"ARY":11597,"Ġcenturies":11598,"ĠMoscow":11599,",...":11600,"ĠWord":11601,"Ġburied":11602,"Ġbreast":11603,"join":11604,"Ġsuddenly":11605,"even":11606,"ĠRic":11607,"Ġble":11608,"August":11609,"%%":11610,"irus":11611,"inded":11612,"wp":11613,"Ġcache":11614,"Ġinstruction":11615,"Ġsustainable":11616,"Ġlake":11617,"Mer":11618,"ĠTokyo":11619,"Ġhook":11620,"ĠLiving":11621,"utenant":11622,"Ġtower":11623,"Ġstudying":11624,"Ġinstances":11625,"Ġownership":11626,"iture":11627,"Ġillness":11628,"Ġnurs":11629,"ĠJava":11630,"\\)":11631,"pred":11632,"asma":11633,"Ġlogic":11634,"fn":11635,"Ġpersonally":11636,"Ġperfectly":11637,"Ġmolecular":11638,"Ġasks":11639,"Ġenthus":11640,"eron":11641,"ĠWH":11642,"achel":11643,"iere":11644,"Ġfought":11645,"1938":11646,"Ġneck":11647,"ĠMC":11648,"Global":11649,"border":11650,"Ġheaded":11651,"Ġcollective":11652,"Dir":11653,"Ġprospect":11654,"eding":11655,"iÃ³n":11656,"makers":11657,"internal":11658,"coin":11659,"Ġhurt":11660,"olars":11661,"itarian":11662,"pense":11663,"Ġbasically":11664,"Ġfootballer":11665,"Ġpublishing":11666,"session":11667,"Ġrose":11668,"Ġfluct":11669,"Ġweekly":11670,"ĠâĨ":11671,"cong":11672,"Ġmg":11673,"ĠGun":11674,"Ġequally":11675,"Ġbits":11676,"protect":11677,"Labels":11678,"ĠDog":11679,"Helper":11680,"email":11681,"Ġtank":11682,"cloud":11683,"Ġdelight":11684,"Ġreputation":11685,"ĠSchools":11686,"ĠWhit":11687,"boot":11688,"istence":11689,"Ġskill":11690,"Ġinstruct":11691,"Ġpromotion":11692,"Donald":11693,"ĠRoberts":11694,"ĠRelations":11695,"ĠHell":11696,"Ġconsecutive":11697,"Because":11698,"ĠBuff":11699,"Ġfinance":11700,"bold":11701,"ĠDal":11702,"gi":11703,"arios":11704,"plane":11705,"ĠMother":11706,"NT":11707,"ĠBos":11708,"mn":11709,"Ġadjacent":11710,"Ġlux":11711,"Ġmovements":11712,"Ġpredictions":11713,"ĠMess":11714,"IES":11715,"Ġguilty":11716,"ĠRoute":11717,"AE":11718,"Ġcoaches":11719,"ibl":11720,"Ġmes":11721,"ĠBlood":11722,"imore":11723,"April":11724,"Ġenabled":11725,"ĠSpirit":11726,"ONE":11727,"Ġproduces":11728,"aval":11729,"ĠSource":11730,"Ġlyrics":11731,"Ġassumptions":11732,"Ġsurvive":11733,"$;":11734,"})$,":11735,"ĠVersion":11736,"Ġnaturally":11737,"Ġattacked":11738,"Ġexecuted":11739,"Ġretirement":11740,"Ġweapon":11741,"Ġinitiative":11742,"sa":11743,"Ġarmed":11744,"via":11745,"fold":11746,"ĠThings":11747,"Ġmerely":11748,"Ġgraphs":11749,"Lem":11750,"Ġstruck":11751,"ĠInstagram":11752,"ĠDomin":11753,"Ġlikes":11754,"Ġinstruments":11755,"pdated":11756,"Ġconcepts":11757,"Ġarrival":11758,"ĠHit":11759,"ĠTy":11760,"Ġdeals":11761,"Full":11762,"Ġapplies":11763,"icut":11764,"Ġalter":11765,"ĠMission":11766,"athered":11767,"ocy":11768,"Ġpremier":11769,"Report":11770,"father":11771,"Ġordinary":11772,"Women":11773,"ĠMedic":11774,"ĠColon":11775,"Ġjun":11776,"$~":11777,"}&":11778,"imental":11779,"Ġunsigned":11780,"argin":11781,"Ġemissions":11782,"ĠMcG":11783,"ĠĠĠĠĠĠĠĠĠĠĠĠĠĠĠĠĠĠĠĠĠĠĠĠĠĠĠĠĠĠĠĠĠĠĠĠĠĠĠĠĠĠĠĠĠĠĠĠĠĠĠĠĠĠĠĠĠĠĠĠĠĠĠĠ":11784,"ĠPolitics":11785,"Ġjoy":11786,"ĠOklahoma":11787,"Ġbrands":11788,"Doc":11789,"ounce":11790,"Ġhopes":11791,"Loc":11792,"102":11793,"Ġpenalty":11794,"ĠSaudi":11795,"aneous":11796,"ĠFinance":11797,"spring":11798,"ĠGL":11799,"ĠIndustry":11800,"Ġcalculations":11801,"Ġwalked":11802,"dale":11803,"ROM":11804,"sch":11805,"Ġrum":11806,"140":11807,"Ġreleases":11808,"Ġintersection":11809,"Ġopens":11810,"ialize":11811,"Ġclusters":11812,"Ġconscious":11813,"Ġdirectors":11814,"ouver":11815,"Ġexpectations":11816,"Ġtaxes":11817,"ĠCow":11818,"Ġsharp":11819,"Ġfarmers":11820,"izable":11821,"Ġcoordinate":11822,"ĠStew":11823,"Ġ&=&":11824,"ĠBull":11825,"Ġtickets":11826,"Ġimproving":11827,"\\{\\":11828,"Ġsufficiently":11829,"Ġterr":11830,"ĠBE":11831,"Ġaddresses":11832,"Europe":11833,"Ġinstant":11834,"Ġregistration":11835,"Ġfake":11836,"ĠProp":11837,"Thanks":11838,"iors":11839,"Ġinsight":11840,"Ġrejected":11841,"Ġdoors":11842,"ĠIL":11843,"ĠAnnual":11844,"Ġfranchise":11845,"owed":11846,"sem":11847,"iffs":11848,"Ġcomposer":11849,"Ġcrimes":11850,"ĠWalker":11851,"ĠNative":11852,"Ġmarks":11853,"Ġclimb":11854,"ĠEnvironmental":11855,"lad":11856,"Ġdisag":11857,"Ġpoverty":11858,"angular":11859,"ĠDetroit":11860,"Ð¼":11861,"Session":11862,"Ġtox":11863,"ĠRat":11864,"Ġ('":11865,"Ġcompete":11866,"104":11867,"ĠHum":11868,"Ġnum":11869,"ĠBruce":11870,"Ġinfection":11871,"Dom":11872,"ieval":11873,",'":11874,"Ġsatellite":11875,"alid":11876,"ĠSH":11877,"à¤°":11878,"establ":11879,"Ġsupporters":11880,"Ġdecline":11881,"Ġshortly":11882,"Ġpharm":11883,"zing":11884,"Ġregardless":11885,"ĠEXPECT":11886,"Collection":11887,"ippi":11888,"Ġentering":11889,"ĠCooper":11890,"Iter":11891,"IX":11892,"Ġfuck":11893,"Ġgrounds":11894,"DM":11895,"ĠPlus":11896,"iative":11897,"1937":11898,"Ġdevelopers":11899,"Äį":11900,"onom":11901,"Ġelectricity":11902,"Ġboundaries":11903,"Ġbriefly":11904,"Ġtemporary":11905,"Ġhouseholds":11906,"Ġnormally":11907,"bind":11908,"Ġincredible":11909,"ĠPho":11910,"imp":11911,"Ġhybrid":11912,"\"));":11913,"ĠFant":11914,"Ġestablishment":11915,"ĠResults":11916,"ĠConsider":11917,"Parent":11918,"lu":11919,"ĠSac":11920,"Ġpropose":11921,"ĠAlber":11922,"Ġdatasets":11923,"Ġinclusion":11924,"Ġpassengers":11925,"apel":11926,"112":11927,"heim":11928,"Ġcutting":11929,"Dan":11930,"Ep":11931,"Ġinterviews":11932,"gly":11933,"complete":11934,"Ġdominant":11935,"eyond":11936,"Definition":11937,"Ġnegoti":11938,"))$":11939,"ĠUlt":11940,"Ġliterary":11941,"ĠBlock":11942,"Ġconsole":11943,"ĠAppe":11944,"ĠLegisl":11945,"ĠKentucky":11946,"icker":11947,"Ġpublications":11948,"ĠAqu":11949,"gies":11950,"Ġcodes":11951,"apolis":11952,"Ġmixing":11953,"Ġspokes":11954,"MENT":11955,"icing":11956,"Ã©s":11957,"ĠDrive":11958,"Ġequipped":11959,"ĠPur":11960,"Ġobst":11961,"ĠVegas":11962,"Ġox":11963,"emen":11964,"1914":11965,"Ġcaptain":11966,"Ġentrance":11967,"Ġamplitude":11968,"Ġuniversities":11969,"FE":11970,"olves":11971,"aters":11972,"THE":11973,"oda":11974,"ivation":11975,"orus":11976,"comment":11977,"Ġmachines":11978,"Ġdefensive":11979,"handle":11980,"KS":11981,"ĠCommunications":11982,"Ġhandling":11983,"Ġinfluenced":11984,"Ġcelebrate":11985,"Ġbinding":11986,"Ġtoler":11987,"December":11988,"Ben":11989,"Ġtrends":11990,"leveland":11991,"Ġcounsel":11992,"Ġaddressed":11993,"ĠMcK":11994,"parison":11995,"ĠWebsite":11996,"double":11997,"ĠIR":11998,"Ġtied":11999,"Ġhide":12000,"ĠPas":12001,"ãĢ":12002,"uj":12003,"NavBar":12004,"900":12005,"outube":12006,"Ġorganisation":12007,"ĠAlbert":12008,"Ġpersonality":12009,"Ġsixth":12010,"aco":12011,"paragraph":12012,"Japan":12013,"plicity":12014,"Ġfeelings":12015,"Ġmining":12016,"rooms":12017,"Ġjuris":12018,"ĠShould":12019,"Ġtrick":12020,")-\\":12021,"Ġboss":12022,"Ġheritage":12023,"Parameters":12024,"Ġconversion":12025,"Ġticket":12026,"Ġunusual":12027,"ĠDeep":12028,"Application":12029,"cycl":12030,"VP":12031,"Ġpublicly":12032,"acht":12033,"Ġestimation":12034,"covery":12035,"ĠURL":12036,"itations":12037,"eper":12038,"Ġintellectual":12039,"Ġreliable":12040,"ĠFunction":12041,"Ġtaste":12042,"Ġcritics":12043,"ÙĦ":12044,"Ġdeeply":12045,"stylesheet":12046,"ti":12047,"Ġrival":12048,"role":12049,"ĠReviews":12050,"Ġengagement":12051,"Ġexpat":12052,"ĠYO":12053,"story":12054,"ĠCzech":12055,"'],":12056,"hl":12057,"Ġhist":12058,"Ġbrilliant":12059,"Ġevaluated":12060,"ĠAndre":12061,"address":12062,"Ġfilename":12063,"Ð´":12064,"ĠPDF":12065,"Sam":12066,"RES":12067,"bara":12068,")}_{":12069,"ĠWithout":12070,"Ġtub":12071,"Ġwebsites":12072,"oment":12073,"some":12074,"Cond":12075,"Ġpreferred":12076,"ĠJunior":12077,"Ġangular":12078,"1919":12079,"ĠLeaders":12080,"category":12081,"ĠDub":12082,"Ġneighbour":12083,"Ġsubmit":12084,"ĠFL":12085,"Ġoutstanding":12086,"Ġ>>>":12087,"Ġscattering":12088,"ĠChristopher":12089,"imm":12090,"Ġkne":12091,"Ġaimed":12092,"Sur":12093,"Ġisolated":12094,"ĠCommun":12095,"Ġliterally":12096,"ĠKit":12097,"cca":12098,"Ġmanaging":12099,"vm":12100,"Ġflash":12101,"Ġtrains":12102,"Ġlegit":12103,"1935":12104,"Ġtiny":12105,"ĠSin":12106,"interface":12107,"Ġshopping":12108,"Ġrepresentations":12109,"Ġcapabilities":12110,"ysical":12111,"October":12112,"Ġdenied":12113,"NE":12114,")+\\":12115,"Custom":12116,"Ġdiscrete":12117,"ĠDrug":12118,"ĠDue":12119,"ĠVo":12120,"}}$.":12121,"cref":12122,"foo":12123,"ĠCentury":12124,"Ġfemales":12125,"Ġedited":12126,"ĠProperty":12127,"Ġhosts":12128,"TT":12129,"Ġacquisition":12130,"xit":12131,"Ptr":12132,"vals":12133,"aman":12134,"ounced":12135,"diff":12136,"ĠAtlanta":12137,"ĠBus":12138,"ĠStudents":12139,"Ġdemocracy":12140,"Ġhier":12141,"domain":12142,"ĠHug":12143,"ĠVAL":12144,"Ġsignificance":12145,"ĠBeat":12146,"Ġputs":12147,"Ġoblig":12148,"Ġrestricted":12149,"ĠMs":12150,"Ġweren":12151,"Ġorbit":12152,"Ġguarantee":12153,"Ġhypothesis":12154,"ĠTask":12155,"Ġdepict":12156,"Ġbars":12157,"aved":12158,"Ġsimultaneously":12159,"Ġgenu":12160,"upload":12161,"Ġreact":12162,"IND":12163,"ĠHamiltonian":12164,"ĠFun":12165,"Ġviolent":12166,"|}":12167,"Ġneuro":12168,"Ġdemands":12169,"oga":12170,"Ġtracking":12171,"Ġmanuscript":12172,"claimed":12173,"Wind":12174,"San":12175,"Ġbird":12176,"Ġsomewhere":12177,"ĠMars":12178,"Ġdestruction":12179,"iche":12180,"Ġparagraph":12181,"Ġignore":12182,"Ġelectro":12183,"ĪĴ":12184,"reens":12185,"empl":12186,"Ġclosing":12187,"Sy":12188,"enny":12189,"ymmetric":12190,"aired":12191,"leans":12192,"ĠIron":12193,"Ġverify":12194,"ername":12195,"Ġstretch":12196,"Ġresort":12197,"Personal":12198,"Ġdiam":12199,")).":12200,"Ġdogs":12201,"ĠDallas":12202,"ĠTemple":12203,"ĠLawrence":12204,"Ġruling":12205,"ĠDak":12206,"ĠRu":12207,"ĠTrib":12208,"ĠColomb":12209,"Ġradical":12210,"wealth":12211,"Ġregulation":12212,"Ġimprovements":12213,"ERROR":12214,"Ġforecast":12215,"September":12216,"Ġfemin":12217,"1933":12218,"Ġreads":12219,"modal":12220,"loop":12221,"scribe":12222,"Rob":12223,"Ġrobot":12224,"ancouver":12225,"Ġelsewhere":12226,"Body":12227,"False":12228,"ĠThompson":12229,"}}$,":12230,"late":12231,"zone":12232,"Ġanth":12233,"ĠForum":12234,"Ġfolks":12235,"Ġparams":12236,"Ġprize":12237,"Ġlum":12238,"Ġcarefully":12239,"ĠAndy":12240,"Ġtab":12241,"vee":12242,"mates":12243,"Ġindicating":12244,"ĠWy":12245,"haust":12246,"Ġdedu":12247,"Ġsoph":12248,"IME":12249,"plot":12250,"Given":12251,"isons":12252,"Ġstructural":12253,"Ġabandoned":12254,"iop":12255,"Ġcheap":12256,"Ġtur":12257,"Ġpand":12258,"Ġju":12259,"Ġdesigner":12260,"Ġparish":12261,"hour":12262,"Ġsessions":12263,"Ġworker":12264,"itudes":12265,"Draw":12266,"ĠPolitical":12267,"ustration":12268,"Ġpushed":12269,"ĠPear":12270,"mouth":12271,"ĠWard":12272,"Ġmunicipality":12273,"ĠMuch":12274,"icking":12275,"incial":12276,"Ġaccum":12277,"issippi":12278,"Ġcomfortable":12279,"ĠTelevision":12280,"Ġsuperior":12281,"Ġconstantly":12282,"Ġpassenger":12283,"whel":12284,"Ġ^":12285,"Ġlayout":12286,"Ġtissue":12287,"November":12288,"Ġsacr":12289,"channel":12290,"ancell":12291,"Ġsons":12292,"ĠTro":12293,"ĠMotor":12294,"Ġlands":12295,"suit":12296,"Ġreverse":12297,"Ġdinner":12298,"Ġneighb":12299,"Ġcorrel":12300,"Menu":12301,"ĠRussell":12302,"winning":12303,"350":12304,"ĠiPhone":12305,"ĠHills":12306,"lesssim":12307,"Ġwithdraw":12308,"cccc":12309,"ĠEC":12310,"Ġfold":12311,"ĠEpisode":12312,"Obs":12313,"ĠOrth":12314,"Ġscaling":12315,"Ġexploration":12316,"bes":12317,"ĠKings":12318,"ĠHero":12319,"large":12320,"ĠCS":12321,"Ġdisturb":12322,"ductor":12323,"Ġrecru":12324,"Ġseparation":12325,"delete":12326,"Reader":12327,"ĠPrice":12328,"stage":12329,"estamp":12330,"=\"../../../../../../":12331,"UST":12332,"NG":12333,"Î¿":12334,"abad":12335,"ĠAssistant":12336,"zo":12337,"ĠStore":12338,"ims":12339,"ects":12340,"ĠMichel":12341,"oustic":12342,"rous":12343,"Ġfocuses":12344,"keys":12345,"iem":12346,"Ġcrossing":12347,"Ġbuying":12348,"Ġna":12349,"ĠABC":12350,"Ġequilibrium":12351,"Ġ),":12352,"Ġwhenever":12353,"Ġemerging":12354,"alia":12355,"ĠAdditionally":12356,"msg":12357,"Space":12358,"Bas":12359,":=":12360,"ĠWalter":12361,"=\"/":12362,"Ġcriticism":12363,"ĠPod":12364,"ĠHoll":12365,"ortheast":12366,"ĠHarvard":12367,"oche":12368,"Ġdominated":12369,"Ġbuck":12370,"Ġgreatly":12371,"ĠWoman":12372,"Ġdesk":12373,"ĠLevel":12374,"ÃŃa":12375,"fram":12376,"jar":12377,"ancel":12378,"103":12379,"Ġbyte":12380,"ashes":12381,"agic":12382,"Ġ..":12383,"etition":12384,"Ġ(@":12385,"Sem":12386,"regular":12387,"ĠStudent":12388,"webkit":12389,"ĠLiverpool":12390,"ipage":12391,"immer":12392,"}({\\":12393,"week":12394,"ailand":12395,"anne":12396,"Ġregarded":12397,"Ġfest":12398,"Tele":12399,"Ġlights":12400,"Ġinstructions":12401,"Ġillustrated":12402,"Security":12403,"1910":12404,"Ġruled":12405,"ocent":12406,"custom":12407,"ĠRoger":12408,"ĠGram":12409,"Ġkeyboard":12410,"Ġcup":12411,"ĠDocument":12412,"esy":12413,"Ġproducers":12414,"grid":12415,"Ġmini":12416,"Ġ{};":12417,"oggle":12418,"Ġpione":12419,"Ġrecon":12420,"Ġcub":12421,"equate":12422,"ĠKath":12423,"Ġnominated":12424,"Ġprivile":12425,"ĠPast":12426,"ĠNHS":12427,"since":12428,"ĠCrime":12429,"Ġrely":12430,"Ġkin":12431,"111":12432,"ifiers":12433,"ĠNE":12434,"rena":12435,"Ġoccupied":12436,"Assert":12437,"Ġliberal":12438,"ĠRegiment":12439,"Ġdialogue":12440,"ĠPerformance":12441,"ĠAfghanistan":12442,"iking":12443,"cpp":12444,"ĠDelhi":12445,"Ġinvestigated":12446,"olving":12447,"Ġlegacy":12448,"ĠPublishing":12449,"Ġbag":12450,"ĠAntonio":12451,"Cr":12452,"HD":12453,"ĠNigeria":12454,"ĠPersonal":12455,"Alex":12456,"icken":12457,"Ġpossess":12458,";->":12459,"Ġaside":12460,"ĠTaiwan":12461,"ĠMaterial":12462,"ĠNBA":12463,"Ġvillages":12464,"Tom":12465,"ĠChen":12466,"ĠTurkish":12467,"Ġterminal":12468,"Ġdiver":12469,"Ġcoefficient":12470,"ĠKy":12471,"Ġpanels":12472,"Ġtact":12473,"Ġtemple":12474,"uda":12475,"uerto":12476,"Term":12477,"Ġgravity":12478,"fund":12479,"ĠThank":12480,"HP":12481,"ĠSquad":12482,"Ġfirms":12483,"ĠTrack":12484,"ials":12485,"Api":12486,"Ġsoccer":12487,"}{|":12488,"}$)":12489,"Ġmile":12490,"ĠPrivate":12491,"Ġinvolvement":12492,"Ġapartment":12493,"ĠFer":12494,"orient":12495,"Ġarrive":12496,"bx":12497,"oria":12498,"Ġdating":12499,"ĠCarter":12500,")--":12501,"FIG":12502,"Ġcoron":12503,"Mac":12504,"ĠAlbum":12505,"ĠGirls":12506,"Ġsigning":12507,"ĠCore":12508,"hythm":12509,"transform":12510,"1929":12511,"minipage":12512,"Ġsuicide":12513,"good":12514,"Ġcontracts":12515,"Miss":12516,"liest":12517,"may":12518,"pay":12519,"Ġheadquarters":12520,"Ġundefined":12521,"raid":12522,"ĠKennedy":12523,"Ġmayor":12524,"RR":12525,"Ġpump":12526,"Ġengines":12527,"geon":12528,"Ġmemories":12529,"Green":12530,"ĠVolume":12531,"Ġtort":12532,"]}":12533,"Ġinline":12534,"Ġdrag":12535,"Ġmart":12536,"Ġeverywhere":12537,"Ġhoping":12538,"Ġdisorder":12539,"ĠAle":12540,"Ġenvironments":12541,"material":12542,"ĠRepublicans":12543,"byte":12544,"ĠPrint":12545,"ĠRobinson":12546,"Ġwet":12547,"ILL":12548,"Ġembod":12549,"Handle":12550,"Ġnamespace":12551,"Ġrevers":12552,"Ġantib":12553,"backs":12554,"Ġwhilst":12555,"ĠEvents":12556,"Ġroutes":12557,"Ġaccompanied":12558,"Ġ['":12559,"Ġ(âĢľ":12560,"ikh":12561,"lat":12562,"}{(":12563,"Ġstrings":12564,"Ġvariations":12565,"Ġrestrictions":12566,"ĠBou":12567,"Icon":12568,",$":12569,"LOC":12570,"French":12571,"Ġcollapse":12572,"olo":12573,"Ġjav":12574,"anim":12575,"asant":12576,"ĠCNN":12577,"ĠAbb":12578,"ĠHad":12579,"Ġstupid":12580,"Ġlimitations":12581,"Ġloyal":12582,"Ġinject":12583,"ĠPil":12584,"gets":12585,"ĠAnna":12586,"Ġexpertise":12587,"ĠClear":12588,"FM":12589,"Ġfiber":12590,"Fin":12591,"Ġrepair":12592,"ĠIndependent":12593,"ĠForces":12594,"oton":12595,"Ġfishing":12596,"Ġtables":12597,"ĠInterview":12598,"nan":12599,"ĠNash":12600,"emed":12601,"Ġrelating":12602,"Ġwedding":12603,"ĠLam":12604,"Aud":12605,"Ġdowntown":12606,"Ġlawyers":12607,"Ġprecision":12608,"ĠNic":12609,"Ġresidential":12610,"Ġdecent":12611,"esian":12612,"ĠDance":12613,"mathop":12614,"Health":12615,"ĠFreder":12616,"built":12617,"ĠPhD":12618,"ĠArchives":12619,"Mal":12620,"ĠPaper":12621,"1934":12622,"Ġassuming":12623,"Sym":12624,"mir":12625,"Ġmilit":12626,":}":12627,"Ġrepresentatives":12628,"padding":12629,"Ġpetition":12630,"flix":12631,"ĠĠĠĠĠĠĠĠĠĠĠĠĠĠĠĠĠĠ":12632,"twitter":12633,"Ġfro":12634,"Ġplain":12635,"Ġmeat":12636,"network":12637,"Ġgenerating":12638,"ĠJonathan":12639,"Ġracial":12640,"ĠRab":12641,"efully":12642,"ĠScholar":12643,"charge":12644,"ĠOwn":12645,"ikes":12646,"profile":12647,"ĠUtah":12648,"ĠAustria":12649,"ĠContact":12650,"Writer":12651,"ĠSelect":12652,"Ġcharacterized":12653,"ĠNelson":12654,"Ġmechanical":12655,"igs":12656,"ĠLLC":12657,"Ġsomehow":12658,"Ġbold":12659,"blockList":12660,"Ġwider":12661,"letion":12662,"Mart":12663,"anted":12664,"umar":12665,"Ġpartially":12666,"Ġparse":12667,"sequently":12668,"Template":12669,"Ġblind":12670,"ĠAdams":12671,"Ġhelpful":12672,"ordinary":12673,"ĠGary":12674,"Ġhired":12675,"Ġgent":12676,"Ã¼r":12677,"ĠDest":12678,"Ġnavigation":12679,"1932":12680,"ĠIndonesia":12681,"Ġtalked":12682,"ÏĦ":12683,"ĠDM":12684,"cycle":12685,"export":12686,"ĠRain":12687,"ĠBurn":12688,"Conf":12689,"ourier":12690,"bridge":12691,"toString":12692,"Ġ{$":12693,"irlines":12694,"istered":12695,"Ġcoupled":12696,"nell":12697,"Ġlaser":12698,"Err":12699,"German":12700,"ARD":12701,"Ġwra":12702,"Ġunlikely":12703,"acked":12704,"INS":12705,"Ġunexpected":12706,"Decl":12707,"Ġ++":12708,"ĠReserve":12709,"Ġtea":12710,"Ġmystery":12711,"Ġcir":12712,"ĠDublin":12713,"PORT":12714,"joint":12715,"Device":12716,"Ġunlike":12717,"Ġimmigration":12718,"Ġcogn":12719,"Ġreven":12720,"ashi":12721,"Ġpodcast":12722,"ĠDouglas":12723,"ĠHIV":12724,"Ġcolleagues":12725,"ĠMust":12726,"Ġintervention":12727,"Based":12728,"LOG":12729,"tn":12730,"================================":12731,"ĠComment":12732,"ĠOrganization":12733,"Ġfavourite":12734,"etry":12735,"Ġmad":12736,"Ġexhibit":12737,"Ġshots":12738,"Ġmales":12739,"_-":12740,"Ġ$|\\":12741,"Ġresolve":12742,"Ġdirectory":12743,"bassador":12744,"ĠBrun":12745,"ritical":12746,"Ġbiological":12747,"have":12748,"Ġtargeted":12749,"ĠET":12750,"Ġquantity":12751,"Ġcollections":12752,"ĠBaseball":12753,"Despite":12754,"Ġsensitivity":12755,"ĠØ":12756,"Ġtone":12757,"ethe":12758,"Ġrestaurants":12759,"ĠBGCOLOR":12760,"ographical":12761,"Ġmilk":12762,"ushing":12763,"Root":12764,"Ġprecise":12765,"ĠSenator":12766,"ateral":12767,"ĠConnecticut":12768,"instein":12769,"ĠTOD":12770,"Ġgenerations":12771,"ĠWorks":12772,"Invalid":12773,"ĠWeekly":12774,"Ġstyles":12775,",âĢĻ":12776,"Ġresident":12777,"Ġadapted":12778,"Ġprofiles":12779,"Ġfails":12780,"Ġcompeted":12781,"sburgh":12782,"edit":12783,"Ġclassified":12784,"notation":12785,"ĠNag":12786,"ĠCT":12787,"copy":12788,"lined":12789,"Ġmigr":12790,"general":12791,"Ġrecommendations":12792,"asa":12793,"Ġbreaks":12794,"ï¼":12795,"Descriptor":12796,"ĠJos":12797,"admin":12798,"Ġpreparation":12799,"wait":12800,"annon":12801,"heric":12802,"Ġannouncement":12803,"ĠCharlie":12804,"ĠHTML":12805,"Ġcommut":12806,"Former":12807,"scar":12808,"ĠStories":12809,"rane":12810,"Ġmonthly":12811,"ĠLegal":12812,"Ġpayments":12813,"graduate":12814,"106":12815,"Ġheading":12816,"works":12817,"$),":12818,"AK":12819,"ĠHistorical":12820,"pair":12821,"Ġspeaker":12822,"days":12823,"ĠLE":12824,"âĢ¦]":12825,"(*":12826,"Ġbundle":12827,"Num":12828,"ĠĠĠĠĠĠĠĠĠĠĠĠĠĠĠĠĠĠĠĠĠĠĠĠĠĠĠĠĠĠĠĠĠĠĠĠĠĠĠ":12829,"_;":12830,"ĠBart":12831,"children":12832,"ĠMalaysia":12833,"(:":12834,"Ġconvex":12835,"ania":12836,"agers":12837,"Ġinspiration":12838,"inburgh":12839,"ĠWright":12840,"Policy":12841,"Micro":12842,"REE":12843,"Ġfantastic":12844,"engine":12845,"ĠStudios":12846,"Pal":12847,"Ġ[\\":12848,"ĠLang":12849,"Ġpaintings":12850,"equals":12851,"viously":12852,"Family":12853,"ĠBaron":12854,"endor":12855,"xygen":12856,"ĠMort":12857,"ĠBed":12858,"Ġpron":12859,"ĠOrleans":12860,"ĠLGBT":12861,"Ġmanifest":12862,"ĠDementia":12863,"apshot":12864,"ĠGrow":12865,"ĠStars":12866,"ĠImages":12867,"ĠMos":12868,"IAL":12869,"Ġdoctors":12870,"orer":12871,"ĠSel":12872,"Ġencouraged":12873,"berry":12874,"panel":12875,"Ġcontents":12876,"urations":12877,"ĠKam":12878,"Ġguidelines":12879,"ĠFight":12880,"irates":12881,"ITE":12882,"ĠMedal":12883,"Ġvital":12884,"Ġshouldn":12885,"ĠClimate":12886,"Ġcorrectly":12887,"Ġthemes":12888,"Ġstarring":12889,"jamin":12890,"Ġthreats":12891,"ĠBrooklyn":12892,"mate":12893,"Prop":12894,"rin":12895,"Thank":12896,"Ġdescribing":12897,"Ġschemes":12898,"disc":12899,"Sen":12900,"ĠBY":12901,"ĠGR":12902,"Ġapprox":12903,"Ġreporter":12904,"orable":12905,"Ġcul":12906,"Ġorientation":12907,"bus":12908,"Ġvisits":12909,"'>":12910,"Ġdesper":12911,"Rev":12912,"Ġfleet":12913,"uid":12914,"entials":12915,"ntil":12916,"Rest":12917,"Ġje":12918,"written":12919,"efe":12920,"ĠBased":12921,"Ġtransc":12922,"Editor":12923,"ĠPalace":12924,"outer":12925,"romise":12926,"ĠLock":12927,"Ġamongst":12928,"Ġcited":12929,"Ġcable":12930,"Ġcharity":12931,"Ġbeer":12932,"ropic":12933,"opter":12934,"ĠTownship":12935,"Ms":12936,"oving":12937,"Ġbelongs":12938,"Network":12939,"Ġinvolve":12940,"Ġbytes":12941,"1928":12942,"ctrine":12943,"ĠOS":12944,"ractions":12945,"Ġthorough":12946,"AU":12947,"Ġcorruption":12948,"ĠFO":12949,"alaxy":12950,"NOT":12951,"ĠWhich":12952,"Ġprovisions":12953,"ĠArgentina":12954,"ĠSud":12955,"Ġraising":12956,"Ġcrazy":12957,"ĠMind":12958,"ĠFame":12959,"Ġadaptation":12960,"ĠGraham":12961,"Ġscan":12962,"Ġthrown":12963,"Ġstayed":12964,"Press":12965,"Ġcomputational":12966,"Ġdenoted":12967,"ĠRace":12968,"olas":12969,"Ġforever":12970,"being":12971,"Ġjudges":12972,"ĠExchange":12973,"ĠPlayer":12974,"ĠFreedom":12975,"Ġhill":12976,"Contact":12977,"Ġsed":12978,"ĠTob":12979,"ĠGill":12980,"Ġencoding":12981,"terior":12982,"Display":12983,"ĠGulf":12984,"security":12985,"tfrac":12986,"Ġappearing":12987,"ĠJess":12988,"what":12989,"Ġdisaster":12990,"Ġdifficulty":12991,"hot":12992,"ĠFle":12993,"Ġfunded":12994,"Ġenables":12995,"}}_{\\":12996,"Ġsecretary":12997,"ĠShop":12998,"lon":12999,"NY":13000,"Ġindepend":13001,"ĠHold":13002,"Ġglad":13003,"ĠResource":13004,"Ġexpressions":13005,"Ġmail":13006,"town":13007,"Robert":13008,"Ġassociate":13009,"alion":13010,"ĠKaz":13011,"Ġagricultural":13012,"env":13013,"urable":13014,"ĠPlant":13015,"uclear":13016,"Ġreceiver":13017,"ateur":13018,"ĠBoys":13019,"MF":13020,"Ġfocusing":13021,"$&":13022,")),":13023,"ĠLane":13024,"Ġorganic":13025,"GP":13026,"BD":13027,"ariance":13028,"Ġanimation":13029,"enezuel":13030,"itational":13031,"Three":13032,"omal":13033,"Ġease":13034,"oker":13035,"Film":13036,"/.":13037,"Ġske":13038,"ĠLeft":13039,"rupted":13040,"Ġeligible":13041,"ĠLess":13042,"ĠElectric":13043,"insert":13044,"Ġbull":13045,"maker":13046,"ĠLouisiana":13047,"Ġingred":13048,"try":13049,"115":13050,"ĠBeng":13051,"ratic":13052,"usalem":13053,"abetes":13054,"Ġappreciate":13055,"auth":13056,"auto":13057,"oths":13058,"fish":13059,"Ġcelebrated":13060,"record":13061,"Ġstreaming":13062,"Ġconvenient":13063,"à¥į":13064,"Ġlad":13065,"uese":13066,"Ġdeeper":13067,"Ġenhanced":13068,"Follow":13069,"Ġ\\!":13070,"Bytes":13071,"hips":13072,"1922":13073,"Ġclim":13074,"ĠMonth":13075,"tor":13076,"Ġreply":13077,"Song":13078,"shape":13079,"Ġmultip":13080,"ĠSnow":13081,"ĠPope":13082,"ĠAlice":13083,"Ġbio":13084,"Ġgenes":13085,"ĠDays":13086,"Ġdens":13087,"Consider":13088,"Ġloud":13089,"ynamics":13090,"ĠAlb":13091,"Ġremoval":13092,"ĠPerson":13093,"Ġdense":13094,"Ġdrinking":13095,"Ġutility":13096,"ĠSwiss":13097,"represent":13098,"reck":13099,"Ġparad":13100,"pin":13101,"Ġconnecting":13102,"Ġeducated":13103,"condition":13104,"Meta":13105,"Ġromantic":13106,"Ġconsiderable":13107,"ĠAppendix":13108,"Ñĭ":13109,"ĠBelgium":13110,"$};":13111,"Ġtie":13112,"Ġincorporated":13113,"ĠViol":13114,"framework":13115,"Ġlifetime":13116,"1915":13117,"Ġchurches":13118,"ĠCampbell":13119,"reation":13120,"Ġgolf":13121,"1916":13122,"Ġcosm":13123,"rele":13124,"ournals":13125,"Ġorganisations":13126,"region":13127,"ĠRepresentatives":13128,"Ġsituated":13129,"plugin":13130,"Ġpromot":13131,"books":13132,"Ġoperational":13133,"1927":13134,".-":13135,"Ġreceives":13136,"Ġfabric":13137,"Ġsimilarly":13138,"oples":13139,"118":13140,"Fi":13141,"Ġcancel":13142,"Ġlegs":13143,"fare":13144,"ĠOil":13145,"!)":13146,"Ġtranslated":13147,"Ġdial":13148,"Ġadmit":13149,"Ġeating":13150,"Ġsuffer":13151,"ĠProdu":13152,"Ġmetrics":13153,"ĠChile":13154,"quiry":13155,"ĠIC":13156,"Ġduties":13157,"uki":13158,"Ġshr":13159,"engths":13160,"ubs":13161,"ĠFisher":13162,"ĠOd":13163,"tre":13164,"Ġreserve":13165,"Ġscenarios":13166,"Ġphotographer":13167,"Ġindustries":13168,"connected":13169,"ousing":13170,"raham":13171,"Ġinstallation":13172,"Ġholes":13173,"Ġbranches":13174,"Ġreduces":13175,"Ġdisabled":13176,"utter":13177,"ĠUrban":13178,"Ġpeer":13179,"DIR":13180,"Ġfinger":13181,"ĠJimmy":13182,"disabled":13183,"Bet":13184,"Ġdivor":13185,"iii":13186,"Ġdil":13187,"ceive":13188,"ĠCell":13189,"Ġcounts":13190,"oids":13191,"Ġlemma":13192,"GM":13193,"Ġprinted":13194,"ĠOpt":13195,"Ġderivative":13196,"}\\,\\":13197,"bmatrix":13198,"dependency":13199,"Ġoptional":13200,"Ġrarely":13201,"ĠMississippi":13202,"ĠBit":13203,"Mus":13204,"ĠKnight":13205,"Ġhorizontal":13206,"paren":13207,"War":13208,"ĠCleveland":13209,"108":13210,"Byte":13211,"Game":13212,"Ġinverse":13213,"###":13214,"Ġmusician":13215,"IGHT":13216,"ĠMurray":13217,"Total":13218,"Ġbike":13219,"ĠWIT":13220,"1924":13221,"Ġdramatic":13222,"Sn":13223,"Watch":13224,"uis":13225,"Ġoperates":13226,"idget":13227,"ĠMunic":13228,"Ġrescue":13229,"Ġ})":13230,"ĠMyst":13231,"Ġneutr":13232,"ĠStudio":13233,"ĠBeck":13234,"changed":13235,"ĠCho":13236,"Ġbone":13237,"USA":13238,"ĠAbd":13239,")}}":13240,"ĠMuslims":13241,"protobuf":13242,"ĠIan":13243,"ĠConvention":13244,"ĠCredit":13245,"Ġignored":13246,"Ġmagnet":13247,"1931":13248,"ĠOriginal":13249,"ĠError":13250,"Ġspoken":13251,"Ġjournalists":13252,"ĠPL":13253,"ĠKir":13254,"than":13255,"ricane":13256,"ĠGuy":13257,"irmingham":13258,"Ġgear":13259,"ĠBetween":13260,"IONS":13261,"Ġconvention":13262,"ĠĠĠĠĠĠĊ":13263,"depth":13264,"Ġphrase":13265,"Ġtransactions":13266,"Ġkitchen":13267,"Ġleaf":13268,"replace":13269,"Ġos":13270,"Classes":13271,"Ġmarine":13272,"ĠNASA":13273,"Ġinaug":13274,"ĠGrad":13275,"issa":13276,"impl":13277,"natural":13278,"ĠMagn":13279,"ĠFal":13280,"Ġhang":13281,"Ġbot":13282,"Ġelder":13283,"Ġwake":13284,"ĠMobile":13285,"ĠStewart":13286,"ĠSA":13287,"ĠTree":13288,"oves":13289,"ĠFel":13290,"Ġglob":13291,"LECT":13292,"hbar":13293,"Ġrugby":13294,"ascular":13295,"Ġdefines":13296,"they":13297,"Ġbaseline":13298,"amous":13299,"tons":13300,"Ġfounding":13301,"Ġjury":13302,"ĠDeputy":13303,"ĠTar":13304,"ĠDJ":13305,"Ġinvoke":13306,"KEY":13307,"Events":13308,"Ġcorrection":13309,"ĠSW":13310,"ibliography":13311,"Ġchecked":13312,"ĠNeg":13313,"arity":13314,"ĠComputer":13315,"Ġoverwhel":13316,"ĠMonte":13317,"Ġartistic":13318,"Metadata":13319,"illery":13320,"Ġelectrical":13321,"Ġadvers":13322,"Ġastron":13323,"Ġchrom":13324,"Ġbunch":13325,"=\"_":13326,"Ġresponded":13327,"Ġphotographs":13328,"SET":13329,"Hon":13330,"stud":13331,"Ġpace":13332,"`.":13333,"ĠRelease":13334,"1926":13335,"Ġlying":13336,"othy":13337,"\"=>\"":13338,"Ġmeters":13339,"Ġtrivial":13340,"ijing":13341,"ĠSmart":13342,"Ġapi":13343,"alling":13344,"yset":13345,"comb":13346,"ĠWarren":13347,"area":13348,"Ġdimensional":13349,"Ġmountains":13350,"Ġresidence":13351,"ĠQueensland":13352,"hbox":13353,"Ġislands":13354,"cam":13355,"ĠSEC":13356,"Ġsheet":13357,"1921":13358,"Ġsymbols":13359,"Ġregulatory":13360,"Ġexhaust":13361,"ixels":13362,"ochastic":13363,"nn":13364,"Ġnan":13365,"ĠPeters":13366,"ivia":13367,"Ġactivists":13368,"Ins":13369,"wind":13370,"Ġcameras":13371,"iscal":13372,"Ġtale":13373,"Ġcharts":13374,"ĠPatri":13375,"107":13376,"ĠWW":13377,"Ġexclus":13378,"Ġcock":13379,"tha":13380,"Ġexamine":13381,"Ġsurfaces":13382,"ĠPap":13383,"acles":13384,"Ġrenamed":13385,"virtual":13386,"chiat":13387,"Jack":13388,"ĠTower":13389,".:":13390,"Ġbirthday":13391,"ĠVancouver":13392,"plements":13393,"Ġtip":13394,"Ġanymore":13395,"Ġsupplies":13396,"Ġtheater":13397,"Enter":13398,"Ġdetermination":13399,"ĠME":13400,"Ġsystematic":13401,"Fore":13402,"umption":13403,"ĠToy":13404,"ĠCass":13405,"uru":13406,"Ġdevelopments":13407,"modules":13408,"ingers":13409,"Ġintense":13410,"Ġreaches":13411,"Ġcooperation":13412,"Ġreserv":13413,"à¥ĩ":13414,"Ġdeput":13415,"?)":13416,"eling":13417,"Ġstadium":13418,"Ġathletes":13419,"olen":13420,"pshire":13421,"ĠContent":13422,"ĠMarketing":13423,"]$.":13424,"ĠCraig":13425,"Ġhighlights":13426,"Ġvarying":13427,"Ġintermediate":13428,"ĠNorwegian":13429,"1925":13430,"ĠArmen":13431,"Ġoffense":13432,"ĠEconomics":13433,"ĠBond":13434,"Ġcow":13435,"ĠCos":13436,"Ġjunior":13437,"Ġcompan":13438,"&=&":13439,"rations":13440,"patch":13441,"borough":13442,"^*$":13443,"Ġtang":13444,"Ġphotography":13445,"1912":13446,"Real":13447,"Ġsalt":13448,"ceptions":13449,"Ġemotion":13450,"Ġcod":13451,"spiracy":13452,">();":13453,"sat":13454,"ĠAgreement":13455,"Ġdecomposition":13456,"Ġwireless":13457,"\\}$.":13458,"Ġpassage":13459,"Ġaffairs":13460,"ĠCampaign":13461,"Ġlanding":13462,"))\\":13463,"imit":13464,"ĠDise":13465,"Ġformerly":13466,"Ġconform":13467,"Rule":13468,"ĠNat":13469,"ĠBloom":13470,"Ġarranged":13471,"issance":13472,"Ġhighway":13473,"Ġweird":13474,"ĠBrand":13475,"âĦ":13476,"Ġloves":13477,"ĠLanka":13478,"Ġreplacing":13479,"ETH":13480,"cosystem":13481,"ĠThailand":13482,"mock":13483,"Ġrepeat":13484,"Ġmodules":13485,"Ġremarkable":13486,"Values":13487,"ĠJu":13488,"isen":13489,"Common":13490,"party":13491,"ladesh":13492,"Tax":13493,"iÄĩ":13494,"Ġsensor":13495,"ĠFern":13496,"ibration":13497,"Did":13498,"rage":13499,"ĠIntelligence":13500,"Ġphenomenon":13501,"ĠPeak":13502,"Ġembedded":13503,"ĠChampions":13504,"hover":13505,"Ġwarrant":13506,"celona":13507,"orted":13508,"ĠProf":13509,"Ġcompensation":13510,"Ġattitude":13511,"Ġgram":13512,"Ok":13513,"Email":13514,"Ġsurrounded":13515,"ĠSelf":13516,"ĠFem":13517,"ĠParliamentary":13518,"settings":13519,"best":13520,"ĠParam":13521,"riel":13522,"ĠBaltimore":13523,"ymn":13524,"Ġrows":13525,"Ġasc":13526,"Ġfits":13527,"Li":13528,"oil":13529,"ea":13530,"ictional":13531,"Ġdesert":13532,"Ġinputs":13533,"Ġranging":13534,"ĠMarvel":13535,"ĠMathemat":13536,"Ġfitting":13537,"encer":13538,"Ġscreening":13539,"total":13540,"$:":13541,"Ġagenda":13542,"ĠMargaret":13543,"Ġsear":13544,"elligent":13545,"mathit":13546,"ĠOrchestra":13547,"Mock":13548,"hal":13549,"-->":13550,"Ġevident":13551,"Ġthreatened":13552,"ĠLiberal":13553,"ĠDragon":13554,"hist":13555,"City":13556,"ethyl":13557,"Ġpric":13558,"Feature":13559,"Ġdeliber":13560,"Short":13561,"none":13562,"ĠReading":13563,"connection":13564,"Ġproteins":13565,"ĠKer":13566,"VA":13567,"Ġappointment":13568,"numer":13569,"illo":13570,"ĠĠĠĠĠĠĠĠĠĠĠĠĠĠĠĠĠĠĠĠĠĠĠĠĠ":13571,"ĠIce":13572,"Through":13573,"dfrac":13574,"ĠChamber":13575,"White":13576,"Argument":13577,"rosc":13578,"Ġfrequent":13579,"ĠLore":13580,"ĠAppro":13581,"each":13582,"Ġmainstream":13583,"exports":13584,"Ġstrictly":13585,"QU":13586,"made":13587,"!!!":13588,"ĠChristians":13589,"Ġopinions":13590,"Ġtill":13591,"izers":13592,"verseas":13593,"Ġcrown":13594,"ĠUl":13595,"__(":13596,"nex":13597,"Ġquantities":13598,"Î¹":13599,"accept":13600,"ĠBeaut":13601,"istically":13602,"ĠCert":13603,"NR":13604,"ĠPhoenix":13605,"Ġ\\(\\":13606,"Ġgall":13607,"bing":13608,"Ġghost":13609,"Ġsucceeded":13610,"bp":13611,"Ġdiagnosis":13612,"mac":13613,"Ġhal":13614,"ĠSept":13615,"Ġchronic":13616,"Ġpsy":13617,"Ġreconstruction":13618,"ahn":13619,"ĠObserv":13620,"Ġdetermin":13621,"Association":13622,"algorithm":13623,"tage":13624,"Tab":13625,"Ġmetres":13626,"Ġtwelve":13627,"Ġessay":13628,"ĠâĨĴ":13629,"Related":13630,"gow":13631,"Ġdeck":13632,"minute":13633,"ocese":13634,"utrition":13635,"ocate":13636,"Ġdescript":13637,"Ġmistake":13638,"Standard":13639,"Ġvulnerable":13640,"Ġclaiming":13641,"}[\\":13642,"Ġempir":13643,"Tests":13644,"ĠMaur":13645,"Ġviewers":13646,"Ġentropy":13647,"application":13648,"inces":13649,"pler":13650,"bc":13651,"ĠSamuel":13652,"quer":13653,"Fields":13654,"ĠPuerto":13655,"Ġmoon":13656,"Ġinhabit":13657,"Ġpossession":13658,"aughters":13659,"radius":13660,"illance":13661,"marks":13662,"ĠTs":13663,"ĠStre":13664,"Ġpandemic":13665,"Ġinvention":13666,"ĠPortugal":13667,"Ġtouchdown":13668,"ĠBilly":13669,"ĠSteven":13670,"tech":13671,"Ġuncon":13672,"Ġrounds":13673,"ĠHim":13674,"Ġdocumentation":13675,"Ġplasma":13676,"Category":13677,"----------------------------------------------------------------":13678,"Ġgathered":13679,"Ġheter":13680,"ĠDenmark":13681,"Ġdrums":13682,"Ident":13683,"Send":13684,"speed":13685,"lay":13686,"Ġpermit":13687,"Ġentities":13688,"Organ":13689,"Ġultimate":13690,"eeper":13691,"Ġdepression":13692,"Ġvenue":13693,"Ġjudgment":13694,"onomy":13695,"Ġanalyst":13696,"Ġmaximal":13697,"Ġpromoting":13698,"Cur":13699,"ĠBrothers":13700,"ĠPO":13701,"sson":13702,"Boolean":13703,"ambig":13704,"onz":13705,"1923":13706,"rainian":13707,"verb":13708,"Ġsteady":13709,"Ġhip":13710,"Canadian":13711,"ĠEdinburgh":13712,"ivan":13713,"ĠOpera":13714,"109":13715,"Ġmirror":13716,"ĠWang":13717,"Ġdreams":13718,"ĠPlanning":13719,"Ġprotests":13720,"Ġforming":13721,"Ġopera":13722,"Channel":13723,"Parser":13724,"margin":13725,"Ġpipeline":13726,"Ġhumanity":13727,"Ġspark":13728,"Den":13729,"Ġsurviv":13730,"ĠShel":13731,"ĠInn":13732,"ĠMarshall":13733,"Ġpleased":13734,"ĠGets":13735,"onda":13736,"footer":13737,"whe":13738,"pto":13739,"Old":13740,"stituency":13741,"ĠFab":13742,"plication":13743,"Ġexpanding":13744,"cross":13745,"Ġnick":13746,"Ġimplications":13747,"ĠPrior":13748,"Ġstabil":13749,"ĠChallenge":13750,"Flo":13751,"|}{":13752,"help":13753,"gression":13754,"walk":13755,"ĠInv":13756,"abling":13757,"Air":13758,"Msg":13759,"Ġshit":13760,"anded":13761,"President":13762,"Ġaug":13763,"ĠJerusalem":13764,"Ġderive":13765,"Profess":13766,"Mean":13767,"rise":13768,"ĠTun":13769,"Ġvolunteers":13770,"ĠOK":13771,"Ġretrie":13772,"ĠRand":13773,"Final":13774,"PRE":13775,"hill":13776,"Ġvoices":13777,"ĠWhether":13778,"ĠPoll":13779,"Ġbos":13780,"Ġhint":13781,"}})":13782,"à®":13783,"Ġgrab":13784,"Ġconstants":13785,"Ġartificial":13786,"Ãł":13787,"Ġcref":13788,"Ġlessons":13789,">.":13790,"estone":13791,"important":13792,"uity":13793,"Ġmic":13794,"emptyset":13795,"etric":13796,"ĠFBI":13797,"XT":13798,"vere":13799,"Ġalien":13800,"yler":13801,"Ġanimated":13802,"ĠCrown":13803,"Ġsubstance":13804,"ĠPublished":13805,"Ġmigration":13806,"ĠFinn":13807,"lessly":13808,"Ġprosecut":13809,"prob":13810,"Death":13811,"Ġasset":13812,"Ġfinishing":13813,"Ġanalyze":13814,"Ġchoosing":13815,"ĠLuke":13816,"ĠPortland":13817,"bigl":13818,"Ġmodeling":13819,"idays":13820,"aceut":13821,"ĠEmperor":13822,"ĠShah":13823,"wave":13824,"ĠAltern":13825,"Ġdiameter":13826,"ĠTed":13827,"Ġextr":13828,"alph":13829,"exception":13830,"Ġcomparable":13831,"hers":13832,"cia":13833,"Opt":13834,"apper":13835,"Ġdefinitions":13836,"SW":13837,"ĠHope":13838,"Ġvariance":13839,"ĠBaker":13840,"Args":13841,"Ġlib":13842,"scription":13843,"ĠProfessional":13844,"Ġromance":13845,"Active":13846,"Render":13847,"Business":13848,"ourt":13849,"ĠArabia":13850,"ĠSeveral":13851,"igm":13852,"Ġlunch":13853,"HTML":13854,"Ġafraid":13855,"ĠWayne":13856,"nik":13857,"Ġcompatible":13858,"wild":13859,"market":13860,"ĠRetrieved":13861,"ocker":13862,"Ġsuggesting":13863,"Ġinvalid":13864,"ĠConsult":13865,"ĠCultural":13866,"Ġshadow":13867,"ĠHE":13868,"February":13869,"ickets":13870,"square":13871,"ĠLanc":13872,"Great":13873,"ĠMarie":13874,"Ġhadn":13875,"Ġabroad":13876,"uates":13877,"ĠLP":13878,"Ġindependently":13879,"parameters":13880,"ĠFalse":13881,"WH":13882,"Ġchamber":13883,"Ġreign":13884,"]$,":13885,"ĠCome":13886,"ĠHunter":13887,"sql":13888,"ĠNep":13889,",\\\\":13890,"Lin":13891,"acular":13892,"ĠJe":13893,"Ġreviewed":13894,"VM":13895,"Coll":13896,"Ġsurn":13897,"ĠPerhaps":13898,"ĠTheory":13899,"Ġpref":13900,"ĠNeb":13901,"ĠTig":13902,"Edit":13903,"ĠGP":13904,"ĠĠĠĠĠĠĠĠĠĠĠĠĠĠĠĠĠĠĠĠĠĠĠĠ":13905,"Ġeq":13906,"Ġpursue":13907,"Ġvolumes":13908,"zes":13909,"Ġenemies":13910,"Ġimaging":13911,"Ġinvasion":13912,"hero":13913,"Ġharder":13914,"ĠDakota":13915,"bras":13916,"Ġmanual":13917,"Ġphases":13918,"Ġcasual":13919,"Ġpatch":13920,"valuation":13921,"ĠApplication":13922,"Match":13923,"Ġdamaged":13924,"Ġvalidation":13925,"itol":13926,"Ġswit":13927,"ĠRO":13928,"-(":13929,"Ġassemb":13930,"Ġcounterpart":13931,"nest":13932,"Transport":13933,"Both":13934,"Ġsynchron":13935,"ĠMetro":13936,"FORM":13937,"Ġranks":13938,"Ġcommander":13939,"Ġgenerator":13940,"Ġflowers":13941,"Ġlung":13942,"jud":13943,"Ġstating":13944,"ĠCry":13945,"Ġcontroversial":13946,"Ġluck":13947,"hattan":13948,"Ġautomatic":13949,"Ġavailability":13950,"Ġinfer":13951,"Ġstem":13952,"Ġdefence":13953,"piece":13954,"orious":13955,"thread":13956,"exists":13957,"Ġemerged":13958,"Ġpopularity":13959,"Ġjail":13960,"Ġconfident":13961,"ĠClassic":13962,"Ġpreserve":13963,"ĠHend":13964,"Ġscholars":13965,"Ġstuck":13966,"Ġsolving":13967,"ĠEvans":13968,"}}.":13969,"Ġlens":13970,"Pod":13971,"bone":13972,"ĠCorp":13973,"kl":13974,"Ġbes":13975,"ĠNCAA":13976,"Ġovercome":13977,"Enabled":13978,"ailure":13979,"properties":13980,"ateful":13981,"Ġrequiring":13982,"Ġviolation":13983,"Ġnonlinear":13984,"Published":13985,"Similar":13986,"Ġsust":13987,"enum":13988,"isson":13989,"bigr":13990,">\\":13991,"ĠFranklin":13992,"ĠGas":13993,"Ġbat":13994,"ĠNap":13995,"ĠJSON":13996,"Ġcann":13997,"ĠIranian":13998,"imony":13999,"ĠNi":14000,"Ġenergies":14001,"irts":14002,"Ġbub":14003,"Ġquote":14004,"Ġpassword":14005,"ĠSay":14006,"havior":14007,"Ġsurvived":14008,"ĠCher":14009,"pread":14010,"pository":14011,"bn":14012,"ĠJustin":14013,"Sing":14014,"ĠTru":14015,"ibbean":14016,"ĠTerms":14017,"mill":14018,"Ġsegments":14019,"mits":14020,",{\\":14021,"Symbol":14022,"Ġrecordings":14023,"Ġspots":14024,"FAULT":14025,"Ġsugar":14026,"Ġexpatriate":14027,"anti":14028,"ĠStage":14029,"Ġspeakers":14030,"ivated":14031,"ĠTheater":14032,"Ġchest":14033,"Lat":14034,"Ġclosure":14035,"aments":14036,"Ġconflic":14037,"ĠSoul":14038,"Education":14039,"Ġinsights":14040,"Ġportfolio":14041,"Ġhospitals":14042,"yll":14043,"Ġhunt":14044,"etics":14045,"larg":14046,"ĠAnc":14047,"Ġcareful":14048,"ĠDisc":14049,"Ġrecovered":14050,"Ġfragment":14051,"Ġcampaigns":14052,"Copy":14053,"1911":14054,"ĠâĤ¬":14055,"Ġmouse":14056,"Ġreception":14057,"Ġproportion":14058,"Statement":14059,"cline":14060,"ĠJuan":14061,"Ġneur":14062,"ĠĠĠĠĠĠĠĠĠĠĠĠĠĠĠĠĠĠĠĠĠĠ":14063,"Ġcomplaint":14064,"Ġmaintaining":14065,"Ġmanufacturer":14066,"Ġng":14067,"Ġconsistently":14068,"Abstract":14069,"ĠKl":14070,"Ġhorses":14071,"Ġferm":14072,"ĠJazz":14073,"Ġ<=":14074,"ulative":14075,"ĠEV":14076,"city":14077,"ĠPittsburgh":14078,"Proof":14079,"hai":14080,"inar":14081,"Ã¥":14082,"antum":14083,"ĠOrange":14084,"Ġspeaks":14085,"kov":14086,"Ġminority":14087,"Ġsorry":14088,"azines":14089,"Ġfer":14090,"ĠBeing":14091,"________":14092,"facebook":14093,"Ġawesome":14094,"ĠLl":14095,"ĠIntegr":14096,"ĠRap":14097,"ĠPi":14098,"Ġarrangement":14099,"Ġbacking":14100,"Ġdetector":14101,"ĠFried":14102,"ĠHunt":14103,"Ġ(*":14104,"diction":14105,"LY":14106,"iginally":14107,"Ġpoem":14108,"uct":14109,"ĠHil":14110,"writing":14111,"Ġcarrier":14112,"ĠMoney":14113,"Face":14114,"eda":14115,"Ġfoss":14116,"Ġcyl":14117,"Ġvessel":14118,"ĠOperation":14119,"Ġexped":14120,"ĠSimilarly":14121,"Law":14122,"Ġbegun":14123,"ĠKate":14124,"Ġresign":14125,"Ġtel":14126,"Ġterrible":14127,"east":14128,"wt":14129,"Ġtennis":14130,"Ġclothing":14131,"Ġeverybody":14132,"ĠStorm":14133,"building":14134,"Ġapproximate":14135,"ĠDeb":14136,"Ġunw":14137,"Ġranking":14138,"Ġmanufacturers":14139,"conduct":14140,"ĠChel":14141,"MW":14142,"ĠIO":14143,"Ġsteam":14144,"ĠLeban":14145,"ĠAgainst":14146,"yme":14147,"Ġdisplays":14148,"Ġ'/":14149,"ĠSony":14150,"pection":14151,"Est":14152,"ĠSS":14153,"Ġsyndrome":14154,"ĠJoy":14155,"'))":14156,"utable":14157,"report":14158,"ĠChron":14159,"ĠMitchell":14160,"ĠLeader":14161,"ĠPrincess":14162,"George":14163,"aceutical":14164,"Ham":14165,"ulu":14166,"abis":14167,"ĠWi":14168,"owned":14169,"ÑĮ":14170,"abe":14171,"txt":14172,"Ġequity":14173,"aba":14174,"ĠCollins":14175,"Ġborrow":14176,"/(":14177,"Ġdose":14178,"ECK":14179,"Ġcommissioned":14180,"longrightarrow":14181,"Ġengaging":14182,"127":14183,"Ã©t":14184,"Ġthereby":14185,"Ġrealistic":14186,"negative":14187,"human":14188,"ĠWa":14189,"ĠCemetery":14190,"ĠEdd":14191,"idespread":14192,"Ġreportedly":14193,"Ġoxygen":14194,"ogue":14195,"ĉĉĉĊ":14196,"1913":14197,"Dialog":14198,"quis":14199,";<":14200,"London":14201,"Ġvacuum":14202,"Ġspr":14203,"issues":14204,"ĠBlues":14205,"amsung":14206,";\\;\\":14207,"Person":14208,"ĠMontreal":14209,"}}}\\":14210,"Ġattractive":14211,"ĠKo":14212,"ĠSpect":14213,"Summary":14214,"China":14215,"Windows":14216,"TEST":14217,"ecution":14218,"ĠHerm":14219,"JECT":14220,"Ġthirty":14221,"Ġcooper":14222,"Ġgard":14223,"LD":14224,"imated":14225,"Ġhaz":14226,"Ġcomputers":14227,"ĠPun":14228,"ĠMaine":14229,"unsigned":14230,"ĠRobin":14231,"Ġties":14232,"Ġwelfare":14233,"ĠIF":14234,"azy":14235,"layer":14236,"ulates":14237,"ĠTol":14238,"ĠFM":14239,"})}":14240,"vart":14241,"ĠMes":14242,"Ġeffectiveness":14243,"tiny":14244,"urse":14245,")[":14246,"âĦ¢":14247,"Ġloaded":14248,"iti":14249,"Ġbronze":14250,"Trump":14251,"ĠSteel":14252,"ĠCommonwealth":14253,"Perm":14254,"Ġdescend":14255,"Ġjew":14256,"\\;":14257,"anton":14258,"resp":14259,"ĠPictures":14260,"opath":14261,"acer":14262,"Ġcompeting":14263,"ĠEarl":14264,"erious":14265,"ĠAlaska":14266,"Ġcous":14267,"requency":14268,"ĠJen":14269,"ĠLiterature":14270,"ĠMall":14271,"Ġ{{":14272,"ĠElection":14273,"ĠCommons":14274,"ĠEle":14275,"Ġcredits":14276,"Ġtrem":14277,"Ġflav":14278,"Ġflights":14279,"ĠInsurance":14280,"Ġclothes":14281,"phase":14282,"Delete":14283,"vature":14284,"Ġperiodic":14285,"ĠAB":14286,"Ġstops":14287,"Elect":14288,"mean":14289,"Îµ":14290,"udson":14291,"ecess":14292,"ĠRy":14293,"Ġcultures":14294,"Ġtomorrow":14295,"jections":14296,"Ġcricket":14297,"ĠSales":14298,"ĠRot":14299,"Î½":14300,"Ġshoulder":14301,"ĠCle":14302,"Comment":14303,"Bit":14304,"Ġvibr":14305,"appy":14306,"Ġcondem":14307,"ĠFiction":14308,"ĠCP":14309,"thy":14310,"Ġtonight":14311,"idges":14312,"ĠMovement":14313,"Ġcomparing":14314,"Ġpin":14315,"Ġtips":14316,"Bro":14317,"annes":14318,"ĠAthe":14319,"ĠUnfortunately":14320,"Ġcertificate":14321,"Ġ\\]":14322,"special":14323,"Ġboxes":14324,"ensis":14325,"Ġattending":14326,"Ġembedding":14327,"Ġsail":14328,"itual":14329,"ĠCarn":14330,"Join":14331,"Ġnut":14332,"recated":14333,"Ġcelebration":14334,"Sources":14335,"items":14336,"Ġreactions":14337,"pename":14338,"Ġtension":14339,"ĠEli":14340,"Ġactively":14341,"prison":14342,"WR":14343,"apsed":14344,"Ġdefining":14345,"cod":14346,"quality":14347,"groups":14348,"redited":14349,"CF":14350,"Ġsuspended":14351,"Ġlicensed":14352,"ochem":14353,"ynasty":14354,"Ġsupplied":14355,"boolean":14356,"ĠBarry":14357,"isan":14358,"Australian":14359,"Ġcurrency":14360,"Ġpermitted":14361,"ĠMagic":14362,"ĠHem":14363,"ĠProduction":14364,"annah":14365,"Ġbeliefs":14366,"ifle":14367,"Ġpainted":14368,"ĠOliver":14369,"ymmetry":14370,"Ġstere":14371,"Own":14372,"Ġimpacts":14373,"iterr":14374,"eway":14375,"kw":14376,"School":14377,"ovak":14378,"Ġprisoners":14379,"ĠLic":14380,"lett":14381,"Ġactivation":14382,"Ġluxury":14383,"ĠDie":14384,"`,":14385,"Ġensemble":14386,"wrap":14387,"riculum":14388,"Ġreflected":14389,"ashing":14390,"Ġtermin":14391,"ĠNEW":14392,"Ġdispute":14393,"external":14394,"Ġreflection":14395,"ĠCroat":14396,"Ġranges":14397,"Ġimpe":14398,"Ġfrequencies":14399,"Ġblame":14400,"von":14401,"job":14402,"Ġmixture":14403,"1890":14404,"Ġdad":14405,"Ġvariant":14406,"$_{":14407,"Ġexclusively":14408,"hole":14409,"ĠSide":14410,"ĠVenezuel":14411,"izontal":14412,"ationally":14413,"ĠGalaxy":14414,"Ġcanonical":14415,"\")]":14416,"ĠCharlotte":14417,"ĠHonor":14418,"ĠBarbara":14419,"Ġvaccine":14420,"asis":14421,"uits":14422,"ĠFR":14423,"ĠFro":14424,"ĠCensus":14425,"focus":14426,"eremy":14427,"ĠGlas":14428,"Ġsilent":14429,"Ġidentifying":14430,"Ġpleasure":14431,"ĠÐ¿":14432,"ĠPant":14433,"iri":14434,"rup":14435,"ĠInterest":14436,"USE":14437,"ĠBirmingham":14438,"ĠNaval":14439,"Ġfitted":14440,"Ġsectors":14441,"verted":14442,"Ġcalendar":14443,"looking":14444,"Peter":14445,"Account":14446,"ĠOcc":14447,"ĠHelp":14448,"ensively":14449,"Ġformally":14450,"Engine":14451,"video":14452,"igg":14453,"Ġnit":14454,"ĠTechnical":14455,"Moreover":14456,"Sal":14457,"ĠRacing":14458,"stats":14459,"YPE":14460,"Ġmanifold":14461,"EXT":14462,"Ġinches":14463,"Inv":14464,"supp":14465,"leading":14466,"Ġpic":14467,"Ġtexts":14468,"fony":14469,"ĠParker":14470,"Package":14471,"ĠNad":14472,"beat":14473,"Ġmemb":14474,"Ġactivist":14475,"Special":14476,"Ġbuilder":14477,"Ġdiagonal":14478,"oped":14479,"ĠPrimary":14480,"ĠGot":14481,"Ġblank":14482,"})=":14483,"mother":14484,"arding":14485,"exper":14486,"Ġgallery":14487,"Ġarchae":14488,"Ġtransparent":14489,"ĠVeter":14490,"ĠÂ§":14491,"onomous":14492,"series":14493,"Ġcollision":14494,"Ġpushing":14495,"Arm":14496,"Ġdoi":14497,"ĠTerrit":14498,"Ġburst":14499,"apters":14500,"ĠQuebec":14501,"READ":14502,"Ġgrows":14503,".),":14504,"agment":14505,"Ġveteran":14506,"Ġpuzz":14507,"Ġmsg":14508,"___":14509,"Ġsmile":14510,"Ġventure":14511,"ĠCBS":14512,"[-":14513,"uez":14514,"Ġtranslate":14515,"Ġcoord":14516,"Hence":14517,"ĠLad":14518,"@{":14519,"Ġbatch":14520,"olutions":14521,"Ġnearest":14522,"ĠHorn":14523,"Ġprogressive":14524,"charg":14525,"Ġtransformed":14526,"Ġexploring":14527,"ĠDir":14528,"ĠArg":14529,"owell":14530,"Scott":14531,"Ġhelic":14532,"ĠSL":14533,"ĠArena":14534,"ĠBR":14535,"ĠArkansas":14536,"ĠNothing":14537,"Ġcongress":14538,
[...]
