#version: 0.2
Ġ Ġ
Ġ t
i n
ĠĠ ĠĠ
Ġ a
e r
o n
h e
r e
a t
Ġt he
e n
o r
Ġ s
e s
a n
i s
i t
a l
Ġ c
Ġ o
Ġ w
a r
e d
Ġ f
in g
i on
Ġ p
n d
Ġ b
l e
o u
i c
Ġ in
a s
Ġo f
ĠĠ Ġ
ĠĠĠĠ ĠĠĠĠ
Ġ m
r o
Ġ d
Ġt o
Ġa nd
en t
e t
Ġ h
c t
s t
e l
i l
Ġt h
o m
Ġ re
a m
Ġ n
Ġ S
i d
â Ģ
Ġ T
Ġ l
o l
Ġ C
Ġ A
u r
c e
u t
at ion
Ġ e
i g
i m
o t
Ġ (
i v
a d
s e
c h
Ġ g
Ġ I
ĠĠĠĠ ĠĠĠ
Ġ is
a y
Ġ M
u l
o w
Ġf or
t h
l y
er s
a g
Ġ on
o d
i f
Ġs t
Ġ P
u n
Ġb e
u s
Ġ =
e m
i r
Ġ B
t er
a c
it h
Ġ v
ĉ ĉ
< /
u m
a b
at e
p e
Ġth at
2 0
a v
es t
= "
Ġ D
) ;
Ġ R
t r
Ġc on
v er
o c
Ġ H
Ġa s
a p
Ġw ith
Ġ F
q u
- -
Ġw h
e w
Ġ {
h t
an d
Ġ L
es s
o p
Ġ $
Ġ W
Ġa n
Ġa l
is t
Ġ N
Ġ <
âĢ Ļ
re s
Ġ it
Ġp ro
Ġ y
/ /
ou r
as s
ct ion
Ġ G
ĠĠĠĠĠĠĠĠ ĠĠĠ
Ġ E
or t
a in
e x
en d
er e
il l
ĠT he
Ġ \
o s
u b
č Ċ
it y
Ġ r
am e
Ġd e
Ġ *
Ġw as
ro m
p t
Ġc om
o re
Ġa t
k e
r i
m ent
Ġe x
Ġb y
u p
Ġ "
ar t
u e
Ġ or
i es
ag e
l d
p l
Ġc l
al l
Ġ O
Ġa re
Ġ he
Ġ J
e ct
iv e
in e
Ġ }
an t
1 9
n t
ig ht
Ġf rom
Ġth is
Ġ âĢ
Ġs e
o g
" >
u re
ac k
u d
p ort
. .
i al
c l
i z
u st
an s
ĠĠĠĠĠĠĠĠ ĠĠĠĠĠĠĠĠ
Ġt r
at h
ur n
av e
i b
g e
ar d
Ġc h
0 0
Ġw e
Ġ U
ul t
Ġn ot
r ou
o v
Ġs h
p er
a ct
( )
f f
c on
ĠĠĠĠ Ġ
b er
ou t
el l
* *
i p
ab le
a re
o st
ar y
or m
as t
a k
T he
Ġ le
at ed
ex t
in d
s p
' s
o k
e f
i a
Ġ if
i re
c om
Ġy ou
or d
20 1
ic h
Ġ K
Ġh ave
a ce
e g
Ġ &
t urn
Ġp l
ic e
in t
e ar
id e
Ġcl ass
as e
on g
ou ld
or k
g et
Ġ -
ĠI n
ion s
y pe
-- --
ic al
= =
e p
i le
Ġ '
ig n
Ġ j
od e
Ġh as
it e
im e
Ġ V
Ġa b
ĠS t
I n
Ġc an
Ġin t
Ġal l
ub l
en ce
âĢ Ŀ
Ġ us
c c
Ġcom p
l i
a il
ĠT h
an g
er v
st r
Ġ k
an ce
Ġa d
_ {
at a
th er
Ġh is
Ġ u
on e
Ġn ew
p ro
re f
en s
ation s
ĠĠĠĠĠĠĠĠ ĠĠĠĠĠĠĠ
ou s
e v
j ect
Ġ im
e c
Ġ un
il d
f orm
o b
) ,
it ion
Ġw ill
he n
or y
Ġcon t
s o
Ġa r
Ġwh ich
a ch
res s
Ġre s
) .
g h
om e
ent s
ĠC h
Ġre turn
Ġd is
d u
Ġa p
Ġb ut
ubl ic
Ġd o
Ġ //
er t
l l
Ġ en
on t
r a
Ġo ut
o ok
al ue
oc k
Ġthe ir
Ġg o
p h
ro w
Ġ up
i an
Ġ Ċ
ow n
ĉĉ ĉĉ
Ġ [
u g
u al
- >
: :
f t
ĠâĢ ľ
Ġm e
ou nd
el f
ar k
o se
in k
Ġon e
is h
Ġ </
1 0
Ġthe y
a ke
or s
re e
un ction
our ce
Ġw ere
f er
S t
en c
ul l
ter n
Ġ Y
m er
Ġm ore
Ġp r
r y
Ġs c
ou nt
ir st
i ew
t e
.. /
Ġp er
20 0
ic k
Ġe v
h er
Ġwh o
n e
{ \
Ġst r
a u
p le
Ġ @
Ġp art
" ,
s s
ic t
Ġ |
Ġal so
c ri
p s
el y
Ġm an
o ol
ing s
ol l
Ġ /
cl ud
r it
he d
pt ion
ar am
Ġs o
ol d
ay s
Ġa g
at es
Ġ$ \
c k
Ġs u
Ġit s
iz e
in al
Ġg et
Ġ qu
Ġw ork
er y
Ġ +
Ġs p
a w
et h
d iv
m l
Ġab out
i el
Ġh er
m a
Ġbe en
s et
Ġy ear
( "
le ct
y st
Ġh ad
Ġo ver
en er
m ath
w e
ĠI t
( );
Ġp re
nd er
w o
Ġn e
pe c
ess age
Ġl i
E x
Ġp ublic
n g
Ġt e
p ut
f ter
at er
s h
Ġo ther
iel d
pe ct
1 8
Ġde f
Ġt ime
an c
l o
ĠH e
p r
ic s
er m
ĠâĢ ĵ
is s
o ver
on s
Ġ .
Ġs et
> </
ĠU n
Ġs a
o int
i e
---- ----
sp an
Ġw hen
f r
Ġf irst
Ġn ame
y s
ou n
' ,
t y
c re
Ġ ro
tr ing
Ġan y
Ġp e
Ġth ere
on d
ation al
i o
T h
yst em
E R
l es
op le
Ġo ur
1 2
i x
v e
v el
Ġre c
> <
Ġcom m
Ġw ould
Ġof f
ig h
Ġo b
Ġd es
Ġth an
Ġf unction
** **
Ġs up
er r
f ig
Ġ* /
Ġint o
re at
Ġin ter
r am
Ġ :
ad e
em ber
r ap
i ed
Ġy our
Ġas s
Ġs ome
Ġv ar
ov e
== ==
rou nd
if ic
at ch
a x
o id
O N
Ġk n
e qu
Ġthe m
i ous
I N
P ro
../ ../
} }
t ext
ĠĠĠĠĠĠĠĠ ĠĠĠĠĠĠĠĠĠĠĠ
Ġad d
ar ch
ĠC om
o y
p os
Ġt wo
an ge
ap p
ĠA r
Ġa cc
od el
n ing
ar g
is e
al s
Ġn o
rou p
Ġin clud
Ġb et
ol og
e b
Ġ #
Ġon ly
ĉĉ ĉ
Ġsa id
Ġs he
r ay
al ly
t o
id ent
Ġpl ay
tr ib
^ {
Ġc ol
n ame
ht ml
: //
i ent
Ġa ct
( '
u ild
Ġpe ople
at or
1 1
as ed
l ine
at ive
ĠTh is
am es
th is
ur re
Ġre g
it ies
ĠĠĠĠĠĠĠĠ Ġ
ĠN ew
) )
Ġ end
Ġu nder
or ld
Ġcon s
um ber
Ġo p
Ġf e
Ġli ke
u es
Ġin d
Ġd ata
ĠP ro
at ic
N ame
at ing
ment s
t t
trib ut
Ġh ref
c he
ul ar
Ġs ub
Ġtr ans
en g
} $
u ct
} \
it ed
w ard
ot h
em ent
ab el
1 6
Ġa fter
Ġpro v
n er
ke y
1 5
_ _
tr ans
l ation
am p
u nd
Ġe m
R E
as h
Ġin v
rou gh
s ource
T ype
Ġa m
l and
Ġwh at
Ġb l
Ġb ack
le t
m essage
r ight
ar s
t he
im port
Ġm ay
re d
ĠS e
Ġp os
e ad
Ġm y
Ġwh ere
an k
il ity
Ġj ust
Ġv alue
au se
Ġt ype
ĠT r
al se
iv ers
m s
ow er
c al
re ad
ire ct
C on
Ġre qu
2 1
Ġre l
Ġu se
ur ing
eth od
ic es
Ġ= >
ou gh
Ġd if
d d
it s
u res
Ġa c
Ġre m
p aram
ĠW e
o x
Ġs erv
Ġh ow
Ġ el
I d
Ġf il
t d
oll ow
S T
e k
ut h
Ġm ost
ib le
t on
Ġe ver
an n
c ess
S tring
C h
r u
o ot
Ġc all
t s
A T
.. .
o od
v ent
Ġl ine
il y
an y
Ġst ud
Ġp ol
C om
Ġs elf
Ġres ult
c ol
Ġth rough
b le
Ġs pec
w n
eg in
} ,
y m
re turn
Ġbe c
s on
Ġp h
ĠA l
it t
res ent
f ore
Ġl oc
( \
Ġ ent
C ont
d er
Ġsu ch
a ir
Ġ i
w w
c ed
I D
cri pt
Ġthe n
con d
mer ic
3 0
rap h
f ul
Ġh im
y n
c ode
Ġf l
urre nt
Ġ| |
o f
19 9
ĠS h
Ġsh ow
e le
Ġthe se
Ġcon st
Ġne ed
if e
Ġpro du
l ed
ht t
Ġyear s
ag es
âĢ ĵ
b egin
a h
a ult
/ >
we en
id er
Ġ !
Ġc o
i er
in ce
R es
1 4
ch ool
pl ic
in s
re n
ac he
c ent
1 7
ction s
in es
2 5
at ure
ad d
Ġus ed
ist s
# #
ĠA n
m in
O R
ers on
A R
im es
Ġor g
Ġin st
d ef
Ġw ell
Ġat t
. âĢĿ
ĠC l
Ġf ollow
or g
m an
f l
c o
âĢ ľ
is hed
C l
v iew
ce ption
Ġfor m
Ġc ould
tr y
Ġb r
1 3
d ay
as on
as k
cl ass
enc es
Ġg r
t a
ĠW h
p on
ers ion
trans lation
um ent
" />
Ġsh ould
in ed
ot her
Ġag ain
Ġch ar
al e
Ġbet ween
Ġ _
it le
is ion
iv ate
' t
t ype
Ġt est
Ġst art
Ġe ff
I t
f o
h ip
iz ed
or n
oc i
L ist
Ġdif fer
00 0
Ġ= =
al th
E N
Ġn ow
A L
u ch
form ation
A r
ut ion
Ġd r
) :
iv er
p ress
Ġr ight
t ain
t ing
Ġg ener
a z
Ġc re
Ġd et
ĠA meric
_{ \
b l
Ġl ong
Ġ Q
r al
ĠC on
ĠE x
Ġbe ing
Ġs ystem
od y
Ġs m
Ġever y
Ġman y
Ġn ull
iv es
s elf
20 20
Ġkn ow
ak ing
ou se
b e
// //
er n
b ack
re am
um m
) $
w ay
Ġ >
Ġs ign
Ġm ake
y le
o h
Ġv oid
ant s
Ġs im
e ver
Ġv al
Ġc or
et s
Ġn umber
i ence
Ġ Z
v al
ĠF or
b r
Ġc ase
Ġre ad
o le
ĠA nd
T r
is m
} {
Ġtr ue
ire d
L E
Ġhe l
Ġd id
Ġar t
Ġe le
Ġs ur
s er
e y
Ġs er
Ġh igh
Ġf inal
l abel
Ġm in
c es
Ġ ed
p re
"> <
l oc
v ar
ce pt
Ġsup port
r ic
t en
Ġp oint
id th
ot e
ĠI nd
ivers ity
i k
Ġbe fore
in ess
Ġbec ause
Ġf ound
et a
us s
Ġm on
Ġl ist
Ġ `
ĠA s
Ġev en
Ġse e
5 0
y p
u ff
g ram
Ġf alse
Ġwh ile
olog y
Ġe ach
S S
Ġdo es
Ġg u
ath er
Ġ --
Ġc oun
or th
Ġl ook
cc ess
Ġel se
w ork
) );
Ġm ade
b y
. "
Ġde c
Ġw orld
Ġw ay
ro l
ĠĠĠĠĠĠĠĠĠĠĠĠĠĠĠĠ ĠĠĠĠĠĠĠĠĠĠĠĠĠĠĠĠ
Ġf am
at t
vel op
Ġm ed
T o
per ty
Ġex per
2 2
Ġ err
Ġle ad
are d
ar get
Ġde velop
a j
en se
Ġb el
le ft
eng th
Ġv ery
str ing
e e
are nt
u c
Ġc ent
al k
Ġs ame
. ,
Ġl ast
p ar
Ġe ar
fr ac
b ject
e q
Ġo per
-------- --------
ut e
ch n
**** ****
Ġh and
am ple
s c
et er
Ġst ate
Ġb oth
f or
2 4
it al
b ar
ro ss
Ġo wn
W e
ical ly
tern al
R ef
Ġre sp
iv en
A N
ĠD e
b ers
Ġ )
ĠS c
Ġth ose
us iness
Ġm odel
, âĢĿ
Ġd uring
enc y
Ġex t
u le
s ub
r r
Ġ x
g y
ĠI s
ĠY ou
av a
Ġr un
iz ation
w h
if y
if ied
V alue
Ġth ree
ĠC ol
is ter
ĠĠĠĠĠĠĠĠ ĠĠĠĠĠ
19 8
Ġc he
ot t
as es
Ġd own
d ata
Ġre p
op t
I T
ro ll
v alue
Ġa v
D ata
Ġm od
iv ing
ĠF r
ual ly
i ev
m ed
Ġte am
Ġhel p
Ġf ind
W h
C ol
Ġdiffer ent
g er
3 2
" );
d ate
Ġus ing
ap t
ĠR es
Ġ est
Ġdis c
Ġg l
ĠĠĠĠĠĠĠĠĠĠĠĠĠĠĠĠ ĠĠĠĠĠĠĠ
Ġm ov
B y
Ġd irect
Ġap pro
Ġm uch
ĠP h
Ġse cond
n ess
math b
m e
p p
ĠI f
n ew
Ġre port
ĠP l
Ġw ant
Ġgo od
Ġm em
Ġc urrent
Ġs ol
ou th
ur al
Ġ id
ĠR e
Ġin formation
Ġcomm un
Ġcont in
Ġim port
t il
Ġh ere
Ġ/ **
erv ice
S E
ĠĠĠĠ ĠĠ
at us
Ġw rit
ĠâĢ Ķ
ĠB l
it em
uth or
âĢ ¦
con t
Ġth ink
ain s
n ot
Ġd on
ion al
U n
Ġb o
Ġstr ing
Ġc ar
C T
Ġpr ivate
Th is
r on
Ġs l
le ar
pl ay
Ġp ass
n b
in a
Ġch ild
ar m
iss ion
Ġpart ic
Ġb uild
ĠCom m
Ġm ark
ur y
ĠâĢ ĺ
Ġre le
umm ary
1 00
==== ====
u se
us ic
p x
Ġpro cess
ak es
lo ad
Ġper form
$ .
E n
com m
f ace
o ad
Ġe qu
iv ed
ĠP r
t est
al ity
com e
S et
ĠM ar
c ite
ĠO n
Ġf act
ĠUn iversity
Ġap p
( $
an e
Ġp erson
a ction
f ile
um n
r m
A n
ord s
Ġ X
" )
ot s
qu e
Ġm ethod
le ction
4 0
$ ,
el s
ent ial
D E
se arch
at s
g ht
am b
Ġinclud ing
Ġv is
Ġst ill
et y
end s
2 3
Ex ception
Ġob ject
Ġ// /
nb sp
Ġm ain
u ck
us h
ro id
ĠA d
l er
A s
C O
ist ory
Ġt ake
} .
Ġop en
he ad
ĠS he
} )
oh n
re ak
Ġl ife
Ġp at
b s
ĠB ut
Ġin cre
re g
Ġb ook
] ;
Ġf ield
ord er
Ġprov id
Ġbe g
Ġf r
o ber
Ġo pt
Ġ& &
is tr
M E
Ġhe ad
om en
it ions
ur s
Ġto p
Ġs ing
b all
Ġagain st
n ment
math cal
O n
Ġc our
re qu
Ġex pect
, \
v en
Ġin s
Ġgo ver
ar n
ĠS p
Ġa round
rr or
f ield
ag er
ain ing
Ġst atic
A t
um p
F or
O bject
ĠJ an
Ġde p
ĠM ay
19 7
Ġwe ek
G et
S h
Ġp ost
Ġp op
Ġc are
ra w
htt p
Ġor der
Ġeff ect
Ġs om
Ġs ince
Ġs chool
ow s
Ġn on
ect ed
Ġ ke
Ġc r
Ġg roup
l ess
le y
l og
loc ation
Ġd el
en n
Ġ key
' )
str uct
Ġd ay
Ġm ust
ĠS tring
oc ument
un e
in ter
Ġ! =
u ro
et work
Ã ©
it or
ĠO r
t ime
T est
Ġpro gram
Ġt ri
Ġg ame
ill ion
6 0
] ,
op y
I m
p or
20 19
ĠH ow
le x
ĠE ng
i or
Ġf in
ĠAmeric an
os s
Ġar g
Ġb est
re m
Ġre ce
g o
r ist
Ġp res
g r
v ious
ĠL e
ir d
Ġ %
Ġpl ace
ac y
ust om
r ite
s ize
pl oy
f e
() .
2 7
ro p
Ġt erm
Ġs ay
i um
Ġl aw
ĠA ll
Ġre f
I nd
() );
Ġev ent
re en
ect or
Ġdes ign
Ġn ext
Ġre al
a pe
Ġsm all
oc ial
Ġfollow ing
6 4
Ġpos s
Ġl ink
Ġm et
Ġap pe
Ġex pl
2 8
I C
ir c
v ir
id d
Ġis s
ul ation
ph a
g round
d a
Ġle vel
ab l
ĠU S
Ġloc al
le ment
av ing
ail able
Ġh tt
ig inal
A C
ab ility
is ed
Ġb usiness
ac es
iv ely
tr act
l ink
s ummary
Ġchar act
ĠUn ited
d is
ate g
tern ational
3 3
ut il
s cript
} (
201 7
Ġst and
equ ation
Ġg iven
} _
Ġcons ider
ĠThe y
Ġad v
201 8
b o
Ġf our
r c
it ial
Ref er
l ist
ĠM an
Ġp ower
Cl ass
R O
Ġan n
cri ption
Ġ z
201 6
Ġf ile
V iew
ord ing
~ \
ww w
og raph
Ġte chn
Ġm at
ob al
2 6
Ġg reat
as ter
E rror
n av
ĠC ent
Ġpro ject
ĠĠĠĠ Ċ
ĠB r
I ON
w it
un c
a ff
L L
âĢ Ķ
a it
} ^
Ġa ut
Ġp resent
Ġp aram
201 5
um er
Ġle ft
ang u
t op
og le
ar ge
in ation
ĠA ss
ĠA t
a i
w ays
ĠN ov
ind ex
Ġorg an
ĠJ ohn
20 21
ol v
f unction
m od
ug g
2 9
. _
or ies
at ely
Ġle g
Ġh ome
er ing
Ġfam ily
Ġt itle
ver t
Ġpro t
u ary
ur ation
en e
Ġwith out
Ġv iew
ĠB e
Ġo ld
p ublic
in clud
ur l
ĠJ ul
ĉĉĉĉ ĉ
ic le
[ '
Ġc ap
Ġd em
ar i
ĠT o
it er
" ;
b ed
um an
] .
ĠC an
Ġs ays
ĠTh ere
Ġan other
ic y
. </
ep end
"> </
Ġmon th
m p
Ġtr y
w are
K ey
A P
p ace
Ġinv est
a im
port s
o ff
" :
ail s
ur ch
Ġex p
H e
Ġinter est
A l
j s
htt ps
R equ
Ġhe alth
E D
he s
oc us
our ces
ĠG r
Ġb u
Ġgo ing
Ġb ro
ĠC ar
ess ion
Ġwith in
con om
Ġcall ed
lect ed
it ive
Ġt em
' );
ition al
Ġch ang
ĠT e
() ,
m y
ou ght
Ġcont ent
Ġs k
Ġre ally
p i
if t
Ġm ult
Ġ Â
Ġs ize
201 4
R e
du ct
end ed
ĠE n
w idth
L A
Ġbe h
Ġvar i
Ġoff ic
em s
ent ly
Ġs pe
al pha
Ġse ver
aj or
ific ation
a ut
Ġb ased
ain ed
Ġan al
ur ity
ĠO ct
ĠP ol
plic ation
ide o
Ġp ar
Ġf ew
W ith
el ta
st and
tribut e
uff er
ĠM ed
Ġcon d
Ġfil m
Ġstr uct
F ile
Ġ ident
Ġcomp any
m b
Ġto o
ĠC O
Ġth row
Ġrequ est
our n
in c
ight s
S e
ount y
iv al
i am
p ath
P E
al ign
i ents
ert ain
ack age
on y
Ġh app
se ction
Ġse ason
' ]
o pe
ne y
t able
Ġpro ble
Ġav ailable
Q u
ag ement
itt le
ĠN o
f il
Ġser ies
! --
Ġacc ess
vir on
Ġ ?
Ġt arget
con st
Ġl im
Ġkn own
Ġl ater
ĠW orld
Ġt urn
Ġserv ice
Ġch ange
Ġall ow
Ġm usic
ĠA ug
A ll
ĠG u
Ġle t
pon se
ar r
um e
end ing
Ġd ist
T ime
Ġsu ccess
Ġpol it
Ġt ext
ard s
Ġgover nment
p art
s ide
anc es
is on
201 3
Ġg row
U R
ĠY ork
I nt
iv ity
Ġen g
M an
ĠN ational
a f
col or
ĠJan uary
=" ../../
ward s
Ġo cc
T R
le g
A dd
ĠSt ates
Ġp ut
Ġre fer
u k
al es
m ber
ain t
//// ////
l ing
s erv
ore d
E vent
i ans
Ġf ull
ĠA pr
ĠC o
Ġt yp
ap s
ear ch
ĠF l
ep s
A S
8 0
Ġde v
ib r
i od
ag n
and s
amb da
b ut
U T
) \
Ġn ear
I S
che s
ur ther
4 5
ĠA ust
angu age
Ġre search
read y
Ġl og
ag s
th ing
ut ure
H E
Ġqu est
ater ial
Ġne ver
Ġresult s
201 2
Ġb ig
Ġun til
et ers
Ġ et
IN G
ic a
Refer ences
Ġrep resent
O r
Requ est
Ġa ff
Ġass ert
Ġche ck
ĠM in
us er
Ġcon f
is ing
N ode
t ies
ev el
g roup
our s
il ar
Ġprodu ct
c ast
pec ial
N ew
s w
ent ion
d e
ict ion
A D
N ot
ĠS chool
ure d
Ġl ess
eth ing
ĠM arch
ĠE uro
ĠD r
ĠSt ate
er al
P h
l ang
u f
em pt
is k
E S
T ext
Ġ );
P l
3 5
m d
Ġw in
=" +
Ġerr or
Ġl a
ul es
l ock
Ġare a
' :
Ġ/ >
A nd
In fo
Ġpro f
ou ble
ĠI m
ic on
ens ion
Ġre st
Ġcre ate
b ol
p ed
se c
Ġrec ord
St ate
I s
` `
Ġal ong
201 1
c er
Ġinclud e
/ *
ĠCh rist
ind ow
Ġpro m
= \
Ġst at
Ġp ath
Ġbet ter
pt ember
Ġ es
Ġf ac
ce mber
Ġpl an
() )
im ate
D ef
O ver
Ġst ory
ĠE d
ab ly
Ġv ersion
, "
201 0
ĠS o
/ **
ole an
d own
st ance
Ġimport ant
E qu
l ength
th ers
qu ot
am ma
viron ment
press ion
Con fig
i que
P ath
ĠG e
Ġg ot
Ġor iginal
Ġm ight
at ors
Ġp ay
O T
Ġex ample
re t
Ġchild ren
id es
ĠA b
Ġ\ \
Ġcom e
D es
al f
Ġ-- >
Ġcont rol
d es
Ġus er
om an
Ġb reak
Ġme as
un g
mathb b
end er
ar ray
am ed
Ġf ree
r ide
ĠS outh
ok en
Ġal ways
} ;
Ġsh ort
en u
eg a
Ġ/ *
y l
I G
F ield
b um
ĠC al
Ġas k
ĠR eg
_ \
Ġ ide
Ġcoun try
Ġl arge
Ġstud y
Ġmem bers
Ġf ore
Ġbl ock
u ed
b ox
Ġsing le
tr a
Ġcl os
ĠJ une
ĠS up
Ġm ajor
ol ution
ames pace
b t
Ġw omen
err or
Ġ ,
ĠW ith
g ress
Ġdes cri
ĠC ity
Ġf oot
$ \
ĠF eb
Cont ext
19 6
il t
Ġp o
ith er
Ġe as
con fig
b ody
P aram
at ures
Ġs it
on es
a us
ĠĠĠĠĠĠĠĠĠĠĠĠĠĠĠĠ ĠĠĠĠĠĠĠĠĠĠĠ
F F
pl es
re w
Ġa uthor
Ġsever al
str u
I f
pos ed
M ap
o in
Ġw he
Ġh ard
Ġre t
v oid
od es
ple ment
ĠS ystem
ĠApr il
pro v
Ġd ays
ĠR ep
i ke
3 1
Ġto t
} _{
Ġd i
ĠJul y
Ġth ings
pl ace
F orm
ĠA p
ĠW ar
ra ft
com p
ig ma
Ind ex
Ġsom ething
b ook
ag ed
ĠOct ober
n ode
st it
ĠP art
et ing
Ġb as
Ġs ocial
Ġme an
Ġar ray
Ġde ath
Ġadd ress
Ġd ue
Ġear ly
Ġal ready
Ġplay ers
id ual
9 0
le ge
Ġe lect
ic ro
f in
Ġc ity
Ġm illion
Ġc ost
ĠSe ptember
Ġf ri
ap i
.. ..
Ġcharact er
Ġw ater
ĠEuro pe
} ^{
ĠAug ust
ap er
E T
ir t
ĠDe cember
ĠC ounty
Ġdef ault
Ġen c
Ġ( !
ĠW ill
Ġcommun ity
ĠNov ember
Ġc ell
m u
M P
Ġp ubl
orm al
Ġof fer
ail ed
" .
ag ue
E lement
ym bol
Ġc lear
Ġl and
art ment
w ord
Ġim p
Ġst yle
Ġs ong
o ice
one y
Ġh istory
B ut
Ġt imes
ĠM c
h old
Ġrequ ire
il it
et urn
Ġsp ace
Ġac ross
9 9
Ġse c
ĠTh at
u i
ĠC ont
## ##
Ġf ar
Ġf und
ne ction
C ode
S ervice
Ġval ues
Ġprov ide
Ġv ol
ĠP ar
p en
ay out
g l
ĠG et
Ġpos ition
ab led
op er
ĠA g
L O
ĠP res
5 5
Ġ} );
Ġl ittle
U S
0 1
Ġspec ial
Ġpartic ular
f rom
s m
[ ]
Ġpr act
" "
ĠB rit
Ġb ase
Ġm ar
******** ********
per ties
' ;
Ġs ide
t itle
ay er
Ġc rit
ap ache
id ence
tr ue
Ġre du
Ġfe el
ass ert
Ġh old
ĠN orth
c d
Ġa ction
in put
Ġest abl
3 4
Ar ray
n o
3 7
m odel
Ġex ist
p oint
\ \
Ġle ast
se e
ĠB o
B uild
ys is
ou d
Ġc over
Ġs ource
ĠO ff
v es
ĠC or
res ult
Ġc ode
Ġwork ing
ĠR ev
am ent
Ġres pect
t es
Ġ} ,
Ġn etwork
3 6
Ġke ep
Ġpre vious
ad a
Ġposs ible
O f
i ol
Ġl ot
ec ut
st ate
Ġind ust
Ġass oci
pro t
bl ock
d t
um ents
M L
ib ility
m ap
Ġa ir
ĠA ct
- \
ĠB y
ĠHow ever
ar ing
on se
Ġp ot
h at
Ġh uman
Ġbel iev
Ġh ig
n ow
Ġcomp let
Ġr ad
+ +
Ġw on
yn c
ro du
ru ary
s k
Ġl arg
U N
Ġab le
pl ate
pon ent
ist or
S ize
p m
Com m
Ġresp onse
Ġc ustom
Ġli k
Ġcl aim
ob ject
re et
ĠD is
Res ult
s l
ak en
Ġe conom
Ġem ploy
v ersion
Ġcon fig
F rom
Ġm aking
g ed
an a
Ġan t
Ġyou ng
b f
at ter
Ġdevelop ment
op s
Ġcont ext
i ef
Ġm ax
Ġin div
A B
u x
200 9
ĠAust ral
re l
Ġl ove
Ġp ast
Ġbe come
F il
Ġper iod
ab les
ri or
cont ent
3 9
lo at
ign ed
Ġp arent
Ġre view
Ġc amp
ĠM e
à ¤
er o
Ġc ult
Ġstud ents
ĠC he
ac c
Ġc al
res p
ri x
Ġab ove
M essage
Ġph ot
Ġam ong
n ect
pos ition
Ġr ange
Ġacc ount
ĠNew s
Ġto get
Ġserv ices
Ġtoget her
ĠQ u
Ġro le
Ġa way
ĠW hen
m et
r ation
Ġexper ience
Ġen er
Ġin put
Ġof ten
h am
ab or
ĠS er
4 4
Ġf ocus
v ers
ott om
= '
EN T
Ġh aving
It em
H and
Ġj ob
M A
Ġl ow
Ġgener al
Ġpro perty
s um
le te
mathb f
op h
ĠĠ Ċ
ir l
c all
d om
^ {\
Ġal bum
Ġw ar
ĠE l
Ġtr ad
Tr ans
Ġcon c
p ly
S c
Ġlink s
og n
Ġed uc
ref er
ph i
Ġto ok
3 8
Ġf uture
Ġsim ilar
7 0
rou ps
y d
in fo
Ġstr ong
L oc
Ġe p
im al
ann el
Ġtot al
Ġin itial
ĠG l
Ġ __
Ġd ocument
er ed
ill s
Ġdis tribut
le ase
Ġcom b
Ġcol or
l ambda
Ġd om
ix ed
Ġar r
Ġfor mer
T E
os p
cre ate
cl us
stru ction
ĠW est
u ation
Ġindiv idual
av el
m ost
Ġsign ific
ĠO ne
Ġdisc uss
o ke
st er
U p
ourn al
l ish
Ġtr ack
200 8
Ġd iv
d o
li ent
n ers
Ġopt ions
P r
S er
Ġt alk
Ġin c
V al
Ġf ive
s el
Ġme ans
ĠG o
C E
l t
a ul
Ġj ava
ip s
ĠFeb ruary
Ġg ive
id s
Ġs ite
O ut
F r
em ic
Ġann oun
S ystem
Ġl ight
def ault
Ġb en
V ID
Ġmed ia
h o
in o
R ead
Ġf urther
ĠG erm
Ġbec ame
re c
Ġr a
at form
ip le
er a
Ġ: =
ir m
if f
Wh at
z e
ĠCom p
In ter
def ine
Ġc ame
="../../ ../../
un ity
re ed
A d
Ġwh y
7 5
ig ation
ĠN ot
ell ing
t ings
Ġk ind
ri ed
in ary
ĠC oun
um b
b it
ir th
ĠAr t
ĠB ar
Ġob serv
Ġwhe ther
e h
Ġt reat
un k
il on
4 8
includ e
Ġd one
I P
itt ed
Ġunder stand
> &
Ġh ouse
Ġth ought
Ġth ough
im ent
Ġb ody
Ġm atch
Ġinst ance
Ġp age
oc r
Ġ{ \
w ith
Ġse en
6 6
ĠA m
ma x
th ough
Ġh ost
I L
ac ed
wh ere
Ġm essage
he l
ĠR ec
R eg
c ell
ĠD ep
Ġpro b
O D
ist ic
Ġdet erm
Y ou
ĠA fr
D is
Ġt able
id ed
Ġpoint s
Ġ= ==
Ġoffic ial
c il
Ġind ex
H ow
Ġsup er
ther n
c y
Ġinv olv
Ġn ode
Ġto day
olog ical
Ġm en
C H
ĠP er
Ġback ground
Ġ Ð
it ing
ĠD av
r ing
s up
19 5
ag ing
Ġrequ ired
Ġm ass
ĠD es
Ġc ur
l im
Ġo thers
i j
L og
Ġp ort
re st
Ġn ational
C all
---------------- ----------------
l ight
Ġth ird
roll er
Ġcomm on
M odel
ĠD o
T H
Ġs rc
ĠP ark
ill ed
ugg est
Ġener gy
Ġc ases
ond on
Ġon ce
T D
ĠH ouse
N A
Ġwe bs
Ġint eg
Ġcour se
Ġrel ations
m at
Ġg ames
Ġev ents
Ġv ideo
Col or
Ġm ember
Ġcomp et
ac hed
b ase
b eta
ĠThe se
Ġnew s
Ġa ge
n a
Ġc ertain
e ff
g t
Man ager
Ġe ither
j ava
ĠH is
Ġm om
ĠL ist
ĠM ark
Ġd est
Ġen ough
ĠG ener
ĠA fter
ĠI nt
Th ere
ĠĠĠĠĠĠĠĠ ĠĠĠĠ
im um
al t
Ġl ive
il ities
Ġs ix
ar row
em ents
l in
math rm
id ge
p ose
ĠPres ident
un ch
ĠP e
Ġim age
Ġproble m
ĠS m
Ġexpect ed
U LL
ound s
* }
T able
ĠE m
Ġshow s
Ġdid n
Ġob tain
n ext
ing ton
ur g
N o
ĠWh at
Ġhtt p
0 5
Ġperform ance
Ġsignific ant
Ġs ure
Ġb it
200 7
Ġ} ;
Ġcomp ut
us ing
0 7
Â ł
ud e
ĠK ing
ibr ary
am a
at ab
ĠM y
Ġt re
ĠHe alth
pr int
Ġc oll
an ch
y ear
ec ess
Ġs ent
re ate
as ing
Ġpot ential
ĠS ec
i us
ic ense
Ġc ount
Ġre ason
ap an
sp ace
h ib
ĠI I
Ġbeg in
st art
c ss
ĠI N
Ġbuild ing
is es
ild e
c le
e ed
s igma
c hed
ĠCh ar
Ġele ment
ic ation
Ġm ot
if ier
Ġmark et
Ġph ys
Ġm aterial
ĉĉĉĉ ĉĉ
Ġstart ed
an el
Ġdoes n
Ġm akes
0 8
Ġatt ack
; &
in it
con text
Ġc reat
Ð °
il le
======== ========
D e
Ġu nd
Ġrece ived
Ġrele ased
Ġs at
a e
d oc
go ogle
; </
Ex ternal
Ġr isk
Ġb order
U ser
and roid
pt y
ĠAmeric a
m ark
Pro perty
idd le
Ġgl obal
val id
Ġp ress
ĠS tr
Ġth ing
n et
Ġprovid ed
C lient
min istr
ĠS et
o on
ver age
an ies
che ck
ĠTr ans
Ġst op
f alse
) }
R ec
it es
Ġy et
Ġab s
oci ety
Ġhtt ps
im ary
S ub
ograph y
ĠC our
ĠR uss
Ġcl ose
ĠS ch
4 9
Ġb ool
ĠB ro
ĠSt ud
E m
4 7
=" #
p ackage
ĠH ar
^{ -
p arent
pt ions
O S
Ġcre ated
E d
a ur
Ġm iss
Ġn il
en ed
Ġs uggest
ĠH igh
F l
Ġhe ld
av es
i res
Ġ( \
st atic
fl u
p ing
se qu
ĠA dd
Ġfe ature
Ġm ove
ens ure
ad es
ĠL ondon
Ġfoot ball
b uild
ir us
Ġa ud
A ss
Ġw ent
row n
Ġst d
200 6
M S
I R
Ġact iv
and om
Ġdif f
Ð ¾
Ġch all
st yle
Ġplay ed
Ġmonth s
o o
v ision
=" ../
t ab
i et
b ig
C C
Ġm ap
k s
i ation
Ġen vironment
Ġresp ons
Qu ery
' re
ĠĠĠĠĠĠĠĠ ĠĠ
n own
Ġg en
act ive
ĠL aw
Ġh alf
yn am
ĠA ng
Ġn ight
g ing
Ġcontin ue
ut ions
0 2
Ar g
M od
Ġpre d
act ory
b ased
ĠIn ternational
arg in
Ġint rodu
Ġl anguage
ĠT est
re ct
resp ond
m ethod
s y
au gh
Ġs w
al d
fer ence
~ ~
Ġp ur
Over ride
Ġc ou
ĠM ich
ĠU p
> (
Ġ( )
anc ial
S P
we b
m ember
ĠCl ass
Ġd ate
qu ad
pl it
Ġle arn
ar ning
f ord
ft ware
ĠTr ump
4 6
at ural
Ġb i
ain er
Ġind ic
Ġadd ed
Res ponse
Ġbel ow
B ar
am ples
Ġon line
Ġwork s
Ġsub ject
med i
S tr
Ġv ia
M ethod
Ġm oney
ĠU K
Ġt aken
C ount
0 9
a el
Ġto ld
Ġse ction
ĠEng lish
al y
+ \
en ame
s q
Ġto wn
Ġb irth
Ġwebs ite
O P
Build er
Ġt w
Ġchang es
Ġterm s
Ġde al
ic les
St ream
or age
Ġf all
tr ies
Ġout put
Ġacc ording
ith ub
epend ent
es e
Ġquest ion
the ta
pl ied
in ition
d b
Ġ$ (
Ġper cent
ĠĠĠĠĠĠĠĠĠĠĠĠĠĠĠĠ ĠĠĠĠĠĠĠĠĠĠĠĠĠĠĠ
g amma
Ġright s
Ġvar ious
ĠBrit ish
h and
G ener
ĠM on
ce ed
ĠA ir
Ġdis play
Ð µ
Ġindust ry
^ \
at ory
Ġw ords
n amespace
ĠV al
ĠM r
Ġpolit ical
is try
fig ure
Ġc irc
Ġpubl ished
ig ure
Ġim plement
Ġfe atures
att le
0 4
d elta
om et
ut es
ĠCO VID
a ug
Ġbl ack
Ġact ually
Ġt ell
Ġinclud ed
Ġf ood
m it
Ġn um
a ign
ak er
ĠInd ia
G roup
il es
Ġar ch
ON T
le q
Ġreport ed
ev ent
20 00
u el
Ġperson al
Ġpartic ip
Ġspec ific
Ġf ace
d ev
ov ed
ĠD ef
) </
Ġreg ion
ateg ory
Ġam ount
ĠIn ter
Ġsu ff
opt ion
wit ch
Im age
ĠCol lege
ig ital
Ġpat ients
atab ase
Ġcare er
lo od
Ġt ax
Ġin ternational
co pe
] {
ri es
ef ore
Ġbeg an
con tain
Ġprodu ction
Ġvis it
Ġv iol
Ġd en
Ġl ength
b or
Ġse arch
Ġwrit ten
e ch
amp ions
ĠA c
x y
ch iev
r is
0 6
Ġm er
Ġben ef
Ġn eg
Ġb and
Ġf av
Ġpr int
ish ing
ĠJ apan
ĠM ore
Ġcomp on
a id
Ġhow ever
Ġr ate
ar ies
n s
D ate
c ul
00 00
ou ch
Ġc aus
Ġbu ilt
B e
du c
Ġval id
ilit ary
< !--
c ore
E nd
ew ork
g en
Ġop port
Ġb ound
Ġac cept
o e
Ġde cl
g ithub
Ã ¡
Ġl abel
en ing
ĠD on
ac ing
Ġiss ues
Ġdef ined
F A
Ġte ach
4 2
it te
. )
if orn
ĠH er
Ġcom es
om s
Ġneed s
ĠD em
opt ions
ic an
ph p
Ġent ire
R A
Ġimp act
ot o
d l
A b
g es
Ġsystem s
oc ol
Ġw idth
se mb
um mer
ren ch
ank s
ĉĉĉĉ ĉĉĉĉ
at est
n es
Ġand roid
ĠCent er
Ġadd ition
Ġst ep
Ġcomp anies
ĠP at
irt ual
n ull
0 3
Ġcon tribut
E E
Ġre d
ĠWill iam
Ġg roups
Ġr ather
Ġl oad
ad o
iz ing
B lock
Ġ ...
Ġag o
Ġpol icy
B C
Ġm or
com ing
} {\
Ġ( $
] (
ur b
200 5
ĠBl ack
at al
P I
Ġl o
] )
c urrent
Ġprof ess
ch ange
Ġrele ase
pecial ly
ful ly
Ġfr ont
Ġeng ine
Ġinst all
r ho
Ġal most
un t
ĠS w
ĠS an
em plate
ĠG od
U til
iforn ia
W hen
ĠR ed
Ġs ex
Ġde g
Ġh om
ĠPh il
el ine
O ff
cl ient
A p
id ay
A ct
Ġdo ing
iv il
Ġhig her
v is
g or
ĠAss oci
St atus
Ġbr ing
t imes
r ad
Ġ< <
Ġpop ulation
im age
ĠA cc
Ġt ask
Ġl ower
ĠG over
Ġn ecess
Ġst ates
ic ient
$ -
o res
Ġlook ing
Ġo ption
N S
Ġappro ach
In put
Ġg round
Ġ ill
6 5
d ir
ly ing
ed eral
Ġn amed
r t
Ġh ours
sel ves
Ġtechn ology
Ġtr aining
Ġrec ent
Ġb ar
ĠS en
ĠT V
ang le
Ġare as
Ġmodel s
Ġ čĊ
rit er
Ġcl ub
Ġappe ar
row s
Ġse par
O L
Ġte le
ic ult
Ġc ut
ĠG roup
Ġt aking
d f
Ġst atus
av en
Ġcan not
ens ive
Ġanal ysis
G L
Ġeff ort
ĠCh ina
Ġbo olean
C he
p age
Ġsh own
Ġgr ad
Ġrec ogn
ar a
S ource
} (\
Ġwho le
Ġc opy
ĠS im
S p
h as
Ġv ot
Ġl oss
el t
Ġrelations hip
Ġl ate
C ell
w ise
requ est
r un
E X
eq ref
ĠĠĠĠĠĠĠĠĠĠĠĠĠĠĠĠ Ġ
e ction
qu ery
7 7
ch ild
A G
Ġf ail
Ġc y
S C
I V
es tern
Ġsc he
Ġiss ue
i i
ma z
Ġsh are
led ge
Ġa chiev
( (
h ing
Ġlik ely
anc ed
un n
Ġe y
d r
Ġm ind
B ase
Ġ- >
ĠF rom
Ġim prov
n ov
f unc
sh ip
Ġplay er
Ġim m
Ġpart y
ro y
9 5
or ge
Ġinst ead
Ġatt empt
Ġp ers
iz er
c it
ac ity
ĠDep artment
Ġcomp lex
Ġpres ident
us ed
w ide
Ġw atch
osp ital
bt n
Ġcond itions
A pp
Ġinclud es
ap ter
Ġcont act
U E
T oken
ĠJ ust
i ences
Ġse em
Ġassoci ated
AT E
Ġp rior
T Y
c ial
h ood
H ead
Ð ¸
s im
arg s
id a
Ġa verage
Ġart icle
Ġbeh ind
k en
Ġhe art
raph ics
e es
Ġdescri bed
ĠC ons
t au
Ġcomm and
f ect
Ġconsider ed
ĠRep ublic
cal e
ar ter
ĠL a
Ġcon tract
ĠD irect
Ġc ross
Ġn ov
Ġf ire
gor ith
s u
ĠO f
fin ished
evel op
U L
ial og
Ġto ol
m ission
ĠDav id
ĠA N
O ne
ĠF irst
Ġb ad
so ft
ĠSt reet
y les
Ġd er
ĠCal ifornia
c ount
5 00
Ġin j
Com p
le an
or ing
im ation
at ives
H T
200 4
ĠH ol
am ily
ser ver
st ream
Ġap plic
Ġap plication
4 3
m on
ĠB ook
istr ict
h a
Ġro ad
j oy
ast ic
D O
N ull
ic o
x i
h ost
Ġsh all
Ġch o
bo ard
Ġw rite
ĠD ay
RE F
i ers
ĠI r
Ġrel ated
Ġs ens
ĠW ork
Ġcor respond
c ase
A A
P os
le m
Ġv er
Ġprot ected
Ġit em
ĠO ut
Ġstand ard
Ġst aff
cent er
pect ed
N av
Ġcurrent ly
Ġst ream
Ġget ting
In stance
Ġcl ient
Ġw alk
Ġr out
Ġ" ""
8 8
Ġqu ick
4 1
Ġc red
ĠS k
Ġreg ard
et ic
add ing
Ġpop ular
ĠN ULL
Equ al
wit ter
Ġres ource
Ġneed ed
Ġs ound
ob ile
ist ics
Ġannoun ced
Ġstruct ure
but ton
Ġwh ite
id get
L ine
j av
ic ip
Ġbeliev e
Ġse qu
air s
Ġlead ers
ĠLe ague
em y
ĠE ast
ust er
A fter
Ġh istor
Ġfor ward
Ġfam il
in ing
ĠN or
ch an
ell ow
ĠCour t
I M
f ort
use um
Ġup on
Ġsec urity
ĠO F
eb ug
Ġes pecially
Ġp aper
Ġeduc ation
itt ing
wo od
Ġl ed
Ġloc ated
ire ction
Ġt akes
ĠInd ian
Ġin flu
Ġex press
P art
and id
Ġh on
ĠIn stit
ft y
av y
itte e
Ġpol ice
Ġf ight
Ġmom ent
O per
Ġbro ad
ang er
ĠW eb
Ġcomp lete
ve y
Ġadd itional
S ee
row ser
head er
enc ies
ot ype
Ġprovid es
n u
B uffer
Ġits elf
Ġcol umn
t arget
ele te
Ġcoun tries
}$ ,
Cont ent
At tribute
P re
Ġman agement
ub e
Ġd ouble
Ġoff ice
//////// ////////
he ight
ĠAustral ia
Ġn ormal
ĉ Ċ
Ġcom ment
A M
D elta
ĠĠĠĠĠĠĠĠ Ċ
ĠR eturn
et t
Ġwrit ing
Ġmult iple
Ġl iter
Com ponent
A ction
li ke
Ġ+ =
ĠN e
S up
Ġc atch
Ġin it
Ġpro te
Ġs on
Ġsa f
semb ly
a ctions
l ib
Ġincre ase
}$ .
und le
Ġfri end
C K
apt ion
ver y
at ur
St art
ud d
nav bar
ache s
Ġbeh av
' '
Ġp ick
idd en
Th at
P ol
p ite
ou l
erv ices
Ġl ost
Ġpl atform
Ġconc ern
a res
Ġlim it
app end
un finished
Ġdiff icult
O ptions
c ing
lect or
ĠCoun cil
Ġproduct s
in ated
[ "
Ġmethod s
| \
ug in
6 7
Res ource
ash ington
Ġmeas ure
ele br
ĠA nt
as c
t x
in fty
ĠEurope an
( {
f irst
le vel
Ġmat ter
Ġout side
Ġrun ning
ĠĠĠĠĠĠĠĠ ĠĠĠĠĠĠ
Ġf em
com es
ĠC ap
ĠRes earch
Ġs us
Ġcamp aign
ĠS ub
ind ows
Ġv ill
om b
Ġd am
Ġele ments
Ñ Ĥ
Ġme et
Ġestabl ished
Ġh or
Ġqu ality
Ġide a
i qu
Ġup date
Ġex ecut
fl ow
Ġcom ing
ist ance
c el
Hand ler
Ġw or
res h
ro te
Ġ Ã
Ġf ather
g ener
it ect
ĠD ata
x ml
p ost
Ġcons ist
Ġtr avel
* /
ail y
ars er
ĠIn c
ĠU s
ĠE ar
ock et
ĠP ublic
land s
Ġdet ails
F irst
f oot
Ġdec ision
Ġhim self
ri ef
ĠP aul
ot a
P oint
ĠF il
ĠF in
ĠEng land
Ġh ot
A cc
Ġwork ed
Ġhe ight
Ġcour t
ĠCan ada
Ġparam eters
Ġst re
part ial
p y
E L
Ġl iving
ĠJ ames
k nown
ĠO ur
Pro v
om ega
Ġwh ose
R un
ampions hip
ad ata
Ġtyp es
Ġcent ury
Ġb ox
Ġg e
u ge
Ġreg ular
L ink
Ġany thing
Ġcomp os
Ġv ict
m m
T O
Ġcon duct
app ing
ĠP ort
L ast
Ġro om
$ $
200 3
ore m
Ġm ag
F unction
ill ing
cre t
ĠGener al
Ġfil ms
Ġpos itive
P ost
eg er
D r
ĠC r
j son
Ġloc ation
op en
ĠO bject
Ġs old
Ġcol lection
ĠRev iew
Ġs ense
V ER
Ġs ym
l or
LA SS
Ġnot hing
8 5
Ġde ep
ĠĠĠĠĠĠĠĠ ĠĠĠĠĊ
in st
ate gy
S o
ĠF rench
A meric
ch ar
F actory
g le
Ġcent er
ĠP al
Ġun ique
p tr
Ġlead ing
U s
r l
Ġan sw
Ġst ation
Ġep is
enc ed
Ġw ait
ĠD i
p ri
F I
Ġsim ple
am s
is f
y r
ĠD istrict
V ersion
Ġb orn
Ġe mer
Ġdis e
tribut es
yp es
t ilde
as ons
) {
B l
ĠThe n
Ġfin ancial
w rite
y a
ag o
Ġen joy
ul ations
b ottom
Ġre ve
m iss
Ġask ed
ĠR ead
Ġg irl
ra z
Def ault
Ġr ound
c m
Ġf requ
li er
Ġdisc over
Ġh ope
ĠM or
H el
Ġse ems
f ind
Ġst ay
Ġh it
Ġev idence
p ack
ĠN one
ĠS ervice
erv e
ĠAr ch
200 1
ĠR ich
Ġj ud
d ated
Ġdis tr
m ing
che ma
St yle
ed ia
Ã ³
Ġt our
mod ule
Ġsome one
Ġbu y
I I
Ġtreat ment
oy al
Ġqu ite
s g
ĠP ost
Ġevery thing
Che ck
Ġreturn ed
Ġw ord
Ġ ess
ĠE v
Ġ ir
ĠS ome
sy ch
Ġsc reen
Ð ½
Ġin ternal
Ġst age
Tr ue
Ġf ul
c i
Ġm id
Ġso on
' m
str act
Ġbook s
ĠR ober
Ġcon struct
ĠTe chn
Ġb re
Comm and
ĠM al
st atus
L abel
Ġtry ing
ĠI D
Ġev al
v ille
y nt
b orn
p ol
Ġd raw
9 7
str ong
Ġal ign
T ER
Ġcharact ers
e al
Ġprob ably
Ġ{ @
ĠG L
Ġdevelop ed
m ore
d raw
ec k
Ġro ck
Ġleg al
Ġact ive
Ġus ers
iz es
ent al
ĠA re
Ġspec ies
G r
r ong
Ġthrow s
Ġa ward
ã ģ
Ġt im
Ġfor ce
Ġis n
Ġv eh
u z
Ġwant ed
" ]
Ġn atural
ang ed
erv ed
Ġs aw
c an
ĠY our
Ġthem selves
P er
Ġplay ing
Ġle arning
n on
Ġaut om
Ġpro perties
o z
ĠP re
L oad
P C
Ġinvolv ed
p ng
pro perty
ig r
w in
ach ine
Ġlong er
U M
Ġf a
ĠW ashington
) (
it ch
Ġs pect
Ġdev ice
Ġre v
T ask
j ust
for ce
od ing
id ents
ĠB er
P e
he t
ĠF ound
ĠTh om
pr ivate
Ġstud ies
ĠV ol
Ġd ied
rou ght
ele ment
Ġparam eter
N umber
Ġl ines
uf act
ĠN ow
ig ger
W eb
Ġgrow th
Ġcom pl
ĠD an
F ONT
in ate
Ġw oman
} [
ĠG reen
Ġg re
' ve
ĠY ear
Ġproble ms
all s
Ch ar
p c
Ġw rote
ĠB usiness
old s
ĠWh ile
i ant
Ġlevel s
Ġbo ard
Ġp ack
p o
ens ions
c aption
5 7
Ġw indow
ens ity
Ġdistribut ion
ry pt
ul a
Ġthrough out
im ately
ĠS ing
Ġre comm
Ġmod ern
im g
Ġrec ently
ĠR iver
b on
ĠT HE
\ ,
200 2
C D
u ate
Ġad ministr
6 8
Ġex c
Ġl ives
Ġdistr ict
Ġpro gress
Ġele ction
Ġpre t
Ġpre vent
Ġn ames
s rc
Ġfollow s
ĠM usic
m itted
ol ve
s igned
ar ily
icro soft
Ġex act
l ast
cd ot
Ġserv ed
S A
ĠSc ience
p ush
Ġm ilitary
Ġform at
Ġdirect or
Ġdep end
Ġim medi
m ar
Ġc am
Ġm argin
Ġcon v
Ġspec ified
cl ose
B ack
v est
Ġs em
ber g
ĠR em
ĠJ ack
ĠM art
Ġs ort
c ap
Ġs il
I O
Ġst ri
ĠH am
Ġfri ends
a a
Ġallow ed
le ctions
Ã Ń
B A
ĠDem ocr
so le
ĠC E
ĠR E
Ġext ends
ĠR ef
Ġc apt
Ġoper ation
S ON
Ġcond ition
Equ als
AB LE
al ed
M y
m em
i os
| -
Ġde b
Ġcont ains
Ġin f
Ġevery one
Ġmov ed
Ġre ach
Ġn one
Ġsol ution
al let
eps ilon
Ġus es
Ġd im
b and
T P
d et
Ġeffect s
ĠAssoci ation
N ext
Ġaut o
end if
M et
Ñ Ģ
Ġso ftware
Ġt en
R eturn
Ġbe aut
ra el
Ġm other
ĠPart y
Ġdem on
Ġw ays
ã ĥ
Ch ild
Ġex cept
Ġ â
tern et
Ġdel iver
R ep
Ġreg ister
ĠInstit ute
Ġres ources
Ġqu ant
s i
Ġa w
it ar
ru pt
ĠD ec
5 9
Ġgo al
Ġ ]
P age
k a
as cript
Ġmin utes
Ġchall eng
ĠWh ite
ri an
ct or
// /
s ervice
aug ht
augh ter
ĠCh urch
Ġf un
Ġrefer ence
ĠM et
Ġcon nection
D o
ver se
C reate
Ġread ing
ĠM od
Ġst ar
st ant
g u
Ġtem per
is ions
ĠAfr ica
Ġr ace
if act
N O
m eta
Ġc ause
Ġn av
" ),
ĠMich ael
con s
ob j
O m
} );
U I
Ġprodu ced
ĠB el
form at
mer cial
ĠGo ogle
ĠPro gram
Ġ ensure
f ont
5 8
m as
Ġmov ie
Ġfunction s
Ġcon tr
p ass
Ġfl ow
ro s
ir it
qu are
Ġp ain
ĠD iv
Ġweek s
Ġpart s
Ġest im
ĠT ime
ĠComp any
Ġinter view
! !
loc al
ri a
id ing
ĠJ er
ĠB en
ĠAn n
AT ION
Ġre str
ĠP ress
Ġdesign ed
Ġquest ions
ace book
gorith m
ĠH all
Ġpract ice
ig in
" ).
ĠQ ue
ol ic
ie ce
ond er
eq n
Ġmain tain
Ġun it
ĠL eg
en ge
Ġsim ply
Ġwe b
Ġth reat
ol ar
m ult
Fil ter
ag on
ĠC ong
Ġmed ical
st d
Ġeconom ic
Ġsub s
u nder
i as
Ġent ry
Ġc andid
Ġcor rect
Ġl atest
ul ated
er c
_ .
Ġdirect ly
Ġappro x
Ġne igh
Ex t
Ġins ide
a ud
ĠSe e
Ġm ention
List ener
sm all
n or
R em
ict ed
ĠB est
Ġfil es
ĠAng el
Ġdr ug
ines e
Ġj o
oc al
S he
Ġprot ect
Ġs n
Americ an
Ġst ore
ĠD el
ĠT ri
ĠM ag
5 6
Ġstat ement
ĠGerm an
Ġconst ant
gr ad
Ġser ver
est ival
u a
Ġde ad
evelop ment
ult ure
and emic
re ement
ref ix
Ġrel ig
ĠO pen
ĠC am
Ġpre c
D et
r ated
Ġc elebr
Ġeas y
Ġg as
Ġv irtual
Ġcult ure
Ġc ast
ot al
ict ure
duc ation
$ {
in ner
Ġ( (
ĠT ex
Ġac qu
Ġinvest ig
Ġsur v
F O
( &
Ġass um
ĠA pp
Ġnecess ary
C L
T ag
l ong
Ġschool s
des cription
Ġpr inc
ĠM em
ark s
Ġsh ip
ab s
ĠR oad
Ġav oid
T S
m ain
P RO
Ġqu al
Ġm agn
Ġto wards
ĠS l
Ġg ave
Ġd oc
ĠL et
pl ies
Ġv ert
Ġin sp
Ġchang ed
Ġn orth
at as
9 8
Ġsol id
Ġr ules
iz ations
Ġmult i
Ġm is
Ġpr ice
Ġj oin
l en
Ġsc ale
n ected
se lect
g in
Ġse lected
ch o
ĠFl or
Ġse ek
Ġcomp ared
Ġsc ient
C A
T op
ic ial
pro ject
Ġtrans fer
ĠS am
param s
S pec
m t
v ant
Form at
se y
ĠGe orge
ind ing
res ponse
)$ .
Ġp urch
ĠE X
q l
Ġcontin u
st on
h an
M em
Ġn umer
h i
er ia
Ġinst it
ess ages
Ġinter face
Ġspe ed
fil ter
}} \
Ġknow ledge
ill er
ent ry
b a
contain er
Ġch arg
g n
ous ly
text bf
Ġprofess ional
^ *
Ġ url
m enu
Ġpass ed
ĠĠĠĠĠĠĠĠĠĠĠĠĠĠĠĠ ĠĠĠĠĠĠĠĠĠĠĠĠĠĠĠĠĠĠĠ
I Z
Ġfield s
on ly
in n
Ġc ook
ĠFr ance
Add ress
Ġsat isf
up date
Ġst ories
Ġl ack
Cont roller
Ġsur face
dis play
Ġrece ive
C ON
l ayout
Ġr andom
ĠM ac
it ude
ps i
Ġtrans form
Ġ row
anc y
Ġteam s
ĠO ver
L et
Ġnov el
Ġv ers
Ġpr imary
H O
im s
Ġme chan
ĠM at
ic ate
Ġme eting
Ġclos ed
he st
tt p
Ġm ode
Om ega
Ġle ave
P O
Ġcap ital
and er
Ġ< !--
Ġdemon str
Ġb all
o ch
ist an
Ġre li
ic i
ĠC up
av irus
ĠK e
Ġem ail
Ġdeg ree
u it
C an
ify ing
ĠO b
Ġeffect ive
ĠA ward
Ġet c
P R
ĠT om
Ġnum bers
ĠR el
Ġsay ing
d ep
ur t
ter m
Out put
ram ework
r d
Ġoper ations
A ut
b reak
ĠL og
ĠI S
ĠC LASS
Ġh um
} _{\
jav ascript
ĠÂ £
Ġlim ited
199 9
c over
Col umn
Ġ q
opy right
Ġfav or
on a
Ġl ock
ER T
ĠH REF
U P
Ñ ģ
Ġus ually
Ġfil ter
n umber
ar io
L e
B ox
ĠSer ies
' ll
Ġf ast
Ġst e
Ġpre p
Ġpart ners
Ġm us
ir ing
if ul
ĠL icense
âĢĿ .
er ation
C o
Ġprom ot
iv acy
en a
Ġn ature
Ġsc ience
L ength
Val id
Ġsaf ety
Ġget s
TY PE
f ess
Ġcon nect
Ġw ife
plic it
Ġall ows
in i
Ġth us
ou thern
8 7
B U
pro cess
on avirus
ĠE nd
f inal
B ig
9 6
Ġg raph
l a
Ġb rought
Ġs outh
at tr
Ġpat tern
Ġv acc
s pec
is ation
n um
Ġoff ers
Ġlarg est
Ġex tra
Ġincre ased
3 00
Ġreturn s
Ġear lier
UR L
por ary
Ġro ot
Ġwe ight
ĠFr anc
refer ence
CO L
Ġf ont
Ġfinal ly
e in
Ġb us
ex p
ak ers
Ġmod ule
pro ve
< ?
Ġtrans port
B S
Ġincre asing
ain e
z er
rem ove
I F
Ġcent ral
ĠGover nment
Ġcon struction
Ġset t
Ġg ives
Ġw rong
Ã ¼
Ġ ign
Ġnot e
Ġh ous
Ġfollow ed
p g
ĠPro ject
ad ian
ĠH ere
h aps
ĠH T
p at
Ġser ious
Ġn or
Ġcol lect
Ġsc en
ro om
Ġf ailed
Ġd ark
Ġmem ory
ĠG old
Ġs end
cre en
Ġal tern
ed y
Ġpro p
Ġgo es
sub section
OR T
Ġr at
ly mp
Ð¾ Ð
ĠM ary
ĠComm ission
Ġstud ent
ann ot
ã Ĥ
> >
it iz
Ġpl ans
ĠL ife
Ġset ting
ĠIn st
Ġphys ical
W ork
Ġb ank
ĠB uild
g an
he nt
ĠH el
Ġtele vision
Ġexp and
Ġcal cul
k i
Ġproject s
cent ury
Ġcontin ued
Ġal though
Ġcon cept
ef ined
Ġparent s
Ġactiv ities
c r
hed ul
ĠM us
Ġind ependent
Ġd igital
5 1
Ġsuccess ful
Ġper fect
Ġab ility
G e
ER R
ĠS ervices
' ).
ant ic
E nt
he et
`` `
ol f
w ner
V is
ain ts
at ively
ĠA lex
ĠIs rael
g reg
Ġpret ty
out put
Ġapp oint
ĠH istory
Ġexist ing
Ġact ivity
ch i
b m
ĠMan agement
le ep
Ġcell s
S ec
Ġw orth
col umn
Ġrem ove
Ġthe ory
ĠS und
Ġopport unity
w ell
ool s
Ġh ol
Ġd ynam
sh ow
Ġcall back
Ġc ard
A g
u id
urre n
M ar
5 2
ĠB ay
C ache
Ġpro posed
Ġse lect
in stance
Ġs en
Ġcomp ar
Ser ver
Ġdiffer ence
K E
y ing
Ġdise ase
ĠTex as
ĠS ur
Ġrem ain
Prov ider
c or
Ġfamil ies
ĠS al
Ġr ule
? âĢĿ
ĠR ob
ĠS ociety
ip p
D ev
Ġperform ed
ĠFlor ida
Ġim ages
k it
ĠF orm
cript or
Ġset s
Ġc ivil
il er
ĠM iss
Ġwork ers
vent ion
M ode
ĠJ ournal
Ġe ight
ĠL ou
C R
Ġstart ing
re me
Ġany one
t ag
Ġass ess
Ġex pression
ĠBo ard
B undle
ĠG reat
But ton
P ar
AR T
a uthor
Ġl ib
Ġman ufact
Ġc lean
Ġp andemic
an ia
P A
D A
Ġpl ant
5 4
Ġsupport ed
ĠV ir
Ġact ual
ĠM ont
ĠF ore
pre t
Ġapp ly
ĠT ype
cl os
ex pected
Ġfe ed
Ġan im
Ġsur pr
it able
ĠJ ew
Ġprogram s
Ġatt ention
Ġf lo
A ccess
Ġf air
Ġj ournal
ĠAc ad
Ġmean ing
Ġm ount
Ġpl aces
Ġanal y
B r
P S
D B
ĠW ed
Ġinterest ing
ov ers
R ow
Up date
ĠCh inese
ens or
ĠCl ub
C ase
ri al
: </
al ing
E ng
M in
ĠOff ice
fil es
old er
Ġcompon ent
ĠF acebook
c s
ĠB ig
Ġor d
Ġ ;
om a
ĠS T
ĠPe ople
w rap
++ )
ell ig
ĠUn ion
ĠGerm any
Ġp lease
ĠS ince
Ġresp ond
Ġit ems
U rl
L ayout
8 6
ĠMed ia
D irect
Ġbegin ning
M ax
sq rt
Ġpresent ed
an o
Ġt ag
ag ram
N E
ict ions
Ġreport s
clus ion
**************** ****************
ĠD et
prot otype
ĠM ad
ree k
anc ing
Ġse ven
Ġ` `
Ġwas n
ĠDirect or
v ed
s cope
ann ed
NA ME
A V
Ġlarg er
Ġstre ng
ĠIs land
ron ic
ĠChrist ian
uct ure
il i
ĠO ther
ib ly
Ġsit uation
ic ated
Ġd irection
Ġsom et
Ġobtain ed
l am
it ory
ĠA ut
T ypes
#### ####
ps ilon
Ġb ur
T arget
5 3
ĠSm ith
ĉ ĠĠĠ
ĠR ad
Ġcomplet ed
Ġparticular ly
ĠâĢ ¦
Ġob j
o om
az ine
ic ens
Ġh y
ad ow
ĠF ile
)$ ,
Ġbas is
] [
AP I
Ġtr ade
m es
ĠE ducation
it ness
Ġcl in
Ġnear ly
ĠPl an
Ġdec ided
199 0
ro ad
O pen
Ġ! ==
Ġdem and
Ġrem ember
h ouse
iver se
O b
y ond
Ġrec over
u int
sup port
ing er
^{ (
Ġt ree
ĠM er
Ġcou ple
s d
Ġb illion
Ġ[ ]
Ġb al
ĠRober t
Ġrem ains
Ġsong s
Ġequ ip
ĠP M
Ġp ull
D F
ĠD E
pro of
G amma
Ġother wise
Ġf ans
return s
Ġarch itect
el se
ĠSc ott
ĠCh ampionship
Ġd ed
ĠB ank
Ġex am
eg raphics
M e
includ egraphics
Ġsh ared
ĠF e
ĠPl ay
ec ause
Ġorgan ization
ĠO per
comm on
ick s
ĠM ex
ĠA PI
Ġdist ance
M ore
util s
Ġd ro
wh ich
ef t
Ġestabl ish
8 9
ec ute
Off set
ev e
Ġopen ed
Ġex hib
Ġp le
ul y
z a
Ġturn ed
IN E
Ġprevious ly
Ġm iddle
Ġhand le
ĠCent ral
Ġf elt
Ġacc ur
I B
20 22
Ġpre m
ond ay
eqn array
et ch
Ġful ly
Ġcons um
Ġp ark
ĠA v
Ġch oice
Ġr ank
Ġch annel
Ġsl ow
% %
ber t
s ite
r s
ĠS ocial
Ġ Î
Ġm icro
Ġw ide
Ġant i
M O
m atch
( _
g ment
off set
Ġhand s
es ter
ĠB ill
d im
ĠN S
ĠUS A
Ġm ix
Ġcrit ical
fl ict
Ġh ar
Ġim prove
ĠT op
Ġquick ly
Ġequ al
Ġbe yond
Ġsp ent
c are
B O
7 6
Ġwrit er
Ġobject s
i ance
ĠM useum
ul ate
se m
Ġ* *
R ev
R el
Ġm ale
ĠAfr ican
b our
Ġarg ument
En try
I A
v are
Ġbr and
Ġt er
Ġgr ant
od ay
ĠT imes
st yles
Ġv s
ĠM ount
Ġrespect ively
Ġtrans l
ent y
Ġbirth s
t hen
Ġf loat
ic ine
ĠMin ister
ĠSt ar
Ġse cret
Ġre pl
y th
ĠFound ation
an i
Ġexper iment
empt y
I ST
Ġre nder
d ec
AL L
Ġvill age
id en
Ġon es
Ġqu ery
Ġrec ords
os h
n ed
Ġarg s
Ġsign ed
F L
Ġt ouch
Ġf ederal
Ġmov ement
CO DE
S H
Ġn ation
Ġsc ene
Ġs ession
O ur
m ut
r or
Ġthere fore
Ġex ception
Ġsp read
Ġv oice
Ġcoll abor
it ation
ĠCong ress
we et
ick et
ĠH ill
Ġqu e
ĠG ood
W idth
b ool
ĠD evelopment
Ġd ram
4 00
ur ance
et her
G o
}^ {\
oc ation
Ġhigh ly
Ġlead er
re es
p ers
Ġabs ol
Fr ame
Ġjo ined
ĠFr iday
ĠW il
ec ution
Ġco ach
199 8
Ġs ources
if orm
Ġin form
Ġch urch
Ġp m
im inal
al a
Ġrad io
Ġepis ode
in ct
Ġph ase
Ġh op
ĠSup er
ĠCar ol
us ion
="../../../../ ../
B o
Ġs ummer
d rop
C S
f loat
Ġs ports
ict or
ĠU nder
Ġre pe
ĉĉĉĉ ĉĉĉ
Ġcom mercial
Ġcost s
s cale
M M
Ġse lection
L evel
ĠComm ittee
em ph
F e
Ġtr ust
ĠSe ction
g ate
ĠThom as
Config uration
at re
l s
Ġenc our
Ġent er
al le
Ġro ll
Ġs ociety
Ġh ospital
and a
act er
Ġtrad itional
ro ot
S earch
Ġappro pri
ĠT or
ĠM ost
C P
ĠAustral ian
Ġgre ater
Ġw ild
as tr
Ġro b
t ask
os ph
re y
Ġsh ot
ang es
Ġoff set
ĠC amp
Ġindividual s
ĠR ock
Ġo il
requ ire
Ġr ap
u ated
t emplate
Ġs ave
ĠL ib
ĠT ur
a o
Ġb uffer
ir med
Ġcall s
D L
Ġdr ive
ic ago
ig en
.... ....
ĠFranc is
ĠReturn s
Ġcustom ers
Ġsa fe
ud get
oun ter
a fe
Ġhe ard
Ġpro per
ĠO R
Ġcommun ities
Ġsomet imes
Ġs al
T I
ar ant
) =
und red
Ġim ag
g est
Ġs ample
) ]
atur day
Ġc op
ĠR oyal
Ġconst it
Ġk illed
ĠT own
C ons
pon ents
if est
âĢ ĺ
d en
ig ration
Ġu int
Ġl en
ad y
Ġfr ame
Inter face
b uffer
U B
sh ould
Ġm ur
Ġem pty
Ã ¶
IG N
Ġd ou
s f
Ġprovid ing
Ġs witch
ĠB i
() ->
ĠSund ay
W rite
Ġess ential
D ec
Ġin nov
Ġass ist
uth ors
ĠPro v
is l
Ġbehav ior
Ġman ager
et te
Ġlook s
ĠCh ild
c ar
S l
Ġf irm
7 8
ĠC D
ĠH ome
v ec
Ġg old
ĠPol icy
Ġpo or
Ġgr and
Ġ( "
Ġg reen
T ree
Ġg iving
par se
nes day
Ġsc ri
ge q
olog ies
} =
Ġv ote
ĠL os
Ġover all
ill a
Ġde but
as y
Param eter
cri be
ĠA M
Ġcomplet ely
J son
m en
ĠAr ray
h ol
Un it
M on
ĠO lymp
Ġpur pose
od ed
p es
Ġs ales
Util s
( [
IN T
Ġp en
av ed
c os
pro p
S im
] );
ple te
ĠL ong
vare psilon
Ġal leg
Ġtest ing
ant a
Ġra ise
Ġin fo
P ort
am l
S L
ĠC all
fr ame
Ġg un
b es
az z
Ġoper ator
Ġex ists
un it
Ġdes cription
Ġb lood
Ġmax imum
. }
an ish
Ġintrodu ced
in y
Ġbe comes
7 2
Ġco ord
Ġdef ine
Loc ation
Ġcont ain
f a
Ġ{ }
6 9
? :
V AL
ĠN etwork
li ament
Cont ainer
' ),
ĠFr ank
class es
Ġ ~
ĠA tt
Ġart ist
AC K
or ial
St at
D on
Q L
b olds
Ġrel ative
un ities
Ġhe ar
ĠW omen
Ġsh oot
O p
Ġfore ign
ĠM o
pect ive
ĠB re
Head er
t ree
N ow
c ache
Ġdeath s
ven ue
art ifact
Ġm ut
Ġpro ced
ĠChe ck
G l
Ġmat rix
k y
Pro cess
Ġp oll
o oth
C urrent
ust ain
Ġsc ope
Ġgener ated
199 7
g s
p atch
Ġrecord ed
ind er
Ġcoun ter
Ġ$ {\
right arrow
. /
bolds ymbol
UL T
ues day
Ġan g
Ġs ymbol
Ġfem ale
ĠP eter
maz on
ĠT witter
Ġth ous
ong s
ĠSh ow
Ġarg uments
ĠD ev
Ġed itor
Ġimmedi ately
rel ated
Ġfor ces
ish er
urs day
Ġfact or
cont rol
ĠVir gin
Ġaff ect
Ġn et
on ic
6 3
Ġap plied
ed s
P L
h r
ĠC reate
ĠAr my
Ġp air
ĠH en
Ġmov ing
al ian
W indow
Ġqu arter
it a
Ġch ance
Ġread y
Ġhig hest
Ġn om
M at
Ġcom ments
ĠW estern
Loc al
ĠĠĠĠĠĠĠĠĠĠĠĠĠĠĠĠ ĠĠĠĠĠ
Ġche m
t og
AT A
Ġgrow ing
ĠGr and
du le
Ġcl imate
ĠS E
ĠT im
Ġd aughter
Call back
ĠU N
p op
it ors
Ġappe ared
Cont rol
. ~\
ult s
Ġsol utions
est s
Ġobserv ed
ĠR oman
Ġsequ ence
Ã ¤
Ġkn ew
r ate
Ġph one
Ġopen ing
Ġ eth
ĠD uring
Ġey es
at in
Ġre place
ic ations
ri end
Ġtest s
r ics
Ġchar ge
R L
d ocument
Ġz ero
Ġcomput er
Ġelect ric
Ġeffort s
c irc
m ail
Ġx ml
Ġf ixed
ĠC are
ĠRich ard
7 9
al ysis
P o
ig an
Ġ er
199 6
Ġscri pt
Ġart ists
os is
Ġst ock
Ġla unch
j o
f ree
H istory
198 0
ĠG en
ĠH ot
Ġshow ed
Ġpress ure
Ġapplic ations
t ml
ĠâĢ ¢
Ġsc ore
rom e
1 000
H ome
ĠU se
Ġc ore
[ \
Ent ity
fr ak
Ġ\ ,
Ġopt im
=" -
Ġcol lege
ĠT wo
i pe
Ġcar ry
Wh ile
D S
or ph
6 2
Ġa ctions
ĠAr ts
Ġbl og
ĠM ov
or ation
b ur
Ġdest roy
. $
ĠM el
Mod ule
we ight
Ġp sych
Ġfor ms
t oken
ĠK ore
erv ation
b urg
leg al
Ġed ge
Ġclaim s
Ġc ert
s ign
ĠIn formation
Ġcorrespond ing
% ;
c ard
ĠF ig
d s
ev en
du ction
Ġpr im
N one
ĠV er
âĢĿ ,
b order
COL OR
ap y
6 1
reed om
Ġstr ugg
Ġtr ain
Ġstr ategy
am ing
Ġclass es
Ġr ail
ĠSt ep
E l
S O
Ġstr ateg
Ġth r
ĠRuss ian
Ġf arm
Ġvari ety
: "
199 5
f s
hen s
h or
Pe ople
Ġansw er
Ġbeaut iful
ĠT re
r angle
os en
Ġan c
er ry
Ġmiss ing
Th read
il ed
Ġm aster
ad er
Ġf ix
ic ies
A m
end ar
Ġappe ars
} ).
Ġcreat ing
ĠAN D
A re
The y
ĠAss ert
S cript
yn ch
ĠC ath
Ġre ached
IZ E
od er
ĠSec ret
Ġbusiness es
ĠR et
ĠJ ose
ĠS il
os ing
Ġpres ence
b in
Ġf igure
ĠEng ine
E M
ĠAl so
ĠM onday
ĠIn s
Des cription
Ġmar ried
ĠAngel es
Ġpro of
ĠO p
Ġinit i
8 2
ĠS un
ateg ories
Ġun its
ent ity
epend ency
He ight
erm an
Ġcan cer
Ġemploy ees
ĠAcc ording
Ġtemper ature
d ates
Ġc itiz
ĠN OT
sk ip
Ġv ector
ab ilities
om ic
ĠV iew
unc hed
pect s
roll ed
W E
Ġbas ic
b b
Ġs ch
pos es
Ġtrans ition
val ues
ask et
Ġdes pite
Ġn uc
wh ile
Ġh uge
En c
Ġrequ ires
iz ont
Ġal one
Ġun c
ĠDiv ision
O K
ers hip
Ġm ission
R ange
app a
re land
Ġgener ally
Ġcon str
Ġvol ume
ĠM ap
tr ack
Ġ* )
ĠF inal
res ource
Ġhapp en
Ġcaus ed
ar p
ĠS ol
Ġsh ape
ĠSt at
Ġr ates
8 4
Ġro t
ĠB rown
Ġt it
Ġcap acity
h line
ind s
por ate
art s
ay ers
G B
Ġeas ily
Ser ial
> ,
or ter
Ġspe ak
Ġexact ly
Ġconfig uration
b efore
Ġcho ose
Ġrespons ible
Or der
" ))
Ġad apt
S ign
iction ary
Ġprodu ce
ĠI d
Ġpart ner
Ġline ar
olv ed
ĠE conom
Em pty
ĠR un
ĠWe ek
ĠCan adian
Ġw onder
Ġunderstand ing
T C
Ġmor ning
Ġc ru
Ġl ibrary
t im
ĠJapan ese
Ġsit es
F C
ĠL and
ag ment
set s
ĠD ate
Pos ition
Ġth er
U RE
b ound
l ook
Ġag reement
D ep
R I
Ġann ual
H S
ĠG ames
as ure
ĠM ass
Ġp iece
Ġeconom y
ĠF oot
Ġsur round
Set tings
Ġredu ce
Ġrun s
Ġst ars
Ġp refer
Ġk m
ĠS pe
var phi
Ġdef inition
Ġw ants
Ġem ot
Ġref lect
a fter
Ġp aid
D own
con f
w indow
ĠV is
ĠN ote
ĠP o
Ġp ush
iv ery
ä ¸
w rit
Ġop in
Ġlet ter
CT ION
Ġst ra
{ {
AN D
Ġth read
Pro t
Ġag ree
G E
ĠP et
k ind
over line
Ġb ottom
Ġs ell
Ġac ad
Ġa ware
D D
y an
ĠRe port
ĠN ame
Ġover ride
im ages
Ġfact ors
Ġmeas ures
yd ro
Ġh undred
Ġbl ue
artifact Id
ĠF ield
Ġmajor ity
app ed
ct x
' d
b ing
ĠEar th
in em
i en
F ont
ĠPro fess
ĠO h
as ic
Ġmin or
ri age
are n
D ocument
ab y
Ch ange
Ġd aily
ĠGl obal
Rec ord
Ġofficial s
Ġm ill
or a
Ġp or
c a
w s
ĠZ eal
Ġp adding
f it
} /
ĠCh icago
="../../../../ ../../
Ġnot ice
ex ample
Ġ" \
ĠP ower
Ġdef e
9 1
o es
Ġsh op
u ke
ĠL ake
back ground
Param s
ĠS aturday
Ġcomm it
T im
ĠG ame
mod al
Ar t
H ttp
ot ic
Ġ ::
um s
S chema
O ption
th at
ĠLou is
h ash
ur i
ĠRuss ia
d ing
b i
D ir
Oper ation
ri z
ĠF ree
K e
th let
7 1
: (
ĠJ ud
Ġp ackage
T e
all ery
Ġtri al
ĠTe am
Ġd ensity
Ġfin ished
ick er
it z
Ġ> =
H ash
ĠGe org
Ġserv e
Ġs ector
comm and
w est
X ml
ploy ment
Con nection
at ically
Ġd atabase
oot str
ph one
}, \
Ġsus p
ĠE ven
Ġhapp ened
ĠS pr
ĠJ oe
Ġdeterm ine
=" _
ĠWed nesday
ang ing
p df
ĠJ un
ĠZeal and
9 3
Ġsmall er
ic ian
b al
et ime
Ġpart ies
Ġat tribute
ĠSe cond
ĠD en
clus ive
Ġa im
Ġpl aced
u y
em p
M ark
ens us
& \
In st
ĠL ead
Ġrem oved
ĉ Ġ
Ġo wner
urs or
av er
Ġf it
ĠAt l
ap se
Ġf ear
Ġhelp ed
Ġb ill
() :
ĠComm unity
197 0
irc raft
ĠE very
izont al
ĠTechn ology
8 3
Ġcompon ents
ash ion
Ġtr aff
PE CT
St ore
Pro ject
re al
Ġk ids
Ġset tings
Ġde cre
Ġd og
] ]
ell a
9 2
org an
Ġneg ative
ĠL ove
E v
ol k
ow ers
Ġdom ain
s plit
ĠM il
Ġpro test
ĠI ll
model s
Ġw el
ĠW ell
Ġill ust
Ġtem plate
9 4
Ġequ ival
N et
fr ont
al ax
Ġcompet ition
ĠM ur
ĠD O
ĠA uthor
ĠAcad emy
med ia
ĠS y
se cond
Ġparam s
math frak
n y
stand ing
Ġmaterial s
ple t
st ack
M atch
Ġst ated
g ency
group Id
Ġvari able
Col lection
Ex pression
ĠC ON
Ġ ut
Ġgener ation
K ind
Ġf ine
ut y
d ebug
Ġpat ient
Ġstra ight
ĠS u
v as
ans ion
" ));
Ġsp irit
Ġcon nected
7 4
) ^
8 1
dev ice
7 3
199 4
go ing
ubl ished
struct or
id ers
W S
Ġen h
Ġwh om
Ġf ig
Ġw ood
clud e
Ġfil ename
C ar
Ġcontin ues
Ġ icon
} ),
Ġinvest ment
C al
Ġdeterm ined
ĠSec urity
Ġp anel
Ġcon vert
Ġtr uth
~~ ~~
ap ers
Ġlook ed
ard en
un icip
Ġin str
Ġocc up
i able
Ġevent ually
s v
Ġf ra
Ġsl ight
styles heet
f ocus
Refer ence
Ġal gorithm
act or
Ġw at
ĠMart in
em porary
Ġbro ther
Ġ util
Ġra ised
ĠB ack
Ġinflu ence
C M
d i
T V
ĠH uman
ĠFil m
Ġinc or
us band
Ġar rest
Ġform ed
ĠCh ief
ner gy
Ġhold s
Ġide as
ĠF estival
Ġcon cent
h over
j pg
Ġre asons
Ġl ayer
Ġoffer ed
ĠF und
Ġold er
ĠL O
Ġto ken
ĠE p
ĠM ax
Ġup per
ab it
Ġrout e
ic ed
cit ep
Ġp ages
ĠW ood
res ents
Ġappropri ate
Ġrele vant
p ool
ootstr ap
k in
Ġuse ful
st ar
V ert
Pro perties
Ġimplement ation
ĠR equ
ing le
ic ians
Ġst orage
Ġident ity
Ġt al
ĠKing dom
Ġc ool
Ġtool s
ĠTr ue
Ġorgan izations
p ower
om y
Ġb rief
Ġb attle
Ġview s
k er
Ġd ream
Ġfl ag
I E
Ġsup ply
Ġrest aur
Ġthink ing
ST R
Ġnot ed
Ġveh icle
ĠT uesday
ĠI reland
Ġe cho
j oin
Ġident ified
Ġch ief
. \
J ohn
ĠB ur
Q ue
ĠTh ursday
r um
ĠAr ab
Ġpro file
N on
V er
Ġp aint
re nder
ĠB G
Ġin come
d est
Ġgu id
OR D
Ġchall enge
Ġn ative
ific ations
As ync
ĠB ase
ug ins
ĠChar les
% )
Ġr are
Ġsign al
Ġext rem
Nav Bar
Ġh arm
Ġst eps
Ġcor onavirus
ur a
ĠO ld
ĠS pecial
j a
aw s
ĠM odel
Ġr ac
Ġm obile
ing u
Im pl
Ġrecomm end
as tern
Ġpower ful
d irect
ĠEn ter
Ġsepar ate
Ġsk ills
ĠB et
P ass
l ines
ĠC A
Ġpe ace
Ġbenef its
Ġa head
P tr
Ġsex ual
Ġob vious
================ ================
ĠCent re
ĠJ im
ĠA L
à ¸
Ġgo als
add ress
Ġvis ual
= >
Ġad vert
n ight
C or
ĠSt and
i h
ĠL im
pp ed
Ġm achine
Ġm ask
Ġcr is
Ġal t
Ġdo or
b ind
Int eger
Ġrequire ments
Ġdi agn
Ġcl ick
Ġin fr
ĠL ibrary
ĠO l
im ents
Ġlist ed
ĠHe ad
n ote
ĠK ey
ĠP enn
il s
our ney
M enu
L ambda
ov es
as er
if ies
i ar
ac cess
pl ing
Ġhas h
ĠC ast
}} $
Ġpr ison
S ession
atal og
Ġtri ed
P H
Ġadv ant
Ġcrit ic
co in
ĠPar is
R ight
Ġadministr ation
doc s
Ġpl ays
Ġfail ure
Ġplan ning
Ġcred it
à ¥
os oph
An y
Ġa x
ĠT our
est ic
( :
cl es
' .
25 5
ĠV ictor
ĠP an
U se
ĠM ot
Ġdr ink
Ġcon flict
ĠL in
ĠChrist mas
n ormal
ĠF amily
v ector
ĠL ee
Ġres idents
d at
Ġcon vers
Ġdev ices
ĠĠĠĠĠĠĠĠĠĠĠĠĠĠĠĠĠĠĠĠĠĠĠĠĠĠĠĠĠĠĠĠ ĠĠĠĠĠĠĠ
c p
d el
Ġs umm
M ult
Ġmur der
Ø §
er ies
Ġhapp y
Ġsen ior
Ġh our
s ession
L ong
V ari
Ġsh ift
Ġsub sequ
ĉĉ Ċ
Ġp urs
| |
equ al
k appa
urre d
el ess
sh ire
Ġh yp
Ġdirect ed
P at
Ġdr iver
ĠAl though
ĠEx ception
ĠM ethod
199 2
Ġext ension
Ġfund ing
Cl ick
Ġinterest ed
; ->
Ġit er
ĠIt s
h ere
h igh
su ccess
ol a
Ġc at
Ġcont aining
Ġneigh bor
ic ons
f ound
Ġre ality
ð Ł
inter face
Ġb ul
\ |
ellig ence
ĠC ode
Ġaud ience
f ill
c at
Ġper haps
Ġla unched
Hel per
Ġoffic er
ĠThe ir
ĠJohn son
T itle
Ġm ys
li e
Ġdescri be
Ġcons ult
ĠComm un
H ost
ĠVal ley
S ince
_ ;
Ġregard ing
Ġsp ot
Ġtrans action
= {
Ġy ield
et ry
w idget
Ġun less
est ed
ĠAp ple
Ġhe avy
j ection
IT Y
fo o
Ġ[ '
ĠT able
Ġfe et
T A
omet ry
if ically
in ations
ĠVirgin ia
Ġdown load
Ġv irus
ty pes
ĠCE O
Ġse a
d elete
Ġke pt
Ġd rop
iqu es
por ation
Ġv an
hold er
199 3
out e
text it
Ġbenef it
ĠOr der
15 0
ent ed
ici ency
ĠE vent
ms g
Ġmention ed
R ed
ĠL ord
abl a
Ġc ategory
cl aim
Ab out
Ġmay be
H ere
ip eline
Ġbuild ings
Ġcl oud
Ġfour th
I ter
l ig
cre te
atas et
ĠAb out
Ġcont ainer
Ġstreng th
l ife
A c
ell ed
S ome
Ġdistribut ed
r ange
Ġchalleng es
Ġviol ence
ik i
Wh y
ĠFor ce
oth ing
Ġph il
s end
ld ots
Ġn amespace
D I
ĠR ights
Ġmin imum
Ġp od
ĠRec ords
Ġto ward
ĠMex ico
a uth
Tr ack
Ġm iles
Ġmost ly
Ġjob s
Ġch ain
Ġst ress
Ġend ed
r ick
Ġequip ment
Ġcon sequ
ĠA mazon
b ra
ĠA R
Ġw rap
Ġb oy
ed ge
ĠSp ace
Ġat tract
as ion
Ġup dated
od ies
ĠW ater
ĠN Y
Ġexper t
d ed
ĠAr g
ĠIs lam
ĠIr an
Ġp et
dis abled
Ġopport unities
ot es
Ð »
ĠCol or
ex port
cl ick
ro ph
-- -
S u
ar ian
Ġap pre
Ġfor ced
ĠĠĠĠĠĠĠĠĠĠĠĠĠĠĠĠ ĠĠĠĠ
Ġstr ict
Ġcult ural
ĠJ o
ĠEX PECT
Ġredu ced
S D
is hes
anc er
ĠYou ng
M ay
m ake
ĠAn y
ĠA ff
Ġwe ak
H as
m id
w ar
or ney
Ġclear ly
S k
ce an
Ġmon itor
> .
Ġprote ction
Ġerr ors
Ġd anger
ERR OR
Ġc ities
ĠJ ones
ist ers
Ġh usband
Ġfam ous
N ames
__ __
Ġtalk ing
Ġgu itar
Ġlaw s
ĠMed ical
sub set
Ġsm art
G ET
OR M
ec es
Dev ice
es h
Hand le
Ġfl ight
Ġleaders hip
L eft
ult ural
ob s
Ġpart ial
Ġtre nd
gl obal
ĠF ort
Ġex cell
Ġshow ing
P T
ob uf
S m
Ġoper ating
B ook
miss ions
Ġde lete
m ode
raz il
Ġw id
Ġst uff
Ġident ify
ĠH istor
or row
ĠD own
ĠH or
Ġexper i
n abla
Ġn odes
Ġar m
lang le
Ġin tr
Ġem b
ĠA wards
Ġbe coming
ĠG ar
Ġb udget
ur ies
asket ball
SE T
M ed
& #
Ġme ant
ĠB iden
ĠIn vest
C ore
ĠWh y
Ġdep th
Ġbig gest
Ġpro ceed
Ġrepresent ation
Ġle ague
199 1
ĠPol ice
plic ations
erson al
ole c
ĠSc ot
Ġn orm
ut s
un te
astr ucture
Ap plication
wh ite
ĠBG COLOR
Ġg ather
S R
ĠF ire
ĠE N
C I
' ],
Ġd ig
con nect
c lear
Ġatt end
ĠAs ia
D om
Ġs s
Ġa f
to String
ĠM any
Ġad opt
ĠD om
Ġr ul
istr ation
ĠW ay
Ġj oint
Ġdet ail
Ġj av
Â ©
ĠM A
c oll
ĠCath olic
Ġw est
Ġag reed
ĠDes ign
ĠS and
Ġass ume
Ġl if
Ġcris is
Ġcould n
Ġrelig ious
ĠIt alian
O ther
ensure math
Ġman aged
ĠSen ate
e an
Ġwe ap
EN D
ud io
ĠE ach
Ġw all
Ġcertain ly
ĠT O
Ġcall ing
ĠV alue
Ġg one
P arent
Ġapprox imately
ri er
Ġc ache
ol es
' >
Ġag ent
ĠM icrosoft
The se
F ound
ip al
Ġpol icies
ĠA ction
Ġle aving
os es
Ġr ise
Ġdam age
Ġcon ference
Ġd oll
al i
Ġpro ve
k r
equ als
Ġreve aled
ograph ic
t n
ĠP op
ĠD C
( *
att ers
G u
Ġinter pret
( -
V ector
in ternal
ĠH and
ĠÂ »
W riter
ann els
Ġf if
E Q
Ġprocess es
Read er
ĠAmeric ans
ĠH aw
s pe
Ġrem aining
ĠL ine
Ġon to
Ġrep resents
hand le
Ġed ition
Ġsignificant ly
Ġad just
Ġc ars
Ġwin ning
Ġfound ed
he m
Ġoriginal ly
Ġocc ur
ĠOr gan
ot ed
c opy
Ġext ended
Ġa ircraft
l n
sc ape
ad s
am m
ate ver
ĠL em
Ġund efined
trans form
at o
Ġdiscuss ion
ĠE qu
Ġart icles
Ġf resh
Ġbut ton
Ġb ed
Ġear th
yl v
Ġcr iminal
ov id
Ġcam era
Ġb g
Ġ ult
res hold
ĠI P
p anel
ian a
ĠT H
web kit
Ġ ×
Ġsur vey
w id
is ms
ac ific
Ġf an
Ġex ternal
ynt ax
Ġsh ut
t ure
foot er
sq l
Ġfac ilities
ĠCarol ina
Ġiss ued
Ġprocess ing
vir t
Ġdel ay
ĠE lect
ul s
T emplate
ĠTh us
D raw
v m
Param eters
Ġpro pos
Ġclin ical
Ġenvironment al
f n
ĠIt aly
maz ing
en um
E ach
Ġdep artment
am in
rom ise
AT H
alle l
Ġco ast
u an
ĠE U
âĢ ¢
re q
ak a
Ġtraff ic
ok es
\ %
Ġcover ed
Ġun known
ĠS ar
Ġgener ate
ĠL ink
Ġpl ot
Ġe ast
c hen
ib er
en v
Ġstruct ures
Ġor igin
up s
Ġre lation
n ap
St ack
Ġ à¤
i at
Ġlist en
Ġgover n
Ġe lected
el er
g raph
Ġbr ain
Ġs un
Ġst reet
br idge
c ustom
ĠC y
ĠL uc
ĠU ser
Ġcent re
Ġhistor ical
Ġcommun ication
19 60
sh ot
ent er
ĠJ on
Ġmat ches
Ġcon ver
Ġf ramework
c f
Ġflo or
F alse
ff ect
ĠB ob
le ments
? ?
st ore
Ġp ri
Ġcitiz ens
Ġ ens
ĠP age
P P
u ing
l anguage
ĠWh o
Ġa uthors
urb an
## #
Ġpro s
Ġc row
Ġconf irmed
Ġresult ing
st ep
Ġreg ions
cent ering
est amp
Ġaltern ative
ĠCh ris
ĠR ail
ign ment
y e
up load
ac le
R ect
gr ade
T ags
W ill
Ġp icture
el ines
put e
ak istan
N e
k ins
ĠSp anish
ut ch
Ġd u
Ð º
ide os
} )$
Ass ert
Ġcom fort
pl ugin
Ġhead er
A ME
ru it
in et
ect ors
Ġcar ried
cl oud
Ġl ived
Ġ il
ĠIn ternet
R ender
Ġby te
ĠReg ister
Ã ¢
ĠĠĠĠĠĠĠĠĠĠĠĠĠĠĠĠ ĠĠ
il ton
ĠJust ice
By tes
Ġexecut ive
Ph i
L iving
Ġex erc
Ġw ish
D C
ost on
Ġun signed
Ġfund s
Ġcandid ate
Ġvari ables
Ġlead s
ĠH ospital
Ġst ack
ĠM a
Ġanim als
Ġpar se
Ġstart s
Ġrepl aced
ig er
Ġd raft
AG E
Ġdevelop ing
{ }
em ail
ĠSt e
Ġex amples
X X
c ape
Ġmys elf
rec ord
and on
Class es
ĠC ard
Ġd ie
In valid
Ġpe ak
Ġr ich
d ot
Se lect
=" /
Ġser ial
ĠK ar
uz z
y er
Ġtechn ical
Ġcomb ined
pro duct
Ġ+ +
ict ures
ro t
Val ues
A uthor
Ġstand ards
urren cy
ĠInd ust
Ġp il
N N
ĠAs sembly
tog gle
ĠL ear
Des criptor
ĠL ast
Ġfa ith
on ym
by te
uck y
ov ing
> ();
Ġbe at
N um
Ġcl ients
Ġdirect ory
Ġrepresent ed
n el
Ġey e
ĠB ow
ollow ing
ĠHen ry
ian o
ĠF ederal
f aces
ĠRe al
ult y
Ġtr ail
ĠJ es
re place
Ġp an
st at
ĠAd ministr
ĠP oint
ens ional
s ystem
ĠPol it
ĠBl ue
ourn ament
Ġun ivers
ynch ron
L C
ĠL o
Ġs ustain
. '
Ġbroad cast
Ġfocus ed
s cal
Ġex change
Ġregister ed
Ġre b
W rap
Ġin her
Acc ording
og en
Post ed
ke ys
D IR
Ġen able
z en
ĠSup port
AC E
ĠW al
Sh ow
Ġmus ical
Ġh idden
ĠI O
ell er
Ġcr ime
ot imes
Ġadd ing
er g
Ġyou th
Ġ ice
Ġinvest igation
Ġpolit ics
ĠM ath
Ġmot ion
ĠS ports
1 20
Ġsche me
ex ports
` .
se ct
at i
B ody
ĠWilliam s
Ġp i
Arg s
ĠL ike
Ġsee ing
Ġsp in
c ur
Ġim press
Ġsc hedul
Ġdoc uments
Ġfeature d
x x
all ow
Ġcustom er
Ġw ave
ĠP ass
wid et
Ġl abor
oper ator
h ar
ix el
ĠOn ly
ĠN umber
r ich
ay lor
Ġestim ated
ĠTr ust
-------------------------------- --------------------------------
ĠJ eff
Ġequ ation
Ġare n
j i
f ull
Ġyour self
ĠC ross
198 9
us es
Ġlearn ed
ĠM iddle
Ġat tr
Arg ument
; <
D R
r b
De cl
ĠHT ML
Ġcor re
Ġch air
ĠC re
clud ed
ĠOb ama
ĠN E
On ly
Ġcomm ission
ĠF our
Ġn ine
Result s
Ġdr iving
d ouble
f ony
Ġin fe
Ġrap id
Ġm ental
Ġcomb ination
pos s
t ool
import ant
Ġb an
ern el
Ġby tes
Ã³ n
L S
Ġsom ew
R oot
param eter
fr am
ĠJ SON
Ġf ant
ne ctions
field s
ad min
Ġhe at
Ġk ing
ic ol
Ġfind ing
ĠE nergy
Ġm essages
Met adata
em pl
ans as
. [
F T
ol ume
tribut ion
gy pt
Ġgu ide
ck now
s ort
h ow
ĠM ain
Ġoffic ers
ĠN O
ir a
Ġfl at
How ever
init ely
ER S
ific ate
Ġfavor ite
p a
Pol icy
ĠM ike
ĠAnd rew
SS ERT
ĠI ss
M ENT
ym fony
l ers
A tt
sec ut
P arser
Ġdec ades
widet ilde
Ġtr a
Ġf ish
Ġw arm
Ġn arr
Ġnot es
com ponent
Ġapp arent
P op
Ġnumer ous
ĠS O
Ġs port
\ "
Ġprot ocol
anc he
ĠCon ference
Ġ} )
ĠW all
{ -
het ic
ĠT ext
S w
igh ter
b ul
Ġact or
ast e
w ater
Ġinv oke
virt ual
Ġthous ands
ĠFoot ball
Ġappoint ed
ad ium
ĠOn line
ĠL ive
Ġm ock
-- >
h s
n ce
reg ister
ĠN ight
ĠMus lim
it age
Ġded icated
Ġh ers
ĠH arr
Ġs amples
Ġknow s
ple ments
Ġs plit
ele ase
ap plication
ord ers
& &
Ġcontr ast
g ers
Ġoffer ing
ab eth
ach ing
Ġint ended
ru le
ĠT ele
ĠL ab
ĠW ild
Ġex plicit
Ġfeel ing
Ġm ixed
ly ph
Ġfil ed
D P
Ĥ ¬
ĠN et
Ġis ol
Ġmark eting
Ġrem ained
aw a
st op
Ġp p
Ġt end
ap pro
P RE
Ġpl us
Ġconduct ed
Ġcre ation
r id
Ã §
Ġachiev e
ĠCol umb
uck et
I con
Ġle tt
ĠB ecause
Ġex port
ĠL i
Ġw ind
call back
Ġk ill
pos ite
Ġtri p
il ation
Ġent ered
ad ing
//////////////// ////////////////
form s
N ote
ist ent
ĠF ood
16 0
ĠP lease
Ġin line
198 8
ĠJose ph
Ġent ity
E rr
ĠS ign
E CT
S U
En abled
Ġs ale
Ġthem e
Ġst ations
ĠC oll
Ġw ww
B efore
By te
. ;
Ġbal ance
is er
M eta
as hed
Ġ ul
ath an
Ġopin ion
Ġo s
ĠGu ide
at tribute
Ġm yst
Ġl atter
ĠFrancis co
Ġspe ech
ĠF igure
D ebug
eng er
Ġhouse hold
__ (
Ġn ice
Ġgu y
ol ver
b uf
Ġl icense
d ots
I X
Ġis land
Ġpred ict
ĠIn itial
ĠR am
S igma
Ġphot o
ors hip
Ġstud ied
Ġdef ense
$ (
Ġpract ices
Ġch osen
8 00
ĠEn vironment
ĠB oth
Ġ( '
ly wood
Ġliter ature
Ġun iversity
Def inition
Ġres olution
ĠU RL
m ond
ing ly
ĠV an
Ġev olution
Ġequival ent
v a
stit ution
C ustom
/ \
W A
D oc
sec urity
up le
Ġl ab
ry st
set tings
ce ived
Ġrat io
p et
ĠK en
k o
Ġconcern s
E ar
Ġj ourney
Ġrem ote
Ġtell s
ĠL ocal
ov a
Ġbg color
ob e
fram ework
Ġall oc
ur er
Test s
f riend
ĠEx ecut
Ġs quare
w an
Ġpur poses
D elete
ĠÂ ©
Ġtr av
The n
Ġaff ected
ĠPar liament
ĠM en
6 00
Ġfrequ ency
ĠMich igan
Ġwould n
Ġf lex
r im
Ġf le
Ġag ency
Ġfac ility
Ġhigh light
Ġw arn
angu ages
Ch annel
ĠH on
ple x
ĠL ook
Ġadv ice
Ex p
ĠStud ies
Ġnetwork s
Ġpost ed
ins ert
Ġgu arant
B I
Ġmet al
ĠW he
tab ular
ĠPh ys
n am
Ġimport ance
TE ST
M ock
M T
ĠR o
ĠSecret ary
Ġpartners hip
Ġchang ing
25 0
Ġslight ly
bo olean
Ġadvant age
ĠM ult
Ġdist inct
Sup port
m aterial
Ġallow ing
prot obuf
ĠC H
Ġsecond s
Ġf uel
w ords
Ġs an
Î ±
C opy
Ġv ision
Ġse at
Ġdel ivery
Ġdiffer ences
F inal
A pi
d ependency
us hed
In s
Ġtr uly
D T
Ġp ool
ĠSc iences
im a
Ġpos itions
il ing
ĠP rem
Ġre ject
Ġ ),
h ome
Ġvacc ine
Ġs leep
it an
Ġdep art
Ġpol y
ĠEx per
ĠA ccess
Ġex tract
Ġhy per
Ġhel ps
il ly
St orage
Ġinj ury
ĠAd v
B R
Ġb rowser
ĠS ummer
c pp
Ġke ys
ag ers
r ine
Ġtyp ically
ĠW alk
ĠB razil
ĠBrit ain
Ġs um
Ġexper iences
ack s
} -
Ġm sg
Ġm ist
Ġaward ed
Ġj son
ic ing
ĠT erm
Ġ" /
umn i
Ġfore st
L ock
F ig
ĠGeorg ia
ĠNor thern
Ġnew sp
198 7
ĠDemocr atic
Ġpre par
Ġcirc um
Ġj ump
M ain
Ġown ed
ĠThere fore
ly n
Ġr an
\ [
Ġex pos
Ġins ert
ĠRepublic an
arg ument
p adding
Ġret ail
ĠDan iel
Ġcompar ison
Ġap i
drop down
ĠSt art
Ġattack s
i ro
Ch anged
enc ing
Ġthan ks
c ert
Ġreg ional
Ġsuff icient
ĠII I
mb ox
! [
ĠE r
ad or
ell o
Ġhapp ens
Ñ ĥ
Ġdiscover ed
aut o
ĠW indows
w p
Ġt error
ĠC ustom
bl ing
form ance
Ġwe ather
ag ger
u ations
Ġcl uster
Ġappear ance
Ġb urn
ĠM P
ynam ic
P ublic
oc ity
ot hes
Ġveh icles
ost er
Ed itor
Ġ( *
Ġrel atively
ĠCont rol
unn y
in ates
M I
Ġreview s
ĠCo ast
Ġ' /
Ġnuc lear
G S
inst all
ĠIr ish
ĠH y
AR Y
ĠJack son
Ġdef end
pl ugins
Ġf reedom
ot i
iss ions
Ġseem ed
D i
Ġw itness
ĠUp date
ic er
Ġannoun ce
Ġstud io
Ġle aves
Ġdiscuss ed
Ã ¨
A F
Ġabsol ute
ar ia
J ust
Ġbr anch
Ġthan k
Ob j
ish op
Con st
ĠF urther
ĠM id
Ġunc ertain
Y ear
Ġextrem ely
"> &
ĠS ep
` ,
Ġalbum s
b ootstrap
Ġmar riage
ra wn
k m
Ġassert Equals
ident ial
Ġbehav i
Ġhelp ing
Ġeff icient
ĠP akistan
yth on
Ġg ain
Ġsp end
ir al
! âĢĿ
Ġcomm itted
Ġgirl s
annot ation
ĠS outhern
st ances
Ġdec isions
ĠL ight
Ġpl ants
n ic
25 6
ird s
Ġwrit ers
ĠR est
Ġprof ession
new s
A v
ĠT oday
Ġdiv ision
w atch
Ġfin ish
Ġloc ations
Ġaud io
Id ent
ĠF ed
p an
Ġc ounty
Ġjust ice
Ġcar bon
Ġ< =
ĠJew ish
ang o
Ġv el
ĠO k
ĠB O
Ġinsp ired
ĠM ake
In itial
D el
Ġhom es
Ġgu ess
} "
Ġmass ive
b ury
Ġa mazing
Ġhers elf
r ical
S ION
un ately
Ġadv ance
ick ets
J an
KE Y
ap es
Ġv oc
ri p
ress ion
as is
W orld
p resent
c md
s creen
Ġcon sole
ĠĠĠĠĠĠ Ċ
ĠE mp
block List
est ion
f ix
ĠA f
ĠE rror
ar ation
st ein
ed it
c ut
Ġacad emic
198 6
HT ML
Ġh air
Ġter rit
ĠProfess or
Ġgl ass
Ġp hen
' ))
Ġtr igger
G en
iz abeth
D ialog
R ule
) -
Ġres erved
ĠB oston
ĠC ivil
Bo olean
in ating
f ly
m aster
Ġsupport ing
IV E
Ġmot or
ĠT w
B est
Ġc ref
ĠF ar
Se cond
Ġvict ory
Ġr iver
% ,
ĠRad io
="../../ ../
Ġprob ability
ĠS af
Ġconsist ent
el ly
Ġpr ices
c up
Ġ rom
ap pe
ï ¼
ado op
198 4
Ġf ill
Ġvis ible
cont in
Ġadv oc
IN FO
ir ation
Ġf ashion
ĠBe ach
Ġpurch ase
ĠA S
Act ive
al id
. âĢĻ
Ġbeg ins
ylv ania
ex ception
Ġauthor ity
Ġk id
ĠMed icine
iv ation
Ġcover age
Ġwait ing
point s
}} {
Ġdet ailed
Ġrec ording
rou d
T wo
Ġne ut
M B
ĠD igital
eff ect
oper ation
V ar
ĠJ ac
b ad
b re
hent ication
ĠK h
con nection
m o
all oc
Ġsp aces
Ġs ister
ion e
FA ULT
Ġblock s
Ġhous ing
Ġmark ets
ĠV AL
ĠT er
Ġsing er
M C
sh all
Ġscient ific
ĠQue en
os a
in itial
ĠC opyright
ĠSw ed
st one
sh ape
RO M
Ġcre w
ĠEx t
at uring
ĠSp ain
Ġdet ect
p ay
Ġr ain
udd en
Â °
F ull
ĠG irl
Ġ& =
Ġin ner
ĠM aster
m ock
Ġweek end
M edia
Ġexpl ained
Ġt ro
ĠP acific
sh ort
Ġhot el
J ob
Ġl oved
ĠV ersion
ĠE gypt
LO G
F ind
ack et
ele gate
ĠJ r
Ġsh ock
Ġf ellow
ĠB ul
198 5
ĠDef ault
Ġocc urred
Ġprov ider
it o
t ers
Ġaccept ed
Ġre tain
n ames
N etwork
Ġtre ated
od d
Ġread er
ĠThe atre
Ġinstit utions
in ator
aw n
ĠBro ok
Ġhe aring
iven ess
Ġprep ared
Ġexpress ed
Ġem ph
Ġun ion
Ġf re
Ġf ell
Ġad vent
y es
Ġtrack s
Ġclass ic
k g
ev in
Ġrefer red
Ġturn s
ual ity
il a
* )
item s
com ment
ess ions
OD O
non umber
ĠN on
Ġs y
Ġele m
Ġclaim ed
D uring
Que ue
ĠM ah
d ict
_ ,
Ġd ir
Ġexpl ain
Field s
gr id
u ilt
s en
St ep
anc el
Ġappro ved
ont o
M sg
Ġw allet
lem ma
ĠV ideo
ach ment
Ġcor ner
p erson
Ġp un
ĠK im
in line
Acc ount
Ġcy cle
Ġbeliev ed
amp ion
he ast
al o
ĠN av
Ġincre d
sp ring
Ġexp ansion
Ġadv anced
Ġpl ane
L a
Ġ{ };
Ġcoun cil
bur gh
ĠL ittle
f ol
19 50
force ment
ĠAnd roid
HE CK
Ġcons ists
ub y
N OT
ĠT R
ĠC irc
H R
Ġno ise
Ġmov ies
M ember
Ġo k
EX T
Ġanc ient
pass word
Ġcreat ive
Ġexcell ent
ĠSe a
Ġso ft
pl ed
d x
Ġvers ions
um es
m argin
Ġg ender
Ġsu c
, -
Ġsupport s
ĠĠĠĠĠĠĠĠĠĠĠĠĠĠĠĠ ĠĠĠĠĠĠĠĠĠ
Ġcook ies
IC E
Ġc ash
Ġconf irm
ĉĉĉ Ċ
c ategory
Ġn g
str a
Ġteach ing
ĠDon ald
Ġrece iving
Ġsub stant
e per
Ġwatch ing
Ġp al
w ait
ĠI T
ĠBook s
12 8
os c
ĠOh io
Ġat tributes
P ackage
ĠA ge
ition ally
Ġsuccess fully
Ġdou bt
Ġd ance
ĠF alse
Time out
ang ular
10 1
ĠSt eve
ĠAre a
ĠE th
H igh
Ġinstall ed
equ iv
Ġc old
un signed
ĠR h
eng ine
S end
Ġtop ic
Dis play
ĠL td
Ġman ner
Ġauthor ities
L P
ĠF unction
Ġend s
Ġv en
Ġtechn iques
12 3
Ġmag azine
Ġre con
ĠP ri
ĠF red
Ġh ydro
Ġt ab
ou ter
c uss
Ä ģ
w orld
Ġinteg r
ĠMc C
ino is
ĠW at
pr ise
ĠP ath
g a
Ġsc ored
Ġemer gency
ĠJer sey
ĠW in
s ylvania
ĠS pec
Ġconc ert
let on
Ġserv ing
D atabase
Ġc as
Ġo dd
ĠW atch
Ġhold ing
ch er
let s
Ġdis s
Ġup dates
? "
ip ped
ĠThe orem
Ġpay ment
R est
} ]
Î ¿
Ġprodu cer
o ir
act s
ĠM O
ra q
and ra
C ap
Ġarr ived
og y
Ġfin ite
Ġsp ring
Ġdem ocr
B E
W N
av or
m osph
Ġexperi enced
) /
ĠT ask
Ġinfr astructure
b ro
In it
Ġv ent
Ġm enu
com pl
ad el
\ {
j e
Ġinstance of
Ġ ur
l aw
Ġreg ul
Ġimprov ed
rec ated
ĠR ay
w er
f ast
ĠS aint
oc key
pr imary
Ġchem ical
Ġpl anned
Ġw aves
ist ant
if fer
Ġtre es
Ġrequest s
Ġwh atever
ĠSe ason
Ġjav ax
ON E
h ab
Ġbr ings
Ġsym pt
hel p
Ġsec ure
Ġab use
erv ative
Ġpr iv
ele ction
el a
J SON
ul f
he mat
Ġsym met
Ġpi eces
ev ents
ĠW rit
Ġinterest s
m ann
Ġsup posed
rad ius
Ġdef initely
ĠP C
Ġco al
ĠB ang
ĠS us
Ġse gment
ĠChild ren
i ples
Ġbo ost
add r
Ġcol lected
Ġv ac
G O
X T
Ġspec ifically
Ġvol unte
Ġsm ooth
Ġs qu
Ġsuc ceed
mat rix
} +
or ough
\ ]
ĠK n
Ġrelationship s
Ġel im
pro file
\ !
Trans action
enn is
ĠW is
Ġsuggest ed
Ġord ers
Ġar bit
ç ļ
Ġh tml
Ġr ing
V E
ĠF ull
an es
ĠP ay
ap ore
th read
Ġfig ures
Ġpers pective
B it
ĠPh ot
Ġarchitect ure
Ġfor t
int on
ĠSt ory
Ġcandid ates
P ORT
v in
ĠM ic
f amily
Ġcaus es
ĠD ou
w riter
Y PE
ĠS ir
Ġsur g
ĠCh air
Ġinc ident
assert Equal
Ð° Ð
ĠW ales
wide hat
ĠD ar
Ġan imal
F loat
Ġfav our
_ ->
Ġest imate
ĠBro ad
P M
ĠM u
Ġun iform
r ase
ĠG i
çļ Ħ
Ġl ies
Ġalleg ed
f ire
S cope
Ġbel ong
-> _
ĠR en
ear s
em on
W idget
in ity
ĠCar l
Ġc er
mod ules
New s
ĠSup reme
Ġteach er
Ġrespons ibility
Ġb ond
n umer
Ġacc ident
G A
Ġdes c
Fl ags
ĠO x
( !
Ġen abled
Ġp ure
Ġa cknow
ĠSt an
e z
T erm
T ab
Ġ ðŁ
Ġch art
mer ce
Ġman age
im pl
FI LE
ann a
Ġphot os
Ġhand ler
par a
c am
Ġro les
Ġbel ief
r an
ent h
Sec urity
ĠSo ftware
F S
Ġpass ion
ĠB as
Ġ era
P erm
Ġfind s
Ġrepresent ing
Ġresearch ers
Ġexist ence
Ġfund ament
reg ion
R et
ĠT aylor
Ġposs ibly
Ġmeas ured
ak ed
MA X
ĠH om
ul ner
Ġcl im
ĠPro cess
ĠB ern
ĠScot land
. *
T ABLE
line ar
Ġincre ases
sc r
ĠTh ree
Ġm unicip
Ph one
Ġkeep ing
Ġform ation
pr ime
Ġentire ly
V ideo
ĠMark et
in ant
tribut ed
ĠF air
Ġlo op
ĠEngine ering
Ġbound ary
; \
ĠK ent
ĠR om
Ġder ived
T ool
Ġr aw
ĠÂ ·
Ġdynam ic
ĠAs ian
Ġmain ly
poss ible
ĠIm age
Gl obal
av id
co q
Ġin ternet
R C
Ġown ers
ĠG re
Ġs ounds
ag raph
ĠK ong
ĠS om
Ġap art
av ity
S ymbol
art icle
Ġparticip ants
Ġcomp are
z z
Ġk ick
Ext ension
Ġs ides
Pre vious
Ġaw ait
ram es
Ġm ort
er ial
ĠN ext
M r
Ġgu ys
ĠInd ex
Ġcomm ittee
198 3
Ġr ough
ra ham
Ġcharg es
Fil es
ri ev
Ġtw ice
ĠH a
u ous
is c
n one
text width
Ġcol on
g ov
Ġh aven
Ġb atter
h adoop
at ial
ĠC ovid
Ġsk in
l ay
T ube
}_ \
Reg ister
Ġd b
ech o
)) )
Ġest ate
Ġtest ed
Ġinitial ly
ĠCor poration
ĠC ase
âĢĻ ,
if er
Ġexpl ore
Ġs and
Ġg alax
or al
ĠC ur
Ġcons umer
Ġm ent
g reen
Ġinter action
Ġsh ares
1 10
it ter
ĠE st
Ġs ummary
ĠE q
Ġwin ner
sc roll
Ġtask s
i ot
ĠPr ime
ĠP y
ro vers
Ġeven ing
ĠAg ain
RE AD
Ġfight ing
Ġcomp r
que ue
Ġem bed
] :
ĠF ox
ut ely
Ġinstr ument
Ġoption al
um in
ĠKore a
st ats
Ġre nt
call ed
Ġeas ier
ĠH ard
Ġele ctions
is a
or iginal
ge bra
pos itory
198 2
osoph y
Ġd ress
Ġrec ip
Ġre tr
oun try
[ :
li k
Ġdram a
Ï Ħ
ĠG al
am ber
) }\
Ġg rew
stru ctions
i y
Ġindust rial
Ġper man
ĠN avy
in v
m ove
=" ">
Ġdeliver ed
ĠH as
Ġdep ends
Ġachiev ed
Ġatt ended
Ġstat ements
ĠExecut ive
@ "
ĠCol lection
âĢĻ .
ĠB oy
Ġv ideos
V D
Ġas pects
Ġsuggest s
n etwork
ã Ģ
ru ption
ĠG reek
ĠS earch
du ced
Ġproced ure
ĠS her
ĠGu ard
ĠP RO
J ECT
Ġassoci ation
L IC
Direct ory
Ġcontribut ion
he ll
R ad
ĠPenn sylvania
Ġwe alth
Ġsp ons
RE S
ĠComm on
Ġneighbor hood
Ġact ing
Ġs outhern
Ġent ertain
ĠG ets
Ġdom estic
Ġbring ing
==== ==
Ġin n
P ay
Ġmed ium
pre ne
Ġb tn
Ġd ialog
P AR
Ġz one
) =\
z eta
Ġpor tr
t ip
Not Null
Ġact s
assert Equals
Ġ$ {
Ġcont ained
t ical
Go ogle
Ġ[ [
ĠP O
ĠF OR
Ġorder ed
Ġfact ory
) ">
om orph
ens es
red it
l g
Ġapplic able
ir ms
ĠO N
d eg
P si
ov iet
at ible
W indows
Ġsol ar
Ġl icens
ail ing
Wh ere
in son
ĠD aily
Ġs ynt
C opyright
Ġexper ts
Ġex tr
ĠĠĠĠĠĠĠĠĠĠĠĠĠĠĠĠ ĠĠĠĠĠĠĠĠ
Mem bers
Ġread ers
IN D
ps on
Ġm olec
ĠL u
Ġc aught
Ġautom atically
pt on
uss ian
ist ed
Con f
S pace
Ġnor thern
Ġm aps
Ġind epend
ĠAir port
re prene
P ool
Ġac comp
M any
Ġam b
") ]
Ġt or
Ġins urance
Ġinteg er
et es
are a
g ence
Ġb right
; /
t ics
an ner
. __
ĠA P
iss ue
ock er
X ML
Ġrepe ated
Ġprote in
te en
Ġfe els
Ġmark ed
in her
ĠD eb
Ġpass ing
Ġlarg ely
Ġpre v
Fe ature
Ġs am
Ġf illed
Ġpr ivacy
Ġcapt ure
d y
sup er
Ġad m
Ġm useum
P lease
ch annel
eg o
In ternal
} =\
art ers
U D
ty ped
ay a
=" @
ER E
Ġb asketball
Eng ine
Ġgreat est
ĠIll inois
s ave
is lation
Ġredu ction
s pecial
", "
ĠS at
it led
result s
iter ator
ĠT em
Ġind eed
ĠA sh
Ġengine ering
Log ger
Ġar my
M icrosoft
E very
Ġreport ing
put er
Ġplan et
th m
Ġwid ely
P ER
N ov
ĠL ew
Ġaff ord
Ġbuild er
Ġimplement ed
Ġl ose
Ġm and
() ));
child ren
ĠI raq
Ġs oul
Load er
Ġindic ate
ĠS on
Ġm ac
ast ers
Ġexpl an
ĠI l
Ġtechn ologies
Ġcomp re
ĠPr ivacy
197 9
type of
ĠEl izabeth
M D
ĠK r
t ex
Ġconsider ing
ĠB ad
og rap
Ġm al
Ġconcern ed
ĠR og
do i
C ond
++ ;
ĠOn ce
Ġphot ograph
ĠJ ava
)) );
Ġs ac
ĠS ite
Iter ator
cont roller
By Id
Ġsecond ary
i pl
Ġcor porate
Ġse asons
se lected
Ġaccount s
ĠAn th
Ġ urban
s che
" =>
Ġsh aring
In v
s ol
Ġdec ade
ĠBl ock
Ġhon or
$ )
b el
br id
ĠPhil ipp
out s
Ġst ored
ĠV ill
Ġcharg ed
are t
j query
erv es
Ġ\ {
j ar
Ġsim pl
Ġa thlet
w a
Ġv ary
Ġt on
e en
Ġm el
un a
Ġstop ped
Ġsche dule
iz z
ĠM ember
ĠC ost
L ook
ĠPro perty
ro ke
Ġbr idge
ind ent
th rows
cl ip
Ġvert ical
Ġlink ed
at ar
It ems
ĠL atin
N ational
ten ance
Ġprom ote
ĠĠĠĠĠĠĠĠĠĠĠĠĠĠĠĠ ĠĠĠĠĠĠ
sh op
yd ney
I MP
eng ers
Ġdeb ate
ĠU kr
Ġform al
ĠPr ince
Ġth ick
Ġe c
U ID
Ġass igned
ĉĉĉĉ ĉĉĉĉĉ
Ġext ent
Se ction
ential s
Ġad j
ĠK now
Ġsp an
ĠC ook
ĠO ption
ĠAn other
agn ost
Ġm atters
Ġact ors
Ev ents
Ġgu ard
in f
Ġocc urs
198 1
) ^{
Ġs udden
ĠR ight
ĠA T
Ġhous es
Pr int
ĠRes ource
Ġrecogn ized
se x
IG HT
ĠSt aff
un ting
Ġpost s
g ame
pro to
Gener ic
Ġm ir
ĠOlymp ics
s ur
pl us
Ġt ournament
} :
ĠBl og
Ġjud ge
ĠE astern
ow nt
Ġrec all
Ġstand ing
ĠTh rough
ĠF ind
Ed it
bl og
ĠN ode
Con str
olog ist
Ġalong side
Ġear n
}^ \
Ġhum ans
op her
! "
ro le
Ġwill ing
Ġp roud
ĠK enn
ĠWil son
Ġther apy
Ġhealth y
ĠWh ere
Ġw inter
ĠCh ange
Ġcan cell
F ree
tx t
ĠM ajor
ĠP R
Ġprim arily
Ġsubstant ial
c b
Ġre new
w orth
Ġde leg
ĠP ubl
A ust
ĠC ro
ed u
Cl ose
Ġre action
Ġhistor ic
Ġ ing
l ow
Ġsp ending
Pro xy
Ġf unc
Ġp ed
fl ags
Ġa id
it i
Ġ[ ];
Ġrecover y
Ġfamil iar
l ights
Ġinstit ution
; "
com ponents
v ard
ĠH ong
Ġport ion
N ULL
Ġg ar
man ager
Ġdet ection
Ġcon ven
N T
ĠCl in
O UT
ĠB ol
equ ence
C F
Ġst ores
comm od
Ġdrug s
ax is
S ymfony
Ġnew ly
P res
ts d
l ate
R AN
if ts
ord an
Ġwor se
Ġprofess or
ĠR od
Ġcon nections
w all
e ah
y o
Ġgrant ed
Ġs pl
ĠM att
Ġdo ctor
Ġdo ct
Ġquant um
Ġa wards
Ġdim ension
ĠEmp ire
Ġgr id
Ġask ing
VER SION
M ost
co hol
Act ivity
Ġus ual
Ġab stract
%% %%
Ġworld wide
Ġmod ified
Ġad min
Ġbro ken
Ġtyp ical
Ġnav igation
Ġseek ing
Ġcontribut ions
S pe
W atch
Ġsign ature
Ġconf idence
Ġb ow
ar c
Ġm ach
ĠM ir
ĠAdministr ation
Ñ ı
} |
Ġint elligence
b en
P U
s chema
Ġinv alid
Ġst orm
v i
Ġenc oding
ĠA ud
Ġhe av
Ġpen al
ri e
ĠMin istry
######## ########
% .
Ab stract
ĠSt ation
'] )
ĠCoun try
Ġat mosph
ĠB on
Ġwar ning
Ġprogram me
Ġcont emporary
Ġon going
Ġmin ute
F in
Ġc os
= #
ĠB ell
ic ious
ĠE nt
let ed
Ġdep ending
b les
Ġelect ronic
Ġe at
Ġindic ates
ĠCon fig
Ġear ned
fort unately
() {
Ġcom edy
s es
Ġp itch
y cl
m ic
Ġfe aturing
Ġserv es
Î ½
pro perties
Ġun able
F igure
Ġconvers ation
not ation
ĠM S
l an
Ġappro aches
dom ain
ĠHot el
g g
Ġfe e
Ġele v
Ġun f
Ġc ab
ch or
BU G
Ġli qu
ĠP ers
Ġteach ers
Ġdro pped
des c
Ġ% }
D ay
en umer
NavBar Cell
Ġl anguages
ok ed
R T
Stat ement
ĠSpr ing
os itory
t ags
Ġch annels
Ġc e
Ġexperiment al
enn es
iz able
ĠL abor
Ġclos er
Pl ay
by tes
mon th
Ġoper ators
) "
U nder
ĠColumb ia
L INE
Ġhon est
fol io
sh ift
Gener al
Ġc le
Ġsurround ing
Ġide al
hens ive
Ġrem ark
Ġadopt ed
Ġschedul ed
Ġcontinu ous
Ġ ip
ach us
bl ack
C ategory
G raph
ĠAd am
Ġs we
Ġspect rum
Ġsign s
ug s
Ġar ts
O pt
pe ople
[ $
Ġtr uck
W ell
Ġappre ci
Ġac id
Pro p
ĠAcc ount
" `
acc ount
ĠT urn
Ġwor st
f all
Ġpro min
S IZE
Ġassess ment
ĠA venue
^ ^
Ġnear by
Ġas sets
ap h
ure au
ident ifier
es ome
Ã ±
in er
et ts
ĠĠĠĠĠĠĠĠĠĠĠĠĠĠĠĠĠĠĠĠĠĠĠĠĠĠĠĠĠĠĠĠ ĠĠĠĠĠĠĠĠĠĠĠ
ĠF ord
t otal
Ġexerc ise
P ATH
a is
Ġth erm
ĠE s
W rit
Ġes cape
ub s
id i
IT E
F IG
^ +
Ġor ient
Ġc raft
Ġset up
ĠA li
Ġexpos ure
or i
Ġag ents
R S
Ġf iction
Ġexc ited
197 8
Ġstat istics
O M
um a
ok ing
Ph oto
im it
ĠPro duct
197 6
Ġsch olar
Ġw a
Ġput ting
Ġm il
Ġmom ents
g it
P anel
Ġpers ons
Ġre venue
ĠSing apore
A uth
B P
Ġag ric
Ġrelig ion
Ġint ent
_ (
ĠTor onto
ĠL android
Ġv ulner
F E
=" "
Ġmin ister
let ter
Ġad ults
ĠA k
Ġhundred s
197 2
it als
el i
ĠF I
up l
Ġor ig
w ild
UT F
Y es
Ġact ress
Ġag encies
Ġpass word
Ġeff iciency
Ġco eff
Pro duct
nes ota
ott ed
cons in
ĠP sych
Ġcont rolled
ĠC at
Ġal ter
ĠC ru
e ach
Ġpublic ation
Ġf ly
Ġinst ant
view s
Ġclass ical
Ġdecl ared
Ġpattern s
ĠEd ward
Ġexper iments
and y
ert y
ĠP aram
ire ment
ĠB E
an th
ĠPh oto
Ġthought s
D em
n amed
ĠN C
Ġad ult
ĠM ill
ĠR on
L java
Ġstrateg ies
print f
Ġp owers
Ġv eter
197 5
Comm on
ME TH
Ġex it
ĠComm and
Ġf lood
y ard
Ġcamp us
Ġex ecution
Ġrestaur ant
our se
er ate
ag a
ĠSh ort
Trans form
Prot ocol
Ġcontrol s
() ).
Ġl it
Y our
ĠStep hen
Ġsympt oms
ĠGover nor
Ġcollabor ation
al g
A CT
bl ue
Ġdeg rees
ex ternal
S QL
ĠHam ilton
M ut
Ġent ries
ĠMan ager
) ).
app ly
At tributes
Ġ io
Ġmin im
Se lector
Ġp y
ĠOff icer
Ġfor g
ĠT ra
k ing
adel ph
m i
Ġse ctions
Ġconstruct ed
dim ensional
ĠB attle
B rowser
Ġmagn etic
ut f
ĠB a
Ġ( _
) ),
Ġrestr ictions
cit et
Ġg ap
Ġaccur acy
Ar ch
se ud
ST AT
Ġim plements
d em
ĠW el
Ġstand s
Ġd ict
ĠA z
cd ots
Ġlim its
ĠU t
ail ure
IP T
Ġf at
Ġb odies
T otal
Ġdec ide
end ment
nt ario
ĠE ll
Ġperform ing
Ġd uration
cre d
Ġm igr
Ġar ms
Ġw estern
ĠJes us
âĢ ī
iam ond
Ġclos ely
Ġass istance
å ı
press ed
u able
Gr id
196 8
ot ion
ĠP en
ass ets
Ad apter
Ġepis odes
Ġb ass
h idden
el lect
Em ail
ĠB all
Ġtyp ename
Ġde bt
ĠG a
Des c
Î ¹
app oint
C am
}} (
ĠF ac
ĠSt ock
Ġext end
Ġd ry
ĠW ars
Ġprom ise
ug by
ed itor
}) \
ĠF uture
Ch rist
Su ccess
S Y
197 7
C G
Re port
Ġvisit ors
ĠB ox
ist ing
ann y
ĠB BC
Pl ugin
ĠN ick
Ġch apter
Ġ" "
un es
D ouble
n orm
tain ment
ĠUs ing
Ġrecomm ended
ĠB al
achus etts
Ġcont roller
}^{ (
ivers ary
ĠS anta
Ġse ats
ĠDe ath
Ġd ataset
Ġus age
7 00
ĠA D
qu ir
adelph ia
Ġreturn ing
ĠC urrent
Ġdanger ous
end or
Ġher o
Ġr ural
h u
Ġfind ings
ou red
Ġl ay
o or
Ġmechan ism
ak s
am il
An other
Ġch ampionship
ol is
Ġcircum stances
Mem ory
Ġres c
ch ain
ĠYou Tube
LE CT
Ġli e
Ġh abit
Ġex ceed
Ġtr ained
ap ed
Ġgood s
Ġper mission
ĠO S
{ (
Pro file
Ġretr iev
H is
Ġleg isl
Ġte en
ĠDis ney
Ġwel come
ĠS em
ĠRep resent
ĠB and
ĠT y
ĠN FL
U SE
Ġscient ists
config uration
ĠE ric
reg on
ĠD ark
197 4
ĠEx pl
ĠV iet
Ġult imately
t w
Ġscen es
Ġin fl
h av
Ġal ert
Ġp ra
Const ants
Ġcont rovers
ag ues
ĠD ocument
te ction
Aut o
ĠG reg
Ġyoung er
ĠPro t
typed ef
Ġin struction
ab ric
Ġwe ar
ĠUn ivers
Com ment
Ġn ob
To String
Det ails
ĠL A
Ġn arrow
N C
ik a
Ġacqu ired
METH OD
Ġweap ons
O ct
ĠD ead
ĠFin ancial
ĠT ODO
Ġpo inter
ĠH u
or ry
math sf
Ġobserv ations
Ġl osing
ask a
Ex pr
Ġprior ity
Sc roll
Run time
y ou
Ġk it
Ġm ess
197 3
Ġl ayout
Ġt ail
ĠL ow
hor izontal
ĠHol lywood
Ġarrest ed
Mat rix
hold ers
Ġb inary
Ġcal c
Back ground
Ġth reshold
Ġst able
p refix
1 30
ĠĠĠĠĠĠĠĠĠĠĠĠĠĠĠĠĠĠĠĠĠĠĠĠĠĠĠĠĠĠĠĠ ĠĠĠĠĠĠĠĠĠĠĠĠĠĠĠĠĠĠĠĠĠĠĠĠĠĠĠĠĠĠĠĠ
D est
Ġd iverse
Ġposs ibility
Ġshoot ing
Ġt ight
L o
am i
ĠB efore
Ġinvest ors
ĠLem ma
en ant
Par se
o ices
Ġf aster
Ġappe al
Ġim plies
Ġeduc ational
Ġc overs
t witter
Ġleg islation
Eng lish
Ġw ire
Ġexpand ed
li x
Ġ& \
Ġ{ '
w hen
Ġrecogn ition
W R
33 33
Ġend ing
Ġaccur ate
on om
Ġeffect ively
Ġpro port
} </
ĠMag azine
ĠC as
lo om
Ġal umni
pro gress
ĠĠĠ Ċ
Ġdest ination
de cl
ĠV en
ĠC ond
Ġc art
Ġtalk s
contain s
ar ry
Ġb aby
12 5
k w
Ġdescri bes
ĠDav is
ist ical
ĠCon nect
Ġent r
ĠOx ford
is ode
ĠColor ado
b rowser
U LE
Ġrequest ed
O h
Ġcop ies
Ġload ed
Ġac compl
rodu ction
E lements
ĠTrans port
du ce
Pro ps
d ist
ro g
Ġneg oti
Ġf n
Ġproper ly
Ġcommit ment
ĠR os
ĠC reat
Ġstrong ly
ud a
Ġs now
includ ing
Ġvis ited
Ġeval uation
sub s
Ġext ensive
def ined
play er
lim it
ĠInst ead
Ġinvolv ing
s in
Ġcalcul ated
D uration
Ġcur ve
Ġspe aking
do or
ĠF re
res et
ĠB at
ĠL y
Cont act
y ers
ĠS ydney
Ġ$ .
Ġocc asion
b at
ĠD am
Ġsu it
Ġtit les
Ġb ought
ĠBuild ing
it is
Ġsp oke
Ġvict ims
Po inter
ĠĠĠĠĠĠĠĠĠĠĠĠĠĠĠĠ ĠĠĠĠĠĠĠĠĠĠĠĠĠ
ĠEd itor
B L
ic ity
S ER
Ġconsum ers
l ayer
v an
J ava
Ġt ough
ĠOr iginal
Ġpre gn
Ġv irt
Ġenc ounter
ĠC ulture
Ġdef in
ĠD u
mut able
Ġas ync
Ġr g
om ial
Ġsever e
Ġmed al
ĠH ou
> ::
ul pt
ï ¿
pl atform
Ġarbit r
ĠS ource
get Name
ĠVictor ia
Ġplatform s
Ġs aved
re port
arch y
M OD
ĠM essage
Ġax is
Ke ys
Ġwas te
Ġse ed
Ġleg end
ĠBr ad
Ġst ret
ON G
s afe
ab il
hand ler
= (
197 1
he im
h ard
medi ate
18 0
Ġmatch ing
v ing
if iers
log ger
Ġc ategories
ĠP A
Ġpar allel
Ġprom pt
A ng
j u
Ġreg ulations
pre c
Ġs yn
ĠA I
F R
S eg
z one
ĠAg ency
L in
ĠB it
Ġxml ns
as m
Al though
Ġm ob
Ġs ad
ĠS oviet
iam i
Ġcy cl
Ġv eg
Ġj Query
Ġfrequ ently
n i
Ġg ene
Î µ
St ud
Ġpr ime
Ġ$ (\
Ġfl ags
L eg
Ġm outh
p u
ĠIs lands
ic ide
ud es
Ġprov ed
Rem ove
CE SS
Ġg ift
Ġphen omen
b its
M er
Ġt elling
ur d
ĠRe act
S ocket
ĠIO Exception
ĠP ot
Ġac commod
ester day
Ġco ff
end a
Ġpotential ly
Ġfl u
Ġp ictures
ĠY es
Ġs elling
tr igger
sv g
ĠSystem s
s witch
R oute
Ġestim ates
ad ed
col lection
ĠJ ean
anche ster
t mp
Ġtrans mission
ĠB ru
ĠK ir
Ġfac ing
Ġcompl iance
Ġan gle
FF FF
Ġcomp ens
Ġag greg
ĠB rian
plic ated
196 9
Ġre form
Ġab andon
b ell
Ġc ro
Ġcap able
Ġt um
an z
ar ity
Ġperson nel
j ob
Ġsem i
ibr aries
ĠDemocr ats
, '
Ġunder lying
ĠH o
Ġvot es
Ġre ct
Ġadvert ising
t ools
Ġt aught
ater n
Ġtal ent
Ġb anks
ar on
under line
Ġre q
ĠCap ital
ĠN ations
c raft
ĠRes ources
Ġr ig
ĠMod ern
Ġign ore
ĠS che
v s
Ġfac ilit
ĠT al
ĠM iller
ĠCon f
Ġst im
Ð ²
M apping
ell i
Ġlett ers
ow a
Ġmov es
ï¿ ½
key word
ĠPl ace
is ition
as i
Ġacc ord
ĠOff icial
Ġabs or
th ur
Ġdis abled
os ed
at tributes
Ġtype of
ĠR a
ĠR yan
Ġmount ain
r at
Ġ= ========
Ġ" ,
M ake
ĠC reek
Ġfact s
Ġcolumn s
ĠĠĠĠĠĠĠĠĠĠĠĠĠĠĠĠ ĠĠĠĠĠĠĠĠĠĠ
sh adow
Ġclub s
ĠE mer
D avid
ib ilities
Ġsubject s
19 40
Ġben ch
Ġdr ag
be an
C re
ĠCl oud
Ġv ast
pro fit
Ġorgan ized
prot ected
Un ited
E C
S ync
pro ps
Un iversity
et ary
Ġdocument ation
Ġt ack
Ġque ue
Vari able
Ġass ign
web pack
Ġfeed back
Bl ack
w ing
Ġtrans parent
} '
Ġprogram ming
t le
Ġfor get
Ġhe nce
Ġst one
196 7
riz ona
rior ity
Ġprop ag
ĠN ig
ĠN eed
Ġmet ric
Ġtechn ique
ĠL ady
Ġaddress es
Ġapp end
Ġt err
ĠF A
st ood
Ġemploy ee
it ivity
Ġattempt s
Ġdist ingu
un ct
em an
Ġy ards
Ġmill ions
Ġde ploy
er ic
Ġincreasing ly
Ġenh ance
ĠH ash
Ġcomp act
on ia
Ġemot ional
Ġw ins
ĠCh annel
ĠR ose
ast s
ĠE lement
Sub s
ĠV ice
Ġperform ances
ades h
met adata
B en
b rief
Ġfif th
oc cer
ĠAl li
] $
Ġprinc ipal
k es
ĠH ay
Ġenjoy ed
ig ate
ĠR eb
b ot
Ġimmedi ate
c ers
Ġnewsp aper
Ġop posite
Ġcopy right
gener ated
C are
anc ell
Ġy es
ĠWis consin
ak i
ail ability
h y
U K
ĠIm m
Ġbo ys
ĠW AR
Ġdiv ided
p red
ĠAuthor ity
lo or
gorith ms
Ġtarget s
q quad
put ation
Ġhealth care
Ġexpl ains
Ġsubsequ ent
u ction
ĠO s
cept ions
M ich
Ġrisk s
ov al
Ġsol o
Ġr ide
ĠMass achusetts
P D
Ġin fin
Ġcommon ly
ut r
Ġp ars
Ġso le
ĠD ream
Ġte ch
iss ues
Ġk illing
Ġbeaut y
Ġ Ø
CO MP
ĠD NA
Ġwrit es
Al so
ab out
ĠRec ord
Ġcharacter istics
Ġfunction al
Ġarr ang
Ġas sembly
Ġentertain ment
ĠTr ail
}\ \
Ġoper ate
tab s
ĠRes p
Ġdis k
Ġfundament al
Ġindic ated
ĠInst agram
Ġl es
Ġcont ents
Ã £
Ġinfe ction
Ġpract ical
Ġb att
Col lections
ĠT ony
Ġsh ips
gh an
dep th
Ġ{ "
', '
Ġr id
h ide
Ġcl ock
S ongs
F ailed
t ons
ĠL ev
Ġil legal
Ġfor th
Ġadd s
ĠL iter
Ġsold iers
Ġtop ics
Ġf estival
Ġcre ates
ĠF all
ym ph
Ġpubl ish
Ġqu iet
Ġabsol utely
Ġfound er
ex ists
Ġemploy ment
ĠG allery
con n
Ġcrit eria
Ġver ify
serv ices
op l
." );
ĠChe m
Ġim possible
Ġpl enty
........ ........
ser ial
Ġcon vent
ag en
Å ¡
ĠS ab
En ter
op ed
Ġv ess
ĠHarr is
ex pr
ip ping
ĠAlex ander
x space
ĠJ am
Ġstre ets
Ġl ots
Ġf asc
ĠMin nesota
Ñ ĭ
ell ar
d p
Ġreason able
Ġdoll ars
ĠH ig
ĠHar ry
Se lected
Hel p
AD D
face book
TE XT
Ġinnov ation
IT ION
P ress
ĠL anguage
Ġop position
it ol
Ġd rawn
Ġappro val
n eg
Ġwonder ful
Ġtrans formation
En um
F unc
Ġres istance
h space
-------- ----
Ġexc iting
19 30
Ġs ending
or ne
ĠS C
Ġlist ening
ĠN AS
Q U
ĠT ax
Ex ecut
ĠC R
Ġg od
Ġvoc als
ĠCont in
Wh o
Ġelect ron
Ġgu est
Ġsc al
iv ated
ang ers
G ame
( __
Ġrefer ences
ĠS ong
Ä ±
S ervices
ĠSen ior
Ġpolit icians
L I
Ġres olve
aw ay
N odes
inem a
Ġintrodu ction
Ġh all
Ġdestroy ed
p icker
Ġh ook
ĠPr act
S outh
U ST
ĠO ntario
Ġinst ances
Ġvel ocity
ĠPort ug
Ġmiss ed
om atic
clos ed
Ġs quad
id x
Ð ´
iv als
ell ite
Ġtrans lation
Ġrespons es
Ġ( -
Reg istry
Ġwalk ing
AN T
H L
g ments
ad r
Ġhol iday
Ġen v
Ġcapt ured
Ġform ula
ĠTe ch
ile y
Ġexp ensive
Ġreli ef
$ _
Ġoper ated
Ġrev olution
m ask
{ "
ĠM arg
ĠC S
Ġden ote
ĠB udd
Wrap per
ĠI E
prov ider
M iss
Ġcrow d
ĠS ound
Ġd at
ĠT ake
Ġstr ings
ĠSh ould
ak h
bour ne
F ORM
Ġincor por
Â ®
t or
Ġmonitor ing
Ass oci
Ġf ol
ĠC hen
L ayer
Ġtrad ition
Ñ Į
ell s
IN S
ĠAff airs
a ire
r andom
for ward
arr ing
Ġst ick
ip edia
Ġpercent age
Com par
i ac
ĠP H
Ġ[ "
19 45
a ired
re ll
Ġ> >
Ġfac ulty
Ġc ards
ĠLew is
cri bed
Ġr h
sem ble
J oin
Ġprep are
F ix
O B
Ġp refix
Ġcons c
ĠBer lin
ĠGr ant
Ġd ates
ĠFore ign
ĠR aj
rit ical
ĠB u
Ġsup erv
p res
Ġre pro
ĠDes pite
Ġtw enty
el d
ĠM D
Ġg ate
00 1
Ġhor se
ĠJ enn
= -
Ġequ ations
L ike
ĠUn it
Ġconstruct or
mult icol
ĠCont ent
Ear ly
sk y
pre v
19 20
C oll
appro x
ĠStand ard
Ġout come
ess ed
N G
Ġshe ll
Ġintrodu ce
ĠR ome
ĠP ut
Ġair port
ĠT ok
ĠTh ose
ĠFore st
ff ff
Ident ifier
At tr
P refix
On ce
omet ric
ï »
j unit
ĠAl b
i est
Ġm it
Ġcomp ute
s ymbol
Ġbehavi our
A nt
RE E
: \
ĠEd ition
B AR
ĠHe art
Ġne ither
ĠAnt on
Ġan imation
an while
ĠRequ est
onym ous
Ġvot ers
Child ren
ag an
Ġcan cel
y al
Ġf ake
param eters
ĠAn alysis
Ġreg ime
Ġcont est
ĠD utch
d ialog
ennes see
Ġparticip ate
ce ive
ĠG ro
) ->
O F
ĠS D
Ġel ig
d one
ĠEnter tainment
az e
ĠReg ion
Ġbig ger
Ġs itting
m al
Ġâ Ĩ
Ġh its
ĠMark eting
en ess
Ġdynam ics
Rev iew
Ġinteg rated
ï» ¿
B B
z ero
Ġpropos al
C ast
Ġpil ot
Ġpro xy
Ġbeliev es
Ġgrow n
Ġdes ire
g i
Ġassum ed
ĠPhil adelphia
st able
requ ired
Ġacc used
multicol umn
Ġcompos ed
ĠS ant
Ġm o
c us
Ġ( @
F urther
19 64
Ġs av
build er
Ġex posed
clos ure
h ire
Ġsil ver
Ġcol le
Ġsurpr ise
unn el
ne q
ĠAr m
Ġdr ivers
Ġdis miss
am az
az y
Ġpolit ician
ĠS uch
ĠN AME
Ġv ice
Ġb ands
ĠT reat
ane ous
d ependent
Ġap ps
tern oon
ĠPal est
Ġret ired
Ġlabel s
A ug
Sh ort
Ġturn ing
j ango
in ch
Ġexhib ition
Con n
ĠBr idge
Ġtrans actions
un ter
ul ating
lo op
enumer ate
âĢ ĭ
ograp her
Ġadv is
Ġfootball ers
ust ers
Ġl ists
Ġinter val
Rep ository
Ġsp r
us ers
Ġlo an
Ġcol our
ĠPr inc
ĠRef er
ach er
id ae
Ġdis appe
Ġsize of
r f
VAL UE
Ġlist ing
fil ename
Ġf aces
Ġd iversity
Ġr u
es is
p arser
ious ly
Ġsuff ered
Ġresult ed
ĠHistor ic
S ur
Ġproced ures
ind u
ĠH ave
Ġprovid ers
S equence
h us
i ate
ik ipedia
ĠO regon
f lex
s a
Ġcomb at
196 5
ist ence
Ġobject ive
ex ecute
Ġl ift
Ġup coming
ing ham
ĠSt ore
ific ial
ĠInt eger
Ġbre ath
Ġd uty
Ġnecess arily
Ġsc ores
ĠS H
Ġcover ing
ĠGold en
Ġsk y
ĠAp plication
B rit
Ġtem por
Ġinteg ration
m aking
ĠSm all
col Last
ook ie
Ġtro ops
Ġro oms
ĠK evin
Ġrepresent ative
st orage
com plete
J S
Ġm ine
Ġdisc rim
Ġgr ade
head ers
Char acter
ĠTh anks
coll apse
over ty
Cl oud
Ġs weet
the me
ĠC ore
Ġclass ification
ĠB C
Reg ion
S ingle
Ġsomew hat
h l
det ails
Ġst ood
Ġex ecute
Ġexplan ation
Ġsc atter
Ġmeet ings
Ġimprov ement
ĠI V
o en
sh ips
Ġtransl ate
ort ion
Ġmeasure ments
spec ific
Ġfr ag
ĠTur key
Sim ple
âĢ¦ .
au ge
Ġland scape
ĠP S
P od
Ġmanufact uring
app y
Ag ent
ĠMount ain
Ġpresent ation
ĠTh er
ĠEconom ic
S ummary
all as
Ġass ault
u v
ĠL ie
Pro gress
AR D
Ġsc r
ĠF ROM
ĠC ount
Res ources
Ġsc roll
ĠS av
au x
æ ľ
ĠR oss
T F
t wo
TI ME
Ġchalleng ing
el le
ateg or
Ġse es
ĠMore over
ĠChampionship s
Ġ" <
prot ocol
ev al
Ġas pect
Ġex cess
ellect ual
ĠU I
the w
Tr ace
Ġcon tribute
Ġofficial ly
ether lands
ap os
Ġinter actions
& =
Ġhost ed
ĠR oll
Ġsw im
Ġinv ent
Ġmag ic
ownt own
ĠW IT
ĠJ ordan
Ġpres ents
ĠSk y
In ternational
ch ant
() </
Ġs ought
Ġstri ke
ĠCh all
col First
Ġcompos ition
ug ar
Ġbeh alf
Ġexpl o
Ġdr iven
Ġen forcement
Ġfe es
plement ation
196 6
Ġd a
ĠPart ners
Ġatt ached
ĠScott ish
ĠK ansas
p ub
Ġp apers
ĠK at
ĠChar l
ip her
Ġu i
se ason
Ġt x
Ġrel ax
AL SE
Ġsurg ery
ĠN ever
ĠC ab
Ġread only
wrap per
ĠL es
Text ure
N amespace
Ġm apping
Ġaccess ible
n il
St ar
ĠM oh
Ġcompre hensive
Ġ ],
Ġpurch ased
Ġl at
ĠN a
Ġs ight
ur ers
P UT
Ð ¼
Ġ ..
A pr
C RE
D iv
ob by
ĠE ver
Ġhand ling
Ġguid ance
Ġpartic les
V M
m aven
Ġhapp ening
Ġeng aged
Ġlist ener
Gener ator
w ill
ĠPr int
aj ax
Ġsent ence
" /
ic ode
ri ble
Ġprov ince
S cale
ur is
Ġm ail
ache lor
) |
ĠS quare
th row
St and
Ġcho ices
ĠG ree
res ources
Ġcontinu ing
Ġal cohol
Ġconstr aints
ĠMr s
] \
ĠDi ego
Ġcr ash
ĠĠĠĠĠĠĠĠĠĠĠĠĠĠĠĠ ĠĠĠĠĠĠĠĠĠĠĠĠ
Ġp airs
Re al
nav List
Pr ivate
em ony
upload s
ĠL ind
Ġsett lement
Ġmet adata
igen ous
Ġfr anch
Ġh a
UR I
Ġeval uate
Ġw alls
) +
Ġb omb
d on
osp itals
the orem
Ġopt imal
ur ities
oun ce
Ġsol ve
ay ed
ryst al
nd ef
Ġshe l
? >
Ġm eta
ĠA SSERT
b led
ag ent
} +\
Ġrg ba
s ys
Ġir on
um ps
ĠW ord
ĠE P
s ince
ri ers
Ġrail way
th on
if def
Ã£ o
Ġdiscover y
S che
f d
Ġ? >
Ġen emy
Ġcomplet ion
ĠT E
Ġwork er
g ar
pp ing
B M
Ġpresident ial
Ġcirc le
Ġpod cast
Not es
Sh ape
rop y
N amed
Ġ{ {
Ġd ire
ĠW as
pl an
HT TP
ĠStud y
ĠS QL
Ġfra ud
. ~
ĠFinal ly
ĠHou ston
Res earch
Ġste el
e a
ow ed
ble m
Ġbro ke
fe ature
def inition
Ġprinc iples
">< !--
}\ ,
Ġdisplay ed
c ases
Pat tern
Ġ= ======
T x
Ġext reme
ĠA rizona
i ology
Ġb es
Ġconsum ption
=" ${
Ġbe ar
Ġp ert
log in
Ġbre aking
Ġ" -
Ġvot ing
is ations
Ġmed icine
Ġdet ected
Ġs oci
ĠV eg
SC R
Ġtr ace
g lyph
Ġdis appoint
ast y
P G
im ated
Ġinnov ative
Ġg ro
Ġperman ent
bs erv
ub ble
h om
ĠBel g
own er
m ac
v ideo
r ations
ol ly
Ġhe ll
He alth
ch a
< !
U ri
ĠCon stitution
umm y
Ġemploy ed
Pass word
" ],
raz y
bo ost
Ġw ond
az a
S M
re le
R R
m ont
Ġassist ant
ĠW inter
Ġcaus ing
p ur
math scr
un ique
Ġreg istration
on ce
Ġw ine
Ġc atalog
Ġle ct
ĠF ri
ĠSt one
}} {\
ĠRev olution
Ġdes ired
Ġm m
ĠM iami
Ġex clusive
Ġimag ine
P i
Ġprinc iple
Ġout comes
Ġbo at
Ġ( +
ĠM oon
ĠTr avel
ĠSim on
Ġprov ision
Ġg iant
ĠTr aining
ĠDo es
3 60
Ġwhere as
Ġid x
ĠA C
Ġwe aring
Ġdocument ary
Ġencour age
ag g
Ġprofession als
F ore
Ġsu itable
Ġinform ed
Ġmain tenance
ĠC orn
Ï ĥ
Ġcon version
item ize
ĠW H
ĠPrem ier
ST ATE
or ient
Ġscen ario
Ġcons ent
det ail
ĠLim ited
ac ent
ord on
Str uct
ex tern
ink ing
f ixed
- $
Inst all
Ġthe ore
Ġin hib
ĠSt ream
Ġent itled
Ġ rows
ry ption
Ġh ate
ĠS ix
IN TER
R ole
olv ing
Im port
Ġb on
â Ĥ¬
F ramework
our i
Ġph arm
ot ten
Ġlog ger
Ġund ert
Head ers
Ġstrugg le
t emp
ĠB ush
ĠH ung
St op
ep ing
g roups
W est
part y
Ä ĩ
Ġtem porary
Ġpre ced
og ram
ĠPol and
int end
Ġ\ |
Ġs in
â Ĩ
ĠM anchester
ĠL at
sp ir
: #
cuss ion
Ġapparent ly
ock s
Ġfac ed
G R
Ī Ĵ
Ġpath s
ĠS i
all classes
St ats
ĠHT TP
Ġatt orney
aud i
ĠAN Y
ĠP rom
Ġterrit ory
Ġch ampion
Ġal ive
× ķ
e lect
Ġl ang
ĠAtl antic
Ġ ^
Ġr ational
Ġcour ses
ĠT alk
ix els
ĠQue ens
Ġterm inal
ĠA h
LO CK
Ġregular ly
l arge
ĠMem orial
Ġsub mitted
Ġre ar
Ġrad ius
Ġc tx
er d
Ġcommun ications
Ġl ayers
ol id
Ġour selves
x s
err ors
ĠF C
Ġpromin ent
fl ag
Ġw ed
ĠOlymp ic
G ood
ĠB h
Ġtot ally
Ġ ).
Us ing
apt ure
Ġsustain able
opt ional
ĠR ow
Ġtri als
Ġg ained
Ġdefe ated
ĠL oc
Ġoff ices
ĠC ancer
E V
DE BUG
ĠLear ning
plet ion
ĠP resent
U C
and o
ĠSaf ety
ari ant
equ ality
$ /
ĠFr ont
ĠIn f
Ġa st
sh ared
}} ,
s ome
F amily
ish ment
ear ing
ĠPr ivate
Ġre in
ĠS a
Ġunder stood
Ġbe er
(' .
Ġcru cial
Ġfound ation
Ġfore ach
Ġvict im
ĠDef ense
ĠE ffect
m ad
Ġd ating
it ative
CD ATA
{ $
en abled
G C
ĠProv ince
ĠIndian a
Ġ urg
Ġconstit ution
F LA
ĠSil ver
} -\
ĠAll en
ib li
Ġm ouse
Ġy ellow
ĠLO G
ĠAd vent
Ġhead s
Ġst ages
Ġed ges
. ",
E ven
t ic
Ġh ole
i Ã³n
ĠAf ghan
op es
EN SE
(' /
Ġcol ors
ĠSar ah
Ġtem p
Ġs ick
ul ous
AN CE
cle an
Pro gram
Ġbase ball
ĠT ennessee
qu arters
Ġstrateg ic
cer ning
ĠKore an
Ġem p
Ġwhe el
Ġent reprene
ĠPri ze
O C
Ġprodu cing
et ies
f lix
Ġb ott
aa aa
Ġ' <
Mult i
Ġst ake
Ġb inding
Ġgovern ments
Ġinvestig ate
Ġpl ate
Ġst yles
ĠA mb
Ġb are
Ġd ual
ĠU l
Ġant icip
Ġexpl os
t body
un ning
' ));
C r
b ec
ĠY et
Ġ[ ],
S election
A E
ĠJew s
ĠP it
Ġdec or
Down load
Ġcoff ee
Ġtransfer red
m oz
Ġbr ands
Ġev il
ĠAnd erson
TR Y
Ġde pos
ry ing
ĠO cean
ich ol
Ġsurpr ising
C lear
Ġmeasure ment
Aust ral
ĠB urn
Ġvers us
ul ator
ĠE V
act ic
por ter
ĠRes ponse
EE EE
ag u
) }{
Ġgu ests
ĠSe lect
operator name
on omy
Ġl augh
er en
H z
Ġspec ify
EL D
Ġconvert ed
ĠPat rick
ĠH ttp
Ġdeb ug
check box
ĠCl inton
ĠT ai
ĠArt icle
Ġnarr ative
Ï ģ
v space
ĠCam bridge
Ġmusic ians
Ġhas n
Ġacknow led
ĠJ ane
k top
Ġref uge
j an
ir ty
Ġfra ction
Ġguid elines
Ġpartic le
Ġconsequ ences
p air
ĠSt ill
Ġval ign
arr ant
Ġop posed
Ġanaly z
bl ank
Ġvert ex
th rough
Ġc ensus
con trib
f x
ĠP ersonal
L Y
m akers
Ġmy th
ack ing
Ġs ph
ĠMay be
Ġabs ence
ĠTr ade
Ġcompet itive
per ial
Ġconcent ration
ul um
ĠN az
cond ition
ĠPro p
Ù Ħ
as p
Ġtrad ing
op ic
s uch
ig ious
S ave
ĠP od
Ġcon j
M ac
r ift
Ġimpress ive
g over
user name
ĠCom ments
Ġdemonstr ated
Ġacc eler
ac cept
Ġpull ed
Ġe ase
Ġr aces
ĠD er
ĠT en
Ġaf ternoon
$ }
Ġb its
we ek
ĠS port
ĠL LC
Ġtr ouble
ä »
. <
H er
ID TH
å Ī
sw arm
M usic
arg o
En vironment
en able
Ġv it
Ġestablish ments
Ġb in
ch anged
Ġaware ness
Ġf lying
C ent
E uro
V olume
on na
ym met
Ġs izes
Ġp up
ro ck
ĠD og
Ġliqu id
Ġsur ve
nov ation
Ġlaw yer
Ġqual ified
ĠH art
Ġsub mit
od ge
ĠLe on
ĠSt adium
ĠĠĠĠĠĠĠĠĠĠĠĠĠĠĠĠ Ċ
Ġn urs
D elegate
Pl ayer
Ġbatter y
ĠS ets
ĠIslam ic
Ġro of
B i
ĠV irtual
Ġse vent
AN G
N orth
Ġjoin ing
index Of
er as
M ask
Method s
Ġlog ic
Ġk il
Ġp arser
Ġ âĢĻ
ĠI mp
ĠJ ay
cd n
Ġm g
Ġc m
Ġinv ited
ĠWeb site
196 3
L en
Ġun us
col n
B ound
Ġpick ed
rupt ed
A Y
and al
i ors
iz on
Ġch ose
aw are
Ġc md
Ø ±
h ref
Q UE
nap shot
Ġre ward
P aul
Â Ģ
OR Y
Ġem issions
ĠArg ent
Ġcon clusion
Ġlimit ations
ĠHol y
Ġsc ulpt
ĠG h
clud es
ĠN etherlands
Ġnull ptr
ct ic
Ġsim ulation
Ġh ide
Ġ- \
ul se
Ġpoint ed
pro xy
Ġto m
Ġval uable
Ġde als
n ie
Ġr ising
Ġown ership
ro it
p ages
ĠIndust ry
Ġpay ing
TR UE
Return s
iter al
ĠR oy
× Ļ
ĠP u
p ull
Ġserious ly
Ġman ifest
f old
riev ed
ren ce
ĠFin ance
comp iler
Ġadministr ative
ang a
Ġdisc ipl
ĠAnth ony
ĠReview s
Ġsp atial
ĠCap tain
em et
Ġwin ners
wild fly
w arning
st ers
S ch
Ġdise ases
L android
( @
Ġinter ior
Ġcontribut ed
Ġso il
Ġeng age
ov en
Gener ated
Ġweek ly
ÂĢ Â
C ard
ĠD un
Ġexecut ed
Ġv on
ĠCE LL
check ed
Ġa ims
Ġt ensor
ĠK elly
ĠP os
Ġref ers
Ġaff ili
ĠCl ark
ĠD id
Label s
Ġheav ily
t k
ĠNig eria
S ep
ĠWhe ther
d am
yn omial
ĠM ilitary
amaz on
{ {\
Ġany where
min us
u ating
Ġdefe at
Ġgrad uate
I AL
Ġup load
; }
ĠPro tection
S em
Ġg arden
not es
Ġt all
w ich
ĠL ater
Ġman ip
ad i
Ġbu f
M s
P Y
(' #
Ġhead ers
Ġsing les
l ah
Ġcirc uit
F P
Ġthe atre
f i
z o
S yntax
il st
fe ed
ĠJ osh
Ġpark ing
ĠMem bers
Ðµ Ð½
M ill
t c
Sh ould
Ġr ating
ol itan
as sembly
Ġre verse
Ġal gebra
Ġres et
D im
F i
12 7
op ts
M c
Ġpass es
ĠG ard
ĠI L
Ġinter act
Ġpart ition
test ing
Ġ' '
ort ed
ill iant
Ġill ness
ic he
Ġpro hib
Not ification
Ġpay ments
F n
ac on
Ġsubsequ ently
W ait
Ġag gress
ĉ ĠĠĠĠĠ
Ġun iverse
se a
UN D
ĠB ry
igh th
ol t
no indent
AT ED
Ġw indows
Ġf ault
ĠSch olar
pl ant
S am
Date Time
ĠPhilipp ines
ĠG il
Ġstreng then
Ġem ission
olog ists
ĠN ative
Dom ain
Ġveg et
ĠVal id
mult i
Fl ag
Ġdi pl
el and
Ġb atch
T T
Ġdim ensions
( {\
Ġinj uries
Ġvot ed
B egin
Ġrele ases
ag ic
Ġw ing
d ers
Con nect
Ġhard ware
r ons
ĠSchool s
Ġen um
ĠB arn
Ġmembers hip
x html
ick ing
Ġeng agement
Ġb le
Ġprof it
' $
Ġslow ly
Ġst ead
Ġsit uations
Ġdevelop ers
as ync
pe at
Ġf ails
Ġpl ugin
omet imes
Ġeas tern
ab ama
Ġy esterday
Ġrestaur ants
ĠF arm
v o
Ġsign als
\ '
Ġlaw su
ĠLab our
Ġla id
ĠMar ia
ĠB Y
Ġrob ust
B ind
C ert
yr ics
ut her
M IN
enn a
ĠTur k
pro d
ph ot
ĠMo ore
d ays
b us
text tt
Ġmin imal
Ġdraw ing
aps ed
down load
y g
iff s
Ġiniti ative
in valid
Ġag ed
tr m
D ictionary
er os
P air
b g
196 2
Ġhor ror
Ġdi agram
L ife
t ar
ĠT ag
rypt o
ĠReg ional
Ġimm igr
S ql
Ġder iv
s ample
Ġmaintain ed
ĠFurther more
Ġb old
Ġamount s
end ers
ĠH al
ĠP ur
L anguage
Ġal gorithms
ĠW rite
T HE
ĠSur vey
ĠSc ient
ĠE ss
ĠN orm
ĠD uke
ist a
rop ical
Ġco q
Trans port
Ġd ies
ĠD or
B ased
ĠÐ ¿
Ġclos ing
ĠRes ults
ĠS ex
ĠN ob
align ed
atur ally
cover y
Ġreal ize
Ġn p
Ġinj ured
Ġg ay
Ġobvious ly
tr ace
Ġf ruit
Ġpain ting
Ġst ability
Ġput s
Ġwat ched
Ġsn ap
clus ions
10 2
pl ays
Ġout er
f ail
PO ST
Ġreplace ment
EEEE FF
iv ial
re tt
wh o
Ġpro ps
B Y
ĠH an
Ġman agers
Vis ible
ĠRel ations
er on
ĠCast le
ĠD ave
pl ot
ĠSt atus
Ġto x
19 44
che stra
Ġessential ly
Jan uary
() ))
ĠC a
ur ches
oc aml
ĠViet nam
T oday
O ST
Ġjournal ist
ĠArray List
Ġout break
off s
In formation
10 5
B D
ĠEx press
Ġcarry ing
Sk ip
ĠRepublic ans
Ġparticip ation
N ET
Ġthrow n
ĠAtt orney
du cer
ĠB ab
tex trm
Ġatmosph ere
Ġaccord ance
Ġansw ers
Ġp it
og ene
Ġgener ic
Ġs ed
con struct
ĠCont act
ĠPr ice
Ġtri es
Ġleg acy
ĠC lear
ĠMon th
{ %
Ġsp okes
Ġsim ult
Ġn ations
Ġrespect ive
ang el
}} _
al so
P ublished
Ġbus y
il ty
ym pt
ĠAut o
Ġloss es
Ġad mitted
itar ian
test s
Ġfall s
Ġsuff ering
ĠM E
ĠR ound
spring framework
ĠJ ason
196 1
ĠMov ie
I ES
Ġvis iting
om ent
Ġbi as
Ġpol ar
Ġref used
Ġsche ma
er k
ĠRail way
Ġkind s
time out
in cess
ĠInd ones
ĠS P
Ġmoment um
C ALL
ze ch
Ġb ath
b old
Ġin aug
wit zer
ur able
Ġcomput ed
Ġwat ers
on al
Ġdemonstr ate
Ġassert That
ĠP ack
us al
Ġv ital
Ġign ored
ĠYear s
Ġke eps
ur ric
Ġelectric ity
ĠI owa
ĠC redit
support ed
ĠT ree
n n
M R
Fr agment
Ġcap abilities
Ġr acing
ĠF ollowing
ĠAd vis
Ġmod es
g ood
if ndef
Ġ ];
as hes
Ġreach ing
A K
Ġpe er
ĠEar ly
ane ously
Ġe q
y cle
ĠS ri
Ġbe ach
Ġob lig
Ġrapid ly
fl at
Ġs ynchron
aly tics
P y
Ġcon crete
Ġtransport ation
im m
ct rine
ĠS in
sign ature
r ig
el son
iv a
; ">
AT CH
act ivity
ĠAm ong
ĠO tt
D id
ĠP ier
) }$
\ }$
Ġb ind
pat tern
Ġt ickets
Ġop ens
Ġant ib
Ġro yal
z h
l u
Ġchar set
L ib
Ġredu cing
Ġacc um
ĠCor ps
ĠTh ird
iffer ent
h our
Ġm arg
ĠT el
Ġfl ux
CT YPE
Ġarbitr ary
Ġgl ob
ĠH op
Ġhop es
t f
Ġrep ly
st e
Ġreve al
emet ery
eli hood
Ġregard less
Ġtime out
M arch
ĠEN D
ĠC lient
Inter val
Ä į
Ġsurv ival
vis ible
Ġman aging
Are a
n odes
ul p
Ġdo se
Ġm d
ĠIn put
ĠM ust
ib l
ĠSe ver
Ġd ust
get Element
Ġpop ulations
Ġdeal ing
Ġaut hent
hel per
am ps
us form
us cript
R ob
numer usform
ĠS IZE
Ġw ound
ĠK it
1 12
ĠA G
m aker
ĠEx p
ĠEv ents
Ġmor al
ĠIm ages
d ig
Ġstr ange
Ġvalid ation
ub a
pos ing
ĠM it
ĠO ak
Ġp ipeline
******************************** ********************************
Ġsens itive
z ip
pl ier
ot te
ĠH ence
l ibrary
Cl uster
RE D
Ġreve als
I gn
Ġknow ing
ant e
NavBar Font
witzer land
w ick
Ġf unny
Ġreal ized
Ġlock down
Ġcorre lation
av ailable
ĠG ab
ĠC G
side bar
ĠDr ive
Ġtyp ed
ĠC ert
Ġfin ance
ut ed
Ġrequire ment
Mich ael
RE G
ĠArch itect
R elease
Ġcom ic
Ġincred ible
Ã© s
br and
ĠTh ings
A I
9 00
Ġgover nor
Ġcheck ed
ĠP ed
"" "
iver pool
H ub
Ġin structions
Ġfair ly
Ġb id
Ġemph as
F eb
Ġchild hood
viron ments
Ġcour ts
Ġf ired
form ed
M aster
Ġinvolv es
ĠL as
Ġap plies
N V
ram a
ĠYou th
s ingle
b c
æ ĸ
ank a
st age
0000 00
ig e
Ġroad s
Ġin tern
Å į
Ġt ables
s ocket
Ġfl ash
Event Listener
Ġt icket
ver ter
uck s
ĠUkr aine
Ġp iano
Ġgen etic
p are
... </
Ġdecl ine
Ġsk ip
s n
DE FAULT
ĠCap itol
trans ition
Ġmed ian
Ġphil osophy
ĠP DF
ac o
Ã¡ n
Ġobserv ation
Ġsy nd
_ );
Ġsupport ers
Pl an
Ġpl astic
O wn
Ġfriend ly
b as
Ġpass engers
ĠV i
Ġbro thers
Ġanal ys
; )
ĠD ick
Ġl ux
ors es
Ġopt s
d c
ĠD ise
Ġro ots
Ġf irms
Ġkn ock
b urn
ĠN ev
ĠS ales
Ġcomfort able
h ot
Ġsk ill
F ocus
lo yd
3 50
sh al
ĠSer ver
ĠEnvironment al
Ġspirit ual
ĠPe ace
Ġent hus
Rem ote
k t
H ave
SE LECT
lim its
14 0
im p
Ġrecogn ize
print ln
nt il
it ure
A SE
Ġth in
å ®
Ġconsider ation
ro oms
ĠF ive
Ġlik ed
is set
olv es
ĠJ oh
cept or
Ġin ject
anc hes
Ġcap tain
> :
Ġfall ing
L ear
N ative
VAL ID
Ġcoun sel
Ġdesign s
Ġassum ption
ĠK han
lik ely
are st
All oc
ĠâĨ Ĵ
R PC
Ġfl uid
ĠMary land
ĠStud ents
DO M
Ġv ocal
b asic
on ical
Ġdel ight
u er
Ġin h
ys ical
ut ies
Ġloc ally
Ġs essions
Ġcent ers
Ġtrend s
re lease
ĠR elease
v als
ĠSe attle
Ġshop ping
Ad min
DO CTYPE
Ġimprov ing
ass andra
und efined
S I
An imation
P ower
Ġr um
ĠL oad
Ġlow est
End point
Ġprefer red
Ġsc an
Ġcon cerning
ĠLeg al
o a
Ġo x
Ġ( âĢľ
Ex ecution
Ġab und
A li
Ġstrong er
Ex ample
Ġreject ed
Ġche ap
Id s
Ġmat hemat
S ample
Ġocc as
Ġgr ass
M ouse
à¤ ¾
ot ing
Ġfr agment
con sole
'] ['
Ġmark s
ar se
Ġbuy ing
ty pen
ĠP erson
out heast
Ġexpect ations
d ark
x is
ĠPl us
Ġto ler
ind ed
Ġem br
Ġch unk
Ġrad iation
Ġrac ial
le tt
Ġb at
Vert ex
Null able
En umer
re ements
P ers
F ollow
at ri
ĠR O
OR K
circ le
Ġfarm ers
Ġstream ing
Ġst ats
ut ter
ĠM s
re nt
evel oper
ĠX ML
Ġp ref
Ġmor ph
Ġ' \
Ġf urn
Ġin equality
Ġcelebr ate
Ġb irds
Ġopt ical
Ġsepar ated
(" /
M ove
v y
R ich
E ffect
Ġdo ors
elf are
r uby
ĠF a
App end
â Ħ
f actory
Ġp overty
ik es
p aren
2 20
ĠT og
Pro to
( .
Ġh at
D an
w as
Ġa ver
Ñģ ÑĤ
subset eq
ĠD est
Ġthe orem
% "
M ath
ĠM icro
ĠH old
ol y
ĠH ope
ĠM un
Ġt ags
Ġperiod s
ĠV ector
se lector
195 8
S ports
Ġas set
Ġb ounds
LE D
Ġo cean
d iff
Ġg am
ĠStud ent
Ġfr ust
ĠEx change
ru ction
Input Stream
Ġe igen
m ouse
AC H
i op
out ube
Ġsurv ive
Ġnov els
qu ote
Ġent ering
Ġhyp othes
SS L
Ġask s
Ġadvent ure
Ġcomplex ity
Ġs le
ew idth
Ġgen re
ĠN ic
ï¼ Į
Ġl ands
ĠIsrael i
ather ine
Ġuncertain ty
Ġthous and
rou te
Ġinput s
typen ame
Å Ĥ
u ency
ache l
ĠN ature
Û Į
S creen
Ġwebs ites
be ing
in os
Ġsc oring
Ġout standing
19 42
at omic
Ġnorm ally
if ting
ok er
ĠG ib
ĠD VD
) [
Ġp ub
Ġprov en
ĠJ ob
ĠAg reement
O ld
Ġsurpr ised
in th
, âĢĻ
E p
ĠCo oper
Ġlik es
Ġ" $
Ġrout es
py thon
ol ute
z y
ap is
clip se
ĠCh ap
ul us
D ATA
Ġre putation
t i
MOD ULE
i ated
Ġf olk
ol ph
ĠM organ
Ph il
< \
Ġt mp
Ġtemper atures
Ġc a
ĠE c
Ġelig ible
ĠSwed en
ĠDo ctor
tes y
ĠG arden
Ġanc est
____ ____
cl uster
Ġint ention
Ġt ou
Ġfem in
195 9
Ġcer emony
Ġ_ .
st an
_ *
Ġed it
ous es
Don ald
che ll
w en
ĠSim ilar
ĠHel p
Ġb ag
Ġfl ights
Ġmod ify
Ġfranch ise
Ġvalid ate
Ġann iversary
| ^
ĠAust in
ĠMar ine
Ġinterpret ation
Ġmin ing
Ġj oy
S erv
ĠMay or
Be an
Ã© e
Requ ired
Ġi Phone
ĠHaw ai
ĠVill age
/ .
N Y
ĠG row
Ġdeep ly
work s
ĠN atural
r g
II I
ĠL E
gl as
Ġrank ed
Ġrecommend ations
ĠM obile
in ction
ĠO pt
ĠF ellow
Ġres on
Ġtax es
~ $
Ġinteg ral
j et
ĠM aterial
ick en
om as
~~~~ ~~~~
Ġ\ "
ĠPlan ning
ĠDel hi
ia h
B el
get Value
Style ID
ĠBo olean
ext ension
Apr il
Ġinterview s
Ġro se
re v
et ween
oc y
run time
ĠMal ays
Ġdepend ent
Ġe g
od a
Ġpo etry
11 1
Ġmach ines
Serial izer
p icture
Ar r
b d
ĠN AV
Ġrough ly
: `
an try
Ġattempt ed
Ġme ets
cre ated
ĠGree ce
Ġbl ow
ĠAr thur
MO DE
Ġappear ances
Ġindic ating
Ġf old
ĠMiss ouri
195 6
ig s
Ġover l
Ġhost s
Un known
C ur
hes is
Ġt iny
ĠWh it
ĠAg ric
Ġcut ting
]] ></
Will iam
L ower
GB T
aur a
ter y
Or iginal
ĠM I
Ġannounce ment
Ġapp lying
Ġexpert ise
ex ec
Ġcorrect ly
Ġsh r
osc ow
Ġobserv e
lah oma
w hel
Ġp ushed
Ġreli able
ou st
ĠF L
Ġpred icted
E st
' ];
Ġse lector
Ġacqu isition
in ar
f c
ĠM as
Ġeth nic
r ating
ĠLin coln
ac er
em ies
ust ed
S W
ĠAdd ress
ĠK al
d k
ĠS N
Ġany way
cript ions
l ass
Ġarr ival
ĠAL IGN
C reat
Ġex ports
ĠC op
Ġsudden ly
ĠAp ache
iz ers
ig a
ĠF ant
- (
UT H
10 4
Brit ish
iment al
ĠB ureau
19 18
ĠCommun ications
Ġ Å
ĠP ublished
Ġdecre ase
ĠPolit ics
Ġvulner able
ĠSy ria
P erson
R aw
ĠP a
ĠPhil ip
Ġpar liament
Ġperfect ly
ĠHow ard
Ġmonth ly
ĠB alt
Ġnot able
res olve
ĠM eg
secut ive
ĠĠĠĠĠĠĠĠĠĠĠĠĠĠĠĠ ĠĠĠĠĠĠĠĠĠĠĠĠĠĠ
Ġinstall ation
19 48
Ġb rown
w eg
\ ,\
Ġfew er
m ates
Ġb oss
A udio
ĠD ouble
Ã º
Ġbas ically
Ġpriv ile
Ġthink s
19 43
P red
J ames
ra id
se par
W arning
C B
Ġg ang
is ely
ĠLa ure
roll ing
id ency
function s
Ġdirect ors
Ġtit led
ĠHer itage
al ert
Ġcheck s
âĦ ¢
con str
Ġar c
Ġcons ervative
U V
ĠAl abama
Ġsign ing
ĠS n
Ġne uro
ĠSing h
ĠTerm s
F act
Ġdesign ated
Ġpromot ed
l icens
Ġvari ation
in ian
ĠG iven
W ORD
l at
Ġag es
ĠTh ough
Ġun expected
B usiness
ĠPl ant
ĠL eb
object s
ex pect
P ack
ĠD allas
Ġcons ervation
Ġcal endar
Ġcoord inates
ĠRober ts
Ã ¸
pol icy
ĠB reak
ĠL iving
Ġal pha
Ġins ight
Fl ow
v olume
ĠCh apter
B asic
Ġgalax ies
sl ice
Ġorgan isation
ic ator
Ġchair man
Ġexplicit ly
C ONT
ĠN ation
ĠDe an
L ight
J une
Ġfant asy
ãĢ Ĥ
Ġcut s
l ined
qu es
ĠH D
Test Case
roph y
s he
Ġcon front
ph y
ĠBe at
Ġmov ements
Ġaim ed
R ober
ĠM L
stit ute
S an
ĠTok yo
Ġcon cluded
L ibrary
Ġc ursor
Ġn am
ab etes
ag ination
ke e
ifest yle
Dr iver
Ġcollect ive
19 41
Ġgrad uated
ĠK am
ĠK y
og a
Ġes cap
ĠAnn ual
ĠV ari
ial s
Ġpublic ly
Ġsup plied
Ġcent uries
ĠAlli ance
Ġoper ational
H ar
d atabase
ĠB ible
S cal
D IS
CH AR
Ġpl ain
is Empty
ĠBow l
ĠV in
ĠPl aces
Ġphys ics
or er
ub er
ĠY O
19 39
G ER
T w
O k
win ning
Ġcalcul ate
}} }
ĠCom ment
Ġre act
ĠR oute
u j
ĠG all
ard o
M aterial
Ġn a
comm ons
ĠMel bourne
ĠOrgan ization
Ġident ifier
Ġpay load
s ch
des ign
spe ed
Â ·
Ġsens or
Ġdem ands
P al
Ġ@ "
Ġfore cast
Ġtrack ing
Ġt ur
ĠDe ep
Ġc orn
Ġmer ge
195 7
c atch
ĠZ h
ĠSm art
ĠJud ge
sim ple
Ġint ellectual
Ġrel ating
ĠAn ne
U ES
or se
Ġsim ulations
á ĥ
inher it
ele m
em ed
Ï Ģ
up id
LO C
AR N
S N
Ġdistrict s
ĠS elf
h ave
Ġp ump
Ġindust ries
log o
Ġh ockey
Ġh ist
B IT
Ġrot ation
pl oad
Ġnot iced
Ġcolle agues
NS String
ĠR ace
J uly
leg es
cos ystem
Ġmunicip al
US ER
sk i
L imit
ort s
y y
Ġold est
ĠSh op
Ġf ib
ç Ķ
ĠB or
comp ile
ĠL eft
per or
or igin
Ġgr ab
W allet
Ġwith draw
ĠNor way
se q
ĠM ission
Ġperson ally
/ "
el ve
Ġviol ent
Ġbr illiant
bar a
Ġnuc le
Argument Exception
s un
Ġop acity
eral d
ex it
Ġexpl oration
Ġb ars
an im
ol i
high light
ou ver
Tr ump
T ra
Ġf inger
Ġdiscuss ions
ĠJac ob
Ġcon n
ĠD a
ĠAr k
ĠL ess
k et
Ġhousehold s
Con stant
IO Exception
Ġemer ging
as ant
ubl in
() ),
Ġt issue
Ġret irement
ĠAp pe
Ġpo et
b atch
Ġres ident
Ġvari ant
Ġmet rics
ĠFed eration
Ġprov isions
Ġparticip ated
c ity
f g
ol ars
A U
ĠDes cription
F oot
h ook
Ġleg it
ĠR oom
Ġcr imes
iv idual
Ġper mit
ĠInt eg
Ġcol lections
T ele
Ġt aste
ĠL am
Co ord
Ġre ly
H C
Ġh urt
ĠR ab
Ġl ights
cl ine
Ġden ied
Ġload ing
Pl ace
Ñ ĩ
Ġequ ally
ater al
Ġconstant ly
ĠChair man
ap olis
1 18
Ġk ernel
19 55
Comp iler
ĠB an
Ġshould n
ĠPer formance
Ġtown s
rad io
ert o
ĠSt ories
Ġimprov ements
Ġmod ules
ĠB ishop
ĠVeg as
Ġtr ick
f ake
Ġreg ulation
Ġunivers ities
Ġdog s
dr iver
Ġcontract s
ĠS W
ĠAl an
Ġsett led
ĠR ick
Ġp atch
Ġcomp atible
Ġr ub
Ġfeel ings
Cont in
vert ical
ĠAnd re
ri k
ĠJ ess
Pol it
rop olitan
Ġnumer ical
om ot
con nected
rb an
Final ly
Ġrepe at
ĠC ape
Ġdemocr acy
Ġarg ued
ĠMic hel
int eg
Object s
å ħ
Ġmer ely
ĠM ess
ams ung
Ġcom plicated
ra h
Ġel der
th ere
Ġsing ing
ĠG un
Ġpubl ishing
Com plete
ORD ER
ip pi
ĠAl ber
Ġs ql
ph ant
Ġshe et
resp ons
Ġimm igration
Ġcompet e
ĠO K
et ition
ĠÂ §
Ġcomput ing
Ġo vers
v c
G over
Ġelect ro
Ġconvent ional
Ġmechan isms
Ġstr uck
Ġle af
pect or
: [
F ollowing
ĠCl imate
h ill
Ġun s
if i
ĠS witzerland
ĠA thlet
Ġj uris
. ]
xy gen
Ġgun s
Ġpol ynomial
Ġcorrespond s
claim ed
ĠRem ove
Oct ober
er ior
STR ING
ĠG ordon
ĠD ub
Ġtarget ed
Ġregul atory
Ġres idential
Ġrep orter
ĠAtl anta
S en
ĠTem ple
oen ix
valid ate
ĠIn v
ic ut
Ġw eren
ĠS audi
Ġpred iction
ĠS M
w estern
Ġdoct ors
Ġguarant ee
Ġpenal ty
Ġsl ot
AS H
ĠS A
dest roy
Ġrul ing
foot note
Ġengine er
ĠSp irit
ĠC ow
Ġh ospitals
est one
tr l
Ġfocus es
Ù Ĩ
Ġstret ch
ĠWith out
ĠE ag
Ġpromot ion
Ġhy brid
the less
Ġanal og
St atic
ĠAb stract
V P
T om
atas ets
ID E
Ġencour aged
ĠH ills
ĠN BA
ari os
i ere
ĠAl bum
C red
Ġp seud
ic ular
Ġh am
ĠOption al
Ġaddress ed
Ġ> >>
ĠB ey
Ġbur ied
un ches
Ġelse where
Ġground s
Ġch at
f red
Ġher itage
ch arge
Ġtr ains
Ġread s
Ġk ne
å Ĳ
' \
ag h
UM M
ĠH um
Ġprodu ces
lin ewidth
Ġf mt
Id entity
ĠIl legal
á »
Ġunivers al
o is
oun ced
11 5
ĠV iol
ong o
ĠPh ill
writ ten
Ġstat istical
DE F
ah o
âĢ¦ ]
Euro pe
Ġ} }
ĠMot or
Ġcl ip
ĠKent ucky
ip h
is ons
Ġall Classes
ation Token
Ġstudy ing
ĠWork s
ĠC ell
Ġdesign er
ĉĉĉĉ ĉĉĉĉĉĉ
> )
ĠP ython
Ġin fer
ĠDet roit
Ġoff ensive
Ġp ending
Ġconstr aint
av is
t ok
ĠL evel
or ous
Th anks
C ity
Ġunus ual
Ġarg ue
Ġconcept s
ĠBru ce
Ġview ed
Ġb reed
ĠallClasses Link
Ġequ ality
Ġcert ificate
Des pite
Cons umer
Ġdiagn osis
wh at
ĠCons ult
F older
Ġn eck
Ġt ank
ic ients
n p
ĠFor um
F uture
tr im
ĠSim ple
i ang
out ing
b ow
Ġbound ed
Ġj un
Ġgu ilty
et al
ĠN HS
Ġliter ally
ext end
r as
Ġcoll apse
S pr
ra ig
im ore
ĠM ock
Ġcare fully
ush ing
Ġinter vention
Ġover se
Ġindepend ence
Ġad equ
ĠSt ew
ord inary
De cember
D b
m essages
19 47
Ġc odes
int ell
Ġl ake
Ġint ensity
Ġ$\ {
is en
Ġar med
Det ail
Ġt ied
iat ric
w iki
Ġdepend encies
Di agnost
ĠA st
Ġsh arp
S ite
d epend
asc ular
Rel ated
ĠPolit ical
ĠH ans
ĠB ah
Ġsubs cription
Ġen ables
Ġorgan isations
id al
ĠWalk er
ĠRes erved
m ay
19 46
L ive
ĠMat thew
f ish
ier archy
Ġweap on
alax y
cl one
10 3
Ġas ide
Valid ation
n ative
ĠV ar
Ġsequ ences
ĠN ik
ĠN ap
Ġs oph
mer ge
ĠChrist opher
ĠD B
Ġsat ellite
on i
ĠL ock
Ġdes cent
Nov ember
ur ations
ĠF O
Ġed ited
Str ategy
ĠH ost
">< ![
Ġestablish ment
at rix
Ġwalk ed
= [
Ġdis order
Ġaccomp an
w he
Ġg enu
ĠD im
level and
Con structor
Ġin clusion
Ġliter ary
t ail
Ġmem ories
B ecause
Ġhelp ful
ows ki
ĠB ron
ĠW y
ĠH it
Ġcon secutive
Ġdis ag
clud ing
comm un
="../../../../../../ ../
var iable
M al
' }
Ġsh ots
10 6
List en
Ð¾Ð ²
Th row
ĠPol ish
rypt ed
v ol
Ġ" ",
or able
Ġl yrics
Ġprodu cers
195 3
ous ing
Ġt sd
urren ce
Ġme at
kw args
set up
Ġam id
Ġprint ed
mark s
ä º
S pecial
Ġpri ze
Ġsac r
Ġh int
Ð° Ð½
ser ies
Ġb ird
hed ral
ĠH E
Ġcomm ands
Aug ust
195 2
o i
part s
Ġeval uated
at on
ĠMc K
Ġentr ance
ver b
ess ment
Ex per
Ġfol ks
p in
Ġperson ality
con structor
ĠVol ume
W omen
'] );
Ġmax im
Ġrece iver
195 4
ge on
b est
Ġhead ed
W H
sub mit
Ġappoint ment
ĠGr ad
Ġord inary
Ġshort ly
Ġsus pect
Care er
sub figure
Ġd inner
ĠMex ican
ĠC SS
=" $
ĠM oscow
abl ing
Ġb one
ed er
Ġcompens ation
at ile
W in
Ġmin i
nav igation
. -
P s
b oy
Ġresc ue
Ġrestr ict
Th ree
Ġlog ging
Ġinstr uments
Ġa uth
place ment
N ormal
Ġhead ing
ogn itive
oc a
at ers
C LASS
Ġb rew
ĠT arget
Ġ_ ,
Ġre pository
Ġabandon ed
im b
Ġ' ';
ĠL ag
Ġfant astic
Ġf ought
ĠH ug
Ġcl ar
Ġvis its
enn y
D ER
Ù ħ
Ġs ocket
ĠTr ack
t ures
ĠRefer ence
P resent
Ġpass enger
B ad
u ce
dep recated
load er
g re
Wh ite
he alth
con v
Cond ition
T ri
Ġen vironments
F N
Ġt urb
Ġhop ing
j Query
B inary
Ġarr ive
pro gram
Or gan
66 66
ĠP as
Ġc ov
Ġprocess ed
method s
Ġwor ry
ĠNAV BAR
ĠD ur
Ġthem es
10 7
Ġpublic ations
art z
Ġconsc ious
Ġp ione
F OR
ĠW oman
Ġj azz
sub ject
Ġgover ning
pt ic
Ġrad ical
os ity
et o
Ġbre ast
Th rough
Ġinvolv ement
Con vert
Ġsuper ior
ĠAfghan istan
19 17
ĠRet rieved
C N
Ġneigh b
×ķ ×
ber ry
Ġre ven
." ""
st o
Ġap artment
s is
Ġprem ier
s ync
form er
Ġw arrant
ä ½
Ġan th
ĠGu id
ĠSt op
Ġper missions
Ġdecl are
av al
ĠP ear
ĠR ap
Ġident ification
ĠNet flix
Ġex cit
" },
ĠD J
Ġp ace
Ġl oyal
Ġw et
ĠB eck
Ġ" ";
}^{ -
ĠPh arm
Ġ _{
Ġr ival
Ġrep air
Ġde cent
Ġsix th
R ate
p ad
Ġf est
pl er
assert True
? )
Ġsatisf ies
ĠPh D
Ġstruct ural
ĠN eg
ĠC art
We ek
ĠJon athan
Ġde pression
over view
Ġequ ity
es c
anc ouver
> \
ĠH ell
p od
Ġrece ives
ĠM ind
Ġpack et
intell ij
an imation
Ġsup plies
Ġcritic ism
ĠG ram
ĠF ix
Ġident ical
ĠB ased
ĠHar vard
mem ory
Ġw ider
not ations
ene z
ĠW olf
Ġent ities
f mt
Ġbound aries
Ġsomew here
Ġprepar ation
Fil ms
HE AD
ĠAdd itionally
dis able
=\ "
pol y
Ġtr ou
sh a
Y Y
id ays
ĠCons ider
ag ma
ĠTh ank
] ))
ĠBr ig
ĠP il
ĠD ue
iev al
T ok
ic it
19 00
B N
ĠL iverpool
ĠI R
ace ut
Ġs alt
Ġdef ensive
Ġco inc
Valid ator
ann on
us r
ĠHigh way
w alk
Ġc up
ĠW IDTH
Ġm oth
ĠCr ime
Ġneut ral
Ġut ility
Ġfavour ite
Ġthreat s
19 49
k h
direct ory
ĠB us
(" #
Ġmod al
ĠRuss ell
E val
ab is
Ġad s
exp and
book s
G EN
ĠS ac
ĠP red
ĠThom pson
Ġtri b
Ġdialog ue
Ġd ial
ĠI M
A SSERT
ail and
ĠTh read
S ing
ĠPl ayer
ĠOper ation
ĠK a
Ġw ake
ĠBrook lyn
ĠM ars
Ġf uck
US A
iv ia
Ġch ronic
Ġdrink ing
" ].
Ġman ual
Oper ator
ĠC ole
l ad
Ġsatisf ied
Ġsh adow
FI ELD
Ġcount s
ĠP ast
Point s
ĠH ero
ĠEx ample
Ġmet ab
Ġ\ ;
C ounter
Ġappreci ate
iss ippi
Ġdiv or
Ġisol ated
ĠCom puter
Ġtherm al
Ġwed ding
Ġrec ru
ĠB uff
ĠWh ich
text sc
ĠM other
C enter
Ġb oot
Ġn aturally
ass ign
Ġspe aker
Ġsub set
d uration
Ġsatisf y
plet ed
Ġg aming
m k
att ice
Over view
getElement ById
Ġattack ed
ĠMethod s
var iant
Ġover whel
D rop
Ġorgan ic
Ġman uscript
m n
V irtual
et he
ĠD oc
th od
SCR IPT
Sup er
G reen
Ġwhen ever
qu al
Ġbe am
Ġge ometry
p rom
ĠElect ric
ĠDom in
set minus
ar o
Ġsing ular
Ġang ular
ĠN ichol
ath y
Ġgen us
}} _{
form ing
le e
sh are
ĠP arent
ĠM and
Ġfore ver
Ġt ort
Ġhigh lights
"=> "
ex per
li est
G P
Ġav ailability
Ġsp ark
ĠG raham
con vert
Ġkit chen
ĠC T
ile vel
n l
ĠAnton io
Ġrestr icted
Ġg auge
m ount
Ġco aches
Ġbreak s
Ġless ons
le ans
ĠMar vel
j ack
g oto
ĠG er
ĠD ance
min ute
ĠB ull
Ġcy ber
A bs
ĠOk lahoma
Ġ( $\
Ġt act
The ta
ĠH oll
an ing
ĠCent ury
p ot
Ġvert ices
z i
Ġinsp iration
ĠH IV
ĠM atch
IMP ORT
inc ial
Ġs ync
ĠW i
Ġclos ure
Ġtheore tical
Ġt one
ĠStud io
AT OR
Ġsignific ance
u h
, .
pe ction
st ory
Ġphot ography
c ountry
Ġthe ories
Ġing red
ĠEconom ics
Se ptember
Ġto wer
ĉ ĠĠĠĠĠĠĠ
Ġchar ity
re act
ĠOper ations
W I
Ġ( [
ĠPro gress
ĠAl bert
ĉ ĠĠ
Pl atform
Ġadj acent
am y
ĠBe aut
Ġcompl aint
L D
\ _
put ed
Ġh ip
comm it
UR N
Ġt ip
Ġend point
m c
ur se
Ġlib eral
b ian
r uct
ch art
hip s
Ġdistribut ions
ĠP i
Render er
ĠM ort
iss a
Ġlicens ed
Ġmagn itude
at ibility
Z one
Ġoptim ization
ĠT a
ĠBuild er
Ġra ising
weg ian
Ġgener ations
> "
ex tra
Ġw rest
Ġ" %
ol o
LA Y
Ġv ibr
Ġcur ves
Ġsymmet ry
E q
Ġfl ows
: @"
Ġathlet es
ĠC zech
ĠNAS A
Ġc urrency
Ġtalk ed
J apan
Ġan chor
ĠInd ependent
Ġdec ay
B ro
Ġdire ctions
ĠWAR RAN
Ġde leted
arn ings
n ob
Ġth orough
as ma
. :
ĠInd eed
A lex
ĠS umm
An alysis
is cal
ĠLeg isl
ath ers
Ġg ent
Ġg olf
Ġart ificial
Ġm ile
Ġinflu enced
ĠD ays
Ġgrad ient
Ġd owntown
p id
ĠEp isode
Ġnot ion
Ġde com
hedul er
b ie
cc a
Ġport folio
Ġun likely
N or
Ġe ating
aceut ical
S ame
ĠBr and
ĠĠĠĠĠĠĠĠĠĠĠĠĠĠĠĠĠĠĠĠĠĠĠĠĠĠĠĠĠĠĠĠ ĠĠĠĠĠĠĠĠĠĠĠĠĠĠĠ
trans action
n c
Ġlaw yers
Ġenh anced
Ġcompos er
ĠPro position
ĠI ron
ĠD atabase
195 1
Ġb ug
Ġfle et
h ist
r ank
ik ing
Sh are
ce iver
ĠD raw
H A
Ġel if
in burgh
Seg ment
ĠMc G
Ġlif etime
Ġp ic
Ġs ke
PRO JECT
w d
ox y
FF ER
En v
Ġrem oval
grad uate
apt ers
Ġdest ruction
f etch
f ather
ts burgh
Ġs id
Ġprotest s
l ive
Ġt d
Sp an
Ġgen es
ĠN othing
Ġbl ank
own ed
Ġ ion
ri ent
Ġrespond ed
for Each
t p
Ġassoci ate
ĠR ele
11 4
/ ">
ir ates
ĠRes erve
W IN
ard ing
es a
Ġequip ped
Ġt ill
ape ut
Ġdes per
ĠF ather
ĠAnd y
P ersonal
ug ht
Ġcrit ics
Ġf ro
Ġpet ition
ĠUt ah
Stand ard
Ï Ĥ
Ġ' ',
Ġper mitted
b n
rem arks
head ing
p aper
Ġcharacter istic
Ġâ Ĥ¬
EN TRY
ĠAd ams
Ġst ellar
Ġeng ines
ĠLead ership
arg uments
Mon th
ic ates
Ġf ishing
Res olver
ograph ical
W ord
Ser ies
Ġdef ect
ĠB ed
ĠD ak
ĠK l
Sh ared
const ant
comp are
on ed
Ġs ys
B al
ĠO t
Enc oded
Ġdiagn ost
Form er
al ia
licens es
ĠR ule
ĠS el
Ġpack ages
3 000
ack ed
> ;
Not Found
Ġgreat ly
ĠIns urance
xi ety
ĠÐ ²
A z
Ġre vers
ĠTri b
F ac
Ġconsist ing
Pres ident
ĠM achine
is an
com b
ĠCol on
ĠA le
Ġpan els
Ġphotograph s
B inding
op ter
less ly
ĠM agn
glyph icon
Ġs ons
Ġdevelop ments
Ġcomp lement
Ġcan n
ab c
ĠRead ing
pl ane
Ġevery where
AS K
ĠM os
r ices
ĠA BC
M AP
Ġbirth day
be at
d ash
Con sole
ĠL P
iv o
Ġsu icide
R a
Ġim plied
Ġm ath
ĠP aper
Ġjuris d
AT TR
Ġb io
CO VID
t ensor
iv ities
ĠLaw rence
utr ition
ĠReg iment
V ICE
ĠF al
M W
Ġun like
quir y
Ġl ic
B atch
il ib
/ _
Add r
F eed
ĠChar lie
Ġres olved
Ġfocus ing
Set ting
Ġcoord inate
as a
Ġimpact s
ĠPubl ishing
ĠWork ing
Ġpar agraph
ĠO il
\ }
ĠGirl s
Ġg ear
Ġvolunte ers
ĠĠĠĠĠĠĠĠĠĠĠĠĠĠĠĠĠĠĠĠĠĠĠĠĠĠĠĠĠĠĠĠ Ġ
t re
Ð ¿
Ġt ale
Arg uments
enc er
Pre v
u is
ĠDown load
Us age
P ad
l ower
ĠCor p
ĠO P
Ġdis aster
ut enant
Log in
Ġco operation
Ġcontr ad
Ã ł
M art
ĠL ane
Ġep id
id ges
pl ain
read er
å ¤
ĠD al
Ġm igration
Ġsam pling
ond a
Ġapprox imation
Ġa str
ĉ čĊ
M en
n an
ĠK ings
Ġ{ },
Ġwe ights
Nav igation
Ġt ips
Ġto k
Ġexpress ions
ĠG ary
Ġfund ed
ĠSing le
Ġsymbol s
Ġbul k
et ics
Ġsecret ary
Î »
ĠAp pro
N UM
c ounter
reg ular
ĠBr un
V AR
C ulture
Ġsome how
Ġprec ision
! )
Tim er
Ġb ike
ĠM yst
Ġsuff er
A ir
b one
âĢ¦ âĢ¦
M essages
10 8
CE PT
cal endar
Ġup grade
ĠP L
ĠC C
T ex
Ac cept
oll ary
ij ing
ĠI C
cont ents
Ġple ased
Ġin duced
agon al
ĠCon vention
Ġconnect ing
Ins ert
ĠR isk
ort heast
sc ss
Ġsimult aneously
Err ors
A ST
H tml
Ġw orship
ĠA LL
er als
Ġn od
Am ount
Ġcon clude
ĠO sc
Ġbi ological
ele ments
Ġto w
Ġres erve
am ous
it udes
Ġnam ely
ĠM oney
pon ential
st ud
ac les
Ġdef ines
t ouch
back s
C ountry
str ings
ĠF em
H D
Ġreview ed
ĠAn na
Ġliter al
W el
F M
And roid
Ġim aging
/* !
Ġp in
Ġcoeff icients
Ġj et
ĠPort land
em ia
Ġc ited
ĠAct ive
ĠDou glas
Ġun w
Ġ' .
Ġcol span
Ġdom inant
m g
ĠCont ext
Ġdis able
ĠS quad
P ubl
F UN
requ ency
ĠA qu
ĠN ash
Ġanal yst
Ġrul ed
Ġqu ote
re ach
ar ma
F ailure
iz ard
Ġmar ine
est abl
ĠB uy
Ġdis p
Ġ$ |
ĠWal ter
Ġmyst ery
b p
Ġg ram
ĠB lood
Ġag enda
Ġrest ore
grad ient
Ġfrequ ent
Up dated
Enc oding
Ad v
ĠC NN
ĠS ide
Ġneigh bour
P ut
ren a
Ġj s
Ġrepresent atives
g un
Ġposs ess
col on
Ġins ights
ĠL ang
** *
SS ION
Ġconf ident
l on
D en
ĠPro f
z ym
ĠAss istant
ĠB eng
ĠO wn
Process or
BU IL
OP T
Ġbl ind
Ġoper ates
Ġrob ot
Ġh ang
Th ank
Ġsup plement
Ġjud gment
Ġpromot ing
Ġdram atic
ĠB ody
ass ador
Ġclass Name
ĠJun ior
ĠD A
Ġwh ilst
Ġsp oken
The me
Ġex clus
av it
h al
v et
Ġfem ales
ĠR oc
Ġm ice
Ġregard ed
Ġpr on
row se
Ġamong st
for all
Ġcelebr ated
ĠSwed ish
ĠE state
E P
Ġsumm ar
m ate
_ )
Ġde eper
Ġover flow
Ġd uties
ĠS ud
Ġex ha
Ġc razy
ĠPl atform
m ir
Ġe cosystem
Ch ina
Constr aint
ĠN at
ĠAl tern
UN T
opl us
Ġlawsu it
ĠFor ces
T ax
ĠIm port
Ġl oves
ĠArch ives
Ġres idence
gener al
o il
ĠSen ator
Ġdescri bing
ĠT ro
st ock
Ġcl usters
ĠF ight
h att
G roups
Ġap ilevel
ĠStud ios
Ġautom atic
Dep th
Ġ$ _
/ {
< <
Ġh ired
Ġhead quarters
Ġpro files
ff f
em en
am an
Ã¼ r
ĠL GBT
ĠÃ ¢
ĠSe pt
Ġmaintain ing
we alth
Ġcou pling
# {
r ates
v ia
Ġorient ation
m ade
Ġyield s
l ab
F ire
Ġf abric
j amin
C md
Ġtext ure
âĢĿ )
om ed
w edge
Ġ$ [
ys ics
Ġfunction ality
ch arg
res ize
Ġclass ified
d anger
an alysis
RA Y
l icense
ĠB att
ĠConfig uration
Ġmil k
ud son
bul let
U G
ĠKenn edy
Ġl oud
LE MENT
Î ·
19 36
Ġvot er
erv ing
ĠAr r
aud io
ing ers
Ã ¥
ĠFe ature
uff ers
p iece
ĠInt elligence
u ates
ĠIN TO
over y
he art
We ight
C ursor
ap ing
D ATE
A X
C HECK
Ġd iam
Ġmask s
Ġm ales
Ġdevelop er
y ll
Ġnom inated
ĠJ azz
greg ation
Ġst uck
ement ia
uk i
ĠB os
ĠP ope
G iven
ĠAv ailable
10 9
ĠTai wan
u et
Ġrare ly
Ġhor izontal
th an
ĠTurk ish
IE W
ĠF ast
m ill
Ġinn oc
S chool
ĠCl ick
Task s
Ġinvestig ated
* ,
Ġwe ird
ĠTele vision
^{ -\
ĠG T
è ¯
ĠR ain
CON FIG
W ar
Ġadapt ed
qu ality
Ġ\ (
L aw
ĠConnect icut
ĠH O
Ġiniti atives
ĠPal ace
refer red
Ġvol umes
×Ļ ×
Ġs b
Ġvacc ines
Ġaccompan ied
Ġp ixel
ĠI F
Sec ret
UMM ARY
ol en
ph ones
Ġm art
ĠN ag
p read
Ġoccup ied
Ġany more
Ġd il
Ġv oices
im edia
c as
Ġpat ent
Ġhand led
ex ecut
act ual
Ġtyped ef
ab a
ĠDE FAULT
Ġint ense
Rober t
ĠIn ternal
Ġmet res
ĠM ut
Ed ge
Ġjournal ists
writ ing
ĠHistor ical
ĠF le
ĠShe l
11 7
Ġs ectors
Ġc ock
ĠS end
Ġven ue
ill ance
Ġimm un
Ġagric ultural
M ount
L IST
vious ly
Ġcor ruption
ĠT ry
Ġquant ity
our t
ĠRob inson
r in
Ġass ignment
ric ulum
Ġprec isely
F rench
UR CE
an ne
Run ner
AV E
ĠC over
ĠG ulf
R andom
Ġgener ator
od o
Ġrun time
upl icate
J ack
Ġst em
b uilt
C ross
top ic
Sign ature
ĠBet ween
CO MM
Ġdifficult y
ĠOut put
Ġn s
Ġthe ater
spir acy
ĠL anka
"> (
ĠK az
Ġmay or
Ġpred ictions
Ġte a
ĠD ublin
Ġbel ongs
ĠW right
Ġtem ple
INS ERT
Ġinv olve
Ġf rames
ĠB egin
Ġgl ad
Ġinher it
= %
Ġscreen ing
Des ign
Ġstay ed
Fil m
ops is
ĠDO M
Associ ation
av ery
Ġ' %
Ġult imate
Ġm eth
ĠSpe ed
Ġh al
S ources
qu is
Ġtransl ated
Dep recated
Ġspect ral
ourn als
ĠI ce
Ġn an
ick ed
ĠAust ria
gener ate
h istory
Ġnot ification
look ing
ĠWrit ing
Ġl ad
Th us
t l
19 38
ĠM aine
Ġb undle
ĠF un
": "
Ġmolec ular
ik h
Ġland ing
f are
link s
Ex port
Man agement
Ġscal ar
Ġconsequ ence
Ġgener ating
M AN
ĠS now
Ġdes ert
Ġaff airs
An n
s ig
Ġg all
ĠOr leans
Pe er
ĠB ond
ĠTr ad
S ort
ĠG alaxy
ĠF reedom
Sh ader
ri um
c in
est ions
p ubl
Ġinfin ite
Ġadmin ister
Ġab road
ĠAl ice
Ġinter section
B eh
L EN
ens itive
ĠClin ical
Ġmechan ical
â ĪĴ
Ġb ull
11 6
Ġsusp ended
ĠR ic
ĠP ap
Ġhard er
ĠG O
Ġdisc ount
cy cle
Ġl ung
Ġdream s
stand ard
Ġt ie
Ġeng aging
ÃŃ a
Ġm ad
W he
11 3
, $
Ġc able
ate ful
Ġch a
ĠN elson
ph rase
ĠChall enge
IN K
ĠT ower
ĠJ S
ĠRes ult
ĠMuslim s
Ġcook ie
NO DE
ĠGu y
ĠChrist ians
Ġ$ $
th a
Ġinvest ments
ĠCon tract
Ġout door
m atic
ĠP oll
ra ke
em ark
ss l
Ġposs ession
Ġstrugg ling
Ġembed ded
m outh
T ouch
Ġnav bar
ĠMar shall
Ġ ig
Ġmet ers
Ġgr ants
ides pread
STAT US
c od
ĠW ang
ĠR at
Map per
Ġopin ions
s pl
Ġart istic
IN ST
cy cl
riter ia
Ġam plit
Ġprem ium
Ġrout ine
Ġj u
ex cept
enc ode
Ġflow ers
ĠL icens
> '
Ġ Ñģ
ate ur
Ġpar ad
ĠÃ ł
Ø ¯
Ġmain stream
Ġcheck ing
D M
Ġgather ed
Ġsub stance
L ead
Ġas p
Ġm oon
ĠProfess ional
à ®
ĠC leveland
Ġ ----------------------------------------------------------------
B oth
B order
Ġbr on
Ġexam ine
Ġbrief ly
ĠClass es
build ing
Ġdepend ence
Ġb orrow
oth y
Ġ" >
Ġjud ges
Ġens uring
ab ad
Ġs ust
ĠH ad
Ġ' ''
Ġpres erve
al ias
Ġb unch
Ġproport ion
ĠB art
oper ative
re lation
ĠO C
ĠB io
Ġvill ages
Ġr anging
Ġremark able
B ool
ter ior
ĠI an
ul ative
get Id
19 14
Ġanim ated
ĠO d
po inter
j ax
Ġh o
el astic
Ġ| \
s elling
In f
Ġs aving
Ġh az
ĠMiss issippi
Ġintegr ity
ĠT otal
Us ers
ĠF BI
ĠJ u
C amp
Ġch urches
LO W
Ġcare ful
Ġper m
}} (\
ip es
ellig ent
Ġm ilit
ĠEm ploy
scal a
patch er
ĠMur ray
Ġor bit
j d
ĠC P
Ġrom antic
G ui
om er
Ġspeak s
ĠPat ri
Ġlux ury
ĠP romise
Ġemer ged
ĠIndones ia
ĠR ot
ĠQu ery
m obile
S ocial
Ġbas eline
K it
ĠC ome
ĠJ en
IC ATION
ing e
24 0
ĠT itle
sequ ence
us p
div ision
Ġview ers
ib bean
ĠSt even
Ġleg s
ĠCamp bell
Ġmass es
Ġa ria
S V
Ġt un
ĠJ son
ĠSw iss
Ġp s
ro se
Ġ" .
Ġemot ion
19 16
U pload
Ġt we
ĠO bserv
Ch ain
ĠW ard
Ġre plic
ci pl
Ġsc ales
æ ķ
um ar
Error f
ĠClass ic
D ig
L iteral
ĠEd inburgh
ĠLouis iana
Ġst adium
ĠApp end
p kg
l adesh
ĠRog er
Ġpurs ue
Ġag reements
I LL
ĠL com
Ġpubl isher
Ġhuman ity
Ġcharacter ized
ĠKe ep
Ġpartial ly
ĠU rban
Ġmat ched
Ġsit uated
Ġconsider able
Cont ains
B ER
19 37
Ġl ens
tra ctions
n est
er ick
Ġemb od
ĠLin ux
ĠBe ing
Ġpaint ings
sp acing
to Be
Ġb om
ex pression
ĠSt ev
Ġrequ iring
ann ah
uc lear
S elf
Ġc ir
Ġelect rical
Ġsens itivity
.* ;
m ass
ou p
* {
E Y
Ġco ins
Group Name
ĉĉĉĉĉĉĉĉ ĉĉĉ
ĠStew art
ĠSh are
i pt
de ep
Option al
Ġl iv
Ġst arring
ĠRef orm
Ġdifferent ial
m ma
j b
x it
ĠE lection
Ġres erv
Con tract
op les
Ġthreat ened
Ġun em
Ġact ively
Ġf etch
ĠV ancouver
Ġmunicip ality
ĠL anc
rel ations
) ",
V A
is or
ĠB loom
empl ates
ĠW ind
ĠSu ccess
cont act
Ġple asure
Ġ& #
19 19
Ġcas ual
ĠCamp aign
Ġdelay ed
ĠBelg ium
Ġsuggest ing
re pository
Ġim plications
ĠSt re
ener gy
T y
Ġoff ense
ĠStr ategy
Ġimm une
Ġd ad
other apy
s quare
Ġf older
ĠSt ars
Ġext ensions
Ġconven ient
ĠĠĠĠĠĠĠĠ ĠĠĊ
ĠR ange
Ġevery body
Ġcam eras
Ġb read
arch ive
J o
Ġexpand ing
Ġt weet
Ġfound ing
RE CT
or ia
r ules
Ġcampaign s
ĠT am
g if
Ġh unt
Ġw x
l p
ĠC os
ĠInter est
Ġp ixels
B ottom
Ġdef ence
Av ailable
c ia
Ġincred ibly
Ġrom ance
Ġreported ly
struct ure
ĠCO L
s r
f b
Ġse ar
ĠSam uel
s b
ĠO cc
Ġmount ains
ĠA udio
Ġbeg un
Ġlog o
Ġinfe ctions
Ġsepar ation
Ġl unch
Ġind ices
ate way
it r
Ġiter ator
Ġs urre
bo ards
C LA
ev a
D ependency
Ġh ill
, ...
ĠLead er
ĠI ter
Ġbr anches
S al
ri el
ĠTog ether
Ġo w
Ġsurv iv
ĠâĢ Ŀ
Ġse gments
ut ers
ĠD ist
In ner
Ġcontrovers ial
ath on
Ġprote ins
ĠG ov
Ġal ias
Ġqu adr
ĠCar ter
Perm ission
ig o
Ġ[ âĢ¦]
ĠTown ship
Ġo xygen
t ed
get Instance
ĠN ep
Ġenter prise
Ġen emies
class Name
P OS
est ure
Ġinitial ize
act eria
Tim estamp
Ġparticip ating
Ġatt itude
ĠD elete
ĠAgain st
Ġdeleg ate
Ù Ī
Ġcalc ulation
r ame
Ġc ub
Ġ' ./
. ),
ĠT X
oid s
ĠAn imal
inal s
ĠDr ug
Ġst ops
Ġover come
Ġden otes
ĠH end
ĠR ub
; |
ĠY an
ĠU r
Ġr anges
ir k
ĠIn novation
ID S
Ġpass age
Ġmist ake
ink s
ĠG raph
ĠCom ics
Ġassum ptions
UB LIC
or ious
ĠT ob
ill ery
ah l
Ġdi et
19 33
Ġmanufact urer
ĠMor ris
ge o
), \
ĠQueens land
4 50
Ġspe akers
Ġship ping
un ion
Ver ify
ĠBo ys
Ġover view
le ading
Ġtr im
Ġcon vention
Ġclaim ing
Ġjun ior
Mon itor
Ġexhib it
e i
ĠJ os
ĠIt em
com pute
Ġsearch ing
ĠR ules
ol s
H older
B ounds
ĠB asic
Ġcon fer
Ġflex ible
Ġcomp ound
Ġpopular ity
ur u
G reat
ĠSt age
j ud
Ob server
Ġincor rect
F RA
Ġpar a
Ġpro secut
ugg ing
ĠH unter
Dr ag
Ġmanufact urers
in ces
ĠG as
An notation
ĠT ar
Ġpush ing
ĠStr ateg
Column s
ĠCh amber
Ġv m
ĠPro duction
Ð ·
Ġcred its
u um
Ġsucceed ed
col lect
ĠW E
ens on
Ġtrans it
ĠM IT
Ġaf raid
ĠE T
ĠTh ailand
Ġdefin itions
ĠN iger
Ġpre val
ac co
Ġprogress ive
b id
ch anges
Ġgo ogle
ig ator
ĠW orth
Ġpar ish
ĠH ub
Ġf s
ar ance
iss ance
c ross
ĠE dd
Ġexpl oring
Ġadapt ation
ĠCom par
ĠMalays ia
sem bl
^ -
ant ly
Ġlab our
ĠF iction
Ġaud iences
LE TE
Ġst roke
Ġevery day
re present
Ġg allery
Ġfil ters
Ġl ibraries
ĠK night
Ġter rible
the y
ĠComm ons
ter ed
plic ity
> ()
load ing
Ġseek s
Ġveter an
se lection
19 35
Ġst upid
ĠCreat ive
oc hem
Ġtim ing
ĠCor onavirus
ĠDise ase
ĠJohn ny
ĠVAL IGN
B T
Ġincorpor ated
ĠSte el
ash ing
Ġprepar ing
DE X
AR K
Ġcross ing
Miss ing
Ġsup pose
ĠCre ates
re ason
ĠS UMMARY
ĠPe ak
BP ACK
Ġem power
C ould
Ġh orses
13 5
Ġconsist ently
Ġrh yth
Ġj ail
sp ot
T AG
Ġcomp ilation
G erman
c ost
EN V
ĠG ill
Ġde put
Ġt rem
LE S
ĠOr ange
column s
Ġlock ed
ĠBar ry
Ġne ural
Ġdel ta
Ġen umer
Ġtouch down
pr agma
on ing
em it
Î ¼
Ġch arts
Ġqu eries
ĠSub s
Ġg raphics
ĠG ot
ĠIn n
i w
ul u
ĠN um
Ġconver gence
ĠSp ot
omorph ism
log ging
ĠWay ne
V ol
Ġdom inated
Ġexam ination
can vas
Ġsurround ed
Ġw idget
Ġicon ic
Ġgalax y
re ens
paren cy
ĠMult i
ĠS ave
Ġv ectors
IL ITY
ĠCl ar
Ġsm ile
%%%% %%%%
vent ions
ĠThe ater
ĠCol umn
ĠAb d
Ġtom orrow
ĠMag ic
Ġcelebr ation
Ġw idespread
Ġcl one
Ġdoll ar
Le ave
ĠC lean
mem bers
ĠT oy
Ġsur faces
int eger
bor ough
valid ation
iv an
Ġs occer
12 4
Ġdo i
ĠS ay
ĠB es
ĠUn fortunately
Ġemploy er
Ġ} \
ĠArab ia
Ġor al
} %
Ġc rown
ut ral
ĠEm ail
co ord
Ġmusic ian
Ġpro jection
Ġappe aring
S G
ĠV eter
def er
ĠC rown
Ġvent ure
ĠJust in
m igr
Ġserv ers
t own
Ġde ck
ĠV ent
usal em
ĠCo al
I ss
Ġdecl ined
prov ed
T ake
n ik
Ġim plicit
CO M
Ġsynd rome
Ġmus cle
: '
U AL
ĠD I
Lo op
ĠJim my
Ġn ick
Ġactiv ists
T ile
Ðµ ÑĢ
ĠDen ver
ĠP un
L R
ĠA V
Draw ing
Ġsubs cri
e ast
big g
ĠB uck
Ġadvert is
Ġc rypt
c ourse
Ġt ies
er ious
Ġrec ruit
c ient
ĠE C
Ġpars ed
ĠT ab
AA AA
Ġmeaning ful
Feb ruary
Ġcomp an
Ġattract ive
TH ER
R ows
Ġl aser
Ġcomp iler
Ġdam aged
re ck
d agger
ĠS cript
ĠCustom er
w arn
ac ular
Ġsil ent
H ook
Ġch rom
Ġprevent ion
Ġactiv ation
C ategories
Ġg ard
o j
AN S
ĠE le
Â »
Ġcommun icate
Ġre actions
Te am
Ġde fer
ĠM unicip
ĠC elebr
Ġ< -
chn ology
On line
QUE ST
i ov
Ġentreprene ur
Ġt y
Ġwarn ed
Ġatt ending
o ose
ĠPer haps
Ġad mit
ĠCh ile
ĠCon vert
Bl ue
Ġsm oke
Ġd ictionary
ĠS oul
Ġob l
Ġdis plays
Ġconfig ured
ass ment
Ġlog ical
os l
A xis
Ġd ump
Ġre cre
Ġn it
Do es
AT URE
ĠMed al
ĠBase ball
ĠLear n
ash i
em bed
Ġth ro
) _
i u
h pp
al ph
u art
Ġph rase
M achine
Ġinter active
t em
Ġillust rated
ĠB aker
Res p
ĠBalt imore
H or
get String
_{ (
ĠCh ampions
_{ {\
EN CE
ps hire
Ġcomput ers
ĠI de
M us
è ¿
ĠAm endment
intend o
Ġg host
Ġg ross
19 10
Ġtra ject
urric ane
Ex ists
Ġm es
5 12
Ġconst ants
Ġextra ordinary
Ġscen arios
am er
C ancel
ĠJ oy
att ed
Ġviol ation
Ġsp ots
ĠTre as
Ġbox es
ĠBe ijing
ĠK ind
ĠSt orm
Ġsaf ely
Ġeduc ated
t m
ĠP erm
!! !
Ġvari ations
Ġdev ast
ĠPit tsburgh
Ġl ip
Ġrem oving
ĠMet ro
Ġprocess or
B its
Ġaw esome
u uid
i Äĩ
im mer
ĠF ame
Tag ged
Ġbelief s
Ġver b
ĠD ictionary
ab stract
Ġs orry
Ġrecover ed
ĠP eters
IM IT
enez uel
Ġeffect iveness
L icense
Ġcou pled
ĠIn iti
c ancel
Ġre aches
Ġinv ariant
pro b
Ġj ury
ĠId ent
} &
Ġep ic
Ġche st
Ġa ug
ĠCh ron
sh ops
Ġtext s
Ġexclus ively
RES ULT
ilib rium
Ġr ally
ĠCom merce
lim ited
ict ional
Cont ents
var i
Ġcl othing
Ġrun ner
ĠCommission er
Ġrender ed
Ġref lection
ĠB ou
ĠN am
19 29
Ġim g
Ġli ability
Ġpro x
ues e
RE SS
ĠT ed
Met rics
ĠIss ue
U CT
ĠRepresent atives
re str
qu er
Ġsch olars
ph ase
Ġafford able
ĠPod cast
om ing
ĠEv ans
ĠF el
;| &
12 1
ist ically
irm ingham
Ġtour ism
met ic
19 34
Ġcomp ress
ĠC ould
g ies
anch or
Ġbr ut
Ġin ches
o ft
Ġpo em
Ġfootball er
ĠE li
Ġexp enses
hatt an
ĠPro file
Ġalleg ations
ĠDep uty
Ġanaly ze
ĠVAL UES
Ġformer ly
x sd
te ch
Ġsurv ived
view port
ĠS ize
Con verter
M ov
ĠF ollow
sub subsection
Ġdiscrim ination
aught ers
Ġhypothes is
(" %
ĠMor ning
ĠAl aska
ĠBroad way
BO OL
ĠUs ed
ĠZ one
or us
BU FFER
Ġl ov
Ġl uck
el ing
ĠPr imary
Ġreflect s
H ello
d ale
c v
Ġhe ter
j or
t ol
ĠCirc uit
ĠC le
ĠC row
roll ers
bre aking
ap ple
ant ed
ĠH im
F our
if iable
qu o
ĠInst all
ĠU til
"/ ></
C UR
Ġanalys es
14 4
Ġident ifying
Form s
ĠEn c
ĠSus an
ef e
Ġdeterm ination
ab e
ĠSer ial
Ġdeliver ing
Ġas ympt
um ed
an on
[] {
ĠLink ed
Ġr ounds
Ġmult ip
Ġc ust
cre ens
Ġprom ised
Ġstri p
C ost
h op
Pro fess
Ġpoll ution
ĠC er
Ġcomput ation
Ġev ident
__ )
Ġc ow
Ġinf ected
ĠCon struction
ĠR T
ĠN ear
Ġpro pose
Ġcan vas
al m
friend ly
Ġb orders
19 2
' _
l if
Ġb ucket
ah n
Ġj ew
bl ob
ĠS ony
ĠH aving
( ()
ass oci
Ġ* ,
ĠAnt i
O wner
Ġr anks
ĠColl ins
ĠS witch
Ġde ployment
17 0
ĠF M
Per iod
Ġprec ise
Ġan xiety
m iddle
ĠBro thers
Ġsu ite
Ġvirt ually
19 32
Ġrepl acing
st eps
l arg
Ġminor ity
Fe atures
re peat
Ġform ing
ĠB rew
ĠArgent ina
m apping
ch at
ĠSever al
h is
ĠC F
unk nown
ĠBar bara
ĠOther wise
I ME
ĠWar ren
ĠW ait
l int
am ents
Ġcl othes
ver e
qu ant
ane an
Ġin cent
Ġback ing
ĠST ART
Ġmix ing
ĠF ried
item pty
O cc
Ġre named
ir i
Ġsh ops
Ġsche mes
Ġk in
om itempty
ĠDen mark
ĠP el
12 6
ĠDr agon
à¤ °
Ġcomp eting
En able
Ġhigh way
H on
Ġdep ict
ir ical
ĠPar se
ell ers
ĠImp act
Ġse cre
ogene ous
Ġph ones
it ual
s at
Ġtransform ed
ff ic
Int roduction
Ġplace holder
tra its
ĠM C
Ġwire less
rem ote
oust ic
ĠM i
Ġcond em
Ġbl ame
ecess ary
w ind
Ġcult ures
Ġm ood
ĠF ish
ĠNot es
Sep ar
T ON
ĠK ate
id ad
cel ona
te am
TI ES
Ġcar rier
ĠFl ash
ĠFrank lin
hav ior
ĠS ummary
AP P
h ai
ĠC ars
Ġexam ined
2 30
Ġsimilar ly
Ġr ugby
b inding
AR S
ĠK ids
ĠMe anwhile
Ġemph asis
Ġlo ans
Ġd atasets
Array List
( ['
Ġsystem atic
Ġre ign
ĠC itiz
J ul
ex pl
Ġtw elve
ĠW W
21 3
ĠM uch
ĠM ail
ĠG olf
Ġun lock
Ġ| =
Ġmind s
Ġpri est
a que
en z
LIC ENSE
link ed
ĠF ern
ĠĠĠĠĠĠĠĠĠĠĠĠĠĠĠĠĠĠĠĠĠĠĠĠĠĠĠĠĠĠĠĠ ĠĠ
Ġlog in
Ph ot
ol ate
Ġad option
Re act
Ġo sc
Ġprom ising
Ġi OS
cf g
alt Color
Ġn ut
Ex pected
Ġfail ing
Ġl ifestyle
Ġde emed
ĠN BC
ĠJ e
Ġexp atri
Ġagric ulture
Ġhad n
E lect
Ġw elfare
ĠUnivers al
ĠĠĠĠĠĠĠĠĠĠĠĠĠĠĠĠ ĠĠĠĠĊ
ĠMov ies
ĠMit chell
Part ition
Ġsh it
Ġarr anged
l as
Ġres ign
B re
Ġdel iber
v ation
Ġinh abit
Sc ott
Ġst eal
av an
ĠC raig
Ġen orm
ĠThe ory
ri b
Ġpsych ological
man agement
ĠS ession
ĠPract ice
Ġstream s
Ġl ucky
m ms
l ia
Ġwild life
Ġim pr
a ac
AR G
Aut hentication
ĠC old
TER N
Ġas c
R ot
b rew
Z ero
ĠO ptions
Ġcalcul ations
ĠL I
ĠSol utions
R ules
lib s
ĠL yn
ĠChe l
re po
ard ed
Execut or
ow ell
Ġfin ishing
ĠTechn ical
Ġanalyz ed
ĠMar ie
Ġlight ing
}$ -
g ow
ĠF isher
M ajor
Ġbon us
V O
Ġcho osing
ul k
Ġphenomen on
p b
str ument
Ġstr ain
Ġd ated
Ġsatisf ying
for ced
St ation
ĠFri ends
inter pret
Ġb rows
Ġtok ens
ĠĠĠĠĠĠĠĠĠĠĠĠĠĠĠĠĠĠĠĠĠĠĠĠĠĠĠĠĠĠĠĠ ĠĠĠĠĠ
Ġmark er
c ord
Ext ensions
e or
ĠBl ues
ĠN eb
en o
Ġs ugar
ĠPortug al
Ġne ur
Ġs wit
Ġis lands
t v
Ġdecl aration
ĠC emetery
ĠCar ibbean
ĠU RI
ĠC BS
s leep
Ġcomp iled
Ġl ying
Ġmem br
ĠA B
Ġ" '
S witch
pos al
Ð° ÑĤ
f loor
Ġf oss
Ġdecre ased
Ġredu ces
in ance
Ġim pl
r pc
Ġst ere
Ġm i
Ġb ot
ĠBO OST
osp el
Ġcompet ed
Ġcount ies
Å ¾
ĠHawai i
ĠInvest ment
Ġsav ings
ĠÐ ½
in formation
ĠR and
Ġcomb ine
ĠPh oenix
Pr imary
ben ch
Ġc inema
Ġassert True
10 24
trans l
f p
st ates
ĠT s
ĠF riend
ĠVis it
Ã ª
cre ment
ĠMin or
ĠDak ota
orne ys
_ +
ke ep
ĠNor wegian
P eter
Ġstart up
> %
å Ĭ
c assandra
ill o
UT E
Res et
ss on
Ġmod erate
Ġrepresent ations
S il
Ġm ild
Ġcap ability
G rad
Output Stream
Ġp ill
id el
) }(
F rames
cast le
Ġinter mediate
Ġdist urb
================================ ================================
Ġcomput ational
Ġper pet
Ġt ennis
Cre ated
re view
rem ark
ari ju
ĠL uke
Ġess ay
æ ĺ
Ġf atal
am ine
Ġnot ation
[ (
s ym
Ġfacilit ate
Ġenthus i
on z
ant on
ĠUn iverse
N a
Ġcor por
ĠA my
ĠInter view
Ġstead y
g raphics
ariju ana
G old
ĠN i
Support ed
Ġ` ``
amp a
Ġuser name
WE BPACK
Ġpregn ancy
Ġun ve
Ã© t
Ġmort ality
Ġst ating
19 28
ol utions
Ġtravel ing
Ġlabor atory
Ġt ap
ĠAd vert
id o
ĠCon cert
ĠMarg aret
Ign ore
Ġcap s
Ġcon vey
Ġunder ground
ĠCol omb
ĠT an
az ines
ĠCon stant
ĠUp dated
Ġbank ing
Ġtim estamp
list ed
ĠIn valid
Ġref lected
ĠA ve
Ġred irect
im itive
Ġrat ings
h alf
Ġarrang ements
ĠMar c
Ġdes criptor
P N
Ġrank ing
R UN
Ġin ev
et ric
Ġsc aling
bor ne
ad v
^^ ^^
Ġkey board
Ð ¹
V I
con duct
ĠE D
Ġsevent h
Ġsc reens
Ġal ien
ĠAlber ta
ĠM ade
Ġhol es
ĠM is
IC K
Ġrepeated ly
Ġproceed ings
ĠC ultural
ĠD ig
ĠPark er
} ",
Ġest imation
ĠL ower
ĠMe eting
ĠKen ya
Ġcitiz en
Ġnews letter
ĠL ore
) },
Ġattempt ing
Ġt ang
ĠWARRAN TIES
sec ution
IMPORT ED
Ġj e
d irection
Ġd ense
Ġpe ers
3 20
Ġtal ented
create Element
Ġmer ged
Ġprotect ing
om al
rou ter
Ġfl av
Ġlisten ers
ĠR y
Ġvess el
Ġmat rices
ĠM oz
ĠJer usalem
Ġsubs idi
L uc
ir ts
it ime
dr iven
s ocial
ĠSe an
Sub ject
am ount
Line ar
Ġp arks
ot ton
ĠOper a
ĠF alls
b inary
sh ore
ĠP rior
Ġrad i
ĠBang ladesh
rel ative
d n
ĠPr incess
Be en
) _{
h uman
Ġun n
ĠS R
Ġvis ibility
ĠHon or
Or igin
Ġvary ing
Ġim pe
Ġglob ally
) ^{\
Ã ´
Ġh ub
get Type
ĠM aur
5 000
Ġob st
irl ines
12 2
ĠU lt
Decl aration
ĠI gn
oc om
Ġth irty
oc ese
urs ive
Ġthere by
ĠS ale
enn ial
Ġrecip ient
19 15
Ġcom ed
RE T
Ġ+ \
Ġtack le
Ġmir ror
og ue
ĠT ool
ĠG P
Ġking dom
Ġactiv ist
ĠCom edy
ĠV ery
ĠB uffer
ĠSt yle
Ex pl
Ġent ert
Ġl attice
Ġdis pute
55 5
ing ing
Q ual
pan ic
Ġwrap ped
ed ly
Ġpro c
Ġcancell ed
Ġoccasion ally
at able
Ġp uzz
Ġassum ing
Ġfor um
ĠPu erto
Ġprom ises
Ġspect ra
em a
ĉĉĉĉ Ċ
Ġshould er
( /
à¥ į
Ġemploy ers
w t
en ue
Ġf er
Ġ' _
Ġmarg inal
ĠS F
ibli ography
Ġf ed
av i
Ġtreat ments
Ġaffect s
Ġle ts
d jango
Ġconvers ations
Ġrecord ings
Ġb ills
ĠR s
ĠBy te
Ġac ute
second ary
Ġhard ly
Ġpropos als
ĠD ie
ĠM aj
Ġstrict ly
ĠEmer gency
ĠC M
Ġsole ly
Ge orge
Ġsusp ension
Ġit eration
al ion
Ġcon gress
N R
Ġre plied
Pr ice
ĠBet ter
ĠG round
Ġt unnel
Ġst unning
Ġaccount ing
um ption
Ġdis orders
enc oding
ĠG A
Ġdeploy ed
e conom
Ġpro be
ĠT OP
ri ors
Ġdesc end
st rip
ĠExper ience
Ġc b
if ice
V C
n os
Ġexcept ions
Ġ( %
al gorithm
ĠDemocr at
ĠFin n
ĠFant asy
With out
pect ives
ii i
F acebook
ad oc
th rift
ĠL abel
b oth
ect ive
Ġch ances
ed a
ĠA F
p ent
ub ern
ĠCl aim
P romise
ĠL java
om ething
ĠEx pression
Ġhar vest
inn ed
Ġre ception
Ġed iting
Ġrac ism
Ġroll ing
ĠD M
Ġim per
ĠStat ement
ĠNev ada
Ġindepend ently
S plit
in ery
amazon aws
Ġclos est
S PE
ĠSh ah
Ġn ic
trans port
Ġalloc ated
ĠR io
ob i
Ġdr ums
sequ ently
Ġtele phone
om i
Ġf ert
ĠCharl otte
19 22
ĠG ay
ach t
× Ķ
gu ide
Ġgr avity
Ġch amber
ps y
des criptor
Ġton ight
ĠAdv anced
Ġt ons
Ġe uro
Ġear liest
ĠBar on
Ġsp ell
A ctions
d ating
Ex ecute
Ġgot o
it err
Ġdo zen
Ġc ul
ĠAr men
Ġsal ary
Ġfasc inating
Ġexception al
ynam ics
Ġsur f
Ġf itness
ĠLiter ature
Ġin struct
list en
Ġf ur
Ġnob ody
ĠIndust rial
ĠP ick
ĠCo q
ĠJenn ifer
7 50
Ġcons ensus
ĠBen jamin
Can adian
Ġa qu
Ġimmigr ants
ĠS SL
gener ator
ĠArch ive
ĠOl iver
\| _{
tim estamp
Ġvess els
ay ing
ĠN urs
Ġcl s
(' <
Ġel ite
G M
Serial ization
Ġgl obe
ĠUS D
De ath
Ġa est
20 23
rol og
Sm all
File Name
Ġdeterm ining
ur st
Ġrest ored
ĠS creen
Ġp ounds
ĠUn less
ro gen
ĠH unt
Dec imal
annot ations
Ġspecial ist
P riority
ĠCr iminal
i per
Ġtrail er
Ġ{ %
ĠS ustain
Y S
m ys
Ġart ifact
40 4
p ref
ĠR C
Ġnot ify
Ġarrang ement
f illed
DE D
ĠP ad
ut ory
it ations
Ġim pression
Ġk iss
Ind ia
per cent
Ġscient ist
HO UT
im ony
19 25
Ġgather ing
D ynamic
d istance
Ġrefer ring
Ġ å
run ning
ut t
Ġbare ly
sd k
Ex tra
Ġcar ries
Ġdr ives
Ġg ains
Art icle
ĠMov ement
ĠMad rid
D ays
ac re
os er
pm atrix
Ġven ues
Ġ' "
Ġmix ture
Ġf iber
eg u
agn etic
B ACK
Ġexp ed
Ġann ually
ĠG ray
set ting
ne ed
not ify
ĠC ris
Ġvolunte er
Ġaut hentication
Ġas h
Ġt ut
Ġres ort
Ġemot ions
Ġaccomp any
ĠL isa
Ġpregn ant
f our
if old
tr ain
Ġdepart ments
om o
ĠB illy
ĠC L
Ġsure ly
g z
Ġ- =
refer ences
ĠGa ussian
)\ \
c ursor
ĠJ a
Wh ich
-------- --
Ġcorre ction
w ave
Ġarch ive
(" \
Ġdepart ure
ĠF err
Ġan ger
Id x
ap l
ĠL ost
St ub
andid ate
D iff
fe ction
og s
ĠC rit
ĠNav al
Ï ħ
ĠJ uan
T og
Ġgot ten
Ġt f
Ġcomp aring
thod ox
Ġhost ing
Ġinher ited
Table Row
th y
Ġval ley
rou s
Ġguarant eed
l oss
ĠVis ual
Ġaggress ive
Ġw is
ĠS ad
ĠUp per
onom ous
P an
par agraph
Ġang ry
in fl
Ġ-- ></
Ġadv ers
Ġdi abetes
Comp at
< >();
M obile
ĠDe al
= $
Ġd yn
Ġem ails
s heet
19 24
ĠL ot
ĠF ine
ign ore
he ld
Ġwalk s
F ixed
Ġinv ention
ĠCl ose
ĠH P
Ġc ous
SO URCE
Ġseem ingly
Ġsufficient ly
local host
sol r
Ġpaint ed
Ġflo ating
ĠBul g
ĠJ oin
Run ning
Ch art
Ġsl ice
ym n
ĠGr ace
Ġc ached
Ġh yd
rt l
Ġmac ro
Ġoverse as
M ass
Us es
Ġut ter
Ġmodel ing
ĠS L
19 27
Ġfoot age
us ive
ĠEd ge
cc cc
Ġim posed
Ġvol can
Ġengine ers
rist ol
ĠTer rit
Ġwant ing
ĠS S
ĠS V
Ġburn ing
19 31
Ġinv asion
Ġphys ically
Ġwor ried
Ġgr ace
Int eg
Ġph osph
Ġsub str
ĠLog ger
ĠMem ory
m f
com plex
Ġd rew
Ġalleged ly
Ġf its
D at
ĠP ictures
B reak
Ġauthor ized
e u
ĠOr chestra
S at
_{ -
c mp
sp in
un lock
Ġcom ics
pre ced
Ġosc ill
ĠT ig
y outube
Ġt ension
ĠL aura
== =
em ption
Ġvol t
ex amples
get Message
Ġind irect
Ġfr act
ĠU g
Ġcontribut ing
1 19
ul ates
ĠC ou
Ġfall en
Ġaccept ance
ĠB ird
L ove
ĠD elta
u ity
m other
ĠCol lections
ĠPro perties
Ġcompl aints
ĠTh or
Ġobject ives
Ġcoast al
ĠG host
ĠM ach
A ud
ĠB aby
Ġh unting
g age
00 2
Ġstay ing
ĠTransport ation
Ø ª
ĠMan hattan
T uple
Ġcoach ing
Ġwork place
w allet
ĠEvery thing
lo pe
>< !--
ene ath
V IEW
ĠEth iop
cover ed
ier ra
P rom
Ġd ying
mark et
ĠF ro
Ġcolon ial
ĠS oc
iv ic
Ch anges
/ )
se cret
ident ity
uck er
C over
ens ively
c amp
19 12
Part icip
. ',
ĠCommon wealth
un ate
Sc ore
Ġl ady
ĠFl ight
Ġview ing
og an
Ġf itting
Ġes c
cl ock
F ALSE
Menu Item
ĠNC AA
on line
p ars
eb ook
ann es
ĠA ld
ue z
io x
ĠSc i
OL D
to o
T or
ugg ed
ĠBit coin
at io
Ġul tr
ĠStan ley
} ))
Block ly
Ġh ack
sw er
Ġst abil
ĠG M
2 10
pr ises
pre vious
Ġsymmet ric
}} ^
Ġprison ers
Ġphil osoph
Ġb anned
Ġeconom ics
Ġswim ming
ĠL ad
l b
Ġ uri
ent in
à¥ ĩ
ĠH R
NE W
ĠMont real
hab ilit
SP AN
ĠĠĠĠ čĊ
ĠAr n
ise cond
m illion
ĠR ud
ãģ ®
m ov
ĠN an
T yp
u pt
ob serv
Ġcoeff icient
Ġdef ining
me an
Ġdepend ency
ĠM all
Ã «
ĠB apt
ĠDe cl
Ġpower ed
ĠC ass
N I
Ġcommission ed
ĠMur phy
ĠFac ulty
ĠH ind
T ech
ĠMA X
ĠR ank
000 1
Diagnost ics
ant i
Ġv e
if le
ĠK EY
Ġste am
ĠSt orage
ĠHand le
ig ion
per iod
Ġt ens
Ġcr icket
M o
od ot
pr ice
ĠQu arter
ĠMod ule
Ġcompar able
Ġt el
Ġgre y
Fr ank
ĠHealth care
Lin q
Ġr ated
H ot
cl s
ĠCon sole
Ġfl ower
ug u
ĠLib eral
W ater
Ġgrad ually
con current
ĠDet ails
Ġexist ed
Ġ' @
Ġgovern ance
v ars
sect s
z ens
Loc ale
Ġall ocation
ĠInd ians
Ind ian
Ġrid ic
L ondon
get s
Ġsh orter
Ġte eth
Ġs ends
Ġrot ate
Ġdiam eter
Ġm arch
Ġr ab
inst ein
Rich ard
Wel come
p al
Ġperform s
ĠK ap
Ġbur st
Ġlegisl ative
ĠU P
Ġoper a
Ġt ar
Ġh ung
ĠL uther
Ġf iscal
ĠK rist
ĠS even
Ġgraph ic
ĠR achel
ĠGr id
ocol ate
ĠA y
d ynamic
iterr anean
Ch ris
ot ypes
ĠK ay
19 26
Ġdig it
Ġdifficult ies
c n
ul i
ac ies
Ġaccept able
e enth
ĠR ole
contin ue
e ing
Ġme al
ik o
s chool
Ġh ur
w oman
av ers
The orem
be y
ĠW ikipedia
Ġh itting
Ġpl asma
ĠP E
h d
Ġ Ä
Ġde let
amp ed
ĠS olar
ri en
Ġcommand er
olog ically
Ġcol leges
Ġcert ified
A fr
R ay
Ġhighlight ed
Ġbur den
U A
ĠH AL
Ġreal istic
S ide
W ed
ĠH orn
Ġab ilities
Ġs ail
Qu ant
Al ert
s am
ENT S
qu estion
u its
M or
ĠRob in
ĠSpr ings
ad ows
Ġk w
Ġk iller
grad ed
ĠD eg
ass y
Ġam endment
W M
Ġrec ycl
ĠUS B
iz ar
Ġn ose
path y
Ġestabl ishing
19 21
[ -
Ġc um
as ia
Ġc oc
ul in
Ex pect
M ail
p ic
ĠRe ports
g mail
th ree
ĠWeek ly
Ġinflu ential
Ġr iding
S ever
ĠU pon
Ġgrow s
Ġalign ment
b ank
l it
Ġdev oted
ĠIm mutable
Ġcl ause
ĠEar l
Ġpert urb
Î º
Ġm ic
Ġreg ression
æ Ī
ĠM ason
umb n
in x
Tr igger
Br idge
D irection
k ov
Ġc ognitive
Ġor th
Ġmin istry
m oment
__ _
om es
Ġsec ured
Trans ition
ra ising
OR S
ĠK ath
ĠD R
Ġg ig
I l
SU C
ĠArt ist
ĠS amsung
ĠC I
Ġwork shop
Ġt ropical
Ġbron ze
pro duction
Ġpro to
Ġdifferent ly
Ġtrad itions
omorph ic
U nd
ĠQ uality
E ducation
MP L
g ender
Ġpo ison
ĠP or
add ed
Re ason
ul ly
ph oto
pr iv
Ġsl ave
Ġig et
ut down
ĠJ O
Ġaccess ed
ibr ation
Cam era
Ġmyst erious
N eed
ĠE val
ĠL arry
ĠEm peror
ĠArk ansas
ĠWith in
ĠB irmingham
Ġpre st
f older
ĠLe ave
e clipse
ĠLuc as
Ġam pl
Ġrock s
ĠBey ond
M ust
ĉĉ ĠĠĠ
Ġpros pect
B us
ĠC arn
Ġne arest
Ġneighb ors
Ġadequ ate
ĠAg ent
Ġele g
Ac ad
Ġ Ø§
ĠĠĠĠĠĠĠĠĠĠĠĠĠĠĠĠĠĠĠĠĠĠĠĠĠĠĠĠĠĠĠĠ ĠĠĠĠ
amil ies
RE NT
pl aced
Ġbar rier
ĠRun time
Ġhydro gen
T ur
Ġcons olid
Ġelder ly
ĠF E
Ġ-- -
Ġjurisd iction
Ex press
es ian
Ġretriev e
N eg
ategor ized
ĠS pect
ĠJava Script
BA SE
% "><
Ġcoll ision
ext ensions
HO ME
Ġg onna
at om
ĠBrazil ian
Ġs yntax
ac ial
ĠMad ison
Ġcou ples
ĠGl as
Ù ĩ
per p
Ġcomp ly
ĠCro at
med ium
w br
ab et
Test ing
è ®
in ced
G F
ĠT ol
... )
Vis it
ĠH ousing
Ġph ases
Ġequ als
Ġm arijuana
ass ion
ĠProduct s
C oin
ay an
Ġsu ck
,\ ,
ĠNe il
f und
Ġprint ing
ĠC ategory
ING S
Ġscatter ing
ĠT it
phot on
Ġform ats
Ġl obby
ar ms
Ġpart ly
Ġhum or
ore st
Ġt ape
Ġab ortion
ain ian
$ ).
ch unk
ĠCost a
ow ing
Off icial
ĠJ oint
Ġhom eless
Ġok ay
Ġdis crete
Match er
Ġex ponential
Ġ# {
ul ent
tool tip
Ġsp ir
ĠR ES
ip per
ĠK o
Ġinc idents
in ject
Ġch ains
atab ases
ĠCons umer
ĠQue bec
ĠPh one
Ġpr ayer
aus es
ĠJer ry
Ġfl uct
G T
ĠHam pshire
Ġd ub
ĠL ocation
ĠÎ ¼
> `
P DF
ir atory
iev e
Ġencounter ed
Ġlik elihood
}^ *
Ġ( #
ĠMor oc
Ġimplement ing
neg ative
Ġto ll
ĠB enn
ĠPhys ics
Un iform
ut o
Ġlong est
Ġdom ains
get Class
ĠB L
Ġcomment ary
Ġop ponents
ab ul
om on
Ġpos it
Ġgraph s
ĠEnter prise
all ing
ĠStat istics
s ure
amb ig
ĠNot ice
ãĥ ¼
del ay
list ener
Ġp our
tim eline
H istor
ov ak
ĠV enezuel
å ľ
Ġbroad er
ĠA aron
D TD
Ġev olved
ĠB right
add Class
12 9
b ug
ud ge
ĠS ometimes
Ġsustain ability
ĠSh a
Ġsepar ately
Ġenc oded
load ed
hib ition
Ġtum or
ĠC atal
Ġm amm
Ġis instance
RA M
uff icient
or o
Ġfollow ers
ep age
Ġacqu ire
Ġd st
D ITION
Ġs hed
Austral ian
ĠM ack
loc ale
Ġen abling
20 2
Ġinflu ences
Ġinvestig ations
N umer
R ound
op ens
Ġpl aint
Ġre fr
Ġsc ream
atern al
ĠX box
ĠCour se
Ġnewsp apers
ĠLicens ed
m ag
P acket
Ġrestr iction
lin ux
Ġprotocol s
Do ctrine
el eration
Ġearth qu
f ight
ĠProt ocol
as ures
ĠOsc ar
Ġb ases
ĠV el
Ġstri king
Ġisol ation
ĠEm ma
Ġnegoti ations
Ġaggreg ate
i em
19 23
o ys
Ġl on
AR CH
Ġ$ -
Part y
Ġd ot
Ġdis h
int o
Ġlegend ary
PH P
draw able
ĠIran ian
ĠTh r
ĠS cal
Ġforest s
il ateral
ĠC arm
Ġl iver
sc ore
in ely
Ġqu oted
Ġre n
Ġbo ards
ĠRE AD
19 0
Ġdis cret
Ġw inds
Ġintr ig
Ġlett ing
TO M
Ġf ut
Cons ider
Ġd ining
duc ational
ĠBar celona
S afe
EN ABLE
There fore
Ġass ass
Ġor ange
ĠKe ith
if ference
ar us
W alk
ĠM B
C V
F D
ĠCo ord
" ];
Ġadv ised
ĠGover n
k n
As sembly
ĠPol y
stit uency
Ġprint f
ĠA irlines
Ġsh ield
Ġconv inced
ĠY ang
ĠE ld
ah a
Ġvol unt
Ġansw ered
Ġdead line
r age
f ers
ĠV ision
Ġvar ied
Ġprot otype
ĠPh ase
B ill
stats models
M IT
Ġoutput s
ĠN ord
K ing
Ġw age
th ird
Ġsl ide
Ġthread s
D isk
Ġa apt
ĠH udson
Ġat tributed
ĠM illion
m ine
ph an
c op
Ðµ ÑĤ
Ġdam ages
ĠW onder
ib ling
char acter
Ġob sc
Ġback up
ĠGre ater
am ination
St age
ĠGener ated
L and
Ġm ature
Ġsort ed
Ġsh apes
urn ame
ĠCon nection
') ->
ĠTreat ment
Ġphot ographer
ĠD rama
Ġcon spiracy
Ġaltern ate
in ion
MA GE
ĠChristian ity
b age
nob r
S napshot
ĠPer ry
Ġsoph istic
L em
sy nt
F actor
ĠFin land
j oint
Â Ń
O FF
x f
L ow
T ry
Ġper ception
M ad
Ġform ally
Ġarch ae
Ġconf usion
ced es
Ġhand ed
ĠV oice
m ers
ĠM ix
ra ction
Cal endar
t z
au i
Ġhabit at
Ġeg gs
Rad io
Ġaddress ing
Ġachiev ement
ĠA rena
Ġmiss ions
Read y
includ es
) ^{-
ĠQ ual
] +
S K
Ġin fect
ĠAgric ulture
A SS
Ġgr ateful
ĠWar ner
ĠF ont
Ġodd s
em ics
b ucket
Ġpost ing
Ġf itted
ĠNew ton
Ġbatt les
LO AD
ĠR aw
Ġcr ack
Pl us
ĠC ensus
Th omas
ĠBr anch
ĠTechn ologies
Ġnot ing
Ġtrib ute
rop ic
ine a
ĠIm perial
Model s
A MP
s ing
ĠTh an
Ġhistor ian
ĠK u
)} {\
Ġd iver
up dated
itte es
ĠCom put
Ġf ate
ĠPalest inian
14 5
Ġcompet itions
æ Ĺ
ĠResp ond
w ik
S un
ĠB ud
Ġop ponent
ĠH erm
SH A
sc opy
Ġingred ients
Ġchem istry
)$ -
Ġsil ence
Ġattract ed
Mut able
Ġcal m
Ġl umin
ĠSt ein
k l
ĠR acing
ĠW ould
Ġch ip
Ġ" [
Ġd ivers
' ].
ĠCru z
Ġm as
Ġsurve illance
ĠE ST
ĠC ut
Ġhon our
che m
FLA G
Ġwood en
H y
N U
d elegate
uet ooth
ĠP anel
ins ic
B orn
uss ia
ĠTurn er
Europe an
IN VALID
Ġt ub
ĠG OP
pl iers
ĠAdd itional
en vironment
ĠRep ly
ADD ING
Ġa ired
stat ement
sen al
çĶ ¨
Ġbreak fast
ĠA ws
G RO
Ġcharg ing
ers et
au er
Serv let
Ġd aughters
sp ired
oth s
r h
Ġ' #
ĠM erc
ĠCom ponent
Ġen zym
Ġconflict s
ke ley
fr ames
he astern
Ġd iamond
Ġcam ps
ast ing
× ª
ĠN ull
Ġdec ides
Ġdefault s
Ġadvoc ate
au kee
c est
ĠĠĠĠĠĠĠĠĠĠĠĠĠĠĠĠĠĠĠĠĠĠĠĠĠĠĠĠĠĠĠĠ ĠĠĠĠĠĠ
Ġjo ins
N ON
Ñ Ĩ
se ctions
19 13
Ġcirc ular
C lean
ov o
up per
preced ented
ĠT es
Ġretain ed
ot he
Ġvis itor
SP ACE
Ġc ry
Ġc od
ĠCy ber
Pl ot
ĠF ab
Ġfor cing
ĠCam eron
fe atures
Ġcour tesy
Ġhot els
ver ify
ose x
Ġdis patch
Ġmut ual
ster dam
Ġinj ection
ey er
Ġproject ed
Ġle ase
Ġt orn
s it
akes pe
Ġh ire
Ġcred entials
ĠF if
ĠL L
Ġown s
ĠWIT HOUT
con sc
13 6
Ġ ere
ĠWIT H
ĠL ux
M el
Ġjournal ism
ix on
ut ing
Det ector
} )$.
ous el
ĠG R
P ub
LA B
Ġpre lim
ĠChar acter
ĠCons ervative
s ime
Ġdem ol
Ġphys ician
ĠPortug uese
Ġoblig ations
g iving
Ġconv icted
ĠCom b
Ġwrap per
ĠS urg
d h
Sim ilar
Ġvari ance
ĠT u
ym an
Ġpract ition
ST ART
he x
Ġc rop
Ġdemocr atic
Ġr ivers
AC ING
M iddle
$ $\
M ix
Ġn ights
ĠF ALSE
Ġconf used
allow ed
f av
fr agment
ĠElement ary
ĠE RR
g row
Ġencour aging
Ch unk
Ġrev ised
Ġgold en
å Ń
ĠE R
J im
ĠB irth
Ġn erv
et on
Ġtox ic
Ġv i
Ġbelong ing
Ġb ab
ĠTh ink
H P
19 11
ĠArg ument
Ġconcent rations
ĠR andom
18 90
Ġal arm
In struction
con cat
fore ach
H ard
ĠKir k
I p
ĠAssoci ate
ĠK il
k ar
ĠRich mond
arant ine
inter val
Ġacknow ledge
I ll
ĠCom mercial
ĠSimilar ly
F W
ump y
Al pha
ar ound
eth yl
av ia
Ġhel ic
AR RAY
= &
H ol
ob a
ĠP ackage
ip art
ĠCh rome
O G
al one
! </
s ong
Ġrefuge es
~ $\
C irc
be ans
Ġmem orial
Ġcour age
om eter
ĠP icture
gr pc
uff ix
Ġsus pected
ur ring
ĠR u
Ġgenu ine
C AP
Ġt ours
ow der
Ġobtain ing
Ge ometry
99 99
**************************************************************** ********
sime q
ĠM om
Ġback ed
am med
E ast
Ġd ens
Com pletion
r ink
Ġqu ot
Ð¾Ð »
Me anwhile
Ġinstitution al
Ġdeput y
ĠB achelor
Ġr itual
ĠN ad
Ġnom ination
work ing
ĠM asters
ĠMO RE
ĠEx cell
not ification
com fort
ĠK id
Ġcool ing
us hes
est ing
ĠCom plete
Ġb acteria
ĠS ET
em or
Ġdro ve
Ġaffect ing
T M
ĠComp anies
ĠD iamond
subs cribe
Ġsh ame
ĠSu ite
sp i
et ter
Ġt uple
Ġ" #
ect ure
f ar
Ġsc rap
found ation
Ġse eds
' (
C trl
ab i
ĠP ent
Ġwe igh
Ġposs ibilities
F ail
ĠAdvent ure
f ailed
Ġoccup ation
Ġenorm ous
Ġcomp ounds
Ġcur riculum
Ġsol ving
." )
ĠN intendo
Ġadd r
p oll
Ġh ab
Ġtr ivial
Ġun iqu
################ ################
ct ree
> ${
] ['
ĠStr ucture
ymmet ric
end ors
Ġbet a
Ġfe as
Ġmagn et
ĠB eth
Ġadjust ed
Ġsome body
Ġvari ants
Ġtw in
WA RE
H ouse
V ec
o ons
IS H
po i
Par cel
Ġpoint ing
Ġexp ense
Vis ual
Direct or
Ġscholar ship
Ġst olen
ah oo
t oc
Ġorder ing
b ach
ĠP in
May be
tim er
Ġassess ed
D eb
ĠEl li
vis it
Ġrest oration
P REF
ĠWH ERE
apeut ic
Ġstep ped
Ġbut ter
Ġabs ent
dec ode
Ġf t
ĠÐ ¸
orient ed
Ġpain ter
her ent
Ġco in
ĠHor se
w aukee
2 60
Ġrem oves
cer pt
go og
Ġcross ed
ĠLet ter
g ie
Ġt ube
Ġcast le
ĠS eg
Ġ' -
Ġmand atory
ĠA w
Ġex pr
ĠInitial ized
n ia
tr i
Ġhe m
Ġhel per
L at
ĠCommun ication
Ġsnap shot
mat ches
ind a
label s
Ġper ceived
akespe are
{ $\
ĠS oph
Re ceived
ast ed
\! \!
Ġad mission
Ġbl ess
sw ing
ĠIss ues
ĠP ra
Ass et
ĠArchitect ure
An im
Pay ment
s yn
Ġcoal ition
Ġbar rel
Ġcomment ed
!! !!
ĠTr uth
ĠF actory
M ag
Ġdivor ce
RE QUEST
TableRow Color
ĠNe uro
Control s
0000 0000
Ġs its
Ġpack ed
A mazon
C annot
G od
Ġa uction
^{ +
ĠO UT
m und
Ġtri ple
ĠB ear
Â «
Ġassoci ations
run ner
Ġf o
30 8
ins ula
Ġall ies
ic ating
Ġconstit u
greg ate
Ġnation wide
O lymp
Ġless on
ĠKar l
Ġout line
sche mas
ĠGuard ian
ĠMaterial s
ĠPO ST
ĠD oll
Ġmod ification
rol ogy
d st
ĠD ebug
aged y
f iction
erm ont
Ġhe aven
pro position
ĠP ic
r ain
Ġport s
tog ether
Ġd ancing
Ġcollect ing
M ont
process or
Ġdiagnost ic
Ġexperi encing
ĠL ex
Ġpassion ate
epend ence
ĠCons ervation
ĠLabor atory
Ġaccompl ish
ort ex
comp ass
Ġanticip ated
Ġblock ed
Ġdocument ed
Ġ{ $
b rit
ĠHarr ison
land o
ash a
ĠW or
Ġfriend ship
Ġext ending
Sc an
ĠLib erty
Ġcook ing
Ġtim er
Ġlov ely
Ġint elligent
add y
ĠCom plex
G IN
Ġex cluded
Ġelim inate
ens is
Enumer able
end point
Ġap pl
Ġderiv ative
ĠC opy
Ġcomp elling
d ie
Ġd oses
F ar
ment ed
Ġdistingu ish
ern ess
ĠB ORDER
Ġpre dom
decl are
ĠJess ica
Ġextract ed
ĠE M
16 8
l ua
Ġch ampions
st ri
ist le
Ġcontrovers y
ĠMount ains
B road
Ġb lo
ĠC u
H am
P ipeline
vel ope
//////////////////////////////// ////////////////////////////////
ĠD anny
t ik
ĠT erry
... ]
Ġad verse
ĠR ing
Th ose
Ġwarm ing
Ġd ys
ĠK el
á º
ĠEm ily
Ġl ap
bar r
Ġconsist ed
Ġl in
ĠK an
Ġdon ations
V S
| }
IC S
Ġconstitution al
Ġs ender
ph ere
ĠEnt ity
Ġcent res
Ġnot ably
respons ive
Ġst y
ĠCo ach
Code c
Ġpers u
P ADDING
ld s
Ġcons iders
Book s
Ġforg otten
ĠBern ard
Ġr ib
ari ans
m aps
Ġsub mission
ĠSh aw
Ġdismiss ed
ĠG it
grad le
Ġc yl
fr astructure
J oe
ĠB AS
ke eper
per ature
Ġamplit ude
r and
j ournal
ĠDr ag
Ġfood s
p agination
Ġcontr ary
Ġsust ained
ul o
ir able
Ġpr ide
CR IPT
ĠBat man
I r
ĠF itz
Ġharm ony
indu ced
Ġsound track
Ġbre ach
Ġterror ist
Ġal le
che str
ĠMe chan
ĠP le
E r
P ing
27 0
ĠBroad cast
ĠT ak
ĠD evelop
ep per
\ )
s ized
] }
Ġplace ment
s pect
Ġimportant ly
Ġinterpret ed
d eveloper
Form atter
Ġsequ el
ĠResp ons
ĠPH P
Ġoverwhel ming
16 5
ĠT odd
Ġind igenous
ra f
Ġac res
: -
Ġdis ability
ĠProgram s
Ġexpatri ate
â Ķ
Ġin verse
CRE ATE
ĠG ET
ĠF an
Ġtempor al
Ġv iral
ĠWel sh
Ġremain der
qu et
Ġcir cles
Ġsh ore
Ġinstrument al
Ġcontact s
cp u
whe el
> [
int age
ch t
Ġcy cles
ĠTo o
Ġprof its
Ġexha ust
B ur
c ref
17 5
Ġpres erved
us c
Ġremember ed
Ġhold er
Ġwis dom
no frame
ĠMed iterranean
Ġspons ored
19 08
Ġimpr ison
D ict
Writ ten
}{ |
Ġflex ibility
m ix
P ush
Ġclean ing
Ġconsult ation
l atest
Ġtri ps
erial ize
Str ucture
ĠSur v
Ġstock s
18 00
Ġan ime
ĠM aking
g ent
ĠB arr
ĠL it
Ġbuild s
Ġcon form
Ġw ars
Work er
Ġp ose
ĠCol lect
Ġm ere
Ġdu o
ĠCh ampion
Ġappro ached
google apis
ĠCirc le
L IB
Ġair line
Ġref resh
Ä ĥ
ĠH app
() ">
umb ai
pre pare
L ou
ĠF u
Ġlegit imate
Ġc ave
k ernel
Ġdraw s
ĠB R
**** **
Ġatt ach
jack son
p ublished
ĠM ol
Dep artment
ĠP UBLIC
. ).
Ġres il
Ġcomplet ing
Fore ign
b ia
d ocker
d frac
Ġpick s
ĠK IND
ĠIn fo
ĠCl ay
Ġnormal ized
m el
ĠSh ar
h aw
qu arter
Ġtarget ing
Ġeditor ial
] ).
s amp
ĠPre vention
ĠS yn
ĠWork ers
V R
ĠH ockey
Ġdistingu ished
ĠBen ef
Ġstop ping
Ġrel ate
New ton
D istance
Ġbar riers
SS AGE
W ORK
D er
Ġwound ed
Ġsur ge
cul ate
Ġs isters
ĠFil ms
ĠZ e
U ntil
ĠW ire
ach ers
ĠRest aur
CO UNT
p end
Ġin coming
Ġsens ors
Ġt ent
pay load
f w
gover nor
ĠComm ander
(' ./
ĠF DA
ĠD raft
.. ...
Ġconven ience
Ġbut tons
Ġexpl ored
ĠLeg end
ĠVin cent
ĠDis play
Ġens ures
ne utral
ham mad
vent ory
ĠWat son
æķ °
J on
ĠS ongs
ogen ic
. (
Ġat omic
iss on
Ġsold ier
Ġlocal ized
Ġb other
Ġdiscuss ing
Ġinter vals
Name Link
GL enum
ĠDate Time
ĠIllegal ArgumentException
ĠL ate
A ff
Ġher oes
Ġdead ly
Ġther ap
SUC CESS
Compar ison
ĠGi ants
IT LE
cam era
$ ^{-
Ġrender ing
Ġrest art
f ox
Ġbus es
S UB
Ġre nown
Ġsm oking
ĠAv iation
ĠUn like
Ġfast est
__ ,
Key word
and ed
jav ax
red irect
ĠHig her
Ġb eneath
Load ing
ĠY u
Ġprogram mes
Fr iday
O O
Ġmount ed
az el
Ġoccas ions
Ġc rystal
ex ecution
Ġdel ivers
Dan iel
Ġf ool
Ġm s
Ġcre am
ĠMet al
ĠW es
For ce
50 9
ĠL ov
Comm it
Ġth rew
map sto
ĠD IS
Ġquant ities
Ġs el
Ġnurs ing
ĠNY C
ĠB ristol
ĠF eed
Ġw ishes
ĠN ar
J O
Ġ< ?
ĠT on
Ġste ep
ĠFa ith
Ġorig ins
h ind
ĠMan ufact
Ġnom ine
u ant
tr ait
ĠYO U
air y
ĠGlas gow
$ ;
Ġcorrespond ence
Ġinhabit ants
ĠIm prov
Ġcell padding
C AL
ir s
Ġir re
Ġiniti ated
se ed
Ġrecon struction
f its
pi pe
fl ush
Ġprefer ences
Ġbott le
ific ates
p ipeline
Ġintrodu cing
Ġimpress ed
ĠJ ama
Ġexpect ation
T X
ĠAdd ed
B ucket
Ġearn ings
S F
Ġat om
ia z
ĠForm at
b oot
Ġt une
ĠK le
Ġo ct
Ġch ron
ĠV A
ari ance
ĠGl ass
ĠS ER
Ġinf lation
16 9
B uf
Å Ł
Ġaccompl ished
con g
en berg
J ournal
ĠG ene
v endor
S UP
Com ponents
ĠDef ence
\ {\
Ġqual ify
Å «
iz a
Ġf ires
cel and
Ġtrust ed
Ġscr atch
ĠG rey
ION S
ert on
met rics
Ġover r
h all
Ġmid field
H uman
ĠV I
X Y
ĠAppend ix
@ {
Ġp ipe
Del ay
ĠL ion
ĠAb u
ĠK ill
t iny
rupt cy
Ġtrigger ed
c ov
h h
Ġspec ification
s hell
S uch
Add itional
ĠE mb
p ending
un ger
é Ģ
ĠMet ropolitan
C at
re duce
Ġpo ems
ett ers
Az ure
Ġhand les
ĠStand ards
pay ment
as ive
ĠS r
Ġthrow ing
get Attribute
ĠAl ong
Ġv ig
i ary
36 5
ĠW u
ĠSumm it
Comp are
b an
Ġmeas uring
Ġheart s
ĠScient ific
Ġman ages
ubern etes
M esh
ĠBro ther
Ġportr ait
De ep
ĠGrow th
Ġsynt hetic
h ort
ĠPlan et
is i
Ġgr ave
Ġdiv isions
ĠW riter
ex isting
) ?
AR B
Ġcann abis
ĠM ak
ĠFe atures
Ġprem iere
Ġinternational ly
igh bor
13 4
Ġlo ose
ĠT ABLE
Ġdon ated
ew ise
Ġfrequ encies
Ġwork force
Text View
ĠR ivers
D one
ĠCurrent ly
Hash Map
T imes
op ing
Ġreport ers
Ġh orn
ĠK on
Mod ified
ĠNaz i
Ġsh oes
Ġmetab ol
] </
String Builder
Ġsmart phone
Ġan onymous
sc ience
Ġthe at
ĠR ico
Com b
Ġen code
Ġ[ \
Ġfil ing
ĠH alf
ĠTR UE
ĠV eh
Ġ! !
Ġap olog
ĠA bs
Ġun precedented
Ġcur ious
Ġhe x
Ġclass room
op edia
Un ique
S y
Ġland ed
ĠEgypt ian
Ġcell spacing
Ġ( ),
Ġunem ployment
Ġke en
Bit map
ĠR A
ĠSquad ron
f actor
less sim
T ools
ch ing
ĠAl fred
M ary
E U
b ird
Ġst om
Ġmed ieval
t one
ai ro
Ġdeterm ines
ĠV ict
ĠCor porate
end um
ĠPark s
Ġro ster
Ġpe oples
13 3
ĠR ugby
id y
Ġar ise
}} $.
ĠJam ie
Ġtempor arily
Ġdist inction
Ġbe ings
Ġeth ical
Ġwork shops
Ġcos m
UT C
gu ard
c ence
ĠBre xit
pack ages
ĠT ib
oun ces
ĠB ound
G a
Ġr amp
f olk
p aces
ĠS id
Ġneg lig
Ali as
SP ACING
N D
Ġachiev ing
Ġball ot
Access or
S n
Ġsub tle
ĠPr adesh
Ġel abor
M a
ĠBuff alo
ĠS ym
fin ite
t ile
Ġre dis
Ġt ired
Ġder ive
Ġequ ilibrium
Ġinvestig ating
ĠC atalog
per t
ĠS aints
Ġg ray
ĠF act
t ax
2 25
Ġc argo
L ines
Ġs ake
ĠDC HECK
act ers
Ġ" )
Ġres ume
Ġcreat or
Ġat oms
Ġdist ancing
R ussian
ĠSh ang
ĠN athan
enc il
Sche dule
ĠSand ers
Ġm os
ĠVi enna
R ock
T L
ĠS ak
pe g
10 16
im ir
du ctions
Ġs ne
Ġlic ence
p n
Ġaccommod ation
ĠB order
ĠB ath
ro b
Ġdr illing
ĠNichol as
Ġattend ance
Ġdo zens
Ġadvant ages
Ġmist akes
w right
Ġa ux
ĠG ive
ch rome
Ġmag ical
ĠH indu
Ġ' ,
ĠE ve
cl i
Ġcan onical
dat etime
Ġ( ;
Ġpl ural
ĠC ub
Ġhe ating
EE E
Ġgener ates
Ġexpl ores
Sup press
ac ious
Ġhe aling
Ex it
ĠA round
ĉĉĉĉĉĉĉĉ ĉĉĉĉĉĉĉĉ
3 30
sl ide
pack et
Ġdemonstr ates
Ġprof ound
Ġe ager
Ġre vision
her o
f ive
S eq
Ġen semble
Ġmolec ules
in us
Ġf i
Y eah
}} $,
T witter
Ġres id
ĠM ental
ĠR oot
Ġsing ers
ĠN ancy
ĠC atherine
ĠIn side
Ġtechn ological
Are Equal
ĠF ly
Ġ æ
Oper ations
Ġr ape
ol ine
ĠF er
ĠUn c
date picker
ĠTr ain
ĠM ans
Ġsecre ts
Ġf ingers
ä¸ Ń
er ie
avel ength
ĠF ocus
Ġsmall est
ili ary
Ġ" ${
Ġact ed
Ġcor rupt
ent o
ĠBi ology
Ġmer ch
C redit
T ip
OT TOM
Ġpred ecess
Ġin clusive
c ached
ĠN HL
Ġmag azines
Ġspr int
ĠW ant
Ġrespons ibilities
is co
pro c
ĠForm er
Ġbond s
Ġan notation
omot ive
L ite
Ġenc ryption
ĠCamp us
ĠCon struct
t bl
ic acy
Ġgr an
ĠS eb
or por
15 00
Block s
z ing
Ġshift ed
ref resh
Ġunc lear
Ġt ear
ĠAl ert
Ġabund ance
ĠP AR
Ġbel oved
Y P
ĠB ot
ĠAdvis ory
Ġhol idays
ĠCom pl
hell o
W O
Ġstrugg les
ĠIniti ative
ĠAr c
task s
st orm
Ġ" );
ogn ition
ĠP rix
Ġp ension
F ort
add le
W ARN
ĠB ass
itt ers
max cdn
Ġloc als
Mod ifier
us age
Ġfear s
v g
Ġp reference
Ġdes k
with out
G uid
Ġt ile
En tries
Ġc inem
Ġhop ed
Ġv ec
N ONE
ull ivan
Ġwarn ings
ĠR ender
Ġsph er
Ġdiagn osed
cont rolled
Ġdon ation
ĠÐ ´
Ġlit igation
ĠOC aml
W arnings
ĠYork shire
ĠEd wards
Constr aints
ac iÃ³n
ĠW a
Pr inc
ĠE SP
ĠB udget
D ry
ĠD ementia
Ġquarter back
19 05
text ure
Ġ======= =
iz za
Ġart work
l iving
Ġspecial ized
Ġ" ;
Ġdis tribute
elastic search
gl ob
ĠS ure
View Controller
Ġpresent ing
Is rael
ens en
ĠWood s
Ġprov incial
ĠFil ter
Ġkne e
ĠArt icles
sur face
oot ing
H int
Ġsumm it
och astic
Ġz ones
ĠPer iod
Ġelement ary
ĠA verage
ment ion
N ever
AT O
ĠMar io
ĠFl ore
ĠHung ary
fil ters
Ġres erves
ĠCarl os
Ġtrans mit
ah u
Ġconv ex
ĠTH IS
p k
Ġmer ger
? ,
opt im
M ike
ĠB asketball
>( <
ĠPhil osophy
Ġexpect s
Ġl l
Ġde prec
Us ed
ĠCELL PADDING
re p
ĠDirect ors
Ġtax p
g ly
ol ia
Ġsuggest ions
Ġnav igate
ĠCELL SPACING
Ġag rees
ĠT i
IC AL
Ġvolt age
è ¡
$ };
ĠHash Map
is o
Ã ½
ew ay
ish a
EV ENT
ĠT YPE
Ġ. =
Ġdro ps
Ġbr ick
ĠCont emporary
Ġprelim inary
H en
ĠH il
Ġexplos ion
Ġso vere
ĠRem ember
Ġconfig ure
b ai
Ġtrem end
olog ic
sl ider
ĠTh row
Ġconfig urations
Ġdemand ing
mut ex
m us
att ach
Ġconduct ing
ĠFred erick
ĠF ace
Ġdef ending
W W
ĠQu ant
Ġconj unction
ĠL ives
Ġcont rolling
ĠSo on
Ġvacc ination
âĢ¦ âĢĿ
Ã Ĺ
Rep ly
Ġconnect ivity
ĠDev ice
ĠT ell
Ġveter ans
] ->
uk a
Ġmob ility
Ġcab in
ĠS ymbol
)\ ,
Ġcon ce
ĠS old
ĠC IA
ĠWe ather
tribut ions
ĠMod al
ĠMP s
m usic
Ġbe ating
" ?>
Ġam end
se en
r aska
ilt ers
Ġbo ats
C SS
IN IT
ĠInd igenous
value Of
F etch
ab we
Ġpre view
semb led
Ġpr icing
Int ent
ĠCond itions
o ard
ĠMat hemat
Ġelect oral
is y
pre ter
_ [
ong ue
ĠO thers
Ġun ity
Ġc ig
ia o
pe ated
ic ht
Ġdist ant
Ġarr ives
ĠRog ers
ĠH at
c ookie
T emp
RO W
project s
Ġcomb ining
ĠP D
ĠDan ish
attr s
Ġcru ise
ĠĠĠĠĠĠĠĠĠĠĠĠĠĠĠĠĠĠĠĠĠĠĠĠĠĠĠĠĠĠĠĠ ĠĠĠĠĠĠĠĠĠĠĠĠĠĠĠĠĠĠĠ
se gment
Ġar row
ced ure
m ust
Ġh anging
Ġl os
Ġdr ain
Sl ot
um ing
++ ++
Ġre lying
15 5
ĠGr an
ER Y
Ġrecogn ised
ĠSy rian
ĠU SE
Track er
Ġarr ays
dis patch
am ic
Ġpro pri
ĠP oss
]( #
Ġanaly tics
cond itions
ĠAssoci ated
Ġf iring
Ġ= \
t ake
serv let
Stat istics
Gover nment
Ġd ash
Ġfin ancing
Ġcreat ivity
ĠF at
Ġdesign ers
Ġenjoy ing
=" {{
ĠPro test
uff le
Ġviol ations
ĠInf antry
al og
ĠL ith
ĠPhys ical
! =
For ward
Ġacknowled ged
Ġrel oc
Ġshut down
ĠW alt
ip age
Ġspec im
N P
Ġelev ated
Ġl oving
Ch apter
Valid ate
Ġinter ference
Ġcompet itors
un s
Î ³
d og
Ġshel ter
Ġcomp ile
ĠSE C
com par
Ġ" _
FORM AT
Al t
aw esome
Ġgent le
Ù Ĭ
ĠStan ford
Ġconscious ness
ĠD h
ĠCon n
Ġroll ed
ĠE rr
13 2
Subs cribe
Ġcert ification
Ġwith d
Ñ ħ
Ġl apt
Sh ift
ĠC ob
Ġscript s
Ġst ub
g p
Ġstake holders
ok a
um i
Ġfun eral
Ġmembr ane
Ġbenef icial
ĠPart icip
ĠHall ow
Ġrandom ly
Ġbal anced
" ])
Trans fer
ĠC PU
Ġmet all
S ound
Ġl ymph
sc an
b undle
ĠL en
inher ited
Cert ificate
Ġexpect ing
P ane
path s
Ġdiscuss es
w ear
ĠDet erm
cipl inary
Î ¯
db c
Ġrem arks
Ġchalleng ed
ancell or
Fix ture
Ġinvest ed
ĠWell s
Ġnerv ous
Ġreal m
c ill
Ġfl avor
Ġf u
Ġstraight forward
iz ational
Ġrac ist
ĠAz ure
block s
imb abwe
g om
Ġv ir
ĠJ obs
Ġexecut ives
Ġcor poration
Met ric
in yl
Qu estion
Ġ} ).
Ġtrans parency
Ð¸ ÑĤ
ĠAut om
separ ator
IN DEX
}} ^{
99 9
ĠNorm an
CM D
sm art
Ġcorpor ations
um ble
unt ed
Ġg it
process ing
ĠComp etition
re z
× ¨
Ġp ole
Ġf ighter
Ġdiv ide
b usiness
PRO C
dl ib
Top ic
an Ã§
ĠCo hen
d td
Ġ ĉ
ĠW ol
Class Name
ĠMon itor
Ġinnoc ent
Ġstri kes
P ixel
Ġc ryst
Ġsc iences
ag ar
to ctree
... "
ĠInt el
Ġsh aped
ĠSh akespeare
Ġfl our
Sh adow
nd ers
car bon
m itting
Ġup set
Ð¾ ÑĢ
Ġbench mark
R NA
Ġsh ifts
Ġr ice
ĠĠĠĠĠ Ċ
af ka
ort on
App ly
ĠE L
ĠSer ge
L atest
Ġchar ter
sh aped
Ass ign
ĠS erv
Ġworld s
f ac
ĠS uz
ĠN J
Ġj oke
Ġsc andal
Ġs ink
ed ing
Ġattr s
h n
ymph ony
ĠBill board
Bi ography
habilit ation
Pro of
Ġinvest ing
S ar
ĠCommun ist
ĠTest s
ĠCre ated
h aus
Ġen force
ĠR ural
Qu ick
ĠAl t
Ġy ard
33 3
Ġsec urities
Ġf ru
ap ps
Ġsett le
urch ase
om eters
ĠAb raham
depend encies
h ole
Ġqu otes
Ġcomp ression
order ed
ĠW ing
op ening
Ġob s
Ġpat ri
in itions
ĠW R
ĠV ik
Ġconsist ency
m icrosoft
script s
ĠR idge
Ġver ification
Set up
Ġprevent ing
ĠS afe
ĠDel aware
Ġla unches
ret val
Can ada
co res
ith metic
" |
Ġrecommend ation
ĠT amil
ĠV o
ĠM ET
ĠAm sterdam
p el
Ġed itors
Ġt s
Ġst er
Q UI
In jection
Ġwealth y
G TH
Ġsort s
ĠGh ana
Sc ene
Ġdir ty
C s
Ġhor izon
" }
Ã Ĥ
ĠC amb
ĠBapt ist
Ġt ends
ĠIn j
Ġd w
oc o
Ġrenown ed
ĠVictor ian
code c
Ġpl acing
ĠTre nd
appro pri
Ġch apters
Ġtravel ed
Ġpers istent
à ¹
EX PORT
ĠG onz
Ġin comp
TR A
ĠSw ift
ĠÐ º
app ings
Ġt ick
B log
P ending
H i
ĠOr thodox
ĠCh art
Ġra ises
] ),
y our
Ġtour ists
13 1
Ñ ĸ
ĠV acc
St d
ĠProgram me
Own Property
ak u
Ġaccommod ate
ç »
19 09
Ġret ro
Ġal ike
ĠP ain
F ill
p d
ancell ationToken
ĠT yp
Un ivers
O s
ĠF resh
In vest
F ast
ok u
flu id
ĠK aren
ĠOver all
im o
heim er
Ġspect acular
effect ive
Ġweak ness
IT H
H om
Ġmot ivated
ĠAss essment
00 5
Lear n
ĠVer ify
Ġsurve ys
ĠH em
ĠZ ero
Bl ob
All ow
ĠMe et
pop up
Ġpeace ful
Ġarchitect ural
agon ist
Ġrail road
ĠEvery one
Ġj ournals
) }}
sl ash
Fr ont
Ġm esh
ĠS Y
Ġins pection
ick y
Named Cell
ad ers
Ġoccur ring
er gy
Rel ative
found er
Spe ed
Cent ral
Su ite
Can vas
: %
b ital
u cl
ĠS alt
Al gorithm
Ġc attle
2 12
Ġport al
Ġline up
ĠUs ers
C y
b u
c z
we bs
v d
br ace
Ġcle ared
ĠPlay ers
Ġg ifts
script ions
umbn ail
i ator
S B
set Text
And rew
Ġdiscipl ine
atter y
am bers
Ġhand ful
ĠHoll and
F ake
ad vant
H aving
et c
Ġspread ing
ĠEconom y
ĠL atest
roll ment
ĠJeff erson
ĠĠ čĊ
ĠQu ick
anc ers
um ph
19 06
Ġcount ing
Ġjust ify
ĉĉ Ġ
isecond s
im ag
ĠFl ag
ĠMed ic
L ab
14 3
M ir
os hi
ĠInitial ize
A wards
Ġbi ology
ĠT oken
Ġarr iving
Ġsubstantial ly
Ġinter rupt
Ġann oy
Ġsophistic ated
ĠS K
Ġcontinu ously
es cape
Ġdipl om
Ġtour ist
Ġcon clusions
place holder
ĠCat hedral
Ġpra ised
I FI
an ese
Ġcompr ises
pol it
Ġf oo
ro d
Ġrad ar
t elling
m art
Ġtest imony
__ ["
N ER
s ent
ĠEn try
Ġme als
ent ries
est on
Mark er
ĠU TC
ĠCh oice
ock ets
Ġcust ody
ĠG MT
-------------------------------- ----------------
ĠSpe aker
ĠE ye
13 7
C apture
Ġmin eral
Ġautom ated
Ġcloud s
Ġindic ator
il ia
or p
Ġsk i
Ġn ested
th al
Q t
Ap pe
ĠBr ain
Ġr outer
ĠY ellow
des cribe
ĠCr icket
Look up
trans late
Ġz oom
Ġdist ances
Ġsph ere
role um
Ġarg ues
e cca
th lete
ME M
Ġprov es
Ġs ig
ĠGL int
T ensor
}$ )
ĠD ennis
ĠL INE
* >(
ethe less
Ġwh ites
Error Code
Ġproduct ivity
ĠRequ ired
FFFF FF
Ġret reat
qu est
Ġlabel ed
Ġre vel
Ġaccur ately
ĠWild life
R oman
ĠC inema
stream ing
agnost ic
ĠAn im
Ġal i
Ġdes erve
Ġwond ering
B etween
Ġ$ ('#
com ed
Sc heduler
Ġqual ifying
20 4
Ġev ac
Ġund ers
ĠEdd ie
Ġfoss il
Ġf illing
Trans lation
ĠGL enum
Me asure
ber y
ĠPhot os
V EL
å Ľ
gener ic
ĠF ashion
Has Been
gener ation
Ġrenew able
ĠS or
Ġlook up
Ġdis closure
Ġign or
Ġp ig
Ap ple
Ä «
Filter Database
Ġcollabor ative
ĠE ug
ĠSh ip
Ġrad ial
File Path
Ġafter wards
Ġg lyph
> {
Ġp uls
Ġsup press
plement ed
ĠExt ension
Ġint ens
sc apes
i ological
ĠC ov
Ġobl igation
H ey
ĠS yntax
Ġqu asi
Ġam bit
Ġabsor ption
J ose
am mat
Ġur ged
Ġfeed ing
ĠArab ic
ĠTy ler
Ġcare ers
N AS
Ġp ink
br anch
ĠC au
ĠH ob
AB ILITY
Ġg rap
je ctions
Ġreserv oir
E s
ĠParliament ary
ĠCon vers
min ipage
Ġmon ster
ĠR av
ĠDub ai
/ ?
C AR
tik z
2 15
e ur
ĠB omb
sub string
CL I
Comp any
work er
ĠPsych ology
Vis itor
á ½
ĠHol iday
ĠParam eters
ĠCh and
ĠTest ing
Ġadminister ed
Ġaud it
Z oom
ĠDis covery
ad apter
ul er
ĠMont ana
Austral ia
n m
n ational
ro c
TEXT URE
Th ough
ĠM ove
Ġdr unk
Ġtrav elling
ĠChem ical
Ġout s
18 80
Ġav iation
RO OT
Ġen act
Rec ent
Lower Case
Ð ±
ĠN om
Ġres idual
ĠChel sea
Ġac oustic
k ed
ish ops
Ġent ers
Ã© n
Ġreg istry
Ġle an
20 3
Ġb reat
Ġmed ic
Ġin cl
is ure
ĠDef inition
Ġprotect ive
ĠÂ ±
L ess
Ġd ip
ĠK ash
M ilitary
Sh arp
ĠCris is
r v
Ġimag ination
Ġtw ist
Ġtra uma
w i
am pton
ĠAn alytics
ĠAn cient
ĠMichel le
Ġreason ably
Ġfarm ing
ID ENT
="# "
Ġv o
Ġcompos ite
Ġs ew
ar an
ĠC ache
ever y
ĠB ra
.~ (\
k ers
vert ex
E LEMENT
ĠHel en
ĠPhill ips
ĠP rest
Ġmon ument
* .
Ġal igned
B ob
S rc
orpor ated
ĠM atter
'] ))
et ta
ĠF ramework
Ġexp end
sub Nav
Ġsuccess or
Function s
ĠMot ion
ust ering
Re place
Ġapprox imate
ĠY am
Im ages
% ),
' ):
B ay
Ġprivile ge
ĠCoun sel
Ġpsych ology
D igital
al ink
Ġexpl aining
Ġwhere in
M il
Ġden oted
Ġsurviv ors
Ke ep
port ion
man ifest
: }
g em
ammat ory
? </
Ġt ears
ant ics
} "/>
Ġburn ed
Ġrem ind
Ġtreat ing
s lds
ep h
art icles
Data Type
tract ed
ĠHallow een
look up
eng u
ĠBer keley
Dest roy
Ġmurder ed
u ition
Ġw ings
ograph ics
Ġal umin
fr ag
b ane
CH AN
Ġob server
Ġdim in
ĠAcad emic
ĠM ob
m un
id ity
20 5
19 04
Ġcreat ures
S und
L im
Ġint im
ĠW A
Conf irm
ac a
ch air
Ġent ropy
Ġdep icted
c ott
Ġp ulse
ĠO DI
az i
× ľ
l ic
iv ot
ĠGr ade
Char les
Sm ith
Ġcop per
13 8
Ġsol ved
Ġpick ing
ĠNE W
is ch
Ġin cons
Ġd x
r ise
Ġsp y
Al bum
ĠHamilton ian
ĠT un
Ġpl ots
ĠGl en
ĠF T
An notations
h bar
P et
R en
Ġaccept ing
M ur
Ġbul let
Ġm a
Mult iple
d ataset
ĠC off
ĠĠĠĠĠĠĠĠĠĠĠĠĠĠĠĠĠĠĠĠĠĠĠĠĠĠĠĠĠĠĠĠ ĠĠĠĠĠĠĠĠ
im er
ĠV ert
FA IL
Up per
ibl ings
2 11
Comm unity
vert ed
K ernel
Ġpra ise
Ġend if
Ġth y
Ġd t
Ġre ceptor
Ġrele asing
d al
AR GET
ential ly
olec ular
ĠStr ong
ĠC uba
Ġp ip
Un ity
lear ning
Ġnon profit
ĠMu hammad
S ets
Work s
Ġres igned
Found ation
ĠIn cre
ĠSec urities
+ "
g on
Ġp ocket
Ġref use
Ġefficient ly
WR ITE
ĠNash ville
b ecause
udd y
L ittle
Ġab ol
Ġgr ain
m iral
ĠN ormal
ĠC urt
Ġle ather
Ġqu it
Ġinvent ory
c url
ĠFil ip
LE T
Ġdrink s
ib e
ĠL ions
14 6
ĠA WS
ĠB orn
power ed
? (
Ġinter ventions
Ġ&= &
ĠC ant
HasBeen Set
} )$,
ĠSh adow
Ġu pt
az ure
Ġentert aining
Ġdis rupt
Ġsub stitute
14 9
Ġsubsidi ary
ĠBut ler
im ity
St yles
Ġgu ided
P ref
p f
sh ine
Ġlaunch ing
ele g
Ġachiev ements
ĠR N
ast ro
S ig
ĠJul ia
ĠGard ens
off icial
Mer ge
Ġc ere
V ill
hash Code
G it
Fr ance
Ġz ip
Ġescap ed
com ments
Ġre forms
ĠDer by
ER IC
Ġspec ifies
ĠY eah
ĠAct ivity
Ġill um
l ists
By Name
J eff
ĠH us
ici ary
C ookie
ÑĢ Ðµ
ĠL loyd
Olymp ic
new command
r ator
Ġbel t
Ġmot ivation
Ġspeed s
Ġmechan ics
h base
Ġch icken
ĠA CT
Christ ian
ĠNS String
pos er
ma jor
ĠString Builder
ĠEx amples
ĠGener ation
ĠHar vey
ĠN ames
EN C
$ ),
Ġbad ly
Ġy eah
Ġleg ally
Ġwitness es
d ue
Ġf usion
G raphics
R ail
Ġw ages
Ġlim iting
Ø ³
ĠC ox
Ġw orn
c u
19 07
Ġactiv ated
Ġvac uum
ĠHug hes
aj a
An aly
: =
b ounds
ĠK os
ĠK itt
ĠColomb ia
Data Source
Ġp orn
19 01
ĠS ays
Ġem barr
Ġresearch er
cript ors
Po jo
Ġclim b
ĠR uth
( --
21 7
` )
ra ise
Mill is
Ġsub group
erv atives
Ġful fill
2 32
initial ize
> .</
ek s
ĠZ end
Ġaff air
Ġdes ktop
Ġconfirm ation
ĠUkr ainian
: &
Ġconsult ant
D ou
zer bai
ess a
100 00
ĠI g
ĠFr ances
P adding
ig gers
ent e
Ġport ions
Ġap par
Ġpen et
Ġtrans itions
row Color
Ġwhe els
Ġere ct
Back end
Ġc url
(" .
post s
Ġde ar
Ġin quiry
ĠK in
13 9
/ (
r isk
="../ _
Pol ice
d evelop
ĠOp port
Ġgr avit
Ġb ubble
Ġbuy ers
Ġdisappoint ed
Ġcom plications
Ġsoci eties
Ġeth ics
Ġsurg ical
t ables
Ġ ÏĦ
Ġsurre nder
ĠUp dates
ĠMil waukee
s ame
Ã ¦
ĠM end
B ank
ĠC ad
FT WARE
g ement
op am
Ġall iance
ĠHill ary
am ation
ĠZh ang
R oll
ov ich
ĠH MS
R IGHT
FRA ME
c urrency
Mod al
i q
am o
}} )
sp irit
Ġdim ensional
ĠAr ctic
Link ed
- ">
................ ................
het or
part ition
o qu
Ġm akers
ĠVal ues
Ġdecom position
bour g
ĠA part
Ġpoor ly
15 2
Ġtem pl
it us
ocr atic
tool bar
p ine
all ed
Ġsc ar
ĠF ixed
Ġincre ment
Ġle ak
ĠW indow
Ġinter pol
ĠF IG
Ġs our
Ġsent enced
Ġannoun ces
CL U
Per cent
Ġpros per
Ġsan ctions
Ġb uff
14 7
Ġmod est
ĠSet tings
ĠS ierra
ere k
anc ies
ĠY e
Ġlimit ation
ĠB ald
Ġmod ifications
C ong
/** */
ĠR ou
Ġend orse
ĠCon st
ĠS occer
um per
ĠArt ists
Ġmathemat ical
hedul ed
S ent
ĠRe ed
h ad
Ġdev iation
Ġpath way
Ġbehavi ors
ĠV lad
H I
Ġind oor
Ġreg ards
Oper and
M ot
ĠS outheast
Ġr ush
ond e
brit ies
ĠT ampa
ĠA str
Ġr hs
Ġcond itional
Ġcro ps
un ts
ĠM ul
ĠL arge
ĠO FF
Ġrefer enced
ĠR B
Ġun e
ĠQu estion
Ġsynt hesis
Ġgard ens
G G
ach i
fin ity
Check ed
ĠI o
ĠC ONT
Ġdet ector
Ġn urse
Ġswitch ing
Ġplan es
on ian
pos itive
Ġterror ism
Ġp ad
ĠInt o
ĠM ong
pe er
Americ a
W ild
k le
ĠB our
Ġb ail
J P
ĠD ir
ĠAt tribute
ĠW I
Ġf ictional
Ġs word
il iation
Ġ\ !
40 1
over lay
RE AM
inc inn
les h
ty p
Ġle mma
." ;
cs v
R outer
s ources
Ġbl end
Ġretail ers
ound ing
St ill
ĠCON DITION
Ġh alt
ro v
$ ~
A h
ĠPro b
Ġf are
Ġprior ities
Ġdefend ant
sp ark
Ġcr ick
Ġadv ances
e ctions
Ã ĥ
L T
ĠO THER
Ġf ram
Ġany body
Ġtr ump
Ġrecip ients
Ġfl ed
Ġperiod ic
' "
Ġloc ale
ĠLeb anon
ul atory
Ġmin isters
Ġcent ered
Ġco at
E conom
LO B
ĠM umbai
Ġh iring
idd ing
Ġimport ed
field set
Ġcous in
St e
An chor
Ġelim inated
op ol
ĠR angers
ĠH erald
Ġfil med
Ġterrit ories
Ġped est
Ġen rolled
Ġcompr ising
n ut
re ts
ĉĉ čĊ
yl um
Ġcha os
are l
st ation
Ġambit ious
L ater
ĠTreas ury
c uda
Ġear ning
ĠOr lando
ĠM es
ĠL akes
Ġdes criptions
ĠCal endar
ĠR ather
ĠThe me
Ġsent ences
ĠNS W
ĠT ournament
ok ia
Ġhor r
ĠBl u
Ġpull ing
aus ed
Ã¨ re
acc ur
Ġspokes man
ec ycle
}[ \
Ġinv oked
put es
Ġdistinct ive
ĠPos ition
b etween
Ġin duct
ig ue
ĠPet e
d ump
writ ers
Ġcritic ized
ĠK umar
ĠT rophy
ĠS ter
hol m
shall er
Ġs oc
t ot
Ġembr ace
qu ick
cam el
E O
op acity
Conn ector
="@ +
ĠDirect ory
ĠSal v
mod ifier
render er
ĠAct or
ĠC ash
Ġpure ly
ent i
ĠAlex and
M id
Ġ/ ><
m any
Ġtrans mitted
Ġtr ap
Ġfail ures
ĠPr ison
Ġinitial ized
Ġalter ed
Ġstrugg led
en es
Ġfre ely
Dest ination
ier arch
f uture
ĠB MW
ĠL is
Ġfest ivals
F IL
Ġsh a
ĠFle et
11 11
Ġtruck s
uss els
Ġver ified
Ġorgan ised
Ġlift ed
c ue
ĠH arm
trans fer
ĠBeng al
over flow
che ster
( `
W ashington
ĠCO MP
v ance
is ers
back end
r ang
ph abet
s z
Ġdis contin
ĠRod rig
S IGN
ĠV M
) -\
w ikipedia
A UTH
ĠD aw
ĠNever theless
Ġdress ed
28 0
) +\
G ateway
ot yp
Ġhapp iness
ÃŃ n
Ġpl ug
,\ ,\
deg ree
Ġcall er
dr ag
ut ton
Back up
ĠMar x
ĠLe o
un iform
qu ire
ĠLi u
c py
20 8
ele brities
Ġres ist
D ue
ĠSche dule
| _{
Ġw ard
U t
Am ong
Ġh iding
her ence
) }_{
Ġw it
yl an
s creens
Ġep it
ĠF oster
Ġmoth ers
t alk
te chn
ĠÐ ¾
Ġfurn iture
Ġd y
Ġworth y
SET T
ĠRail road
it ely
ĠG am
Ġhar assment
Ġch lor
B LOCK
Ġinvest or
ĠÂ «
ĠTri al
Ġcivil ian
Ġblock ing
ĠB ir
ĠMat rix
dis k
ĠAnt ar
ĠNep al
Ġe ars
Ġsim ulated
incinn ati
à¤ ¿
cr im
Ġinter faces
Ġconnect s
Ġat tractions
ĠHe brew
Ġgr at
Ġf ame
od ium
Ġnon linear
arg v
Ġox id
res olution
50 1
Ġreven ues
Ġassist ed
Ġmar ry
f aster
Ġthe sis
ĠLa unch
el ia
ĠReg ulation
H ER
U int
U UID
et ed
EN S
ĠCh an
ĠS ens
ĠM ann
ĠG C
Ġtra its
Ġpost er
ĠMil an
Ġb ags
ĠI celand
con tract
Ġsurv iving
+ (
Ġdecre ases
Ġmuseum s
b idden
T urn
Ġd ign
m icro
ĠRem ote
Ġf ond
ent ine
ĠRepresent ative
Listen ers
sh arp
ĠTh under
Ġ ../
SER VER
s amples
ĠChem istry
Ph ase
Ġmethod ology
Ġhol y
Fil ed
Ġcompan ion
K S
is ible
ol ation
==== =
D ist
ĠAll ah
Ġun ions
Ġper ipher
Subs cription
Ġpl ates
ME SSAGE
ĠM iles
Ġpun ishment
Ġr iders
) *
L arge
ĠLe eds
ĠNov a
ĠTrans action
P aint
Ġprotest ers
ĠS weet
Ġattr action
/ #
Ġf oster
ĠRe yn
Ġrespect ed
ĠR osen
ĠF est
Second s
Ġdel ays
ĠNeb raska
Ġass ists
Web site
Ġtr agedy
Path s
G UI
Ġb ureau
Ġs i
ic ia
ling ton
Ġw ore
ĠBrig ade
F ive
act iv
Ġmark ers
J ew
Com plex
re a
bo ys
Arr ays
b matrix
Ġsatisf action
g irl
ĠInd ividual
or ange
ĠI MP
R eb
Ass ignment
Pop up
UP DATE
N ING
enc ia
ij i
Ġwel comed
Al ignment
ĠCh anges
ap or
Ġhope fully
Pay load
m ot
ud s
Ġadvoc acy
ĠM enu
)) $
Separ ator
ĠMin i
Object ive
ĠJ ar
ale y
ĠLie utenant
s il
ing o
Ġmedal ists
establ ished
Ġdem o
ĠG az
ĠS TR
Ġind ent
Ġp ython
Ġde ce
Ġcomb inations
Ġto String
ĠPat ients
ĠS aw
Ġex clude
ĠL if
E ST
G N
p riority
Load ed
Ġdi agonal
Ġpredom inant
Ġprec ip
ĠE asy
f act
Ġman ually
ĠPier re
B er
Ġtr unc
N orm
In ject
gover nment
Ġb ay
Ġsup ern
19 02
Ġ# #
Ġbe ars
âĶ Ģ
Ġs lope
Ġo l
Ġthr iller
Reg istration
ne um
Ġpoll s
ĠJer emy
econom ic
consc ious
im on
n ick
ack er
ĠU V
c art
Ġyoung est
ĠE ff
Ġd war
; %
Ġprest igious
ĠU C
Ġtoler ance
is se
ĠU ntil
ĠPart ner
ĉĉĉĉĉĉĉĉ ĉĉĉĉ
Ġm eg
as ide
Ġshall ow
Sm art
Foot ball
Ġe ighth
v ature
Ġinsert ed
OB JECT
ĠD ol
Ġembed ding
he w
ĠSp encer
Ļ Ĥ
ĠG ra
H AL
c aster
ĠJ ake
---- ---
Ġw are
Ġden y
Ġr ings
mar ine
Ġmaintain s
Ġhistor ically
Rep resent
^* $
Ġang les
ĠS DL
ĠD rop
Ġsc rew
Ġresp iratory
16 6
ĠBob by
Ġb alls
ĠCh ase
You ng
Ġcab inet
th ink
ĠA id
Ġam ended
Ġtim eline
Ġattack ing
S ex
Ġinterview ed
end ering
pr ising
Ġend e
ĠTE ST
constr aint
ĠLu is
19 03
30 4
append Child
h ou
Ġpartnership s
Ġjud icial
ĠTour ism
S ol
Ġout lined
Ġsacr ifice
Ġmer chant
g c
15 7
Java Script
d ro
ur ious
Ġcle ver
Ġl ane
ĠF iles
Ġk g
Ġread ily
ĠPal m
ĠCoal ition
Ġdark ness
Ġcontain ers
gom ery
LEN GTH
T alk
to LowerCase
D ao
ĠO w
Ġtrad emark
Ġj unction
ĠRem arks
ĠOtt awa
re verse
Ġinn ings
sc opic
hen g
parent Node
in ology
Ġtou ched
Ġ Ã©
ĠM ode
Ġto b
14 8
Ġrecon struct
ĠP att
Se ason
Spr ing
Ġener gies
ĠLeon ard
Ġemp irical
c ern
15 4
ĠSc ar
h p
Ġhar sh
ĠStr uct
Ġgirl friend
ĠW rest
Ġad oles
k an
ĠLind a
' },
ah an
z b
Ġaltern atives
N OS
c x
ri ends
Ġsh ar
ĠBl ake
Ġcell ular
ern ate
ĠHar per
tr aining
ĠT D
Ġg aining
}{ (
d id
ĠG em
Ġ/* !
Rad ius
L i
Ġtop ology
Ġhon ored
Ġoccas ional
Ġcl ine
be it
Ġe gg
Ġrhyth m
v or
al ter
" </
Ġb uck
n om
ĠForm ula
Ġsport ing
Ġbl ues
Ġc ss
4 80
IT S
A ge
aaaa aaaa
M AC
ator ies
Ġint imate
te le
ĠGrad uate
Ġo ught
ge ometry
() [
Ġen compass
Ġguitar ist
ĠCar r
Ġinsp iring
ĠCh arg
Ġso ap
ĠJ in
ĠHe aven
ĠFl ow
ĠAb b
B as
z el
in verse
ynchron ous
ĠCh i
M onday
ĠEag les
ĠC V
Ġw ise
O W
ĠLook ing
ĠB rief
ĠS oci
Ġmathemat ics
le af
LE ASE
Sur face
---- -
Ġsw ing
ĠIS O
Ġ$ |\
14 1
Ġoffer ings
Ġsac red
Ġtag ged
2 64
> -
ĠId entity
Ġcelebr ating
ĠCONDITION S
ut er
Tele vision
ĠB OTTOM
ĠRoman ia
se ek
b is
St eve
Ġpress ed
Ġi Pad
Ã© r
h um
P ages
b ishop
ĠT error
erg us
ĠBes ides
Look ing
Ġn ortheast
Ġis ot
do es
ĠMus ical
Ġtable t
ĠProject s
Ġh ierarchy
Ġ(! (
og g
ĠBrook s
Ġoverl ap
ĠT ypes
ĠSub ject
Th ursday
ve e
ast ore
Ġvac ation
Act ual
Ã¶ r
m os
Ġg aps
ĠQu estions
T uesday
à ¦
Custom er
Ġtact ics
d eb
Ġpers pectives
:: $
ĠPar ad
Ġbi om
Ġvalid ity
Ġaccept s
ĠLegisl ative
ific ant
ĠK yle
Ġinv ite
ĠTher apy
U ML
w ire
Ġextr action
ic ism
ig ating
Status Code
avor ite
, </
Ġj ack
ian ces
mention ed
G erm
ĠL an
15 1
unc an
Vis ibility
Ġg em
ĠB B
inter est
Ġauthent ic
ĠN A
set Attribute
Cl ub
ĠCont roller
Ġcub ic
Ġinsp ire
Ġar ising
i ots
ĠAt hens
=- =-
Ġm apped
ĠP si
Ġsub stit
Ġconcert s
Ġpreval ence
ĠS ymphony
ble ms
Ġ ì
Request s
Ġcount ed
Ġmem orable
Ġexcell ence
Ġdist ress
Ġconstit ute
m ans
18 8
Â ½
ip ment
G re
Ġproceed s
ĠPop ular
Ġgrand father
Ġche ese
Scal ar
ĠTre k
Ġnew est
fav icon
ĠL ud
MA G
Ġfe ver
Ġkw args
Ch inese
Ġdelight ed
O l
ĠM ull
Ġnob le
T em
ĠL ED
) >
Ġout lets
Ġintrodu ces
ĠInter face
ĠHar bor
Ġharm on
p us
q q
ĠStrateg ic
tr ad
Ġtrad ed
Ġprogress ion
ĠD S
Ġten ure
ĠSt uart
Ġto ile
MA IN
g ary
Ġn u
Ġind ication
ĠAc cept
ĠT F
lo ating
U Int
ok o
ĠP om
Ġplay off
op ath
Ver b
ĠSt ack
Ġcomb ines
Ġdesper ate
Pop ulated
ĠHit ler
Ġt anks
Ġh i
Ġcomm emor
Ġperm its
Ġp ale
Ġdro pping
Ġ/ ></
size of
R ank
Me et
ĠZ imbabwe
ĠR ey
Gr and
18 70
Ġweight ed
Ð ³
F und
Ġdisag ree
F ace
s ender
Ġclin ic
'' '
non atomic
Ġinc idence
Ġmax imal
Ġanth rop
x e
du ces
ĠCO MM
W C
Ġv ic
ĠPar ish
Ġadvoc ates
ĠO m
Ġvar ies
Ġgod s
ĠW ag
ĠBatt alion
Ġeff icacy
Ġrent al
Ġuncertain ties
Ġsl avery
und les
ĠR alph
ĠPer u
P icker
Ġl azy
30 1
ĠH appy
ĠX ml
Ġvari eties
ĠD ATA
h arm
se p
ipp et
ĠR ams
Ġtim ely
Ġfar ms
nos cript
es ity
Lear ning
he nd
Requ ire
Dim ension
T l
Ġgr ades
Ġdisappe ared
ie ge
Ġcred ited
ch annels
Ġident ifies
ĠAust rian
ĠV ermont
Ñ Ī
ĠĠĠĠĠĠĠĠĠĠĠĠĠĠĠĠĠĠĠĠĠĠĠĠĠĠĠĠĠĠĠĠ ĠĠĠĠĠĠĠĠĠ
ĠTes la
Att empt
Ġchemical s
Th ird
pre view
th ood
ĠL amb
Rec ords
tr on
Ġde alt
__ .
ref lect
Ġunder graduate
Ġwitness ed
F ood
Ġex ec
del im
æ ī
Ex tract
Ġgover ned
ĠSte am
in is
Ġd ashed
ĠHung arian
ion ic
ĠC ities
yg on
os i
Ġrel ies
Re ceive
Ġqual ities
Ġportr ayed
Ġse aled
ĠOak land
r ant
Ġadm its
Str ip
Ġprevent ed
Get String
ĠRet ail
G D
N s
ĠCh a
r x
Ġcelebr ity
ĠMont e
Ġminim ize
fil m
Ġparticip ant
Ġh orm
Ġbe aring
z oom
aw t
DO WN
More over
$ :
Ġa pt
ass et
Ġul tra
Ġgener ous
bro ok
cor rect
SD K
n io
Ex amples
or ro
reg istry
Ġw avelength
Ġimpact ed
ĠSt ef
Ġdirect ive
ĠP ret
Ġtraject ory
m x
Ġfif ty
Ġm aj
ĠGu inea
ĠMor r
s an
ĠR ice
ĠÎ ±
---- --
ĠNurs ing
Ġc ats
sl f
Ġunn ecessary
c ery
ĠPresident ial
Ġrat ios
ĠTr inity
Ġnetwork ing
pat ient
18 5
ĠFI FA
Ġem it
ĠC B
Ġan ten
Ġmod er
Ġgeneral ized
) {\
ĠC ases
ĠP ink
Ġnew er
Ġt ongue
Ġca ution
Japan ese
Ġconfer ences
Ġover night
Ġge ometric
Ġemer ge
Ge ography
Ġthick ness
Ġthere of
M icro
Ġgl uc
Ġpublish ers
Work ing
S yn
b x
Ġdram atically
en za
c ategories
Off ice
ĠR ah
eff icient
Ġcomp atibility
Br anch
Ġtrans cript
ĠG ate
p ared
fil er
Whe ther
ac ion
Ġanaly tical
Ġsuff ix
ĠCont ainer
f ef
av ier
ĠDr iver
$ _{
Ġin duction
ĠCl aire
dir name
Ġlast ing
Ġmanufact ured
m are
w al
Ġ um
ĠM R
Ġrel atives
Ġatt orneys
ĠField s
Sche me
Ġearthqu ake
ĠVenezuel a
Ġimp ly
ĠS um
Ġqu arantine
Ġprem ises
ĠBAS IS
Stud ent
ĠC raw
ĠG B
37 5
( []
C op
Ġphys icians
subs cription
STR UCT
Ġfl aw
Ġep och
J ac
ĠKnow ledge
L ONG
ĠGreg ory
_ -
Ġrem inded
Ġcru el
Ġsynchron ized
ĠBenn ett
AT T
å ¯
Ġr ip
ĠMc Donald
Dis tribution
H a
W D
Ġillust rate
ĠGro ve
Ġsub section
ĠMer cedes
Ġlength s
ĠAdv oc
ful ness
Ref lection
first row
Ġval ued
Ġsimilar ity
Cal ifornia
ĠBeaut y
ĠT ips
ĠS ah
mult iple
D a
N F
Ġd s
Ġreli ability
P K
() ]
gr ades
ĠÃ Ĺ
Ġreason ing
Ġcol ours
ĠCare er
iov ascular
ambig uation
6 50
ĠAthlet ic
Ġl ingu
un ing
ĠInt roduction
Ġsuggest ion
Ġp unk
uc le
Ġbr idges
success ful
ĠM az
Str ings
Ġcomp assion
we ak
Ġstat ue
ĠS TD
ex tract
ĠI van
ĠC ool
old ing
ĠR ate
ĠS leep
ent ric
Ġtremend ous
ĠS TE
Ġcontin ent
t uple
Ġco oper
Ġcorn ers
n ai
um bs
sec ure
ĠAn imation
P ars
Ġc s
M ic
ch anging
ĠD od
custom er
ĠSh ows
Ġtrav els
ĠU E
Ġsh irt
Ġwh is
Ġ// -->
Ġque en
ĠClar ke
Ġprohib ited
Pro s
Ġgu ides
t an
Cred entials
por al
const ants
Ð¾Ð ´
ĠL oss
Ġ' ')
ĠEag le
T OP
Ġnow here
K ar
Ġlast ed
v n
Ġmot iv
ĠTig ers
Ġle ver
ÂĢÂ Ļ
N ick
Ġse am
ett i
ĠWall ace
Ġhaz ard
ĠE ight
ĠA K
pos able
j obs
RE L
Ġconsum ed
Ġc ater
Ġpat rol
Ġpost erior
inv oke
Ġsus cept
Ġs urname
ch arts
Ġform ulation
input s
Ġj er
Ġdial ect
| }{
Vari ant
m achine
Ġdeg ener
ĠCom ing
Write Line
per mission
Ġ' $
15 9
Ġinteg rate
c ies
Ġsk illed
ĠAn a
Sub mit
Draw able
Ġproduct ive
ĠCoun ter
Ġun cle
External Task
Ġcancell ation
Ġther apeutic
l ord
ct ors
met ric
id ually
big l
Ġint ensive
In her
ĠB ag
aver se
ast ics
uls ion
Ġdou b
Event Args
ct uary
Ġdr um
ĠU SS
F ROM
Ref resh
Stack Trace
V ote
ĠTib et
ct rl
Ġfinal s
in ement
el o
\ }$.
ri o
F oo
ĠTra ffic
Polit ical
i eg
ĠN ak
00 3
ĠCert ificate
ich i
cons ider
ĠReg ulations
Ġc ad
Ġdis abilities
Add ed
S aturday
Ġfin est
ĠB ach
Ġkick ed
Ġint ake
prec ision
ĠSp ider
k now
Ġprim itive
Ġrece ipt
ĠR PC
Ġperman ently
Ġ[ {
g al
Ġst ones
B ibliography
over ride
Ġn ons
as se
Ġpseud o
h im
ens ation
comm end
Ġd atabases
Ġdepos it
TO OL
par allel
L ev
ĠTh ought
ov an
Ġatt achment
oun ge
text area
Ġd ock
Ġnorth west
<? >
com merce
Ġext ensively
Ġload s
> )</
S in
the mes
ĠNiger ian
Ġtri be
Ġentreprene urs
ard i
Ġr iot
or f
mon itor
ĠM M
sl ot
Ġthreat ening
ar ial
ĠSher iff
re nd
F all
in as
ver ts
ĠM ine
Ġsub t
ĠSO FTWARE
Ġprior it
ĠP av
ob ic
ĠSom ething
Ġrecall ed
ĠPut in
Ġb ones
on er
ĠAt omic
faster xml
ov y
Ġsubs cribe
Ġkid n
ffff ff
on aut
ast ian
Ġbro ker
big r
Link s
Ġbreath ing
ĠAl pha
Al tern
up iter
Al ign
Ġrespond ing
ĠShang hai
ĠNOT E
sh ots
Ġpil ots
Ġemp ire
Sever al
ĠĠĠĠ ĉ
ic ers
5 50
or um
ĠHol mes
Ġtr apped
Ġproport ional
Ġsurprising ly
f un
Ch at
\ /
ĠS U
ĠC elt
ĠT ools
ear ly
Ġx si
Ġo d
ĠM aps
Im mutable
Ġshe ep
Ġlog s
Ġt ender
en ario
int ent
by e
M att
ĠP ref
flu ence
Ġtob acco
ĠJul ian
Ġh ills
Ġun fortunately
ĠCar bon
Ġtrad itionally
ExternalTask Pojo
Ġp unch
,\ \
ĠRoc he
ĠS ame
ĠB anks
ĠNorth west
=" {
ad ic
ex tr
Ġexcit ement
av in
Ġcomm od
d ings
h box
ind ices
ÑĢ Ð°Ð
Ġre ck
ĠB S
ĠMoroc co
Ġplay offs
Ġmed ication
abul ary
im plementation
Ġaccompany ing
14 2
ĠMar cus
display style
FO RE
ĠMun ich
ĠTr igger
Com ments
Ġcop ied
str ict
Ġfix ture
ĠC AN
ĠRec overy
Call ed
Ġacc us
MA KE
Ġr s
Ġten ant
Ġaffili ated
ĠM ills
ĠModel s
' =>
res olved
Ġr c
Ġlack ing
ĉĉĉĉĉĉ Ċ
Ġcontact ed
Ġre ass
ĠAl ways
Ġstruct ured
at ics
Ġi i
ĠEn cycl
ĠLink s
ĠN Z
ĠHor ror
ĠN uclear
Ġconsider ably
config ure
ism iss
âĨ Ĳ
s al
at um
umb ent
ATTR IB
ĠH ours
Ġtri angle
ĠMc L
Ġfro zen
ext ype
ĠV AR
15 8
ST EM
to Equal
h istor
ĠS ed
am as
ploy ed
Ġsim plicity
ĠA way
Ġdest inations
Ġ"- //
ĠToy ota
go al
Ġconv iction
BUIL D
T ables
min ster
H ide
B IND
an aly
it les
Ġviol in
Ġfight ers
Ġo c
Ġsw ift
N BC
IR ST
âĨ ĳ
in come
Ġaver aged
size i
18 98
ĠP owell
AC HE
ĠE sp
bad ge
Ġbed room
k ill
um ably
Ġrenew ed
ĠOr d
ĠTe aching
fig ures
Ġare na
ĠM IN
Ġincor porate
St ates
/ '
s With
uck land
av ern
ĠMyst ery
Ġconf idential
Contin ue
Ġrel uct
Ñ İ
en h
ĠB A
it ary
Ġd os
Ġmort gage
ĠEn able
D ead
ĠG ang
semb les
ĠS ax
Ġ} ),
ĠPro ductions
conf irm
Ġelev ation
Publ isher
amp ire
ro e
Ġen jo
Ġdeterm in
charg ed
Ġche er
Equal To
ĠE t
Part ial
ĠParam eter
` :
m r
Ġg al
x l
ĠSch w
Ġtable ts
ĠColumb us
Ġwas h
? !
at ivity
Ġderiv atives
f requency
MS G
0 10
per formance
reg ex
default s
Ġm aker
ĠÃ ī
ĠC HECK
Ġdis par
Ġdes erves
ĠPot ter
ĠTrans fer
Ġunf air
g ray
ĠIs aac
ĠVen ice
Ġp ian
ĠB ak
20 7
Ġp ond
ĠP ars
c ook
F IN
V IS
) &
ĠT ouch
am ar
Ġver se
ĠMult iple
AND LE
r ans
PA SS
T own
w ent
Ġtr ails
N ested
at ra
Ġs q
man uel
Ġcart oon
ne apolis
Ġjump ed
ĠV as
Mart in
pre vent
Ġdemonstr ation
Ġselect ing
mod ified
Ġch ap
Ġconv ince
ĠPhot ography
âĢ ²
Ġgame play
ĠR d
un its
Ġshow case
Beh av
icy cle
J un
Ġv inyl
ĠG DP
st roke
Ġtr agic
ud o
Ġpharm aceutical
Ġsleep ing
Ġdies el
Ġple asant
ĠP ub
ĠInstit ution
Ġocc urrence
ĠW ords
ad just
S ir
op al
Pro duction
ĠMan aging
Te chn
18 60
mac ro
ator ial
ĠImm igration
ĠRele ases
ĠR ever
Ġre cept
M ah
Ġg orge
ĠCh uck
Th an
="# ">
Ġto g
ours es
ic ion
ĠHop kins
Ġpros pective
ĠArn old
Build ing
97 8
D epend
Ġs au
Meta Data
ĠApp ly
123 45
v art
Ġr m
Ġtem pt
Sc ience
TE X
Un lock
Ġpost pon
ĠEm ployment
bor o
Ġdis advant
$ &
ast rop
Ġpurs uit
å °
b read
ĠI BM
ĠB orough
ĠF R
Ġdemand ed
ĠG and
It alian
ell ion
ed uc
15 6
hel pers
rid or
Per formance
ar ith
ag ine
W ay
Ġd Ã©
Ġnurs es
in ent
// ----------------------------------------------------------------
../../ ../
im eter
K im
Ġre try
Ġclick ing
Dec oder
ĠBro s
Sl ice
ĠS ymfony
UT O
R oyal
c ock
F B
20 6
Ġes cal
ĠAnn iversary
Ġcou p
Ġreve aling
] $.
ĠP ont
Ġet ern
Lem ma
Ġsign aling
All owed
ĠB og
Ġins pect
Ġce iling
ĠFor ward
Pro c
Ġcrit er
ĠLuc y
ĠCol in
end region
Ġc c
Ġplan ets
in ja
key words
Ġadd iction
d w
ĠP ray
Ġv iable
care t
oc on
unt u
Ġlaw makers
// !
ĠPartners hip
Ø ¨
we ather
p aid
22 2
18 95
Ġenc rypted
N EL
Ġhon ors
ĠColl abor
K n
Ġf reed
q a
Ġless er
H AN
if rame
Ġex empt
}} .
et erm
ex clude
any on
Ġp ays
Ġsl aves
ĠBr is
Ġaest hetic
ĠĠĠĠĠĠĠĠ čĊ
Ġdam n
numer ic
ĠM T
W il
Ġex terior
p ixel
the ad
ĠAl gorithm
ley ball
Ġfle w
dem o
Ġover head
ĠAdvert ising
Ġvol atile
é ĩ
ĠCall ed
ĠBut ton
ĠMah ar
DE LETE
mys ql
Ġnav al
ĠId aho
fef efe
ĠN ine
ĠK ur
ĠHe at
Ġst reak
ian e
Ġpurch asing
å ¼
Ġab ort
ĠBer g
Ġsear ches
Sund ay
res pect
Sign al
ç ½
Ġpack aging
Ġs outheast
æĸ ĩ
. ');
Ġpeak s
Ġ" +
Ġtr act
IF T
per m
det erm
ĠB ears
Ġshock ed
R atio
Ġc iting
Ġcl arity
ĠG oth
------------ -
Ġdiff usion
AB C
ys ide
Ġsp arse
Reg ular
u ator
acter ial
ĠT rou
ĠA ur
ĠIn it
Ġrel ates
ĠRel igion
op ened
Ġess ence
Author ization
Ġperform ers
Ġassum es
Ġdat etime
ĠFour th
m ons
Ġwithdraw al
FUN CTION
Ġ( <
Ġad apter
ĠJul ie
Ġexhib its
p it
Ġsever ity
ena issance
Ġconsult ing
G reg
Ġbeat en
ĠP ush
ĠS ent
Ġtri bes
ĠConf ed
Ġv endor
sp aces
Ġart ic
Ġpolit ically
remove Class
?? ??
Key words
Ġb ol
L ang
ĠTrans itional
P oll
Ġ* **
op ard
Ġ( `
ĠâĢ º
l iter
Ġm im
15 3
Ġche aper
Ġpurs uant
ĠB rowser
Ġsup pliers
ĠCON FIG
ĠJ ung
Ġcontext s
PREF IX
H idden
at en
ĠG ender
Ġfif teen
Ġde pr
ron ics
ĠStev ens
C tx
ĠNew castle
art et
aff e
ne ys
In clude
Ġb out
tr ivial
ext ends
> ()</
Ġ ib
ht m
pred ict
it ic
loc als
H it
P rior
ĠAnn ounces
w y
In side
sign al
Th reshold
ĠPublic ations
gu id
ĠZ oom
Ġb os
Ġlink ing
ĠY ale
Un able
ĠAp plications
Ġstar red
ang ered
IN PUT
Ġinaug ural
jb oss
Ġfor ty
Ġr am
ĠV ers
R G
ĠT emplate
get Property
(" -
year s
ĠS ox
ĠP apers
ari ate
author ized
Ġele ven
Ġgu ards
ph is
Ġrevolution ary
Ġfilter ed
claim er
empty set
Ġgl ory
ĠK un
Ġadjust ment
ĠCent ers
) '
R etry
Ġag ing
Ġb ell
elling ton
Ġmo ist
ĠB uch
}} ^{\
ĠT err
ĠD uration
ĠAd ult
Ġcar riers
Ġutil ized
Ġacc red
lyn n
th ick
DI RECT
Ġdig est
ĠP rec
(" <
ĠPlay Station
Ġsl ip
ĠTrans form
Con version
Ġex tern
Ġsp are
bal ance
Ġv endors
Ġbes ides
() `
Ġswit ched
Ġp ause
Des cribe
HO ST
ff ield
Ġappreci ated
parent s
Ġden om
Ġc ord
pr us
ĠTom my
Ġsk etch
c end
ĠCh ang
std err
à¥ Ģ
Ġmand ate
w ig
Ð¸ Ñı
Wed nesday
Ġt ales
Ġb ishop
ãĥ ³
F un
ĠM ask
Ġbackground s
Ag ain
18 97
Dis abled
Gener ate
ĠElect ronic
Ġm eter
ĠEl se
duc ing
Ġacc eleration
d m
Ï ī
ĠM idd
Ġd jango
Ġ( ,
oll o
Ġmem oir
umb led
is ot
Ġportr ay
LO AT
ĠT ang
ĠPop ulation
g ather
Act or
Ġinstant ly
st ad
ä¸ Ģ
Newton soft
Def ined
Ġg ut
Ġf ights
pl aces
Ġview er
ie u
FE ATURE
ĠHe avy
ĠEv il
ĠViol ence
M ex
ĠP T
sol id
pos itions
Ġapproach ing
ass ed
! (
be e
FN GL
Enc oder
ĠUg anda
ĠH ur
ĠA zerbai
ĠLook s
vari ables
Ġcompr ised
ĠR S
ĠB und
Ġle verage
Un ion
Ġsculpt ure
ĠD ifferent
or ig
col ors
Ġt ier
He ap
o ct
Ġadvent ures
Ġaut onomous
Ġse q
Com pleted
ĠMunicip al
Ġtog gle
ov ic
Ġim perial
; ,
Ġcorre ctions
ĠO ri
Ġridic ulous
is ive
18 99
Ġste ering
th s
ac l
oy le
Ġprec ious
ĠAmb assador
Ġpup ils
Leg acy
ibl ical
b ay
h in
Ġinaug uration
= .
? âĢĻ
C ritical
Fil ename
Ġpropag anda
oca ust
She ll
ĠInd ependence
P ython
ĠBar ack
Ġthorough ly
Ġp riz
Ġref und
Ġstom ach
Ġg ly
Ġfl ip
av our
Ġam ateur
Ġvit amin
w m
mark er
vis ions
second s
Ġsp o
u o
ad os
Ġ$ ,
Ġb eds
ĠFlore nce
J s
av atar
Ġcount less
qu in
ag ain
ĠBr andon
mod ern
Ġ á
mal ink
M ASK
Rev ision
io let
re ply
Ġin ference
Ġg ates
Ġimprov es
ãĤ Ĵ
Ġexhib ited
ĠMot ors
R eq
Ġreson ance
ic ans
h it
ri eve
ĠSh in
L ee
u cc
DE P
Be ing
r idge
Ġtempl ates
In line
Stud ents
Ġtri o
serial ize
Re ceiver
ĠDou g
Ġiter ations
Ġbrut al
comp act
M F
22 4
Ġst ays
ĠD ialog
Ġcomp rom
oph one
User name
Ch ief
D ark
Sports people
RET URN
Ġl ambda
im an
Comm un
2 16
17 6
il ine
ĠAh med
ĠCD C
ĠW HO
te enth
i S
focus ed
ĠL IC
ĠEthiop ia
To o
Ġd upl
us a
ft en
p referred
Ġavoid ed
j ab
ĠW end
Ġn erve
Ġreg ulated
Ġfl ush
OD Y
Ġexcess ive
ĠPo etry
Ġpres idency
ĠRec ent
Ġcrit ically
Ġb arg
ev ille
Ġstim ulus
Ġend less
> ../
PL ICATION
Ġcast ing
ĠPrinc ipal
rele vant
Ġf el
bit coin
Ġauthor ization
ĠGl enn
at iv
ĠJo el
ĠEffect s
ig m
Ġreg ener
; ]
AL E
miss ing
Icon Error
Ġcriter ion
le v
ĠM eta
ĠV ic
ĠS urre
RE N
[ [
Ġdis hes
ĠNetwork s
å į
get Key
ish i
Ġlog ged
ĠSt ay
ENT ER
ĠLeg acy
Ġappar atus
rit is
ĠVeter ans
ĠM ead
ĠK er
18 96
Ġc and
Ġprompt ed
Î ²
Ġor chestr
ĠGener ate
Ġun t
Ġtrans fers
Ġed itions
st own
Ġab oard
he ta
Not able
Ġexc use
I MAGE
Ġl as
ĠChar ter
W as
ĠC incinnati
Ġch ocolate
Ġam big
ĠFem ale
Ġvolunt ary
NotFound Exception
Ext ended
ĠP ART
Ġpain ful
Ġdiscret ion
Ġutil ize
ann ers
Ġopen ly
ĠL ik
ĠK arn
Ġpop ulated
V ir
ĠT iger
Ġscr ut
T ITLE
Ġl y
00 7
comp iled
ĠDemocr acy
CON ST
Ġdevast ating
en os
Ġcontribut or
Rep ublic
Ġrep ublic
å Į
Ġp ul
ĠBrad ley
s ites
Ġavoid ing
play ing
C atalog
h int
ĠH ook
ang les
Ġdis charge
Ġd ive
Ġtr aces
ĠW ake
member NameLink
ĠDocument ation
St mt
ĠExcell ence
ĠO bl
Ġdecre asing
appropri ate
Col lector
Ġd in
Ġk ills
ĠStep han
Head ing
Ġpros pects
ĠC ord
Ġv iv
ĠJ ourney
18 50
ĠF ergus
ew ater
Ġkn ife
me asure
Ġarg uing
ĠS au
an ol
ER O
Ġimp ose
s ens
Ġconsider ations
ĠL ak
Ġup dating
Ġadvis or
ĠOcc up
Ġgen ius
r ag
Ġcitizens hip
S ender
Ġmiss ile
ĠSw an
Ġa z
La unch
ĠRes olution
Ġneighborhood s
ĠPear l
1 200
Ġr hetor
n pm
Ġover look
Ġsever ely
Ġstrong est
\ ":
out ed
Ġman ifold
Ġsm ell
product ive
Ġsh ower
ĠM ik
el ong
ĠN y
ĠBo eing
Ġbet ray
Ġquestion ed
ĠH ERE
rom agnetic
Ġprodu ctions
Ġ\ ]
ĠColon el
IconError Encoded
Ġg est
Ġsouth west
Med ical
The ir
ĠB urg
4 000
22 3
Ġenjo ys
Ġ(! $
P rem
Ġsw ap
E nergy
Ġeval uating
ĠCam era
Any Ref
r int
Ġ} {
Ġpat ron
N othing
ĠPre vious
ĠM ig
ĠS ullivan
Ge org
Ġex empl
Ġpres cribed
Ġadvis ory
Ġinter cept
Ġdevelop s
if a
Ġundert aken
ĠS ans
Ġrespond ents
E F
ID s
ĠTerrit ory
ĠHis panic
Ġf et
ĠIP v
% ).
Â ±
Ġprov ing
ĠQ String
ĠDes ert
å º
ra ud
z ed
ĠFr ame
final s
Ġm ins
ĠA A
17 2
ĠChap el
Ġmer c
ĠESP N
Ġmob il
an ian
S um
or acle
ĠCab inet
W P
sc ene
SE C
Ġnational ly
y aml
ers ed
Ġcomp romise
ĠF loyd
Ind icator
Ġurg ent
atin um
k al
izar re
Ġ utils
Ġbrows ers
ĠPat tern
Ang le
}( {\
Ġdefer red
LE VEL
FLA GS
omb ie
Ġpro position
Ġbi ography
B uy
}_{ -
DA Y
mont on
AME TER
B ul
n ell
Ġo h
ĠBry an
Ġmem or
ĠO wen
Ġindiv idually
View s
Ġhab its
å® ļ
at che
c iation
Cl ock
ĠFellow ship
Ã ī
ĠF acts
Ġhand lers
dis ambiguation
ĠA ber
Ġnot ified
Ġst ochastic
Ġpri ests
ĠR uby
Ġpharm ac
Ġbab ies
ron es
De ployment
H ex
ĠN as
al gebra
Ġch ore
Part s
ou x
ass ing
Ġdesign ing
Ġposition ed
ĠMont gomery
Ġwrest ling
Ġunder go
16 7
ĠDis tribution
ĠC rystal
Ġfilm ing
">( </
ĠShe ll
av o
Ġathlet ic
ĠB ever
k ward
ĠPal mer
Ġpr ay
ival ent
Ġpractition ers
ĠĠĠĠĠĠĠĠĠĠĠĠĠĠĠĠĠĠĠĠĠĠĠĠĠĠĠĠĠĠĠĠ ĠĠĠĠĠĠĠĠĠĠ
ess aging
ĠJosh ua
Ġassert ion
ent on
Ġa u
Ġbreak down
Ġcontinu ity
ĠLyn n
ĠS UV
ill es
itt est
P ACK
st ead
ĠAp plied
Ġlicens es
Ġrob ots
ela ide
Ġterr ain
Ġpenal ties
( @"
] $,
S ix
Ġg a
Ġkey word
Ġpoll ing
Ġcoll apsed
ĠPro blem
Ġcor related
Ġfunction ing
ĠBris bane
Ġconcent rated
16 1
at ype
c opyright
Ġlect ure
Ġinv ented
Ġmake up
k el
Pro ducer
ag le
Ġyour s
ĠG uild
Acad emic
] >
sub str
Ġfrag ments
Ġreven ge
Alloc ator
ĠN g
ĠRe ally
le en
at em
ĠD ad
Ġacc idents
ĠGab riel
ĠK or
ĠWrit ers
ex press
ĠR ise
ant om
ĠCon structor
od ic
ĠTh ai
Int o
ĠH aven
In c
Ġpath ways
est y
ĠJo an
30 3
ĠPhilipp ine
ĠC ritical
Ġpass phrase
own ers
O bserv
Ġaccording ly
Ġprox imity
Ġinev itable
ĠE S
R o
v t
con struction
ĠV R
ĠAng els
Ġneighbor ing
ĠU nd
ort ium
an imate
ĠJos Ã©
Ġc ens
ĠSh ield
Ġinitial ization
Ġdest ruct
ĠValue Error
Thread ing
ĠH ydro
"> &#
Opt im
16 4
h art
, {\
t frac
Ġ ^{
ĠN icol
Ġt body
ĠSer bia
Ġun set
Ġpreced ing
og onal
Ġload er
is le
Ġgate way
V oid
Ġn ost
ĠAr med
) })
Ġan not
Ġsl ower
Ġterm ination
tribut or
Ġnom inations
Ġlad ies
T i
Ep isode
w indows
ĠAr senal
Ġsystem ic
Ġlearn s
ĠO z
V an
Ġimport s
P ur
} >
Ġsp otted
es cope
Ġc ure
ĠD ame
f re
f eld
Ġde code
if s
ĠSol id
Ġl un
Ġor chestra
! \
rat io
phant om
ĠP and
ew ard
ĠJ et
IF Y
ĠCO M
T our
à¤ ¨
ĠR ush
Ġb ust
Behav ior
d an
L INK
Ġn m
Prot otype
Dis patcher
ĠSpec ifically
Ġsoc io
cri ber
Ã¡ s
Ġappre ciation
st ub
ĠPalest ine
. $$
I ts
Sp anish
C art
g iven
ĠR NA
asc ade
Ġatmosph eric
ad vert
Ġrock et
Ġorig inated
Ġs iblings
Ġto ss
ĠReyn olds
Vari ables
et r
duc ible
Cl aim
Ġdr ift
ĠRe uters
leg end
ĠH av
ĠCh ad
Sh op
ĠSet t
T IM
Rem ember
intend ent
Ġdel icious
ĠEnt reprene
ĠH our
ĠSpace watch
Ġl od
Ġsh ifting
Ġpurch ases
Ġrep o
H ence
ĠL iv
Ġac claimed
21 4
Ġte aches
OP EN
ĠCitiz ens
Ġelectron ics
Ġunder way
Ġn inet
16 2
m and
il ogy
Ġinteg ers
Ġa thlete
Ġspons or
ĠD ocker
Col lege
UN K
19 4
ĠMe asure
ĠVol unte
it ud
Ġcapt ures
ĠEngine er
Iss ue
E lem
ĠReb ecca
Ġst yl
pro per
rele ased
Â £
)) \
ĠRead er
Ġguarant ees
Ġwe aken
Com puter
Ġjew el
ĠIm Gui
HO W
3 10
Ġdiv ine
Ġâ ĪĴ
Ġconc urrent
riter ion
urre ction
ĠBudd hist
S and
ting ham
Ex ec
ĠEv olution
H H
t cp
ĠSup erman
Ġsu cc
Ġseason al
add EventListener
Ġrecruit ment
Bo ard
Ġdyn asty
Ġon set
Ġident ities
Ġp ist
ĠEx pect
INST ANCE
Ġ\ (\
Ġbusiness man
Ġshare holders
Ġre un
ĠS it
ĠH AVE
Particip ant
Ġthe ft
Ġf ier
se min
s ix
Ġbath room
Ġhash Code
Ġhonest ly
ur ated
ĠA uthors
ĠNor folk
Un its
Ġblock chain
ĠI con
uis ine
dest ination
omet own
Ġment ions
ul as
Ġà¤ ķ
C OR
p ark
17 1
Ġunve iled
ĠP ere
F s
Ġexerc ises
Y et
ĠT ags
ig g
Ġdou bles
M ON
let te
Ġcancel ed
quir ies
ĠL odge
ourn aments
rient ation
ev es
Ġcur vature
Ch oice
conf irmed
S ink
] =
Ġcompar isons
âĢĿ :
Tog gle
ĠS uff
Ġspect ro
ĠGl obe
] *
PER TY
ĠH az
3 40
ĠBelg ian
ĠP K
ch r
P ark
ĠGet ty
Ġbes ide
ber ger
Conn ell
23 5
ĠY emen
Ñģ Ðº
ring tone
Inst ances
Ġin ch
Ġbe aches
âĢ ³
ven ile
erm ark
Ġbit ter
... ,
Trans l
font s
ĠS cre
D ash
Ġn utrition
________ ________
Ch icago
dec oration
Ġpan ic
st mt
ĠN H
os ure
al am
Ġp as
ĠL uck
new line
Ġpres cription
20 9
ĠSc ore
ĠSo ft
andid ates
Ġl ips
Ġle x
amm ation
E ric
! ]
ĠS ites
get Text
comm ended
Ġemb ark
ĠTrans it
ĠEv idence
Ġgrad uation
ĠP ool
Ġtour ing
ĠW iki
Ġcontribut ors
Ġc aption
> /
High light
ĠA ri
ĠR an
ĠF REE
ĠG ross
product s
ĠBul let
ĠUn known
Ġo m
multi row
ĠR af
Ġr ivals
Hor izontal
Ġimag ery
Ġtop ological
T ick
ĠAd miral
Ġpurs uing
Ġretriev ed
Con struct
ge om
Ġserial ized
ĠBe havior
CON NE
ĠL il
J er
print s
Ġfemin ist
m ile
Ġ[ ...]
Ġencour ages
Ġexped ition
Ġexp ose
Ġsp ite
ĠH onda
cent ral
ĠL etters
Ġrec ipe
Ġco hort
Rec ip
Ġmart ial
NOS CRIPT
Ġcivil ians
ĠSaf ari
Ġsupport ive
ĠEqu ity
Ġpass ive
17 7
Ġst ir
abs olute
Ġh ilar
At l
for ge
Ġpal ace
A IN
ĠN amed
re search
Ġs inc
Ġharm ful
Im plementation
Ġneighbour hood
Ġcreat ure
Ġshe ets
ĠAb bey
Ġneut ron
ĠOpt im
aster y
Ġc oding
ĠPr im
ĠP ac
ĠSecond ary
Ġrem ot
{ },
ĠRes ort
Ġsp ray
d ensity
Ġpo ets
17 8
Ġ( );
18 7
Ġre nov
ĠW ine
ĠC anyon
ish ers
Ġil leg
sm ith
vis ibility
Ġphenomen a
Ġgrad uates
F ilters
Ġhistor ians
ĠDi agnostic
Ġdebut ed
ĠSh ore
) }_
Ġ" (
Ġ" ")
column width
18 2
W ood
ĠN ATO
Ġback end
Ã§ Ã£o
w x
ĠM AN
Ġoptim ize
Arch ive
Ġanalyst s
ĠB U
Cap acity
un al
ur as
Ġop posing
s and
Ġvis a
Ġse al
ĠH ait
ĠCon duct
Ġapplic ants
port let
Ġtend ency
ĠP orter
ĠK re
Start ing
A CTION
Ġquant itative
Ġsl ots
ĠLaw yers
M LE
Ġ" ./
aint ed
Ġfar mer
Ġhelic opter
Pr imitive
File System
Ġneur ons
ĠU T
ult an
mid t
Ġb iod
te in
CC CC
EX P
Ġtreat y
Ġpars ing
T reat
ĠT ut
Ġl oses
Ġepid emic
v iol
C oun
ĠS tra
ĠC raft
ĠV it
as per
Vert ical
ĠReg istration
Ġgrad uating
ĠG ates
ĠSim pson
Aut om
Ġwhere ver
ĠA ub
est e
}} _{\
Un mar
Tw ig
the m
H u
Ġon click
ĠAdvent ures
l ag
Ġun ited
Ġir r
Ġgr pc
Ġparliament ary
ĠH ip
Ġcompl ain
18 92
mem Item
ĠCan al
he ets
Ġp el
18 91
Tag Name
Ġband width
ab b
Ġgen res
Ġequival ence
ĠEth ics
vers ions
Ġin complete
Ġpress ing
Ġcoord ination
Att achment
Ġoptim ized
Ġdepos its
Ġmut ation
ĠEll is
ĠBeaut iful
in ical
Ġc fg
W ords
Ġbreed ing
Spe aking
Art ifact
Ġded ication
ĠGu est
do ors
g ui
MP TY
Ġpoly mer
Ġf ung
Get ty
ĠGar cia
Ġimpe achment
Ġbe ef
Ġpres ervation
I LED
ĠD NS
ĠWar riors
ĠRes et
ĠA uckland
Ġf ab
Ġdon ors
Ġm anga
Col lect
ch oice
Ġst amp
3 80
Ġc af
Ġp index
ĠIN T
ic z
18 93
Ġp t
Ġl ig
ĠSp ark
Ġpred icate
Ġvibr ant
ĠBe hind
ĠDec ision
er ver
car ousel
ĠS z
f ee
Ġc rap
ol an
art a
Ġtal ents
O H
ĠSet ting
Red irect
Json Property
Jose ph
y ellow
ific ent
ĠWord Press
a uthors
al tern
C ss
=" //
ĠD uncan
Ġdoct rine
Con v
× Ĳ
ĠA chiev
Ġsp ont
ĠIn frastructure
R GB
Ġl overs
end ant
ĠI SS
V ery
press ive
ik er
ĠAthlet ics
Ġnot ifications
Ġl akes
int ro
Ã Ł
Ġembod iment
Ġredu nd
ĠInd ies
Ġfuck ing
Ġ/// <
K EN
ĠOr acle
Type Name
Ġsacr ific
e er
m or
}) }
Ð¾Ð ¼
Ġper f
B and
ĠPen insula
ure ment
ĠSup erv
P en
tok ens
ĠR us
ĠL ed
Ġel astic
eg al
ap on
Character Offset
Ġpremier ed
Ġconstit uency
R oom
ull ah
24 5
Ġcoord inator
ĠSud an
re ports
Event Handler
ex ist
UL AR
clos ing
' +
arm ing
gl ass
ĠB in
aw i
18 85
30 2
ĠE g
Ġret ire
atern ity
C odes
t ec
et itive
j p
bel iev
Ġpur ple
ou bt
od ia
Ġimp air
add on
à¤ Ĥ
ĠR enaissance
16 3
ant o
ãģ Ļ
C our
: /
ĠIndust ries
ĠDeg ree
Ġl over
man aged
ĠT itan
ĠCh at
ĠGen eva
Ġth ir
Ġev olving
Ġcar ing
ĠS ample
St ory
ĠRestaur ant
Log ging
Ġconj ug
arent ly
t emplates
ur bs
ĠHu gh
) --
ĠB UT
L M
f ailure
ĠT aking
ĠF olk
Ġde grad
ĠAn al
br as
ĠEll en
ĠE ducational
hy per
Ġuniqu ely
L os
ter min
Ġrem inds
Ġcap ac
l ater
Ġbl ast
dr ive
Ġactress es
ry s
ĠUlt imate
load s
inter faces
Ġvari ability
Ġneut r
19 3
ĠGo ing
ias m
ĠP I
ĠCh ain
Ġexhib itions
ces ter
Ġartifact s
ill ary
Ġdraw ings
Ġgrand mother
N il
t b
Ġc ategor
ĠDef ine
y arn
ĠDev il
spec ified
ins ky
Ġn inth
Ġm ines
Ġdec iding
ĠR F
ug osl
ĠS ask
per form
Ġdis putes
ade qu
h ydro
Ġrun ners
B uilt
Ġatt itudes
D am
Ġpar as
Ġinfect ious
S on
ar u
Î ¬
E A
Ġphot on
Ð° Ð»
l c
k u
Ġsur pass
ĠCroat ia
ĠOtt oman
Ġloyal ty
Ġpredecess or
> ');
Cre ation
ert s
Ġb oring
ĠP ul
ro ots
ĠNov el
Ġcer emon
ĠGet ting
Pol y
ĠSh im
Ġland mark
Ġspecific ations
Ġcivil ization
Un icode
Ġhuman itarian
ĠDom ain
ĠHero es
comp any
ĠR anch
Ġass ured
Ġcul min
ĠE aster
With in
ĠRev enue
ĠS B
18 65
Ġrem inder
organ ization
ĠG D
r ases
ĠA ST
ur ally
20 30
ĠRe id
Ġdecor ated
Ġspir its
ĠP ER
ĠHar old
ĠCom ic
Ġtr acing
verb ose
æĺ ¯
v p
Ġpre y
m ime
Ï Į
Ġspokes person
17 4
pat ri
Ġp ap
ĠJeff rey
ĠW inds
ĠGib son
T er
Ġsec ular
ĠY ES
Ġdisc overs
ĠRom ance
F red
Ġor n
Cl osed
ĠWe ight
ĠH i
Ġstrength s
Ġcatalog ue
NOT E
Ġred shift
df s
Ġscatter ed
ĠV a
Ġ. /
Ġhold ers
ĠAppe als
Ġcontribut es
ĠAssoci ates
he y
Ġw reck
Ġp owder
ĠCong o
Ġinvestig ators
ct l
Ġun anim
ĠGu itar
op a
Ġisol ate
Ġkid ney
K en
Ġaccess key
Ġh oney
AS C
ĠA pi
A verage
al is
Ġcompos ers
ĠIll ust
ĠD awn
ĠMan ual
Ġconcept ual
Ġcas ino
R D
TR AN
Ġsent iment
Ġthr one
ond o
ĠB ened
Ġprov inces
Ġdipl omatic
ans on
Ġ' ../
A RE
Ġbank ruptcy
L com
ĠD ES
She et
ĠJes se
ĠClin ic
Ġbatter ies
XML Schema
Ġeleg ant
S i
ol er
Ġcard iac
17 3
T ARGET
Ñ Ħ
Ġboy friend
Ġwrit ings
ĠMin neapolis
ĠPro ceed
get Default
18 94
) }.
L F
ĠD ylan
Ġmanufact ure
ĠC WE
art en
l uc
9 11
ĠDi pl
Ġasp ir
Ġclean up
[ ],
m itt
Ġc p
ĠFl at
B rien
R endering
Over lay
Comp ilation
y t
ĠB uilt
K O
ll a
orient ation
ĠT ickets
ĠP ok
ĠH off
ĠL IMIT
ĠAr gs
Ġbo om
rou ting
ï ¸
at ility
ĠG ent
w yn
Ge o
Mod ern
Ġreflect ing
S ong
T ODO
ĠFI LE
Ġinter fer
Ġne u
ĠRel ated
Ġun stable
Ġcriminal s
ĠAnd r
Ad am
Open Tl
Further more
Ġsuperv ision
qual ified
Ġeconom ies
Ġr ises
ot ics
V ers
ĠCl iff
roph ic
ĠRay mond
Ġclim bing
Ġun safe
ĠLIC ENSE
ĠQ atar
ĠEd it
ĠPat ient
Ġl ob
Ġgen ome
Ġaw ful
ĠSy nd
Tok ens
Ġdef icit
Ġloc ate
Ap pro
> ("
Ġsqu ee
Ġf lesh
Ġn est
Ġsex ually
Ġsynt hes
comm ands
C ook
tikz picture
Ġint ro
ĠEx ternal
is Array
Ġindic ators
Ġsett lements
Ġind ie
AC CEPT
em i
ĠWat ers
ĠLaw s
17 9
Ġcrow ds
ĠHe ights
ĠB T
Ġ' {
ĠThanks giving
ex ceptions
Ġadministr ator
ĠSp ons
im i
Ġasympt otic
g ro
Ġp ec
ee per
Ġcontract ors
if fin
ĠAdd s
Ġcycl ing
ĠCy cl
it ored
erm at
ĠK i
commun ications
Not ify
Hen ry
M argin
Ġsubs id
Ġprev ents
Ġpre jud
ĠW ays
Ġby pass
ari us
B razil
Ġst ance
ĠB lo
ĠB ug
API ENTRY
Ġintr insic
has OwnProperty
ĠG E
&= &
Ġn ep
18 1
Ġkil omet
Ġc ement
ĠH ack
Ġdis closed
ĠKash mir
ed ges
Å Ļ
Ġro ok
Ġelect rons
Ġoff shore
ĠBa iley
ĠR oth
18 89
Ġcontin uation
Ġre build
Ġsc oped
Ġref res
Ġbeautiful ly
li ents
pr act
Ġfinal e
ovak ia
Ġcirc ulation
ĠHom es
Ġorient ed
Ġaccess ibility
Ġrender er
eg an
Ġcol ony
Sw ift
Ġm k
ĠP iano
aval ry
Ġaffili ate
ĠCOL SPAN
l ift
x t
co ins
IG H
ĠAm anda
Ġg ra
light en
ĠAtt ack
e ous
Comm ands
Ġr ay
NE SS
S DL
ĠHer bert
sche dule
oc ide
ĠL ayout
plic a
Ã© d
urs ion
Ġsa x
Ġcons ume
GRO UP
ĠS cale
B attle
Ġid s
Rel ations
Ġfilter ing
ĠCond ition
Ġliv est
Read Only
Ġt issues
od ore
ĠP itt
yl on
Gu ard
? .
Ġmem o
Ġrele g
g ae
ĠG roups
Ġpol ic
F X
($ _
unn able
Ġsa fer
Ġfluct uations
Ġinter im
col m
Ġlist ened
ĠIn stance
ros so
Ä Ł
Ġb er
Ġd rought
V ictor
ĠE ston
Max imum
ĠG ift
ymmet ry
á ¹
ann i
not ag
he ars
ĠH urricane
ind ependent
bal ena
om p
hl js
Ġt v
Ġout look
c ro
ĠM BA
Ġl ag
ĠB ark
Ġbroadcast ing
Ġfru its
ĠHe ath
Ġinter ven
Ġun comfort
Ġh ug
ĠP am
ph al
Ġfund raising
S ens
ĠV illa
18 6
Ġf right
hed ules
ĠGener ic
Ġcontract or
Ġfirm ly
ĠB LA
ĠF LA
ĠW ellington
Ġsem antic
vel t
× ©
Ġpl ugins
Ġlist ings
Inv oke
^{ *
B rian
Ġpro secution
Ġle v
ang led
ĠK end
Ġnecess ity
Ġsup rem
Ġstud ios
Ġpract ically
; -
f m
IS A
um en
Ġrele vance
Ġt witter
ens ed
* >
Ġpro long
Ġn aming
com press
Ġnorm s
G esture
W T
Ġinf ant
thread s
Ġp c
Ġg i
Ġgar age
oxy gen
Ch oose
Ġcallback s
h ang
Ġche f
Ġsocial ly
Ping back
Ġtrans plant
Ġmunicipal ities
ĠS nap
Ġsu ited
Ġstory telling
it zer
itect ure
m ong
Ġdon or
H o
Ġev olve
ng th
O x
Ġround ed
Ġp a
ĠJama ica
ĠK ol
ĠTr ace
ĠTreat y
R outing
et e
os ion
Ex change
ĠMin ing
Ġs ang
Ġcontrad ict
: @
h ig
re li
ĠN I
ĠMark ets
Ġpro l
P acific
ĠT ow
ag ne
ĠImm un
Per haps
Ġqu arters
IN LINE
Ġbow l
Ġess ays
Cor onavirus
Ġ[ -
Ġinher ent
] ];
ĠSurg ery
S aint
Ġdem ographic
ch ief
Ġthro at
Ġaccess ing
Ġsubstr ate
h orn
GL uint
ĠGL uint
u ably
ĠMorr ison
ĠðŁ ĺ
ĠRon ald
Ġtort ure
ĠSche me
ĠBor is
B ag
r ina
CLI ENT
S printf
ĠT IME
Ġflo ors
Ġsaf egu
ĠWel come
] -->
At trib
S pl
ĠD ow
Ġfound ations
R M
s qu
Ġwood s
ĠUnc ategorized
ĠF lying
18 9
ĠSoc orro
osex ual
or ate
ĠF ul
fl ash
Ġ' </
ĠGerm ans
ĠBarn es
ĠCl are
Ġlegisl ature
Ġdef ender
child node
Ġuniform ly
Ġbu zz
Ġ$ ("#
Ġc avity
Ġbook ing
Ġtouch ing
Z Z
Ġas sembled
n z
Ġfeas ible
ĠF loat
Tr avel
Ġflood ing
Leg al
ĠLINE AR
b ars
ĠH annah
ĠV ideos
ĠMur der
ar ations
sh iv
Afr ican
Ġdeprec ated
d ag
ĠBr ussels
ch y
inst on
ĠSc ene
ĠPers ian
S hip
Ġc ake
Dr ive
ĠSustain able
ok i
Ġmanip ulation
Germ any
est inal
inc orporated
Ġcustom s
ĠLat ino
ĠT all
ĠS qu
NO WN
Ġjoint ly
V T
ĠH ass
ĠPl aza
ĠArm strong
Ġstr ains
Record ed
Ġliter acy
Ġfaith ful
Ġrefer endum
g reat
Ġal together
ĠLead ers
18 88
Ġenter prises
\ |\
f u
ĠSh ared
sk in
ĠCal gary
O ps
Ġb ub
Ġkil ometers
æ ł
Ġle ar
sp ons
an mar
Ġnomine e
18 3
AT IVE
Ġquiet ly
E th
ĠPatri ots
Ġcharacter ization
ĠE sc
Initial ized
ĠðŁ ĻĤ
Ġmigr ants
Ġvirt ue
ce il
ib us
ĠR aid
Ġto y
Ġsup plier
XX XX
ĠPay ment
ĠEx hibition
Ġser um
s izing
Ġa er
ĠĠĠĠĠĠĠĠĠĠĠĠĠĠĠĠĠĠĠĠĠĠĠĠĠĠĠĠĠĠĠĠ ĠĠĠĠĠĠĠĠĠĠĠĠĠĠĠĠĠĠĠĠĠĠĠ
C apt
Ġc ant
Ġhead line
g ems
it ars
ot iation
[ _
at z
Ġhead lines
Ġb ump
Ġterm inated
Ġmark ing
Ġfac ial
Ġadapt ive
ke es
ER AL
Ġlapt op
ĠAd elaide
K now
ro tt
Ġtr ait
ĠD olph
ap est
Ġarch ives
ĠD rew
St ock
WARN ING
ĠG PU
Ġcancell ationToken
ĠG PS
W all
Ġmut ations
ä ¿
Ã³ w
Ġar ithmetic
ount ers
ĠLaw yer
Pred icate
ĠGil bert
ul ence
ĠB row
ĠD iet
m inded
Ġc otton
pro portion
B ot
B s
Ġmon etary
Ġd ol
B on
ex c
Ġthere after
Ind ices
K nown
g d
Ġrepro duce
L ists
ĠCar lo
Ġtrav elled
ke eping
Ġaw kward
ĠKit chen
al in
Ġd uplicate
ĠF ut
Th rows
Ġdr one
Ġsil ly
om ics
od b
Ġinv itation
Ġenc oder
ĠV P
Ġ*/ ;
dis tribution
Check er
Cont ain
Ġcompos itions
ag i
App Compat
ĠCy prus
ĠTrib une
18 61
Co ins
c atalog
ih ad
Ġillust rates
ope z
Dec ode
Ġappe als
Pre view
enti eth
Initial ize
ĠL or
27 5
ĠC ann
ĠH BO
ĠWe iss
R ussia
ĠML B
Ġcol lector
ĠAll ow
d ied
Ġback ward
t ier
oid al
Ġre wards
sche me
æ İ
iox ide
ew s
(" [
ĠQ t
Ġmid st
st dlib
enz ie
ab br
ĠR out
< >(
z ant
Ġp tr
ĠP f
ĠG ust
4 20
Ġdoc s
Ġpromot es
ĠTh ing
Ġpropag ation
Ġd ent
W ire
ur bed
Ð½ Ñĭ
HEAD ER
ĠS PE
Ġsub stances
Ġjump ing
l r
ĠWork shop
C U
ĠR ect
Ġr ats
Ġlumin osity
z heimer
act ivate
Ġsubscri bers
================================================================ ========
c ourt
Dependency Injection
ãĤ ¹
sh ader
G allery
lin ing
Ġo mitted
ĠRun ning
Ġem igr
ĠEx tra
oy age
ell ites
Ġcalc ium
Ġdis cre
En code
Ġterror ists
ed in
ĠSac ram
K A
Ġmed als
ĠSup ply
H ist
ĠSh ir
First Name
Input s
lect ric
\ }\
Ġun changed
Suppress Warnings
el ist
cal c
but tons
fil tr
Ġair lines
g rey
ĠS ector
ĠL ynch
we ets
Ġhere in
Ġsymbol ic
Ġf ade
Ġu k
ys on
ĠC ategories
ĠH RESULT
ĠĠĠĠĠĠĠĠĠĠĠĠĠĠĠĠĠĠĠĠĠĠĠĠĠĠĠĠĠĠĠĠ ĠĠĠĠĠĠĠĠĠĠĠĠ
ĠRequ ire
Ġ iv
: **
re ject
Ġte ens
Ġhe sit
Ġs ulf
ĠIndian apolis
in ars
c ritical
Ġrel ay
control s
Ġwond ered
0000 000
ĠGL sizei
Ġvill ain
Ġgravit ational
es ar
Pr ivacy
\ }$,
ur istic
Ġ} .
Ġp neum
Ġautom ation
r ab
w so
Ġend ors
Ġhighlight ing
ĠTri p
Ġdr ummer
Perm alink
alth ough
ĠG y
Ġappro ve
Ġteen age
T unes
s ound
le ad
ism atch
Ġbe ats
Ġpredominant ly
Ġcor relations
Ġrout ing
sw ap
ĠAndrew s
ĠM N
ĠIraq i
contain ers
Ġexc av
ĠNE WS
Ġtransport ed
ĠTrail er
ĠM Y
trans parent
Ġveget ables
em ale
erc ise
b uck
23 4
inter action
se ver
ĠW ave
Ġsu its
ĠContin ue
Ġ// !
Ġflag ship
Ġdef ended
Prot os
M Y
ick r
ME D
ĠD yn
ĠO NE
Fr ag
v ik
Ġcon cludes
block quote
Ġout rage
Ġlog istics
Ġan ch
c apture
ĠW ere
ĠEn sure
bel ow
Ġhook s
Ġre ver
rolog ical
get Elements
Ġstress ed
Get ting
Ġcelebr ates
[ ];
ĠDav ies
ĠT S
ĠX X
Ġret ros
ĠPre view
poly mer
Adv anced
ç ±
ri ages
Ġexpress ing
Ġur ge
Ġsc ared
ĠLib ya
ĠM ouse
Ġaccount ability
Ġdis ruption
pos ium
Ġres iding
itor ies
Tra its
le vard
ĠCor respond
ĠR ust
ĠAmeric as
ĠB ert
Profess or
8 50
L if
ol in
Ġse ized
Gen re
in vest
ĠG or
Ġillust ration
Ġcol ored
Princ ipal
en i
ĠE PA
log ue
Serial izable
Ġchampionship s
rec ogn
ĠR um
I ran
x c
ĠPoint s
Ġpolar ization
Ġspl itting
3 25
ĠH ab
S af
ĠHe in
TR ACT
t pl
raw l
ĠHend erson
=" ./
Ġgo og
Ġdet erior
ĠI v
ĠAltern ative
ĠCl uster
ĠEm irates
ck er
ĠPeters burg
C ome
um atic
ĠW on
nt on
ĠD iana
script style
ï¼ ļ
l ap
Res olution
CI AL
ĠTw enty
P ot
ĠAl leg
integ ration
ject ure
Ġgorge ous
st ed
Ġtraff icking
Inv ocation
Ġl au
ĠGe off
Ġdec imal
at omy
Ġlo ops
ĠVlad imir
Ġl t
ĠLe af
Ġneg lect
and ez
ill on
ment ation
Ġap ple
Pers istent
Ġrub ber
re ne
Ġins isted
Ġtrans cription
d it
un icode
c ology
Ġs ung
sw ick
text up
ĠDe uts
ogen esis
ĠBre nd
ĠW inn
ĠMathemat ics
CO RE
Ġor bital
ĠShe ffield
Mut ex
Ġrandom ized
ĠFinn ish
z ier
ĠAg es
Ġg el
v id
il o
Ġprint s
ĠSe lection
Ġ" :
Or g
ĠPer th
, ,
Ġc rypto
out line
h yd
Ġ ub
ĠT as
ĠC ed
ĠS ang
ĠO H
Ġbr ig
( ",
\ ;
ST REAM
ric ia
Ġacc ent
Ġd type
kin son
c odes
ag ation
ĠPer fect
Ġpron ounced
Ġ" --
19 1
Ġenc ounters
Ġdynam ical
Ġlicens ing
Ġc emetery
ĠB ee
Fl or
Ġwat ches
ap hor
sh ake
em e
ĠCon cept
Reg ex
ĠStart ing
ĠP andemic
ĠN GO
Ġsign atures
ĠK as
Ġimm unity
Ġup graded
0 200
Sup pose
So ftware
ĠKn ights
ĠCoff ee
Ú ©
s napshot
Ġconv olution
R P
iv ier
ĠBi ography
ĠKr ish
pl oys
ec hes
UM N
short cut
ĠD uty
table block
Mod ules
Ġremot ely
ian i
Ġbehavior al
sub sec
ios ity
bound ed
pars ed
Ġd f
oy a
ical s
assert False
ĠFour ier
pe x
gr and
P LAY
iss an
eral a
Over flow
Ġclos es
P reference
ab lo
ib an
ĠA RE
G al
ĠH amb
Å Ħ
Ġc elebrities
Ġdefect s
L es
W ER
Ġhe d
per ed
pro blem
}\ ,\
ĠS ara
Ġ ÑĤ
TE GER
Ġw and
math op
ĠPl ans
Ġ( .
ĠChe ster
et ype
pret ty
Ġgam bling
at aka
Ġmet als
ĠAndre a
Abs olute
port folio
OP ER
18 4
CK ET
W estern
Ġfig ured
vart heta
18 64
M X
Ġm ol
CH O
D U
th reshold
Ġwa ited
ĠD as
h aul
ĠBloom berg
const it
K ills
Ġfort une
ĠR ica
Ġph on
lock ed
Ġfound ers
Ġcomplet es
Ġinnov ations
w b
ec a
ĠExper t
ĠB P
el n
ĠE ither
ain es
ĠInter ior
ĠG aming
itud inal
Ġhor rible
Cl one
ĠDis cussion
/ -
i ota
ĠP RE
ob ar
Ġreg ex
ĠST AT
He art
r us
ĠAngel a
Ġec ological
ĠLGBT Q
Ġref ere
T en
Ġprot agonist
Ġconf irms
ĠNews letter
Ġancest ors
× ŀ
Ġis omorphism
Ġ[ #
Fin ancial
c id
Ġst iff
re ction
}) =
Ġ/ .
ĠBel ow
cknow led
Ġir regular
ĠRep orter
B iden
Un fortunately
ĠA SC
Gr ant
g old
atal yst
ĠRE G
th ritis
ĠP P
ĠO g
read ing
âĶĢ âĶĢ
Ä Ļ
ĠA U
Over all
7 68
D X
ĠK oh
Cl ause
Ġapplic ant
ĠC ertain
Ġan omal
c ot
Ġa fore
ĠL ars
ĠG aza
( %
Type Def
Ġback wards
Is Null
Ġrecre ational
Î Ń
ĠC el
Car l
Ph ysical
ĠAsh ley
Ġb is
ter ms
ib les
Qu ote
ĠJohn s
00 4
ĠWrest ling
n ings
Ġtr illion
Ġcorrect ed
Ã± a
Ġexceed s
Ġdraft ed
ak y
ĠIS BN
ĠAb original
ĠFif th
B F
T LS
t ap
Ġo ps
ĠSD K
ĠR he
22 6
tab End
Ġp sy
ĠMET H
play back
mat ched
ount ain
ĠB end
Ġback s
rg b
=" <?
V el
26 5
ĠValid ate
Ġreg ret
back slash
Ġpun ct
Every thing
Ġdon ate
J ud
ĠT ier
ĠW WE
for um
ĠJen kins
Em ploy
Ġtransl ations
A WS
Ġ} ));
Ġcreat ors
ĠO bs
Ġin k
Ġsupposed ly
w ang
ĠBO OL
F at
Ġg ym
us ions
Ġsimpl er
ĠFergus on
Ġlect ures
n is
Ġg rief
com puter
Man aged
Inst ead
D evelopment
id is
] ",
ĠD ynamic
ĠHold ings
Ġrelax ed
Ġpione er
Ġdens ities
ole y
ĠK iss
Ġtechn ically
Tr ust
Ġsuper b
Ġobst acles
> ';
ĠL ac
Ġcl ay
comm unity
Rest r
Ġbuy er
B rown
Ġn aked
Ġenjoy able
Ġf d
23 3
Ġt ire
ĠBr ady
Lou is
ĠC and
Que en
Ġacc ret
Tex as
Ġ{ })
ĠF irm
vis ual
od s
Ġgreen house
Ġll vm
ol and
so lete
Ġcapt uring
Ġintern ally
Ġen velope
ocr acy
22 8
ast ically
Ġh ind
ans wer
ev t
18 87
Ġdestroy ing
Ġelabor ate
F ee
ĠM oses
head s
M AT
PRE SS
ĠØ§ ÙĦ
! ,
30 5
synt ax
Com pute
ĠÐ ·
na ire
Ġgram mar
ĠAs k
ĠHel per
ĠN W
Att ach
ĠH ir
ĠIn come
P ART
ĠTop ics
an ium
Ġdiv id
æľ ī
ocy tes
Ġrevers ed
IP S
om aly
se ar
aur us
Ġfavor ites
oc he
ĠEval uation
****** /
è ¦
ĠK urt
tr action
Ġhe ated
ĠC ork
p ick
Im p
Ġevolution ary
ight y
ĠIn tern
Ġt ast
Ġchar m
Ġd irt
ĠP ir
3 45
x ref
eng es
Ġwork flow
Ġg ri
ĠRen ew
Ġwar fare
ĠLaure n
Ġresil ience
f v
es pecially
Ġaut umn
Block Index
A H
Default s
Ġdownload ed
ĠHy per
amb ia
ĠTe en
Ġdeliber ately
Ġm ate
ĠS hen
Ġthr illed
ograph s
Ġdeal er
Î ®
ĠN V
su ite
Ġreg istr
Ġcoun tr
Ġj okes
Ġide ology
iment ary
Ġbelong ed
NUM BER
ĠLem mon
erg i
ĠCon sequently
s aved
Ġ× Ķ
ĠInvest ig
Ġsports people
std out
pt a
Ġh over
Ġ elli
un stable
Ġbr ave
Ġconv inc
r ice
get Time
Ġab normal
A sh
ch ard
ins ki
Last Name
Ġteen ager
ĠBurn s
ĠCurt is
> $
ĠN atal
Ġr ifle
bl er
=' #
ĠTag ged
ĠBulg aria
yst er
ĠG ospel
Ġac ids
uch i
Ġt ournaments
ĠW rap
F ederal
Ġexp ans
get Data
ĠZ ion
Ġfre ight
cl er
ĠV K
Ġrem ed
b ower
Ġsol ic
ard less
Prov ince
F inder
18 86
p romise
Ġf ence
iv ariate
Ġmed i
ĠMedic are
C ut
ĠH ear
Ġint end
}$ }
list ing
Ġv ine
ĠSing er
Creat or
ĠAppe al
ĠIn nov
IS O
Ġm asters
ab ove
Ġoff line
Ġcounter parts
Ġtwe ets
( <
Ġgar bage
Ġcomm ittees
ĠC atch
ĠV ern
Ġimag ined
aver age
ĠFA Q
Ġunderstand s
display Name
ill ian
Ġamb assador
ĠC red
ĠM OD
ĠM t
} `
Ġen rich
Ġshould ers
PRO TO
eros pace
min imum
Ġenthus iasm
G s
Ġsc aled
ĠPr ide
Ind ust
ĠS chema
ĠF IX
Ġper cussion
ĠW ool
Ġrain fall
un i
18 81
Ġb ugs
en ium
Ġillust rations
ĠCas ino
U i
Ġpro jections
Ġhous ed
Ġmess aging
Ġappe aling
18 40
ĠAs ync
Debug ger
ĠJ ak
ĠG W
head ed
gr at
ĠHe ader
ĠCase y
C LO
ĠDev on
ĠEncycl opedia
Ġdesign ation
ĠTe acher
Ġbreak through
ĠHol ocaust
Ġplant ed
ĠLinked In
text color
Ġins ufficient
Ġment or
Ġs aves
r ors
Ġresign ation
ĠR M
Ġdefe ating
im ates
Ġspec ifying
Ġint act
ress es
Dis covery
DO CK
Ġm p
Ġorgan izational
Typ ed
D aily
å ĩ
ierarch ical
Ã ¯
Ġinv isible
Current ly
ĠGrand e
ĠRh ode
Res olve
ĠPost s
Ġrank ings
f air
ĠG ut
ĠD erek
Ġsc ary
wall paper
l iteral
stan bul
be am
F K
la unch
ĠWy oming
i otic
y en
ĠT N
Ġassess ments
Ġl ighter
arr ison
Dis c
Ġdis close
ĠEr nest
h appy
IL D
oc cup
ap a
Ar n
um at
Ġestim ator
40 3
Ġcapital ism
ĠGr iff
al bum
ĠArch ae
Operation Exception
k ok
ĠT ours
ĠG ren
Ġsam pled
SE D
A mb
ro gate
ĠCh in
Ġbom bs
ĠH ood
rest ore
Ġhom ogeneous
Il legal
Ġport able
ĠNob el
ç± »
f ollow
ĠB il
An th
ĠÐ ¼
Ð¸ Ðµ
ĠV iv
ular ity
ĠM aced
Ġm ud
Ġorgan ize
Ġdr ill
Start ed
ĠCarol ine
Instance Of
PAR AMETER
Pro b
Ġviol ated
ĠAdv ance
Man ifest
CON F
Sen ior
l is
Ġpar ade
ict ured
Ġchar ming
ĠMc Car
[...]
