{"[UNK]":0,"!":1,"\"":2,"#":3,"$":4,"%":5,"&":6,"'":7,"(":8,")":9,"*":10,"+":11,",":12,"-":13,".":14,"/":15,"0":16,"1":17,"2":18,"3":19,"4":20,"5":21,"6":22,"7":23,"8":24,"9":25,":":26,";":27,"<":28,"=":29,">":30,"?":31,"@":32,"A":33,"B":34,"C":35,"D":36,"E":37,"F":38,"G":39,"H":40,"I":41,"J":42,"K":43,"L":44,"M":45,"N":46,"O":47,"P":48,"Q":49,"R":50,"S":51,"T":52,"U":53,"V":54,"W":55,"X":56,"Y":57,"Z":58,"[":59,"\\":60,"]":61,"^":62,"_":63,"`":64,"a":65,"b":66,"c":67,"d":68,"e":69,"f":70,"g":71,"h":72,"i":73,"j":74,"k":75,"l":76,"m":77,"n":78,"o":79,"p":80,"q":81,"r":82,"s":83,"t":84,"u":85,"v":86,"w":87,"x":88,"y":89,"z":90,"{":91,"|":92,"}":93,"~":94,"¡":95,"¢":96,"£":97,"¤":98,"¥":99,"¦":100,"§":101,"¨":102,"©":103,"ª":104,"«":105,"¬":106,"®":107,"¯":108,"°":109,"±":110,"²":111,"³":112,"´":113,"µ":114,"¶":115,"·":116,"¸":117,"¹":118,"º":119,"»":120,"¼":121,"½":122,"¾":123,"¿":124,"Â":125,"Ã":126,"Ä":127,"Å":128,"Æ":129,"Ç":130,"È":131,"É":132,"Ê":133,"Ë":134,"Ì":135,"Í":136,"Î":137,"Ï":138,"Ð":139,"Ñ":140,"Ò":141,"Ó":142,"Ô":143,"Õ":144,"Ö":145,"×":146,"Ø":147,"Ù":148,"Ú":149,"Û":150,"Ü":151,"Ý":152,"Þ":153,"ß":154,"à":155,"á":156,"â":157,"ã":158,"ä":159,"å":160,"æ":161,"ç":162,"è":163,"é":164,"ê":165,"ë":166,"ì":167,"í":168,"î":169,"ï":170,"ð":171,"ò":172,"ó":173,"ô":174,"Ā":175,"ā":176,"Ă":177,"ă":178,"Ą":179,"ą":180,"Ć":181,"ć":182,"Ĉ":183,"ĉ":184,"Ċ":185,"ċ":186,"Č":187,"č":188,"Ď":189,"ď":190,"Đ":191,"đ":192,"Ē":193,"ē":194,"Ĕ":195,"ĕ":196,"Ė":197,"ė":198,"Ę":199,"ę":200,"Ě":201,"ě":202,"Ĝ":203,"ĝ":204,"Ğ":205,"ğ":206,"Ġ":207,"ġ":208,"Ģ":209,"ģ":210,"Ĥ":211,"ĥ":212,"Ħ":213,"ħ":214,"Ĩ":215,"ĩ":216,"Ī":217,"ī":218,"Ĭ":219,"ĭ":220,"Į":221,"į":222,"İ":223,"ı":224,"Ĳ":225,"ĳ":226,"Ĵ":227,"ĵ":228,"Ķ":229,"ķ":230,"ĸ":231,"Ĺ":232,"ĺ":233,"Ļ":234,"ļ":235,"Ľ":236,"ľ":237,"Ŀ":238,"ŀ":239,"Ł":240,"ł":241,"Ń":242,"ĠĠ":243,"Ġt":244,"in":245,"ĠĠĠĠ":246,"Ġa":247,"er":248,"on":249,"he":250,"re":251,"at":252,"Ġthe":253,"en":254,"or":255,"Ġs":256,"es":257,"an":258,"is":259,"it":260,"al":261,"Ġc":262,"Ġo":263,"Ġw":264,"ar":265,"ed":266,"Ġf":267,"ing":268,"ion":269,"Ġp":270,"nd":271,"Ġb":272,"le":273,"ou":274,"ic":275,"Ġin":276,"as":277,"Ġof":278,"ĠĠĠ":279,"ĠĠĠĠĠĠĠĠ":280,"Ġm":281,"ro":282,"Ġd":283,"Ġto":284,"Ġand":285,"ent":286,"et":287,"Ġh":288,"ct":289,"st":290,"el":291,"il":292,"Ġth":293,"om":294,"Ġre":295,"am":296,"Ġn":297,"ĠS":298,"id":299,"âĢ":300,"ĠT":301,"Ġl":302,"ol":303,"ĠC":304,"ĠA":305,"ur":306,"ce":307,"ut":308,"ation":309,"Ġe":310,"ig":311,"im":312,"ot":313,"Ġ(":314,"iv":315,"ad":316,"se":317,"ch":318,"Ġg":319,"ĠI":320,"ĠĠĠĠĠĠĠ":321,"Ġis":322,"ay":323,"ĠM":324,"ul":325,"ow":326,"Ġfor":327,"th":328,"ly":329,"ers":330,"ag":331,"Ġon":332,"od":333,"if":334,"Ġst":335,"ĠP":336,"un":337,"Ġbe":338,"us":339,"Ġ=":340,"em":341,"ir":342,"ĠB":343,"ter":344,"ac":345,"ith":346,"Ġv":347,"ĉĉ":348,"</":349,"um":350,"ab":351,"ate":352,"pe":353,"Ġthat":354,"20":355,"av":356,"est":357,"=\"":358,"ĠD":359,");":360,"ĠR":361,"tr":362,"Ġcon":363,"ver":364,"oc":365,"ĠH":366,"Ġas":367,"ap":368,"Ġwith":369,"ĠF":370,"qu":371,"--":372,"Ġwh":373,"ew":374,"Ġ{":375,"ht":376,"and":377,"ĠL":378,"ess":379,"op":380,"Ġ$":381,"ĠW":382,"Ġan":383,"Ġal":384,"ist":385,"ĠN":386,"Ġ<":387,"âĢĻ":388,"res":389,"Ġit":390,"Ġpro":391,"Ġy":392,"//":393,"our":394,"ass":395,"ction":396,"ĠG":397,"ĠĠĠĠĠĠĠĠĠĠĠ":398,"ĠE":399,"ort":400,"ain":401,"ex":402,"end":403,"ere":404,"ill":405,"ĠThe":406,"Ġ\\":407,"os":408,"ub":409,"čĊ":410,"ity":411,"Ġr":412,"ame":413,"Ġde":414,"Ġ*":415,"Ġwas":416,"rom":417,"pt":418,"Ġcom":419,"ore":420,"Ġat":421,"ke":422,"ri":423,"ment":424,"Ġex":425,"Ġby":426,"up":427,"Ġ\"":428,"art":429,"ue":430,"Ġor":431,"ies":432,"age":433,"ld":434,"pl":435,"Ġcl":436,"all":437,"ĠO":438,"Ġare":439,"Ġhe":440,"ĠJ":441,"ect":442,"ive":443,"ine":444,"Ġ}":445,"ant":446,"19":447,"nt":448,"ight":449,"Ġfrom":450,"Ġthis":451,"ĠâĢ":452,"Ġse":453,"og":454,"\">":455,"ure":456,"ack":457,"ud":458,"port":459,"..":460,"ial":461,"cl":462,"iz":463,"ust":464,"ans":465,"ĠĠĠĠĠĠĠĠĠĠĠĠĠĠĠĠ":466,"Ġtr":467,"ath":468,"urn":469,"ave":470,"ib":471,"ge":472,"ard":473,"Ġch":474,"00":475,"Ġwe":476,"ĠU":477,"ult":478,"Ġnot":479,"rou":480,"ov":481,"Ġsh":482,"per":483,"act":484,"()":485,"ff":486,"con":487,"ĠĠĠĠĠ":488,"ber":489,"out":490,"ell":491,"**":492,"ip":493,"able":494,"are":495,"ost":496,"ary":497,"orm":498,"ast":499,"ak":500,"The":501,"Ġle":502,"ated":503,"ext":504,"ind":505,"sp":506,"'s":507,"ok":508,"ef":509,"ia":510,"Ġif":511,"ire":512,"com":513,"Ġyou":514,"ord":515,"201":516,"ich":517,"ĠK":518,"Ġhave":519,"ace":520,"eg":521,"Ġ&":522,"turn":523,"Ġpl":524,"ice":525,"int":526,"ear":527,"ide":528,"Ġclass":529,"ase":530,"ong":531,"ould":532,"ork":533,"get":534,"Ġ-":535,"ĠIn":536,"ions":537,"ype":538,"----":539,"ical":540,"==":541,"ep":542,"ile":543,"Ġ'":544,"ign":545,"Ġj":546,"ode":547,"Ġhas":548,"ite":549,"ime":550,"ĠV":551,"Ġab":552,"ĠSt":553,"In":554,"Ġcan":555,"Ġint":556,"Ġall":557,"ubl":558,"ence":559,"âĢĿ":560,"Ġus":561,"cc":562,"Ġcomp":563,"li":564,"ail":565,"ĠTh":566,"ang":567,"erv":568,"str":569,"Ġk":570,"ance":571,"Ġad":572,"_{":573,"ata":574,"ther":575,"Ġhis":576,"Ġu":577,"one":578,"Ġnew":579,"pro":580,"ref":581,"ens":582,"ations":583,"ĠĠĠĠĠĠĠĠĠĠĠĠĠĠĠ":584,"ous":585,"ev":586,"ject":587,"Ġim":588,"ec":589,"Ġun":590,"ild":591,"form":592,"ob":593,"),":594,"ition":595,"Ġwill":596,"hen":597,"ory":598,"Ġcont":599,"so":600,"Ġar":601,"Ġwhich":602,"ach":603,"ress":604,"Ġres":605,").":606,"gh":607,"ome":608,"ents":609,"ĠCh":610,"Ġreturn":611,"Ġdis":612,"du":613,"Ġap":614,"Ġbut":615,"ublic":616,"Ġdo":617,"Ġ//":618,"ert":619,"ll":620,"Ġen":621,"ont":622,"ra":623,"Ġout":624,"ook":625,"alue":626,"ock":627,"Ġtheir":628,"Ġgo":629,"ph":630,"row":631,"Ġup":632,"ian":633,"ĠĊ":634,"own":635,"ĉĉĉĉ":636,"Ġ[":637,"ug":638,"ual":639,"->":640,"::":641,"ft":642,"ĠâĢľ":643,"Ġme":644,"ound":645,"elf":646,"ark":647,"ose":648,"ink":649,"Ġone":650,"ish":651,"Ġ</":652,"10":653,"Ġthey":654,"ake":655,"ors":656,"ree":657,"unction":658,"ource":659,"Ġwere":660,"fer":661,"St":662,"enc":663,"ull":664,"tern":665,"ĠY":666,"mer":667,"Ġmore":668,"Ġpr":669,"ry":670,"Ġsc":671,"ount":672,"irst":673,"iew":674,"te":675,"../":676,"Ġper":677,"200":678,"ick":679,"Ġev":680,"her":681,"Ġwho":682,"ne":683,"{\\":684,"Ġstr":685,"au":686,"ple":687,"Ġ@":688,"Ġpart":689,"\",":690,"ss":691,"ict":692,"Ġ|":693,"Ġalso":694,"cri":695,"ps":696,"ely":697,"Ġman":698,"ool":699,"ings":700,"oll":701,"Ġ/":702,"clud":703,"rit":704,"hed":705,"ption":706,"aram":707,"Ġso":708,"old":709,"ays":710,"Ġag":711,"ates":712,"Ġ$\\":713,"ck":714,"Ġsu":715,"Ġits":716,"ize":717,"inal":718,"Ġget":719,"Ġqu":720,"Ġwork":721,"ery":722,"Ġ+":723,"Ġsp":724,"aw":725,"eth":726,"div":727,"ml":728,"Ġabout":729,"iel":730,"Ġher":731,"ma":732,"Ġbeen":733,"set":734,"Ġyear":735,"(\"":736,"lect":737,"yst":738,"Ġhad":739,"Ġover":740,"ener":741,"math":742,"we":743,"ĠIt":744,"();":745,"Ġpre":746,"nder":747,"wo":748,"Ġne":749,"pec":750,"essage":751,"Ġli":752,"Ex":753,"Ġpublic":754,"ng":755,"Ġte":756,"put":757,"fter":758,"ater":759,"sh":760,"Ġother":761,"ield":762,"pect":763,"18":764,"Ġdef":765,"Ġtime":766,"anc":767,"lo":768,"ĠHe":769,"pr":770,"ics":771,"erm":772,"ĠâĢĵ":773,"iss":774,"over":775,"ons":776,"Ġ.":777,"Ġset":778,"></":779,"ĠUn":780,"Ġsa":781,"oint":782,"ie":783,"--------":784,"span":785,"Ġwhen":786,"fr":787,"Ġfirst":788,"Ġname":789,"ys":790,"oun":791,"',":792,"ty":793,"cre":794,"Ġro":795,"tring":796,"Ġany":797,"Ġpe":798,"Ġthere":799,"ond":800,"ational":801,"io":802,"Th":803,"ystem":804,"ER":805,"les":806,"ople":807,"Ġour":808,"12":809,"ix":810,"ve":811,"vel":812,"Ġrec":813,"><":814,"Ġcomm":815,"Ġwould":816,"Ġoff":817,"igh":818,"Ġob":819,"Ġdes":820,"Ġthan":821,"Ġfunction":822,"****":823,"Ġsup":824,"err":825,"fig":826,"Ġ*/":827,"Ġinto":828,"reat":829,"Ġinter":830,"ram":831,"Ġ:":832,"ade":833,"ember":834,"rap":835,"ied":836,"Ġyour":837,"Ġass":838,"Ġsome":839,"Ġvar":840,"ove":841,"====":842,"round":843,"ific":844,"atch":845,"ax":846,"oid":847,"ON":848,"Ġkn":849,"equ":850,"Ġthem":851,"ious":852,"IN":853,"Pro":854,"../../":855,"}}":856,"text":857,"ĠĠĠĠĠĠĠĠĠĠĠĠĠĠĠĠĠĠĠ":858,"Ġadd":859,"arch":860,"ĠCom":861,"oy":862,"pos":863,"Ġtwo":864,"ange":865,"app":866,"ĠAr":867,"Ġacc":868,"odel":869,"ning":870,"arg":871,"ise":872,"als":873,"Ġno":874,"roup":875,"Ġinclud":876,"Ġbet":877,"olog":878,"eb":879,"Ġ#":880,"Ġonly":881,"ĉĉĉ":882,"Ġsaid":883,"Ġshe":884,"ray":885,"ally":886,"to":887,"ident":888,"Ġplay":889,"trib":890,"^{":891,"Ġcol":892,"name":893,"html":894,"://":895,"ient":896,"Ġact":897,"('":898,"uild":899,"Ġpeople":900,"ator":901,"11":902,"ased":903,"line":904,"ative":905,"ĠThis":906,"ames":907,"this":908,"urre":909,"Ġreg":910,"ities":911,"ĠĠĠĠĠĠĠĠĠ":912,"ĠNew":913,"))":914,"Ġend":915,"Ġunder":916,"orld":917,"Ġcons":918,"umber":919,"Ġop":920,"Ġfe":921,"Ġlike":922,"ues":923,"Ġind":924,"Ġdata":925,"ĠPro":926,"atic":927,"Name":928,"ating":929,"ments":930,"tt":931,"tribut":932,"Ġhref":933,"che":934,"ular":935,"Ġsub":936,"Ġtrans":937,"eng":938,"}$":939,"uct":940,"}\\":941,"ited":942,"ward":943,"oth":944,"ement":945,"abel":946,"16":947,"Ġafter":948,"Ġprov":949,"ner":950,"key":951,"15":952,"__":953,"trans":954,"lation":955,"amp":956,"und":957,"Ġem":958,"RE":959,"ash":960,"Ġinv":961,"rough":962,"source":963,"Type":964,"Ġam":965,"land":966,"Ġwhat":967,"Ġbl":968,"Ġback":969,"let":970,"message":971,"right":972,"ars":973,"the":974,"import":975,"Ġmay":976,"red":977,"ĠSe":978,"Ġpos":979,"ead":980,"Ġmy":981,"Ġwhere":982,"ank":983,"ility":984,"Ġjust":985,"Ġvalue":986,"ause":987,"Ġtype":988,"ĠTr":989,"alse":990,"ivers":991,"ms":992,"ower":993,"cal":994,"read":995,"irect":996,"Con":997,"Ġrequ":998,"21":999,"Ġrel":1000,"Ġuse":1001,"uring":1002,"ethod":1003,"ices":1004,"Ġ=>":1005,"ough":1006,"Ġdif":1007,"dd":1008,"its":1009,"ures":1010,"Ġac":1011,"Ġrem":1012,"param":1013,"ĠWe":1014,"ox":1015,"Ġserv":1016,"Ġhow":1017,"Ġel":1018,"Id":1019,"Ġfil":1020,"td":1021,"ollow":1022,"ST":1023,"ek":1024,"uth":1025,"Ġmost":1026,"ible":1027,"ton":1028,"Ġever":1029,"ann":1030,"cess":1031,"String":1032,"Ch":1033,"ru":1034,"oot":1035,"Ġcall":1036,"ts":1037,"AT":1038,"...":1039,"ood":1040,"vent":1041,"Ġline":1042,"ily":1043,"any":1044,"Ġstud":1045,"Ġpol":1046,"Com":1047,"Ġself":1048,"Ġresult":1049,"col":1050,"Ġthrough":1051,"ble":1052,"Ġspec":1053,"wn":1054,"egin":1055,"},":1056,"ym":1057,"return":1058,"Ġbec":1059,"son":1060,"Ġph":1061,"ĠAl":1062,"itt":1063,"resent":1064,"fore":1065,"Ġloc":1066,"(\\":1067,"Ġent":1068,"Cont":1069,"der":1070,"Ġsuch":1071,"air":1072,"Ġi":1073,"ww":1074,"ced":1075,"ID":1076,"cript":1077,"Ġthen":1078,"cond":1079,"meric":1080,"30":1081,"raph":1082,"ful":1083,"Ġhim":1084,"yn":1085,"code":1086,"Ġfl":1087,"urrent":1088,"Ġ||":1089,"of":1090,"199":1091,"ĠSh":1092,"Ġshow":1093,"ele":1094,"Ġthese":1095,"Ġconst":1096,"Ġneed":1097,"ife":1098,"Ġprodu":1099,"led":1100,"htt":1101,"Ġyears":1102,"ages":1103,"âĢĵ":1104,"begin":1105,"ah":1106,"ault":1107,"/>":1108,"ween":1109,"ider":1110,"Ġ!":1111,"Ġco":1112,"ier":1113,"ince":1114,"Res":1115,"14":1116,"chool":1117,"plic":1118,"ins":1119,"ren":1120,"ache":1121,"cent":1122,"17":1123,"ctions":1124,"ines":1125,"25":1126,"ature":1127,"add":1128,"Ġused":1129,"ists":1130,"##":1131,"ĠAn":1132,"min":1133,"OR":1134,"erson":1135,"AR":1136,"imes":1137,"Ġorg":1138,"Ġinst":1139,"def":1140,"Ġwell":1141,"Ġatt":1142,".âĢĿ":1143,"ĠCl":1144,"Ġfollow":1145,"org":1146,"man":1147,"fl":1148,"co":1149,"âĢľ":1150,"ished":1151,"Cl":1152,"view":1153,"ception":1154,"Ġform":1155,"Ġcould":1156,"try":1157,"Ġbr":1158,"13":1159,"day":1160,"ason":1161,"ask":1162,"class":1163,"ences":1164,"Ġgr":1165,"ta":1166,"ĠWh":1167,"pon":1168,"ersion":1169,"translation":1170,"ument":1171,"\"/>":1172,"Ġshould":1173,"ined":1174,"other":1175,"Ġagain":1176,"Ġchar":1177,"ale":1178,"Ġbetween":1179,"Ġ_":1180,"itle":1181,"ision":1182,"ivate":1183,"'t":1184,"type":1185,"Ġtest":1186,"Ġstart":1187,"Ġeff":1188,"It":1189,"fo":1190,"hip":1191,"ized":1192,"orn":1193,"oci":1194,"List":1195,"Ġdiffer":1196,"000":1197,"Ġ==":1198,"alth":1199,"EN":1200,"Ġnow":1201,"AL":1202,"uch":1203,"formation":1204,"Ar":1205,"ution":1206,"Ġdr":1207,"):":1208,"iver":1209,"press":1210,"Ġright":1211,"tain":1212,"ting":1213,"Ġgener":1214,"az":1215,"Ġcre":1216,"Ġdet":1217,"ĠAmeric":1218,"_{\\":1219,"bl":1220,"Ġlong":1221,"ĠQ":1222,"ral":1223,"ĠCon":1224,"ĠEx":1225,"Ġbeing":1226,"Ġsystem":1227,"ody":1228,"Ġsm":1229,"Ġevery":1230,"Ġmany":1231,"Ġnull":1232,"ives":1233,"self":1234,"2020":1235,"Ġknow":1236,"aking":1237,"ouse":1238,"be":1239,"////":1240,"ern":1241,"back":1242,"ream":1243,"umm":1244,")$":1245,"way":1246,"Ġ>":1247,"Ġsign":1248,"Ġmake":1249,"yle":1250,"oh":1251,"Ġvoid":1252,"ants":1253,"Ġsim":1254,"ever":1255,"Ġval":1256,"Ġcor":1257,"ets":1258,"Ġnumber":1259,"ience":1260,"ĠZ":1261,"val":1262,"ĠFor":1263,"br":1264,"Ġcase":1265,"Ġread":1266,"ole":1267,"ĠAnd":1268,"Tr":1269,"ism":1270,"}{":1271,"Ġtrue":1272,"ired":1273,"LE":1274,"Ġhel":1275,"Ġdid":1276,"Ġart":1277,"Ġele":1278,"Ġsur":1279,"ser":1280,"ey":1281,"Ġser":1282,"Ġhigh":1283,"Ġfinal":1284,"label":1285,"Ġmin":1286,"ces":1287,"Ġed":1288,"pre":1289,"\"><":1290,"loc":1291,"var":1292,"cept":1293,"Ġsupport":1294,"ric":1295,"ten":1296,"Ġpoint":1297,"idth":1298,"ote":1299,"ĠInd":1300,"iversity":1301,"ik":1302,"Ġbefore":1303,"iness":1304,"Ġbecause":1305,"Ġfound":1306,"eta":1307,"uss":1308,"Ġmon":1309,"Ġlist":1310,"Ġ`":1311,"ĠAs":1312,"Ġeven":1313,"Ġsee":1314,"50":1315,"yp":1316,"uff":1317,"gram":1318,"Ġfalse":1319,"Ġwhile":1320,"ology":1321,"Ġeach":1322,"SS":1323,"Ġdoes":1324,"Ġgu":1325,"ather":1326,"Ġ--":1327,"Ġcoun":1328,"orth":1329,"Ġlook":1330,"ccess":1331,"Ġelse":1332,"work":1333,"));":1334,"Ġmade":1335,"by":1336,".\"":1337,"Ġdec":1338,"Ġworld":1339,"Ġway":1340,"rol":1341,"ĠĠĠĠĠĠĠĠĠĠĠĠĠĠĠĠĠĠĠĠĠĠĠĠĠĠĠĠĠĠĠĠ":1342,"Ġfam":1343,"att":1344,"velop":1345,"Ġmed":1346,"To":1347,"perty":1348,"Ġexper":1349,"22":1350,"Ġerr":1351,"Ġlead":1352,"ared":1353,"arget":1354,"Ġdevelop":1355,"aj":1356,"ense":1357,"Ġbel":1358,"left":1359,"ength":1360,"Ġvery":1361,"string":1362,"ee":1363,"arent":1364,"uc":1365,"Ġcent":1366,"alk":1367,"Ġsame":1368,".,":1369,"Ġlast":1370,"par":1371,"Ġear":1372,"frac":1373,"bject":1374,"eq":1375,"Ġoper":1376,"----------------":1377,"ute":1378,"chn":1379,"********":1380,"Ġhand":1381,"ample":1382,"sc":1383,"eter":1384,"Ġstate":1385,"Ġboth":1386,"for":1387,"24":1388,"ital":1389,"bar":1390,"ross":1391,"Ġown":1392,"We":1393,"ically":1394,"ternal":1395,"Ref":1396,"Ġresp":1397,"iven":1398,"AN":1399,"ĠDe":1400,"bers":1401,"Ġ)":1402,"ĠSc":1403,"Ġthose":1404,"usiness":1405,"Ġmodel":1406,",âĢĿ":1407,"Ġduring":1408,"ency":1409,"Ġext":1410,"ule":1411,"sub":1412,"rr":1413,"Ġx":1414,"gy":1415,"ĠIs":1416,"ĠYou":1417,"ava":1418,"Ġrun":1419,"ization":1420,"wh":1421,"ify":1422,"ified":1423,"Value":1424,"Ġthree":1425,"ĠCol":1426,"ister":1427,"ĠĠĠĠĠĠĠĠĠĠĠĠĠ":1428,"198":1429,"Ġche":1430,"ott":1431,"ases":1432,"Ġdown":1433,"data":1434,"Ġrep":1435,"opt":1436,"IT":1437,"roll":1438,"value":1439,"Ġav":1440,"Data":1441,"Ġmod":1442,"iving":1443,"ĠFr":1444,"ually":1445,"iev":1446,"med":1447,"Ġteam":1448,"Ġhelp":1449,"Ġfind":1450,"Wh":1451,"Col":1452,"Ġdifferent":1453,"ger":1454,"32":1455,"\");":1456,"date":1457,"Ġusing":1458,"apt":1459,"ĠRes":1460,"Ġest":1461,"Ġdisc":1462,"Ġgl":1463,"ĠĠĠĠĠĠĠĠĠĠĠĠĠĠĠĠĠĠĠĠĠĠĠ":1464,"Ġmov":1465,"By":1466,"Ġdirect":1467,"Ġappro":1468,"Ġmuch":1469,"ĠPh":1470,"Ġsecond":1471,"ness":1472,"mathb":1473,"me":1474,"pp":1475,"ĠIf":1476,"new":1477,"Ġreport":1478,"ĠPl":1479,"Ġwant":1480,"Ġgood":1481,"Ġmem":1482,"Ġcurrent":1483,"Ġsol":1484,"outh":1485,"ural":1486,"Ġid":1487,"ĠRe":1488,"Ġinformation":1489,"Ġcommun":1490,"Ġcontin":1491,"Ġimport":1492,"til":1493,"Ġhere":1494,"Ġ/**":1495,"ervice":1496,"SE":1497,"ĠĠĠĠĠĠ":1498,"atus":1499,"Ġwrit":1500,"ĠâĢĶ":1501,"ĠBl":1502,"item":1503,"uthor":1504,"âĢ¦":1505,"cont":1506,"Ġthink":1507,"ains":1508,"not":1509,"Ġdon":1510,"ional":1511,"Un":1512,"Ġbo":1513,"Ġstring":1514,"Ġcar":1515,"CT":1516,"Ġprivate":1517,"This":1518,"ron":1519,"Ġsl":1520,"lear":1521,"play":1522,"Ġpass":1523,"nb":1524,"ina":1525,"Ġchild":1526,"arm":1527,"ission":1528,"Ġpartic":1529,"Ġbuild":1530,"ĠComm":1531,"Ġmark":1532,"ury":1533,"ĠâĢĺ":1534,"Ġrele":1535,"ummary":1536,"100":1537,"========":1538,"use":1539,"usic":1540,"px":1541,"Ġprocess":1542,"akes":1543,"load":1544,"Ġperform":1545,"$.":1546,"En":1547,"comm":1548,"face":1549,"oad":1550,"Ġequ":1551,"ived":1552,"ĠPr":1553,"test":1554,"ality":1555,"come":1556,"Set":1557,"ĠMar":1558,"cite":1559,"ĠOn":1560,"Ġfact":1561,"ĠUniversity":1562,"Ġapp":1563,"($":1564,"ane":1565,"Ġperson":1566,"action":1567,"file":1568,"umn":1569,"rm":1570,"An":1571,"ords":1572,"ĠX":1573,"\")":1574,"ots":1575,"que":1576,"Ġmethod":1577,"lection":1578,"40":1579,"$,":1580,"els":1581,"ential":1582,"DE":1583,"search":1584,"ats":1585,"ght":1586,"amb":1587,"Ġincluding":1588,"Ġvis":1589,"Ġstill":1590,"ety":1591,"ends":1592,"23":1593,"Exception":1594,"Ġobject":1595,"Ġ///":1596,"nbsp":1597,"Ġmain":1598,"uck":1599,"ush":1600,"roid":1601,"ĠAd":1602,"ler":1603,"As":1604,"CO":1605,"istory":1606,"Ġtake":1607,"}.":1608,"Ġopen":1609,"head":1610,"ĠShe":1611,"})":1612,"ohn":1613,"reak":1614,"Ġlife":1615,"Ġpat":1616,"bs":1617,"ĠBut":1618,"Ġincre":1619,"reg":1620,"Ġbook":1621,"];":1622,"Ġfield":1623,"order":1624,"Ġprovid":1625,"Ġbeg":1626,"Ġfr":1627,"ober":1628,"Ġopt":1629,"Ġ&&":1630,"istr":1631,"ME":1632,"Ġhead":1633,"omen":1634,"itions":1635,"urs":1636,"Ġtop":1637,"Ġsing":1638,"ball":1639,"Ġagainst":1640,"nment":1641,"mathcal":1642,"On":1643,"Ġcour":1644,"requ":1645,"Ġexpect":1646,",\\":1647,"ven":1648,"Ġins":1649,"Ġgover":1650,"arn":1651,"ĠSp":1652,"Ġaround":1653,"rror":1654,"field":1655,"ager":1656,"aining":1657,"Ġstatic":1658,"At":1659,"ump":1660,"For":1661,"Object":1662,"ĠJan":1663,"Ġdep":1664,"ĠMay":1665,"197":1666,"Ġweek":1667,"Get":1668,"Sh":1669,"Ġpost":1670,"Ġpop":1671,"Ġcare":1672,"raw":1673,"http":1674,"Ġorder":1675,"Ġeffect":1676,"Ġsom":1677,"Ġsince":1678,"Ġschool":1679,"ows":1680,"Ġnon":1681,"ected":1682,"Ġke":1683,"Ġcr":1684,"Ġgroup":1685,"less":1686,"ley":1687,"log":1688,"location":1689,"Ġdel":1690,"enn":1691,"Ġkey":1692,"')":1693,"struct":1694,"Ġday":1695,"Ġmust":1696,"ĠString":1697,"ocument":1698,"une":1699,"inter":1700,"Ġ!=":1701,"uro":1702,"etwork":1703,"Ã©":1704,"itor":1705,"ĠOr":1706,"time":1707,"Test":1708,"Ġprogram":1709,"Ġtri":1710,"Ġgame":1711,"illion":1712,"60":1713,"],":1714,"opy":1715,"Im":1716,"por":1717,"2019":1718,"ĠHow":1719,"lex":1720,"ĠEng":1721,"ior":1722,"Ġfin":1723,"ĠAmerican":1724,"oss":1725,"Ġarg":1726,"Ġbest":1727,"rem":1728,"Ġrece":1729,"go":1730,"rist":1731,"Ġpres":1732,"gr":1733,"vious":1734,"ĠLe":1735,"ird":1736,"Ġ%":1737,"Ġplace":1738,"acy":1739,"ustom":1740,"rite":1741,"size":1742,"ploy":1743,"fe":1744,"().":1745,"27":1746,"rop":1747,"Ġterm":1748,"Ġsay":1749,"ium":1750,"Ġlaw":1751,"ĠAll":1752,"Ġref":1753,"Ind":1754,"());":1755,"Ġevent":1756,"reen":1757,"ector":1758,"Ġdesign":1759,"Ġnext":1760,"Ġreal":1761,"ape":1762,"Ġsmall":1763,"ocial":1764,"Ġfollowing":1765,"64":1766,"Ġposs":1767,"Ġlink":1768,"Ġmet":1769,"Ġappe":1770,"Ġexpl":1771,"28":1772,"IC":1773,"irc":1774,"vir":1775,"idd":1776,"Ġiss":1777,"ulation":1778,"pha":1779,"ground":1780,"da":1781,"Ġlevel":1782,"abl":1783,"ĠUS":1784,"Ġlocal":1785,"lement":1786,"aving":1787,"ailable":1788,"Ġhtt":1789,"iginal":1790,"AC":1791,"ability":1792,"ised":1793,"Ġbusiness":1794,"aces":1795,"ively":1796,"tract":1797,"link":1798,"summary":1799,"Ġcharact":1800,"ĠUnited":1801,"dis":1802,"ateg":1803,"ternational":1804,"33":1805,"util":1806,"script":1807,"}(":1808,"2017":1809,"Ġstand":1810,"equation":1811,"Ġgiven":1812,"}_":1813,"Ġconsider":1814,"ĠThey":1815,"Ġadv":1816,"2018":1817,"bo":1818,"Ġfour":1819,"rc":1820,"itial":1821,"Refer":1822,"list":1823,"ĠMan":1824,"Ġpower":1825,"Class":1826,"RO":1827,"Ġann":1828,"cription":1829,"Ġz":1830,"2016":1831,"Ġfile":1832,"View":1833,"ording":1834,"~\\":1835,"www":1836,"ograph":1837,"Ġtechn":1838,"Ġmat":1839,"obal":1840,"26":1841,"Ġgreat":1842,"aster":1843,"Error":1844,"nav":1845,"ĠCent":1846,"Ġproject":1847,"ĠĠĠĠĊ":1848,"ĠBr":1849,"ION":1850,"wit":1851,"unc":1852,"aff":1853,"LL":1854,"âĢĶ":1855,"ait":1856,"}^":1857,"Ġaut":1858,"Ġpresent":1859,"Ġparam":1860,"2015":1861,"umer":1862,"Ġleft":1863,"angu":1864,"top":1865,"ogle":1866,"arge":1867,"ination":1868,"ĠAss":1869,"ĠAt":1870,"ai":1871,"ways":1872,"ĠNov":1873,"index":1874,"Ġorgan":1875,"ĠJohn":1876,"2021":1877,"olv":1878,"function":1879,"mod":1880,"ugg":1881,"29":1882,"._":1883,"ories":1884,"ately":1885,"Ġleg":1886,"Ġhome":1887,"ering":1888,"Ġfamily":1889,"Ġtitle":1890,"vert":1891,"Ġprot":1892,"uary":1893,"uration":1894,"ene":1895,"Ġwithout":1896,"Ġview":1897,"ĠBe":1898,"Ġold":1899,"public":1900,"includ":1901,"url":1902,"ĠJul":1903,"ĉĉĉĉĉ":1904,"icle":1905,"['":1906,"Ġcap":1907,"Ġdem":1908,"ari":1909,"ĠTo":1910,"iter":1911,"\";":1912,"bed":1913,"uman":1914,"].":1915,"ĠCan":1916,"Ġsays":1917,"ĠThere":1918,"Ġanother":1919,"icy":1920,".</":1921,"epend":1922,"\"></":1923,"Ġmonth":1924,"mp":1925,"Ġtry":1926,"ware":1927,"Key":1928,"AP":1929,"pace":1930,"Ġinvest":1931,"aim":1932,"ports":1933,"off":1934,"\":":1935,"ails":1936,"urch":1937,"Ġexp":1938,"He":1939,"Ġinterest":1940,"Al":1941,"js":1942,"https":1943,"Requ":1944,"Ġhealth":1945,"ED":1946,"hes":1947,"ocus":1948,"ources":1949,"ĠGr":1950,"Ġbu":1951,"Ġgoing":1952,"Ġbro":1953,"ĠCar":1954,"ession":1955,"Ġwithin":1956,"conom":1957,"Ġcalled":1958,"lected":1959,"itive":1960,"Ġtem":1961,"');":1962,"itional":1963,"Ġchang":1964,"ĠTe":1965,"(),":1966,"my":1967,"ought":1968,"Ġcontent":1969,"Ġsk":1970,"Ġreally":1971,"pi":1972,"ift":1973,"Ġmult":1974,"ĠÂ":1975,"Ġsize":1976,"2014":1977,"Re":1978,"duct":1979,"ended":1980,"ĠEn":1981,"width":1982,"LA":1983,"Ġbeh":1984,"Ġvari":1985,"Ġoffic":1986,"ems":1987,"ently":1988,"Ġspe":1989,"alpha":1990,"Ġsever":1991,"ajor":1992,"ification":1993,"aut":1994,"Ġbased":1995,"ained":1996,"Ġanal":1997,"urity":1998,"ĠOct":1999,"ĠPol":2000,"plication":2001,"ideo":2002,"Ġpar":2003,"Ġfew":2004,"With":2005,"elta":2006,"stand":2007,"tribute":2008,"uffer":2009,"ĠMed":2010,"Ġcond":2011,"Ġfilm":2012,"Ġstruct":2013,"File":2014,"Ġident":2015,"Ġcompany":2016,"mb":2017,"Ġtoo":2018,"ĠCO":2019,"Ġthrow":2020,"Ġrequest":2021,"ourn":2022,"inc":2023,"ights":2024,"Se":2025,"ounty":2026,"ival":2027,"iam":2028,"path":2029,"PE":2030,"align":2031,"ients":2032,"ertain":2033,"ackage":2034,"ony":2035,"Ġhapp":2036,"section":2037,"Ġseason":2038,"']":2039,"ope":2040,"ney":2041,"table":2042,"Ġproble":2043,"Ġavailable":2044,"Qu":2045,"agement":2046,"ittle":2047,"ĠNo":2048,"fil":2049,"Ġseries":2050,"!--":2051,"Ġaccess":2052,"viron":2053,"Ġ?":2054,"Ġtarget":2055,"const":2056,"Ġlim":2057,"Ġknown":2058,"Ġlater":2059,"ĠWorld":2060,"Ġturn":2061,"Ġservice":2062,"Ġchange":2063,"Ġallow":2064,"Ġmusic":2065,"ĠAug":2066,"All":2067,"ĠGu":2068,"Ġlet":2069,"ponse":2070,"arr":2071,"ume":2072,"ending":2073,"Ġdist":2074,"Time":2075,"Ġsuccess":2076,"Ġpolit":2077,"Ġtext":2078,"ards":2079,"Ġgovernment":2080,"part":2081,"side":2082,"ances":2083,"ison":2084,"2013":2085,"Ġgrow":2086,"UR":2087,"ĠYork":2088,"Int":2089,"ivity":2090,"Ġeng":2091,"Man":2092,"ĠNational":2093,"af":2094,"color":2095,"ĠJanuary":2096,"=\"../../":2097,"wards":2098,"Ġocc":2099,"TR":2100,"leg":2101,"Add":2102,"ĠStates":2103,"Ġput":2104,"Ġrefer":2105,"uk":2106,"ales":2107,"mber":2108,"aint":2109,"////////":2110,"ling":2111,"serv":2112,"ored":2113,"Event":2114,"ians":2115,"Ġfull":2116,"ĠApr":2117,"ĠCo":2118,"Ġtyp":2119,"aps":2120,"earch":2121,"ĠFl":2122,"eps":2123,"AS":2124,"80":2125,"Ġdev":2126,"ibr":2127,"iod":2128,"agn":2129,"ands":2130,"ambda":2131,"but":2132,"UT":2133,")\\":2134,"Ġnear":2135,"IS":2136,"ches":2137,"urther":2138,"45":2139,"ĠAust":2140,"anguage":2141,"Ġresearch":2142,"ready":2143,"Ġlog":2144,"ags":2145,"thing":2146,"uture":2147,"HE":2148,"Ġquest":2149,"aterial":2150,"Ġnever":2151,"Ġresults":2152,"2012":2153,"Ġbig":2154,"Ġuntil":2155,"eters":2156,"Ġet":2157,"ING":2158,"ica":2159,"References":2160,"Ġrepresent":2161,"Or":2162,"Request":2163,"Ġaff":2164,"Ġassert":2165,"Ġcheck":2166,"ĠMin":2167,"user":2168,"Ġconf":2169,"ising":2170,"Node":2171,"ties":2172,"evel":2173,"group":2174,"ours":2175,"ilar":2176,"Ġproduct":2177,"cast":2178,"pecial":2179,"New":2180,"sw":2181,"ention":2182,"de":2183,"iction":2184,"AD":2185,"Not":2186,"ĠSchool":2187,"ured":2188,"Ġless":2189,"ething":2190,"ĠMarch":2191,"ĠEuro":2192,"ĠDr":2193,"ĠState":2194,"eral":2195,"Ph":2196,"lang":2197,"uf":2198,"empt":2199,"isk":2200,"ES":2201,"Text":2202,"Ġ);":2203,"Pl":2204,"35":2205,"md":2206,"Ġwin":2207,"=\"+":2208,"Ġerror":2209,"Ġla":2210,"ules":2211,"lock":2212,"Ġarea":2213,"':":2214,"Ġ/>":2215,"And":2216,"Info":2217,"Ġprof":2218,"ouble":2219,"ĠIm":2220,"icon":2221,"ension":2222,"Ġrest":2223,"Ġcreate":2224,"bol":2225,"ped":2226,"sec":2227,"Ġrecord":2228,"State":2229,"Is":2230,"``":2231,"Ġalong":2232,"2011":2233,"cer":2234,"Ġinclude":2235,"/*":2236,"ĠChrist":2237,"indow":2238,"Ġprom":2239,"=\\":2240,"Ġstat":2241,"Ġpath":2242,"Ġbetter":2243,"ptember":2244,"Ġes":2245,"Ġfac":2246,"cember":2247,"Ġplan":2248,"())":2249,"imate":2250,"Def":2251,"Over":2252,"Ġstory":2253,"ĠEd":2254,"ably":2255,"Ġversion":2256,",\"":2257,"2010":2258,"ĠSo":2259,"/**":2260,"olean":2261,"down":2262,"stance":2263,"Ġimportant":2264,"Equ":2265,"length":2266,"thers":2267,"quot":2268,"amma":2269,"vironment":2270,"pression":2271,"Config":2272,"ique":2273,"Path":2274,"ĠGe":2275,"Ġgot":2276,"Ġoriginal":2277,"Ġmight":2278,"ators":2279,"Ġpay":2280,"OT":2281,"Ġexample":2282,"ret":2283,"Ġchildren":2284,"ides":2285,"ĠAb":2286,"Ġ\\\\":2287,"Ġcome":2288,"Des":2289,"alf":2290,"Ġ-->":2291,"Ġcontrol":2292,"des":2293,"Ġuser":2294,"oman":2295,"Ġbreak":2296,"Ġmeas":2297,"ung":2298,"mathbb":2299,"ender":2300,"array":2301,"amed":2302,"Ġfree":2303,"ride":2304,"ĠSouth":2305,"oken":2306,"Ġalways":2307,"};":2308,"Ġshort":2309,"enu":2310,"ega":2311,"Ġ/*":2312,"yl":2313,"IG":2314,"Field":2315,"bum":2316,"ĠCal":2317,"Ġask":2318,"ĠReg":2319,"_\\":2320,"Ġide":2321,"Ġcountry":2322,"Ġlarge":2323,"Ġstudy":2324,"Ġmembers":2325,"Ġfore":2326,"Ġblock":2327,"ued":2328,"box":2329,"Ġsingle":2330,"tra":2331,"Ġclos":2332,"ĠJune":2333,"ĠSup":2334,"Ġmajor":2335,"olution":2336,"amespace":2337,"bt":2338,"Ġwomen":2339,"error":2340,"Ġ,":2341,"ĠWith":2342,"gress":2343,"Ġdescri":2344,"ĠCity":2345,"Ġfoot":2346,"$\\":2347,"ĠFeb":2348,"Context":2349,"196":2350,"ilt":2351,"Ġpo":2352,"ither":2353,"Ġeas":2354,"config":2355,"body":2356,"Param":2357,"atures":2358,"Ġsit":2359,"ones":2360,"aus":2361,"ĠĠĠĠĠĠĠĠĠĠĠĠĠĠĠĠĠĠĠĠĠĠĠĠĠĠĠ":2362,"FF":2363,"ples":2364,"rew":2365,"Ġauthor":2366,"Ġseveral":2367,"stru":2368,"If":2369,"posed":2370,"Map":2371,"oin":2372,"Ġwhe":2373,"Ġhard":2374,"Ġret":2375,"void":2376,"odes":2377,"plement":2378,"ĠSystem":2379,"ĠApril":2380,"prov":2381,"Ġdays":2382,"ĠRep":2383,"ike":2384,"31":2385,"Ġtot":2386,"}_{":2387,"Ġdi":2388,"ĠJuly":2389,"Ġthings":2390,"place":2391,"Form":2392,"ĠAp":2393,"ĠWar":2394,"raft":2395,"comp":2396,"igma":2397,"Index":2398,"Ġsomething":2399,"book":2400,"aged":2401,"ĠOctober":2402,"node":2403,"stit":2404,"ĠPart":2405,"eting":2406,"Ġbas":2407,"Ġsocial":2408,"Ġmean":2409,"Ġarray":2410,"Ġdeath":2411,"Ġaddress":2412,"Ġdue":2413,"Ġearly":2414,"Ġalready":2415,"Ġplayers":2416,"idual":2417,"90":2418,"lege":2419,"Ġelect":2420,"icro":2421,"fin":2422,"Ġcity":2423,"Ġmillion":2424,"Ġcost":2425,"ĠSeptember":2426,"Ġfri":2427,"api":2428,"....":2429,"Ġcharacter":2430,"Ġwater":2431,"ĠEurope":2432,"}^{":2433,"ĠAugust":2434,"aper":2435,"ET":2436,"irt":2437,"ĠDecember":2438,"ĠCounty":2439,"Ġdefault":2440,"Ġenc":2441,"Ġ(!":2442,"ĠWill":2443,"Ġcommunity":2444,"ĠNovember":2445,"Ġcell":2446,"mu":2447,"MP":2448,"Ġpubl":2449,"ormal":2450,"Ġoffer":2451,"ailed":2452,"\".":2453,"ague":2454,"Element":2455,"ymbol":2456,"Ġclear":2457,"Ġland":2458,"artment":2459,"word":2460,"Ġimp":2461,"Ġstyle":2462,"Ġsong":2463,"oice":2464,"oney":2465,"Ġhistory":2466,"But":2467,"Ġtimes":2468,"ĠMc":2469,"hold":2470,"Ġrequire":2471,"ilit":2472,"eturn":2473,"Ġspace":2474,"Ġacross":2475,"99":2476,"Ġsec":2477,"ĠThat":2478,"ui":2479,"ĠCont":2480,"####":2481,"Ġfar":2482,"Ġfund":2483,"nection":2484,"Code":2485,"Service":2486,"Ġvalues":2487,"Ġprovide":2488,"Ġvol":2489,"ĠPar":2490,"pen":2491,"ayout":2492,"gl":2493,"ĠGet":2494,"Ġposition":2495,"abled":2496,"oper":2497,"ĠAg":2498,"LO":2499,"ĠPres":2500,"55":2501,"Ġ});":2502,"Ġlittle":2503,"US":2504,"01":2505,"Ġspecial":2506,"Ġparticular":2507,"from":2508,"sm":2509,"[]":2510,"Ġpract":2511,"\"\"":2512,"ĠBrit":2513,"Ġbase":2514,"Ġmar":2515,"****************":2516,"perties":2517,"';":2518,"Ġside":2519,"title":2520,"ayer":2521,"Ġcrit":2522,"apache":2523,"idence":2524,"true":2525,"Ġredu":2526,"Ġfeel":2527,"assert":2528,"Ġhold":2529,"ĠNorth":2530,"cd":2531,"Ġaction":2532,"input":2533,"Ġestabl":2534,"34":2535,"Array":2536,"no":2537,"37":2538,"model":2539,"Ġexist":2540,"point":2541,"\\\\":2542,"Ġleast":2543,"see":2544,"ĠBo":2545,"Build":2546,"ysis":2547,"oud":2548,"Ġcover":2549,"Ġsource":2550,"ĠOff":2551,"ves":2552,"ĠCor":2553,"result":2554,"Ġcode":2555,"Ġworking":2556,"ĠRev":2557,"ament":2558,"Ġrespect":2559,"tes":2560,"Ġ},":2561,"Ġnetwork":2562,"36":2563,"Ġkeep":2564,"Ġprevious":2565,"ada":2566,"Ġpossible":2567,"Of":2568,"iol":2569,"Ġlot":2570,"ecut":2571,"state":2572,"Ġindust":2573,"Ġassoci":2574,"prot":2575,"block":2576,"dt":2577,"uments":2578,"ML":2579,"ibility":2580,"map":2581,"Ġair":2582,"ĠAct":2583,"-\\":2584,"ĠBy":2585,"ĠHowever":2586,"aring":2587,"onse":2588,"Ġpot":2589,"hat":2590,"Ġhuman":2591,"Ġbeliev":2592,"Ġhig":2593,"now":2594,"Ġcomplet":2595,"Ġrad":2596,"++":2597,"Ġwon":2598,"ync":2599,"rodu":2600,"ruary":2601,"sk":2602,"Ġlarg":2603,"UN":2604,"Ġable":2605,"plate":2606,"ponent":2607,"istor":2608,"Size":2609,"pm":2610,"Comm":2611,"Ġresponse":2612,"Ġcustom":2613,"Ġlik":2614,"Ġclaim":2615,"object":2616,"reet":2617,"ĠDis":2618,"Result":2619,"sl":2620,"aken":2621,"Ġeconom":2622,"Ġemploy":2623,"version":2624,"Ġconfig":2625,"From":2626,"Ġmaking":2627,"ged":2628,"ana":2629,"Ġant":2630,"Ġyoung":2631,"bf":2632,"atter":2633,"Ġdevelopment":2634,"ops":2635,"Ġcontext":2636,"ief":2637,"Ġmax":2638,"Ġindiv":2639,"AB":2640,"ux":2641,"2009":2642,"ĠAustral":2643,"rel":2644,"Ġlove":2645,"Ġpast":2646,"Ġbecome":2647,"Fil":2648,"Ġperiod":2649,"ables":2650,"rior":2651,"content":2652,"39":2653,"loat":2654,"igned":2655,"Ġparent":2656,"Ġreview":2657,"Ġcamp":2658,"ĠMe":2659,"à¤":2660,"ero":2661,"Ġcult":2662,"Ġstudents":2663,"ĠChe":2664,"acc":2665,"Ġcal":2666,"resp":2667,"rix":2668,"Ġabove":2669,"Message":2670,"Ġphot":2671,"Ġamong":2672,"nect":2673,"position":2674,"Ġrange":2675,"Ġaccount":2676,"ĠNews":2677,"Ġtoget":2678,"Ġservices":2679,"Ġtogether":2680,"ĠQu":2681,"Ġrole":2682,"Ġaway":2683,"ĠWhen":2684,"met":2685,"ration":2686,"Ġexperience":2687,"Ġener":2688,"Ġinput":2689,"Ġoften":2690,"ham":2691,"abor":2692,"ĠSer":2693,"44":2694,"Ġfocus":2695,"vers":2696,"ottom":2697,"='":2698,"ENT":2699,"Ġhaving":2700,"Item":2701,"Hand":2702,"Ġjob":2703,"MA":2704,"Ġlow":2705,"Ġgeneral":2706,"Ġproperty":2707,"sum":2708,"lete":2709,"mathbf":2710,"oph":2711,"ĠĠĊ":2712,"irl":2713,"call":2714,"dom":2715,"^{\\":2716,"Ġalbum":2717,"Ġwar":2718,"ĠEl":2719,"Ġtrad":2720,"Trans":2721,"Ġconc":2722,"ply":2723,"Sc":2724,"Ġlinks":2725,"ogn":2726,"Ġeduc":2727,"refer":2728,"phi":2729,"Ġtook":2730,"38":2731,"Ġfuture":2732,"Ġsimilar":2733,"70":2734,"roups":2735,"yd":2736,"info":2737,"Ġstrong":2738,"Loc":2739,"Ġep":2740,"imal":2741,"annel":2742,"Ġtotal":2743,"Ġinitial":2744,"ĠGl":2745,"Ġ__":2746,"Ġdocument":2747,"ered":2748,"ills":2749,"Ġdistribut":2750,"lease":2751,"Ġcomb":2752,"Ġcolor":2753,"lambda":2754,"Ġdom":2755,"ixed":2756,"Ġarr":2757,"Ġformer":2758,"TE":2759,"osp":2760,"create":2761,"clus":2762,"struction":2763,"ĠWest":2764,"uation":2765,"Ġindividual":2766,"avel":2767,"most":2768,"Ġsignific":2769,"ĠOne":2770,"Ġdiscuss":2771,"oke":2772,"ster":2773,"Up":2774,"ournal":2775,"lish":2776,"Ġtrack":2777,"2008":2778,"Ġdiv":2779,"do":2780,"lient":2781,"ners":2782,"Ġoptions":2783,"Pr":2784,"Ser":2785,"Ġtalk":2786,"Ġinc":2787,"Val":2788,"Ġfive":2789,"sel":2790,"Ġmeans":2791,"ĠGo":2792,"CE":2793,"lt":2794,"aul":2795,"Ġjava":2796,"ips":2797,"ĠFebruary":2798,"Ġgive":2799,"ids":2800,"Ġsite":2801,"Out":2802,"Fr":2803,"emic":2804,"Ġannoun":2805,"System":2806,"Ġlight":2807,"default":2808,"Ġben":2809,"VID":2810,"Ġmedia":2811,"ho":2812,"ino":2813,"Read":2814,"Ġfurther":2815,"ĠGerm":2816,"Ġbecame":2817,"rec":2818,"Ġra":2819,"atform":2820,"iple":2821,"era":2822,"Ġ:=":2823,"irm":2824,"iff":2825,"What":2826,"ze":2827,"ĠComp":2828,"Inter":2829,"define":2830,"Ġcame":2831,"=\"../../../../":2832,"unity":2833,"reed":2834,"Ad":2835,"Ġwhy":2836,"75":2837,"igation":2838,"ĠNot":2839,"elling":2840,"tings":2841,"Ġkind":2842,"ried":2843,"inary":2844,"ĠCoun":2845,"umb":2846,"bit":2847,"irth":2848,"ĠArt":2849,"ĠBar":2850,"Ġobserv":2851,"Ġwhether":2852,"eh":2853,"Ġtreat":2854,"unk":2855,"ilon":2856,"48":2857,"include":2858,"Ġdone":2859,"IP":2860,"itted":2861,"Ġunderstand":2862,">&":2863,"Ġhouse":2864,"Ġthought":2865,"Ġthough":2866,"iment":2867,"Ġbody":2868,"Ġmatch":2869,"Ġinstance":2870,"Ġpage":2871,"ocr":2872,"Ġ{\\":2873,"with":2874,"Ġseen":2875,"66":2876,"ĠAm":2877,"max":2878,"though":2879,"Ġhost":2880,"IL":2881,"aced":2882,"where":2883,"Ġmessage":2884,"hel":2885,"ĠRec":2886,"Reg":2887,"cell":2888,"ĠDep":2889,"Ġprob":2890,"OD":2891,"istic":2892,"Ġdeterm":2893,"You":2894,"ĠAfr":2895,"Dis":2896,"Ġtable":2897,"ided":2898,"Ġpoints":2899,"Ġ===":2900,"Ġofficial":2901,"cil":2902,"Ġindex":2903,"How":2904,"Ġsuper":2905,"thern":2906,"cy":2907,"Ġinvolv":2908,"Ġnode":2909,"Ġtoday":2910,"ological":2911,"Ġmen":2912,"CH":2913,"ĠPer":2914,"Ġbackground":2915,"ĠÐ":2916,"iting":2917,"ĠDav":2918,"ring":2919,"sup":2920,"195":2921,"aging":2922,"Ġrequired":2923,"Ġmass":2924,"ĠDes":2925,"Ġcur":2926,"lim":2927,"Ġothers":2928,"ij":2929,"Log":2930,"Ġport":2931,"rest":2932,"Ġnational":2933,"Call":2934,"--------------------------------":2935,"light":2936,"Ġthird":2937,"roller":2938,"Ġcommon":2939,"Model":2940,"ĠDo":2941,"TH":2942,"Ġsrc":2943,"ĠPark":2944,"illed":2945,"uggest":2946,"Ġenergy":2947,"Ġcases":2948,"ondon":2949,"Ġonce":2950,"TD":2951,"ĠHouse":2952,"NA":2953,"Ġwebs":2954,"Ġinteg":2955,"Ġcourse":2956,"Ġrelations":2957,"mat":2958,"Ġgames":2959,"Ġevents":2960,"Ġvideo":2961,"Color":2962,"Ġmember":2963,"Ġcompet":2964,"ached":2965,"base":2966,"beta":2967,"ĠThese":2968,"Ġnews":2969,"Ġage":2970,"na":2971,"Ġcertain":2972,"eff":2973,"gt":2974,"Manager":2975,"Ġeither":2976,"java":2977,"ĠHis":2978,"Ġmom":2979,"ĠList":2980,"ĠMark":2981,"Ġdest":2982,"Ġenough":2983,"ĠGener":2984,"ĠAfter":2985,"ĠInt":2986,"There":2987,"ĠĠĠĠĠĠĠĠĠĠĠĠ":2988,"imum":2989,"alt":2990,"Ġlive":2991,"ilities":2992,"Ġsix":2993,"arrow":2994,"ements":2995,"lin":2996,"mathrm":2997,"idge":2998,"pose":2999,"ĠPresident":3000,"unch":3001,"ĠPe":3002,"Ġimage":3003,"Ġproblem":3004,"ĠSm":3005,"Ġexpected":3006,"ULL":3007,"ounds":3008,"*}":3009,"Table":3010,"ĠEm":3011,"Ġshows":3012,"Ġdidn":3013,"Ġobtain":3014,"next":3015,"ington":3016,"urg":3017,"No":3018,"ĠWhat":3019,"Ġhttp":3020,"05":3021,"Ġperformance":3022,"Ġsignificant":3023,"Ġsure":3024,"Ġbit":3025,"2007":3026,"Ġ};":3027,"Ġcomput":3028,"using":3029,"07":3030,"Âł":3031,"ude":3032,"ĠKing":3033,"ibrary":3034,"ama":3035,"atab":3036,"ĠMy":3037,"Ġtre":3038,"ĠHealth":3039,"print":3040,"Ġcoll":3041,"anch":3042,"year":3043,"ecess":3044,"Ġsent":3045,"reate":3046,"asing":3047,"Ġpotential":3048,"ĠSec":3049,"ius":3050,"icense":3051,"Ġcount":3052,"Ġreason":3053,"apan":3054,"space":3055,"hib":3056,"ĠII":3057,"Ġbegin":3058,"start":3059,"css":3060,"ĠIN":3061,"Ġbuilding":3062,"ises":3063,"ilde":3064,"cle":3065,"eed":3066,"sigma":3067,"ched":3068,"ĠChar":3069,"Ġelement":3070,"ication":3071,"Ġmot":3072,"ifier":3073,"Ġmarket":3074,"Ġphys":3075,"Ġmaterial":3076,"ĉĉĉĉĉĉ":3077,"Ġstarted":3078,"anel":3079,"Ġdoesn":3080,"Ġmakes":3081,"08":3082,"Ġattack":3083,";&":3084,"init":3085,"context":3086,"Ġcreat":3087,"Ð°":3088,"ille":3089,"================":3090,"De":3091,"Ġund":3092,"Ġreceived":3093,"Ġreleased":3094,"Ġsat":3095,"ae":3096,"doc":3097,"google":3098,";</":3099,"External":3100,"Ġrisk":3101,"Ġborder":3102,"User":3103,"android":3104,"pty":3105,"ĠAmerica":3106,"mark":3107,"Property":3108,"iddle":3109,"Ġglobal":3110,"valid":3111,"Ġpress":3112,"ĠStr":3113,"Ġthing":3114,"net":3115,"Ġprovided":3116,"Client":3117,"ministr":3118,"ĠSet":3119,"oon":3120,"verage":3121,"anies":3122,"check":3123,"ĠTrans":3124,"Ġstop":3125,"false":3126,")}":3127,"Rec":3128,"ites":3129,"Ġyet":3130,"Ġabs":3131,"ociety":3132,"Ġhttps":3133,"imary":3134,"Sub":3135,"ography":3136,"ĠCour":3137,"ĠRuss":3138,"Ġclose":3139,"ĠSch":3140,"49":3141,"Ġbool":3142,"ĠBro":3143,"ĠStud":3144,"Em":3145,"47":3146,"=\"#":3147,"package":3148,"ĠHar":3149,"^{-":3150,"parent":3151,"ptions":3152,"OS":3153,"Ġcreated":3154,"Ed":3155,"aur":3156,"Ġmiss":3157,"Ġnil":3158,"ened":3159,"Ġsuggest":3160,"ĠHigh":3161,"Fl":3162,"Ġheld":3163,"aves":3164,"ires":3165,"Ġ(\\":3166,"static":3167,"flu":3168,"ping":3169,"sequ":3170,"ĠAdd":3171,"Ġfeature":3172,"Ġmove":3173,"ensure":3174,"ades":3175,"ĠLondon":3176,"Ġfootball":3177,"build":3178,"irus":3179,"Ġaud":3180,"Ass":3181,"Ġwent":3182,"rown":3183,"Ġstd":3184,"2006":3185,"MS":3186,"IR":3187,"Ġactiv":3188,"andom":3189,"Ġdiff":3190,"Ð¾":3191,"Ġchall":3192,"style":3193,"Ġplayed":3194,"Ġmonths":3195,"oo":3196,"vision":3197,"=\"../":3198,"tab":3199,"iet":3200,"big":3201,"CC":3202,"Ġmap":3203,"ks":3204,"iation":3205,"Ġenvironment":3206,"Ġrespons":3207,"Query":3208,"'re":3209,"ĠĠĠĠĠĠĠĠĠĠ":3210,"nown":3211,"Ġgen":3212,"active":3213,"ĠLaw":3214,"Ġhalf":3215,"ynam":3216,"ĠAng":3217,"Ġnight":3218,"ging":3219,"Ġcontinue":3220,"utions":3221,"02":3222,"Arg":3223,"Mod":3224,"Ġpred":3225,"actory":3226,"based":3227,"ĠInternational":3228,"argin":3229,"Ġintrodu":3230,"Ġlanguage":3231,"ĠTest":3232,"rect":3233,"respond":3234,"method":3235,"sy":3236,"augh":3237,"Ġsw":3238,"ald":3239,"ference":3240,"~~":3241,"Ġpur":3242,"Override":3243,"Ġcou":3244,"ĠMich":3245,"ĠUp":3246,">(":3247,"Ġ()":3248,"ancial":3249,"SP":3250,"web":3251,"member":3252,"ĠClass":3253,"Ġdate":3254,"quad":3255,"plit":3256,"Ġlearn":3257,"arning":3258,"ford":3259,"ftware":3260,"ĠTrump":3261,"46":3262,"atural":3263,"Ġbi":3264,"ainer":3265,"Ġindic":3266,"Ġadded":3267,"Response":3268,"Ġbelow":3269,"Bar":3270,"amples":3271,"Ġonline":3272,"Ġworks":3273,"Ġsubject":3274,"medi":3275,"Str":3276,"Ġvia":3277,"Method":3278,"Ġmoney":3279,"ĠUK":3280,"Ġtaken":3281,"Count":3282,"09":3283,"ael":3284,"Ġtold":3285,"Ġsection":3286,"ĠEnglish":3287,"aly":3288,"+\\":3289,"ename":3290,"sq":3291,"Ġtown":3292,"Ġbirth":3293,"Ġwebsite":3294,"OP":3295,"Builder":3296,"Ġtw":3297,"Ġchanges":3298,"Ġterms":3299,"Ġdeal":3300,"icles":3301,"Stream":3302,"orage":3303,"Ġfall":3304,"tries":3305,"Ġoutput":3306,"Ġaccording":3307,"ithub":3308,"ependent":3309,"ese":3310,"Ġquestion":3311,"theta":3312,"plied":3313,"inition":3314,"db":3315,"Ġ$(":3316,"Ġpercent":3317,"ĠĠĠĠĠĠĠĠĠĠĠĠĠĠĠĠĠĠĠĠĠĠĠĠĠĠĠĠĠĠĠ":3318,"gamma":3319,"Ġrights":3320,"Ġvarious":3321,"ĠBritish":3322,"hand":3323,"Gener":3324,"ĠMon":3325,"ceed":3326,"ĠAir":3327,"Ġdisplay":3328,"Ðµ":3329,"Ġindustry":3330,"^\\":3331,"atory":3332,"Ġwords":3333,"namespace":3334,"ĠVal":3335,"ĠMr":3336,"Ġpolitical":3337,"istry":3338,"figure":3339,"Ġcirc":3340,"Ġpublished":3341,"igure":3342,"Ġimplement":3343,"Ġfeatures":3344,"attle":3345,"04":3346,"delta":3347,"omet":3348,"utes":3349,"ĠCOVID":3350,"aug":3351,"Ġblack":3352,"Ġactually":3353,"Ġtell":3354,"Ġincluded":3355,"Ġfood":3356,"mit":3357,"Ġnum":3358,"aign":3359,"aker":3360,"ĠIndia":3361,"Group":3362,"iles":3363,"Ġarch":3364,"ONT":3365,"leq":3366,"Ġreported":3367,"event":3368,"2000":3369,"uel":3370,"Ġpersonal":3371,"Ġparticip":3372,"Ġspecific":3373,"Ġface":3374,"dev":3375,"oved":3376,"ĠDef":3377,")</":3378,"Ġregion":3379,"ategory":3380,"Ġamount":3381,"ĠInter":3382,"Ġsuff":3383,"option":3384,"witch":3385,"Image":3386,"ĠCollege":3387,"igital":3388,"Ġpatients":3389,"atabase":3390,"Ġcareer":3391,"lood":3392,"Ġtax":3393,"Ġinternational":3394,"cope":3395,"]{":3396,"ries":3397,"efore":3398,"Ġbegan":3399,"contain":3400,"Ġproduction":3401,"Ġvisit":3402,"Ġviol":3403,"Ġden":3404,"Ġlength":3405,"bor":3406,"Ġsearch":3407,"Ġwritten":3408,"ech":3409,"ampions":3410,"ĠAc":3411,"xy":3412,"chiev":3413,"ris":3414,"06":3415,"Ġmer":3416,"Ġbenef":3417,"Ġneg":3418,"Ġband":3419,"Ġfav":3420,"Ġprint":3421,"ishing":3422,"ĠJapan":3423,"ĠMore":3424,"Ġcompon":3425,"aid":3426,"Ġhowever":3427,"Ġrate":3428,"aries":3429,"ns":3430,"Date":3431,"cul":3432,"0000":3433,"ouch":3434,"Ġcaus":3435,"Ġbuilt":3436,"Be":3437,"duc":3438,"Ġvalid":3439,"ilitary":3440,"<!--":3441,"core":3442,"End":3443,"ework":3444,"gen":3445,"Ġopport":3446,"Ġbound":3447,"Ġaccept":3448,"oe":3449,"Ġdecl":3450,"github":3451,"Ã¡":3452,"Ġlabel":3453,"ening":3454,"ĠDon":3455,"acing":3456,"Ġissues":3457,"Ġdefined":3458,"FA":3459,"Ġteach":3460,"42":3461,"itte":3462,".)":3463,"iforn":3464,"ĠHer":3465,"Ġcomes":3466,"oms":3467,"Ġneeds":3468,"ĠDem":3469,"options":3470,"ican":3471,"php":3472,"Ġentire":3473,"RA":3474,"Ġimpact":3475,"oto":3476,"dl":3477,"Ab":3478,"ges":3479,"Ġsystems":3480,"ocol":3481,"Ġwidth":3482,"semb":3483,"ummer":3484,"rench":3485,"anks":3486,"ĉĉĉĉĉĉĉĉ":3487,"atest":3488,"nes":3489,"Ġandroid":3490,"ĠCenter":3491,"Ġaddition":3492,"Ġstep":3493,"Ġcompanies":3494,"ĠPat":3495,"irtual":3496,"null":3497,"03":3498,"Ġcontribut":3499,"EE":3500,"Ġred":3501,"ĠWilliam":3502,"Ġgroups":3503,"Ġrather":3504,"Ġload":3505,"ado":3506,"izing":3507,"Block":3508,"Ġ...":3509,"Ġago":3510,"Ġpolicy":3511,"BC":3512,"Ġmor":3513,"coming":3514,"}{\\":3515,"Ġ($":3516,"](":3517,"urb":3518,"2005":3519,"ĠBlack":3520,"atal":3521,"PI":3522,"Ġlo":3523,"])":3524,"current":3525,"Ġprofess":3526,"change":3527,"Ġrelease":3528,"pecially":3529,"fully":3530,"Ġfront":3531,"Ġengine":3532,"Ġinstall":3533,"rho":3534,"Ġalmost":3535,"unt":3536,"ĠSw":3537,"ĠSan":3538,"emplate":3539,"ĠGod":3540,"Util":3541,"ifornia":3542,"When":3543,"ĠRed":3544,"Ġsex":3545,"Ġdeg":3546,"Ġhom":3547,"ĠPhil":3548,"eline":3549,"Off":3550,"client":3551,"Ap":3552,"iday":3553,"Act":3554,"Ġdoing":3555,"ivil":3556,"Ġhigher":3557,"vis":3558,"gor":3559,"ĠAssoci":3560,"Status":3561,"Ġbring":3562,"times":3563,"rad":3564,"Ġ<<":3565,"Ġpopulation":3566,"image":3567,"ĠAcc":3568,"Ġtask":3569,"Ġlower":3570,"ĠGover":3571,"Ġnecess":3572,"Ġstates":3573,"icient":3574,"$-":3575,"ores":3576,"Ġlooking":3577,"Ġoption":3578,"NS":3579,"Ġapproach":3580,"Input":3581,"Ġground":3582,"Ġill":3583,"65":3584,"dir":3585,"lying":3586,"ederal":3587,"Ġnamed":3588,"rt":3589,"Ġhours":3590,"selves":3591,"Ġtechnology":3592,"Ġtraining":3593,"Ġrecent":3594,"Ġbar":3595,"ĠSen":3596,"ĠTV":3597,"angle":3598,"Ġareas":3599,"Ġmodels":3600,"ĠčĊ":3601,"riter":3602,"Ġclub":3603,"Ġappear":3604,"rows":3605,"Ġsepar":3606,"OL":3607,"Ġtele":3608,"icult":3609,"Ġcut":3610,"ĠGroup":3611,"Ġtaking":3612,"df":3613,"Ġstatus":3614,"aven":3615,"Ġcannot":3616,"ensive":3617,"Ġanalysis":3618,"GL":3619,"Ġeffort":3620,"ĠChina":3621,"Ġboolean":3622,"Che":3623,"page":3624,"Ġshown":3625,"Ġgrad":3626,"Ġrecogn":3627,"ara":3628,"Source":3629,"}(\\":3630,"Ġwhole":3631,"Ġcopy":3632,"ĠSim":3633,"Sp":3634,"has":3635,"Ġvot":3636,"Ġloss":3637,"elt":3638,"Ġrelationship":3639,"Ġlate":3640,"Cell":3641,"wise":3642,"request":3643,"run":3644,"EX":3645,"eqref":3646,"ĠĠĠĠĠĠĠĠĠĠĠĠĠĠĠĠĠ":3647,"ection":3648,"query":3649,"77":3650,"child":3651,"AG":3652,"Ġfail":3653,"Ġcy":3654,"SC":3655,"IV":3656,"estern":3657,"Ġsche":3658,"Ġissue":3659,"ii":3660,"maz":3661,"Ġshare":3662,"ledge":3663,"Ġachiev":3664,"((":3665,"hing":3666,"Ġlikely":3667,"anced":3668,"unn":3669,"Ġey":3670,"dr":3671,"Ġmind":3672,"Base":3673,"Ġ->":3674,"ĠFrom":3675,"Ġimprov":3676,"nov":3677,"func":3678,"ship":3679,"Ġplayer":3680,"Ġimm":3681,"Ġparty":3682,"roy":3683,"95":3684,"orge":3685,"Ġinstead":3686,"Ġattempt":3687,"Ġpers":3688,"izer":3689,"cit":3690,"acity":3691,"ĠDepartment":3692,"Ġcomplex":3693,"Ġpresident":3694,"used":3695,"wide":3696,"Ġwatch":3697,"ospital":3698,"btn":3699,"Ġconditions":3700,"App":3701,"Ġincludes":3702,"apter":3703,"Ġcontact":3704,"UE":3705,"Token":3706,"ĠJust":3707,"iences":3708,"Ġseem":3709,"Ġassociated":3710,"ATE":3711,"Ġprior":3712,"TY":3713,"cial":3714,"hood":3715,"Head":3716,"Ð¸":3717,"sim":3718,"args":3719,"ida":3720,"Ġaverage":3721,"Ġarticle":3722,"Ġbehind":3723,"ken":3724,"Ġheart":3725,"raphics":3726,"ees":3727,"Ġdescribed":3728,"ĠCons":3729,"tau":3730,"Ġcommand":3731,"fect":3732,"Ġconsidered":3733,"ĠRepublic":3734,"cale":3735,"arter":3736,"ĠLa":3737,"Ġcontract":3738,"ĠDirect":3739,"Ġcross":3740,"Ġnov":3741,"Ġfire":3742,"gorith":3743,"su":3744,"ĠOf":3745,"finished":3746,"evelop":3747,"UL":3748,"ialog":3749,"Ġtool":3750,"mission":3751,"ĠDavid":3752,"ĠAN":3753,"One":3754,"ĠFirst":3755,"Ġbad":3756,"soft":3757,"ĠStreet":3758,"yles":3759,"Ġder":3760,"ĠCalifornia":3761,"count":3762,"500":3763,"Ġinj":3764,"Comp":3765,"lean":3766,"oring":3767,"imation":3768,"atives":3769,"HT":3770,"2004":3771,"ĠHol":3772,"amily":3773,"server":3774,"stream":3775,"Ġapplic":3776,"Ġapplication":3777,"43":3778,"mon":3779,"ĠBook":3780,"istrict":3781,"ha":3782,"Ġroad":3783,"joy":3784,"astic":3785,"DO":3786,"Null":3787,"ico":3788,"xi":3789,"host":3790,"Ġshall":3791,"Ġcho":3792,"board":3793,"Ġwrite":3794,"ĠDay":3795,"REF":3796,"iers":3797,"ĠIr":3798,"Ġrelated":3799,"Ġsens":3800,"ĠWork":3801,"Ġcorrespond":3802,"case":3803,"AA":3804,"Pos":3805,"lem":3806,"Ġver":3807,"Ġprotected":3808,"Ġitem":3809,"ĠOut":3810,"Ġstandard":3811,"Ġstaff":3812,"center":3813,"pected":3814,"Nav":3815,"Ġcurrently":3816,"Ġstream":3817,"Ġgetting":3818,"Instance":3819,"Ġclient":3820,"Ġwalk":3821,"Ġrout":3822,"Ġ\"\"\"":3823,"88":3824,"Ġquick":3825,"41":3826,"Ġcred":3827,"ĠSk":3828,"Ġregard":3829,"etic":3830,"adding":3831,"Ġpopular":3832,"ĠNULL":3833,"Equal":3834,"witter":3835,"Ġresource":3836,"Ġneeded":3837,"Ġsound":3838,"obile":3839,"istics":3840,"Ġannounced":3841,"Ġstructure":3842,"button":3843,"Ġwhite":3844,"idget":3845,"Line":3846,"jav":3847,"icip":3848,"Ġbelieve":3849,"Ġsequ":3850,"airs":3851,"Ġleaders":3852,"ĠLeague":3853,"emy":3854,"ĠEast":3855,"uster":3856,"After":3857,"Ġhistor":3858,"Ġforward":3859,"Ġfamil":3860,"ining":3861,"ĠNor":3862,"chan":3863,"ellow":3864,"ĠCourt":3865,"IM":3866,"fort":3867,"useum":3868,"Ġupon":3869,"Ġsecurity":3870,"ĠOF":3871,"ebug":3872,"Ġespecially":3873,"Ġpaper":3874,"Ġeducation":3875,"itting":3876,"wood":3877,"Ġled":3878,"Ġlocated":3879,"irection":3880,"Ġtakes":3881,"ĠIndian":3882,"Ġinflu":3883,"Ġexpress":3884,"Part":3885,"andid":3886,"Ġhon":3887,"ĠInstit":3888,"fty":3889,"avy":3890,"ittee":3891,"Ġpolice":3892,"Ġfight":3893,"Ġmoment":3894,"Oper":3895,"Ġbroad":3896,"anger":3897,"ĠWeb":3898,"Ġcomplete":3899,"vey":3900,"Ġadditional":3901,"See":3902,"rowser":3903,"header":3904,"encies":3905,"otype":3906,"Ġprovides":3907,"nu":3908,"Buffer":3909,"Ġitself":3910,"Ġcolumn":3911,"target":3912,"elete":3913,"Ġcountries":3914,"}$,":3915,"Content":3916,"Attribute":3917,"Pre":3918,"Ġmanagement":3919,"ube":3920,"Ġdouble":3921,"Ġoffice":3922,"////////////////":3923,"height":3924,"ĠAustralia":3925,"Ġnormal":3926,"ĉĊ":3927,"Ġcomment":3928,"AM":3929,"Delta":3930,"ĠĠĠĠĠĠĠĠĊ":3931,"ĠReturn":3932,"ett":3933,"Ġwriting":3934,"Ġmultiple":3935,"Ġliter":3936,"Component":3937,"Action":3938,"like":3939,"Ġ+=":3940,"ĠNe":3941,"Sup":3942,"Ġcatch":3943,"Ġinit":3944,"Ġprote":3945,"Ġson":3946,"Ġsaf":3947,"sembly":3948,"actions":3949,"lib":3950,"Ġincrease":3951,"}$.":3952,"undle":3953,"Ġfriend":3954,"CK":3955,"aption":3956,"very":3957,"atur":3958,"Start":3959,"udd":3960,"navbar":3961,"aches":3962,"Ġbehav":3963,"''":3964,"Ġpick":3965,"idden":3966,"That":3967,"Pol":3968,"pite":3969,"oul":3970,"ervices":3971,"Ġlost":3972,"Ġplatform":3973,"Ġconcern":3974,"ares":3975,"Ġlimit":3976,"append":3977,"unfinished":3978,"Ġdifficult":3979,"Options":3980,"cing":3981,"lector":3982,"ĠCouncil":3983,"Ġproducts":3984,"inated":3985,"[\"":3986,"Ġmethods":3987,"|\\":3988,"ugin":3989,"67":3990,"Resource":3991,"ashington":3992,"Ġmeasure":3993,"elebr":3994,"ĠAnt":3995,"asc":3996,"tx":3997,"infty":3998,"ĠEuropean":3999,"({":4000,"first":4001,"level":4002,"Ġmatter":4003,"Ġoutside":4004,"Ġrunning":4005,"ĠĠĠĠĠĠĠĠĠĠĠĠĠĠ":4006,"Ġfem":4007,"comes":4008,"ĠCap":4009,"ĠResearch":4010,"Ġsus":4011,"Ġcampaign":4012,"ĠSub":4013,"indows":4014,"Ġvill":4015,"omb":4016,"Ġdam":4017,"Ġelements":4018,"ÑĤ":4019,"Ġmeet":4020,"Ġestablished":4021,"Ġhor":4022,"Ġquality":4023,"Ġidea":4024,"iqu":4025,"Ġupdate":4026,"Ġexecut":4027,"flow":4028,"Ġcoming":4029,"istance":4030,"cel":4031,"Handler":4032,"Ġwor":4033,"resh":4034,"rote":4035,"ĠÃ":4036,"Ġfather":4037,"gener":4038,"itect":4039,"ĠData":4040,"xml":4041,"post":4042,"Ġconsist":4043,"Ġtravel":4044,"*/":4045,"aily":4046,"arser":4047,"ĠInc":4048,"ĠUs":4049,"ĠEar":4050,"ocket":4051,"ĠPublic":4052,"lands":4053,"Ġdetails":4054,"First":4055,"foot":4056,"Ġdecision":4057,"Ġhimself":4058,"rief":4059,"ĠPaul":4060,"ota":4061,"Point":4062,"ĠFil":4063,"ĠFin":4064,"ĠEngland":4065,"Ġhot":4066,"Acc":4067,"Ġworked":4068,"Ġheight":4069,"Ġcourt":4070,"ĠCanada":4071,"Ġparameters":4072,"Ġstre":4073,"partial":4074,"py":4075,"EL":4076,"Ġliving":4077,"ĠJames":4078,"known":4079,"ĠOur":4080,"Prov":4081,"omega":4082,"Ġwhose":4083,"Run":4084,"ampionship":4085,"adata":4086,"Ġtypes":4087,"Ġcentury":4088,"Ġbox":4089,"Ġge":4090,"uge":4091,"Ġregular":4092,"Link":4093,"Ġanything":4094,"Ġcompos":4095,"Ġvict":4096,"mm":4097,"TO":4098,"Ġconduct":4099,"apping":4100,"ĠPort":4101,"Last":4102,"Ġroom":4103,"$$":4104,"2003":4105,"orem":4106,"Ġmag":4107,"Function":4108,"illing":4109,"cret":4110,"ĠGeneral":4111,"Ġfilms":4112,"Ġpositive":4113,"Post":4114,"eger":4115,"Dr":4116,"ĠCr":4117,"json":4118,"Ġlocation":4119,"open":4120,"ĠObject":4121,"Ġsold":4122,"Ġcollection":4123,"ĠReview":4124,"Ġsense":4125,"VER":4126,"Ġsym":4127,"lor":4128,"LASS":4129,"Ġnothing":4130,"85":4131,"Ġdeep":4132,"ĠĠĠĠĠĠĠĠĠĠĠĠĊ":4133,"inst":4134,"ategy":4135,"So":4136,"ĠFrench":4137,"Americ":4138,"char":4139,"Factory":4140,"gle":4141,"Ġcenter":4142,"ĠPal":4143,"Ġunique":4144,"ptr":4145,"Ġleading":4146,"Us":4147,"rl":4148,"Ġansw":4149,"Ġstation":4150,"Ġepis":4151,"enced":4152,"Ġwait":4153,"ĠDi":4154,"pri":4155,"FI":4156,"Ġsimple":4157,"ams":4158,"isf":4159,"yr":4160,"ĠDistrict":4161,"Version":4162,"Ġborn":4163,"Ġemer":4164,"Ġdise":4165,"tributes":4166,"ypes":4167,"tilde":4168,"asons":4169,"){":4170,"Bl":4171,"ĠThen":4172,"Ġfinancial":4173,"write":4174,"ya":4175,"ago":4176,"Ġenjoy":4177,"ulations":4178,"bottom":4179,"Ġreve":4180,"miss":4181,"Ġasked":4182,"ĠRead":4183,"Ġgirl":4184,"raz":4185,"Default":4186,"Ġround":4187,"cm":4188,"Ġfrequ":4189,"lier":4190,"Ġdiscover":4191,"Ġhope":4192,"ĠMor":4193,"Hel":4194,"Ġseems":4195,"find":4196,"Ġstay":4197,"Ġhit":4198,"Ġevidence":4199,"pack":4200,"ĠNone":4201,"ĠService":4202,"erve":4203,"ĠArch":4204,"2001":4205,"ĠRich":4206,"Ġjud":4207,"dated":4208,"Ġdistr":4209,"ming":4210,"chema":4211,"Style":4212,"edia":4213,"Ã³":4214,"Ġtour":4215,"module":4216,"Ġsomeone":4217,"Ġbuy":4218,"II":4219,"Ġtreatment":4220,"oyal":4221,"Ġquite":4222,"sg":4223,"ĠPost":4224,"Ġeverything":4225,"Check":4226,"Ġreturned":4227,"Ġword":4228,"Ġess":4229,"ĠEv":4230,"Ġir":4231,"ĠSome":4232,"sych":4233,"Ġscreen":4234,"Ð½":4235,"Ġinternal":4236,"Ġstage":4237,"True":4238,"Ġful":4239,"ci":4240,"Ġmid":4241,"Ġsoon":4242,"'m":4243,"stract":4244,"Ġbooks":4245,"ĠRober":4246,"Ġconstruct":4247,"ĠTechn":4248,"Ġbre":4249,"Command":4250,"ĠMal":4251,"status":4252,"Label":4253,"Ġtrying":4254,"ĠID":4255,"Ġeval":4256,"ville":4257,"ynt":4258,"born":4259,"pol":4260,"Ġdraw":4261,"97":4262,"strong":4263,"Ġalign":4264,"TER":4265,"Ġcharacters":4266,"eal":4267,"Ġprobably":4268,"Ġ{@":4269,"ĠGL":4270,"Ġdeveloped":4271,"more":4272,"draw":4273,"eck":4274,"Ġrock":4275,"Ġlegal":4276,"Ġactive":4277,"Ġusers":4278,"izes":4279,"ental":4280,"ĠAre":4281,"Ġspecies":4282,"Gr":4283,"rong":4284,"Ġthrows":4285,"Ġaward":4286,"ãģ":4287,"Ġtim":4288,"Ġforce":4289,"Ġisn":4290,"Ġveh":4291,"uz":4292,"Ġwanted":4293,"\"]":4294,"Ġnatural":4295,"anged":4296,"erved":4297,"Ġsaw":4298,"can":4299,"ĠYour":4300,"Ġthemselves":4301,"Per":4302,"Ġplaying":4303,"Ġlearning":4304,"non":4305,"Ġautom":4306,"Ġproperties":4307,"oz":4308,"ĠPre":4309,"Load":4310,"PC":4311,"Ġinvolved":4312,"png":4313,"property":4314,"igr":4315,"win":4316,"achine":4317,"Ġlonger":4318,"UM":4319,"Ġfa":4320,"ĠWashington":4321,")(":4322,"itch":4323,"Ġspect":4324,"Ġdevice":4325,"Ġrev":4326,"Task":4327,"just":4328,"force":4329,"oding":4330,"idents":4331,"ĠBer":4332,"Pe":4333,"het":4334,"ĠFound":4335,"ĠThom":4336,"private":4337,"Ġstudies":4338,"ĠVol":4339,"Ġdied":4340,"rought":4341,"element":4342,"Ġparameter":4343,"Number":4344,"Ġlines":4345,"ufact":4346,"ĠNow":4347,"igger":4348,"Web":4349,"Ġgrowth":4350,"Ġcompl":4351,"ĠDan":4352,"FONT":4353,"inate":4354,"Ġwoman":4355,"}[":4356,"ĠGreen":4357,"Ġgre":4358,"'ve":4359,"ĠYear":4360,"Ġproblems":4361,"alls":4362,"Char":4363,"pc":4364,"Ġwrote":4365,"ĠBusiness":4366,"olds":4367,"ĠWhile":4368,"iant":4369,"Ġlevels":4370,"Ġboard":4371,"Ġpack":4372,"po":4373,"ensions":4374,"caption":4375,"57":4376,"Ġwindow":4377,"ensity":4378,"Ġdistribution":4379,"rypt":4380,"ula":4381,"Ġthroughout":4382,"imately":4383,"ĠSing":4384,"Ġrecomm":4385,"Ġmodern":4386,"img":4387,"Ġrecently":4388,"ĠRiver":4389,"bon":4390,"ĠTHE":4391,"\\,":4392,"2002":4393,"CD":4394,"uate":4395,"Ġadministr":4396,"68":4397,"Ġexc":4398,"Ġlives":4399,"Ġdistrict":4400,"Ġprogress":4401,"Ġelection":4402,"Ġpret":4403,"Ġprevent":4404,"Ġnames":4405,"src":4406,"Ġfollows":4407,"ĠMusic":4408,"mitted":4409,"olve":4410,"signed":4411,"arily":4412,"icrosoft":4413,"Ġexact":4414,"last":4415,"cdot":4416,"Ġserved":4417,"SA":4418,"ĠScience":4419,"push":4420,"Ġmilitary":4421,"Ġformat":4422,"Ġdirector":4423,"Ġdepend":4424,"Ġimmedi":4425,"mar":4426,"Ġcam":4427,"Ġmargin":4428,"Ġconv":4429,"Ġspecified":4430,"close":4431,"Back":4432,"vest":4433,"Ġsem":4434,"berg":4435,"ĠRem":4436,"ĠJack":4437,"ĠMart":4438,"Ġsort":4439,"cap":4440,"Ġsil":4441,"IO":4442,"Ġstri":4443,"ĠHam":4444,"Ġfriends":4445,"aa":4446,"Ġallowed":4447,"lections":4448,"ÃŃ":4449,"BA":4450,"ĠDemocr":4451,"sole":4452,"ĠCE":4453,"ĠRE":4454,"Ġextends":4455,"ĠRef":4456,"Ġcapt":4457,"Ġoperation":4458,"SON":4459,"Ġcondition":4460,"Equals":4461,"ABLE":4462,"aled":4463,"My":4464,"mem":4465,"ios":4466,"|-":4467,"Ġdeb":4468,"Ġcontains":4469,"Ġinf":4470,"Ġeveryone":4471,"Ġmoved":4472,"Ġreach":4473,"Ġnone":4474,"Ġsolution":4475,"allet":4476,"epsilon":4477,"Ġuses":4478,"Ġdim":4479,"band":4480,"TP":4481,"det":4482,"Ġeffects":4483,"ĠAssociation":4484,"Next":4485,"Ġauto":4486,"endif":4487,"Met":4488,"ÑĢ":4489,"Ġsoftware":4490,"Ġten":4491,"Return":4492,"Ġbeaut":4493,"rael":4494,"Ġmother":4495,"ĠParty":4496,"Ġdemon":4497,"Ġways":4498,"ãĥ":4499,"Child":4500,"Ġexcept":4501,"Ġâ":4502,"ternet":4503,"Ġdeliver":4504,"Rep":4505,"Ġregister":4506,"ĠInstitute":4507,"Ġresources":4508,"Ġquant":4509,"si":4510,"Ġaw":4511,"itar":4512,"rupt":4513,"ĠDec":4514,"59":4515,"Ġgoal":4516,"Ġ]":4517,"Page":4518,"ka":4519,"ascript":4520,"Ġminutes":4521,"Ġchalleng":4522,"ĠWhite":4523,"rian":4524,"ctor":4525,"///":4526,"service":4527,"aught":4528,"aughter":4529,"ĠChurch":4530,"Ġfun":4531,"Ġreference":4532,"ĠMet":4533,"Ġconnection":4534,"Do":4535,"verse":4536,"Create":4537,"Ġreading":4538,"ĠMod":4539,"Ġstar":4540,"stant":4541,"gu":4542,"Ġtemper":4543,"isions":4544,"ĠAfrica":4545,"Ġrace":4546,"ifact":4547,"NO":4548,"meta":4549,"Ġcause":4550,"Ġnav":4551,"\"),":4552,"ĠMichael":4553,"cons":4554,"obj":4555,"Om":4556,"});":4557,"UI":4558,"Ġproduced":4559,"ĠBel":4560,"format":4561,"mercial":4562,"ĠGoogle":4563,"ĠProgram":4564,"Ġensure":4565,"font":4566,"58":4567,"mas":4568,"Ġmovie":4569,"Ġfunctions":4570,"Ġcontr":4571,"pass":4572,"Ġflow":4573,"ros":4574,"irit":4575,"quare":4576,"Ġpain":4577,"ĠDiv":4578,"Ġweeks":4579,"Ġparts":4580,"Ġestim":4581,"ĠTime":4582,"ĠCompany":4583,"Ġinterview":4584,"!!":4585,"local":4586,"ria":4587,"iding":4588,"ĠJer":4589,"ĠBen":4590,"ĠAnn":4591,"ATION":4592,"Ġrestr":4593,"ĠPress":4594,"Ġdesigned":4595,"Ġquestions":4596,"acebook":4597,"gorithm":4598,"ĠHall":4599,"Ġpractice":4600,"igin":4601,"\").":4602,"ĠQue":4603,"olic":4604,"iece":4605,"onder":4606,"eqn":4607,"Ġmaintain":4608,"Ġunit":4609,"ĠLeg":4610,"enge":4611,"Ġsimply":4612,"Ġweb":4613,"Ġthreat":4614,"olar":4615,"mult":4616,"Filter":4617,"agon":4618,"ĠCong":4619,"Ġmedical":4620,"std":4621,"Ġeconomic":4622,"Ġsubs":4623,"under":4624,"ias":4625,"Ġentry":4626,"Ġcandid":4627,"Ġcorrect":4628,"Ġlatest":4629,"ulated":4630,"erc":4631,"_.":4632,"Ġdirectly":4633,"Ġapprox":4634,"Ġneigh":4635,"Ext":4636,"Ġinside":4637,"aud":4638,"ĠSee":4639,"Ġmention":4640,"Listener":4641,"small":4642,"nor":4643,"Rem":4644,"icted":4645,"ĠBest":4646,"Ġfiles":4647,"ĠAngel":4648,"Ġdrug":4649,"inese":4650,"Ġjo":4651,"ocal":4652,"She":4653,"Ġprotect":4654,"Ġsn":4655,"American":4656,"Ġstore":4657,"ĠDel":4658,"ĠTri":4659,"ĠMag":4660,"56":4661,"Ġstatement":4662,"ĠGerman":4663,"Ġconstant":4664,"grad":4665,"Ġserver":4666,"estival":4667,"ua":4668,"Ġdead":4669,"evelopment":4670,"ulture":4671,"andemic":4672,"reement":4673,"refix":4674,"Ġrelig":4675,"ĠOpen":4676,"ĠCam":4677,"Ġprec":4678,"Det":4679,"rated":4680,"Ġcelebr":4681,"Ġeasy":4682,"Ġgas":4683,"Ġvirtual":4684,"Ġculture":4685,"Ġcast":4686,"otal":4687,"icture":4688,"ducation":4689,"${":4690,"inner":4691,"Ġ((":4692,"ĠTex":4693,"Ġacqu":4694,"Ġinvestig":4695,"Ġsurv":4696,"FO":4697,"(&":4698,"Ġassum":4699,"ĠApp":4700,"Ġnecessary":4701,"CL":4702,"Tag":4703,"long":4704,"Ġschools":4705,"description":4706,"Ġprinc":4707,"ĠMem":4708,"arks":4709,"Ġship":4710,"abs":4711,"ĠRoad":4712,"Ġavoid":4713,"TS":4714,"main":4715,"PRO":4716,"Ġqual":4717,"Ġmagn":4718,"Ġtowards":4719,"ĠSl":4720,"Ġgave":4721,"Ġdoc":4722,"ĠLet":4723,"plies":4724,"Ġvert":4725,"Ġinsp":4726,"Ġchanged":4727,"Ġnorth":4728,"atas":4729,"98":4730,"Ġsolid":4731,"Ġrules":4732,"izations":4733,"Ġmulti":4734,"Ġmis":4735,"Ġprice":4736,"Ġjoin":4737,"len":4738,"Ġscale":4739,"nected":4740,"select":4741,"gin":4742,"Ġselected":4743,"cho":4744,"ĠFlor":4745,"Ġseek":4746,"Ġcompared":4747,"Ġscient":4748,"CA":4749,"Top":4750,"icial":4751,"project":4752,"Ġtransfer":4753,"ĠSam":4754,"params":4755,"Spec":4756,"mt":4757,"vant":4758,"Format":4759,"sey":4760,"ĠGeorge":4761,"inding":4762,"response":4763,")$.":4764,"Ġpurch":4765,"ĠEX":4766,"ql":4767,"Ġcontinu":4768,"ston":4769,"han":4770,"Mem":4771,"Ġnumer":4772,"hi":4773,"eria":4774,"Ġinstit":4775,"essages":4776,"Ġinterface":4777,"Ġspeed":4778,"filter":4779,"}}\\":4780,"Ġknowledge":4781,"iller":4782,"entry":4783,"ba":4784,"container":4785,"Ġcharg":4786,"gn":4787,"ously":4788,"textbf":4789,"Ġprofessional":4790,"^*":4791,"Ġurl":4792,"menu":4793,"Ġpassed":4794,"ĠĠĠĠĠĠĠĠĠĠĠĠĠĠĠĠĠĠĠĠĠĠĠĠĠĠĠĠĠĠĠĠĠĠĠ":4795,"IZ":4796,"Ġfields":4797,"only":4798,"inn":4799,"Ġcook":4800,"ĠFrance":4801,"Address":4802,"Ġsatisf":4803,"update":4804,"Ġstories":4805,"Ġlack":4806,"Controller":4807,"Ġsurface":4808,"display":4809,"Ġreceive":4810,"CON":4811,"layout":4812,"Ġrandom":4813,"ĠMac":4814,"itude":4815,"psi":4816,"Ġtransform":4817,"Ġrow":4818,"ancy":4819,"Ġteams":4820,"ĠOver":4821,"Let":4822,"Ġnovel":4823,"Ġvers":4824,"Ġprimary":4825,"HO":4826,"ims":4827,"Ġmechan":4828,"ĠMat":4829,"icate":4830,"Ġmeeting":4831,"Ġclosed":4832,"hest":4833,"ttp":4834,"Ġmode":4835,"Omega":4836,"Ġleave":4837,"PO":4838,"Ġcapital":4839,"ander":4840,"Ġ<!--":4841,"Ġdemonstr":4842,"Ġball":4843,"och":4844,"istan":4845,"Ġreli":4846,"ici":4847,"ĠCup":4848,"avirus":4849,"ĠKe":4850,"Ġemail":4851,"Ġdegree":4852,"uit":4853,"Can":4854,"ifying":4855,"ĠOb":4856,"Ġeffective":4857,"ĠAward":4858,"Ġetc":4859,"PR":4860,"ĠTom":4861,"Ġnumbers":4862,"ĠRel":4863,"Ġsaying":4864,"dep":4865,"urt":4866,"term":4867,"Output":4868,"ramework":4869,"rd":4870,"Ġoperations":4871,"Aut":4872,"break":4873,"ĠLog":4874,"ĠIS":4875,"ĠCLASS":4876,"Ġhum":4877,"}_{\\":4878,"javascript":4879,"ĠÂ£":4880,"Ġlimited":4881,"1999":4882,"cover":4883,"Column":4884,"Ġq":4885,"opyright":4886,"Ġfavor":4887,"ona":4888,"Ġlock":4889,"ERT":4890,"ĠHREF":4891,"UP":4892,"Ñģ":4893,"Ġusually":4894,"Ġfilter":4895,"number":4896,"ario":4897,"Le":4898,"Box":4899,"ĠSeries":4900,"'ll":4901,"Ġfast":4902,"Ġste":4903,"Ġprep":4904,"Ġpartners":4905,"Ġmus":4906,"iring":4907,"iful":4908,"ĠLicense":4909,"âĢĿ.":4910,"eration":4911,"Co":4912,"Ġpromot":4913,"ivacy":4914,"ena":4915,"Ġnature":4916,"Ġscience":4917,"Length":4918,"Valid":4919,"Ġsafety":4920,"Ġgets":4921,"TYPE":4922,"fess":4923,"Ġconnect":4924,"Ġwife":4925,"plicit":4926,"Ġallows":4927,"ini":4928,"Ġthus":4929,"outhern":4930,"87":4931,"BU":4932,"process":4933,"onavirus":4934,"ĠEnd":4935,"final":4936,"Big":4937,"96":4938,"Ġgraph":4939,"la":4940,"Ġbrought":4941,"Ġsouth":4942,"attr":4943,"Ġpattern":4944,"Ġvacc":4945,"spec":4946,"isation":4947,"num":4948,"Ġoffers":4949,"Ġlargest":4950,"Ġextra":4951,"Ġincreased":4952,"300":4953,"Ġreturns":4954,"Ġearlier":4955,"URL":4956,"porary":4957,"Ġroot":4958,"Ġweight":4959,"ĠFranc":4960,"reference":4961,"COL":4962,"Ġfont":4963,"Ġfinally":4964,"ein":4965,"Ġbus":4966,"exp":4967,"akers":4968,"Ġmodule":4969,"prove":4970,"<?":4971,"Ġtransport":4972,"BS":4973,"Ġincreasing":4974,"aine":4975,"zer":4976,"remove":4977,"IF":4978,"Ġcentral":4979,"ĠGovernment":4980,"Ġconstruction":4981,"Ġsett":4982,"Ġgives":4983,"Ġwrong":4984,"Ã¼":4985,"Ġign":4986,"Ġnote":4987,"Ġhous":4988,"Ġfollowed":4989,"pg":4990,"ĠProject":4991,"adian":4992,"ĠHere":4993,"haps":4994,"ĠHT":4995,"pat":4996,"Ġserious":4997,"Ġnor":4998,"Ġcollect":4999,"Ġscen":5000,"room":5001,"Ġfailed":5002,"Ġdark":5003,"Ġmemory":5004,"ĠGold":5005,"Ġsend":5006,"creen":5007,"Ġaltern":5008,"edy":5009,"Ġprop":5010,"Ġgoes":5011,"subsection":5012,"ORT":5013,"Ġrat":5014,"lymp":5015,"Ð¾Ð":5016,"ĠMary":5017,"ĠCommission":5018,"Ġstudent":5019,"annot":5020,"ãĤ":5021,">>":5022,"itiz":5023,"Ġplans":5024,"ĠLife":5025,"Ġsetting":5026,"ĠInst":5027,"Ġphysical":5028,"Work":5029,"Ġbank":5030,"ĠBuild":5031,"gan":5032,"hent":5033,"ĠHel":5034,"Ġtelevision":5035,"Ġexpand":5036,"Ġcalcul":5037,"ki":5038,"Ġprojects":5039,"century":5040,"Ġcontinued":5041,"Ġalthough":5042,"Ġconcept":5043,"efined":5044,"Ġparents":5045,"Ġactivities":5046,"cr":5047,"hedul":5048,"ĠMus":5049,"Ġindependent":5050,"Ġdigital":5051,"51":5052,"Ġsuccessful":5053,"Ġperfect":5054,"Ġability":5055,"Ge":5056,"ERR":5057,"ĠServices":5058,"').":5059,"antic":5060,"Ent":5061,"heet":5062,"```":5063,"olf":5064,"wner":5065,"Vis":5066,"aints":5067,"atively":5068,"ĠAlex":5069,"ĠIsrael":5070,"greg":5071,"Ġpretty":5072,"output":5073,"Ġappoint":5074,"ĠHistory":5075,"Ġexisting":5076,"Ġactivity":5077,"chi":5078,"bm":5079,"ĠManagement":5080,"leep":5081,"Ġcells":5082,"Sec":5083,"Ġworth":5084,"column":5085,"Ġremove":5086,"Ġtheory":5087,"ĠSund":5088,"Ġopportunity":5089,"well":5090,"ools":5091,"Ġhol":5092,"Ġdynam":5093,"show":5094,"Ġcallback":5095,"Ġcard":5096,"Ag":5097,"uid":5098,"urren":5099,"Mar":5100,"52":5101,"ĠBay":5102,"Cache":5103,"Ġproposed":5104,"Ġselect":5105,"instance":5106,"Ġsen":5107,"Ġcompar":5108,"Server":5109,"Ġdifference":5110,"KE":5111,"ying":5112,"Ġdisease":5113,"ĠTexas":5114,"ĠSur":5115,"Ġremain":5116,"Provider":5117,"cor":5118,"Ġfamilies":5119,"ĠSal":5120,"Ġrule":5121,"?âĢĿ":5122,"ĠRob":5123,"ĠSociety":5124,"ipp":5125,"Dev":5126,"Ġperformed":5127,"ĠFlorida":5128,"Ġimages":5129,"kit":5130,"ĠForm":5131,"criptor":5132,"Ġsets":5133,"Ġcivil":5134,"iler":5135,"ĠMiss":5136,"Ġworkers":5137,"vention":5138,"Mode":5139,"ĠJournal":5140,"Ġeight":5141,"ĠLou":5142,"CR":5143,"Ġstarting":5144,"reme":5145,"Ġanyone":5146,"tag":5147,"Ġassess":5148,"Ġexpression":5149,"ĠBoard":5150,"Bundle":5151,"ĠGreat":5152,"Button":5153,"Par":5154,"ART":5155,"author":5156,"Ġlib":5157,"Ġmanufact":5158,"Ġclean":5159,"Ġpandemic":5160,"ania":5161,"PA":5162,"DA":5163,"Ġplant":5164,"54":5165,"Ġsupported":5166,"ĠVir":5167,"Ġactual":5168,"ĠMont":5169,"ĠFore":5170,"pret":5171,"Ġapply":5172,"ĠType":5173,"clos":5174,"expected":5175,"Ġfeed":5176,"Ġanim":5177,"Ġsurpr":5178,"itable":5179,"ĠJew":5180,"Ġprograms":5181,"Ġattention":5182,"Ġflo":5183,"Access":5184,"Ġfair":5185,"Ġjournal":5186,"ĠAcad":5187,"Ġmeaning":5188,"Ġmount":5189,"Ġplaces":5190,"Ġanaly":5191,"Br":5192,"PS":5193,"DB":5194,"ĠWed":5195,"Ġinteresting":5196,"overs":5197,"Row":5198,"Update":5199,"ĠChinese":5200,"ensor":5201,"ĠClub":5202,"Case":5203,"rial":5204,":</":5205,"aling":5206,"Eng":5207,"Min":5208,"ĠOffice":5209,"files":5210,"older":5211,"Ġcomponent":5212,"ĠFacebook":5213,"cs":5214,"ĠBig":5215,"Ġord":5216,"Ġ;":5217,"oma":5218,"ĠST":5219,"ĠPeople":5220,"wrap":5221,"++)":5222,"ellig":5223,"ĠUnion":5224,"ĠGermany":5225,"Ġplease":5226,"ĠSince":5227,"Ġrespond":5228,"Ġitems":5229,"Url":5230,"Layout":5231,"86":5232,"ĠMedia":5233,"Direct":5234,"Ġbeginning":5235,"Max":5236,"sqrt":5237,"Ġpresented":5238,"ano":5239,"Ġtag":5240,"agram":5241,"NE":5242,"ictions":5243,"Ġreports":5244,"clusion":5245,"********************************":5246,"ĠDet":5247,"prototype":5248,"ĠMad":5249,"reek":5250,"ancing":5251,"Ġseven":5252,"Ġ``":5253,"Ġwasn":5254,"ĠDirector":5255,"ved":5256,"scope":5257,"anned":5258,"NAME":5259,"AV":5260,"Ġlarger":5261,"Ġstreng":5262,"ĠIsland":5263,"ronic":5264,"ĠChristian":5265,"ucture":5266,"ili":5267,"ĠOther":5268,"ibly":5269,"Ġsituation":5270,"icated":5271,"Ġdirection":5272,"Ġsomet":5273,"Ġobtained":5274,"lam":5275,"itory":5276,"ĠAut":5277,"Types":5278,"########":5279,"psilon":5280,"Ġbur":5281,"Target":5282,"53":5283,"ĠSmith":5284,"ĉĠĠĠ":5285,"ĠRad":5286,"Ġcompleted":5287,"Ġparticularly":5288,"ĠâĢ¦":5289,"Ġobj":5290,"oom":5291,"azine":5292,"icens":5293,"Ġhy":5294,"adow":5295,"ĠFile":5296,")$,":5297,"Ġbasis":5298,"][":5299,"API":5300,"Ġtrade":5301,"mes":5302,"ĠEducation":5303,"itness":5304,"Ġclin":5305,"Ġnearly":5306,"ĠPlan":5307,"Ġdecided":5308,"1990":5309,"road":5310,"Open":5311,"Ġ!==":5312,"Ġdemand":5313,"Ġremember":5314,"house":5315,"iverse":5316,"Ob":5317,"yond":5318,"Ġrecover":5319,"uint":5320,"support":5321,"inger":5322,"^{(":5323,"Ġtree":5324,"ĠMer":5325,"Ġcouple":5326,"sd":5327,"Ġbillion":5328,"Ġ[]":5329,"Ġbal":5330,"ĠRobert":5331,"Ġremains":5332,"Ġsongs":5333,"Ġequip":5334,"ĠPM":5335,"Ġpull":5336,"DF":5337,"ĠDE":5338,"proof":5339,"Gamma":5340,"Ġotherwise":5341,"Ġfans":5342,"returns":5343,"Ġarchitect":5344,"else":5345,"ĠScott":5346,"ĠChampionship":5347,"Ġded":5348,"ĠBank":5349,"Ġexam":5350,"egraphics":5351,"Me":5352,"includegraphics":5353,"Ġshared":5354,"ĠFe":5355,"ĠPlay":5356,"ecause":5357,"Ġorganization":5358,"ĠOper":5359,"common":5360,"icks":5361,"ĠMex":5362,"ĠAPI":5363,"Ġdistance":5364,"More":5365,"utils":5366,"Ġdro":5367,"which":5368,"eft":5369,"Ġestablish":5370,"89":5371,"ecute":5372,"Offset":5373,"eve":5374,"Ġopened":5375,"Ġexhib":5376,"Ġple":5377,"uly":5378,"za":5379,"Ġturned":5380,"INE":5381,"Ġpreviously":5382,"Ġmiddle":5383,"Ġhandle":5384,"ĠCentral":5385,"Ġfelt":5386,"Ġaccur":5387,"IB":5388,"2022":5389,"Ġprem":5390,"onday":5391,"eqnarray":5392,"etch":5393,"Ġfully":5394,"Ġconsum":5395,"Ġpark":5396,"ĠAv":5397,"Ġchoice":5398,"Ġrank":5399,"Ġchannel":5400,"Ġslow":5401,"%%":5402,"bert":5403,"site":5404,"rs":5405,"ĠSocial":5406,"ĠÎ":5407,"Ġmicro":5408,"Ġwide":5409,"Ġanti":5410,"MO":5411,"match":5412,"(_":5413,"gment":5414,"offset":5415,"Ġhands":5416,"ester":5417,"ĠBill":5418,"dim":5419,"ĠNS":5420,"ĠUSA":5421,"Ġmix":5422,"Ġcritical":5423,"flict":5424,"Ġhar":5425,"Ġimprove":5426,"ĠTop":5427,"Ġquickly":5428,"Ġequal":5429,"Ġbeyond":5430,"Ġspent":5431,"care":5432,"BO":5433,"76":5434,"Ġwriter":5435,"Ġobjects":5436,"iance":5437,"ĠMuseum":5438,"ulate":5439,"sem":5440,"Ġ**":5441,"Rev":5442,"Rel":5443,"Ġmale":5444,"ĠAfrican":5445,"bour":5446,"Ġargument":5447,"Entry":5448,"IA":5449,"vare":5450,"Ġbrand":5451,"Ġter":5452,"Ġgrant":5453,"oday":5454,"ĠTimes":5455,"styles":5456,"Ġvs":5457,"ĠMount":5458,"Ġrespectively":5459,"Ġtransl":5460,"enty":5461,"Ġbirths":5462,"then":5463,"Ġfloat":5464,"icine":5465,"ĠMinister":5466,"ĠStar":5467,"Ġsecret":5468,"Ġrepl":5469,"yth":5470,"ĠFoundation":5471,"ani":5472,"Ġexperiment":5473,"empty":5474,"IST":5475,"Ġrender":5476,"dec":5477,"ALL":5478,"Ġvillage":5479,"iden":5480,"Ġones":5481,"Ġquery":5482,"Ġrecords":5483,"osh":5484,"ned":5485,"Ġargs":5486,"Ġsigned":5487,"FL":5488,"Ġtouch":5489,"Ġfederal":5490,"Ġmovement":5491,"CODE":5492,"SH":5493,"Ġnation":5494,"Ġscene":5495,"Ġsession":5496,"Our":5497,"mut":5498,"ror":5499,"Ġtherefore":5500,"Ġexception":5501,"Ġspread":5502,"Ġvoice":5503,"Ġcollabor":5504,"itation":5505,"ĠCongress":5506,"weet":5507,"icket":5508,"ĠHill":5509,"Ġque":5510,"ĠGood":5511,"Width":5512,"bool":5513,"ĠDevelopment":5514,"Ġdram":5515,"400":5516,"urance":5517,"ether":5518,"Go":5519,"}^{\\":5520,"ocation":5521,"Ġhighly":5522,"Ġleader":5523,"rees":5524,"pers":5525,"Ġabsol":5526,"Frame":5527,"Ġjoined":5528,"ĠFriday":5529,"ĠWil":5530,"ecution":5531,"Ġcoach":5532,"1998":5533,"Ġsources":5534,"iform":5535,"Ġinform":5536,"Ġchurch":5537,"Ġpm":5538,"iminal":5539,"ala":5540,"Ġradio":5541,"Ġepisode":5542,"inct":5543,"Ġphase":5544,"Ġhop":5545,"ĠSuper":5546,"ĠCarol":5547,"usion":5548,"=\"../../../../../":5549,"Bo":5550,"Ġsummer":5551,"drop":5552,"CS":5553,"float":5554,"Ġsports":5555,"ictor":5556,"ĠUnder":5557,"Ġrepe":5558,"ĉĉĉĉĉĉĉ":5559,"Ġcommercial":5560,"Ġcosts":5561,"scale":5562,"MM":5563,"Ġselection":5564,"Level":5565,"ĠCommittee":5566,"emph":5567,"Fe":5568,"Ġtrust":5569,"ĠSection":5570,"gate":5571,"ĠThomas":5572,"Configuration":5573,"atre":5574,"ls":5575,"Ġencour":5576,"Ġenter":5577,"alle":5578,"Ġroll":5579,"Ġsociety":5580,"Ġhospital":5581,"anda":5582,"acter":5583,"Ġtraditional":5584,"root":5585,"Search":5586,"Ġappropri":5587,"ĠTor":5588,"ĠMost":5589,"CP":5590,"ĠAustralian":5591,"Ġgreater":5592,"Ġwild":5593,"astr":5594,"Ġrob":5595,"task":5596,"osph":5597,"rey":5598,"Ġshot":5599,"anges":5600,"Ġoffset":5601,"ĠCamp":5602,"Ġindividuals":5603,"ĠRock":5604,"Ġoil":5605,"require":5606,"Ġrap":5607,"uated":5608,"template":5609,"Ġsave":5610,"ĠLib":5611,"ĠTur":5612,"ao":5613,"Ġbuffer":5614,"irmed":5615,"Ġcalls":5616,"DL":5617,"Ġdrive":5618,"icago":5619,"igen":5620,"........":5621,"ĠFrancis":5622,"ĠReturns":5623,"Ġcustomers":5624,"Ġsafe":5625,"udget":5626,"ounter":5627,"afe":5628,"Ġheard":5629,"Ġproper":5630,"ĠOR":5631,"Ġcommunities":5632,"Ġsometimes":5633,"Ġsal":5634,"TI":5635,"arant":5636,")=":5637,"undred":5638,"Ġimag":5639,"gest":5640,"Ġsample":5641,")]":5642,"aturday":5643,"Ġcop":5644,"ĠRoyal":5645,"Ġconstit":5646,"Ġkilled":5647,"ĠTown":5648,"Cons":5649,"ponents":5650,"ifest":5651,"âĢĺ":5652,"den":5653,"igration":5654,"Ġuint":5655,"Ġlen":5656,"ady":5657,"Ġframe":5658,"Interface":5659,"buffer":5660,"UB":5661,"should":5662,"Ġmur":5663,"Ġempty":5664,"Ã¶":5665,"IGN":5666,"Ġdou":5667,"sf":5668,"Ġproviding":5669,"Ġswitch":5670,"ĠBi":5671,"()->":5672,"ĠSunday":5673,"Write":5674,"Ġessential":5675,"Dec":5676,"Ġinnov":5677,"Ġassist":5678,"uthors":5679,"ĠProv":5680,"isl":5681,"Ġbehavior":5682,"Ġmanager":5683,"ette":5684,"Ġlooks":5685,"ĠChild":5686,"car":5687,"Sl":5688,"Ġfirm":5689,"78":5690,"ĠCD":5691,"ĠHome":5692,"vec":5693,"Ġgold":5694,"ĠPolicy":5695,"Ġpoor":5696,"Ġgrand":5697,"Ġ(\"":5698,"Ġgreen":5699,"Tree":5700,"Ġgiving":5701,"parse":5702,"nesday":5703,"Ġscri":5704,"geq":5705,"ologies":5706,"}=":5707,"Ġvote":5708,"ĠLos":5709,"Ġoverall":5710,"illa":5711,"Ġdebut":5712,"asy":5713,"Parameter":5714,"cribe":5715,"ĠAM":5716,"Ġcompletely":5717,"Json":5718,"men":5719,"ĠArray":5720,"hol":5721,"Unit":5722,"Mon":5723,"ĠOlymp":5724,"Ġpurpose":5725,"oded":5726,"pes":5727,"Ġsales":5728,"Utils":5729,"([":5730,"INT":5731,"Ġpen":5732,"aved":5733,"cos":5734,"prop":5735,"Sim":5736,"]);":5737,"plete":5738,"ĠLong":5739,"varepsilon":5740,"Ġalleg":5741,"Ġtesting":5742,"anta":5743,"Ġraise":5744,"Ġinfo":5745,"Port":5746,"aml":5747,"SL":5748,"ĠCall":5749,"frame":5750,"Ġgun":5751,"bes":5752,"azz":5753,"Ġoperator":5754,"Ġexists":5755,"unit":5756,"Ġdescription":5757,"Ġblood":5758,"Ġmaximum":5759,".}":5760,"anish":5761,"Ġintroduced":5762,"iny":5763,"Ġbecomes":5764,"72":5765,"Ġcoord":5766,"Ġdefine":5767,"Location":5768,"Ġcontain":5769,"fa":5770,"Ġ{}":5771,"69":5772,"?:":5773,"VAL":5774,"ĠNetwork":5775,"liament":5776,"Container":5777,"'),":5778,"ĠFrank":5779,"classes":5780,"Ġ~":5781,"ĠAtt":5782,"Ġartist":5783,"ACK":5784,"orial":5785,"Stat":5786,"Don":5787,"QL":5788,"bolds":5789,"Ġrelative":5790,"unities":5791,"Ġhear":5792,"ĠWomen":5793,"Ġshoot":5794,"Op":5795,"Ġforeign":5796,"ĠMo":5797,"pective":5798,"ĠBre":5799,"Header":5800,"tree":5801,"Now":5802,"cache":5803,"Ġdeaths":5804,"venue":5805,"artifact":5806,"Ġmut":5807,"Ġproced":5808,"ĠCheck":5809,"Gl":5810,"Ġmatrix":5811,"ky":5812,"Process":5813,"Ġpoll":5814,"ooth":5815,"Current":5816,"ustain":5817,"Ġscope":5818,"Ġgenerated":5819,"1997":5820,"gs":5821,"patch":5822,"Ġrecorded":5823,"inder":5824,"Ġcounter":5825,"Ġ${\\":5826,"rightarrow":5827,"./":5828,"boldsymbol":5829,"ULT":5830,"uesday":5831,"Ġang":5832,"Ġsymbol":5833,"Ġfemale":5834,"ĠPeter":5835,"mazon":5836,"ĠTwitter":5837,"Ġthous":5838,"ongs":5839,"ĠShow":5840,"Ġarguments":5841,"ĠDev":5842,"Ġeditor":5843,"Ġimmediately":5844,"related":5845,"Ġforces":5846,"isher":5847,"ursday":5848,"Ġfactor":5849,"control":5850,"ĠVirgin":5851,"Ġaffect":5852,"Ġnet":5853,"onic":5854,"63":5855,"Ġapplied":5856,"eds":5857,"PL":5858,"hr":5859,"ĠCreate":5860,"ĠArmy":5861,"Ġpair":5862,"ĠHen":5863,"Ġmoving":5864,"alian":5865,"Window":5866,"Ġquarter":5867,"ita":5868,"Ġchance":5869,"Ġready":5870,"Ġhighest":5871,"Ġnom":5872,"Mat":5873,"Ġcomments":5874,"ĠWestern":5875,"Local":5876,"ĠĠĠĠĠĠĠĠĠĠĠĠĠĠĠĠĠĠĠĠĠ":5877,"Ġchem":5878,"tog":5879,"ATA":5880,"Ġgrowing":5881,"ĠGrand":5882,"dule":5883,"Ġclimate":5884,"ĠSE":5885,"ĠTim":5886,"Ġdaughter":5887,"Callback":5888,"ĠUN":5889,"pop":5890,"itors":5891,"Ġappeared":5892,"Control":5893,".~\\":5894,"ults":5895,"Ġsolutions":5896,"ests":5897,"Ġobserved":5898,"ĠRoman":5899,"Ġsequence":5900,"Ã¤":5901,"Ġknew":5902,"rate":5903,"Ġphone":5904,"Ġopening":5905,"Ġeth":5906,"ĠDuring":5907,"Ġeyes":5908,"atin":5909,"Ġreplace":5910,"ications":5911,"riend":5912,"Ġtests":5913,"rics":5914,"Ġcharge":5915,"RL":5916,"document":5917,"Ġzero":5918,"Ġcomputer":5919,"Ġelectric":5920,"Ġefforts":5921,"circ":5922,"mail":5923,"Ġxml":5924,"Ġfixed":5925,"ĠCare":5926,"ĠRichard":5927,"79":5928,"alysis":5929,"Po":5930,"igan":5931,"Ġer":5932,"1996":5933,"Ġscript":5934,"Ġartists":5935,"osis":5936,"Ġstock":5937,"Ġlaunch":5938,"jo":5939,"free":5940,"History":5941,"1980":5942,"ĠGen":5943,"ĠHot":5944,"Ġshowed":5945,"Ġpressure":5946,"Ġapplications":5947,"tml":5948,"ĠâĢ¢":5949,"Ġscore":5950,"rome":5951,"1000":5952,"Home":5953,"ĠUse":5954,"Ġcore":5955,"[\\":5956,"Entity":5957,"frak":5958,"Ġ\\,":5959,"Ġoptim":5960,"=\"-":5961,"Ġcollege":5962,"ĠTwo":5963,"ipe":5964,"Ġcarry":5965,"While":5966,"DS":5967,"orph":5968,"62":5969,"Ġactions":5970,"ĠArts":5971,"Ġblog":5972,"ĠMov":5973,"oration":5974,"bur":5975,"Ġdestroy":5976,".$":5977,"ĠMel":5978,"Module":5979,"weight":5980,"Ġpsych":5981,"Ġforms":5982,"token":5983,"ĠKore":5984,"ervation":5985,"burg":5986,"legal":5987,"Ġedge":5988,"Ġclaims":5989,"Ġcert":5990,"sign":5991,"ĠInformation":5992,"Ġcorresponding":5993,"%;":5994,"card":5995,"ĠFig":5996,"ds":5997,"even":5998,"duction":5999,"Ġprim":6000,"None":6001,"ĠVer":6002,"âĢĿ,":6003,"border":6004,"COLOR":6005,"apy":6006,"61":6007,"reedom":6008,"Ġstrugg":6009,"Ġtrain":6010,"Ġstrategy":6011,"aming":6012,"Ġclasses":6013,"Ġrail":6014,"ĠStep":6015,"El":6016,"SO":6017,"Ġstrateg":6018,"Ġthr":6019,"ĠRussian":6020,"Ġfarm":6021,"Ġvariety":6022,":\"":6023,"1995":6024,"fs":6025,"hens":6026,"hor":6027,"People":6028,"Ġanswer":6029,"Ġbeautiful":6030,"ĠTre":6031,"rangle":6032,"osen":6033,"Ġanc":6034,"erry":6035,"Ġmissing":6036,"Thread":6037,"iled":6038,"Ġmaster":6039,"ader":6040,"Ġfix":6041,"icies":6042,"Am":6043,"endar":6044,"Ġappears":6045,"}).":6046,"Ġcreating":6047,"ĠAND":6048,"Are":6049,"They":6050,"ĠAssert":6051,"Script":6052,"ynch":6053,"ĠCath":6054,"Ġreached":6055,"IZE":6056,"oder":6057,"ĠSecret":6058,"Ġbusinesses":6059,"ĠRet":6060,"ĠJose":6061,"ĠSil":6062,"osing":6063,"Ġpresence":6064,"bin":6065,"Ġfigure":6066,"ĠEngine":6067,"EM":6068,"ĠAlso":6069,"ĠMonday":6070,"ĠIns":6071,"Description":6072,"Ġmarried":6073,"ĠAngeles":6074,"Ġproof":6075,"ĠOp":6076,"Ġiniti":6077,"82":6078,"ĠSun":6079,"ategories":6080,"Ġunits":6081,"entity":6082,"ependency":6083,"Height":6084,"erman":6085,"Ġcancer":6086,"Ġemployees":6087,"ĠAccording":6088,"Ġtemperature":6089,"dates":6090,"Ġcitiz":6091,"ĠNOT":6092,"skip":6093,"Ġvector":6094,"abilities":6095,"omic":6096,"ĠView":6097,"unched":6098,"pects":6099,"rolled":6100,"WE":6101,"Ġbasic":6102,"bb":6103,"Ġsch":6104,"poses":6105,"Ġtransition":6106,"values":6107,"asket":6108,"Ġdespite":6109,"Ġnuc":6110,"while":6111,"Ġhuge":6112,"Enc":6113,"Ġrequires":6114,"izont":6115,"Ġalone":6116,"Ġunc":6117,"ĠDivision":6118,"OK":6119,"ership":6120,"Ġmission":6121,"Range":6122,"appa":6123,"reland":6124,"Ġgenerally":6125,"Ġconstr":6126,"Ġvolume":6127,"ĠMap":6128,"track":6129,"Ġ*)":6130,"ĠFinal":6131,"resource":6132,"Ġhappen":6133,"Ġcaused":6134,"arp":6135,"ĠSol":6136,"Ġshape":6137,"ĠStat":6138,"Ġrates":6139,"84":6140,"Ġrot":6141,"ĠBrown":6142,"Ġtit":6143,"Ġcapacity":6144,"hline":6145,"inds":6146,"porate":6147,"arts":6148,"ayers":6149,"GB":6150,"Ġeasily":6151,"Serial":6152,">,":6153,"orter":6154,"Ġspeak":6155,"Ġexactly":6156,"Ġconfiguration":6157,"before":6158,"Ġchoose":6159,"Ġresponsible":6160,"Order":6161,"\"))":6162,"Ġadapt":6163,"Sign":6164,"ictionary":6165,"Ġproduce":6166,"ĠId":6167,"Ġpartner":6168,"Ġlinear":6169,"olved":6170,"ĠEconom":6171,"Empty":6172,"ĠRun":6173,"ĠWeek":6174,"ĠCanadian":6175,"Ġwonder":6176,"Ġunderstanding":6177,"TC":6178,"Ġmorning":6179,"Ġcru":6180,"Ġlibrary":6181,"tim":6182,"ĠJapanese":6183,"Ġsites":6184,"FC":6185,"ĠLand":6186,"agment":6187,"sets":6188,"ĠDate":6189,"Position":6190,"Ġther":6191,"URE":6192,"bound":6193,"look":6194,"Ġagreement":6195,"Dep":6196,"RI":6197,"Ġannual":6198,"HS":6199,"ĠGames":6200,"asure":6201,"ĠMass":6202,"Ġpiece":6203,"Ġeconomy":6204,"ĠFoot":6205,"Ġsurround":6206,"Settings":6207,"Ġreduce":6208,"Ġruns":6209,"Ġstars":6210,"Ġprefer":6211,"Ġkm":6212,"ĠSpe":6213,"varphi":6214,"Ġdefinition":6215,"Ġwants":6216,"Ġemot":6217,"Ġreflect":6218,"after":6219,"Ġpaid":6220,"Down":6221,"conf":6222,"window":6223,"ĠVis":6224,"ĠNote":6225,"ĠPo":6226,"Ġpush":6227,"ivery":6228,"ä¸":6229,"writ":6230,"Ġopin":6231,"Ġletter":6232,"CTION":6233,"Ġstra":6234,"{{":6235,"AND":6236,"Ġthread":6237,"Prot":6238,"Ġagree":6239,"GE":6240,"ĠPet":6241,"kind":6242,"overline":6243,"Ġbottom":6244,"Ġsell":6245,"Ġacad":6246,"Ġaware":6247,"DD":6248,"yan":6249,"ĠReport":6250,"ĠName":6251,"Ġoverride":6252,"images":6253,"Ġfactors":6254,"Ġmeasures":6255,"ydro":6256,"Ġhundred":6257,"Ġblue":6258,"artifactId":6259,"ĠField":6260,"Ġmajority":6261,"apped":6262,"ctx":6263,"'d":6264,"bing":6265,"ĠEarth":6266,"inem":6267,"ien":6268,"Font":6269,"ĠProfess":6270,"ĠOh":6271,"asic":6272,"Ġminor":6273,"riage":6274,"aren":6275,"Document":6276,"aby":6277,"Change":6278,"Ġdaily":6279,"ĠGlobal":6280,"Record":6281,"Ġofficials":6282,"Ġmill":6283,"ora":6284,"Ġpor":6285,"ca":6286,"ws":6287,"ĠZeal":6288,"Ġpadding":6289,"fit":6290,"}/":6291,"ĠChicago":6292,"=\"../../../../../../":6293,"Ġnotice":6294,"example":6295,"Ġ\"\\":6296,"ĠPower":6297,"Ġdefe":6298,"91":6299,"oes":6300,"Ġshop":6301,"uke":6302,"ĠLake":6303,"background":6304,"Params":6305,"ĠSaturday":6306,"Ġcommit":6307,"Tim":6308,"ĠGame":6309,"modal":6310,"Art":6311,"Http":6312,"otic":6313,"Ġ::":6314,"ums":6315,"Schema":6316,"Option":6317,"that":6318,"ĠLouis":6319,"hash":6320,"uri":6321,"ĠRussia":6322,"ding":6323,"bi":6324,"Dir":6325,"Operation":6326,"riz":6327,"ĠFree":6328,"Ke":6329,"thlet":6330,"71":6331,":(":6332,"ĠJud":6333,"Ġpackage":6334,"Te":6335,"allery":6336,"Ġtrial":6337,"ĠTeam":6338,"Ġdensity":6339,"Ġfinished":6340,"icker":6341,"itz":6342,"Ġ>=":6343,"Hash":6344,"ĠGeorg":6345,"Ġserve":6346,"Ġsector":6347,"command":6348,"west":6349,"Xml":6350,"ployment":6351,"Connection":6352,"atically":6353,"Ġdatabase":6354,"ootstr":6355,"phone":6356,"},\\":6357,"Ġsusp":6358,"ĠEven":6359,"Ġhappened":6360,"ĠSpr":6361,"ĠJoe":6362,"Ġdetermine":6363,"=\"_":6364,"ĠWednesday":6365,"anging":6366,"pdf":6367,"ĠJun":6368,"ĠZealand":6369,"93":6370,"Ġsmaller":6371,"ician":6372,"bal":6373,"etime":6374,"Ġparties":6375,"Ġattribute":6376,"ĠSecond":6377,"ĠDen":6378,"clusive":6379,"Ġaim":6380,"Ġplaced":6381,"uy":6382,"emp":6383,"Mark":6384,"ensus":6385,"&\\":6386,"Inst":6387,"ĠLead":6388,"Ġremoved":6389,"ĉĠ":6390,"Ġowner":6391,"ursor":6392,"aver":6393,"Ġfit":6394,"ĠAtl":6395,"apse":6396,"Ġfear":6397,"Ġhelped":6398,"Ġbill":6399,"():":6400,"ĠCommunity":6401,"1970":6402,"ircraft":6403,"ĠEvery":6404,"izontal":6405,"ĠTechnology":6406,"83":6407,"Ġcomponents":6408,"ashion":6409,"Ġtraff":6410,"PECT":6411,"Store":6412,"Project":6413,"real":6414,"Ġkids":6415,"Ġsettings":6416,"Ġdecre":6417,"Ġdog":6418,"]]":6419,"ella":6420,"92":6421,"organ":6422,"Ġnegative":6423,"ĠLove":6424,"Ev":6425,"olk":6426,"owers":6427,"Ġdomain":6428,"split":6429,"ĠMil":6430,"Ġprotest":6431,"ĠIll":6432,"models":6433,"Ġwel":6434,"ĠWell":6435,"Ġillust":6436,"Ġtemplate":6437,"94":6438,"Ġequival":6439,"Net":6440,"front":6441,"alax":6442,"Ġcompetition":6443,"ĠMur":6444,"ĠDO":6445,"ĠAuthor":6446,"ĠAcademy":6447,"media":6448,"ĠSy":6449,"second":6450,"Ġparams":6451,"mathfrak":6452,"ny":6453,"standing":6454,"Ġmaterials":6455,"plet":6456,"stack":6457,"Match":6458,"Ġstated":6459,"gency":6460,"groupId":6461,"Ġvariable":6462,"Collection":6463,"Expression":6464,"ĠCON":6465,"Ġut":6466,"Ġgeneration":6467,"Kind":6468,"Ġfine":6469,"uty":6470,"debug":6471,"Ġpatient":6472,"Ġstraight":6473,"ĠSu":6474,"vas":6475,"ansion":6476,"\"));":6477,"Ġspirit":6478,"Ġconnected":6479,"74":6480,")^":6481,"81":6482,"device":6483,"73":6484,"1994":6485,"going":6486,"ublished":6487,"structor":6488,"iders":6489,"WS":6490,"Ġenh":6491,"Ġwhom":6492,"Ġfig":6493,"Ġwood":6494,"clude":6495,"Ġfilename":6496,"Car":6497,"Ġcontinues":6498,"Ġicon":6499,"}),":6500,"Ġinvestment":6501,"Cal":6502,"Ġdetermined":6503,"ĠSecurity":6504,"Ġpanel":6505,"Ġconvert":6506,"Ġtruth":6507,"~~~~":6508,"apers":6509,"Ġlooked":6510,"arden":6511,"unicip":6512,"Ġinstr":6513,"Ġoccup":6514,"iable":6515,"Ġeventually":6516,"sv":6517,"Ġfra":6518,"Ġslight":6519,"stylesheet":6520,"focus":6521,"Reference":6522,"Ġalgorithm":6523,"actor":6524,"Ġwat":6525,"ĠMartin":6526,"emporary":6527,"Ġbrother":6528,"Ġutil":6529,"Ġraised":6530,"ĠBack":6531,"Ġinfluence":6532,"CM":6533,"di":6534,"TV":6535,"ĠHuman":6536,"ĠFilm":6537,"Ġincor":6538,"usband":6539,"Ġarrest":6540,"Ġformed":6541,"ĠChief":6542,"nergy":6543,"Ġholds":6544,"Ġideas":6545,"ĠFestival":6546,"Ġconcent":6547,"hover":6548,"jpg":6549,"Ġreasons":6550,"Ġlayer":6551,"Ġoffered":6552,"ĠFund":6553,"Ġolder":6554,"ĠLO":6555,"Ġtoken":6556,"ĠEp":6557,"ĠMax":6558,"Ġupper":6559,"abit":6560,"Ġroute":6561,"iced":6562,"citep":6563,"Ġpages":6564,"ĠWood":6565,"resents":6566,"Ġappropriate":6567,"Ġrelevant":6568,"pool":6569,"ootstrap":6570,"kin":6571,"Ġuseful":6572,"star":6573,"Vert":6574,"Properties":6575,"Ġimplementation":6576,"ĠRequ":6577,"ingle":6578,"icians":6579,"Ġstorage":6580,"Ġidentity":6581,"Ġtal":6582,"ĠKingdom":6583,"Ġcool":6584,"Ġtools":6585,"ĠTrue":6586,"Ġorganizations":6587,"power":6588,"omy":6589,"Ġbrief":6590,"Ġbattle":6591,"Ġviews":6592,"ker":6593,"Ġdream":6594,"Ġflag":6595,"IE":6596,"Ġsupply":6597,"Ġrestaur":6598,"Ġthinking":6599,"STR":6600,"Ġnoted":6601,"Ġvehicle":6602,"ĠTuesday":6603,"ĠIreland":6604,"Ġecho":6605,"join":6606,"Ġidentified":6607,"Ġchief":6608,".\\":6609,"John":6610,"ĠBur":6611,"Que":6612,"ĠThursday":6613,"rum":6614,"ĠArab":6615,"Ġprofile":6616,"Non":6617,"Ver":6618,"Ġpaint":6619,"render":6620,"ĠBG":6621,"Ġincome":6622,"dest":6623,"Ġguid":6624,"ORD":6625,"Ġchallenge":6626,"Ġnative":6627,"ifications":6628,"Async":6629,"ĠBase":6630,"ugins":6631,"ĠCharles":6632,"%)":6633,"Ġrare":6634,"Ġsignal":6635,"Ġextrem":6636,"NavBar":6637,"Ġharm":6638,"Ġsteps":6639,"Ġcoronavirus":6640,"ura":6641,"ĠOld":6642,"ĠSpecial":6643,"ja":6644,"aws":6645,"ĠModel":6646,"Ġrac":6647,"Ġmobile":6648,"ingu":6649,"Impl":6650,"Ġrecommend":6651,"astern":6652,"Ġpowerful":6653,"direct":6654,"ĠEnter":6655,"Ġseparate":6656,"Ġskills":6657,"ĠBet":6658,"Pass":6659,"lines":6660,"ĠCA":6661,"Ġpeace":6662,"Ġbenefits":6663,"Ġahead":6664,"Ptr":6665,"Ġsexual":6666,"Ġobvious":6667,"================================":6668,"ĠCentre":6669,"ĠJim":6670,"ĠAL":6671,"à¸":6672,"Ġgoals":6673,"address":6674,"Ġvisual":6675,"=>":6676,"Ġadvert":6677,"night":6678,"Cor":6679,"ĠStand":6680,"ih":6681,"ĠLim":6682,"pped":6683,"Ġmachine":6684,"Ġmask":6685,"Ġcris":6686,"Ġalt":6687,"Ġdoor":6688,"bind":6689,"Integer":6690,"Ġrequirements":6691,"Ġdiagn":6692,"Ġclick":6693,"Ġinfr":6694,"ĠLibrary":6695,"ĠOl":6696,"iments":6697,"Ġlisted":6698,"ĠHead":6699,"note":6700,"ĠKey":6701,"ĠPenn":6702,"ils":6703,"ourney":6704,"Menu":6705,"Lambda":6706,"oves":6707,"aser":6708,"ifies":6709,"iar":6710,"access":6711,"pling":6712,"Ġhash":6713,"ĠCast":6714,"}}$":6715,"Ġprison":6716,"Session":6717,"atalog":6718,"Ġtried":6719,"PH":6720,"Ġadvant":6721,"Ġcritic":6722,"coin":6723,"ĠParis":6724,"Right":6725,"Ġadministration":6726,"docs":6727,"Ġplays":6728,"Ġfailure":6729,"Ġplanning":6730,"Ġcredit":6731,"à¥":6732,"osoph":6733,"Any":6734,"Ġax":6735,"ĠTour":6736,"estic":6737,"(:":6738,"cles":6739,"'.":6740,"255":6741,"ĠVictor":6742,"ĠPan":6743,"Use":6744,"ĠMot":6745,"Ġdrink":6746,"Ġconflict":6747,"ĠLin":6748,"ĠChristmas":6749,"normal":6750,"ĠFamily":6751,"vector":6752,"ĠLee":6753,"Ġresidents":6754,"dat":6755,"Ġconvers":6756,"Ġdevices":6757,"ĠĠĠĠĠĠĠĠĠĠĠĠĠĠĠĠĠĠĠĠĠĠĠĠĠĠĠĠĠĠĠĠĠĠĠĠĠĠĠ":6758,"cp":6759,"del":6760,"Ġsumm":6761,"Mult":6762,"Ġmurder":6763,"Ø§":6764,"eries":6765,"Ġhappy":6766,"Ġsenior":6767,"Ġhour":6768,"session":6769,"Long":6770,"Vari":6771,"Ġshift":6772,"Ġsubsequ":6773,"ĉĉĊ":6774,"Ġpurs":6775,"||":6776,"equal":6777,"kappa":6778,"urred":6779,"eless":6780,"shire":6781,"Ġhyp":6782,"Ġdirected":6783,"Pat":6784,"Ġdriver":6785,"ĠAlthough":6786,"ĠException":6787,"ĠMethod":6788,"1992":6789,"Ġextension":6790,"Ġfunding":6791,"Click":6792,"Ġinterested":6793,";->":6794,"Ġiter":6795,"ĠIts":6796,"here":6797,"high":6798,"success":6799,"ola":6800,"Ġcat":6801,"Ġcontaining":6802,"Ġneighbor":6803,"icons":6804,"found":6805,"Ġreality":6806,"ðŁ":6807,"interface":6808,"Ġbul":6809,"\\|":6810,"elligence":6811,"ĠCode":6812,"Ġaudience":6813,"fill":6814,"cat":6815,"Ġperhaps":6816,"Ġlaunched":6817,"Helper":6818,"Ġofficer":6819,"ĠTheir":6820,"ĠJohnson":6821,"Title":6822,"Ġmys":6823,"lie":6824,"Ġdescribe":6825,"Ġconsult":6826,"ĠCommun":6827,"Host":6828,"ĠValley":6829,"Since":6830,"_;":6831,"Ġregarding":6832,"Ġspot":6833,"Ġtransaction":6834,"={":6835,"Ġyield":6836,"etry":6837,"widget":6838,"Ġunless":6839,"ested":6840,"ĠApple":6841,"Ġheavy":6842,"jection":6843,"ITY":6844,"foo":6845,"Ġ['":6846,"ĠTable":6847,"Ġfeet":6848,"TA":6849,"ometry":6850,"ifically":6851,"inations":6852,"ĠVirginia":6853,"Ġdownload":6854,"Ġvirus":6855,"types":6856,"ĠCEO":6857,"Ġsea":6858,"delete":6859,"Ġkept":6860,"Ġdrop":6861,"iques":6862,"poration":6863,"Ġvan":6864,"holder":6865,"1993":6866,"oute":6867,"textit":6868,"Ġbenefit":6869,"ĠOrder":6870,"150":6871,"ented":6872,"iciency":6873,"ĠEvent":6874,"msg":6875,"Ġmentioned":6876,"Red":6877,"ĠLord":6878,"abla":6879,"Ġcategory":6880,"claim":6881,"About":6882,"Ġmaybe":6883,"Here":6884,"ipeline":6885,"Ġbuildings":6886,"Ġcloud":6887,"Ġfourth":6888,"Iter":6889,"lig":6890,"crete":6891,"ataset":6892,"ĠAbout":6893,"Ġcontainer":6894,"Ġstrength":6895,"life":6896,"Ac":6897,"elled":6898,"Some":6899,"Ġdistributed":6900,"range":6901,"Ġchallenges":6902,"Ġviolence":6903,"iki":6904,"Why":6905,"ĠForce":6906,"othing":6907,"Ġphil":6908,"send":6909,"ldots":6910,"Ġnamespace":6911,"DI":6912,"ĠRights":6913,"Ġminimum":6914,"Ġpod":6915,"ĠRecords":6916,"Ġtoward":6917,"ĠMexico":6918,"auth":6919,"Track":6920,"Ġmiles":6921,"Ġmostly":6922,"Ġjobs":6923,"Ġchain":6924,"Ġstress":6925,"Ġended":6926,"rick":6927,"Ġequipment":6928,"Ġconsequ":6929,"ĠAmazon":6930,"bra":6931,"ĠAR":6932,"Ġwrap":6933,"Ġboy":6934,"edge":6935,"ĠSpace":6936,"Ġattract":6937,"asion":6938,"Ġupdated":6939,"odies":6940,"ĠWater":6941,"ĠNY":6942,"Ġexpert":6943,"ded":6944,"ĠArg":6945,"ĠIslam":6946,"ĠIran":6947,"Ġpet":6948,"disabled":6949,"Ġopportunities":6950,"otes":6951,"Ð»":6952,"ĠColor":6953,"export":6954,"click":6955,"roph":6956,"---":6957,"Su":6958,"arian":6959,"Ġappre":6960,"Ġforced":6961,"ĠĠĠĠĠĠĠĠĠĠĠĠĠĠĠĠĠĠĠĠ":6962,"Ġstrict":6963,"Ġcultural":6964,"ĠJo":6965,"ĠEXPECT":6966,"Ġreduced":6967,"SD":6968,"ishes":6969,"ancer":6970,"ĠYoung":6971,"May":6972,"make":6973,"ĠAny":6974,"ĠAff":6975,"Ġweak":6976,"Has":6977,"mid":6978,"war":6979,"orney":6980,"Ġclearly":6981,"Sk":6982,"cean":6983,"Ġmonitor":6984,">.":6985,"Ġprotection":6986,"Ġerrors":6987,"Ġdanger":6988,"ERROR":6989,"Ġcities":6990,"ĠJones":6991,"isters":6992,"Ġhusband":6993,"Ġfamous":6994,"Names":6995,"____":6996,"Ġtalking":6997,"Ġguitar":6998,"Ġlaws":6999,"ĠMedical":7000,"subset":7001,"Ġsmart":7002,"GET":7003,"ORM":7004,"eces":7005,"Device":7006,"esh":7007,"Handle":7008,"Ġflight":7009,"Ġleadership":7010,"Left":7011,"ultural":7012,"obs":7013,"Ġpartial":7014,"Ġtrend":7015,"global":7016,"ĠFort":7017,"Ġexcell":7018,"Ġshowing":7019,"PT":7020,"obuf":7021,"Sm":7022,"Ġoperating":7023,"Book":7024,"missions":7025,"Ġdelete":7026,"mode":7027,"razil":7028,"Ġwid":7029,"Ġstuff":7030,"Ġidentify":7031,"ĠHistor":7032,"orrow":7033,"ĠDown":7034,"ĠHor":7035,"Ġexperi":7036,"nabla":7037,"Ġnodes":7038,"Ġarm":7039,"langle":7040,"Ġintr":7041,"Ġemb":7042,"ĠAwards":7043,"Ġbecoming":7044,"ĠGar":7045,"Ġbudget":7046,"uries":7047,"asketball":7048,"SET":7049,"Med":7050,"&#":7051,"Ġmeant":7052,"ĠBiden":7053,"ĠInvest":7054,"Core":7055,"ĠWhy":7056,"Ġdepth":7057,"Ġbiggest":7058,"Ġproceed":7059,"Ġrepresentation":7060,"Ġleague":7061,"1991":7062,"ĠPolice":7063,"plications":7064,"ersonal":7065,"olec":7066,"ĠScot":7067,"Ġnorm":7068,"uts":7069,"unte":7070,"astructure":7071,"Application":7072,"white":7073,"ĠBGCOLOR":7074,"Ġgather":7075,"SR":7076,"ĠFire":7077,"ĠEN":7078,"CI":7079,"'],":7080,"Ġdig":7081,"connect":7082,"clear":7083,"Ġattend":7084,"ĠAsia":7085,"Dom":7086,"Ġss":7087,"Ġaf":7088,"toString":7089,"ĠMany":7090,"Ġadopt":7091,"ĠDom":7092,"Ġrul":7093,"istration":7094,"ĠWay":7095,"Ġjoint":7096,"Ġdetail":7097,"Ġjav":7098,"Â©":7099,"ĠMA":7100,"coll":7101,"ĠCatholic":7102,"Ġwest":7103,"Ġagreed":7104,"ĠDesign":7105,"ĠSand":7106,"Ġassume":7107,"Ġlif":7108,"Ġcrisis":7109,"Ġcouldn":7110,"Ġreligious":7111,"ĠItalian":7112,"Other":7113,"ensuremath":7114,"Ġmanaged":7115,"ĠSenate":7116,"ean":7117,"Ġweap":7118,"END":7119,"udio":7120,"ĠEach":7121,"Ġwall":7122,"Ġcertainly":7123,"ĠTO":7124,"Ġcalling":7125,"ĠValue":7126,"Ġgone":7127,"Parent":7128,"Ġapproximately":7129,"rier":7130,"Ġcache":7131,"oles":7132,"'>":7133,"Ġagent":7134,"ĠMicrosoft":7135,"These":7136,"Found":7137,"ipal":7138,"Ġpolicies":7139,"ĠAction":7140,"Ġleaving":7141,"oses":7142,"Ġrise":7143,"Ġdamage":7144,"Ġconference":7145,"Ġdoll":7146,"ali":7147,"Ġprove":7148,"kr":7149,"equals":7150,"Ġrevealed":7151,"ographic":7152,"tn":7153,"ĠPop":7154,"ĠDC":7155,"(*":7156,"atters":7157,"Gu":7158,"Ġinterpret":7159,"(-":7160,"Vector":7161,"internal":7162,"ĠHand":7163,"ĠÂ»":7164,"Writer":7165,"annels":7166,"Ġfif":7167,"EQ":7168,"Ġprocesses":7169,"Reader":7170,"ĠAmericans":7171,"ĠHaw":7172,"spe":7173,"Ġremaining":7174,"ĠLine":7175,"Ġonto":7176,"Ġrepresents":7177,"handle":7178,"Ġedition":7179,"Ġsignificantly":7180,"Ġadjust":7181,"Ġcars":7182,"Ġwinning":7183,"Ġfounded":7184,"hem":7185,"Ġoriginally":7186,"Ġoccur":7187,"ĠOrgan":7188,"oted":7189,"copy":7190,"Ġextended":7191,"Ġaircraft":7192,"ln":7193,"scape":7194,"ads":7195,"amm":7196,"atever":7197,"ĠLem":7198,"Ġundefined":7199,"transform":7200,"ato":7201,"Ġdiscussion":7202,"ĠEqu":7203,"Ġarticles":7204,"Ġfresh":7205,"Ġbutton":7206,"Ġbed":7207,"Ġearth":7208,"ylv":7209,"Ġcriminal":7210,"ovid":7211,"Ġcamera":7212,"Ġbg":7213,"Ġult":7214,"reshold":7215,"ĠIP":7216,"panel":7217,"iana":7218,"ĠTH":7219,"webkit":7220,"Ġ×":7221,"Ġsurvey":7222,"wid":7223,"isms":7224,"acific":7225,"Ġfan":7226,"Ġexternal":7227,"yntax":7228,"Ġshut":7229,"ture":7230,"footer":7231,"sql":7232,"Ġfacilities":7233,"ĠCarolina":7234,"Ġissued":7235,"Ġprocessing":7236,"virt":7237,"Ġdelay":7238,"ĠElect":7239,"uls":7240,"Template":7241,"ĠThus":7242,"Draw":7243,"vm":7244,"Parameters":7245,"Ġpropos":7246,"Ġclinical":7247,"Ġenvironmental":7248,"fn":7249,"ĠItaly":7250,"mazing":7251,"enum":7252,"Each":7253,"Ġdepartment":7254,"amin":7255,"romise":7256,"ATH":7257,"allel":7258,"Ġcoast":7259,"uan":7260,"ĠEU":7261,"âĢ¢":7262,"req":7263,"aka":7264,"Ġtraffic":7265,"okes":7266,"\\%":7267,"Ġcovered":7268,"Ġunknown":7269,"ĠSar":7270,"Ġgenerate":7271,"ĠLink":7272,"Ġplot":7273,"Ġeast":7274,"chen":7275,"iber":7276,"env":7277,"Ġstructures":7278,"Ġorigin":7279,"ups":7280,"Ġrelation":7281,"nap":7282,"Stack":7283,"Ġà¤":7284,"iat":7285,"Ġlisten":7286,"Ġgovern":7287,"Ġelected":7288,"eler":7289,"graph":7290,"Ġbrain":7291,"Ġsun":7292,"Ġstreet":7293,"bridge":7294,"custom":7295,"ĠCy":7296,"ĠLuc":7297,"ĠUser":7298,"Ġcentre":7299,"Ġhistorical":7300,"Ġcommunication":7301,"1960":7302,"shot":7303,"enter":7304,"ĠJon":7305,"Ġmatches":7306,"Ġconver":7307,"Ġframework":7308,"cf":7309,"Ġfloor":7310,"False":7311,"ffect":7312,"ĠBob":7313,"lements":7314,"??":7315,"store":7316,"Ġpri":7317,"Ġcitizens":7318,"Ġens":7319,"ĠPage":7320,"PP":7321,"uing":7322,"language":7323,"ĠWho":7324,"Ġauthors":7325,"urban":7326,"###":7327,"Ġpros":7328,"Ġcrow":7329,"Ġconfirmed":7330,"Ġresulting":7331,"step":7332,"Ġregions":7333,"centering":7334,"estamp":7335,"Ġalternative":7336,"ĠChris":7337,"ĠRail":7338,"ignment":7339,"ye":7340,"upload":7341,"acle":7342,"Rect":7343,"grade":7344,"Tags":7345,"Will":7346,"Ġpicture":7347,"elines":7348,"pute":7349,"akistan":7350,"Ne":7351,"kins":7352,"ĠSpanish":7353,"utch":7354,"Ġdu":7355,"Ðº":7356,"ideos":7357,"})$":7358,"Assert":7359,"Ġcomfort":7360,"plugin":7361,"Ġheader":7362,"AME":7363,"ruit":7364,"inet":7365,"ectors":7366,"Ġcarried":7367,"cloud":7368,"Ġlived":7369,"Ġil":7370,"ĠInternet":7371,"Render":7372,"Ġbyte":7373,"ĠRegister":7374,"Ã¢":7375,"ĠĠĠĠĠĠĠĠĠĠĠĠĠĠĠĠĠĠ":7376,"ilton":7377,"ĠJustice":7378,"Bytes":7379,"Ġexecutive":7380,"Phi":7381,"Living":7382,"Ġexerc":7383,"Ġwish":7384,"DC":7385,"oston":7386,"Ġunsigned":7387,"Ġfunds":7388,"Ġcandidate":7389,"Ġvariables":7390,"Ġleads":7391,"ĠHospital":7392,"Ġstack":7393,"ĠMa":7394,"Ġanimals":7395,"Ġparse":7396,"Ġstarts":7397,"Ġreplaced":7398,"iger":7399,"Ġdraft":7400,"AGE":7401,"Ġdeveloping":7402,"{}":7403,"email":7404,"ĠSte":7405,"Ġexamples":7406,"XX":7407,"cape":7408,"Ġmyself":7409,"record":7410,"andon":7411,"Classes":7412,"ĠCard":7413,"Ġdie":7414,"Invalid":7415,"Ġpeak":7416,"Ġrich":7417,"dot":7418,"Select":7419,"=\"/":7420,"Ġserial":7421,"ĠKar":7422,"uzz":7423,"yer":7424,"Ġtechnical":7425,"Ġcombined":7426,"product":7427,"Ġ++":7428,"ictures":7429,"rot":7430,"Values":7431,"Author":7432,"Ġstandards":7433,"urrency":7434,"ĠIndust":7435,"Ġpil":7436,"NN":7437,"ĠAssembly":7438,"toggle":7439,"ĠLear":7440,"Descriptor":7441,"ĠLast":7442,"Ġfaith":7443,"onym":7444,"byte":7445,"ucky":7446,"oving":7447,">();":7448,"Ġbeat":7449,"Num":7450,"Ġclients":7451,"Ġdirectory":7452,"Ġrepresented":7453,"nel":7454,"Ġeye":7455,"ĠBow":7456,"ollowing":7457,"ĠHenry":7458,"iano":7459,"ĠFederal":7460,"faces":7461,"ĠReal":7462,"ulty":7463,"Ġtrail":7464,"ĠJes":7465,"replace":7466,"Ġpan":7467,"stat":7468,"ĠAdministr":7469,"ĠPoint":7470,"ensional":7471,"system":7472,"ĠPolit":7473,"ĠBlue":7474,"ournament":7475,"Ġunivers":7476,"ynchron":7477,"LC":7478,"ĠLo":7479,"Ġsustain":7480,".'":7481,"Ġbroadcast":7482,"Ġfocused":7483,"scal":7484,"Ġexchange":7485,"Ġregistered":7486,"Ġreb":7487,"Wrap":7488,"Ġinher":7489,"According":7490,"ogen":7491,"Posted":7492,"keys":7493,"DIR":7494,"Ġenable":7495,"zen":7496,"ĠSupport":7497,"ACE":7498,"ĠWal":7499,"Show":7500,"Ġmusical":7501,"Ġhidden":7502,"ĠIO":7503,"eller":7504,"Ġcrime":7505,"otimes":7506,"Ġadding":7507,"erg":7508,"Ġyouth":7509,"Ġice":7510,"Ġinvestigation":7511,"Ġpolitics":7512,"ĠMath":7513,"Ġmotion":7514,"ĠSports":7515,"120":7516,"Ġscheme":7517,"exports":7518,"`.":7519,"sect":7520,"ati":7521,"Body":7522,"ĠWilliams":7523,"Ġpi":7524,"Args":7525,"ĠLike":7526,"Ġseeing":7527,"Ġspin":7528,"cur":7529,"Ġimpress":7530,"Ġschedul":7531,"Ġdocuments":7532,"Ġfeatured":7533,"xx":7534,"allow":7535,"Ġcustomer":7536,"Ġwave":7537,"ĠPass":7538,"widet":7539,"Ġlabor":7540,"operator":7541,"har":7542,"ixel":7543,"ĠOnly":7544,"ĠNumber":7545,"rich":7546,"aylor":7547,"Ġestimated":7548,"ĠTrust":7549,"----------------------------------------------------------------":7550,"ĠJeff":7551,"Ġequation":7552,"Ġaren":7553,"ji":7554,"full":7555,"Ġyourself":7556,"ĠCross":7557,"1989":7558,"uses":7559,"Ġlearned":7560,"ĠMiddle":7561,"Ġattr":7562,"Argument":7563,";<":7564,"DR":7565,"rb":7566,"Decl":7567,"ĠHTML":7568,"Ġcorre":7569,"Ġchair":7570,"ĠCre":7571,"cluded":7572,"ĠObama":7573,"ĠNE":7574,"Only":7575,"Ġcommission":7576,"ĠFour":7577,"Ġnine":7578,"Results":7579,"Ġdriving":7580,"double":7581,"fony":7582,"Ġinfe":7583,"Ġrapid":7584,"Ġmental":7585,"Ġcombination":7586,"poss":7587,"tool":7588,"important":7589,"Ġban":7590,"ernel":7591,"Ġbytes":7592,"Ã³n":7593,"LS":7594,"Ġsomew":7595,"Root":7596,"parameter":7597,"fram":7598,"ĠJSON":7599,"Ġfant":7600,"nections":7601,"fields":7602,"admin":7603,"Ġheat":7604,"Ġking":7605,"icol":7606,"Ġfinding":7607,"ĠEnergy":7608,"Ġmessages":7609,"Metadata":7610,"empl":7611,"ansas":7612,".[":7613,"FT":7614,"olume":7615,"tribution":7616,"gypt":7617,"Ġguide":7618,"cknow":7619,"sort":7620,"how":7621,"ĠMain":7622,"Ġofficers":7623,"ĠNO":7624,"ira":7625,"Ġflat":7626,"However":7627,"initely":7628,"ERS":7629,"ificate":7630,"Ġfavorite":7631,"pa":7632,"Policy":7633,"ĠMike":7634,"ĠAndrew":7635,"SSERT":7636,"ĠIss":7637,"MENT":7638,"ymfony":7639,"lers":7640,"Att":7641,"secut":7642,"Parser":7643,"Ġdecades":7644,"widetilde":7645,"Ġtra":7646,"Ġfish":7647,"Ġwarm":7648,"Ġnarr":7649,"Ġnotes":7650,"component":7651,"Ġapparent":7652,"Pop":7653,"Ġnumerous":7654,"ĠSO":7655,"Ġsport":7656,"\\\"":7657,"Ġprotocol":7658,"anche":7659,"ĠConference":7660,"Ġ})":7661,"ĠWall":7662,"{-":7663,"hetic":7664,"ĠText":7665,"Sw":7666,"ighter":7667,"bul":7668,"Ġactor":7669,"aste":7670,"water":7671,"Ġinvoke":7672,"virtual":7673,"Ġthousands":7674,"ĠFootball":7675,"Ġappointed":7676,"adium":7677,"ĠOnline":7678,"ĠLive":7679,"Ġmock":7680,"-->":7681,"hs":7682,"nce":7683,"register":7684,"ĠNight":7685,"ĠMuslim":7686,"itage":7687,"Ġdedicated":7688,"Ġhers":7689,"ĠHarr":7690,"Ġsamples":7691,"Ġknows":7692,"plements":7693,"Ġsplit":7694,"elease":7695,"application":7696,"orders":7697,"&&":7698,"Ġcontrast":7699,"gers":7700,"Ġoffering":7701,"abeth":7702,"aching":7703,"Ġintended":7704,"rule":7705,"ĠTele":7706,"ĠLab":7707,"ĠWild":7708,"Ġexplicit":7709,"Ġfeeling":7710,"Ġmixed":7711,"lyph":7712,"Ġfiled":7713,"DP":7714,"Ĥ¬":7715,"ĠNet":7716,"Ġisol":7717,"Ġmarketing":7718,"Ġremained":7719,"awa":7720,"stop":7721,"Ġpp":7722,"Ġtend":7723,"appro":7724,"PRE":7725,"Ġplus":7726,"Ġconducted":7727,"Ġcreation":7728,"rid":7729,"Ã§":7730,"Ġachieve":7731,"ĠColumb":7732,"ucket":7733,"Icon":7734,"Ġlett":7735,"ĠBecause":7736,"Ġexport":7737,"ĠLi":7738,"Ġwind":7739,"callback":7740,"Ġkill":7741,"posite":7742,"Ġtrip":7743,"ilation":7744,"Ġentered":7745,"ading":7746,"////////////////////////////////":7747,"forms":7748,"Note":7749,"istent":7750,"ĠFood":7751,"160":7752,"ĠPlease":7753,"Ġinline":7754,"1988":7755,"ĠJoseph":7756,"Ġentity":7757,"Err":7758,"ĠSign":7759,"ECT":7760,"SU":7761,"Enabled":7762,"Ġsale":7763,"Ġtheme":7764,"Ġstations":7765,"ĠColl":7766,"Ġwww":7767,"Before":7768,"Byte":7769,".;":7770,"Ġbalance":7771,"iser":7772,"Meta":7773,"ashed":7774,"Ġul":7775,"athan":7776,"Ġopinion":7777,"Ġos":7778,"ĠGuide":7779,"attribute":7780,"Ġmyst":7781,"Ġlatter":7782,"ĠFrancisco":7783,"Ġspeech":7784,"ĠFigure":7785,"Debug":7786,"enger":7787,"Ġhousehold":7788,"__(":7789,"Ġnice":7790,"Ġguy":7791,"olver":7792,"buf":7793,"Ġlicense":7794,"dots":7795,"IX":7796,"Ġisland":7797,"Ġpredict":7798,"ĠInitial":7799,"ĠRam":7800,"Sigma":7801,"Ġphoto":7802,"orship":7803,"Ġstudied":7804,"Ġdefense":7805,"$(":7806,"Ġpractices":7807,"Ġchosen":7808,"800":7809,"ĠEnvironment":7810,"ĠBoth":7811,"Ġ('":7812,"lywood":7813,"Ġliterature":7814,"Ġuniversity":7815,"Definition":7816,"Ġresolution":7817,"ĠURL":7818,"mond":7819,"ingly":7820,"ĠVan":7821,"Ġevolution":7822,"Ġequivalent":7823,"va":7824,"stitution":7825,"Custom":7826,"/\\":7827,"WA":7828,"Doc":7829,"security":7830,"uple":7831,"Ġlab":7832,"ryst":7833,"settings":7834,"ceived":7835,"Ġratio":7836,"pet":7837,"ĠKen":7838,"ko":7839,"Ġconcerns":7840,"Ear":7841,"Ġjourney":7842,"Ġremote":7843,"Ġtells":7844,"ĠLocal":7845,"ova":7846,"Ġbgcolor":7847,"obe":7848,"framework":7849,"Ġalloc":7850,"urer":7851,"Tests":7852,"friend":7853,"ĠExecut":7854,"Ġsquare":7855,"wan":7856,"Ġpurposes":7857,"Delete":7858,"ĠÂ©":7859,"Ġtrav":7860,"Then":7861,"Ġaffected":7862,"ĠParliament":7863,"ĠMen":7864,"600":7865,"Ġfrequency":7866,"ĠMichigan":7867,"Ġwouldn":7868,"Ġflex":7869,"rim":7870,"Ġfle":7871,"Ġagency":7872,"Ġfacility":7873,"Ġhighlight":7874,"Ġwarn":7875,"anguages":7876,"Channel":7877,"ĠHon":7878,"plex":7879,"ĠLook":7880,"Ġadvice":7881,"Exp":7882,"ĠStudies":7883,"Ġnetworks":7884,"Ġposted":7885,"insert":7886,"Ġguarant":7887,"BI":7888,"Ġmetal":7889,"ĠWhe":7890,"tabular":7891,"ĠPhys":7892,"nam":7893,"Ġimportance":7894,"TEST":7895,"Mock":7896,"MT":7897,"ĠRo":7898,"ĠSecretary":7899,"Ġpartnership":7900,"Ġchanging":7901,"250":7902,"Ġslightly":7903,"boolean":7904,"Ġadvantage":7905,"ĠMult":7906,"Ġdistinct":7907,"Support":7908,"material":7909,"Ġallowing":7910,"protobuf":7911,"ĠCH":7912,"Ġseconds":7913,"Ġfuel":7914,"words":7915,"Ġsan":7916,"Î±":7917,"Copy":7918,"Ġvision":7919,"Ġseat":7920,"Ġdelivery":7921,"Ġdifferences":7922,"Final":7923,"Api":7924,"dependency":7925,"ushed":7926,"Ins":7927,"Ġtruly":7928,"DT":7929,"Ġpool":7930,"ĠSciences":7931,"ima":7932,"Ġpositions":7933,"iling":7934,"ĠPrem":7935,"Ġreject":7936,"Ġ),":7937,"home":7938,"Ġvaccine":7939,"Ġsleep":7940,"itan":7941,"Ġdepart":7942,"Ġpoly":7943,"ĠExper":7944,"ĠAccess":7945,"Ġextract":7946,"Ġhyper":7947,"Ġhelps":7948,"illy":7949,"Storage":7950,"Ġinjury":7951,"ĠAdv":7952,"BR":7953,"Ġbrowser":7954,"ĠSummer":7955,"cpp":7956,"Ġkeys":7957,"agers":7958,"rine":7959,"Ġtypically":7960,"ĠWalk":7961,"ĠBrazil":7962,"ĠBritain":7963,"Ġsum":7964,"Ġexperiences":7965,"acks":7966,"}-":7967,"Ġmsg":7968,"Ġmist":7969,"Ġawarded":7970,"Ġjson":7971,"icing":7972,"ĠTerm":7973,"Ġ\"/":7974,"umni":7975,"Ġforest":7976,"Lock":7977,"Fig":7978,"ĠGeorgia":7979,"ĠNorthern":7980,"Ġnewsp":7981,"1987":7982,"ĠDemocratic":7983,"Ġprepar":7984,"Ġcircum":7985,"Ġjump":7986,"Main":7987,"Ġowned":7988,"ĠTherefore":7989,"lyn":7990,"Ġran":7991,"\\[":7992,"Ġexpos":7993,"Ġinsert":7994,"ĠRepublican":7995,"argument":7996,"padding":7997,"Ġretail":7998,"ĠDaniel":7999,"Ġcomparison":8000,"Ġapi":8001,"dropdown":8002,"ĠStart":8003,"Ġattacks":8004,"iro":8005,"Changed":8006,"encing":8007,"Ġthanks":8008,"cert":8009,"Ġregional":8010,"Ġsufficient":8011,"ĠIII":8012,"mbox":8013,"![":8014,"ĠEr":8015,"ador":8016,"ello":8017,"Ġhappens":8018,"Ñĥ":8019,"Ġdiscovered":8020,"auto":8021,"ĠWindows":8022,"wp":8023,"Ġterror":8024,"ĠCustom":8025,"bling":8026,"formance":8027,"Ġweather":8028,"agger":8029,"uations":8030,"Ġcluster":8031,"Ġappearance":8032,"Ġburn":8033,"ĠMP":8034,"ynamic":8035,"Public":8036,"ocity":8037,"othes":8038,"Ġvehicles":8039,"oster":8040,"Editor":8041,"Ġ(*":8042,"Ġrelatively":8043,"ĠControl":8044,"unny":8045,"inates":8046,"MI":8047,"Ġreviews":8048,"ĠCoast":8049,"Ġ'/":8050,"Ġnuclear":8051,"GS":8052,"install":8053,"ĠIrish":8054,"ĠHy":8055,"ARY":8056,"ĠJackson":8057,"Ġdefend":8058,"plugins":8059,"Ġfreedom":8060,"oti":8061,"issions":8062,"Ġseemed":8063,"Di":8064,"Ġwitness":8065,"ĠUpdate":8066,"icer":8067,"Ġannounce":8068,"Ġstudio":8069,"Ġleaves":8070,"Ġdiscussed":8071,"Ã¨":8072,"AF":8073,"Ġabsolute":8074,"aria":8075,"Just":8076,"Ġbranch":8077,"Ġthank":8078,"Obj":8079,"ishop":8080,"Const":8081,"ĠFurther":8082,"ĠMid":8083,"Ġuncertain":8084,"Year":8085,"Ġextremely":8086,"\">&":8087,"ĠSep":8088,"`,":8089,"Ġalbums":8090,"bootstrap":8091,"Ġmarriage":8092,"rawn":8093,"km":8094,"ĠassertEquals":8095,"idential":8096,"Ġbehavi":8097,"Ġhelping":8098,"Ġefficient":8099,"ĠPakistan":8100,"ython":8101,"Ġgain":8102,"Ġspend":8103,"iral":8104,"!âĢĿ":8105,"Ġcommitted":8106,"Ġgirls":8107,"annotation":8108,"ĠSouthern":8109,"stances":8110,"Ġdecisions":8111,"ĠLight":8112,"Ġplants":8113,"nic":8114,"256":8115,"irds":8116,"Ġwriters":8117,"ĠRest":8118,"Ġprofession":8119,"news":8120,"Av":8121,"ĠToday":8122,"Ġdivision":8123,"watch":8124,"Ġfinish":8125,"Ġlocations":8126,"Ġaudio":8127,"Ident":8128,"ĠFed":8129,"pan":8130,"Ġcounty":8131,"Ġjustice":8132,"Ġcarbon":8133,"Ġ<=":8134,"ĠJewish":8135,"ango":8136,"Ġvel":8137,"ĠOk":8138,"ĠBO":8139,"Ġinspired":8140,"ĠMake":8141,"Initial":8142,"Del":8143,"Ġhomes":8144,"Ġguess":8145,"}\"":8146,"Ġmassive":8147,"bury":8148,"Ġamazing":8149,"Ġherself":8150,"rical":8151,"SION":8152,"unately":8153,"Ġadvance":8154,"ickets":8155,"Jan":8156,"KEY":8157,"apes":8158,"Ġvoc":8159,"rip":8160,"ression":8161,"asis":8162,"World":8163,"present":8164,"cmd":8165,"screen":8166,"Ġconsole":8167,"ĠĠĠĠĠĠĊ":8168,"ĠEmp":8169,"blockList":8170,"estion":8171,"fix":8172,"ĠAf":8173,"ĠError":8174,"aration":8175,"stein":8176,"edit":8177,"cut":8178,"Ġacademic":8179,"1986":8180,"HTML":8181,"Ġhair":8182,"Ġterrit":8183,"ĠProfessor":8184,"Ġglass":8185,"Ġphen":8186,"'))":8187,"Ġtrigger":8188,"Gen":8189,"izabeth":8190,"Dialog":8191,"Rule":8192,")-":8193,"Ġreserved":8194,"ĠBoston":8195,"ĠCivil":8196,"Boolean":8197,"inating":8198,"fly":8199,"master":8200,"Ġsupporting":8201,"IVE":8202,"Ġmotor":8203,"ĠTw":8204,"Best":8205,"Ġcref":8206,"ĠFar":8207,"Second":8208,"Ġvictory":8209,"Ġriver":8210,"%,":8211,"ĠRadio":8212,"=\"../../../":8213,"Ġprobability":8214,"ĠSaf":8215,"Ġconsistent":8216,"elly":8217,"Ġprices":8218,"cup":8219,"Ġrom":8220,"appe":8221,"ï¼":8222,"adoop":8223,"1984":8224,"Ġfill":8225,"Ġvisible":8226,"contin":8227,"Ġadvoc":8228,"INFO":8229,"iration":8230,"Ġfashion":8231,"ĠBeach":8232,"Ġpurchase":8233,"ĠAS":8234,"Active":8235,"alid":8236,".âĢĻ":8237,"Ġbegins":8238,"ylvania":8239,"exception":8240,"Ġauthority":8241,"Ġkid":8242,"ĠMedicine":8243,"ivation":8244,"Ġcoverage":8245,"Ġwaiting":8246,"points":8247,"}}{":8248,"Ġdetailed":8249,"Ġrecording":8250,"roud":8251,"Two":8252,"Ġneut":8253,"MB":8254,"ĠDigital":8255,"effect":8256,"operation":8257,"Var":8258,"ĠJac":8259,"bad":8260,"bre":8261,"hentication":8262,"ĠKh":8263,"connection":8264,"mo":8265,"alloc":8266,"Ġspaces":8267,"Ġsister":8268,"ione":8269,"FAULT":8270,"Ġblocks":8271,"Ġhousing":8272,"Ġmarkets":8273,"ĠVAL":8274,"ĠTer":8275,"Ġsinger":8276,"MC":8277,"shall":8278,"Ġscientific":8279,"ĠQueen":8280,"osa":8281,"initial":8282,"ĠCopyright":8283,"ĠSwed":8284,"stone":8285,"shape":8286,"ROM":8287,"Ġcrew":8288,"ĠExt":8289,"aturing":8290,"ĠSpain":8291,"Ġdetect":8292,"pay":8293,"Ġrain":8294,"udden":8295,"Â°":8296,"Full":8297,"ĠGirl":8298,"Ġ&=":8299,"Ġinner":8300,"ĠMaster":8301,"mock":8302,"Ġweekend":8303,"Media":8304,"Ġexplained":8305,"Ġtro":8306,"ĠPacific":8307,"short":8308,"Ġhotel":8309,"Job":8310,"Ġloved":8311,"ĠVersion":8312,"ĠEgypt":8313,"LOG":8314,"Find":8315,"acket":8316,"elegate":8317,"ĠJr":8318,"Ġshock":8319,"Ġfellow":8320,"ĠBul":8321,"1985":8322,"ĠDefault":8323,"Ġoccurred":8324,"Ġprovider":8325,"ito":8326,"ters":8327,"Ġaccepted":8328,"Ġretain":8329,"names":8330,"Network":8331,"Ġtreated":8332,"odd":8333,"Ġreader":8334,"ĠTheatre":8335,"Ġinstitutions":8336,"inator":8337,"awn":8338,"ĠBrook":8339,"Ġhearing":8340,"iveness":8341,"Ġprepared":8342,"Ġexpressed":8343,"Ġemph":8344,"Ġunion":8345,"Ġfre":8346,"Ġfell":8347,"Ġadvent":8348,"yes":8349,"Ġtracks":8350,"Ġclassic":8351,"kg":8352,"evin":8353,"Ġreferred":8354,"Ġturns":8355,"uality":8356,"ila":8357,"*)":8358,"items":8359,"comment":8360,"essions":8361,"ODO":8362,"nonumber":8363,"ĠNon":8364,"Ġsy":8365,"Ġelem":8366,"Ġclaimed":8367,"During":8368,"Queue":8369,"ĠMah":8370,"dict":8371,"_,":8372,"Ġdir":8373,"Ġexplain":8374,"Fields":8375,"grid":8376,"uilt":8377,"sen":8378,"Step":8379,"ancel":8380,"Ġapproved":8381,"onto":8382,"Msg":8383,"Ġwallet":8384,"lemma":8385,"ĠVideo":8386,"achment":8387,"Ġcorner":8388,"person":8389,"Ġpun":8390,"ĠKim":8391,"inline":8392,"Account":8393,"Ġcycle":8394,"Ġbelieved":8395,"ampion":8396,"heast":8397,"alo":8398,"ĠNav":8399,"Ġincred":8400,"spring":8401,"Ġexpansion":8402,"Ġadvanced":8403,"Ġplane":8404,"La":8405,"Ġ{};":8406,"Ġcouncil":8407,"burgh":8408,"ĠLittle":8409,"fol":8410,"1950":8411,"forcement":8412,"ĠAndroid":8413,"HECK":8414,"Ġconsists":8415,"uby":8416,"NOT":8417,"ĠTR":8418,"ĠCirc":8419,"HR":8420,"Ġnoise":8421,"Ġmovies":8422,"Member":8423,"Ġok":8424,"EXT":8425,"Ġancient":8426,"password":8427,"Ġcreative":8428,"Ġexcellent":8429,"ĠSea":8430,"Ġsoft":8431,"pled":8432,"dx":8433,"Ġversions":8434,"umes":8435,"margin":8436,"Ġgender":8437,"Ġsuc":8438,",-":8439,"Ġsupports":8440,"ĠĠĠĠĠĠĠĠĠĠĠĠĠĠĠĠĠĠĠĠĠĠĠĠĠ":8441,"Ġcookies":8442,"ICE":8443,"Ġcash":8444,"Ġconfirm":8445,"ĉĉĉĊ":8446,"category":8447,"Ġng":8448,"stra":8449,"Ġteaching":8450,"ĠDonald":8451,"Ġreceiving":8452,"Ġsubstant":8453,"eper":8454,"Ġwatching":8455,"Ġpal":8456,"wait":8457,"ĠIT":8458,"ĠBooks":8459,"128":8460,"osc":8461,"ĠOhio":8462,"Ġattributes":8463,"Package":8464,"ĠAge":8465,"itionally":8466,"Ġsuccessfully":8467,"Ġdoubt":8468,"Ġdance":8469,"ĠFalse":8470,"Timeout":8471,"angular":8472,"101":8473,"ĠSteve":8474,"ĠArea":8475,"ĠEth":8476,"High":8477,"Ġinstalled":8478,"equiv":8479,"Ġcold":8480,"unsigned":8481,"ĠRh":8482,"engine":8483,"Send":8484,"Ġtopic":8485,"Display":8486,"ĠLtd":8487,"Ġmanner":8488,"Ġauthorities":8489,"LP":8490,"ĠFunction":8491,"Ġends":8492,"Ġven":8493,"Ġtechniques":8494,"123":8495,"Ġmagazine":8496,"Ġrecon":8497,"ĠPri":8498,"ĠFred":8499,"Ġhydro":8500,"Ġtab":8501,"outer":8502,"cuss":8503,"Äģ":8504,"world":8505,"Ġintegr":8506,"ĠMcC":8507,"inois":8508,"ĠWat":8509,"prise":8510,"ĠPath":8511,"ga":8512,"Ġscored":8513,"Ġemergency":8514,"ĠJersey":8515,"ĠWin":8516,"sylvania":8517,"ĠSpec":8518,"Ġconcert":8519,"leton":8520,"Ġserving":8521,"Database":8522,"Ġcas":8523,"Ġodd":8524,"ĠWatch":8525,"Ġholding":8526,"cher":8527,"lets":8528,"Ġdiss":8529,"Ġupdates":8530,"?\"":8531,"ipped":8532,"ĠTheorem":8533,"Ġpayment":8534,"Rest":8535,"}]":8536,"Î¿":8537,"Ġproducer":8538,"oir":8539,"acts":8540,"ĠMO":8541,"raq":8542,"andra":8543,"Cap":8544,"Ġarrived":8545,"ogy":8546,"Ġfinite":8547,"Ġspring":8548,"Ġdemocr":8549,"BE":8550,"WN":8551,"avor":8552,"mosph":8553,"Ġexperienced":8554,")/":8555,"ĠTask":8556,"Ġinfrastructure":8557,"bro":8558,"Init":8559,"Ġvent":8560,"Ġmenu":8561,"compl":8562,"adel":8563,"\\{":8564,"je":8565,"Ġinstanceof":8566,"Ġur":8567,"law":8568,"Ġregul":8569,"Ġimproved":8570,"recated":8571,"ĠRay":8572,"wer":8573,"fast":8574,"ĠSaint":8575,"ockey":8576,"primary":8577,"Ġchemical":8578,"Ġplanned":8579,"Ġwaves":8580,"istant":8581,"iffer":8582,"Ġtrees":8583,"Ġrequests":8584,"Ġwhatever":8585,"ĠSeason":8586,"Ġjavax":8587,"ONE":8588,"hab":8589,"Ġbrings":8590,"Ġsympt":8591,"help":8592,"Ġsecure":8593,"Ġabuse":8594,"ervative":8595,"Ġpriv":8596,"election":8597,"ela":8598,"JSON":8599,"ulf":8600,"hemat":8601,"Ġsymmet":8602,"Ġpieces":8603,"events":8604,"ĠWrit":8605,"Ġinterests":8606,"mann":8607,"Ġsupposed":8608,"radius":8609,"Ġdefinitely":8610,"ĠPC":8611,"Ġcoal":8612,"ĠBang":8613,"ĠSus":8614,"Ġsegment":8615,"ĠChildren":8616,"iples":8617,"Ġboost":8618,"addr":8619,"Ġcollected":8620,"Ġvac":8621,"GO":8622,"XT":8623,"Ġspecifically":8624,"Ġvolunte":8625,"Ġsmooth":8626,"Ġsqu":8627,"Ġsucceed":8628,"matrix":8629,"}+":8630,"orough":8631,"\\]":8632,"ĠKn":8633,"Ġrelationships":8634,"Ġelim":8635,"profile":8636,"\\!":8637,"Transaction":8638,"ennis":8639,"ĠWis":8640,"Ġsuggested":8641,"Ġorders":8642,"Ġarbit":8643,"çļ":8644,"Ġhtml":8645,"Ġring":8646,"VE":8647,"ĠFull":8648,"anes":8649,"ĠPay":8650,"apore":8651,"thread":8652,"Ġfigures":8653,"Ġperspective":8654,"Bit":8655,"ĠPhot":8656,"Ġarchitecture":8657,"Ġfort":8658,"inton":8659,"ĠStory":8660,"Ġcandidates":8661,"PORT":8662,"vin":8663,"ĠMic":8664,"family":8665,"Ġcauses":8666,"ĠDou":8667,"writer":8668,"YPE":8669,"ĠSir":8670,"Ġsurg":8671,"ĠChair":8672,"Ġincident":8673,"assertEqual":8674,"Ð°Ð":8675,"ĠWales":8676,"widehat":8677,"ĠDar":8678,"Ġanimal":8679,"Float":8680,"Ġfavour":8681,"_->":8682,"Ġestimate":8683,"ĠBroad":8684,"PM":8685,"ĠMu":8686,"Ġuniform":8687,"rase":8688,"ĠGi":8689,"çļĦ":8690,"Ġlies":8691,"Ġalleged":8692,"fire":8693,"Scope":8694,"Ġbelong":8695,"->_":8696,"ĠRen":8697,"ears":8698,"emon":8699,"Widget":8700,"inity":8701,"ĠCarl":8702,"Ġcer":8703,"modules":8704,"News":8705,"ĠSupreme":8706,"Ġteacher":8707,"Ġresponsibility":8708,"Ġbond":8709,"numer":8710,"Ġaccident":8711,"GA":8712,"Ġdesc":8713,"Flags":8714,"ĠOx":8715,"(!":8716,"Ġenabled":8717,"Ġpure":8718,"Ġacknow":8719,"ĠStan":8720,"ez":8721,"Term":8722,"Tab":8723,"ĠðŁ":8724,"Ġchart":8725,"merce":8726,"Ġmanage":8727,"impl":8728,"FILE":8729,"anna":8730,"Ġphotos":8731,"Ġhandler":8732,"para":8733,"cam":8734,"Ġroles":8735,"Ġbelief":8736,"ran":8737,"enth":8738,"Security":8739,"ĠSoftware":8740,"FS":8741,"Ġpassion":8742,"ĠBas":8743,"Ġera":8744,"Perm":8745,"Ġfinds":8746,"Ġrepresenting":8747,"Ġresearchers":8748,"Ġexistence":8749,"Ġfundament":8750,"region":8751,"Ret":8752,"ĠTaylor":8753,"Ġpossibly":8754,"Ġmeasured":8755,"aked":8756,"MAX":8757,"ĠHom":8758,"ulner":8759,"Ġclim":8760,"ĠProcess":8761,"ĠBern":8762,"ĠScotland":8763,".*":8764,"TABLE":8765,"linear":8766,"Ġincreases":8767,"scr":8768,"ĠThree":8769,"Ġmunicip":8770,"Phone":8771,"Ġkeeping":8772,"Ġformation":8773,"prime":8774,"Ġentirely":8775,"Video":8776,"ĠMarket":8777,"inant":8778,"tributed":8779,"ĠFair":8780,"Ġloop":8781,"ĠEngineering":8782,"Ġboundary":8783,";\\":8784,"ĠKent":8785,"ĠRom":8786,"Ġderived":8787,"Tool":8788,"Ġraw":8789,"ĠÂ·":8790,"Ġdynamic":8791,"ĠAsian":8792,"Ġmainly":8793,"possible":8794,"ĠImage":8795,"Global":8796,"avid":8797,"coq":8798,"Ġinternet":8799,"RC":8800,"Ġowners":8801,"ĠGre":8802,"Ġsounds":8803,"agraph":8804,"ĠKong":8805,"ĠSom":8806,"Ġapart":8807,"avity":8808,"Symbol":8809,"article":8810,"Ġparticipants":8811,"Ġcompare":8812,"zz":8813,"Ġkick":8814,"Extension":8815,"Ġsides":8816,"Previous":8817,"Ġawait":8818,"rames":8819,"Ġmort":8820,"erial":8821,"ĠNext":8822,"Mr":8823,"Ġguys":8824,"ĠIndex":8825,"Ġcommittee":8826,"1983":8827,"Ġrough":8828,"raham":8829,"Ġcharges":8830,"Files":8831,"riev":8832,"Ġtwice":8833,"ĠHa":8834,"uous":8835,"isc":8836,"none":8837,"textwidth":8838,"Ġcolon":8839,"gov":8840,"Ġhaven":8841,"Ġbatter":8842,"hadoop":8843,"atial":8844,"ĠCovid":8845,"Ġskin":8846,"lay":8847,"Tube":8848,"}_\\":8849,"Register":8850,"Ġdb":8851,"echo":8852,")))":8853,"Ġestate":8854,"Ġtested":8855,"Ġinitially":8856,"ĠCorporation":8857,"ĠCase":8858,"âĢĻ,":8859,"ifer":8860,"Ġexplore":8861,"Ġsand":8862,"Ġgalax":8863,"oral":8864,"ĠCur":8865,"Ġconsumer":8866,"Ġment":8867,"green":8868,"Ġinteraction":8869,"Ġshares":8870,"110":8871,"itter":8872,"ĠEst":8873,"Ġsummary":8874,"ĠEq":8875,"Ġwinner":8876,"scroll":8877,"Ġtasks":8878,"iot":8879,"ĠPrime":8880,"ĠPy":8881,"rovers":8882,"Ġevening":8883,"ĠAgain":8884,"READ":8885,"Ġfighting":8886,"Ġcompr":8887,"queue":8888,"Ġembed":8889,"]:":8890,"ĠFox":8891,"utely":8892,"Ġinstrument":8893,"Ġoptional":8894,"umin":8895,"ĠKorea":8896,"stats":8897,"Ġrent":8898,"called":8899,"Ġeasier":8900,"ĠHard":8901,"Ġelections":8902,"isa":8903,"original":8904,"gebra":8905,"pository":8906,"1982":8907,"osophy":8908,"Ġdress":8909,"Ġrecip":8910,"Ġretr":8911,"ountry":8912,"[:":8913,"lik":8914,"Ġdrama":8915,"ÏĦ":8916,"ĠGal":8917,"amber":8918,")}\\":8919,"Ġgrew":8920,"structions":8921,"iy":8922,"Ġindustrial":8923,"Ġperman":8924,"ĠNavy":8925,"inv":8926,"move":8927,"=\"\">":8928,"Ġdelivered":8929,"ĠHas":8930,"Ġdepends":8931,"Ġachieved":8932,"Ġattended":8933,"Ġstatements":8934,"ĠExecutive":8935,"@\"":8936,"ĠCollection":8937,"âĢĻ.":8938,"ĠBoy":8939,"Ġvideos":8940,"VD":8941,"Ġaspects":8942,"Ġsuggests":8943,"network":8944,"ãĢ":8945,"ruption":8946,"ĠGreek":8947,"ĠSearch":8948,"duced":8949,"Ġprocedure":8950,"ĠSher":8951,"ĠGuard":8952,"ĠPRO":8953,"JECT":8954,"Ġassociation":8955,"LIC":8956,"Directory":8957,"Ġcontribution":8958,"hell":8959,"Rad":8960,"ĠPennsylvania":8961,"Ġwealth":8962,"Ġspons":8963,"RES":8964,"ĠCommon":8965,"Ġneighborhood":8966,"Ġacting":8967,"Ġsouthern":8968,"Ġentertain":8969,"ĠGets":8970,"Ġdomestic":8971,"Ġbringing":8972,"======":8973,"Ġinn":8974,"Pay":8975,"Ġmedium":8976,"prene":8977,"Ġbtn":8978,"Ġdialog":8979,"PAR":8980,"Ġzone":8981,")=\\":8982,"zeta":8983,"Ġportr":8984,"tip":8985,"NotNull":8986,"Ġacts":8987,"assertEquals":8988,"Ġ${":8989,"Ġcontained":8990,"tical":8991,"Google":8992,"Ġ[[":8993,"ĠPO":8994,"ĠFOR":8995,"Ġordered":8996,"Ġfactory":8997,")\">":8998,"omorph":8999,"enses":9000,"redit":9001,"lg":9002,"Ġapplicable":9003,"irms":9004,"ĠON":9005,"deg":9006,"Psi":9007,"oviet":9008,"atible":9009,"Windows":9010,"Ġsolar":9011,"Ġlicens":9012,"ailing":9013,"Where":9014,"inson":9015,"ĠDaily":9016,"Ġsynt":9017,"Copyright":9018,"Ġexperts":9019,"Ġextr":9020,"ĠĠĠĠĠĠĠĠĠĠĠĠĠĠĠĠĠĠĠĠĠĠĠĠ":9021,"Members":9022,"Ġreaders":9023,"IND":9024,"pson":9025,"Ġmolec":9026,"ĠLu":9027,"Ġcaught":9028,"Ġautomatically":9029,"pton":9030,"ussian":9031,"isted":9032,"Conf":9033,"Space":9034,"Ġnorthern":9035,"Ġmaps":9036,"Ġindepend":9037,"ĠAirport":9038,"reprene":9039,"Pool":9040,"Ġaccomp":9041,"Many":9042,"Ġamb":9043,"\")]":9044,"Ġtor":9045,"Ġinsurance":9046,"Ġinteger":9047,"etes":9048,"area":9049,"gence":9050,"Ġbright":9051,";/":9052,"tics":9053,"anner":9054,".__":9055,"ĠAP":9056,"issue":9057,"ocker":9058,"XML":9059,"Ġrepeated":9060,"Ġprotein":9061,"teen":9062,"Ġfeels":9063,"Ġmarked":9064,"inher":9065,"ĠDeb":9066,"Ġpassing":9067,"Ġlargely":9068,"Ġprev":9069,"Feature":9070,"Ġsam":9071,"Ġfilled":9072,"Ġprivacy":9073,"Ġcapture":9074,"dy":9075,"super":9076,"Ġadm":9077,"Ġmuseum":9078,"Please":9079,"channel":9080,"ego":9081,"Internal":9082,"}=\\":9083,"arters":9084,"UD":9085,"typed":9086,"aya":9087,"=\"@":9088,"ERE":9089,"Ġbasketball":9090,"Engine":9091,"Ġgreatest":9092,"ĠIllinois":9093,"save":9094,"islation":9095,"Ġreduction":9096,"special":9097,"\",\"":9098,"ĠSat":9099,"itled":9100,"results":9101,"iterator":9102,"ĠTem":9103,"Ġindeed":9104,"ĠAsh":9105,"Ġengineering":9106,"Logger":9107,"Ġarmy":9108,"Microsoft":9109,"Every":9110,"Ġreporting":9111,"puter":9112,"Ġplanet":9113,"thm":9114,"Ġwidely":9115,"PER":9116,"Nov":9117,"ĠLew":9118,"Ġafford":9119,"Ġbuilder":9120,"Ġimplemented":9121,"Ġlose":9122,"Ġmand":9123,"()));":9124,"children":9125,"ĠIraq":9126,"Ġsoul":9127,"Loader":9128,"Ġindicate":9129,"ĠSon":9130,"Ġmac":9131,"asters":9132,"Ġexplan":9133,"ĠIl":9134,"Ġtechnologies":9135,"Ġcompre":9136,"ĠPrivacy":9137,"1979":9138,"typeof":9139,"ĠElizabeth":9140,"MD":9141,"ĠKr":9142,"tex":9143,"Ġconsidering":9144,"ĠBad":9145,"ograp":9146,"Ġmal":9147,"Ġconcerned":9148,"ĠRog":9149,"doi":9150,"Cond":9151,"++;":9152,"ĠOnce":9153,"Ġphotograph":9154,"ĠJava":9155,")));":9156,"Ġsac":9157,"ĠSite":9158,"Iterator":9159,"controller":9160,"ById":9161,"Ġsecondary":9162,"ipl":9163,"Ġcorporate":9164,"Ġseasons":9165,"selected":9166,"Ġaccounts":9167,"ĠAnth":9168,"Ġurban":9169,"sche":9170,"\"=>":9171,"Ġsharing":9172,"Inv":9173,"sol":9174,"Ġdecade":9175,"ĠBlock":9176,"Ġhonor":9177,"$)":9178,"bel":9179,"brid":9180,"ĠPhilipp":9181,"outs":9182,"Ġstored":9183,"ĠVill":9184,"Ġcharged":9185,"aret":9186,"jquery":9187,"erves":9188,"Ġ\\{":9189,"jar":9190,"Ġsimpl":9191,"Ġathlet":9192,"wa":9193,"Ġvary":9194,"Ġton":9195,"een":9196,"Ġmel":9197,"una":9198,"Ġstopped":9199,"Ġschedule":9200,"izz":9201,"ĠMember":9202,"ĠCost":9203,"Look":9204,"ĠProperty":9205,"roke":9206,"Ġbridge":9207,"indent":9208,"throws":9209,"clip":9210,"Ġvertical":9211,"Ġlinked":9212,"atar":9213,"Items":9214,"ĠLatin":9215,"National":9216,"tenance":9217,"Ġpromote":9218,"ĠĠĠĠĠĠĠĠĠĠĠĠĠĠĠĠĠĠĠĠĠĠ":9219,"shop":9220,"ydney":9221,"IMP":9222,"engers":9223,"Ġdebate":9224,"ĠUkr":9225,"Ġformal":9226,"ĠPrince":9227,"Ġthick":9228,"Ġec":9229,"UID":9230,"Ġassigned":9231,"ĉĉĉĉĉĉĉĉĉ":9232,"Ġextent":9233,"Section":9234,"entials":9235,"Ġadj":9236,"ĠKnow":9237,"Ġspan":9238,"ĠCook":9239,"ĠOption":9240,"ĠAnother":9241,"agnost":9242,"Ġmatters":9243,"Ġactors":9244,"Events":9245,"Ġguard":9246,"inf":9247,"Ġoccurs":9248,"1981":9249,")^{":9250,"Ġsudden":9251,"ĠRight":9252,"ĠAT":9253,"Ġhouses":9254,"Print":9255,"ĠResource":9256,"Ġrecognized":9257,"sex":9258,"IGHT":9259,"ĠStaff":9260,"unting":9261,"Ġposts":9262,"game":9263,"proto":9264,"Generic":9265,"Ġmir":9266,"ĠOlympics":9267,"sur":9268,"plus":9269,"Ġtournament":9270,"}:":9271,"ĠBlog":9272,"Ġjudge":9273,"ĠEastern":9274,"ownt":9275,"Ġrecall":9276,"Ġstanding":9277,"ĠThrough":9278,"ĠFind":9279,"Edit":9280,"blog":9281,"ĠNode":9282,"Constr":9283,"ologist":9284,"Ġalongside":9285,"Ġearn":9286,"}^\\":9287,"Ġhumans":9288,"opher":9289,"!\"":9290,"role":9291,"Ġwilling":9292,"Ġproud":9293,"ĠKenn":9294,"ĠWilson":9295,"Ġtherapy":9296,"Ġhealthy":9297,"ĠWhere":9298,"Ġwinter":9299,"ĠChange":9300,"Ġcancell":9301,"Free":9302,"txt":9303,"ĠMajor":9304,"ĠPR":9305,"Ġprimarily":9306,"Ġsubstantial":9307,"cb":9308,"Ġrenew":9309,"worth":9310,"Ġdeleg":9311,"ĠPubl":9312,"Aust":9313,"ĠCro":9314,"edu":9315,"Close":9316,"Ġreaction":9317,"Ġhistoric":9318,"Ġing":9319,"low":9320,"Ġspending":9321,"Proxy":9322,"Ġfunc":9323,"Ġped":9324,"flags":9325,"Ġaid":9326,"iti":9327,"Ġ[];":9328,"Ġrecovery":9329,"Ġfamiliar":9330,"lights":9331,"Ġinstitution":9332,";\"":9333,"components":9334,"vard":9335,"ĠHong":9336,"Ġportion":9337,"NULL":9338,"Ġgar":9339,"manager":9340,"Ġdetection":9341,"Ġconven":9342,"NT":9343,"ĠClin":9344,"OUT":9345,"ĠBol":9346,"equence":9347,"CF":9348,"Ġstores":9349,"commod":9350,"Ġdrugs":9351,"axis":9352,"Symfony":9353,"Ġnewly":9354,"Pres":9355,"tsd":9356,"late":9357,"RAN":9358,"ifts":9359,"ordan":9360,"Ġworse":9361,"Ġprofessor":9362,"ĠRod":9363,"Ġconnections":9364,"wall":9365,"eah":9366,"yo":9367,"Ġgranted":9368,"Ġspl":9369,"ĠMatt":9370,"Ġdoctor":9371,"Ġdoct":9372,"Ġquantum":9373,"Ġawards":9374,"Ġdimension":9375,"ĠEmpire":9376,"Ġgrid":9377,"Ġasking":9378,"VERSION":9379,"Most":9380,"cohol":9381,"Activity":9382,"Ġusual":9383,"Ġabstract":9384,"%%%%":9385,"Ġworldwide":9386,"Ġmodified":9387,"Ġadmin":9388,"Ġbroken":9389,"Ġtypical":9390,"Ġnavigation":9391,"Ġseeking":9392,"Ġcontributions":9393,"Spe":9394,"Watch":9395,"Ġsignature":9396,"Ġconfidence":9397,"Ġbow":9398,"arc":9399,"Ġmach":9400,"ĠMir":9401,"ĠAdministration":9402,"Ñı":9403,"}|":9404,"Ġintelligence":9405,"ben":9406,"PU":9407,"schema":9408,"Ġinvalid":9409,"Ġstorm":9410,"vi":9411,"Ġencoding":9412,"ĠAud":9413,"Ġheav":9414,"Ġpenal":9415,"rie":9416,"ĠMinistry":9417,"################":9418,"%.":9419,"Abstract":9420,"ĠStation":9421,"'])":9422,"ĠCountry":9423,"Ġatmosph":9424,"ĠBon":9425,"Ġwarning":9426,"Ġprogramme":9427,"Ġcontemporary":9428,"Ġongoing":9429,"Ġminute":9430,"Fin":9431,"Ġcos":9432,"=#":9433,"ĠBell":9434,"icious":9435,"ĠEnt":9436,"leted":9437,"Ġdepending":9438,"bles":9439,"Ġelectronic":9440,"Ġeat":9441,"Ġindicates":9442,"ĠConfig":9443,"Ġearned":9444,"fortunately":9445,"(){":9446,"Ġcomedy":9447,"ses":9448,"Ġpitch":9449,"ycl":9450,"mic":9451,"Ġfeaturing":9452,"Ġserves":9453,"Î½":9454,"properties":9455,"Ġunable":9456,"Figure":9457,"Ġconversation":9458,"notation":9459,"ĠMS":9460,"lan":9461,"Ġapproaches":9462,"domain":9463,"ĠHotel":9464,"gg":9465,"Ġfee":9466,"Ġelev":9467,"Ġunf":9468,"Ġcab":9469,"chor":9470,"BUG":9471,"Ġliqu":9472,"ĠPers":9473,"Ġteachers":9474,"Ġdropped":9475,"desc":9476,"Ġ%}":9477,"Day":9478,"enumer":9479,"NavBarCell":9480,"Ġlanguages":9481,"oked":9482,"RT":9483,"Statement":9484,"ĠSpring":9485,"ository":9486,"tags":9487,"Ġchannels":9488,"Ġce":9489,"Ġexperimental":9490,"ennes":9491,"izable":9492,"ĠLabor":9493,"Ġcloser":9494,"Play":9495,"bytes":9496,"month":9497,"Ġoperators":9498,")\"":9499,"Under":9500,"ĠColumbia":9501,"LINE":9502,"Ġhonest":9503,"folio":9504,"shift":9505,"General":9506,"Ġcle":9507,"Ġsurrounding":9508,"Ġideal":9509,"hensive":9510,"Ġremark":9511,"Ġadopted":9512,"Ġscheduled":9513,"Ġcontinuous":9514,"Ġip":9515,"achus":9516,"black":9517,"Category":9518,"Graph":9519,"ĠAdam":9520,"Ġswe":9521,"Ġspectrum":9522,"Ġsigns":9523,"ugs":9524,"Ġarts":9525,"Opt":9526,"people":9527,"[$":9528,"Ġtruck":9529,"Well":9530,"Ġappreci":9531,"Ġacid":9532,"Prop":9533,"ĠAccount":9534,"\"`":9535,"account":9536,"ĠTurn":9537,"Ġworst":9538,"fall":9539,"Ġpromin":9540,"SIZE":9541,"Ġassessment":9542,"ĠAvenue":9543,"^^":9544,"Ġnearby":9545,"Ġassets":9546,"aph":9547,"ureau":9548,"identifier":9549,"esome":9550,"Ã±":9551,"iner":9552,"etts":9553,"ĠĠĠĠĠĠĠĠĠĠĠĠĠĠĠĠĠĠĠĠĠĠĠĠĠĠĠĠĠĠĠĠĠĠĠĠĠĠĠĠĠĠĠ":9554,"ĠFord":9555,"total":9556,"Ġexercise":9557,"PATH":9558,"ais":9559,"Ġtherm":9560,"ĠEs":9561,"Writ":9562,"Ġescape":9563,"ubs":9564,"idi":9565,"ITE":9566,"FIG":9567,"^+":9568,"Ġorient":9569,"Ġcraft":9570,"Ġsetup":9571,"ĠAli":9572,"Ġexposure":9573,"ori":9574,"Ġagents":9575,"RS":9576,"Ġfiction":9577,"Ġexcited":9578,"1978":9579,"Ġstatistics":9580,"OM":9581,"uma":9582,"oking":9583,"Photo":9584,"imit":9585,"ĠProduct":9586,"1976":9587,"Ġscholar":9588,"Ġwa":9589,"Ġputting":9590,"Ġmil":9591,"Ġmoments":9592,"git":9593,"Panel":9594,"Ġpersons":9595,"Ġrevenue":9596,"ĠSingapore":9597,"Auth":9598,"BP":9599,"Ġagric":9600,"Ġreligion":9601,"Ġintent":9602,"_(":9603,"ĠToronto":9604,"ĠLandroid":9605,"Ġvulner":9606,"FE":9607,"=\"\"":9608,"Ġminister":9609,"letter":9610,"Ġadults":9611,"ĠAk":9612,"Ġhundreds":9613,"1972":9614,"itals":9615,"eli":9616,"ĠFI":9617,"upl":9618,"Ġorig":9619,"wild":9620,"UTF":9621,"Yes":9622,"Ġactress":9623,"Ġagencies":9624,"Ġpassword":9625,"Ġefficiency":9626,"Ġcoeff":9627,"Product":9628,"nesota":9629,"otted":9630,"consin":9631,"ĠPsych":9632,"Ġcontrolled":9633,"ĠCat":9634,"Ġalter":9635,"ĠCru":9636,"each":9637,"Ġpublication":9638,"Ġfly":9639,"Ġinstant":9640,"views":9641,"Ġclassical":9642,"Ġdeclared":9643,"Ġpatterns":9644,"ĠEdward":9645,"Ġexperiments":9646,"andy":9647,"erty":9648,"ĠParam":9649,"irement":9650,"ĠBE":9651,"anth":9652,"ĠPhoto":9653,"Ġthoughts":9654,"Dem":9655,"named":9656,"ĠNC":9657,"Ġadult":9658,"ĠMill":9659,"ĠRon":9660,"Ljava":9661,"Ġstrategies":9662,"printf":9663,"Ġpowers":9664,"Ġveter":9665,"1975":9666,"Common":9667,"METH":9668,"Ġexit":9669,"ĠCommand":9670,"Ġflood":9671,"yard":9672,"Ġcampus":9673,"Ġexecution":9674,"Ġrestaurant":9675,"ourse":9676,"erate":9677,"aga":9678,"ĠShort":9679,"Transform":9680,"Protocol":9681,"Ġcontrols":9682,"()).":9683,"Ġlit":9684,"Your":9685,"ĠStephen":9686,"Ġsymptoms":9687,"ĠGovernor":9688,"Ġcollaboration":9689,"alg":9690,"ACT":9691,"blue":9692,"Ġdegrees":9693,"external":9694,"SQL":9695,"ĠHamilton":9696,"Mut":9697,"Ġentries":9698,"ĠManager":9699,")).":9700,"apply":9701,"Attributes":9702,"Ġio":9703,"Ġminim":9704,"Selector":9705,"Ġpy":9706,"ĠOfficer":9707,"Ġforg":9708,"ĠTra":9709,"king":9710,"adelph":9711,"mi":9712,"Ġsections":9713,"Ġconstructed":9714,"dimensional":9715,"ĠBattle":9716,"Browser":9717,"Ġmagnetic":9718,"utf":9719,"ĠBa":9720,"Ġ(_":9721,")),":9722,"Ġrestrictions":9723,"citet":9724,"Ġgap":9725,"Ġaccuracy":9726,"Arch":9727,"seud":9728,"STAT":9729,"Ġimplements":9730,"dem":9731,"ĠWel":9732,"Ġstands":9733,"Ġdict":9734,"ĠAz":9735,"cdots":9736,"Ġlimits":9737,"ĠUt":9738,"ailure":9739,"IPT":9740,"Ġfat":9741,"Ġbodies":9742,"Total":9743,"Ġdecide":9744,"endment":9745,"ntario":9746,"ĠEll":9747,"Ġperforming":9748,"Ġduration":9749,"cred":9750,"Ġmigr":9751,"Ġarms":9752,"Ġwestern":9753,"ĠJesus":9754,"âĢī":9755,"iamond":9756,"Ġclosely":9757,"Ġassistance":9758,"åı":9759,"pressed":9760,"uable":9761,"Grid":9762,"1968":9763,"otion":9764,"ĠPen":9765,"assets":9766,"Adapter":9767,"Ġepisodes":9768,"Ġbass":9769,"hidden":9770,"ellect":9771,"Email":9772,"ĠBall":9773,"Ġtypename":9774,"Ġdebt":9775,"ĠGa":9776,"Desc":9777,"Î¹":9778,"appoint":9779,"Cam":9780,"}}(":9781,"ĠFac":9782,"ĠStock":9783,"Ġextend":9784,"Ġdry":9785,"ĠWars":9786,"Ġpromise":9787,"ugby":9788,"editor":9789,"})\\":9790,"ĠFuture":9791,"Christ":9792,"Success":9793,"SY":9794,"1977":9795,"CG":9796,"Report":9797,"Ġvisitors":9798,"ĠBox":9799,"isting":9800,"anny":9801,"ĠBBC":9802,"Plugin":9803,"ĠNick":9804,"Ġchapter":9805,"Ġ\"\"":9806,"unes":9807,"Double":9808,"norm":9809,"tainment":9810,"ĠUsing":9811,"Ġrecommended":9812,"ĠBal":9813,"achusetts":9814,"Ġcontroller":9815,"}^{(":9816,"iversary":9817,"ĠSanta":9818,"Ġseats":9819,"ĠDeath":9820,"Ġdataset":9821,"Ġusage":9822,"700":9823,"ĠAD":9824,"quir":9825,"adelphia":9826,"Ġreturning":9827,"ĠCurrent":9828,"Ġdangerous":9829,"endor":9830,"Ġhero":9831,"Ġrural":9832,"hu":9833,"Ġfindings":9834,"oured":9835,"Ġlay":9836,"oor":9837,"Ġmechanism":9838,"aks":9839,"amil":9840,"Another":9841,"Ġchampionship":9842,"olis":9843,"Ġcircumstances":9844,"Memory":9845,"Ġresc":9846,"chain":9847,"ĠYouTube":9848,"LECT":9849,"Ġlie":9850,"Ġhabit":9851,"Ġexceed":9852,"Ġtrained":9853,"aped":9854,"Ġgoods":9855,"Ġpermission":9856,"ĠOS":9857,"{(":9858,"Profile":9859,"Ġretriev":9860,"His":9861,"Ġlegisl":9862,"Ġteen":9863,"ĠDisney":9864,"Ġwelcome":9865,"ĠSem":9866,"ĠRepresent":9867,"ĠBand":9868,"ĠTy":9869,"ĠNFL":9870,"USE":9871,"Ġscientists":9872,"configuration":9873,"ĠEric":9874,"regon":9875,"ĠDark":9876,"1974":9877,"ĠExpl":9878,"ĠViet":9879,"Ġultimately":9880,"tw":9881,"Ġscenes":9882,"Ġinfl":9883,"hav":9884,"Ġalert":9885,"Ġpra":9886,"Constants":9887,"Ġcontrovers":9888,"agues":9889,"ĠDocument":9890,"tection":9891,"Auto":9892,"ĠGreg":9893,"Ġyounger":9894,"ĠProt":9895,"typedef":9896,"Ġinstruction":9897,"abric":9898,"Ġwear":9899,"ĠUnivers":9900,"Comment":9901,"Ġnob":9902,"ToString":9903,"Details":9904,"ĠLA":9905,"Ġnarrow":9906,"NC":9907,"ika":9908,"Ġacquired":9909,"METHOD":9910,"Ġweapons":9911,"Oct":9912,"ĠDead":9913,"ĠFinancial":9914,"ĠTODO":9915,"Ġpointer":9916,"ĠHu":9917,"orry":9918,"mathsf":9919,"Ġobservations":9920,"Ġlosing":9921,"aska":9922,"Expr":9923,"Ġpriority":9924,"Scroll":9925,"Runtime":9926,"you":9927,"Ġkit":9928,"Ġmess":9929,"1973":9930,"Ġlayout":9931,"Ġtail":9932,"ĠLow":9933,"horizontal":9934,"ĠHollywood":9935,"Ġarrested":9936,"Matrix":9937,"holders":9938,"Ġbinary":9939,"Ġcalc":9940,"Background":9941,"Ġthreshold":9942,"Ġstable":9943,"prefix":9944,"130":9945,"ĠĠĠĠĠĠĠĠĠĠĠĠĠĠĠĠĠĠĠĠĠĠĠĠĠĠĠĠĠĠĠĠĠĠĠĠĠĠĠĠĠĠĠĠĠĠĠĠĠĠĠĠĠĠĠĠĠĠĠĠĠĠĠĠ":9946,"Dest":9947,"Ġdiverse":9948,"Ġpossibility":9949,"Ġshooting":9950,"Ġtight":9951,"Lo":9952,"ami":9953,"ĠBefore":9954,"Ġinvestors":9955,"ĠLemma":9956,"enant":9957,"Parse":9958,"oices":9959,"Ġfaster":9960,"Ġappeal":9961,"Ġimplies":9962,"Ġeducational":9963,"Ġcovers":9964,"twitter":9965,"Ġlegislation":9966,"English":9967,"Ġwire":9968,"Ġexpanded":9969,"lix":9970,"Ġ&\\":9971,"Ġ{'":9972,"when":9973,"Ġrecognition":9974,"WR":9975,"3333":9976,"Ġending":9977,"Ġaccurate":9978,"onom":9979,"Ġeffectively":9980,"Ġproport":9981,"}</":9982,"ĠMagazine":9983,"ĠCas":9984,"loom":9985,"Ġalumni":9986,"progress":9987,"ĠĠĠĊ":9988,"Ġdestination":9989,"decl":9990,"ĠVen":9991,"ĠCond":9992,"Ġcart":9993,"Ġtalks":9994,"contains":9995,"arry":9996,"Ġbaby":9997,"125":9998,"kw":9999,"Ġdescribes":10000,"ĠDavis":10001,"istical":10002,"ĠConnect":10003,"Ġentr":10004,"ĠOxford":10005,"isode":10006,"ĠColorado":10007,"browser":10008,"ULE":10009,"Ġrequested":10010,"Oh":10011,"Ġcopies":10012,"Ġloaded":10013,"Ġaccompl":10014,"roduction":10015,"Elements":10016,"ĠTransport":10017,"duce":10018,"Props":10019,"dist":10020,"rog":10021,"Ġnegoti":10022,"Ġfn":10023,"Ġproperly":10024,"Ġcommitment":10025,"ĠRos":10026,"ĠCreat":10027,"Ġstrongly":10028,"uda":10029,"Ġsnow":10030,"including":10031,"Ġvisited":10032,"Ġevaluation":10033,"subs":10034,"Ġextensive":10035,"defined":10036,"player":10037,"limit":10038,"ĠInstead":10039,"Ġinvolving":10040,"sin":10041,"Ġcalculated":10042,"Duration":10043,"Ġcurve":10044,"Ġspeaking":10045,"door":10046,"ĠFre":10047,"reset":10048,"ĠBat":10049,"ĠLy":10050,"Contact":10051,"yers":10052,"ĠSydney":10053,"Ġ$.":10054,"Ġoccasion":10055,"bat":10056,"ĠDam":10057,"Ġsuit":10058,"Ġtitles":10059,"Ġbought":10060,"ĠBuilding":10061,"itis":10062,"Ġspoke":10063,"Ġvictims":10064,"Pointer":10065,"ĠĠĠĠĠĠĠĠĠĠĠĠĠĠĠĠĠĠĠĠĠĠĠĠĠĠĠĠĠ":10066,"ĠEditor":10067,"BL":10068,"icity":10069,"SER":10070,"Ġconsumers":10071,"layer":10072,"van":10073,"Java":10074,"Ġtough":10075,"ĠOriginal":10076,"Ġpregn":10077,"Ġvirt":10078,"Ġencounter":10079,"ĠCulture":10080,"Ġdefin":10081,"ĠDu":10082,"mutable":10083,"Ġasync":10084,"Ġrg":10085,"omial":10086,"Ġsevere":10087,"Ġmedal":10088,"ĠHou":10089,">::":10090,"ulpt":10091,"ï¿":10092,"platform":10093,"Ġarbitr":10094,"ĠSource":10095,"getName":10096,"ĠVictoria":10097,"Ġplatforms":10098,"Ġsaved":10099,"report":10100,"archy":10101,"MOD":10102,"ĠMessage":10103,"Ġaxis":10104,"Keys":10105,"Ġwaste":10106,"Ġseed":10107,"Ġlegend":10108,"ĠBrad":10109,"Ġstret":10110,"ONG":10111,"safe":10112,"abil":10113,"handler":10114,"=(":10115,"1971":10116,"heim":10117,"hard":10118,"mediate":10119,"180":10120,"Ġmatching":10121,"ving":10122,"ifiers":10123,"logger":10124,"Ġcategories":10125,"ĠPA":10126,"Ġparallel":10127,"Ġprompt":10128,"Ang":10129,"ju":10130,"Ġregulations":10131,"prec":10132,"Ġsyn":10133,"ĠAI":10134,"FR":10135,"Seg":10136,"zone":10137,"ĠAgency":10138,"Lin":10139,"ĠBit":10140,"Ġxmlns":10141,"asm":10142,"Although":10143,"Ġmob":10144,"Ġsad":10145,"ĠSoviet":10146,"iami":10147,"Ġcycl":10148,"Ġveg":10149,"ĠjQuery":10150,"Ġfrequently":10151,"ni":10152,"Ġgene":10153,"Îµ":10154,"Stud":10155,"Ġprime":10156,"Ġ$(\\":10157,"Ġflags":10158,"Leg":10159,"Ġmouth":10160,"pu":10161,"ĠIslands":10162,"icide":10163,"udes":10164,"Ġproved":10165,"Remove":10166,"CESS":10167,"Ġgift":10168,"Ġphenomen":10169,"bits":10170,"Mer":10171,"Ġtelling":10172,"urd":10173,"ĠReact":10174,"Socket":10175,"ĠIOException":10176,"ĠPot":10177,"Ġaccommod":10178,"esterday":10179,"Ġcoff":10180,"enda":10181,"Ġpotentially":10182,"Ġflu":10183,"Ġpictures":10184,"ĠYes":10185,"Ġselling":10186,"trigger":10187,"svg":10188,"ĠSystems":10189,"switch":10190,"Route":10191,"Ġestimates":10192,"aded":10193,"collection":10194,"ĠJean":10195,"anchester":10196,"tmp":10197,"Ġtransmission":10198,"ĠBru":10199,"ĠKir":10200,"Ġfacing":10201,"Ġcompliance":10202,"Ġangle":10203,"FFFF":10204,"Ġcompens":10205,"Ġaggreg":10206,"ĠBrian":10207,"plicated":10208,"1969":10209,"Ġreform":10210,"Ġabandon":10211,"bell":10212,"Ġcro":10213,"Ġcapable":10214,"Ġtum":10215,"anz":10216,"arity":10217,"Ġpersonnel":10218,"job":10219,"Ġsemi":10220,"ibraries":10221,"ĠDemocrats":10222,",'":10223,"Ġunderlying":10224,"ĠHo":10225,"Ġvotes":10226,"Ġrect":10227,"Ġadvertising":10228,"tools":10229,"Ġtaught":10230,"atern":10231,"Ġtalent":10232,"Ġbanks":10233,"aron":10234,"underline":10235,"Ġreq":10236,"ĠCapital":10237,"ĠNations":10238,"craft":10239,"ĠResources":10240,"Ġrig":10241,"ĠModern":10242,"Ġignore":10243,"ĠSche":10244,"vs":10245,"Ġfacilit":10246,"ĠTal":10247,"ĠMiller":10248,"ĠConf":10249,"Ġstim":10250,"Ð²":10251,"Mapping":10252,"elli":10253,"Ġletters":10254,"owa":10255,"Ġmoves":10256,"ï¿½":10257,"keyword":10258,"ĠPlace":10259,"isition":10260,"asi":10261,"Ġaccord":10262,"ĠOfficial":10263,"Ġabsor":10264,"thur":10265,"Ġdisabled":10266,"osed":10267,"attributes":10268,"Ġtypeof":10269,"ĠRa":10270,"ĠRyan":10271,"Ġmountain":10272,"rat":10273,"Ġ=========":10274,"Ġ\",":10275,"Make":10276,"ĠCreek":10277,"Ġfacts":10278,"Ġcolumns":10279,"ĠĠĠĠĠĠĠĠĠĠĠĠĠĠĠĠĠĠĠĠĠĠĠĠĠĠ":10280,"shadow":10281,"Ġclubs":10282,"ĠEmer":10283,"David":10284,"ibilities":10285,"Ġsubjects":10286,"1940":10287,"Ġbench":10288,"Ġdrag":10289,"bean":10290,"Cre":10291,"ĠCloud":10292,"Ġvast":10293,"profit":10294,"Ġorganized":10295,"protected":10296,"United":10297,"EC":10298,"Sync":10299,"props":10300,"University":10301,"etary":10302,"Ġdocumentation":10303,"Ġtack":10304,"Ġqueue":10305,"Variable":10306,"Ġassign":10307,"webpack":10308,"Ġfeedback":10309,"Black":10310,"wing":10311,"Ġtransparent":10312,"}'":10313,"Ġprogramming":10314,"tle":10315,"Ġforget":10316,"Ġhence":10317,"Ġstone":10318,"1967":10319,"rizona":10320,"riority":10321,"Ġpropag":10322,"ĠNig":10323,"ĠNeed":10324,"Ġmetric":10325,"Ġtechnique":10326,"ĠLady":10327,"Ġaddresses":10328,"Ġappend":10329,"Ġterr":10330,"ĠFA":10331,"stood":10332,"Ġemployee":10333,"itivity":10334,"Ġattempts":10335,"Ġdistingu":10336,"unct":10337,"eman":10338,"Ġyards":10339,"Ġmillions":10340,"Ġdeploy":10341,"eric":10342,"Ġincreasingly":10343,"Ġenhance":10344,"ĠHash":10345,"Ġcompact":10346,"onia":10347,"Ġemotional":10348,"Ġwins":10349,"ĠChannel":10350,"ĠRose":10351,"asts":10352,"ĠElement":10353,"Subs":10354,"ĠVice":10355,"Ġperformances":10356,"adesh":10357,"metadata":10358,"Ben":10359,"brief":10360,"Ġfifth":10361,"occer":10362,"ĠAlli":10363,"]$":10364,"Ġprincipal":10365,"kes":10366,"ĠHay":10367,"Ġenjoyed":10368,"igate":10369,"ĠReb":10370,"bot":10371,"Ġimmediate":10372,"cers":10373,"Ġnewspaper":10374,"Ġopposite":10375,"Ġcopyright":10376,"generated":10377,"Care":10378,"ancell":10379,"Ġyes":10380,"ĠWisconsin":10381,"aki":10382,"ailability":10383,"hy":10384,"UK":10385,"ĠImm":10386,"Ġboys":10387,"ĠWAR":10388,"Ġdivided":10389,"pred":10390,"ĠAuthority":10391,"loor":10392,"gorithms":10393,"Ġtargets":10394,"qquad":10395,"putation":10396,"Ġhealthcare":10397,"Ġexplains":10398,"Ġsubsequent":10399,"uction":10400,"ĠOs":10401,"ceptions":10402,"Mich":10403,"Ġrisks":10404,"oval":10405,"Ġsolo":10406,"Ġride":10407,"ĠMassachusetts":10408,"PD":10409,"Ġinfin":10410,"Ġcommonly":10411,"utr":10412,"Ġpars":10413,"Ġsole":10414,"ĠDream":10415,"Ġtech":10416,"issues":10417,"Ġkilling":10418,"Ġbeauty":10419,"ĠØ":10420,"COMP":10421,"ĠDNA":10422,"Ġwrites":10423,"Also":10424,"about":10425,"ĠRecord":10426,"Ġcharacteristics":10427,"Ġfunctional":10428,"Ġarrang":10429,"Ġassembly":10430,"Ġentertainment":10431,"ĠTrail":10432,"}\\\\":10433,"Ġoperate":10434,"tabs":10435,"ĠResp":10436,"Ġdisk":10437,"Ġfundamental":10438,"Ġindicated":10439,"ĠInstagram":10440,"Ġles":10441,"Ġcontents":10442,"Ã£":10443,"Ġinfection":10444,"Ġpractical":10445,"Ġbatt":10446,"Collections":10447,"ĠTony":10448,"Ġships":10449,"ghan":10450,"depth":10451,"Ġ{\"":10452,"','":10453,"Ġrid":10454,"hide":10455,"Ġclock":10456,"Songs":10457,"Failed":10458,"tons":10459,"ĠLev":10460,"Ġillegal":10461,"Ġforth":10462,"Ġadds":10463,"ĠLiter":10464,"Ġsoldiers":10465,"Ġtopics":10466,"Ġfestival":10467,"Ġcreates":10468,"ĠFall":10469,"ymph":10470,"Ġpublish":10471,"Ġquiet":10472,"Ġabsolutely":10473,"Ġfounder":10474,"exists":10475,"Ġemployment":10476,"ĠGallery":10477,"conn":10478,"Ġcriteria":10479,"Ġverify":10480,"services":10481,"opl":10482,".\");":10483,"ĠChem":10484,"Ġimpossible":10485,"Ġplenty":10486,"................":10487,"serial":10488,"Ġconvent":10489,"agen":10490,"Å¡":10491,"ĠSab":10492,"Enter":10493,"oped":10494,"Ġvess":10495,"ĠHarris":10496,"expr":10497,"ipping":10498,"ĠAlexander":10499,"xspace":10500,"ĠJam":10501,"Ġstreets":10502,"Ġlots":10503,"Ġfasc":10504,"ĠMinnesota":10505,"Ñĭ":10506,"ellar":10507,"dp":10508,"Ġreasonable":10509,"Ġdollars":10510,"ĠHig":10511,"ĠHarry":10512,"Selected":10513,"Help":10514,"ADD":10515,"facebook":10516,"TEXT":10517,"Ġinnovation":10518,"ITION":10519,"Press":10520,"ĠLanguage":10521,"Ġopposition":10522,"itol":10523,"Ġdrawn":10524,"Ġapproval":10525,"neg":10526,"Ġwonderful":10527,"Ġtransformation":10528,"Enum":10529,"Func":10530,"Ġresistance":10531,"hspace":10532,"------------":10533,"Ġexciting":10534,"1930":10535,"Ġsending":10536,"orne":10537,"ĠSC":10538,"Ġlistening":10539,"ĠNAS":10540,"QU":10541,"ĠTax":10542,"Execut":10543,"ĠCR":10544,"Ġgod":10545,"Ġvocals":10546,"ĠContin":10547,"Who":10548,"Ġelectron":10549,"Ġguest":10550,"Ġscal":10551,"ivated":10552,"angers":10553,"Game":10554,"(__":10555,"Ġreferences":10556,"ĠSong":10557,"Ä±":10558,"Services":10559,"ĠSenior":10560,"Ġpoliticians":10561,"LI":10562,"Ġresolve":10563,"away":10564,"Nodes":10565,"inema":10566,"Ġintroduction":10567,"Ġhall":10568,"Ġdestroyed":10569,"picker":10570,"Ġhook":10571,"ĠPract":10572,"South":10573,"UST":10574,"ĠOntario":10575,"Ġinstances":10576,"Ġvelocity":10577,"ĠPortug":10578,"Ġmissed":10579,"omatic":10580,"closed":10581,"Ġsquad":10582,"idx":10583,"Ð´":10584,"ivals":10585,"ellite":10586,"Ġtranslation":10587,"Ġresponses":10588,"Ġ(-":10589,"Registry":10590,"Ġwalking":10591,"ANT":10592,"HL":10593,"gments":10594,"adr":10595,"Ġholiday":10596,"Ġenv":10597,"Ġcaptured":10598,"Ġformula":10599,"ĠTech":10600,"iley":10601,"Ġexpensive":10602,"Ġrelief":10603,"$_":10604,"Ġoperated":10605,"Ġrevolution":10606,"mask":10607,"{\"":10608,"ĠMarg":10609,"ĠCS":10610,"Ġdenote":10611,"ĠBudd":10612,"Wrapper":10613,"ĠIE":10614,"provider":10615,"Miss":10616,"Ġcrowd":10617,"ĠSound":10618,"Ġdat":10619,"ĠTake":10620,"Ġstrings":10621,"ĠShould":10622,"akh":10623,"bourne":10624,"FORM":10625,"Ġincorpor":10626,"Â®":10627,"tor":10628,"Ġmonitoring":10629,"Associ":10630,"Ġfol":10631,"ĠChen":10632,"Layer":10633,"Ġtradition":10634,"ÑĮ":10635,"ells":10636,"INS":10637,"ĠAffairs":10638,"aire":10639,"random":10640,"forward":10641,"arring":10642,"Ġstick":10643,"ipedia":10644,"Ġpercentage":10645,"Compar":10646,"iac":10647,"ĠPH":10648,"Ġ[\"":10649,"1945":10650,"aired":10651,"rell":10652,"Ġ>>":10653,"Ġfaculty":10654,"Ġcards":10655,"ĠLewis":10656,"cribed":10657,"Ġrh":10658,"semble":10659,"Join":10660,"Ġprepare":10661,"Fix":10662,"OB":10663,"Ġprefix":10664,"Ġconsc":10665,"ĠBerlin":10666,"ĠGrant":10667,"Ġdates":10668,"ĠForeign":10669,"ĠRaj":10670,"ritical":10671,"ĠBu":10672,"Ġsuperv":10673,"pres":10674,"Ġrepro":10675,"ĠDespite":10676,"Ġtwenty":10677,"eld":10678,"ĠMD":10679,"Ġgate":10680,"001":10681,"Ġhorse":10682,"ĠJenn":10683,"=-":10684,"Ġequations":10685,"Like":10686,"ĠUnit":10687,"Ġconstructor":10688,"multicol":10689,"ĠContent":10690,"Early":10691,"sky":10692,"prev":10693,"1920":10694,"Coll":10695,"approx":10696,"ĠStandard":10697,"Ġoutcome":10698,"essed":10699,"NG":10700,"Ġshell":10701,"Ġintroduce":10702,"ĠRome":10703,"ĠPut":10704,"Ġairport":10705,"ĠTok":10706,"ĠThose":10707,"ĠForest":10708,"ffff":10709,"Identifier":10710,"Attr":10711,"Prefix":10712,"Once":10713,"ometric":10714,"ï»":10715,"junit":10716,"ĠAlb":10717,"iest":10718,"Ġmit":10719,"Ġcompute":10720,"symbol":10721,"Ġbehaviour":10722,"Ant":10723,"REE":10724,":\\":10725,"ĠEdition":10726,"BAR":10727,"ĠHeart":10728,"Ġneither":10729,"ĠAnton":10730,"Ġanimation":10731,"anwhile":10732,"ĠRequest":10733,"onymous":10734,"Ġvoters":10735,"Children":10736,"agan":10737,"Ġcancel":10738,"yal":10739,"Ġfake":10740,"parameters":10741,"ĠAnalysis":10742,"Ġregime":10743,"Ġcontest":10744,"ĠDutch":10745,"dialog":10746,"ennessee":10747,"Ġparticipate":10748,"ceive":10749,"ĠGro":10750,")->":10751,"OF":10752,"ĠSD":10753,"Ġelig":10754,"done":10755,"ĠEntertainment":10756,"aze":10757,"ĠRegion":10758,"Ġbigger":10759,"Ġsitting":10760,"mal":10761,"ĠâĨ":10762,"Ġhits":10763,"ĠMarketing":10764,"eness":10765,"Ġdynamics":10766,"Review":10767,"Ġintegrated":10768,"ï»¿":10769,"BB":10770,"zero":10771,"Ġproposal":10772,"Cast":10773,"Ġpilot":10774,"Ġproxy":10775,"Ġbelieves":10776,"Ġgrown":10777,"Ġdesire":10778,"gi":10779,"Ġassumed":10780,"ĠPhiladelphia":10781,"stable":10782,"required":10783,"Ġaccused":10784,"multicolumn":10785,"Ġcomposed":10786,"ĠSant":10787,"Ġmo":10788,"cus":10789,"Ġ(@":10790,"Further":10791,"1964":10792,"Ġsav":10793,"builder":10794,"Ġexposed":10795,"closure":10796,"hire":10797,"Ġsilver":10798,"Ġcolle":10799,"Ġsurprise":10800,"unnel":10801,"neq":10802,"ĠArm":10803,"Ġdrivers":10804,"Ġdismiss":10805,"amaz":10806,"azy":10807,"Ġpolitician":10808,"ĠSuch":10809,"ĠNAME":10810,"Ġvice":10811,"Ġbands":10812,"ĠTreat":10813,"aneous":10814,"dependent":10815,"Ġapps":10816,"ternoon":10817,"ĠPalest":10818,"Ġretired":10819,"Ġlabels":10820,"Aug":10821,"Short":10822,"Ġturning":10823,"jango":10824,"inch":10825,"Ġexhibition":10826,"Conn":10827,"ĠBridge":10828,"Ġtransactions":10829,"unter":10830,"ulating":10831,"loop":10832,"enumerate":10833,"âĢĭ":10834,"ographer":10835,"Ġadvis":10836,"Ġfootballers":10837,"usters":10838,"Ġlists":10839,"Ġinterval":10840,"Repository":10841,"Ġspr":10842,"users":10843,"Ġloan":10844,"Ġcolour":10845,"ĠPrinc":10846,"ĠRefer":10847,"acher":10848,"idae":10849,"Ġdisappe":10850,"Ġsizeof":10851,"rf":10852,"VALUE":10853,"Ġlisting":10854,"filename":10855,"Ġfaces":10856,"Ġdiversity":10857,"Ġru":10858,"esis":10859,"parser":10860,"iously":10861,"Ġsuffered":10862,"Ġresulted":10863,"ĠHistoric":10864,"Sur":10865,"Ġprocedures":10866,"indu":10867,"ĠHave":10868,"Ġproviders":10869,"Sequence":10870,"hus":10871,"iate":10872,"ikipedia":10873,"ĠOregon":10874,"flex":10875,"sa":10876,"Ġcombat":10877,"1965":10878,"istence":10879,"Ġobjective":10880,"execute":10881,"Ġlift":10882,"Ġupcoming":10883,"ingham":10884,"ĠStore":10885,"ificial":10886,"ĠInteger":10887,"Ġbreath":10888,"Ġduty":10889,"Ġnecessarily":10890,"Ġscores":10891,"ĠSH":10892,"Ġcovering":10893,"ĠGolden":10894,"Ġsky":10895,"ĠApplication":10896,"Brit":10897,"Ġtempor":10898,"Ġintegration":10899,"making":10900,"ĠSmall":10901,"colLast":10902,"ookie":10903,"Ġtroops":10904,"Ġrooms":10905,"ĠKevin":10906,"Ġrepresentative":10907,"storage":10908,"complete":10909,"JS":10910,"Ġmine":10911,"Ġdiscrim":10912,"Ġgrade":10913,"headers":10914,"Character":10915,"ĠThanks":10916,"collapse":10917,"overty":10918,"Cloud":10919,"Ġsweet":10920,"theme":10921,"ĠCore":10922,"Ġclassification":10923,"ĠBC":10924,"Region":10925,"Single":10926,"Ġsomewhat":10927,"hl":10928,"details":10929,"Ġstood":10930,"Ġexecute":10931,"Ġexplanation":10932,"Ġscatter":10933,"Ġmeetings":10934,"Ġimprovement":10935,"ĠIV":10936,"oen":10937,"ships":10938,"Ġtranslate":10939,"ortion":10940,"Ġmeasurements":10941,"specific":10942,"Ġfrag":10943,"ĠTurkey":10944,"Simple":10945,"âĢ¦.":10946,"auge":10947,"Ġlandscape":10948,"ĠPS":10949,"Pod":10950,"Ġmanufacturing":10951,"appy":10952,"Agent":10953,"ĠMountain":10954,"Ġpresentation":10955,"ĠTher":10956,"ĠEconomic":10957,"Summary":10958,"allas":10959,"Ġassault":10960,"uv":10961,"ĠLie":10962,"Progress":10963,"ARD":10964,"Ġscr":10965,"ĠFROM":10966,"ĠCount":10967,"Resources":10968,"Ġscroll":10969,"ĠSav":10970,"aux":10971,"æľ":10972,"ĠRoss":10973,"TF":10974,"two":10975,"TIME":10976,"Ġchallenging":10977,"elle":10978,"ategor":10979,"Ġsees":10980,"ĠMoreover":10981,"ĠChampionships":10982,"Ġ\"<":10983,"protocol":10984,"eval":10985,"Ġaspect":10986,"Ġexcess":10987,"ellectual":10988,"ĠUI":10989,"thew":10990,"Trace":10991,"Ġcontribute":10992,"Ġofficially":10993,"etherlands":10994,"apos":10995,"Ġinteractions":10996,"&=":10997,"Ġhosted":10998,"ĠRoll":10999,"Ġswim":11000,"Ġinvent":11001,"Ġmagic":11002,"owntown":11003,"ĠWIT":11004,"ĠJordan":11005,"Ġpresents":11006,"ĠSky":11007,"International":11008,"chant":11009,"()</":11010,"Ġsought":11011,"Ġstrike":11012,"ĠChall":11013,"colFirst":11014,"Ġcomposition":11015,"ugar":11016,"Ġbehalf":11017,"Ġexplo":11018,"Ġdriven":11019,"Ġenforcement":11020,"Ġfees":11021,"plementation":11022,"1966":11023,"Ġda":11024,"ĠPartners":11025,"Ġattached":11026,"ĠScottish":11027,"ĠKansas":11028,"pub":11029,"Ġpapers":11030,"ĠKat":11031,"ĠCharl":11032,"ipher":11033,"Ġui":11034,"season":11035,"Ġtx":11036,"Ġrelax":11037,"ALSE":11038,"Ġsurgery":11039,"ĠNever":11040,"ĠCab":11041,"Ġreadonly":11042,"wrapper":11043,"ĠLes":11044,"Texture":11045,"Namespace":11046,"Ġmapping":11047,"Ġaccessible":11048,"nil":11049,"Star":11050,"ĠMoh":11051,"Ġcomprehensive":11052,"Ġ],":11053,"Ġpurchased":11054,"Ġlat":11055,"ĠNa":11056,"Ġsight":11057,"urers":11058,"PUT":11059,"Ð¼":11060,"Ġ..":11061,"Apr":11062,"CRE":11063,"Div":11064,"obby":11065,"ĠEver":11066,"Ġhandling":11067,"Ġguidance":11068,"Ġparticles":11069,"VM":11070,"maven":11071,"Ġhappening":11072,"Ġengaged":11073,"Ġlistener":11074,"Generator":11075,"will":11076,"ĠPrint":11077,"ajax":11078,"Ġsentence":11079,"\"/":11080,"icode":11081,"rible":11082,"Ġprovince":11083,"Scale":11084,"uris":11085,"Ġmail":11086,"achelor":11087,")|":11088,"ĠSquare":11089,"throw":11090,"Stand":11091,"Ġchoices":11092,"ĠGree":11093,"resources":11094,"Ġcontinuing":11095,"Ġalcohol":11096,"Ġconstraints":11097,"ĠMrs":11098,"]\\":11099,"ĠDiego":11100,"Ġcrash":11101,"ĠĠĠĠĠĠĠĠĠĠĠĠĠĠĠĠĠĠĠĠĠĠĠĠĠĠĠĠ":11102,"Ġpairs":11103,"Real":11104,"navList":11105,"Private":11106,"emony":11107,"uploads":11108,"ĠLind":11109,"Ġsettlement":11110,"Ġmetadata":11111,"igenous":11112,"Ġfranch":11113,"Ġha":11114,"URI":11115,"Ġevaluate":11116,"Ġwalls":11117,")+":11118,"Ġbomb":11119,"don":11120,"ospitals":11121,"theorem":11122,"Ġoptimal":11123,"urities":11124,"ounce":11125,"Ġsolve":11126,"ayed":11127,"rystal":11128,"ndef":11129,"Ġshel":11130,"?>":11131,"Ġmeta":11132,"ĠASSERT":11133,"bled":11134,"agent":11135,"}+\\":11136,"Ġrgba":11137,"sys":11138,"Ġiron":11139,"umps":11140,"ĠWord":11141,"ĠEP":11142,"since":11143,"riers":11144,"Ġrailway":11145,"thon":11146,"ifdef":11147,"Ã£o":11148,"Ġdiscovery":11149,"Sche":11150,"fd":11151,"Ġ?>":11152,"Ġenemy":11153,"Ġcompletion":11154,"ĠTE":11155,"Ġworker":11156,"gar":11157,"pping":11158,"BM":11159,"Ġpresidential":11160,"Ġcircle":11161,"Ġpodcast":11162,"Notes":11163,"Shape":11164,"ropy":11165,"Named":11166,"Ġ{{":11167,"Ġdire":11168,"ĠWas":11169,"plan":11170,"HTTP":11171,"ĠStudy":11172,"ĠSQL":11173,"Ġfraud":11174,".~":11175,"ĠFinally":11176,"ĠHouston":11177,"Research":11178,"Ġsteel":11179,"ea":11180,"owed":11181,"blem":11182,"Ġbroke":11183,"feature":11184,"definition":11185,"Ġprinciples":11186,"\"><!--":11187,"}\\,":11188,"Ġdisplayed":11189,"cases":11190,"Pattern":11191,"Ġ=======":11192,"Tx":11193,"Ġextreme":11194,"ĠArizona":11195,"iology":11196,"Ġbes":11197,"Ġconsumption":11198,"=\"${":11199,"Ġbear":11200,"Ġpert":11201,"login":11202,"Ġbreaking":11203,"Ġ\"-":11204,"Ġvoting":11205,"isations":11206,"Ġmedicine":11207,"Ġdetected":11208,"Ġsoci":11209,"ĠVeg":11210,"SCR":11211,"Ġtrace":11212,"glyph":11213,"Ġdisappoint":11214,"asty":11215,"PG":11216,"imated":11217,"Ġinnovative":11218,"Ġgro":11219,"Ġpermanent":11220,"bserv":11221,"ubble":11222,"hom":11223,"ĠBelg":11224,"owner":11225,"mac":11226,"video":11227,"rations":11228,"olly":11229,"Ġhell":11230,"Health":11231,"cha":11232,"<!":11233,"Uri":11234,"ĠConstitution":11235,"ummy":11236,"Ġemployed":11237,"Password":11238,"\"],":11239,"razy":11240,"boost":11241,"Ġwond":11242,"aza":11243,"SM":11244,"rele":11245,"RR":11246,"mont":11247,"Ġassistant":11248,"ĠWinter":11249,"Ġcausing":11250,"pur":11251,"mathscr":11252,"unique":11253,"Ġregistration":11254,"once":11255,"Ġwine":11256,"Ġcatalog":11257,"Ġlect":11258,"ĠFri":11259,"ĠStone":11260,"}}{\\":11261,"ĠRevolution":11262,"Ġdesired":11263,"Ġmm":11264,"ĠMiami":11265,"Ġexclusive":11266,"Ġimagine":11267,"Pi":11268,"Ġprinciple":11269,"Ġoutcomes":11270,"Ġboat":11271,"Ġ(+":11272,"ĠMoon":11273,"ĠTravel":11274,"ĠSimon":11275,"Ġprovision":11276,"Ġgiant":11277,"ĠTraining":11278,"ĠDoes":11279,"360":11280,"Ġwhereas":11281,"Ġidx":11282,"ĠAC":11283,"Ġwearing":11284,"Ġdocumentary":11285,"Ġencourage":11286,"agg":11287,"Ġprofessionals":11288,"Fore":11289,"Ġsuitable":11290,"Ġinformed":11291,"Ġmaintenance":11292,"ĠCorn":11293,"Ïĥ":11294,"Ġconversion":11295,"itemize":11296,"ĠWH":11297,"ĠPremier":11298,"STATE":11299,"orient":11300,"Ġscenario":11301,"Ġconsent":11302,"detail":11303,"ĠLimited":11304,"acent":11305,"ordon":11306,"Struct":11307,"extern":11308,"inking":11309,"fixed":11310,"-$":11311,"Install":11312,"Ġtheore":11313,"Ġinhib":11314,"ĠStream":11315,"Ġentitled":11316,"Ġrows":11317,"ryption":11318,"Ġhate":11319,"ĠSix":11320,"INTER":11321,"Role":11322,"olving":11323,"Import":11324,"Ġbon":11325,"âĤ¬":11326,"Framework":11327,"ouri":11328,"Ġpharm":11329,"otten":11330,"Ġlogger":11331,"Ġundert":11332,"Headers":11333,"Ġstruggle":11334,"temp":11335,"ĠBush":11336,"ĠHung":11337,"Stop":11338,"eping":11339,"groups":11340,"West":11341,"party":11342,"Äĩ":11343,"Ġtemporary":11344,"Ġpreced":11345,"ogram":11346,"ĠPoland":11347,"intend":11348,"Ġ\\|":11349,"Ġsin":11350,"âĨ":11351,"ĠManchester":11352,"ĠLat":11353,"spir":11354,":#":11355,"cussion":11356,"Ġapparently":11357,"ocks":11358,"Ġfaced":11359,"GR":11360,"ĪĴ":11361,"Ġpaths":11362,"ĠSi":11363,"allclasses":11364,"Stats":11365,"ĠHTTP":11366,"Ġattorney":11367,"audi":11368,"ĠANY":11369,"ĠProm":11370,"Ġterritory":11371,"Ġchampion":11372,"Ġalive":11373,"×ķ":11374,"elect":11375,"Ġlang":11376,"ĠAtlantic":11377,"Ġ^":11378,"Ġrational":11379,"Ġcourses":11380,"ĠTalk":11381,"ixels":11382,"ĠQueens":11383,"Ġterminal":11384,"ĠAh":11385,"LOCK":11386,"Ġregularly":11387,"large":11388,"ĠMemorial":11389,"Ġsubmitted":11390,"Ġrear":11391,"Ġradius":11392,"Ġctx":11393,"erd":11394,"Ġcommunications":11395,"Ġlayers":11396,"olid":11397,"Ġourselves":11398,"xs":11399,"errors":11400,"ĠFC":11401,"Ġprominent":11402,"flag":11403,"Ġwed":11404,"ĠOlympic":11405,"Good":11406,"ĠBh":11407,"Ġtotally":11408,"Ġ).":11409,"Using":11410,"apture":11411,"Ġsustainable":11412,"optional":11413,"ĠRow":11414,"Ġtrials":11415,"Ġgained":11416,"Ġdefeated":11417,"ĠLoc":11418,"Ġoffices":11419,"ĠCancer":11420,"EV":11421,"DEBUG":11422,"ĠLearning":11423,"pletion":11424,"ĠPresent":11425,"UC":11426,"ando":11427,"ĠSafety":11428,"ariant":11429,"equality":11430,"$/":11431,"ĠFront":11432,"ĠInf":11433,"Ġast":11434,"shared":11435,"}},":11436,"some":11437,"Family":11438,"ishment":11439,"earing":11440,"ĠPrivate":11441,"Ġrein":11442,"ĠSa":11443,"Ġunderstood":11444,"Ġbeer":11445,"('.":11446,"Ġcrucial":11447,"Ġfoundation":11448,"Ġforeach":11449,"Ġvictim":11450,"ĠDefense":11451,"ĠEffect":11452,"mad":11453,"Ġdating":11454,"itative":11455,"CDATA":11456,"{$":11457,"enabled":11458,"GC":11459,"ĠProvince":11460,"ĠIndiana":11461,"Ġurg":11462,"Ġconstitution":11463,"FLA":11464,"ĠSilver":11465,"}-\\":11466,"ĠAllen":11467,"ibli":11468,"Ġmouse":11469,"Ġyellow":11470,"ĠLOG":11471,"ĠAdvent":11472,"Ġheads":11473,"Ġstages":11474,"Ġedges":11475,".\",":11476,"Even":11477,"tic":11478,"Ġhole":11479,"iÃ³n":11480,"ĠAfghan":11481,"opes":11482,"ENSE":11483,"('/":11484,"Ġcolors":11485,"ĠSarah":11486,"Ġtemp":11487,"Ġsick":11488,"ulous":11489,"ANCE":11490,"clean":11491,"Program":11492,"Ġbaseball":11493,"ĠTennessee":11494,"quarters":11495,"Ġstrategic":11496,"cerning":11497,"ĠKorean":11498,"Ġemp":11499,"Ġwheel":11500,"Ġentreprene":11501,"ĠPrize":11502,"OC":11503,"Ġproducing":11504,"eties":11505,"flix":11506,"Ġbott":11507,"aaaa":11508,"Ġ'<":11509,"Multi":11510,"Ġstake":11511,"Ġbinding":11512,"Ġgovernments":11513,"Ġinvestigate":11514,"Ġplate":11515,"Ġstyles":11516,"ĠAmb":11517,"Ġbare":11518,"Ġdual":11519,"ĠUl":11520,"Ġanticip":11521,"Ġexplos":11522,"tbody":11523,"unning":11524,"'));":11525,"Cr":11526,"bec":11527,"ĠYet":11528,"Ġ[],":11529,"Selection":11530,"AE":11531,"ĠJews":11532,"ĠPit":11533,"Ġdecor":11534,"Download":11535,"Ġcoffee":11536,"Ġtransferred":11537,"moz":11538,"Ġbrands":11539,"Ġevil":11540,"ĠAnderson":11541,"TRY":11542,"Ġdepos":11543,"rying":11544,"ĠOcean":11545,"ichol":11546,"Ġsurprising":11547,"Clear":11548,"Ġmeasurement":11549,"Austral":11550,"ĠBurn":11551,"Ġversus":11552,"ulator":11553,"ĠEV":11554,"actic":11555,"porter":11556,"ĠResponse":11557,"EEEE":11558,"agu":11559,")}{":11560,"Ġguests":11561,"ĠSelect":11562,"operatorname":11563,"onomy":11564,"Ġlaugh":11565,"eren":11566,"Hz":11567,"Ġspecify":11568,"ELD":11569,"Ġconverted":11570,"ĠPatrick":11571,"ĠHttp":11572,"Ġdebug":11573,"checkbox":11574,"ĠClinton":11575,"ĠTai":11576,"ĠArticle":11577,"Ġnarrative":11578,"Ïģ":11579,"vspace":11580,"ĠCambridge":11581,"Ġmusicians":11582,"Ġhasn":11583,"Ġacknowled":11584,"ĠJane":11585,"ktop":11586,"Ġrefuge":11587,"jan":11588,"irty":11589,"Ġfraction":11590,"Ġguidelines":11591,"Ġparticle":11592,"Ġconsequences":11593,"pair":11594,"ĠStill":11595,"Ġvalign":11596,"arrant":11597,"Ġopposed":11598,"Ġanalyz":11599,"blank":11600,"Ġvertex":11601,"through":11602,"Ġcensus":11603,"contrib":11604,"fx":11605,"ĠPersonal":11606,"LY":11607,"makers":11608,"Ġmyth":11609,"acking":11610,"Ġsph":11611,"ĠMaybe":11612,"Ġabsence":11613,"ĠTrade":11614,"Ġcompetitive":11615,"perial":11616,"Ġconcentration":11617,"ulum":11618,"ĠNaz":11619,"condition":11620,"ĠProp":11621,"ÙĦ":11622,"asp":11623,"Ġtrading":11624,"opic":11625,"such":11626,"igious":11627,"Save":11628,"ĠPod":11629,"Ġconj":11630,"Mac":11631,"rift":11632,"Ġimpressive":11633,"gover":11634,"username":11635,"ĠComments":11636,"Ġdemonstrated":11637,"Ġacceler":11638,"accept":11639,"Ġpulled":11640,"Ġease":11641,"Ġraces":11642,"ĠDer":11643,"ĠTen":11644,"Ġafternoon":11645,"$}":11646,"Ġbits":11647,"week":11648,"ĠSport":11649,"ĠLLC":11650,"Ġtrouble":11651,"ä»":11652,".<":11653,"Her":11654,"IDTH":11655,"åĪ":11656,"swarm":11657,"Music":11658,"argo":11659,"Environment":11660,"enable":11661,"Ġvit":11662,"Ġestablishments":11663,"Ġbin":11664,"changed":11665,"Ġawareness":11666,"Ġflying":11667,"Cent":11668,"Euro":11669,"Volume":11670,"onna":11671,"ymmet":11672,"Ġsizes":11673,"Ġpup":11674,"rock":11675,"ĠDog":11676,"Ġliquid":11677,"Ġsurve":11678,"novation":11679,"Ġlawyer":11680,"Ġqualified":11681,"ĠHart":11682,"Ġsubmit":11683,"odge":11684,"ĠLeon":11685,"ĠStadium":11686,"ĠĠĠĠĠĠĠĠĠĠĠĠĠĠĠĠĊ":11687,"Ġnurs":11688,"Delegate":11689,"Player":11690,"Ġbattery":11691,"ĠSets":11692,"ĠIslamic":11693,"Ġroof":11694,"Bi":11695,"ĠVirtual":11696,"Ġsevent":11697,"ANG":11698,"North":11699,"Ġjoining":11700,"indexOf":11701,"eras":11702,"Mask":11703,"Methods":11704,"Ġlogic":11705,"Ġkil":11706,"Ġparser":11707,"ĠâĢĻ":11708,"ĠImp":11709,"ĠJay":11710,"cdn":11711,"Ġmg":11712,"Ġcm":11713,"Ġinvited":11714,"ĠWebsite":11715,"1963":11716,"Len":11717,"Ġunus":11718,"coln":11719,"Bound":11720,"Ġpicked":11721,"rupted":11722,"AY":11723,"andal":11724,"iors":11725,"izon":11726,"Ġchose":11727,"aware":11728,"Ġcmd":11729,"Ø±":11730,"href":11731,"QUE":11732,"napshot":11733,"Ġreward":11734,"Paul":11735,"ÂĢ":11736,"ORY":11737,"Ġemissions":11738,"ĠArgent":11739,"Ġconclusion":11740,"Ġlimitations":11741,"ĠHoly":11742,"Ġsculpt":11743,"ĠGh":11744,"cludes":11745,"ĠNetherlands":11746,"Ġnullptr":11747,"ctic":11748,"Ġsimulation":11749,"Ġhide":11750,"Ġ-\\":11751,"ulse":11752,"Ġpointed":11753,"proxy":11754,"Ġtom":11755,"Ġvaluable":11756,"Ġdeals":11757,"nie":11758,"Ġrising":11759,"Ġownership":11760,"roit":11761,"pages":11762,"ĠIndustry":11763,"Ġpaying":11764,"TRUE":11765,"Returns":11766,"iteral":11767,"ĠRoy":11768,"×Ļ":11769,"ĠPu":11770,"pull":11771,"Ġseriously":11772,"Ġmanifest":11773,"fold":11774,"rieved":11775,"rence":11776,"ĠFinance":11777,"compiler":11778,"Ġadministrative":11779,"anga":11780,"Ġdiscipl":11781,"ĠAnthony":11782,"ĠReviews":11783,"Ġspatial":11784,"ĠCaptain":11785,"emet":11786,"Ġwinners":11787,"wildfly":11788,"warning":11789,"sters":11790,"Sch":11791,"Ġdiseases":11792,"Landroid":11793,"(@":11794,"Ġinterior":11795,"Ġcontributed":11796,"Ġsoil":11797,"Ġengage":11798,"oven":11799,"Generated":11800,"Ġweekly":11801,"ÂĢÂ":11802,"Card":11803,"ĠDun":11804,"Ġexecuted":11805,"Ġvon":11806,"ĠCELL":11807,"checked":11808,"Ġaims":11809,"Ġtensor":11810,"ĠKelly":11811,"ĠPos":11812,"Ġrefers":11813,"Ġaffili":11814,"ĠClark":11815,"ĠDid":11816,"Labels":11817,"Ġheavily":11818,"tk":11819,"ĠNigeria":11820,"Sep":11821,"ĠWhether":11822,"dam":11823,"ynomial":11824,"ĠMilitary":11825,"amazon":11826,"{{\\":11827,"Ġanywhere":11828,"minus":11829,"uating":11830,"Ġdefeat":11831,"Ġgraduate":11832,"IAL":11833,"Ġupload":11834,";}":11835,"ĠProtection":11836,"Sem":11837,"Ġgarden":11838,"notes":11839,"Ġtall":11840,"wich":11841,"ĠLater":11842,"Ġmanip":11843,"adi":11844,"Ġbuf":11845,"Ms":11846,"PY":11847,"('#":11848,"Ġheaders":11849,"Ġsingles":11850,"lah":11851,"Ġcircuit":11852,"FP":11853,"Ġtheatre":11854,"fi":11855,"zo":11856,"Syntax":11857,"ilst":11858,"feed":11859,"ĠJosh":11860,"Ġparking":11861,"ĠMembers":11862,"ÐµÐ½":11863,"Mill":11864,"tc":11865,"Should":11866,"Ġrating":11867,"olitan":11868,"assembly":11869,"Ġreverse":11870,"Ġalgebra":11871,"Ġreset":11872,"Dim":11873,"Fi":11874,"127":11875,"opts":11876,"Mc":11877,"Ġpasses":11878,"ĠGard":11879,"ĠIL":11880,"Ġinteract":11881,"Ġpartition":11882,"testing":11883,"Ġ''":11884,"orted":11885,"illiant":11886,"Ġillness":11887,"iche":11888,"Ġprohib":11889,"Notification":11890,"Ġpayments":11891,"Fn":11892,"acon":11893,"Ġsubsequently":11894,"Wait":11895,"Ġaggress":11896,"ĉĠĠĠĠĠ":11897,"Ġuniverse":11898,"sea":11899,"UND":11900,"ĠBry":11901,"ighth":11902,"olt":11903,"noindent":11904,"ATED":11905,"Ġwindows":11906,"Ġfault":11907,"ĠScholar":11908,"plant":11909,"Sam":11910,"DateTime":11911,"ĠPhilippines":11912,"ĠGil":11913,"Ġstrengthen":11914,"Ġemission":11915,"ologists":11916,"ĠNative":11917,"Domain":11918,"Ġveget":11919,"ĠValid":11920,"multi":11921,"Flag":11922,"Ġdipl":11923,"eland":11924,"Ġbatch":11925,"TT":11926,"Ġdimensions":11927,"({\\":11928,"Ġinjuries":11929,"Ġvoted":11930,"Begin":11931,"Ġreleases":11932,"agic":11933,"Ġwing":11934,"ders":11935,"Connect":11936,"Ġhardware":11937,"rons":11938,"ĠSchools":11939,"Ġenum":11940,"ĠBarn":11941,"Ġmembership":11942,"xhtml":11943,"icking":11944,"Ġengagement":11945,"Ġble":11946,"Ġprofit":11947,"'$":11948,"Ġslowly":11949,"Ġstead":11950,"Ġsituations":11951,"Ġdevelopers":11952,"async":11953,"peat":11954,"Ġfails":11955,"Ġplugin":11956,"ometimes":11957,"Ġeastern":11958,"abama":11959,"Ġyesterday":11960,"Ġrestaurants":11961,"ĠFarm":11962,"vo":11963,"Ġsignals":11964,"\\'":11965,"Ġlawsu":11966,"ĠLabour":11967,"Ġlaid":11968,"ĠMaria":11969,"ĠBY":11970,"Ġrobust":11971,"Bind":11972,"Cert":11973,"yrics":11974,"uther":11975,"MIN":11976,"enna":11977,"ĠTurk":11978,"prod":11979,"phot":11980,"ĠMoore":11981,"days":11982,"bus":11983,"texttt":11984,"Ġminimal":11985,"Ġdrawing":11986,"apsed":11987,"download":11988,"yg":11989,"iffs":11990,"Ġinitiative":11991,"invalid":11992,"Ġaged":11993,"trm":11994,"Dictionary":11995,"eros":11996,"Pair":11997,"bg":11998,"1962":11999,"Ġhorror":12000,"Ġdiagram":12001,"Life":12002,"tar":12003,"ĠTag":12004,"rypto":12005,"ĠRegional":12006,"Ġimmigr":12007,"Sql":12008,"Ġderiv":12009,"sample":12010,"Ġmaintained":12011,"ĠFurthermore":12012,"Ġbold":12013,"Ġamounts":12014,"enders":12015,"ĠHal":12016,"ĠPur":12017,"Language":12018,"Ġalgorithms":12019,"ĠWrite":12020,"THE":12021,"ĠSurvey":12022,"ĠScient":12023,"ĠEss":12024,"ĠNorm":12025,"ĠDuke":12026,"ista":12027,"ropical":12028,"Ġcoq":12029,"Transport":12030,"Ġdies":12031,"ĠDor":12032,"Based":12033,"ĠÐ¿":12034,"Ġclosing":12035,"ĠResults":12036,"ĠSex":12037,"ĠNob":12038,"aligned":12039,"aturally":12040,"covery":12041,"Ġrealize":12042,"Ġnp":12043,"Ġinjured":12044,"Ġgay":12045,"Ġobviously":12046,"trace":12047,"Ġfruit":12048,"Ġpainting":12049,"Ġstability":12050,"Ġputs":12051,"Ġwatched":12052,"Ġsnap":12053,"clusions":12054,"102":12055,"plays":12056,"Ġouter":12057,"fail":12058,"POST":12059,"Ġreplacement":12060,"EEEEFF":12061,"ivial":12062,"rett":12063,"who":12064,"Ġprops":12065,"BY":12066,"ĠHan":12067,"Ġmanagers":12068,"Visible":12069,"ĠRelations":12070,"eron":12071,"ĠCastle":12072,"ĠDave":12073,"plot":12074,"ĠStatus":12075,"Ġtox":12076,"1944":12077,"chestra":12078,"Ġessentially":12079,"January":12080,"()))":12081,"ĠCa":12082,"urches":12083,"ocaml":12084,"ĠVietnam":12085,"Today":12086,"OST":12087,"Ġjournalist":12088,"ĠArrayList":12089,"Ġoutbreak":12090,"offs":12091,"Information":12092,"105":12093,"BD":12094,"ĠExpress":12095,"Ġcarrying":12096,"Skip":12097,"ĠRepublicans":12098,"Ġparticipation":12099,"NET":12100,"Ġthrown":12101,"ĠAttorney":12102,"ducer":12103,"ĠBab":12104,"textrm":12105,"Ġatmosphere":12106,"Ġaccordance":12107,"Ġanswers":12108,"Ġpit":12109,"ogene":12110,"Ġgeneric":12111,"Ġsed":12112,"construct":12113,"ĠContact":12114,"ĠPrice":12115,"Ġtries":12116,"Ġlegacy":12117,"ĠClear":12118,"ĠMonth":12119,"{%":12120,"Ġspokes":12121,"Ġsimult":12122,"Ġnations":12123,"Ġrespective":12124,"angel":12125,"}}_":12126,"also":12127,"Published":12128,"Ġbusy":12129,"ilty":12130,"ympt":12131,"ĠAuto":12132,"Ġlosses":12133,"Ġadmitted":12134,"itarian":12135,"tests":12136,"Ġfalls":12137,"Ġsuffering":12138,"ĠME":12139,"ĠRound":12140,"springframework":12141,"ĠJason":12142,"1961":12143,"ĠMovie":12144,"IES":12145,"Ġvisiting":12146,"oment":12147,"Ġbias":12148,"Ġpolar":12149,"Ġrefused":12150,"Ġschema":12151,"erk":12152,"ĠRailway":12153,"Ġkinds":12154,"timeout":12155,"incess":12156,"ĠIndones":12157,"ĠSP":12158,"Ġmomentum":12159,"CALL":12160,"zech":12161,"Ġbath":12162,"bold":12163,"Ġinaug":12164,"witzer":12165,"urable":12166,"Ġcomputed":12167,"Ġwaters":12168,"onal":12169,"Ġdemonstrate":12170,"ĠassertThat":12171,"ĠPack":12172,"usal":12173,"Ġvital":12174,"Ġignored":12175,"ĠYears":12176,"Ġkeeps":12177,"urric":12178,"Ġelectricity":12179,"ĠIowa":12180,"ĠCredit":12181,"supported":12182,"ĠTree":12183,"nn":12184,"MR":12185,"Fragment":12186,"Ġcapabilities":12187,"Ġracing":12188,"ĠFollowing":12189,"ĠAdvis":12190,"Ġmodes":12191,"good":12192,"ifndef":12193,"Ġ];":12194,"ashes":12195,"Ġreaching":12196,"AK":12197,"Ġpeer":12198,"ĠEarly":12199,"aneously":12200,"Ġeq":12201,"ycle":12202,"ĠSri":12203,"Ġbeach":12204,"Ġoblig":12205,"Ġrapidly":12206,"flat":12207,"Ġsynchron":12208,"alytics":12209,"Py":12210,"Ġconcrete":12211,"Ġtransportation":12212,"imm":12213,"ctrine":12214,"ĠSin":12215,"signature":12216,"rig":12217,"elson":12218,"iva":12219,";\">":12220,"ATCH":12221,"activity":12222,"ĠAmong":12223,"ĠOtt":12224,"Did":12225,"ĠPier":12226,")}$":12227,"\\}$":12228,"Ġbind":12229,"pattern":12230,"Ġtickets":12231,"Ġopens":12232,"Ġantib":12233,"Ġroyal":12234,"zh":12235,"lu":12236,"Ġcharset":12237,"Lib":12238,"Ġreducing":12239,"Ġaccum":12240,"ĠCorps":12241,"ĠThird":12242,"ifferent":12243,"hour":12244,"Ġmarg":12245,"ĠTel":12246,"Ġflux":12247,"CTYPE":12248,"Ġarbitrary":12249,"Ġglob":12250,"ĠHop":12251,"Ġhopes":12252,"tf":12253,"Ġreply":12254,"ste":12255,"Ġreveal":12256,"emetery":12257,"elihood":12258,"Ġregardless":12259,"Ġtimeout":12260,"March":12261,"ĠEND":12262,"ĠClient":12263,"Interval":12264,"Äį":12265,"Ġsurvival":12266,"visible":12267,"Ġmanaging":12268,"Area":12269,"nodes":12270,"ulp":12271,"Ġdose":12272,"Ġmd":12273,"ĠInput":12274,"ĠMust":12275,"ibl":12276,"ĠSever":12277,"Ġdust":12278,"getElement":12279,"Ġpopulations":12280,"Ġdealing":12281,"Ġauthent":12282,"helper":12283,"amps":12284,"usform":12285,"uscript":12286,"Rob":12287,"numerusform":12288,"ĠSIZE":12289,"Ġwound":12290,"ĠKit":12291,"112":12292,"ĠAG":12293,"maker":12294,"ĠExp":12295,"ĠEvents":12296,"Ġmoral":12297,"ĠImages":12298,"dig":12299,"Ġstrange":12300,"Ġvalidation":12301,"uba":12302,"posing":12303,"ĠMit":12304,"ĠOak":12305,"Ġpipeline":12306,"****************************************************************":12307,"Ġsensitive":12308,"zip":12309,"plier":12310,"otte":12311,"ĠHence":12312,"library":12313,"Cluster":12314,"RED":12315,"Ġreveals":12316,"Ign":12317,"Ġknowing":12318,"ante":12319,"NavBarFont":12320,"witzerland":12321,"wick":12322,"Ġfunny":12323,"Ġrealized":12324,"Ġlockdown":12325,"Ġcorrelation":12326,"available":12327,"ĠGab":12328,"ĠCG":12329,"sidebar":12330,"ĠDrive":12331,"Ġtyped":12332,"ĠCert":12333,"Ġfinance":12334,"uted":12335,"Ġrequirement":12336,"Michael":12337,"REG":12338,"ĠArchitect":12339,"Release":12340,"Ġcomic":12341,"Ġincredible":12342,"Ã©s":12343,"brand":12344,"ĠThings":12345,"AI":12346,"900":12347,"Ġgovernor":12348,"Ġchecked":12349,"ĠPed":12350,"\"\"\"":12351,"iverpool":12352,"Hub":12353,"Ġinstructions":12354,"Ġfairly":12355,"Ġbid":12356,"Ġemphas":12357,"Feb":12358,"Ġchildhood":12359,"vironments":12360,"Ġcourts":12361,"Ġfired":12362,"formed":12363,"Master":12364,"Ġinvolves":12365,"ĠLas":12366,"Ġapplies":12367,"NV":12368,"rama":12369,"ĠYouth":12370,"single":12371,"bc":12372,"æĸ":12373,"anka":12374,"stage":12375,"000000":12376,"ige":12377,"Ġroads":12378,"Ġintern":12379,"Åį":12380,"Ġtables":12381,"socket":12382,"Ġflash":12383,"EventListener":12384,"Ġticket":12385,"verter":12386,"ucks":12387,"ĠUkraine":12388,"Ġpiano":12389,"Ġgenetic":12390,"pare":12391,"...</":12392,"Ġdecline":12393,"Ġskip":12394,"sn":12395,"DEFAULT":12396,"ĠCapitol":12397,"transition":12398,"Ġmedian":12399,"Ġphilosophy":12400,"ĠPDF":12401,"aco":12402,"Ã¡n":12403,"Ġobservation":12404,"Ġsynd":12405,"_);":12406,"Ġsupporters":12407,"Plan":12408,"Ġplastic":12409,"Own":12410,"Ġfriendly":12411,"bas":12412,"Ġpassengers":12413,"ĠVi":12414,"Ġbrothers":12415,"Ġanalys":12416,";)":12417,"ĠDick":12418,"Ġlux":12419,"orses":12420,"Ġopts":12421,"dc":12422,"ĠDise":12423,"Ġroots":12424,"Ġfirms":12425,"Ġknock":12426,"burn":12427,"ĠNev":12428,"ĠSales":12429,"Ġcomfortable":12430,"hot":12431,"Ġskill":12432,"Focus":12433,"loyd":12434,"350":12435,"shal":12436,"ĠServer":12437,"ĠEnvironmental":12438,"Ġspiritual":12439,"ĠPeace":12440,"Ġenthus":12441,"Remote":12442,"kt":12443,"Have":12444,"SELECT":12445,"limits":12446,"140":12447,"imp":12448,"Ġrecognize":12449,"println":12450,"ntil":12451,"iture":12452,"ASE":12453,"Ġthin":12454,"å®":12455,"Ġconsideration":12456,"rooms":12457,"ĠFive":12458,"Ġliked":12459,"isset":12460,"olves":12461,"ĠJoh":12462,"ceptor":12463,"Ġinject":12464,"anches":12465,"Ġcaptain":12466,">:":12467,"Ġfalling":12468,"Lear":12469,"Native":12470,"VALID":12471,"Ġcounsel":12472,"Ġdesigns":12473,"Ġassumption":12474,"ĠKhan":12475,"likely":12476,"arest":12477,"Alloc":12478,"ĠâĨĴ":12479,"RPC":12480,"Ġfluid":12481,"ĠMaryland":12482,"ĠStudents":12483,"DOM":12484,"Ġvocal":12485,"basic":12486,"onical":12487,"Ġdelight":12488,"uer":12489,"Ġinh":12490,"ysical":12491,"uties":12492,"Ġlocally":12493,"Ġsessions":12494,"Ġcenters":12495,"Ġtrends":12496,"release":12497,"ĠRelease":12498,"vals":12499,"ĠSeattle":12500,"Ġshopping":12501,"Admin":12502,"DOCTYPE":12503,"Ġimproving":12504,"assandra":12505,"undefined":12506,"SI":12507,"Animation":12508,"Power":12509,"Ġrum":12510,"ĠLoad":12511,"Ġlowest":12512,"Endpoint":12513,"Ġpreferred":12514,"Ġscan":12515,"Ġconcerning":12516,"ĠLegal":12517,"oa":12518,"Ġox":12519,"Ġ(âĢľ":12520,"Execution":12521,"Ġabund":12522,"Ali":12523,"Ġstronger":12524,"Example":12525,"Ġrejected":12526,"Ġcheap":12527,"Ids":12528,"Ġmathemat":12529,"Sample":12530,"Ġoccas":12531,"Ġgrass":12532,"Mouse":12533,"à¤¾":12534,"oting":12535,"Ġfragment":12536,"console":12537,"']['":12538,"Ġmarks":12539,"arse":12540,"Ġbuying":12541,"typen":12542,"ĠPerson":12543,"outheast":12544,"Ġexpectations":12545,"dark":12546,"xis":12547,"ĠPlus":12548,"Ġtoler":12549,"inded":12550,"Ġembr":12551,"Ġchunk":12552,"Ġradiation":12553,"Ġracial":12554,"lett":12555,"Ġbat":12556,"Vertex":12557,"Nullable":12558,"Enumer":12559,"reements":12560,"Pers":12561,"Follow":12562,"atri":12563,"ĠRO":12564,"ORK":12565,"circle":12566,"Ġfarmers":12567,"Ġstreaming":12568,"Ġstats":12569,"utter":12570,"ĠMs":12571,"rent":12572,"eveloper":12573,"ĠXML":12574,"Ġpref":12575,"Ġmorph":12576,"Ġ'\\":12577,"Ġfurn":12578,"Ġinequality":12579,"Ġcelebrate":12580,"Ġbirds":12581,"Ġoptical":12582,"Ġseparated":12583,"(\"/":12584,"Move":12585,"vy":12586,"Rich":12587,"Effect":12588,"Ġdoors":12589,"elfare":12590,"ruby":12591,"ĠFa":12592,"Append":12593,"âĦ":12594,"factory":12595,"Ġpoverty":12596,"ikes":12597,"paren":12598,"220":12599,"ĠTog":12600,"Proto":12601,"(.":12602,"Ġhat":12603,"Dan":12604,"was":12605,"Ġaver":12606,"ÑģÑĤ":12607,"subseteq":12608,"ĠDest":12609,"Ġtheorem":12610,"%\"":12611,"Math":12612,"ĠMicro":12613,"ĠHold":12614,"oly":12615,"ĠHope":12616,"ĠMun":12617,"Ġtags":12618,"Ġperiods":12619,"ĠVector":12620,"selector":12621,"1958":12622,"Sports":12623,"Ġasset":12624,"Ġbounds":12625,"LED":12626,"Ġocean":12627,"diff":12628,"Ġgam":12629,"ĠStudent":12630,"Ġfrust":12631,"ĠExchange":12632,"ruction":12633,"InputStream":12634,"Ġeigen":12635,"mouse":12636,"ACH":12637,"iop":12638,"outube":12639,"Ġsurvive":12640,"Ġnovels":12641,"quote":12642,"Ġentering":12643,"Ġhypothes":12644,"SSL":12645,"Ġasks":12646,"Ġadventure":12647,"Ġcomplexity":12648,"Ġsle":12649,"ewidth":12650,"Ġgenre":12651,"ĠNic":12652,"ï¼Į":12653,"Ġlands":12654,"ĠIsraeli":12655,"atherine":12656,"Ġuncertainty":12657,"Ġthousand":12658,"route":12659,"Ġinputs":12660,"typename":12661,"ÅĤ":12662,"uency":12663,"achel":12664,"ĠNature":12665,"ÛĮ":12666,"Screen":12667,"Ġwebsites":12668,"being":12669,"inos":12670,"Ġscoring":12671,"Ġoutstanding":12672,"1942":12673,"atomic":12674,"Ġnormally":12675,"ifting":12676,"oker":12677,"ĠGib":12678,"ĠDVD":12679,")[":12680,"Ġpub":12681,"Ġproven":12682,"ĠJob":12683,"ĠAgreement":12684,"Old":12685,"Ġsurprised":12686,"inth":12687,",âĢĻ":12688,"Ep":12689,"ĠCooper":12690,"Ġlikes":12691,"Ġ\"$":12692,"Ġroutes":12693,"python":12694,"olute":12695,"zy":12696,"apis":12697,"clipse":12698,"ĠChap":12699,"ulus":12700,"DATA":12701,"Ġreputation":12702,"ti":12703,"MODULE":12704,"iated":12705,"Ġfolk":12706,"olph":12707,"ĠMorgan":12708,"Phil":12709,"<\\":12710,"Ġtmp":12711,"Ġtemperatures":12712,"Ġca":12713,"ĠEc":12714,"Ġeligible":12715,"ĠSweden":12716,"ĠDoctor":12717,"tesy":12718,"ĠGarden":12719,"Ġancest":12720,"________":12721,"cluster":12722,"Ġintention":12723,"Ġtou":12724,"Ġfemin":12725,"1959":12726,"Ġceremony":12727,"Ġ_.":12728,"stan":12729,"_*":12730,"Ġedit":12731,"ouses":12732,"Donald":12733,"chell":12734,"wen":12735,"ĠSimilar":12736,"ĠHelp":12737,"Ġbag":12738,"Ġflights":12739,"Ġmodify":12740,"Ġfranchise":12741,"Ġvalidate":12742,"Ġanniversary":12743,"|^":12744,"ĠAustin":12745,"ĠMarine":12746,"Ġinterpretation":12747,"Ġmining":12748,"Ġjoy":12749,"Serv":12750,"ĠMayor":12751,"Bean":12752,"Ã©e":12753,"Required":12754,"ĠiPhone":12755,"ĠHawai":12756,"ĠVillage":12757,"/.":12758,"NY":12759,"ĠGrow":12760,"Ġdeeply":12761,"works":12762,"ĠNatural":12763,"rg":12764,"III":12765,"ĠLE":12766,"glas":12767,"Ġranked":12768,"Ġrecommendations":12769,"ĠMobile":12770,"inction":12771,"ĠOpt":12772,"ĠFellow":12773,"Ġreson":12774,"Ġtaxes":12775,"~$":12776,"Ġintegral":12777,"jet":12778,"ĠMaterial":12779,"icken":12780,"omas":12781,"~~~~~~~~":12782,"Ġ\\\"":12783,"ĠPlanning":12784,"ĠDelhi":12785,"iah":12786,"Bel":12787,"getValue":12788,"StyleID":12789,"ĠBoolean":12790,"extension":12791,"April":12792,"Ġinterviews":12793,"Ġrose":12794,"rev":12795,"etween":12796,"ocy":12797,"runtime":12798,"ĠMalays":12799,"Ġdependent":12800,"Ġeg":12801,"oda":12802,"Ġpoetry":12803,"111":12804,"Ġmachines":12805,"Serializer":12806,"picture":12807,"Arr":12808,"bd":12809,"ĠNAV":12810,"Ġroughly":12811,":`":12812,"antry":12813,"Ġattempted":12814,"Ġmeets":12815,"created":12816,"ĠGreece":12817,"Ġblow":12818,"ĠArthur":12819,"MODE":12820,"Ġappearances":12821,"Ġindicating":12822,"Ġfold":12823,"ĠMissouri":12824,"1956":12825,"igs":12826,"Ġoverl":12827,"Ġhosts":12828,"Unknown":12829,"Cur":12830,"hesis":12831,"Ġtiny":12832,"ĠWhit":12833,"ĠAgric":12834,"Ġcutting":12835,"]]></":12836,"William":12837,"Lower":12838,"GBT":12839,"aura":12840,"tery":12841,"Original":12842,"ĠMI":12843,"Ġannouncement":12844,"Ġapplying":12845,"Ġexpertise":12846,"exec":12847,"Ġcorrectly":12848,"Ġshr":12849,"oscow":12850,"Ġobserve":12851,"lahoma":12852,"whel":12853,"Ġpushed":12854,"Ġreliable":12855,"oust":12856,"ĠFL":12857,"Ġpredicted":12858,"Est":12859,"'];":12860,"Ġselector":12861,"Ġacquisition":12862,"inar":12863,"fc":12864,"ĠMas":12865,"Ġethnic":12866,"rating":12867,"ĠLincoln":12868,"acer":12869,"emies":12870,"usted":12871,"SW":12872,"ĠAddress":12873,"ĠKal":12874,"dk":12875,"ĠSN":12876,"Ġanyway":12877,"criptions":12878,"lass":12879,"Ġarrival":12880,"ĠALIGN":12881,"Creat":12882,"Ġexports":12883,"ĠCop":12884,"Ġsuddenly":12885,"ĠApache":12886,"izers":12887,"iga":12888,"ĠFant":12889,"-(":12890,"UTH":12891,"104":12892,"British":12893,"imental":12894,"ĠBureau":12895,"1918":12896,"ĠCommunications":12897,"ĠÅ":12898,"ĠPublished":12899,"Ġdecrease":12900,"ĠPolitics":12901,"Ġvulnerable":12902,"ĠSyria":12903,"Person":12904,"Raw":12905,"ĠPa":12906,"ĠPhilip":12907,"Ġparliament":12908,"Ġperfectly":12909,"ĠHoward":12910,"Ġmonthly":12911,"ĠBalt":12912,"Ġnotable":12913,"resolve":12914,"ĠMeg":12915,"secutive":12916,"ĠĠĠĠĠĠĠĠĠĠĠĠĠĠĠĠĠĠĠĠĠĠĠĠĠĠĠĠĠĠ":12917,"Ġinstallation":12918,"1948":12919,"Ġbrown":12920,"weg":12921,"\\,\\":12922,"Ġfewer":12923,"mates":12924,"Ġboss":12925,"Audio":12926,"ĠDouble":12927,"Ãº":12928,"Ġbasically":12929,"Ġprivile":12930,"Ġthinks":12931,"1943":12932,"Pred":12933,"James":12934,"raid":12935,"separ":12936,"Warning":12937,"CB":12938,"Ġgang":12939,"isely":12940,"ĠLaure":12941,"rolling":12942,"idency":12943,"functions":12944,"Ġdirectors":12945,"Ġtitled":12946,"ĠHeritage":12947,"alert":12948,"Ġchecks":12949,"âĦ¢":12950,"constr":12951,"Ġarc":12952,"Ġconservative":12953,"UV":12954,"ĠAlabama":12955,"Ġsigning":12956,"ĠSn":12957,"Ġneuro":12958,"ĠSingh":12959,"ĠTerms":12960,"Fact":12961,"Ġdesignated":12962,"Ġpromoted":12963,"licens":12964,"Ġvariation":12965,"inian":12966,"ĠGiven":12967,"WORD":12968,"lat":12969,"Ġages":12970,"ĠThough":12971,"Ġunexpected":12972,"Business":12973,"ĠPlant":12974,"ĠLeb":12975,"objects":12976,"expect":12977,"Pack":12978,"ĠDallas":12979,"Ġconservation":12980,"Ġcalendar":12981,"Ġcoordinates":12982,"ĠRoberts":12983,"Ã¸":12984,"policy":12985,"ĠBreak":12986,"ĠLiving":12987,"Ġalpha":12988,"Ġinsight":12989,"Flow":12990,"volume":12991,"ĠChapter":12992,"Basic":12993,"Ġgalaxies":12994,"slice":12995,"Ġorganisation":12996,"icator":12997,"Ġchairman":12998,"Ġexplicitly":12999,"CONT":13000,"ĠNation":13001,"ĠDean":13002,"Light":13003,"June":13004,"Ġfantasy":13005,"ãĢĤ":13006,"Ġcuts":13007,"lined":13008,"ques":13009,"ĠHD":13010,"TestCase":13011,"rophy":13012,"she":13013,"Ġconfront":13014,"phy":13015,"ĠBeat":13016,"Ġmovements":13017,"Ġaimed":13018,"Rober":13019,"ĠML":13020,"stitute":13021,"San":13022,"ĠTokyo":13023,"Ġconcluded":13024,"Library":13025,"Ġcursor":13026,"Ġnam":13027,"abetes":13028,"agination":13029,"kee":13030,"ifestyle":13031,"Driver":13032,"Ġcollective":13033,"1941":13034,"Ġgraduated":13035,"ĠKam":13036,"ĠKy":13037,"oga":13038,"Ġescap":13039,"ĠAnnual":13040,"ĠVari":13041,"ials":13042,"Ġpublicly":13043,"Ġsupplied":13044,"Ġcenturies":13045,"ĠAlliance":13046,"Ġoperational":13047,"Har":13048,"database":13049,"ĠBible":13050,"Scal":13051,"DIS":13052,"CHAR":13053,"Ġplain":13054,"isEmpty":13055,"ĠBowl":13056,"ĠVin":13057,"ĠPlaces":13058,"Ġphysics":13059,"orer":13060,"uber":13061,"ĠYO":13062,"1939":13063,"GER":13064,"Tw":13065,"Ok":13066,"winning":13067,"Ġcalculate":13068,"}}}":13069,"ĠComment":13070,"Ġreact":13071,"ĠRoute":13072,"uj":13073,"ĠGall":13074,"ardo":13075,"Material":13076,"Ġna":13077,"commons":13078,"ĠMelbourne":13079,"ĠOrganization":13080,"Ġidentifier":13081,"Ġpayload":13082,"sch":13083,"design":13084,"speed":13085,"Â·":13086,"Ġsensor":13087,"Ġdemands":13088,"Pal":13089,"Ġ@\"":13090,"Ġforecast":13091,"Ġtracking":13092,"Ġtur":13093,"ĠDeep":13094,"Ġcorn":13095,"Ġmerge":13096,"1957":13097,"catch":13098,"ĠZh":13099,"ĠSmart":13100,"ĠJudge":13101,"simple":13102,"Ġintellectual":13103,"Ġrelating":13104,"ĠAnne":13105,"UES":13106,"orse":13107,"Ġsimulations":13108,"áĥ":13109,"inherit":13110,"elem":13111,"emed":13112,"ÏĢ":13113,"upid":13114,"LOC":13115,"ARN":13116,"SN":13117,"Ġdistricts":13118,"ĠSelf":13119,"have":13120,"Ġpump":13121,"Ġindustries":13122,"logo":13123,"Ġhockey":13124,"Ġhist":13125,"BIT":13126,"Ġrotation":13127,"pload":13128,"Ġnoticed":13129,"Ġcolleagues":13130,"NSString":13131,"ĠRace":13132,"July":13133,"leges":13134,"cosystem":13135,"Ġmunicipal":13136,"USER":13137,"ski":13138,"Limit":13139,"orts":13140,"yy":13141,"Ġoldest":13142,"ĠShop":13143,"Ġfib":13144,"çĶ":13145,"ĠBor":13146,"compile":13147,"ĠLeft":13148,"peror":13149,"origin":13150,"Ġgrab":13151,"Wallet":13152,"Ġwithdraw":13153,"ĠNorway":13154,"seq":13155,"ĠMission":13156,"Ġpersonally":13157,"/\"":13158,"elve":13159,"Ġviolent":13160,"Ġbrilliant":13161,"bara":13162,"Ġnucle":13163,"ArgumentException":13164,"sun":13165,"Ġopacity":13166,"erald":13167,"exit":13168,"Ġexploration":13169,"Ġbars":13170,"anim":13171,"oli":13172,"highlight":13173,"ouver":13174,"Trump":13175,"Tra":13176,"Ġfinger":13177,"Ġdiscussions":13178,"ĠJacob":13179,"Ġconn":13180,"ĠDa":13181,"ĠArk":13182,"ĠLess":13183,"ket":13184,"Ġhouseholds":13185,"Constant":13186,"IOException":13187,"Ġemerging":13188,"asant":13189,"ublin":13190,"()),":13191,"Ġtissue":13192,"Ġretirement":13193,"ĠAppe":13194,"Ġpoet":13195,"batch":13196,"Ġresident":13197,"Ġvariant":13198,"Ġmetrics":13199,"ĠFederation":13200,"Ġprovisions":13201,"Ġparticipated":13202,"city":13203,"fg":13204,"olars":13205,"AU":13206,"ĠDescription":13207,"Foot":13208,"hook":13209,"Ġlegit":13210,"ĠRoom":13211,"Ġcrimes":13212,"ividual":13213,"Ġpermit":13214,"ĠInteg":13215,"Ġcollections":13216,"Tele":13217,"Ġtaste":13218,"ĠLam":13219,"Coord":13220,"Ġrely":13221,"HC":13222,"Ġhurt":13223,"ĠRab":13224,"Ġlights":13225,"cline":13226,"Ġdenied":13227,"Ġloading":13228,"Place":13229,"Ñĩ":13230,"Ġequally":13231,"ateral":13232,"Ġconstantly":13233,"ĠChairman":13234,"apolis":13235,"118":13236,"Ġkernel":13237,"1955":13238,"Compiler":13239,"ĠBan":13240,"Ġshouldn":13241,"ĠPerformance":13242,"Ġtowns":13243,"radio":13244,"erto":13245,"ĠStories":13246,"Ġimprovements":13247,"Ġmodules":13248,"ĠBishop":13249,"ĠVegas":13250,"Ġtrick":13251,"fake":13252,"Ġregulation":13253,"Ġuniversities":13254,"Ġdogs":13255,"driver":13256,"Ġcontracts":13257,"ĠSW":13258,"ĠAlan":13259,"Ġsettled":13260,"ĠRick":13261,"Ġpatch":13262,"Ġcompatible":13263,"Ġrub":13264,"Ġfeelings":13265,"Contin":13266,"vertical":13267,"ĠAndre":13268,"rik":13269,"ĠJess":13270,"Polit":13271,"ropolitan":13272,"Ġnumerical":13273,"omot":13274,"connected":13275,"rban":13276,"Finally":13277,"Ġrepeat":13278,"ĠCape":13279,"Ġdemocracy":13280,"Ġargued":13281,"ĠMichel":13282,"integ":13283,"Objects":13284,"åħ":13285,"Ġmerely":13286,"ĠMess":13287,"amsung":13288,"Ġcomplicated":13289,"rah":13290,"Ġelder":13291,"there":13292,"Ġsinging":13293,"ĠGun":13294,"Ġpublishing":13295,"Complete":13296,"ORDER":13297,"ippi":13298,"ĠAlber":13299,"Ġsql":13300,"phant":13301,"Ġsheet":13302,"respons":13303,"Ġimmigration":13304,"Ġcompete":13305,"ĠOK":13306,"etition":13307,"ĠÂ§":13308,"Ġcomputing":13309,"Ġovers":13310,"vc":13311,"Gover":13312,"Ġelectro":13313,"Ġconventional":13314,"Ġmechanisms":13315,"Ġstruck":13316,"Ġleaf":13317,"pector":13318,":[":13319,"Following":13320,"ĠClimate":13321,"hill":13322,"Ġuns":13323,"ifi":13324,"ĠSwitzerland":13325,"ĠAthlet":13326,"Ġjuris":13327,".]":13328,"xygen":13329,"Ġguns":13330,"Ġpolynomial":13331,"Ġcorresponds":13332,"claimed":13333,"ĠRemove":13334,"October":13335,"erior":13336,"STRING":13337,"ĠGordon":13338,"ĠDub":13339,"Ġtargeted":13340,"Ġregulatory":13341,"Ġresidential":13342,"Ġreporter":13343,"ĠAtlanta":13344,"Sen":13345,"ĠTemple":13346,"oenix":13347,"validate":13348,"ĠInv":13349,"icut":13350,"Ġweren":13351,"ĠSaudi":13352,"Ġprediction":13353,"ĠSM":13354,"western":13355,"Ġdoctors":13356,"Ġguarantee":13357,"Ġpenalty":13358,"Ġslot":13359,"ASH":13360,"ĠSA":13361,"destroy":13362,"Ġruling":13363,"footnote":13364,"Ġengineer":13365,"ĠSpirit":13366,"ĠCow":13367,"Ġhospitals":13368,"estone":13369,"trl":13370,"Ġfocuses":13371,"ÙĨ":13372,"Ġstretch":13373,"ĠWithout":13374,"ĠEag":13375,"Ġpromotion":13376,"Ġhybrid":13377,"theless":13378,"Ġanalog":13379,"Static":13380,"ĠAbstract":13381,"VP":13382,"Tom":13383,"atasets":13384,"IDE":13385,"Ġencouraged":13386,"ĠHills":13387,"ĠNBA":13388,"arios":13389,"iere":13390,"ĠAlbum":13391,"Cred":13392,"Ġpseud":13393,"icular":13394,"Ġham":13395,"ĠOptional":13396,"Ġaddressed":13397,"Ġ>>>":13398,"ĠBey":13399,"Ġburied":13400,"unches":13401,"Ġelsewhere":13402,"Ġgrounds":13403,"Ġchat":13404,"fred":13405,"Ġheritage":13406,"charge":13407,"Ġtrains":13408,"Ġreads":13409,"Ġkne":13410,"åĲ":13411,"'\\":13412,"agh":13413,"UMM":13414,"ĠHum":13415,"Ġproduces":13416,"linewidth":13417,"Ġfmt":13418,"Identity":13419,"ĠIllegal":13420,"á»":13421,"Ġuniversal":13422,"ois":13423,"ounced":13424,"115":13425,"ĠViol":13426,"ongo":13427,"ĠPhill":13428,"written":13429,"Ġstatistical":13430,"DEF":13431,"aho":13432,"âĢ¦]":13433,"Europe":13434,"Ġ}}":13435,"ĠMotor":13436,"Ġclip":13437,"ĠKentucky":13438,"iph":13439,"isons":13440,"ĠallClasses":13441,"ationToken":13442,"Ġstudying":13443,"ĠWorks":13444,"ĠCell":13445,"Ġdesigner":13446,"ĉĉĉĉĉĉĉĉĉĉ":13447,">)":13448,"ĠPython":13449,"Ġinfer":13450,"ĠDetroit":13451,"Ġoffensive":13452,"Ġpending":13453,"Ġconstraint":13454,"avis":13455,"tok":13456,"ĠLevel":13457,"orous":13458,"Thanks":13459,"City":13460,"Ġunusual":13461,"Ġargue":13462,"Ġconcepts":13463,"ĠBruce":13464,"Ġviewed":13465,"Ġbreed":13466,"ĠallClassesLink":13467,"Ġequality":13468,"Ġcertificate":13469,"Despite":13470,"Consumer":13471,"Ġdiagnosis":13472,"what":13473,"ĠConsult":13474,"Folder":13475,"Ġneck":13476,"Ġtank":13477,"icients":13478,"np":13479,"ĠForum":13480,"Future":13481,"trim":13482,"ĠSimple":13483,"iang":13484,"outing":13485,"bow":13486,"Ġbounded":13487,"Ġjun":13488,"Ġguilty":13489,"etal":13490,"ĠNHS":13491,"Ġliterally":13492,"extend":13493,"ras":13494,"Ġcollapse":13495,"Spr":13496,"raig":13497,"imore":13498,"ĠMock":13499,"Ġcarefully":13500,"ushing":13501,"Ġintervention":13502,"Ġoverse":13503,"Ġindependence":13504,"Ġadequ":13505,"ĠStew":13506,"ordinary":13507,"December":13508,"Db":13509,"messages":13510,"1947":13511,"Ġcodes":13512,"intell":13513,"Ġlake":13514,"Ġintensity":13515,"Ġ$\\{":13516,"isen":13517,"Ġarmed":13518,"Detail":13519,"Ġtied":13520,"iatric":13521,"wiki":13522,"Ġdependencies":13523,"Diagnost":13524,"ĠAst":13525,"Ġsharp":13526,"Site":13527,"depend":13528,"ascular":13529,"Related":13530,"ĠPolitical":13531,"ĠHans":13532,"ĠBah":13533,"Ġsubscription":13534,"Ġenables":13535,"Ġorganisations":13536,"idal":13537,"ĠWalker":13538,"ĠReserved":13539,"may":13540,"1946":13541,"Live":13542,"ĠMatthew":13543,"fish":13544,"ierarchy":13545,"Ġweapon":13546,"alaxy":13547,"clone":13548,"103":13549,"Ġaside":13550,"Validation":13551,"native":13552,"ĠVar":13553,"Ġsequences":13554,"ĠNik":13555,"ĠNap":13556,"Ġsoph":13557,"merge":13558,"ĠChristopher":13559,"ĠDB":13560,"Ġsatellite":13561,"oni":13562,"ĠLock":13563,"Ġdescent":13564,"November":13565,"urations":13566,"ĠFO":13567,"Ġedited":13568,"Strategy":13569,"ĠHost":13570,"\"><![":13571,"Ġestablishment":13572,"atrix":13573,"Ġwalked":13574,"=[":13575,"Ġdisorder":13576,"Ġaccompan":13577,"whe":13578,"Ġgenu":13579,"ĠDim":13580,"leveland":13581,"Constructor":13582,"Ġinclusion":13583,"Ġliterary":13584,"tail":13585,"Ġmemories":13586,"Because":13587,"Ġhelpful":13588,"owski":13589,"ĠBron":13590,"ĠWy":13591,"ĠHit":13592,"Ġconsecutive":13593,"Ġdisag":13594,"cluding":13595,"commun":13596,"=\"../../../../../../../":13597,"variable":13598,"Mal":13599,"'}":13600,"Ġshots":13601,"106":13602,"Listen":13603,"Ð¾Ð²":13604,"Throw":13605,"ĠPolish":13606,"rypted":13607,"vol":13608,"Ġ\"\",":13609,"orable":13610,"Ġlyrics":13611,"Ġproducers":13612,"1953":13613,"ousing":13614,"Ġtsd":13615,"urrence":13616,"Ġmeat":13617,"kwargs":13618,"setup":13619,"Ġamid":13620,"Ġprinted":13621,"marks":13622,"äº":13623,"Special":13624,"Ġprize":13625,"Ġsacr":13626,"Ġhint":13627,"Ð°Ð½":13628,"series":13629,"Ġbird":13630,"hedral":13631,"ĠHE":13632,"Ġcommands":13633,"August":13634,"1952":13635,"oi":13636,"parts":13637,"Ġevaluated":13638,"aton":13639,"ĠMcK":13640,"Ġentrance":13641,"verb":13642,"essment":13643,"Exper":13644,"Ġfolks":13645,"pin":13646,"Ġpersonality":13647,"constructor":13648,"ĠVolume":13649,"Women":13650,"']);":13651,"Ġmaxim":13652,"Ġreceiver":13653,"1954":13654,"geon":13655,"best":13656,"Ġheaded":13657,"WH":13658,"submit":13659,"Ġappointment":13660,"ĠGrad":13661,"Ġordinary":13662,"Ġshortly":13663,"Ġsuspect":13664,"Career":13665,"subfigure":13666,"Ġdinner":13667,"ĠMexican":13668,"ĠCSS":13669,"=\"$":13670,"ĠMoscow":13671,"abling":13672,"Ġbone":13673,"eder":13674,"Ġcompensation":13675,"atile":13676,"Win":13677,"Ġmini":13678,"navigation":13679,".-":13680,"Ps":13681,"boy":13682,"Ġrescue":13683,"Ġrestrict":13684,"Three":13685,"Ġlogging":13686,"Ġinstruments":13687,"Ġauth":13688,"placement":13689,"Normal":13690,"Ġheading":13691,"ognitive":13692,"oca":13693,"aters":13694,"CLASS":13695,"Ġbrew":13696,"ĠTarget":13697,"Ġ_,":13698,"Ġrepository":13699,"Ġabandoned":13700,"imb":13701,"Ġ'';":13702,"ĠLag":13703,"Ġfantastic":13704,"Ġfought":13705,"ĠHug":13706,"Ġclar":13707,"Ġvisits":13708,"enny":13709,"DER":13710,"Ùħ":13711,"Ġsocket":13712,"ĠTrack":13713,"tures":13714,"ĠReference":13715,"Present":13716,"Ġpassenger":13717,"Bad":13718,"uce":13719,"deprecated":13720,"loader":13721,"gre":13722,"White":13723,"health":13724,"conv":13725,"Condition":13726,"Tri":13727,"Ġenvironments":13728,"FN":13729,"Ġturb":13730,"Ġhoping":13731,"jQuery":13732,"Binary":13733,"Ġarrive":13734,"program":13735,"Organ":13736,"6666":13737,"ĠPas":13738,"Ġcov":13739,"Ġprocessed":13740,"methods":13741,"Ġworry":13742,"ĠNAVBAR":13743,"ĠDur":13744,"Ġthemes":13745,"107":13746,"Ġpublications":13747,"artz":13748,"Ġconscious":13749,"Ġpione":13750,"FOR":13751,"ĠWoman":13752,"Ġjazz":13753,"subject":13754,"Ġgoverning":13755,"ptic":13756,"Ġradical":13757,"osity":13758,"eto":13759,"Ġbreast":13760,"Through":13761,"Ġinvolvement":13762,"Convert":13763,"Ġsuperior":13764,"ĠAfghanistan":13765,"1917":13766,"ĠRetrieved":13767,"CN":13768,"Ġneighb":13769,"×ķ×":13770,"berry":13771,"Ġreven":13772,".\"\"\"":13773,"sto":13774,"Ġapartment":13775,"sis":13776,"Ġpremier":13777,"sync":13778,"former":13779,"Ġwarrant":13780,"ä½":13781,"Ġanth":13782,"ĠGuid":13783,"ĠStop":13784,"Ġpermissions":13785,"Ġdeclare":13786,"aval":13787,"ĠPear":13788,"ĠRap":13789,"Ġidentification":13790,"ĠNetflix":13791,"Ġexcit":13792,"\"},":13793,"ĠDJ":13794,"Ġpace":13795,"Ġloyal":13796,"Ġwet":13797,"ĠBeck":13798,"Ġ\"\";":13799,"}^{-":13800,"ĠPharm":13801,"Ġ_{":13802,"Ġrival":13803,"Ġrepair":13804,"Ġdecent":13805,"Ġsixth":13806,"Rate":13807,"pad":13808,"Ġfest":13809,"pler":13810,"assertTrue":13811,"?)":13812,"Ġsatisfies":13813,"ĠPhD":13814,"Ġstructural":13815,"ĠNeg":13816,"ĠCart":13817,"Week":13818,"ĠJonathan":13819,"Ġdepression":13820,"overview":13821,"Ġequity":13822,"esc":13823,"ancouver":13824,">\\":13825,"ĠHell":13826,"pod":13827,"Ġreceives":13828,"ĠMind":13829,"Ġpacket":13830,"intellij":13831,"animation":13832,"Ġsupplies":13833,"Ġcriticism":13834,"ĠGram":13835,"ĠFix":13836,"Ġidentical":13837,"ĠBased":13838,"ĠHarvard":13839,"memory":13840,"Ġwider":13841,"notations":13842,"enez":13843,"ĠWolf":13844,"Ġentities":13845,"fmt":13846,"Ġboundaries":13847,"Ġsomewhere":13848,"Ġpreparation":13849,"Films":13850,"HEAD":13851,"ĠAdditionally":13852,"disable":13853,"=\\\"":13854,"poly":13855,"Ġtrou":13856,"sha":13857,"YY":13858,"idays":13859,"ĠConsider":13860,"agma":13861,"ĠThank":13862,"]))":13863,"ĠBrig":13864,"ĠPil":13865,"ĠDue":13866,"ieval":13867,"Tok":13868,"icit":13869,"1900":13870,"BN":13871,"ĠLiverpool":13872,"ĠIR":13873,"aceut":13874,"Ġsalt":13875,"Ġdefensive":13876,"Ġcoinc":13877,"Validator":13878,"annon":13879,"usr":13880,"ĠHighway":13881,"walk":13882,"Ġcup":13883,"ĠWIDTH":13884,"Ġmoth":13885,"ĠCrime":13886,"Ġneutral":13887,"Ġutility":13888,"Ġfavourite":13889,"Ġthreats":13890,"1949":13891,"kh":13892,"directory":13893,"ĠBus":13894,"(\"#":13895,"Ġmodal":13896,"ĠRussell":13897,"Eval":13898,"abis":13899,"Ġads":13900,"expand":13901,"books":13902,"GEN":13903,"ĠSac":13904,"ĠPred":13905,"ĠThompson":13906,"Ġtrib":13907,"Ġdialogue":13908,"Ġdial":13909,"ĠIM":13910,"ASSERT":13911,"ailand":13912,"ĠThread":13913,"Sing":13914,"ĠPlayer":13915,"ĠOperation":13916,"ĠKa":13917,"Ġwake":13918,"ĠBrooklyn":13919,"ĠMars":13920,"Ġfuck":13921,"USA":13922,"ivia":13923,"Ġchronic":13924,"Ġdrinking":13925,"\"].":13926,"Ġmanual":13927,"Operator":13928,"ĠCole":13929,"lad":13930,"Ġsatisfied":13931,"Ġshadow":13932,"FIELD":13933,"Ġcounts":13934,"ĠPast":13935,"Points":13936,"ĠHero":13937,"ĠExample":13938,"Ġmetab":13939,"Ġ\\;":13940,"Counter":13941,"Ġappreciate":13942,"issippi":13943,"Ġdivor":13944,"Ġisolated":13945,"ĠComputer":13946,"Ġthermal":13947,"Ġwedding":13948,"Ġrecru":13949,"ĠBuff":13950,"ĠWhich":13951,"textsc":13952,"ĠMother":13953,"Center":13954,"Ġboot":13955,"Ġnaturally":13956,"assign":13957,"Ġspeaker":13958,"Ġsubset":13959,"duration":13960,"Ġsatisfy":13961,"pleted":13962,"Ġgaming":13963,"mk":13964,"attice":13965,"Overview":13966,"getElementById":13967,"Ġattacked":13968,"ĠMethods":13969,"variant":13970,"Ġoverwhel":13971,"Drop":13972,"Ġorganic":13973,"Ġmanuscript":13974,"mn":13975,"Virtual":13976,"ethe":13977,"ĠDoc":13978,"thod":13979,"SCRIPT":13980,"Super":13981,"Green":13982,"Ġwhenever":13983,"qual":13984,"Ġbeam":13985,"Ġgeometry":13986,"prom":13987,"ĠElectric":13988,"ĠDomin":13989,"setminus":13990,"aro":13991,"Ġsingular":13992,"Ġangular":13993,"ĠNichol":13994,"athy":13995,"Ġgenus":13996,"}}_{":13997,"forming":13998,"lee":13999,"share":14000,"ĠParent":14001,"ĠMand":14002,"Ġforever":14003,"Ġtort":14004,"Ġhighlights":14005,"\"=>\"":14006,"exper":14007,"liest":14008,"GP":14009,"Ġavailability":14010,"Ġspark":14011,"ĠGraham":14012,"convert":14013,"Ġkitchen":14014,"ĠCT":14015,"ilevel":14016,"nl":14017,"ĠAntonio":14018,"Ġrestricted":14019,"Ġgauge":14020,"mount":14021,"Ġcoaches":14022,"Ġbreaks":14023,"Ġlessons":14024,"leans":14025,"ĠMarvel":14026,"jack":14027,"goto":14028,"ĠGer":14029,"ĠDance":14030,"minute":14031,"ĠBull":14032,"Ġcyber":14033,"Abs":14034,"ĠOklahoma":14035,"Ġ($\\":14036,"Ġtact":14037,"Theta":14038,"ĠHoll":14039,"aning":14040,"ĠCentury":14041,"pot":14042,"Ġvertices":14043,"zi":14044,"Ġinspiration":14045,"ĠHIV":14046,"ĠMatch":14047,"IMPORT":14048,"incial":14049,"Ġsync":14050,"ĠWi":14051,"Ġclosure":14052,"Ġtheoretical":14053,"Ġtone":14054,"ĠStudio":14055,"ATOR":14056,"Ġsignificance":14057,"uh":14058,",.":14059,"pection":14060,"story":14061,"Ġphotography":14062,"country":14063,"Ġtheories":14064,"Ġingred":14065,"ĠEconomics":14066,"September":14067,"Ġtower":14068,"ĉĠĠĠĠĠĠĠ":14069,"Ġcharity":14070,"react":14071,"ĠOperations":14072,"WI":14073,"Ġ([":14074,"ĠProgress":14075,"ĠAlbert":14076,"ĉĠĠ":14077,"Platform":14078,"Ġadjacent":14079,"amy":14080,"ĠBeaut":14081,"Ġcomplaint":14082,"LD":14083,"\\_":14084,"puted":14085,"Ġhip":14086,"commit":14087,"URN":14088,"Ġtip":14089,"Ġendpoint":14090,"mc":14091,"urse":14092,"Ġliberal":14093,"bian":14094,"ruct":14095,"chart":14096,"hips":14097,"Ġdistributions":14098,"ĠPi":14099,"Renderer":14100,"ĠMort":14101,"issa":14102,"Ġlicensed":14103,"Ġmagnitude":14104,"atibility":14105,"Zone":14106,"Ġoptimization":14107,"ĠTa":14108,"ĠBuilder":14109,"Ġraising":14110,"wegian":14111,"Ġgenerations":14112,">\"":14113,"extra":14114,"Ġwrest":14115,"Ġ\"%":14116,"olo":14117,"LAY":14118,"Ġvibr":14119,"Ġcurves":14120,"Ġsymmetry":14121,"Eq":14122,"Ġflows":14123,":@\"":14124,"Ġathletes":14125,"ĠCzech":14126,"ĠNASA":14127,"Ġcurrency":14128,"Ġtalked":14129,"Japan":14130,"Ġanchor":14131,"ĠIndependent":14132,"Ġdecay":14133,"Bro":14134,"Ġdirections":14135,"ĠWARRAN":14136,"Ġdeleted":14137,"arnings":14138,"nob":14139,"Ġthorough":14140,"asma":14141,".:":14142,"ĠIndeed":14143,"Alex":14144,"ĠSumm":14145,"Analysis":14146,"iscal":14147,"ĠLegisl":14148,"athers":14149,"Ġgent":14150,"Ġgolf":14151,"Ġartificial":14152,"Ġmile":14153,"Ġinfluenced":14154,"ĠDays":14155,"Ġgradient":14156,"Ġdowntown":14157,"pid":14158,"ĠEpisode":14159,"Ġnotion":14160,"Ġdecom":14161,"heduler":14162,"bie":14163,"cca":14164,"Ġportfolio":14165,"Ġunlikely":14166,"Nor":14167,"Ġeating":14168,"aceutical":14169,"Same":14170,"ĠBrand":14171,"ĠĠĠĠĠĠĠĠĠĠĠĠĠĠĠĠĠĠĠĠĠĠĠĠĠĠĠĠĠĠĠĠĠĠĠĠĠĠĠĠĠĠĠĠĠĠĠ":14172,"transaction":14173,"nc":14174,"Ġlawyers":14175,"Ġenhanced":14176,"Ġcomposer":14177,"ĠProposition":14178,"ĠIron":14179,"ĠDatabase":14180,"1951":14181,"Ġbug":14182,"Ġfleet":14183,"hist":14184,"rank":14185,"iking":14186,"Share":14187,"ceiver":14188,"ĠDraw":14189,"HA":14190,"Ġelif":14191,"inburgh":14192,"Segment":14193,"ĠMcG":14194,"Ġlifetime":14195,"Ġpic":14196,"Ġske":14197,"PROJECT":14198,"wd":14199,"oxy":14200,"FFER":14201,"Env":14202,"Ġremoval":14203,"graduate":14204,"apters":14205,"Ġdestruction":14206,"fetch":14207,"father":14208,"tsburgh":14209,"Ġsid":14210,"Ġprotests":14211,"live":14212,"Ġtd":14213,"Span":14214,"Ġgenes":14215,"ĠNothing":14216,"Ġblank":14217,"owned":14218,"Ġion":14219,"rient":14220,"Ġresponded":14221,"forEach":14222,"tp":14223,"Ġassociate":14224,"ĠRele":14225,"114":14226,"/\">":14227,"irates":14228,"ĠReserve":14229,"WIN":14230,"arding":14231,"esa":14232,"Ġequipped":14233,"Ġtill":14234,"apeut":14235,"Ġdesper":14236,"ĠFather":14237,"ĠAndy":14238,"Personal":14239,"ught":14240,"Ġcritics":14241,"Ġfro":14242,"Ġpetition":14243,"ĠUtah":14244,"Standard":14245,"ÏĤ":14246,"Ġ'',":14247,"Ġpermitted":14248,"bn":14249,"remarks":14250,"heading":14251,"paper":14252,"Ġcharacteristic":14253,"ĠâĤ¬":14254,"ENTRY":14255,"ĠAdams":14256,"Ġstellar":14257,"Ġengines":14258,"ĠLeadership":14259,"arguments":14260,"Month":14261,"icates":14262,"Ġfishing":14263,"Resolver":14264,"ographical":14265,"Word":14266,"Series":14267,"Ġdefect":14268,"ĠBed":14269,"ĠDak":14270,"ĠKl":14271,"Shared":14272,"constant":14273,"compare":14274,"oned":14275,"Ġsys":14276,"Bal":14277,"ĠOt":14278,"Encoded":14279,"Ġdiagnost":14280,"Former":14281,"alia":14282,"licenses":14283,"ĠRule":14284,"ĠSel":14285,"Ġpackages":14286,"3000":14287,"acked":14288,">;":14289,"NotFound":14290,"Ġgreatly":14291,"ĠInsurance":14292,"xiety":14293,"ĠÐ²":14294,"Az":14295,"Ġrevers":14296,"ĠTrib":14297,"Fac":14298,"Ġconsisting":14299,"President":14300,"ĠMachine":14301,"isan":14302,"comb":14303,"ĠColon":14304,"ĠAle":14305,"Ġpanels":14306,"Ġphotographs":14307,"Binding":14308,"opter":14309,"lessly":14310,"ĠMagn":14311,"glyphicon":14312,"Ġsons":14313,"Ġdevelopments":14314,"Ġcomplement":14315,"Ġcann":14316,"abc":14317,"ĠReading":14318,"plane":14319,"Ġeverywhere":14320,"ASK":14321,"ĠMos":14322,"rices":14323,"ĠABC":14324,"MAP":14325,"Ġbirthday":14326,"beat":14327,"dash":14328,"Console":14329,"ĠLP":14330,"ivo":14331,"Ġsuicide":14332,"Ra":14333,"Ġimplied":14334,"Ġmath":14335,"ĠPaper":14336,"Ġjurisd":14337,"ATTR":14338,"Ġbio":14339,"COVID":14340,"tensor":14341,"ivities":14342,"ĠLawrence":14343,"utrition":14344,"ĠRegiment":14345,"VICE":14346,"ĠFal":14347,"MW":14348,"Ġunlike":14349,"quiry":14350,"Ġlic":14351,"Batch":14352,"ilib":14353,"/_":14354,"Addr":14355,"Feed":14356,"ĠCharlie":14357,"Ġresolved":14358,"Ġfocusing":14359,"Setting":14360,"Ġcoordinate":14361,"asa":14362,"Ġimpacts":14363,"ĠPublishing":14364,"ĠWorking":14365,"Ġparagraph":14366,"ĠOil":14367,"\\}":14368,"ĠGirls":14369,"Ġgear":14370,"Ġvolunteers":14371,"ĠĠĠĠĠĠĠĠĠĠĠĠĠĠĠĠĠĠĠĠĠĠĠĠĠĠĠĠĠĠĠĠĠ":14372,"tre":14373,"Ð¿":14374,"Ġtale":14375,"Arguments":14376,"encer":14377,"Prev":14378,"uis":14379,"ĠDownload":14380,"Usage":14381,"Pad":14382,"lower":14383,"ĠCorp":14384,"ĠOP":14385,"Ġdisaster":14386,"utenant":14387,"Login":14388,"Ġcooperation":14389,"Ġcontrad":14390,"Ãł":14391,"Mart":14392,"ĠLane":14393,"Ġepid":14394,"idges":14395,"plain":14396,"reader":14397,"å¤":14398,"ĠDal":14399,"Ġmigration":14400,"Ġsampling":14401,"onda":14402,"Ġapproximation":14403,"Ġastr":14404,"ĉčĊ":14405,"Men":14406,"nan":14407,"ĠKings":14408,"Ġ{},":14409,"Ġweights":14410,"Navigation":14411,"Ġtips":14412,"Ġtok":14413,"Ġexpressions":14414,"ĠGary":14415,"Ġfunded":14416,"ĠSingle":14417,"Ġsymbols":14418,"Ġbulk":14419,"etics":14420,"Ġsecretary":14421,"Î»":14422,"ĠAppro":14423,"NUM":14424,"counter":14425,"regular":14426,"ĠBrun":14427,"VAR":14428,"Culture":14429,"Ġsomehow":14430,"Ġprecision":14431,"!)":14432,"Timer":14433,"Ġbike":14434,"ĠMyst":14435,"Ġsuffer":14436,"Air":14437,"bone":14438,"âĢ¦âĢ¦":14439,"Messages":14440,"108":14441,"CEPT":14442,"calendar":14443,"Ġupgrade":14444,"ĠPL":14445,"ĠCC":14446,"Tex":14447,"Accept":14448,"ollary":14449,"ijing":14450,"ĠIC":14451,"contents":14452,"Ġpleased":14453,"Ġinduced":14454,"agonal":14455,"ĠConvention":14456,"Ġconnecting":14457,"Insert":14458,"ĠRisk":14459,"ortheast":14460,"scss":14461,"Ġsimultaneously":14462,"Errors":14463,"AST":14464,"Html":14465,"Ġworship":14466,"ĠALL":14467,"erals":14468,"Ġnod":14469,"Amount":14470,"Ġconclude":14471,"ĠOsc":14472,"Ġbiological":14473,"elements":14474,"Ġtow":14475,"Ġreserve":14476,"amous":14477,"itudes":14478,"Ġnamely":14479,"ĠMoney":14480,"ponential":14481,"stud":14482,"acles":14483,"Ġdefines":14484,"touch":14485,"backs":14486,"Country":14487,"strings":14488,"ĠFem":14489,"HD":14490,"Ġreviewed":14491,"ĠAnna":14492,"Ġliteral":14493,"Wel":14494,"FM":14495,"Android":14496,"Ġimaging":14497,"/*!":14498,"Ġpin":14499,"Ġcoefficients":14500,"Ġjet":14501,"ĠPortland":14502,"emia":14503,"Ġcited":14504,"ĠActive":14505,"ĠDouglas":14506,"Ġunw":14507,"Ġ'.":14508,"Ġcolspan":14509,"Ġdominant":14510,"mg":14511,"ĠContext":14512,"Ġdisable":14513,"ĠSquad":14514,"Publ":14515,"FUN":14516,"requency":14517,"ĠAqu":14518,"ĠNash":14519,"Ġanalyst":14520,"Ġruled":14521,"Ġquote":14522,"reach":14523,"arma":14524,"Failure":14525,"izard":14526,"Ġmarine":14527,"establ":14528,"ĠBuy":14529,"Ġdisp":14530,"Ġ$|":14531,"ĠWalter":14532,"Ġmystery":14533,"bp":14534,"Ġgram":14535,"ĠBlood":14536,"Ġagenda":14537,"Ġrestore":14538,"gradient":14539,"Ġfrequent":14540,"Updated":14541,"Encoding":14542,"Adv":14543,"ĠCNN":14544,"ĠSide":14545,"Ġneighbour":14546,"Put":14547,"rena":14548,"Ġjs":14549,"Ġrepresentatives":14550,"gun":14551,"Ġpossess":14552,"colon":14553,"Ġinsights":14554,"ĠLang":14555,"***":14556,"SSION":14557,"Ġconfident":14558,"lon":14559,"Den":14560,"ĠProf":14561,"zym":14562,"ĠAssistant":14563,"ĠBeng":14564,"ĠOwn":14565,"Processor":14566,"BUIL":14567,"OPT":14568,"Ġblind":14569,"Ġoperates":14570,"Ġrobot":14571,"Ġhang":14572,"Thank":14573,"Ġsupplement":14574,"Ġjudgment":14575,"Ġpromoting":14576,"Ġdramatic":14577,"ĠBody":14578,"assador":14579,"ĠclassName":14580,"ĠJunior":14581,"ĠDA":14582,"Ġwhilst":14583,"Ġspoken":14584,"Theme":14585,"Ġexclus":14586,"avit":14587,"hal":14588,"vet":14589,"Ġfemales":14590,"ĠRoc":14591,"Ġmice":14592,"Ġregarded":14593,"Ġpron":14594,"rowse":14595,"Ġamongst":14596,"forall":14597,"Ġcelebrated":14598,"ĠSwedish":14599,"ĠEstate":14600,"EP":14601,"Ġsummar":14602,"mate":14603,"_)":14604,"Ġdeeper":14605,"Ġoverflow":14606,"Ġduties":14607,
[...]
