#version: 0.2
Ġ t
i n
h e
Ġ a
o n
Ġ Ġ
r e
e r
Ġt he
a t
e n
Ġ s
o r
a l
i t
Ġ o
i s
a n
e s
a r
Ġ c
i on
Ġ w
e d
Ġ f
Ġo f
Ġ in
n d
Ġ p
Ġ \
Ġ b
i c
l e
in g
r o
ĠĠ ĠĠ
Ġ $
a s
Ġ d
Ġa nd
Ġ m
c t
Ġt o
e l
e t
i g
en t
o u
i l
r a
s t
o m
at ion
Ġ re
Ġt h
a m
i m
Ġ h
o l
{ \
Ġ e
Ġ (
o t
Ġ T
Ġ S
Ġ n
Ġ is
Ġ l
Ġ C
Ġ A
c e
i d
i v
Ġf or
c h
u t
u r
s e
_ {
u l
Ġ g
o w
l y
Ġ M
q u
Ġ on
a b
u m
it h
e g
at h
u s
a d
Ġ$ \
e m
Ġ I
v er
2 0
Ġs t
Ġa s
Ġth at
Ġb e
Ġ B
u n
i r
Ġc on
o d
ĠĠ Ġ
Ġ P
t er
en d
Ġw ith
i f
m ath
ĠĠĠĠ ĠĠĠĠ
a y
Ġ Ċ
t h
Ġ H
č Ċ
is t
g e
Ġ F
Ġa l
ct ion
t a
ĠT he
1 9
Ġ &
ig h
v e
Ġw e
p h
Ġ R
er s
Ġp ro
Ġb y
Ġa n
Ġ L
} \
u re
an d
r i
Ġ D
he r
} $
Ġ v
o s
^ {
p e
â Ģ
Ġ W
Ġw as
it y
t e
at e
Ġ N
igh t
m a
Ġ G
a c
ro m
Ġa t
u p
Ġw h
re s
Ġe x
Ġd e
a p
Ġc om
es t
Ġ E
u b
o c
o p
Ġa re
it e
in e
o re
ar t
Ġ =
re f
Ġf rom
} }
i es
Ġ it
i al
( \
Ġs e
p l
eg in
al l
il l
re n
b egin
ra c
u d
iv e
r an
a g
Ġ or
es s
f t
x t
e w
Ġ J
T he
p t
_ {\
) $
an t
f e
c al
i z
ic h
m ent
Ġ O
or t
Ġ he
b er
} {
a k
at ed
ic al
l d
el l
o g
ul t
re d
' s
in t
20 1
r ight
p er
d e
ig n
Ġs h
as s
Ġth is
it ion
} ,
f rac
c l
e q
i an
Ġc h
u nd
or m
Ġcom p
ar d
u e
Ġ K
ar y
Ġ -
i p
ou r
r m
} )
Ġ U
Ġ le
en s
te xt
c ite
a ve
0 0
e qu
Ġ r
Ġ "
ĠI n
p ro
am e
ation s
Ġre s
Ġn ot
Ġp l
ab el
Ġwh ich
d u
math b
Ġ y
on g
i a
p s
Ġc l
ĠĠĠĠ ĠĠĠ
Ġ k
) ,
Ġc an
u st
t he
as t
p a
l abel
$ ,
ĉ ĉ
Ġ us
t o
u g
id e
$ .
, \
c on
Ġw he
l ow
ab le
s o
âĢ ĵ
ou n
c c
o st
math cal
20 0
et a
or k
im e
Ġh ave
equ ation
t her
or d
a v
Ġ V
} .
Ġ un
le ft
a in
a ge
as e
ac k
i b
en er
fe ren
p ort
Ġa p
r ic
I n
ion s
f ig
a ch
an g
f f
Ġ {
o v
} (
c es
) .
ou s
Ġ im
Ġ |
en ce
~ \
a ct
} ^
Ġm od
f orm
r u
Ġh as
e ct
} _
ĠS t
Ġh is
Ġal so
e ar
Ġa b
er m
a re
is h
i re
Ġs u
am b
Ġa d
ĠT h
w o
r y
1 8
ol d
ou nd
1 0
ph a
o ver
i e
er v
ĠC h
) ;
om e
d a
l ine
Ġp art
al pha
ro w
ow n
ir st
Ġ +
Ġo b
Ġon e
el y
ri b
ic e
re e
Ġal l
at es
s um
k s
u se
ou ld
) \
ta in
in d
cl ud
ent s
Ġcon t
m er
ou t
- -
or y
or s
an ce
Ġwe re
Ġd is
Ġ j
p le
w e
k e
pe ct
$ \
Ġa r
el ta
amb da
ic s
i le
ĠĠĠĠĠĠĠĠ ĠĠĠĠĠĠĠĠ
ter n
im es
al ly
Ġm e
un ction
Ġp er
Ġ qu
ul ar
Ġt wo
m b
ran s
Ġn e
o se
am ma
_ \
ig ma
Ġ <
Ġs y
mathb b
r it
res s
c om
c ent
Ġ if
. .
ur n
Ġ\ \
Ġf irst
} _{
ar i
} ^{
Ġ ro
= \
Ġe v
d ot
ut ion
ra ph
m u
h o
o int
s ub
Ġb ut
n e
ol low
o f
i el
Ġs et
at a
oun t
Ġit s
o k
/ /
c he
ar k
ĠH e
- \
âĢ Ļ
ra y
Ġthe ir
Ġo ut
o b
l l
= "
Ġt e
f in
R e
Ġ| |
Ġ Y
eg a
ph i
pa ce
Ġ }
Ġ en
j ect
^ {\
ĠI t
Ġmod el
Ġs p
19 9
Ġd es
ĠU n
Ġo ther
iel d
um ber
v el
ation al
on e
Ġo ver
Ġ *
p os
Ġf unction
Ġf ollow
h at
on d
Ġd if
l ambda
e p
Ġt ime
1 2
Ġ {\
le ct
y s
e x
Ġcon s
i ed
b f
Ġpl ay
Ġ up
p i
Ġb et
l es
f ter
c ed
Ġwhe re
mathb f
Ġfor m
Ġs ub
c re
s igma
Ġres ult
Ġw ill
c k
at ure
Ġin t
ra m
Ġv al
Ġsu ch
a ce
w id
at er
Ġm an
od e
st em
Ġd ist
il on
Ġa g
ĠW e
al ign
res ent
d ition
i x
as ed
und er
at ive
Ġm ore
ug h
Ġh ad
iz e
is s
ps ilon
se ction
t il
Ġw ork
ĠS e
Ġ ver
Ġs im
Ġre l
on s
ub l
Ġon ly
s s
ic t
pe c
ot h
Ġt ra
or n
Ġbe en
Ġc o
Ġg ener
ĠĠĠĠĠĠĠĠ ĠĠĠ
ar g
Ġre g
Ġt rans
s et
Ġ âĢĵ
s c
Ġcon st
v i
a x
Ġn ew
Ġe qu
le m
we en
il d
et h
Ġthe n
Ġd o
ing s
p art
if ic
Ġin ter
Ġp re
Ġcl ass
^{ -
u al
he d
Ġc ol
Ġs o
in ce
Ġ( \
Ġthe re
s h
ĠTh is
Ġwh o
ĠĠĠĠ Ġ
a w
p r
} {\
Ġsh ow
ar am
Ġ ra
Ġa cc
o x
b eta
Ġp os
math rm
Ġin to
Ġbet ween
Ġp h
g h
1 5
Ġthe y
Ġth an
Ġc or
Ġs up
* }
l and
Ġwhe n
ro up
r al
Ġs c
Ġdif feren
Ġo ur
+ \
ol og
ro und
Ġl oc
Ġ [
at ing
1 6
an s
i ent
Ġ her
g amma
ak e
p end
b ar
w ard
Ġcom m
in al
Ġin clud
o ve
it ed
Ġe ach
ru ct
\ \
] {
is e
r ho
y pe
il ity
an n
< /
1 7
a il
Ġ under
fig ure
Ġan y
the ta
Ġsy stem
i o
fe ct
Ġg iv
W e
it ies
Ġp ol
le q
Ġs ome
^ \
o ol
op le
p ut
Ġbe c
d er
o ot
Ġy ear
d elta
it s
Ġ âĢ
ĠR e
Ġm at
Ġp e
r t
r on
l i
id ent
19 8
) }
wid th
mer ic
ou gh
c ess
n g
Ġus ed
}$ ,
Ġ est
$ -
ab l
Ġd ata
c dot
ta u
t urn
t t
iv ers
ur ing
u es
em ber
1 3
Ġof f
y n
}$ .
Ġpro b
ar ray
Ġk n
ap t
Ġp oint
l o
ist s
con d
Ġre c
Ġthe se
ĠD e
Ġ x
Ġn umber
le t
it em
Ġa ct
ib le
S t
Ġ i
oc k
eq ref
} (\
1 4
al s
ic k
ren t
ro ugh
Ġs ol
Ġst ud
r ing
ot e
m all
Ġw ould
ment s
Ġn o
us s
feren ces
Ġpro v
ul l
Ġ use
Ġa fter
Ġf e
Ġpro du
Ġf il
m in
at or
b ig
1 1
Ġg o
n u
c y
ar s
ĠF or
* *
Ġc ase
ĠA l
t imes
Ġp r
t on
ĠC om
Ġap pro
in s
iz ed
i k
Ġex t
m s
Ġ '
pt ion
Ġin v
ay s
ubl ic
he re
s y
Ġdifferen t
c ol
Ġl ine
ar ch
e ver
Ġv ari
f fect
ow er
Ġl in
part ial
ar row
ĠN ew
il y
Ġab out
o y
ft y
Ġn on
E x
iz ation
aram et
in fty
eth od
Re ferences
Ġas s
Ġs he
qu ad
| \
T h
til de
Ġ Z
om ega
el f
ĠP ro
ad e
Ġ Q
en g
Ġs ign
Ġex p
19 7
Ġm ay
v ar
m m
p m
ction s
Ġs pec
is ion
ct or
Ġm ost
am ple
Ġus ing
Ġs ame
2 1
n ing
er t
Ġ X
Ġpart ic
Ġf ield
meric an
a ir
Ġc ur
Ġre p
D elta
Ġo per
2 5
Ġd ire
f or
ran g
ff ic
Ġw ell
pl ic
Ġf l
oc i
v al
ical ly
Ġo p
ar ge
Ġgiv en
Ġfollow ing
b all
ĠL e
it t
Ġt erm
se c
er ing
p ar
Ġin st
eq n
ĠA n
Ġb l
Ġy ou
or ld
in ed
g et
Ġ ent
g y
Ġd et
Ġb oth
ir c
ĠA s
Ġde fin
Ġst ate
ow ever
s pace
ch ool
ut e
he n
s im
Ġs ing
as on
Ġre turn
o ok
Ġb u
Ġ ed
ot s
w n
Ġth rough
iv ely
Ġc ent
as h
Ġm in
is hed
s erv
Ġper form
is m
am es
Ġs ur
per t
Ġg roup
s p
ore m
} }\
o h
Ġth ree
\ ,
Ġpe ople
)$ .
2 2
} [
am p
ion al
x i
Ġh igh
3 0
Ġ .
Ġ end
em ent
on t
Ġa m
ra ct
as es
Ġ z
Ġse cond
er n
a use
u ch
m an
Ġdes c
Ġe le
Ġf act
Ġ$ (
h ip
" >
" ,
ri x
19 6
at t
Ġf ound
Ġor der
e psilon
Ġp aramet
Ġf in
Ġob tain
er r
id er
ivers ity
Ġdis c
an y
u c
Ġm ethod
ric t
Ġresult s
Ġs mall
as ure
ul ation
$ $
a h
w here
Ġe m
Ġb ound
y p
s q
ar ly
Ġs er
) )
} _{\
Ġc all
Ġin d
res p
Ġthe m
Ġag ain
. ,
tern al
Ġs erv
in clud
i ke
or th
O m
5 0
w ork
Ġb ack
et s
i er
Ġt r
al ity
ou th
ic es
Ġwh ile
Ġe ffect
ur y
ps i
Ġre qu
Ġde c
Ġat t
ĠS h
ĠF ig
at ic
n er
ab ility
Ġa c
iv er
re at
f ore
Om ega
Ġan al
Ġst r
Ġ :
in ing
text bf
ent ial
mb ol
Ġle ad
^ *
ro ss
ang le
b m
S e
re st
al e
)$ ,
-- --
ver y
âĢ Ŀ
n ot
w ay
ĠI nd
Ġde f
um n
ur al
vel op
form ation
eqn array
G amma
ruct ure
raph ics
sq rt
t en
a z
Ġval ue
if e
y le
ag es
Ġse e
Ġm ass
Ġdist rib
2 4
Ġh im
sub section
Ġd uring
a j
v are
ener gy
ro p
t ab
m e
re l
Ġrep resent
a u
00 0
ĠC ol
resp ond
ra d
b e
vare psilon
f er
t s
= =
ĠĠĠĠĠĠĠĠ ĠĠĠĠĠĠĠ
Ġob serv
Ġyear s
our ce
ĠA merican
f ul
ĠC l
ut h
ĠĠ Ċ
Ġ čĊ
Ġres pect
at her
Ġme asure
en cy
c apt
Ġch ar
Ġp resent
2 3
Ġbe ing
eg raphics
includ egraphics
Ġ /
a id
b old
Ġf am
s on
P h
Ġcon dition
f l
Ġs ince
olog y
v ed
}^ {\
b y
Ġb el
i qu
ot her
Ã ©
^{ (
19 4
Ġg et
capt ion
} =
Ġ$ {\
( )
Ġman y
right arrow
F or
et work
Ġ ran
iv ed
ou se
Ġre le
ĠC on
Ġprob lem
f ra
l og
v ent
an e
Ġs pace
Ġas sum
in k
Ġl arge
ot t
Ġpro cess
) =
rang le
et ric
Ġm ult
Ġc re
ĠS c
c m
Ġm ain
ĠUn iversity
g or
Ġl ong
Ġin de
o le
Ġ\ ,
en e
in es
Ġo pt
l ed
Ġar t
Ġcor respond
r id
Ġte am
ro du
Ġm ade
iss ion
an ge
de f
Ġgener al
Ġ ,
Ġdesc rib
if ied
Ġe lect
el s
Ġcont in
Ġn ow
le x
im ens
ĠUn ited
b ers
em ph
ĠO n
i or
Ġfe ature
Ġp ublic
Ġm on
Ġn ame
Ġne ed
Ġe very
Ġd en
Ġkn own
Ġest im
pos ition
. ~\
ol ution
Ġ `
iv al
Ġm ed
um er
var phi
over n
i red
Ġl im
ter s
he s
Ġap pe
oot ball
ap p
Ġst art
gor ith
Ġ energy
Ġ u
Ġin cre
Ġp op
Ġc ould
ens ure
Ġf our
ur ther
ge q
Ġb ased
Ġk e
ce pt
Ġs cal
Â ł
- >
Ġra d
ch n
ers on
Ġpos s
o od
v en
Ġde velop
201 8
s k
ra w
ak ing
us ic
in a
vi ew
C on
20 19
Th is
. }
Ġw rit
a red
Ġor ig
c er
Ġbe fore
eng th
n on
as k
r um
Ġm ag
ut ions
Ġf ind
Ġex per
ch i
g er
sy mbol
' '
c o
Ġad d
Ġloc al
Ġc ount
C h
it ive
ant s
Ġ //
iv ing
over line
ĠA r
Ġst ructure
g an
pro of
Ġ right
ĉĉ ĉĉ
o ber
i j
}, \
os s
Ġlin ks
Ġl ike
Ġbec ause
vi ous
om en
Ġ ve
e c
19 5
Ġver y
ri pt
t ing
oh n
Ġplay ers
o id
& \
le y
m od
bold symbol
il ar
Ġp res
m ed
ĠE ng
Ġto p
Ġc al
Ġchar act
Ġsup port
Ġr un
t r
Ġcon tain
ĠâĢ ľ
A s
Ġt est
Ġab ove
re ad
h line
Ġ @
ens ity
B ig
iv es
b l
Ġt em
P ro
Ġdire ct
201 7
p ly
u ally
Ġs pect
2 7
ĠA d
ver t
) ^
ist ory
Ġint eg
Ġdo es
re m
Ġm ov
g ram
Ġval ues
e b
am pl
Ġ ident
Ġre al
2 6
. "
}) .
n ess
Ġg u
Ġs at
Ġev en
n et
I t
Ġinclud ing
[ \
Ġl ater
Ġd i
ĠS he
Ġm em
ar ri
H e
} }$
Ġj ust
2 8
201 6
ĠI s
at eg
Ġd ue
v es
Ex ternal
in c
Ġv i
l im
x im
l ess
Ġpro pert
Ġsing le
it ial
fra k
Ġsh own
un e
} ;
er o
Ġh and
orm al
Ġal low
Ġser ies
p or
.. .
og raph
if y
ĠM ar
Ġsh ould
Ġrec ord
Ġdes ign
r ation
Ġn etwork
Ġcomp ut
l angle
Ġ err
Ġfollow s
4 0
er y
Ġst and
Ġcons ider
ap er
ref ore
Ġt ype
Ġop en
b um
Ġex pl
m ult
se e
th s
Ġqu ant
ar n
' ,
1 00
Ġmodel s
ve c
201 5
Ġfil m
Ġ el
ld ots
L et
w h
ĠH owever
ac es
Ġcont ro
b ack
Ġde pend
ĠSt ates
Ġad dition
id es
y m
pos ed
math frak
ĠP h
Ġst at
ĠP l
Ġre st
Ġs um
g es
cite p
Ġagain st
Ġs aid
S T
Ġm ap
ir d
ĠC ount
: :
Ġle vel
Ġse ason
en n
id ed
Ġdefin ed
201 4
Ġest abl
Ġwh at
Ġre ma
ver s
Ġex ample
c ul
at ors
p on
cent er
it al
L ambda
Ġp ower
n ew
is on
Ġpro f
201 0
Ġob ject
is ed
ver al
ĠCom m
2 9
Ġo wn
Ġth ose
if t
o o
at ch
C om
Ġpartic ular
n abl
im al
u ro
c or
col or
Ġre m
" .
Ġle ft
or ph
ensure math
ĠM ay
Ġle t
Ġcall ed
i ence
Ġd r
an k
text it
Ġcur rent
rac k
Ġbu ild
at ely
f ace
Ġp ar
gorith m
Ġh ow
Ġal ong
Ġim port
ap pa
ĠI f
ag ue
Ġl ast
Ph i
Ġsim ilar
Ġin formation
201 3
Ġw ay
u le
Ġl ist
yn am
Ġre ce
Ġwith in
Ġdistrib ution
Ġo cc
le ction
Ġg ra
ĠT e
ĠF ran
b ra
Ġse ction
t al
Ġn ear
Ġ >
nabl a
201 1
re qu
Ġd er
b s
E R
Ġin s
r and
Ġp red
ĠB e
ĠN ational
cc ess
Ġf ootball
ific ation
i od
D e
Ġl ow
Ġl arg
201 2
O n
pl it
Ġs chool
c ur
19 3
ĠJ ohn
Ġfam ily
a i
Ġf inal
is f
\ |
Ġre du
ĠC ar
w ith
mb ox
p re
n o
} )$
Ġcomm un
ure s
Ġshow s
Ġd om
g round
Ġb ro
Ġa v
et ry
Ġre ad
m p
sub set
im ent
6 0
ys is
i um
ĠE x
Ġex pect
Ġb as
Ġdet erm
Ġcontin u
k appa
s f
Ġcharact er
Ġse veral
Ġs ize
ĠA ust
re g
Ġm ake
ĠW orld
ist ic
ot imes
ward s
Ġal bum
Ġterm s
pl ay
\ %
te rest
et y
ĠB l
\ !
Ġc he
t able
Ġd own
tab ular
an u
Ġa round
ĠA t
d is
Ġpoint s
Ġh ig
od y
op er
ĠC an
ak es
Ġbe h
Ġb ir
Ġhe l
e ps
ĉĉ ĉ
. \
Ġint rodu
Ġv is
Ġver s
ĠJ ul
feren ce
p ed
20 20
Ġt ri
ĠG e
ur ch
Ġdisc uss
ord ing
Ġp ass
Ġin itial
aj or
Ġg l
A l
en se
ol l
ix ed
r ist
am ent
c irc
tern ational
ian s
Ġ )
is ter
Ġm uch
b le
Ġpre vious
che d
A R
in ation
v an
a e
at ter
Ġre port
Ġd id
um ent
Ġstud y
Ġare a
200 8
od es
Ġs l
Ġb and
T o
Ġm ax
p ose
dot s
Ġte chn
Ġg ame
ĠThe n
Ġparamet ers
}) ,
Ġass oci
a f
Ġto tal
} +
overn ment
ot ential
Ġh old
ffic ient
n ect
Ġ et
ĠW ar
}} {
200 9
C l
am ed
Ġch o
Ġsat isf
Ġin du
Ġd ensity
Ġcl os
Ġst ill
Ġbec ame
st r
eta il
Ġun til
com m
I N
il de
non umber
Ġpro gram
ĠA ll
Ġappro xim
Ġm et
Ġkn ow
ĠY ork
Ġc ap
3 2
ang u
Ġd eg
Ġobtain ed
i am
Ġev ent
av ing
ĠB rit
Ġpos ition
ĠCount y
\ [
ĠS chool
Ġd em
) :
le ar
Ġc rit
p oint
| -
ur b
ĠN ov
pend ent
Ġmat rix
\ {
S S
e k
ĠâĢ Ķ
4 5
ĠC ent
ĠW h
ĠĠĠĠĠĠĠĠ Ġ
ial ly
Ġex ist
S igma
ĠA nd
A T
che s
end ed
ĠO r
Ġst ates
c ap
w ide
Ġre f
a ction
Ġcomp on
cent ering
9 0
P s
3 5
i ous
Ġcom b
Ġw in
Ġin terest
ar m
Ġs ong
Ġse qu
a us
Ġt yp
p d
Ġg raph
u x
ĠS outh
ĠR es
op t
ug g
at rix
al th
Ġc are
Ġstr ong
or ies
Ġb est
wid et
Ġa ver
Ġhe re
d ay
im um
ug ust
se qu
it er
Ġdescrib ed
8 0
c it
Ġl ife
Ġme an
a pe
Ġor gan
Ġpol it
Ġposs ible
ĠĠĠĠĠĠĠĠĠĠĠĠĠĠĠĠ ĠĠĠĠĠĠĠĠĠĠĠĠĠĠĠĠ
Ġs elf
Ġl aw
iv ity
Ġt ake
Ġcont rib
Ġde ath
Ġm y
ru ction
a im
Ġ` `
erm an
Ġsol ution
l er
A n
ud e
Ġfunction s
I I
200 7
Ġm ust
th is
F ig
Ġm usic
ord s
( );
ĠL et
Ġpl ace
Ġp aper
Ġwith out
Ġan n
pt ember
i i
an ces
an c
Ġch ild
Ġ q
widet ilde
ress ion
e xt
Ġhe ad
Ġequ ation
Ġreg ion
ĠThe y
} -
ĠO ct
Ġper iod
ore d
{ -
' t
/ \
ĠP r
Ġ _
Ġthe ory
ĠP ar
** **
Ġcomp lex
il t
Ġc ou
Ġw orld
( "
b it
a int
ent ion
Ġpred ict
200 6
b ox
Ġrespect ively
ĠT o
amp ions
Ġcorrespond ing
in ess
r is
id d
pr ime
Ġp at
Ġ< /
ĠM arch
Ġp otential
d d
anu ary
iqu e
o ard
Ġlim it
le v
3 3
7 5
ĠB y
e ad
O N
pr il
Ġph ot
0 5
h t
ab les
Ġne xt
Ġa uth
Ġperform ance
Ġp ost
Ġconst ant
Ġ* /
f ield
om an
ĠA ugust
as ter
it her
l ish
z e
: //
and om
Ġsign ific
olog ical
et er
ĠP ol
Ġoff ic
per ature
ĠSe ptember
al k
Ġ- -
in o
Ġanal ysis
m ber
s er
Ġt imes
Ġs pe
st it
Ġpro ject
U n
Ġappro ach
le ge
Ġar g
un g
our ces
Ġm ark
at s
Ġf urther
t ime
ampl es
Ġcomp let
Ġran ge
l ing
s up
ist or
ĠJ une
th m
ri es
Ġgo od
Ġparamet er
ĠĠĠĠ ĠĠ
\ ]
ĠE uro
Ġfor mer
es c
Ġe arly
d raw
ĠM an
Ġv ar
Ġstand ard
ĠJul y
re am
Ġr ate
Ġind ic
ma x
th ough
ĠOct ober
en ces
) =\
Ġsh ort
R es
us ion
ĠAust ral
st yle
Ġimport ant
ĠM in
Ġp air
Ġsu ccess
Ġh al
em pt
ur s
o ff
i us
id ual
B y
z eta
Ġph ys
lect ed
ĠJ anuary
Ġcal cul
ĠE q
ĠG u
Ġch ang
9 9
Ġan other
Ġ( $
Ġph ase
ograph y
Ġb re
Ġm ot
ir on
---- ----
Ġy our
a ult
Ġd iv
ac ed
ĠA pril
Ġ #
0 1
ĠThe orem
Ġre d
6 4
b orn
} =\
s elf
ce mber
Ġsystem s
em ma
Ġs k
Ġd imens
ĠC al
Ġre se
} ]
Ġe as
Ġf ull
ĠS te
ad d
Ġd etail
Ġprodu ct
Ġplay ed
arg et
Ġinv est
Ġline ar
Ġd at
Ġw on
ĠA p
Ġinclud e
ĠN orth
s l
Ġc our
ke y
Ġcontro l
Ġt urn
ra p
20 00
200 5
) }\
Ġvi ew
Ġl ower
port s
con st
Ġpro of
Ġv ol
Ġat ta
Ġt it
om orph
al ax
ĠC ity
Ġp erson
Ġim pro
ip le
Ġa ut
ĠR eg
Ġtr ue
Ġp ubl
or g
i ents
Ġs ide
s cal
Ġm ajor
m l
) ^{
in ally
Ġl ight
ide red
Ġf ew
Ġrele ased
Ġb us
il it
ĠSt ate
ĠS p
3 1
Ġal gorithm
Ġth ough
Ġc ar
A S
Ġtra ining
t op
ra g
Ġ& =
Ġen g
e ction
e red
u ation
re en
Ġis s
Ġl o
ess age
ĠA rt
h am
ĠS up
d iv
ĠNov ember
Ġf ram
Ġr andom
Ġd el
Ġcomp et
{ (
u k
ple ment
Se e
al es
~ ~
Ġsignific ant
Ġ ide
Ġm om
ĠC o
Ġsy mm
$ )
7 0
pl oy
Ġerr or
Ġhig her
ch ie
angu age
cdot s
Ġl ess
Ġve ctor
ĠSe ction
al t
Ġtem perature
sp an
Ġorig inal
Ġcons ist
ĠDe cember
l or
Ġc ross
as ing
ic le
Ġf ree
3 4
Ġfin ite
Ġh y
Ġcons idered
w ays
}_ \
}^ \
ĠThe se
in ter
Ġmem bers
ex p
cl ass
ĠS y
Ġl ength
con t
ot es
ord er
Ġc ity
wide hat
ĠThe re
; \
Ġcon f
R E
eb ru
ĠBrit ish
Ġh ome
ent ly
Ġp ath
Ġcondition s
Ġle ast
Ġf requ
w w
ĠU S
Ġ\ {
Ġl and
ill ion
Ġc irc
ebru ary
Ġa ction
ĠM e
us h
Ġaver age
text width
Ġinv ol
200 4
ap an
Ġse par
Ġmethod s
I D
pl ies
Ġl ay
in ary
Ġap plic
uss ian
um an
Ġfeature s
ce ption
oc us
du ct
) (
ĠW ill
ĠEuro pe
Ġd ynam
Ġst ar
} |
al se
n ode
ampions hip
s ide
ail able
Ġbir ths
Ġf low
st er
ĠLe ague
t ype
Ġappe ar
en c
Ġth us
Ġg e
os p
Ġpop ulation
ut ed
h old
Ġim age
Ġw omen
Ġle g
Ġe p
le ment
Ġdif f
on al
Ġs em
9 5
r r
Ġch ange
ĠA ss
ĠĠĠĠĠĠĠĠĠĠĠĠĠĠĠĠ ĠĠĠ
t rans
oc ial
ar ning
Ġo ld
Ġs it
il le
Ġs m
( '
I f
Ġc ases
iv en
Ġd ay
Ġwe ight
ĠA fter
lem ma
. ~
}} (
Ġc y
Ġin put
ĠA f
cent ury
end s
Ġsup er
20 21
ĠC or
ĠP art
ĠCan ad
3 6
ĠN o
ĠE n
r ary
Ġp o
wh ich
ĠK ing
net ic
Ġs ource
ul a
st and
t ic
ide o
Ġg row
sc ript
Ġb eg
Ġinde pendent
an a
r ite
Ġre pl
ne y
iv ate
Ġn eg
Ġpos itive
Ġl oss
ri ption
Ġg overnment
{ {\
}) \
0 4
c os
ob al
.. /
A C
Ġpropert ies
Ġman ag
Ġpro m
Ġrel ations
ra ft
n ow
, -
ĠE d
ener al
Ġconst ra
N ame
A r
Ġcol l
Ps i
p ing
Ġl a
f oot
Ġobserv ed
Ġfil ms
Ġan g
Ġpro posed
Ġdi ag
ĠF ebruary
e v
Ġdef ine
w ed
Ġvari ous
le te
ĠFig ure
ition s
ab ly
ap pro
Ġassoci ated
Ġlin es
A N
q quad
Ġth ird
Ġc over
Ġw id
es e
ren ch
c up
Ġab s
4 8
n ame
ĠI I
ĠB ar
Ġbel ow
Ġcomm on
Ġcomp os
}^{ (
Ġvers ion
Ġprob ability
Ġar ch
Ġst ation
our n
d om
Ġal ign
ĠM c
ge bra
o pe
b ased
ĠR ep
ĠCh rist
b or
at ural
A L
ut es
Ġloc ated
Ġh om
Ã ¡
Ġn ormal
Ġcon nect
on y
Ġs om
) ]
Ġen c
Ġcor re
ic ol
lev ision
Ġn ode
Ġg alax
iv idual
math sf
v iron
Ġcl ust
& =
6 5
Ġe ither
oc al
ĠH ar
Ġcare er
m ost
ak en
Ġp ri
pd f
Ġestabl ished
Ġb i
200 3
g l
Ġam ong
is ing
Ġcomp any
Ġz ero
Ġex ists
s in
Ġbl ack
Ġl og
if f
3 8
ugg est
Ġm ember
Ġto wn
Ġke y
Ġre cent
ĠS ince
oun c
Ġbeh av
0 8
Ġf ive
}\ ,
ĠD ist
ann el
Ġav ailable
Ġc ost
x space
Ġspec ial
Ġn amed
Ġmult i
Ġfact or
Ġse en
Ġof ten
Ġs ay
Ġa chie
Ġn umer
Ġequ ival
Ġ$ (\
ĠM ed
b b
Ġj o
ch an
ĠA rm
n a
Ġprov ide
ul ations
ĠP e
on es
ĠW est
ig en
T ype
it or
Ġh owever
he ad
Ġcomp ar
re turn
}\ \
Ġre fer
Ġhe ld
Ġcou pl
Ġto ok
a ugh
m ar
cit et
id ence
^ +
b ut
ĠEng lish
ĠS ch
A merican
s ing
Ġc ell
te x
oun g
ord in
Ġr at
a ut
w ise
Ġre t
Ġbeg an
0 3
ĠL emma
Ġv ia
um e
ot ed
Ġg ames
a ul
Ġconst ruct
Ġmat ch
ian ce
ĠH am
g ed
ĠO ne
Ġinclud ed
h tt
200 2
S h
Ġh istory
Ġquant um
v ing
our s
Ġbet ter
u ck
Ġcl ub
ial s
Ġev ents
Ġs w
ĠJ apan
s mall
Ġmom ent
h space
ond on
Ġl ook
l in
pl ied
e y
Ġf ixed
Ġ& \
ad em
g o
Ġa ge
Ġs uggest
ĠH is
Ġsur face
pro p
b r
Ġwrit ten
0 2
Ġro le
Ġev al
Ġele ment
ut ure
ur ation
Ġf ore
il es
Ġf ocus
Ġh ouse
Ġs che
Ġrece ived
ri e
== ==
Ġme ans
0 6
ac he
con om
3 7
Ġin fl
val ue
Ġpl an
m at
Ġcl aim
er tain
ie f
Ġst ep
0 7
O R
Ġdet ect
Ġs ix
Ġsequ ence
c le
Ġreg ular
o ch
p aram
Ġe mb
Ġdist ance
Ġassum e
Ġsp in
S E
b ur
Ġbu ilt
arri ed
Ġbe com
Ġv ill
Ġpr im
' )
Ġp ract
t i
Ġexper iment
re w
} +\
0 9
200 1
Ġacc ount
Ġlarg er
Ġde v
f unction
Ġst yle
ric k
ra ction
m id
Ġoper ator
ress ed
oo ks
Ġexpect ed
L E
Ġte xt
ind ent
f ord
Ġle arning
Ġw ater
Ġl abel
Ġh aving
ĠS an
P l
Ġsim ple
row n
ĠA ir
ed er
Ġserv ice
ul es
ab or
Ġele ments
Ġp ort
Ġqu est
Ġind ividual
Ġg reat
e e
} :
Ġw ant
] $
oper at
Ġbec ome
Ġanal y
Ġspec ies
ite ct
Ġ !
Ġgroup s
Ġpubl ished
ib ility
Ġf ac
get her
Ġto gether
( {\
I nd
el oc
cre t
4 4
Ġs ample
ĠW ith
Ġg round
ĠM ore
Ġcon ver
Ġpro te
ĠAf ric
Ġscal e
}} {\
ĠB ut
Ġdat as
] ,
ip s
op s
re t
Ġauth or
de fin
ĠE l
A M
ic y
| ^
Ġf und
operat orn
I C
Ġwork s
Ġb ook
> </
d imens
ĠCol lege
Ġprof ess
Ġc am
Ġt w
D E
Ġg ive
em s
equ iv
Ġb egin
V al
Ġ ill
} -\
s ize
operatorn ame
Ġun it
L ist
Ġex act
t ical
se mb
3 9
n eq
Ġde p
c ast
Ġt arget
Ġbound ary
Ġhel p
ict ion
Ġden ote
re et
5 5
Ġl ik
ed d
c ell
ĠL ondon
ĠH igh
i ber
Ġrel ated
av y
sk ip
' $
itt le
read y
ĉ Ċ
u ff
Ġcor rel
st ar
ĠM on
ounc il
Ġpropert y
Ġrese arch
Ġrequ ire
al y
Ġbus iness
ult s
B C
Ġchild ren
Ġa ir
ĠW hen
im port
w are
Ġn ational
I d
h ib
Ġt re
Ġcl ose
ho od
Ġac ross
) -
Ġequ ations
viron ment
Ġv eloc
op y
Ġed uc
il ities
g en
oc ument
ac hes
u ed
ĠTh us
ma p
Ġbuild ing
c her
mult icol
ron t
ari ant
l ation
Ġm en
ĠA m
pon se
ra in
ing ton
Ġplay er
Ġinvest ig
Ġt aken
iz ing
Ġb ase
Ġd ou
ĠD av
t y
Ġed ge
og n
i et
umer ate
ĠCh ar
Ġdeg ree
multicol umn
I T
Ġn ull
9 8
t d
itt ed
n ote
Ġh ard
on ic
ĠWill iam
Ġres p
Ġg en
Ġf ail
the orem
Ġhal f
ver se
Ġdom ain
Ġ- \
Ġtit le
In t
Ġgiv es
ĠR o
ĠQ u
item ize
ĠH er
Ġ& &
ilit ary
Ġback ground
med i
ĠH ouse
es tern
Ġst ars
ĠF rench
Ġw ind
o oth
r im
en umerate
r ated
ĠP res
Ġserv ed
y l
Ġro und
Ġw ar
âĢ Ķ
scal e
Ġcontain s
Ġf ig
Ġs ent
m ore
u ild
P e
ic ro
) }{
ure d
> <
ul ated
ens ion
if orm
un ic
ish ing
Ġs ens
Ġa rm
ĠS o
ĠA meric
Ġm ater
ĠA b
Ġb orn
Ġcent ury
Ġfield s
Ġin c
c all
ĠP ark
um b
itt ing
ĠCh ampionship
ĠP er
Ġre view
k n
rid ge
4 7
Ġc aus
C ol
Ġrequ ired
Ġim plement
St ring
rac y
E N
Ġprodu ction
pa ct
ast ic
Ġconstra int
ĠC he
ĠA g
no indent
re ed
ĠB ro
li ke
Ġcon c
Ġm etric
Ġaddition al
sc r
plic it
ard s
end ing
Ġthe refore
Ġab le
Ġprodu ced
Ġal ways
Ġp an
v space
k ing
4 9
ĠS er
}} _
8 5
r ig
Ġf ar
Ġap ply
ĠA ng
ĠDist rict
Ġacc ess
ran t
ar ies
Ġal ready
Ġhold s
ĠG l
\ }
Ġset s
Ġs ite
al le
Ġim plies
dimens ional
m ing
s w
A P
er a
ĠG erman
Ġh ost
Ġwh ose
f ill
Ġst ring
t est
un c
Ġs qu
] \
I S
Ġco e
Ġn ov
Ġ\ |
p an
d ata
ight s
Ġcount ry
A p
Ġpresent ed
Ġne igh
Ġdist rict
ce ed
ly mp
Ġb o
Ġdefin ition
Ġdevelop ment
d ag
d own
Ġann oun
it z
ĠD ep
Ġ es
c is
ac y
av es
Ġprov ided
Ġacc ording
Ġeffect s
ĠL a
199 9
Ġe ar
Ġd on
Ġel se
Ġopt im
Ġte levision
) }$
_ _
ist ics
it ch
$ }
Ġm ight
Ġme chan
ct ors
id ing
6 6
ĠIn ternational
ĠS im
ĠN e
Ġm iss
Ġcent ral
Ġ: =
Ġto o
in n
Ġout put
ĠC up
at ively
Ġk ill
c ing
g roup
m on
Ġperform ed
Ġc ut
L e
ĠPh il
\ }$
Ġne cess
Ġn atural
em ents
k ed
ar a
9 7
and id
A A
ĠF irst
Ġcomp ared
Ġc ateg
d s
Ġcon text
Ġv ideo
m ary
c ode
am a
oci ation
i res
Ġem ploy
A t
Ã ³
Ġp ut
Ġinde x
Ġcommun ity
Ġconst ruction
Ġbro ad
ĠY ou
Ġsol utions
if orn
Ġf alse
st e
appro x
9 6
Ġim ages
}} }
il ton
Ġm er
Ġg as
Ġeffect ive
ol ic
in de
Ġmult iple
Ġpr ivate
att le
S ince
ot a
Ġpro ve
âĢ ľ
Ġcre ated
Ġmag netic
199 8
Ġspec ific
Ġc ertain
Ġwe ak
Ġh uman
Ġnot e
ht ml
f act
{ }
Ġclos ed
Ġn orth
h a
\ ,\
Ġequ al
ott om
Ġre ason
Ġc ode
im ents
. âĢĿ
( -
o on
ĠM ich
ourn al
Ġreport ed
p ol
iforn ia
Ġn um
Ġm aking
Ġbas is
Ġen ough
math scr
s plit
st ate
g ence
ĠInd ian
N N
Ġspect rum
Ġf uture
E n
Ġcon fig
W ith
l s
4 6
Ġm illion
Ġcompon ent
in ated
is c
oci ety
C C
ĠV al
it ude
Ġrepresent ation
Ġrel ation
Ġc ult
ro ll
ĠG a
Ġtrans form
Ġd ied
ĠA ct
Ġinst ead
Ġp ress
Ġr ather
8 8
m y
{ $
op l
or ge
Ġgener ated
th at
min ist
ĠF rom
om b
nd er
20 22
Ġco ordin
b and
Ġal gebra
Ġdire ction
Ġex ec
Ġ _{
Ġintrodu ced
Ġne ver
iz es
line ar
Ġl ed
f o
Ġcomp lete
Ġdifferen ce
Ġche ck
n orm
ta ge
Ġestim ate
" )
199 0
Ġveloc ity
C O
ell ow
Ġsy n
Ġinst ance
idd le
land s
Ġfl u
Ġset t
Ġl iter
Ġro t
P i
Ġw ave
Ġcan not
Ġatta ck
Ġcompon ents
N ew
Ã Ń
Ġ$\ {
Ġd ays
ve y
Ġeng ine
Ġl ate
) +
Ġev olution
Ġsign al
m ark
Ġt rack
Ġy ield
her n
Ġal most
Ġs ocial
a ctions
Ġmax imum
Ġbl ock
at ives
ĠThe refore
Ġact iv
L iving
b ound
ew ork
Ġup per
use um
ĠAustral ia
Ġst ory
kn own
~ $
Ġwhe ther
Ġarch itect
Ġs on
Ġl anguage
Ġc e
Ġc apt
il i
ĠT ra
ĠEng land
ĠCal ifornia
Ġp ur
ap s
om s
ĠD iv
under line
text rm
u ra
ear ch
A d
ĠA c
Ġc le
Ġstart ed
qu e
ari o
Ġth ink
Ġf ri
Ġc ame
Ġ= =
r s
Ġs outh
Ġvill age
le g
Ġe igen
P S
ĠRe c
ct ed
Ã ¼
Ġlead ing
Ġcol umn
F rom
ic ult
S c
n ce
cc ording
Ġwe ek
6 7
Ġexpl ain
ĠT able
ru le
E C
The re
\! \!
Ġh or
Ġdevelop ed
oun ter
ĠR iver
Ġinfl u
sh ip
yn om
Ġpr inc
it ing
O b
k en
k y
Ġsmall er
lo ad
Ġvari ables
}^{ -
Ġa way
199 7
ber g
Ġocc ur
Ġpri or
te e
ber t
| |
../ ../
Ġstr ateg
a ff
S et
Pe ople
Ġne ut
Ġent ire
Ġb ody
Ġtrans ition
Ġle arn
min us
o e
M od
y ing
Ġpartic ip
ĠInd ia
ir t
l a
Ġap plied
}} _{
ens or
8 7
Ġval id
f rom
199 6
ar ily
ĠS w
led ge
Ġrest rict
D ata
F il
Ġup d
Ġs ources
Ġrat io
Ġh istor
Ġdem on
The ta
and er
text tt
ĠT r
The n
] [
E S
ĠR oy
Ġon ce
iv il
4 2
Ġcontinu ous
Ġ\ ;
Ġatt empt
ĠRep ublic
r ast
u it
I M
ic o
Ġmov ed
Ġincre ase
ĠCom p
Ġchang es
ran ch
Ġsc en
v ille
Ġgl obal
os en
Ġbre ak
Ġc lear
ĠE ast
ĠPart y
Ġc andid
G e
Ġbecom es
v is
Ġde cre
Ġd est
Ġestabl ish
g ress
Ġg rad
subset eq
Ġso ft
Ġt aking
ign ed
Ġus er
cl usion
// //
Ġtrans fer
ict ure
Ġdirect ly
d ist
Ġstud ies
ĠB el
Ġmat ter
Ġf em
Ġelect ron
ell ing
s ource
Ġt reat
o ph
Ġcent er
Ġf ather
A fter
Ġpe ak
Ġa ff
v olution
g s
y a
Ġd one
st ring
m it
foot note
Ġ %
au ge
C D
Ġh app
Ġphys ical
Ġthe orem
y ear
E D
Ġproblem s
Ġother s
Ġfrequ ency
Ġge om
Ġep is
ic les
Ġprov ides
ac hed
Ġw ent
Ġn uc
um p
ut il
4 3
erv ice
p en
Ġgo al
Ġpro p
ĠD i
ren ce
l ight
Ġunder stand
ĠB er
Ġw rite
Ġbel ie
Ġfl ux
Ġm ale
A ll
ĠAmeric a
ma g
O S
ri ate
Ġstud ents
Ġdimens ion
d en
Ġc r
ĠM ark
Ġeval u
ul ly
Ġpop ular
Ġannoun ced
Ġs old
at ory
Ġme et
H istory
, "
Ġindu st
ĠN ote
}} ,
Ġad j
Ġen vironment
ĠM od
7 7
l ong
ic a
Ġequival ent
ĠĠĠĠĠĠĠĠ ĠĠĠĠĠ
r up
Ġch annel
**** ****
set minus
ĠM y
Ġ row
Ġ$ |
stit ute
< \
dis play
Ġwork ing
g color
Ġ= >
ens ive
Ġp a
Ġserv ices
ĠPres ident
6 8
^ -
oc ation
ĠM or
ill s
Ġobserv ations
Ġcon duct
Ġcol or
art ment
ĠA ward
r ate
ĠC ouncil
Ġ( $\
Ġgo ing
Ġv oid
& &
ĠP ort
id s
ta int
h an
com p
ĠO lymp
Ġad van
Ġincre asing
Ġun ique
Ġdeath s
Ġreg ions
} /
l ist
Ġpolit ical
ĠM al
Ġar r
Ġres ponse
n ormal
Ġobject s
a el
Ġno ise
N ote
Ġf it
i ers
] .
199 5
ĠEurope an
Ġtra dition
all s
bs ite
Ġset ting
comm and
ĠH ol
Ġe conom
Ġcho ice
ĠSt ud
ĠD r
198 0
Ġ$ -
pro d
Ġdiff icult
r atic
Ġbehav ior
} '
Ġrec ogn
ĠP al
o res
ne ction
ĠĠĠĠ Ċ
Ġsub ject
big g
ans ion
Ġst age
Ġh ref
^{ -\
Ġt ry
Ġvi ol
ly ing
k a
ĠT rans
Ġam ount
le vel
Ġgalax ies
Ġ und
Ġun cer
ch ange
alle l
W h
$ _
ĠC our
Ġb ig
ag ed
B e
ip al
Ġpol ynom
ĠS m
Ġa ward
Ġrad io
att ice
Ġcomp an
5 00
Ġro b
ust om
one y
Ġcrit ical
Ġstud ied
in os
Ġare as
Ġrel ative
n ers
an ish
ell ar
ĠĠĠ Ċ
Ġin ternational
Ġinclud es
Ġnum bers
Ġse arch
ĠCh urch
u el
c an
ĠFran ce
t ra
Ġb gcolor
Ġwid th
4 1
ĠD es
Ġele ction
Ġ Ð
ri an
ĠTh om
ĠG eneral
line width
at al
ĠR ed
ou d
Ġallow s
l n
Ġem ission
Ġin equ
ĠArm y
5 7
Ġdeterm ined
ĠP aul
it es
t ed
Ġt ask
Ġt akes
ĠG erm
M S
ĠD em
ĠJ ames
Ġy oung
r d
Ġ( -
Ġw ords
Ġit er
en ed
ro te
ĠCanad a
Ġder iv
Ġa x
ort hern
Ġm akes
ĠR ober
Ġtyp es
av a
k et
Ġdetail s
oun tain
ta ct
ĠC ont
cl us
L L
T e
Ġinteg ral
Ġm id
_ +
Ġadd ed
ric es
Ġk m
Ġhe nce
_{ (
el ine
u i
Ġconnect ed
Ġal though
Ġun iform
Ġsm ooth
Ġill ust
opl us
l ength
199 4
u racy
dag ger
Ġm ention
Ġpart s
ot ic
Ġsu fficient
omorph ism
) |
ĠQ ue
if old
5 8
as hed
Ġa ffect
. )
sub figure
Ġe ff
enc ies
ĠSt reet
Ġmark et
Ġclass ical
im ate
Ġro ad
Ġt able
U S
Ġquest ion
um ents
Ġoper ators
ren g
b ul
Ġreg ard
i os
Ġsymm etry
Ġch all
Ġdemon str
ĠS um
Ġke ep
cur ity
Ġ( )
Ġresult ing
Ġhe alth
Ġp ast
u z
5 6
Ġwork ed
f lo
Ġsuccess ful
p ath
Ġ$ [
ĠJ e
Ġcom e
Ġl ittle
Ġcon clud
Ġpro ced
as ons
wed ge
Ġinter action
Ġpat tern
end er
d i
9 3
he l
ĠO b
A nd
Ġdatas et
A D
Ġbound ed
ut ive
ĠC ons
Ġcre ate
i ation
in i
C ont
Ġnov el
Ġfor ce
ĠTh at
Ġreturn ed
mult i
( $
Ġp ay
ĠDav id
Ġpolit ic
ĠM a
ou ther
ĠR oman
Ġus es
p ite
I R
ĠL ist
Ġcomp act
Ġd ocument
is es
ĠS en
pa rent
an i
ra b
per p
\ '
199 2
pec ially
Ġdiag ram
Ġstructure s
Ġgra v
r un
b re
_ *
. _
V ert
A B
Q u
Ġin fin
ĠH all
ĠF il
Ġpres ident
Ġspe ed
Ġcur ve
ĠR ich
* {
P R
ag o
ĠB ay
ow s
it ar
id a
ĠâĢ ĺ
Ġrem ov
Ġvari able
p ng
Ġrequ est
Ġg ain
Ġag re
ĠHam ilton
ĠGe orge
du c
outher n
Ã ¶
Ġs ound
Ġits elf
B l
ĠP at
ou l
pa ign
j ection
m essage
t ot
ree k
9 4
ĠCent er
ĠWh ile
Ġrelations hip
wo od
ing u
ĠCh ina
cre te
al ian
d t
Ġp erm
ra z
Ġs amples
] ;
Ġp ref
Ġpart y
ĠG roup
199 3
li er
un n
N ot
ĠM ag
lim its
Ġcont ract
Ġmag n
Ġl ost
Ġapproxim ation
ib rary
k er
8 6
Ġb ox
Ġresp ons
p c
align ed
Ġt ree
re y
Ġ ir
Ġf lo
in ct
Ġg auge
Ġad apt
Ġp ack
Ġsub set
rop y
Ġst e
el i
Ġdiscuss ed
Ġse lected
t urb
Ġ ess
Ġlarg est
Ġac cept
Ġim pact
18 7
Ġl ive
Ġemb edd
is ation
ĠAss ociation
Ġex plicit
text sc
Val ue
Ġcont ent
Ġal tern
Ġ id
Ġexp ression
Ġlay er
Ġcour se
Ġqu al
oc ks
ĠBl ack
Ġform ed
S y
Ġver tex
Ġgra du
Ġm ilitary
St ate
9 2
Ġ| \
Ġst atic
Ġmap s
E T
g ra
F F
ĠL aw
r at
}} (\
Ġthe rm
ĠĠĠĠĠĠĠĠĠĠĠĠĠĠĠĠ ĠĠĠĠĠĠĠ
ste in
Ġ Ã
Ġap point
Ġex hib
oll ary
Ġder ived
c ks
us ed
Ġde al
as c
Ġw rote
and s
mod el
Ġpartic les
en ing
00 00
sequ ently
Ġ }\
d et
w a
M A
Ġinter pre
Ġde cl
er ve
_{ {\
c ial
Ġsupport ed
bl ack
Ġsche me
st on
Ġrele ase
Ġus ually
f ile
es h
rodu ction
Ġre ve
, âĢĿ
rr or
is k
Ġact ive
M C
Ġl atter
ĠPro position
col on
Ġlik ely
Ġpartic le
Ġopt imal
Ġmot ion
ab s
Ġuncer taint
Ġexper iments
Ġra il
ar ing
S P
al d
Ġrema ins
# #
ash ington
O ne
Ġdynam ics
Ġre ach
ĠG o
Ġloc ation
), \
ĠUn ion
Ġsim ulations
197 0
ĠDiv ision
x y
Ġjo ined
b our
Ġch arge
g ing
ĠRoy al
Ġneg ative
ĠL ou
Ġspect ral
Ġmod e
Ġwh ite
s pec
-------- --------
a res
h and
ĠF l
Ġ rac
Ġn odes
)\ ,
{ $\
Ġs eg
ĠGerm any
S up
Ġm arried
Ġ Â
Ġde fe
f it
Ġsp at
Ġpol icy
he st
Ġdesign ed
Ġver t
Ġc os
Ġmed ia
for all
8 9
Ġup on
Ġredu ced
Ġs ense
Ġcol lection
I s
iv ial
et ic
Ġdire ctor
ĠN or
ac ing
Ġf av
Ġm ar
Ġt en
Ġd ark
ĠO ur
ĠZ e
sh ift
od ing
ĠAustral ian
5 1
Ġto wards
ous ly
Ġper turb
Ġfram ework
Ġmeasure d
Ġexp on
ran ge
Ġfollow ed
199 1
Ġun its
Ġcoupl ing
F T
Ġteam s
Ġh yp
Ġb ar
Ġla un
Ġdirect ed
h y
iz ations
Ġin f
Ġform ula
p ers
) }(
Ġpres ence
defin ition
Ġch osen
Ġde ep
Ġcommun ic
b a
Ġob ser
am s
ub e
Ġf ront
ĠD o
Ġor d
Ġpol ar
Ġnumer ical
S I
" /
ist ry
Ġk ind
w rit
W hen
E E
is ms
ĠM art
ĠP o
ĠT V
g in
Ġp ers
Ġrad ius
Ġext ended
Ġst reng
d ro
Ġst op
Ġcompar ison
b o
Ġsim ply
ag er
Ġd ra
ĠD uring
Ġsatisf ies
Ġpre c
ac ity
Ġwe bsite
il arly
ant ic
Ġlead s
Ġclass es
Ġst ri
ĠN ot
Ġar bit
Ġd raw
5 4
Ġdou ble
ĠU K
k i
ol s
ĠHe re
Ġfig ure
Ġexp ansion
Ġeduc ation
Ġacc uracy
Ġam plit
Ġpan el
ĠG reen
N et
Ġpa rent
5 2
pend ix
Ġprofess ional
Ġopen ed
Ġs ays
Ġnetwork s
Ġh on
ĠIn stitute
Ġrepresent ed
_{ -
Ġmin imum
ify ing
ĠH ence
it tee
Ġcomplet ed
L O
ĠM usic
Ġout side
b oard
ĠCour t
Ġadd ress
Ġsong s
Ġwho le
Ġch arg
Ġrecord ed
de red
w ell
ask et
Ġac qu
ĠDep artment
Ġmin im
umn i
ĠRe f
Ġad opt
" );
Ġclust er
ww w
Ġad minist
Ġmoment um
Ġv ict
Ġde but
k m
Ð ¾
at us
ma in
) /
Ġcontinu ed
Ġcon cept
ĠRo ad
te red
Ġch ain
ĠE m
ĠSy stem
li ament
Ġcontrib ution
pt ions
Ġv an
Ġn orm
' \
ro y
d o
sub subsection
ffic ients
ro l
) ^{\
htt p
or ing
el es
Ġmater ial
v ol
b ody
ro s
Ġcorre ct
} %
Ġsc ore
ens us
Ġre ference
Ġneed ed
ĠAc adem
9 1
5 3
Ġm ach
iqu es
' _
ay er
Ġs cre
Ġad v
P r
Ġim medi
Ġnecess ary
Ġl attice
ag ing
ac c
Ġa ud
ir m
Ġinvol ved
Ġexp ress
Ġm ove
Ġvol ume
Ð °
Cl ass
T est
Ġallow ed
err or
Ġform ation
= (
ĠM ary
th ing
inde x
Ġw ord
Ġad m
Ġes pecially
Ġprevious ly
ĠC O
Ġbel ong
Ġcons ists
= #
in y
S C
i ew
Ġthrough out
ines e
ĠF urther
8 4
Ġf ile
Ġch urch
ur l
Ġd augh
on a
Ġf raction
ĠB o
f low
ĠH en
Ġvert ices
gorith ms
Ġapplic ation
un ity
Ġestim ated
bur g
Ġcorrespond s
E q
Ġknow ledge
ĠW ashington
ollow ing
ĠS ing
) _{
Ġg ot
ĠF e
ĠĠĠĠĠĠĠĠ ĠĠĠĠ
Ġpl ane
P ol
w ar
Ġoper ation
Ġmeasure ments
Ġcompan ies
Ġlim ited
$ ^{-
ĠM at
ĠV ir
Ġoper ations
Ġcomp ute
}$ -
Ġ/ **
r as
ri a
6 3
ĠS ociety
ĠM ex
ĠI m
sim eq
Ġover all
Ġide a
S im
Ġmon ths
Ġar ray
pm atrix
Ġra ce
Ġaut om
Ġbro ther
om in
Ġtrans port
$ ;
M an
Ġorig in
O T
n s
: \
b ook
ĠComp any
ĠS ub
ro id
Ġde part
Ġb ene
rie f
res ents
ve x
Ġon line
Ġh tt
res hold
Ġthe ore
Ġconsist ent
Ġinequ ality
Ġprim ary
,\ ,
Ġmod ern
Ġassum ption
Ġlevel s
ĠS ur
198 9
n es
Ġgener ally
Ġbl ue
L A
Ġed ges
Ġiss ue
Ġdet ection
est ival
Ġh ol
is ions
d eg
at ur
âĢ ¦
Ġconst it
ĠIn ter
Ġsh all
al a
Ġqu ality
Ġass ist
s m
ĠĠĠĠĠĠĠĠ ĠĠ
ĠJ ack
ar p
c ases
Ġconstraint s
N ow
et imes
P C
Ġdescrib e
ĠSc ott
Ġd ed
Ġdec ay
) ^{-
}^ *
se y
Ġsh ape
Ġt rac
\ _
app ing
at form
He re
ac her
cl es
D F
ul s
Ġsign ed
"> <
Ob ject
og le
Ġrun ning
Ġoff ice
Ġ+ \
O r
Ġre n
Ġappe ars
re ater
ove red
Ġrele v
ann ing
Ġlong er
ĠW il
ĠAr ch
Ġeff ort
t oc
Ġs il
ĠE ar
E qu
v a
Ġr ule
m es
ĠIn t
ad o
i en
ĠS am
ym pt
Ġneigh bor
o ice
) {\
5 9
Ġf ire
Ġs us
eder al
semb ly
z ero
Ġm other
ĠG ames
ess ion
I G
ad a
Ġde b
Ġcalcul ated
eth ing
ĠIs land
8 3
Ġsim ulation
ĠL eg
Ġre ally
p ress
ĠV ol
I m
) {
Ġappe ared
s ol
6 1
Ġn ight
il ies
Ġav oid
ĠP ress
Ġins ide
iver se
Ġdec ision
ĠSc ience
ĠR uss
ĠPro v
Ġex amples
ĠC ap
as ks
}) ;
ent al
ĠA lex
Ġhim self
Ġst ra
8 2
Ġsim pl
ar c
Ġcoe fficients
Ġw ife
.. ..
Ġcho ose
Ġd ual
Ġcam paign
Ġp ie
Ġsy mbol
Ġdis play
Ġy et
ĠS l
Ġl at
Ġfor ces
198 8
Ġcorrel ation
Ġf ace
196 0
= -
ĠB est
Ġplay ing
ĠMore over
Ġsl ight
Ġcont rast
6 2
ar an
$ ).
ĠM et
ĠCl ub
il ib
^{ +
S U
Ġexperiment al
re es
Ġcurrent ly
Ġiss ues
T r
ĠCl ass
Ġeas ily
Ġs low
) );
Ġco ach
Ġstart ing
M L
Ġ\ (
Ġform s
h i
el er
P T
vers ion
htt ps
ric e
Ġn ature
che ck
8 1
Ġd ig
og ene
Ġf all
Ġsc atter
De f
Ġ! =
H owever
Ġdeterm ine
ĠR ad
ĠG old
Ġran k
ĠRes earch
Ġprocess es
.~ (\
Ġinterest ing
Ġpress ure
ĠKing dom
ĠCanad ian
U T
re p
Ġdistrib utions
Ġper cent
Ġbeh ind
g ent
Ġcontro ll
Ġproced ure
Ġacc om
Ġrep resents
O ur
Ġev idence
Ġa im
Ġf ully
it a
Ġqu ar
u an
ĠT ur
Ġden otes
Ġoffic ial
pl ace
Ġass ert
r c
Ġres olution
Ġc ast
r ish
N e
Ġt ro
ĠM ad
Ġrepl aced
T rans
st ant
Ġde com
Ġgrow th
ĠJ er
Ġro ck
Ġse lect
un k
bul let
F A
Ġb all
}} ^
Ġg ave
i ences
Ġear lier
Fig ure
ĠM iss
ĠD ire
Ġprof ile
"/ >
ern el
ĠT ex
Ġliter ature
d r
asket ball
ĠCent ral
Ġbir th
Ġrequ ires
Ġe mer
Ġact ually
C T
fe red
ĠT own
Ġapplic ations
Ġl iving
ĠB en
= {
st o
ĠC ong
st ack
al and
od ot
Ġtra vel
Ġs ampl
s u
Ġhy per
Ġscal ar
6 9
Ġal gorithms
ĠAfric an
ri z
con s
i ency
198 7
am ily
Ġtra in
ak er
Ġsh ip
} )$.
F orm
Ġdesc ription
ol ar
Ġapproxim ately
Ġ= \
Ġm icro
ĠRober t
Ġuse ful
) }{\
Ġ// /
Ġident ity
Ġdis k
ĠG ra
Ġpract ice
Ġalbum s
$ $\
Ġfram e
ĠM er
y e
i ra
Ġj ob
ri um
F C
re me
Ġb oard
Ġst ellar
ĠJapan ese
Ġe ver
Ġcur ves
$ (
Ġst ated
)\ \
ou ri
Ġlist ed
ĠM useum
Ġpro per
ĠS al
Ð µ
Ġfact ors
ĠS pec
ĠAfric a
Ġt ensor
ĠWh ite
Ġhig hest
Ġ ensure
M ore
Ġt er
Ġsignificant ly
Ġj ud
ĠDem oc
S O
Ġspect ra
Ġrema ining
ĠThom as
ĠMich ael
Ġincre ases
et t
ĠM ac
Ġve h
\| _{
ĠR ussian
Ġsqu are
Ġsh ift
Ġarg ument
Ġcomm and
ĠG reat
ed y
Ġexp and
ir al
Ġst eps
ĠC ath
Ġn ames
ĠB ur
sequ ence
ad er
Ġd rop
y mm
Ġang le
Ġcateg ory
c ase
Ġsp aces
in put
osp ital
Ġcom es
Ġche m
Ġexist ence
. $
f ree
Ġmain tain
ot hes
ĠS ome
C H
rib ute
' );
ĠJ ew
an o
ĠD ay
Ġw ide
Ġclass ification
N o
Ex ception
Ġmem ory
Ġe ast
Ġex cept
Ġfound ed
en a
ĠY ear
Ġdepend s
Ġm ole
y r
Ġthough t
Ġc ore
Ġd am
i h
Ġocc up
pro du
ĠAcadem y
Ġrun s
st ra
Ġ ~
T ime
Ġatt ention
n eg
al g
l ink
it i
ĠO ther
Ġprodu ce
Ġw est
Ġ ;
Ġfor ward
z a
p x
Ġelect ed
Ġneed s
ict or
198 6
\ "
y ond
Ġse lection
d x
m atrix
Ġdepend ence
ĠGa ussian
Ġus ers
w est
E rror
Ġra p
Ġon es
}} ^{
ĠG rand
ĠH istor
ĠD an
F irst
Ġagre ement
se ud
u a
ĠW ork
Ġt ax
if ier
is hes
el ves
ĠK e
S p
Ġschool s
Ġepis ode
b on
Ġh ous
Ġmiss ing
et her
Ġsur v
ol f
Ġtrans l
he ight
b in
h om
G et
Ġqu as
N R
ĠRec ords
ĠM o
pert y
ĠK ore
omorph ic
ad ing
Ġcomput ed
rem ark
Ġright s
m ann
)$ -
in v
Ġspat ial
~ $\
Ġl ove
Ġqu ad
Ġf un
ough t
col umn
Ġappro aches
Ã ¤
t ri
Ġc ounter
Ġcons erv
ĠSe cond
Ġfootball ers
Ġfe ed
ĠN ow
Ġle ague
Ġhe ight
ind er
ĠIt alian
Ġin j
Ġpol ice
multi row
Ġintrodu ce
ĠF ound
Ġl ack
Ġor g
th let
b i
Ġb ur
Ġpl aces
Ġr ates
Ġmod es
Ġcons id
an ks
Ġappoint ed
Ġcour t
Ġe ight
B S
198 4
Ġexact ly
Ġprop ag
ĠSum mer
Ġf ill
Ġcharact ers
Ġext ension
ĠT om
ar r
Ġinv ariant
Ġp aint
M P
Ġto ur
Ġm us
F L
Ġd ate
Ġincre ased
Ġeas y
Ġrecent ly
plic ation
Ġse ven
Ġb ooks
Ġsol id
it able
Ġexper ience
ĠW estern
ad es
anc ial
r ons
new line
Ġpair s
Ġre ached
duc ation
Ġc ustom
} &
ic ity
ĠP et
Ġcos m
ĠJ ust
Ġvari ety
Ġess ential
Ġident ified
w in
Ġcon nection
new command
Th us
ĠCh inese
M e
ĠR ail
Ġconfig uration
ĠTe chn
E ng
Ġdaugh ter
u ations
Ġf ast
Ġmat rices
m ission
in f
T R
ĠSup er
ĠChrist ian
ĠO ff
O ver
Ġin cor
ĠTex as
Ġj ournal
Ġstrateg y
ĠT or
Ġconc ern
ĠCar ol
Ġb ul
Ġwrit ing
az ine
Ġsymm etric
198 5
Ġnew s
t em
ĠMin ister
Ġrelev ant
Ġ&= &
Ġconstruct ed
Ġs ports
ĠLou is
Ġgalax y
S ub
re land
Ġm ix
Ġal umni
A ss
val ues
Ġmention ed
id ents
Ġcol lect
ell s
ta g
Ġevent ually
3 00
Ġfri end
in em
ĉĉĉĉ ĉ
er ia
ch o
7 6
ut ing
Ġconver gence
Ġproduct s
Ġassum ed
il s
Ġh ot
Ġwh y
esc ription
7 2
Ġr ules
Ġpolynom ial
ĠZe aland
Ġcon cent
t z
ĠVir gin
==== ====
Ġgu itar
à ¤
Ġsom ething
Ġp age
ĠFran cis
Ġj oint
F urther
Ġext ract
Ġerr ors
Ġdist inct
Ġb it
if ically
Ġtechn iques
sum mary
pro b
` `
Ġan ti
Ġestim ates
Ġmean ing
Ġim m
ir ing
ĠDe f
g raph
Ġdom in
Ġan t
ir l
art s
pro position
ĠNew s
Ġcon tact
Ġhor iz
m en
ĠA ccording
Ġsing ular
) _
ĠM ont
The orem
Ġf ight
ĠChar les
map sto
a ur
f ess
I P
\ {\
Ġyield s
Ġart icle
Ġpol y
Ġstra ight
Ġpl ot
c ome
g g
et ime
ĠH ow
Ġas ympt
Ġhigh ly
e ed
Ġreve al
Ġqu ite
ĠOlymp ics
Ġth reshold
ap ter
at re
ĠO ut
ĠSt ring
U R
Ġin ner
c a
f il
ilib rium
v ement
ĠR ob
Ġnot ed
d im
Ġinter actions
Ġor b
ĠM us
Ġcount ries
Ġarbit rary
Ġelect ric
ĠAl though
Ġto day
vent ion
Ð ¸
Ġre pe
Ġqu ick
ip p
S M
Ġlead ers
Ġindust ry
7 8
ail y
un t
Ġauth ors
Ġg overn
is her
ro t
uth or
Ġth ings
Ġs aw
om a
Ġopt ical
L P
ĠF ootball
ĠF ore
c el
Ġexist ing
ĠJ ose
k l
Ġkill ed
pon ent
Ġth row
Ġpl aced
irc raft
p at
Ġperson al
H z
le ase
Ġmeasure ment
R eg
ĠD el
Ġst able
Ġl ot
Ġfem ale
( ).
ro ad
os ing
sk i
trans lation
( (
198 3
us ing
Ġ$ $
$ ~
Ġfe el
Ġst ream
Ġb ranch
E nd
pr int
Ġform al
Ġbuild ings
ĠG od
p aramet
) +\
ag raph
Ġfour th
com ple
Ġobser ve
now led
Ġrel ig
el t
od er
ĠL ie
re al
Ġvis ual
Ġanal og
Ġ ?
Ġhe avy
is l
Ġparticular ly
ic an
the n
ĠSm ith
}{ *
we ight
ex ample
Ġcontrib utions
Ġe fficient
Ġ ...
ĠC am
Ġorig inally
l ocal
ri al
Ġp en
ot o
ĠG al
ĠL and
ab ilities
r ich
Ġbas ic
" ;
ament al
ĠD on
iz er
Ġto urn
198 2
B A
ĠL at
Ġbegin ning
Ġf ood
Ġcontain ing
ĠB ill
ar ian
ĠHamilton ian
Ġext ra
Ġst ations
Ġpl ant
Ġre const
ist ical
Ġsit uation
Ġcomput ation
ĠD en
Ġm oney
am ely
Ġg old
n b
Ġfin ished
t ik
p p
Ġcomp are
ĠS aint
ic ago
ĠF lor
ol a
k es
s pect
Ġse x
Ġc op
sc ill
Ġin ternal
L S
K ey
Ġl um
re c
Ġfam ilies
Ġinst it
Ġabs or
Ġ ult
ib ly
} }$,
Ġappro p
Ġb inary
ic on
Ġcomb ination
rough t
h al
A G
ĠPar is
Ġstat ement
Ġsem i
as tern
Ġmon th
Ġrel atively
Ġr ing
l am
over y
Ġcomplet ely
ĠH ill
Ġarchitect ure
k in
ĠP ublic
se ct
Ġcon sum
ĠIs ra
ĠP eter
ffic iency
Ġs en
Ġsc ient
7 3
' (
C S
ĠL ake
he mat
ul ate
display style
reed om
T E
- $
ell i
ĠSc ot
Ġart ists
Ġchang ed
) },
ĠR em
Ġtradition al
idd en
19 50
m c
+ +
Ġequ ip
Ġan im
() );
}{ |
Ġc ivil
ĠAl so
Ġinst rum
Ġv s
st ance
Ġun ivers
7 4
ag s
Ġredu ce
Ġfl at
Ġve ctors
Ġimpro ve
ĠM ass
ĠT wo
Ġh it
O ut
T V
ing er
} }$.
Ġc red
Ġtra de
ĠFran k
Ġreg ime
| _{
ĠM el
ot ion
Ġchall eng
Ġread ing
Ġst aff
Ġtrans formation
Ġtreat ment
Ġplay s
} )$,
ĠRich ard
u ge
Ġb al
ĠC D
197 9
Ġman ifold
ec ause
Ġcirc le
M M
ud es
ter m
k o
Ġrepl ace
Ġdiscuss ion
ĠB rown
Ġor ient
T able
it ors
Ġcandid ate
pa ge
Ġh ours
ann ed
Ġmagn itude
Ġprov ed
Ġcoordin ates
Ġun ion
Ġp ure
Ġtem por
Ġmed al
N S
Ġshow ed
Ġex am
tik z
Ġcaus ed
Ġslight ly
Ġb rief
Ġn om
Ġt or
Ġpl atform
Ġc amp
ĠIt s
pt y
rib ution
Ġm orph
7 9
Ġinflu ence
Ġv ac
b an
ĠO ffic
ab ase
Ġo scill
O M
Ġm unic
ell a
ĠD is
C E
raz il
Ġg reater
i pl
a o
id ae
b el
ill a
en ge
ĠW omen
ĠP an
Ġcompet ition
Ġv irt
The se
Ġag ent
Ġb ottom
l ig
c ular
Ġgrad ient
Ġm essage
Ġopt ions
Ġsh are
ĠU nder
Ġtyp ically
Ġsatisf y
Ġcomb ined
C P
S pec
Ġm arg
Ġgener ation
p ublic
Ġpar allel
b u
Ġsc ience
ĠH istory
In ter
ĠL os
ĠCath olic
}$ )
Ġscatter ing
G B
om ic
it ter
ip age
vi ation
ĠD u
and a
Ġcell s
R equ
Ġtra ined
Ġc ry
ig an
min ipage
Ġso on
B ut
C o
198 1
Ġstreng th
p ack
m as
Ġlin k
Ġgener ate
ist an
Ġpredict ion
) -\
Ġse curity
Ġtechn ology
c ong
ĠSp anish
ĠI reland
Ġse ems
ĠComm ission
Ġinter val
Ġinteg er
) }_{
o ke
tr ue
O f
ed s
Ġoptim ization
ĠV ictor
' }
Ġobserv ation
c ref
Ġstat us
Ġv oc
Ġres on
ĠE qu
Ġv ary
N A
Ġw alk
Ġcal c
Ġfin ally
Ġother wise
h bar
F e
Ġet c
Ġsoft ware
Ġ er
Ð ½
en ch
f ram
: }
h box
ĠC ur
pl ate
Ġamplit ude
S te
m ma
ott ed
$ ),
av al
Ġb r
Ġbe yond
Ġp ick
Ġ },
Ġact ivity
ĠP ri
I ON
}( {\
s ur
Ġth ick
ob ile
Ġacc ur
ell ed
Ġdec ided
Ġdistrib uted
ĠF in
pe ople
Ġpre m
) )$
Ġmin or
Ġmanag ement
mod ule
ĠL y
n el
Ġnot ation
Ġ$ |\
Ġbe am
S he
Ġb ring
Ġcontin ue
Ġcom mer
t es
ran e
G C
Ġcap ital
Ġse em
N ode
for ce
res ult
Ġdep th
Ġwrit er
7 1
Ġsur round
Ġstrong ly
Ġrec all
ĠS ervice
C ons
Ġmod ule
Ġd u
Ġsepar ate
act ive
Ġmeasure s
i as
197 6
Ġc ause
Ġan sw
Ġconclud e
Ġ );
et te
qu are
und le
Ġ/ *
Ġtyp ical
Ġrema ined
m ass
rup t
Ġp hen
Ġart ist
it le
op ic
le ctions
ab il
fin ed
~~ ~~
Ġax is
ĠS ta
Ġ ]
Ġw a
ĠG overnment
c s
Ġst rict
ann els
Ġmov ement
oc key
Ġm iddle
Ġs plit
ĠE ach
Ġmechan ism
Ġnear ly
air s
Ġdef ault
F ile
S o
ĠL u
Ġhy dro
ĠFil m
Ġachie ved
P er
ĠHen ry
ogene ous
Ġmass es
ĠS un
om y
ud d
Ġ ,\
Ġexp ressed
Ġindic ates
ire ct
p icture
ut ch
197 2
Ġdev ice
Ġdifferent ial
ms elves
Ġabs ol
ish op
ĠSt ar
197 8
g rad
Int roduction
v in
cc cc
ap ers
Ġcrit ic
Ġredu ction
Ġw oman
ĠR ock
I V
et urn
Ġt asks
Ġseg ment
back ground
Ġg reen
ot ing
ĠP enn
H E
less sim
Ġlead er
ĠM il
O D
Ġc arried
Ġposition s
ĠS et
Ġb ank
Ġimmedi ately
Ġsom etimes
Ġc ard
u fact
i ro
{ {
ĠB us
ĠO f
197 7
at o
sh ire
Ġt im
Ġindu ced
197 4
( ))
Ġg ap
Ġor th
Ġmach ine
ob ject
ĠCh icago
ĠFor ce
e f
Ġon to
Ġcol lege
h as
ĠV er
Ġlay ers
Ġb rought
g u
g a
Ġro om
Ġdetail ed
lo od
197 5
ch ar
Ġthe mselves
Ġnuc le
g n
Ġcult ure
P E
Ġfeature d
Ġmat ches
B uild
Ġtheore tical
C an
_ -
Ġpolitic ian
[ ]
ĠT ime
Ġtherm al
ĠO ver
cur rent
Ġw or
" :
Ġaward ed
Ġident ify
Ġcoll abor
sy stem
Ġr isk
Ä ģ
ĠS wed
M R
s ch
f ort
pt on
Ġcle arly
Ġp urch
velop ment
av el
n y
Ġinterpre t
Ġmin utes
ĠArt s
or age
Ã ¨
e ch
it ation
ĠM em
ul ed
cret ary
ĠT w
ĠHe alth
ole an
ĠO pen
Ġmin imal
/ **
Ġan c
Ġmov ing
Ġmajor ity
bl ue
ĠF inally
Ġf ix
ĠAn n
Ġp ain
The refore
ĠVirgin ia
cont in
Ġ util
Ġbehav i
Ġa ircraft
Ġdifferen ces
f aces
Ġg un
Ġgraph s
Ġp ark
Ġres ol
j o
Ġpres erv
ov iet
Ġas pect
ĠS a
ĠIt aly
Ġhyp othes
ad y
Ġman ufact
Ġ( "
em por
ĠFound ation
Ġ ener
ag ement
S er
Ġab ility
Ġun known
Ġg rand
ĠI ll
Ġh arm
( ),
az z
Ġcon vex
4 00
Ġs ch
ĠPar liament
Ġpart ition
S D
st ream
Ġcy cle
Ġcom ment
Ġachie ve
ĠGe org
g ener
Ġide al
Ġpr int
r ical
Ġa mb
Ġ$ {
[ (
or ial
ĠB r
| }
os h
Ġm ur
Ġscal es
Ġclust ers
ĠH ig
g reg
Ġincor por
ĠC ast
c r
ill er
che n
P ath
Ġcap acity
ĠComm ittee
ian o
&= &
if feren
ĠCong ress
Ġcom ing
Ġmain ly
}{ (
E arly
ĠO per
ĠS pace
Ġconf ir
Ġk ernel
Ġc ru
ĠFlor ida
ĠB re
ĠMex ico
C A
Ġce le
Ġang ular
Ġsit es
ĠI II
Ġg rant
Ġsh ot
Ġinst all
}{* }{
Ġo dd
Ġflu ct
M ar
Ġ[ \
om etric
g ies
Ġcalcul ations
Ġfil ter
E d
ve re
Ġbound s
Ġg rid
Ġuncertaint y
ĠK n
Ġpro port
197 3
Ġb ad
A dd
Ġs n
ĠAt l
ph ant
M ed
ĠM ost
Ġmost ly
pre c
ĠT est
Ġtourn ament
Ġp ow
ven ue
ĠFurther more
Ġindic ate
Ġper fect
Ġcomplex ity
Ġocc urs
r ong
Ġexpon ential
196 8
ĠF orm
Ġex ternal
F inally
i ant
Ġse ctions
Ġlo op
Ġcontain ed
d frac
ĠM ax
b ed
Ġh ole
Ġrot ation
or a
Ġp ix
S ch
Ġto ld
1 000
ĠAng eles
toc ol
ĠL in
E vent
Ġmass ive
M ap
Ġstud ent
Ġsc ored
,\ ,\
T ext
are er
ult ure
Ġro ot
ib li
Sy stem
Ġinitial ly
Ġm ut
ol k
un ct
Ġ= ==
tabular newline
ĠE mp
}} _{\
ĠChampionship s
r or
Ñ Ģ
y an
Ġc orn
: =
ĠOr der
Wh ile
ĠC a
Ġdecom position
Ġc opy
Ġhouse hold
\ }$.
Ġc ov
ĠF estival
, $
s uch
Ġestablish ments
wh ile
Ġs ure
Ġupd ate
] $.
an cy
l anguage
Ġm ixed
j e
Ġden oted
Ġst ay
flo or
Ġin n
A tt
y er
or ation
Ġbroad cast
ĠS il
O ther
P I
^* $
re a
Ġa ctions
Ġfund amental
Ġdiv ision
ĠRuss ia
Ġsp read
it ivity
$ _{
Ġrefer red
Ġsyn the
pos es
Ġappear ance
c d
Ġle ave
Ġcomput er
/ *
F ield
Ġop port
Ġorgan ization
Ġcoe fficient
ĠIn st
Ġconsid ering
Ġdis crete
Ġe arn
Ġsing er
Ġpass ed
Ġent ropy
Ġcent re
al ysis
Ġt alk
}} )
Ġpur pose
di ag
pect ed
c f
S R
n um
ĠO h
] }
ve e
Ġcar ry
Ñ Ĥ
aw a
on ical
s he
Ġrema in
; "
197 1
Ġdist ingu
Ġdatas ets
e ks
Ġstat istics
Ġapprop riate
Ind ex
V iew
im a
Res ults
Ġtra ject
Ġcalc ulation
E lement
ar iance
af ety
rel ated
Ġinfin ite
def ine
G roup
ir it
bm atrix
ĠG r
Ġf air
Ġb asketball
c ript
Ġpart ial
at ically
Ġh um
Ġfunction al
Ġfin ancial
Ġmed ical
//// ////
or al
D P
ĠK ar
Ġext rem
o z
Ġass ign
Ġex change
ay lor
Ġprob ably
$ :
Ġestim ation
N otes
Ġe fficiency
Ġl if
ĠT er
d es
res h
Ġprogram s
Ġle mma
ĠS k
Ġrap id
h ost
Ġwin ning
Ġpre vent
ov a
Ġphen omen
i xt
ĠB ig
Ġsum mar
ĠP re
ĠW hat
so ft
Ã³ n
c ount
ĠJ ac
Ġactiv ities
Ġphys ics
j s
it ely
ian a
ug by
Ġb order
Ġgu aran
E M
Ġdimens ions
Ġth reat
Ġremov ed
Ġwind ow
f irst
Ġgiv ing
Ġcommunic ation
Ġl ies
ma ge
pa re
ic ated
ĠS ol
ĠH el
ĠL ag
Ġpo or
ĠPe ople
t wo
Ġaltern ative
Ġw ays
ĠB oard
L T
m ethod
pro cess
ĠIn c
in ner
Ġex cit
Ġinter view
Ġ ion
ĠSe e
196 9
I F
][ ]{
D A
' :
ĠA wards
Ġtechn ique
Ġact ual
Ġpro ceed
Ġscal ing
p o
In fo
ach ing
ict ed
Ġn il
Ġrob ust
Ġ$ .
Ġsub t
i able
ind ing
Ġlo ad
ĠT our
h ab
Ġscen ario
Ġnuc lear
Ġlum inos
Ġgo es
$ };
ĠM ur
Ġb in
il ed
onal d
Ġopen ing
Ġre comm
w ord
nb sp
ĠSer ies
ĠE v
pa in
Ġgeom etry
Ġwrit ers
Ġdis e
ĠL i
ĠCarol ina
on ly
Ġas ked
Ġlim its
B ar
Ġo ption
Se ction
os c
j a
Ġref lect
196 7
IN G
Ġsp ent
res ults
ĠMart in
Ġpro gress
Ġp seud
c ore
h ouse
] $,
ĠR el
) }}
Ġch annels
Ġsatisf ying
Ġsur vey
he rent
ĠC re
ĠU sing
ĠM ount
ip ality
ĠP ost
it iz
M em
atal og
Eng lish
Ġhtt p
not es
Ġro ute
et ween
Ġsu ff
all ery
Ġc a
w an
p ir
. </
Ġb right
av en
math op
ĠW al
s is
Mod el
ĠM r
if ies
| }{
Ġimplement ation
Ġdou b
U N
ĠH a
Ġequ ilibrium
l aw
Ġshow ing
Ġweight s
C he
Ġco ol
Ġcy cl
m et
C ar
en ess
ĠG et
ĠN avy
U sing
stit ution
ĠT imes
b ottom
sy l
ĠO ld
J ohn
Ġleg al
Ġgo als
ch ang
Ġgen us
ĠN etwork
ĠE ducation
ĠB razil
sk y
Ġar rang
ĠJose ph
Ġim p
ic ks
Ġmeet ing
Ġ ^{
Ġsum mer
rick et
ĠP ac
Ar ray
Ġhe at
ĠS M
D uring
Ġeval uation
Ġm ission
ĠEar th
as ion
ck nowled
Ġsol ve
ĠB ob
}) }
ĠO l
Ġsub group
O P
pi red
ĠL ove
Ġte acher
ad ium
15 0
Ġac adem
Ġdepend ing
ĠB as
Ġro ugh
194 0
van ia
ĠAs sum
en ced
Ġm ind
Ġvari ation
}} }\
ro ph
for ward
j i
Re c
Ġoff er
pa ir
at i
ĠL ine
ĠSte p
h ing
ĠW ales
P art
Ġprov iding
Ġwhere as
196 4
Ġmanag er
Ġdeg rees
.. .,
Ġact or
ell ig
ar se
Ġ rang
ĠU p
Ġne ural
ys et
ĠEng ine
Ġstat istical
fin ition
h ar
fl ict
ĠScot land
ynam ic
S F
194 5
ĠB oth
ĠL ong
ĠW ood
as er
Ġact ress
ĠI rish
cl os
ĠF ort
Ġf ine
Ġacc eler
ĠH aw
C ode
ĠJ o
Ġfore st
Com m
) )\
Ġw all
Ġeconom ic
Ġs pl
Ġ{ $
Ġdo ing
Ġred shift
form ed
l ines
Ġneut r
Ġsampl ing
Ä ĩ
Ġr ise
Ġdest roy
al gorithm
t frac
ific ations
Ġdem and
Ġph il
Ġent ry
-- -
Ġdid n
C or
Ġpro jection
Ġd ust
big l
Ġquest ions
Ġcalcul ate
com ing
Ñ ģ
W hat
Ġed ition
ĠL ife
Ġre v
AT E
con dition
}) =
ore n
b as
fe fe
Ġunderstand ing
Ġ\ ]
Ġf oot
ĠC amp
Ġ\ !
pos ite
Ġres ources
ĠB ank
p g
Ġse ctor
A F
Ġcon j
}[ \
Y ou
par agraph
ok en
L a
Ġneighbor hood
ĠY oung
Ġvoc als
' re
im age
A ccording
Ġindividual s
abl ed
Å į
C R
t w
h ol
ĠAp pendix
Ġbelie ve
S ervice
el a
Ġse asons
}_{ -
ust er
in et
B ack
empt yset
sy ch
z er
19 30
Ġcompos ition
Ġcharacter istic
Ġor bit
yp es
Requ est
Ġcompos ed
u ous
vert ed
Ġm is
ifferen t
A b
form s
v ature
Ġadopt ed
Ġprinc iple
Ġrespons ible
Ġor dered
Ġdetect ed
Ġsufficient ly
Ġpr ison
ĠD ou
E xt
H T
Ġ( !
arri age
P P
Ġde ad
augh t
}} .
Con text
Ġtest ing
ĠE nd
ve red
ĠĠĠĠĠĠĠĠĠĠĠĠĠĠĠĠ ĠĠĠĠĠĠĠĠĠĠĠ
ĠProv ince
ĠB i
Ġr iver
ĠS ocial
S L
$ &
\ ;
tern et
196 5
ang er
Ġn amely
il ation
a fter
Ġmet al
big r
ma z
Ġchem ical
ri p
ĠA rab
script style
}\ ,\
C areer
Ġpredict ed
Ġend ed
Ġw ood
u um
j oint
ran ts
Ġhe art
clus ions
inal s
Ġsc ene
******** ********
Ġst ore
ĠH on
ĠThe ir
ve ctor
f s
Ã §
Ġfail ed
H and
Ġdes pite
Ġlook ing
ĠReg ister
Ġmod ified
Ġscre en
Ġturn ed
Ġ ign
ĠAs sembly
or ter
d ate
Ġdimens ional
Ġrepresent ations
Ġis land
st ract
Ġ ut
m ond
ĠS oviet
ĠL iber
ĠPro fess
Ġfav or
ĠHistor ic
ul er
Ġcoordin ate
l ap
g r
it an
form al
G L
N ext
ĠPl ay
ibli ography
Ġm aster
Ġquick ly
Ġ ^
ĠTe am
) }_
ĠH y
column width
angu ages
s at
l oc
t an
ĠLe e
k ins
bra ce
Ġc at
Ġ });
tain ed
D M
e ff
a ver
Ġass ess
Ġmus ical
Ġf if
,\ \
ĠI R
Ġstud io
Ġwh om
ĠPro gram
196 6
Ġl ic
O C
ĠSe c
Ġform at
' ]
y es
tot ype
Ġn orthern
ĠF ield
Ġch ampionship
Ġlaun ched
Ġatt ended
ĠCh ief
Ġquar ter
Ġh op
Ġco ast
ĠC ross
R el
Ġs outhern
pos s
Ġinter face
Ġ\ &
amp ion
Ġpr iv
Ġob vious
r ide
och astic
Ġbi as
Ġch ief
bre ak
19 20
Ch ar
ĠCol umb
1 20
Ġrail way
C ell
}) ^
Ġb attle
syl vania
, {\
ĠĠĠĠĠĠĠĠ ĠĠĠĠĠĠ
ans as
ran k
if ts
ak a
medi ate
G N
plic ity
f ont
Ġst ability
b uild
Ġus ual
str ong
ma il
Ġel im
Ġf reedom
Ġwant ed
Ġapply ing
Ġgrav it
ib r
Ġwe eks
ĠR am
[ '
Ġf a
ĠJ un
ult ane
' ;
Ġin verse
Ġcon sequence
ĠJ an
Ġver tical
Ġdoes n
Ġmov ie
ĠN orthern
ult ural
act ic
Ġevalu ate
a fe
und red
v oid
op en
Ġprodu cer
art he
P erson
Ġf arm
Ġelect ro
v est
ĠH ot
ens ities
Ġnumer ous
Ġk ing
st art
Ġrecord s
m iss
x x
ir ls
al i
ĠDire ctor
dis c
ĠVal ley
Ġw orth
i em
Ġed itor
bl ock
ĠS ir
Ġinteg ration
Ġinter section
}} ^{\
Ġb rand
qu ar
C ount
I A
ĠOff ice
Ġdis pers
Ġarg uments
Ġobject ive
il bert
Ġloc ally
ĠT op
Ġnew sp
Ġnon linear
Ġatt ract
Ġrad iation
t rack
P A
ri ed
ĠT im
Ġg ets
l t
Ġcommun ities
rum p
Ġdr ug
Ġqu ery
A m
Ġembedd ing
Fil ms
Ġunder lying
Ġcommer cial
Ġsh oot
Ġex c
P re
) --
Ġadvan tage
ĠJ im
Ġc ensus
Ġf erm
Ġst ruct
Ġa st
C L
Ġcon v
Ġse c
us band
Ġass igned
C M
Ġim ag
Ġbecom ing
z h
ound s
pr ing
Ġ} ;
Ġassum ptions
st ep
Ġdiag onal
Con fig
Ġ ice
Ġband s
ĠMod el
olog ies
Ġm apping
ĠI ran
Ġsay ing
be c
ĉĉ Ċ
Ġinde ed
Ġatt rib
ĠEmp ire
em ic
sequ ent
t iny
igh ter
Ġth ing
ep end
act er
cher s
avel ength
ĠC E
D B
ĠS pain
Ġco inc
val id
] (
ĠB ook
Ġproject s
Ġdi am
Ġfind ing
Ġp rice
Ġfor ced
S ize
ĠA ut
Ġmater ials
Pro of
p ass
ĠW ind
pa red
f unc
al gebra
Ġold er
Ġco vered
Ġplan et
Ġimpro ved
S A
Ġle aving
Ġdes ired
con nect
ent y
st able
ce an
Ġser ve
Ġrad ial
ĠD ata
r ative
b ase
figure s
ĠG overn
Ġcomput ational
Ġb os
Ġrem ark
Ġsh ared
Ġsuggest ed
z y
\ )
Ġsuggest s
int eg
Ġexplain ed
ass ert
Ġdel ay
Ġact s
ĠF red
us er
Ġ/ >
ur t
con fig
Ġann ual
v ari
\ }$,
is ters
def ault
Ġimport ance
od ed
Ð¾ Ð
Ġ â
Ġext end
ature s
Ġmax imal
B ox
T ra
ph as
u er
Ġv ote
Ġp ull
Ġpredict ions
Ġener gies
Ġqu e
phant om
orn ing
B i
Ġab und
ĠS T
( {
Ġinterest ed
et al
long rightarrow
Ġparent s
rop ic
ĠPl an
P op
^{ *
Ġsen ior
cl aim
ĠG reek
Ġmed ium
ay a
Ġoffic er
ĠE r
in du
f i
d y
Ġse a
ĠF C
ograph ic
I L
Ġcandid ates
D is
Ġfri ends
Ġderiv ative
he m
ell er
Ġlaw s
ĠJ ud
Ġdiv ided
ash ion
196 3
Ġc m
Ġj et
Ġs ort
ĠP ak
] {\
Ġclaim ed
Ġit em
ith m
sl ant
e es
ouri er
i ota
ad s
H S
Ġspec ified
s ign
D R
Ġprocess ing
call ed
Ġtra ffic
Ġdes cent
i y
c ut
Ġ$ ,
ĠH or
ap i
Ġdra ma
ĠM en
ĠJ ournal
Ġvar iance
mag netic
Ġn arrow
Ġsu itable
Ġcou ple
Ġcomm ission
p ost
Ġreturn s
Ġdev ices
g ers
ĠM ajor
c at
;\ ;\
air man
Ġres ist
ax is
Ġpie ce
ĠPenn sylvania
om etry
Ġbul k
cis ely
196 2
Ġdefe ated
Ġle aves
Ġord ers
eli hood
st ructure
Ġ{ };
Ġrel ax
M ethod
Ġconst ants
j oy
ĠG ood
Ġtrac ks
Ġdynam ic
Ġown ed
ost on
ĠCent re
Ġst ress
Ġmag azine
Ġpro min
l ocation
Ġdescrib es
O per
pend ence
H ence
}; $
Ġexplicit ly
}$ }
Ġdisc overed
Ġmod ul
defin ed
Ġt ail
Ġ\ (\
ĠInd eed
Ġconduct ed
ĠRad io
} |\
Ġsing les
Ġl ived
Ġra ised
Ġsequ ences
Ġadd ing
Ġdis s
Ġder ive
Ġev ol
Ġter rit
as y
de c
m osp
Ġ }{
ont al
ard en
br as
Ġh ar
tr ivial
ĠIsra el
te en
m itted
ĠL ibrary
Ġasympt otic
ĠDemoc ratic
Ġap parent
empor ary
n n
ĠE lect
Ġmax im
ier arch
h aps
Ġcont rad
Ġn ine
Ġd iver
Ġloc ations
/ (
Ġwid ely
Ġpl ans
at ers
ib ration
Re f
l ad
ild ren
Ġaccur ate
}} =
L emma
ut y
ĠCon ference
Ġallow ing
Ġtre es
ĠB ase
ĠJ ones
Ġar rest
Ġluminos ity
Ġthe ories
Ġinvestig ate
ĠBrit ain
P U
& =\
Ġex pert
enn is
Ġtr ivial
Ġ esc
ĠS uch
A rt
par ison
Ġis ol
= .
Ġl ives
Ġ eth
d el
L ine
in ations
ĠScott ish
ac ent
Ġlabel s
D S
ĠS ar
ĠC amb
\% $
il ing
Ġmark ed
Ġn ation
pt o
Ġcomput ing
Ġphot on
Ġm ountain
a a
Ġatta cks
A g
Ġele ctions
ro sc
b ury
ĉ ĠĠĠ
ĠB ern
Ġsol ar
Ġtop ological
Ġd rum
Ġget ting
re ct
C all
ĠB or
Ġconfir med
arthe ta
Ġcon ven
ĠB al
Ġt rib
v artheta
194 4
ĠK h
Ġex ception
b al
f old
sub sec
ve ct
ĠU k
ĠB ul
ĠS pe
' m
Ġs al
ĠDe velopment
Ġst ories
el d
Ġabsol ute
Ġpro pose
Ġfore ign
Ġtr ig
ur ations
ino is
Ġgrav ity
E l
Ġp icture
ĠL ord
ĠD et
ĠB attle
Ġh usband
Ġdig ital
Ġoff ers
$ {\
arri er
de pendent
ud get
A ct
ge bras
Ġcur vature
) })
Ġra re
Ġv oice
Ġnot hing
Ġgeneral ized
Ġbl ocks
Ġbene f
h l
it ative
p et
bur gh
stand ing
Ġp il
^{ (\
Ġimplement ed
sl ash
Ġcapt ure
m ember
Ġact ing
alt y
Ġtest s
L o
F l
Ġrece ive
ĠW ay
Ġsur pr
Ġnear by
p y
\ }\
z z
Ġdynam ical
h igh
Ġarm y
A ust
} ~
st ruct
ĠMich igan
ĠAs ia
196 1
Ġcl oud
Ġvict ory
Ġf ederal
ĠPro ject
id el
\ |\
med skip
Ġmed ian
cre ate
ĠS outhern
ar ia
Ġsecond ary
Ġpr ime
Ġag ents
w er
Ġcount y
Ġag o
Ġcele br
: =\
ĠM ountain
Ġl ie
G R
ĠC y
R ight
Ġt end
ĠPac ific
n av
cal e
F R
Ġit ems
Ġ_ _
Ġent ered
ĠT re
Ġreveal ed
ĠJohn son
Ġhistor ical
Ġmot iv
C ur
og en
Ġto ol
let s
tikz picture
ult y
ĠCar l
b ot
ĠM ah
Ġcan onical
semb le
ad or
II I
Ġsatisf ied
se cond
ĠC ivil
v s
Ġs ched
Ġs ides
Ġjo in
o ir
il er
Ġl ab
D ist
ĠB ra
Ġtre nd
Ġal one
G iven
plic ations
Ġis omorphism
Ġwork ers
T S
ĠO x
Ġmatch ing
Ġt al
pect ive
Ġhel ped
urb an
os oph
Ġmat hemat
Ġansw er
Ġapproxim ate
not ag
d em
Ġoper ated
ar ks
ĠP rem
fin al
b rid
et ries
m i
Ġe q
uss ion
ner gy
ĠS und
Ġout er
ĠL o
ĠB ow
un it
ens ions
Ġpattern s
Ġtrans mission
Ġsim ultane
d iff
Ġcommon ly
Ġint ensity
Ġtemperature s
[ -
s che
Ġpart ies
up s
Ġd ashed
Ġmag net
al so
uff er
un ing
ĠAs ian
ap ache
Ġ( {\
Ġf irm
Ġprote ct
ĠT aylor
Ġch art
fl u
Ġres erv
ĠT am
ĠJew ish
st one
= '
Ġtechn ical
Ġcharg ed
Ġprinc ipal
ĠSh ow
Ġsign als
] )
ĠS ong
Ġhypothes is
Ġext ends
Ġdepart ment
Ġtrans lation
ĠOh io
ig ation
Ġse at
Ġpre cisely
il a
et ts
ers ion
er ior
}\ |
195 8
D isc
ĠS u
Ġn ative
Ġorgan ized
Ġflu id
Ġre asons
Ġrepresent ing
N ational
E L
Ġemploy ed
row s
un ch
Ġsub sequently
b ell
on to
ĠM ov
Y ear
Ġlet ter
T C
go ing
Ġent er
Ġth in
Ġof fered
ial og
Ġwe b
Ġcon flict
ĠB ecause
red uc
foot notes
yn c
b ro
de v
Ġhal o
ad el
u ing
D es
script size
ĠM u
Ġbehavi our
Ġl anguages
Ġw atch
Ġpro pos
Ġem phas
ĠS om
Ġvis it
Ġquant ities
n ames
Ġst ochastic
er c
Ġtry ing
Ġrecord ing
195 9
m n
D C
footnotes ize
ĠL ab
Ġeffort s
Ġb ass
Ġun iversity
ĠWilliam s
wh ite
Ġsw itch
ĠT em
Ġc itiz
Ġ$\ {\
Ġreport s
Ġo il
Ġrelig ious
Sup pose
od d
Ġinvol ving
Ġfam ous
ĠI N
Ġperform ing
ob s
Ġto uch
a ug
ĠĠĠĠĠĠĠĠĠĠĠĠĠĠĠĠ Ġ
ĠTechn ology
Ġs ociety
c ar
st atic
ĠEd ward
ent h
lo op
ject ive
ĠDe v
"> </
Ġrem ove
ĠR ay
Ġop posite
ch ron
L og
Ġcle an
Ġsh ock
195 6
ĠRep resent
ran ce
ro om
ĠA v
Col or
ĠQue en
Ġvirt ual
Ġfootball er
ĠP op
h u
og rap
Ġmix ing
Ġin iti
Ġcont est
on ia
ĠÂ £
ĠBl ue
Ġf re
O L
ic ed
> \
ĠK ent
Ġsy m
ĠM any
ĠC M
Ġcateg ories
A ut
194 2
Ġdr ive
Ġs quad
ject ed
ĠJer sey
text color
n ol
in ity
+ (
ĠH ome
ĠB u
ĠE ll
Ġident ical
h ire
im ages
gy pt
ĠS and
Ġposs ibility
Ġbelie ved
ĠS oc
Ġturn s
Ġequival ence
pl ane
ĠV i
ĠPh ys
Ġnot ice
ĠC ro
Ġreg ist
ĠG en
g eneral
ĠL em
fin ite
Ġinc ome
G u
Ġh undred
erv ised
ist ent
Ġdeterm in
os a
Ġser ious
" "
More over
ĠGeorg ia
Ġre produ
B rit
194 8
n umber
es ian
Ġenc ou
195 7
ĠT ype
Ġacqu ired
Ġvers ions
ion e
Ġpath s
pert ies
ou te
Ġres ource
or i
Ġcol lected
Ġt urb
( [
Ġgrow ing
p resent
Ġc ities
ach us
Ġem pty
ĠRe view
it age
Ġcon vent
m d
Ġth r
Ġs ister
W ork
ĠFrancis co
ĠIll inois
Ġv on
ver b
S ports
Ġquas i
ab eth
por ation
Ġconsist ing
Ġstart s
we b
Ġpart ners
og onal
Ġact ors
id ers
Ġsub stant
Ġoffic ers
ĠCo ast
set s
Ġpolitic ians
ond er
ĠAn t
; $
Ġoper ating
l ie
ĠF ar
ĠB a
Ġm ill
m t
ru ck
at iv
Ġexpl ore
ap l
ĠEn ter
Ġman ner
R em
is ot
Ġpower ful
1 10
od ies
Ġassum ing
ĠSt and
( -\
Ġveh icle
Ġsub sequent
Å ¡
Ġen h
n am
Ġspe ak
Ġexpl o
re r
ul y
Ġcomp at
ĠIs lam
ĠB ol
ĠA tt
Ġd oc
ĠThe atre
Ġcom pl
Ġpat ients
ĠWil son
Ġserv ing
Ġfe at
Ġregard ing
Ġb ridge
ed ge
ĠG i
ĠS erv
ĠR h
Ġre ct
Ġf le
Ġprim arily
ĠD utch
ĠBus iness
^* (
Ġs afety
Ġke pt
B M
Ġaffect ed
M on
Ġfluct uations
}$ ;
Ġtri al
En t
194 3
ust ain
ic ine
ap pe
ĠK ong
en ant
Ġeigen values
193 9
Ġc ouncil
per iment
Ġd x
: #
Ġw estern
am m
p ic
achus etts
Ġlearn ed
ĠSt an
^* \
Ġro ll
itz er
F I
w ater
Ġat mosp
Ġen joy
ĠG ar
Ġorgan izations
Ġcol on
) ^\
ĠM iddle
ou pl
Ġsu c
equ ations
w rite
ĠT rump
It em
ma ke
Al though
Ġequ ality
Ġsh ips
Ġdetect or
ĠB oston
ĠL im
M in
Ġqu ark
ed ia
b p
ect or
pl ot
ĠD M
er ies
Ġb att
T hat
ĠV an
! ]
reg ular
h ard
ful ly
ct ic
Ġl ibrary
Ġfl ag
Ġm ess
! \
Ġfig ures
Ġpl as
E X
ĠPol and
195 2
Ġprogram ming
Ġdise ase
Ġis ot
195 5
Ġacc ret
ĠG ame
Ġh ope
l en
cl ip
T H
ĠF ollowing
flo at
Ġsp ac
in st
Ġden se
Ġinter act
Ġtra ce
Ġcapt ured
Ġag greg
Ġgener ic
Ġcorre ction
Ġs izes
ou the
ĠG iven
co pe
Ġcry st
Ġindic ated
Ġshe ll
194 6
Ġw avelength
194 1
Ġcre ation
ĠAn other
Ġsom ew
Ġap p
Ġcom edy
Ġb undle
ateg ory
Ġrese ar
ĠGovern or
ĠPort ug
Ġposs ibly
ĠS i
ĠR un
Ġim ply
app ed
G eneral
ari os
ĠSen ate
ĠAir port
Ġsuc ceed
M y
d b
g est
ĠPhil ipp
Ġsett ings
ĠK en
Ġgravit ational
ĠUS A
Ġinc ident
Ġto ols
P ost
eng er
e lect
Ġent ries
Ġprof iles
Ġg r
ul se
s en
Ġded icated
Ġn et
u v
S ource
V D
Ġpolar ization
. \\
X i
con tain
iss on
Ġret ired
Ġtw ice
ĠC ard
ĠPr ince
Ġth ous
ad ed
Ġrepresent ative
Ġh ospital
Ġser ver
ph ia
ĠM id
$. }
ĠSpec ial
T P
Ġbe aut
T op
opt ions
d at
A V
Ġw aves
es ter
M ax
Ġthan k
y d
25 0
Ġmanag ed
ur ies
ig er
| ^{
ĠP a
l ock
cor ollary
rang ian
H ow
Ġinter mediate
Ġinteg rated
ron ic
re nd
elli pt
neg ative
Ġk in
Ġpref er
dition ally
Ġinvestig ation
Ġprote cted
Ġreg ional
Ġpol ic
Ġassoci ation
G a
ĠC r
Ġn one
Ġfail ure
in ate
form ance
back slash
ĉ Ġ
Ġadj ust
ĠJ r
che ster
S ing
Ġlow est
ĠM ot
l arge
con f
ad ow
mod els
Ġar c
t itle
Ġtr uth
bold math
Ġclub s
Ġm useum
n i
includ e
Ġpow ers
Ġto ward
down arrow
ĠE st
S ome
195 4
Ġsome one
Ġide as
Ġcl ient
Ġfocus ed
ĠB ang
sy mm
Ġspe ech
194 7
ĠW is
Ġelectron ic
Ġint ended
ĠĠĠĠĠĠĠĠĠĠĠĠĠĠĠĠĠĠĠĠĠĠĠĠĠĠĠĠĠĠĠĠ ĠĠĠĠĠĠĠĠĠĠĠĠĠĠĠĠĠĠĠĠĠĠĠĠĠĠĠĠĠĠĠĠ
ĠW all
Ġexp at
Ã ±
Ġlarg ely
Ġb ond
un a
ĠKore a
uck y
ĠPl aces
ĠRail way
Ġrequire ments
ig ration
195 3
$- $
g ather
ĠOx ford
ĠSe cretary
ic ular
Ġat oms
Ġchall enge
ĠA cc
Ġrepe ated
ener ate
ar ma
Ġprofess or
ĠB ell
e le
ĠF er
re ll
c i
Ġb ench
s pe
ĠE xt
ymm etric
Ġan om
ĠMed ia
ĠN ight
Ġph ases
ĠO p
im b
Ġcam era
Ġcult ural
Ġst ack
ĠE astern
Cons ider
Ġcost s
ĠM as
ĠU r
Ġd raft
ĠDe c
ĠH uman
Ġf rag
ĠW ater
As sum
Ġ\ ,\
Ġcre w
r ins
Ġh idden
rel ation
Ġdepend ent
ĠSt ation
ĠMass achusetts
Un ited
olog ist
act ory
Ġtri ang
In put
Ġart icles
Ġin fer
H C
ĠH ung
Ġme as
Ġtr ust
Ġdr iving
W ill
Ġcre ating
ird s
ĠB C
Ġepis odes
l ay
rop ol
Ġfif th
ĠA N
Ġvac uum
d ing
}$ \
ĠBro ad
Ġevalu ated
Ġquant ity
Ġuniform ly
Ġperturb ation
Ġc atalog
Ġmole cular
Ġspec ifically
z en
w ing
' .
ĠT ri
am ber
ak i
Ġcorre ctions
hen s
Ġre action
rom e
ig a
ĠA st
Ġrecogn ition
ul pt
u ated
D em
Ġcomm ut
y les
ER T
Ġfeed back
ellig ence
ĠE ven
S um
bin om
Ġend s
Ġpl us
are st
Ġdemonstr ate
Ġconc ert
Ġuncertaint ies
\| _
ĠB uild
Ġp urs
est s
Ġany thing
ĠW ild
reduc ible
ĠSup pose
Ġwin ner
con text
Ġinter ior
ii i
Ġre ferences
Ġdecre ase
l ic
ĠB ir
Ġnormal ized
Ġproport ional
ĠHig gs
ĠSe a
~ (\
od ay
Ġcoupl ed
ain s
M at
Ġunivers al
Ġf elt
Ġnot ion
M essage
we et
u ce
i ate
Ġb lood
Ġsepar ation
Ġown ers
Ġw ild
A c
ĠAnd rew
Ġex clud
194 9
Brit ish
Ġmult ip
C re
e vent
ject ure
Ġst orage
Ġde ploy
ĠC reek
| $
p ression
ins on
ist ed
l ers
ĠY our
Ġreview s
anc ing
Ġyou th
ĠGe V
ra ge
Ġcon sec
Ġconfig urations
Ġcover age
IN E
Ġal le
Ġr ational
ĠW in
ĠColumb ia
ĠL ater
a ud
in fo
ĠF our
12 5
Ġ _{\
it ness
Ġelect rons
Mem bers
ĠPol ice
b t
ĠJack son
Ġtransfer red
P ar
Ġcharacter istics
Ġse cret
Ġr ig
Ġinterpret ation
Ġresp ond
ĠC at
ĠB BC
ro g
Ġdire ctions
p he
Ġ Å
iven ess
Ġf ellow
Ġs ales
Ġperson nel
Ġfor t
Ġexpl an
ing ly
par allel
195 1
Ġfrequ encies
C ase
ab y
ĠJ es
ĠC R
L i
Ġvari ations
B H
Ġfind s
ant ry
Ġiter ation
ĠE conom
Ġgeom etric
! --
ĠP ower
k h
ĠE gypt
Ġvis ible
*} [
ĠD ar
e ffect
ĠP oint
Ġcan cer
Ġg irl
Ġl ens
Ġsat ell
Ġanaly z
Ġredu ces
ĠPol ish
T wo
C al
U LL
F unction
Qu ery
ĠG R
ĠL og
Ġcon clusion
g t
ĠA R
Ġearn ed
il ly
Ġadj acent
oth ing
u cl
Ġclaim s
ĠAlex ander
U E
Ġexpress ions
Ġp uls
rit ical
)} (\
Ġiss ued
am in
Ġ{ $\
d f
ĠJe ff
Ġdisc rim
am ing
al ing
ĠF ourier
Ġrec over
G l
Ġh ockey
. /
oc ated
Ġchang ing
ĠS N
Ġgener ating
' _{
P o
at on
Ġmet all
Ġperiod ic
Ġintrodu ction
Ġconstit u
ap es
Ġl abor
p ur
t own
Ġmetric s
ĠS D
ĠJe an
d ney
Ġwe ap
op her
Man ager
the less
Ġvers us
% )
ne ctions
Ġd ensities
ĠD own
Ġdat abase
du le
im its
Ġflo or
f ound
en ame
ĠL ittle
form ing
rop ical
up arrow
com put
Ġclos ely
Ġcontin ues
th ur
Ġa wards
it o
m om
Ġsurround ing
ĠS ports
os is
ro b
Ġdel iver
Un iversity
ĠBel g
Ġres idents
clus ive
Ġhous es
Ġabsor ption
ĠLat in
Ġem pir
) }.
Ġflow s
ps on
Ġf itting
Ġnecess arily
St yle
) (\
Ġhand le
Ġpromin ent
ĠH ong
in stein
Ġessential ly
cl ine
Ã £
B R
the re
T D
Ġb ra
{ |
eder ation
e lement
T rack
dition al
Ġsup pose
Ġconf idence
ograp her
Ġhe av
ze ch
Ġm arriage
Ġaccept ed
ĠP en
ĠQue ens
iz abeth
Ġc ert
ĠHe ad
Ġb ill
Ġc atch
Ġexec utive
math it
ĠIn f
Ġl iqu
ĠCol or
Ġres idual
au x
ĠH ospital
qu ant
Ġ- --
Ġsuccessful ly
am i
6 00
s g
ĠH al
ĠM ethod
r ating
ĠE p
Ġz one
Ġcon ference
Ġcompet ed
A E
Ġadminist ration
og ram
Ġcolumn s
ĠL ight
Ġaspect s
in ction
ul f
om er
ĠSc iences
> >
Ġ\ |\
cont ent
' ve
ri end
Ġrough ly
Ġdiff usion
Ġp p
ĠMin istry
ĠMan agement
Ġlaun ch
Ġde viation
Ġtri ple
Ġextrem ely
ĠM icro
ĠComm unity
" ).
h fill
li k
s es
Ġcall s
enn es
ne ver
if er
her ical
ĠJ oe
p op
Ġhand s
ĠJust ice
Ġst reet
Ġcon volution
lo pe
a is
Ġsum mary
Ġp le
ĠMon te
av ed
ĠBer lin
Ġcharg es
ĉĉĉĉ ĉĉ
low er
pl an
@ {
Ġtempor al
Ġcontroll ed
ĠTh ree
y o
n ull
Ġp ool
Ġveh icles
ĠJ on
}. }
Ġsc ript
R un
ĠCons erv
ath an
Ġform ulation
Ġt ell
im ately
p ower
ol es
Ġn or
Ġpro tocol
Ġins ert
{ (\
$ }}
pro pto
Ġfil es
Ġarr ived
Ġset up
ur g
EN T
an ta
)-- (
ĠRepublic an
atur ally
se lect
Ġown er
on ed
=" #
ĠDan iel
Ġcom ments
Ġdecre ases
}^{ +
\! \
s ince
ĠAn ton
it ical
L C
$ ^{
Ġquad ratic
ĠVictor ia
Ġc old
ĠU N
Ġh ab
o is
& &\
Ġabs ence
v als
ub ble
12 8
Ġh ierarch
D i
Ġb udget
f alse
Ġsp irit
N on
ĠCom put
ĠAl gorithm
Ġeas tern
Ġprec ision
Ġhom ogeneous
Ġengine ering
ĠB and
Ġdra wn
e per
Ġeffect ively
Ġtri ed
193 6
Ġs s
" ),
Ġpass ing
X X
ĠComm on
Ġdomin ant
Ġs port
ativ istic
Ġmunic ipality
ĠB oy
Ġscen arios
Ġpl anning
e z
- (
Res ult
Ġcontinu um
Ġreconst ruction
Ġneutr ino
os es
Ġbrief ly
Ġmodel ing
Ġcomp lement
Ġsol ving
Ġc ricket
ĠCor ps
h r
c lear
Ġc ars
Ġcorn er
Ġind ices
Ġd ro
Ġexpand ed
writ er
ĠV ill
Ġpract ical
ĠMus lim
est ic
Ġbegin s
Ġbro ken
Ġaccret ion
ĠR og
H om
Ġalong side
---------------- ----------------
ĠN C
Ġinst ant
Ġw rong
ĠR eturn
s i
Ġstrict ly
ĠA ff
Ġad vers
Ġappear ances
ap ed
ĠA M
Ġbe at
inv ariant
r ates
Å Ĥ
t ario
Ġsup ply
Ġdom inated
=\ {
t or
Ġconj ug
Ġpolynom ials
Ã¡ n
Ġoccur red
st ood
ĠI V
Ġbase ball
Ġb illion
Ġfeat uring
Ġ era
Ġimpro vement
point s
Ġf ashion
Ġsup ers
19 18
Ġfl ight
ĠD isc
Ġport ion
Ġcirc uit
Ġevery thing
ru it
w ave
Ġhigh light
Ġdam age
D o
sc ape
Ġsens itive
ĠAr gent
Ġanaly tic
Pro perty
Ġequip ment
m em
ã ģ
Ġp ra
Ġdispers ion
}) ^{
Ġins pired
ta il
Ġco al
ĠProfess or
s ort
Ġpre par
ĠM ike
M ay
tt y
ĠKore an
Ġorb ital
=" ../../
ian g
ĠWe b
Ġcol our
ors hip
el se
ĠIs lands
Ġrestrict ed
Se cond
Ġag ree
Ġal t
Ġm ac
Ġfac ilities
Ġneut ral
B ase
ob serv
s quare
pro v
L R
ĠSt at
us es
Ġp aid
unn el
Ġinst ances
adel phia
Ġp et
Ġstraight forward
} /\
Ġb urn
hed ral
W id
$ ^
P M
ru ctions
Ġcover ing
M usic
ĠL uc
Ġserv es
Ġcop ies
F ollowing
Ġpur poses
ĠK enn
ĠOlymp ic
ĠSup reme
ĠP ubl
ord an
v o
Ġsk y
ĠA sh
Ġpl anned
18 0
Ġtre ated
ĠP y
ĠR aj
ĠC as
con sin
Ġsepar ated
193 8
E m
ĠD aily
Ġview s
Ġacadem ic
Ġsim ilarly
Ġtop ology
ut enant
&= &\
Ġmot or
form er
Ġro les
erm i
p res
Ġb ran
Ġbas eline
Ġcl in
w eg
l ang
B O
Ġdemonstr ated
Ġhoriz ontal
Ġsecond s
Aust ral
Ġsens itivity
$\ \
G M
Ġcharacter ized
d oc
ĠPr ime
plic ated
Ġnewsp aper
ixt ure
W orld
ĠB on
ob j
D D
Ġillust rated
\!\! \!\!
8 00
empt y
The y
ĠOr gan
Ġtro ops
Ġb ool
Ġprom oted
_{ +
R R
h ang
Ġvict im
ĠV is
G S
Ġv en
Ġalgebra ic
Ġf ans
Ġanc ient
f ull
Ġt ells
av or
ĠM arg
left arrow
Ġtrans itions
ĠF ederal
e fined
Ġconcent ration
t arget
Ġsystem atic
C ast
poss ible
Ġc odes
P L
ĠO s
M ult
w atch
Ġdefin es
Ġstr ugg
l ast
small skip
Ġadvan ced
ict ures
Res ponse
V ID
Ġopport unity
Ġweight ed
G o
ch or
e rence
Cl ient
Ġsp ot
he im
em an
ĠM ic
Ġref ers
Ġatt end
ĠF ree
Ġag reed
ar ity
Ġpe ace
Ġsur faces
ĠUn ivers
Ġscient ific
Ġcover s
Ġd ie
var rho
Ġf er
an th
ĠJac ob
Ġderiv atives
ĠCor poration
p ool
P O
Ġp al
g al
in er
$\ ,
ynam ics
el ess
ĠC ase
Ġbu ff
ĠM ult
H L
193 7
text normal
Ġp sych
Ġread er
P oint
Ġ\ [
ĠE s
ĠPe ak
Ġir reducible
Ġassist ant
Ġorth ogonal
og ether
Ġvary ing
Ġp apers
ce il
ĠV iet
Ġprec ise
Ġ( (
F M
ĠM ain
Ġm es
ide os
le ep
d ens
Ġfin ish
d escription
rim inal
Ġperform ances
ĠSy dney
Ġpro test
ĠPri ze
eg o
Ġ ellipt
Ġf aster
w art
Ġnew ly
fram e
Ġch ance
go ogle
m f
ĠGu ard
ĠD er
mult line
ĠR od
Ã£ o
circ le
Ġ\ {\
text up
let on
Ġexpect ation
iem ann
Ġm orning
p ot
ik i
Ġbre aking
mid rule
ĠFore st
Ġb oy
Ġcorrel ations
Ġs ession
ĠCh ris
Ġr ich
. $$
int on
ĠStud ies
Ġ ~\
Ġd aily
ĠCor ollary
paramet er
id al
ĠG ro
w orld
Ġex cess
Ã ¢
ĠSim ilarly
ol i
Ġhon or
ĠI D
se p
l ife
w orth
Ġform ul
Ġsim ulated
B L
ĠInd ust
Ġcl imate
Ġun iverse
ĠRe v
g reen
ĠS her
ĠN S
O ff
um es
ĠF re
Ġa thlet
Se c
Ġv ir
ost er
Ġs end
sh ort
Ġcaus es
ot on
ĠReg ion
st at
' ll
ph one
Ġt ang
Ġme ant
ith ub
ĠPak istan
ĠC orn
P D
ad i
G A
Ä į
Ġp it
qu ot
R ed
Ġmom ents
Ġprodu ces
Ġex ceed
est abl
ar ithm
or ig
cy cl
Ġ$ ^{
Ġop in
\ },
Ġc row
Ġex pos
U p
ron ze
Ġtrans verse
ĠOn tario
Ge V
ra q
ĠTor onto
an ced
ill ing
Ġsc ores
bour ne
pon ents
op es
Ġpl ants
ĠK im
Ġprov ince
t ree
ur i
ĠWe ek
ĠSur vey
pro te
}[ !
Ġpolic ies
ort he
Ġsil ver
Ġgl ass
u f
ĠH un
ĠS em
ĠF ace
ĠSund ay
Ġoffic ials
Ġt ight
if ul
Ġcirc um
ĠInd epend
m ode
\ }_{
ers et
Ġext ensive
P aramet
Ġj ava
R L
ad ian
ĠOn ly
ĠM aster
S outh
ail ed
Ġsc ulpt
ĠDes pite
$ '
ĠB an
Ġv otes
Ġcitiz ens
ĠB et
ĠW alk
z o
Ġentire ly
ĠS ant
Ġrandom ly
ĠN ether
ex pected
ĠĠ čĊ
Ġnot able
p red
ĠGo ogle
Ġsche mes
ĠP ass
ĠIn formation
n t
Ġsub space
Ġen semble
St ream
] ^
ric s
Ġpan els
B I
Ġinvestig ated
rins ic
m al
N umber
ĠD ig
pro totype
Ġdist ances
ĠB rad
Ð º
me asure
v ements
P os
ĠâĢ ł
Ap J
ĠC all
ph ase
ĠU s
Ġlik elihood
Ġgener ator
Ġtra p
ĠB ack
Ä ±
Ġsold iers
o or
Ġexpat riate
St art
ĠF air
Ġmon itor
P ort
ĠDes ign
10 1
se x
Ġele v
ĠP R
M en
ra ine
Ġm obile
Ġp ages
ĠL ew
W rit
ĠEl izabeth
w ind
Ġenvironment al
cite alt
A not
Ġenh ance
Ġst ead
Ġguaran te
Ġs oc
u on
Ġp ip
Anot her
oun ger
ĠU V
per or
d ensity
Ġsc ope
nol imits
rep resent
00 1
Ġre ality
Ġ Î
Ġsimultane ously
ĠP M
ĠLag rangian
ĠR en
ĠS U
ĠG er
Person al
ĠG re
Ġmur der
rack et
om et
Ġm iles
r l
Ġg rew
ĠMed ical
Ġupd ated
ow ski
Ġdr iver
se arch
in it
Ġd ip
I ST
Le ft
d l
ow a
stack rel
che stra
Ġrespect ive
U til
Ġsh op
ĠR a
un te
ap se
Ġf ib
Ġ- ->
ĠC le
Ġgradu ated
ok ing
w hen
ĠN ations
pd ate
es ides
ĠD ue
Ġp erman
ĠH ard
ĠCamb ridge
C F
Ġperm ut
ĠA venue
ĠR ome
Ġinvol ves
193 5
Ġhtt ps
a uthor
ĠB ad
Ġin clusion
L ong
Ġdefin itions
et ch
S w
Ġd og
Ġnot es
ĠF und
Ġsol o
Ġrat ios
Ġear th
ĠServ ices
Ġst re
com b
Ġst ock
ĠMin nes
Ã ¸
Ġr ural
ĠR om
D escription
ĠCol l
H is
Ġad vert
Ġep och
ĠL oren
ĠPro du
pack age
ray s
Ġpolit ics
Ġresult ed
Ġd ram
N ov
ĠR os
Ġposs ess
B o
Ġstrateg ies
d esc
Ġrestrict ion
er ion
ĠK el
math tt
Q L
pos it
are t
B E
Ġsex ual
Ġorient ation
D r
u ction
Ġdiagram s
pro duct
cknowled g
or gan
over s
sub equations
Ġd ance
it udes
ot al
Ġindust rial
Ġarm s
Ġdevelop ing
19 19
Ġpie ces
leq slant
ĠMinnes ota
\ }.
ĠT ok
Ġmin ister
Ġwin ners
Ġoff set
ĠWis consin
ĠN on
ĠOffic ial
Ġsomew hat
ĠA k
ask a
roll er
Ġat omic
ear s
port ed
Ġexec ution
Ġbal ance
ent ed
Ġleaders hip
, ...,
C N
Ġse vere
I mage
Ġex cell
Ass ociation
O W
ou st
ou ble
ĠAd minist
Ġcr ime
}^ +
E ach
Ġp ush
19 14
Ġper haps
Ġadminist rative
Ġstand s
ut or
ys ical
ock et
Ġrecogn ized
prob lem
Ġm ask
ĠSt r
ĠL ic
K e
Ġpack age
ĠS us
n ic
Ġdiag n
Ġcoll ision
d ir
arg ets
Ġdestroy ed
Ġg ate
l ov
angle ment
Ġinstit utions
Ġcru cial
ĠC irc
ak h
rib ed
Ġesc ape
Ġsp here
C ref
N ull
ne xt
eg er
ir cles
g ithub
Ġconserv ation
) }$.
Ġreg ression
Ġextract ed
ann a
ĠOb ject
big cup
ĠRe volution
Ġver ify
ĠSan ta
R A
h or
Ġcontrib ute
ĠT y
n m
ret ch
Ġinde pendence
ĠM P
Ġb or
}} ,\
ĠE nergy
ã Ĥ
Ġfrequ ently
Pro position
Ġmusic ians
includ ing
Ġpix el
el le
Ġphot ons
ob e
Ġdomain s
at he
ch a
Ġrad i
et ies
Ġan not
Ġpres ents
ĠEqu ation
ex ists
y ard
) &
i Äĩ
comple te
Ġlat est
g ar
Ġunder stood
ĠS ab
ĠNether lands
ĠA GN
Ġch ampion
Ð »
G ener
cul es
Ġsymbol s
atur day
Ġadv ance
Back ground
Ġcross ing
Ġident ification
Ġoffic ially
Ġn aturally
st ruction
Ġattempt s
ĠH ilbert
Ġt ag
Ġprote ction
19 29
as te
ĠK ir
qu ery
quar ters
ta ck
Ġclos er
isl ative
ord on
Ġphot o
ĠMc C
Ġl iber
out s
Ġl y
Ġst ages
H ar
Ġcosm ological
Ġ\ }
Ġstri p
19 10
igh th
Ġen em
ĠH ay
ĠEngine ering
Ġ urban
ĠReg iment
ĠV en
ren cy
Ġbelong s
}) =\
k ov
Ġsw im
Ġtest ed
on ym
ĠL es
} >
ĠB rig
ĠĠĠĠĠĠĠĠĠĠĠĠĠĠĠĠ ĠĠĠĠĠĠĠĠĠĠĠĠĠĠĠ
Ġcomm it
con duct
193 3
Ġhous ing
ul ating
D on
ĠA thlet
) >
Ġbene fit
r ations
ĠN ever
Ġstation ary
) _{\
Ġtransform ations
per ial
Ã© e
Ġrest aur
E v
com es
193 4
sh ot
iam ond
rib e
Ġf its
osoph y
me an
Ġf ish
cur s
19 28
Ġtraject ory
Ġindu ction
un es
Ġs ave
ĠSt adium
ĠH and
ĠD am
Ġconsec utive
Ġs un
Ġhost ed
) ).
ĠF amily
Ġaut o
Ġte le
Ġext ent
B B
Ġcho ices
Ġhe ard
Ġs ustain
T A
Ġstrong er
Ġsim plicity
ĠA li
d ash
ĠL abor
U nder
Ġcontrol s
19 17
Ġcompar able
Ġread y
j ust
Ġrac es
Ġbound aries
In ternational
Ġestim ator
ĠK al
_{ -\
th ick
Ġin ference
19 00
Ġgain ed
ĠBe ach
ĠAg ain
Ġun less
Ġpart ially
c ross
ĠM ach
ag a
{ .
ĠAn th
Ġparticip ated
ĠA ge
it led
Ġcon verted
S m
Ġcrit eria
Ġplas ma
d ire
Ġde fect
f fered
Ġhistor ic
Ġsub s
Ġevery one
Ġreson ance
ĠC ub
Ġhoriz on
Ġw ire
Ġreconst ruct
k ern
Ġmorph ism
Equ al
Ġtit les
Ġdecl ared
ĠN Y
Ġconver ges
ĠAl f
E P
ĠM C
Ġlist ing
ĠT ai
ymm etry
Ġrepl acing
def n
function s
ĠPhil adelphia
Ġrec ip
h ave
F S
ĠB ridge
ir ror
amb ig
Ġsol ved
ĠW rit
Ġanal ys
Ġb omb
ĠDu ke
ĠN ext
ĠEx ec
Ġfund ing
rast ructure
Ġmunic ipal
ĠPrem ier
Ġext reme
ĠSwed ish
Ġas k
Ġsp ring
c oh
ĠF ire
Ġdr iven
ĠL ive
is a
han ced
weg ian
ĠIn ternet
Ġun iqu
ĠS C
ĠM L
riz ona
Ġdec ades
ĠMar sh
193 2
Ġ iron
Ġaud ience
Ġreason able
St atus
Ġcon nections
Ġh our
ent ry
and ra
ĠL ady
Ġd im
ĠMed al
Ġst abil
D av
ĠSe curity
Ġeconom y
Ġqu ot
Ġliqu id
Ġsupport ing
G erman
ĠA D
Ġv ess
rid ay
clos ed
em et
Ġ rom
h av
Ġs lope
Ġpo et
Ġsimilar ity
Ġanaly ze
text sf
ĠK itt
A cc
Ġmov es
Ġag ric
16 0
Ġren amed
ĠE very
======== ========
ĠAd d
if act
Ġconvent ional
c ard
ag n
off s
Ġpart ner
Ġmanufact ure
Ġpers pective
ris is
ap ore
sp in
ST ATE
Ġeigen value
Ġpublic ation
ug ment
Ġprem ie
un ities
Ġto t
ord ers
ucl ide
Ġthem e
ell o
ĠG ener
Ġrecomm end
ĠD C
ad ers
ad ata
N L
Ġneigh bour
Ġcy l
Ġpl ate
Ġy ellow
ac le
ĠW inter
T T
S che
Ġdiv is
\ [\
b its
Ġparticip ants
Ġperiod s
Ġse ed
Ġs and
" |
ĠF I
sc ope
se ason
ra ctions
## ##
Ġv ice
Ġst d
is en
ĠDav is
or ney
H el
ĠF inal
Ġhy brid
Ġh uge
) ),
Ġfe et
Ġfun ctor
Ġfac ility
Ġkin etic
ĠB att
de p
Ġf ell
ĠH o
Ġdoc uments
Ġsum m
Ġcol le
ĠN a
V ol
Ġre nd
D ate
m ad
19 24
H D
ĠStep hen
part icle
) }$,
Ġre ar
Ġferm ion
ĠM ill
reg on
Ġthan ks
Ġs rc
ĠW ars
_{ [
Ġ ur
Ġunit ary
Ġb ow
Ġ- >
Fil ter
ĠB all
ĠEq s
Big g
Ġaff ili
N E
Ġdescrib ing
Ġinj ury
Ġpro position
Ġres ident
Ġl ov
Ġfram es
l m
Ġsett lement
script scriptstyle
Ġadapt ed
ple x
25 6
ass um
P a
ĠO t
Ġre ward
est ed
ĠI raq
ĠAd am
Be fore
Ġcan cell
uclide an
^+ $
Ġan isot
ast y
Ġp iano
emet ery
Ġhapp ens
k g
ĠSwed en
Ġc art
ur ches
ĠS on
id ge
ĠOb serv
12 3
ipl es
Ġb rain
Ġmod ules
ã ĥ
Ġal gebras
ar ial
Ġm el
Ġinput s
al ion
Ġco oper
cre en
ĠSte ve
ant ly
Ġpost erior
Ġacc ident
M ark
S H
W omen
sh ow
qu es
Ġun able
Ġran ked
Ġest ate
ou red
Bi ography
Ġm eta
C ent
19 22
ĠF ox
w s
ĠCast le
ĠRe al
ĠComm and
Ġexhib it
V er
Ġchalleng es
Re call
Ġcompar ing
tain ment
Ġfa ith
ĠT al
ĠB ru
ĠG rant
Over ride
ĠInst ead
cor respond
Ġs urn
Ġprodu cing
Ġsc oring
ang a
all ow
F rench
Ġclust ering
19 27
Ġempir ical
Ġlet ters
Ġindic ating
O ptions
el ian
ink ing
ĠGold en
Ġro ots
ars er
Ġbu y
f n
ĠK a
Ġdef end
Ġautom atically
ĠA ud
ĠCap tain
Ġdef ense
Ġindependent ly
Ġdefin ing
Pl ay
Ġcomm ittee
l av
Ġn av
ĠCon f
r in
Ġl osing
omorph isms
Ġcar bon
Ġcont emporary
Ġca ref
val ued
vent h
ĠPr im
ĠH art
un ately
Ġdefe at
Ġv ideos
Ġ }}
Ġa head
Ġanim als
ic ate
ĠC H
\| ^
ul ing
ĠC zech
Ġ< <
Ġpurch ased
Ġw ing
sh ape
193 1
Ġgeneral ization
ta ges
ennes see
Ġdo or
Ġf resh
iction ary
Ġinn ov
Ġis omorphic
ĠGl obal
ub b
Ġab and
Ġf lex
ĠIndian a
up le
Build er
Ġneut ron
ch ain
e ven
ĠI d
Ġc ub
Ġsign ature
Ġd uration
Ġl ooks
Ġinter vals
Ġce rem
w all
Ġr ugby
ĠInd ones
ĠP ers
im ation
al ities
Ġinter pol
ut t
sy m
appro xim
Ġsent ence
Ġcompat ible
Ġdep ict
Ġhol es
U M
Ġpop ulations
ĠS to
Ġrequire ment
ĠB udd
S ong
ator ial
Ġop posed
> (
Ġy ounger
Ġhousehold s
Ġst one
ĠA rea
Ġw alls
Ġprob abilities
O lymp
un s
Ġis n
ist ence
ĠJ oh
k ish
enn a
ab ove
ĠA maz
l an
R S
Ġin hab
Ġclass ified
ĠĠĠĠĠĠĠĠ Ċ
ĠG allery
ĠL ast
ĠL ocal
ĠS quad
19 21
ph y
ĠG ree
Ġpropag ation
Ġharm onic
om ot
Ġs afe
Ġisol ated
ropol itan
Ġpl otted
Ġfe as
pl es
ĠS pring
C ON
Ġembedd ed
M c
Ġdrop ped
ĠN umber
Ġf iction
id i
ĠN one
t yp
Ġread s
19 26
19 25
not in
od s
ĠW ell
const ra
pro perty
Further more
Ġdiscuss ions
ĠQueens land
Ġend ing
ĠS ky
Ġmechan isms
Ġstudy ing
\, {\
Ġh ist
ĠOr ig
R ad
Ġdecre asing
Ġconcern s
Ġhapp en
Ġview ed
ul ator
Ġsp ons
ro ke
res pect
R I
Ġf itted
v ard
G en
ĠS at
Bl ock
}} )$
D T
d ifferent
ĠW el
ĠB ishop
D at
w as
ĠB ooks
ĠM ilitary
ik a
Ġfac ulty
se m
l oss
Ġse ats
Ġcirc ular
ĠL ike
Ġturb ul
Ġcounter part
Ġph one
p ush
ĠOn ce
Ġdistingu ish
ĠR oute
Ġfill ed
Ġsupport s
Ġmarg in
Ġgener ators
In stance
Ġc ab
Ġk ick
ĠCount ry
r g
Ġrece iving
19 12
per iod
Ġe yes
w t
Ġpar ish
Ġhe ro
par se
Ġult imately
Ġcon vers
ĠChrist mas
ip art
er os
Ġengine er
Ġw arm
j pg
ĠW ho
arg s
ĠTh rough
Ġterm in
; &
v dots
st ates
Ġbel ief
out put
EC T
get s
Ġnov els
ĠCons ider
outhe ast
Ġsmall est
Ġf uel
ra ble
v y
Ġb low
ly wood
Ġneigh b
ĠM oh
Ġsp herical
P at
ĠW he
ĠT ro
D en
! !
opt ion
t ically
Ġt ick
f ind
Ġimmedi ate
Ġphys ic
Ġcol ors
B est
Ġcons ult
Ġl ift
L ast
Ġret rie
Ġamplit udes
D ec
ĠN az
l iving
Ġlabel ed
Ġdiam eter
row ser
Ġf an
ot he
connect ed
ĠH an
ili ary
gl obal
mom ent
c ss
Ġd t
cl ient
Ġte aching
al o
gra v
^* _
Â °
| _
Ġbo ost
Ġcondition al
lear ning
}{ }
d ashed
ĠM un
Ġw rest
Ġauthor ities
f a
Ġe ye
W ind
Ġoccup ied
' $.
Ġab stract
ĠTur key
od ge
Ġgrant ed
Ġth read
her ic
u y
ĠC NN
L ocal
* /
Ġt argets
}{ {\
Ġterrit ory
Ġfound er
ĠColor ado
Ġso le
Ġappear ing
ag en
Ġcontrad iction
ĠT a
Ġpotential ly
g ency
ĠF ermi
er on
Ġsu ffered
} <
$ _{\
s el
Ġtit led
ir ty
Ġcoupl ings
Ġy ards
ĠM ember
requ ency
19 16
ann er
}} =\
Ġsub section
ĠR iemann
Ġang les
Ġbo olean
U ser
Ġat om
ĠAnd erson
h s
Ã º
ĠL ear
ĠMark ov
H am
Ġpl ots
ĠMar ia
ĠDe finition
Ġstruct ural
P ublic
act or
ĠL ow
19 23
Ġb odies
T oken
Ġtown s
ĠBro ok
m atch
cl ose
ĠTr ust
ĠS P
| _{\
ĠF ellow
Ġrapid ly
ĠR oss
int s
B el
um ps
Ġpar liament
ta x
Ġdocument ary
= -\
Ġw ins
ĠCon nect
Ġcov ariance
Ġcall ing
Ġw itness
uz z
Ġiter ations
Ġprote in
Cur rent
im g
G r
Ġ{ @
ĠSh ort
ig rants
iss ions
our ney
Ġloss es
Ġent ertain
H M
over set
Ġher self
ĠR ose
Ġcompos er
b ian
as i
Ġarg ued
Ġ ..
force ment
osc ow
ura ble
ĠD om
Ġkeep ing
Ġst orm
Ġrow s
Ġc arri
M ost
Ġpre ced
Ġregard ed
ĠH ur
Ġpass es
ire ment
P rop
ver age
ĠCh annel
ur ity
ane ous
Ġreach ing
iv als
ĠP C
Ġmedal ists
N C
pl us
19 15
ĠA uthor
ĠO cean
Ġform ally
Ġjud ge
Ġbenef its
Olymp ic
Ġl ists
le ments
Ġinteg ers
Ġequip ped
ĠM unic
Ġdisplay ed
R C
ĠCol on
Ġcom plicated
ram e
int ro
b c
ĠM ap
Tr ue
ly n
Ġinstrum ent
N O
rosc opic
| =
ĠPo isson
Ġtop ic
Ġspac etime
B bb
Ġj ump
Ġl aser
Ġaud io
Ġarrest ed
ren e
A wards
Ġmod er
m o
b lem
ra ise
Hand ler
ap pend
R eturn
Ġpriv acy
ĠAd ditionally
Ġrob ot
Ġlin ked
ĠN ULL
ĠK ansas
ĠH op
ĠJ ordan
ĠĠĠĠĠĠĠĠĠĠĠĠĠĠĠĠ ĠĠ
Ġcomplet ion
at ivity
but ton
ound ed
Ġcap able
Ġreturn ing
Ġpeak s
eng ers
Ġra ise
Ġg irls
Ġdo ctor
ĠO F
etail s
su ccess
Ġar ts
Ġhold ing
ĠA rizona
Ġwe ather
Ġm ist
Ġsur ve
pl om
viron ments
ens is
Ġde vi
Ġf ul
Ġspl itting
$ {
ĠO regon
Ġpseud o
c raft
ĠMiss ouri
Ġfight ing
inde pendent
Ġchalleng ing
Ġcon formal
Ġne arest
ĠE th
iss ip
Ġh all
dom ain
Ġhe ter
Ġhab it
er al
ĠAr thur
w ill
Ġaver aged
Ġconven ient
Ġap art
hen tic
] =
Ġany one
gra de
ug in
M F
Ġf old
Ġpaint ing
ĠI S
bel ow
s d
I O
th on
Ġmess ages
Ġresist ance
Ġrang es
cer ning
b etween
Ġviol ence
ĠS che
} ~\
s v
ĠS aturday
)= (
ĠAtl antic
ĠG ib
at ics
Ġcollabor ation
l arg
is er
Ġaccount s
H er
Ġa ugment
ĠT urn
ĠM S
Ar g
Ġp ed
l b
Ġch ose
av ity
ĠM it
up date
ev in
t b
Re ad
ĠT ennessee
us hed
ak ed
l ib
Ġun s
Ġrelationship s
) [
j k
Al so
Ġv ision
Ġen able
O p
Ġcamp us
sup er
n ov
Ġsk ills
ort ion
A ction
ĠF ederation
Ġclos ure
Ġch iral
tri angle
Ġc ircles
ĠD or
Ġatta ched
ib ilities
Ġcap tain
ent ric
Ġsch olar
Ġt aught
f air
Ġorb its
Ġge odes
ĠK er
U s
Ġman ip
Ġ$\ |
Ġco herent
W est
Ġdistrict s
ĠA mb
ck er
lig ible
com ponent
Ġw ish
if est
tri ang
;\ ;
ĠA h
l ot
M T
Ġtw enty
U V
ĠA re
13 0
Ġw ants
Ġsp arse
edd ing
Ġpoint ed
Ġd rag
Ġap plies
ĠN AS
'' ,
Ġscen es
Ġ+ =
n ight
' )$
Big l
ĠPhilipp ines
Ġtraject ories
M ain
ĠL td
Ġf iber
ur ance
k ers
st an
Ġsubset s
Ġfem ales
Ġa ux
L abel
G s
w estern
Ġjournal ist
Ġop position
pos ing
Ġvis ited
Ġout come
ĠĠĠĠĠĠĠĠĠĠĠĠĠĠĠĠ ĠĠĠĠĠ
cy cle
l ayer
Ġh air
if iers
be red
now ledge
Ġocc asion
Can adian
Ġperturb ations
Ø §
t x
Ġtem plate
ĠE ric
i ated
add ing
) |\
ce ived
gl s
ic ial
St ar
Ste p
ĠE P
ĠH erm
Ġd anger
Ġvalid ation
ĠS av
' d
ak s
Ġent anglement
Ġro y
G E
Pro v
ĠSt ock
ĠLe on
Big r
Ġabund ance
ill ery
Ġcon e
ĠW at
u j
Ġn ob
Ġcor por
ĠJew s
Ġlog arithm
sh ould
Ġre normal
ĠAm ong
Ġtr unc
spec ial
Ġp ulse
Ġne ither
Ġto wer
Ġlo an
ou ds
ĠLew is
Ġd war
H igh
ĠAmeric ans
ĠPhil ip
et he
fefe fe
Ġresear chers
ĠA z
ĠBe fore
th ree
pt r
P aram
Ġwhe never
Ġgu ard
il ine
Right arrow
ĠMem orial
Ġre tain
Ġro ut
Ġf estival
Ġsh arp
Ġstead y
Ġint rinsic
ser ies
19 13
O O
Ġdis pl
ĠP ier
Ar ch
ĠG h
Ġweak ly
ut her
ĠB H
ĠSl ov
Ġveloc ities
st s
Ġelement ary
Ġdis appe
ĠM iller
Ġsepar ately
ĠJun ior
ĠHigh way
Ġexc ited
ĠM ath
Ġfund s
ĠAb out
ĠBro ther
J apan
Ġstandard s
Ġauthor ity
ĠMary land
um ul
field s
ĠDi rac
Sports people
ĠA T
ĠPr inc
Ġexpl os
v skip
ĠB at
. },
Will iam
ffic ial
Att ribute
ĠN orm
eles cope
ĠD ark
ger y
St at
Ġsignific ance
ĠMark et
ĠM ond
Ġcool ing
ĠBar on
fra red
Ġp aram
ST M
ĠC ost
rac ks
f r
\, ,
place ment
ĠSing apore
we alth
n ie
us cript
Cont ent
Ġgovern or
Ġb atter
Ġpropos al
Ġcon dens
Ġb ary
ok ed
//////// ////////
Ġsatell ite
ol is
Ġ ens
sub float
Ġinvest ment
Ġ! ==
Ġcomp ris
T ax
Ġinterpre ted
Ġnormal ization
ĠD rag
ĠCar lo
Ġpil ot
Ġdesign ated
Ġcoll apse
Ġne ur
}) _{
ĠV o
Ch rist
V is
ĠTrans port
Ġt ack
w ich
Ġtra ins
sub stack
Ġcrit erion
ĠH ou
rap y
ĠAn y
Ġre vers
Ġexplan ation
20 23
B ibliography
Ġ& $
Ġaff ine
A cknowledg
Ġsem antic
on om
ĠB h
ĠR E
m ers
ĠFore ign
Ġheav ily
Ġch airman
Ġreal ized
Ġdesc ript
olog ists
Ġprogram me
In st
Ġrac ing
Ġb ars
ĠMe an
ĠĠĠĠĠĠĠĠĠĠĠĠĠĠĠĠ ĠĠĠĠ
Ġthrow s
le e
ĠC ab
ĠAff airs
ĠNor way
e val
Ġpix els
on omy
er g
ĠCO VID
oust ic
ĠN ick
Ġdis joint
ĠD ra
itzer land
mathbb m
Ġc as
}_{ {\
ĠTown ship
Ġs an
f ast
Ġre form
ile y
Ġk inem
ĠMex ican
Ġbur ied
Ġvan ishes
Ġdep icted
re v
19 11
i pe
e ach
d est
Ġord inary
Ġsched uled
Ġcomp re
ch annel
Ġmathemat ical
ĠJ ane
ĠM oscow
on i
writ ten
ĠMel bourne
b olic
Ġperform s
so le
} &\
Ġregist ered
ut s
v as
ens es
Pl ot
Ġdiss ip
ĠRepresent atives
Ġanaly tical
Ġpat ient
V M
' $,
ĠN E
Ġre fe
ĠN GC
Ġhapp ened
}\ ;
Ġappro ved
Ġkn ew
ĠEnter tainment
Ġp ot
Ġredu cing
Ġcustom ers
ĠG ab
ĠFace book
ĠF riday
)} _{\
Ġ{ }
Ġneg ot
p mb
S yn
f amily
Ġattempt ed
Ġre aches
Ġst ored
Assum e
in cess
Ġclass ic
Ġfac ilit
Ġexpon ent
Ġtri p
d rop
Ġ }$
Ġp un
Ġwe alth
bound ed
en z
el ines
hip s
ĠT ony
Ġwor st
Re v
1 15
ĠQ CD
Ġsp an
ĠNew ton
] ^{
Ġgu est
L ife
Ġm ount
19 08
chang ed
ĠF ord
ific ial
Ġcorrespond ence
v ia
Ġb ought
du ctor
fe ction
M E
Ġdif fer
Ġm al
Ġrec urs
Ġemploy ees
sequ ences
ud den
& -
Ġdesign s
ĠHar ry
iz able
Ġv ocal
Ġ url
Ġcaus ing
ĠOffic er
th rough
Ġres c
Ã© s
B P
AR T
du al
man ifold
ar o
De finition
ra it
ĠB os
Ġpol l
ĠLab our
c p
ĠM A
ah oma
ĠS O
gress ive
Ġvill ages
l u
Ġb ronze
Ġ$ [\
ren a
Ġsm art
ĠSt ory
ĠC P
Pop ulated
ues e
paramet ers
L eg
Ġdec ays
Ġform ing
Ġadm its
s n
Ġgu ide
Ġdis cret
D ep
ĠC art
spec ific
Ġfind ings
Ġdown load
ĠAssum e
Ġpre pared
ĠSim on
Ġattrib utes
ou ch
ĠR ic
ĠJ am
sup ervised
he rence
Ġthe atre
Ġoper ate
ant asy
Ġatt ribute
g i
vent ure
Ġdec or
Ġlat ent
col n
s ample
& $
Ġwin ter
Ġwas n
ĠHol y
=" +
ho le
Ġhum ans
Ġen vironments
Ġreal istic
Ġhel ps
e h
S ources
T em
Ġin tern
ph p
r ust
Com p
ien ced
ĠMal ays
ĠE X
aut ore
ol o
Ġexcell ent
Ġa id
Ġsens or
Ġg ene
Ġ} {\
and y
ĠK at
Ġconstra ined
j ava
L M
aw are
ffic es
ĠD E
Ġbran ches
Ġinstall ed
Ġbig gest
Ñ ĥ
Ġdec isions
ĠS ri
Fil m
Ġar ise
Def ault
g ray
U C
c over
Ġdisc overy
Ġsix th
Ġ$ $\
' }\
Ġcho osing
names pace
}) )
Ġrec ur
ĠSta ff
b urn
con v
Ġsec ure
at en
ab ama
inc ial
Ġadapt ation
oid al
Ġalle ged
um a
Ġmarg inal
Ġinter ference
11 1
Ġs ight
ĠK han
Ġdom estic
Ġlog ic
Ġenc oding
Ġcy cles
Ġconcern ed
EE E
Ġtri angle
Ġlook ed
ag an
Ġn an
Ġsign s
Ġline arly
Ġeduc ated
Ġut ility
t ings
comple x
s yn
Ġb its
ĠB urn
ĠE uclidean
Ġhor se
ch itz
Ġrelax ation
Ġover lap
G P
l floor
Ġf aces
Ġinfl ation
Ġbuff er
pol y
Ġle ct
ĠT an
Ġ[ ]
Ġin sp
Ġa f
S i
Ġstr ings
ĠBase ball
ĠMag azine
ot ers
the ory
i Ã³n
Ġm m
Ġm ent
ĠF ac
ĠP itt
ÃŃ a
Ġg ar
ĠA P
Ġrese mb
ĠUk raine
> &
oy al
Ġanalog ous
c u
Ġd a
E uro
b es
ĠS E
ain ed
w ick
= (\
Ġnom inated
Ġcosm ic
Ġsyn chron
ĠR ights
Ġd oll
Ge ography
Ġconf irm
p erson
cell color
Ġout per
Ġcoll isions
Ġh un
Ġs ac
ag ues
ot ional
? "
Ġexpos ure
ĠC ru
ĠStand ard
ĠI owa
Ġcon vention
ĠL iter
Ġhom es
Ġpre tty
pro ject
com ment
Ġ$ <
ĠBuild ing
Ġin her
d ra
Out put
Ġcount s
A f
h ist
Ġent ity
Ġprom pt
Ph ys
ivers ary
fil ter
cc c
we ak
Ġm art
Ġcon version
ur d
r ine
. }\
ĠFred er
\ /
display math
Ġopin ion
R T
P age
pl er
ro it
B uffer
ous es
Ġnon zero
Ġarr ival
Ġcall back
Ġs ell
Ġad vis
ĠCh ap
Ġhard ware
K S
âĢĿ .
Ġb atch
Ġre in
b rane
ĠKent ucky
kl ahoma
14 0
Ġcontrib uted
ubl in
Ġstat ements
" ]
}. \
ĠCE O
Ġgreat est
u ity
ĠCh ildren
Ġcomp ens
ĠK ey
ĠAr k
Ġorder ing
return s
or b
con c
Ġprob e
ab et
Ġmole cules
ash i
Ġproject ive
Ġpercent age
ĠG reg
ĠS ound
st d
u able
inem a
s rc
Ġs we
Ġc od
Ġb ed
Ġmon ot
ene z
ĠLem mon
d am
Ġded uce
b ug
n etwork
~ (
Ġtrans mit
ips chitz
Ġhot el
Ġvari ant
el son
Ġs ail
ict ional
Ġim aging
IN T
Ġincorpor ated
ĠComm unic
cent ral
rand om
ĠIn vest
Ġsubject s
ĠA L
Ġtherm od
uch y
V ar
Ġac id
Ġhe ar
Ġcon crete
Ġim plicit
ĠSpace watch
ĠViet nam
ĠB ab
r floor
ĠMan chester
Ġconsist ency
O pt
ĠS ym
iam i
B ecause
Ġan imal
Ġencou rag
Q ue
det erm
ĠDo ctor
an es
Y PE
De ath
Ġg iant
ple t
Ġen hanced
ĠPol icy
ri or
ĠEn vironment
ch ild
ĠAl ice
Ġmer ger
ĠD un
Ġseg ments
de pend
Ġg ender
}) -
Ġcent ered
M D
ĠRes ults
f riend
N orth
Ġp ole
s a
Ġcal ibration
Ġsup posed
ym n
P res
ĠPro te
10 5
Ġbro ke
ache lor
ĠDe ep
ĠR et
Ġreplace ment
AM E
Res ource
Austral ian
Ġasympt ot
Ġoutput s
Ġmechan ical
hens ive
)} =
}= (
ĠGree ce
Ġco aches
Ġprom ote
Ġconsider ation
ĠAn ne
ĠJ os
Ġcorrel ated
Ġpen alty
H P
periment al
Ġshort ly
Ġa wa
Ġsu ffices
Con tain
7 00
or ous
el ve
ĠB rian
ĠEn t
ĠDi ego
em b
ok es
Ġb rown
Ġguaran tee
Ġcred it
th an
b oth
H on
ĠTw itter
Ġde formation
Ġstand ing
p ressed
Ġco hom
ĠCh ile
D esc
O rig
Ġinstrum ents
ĠB rand
Ġcon jecture
Ġkill ing
ĠM att
ĠN FL
Ġmanag ers
Ġexec uted
}} }{
ĠB alt
ĠB eng
ĠB ah
Ġconclud ed
b ib
p in
Ġmay or
d ed
ig e
Ġch arts
Ġinf rastructure
ĠAmaz on
Ġcrit ics
Ġspe aking
orthe ast
Ġv ent
Ġthous ands
de ep
m atic
o a
Ġeas ier
Ġport ray
Ġjob s
ĠAp ple
Ġro of
Ġs ale
du ate
Ġillust rate
Ġdrum s
Ġcut s
Ġold est
Ġintegral s
Ġaccom mod
pr ise
i ability
Ġim possible
Ġhydro gen
m ic
ĠF M
Ġt unnel
Ġ ĉ
m eta
ĠS el
Ġcomb at
Ġdisc over
Ġbl og
Ġt error
p otential
ater n
Ġse p
d on
Ġconnect ing
h ow
ĠC are
1 12
Ġe c
ing ham
ic ut
rupt ion
Ġmaintain ed
g rid
en ance
math ds
Ġperman ent
ĠH om
\ }}
ĠTok yo
C ap
Ġproper ly
Ġaccom pan
Ġweap ons
ive red
ĠE instein
à ¸
H O
requ est
in itial
Ġinflu enced
ĠAl bert
in th
fl at
Ġint elligence
Ġconcept s
G D
Ġm ixture
Ġstar ring
Ġn arr
Ġprom otion
Ġdis order
ĠMod ern
$ (\
Ġref lection
ĠTh ird
Ġag ency
gl as
ĠE vent
Ġdec ade
ĠV ari
ill ed
Ġc riminal
l at
n ik
pert urb
und erset
="../../ ../../
ĠN av
fort unately
st ud
fin ement
ordin ate
rid ges
sing le
Ġanalyz ed
comm on
Ġproject ed
Ġsit uated
ambig uation
U psilon
Ġm and
B F
O pen
Ġjo ining
S N
ure au
ĠSquad ron
yn asty
ĠSw itzerland
Ġhom ot
Ġ{ {\
ĠLoren tz
ĠNor wegian
Sc ript
Ġ ),
ĠD onald
We b
Ġformer ly
pr ivate
Ġcomb ining
ĠS ign
equ al
ĠD ream
ĠN ik
M et
ĠAust ria
Ġexhib ition
u h
Ġrema inder
z i
enn y
ĠSt one
Ġsubstant ial
Ġus age
Ġindu ces
). }
Ex p
Ġto ken
Ġcontroll er
is y
ens ed
Ġ ram
Ġsegment ation
Che ck
it ic
ĠT HE
}, {\
Ġfin itely
Ġcomm ander
Ġf alls
ist ically
irt ual
ĠCh all
Sim ilarly
Ġsh aring
ro ot
Ġsit uations
ist ing
) )$.
Ġfew er
ĠReg ional
ĠT oday
ĠG ram
Ġgrow s
ub er
V ER
Form at
ĠC ape
ari ate
ĠExec utive
c ers
j son
is ons
ĠS quare
Ġres id
fact or
Ġch apter
Ġdis put
Ġd ry
Ġ( ;
Ġsucceed ed
F actory
ud i
un ior
rain ian
19 05
rem ove
ĠComm un
' =
. (\
on se
b d
Ġfav our
L ength
) "
ĠB run
oc he
iv ation
Ġst ores
ren ces
Ġdeterm ines
r v
Ġconsum ption
Ġsett led
Ġdis contin
Ġf aced
Ġapplic able
Ġas sembly
Å «
Ġmer ged
Ġinterest s
az a
V ideo
ect ure
Ġgener ality
ĠSen ior
ak ers
Ġran king
ate ur
Ġfact ory
Ġra w
dist ribution
alax y
ĠWh it
ard o
al ous
Ġcomb inations
}^{ (\
ĠD at
Ġamount s
Ġl es
ĠP ot
Ġ" ""
19 09
}_{ (
od a
B s
Ġappe al
Ġsampl ed
iv a
Bl ack
ĠP age
ĠF lo
W E
ili ar
itect ure
Ġphenomen on
is ition
Ġh its
as et
Ġrec overed
ĠN ap
, (
Ġp y
ourn als
Ġd ates
Ġtransl ated
ĠB lo
st atus
ĠT en
Ġser ial
T ag
g iven
Ġ( ,
Ġbusiness es
res ol
Ġch a
Ġexcit ation
ĠPal est
roll ed
erc ise
v ens
Ġaccom pl
Ġintrodu cing
Ġinfin ity
g on
Ġdi plom
r ase
ĠAl abama
ĠK y
tot al
) |^
Ġpresident ial
M any
ĠL ind
sh ips
M a
ss on
Ġassign ment
Ġsup erv
no ise
c ategory
Ġprov es
Ġatmosp here
P an
Ġnumer ically
Ġf usion
}\ }$
Ġinst ability
Ġm ales
18 90
Ġle af
ĠPat rick
Ġcl ock
' ),
ta h
deg ree
}\ !
Ġacceler ation
ĠRe port
Ġshe ar
umer ical
Ġm it
}_ +
L in
Ġattack ed
I E
ĠS R
ist a
Ġstri ke
Ġhead quarters
ĠG all
ĠC ode
S em
Ġref used
ĉ ĠĠĠĠĠĠĠ
Ġc ache
Ġc oun
al f
Ġch ap
k ip
Ġsch ol
am ents
Ġair port
F inal
Ġcent ers
Ġ> >
sat isf
Ġ\, ,
dist ance
Ġreve als
Ġcertain ly
ĠI l
Ġsynthe tic
Ġs ought
Ġbench mark
Ġmin ute
S ON
re z
19 07
ĠAll en
v v
Ġtra v
ĠP ear
in ch
Ġman uscript
K E
Ġde leg
Ġpain ter
19 06
Ġbrother s
t ensor
or ient
in stance
R ail
Ġstop ped
Ġexper ienced
an aly
Ġun stable
head er
Ġsh ares
ĉĉĉĉ ĉĉĉĉ
re tt
B as
ĠU l
ĠSil ver
requ ire
Ġdifficult y
osp it
ann ot
ut r
vious ly
F P
ĠW y
ĠLic ense
O ct
Ġrece iver
Ġrec overy
Ph il
Ġn a
h d
Ġrelig ion
Ġag ed
ond ition
g ood
je ctions
Ġinstit ution
equ ival
Ġ ille
Ġdr ivers
ĠTra ining
ĠMicro soft
iss ue
Ġworld wide
Ġk il
Ġm ob
or ro
F O
Ġpure ly
Ġgener ates
Ġcomm itted
% .
C am
Ġinter sect
ĠE val
Te levision
mod ules
Ġadv oc
tr im
Ġquot ient
um in
L ink
ĠH ans
Ġbos on
Ð ²
Ġd il
Ġl ake
Ġra in
N G
M I
con ver
ĠHot el
Ġd iverse
lim it
ch t
V ari
r ator
] _{
sh arp
Ġre ly
ĠM oon
ĠAdminist ration
Ġwind ows
Ġsee ing
}$ ).
\| _{\
b ad
and o
Ġvol tage
St r
Ġclass ifier
ĠL ank
ĠRe call
ĠLin coln
d ocument
rom ise
G ra
ĠW ed
Ġmusic ian
Ġupd ates
st op
list ing
ik h
st rap
autore f
al og
R o
Ġb an
Ġpurch ase
ĠHow ard
1 13
Ġb inding
ĠSpec ifically
ĠY outh
Ġc risis
ĠDig ital
un iform
D own
ĠS n
oc ese
Ġan tic
ĠV in
st ances
ĠR ight
b ow
A ng
Ġgl ob
Ġleg end
pr im
Ġincreasing ly
M O
N ames
ĠMar c
igen ous
E p
Ġexp ensive
an alysis
Com parison
T im
res ize
d ynamic
Ġexper iences
gh an
Ġs ons
ĠR ab
Equ als
Ġdel ivered
ĠHar ris
ĠS S
Ġf ly
che ll
ist ant
ĠD a
ĠH D
Ġb id
\, .
ĠF a
Ġste el
ĠWal ter
U K
Ġk id
end ar
ry pt
Ġand roid
Ġly rics
}} }$
' }$
Ġp m
Ġad ult
ĠD ur
N av
Ġconsist ed
' ).
d if
Se lect
Ġpotential s
Dav id
De v
m etric
19 04
ĠV ice
Ġeduc ational
ĠHe art
pl o
ĠMo ore
Ġp ron
Ġre new
re q
* \
y ers
Ġpresent ation
Ġfound ation
ĠRec ord
ĠJ ay
im od
Ġb ath
ug u
cent ly
d z
ĠP DF
cons istent
ĠEar l
\ -
end if
Ġplan ets
Ġbeaut iful
Ġin form
ĠMar ine
B orn
ĠCom b
ĠFor ces
Ġwa it
Ġslow ly
F amily
ĠIsra eli
il st
}}\ ,
ren ew
Ġneg ligible
ĠSw iss
Ġembedd ings
Ġent itled
m aster
ĠCo oper
M ag
e re
issip pi
ĠRem ark
Ġme re
ĠD omin
put ation
Ġprofess ion
Ġsurn ame
Ġequ als
V ersion
respect ively
Ġvol unte
Ġshoot ing
Ġful fill
ĠC S
ar on
Ġa cknowled
ĠUn iverse
ĠTur kish
se par
ĠSc ient
Ġalign ment
ĠRober ts
S ol
' )\
Ġr ating
ĠCol omb
Ġt ens
dis ambiguation
@ {}
r Ã©
R ow
u ced
Ġd ialog
S pace
tem perature
ĠF ame
Ġqual ified
Ġs in
enc ing
Ġd ream
Ġun ity
ĠO klahoma
Ġtrack ing
ch arge
AB LE
ĠM and
w en
Ġmetall icity
center line
Ġexam ine
r ison
Ġarg ue
is ations
Ġj azz
ĠEx ample
m arg
e ast
Ġsymm etries
Ġen ables
ĠCon stitution
Ġp rices
Ġformul as
qu est
Ġcorrect ly
Ġround s
Ġpublic ations
mar ks
Ġv ic
Ġconserv ative
Ġm ort
ic ide
Cre ate
{ [
T ask
}( -
Ġr uled
cast ing
Ġcon cerning
ĠN ig
oot strap
ĠR oll
E st
Ġsk in
ĠI P
W S
Ġpres c
Ġrel iable
R ober
ĠI mage
$ --
Ġoff ering
ĠTem ple
) !
ang ular
const ruct
A v
Ġf ought
ion ed
ĠInf antry
Ind ian
Ġsh ut
ĠG ordon
ĠC op
c are
Ġv o
on line
ograph ical
Ġ$- $
Ġpreserv ed
Trans port
Ġw el
Ġd y
ĠN atural
S pan
l ate
Ġacc um
st ellar
Ġse es
ĠB ry
og g
unn y
in burgh
Com ponent
do or
Ġt ends
Ġimpro vements
}} +
Ġcarry ing
ĠL ib
St ud
Ġformal ism
ut ies
Ex ample
ĠK am
V ill
ĠEm peror
g ment
Ġrel ativistic
Ġcompet itions
ul ner
o es
Ġgood s
Ġaux iliary
Val id
Ġsche dule
Ġsing ers
Ġopport unities
Ġgu ess
ĠN ich
Ġan ten
p ref
ĠV ideo
Ġenc oder
f our
ĠM i
Ġsee k
ĠC ra
ĠP A
ess ions
Ġ\ #
Ġlength s
Ġactiv ation
, ~
G G
left rightarrow
Ġbelong ing
Ġh am
bum s
Ġt all
ĠH u
Ġun us
m ut
if ting
Ġext ensions
ĠF R
ple ctic
Ġgun s
E Q
h arm
ĠN ev
ĠR yan
O K
Ġg one
Fig ures
ĠN ative
ĠN ag
Ġderiv ation
ĠHou ston
Ġt ropical
ĠWind ows
ĠH T
Ġre jected
ĠN et
Ġjust ice
ĠF ront
ah n
Ġhistor ian
}{ $\
ur is
Ġlaw yer
ĠL am
Ġmark ets
Ġm as
eg et
ĠCl ark
ĠA le
oc a
p ie
Ġarr ive
Ġconstit ution
c oupl
Ġre verse
cre asing
Ġprefer red
opt imal
oun ced
f all
ĠJes us
ĠBill board
m ay
ĠGu ide
Ġassoci ate
d ers
Ġdem oc
Ġgreat ly
ĠB ased
li est
Ġvar ies
ĠCont rol
ĠV iew
ĠAnth ony
Ġliter ary
W A
ual ity
ĠIslam ic
Ġpubl isher
ĠAn alysis
Ġ$ -\
Ġsu it
ĠIn itial
Ġvan ishing
ĠW olf
Ġj unction
Ġab elian
ab ric
Ġacc used
Ġcon clusions
Ġre volution
Ġellipt ic
Ġterm inal
ĠSo ft
Ġenc oun
ĠL apl
: (
uer to
Ġs udden
ri k
ver tex
Ġc aught
ip her
ĠM rs
ĠW a
Ġoff ices
l ined
ĠTe levision
en ia
Ġtransform ed
Ġpract ices
et ary
}) (
ĠTai wan
b ach
Ġneighb ors
. '
eb ox
ĠLa ure
ĠNever theless
E ducation
op ter
Ġconsider able
ĠY ang
oc y
iline ar
t ask
S u
ĠAss ert
Ġsoc cer
Ġel astic
ĠO ak
Ġanc est
M ich
ĠW ard
Ġph on
Ġast ron
ĠK o
t ons
( |
i ot
Ġw al
he t
it ud
Ġkey board
Ġlo ops
c ounter
ĠL INE
Ġar ises
}| ^
ag u
Ġreg ister
Ġent rance
ud a
L ocation
form at
Ġinv ariance
à ¥
ĠS ix
ĠF ood
in ian
serv ice
ĠEx press
Ġ( ),
Ġexpl ored
M ac
Ġinv ited
ie val
ĠK az
) }^
ens ively
Ġenem y
19 02
w ang
Ġs oci
Ġa ired
Ġp ione
ĠA ction
red it
Ġtop ics
LA SS
Ġg ather
Ġp od
ĠCon sequently
Ġcompet itive
Ġprov en
B D
Ġpip eline
Ġmin ing
ry st
D el
c ov
Ġdeg ener
Ġfeas ible
ip ped
Ġmet res
Ġtri es
ĠPl ace
Ġhol omorphic
resp onse
Ġpermut ation
10 2
ost ic
Ġf ranch
us al
f ront
urs day
1 14
ĠE uler
is lation
ol ished
oci ated
s ome
Ġdetermin istic
Ġ ^{\
ĠD NA
Ġdiscrim in
fig s
Ġre b
ĠP ref
}}\ \
ĠCro at
ĠNC AA
19 01
Ġbo at
Ġinvol ve
ĠTh ough
Ġoper a
Ġse ar
Ġst ating
ĠR on
sim ilar
el and
K L
ĠAl ber
ĠSup port
++ )
our se
Ġ\ }$
s ized
Ġcollect ive
v able
Ġsports people
B N
F ootball
ĠAp p
D et
Ġ Ä
up per
Ġdec ide
Ġcryst al
Ġw onder
Ġmulti plication
int end
ĠE ag
od ox
ĠCommon wealth
Ġdeb ate
ĠR ang
Ñ ı
Ġd iversity
ov ing
; </
Ġc of
C y
ĠCol lection
ĠR ow
ĠSing h
ĠBul g
Ġroy al
Ġdis establ
ĠH as
hy per
( &
ĠPh ill
ĠN ash
Ġattrib uted
Ġaim s
Ġmeas uring
B r
Ġtem ple
inc or
ĠF inn
Ġwor se
Ġ\\ [
Not able
arg o
f requency
ĠSe ason
a ire
? âĢĿ
Ġobserv ables
at in
r ats
19 03
sup p
Ġt ennis
Ġcl ouds
Ġfrag ment
Ġhyper bolic
Ġret irement
Ġf ault
ag ram
C V
Ġdirect ors
ta ke
ĠK evin
dep th
ĠG ard
Ġparticip ate
ĠS port
Ġfraction al
aint enance
Ġmembers hip
ter ior
Ġcompet e
Ġc avity
[ "
Ã¼ r
j et
ĠArgent ina
Ġrem ember
oid s
Ġtor us
Ġsurpr ising
Ġdistingu ished
ĠMe V
Ġv oted
op ed
Ġshift ed
Ġplatform s
Ġsuper conduct
ĠT el
Ġimag inary
S ign
ĠF unction
C I
ĠConnect icut
ĠE arly
ĠW ol
ĠGal actic
ĠD al
Ġadvers arial
per iments
lad esh
Ġcl ients
Comm and
is ode
at tered
ĠF ried
3 60
u ct
ay an
ĠSe veral
Ġland scape
ug s
k k
Ġlimit ing
Ġrem ote
ĠCh ampions
Ġefficient ly
ĠAg ency
Ġl en
uk i
id ay
Ġhas h
Ġthink ing
Ap p
ke ep
Ġoscill ations
eq q
Ġf ont
Ġpaint ings
ĠR ub
Ġcontinu ity
ĠSoc orro
ĠCont in
Ġdiver gence
Ġf ear
top rule
sim ple
Ġcommission ed
Ġtrig ger
Ġchain s
Ġestablish ment
Ġinj ured
AT ION
T ube
Ġfail s
d or
ĠM ir
all as
Ġscient ists
Ġresol ved
Ġpo etry
= {\
Ġover l
Ġobserv able
ĠD VD
Ġtang ent
ĠBelg ium
=" ../
rat io
im ore
U pdate
ĠF all
Ġproced ures
Oper ation
ch ant
% ,
ĠM iami
Ġev ident
ĠMat the
ĠMond ay
un ed
Ġloc ality
ĠE lement
ĠVill age
Ġoccup ation
Ġap prec
renew command
Ġhead s
const ant
Ġaccess ible
RE F
Ġfact s
ĠA PI
b ibliography
ĠK ra
ĠC A
B ur
ĠD ublin
ĠE U
ser ver
ampl ing
ĠS in
ĠP as
ail and
o i
Ġs now
Ġeng ines
Ġj ets
B T
ĠS F
Ġregular ization
Ġhe ating
ĠPortug uese
ac on
Ġp itch
Ġl aid
Ġlif etime
N P
j an
Ġhost s
Ġsh orter
^{ [
Ġeng aged
nes day
ĠHaw ai
ĠLINE AR
_{ {
J o
u is
Ġfound ing
Cl ub
S an
n one
res olution
ĠHer itage
Ġd s
ors ion
ĠD ave
Ġm esh
u its
ĠC ulture
Ġnot ing
Ġpro ton
ĠT ar
Sy mbol
) ~\
est yle
) </
f ol
ĠG irl
18 80
ĠN aval
ĠP ap
stand ard
ro d
x rightarrow
Ġvari ability
ar ation
Ġsup por
bu f
* {-
ann y
old s
Ġcent uries
ĠMed icine
it ics
M ilitary
bu ilt
Ġab use
Ġrequ iring
Ġr ival
fe e
$ =
: "
Ġcomb ine
d ale
Ġg al
ific ate
prote ct
se a
az e
ant on
sc ription
ĠB ureau
Ġb ases
Ġinhab it
13 5
Ġch urches
Ġprinc iples
W rite
c ost
n or
ĠF ull
( _
Ġj ourney
.... ....
t im
ĠP ed
~~~~ ~~~~
Ġrad ii
J ust
athe red
$& $
ĠC hen
Ġhel ping
ĠL ar
Ġcohom ology
Or der
ĠHol lywood
w ords
por ated
Ġequ ally
ĠM D
10 4
Ġp atch
3 50
oth s
back s
ER R
ĠWalk er
ĠPl ayer
}{ $
ĠDis ney
Ġcan cel
own ed
ĠI T
ĠPh ot
ĠSystem s
ĠAnton io
ĠU se
Ġcomp ression
e fficient
s un
Ġwa iting
ĠP S
ĠL as
j av
Ġfil ters
or tex
Ġu int
ĠP rix
Ġclin ical
U I
Ġn ice
ug ar
Ġis lands
and roid
aw ay
O F
ĠLear ning
Ġw rap
ĠDe ad
Ġband width
Ġpost ed
Ġpos it
Ġhigh way
ĠC ON
ĠL yn
Ġe mail
Ġadd ressed
Ġbring ing
ĠEd inburgh
ĠF A
com pact
Ä ĥ
ĠO R
ĠB ox
Ġcerem ony
^- $
off set
Ġtouch down
Ġres erve
GB T
}} -
ĠO tt
os lav
ig m
Ġacc ord
ĠMiss issippi
ues day
D om
Ġaband oned
)\ ,\
ĠDet roit
ĠDe ath
ĠBatt alion
h skip
int o
Ġsqu ares
Ġinequ alities
Ġsup plement
j u
rel im
Ġvol umes
ĠD R
25 5
Ġphot ograph
): =\
sp aces
ĠAr ray
ĠI mm
Ġch air
Ġst im
Ġm irror
Ġobserv ational
Ġeven ing
S ur
raise box
om as
cont rol
ĠB ou
Ġhapp y
ĠH um
Ġult ra
Ġturn ing
R oman
bec ause
M us
AN D
1 17
aw n
}} +\
ĠP ad
ig ious
Ġl ose
]{ ./
Ġobtain ing
Ġpass enger
Ġremov ing
ĠBrazil ian
Ġanalys es
Ġpers ons
Ġm ental
An y
ors es
ĠSt art
d ouble
d irect
reg ion
H y
g tr
ish ment
ps hire
Form er
Ġthere by
Ð ´
ĠS yn
s or
B ased
Ġob j
ĠP ope
Ġall ocation
param s
im ir
ex ec
al ia
ĠH ockey
vel ope
Ġdeliver y
Ġlimit ations
^ +\
ob i
Ġpre lim
iss ance
sh aped
Ġhundred s
ĠG W
rad ius
e an
ĠDen mark
Ġaccompan ied
Ġval ley
! "
Ġg ran
H ol
ĠHon or
ĠC emetery
Ġroad s
Ġachie ves
Ġdeterm ining
rict ion
net t
Ġdis cre
Ġout flow
il k
ub le
Ġrang ing
Ġ )$
Ġv ast
ĠAl b
Ġes cap
Ġsequ ential
ĠJ uan
ĠT reat
âĢĿ ,
ĠD ak
Ġw at
level and
s burgh
ĠIndepend ent
Ġparamet riz
con nection
Euro pe
G reen
ir i
big skip
tra ined
M al
Ġlocal ization
Ġim posed
Ġpres erve
g ame
ĠDou glas
Ġb irds
Ġregular ly
Ġun like
l on
Ġs leep
im ated
eg as
Th rough
Ġd otted
ĠL P
l ab
Ġro utes
ĠAl an
ĠLouis iana
ro se
indu ced
Ġconver ge
symm etric
Ġrestrict ions
x ml
) /\
* {\
}) }\
Ġf ol
Ġg rey
N T
ĠBow l
Ġext raction
ant i
ab ad
Ġp lease
Ġre pair
Ġexplain s
Ġin aug
Ġke ys
Ġb arrier
ab olic
Ġb ins
fin als
Ġde put
Ġassist ance
Pl an
Ġexhib its
10 3
Ġf lying
Ġcl ip
g ate
Ġst adium
am an
olog ically
st age
Ġbright ness
ĠF uture
Ġpartners hip
i u
Ġgra de
Ġac oustic
Ġfle et
ĠIndones ia
R ich
Ġcon vert
ick ing
col head
Inter face
Ġp up
Ġproof s
ad ic
at ta
Ġch ampions
Ġb are
Col umn
Ġc ro
con vex
Ġour s
ĠD ick
Ġmechan ics
iz ers
sol id
um ann
Ġte en
pend ed
Ġensure s
F lor
Ch ild
Ġsuper ior
ĠS pr
Ġent ering
Ġm ine
H ome
] _
+ |
enez uel
Ġrespons ibility
Ġdeterm ination
ĠC ook
ĠS ud
Wid th
Ġv eter
Ġphil osophy
ĠLiber al
hal f
Ġsummar ized
ĠMay or
Ġmonitor ing
b one
ut ely
}{*}{ $
ĠDef ense
Ġcomp ilation
Ġloc omot
she ll
Ġsingular ity
Ð ¼
s ite
Ġs elling
Ġt ables
Ġfin ishing
Ġocc as
d ied
M ode
ĠF le
Ġcom ic
Ġsurve ys
b ridge
10 6
**************** ****************
ĠTr ue
ĠMc G
xy gen
ĠPortug al
T M
ĠOr th
lem an
f ather
q q
' (\
ĠTer rit
Ġt ank
k t
char acter
M arch
Ġde let
Ġoper ates
ht bp
Ġd amp
it ian
k ar
con j
ĠN ob
Ġmod ification
ple te
T ree
Ġsh ifts
col l
Ġp ose
Ġw arn
c ule
Re ception
P aul
ĠKel ly
p ow
Ġarrang ed
Ġexpl oration
F ran
ĠP ra
ĠStud ios
ail s
ĠAb d
Ġvictim s
Ġmid field
tra ining
Ġcommunic ations
Ġelectro magnetic
Ġd ies
ang el
OR T
ĠQue bec
ir ation
ĠLie utenant
B er
Ġa ware
Ġann ih
;" |
ol ph
Ġqu bit
Ġpre v
ĠP ow
, .
ĠBay esian
onom ous
Ī Ĵ
ĠH ills
he res
Un it
ĠD anish
}. $
}] $
M ajor
f ire
Ġd uty
ather ine
Ġstre ets
), (
Ġcompre hensive
ĠC ow
ĠHar vard
h ou
h n
Ã ´
Ġbo ys
Ġvari ants
ĠP ut
Ġext ending
old er
}, \\
H R
im it
B us
Ġcol lections
f ly
ĠBrig ade
Ġshe l
L ay
] );
Ġdis miss
ith uan
ex pl
Ġm outh
vers ely
ic i
er as
des ign
Ġlic ense
10 8
Ġrecord ings
ĠG arden
Ġan th
Ġdraw ing
Ġexpand ing
Sum mary
Ġtechn ologies
Ġse cretary
ĠS NR
re cted
ĠM os
Ġinteract ing
ĠOr chestra
ĠR ace
ĉ čĊ
le ading
b x
itud inal
1 18
ĠP ack
Ġst rain
sh ifts
T ypes
Ġme ets
_{ (\
ĠL anc
w ho
b us
Ġfocus es
c z
ĠM ission
Ġc ards
Ġp and
Ġch rom
Ġmanifold s
b est
ra ce
ĠR ot
Ġsh r
ĠUn it
le in
Ġco ok
ply ing
Ġqu eries
H A
T or
ref erence
Ä «
}^{ *
Com b
Ġcour ses
Ġsub stit
Ġlocal ized
k w
Ġphenomen a
Ġj unior
ast s
ĠP ur
Ġsy nd
Ġleg islation
Ġrespons es
f g
Ġtot ally
- $\
C s
^{ {\
p us
ct x
ĠR ound
Ġmin i
lik ely
Ex pat
r b
l ass
m outh
ap olis
F ree
Ġinv ent
ĠU E
aw s
ĠB arn
Ġeffect iveness
ĠB S
Ġv oting
Ġsh apes
Ġpri ze
Ġactress es
ĠN i
}$ $
Ġer g
ib l
ĠF ern
Ġman age
B U
ĠH ug
se q
Ġcl ar
ĠM anu
ĠO pt
Ġrestaur ant
Ġread ers
big oplus
p f
bs erve
ment ioned
M art
ate ver
ateg y
Ġcon sequences
ul us
Ġf ruit
Ġal ter
fra ction
Ġ\| _{
ĠL ane
lect ric
Ac adem
1 16
HT ML
Ġcrow d
ĠSam uel
Ġr u
Ġre ign
Ġh ired
F in
bibliography style
over ty
Ġrig id
Ġdual ity
Expat riate
A ccess
Ġinst ruct
Con clusion
J ames
Ġb anks
ĠÃ ī
Ġhomot opy
Ġref uge
ĠChe m
}] \
Ġferm ions
M o
h op
iv ated
ĠLeg islative
18 99
Ġknow s
Ġrecomm ended
Ġass ault
Ġcomput ations
Ġpar ad
E very
gtr sim
Ġam pl
Ġmut ual
al ph
Ġs ed
s qu
Ġback ing
w rap
Ġin g
ĠChe ck
att r
bottom rule
ĠTh ailand
Ġcompet ing
qu ality
B oth
Ġweek end
ĠA BC
bor ough
ul i
Ġcheck ed
e a
Ġhierarch y
ĠE dd
set length
ac cess
Ġent ities
ĠA C
Ġed ited
Ġminim ize
ĠF arm
Ġval uable
C a
as a
Ġflux es
f iles
ag on
Ġkn ock
an ia
B ook
}} }{\
Ġv anish
ĠAf ghan
Ġground s
NR AS
Ġon going
or ough
ĠBl ock
ĠP uerto
DB LP
um ping
Ġ\ :
Ġcre ates
Rec ord
hy thm
at ar
Ġout comes
ĠOn line
Ġ\, .
q l
red ited
ho ok
Ã ¥
Ġdist urb
moment um
Ġrece ives
Ġref lected
Ġpublic ly
ĠPet ers
ĠH ad
pol ar
Ġfam iliar
Ġtw elve
Ġteacher s
ĠC oul
S W
Ġs i
Ġmed icine
\' {
ann on
Ġcard inal
Ġdr ift
ol as
Ġs ending
Ġadv ice
resize box
18 98
) <
Ġfil ed
' -
Ġmanufact uring
n ed
Ġfair ly
Ġc up
Ġthick ness
ĠP erson
Ġre cept
Ġcontro vers
Ġmodel ed
ars ity
C ache
iv ariate
R ange
ĠPro cess
Ġin cl
10 7
Ġannoun ce
correspond ing
List ener
s ong
sm ooth
R ob
Ġmarket ing
m el
Ġdis ks
Ġgradu ate
ibr aries
ĠI ron
Ind eed
Ġint ent
Ġbr ings
Ġpass engers
Ġear liest
it atively
& +
}} ^{(
Ġc raft
Ġadm itted
ab out
ĠF ive
Ġob st
$ }\
In itial
Ġn ick
ĠB ush
Id ent
Ġwhe el
iver pool
Ġcast le
ĠU tah
r n
Ġrequest s
Ġd ress
Ġimpro ving
u u
Ġst ood
ĠE mer
Ġa w
D ue
f ixed
dr iven
ĠDe an
b ia
en ian
Ġart ificial
ĠAng el
be an
Ġdip ole
ĠF ri
c am
Ġcompos ite
Ġmach ines
ĠCon c
Ã «
Ġhom omorphism
colon eqq
Ġc ited
ĠCh ang
Ġprepar ation
ĠM Ps
add le
Ġsw it
ĠN ame
ĠLaw rence
Ġisot ropic
ĠE dition
Song s
pro fit
ma king
Ġcom fort
ĠReturn s
r ically
ĠCh ild
< !--
G raph
ĠG ene
18 97
UR L
Sc ott
ĠMor gan
ĠF ile
Ġcount ing
opy right
Ġexp ed
Ġcycl ic
ĠM es
Ġl it
ĠB art
ari ants
ĠWith out
Ġgeodes ic
Ġarg s
Ġc ot
Build ings
ĠL anguage
Ġphot ometric
ater ial
Th m
Ġmov ies
Ġoper ational
ĠMalays ia
az ines
Ġf olk
ĠKenn edy
es is
ĠOb ama
Ġcl er
Ġcr ash
process ing
Ġr ings
Ġtra ding
ĠCur rent
pro perties
Ġint u
Ġgrad ients
ph an
be y
Ġw aters
ĠIm perial
om ial
l ights
l r
ĠG il
ĠE rror
re ement
ĠD ub
tem plate
ĠP ho
ĠL ower
Ġmodul i
Ġnorm ally
ass ador
It alian
ĠThom pson
Ġaccur ately
~ {\
Ġpro hib
). $$
ĠB uck
i ac
bar a
ĠI r
cl uster
J une
ĠSe attle
Ġapparent ly
Ex ec
ĠArk ansas
Ġinv asion
18 70
ĠFin land
ĠP ath
. ;
I B
Ġext inction
d ig
Ġv ulner
Ġorient ed
M ass
os ph
}$ ),
Ġpopular ity
ĠT ig
anc ell
ge red
ĠM ol
Ġprodu cers
Ġdev oted
ĠComm ander
cho ose
ĠT erm
as g
ubl ished
ĠĠĠĠĠĠĠĠĠĠĠĠĠĠĠĠ ĠĠĠĠĠĠĠĠ
Ġenc oded
ourn ament
um ar
ĠAd ams
or us
h yp
L D
Ġag encies
ĠB etween
Ġautom atic
G AN
Ġdispl ays
Ġnot ably
ĠRuss ell
Ġemer gency
Ġre tail
ill o
> $
Ġres igned
big gl
Ġident ifying
K K
Ġconsid ers
Ġtrans action
ĠPe ace
Ġsimpl ified
Ġdeal ing
= }
ĠL ang
Ġgrow n
Ġdesc end
Ġhelp ful
ĠRes erve
war z
Ġwrit es
Ġke V
Ġw ider
Pro cess
n amed
au er
Ġb ott
ĠD ie
Ġdesign er
Ġt um
D iv
ĠYou Tube
Ġro oms
ul um
Ġbreak s
ÃŃ n
Ġviol ation
Ġre actions
re nder
ĠBang ladesh
Ġmotiv ated
ab i
Ġclos est
'' .
S l
R O
ch arg
Ġgradu ally
ĠS ho
ĠNot ice
U P
A ugust
C le
al ed
' ,\
Ġnucle i
[ {\
ph ony
ve ctors
ĠR io
ĠPal ace
Ġres idence
ĠN eg
Ġrel ies
Ġbox es
ĠAn na
Ġcustom er
em en
Ġ> =
Ġarm ed
ĠR y
el lect
Ġcontain er
ĠD ir
ĠS pect
Ġt ied
ĠCom mer
text style
}} _\
Ġins ight
fin ished
Ġkind s
Ġm o
Ġhe aring
Ġelect rical
ĠCap ital
pos itive
ĠR ick
Ġsup pressed
ĠTra de
ĠK ings
Ġcommut ative
ĠP un
ĠJ ava
ĠB ull
On ly
Ġh ang
) {$
lo ok
Ġguarante es
ĠL O
ĠCh airman
el astic
Ġcub ic
9 00
Ġin vert
Ġscal ed
Ġprom ising
Ġsing ing
contain er
Ġtri als
incor porated
18 95
Ġex ercise
Ġregard less
Ġfocus ing
Ġanim ated
ĠMarg aret
Ġreconstruct ed
ter y
var pi
Ġfrequ ent
ĠSim ilar
Japan ese
ĠH ell
^* (\
o ks
en um
Ġsuggest ing
Ġd ial
rup ted
Ġp ray
st ery
E V
ĠAll iance
ĠDep uty
Ġre plic
Ġmov ements
P ass
Ġmiss ed
quant um
Ġo x
ĠC ensus
Ġpubl ishing
ĠWork s
ail ability
Ġre tained
Ġdrug s
Ġmar ks
cc entric
ĠY an
ot er
J uly
Ġsound s
}} )\
z ing
Ġto ler
ĠSh ah
Ġm ig
Ġrest ored
18 96
ĠSte wart
ore l
Ġassess ment
ma xim
c rit
Ġrece ption
end ment
Ġal coh
c ritical
Ġf ired
Ġtalk ing
ĠAl ban
Ġover view
Ġobserv ing
Ġland s
ĠS mall
Ġdetect ors
g ue
Ġpass age
Ġpar ity
Ġim press
e lection
am ination
ĠK l
h us
Ġre venue
Ġen abled
bigg r
k ens
ĠTe xt
posit ory
p atch
S n
Ġmod ular
Ġv eget
Ġtrans it
Ġm ilit
Ġexponential ly
ĠSar ah
B ound
Ġag es
bound s
M icro
Ġex posed
H istor
Ġcontrad ict
ĠBru ce
ming ham
l ag
ĠAtl anta
Ġaver aging
m illion
ĠTh ursday
rib utions
L ie
Ġphot os
M NRAS
Des pite
in ces
ĠRe ad
ĠUk rainian
rib utes
ro v
Ġdis placement
ĠMc K
ĠK r
Ġdecl ine
cal cul
h ai
ĠN eb
ĠD ance
sh op
F ix
Ġk ids
ĠAust in
ĠA I
ĠG on
M or
On ce
ard ed
q ed
Ġse venth
ĠFreder ick
ĠAust rian
A pril
Ġseem ed
T arget
}{ !
n an
ĠS ac
Cont roller
Ġsp ins
Ġgr ass
Ġann iversary
Ġfranch ise
T F
ĠK an
ĠVol ume
S V
Ġdest ination
Paramet er
Ġpro xim
Ġver ified
algorithm ic
] }\
ĠPol y
ed ing
ĠHistor ical
Ġunivers ities
Ġadapt ive
Ġ* *
Ġfavor ite
Ġg ray
ĠW right
roph y
Ġdef ensive
Ġt ip
Ġh ill
Ġcre ative
Ġo xygen
_ .
Ġreprodu ce
S ym
Ġg ang
B en
ĠC os
Ġinhabit ants
Ġman ifest
] ^{\
Ġapproxim ations
abil istic
Ġresol ve
Ġsp end
et o
Ġmar ine
}. $$
ha ust
Ġcharacter ization
ic ing
// /
Ġcoinc ides
ĠO bl
ĠT ol
ĠG irls
^{ *}
Ġb on
grad ient
AC K
cos ity
Ch ang
O fficial
Ġ{ {
ht b
}$ :
rap ol
Ġacqu isition
ĠP i
Ġloc k
Ġcomplet es
) ~
Ġmet ers
w he
Ġconjug ate
ĠRog er
Ġelim inated
th a
en berg
Ġvari ational
ĠW ang
m ix
Ġmat ters
Not ice
ĠT ak
T O
k it
D onald
ĠB ag
h ig
Ġv oters
Ġsup ern
Å Ł
ĠR an
2 20
O h
og s
- {\
ĠW here
Ġcateg or
diag ram
Ġsynthe sis
d in
Ġc ash
od ic
ĠPubl ishing
ia h
Ġsym plectic
Ġathlet es
pend icular
Ġd ot
Ġexpert s
Ġlist en
ĠWed nesday
ĠBo ys
Ġpand emic
Ġtra il
D L
Ġste am
Ġc umul
com position
Ġtempor ary
F lo
Ġremov al
Ġsur gery
\\ \
ĠT R
par a
^ *}
Ġext ensively
âĢ ĺ
Ġowners hip
Ġpro sec
Ġh ur
Ġquant itative
Ġex it
ĠĠĠĠĠĠĠĠĠĠĠĠĠĠĠĠ ĠĠĠĠĠĠ
Ġfl av
Ġproport ion
ĠM ars
S al
ĠG L
ĠF al
ĠMar ie
Ġasymptot ically
Oct ober
ĠHung arian
Ġin fect
Ġl ob
Ġcontinuous ly
Ġg amma
ĠHung ary
Ġw ings
Ġuniqu ely
ĠEconom ic
Ġpick ed
Med al
f an
Le vel
| }{\
Ġund efined
Ġrepresent atives
Ġwas te
og raphics
van ced
ĠMat hemat
Ġas sets
v c
ĠN elson
Ġd ynasty
Ġrot ational
Contain er
ĠUp per
Ġre act
Ġm aintenance
Ġrobust ness
ent er
Ġconstitu ency
Ġpra ised
Ġgrad ed
Ġfem in
Ġspec ify
Ġschol ars
st ore
Ġ ).
ĠAg ric
Ġmicro sc
T I
Mod ule
Ġbatter y
M er
Ġfall ing
i ors
ĠĠĠĠĠĠĠ Ċ
ĠA y
Work s
18 93
Ġlogarithm ic
Vill ages
ĠT ag
ak ov
tag on
el ic
ĠOper ation
Ġbi ological
Add ress
Ġfor th
Ġintrodu ces
Ġing red
+ $
] ]
be fore
Pro ject
ol id
oper ator
ĠJoh ann
Ġmag ic
ĠK on
ĠCamp bell
ine a
ant um
Ġagre es
ĠF isher
ĠN N
ab atic
Rail way
Ġar ising
ort on
ĠG ran
)} =\
Ġt ie
ow ed
Ġrequest ed
R ussian
ll i
Ġin it
P N
Ġfeel ing
Ġi i
| {\
Ġt ension
Ġh a
Ġs ke
i op
scal ebox
}} ^\
ex act
ploy ment
make box
jo in
Ġagric ultural
Ġrot ating
ĠJ ason
ver sy
ĠK ur
ĠCh amber
}$; }
Ġphys ically
Ġdeg enerate
Ġsp r
Ġoff ensive
Ġe cho
p aper
ab ul
ĠAlf red
ĠMont real
se en
rep rene
und les
Ġst yles
Ġmod ify
ear ing
G old
or o
Re al
st ers
Ġmay be
ĠEr n
Ġsol it
ĠN ic
Ġquar ks
h ad
ĠN ep
Ġneighbor ing
Ġarrang ement
rel ax
AL L
ĠMur ray
Ġdevi ations
ĠPro of
ĠA ccess
Ġparticip ation
ĠC ass
Ġexclud ed
Ġart ifact
Ġwind s
( $\
or dered
Ġrepe at
Ġrect angle
Ġm ic
ĠĠĠĠ ĠĊ
Ġsens ors
ra ud
ĠKn ight
Ġsub str
, }
Z Z
ack nowled
ĠS ep
}} }}
Ġgu ilt
b n
Ġarch ae
ĠA bb
H ost
p q
ĠO ri
C G
l as
ĠT uesday
ĠC leveland
omin ations
Ġres ign
ĠPro blem
Ġno isy
j ar
ĠInd ex
Ġimpro ves
) },\
ĠIn s
He ight
u ary
en ix
Ġdiv isions
ĠN O
G al
am ps
ĠMet ropolitan
ish ops
Ġp ictures
Ġmat ched
m ill
Ġweek ly
D an
Ġeth nic
5 12
h ot
ĠC atal
ĠT s
ph ys
}) ^{-
Ġfl avor
/ .
ou ver
ĠYear s
ĠR ain
ĠV ik
ĠWel sh
m ate
Ġm ock
j amin
ĠB uff
fl ux
ĠR ugby
Em pty
Ev ents
ĠMountain s
vel oc
ract ed
Com put
18 85
S earch
ch ment
Ġjud ges
Ġdam aged
Style ID
$ ^{\
L and
Ġadj oint
igh bor
Ġlong est
Ġg ates
Ġconsist ently
Ġinstrum ental
K ind
Ġdwar f
Ġas ymmetry
D I
Ġtransport ation
Ġhead ed
sc ore
Ġapproxim ated
vol ume
18 60
ĠW oman
Ġst uff
Ġo cean
): =
18 92
ĠMet ro
ĠS ite
ON T
Se lected
Ġcomb in
Ġconvolution al
Ġfund ed
Ġ ions
}, $
ĠLe ban
ĠAuthor ity
Ġg ram
ĠB ed
Ġregular ity
toc ols
ĠL iverpool
ĠC L
Ġneutr inos
ĠPitt sburgh
A lex
med ia
Pro perties
cur ve
Ġmoder ate
' }(
ĠJ u
Ġentertain ment
Ġins urance
Ġsurv ived
ĠE le
Ġs ends
Ġin hib
ĠP rad
ĠL ipschitz
Ġt on
ĠA S
F IG
dire ction
ĠMa ur
Ġpack et
Ġprelim inary
Ġsurround ed
iss ible
le ased
Ġ à¤
Ġunus ual
Ġso il
ĠChrist opher
ĠVi enna
Ġtr uly
dev ice
ĠSe cret
y stem
ĠU pon
ple ments
tt p
ĠBalt imore
ĠT ake
Ġd ating
ĠC PU
Ġsub graph
l ia
ĠCh ampion
com parison
ĠE ss
Ġperm ission
Ġd ict
ĠPri or
ĠRob inson
ater al
N etwork
+ }
ĠN ar
Ġspe aker
ce q
r arily
Ġaffect s
n ear
Ġg arden
Ġch amber
Ġvis itors
Ġsp ending
Ġsee king
18 89
Ġequival ently
âĢ ¢
Ġ$\ |\
27 0
opt im
et ing
Ġobser ver
D ocument
over ning
Ġaim ed
ĠLe ft
ic ation
Ġput ting
Config uration
ĠV enezuel
Ġoptim ized
Ġresident ial
ĠâĢ ¦
Ġpremie red
Ġaut hentic
}) }{
rane an
ĠPr incess
ĠY e
Ġint ention
10 9
c b
k u
Ġpri est
)) =
iv id
Ġsp oke
t re
Ġal leg
Ġindu ct
Ġ; $
Ġover come
ic he
ma ker
ĠA rena
Ġmy th
w ig
Ġnon trivial
{- }
ĠĠĠĠĠĠĠĠĠĠĠĠĠĠĠĠĠĠĠĠĠĠĠĠĠĠĠĠĠĠĠĠ ĠĠĠ
spe ed
le ans
at im
u int
ĠSchool s
D s
ĠCom ics
clus ively
iv an
18 94
Ñ ĭ
Ġg host
S pe
it ations
ĠH ind
f am
Ġlay out
P y
P ack
Ġpair ing
elf are
Ġcap abilities
Ġcour ts
}) :
Ġassum es
ir ates
ĠCommun ist
Or gan
< ?
Ġcaus al
Ġthous and
s ens
ĠH end
asg ow
Ġvalid ity
Ġsp iral
D ir
ĠCar ter
Ġst em
ĠD allas
ĠC rit
G O
Ġcoupl es
Ġmoment a
Ġfac ing
ren ess
Ġvari eties
f p
ĠHam pshire
Ġg ro
ĠMic hel
Ġprov ing
te enth
ug oslav
au ra
Ġsent ences
ces ter
Ġst retch
b oy
Ġfor cing
18 91
Ġc rown
ĠRail road
Ġro se
K n
Ġleg isl
ĠP rom
Ġcritic ism
b iz
Ġa de
ge on
ĠS W
trans form
Ġso ph
Ġw ine
the se
ĠP ay
i ar
ĠVal ue
ĠOper a
ov o
Ġh at
e V
Ġprim itive
{ |\
app oint
ang led
18 87
os ed
in ating
ĠCh apter
Ġr is
ar ter
Ġpro spect
b ool
d p
ĠE mm
ĠCon vention
Ġcompan ion
ĠTe V
Ġdec oder
ri el
under brace
Ġh ospit
Ġwh ilst
S am
st ory
bt n
Ġille gal
g ot
Ġp in
Ġa er
ĠCon stant
H I
ma ges
Ġalign ed
ĠW rest
ĠLim ited
ne x
ĠAl tern
12 7
Ġb ishop
ups ilon
Se ptember
Ġanom aly
Ġsingular ities
ĠStud y
n ia
24 0
im eter
Ġher itage
hold er
Ġland ing
Ġcarri es
E ven
Rober t
ar us
is o
ĠS A
us p
b en
e en
ĠK u
Ġcoinc ide
op ol
it ro
Ġcontinu ing
Ġident ities
M SE
Ġque ue
list ed
Ġn ortheast
pr ison
Ġadd s
com pare
ĠChall enge
P roduction
Ġobtain s
ke e
}) +
ä ¸
ĠG ill
] \\
Ġin jection
0000 0000
Ġgener a
ĠTam il
Pol itical
P al
ij k
I EEE
t ypes
Ù Ħ
Ġt ube
Ġcircum stances
ĠC el
o il
Ġelse where
l st
r k
ĠWh y
ĠA qu
D O
n ell
igh ters
cor relation
Ġvari ed
ro magnetic
ĠSt ars
Ser ver
ĠP os
cos h
Ġnucle us
w right
rib uted
Ġdemonstr ates
N or
ĠG ulf
ĠC rown
Ġr ising
Ġinterpol ation
res ource
E rr
Ġpart ly
ĠS tage
Col lection
F ont
Sh ort
ĠPat ri
f ish
Ġorgan isation
Ġdisc ipl
G Hz
Ġne uro
ic ons
at z
Ġadd itive
idel ity
H F
ig roup
lev ant
Å ¾
ĠG ray
play er
op ing
Ġjournal ists
Ġqu bits
ĠRoman ia
M N
ĠFig s
on ian
ĉĉĉ Ċ
Ġsimpl er
Ã ł
Ġreason ing
eg e
Ġdifficult ies
Ġreal ization
Ġb old
Ġ& -
ĠĠĠĠ ĠĠĊ
Ġm ile
Ġreport ing
Ġepoch s
Ga ussian
ĠDak ota
V I
ĠĠĠĠĠĠĠĠĠĠĠĠĠĠĠĠ ĠĠĠĠĠĠĠĠĠ
b ind
\" {
ĠR est
a uth
_{ |
ĠMarsh all
l attice
à ¦
Ġtext s
Ġread ily
Ġcurrent s
ĠH orn
Ġst ruck
ph oton
s ys
}) ^{\
inn ers
ĠN ation
Ġim plications
sin h
Ġhand ling
ĠE mb
ĠI C
J ac
Ġdeput y
Ġsimpl est
ĠCent ury
Ġdeg rad
Ã³ w
ba ij
ĠBrook lyn
ob a
H H
app y
Ġc ust
ins ula
). $
ok a
ĠCl inton
const ruction
Ġchild hood
ed u
Th ree
}= -
ĠMad rid
Ġsum s
l brace
Ġradi ative
ĠS ect
ĠGra ham
with out
class es
sup port
R a
id ering
ĠFrank lin
A ir
ĠO k
Ġran ks
ĠA the
Ġappro val
ĠDef ine
Ġ ray
zer baij
ro le
Ġ ri
ĠWe bsite
ĠI ce
Ġcolon ial
d ynamics
ĠPer formance
Ġweak er
she et
ĠOr leans
F rame
ĠC ou
18 88
ĠBrother s
)$ }
Ġforest s
m or
pl ant
Ġas king
Ġcomp r
equ ilibrium
Ġcharacter ize
ĠDire ct
ley ball
om eter
ĠStan ley
ĠCre ate
it is
Ġcut off
Ġven ues
ĠD J
ĠR ural
P G
ex pect
S QL
hol m
st ation
Ge orge
Ġdeploy ed
Pro fess
ira ble
comm ut
acknowled g
17 0
fra g
Ġwe ar
F ull
Ġrac ial
qu et
ĠâĢ ¢
Ġthe ater
O ption
Ġres ort
}; \
grad ed
Ġhyp ers
Ġcricket ers
et ition
i at
eg u
Ġre putation
mon th
ĠÂ »
ĠPhys ics
Ġrail road
Ġ ell
ĠOrth odox
Ġin ternet
Ġobvious ly
)$ $
Ġsus cept
$; }
Ġhist ogram
ĠR ap
ĠSD SS
Ġcontrib uting
ĠI ss
Z E
ĠM ack
Ġpaint ed
L ater
ard ing
Ent ry
Ġabsol utely
Ġgu id
Ġevol ved
Ġcorpor ate
Ġadvert ising
pro to
B re
ĠJ osh
m ates
ĠSy ria
But ton
ĠD ate
ĠO d
Ġrele ases
co ordinate
w p
Ġantic ip
C ho
iz on
Ġred shifts
U rl
}} ;
ĠL ithuan
ĠF L
em ale
Ġf est
)$ ;
Ġshe et
ĠMor ris
aramet ers
Ġex clusive
ĠJim my
Ġsus p
ov ed
anc ouver
Ġpred omin
in ternal
Ġe ccentric
ĠJos Ã©
H ash
ys elf
ĠMa ine
Ġen velope
Ġpref ix
Ġor ange
Re ference
ĠNig eria
Ġpre gn
Ġremark able
ke ys
ĠR and
Ġ rib
the y
}$ ~
ĠBl ues
Ch ange
Ġleg s
og a
Ġ\\ \
ex ports
Ã ª
Ġsuccess or
h ash
hom ogeneous
as ters
Af ric
claim ed
ĠM aj
Ġ })
18 65
ĠT rib
Ġdiff ers
4 50
ĠJud ge
Ġillust rates
ĠL HC
Ġr ide
pan ies
r f
ant ics
te chn
Ġcons c
Ġwalk ing
aval ry
ĠThe ory
ant ine
fram ework
att ices
Ġt ub
ĠSen ator
w al
Ġattract ed
ĠS L
qu ir
Ġconven ience
Ġpain ters
Ġcompos ers
Ġtrans c
}\, ,
wind ow
ĠP ic
Ġpre pare
ĠTh ose
ĠDemoc rats
ĠEX P
P rodu
. :
ĠR equ
Ġcons ensus
bl ing
W here
Ġcould n
Ġrec ru
AT A
Ġlong itudinal
d ict
Ġmulti plic
C oll
d n
Ġconsum er
ra ctor
Ġn ations
S uch
ĠT ab
Ġren ov
ĠC F
ĠAr n
Ġr ivers
b eq
Ġj uris
p read
ĠUn like
Ġmod elling
an im
em pl
Ġpeak ed
Ġde pos
om on
re ction
Ġactiv ist
Ġattract ive
Ġp overty
ĠV I
Ġcorre cted
Ġtrend s
Ġaff ord
H a
ĠNAS A
men u
ĠEv ans
S k
ĠLank a
Ġreg iment
ĠBir mingham
tt ing
Ġgen re
ĠOrgan ization
) )$,
ĠĠĠĠĠĠĠĠ ĠĠĠĠĊ
ĠColon el
or bit
Ġdoub t
W ar
St and
Ġas semb
Ġre ject
Ġrom antic
Ġw et
ĠF ather
sat z
Sing le
Ġwork er
Ġnorth west
Ġinfer red
Ġreserv oir
Ġestabl ishing
Ġtrans parent
m ir
Ġf ake
Ġdanger ous
c ou
Ġsign ing
Ġcont rary
D irect
Ġcelebr ated
c n
ĠC T
ĠMov ement
Prov ider
Ġhor ror
} '$
ab e
Ġwire less
ĠT rack
b racket
ĠN ature
Ġmagn itudes
Ġflo at
f oo
Ġc arrier
Ġpo em
Ġpreserv es
Ġv ortex
Ġpl astic
Mich ael
A rm
s olution
á »
Ġ )\
ul u
Off set
H en
Sup er
Å Ħ
U L
s ig
Ġprov ision
Ġsub stitute
Ġgen etic
AC T
ma c
est one
ĠB aker
is p
Ġsurv ive
Ġperfect ly
ĠM other
s b
ĠC her
ll ll
F ore
Ġste ep
Ġsubstant ially
J anuary
Ġvis cosity
Ġinst ruction
Ġmeas urable
Ġlabor atory
C K
b ing
g as
Ġrun ner
L oc
F OR
Ġrel ief
ym atrix
S ever
Ġir re
s outh
M eta
Ġsup ervised
n as
Ġsym pt
Ġdiam ond
}\ )
Me an
ĠC u
ick er
Ġk it
. ),
ich let
Ġc oding
ric ane
Ġf at
Ġob lig
iter ranean
ĠN BA
ĠN OT
cor r
up t
Ġpol es
writ ing
qu ote
ia o
inn ed
Ġop ens
Ġc ous
Ġsummar ize
ro ck
ĠTra il
Ġamong st
j or
an ne
ĠB ible
Ġbig ger
ĠWe yl
ĠF r
Ġstr at
T ab
ĠPort land
v ision
Ġind irect
Ġt et
Ġw ounded
ĠSt ra
Ġprom ise
ĠBern ard
R F
pi x
Con clusions
ĠGu y
AG E
Lay out
ĠH it
Ġdepart ure
ellect ual
Ġs aved
Ġvis iting
r vert
ut able
ĠT ower
Ġprison ers
Ġfinal s
ĠEx pl
usal em
ew ise
ĠMunic ipality
Ġsequ el
b ishop
ĠC arn
In s
Ġvess els
ĠH ero
Ġqu art
ĠJ azz
@{ }}
ĠWith in
Ġrel ating
Ġemer ged
ens en
Ġmeet ings
He ader
Ġad ults
B G
harm onic
ĠM eg
pro j
Ġneg lect
Ġreflect s
ĠG un
Ġclos ing
m ont
Ġign ored
ĠR u
Ġb aby
Ã¨ re
18 86
art icle
Ġplan ar
Ġex haust
Ġp or
Ġsub mitted
Ġhabit at
Ġas c
S chool
ĠMot or
ĠG ary
ok er
Ġrad ical
Ġconsider ably
ath y
ang o
Ġb ag
ern els
k ind
weight ed
ov ich
h our
Ġin fo
Ġinv al
marg in
Ġcom ed
sur face
Ġdiv or
Ġamb ig
Ġaggreg ate
Ġcaref ully
\% ,
Ġneighbour hood
Ġs essions
Ġre vol
ĠA B
Ġhe ur
ĠObl ast
ĠGl asgow
ĠV erm
Ã© t
Ġinj uries
lot te
Ġdis ag
grav ity
Ġart istic
Ġexam ined
c v
Ġper pendicular
Ġdes ire
ĠR ud
apt ist
Dist ribution
Ġm igration
ab a
Ġk pc
Ġ( '
Ġsn ap
] }$
ĠQu est
onym ous
pro file
V A
Ġinv ariants
Ġwith draw
Rel ated
ling ton
ĠN ord
ĠCh o
Ġtw ist
ish ments
M iss
Ġkil omet
Ġf urn
Ġsk ew
ĠCoul omb
Ġsus pect
n l
Ġenjoy ed
os opher
umb ent
ĠAp pro
class ical
Ġdem ands
Ġ }(
N one
Ġb om
Ġform ulated
ĠN am
l vert
ou b
Ġevery where
J ack
gra duate
Pl ace
Ġarchitect ures
tra ce
r ceil
ĠChar lie
ĠL en
ĠC hern
r brace
diag onal
Ġpro jections
e eq
Ġign ore
h ill
Ġturbul ence
ĠF ight
h um
\\ [
Ġmere ly
ĠDel hi
Nov ember
ĠE M
f iction
D eb
( *
aps ed
Ġcritic ized
L em
Ġthermod ynamic
ĠMean while
ens ing
ĠK os
ĠBe ck
Ġguarante ed
ĠN ad
der iv
Ġb ird
id o
ĠMit chell
Europe an
ym p
ĠB asketball
ĠW ing
N D
Ġvess el
Ã© n
ĠSt ill
elect ron
ĠL ook
V P
Ġc able
Ġf oss
= [
Ġbranch ing
Ġexperiment ally
ĠI an
18 50
ĠCar ib
Ġc ogn
geq slant
hat tan
ĠIn terest
+ {\
Ġpost s
cc a
Ġs oul
Ġcyl ind
M atch
Ĥ ¬
Ġsp oken
ĠMatthe w
P et
or ne
Ġo ct
Ġinteg rating
Ġoccur ring
Ġtal ks
$ ~\
an te
ĠT ax
ĠB illy
ĠT ournament
at om
ĠI van
work s
Ġstay ed
Ġarbit rarily
Ġtr im
L y
Ġsc r
d m
g ap
end a
Ġsub div
ĠKar l
l ceil
Ġplan es
ĠPlan ck
Ġte ach
ST R
D er
Ġdeb uted
ut ors
Ġim prison
Ġe V
ig ate
Ġd uties
~~ ~
Ġd ots
ation ally
Ġr id
ĠSoc cer
Ġcl im
Ġcont our
Ġfore cast
Ġbut ton
Ġinvol vement
Ġsurv ival
Ġbe ach
reed y
Ġsl ot
ĠAthlet ic
Ġm apped
17 5
x ymatrix
ĠK il
ĠCarl os
ĠOtt oman
om atic
} --
ic ip
AC E
Ġb rick
Ġdeb t
ĠA ug
no align
Ġade qu
Ġemploy ment
Ġcalcul ating
ĠCommunic ations
cess ion
Ġconsider ations
Pos ition
_{\ {
Ġdefin ite
iz z
Ġun likely
Ġund e
Ġreal ize
Wh ite
G ame
Ġco res
Ġl ying
Ġdef ence
Ġres um
De cl
Ġnewsp apers
itar ian
ĠM ak
Ġaddress es
M W
È Ļ
t p
c ache
ĠBe at
Ġthere in
f ocus
Ġw ides
r h
ĠS earch
iv ia
ĠStud io
Ġd eta
comm unic
ĠConserv ative
ĠV ic
ĠL GBT
effect ive
bound ary
ĠH indu
Ġperson ality
e cess
ĠAnd y
Ġatmosp heric
ĠSte el
Def ine
Ġpay ment
Ġmethod ology
Ġadm issible
> ,
Ġadvan tages
fol io
b os
Ġprint ed
ĠPol itical
ĠH REF
ĠA ld
Ġtw in
Ġsqu ared
id ad
Ġim pose
ĠT O
Ġmod ulation
Ġf ishing
ud son
Ġsus pended
et on
are a
comp at
Ġsu icide
Ġcele b
Ġex clusively
Ġf ro
ĠR F
T YPE
^* ,
ĠAssum ption
f un
D ire
-> ]
Ġse ctors
B a
ram ework
t n
ĠL iving
ĠV ersion
Ġfriend ly
d ue
Ġphot ographer
ed a
12 4
ult an
Mult i
Ġflow ers
chang es
0000 00
ĠOver all
Ġdown town
Ġmulti plicity
Ġwatch ing
and al
id en
Ġtarget ed
ĠBroad way
re view
Ġsole ly
N a
ĠF ine
Ġf ract
Ġcross ed
Ġin ert
ĠRe yn
Ġsimpl ify
it ime
Ġpl ain
Ġcyl inder
e ctions
Ġent ers
De cember
Ġstar red
Ġmod ifications
14 4
{ %
E s
Ġjoint ly
Ġin frared
Ġthem es
Ġden ied
ĠT ree
e rer
ĠB ud
ort ed
ĠAthlet ics
ĠG alaxy
Ġel abor
Ġs af
ĠP aper
18 64
t m
Ġw arning
Ġas ks
Ġinvert ible
ĠCa uchy
mid t
ĠC er
ĠNorm an
ĠS eg
18 75
Ġext rapol
Ġwill ing
cons ist
Ġt uning
ina e
Ġcoast al
T om
ĠTe le
18 61
Ġl ib
f are
Paramet ers
O ld
Ġtal ent
Ġover head
r us
Ġa xi
18 81
veloc ity
n c
ĠElect ric
Ġdiv ide
Ġcol span
Ġswitch ing
ĠB og
ĠT i
.\ ]
Î ±
ĠP ictures
Ġneur ons
qu al
En c
ĠM ess
Ġre write
ĠCl ar
Ġcomplet eness
win ning
at ial
Ġm ild
ĠG PU
ious ly
Ġdevelop ers
T otal
Wh y
c ient
ot an
Ġaff airs
ĠTe ch
Ġfill ing
Ġdivis or
p ay
ĠDef ence
ĠR ank
Ġcomp ound
bor ne
Ġmathemat ics
ij ing
Ġmaintain ing
N um
Ġphot ometry
C NN
Ġf asc
ĠMan ager
n p
bur st
ĠT ob
pl ier
}) ,\
ĠClass ic
ĠM I
P tr
d dot
18 84
00 5
rel ations
em e
assum ption
trans ition
L ou
ĠLeg end
period ic
| }\
ĠJon athan
ĠC BS
Ġel ig
uls ion
Ġenhance ment
build ing
ĠMax well
hav ior
u art
), \\
Pol icy
Ġr uling
Ġelectric ity
L ike
Gl obal
ac ian
ĠAN D
ĠCh art
Ġcross es
Ġlog ical
Util s
c ussion
D u
Ġsc attered
Th read
pan cy
Ġinflu ential
Th omas
Ġperturb ative
Me V
[ $
ĠT u
Ġpair wise
Ġpoint ing
)} ]
Ġqual itative
Ñģ ÑĤ
ham mad
d ays
ĠR acing
min ute
ĠT ask
T ur
Ġsl ice
e rences
Ġbusiness man
^* _{
flu id
ĠL A
qu ark
Ġsouth west
aut o
)) )
Ag da
Ġh ip
F W
h aus
ne e
ph ysical
Ġpar se
oth y
Ġan chor
ĠM all
Ġprov incial
ĠK it
Com mon
Ġconstruct ing
() ->
Ġqual ifying
em or
ĠThe ater
op les
Ġcred ited
ĠM ake
et rical
14 5
ĠS ED
Ġd elta
Ġcut ting
Ġw ww
Ġin jective
ter ms
Ġthe rapy
IC E
the ore
tern oon
ĠR L
2 30
Ġatt orney
Ġincor rect
) _\
J ew
ĠH ope
Ġmiss ions
ĠYork shire
Ġcap ability
. ][]{
Ġco arse
Ġp sy
F low
ke V
ĠElement ary
18 63
=" _
sc ar
Ġexpect ations
nav bar
Ġnegot i
F ONT
ĠT ogether
ĠSa udi
z one
Ġs outheast
Ġbe ar
S il
ĠG P
Ġhom ology
t ies
ĠV egas
ĠCat hedral
Ġ[ -
Ġdest ruction
Ġin herent
f eld
Ġap pendix
Ġl ingu
ĠIndust ry
n orth
re b
Ġman ual
St ation
Ġappoint ment
Ġt ab
Ġsh adow
e igen
Ġgu y
Ġconcent rated
e or
Call back
Ġa ck
ĠC ultural
12 1
Ġb rig
Ġgra in
ber ry
ĠK ol
Ñ Į
Ġtrans mitted
Ġtrac es
M ath
ĠR ico
ĠFI FA
Ġun success
Ã Ł
Ġn aval
ĠWar ren
D ay
it ure
ĠHun ter
Ġcr imes
Ġt elescope
ĉĉĉĉ ĉĉĉ
}}{ (
ĠJer usalem
Ġenc ounter
y y
m und
Ġestim ating
uk a
op al
Re lease
}\, .
12 6
E t
as hes
Ġlearn s
Ġex port
Ġk ernels
Ġdaugh ters
Ġwh atever
arc sec
Ġrele g
asc ript
Ġevolution ary
Ġbeh alf
}} -\
Ġdetermin ant
S G
)} }\
Ġindic ator
s pl
rist ol
Ġanom alous
Span ish
al gebras
om ing
ĠBelg ian
Ġswim ming
T own
Ġprior ity
ir th
Ġalcoh ol
or f
Ġbl ind
Ġquant ization
' +
Ġf inger
J son
Ġnom ination
., ][]{
ĠAss istant
Ġdist inction
Ġuncer tain
ĠK now
lay out
ĠBar ry
ĠU g
St ore
Ġde eper
Ġv acc
ĠL ud
Ġstrugg le
Ġbeaut y
Ġa maz
Ġne ck
ĠPark er
ĠU SS
check mark
ĠPrad esh
Ġmole cule
ĠM ind
In v
Ġgain s
ot ions
Ġsuff ering
t ar
ĠAl aska
em ed
ĠH old
plement ation
)- (
ĠCM B
Ġdefe ating
qu er
Ġass ass
uch i
Ġwides pread
Ġst ops
Ġe g
Ġin coming
Ġprocess ed
Ġbos ons
Ġrel ay
Ġsim plic
C ore
ĠThe ore
b et
Ġprote ins
not ation
Ġsup press
ĠG raph
Ġguitar ist
f ar
Ġg ift
18 00
ĠL ad
our t
Ġvic inity
Un ivers
Ġpro totype
Ġinst ructions
the sis
Ġpro tocols
Ġviol in
Ġcontrovers ial
Ġmot ions
Ġdevelop ments
vent ures
ĠSt orm
Ġbal anced
b order
Ġcont ents
Ġabund ances
ĠW i
row th
Ġf abric
Ġansw ers
T erm
M r
ĠC ov
Ġphot ography
Ġminim izing
ĠAd v
b ran
Ġs itting
ĠV ancouver
I ter
Ġdise ases
Ġan nu
s end
system s
Ġcon sequently
in formation
Ġpreserv ing
18 62
um s
Ġmountain s
og ue
Ġem otional
Ġoscill ation
Ġpull ed
T L
ĠS hip
Ġutil ized
Al umni
Ġel der
ĠZ one
Ġmass less
ĠWay ne
mar ine
ĠCle arly
Ġposs ibilities
Ġmem or
Ġb at
Ġg ay
}$ &
duc ational
ĠMov ie
ro c
ĠNaz i
ph ot
fore mentioned
Ġar row
G ood
Ġa z
Le ague
Ġp ump
ĠMach ine
integ ral
ĠS H
ĠT ib
Ġg overning
aint s
( (\
ĠB ond
Ġinflu ences
hand ed
H ig
Ġb ol
st ration
Ġemphas ize
ĠB R
ent i
Ġg olf
Ġpreced ing
m icro
[ ]{
F ound
Ġex terior
m art
Ġgovern ments
de als
ĠA ra
ĠS r
Ġmag azines
ad apt
2 10
ĠColl ins
imens ion
ĠW atch
iv ities
New ton
t ml
Ġking dom
ĠHawai i
y ll
ĠC C
Ġexplo it
ne cess
Ġevalu ating
Ġutil ize
Ġcooper ation
mb f
Ġcomp ress
Ġreg ulations
par ing
ĠM ong
ma kers
K ing
ĠAfghan istan
ĠF ab
Ġreg imes
Ġcompris es
ĠC ricket
Ġm yself
15 00
Ġincorpor ate
Ġs ake
Ġ\ %
Ġd ated
ins ky
Ġexist ed
sup set
V s
v dash
ent ropy
ros so
b ol
ĠAss oci
pot ent
ak u
Ġanisot ropy
Ġdissip ation
ap pendix
Ġcompos itions
Ġoccasion ally
)\ |_{
Ġweap on
ĠN icol
ac o
ĠSp irit
E ast
ĠGu inea
Ġcount ies
E ffect
ĠRiemann ian
Ġaccord ance
ĠPref ecture
Ġsk etch
r aska
stit u
Ġde lete
\ @
Ġfor get
ĠJohn ny
E A
ĠPier re
hem atic
Ġf antasy
Ġs av
* }\
P rior
F ebruary
Ġrecogn ize
ast rop
ĠAp pe
Com ment
19 0
Ġsurpr ise
M s
st ad
ĠM O
writ ers
ĠComput er
ĠY uk
Ġap i
ĠAlber ta
ma ps
Ġchem istry
Ġco herence
idel ines
Ġiniti ated
Ġdecl ined
ĠBen jamin
ĠO range
Ġin formed
act ing
Ġresc ue
00 2
18 82
an chor
ĠW as
dot ted
Ġt ur
Ġl ad
ĠSer ge
Ġbehavi ors
ert s
Ġmed ieval
iss a
Ġwavelength s
ut ter
ĠG as
s ame
ĠN BC
ĠInt eg
W R
Ġexplos ion
ak ia
Ġt rick
Ġth orough
ag ar
Ġb ipart
ĠC ore
Ġcomplex es
Ġdef ic
ut o
d v
Ġaltern ate
Ġemer ging
Ġthreat ened
Ġcomp ounds
ĠB esides
hand le
Ġstrateg ic
E lect
ur ated
ke ley
Ġfactor ization
tr ation
Ġup coming
ĠIn n
Ġmotiv ation
Ġnot iced
ĠPrim ary
ĠNev ada
Ġd ub
ĠCh ange
Ġsp ots
i est
L u
m r
__ __
ĠA zerbaij
pan el
Ġt orsion
mod al
Ġstop ping
@ {\
ĠOther wise
ĠAlex and
ĠB ranch
Med ia
Ġfacilit ate
ĠS z
Ġdro ps
Ġprov ider
ĠBeng al
Ġview ers
ĠInd ians
Wind ow
ĠL ink
r if
ik o
ĠAtt orney
abl ing
ĠS ax
L U
Ġad venture
osp here
M oths
ur u
Ġabs ent
M B
Ġelect oral
Ġcl ick
Ġhead er
o ft
Ġtriang les
Ġoutper forms
Ġb io
Ġdelay ed
Ġa forementioned
f und
}{*}{ $\
Ġlect ure
ĠTig ers
Ġb is
ĠC e
ĠEx change
inter face
Cor ollary
ĠSpe ed
Ġf ir
f olk
Ġtim ing
ĠJ enn
to ol
ĠMem bers
al go
m iddle
Ġad mit
rosc opy
ĠCh ron
Ġsp ont
P rim
'' $
Ġconserv ed
hold ers
b uffer
ĠFin ance
ĠRang ers
}{ -
Ġiter ative
Ġack nowledge
Ġcomp iled
ĠF alls
Ġa pert
Ġp ian
ush ing
en v
ke eper
ĠSoft ware
B al
ĠSal v
c op
lo yd
Ġar rows
ĠTurn er
bas ic
= $
Ġcontro versy
Ġsuppor ters
ut er
ĠF ix
ever y
, $$
clos ure
Ġsubs idi
im m
Ġpar agraph
Ġconf usion
Ġrare ly
Ġspect roscopic
Ġp ushed
ĠLe v
ĠF reedom
G F
Ġim plied
ĠWrest ling
ĠW or
Ġexception al
ĠFin ancial
a it
Ġregist ration
Ġglob ally
ĠT rophy
Ġstream s
R ule
Disc ussion
ĠOl iver
ĠDr ive
$ /
Ġprof it
f m
Ġre cre
Ġbur st
as m
ĠB orn
ĠY ugoslav
M AP
Sever al
rec ord
Ġdimension less
Ġsurv iving
ĠFinn ish
C at
Ġwe aring
Ġmeaning ful
ĠCommission er
We ek
Ġtw isted
ĠB A
Ex pression
ĠFran ces
Ġunder ground
Dem ographics
mult ip
Ġelev ation
ic z
Ġin version
Ġfil med
ul atory
de bug
ĠT E
Ġmer ge
g io
us k
Ġtransform s
Ġf ictional
as ant
Ġelim inate
Ġmetall ic
cycl op
Ġinteg rate
Ġdoll ars
ĠEx ception
Ġby tes
Param s
187 6
Ġexcit ations
7 50
Ġcolle ges
Ġmount ed
Ġc ul
ph abet
ĠMan hattan
an cer
ĠSch olar
ĠF itz
ĠAd S
ithm etic
Ġhierarch ical
Rad io
ogene ity
Ġin fection
Ġflex ible
Ġfe e
ĠBar bara
Ġinteg rable
ĠP il
D raw
aster y
ĠI o
U se
Ġb rowser
)$ )
Ġconvers ation
ich i
ir k
ĠMil an
ĠUr ban
Ġmagnet ization
cast le
Ġh orses
Ġph arma
ĠPro perty
Ġt idal
Ġrest oration
for ced
Ġif f
Ġt elling
ĠProfess ional
18 83
ĠF am
Ġill ness
Ġrenormal ization
ĠF eb
Ġ rays
Ġgeneral ize
ĠRef s
ĠC ox
ac re
Ġsim ulate
P ref
. }}
15 5
ĠGi ants
ĠAd vis
.\ ,\
Ġindu ce
Ġsup plies
ĠB rew
Ġt issue
}\ |_{
symm etry
Ġstructure d
Ġwood en
ĠE ston
H as
Ġstream ing
Al bums
Ġto kens
Ġke eps
by te
Ġven ue
187 8
Ġob sc
Ġdif fe
Ġcaref ul
V AL
). \
Ġspirit ual
Re view
L aw
Ġgl uon
s om
B ro
Ġall oc
w alk
ass y
uc lear
tr ig
Ġcontract s
g p
Ġr ub
ĠEgypt ian
3 20
Ġreview ed
ĠB orel
ĠR at
ĠConf eder
Ġb undles
Ġvis its
Ġdialog ue
Ġrem arks
E val
Ġneg lected
Ġpe er
Ġinvestig ations
Ġal ive
}\ |\
Ġmon ument
ĠC LASS
Ġsk ip
Ġe ase
Ġcam eras
bour g
Ġde als
comp ass
D oc
K A
Ġspec ification
`` `
Ġdist ant
Ġg all
rg b
f itting
Ġbin aries
Ġcancell ed
ĠSer bia
f ix
187 4
Ġdecre ased
Dat abase
est imate
ateg ories
Ġt el
ĠM ans
Ġpass ion
ĠCarib bean
end ers
Ġcoal ition
Ġpo ets
Ġgovern ed
Ġpart itions
Ġir regular
S en
ĠCon struction
I X
R oot
ĠS FR
Ġwould n
Ġdec oding
Ġcap ac
Ġpred ecess
ethe less
th y
Ġad i
Ġpo ems
inc inn
triang leq
Ġassert ion
Ġout standing
Ġt ruck
ond o
t ics
Ġsuff er
Ġlaw yers
Ġsil ent
if le
Ġop acity
ĠP ant
M ot
{ }\
Ġqu iet
ĠP rice
ĠPar ish
Ġt y
Ġn m
ĠL oc
? :
| $.
ĠS V
ĠBar cel
Ġb ubble
ĠD ays
Ġ* )
ounc ill
Ġconc aten
Ġg rate
Ġbelie ves
f d
Ġion ization
S erv
un i
12 2
arri ors
Ġrep orter
Con nection
Ġnav igation
Ġnarr ative
ĠV el
Ġcorn ers
ed ed
Ġactiv ists
un ov
ĠB ron
Ġcon gress
ĠIran ian
Ġarchitect ural
Ġconstra in
Ġguid ance
f ollowing
Ġearth qu
Ġele ven
Ġencourag ed
Ġaut omorphism
pres erv
)) ^
Ġhighlight ed
Ġdoub les
|\ ,
or ia
Ġoccur rence
13 7
ĠJ a
Ġanim ation
ĠSe ven
ĠMult i
ĠS now
ĠB achelor
ĠPho enix
ĠMag ic
ĠE li
ph on
Over view
ĠV as
pred ict
ĠMin or
IT Y
Ġminor ity
c opy
Ġm or
Ġnot ations
Ġrel ate
Ġres cal
anc el
miss ions
Ġscre ening
Ġconv icted
Ġde form
Ġspat ially
Ġhon est
2 25
atter ing
ĠĠĠĠĠĠĠĠĠĠĠĠĠĠĠĠ ĠĠĠĠĠĠĠĠĠĠ
cm d
Ġpark ing
Se ason
lim ited
ĠRel ations
Ġpres um
Equ ation
ynam ical
M ad
aj a
t rain
Ġs ax
up lic
AP I
Ġsubgroup s
le igh
Ġsear ches
Ġby te
Medal ists
incinn ati
ĠL ock
ĠG ot
ĠB our
zh ang
v ideo
the o
13 4
Pro b
Ġrem n
Ġd rew
Ġen forcement
ri er
W F
ail ing
5 000
m usic
ĠVictor ian
Ġturbul ent
Person nel
ine e
P H
\ },\
ĠLabor atory
ÑĢ Ð°
spect rum
l ater
ĠB omb
Ġhal os
Ġb alls
}: \
ĠF u
Ġprob abilistic
Ġmanag ing
ik ip
b ast
Ġpref erence
S om
Ġcompar isons
Ġachie ving
ĠJ ama
Ġconnect ivity
cel and
ph al
Ġt act
W ang
}-- \
W il
Ġl ap
Set tings
ĠAnd re
Ġsound track
ĠS id
pat tern
Ġaccept ance
Ġpolar ized
sl ashed
Ġcomm une
Ġuniqu eness
Ġexped ition
ĠS ob
Ġg allery
. -
A U
C B
ĠE ug
ript or
eth yl
Ġtriang ular
ĠF ly
ĠF light
Ġs alt
Ġc asc
Ġat tain
}) }{\
S cale
Ġcomplet ing
Ġillust ration
ar ound
ov es
ĠT un
ĠPer u
pl ates
\, $
ĠS ay
Ab out
A x
Ġrepeated ly
Ġiniti ative
ĠC ole
Ġmunicipal ities
v et
ĠProte ction
ig s
ul ates
ol ia
18 77
ĠHar rison
ig o
ĠD ol
Â ½
h h
Ġchampionship s
ĠCl a
187 1
Ġche cks
ĠCl iff
G T
ĠR av
Ġap artment
Ġun expected
Ġtown ship
Ġguilt y
Ġconj unction
ou ter
}= -\
import ant
Ġ Ø
ĠMed iterranean
ĠP le
R et
m ask
in line
ent e
Ġawa reness
N AME
S B
EN D
ĠY am
ĠScient ific
Ġto w
Ġnames pace
Ġrefer ring
187 9
ĠN P
An alysis
pa ren
ier ra
Ġconduct ivity
Ġdial ect
V V
Ġdiscre pancy
}$ };
ĠMu hammad
ber ger
ĠRich mond
p b
ĠG reater
^* $.
Ġdifferent iable
ĠRoman ian
ex cept
Ġfe els
is i
Ġver ification
Hand le
Ġestim ators
K ar
ĠL uther
ĠG round
Ġpropos als
Ġmon arch
g un
ĠB ass
se lected
ĠH ann
ĠAl bum
k an
ĠSh ang
= &
en cer
Ġred und
Ġint ense
Ġconnect s
ryst al
S to
Ġbeg un
Ġsup plied
ac les
ĠPro test
ĠMuslim s
ĠD O
v m
ĠComm ons
Ġse eds
ĠLiter ature
ry ing
ĠNov a
Flor a
Rich ard
ĠY u
S a
Ġ< !--
Ġcont raction
re ma
ĠE ffect
oun ce
$ ^\
ĠS ex
Ġcol ored
id ity
ag ger
A I
us ive
ro at
Ġ( .
18 67
Ġback ward
Ġpredict s
in aries
fair biz
fairbiz deals
ĠY es
ĠPh D
Ġf raud
un finished
ĠCh and
ĠHe b
Ġclaim ing
est on
Ġsk ill
Ġafter wards
ĠN at
ster dam
m ot
ix on
Ġencou rage
in us
Ġgener ations
Ġcov ariant
ĠUnivers al
ĠFig ures
ĠSong s
Ġe ighth
ON E
hook rightarrow
Ġtrap ped
ĠT H
Ðµ Ð½
ĠDrag on
K O
Ġw orship
Ġinter cept
CO L
le tt
Ġev il
ess el
") );
ub s
Ġcounterpart s
ĠP sych
IM E
Ap plication
ĠG rey
| ,
cal ar
Rec ip
ĠEd itor
Ġreported ly
Ġannu ally
Ġst range
Ġabsor bed
ĠCl oud
tz mann
Ġf ur
ib n
o ons
Ġprotest s
F our
Ġp ars
Ġselect ing
Ġf ractions
ab c
ĠSh a
ã Ģ
form ula
Ġv ort
F E
ov iÄĩ
Ġmed als
Ġmorph isms
Ġout break
ĠHis pan
produ ction
il ia
Ġdec ides
ric ks
Ġlov ed
Ġcap s
Ġpurs ue
D iff
ath on
Ġf aint
all ing
T w
ĠE ver
ms g
Ġt ill
orig inal
ĠS I
ĠP red
Ġencoun tered
Ġpat ches
verb atim
' }{
Ġcontrib utes
Ġun changed
Int eger
Ġspeak ers
Ġth irty
ĠS ource
ĠD ifferent
Ġcont ours
st retch
Ġover s
Ġc inema
ag h
ikip edia
ĠH ugh
Ġreg ulation
Ham ilton
pt ic
}{ .
Ġsp anning
ĠBarcel ona
Wid get
Tax a
ĠFac ulty
Ġim per
rel ativistic
Ġgen es
] _{\
ij i
ĠForm ula
U RE
contin uous
Ġb racket
Ġmin isters
18 68
ad joint
Ġcl imb
ĠBan ach
Ġliber al
-\ !
}} }(
ĠLe vel
Ġn urs
Ġcol ours
Ġunder go
Ġbatt les
Ġl os
Ġav ailability
Ġw edding
ĠY et
Ġhistor ians
ĠC row
ev olution
ĠPr iv
ĠPro file
Ġcas ual
ĠF el
Ġcomm ands
Ġt ort
Ġtrib e
hy dro
Ġparticip ating
Ġact ed
gener ated
man y
du ction
Ġconf ident
C r
che m
Ġhe x
Ñ ĩ
Sim ilar
Spec ial
L iter
Ġst ake
B ody
s pring
Ġ( *
Ġagric ulture
V E
Ġz eros
ĠB lood
b ane
Ġor chestra
Ġthe sis
Ġe lem
19 2
ĠF ind
Con stra
$ _\
ĠColomb ia
AS E
ĠVin cent
cl ick
im plies
ĠShe l
ĠPl ant
Ġr um
13 2
Ġj ournals
Ġdram atic
other wise
Ġmodul o
ĠG T
Ġlab elled
reprene ur
ĠAnt ar
Ĩ Ĵ
Ġmem brane
t is
ĠR ing
ĠChar lotte
online cite
represent ation
de velop
Ġins pe
Ġg aps
al ong
,\,\ ,\,\
est amp
ĠArt icle
}: =\
u in
Ġt ies
Ġas ymmetric
pl ots
Ġvir us
Ġexp ans
Ġdist ortion
ĠFle et
ĠTechn ical
ĠM ari
ĠA F
Ġanisot ropic
ole v
s creen
ist ani
ĠV lad
Ġfor b
Ġare n
Ġrun time
Ġportray ed
ĠHig her
Ġphil osopher
Ġhe li
ĠF ed
ĠB ert
C ross
Ġcomplement ary
ĠL iga
ĠN R
Ġcatalog ue
Ġinter vention
ch ildren
Ġad op
Ġaf ternoon
Ġdis appoint
Ġam ateur
sch ild
. ]
F ar
ol in
Ġre un
Ġcirc uits
is ch
ĠRo om
ĠNeb raska
ĠSte in
Ġcous in
Ġs weet
m ade
util s
os hi
Ġoptim ize
Char les
ache l
ĠSch r
Ass ert
Hon ours
ĠD est
187 3
Ġhy perp
ĠIs a
ĠObserv atory
s ay
Ġst roke
Ġ( +
ĠBe ijing
oc ratic
Ġinval id
Ġconclud es
ta ken
Ġab road
ve ction
Ġhand led
sche me
Ġover se
re place
ĠInt elligence
rot ate
Ġst ick
ĠS or
ĠSte ven
dec ay
A re
Ġf rust
Ġbound ing
ĠDir ichlet
ĠS ad
Ġph rase
aver age
)}\ \
ĠS elf
187 2
ĠSh ar
13 3
Ġleg it
st yles
ĠM ix
ĠStud ent
Ġfarm ers
Ġg ard
Ġfast est
p any
g om
be ing
Ġparliament ary
3 000
ĠB ristol
ĠU lt
Ġexhib ited
ĠR idge
Ġop ponents
CO DE
ĠId ent
ĠCam eron
P RE
Cont rol
He ad
Ġste re
' ))
am o
Ġleg acy
Ġg od
Ġorig ins
Ġsent enced
ĠN ear
app ly
Ġgal actic
Ġsup pression
ĠRob in
ins ert
Ġfin ance
n atural
ĠG arc
re x
! }
f ers
Ġprior i
P red
Ġphotograph s
Ġto x
Ob serv
By tes
Ġshall ow
conver gence
Ġbond s
ĠJ ess
Ġra ising
Ġfl ash
ĠS olar
ash a
trans fer
ops is
ĠSpr ings
Ġthe at
dimens ion
ref n
Ġb ridges
Ġsympt oms
ĠKir k
Al gorithm
Ð¾Ð ²
st ars
Val ues
group s
Ġlic ensed
ift y
Ġl ibraries
ne ut
rel ative
W al
Ġb eta
ra v
13 6
scal ar
rack ets
18 66
Ġcomput ers
ĠMas ters
Ġsold ier
. (
E G
cl oud
Ġb ind
Ġhel ic
Ġreson ant
. \,
ĠD ocument
F alse
R oyal
d iction
Ġsign atures
Ġrem ind
ĠSaint s
ĠReyn olds
Ġover ride
de pendence
ĠMar vel
ĠR ange
00 3
b ie
we ek
ik es
pg f
ĠCr ime
P eter
Ġbrand s
Ġins ights
M ember
W in
Ġind igenous
Ġtravel ing
ĉ ĠĠĠĠĠĠĠĠĠĠĠ
ĠPr ivate
inter pre
the ir
Ġterrit ories
F ind
Ġhealth y
ĠJ oy
Ġcl othing
ĠL ions
Ġscient ist
Ġknow ing
Ġart illery
ĠP el
Ġcon sole
Ġsearch ing
hel m
ĠP ract
Ġinfin itely
am l
Ġrespond ed
Ġyoung est
Ġax es
o om
^+ (
Ġdamp ing
ĠEXP ECT
Pa rent
Ġpro g
ĠE c
im pro
ĠCra ig
jav ascript
C ity
inc ar
equ als
est im
Ġreserv ed
In f
ĠC ot
ĠNich olas
Ġspecial ized
Ġshop ping
b v
ap or
aramet er
Ġinterview s
S eg
ĠBor ough
Academ ic
Ġdown stream
Ġviol ent
ĠCost a
Ap pendix
Ġpl acing
sup ers
Ġorgan ised
ĠW es
ĠW u
Ġengine ers
Ġg athered
ĠIn v
f c
ĠAn ti
Ġinstall ation
on na
re ck
ela ide
Ġle pton
ĠChrist ians
L ag
ĠS ah
Ġdepend ency
Ġval ued
Ġfl ip
Ġcred its
g auge
ĠP oll
condition s
ĠAnd roid
ust ers
Ġinsp iration
ĠChe l
ĠC old
i ya
Ġsh ore
$\ %
R ound
Ġcom ics
Ġorgan isations
ar th
ord ination
Ġanalog ue
Ġdon ated
Ġgradu ating
ĠH ubble
Ġreson ances
ĠC ob
Ġre ven
ĠP ast
ĠM ason
ir s
ĠG ate
Ġtrans actions
Ġproxim ity
is an
Ġf ed
G W
V C
12 9
Ġt orn
ĠT on
ri en
An n
Ġcab inet
{ -\
approxim ation
L ive
ĠU RL
U B
Ġours elves
Ġm im
IG N
il ateral
over rightarrow
Ġobject ives
ĠOper ations
b ay
M el
f ollow
f erm
Ch annel
Ġsc an
sect s
Ġanten na
l c
sec urity
ĠCl ay
ĠGh ana
d iamond
sq cup
ĠÐ ¿
Ġhypers ur
ĠPro duct
i w
Ġdo ors
T itle
new s
I refn
F s
}$ \\
ĠP in
ch ing
ĠBo olean
Ġfermion ic
al most
T ool
Ġpron ounced
hib ition
U LT
FF FF
. ).
Ġinc idents
Ġop ponent
ae v
C hen
Con nect
Ġfilter ing
bas is
ĠKen ya
Ġout lined
Ġmill ions
ĠL ate
Ġhypothes es
ĠM obile
Ġcor ollary
sol ved
ĠTra vel
Ġtransl ate
$ ]
, +
Ġt one
Ġper cussion
dis k
W ell
Ġorgan ic
Ġcapt ures
al is
Ġsh ield
Ġpredict ive
Ġcheck ing
ĠS ide
Ġ= &
ĠRes erv
ĠBer g
L ee
Ã¼ n
á ĥ
che l
Ġb orders
og y
var iance
ĠAl ong
C ritical
Ġa ster
Ġtheore ms
ĠA x
ĠM ust
ther mal
Ġdeploy ment
sh a
Disc ography
Ġm oth
Y es
uss ia
ĠArab ic
uc ks
Ġhigh lights
ĠN L
. }.
), $
Ġoption al
Ġwe bs
f ac
}=\ {
F i
ed ef
( :
Ġmanufacture r
Ġcumul ative
Ġcopy right
ĠN iger
ĠWar ner
ĠZ hang
14 7
Ġload ed
ev ents
\ >
Ġexec ute
ore nce
Ġdefect s
18 69
Ġtra ct
vers al
ĠHor se
ĠG Hz
Ġstri king
ĠC ad
Ġsem antics
de lete
Ġkinem atic
c ustom
b ooks
un ique
^* )
{- .
Ġpoor ly
Ġtr ump
av ailable
Ġcommit ment
Ġcomm emor
H u
Ġs hed
ĠP lease
18 40
Ġdr ink
com ponents
prop ag
Ġtack le
ĠMor oc
ĠT aking
ĠTr inity
" ))
M ill
ĠD iamond
Ġx ml
in j
at omic
Des ign
Ġr hythm
Ġattempt ing
vari able
Ġincre ment
Ġchar ity
Phys Rev
Ġnon negative
Ġcampaign s
Ġquant ify
B razil
V ector
Ġle pt
p n
ĠN an
Ġ" \
Ġapprop ri
ine q
ĠH amb
Ġre nder
ĠUn fortunately
ĠB aptist
ĠU ser
y on
Ġint ellectual
uck er
Ġconf ront
Ġf ighter
Ġgu ests
ĠL an
sw itch
i ology
Ġatt ending
Ġh ull
ĠE ve
Ġun clear
Ġlast ed
\ `
ist ance
ick en
ag ers
ĠB ird
^* $,
mag n
omin ator
M ale
ĠBer keley
row ing
J S
1 19
to ken
P ool
S ir
l um
16 5
Ġpar ks
ĠPro p
Ġanaly tically
R est
Ġserious ly
F rank
N i
Ġquad rup
Ġposs ession
Ġdig it
Ġoscill ator
T s
et ta
ha o
Ġenc ode
\% .
te es
ill ation
Ġinvest ors
ĠĠĠĠĠĠĠĠĠĠĠĠĠĠĠĠ ĠĠĠĠĠĠĠĠĠĠĠĠ
ĠBuff alo
en ius
Ġ å
Ġdefin itely
b g
ĠI da
ĠN HL
ĠArt ist
Ġp c
ĠCh a
Ġgra phe
wa it
Ġem itted
ĠK ay
ail ure
ĠLe ader
ĠRes ources
ĠSte vens
ĠM om
Ġmaxim ize
ĠCom plex
ĠO S
orient ed
ĠKe ith
ixt ures
Ġrat ings
u cc
Ġhon our
ĠP od
ĠK un
Ġsem igroup
Ġannih ilation
S ep
Ġn ominations
ĠCo al
Ġnorm s
) ]{
Ġcomment ed
iff s
Ġpremie re
k pc
^+ _
ĠCh air
ĠD raft
b is
ĠB und
ur st
ĠM ut
Ġwal ks
Ġ: :
}\ {
ĠChar l
ĠJer ry
Flo at
ĠN ak
clip se
Ġcancell ation
Ġaut onomous
zh ou
ĠEnvironment al
ex pr
Ġsatell ites
ub a
observ ed
em a
) )}
um ped
y u
ol en
her s
Ġbackground s
Ġbre ath
h ome
ĠVerm ont
im uth
Ġsens ing
ĠB ris
ĠCub a
z eg
ir ts
Ġdu o
Ġj e
ĠGa uss
Ġmodul us
p ine
z ig
Ġacqu ire
ĠT oy
h aw
av an
ĠAd vanced
z ed
S tack
ull ivan
ĠM ig
um my
un ning
Is ra
) }}{
ĠPart ners
Ġb es
Ġsp ur
Ġfore ground
g ov
ancell or
c od
Ġtravel ed
ĠAst ron
ĠTerrit ory
Ġinnov ation
Ġcombin atorial
H or
ad j
ole cular
Ġm anga
che t
Ġoccas ions
Ġappro ached
ĠCl aim
Ġcon ductor
raz y
Ġmem orial
Ġconsum ers
Afric an
ub ert
Ġen compass
Ġdescript ions
Ġminim ization
scal ing
ĠGl en
ĠAm sterdam
Ġqual ify
Ġgu ys
Ġtens ors
Ġo k
Ġbary on
Ġimpress ive
Ġb one
ass er
14 3
G overnment
ĠIn nov
ĠM ann
Ġkn ot
Ġgra ins
Ġspeed s
Ġwrest ling
Ġfl ags
it ual
NN s
Bl ue
Dev ice
Ġg rants
ĠP resent
Ġt une
Ġcoach ing
ps frag
Ġcon fined
bre aking
Ġaccom pany
ĠU C
Ġpar abolic
Ġstreng ths
Ġarrang ements
act eria
equival ent
ord inary
Ġcontroll ing
L ow
Ã¡ s
ob tained
B ra
ĠO il
ĠCam paign
W C
Ġsuccess ive
Ġan satz
Ġaccept able
Ġtick et
US Y
_ ;
Ġcor ruption
Ġant is
Ġsl ave
su cc
Ġtro uble
ĠIndust rial
B ob
iv o
th us
Ġ+ +
ĠMe chan
P ower
ro oms
Scott ish
ĠU pdate
Ġep id
ĠF alse
ĠR andom
ĠS ett
Def unct
Ġstat ue
ĠB uch
Ġs ad
Ġme at
Ġdiscrim ination
Ġsumm ation
l ican
ĠL arge
ress es
ĠParliament ary
ĠD og
O l
ro e
Ġdis abled
Ġlie utenant
Ġslow er
Ġ$ ^
ur c
ĠDen ver
0 10
it us
Ġdef ending
Ġc rack
ĠCirc uit
Ġplay offs
Ġsepar able
ĠSer bian
Ġar ithmetic
Ġqu oted
Ġshort est
Ġmicrosc opic
ĠDou ble
ĠNe umann
Ġ }_{
am er
k ernel
Ġle ak
13 8
al am
Ġend emic
N amed
De ep
ĠMun ich
pon ential
ĠBe aut
iv ially
Ġout line
ĠSym phony
Ġg ross
ĠB ath
ĠH udson
Ġrout ine
p rom
Ġproceed s
Ġinher ited
Ġlocomot ives
ĠK ath
ĠUE FA
ie ve
small matrix
ĠCan al
Ġsquad ron
Ġbe ams
ĠEd wards
ĠÃ ł
Ġc f
Ġem issions
C ondition
ĠMer c
A thlet
Ġfluct uation
' _{\
re k
Ġo mitted
Ġpropag ator
IN D
ink owski
Ġemphas is
ook ie
Ġfre ely
Ob j
ĠMad ison
Ġprom oting
ĠRepresent ative
s r
Ã ¦
h uman
set up
ĠMunic ipal
Ġv in
v ary
Ġc rop
Ġcompris ing
Ġpow ered
mag net
resol ved
Ġstat istic
Ġsp acing
Ġsubstr ate
ĠP or
Ġm oral
let ter
ĠB right
ĠL loyd
ERR OR
ĠS ak
Ġsurv iv
bra ham
ĠPro f
Ġle ver
Ġgraphe ne
ov an
ical s
az ar
S ession
K im
itt en
R ay
Ġmonth ly
ĠL ost
Ġsuperconduct ing
ĠHe avy
ĠRog ers
le w
Ġtrunc ated
Ġphysic ian
ĠPer ry
l ies
Ġt ape
ace ae
m iral
ou x
ĉ ĠĠĠĠĠ
_+ $
ĠArch itecture
Ä Ł
Ġdepend encies
d c
ĠAthe ns
Ġim plements
ĠArch ive
Sm ith
Jew ish
Ġcomputation ally
Ġdegener acy
ars on
type of
Ġcry pt
Ch apter
Cl uster
ĠAcc ount
Ġan ime
ĠR AF
ĠPun j
ĠArab ia
in z
Profess ional
Ġevol ve
Ġperm itted
ĠF low
Ġanalyz ing
ring ton
K M
en os
ut ton
Ġ$( {\
Ġport rait
I J
h ref
ĠSt ore
Ġpar a
ĠT otal
)} +\
CD M
ĠM end
ain ing
Ġtrans ient
Hel per
Ġh ide
Ð ·
Ġdirect ory
iv odes
R ank
ol ate
d al
ĠC atherine
Ch inese
th lete
ĠL ion
Ġmet adata
eng ine
uck land
ĠN y
sk a
h m
ex istence
E nergy
ai ro
Pres ident
Arg ument
)^{ -\
Recip ients
s ession
ta wa
non ym
OR D
Ġbo ats
h all
Ġaddition ally
ĠVenezuel a
00 4
Ġadi abatic
ĠS uz
um i
Ġamb ient
Ġt iny
Go ogle
}^ -
ĠJ en
ĠStud ents
j j
z es
Ġ< =
ĠTer ry
N ormal
Ġc er
T ri
Ġaccount ing
Rem ark
Ġbu ck
H ttp
Ġswit ched
Ġartifact s
Ġvol can
ĠI celand
ĠAnn ual
Ġinn ings
Ġaccommod ate
Ġsusp ension
Ġhol iday
oth ic
ĠPar al
ĠFor um
id ency
ĠLu is
au kee
Ġvalid ate
Ġev ac
ĠSh aw
ĠGon z
Tem plate
I ll
Ġmanufacture rs
arri ers
Ġdem olished
In valid
Ġb oss
AT H
u ate
ĠGra ce
Ġcontinu ation
ĠEth iop
Ġbre ast
Ġr ated
Ġb ij
W W
Ġdeep ly
Ġant ib
ĠC ond
ĠG C
Ġast roph
rosso ver
Ġfl ed
ĠE SP
big cap
Ġal phabet
Through out
Ġdiff use
\% )
Ġbroad er
O B
18 59
Ġl attices
Ġdocument ation
Ġdisestabl ished
g ie
ĠB it
Ġun cle
Ġindust ries
Ġent hus
ĠH unt
)$ :
ĠHol land
S Y
ĠC N
E u
G rand
Ġharm on
Ġtra ded
ĠSy rian
ingu ished
Ġell ip
p seud
ĠL is
Ġsoph istic
e lected
Bus iness
on ormal
ĠL ot
ĠO cc
Ġcal ib
T aking
18 48
ĠCh i
Ġemb od
ĠR oche
Ent ity
ĠH em
Ġlens ing
he ro
Cont in
Ġde emed
ic ious
ac a
Ġfest ivals
van ishing
d ark
a qu
N orm
at ra
ĠV ar
k el
ĠL STM
] +
ivodes hip
ow ards
Writ er
)\, ,
spec ies
Ġt uple
Im pl
Ġdifferent ly
ï ¿
ĠP ont
ĠK ap
ĠP av
intend o
math rel
ĠV e
Ġin complete
ock er
ĠMont ana
aur us
if th
v ity
Ġcon g
var sigma
pie ce
}} %
ĠS afety
Ġon set
Ġc s
Ġdis aster
Ġfir ms
Ġprocess or
rend um
Ġdisput e
il o
Ġtimes cale
Ġ& =\
ĠProdu ction
ĠEd ge
ĠLar ry
)} +
ĠCl in
ĠTreat y
count ry
he tic
Ġhon ors
nu cle
co in
Ġdec oupl
Ġrob ots
Ġrev ised
Ġorig inated
ĠI L
ack s
ext ension
alth ough
ĠBy z
in cre
Ġpoly mer
ĠM aced
P od
yp ical
Ġw ake
ĠAd elaide
Ġquad r
Ġsynd rome
t c
Ġab bre
14 2
ĠG ay
Ġall ocated
Ġeng agement
ĠCo hen
Ġc ref
Ġsur jective
Ġcompet itors
ĠPhilipp ine
Ġrad ar
Ġcontext s
D ig
cons ider
Ġpro xy
ĠP ick
New s
ĠFri ends
Ġparamet ric
ĠJ oint
Ġreg ret
Ġf iring
G allery
ĠIndepend ence
ĠWat son
ĠEag les
B ay
Q ual
Ġnom inal
be ck
Am ong
Ġatt raction
Ġbroadcast ing
Ġarr ives
X Y
J ose
P DF
Ġcosm ology
Cl ick
contain s
ig ion
Ġspect roscopy
ch oice
ach i
chi at
Fe ature
M ah
Ġcont amination
Ġf ron
Ġun re
Ġbl ues
ann i
c A
l p
à ®
ĠC incinnati
ĠK rist
Ġinc red
v ir
Ġmart ial
B ern
L at
Ġrestaur ants
Ġc argo
ov en
Ġ icon
ĠJ ar
Ġsh ots
H o
S wed
| +
Ph one
raph ic
Ġcon dem
ĠCont emporary
us c
on ing
ĠSing le
iv ic
Ġy es
}) \\
Ġapert ure
ard i
Ġap pend
SE T
Ġfix ing
Ġsure ly
Ġbas elines
20 5
Ġre finement
rick eter
Ġspons ored
S un
B ooks
tem p
ĠF is
ĠW ord
Ġrel iability
Ġact ively
Ġdepict s
Ex amples
Ġbon us
t xt
min a
Ġz ones
Ġsp okes
Ġdog s
F G
av ier
Ġbe ating
ta king
Ġsl opes
e u
M ont
ac cept
Ġsec ured
ĠVo ivodeship
Te chn
ĠP O
Te V
}} /
ular ity
coupl ing
ĠB G
ĠOrig inal
Ġdes ert
T our
Ġcon vin
U D
Ġe at
with in
T ake
Ġt ons
p es
Ġ$ +
Ġrest ore
ĠS ultan
^ -\
Ġb ull
f ive
ĠNor folk
part y
Ġide als
Ġmer chant
Ġassist ed
Mus ical
ĠMur phy
v or
label ed
Ġfl ights
ific ant
Ġsat uration
con e
ER S
Ġle tting
l ene
R oute
Ġsudden ly
E conom
Re public
ĠGuard ian
Ġw ick
Ġadjust ed
ug ins
Ġpuls es
ï¿ ½
ĠLu ke
Ġp adding
osp el
Ser ies
az y
Ġsol ver
I ts
h is
b atch
Ġ\ ,\,
Ġsimultane ous
Ġflo od
Ġsk i
iz ontal
Ġsub stitution
A uthor
ĠR aw
ĠE C
13 1
Ġlo ading
ĠLe aders
Ġplace ment
Ġhand ler
m other
18 30
Ġtax es
ap plication
Ġdep ression
() :
er ver
ĠM is
ĠPers ian
p el
ĠI O
bell ion
L arge
ĠM uch
w aukee
Ġinf antry
m ove
18 57
et ers
Ġax ial
Ġburn ing
Ġmes on
Ġm i
ĠC V
to String
flu ence
ĠH aving
am ic
Ġw elfare
Ġbos onic
ad van
Con f
Ġe ffic
Ġp ion
C ustom
ĠIn stit
Ġs addle
Ġassoci ations
ĠA round
Ġstreng then
ĠS oul
ĠL oss
As ync
n od
Ġp unct
ĠA viation
Ġsing let
sum er
Ġmuseum s
clud ing
Ġport folio
Ġbut ter
ĠGra de
p al
Ġcardinal ity
_{ *
L ove
Ġstat istically
Ġ\ )
Ġtransl ations
Ġpro to
ĠCroat ia
R P
Ġpo ison
be it
Ġlat ency
ĠG ang
ĠN A
lim sup
Ġcolle agues
ark ed
L ight
Ġelig ible
{ #
Ġten ure
ap os
Ġrelev ance
isen berg
ĠSing les
\ ;\
ĠNep al
per formance
Ġemploy ing
R N
as ia
bal ance
pr inc
Ġm os
;\;\ ;\;\
Acknowledg ements
Ch arts
pi res
s we
}} |
}} [
Ġb ay
ry ption
M Hz
Ġsimplic ial
IM P
Ġinspe ction
H ung
ĠEconom ics
f its
b ank
L ook
Ġb if
Ġh orn
Ġanalog y
Ġs or
Ġpet ition
Ġacknowled ges
it ol
Ġbirth day
Ag ain
Ġyour self
Ġess ay
Post ed
ian ces
Ġaffili ated
Ġparam s
Ġmonot onic
ĠBroad casting
el o
yn man
do es
Ġcol ony
ĠAng lo
Ġsub spaces
)\ |
Ġyield ing
N ever
leg ate
J an
Ġhard er
ĠWrit ing
Ġcof fee
t v
Ġshe af
Ġint ra
ie u
Ġ( [
y i
Ġbas ically
! âĢĿ
ĠMah ar
ro us
Ġl ag
Ġch ron
te am
Ġgrand father
Ġpen et
H K
im s
Ġexpl oring
) {$\
ĠM idd
ĠDe ut
ent a
anc ies
bi ased
ĠI F
ass ociated
Ġ }^{
ĠF ro
Ġ{ (
Ad S
Ġhead ing
ĠT as
method s
et ics
constra ined
e enth
h art
Ġdomin ates
ag onal
Ġdes irable
Ġlight s
O wn
Ġun c
Ġeng age
r ators
Ġsett lements
ĠAut o
Ġ( ).
ĠR GB
exp ansion
Ġg raphics
Ġun con
ie v
Ġh ook
ĠL ux
Ġj u
st ead
Ġcollect ing
â ĪĴ
Ġrecip ient
T ags
Pre vious
f b
ugg ing
Ġs ick
Ġdomin ate
ma jor
ĠPeters burg
Ġpass ive
akes pe
cer taint
ĠD od
Ġnot ions
Ġsp anned
Ġeconom ics
Ġtrib es
ric ulum
] ,\
ĠStan ford
S ocial
n othing
te ch
Ġcam ps
Ġre fined
pro gram
ĠH ess
prob ability
Ġsub script
Ġincl ination
Ġper ceived
Ġexpon ents
Ġpredomin antly
Ġp ric
Ġph osph
config uration
Ġconcert s
Ġen umer
f x
vi o
et erm
y ou
fe ature
Ġout door
Ġarr iving
Ġd ictionary
10 24
Res earch
Comb ining
rm s
Ġform ations
ĠH ob
min imal
Ġdisappe ar
ĠRet rie
ĠPh oto
Bo olean
amb ers
Ġen abling
ĠH aus
Ġpay ing
` ,
er red
ĠSt uart
Ġexcit ing
ĠM W
ue z
are r
$ ^{+
Ġmin es
ĠHeb rew
A z
Ġtext ure
Ġj ury
Ġspl its
cm id
P arser
ĠAzerbaij an
ĠPl anning
load ed
est rian
A ud
C AR
ement ia
ĠStat istics
' ],
section s
as ympt
Ġleg islative
Ġconduct ing
Ġimpact s
ĠAl ger
ĠC ant
}$. }
ĠH R
: </
Ġl i
w hat
Sh ow
Ġo s
ĠLi u
' >
Ġfl are
Ġmy ster
Ġfib ers
Ġdr ives
Time out
ĠArt illery
, ...
p ons
ĠJeff erson
Ġput s
Ġamaz ing
15 6
rag ue
| <
rac le
Ġpriv ile
former ly
cmid rule
Ġcal endar
IF AR
ï ¼
en able
if iable
Ġuns igned
M u
ah ler
Cent ral
Ġcontest ed
Ġemploy ee
ĠNe il
ol ute
Ġl ots
Ġ ×
ĠQ ual
Ġed itions
D ouble
et ti
ĠDemoc rat
l iter
t l
Ġc ave
Ġmain stream
L ear
ĠF W
Al tern
)\, .
Ġdevelop er
ign er
Ġover w
Ġsax oph
ol ition
Ar gs
ĠSocial ist
L ondon
MA X
g us
ĠHel en
Ġm ail
ĠC ustom
el ing
Ġre written
t abl
ach t
> .
Ġmob ility
Ġinter change
) }^{
âĢĻ ,
Ġab ilities
Ġ$( -
ĠRes Net
B K
Ser ial
Ġb anned
li u
ex ception
ogg le
ĠD ennis
ĠEx amples
M atrix
am y
ĠLapl acian
hen ce
ĠHer bert
Ġfeel ings
ĠSch warz
he v
Ġob ey
Film ography
Ġhun ting
ĠA ber
load s
ĠY a
ĠCru z
Ð ¹
Con st
ĠTib et
ĠL L
Ġmer ging
Ġvirt ually
Ġinv oke
ĠK ash
Ġbipart ite
i q
Ġmin us
Ġvent ure
om o
ort s
ĠS ony
ĠGerm ans
ĠG olf
im edia
ĠG M
Ġhar vest
B undle
ĠM N
Ġtermin ology
ne red
Ġtradition ally
ĠRe ading
ask at
Ġprogress ive
Ġmen u
Ġsubsidi ary
s ided
r ity
J P
L AS
h p
Ġbi ased
D ialog
Al g
Christ ian
ĠK in
Act ive
t ry
}) _
we re
oc hem
Re p
)= -
ĠFellow ship
Ġ$ %
Ġst er
Cle arly
ĠH I
d g
ĠR V
Ġris ks
Football ers
cyclop edia
int rodu
Ġmaintain s
ĠAb u
Ġpop ulated
ĠS ox
ĠPol itics
ĠK err
Ġimplement ing
Ġcomb ines
Ġdismiss ed
ĠĠĠĠĠĠĠĠĠĠĠĠĠĠĠĠ ĠĠĠĠĠĠĠĠĠĠĠĠĠ
add ress
ĠTh anks
Ġeigen states
th ird
ĠK ate
y ang
on ce
ĠChristian ity
ir r
Ġt anks
Ġc oc
Q U
Ġaltern ating
ĠBulg aria
Ġannounce ment
Ġmur dered
ator ies
Ġmultiplic ative
Ġm amm
IT E
Ġro ster
Ġimm igrants
ivid ually
Ġill um
Ã± a
Ġinter faces
Ġtradition s
arr ison
c aster
ĠGr ass
Ġkeyboard s
se lection
Ġpo inter
ĠMo z
Ġbuild er
\ ).
ĠFl orence
Ġcivil ian
err ors
ran o
ĠArch ives
ĠAb bey
Ġexam ination
Ġmer gers
Ġsmooth ing
}) +\
18 58
Ġvis ibility
ĠHar vey
ĠBut ler
Ġg ymn
ĠTh ings
F act
ĠLeban on
Ġjuris diction
ac co
t bl
Ġlimit ation
G ET
Ġg ear
Ġinvestig ating
ĠFil ip
W alk
tikz cd
ĠSto kes
col sep
Ġcent res
Ġgold en
ĠG host
ĠArn old
om ed
se mi
ĠLe o
ĠA uckland
St ruct
ID S
ĠSt re
Ġrecommend ation
Ġinaug ural
akespe are
o j
ĠRepublic ans
ed ges
th al
Ġcon form
P AR
ct rine
ĠM orning
Ġper ception
M ur
Ġr iding
Se curity
ĠF un
Ġsp arsity
ER N
ĠArgent ine
Ġw ard
=\ ,
Ġconstit ute
14 6
Ġs ugar
Ġp ul
ellig ent
sh own
Ġman ually
az i
spect ral
Ġele g
Ġfor wards
ag i
ĠDen ote
om es
gom ery
ip per
ĠP L
Ġsem if
Ġcommand ed
}^{ -\
ĠT ang
R en
om i
ĠR S
ract ing
Ġconstant ly
Ġarch ive
por al
Ġinitial ization
deg enerate
me as
^{- (
Ġstrong est
doc s
Ġde ck
Ġcomput es
Ġcop per
orig in
en burg
Ġn inth
ip eline
ĠArm enian
ĠR ivers
Con ver
Ġens uring
US A
14 8
\ ),
iz a
18 54
quir y
_* $
ign ment
Ġem igrants
Ġview ing
ex amples
ĠĠĠĠĠĠĠĠĠĠĠĠĠĠĠĠĠĠĠĠĠĠĠĠĠĠĠĠĠĠĠĠ ĠĠĠĠĠĠĠ
S at
Ġsh ar
Vol ume
__ (
================ ================
\| _\
res on
Ġsol ves
ĠFe ature
Ġh aven
ĠY ale
ats u
EC K
pre ceq
Ġa uction
Ġun ified
C rit
Ġe rected
ce ive
ĠPh ase
ĠC ut
rob ust
18 55
ar u
av g
ount ed
Ġdo ctors
15 4
Ġmorph ology
con clusion
ĠA ctor
Ġp ale
ĠM E
ĠÅ ł
#### ####
umb ai
Ġpl ates
' ^
Ġ ...,
commut ative
id uc
Ġser vers
inter action
\ #
ĠJe rem
s it
vel t
Ġla ugh
ov sky
}{ (\
Ġsum mit
ut a
iz ard
he et
Ġconcent rations
ĠM az
Ġbelief s
c ott
sh i
Ġrect angular
Ġcl ause
ĠB ach
ĠSt ories
=\ !
Ġcons olid
c ot
Ġa qu
S pect
Ġc ube
B ad
` .
h im
Aut o
15 2
B ul
Re ader
Ġpers u
Ġhospit als
Ġc reat
Ġfail ing
)} -
Ġcur ved
ĠL ess
ĠR T
Ġm ouse
Ġf is
Ġener get
X iv
Ġf riction
ĠS alt
He alth
Ġsuperv ision
R ock
A meric
ĠAl t
Ġtourn aments
ĠH at
ĠN ode
R ivers
S aint
fin ing
( |\
Ø ±
sp here
Ġperm it
ĠThe od
ĠHen ri
) *
ĠL R
Ġdefend ers
L ock
ĠT OD
ĠG ust
ĠM R
rest rict
Per formance
Ġle x
Ġthough ts
Ġb oot
Ġmat hematic
v b
ĠD id
ater ials
Ġ[ ];
Ġcompens ation
Ġro cks
Ã ī
tagon ist
Ġthreat s
Ġwat ched
d w
ĠT alk
Ġpe oples
Ġconf used
Int eg
leg iate
ĠPen insula
)\ ;
ĠM ul
ĠG y
Ġcryst all
Ġaggreg ation
be am
Ġlight ing
Ġplanet ary
ĠSus an
ĠC ele
Ġrel ates
Ġincorpor ating
ĠPy thon
rib le
ĠS outheast
co e
t uple
ĠSy l
set tings
necess ary
call back
h agen
Ġimplement ations
De lete
I SE
C opy
A SS
Ġin line
Ġmanufact ured
15 7
ĠL ac
Ġactiv ated
Ġdr inking
ĠJ SON
Ġall iance
M id
d rew
ĠSe an
part icular
ik ing
Ġautom ated
ĠShang hai
as p
d an
ĠF ast
}}{ {\
Ġimply ing
l g
)}{ (
13 9
Ġtriple t
ĠR O
) &=
h orn
ĠO wn
Pat tern
Ġpermut ations
Ġd ens
D a
Ġcon current
Ġprov iders
ass o
Ġinter active
uit ively
cl ing
Ġrecommend ations
rm k
Ġcell ular
c ence
Dis play
B on
Ġscholar ship
Ġprofession als
Ġnegoti ations
ĠB ak
ap ing
X T
\, $\
Ġwe aken
Ġtempor arily
ish a
b org
Ġto urs
ĠL aura
Ġsculpt ure
R ect
ron es
ĠD elta
pr ising
á º
22 4
Ġchap el
b rand
Ġs isters
bran es
Ġcor on
Ġdepart ments
pl ain
O s
Ġe arning
he ll
Ġdetect ing
pm od
Ap pro
qu bit
ens on
Ġex ports
comb ination
)\ )
] =\
l ift
Ġpro gen
Ġdiscuss ing
ĠAir lines
Ġfaith ful
Ġexclud e
]{ @{}
Ġdel iber
ĠBris bane
ans k
Ġem otion
Ġâ Ĥ¬
ubb ard
ore r
Ġexplan ations
c ke
pos able
Ġdistinct ive
Ġbe er
Ġv ital
Ġfun eral
ĠHug hes
Ġcoun sel
ĠBudd hist
ill es
] :
J y
_ ->
ĠC SS
J im
ĠDec ision
)= -\
Î ¿
Ġm uon
Ġpre val
Ġfrag ments
L ower
Ġsub sc
ĉ ĠĠ
Ġpl aus
Ġsu ite
aus es
Ġaccompl ished
pe ak
ĠB es
Ġwebs ites
om ar
Micro soft
ĠR osen
}^* $
Ġmonot one
Ġfunction ality
//////////////// ////////////////
Ġpack ets
ĠO P
ĠD y
- }
Ġas ide
u ine
Ġplay off
ĠHar old
ĠS ou
Ġport ions
ĠC ert
-> ,
produ ced
By te
Ġth rown
Ġmake up
F rance
18 56
" `
ced ure
Ġsent iment
d k
Ġrecall ed
Ġrecurs ive
ĠDel aware
ĠD B
id y
ĠB aby
Ġhop es
Ġaugment ed
Ġform ulate
Ġfil tration
Ġrem em
Ġeg gs
gener ation
rob enius
n il
Ġpro l
m g
Ġdim in
Ġdocument ed
Ġh az
c L
ĠHT ML
ĠTh under
cy l
ĠS Ã£o
á ¹
Z hang
Ed itor
ĠC ondition
d ie
che z
16 8
Ġatt ractions
v irtual
ĠD rum
Ġsophistic ated
Ġan onymous
Ġcontact s
Ġtrib ut
N umerical
Ġdiscret ization
Ġsp heres
18 43
ge ometric
Ġexceed s
Ġass ists
U r
augh ter
pol ynom
th read
ĠF OR
Ġbi ography
Ġcon figure
15 8
he ld
t ip
Ġavoid ed
ĠForm er
Ġexc av
c C
ĠW ells
() {
Ġland ed
Ġorth onormal
Ġrecogn ised
ia z
Ġb rackets
Ġh olog
Ð ¿
ĠR ou
ĠÃ ģ
ĠTransport ation
Ġident ifies
Ġpat ron
ĠT D
ĠT ed
L ittle
Ġaz imuth
P ut
ion ization
b inary
Ġle verage
mod es
ĠR ena
Ġpredict ing
Ġbe et
Ġb rane
Plan ck
Ġb ootstrap
reg ister
Te am
ap est
ĠR ah
ic ian
st own
cycl ic
ĠThrough out
ĠConserv ation
ĠHerm itian
$\ {
b undle
que ue
T i
P ers
Ġpresent ing
Ġd ivers
Ġ" "
Austral ia
Ġingred ients
b k
Ġp uzz
Ġm arch
18 52
H aving
Ġwid ths
b ird
Ġcert ificate
B etween
Ġhad ronic
ĠB eth
Ġfit ness
i ast
Ġut ter
ff ield
}_{ +
Ġdrum mer
Ġcomp ressed
Ù Ĭ
Ġpuls ar
Ġm ilk
ly ph
}^{ {\
al p
ĠJust in
Q CD
} ''
Ġswe ep
Ġthrough put
Ġcelebr ate
ĠD esc
Ġpro ud
un ivers
ĠV oice
Ù ħ
xt on
ins pace
Ġinfect ed
ĠEx p
Ġrefe rendum
Ġend point
Ġqual itatively
St orage
ĠLe eds
is se
Ġclass ify
l ived
ĠBob by
Ġsc iences
cu ador
J ul
l it
ag g
Ġsustain ed
Ġj ack
Ġre built
ĠB ald
}} ]
Ġhand ed
H ER
Ġh itting
ĠH ave
S K
Ġte a
Ġin ject
ĠAng lican
ĠF P
Ad ditional
en o
With out
Ġinnov ative
ĠS Ne
Ġinstance of
plet ion
Ġcon greg
Ġn ut
Ġl iv
} <\
c H
ĠH av
Ex perimental
Ġins pect
R andom
ĠAr c
ĠF i
n umer
the m
IV E
Ġt ram
ĠA pr
18 5
ĠDat abase
cor related
Ġaccording ly
ĠM ort
Pol y
In it
Ã¶ n
| ^{\
Ġo mit
ĠBrown ian
Ġfoot age
Ġretrie val
uls ive
Ġcert ified
26 0
Ġa mm
ul ators
16 7
ĠW orth
ĠNetwork s
Ġflex ibility
Ġlist ening
Ġh ate
to pe
Ġhealth care
Ġvulner able
part ition
Ġrelax ed
Ù Ĩ
Ġl ux
Ġgraph ic
ĠRes ource
Ġminim a
Ġflo ating
Ġbel t
Ġtour ism
Ġfe es
Ġloc us
& #
Ġcitiz en
Ġcogn itive
uss els
ĠPaul i
Ġco ins
ĠPhill ips
Ġco in
ĠD ictionary
Ġsp ell
abul ary
Ġc ow
cl ed
}}( {\
Ġcirc ulation
Ġt ru
iss ues
ĠN athan
Ġheur istic
Q A
res et
ĠO scar
ĠSe lect
Ġt ribute
ĠFran co
ar ms
ah an
rot ron
Ġaffect ing
I rish
ab ol
dor ff
rad io
16 6
Ġimm igration
SS M
im er
St ructure
ar ab
Ġp our
Ġun ions
ĠPlan et
Men u
Ġmod est
Ã© l
ele ments
Ġrefe ree
bo ost
Ġnucle on
elect ric
{ +
ĠK id
Ġcor pus
Que ue
ĠDiv is
So ft
ĠM ik
c ially
C ert
ĠJ up
Ġg ent
ĠW onder
p ire
DE s
F uture
ĠK as
wh ose
Ġacceler ated
it ious
Ġsh aped
18 53
ĠDi ocese
h size
ĠSud an
over view
en ario
ĠRe ed
ĠT rain
ĠB oe
Ġrow span
min imum
Ġr itual
Ġto mb
f urt
A BC
Ġl ip
Ġsimilar ities
ĠS QL
ind ic
stit uting
load ing
Ġbelong ed
prim ary
Ġj umps
Ġc ad
det ect
J ud
Ġcommunic ate
Ġrel ocated
Ġequ iv
TE ST
Ġany where
}{* }{\
ĠL amb
ĠSt ri
ĠDra ma
{ }{
A li
ĠP ul
20 8
ĠL ex
Ġrun ners
u ating
Ġdemon stration
Ġveter an
Ġjo ins
ĠH ale
ch rotron
âĢĻ .
Ġatt itude
ĠNash ville
S cope
M ex
Ġcons ent
pl ugin
und a
28 0
ĠCommer ce
, -\
am ation
Ġas set
20 2
Death s
}) ]
ĠVen ice
m itt
own er
Ġdef ender
ĠMathemat ics
th inspace
am ine
og on
c ity
Ġc ricketer
utr ition
ĠBel arus
Ġb ilinear
bo olean
O bserve
pa ired
ous ing
Ġenem ies
Ġeigen vectors
Ġwel come
Ġtrig gered
h istor
art ifact
F unc
Ġcondens ate
Ġprodu ctions
if fe
G reat
O PT
ĠClar ke
ĠWall ace
und efined
Ġvolunte ers
ĠArch itect
Ġconst ructions
Ġmac ro
ĠArt ists
ĠPo incar
ĠWork ers
ĠF act
le af
eg al
ide al
Ġen larg
Ġport s
Ġlab our
Ġsp ir
graph s
ĠD A
int ed
23 5
c orn
Ġp ace
we ets
ĠD L
it ance
math ring
ĠF ish
sq l
i ol
Ġvol at
ĠH E
Ph oto
dis crete
P relim
Ġcompl iance
Ġthr one
G rad
Ġto ugh
Ġperson ally
\ &
)+ (
Dist rict
Ġfil tered
Ġadequ ate
M ary
ĠMethod s
}) -\
k al
amp ed
Oper ator
ĠG or
C ard
Ġar cs
d V
ĠG ilbert
ern er
Ġpre st
is ers
Ġthere after
Ġsched uling
à ´
isher s
| $,
Ġsus pic
3 75
ant ed
Ġimag ine
Ġkid n
Ġf idelity
clud e
ĠOt tawa
ĠM ills
Ġres et
Ġr h
ne ighbor
min ster
Ġadvan ces
Ġmy stery
ĠArch bishop
all ed
Ġgu idelines
T er
Ġshould er
ĠGe or
Ġconflict s
Ġbij ection
d B
ĠF ighter
c ia
v ac
am pton
ĠT ong
be k
Ġsm oot
Ġgrate ful
ĠPlay ers
Ġthr iller
l Vert
Ġtransmit ter
Ġor acle
for th
Pro blem
enc ia
ĠR ol
ĠEdd ie
ĠM atch
Sim ple
ĠProdu ctions
Ġs ink
ĠV ict
ry s
ĠK ill
Ġ[ '
Th ird
Ġprepar ing
Re cently
Ġstand ings
at op
hel p
bo ys
Ġp ill
ĠS ierra
pi racy
24 5
ĠS ang
Ġim perial
Ġspread ing
Ġent angled
ĠC opyright
D utch
Ġch ip
constra int
st ock
Ġaugment ation
Ġearthqu ake
ap unov
ll a
Ġoverse as
Pro file
Ġth ir
ĠA u
Ġt ent
ent in
3 30
Ġa u
rell a
Ġconsc ious
Ġre feren
ĠCong o
Ġmin istry
Lo ad
Ġdel ays
Ġdynam ically
d etails
Ġro uting
ma ch
18 47
ĠB av
Ġmore over
ĠLeon ard
ĠQu arter
0 25
Mart in
Sp in
18 49
- )
_ ,
ĠP eng
ho e
ĠV ent
Ġpal ace
Ġs ou
ce ut
ĠSh akespeare
Ġelev ated
ĠP T
Sup port
w ent
}: =
Ġmem ories
}} ^{-
Ġintern ationally
Ġsevere ly
t uning
array stretch
compat ible
Ġle agues
Com pet
ĠĠĠĠĠĠĠĠĠĠĠĠĠĠĠĠ ĠĠĠĠĠĠĠĠĠĠĠĠĠĠ
im p
ĠMod els
; }
F ort
n ice
Ġsh aded
'' )
ĠM inkowski
x p
V R
b h
Ġwealth y
at able
ra h
hed ron
Ñ ħ
ĠR us
ĠTh ai
ĠG rad
Ġsh ops
}\ !\
Play ers
Ġtype of
L F
ĠC itiz
Ġvol leyball
ĠRev ival
co herent
lik elihood
em on
ĠJ S
ro ls
Ġdesign ing
ĠFil ms
ĠWeek ly
) <\
/ {\
AN T
ĠN ormal
15 1
S equ
b ys
Eng ine
ĠW rite
Col lege
Ġadvers ary
ĠVis ual
con serv
Ġsub sequence
ĠChap el
d h
Ġadopt ion
w ould
L ead
ul ous
ĠA braham
ĠLand au
In formation
Ġpresc ription
ĠSo on
ĠRe cently
CT ION
ĠR alph
Ġpredecess or
ĠHispan ic
ĠJ in
Ġsup erm
er k
Ġst ret
Ġapproach ing
t mp
ĠR uth
Ġprov inces
ĠD h
per m
ant astic
d etail
ĠH ab
,\ ;
ĠC ell
Ġind ividually
Sing les
Å Ļ
it ars
S port
ĠPed ro
L ab
ĠW ag
ac ional
el ly
ĠBl u
ĠF err
Ġoverl apping
ĠC FT
_* (
cl ock
hig her
ĠCon stitu
Ġinsert ed
Ġst iff
H ard
G er
Ġm s
EX T
he ng
Ġse vent
ish i
ĠNew castle
Ġbi ology
M il
osoph ical
ĠD ame
U SE
ĠR ule
up ta
ĠBre ak
Ġmus cle
ing ale
mem ory
Ġun ve
s sec
Ġconstitution al
im ath
ĠF iction
5 50
Ġn od
ugh t
Ġsy mp
Ġalt itude
Ġcl an
ĠR oc
18 51
ĠS askat
Ġlog o
Ġrend ering
b rief
Ġcount able
ill iant
ak ar
ĠSh op
P erm
ĠL ik
Ġ æ
ag ain
F ace
ĠEx cell
Ġprom ised
Ġbus es
exp and
arri or
: [
Ġp icks
n odes
Ġunsuccess ful
ĠNot able
n om
s al
ĠT elescope
Ġce ased
min im
in ery
ĠM B
17 6
reg ation
ĠAn cient
A K
he art
ose velt
Ġexplain ing
g rim
Ġdraft ed
m us
Ġindex ed
Pro te
Ġt uned
ĠSt ream
Ġcomp ares
Ġ[ ],
]{ $
T reat
V ec
ĠL ov
Ġtim ber
ĠO g
Ġhe ll
Ġperturb ed
000 1
Ġal pha
u ons
Ġa thlete
ential s
Con sequently
w i
ordin ates
ĠT odd
Ġap ps
Ġplay wright
ed itor
comp ress
ab ases
ĠCo ach
fl ix
D G
Ġf unc
ĠMe asure
li ers
V ir
ĠL ok
14 9
Ġsubt le
C u
L en
N M
p ublished
B ill
cos ystem
A uth
Ġhe m
ĠD im
? ?
ĠAgric ulture
Ġor che
Ġescap ed
t racks
web kit
Ġdemoc racy
, '
Ġl ung
ĠGro ve
Ġmar ry
ĠAssum ing
outhe astern
Ġtick ets
ĠGreg ory
ed it
Ġlin king
Ġ\| _
ĠF O
Ġin cent
Ġal tered
Ġcy ber
ĠI M
ill ance
ess a
roll ing
m itting
eg an
play ing
K w
h idden
lig a
Ġb read
ur se
14 1
B u
Ġed iting
Ġtunnel ing
Ġt aste
ĠT it
Ġsub urb
ĠGener ation
Ġinter fer
iduc ial
ern ame
P F
att ention
Ġart work
tr uth
Ġdecor ated
Ġsong writer
unc redited
Ġdis band
Ġattack ing
acknowledg ments
ĠCom pton
Ġfif teen
Ġto uring
Ġins u
ĠCan cer
33 3
Ġaccess ed
or se
Ġinc umbent
T oday
}{ |\
Ch ildren
ĠPalest ine
Ġarray s
} "
Ġal ien
ĠF oster
F ac
ĠG amb
ĠS ic
ag ent
B rown
W el
Ġre con
ĠTe acher
ĠUg anda
ig g
v p
}] ,
ĠLapl ace
b inding
M etric
as ta
}, \,
En vironment
G reek
imod al
Ġche st
analy tic
ĠH i
ĠY ellow
dat aset
Ġs a
Ġre organ
_* \
ĠL isa
En ter
w u
Ġutil izing
W ater
sw ick
ĠF riend
ĠWars aw
em in
im en
ĠRic ci
Ġfavor able
Ġ\ }$.
Ġsystem atically
Ġblock ed
W rap
ĠPalest inian
) ^*
int roduction
ĠA U
disc ussion
Ġpass word
d dots
ĠG az
Ġgu ided
C ost
ld er
Ġhydro dynamic
p adding
ĠK i
alt ies
me ans
ĠA aron
and ro
Ġem peror
g it
Com panies
Ġoverw hel
Ġcur rency
Ġdiv iding
Ġsqu ee
ff bb
or ious
ĠM ade
15 3
Ġliter ally
Ġprint ing
preserv ing
nabl ed
Ġdraw s
Ġh ack
Ġpro s
ĠSm art
V S
Ġhad ron
plement ary
="../../../../ ../
Ġt ags
Ġexpans ions
Ġresidual s
Ġl iver
Ġpack ages
l ive
N OT
ĠH ash
ĠEp isode
C ategory
re ach
item s
Ġn ons
Ġpe cul
Ġtravel s
Ġlaws uit
w oman
Ġc rossover
Ġreason ably
Ġparad igm
ĠI de
ĠFran Ã§
ĠErn est
Ġult imate
Ġdiagn osis
s ampling
pr us
. __
Ġcompat ibility
Ġopt ically
Ġisol ation
Select or
ĠM ario
Ġc emetery
ĠTh or
ĠPal mer
W he
Ġs pa
Ġburn ed
Ġind oor
Ġpract ition
ĠE W
ĠI gn
ĠB egin
Ġphon on
ĠIs ing
Ġm ism
Ġwith drew
M aster
m k
ĠC raw
ost ics
Ġbank rupt
Reg ular
in verse
ĠFried rich
Ġbus y
ĠChe ster
Ġbl ank
Im port
ess ed
ĠAll ied
ord ial
Ġâ ĨĴ
T y
Ġ+ (
cccc cccc
g art
Ġdes k
ĠB ear
im o
j ud
00 7
sm ash
Ġs aving
ĠS K
inter val
pow ered
ĠC ome
ĠQu antum
c as
ĠM Ã©
ys h
unc an
Ġin fe
em ail
ĠCirc le
d iam
Ġtrunc ation
Ã ½
Ġimplicit ly
Ġdet ections
M sg
ĠP ent
Ġver b
{( -
S end
Ġfib re
Ġac res
ĠÐ ²
Bas ic
Ġm oon
res a
Ġbas in
Field s
ĠM umbai
Ġcapt uring
is che
Char acter
Ġp ink
Ġcount ed
eg el
ĠCard inals
ĠGu ild
Ġs ang
ĠMon th
chang ing
ad r
ĠD anny
)}\ ,
ĠWell ington
Ġ[ [
}) (\
Ġbenef icial
Reg ion
Ġvisual ization
ĠGab riel
Ġv ibr
Ġsus pected
H aw
Ġto ured
ĠV illa
Ġinv ention
ark er
Ġluminos ities
Hen ry
Ġn ested
p her
Ġhost ing
ie ce
ĠK or
P ac
ĠB E
Ġed itors
Ġout going
Ġhop ping
}}$ -
bo at
Ġ( -\
}) _{\
Ġsymbol ic
s ave
M pc
ĠBe yond
ov ina
add y
Sche dule
W ho
Ġre dd
Ġpref erences
Ext ension
D IS
Ġin set
Ġfoss il
Ä Ļ
ĠI mag
Ġindic ation
-------------------------------- --------------------------------
dra wn
Acknowledg ments
Ġun w
Ġper cept
Ġco at
land o
Ġsy nonym
Ġfarm ing
ĠBlo om
ĠBulg arian
oc ent
Ġsuggest ions
P lease
N Y
is or
Ġreal izations
20 4
Ġresear cher
}) /
Ġtrav elled
Ġp ist
cor rect
Ġassert Equals
I mm
ĠIn put
el ia
Ġtreat y
Pr ivate
B ol
ĠBol tzmann
dot sc
ĠM pc
rest rial
Ġpubl ish
At l
T ok
y g
ath a
ĠKn ights
at em
ĠI SO
hold s
Ġpay ments
ell ers
m ixed
ĠB ent
ari us
ĠH az
Ġ[ (
cal es
Ġtum or
ident ified
ĠPer th
R h
Ġrecur rent
ĠS of
oc o
Ġ ~~
Ġpreserv ation
Ġquarter back
H op
perturb ative
Ġaver ages
Ġemer ge
v t
Ġtheore tically
Ġsupers ymmetric
ĠD ale
ĠSt rong
,- .
ĠRay mond
different ial
ĠManu el
Run time
est y
Ġimportant ly
Ġclass ifiers
ĠMil waukee
st eps
ib a
ah a
Ġceleb ration
Ġlater al
b at
p rior
Ġr iders
ĠG B
ose x
Ġthreshold s
in terest
to ols
ĠO N
ĠV II
à¤ ¾
ĠInt el
ol ly
ĠAn aly
alax ies
ĠSp encer
d ense
in as
Ġresign ation
^* $-
Ġreflect ing
Ġplate au
part s
att s
}= (\
ĠS old
Ġn est
ĠByz antine
Ġgard ens
ĠB L
Ġdro ve
Ġcan n
Ġj ail
ĠA G
ĠF lying
ĠV a
ĠX X
Ġcult ures
Ġattend ance
Ġr ice
}\ }_{
row ave
Ġship ping
ĠTheore ms
Ġsuper position
Ġsustain able
Lou is
ff ff
ĠMont gomery
ĠColumb us
8 50
ĠK lein
Ġsem ic
um bers
Ġcryst als
Ġrefuge es
t f
Ġsett lers
ĠMet al
ĠDer by
Ġn inet
Ġal ert
bor o
ins ki
M ock
Ġa viation
Ġcomm ute
vent ions
ho ff
pr ises
Ġ ic
= |
ott ingham
ĠP H
fl ag
Ġc attle
ch art
ad ows
ac ular
}| $
C amp
Ġattack er
ĠBer ry
sc apes
Ġtor que
ĠN intendo
Ġ Ã©
bor ig
\!\!\!\! \!\!\!\!
ĠLuc as
' }}
AT O
ĠLat ino
Ġbor ough
ĠB ound
im an
Ġnum bered
as is
18 46
AS H
Ġg est
Ġreserv es
Ġse cular
ĠIda ho
ĠPhil osophy
ĠS uff
ĠK illing
Ġresid ue
}\ }
ĠK umar
ĠBas ic
Ġf ighters
Ġb ishops
ĠP SF
ĠD raw
âĢ ī
Line ar
in ous
ĠAd ditional
Ġmot if
Ġintu ition
Ġchar ter
Ġdiplom atic
ad just
Ġpat ent
run ning
Ġtele phone
ĠP rest
out ing
00 6
Ġd ish
ĠA w
ĠB ody
p it
heim er
Ġpro tons
S ta
valid ation
Ch ina
Jose ph
ĠStr ateg
ĠSe bast
Ġvi able
Ġnovel ist
sub ject
ad min
Ġopin ions
Ph ot
Ġhonor ary
Ġemer gence
Ġvo ices
in creasing
Ġcalcul us
Ġun bounded
AR Y
Ġmet ropolitan
Ġarg ues
A mb
ĠR ams
ĠBen nett
Ġinfin ites
Ġpl enty
Ġbar rel
ur as
ĠG ol
Ġident ically
z el
ĠE state
bro ok
Ġe ating
J SON
ĠMar qu
ĠKer ala
ut ives
cont rolled
F red
> ();
Ġsh ocks
ices ter
ĠN LO
or ov
ĠN ancy
ĠSt ructure
ĠC inema
Ġch ronic
ĠAg reement
ĠMag n
Ġn erv
par ity
Ġalleged ly
&& &&
Ġneighborhood s
up les
Ġgener ative
bi as
Ġtr ivially
Ã Ĺ
c in
Ġroll ing
'' (
Ġpur ple
Ġdisc s
Desc riptor
Ġgeom etries
ab we
} &=&
pos al
H uman
Ġhous ed
ĠConfeder ate
}= {\
ĠSc ar
ĠBe ing
av ia
Ġboard s
an ch
Ġmac roscopic
Ġneighbour ing
Ġprogram mes
r p
Ġto u
sh ots
ĠL LC
ĠAgain st
ĠE T
ĠComp etition
R ic
Ġaff air
ĠP and
ract ive
Ġpil ots
ĠProtest ant
K er
[] {\
PR O
can onical
B it
Ġtour ist
Ġdram atically
Ġlift ed
Ġ$< $
ĠC ay
ĠIm port
d yn
Ar gent
COL OR
et e
Ġexhib itions
og an
Ġman ages
Ġfavour ite
ogen ic
ĠPar ad
Ġmanip ulation
E nabled
ĠB ears
Ġb ug
ĠJo an
av i
ĠS oci
Ġle mm
ĠÃ Ĺ
vi ol
ur bs
ĠPunj ab
names e
Sche ma
Sh ape
}^{ *}
2 16
on so
rom atic
ĠRo osevelt
ĠD aw
Ġat tained
Ġjust ified
ĠIsa ac
Ġconvin ced
ĠTom my
Met adata
Ġfilm ing
pect ives
ĠSw ift
Ġob s
Ġent repreneur
Ġdef ended
Ab stract
ah l
Ġsupers ymmetry
Ġel dest
Ġj ew
Ġsp ite
ĠAr g
R G
Ġf r
Ġlik ed
w yn
ast ically
Mem ory
Ġsl aves
ĠG ets
Ġtre asure
W estern
ĠM ine
ĠRod rig
ĠLeg al
semb les
Ġelim ination
Ġmet als
Ap plying
ĠHop f
F K
Ã¶ r
ĠB log
ch air
che wan
Ġun e
w iki
Ġ' '
m ock
Ġc ock
Ġbif urc
ĠPaul o
ph ones
Acc ount
ĠWood s
sl ice
$ }.
ĠCol lect
Ġhistor ically
as ury
Ġd inner
disc uss
Ġcylind rical
Ġd z
Ġpers istent
Ġcompr ised
F ictional
Ġto y
ĠD P
Ġwhere in
$. \
dis abled
acc ount
Ġr idge
oy le
ĠHamb urg
na issance
Ġsepar ating
ĠAh med
) &=\
Ġf ate
Ġmer ch
ĠV ery
ĠE lection
ĠJul ia
poss ibly
(\ {
Ġval uation
oc ene
ĠFour th
Ġcart oon
at io
ant om
15 9
ĠDav ies
Ġirre levant
Ġd rain
ĠBur g
od rom
Ġhapp ening
ig ue
ĠP rague
e ak
el ike
ĠCroat ian
h ind
Ġanth rop
Ġheter ogeneous
im on
j ee
Ġavoid ing
Ġrend ered
Ġall ies
spect or
ĠLiber ty
sign al
Ġb ike
ĠK arn
Li u
equiv ariant
R ugby
ĠT M
Ġadvoc ate
imb abwe
un ion
ĠHol mes
N GC
ex periments
Ġdescend ants
Ġpsych ological
ber y
erv ation
) '
Ġrec ruit
ull ah
Ù Ī
Den ote
ĠBund es
Ġmidfield er
bal anced
enn ial
Ġrig orous
ast ics
V an
\ :
ĠNorth west
Comm unes
ĠNap ole
ic us
ĠPl us
Ġor n
Ġim posing
pl iers
comput e
Produ ct
Ġextrem al
ĠJ ung
m atter
ern ess
$. \\
S mall
c ool
ĠESP N
F B
Ġfollow ers
Ġinsu fficient
% ;
Ġl akes
ester day
curs or
us ers
Ġseem ingly
oc ate
Method s
Ġdest ro
Te X
Ġbi ases
Ġa est
am med
ĠInter view
ĠRe ference
99 9
M arg
Ġh ills
ub ern
plan es
red uced
ĠM Hz
Ġconcept ual
in ks
an che
6 50
ĠE sc
Ġdevelop s
Ġdebut s
Ġdemand ing
rog ate
ĠIndones ian
r ational
ex ternal
Ġlik es
C ond
}[ (
Ġdwar fs
ĠF oot
Ġannot ation
Ġj son
Ġtrav elling
ĠR aid
H ouses
Ġper ipher
ĠAmb assador
Ġdesign ers
Ġ ip
Ġparameter ized
I reland
ĠO w
Ġmult ivariate
Ġdesign ation
Ġcarri ers
oc cup
Ġinitial ized
ĠArm ed
uns igned
ĠA j
S oviet
ic ia
@ \
ight ed
z t
K h
isc opal
Ġcomment ary
s elling
ĠS qu
ras er
ill on
S NR
del ay
w d
ĠDef ault
Ġalleg ations
}$ }\
Ġsu ited
Ġc inem
ĠW W
Ġprov isions
Ġless ons
Ġscal ars
ĠLeg ion
Ġen orm
mm ode
Ġb esides
ĠTas man
M n
ĠP om
Ġt ar
Ġcerem on
L I
Ġper pet
Ġfall en
en ne
ĠS weet
ĠL akes
charg ed
Ñ ĸ
o S
Con v
SI ON
ĠRena issance
ĠL or
Ġr uler
)) =\
Ġw ars
Ġform ats
ĠL S
en eg
J ob
ĠB od
Writ ers
Ġelabor ate
Ġspont aneous
3 25
ĠPr ison
ĠCel tic
al ias
G rid
c x
Ġdisestabl ishments
ĠBrun swick
plo ys
Ġre vis
ĠN g
print f
att y
A bs
ĠD in
Ġdegrad ation
pe red
ID E
ĠC ork
Ġconduct ance
Ġannot ations
Ġacknowled ged
| (
itic ians
Ġdecom posed
ĠSp ider
}} },
Ġed it
ot ype
k j
' },
Ġn ights
ĠGib bs
Ġbeh ave
ĠKaz akh
Ġun supervised
Ġgen uine
if mmode
mathb old
ĠG and
Con struction
de cl
ĠMal ay
Ġst ays
Ġy ard
om ical
par atus
et own
ĠJul ian
ĠR oth
app ings
Public ations
c ert
yn chron
Ġr ally
}^{ [
Ġdiscuss es
ra ment
Ġm eth
23 4
Pro gram
er ie
cre ts
}' \
R M
ĠR G
Ġte eth
Ġresol utions
ĠInitial ly
m orph
tan h
ĠS af
ĠScot ia
r Vert
leg al
ĠF BI
ri ans
Ġatt en
N F
Ġ> >>
ull er
Orig inal
N ET
{ }^
cle an
Col umb
Ġexp ense
structure s
z s
in en
Ġpa ired
ĠB ened
Ġrem ix
Ġfac ial
ĠO bserve
Ġfun ctors
ĠSh adow
Ġb ell
ĠSecond ary
In ternal
Ġk nee
Ġcharg ing
Ġh urt
vere ign
ps y
B egin
f red
n h
22 2
ĠIm pact
ĠAp ache
Ġ\ ;\
ĠK re
Ġval ence
th reshold
D est
ĠO ber
Ġsaf ely
Ġbatt alion
ath i
sing ular
ĠR achel
ext end
sh ore
}\ ]
Ġgain ing
Spec ifically
ĠG AN
st ats
)} )$
ĠAd miral
Ġgather ing
ĠNe ed
ĠH ost
Ġchalleng ed
B esides
ĠO ption
Ġg y
Ġv ow
ĠW alt
)/ (
C art
at to
tain ing
ĠP aram
Ġkit chen
consist ency
ĠSt op
Ġrandom ized
K P
Ġtend ency
Ġm ad
Transport ation
Ġsub algebra
Ġ Ñģ
ĠMar x
Ġconvent ions
Ġd ressed
sh ops
test ing
. [
ĠEag le
Con struct
Ġt ier
Ġmut ually
[ $\
Ġf o
Ġcou p
B ERT
ĠL ip
sm ith
A W
})- (\
Ġby pass
vis ible
ari um
Y M
ĠMus ical
ol y
ĠZ ar
ĠF an
Ġbor row
ĠRh ode
per ate
Over all
2 12
Ġp iv
ĠK om
es ome
st ed
lap se
ĠCh an
T a
ill ary
f ine
p ri
ĠN ine
ĠBro s
var nothing
Ġsw ing
ĠWork ing
ĠMot ors
ol lo
Ġment ions
Ġtoler ance
ĠH im
ĠAm y
or ange
Ġth rew
it ational
Ġconstitu encies
Ph ase
anc ers
ĠTun is
Ġdeform ations
by ter
Ind ia
Ġreprodu ced
Ġupd ating
Ġbu ying
P rom
ĠCamp us
L es
Ġcon vey
ys on
Ġfle w
Ġ& +
ĠBl ake
ĠOak land
Ġrevers ed
q w
rt imes
Ġprevent ed
act ers
Ġnever theless
Ġfro zen
by tes
F oot
Ġrel ativity
b ranch
ex port
umber land
pol icy
ĠRe id
Ġparametriz ation
W ood
Ġflow er
Ġprec ip
ad v
Ġr ises
ĠAct ress
Ġ< \
aver aged
ĠHard y
Gener ic
Ġfriend ship
Ġal ias
O H
ĠT ool
ĠOrig inally
ad ier
Ġviol ated
Ġorbit als
D etails
ĠS ul
oy age
Ġre conc
Ġcl arity
Ġsub marine
Ġ' /
P b
Ġp ipe
st roke
Ġan ch
per ience
orthe astern
st ability
Ġsub mit
Tax onomy
em ission
ĠGR B
h fil
ĠI mages
Ġwalk ed
c ro
Ġt enth
ott i
arch ive
Ġpit cher
Ã© r
17 4
oper ation
leg raph
ĠB P
ĠBro oks
hand ler
Ġshell s
Ġmod elled
AR E
)\ }$
ounc ing
Ġheli um
atter y
ĠMer it
Ð° Ð½
Ġformul ae
prote cted
exp ression
Ġair line
S ar
ĠT all
_ (
Ġen rolled
Ġsurpr ised
ll er
Ġtransl ates
ĠShe ffield
Ġpsych ology
Ġin ev
ĠM IT
ĠA part
B road
ĠR M
Th ough
by e
Ġmon astery
16 4
Ġj av
ĠOt to
}- {\
ĠPar ks
ĠPhys ical
Y ang
ield s
ĠHar per
ĠH IV
) &\
M ountain
end or
Ġsee ks
Ġtor ic
G i
os lov
Ġcan on
20 3
ĠKe pler
Ġst rang
ĠE cuador
any on
ĠIn stitution
c ock
Pro tocol
Nav Bar
Ġm il
Ġcan al
sc roll
AM P
desc ribed
set counter
ĠC lear
ingu ish
L imit
Ġround ed
U k
Ġpart on
ph ib
Ġo wing
Ġdis solved
N s
1 200
N I
Ġt ale
A st
m ov
Ġsp ans
ij a
, [
P ic
Ġfl att
F D
S elf
Ġdemonstr ating
\, ,\
Ġfil ename
Q C
assert Equals
c ourse
bs erver
song writer
ĠH odge
Inst ead
Ġlo ose
}_{ [
ĠGl ass
found ed
ĠAm endment
Deb ug
ĠM oney
att ribute
}) )$
v on
w y
Ġb acteria
Ġthread s
ĠHar bor
ell ation
Ġax ion
A pi
ĠSw an
Ġexpert ise
ĠVlad imir
ĠWild life
im pl
20 6
pe z
am as
Ġw orn
Ġpione er
Stand ard
ĠIll ust
ĠW R
ĠK em
18 12
Can ada
Ġcl othes
m eter
ĠA ires
ĠRh odes
rac es
g b
ĠS creen
ĠWil helm
ado op
der ived
Ġgra ve
Ad ditionally
ĠA ur
ĠGrand e
Ġcoll apsed
tem poral
ĠR af
F iles
Âł Âł
s ix
ĠPet e
Ġb icy
Ġsuscept ibility
fer red
vis ual
Ġaddress ing
ĠInt roduction
Ġpod cast
el ong
ĠEn cyclopedia
17 3
? }
Ġen force
Ġfl our
n ai
hab ilit
Ġachie vement
c ous
Att ributes
ĠStock holm
ĠK rish
Ġlabel ing
Spec ies
f u
Ġsoci eties
Ø§ ÙĦ
Ġgeom etrical
ĠS ullivan
$ },
op pler
Ġab oard
ĠPh arma
rr rr
Ġt ile
uis ine
Ġc iting
Ġparticip ant
Ġal umin
ĠB O
ĠW ikipedia
Ġinduct ive
integ er
' })
hard t
ĠN u
18 45
dom inated
ĠMethod ist
$ |
Y our
p ole
Ġb en
t u
bra ket
Ġoff line
KE Y
17 8
Ġbreak down
n at
open hagen
ĠCom edy
Ġg aug
ĠClass ical
ed o
Ġlegisl ature
ĠLithuan ia
e ither
ĠEs sex
ĠBos nia
_{ |\
Tra ce
. âĢĻ
en es
Ġw ore
cur ves
Ġcha otic
z an
Ġel ite
Ġna ive
Ġab st
d ynamical
18 20
ĠYuk awa
ĠA ub
ĠHind i
Ġconfir ms
Ġpos es
Ġm asks
ĠH ass
sub script
Ġkinem atics
Ġwrit ings
Ð ±
ott ing
d one
Ġor al
ĠIn sur
ed i
Re cent
ac cur
og o
id ation
Ġl ane
ox ide
ĠRe form
Ġtet ra
Ġ" [
press ure
ĠCab inet
lass ical
add ed
Ġintersection s
row eak
wid get
The ir
ĠV ector
Ġ io
ri ot
ĠAn a
fill ed
16 2
Ġspecial ist
Ġsomew here
ra its
Ġloc ked
fe at
4 000
n ut
Ġe igh
ĠAng els
Ġlif ting
Ġn g
if fin
Ġro oted
T ex
36 5
ĠGard ens
Ġso vereign
n al
Ġ ^{-
it on
andid ates
Ġcro ps
j ournals
Ġunder graduate
Ġmed i
Ġamb assador
Ġdemand ed
utr ino
ĠForm ation
al tern
Ġcon vol
ĠD S
ok u
ĠMil ky
ĠS aw
ens pace
16 9
b ootstrap
add r
as ive
++ ;
Ġpossess es
ĠD eg
Ġchap ters
ing ers
ĠHop kins
ĠMig uel
ex ponential
sup ported
Ġhop ing
Ġpresc ribed
C W
ĠM ang
Ġtri ps
G H
ĠDisc overy
Wind ows
Ġf atal
Ġl ighter
Ġdo zen
Ġare na
ian i
ĠJama ica
Ġs ung
Ġevent ual
ĠA chie
ba um
ĠV il
Ġqual ification
Ġp ap
trig ger
Swed ish
ĠC ec
Ġaccount ed
ĠRetrie ved
p u
Ġinstant aneous
Ġend points
Dan iel
prec ision
qu asi
ĠSe ctions
Ġcho oses
ext ra
Ġm ature
IM O
}\| _
Ġeccentric ity
Ġ( {
ĠR R
Ġhard ly
k r
Ġe cosystem
ĠMarc us
ĠA A
Un incorporated
+\ !
Test s
Ġretrie ve
Ġin jected
ĠG ren
Ġex otic
ĠM T
enc oder
ĠEvent ually
dif ference
ig i
le z
ĠArm strong
Ġcollabor ated
Ġne phe
Ġposit ively
FI LE
Ġwe igh
p ure
ĠC IFAR
18 44
Ġfor ty
iling ual
E W
Ġv ib
Ġdi et
Ġret reat
ĠEx hibition
Ï Ħ
le ad
st en
)] \
A u
us a
et es
ĠG A
ĠEngine ers
it he
Ġpen al
ĠJac ques
s parse
Ġche ss
Ġin clusive
Ġmon op
ĠHer ald
ĠL ay
Ġimp urity
H ouse
Ġsett le
part icles
Ġunde rest
ĠA borig
ĠI BM
Ġpoll ution
andid ate
Ġeditor ial
Ġsl ip
ÅĤ aw
r ise
Ġball ot
Ġevol ving
af fe
ĠRevolution ary
Pr int
ov anni
[ -\
Ġpecul iar
ĠMem ory
ĠSom erset
Z ero
- ,
c F
def i
Ġup grade
16 3
Ġlist ings
Ġwonder ful
ĠBr ussels
Serv ices
L STM
object s
ol ine
stan bul
all a
cre ation
Ġre forms
ĠIn iti
ĠV eter
ĠCy prus
s z
ĠOut standing
Ġrot ations
ĠW ick
al ies
ge ometry
Ġcon finement
stud y
ĠFa ith
ke es
Ġproceed ings
; ->
Ġtre ating
Po inter
paramet ric
Ġrele asing
H erm
18 39
Y oung
m os
mark et
Ġreleg ated
ĠRoberts on
ĠSh ould
Ġcivil ians
Ġconcent rate
ĠG O
Ġb achelor
Ġn ose
v ct
w ik
Ġfeed ing
16 00
inf all
Ed ge
ĠW inn
Ġres iding
ĠCon fig
wart z
Ġrom ance
Ġachie vements
ĠMy r
Ġto ll
Ġsc rap
function al
Ġb lo
establ ished
K B
Ġathlet ics
}{! }{
ogn ition
condition al
ĠDes ert
gra ined
Ġd uplic
C ities
ĠD oll
P resent
ĠPear l
Ġst olen
et rically
Ġfail ures
ĠD ementia
In c
18 37
ĠSus sex
Ġencoun ters
\ }^
Ġmark ing
x u
pl aced
| |\
Ġabbre vi
L B
Ġd ancing
Ġf ifty
asc ular
Ġbank ing
pa rency
s il
Ġcon ject
Ġn s
Ġ& &\
zeg ovina
ĠBat man
in her
er i
Ġco ordination
ĠVol unte
Cl ose
Ġadminist ered
ĠSant i
C ut
ident ity
L uc
Â Ģ
ĠDe cl
found er
ibl ings
ĠE V
Ġpat rol
R NA
ash ing
artifact Id
18 35
$ [
ĠCurrent ly
Ġelectron ics
S tage
N odes
ĠCommunic ation
ĠR ice
R am
Ġgrad es
ĠN HS
Ġexec utives
spect ra
B ottom
ĠMajor ana
Ġresum ed
W ashington
Ġsport ing
Ġtermin us
l ane
ĠG es
Ġint rig
ĠPak istani
Ġh ub
ĠFran z
Ñģ Ðº
Ġvol unt
With in
ĠK K
ĠN as
ĠEll is
pre v
ĠInnov ation
ĠS hen
ĠSh in
P ay
Ġche ap
Ġimp ression
ÂĢ Â
ĠLin ux
ĠD as
Ġexcept ions
Ġv it
Ġcooper ative
* )
Ġexplo ited
K a
Ġestabl ishes
Ġcon ce
Ġs ailed
ar Xiv
Ġin ad
ĠW arriors
Ġshow er
fe ed
Ġbe ars
the me
Ġun incorporated
Left rightarrow
Ġc ouncill
Ġevalu ations
ĠB anks
Ġpri ors
Ġplaus ible
Ġw av
Stat ement
ĠPrinc eton
0 11
c us
Ġf n
Ġaltern atives
Ġdepart ed
sche ma
sen al
C irc
I l
Ġintersect s
ac ency
Ġfin ishes
Ġdelet ed
Ġintu itive
L ayer
ĠDev on
let te
i ens
Ġc ant
normal ized
T ilde
Ġag gressive
Ġown s
Ġmon oton
im ag
im als
_+ (
normal font
n umerical
Ġcor ps
ĠGe off
ĠF at
m ust
=" -
osp heric
ram id
Fl ags
)] $
Ġcha os
l os
\! -\!
iff ith
Ġ$ >
Vis ual
G re
.. ."
ĠDo es
Ġdimensional ity
Ġre wards
ĠDist inguished
uff le
Ġe ject
lev ard
ĠD ob
100 00
[ ],
new page
N ative
20 7
ĠTy ler
sc attering
y ellow
ĠP ink
Ã ¯
emph is
Ġjournal ism
}) }$
ier i
ĠCl are
ĠYugoslav ia
M ake
Ġver se
col lection
tab colsep
Ġ& $\
ĠCh oice
2 15
18 42
Ġarchitect s
Ġtow ers
fam ilies
Ġaud iences
mathb in
18 4
Ġaer ial
ĠM ale
Ġrev ival
Ġbene ath
b il
pend ing
ĠP icture
M ach
- |
Ġp ub
18 8
Ġmiss ile
Ġf iducial
q a
Ġorigin ating
ĠPro b
bes gue
he at
re rs
ers en
in da
As ian
Com plete
Pol ish
Pr inc
im ony
ĠR i
ĠH arm
ok o
ĠIraq i
ĠSob olev
ĠNiger ian
"/ ></
rag on
ĠP it
Ġsubt raction
Ġcho ir
Ġtransport ed
ĠEm ma
Ġf i
ĠL D
Ġex empl
ĠM s
Up per
fil m
Ġany more
T aylor
ĠSaskat chewan
fore ach
Ġp unk
red uction
Ġj oy
aj i
Ġgram mar
× Ļ
ign e
man ager
Ġsyn chrotron
ĠD j
de cor
Ġl as
18 41
ĠLeg isl
Ġfair ness
ĠMoroc co
ĠEx ped
Ġresemb les
\, (
ĠF ul
Ġhypersur face
Ġ\ '
Ġachie vable
Ġinc idence
Ġmed ic
op a
ĠHe aven
17 7
Ġdrop ping
( !
Å Ľ
Ġspace craft
ĠEv ents
ĠDur ham
Res ol
g m
Ġimm ig
Ġpiece wise
Ġthin ks
om ers
Ġstud ios
Ġassemb led
ra k
red shift
at um
Ġ( #
á ¸
Ġassign ments
Ġcon ferences
ĠN amely
Ġgu itars
ĠProgram me
Class es
Ġneur on
e i
ĠM ail
ĠM essage
the mes
Ġmem oir
ĠV ision
Ġpract ically
ĠStart ing
ĠK ids
cha ft
Ġ\ ;\;
A rea
It ems
ĠEm ily
FA ULT
Ġvirt ue
th row
intend ent
Ġd ose
Ġoptim ality
ange red
lo oking
Ġcat aly
un ar
Ġext inct
inter acting
quest ion
Ġacadem y
Ġb arriers
ĠE volution
Ġsche ma
u pe
ĠC B
ĠEnter prise
Leg acy
Ġvers a
as pect
D ifferent
Ġt ilt
Ġy r
ĠRichard son
Ðµ ÑĢ
Ġf unny
g ender
ĠJohann es
ĠN ottingham
cy cles
Ġde alt
S ample
Ġmidfield ers
au f
Su ccess
ĠHe isenberg
Ġperman ently
em ark
ĠF antasy
t ol
Ġless er
Ġpoint wise
0 12
c T
Ġs its
Ġb er
ov ic
Dem ocratic
Ġbomb ing
yp ically
S ound
n ick
dom in
{ ,
col lect
ll l
Ġmulti plied
ĠIndian apolis
) &=&
ct uary
ĠS ig
ĠCol umn
ĠP D
Ġpray er
Ġpian ist
Ġagre ements
ĠH z
Ġgu ards
Ġh ind
ine es
S ame
Ġwork shop
ĠF lem
Ġvolunte er
ion ic
ĠR ib
ĠPo etry
Ġsur pass
ĠBu enos
D ou
Ġgraph ical
Ġcomfort able
Ġappropri ately
c M
Ġan nex
Ġpropag ating
Ġpoly tope
Ġpush ing
ĠChel sea
Î ¹
00 8
Ġque en
Ġun em
univers al
L iber
Î ½
ĠPan ama
Ġm sg
ĠF uk
Ġpri ests
Ġprevent ing
-> _
) ">
ĠH us
ĠB ose
Ġsub manifold
pix el
Ġd ying
Ġ" /
Ġindu cted
got ten
cont roller
( .
ah u
gener ic
SQL ite
ĠB ERT
me chan
ĠAbd ul
Ġconver gent
ra de
id x
Ġp ounds
J ean
Ġc usp
Ġviol ations
ET H
ĠInd ies
} &=
Ġsub stance
ĠB ras
SI ZE
ĠFe ynman
Ġtreat ments
Ġdifferent iation
mt x
as aki
ist le
ĠSol id
Ġde formed
pro ps
Ġpun ishment
ĠHe ights
ĠDivis iÃ³n
un ting
Ġdis orders
b end
ĠE ye
Ġem ploys
Ġblock ing
il ian
ĠLe vi
ĠV ern
Ġhuman ity
or um
ox y
Ġel ong
17 1
D IR
ĠLe besgue
ĠCh andra
Ġdet erior
Ġrenew ed
ĠD W
IG HT
Ġd ir
Ġte ch
Ġinteg rity
vert ical
ĠJenn ifer
Ġh tml
s amples
depend ency
Ġmark er
ĠO wen
ĠJerem y
ĠC redit
0 15
Ġcontradict s
ow itz
Ġ }.
Ġ ],
ĠI SM
F ellow
ĠKe ep
ĠM n
cal c
Ġrot ate
18 38
atin um
Ġw ishes
ĠMan it
Brazil ian
Ġenter prise
}( (
sv g
Ġw orm
ĠBel ow
uz zy
17 2
ĠC G
ov al
cap s
Pol iticians
Ġt iles
ĠO z
ar ians
ĠM uk
Ġdisappe ared
Ġen sembles
ap a
ĠVal ent
ĠB rid
Ġtem plates
A h
Ġâ ĪĴ
P ak
R ot
p k
ĠJ unction
de en
Ġam id
ing o
ĠUn til
Ġreg ulatory
Ġinstit ute
Ġdemoc ratic
Ġl ig
set ting
Ġdat abases
Ġpro poses
ĠEn c
ĠPr int
ĠAd venture
Ġback bone
Ġen v
M ic
27 5
Ġbre eding
Ġsort ed
Ġinteg rand
ĠBa iley
? )
Ġso ap
& +\
in finite
ĠM g
Ġun anim
ĠN uclear
E lements
ph or
Ġsuff ix
zy me
Syn tax
ĠU til
Ġspecific ations
ĠT iger
ĠD etails
+ (\
j p
Mod ern
ĠSalv ador
Ġsh ifting
Ġbare ly
Ġcong ru
ĠH aven
ĠO rt
Ġj Query
Ġn ic
air y
re pe
4 80
p kg
mon ton
Ġreveal ing
the tic
Ġhop ed
att i
Ġfound ers
ĠC over
ĠL if
Ġfulfill ed
U pon
ĠL E
be at
ĠCre ative
Ġan xi
}$ \,
ili ation
Ġb unch
ĠL iv
ĠB oh
col span
ĠHer zegovina
ast ed
ĠZ h
Ġgradu ation
ĠSh i
ĠC W
}_ *
enti eth
T am
fl ush
Ġquas ars
' =\
Ġsome how
Ġbul ge
Ġkilomet ers
C as
}$, $\
Ġg ras
b log
ĠS ales
ĠAll an
E ducational
Ġsc roll
N atural
ubb les
ĠC ann
Ġremem bered
ĠHit ler
Ġretrie ved
Ġdev ast
ĠDe velop
em er
op ened
Ġfl ank
ĠTrans it
ĠV or
Ġjud gment
[ :
] )$
ĠB row
ĠWest minster
re port
Ġcapt ion
Ġoff ense
n k
Ġcomm enced
Ġprev ents
Ġ\ [\
itro gen
Ġbur sts
Ġcook ies
Hamilton ian
Ġc avalry
Ġred es
Ġterror ist
re ra
Ġcasc ade
Ġathlet ic
Ġg reedy
ĠPl ate
ĠEll i
ĠB io
Pl ayer
Ġvis cous
s gn
Ġrep ublic
Ġfle e
U ID
20 9
t ens
de composition
act ivity
Ġsynchron ization
th in
a ffect
Cl oud
ĠMan ila
M ills
J on
bo xt
Ġbuild s
}\ }$.
lim inf
av ian
Ġland mark
ĠSol omon
ĠP orter
Ġback ed
Ġperform ers
Ġphil anth
ĠMaur ice
Ġtel esc
ĠA bs
sh adow
}+ (
Ġst ems
ĠSt atus
ĠQu art
group Id
dist rict
Ġvocal ist
Ġmist ake
ut z
Ġbe aring
Ġmin eral
ĠPal m
Ġpregn ant
d S
ra pe
}( [
Ġlegit imate
C U
b ons
oy e
as ets
Ġas h
Ġequ ilib
supers cript
D epend
j in
im ization
r ific
ĠC openhagen
Ġstri kes
E ll
ĠD uncan
ĠLe icester
Ġsynthe s
Ġtub es
Ġch ore
ĠAl pha
ĠHy per
Ġastroph ysical
' |
ab stract
ĠArch ae
ĠR ather
Ġsurviv ors
ð Ł
Ġep ic
B and
e ref
)$ \
Ġrock et
Ġb le
Ġcomm utes
ĠPop ulation
## #
Ġnick name
Ġp ic
Ġrecru ited
ĠT es
Ġdivor ce
Ġany way
gl ass
Ke ys
r ar
Ġsat urated
ĠSim ple
pro xy
Ġequiv ariant
m pi
Ch art
q n
rac ing
ĠPer iod
Pan el
ĠBry an
pref ix
Ġrec y
hal o
Ġdie lectric
ar is
Ġn aming
) })\
Col lections
tabl en
Ġincorpor ates
o fficial
Ġkill s
Sc ience
PR L
ett es
ĠS par
clud ed
ol ics
ae us
chie f
ĠHe at
ĠMarket ing
ĠZ ero
}| ^{
fe atures
RE AD
ĠB elf
St an
P ER
al in
Ġm a
ĠAp plication
que z
ĠCh ase
_ +\
Ġcan vas
Ġquas ar
Ġc ob
con tact
Ġkn ots
vari ables
ĠW id
ĠL ak
em bourg
ess ment
Ġtri o
Ġlemm as
Ġf ame
ac er
18 36
ĠM ead
Ġdiagn ostic
th rows
ex plicit
m ind
Ġres ur
determ ined
Ġc rim
ew ay
vio let
Ġsc andal
Ġsubstit uting
ĠSher iff
en abled
ist ered
ĠE sp
ĠI mp
ĠTh orn
Ġren owned
styles heet
ell ite
ĠNet flix
Ġb otan
ĠR ules
ĠG ent
imens ional
Ġwid ow
Ġarchae ological
Ġm ath
Ġem pire
Ġpar as
g rand
ĠIs le
De velopment
Ġphenomen ological
$}} ;
Se lection
Ġspin or
Ġcur riculum
Ġanticip ated
t ogether
Ġstep ped
ĠK hal
Ġdecay ing
ĠIn ternal
ĠCon versely
Ġaccompany ing
R V
Ġf ires
n r
Ġcalib rated
Ġpr imes
Ġe gg
ĠCol in
ou cester
}, -
ĠB M
Fig s
ĠA SS
ĠH ubbard
Ġauthor ized
en i
ul ers
Ġselect or
ĠProv incial
B ir
ĠLy apunov
ĠI g
}} )$.
ST AR
Ġtrac ed
Ġforb idden
^* _{\
un ks
Ġhar ass
web pack
ĠK end
aw i
Ġo w
Ġmer c
ĠPrinc ipal
ĠF robenius
ĠTre k
Ġtrans fers
Ġdis advan
Ġaccum ulated
E mb
A verage
E F
ĠM old
Ġsc ar
ĠSta kes
Ġadvert is
ri o
="../../../../ ../../
Ġcul min
d ip
re lease
Ġmon oidal
), $$
st orm
Ġh o
ĠB ran
ĠEd mund
sh ared
Ġbeat en
ĠBrad ley
0 30
Ġd B
ag le
ĠLin da
ĠF actory
Ge org
ĠCliff ord
ig ator
Ġh oney
h ide
position s
spe aking
18 32
B Y
S ER
Ġt weet
Ġden oting
........ ........
Ġal beit
ĠD ow
Ġsk et
Ġcitizens hip
P arse
M AT
Ġshel ter
Th anks
pl atform
ak is
St op
Ġpa ren
ic her
Ġdub bed
Ġdepos its
N ULL
Ġpr ince
Ġannot ated
es se
kins on
ĠC anyon
Names pace
n is
Ġp ig
ext ended
Ġmyster ious
Ġbench marks
b ench
Ġvo iced
ibl ical
le ys
oc on
ĠUr ugu
pi ke
Ġ&= &\
ĠAndrew s
rif ice
Ġadop ting
u id
}$, $
rid or
swe red
Ġinfinites imal
Ġl ith
{} %
Ġst uck
ter bury
ĠDub ai
Ġheav ier
J e
ĠB Y
sh all
y x
H ot
l is
s afe
F re
con n
ire ction
ĠPow ell
t oggle
ĠR C
ĠAd ventures
ĠTh an
Ġsw ord
Ġd oping
big wedge
ris k
do i
Ġbr ut
Ġple asure
) }}{\
Ġcler gy
ĠDet ect
Ġlob by
Ġbrig ade
opl an
Ġd ash
ch apter
) ^{(
}, {
Ġdraw ings
C itations
Ġg aming
requ ired
Ġassess ed
ĠCub an
F un
ĠA ch
Ġb out
Ġbr illiant
ĠW ool
ant le
ĠD um
ĠD FT
Ġen closed
Ġpit ched
P V
Un like
Ġfe ud
Ġl ar
Ġtra iler
B ell
phys ics
ĠZ imbabwe
| ^{-
Ġun fold
ĠĠĠĠĠĠĠĠĠĠĠĠĠĠĠĠĠĠĠĠĠĠĠĠĠĠĠĠĠĠĠĠ Ġ
B V
us hes
Ġinter stellar
Ġfunction als
st rict
Ã© g
Ñ Ĩ
r ases
Ġsi ege
ĠSt rat
Ġbroadcast s
ampl itude
Ġe uro
}' _
Ġcat hedral
Ġpurs ued
Ġobst acle
ir ie
ĠHend erson
ĠF inals
Ind ividual
Me asure
Ġdif fraction
rit z
Ġlinear ized
Ġanten nas
fill draw
Tra ining
Ar thur
ĠI sh
Ġsem icon
Ġ ibn
16 1
p ull
al one
Ġopt imum
ĠBudd h
F N
ĠA ges
boxt imes
c ub
ole y
Ġweight ing
Ġk iss
ex ist
Ġerg odic
C red
ĠC I
][ '
ul in
od ers
ins k
en vironment
iter ator
ĠKa ren
Ġad s
3 70
ol ith
m ons
ĠRail ways
ĠDomin ican
Ġambig uity
re leased
ir med
p ark
w ald
ho f
ĠZ ag
C lim
ro cal
Ġpra ise
es ar
ĠCons ult
{$ {\
ide a
Ġindic ators
ian e
m otion
Stat istics
ĠConstitu ency
% ),
c O
ĠD ise
Ġcle ared
ĠH M
Ġevol ves
Not Null
oun s
Ġcontract ed
Ġadminist rator
ĠTOD O
Re port
Ġtra vers
Ġman s
par box
Ġsize of
in frared
3 40
pro tocol
Ġcasual ties
diff usion
B or
er re
ĠS USY
Ġem otions
Ġdies el
+ |\
P en
ĠAp plying
Ġend owed
Ġwild life
J ones
ĠSim pson
Ġdecom pose
ĠExcell ence
Ġhel icity
ic ians
ĠF emale
eps fig
ĠPlay Station
make cell
H an
Ġkill er
26 5
ĠD escription
Ġden ominator
Ġeth n
ĠShort ly
", "
Ġnovel ists
neut ral
ĠKenn eth
Ins ert
ĠAborig inal
ĠG ross
Ġexplo iting
18 2
ĠTw enty
*}[ !
ĠRe cent
pr iv
Ġm all
ron ics
ĠRes ponse
Ġgl ac
ĠIn side
Ġap paratus
Ġbad ly
ĠFW HM
ir us
] -
ĠJacob ian
less ly
norm als
ĠCom ment
ĠPan el
R ole
ens itive
oy a
nd ez
Ġaffili ate
Ġpre t
OD U
sp ot
ĠT ennis
ĠP rec
* ,
abet es
band s
oc olate
ĠInst agram
ĠViet namese
Ġp ending
Ð ³
ĠCar r
, ~\
ist ration
}{ @{}
ĠFrank furt
whe el
ĠSpe aker
= &\
er ial
Ġcollabor ative
ĠK ind
sh al
ĠRe ich
18 6
Ch ris
ĠBir th
ogen ous
Ä Ľ
Chang ed
h ra
ĠE u
ĠCom plete
col m
Ġbox ing
Ġsculpt or
ĠWe ather
as an
vect ive
maxim um
G overn
Ġ )^
ee a
ash ire
G ar
W atch
Ġcon gest
opt ical
class ification
ĠNob el
Ġequ ity
enz ie
ĠVi ol
ĠM iles
Ġbul let
3 10
Ġimprison ed
ong o
ĠCom pared
is ible
Ġdecl aration
ĠT ir
ĠR ush
ĠLou ise
ĠBe a
Ġf ung
j l
w avelength
) ||
Ch ief
ĠLet ter
= >
et ter
Ġint elligent
Ġw ound
Ġspeak s
Dom ain
ĠSanti ago
c ats
s an
Ġbehav es
k ok
Ġmut ation
ĠCon struct
ĠM TV
Ġfil ament
Ġcre ator
inv est
ĠN H
Assum ing
F a
t in
ĠG Ã¶
Ġcross ings
oper ators
ugg ed
Ġtouchdown s
Ġr he
Ġtor ped
An aly
ĠHal f
ĠHe ath
path s
+ }$
Ġvict ories
re call
Ġs id
SF R
Ġlist ener
ĠW ave
Ġrecept or
ĠF T
Ġsuccess ion
ĠAct ive
pt s
Ġline up
ĠH od
ef ault
B rien
v x
! ,
C AL
b right
ĠSu ccess
ĠBG COLOR
Ġen act
z ens
Ġsub system
ĠCom parison
ĠWy oming
ĠGene va
Ġin consistent
Ġim ped
Ġre bounds
rotate box
ĠW ald
Ġad min
h over
ĠDist ribution
Ġunder went
ĠS equ
ring e
Ġer upt
ĠCa uc
r ub
Ġf ru
ĠC i
g ang
ĠFl ash
/ (\
ST AT
ĠGram my
ĠH il
Ġmes ons
Ġro d
Ġsyn tax
ir ling
Ġf ocal
in ters
N orthern
\ (
ĠOr lando
A H
2 13
all i
sim ulation
Ġconstit utes
ĠLeaders hip
ĠSt yle
az on
Ġcycl ing
Ġpr uning
Ġenorm ous
Ġqu ote
Ġpack ing
ord ering
ĠC atalog
ros se
Athlet es
accur ate
om it
ire cted
Ġinv ented
}^* \
ĠWhe ther
ĠC apt
Ġreg ards
Ġsculpt ures
ch ap
Ġcon duction
L anguage
abl o
b rown
Ġter rain
Ġencourag ing
Ġan swered
} ')
ĠIm pro
ĠJacob i
be a
od ium
ĠSer ver
ĠÃ ĸ
ĠIo T
byter ian
ĠR ut
ĠTr uth
)} -\
A ff
od o
ĠL ed
is im
amb a
Ġdisc overs
ond s
Ġlegend ary
h on
-- >
2 11
K it
h urst
Ġshe ets
Pol itics
assert Equal
18 9
Ġrel atives
C ov
30 4
ĠCl imate
Un til
v ae
ic ates
Ġup stream
ifferen ti
ĠInsur ance
Ġem it
28 8
o que
ĠPop ular
Ġcomed ian
ĠSch midt
Ġk ings
p unct
ĠK L
ĠMal ta
Ġst yl
bas eline
Ġup graded
tt i
Ġrecurs ion
run ner
ival ent
ĠHe in
ential ly
vent ional
Ġf ran
ĠR onald
Ġprim ordial
Ġpe ers
ĠInt eger
amp ire
R ate
text superscript
ĠAl bums
/ $
Start ing
pe x
ĠArm enia
ĠN othing
oca ust
Ġmon omial
Ġcod imension
. <
inos ity
ĠTr in
um ble
Ġsurve illance
ĠL t
Ġab olished
ym ph
Ġexclud ing
[ [
Ġsub mission
Ġcondition ed
ĠBoe ing
Ġdeleg ate
Ġpric ing
amm ad
18 3
T urn
ĠCart esian
per cent
ĠLu cy
Ġprotect ing
ay ette
Trans form
ĠT F
Ġrank ings
utt le
ĠParal ymp
ĠU tt
Ġgeodes ics
S ide
ĠF ifth
ĠInd ividual
Ġdiv ides
ĠFl ag
ĠC rist
B inary
am oto
Ġparametriz ed
Ġodd s
' )$.
Ġdep ths
ĠB j
ĠAud io
23 1
cl one
Ġph y
AC S
ĠAd rian
Ġfragment ation
mult iple
Ġflo oding
ĠB il
Ġvir ial
Ġre pository
ĠDou g
ĠH ack
ch in
ĠGu ards
Ġremov es
ĠÂ ·
Ġtyp ename
ĠT arget
ĠB in
In terest
ang les
Ġaccept ing
ĠAdvis ory
Ġra infall
ĠÐ ¸
ta ine
enn ium
Ġconjug ation
CH ECK
ĠEngine er
Ġh i
Ġrecip ients
Ï ģ
h ler
ĠO m
p ion
ĠP ain
oding er
Ġjud icial
ĠCap itol
ĠPerson al
vary ing
& $\
Ep isode
Ġsurprising ly
ĠJ i
Ġtheat rical
22 7
Ġra pe
Ġnephe w
ĠSub sequently
Ġre jection
Ġded uced
agn ostic
UT C
W ord
pd ated
qu ist
ĠDev il
a very
Ġre he
Ġnom inee
Ġtack les
G od
ĠM ob
ĠCour se
N eg
ited efault
mc itedefault
ĠGib son
Ġholog raphic
ac ute
ort ium
ĠV ers
Ġspec imens
Ġbl ur
Ġm aid
W at
Ġg a
Reg ister
[ ->]
Ġs ulf
Ġ um
ic ism
ĠP am
on de
P ad
ĠPublic ations
an z
Ġre lying
c ir
ĠM ell
ĠSl av
Bel g
g iving
ĠD oc
abs or
H ub
h istory
Ġra bb
Ġmur ders
). \]
26 4
A Y
Ġre min
k im
ĠC yr
}) \,
en ko
Ġj s
Ġcolon ies
ĠK aw
Ġprison er
3 80
O UT
Ġwrap ped
ant o
Named Cell
Pl ugin
d ar
Ġwhe els
Ġimp ressed
Ã§ Ã£o
Ġtarget ing
ĠAcadem ic
Ġr ifle
s chool
iv ering
match ing
Ġdisband ed
Ġcon vection
Ġap pl
ĠCard inal
M ike
Ġro ok
c ategories
Ġstre ak
ĠHur ricane
Ġnob le
ĠE ight
17 9
se g
ĠJup iter
fl ags
ur an
Ġcons piracy
Base ball
v D
Ġb ills
ĠZ amb
ĠCl aud
)=\ {
appro ach
Eq n
E instein
Ġelect roweak
Ġn ond
Ġconstruct or
ĠYan kees
Y P
Ġt ips
Ġshe aves
d ated
Ġl oyal
Ġske leton
rad iation
-- (
. ''
Ġis ometry
Ġwar fare
ĠCont est
print s
ĠNe ural
ĠI v
log y
ĠN urs
IT ION
Ġdig its
ten ess
Ġin ches
Con tact
con verted
ne um
ĠMc Donald
ĠC riminal
ĠT X
ar re
Ġ\! \
ĠF ol
] ^-
ĠR NA
ĠStr ategy
Ġconvers ations
ĠF raser
Ġnon empty
Ġempir ically
por ate
ĠMar in
Ġobser vers
Ġsur f
Ġiniti atives
id an
29 0
ĠTam pa
Ġcap ita
Ex periments
Ġreal m
Ġconsult ant
ĠCh ad
ĠHaus dorff
ĠS ons
ĠK ab
arg ument
Â »
Ġgrand son
Ġ\ {(
ug a
}) ^\
ĠBi ography
Ġadvis or
ĠP erm
\\ %
det ection
station ary
18 34
Ġorb ifold
ropol is
ĠCorn wall
deriv ative
Ġsil icon
ĠI MF
Ġhyperp arameters
Ġmet eor
observ ations
Ġs iblings
ĠM otion
}, -\
esc u
Ã¨ s
N AS
ĠH ousing
ĠR iv
ĠU AV
Ġweak ness
E th
g ae
ĠN om
Ġoccas ional
ĠGu itar
ĠConc ert
ĠGeorg ian
6 25
Ġc uisine
Ġfar ms
Ġredund ant
Ġsmooth ly
ĠFern ando
V ictor
AN G
es y
)= {\
Pack age
K D
Ġexpress ing
ĠG othic
ou rable
Ġ( _
ta ur
Ġlif estyle
Ġm oll
Ġlocomot ive
m and
ĠW D
ĠCont ent
Ġcab in
ĠS EC
general ized
math ord
Ġnation wide
M ix
ĠLet ters
F ailed
S ect
g age
ĠGra duate
Ġlux ury
rac ies
larg er
yl an
f ried
ĠP iano
Ed it
Ġrevolution ary
le arn
ap shot
F ramework
Ġanom alies
^{ '
ĠW end
at tack
Ġterm ed
30 1
ĠWor cester
determ in
ĠBarn es
Ġb acter
e lem
Ġpsy chiat
ĠBou levard
! [
ĠA way
Ġtechn ological
Pop ulation
Ġshe ep
edd y
Ġren t
Ġmain land
Ġcr ashed
ĠE D
Ġw are
ab is
Filter Database
ĠK yle
ĠV irtual
normals ize
ĠC rystal
p ent
empor al
Ġrein forcement
ĠL C
be en
EX P
Ġvort ices
ĠE R
Ġpurs uit
Ġlack ing
Ġpoly gon
ĠRe lease
Republic an
Ġunder taken
ĠInterest ingly
l if
ĠNik ol
ä º
Dire ctor
Ġpresum ably
Ġb ats
Ġthe or
Ġlov es
Ġup set
Ġfeas ibility
Ġselect s
× ķ
im i
ĠNot re
Mean while
B all
n Ã©e
Ġl ady
ĠTechn ologies
a ft
ĠExped ition
r ud
ash tra
t ick
Ġcre am
ĠComput ing
y z
Ġun seen
ĠN acional
Ġhe ir
es pecially
}{! }{\
Ġfurn iture
I mages
Ġsuper gravity
g overnment
ric ia
Ġmic rowave
ou lli
drop down
Ġfre estyle
vi Äĩ
ĠU L
ĠAg ent
Ġstay ing
ĠTri ple
Ġcon es
g ences
Ġl oses
ĠJ ob
Ġ- (
isp here
Ġframework s
r ina
Ġm ood
Ġtribut ary
Ġex clusion
Ġjust ify
\ })
mon ot
Ġmulti plier
ĠC ord
Ġarg uing
ĠGer ald
ĠEmer gency
A O
Ġint ensities
22 9
P ress
Ġgroup ed
prov ide
Ġis omorphisms
Ġun biased
ĠT ales
Ġst ones
Ġtail s
ĠR overs
ĠAlban ia
he nd
ĠC avalry
ta iled
Ġtem ples
Ġnil potent
annot ation
din and
L ibrary
g f
)} ;
Music ians
Ġen roll
met adata
d iver
Ġf Ã¼r
ĠPal omar
ĠCur tis
od ia
ĠSh annon
ĠAp ost
Ġanaly se
23 8
ĠJ ake
ĠPro perties
ĠLegisl ature
P Y
f ake
Ġcondition ing
eder ated
', '
ĠIR S
Ġfre ight
ĠEmm y
ĠBurn s
ĠAntar ctic
Ġt ong
Ġoptim izing
O k
ĠCon v
ĠField s
\/ }
C zech
ce ased
ĠNe uro
ĠTre asure
at aka
ĠB un
ĠB ene
Ġpost er
Ġreplic a
polynom ial
0 50
ik ov
ĠColl abor
Ġsuggest ion
{ "
ĠGl oucester
ĠGl obe
Ġflu ores
ĠH ull
ce iver
Ġsm oke
Ġwav egu
ĠParalymp ics
Point s
in fl
ad os
ĠInst rum
- .
L ip
Ġra id
' /
ĠH AL
Ġhe ights
fin ity
hor izontal
L oss
ĠS B
ta k
Ġdiscipl ine
Ġadv ised
Bel ow
f box
ĠH ers
Ġsl ices
Ġobst acles
ĠManit oba
Ġt rem
ĠR B
ĠCar roll
å Ń
Ġv ig
ĠMay be
| >
ĠRe in
Ġco ached
Label s
? ,
Ġd ancer
Ġprest igious
ol an
ess ages
oul os
Ġon wards
... ]
ĠH off
ĠG yr
prov ided
effect s
ographer s
t el
Ġdes erv
iel sen
ĠC ool
ĠW AR
Ġrap per
A X
ĠP E
eler ation
L os
N B
and ez
Ã© m
AS P
ĠCor p
ĠBur ton
ograph ies
Ġd b
ad al
38 4
ĠW ake
ĠK ang
Ġhum or
anu el
LO G
ĠLy on
CO M
Ġint ensive
Direct ory
ĠCoal ition
; <
proto buf
Ġanalys ed
{\ ,
Ġspec ifies
Ġdiplom at
ill i
Ġpick ing
Ġch rome
'' '
ch y
B an
\!\! \
Ġreven ge
ĠWrit ers
ĠL M
sp atial
ĠHess ian
ĠDe b
tr unc
L V
ĠE k
Ġtra ff
Ġrep ly
am on
Ġinvest ments
Ġsupern ova
Ġcom plications
C ulture
] &
abel ian
ĠL ines
Ġ ul
Ġwork shops
Ġsolit on
le f
un ition
Ġflo ors
ĠS cal
Ġop posing
Q R
u o
Ġdeb ris
^* )$
Ġnation ally
i ably
Ġ )}
ĠGu atem
ĠC ategory
ĠÂ ©
mod ern
ĠR he
23 2
osp in
Ġsmooth ness
rab ility
ĠIn spector
ans en
Ġquadr ature
al an
Ġback up
ĠKing ston
ĠIn g
Ġsix teen
ĠP ars
ĠInd igenous
Ġpress ures
P ier
Ġsurn ames
Qu antum
n ob
ced es
Ġbroad ly
Ġd ans
Iter ator
e conom
\ }}\
Ġemphas ized
pl ays
Ġnecess ity
] }(
oper ative
min o
ĠCons idering
Ġpool ing
ĠF ramework
Con stant
ĠOut put
ak o
col lapse
Ġaccept s
ĠEug ene
ĠT itle
ĠH ern
S cal
ĠA FC
acc uracy
ĠEv angel
Eval uation
h adoop
22 6
Ġprompt ed
2 14
4 95
Ġwitness es
_{ _
ĠH ank
P W
}, $$
ĠH ir
ĠGu ang
_+ ^
P B
V O
as se
3 45
theore tic
ĠF IG
ĠD NN
G erm
il ion
Ġqu iver
cur ities
ĠK um
ev ol
F it
Ġl oud
Ġeng aging
Ġtorn ado
' _\
ĠChe ss
Ġhist ories
Ġthir teen
- (\
g ical
pro jection
Ġm appings
Ġsuff ers
} ',
add plot
()) );
ĠI EEE
18 15
Ġextra ordinary
Ġwarn ed
se gment
Ġazimuth al
et able
Ġinsert ion
in ia
Ġc tx
Ġcust ody
* [
Ġsail ing
th r
ĠH yp
99 99
Ġbur den
Cal ifornia
Ġin homogeneous
Ġp ent
Ġmark ers
)= (\
Ġfis cal
ĠK ot
pl ugins
h b
st ochastic
de creasing
Ġhon ored
us ually
Ġr ivals
im ming
ĠF ashion
Ġpropag ate
ĠO st
18 1
s ight
ĠAltern atively
Ġdiscontin ued
ĠSte fan
s low
ho o
ys ics
Ġtimes cales
Ġevery day
Ġexam ining
ĠLanc ashire
v iv
ĠPear son
Ġp el
Ġorient ations
Ġannih il
Ġprop ri
Ġabund ant
small er
ĠContin ental
t k
ĠJam ie
z ier
Ġproblem atic
AD D
op us
Ġout liers
ĠRoll ing
Ex pr
ĠN otes
Ġcl ay
Ġhold er
Ġeigen vector
eqn o
M i
ra f
ĠK oh
other mal
ĠEthiop ia
G h
Ġab ortion
v id
ĠV III
Ġpro tagonist
Ġport al
ĠM emphis
ust ering
Ġperm its
Ġfold ed
ĠFight ing
l k
R D
ort ions
Ġfore ver
Ġf reed
am ous
acc ording
interpre t
u ke
à¥ į
pass word
m aterial
}& =\
ĠNS W
ĠC av
ew ard
ope z
I con
Ġenerget ic
Ġ$ *
ev o
Ġhon ours
mat rices
ĠOther s
D ar
Ġcot ton
K en
Ġg i
Pro ps
18 33
Art icles
ĠG em
Ġcommun ist
ĠAlban ian
Ġsubdiv ision
M as
du ality
Ġalle vi
ĠAh mad
th ose
Ġhe ated
Ġfar mer
Ġconver se
ĠSlov enia
f ri
con cept
Never theless
Ġd ock
29 5
ĠFilip ino
en ic
Ġpre y
ĠCommer cial
ĠBel grade
% %
) }_\
Ch icago
sens itive
Ġhelic opter
C ath
ĉĉ ĠĠĠ
ric a
Ġdomin ance
ipl inary
D uration
f uture
Ġfl ares
ay e
ie re
ĠL odge
ĠBor is
Ġstrugg led
ne ider
Ġen zyme
Ġim plication
ĠMor rison
ĠNE AT
ĠB order
Ġap olog
align at
Ġch orus
^- (
ist o
ĠG ur
( @
O rd
Ġs le
ĠLag range
}{ }{
Ġimm une
ĠPriv acy
sh ows
ĠRe y
Sc roll
ĠOs lo
communic ations
: {\
Ġret iring
ĠCarol ine
I sl
Ġ} }\
h dots
re ason
)) );
Ġre q
Ġaut obi
ĠLud wig
ane y
Ġhero es
C apt
ĠN SF
A rr
f ail
i ph
ĠN ATO
ant is
ĠPresident ial
Ġgirl friend
ĠE N
Eu Script
constra ints
R os
Ġtransc ription
rypt ed
Ġdiffe omorphism
K T
Ġstat s
Ġsaxoph one
e ah
M unic
[ ][
00 9
ĠN atal
ĠNew port
Ġsal ary
ĠLes lie
it Ã©
{ },
UT F
22 8
ĠGal ois
Ġreb els
dis pers
Ġim pl
Ġterm inated
ear ly
'' \
AN N
z b
He aders
W ave
ur ally
Fe atures
Ġlect ures
asc ar
cccc c
Ġrepl ied
}\, {\
g ary
Ġfer til
ĠH ip
Ġch ord
att ing
Ġvoc abulary
v ark
å ı
Pref ix
Ġterm ination
And rew
R end
Ġsav ings
t ran
we i
ĠElli ott
| .
ĠI stanbul
M arc
im ates
Ġsl ide
Ġhousehold er
Ġcompl aints
ra ising
ĠD D
fra id
ut i
X ml
23 7
SE C
40 4
ĠIss ue
ĠG rim
Ġf ading
Cent er
Ġ umb
ĠL az
ĠSh ore
}) )\
Ġmaxim izing
Ġoccup y
ul o
Ġse ized
Ġscre ens
Ġmultip lying
ĠP aint
Ġph ones
text subscript
R u
ne apolis
Ġconstitu ent
q i
Ġmand atory
ĠBlo ch
}. \]
ĠMont eneg
ip ur
ric hed
oy alty
^- _
Nov els
ve rest
Jo in
ĠLyn n
ĠCan terbury
coupl ed
ĠL il
ex periment
ocy cle
Ġt ap
Ġch ances
ĠAn imal
S on
l f
rag g
Ġpred icate
ogen esis
Ġwind ing
rament o
Ġiter atively
Ġthrow ing
design ated
id ays
ĠSh ir
CO MP
ĠX ML
Ġvis ually
EL D
all ax
ĠA ri
ex isting
ĠInter ior
Ġhyper plane
Ġstack ed
U ST
Ġtri ples
Ġinterpret ations
ĠM M
oc or
ple ted
Ġmach inery
equival ence
v d
ĠD I
Ġint ens
Pro xy
ĠM atrix
ĠSum mit
ĠEston ia
out ube
Ġadm ission
Ġbur ial
Ġoverwhel ming
Ġdis charge
Ind epend
ĠDr ug
ĠChem ical
it ively
18 31
ON G
ĠCzech oslov
ĠL ah
rac ed
ĠS ed
~ ,
}' (
Ġlept ons
ĠH ST
ĠD oppler
P rem
anc a
Ġserv ant
su fficient
l ich
ĠT roy
ĠB T
Ġlad der
Lear ning
er als
Ġatta ch
Ġst y
follow s
c ology
ĠG E
ĠV AL
mer cial
Ġmyth ology
Ġdec iding
M g
ĠW ant
ĠAt tack
ĠT rad
enc il
Nor wegian
D rop
ĠMin i
Ġhot els
Ġw age
19 1
sh ock
Ġident ifier
Ġflow ing
ĠF o
b age
cell s
ĠI X
if a
Ï Ĥ
ĠM aking
ĠB ever
Ġch lor
x it
pre vious
Ġen rich
med ium
ĠPl aza
Ġ! !
J D
Ġin cur
23 3
ĠLine ar
ĠBaron et
c ould
s us
ĠBra h
Ġellipt ical
0 13
che ss
Ġemer ges
H B
ĠK ad
Ġwitness ed
Ġ$ {{\
ĠGl enn
ĠE g
Ġgen res
Set ting
un al
ĠE RA
Ġbeet le
Ġsimple x
T x
Ġre bellion
Ġch unk
ĠImage Net
and e
Ġbatter ies
& -\
ov i
Ġmonoton ically
com par
an mar
be cca
ly mouth
Ġra ises
Ġfour teen
) ",
t ight
um m
22 3
s uggest
D id
measure d
ĠH ood
ĠTest ament
Ġconfigure d
Ġcr ust
ĠD awn
os ion
Ġag enda
! }\
ĠL abel
sc ience
cf c
certaint y
Ġperform er
I o
k le
Ġprob able
sol utions
ĠIniti ative
Ġs ack
Ð¾Ð »
T X
ĠP sy
ĠB ottom
ĠNad u
v ich
Ġsubject ed
g old
ĠCon jecture
Lo ader
Ġneighb ours
Ġo c
ĠP on
AR D
Ġcompact ness
ĠR A
Ġinst abilities
adapt ive
ĠM SE
ĠV eh
ph il
i ary
ĠT ables
Ġcomp romise
Ġfinal e
ĠElect ronic
Ġ( ``
appro p
Ġpath way
ĠÐ ½
Ġj er
Ġeigen functions
( __
ĠS G
qu oted
ĠP ine
Ġ }^{\
ĠCal cul
trans l
ĠFer gus
J ava
er cis
Ġle ase
mod ified
ex perimental
B asketball
Ġb ore
ĠT ot
ru ce
Ġeduc ator
Ġsw ap
Ġmo ist
E r
vers arial
3 12
ĠA V
ch urch
ĠAnd rea
Ġfix es
ad ors
ist inguish
}} }(\
ast ro
ĠBas in
fact ory
Ġwave function
Ġadj acency
Ġprom ises
arp oon
approp riate
he y
Ġ\ }$,
Ġg amb
Ġbr ighter
ĠLiter ary
ĠF E
Ġmort ality
18 25
w ear
ĠJo el
b z
Ġconsum ed
s ocial
os ely
Ġfound ations
ur ate
2 17
ĠTh r
ĠCh in
ne z
Â ®
ĠAp plied
ĠJ et
Ġdepict ing
rape ut
ams ung
m v
Ð¾ ÑĢ
S ync
m kern
s ources
Ġlum inous
ĠMarsh al
ĠAssoci ate
de velopment
Ġ/ \
Ġder ives
reg ions
Ġliter acy
ĠW and
orth y
ĠSw itch
Ġgovern ance
ĠL omb
R AN
Qu ant
ĠQ uality
observ ation
6 40
ĠAss ociated
ĠRem ix
ĠTre asury
it as
30 3
Ġfor um
Ġcompan ions
Ġhas n
ĠLiber ation
Rem ove
ĠSur rey
b uck
Ġinert ial
ĠO K
Ġt weets
ĠL F
ĠMerc ury
ip zig
Ġce iling
J oe
w r
ĠD ong
ĠSe pt
Ġinter im
ĠH iro
. *
ĠP irates
S pring
ĠR ag
Ġloc ate
Ġco oking
Ġdiscrimin ator
pre ced
o ct
ict ions
}. \\
Ġinitial ize
18 28
Ġdream s
Ġpol ym
ĠP arameters
ĠAr ctic
Ġrece ivers
ĠWhit ney
Hung arian
integ ration
ĠVari ous
ĠS ag
c rop
}} &
n f
ov sk
}}$ )
}] $.
ĠHigh land
Ġcrit ically
Ġpay load
ĠML B
H all
ĠB ian
os o
ia e
col our
En um
Ġal arm
A sh
ta ker
Ġlingu istic
Ġimm un
rot ation
I ce
Ġw reck
ym ology
Ġdiagn osed
sm outh
Ġi Phone
Ġep it
ĠGi ovanni
t ang
ĠSp ot
om ials
Ġdisc ount
ick y
Vari able
ĠP ep
ĠS ize
ĠB ot
ĠY emen
Ġaccum ulation
Ġp arser
j ack
Ġpregn ancy
T B
ĠM ales
Ġextract ing
Ġess ence
stad t
Ġremin is
n ar
}\ }$,
un ate
Ġpro tot
ĠCom ments
MA SS
Ġh ung
build er
c oc
Un ion
ĠAlexand ria
23 9
Ġcongress ional
I r
Ġder iving
Ġhead quar
Ġdecl are
Ġl anes
å ¤
Ġexpl ores
\% }
ĠCr us
ĠBet ter
align ment
Ġp orn
IN S
ĠLuther an
Ġre ass
Ġprog ression
Ġl unch
30 5
() ).
or ters
an ol
Ġpriv ately
}} }_{
ix el
Ġingred ient
Ġscr atch
Ġion ized
rop ies
W ild
c P
ta gs
pro port
Ġtra ils
Ġrecur rence
Ġenc odes
Ġpost pon
ĠNew man
A k
ĠĠĠĠĠĠĠĠĠĠĠĠĠĠĠĠĠĠĠĠĠĠĠĠĠĠĠĠĠĠĠĠĠĠĠĠĠĠĠĠĠĠĠĠĠĠĠĠĠĠĠĠĠĠĠĠĠĠĠĠĠĠĠĠ ĠĠĠĠĠĠĠĠĠĠĠĠĠĠĠĠĠĠĠĠĠĠĠĠĠĠĠĠĠĠĠĠĠĠĠĠĠĠĠĠĠĠĠĠĠĠĠĠĠĠĠĠĠĠĠĠĠĠĠĠĠĠĠĠ
ĠE S
Ġrev ision
Ġex ile
ĠB end
J eff
ĠReg ular
ĠM aid
year s
Ġstrugg ling
Ġmet er
Ġaut umn
ĠI E
Ġqu ench
Ġveget ation
dist ributed
ĠAnn ie
onic a
e rent
reng th
ex change
d R
Ġ iv
nd ef
du st
ĠI ter
}\ {\
ĠMe yer
comple t
ĠSchwarz schild
ent ation
Ġh iding
comm ission
ĠEd monton
ĠTrans former
Ġru ins
Ġremn ants
Ġf ut
ĠB B
ĠLe op
ĠC ry
ĠM HD
ĠCh uck
Ġbl ast
Ġf ibration
Ġhom etown
ĠSlov akia
ĠF F
Ġdon or
Ġsk ull
zz o
Ġsear ched
Ġu i
Ġrandom ness
Ġhead ers
ar in
index Of
tes ters
Ġresemb le
\!\! \!
ĠSub section
Ġfa una
ta ch
ĠL av
ura i
Ġpup ils
Ġin tact
vi k
ad h
ĠManu fact
Ġopt ics
Ġhand les
th ouse
ĠE OS
he avy
map ping
Â ©
and i
und ers
18 14
Ġgoal keeper
ĠMy anmar
per fect
Ġret ro
ĠSo ph
ĠK iss
ĠCal gary
Bur ials
ĠT oo
por ter
G ordon
is le
ĠLux embourg
Ident ifier
ercis es
ax ter
ĠEx perimental
Ġfemin ist
I ran
con formal
50 1
ik er
ĠSh im
les h
ĠBelf ast
Ġchar m
Ġfav ored
Ġorigin ates
Ġb ones
Ġimport ed
Ġca ution
Ġcompl aint
bul k
histor ic
log en
Ġexcess ive
- {
ĠAmeric as
Ġquestion ed
Ġprob es
arc s
ĠT at
widet ext
ĠGa elic
Ã± o
product ive
ĠTe h
}+ {\
Ġillust rations
mb le
Ad am
keep ing
uc le
st rip
ĠPro gress
pop ulation
I gn
ĠStaff ord
ra ges
ĠH els
text sl
ĠW IT
Ġmon ster
spec ified
l ip
23 6
F r
conj ug
Ġaxi oms
r ather
Ġst aged
ched uled
ane ously
ĠCath olics
Ġoutper form
ĠGr iffith
end e
res ources
{ ``
Ġcor poration
N umer
g rowth
Ġbankrupt cy
ĠR ica
Ġinvest ed
Per iod
s ent
æ ľ
ie ck
ĠX I
Ġrel uct
ĠB rain
To String
ĠR egin
ĠSil va
ess es
Ġlo ans
ĠR ac
magn itude
ĠJ ets
m ile
Ġ rip
ĠR ash
Ġge ographical
ĠAtl as
Ġsupplement ary
Ġwrest ler
J ournal
d ia
u w
Ġliter al
ot ics
Ġde x
cross ing
b w
th anks
othes is
w itz
ampl ed
ĠR AM
con tr
}. )
Ġpresent er
Ġsignal ing
Ġenc ryption
Ġconc ave
ĠWag ner
ĠW ire
Ġposition ed
B ER
Ã¡ r
ĠChem istry
run time
Ġdoub led
check ed
L ib
ĠHy dro
eg ie
if les
LO CK
Ġpractition ers
ract ical
ĠKn ox
Ġend ings
ĠSp in
Ġc ens
ĠBal let
Ġprem ises
Ġjav ax
em i
head ed
Ġcl one
in ar
foot er
Ġg ods
Ġacc idents
Ġpuls ars
Ġharmon ics
ed e
ĠD w
av oid
Ġtour ists
ĠHT TP
Ġtelesc opes
v phantom
ow ers
cer to
C os
curs ion
}[ {\
})$ -
cl s
id ian
Ġcorrect ness
M apping
il ogy
ip eg
ĠN W
O U
Ġblock chain
ĠAgric ultural
Ġsnap shot
Ġtru cks
ĠLog an
ceut ical
Ä ħ
Ġtop ped
le en
ok i
he x
Ġd w
ĠR ole
S us
g ins
{\ '
ĠM F
uk h
Ġang ry
Ġimm ers
m oving
Ġtra dem
th ood
Ġenlarg ed
c ue
The ore
Ġexpect s
ĠG ov
Ġimprison ment
Ġre combination
leg end
Ġb il
Ġcast ing
ĠComput e
ĠComb at
ĠBened ict
h it
Ġwor ry
ĠMe eting
M iddle
ĠTrans form
Ġst air
ĠW WE
Ġen um
Ġplant ed
LE D
Ġgener als
Ġpres idency
Ġstation ed
ĠRoche ster
24 6
Ġpos ed
ĠP ale
Ġste ering
I AL
p relim
Ġt il
it ches
Ġtem p
ĠChar acter
a uc
Ġ ĉĉ
Ġcolor ing
Ġminim izes
ĠBur ke
Ġrescal ed
ě $
Ġsur render
Lo op
ĠReview s
Ġafter math
d j
Ġn itrogen
ĠBl air
habilit ation
fin itely
bro ken
Ġscript s
ě (
Ġ\ |^
ato es
ĠNon etheless
ĠBel le
our ced
mer ge
Ġcomm od
Ġund ers
K o
ĠSe y
le an
26 9
< -
Ġcon qu
Ġsub scription
, {
Ġlog ging
, +\
Ġdon ations
Fellow s
ĠR oot
Ġlast ing
Ġgame play
ĠRel igion
Ġunve iled
Ġpl ug
odrom y
Ġpl a
Ġsatisf action
Ġload s
st ab
ĠAchie vement
ĠH appy
en ary
Ġquar ters
Ġqu atern
Sim ulation
ĠA verage
em bed
ĠA ircraft
ĠThom son
Ġjud g
Que en
et z
}) |
ĠG mina
Ġworld s
sur vey
0 14
ĠS ent
Ġinterview ed
Ġdepos ited
v r
ĠN J
ĠPro gressive
en za
Ġscre ened
p pe
Ġw is
c amp
Ġm irr
ĠJes se
Ø§ Ø
Ġextrapol ation
Ġpro c
ĠAp ollo
ĠPres byterian
multip ut
ĠS isters
Ġvin yl
ĠP u
Ġne b
ary a
Ġleg ally
arab ic
Pro gress
ym pic
18 26
Ġprof its
X ML
ĠH oll
Ã§ a
b rowser
ed ar
othe rapy
18 10
Ġse ver
Ġhand ful
Ġdomin ating
ĠQuest ion
ĠR az
Log ger
ĠF on
Ġaband on
ĠN ames
Ġsp ike
ĠMc N
Ġtriang ulation
ĠBed ford
Sto kes
Ġs igma
ĠM ilton
Ġy esterday
ser ial
Ġaxi om
ĠCh al
ĠHead quarters
Ġd ys
ĠT ru
Ġac ute
Ġo verest
ĠW ong
Ġfin anc
bre ve
ç ļ
ĠPot ter
M useum
aps es
ĠS ter
RE S
am inated
Ġlat itude
Ġswim mers
Ġbow l
M ask
ĠD ud
assum ing
Port ug
Gener ator
Ġreal izes
L im
p id
ĠMC MC
Q Q
ĠHug o
pl oma
Ġmult is
}/ {\
Ġdisc arded
AL SE
Ġf ier
Ġwrest lers
ob ic
sh an
m og
Ġview point
24 7
ren s
24 8
Ġred ist
C ultural
it ated
ĠP U
Ġover flow
Ġdispl aced
if ax
ĠChe ng
P ark
_ -$
erm ann
Ġorgan ize
ĠKazakh stan
F ive
Ġab rupt
for cing
Trans action
ĠĠĠĠĠĠĠĠĠĠĠĠĠĠĠĠĠĠĠĠĠĠĠĠĠĠĠĠĠĠĠĠ ĠĠĠĠĠĠĠĠĠĠĠ
Ġant ifer
Ġ ĉĊ
ĠD und
Ġfood s
Sim on
ĠS itter
Ġfurther more
ĠChile an
s uc
Ġsl avery
Ġtransform er
ĠIndust ries
ma ck
Ġpropag anda
ibr ations
P ublished
Ġch ir
ĠEll en
ĠSant os
ac iÃ³n
equ ality
pro c
K N
Ġf ights
da ugh
ĠAccording ly
ĠCard iff
ograph s
Ġmanuscript s
ĠLithuan ian
Qu est
it eness
ĠT ropical
Ġj am
Ġun necessary
Com plex
RE E
LE CT
' }(\
Ġd os
ge ons
UR I
trans port
F n
ĠMichel le
ĠFer dinand
ĠM ask
}$ (
ĠMe h
ĠEval uation
ĠM ing
Ġas ync
ĠTan z
ĠC MS
ynchron ous
Ġinv olution
Ġsl it
Ġproceed ed
Ġtox ic
Alex ander
ĠIO Exception
Ġdoll ar
Ġin sects
Dat aset
18 29
ely n
Ġcontext ual
âĢ ²
Col on
print ed
Ġtalk ed
ĠPoint s
r x
ĠW aters
Ġacc us
ĠU TC
ly de
ĠMar ion
18 24
Ġwar rant
ĠWind sor
Hig gs
ĠZ ion
Ġprohib ited
L am
ĠC oun
em ann
Ġbroad ening
fil ename
ĠColon ial
Ġram p
ĠWes ley
å ®
ĠP CA
ĠP DE
ĠF ur
ft en
ĠGa ia
Ġclean ing
Ġex changes
Sc ient
ĠBay es
non linear
Ã ®
Ġinform ative
inter cal
ĠHay es
R od
ĠCh ancellor
ĠUtt ar
att en
Ġdel ivering
Ġsuppor ter
complex ity
ĠK urt
ĠU FC
Ġrest art
4 40
Ġgo ogle
c ourt
ex cit
AT ED
ĠPubl ished
ĠSom etimes
Ġem ig
Res ources
ĠTour ism
r ally
Ġmit igate
Ġgrand mother
Ġquas ipart
ĠRock y
ĠConstant in
Ġsc anning
ac ies
ĠPer haps
Ġin scription
ĠK S
ĠX box
ĠAn at
Ġmotor cycle
Ġwithdraw al
Ġsp o
mem bers
em ption
Ġam ple
VER SION
Pac ific
ĠCl ose
con clusions
RE Q
ym es
ĠMes a
ĠC IA
ĠM AC
ĠD T
ĠRaid ers
ĠB rent
ast ings
Ġrespons ibilities
Ġsimpl ifies
Munic ipal
S el
g ives
ĠF olk
}^{ +\
Ġeject a
od i
Clim ate
30 7
Econom y
3 15
ĠT itan
ass is
Ġend ors
G ro
in valid
_{ [\
Ġle ather
Ġtra its
ĠSand ers
}, ~\
den oted
Ġassign s
id is
ĠT error
ĠSer ie
ĠLanc aster
Ġauthentic ation
K al
Ġlif ts
C orn
ĠM atter
Ġopt s
Sw iss
Ġapprec iate
Ġcompr ise
j ob
De legate
up id
]{ $\
ie ved
Ġhar sh
Ġfer romagnetic
Ġpro ps
ĠJane iro
Ġstr and
24 3
Ġreg ulated
a ine
ĠCas imir
H art
J ECT
ĠMax im
ĠStrateg ic
is co
Ġviol ating
Ġbifurc ation
] }{
bib item
Inter val
polar ized
ĠB CE
$ }{
ĠE isen
ĠEqu ations
ĠBas il
Ã °
am ount
An th
trans parent
ĠP ool
24 4
ĠB ac
18 18
Ġ& \\
Ġpl ugin
ah i
ĠMor se
approxim ate
È Ľ
ir ical
Ġf are
ĠSte phan
ed uc
Ġin verted
ĠBrad ford
ĠT ell
17 75
Ġsl iding
Ġpre vention
ĠO ly
iers hip
Ġremn ant
b eg
tic o
Ġter restrial
Ġveter ans
n amely
Ġtime out
ogram s
ĠSe lection
ĠC CD
28 5
Ġmod al
ĠGr iffin
Ġtrust ed
Ġto b
ĠL ange
ĠO DE
D ark
ch ard
Ġmask ed
A J
H i
ĠV iv
ĠWal sh
Ġstrip ped
ĠBud apest
pseud o
op rano
ĠA FL
Ġv ault
ĠK ane
ter min
Ġmonotonic ity
g reat
ĠR osa
ĠR as
Ġexp enses
Ġlocal ities
Ġmultip ly
ĠS ame
sc ious
Ġpoly g
Ġdiver gent
ou in
Ġ& :=
AS K
j ournal
3 90
4 20
Ġconvex ity
F rag
restrict ed
c ube
sc ribe
Ġsl ots
Ġlens es
ĠP Ã©
label s
F ire
L Y
r ules
l ord
ĠP N
Ġcru ise
Ġcongreg ation
[ (\
ĠT rent
ĠLeg acy
se min
ĠW on
c aus
structure d
} &=&\
ĠL ords
bf series
S hips
ap oration
Ġcancel ed
$ +$
um en
ĠU z
w b
ident ifier
M IN
Ġmon uments
ĠA ve
resp ons
ĠComb ining
Act ivity
ĠM eta
Ġspec ially
Ġd Ã©
if ference
ans on
Ġkick ed
ĠUSS R
ad am
Ġretain ing
Ġdefic it
lene ck
P air
ĠHamilton ians
Ġp ocket
ĠUs ed
ĠDra ke
)) ^{
Ġant iqu
[...]
