{
  "version": "1.0",
  "truncation": null,
  "padding": null,
  "added_tokens": [
    {
      "id": 0,
      "content": "[UNK]",
      "single_word": false,
      "lstrip": false,
      "rstrip": false,
      "normalized": false,
      "special": true
    }
  ],
  "normalizer": null,
  "pre_tokenizer": {
    "type": "Sequence",
    "pretokenizers": [
      {
        "type": "Digits",
        "individual_digits": false
      },
      {
        "type": "ByteLevel",
        "add_prefix_space": false,
        "trim_offsets": true,
        "use_regex": true
      }
    ]
  },
  "post_processor": null,
  "decoder": null,
  "model": {
    "type": "BPE",
    "dropout": null,
    "unk_token": "[UNK]",
    "continuing_subword_prefix": null,
    "end_of_word_suffix": null,
    "fuse_unk": false,
    "byte_fallback": false,
    "vocab": {
      "[UNK]": 0,
      "!": 1,
      "\"": 2,
      "#": 3,
      "$": 4,
      "%": 5,
      "&": 6,
      "'": 7,
      "(": 8,
      ")": 9,
      "*": 10,
      "+": 11,
      ",": 12,
      "-": 13,
      ".": 14,
      "/": 15,
      "0": 16,
      "1": 17,
      "2": 18,
      "3": 19,
      "4": 20,
      "5": 21,
      "6": 22,
      "7": 23,
      "8": 24,
      "9": 25,
      ":": 26,
      ";": 27,
      "<": 28,
      "=": 29,
      ">": 30,
      "?": 31,
      "@": 32,
      "A": 33,
      "B": 34,
      "C": 35,
      "D": 36,
      "E": 37,
      "F": 38,
      "G": 39,
      "H": 40,
      "I": 41,
      "J": 42,
      "K": 43,
      "L": 44,
      "M": 45,
      "N": 46,
      "O": 47,
      "P": 48,
      "Q": 49,
      "R": 50,
      "S": 51,
      "T": 52,
      "U": 53,
      "V": 54,
      "W": 55,
      "X": 56,
      "Y": 57,
      "Z": 58,
      "[": 59,
      "\\": 60,
      "]": 61,
      "^": 62,
      "_": 63,
      "`": 64,
      "a": 65,
      "b": 66,
      "c": 67,
      "d": 68,
      "e": 69,
      "f": 70,
      "g": 71,
      "h": 72,
      "i": 73,
      "j": 74,
      "k": 75,
      "l": 76,
      "m": 77,
      "n": 78,
      "o": 79,
      "p": 80,
      "q": 81,
      "r": 82,
      "s": 83,
      "t": 84,
      "u": 85,
      "v": 86,
      "w": 87,
      "x": 88,
      "y": 89,
      "z": 90,
      "{": 91,
      "|": 92,
      "}": 93,
      "~": 94,
      "¡": 95,
      "¢": 96,
      "£": 97,
      "¤": 98,
      "¥": 99,
      "¦": 100,
      "§": 101,
      "¨": 102,
      "©": 103,
      "ª": 104,
      "«": 105,
      "¬": 106,
      "®": 107,
      "¯": 108,
      "°": 109,
      "±": 110,
      "²": 111,
      "³": 112,
      "´": 113,
      "µ": 114,
      "¶": 115,
      "·": 116,
      "¸": 117,
      "¹": 118,
      "º": 119,
      "»": 120,
      "¼": 121,
      "½": 122,
      "¾": 123,
      "¿": 124,
      "Â": 125,
      "Ã": 126,
      "Ä": 127,
      "Å": 128,
      "Æ": 129,
      "Ç": 130,
      "È": 131,
      "É": 132,
      "Ê": 133,
      "Ë": 134,
      "Ì": 135,
      "Í": 136,
      "Î": 137,
      "Ï": 138,
      "Ð": 139,
      "Ñ": 140,
      "Ò": 141,
      "Ó": 142,
      "Ô": 143,
      "Õ": 144,
      "Ö": 145,
      "×": 146,
      "Ø": 147,
      "Ù": 148,
      "Ú": 149,
      "Û": 150,
      "Ü": 151,
      "Ý": 152,
      "Þ": 153,
      "ß": 154,
      "à": 155,
      "á": 156,
      "â": 157,
      "ã": 158,
      "ä": 159,
      "å": 160,
      "æ": 161,
      "ç": 162,
      "è": 163,
      "é": 164,
      "ê": 165,
      "ë": 166,
      "ì": 167,
      "í": 168,
      "î": 169,
      "ï": 170,
      "ð": 171,
      "ó": 172,
      "ô": 173,
      "Ā": 174,
      "ā": 175,
      "Ă": 176,
      "ă": 177,
      "Ą": 178,
      "ą": 179,
      "Ć": 180,
      "ć": 181,
      "Ĉ": 182,
      "ĉ": 183,
      "Ċ": 184,
      "ċ": 185,
      "Č": 186,
      "č": 187,
      "Ď": 188,
      "ď": 189,
      "Đ": 190,
      "đ": 191,
      "Ē": 192,
      "ē": 193,
      "Ĕ": 194,
      "ĕ": 195,
      "Ė": 196,
      "ė": 197,
      "Ę": 198,
      "ę": 199,
      "Ě": 200,
      "ě": 201,
      "Ĝ": 202,
      "ĝ": 203,
      "Ğ": 204,
      "ğ": 205,
      "Ġ": 206,
      "ġ": 207,
      "Ģ": 208,
      "ģ": 209,
      "Ĥ": 210,
      "ĥ": 211,
      "Ħ": 212,
      "ħ": 213,
      "Ĩ": 214,
      "ĩ": 215,
      "Ī": 216,
      "ī": 217,
      "Ĭ": 218,
      "ĭ": 219,
      "Į": 220,
      "į": 221,
      "İ": 222,
      "ı": 223,
      "Ĳ": 224,
      "ĳ": 225,
      "Ĵ": 226,
      "ĵ": 227,
      "Ķ": 228,
      "ķ": 229,
      "ĸ": 230,
      "Ĺ": 231,
      "ĺ": 232,
      "Ļ": 233,
      "ļ": 234,
      "Ľ": 235,
      "ľ": 236,
      "Ŀ": 237,
      "ŀ": 238,
      "Ł": 239,
      "ł": 240,
      "Ń": 241,
      "Ġt": 242,
      "in": 243,
      "he": 244,
      "Ġa": 245,
      "on": 246,
      "ĠĠ": 247,
      "re": 248,
      "er": 249,
      "Ġthe": 250,
      "at": 251,
      "en": 252,
      "Ġs": 253,
      "or": 254,
      "al": 255,
      "it": 256,
      "Ġo": 257,
      "is": 258,
      "an": 259,
      "es": 260,
      "ar": 261,
      "Ġc": 262,
      "ion": 263,
      "Ġw": 264,
      "ed": 265,
      "Ġf": 266,
      "Ġof": 267,
      "Ġin": 268,
      "nd": 269,
      "Ġp": 270,
      "Ġ\\": 271,
      "Ġb": 272,
      "ic": 273,
      "le": 274,
      "ing": 275,
      "ro": 276,
      "ĠĠĠĠ": 277,
      "Ġ$": 278,
      "as": 279,
      "Ġd": 280,
      "Ġand": 281,
      "Ġm": 282,
      "ct": 283,
      "Ġto": 284,
      "el": 285,
      "et": 286,
      "ig": 287,
      "ent": 288,
      "ou": 289,
      "il": 290,
      "ra": 291,
      "st": 292,
      "om": 293,
      "ation": 294,
      "Ġre": 295,
      "Ġth": 296,
      "am": 297,
      "im": 298,
      "Ġh": 299,
      "ol": 300,
      "{\\": 301,
      "Ġe": 302,
      "Ġ(": 303,
      "ot": 304,
      "ĠT": 305,
      "ĠS": 306,
      "Ġn": 307,
      "Ġis": 308,
      "Ġl": 309,
      "ĠC": 310,
      "ĠA": 311,
      "ce": 312,
      "id": 313,
      "iv": 314,
      "Ġfor": 315,
      "ch": 316,
      "ut": 317,
      "ur": 318,
      "se": 319,
      "_{": 320,
      "ul": 321,
      "Ġg": 322,
      "ow": 323,
      "ly": 324,
      "ĠM": 325,
      "qu": 326,
      "Ġon": 327,
      "ab": 328,
      "um": 329,
      "ith": 330,
      "eg": 331,
      "ath": 332,
      "us": 333,
      "ad": 334,
      "Ġ$\\": 335,
      "em": 336,
      "ĠI": 337,
      "ver": 338,
      "20": 339,
      "Ġst": 340,
      "Ġas": 341,
      "Ġthat": 342,
      "Ġbe": 343,
      "ĠB": 344,
      "un": 345,
      "ir": 346,
      "Ġcon": 347,
      "od": 348,
      "ĠĠĠ": 349,
      "ĠP": 350,
      "ter": 351,
      "end": 352,
      "Ġwith": 353,
      "if": 354,
      "math": 355,
      "ĠĠĠĠĠĠĠĠ": 356,
      "ay": 357,
      "ĠĊ": 358,
      "th": 359,
      "ĠH": 360,
      "čĊ": 361,
      "ist": 362,
      "ge": 363,
      "ĠF": 364,
      "Ġal": 365,
      "ction": 366,
      "ta": 367,
      "ĠThe": 368,
      "19": 369,
      "Ġ&": 370,
      "igh": 371,
      "ve": 372,
      "Ġwe": 373,
      "ph": 374,
      "ĠR": 375,
      "ers": 376,
      "Ġpro": 377,
      "Ġby": 378,
      "Ġan": 379,
      "ĠL": 380,
      "}\\": 381,
      "ure": 382,
      "and": 383,
      "ri": 384,
      "ĠD": 385,
      "her": 386,
      "}$": 387,
      "Ġv": 388,
      "os": 389,
      "^{": 390,
      "pe": 391,
      "âĢ": 392,
      "ĠW": 393,
      "Ġwas": 394,
      "ity": 395,
      "te": 396,
      "ate": 397,
      "ĠN": 398,
      "ight": 399,
      "ma": 400,
      "ĠG": 401,
      "ac": 402,
      "rom": 403,
      "Ġat": 404,
      "up": 405,
      "Ġwh": 406,
      "res": 407,
      "Ġex": 408,
      "Ġde": 409,
      "ap": 410,
      "Ġcom": 411,
      "est": 412,
      "ĠE": 413,
      "ub": 414,
      "oc": 415,
      "op": 416,
      "Ġare": 417,
      "ite": 418,
      "ine": 419,
      "ore": 420,
      "art": 421,
      "Ġ=": 422,
      "ref": 423,
      "Ġfrom": 424,
      "}}": 425,
      "ies": 426,
      "Ġit": 427,
      "ial": 428,
      "(\\": 429,
      "Ġse": 430,
      "pl": 431,
      "egin": 432,
      "all": 433,
      "ill": 434,
      "ren": 435,
      "begin": 436,
      "rac": 437,
      "ud": 438,
      "ive": 439,
      "ran": 440,
      "ag": 441,
      "Ġor": 442,
      "ess": 443,
      "ft": 444,
      "xt": 445,
      "ew": 446,
      "ĠJ": 447,
      "The": 448,
      "pt": 449,
      "_{\\": 450,
      ")$": 451,
      "ant": 452,
      "fe": 453,
      "cal": 454,
      "iz": 455,
      "ich": 456,
      "ment": 457,
      "ĠO": 458,
      "ort": 459,
      "Ġhe": 460,
      "ber": 461,
      "}{": 462,
      "ak": 463,
      "ated": 464,
      "ical": 465,
      "ld": 466,
      "ell": 467,
      "og": 468,
      "ult": 469,
      "red": 470,
      "'s": 471,
      "int": 472,
      "201": 473,
      "right": 474,
      "per": 475,
      "de": 476,
      "ign": 477,
      "Ġsh": 478,
      "ass": 479,
      "Ġthis": 480,
      "ition": 481,
      "},": 482,
      "frac": 483,
      "cl": 484,
      "eq": 485,
      "ian": 486,
      "Ġch": 487,
      "und": 488,
      "orm": 489,
      "Ġcomp": 490,
      "ard": 491,
      "ue": 492,
      "ĠK": 493,
      "ary": 494,
      "Ġ-": 495,
      "ip": 496,
      "our": 497,
      "rm": 498,
      "})": 499,
      "ĠU": 500,
      "Ġle": 501,
      "ens": 502,
      "text": 503,
      "cite": 504,
      "ave": 505,
      "00": 506,
      "equ": 507,
      "Ġr": 508,
      "Ġ\"": 509,
      "ĠIn": 510,
      "pro": 511,
      "ame": 512,
      "ations": 513,
      "Ġres": 514,
      "Ġnot": 515,
      "Ġpl": 516,
      "abel": 517,
      "Ġwhich": 518,
      "du": 519,
      "mathb": 520,
      "Ġy": 521,
      "ong": 522,
      "ia": 523,
      "ps": 524,
      "Ġcl": 525,
      "ĠĠĠĠĠĠĠ": 526,
      "Ġk": 527,
      "),": 528,
      "Ġcan": 529,
      "ust": 530,
      "the": 531,
      "ast": 532,
      "pa": 533,
      "label": 534,
      "$,": 535,
      "ĉĉ": 536,
      "Ġus": 537,
      "to": 538,
      "ug": 539,
      "ide": 540,
      "$.": 541,
      ",\\": 542,
      "con": 543,
      "Ġwhe": 544,
      "low": 545,
      "able": 546,
      "so": 547,
      "âĢĵ": 548,
      "oun": 549,
      "cc": 550,
      "ost": 551,
      "mathcal": 552,
      "200": 553,
      "eta": 554,
      "ork": 555,
      "ime": 556,
      "Ġhave": 557,
      "equation": 558,
      "ther": 559,
      "ord": 560,
      "av": 561,
      "ĠV": 562,
      "}.": 563,
      "Ġun": 564,
      "left": 565,
      "ain": 566,
      "age": 567,
      "ase": 568,
      "ack": 569,
      "ib": 570,
      "ener": 571,
      "feren": 572,
      "port": 573,
      "Ġap": 574,
      "ric": 575,
      "In": 576,
      "ions": 577,
      "fig": 578,
      "ach": 579,
      "ang": 580,
      "ff": 581,
      "Ġ{": 582,
      "ov": 583,
      "}(": 584,
      "ces": 585,
      ").": 586,
      "ous": 587,
      "Ġim": 588,
      "Ġ|": 589,
      "ence": 590,
      "~\\": 591,
      "act": 592,
      "}^": 593,
      "Ġmod": 594,
      "form": 595,
      "ru": 596,
      "Ġhas": 597,
      "ect": 598,
      "}_": 599,
      "ĠSt": 600,
      "Ġhis": 601,
      "Ġalso": 602,
      "ear": 603,
      "Ġab": 604,
      "erm": 605,
      "are": 606,
      "ish": 607,
      "ire": 608,
      "Ġsu": 609,
      "amb": 610,
      "Ġad": 611,
      "ĠTh": 612,
      "wo": 613,
      "ry": 614,
      "18": 615,
      "old": 616,
      "ound": 617,
      "10": 618,
      "pha": 619,
      "over": 620,
      "ie": 621,
      "erv": 622,
      "ĠCh": 623,
      ");": 624,
      "ome": 625,
      "da": 626,
      "line": 627,
      "Ġpart": 628,
      "alpha": 629,
      "row": 630,
      "own": 631,
      "irst": 632,
      "Ġ+": 633,
      "Ġob": 634,
      "Ġone": 635,
      "ely": 636,
      "rib": 637,
      "ice": 638,
      "ree": 639,
      "Ġall": 640,
      "ates": 641,
      "sum": 642,
      "ks": 643,
      "use": 644,
      "ould": 645,
      ")\\": 646,
      "tain": 647,
      "ind": 648,
      "clud": 649,
      "ents": 650,
      "Ġcont": 651,
      "mer": 652,
      "out": 653,
      "--": 654,
      "ory": 655,
      "ors": 656,
      "ance": 657,
      "Ġwere": 658,
      "Ġdis": 659,
      "Ġj": 660,
      "ple": 661,
      "we": 662,
      "ke": 663,
      "pect": 664,
      "$\\": 665,
      "Ġar": 666,
      "elta": 667,
      "ambda": 668,
      "ics": 669,
      "ile": 670,
      "ĠĠĠĠĠĠĠĠĠĠĠĠĠĠĠĠ": 671,
      "tern": 672,
      "imes": 673,
      "ally": 674,
      "Ġme": 675,
      "unction": 676,
      "Ġper": 677,
      "Ġqu": 678,
      "ular": 679,
      "Ġtwo": 680,
      "mb": 681,
      "rans": 682,
      "Ġne": 683,
      "ose": 684,
      "amma": 685,
      "_\\": 686,
      "igma": 687,
      "Ġ<": 688,
      "Ġsy": 689,
      "mathbb": 690,
      "rit": 691,
      "ress": 692,
      "com": 693,
      "cent": 694,
      "Ġif": 695,
      "..": 696,
      "urn": 697,
      "Ġ\\\\": 698,
      "Ġfirst": 699,
      "}_{": 700,
      "ari": 701,
      "}^{": 702,
      "Ġro": 703,
      "=\\": 704,
      "Ġev": 705,
      "dot": 706,
      "ution": 707,
      "raph": 708,
      "mu": 709,
      "ho": 710,
      "oint": 711,
      "sub": 712,
      "Ġbut": 713,
      "ne": 714,
      "ollow": 715,
      "of": 716,
      "iel": 717,
      "Ġset": 718,
      "ata": 719,
      "ount": 720,
      "Ġits": 721,
      "ok": 722,
      "//": 723,
      "che": 724,
      "ark": 725,
      "ĠHe": 726,
      "-\\": 727,
      "âĢĻ": 728,
      "ray": 729,
      "Ġtheir": 730,
      "Ġout": 731,
      "ob": 732,
      "ll": 733,
      "=\"": 734,
      "Ġte": 735,
      "fin": 736,
      "Re": 737,
      "Ġ||": 738,
      "ĠY": 739,
      "ega": 740,
      "phi": 741,
      "pace": 742,
      "Ġ}": 743,
      "Ġen": 744,
      "ject": 745,
      "^{\\": 746,
      "ĠIt": 747,
      "Ġmodel": 748,
      "Ġsp": 749,
      "199": 750,
      "Ġdes": 751,
      "ĠUn": 752,
      "Ġother": 753,
      "ield": 754,
      "umber": 755,
      "vel": 756,
      "ational": 757,
      "one": 758,
      "Ġover": 759,
      "Ġ*": 760,
      "pos": 761,
      "Ġfunction": 762,
      "Ġfollow": 763,
      "hat": 764,
      "ond": 765,
      "Ġdif": 766,
      "lambda": 767,
      "ep": 768,
      "Ġtime": 769,
      "12": 770,
      "Ġ{\\": 771,
      "lect": 772,
      "ys": 773,
      "ex": 774,
      "Ġcons": 775,
      "ied": 776,
      "bf": 777,
      "Ġplay": 778,
      "Ġup": 779,
      "pi": 780,
      "Ġbet": 781,
      "les": 782,
      "fter": 783,
      "ced": 784,
      "Ġwhere": 785,
      "mathbf": 786,
      "Ġform": 787,
      "Ġsub": 788,
      "cre": 789,
      "sigma": 790,
      "Ġresult": 791,
      "Ġwill": 792,
      "ck": 793,
      "ature": 794,
      "Ġint": 795,
      "ram": 796,
      "Ġval": 797,
      "Ġsuch": 798,
      "ace": 799,
      "wid": 800,
      "ater": 801,
      "Ġman": 802,
      "ode": 803,
      "stem": 804,
      "Ġdist": 805,
      "ilon": 806,
      "Ġag": 807,
      "ĠWe": 808,
      "align": 809,
      "resent": 810,
      "dition": 811,
      "ix": 812,
      "ased": 813,
      "under": 814,
      "ative": 815,
      "Ġmore": 816,
      "ugh": 817,
      "Ġhad": 818,
      "ize": 819,
      "iss": 820,
      "psilon": 821,
      "section": 822,
      "til": 823,
      "Ġwork": 824,
      "ĠSe": 825,
      "Ġver": 826,
      "Ġsim": 827,
      "Ġrel": 828,
      "ons": 829,
      "ubl": 830,
      "Ġonly": 831,
      "ss": 832,
      "ict": 833,
      "pec": 834,
      "oth": 835,
      "Ġtra": 836,
      "orn": 837,
      "Ġbeen": 838,
      "Ġco": 839,
      "Ġgener": 840,
      "ĠĠĠĠĠĠĠĠĠĠĠ": 841,
      "arg": 842,
      "Ġreg": 843,
      "Ġtrans": 844,
      "set": 845,
      "ĠâĢĵ": 846,
      "sc": 847,
      "Ġconst": 848,
      "vi": 849,
      "ax": 850,
      "Ġnew": 851,
      "Ġequ": 852,
      "lem": 853,
      "ween": 854,
      "ild": 855,
      "eth": 856,
      "Ġthen": 857,
      "Ġdo": 858,
      "ings": 859,
      "part": 860,
      "ific": 861,
      "Ġinter": 862,
      "Ġpre": 863,
      "Ġclass": 864,
      "^{-": 865,
      "ual": 866,
      "hed": 867,
      "Ġcol": 868,
      "Ġso": 869,
      "ince": 870,
      "Ġ(\\": 871,
      "Ġthere": 872,
      "sh": 873,
      "ĠThis": 874,
      "Ġwho": 875,
      "ĠĠĠĠĠ": 876,
      "aw": 877,
      "pr": 878,
      "}{\\": 879,
      "Ġshow": 880,
      "aram": 881,
      "Ġra": 882,
      "Ġacc": 883,
      "ox": 884,
      "beta": 885,
      "Ġpos": 886,
      "mathrm": 887,
      "Ġinto": 888,
      "Ġbetween": 889,
      "Ġph": 890,
      "gh": 891,
      "15": 892,
      "Ġthey": 893,
      "Ġthan": 894,
      "Ġcor": 895,
      "Ġsup": 896,
      "*}": 897,
      "land": 898,
      "Ġwhen": 899,
      "roup": 900,
      "ral": 901,
      "Ġsc": 902,
      "Ġdifferen": 903,
      "Ġour": 904,
      "+\\": 905,
      "olog": 906,
      "round": 907,
      "Ġloc": 908,
      "Ġ[": 909,
      "ating": 910,
      "16": 911,
      "ans": 912,
      "ient": 913,
      "Ġher": 914,
      "gamma": 915,
      "ake": 916,
      "pend": 917,
      "bar": 918,
      "ward": 919,
      "Ġcomm": 920,
      "inal": 921,
      "Ġinclud": 922,
      "ove": 923,
      "ited": 924,
      "Ġeach": 925,
      "ruct": 926,
      "\\\\": 927,
      "]{": 928,
      "ise": 929,
      "rho": 930,
      "ype": 931,
      "ility": 932,
      "ann": 933,
      "</": 934,
      "17": 935,
      "ail": 936,
      "Ġunder": 937,
      "figure": 938,
      "Ġany": 939,
      "theta": 940,
      "Ġsystem": 941,
      "io": 942,
      "fect": 943,
      "Ġgiv": 944,
      "We": 945,
      "ities": 946,
      "Ġpol": 947,
      "leq": 948,
      "Ġsome": 949,
      "^\\": 950,
      "ool": 951,
      "ople": 952,
      "put": 953,
      "Ġbec": 954,
      "der": 955,
      "oot": 956,
      "Ġyear": 957,
      "delta": 958,
      "its": 959,
      "ĠâĢ": 960,
      "ĠRe": 961,
      "Ġmat": 962,
      "Ġpe": 963,
      "rt": 964,
      "ron": 965,
      "li": 966,
      "ident": 967,
      "198": 968,
      ")}": 969,
      "width": 970,
      "meric": 971,
      "ough": 972,
      "cess": 973,
      "ng": 974,
      "Ġused": 975,
      "}$,": 976,
      "Ġest": 977,
      "$-": 978,
      "abl": 979,
      "Ġdata": 980,
      "cdot": 981,
      "tau": 982,
      "turn": 983,
      "tt": 984,
      "ivers": 985,
      "uring": 986,
      "ues": 987,
      "ember": 988,
      "13": 989,
      "Ġoff": 990,
      "yn": 991,
      "}$.": 992,
      "Ġprob": 993,
      "array": 994,
      "Ġkn": 995,
      "apt": 996,
      "Ġpoint": 997,
      "lo": 998,
      "ists": 999,
      "cond": 1000,
      "Ġrec": 1001,
      "Ġthese": 1002,
      "ĠDe": 1003,
      "Ġx": 1004,
      "Ġnumber": 1005,
      "let": 1006,
      "item": 1007,
      "Ġact": 1008,
      "ible": 1009,
      "St": 1010,
      "Ġi": 1011,
      "ock": 1012,
      "eqref": 1013,
      "}(\\": 1014,
      "14": 1015,
      "als": 1016,
      "ick": 1017,
      "rent": 1018,
      "rough": 1019,
      "Ġsol": 1020,
      "Ġstud": 1021,
      "ring": 1022,
      "ote": 1023,
      "mall": 1024,
      "Ġwould": 1025,
      "ments": 1026,
      "Ġno": 1027,
      "uss": 1028,
      "ferences": 1029,
      "Ġprov": 1030,
      "ull": 1031,
      "Ġuse": 1032,
      "Ġafter": 1033,
      "Ġfe": 1034,
      "Ġprodu": 1035,
      "Ġfil": 1036,
      "min": 1037,
      "ator": 1038,
      "big": 1039,
      "11": 1040,
      "Ġgo": 1041,
      "nu": 1042,
      "cy": 1043,
      "ars": 1044,
      "ĠFor": 1045,
      "**": 1046,
      "Ġcase": 1047,
      "ĠAl": 1048,
      "times": 1049,
      "Ġpr": 1050,
      "ton": 1051,
      "ĠCom": 1052,
      "Ġappro": 1053,
      "ins": 1054,
      "ized": 1055,
      "ik": 1056,
      "Ġext": 1057,
      "ms": 1058,
      "Ġ'": 1059,
      "ption": 1060,
      "Ġinv": 1061,
      "ays": 1062,
      "ublic": 1063,
      "here": 1064,
      "sy": 1065,
      "Ġdifferent": 1066,
      "col": 1067,
      "Ġline": 1068,
      "arch": 1069,
      "ever": 1070,
      "Ġvari": 1071,
      "ffect": 1072,
      "ower": 1073,
      "Ġlin": 1074,
      "partial": 1075,
      "arrow": 1076,
      "ĠNew": 1077,
      "ily": 1078,
      "Ġabout": 1079,
      "oy": 1080,
      "fty": 1081,
      "Ġnon": 1082,
      "Ex": 1083,
      "ization": 1084,
      "aramet": 1085,
      "infty": 1086,
      "ethod": 1087,
      "References": 1088,
      "Ġass": 1089,
      "Ġshe": 1090,
      "quad": 1091,
      "|\\": 1092,
      "Th": 1093,
      "tilde": 1094,
      "ĠZ": 1095,
      "omega": 1096,
      "elf": 1097,
      "ĠPro": 1098,
      "ade": 1099,
      "ĠQ": 1100,
      "eng": 1101,
      "Ġsign": 1102,
      "Ġexp": 1103,
      "197": 1104,
      "Ġmay": 1105,
      "var": 1106,
      "mm": 1107,
      "pm": 1108,
      "ctions": 1109,
      "Ġspec": 1110,
      "ision": 1111,
      "ctor": 1112,
      "Ġmost": 1113,
      "ample": 1114,
      "Ġusing": 1115,
      "Ġsame": 1116,
      "21": 1117,
      "ning": 1118,
      "ert": 1119,
      "ĠX": 1120,
      "Ġpartic": 1121,
      "Ġfield": 1122,
      "merican": 1123,
      "air": 1124,
      "Ġcur": 1125,
      "Ġrep": 1126,
      "Delta": 1127,
      "Ġoper": 1128,
      "25": 1129,
      "Ġdire": 1130,
      "for": 1131,
      "rang": 1132,
      "ffic": 1133,
      "Ġwell": 1134,
      "plic": 1135,
      "Ġfl": 1136,
      "oci": 1137,
      "val": 1138,
      "ically": 1139,
      "Ġop": 1140,
      "arge": 1141,
      "Ġgiven": 1142,
      "Ġfollowing": 1143,
      "ball": 1144,
      "ĠLe": 1145,
      "itt": 1146,
      "Ġterm": 1147,
      "sec": 1148,
      "ering": 1149,
      "par": 1150,
      "Ġinst": 1151,
      "eqn": 1152,
      "ĠAn": 1153,
      "Ġbl": 1154,
      "Ġyou": 1155,
      "orld": 1156,
      "ined": 1157,
      "get": 1158,
      "Ġent": 1159,
      "gy": 1160,
      "Ġdet": 1161,
      "Ġboth": 1162,
      "irc": 1163,
      "ĠAs": 1164,
      "Ġdefin": 1165,
      "Ġstate": 1166,
      "owever": 1167,
      "space": 1168,
      "chool": 1169,
      "ute": 1170,
      "hen": 1171,
      "sim": 1172,
      "Ġsing": 1173,
      "ason": 1174,
      "Ġreturn": 1175,
      "ook": 1176,
      "Ġbu": 1177,
      "Ġed": 1178,
      "ots": 1179,
      "wn": 1180,
      "Ġthrough": 1181,
      "ively": 1182,
      "Ġcent": 1183,
      "ash": 1184,
      "Ġmin": 1185,
      "ished": 1186,
      "serv": 1187,
      "Ġperform": 1188,
      "ism": 1189,
      "ames": 1190,
      "Ġsur": 1191,
      "pert": 1192,
      "Ġgroup": 1193,
      "sp": 1194,
      "orem": 1195,
      "}}\\": 1196,
      "oh": 1197,
      "Ġthree": 1198,
      "\\,": 1199,
      "Ġpeople": 1200,
      ")$.": 1201,
      "22": 1202,
      "}[": 1203,
      "amp": 1204,
      "ional": 1205,
      "xi": 1206,
      "Ġhigh": 1207,
      "30": 1208,
      "Ġ.": 1209,
      "Ġend": 1210,
      "ement": 1211,
      "ont": 1212,
      "Ġam": 1213,
      "ract": 1214,
      "ases": 1215,
      "Ġz": 1216,
      "Ġsecond": 1217,
      "ern": 1218,
      "ause": 1219,
      "uch": 1220,
      "man": 1221,
      "Ġdesc": 1222,
      "Ġele": 1223,
      "Ġfact": 1224,
      "Ġ$(": 1225,
      "hip": 1226,
      "\">": 1227,
      "\",": 1228,
      "rix": 1229,
      "196": 1230,
      "att": 1231,
      "Ġfound": 1232,
      "Ġorder": 1233,
      "epsilon": 1234,
      "Ġparamet": 1235,
      "Ġfin": 1236,
      "Ġobtain": 1237,
      "err": 1238,
      "ider": 1239,
      "iversity": 1240,
      "Ġdisc": 1241,
      "any": 1242,
      "uc": 1243,
      "Ġmethod": 1244,
      "rict": 1245,
      "Ġresults": 1246,
      "Ġsmall": 1247,
      "asure": 1248,
      "ulation": 1249,
      "$$": 1250,
      "ah": 1251,
      "where": 1252,
      "Ġem": 1253,
      "Ġbound": 1254,
      "yp": 1255,
      "sq": 1256,
      "arly": 1257,
      "Ġser": 1258,
      "))": 1259,
      "}_{\\": 1260,
      "Ġcall": 1261,
      "Ġind": 1262,
      "resp": 1263,
      "Ġthem": 1264,
      "Ġagain": 1265,
      ".,": 1266,
      "ternal": 1267,
      "Ġserv": 1268,
      "includ": 1269,
      "ike": 1270,
      "orth": 1271,
      "Om": 1272,
      "50": 1273,
      "work": 1274,
      "Ġback": 1275,
      "ets": 1276,
      "ier": 1277,
      "Ġtr": 1278,
      "ality": 1279,
      "outh": 1280,
      "ices": 1281,
      "Ġwhile": 1282,
      "Ġeffect": 1283,
      "ury": 1284,
      "psi": 1285,
      "Ġrequ": 1286,
      "Ġdec": 1287,
      "Ġatt": 1288,
      "ĠSh": 1289,
      "ĠFig": 1290,
      "atic": 1291,
      "ner": 1292,
      "ability": 1293,
      "Ġac": 1294,
      "iver": 1295,
      "reat": 1296,
      "fore": 1297,
      "Omega": 1298,
      "Ġanal": 1299,
      "Ġstr": 1300,
      "Ġ:": 1301,
      "ining": 1302,
      "textbf": 1303,
      "ential": 1304,
      "mbol": 1305,
      "Ġlead": 1306,
      "^*": 1307,
      "ross": 1308,
      "angle": 1309,
      "bm": 1310,
      "Se": 1311,
      "rest": 1312,
      "ale": 1313,
      ")$,": 1314,
      "----": 1315,
      "very": 1316,
      "âĢĿ": 1317,
      "not": 1318,
      "way": 1319,
      "ĠInd": 1320,
      "Ġdef": 1321,
      "umn": 1322,
      "ural": 1323,
      "velop": 1324,
      "formation": 1325,
      "eqnarray": 1326,
      "Gamma": 1327,
      "ructure": 1328,
      "raphics": 1329,
      "sqrt": 1330,
      "ten": 1331,
      "az": 1332,
      "Ġvalue": 1333,
      "ife": 1334,
      "yle": 1335,
      "ages": 1336,
      "Ġsee": 1337,
      "Ġmass": 1338,
      "Ġdistrib": 1339,
      "24": 1340,
      "Ġhim": 1341,
      "subsection": 1342,
      "Ġduring": 1343,
      "aj": 1344,
      "vare": 1345,
      "energy": 1346,
      "rop": 1347,
      "tab": 1348,
      "me": 1349,
      "rel": 1350,
      "Ġrepresent": 1351,
      "au": 1352,
      "000": 1353,
      "ĠCol": 1354,
      "respond": 1355,
      "rad": 1356,
      "be": 1357,
      "varepsilon": 1358,
      "fer": 1359,
      "ts": 1360,
      "==": 1361,
      "ĠĠĠĠĠĠĠĠĠĠĠĠĠĠĠ": 1362,
      "Ġobserv": 1363,
      "Ġyears": 1364,
      "ource": 1365,
      "ĠAmerican": 1366,
      "ful": 1367,
      "ĠCl": 1368,
      "uth": 1369,
      "ĠĠĊ": 1370,
      "ĠčĊ": 1371,
      "Ġrespect": 1372,
      "ather": 1373,
      "Ġmeasure": 1374,
      "ency": 1375,
      "capt": 1376,
      "Ġchar": 1377,
      "Ġpresent": 1378,
      "23": 1379,
      "Ġbeing": 1380,
      "egraphics": 1381,
      "includegraphics": 1382,
      "Ġ/": 1383,
      "aid": 1384,
      "bold": 1385,
      "Ġfam": 1386,
      "son": 1387,
      "Ph": 1388,
      "Ġcondition": 1389,
      "fl": 1390,
      "Ġsince": 1391,
      "ology": 1392,
      "ved": 1393,
      "}^{\\": 1394,
      "by": 1395,
      "Ġbel": 1396,
      "iqu": 1397,
      "other": 1398,
      "Ã©": 1399,
      "^{(": 1400,
      "194": 1401,
      "Ġget": 1402,
      "caption": 1403,
      "}=": 1404,
      "Ġ${\\": 1405,
      "()": 1406,
      "Ġmany": 1407,
      "rightarrow": 1408,
      "For": 1409,
      "etwork": 1410,
      "Ġran": 1411,
      "ived": 1412,
      "ouse": 1413,
      "Ġrele": 1414,
      "ĠCon": 1415,
      "Ġproblem": 1416,
      "fra": 1417,
      "log": 1418,
      "vent": 1419,
      "ane": 1420,
      "Ġspace": 1421,
      "Ġassum": 1422,
      "ink": 1423,
      "Ġlarge": 1424,
      "ott": 1425,
      "Ġprocess": 1426,
      ")=": 1427,
      "rangle": 1428,
      "etric": 1429,
      "Ġmult": 1430,
      "Ġcre": 1431,
      "ĠSc": 1432,
      "cm": 1433,
      "Ġmain": 1434,
      "ĠUniversity": 1435,
      "gor": 1436,
      "Ġlong": 1437,
      "Ġinde": 1438,
      "ole": 1439,
      "Ġ\\,": 1440,
      "ene": 1441,
      "ines": 1442,
      "Ġopt": 1443,
      "led": 1444,
      "Ġart": 1445,
      "Ġcorrespond": 1446,
      "rid": 1447,
      "Ġteam": 1448,
      "rodu": 1449,
      "Ġmade": 1450,
      "ission": 1451,
      "ange": 1452,
      "def": 1453,
      "Ġgeneral": 1454,
      "Ġ,": 1455,
      "Ġdescrib": 1456,
      "ified": 1457,
      "Ġelect": 1458,
      "els": 1459,
      "Ġcontin": 1460,
      "Ġnow": 1461,
      "lex": 1462,
      "imens": 1463,
      "ĠUnited": 1464,
      "bers": 1465,
      "emph": 1466,
      "ĠOn": 1467,
      "ior": 1468,
      "Ġfeature": 1469,
      "Ġpublic": 1470,
      "Ġmon": 1471,
      "Ġname": 1472,
      "Ġneed": 1473,
      "Ġevery": 1474,
      "Ġden": 1475,
      "Ġknown": 1476,
      "Ġestim": 1477,
      "position": 1478,
      ".~\\": 1479,
      "olution": 1480,
      "Ġ`": 1481,
      "ival": 1482,
      "Ġmed": 1483,
      "umer": 1484,
      "varphi": 1485,
      "overn": 1486,
      "ired": 1487,
      "Ġlim": 1488,
      "ters": 1489,
      "hes": 1490,
      "Ġappe": 1491,
      "ootball": 1492,
      "app": 1493,
      "Ġstart": 1494,
      "gorith": 1495,
      "Ġenergy": 1496,
      "Ġu": 1497,
      "Ġincre": 1498,
      "Ġpop": 1499,
      "Ġcould": 1500,
      "ensure": 1501,
      "Ġfour": 1502,
      "urther": 1503,
      "geq": 1504,
      "Ġbased": 1505,
      "Ġke": 1506,
      "cept": 1507,
      "Ġscal": 1508,
      "Âł": 1509,
      "->": 1510,
      "Ġrad": 1511,
      "chn": 1512,
      "erson": 1513,
      "Ġposs": 1514,
      "ood": 1515,
      "ven": 1516,
      "Ġdevelop": 1517,
      "2018": 1518,
      "sk": 1519,
      "raw": 1520,
      "aking": 1521,
      "usic": 1522,
      "ina": 1523,
      "view": 1524,
      "Con": 1525,
      "2019": 1526,
      "This": 1527,
      ".}": 1528,
      "Ġwrit": 1529,
      "ared": 1530,
      "Ġorig": 1531,
      "cer": 1532,
      "Ġbefore": 1533,
      "ength": 1534,
      "non": 1535,
      "ask": 1536,
      "rum": 1537,
      "Ġmag": 1538,
      "utions": 1539,
      "Ġfind": 1540,
      "Ġexper": 1541,
      "chi": 1542,
      "ger": 1543,
      "symbol": 1544,
      "''": 1545,
      "co": 1546,
      "Ġadd": 1547,
      "Ġlocal": 1548,
      "Ġcount": 1549,
      "Ch": 1550,
      "itive": 1551,
      "ants": 1552,
      "Ġ//": 1553,
      "iving": 1554,
      "overline": 1555,
      "ĠAr": 1556,
      "Ġstructure": 1557,
      "gan": 1558,
      "proof": 1559,
      "Ġright": 1560,
      "ĉĉĉĉ": 1561,
      "ober": 1562,
      "ij": 1563,
      "},\\": 1564,
      "oss": 1565,
      "Ġlinks": 1566,
      "Ġlike": 1567,
      "Ġbecause": 1568,
      "vious": 1569,
      "omen": 1570,
      "Ġve": 1571,
      "ec": 1572,
      "195": 1573,
      "Ġvery": 1574,
      "ript": 1575,
      "ting": 1576,
      "ohn": 1577,
      "Ġplayers": 1578,
      "oid": 1579,
      "&\\": 1580,
      "ley": 1581,
      "mod": 1582,
      "boldsymbol": 1583,
      "ilar": 1584,
      "Ġpres": 1585,
      "med": 1586,
      "ĠEng": 1587,
      "Ġtop": 1588,
      "Ġcal": 1589,
      "Ġcharact": 1590,
      "Ġsupport": 1591,
      "Ġrun": 1592,
      "tr": 1593,
      "Ġcontain": 1594,
      "ĠâĢľ": 1595,
      "As": 1596,
      "Ġtest": 1597,
      "Ġabove": 1598,
      "read": 1599,
      "hline": 1600,
      "Ġ@": 1601,
      "ensity": 1602,
      "Big": 1603,
      "ives": 1604,
      "bl": 1605,
      "Ġtem": 1606,
      "Pro": 1607,
      "Ġdirect": 1608,
      "2017": 1609,
      "ply": 1610,
      "ually": 1611,
      "Ġspect": 1612,
      "27": 1613,
      "ĠAd": 1614,
      "vert": 1615,
      ")^": 1616,
      "istory": 1617,
      "Ġinteg": 1618,
      "Ġdoes": 1619,
      "rem": 1620,
      "Ġmov": 1621,
      "gram": 1622,
      "Ġvalues": 1623,
      "eb": 1624,
      "ampl": 1625,
      "Ġident": 1626,
      "Ġreal": 1627,
      "26": 1628,
      ".\"": 1629,
      "}).": 1630,
      "ness": 1631,
      "Ġgu": 1632,
      "Ġsat": 1633,
      "Ġeven": 1634,
      "net": 1635,
      "It": 1636,
      "Ġincluding": 1637,
      "[\\": 1638,
      "Ġlater": 1639,
      "Ġdi": 1640,
      "ĠShe": 1641,
      "Ġmem": 1642,
      "arri": 1643,
      "He": 1644,
      "}}$": 1645,
      "Ġjust": 1646,
      "28": 1647,
      "2016": 1648,
      "ĠIs": 1649,
      "ateg": 1650,
      "Ġdue": 1651,
      "ves": 1652,
      "External": 1653,
      "inc": 1654,
      "Ġvi": 1655,
      "lim": 1656,
      "xim": 1657,
      "less": 1658,
      "Ġpropert": 1659,
      "Ġsingle": 1660,
      "itial": 1661,
      "frak": 1662,
      "Ġshown": 1663,
      "une": 1664,
      "};": 1665,
      "ero": 1666,
      "Ġhand": 1667,
      "ormal": 1668,
      "Ġallow": 1669,
      "Ġseries": 1670,
      "por": 1671,
      "...": 1672,
      "ograph": 1673,
      "ify": 1674,
      "ĠMar": 1675,
      "Ġshould": 1676,
      "Ġrecord": 1677,
      "Ġdesign": 1678,
      "ration": 1679,
      "Ġnetwork": 1680,
      "Ġcomput": 1681,
      "langle": 1682,
      "Ġerr": 1683,
      "Ġfollows": 1684,
      "40": 1685,
      "ery": 1686,
      "Ġstand": 1687,
      "Ġconsider": 1688,
      "aper": 1689,
      "refore": 1690,
      "Ġtype": 1691,
      "Ġopen": 1692,
      "bum": 1693,
      "Ġexpl": 1694,
      "mult": 1695,
      "see": 1696,
      "ths": 1697,
      "Ġquant": 1698,
      "arn": 1699,
      "',": 1700,
      "100": 1701,
      "Ġmodels": 1702,
      "vec": 1703,
      "2015": 1704,
      "Ġfilm": 1705,
      "Ġel": 1706,
      "ldots": 1707,
      "Let": 1708,
      "wh": 1709,
      "ĠHowever": 1710,
      "aces": 1711,
      "Ġcontro": 1712,
      "back": 1713,
      "Ġdepend": 1714,
      "ĠStates": 1715,
      "Ġaddition": 1716,
      "ides": 1717,
      "ym": 1718,
      "posed": 1719,
      "mathfrak": 1720,
      "ĠPh": 1721,
      "Ġstat": 1722,
      "ĠPl": 1723,
      "Ġrest": 1724,
      "Ġsum": 1725,
      "ges": 1726,
      "citep": 1727,
      "Ġagainst": 1728,
      "Ġsaid": 1729,
      "ST": 1730,
      "Ġmap": 1731,
      "ird": 1732,
      "ĠCount": 1733,
      "::": 1734,
      "Ġlevel": 1735,
      "Ġseason": 1736,
      "enn": 1737,
      "ided": 1738,
      "Ġdefined": 1739,
      "2014": 1740,
      "Ġestabl": 1741,
      "Ġwhat": 1742,
      "Ġrema": 1743,
      "vers": 1744,
      "Ġexample": 1745,
      "cul": 1746,
      "ators": 1747,
      "pon": 1748,
      "center": 1749,
      "ital": 1750,
      "Lambda": 1751,
      "Ġpower": 1752,
      "new": 1753,
      "ison": 1754,
      "Ġprof": 1755,
      "2010": 1756,
      "Ġobject": 1757,
      "ised": 1758,
      "veral": 1759,
      "ĠComm": 1760,
      "29": 1761,
      "Ġown": 1762,
      "Ġthose": 1763,
      "ift": 1764,
      "oo": 1765,
      "atch": 1766,
      "Com": 1767,
      "Ġparticular": 1768,
      "nabl": 1769,
      "imal": 1770,
      "uro": 1771,
      "cor": 1772,
      "color": 1773,
      "Ġrem": 1774,
      "\".": 1775,
      "Ġleft": 1776,
      "orph": 1777,
      "ensuremath": 1778,
      "ĠMay": 1779,
      "Ġlet": 1780,
      "Ġcalled": 1781,
      "ience": 1782,
      "Ġdr": 1783,
      "ank": 1784,
      "textit": 1785,
      "Ġcurrent": 1786,
      "rack": 1787,
      "Ġbuild": 1788,
      "ately": 1789,
      "face": 1790,
      "Ġpar": 1791,
      "gorithm": 1792,
      "Ġhow": 1793,
      "Ġalong": 1794,
      "Ġimport": 1795,
      "appa": 1796,
      "ĠIf": 1797,
      "ague": 1798,
      "Ġlast": 1799,
      "Phi": 1800,
      "Ġsimilar": 1801,
      "Ġinformation": 1802,
      "2013": 1803,
      "Ġway": 1804,
      "ule": 1805,
      "Ġlist": 1806,
      "ynam": 1807,
      "Ġrece": 1808,
      "Ġwithin": 1809,
      "Ġdistribution": 1810,
      "Ġocc": 1811,
      "lection": 1812,
      "Ġgra": 1813,
      "ĠTe": 1814,
      "ĠFran": 1815,
      "bra": 1816,
      "Ġsection": 1817,
      "tal": 1818,
      "Ġnear": 1819,
      "Ġ>": 1820,
      "nabla": 1821,
      "2011": 1822,
      "requ": 1823,
      "Ġder": 1824,
      "bs": 1825,
      "ER": 1826,
      "Ġins": 1827,
      "rand": 1828,
      "Ġpred": 1829,
      "ĠBe": 1830,
      "ĠNational": 1831,
      "ccess": 1832,
      "Ġfootball": 1833,
      "ification": 1834,
      "iod": 1835,
      "De": 1836,
      "Ġlow": 1837,
      "Ġlarg": 1838,
      "2012": 1839,
      "On": 1840,
      "plit": 1841,
      "Ġschool": 1842,
      "cur": 1843,
      "193": 1844,
      "ĠJohn": 1845,
      "Ġfamily": 1846,
      "ai": 1847,
      "Ġfinal": 1848,
      "isf": 1849,
      "\\|": 1850,
      "Ġredu": 1851,
      "ĠCar": 1852,
      "with": 1853,
      "mbox": 1854,
      "pre": 1855,
      "no": 1856,
      "})$": 1857,
      "Ġcommun": 1858,
      "ures": 1859,
      "Ġshows": 1860,
      "Ġdom": 1861,
      "ground": 1862,
      "Ġbro": 1863,
      "Ġav": 1864,
      "etry": 1865,
      "Ġread": 1866,
      "mp": 1867,
      "subset": 1868,
      "iment": 1869,
      "60": 1870,
      "ysis": 1871,
      "ium": 1872,
      "ĠEx": 1873,
      "Ġexpect": 1874,
      "Ġbas": 1875,
      "Ġdeterm": 1876,
      "Ġcontinu": 1877,
      "kappa": 1878,
      "sf": 1879,
      "Ġcharacter": 1880,
      "Ġseveral": 1881,
      "Ġsize": 1882,
      "ĠAust": 1883,
      "reg": 1884,
      "Ġmake": 1885,
      "ĠWorld": 1886,
      "istic": 1887,
      "otimes": 1888,
      "wards": 1889,
      "Ġalbum": 1890,
      "Ġterms": 1891,
      "play": 1892,
      "\\%": 1893,
      "terest": 1894,
      "ety": 1895,
      "ĠBl": 1896,
      "\\!": 1897,
      "Ġche": 1898,
      "table": 1899,
      "Ġdown": 1900,
      "tabular": 1901,
      "anu": 1902,
      "Ġaround": 1903,
      "ĠAt": 1904,
      "dis": 1905,
      "Ġpoints": 1906,
      "Ġhig": 1907,
      "ody": 1908,
      "oper": 1909,
      "ĠCan": 1910,
      "akes": 1911,
      "Ġbeh": 1912,
      "Ġbir": 1913,
      "Ġhel": 1914,
      "eps": 1915,
      "ĉĉĉ": 1916,
      ".\\": 1917,
      "Ġintrodu": 1918,
      "Ġvis": 1919,
      "Ġvers": 1920,
      "ĠJul": 1921,
      "ference": 1922,
      "ped": 1923,
      "2020": 1924,
      "Ġtri": 1925,
      "ĠGe": 1926,
      "urch": 1927,
      "Ġdiscuss": 1928,
      "ording": 1929,
      "Ġpass": 1930,
      "Ġinitial": 1931,
      "ajor": 1932,
      "Ġgl": 1933,
      "Al": 1934,
      "ense": 1935,
      "oll": 1936,
      "ixed": 1937,
      "rist": 1938,
      "ament": 1939,
      "circ": 1940,
      "ternational": 1941,
      "ians": 1942,
      "Ġ)": 1943,
      "ister": 1944,
      "Ġmuch": 1945,
      "ble": 1946,
      "Ġprevious": 1947,
      "ched": 1948,
      "AR": 1949,
      "ination": 1950,
      "van": 1951,
      "ae": 1952,
      "atter": 1953,
      "Ġreport": 1954,
      "Ġdid": 1955,
      "ument": 1956,
      "Ġstudy": 1957,
      "Ġarea": 1958,
      "2008": 1959,
      "odes": 1960,
      "Ġsl": 1961,
      "Ġband": 1962,
      "To": 1963,
      "Ġmax": 1964,
      "pose": 1965,
      "dots": 1966,
      "Ġtechn": 1967,
      "Ġgame": 1968,
      "ĠThen": 1969,
      "Ġparameters": 1970,
      "}),": 1971,
      "Ġassoci": 1972,
      "af": 1973,
      "Ġtotal": 1974,
      "}+": 1975,
      "overnment": 1976,
      "otential": 1977,
      "Ġhold": 1978,
      "fficient": 1979,
      "nect": 1980,
      "Ġet": 1981,
      "ĠWar": 1982,
      "}}{": 1983,
      "2009": 1984,
      "Cl": 1985,
      "amed": 1986,
      "Ġcho": 1987,
      "Ġsatisf": 1988,
      "Ġindu": 1989,
      "Ġdensity": 1990,
      "Ġclos": 1991,
      "Ġstill": 1992,
      "Ġbecame": 1993,
      "str": 1994,
      "etail": 1995,
      "Ġuntil": 1996,
      "comm": 1997,
      "IN": 1998,
      "ilde": 1999,
      "nonumber": 2000,
      "Ġprogram": 2001,
      "ĠAll": 2002,
      "Ġapproxim": 2003,
      "Ġmet": 2004,
      "Ġknow": 2005,
      "ĠYork": 2006,
      "Ġcap": 2007,
      "32": 2008,
      "angu": 2009,
      "Ġdeg": 2010,
      "Ġobtained": 2011,
      "iam": 2012,
      "Ġevent": 2013,
      "aving": 2014,
      "ĠBrit": 2015,
      "Ġposition": 2016,
      "ĠCounty": 2017,
      "\\[": 2018,
      "ĠSchool": 2019,
      "Ġdem": 2020,
      "):": 2021,
      "lear": 2022,
      "Ġcrit": 2023,
      "point": 2024,
      "|-": 2025,
      "urb": 2026,
      "ĠNov": 2027,
      "pendent": 2028,
      "Ġmatrix": 2029,
      "\\{": 2030,
      "SS": 2031,
      "ek": 2032,
      "ĠâĢĶ": 2033,
      "45": 2034,
      "ĠCent": 2035,
      "ĠWh": 2036,
      "ĠĠĠĠĠĠĠĠĠ": 2037,
      "ially": 2038,
      "Ġexist": 2039,
      "Sigma": 2040,
      "ĠAnd": 2041,
      "AT": 2042,
      "ches": 2043,
      "ended": 2044,
      "ĠOr": 2045,
      "Ġstates": 2046,
      "cap": 2047,
      "wide": 2048,
      "Ġref": 2049,
      "action": 2050,
      "Ġcompon": 2051,
      "centering": 2052,
      "90": 2053,
      "Ps": 2054,
      "35": 2055,
      "ious": 2056,
      "Ġcomb": 2057,
      "Ġwin": 2058,
      "Ġinterest": 2059,
      "arm": 2060,
      "Ġsong": 2061,
      "Ġsequ": 2062,
      "aus": 2063,
      "Ġtyp": 2064,
      "pd": 2065,
      "Ġgraph": 2066,
      "ux": 2067,
      "ĠSouth": 2068,
      "ĠRes": 2069,
      "opt": 2070,
      "ugg": 2071,
      "atrix": 2072,
      "alth": 2073,
      "Ġcare": 2074,
      "Ġstrong": 2075,
      "ories": 2076,
      "Ġbest": 2077,
      "widet": 2078,
      "Ġaver": 2079,
      "Ġhere": 2080,
      "day": 2081,
      "imum": 2082,
      "ugust": 2083,
      "sequ": 2084,
      "iter": 2085,
      "Ġdescribed": 2086,
      "80": 2087,
      "cit": 2088,
      "Ġlife": 2089,
      "Ġmean": 2090,
      "ape": 2091,
      "Ġorgan": 2092,
      "Ġpolit": 2093,
      "Ġpossible": 2094,
      "ĠĠĠĠĠĠĠĠĠĠĠĠĠĠĠĠĠĠĠĠĠĠĠĠĠĠĠĠĠĠĠĠ": 2095,
      "Ġself": 2096,
      "Ġlaw": 2097,
      "ivity": 2098,
      "Ġtake": 2099,
      "Ġcontrib": 2100,
      "Ġdeath": 2101,
      "Ġmy": 2102,
      "ruction": 2103,
      "aim": 2104,
      "Ġ``": 2105,
      "erman": 2106,
      "Ġsolution": 2107,
      "ler": 2108,
      "An": 2109,
      "ude": 2110,
      "Ġfunctions": 2111,
      "II": 2112,
      "2007": 2113,
      "Ġmust": 2114,
      "this": 2115,
      "Fig": 2116,
      "Ġmusic": 2117,
      "ords": 2118,
      "();": 2119,
      "ĠLet": 2120,
      "Ġplace": 2121,
      "Ġpaper": 2122,
      "Ġwithout": 2123,
      "Ġann": 2124,
      "ptember": 2125,
      "ii": 2126,
      "ances": 2127,
      "anc": 2128,
      "Ġchild": 2129,
      "Ġq": 2130,
      "widetilde": 2131,
      "ression": 2132,
      "ext": 2133,
      "Ġhead": 2134,
      "Ġequation": 2135,
      "Ġregion": 2136,
      "ĠThey": 2137,
      "}-": 2138,
      "ĠOct": 2139,
      "Ġperiod": 2140,
      "ored": 2141,
      "{-": 2142,
      "'t": 2143,
      "/\\": 2144,
      "ĠPr": 2145,
      "Ġ_": 2146,
      "Ġtheory": 2147,
      "ĠPar": 2148,
      "****": 2149,
      "Ġcomplex": 2150,
      "ilt": 2151,
      "Ġcou": 2152,
      "Ġworld": 2153,
      "(\"": 2154,
      "bit": 2155,
      "aint": 2156,
      "ention": 2157,
      "Ġpredict": 2158,
      "2006": 2159,
      "box": 2160,
      "Ġrespectively": 2161,
      "ĠTo": 2162,
      "ampions": 2163,
      "Ġcorresponding": 2164,
      "iness": 2165,
      "ris": 2166,
      "idd": 2167,
      "prime": 2168,
      "Ġpat": 2169,
      "Ġ</": 2170,
      "ĠMarch": 2171,
      "Ġpotential": 2172,
      "dd": 2173,
      "anuary": 2174,
      "ique": 2175,
      "oard": 2176,
      "Ġlimit": 2177,
      "lev": 2178,
      "33": 2179,
      "75": 2180,
      "ĠBy": 2181,
      "ead": 2182,
      "ON": 2183,
      "pril": 2184,
      "Ġphot": 2185,
      "05": 2186,
      "ht": 2187,
      "ables": 2188,
      "Ġnext": 2189,
      "Ġauth": 2190,
      "Ġperformance": 2191,
      "Ġpost": 2192,
      "Ġconstant": 2193,
      "Ġ*/": 2194,
      "field": 2195,
      "oman": 2196,
      "ĠAugust": 2197,
      "aster": 2198,
      "ither": 2199,
      "lish": 2200,
      "ze": 2201,
      "://": 2202,
      "andom": 2203,
      "Ġsignific": 2204,
      "ological": 2205,
      "eter": 2206,
      "ĠPol": 2207,
      "Ġoffic": 2208,
      "perature": 2209,
      "ĠSeptember": 2210,
      "alk": 2211,
      "Ġ--": 2212,
      "ino": 2213,
      "Ġanalysis": 2214,
      "mber": 2215,
      "ser": 2216,
      "Ġtimes": 2217,
      "Ġspe": 2218,
      "stit": 2219,
      "Ġproject": 2220,
      "Un": 2221,
      "Ġapproach": 2222,
      "lege": 2223,
      "Ġarg": 2224,
      "ung": 2225,
      "ources": 2226,
      "Ġmark": 2227,
      "ats": 2228,
      "Ġfurther": 2229,
      "time": 2230,
      "amples": 2231,
      "Ġcomplet": 2232,
      "Ġrange": 2233,
      "ling": 2234,
      "sup": 2235,
      "istor": 2236,
      "ĠJune": 2237,
      "thm": 2238,
      "ries": 2239,
      "Ġgood": 2240,
      "Ġparameter": 2241,
      "ĠĠĠĠĠĠ": 2242,
      "\\]": 2243,
      "ĠEuro": 2244,
      "Ġformer": 2245,
      "esc": 2246,
      "Ġearly": 2247,
      "draw": 2248,
      "ĠMan": 2249,
      "Ġvar": 2250,
      "Ġstandard": 2251,
      "ĠJuly": 2252,
      "ream": 2253,
      "Ġrate": 2254,
      "Ġindic": 2255,
      "max": 2256,
      "though": 2257,
      "ĠOctober": 2258,
      "ences": 2259,
      ")=\\": 2260,
      "Ġshort": 2261,
      "Res": 2262,
      "usion": 2263,
      "ĠAustral": 2264,
      "style": 2265,
      "Ġimportant": 2266,
      "ĠMin": 2267,
      "Ġpair": 2268,
      "Ġsuccess": 2269,
      "Ġhal": 2270,
      "empt": 2271,
      "urs": 2272,
      "off": 2273,
      "ius": 2274,
      "idual": 2275,
      "By": 2276,
      "zeta": 2277,
      "Ġphys": 2278,
      "lected": 2279,
      "ĠJanuary": 2280,
      "Ġcalcul": 2281,
      "ĠEq": 2282,
      "ĠGu": 2283,
      "Ġchang": 2284,
      "99": 2285,
      "Ġanother": 2286,
      "Ġ($": 2287,
      "Ġphase": 2288,
      "ography": 2289,
      "Ġbre": 2290,
      "Ġmot": 2291,
      "iron": 2292,
      "--------": 2293,
      "Ġyour": 2294,
      "ault": 2295,
      "Ġdiv": 2296,
      "aced": 2297,
      "ĠApril": 2298,
      "Ġ#": 2299,
      "01": 2300,
      "ĠTheorem": 2301,
      "Ġred": 2302,
      "64": 2303,
      "born": 2304,
      "}=\\": 2305,
      "self": 2306,
      "cember": 2307,
      "Ġsystems": 2308,
      "emma": 2309,
      "Ġsk": 2310,
      "Ġdimens": 2311,
      "ĠCal": 2312,
      "Ġrese": 2313,
      "}]": 2314,
      "Ġeas": 2315,
      "Ġfull": 2316,
      "ĠSte": 2317,
      "add": 2318,
      "Ġdetail": 2319,
      "Ġproduct": 2320,
      "Ġplayed": 2321,
      "arget": 2322,
      "Ġinvest": 2323,
      "Ġlinear": 2324,
      "Ġdat": 2325,
      "Ġwon": 2326,
      "ĠAp": 2327,
      "Ġinclude": 2328,
      "ĠNorth": 2329,
      "sl": 2330,
      "Ġcour": 2331,
      "key": 2332,
      "Ġcontrol": 2333,
      "Ġturn": 2334,
      "rap": 2335,
      "2000": 2336,
      "2005": 2337,
      ")}\\": 2338,
      "Ġview": 2339,
      "Ġlower": 2340,
      "ports": 2341,
      "const": 2342,
      "Ġproof": 2343,
      "Ġvol": 2344,
      "Ġatta": 2345,
      "Ġtit": 2346,
      "omorph": 2347,
      "alax": 2348,
      "ĠCity": 2349,
      "Ġperson": 2350,
      "Ġimpro": 2351,
      "iple": 2352,
      "Ġaut": 2353,
      "ĠReg": 2354,
      "Ġtrue": 2355,
      "Ġpubl": 2356,
      "org": 2357,
      "ients": 2358,
      "Ġside": 2359,
      "scal": 2360,
      "Ġmajor": 2361,
      "ml": 2362,
      ")^{": 2363,
      "inally": 2364,
      "Ġlight": 2365,
      "idered": 2366,
      "Ġfew": 2367,
      "Ġreleased": 2368,
      "Ġbus": 2369,
      "ilit": 2370,
      "ĠState": 2371,
      "ĠSp": 2372,
      "31": 2373,
      "Ġalgorithm": 2374,
      "Ġthough": 2375,
      "Ġcar": 2376,
      "AS": 2377,
      "Ġtraining": 2378,
      "top": 2379,
      "rag": 2380,
      "Ġ&=": 2381,
      "Ġeng": 2382,
      "ection": 2383,
      "ered": 2384,
      "uation": 2385,
      "reen": 2386,
      "Ġiss": 2387,
      "Ġlo": 2388,
      "essage": 2389,
      "ĠArt": 2390,
      "ham": 2391,
      "ĠSup": 2392,
      "div": 2393,
      "ĠNovember": 2394,
      "Ġfram": 2395,
      "Ġrandom": 2396,
      "Ġdel": 2397,
      "Ġcompet": 2398,
      "{(": 2399,
      "uk": 2400,
      "plement": 2401,
      "See": 2402,
      "ales": 2403,
      "~~": 2404,
      "Ġsignificant": 2405,
      "Ġide": 2406,
      "Ġmom": 2407,
      "ĠCo": 2408,
      "Ġsymm": 2409,
      "$)": 2410,
      "70": 2411,
      "ploy": 2412,
      "Ġerror": 2413,
      "Ġhigher": 2414,
      "chie": 2415,
      "anguage": 2416,
      "cdots": 2417,
      "Ġless": 2418,
      "Ġvector": 2419,
      "ĠSection": 2420,
      "alt": 2421,
      "Ġtemperature": 2422,
      "span": 2423,
      "Ġoriginal": 2424,
      "Ġconsist": 2425,
      "ĠDecember": 2426,
      "lor": 2427,
      "Ġcross": 2428,
      "asing": 2429,
      "icle": 2430,
      "Ġfree": 2431,
      "34": 2432,
      "Ġfinite": 2433,
      "Ġhy": 2434,
      "Ġconsidered": 2435,
      "ways": 2436,
      "}_\\": 2437,
      "}^\\": 2438,
      "ĠThese": 2439,
      "inter": 2440,
      "Ġmembers": 2441,
      "exp": 2442,
      "class": 2443,
      "ĠSy": 2444,
      "Ġlength": 2445,
      "cont": 2446,
      "otes": 2447,
      "order": 2448,
      "Ġcity": 2449,
      "widehat": 2450,
      "ĠThere": 2451,
      ";\\": 2452,
      "Ġconf": 2453,
      "RE": 2454,
      "ebru": 2455,
      "ĠBritish": 2456,
      "Ġhome": 2457,
      "ently": 2458,
      "Ġpath": 2459,
      "Ġconditions": 2460,
      "Ġleast": 2461,
      "Ġfrequ": 2462,
      "ww": 2463,
      "ĠUS": 2464,
      "Ġ\\{": 2465,
      "Ġland": 2466,
      "illion": 2467,
      "Ġcirc": 2468,
      "ebruary": 2469,
      "Ġaction": 2470,
      "ĠMe": 2471,
      "ush": 2472,
      "Ġaverage": 2473,
      "textwidth": 2474,
      "Ġinvol": 2475,
      "2004": 2476,
      "apan": 2477,
      "Ġsepar": 2478,
      "Ġmethods": 2479,
      "ID": 2480,
      "plies": 2481,
      "Ġlay": 2482,
      "inary": 2483,
      "Ġapplic": 2484,
      "ussian": 2485,
      "uman": 2486,
      "Ġfeatures": 2487,
      "ception": 2488,
      "ocus": 2489,
      "duct": 2490,
      ")(": 2491,
      "ĠWill": 2492,
      "ĠEurope": 2493,
      "Ġdynam": 2494,
      "Ġstar": 2495,
      "}|": 2496,
      "alse": 2497,
      "node": 2498,
      "ampionship": 2499,
      "side": 2500,
      "ailable": 2501,
      "Ġbirths": 2502,
      "Ġflow": 2503,
      "ster": 2504,
      "ĠLeague": 2505,
      "type": 2506,
      "Ġappear": 2507,
      "enc": 2508,
      "Ġthus": 2509,
      "Ġge": 2510,
      "osp": 2511,
      "Ġpopulation": 2512,
      "uted": 2513,
      "hold": 2514,
      "Ġimage": 2515,
      "Ġwomen": 2516,
      "Ġleg": 2517,
      "Ġep": 2518,
      "lement": 2519,
      "Ġdiff": 2520,
      "onal": 2521,
      "Ġsem": 2522,
      "95": 2523,
      "rr": 2524,
      "Ġchange": 2525,
      "ĠAss": 2526,
      "ĠĠĠĠĠĠĠĠĠĠĠĠĠĠĠĠĠĠĠ": 2527,
      "trans": 2528,
      "ocial": 2529,
      "arning": 2530,
      "Ġold": 2531,
      "Ġsit": 2532,
      "ille": 2533,
      "Ġsm": 2534,
      "('": 2535,
      "If": 2536,
      "Ġcases": 2537,
      "iven": 2538,
      "Ġday": 2539,
      "Ġweight": 2540,
      "ĠAfter": 2541,
      "lemma": 2542,
      ".~": 2543,
      "}}(": 2544,
      "Ġcy": 2545,
      "Ġinput": 2546,
      "ĠAf": 2547,
      "century": 2548,
      "ends": 2549,
      "Ġsuper": 2550,
      "2021": 2551,
      "ĠCor": 2552,
      "ĠPart": 2553,
      "ĠCanad": 2554,
      "36": 2555,
      "ĠNo": 2556,
      "ĠEn": 2557,
      "rary": 2558,
      "Ġpo": 2559,
      "which": 2560,
      "ĠKing": 2561,
      "netic": 2562,
      "Ġsource": 2563,
      "ula": 2564,
      "stand": 2565,
      "tic": 2566,
      "ideo": 2567,
      "Ġgrow": 2568,
      "script": 2569,
      "Ġbeg": 2570,
      "Ġindependent": 2571,
      "ana": 2572,
      "rite": 2573,
      "Ġrepl": 2574,
      "ney": 2575,
      "ivate": 2576,
      "Ġneg": 2577,
      "Ġpositive": 2578,
      "Ġloss": 2579,
      "ription": 2580,
      "Ġgovernment": 2581,
      "{{\\": 2582,
      "})\\": 2583,
      "04": 2584,
      "cos": 2585,
      "obal": 2586,
      "../": 2587,
      "AC": 2588,
      "Ġproperties": 2589,
      "Ġmanag": 2590,
      "Ġprom": 2591,
      "Ġrelations": 2592,
      "raft": 2593,
      "now": 2594,
      ",-": 2595,
      "ĠEd": 2596,
      "eneral": 2597,
      "Ġconstra": 2598,
      "Name": 2599,
      "Ar": 2600,
      "Ġcoll": 2601,
      "Psi": 2602,
      "ping": 2603,
      "Ġla": 2604,
      "foot": 2605,
      "Ġobserved": 2606,
      "Ġfilms": 2607,
      "Ġang": 2608,
      "Ġproposed": 2609,
      "Ġdiag": 2610,
      "ĠFebruary": 2611,
      "ev": 2612,
      "Ġdefine": 2613,
      "wed": 2614,
      "Ġvarious": 2615,
      "lete": 2616,
      "ĠFigure": 2617,
      "itions": 2618,
      "ably": 2619,
      "appro": 2620,
      "Ġassociated": 2621,
      "Ġlines": 2622,
      "AN": 2623,
      "qquad": 2624,
      "Ġthird": 2625,
      "Ġcover": 2626,
      "Ġwid": 2627,
      "ese": 2628,
      "rench": 2629,
      "cup": 2630,
      "Ġabs": 2631,
      "48": 2632,
      "name": 2633,
      "ĠII": 2634,
      "ĠBar": 2635,
      "Ġbelow": 2636,
      "Ġcommon": 2637,
      "Ġcompos": 2638,
      "}^{(": 2639,
      "Ġversion": 2640,
      "Ġprobability": 2641,
      "Ġarch": 2642,
      "Ġstation": 2643,
      "ourn": 2644,
      "dom": 2645,
      "Ġalign": 2646,
      "ĠMc": 2647,
      "gebra": 2648,
      "ope": 2649,
      "based": 2650,
      "ĠRep": 2651,
      "ĠChrist": 2652,
      "bor": 2653,
      "atural": 2654,
      "AL": 2655,
      "utes": 2656,
      "Ġlocated": 2657,
      "Ġhom": 2658,
      "Ã¡": 2659,
      "Ġnormal": 2660,
      "Ġconnect": 2661,
      "ony": 2662,
      "Ġsom": 2663,
      ")]": 2664,
      "Ġenc": 2665,
      "Ġcorre": 2666,
      "icol": 2667,
      "levision": 2668,
      "Ġnode": 2669,
      "Ġgalax": 2670,
      "ividual": 2671,
      "mathsf": 2672,
      "viron": 2673,
      "Ġclust": 2674,
      "&=": 2675,
      "65": 2676,
      "Ġeither": 2677,
      "ocal": 2678,
      "ĠHar": 2679,
      "Ġcareer": 2680,
      "most": 2681,
      "aken": 2682,
      "Ġpri": 2683,
      "pdf": 2684,
      "Ġestablished": 2685,
      "Ġbi": 2686,
      "2003": 2687,
      "gl": 2688,
      "Ġamong": 2689,
      "ising": 2690,
      "Ġcompany": 2691,
      "Ġzero": 2692,
      "Ġexists": 2693,
      "sin": 2694,
      "Ġblack": 2695,
      "Ġlog": 2696,
      "iff": 2697,
      "38": 2698,
      "uggest": 2699,
      "Ġmember": 2700,
      "Ġtown": 2701,
      "Ġkey": 2702,
      "Ġrecent": 2703,
      "ĠSince": 2704,
      "ounc": 2705,
      "Ġbehav": 2706,
      "08": 2707,
      "Ġfive": 2708,
      "}\\,": 2709,
      "ĠDist": 2710,
      "annel": 2711,
      "Ġavailable": 2712,
      "Ġcost": 2713,
      "xspace": 2714,
      "Ġspecial": 2715,
      "Ġnamed": 2716,
      "Ġmulti": 2717,
      "Ġfactor": 2718,
      "Ġseen": 2719,
      "Ġoften": 2720,
      "Ġsay": 2721,
      "Ġachie": 2722,
      "Ġnumer": 2723,
      "Ġequival": 2724,
      "Ġ$(\\": 2725,
      "ĠMed": 2726,
      "bb": 2727,
      "Ġjo": 2728,
      "chan": 2729,
      "ĠArm": 2730,
      "na": 2731,
      "Ġprovide": 2732,
      "ulations": 2733,
      "ĠPe": 2734,
      "ones": 2735,
      "ĠWest": 2736,
      "igen": 2737,
      "Type": 2738,
      "itor": 2739,
      "Ġhowever": 2740,
      "head": 2741,
      "Ġcompar": 2742,
      "return": 2743,
      "}\\\\": 2744,
      "Ġrefer": 2745,
      "Ġheld": 2746,
      "Ġcoupl": 2747,
      "Ġtook": 2748,
      "augh": 2749,
      "mar": 2750,
      "citet": 2751,
      "idence": 2752,
      "^+": 2753,
      "but": 2754,
      "ĠEnglish": 2755,
      "ĠSch": 2756,
      "American": 2757,
      "sing": 2758,
      "Ġcell": 2759,
      "tex": 2760,
      "oung": 2761,
      "ordin": 2762,
      "Ġrat": 2763,
      "aut": 2764,
      "wise": 2765,
      "Ġret": 2766,
      "Ġbegan": 2767,
      "03": 2768,
      "ĠLemma": 2769,
      "Ġvia": 2770,
      "ume": 2771,
      "oted": 2772,
      "Ġgames": 2773,
      "aul": 2774,
      "Ġconstruct": 2775,
      "Ġmatch": 2776,
      "iance": 2777,
      "ĠHam": 2778,
      "ged": 2779,
      "ĠOne": 2780,
      "Ġincluded": 2781,
      "htt": 2782,
      "2002": 2783,
      "Sh": 2784,
      "Ġhistory": 2785,
      "Ġquantum": 2786,
      "ving": 2787,
      "ours": 2788,
      "Ġbetter": 2789,
      "uck": 2790,
      "Ġclub": 2791,
      "ials": 2792,
      "Ġevents": 2793,
      "Ġsw": 2794,
      "ĠJapan": 2795,
      "small": 2796,
      "Ġmoment": 2797,
      "hspace": 2798,
      "ondon": 2799,
      "Ġlook": 2800,
      "lin": 2801,
      "plied": 2802,
      "ey": 2803,
      "Ġfixed": 2804,
      "Ġ&\\": 2805,
      "adem": 2806,
      "go": 2807,
      "Ġage": 2808,
      "Ġsuggest": 2809,
      "ĠHis": 2810,
      "Ġsurface": 2811,
      "prop": 2812,
      "br": 2813,
      "Ġwritten": 2814,
      "02": 2815,
      "Ġrole": 2816,
      "Ġeval": 2817,
      "Ġelement": 2818,
      "uture": 2819,
      "uration": 2820,
      "Ġfore": 2821,
      "iles": 2822,
      "Ġfocus": 2823,
      "Ġhouse": 2824,
      "Ġsche": 2825,
      "Ġreceived": 2826,
      "rie": 2827,
      "====": 2828,
      "Ġmeans": 2829,
      "06": 2830,
      "ache": 2831,
      "conom": 2832,
      "37": 2833,
      "Ġinfl": 2834,
      "value": 2835,
      "Ġplan": 2836,
      "mat": 2837,
      "Ġclaim": 2838,
      "ertain": 2839,
      "ief": 2840,
      "Ġstep": 2841,
      "07": 2842,
      "OR": 2843,
      "Ġdetect": 2844,
      "Ġsix": 2845,
      "Ġsequence": 2846,
      "cle": 2847,
      "Ġregular": 2848,
      "och": 2849,
      "param": 2850,
      "Ġemb": 2851,
      "Ġdistance": 2852,
      "Ġassume": 2853,
      "Ġspin": 2854,
      "SE": 2855,
      "bur": 2856,
      "Ġbuilt": 2857,
      "arried": 2858,
      "Ġbecom": 2859,
      "Ġvill": 2860,
      "Ġprim": 2861,
      "')": 2862,
      "Ġpract": 2863,
      "ti": 2864,
      "Ġexperiment": 2865,
      "rew": 2866,
      "}+\\": 2867,
      "09": 2868,
      "2001": 2869,
      "Ġaccount": 2870,
      "Ġlarger": 2871,
      "Ġdev": 2872,
      "function": 2873,
      "Ġstyle": 2874,
      "rick": 2875,
      "raction": 2876,
      "mid": 2877,
      "Ġoperator": 2878,
      "ressed": 2879,
      "ooks": 2880,
      "Ġexpected": 2881,
      "LE": 2882,
      "Ġtext": 2883,
      "indent": 2884,
      "ford": 2885,
      "Ġlearning": 2886,
      "Ġwater": 2887,
      "Ġlabel": 2888,
      "Ġhaving": 2889,
      "ĠSan": 2890,
      "Pl": 2891,
      "Ġsimple": 2892,
      "rown": 2893,
      "ĠAir": 2894,
      "eder": 2895,
      "Ġservice": 2896,
      "ules": 2897,
      "abor": 2898,
      "Ġelements": 2899,
      "Ġport": 2900,
      "Ġquest": 2901,
      "Ġindividual": 2902,
      "Ġgreat": 2903,
      "ee": 2904,
      "}:": 2905,
      "Ġwant": 2906,
      "]$": 2907,
      "operat": 2908,
      "Ġbecome": 2909,
      "Ġanaly": 2910,
      "Ġspecies": 2911,
      "itect": 2912,
      "Ġ!": 2913,
      "Ġgroups": 2914,
      "Ġpublished": 2915,
      "ibility": 2916,
      "Ġfac": 2917,
      "gether": 2918,
      "Ġtogether": 2919,
      "({\\": 2920,
      "Ind": 2921,
      "eloc": 2922,
      "cret": 2923,
      "44": 2924,
      "Ġsample": 2925,
      "ĠWith": 2926,
      "Ġground": 2927,
      "ĠMore": 2928,
      "Ġconver": 2929,
      "Ġprote": 2930,
      "ĠAfric": 2931,
      "Ġscale": 2932,
      "}}{\\": 2933,
      "ĠBut": 2934,
      "Ġdatas": 2935,
      "],": 2936,
      "ips": 2937,
      "ops": 2938,
      "ret": 2939,
      "Ġauthor": 2940,
      "defin": 2941,
      "ĠEl": 2942,
      "AM": 2943,
      "icy": 2944,
      "|^": 2945,
      "Ġfund": 2946,
      "operatorn": 2947,
      "IC": 2948,
      "Ġworks": 2949,
      "Ġbook": 2950,
      "></": 2951,
      "dimens": 2952,
      "ĠCollege": 2953,
      "Ġprofess": 2954,
      "Ġcam": 2955,
      "Ġtw": 2956,
      "DE": 2957,
      "Ġgive": 2958,
      "ems": 2959,
      "equiv": 2960,
      "Ġbegin": 2961,
      "Val": 2962,
      "Ġill": 2963,
      "}-\\": 2964,
      "size": 2965,
      "operatorname": 2966,
      "Ġunit": 2967,
      "List": 2968,
      "Ġexact": 2969,
      "tical": 2970,
      "semb": 2971,
      "39": 2972,
      "neq": 2973,
      "Ġdep": 2974,
      "cast": 2975,
      "Ġtarget": 2976,
      "Ġboundary": 2977,
      "Ġhelp": 2978,
      "iction": 2979,
      "Ġdenote": 2980,
      "reet": 2981,
      "55": 2982,
      "Ġlik": 2983,
      "edd": 2984,
      "cell": 2985,
      "ĠLondon": 2986,
      "ĠHigh": 2987,
      "iber": 2988,
      "Ġrelated": 2989,
      "avy": 2990,
      "skip": 2991,
      "'$": 2992,
      "ittle": 2993,
      "ready": 2994,
      "ĉĊ": 2995,
      "uff": 2996,
      "Ġcorrel": 2997,
      "star": 2998,
      "ĠMon": 2999,
      "ouncil": 3000,
      "Ġproperty": 3001,
      "Ġresearch": 3002,
      "Ġrequire": 3003,
      "aly": 3004,
      "Ġbusiness": 3005,
      "ults": 3006,
      "BC": 3007,
      "Ġchildren": 3008,
      "Ġair": 3009,
      "ĠWhen": 3010,
      "import": 3011,
      "ware": 3012,
      "Ġnational": 3013,
      "Id": 3014,
      "hib": 3015,
      "Ġtre": 3016,
      "Ġclose": 3017,
      "hood": 3018,
      "Ġacross": 3019,
      ")-": 3020,
      "Ġequations": 3021,
      "vironment": 3022,
      "Ġveloc": 3023,
      "opy": 3024,
      "Ġeduc": 3025,
      "ilities": 3026,
      "gen": 3027,
      "ocument": 3028,
      "aches": 3029,
      "ued": 3030,
      "ĠThus": 3031,
      "map": 3032,
      "Ġbuilding": 3033,
      "cher": 3034,
      "multicol": 3035,
      "ront": 3036,
      "ariant": 3037,
      "lation": 3038,
      "Ġmen": 3039,
      "ĠAm": 3040,
      "ponse": 3041,
      "rain": 3042,
      "ington": 3043,
      "Ġplayer": 3044,
      "Ġinvestig": 3045,
      "Ġtaken": 3046,
      "izing": 3047,
      "Ġbase": 3048,
      "Ġdou": 3049,
      "ĠDav": 3050,
      "ty": 3051,
      "Ġedge": 3052,
      "ogn": 3053,
      "iet": 3054,
      "umerate": 3055,
      "ĠChar": 3056,
      "Ġdegree": 3057,
      "multicolumn": 3058,
      "IT": 3059,
      "Ġnull": 3060,
      "98": 3061,
      "td": 3062,
      "itted": 3063,
      "note": 3064,
      "Ġhard": 3065,
      "onic": 3066,
      "ĠWilliam": 3067,
      "Ġresp": 3068,
      "Ġgen": 3069,
      "Ġfail": 3070,
      "theorem": 3071,
      "Ġhalf": 3072,
      "verse": 3073,
      "Ġdomain": 3074,
      "Ġ-\\": 3075,
      "Ġtitle": 3076,
      "Int": 3077,
      "Ġgives": 3078,
      "ĠRo": 3079,
      "ĠQu": 3080,
      "itemize": 3081,
      "ĠHer": 3082,
      "Ġ&&": 3083,
      "ilitary": 3084,
      "Ġbackground": 3085,
      "medi": 3086,
      "ĠHouse": 3087,
      "estern": 3088,
      "Ġstars": 3089,
      "ĠFrench": 3090,
      "Ġwind": 3091,
      "ooth": 3092,
      "rim": 3093,
      "enumerate": 3094,
      "rated": 3095,
      "ĠPres": 3096,
      "Ġserved": 3097,
      "yl": 3098,
      "Ġround": 3099,
      "Ġwar": 3100,
      "âĢĶ": 3101,
      "scale": 3102,
      "Ġcontains": 3103,
      "Ġfig": 3104,
      "Ġsent": 3105,
      "more": 3106,
      "uild": 3107,
      "Pe": 3108,
      "icro": 3109,
      ")}{": 3110,
      "ured": 3111,
      "><": 3112,
      "ulated": 3113,
      "ension": 3114,
      "iform": 3115,
      "unic": 3116,
      "ishing": 3117,
      "Ġsens": 3118,
      "Ġarm": 3119,
      "ĠSo": 3120,
      "ĠAmeric": 3121,
      "Ġmater": 3122,
      "ĠAb": 3123,
      "Ġborn": 3124,
      "Ġcentury": 3125,
      "Ġfields": 3126,
      "Ġinc": 3127,
      "call": 3128,
      "ĠPark": 3129,
      "umb": 3130,
      "itting": 3131,
      "ĠChampionship": 3132,
      "ĠPer": 3133,
      "Ġreview": 3134,
      "kn": 3135,
      "ridge": 3136,
      "47": 3137,
      "Ġcaus": 3138,
      "Col": 3139,
      "Ġrequired": 3140,
      "Ġimplement": 3141,
      "String": 3142,
      "racy": 3143,
      "EN": 3144,
      "Ġproduction": 3145,
      "pact": 3146,
      "astic": 3147,
      "Ġconstraint": 3148,
      "ĠChe": 3149,
      "ĠAg": 3150,
      "noindent": 3151,
      "reed": 3152,
      "ĠBro": 3153,
      "like": 3154,
      "Ġconc": 3155,
      "Ġmetric": 3156,
      "Ġadditional": 3157,
      "scr": 3158,
      "plicit": 3159,
      "ards": 3160,
      "ending": 3161,
      "Ġtherefore": 3162,
      "Ġable": 3163,
      "Ġproduced": 3164,
      "Ġalways": 3165,
      "Ġpan": 3166,
      "vspace": 3167,
      "king": 3168,
      "49": 3169,
      "ĠSer": 3170,
      "}}_": 3171,
      "85": 3172,
      "rig": 3173,
      "Ġfar": 3174,
      "Ġapply": 3175,
      "ĠAng": 3176,
      "ĠDistrict": 3177,
      "Ġaccess": 3178,
      "rant": 3179,
      "aries": 3180,
      "Ġalready": 3181,
      "Ġholds": 3182,
      "ĠGl": 3183,
      "\\}": 3184,
      "Ġsets": 3185,
      "Ġsite": 3186,
      "alle": 3187,
      "Ġimplies": 3188,
      "dimensional": 3189,
      "ming": 3190,
      "sw": 3191,
      "AP": 3192,
      "era": 3193,
      "ĠGerman": 3194,
      "Ġhost": 3195,
      "Ġwhose": 3196,
      "fill": 3197,
      "Ġstring": 3198,
      "test": 3199,
      "unc": 3200,
      "Ġsqu": 3201,
      "]\\": 3202,
      "IS": 3203,
      "Ġcoe": 3204,
      "Ġnov": 3205,
      "Ġ\\|": 3206,
      "pan": 3207,
      "data": 3208,
      "ights": 3209,
      "Ġcountry": 3210,
      "Ap": 3211,
      "Ġpresented": 3212,
      "Ġneigh": 3213,
      "Ġdistrict": 3214,
      "ceed": 3215,
      "lymp": 3216,
      "Ġbo": 3217,
      "Ġdefinition": 3218,
      "Ġdevelopment": 3219,
      "dag": 3220,
      "down": 3221,
      "Ġannoun": 3222,
      "itz": 3223,
      "ĠDep": 3224,
      "Ġes": 3225,
      "cis": 3226,
      "acy": 3227,
      "aves": 3228,
      "Ġprovided": 3229,
      "Ġaccording": 3230,
      "Ġeffects": 3231,
      "ĠLa": 3232,
      "1999": 3233,
      "Ġear": 3234,
      "Ġdon": 3235,
      "Ġelse": 3236,
      "Ġoptim": 3237,
      "Ġtelevision": 3238,
      ")}$": 3239,
      "__": 3240,
      "istics": 3241,
      "itch": 3242,
      "$}": 3243,
      "Ġmight": 3244,
      "Ġmechan": 3245,
      "ctors": 3246,
      "iding": 3247,
      "66": 3248,
      "ĠInternational": 3249,
      "ĠSim": 3250,
      "ĠNe": 3251,
      "Ġmiss": 3252,
      "Ġcentral": 3253,
      "Ġ:=": 3254,
      "Ġtoo": 3255,
      "inn": 3256,
      "Ġoutput": 3257,
      "ĠCup": 3258,
      "atively": 3259,
      "Ġkill": 3260,
      "cing": 3261,
      "group": 3262,
      "mon": 3263,
      "Ġperformed": 3264,
      "Ġcut": 3265,
      "Le": 3266,
      "ĠPhil": 3267,
      "\\}$": 3268,
      "Ġnecess": 3269,
      "Ġnatural": 3270,
      "ements": 3271,
      "ked": 3272,
      "ara": 3273,
      "97": 3274,
      "andid": 3275,
      "AA": 3276,
      "ĠFirst": 3277,
      "Ġcompared": 3278,
      "Ġcateg": 3279,
      "ds": 3280,
      "Ġcontext": 3281,
      "Ġvideo": 3282,
      "mary": 3283,
      "code": 3284,
      "ama": 3285,
      "ociation": 3286,
      "ires": 3287,
      "Ġemploy": 3288,
      "At": 3289,
      "Ã³": 3290,
      "Ġput": 3291,
      "Ġindex": 3292,
      "Ġcommunity": 3293,
      "Ġconstruction": 3294,
      "Ġbroad": 3295,
      "ĠYou": 3296,
      "Ġsolutions": 3297,
      "iforn": 3298,
      "Ġfalse": 3299,
      "ste": 3300,
      "approx": 3301,
      "96": 3302,
      "Ġimages": 3303,
      "}}}": 3304,
      "ilton": 3305,
      "Ġmer": 3306,
      "Ġgas": 3307,
      "Ġeffective": 3308,
      "olic": 3309,
      "inde": 3310,
      "Ġmultiple": 3311,
      "Ġprivate": 3312,
      "attle": 3313,
      "Since": 3314,
      "ota": 3315,
      "Ġprove": 3316,
      "âĢľ": 3317,
      "Ġcreated": 3318,
      "Ġmagnetic": 3319,
      "1998": 3320,
      "Ġspecific": 3321,
      "Ġcertain": 3322,
      "Ġweak": 3323,
      "Ġhuman": 3324,
      "Ġnote": 3325,
      "html": 3326,
      "fact": 3327,
      "{}": 3328,
      "Ġclosed": 3329,
      "Ġnorth": 3330,
      "ha": 3331,
      "\\,\\": 3332,
      "Ġequal": 3333,
      "ottom": 3334,
      "Ġreason": 3335,
      "Ġcode": 3336,
      "iments": 3337,
      ".âĢĿ": 3338,
      "(-": 3339,
      "oon": 3340,
      "ĠMich": 3341,
      "ournal": 3342,
      "Ġreported": 3343,
      "pol": 3344,
      "ifornia": 3345,
      "Ġnum": 3346,
      "Ġmaking": 3347,
      "Ġbasis": 3348,
      "Ġenough": 3349,
      "mathscr": 3350,
      "split": 3351,
      "state": 3352,
      "gence": 3353,
      "ĠIndian": 3354,
      "NN": 3355,
      "Ġspectrum": 3356,
      "Ġfuture": 3357,
      "En": 3358,
      "Ġconfig": 3359,
      "With": 3360,
      "ls": 3361,
      "46": 3362,
      "Ġmillion": 3363,
      "Ġcomponent": 3364,
      "inated": 3365,
      "isc": 3366,
      "ociety": 3367,
      "CC": 3368,
      "ĠVal": 3369,
      "itude": 3370,
      "Ġrepresentation": 3371,
      "Ġrelation": 3372,
      "Ġcult": 3373,
      "roll": 3374,
      "ĠGa": 3375,
      "Ġtransform": 3376,
      "Ġdied": 3377,
      "ĠAct": 3378,
      "Ġinstead": 3379,
      "Ġpress": 3380,
      "Ġrather": 3381,
      "88": 3382,
      "my": 3383,
      "{$": 3384,
      "opl": 3385,
      "orge": 3386,
      "Ġgenerated": 3387,
      "that": 3388,
      "minist": 3389,
      "ĠFrom": 3390,
      "omb": 3391,
      "nder": 3392,
      "2022": 3393,
      "Ġcoordin": 3394,
      "band": 3395,
      "Ġalgebra": 3396,
      "Ġdirection": 3397,
      "Ġexec": 3398,
      "Ġ_{": 3399,
      "Ġintroduced": 3400,
      "Ġnever": 3401,
      "izes": 3402,
      "linear": 3403,
      "Ġled": 3404,
      "fo": 3405,
      "Ġcomplete": 3406,
      "Ġdifference": 3407,
      "Ġcheck": 3408,
      "norm": 3409,
      "tage": 3410,
      "Ġestimate": 3411,
      "\")": 3412,
      "1990": 3413,
      "Ġvelocity": 3414,
      "CO": 3415,
      "ellow": 3416,
      "Ġsyn": 3417,
      "Ġinstance": 3418,
      "iddle": 3419,
      "lands": 3420,
      "Ġflu": 3421,
      "Ġsett": 3422,
      "Ġliter": 3423,
      "Ġrot": 3424,
      "Pi": 3425,
      "Ġwave": 3426,
      "Ġcannot": 3427,
      "Ġattack": 3428,
      "Ġcomponents": 3429,
      "New": 3430,
      "ÃŃ": 3431,
      "Ġ$\\{": 3432,
      "Ġdays": 3433,
      "vey": 3434,
      "Ġengine": 3435,
      "Ġlate": 3436,
      ")+": 3437,
      "Ġevolution": 3438,
      "Ġsignal": 3439,
      "mark": 3440,
      "Ġtrack": 3441,
      "Ġyield": 3442,
      "hern": 3443,
      "Ġalmost": 3444,
      "Ġsocial": 3445,
      "actions": 3446,
      "Ġmaximum": 3447,
      "Ġblock": 3448,
      "atives": 3449,
      "ĠTherefore": 3450,
      "Ġactiv": 3451,
      "Living": 3452,
      "bound": 3453,
      "ework": 3454,
      "Ġupper": 3455,
      "useum": 3456,
      "ĠAustralia": 3457,
      "Ġstory": 3458,
      "known": 3459,
      "~$": 3460,
      "Ġwhether": 3461,
      "Ġarchitect": 3462,
      "Ġson": 3463,
      "Ġlanguage": 3464,
      "Ġce": 3465,
      "Ġcapt": 3466,
      "ili": 3467,
      "ĠTra": 3468,
      "ĠEngland": 3469,
      "ĠCalifornia": 3470,
      "Ġpur": 3471,
      "aps": 3472,
      "oms": 3473,
      "ĠDiv": 3474,
      "underline": 3475,
      "textrm": 3476,
      "ura": 3477,
      "earch": 3478,
      "Ad": 3479,
      "ĠAc": 3480,
      "Ġcle": 3481,
      "Ġstarted": 3482,
      "que": 3483,
      "ario": 3484,
      "Ġthink": 3485,
      "Ġfri": 3486,
      "Ġcame": 3487,
      "Ġ==": 3488,
      "rs": 3489,
      "Ġsouth": 3490,
      "Ġvillage": 3491,
      "leg": 3492,
      "Ġeigen": 3493,
      "PS": 3494,
      "ĠRec": 3495,
      "cted": 3496,
      "Ã¼": 3497,
      "Ġleading": 3498,
      "Ġcolumn": 3499,
      "From": 3500,
      "icult": 3501,
      "Sc": 3502,
      "nce": 3503,
      "ccording": 3504,
      "Ġweek": 3505,
      "67": 3506,
      "Ġexplain": 3507,
      "ĠTable": 3508,
      "rule": 3509,
      "EC": 3510,
      "There": 3511,
      "\\!\\!": 3512,
      "Ġhor": 3513,
      "Ġdeveloped": 3514,
      "ounter": 3515,
      "ĠRiver": 3516,
      "Ġinflu": 3517,
      "ship": 3518,
      "ynom": 3519,
      "Ġprinc": 3520,
      "iting": 3521,
      "Ob": 3522,
      "ken": 3523,
      "ky": 3524,
      "Ġsmaller": 3525,
      "load": 3526,
      "Ġvariables": 3527,
      "}^{-": 3528,
      "Ġaway": 3529,
      "1997": 3530,
      "berg": 3531,
      "Ġoccur": 3532,
      "Ġprior": 3533,
      "tee": 3534,
      "bert": 3535,
      "||": 3536,
      "../../": 3537,
      "Ġstrateg": 3538,
      "aff": 3539,
      "Set": 3540,
      "People": 3541,
      "Ġneut": 3542,
      "Ġentire": 3543,
      "Ġbody": 3544,
      "Ġtransition": 3545,
      "Ġlearn": 3546,
      "minus": 3547,
      "oe": 3548,
      "Mod": 3549,
      "ying": 3550,
      "Ġparticip": 3551,
      "ĠIndia": 3552,
      "irt": 3553,
      "la": 3554,
      "Ġapplied": 3555,
      "}}_{": 3556,
      "ensor": 3557,
      "87": 3558,
      "Ġvalid": 3559,
      "from": 3560,
      "1996": 3561,
      "arily": 3562,
      "ĠSw": 3563,
      "ledge": 3564,
      "Ġrestrict": 3565,
      "Data": 3566,
      "Fil": 3567,
      "Ġupd": 3568,
      "Ġsources": 3569,
      "Ġratio": 3570,
      "Ġhistor": 3571,
      "Ġdemon": 3572,
      "Theta": 3573,
      "ander": 3574,
      "texttt": 3575,
      "ĠTr": 3576,
      "Then": 3577,
      "][": 3578,
      "ES": 3579,
      "ĠRoy": 3580,
      "Ġonce": 3581,
      "ivil": 3582,
      "42": 3583,
      "Ġcontinuous": 3584,
      "Ġ\\;": 3585,
      "Ġattempt": 3586,
      "ĠRepublic": 3587,
      "rast": 3588,
      "uit": 3589,
      "IM": 3590,
      "ico": 3591,
      "Ġmoved": 3592,
      "Ġincrease": 3593,
      "ĠComp": 3594,
      "Ġchanges": 3595,
      "ranch": 3596,
      "Ġscen": 3597,
      "ville": 3598,
      "Ġglobal": 3599,
      "osen": 3600,
      "Ġbreak": 3601,
      "Ġclear": 3602,
      "ĠEast": 3603,
      "ĠParty": 3604,
      "Ġcandid": 3605,
      "Ge": 3606,
      "Ġbecomes": 3607,
      "vis": 3608,
      "Ġdecre": 3609,
      "Ġdest": 3610,
      "Ġestablish": 3611,
      "gress": 3612,
      "Ġgrad": 3613,
      "subseteq": 3614,
      "Ġsoft": 3615,
      "Ġtaking": 3616,
      "igned": 3617,
      "Ġuser": 3618,
      "clusion": 3619,
      "////": 3620,
      "Ġtransfer": 3621,
      "icture": 3622,
      "Ġdirectly": 3623,
      "dist": 3624,
      "Ġstudies": 3625,
      "ĠBel": 3626,
      "Ġmatter": 3627,
      "Ġfem": 3628,
      "Ġelectron": 3629,
      "elling": 3630,
      "source": 3631,
      "Ġtreat": 3632,
      "oph": 3633,
      "Ġcenter": 3634,
      "Ġfather": 3635,
      "After": 3636,
      "Ġpeak": 3637,
      "Ġaff": 3638,
      "volution": 3639,
      "gs": 3640,
      "ya": 3641,
      "Ġdone": 3642,
      "string": 3643,
      "mit": 3644,
      "footnote": 3645,
      "Ġ%": 3646,
      "auge": 3647,
      "CD": 3648,
      "Ġhapp": 3649,
      "Ġphysical": 3650,
      "Ġtheorem": 3651,
      "year": 3652,
      "ED": 3653,
      "Ġproblems": 3654,
      "Ġothers": 3655,
      "Ġfrequency": 3656,
      "Ġgeom": 3657,
      "Ġepis": 3658,
      "icles": 3659,
      "Ġprovides": 3660,
      "ached": 3661,
      "Ġwent": 3662,
      "Ġnuc": 3663,
      "ump": 3664,
      "util": 3665,
      "43": 3666,
      "ervice": 3667,
      "pen": 3668,
      "Ġgoal": 3669,
      "Ġprop": 3670,
      "ĠDi": 3671,
      "rence": 3672,
      "light": 3673,
      "Ġunderstand": 3674,
      "ĠBer": 3675,
      "Ġwrite": 3676,
      "Ġbelie": 3677,
      "Ġflux": 3678,
      "Ġmale": 3679,
      "All": 3680,
      "ĠAmerica": 3681,
      "mag": 3682,
      "OS": 3683,
      "riate": 3684,
      "Ġstudents": 3685,
      "Ġdimension": 3686,
      "den": 3687,
      "Ġcr": 3688,
      "ĠMark": 3689,
      "Ġevalu": 3690,
      "ully": 3691,
      "Ġpopular": 3692,
      "Ġannounced": 3693,
      "Ġsold": 3694,
      "atory": 3695,
      "Ġmeet": 3696,
      "History": 3697,
      ",\"": 3698,
      "Ġindust": 3699,
      "ĠNote": 3700,
      "}},": 3701,
      "Ġadj": 3702,
      "Ġenvironment": 3703,
      "ĠMod": 3704,
      "77": 3705,
      "long": 3706,
      "ica": 3707,
      "Ġequivalent": 3708,
      "ĠĠĠĠĠĠĠĠĠĠĠĠĠ": 3709,
      "rup": 3710,
      "Ġchannel": 3711,
      "********": 3712,
      "setminus": 3713,
      "ĠMy": 3714,
      "Ġrow": 3715,
      "Ġ$|": 3716,
      "stitute": 3717,
      "<\\": 3718,
      "display": 3719,
      "Ġworking": 3720,
      "gcolor": 3721,
      "Ġ=>": 3722,
      "ensive": 3723,
      "Ġpa": 3724,
      "Ġservices": 3725,
      "ĠPresident": 3726,
      "68": 3727,
      "^-": 3728,
      "ocation": 3729,
      "ĠMor": 3730,
      "ills": 3731,
      "Ġobservations": 3732,
      "Ġconduct": 3733,
      "Ġcolor": 3734,
      "artment": 3735,
      "ĠAward": 3736,
      "rate": 3737,
      "ĠCouncil": 3738,
      "Ġ($\\": 3739,
      "Ġgoing": 3740,
      "Ġvoid": 3741,
      "&&": 3742,
      "ĠPort": 3743,
      "ids": 3744,
      "taint": 3745,
      "han": 3746,
      "comp": 3747,
      "ĠOlymp": 3748,
      "Ġadvan": 3749,
      "Ġincreasing": 3750,
      "Ġunique": 3751,
      "Ġdeaths": 3752,
      "Ġregions": 3753,
      "}/": 3754,
      "list": 3755,
      "Ġpolitical": 3756,
      "ĠMal": 3757,
      "Ġarr": 3758,
      "Ġresponse": 3759,
      "normal": 3760,
      "Ġobjects": 3761,
      "ael": 3762,
      "Ġnoise": 3763,
      "Note": 3764,
      "Ġfit": 3765,
      "iers": 3766,
      "].": 3767,
      "1995": 3768,
      "ĠEuropean": 3769,
      "Ġtradition": 3770,
      "alls": 3771,
      "bsite": 3772,
      "Ġsetting": 3773,
      "command": 3774,
      "ĠHol": 3775,
      "Ġeconom": 3776,
      "Ġchoice": 3777,
      "ĠStud": 3778,
      "ĠDr": 3779,
      "1980": 3780,
      "Ġ$-": 3781,
      "prod": 3782,
      "Ġdifficult": 3783,
      "ratic": 3784,
      "Ġbehavior": 3785,
      "}'": 3786,
      "Ġrecogn": 3787,
      "ĠPal": 3788,
      "ores": 3789,
      "nection": 3790,
      "ĠĠĠĠĊ": 3791,
      "Ġsubject": 3792,
      "bigg": 3793,
      "ansion": 3794,
      "Ġstage": 3795,
      "Ġhref": 3796,
      "^{-\\": 3797,
      "Ġtry": 3798,
      "Ġviol": 3799,
      "lying": 3800,
      "ka": 3801,
      "ĠTrans": 3802,
      "Ġamount": 3803,
      "level": 3804,
      "Ġgalaxies": 3805,
      "Ġund": 3806,
      "Ġuncer": 3807,
      "change": 3808,
      "allel": 3809,
      "Wh": 3810,
      "$_": 3811,
      "ĠCour": 3812,
      "Ġbig": 3813,
      "aged": 3814,
      "Be": 3815,
      "ipal": 3816,
      "Ġpolynom": 3817,
      "ĠSm": 3818,
      "Ġaward": 3819,
      "Ġradio": 3820,
      "attice": 3821,
      "Ġcompan": 3822,
      "500": 3823,
      "Ġrob": 3824,
      "ustom": 3825,
      "oney": 3826,
      "Ġcritical": 3827,
      "Ġstudied": 3828,
      "inos": 3829,
      "Ġareas": 3830,
      "Ġrelative": 3831,
      "ners": 3832,
      "anish": 3833,
      "ellar": 3834,
      "ĠĠĠĊ": 3835,
      "Ġinternational": 3836,
      "Ġincludes": 3837,
      "Ġnumbers": 3838,
      "Ġsearch": 3839,
      "ĠChurch": 3840,
      "uel": 3841,
      "can": 3842,
      "ĠFrance": 3843,
      "tra": 3844,
      "Ġbgcolor": 3845,
      "Ġwidth": 3846,
      "41": 3847,
      "ĠDes": 3848,
      "Ġelection": 3849,
      "ĠÐ": 3850,
      "rian": 3851,
      "ĠThom": 3852,
      "ĠGeneral": 3853,
      "linewidth": 3854,
      "atal": 3855,
      "ĠRed": 3856,
      "oud": 3857,
      "Ġallows": 3858,
      "ln": 3859,
      "Ġemission": 3860,
      "Ġinequ": 3861,
      "ĠArmy": 3862,
      "57": 3863,
      "Ġdetermined": 3864,
      "ĠPaul": 3865,
      "ites": 3866,
      "ted": 3867,
      "Ġtask": 3868,
      "Ġtakes": 3869,
      "ĠGerm": 3870,
      "MS": 3871,
      "ĠDem": 3872,
      "ĠJames": 3873,
      "Ġyoung": 3874,
      "rd": 3875,
      "Ġ(-": 3876,
      "Ġwords": 3877,
      "Ġiter": 3878,
      "ened": 3879,
      "rote": 3880,
      "ĠCanada": 3881,
      "Ġderiv": 3882,
      "Ġax": 3883,
      "orthern": 3884,
      "Ġmakes": 3885,
      "ĠRober": 3886,
      "Ġtypes": 3887,
      "ava": 3888,
      "ket": 3889,
      "Ġdetails": 3890,
      "ountain": 3891,
      "tact": 3892,
      "ĠCont": 3893,
      "clus": 3894,
      "LL": 3895,
      "Te": 3896,
      "Ġintegral": 3897,
      "Ġmid": 3898,
      "_+": 3899,
      "Ġadded": 3900,
      "rices": 3901,
      "Ġkm": 3902,
      "Ġhence": 3903,
      "_{(": 3904,
      "eline": 3905,
      "ui": 3906,
      "Ġconnected": 3907,
      "Ġalthough": 3908,
      "Ġuniform": 3909,
      "Ġsmooth": 3910,
      "Ġillust": 3911,
      "oplus": 3912,
      "length": 3913,
      "1994": 3914,
      "uracy": 3915,
      "dagger": 3916,
      "Ġmention": 3917,
      "Ġparts": 3918,
      "otic": 3919,
      "Ġsufficient": 3920,
      "omorphism": 3921,
      ")|": 3922,
      "ĠQue": 3923,
      "ifold": 3924,
      "58": 3925,
      "ashed": 3926,
      "Ġaffect": 3927,
      ".)": 3928,
      "subfigure": 3929,
      "Ġeff": 3930,
      "encies": 3931,
      "ĠStreet": 3932,
      "Ġmarket": 3933,
      "Ġclassical": 3934,
      "imate": 3935,
      "Ġroad": 3936,
      "Ġtable": 3937,
      "US": 3938,
      "Ġquestion": 3939,
      "uments": 3940,
      "Ġoperators": 3941,
      "reng": 3942,
      "bul": 3943,
      "Ġregard": 3944,
      "ios": 3945,
      "Ġsymmetry": 3946,
      "Ġchall": 3947,
      "Ġdemonstr": 3948,
      "ĠSum": 3949,
      "Ġkeep": 3950,
      "curity": 3951,
      "Ġ()": 3952,
      "Ġresulting": 3953,
      "Ġhealth": 3954,
      "Ġpast": 3955,
      "uz": 3956,
      "56": 3957,
      "Ġworked": 3958,
      "flo": 3959,
      "Ġsuccessful": 3960,
      "path": 3961,
      "Ġ$[": 3962,
      "ĠJe": 3963,
      "Ġcome": 3964,
      "Ġlittle": 3965,
      "Ġconclud": 3966,
      "Ġproced": 3967,
      "asons": 3968,
      "wedge": 3969,
      "Ġinteraction": 3970,
      "Ġpattern": 3971,
      "ender": 3972,
      "di": 3973,
      "93": 3974,
      "hel": 3975,
      "ĠOb": 3976,
      "And": 3977,
      "Ġdataset": 3978,
      "AD": 3979,
      "Ġbounded": 3980,
      "utive": 3981,
      "ĠCons": 3982,
      "Ġcreate": 3983,
      "iation": 3984,
      "ini": 3985,
      "Cont": 3986,
      "Ġnovel": 3987,
      "Ġforce": 3988,
      "ĠThat": 3989,
      "Ġreturned": 3990,
      "multi": 3991,
      "($": 3992,
      "Ġpay": 3993,
      "ĠDavid": 3994,
      "Ġpolitic": 3995,
      "ĠMa": 3996,
      "outher": 3997,
      "ĠRoman": 3998,
      "Ġuses": 3999,
      "pite": 4000,
      "IR": 4001,
      "ĠList": 4002,
      "Ġcompact": 4003,
      "Ġdocument": 4004,
      "ises": 4005,
      "ĠSen": 4006,
      "parent": 4007,
      "ani": 4008,
      "rab": 4009,
      "perp": 4010,
      "\\'": 4011,
      "1992": 4012,
      "pecially": 4013,
      "Ġdiagram": 4014,
      "Ġstructures": 4015,
      "Ġgrav": 4016,
      "run": 4017,
      "bre": 4018,
      "_*": 4019,
      "._": 4020,
      "Vert": 4021,
      "AB": 4022,
      "Qu": 4023,
      "Ġinfin": 4024,
      "ĠHall": 4025,
      "ĠFil": 4026,
      "Ġpresident": 4027,
      "Ġspeed": 4028,
      "Ġcurve": 4029,
      "ĠRich": 4030,
      "*{": 4031,
      "PR": 4032,
      "ago": 4033,
      "ĠBay": 4034,
      "ows": 4035,
      "itar": 4036,
      "ida": 4037,
      "ĠâĢĺ": 4038,
      "Ġremov": 4039,
      "Ġvariable": 4040,
      "png": 4041,
      "Ġrequest": 4042,
      "Ġgain": 4043,
      "Ġagre": 4044,
      "ĠHamilton": 4045,
      "ĠGeorge": 4046,
      "duc": 4047,
      "outhern": 4048,
      "Ã¶": 4049,
      "Ġsound": 4050,
      "Ġitself": 4051,
      "Bl": 4052,
      "ĠPat": 4053,
      "oul": 4054,
      "paign": 4055,
      "jection": 4056,
      "message": 4057,
      "tot": 4058,
      "reek": 4059,
      "94": 4060,
      "ĠCenter": 4061,
      "ĠWhile": 4062,
      "Ġrelationship": 4063,
      "wood": 4064,
      "ingu": 4065,
      "ĠChina": 4066,
      "crete": 4067,
      "alian": 4068,
      "dt": 4069,
      "Ġperm": 4070,
      "raz": 4071,
      "Ġsamples": 4072,
      "];": 4073,
      "Ġpref": 4074,
      "Ġparty": 4075,
      "ĠGroup": 4076,
      "1993": 4077,
      "lier": 4078,
      "unn": 4079,
      "Not": 4080,
      "ĠMag": 4081,
      "limits": 4082,
      "Ġcontract": 4083,
      "Ġmagn": 4084,
      "Ġlost": 4085,
      "Ġapproximation": 4086,
      "ibrary": 4087,
      "ker": 4088,
      "86": 4089,
      "Ġbox": 4090,
      "Ġrespons": 4091,
      "pc": 4092,
      "aligned": 4093,
      "Ġtree": 4094,
      "rey": 4095,
      "Ġir": 4096,
      "Ġflo": 4097,
      "inct": 4098,
      "Ġgauge": 4099,
      "Ġadapt": 4100,
      "Ġpack": 4101,
      "Ġsubset": 4102,
      "ropy": 4103,
      "Ġste": 4104,
      "eli": 4105,
      "Ġdiscussed": 4106,
      "Ġselected": 4107,
      "turb": 4108,
      "Ġess": 4109,
      "Ġlargest": 4110,
      "Ġaccept": 4111,
      "Ġimpact": 4112,
      "187": 4113,
      "Ġlive": 4114,
      "Ġembedd": 4115,
      "isation": 4116,
      "ĠAssociation": 4117,
      "Ġexplicit": 4118,
      "textsc": 4119,
      "Value": 4120,
      "Ġcontent": 4121,
      "Ġaltern": 4122,
      "Ġid": 4123,
      "Ġexpression": 4124,
      "Ġlayer": 4125,
      "Ġcourse": 4126,
      "Ġqual": 4127,
      "ocks": 4128,
      "ĠBlack": 4129,
      "Ġformed": 4130,
      "Sy": 4131,
      "Ġvertex": 4132,
      "Ġgradu": 4133,
      "Ġmilitary": 4134,
      "State": 4135,
      "92": 4136,
      "Ġ|\\": 4137,
      "Ġstatic": 4138,
      "Ġmaps": 4139,
      "ET": 4140,
      "gra": 4141,
      "FF": 4142,
      "ĠLaw": 4143,
      "rat": 4144,
      "}}(\\": 4145,
      "Ġtherm": 4146,
      "ĠĠĠĠĠĠĠĠĠĠĠĠĠĠĠĠĠĠĠĠĠĠĠ": 4147,
      "stein": 4148,
      "ĠÃ": 4149,
      "Ġappoint": 4150,
      "Ġexhib": 4151,
      "ollary": 4152,
      "Ġderived": 4153,
      "cks": 4154,
      "used": 4155,
      "Ġdeal": 4156,
      "asc": 4157,
      "Ġwrote": 4158,
      "ands": 4159,
      "model": 4160,
      "Ġparticles": 4161,
      "ening": 4162,
      "0000": 4163,
      "sequently": 4164,
      "Ġ}\\": 4165,
      "det": 4166,
      "wa": 4167,
      "MA": 4168,
      "Ġinterpre": 4169,
      "Ġdecl": 4170,
      "erve": 4171,
      "_{{\\": 4172,
      "cial": 4173,
      "Ġsupported": 4174,
      "black": 4175,
      "Ġscheme": 4176,
      "ston": 4177,
      "Ġrelease": 4178,
      "Ġusually": 4179,
      "file": 4180,
      "esh": 4181,
      "roduction": 4182,
      "Ġreve": 4183,
      ",âĢĿ": 4184,
      "rror": 4185,
      "isk": 4186,
      "Ġactive": 4187,
      "MC": 4188,
      "Ġlatter": 4189,
      "ĠProposition": 4190,
      "colon": 4191,
      "Ġlikely": 4192,
      "Ġparticle": 4193,
      "Ġoptimal": 4194,
      "Ġmotion": 4195,
      "abs": 4196,
      "Ġuncertaint": 4197,
      "Ġexperiments": 4198,
      "Ġrail": 4199,
      "aring": 4200,
      "SP": 4201,
      "ald": 4202,
      "Ġremains": 4203,
      "##": 4204,
      "ashington": 4205,
      "One": 4206,
      "Ġdynamics": 4207,
      "Ġreach": 4208,
      "ĠGo": 4209,
      "Ġlocation": 4210,
      "),\\": 4211,
      "ĠUnion": 4212,
      "Ġsimulations": 4213,
      "1970": 4214,
      "ĠDivision": 4215,
      "xy": 4216,
      "Ġjoined": 4217,
      "bour": 4218,
      "Ġcharge": 4219,
      "ging": 4220,
      "ĠRoyal": 4221,
      "Ġnegative": 4222,
      "ĠLou": 4223,
      "Ġspectral": 4224,
      "Ġmode": 4225,
      "Ġwhite": 4226,
      "spec": 4227,
      "----------------": 4228,
      "ares": 4229,
      "hand": 4230,
      "ĠFl": 4231,
      "Ġrac": 4232,
      "Ġnodes": 4233,
      ")\\,": 4234,
      "{$\\": 4235,
      "Ġseg": 4236,
      "ĠGermany": 4237,
      "Sup": 4238,
      "Ġmarried": 4239,
      "ĠÂ": 4240,
      "Ġdefe": 4241,
      "fit": 4242,
      "Ġspat": 4243,
      "Ġpolicy": 4244,
      "hest": 4245,
      "Ġdesigned": 4246,
      "Ġvert": 4247,
      "Ġcos": 4248,
      "Ġmedia": 4249,
      "forall": 4250,
      "89": 4251,
      "Ġupon": 4252,
      "Ġreduced": 4253,
      "Ġsense": 4254,
      "Ġcollection": 4255,
      "Is": 4256,
      "ivial": 4257,
      "etic": 4258,
      "Ġdirector": 4259,
      "ĠNor": 4260,
      "acing": 4261,
      "Ġfav": 4262,
      "Ġmar": 4263,
      "Ġten": 4264,
      "Ġdark": 4265,
      "ĠOur": 4266,
      "ĠZe": 4267,
      "shift": 4268,
      "oding": 4269,
      "ĠAustralian": 4270,
      "51": 4271,
      "Ġtowards": 4272,
      "ously": 4273,
      "Ġperturb": 4274,
      "Ġframework": 4275,
      "Ġmeasured": 4276,
      "Ġexpon": 4277,
      "range": 4278,
      "Ġfollowed": 4279,
      "1991": 4280,
      "Ġunits": 4281,
      "Ġcoupling": 4282,
      "FT": 4283,
      "Ġteams": 4284,
      "Ġhyp": 4285,
      "Ġbar": 4286,
      "Ġlaun": 4287,
      "Ġdirected": 4288,
      "hy": 4289,
      "izations": 4290,
      "Ġinf": 4291,
      "Ġformula": 4292,
      "pers": 4293,
      ")}(": 4294,
      "Ġpresence": 4295,
      "definition": 4296,
      "Ġchosen": 4297,
      "Ġdeep": 4298,
      "Ġcommunic": 4299,
      "ba": 4300,
      "Ġobser": 4301,
      "ams": 4302,
      "ube": 4303,
      "Ġfront": 4304,
      "ĠDo": 4305,
      "Ġord": 4306,
      "Ġpolar": 4307,
      "Ġnumerical": 4308,
      "SI": 4309,
      "\"/": 4310,
      "istry": 4311,
      "Ġkind": 4312,
      "writ": 4313,
      "When": 4314,
      "EE": 4315,
      "isms": 4316,
      "ĠMart": 4317,
      "ĠPo": 4318,
      "ĠTV": 4319,
      "gin": 4320,
      "Ġpers": 4321,
      "Ġradius": 4322,
      "Ġextended": 4323,
      "Ġstreng": 4324,
      "dro": 4325,
      "Ġstop": 4326,
      "Ġcomparison": 4327,
      "bo": 4328,
      "Ġsimply": 4329,
      "ager": 4330,
      "Ġdra": 4331,
      "ĠDuring": 4332,
      "Ġsatisfies": 4333,
      "Ġprec": 4334,
      "acity": 4335,
      "Ġwebsite": 4336,
      "ilarly": 4337,
      "antic": 4338,
      "Ġleads": 4339,
      "Ġclasses": 4340,
      "Ġstri": 4341,
      "ĠNot": 4342,
      "Ġarbit": 4343,
      "Ġdraw": 4344,
      "54": 4345,
      "Ġdouble": 4346,
      "ĠUK": 4347,
      "ki": 4348,
      "ols": 4349,
      "ĠHere": 4350,
      "Ġfigure": 4351,
      "Ġexpansion": 4352,
      "Ġeducation": 4353,
      "Ġaccuracy": 4354,
      "Ġamplit": 4355,
      "Ġpanel": 4356,
      "ĠGreen": 4357,
      "Net": 4358,
      "Ġparent": 4359,
      "52": 4360,
      "pendix": 4361,
      "Ġprofessional": 4362,
      "Ġopened": 4363,
      "Ġsays": 4364,
      "Ġnetworks": 4365,
      "Ġhon": 4366,
      "ĠInstitute": 4367,
      "Ġrepresented": 4368,
      "_{-": 4369,
      "Ġminimum": 4370,
      "ifying": 4371,
      "ĠHence": 4372,
      "ittee": 4373,
      "Ġcompleted": 4374,
      "LO": 4375,
      "ĠMusic": 4376,
      "Ġoutside": 4377,
      "board": 4378,
      "ĠCourt": 4379,
      "Ġaddress": 4380,
      "Ġsongs": 4381,
      "Ġwhole": 4382,
      "Ġcharg": 4383,
      "Ġrecorded": 4384,
      "dered": 4385,
      "well": 4386,
      "asket": 4387,
      "Ġacqu": 4388,
      "ĠDepartment": 4389,
      "Ġminim": 4390,
      "umni": 4391,
      "ĠRef": 4392,
      "Ġadopt": 4393,
      "\");": 4394,
      "Ġcluster": 4395,
      "www": 4396,
      "Ġadminist": 4397,
      "Ġmomentum": 4398,
      "Ġvict": 4399,
      "Ġdebut": 4400,
      "km": 4401,
      "Ð¾": 4402,
      "atus": 4403,
      "main": 4404,
      ")/": 4405,
      "Ġcontinued": 4406,
      "Ġconcept": 4407,
      "ĠRoad": 4408,
      "tered": 4409,
      "Ġchain": 4410,
      "ĠEm": 4411,
      "ĠSystem": 4412,
      "liament": 4413,
      "Ġcontribution": 4414,
      "ptions": 4415,
      "Ġvan": 4416,
      "Ġnorm": 4417,
      "'\\": 4418,
      "roy": 4419,
      "do": 4420,
      "subsubsection": 4421,
      "fficients": 4422,
      "rol": 4423,
      ")^{\\": 4424,
      "http": 4425,
      "oring": 4426,
      "eles": 4427,
      "Ġmaterial": 4428,
      "vol": 4429,
      "body": 4430,
      "ros": 4431,
      "Ġcorrect": 4432,
      "}%": 4433,
      "Ġscore": 4434,
      "ensus": 4435,
      "Ġreference": 4436,
      "Ġneeded": 4437,
      "ĠAcadem": 4438,
      "91": 4439,
      "53": 4440,
      "Ġmach": 4441,
      "iques": 4442,
      "'_": 4443,
      "ayer": 4444,
      "Ġscre": 4445,
      "Ġadv": 4446,
      "Pr": 4447,
      "Ġimmedi": 4448,
      "Ġnecessary": 4449,
      "Ġlattice": 4450,
      "aging": 4451,
      "acc": 4452,
      "Ġaud": 4453,
      "irm": 4454,
      "Ġinvolved": 4455,
      "Ġexpress": 4456,
      "Ġmove": 4457,
      "Ġvolume": 4458,
      "Ð°": 4459,
      "Class": 4460,
      "Test": 4461,
      "Ġallowed": 4462,
      "error": 4463,
      "Ġformation": 4464,
      "=(": 4465,
      "ĠMary": 4466,
      "thing": 4467,
      "index": 4468,
      "Ġword": 4469,
      "Ġadm": 4470,
      "Ġespecially": 4471,
      "Ġpreviously": 4472,
      "ĠCO": 4473,
      "Ġbelong": 4474,
      "Ġconsists": 4475,
      "=#": 4476,
      "iny": 4477,
      "SC": 4478,
      "iew": 4479,
      "Ġthroughout": 4480,
      "inese": 4481,
      "ĠFurther": 4482,
      "84": 4483,
      "Ġfile": 4484,
      "Ġchurch": 4485,
      "url": 4486,
      "Ġdaugh": 4487,
      "ona": 4488,
      "Ġfraction": 4489,
      "ĠBo": 4490,
      "flow": 4491,
      "ĠHen": 4492,
      "Ġvertices": 4493,
      "gorithms": 4494,
      "Ġapplication": 4495,
      "unity": 4496,
      "Ġestimated": 4497,
      "burg": 4498,
      "Ġcorresponds": 4499,
      "Eq": 4500,
      "Ġknowledge": 4501,
      "ĠWashington": 4502,
      "ollowing": 4503,
      "ĠSing": 4504,
      ")_{": 4505,
      "Ġgot": 4506,
      "ĠFe": 4507,
      "ĠĠĠĠĠĠĠĠĠĠĠĠ": 4508,
      "Ġplane": 4509,
      "Pol": 4510,
      "war": 4511,
      "Ġoperation": 4512,
      "Ġmeasurements": 4513,
      "Ġcompanies": 4514,
      "Ġlimited": 4515,
      "$^{-": 4516,
      "ĠMat": 4517,
      "ĠVir": 4518,
      "Ġoperations": 4519,
      "Ġcompute": 4520,
      "}$-": 4521,
      "Ġ/**": 4522,
      "ras": 4523,
      "ria": 4524,
      "63": 4525,
      "ĠSociety": 4526,
      "ĠMex": 4527,
      "ĠIm": 4528,
      "simeq": 4529,
      "Ġoverall": 4530,
      "Ġidea": 4531,
      "Sim": 4532,
      "Ġmonths": 4533,
      "Ġarray": 4534,
      "pmatrix": 4535,
      "Ġrace": 4536,
      "Ġautom": 4537,
      "Ġbrother": 4538,
      "omin": 4539,
      "Ġtransport": 4540,
      "$;": 4541,
      "Man": 4542,
      "Ġorigin": 4543,
      "OT": 4544,
      "ns": 4545,
      ":\\": 4546,
      "book": 4547,
      "ĠCompany": 4548,
      "ĠSub": 4549,
      "roid": 4550,
      "Ġdepart": 4551,
      "Ġbene": 4552,
      "rief": 4553,
      "resents": 4554,
      "vex": 4555,
      "Ġonline": 4556,
      "Ġhtt": 4557,
      "reshold": 4558,
      "Ġtheore": 4559,
      "Ġconsistent": 4560,
      "Ġinequality": 4561,
      "Ġprimary": 4562,
      ",\\,": 4563,
      "Ġmodern": 4564,
      "Ġassumption": 4565,
      "Ġlevels": 4566,
      "ĠSur": 4567,
      "1989": 4568,
      "nes": 4569,
      "Ġgenerally": 4570,
      "Ġblue": 4571,
      "LA": 4572,
      "Ġedges": 4573,
      "Ġissue": 4574,
      "Ġdetection": 4575,
      "estival": 4576,
      "Ġhol": 4577,
      "isions": 4578,
      "deg": 4579,
      "atur": 4580,
      "âĢ¦": 4581,
      "Ġconstit": 4582,
      "ĠInter": 4583,
      "Ġshall": 4584,
      "ala": 4585,
      "Ġquality": 4586,
      "Ġassist": 4587,
      "sm": 4588,
      "ĠĠĠĠĠĠĠĠĠĠ": 4589,
      "ĠJack": 4590,
      "arp": 4591,
      "cases": 4592,
      "Ġconstraints": 4593,
      "Now": 4594,
      "etimes": 4595,
      "PC": 4596,
      "Ġdescribe": 4597,
      "ĠScott": 4598,
      "Ġded": 4599,
      "Ġdecay": 4600,
      ")^{-": 4601,
      "}^*": 4602,
      "sey": 4603,
      "Ġshape": 4604,
      "Ġtrac": 4605,
      "\\_": 4606,
      "apping": 4607,
      "atform": 4608,
      "Here": 4609,
      "acher": 4610,
      "cles": 4611,
      "DF": 4612,
      "uls": 4613,
      "Ġsigned": 4614,
      "\"><": 4615,
      "Object": 4616,
      "ogle": 4617,
      "Ġrunning": 4618,
      "Ġoffice": 4619,
      "Ġ+\\": 4620,
      "Or": 4621,
      "Ġren": 4622,
      "Ġappears": 4623,
      "reater": 4624,
      "overed": 4625,
      "Ġrelev": 4626,
      "anning": 4627,
      "Ġlonger": 4628,
      "ĠWil": 4629,
      "ĠArch": 4630,
      "Ġeffort": 4631,
      "toc": 4632,
      "Ġsil": 4633,
      "ĠEar": 4634,
      "Equ": 4635,
      "va": 4636,
      "Ġrule": 4637,
      "mes": 4638,
      "ĠInt": 4639,
      "ado": 4640,
      "ien": 4641,
      "ĠSam": 4642,
      "ympt": 4643,
      "Ġneighbor": 4644,
      "oice": 4645,
      "){\\": 4646,
      "59": 4647,
      "Ġfire": 4648,
      "Ġsus": 4649,
      "ederal": 4650,
      "sembly": 4651,
      "zero": 4652,
      "Ġmother": 4653,
      "ĠGames": 4654,
      "ession": 4655,
      "IG": 4656,
      "ada": 4657,
      "Ġdeb": 4658,
      "Ġcalculated": 4659,
      "ething": 4660,
      "ĠIsland": 4661,
      "83": 4662,
      "Ġsimulation": 4663,
      "ĠLeg": 4664,
      "Ġreally": 4665,
      "press": 4666,
      "ĠVol": 4667,
      "Im": 4668,
      "){": 4669,
      "Ġappeared": 4670,
      "sol": 4671,
      "61": 4672,
      "Ġnight": 4673,
      "ilies": 4674,
      "Ġavoid": 4675,
      "ĠPress": 4676,
      "Ġinside": 4677,
      "iverse": 4678,
      "Ġdecision": 4679,
      "ĠScience": 4680,
      "ĠRuss": 4681,
      "ĠProv": 4682,
      "Ġexamples": 4683,
      "ĠCap": 4684,
      "asks": 4685,
      "});": 4686,
      "ental": 4687,
      "ĠAlex": 4688,
      "Ġhimself": 4689,
      "Ġstra": 4690,
      "82": 4691,
      "Ġsimpl": 4692,
      "arc": 4693,
      "Ġcoefficients": 4694,
      "Ġwife": 4695,
      "....": 4696,
      "Ġchoose": 4697,
      "Ġdual": 4698,
      "Ġcampaign": 4699,
      "Ġpie": 4700,
      "Ġsymbol": 4701,
      "Ġdisplay": 4702,
      "Ġyet": 4703,
      "ĠSl": 4704,
      "Ġlat": 4705,
      "Ġforces": 4706,
      "1988": 4707,
      "Ġcorrelation": 4708,
      "Ġface": 4709,
      "1960": 4710,
      "=-": 4711,
      "ĠBest": 4712,
      "Ġplaying": 4713,
      "ĠMoreover": 4714,
      "Ġslight": 4715,
      "Ġcontrast": 4716,
      "62": 4717,
      "aran": 4718,
      "$).": 4719,
      "ĠMet": 4720,
      "ĠClub": 4721,
      "ilib": 4722,
      "^{+": 4723,
      "SU": 4724,
      "Ġexperimental": 4725,
      "rees": 4726,
      "Ġcurrently": 4727,
      "Ġissues": 4728,
      "Tr": 4729,
      "ĠClass": 4730,
      "Ġeasily": 4731,
      "Ġslow": 4732,
      "));": 4733,
      "Ġcoach": 4734,
      "Ġstarting": 4735,
      "ML": 4736,
      "Ġ\\(": 4737,
      "Ġforms": 4738,
      "hi": 4739,
      "eler": 4740,
      "PT": 4741,
      "version": 4742,
      "https": 4743,
      "rice": 4744,
      "Ġnature": 4745,
      "check": 4746,
      "81": 4747,
      "Ġdig": 4748,
      "ogene": 4749,
      "Ġfall": 4750,
      "Ġscatter": 4751,
      "Def": 4752,
      "Ġ!=": 4753,
      "However": 4754,
      "Ġdetermine": 4755,
      "ĠRad": 4756,
      "ĠGold": 4757,
      "Ġrank": 4758,
      "ĠResearch": 4759,
      "Ġprocesses": 4760,
      ".~(\\": 4761,
      "Ġinteresting": 4762,
      "Ġpressure": 4763,
      "ĠKingdom": 4764,
      "ĠCanadian": 4765,
      "UT": 4766,
      "rep": 4767,
      "Ġdistributions": 4768,
      "Ġpercent": 4769,
      "Ġbehind": 4770,
      "gent": 4771,
      "Ġcontroll": 4772,
      "Ġprocedure": 4773,
      "Ġaccom": 4774,
      "Ġrepresents": 4775,
      "Our": 4776,
      "Ġevidence": 4777,
      "Ġaim": 4778,
      "Ġfully": 4779,
      "ita": 4780,
      "Ġquar": 4781,
      "uan": 4782,
      "ĠTur": 4783,
      "Ġdenotes": 4784,
      "Ġofficial": 4785,
      "place": 4786,
      "Ġassert": 4787,
      "rc": 4788,
      "Ġresolution": 4789,
      "Ġcast": 4790,
      "rish": 4791,
      "Ne": 4792,
      "Ġtro": 4793,
      "ĠMad": 4794,
      "Ġreplaced": 4795,
      "Trans": 4796,
      "stant": 4797,
      "Ġdecom": 4798,
      "Ġgrowth": 4799,
      "ĠJer": 4800,
      "Ġrock": 4801,
      "Ġselect": 4802,
      "unk": 4803,
      "bullet": 4804,
      "FA": 4805,
      "Ġball": 4806,
      "}}^": 4807,
      "Ġgave": 4808,
      "iences": 4809,
      "Ġearlier": 4810,
      "Figure": 4811,
      "ĠMiss": 4812,
      "ĠDire": 4813,
      "Ġprofile": 4814,
      "\"/>": 4815,
      "ernel": 4816,
      "ĠTex": 4817,
      "Ġliterature": 4818,
      "dr": 4819,
      "asketball": 4820,
      "ĠCentral": 4821,
      "Ġbirth": 4822,
      "Ġrequires": 4823,
      "Ġemer": 4824,
      "Ġactually": 4825,
      "CT": 4826,
      "fered": 4827,
      "ĠTown": 4828,
      "Ġapplications": 4829,
      "Ġliving": 4830,
      "ĠBen": 4831,
      "={": 4832,
      "sto": 4833,
      "ĠCong": 4834,
      "stack": 4835,
      "aland": 4836,
      "odot": 4837,
      "Ġtravel": 4838,
      "Ġsampl": 4839,
      "su": 4840,
      "Ġhyper": 4841,
      "Ġscalar": 4842,
      "69": 4843,
      "Ġalgorithms": 4844,
      "ĠAfrican": 4845,
      "riz": 4846,
      "cons": 4847,
      "iency": 4848,
      "1987": 4849,
      "amily": 4850,
      "Ġtrain": 4851,
      "aker": 4852,
      "Ġship": 4853,
      "})$.": 4854,
      "Form": 4855,
      "Ġdescription": 4856,
      "olar": 4857,
      "Ġapproximately": 4858,
      "Ġ=\\": 4859,
      "Ġmicro": 4860,
      "ĠRobert": 4861,
      "Ġuseful": 4862,
      ")}{\\": 4863,
      "Ġ///": 4864,
      "Ġidentity": 4865,
      "Ġdisk": 4866,
      "ĠGra": 4867,
      "Ġpractice": 4868,
      "Ġalbums": 4869,
      "$$\\": 4870,
      "Ġframe": 4871,
      "ĠMer": 4872,
      "ye": 4873,
      "ira": 4874,
      "Ġjob": 4875,
      "rium": 4876,
      "FC": 4877,
      "reme": 4878,
      "Ġboard": 4879,
      "Ġstellar": 4880,
      "ĠJapanese": 4881,
      "Ġever": 4882,
      "Ġcurves": 4883,
      "$(": 4884,
      "Ġstated": 4885,
      ")\\\\": 4886,
      "ouri": 4887,
      "Ġlisted": 4888,
      "ĠMuseum": 4889,
      "Ġproper": 4890,
      "ĠSal": 4891,
      "Ðµ": 4892,
      "Ġfactors": 4893,
      "ĠSpec": 4894,
      "ĠAfrica": 4895,
      "Ġtensor": 4896,
      "ĠWhite": 4897,
      "Ġhighest": 4898,
      "Ġensure": 4899,
      "More": 4900,
      "Ġter": 4901,
      "Ġsignificantly": 4902,
      "Ġjud": 4903,
      "ĠDemoc": 4904,
      "SO": 4905,
      "Ġspectra": 4906,
      "Ġremaining": 4907,
      "ĠThomas": 4908,
      "ĠMichael": 4909,
      "Ġincreases": 4910,
      "ett": 4911,
      "ĠMac": 4912,
      "Ġveh": 4913,
      "\\|_{": 4914,
      "ĠRussian": 4915,
      "Ġsquare": 4916,
      "Ġshift": 4917,
      "Ġargument": 4918,
      "Ġcommand": 4919,
      "ĠGreat": 4920,
      "edy": 4921,
      "Ġexpand": 4922,
      "iral": 4923,
      "Ġsteps": 4924,
      "ĠCath": 4925,
      "Ġnames": 4926,
      "ĠBur": 4927,
      "sequence": 4928,
      "ader": 4929,
      "Ġdrop": 4930,
      "ymm": 4931,
      "Ġangle": 4932,
      "Ġcategory": 4933,
      "case": 4934,
      "Ġspaces": 4935,
      "input": 4936,
      "ospital": 4937,
      "Ġcomes": 4938,
      "Ġchem": 4939,
      "Ġexistence": 4940,
      ".$": 4941,
      "free": 4942,
      "Ġmaintain": 4943,
      "othes": 4944,
      "ĠSome": 4945,
      "CH": 4946,
      "ribute": 4947,
      "');": 4948,
      "ĠJew": 4949,
      "ano": 4950,
      "ĠDay": 4951,
      "Ġwide": 4952,
      "Ġclassification": 4953,
      "No": 4954,
      "Exception": 4955,
      "Ġmemory": 4956,
      "Ġeast": 4957,
      "Ġexcept": 4958,
      "Ġfounded": 4959,
      "ena": 4960,
      "ĠYear": 4961,
      "Ġdepends": 4962,
      "Ġmole": 4963,
      "yr": 4964,
      "Ġthought": 4965,
      "Ġcore": 4966,
      "Ġdam": 4967,
      "ih": 4968,
      "Ġoccup": 4969,
      "produ": 4970,
      "ĠAcademy": 4971,
      "Ġruns": 4972,
      "stra": 4973,
      "Ġ~": 4974,
      "Time": 4975,
      "Ġattention": 4976,
      "neg": 4977,
      "alg": 4978,
      "link": 4979,
      "iti": 4980,
      "ĠOther": 4981,
      "Ġproduce": 4982,
      "Ġwest": 4983,
      "Ġ;": 4984,
      "Ġforward": 4985,
      "za": 4986,
      "px": 4987,
      "Ġelected": 4988,
      "Ġneeds": 4989,
      "ictor": 4990,
      "1986": 4991,
      "\\\"": 4992,
      "yond": 4993,
      "Ġselection": 4994,
      "dx": 4995,
      "matrix": 4996,
      "Ġdependence": 4997,
      "ĠGaussian": 4998,
      "Ġusers": 4999,
      "west": 5000,
      "Error": 5001,
      "Ġrap": 5002,
      "Ġones": 5003,
      "}}^{": 5004,
      "ĠGrand": 5005,
      "ĠHistor": 5006,
      "ĠDan": 5007,
      "First": 5008,
      "Ġagreement": 5009,
      "seud": 5010,
      "ua": 5011,
      "ĠWork": 5012,
      "Ġtax": 5013,
      "ifier": 5014,
      "ishes": 5015,
      "elves": 5016,
      "ĠKe": 5017,
      "Sp": 5018,
      "Ġschools": 5019,
      "Ġepisode": 5020,
      "bon": 5021,
      "Ġhous": 5022,
      "Ġmissing": 5023,
      "ether": 5024,
      "Ġsurv": 5025,
      "olf": 5026,
      "Ġtransl": 5027,
      "height": 5028,
      "bin": 5029,
      "hom": 5030,
      "Get": 5031,
      "Ġquas": 5032,
      "NR": 5033,
      "ĠRecords": 5034,
      "ĠMo": 5035,
      "perty": 5036,
      "ĠKore": 5037,
      "omorphic": 5038,
      "ading": 5039,
      "Ġcomputed": 5040,
      "remark": 5041,
      "Ġrights": 5042,
      "mann": 5043,
      ")$-": 5044,
      "inv": 5045,
      "Ġspatial": 5046,
      "~$\\": 5047,
      "Ġlove": 5048,
      "Ġquad": 5049,
      "Ġfun": 5050,
      "ought": 5051,
      "column": 5052,
      "Ġapproaches": 5053,
      "Ã¤": 5054,
      "tri": 5055,
      "Ġcounter": 5056,
      "Ġconserv": 5057,
      "ĠSecond": 5058,
      "Ġfootballers": 5059,
      "Ġfeed": 5060,
      "ĠNow": 5061,
      "Ġleague": 5062,
      "Ġheight": 5063,
      "inder": 5064,
      "ĠItalian": 5065,
      "Ġinj": 5066,
      "Ġpolice": 5067,
      "multirow": 5068,
      "Ġintroduce": 5069,
      "ĠFound": 5070,
      "Ġlack": 5071,
      "Ġorg": 5072,
      "thlet": 5073,
      "bi": 5074,
      "Ġbur": 5075,
      "Ġplaces": 5076,
      "Ġrates": 5077,
      "Ġmodes": 5078,
      "Ġconsid": 5079,
      "anks": 5080,
      "Ġappointed": 5081,
      "Ġcourt": 5082,
      "Ġeight": 5083,
      "BS": 5084,
      "1984": 5085,
      "Ġexactly": 5086,
      "Ġpropag": 5087,
      "ĠSummer": 5088,
      "Ġfill": 5089,
      "Ġcharacters": 5090,
      "Ġextension": 5091,
      "ĠTom": 5092,
      "arr": 5093,
      "Ġinvariant": 5094,
      "Ġpaint": 5095,
      "MP": 5096,
      "Ġtour": 5097,
      "Ġmus": 5098,
      "FL": 5099,
      "Ġdate": 5100,
      "Ġincreased": 5101,
      "Ġeasy": 5102,
      "Ġrecently": 5103,
      "plication": 5104,
      "Ġseven": 5105,
      "Ġbooks": 5106,
      "Ġsolid": 5107,
      "itable": 5108,
      "Ġexperience": 5109,
      "ĠWestern": 5110,
      "ades": 5111,
      "ancial": 5112,
      "rons": 5113,
      "newline": 5114,
      "Ġpairs": 5115,
      "Ġreached": 5116,
      "ducation": 5117,
      "Ġcustom": 5118,
      "}&": 5119,
      "icity": 5120,
      "ĠPet": 5121,
      "Ġcosm": 5122,
      "ĠJust": 5123,
      "Ġvariety": 5124,
      "Ġessential": 5125,
      "Ġidentified": 5126,
      "win": 5127,
      "Ġconnection": 5128,
      "newcommand": 5129,
      "Thus": 5130,
      "ĠChinese": 5131,
      "Me": 5132,
      "ĠRail": 5133,
      "Ġconfiguration": 5134,
      "ĠTechn": 5135,
      "Eng": 5136,
      "Ġdaughter": 5137,
      "uations": 5138,
      "Ġfast": 5139,
      "Ġmatrices": 5140,
      "mission": 5141,
      "inf": 5142,
      "TR": 5143,
      "ĠSuper": 5144,
      "ĠChristian": 5145,
      "ĠOff": 5146,
      "Over": 5147,
      "Ġincor": 5148,
      "ĠTexas": 5149,
      "Ġjournal": 5150,
      "Ġstrategy": 5151,
      "ĠTor": 5152,
      "Ġconcern": 5153,
      "ĠCarol": 5154,
      "Ġbul": 5155,
      "Ġwriting": 5156,
      "azine": 5157,
      "Ġsymmetric": 5158,
      "1985": 5159,
      "Ġnews": 5160,
      "tem": 5161,
      "ĠMinister": 5162,
      "Ġrelevant": 5163,
      "Ġ&=&": 5164,
      "Ġconstructed": 5165,
      "Ġsports": 5166,
      "ĠLouis": 5167,
      "Ġgalaxy": 5168,
      "Sub": 5169,
      "reland": 5170,
      "Ġmix": 5171,
      "Ġalumni": 5172,
      "Ass": 5173,
      "values": 5174,
      "Ġmentioned": 5175,
      "idents": 5176,
      "Ġcollect": 5177,
      "ells": 5178,
      "tag": 5179,
      "Ġeventually": 5180,
      "300": 5181,
      "Ġfriend": 5182,
      "inem": 5183,
      "ĉĉĉĉĉ": 5184,
      "eria": 5185,
      "cho": 5186,
      "76": 5187,
      "uting": 5188,
      "Ġconvergence": 5189,
      "Ġproducts": 5190,
      "Ġassumed": 5191,
      "ils": 5192,
      "Ġhot": 5193,
      "Ġwhy": 5194,
      "escription": 5195,
      "72": 5196,
      "Ġrules": 5197,
      "Ġpolynomial": 5198,
      "ĠZealand": 5199,
      "Ġconcent": 5200,
      "tz": 5201,
      "ĠVirgin": 5202,
      "========": 5203,
      "Ġguitar": 5204,
      "à¤": 5205,
      "Ġsomething": 5206,
      "Ġpage": 5207,
      "ĠFrancis": 5208,
      "Ġjoint": 5209,
      "Further": 5210,
      "Ġextract": 5211,
      "Ġerrors": 5212,
      "Ġdistinct": 5213,
      "Ġbit": 5214,
      "ifically": 5215,
      "Ġtechniques": 5216,
      "summary": 5217,
      "prob": 5218,
      "``": 5219,
      "Ġanti": 5220,
      "Ġestimates": 5221,
      "Ġmeaning": 5222,
      "Ġimm": 5223,
      "iring": 5224,
      "ĠDef": 5225,
      "graph": 5226,
      "Ġdomin": 5227,
      "Ġant": 5228,
      "irl": 5229,
      "arts": 5230,
      "proposition": 5231,
      "ĠNews": 5232,
      "Ġcontact": 5233,
      "Ġhoriz": 5234,
      "men": 5235,
      "ĠAccording": 5236,
      "Ġsingular": 5237,
      ")_": 5238,
      "ĠMont": 5239,
      "Theorem": 5240,
      "Ġfight": 5241,
      "ĠCharles": 5242,
      "mapsto": 5243,
      "aur": 5244,
      "fess": 5245,
      "IP": 5246,
      "\\{\\": 5247,
      "Ġyields": 5248,
      "Ġarticle": 5249,
      "Ġpoly": 5250,
      "Ġstraight": 5251,
      "Ġplot": 5252,
      "come": 5253,
      "gg": 5254,
      "etime": 5255,
      "ĠHow": 5256,
      "Ġasympt": 5257,
      "Ġhighly": 5258,
      "eed": 5259,
      "Ġreveal": 5260,
      "Ġquite": 5261,
      "ĠOlympics": 5262,
      "Ġthreshold": 5263,
      "apter": 5264,
      "atre": 5265,
      "ĠOut": 5266,
      "ĠString": 5267,
      "UR": 5268,
      "Ġinner": 5269,
      "ca": 5270,
      "fil": 5271,
      "ilibrium": 5272,
      "vement": 5273,
      "ĠRob": 5274,
      "Ġnoted": 5275,
      "dim": 5276,
      "Ġinteractions": 5277,
      "Ġorb": 5278,
      "ĠMus": 5279,
      "Ġcountries": 5280,
      "Ġarbitrary": 5281,
      "Ġelectric": 5282,
      "ĠAlthough": 5283,
      "Ġtoday": 5284,
      "vention": 5285,
      "Ð¸": 5286,
      "Ġrepe": 5287,
      "Ġquick": 5288,
      "ipp": 5289,
      "SM": 5290,
      "Ġleaders": 5291,
      "Ġindustry": 5292,
      "78": 5293,
      "aily": 5294,
      "unt": 5295,
      "Ġauthors": 5296,
      "Ġgovern": 5297,
      "isher": 5298,
      "rot": 5299,
      "uthor": 5300,
      "Ġthings": 5301,
      "Ġsaw": 5302,
      "oma": 5303,
      "Ġoptical": 5304,
      "LP": 5305,
      "ĠFootball": 5306,
      "ĠFore": 5307,
      "cel": 5308,
      "Ġexisting": 5309,
      "ĠJose": 5310,
      "kl": 5311,
      "Ġkilled": 5312,
      "ponent": 5313,
      "Ġthrow": 5314,
      "Ġplaced": 5315,
      "ircraft": 5316,
      "pat": 5317,
      "Ġpersonal": 5318,
      "Hz": 5319,
      "lease": 5320,
      "Ġmeasurement": 5321,
      "Reg": 5322,
      "ĠDel": 5323,
      "Ġstable": 5324,
      "Ġlot": 5325,
      "Ġfemale": 5326,
      "().": 5327,
      "road": 5328,
      "osing": 5329,
      "ski": 5330,
      "translation": 5331,
      "((": 5332,
      "1983": 5333,
      "using": 5334,
      "Ġ$$": 5335,
      "$~": 5336,
      "Ġfeel": 5337,
      "Ġstream": 5338,
      "Ġbranch": 5339,
      "End": 5340,
      "print": 5341,
      "Ġformal": 5342,
      "Ġbuildings": 5343,
      "ĠGod": 5344,
      "paramet": 5345,
      ")+\\": 5346,
      "agraph": 5347,
      "Ġfourth": 5348,
      "comple": 5349,
      "Ġobserve": 5350,
      "nowled": 5351,
      "Ġrelig": 5352,
      "elt": 5353,
      "oder": 5354,
      "ĠLie": 5355,
      "real": 5356,
      "Ġvisual": 5357,
      "Ġanalog": 5358,
      "Ġ?": 5359,
      "Ġheavy": 5360,
      "isl": 5361,
      "Ġparticularly": 5362,
      "ican": 5363,
      "then": 5364,
      "ĠSmith": 5365,
      "}{*": 5366,
      "weight": 5367,
      "example": 5368,
      "Ġcontributions": 5369,
      "Ġefficient": 5370,
      "Ġ...": 5371,
      "ĠCam": 5372,
      "Ġoriginally": 5373,
      "local": 5374,
      "rial": 5375,
      "Ġpen": 5376,
      "oto": 5377,
      "ĠGal": 5378,
      "ĠLand": 5379,
      "abilities": 5380,
      "rich": 5381,
      "Ġbasic": 5382,
      "\";": 5383,
      "amental": 5384,
      "ĠDon": 5385,
      "izer": 5386,
      "Ġtourn": 5387,
      "1982": 5388,
      "BA": 5389,
      "ĠLat": 5390,
      "Ġbeginning": 5391,
      "Ġfood": 5392,
      "Ġcontaining": 5393,
      "ĠBill": 5394,
      "arian": 5395,
      "ĠHamiltonian": 5396,
      "Ġextra": 5397,
      "Ġstations": 5398,
      "Ġplant": 5399,
      "Ġreconst": 5400,
      "istical": 5401,
      "Ġsituation": 5402,
      "Ġcomputation": 5403,
      "ĠDen": 5404,
      "Ġmoney": 5405,
      "amely": 5406,
      "Ġgold": 5407,
      "nb": 5408,
      "Ġfinished": 5409,
      "tik": 5410,
      "pp": 5411,
      "Ġcompare": 5412,
      "ĠSaint": 5413,
      "icago": 5414,
      "ĠFlor": 5415,
      "ola": 5416,
      "kes": 5417,
      "spect": 5418,
      "Ġsex": 5419,
      "Ġcop": 5420,
      "scill": 5421,
      "Ġinternal": 5422,
      "LS": 5423,
      "Key": 5424,
      "Ġlum": 5425,
      "rec": 5426,
      "Ġfamilies": 5427,
      "Ġinstit": 5428,
      "Ġabsor": 5429,
      "Ġult": 5430,
      "ibly": 5431,
      "}}$,": 5432,
      "Ġapprop": 5433,
      "Ġbinary": 5434,
      "icon": 5435,
      "Ġcombination": 5436,
      "rought": 5437,
      "hal": 5438,
      "AG": 5439,
      "ĠParis": 5440,
      "Ġstatement": 5441,
      "Ġsemi": 5442,
      "astern": 5443,
      "Ġmonth": 5444,
      "Ġrelatively": 5445,
      "Ġring": 5446,
      "lam": 5447,
      "overy": 5448,
      "Ġcompletely": 5449,
      "ĠHill": 5450,
      "Ġarchitecture": 5451,
      "kin": 5452,
      "ĠPublic": 5453,
      "sect": 5454,
      "Ġconsum": 5455,
      "ĠIsra": 5456,
      "ĠPeter": 5457,
      "fficiency": 5458,
      "Ġsen": 5459,
      "Ġscient": 5460,
      "73": 5461,
      "'(": 5462,
      "CS": 5463,
      "ĠLake": 5464,
      "hemat": 5465,
      "ulate": 5466,
      "displaystyle": 5467,
      "reedom": 5468,
      "TE": 5469,
      "-$": 5470,
      "elli": 5471,
      "ĠScot": 5472,
      "Ġartists": 5473,
      "Ġchanged": 5474,
      ")},": 5475,
      "ĠRem": 5476,
      "Ġtraditional": 5477,
      "idden": 5478,
      "1950": 5479,
      "mc": 5480,
      "++": 5481,
      "Ġequip": 5482,
      "Ġanim": 5483,
      "());": 5484,
      "}{|": 5485,
      "Ġcivil": 5486,
      "ĠAlso": 5487,
      "Ġinstrum": 5488,
      "Ġvs": 5489,
      "stance": 5490,
      "Ġunivers": 5491,
      "74": 5492,
      "ags": 5493,
      "Ġreduce": 5494,
      "Ġflat": 5495,
      "Ġvectors": 5496,
      "Ġimprove": 5497,
      "ĠMass": 5498,
      "ĠTwo": 5499,
      "Ġhit": 5500,
      "Out": 5501,
      "TV": 5502,
      "inger": 5503,
      "}}$.": 5504,
      "Ġcred": 5505,
      "Ġtrade": 5506,
      "ĠFrank": 5507,
      "Ġregime": 5508,
      "|_{": 5509,
      "ĠMel": 5510,
      "otion": 5511,
      "Ġchalleng": 5512,
      "Ġreading": 5513,
      "Ġstaff": 5514,
      "Ġtransformation": 5515,
      "Ġtreatment": 5516,
      "Ġplays": 5517,
      "})$,": 5518,
      "ĠRichard": 5519,
      "uge": 5520,
      "Ġbal": 5521,
      "ĠCD": 5522,
      "1979": 5523,
      "Ġmanifold": 5524,
      "ecause": 5525,
      "Ġcircle": 5526,
      "MM": 5527,
      "udes": 5528,
      "term": 5529,
      "ko": 5530,
      "Ġreplace": 5531,
      "Ġdiscussion": 5532,
      "ĠBrown": 5533,
      "Ġorient": 5534,
      "Table": 5535,
      "itors": 5536,
      "Ġcandidate": 5537,
      "page": 5538,
      "Ġhours": 5539,
      "anned": 5540,
      "Ġmagnitude": 5541,
      "Ġproved": 5542,
      "Ġcoordinates": 5543,
      "Ġunion": 5544,
      "Ġpure": 5545,
      "Ġtempor": 5546,
      "Ġmedal": 5547,
      "NS": 5548,
      "Ġshowed": 5549,
      "Ġexam": 5550,
      "tikz": 5551,
      "Ġcaused": 5552,
      "Ġslightly": 5553,
      "Ġbrief": 5554,
      "Ġnom": 5555,
      "Ġtor": 5556,
      "Ġplatform": 5557,
      "Ġcamp": 5558,
      "ĠIts": 5559,
      "pty": 5560,
      "ribution": 5561,
      "Ġmorph": 5562,
      "79": 5563,
      "Ġinfluence": 5564,
      "Ġvac": 5565,
      "ban": 5566,
      "ĠOffic": 5567,
      "abase": 5568,
      "Ġoscill": 5569,
      "OM": 5570,
      "Ġmunic": 5571,
      "ella": 5572,
      "ĠDis": 5573,
      "CE": 5574,
      "razil": 5575,
      "Ġgreater": 5576,
      "ipl": 5577,
      "ao": 5578,
      "idae": 5579,
      "bel": 5580,
      "illa": 5581,
      "enge": 5582,
      "ĠWomen": 5583,
      "ĠPan": 5584,
      "Ġcompetition": 5585,
      "Ġvirt": 5586,
      "These": 5587,
      "Ġagent": 5588,
      "Ġbottom": 5589,
      "lig": 5590,
      "cular": 5591,
      "Ġgradient": 5592,
      "Ġmessage": 5593,
      "Ġoptions": 5594,
      "Ġshare": 5595,
      "ĠUnder": 5596,
      "Ġtypically": 5597,
      "Ġsatisfy": 5598,
      "Ġcombined": 5599,
      "CP": 5600,
      "Spec": 5601,
      "Ġmarg": 5602,
      "Ġgeneration": 5603,
      "public": 5604,
      "Ġparallel": 5605,
      "bu": 5606,
      "Ġscience": 5607,
      "ĠHistory": 5608,
      "Inter": 5609,
      "ĠLos": 5610,
      "ĠCatholic": 5611,
      "}$)": 5612,
      "Ġscattering": 5613,
      "GB": 5614,
      "omic": 5615,
      "itter": 5616,
      "ipage": 5617,
      "viation": 5618,
      "ĠDu": 5619,
      "anda": 5620,
      "Ġcells": 5621,
      "Requ": 5622,
      "Ġtrained": 5623,
      "Ġcry": 5624,
      "igan": 5625,
      "minipage": 5626,
      "Ġsoon": 5627,
      "But": 5628,
      "Co": 5629,
      "1981": 5630,
      "Ġstrength": 5631,
      "pack": 5632,
      "mas": 5633,
      "Ġlink": 5634,
      "Ġgenerate": 5635,
      "istan": 5636,
      "Ġprediction": 5637,
      ")-\\": 5638,
      "Ġsecurity": 5639,
      "Ġtechnology": 5640,
      "cong": 5641,
      "ĠSpanish": 5642,
      "ĠIreland": 5643,
      "Ġseems": 5644,
      "ĠCommission": 5645,
      "Ġinterval": 5646,
      "Ġinteger": 5647,
      ")}_{": 5648,
      "oke": 5649,
      "true": 5650,
      "Of": 5651,
      "eds": 5652,
      "Ġoptimization": 5653,
      "ĠVictor": 5654,
      "'}": 5655,
      "Ġobservation": 5656,
      "cref": 5657,
      "Ġstatus": 5658,
      "Ġvoc": 5659,
      "Ġreson": 5660,
      "ĠEqu": 5661,
      "Ġvary": 5662,
      "NA": 5663,
      "Ġwalk": 5664,
      "Ġcalc": 5665,
      "Ġfinally": 5666,
      "Ġotherwise": 5667,
      "hbar": 5668,
      "Fe": 5669,
      "Ġetc": 5670,
      "Ġsoftware": 5671,
      "Ġer": 5672,
      "Ð½": 5673,
      "ench": 5674,
      "fram": 5675,
      ":}": 5676,
      "hbox": 5677,
      "ĠCur": 5678,
      "plate": 5679,
      "Ġamplitude": 5680,
      "Ste": 5681,
      "mma": 5682,
      "otted": 5683,
      "$),": 5684,
      "aval": 5685,
      "Ġbr": 5686,
      "Ġbeyond": 5687,
      "Ġpick": 5688,
      "Ġ},": 5689,
      "Ġactivity": 5690,
      "ĠPri": 5691,
      "ION": 5692,
      "}({\\": 5693,
      "sur": 5694,
      "Ġthick": 5695,
      "obile": 5696,
      "Ġaccur": 5697,
      "elled": 5698,
      "Ġdecided": 5699,
      "Ġdistributed": 5700,
      "ĠFin": 5701,
      "people": 5702,
      "Ġprem": 5703,
      "))$": 5704,
      "Ġminor": 5705,
      "Ġmanagement": 5706,
      "module": 5707,
      "ĠLy": 5708,
      "nel": 5709,
      "Ġnotation": 5710,
      "Ġ$|\\": 5711,
      "Ġbeam": 5712,
      "She": 5713,
      "Ġbring": 5714,
      "Ġcontinue": 5715,
      "Ġcommer": 5716,
      "tes": 5717,
      "rane": 5718,
      "GC": 5719,
      "Ġcapital": 5720,
      "Ġseem": 5721,
      "Node": 5722,
      "force": 5723,
      "result": 5724,
      "Ġdepth": 5725,
      "Ġwriter": 5726,
      "71": 5727,
      "Ġsurround": 5728,
      "Ġstrongly": 5729,
      "Ġrecall": 5730,
      "ĠService": 5731,
      "Cons": 5732,
      "Ġmodule": 5733,
      "Ġdu": 5734,
      "Ġseparate": 5735,
      "active": 5736,
      "Ġmeasures": 5737,
      "ias": 5738,
      "1976": 5739,
      "Ġcause": 5740,
      "Ġansw": 5741,
      "Ġconclude": 5742,
      "Ġ);": 5743,
      "ette": 5744,
      "quare": 5745,
      "undle": 5746,
      "Ġ/*": 5747,
      "Ġtypical": 5748,
      "Ġremained": 5749,
      "mass": 5750,
      "rupt": 5751,
      "Ġphen": 5752,
      "Ġartist": 5753,
      "itle": 5754,
      "opic": 5755,
      "lections": 5756,
      "abil": 5757,
      "fined": 5758,
      "~~~~": 5759,
      "Ġaxis": 5760,
      "ĠSta": 5761,
      "Ġ]": 5762,
      "Ġwa": 5763,
      "ĠGovernment": 5764,
      "cs": 5765,
      "Ġstrict": 5766,
      "annels": 5767,
      "Ġmovement": 5768,
      "ockey": 5769,
      "Ġmiddle": 5770,
      "Ġsplit": 5771,
      "ĠEach": 5772,
      "Ġmechanism": 5773,
      "Ġnearly": 5774,
      "airs": 5775,
      "Ġdefault": 5776,
      "File": 5777,
      "So": 5778,
      "ĠLu": 5779,
      "Ġhydro": 5780,
      "ĠFilm": 5781,
      "Ġachieved": 5782,
      "Per": 5783,
      "ĠHenry": 5784,
      "ogeneous": 5785,
      "Ġmasses": 5786,
      "ĠSun": 5787,
      "omy": 5788,
      "udd": 5789,
      "Ġ,\\": 5790,
      "Ġexpressed": 5791,
      "Ġindicates": 5792,
      "irect": 5793,
      "picture": 5794,
      "utch": 5795,
      "1972": 5796,
      "Ġdevice": 5797,
      "Ġdifferential": 5798,
      "mselves": 5799,
      "Ġabsol": 5800,
      "ishop": 5801,
      "ĠStar": 5802,
      "1978": 5803,
      "grad": 5804,
      "Introduction": 5805,
      "vin": 5806,
      "cccc": 5807,
      "apers": 5808,
      "Ġcritic": 5809,
      "Ġreduction": 5810,
      "Ġwoman": 5811,
      "ĠRock": 5812,
      "IV": 5813,
      "eturn": 5814,
      "Ġtasks": 5815,
      "Ġsegment": 5816,
      "background": 5817,
      "Ġgreen": 5818,
      "oting": 5819,
      "ĠPenn": 5820,
      "HE": 5821,
      "lesssim": 5822,
      "Ġleader": 5823,
      "ĠMil": 5824,
      "OD": 5825,
      "Ġcarried": 5826,
      "Ġpositions": 5827,
      "ĠSet": 5828,
      "Ġbank": 5829,
      "Ġimmediately": 5830,
      "Ġsometimes": 5831,
      "Ġcard": 5832,
      "ufact": 5833,
      "iro": 5834,
      "{{": 5835,
      "ĠBus": 5836,
      "ĠOf": 5837,
      "1977": 5838,
      "ato": 5839,
      "shire": 5840,
      "Ġtim": 5841,
      "Ġinduced": 5842,
      "1974": 5843,
      "())": 5844,
      "Ġgap": 5845,
      "Ġorth": 5846,
      "Ġmachine": 5847,
      "object": 5848,
      "ĠChicago": 5849,
      "ĠForce": 5850,
      "ef": 5851,
      "Ġonto": 5852,
      "Ġcollege": 5853,
      "has": 5854,
      "ĠVer": 5855,
      "Ġlayers": 5856,
      "Ġbrought": 5857,
      "gu": 5858,
      "ga": 5859,
      "Ġroom": 5860,
      "Ġdetailed": 5861,
      "lood": 5862,
      "1975": 5863,
      "char": 5864,
      "Ġthemselves": 5865,
      "Ġnucle": 5866,
      "gn": 5867,
      "Ġculture": 5868,
      "PE": 5869,
      "Ġfeatured": 5870,
      "Ġmatches": 5871,
      "Build": 5872,
      "Ġtheoretical": 5873,
      "Can": 5874,
      "_-": 5875,
      "Ġpolitician": 5876,
      "[]": 5877,
      "ĠTime": 5878,
      "Ġthermal": 5879,
      "ĠOver": 5880,
      "current": 5881,
      "Ġwor": 5882,
      "\":": 5883,
      "Ġawarded": 5884,
      "Ġidentify": 5885,
      "Ġcollabor": 5886,
      "system": 5887,
      "Ġrisk": 5888,
      "Äģ": 5889,
      "ĠSwed": 5890,
      "MR": 5891,
      "sch": 5892,
      "fort": 5893,
      "pton": 5894,
      "Ġclearly": 5895,
      "Ġpurch": 5896,
      "velopment": 5897,
      "avel": 5898,
      "ny": 5899,
      "Ġinterpret": 5900,
      "Ġminutes": 5901,
      "ĠArts": 5902,
      "orage": 5903,
      "Ã¨": 5904,
      "ech": 5905,
      "itation": 5906,
      "ĠMem": 5907,
      "uled": 5908,
      "cretary": 5909,
      "ĠTw": 5910,
      "ĠHealth": 5911,
      "olean": 5912,
      "ĠOpen": 5913,
      "Ġminimal": 5914,
      "/**": 5915,
      "Ġanc": 5916,
      "Ġmoving": 5917,
      "Ġmajority": 5918,
      "blue": 5919,
      "ĠFinally": 5920,
      "Ġfix": 5921,
      "ĠAnn": 5922,
      "Ġpain": 5923,
      "Therefore": 5924,
      "ĠVirginia": 5925,
      "contin": 5926,
      "Ġutil": 5927,
      "Ġbehavi": 5928,
      "Ġaircraft": 5929,
      "Ġdifferences": 5930,
      "faces": 5931,
      "Ġgun": 5932,
      "Ġgraphs": 5933,
      "Ġpark": 5934,
      "Ġresol": 5935,
      "jo": 5936,
      "Ġpreserv": 5937,
      "oviet": 5938,
      "Ġaspect": 5939,
      "ĠSa": 5940,
      "ĠItaly": 5941,
      "Ġhypothes": 5942,
      "ady": 5943,
      "Ġmanufact": 5944,
      "Ġ(\"": 5945,
      "empor": 5946,
      "ĠFoundation": 5947,
      "Ġener": 5948,
      "agement": 5949,
      "Ser": 5950,
      "Ġability": 5951,
      "Ġunknown": 5952,
      "Ġgrand": 5953,
      "ĠIll": 5954,
      "Ġharm": 5955,
      "(),": 5956,
      "azz": 5957,
      "Ġconvex": 5958,
      "400": 5959,
      "Ġsch": 5960,
      "ĠParliament": 5961,
      "Ġpartition": 5962,
      "SD": 5963,
      "stream": 5964,
      "Ġcycle": 5965,
      "Ġcomment": 5966,
      "Ġachieve": 5967,
      "ĠGeorg": 5968,
      "gener": 5969,
      "Ġideal": 5970,
      "Ġprint": 5971,
      "rical": 5972,
      "Ġamb": 5973,
      "Ġ${": 5974,
      "[(": 5975,
      "orial": 5976,
      "ĠBr": 5977,
      "|}": 5978,
      "osh": 5979,
      "Ġmur": 5980,
      "Ġscales": 5981,
      "Ġclusters": 5982,
      "ĠHig": 5983,
      "greg": 5984,
      "Ġincorpor": 5985,
      "ĠCast": 5986,
      "cr": 5987,
      "iller": 5988,
      "chen": 5989,
      "Path": 5990,
      "Ġcapacity": 5991,
      "ĠCommittee": 5992,
      "iano": 5993,
      "&=&": 5994,
      "ifferen": 5995,
      "ĠCongress": 5996,
      "Ġcoming": 5997,
      "Ġmainly": 5998,
      "}{(": 5999,
      "Early": 6000,
      "ĠOper": 6001,
      "ĠSpace": 6002,
      "Ġconfir": 6003,
      "Ġkernel": 6004,
      "Ġcru": 6005,
      "ĠFlorida": 6006,
      "ĠBre": 6007,
      "ĠMexico": 6008,
      "CA": 6009,
      "Ġcele": 6010,
      "Ġangular": 6011,
      "Ġsites": 6012,
      "ĠIII": 6013,
      "Ġgrant": 6014,
      "Ġshot": 6015,
      "Ġinstall": 6016,
      "}{*}{": 6017,
      "Ġodd": 6018,
      "Ġfluct": 6019,
      "Mar": 6020,
      "Ġ[\\": 6021,
      "ometric": 6022,
      "gies": 6023,
      "Ġcalculations": 6024,
      "Ġfilter": 6025,
      "Ed": 6026,
      "vere": 6027,
      "Ġbounds": 6028,
      "Ġgrid": 6029,
      "Ġuncertainty": 6030,
      "ĠKn": 6031,
      "Ġproport": 6032,
      "1973": 6033,
      "Ġbad": 6034,
      "Add": 6035,
      "Ġsn": 6036,
      "ĠAtl": 6037,
      "phant": 6038,
      "Med": 6039,
      "ĠMost": 6040,
      "Ġmostly": 6041,
      "prec": 6042,
      "ĠTest": 6043,
      "Ġtournament": 6044,
      "Ġpow": 6045,
      "venue": 6046,
      "ĠFurthermore": 6047,
      "Ġindicate": 6048,
      "Ġperfect": 6049,
      "Ġcomplexity": 6050,
      "Ġoccurs": 6051,
      "rong": 6052,
      "Ġexponential": 6053,
      "1968": 6054,
      "ĠForm": 6055,
      "Ġexternal": 6056,
      "Finally": 6057,
      "iant": 6058,
      "Ġsections": 6059,
      "Ġloop": 6060,
      "Ġcontained": 6061,
      "dfrac": 6062,
      "ĠMax": 6063,
      "bed": 6064,
      "Ġhole": 6065,
      "Ġrotation": 6066,
      "ora": 6067,
      "Ġpix": 6068,
      "Sch": 6069,
      "Ġtold": 6070,
      "1000": 6071,
      "ĠAngeles": 6072,
      "tocol": 6073,
      "ĠLin": 6074,
      "Event": 6075,
      "Ġmassive": 6076,
      "Map": 6077,
      "Ġstudent": 6078,
      "Ġscored": 6079,
      ",\\,\\": 6080,
      "Text": 6081,
      "areer": 6082,
      "ulture": 6083,
      "Ġroot": 6084,
      "ibli": 6085,
      "System": 6086,
      "Ġinitially": 6087,
      "Ġmut": 6088,
      "olk": 6089,
      "unct": 6090,
      "Ġ===": 6091,
      "tabularnewline": 6092,
      "ĠEmp": 6093,
      "}}_{\\": 6094,
      "ĠChampionships": 6095,
      "ror": 6096,
      "ÑĢ": 6097,
      "yan": 6098,
      "Ġcorn": 6099,
      ":=": 6100,
      "ĠOrder": 6101,
      "While": 6102,
      "ĠCa": 6103,
      "Ġdecomposition": 6104,
      "Ġcopy": 6105,
      "Ġhousehold": 6106,
      "\\}$.": 6107,
      "Ġcov": 6108,
      "ĠFestival": 6109,
      ",$": 6110,
      "such": 6111,
      "Ġestablishments": 6112,
      "while": 6113,
      "Ġsure": 6114,
      "Ġupdate": 6115,
      "]$.": 6116,
      "ancy": 6117,
      "language": 6118,
      "Ġmixed": 6119,
      "je": 6120,
      "Ġdenoted": 6121,
      "Ġstay": 6122,
      "floor": 6123,
      "Ġinn": 6124,
      "Att": 6125,
      "yer": 6126,
      "oration": 6127,
      "Ġbroadcast": 6128,
      "ĠSil": 6129,
      "Other": 6130,
      "PI": 6131,
      "^*$": 6132,
      "rea": 6133,
      "Ġactions": 6134,
      "Ġfundamental": 6135,
      "Ġdivision": 6136,
      "ĠRussia": 6137,
      "Ġspread": 6138,
      "itivity": 6139,
      "$_{": 6140,
      "Ġreferred": 6141,
      "Ġsynthe": 6142,
      "poses": 6143,
      "Ġappearance": 6144,
      "cd": 6145,
      "Ġleave": 6146,
      "Ġcomputer": 6147,
      "/*": 6148,
      "Field": 6149,
      "Ġopport": 6150,
      "Ġorganization": 6151,
      "Ġcoefficient": 6152,
      "ĠInst": 6153,
      "Ġconsidering": 6154,
      "Ġdiscrete": 6155,
      "Ġearn": 6156,
      "Ġsinger": 6157,
      "Ġpassed": 6158,
      "Ġentropy": 6159,
      "Ġcentre": 6160,
      "alysis": 6161,
      "Ġtalk": 6162,
      "}})": 6163,
      "Ġpurpose": 6164,
      "diag": 6165,
      "pected": 6166,
      "cf": 6167,
      "SR": 6168,
      "num": 6169,
      "ĠOh": 6170,
      "]}": 6171,
      "vee": 6172,
      "Ġcarry": 6173,
      "ÑĤ": 6174,
      "awa": 6175,
      "onical": 6176,
      "she": 6177,
      "Ġremain": 6178,
      ";\"": 6179,
      "1971": 6180,
      "Ġdistingu": 6181,
      "Ġdatasets": 6182,
      "eks": 6183,
      "Ġstatistics": 6184,
      "Ġappropriate": 6185,
      "Index": 6186,
      "View": 6187,
      "ima": 6188,
      "Results": 6189,
      "Ġtraject": 6190,
      "Ġcalculation": 6191,
      "Element": 6192,
      "ariance": 6193,
      "afety": 6194,
      "related": 6195,
      "Ġinfinite": 6196,
      "define": 6197,
      "Group": 6198,
      "irit": 6199,
      "bmatrix": 6200,
      "ĠGr": 6201,
      "Ġfair": 6202,
      "Ġbasketball": 6203,
      "cript": 6204,
      "Ġpartial": 6205,
      "atically": 6206,
      "Ġhum": 6207,
      "Ġfunctional": 6208,
      "Ġfinancial": 6209,
      "Ġmedical": 6210,
      "////////": 6211,
      "oral": 6212,
      "DP": 6213,
      "ĠKar": 6214,
      "Ġextrem": 6215,
      "oz": 6216,
      "Ġassign": 6217,
      "Ġexchange": 6218,
      "aylor": 6219,
      "Ġprobably": 6220,
      "$:": 6221,
      "Ġestimation": 6222,
      "Notes": 6223,
      "Ġefficiency": 6224,
      "Ġlif": 6225,
      "ĠTer": 6226,
      "des": 6227,
      "resh": 6228,
      "Ġprograms": 6229,
      "Ġlemma": 6230,
      "ĠSk": 6231,
      "Ġrapid": 6232,
      "host": 6233,
      "Ġwinning": 6234,
      "Ġprevent": 6235,
      "ova": 6236,
      "Ġphenomen": 6237,
      "ixt": 6238,
      "ĠBig": 6239,
      "Ġsummar": 6240,
      "ĠPre": 6241,
      "ĠWhat": 6242,
      "soft": 6243,
      "Ã³n": 6244,
      "count": 6245,
      "ĠJac": 6246,
      "Ġactivities": 6247,
      "Ġphysics": 6248,
      "js": 6249,
      "itely": 6250,
      "iana": 6251,
      "ugby": 6252,
      "Ġborder": 6253,
      "Ġguaran": 6254,
      "EM": 6255,
      "Ġdimensions": 6256,
      "Ġthreat": 6257,
      "Ġremoved": 6258,
      "Ġwindow": 6259,
      "first": 6260,
      "Ġgiving": 6261,
      "Ġcommunication": 6262,
      "Ġlies": 6263,
      "mage": 6264,
      "pare": 6265,
      "icated": 6266,
      "ĠSol": 6267,
      "ĠHel": 6268,
      "ĠLag": 6269,
      "Ġpoor": 6270,
      "ĠPeople": 6271,
      "two": 6272,
      "Ġalternative": 6273,
      "Ġways": 6274,
      "ĠBoard": 6275,
      "LT": 6276,
      "method": 6277,
      "process": 6278,
      "ĠInc": 6279,
      "inner": 6280,
      "Ġexcit": 6281,
      "Ġinterview": 6282,
      "Ġion": 6283,
      "ĠSee": 6284,
      "1969": 6285,
      "IF": 6286,
      "][]{": 6287,
      "DA": 6288,
      "':": 6289,
      "ĠAwards": 6290,
      "Ġtechnique": 6291,
      "Ġactual": 6292,
      "Ġproceed": 6293,
      "Ġscaling": 6294,
      "po": 6295,
      "Info": 6296,
      "aching": 6297,
      "icted": 6298,
      "Ġnil": 6299,
      "Ġrobust": 6300,
      "Ġ$.": 6301,
      "Ġsubt": 6302,
      "iable": 6303,
      "inding": 6304,
      "Ġload": 6305,
      "ĠTour": 6306,
      "hab": 6307,
      "Ġscenario": 6308,
      "Ġnuclear": 6309,
      "Ġluminos": 6310,
      "Ġgoes": 6311,
      "$};": 6312,
      "ĠMur": 6313,
      "Ġbin": 6314,
      "iled": 6315,
      "onald": 6316,
      "Ġopening": 6317,
      "Ġrecomm": 6318,
      "word": 6319,
      "nbsp": 6320,
      "ĠSeries": 6321,
      "ĠEv": 6322,
      "pain": 6323,
      "Ġgeometry": 6324,
      "Ġwriters": 6325,
      "Ġdise": 6326,
      "ĠLi": 6327,
      "ĠCarolina": 6328,
      "only": 6329,
      "Ġasked": 6330,
      "Ġlimits": 6331,
      "Bar": 6332,
      "Ġoption": 6333,
      "Section": 6334,
      "osc": 6335,
      "ja": 6336,
      "Ġreflect": 6337,
      "1967": 6338,
      "ING": 6339,
      "Ġspent": 6340,
      "results": 6341,
      "ĠMartin": 6342,
      "Ġprogress": 6343,
      "Ġpseud": 6344,
      "core": 6345,
      "house": 6346,
      "]$,": 6347,
      "ĠRel": 6348,
      ")}}": 6349,
      "Ġchannels": 6350,
      "Ġsatisfying": 6351,
      "Ġsurvey": 6352,
      "herent": 6353,
      "ĠCre": 6354,
      "ĠUsing": 6355,
      "ĠMount": 6356,
      "ipality": 6357,
      "ĠPost": 6358,
      "itiz": 6359,
      "Mem": 6360,
      "atalog": 6361,
      "English": 6362,
      "Ġhttp": 6363,
      "notes": 6364,
      "Ġroute": 6365,
      "etween": 6366,
      "Ġsuff": 6367,
      "allery": 6368,
      "Ġca": 6369,
      "wan": 6370,
      "pir": 6371,
      ".</": 6372,
      "Ġbright": 6373,
      "aven": 6374,
      "mathop": 6375,
      "ĠWal": 6376,
      "sis": 6377,
      "Model": 6378,
      "ĠMr": 6379,
      "ifies": 6380,
      "|}{": 6381,
      "Ġimplementation": 6382,
      "Ġdoub": 6383,
      "UN": 6384,
      "ĠHa": 6385,
      "Ġequilibrium": 6386,
      "law": 6387,
      "Ġshowing": 6388,
      "Ġweights": 6389,
      "Che": 6390,
      "Ġcool": 6391,
      "Ġcycl": 6392,
      "met": 6393,
      "Car": 6394,
      "eness": 6395,
      "ĠGet": 6396,
      "ĠNavy": 6397,
      "Using": 6398,
      "stitution": 6399,
      "ĠTimes": 6400,
      "bottom": 6401,
      "syl": 6402,
      "ĠOld": 6403,
      "John": 6404,
      "Ġlegal": 6405,
      "Ġgoals": 6406,
      "chang": 6407,
      "Ġgenus": 6408,
      "ĠNetwork": 6409,
      "ĠEducation": 6410,
      "ĠBrazil": 6411,
      "sky": 6412,
      "Ġarrang": 6413,
      "ĠJoseph": 6414,
      "Ġimp": 6415,
      "icks": 6416,
      "Ġmeeting": 6417,
      "Ġ^{": 6418,
      "Ġsummer": 6419,
      "ricket": 6420,
      "ĠPac": 6421,
      "Array": 6422,
      "Ġheat": 6423,
      "ĠSM": 6424,
      "During": 6425,
      "Ġevaluation": 6426,
      "Ġmission": 6427,
      "ĠEarth": 6428,
      "asion": 6429,
      "cknowled": 6430,
      "Ġsolve": 6431,
      "ĠBob": 6432,
      "})}": 6433,
      "ĠOl": 6434,
      "Ġsubgroup": 6435,
      "OP": 6436,
      "pired": 6437,
      "ĠLove": 6438,
      "Ġteacher": 6439,
      "adium": 6440,
      "150": 6441,
      "Ġacadem": 6442,
      "Ġdepending": 6443,
      "ĠBas": 6444,
      "Ġrough": 6445,
      "1940": 6446,
      "vania": 6447,
      "ĠAssum": 6448,
      "enced": 6449,
      "Ġmind": 6450,
      "Ġvariation": 6451,
      "}}}\\": 6452,
      "roph": 6453,
      "forward": 6454,
      "ji": 6455,
      "Rec": 6456,
      "Ġoffer": 6457,
      "pair": 6458,
      "ati": 6459,
      "ĠLine": 6460,
      "ĠStep": 6461,
      "hing": 6462,
      "ĠWales": 6463,
      "Part": 6464,
      "Ġproviding": 6465,
      "Ġwhereas": 6466,
      "1964": 6467,
      "Ġmanager": 6468,
      "Ġdegrees": 6469,
      "...,": 6470,
      "Ġactor": 6471,
      "ellig": 6472,
      "arse": 6473,
      "Ġrang": 6474,
      "ĠUp": 6475,
      "Ġneural": 6476,
      "yset": 6477,
      "ĠEngine": 6478,
      "Ġstatistical": 6479,
      "finition": 6480,
      "har": 6481,
      "flict": 6482,
      "ĠScotland": 6483,
      "ynamic": 6484,
      "SF": 6485,
      "1945": 6486,
      "ĠBoth": 6487,
      "ĠLong": 6488,
      "ĠWood": 6489,
      "aser": 6490,
      "Ġactress": 6491,
      "ĠIrish": 6492,
      "clos": 6493,
      "ĠFort": 6494,
      "Ġfine": 6495,
      "Ġacceler": 6496,
      "ĠHaw": 6497,
      "Code": 6498,
      "ĠJo": 6499,
      "Ġforest": 6500,
      "Comm": 6501,
      "))\\": 6502,
      "Ġwall": 6503,
      "Ġeconomic": 6504,
      "Ġspl": 6505,
      "Ġ{$": 6506,
      "Ġdoing": 6507,
      "Ġredshift": 6508,
      "formed": 6509,
      "lines": 6510,
      "Ġneutr": 6511,
      "Ġsampling": 6512,
      "Äĩ": 6513,
      "Ġrise": 6514,
      "Ġdestroy": 6515,
      "algorithm": 6516,
      "tfrac": 6517,
      "ifications": 6518,
      "Ġdemand": 6519,
      "Ġphil": 6520,
      "Ġentry": 6521,
      "---": 6522,
      "Ġdidn": 6523,
      "Cor": 6524,
      "Ġprojection": 6525,
      "Ġdust": 6526,
      "bigl": 6527,
      "Ġquestions": 6528,
      "Ġcalculate": 6529,
      "coming": 6530,
      "Ñģ": 6531,
      "What": 6532,
      "Ġedition": 6533,
      "ĠLife": 6534,
      "Ġrev": 6535,
      "ATE": 6536,
      "condition": 6537,
      "})=": 6538,
      "oren": 6539,
      "bas": 6540,
      "fefe": 6541,
      "Ġunderstanding": 6542,
      "Ġ\\]": 6543,
      "Ġfoot": 6544,
      "ĠCamp": 6545,
      "Ġ\\!": 6546,
      "posite": 6547,
      "Ġresources": 6548,
      "ĠBank": 6549,
      "pg": 6550,
      "Ġsector": 6551,
      "AF": 6552,
      "Ġconj": 6553,
      "}[\\": 6554,
      "You": 6555,
      "paragraph": 6556,
      "oken": 6557,
      "La": 6558,
      "Ġneighborhood": 6559,
      "ĠYoung": 6560,
      "Ġvocals": 6561,
      "'re": 6562,
      "image": 6563,
      "According": 6564,
      "Ġindividuals": 6565,
      "abled": 6566,
      "Åį": 6567,
      "CR": 6568,
      "tw": 6569,
      "hol": 6570,
      "ĠAppendix": 6571,
      "Ġbelieve": 6572,
      "Service": 6573,
      "ela": 6574,
      "Ġseasons": 6575,
      "}_{-": 6576,
      "uster": 6577,
      "inet": 6578,
      "Back": 6579,
      "emptyset": 6580,
      "sych": 6581,
      "zer": 6582,
      "1930": 6583,
      "Ġcomposition": 6584,
      "Ġcharacteristic": 6585,
      "Ġorbit": 6586,
      "ypes": 6587,
      "Request": 6588,
      "Ġcomposed": 6589,
      "uous": 6590,
      "verted": 6591,
      "Ġmis": 6592,
      "ifferent": 6593,
      "Ab": 6594,
      "forms": 6595,
      "vature": 6596,
      "Ġadopted": 6597,
      "Ġprinciple": 6598,
      "Ġresponsible": 6599,
      "Ġordered": 6600,
      "Ġdetected": 6601,
      "Ġsufficiently": 6602,
      "Ġprison": 6603,
      "ĠDou": 6604,
      "Ext": 6605,
      "HT": 6606,
      "Ġ(!": 6607,
      "arriage": 6608,
      "PP": 6609,
      "Ġdead": 6610,
      "aught": 6611,
      "}}.": 6612,
      "Context": 6613,
      "Ġtesting": 6614,
      "ĠEnd": 6615,
      "vered": 6616,
      "ĠĠĠĠĠĠĠĠĠĠĠĠĠĠĠĠĠĠĠĠĠĠĠĠĠĠĠ": 6617,
      "ĠProvince": 6618,
      "ĠBi": 6619,
      "Ġriver": 6620,
      "ĠSocial": 6621,
      "SL": 6622,
      "$&": 6623,
      "\\;": 6624,
      "ternet": 6625,
      "1965": 6626,
      "anger": 6627,
      "Ġnamely": 6628,
      "ilation": 6629,
      "after": 6630,
      "Ġmetal": 6631,
      "bigr": 6632,
      "maz": 6633,
      "Ġchemical": 6634,
      "rip": 6635,
      "ĠArab": 6636,
      "scriptstyle": 6637,
      "}\\,\\": 6638,
      "Career": 6639,
      "Ġpredicted": 6640,
      "Ġended": 6641,
      "Ġwood": 6642,
      "uum": 6643,
      "joint": 6644,
      "rants": 6645,
      "Ġheart": 6646,
      "clusions": 6647,
      "inals": 6648,
      "Ġscene": 6649,
      "****************": 6650,
      "Ġstore": 6651,
      "ĠHon": 6652,
      "ĠTheir": 6653,
      "vector": 6654,
      "fs": 6655,
      "Ã§": 6656,
      "Ġfailed": 6657,
      "Hand": 6658,
      "Ġdespite": 6659,
      "Ġlooking": 6660,
      "ĠRegister": 6661,
      "Ġmodified": 6662,
      "Ġscreen": 6663,
      "Ġturned": 6664,
      "Ġign": 6665,
      "ĠAssembly": 6666,
      "orter": 6667,
      "date": 6668,
      "Ġdimensional": 6669,
      "Ġrepresentations": 6670,
      "Ġisland": 6671,
      "stract": 6672,
      "Ġut": 6673,
      "mond": 6674,
      "ĠSoviet": 6675,
      "ĠLiber": 6676,
      "ĠProfess": 6677,
      "Ġfavor": 6678,
      "ĠHistoric": 6679,
      "uler": 6680,
      "Ġcoordinate": 6681,
      "lap": 6682,
      "gr": 6683,
      "itan": 6684,
      "formal": 6685,
      "GL": 6686,
      "Next": 6687,
      "ĠPlay": 6688,
      "ibliography": 6689,
      "Ġmaster": 6690,
      "Ġquickly": 6691,
      "Ġ^": 6692,
      "ĠTeam": 6693,
      ")}_": 6694,
      "ĠHy": 6695,
      "columnwidth": 6696,
      "anguages": 6697,
      "sat": 6698,
      "loc": 6699,
      "tan": 6700,
      "ĠLee": 6701,
      "kins": 6702,
      "brace": 6703,
      "Ġcat": 6704,
      "Ġ});": 6705,
      "tained": 6706,
      "DM": 6707,
      "eff": 6708,
      "aver": 6709,
      "Ġassess": 6710,
      "Ġmusical": 6711,
      "Ġfif": 6712,
      ",\\\\": 6713,
      "ĠIR": 6714,
      "Ġstudio": 6715,
      "Ġwhom": 6716,
      "ĠProgram": 6717,
      "1966": 6718,
      "Ġlic": 6719,
      "OC": 6720,
      "ĠSec": 6721,
      "Ġformat": 6722,
      "']": 6723,
      "yes": 6724,
      "totype": 6725,
      "Ġnorthern": 6726,
      "ĠField": 6727,
      "Ġchampionship": 6728,
      "Ġlaunched": 6729,
      "Ġattended": 6730,
      "ĠChief": 6731,
      "Ġquarter": 6732,
      "Ġhop": 6733,
      "Ġcoast": 6734,
      "ĠCross": 6735,
      "Rel": 6736,
      "Ġsouthern": 6737,
      "poss": 6738,
      "Ġinterface": 6739,
      "Ġ\\&": 6740,
      "ampion": 6741,
      "Ġpriv": 6742,
      "Ġobvious": 6743,
      "ride": 6744,
      "ochastic": 6745,
      "Ġbias": 6746,
      "Ġchief": 6747,
      "break": 6748,
      "1920": 6749,
      "Char": 6750,
      "ĠColumb": 6751,
      "120": 6752,
      "Ġrailway": 6753,
      "Cell": 6754,
      "})^": 6755,
      "Ġbattle": 6756,
      "sylvania": 6757,
      ",{\\": 6758,
      "ĠĠĠĠĠĠĠĠĠĠĠĠĠĠ": 6759,
      "ansas": 6760,
      "rank": 6761,
      "ifts": 6762,
      "aka": 6763,
      "mediate": 6764,
      "GN": 6765,
      "plicity": 6766,
      "font": 6767,
      "Ġstability": 6768,
      "build": 6769,
      "Ġusual": 6770,
      "strong": 6771,
      "mail": 6772,
      "Ġelim": 6773,
      "Ġfreedom": 6774,
      "Ġwanted": 6775,
      "Ġapplying": 6776,
      "Ġgravit": 6777,
      "ibr": 6778,
      "Ġweeks": 6779,
      "ĠRam": 6780,
      "['": 6781,
      "Ġfa": 6782,
      "ĠJun": 6783,
      "ultane": 6784,
      "';": 6785,
      "Ġinverse": 6786,
      "Ġconsequence": 6787,
      "ĠJan": 6788,
      "Ġvertical": 6789,
      "Ġdoesn": 6790,
      "Ġmovie": 6791,
      "ĠNorthern": 6792,
      "ultural": 6793,
      "actic": 6794,
      "Ġevaluate": 6795,
      "afe": 6796,
      "undred": 6797,
      "void": 6798,
      "open": 6799,
      "Ġproducer": 6800,
      "arthe": 6801,
      "Person": 6802,
      "Ġfarm": 6803,
      "Ġelectro": 6804,
      "vest": 6805,
      "ĠHot": 6806,
      "ensities": 6807,
      "Ġnumerous": 6808,
      "Ġking": 6809,
      "start": 6810,
      "Ġrecords": 6811,
      "miss": 6812,
      "xx": 6813,
      "irls": 6814,
      "ali": 6815,
      "ĠDirector": 6816,
      "disc": 6817,
      "ĠValley": 6818,
      "Ġworth": 6819,
      "iem": 6820,
      "Ġeditor": 6821,
      "block": 6822,
      "ĠSir": 6823,
      "Ġintegration": 6824,
      "Ġintersection": 6825,
      "}}^{\\": 6826,
      "Ġbrand": 6827,
      "quar": 6828,
      "Count": 6829,
      "IA": 6830,
      "ĠOffice": 6831,
      "Ġdispers": 6832,
      "Ġarguments": 6833,
      "Ġobjective": 6834,
      "ilbert": 6835,
      "Ġlocally": 6836,
      "ĠTop": 6837,
      "Ġnewsp": 6838,
      "Ġnonlinear": 6839,
      "Ġattract": 6840,
      "Ġradiation": 6841,
      "track": 6842,
      "PA": 6843,
      "ried": 6844,
      "ĠTim": 6845,
      "Ġgets": 6846,
      "lt": 6847,
      "Ġcommunities": 6848,
      "rump": 6849,
      "Ġdrug": 6850,
      "Ġquery": 6851,
      "Am": 6852,
      "Ġembedding": 6853,
      "Films": 6854,
      "Ġunderlying": 6855,
      "Ġcommercial": 6856,
      "Ġshoot": 6857,
      "Ġexc": 6858,
      "Pre": 6859,
      ")--": 6860,
      "Ġadvantage": 6861,
      "ĠJim": 6862,
      "Ġcensus": 6863,
      "Ġferm": 6864,
      "Ġstruct": 6865,
      "Ġast": 6866,
      "CL": 6867,
      "Ġconv": 6868,
      "Ġsec": 6869,
      "usband": 6870,
      "Ġassigned": 6871,
      "CM": 6872,
      "Ġimag": 6873,
      "Ġbecoming": 6874,
      "zh": 6875,
      "ounds": 6876,
      "pring": 6877,
      "Ġ};": 6878,
      "Ġassumptions": 6879,
      "step": 6880,
      "Ġdiagonal": 6881,
      "Config": 6882,
      "Ġice": 6883,
      "Ġbands": 6884,
      "ĠModel": 6885,
      "ologies": 6886,
      "Ġmapping": 6887,
      "ĠIran": 6888,
      "Ġsaying": 6889,
      "bec": 6890,
      "ĉĉĊ": 6891,
      "Ġindeed": 6892,
      "Ġattrib": 6893,
      "ĠEmpire": 6894,
      "emic": 6895,
      "sequent": 6896,
      "tiny": 6897,
      "ighter": 6898,
      "Ġthing": 6899,
      "epend": 6900,
      "acter": 6901,
      "chers": 6902,
      "avelength": 6903,
      "ĠCE": 6904,
      "DB": 6905,
      "ĠSpain": 6906,
      "Ġcoinc": 6907,
      "valid": 6908,
      "](": 6909,
      "ĠBook": 6910,
      "Ġprojects": 6911,
      "Ġdiam": 6912,
      "Ġfinding": 6913,
      "Ġprice": 6914,
      "Ġforced": 6915,
      "Size": 6916,
      "ĠAut": 6917,
      "Ġmaterials": 6918,
      "Proof": 6919,
      "pass": 6920,
      "ĠWind": 6921,
      "pared": 6922,
      "func": 6923,
      "algebra": 6924,
      "Ġolder": 6925,
      "Ġcovered": 6926,
      "Ġplanet": 6927,
      "Ġimproved": 6928,
      "SA": 6929,
      "Ġleaving": 6930,
      "Ġdesired": 6931,
      "connect": 6932,
      "enty": 6933,
      "stable": 6934,
      "cean": 6935,
      "Ġserve": 6936,
      "Ġradial": 6937,
      "ĠData": 6938,
      "rative": 6939,
      "base": 6940,
      "figures": 6941,
      "ĠGovern": 6942,
      "Ġcomputational": 6943,
      "Ġbos": 6944,
      "Ġremark": 6945,
      "Ġshared": 6946,
      "Ġsuggested": 6947,
      "zy": 6948,
      "\\)": 6949,
      "Ġsuggests": 6950,
      "integ": 6951,
      "Ġexplained": 6952,
      "assert": 6953,
      "Ġdelay": 6954,
      "Ġacts": 6955,
      "ĠFred": 6956,
      "user": 6957,
      "Ġ/>": 6958,
      "urt": 6959,
      "config": 6960,
      "Ġannual": 6961,
      "vari": 6962,
      "\\}$,": 6963,
      "isters": 6964,
      "default": 6965,
      "Ġimportance": 6966,
      "oded": 6967,
      "Ð¾Ð": 6968,
      "Ġâ": 6969,
      "Ġextend": 6970,
      "atures": 6971,
      "Ġmaximal": 6972,
      "Box": 6973,
      "Tra": 6974,
      "phas": 6975,
      "uer": 6976,
      "Ġvote": 6977,
      "Ġpull": 6978,
      "Ġpredictions": 6979,
      "Ġenergies": 6980,
      "Ġque": 6981,
      "phantom": 6982,
      "orning": 6983,
      "Bi": 6984,
      "Ġabund": 6985,
      "ĠST": 6986,
      "({": 6987,
      "Ġinterested": 6988,
      "etal": 6989,
      "longrightarrow": 6990,
      "Ġparents": 6991,
      "ropic": 6992,
      "ĠPlan": 6993,
      "Pop": 6994,
      "^{*": 6995,
      "Ġsenior": 6996,
      "claim": 6997,
      "ĠGreek": 6998,
      "Ġmedium": 6999,
      "aya": 7000,
      "Ġofficer": 7001,
      "ĠEr": 7002,
      "indu": 7003,
      "fi": 7004,
      "dy": 7005,
      "Ġsea": 7006,
      "ĠFC": 7007,
      "ographic": 7008,
      "IL": 7009,
      "Ġcandidates": 7010,
      "Dis": 7011,
      "Ġfriends": 7012,
      "Ġderivative": 7013,
      "hem": 7014,
      "eller": 7015,
      "Ġlaws": 7016,
      "ĠJud": 7017,
      "Ġdivided": 7018,
      "ashion": 7019,
      "1963": 7020,
      "Ġcm": 7021,
      "Ġjet": 7022,
      "Ġsort": 7023,
      "ĠPak": 7024,
      "]{\\": 7025,
      "Ġclaimed": 7026,
      "Ġitem": 7027,
      "ithm": 7028,
      "slant": 7029,
      "ees": 7030,
      "ourier": 7031,
      "iota": 7032,
      "ads": 7033,
      "HS": 7034,
      "Ġspecified": 7035,
      "sign": 7036,
      "DR": 7037,
      "Ġprocessing": 7038,
      "called": 7039,
      "Ġtraffic": 7040,
      "Ġdescent": 7041,
      "iy": 7042,
      "cut": 7043,
      "Ġ$,": 7044,
      "ĠHor": 7045,
      "api": 7046,
      "Ġdrama": 7047,
      "ĠMen": 7048,
      "ĠJournal": 7049,
      "Ġvariance": 7050,
      "magnetic": 7051,
      "Ġnarrow": 7052,
      "Ġsuitable": 7053,
      "Ġcouple": 7054,
      "Ġcommission": 7055,
      "post": 7056,
      "Ġreturns": 7057,
      "Ġdevices": 7058,
      "gers": 7059,
      "ĠMajor": 7060,
      "cat": 7061,
      ";\\;\\": 7062,
      "airman": 7063,
      "Ġresist": 7064,
      "axis": 7065,
      "Ġpiece": 7066,
      "ĠPennsylvania": 7067,
      "ometry": 7068,
      "Ġbulk": 7069,
      "cisely": 7070,
      "1962": 7071,
      "Ġdefeated": 7072,
      "Ġleaves": 7073,
      "Ġorders": 7074,
      "elihood": 7075,
      "structure": 7076,
      "Ġ{};": 7077,
      "Ġrelax": 7078,
      "Method": 7079,
      "Ġconstants": 7080,
      "joy": 7081,
      "ĠGood": 7082,
      "Ġtracks": 7083,
      "Ġdynamic": 7084,
      "Ġowned": 7085,
      "oston": 7086,
      "ĠCentre": 7087,
      "Ġstress": 7088,
      "Ġmagazine": 7089,
      "Ġpromin": 7090,
      "location": 7091,
      "Ġdescribes": 7092,
      "Oper": 7093,
      "pendence": 7094,
      "Hence": 7095,
      "};$": 7096,
      "Ġexplicitly": 7097,
      "}$}": 7098,
      "Ġdiscovered": 7099,
      "Ġmodul": 7100,
      "defined": 7101,
      "Ġtail": 7102,
      "Ġ\\(\\": 7103,
      "ĠIndeed": 7104,
      "Ġconducted": 7105,
      "ĠRadio": 7106,
      "}|\\": 7107,
      "Ġsingles": 7108,
      "Ġlived": 7109,
      "Ġraised": 7110,
      "Ġsequences": 7111,
      "Ġadding": 7112,
      "Ġdiss": 7113,
      "Ġderive": 7114,
      "Ġevol": 7115,
      "Ġterrit": 7116,
      "asy": 7117,
      "dec": 7118,
      "mosp": 7119,
      "Ġ}{": 7120,
      "ontal": 7121,
      "arden": 7122,
      "bras": 7123,
      "Ġhar": 7124,
      "trivial": 7125,
      "ĠIsrael": 7126,
      "teen": 7127,
      "mitted": 7128,
      "ĠLibrary": 7129,
      "Ġasymptotic": 7130,
      "ĠDemocratic": 7131,
      "Ġapparent": 7132,
      "emporary": 7133,
      "nn": 7134,
      "ĠElect": 7135,
      "Ġmaxim": 7136,
      "ierarch": 7137,
      "haps": 7138,
      "Ġcontrad": 7139,
      "Ġnine": 7140,
      "Ġdiver": 7141,
      "Ġlocations": 7142,
      "/(": 7143,
      "Ġwidely": 7144,
      "Ġplans": 7145,
      "aters": 7146,
      "ibration": 7147,
      "Ref": 7148,
      "lad": 7149,
      "ildren": 7150,
      "Ġaccurate": 7151,
      "}}=": 7152,
      "Lemma": 7153,
      "uty": 7154,
      "ĠConference": 7155,
      "Ġallowing": 7156,
      "Ġtrees": 7157,
      "ĠBase": 7158,
      "ĠJones": 7159,
      "Ġarrest": 7160,
      "Ġluminosity": 7161,
      "Ġtheories": 7162,
      "Ġinvestigate": 7163,
      "ĠBritain": 7164,
      "PU": 7165,
      "&=\\": 7166,
      "Ġexpert": 7167,
      "ennis": 7168,
      "Ġtrivial": 7169,
      "Ġesc": 7170,
      "ĠSuch": 7171,
      "Art": 7172,
      "parison": 7173,
      "Ġisol": 7174,
      "=.": 7175,
      "Ġlives": 7176,
      "Ġeth": 7177,
      "del": 7178,
      "Line": 7179,
      "inations": 7180,
      "ĠScottish": 7181,
      "acent": 7182,
      "Ġlabels": 7183,
      "DS": 7184,
      "ĠSar": 7185,
      "ĠCamb": 7186,
      "\\%$": 7187,
      "iling": 7188,
      "Ġmarked": 7189,
      "Ġnation": 7190,
      "pto": 7191,
      "Ġcomputing": 7192,
      "Ġphoton": 7193,
      "Ġmountain": 7194,
      "aa": 7195,
      "Ġattacks": 7196,
      "Ag": 7197,
      "Ġelections": 7198,
      "rosc": 7199,
      "bury": 7200,
      "ĉĠĠĠ": 7201,
      "ĠBern": 7202,
      "Ġsolar": 7203,
      "Ġtopological": 7204,
      "Ġdrum": 7205,
      "Ġgetting": 7206,
      "rect": 7207,
      "Call": 7208,
      "ĠBor": 7209,
      "Ġconfirmed": 7210,
      "artheta": 7211,
      "Ġconven": 7212,
      "ĠBal": 7213,
      "Ġtrib": 7214,
      "vartheta": 7215,
      "1944": 7216,
      "ĠKh": 7217,
      "Ġexception": 7218,
      "bal": 7219,
      "fold": 7220,
      "subsec": 7221,
      "vect": 7222,
      "ĠUk": 7223,
      "ĠBul": 7224,
      "ĠSpe": 7225,
      "'m": 7226,
      "Ġsal": 7227,
      "ĠDevelopment": 7228,
      "Ġstories": 7229,
      "eld": 7230,
      "Ġabsolute": 7231,
      "Ġpropose": 7232,
      "Ġforeign": 7233,
      "Ġtrig": 7234,
      "urations": 7235,
      "inois": 7236,
      "Ġgravity": 7237,
      "El": 7238,
      "Ġpicture": 7239,
      "ĠLord": 7240,
      "ĠDet": 7241,
      "ĠBattle": 7242,
      "Ġhusband": 7243,
      "Ġdigital": 7244,
      "Ġoffers": 7245,
      "${\\": 7246,
      "arrier": 7247,
      "dependent": 7248,
      "udget": 7249,
      "Act": 7250,
      "gebras": 7251,
      "Ġcurvature": 7252,
      ")})": 7253,
      "Ġrare": 7254,
      "Ġvoice": 7255,
      "Ġnothing": 7256,
      "Ġgeneralized": 7257,
      "Ġblocks": 7258,
      "Ġbenef": 7259,
      "hl": 7260,
      "itative": 7261,
      "pet": 7262,
      "burgh": 7263,
      "standing": 7264,
      "Ġpil": 7265,
      "^{(\\": 7266,
      "Ġimplemented": 7267,
      "slash": 7268,
      "Ġcapture": 7269,
      "member": 7270,
      "Ġacting": 7271,
      "alty": 7272,
      "Ġtests": 7273,
      "Lo": 7274,
      "Fl": 7275,
      "Ġreceive": 7276,
      "ĠWay": 7277,
      "Ġsurpr": 7278,
      "Ġnearby": 7279,
      "py": 7280,
      "\\}\\": 7281,
      "zz": 7282,
      "Ġdynamical": 7283,
      "high": 7284,
      "Ġarmy": 7285,
      "Aust": 7286,
      "}~": 7287,
      "struct": 7288,
      "ĠMichigan": 7289,
      "ĠAsia": 7290,
      "1961": 7291,
      "Ġcloud": 7292,
      "Ġvictory": 7293,
      "Ġfederal": 7294,
      "ĠProject": 7295,
      "idel": 7296,
      "\\|\\": 7297,
      "medskip": 7298,
      "Ġmedian": 7299,
      "create": 7300,
      "ĠSouthern": 7301,
      "aria": 7302,
      "Ġsecondary": 7303,
      "Ġprime": 7304,
      "Ġagents": 7305,
      "wer": 7306,
      "Ġcounty": 7307,
      "Ġago": 7308,
      "Ġcelebr": 7309,
      ":=\\": 7310,
      "ĠMountain": 7311,
      "Ġlie": 7312,
      "GR": 7313,
      "ĠCy": 7314,
      "Right": 7315,
      "Ġtend": 7316,
      "ĠPacific": 7317,
      "nav": 7318,
      "cale": 7319,
      "FR": 7320,
      "Ġitems": 7321,
      "Ġ__": 7322,
      "Ġentered": 7323,
      "ĠTre": 7324,
      "Ġrevealed": 7325,
      "ĠJohnson": 7326,
      "Ġhistorical": 7327,
      "Ġmotiv": 7328,
      "Cur": 7329,
      "ogen": 7330,
      "Ġtool": 7331,
      "lets": 7332,
      "tikzpicture": 7333,
      "ulty": 7334,
      "ĠCarl": 7335,
      "bot": 7336,
      "ĠMah": 7337,
      "Ġcanonical": 7338,
      "semble": 7339,
      "ador": 7340,
      "III": 7341,
      "Ġsatisfied": 7342,
      "second": 7343,
      "ĠCivil": 7344,
      "vs": 7345,
      "Ġsched": 7346,
      "Ġsides": 7347,
      "Ġjoin": 7348,
      "oir": 7349,
      "iler": 7350,
      "Ġlab": 7351,
      "Dist": 7352,
      "ĠBra": 7353,
      "Ġtrend": 7354,
      "Ġalone": 7355,
      "Given": 7356,
      "plications": 7357,
      "Ġisomorphism": 7358,
      "Ġworkers": 7359,
      "TS": 7360,
      "ĠOx": 7361,
      "Ġmatching": 7362,
      "Ġtal": 7363,
      "pective": 7364,
      "Ġhelped": 7365,
      "urban": 7366,
      "osoph": 7367,
      "Ġmathemat": 7368,
      "Ġanswer": 7369,
      "Ġapproximate": 7370,
      "notag": 7371,
      "dem": 7372,
      "Ġoperated": 7373,
      "arks": 7374,
      "ĠPrem": 7375,
      "final": 7376,
      "brid": 7377,
      "etries": 7378,
      "mi": 7379,
      "Ġeq": 7380,
      "ussion": 7381,
      "nergy": 7382,
      "ĠSund": 7383,
      "Ġouter": 7384,
      "ĠLo": 7385,
      "ĠBow": 7386,
      "unit": 7387,
      "ensions": 7388,
      "Ġpatterns": 7389,
      "Ġtransmission": 7390,
      "Ġsimultane": 7391,
      "diff": 7392,
      "Ġcommonly": 7393,
      "Ġintensity": 7394,
      "Ġtemperatures": 7395,
      "[-": 7396,
      "sche": 7397,
      "Ġparties": 7398,
      "ups": 7399,
      "Ġdashed": 7400,
      "Ġmagnet": 7401,
      "also": 7402,
      "uffer": 7403,
      "uning": 7404,
      "ĠAsian": 7405,
      "apache": 7406,
      "Ġ({\\": 7407,
      "Ġfirm": 7408,
      "Ġprotect": 7409,
      "ĠTaylor": 7410,
      "Ġchart": 7411,
      "flu": 7412,
      "Ġreserv": 7413,
      "ĠTam": 7414,
      "ĠJewish": 7415,
      "stone": 7416,
      "='": 7417,
      "Ġtechnical": 7418,
      "Ġcharged": 7419,
      "Ġprincipal": 7420,
      "ĠShow": 7421,
      "Ġsignals": 7422,
      "])": 7423,
      "ĠSong": 7424,
      "Ġhypothesis": 7425,
      "Ġextends": 7426,
      "Ġdepartment": 7427,
      "Ġtranslation": 7428,
      "ĠOhio": 7429,
      "igation": 7430,
      "Ġseat": 7431,
      "Ġprecisely": 7432,
      "ila": 7433,
      "etts": 7434,
      "ersion": 7435,
      "erior": 7436,
      "}\\|": 7437,
      "1958": 7438,
      "Disc": 7439,
      "ĠSu": 7440,
      "Ġnative": 7441,
      "Ġorganized": 7442,
      "Ġfluid": 7443,
      "Ġreasons": 7444,
      "Ġrepresenting": 7445,
      "National": 7446,
      "EL": 7447,
      "Ġemployed": 7448,
      "rows": 7449,
      "unch": 7450,
      "Ġsubsequently": 7451,
      "bell": 7452,
      "onto": 7453,
      "ĠMov": 7454,
      "Year": 7455,
      "Ġletter": 7456,
      "TC": 7457,
      "going": 7458,
      "Ġenter": 7459,
      "Ġthin": 7460,
      "Ġoffered": 7461,
      "ialog": 7462,
      "Ġweb": 7463,
      "Ġconflict": 7464,
      "ĠBecause": 7465,
      "reduc": 7466,
      "footnotes": 7467,
      "ync": 7468,
      "bro": 7469,
      "dev": 7470,
      "Ġhalo": 7471,
      "adel": 7472,
      "uing": 7473,
      "Des": 7474,
      "scriptsize": 7475,
      "ĠMu": 7476,
      "Ġbehaviour": 7477,
      "Ġlanguages": 7478,
      "Ġwatch": 7479,
      "Ġpropos": 7480,
      "Ġemphas": 7481,
      "ĠSom": 7482,
      "Ġvisit": 7483,
      "Ġquantities": 7484,
      "names": 7485,
      "Ġstochastic": 7486,
      "erc": 7487,
      "Ġtrying": 7488,
      "Ġrecording": 7489,
      "1959": 7490,
      "mn": 7491,
      "DC": 7492,
      "footnotesize": 7493,
      "ĠLab": 7494,
      "Ġefforts": 7495,
      "Ġbass": 7496,
      "Ġuniversity": 7497,
      "ĠWilliams": 7498,
      "white": 7499,
      "Ġswitch": 7500,
      "ĠTem": 7501,
      "Ġcitiz": 7502,
      "Ġ$\\{\\": 7503,
      "Ġreports": 7504,
      "Ġoil": 7505,
      "Ġreligious": 7506,
      "Suppose": 7507,
      "odd": 7508,
      "Ġinvolving": 7509,
      "Ġfamous": 7510,
      "ĠIN": 7511,
      "Ġperforming": 7512,
      "obs": 7513,
      "Ġtouch": 7514,
      "aug": 7515,
      "ĠĠĠĠĠĠĠĠĠĠĠĠĠĠĠĠĠ": 7516,
      "ĠTechnology": 7517,
      "Ġsociety": 7518,
      "car": 7519,
      "static": 7520,
      "ĠEdward": 7521,
      "enth": 7522,
      "loop": 7523,
      "jective": 7524,
      "ĠDev": 7525,
      "\"></": 7526,
      "Ġremove": 7527,
      "ĠRay": 7528,
      "Ġopposite": 7529,
      "chron": 7530,
      "Log": 7531,
      "Ġclean": 7532,
      "Ġshock": 7533,
      "1956": 7534,
      "ĠRepresent": 7535,
      "rance": 7536,
      "room": 7537,
      "ĠAv": 7538,
      "Color": 7539,
      "ĠQueen": 7540,
      "Ġvirtual": 7541,
      "Ġfootballer": 7542,
      "ĠPop": 7543,
      "hu": 7544,
      "ograp": 7545,
      "Ġmixing": 7546,
      "Ġiniti": 7547,
      "Ġcontest": 7548,
      "onia": 7549,
      "ĠÂ£": 7550,
      "ĠBlue": 7551,
      "Ġfre": 7552,
      "OL": 7553,
      "iced": 7554,
      ">\\": 7555,
      "ĠKent": 7556,
      "Ġsym": 7557,
      "ĠMany": 7558,
      "ĠCM": 7559,
      "Ġcategories": 7560,
      "Aut": 7561,
      "1942": 7562,
      "Ġdrive": 7563,
      "Ġsquad": 7564,
      "jected": 7565,
      "ĠJersey": 7566,
      "textcolor": 7567,
      "nol": 7568,
      "inity": 7569,
      "+(": 7570,
      "ĠHome": 7571,
      "ĠBu": 7572,
      "ĠEll": 7573,
      "Ġidentical": 7574,
      "hire": 7575,
      "images": 7576,
      "gypt": 7577,
      "ĠSand": 7578,
      "Ġpossibility": 7579,
      "Ġbelieved": 7580,
      "ĠSoc": 7581,
      "Ġturns": 7582,
      "Ġequivalence": 7583,
      "plane": 7584,
      "ĠVi": 7585,
      "ĠPhys": 7586,
      "Ġnotice": 7587,
      "ĠCro": 7588,
      "Ġregist": 7589,
      "ĠGen": 7590,
      "general": 7591,
      "ĠLem": 7592,
      "finite": 7593,
      "Ġincome": 7594,
      "Gu": 7595,
      "Ġhundred": 7596,
      "ervised": 7597,
      "istent": 7598,
      "Ġdetermin": 7599,
      "osa": 7600,
      "Ġserious": 7601,
      "\"\"": 7602,
      "Moreover": 7603,
      "ĠGeorgia": 7604,
      "Ġreprodu": 7605,
      "Brit": 7606,
      "1948": 7607,
      "number": 7608,
      "esian": 7609,
      "Ġencou": 7610,
      "1957": 7611,
      "ĠType": 7612,
      "Ġacquired": 7613,
      "Ġversions": 7614,
      "ione": 7615,
      "Ġpaths": 7616,
      "perties": 7617,
      "oute": 7618,
      "Ġresource": 7619,
      "ori": 7620,
      "Ġcollected": 7621,
      "Ġturb": 7622,
      "([": 7623,
      "Ġgrowing": 7624,
      "present": 7625,
      "Ġcities": 7626,
      "achus": 7627,
      "Ġempty": 7628,
      "ĠReview": 7629,
      "itage": 7630,
      "Ġconvent": 7631,
      "md": 7632,
      "Ġthr": 7633,
      "Ġsister": 7634,
      "Work": 7635,
      "ĠFrancisco": 7636,
      "ĠIllinois": 7637,
      "Ġvon": 7638,
      "verb": 7639,
      "Sports": 7640,
      "Ġquasi": 7641,
      "abeth": 7642,
      "poration": 7643,
      "Ġconsisting": 7644,
      "Ġstarts": 7645,
      "web": 7646,
      "Ġpartners": 7647,
      "ogonal": 7648,
      "Ġactors": 7649,
      "iders": 7650,
      "Ġsubstant": 7651,
      "Ġofficers": 7652,
      "ĠCoast": 7653,
      "sets": 7654,
      "Ġpoliticians": 7655,
      "onder": 7656,
      "ĠAnt": 7657,
      ";$": 7658,
      "Ġoperating": 7659,
      "lie": 7660,
      "ĠFar": 7661,
      "ĠBa": 7662,
      "Ġmill": 7663,
      "mt": 7664,
      "ruck": 7665,
      "ativ": 7666,
      "Ġexplore": 7667,
      "apl": 7668,
      "ĠEnter": 7669,
      "Ġmanner": 7670,
      "Rem": 7671,
      "isot": 7672,
      "Ġpowerful": 7673,
      "110": 7674,
      "odies": 7675,
      "Ġassuming": 7676,
      "ĠStand": 7677,
      "(-\\": 7678,
      "Ġvehicle": 7679,
      "Ġsubsequent": 7680,
      "Å¡": 7681,
      "Ġenh": 7682,
      "nam": 7683,
      "Ġspeak": 7684,
      "Ġexplo": 7685,
      "rer": 7686,
      "uly": 7687,
      "Ġcompat": 7688,
      "ĠIslam": 7689,
      "ĠBol": 7690,
      "ĠAtt": 7691,
      "Ġdoc": 7692,
      "ĠTheatre": 7693,
      "Ġcompl": 7694,
      "Ġpatients": 7695,
      "ĠWilson": 7696,
      "Ġserving": 7697,
      "Ġfeat": 7698,
      "Ġregarding": 7699,
      "Ġbridge": 7700,
      "edge": 7701,
      "ĠGi": 7702,
      "ĠServ": 7703,
      "ĠRh": 7704,
      "Ġrect": 7705,
      "Ġfle": 7706,
      "Ġprimarily": 7707,
      "ĠDutch": 7708,
      "ĠBusiness": 7709,
      "^*(": 7710,
      "Ġsafety": 7711,
      "Ġkept": 7712,
      "BM": 7713,
      "Ġaffected": 7714,
      "Mon": 7715,
      "Ġfluctuations": 7716,
      "}$;": 7717,
      "Ġtrial": 7718,
      "Ent": 7719,
      "1943": 7720,
      "ustain": 7721,
      "icine": 7722,
      "appe": 7723,
      "ĠKong": 7724,
      "enant": 7725,
      "Ġeigenvalues": 7726,
      "1939": 7727,
      "Ġcouncil": 7728,
      "periment": 7729,
      "Ġdx": 7730,
      ":#": 7731,
      "Ġwestern": 7732,
      "amm": 7733,
      "pic": 7734,
      "achusetts": 7735,
      "Ġlearned": 7736,
      "ĠStan": 7737,
      "^*\\": 7738,
      "Ġroll": 7739,
      "itzer": 7740,
      "FI": 7741,
      "water": 7742,
      "Ġatmosp": 7743,
      "Ġenjoy": 7744,
      "ĠGar": 7745,
      "Ġorganizations": 7746,
      "Ġcolon": 7747,
      ")^\\": 7748,
      "ĠMiddle": 7749,
      "oupl": 7750,
      "Ġsuc": 7751,
      "equations": 7752,
      "write": 7753,
      "ĠTrump": 7754,
      "Item": 7755,
      "make": 7756,
      "Although": 7757,
      "Ġequality": 7758,
      "Ġships": 7759,
      "Ġdetector": 7760,
      "ĠBoston": 7761,
      "ĠLim": 7762,
      "Min": 7763,
      "Ġquark": 7764,
      "edia": 7765,
      "bp": 7766,
      "ector": 7767,
      "plot": 7768,
      "ĠDM": 7769,
      "eries": 7770,
      "Ġbatt": 7771,
      "That": 7772,
      "ĠVan": 7773,
      "!]": 7774,
      "regular": 7775,
      "hard": 7776,
      "fully": 7777,
      "ctic": 7778,
      "Ġlibrary": 7779,
      "Ġflag": 7780,
      "Ġmess": 7781,
      "!\\": 7782,
      "Ġfigures": 7783,
      "Ġplas": 7784,
      "EX": 7785,
      "ĠPoland": 7786,
      "1952": 7787,
      "Ġprogramming": 7788,
      "Ġdisease": 7789,
      "Ġisot": 7790,
      "1955": 7791,
      "Ġaccret": 7792,
      "ĠGame": 7793,
      "Ġhope": 7794,
      "len": 7795,
      "clip": 7796,
      "TH": 7797,
      "ĠFollowing": 7798,
      "float": 7799,
      "Ġspac": 7800,
      "inst": 7801,
      "Ġdense": 7802,
      "Ġinteract": 7803,
      "Ġtrace": 7804,
      "Ġcaptured": 7805,
      "Ġaggreg": 7806,
      "Ġgeneric": 7807,
      "Ġcorrection": 7808,
      "Ġsizes": 7809,
      "outhe": 7810,
      "ĠGiven": 7811,
      "cope": 7812,
      "Ġcryst": 7813,
      "Ġindicated": 7814,
      "Ġshell": 7815,
      "1946": 7816,
      "Ġwavelength": 7817,
      "1941": 7818,
      "Ġcreation": 7819,
      "ĠAnother": 7820,
      "Ġsomew": 7821,
      "Ġapp": 7822,
      "Ġcomedy": 7823,
      "Ġbundle": 7824,
      "ategory": 7825,
      "Ġresear": 7826,
      "ĠGovernor": 7827,
      "ĠPortug": 7828,
      "Ġpossibly": 7829,
      "ĠSi": 7830,
      "ĠRun": 7831,
      "Ġimply": 7832,
      "apped": 7833,
      "General": 7834,
      "arios": 7835,
      "ĠSenate": 7836,
      "ĠAirport": 7837,
      "Ġsucceed": 7838,
      "My": 7839,
      "db": 7840,
      "gest": 7841,
      "ĠPhilipp": 7842,
      "Ġsettings": 7843,
      "ĠKen": 7844,
      "Ġgravitational": 7845,
      "ĠUSA": 7846,
      "Ġincident": 7847,
      "Ġtools": 7848,
      "Post": 7849,
      "enger": 7850,
      "elect": 7851,
      "Ġentries": 7852,
      "Ġprofiles": 7853,
      "Ġgr": 7854,
      "ulse": 7855,
      "sen": 7856,
      "Ġdedicated": 7857,
      "Ġnet": 7858,
      "uv": 7859,
      "Source": 7860,
      "VD": 7861,
      "Ġpolarization": 7862,
      ".\\\\": 7863,
      "Xi": 7864,
      "contain": 7865,
      "isson": 7866,
      "Ġretired": 7867,
      "Ġtwice": 7868,
      "ĠCard": 7869,
      "ĠPrince": 7870,
      "Ġthous": 7871,
      "aded": 7872,
      "Ġrepresentative": 7873,
      "Ġhospital": 7874,
      "Ġserver": 7875,
      "phia": 7876,
      "ĠMid": 7877,
      "$.}": 7878,
      "ĠSpecial": 7879,
      "TP": 7880,
      "Ġbeaut": 7881,
      "Top": 7882,
      "options": 7883,
      "dat": 7884,
      "AV": 7885,
      "Ġwaves": 7886,
      "ester": 7887,
      "Max": 7888,
      "Ġthank": 7889,
      "yd": 7890,
      "250": 7891,
      "Ġmanaged": 7892,
      "uries": 7893,
      "iger": 7894,
      "|^{": 7895,
      "ĠPa": 7896,
      "lock": 7897,
      "corollary": 7898,
      "rangian": 7899,
      "How": 7900,
      "Ġintermediate": 7901,
      "Ġintegrated": 7902,
      "ronic": 7903,
      "rend": 7904,
      "ellipt": 7905,
      "negative": 7906,
      "Ġkin": 7907,
      "Ġprefer": 7908,
      "ditionally": 7909,
      "Ġinvestigation": 7910,
      "Ġprotected": 7911,
      "Ġregional": 7912,
      "Ġpolic": 7913,
      "Ġassociation": 7914,
      "Ga": 7915,
      "ĠCr": 7916,
      "Ġnone": 7917,
      "Ġfailure": 7918,
      "inate": 7919,
      "formance": 7920,
      "backslash": 7921,
      "ĉĠ": 7922,
      "Ġadjust": 7923,
      "ĠJr": 7924,
      "chester": 7925,
      "Sing": 7926,
      "Ġlowest": 7927,
      "ĠMot": 7928,
      "large": 7929,
      "conf": 7930,
      "adow": 7931,
      "models": 7932,
      "Ġarc": 7933,
      "title": 7934,
      "Ġtruth": 7935,
      "boldmath": 7936,
      "Ġclubs": 7937,
      "Ġmuseum": 7938,
      "ni": 7939,
      "include": 7940,
      "Ġpowers": 7941,
      "Ġtoward": 7942,
      "downarrow": 7943,
      "ĠEst": 7944,
      "Some": 7945,
      "1954": 7946,
      "Ġsomeone": 7947,
      "Ġideas": 7948,
      "Ġclient": 7949,
      "Ġfocused": 7950,
      "ĠBang": 7951,
      "symm": 7952,
      "Ġspeech": 7953,
      "1947": 7954,
      "ĠWis": 7955,
      "Ġelectronic": 7956,
      "Ġintended": 7957,
      "ĠĠĠĠĠĠĠĠĠĠĠĠĠĠĠĠĠĠĠĠĠĠĠĠĠĠĠĠĠĠĠĠĠĠĠĠĠĠĠĠĠĠĠĠĠĠĠĠĠĠĠĠĠĠĠĠĠĠĠĠĠĠĠĠ": 7958,
      "ĠWall": 7959,
      "Ġexpat": 7960,
      "Ã±": 7961,
      "Ġlargely": 7962,
      "Ġbond": 7963,
      "una": 7964,
      "ĠKorea": 7965,
      "ucky": 7966,
      "ĠPlaces": 7967,
      "ĠRailway": 7968,
      "Ġrequirements": 7969,
      "igration": 7970,
      "1953": 7971,
      "$-$": 7972,
      "gather": 7973,
      "ĠOxford": 7974,
      "ĠSecretary": 7975,
      "icular": 7976,
      "Ġatoms": 7977,
      "Ġchallenge": 7978,
      "ĠAcc": 7979,
      "Ġrepeated": 7980,
      "enerate": 7981,
      "arma": 7982,
      "Ġprofessor": 7983,
      "ĠBell": 7984,
      "ele": 7985,
      "ĠFer": 7986,
      "rell": 7987,
      "ci": 7988,
      "Ġbench": 7989,
      "spe": 7990,
      "ĠExt": 7991,
      "ymmetric": 7992,
      "Ġanom": 7993,
      "ĠMedia": 7994,
      "ĠNight": 7995,
      "Ġphases": 7996,
      "ĠOp": 7997,
      "imb": 7998,
      "Ġcamera": 7999,
      "Ġcultural": 8000,
      "Ġstack": 8001,
      "ĠEastern": 8002,
      "Consider": 8003,
      "Ġcosts": 8004,
      "ĠMas": 8005,
      "ĠUr": 8006,
      "Ġdraft": 8007,
      "ĠDec": 8008,
      "ĠHuman": 8009,
      "Ġfrag": 8010,
      "ĠWater": 8011,
      "Assum": 8012,
      "Ġ\\,\\": 8013,
      "Ġcrew": 8014,
      "rins": 8015,
      "Ġhidden": 8016,
      "relation": 8017,
      "Ġdependent": 8018,
      "ĠStation": 8019,
      "ĠMassachusetts": 8020,
      "United": 8021,
      "ologist": 8022,
      "actory": 8023,
      "Ġtriang": 8024,
      "Input": 8025,
      "Ġarticles": 8026,
      "Ġinfer": 8027,
      "HC": 8028,
      "ĠHung": 8029,
      "Ġmeas": 8030,
      "Ġtrust": 8031,
      "Ġdriving": 8032,
      "Will": 8033,
      "Ġcreating": 8034,
      "irds": 8035,
      "ĠBC": 8036,
      "Ġepisodes": 8037,
      "lay": 8038,
      "ropol": 8039,
      "Ġfifth": 8040,
      "ĠAN": 8041,
      "Ġvacuum": 8042,
      "ding": 8043,
      "}$\\": 8044,
      "ĠBroad": 8045,
      "Ġevaluated": 8046,
      "Ġquantity": 8047,
      "Ġuniformly": 8048,
      "Ġperturbation": 8049,
      "Ġcatalog": 8050,
      "Ġmolecular": 8051,
      "Ġspecifically": 8052,
      "zen": 8053,
      "wing": 8054,
      "'.": 8055,
      "ĠTri": 8056,
      "amber": 8057,
      "aki": 8058,
      "Ġcorrections": 8059,
      "hens": 8060,
      "Ġreaction": 8061,
      "rome": 8062,
      "iga": 8063,
      "ĠAst": 8064,
      "Ġrecognition": 8065,
      "ulpt": 8066,
      "uated": 8067,
      "Dem": 8068,
      "Ġcommut": 8069,
      "yles": 8070,
      "ERT": 8071,
      "Ġfeedback": 8072,
      "elligence": 8073,
      "ĠEven": 8074,
      "Sum": 8075,
      "binom": 8076,
      "Ġends": 8077,
      "Ġplus": 8078,
      "arest": 8079,
      "Ġdemonstrate": 8080,
      "Ġconcert": 8081,
      "Ġuncertainties": 8082,
      "\\|_": 8083,
      "ĠBuild": 8084,
      "Ġpurs": 8085,
      "ests": 8086,
      "Ġanything": 8087,
      "ĠWild": 8088,
      "reducible": 8089,
      "ĠSuppose": 8090,
      "Ġwinner": 8091,
      "context": 8092,
      "Ġinterior": 8093,
      "iii": 8094,
      "Ġreferences": 8095,
      "Ġdecrease": 8096,
      "lic": 8097,
      "ĠBir": 8098,
      "Ġnormalized": 8099,
      "Ġproportional": 8100,
      "ĠHiggs": 8101,
      "ĠSea": 8102,
      "~(\\": 8103,
      "oday": 8104,
      "Ġcoupled": 8105,
      "ains": 8106,
      "Mat": 8107,
      "Ġuniversal": 8108,
      "Ġfelt": 8109,
      "Ġnotion": 8110,
      "Message": 8111,
      "weet": 8112,
      "uce": 8113,
      "iate": 8114,
      "Ġblood": 8115,
      "Ġseparation": 8116,
      "Ġowners": 8117,
      "Ġwild": 8118,
      "Ac": 8119,
      "ĠAndrew": 8120,
      "Ġexclud": 8121,
      "1949": 8122,
      "British": 8123,
      "Ġmultip": 8124,
      "Cre": 8125,
      "event": 8126,
      "jecture": 8127,
      "Ġstorage": 8128,
      "Ġdeploy": 8129,
      "ĠCreek": 8130,
      "|$": 8131,
      "pression": 8132,
      "inson": 8133,
      "isted": 8134,
      "lers": 8135,
      "ĠYour": 8136,
      "Ġreviews": 8137,
      "ancing": 8138,
      "Ġyouth": 8139,
      "ĠGeV": 8140,
      "rage": 8141,
      "Ġconsec": 8142,
      "Ġconfigurations": 8143,
      "Ġcoverage": 8144,
      "INE": 8145,
      "Ġalle": 8146,
      "Ġrational": 8147,
      "ĠWin": 8148,
      "ĠColumbia": 8149,
      "ĠLater": 8150,
      "aud": 8151,
      "info": 8152,
      "ĠFour": 8153,
      "125": 8154,
      "Ġ_{\\": 8155,
      "itness": 8156,
      "Ġelectrons": 8157,
      "Members": 8158,
      "ĠPolice": 8159,
      "bt": 8160,
      "ĠJackson": 8161,
      "Ġtransferred": 8162,
      "Par": 8163,
      "Ġcharacteristics": 8164,
      "Ġsecret": 8165,
      "Ġrig": 8166,
      "Ġinterpretation": 8167,
      "Ġrespond": 8168,
      "ĠCat": 8169,
      "ĠBBC": 8170,
      "rog": 8171,
      "Ġdirections": 8172,
      "phe": 8173,
      "ĠÅ": 8174,
      "iveness": 8175,
      "Ġfellow": 8176,
      "Ġsales": 8177,
      "Ġpersonnel": 8178,
      "Ġfort": 8179,
      "Ġexplan": 8180,
      "ingly": 8181,
      "parallel": 8182,
      "1951": 8183,
      "Ġfrequencies": 8184,
      "Case": 8185,
      "aby": 8186,
      "ĠJes": 8187,
      "ĠCR": 8188,
      "Li": 8189,
      "Ġvariations": 8190,
      "BH": 8191,
      "Ġfinds": 8192,
      "antry": 8193,
      "Ġiteration": 8194,
      "ĠEconom": 8195,
      "Ġgeometric": 8196,
      "!--": 8197,
      "ĠPower": 8198,
      "kh": 8199,
      "ĠEgypt": 8200,
      "Ġvisible": 8201,
      "*}[": 8202,
      "ĠDar": 8203,
      "effect": 8204,
      "ĠPoint": 8205,
      "Ġcancer": 8206,
      "Ġgirl": 8207,
      "Ġlens": 8208,
      "Ġsatell": 8209,
      "Ġanalyz": 8210,
      "Ġreduces": 8211,
      "ĠPolish": 8212,
      "Two": 8213,
      "Cal": 8214,
      "ULL": 8215,
      "Function": 8216,
      "Query": 8217,
      "ĠGR": 8218,
      "ĠLog": 8219,
      "Ġconclusion": 8220,
      "gt": 8221,
      "ĠAR": 8222,
      "Ġearned": 8223,
      "illy": 8224,
      "Ġadjacent": 8225,
      "othing": 8226,
      "ucl": 8227,
      "Ġclaims": 8228,
      "ĠAlexander": 8229,
      "UE": 8230,
      "Ġexpressions": 8231,
      "Ġpuls": 8232,
      "ritical": 8233,
      ")}(\\": 8234,
      "Ġissued": 8235,
      "amin": 8236,
      "Ġ{$\\": 8237,
      "df": 8238,
      "ĠJeff": 8239,
      "Ġdiscrim": 8240,
      "aming": 8241,
      "aling": 8242,
      "ĠFourier": 8243,
      "Ġrecover": 8244,
      "Gl": 8245,
      "Ġhockey": 8246,
      "./": 8247,
      "ocated": 8248,
      "Ġchanging": 8249,
      "ĠSN": 8250,
      "Ġgenerating": 8251,
      "'_{": 8252,
      "Po": 8253,
      "aton": 8254,
      "Ġmetall": 8255,
      "Ġperiodic": 8256,
      "Ġintroduction": 8257,
      "Ġconstitu": 8258,
      "apes": 8259,
      "Ġlabor": 8260,
      "pur": 8261,
      "town": 8262,
      "Ġmetrics": 8263,
      "ĠSD": 8264,
      "ĠJean": 8265,
      "dney": 8266,
      "Ġweap": 8267,
      "opher": 8268,
      "Manager": 8269,
      "theless": 8270,
      "Ġversus": 8271,
      "%)": 8272,
      "nections": 8273,
      "Ġdensities": 8274,
      "ĠDown": 8275,
      "Ġdatabase": 8276,
      "dule": 8277,
      "imits": 8278,
      "Ġfloor": 8279,
      "found": 8280,
      "ename": 8281,
      "ĠLittle": 8282,
      "forming": 8283,
      "ropical": 8284,
      "uparrow": 8285,
      "comput": 8286,
      "Ġclosely": 8287,
      "Ġcontinues": 8288,
      "thur": 8289,
      "Ġawards": 8290,
      "ito": 8291,
      "mom": 8292,
      "Ġsurrounding": 8293,
      "ĠSports": 8294,
      "osis": 8295,
      "rob": 8296,
      "Ġdeliver": 8297,
      "University": 8298,
      "ĠBelg": 8299,
      "Ġresidents": 8300,
      "clusive": 8301,
      "Ġhouses": 8302,
      "Ġabsorption": 8303,
      "ĠLatin": 8304,
      "Ġempir": 8305,
      ")}.": 8306,
      "Ġflows": 8307,
      "pson": 8308,
      "Ġfitting": 8309,
      "Ġnecessarily": 8310,
      "Style": 8311,
      ")(\\": 8312,
      "Ġhandle": 8313,
      "Ġprominent": 8314,
      "ĠHong": 8315,
      "instein": 8316,
      "Ġessentially": 8317,
      "cline": 8318,
      "Ã£": 8319,
      "BR": 8320,
      "there": 8321,
      "TD": 8322,
      "Ġbra": 8323,
      "{|": 8324,
      "ederation": 8325,
      "element": 8326,
      "Track": 8327,
      "ditional": 8328,
      "Ġsuppose": 8329,
      "Ġconfidence": 8330,
      "ographer": 8331,
      "Ġheav": 8332,
      "zech": 8333,
      "Ġmarriage": 8334,
      "Ġaccepted": 8335,
      "ĠPen": 8336,
      "ĠQueens": 8337,
      "izabeth": 8338,
      "Ġcert": 8339,
      "ĠHead": 8340,
      "Ġbill": 8341,
      "Ġcatch": 8342,
      "Ġexecutive": 8343,
      "mathit": 8344,
      "ĠInf": 8345,
      "Ġliqu": 8346,
      "ĠColor": 8347,
      "Ġresidual": 8348,
      "aux": 8349,
      "ĠHospital": 8350,
      "quant": 8351,
      "Ġ---": 8352,
      "Ġsuccessfully": 8353,
      "ami": 8354,
      "600": 8355,
      "sg": 8356,
      "ĠHal": 8357,
      "ĠMethod": 8358,
      "rating": 8359,
      "ĠEp": 8360,
      "Ġzone": 8361,
      "Ġconference": 8362,
      "Ġcompeted": 8363,
      "AE": 8364,
      "Ġadministration": 8365,
      "ogram": 8366,
      "Ġcolumns": 8367,
      "ĠLight": 8368,
      "Ġaspects": 8369,
      "inction": 8370,
      "ulf": 8371,
      "omer": 8372,
      "ĠSciences": 8373,
      ">>": 8374,
      "Ġ\\|\\": 8375,
      "content": 8376,
      "'ve": 8377,
      "riend": 8378,
      "Ġroughly": 8379,
      "Ġdiffusion": 8380,
      "Ġpp": 8381,
      "ĠMinistry": 8382,
      "ĠManagement": 8383,
      "Ġlaunch": 8384,
      "Ġdeviation": 8385,
      "Ġtriple": 8386,
      "Ġextremely": 8387,
      "ĠMicro": 8388,
      "ĠCommunity": 8389,
      "\").": 8390,
      "hfill": 8391,
      "lik": 8392,
      "ses": 8393,
      "Ġcalls": 8394,
      "ennes": 8395,
      "never": 8396,
      "ifer": 8397,
      "herical": 8398,
      "ĠJoe": 8399,
      "pop": 8400,
      "Ġhands": 8401,
      "ĠJustice": 8402,
      "Ġstreet": 8403,
      "Ġconvolution": 8404,
      "lope": 8405,
      "ais": 8406,
      "Ġsummary": 8407,
      "Ġple": 8408,
      "ĠMonte": 8409,
      "aved": 8410,
      "ĠBerlin": 8411,
      "Ġcharges": 8412,
      "ĉĉĉĉĉĉ": 8413,
      "lower": 8414,
      "plan": 8415,
      "@{": 8416,
      "Ġtemporal": 8417,
      "Ġcontrolled": 8418,
      "ĠThree": 8419,
      "yo": 8420,
      "null": 8421,
      "Ġpool": 8422,
      "Ġvehicles": 8423,
      "ĠJon": 8424,
      "}.}": 8425,
      "Ġscript": 8426,
      "Run": 8427,
      "ĠConserv": 8428,
      "athan": 8429,
      "Ġformulation": 8430,
      "Ġtell": 8431,
      "imately": 8432,
      "power": 8433,
      "oles": 8434,
      "Ġnor": 8435,
      "Ġprotocol": 8436,
      "Ġinsert": 8437,
      "{(\\": 8438,
      "$}}": 8439,
      "propto": 8440,
      "Ġfiles": 8441,
      "Ġarrived": 8442,
      "Ġsetup": 8443,
      "urg": 8444,
      "ENT": 8445,
      "anta": 8446,
      ")--(": 8447,
      "ĠRepublican": 8448,
      "aturally": 8449,
      "select": 8450,
      "Ġowner": 8451,
      "oned": 8452,
      "=\"#": 8453,
      "ĠDaniel": 8454,
      "Ġcomments": 8455,
      "Ġdecreases": 8456,
      "}^{+": 8457,
      "\\!\\": 8458,
      "since": 8459,
      "ĠAnton": 8460,
      "itical": 8461,
      "LC": 8462,
      "$^{": 8463,
      "Ġquadratic": 8464,
      "ĠVictoria": 8465,
      "Ġcold": 8466,
      "ĠUN": 8467,
      "Ġhab": 8468,
      "ois": 8469,
      "&&\\": 8470,
      "Ġabsence": 8471,
      "vals": 8472,
      "ubble": 8473,
      "128": 8474,
      "Ġhierarch": 8475,
      "Di": 8476,
      "Ġbudget": 8477,
      "false": 8478,
      "Ġspirit": 8479,
      "Non": 8480,
      "ĠComput": 8481,
      "ĠAlgorithm": 8482,
      "Ġeastern": 8483,
      "Ġprecision": 8484,
      "Ġhomogeneous": 8485,
      "Ġengineering": 8486,
      "ĠBand": 8487,
      "Ġdrawn": 8488,
      "eper": 8489,
      "Ġeffectively": 8490,
      "Ġtried": 8491,
      "1936": 8492,
      "Ġss": 8493,
      "\"),": 8494,
      "Ġpassing": 8495,
      "XX": 8496,
      "ĠCommon": 8497,
      "Ġdominant": 8498,
      "Ġsport": 8499,
      "ativistic": 8500,
      "Ġmunicipality": 8501,
      "ĠBoy": 8502,
      "Ġscenarios": 8503,
      "Ġplanning": 8504,
      "ez": 8505,
      "-(": 8506,
      "Result": 8507,
      "Ġcontinuum": 8508,
      "Ġreconstruction": 8509,
      "Ġneutrino": 8510,
      "oses": 8511,
      "Ġbriefly": 8512,
      "Ġmodeling": 8513,
      "Ġcomplement": 8514,
      "Ġsolving": 8515,
      "Ġcricket": 8516,
      "ĠCorps": 8517,
      "hr": 8518,
      "clear": 8519,
      "Ġcars": 8520,
      "Ġcorner": 8521,
      "Ġindices": 8522,
      "Ġdro": 8523,
      "Ġexpanded": 8524,
      "writer": 8525,
      "ĠVill": 8526,
      "Ġpractical": 8527,
      "ĠMuslim": 8528,
      "estic": 8529,
      "Ġbegins": 8530,
      "Ġbroken": 8531,
      "Ġaccretion": 8532,
      "ĠRog": 8533,
      "Hom": 8534,
      "Ġalongside": 8535,
      "--------------------------------": 8536,
      "ĠNC": 8537,
      "Ġinstant": 8538,
      "Ġwrong": 8539,
      "ĠReturn": 8540,
      "si": 8541,
      "Ġstrictly": 8542,
      "ĠAff": 8543,
      "Ġadvers": 8544,
      "Ġappearances": 8545,
      "aped": 8546,
      "ĠAM": 8547,
      "Ġbeat": 8548,
      "invariant": 8549,
      "rates": 8550,
      "ÅĤ": 8551,
      "tario": 8552,
      "Ġsupply": 8553,
      "Ġdominated": 8554,
      "=\\{": 8555,
      "tor": 8556,
      "Ġconjug": 8557,
      "Ġpolynomials": 8558,
      "Ã¡n": 8559,
      "Ġoccurred": 8560,
      "stood": 8561,
      "ĠIV": 8562,
      "Ġbaseball": 8563,
      "Ġbillion": 8564,
      "Ġfeaturing": 8565,
      "Ġera": 8566,
      "Ġimprovement": 8567,
      "points": 8568,
      "Ġfashion": 8569,
      "Ġsupers": 8570,
      "1918": 8571,
      "Ġflight": 8572,
      "ĠDisc": 8573,
      "Ġportion": 8574,
      "Ġcircuit": 8575,
      "Ġeverything": 8576,
      "ruit": 8577,
      "wave": 8578,
      "Ġhighlight": 8579,
      "Ġdamage": 8580,
      "Do": 8581,
      "scape": 8582,
      "Ġsensitive": 8583,
      "ĠArgent": 8584,
      "Ġanalytic": 8585,
      "Property": 8586,
      "Ġequipment": 8587,
      "mem": 8588,
      "ãģ": 8589,
      "Ġpra": 8590,
      "Ġdispersion": 8591,
      "})^{": 8592,
      "Ġinspired": 8593,
      "tail": 8594,
      "Ġcoal": 8595,
      "ĠProfessor": 8596,
      "sort": 8597,
      "Ġprepar": 8598,
      "ĠMike": 8599,
      "May": 8600,
      "tty": 8601,
      "ĠKorean": 8602,
      "Ġorbital": 8603,
      "=\"../../": 8604,
      "iang": 8605,
      "ĠWeb": 8606,
      "Ġcolour": 8607,
      "orship": 8608,
      "else": 8609,
      "ĠIslands": 8610,
      "Ġrestricted": 8611,
      "Second": 8612,
      "Ġagree": 8613,
      "Ġalt": 8614,
      "Ġmac": 8615,
      "Ġfacilities": 8616,
      "Ġneutral": 8617,
      "Base": 8618,
      "observ": 8619,
      "square": 8620,
      "prov": 8621,
      "LR": 8622,
      "ĠStat": 8623,
      "uses": 8624,
      "Ġpaid": 8625,
      "unnel": 8626,
      "Ġinstances": 8627,
      "adelphia": 8628,
      "Ġpet": 8629,
      "Ġstraightforward": 8630,
      "}/\\": 8631,
      "Ġburn": 8632,
      "hedral": 8633,
      "Wid": 8634,
      "$^": 8635,
      "PM": 8636,
      "ructions": 8637,
      "Ġcovering": 8638,
      "Music": 8639,
      "ĠLuc": 8640,
      "Ġserves": 8641,
      "Ġcopies": 8642,
      "Following": 8643,
      "Ġpurposes": 8644,
      "ĠKenn": 8645,
      "ĠOlympic": 8646,
      "ĠSupreme": 8647,
      "ĠPubl": 8648,
      "ordan": 8649,
      "vo": 8650,
      "Ġsky": 8651,
      "ĠAsh": 8652,
      "Ġplanned": 8653,
      "180": 8654,
      "Ġtreated": 8655,
      "ĠPy": 8656,
      "ĠRaj": 8657,
      "ĠCas": 8658,
      "consin": 8659,
      "Ġseparated": 8660,
      "1938": 8661,
      "Em": 8662,
      "ĠDaily": 8663,
      "Ġviews": 8664,
      "Ġacademic": 8665,
      "Ġsimilarly": 8666,
      "Ġtopology": 8667,
      "utenant": 8668,
      "&=&\\": 8669,
      "Ġmotor": 8670,
      "former": 8671,
      "Ġroles": 8672,
      "ermi": 8673,
      "pres": 8674,
      "Ġbran": 8675,
      "Ġbaseline": 8676,
      "Ġclin": 8677,
      "weg": 8678,
      "lang": 8679,
      "BO": 8680,
      "Ġdemonstrated": 8681,
      "Ġhorizontal": 8682,
      "Ġseconds": 8683,
      "Austral": 8684,
      "Ġsensitivity": 8685,
      "$\\\\": 8686,
      "GM": 8687,
      "Ġcharacterized": 8688,
      "doc": 8689,
      "ĠPrime": 8690,
      "plicated": 8691,
      "Ġnewspaper": 8692,
      "ixture": 8693,
      "World": 8694,
      "ĠBon": 8695,
      "obj": 8696,
      "DD": 8697,
      "Ġillustrated": 8698,
      "\\!\\!\\!\\!": 8699,
      "800": 8700,
      "empty": 8701,
      "They": 8702,
      "ĠOrgan": 8703,
      "Ġtroops": 8704,
      "Ġbool": 8705,
      "Ġpromoted": 8706,
      "_{+": 8707,
      "RR": 8708,
      "hang": 8709,
      "Ġvictim": 8710,
      "ĠVis": 8711,
      "GS": 8712,
      "Ġven": 8713,
      "Ġalgebraic": 8714,
      "Ġfans": 8715,
      "Ġancient": 8716,
      "full": 8717,
      "Ġtells": 8718,
      "avor": 8719,
      "ĠMarg": 8720,
      "leftarrow": 8721,
      "Ġtransitions": 8722,
      "ĠFederal": 8723,
      "efined": 8724,
      "Ġconcentration": 8725,
      "target": 8726,
      "Ġsystematic": 8727,
      "Cast": 8728,
      "possible": 8729,
      "Ġcodes": 8730,
      "PL": 8731,
      "ĠOs": 8732,
      "Mult": 8733,
      "watch": 8734,
      "Ġdefines": 8735,
      "Ġstrugg": 8736,
      "last": 8737,
      "smallskip": 8738,
      "Ġadvanced": 8739,
      "ictures": 8740,
      "Response": 8741,
      "VID": 8742,
      "Ġopportunity": 8743,
      "Ġweighted": 8744,
      "Go": 8745,
      "chor": 8746,
      "erence": 8747,
      "Client": 8748,
      "Ġspot": 8749,
      "heim": 8750,
      "eman": 8751,
      "ĠMic": 8752,
      "Ġrefers": 8753,
      "Ġattend": 8754,
      "ĠFree": 8755,
      "Ġagreed": 8756,
      "arity": 8757,
      "Ġpeace": 8758,
      "Ġsurfaces": 8759,
      "ĠUnivers": 8760,
      "Ġscientific": 8761,
      "Ġcovers": 8762,
      "Ġdie": 8763,
      "varrho": 8764,
      "Ġfer": 8765,
      "anth": 8766,
      "ĠJacob": 8767,
      "Ġderivatives": 8768,
      "ĠCorporation": 8769,
      "pool": 8770,
      "PO": 8771,
      "Ġpal": 8772,
      "gal": 8773,
      "iner": 8774,
      "$\\,": 8775,
      "ynamics": 8776,
      "eless": 8777,
      "ĠCase": 8778,
      "Ġbuff": 8779,
      "ĠMult": 8780,
      "HL": 8781,
      "1937": 8782,
      "textnormal": 8783,
      "Ġpsych": 8784,
      "Ġreader": 8785,
      "Point": 8786,
      "Ġ\\[": 8787,
      "ĠEs": 8788,
      "ĠPeak": 8789,
      "Ġirreducible": 8790,
      "Ġassistant": 8791,
      "Ġorthogonal": 8792,
      "ogether": 8793,
      "Ġvarying": 8794,
      "Ġpapers": 8795,
      "ceil": 8796,
      "ĠViet": 8797,
      "Ġprecise": 8798,
      "Ġ((": 8799,
      "FM": 8800,
      "ĠMain": 8801,
      "Ġmes": 8802,
      "ideos": 8803,
      "leep": 8804,
      "dens": 8805,
      "Ġfinish": 8806,
      "description": 8807,
      "riminal": 8808,
      "Ġperformances": 8809,
      "ĠSydney": 8810,
      "Ġprotest": 8811,
      "ĠPrize": 8812,
      "ego": 8813,
      "Ġellipt": 8814,
      "Ġfaster": 8815,
      "wart": 8816,
      "Ġnewly": 8817,
      "frame": 8818,
      "Ġchance": 8819,
      "google": 8820,
      "mf": 8821,
      "ĠGuard": 8822,
      "ĠDer": 8823,
      "multline": 8824,
      "ĠRod": 8825,
      "Ã£o": 8826,
      "circle": 8827,
      "Ġ\\{\\": 8828,
      "textup": 8829,
      "leton": 8830,
      "Ġexpectation": 8831,
      "iemann": 8832,
      "Ġmorning": 8833,
      "pot": 8834,
      "iki": 8835,
      "Ġbreaking": 8836,
      "midrule": 8837,
      "ĠForest": 8838,
      "Ġboy": 8839,
      "Ġcorrelations": 8840,
      "Ġsession": 8841,
      "ĠChris": 8842,
      "Ġrich": 8843,
      ".$$": 8844,
      "inton": 8845,
      "ĠStudies": 8846,
      "Ġ~\\": 8847,
      "Ġdaily": 8848,
      "ĠCorollary": 8849,
      "parameter": 8850,
      "idal": 8851,
      "ĠGro": 8852,
      "world": 8853,
      "Ġexcess": 8854,
      "Ã¢": 8855,
      "ĠSimilarly": 8856,
      "oli": 8857,
      "Ġhonor": 8858,
      "ĠID": 8859,
      "sep": 8860,
      "life": 8861,
      "worth": 8862,
      "Ġformul": 8863,
      "Ġsimulated": 8864,
      "BL": 8865,
      "ĠIndust": 8866,
      "Ġclimate": 8867,
      "Ġuniverse": 8868,
      "ĠRev": 8869,
      "green": 8870,
      "ĠSher": 8871,
      "ĠNS": 8872,
      "Off": 8873,
      "umes": 8874,
      "ĠFre": 8875,
      "Ġathlet": 8876,
      "Sec": 8877,
      "Ġvir": 8878,
      "oster": 8879,
      "Ġsend": 8880,
      "short": 8881,
      "Ġcauses": 8882,
      "oton": 8883,
      "ĠRegion": 8884,
      "stat": 8885,
      "'ll": 8886,
      "phone": 8887,
      "Ġtang": 8888,
      "Ġmeant": 8889,
      "ithub": 8890,
      "ĠPakistan": 8891,
      "ĠCorn": 8892,
      "PD": 8893,
      "adi": 8894,
      "GA": 8895,
      "Äį": 8896,
      "Ġpit": 8897,
      "quot": 8898,
      "Red": 8899,
      "Ġmoments": 8900,
      "Ġproduces": 8901,
      "Ġexceed": 8902,
      "establ": 8903,
      "arithm": 8904,
      "orig": 8905,
      "cycl": 8906,
      "Ġ$^{": 8907,
      "Ġopin": 8908,
      "\\},": 8909,
      "Ġcrow": 8910,
      "Ġexpos": 8911,
      "Up": 8912,
      "ronze": 8913,
      "Ġtransverse": 8914,
      "ĠOntario": 8915,
      "GeV": 8916,
      "raq": 8917,
      "ĠToronto": 8918,
      "anced": 8919,
      "illing": 8920,
      "Ġscores": 8921,
      "bourne": 8922,
      "ponents": 8923,
      "opes": 8924,
      "Ġplants": 8925,
      "ĠKim": 8926,
      "Ġprovince": 8927,
      "tree": 8928,
      "uri": 8929,
      "ĠWeek": 8930,
      "ĠSurvey": 8931,
      "prote": 8932,
      "}[!": 8933,
      "Ġpolicies": 8934,
      "orthe": 8935,
      "Ġsilver": 8936,
      "Ġglass": 8937,
      "uf": 8938,
      "ĠHun": 8939,
      "ĠSem": 8940,
      "ĠFace": 8941,
      "ĠSunday": 8942,
      "Ġofficials": 8943,
      "Ġtight": 8944,
      "iful": 8945,
      "Ġcircum": 8946,
      "ĠIndepend": 8947,
      "mode": 8948,
      "\\}_{": 8949,
      "erset": 8950,
      "Ġextensive": 8951,
      "Paramet": 8952,
      "Ġjava": 8953,
      "RL": 8954,
      "adian": 8955,
      "ĠOnly": 8956,
      "ĠMaster": 8957,
      "South": 8958,
      "ailed": 8959,
      "Ġsculpt": 8960,
      "ĠDespite": 8961,
      "$'": 8962,
      "ĠBan": 8963,
      "Ġvotes": 8964,
      "Ġcitizens": 8965,
      "ĠBet": 8966,
      "ĠWalk": 8967,
      "zo": 8968,
      "Ġentirely": 8969,
      "ĠSant": 8970,
      "Ġrandomly": 8971,
      "ĠNether": 8972,
      "expected": 8973,
      "ĠĠčĊ": 8974,
      "Ġnotable": 8975,
      "pred": 8976,
      "ĠGoogle": 8977,
      "Ġschemes": 8978,
      "ĠPass": 8979,
      "ĠInformation": 8980,
      "nt": 8981,
      "Ġsubspace": 8982,
      "Ġensemble": 8983,
      "Stream": 8984,
      "]^": 8985,
      "rics": 8986,
      "Ġpanels": 8987,
      "BI": 8988,
      "Ġinvestigated": 8989,
      "rinsic": 8990,
      "mal": 8991,
      "Number": 8992,
      "ĠDig": 8993,
      "prototype": 8994,
      "Ġdistances": 8995,
      "ĠBrad": 8996,
      "Ðº": 8997,
      "measure": 8998,
      "vements": 8999,
      "Pos": 9000,
      "ĠâĢł": 9001,
      "ApJ": 9002,
      "ĠCall": 9003,
      "phase": 9004,
      "ĠUs": 9005,
      "Ġlikelihood": 9006,
      "Ġgenerator": 9007,
      "Ġtrap": 9008,
      "ĠBack": 9009,
      "Ä±": 9010,
      "Ġsoldiers": 9011,
      "oor": 9012,
      "Ġexpatriate": 9013,
      "Start": 9014,
      "ĠFair": 9015,
      "Ġmonitor": 9016,
      "Port": 9017,
      "ĠDesign": 9018,
      "101": 9019,
      "sex": 9020,
      "Ġelev": 9021,
      "ĠPR": 9022,
      "Men": 9023,
      "raine": 9024,
      "Ġmobile": 9025,
      "Ġpages": 9026,
      "ĠLew": 9027,
      "Writ": 9028,
      "ĠElizabeth": 9029,
      "wind": 9030,
      "Ġenvironmental": 9031,
      "citealt": 9032,
      "Anot": 9033,
      "Ġenhance": 9034,
      "Ġstead": 9035,
      "Ġguarante": 9036,
      "Ġsoc": 9037,
      "uon": 9038,
      "Ġpip": 9039,
      "Another": 9040,
      "ounger": 9041,
      "ĠUV": 9042,
      "peror": 9043,
      "density": 9044,
      "Ġscope": 9045,
      "nolimits": 9046,
      "represent": 9047,
      "001": 9048,
      "Ġreality": 9049,
      "ĠÎ": 9050,
      "Ġsimultaneously": 9051,
      "ĠPM": 9052,
      "ĠLagrangian": 9053,
      "ĠRen": 9054,
      "ĠSU": 9055,
      "ĠGer": 9056,
      "Personal": 9057,
      "ĠGre": 9058,
      "Ġmurder": 9059,
      "racket": 9060,
      "omet": 9061,
      "Ġmiles": 9062,
      "rl": 9063,
      "Ġgrew": 9064,
      "ĠMedical": 9065,
      "Ġupdated": 9066,
      "owski": 9067,
      "Ġdriver": 9068,
      "search": 9069,
      "init": 9070,
      "Ġdip": 9071,
      "IST": 9072,
      "Left": 9073,
      "dl": 9074,
      "owa": 9075,
      "stackrel": 9076,
      "chestra": 9077,
      "Ġrespective": 9078,
      "Util": 9079,
      "Ġshop": 9080,
      "ĠRa": 9081,
      "unte": 9082,
      "apse": 9083,
      "Ġfib": 9084,
      "Ġ-->": 9085,
      "ĠCle": 9086,
      "Ġgraduated": 9087,
      "oking": 9088,
      "when": 9089,
      "ĠNations": 9090,
      "pdate": 9091,
      "esides": 9092,
      "ĠDue": 9093,
      "Ġperman": 9094,
      "ĠHard": 9095,
      "ĠCambridge": 9096,
      "CF": 9097,
      "Ġpermut": 9098,
      "ĠAvenue": 9099,
      "ĠRome": 9100,
      "Ġinvolves": 9101,
      "1935": 9102,
      "Ġhttps": 9103,
      "author": 9104,
      "ĠBad": 9105,
      "Ġinclusion": 9106,
      "Long": 9107,
      "Ġdefinitions": 9108,
      "etch": 9109,
      "Sw": 9110,
      "Ġdog": 9111,
      "Ġnotes": 9112,
      "ĠFund": 9113,
      "Ġsolo": 9114,
      "Ġratios": 9115,
      "Ġearth": 9116,
      "ĠServices": 9117,
      "Ġstre": 9118,
      "comb": 9119,
      "Ġstock": 9120,
      "ĠMinnes": 9121,
      "Ã¸": 9122,
      "Ġrural": 9123,
      "ĠRom": 9124,
      "Description": 9125,
      "ĠColl": 9126,
      "His": 9127,
      "Ġadvert": 9128,
      "Ġepoch": 9129,
      "ĠLoren": 9130,
      "ĠProdu": 9131,
      "package": 9132,
      "rays": 9133,
      "Ġpolitics": 9134,
      "Ġresulted": 9135,
      "Ġdram": 9136,
      "Nov": 9137,
      "ĠRos": 9138,
      "Ġpossess": 9139,
      "Bo": 9140,
      "Ġstrategies": 9141,
      "desc": 9142,
      "Ġrestriction": 9143,
      "erion": 9144,
      "ĠKel": 9145,
      "mathtt": 9146,
      "QL": 9147,
      "posit": 9148,
      "aret": 9149,
      "BE": 9150,
      "Ġsexual": 9151,
      "Ġorientation": 9152,
      "Dr": 9153,
      "uction": 9154,
      "Ġdiagrams": 9155,
      "product": 9156,
      "cknowledg": 9157,
      "organ": 9158,
      "overs": 9159,
      "subequations": 9160,
      "Ġdance": 9161,
      "itudes": 9162,
      "otal": 9163,
      "Ġindustrial": 9164,
      "Ġarms": 9165,
      "Ġdeveloping": 9166,
      "1919": 9167,
      "Ġpieces": 9168,
      "leqslant": 9169,
      "ĠMinnesota": 9170,
      "\\}.": 9171,
      "ĠTok": 9172,
      "Ġminister": 9173,
      "Ġwinners": 9174,
      "Ġoffset": 9175,
      "ĠWisconsin": 9176,
      "ĠNon": 9177,
      "ĠOfficial": 9178,
      "Ġsomewhat": 9179,
      "ĠAk": 9180,
      "aska": 9181,
      "roller": 9182,
      "Ġatomic": 9183,
      "ears": 9184,
      "ported": 9185,
      "Ġexecution": 9186,
      "Ġbalance": 9187,
      "ented": 9188,
      "Ġleadership": 9189,
      ",...,": 9190,
      "CN": 9191,
      "Ġsevere": 9192,
      "Image": 9193,
      "Ġexcell": 9194,
      "Association": 9195,
      "OW": 9196,
      "oust": 9197,
      "ouble": 9198,
      "ĠAdminist": 9199,
      "Ġcrime": 9200,
      "}^+": 9201,
      "Each": 9202,
      "Ġpush": 9203,
      "1914": 9204,
      "Ġperhaps": 9205,
      "Ġadministrative": 9206,
      "Ġstands": 9207,
      "utor": 9208,
      "ysical": 9209,
      "ocket": 9210,
      "Ġrecognized": 9211,
      "problem": 9212,
      "Ġmask": 9213,
      "ĠStr": 9214,
      "ĠLic": 9215,
      "Ke": 9216,
      "Ġpackage": 9217,
      "ĠSus": 9218,
      "nic": 9219,
      "Ġdiagn": 9220,
      "Ġcollision": 9221,
      "dir": 9222,
      "argets": 9223,
      "Ġdestroyed": 9224,
      "Ġgate": 9225,
      "lov": 9226,
      "anglement": 9227,
      "Ġinstitutions": 9228,
      "Ġcrucial": 9229,
      "ĠCirc": 9230,
      "akh": 9231,
      "ribed": 9232,
      "Ġescape": 9233,
      "Ġsphere": 9234,
      "Cref": 9235,
      "Null": 9236,
      "next": 9237,
      "eger": 9238,
      "ircles": 9239,
      "github": 9240,
      "Ġconservation": 9241,
      ")}$.": 9242,
      "Ġregression": 9243,
      "Ġextracted": 9244,
      "anna": 9245,
      "ĠObject": 9246,
      "bigcup": 9247,
      "ĠRevolution": 9248,
      "Ġverify": 9249,
      "ĠSanta": 9250,
      "RA": 9251,
      "hor": 9252,
      "Ġcontribute": 9253,
      "ĠTy": 9254,
      "nm": 9255,
      "retch": 9256,
      "Ġindependence": 9257,
      "ĠMP": 9258,
      "Ġbor": 9259,
      "}},\\": 9260,
      "ĠEnergy": 9261,
      "ãĤ": 9262,
      "Ġfrequently": 9263,
      "Proposition": 9264,
      "Ġmusicians": 9265,
      "including": 9266,
      "Ġpixel": 9267,
      "elle": 9268,
      "Ġphotons": 9269,
      "obe": 9270,
      "Ġdomains": 9271,
      "athe": 9272,
      "cha": 9273,
      "Ġradi": 9274,
      "eties": 9275,
      "Ġannot": 9276,
      "Ġpresents": 9277,
      "ĠEquation": 9278,
      "exists": 9279,
      "yard": 9280,
      ")&": 9281,
      "iÄĩ": 9282,
      "complete": 9283,
      "Ġlatest": 9284,
      "gar": 9285,
      "Ġunderstood": 9286,
      "ĠSab": 9287,
      "ĠNetherlands": 9288,
      "ĠAGN": 9289,
      "Ġchampion": 9290,
      "Ð»": 9291,
      "Gener": 9292,
      "cules": 9293,
      "Ġsymbols": 9294,
      "aturday": 9295,
      "Ġadvance": 9296,
      "Background": 9297,
      "Ġcrossing": 9298,
      "Ġidentification": 9299,
      "Ġofficially": 9300,
      "Ġnaturally": 9301,
      "struction": 9302,
      "Ġattempts": 9303,
      "ĠHilbert": 9304,
      "Ġtag": 9305,
      "Ġprotection": 9306,
      "1929": 9307,
      "aste": 9308,
      "ĠKir": 9309,
      "query": 9310,
      "quarters": 9311,
      "tack": 9312,
      "Ġcloser": 9313,
      "islative": 9314,
      "ordon": 9315,
      "Ġphoto": 9316,
      "ĠMcC": 9317,
      "Ġliber": 9318,
      "outs": 9319,
      "Ġly": 9320,
      "Ġstages": 9321,
      "Har": 9322,
      "Ġcosmological": 9323,
      "Ġ\\}": 9324,
      "Ġstrip": 9325,
      "1910": 9326,
      "ighth": 9327,
      "Ġenem": 9328,
      "ĠHay": 9329,
      "ĠEngineering": 9330,
      "Ġurban": 9331,
      "ĠRegiment": 9332,
      "ĠVen": 9333,
      "rency": 9334,
      "Ġbelongs": 9335,
      "})=\\": 9336,
      "kov": 9337,
      "Ġswim": 9338,
      "Ġtested": 9339,
      "onym": 9340,
      "ĠLes": 9341,
      "}>": 9342,
      "ĠBrig": 9343,
      "ĠĠĠĠĠĠĠĠĠĠĠĠĠĠĠĠĠĠĠĠĠĠĠĠĠĠĠĠĠĠĠ": 9344,
      "Ġcommit": 9345,
      "conduct": 9346,
      "1933": 9347,
      "Ġhousing": 9348,
      "ulating": 9349,
      "Don": 9350,
      "ĠAthlet": 9351,
      ")>": 9352,
      "Ġbenefit": 9353,
      "rations": 9354,
      "ĠNever": 9355,
      "Ġstationary": 9356,
      ")_{\\": 9357,
      "Ġtransformations": 9358,
      "perial": 9359,
      "Ã©e": 9360,
      "Ġrestaur": 9361,
      "Ev": 9362,
      "comes": 9363,
      "1934": 9364,
      "shot": 9365,
      "iamond": 9366,
      "ribe": 9367,
      "Ġfits": 9368,
      "osophy": 9369,
      "mean": 9370,
      "Ġfish": 9371,
      "curs": 9372,
      "1928": 9373,
      "Ġtrajectory": 9374,
      "Ġinduction": 9375,
      "unes": 9376,
      "Ġsave": 9377,
      "ĠStadium": 9378,
      "ĠHand": 9379,
      "ĠDam": 9380,
      "Ġconsecutive": 9381,
      "Ġsun": 9382,
      "Ġhosted": 9383,
      ")).": 9384,
      "ĠFamily": 9385,
      "Ġauto": 9386,
      "Ġtele": 9387,
      "Ġextent": 9388,
      "BB": 9389,
      "Ġchoices": 9390,
      "Ġheard": 9391,
      "Ġsustain": 9392,
      "TA": 9393,
      "Ġstronger": 9394,
      "Ġsimplicity": 9395,
      "ĠAli": 9396,
      "dash": 9397,
      "ĠLabor": 9398,
      "Under": 9399,
      "Ġcontrols": 9400,
      "1917": 9401,
      "Ġcomparable": 9402,
      "Ġready": 9403,
      "just": 9404,
      "Ġraces": 9405,
      "Ġboundaries": 9406,
      "International": 9407,
      "Ġestimator": 9408,
      "ĠKal": 9409,
      "_{-\\": 9410,
      "thick": 9411,
      "Ġinference": 9412,
      "1900": 9413,
      "Ġgained": 9414,
      "ĠBeach": 9415,
      "ĠAgain": 9416,
      "Ġunless": 9417,
      "Ġpartially": 9418,
      "cross": 9419,
      "ĠMach": 9420,
      "aga": 9421,
      "{.": 9422,
      "ĠAnth": 9423,
      "Ġparticipated": 9424,
      "ĠAge": 9425,
      "itled": 9426,
      "Ġconverted": 9427,
      "Sm": 9428,
      "Ġcriteria": 9429,
      "Ġplasma": 9430,
      "dire": 9431,
      "Ġdefect": 9432,
      "ffered": 9433,
      "Ġhistoric": 9434,
      "Ġsubs": 9435,
[...]
