#version: 0.2
Ġ t
h e
i n
Ġ a
e r
o n
Ġ Ġ
Ġt he
r e
a t
o r
e n
a n
Ġ s
Ġ o
i s
e d
e s
a l
Ġ w
i t
a r
Ġ c
Ġo f
Ġ f
n d
Ġ in
Ġ p
Ġ b
i c
in g
a s
i on
Ġa nd
r o
l e
ĠĠ ĠĠ
Ġt o
Ġ m
Ġ d
o u
Ġ S
en t
i l
Ġ h
Ġ C
Ġ A
s t
e l
Ġ T
o m
c t
a m
Ġ re
o l
e t
Ġ l
Ġ M
Ġt h
Ġ n
Ġ (
u r
at ion
a d
i d
i v
i g
a c
Ġ e
o t
Ġ B
i m
Ġ P
Ġ I
er s
u t
u s
â Ģ
1 9
Ġf or
l y
Ġ is
2 0
Ġ on
i r
a y
Ġ g
Ġ H
c h
e m
Ġw as
o w
t er
Ġ R
Ġ D
c e
Ġb e
u n
Ġa s
u l
is t
it h
Ġs t
Ġ L
Ġ F
t h
a g
he r
Ġ N
ĠT he
Ġ G
Ġ W
Ġw ith
an d
u m
r a
ĠĠ Ġ
v er
o s
Ġa l
Ġth at
Ġ E
o p
Ġb y
es t
ĠĠĠĠ ĠĠĠĠ
i f
Ġc on
o d
ro m
Ġ J
Ġa n
r i
Ġw h
a b
e c
Ġa t
o c
Ġ v
at e
a v
re s
it y
Ġp ro
Ġ he
e w
Ġ O
u p
q u
Ġf rom
a in
Ġ it
Ġc om
' s
il l
i es
ar t
or t
s e
al l
h t
a p
u b
es s
Ġd e
i an
Ġ "
e ct
Ġ U
b er
u d
o re
a k
en d
Ġ K
Ġ or
l d
Ġ r
i a
ar d
âĢ ĵ
ou r
n t
m ent
Ġe x
an t
Ġa re
i p
Ġ \
Ġ Ċ
Ġ $
iv e
ĠS t
i al
Ġp l
20 1
ic h
e ar
o v
g e
at ed
o g
T he
ar y
Ġ y
am e
in e
Ġh is
Ġc h
u re
e p
ig ht
u nd
u st
20 0
ĠI n
as s
ct ion
u g
f er
el l
on g
as t
u e
ac k
ĠC h
Ġs e
r an
Ġ V
ag e
Ġ le
m er
is h
ic al
i re
or d
o st
p l
Ġs h
ĠĠĠĠ ĠĠĠ
er e
Ġc l
e x
1 8
a re
u c
p ort
or k
en c
i z
ig n
s o
âĢ Ļ
Ġn ot
Ġ k
c l
av e
Ġ =
p t
) ,
f f
Ġwh ich
t her
Ġ |
0 0
at h
Ġw ere
ul t
ion s
Ġs p
Ġcom p
e g
o k
p er
r y
= "
Ġth is
i e
r ic
Ġal so
ter n
p h
ou s
Ġh as
Ġ us
r it
Ġ un
id e
ation s
ĉ ĉ
ou t
er v
ou nt
or m
< /
ic e
ĠU n
ĠH e
p p
om e
Ġw he
Ġcon t
Ġa r
en ce
ir st
Ġre s
on d
Ġw e
Ġin t
Ġ| |
i b
or y
im e
Ġh ave
ac e
en s
Ġ j
an g
e y
Ġa d
it ion
Ġa b
ou ld
Ġpl ay
Ġh ad
in t
I n
) .
) ;
he d
it e
ow n
em ber
ĠT h
19 9
ation al
Ġ Y
ac h
ab le
ub l
Ġthe ir
Ġ -
ĠI t
Ġ âĢĵ
p e
{ \
ur n
a ct
c c
Ġp art
k s
i le
il d
Ġ ro
in d
Ġal l
i k
Ġf irst
Ġwh o
o ver
r u
Ġ âĢ
re e
at es
n g
Ġb ut
as e
f ter
w o
Ġt e
Ġ <
ent s
ou nd
Ġit s
at er
Ġon e
am p
R e
Ġ &
m an
or s
or n
Ġ im
res s
ic an
on t
l and
a w
enc es
u al
č Ċ
op le
Ġ {
ol l
- -
cl ud
Ġp er
f t
Ġy ear
o b
an ce
Ġc an
ĠA l
Ġ her
. .
o ol
ol d
Ġd is
Ġa g
ar k
Ġs c
Ġm an
a il
f orm
Ġre c
in al
ex t
it ed
v el
e ople
/ /
Ġa pp
s s
t e
iv ers
Ġw ork
ĠA r
u ch
Ġo ther
on s
is s
Ġo ut
el y
Ġbe en
ing s
ĠĠĠĠĠĠĠĠ ĠĠĠ
Ġbe c
Ġn ew
19 8
Ġ en
1 0
Ġthe y
ad e
Ġ up
il m
on e
ran s
Ġt wo
fer ences
l es
w e
o y
w n
Ġe v
mer ican
Ġcom m
Ġp re
Ġd es
ri b
i ed
Ġin clud
os e
o ok
ĠN ew
ig h
ic s
w ard
as ed
ur ing
s p
i o
h ip
Ġo ver
o ot
o od
Re ferences
Ġ *
ĠC om
ĠM ar
ug h
ak e
Ġm e
_ {
j ect
le ct
Ġm ore
Ġt r
Ġof f
ou g
Ġre t
Ġ und
ic t
19 7
Ġy ou
ch ool
oc k
en er
âĢ Ŀ
Ġt ime
Ġp eople
1 7
Ġa fter
r am
e f
b all
re n
ubl ic
or ld
d u
e v
Ġint o
an c
an s
Ġd o
er t
Ġg ro
Ġ }
e e
us e
Ġcl ass
ol og
l l
Ġ qu
Ġs he
re d
i el
Ġa ct
r ing
Ġs erv
" >
o int
Ġw ill
2 1
Ġab out
Ġk n
i ous
Ġw ould
Ġin d
is hed
w ay
Ġat t
ic k
Ġwhe n
r al
Ġ$ \
Ġf ilm
l i
Ġp r
Ġ if
re f
g an
E x
o h
ivers ity
Ġcon s
1 6
Ġund er
19 6
Ġre g
a h
1 5
re at
is ion
id ent
t s
Ġb et
t y
Ġas s
it ies
Ġp ol
i x
g et
c ent
Ġs o
1 2
ĠA merican
am es
al s
e ver
ist s
Ġs up
ur y
Ġl oc
al e
Ġl in
Ġs ec
od e
em ent
ul ar
n e
Ġa cc
Ġ '
at ive
y st
Ġin ter
il y
i ew
ou th
m ath
as on
t on
Ġb u
S t
e b
Ġs ub
p r
at a
ĠâĢ ľ
c ess
ĠĠĠĠĠĠĠĠ ĠĠĠĠĠĠĠĠ
Ġwhe re
in ce
oll ow
ot h
Ġre l
Ġon ly
Ġde f
v e
Ġth ro
Ġthe re
if ic
iel d
d uc
if e
Ġc ol
ĠP ro
Ġth an
ver y
Ġyear s
c he
at t
or th
in s
m a
ou n
ĠS h
c om
Ġs et
oc i
Ġthe m
Ġst ud
ra ph
et h
res ent
we en
Ġc o
Ġh im
p ro
ro und
Ġd ec
an n
el f
s h
Ġfor m
ĠĠĠĠ Ġ
at ing
ĠL e
le t
er m
over n
ul l
ĠI nd
Ġs ome
Ġex p
Ġm ost
ik e
ire ct
a id
Ġf l
" ,
19 4
ĠUn ited
d er
Ġ Z
Ġin v
ĠTh is
Ġn um
a ir
tern al
Ġag ain
ĠUn iversity
ut ion
em b
a z
Ġs uch
19 5
Ġbet ween
t he
al ly
1 4
in n
1 3
Ġret urn
Ġt rans
an y
Ġa c
a x
Ġ end
Ġc ent
Ġre m
Ġpro v
oug h
yst em
s on
ab l
Ġsp ec
Ġthro ugh
ou se
Ġf e
Ġ est
Ġf ollow
a j
ĠS p
ĠC ol
Ã ©
as h
ow er
Ġa m
Ġthe n
is e
os s
Ġte am
Ġo b
Ġd ist
Ġm od
p en
u res
ay s
ĠA n
2 2
Ġf ound
Ġd uring
ce pt
c on
} \
Ġt ra
Ġp h
oot ball
it t
* *
ar g
vel op
in a
ĠC l
ers on
ĠS c
er n
er ies
Ġe ar
Ġad d
ment s
Ġf am
Ġ ed
is m
Ġ ent
} $
Â ł
Ġus ed
it s
re t
ar s
Ġan y
Ġb l
Ġm ov
i er
Ġn o
Ġar t
ut e
Ġg o
iv ing
Ġe m
us ic
r ight
le ction
us s
o ber
s c
Ġin c
^ {
Ġn e
in ed
Ġm ade
3 0
Ġth ree
= =
Ġp ublic
1 1
p s
Ġw rit
y s
u es
ĠE ng
oh n
Ġm ay
an k
i ent
t a
Ġm on
Ġn ame
Ġd if
Ġre le
ĠS he
Ġ [
Ġ ra
Ġw ell
Ġc ount
at ure
ist ory
en n
Ġc all
Ġin st
y m
ĠSt ates
Ġv ar
in es
im es
Ġ Q
Ġcon st
Ġlin ks
ot her
iv er
ric t
un ction
he n
. "
Ġsh ow
Ġplay ers
r ad
a use
Ġ .
ion al
t en
iv ed
Ġbe ing
ra ct
le y
Ġm ed
r on
-- --
Ġle ad
at her
el s
Ġsec ond
ĠI s
en g
Ex ternal
y pe
om en
2 5
ĠCom m
ut h
b um
Ġs ing
il ity
Ġb ro
Ġg ener
oun c
( )
Ġp op
Ġb ack
ep t
iz e
ru ct
Ġman y
Ġgro up
er man
ĠC on
iv es
o x
f ore
ĠF or
t t
Ġs chool
Ġv al
ĠA s
ur al
in k
Ġs aid
iz ed
u ro
ĠC ount
Ġs ur
un e
00 0
Ġs ign
Ġl ater
Ġrec ord
ib le
ag ue
p le
ĠP h
th s
og raph
Ġthe se
" .
Ġd irect
Ġres ult
an ge
Ġse ason
Ġde velop
Ġnum ber
f l
ire d
Ġbe fore
ar n
Ġre p
et s
ic es
ov e
} }
ĠB l
at ch
Ġwh ile
am b
ĠF ran
ĠJ ohn
Ġres p
Ġinclud ing
Ġh igh
y n
Ġo wn
ĠJ an
tern ational
p os
r id
Ġb ir
olog y
Ġkn own
ĠA d
overn ment
ĠM ay
Ġch ar
re nt
Ġm in
is ter
19 3
ag es
Ġex t
Ġs ystem
Ġf ootball
at or
Ġo per
ĠN ational
Ġb oth
Ġagain st
ap t
our ce
ĠW orld
r ac
id er
Ġf our
g ram
ow ever
Ġc re
ect ion
c ol
ĠW h
Ġal bum
c es
ĠO n
T h
ar ri
l ine
ur ch
( \
b y
Ġe ff
Ġst art
C h
ĠA ust
ri pt
v ent
ant s
Ġc ur
t o
Ġs m
Ġbec ame
Ġst ate
2 4
er y
at ic
Ġl ong
Ġc are
ĠY ork
ĠP l
Ġest abl
f ul
r ist
Ġd r
t il
ro w
Ġus e
Ġbu ild
Ġs ame
Ġs eries
a i
ak ing
Ġm ain
ĠC ar
Ġp ar
ĠĠĠĠĠĠĠĠ ĠĠĠĠĠĠĠ
eg in
it al
m in
2 3
iss ion
ĠB rit
t ext
ian s
Ġpol it
ro ss
ot t
l ed
le v
- >
Ġg u
Ġdis c
Ġs im
b egin
ĠC an
Ġ +
r ay
ĠW ar
ĠCount y
al th
are d
v ed
k e
ain ed
u ary
m y
ual ly
Ġl ike
ĠD ec
Ġg et
ĠS chool
Ġsup port
Ġj ust
Ġ /
i ence
Ġor ig
ĠN ov
Ġo ur
Ġwh at
c k
ab el
Ġde p
Ġp oint
Ġfam ily
r and
Ġc ould
ĠJ u
b le
ul ation
m p
Ġpro du
ĠO r
Ġper form
ĠS outh
Ġb el
Ġre qu
Ġl ife
i am
r is
ĠâĢ Ķ
Ġde ath
ĠA nd
Ġcomm un
Ġdes c
v iew
Ġdif fer
Ġd id
Ġe ach
Ġs ong
emb ers
ĠC ent
f ess
ug ust
ic a
et y
Ġd et
Ġst r
er g
Ġan n
Ġcont in
e k
res ident
am ed
o f
i or
Ġr ight
Ġr un
Ġpart ic
ch n
ept ember
Ġf inal
a f
ĠG erman
ical ly
Ġch ild
Ġre ce
a u
ar ch
e qu
p or
i um
Ġoff ic
Ġl ine
ct ober
Ġm usic
Ġw orld
Ġun til
Ġse ver
he s
f ig
_ {\
as k
ect ed
Ġo pen
ĠA ss
ial ly
ĠP ar
is c
Ġdes ign
v al
. ,
Ġor gan
in ess
o ad
5 0
ĠMar ch
aj or
Ġl ist
Ġf in
ar m
y le
Ġfollow ing
p ut
| -
ro p
) $
Ġ </
Ġf unction
ĠE uro
pr il
ĠA ugust
Ġb ook
amp ions
ĠE x
Ġn ow
le ge
ain s
Ġbec ause
Ġs ince
v en
201 0
o ard
ĠS eptember
ward s
er r
ist or
ap p
ĠA t
om an
ĠJan uary
O n
ĉĉ ĉĉ
in c
ir d
v ers
Ġl aw
Ġp os
ĠR e
ĠP r
et er
al ity
2 6
ĠG e
ĠD e
Ġpro gram
c al
ĠO ctober
ĠT e
2 8
Ġe lect
} ,
Ġ //
Ġg ame
ĠJ une
b orn
Ġcall ed
d ay
port s
duc ed
iv en
ir c
Ġs uc
2 7
ĠW e
.. /
Ġc or
l ish
} {
re en
Ġare a
it ions
id ed
ĠJu ly
iz ation
ĠAl l
ill ion
ĠR ep
ĠP ol
Ġhe l
ur g
Ġp erson
ĠA pril
ĠSt ate
is ed
ĠAust ral
t ing
re m
Ġp ass
us iness
re ad
Ġfor mer
y l
a e
at s
ot e
ĠThe y
enc y
20 20
Ġg overnment
Ġa p
ĠA f
am ent
ĠC ity
ĠN orth
um ent
il it
Ġd ata
ac es
p ar
201 6
: :
ĠNov ember
Ġt erm
Ġplay ed
201 5
Ġl ast
if ied
o le
s et
ĠG u
201 1
Ġc ity
ĠDec ember
Ġth ose
Ġsever al
Ġc our
Ġrele ased
Ġpl ace
Ġdiffer ent
il t
m ed
Ġw on
Ġhe ad
Ġ el
201 4
ĠM an
2 9
Ġne ed
201 2
ĠEuro pe
Ġm et
al es
Ġt it
Ġsm all
Ġe qu
ĠC al
ĠU S
Ġp ubl
ĠBrit ish
ĠE d
r ation
end ed
201 8
r m
n er
ang u
Ġw omen
P ro
Ġapp ro
201 7
uth or
Ġex per
our n
Ġ very
Ġb ased
Ġear ly
le ft
H e
m l
un g
Ġn ear
201 3
y p
Ġ @
Ġs l
ess age
an e
Ġor der
u ed
iv al
w ork
form ation
b s
ĠB ro
20 19
Ġm ake
Ġe very
ĠB e
eb ru
qu e
ebru ary
Ġorig inal
or g
ro l
Ġchar act
Ġp rom
Ġle g
od y
ĠR eg
ĠW ill
I t
ar ge
as es
Ġev en
sp an
Ġm embers
o id
in ing
Ġa round
200 8
Ġm y
ĠI I
ĠCan ad
19 0
20 21
av ing
ĠF l
Ġpro t
200 9
Ġl and
pl ic
le x
C om
s ide
Ġ X
Ġloc al
ampions hip
es p
f rac
u f
Ġo cc
ĠT r
ograph y
ow s
ap an
uc k
ĠLe ague
ĠK ing
oc ial
Ġdesc rib
Ġen g
Ġbir ths
ĠCh rist
f or
cent ury
as ter
al k
Ġh ome
en se
Ġ :
Ġal ong
Ġcons ider
n ess
ord ing
ro up
um n
200 7
le g
at ely
h am
e q
eth od
Ġcare er
Ġn on
Ġre st
Ġev ent
ĠF ebruary
Ġp resent
b b
200 6
iv ely
S ee
Ġd own
ak es
Ġs ol
Ġcomp et
l ing
Ġcomp any
Ġst at
st it
4 0
' ,
Ġc ase
Ġm ajor
Ġf act
ren ch
t r
d iv
ĠM in
ot s
Ġa v
Ġfilm s
Ġh ow
a im
ĠP art
Ġf ield
lev ision
Ġv ers
ĠC o
Ġcur rent
Ġre port
Ġre ad
en e
Ġm ark
Ġto wn
ore d
Ġsuc cess
Ġd ay
ur s
Ġhel p
Ġm ember
ac ed
v ious
Ġw ay
ff ic
: //
Ġre f
Ġc ap
Ġis s
Ġsh ould
l abel
ĠH ar
Ġinc re
ain t
um an
Ġ #
Ġp ower
Ġle ft
Ġto p
18 9
Ġbe gan
Ġim port
on y
ĠA m
ĠW est
A merican
Ġwith in
Ġo ld
i od
. âĢĿ
Ġman ag
Ġh and
amp le
ĠH is
Ġapp ear
s elf
Ġad v
he m
ri es
b ack
Ġst ill
con om
id d
E R
Ġrep resent
Ġhe ld
Ġm uch
ad em
z e
ra ft
ord s
che s
ĠAf ric
Ġd em
m s
le ment
Ġm at
Ġc ar
rib ut
' t
ĠB ar
es e
Ġn ational
Ã ¡
> </
ĠM c
Ġt ype
ent ly
ed er
Ġst and
es c
1 00
Ġv is
Ġn amed
re g
Ġre fer
l er
Ġto ok
ĠS e
ĠE n
u k
ĠM ed
Ġb and
Ġd ue
re w
I N
Ġpro ject
ie f
ĠA fter
Ġp ost
c ite
i et
( "
Ġsing le
Ġeff ect
ur ther
b f
Ġpro cess
it er
200 0
âĢ Ķ
ĠEng lish
> <
Ġh istory
ond on
A r
( );
ĠD ist
l ation
al ign
a us
ĠY ou
v es
ĠS ec
et a
Ġed uc
id es
ction s
an a
Ġcl ub
Ġpro fess
Ġde b
Ġt est
ĠS w
Ġus ing
A l
ĠJ apan
om in
ĠH owever
Ġl arge
Ġb usiness
pl oy
Ġp oss
Ġse e
Ġc r
ĠR uss
u le
Ġh ouse
ĠR es
Ġestabl ished
Ġdo es
f ord
ep end
er ing
Ġg iven
art ment
200 5
ĠN o
oci ation
A R
in o
is on
st er
U n
Ġchild ren
Ġl a
ri end
Ġb est
Ġ ,
Ġpop ulation
Ġc amp
ĠCol lege
ra w
ate g
Ġv ill
Ġj o
il le
Ġp o
ug g
Ġsh ort
ilit ary
Ġinclud e
Ġg l
Ġrece ived
Ġcount ry
_ _
O N
c o
Ġloc ated
Ġadd ition
us h
Ġkn ow
angu age
Ġpubl ished
Ġan other
C l
Ġex pl
iv ate
Ġle vel
re am
d a
ĠE l
os ed
a ul
Ġt ri
ĠL ondon
os p
Ġg ames
---- ----
Ġval ue
ĠH er
18 8
ing ton
$ ,
iv ision
col or
oug ht
ounc il
ĠS up
Ġd el
Ġp at
Ġt ake
are nt
w w
.. .
Ġf ind
Ġl arg
ĠA ir
Ġa ge
A s
g round
Ġte chn
f ield
Ġb orn
anc es
al d
um b
ver t
Ġre se
Ġcent ury
Ġserv ed
le ar
$ .
ard s
200 4
ĠWill iam
} .
ure d
Ġc rit
6 0
Ġm en
l in
if y
ec ut
C on
Ġe lection
Ġcon c
Ġf ive
Ġim p
or ies
Ġ i
ĠF rench
ide o
op h
Ġa uthor
Ġs ix
Ġbu ilt
ĠR ec
th ough
c ont
es tern
he re
Ġy our
ĠThe re
ug ht
Ġs k
op e
re et
Ġper iod
on es
A n
Ġst ation
math cal
er ed
ip p
il ar
ĠAr t
ĠD av
Ġf r
ĠCh ar
ric k
, \
== ==
equ ation
Ġe p
Ġin it
) :
Ġserv ice
Ġa ff
ĠH igh
ĠH ouse
ĠC or
b ar
al f
ht ml
ĠA ct
Ġs om
Ġcomp let
l ess
Ġg ood
ĉĉ ĉ
} )
b e
../ ../
ir on
A T
s k
arri ed
Ġpro per
Ġw ar
Ġm illion
et work
cept ion
ĠCom p
Ġtit le
re st
Ġst ruct
c hed
Ġn ext
Ġinter est
ly mp
Ġth ird
Ġinv est
ĠD ep
Ġst yle
iv id
Ġbuild ing
um mer
ĠA ng
Ġs elf
Ġact iv
ener al
ĠCh ampionship
ĠP ark
em pt
Ġre al
a ff
c ed
Ġw ater
inn ing
ĠDist rict
d e
S T
Ġr ad
ĠA g
a ult
ĠIn ternational
I D
Ġin formation
ĠPh il
Ġf ac
in ation
Ġal ign
Ġa ir
t rans
ĠG l
Ġch ang
ĠA b
ap e
Ġg reat
Ġto t
ĠL a
Ġall ow
ĠIt al
) )
Th is
Ġte levision
Ġmod el
Ġcharact er
ĠM e
oci ety
Ġc ult
s ource
it or
Ġann ounc
ru ction
ol ution
Ġm ag
b l
Ġgener al
Ġ* /
ear ch
Ġbe g
ĠB ut
i ber
Ġm ult
ĠD r
un ic
Ġb re
t d
Ġspec ies
ar i
Ġf ore
n a
Ġbe h
if orn
o ff
Ġdescrib ed
18 7
ad d
Ġof ten
h at
âĢ ľ
Ġt urn
Ġam ong
Ġinclud ed
Ġd ied
200 3
Ġf ew
he l
Ġpre vious
pl ay
um m
ĠC up
ab ility
Ġinv ol
ph a
o on
Ġp res
Ġp ort
Ġwith out
~ \
Ġcommun ity
Ġplay er
ent ion
st r
iforn ia
il es
ĠA mer
** **
Ġcon d
m essage
s ub
Ġh ref
W e
Ġro le
3 1
} (
e al
Ġl im
Ġt em
du ct
Ġar ch
fer ence
ĠS ch
L ist
Ġw ant
Ġf re
Ġ ident
Ġtr ad
} ^
200 1
att le
20 22
ĠEng land
ĠInd ian
ot es
rid ge
ro ll
Ġl ook
Ġk ill
Ġin ternational
, âĢĿ
200 2
i ol
ra p
ab or
g er
ĠB r
ent ial
or ge
iv il
at ors
ourn al
} _
c ast
our ces
am a
Ã ³
Ġyou ng
lect ed
Ġs ide
Ġ z
op s
id th
use um
ac y
et t
um p
ight s
( '
th is
ic le
3 3
Ġo pt
way s
Ġdevelop ment
itt le
ain ing
Ġm ust
Ġcon n
s erv
ĠĠĠĠĠĠĠĠ Ġ
Ġn orth
min ist
ĠM ich
Ġs on
Ġv iew
ĠĠĠĠĠĠĠĠ ĠĠĠĠĠĠĠĠĠĠĠ
ĠCal ifornia
Ġg r
Ġatt ack
Ġcl aim
Ġp e
e ad
Ġin f
n ing
ĠC our
A S
al se
d om
Ġv ol
Ġs it
ĠS an
Ġcon f
Ġbec ome
it ive
al t
Ġc over
ivid ual
b urg
Ġc ame
Ġe conom
n ame
cl ass
Ġtot al
Ġh istor
im ent
d d
Ġpolit ical
oy al
Ġre pl
18 6
ar a
Ġimport ant
ĠP resident
Ġl ed
F or
ific ation
w h
ĠR iver
ert ain
3 5
ict ion
Ġs ocial
m od
ĠP er
m e
i us
Ġst ory
Ġo p
ĠAmer ica
old s
Ġtr ack
Ġrese arch
ĠInd ia
og n
ĠPart y
ĠB y
Ġspec ial
ĠA c
4 5
olog ical
Ġvers ion
ic o
Ġcomm on
Ġhe alth
Ġh ig
Ġt imes
Ġm ethod
Ġpos ition
ĠAustral ia
N ame
land s
Ġvill age
Ġf ather
end ing
ak en
erg y
O R
our s
L iving
199 0
Ġf ull
Ġh aving
Ġpro ble
y d
Ġw in
Ġp ract
u ild
Ġs w
ĠE ast
Ã ¼
Ġstud ents
av y
Ã Ń
Ġb as
Ġs outh
i j
Ġan t
Ġg rad
u el
8 0
er a
ĠO ne
oc us
ap er
Ġpartic ular
ĠQ u
st and
d ef
Ġs ay
Ġstart ed
P eople
op t
Ġsim ilar
Ġw ent
ht t
Ġint ro
Ġex ample
is ing
Ġoffic ial
/ >
Ġn ov
Ġd on
C ont
Ġmov ed
he ad
if t
Ġs old
ail able
o e
Ġg en
Ġfe at
el ta
Ġar g
Ġwrit ten
ib r
Ġa ut
Ġin fl
ĠE m
t ime
P l
im ate
ol ic
ĠS m
it te
eng th
ĠCh urch
om b
Ġp ri
v iron
Ġl ess
Ġk ey
ĠR ev
Ġ= >
ect or
al pha
ra in
# #
her n
ĠO lymp
3 2
Ġcre ated
Ġsp e
Ġan al
Ġfe ature
id ence
Ġl ate
oc ument
her s
a el
Ġdist rict
Ġind ust
Ġvar ious
Ġf und
Ġgro w
b r
qu ad
ab ly
ar get
p art
Ġpr ivate
Ġ enc
ĠA ward
and er
se qu
Ġob ject
Ġannounc ed
Ġs ent
on se
v ar
Ġs ite
Ġf riend
Ġth ink
Ġstud y
S h
Ġcont rol
Ġem ploy
Ġh uman
Ġf em
I d
Ġ x
f ace
ĠEurope an
Ġro und
um e
ĠP ort
a ut
Ġind ividual
at ter
Ġwork s
ac hed
ĠC ouncil
Ġserv ices
Ġd ays
R E
Ġ et
Ġa ward
ĠV al
Ġestabl ish
H istory
199 9
Ġ ide
Ġh ost
ĠAr my
Ġo pp
k ey
ĠM on
err or
ir l
Ġeng ine
Ġm ale
at ri
" />
Ġs u
Ġdeath s
Ġcom b
n ey
Ġt w
it her
ur b
S p
ĠFran ce
Ġwe ek
ers hip
Ġn ever
Ġpr im
em ents
ord er
h ib
im port
ĠCanad a
Ġev ents
Ġpro duced
ĠW hen
an ish
Ġrel ations
eg a
am s
ĠH ol
Ġreg ion
Ġresult s
$ \
e ep
ĠP al
Ġwork ing
A C
Ġprodu ction
oc r
, "
Ġex ist
ĠI f
ro te
od es
n ot
em s
Ġm ilitary
ĠThe se
ĠG r
u ation
it ar
ater ial
if f
Ġf ail
Ġf urther
Ġwork ed
ur ity
y ear
o or
Ġph ot
Ġp resident
Ġhe re
i que
ĠJ ames
Ġme et
ĠM al
ort hern
B C
n ow
) \
it ing
Ġc he
Ġt yp
Ġbel ie
Ġd a
ĠA nt
it ect
ĠT o
h an
get her
Ġto gether
Ġv ideo
Ġtr ue
ist ic
Ġin s
Ġav ailable
Ġde g
w are
ag ed
idd le
an ies
ĠS en
Ġm iss
198 0
amb da
9 0
Ġle arn
T ype
ĠM or
Ġch ange
c ode
ĠB el
ĠG eneral
ĠĠ Ċ
ĠR ober
Ġvar i
ĠSt ud
ĠIn stit
Ġp ut
Ġpoint s
Ġme as
viron ment
Ġapp oint
g color
ĠD em
ap s
Ġh owever
Ġpartic ip
Ġac ross
ĠTh om
7 0
ĠCour t
as tern
199 8
Ġacc ess
ag o
ut ure
I nd
3 6
E N
St ring
Ġa ver
m on
l oc
Ġprodu ct
C ol
Ġstr ong
3 4
Ġm aking
Ġm atch
ĠA cc
Ġresp ect
Ġsh ip
Ġdeb ut
ĠR oman
ĠGe orge
ash ington
ĠCh ina
Ġpop ular
" )
ĠSt reet
ther n
ĠP aul
v ille
Ġpolit ic
g ress
Ġb ase
Ġd i
Ġh alf
a ction
pos ed
Ġc oll
ĠW ith
Ġc ost
Ġset t
itte e
R es
Ġ\ \
Ġof fer
e h
Ġl ow
m ost
itt ed
Ġep is
ic y
res p
Ġde v
ran g
Ġeduc ation
ĠL aw
est s
Ġre view
u x
ou thern
Ġsur v
ob al
ĠDav id
Ġph ys
ĠAss ociation
et ers
ĠQ ue
e le
ill s
ĠS erv
trans lation
S c
Ġb gcolor
Ġf ree
am ma
a ign
ĠR ich
h o
Ġd est
Ġgroup s
ĠR ed
rib ution
ret urn
Ġconsider ed
re l
Ġw rote
m u
ĠCent er
Ġother s
Ġf ocus
ĠL ou
unic ip
ript ion
_ \
Ġgo ing
Ġc apt
199 6
h a
c er
y a
ĠâĢ ĺ
ty pe
Ġpro duc
du ction
Ġh on
eder al
ĠD ivision
id a
o ice
Ġc aus
Ġbro ad
Ġdirect or
m en
Ġpart y
an ia
ul es
A N
Ġme an
ig ma
Ġm arried
ĠBl ack
Ġ )
at ural
Ġatt empt
g o
3 7
Ġm ot
b or
Ġim pro
m ing
ĠC ont
ud e
A L
T o
Ġjo ined
199 7
ĠUn ion
Ã ¶
18 5
Ġare as
Ġle t
3 8
ĠDep artment
c y
Ġm ass
Ġn etwork
Ġwe bs
ĠR oyal
ific ant
h i
Ġqu est
V al
A fter
n ew
.. ..
B y
ree k
Ġreturn ed
} _{
Ġsp ace
ch ie
ĠGerman y
ell s
ep ar
Ġshow s
ĠI m
in ter
Ġab le
Ġra il
Ġt ext
Ġob serv
epend ent
il ities
Ġle ast
Ġl ive
ĠW ashington
Ġd iv
ĠM ount
4 8
av a
Ġmark et
197 0
il i
ĠV ir
Ġpl an
Ġro ad
ĠH all
it z
math bb
wo od
Ġv iol
e an
ce ed
Ġreport ed
N ew
ra z
ĠF irst
ut es
le te
a ur
Ġab ove
Ġb ody
Ġdef e
Ġl ight
Ġ !
199 5
Ġch urch
Ġl ost
Ġst ar
3 9
} ^{
= \
cent er
Ġinfl u
Ġass oci
ri an
ĠV ol
Ġprofess ional
Ġs ize
op er
Ġa way
ress ion
Ġbl ack
Ġs ym
Ġ _
ĠL ist
ot ed
ition al
Ġrec ogn
L E
Ġp ay
ĠComp any
ĠE ar
l im
Ġag re
i ents
ugh ter
st on
ar ies
Ġp ast
Ġb o
ĠM ont
ber g
g es
Ġp ot
4 4
Ġa ction
Ġ( )
at ives
ĠAustral ian
Ġm id
r or
Ġv ict
k y
Ġsign ificant
ep s
par am
g in
199 4
ĠM art
ecut ive
end er
Ġperform ance
id ing
Ġth ough
Ġse en
ĠB er
199 2
Ġgro und
Ġb i
Ġcontin ued
f ile
it ch
ĠM ary
ip le
as ons
b ol
s el
ĠG roup
Ġt aken
Ġ `
it em
ra b
7 5
Ġteam s
Ġsong s
ĠM y
Ġoff ice
um ber
Ġright s
Ġcomp anies
w rit
ĠJ os
se ction
at ory
Ġst ates
s w
Ġre v
Ġap plic
Ġc irc
ĠM ex
Ġprov ide
ul ated
Ġopen ed
p i
Ġcont ract
ĠN e
ish ing
as c
6 5
Ġrele ase
ach ing
Ġaver age
Ġl anguage
umn i
ines e
Ġd er
ĠD uring
Ġbro ther
end s
Ġposs ible
ak er
ust om
ĠAc adem
li ament
Ġs er
s y
ask et
ens ion
Ġad minist
ad es
ĠM ag
ic les
ĠS o
6 4
Ġs epar
ĠD on
as ing
Ġto o
ell ing
Ġdevelop ed
ra el
Ġf alse
Ġm ar
ĠC he
I T
ens ive
Ġwebs ite
i ers
read y
ĠS ociety
Ġmed ia
Ġ Ã
Ġmon ths
ĠInstit ute
ĠU K
al a
Ġacc ount
Ġw ife
t ain
Ġbec om
h old
Ġm other
pl es
Ġt reat
nd er
an i
199 3
ĠM usic
Ġla un
Ġm aterial
ĠAfric an
p ly
Ġar r
Ġcour t
Ġre d
u ff
ĠP ress
Ġs ection
Ġh om
ĠN or
ac he
Ġcom e
ĠAfric a
Ġp ress
o o
Ġon ce
Ġl ik
ix ed
Ġt en
im ately
ĠAr ch
Ġdet erm
b and
ĠR oad
Ġt ry
Ġr ange
Ġn ull
Ġh ard
ĠC ong
ph i
Ġf ar
Ġcount ries
ot a
ul a
Ġapp e
Ġc ross
Ġd ou
ar ian
ĠP e
ĠH en
Ġan im
Ġass ist
r d
ell ow
est ival
Ġtra ining
Ġs ugg
all s
Ġ Â
A t
un n
i qu
ou l
^ {\
ĠJ ew
ĠS l
4 9
Ġresp ons
ar ter
Ġen ergy
ro y
osp ital
s er
ĠT rans
- \
cl us
ĠTh at
ĠJ ack
n own
Ġc al
Ġhim self
Ġ {\
ĠAng el
ibr ary
Ġas k
ign ed
v ing
air s
Ġcomplet ed
ĠT V
l oad
ĠS im
Ġv oc
ĠCl ub
se e
196 0
Ġcamp aign
o res
Ġ >
A M
c le
Ġsuccess ful
Ġb ig
ĠM ark
ĠP ri
E C
Ġc lear
ĠT ex
uf fer
E S
Ġnov el
Ġl iving
Ġcomp os
Ġschool s
T r
199 1
un ity
Ġl iter
ĠC ath
Ġmod ern
Ġr ace
Ġbet ter
ib ility
ĠCanad ian
ĠPro v
Ġe ither
Ġf ire
Ġ ill
ay er
Ġj ud
Ġt re
p ect
Ġdif f
in clud
ist ry
Ġp ur
ol it
I I
ĠIs land
Ġm em
and id
Ġsub ject
Ġf uture
k a
Ġh ous
Ġt ax
ĠM iss
Ġp arent
s hip
Ġcon duct
m ar
Ġsign ed
Ġrecord ed
Ġprov ided
Ġh tt
math bf
ĠT ur
Ġb en
s ec
ct or
Ġdisc uss
ĠKing dom
ĠM useum
Ġcomp ut
av es
h ood
I S
Ġpre d
ec ess
um ents
ar row
ple ment
| |
ĠF rom
Ġc ou
Ġd en
Ġg overn
Ġind ic
Ġ= =
Ġc op
Ġelect ed
Ġrel ig
l og
Ġme ans
ens us
id s
w idth
Ġf ight
b oard
ĠRober t
= #
ed y
Ġcon v
est ed
Ġfeat ures
it es
un t
Ġh old
ĠG reen
n et
Ġs at
Ġl ittle
ĠG ames
l or
Ġal ready
4 7
Ġd ocument
ĠS ing
ac ing
asket ball
Ġfound ed
Ġfr ont
ĠChrist ian
er o
k i
ĠT own
I C
ĠH istor
Ġarch itect
ĠS am
ĠS er
Ġw ind
Ġent ire
ann el
ĠG od
Ġc ases
e es
Ġal ways
Ġcl ose
ĠFran c
l ambda
ber t
Ġel se
Ġinclud es
Ġb ound
Ġappe ared
at al
Ġdirect ed
ĠS al
Ġ id
ĠG reat
Ġb oard
ĠThom as
Ġpro b
Ġt arget
ĠRuss ian
Ġm ight
ĠCent ral
Ġs ound
Ġappoint ed
us ed
Ġa ud
Ġalbum s
med i
Ġt ro
5 5
ĠB est
Ġro ck
on ent
Ġl oss
Ġc ertain
198 9
Ġc ast
ĠC ons
on a
er c
o ch
ĠP at
Ġk eep
un k
Ġterm s
ĠMin ister
val ue
ĠIn ter
ĠA lex
A ll
Ġa chie
Ġplay ing
A A
Ġreg ular
ri a
b ox
Ġcons ist
O r
"> <
Ġn eg
Ġg ot
Ġk m
Ġpol ice
re y
Ġcol lection
r im
ĠJapan ese
w ith
il on
ĠL eg
Ġst age
Ġs ays
ĠB en
enc ed
g ed
ĠM r
i ences
ĠY ear
Ġre ally
r up
ĠM ad
ĠW estern
The re
ĠA pp
Ġinst it
ail s
Ġac cept
ĠTex as
Ġb r
t ies
Ġbir th
Ġform ed
ran ch
ĠB ay
o z
Ġbook s
ĠAcadem y
ĠWh ite
ys is
id ents
ud d
Ġcre ate
. )
Ġqu al
L e
Ġdec l
ĠSc ott
Ġlead ing
b ased
ĠH am
ac hes
Ġadd ed
ar c
ep h
9 9
in i
ress ed
Ġf ig
ĠM et
Ġp ers
ĠF ilm
m et
ĠLou is
Ġe ight
Ġv oid
Ġc ivil
ĠĠĠĠĠĠĠĠĠĠĠĠĠĠĠĠ ĠĠĠĠĠĠĠĠĠĠĠĠĠĠĠĠ
anc ial
198 8
Ġcomm and
Ġal though
Ġproper ty
ĠG rand
ĠRec ords
ĠD irect
le ments
ĠCar ol
ĠT ra
ĠVir gin
Ġconst ruction
g y
ut ions
Ġcl os
ĠIs rael
Ġle ague
ĠCh inese
Ġac qu
ĠK ore
Ġint eg
i res
Ġinvest ig
ĠMich ael
l ist
emb ly
ĠZ eal
Ġacc ording
Ġeff ort
ĠD i
Ġst ring
Ġbre ak
Ġt er
r ated
qu est
u z
C O
th let
ĠItal ian
duc ation
Ġc reat
ĠI r
th ing
un c
ĠM ac
ĠZeal and
Ġg ave
Ġgo al
f o
il ies
ĠChar les
F ilm
eth ing
Ġth ought
Ġrequ ired
Ġse x
ĠRep ublic
Ġup on
re c
Ġinvol ved
Ġwh ite
n o
ict or
Ġc y
az ine
d own
Ġsystem s
4 6
is es
ec k
en a
Ġconc ern
is l
Ġrequ ire
ĠĠĠĠĠĠĠĠ ĠĠĠĠĠ
ist ics
Ġda ughter
Ġlarg est
ĠDem ocr
Ġgrad u
Ġde al
re land
ĠJ ust
st ring
Ġrad io
Ġthrough out
ĠC O
orm al
c d
in ary
ic ult
Ġconst it
ĠM us
Ġfootball ers
Ġj ob
ĠR ail
p m
Ġs ports
ĠB ook
ĠFl or
Ġl og
ĠG o
i ation
ad a
Ġperform ed
Ġs em
ĠD ay
Ġe ast
Ġr ather
Ġto ur
ir t
Ġf av
âĢ ¦
Ġv ia
Ġen vironment
ad o
ok e
ĠG old
d is
U S
Ġfollow ed
ist an
Ġrelations hip
ĠB ill
ĠT om
w est
Ġe ver
Ġindust ry
ĠComm ission
Ġl o
ec ially
er ous
P h
Ġcour se
d ate
ĠD o
Ġin j
Ġj ournal
ĠW il
ww w
Ġal umni
el t
Ġear li
u it
198 7
inn er
sh ire
oun ter
Ġl ower
ĠU p
Ġg ive
Ġcurrent ly
Ġw est
at re
P ar
B l
Ġgu itar
mer c
Ġm us
ag er
Ġn ight
Ġst re
Ġmon ey
ĠS ummer
Ġal most
A cc
Ã ¤
W h
Ġd am
b ject
Ġdeg ree
Ġ esp
Ġdesign ed
Ġ ens
W ith
Ġc andid
ĠOlymp ics
ic ro
om s
Ġper cent
p ose
Ġappro x
Ġth ings
Ġstruct ure
ir m
Ġr ank
Ġwh ose
Ġiss ues
irc raft
Ġco ach
Ġkill ed
Ġd ram
Ġp ain
Ġreg ard
ol f
Ġ Ð
ĠD an
ĠR ad
Ġcont ribut
A P
Ġbuild ings
ess ion
198 6
ref ore
b eta
an ks
5 00
Ġtra vel
e in
ĠL at
Ġcomp lex
ur rent
t op
Ġhig her
Ġcent ral
Ġwhe ther
sy ch
\ \
Ġb ar
Ġdisc over
st ate
Ġfor ces
ild e
ar ily
Ġart ists
E D
Ġab s
ĠF ootball
resp ond
ĠO ff
s igma
198 4
Ġpl aces
Ġst ri
ĠWh ile
Ġse ven
Ġproble m
Ġfem ale
Ġl ove
ĠCath olic
ĠFran k
Ġpar am
sc ript
a it
ĠH istory
Ġperson al
im um
ĠF ore
Ġim m
b our
Ġp ath
Ġocc ur
ac c
ic ago
-------- --------
] {
g en
Ġto day
Ġs en
ĠT or
Com p
ch an
ĠM od
rib ute
c ell
Ġst aff
Ġcent er
Ġs af
ĠS ur
Ġresp onse
^{ -
Ġk ind
Ġexper ience
ly ing
op p
ĠS ystem
198 5
ĠPar is
ĠSm ith
is k
at us
Ġinst ead
uf act
Ġs il
ar ray
s l
Ġepis ode
Ġch all
Ġtrans fer
Ġsh own
d ata
Ġcap ital
ĠL os
Ġ( \
4 2
is ions
Ġs ource
b it
ĠĠĠĠ ĠĠ
E ng
E n
Ġacc om
6 6
Ġto urn
umm ary
ro ad
ret ary
Ġpol icy
stand ing
an o
com p
Ġt aking
Ġs aw
inc ip
Ġc ut
G e
195 0
S e
Ġg e
' )
Ġe as
Ġintro duced
ar ing
i os
m ark
he st
ĠRich ard
Ġl ot
ĠP eter
ĠC ro
Ġd ate
E ar
Ġm unicip
s um
Ġre b
} {\
all ed
ul ations
ĠW omen
ĠI nt
erv e
Ġbel ow
Ġfor ce
and s
av al
ĠComm ittee
loc ation
om et
om a
ri al
A ss
C C
ab les
ĠS ome
ur a
Ġd one
ĠHe alth
Ġrel ated
iz ing
il s
Ġd om
Ġsc ient
Ġw id
Ġbeh ind
Ġr ate
Ġout side
ant a
Ġf all
Ġsom ething
Ġre ason
t ained
F A
Ġst ations
ĠP ublic
Ġn atural
Ġsup er
Ġf ood
ov iet
Ġfe el
Ġesp ecially
Ġcont ent
merc ial
Ġdec ision
Ġne igh
math rm
k nown
Ġfre qu
ĠL ake
Ġits elf
ĠCl ass
ĠF ound
ĠSp anish
n b
ĠSc ience
E T
Ġwrit ing
Ġpri or
ĠG overnment
ur ation
ĠI reland
Ġin sp
Ġex am
ĠD el
ĠP enn
ag on
i i
at form
Ġfin ished
fig ure
Ġiss ue
Ġmed al
rem e
* }
198 3
w ide
ĠD ef
anc ed
Ġc red
ult s
b ook
ĠCong ress
qu are
ip l
ent al
ĠFlor ida
Ġcol lege
le m
ĠGe org
n ed
Ġpl ant
Ġm ount
ĠM ass
M an
or ing
ĠR ock
A d
ĠM el
Ġmon th
ĠC amp
ant ic
or ial
ĠH ow
ĠH ill
Ġart ist
Ġnew s
ĠN ot
ĠD es
F L
Ġam ount
4 1
am ily
A nd
Ġdiff icult
Ġst ated
Ġmov e
Ġcult ure
it a
por ary
I m
Ġaddition al
b ig
ĠNew s
D ata
ĠR ob
Ġstand ard
Ġact ive
Ġwrit er
9 5
Ġchang es
198 2
l ike
ock ey
Ġpart s
ĠFor ce
Ġpl ann
Ġf il
E r
iz ations
ov ed
ĠO ffic
Ġoriginal ly
yl v
Ġus ually
Ġm ax
ut y
// //
Ġex hib
ig ital
Ġd raw
ro id
ĠV ictor
a ud
R ec
p x
Ġassoci ated
ĠHen ry
Ġs us
it iz
ig an
Ġs ch
ĠVirgin ia
**** ****
] ,
em ic
T e
ish op
ell a
==== ====
raz il
Val ue
Ġre ve
Ġrem ained
Ġevent ually
w here
m ission
4 3
ĠServ ice
" );
ĠB oard
Ġsub sequ
Ġcharact ers
197 9
Ġaward ed
id ae
Ġeconom ic
ĠCh icago
Ġcrit ic
ĠĠĠĠĠĠĠĠĠĠĠĠĠĠĠĠ ĠĠĠĠĠĠĠ
e ff
ch ange
n ov
sel ves
Ġben ef
ĠW ork
ĠSup er
ĠS eries
Ġto ld
ĠAr ts
Ġen ough
Ġfam ilies
Ġh or
Ġn ecess
ed s
Ġstud ies
ĠAcc ording
inal s
Ġmov ement
pe ople
pl ied
ĠRes earch
S S
Ġval ues
F rom
ĠAngel es
ĠE v
ut ch
Ġind ependent
r ative
n el
Ġbl ock
ĠAt l
ol k
ubl ican
Ġdec ided
Ġquest ion
ĠRuss ia
18 0
^ \
led ge
Ġleg al
oy s
ĠTe chn
Ġbro ught
rup t
n s
7 8
ĠIn c
er ry
ian ce
Ġse qu
Ġest im
u i
art s
Ġev idence
ou d
ĠMex ico
y r
Ġg old
Ġcond itions
ar io
Ġe mer
ĠE mp
y e
Ġpolitic ian
yn am
w ell
Ġfeature d
Ġm akes
Ġallow ed
ĠAn n
c her
Ġadd ress
Ġh it
Ġun its
Ġlead er
198 1
Ġimp act
p re
Ġsc ience
l a
iv ity
ĠSec ond
or por
Ġorgan ization
Ġb ank
Ġcor respond
r ont
B A
+ \
l am
et her
ĠM ore
g amma
Ġa ircraft
Ġmult iple
Ġn ames
Ġspec ific
Ġconst ruct
ow ers
Ġw oman
Ġc ustom
Ġpre m
htt p
pl it
Ġm ur
d elta
l ight
Ġcompet ition
s m
ĠBro wn
ĠA p
s ize
Ġl ength
r ho
r ast
Ġre ached
um er
vent ion
or al
197 2
ĠB ur
Ġprevious ly
Ġrepl aced
Ġthe ory
z a
Ġrec ent
5 8
ĠE r
t est
le q
he t
ĠK h
Ġlist ed
Ġc ele
Ġpot ential
Ġprim ary
Ġb ur
ect ions
Ġincre ase
ens ity
I s
b on
ĠOr der
Ġg irl
197 6
ĠSw ed
Ġp aint
Ġfour th
ĠItal y
Ġsing er
Ġmanag ement
) }
ra v
R O
M od
ol a
197 8
ĠI ll
i en
ian t
Ġg rand
ĠL and
u a
Ġinit ial
b re
Ġm om
ĠC ast
Ġth us
Ġto wards
Ġoper ations
F F
ult ure
a res
Ġp urch
it ors
Ġchang ed
N ot
Ġf arm
nb sp
ag ing
al ed
u ge
( $
Ġfin ancial
Ġmed ical
ĠP an
ĠF in
Ġmod els
b ers
Ġread ing
the ta
ĠO ther
ĠSc ot
Ġso ft
Ġbeg inning
197 4
Ġb ring
L L
Ġocc up
ra k
enc ies
Ð °
T V
l o
Ġlin es
en ed
Ġpract ice
Ġso on
p an
Ġp aper
Ear ly
Ġinter view
p oint
197 5
Ġcl osed
htt ps
Ġg un
Ġf ile
D e
ĠO ut
t imes
Ġlik ely
Ġman ufact
ĠS y
Ġback ground
Ġgl obal
ing u
Ġsc ored
Ġtechn ology
Ä ģ
Ġstat us
u ke
Ġv eh
ĠF estival
Ġpl aced
ig er
197 7
Ġop port
og le
Ġestablish ments
Ġtourn ament
196 8
ĠR et
ĠK ar
ĠM il
ur t
velop ment
Ġstr ateg
ĠSt ar
are er
ig r
D E
ap pen
Ġcontin ue
ail ed
Ġstud ent
Ġcomp lete
ĠM a
ov ers
in ated
Ã ¨
Ġb asketball
ĠCarol ina
Ġpr ison
Ġac adem
Ġ( "
ag ement
n u
8 8
i ro
pp ed
ian a
Ġsom et
k m
ĠPar liament
Ġim plement
it ation
Ġloc ation
Ġcont ains
Ġ& &
Ġopp os
Ġb ox
ĠSt ring
Ġtr ade
Ġdest roy
p ath
m itted
ĠM er
st ra
Ġtrans port
ĠN avy
Ġb all
sp ace
d en
Ġrun ning
197 3
Ġ %
ĠO l
ug by
$ -
Ġexp ected
7 7
I f
im al
Ġp ark
Ġl ack
} (\
ir it
m it
Ġst atic
Ġth reat
Ġn omin
az z
F C
Ġun it
itt ing
Ġc ode
Ġappro ach
pos ition
Q u
T rans
ĠT w
] ;
Ġsc reen
st ant
] .
M S
ĠChampionship s
Ġd ro
ĠB o
Ġan c
eq ref
a ught
ĠS aint
Ġsp ent
Ġt able
ĠPro fess
ian o
Ġde ep
ric e
ta u
ri ef
Ġbroad cast
ĠIt s
ĠO h
c el
Ġf ederal
Ġearli er
Ġfollow s
Ġwho le
Ġwrit ers
}$ ,
ĠK n
Ġmiss ing
Ġ ess
Ġon line
ed ic
l t
oc al
Ġt akes
ĠSp ec
ĠSt ev
ĠO per
ĠT imes
ab it
W hen
and a
Ġy et
ĠS ub
Ġcol or
0 1
0 5
ĠS ince
ĠM ur
K ey
g or
Ġdef ined
Ġ/ **
197 1
Ġt alk
ĠE ducation
Ġprogram s
Ġf if
194 0
" ;
Ġh ours
ĠA v
Ġactiv ities
196 9
at o
ire ction
Ã³ n
st yle
Cl ass
ylv ania
g ent
ĠD en
) );
Ġp age
Ġact ress
ĠS k
Ð ¾
}$ .
x i
Ġim age
Ġpr int
Ġim medi
S he
Ġart icle
ans as
in et
Ġpro posed
Ġtem per
ĠA wards
Ġthem selves
I nt
t able
Ġanal ysis
ur l
ad ium
f unction
194 5
ĠS oviet
t it
om m
N otes
Ġprov ides
Ġb order
ĠB ank
; "
Ġlong er
ott om
Ġdis e
G et
k en
ĠA rab
ollow ing
Ġdist ribution
Ġsh are
Ġc ell
Ġpo et
ĠL iber
Ġ- -
9 8
is ation
Ġplay s
ĠD is
Ġw ord
ĠC ap
Ġwh om
l ang
re ate
ill a
Ġph il
Ġw ords
Ġincre ased
Ġdel iver
ill er
Ġs y
Ġhig hest
Ġd ivision
r c
ers ey
A D
Ġsh ot
Ġst e
Ġsec urity
Ġact or
ad y
O S
Ġrun s
pt ion
Ġsch ol
ent h
Ġexp and
Ġtrad itional
le vel
Ġproble ms
Ġlim ited
Ġmin or
19 30
ĠDirect or
Ġf ace
ĠT wo
Ġrepresent ed
ot o
Ġem b
ĠP ac
6 8
Ġus es
Ġpro p
Ġgr ant
Ġcom mercial
Ġmov ie
ĠL ife
Ġst ep
Ġend ed
g roup
Ex ception
ee k
Ġor g
ĠP et
196 7
D ef
re ater
ĠMart in
al i
Ġse lected
Ġh appen
Ġs ummer
ĠCol umb
ro ugh
Ġmeet ing
Ġm ention
c m
Ġqu ick
Ġpos itive
ul ly
Ġcor re
Ġcon cept
Ġnot ed
ĠO ld
ic on
st ruct
s im
Ġsp ect
in ct
ĠAss embly
ĠI ran
ĠW ales
ad er
part ial
n y
ĠM os
Ġdem on
du ce
ĠS il
Ġatt ended
ĠS ocial
Ġact ually
ĠB razil
ven ue
Ġcont ext
ĠCh ief
Ġc ateg
Ġgo als
he ast
Ġe lements
Ġbeh av
as ion
Ġsh all
Ġm er
Ġs uffer
ĠM o
Ġsomet imes
l ink
Ġant i
ĠO f
Ġor d
m m
e ks
ĠR os
ul ed
isc o
ĠF ort
Ġw inning
' '
Ġ ver
Ġpass ed
Ġlarg er
et te
v is
Ġfore ign
Ġpresent ed
us band
Ġlin k
Ġco ast
Ġch o
Ġide a
Eng lish
all ery
ĠJos eph
Ġstud io
Ġse asons
196 4
Ġrem ains
on ents
a o
Ġad opt
ult ural
Ġte ac
f rom
ĠH on
0 7
tr ack
O bject
Ġan g
m ore
ot ion
Ġmus ical
Ġgener ally
ĠG overn
ĠW ood
ag s
Ġh ot
s ylvania
Ġparticular ly
Ġ error
6 7
Ġvoc als
Ġst ay
O ver
Ġed ition
Ġd u
or a
ut il
Ġad apt
fl ict
b ody
ĠĠĠĠ Ċ
ĠM em
Ġl ives
p ublic
Ġk ing
Ġs ociety
ĠIr ish
ĠT our
ĠM ost
ed ia
ĠF re
vers e
Ġmajor ity
Ġ u
ĠHistor ic
y ing
Ġcoll abor
n av
ĠJ ournal
ro s
ĠEmp ire
ĠA re
i Ä
y an
J ohn
Ġdef in
5 7
P s
ind ex
Ġcom es
c it
ĠProv ince
Ġcomm ission
Ġcommun ic
I ON
Ġcontin u
Ġm ission
i h
Ġoffic er
ĠN orthern
Ġnew sp
Ġwant ed
Ġmeas ure
j s
Ġp en
im b
Ġcan not
Ġcommun ities
0 8
atri ate
Ġter rit
B ut
Ġrequ est
g ing
ft y
I M
ac ity
Ġfor ward
l anguage
Ġapprox imately
ous ly
Ġr iver
Ġf a
ĠB ig
Ġpl atform
Ġmanag er
Ġask ed
Ġwh y
Ġparent s
n es
Ġch ampionship
ĠRep ublican
r as
r t
C areer
erv ation
Ġ esc
Ġl ic
ĠS ol
Ġch arg
ĠS un
Ġsupport ed
ail y
Ġl ived
Ġal tern
196 5
at ively
at ur
ĠO pen
9 7
av en
h ouse
D uring
ĠH aw
S et
f in
ong s
A m
ran ge
Ġlaun ched
O T
ast ic
Ġproduct s
C an
Ġrem ain
ĠS ir
Ġwe eks
or ph
Ġproduc er
Ġ! =
Ġsc ore
Ġrelig ious
ĠP ost
ĠAl though
ĠC D
w an
Ġn ature
ect s
Ġcaus ed
Ġrail way
B S
Ġsur face
Ġra p
ĠP eople
ub e
Ġass um
Ġcol lect
9 6
w s
om ega
Ġs outhern
19 20
ĠL ove
Ġw ide
Ġdis play
ĠL ee
( ).
Ġe lement
ify ing
re p
ĠSp ain
Ġc itiz
le ase
Ġsur round
ĠOff ice
air man
Ġg raph
ef ore
Ġch ief
Å į
Ġun ivers
196 6
Ġopen ing
Ġn orthern
c a
arri age
at i
T est
Ġdid n
ĠFound ation
Ġis land
ĠJ ud
e ed
es h
Ġcom ment
ĠEng ine
Ġ er
ĠR h
Ġincre asing
Ġl abel
Ġm ap
Ġqu arter
Ġex cept
ĠH el
amp ion
ĠYou ng
Ġw ood
Ġmean ing
ĠPenn sylvania
Ġsen ior
d s
ĠP ak
ĠJ im
ir ing
ack age
ĠB re
Ġb attle
V ID
Ġpr incip
Ġneed ed
ĠO ver
ĠBrit ain
P r
Ġc ensus
is f
ĠL ord
ie ce
Ġun c
5 6
ul f
ip s
Ġp an
Ġgrow th
Ġg as
ĠF ig
Ġtra in
Ġed itor
ĠW eb
V iew
Ġ// /
ĠJ o
Ġeffect s
ig inal
Ġme chan
ok en
Ġtrans l
in fty
M ar
ig en
Ġh usband
Ġann ual
ost on
Ġh um
ĠG reek
ed d
ĠC ivil
Ġdirect ly
Ġc ause
Ġdes p
ak ers
Ġinc ome
Ġdr ug
Ġpro gress
Ġr an
Film s
Ġro om
Ġad j
ĠC am
g l
en ge
Ġmur der
oc ks
O ne
Ġcal c
ex p
Ġpre vent
ĠAs ia
em porary
v ement
ain e
ol s
D elta
ill ed
Ġmin utes
ĠL in
s q
ĠVal ley
ĠH ot
ĠReg ister
Ġmag azine
Ġm ach
P erson
ore m
ĠL ong
Ġindividual s
Ġdou ble
Ġ$ (
inn ers
Ġfail ed
Ġst ories
ag n
Com m
Ġstud ied
ĠU k
=" +
ĠR o
Ġdefe ated
ĠDemocr atic
iz es
" :
Ġstruct ures
m ond
Ġm iddle
Ġoper ation
Ġbas is
Ġown ed
T ime
ĠJew ish
() );
Ġover all
Ġcount y
ĠG en
ard en
ĠF red
e en
T R
Ġmat ches
Ġinst r
k ins
ĠC ross
N o
aw a
Ġqu ant
Ġche ck
ĠTe am
ĠT er
Ġbecom ing
ĠC r
ĠO x
ĠS ar
Ġar rest
ĠB attle
Ð µ
im s
Ð ¸
Ġar my
Ġus er
Ġro ute
ĠD ev
ĠWh at
ĠS outhern
ym bol
Ġlaw s
"> </
Ġlevel s
ent y
ĠIs lam
Ġ eth
ob ile
Ġr ule
y t
ĉĉĉĉ ĉ
Ġdo ing
g r
un ior
Ã §
is her
Ġs earch
com m
Ġnum bers
Ġv ote
5 9
ult y
um s
et ts
Ġun iversity
Ġ/ >
om y
ĠII I
ĠPl ay
Ġmat ter
E d
5 1
ĠG al
ĠAd d
A dd
Ġstart ing
Ġp sych
back ground
i ography
ig ation
Ġappear s
Ġal leg
Ġsc hed
per ty
enn is
Ġrecord s
ĠS und
Ġcont act
Ġn ation
ap ter
Ġrespect ively
Ġnear ly
w ar
ĠSt ep
5 2
f it
B uild
\ ,
ch i
ĠT ime
. </
196 3
Ġsay ing
w ise
ĠV er
b o
Ġfriend s
ed om
Ġold er
' );
os oph
ĠC amb
ino is
er em
Ġhe art
Ġdep artment
ĠCar l
St ate
Ġpl ans
abl ed
U T
gy pt
ict ed
Ġhelp ed
Ġnum erous
Ġc rick
Ġun ion
Ġass ert
in em
st ance
ell ig
196 2
U R
ĠT est
R ep
ĠU nder
Ġdram a
} [
Ġcond ition
esc ription
Ġb us
Ġneed s
Ġr isk
Er ror
S P
Ġwork ers
Ġelection s
Ġorgan izations
Ġaut om
Ġsh oot
Ġexp ect
5 3
Ġs ens
st ein
Ġs ources
Ġmethod s
Ġ err
at ers
Ġcom ing
im a
Ġtreat ment
s up
Ġent ered
Ġra ised
Ġform s
194 4
al le
Ġproject s
[ '
Ġsing les
Ġcent re
ĠB as
i as
gor ith
M A
ad el
ĠL ibrary
Ġb rand
Ġfor ced
0 6
Ġh ospital
v ey
t ilde
ĠR el
Ġrec ently
Ġtyp es
f ort
ĠM iddle
Ġr ules
ĠM att
Ġle ave
Ġappear ance
ĠAs ian
ĠM at
Ġpre c
ap ers
ĠJ ersey
ĠOh io
ist ers
w in
ĠSec retary
Ġob tained
O ther
ound s
ord in
b a
ĠB ob
b ury
I P
ach us
ĠJohn son
p ret
im ens
Ġvict ory
ĠT ro
| \
le an
Ġcele br
ĠMich igan
Ġsus p
Ġpart ies
Ġb ad
ad or
5 4
Ġp ick
N A
ĠPac ific
t ab
Ġoffic ers
g u
vers ion
und red
196 1
ribut ed
n amed
Ġphys ical
anc y
Ġn uc
Ġc hem
ig a
ĠCon ference
Y ou
Ġlead ers
Ġst ars
ron ic
ĠT im
n am
Ġhistor ical
Ġde ad
ĠA tt
Ġr at
Ġcomp ared
os ing
m iss
ĠThe n
ild ren
k o
Ġqu ality
Ġs ense
ĠCon n
Ġse em
Ġlearn ing
r ich
Ġinflu ence
ĠJ ones
Ġcol on
ir a
ĠDe velopment
ĠB ase
tern et
ar ia
Ġin put
} ;
h and
d t
ĠWilliam s
Ġse a
3 00
burg h
Ġpart n
Ġb att
Ġmost ly
ĠT ri
ĠM en
og rap
ĠPro gram
Ġhtt ps
Ġprob ably
ri z
Ġ â
Ġrespons ible
Ġc ities
Ġfinal ly
Ġturn ed
ĠScot land
Ġd irection
Ġvari ety
Ġpo or
ĠG ood
Ġth ing
! --
Ġthe refore
ĠJ ul
Ġinst ance
Ġlet ter
pr int
Ġm aster
C T
ĠD et
eq n
A ust
v est
Ġn ine
achus etts
ĠFranc isco
esp ite
ĠSt r
Ġchall eng
0 3
res h
op y
ĠK ent
Ġl ay
ĠQue en
ĠB ul
194 2
Ġ ult
ĠEd ward
Ġbelie ve
Ġknow ledge
' re
Ġserv e
Ġw alk
ĠIll inois
el ine
Ġcon flict
Ġcol umn
urb an
Ġf oot
ĠL em
ell ed
u an
C H
ĠM ah
it ter
ab eth
ul ate
c apt
Ġfam ous
Ġinit ially
j a
Ġst op
Ġstre ng
ĠW al
Ġd omin
ric s
Ġrec over
. _
ĠGeorg ia
Ġm ix
d o
ic ine
ĠCO VID
m as
0 9
S erv
n on
ak a
U p
qu ot
d raw
en ing
Ġcult ural
Ġfore st
Ġd at
Ġagre ement
ĠB oston
por ation
wh ich
Ġm ind
Ġt al
Ġclaim ed
Ġd ensity
ĠC E
ĠJ es
Ġprofess or
ĠF ield
ĠCent re
Ġmom ent
Ġserv ing
Ġrefer red
g rad
Ġcar ry
194 8
Ġatt ention
ĠSen ate
ear s
ĠP o
ĠRad io
U N
Ġs n
195 6
Ġb rief
ĠO k
Ġd edic
Ġab ility
Ġact ors
ay a
Ġsepar ate
ĠEar th
id ers
Ġo il
Ġn ormal
195 8
ĠT op
cd ot
Ġelect ric
195 9
ĠP rem
i y
Ġdesp ite
Ġapplic ation
7 6
R eg
Ġpolitic ians
ri ed
Ġnecess ary
Ġlim it
Ġeffort s
ew ork
Ġl atter
j o
orn ing
Ġfunction s
ĠD utch
in ent
193 9
Ġc arried
ĠPhil ipp
Ġcrit ical
p ed
on ic
Ġs quad
ĠGovern or
ĠT re
b t
ĠL uc
Ġex c
ing er
Ġse at
Ġspe ed
Ġar rang
Ġin side
Ġp il
g s
Ġc ouncil
art ers
Ġb ass
N ational
Ġbecom es
f ect
Ġrem aining
Ġprot ect
ris on
ĠF e
ĠPol and
ĠL ine
Ġoffer ed
ffic ient
4 00
Ġd ark
Ġfootball er
O m
ĠPort ug
b m
ur ies
Ġbelie ved
Ġadminist ration
ri ev
Ġun ique
stit ution
' ]
ĠB ow
ot ing
S E
A F
og ue
0 2
if orm
194 1
l ength
../../ ../../
ĠL ab
il a
T ext
Ġdist ance
P op
man n
ĠE lect
Ġr ac
Ġb illion
Ex p
Ġm useum
## ##
Ġsim ple
Acc ording
ĠE gypt
194 3
0 4
ĠE astern
Ġs ister
Ġproper ties
Ġar m
Ġw estern
195 7
iÄ ĩ
B rit
Ġdis s
ĠH ung
Ġactiv ity
und er
Ġconst ant
ĠMass achusetts
Ġsp read
ĠThe atre
ĠJ r
Ġro w
Ġdemon str
ĠRep resent
it age
ĠThe ir
ist ance
D on
ĠW ind
Ġp urs
Ġle aving
ĠK ong
W hat
h ing
or ation
O ut
Ġret ired
Ġf irm
ĠS and
ĠCo ast
pl ies
Ġship s
v a
ĠÂ £
Ġ- ->
Ġl ab
ĠAl b
Ġsim ply
ĠE conom
Ġh op
Ġpe ak
B ack
B ar
form ed
Ġ ?
D ec
est ic
ĠU r
it ude
8 5
Ġhe avy
C ar
am m
c an
ĠO tt
Ġen j
ĠF inal
} }\
y er
Ġneigh bor
Ġf le
Ġhigh ly
ĠJ ac
Ġex ecutive
Ġ ice
ĠH uman
F ile
194 6
ict ure
Ġeffect ive
Ġg ives
a ctions
Ġc ounter
ĠJust ice
Ġfav or
Ġreg ional
ĠLat in
s ummary
en ant
Ġwrit e
il ton
ĠUn ivers
Ġiss ued
ou ri
ec ause
orn ey
b ut
ĠP re
A tt
ĠA z
ĠM ov
Ġinit i
I G
Ġcom edy
u ate
ĠM ax
Ġst ream
Ġrecord ing
ma x
ĠChar l
Ġgen us
y th
ĠF C
)$ .
Ġear ned
el a
ic i
Ġn ative
Ġsc en
8 6
Ġrest rict
Ġext ended
Ġconc ert
ĠColumb ia
ĠR am
ce an
raph ics
ĠSh ow
Ġcont ain
ĠM any
à ¤
Ġrec omm
angu ages
ĠT em
ust er
ic ks
S ports
Ġe lev
Ġsit uation
Ġth r
Ġorig in
Ġwe ight
Ġre pe
g reg
p ass
ĠOx ford
Ġch annel
ĠB et
Ġt im
Ġoper ated
Ġre ach
ĠG et
ĠM id
Ġser ious
ĠPr ince
Ġh ar
ĠSt an
A B
194 7
195 5
195 2
act ive
il ed
Ġexper iment
Ġcandid ate
Ġsc ene
9 3
Ġchar ge
Ġm arriage
Ġdem and
ĠW ay
I R
Ġres idents
Ġdise ase
Ġres ources
ĠPro ject
Ġsmall er
ĠRail way
us er
text bf
ĠE ll
9 2
Ġvis it
ĠU N
st ruction
ĠSup reme
s en
M L
ont o
out e
In ter
ĠB usiness
ĠEn ter
Ġ ...
Ġv oice
Ġs al
Ġm essage
Ġs yn
ul pt
Ġcomput er
Ġrefer ence
F irst
h ost
Ġclub s
/ *
Ġreg ister
ĠW ater
ĠG ar
Ġw ays
ran ce
Re quest
Ġhtt p
C o
eps ilon
.... ....
ĠW all
Ġpe ace
ĠKore a
ĠMus lim
b ra
oc cer
Ġprodu ce
ĠB C
ir med
Ġfig ure
cont ent
ĠHe ad
S C
Ġsoft ware
: #
it ness
ph y
Ġill ust
Ġquick ly
I V
Ã ±
Ġc orn
ĠTr ump
Ġc ard
Ġyou th
m ir
ib ly
ĠSpec ial
Ġm erg
F orm
S ec
Ġperson nel
ĠBl ue
Ġcl imate
IN G
} _{\
ir us
Ġcons ists
ĠV an
7 2
Ġcitiz ens
Ġcom pl
Ġd raft
ĠB ang
u ated
ant ry
Ġh ol
and om
ĠA ff
ĠSe a
ĠB ern
yd ro
us ion
r un
Ġmov ing
h ar
Ġdoes n
ĠF ederal
roll ed
195 4
Ġcap acity
ĠE nd
ĠH ome
ĠJack son
B e
c ome
Ġv irt
ĠG ra
Ġb al
ĠScott ish
Ġdep end
f ound
( ),
Ġst ra
Ch ar
u ct
che n
ĠO b
Ġstat ement
ib li
orpor ated
r um
Ġunder stand
ĠK e
Ġup per
ra q
Ġind ex
ĠPol ice
on ym
Ð ½
195 3
Ġtri al
Ġ ir
Ġimmedi ately
Ġext ra
Ġg reen
on ed
Ġenc our
Ġpur pose
Ġd igital
Ġst ore
l as
ĠM u
ph ia
capt ion
olog ist
Å ¡
Ġph ase
O f
ĠM ajor
Ġrece ive
Ġpat tern
iz abeth
Ġpre p
Ġfor t
Un ited
anc he
ĠBer lin
F urther
194 9
n ames
Ġfield s
Ġa wards
Ġofficial s
Ġex act
uck y
Ġg iving
ĠH ospital
ĠL u
$ $
Ġw or
Brit ish
w er
re al
Ġtro ops
Ġin ternal
ĠH a
Ġcon fig
epend ence
Ġwe ap
8 7
w a
te en
Ġall ows
ĠK enn
on ia
9 1
Ġpres ence
we ight
Ġdep art
9 4
ram ework
ĠBro ad
Ġm arg
ĠI S
Ġcon clud
Ġth ous
Ġset s
Ġ vert
Ġh app
ĉ Ċ
ro vers
Ġtry ing
ov a
Ġsat isf
ĠR em
ma z
Ġun s
' :
A G
Y ear
Ġliter ature
is hes
Ġch art
S ub
Ġcomp ar
Ġt rib
Ġh ockey
er b
Ġent er
adel phia
Ġsc ale
Ġcover ed
ĠL ittle
M P
Ġdiscover ed
ĠJ ean
p ress
Om ega
Ġb it
Ġform at
r ide
Ġf elt
Ġacadem ic
ĠC ard
ĠAnd rew
ip ment
clus ion
ĠPl aces
ĠH ong
Ġf ast
Ġacqu ired
r ag
Ġmain ly
G roup
Ġh undred
Ġexist ing
Ġsubsequ ently
ĠProfess or
anc ing
Ġmanag ed
Ġhous es
Ġag o
Ġbl ood
o ir
ĠN ow
Ġlead ership
n ce
ĠW ild
Ġdet ails
g n
ĠL et
e z
ĠRev iew
Ġcou ple
ac hel
Ġsuc ceed
Ġqu ite
ay lor
or ter
ĠCor ps
Ġget ting
Ġf ully
ĠN ight
ĠBro ok
Ġsol ution
6 3
ors hip
v are
ĠB al
em et
or age
Ġav oid
Ġlook ing
od ay
M embers
195 1
ĠU s
Ġl if
Ġstr ugg
Ġg reater
ĠE p
sub section
T E
ĠPol ish
ie ut
ruct ure
Ġpress ure
th ur
un a
Ġpat ients
us ing
n ode
ĠK en
oc ation
ĠBel g
ĠP op
6 1
ro wn
B ig
ion e
S w
Ġdef ault
ĠF orm
ĠM ot
Ar t
Ġtrack s
Ġrem oved
ĠH or
ĠJ eff
eder ation
Ġconduct ed
Ġprov iding
W rit
Ġsex ual
Ġse ek
O C
E vent
il ly
ren ce
ps ilon
Ġjo in
ut s
Ġap plied
ĠF ar
m ap
19 18
Ġse ems
g ment
ole an
ĠJ oe
ĠSt ation
ans ion
cl es
A b
n ic
Ġsome one
A pp
Ġcomp osed
Ġan sw
ĠIn f
Ġexp ress
yd ney
ĠCol or
Ġs ure
ĠUS A
Ġhe ight
Ġout put
ĠTechn ology
or ough
6 2
eng er
Ġent ry
ĠComm on
ers ion
ĠP res
inn es
Ġenj oy
hem at
ĠV iet
act er
Ġval id
ĠAlex ander
ĠC reek
w ord
al ing
I L
Ġhon or
Ġdis p
Ġarchitect ure
ĠG ame
ect ive
Ġf air
Ġarr ived
Ġh olds
Ġw atch
Ġestim ated
ĠN etwork
ol ved
Ġmunicip ality
193 6
ch o
ell er
Ġj oint
Ġinstit utions
ĠR ay
ĠA ut
Ġs port
Ġl at
st ream
ĠPr ime
Ġanc ient
Ñ Ģ
ĠDan iel
H E
Ġpart ner
Ġw inner
L et
Ġre ports
S up
Ġrec on
ellig ence
Ġe astern
p ace
g t
Ġsit es
Ġb ridge
Ġp oll
Ġresp ond
Ġbase ball
Ġp aid
` `
ĠOlymp ic
sq rt
ĠF our
uild ing
Ġl iber
P ath
st one
Ġsugg est
Ġreve aled
C L
ri x
=" #
Ġoff ers
Ġsold iers
M ed
Ġf ell
f oot
y es
Ġ );
ĠPak istan
Ġs umm
innes ota
os en
Ġobserv ed
Ġpol ic
Ġp air
nt ario
ric ts
sp ec
k er
Ġdes cent
Ġcompet ed
Ġs ales
ĠG irl
N ode
Ġto uch
ĠC oll
Ġcan cer
ĠComm unity
b ass
Ġgo es
Ġ Å
Ġb omb
Ġclaim s
a is
Ġnewsp aper
Ġc am
Ġv an
Ġmention ed
ig ration
Ġm ill
Ġset ting
ĠAmerican s
Ġsurv ey
pl ace
I A
ur ance
Ġeconom y
ĠB ir
8 9
Ġh y
Ġgrow ing
Ġs quare
Ġequ al
E qu
ĠVictor ia
Ġappear ances
as y
F l
l ong
ĠN ations
Ġv on
ps i
Ġcr im
ins on
ĠD ar
f e
Ġcop y
193 8
C ount
Ġt ask
oot h
Ġpolit ics
Ġsaf ety
tr ue
Ġmin ister
Ġet c
l ers
igh ter
erv ed
In fo
ĠAr gent
Ġtrad ition
Ġg rew
writ er
M ap
F ield
ze ch
ap i
Ġconstruct ed
Ġc at
ĠL ater
) (
enn es
at ures
Ġpro pos
Ġdedic ated
)$ ,
P S
ĠA k
Ġagre ed
Ġsp irit
Ġex ecut
erv ative
Ġar ray
am ples
ograph ic
ĠOr gan
ĠMin istry
Ġtr ust
ul s
ĠI N
Ġident ified
and emic
ap ed
Ġm icro
uc cess
Ġint ended
Ġbe aut
Å Ĥ
G erman
ĠC at
Ġopt ions
us c
ĠB BC
ĠC y
idd en
Ġl oad
ris is
Ġown er
Ġm is
^ *
ĠR od
Ġconn ection
Ġfac ilities
Ã¡ n
/ **
Ġatt end
ĠB oy
A ct
Ġbe y
Ġprim arily
Ġt ree
Ġa thlet
ĠB oth
ĠStud ies
Ġev al
Ġfif th
ĠP ubl
ĠI raq
ĠPri ze
Ġpos itions
am ber
y o
G B
Ġ( $
8 2
ud get
c os
T S
' m
ro om
ieut enant
Ġa ctions
Ġprov ince
Ġassist ant
Sp ec
Ġp p
Ġconn ected
tit le
ĠAir port
Ġreg ions
Ġf un
ĠKore an
ĠGu ard
ĠMed ia
Ġcon cent
el d
Ġl abor
Ġinter pret
Ġp ra
Ġb ill
d r
con st
Ġepis odes
Ġp et
Ġcon ference
ĠL i
Ġj ourn
ter m
E m
ĠIs lands
ĠJ on
Ġal gorith
Ġ era
ĠT am
sk y
Ġoper ating
Ġgradu ated
Ġbey ond
Ġart icles
od ies
Ġb ranch
ĠSc iences
ĠC orn
ĠEl izabeth
ĠB i
Ġdef end
bl ock
r ical
Ġun known
Ġresult ing
Ġopport unity
ĠL im
Ġsl ow
Ġra re
ĠS pe
Ġcr ime
Ġatt ract
193 7
O D
Ġcon vert
in y
we b
Ġfl ow
ic ed
Ġim ages
y les
Ġalong side
Ñ Ĥ
R A
Ġas pect
ether lands
ĠS om
S ince
Ġprom oted
Ġorder ed
Ġnear by
em ph
c ount
Ġclass es
l aw
ak s
d f
ĠV ill
ĠS ports
includ eg
includeg raphics
Ġre duced
ĠL ew
Ġpr iv
itz er
Ġprot ected
Ġpro ceed
Tr ack
Ġaccept ed
Ġh arm
8 3
b ase
ad ing
8 1
Ġr ural
Ġschol ars
ra ine
con fig
Un iversity
rel ated
Ġnot hing
E l
i ec
ĠC apt
Ind ex
8 4
ĠR ome
Ġequ ipment
ĠTor onto
Ġn ode
i ate
Ġbel ong
Ġtemper ature
ĠAl so
Ġ/ *
r ong
j i
Ġcomplet ely
ĠO ntario
ĠMc C
Ġsc hem
E nd
P art
iqu es
ĠAd minist
7 1
Ġst reet
() )
Ġin h
Ġm iles
r ate
eqn array
em pl
ĠCor poration
ĠP ower
x y
Ġshow ed
isl ative
b i
ĠOffic ial
7 3
ab ase
per or
ĠS ydney
E E
N e
it able
ĠB ab
7 4
Ġse lection
W ill
Ġbl ue
Ġcontin ues
Ġw ild
Ġl anguages
ĠRev olution
ĠPhil adelphia
Ġa im
ons in
Aust ral
ac ement
un ct
Ġv s
P re
h aps
ath an
os a
o at
ĠMed ical
if ier
Ġd ynam
isc onsin
Ġcamp us
Ġm ixed
G amma
C A
6 9
Ġviol ence
im ents
ĠO p
un ch
Ġtransfer red
Ġfl oor
Ġp le
Ġfeat uring
Cont ext
ĠI d
rac y
Ġal one
Ġmax imum
ee ch
Ġro b
Ġre ject
ĠĠĠĠĠĠĠĠĠĠĠĠĠĠĠĠ ĠĠĠĠĠĠĠĠĠĠĠ
ĠL y
ĠO ur
Ġmem ory
Ġhous ing
Ġcomb ined
v ant
un te
ot ic
Ġcre w
Ġc ert
Ġsym bol
W ork
ron ze
' ;
in ity
C D
Ġplann ed
ĠReg iment
Ġre form
vare psilon
M usic
Ġv en
ĠMan agement
ĠWil son
an th
ĠB a
am in
A c
Ġsup ply
Wh ile
Ġadopt ed
Ġdeterm ined
ĠA P
Ġtyp ically
in it
ĠE st
Ġob tain
Ġs ector
Ġsc ulpt
c ore
ĠS a
ĠB att
D em
ĠL es
}^ {\
per ial
ĠS ant
osoph y
ak h
ĠR og
Ġsh ared
in put
Ġcorre ct
ĠA venue
ĠS ection
h olds
ĠP en
ĠP ers
ĠR aj
ar p
ĠM aster
Ġadminist rative
ap h
ow a
193 5
Ġpro ced
ĠB ell
ut t
Serv ice
roll er
Ġthro w
Ġsol id
ipp ed
Ġag ric
os h
em an
7 9
Ġmet al
" |
Ġinst all
ash ion
Ġens ure
Ġa uth
cl aim
Ġbehav ior
Ġexp atriate
R et
ful ly
Ġdiffer ence
Ġs ust
qu arters
ĠM innesota
b ec
ĠAr m
H is
19 14
P olit
ĠW in
che stra
ĠBr ig
Ġacc ur
bour ne
ĠM ike
oc ated
Ġsec ret
ĠB and
Ñ ģ
ĠB rad
Ġ\ ,
Ġmaterial s
w eg
emet ery
re qu
W orld
Ġass ociation
Ġass ess
if ically
Ġequ ival
Ġp andemic
Ġr ul
19 19
E lement
ĠL ight
ĠPol it
T D
Ġf ans
Ġcomm ittee
L a
ĠCamb ridge
Ġcreat ing
Ġch oice
. [
Ġany thing
Ġpl ants
Ġs ort
ĠR en
Ġconf irmed
ĠS her
rop ri
Ġsl ight
ĠStep hen
pt on
ĠInd ust
ĠSund ay
Ġp it
% )
ra wn
Ġteac her
l s
al ion
Ġsil ver
Ġcont rovers
Ġmusic ians
ĠServ ices
b olds
Ġk ept
pro t
Ġnot e
ĠC as
Ġhand s
ĠTh ree
bolds ymbol
193 3
il er
Ġro t
ĠB u
Ġc ells
Ġhistor ic
ur er
Ġro les
il ter
ĠCh ris
uss ian
Ġlarg ely
olit an
Ġbeg in
19 17
ĠF ire
Ġcre ation
b ro
v oid
ĠB on
Ġident ity
v an
Ġest ate
+ +
Ġsol o
l ines
rop ical
are t
Con fig
Ġprot ection
Ġobject s
Ġdiv ided
Ġd oc
ost er
Ġclass ical
ol is
Ġass igned
Ġf ellow
Ġtri ed
Ġpro te
Ġquest ions
Person al
he im
Ġoccur red
o is
Ġlaun ch
ann ing
v in
Ġdist inct
Ġoffic ially
Ġc ars
Ġauthor ity
ĠSt and
G u
ĠB ol
ĠAnt on
Ġl ies
ĠC ub
Ġfl ight
H and
g est
Ġprom inent
Ġauthor ities
Ġper man
ĠN etherlands
ad ian
^{ (
Ġwid ely
Ġ( !
19 29
Ġattack s
Ġsequ ence
ack s
Ġb oy
Ġsub s
re es
Ġgener ation
Ġse lect
ond er
Ġfact or
ĠQue ens
Ġl y
Ġw inners
Ġen em
ĠSt adium
il ing
ĠM ir
ur ches
Ġscient ific
Ġel im
l ay
Ġindust rial
S o
Ġorgan ized
Ġact ing
Ġw orth
Ġbe at
Ġ$ {\
Ã ¸
Ġd ial
ĠS anta
l av
al o
Ġparam eters
Ġform ation
ask a
} =
Ġengine ering
Ġres ident
b ed
Ġco al
w ater
Ġw a
P er
Ġimpro ve
ĠT aylor
ĠA sh
se x
og s
Ġmunicip al
Ġre asons
ĠR om
ĠT ok
Ġl ibrary
S outh
Ġvol ume
ra ction
ĠTur k
Ã £
ĠReg ion
ĠS us
m es
Ġv otes
r ame
ly n
Ġsc ript
Ġdam age
Ġbas ic
Ġ} );
Ġsett lement
193 4
ĠD uke
Ġmult i
Ġparticip ated
ĠS ong
ĠW isconsin
ĠF amily
ĠF air
se y
Ġr aces
ĠB ra
el er
right arrow
Ġ} ,
Ġrecogn ized
ĠW rit
ĠN C
Ġear th
c ar
Ġg ra
int on
Ġp rice
m d
19 28
he w
et ic
ĠM ain
Ġw idth
k in
Ġdecl ared
Ġp iece
or i
os is
ill ing
ĠY our
c ase
Ġdestroy ed
Ġch ampion
Ġconstit u
m ult
ĠC irc
iz er
ipl om
Ġcons um
Ġte aching
Ġed ge
r ig
Ġsem i
h ire
Ġevery thing
olog ies
a ug
Ġag ent
ĠH ind
reg on
ĠAn th
O M
pro of
ĠH y
Ġconn ect
Ġhouse hold
Ġd ance
Ġp al
M ay
Ġc erem
Ġ urban
ĠW alk
Ġserv es
ĠN az
ĠP oint
re te
Ġon es
ĠW eek
Ġfl ag
ĠA N
Ġex change
ĠS et
19 00
igr ants
enn a
ĠSec urity
ĠSt at
op her
Ġ čĊ
riz ona
ur d
Con n
l ife
It em
ĠB ad
Ġop in
Ġus ers
Ġme ant
ific ations
Ġrap id
Ġfac ulty
ĠFore st
M y
O P
Ġm ut
Ġaud ience
c or
193 2
//// ////
ĠV en
rang le
esp onse
b ul
u ing
Ġreview s
i at
19 10
ĠSp ring
ĠMed al
r s
Ġemploy ees
Ġle aves
Ass ociation
Ġfund ing
act ory
ĠA thlet
Ġ: =
Ġst ock
ĠSt e
Ġcapt ured
Ġro ll
Ġwe b
Ġcommon ly
" ).
ind er
P ost
Ġfe ed
Ġnuc lear
ĠBe ach
ibli ography
ole c
. ~\
ĠJew s
Ġref lect
m at
ĠM ember
ĠB h
Ġcl in
ĠH ere
ip e
ĠK ansas
= '
n ext
ĠPrem ier
ĠD oug
ĠK im
un ities
ent ially
Ġhe ard
ak i
15 0
w id
Ġinstr ument
atri x
; &
Ġhouse holds
Ġch osen
pr ise
ĠT al
Ġdom estic
ob ject
Ġterrit ory
Ġcost s
ent ed
Ġmot or
Ġenvironment al
ĠCl ark
ĠTr ust
p arent
Ð¾ Ð
Ġtit les
U s
" ),
for c
Ġ __
yn c
D r
Ġw all
ang er
ĠL ady
ĠG ree
st ar
Ġdec re
Ġnot es
ag a
Ġstra ight
Ġt ell
ĠC a
In ternational
pt y
Ġn ar
Ġnot able
ĠSwed ish
Ã© e
Ġdr ive
Ġar ts
. }
ĠA h
Ġgrant ed
ĠS ab
le ep
ĠPro t
app ing
Ġdefe at
ap ore
Ġs plit
Ġre named
ism s
Ġa st
l an
om ic
s ite
are n
om er
ĠD isc
G eneral
er al
est abl
Ä ±
C E
ap ache
Ġmount ain
Ġsugg ested
in fo
ar ks
' ve
19 24
Ġexp ansion
am i
Ġpower ful
ĠN ic
ĠW ars
Ar ray
ĠF ollowing
19 22
Ġcont emporary
ĠK ir
ef e
Ġcons ult
eg o
Ġr andom
net ic
d i
Ġapp ropri
Ġtrans ition
ĠS ee
ĠH ay
ĠB ridge
Ġv acc
l ic
for mer
193 1
Ġpar ish
Ġrest aur
C he
Ġcon sequ
ĠS ev
D A
Col or
Ġfig ures
) =
" "
Ġdec ades
Ġrel atively
Ġneg ative
Ġm orning
ĠF ox
ĠColor ado
w orth
weg ian
p ool
Ġfound er
v ec
Ġfe et
oc ol
ur i
Ġr ugby
Ġsp eech
ĠComm and
Ġpar liament
Ġaff ili
ert o
Ġprogram ming
Ġhost ed
pos es
Ġsuffer ed
lection s
ict ures
ri e
Ġf iction
y ard
Ġ Î
Ġw arn
Ġact ual
ĠTur key
Ġc ry
ĠMar sh
wh ile
Ġ q
ĠG ro
Ġlist ing
19 21
Ġp ack
19 27
Ġbeg ins
Ġr ise
Ġfocus ed
y al
ĠMar g
Ġcateg ory
Ġex ists
Ġadv ant
Ġc arri
ru it
P E
Ġext rem
if ul
ĠD espite
Ġle tt
=" ../../../../
ĠGold en
Ġtown s
Ġcy cl
Ġnov els
O L
ĠIndian a
Ġdocument ary
ang a
ĠDav is
n ote
ĠM ilitary
Ġf ixed
ĠB udd
Ġveh icle
ĠB ishop
M en
Ġd aily
ĠE ach
ear ing
Ġunder standing
S er
Ġcall s
ĠIn st
ĠK el
ĠS u
ennes see
Ġexpand ed
es ter
Ġre duce
Ġmeas ures
Ġinvestig ation
ĠR oute
ast y
C ast
ĠStev e
ic ian
a ver
W omen
ĠN Y
ĠD am
U LL
Ġmach ine
Ġfact ors
ly wood
fin ished
plic it
ĠRep ort
c reate
ĠEngine ering
ĠAtl antic
Ġapplic ations
ran k
we et
ann a
c ow
EN T
ĠD er
out heast
Ġh yp
ĠHam ilton
ĠC ur
âĢĿ .
ĠSwed en
Ġt aught
ang es
Ġpurch ased
ĠW inter
ĠTh us
ĠU t
Ġp iano
ĠMiss ouri
Ġcont aining
Ġab and
c irc
ĠMex ican
N ov
B iography
rop olitan
C ode
> &
Ġcont est
Ġcorrespond ing
Ġregard ing
E nt
Ġg ained
ĠW ell
ph as
Ġjud ge
com ing
Ġs urn
m ad
Ġsh ape
Ġallow ing
ĠF ree
sc ale
ĠFranc is
Ġtw ice
Ġg al
Ġret ire
O lymp
ĠInd ones
Ġfac ility
Ġcont rast
ast ers
con n
Ġplann ing
ĠN iger
IN E
Ġresult ed
19 12
ĠChrist mas
Ġother wise
Ġtit led
Ġb ul
Ġinsp ired
it led
ĠP ass
v ard
ĠR on
p o
Ġc atch
19 25
ĠCon f
Ġmed ian
Ġparam eter
D P
S A
p age
Ġinj ury
ĠW el
Ġsp ons
Ġvis ual
' .
Ġide as
Ġpro file
ĠAn other
Ġlin ear
ĠS on
g ency
ĠD iv
ad ow
Ġdo ctor
******** ********
hip s
Ġapp ly
Ġdevelop ing
ĠS quad
O per
ĠM oh
19 26
o om
Ġnew ly
ĠO regon
Ġcomp onent
F rench
Ġt ells
al y
Ġsecond ary
I F
h as
ens es
Ġcompos er
ik a
ĠD own
Ġfund s
Ġst one
Ã£ o
S ize
Ġveh icles
ĠP u
Ġthem e
Ġs rc
Ġtra ffic
Ġsurround ing
ain er
L og
ĠMem orial
V D
h ol
is a
og en
Ġinvest ment
Ġ ut
ĠF und
Ġdev ice
Ġperform ances
un s
id i
19 15
Ġfail ure
we alth
ĠPl an
ĠC zech
Ġaltern ative
Ġvers ions
ĠIn formation
Ġin nov
ĠR ights
} ).
Ġrese arc
ar ant
l ock
S R
Ġse ats
H ow
ĠCon c
19 23
ĠG allery
Ġr ates
Ġc ore
ass ert
j an
d ated
Ġdesc ription
Ġ ign
Ġre ality
Ġcrim inal
Ġto ward
Ġp ull
g han
g a
ĠAff airs
Ġa ware
Ġfight ing
ĠGl obal
19 16
ĠM ill
ĠFore ign
Ġapp eal
Ġmark ed
Ġad vert
Ġneg ot
Ġd im
ĠâĢ ł
Ġevery one
Ġyoung er
ĠA uthor
ĠPe ak
Ġappro ved
p et
ord ers
Ġsp ring
atur day
Ġanim als
Ġoppos ition
ĠG h
Â °
Ġengine er
Ġv ess
a fter
Ġachie ved
Ġn orm
ĠCol on
ĠB all
ĠSer b
il ation
st art
ian ts
che ck
Ġcor por
ĠL ind
Ġstat istics
H L
Ġdeterm ine
f rak
Ġw rest
it o
fer red
Pl ay
ĠJ oh
Res ults
p son
[ ]
ot ype
Ġcandid ates
ĠCount ry
Ġ ;
ĠBook s
ĠH al
str ong
Ġs ample
Ġf ish
ev in
t ra
ĠSp ace
ĠLew is
ĠA bb
ge q
Ġco ordin
=" ../
ĠAr thur
ĠA st
Ġpro of
P A
def ault
Ġ rom
Ġarrest ed
alle l
Ġg ets
ĠG reg
ĠCast le
Ġjournal ist
var phi
Ġadv anced
Ġgovern or
Ġpolic ies
ĠCon stitution
Ġrel ative
Ġimport ance
Ġt error
pro p
ĠE ven
Ġapp arent
igh th
ĠM ic
cit ep
un es
Th at
M on
Ġview s
c ss
go ing
Ġl osing
iec es
Ġ il
M essage
ĠL ive
Ġfre edom
Ġexp ression
ot al
ĠA rizona
ĠO s
Ġfa ith
Ġstrateg y
Ġexp ressed
Ġh abit
Ġc lean
Ġtechn ical
Ġexper i
ĠCapt ain
Ġmat rix
t es
ĠJ er
od d
S ome
ĠE th
& \
res ents
Ġneighbor hood
l en
P C
ab ilities
ĠPal est
Ã º
Ġdef ense
Ġse vent
et ime
ro g
ĠMar ia
D isc
Ġdist ricts
Ġeas y
ĠH an
Ġc ab
hed ral
Ġs ides
om ot
Ġrequ ires
over line
Ġdefin ition
ĠS av
A wards
ĠPhilipp ines
Ġfin ish
ĠDes ign
ĠL o
l ah
Ġit ems
ĠMary land
and y
ĠW at
Ġpain ting
Ġte le
ĠAl f
Ġpartn ership
d ev
Ġc risis
ec ution
h line
ound ed
sc ape
pt ions
ĠAre a
Ġex erc
ain ts
um in
ĠTown ship
Par am
op en
Ġpublic ation
Ġb udget
ĠSt ock
Ġfem ales
tain ment
ĠMount ain
ĠT ennessee
Ġexist ence
app a
Ġacc ident
or gan
f irst
r ant
Ġbusiness es
plic ation
E L
p ost
Ġn one
[ \
ĠL abor
Ġn ob
Ġlead s
Ġ= ==
Ġsy nt
p ower
Ġwind ow
h u
Ġcomm it
ol i
p resent
l iving
Ġstand ards
mod el
Ġch airman
es ign
Ġtw enty
Ġhe av
20 23
S U
urn s
Ġin n
T C
Ġh ope
Ġeas ily
ĠL og
g ar
im ation
ĠBro ther
Ġy ards
ĠRepresent atives
ind ing
ĠT a
Ġim ag
rast ructure
ĠP it
ond s
igen ous
P R
Ġsw im
Ġs ession
Ġem phas
}, \
ik i
Ġw ing
Ġag ency
ĠUk raine
Ġsign al
ĠF ederation
def ine
T able
Ġj ava
ut ies
Olymp ic
z en
Ġcomp onents
ĠG er
p at
Ġc e
ens is
ĠLe on
z o
ĠBar on
w ing
ĠR oss
Ġmedal ists
li ent
Ġinstit ution
ĠB ecause
Ġhe ro
Man ager
Ġint ers
ag ram
Ġder ived
Ġbur ied
ag an
Ġact s
Ġreturn s
ĠB ack
ir ty
ograp her
ĠK ey
w estern
as ks
ill ery
Ġsh ift
ĠViet nam
ord an
ĠB ru
h r
ĠPr im
ut ed
rom e
ĠS em
Ġlo an
Ġt end
ric es
Ġdr iver
Ġon to
Ġrank ed
Ġinterest s
ĠH o
Ġprincip al
anche ster
S ing
Ġconstit ution
ĠS ri
Ġdist ingu
ĠV i
ang ing
ĠH un
Ã ¢
er ick
os ure
Ġthe atre
ĠK al
---------------- ----------------
rid ay
u v
Ġev olution
res ult
c ons
Ġalleg ed
Ġpre par
Ġper fect
H S
ar ry
col n
r ator
b an
Ġst opp
ĠJes us
ĠA D
ĠB at
Ġwe ak
Ġloc ations
ĠE s
Back ground
ĠAr k
f inal
Ġport ion
ues e
j ava
val id
Ġexam ples
achel or
P ol
ĠN orm
Ġw rong
ĠHigh way
out s
Ġf estival
Ġopt ion
Ġrem ember
st ances
ĠH ard
ffic ial
ĠF urther
Ġsupport ing
ĠEx ecutive
re ll
19 13
P ublic
Ġwe alth
ke ep
ĠSing apore
Ġrelig ion
Ġgirl s
ian g
ĠM un
Ġn arrow
ell o
ĠMal ays
Ġadv oc
F inal
av ed
ĠM unicip
Ġrece iving
inc ial
ĠL ike
Ġnomin ated
N S
is er
Can adian
ren e
D ist
Ġaff ected
ĠMos cow
1 20
cont ext
Ġc art
Ġpur poses
ĠIn ternet
ĠE U
ĠP ier
ab ama
Ġv ac
Ġb ottom
Mod el
Ġrep resents
ĠNor way
P ort
am ing
Ġcirc um
Ġs an
Ġc row
ut her
id el
Ġjust ice
Ġrec ip
ã ĥ
Ġfl ood
ĠH ou
Ã¼ r
iv als
d l
Ġchall enge
ure au
Ġst orm
ĠF ace
Ġend s
Ġinc ident
Ġz ero
Ġde ploy
Ġw ave
ef ul
Ġun able
Ġrepresent ation
Ġf ine
Ġslight ly
R el
sk i
ĠM iller
riev ed
ĠM ond
math frak
======== ========
ĠSl ov
ĠCh ildren
ri p
bre ak
ĠH art
Ġinterest ed
Ġmot ion
ĠĠĠĠĠĠĠĠ ĠĠĠĠ
D escription
Ġform al
AS S
T op
ĠT ai
ĠA ud
ĠPh ys
Ġar ms
Ġf uel
Ġcomm itted
Ġoper ator
Ġpre t
Ġtre es
ect ors
ap el
S im
19 11
Ġprot est
B ibliography
ĠSur vey
Ġh all
F ig
ĠI ss
Ġch ance
ĠH and
ivers ary
S ource
Ġb ow
ĠĠĠĠĠĠĠĠ ĠĠ
Ġsc oring
Ġro ugh
âĢĿ ,
Ġreturn ing
k es
Ġd ivers
as ure
} }$
Ġkn ew
Ġrepresent ing
Ġult imately
eng ers
ĠAnd erson
c ap
Ġinterest ing
ob e
Ġch ain
Sports people
Ġres ource
oc racy
text it
Ġd oll
Ġgener ated
b ell
Ġtest ing
C all
itzer land
Ġco oper
ĠHol y
se ason
Ġdoc uments
s es
ĠPhil ip
l ig
um es
ÃŃ a
ĠV is
ĠT it
d oc
Ġsubsequ ent
sm all
ĠRe al
Ġh ydro
Ġext ension
Re f
Ġbel ief
Ġa head
g ers
) ^
ĠI owa
ĠA M
Ġj ur
Ġweap ons
Ġrecogn ition
Ġv ent
Ġhappen ed
so ft
ad s
Res ult
ĠCE O
Ġd iplom
Ġdesign ated
Ġsk ills
Ġfrequ ently
ra it
c urrent
Ġent itled
ĠSh ort
is lation
ag ues
ĠD or
Ġdist ributed
ĠF ord
ĠR un
ĉĉĉĉ ĉĉ
Ġcrit ics
ĠEnter tainment
Ġvis ited
ph p
im age
Ġcl ient
ord on
M in
ĠAb out
ĠHar ry
s ort
D is
Ġocc asion
ĠSt aff
ĠGree ce
ĠL ev
Ġstreng th
D ate
ĠKent ucky
Ġp owers
M ethod
lah oma
J apan
ĠMel bourne
Ġregister ed
Ġit em
d et
ĠI V
Ġport ray
Ġequival ent
ĠBase ball
ĠB alt
Ġequ ation
ou ble
wh ite
Ġm and
duc ing
Ġb ronze
r ine
Ġattempt s
s f
] [
ĠG a
L ambda
D av
Ġrel ation
ĠAd am
ĠIslam ic
Ġprem ier
ple te
Ġn av
Ġrepresent ative
ĠS ym
Ġperform ing
Ġeduc ated
hen s
B ase
ĠMod ern
Ġocc urs
ĠJ unior
Ġend ing
le ts
Will iam
Ġrequire ments
Ġsub stant
l ov
ĠAf ghan
f riend
~ ~
amb ig
Ġin form
D F
o es
f alse
und le
Ġvill ages
al so
Ġm ode
ict ional
Ġref used
Ġchem ical
ĠComm un
f ef
ĠC ab
J an
Ġhold ing
Ġarg ument
6 00
ic ip
Ġeduc ational
ĠV ice
Ġpl ot
Ġcont ained
Ġvoc al
ĠB arn
Ġshow ing
ĠK han
Ġm ental
E M
st an
A p
un finished
Pop ulated
Ġlearn ed
190 8
ĠD ata
Ġsp ot
Ġtrans form
ĠG il
oth ing
ĠF I
y ers
Ġsuccessful ly
Ġstar ring
g ener
à ¸
ch a
Ä į
olog ists
ic ians
leg al
Ġw itness
c i
um a
Ġr ing
Ġhom es
ever al
yn asty
Ġn et
Ġv ice
Ġs ac
T A
Ġprocess es
ĠOffic er
Ġs ave
Ġen h
Ġ} ;
ipp i
st ract
Ġ` `
Ġmarg in
Ġsched uled
Ġw ins
ro it
Ge ography
r ish
Ġexhib ition
ĠAdminist ration
el ess
W est
ag h
ĠM P
U ser
i ated
Ġext ensive
ĠJac ob
Ġspec ifically
ĠN ev
ĠConn ect
Ġcontribut ions
Ġb ought
Ġa x
ĠD u
in us
ĠS i
Ġp un
Ġschem e
inem a
the n
Ġcol lected
Ġex clus
ĠAl bert
z y
Ġcomb ination
ac ew
25 0
Ġcommunic ation
ore t
go ogle
ĠL ank
Ġra ise
Ġr acing
fef efe
Ġher self
Ġmin imum
Ġwin ter
\ %
Ġf ashion
Ġlett ers
Ġbound ary
Ġcorn er
Ġro yal
Ġprofess ion
ort heast
Ġord ers
ĠN FL
at ically
Ġpresident ial
ang le
ĠSt ory
se ud
Ġm ess
Ġsignificant ly
Ġcomb at
Ġdef ine
T ax
Ġper haps
Ġp ages
ang ed
ĠL iter
ol es
ĠMag azine
] (
ĠTrans port
Ġra in
og y
Ġold est
ĠAust ria
ĠL td
Ġpan el
Ġp ieces
b al
ith ub
includ e
Ġbrother s
d ec
; </
Ġemploy ed
ĠR oy
j e
Ch rist
Ġwas n
Ġopp osed
Ġdro pped
abl a
ous es
Ġalgorith m
ist ant
ater n
ĠT ony
Ġdom ain
ĠO cean
Ġany one
ĠJan e
ĠM icro
Ġgu ard
ab s
ĠF ront
T H
ĠS aturday
ĠB os
ĠN ick
ap es
S m
Ġg ain
Ġa id
b uild
Ġf resh
Ġv ot
Ġbenef it
Ġstart s
ĠB eng
Ġn or
ĠAl abama
Ġcop ies
k now
R esponse
Ġcall ing
ym n
Ġrem ov
1 000
ĠB ah
Ġun iform
ĠF le
ic ide
ic ut
ĠIn it
ĠWh o
Ġm yst
ing ham
ĠG all
qu es
n i
ĠS at
ol as
n ight
ot hes
p ackage
Ġr h
ĠM as
ĠEn vironment
ĠAd v
v ements
ag u
Ġcomm ander
Ġle ct
Ġadv ance
Ġco aches
Ġexper t
Ġh uge
Ġprom ote
Ġb urn
ateg ory
ĠM anchester
Ġcred it
Ġhead quarters
ĠT urn
us es
B est
Ġsu fficient
f all
oc ese
off s
S ystem
pl ing
ow nt
Ġformer ly
ĠIn vest
Ġgu est
b les
Ġauth ors
anc er
Ġfr ame
De ath
. \
Ġtechn iques
ĠL ast
ĠC ape
ĠLin coln
Ġcapt ain
Ġfl u
Ġv ector
ĠF er
Ġn il
ĠSim on
Ġpro s
Ġs ons
ĠD omin
ĠCh annel
p ur
Ġcar bon
Ġb rain
ĠR a
S ources
Ġc overs
ĠS ix
rain ian
Ġl ock
Ġperman ent
Ġbenef its
m id
imens ional
ĠB uilding
ic ial
C al
Ġand roid
ĠE ric
Ġbro ke
st atic
Ġs ale
ĠF ame
aw n
Ġsix th
Ġs ought
Ġaff ect
Ġworld wide
Ġag ed
iss ippi
iam i
ene z
ocr atic
Ġmay or
Austral ian
ĠIsrael i
Ġadvant age
S I
Ġattempt ed
ĠMar ine
Ġtra ins
ĠTok yo
if er
ile y
ĠT oday
Ġs end
Ġtra ined
Ġh our
Ġcaus es
Ġdescrib e
ĠS oc
Ġentire ly
or row
Ġdr ums
in th
Ġfr ag
ĠO F
r Ã©
ĠN ap
ĠL ic
ĠOn ly
ĠJ am
Ġconcern s
ail ing
th at
R C
Ġinvol ving
Ġbig gest
E uro
os ition
ĠSw itzerland
ĠC all
ĠSen ior
M et
ou red
Ġkill ing
O W
Ġthous ands
ad i
Ġabs ol
ĠH ur
Ġres c
Ġne ut
L ife
Ġa f
Ġm ist
Ġpass ing
het ic
) </
ĠE very
H on
ĠL eb
ĠSquad ron
Ġsol utions
Ġ iron
8 00
Ġdirect ors
int s
Ġprov ed
Ġm ent
l ook
P oint
id ge
Ġcharg es
Ġdel ay
Ġpred ict
Ġto wer
Al though
Ġtr uth
ĠG i
as hed
ĠA ge
F ollowing
Ġsucceed ed
ret t
Ġanim al
Ġrev olution
Ġfind s
Ġdo ct
Ġvol unte
c are
ag en
ĠTem ple
he ight
ĠFor ces
us al
Ġg ender
Ġhot el
Ġf aced
Ġachie ve
Ġb odies
Ġrele vant
g ithub
Ġf ought
189 0
ubl in
l ast
Ġcontribut ed
ĠE qu
ĠCommon wealth
m ethod
ĠTh rough
ĠK at
Ġprom otion
s pe
Ġpain ter
ĠEn ergy
Ġjob s
p a
C ons
Ġsaf e
Ġdo or
ĠN ative
ot ional
forc ement
Ġleg islation
od ing
Ġpers ons
ambig uation
Ġhor se
D et
Ġcho ose
} ),
l ow
Ġp icture
Ġgreat est
ĠSt one
Ġtest s
lang le
ĠHow ard
ĠQueens land
) {
< !--
eg er
E X
L ast
Ġind ependence
Ġmain tain
ĠB rian
ĠD a
ac ent
L A
er ia
Ġgl ass
Ġmag n
an es
Ġs um
Ġd ig
Ġs oci
Ġprogram me
ĠL ow
Ġis n
Ġmanag ers
ĠD eb
Ġp hen
B I
Ġm ales
Ġsett led
ik h
Ġcomp ris
ĠK itt
ament al
F I
el ve
> (
n abla
Ġdi agn
in cess
Ġc atal
Ġliter ary
z h
ial s
Ġsc ope
Ġopin ion
A f
ab y
ĠEar l
az a
o a
Ġpol y
ann ed
Ġs ell
ĠReg ional
at in
Ġlaw yer
ĠCol omb
ĠBill board
Ġfl at
Ġnot ice
The y
ĠDi ego
H owever
Ġdec ade
Ġmusic ian
Pro perty
Ġf it
Ġf olk
Ġrem ove
el le
Ġsom ew
Ġcon ver
Ġhistor ian
h ard
ĠNor wegian
al ty
ĠAb d
ink ing
ĠWal ter
Ġf ramework
et ing
ĠF a
w ick
au x
ĠGo ogle
ĠF riday
j av
Ġy ellow
m box
Ġr ich
for ce
ĠTurk ish
Ġband s
Ġf ix
T P
ĠC ost
ĠMed icine
ĠD C
ĠR oll
Ġex ternal
Ġsp in
ĠH ig
The se
Ġqual ified
ĠV o
ens ure
Ġhe ar
Ġjourn ey
ĠH ans
Ġgal ax
ĠOk lahoma
Ġoff ices
b in
00 00
ĠT y
ann els
end ment
Ġ util
ĠR ose
P hi
ard o
Ġis ol
Ġ( ,
yp es
al ian
Ġdescrib es
Ġdr iving
190 9
ition ally
m ont
ĠLab our
Ġo vers
Ġeth nic
Ġcent uries
ld ots
enc ing
Ġe c
ĠDo ctor
U E
Ġre in
Ġopport unities
Ġj ump
190 5
Ġy ield
Ġpil ot
ĠPol icy
Ġappropri ate
Ġphot ograph
n ull
v o
ĠD un
Ġpract ices
arn er
N orth
Ġlat est
ĠR ef
Ġly rics
Ġpro f
ĠCh ile
Ġcharg ed
ĠEm peror
Ġdif ferences
ĠS ound
p op
Ġclos ely
ie val
ĠAll en
Ġ( ;
ĠComm unic
Ġm olec
Ġint elligence
Ġfound ing
ĠDon ald
G l
i Ã³n
Ġsup erv
Ġretire ment
Ġres olution
Ġattack ed
oy d
Ġair port
ĠAl i
Ġconvert ed
} )$
ch ar
ce ived
Ġcy cle
Im age
ĠG ib
Ġc as
names pace
Ġad ult
Te levision
ĠInf antry
ock et
ribut es
ĠB rand
ĠHou ston
m ic
ĠMar c
Ġcon vers
ĠBatt alion
E v
ĠC atal
C ent
enn y
190 6
Ġrespons ibility
ĠB ureau
Å «
Ġref ers
Ġimpro ved
us hed
Ġopt im
ĠN ULL
w ich
Ġst eps
W ind
% .
emb le
Ġdiscuss ed
Ġstri ke
Ġch urches
se ct
Ġnetwork s
Ġarg ued
ate ur
ĠG ener
ĠHe art
ad ed
Ġinst alled
ed ge
c ks
ĠC are
ic ation
C urrent
Ġt ick
ut ation
Ġpro ve
190 7
Ġwe ather
ol id
ĠJ ay
ĠB efore
U L
Ġrat io
ĠN ich
ĠD ream
ĠI D
on ly
G o
Ġl ake
Ġoccup ied
Ġenem y
ĠE P
Ġposs ibly
ĠT el
att ers
ĠT en
ĠTe levision
Ġap art
ĠT s
Ġexpl ained
Ġrepe ated
over ty
t ure
ĠW olf
Ġgood s
Ġn om
ant e
ĠC emetery
Ġv eter
Ð º
Ġk il
Ġref uge
l ades
( (
m osp
ĠM ach
z er
dis ambiguation
Ġre new
ent ry
Ġpers pect
ĠM it
ĠE nt
l ib
Ġm el
ens ed
Ġdev ices
rid ges
Ġeng aged
od ox
Ġk ick
oth s
ĠP ot
Ġd ie
d b
m b
ev ent
Ġdec or
Ġus eful
Ġfind ing
Ġdis app
ĠS af
Ġv el
ĠAss oci
ĠN aval
G L
Ġsit uated
ĠS quare
Ġesc ape
ĠHol lywood
Ġtrans lation
Ph il
Ġansw er
Ġm ort
R ail
ĠAr men
ĠM ethod
ap pro
\ |
Ġb an
ĠJ ordan
Ġdeg rees
ĠB erg
ĠPat rick
ĠĠĠĠĠĠĠĠĠĠĠĠĠĠĠĠ ĠĠĠĠĠĠĠĠĠĠĠĠĠĠĠ
Ġestablish ment
Ġf ranch
P at
ĠWh it
ph one
Ġconst ra
Ġhe at
Ġclear ly
r at
Ġident ify
H el
acew atch
Ġent ertain
ol ished
ig ious
ol ve
Ġshort ly
Ġtri p
end ar
includ ing
Ġro of
d ist
m i
Ġv ide
Ġexperi enced
Ġcollabor ation
ar o
it als
M C
ĠR eb
Ġsing ers
Ġex ception
A nt
Ġch arts
ĠE c
Ġvict ims
Ġextrem ely
dis play
Ġscient ists
ĠT an
ĠH amp
f ree
ant asy
ĠAm ong
Ġc ook
c oh
Ġtyp ical
Ġpl ane
u ilt
C lient
] )
GB T
ĠF ac
ĠG ab
Ġdiscuss ion
Ġfrequ ency
Ġj azz
in ian
ĠC L
rib e
Ġtem ple
Ġgun s
Ġgradu ate
M ore
app ed
Ġmat hemat
Ġcommission ed
Ġt or
Ġsurn ame
Ġd iam
p df
d am
ĠLem mon
ĠMr s
ĠA maz
R S
ĠConnect icut
Ġintro duction
h or
Ġad vent
plic ations
B ook
O ff
fl ow
ĠSp acewatch
ĠMiss issippi
ĠS ky
ĠPortug uese
Ġex cell
Ġext ends
ĠZ h
Ġscen es
Ġres erv
Ġa ired
Ġst orage
Ġcover age
ĠMo ore
he nt
ĠD ur
M e
190 4
Ġf an
Ġup date
ess ions
Ġfil ed
Ġcont ribution
qu ery
Ġw alls
Ġre ar
ĠG ard
ã ģ
ĠThe refore
Ġv oted
ang el
Ġinv ited
Ġsugg ests
Ġchalleng es
Ġw ants
ĠH u
Ġexact ly
b urn
Ġc ool
Ġto ols
ĠG ram
B orn
iv a
h ab
ĠM oon
Ġfound ation
D S
' ll
Ġs ections
bum s
Ġconclud ed
ĠG re
ĠDis ney
ĠAn ne
ĠI l
Ġsur g
leg es
Ar ch
Ġman ner
Ġpoet ry
Ġcompos ition
p ack
ĠLouis iana
Ġinf rastructure
c f
if act
b ottom
Ġsecond s
ug u
u ations
Ġc ru
Ġcompet itions
Ġcerem ony
Ġelect ronic
Ex t
190 1
Ġaspect s
Ġmed ium
Ġg ar
u ous
Ġspec ified
ĠAnth ony
Ġde leg
ĠB ush
Ġacc used
re hens
ĠN a
edd ing
ch ant
Ġcons ecutive
l ad
Ġpurch ase
Over ride
Ġv o
ã Ĥ
el son
Ind ian
Ġassist ance
Ġexper iences
all as
ĠHar ris
Ġ( ),
sub set
Ġe ye
cent ering
ist a
ĠF inn
ĠSil ver
Ġsym met
U r
Ġp ool
Ġz one
II I
Ġatt orney
f ont
L eg
Ġdis pl
ter ed
G ener
ĠAg ency
Ġs un
ge bra
ĠTh ird
om orph
ar on
ĠOb ama
Ġd ates
id en
ĠW y
Ġspe ak
Ġvirt ual
190 3
opt ion
om ing
port ed
r ons
Ġre action
ĠHaw ai
ĠHer itage
ĠQue bec
ĠY outh
ol y
t aining
D ep
Ġassum ed
w ind
ĠL ocal
f unc
Ġag encies
ex ual
k h
Ġeff ic
Not able
Ġadd ing
Ġs occer
Ġjo ining
ĠD ark
ol t
or ro
Ġinh abit
Ġal t
ĠCo oper
ĠW he
Ġv ision
Ġrepl ace
Ġf iles
ĠN et
op ter
c ious
ing ly
add ing
ĠN S
ĠHar vard
ĠNC AA
ĠL as
Ġh air
Ġv ary
p ng
ot te
Ġdis establ
Ġcapt ure
Ä ĥ
Ġcaus ing
ĠHon or
ĠC ook
Ġd rawn
E ducation
Ġoper a
el lect
ĠGr ant
AT E
Ġs and
ap se
Ġsust ain
og ether
Ġrecomm end
ĠC re
r in
ĠArgent ina
Ġcour ts
Ġimplement ation
Ġst rict
Ġsports people
pro fit
Ġt ennis
Ġhum ans
Ġheav ily
Ġso le
ĠK y
ol o
ĠCh all
mer ce
S ch
ĠP sych
ĠB or
Ġstand ing
Ġl aid
Pro v
and ra
Ġcont rolled
if ies
Ġres istance
H er
H ar
Ġdep ict
ĠBrig ade
Ġe yes
ĠB ry
Ġpr ime
Ġcustom ers
Ġd ream
Ġclass ification
o en
in ations
d ir
Ġread y
im ore
U til
ĠHot el
Ġdis miss
t arget
188 0
Ġp ed
Ġmet res
ĠTai wan
ĠM ap
ĠO ak
Ġb atter
Ġste el
Ġass ault
F ootball
ro t
gr ade
ran e
Ġm obile
ĠG ordon
ĠDet roit
ĠT ype
ĠP ope
ĠDoug las
Ġ< <
iction ary
ĠT reat
190 2
ĠF riend
ĠO bject
so le
c all
ensure math
Ġst d
L C
Ġparticip ate
ens ions
iss ance
Ġoppos ite
R em
rupt ion
ĠCro at
1 10
em en
Ġp ush
Ġproduc ing
Ġmark ets
c up
z i
Ġfact ory
Ġprep ared
ĠBul g
ĠP as
ell ite
B ox
level and
d ale
St art
Ġinflu enced
Ġass ign
Ġmain tained
M M
Ġown ers
Ġs qu
ograph ical
S igma
m ain
Ã© s
ĠAg ain
Ġbro ken
Ġconsist ed
Ġtra v
in ition
el and
Ġin aug
Ġmass ive
ĠM iami
ĠM and
ĠN AS
ĠCh ampions
ownt own
Ġd uty
Ġb ool
ag g
se arch
Ġdeb ate
ĠK az
Ġstand s
and roid
Ġpaint ings
in er
ĠR ey
ĠN on
non umber
ĠC ode
ĠSw iss
b ot
EC T
St atus
Ã© t
od ed
Ġac know
d on
n ers
Ġinj ured
ĠBr un
A ction
Ġk id
Ġprob ability
Ġhelp ing
N ote
er on
ish ment
b ound
Ġbu y
os es
in ces
Ġtre nd
M ilitary
ak ed
M ark
Ġt all
L ine
ant on
Ġdeliver ed
ĠD al
th odox
Ġcon vent
Ġshoot ing
in burgh
ĠDef ense
Ġst adium
M ost
c ard
Ġre aching
Ġteac hers
A ut
ars er
Ġar med
Ġphil osophy
Ġl i
ĠS in
ĠR yan
act or
ĠE ag
Qu ery
ĠBelg ium
ĠPri x
ĠRec ord
ist ed
Ġph one
ell ows
Ġquant um
od s
Ġunivers ities
che ll
Ġoper ate
H T
Ġbring ing
ĠMc G
Ġd rop
os lav
ĠPh ill
et ch
Ġund ert
ts burgh
ant ly
Ġw arm
/ \
Ġshe ll
ĠN ik
C P
ud es
Ġr ival
Ġag ree
Ġpublic ations
ĠD ak
S te
Comp onent
Ġaband oned
ĠN ag
ĠTer rit
ĠR ab
ĠLiber al
Ġb ed
Ġthink ing
Ġass ume
Pl ot
omet ry
ĠMay or
Ġpass es
Ġsec retary
ĠIn s
ĠH om
A g
ĠS ud
Ġsp aces
ici ency
V ill
ĠN one
row s
Ġchang ing
Ġresearc hers
Ġdec isions
ĠH ockey
ot imes
Ġfin ite
Ġre ign
ap olis
Cl ub
f ather
ĠVill age
ĠC ulture
inc iple
Ġreg ime
) "
B L
; \
ol ar
Ġsw itch
f a
Ġturn s
ON T
ĠPortug al
C R
ĠG arden
Ġsu ff
Dav id
Ġ Ä
ĠRober ts
Ð »
Ġaccom pl
N av
ĠAtl anta
opp ing
Ġpar allel
ĠDen mark
Ġf ear
al ysis
Build er
Ġplan et
Ġdep th
ess ed
M ich
d est
Ġsup posed
m outh
oss ible
Ġse gment
ĠK am
Ġret ail
ĠAl ber
T wo
Ġp ione
ĠFace book
ĠAnton io
Ġw el
ĠPu erto
D o
iv ation
Ġmed icine
Ġm ilit
Ġg rav
ail and
Ġob vious
r ary
Ġpat ient
ĠV in
ĠD ick
ĠC ru
Ġbehav i
c alled
oun sel
Ġg one
Ġfav our
ou st
red ited
ĠDe ath
ĠRet rieved
ri k
ĠEx press
h igh
Ġa w
( {
Ġbo olean
ĠH op
ell i
Ġe g
R ed
Ġprocess ing
form ance
Ġoffer ing
Ġth ick
Ġaut o
Ġst ress
Ġbo at
oc a
Ġdet ailed
In put
Ġcrick et
Ġch ose
St ream
N ext
N ow
is d
;" |
head er
Ġpre ced
uss ion
in ate
Ġmag netic
Ġch air
Ġconsist ing
ĠArk ansas
ab ad
Ġv irus
Ġr uled
Ġconcern ed
ĠBow l
ĠN ob
ĠB an
aw are
ĠStud ios
ĠD VD
oc ity
B O
per ties
Ġess ential
ĠP a
ĠEar ly
AM E
k appa
au ge
Ġtouch down
ĠS port
Ġst ores
V ideo
Ø §
cl ient
unn el
ĠL yn
F e
ĠS el
Ġemer gency
l ie
ĠA R
ĠOr iginal
Ġch apter
ĠSt ew
Ġh ired
d ot
Ġinter ior
p g
g ence
n est
B el
Ġvari able
uc ks
Ġsh ares
Ġindic ate
Ġac id
ĠPe ace
ĠF arm
ĠT able
re ct
Ġin ner
Ġn ations
rit ical
Ġregular ly
og g
ĠIndones ia
ĠA le
u j
Ġhe aring
Comm and
Ġent rance
rep rene
St ar
Ġcour ses
as i
Ġaccom mod
ac her
Ġprote in
L O
Ġstrong ly
ĠL INE
Ġinv asion
f inals
Ġmerg ed
Ġcompet e
ch ild
ĠF all
Ġsever e
H igh
but ton
ĠOr chestra
Ġd ang
Ġschol ar
d ots
ĠBang lades
ram a
N N
ĠĠĠĠĠĠĠĠĠĠĠĠĠĠĠĠ Ġ
ĠR ow
n umber
Ġst ating
ĠWalk er
ĠArch itect
Ġd ry
Ġro ot
Ġc old
Ġte en
T Y
el i
J u
U K
Ġloc omot
d ied
Ã ¥
ĠInd ependent
ist ical
ĠMod el
ĠN ote
ren a
ĠCom put
$ {
d ep
ĠMc K
Ġb anks
Ġregard ed
ĠD ublin
p ing
Ġan th
ĠEconom ic
cl ose
usc ript
ĠP ed
Ġhigh way
ĠAl an
ro ke
ĠMond ay
189 8
C S
a uthor
ul ating
Ġor ient
Bl ack
ĠKenn edy
ather ine
ĠB uck
Ġbeaut iful
Ġun less
pp ing
Ġin her
en ame
ĠDe ad
ĠHistor ical
ĠD igital
R un
Ġclass ic
arg o
ĠUt ah
ĠSam uel
p es
Ġinc orporated
Trans port
m aster
}} {
on i
Ġpass enger
Ġl ayer
d at
ĠH ug
enez uel
ĠL ieutenant
ĠLaw rence
Ġreject ed
Ġemploy ment
k ing
w en
\ !
Ġground s
Ġaccount s
opt ions
iv ated
Ġkey board
eg et
Ġdr ivers
iss ions
Ġcam era
ok es
Ġadv is
Ġrem ark
le ton
Ġcom ic
ĠGu ide
ĠBrazil ian
ĠD anish
Ġstopp ed
Ġstre ets
and o
Ġlic ense
Ġactress es
Re ception
ĠCh airman
iven ess
Ġann iversary
ĠS n
arg s
Ġl iqu
re quest
ĠK er
ĠRes erve
ĠK evin
ĠO bs
W eb
E p
A V
aud i
udd en
iz ont
Ġre pro
R ober
. '
app end
ĠJu an
n ie
Ġch ampions
ĠC ow
Ġc aught
ĠP ap
ĠK l
Ġb oys
ĠEd inburgh
ĠSoc orro
m ember
bass ador
le ans
ĠH ills
ĠF ood
Ġrelationship s
ĠSing h
R ad
ĠS T
tab ular
á ĥ
ĠD ave
Ġinter face
ĠW ed
ĠLINE AR
ĠCh ild
d isc
Ġfle et
c hers
pro ject
Ġlink ed
Ġland s
Ġrac ial
ed ing
Ġth in
Euro pe
re a
{ -
Ġbro wn
E P
ĠO d
ĠLeg islative
R oman
Ġocc as
Ġins urance
Ġat mosp
i ot
empl ate
Ġre nt
Ġatt ached
Ġp up
en z
ird s
Ġt ack
Ġtransl ated
Ġext ent
Ġleg end
rib ed
Ġbrief ly
od a
Ġj unior
Ġag ents
ĠFred erick
O ur
Ġab use
189 9
ĠDep uty
est yle
Ġtre ated
ĠJ un
ib l
Ġs elling
wid et
Ġpl us
For mer
Ġhigh light
Ġaccom pan
ac le
ens or
ĠCol lection
u y
ĠM aur
ĠMalays ia
ĠLa ure
ĠR est
a ire
Ġmid field
az ines
Exp atriate
M us
Ġcan cell
L ink
Ġmov ies
Ġcompar ison
Ġ- >
Ġcrow d
) ]
Ac adem
ĠAfghan istan
Ġg ene
Ġmod ule
Ġman if
x ml
Ġre ferences
ĠC ensus
ten ance
Ġc ro
Ġanc est
187 0
Ġleg isl
ĠIm perial
Ġch annels
ol ly
int end
Ġl it
on om
ĠPl ace
ser ver
ct ic
Ġis lands
ĠĠĠĠĠĠĠĠ Ċ
Ġex plicit
Ġvide os
are st
Ġincreasing ly
Ġadapt ed
ĠBudd h
Ġhy per
d ie
ĠL am
Ġh its
Ġp overty
at ar
Ġmon itor
w all
ĠB ou
In stance
ĠMor gan
D irect
Ġres idence
Ġres erve
he astern
Ġad mitted
or ia
ĠFig ure
be an
bor ough
ry pt
v i
ĠSup port
ĠOn ce
nav bar
ĠT ar
ĠR ub
ĠF ern
Ġvis ible
Ġcom ments
Ġfin ishing
Q ue
ĠD ue
id ay
Ġst ages
Ã ´
Ġgu arant
in ch
ĠF A
L S
* /
ĠS ign
ir ation
Ġsur pr
Ġabs or
Ġf ly
a ired
ĠL anc
ĠU l
Ġbir ds
Ġeng ines
ĠTr ade
Ġp apers
Ġbal ance
ott ed
d y
Ġagric ultural
Ġres igned
ple x
ĠA ction
it ory
Ġinhabit ants
Ġexperiment al
ug in
sc ription
iver pool
Ġsec ure
Ġg ather
Ġsh ut
Ġto ol
T ube
Ġs amples
Ġcorpor ate
ast e
Ġpro port
c s
Ġcast le
Ġm ir
ĠR ick
Ġf illed
ĠT ig
Ġm art
Ġphen omen
Ġroad s
ĠN av
Ġexp ed
widet ilde
on omy
Ġf lying
G A
Ġparticip ants
Ġconsist ent
Ġphot o
Ġincre ases
T O
ann er
Ġhand le
ĠEx t
l on
J ames
189 5
Ġl ists
Ġsee ing
ĠSc ient
ann y
i ac
b at
ĠAuthor ity
ĠCap ital
i op
Ġ ri
ĠT HE
ĠN ar
ĠF il
S ty
\ [
Ġback ing
Ġd og
m o
ul us
% ,
se lect
Ġinc orpor
Ġsol ar
) -
Ġelect ron
ĠÃ ī
ĠK ings
U P
ĠAll iance
[ "
Ġthe rm
Ġsubject s
M arch
ĠComm ander
ĠCh amber
h att
ĠL ib
Ġd ynasty
Ġadj acent
ia h
ĠCommun ist
Ġgr ade
Ġmin ute
ay an
Ġpro hib
Ġarch ae
Build ings
ĠP eters
Ġpri ze
ĠTh ailand
ug ar
c ut
R I
Ġt ail
ellect ual
Ġeven ing
ab il
st all
ĠDe an
Ġm ob
Ġgovern ments
oc he
Ġr is
Ġathlet es
Ġw aters
ĠR ound
Ġtechn ique
Ġcontinu ous
Ġd ual
Ġmanufact uring
ĠAn na
__ __
ĠPl ayer
ĠP rom
Ġthe rap
ĠN ep
10 1
Ī Ĵ
Ġp ure
Ġc os
Ġtw elve
Ã «
ect ure
sk ip
Ġsp ending
189 6
Ġcl oud
ĠB art
ĠAg ric
pl ed
ĠP ear
pro cess
Ġindic ates
ĠK a
ĠCon vention
bar a
Ġmod ified
Ġcolon ial
Ġro ut
Sec ond
p erson
Ġed ited
Ġmarket ing
m illion
Ġr ating
ĠW ard
ol ph
Ġbl ocks
Ġlook ed
Ġn ick
bt n
ĠC ov
Ä «
al ia
ĠC op
ĠSar ah
mod ule
Ġ urg
or f
pr ime
Ġdisc rim
T im
he red
ĠC hem
O pen
Ġlook s
e lection
Ġcarry ing
ĠPh ot
ĠSe ason
ish ops
189 7
Ġcap able
Ġfranch ise
sp ect
ĠP age
Ġpropos al
ĠUk rainian
pr ison
arch y
A ugust
Ġpret ty
ĠLank a
fl u
Ġdrug s
gress ive
Ġg arden
t x
ĠL ang
Ġpr inciple
urs day
Ġanal y
Cont ent
Ġprov ision
Ġdesign s
Ġre nd
ÃŃ n
Ġreg ulations
ĠHung ary
O fficial
Ġpost ed
F lor
ĠE mer
Ġsepar ated
D I
Ġcircum stances
is ations
od ge
Ġsing ing
b rid
ĠAd ams
S ongs
ĠKel ly
ĠD aily
if fer
ĠB ull
N et
Ġrecord ings
ĠH as
Ġass ets
ĠE ver
ust ed
} -
a a
ĠSe attle
eg as
ĠAd vent
ag ger
loc al
ĠG on
n ormal
Hand ler
ĠPal ace
ĠCont rol
ph ony
anc ell
Ġem pty
ĠC ra
ud a
Ġst ood
c at
Ġsy nd
H P
Ġpra ised
ist ration
Ġsurv ived
Ġast ron
Ġspirit ual
Ġaud io
ĠM ult
Ġeffect ively
N umber
Ġpubl ishing
Ġtr ig
b el
ĠP ur
Ġcreat ive
od er
d oor
ĠRuss ell
Ġproced ure
l ik
ĠP ref
cl op
Ġsh op
Ġposs ibility
ĠMont real
Ġexpl os
itar ian
ĠFin land
Ġclin ical
ĠS ac
P aul
ĠC leveland
e lement
ĠB us
M al
or us
Ġinv ent
Ġm atters
Ġown ership
ad ata
G en
Ġenc ounter
RE F
s ur
Ġt ropical
ĠWel sh
com mon
Ġcover ing
inc orporated
Ġproduc ers
ĠAust rian
ĠI ron
ĠBru ce
ourn ament
ĠAust in
nes day
Ġm aps
Ġ icon
ĠAtt orney
' d
It alian
Ġm ine
Ġpass engers
Ġindic ated
ac ht
| }
Ġun us
ĠM ission
ĠEx per
Ġst ret
r ations
Ġanim ated
ĠMarg aret
uz z
ace ae
W E
ĠY e
th m
ĠE vent
Ġearli est
Ġp od
Ġsupport s
Ġpartn ers
k ov
or iginal
ĠO bl
ĠC hen
Ġmembers hip
Ġresident ial
ĠE q
Ġnum er
T oken
Ġhundred s
Ġest imate
Ġde pos
exp ected
z eta
Ġs leep
Ġsub stit
Ġrel ief
Ġappro val
Ġrough ly
Ġd ies
Ġst able
ig e
ĠN atural
Ġinter action
ss on
ĠH it
Ġspect rum
M c
ur ers
Ġunc ertain
H ome
ĠCro wn
F M
ĠSchool s
Ġre duction
ĠĠĠĠĠĠĠĠ ĠĠĠĠĠĠ
ĠM Ps
Ġ& =
Ġexecut ed
Japan ese
Ġdat as
ĠP atri
is ition
Ġsp oke
pr ivate
ĠI P
ĠBe at
Ġeffic ient
il k
id ency
unn y
in ction
wh o
ĠB oys
ĠHung arian
ĠRail road
our se
Ġjur isd
Ġro utes
Ġjud ges
ĠD allas
ĠK u
t i
ĠR ang
Ġal coh
7 00
ĠYear s
ĠBalt imore
s he
ym p
ĠLeb an
~ $
Ġperspect ive
al g
ĠN ever
Ġfund amental
Ġcertain ly
f ly
Ġprop ag
F amily
Ġprison ers
ĠF ight
ĠHamp shire
ĠM es
ĠP un
H istor
Bl ock
Ġro oms
Ġprincip les
om as
ĠF M
Ġd uties
Ġmin ing
ĠBet ween
Ġcol our
Ġprom pt
Ġstat ements
usal em
am an
Ġdep ending
ren cy
Ġag greg
Ġdet ail
Ġinstr uments
ĠG ulf
d irect
Ġrestaur ant
Ġdeb t
Ġf ired
Ġsevent h
s g
ĠV ideo
Ġmar ine
Ġil legal
Ġres ign
Ġthe ater
ĠSen ator
Ġint ent
189 2
R ich
Ġse ed
Ġpri est
Ġser ial
ĠP erson
Ġimplement ed
col umn
Ġdiv isions
ming ham
ĠPit tsburgh
Ġjournal ists
Ġmy th
ili ar
m ers
M ajor
y ll
Ġtalk ing
ĠMet ropolitan
J une
ĠN ash
Ġa er
D C
Ġv oting
Ġsh ock
Ġt ag
ĠSh ah
Ġcritic ism
ast s
S an
Å Ł
Ġt ries
Ġc ash
Ġentertain ment
r ase
ins ula
ĠOrgan ization
ĠPubl ishing
ad ers
ir al
ĠTam il
ĠV iew
ĠChrist opher
M E
ĠThom pson
ash i
Ġcol le
189 3
Ġs oul
ĠAlf red
ĠC ole
Ġc rown
Ġsim pl
ĠS C
? "
B efore
Ġre venue
s ong
ĠN BA
Ġparticip ation
un ting
Ġfem in
ĠApp le
e enth
c ur
Ġsp r
ĠCent ury
Ġdef ensive
il st
Ġarg uments
ĠTra ining
Ġs now
ĠW right
Ġser ver
ic ol
Ġlim its
Ġh am
Ġoff ensive
Ġb ran
{ (
ues day
F unction
ĠM aine
ĠB ible
ĠVi enna
Ġthro ws
v ol
Ġexpl ain
188 9
ĠRog er
d imensional
ac on
ĠF ather
rehens ive
ran ean
du ctions
Ġseek ing
up s
A pril
Ġdat abase
M ax
ĠStew art
aw ay
ĠCamp bell
ĠAmaz on
ĠN eb
ĠR ugby
ine a
ipp ing
ĠF ive
Ġchild hood
Sc ott
ĠRob inson
Ġv ul
ĠB uff
ĠJoh ann
writ e
P age
f aces
ĠJ ose
ĠBanglades h
qu ir
S D
ows ki
ot ten
Ġmeas ured
f ire
af e
form at
ĠA BC
ru le
as er
Ġc ited
C or
ĠD ance
M any
ch or
ĠJud ge
Ġc raft
Ġcollection s
Ġ ]
Ġar bit
Ġpremier ed
ĠN elson
ors es
Ġem p
Ġcateg ories
Ġnegot i
s rc
ĠT rib
ĠGirl s
Ġb ishop
Rail way
en berg
ĠL GBT
ĠâĢ ¦
Ġk ids
Ġconstitu ency
j son
Ġdist ribut
ĠĠĠ Ċ
ĠYou Tube
B M
p c
ĠP rad
th a
18 60
Ġacc ord
189 4
Ġb right
Ġher itage
Ġoper ates
Ġpen alty
Ġtem porary
Ġdown load
R ussian
Ġbl og
ĠF ried
ĠC arn
ĠWork s
f ilter
Ġs ummary
ow ed
Pro t
Ġf ra
ĠBrook lyn
serv ice
ĠOr thodox
Ġrail road
Ġfil ter
h us
A ng
Med al
ĠL iverpool
Ġloss es
Ġactiv ist
c ient
ĠH orn
Ġadv ice
n ia
Ġexper iments
Ġsm ooth
Ġvari ables
Ġmeet ings
ER S
Ġappro aches
ĠB ox
} ]
ĠInst ead
ĠMount ains
i ere
Ġmov ements
Ġdam aged
Ġobserv ations
Ġtown ship
k ee
ĠOtt oman
ĠD ub
j amin
ĠK now
L P
Ġmem orial
f fer
Ġex ceed
189 1
........ ........
l ar
Ġdep uty
Ġcons ervation
ĠI mp
Vill ages
ĠE lement
am ents
le ased
ĠN ation
Ġwith d
Ġim prison
ĠKn ight
ort on
ob by
Ġhapp y
ĠV enezuel
V is
ograph ics
ĠL l
ĠNiger ia
ĠFrank lin
Ġ" ""
Ġno ise
ĠS P
Ġwith draw
Ġ+ =
Ġel ig
requ ire
Ġit er
N ull
ĠAn y
Ġon going
ĠMar ie
ĠSy ria
Ġarr ival
u able
Ġsomew hat
Ġorgan isation
Ġcr imes
ah n
Ġass embly
ab et
Ġre ception
ĠBrother s
ĠF el
Ġg ang
Ġw al
I O
Ġt ank
ĠS uch
j u
P an
Ġaff airs
Ġp rices
N on
Ġimmedi ate
Ġstr uck
em or
uk i
ĠR io
188 5
Ġdesign er
Ġconfig uration
Ġsu icide
ĠG ran
Ġro se
ĠDak ota
Ġaccompan ied
ug oslav
Ġm ac
text width
Ġn ortheast
ĠL ith
ĠCar ter
un it
over y
aval ry
ov es
L ocal
g ow
Ġvis itors
ĠMe an
ou ver
s ch
16 0
ult ane
Ġneigh bour
ĠD ie
Ġwhere as
Pro fess
Ġhead ed
set t
Ġm outh
ter y
Ġs ed
e ast
ĠSec ret
sh ow
ell ar
ĠL ear
ĠDemocr ats
Ġcomp ens
Ġden ied
is hers
F ran
Ġide al
ub le
) }\
f ind
ĠH ell
ĠG L
red it
Ġcrick eters
Ġhead s
Ġf ont
ĠCl inton
ĠF al
d ers
Ġte ach
Ġadapt ation
B uffer
Ġfeel ing
ĠD NA
St ud
Ġsent ence
Ġad ults
ip h
w right
ĠOr leans
izont al
Ju ly
an im
f amily
S O
Ġcharacter istics
} );
ĠR ural
ĠMarsh all
Ġp ip
Ġman uscript
Ġkn ock
at on
Ġdiv or
Ġreg iment
ate ver
Ġdivers e
ĠUn it
Ġp ackage
il ty
if ts
iss ue
Ġqu e
w orld
Ġland scape
ĠV ik
Ġform ula
amp s
M D
ro ph
st atus
rick et
Ġmechan ism
Ġpop ulations
apt ist
Ġcomplet ion
Ġtem por
op les
Ã ł
list ed
m eta
Ġs udden
ĠW oman
O ctober
f ront
erb ai
Ġcent ers
Ġrepl acement
ĠN E
Ġre nov
Ġen forcement
Ġwind ows
ĠThe orem
n um
ĠM A
Ġexerc ise
ĠNaz i
ĠS pr
Ġacc eler
sec ond
ĠTw itter
ar us
ir ates
Work s
mir al
An other
medi ate
claim ed
is ode
Ġspe aking
H z
Ġkeep ing
Ġcontinu ing
Ġhel ps
ĠP ad
ou ch
Ġup dated
b ridge
aw s
" ]
ul i
Ġstudy ing
Ġsu it
ĠCh ampion
Ġgu ide
Ġcomp ilation
Ġsp end
ubl ished
ĠC ond
ĠB ed
ĠPolit ical
ĉĉĉĉ ĉĉĉĉ
Ġpercent age
Polit ical
uc ed
ĠJer usalem
R L
186 5
ĠS everal
p ers
Ġsched ule
Ġc ards
Ġhe nce
ĠP C
s uch
Ġbeh alf
ĠTh ough
ĠOper a
Ġd ating
ĠMov ement
ĠD om
Ġt urb
ĠCom ics
er k
ĠP M
Ġclass ified
// /
Ġs ter
Don ald
Ġcor on
Ġun f
ro duction
Tr ue
Ã© n
Def ault
Ġdec line
O ptions
ĠMic hel
se a
Ġgr ass
Ġfac ilit
ĠWind ows
Ġsign s
back s
ob a
\ ]
St at
Ġill ness
Ġpre gn
Ġart istic
ĠVol ume
ĠJos Ã©
Ġear n
Ġgro wn
Ġgener ate
Ġfl ows
a uc
av el
ĠOper ation
\ {
188 8
Ġappoint ment
B E
ific ate
Ġf alls
ĠU lt
Ġabs ence
Ġcl uster
ĠW rest
ĠH end
ĠRoman ia
ĠR ight
ul um
C ell
Ġsym pt
Ġwrit es
$ )
ov o
Ã³ w
Ġweek end
Ġcritic ized
Ġext ract
ĠGra ham
Jan uary
Ġarrang ed
hatt an
d in
Ġo dd
S eptember
J ust
V ersion
Ġfac ing
H ere
Ġplatform s
} /
Ġam b
Ġex clud
ĠM ath
ĠT rad
v ision
Ġf est
á »
ĠColon el
Ġv eget
b en
ä ¸
old er
Ġm ile
ĠCar ib
ill o
Ġexpl o
Ġsound track
Ġg rid
ĠMad rid
ĠV ar
V ar
Ġt ru
f s
am er
iter ranean
ew here
if ican
Ġven ues
Ġconf ront
12 5
at ched
Ġval ley
ĠC P
Rec ord
p y
ĠL ane
Ġrul ing
ĠMor ris
ach ment
Ġsk in
ĠMur ray
ĠAdd itionally
Ġloc ality
Ġform ally
Ġphys ics
Ġ es
osp itals
m aking
ij ing
Ġt ied
Ġl ose
Ġequ ations
Ġw ounded
Ġv ast
ag raph
Ġoper ators
Ġstrugg le
Ġhost s
Ġmod er
) =\
ĠAr n
ĠIm m
ĠMet ro
Ġinst ruct
Ġrep utation
Af ric
em p
Ġweek ly
Ġcompos ers
and al
M ain
Ġinteg rated
Ġassoci ate
L ong
ĠP ay
Ġtransport ation
Ġvot ers
ĠMor oc
}^ \
j ar
K E
ĠO ri
Ġr ivers
Ġcross ing
ch t
ĠB urn
Ġdiscover y
AB LE
Ġent ering
Ġw ear
Rober t
ifican ce
ort ion
ad r
Ġmet ers
Ġfl o
Ġb in
ir ms
pro perty
} +
L oad
b ishop
x space
ĠJ ason
ĠKar l
Ġh ur
Ġpl ate
Ġnot ably
S L
u is
P o
ĠL anguage
V ol
Ġpopular ity
r ub
ult an
ĠJ enn
l n
fort un
ial og
Ġunder st
ick ing
Ġrest ored
Ġsynt hes
ĠPr incess
ĠA rena
Ġ ~
Ġnorth west
ley ball
wide hat
an ian
ic ity
ur st
L ocation
U M
Ġerr ors
f are
Ġnewsp apers
B o
ĠGl as
asc ript
Ret urn
Ġw ait
The n
ĠO m
ish ments
Ge orge
appro x
{ {
u ction
the less
t own
Ġh ill
st al
Ġhor ror
D ev
ĠK it
Ġdang erous
ĠStand ard
ĠR ap
Ġwhe el
ĠE ss
ĠTro phy
Ġl es
Ġrecomm ended
Ġne uro
Ġso il
Ġinvol vement
Che ck
ĠMatt hew
Ġbe ar
m ail
Form at
t ag
Ġseem ed
ĠMark et
Ġt y
ĠStan ley
ĠB urg
ug s
ys elf
N C
ĠObl ast
Ġex cess
Ġshe l
F O
Ġext reme
Ġcol leges
sc ope
ĠLim ited
Ġpaint ed
ĠS ite
ĠJim my
ĠK o
h y
13 0
Att ribute
B B
Ġs am
Equ al
Ġcirc le
Ġrec ru
Ġconn ections
Ġret ained
Å Ħ
Ġg auge
F actory
ĠR y
Ġdeliver y
Ġvel ocity
Ġreport ing
188 7
w ig
Ġapp rec
} =\
Ġoccup ation
Ġstay ed
ib ilities
ĠCons ervative
onym ous
Ġpo em
Dec ember
Ġstrateg ic
em ploy
In it
Ġexpl an
ĠR ud
Ġg ap
M at
ĠB eck
c ing
ĠR ico
Ġrapid ly
Ġcr ash
Pro duction
Ġinj uries
ĠF ull
cast ing
Ġperiod s
Ġsuffer ing
c ond
Ġhabit at
ist ent
Ġw ish
Ġclos er
ught ers
ĠM aj
n ik
ĠK an
Ġpaint ers
d escription
U nder
Ġpattern s
lay out
Ġn aval
D esc
Ġh idden
ĠDel hi
Ġconc rete
p ush
ĠW ol
Ġg ay
anc ouver
ĠL ower
Ġcele b
Ġgener a
Ġme ets
Ġ{ @
Ġphot ography
Ġint ention
Ġcomp act
h ai
ĠAss istant
ĠR an
t wo
s plit
resp onse
Ġreg ul
op es
ĠC ass
Ġpract ical
ĠCont in
Ġdep ends
Ñ ĥ
if le
Ġsc atter
Ġcon clusion
Ġcom fort
Ġs ail
ĠBroad way
ĠPri or
ĠPort land
Ġprov incial
ĠC art
Ġp itch
ĠUp per
Ġent ity
Ġtrans mission
ul u
188 6
it ime
ric ane
Ġcount ies
Ġcons ervative
ĠOn line
ĠM other
Ġcr uc
Ġbr ig
) ^{
ham mad
ĠM ess
Ġind igenous
}_ \
ĉ ĠĠĠ
Ġim plies
ĠEd ition
ĠBern ard
or er
av i
elf are
Ġne ither
ĠS audi
ĠNev ada
B ur
ĠBir mingham
Ġcelebr ated
ri el
ir i
ĠEv ans
ers e
ĠTh ursday
Ġn urs
AT ION
Ġdes ire
' ).
ĠT ol
ĠCat hedral
s is
Ġf ill
k ind
Ġenjoy ed
ĠWed nesday
ĉ Ġ
equ iv
ĠMot or
Ġacknow led
ĠA the
end a
ĠG rad
Ġmed ieval
ĠN i
ĠInd ians
E FA
let t
ĠA y
OR T
, -
Ġal gebra
ĠSystem s
ĠG ill
Ġdou bt
! "
Ġcred ited
Ġmain tenance
Ġcirc uit
Ġex ecution
Ġsign ing
re ement
18 50
Nov ember
Ġpass ion
ĠFre edom
ĠT ower
as p
Ġcl ar
ĠL ag
Ġsubstant ial
g ments
Ġdebut ed
ĠĠĠĠĠĠĠĠ ĠĠĠĠĊ
Ġgen re
Ġliber al
im g
Ġsurg ery
grad uate
ĠWay ne
Ġt asks
Ġin equ
Ġcoast al
Ġre li
Ġdr iven
Ġlist en
ĠWeb site
ï ¿
. ~
k g
Ġelect oral
Ġw onder
Ġf asc
Ġdraw ing
ĠC ultural
Ġking dom
am l
Ġs pl
ĠN ord
AR T
Ġvers us
m t
f iction
Ġtechn ologies
os c
Ġsub mar
Ġmov es
Mich ael
ro v
Ġtrad ing
out put
Ġf lex
ĠK on
Ġrecover y
hold ers
st ory
ĠThe ater
Ġm oral
Ġc ous
y cl
Ġrepresent atives
ĠG ary
ĠFI FA
Ġdecl ined
Ps i
ic ate
Ġthous and
Ġass ass
Ġcompet itive
Or der
Ġappear ing
Ġinflu ential
re nder
ĠA qu
b ach
Ġd ress
Ġext end
v as
ĠR ain
#### ####
Ġse es
Ġpart ial
Ġbelie ves
Ġrom antic
m aker
ĠK ath
o i
Ġcon ven
Ġdesc end
Ġpro fit
esp read
Ġconsider ing
et on
ĠSp irit
Ġvis iting
ĠMit chell
ĠN eg
Ġent reprene
ĠT ak
oth y
ĠL ad
Ġperson ality
ĠI T
Ġvict im
cit et
Ġprot ests
186 4
Ġda ughters
ï¿ ½
ĠConf eder
ĠC H
on na
Ġman age
T ag
ounc ed
ĠUp on
Ġre cept
Ġwill ing
ĠB achelor
Ġturn ing
Ġactiv ists
Ġsub t
Ġad min
Ġf ruit
av or
ust ers
186 1
ĠT erm
eb ug
Ġdoll ars
Ġw aves
ĠB asketball
Ġind eed
Ġqual ifying
ĠC urrent
Ġthan ks
Ġel der
up load
en ess
Ġqu ery
ĠS hip
ĠN am
ĠL uther
Sty le
n orm
ĠGu y
Ġtal ent
ĠAthlet ic
ĠN ext
Ġb ond
Ġint ellectual
ĠNorm an
verse as
um ed
Ġland ing
Ġd ated
Ġconsider able
ĠArt icle
Ġstar red
ĠDef ence
188 1
ĠP ictures
Ġco e
ĠL ock
Ġp seud
ĠN ad
188 4
lem ma
b ad
Ġm al
G r
ĠJos h
Ġfavor ite
ĠE sp
ge on
og a
}) \
Ġnomin ation
pt r
es is
Ġpublic ly
Ġaff ord
w inning
ec ute
ĠO ct
Ġb on
re ation
ĠM ind
ĠMan hattan
ĠCharl ie
ĠAd vis
Ġthreat ened
ling ton
Ġrun ner
Ġpay ment
che ma
Ġr u
ĠB aker
Ġdim ension
ĠB ey
Ã¶ r
g ame
Ġvol umes
Ġpr on
Ġt act
L ay
Ġsim ultane
ĠSh ar
Ġcl ients
ens on
Ġem ail
ĠT ag
ch ron
um ph
ol ia
em ale
Ġsh aring
ĠSal v
ĠB illy
J ew
Ġfinal s
Ġbusiness man
Ġadvert ising
umb ent
Ġd owntown
ĠG iants
Ġconcent ration
Ġconv icted
Ġcl imb
omet ric
et ween
ed ed
Ġrepl acing
Ġmiss ed
ĠC rit
j pg
ĠF ab
Ġvert ical
IN T
ĠT ournament
Ġt ub
arri er
D i
d es
ĠCommission er
Ġoff set
u its
s a
al am
ru ctions
Ġen able
Ġsubs idi
Ġp airs
Ġconcern ing
iv an
Ã¨ re
ĠCon stant
Ġs outheast
Ġsat ellite
ack et
ĠW ing
Ġimp ress
Ġr ig
Ġinteg ral
ĠBl ues
186 3
ev en
188 2
Ġcon j
ang o
Ar g
R T
ot an
as a
ĠTr ue
b oy
Ġvess els
ĠJ azz
Ġtrans c
Ġuns uccess
ĠSt ars
Ġcommit ment
Ġus ual
Ġsuccess or
S M
h ill
Ġthem es
ibr aries
Ġbran ches
ĠT uesday
par ams
re ated
S ON
Ġsouth west
Ġobject ive
ĠN ame
Ġiniti ative
Ġw ings
H O
ĠChrist ians
he rent
ĠPh oen
i est
pan ic
ic he
Ġtrans action
Ġang le
ĠR and
Å ¾
Ġrem ote
men u
N O
Ġlaw yers
ĠMunicip ality
ĠP ut
Ġthe oret
ĠCarl os
end if
Ġfl owers
186 2
Ġmount ains
Ġapparent ly
Ġrequ ested
oust ic
Ġsett ings
Ġmag azines
Ġdise ases
al ymp
m und
miss ions
it ations
D R
Ġguitar ist
ĠB ud
duc ational
ĠH T
ĠB omb
Ġeff iciency
S k
O p
f ill
Î ±
Ġf oss
em i
w p
ĠG ray
arn ing
Ġdec ide
ĠT ob
ina e
ific ial
Ġexper ts
y g
op al
Res ource
Ġsupport ers
Ġpartic les
ĠCarib bean
D an
ĠB enn
Europe an
Ġthe orem
or ous
ĠAl aska
ĠS ax
Se lected
ĠM ack
Ġre ct
ĠF uture
Ġf ee
ĠFurther more
ĠPro test
ok a
Ġg ift
Ġf at
ĠS occer
m ates
ĠMuslim s
Ġmon ument
ie ge
Ġ\ {
Ġcommunic ations
Ġf ishing
ĠWar ren
d esc
writ ers
s i
ĠV erm
j ab
ĠQ ual
Ġ< !--
ang ular
ev a
Re ad
F ONT
Ð ²
Ġdec om
ĠAng l
Ġform ing
B N
cd ots
rist ol
Ġb es
. :
st yles
ac re
? âĢĿ
Ġg ate
M r
s ign
pro v
Ġl ift
ĠAthlet ics
ĠM embers
ĠF ellow
Ġab road
u h
est one
ĠH REF
È Ļ
ĠElect ric
sc ar
o an
D own
Ġar c
Ġdefe ating
ĠSo ft
Ġcompet ing
Ġcon sp
M ount
Ġw ine
M ult
Ġann ually
ĠL iving
Ġsp oken
Ġsusp ended
P RO
Ġw orship
Ġloc ally
Ġins ert
i able
ĠA ld
ud son
C reate
jav ascript
ĠM eg
L ater
com es
f ol
ont in
Ġsub mitted
S chool
Ġb rick
âĢ ĺ
ĠU g
Ġaim ed
d el
r aska
ram es
e lect
Ġgu ilty
ĠI v
Ġview ed
Ġwid espread
ue z
P L
Ġphotograph s
az e
Ġt ie
Ġsurround ed
ĠIran ian
ĠEgypt ian
Ġin ternet
Ġnar rative
Ġm or
ĠH ub
ĠC her
Ġterrit ories
comm and
A v
ĠJohn ny
Ġtop ics
c r
Ġliqu id
Ġencour aged
up date
ĠCh art
ĠBen jamin
duc es
ĠMore over
li x
m ate
Ġin ject
G C
g ate
Ġf ictional
Ġf ulf
ER R
Ġinvol ves
ĠBeng al
Ġc le
Ġcould n
ĠAl ice
w as
ĠE X
Ġnuc le
ĠYork shire
ĠC er
um ar
ĠStr ateg
ff ee
Ġr ising
S am
ĠBar ry
Ġad m
Ġsk y
on ian
em ed
p ent
ĠBe ijing
ĠAz erbai
ro ck
ĠHawai i
Ġvul ner
f ish
Ġb id
Ġin duct
ri or
ĠPref ecture
ĠChall enge
re nd
Ġcontrovers y
ĠLic ense
Ġp ian
ĠFin ancial
Ġvar iant
Ġabsol ute
z z
Ġequ ipped
ak ia
d em
Ġexp osed
Ġwor st
ĠN OT
plic ated
Ġm orph
at ial
Ġagric ulture
Ġlow est
Ġrestrict ions
Ġforest s
av irus
ĠAnd y
ĠMil an
Ġexist ed
in ating
Ġper mission
Ġphot os
ool s
Ġdest ruction
Ġalcoh ol
ok ed
Ġgreat ly
ĠB eg
ĠD J
Ġdistingu ished
Ġcol span
ĠRich mond
ĠB orn
Ġf urn
ĠN ature
ĠPark er
it ure
Ġsent enced
ĠBar bara
Ġb ra
Ġtest ed
Ġbre aking
}^{ (
ĠGlas gow
st ers
Ġtemper atures
Ġoper ational
ĠFl ore
f ix
Ġsign ificance
et ition
ĠT ax
ĠK r
Ġexcell ent
ĠF r
R ow
ĠMicro soft
ĠCommunic ations
imens ions
Ġinterpret ation
Ġsound s
Ġsu itable
V ert
ĠBelg ian
ob j
ĠT un
Ġt on
Ã ª
over e
S ection
ĠM all
Ġrank ing
Ġcontrovers ial
Ġout er
ow ell
ĠC ricket
Ġl oved
Out put
ĠA C
Ġcons umer
s in
it is
hold er
Or gan
app y
Ġd iversity
b es
ĠI an
ĠV ancouver
Al umni
Ġm yself
ĠF ine
ind ent
187 8
Ġfilm ed
l u
188 3
nt il
c ussion
Ġcooper ation
Ġsup plies
t w
Ġfocus es
Ġfam iliar
ĠM ong
ĠY ugoslav
Ġemer ged
ĠM L
enc er
Ġelectric ity
pl ate
Ġs ight
Ġcon gress
G M
Ġcur ve
ĠMar s
ĠGu inea
Dem ographics
Ġemploy ee
ĠMu hammad
ĠTe ch
inc inn
ĠCr ime
P al
ĠC A
Ġhistor ians
ĠJon athan
=" -
B r
ĠP ant
ĠL ud
187 6
ĠEx pl
ĠG un
Ĥ ¬
Ġimp ossible
ab a
Ġrele g
E ach
Ġtri als
Ġt ur
ĠV egas
Ġfin ance
//////// ////////
Ġpubl isher
ĠHun ter
Ġwa iting
Ġviol in
Ġtal ks
Ġv ic
Ġassess ment
Ġunus ual
Ġpoint ed
ĠSte el
Ġestim ates
ĠâĢ ¢
ĠM i
in os
Sp anish
Ġhapp ens
ĠT ext
ĠProfess ional
ĠR ace
Ġ( (
ĠE ston
Ġst im
Ġcon vention
Ġorgan isations
ĠWh y
AC K
Ġprint ed
Ġsympt oms
1 17
ra ham
Ġmess ages
Ġn am
Ġrele ases
ĠP il
cont ainer
ĠN umber
F ebruary
ĠPrad esh
Ġst yles
Ġround s
up t
T own
Val id
U I
}\ ,
Ġparliament ary
Ġdemonstr ated
class es
qu er
op l
Ġpol ar
Ġwas te
ĠSerb ia
im ir
u art
Ġphil os
ĠSm all
: </
{ {\
Ġprov isions
ĠMed iterranean
ĠFin ance
Ġmin im
D B
ĠH old
F T
ĠHe b
Ġbe ach
Ġdisplay ed
Ġo x
ĠO range
ĠColl ins
hib ition
our t
h ow
iv ia
Ġe at
ent i
Ġste am
Ġd ict
con f
ĠDer by
ĠAlber ta
( -
Ġexpl ains
ĠC rim
lin ear
Ġexp osure
incinn ati
M iss
Le ague
W A
ra ctions
sh op
ĠProt ection
Ġcharacter ized
Ġp ul
ĠTig ers
ur u
Ġro ots
Ġw ars
Ġfl ower
Ġmunicipal ities
ĠTe le
ov iÄĩ
Ġkn ows
ĠM ak
ĠBl ood
Ġmin isters
id al
X X
ok ing
ĠW a
ĠU nd
Ġden ote
ĠPr incip
al ph
Ġaccur ate
Ġelim inated
Ġaccur acy
ĠFinn ish
Ġcomm emor
ĠPh D
et ry
ĠTh ose
Ġgen etic
ĠHind u
Ġportray ed
ĠPer u
G ame
ĠF isher
Ġor b
Ġtop ic
Ġpre v
Ġw ire
. /
ĠCub a
Ġfor th
Ġm ask
et ary
Pro ject
ern el
& &
ĠWrest ling
Ġb acter
ĠV I
ĠPl ant
Ġh ip
( &
ĠColomb ia
ĠPier re
Ġem otional
Ġconf idence
Ġhyp othes
ĠCL ASS
el se
id ance
Ġbr ings
C ON
Ġpo ems
Ġo cean
ĠPar ish
ĠV ic
Ġlo op
Ġwood en
ĠR E
ĠGr iff
q quad
B U
Ġwork er
ĠStud io
St ation
J os
ĠSt orm
Ġbatt les
ĠC reat
ĠFinal ly
Ġpo ets
ister ed
in f
Ġinters ection
Ġtarget s
tt p
Ġ$ (\
D espite
Ġ url
Ġask ing
ĠP y
Ġrad ical
187 9
ĠF alls
Ġtext s
ĠSer ge
ĠAP I
1 15
Ġmiss ions
ĠTra il
T it
ĠO t
ke ley
Ġatt ributed
ĠF itz
S H
Ġvess el
ik ip
let ed
Ġcom ed
et ies
ĠR equ
ĠC BS
aster y
Ġh a
ĠSt art
Ã Ł
ĠW arner
ĠJ ama
Ġcont ribute
Ġrecover ed
ob s
Ġth irty
Ġout standing
ĠW or
cy clop
ĠR acing
om on
Ġthe at
j ust
Ġexp ensive
Ġp ictures
} :
ĠA T
ĠS ongs
Ġpick ed
ĠLe ad
1 13
Ġt ort
N E
ot ton
C ase
Ġsc ores
ah a
Ġviol ent
ĠAN D
D raw
ĠElement ary
Ġexpl ore
Ġrespect ive
Ġgradu ating
< ?
ĠSim ilar
Ġfor g
A ir
ĠIn sp
M art
re z
ĠO R
Ġ ×
Ġr ub
r ating
Ġto w
Ġfund ed
Ġearth qu
res hold
I B
Ġsold ier
ĠA L
A lex
Ġaccess ible
L ou
Ġproduc es
m al
ĠCharl otte
Se lect
. ),
e o
Ġm it
ĠG reater
ĠCh ron
Ġbehavi our
Le vel
ĠP ont
Ġt ight
Ġchampionship s
enn ial
g reen
Ġder iv
M oths
E lect
Ġbound aries
at orn
Ġb aby
Ġlong est
But ton
1 12
ĠS oul
ĠCh air
ĠAlex and
sh ot
ĠB orough
Cont roller
187 1
Ġdomin ated
Ġjurisd iction
L abel
s or
Ġe cho
Ġconv inc
186 7
ĠB ak
Ġc inema
Al bums
Ġput ting
Ġunivers e
as m
Ġunderst ood
Ġleg islative
ĠE ug
ĠChristian ity
ĠBe h
ĠFac ulty
Ġcomp rehensive
Ġthe ories
Ġposs ession
d eg
187 5
ĠW here
Ġbeg un
ĠD at
work s
Ġrh yth
f rame
Ġst uff
Ġweap on
Ġfarm ers
Ġexped ition
h our
Ġn odes
Ġt elling
id o
ĠEx change
uk a
N or
Equ als
ik o
ĠTreat y
ĠFle et
Ġsm art
Th omas
h um
l arg
ĠL ore
ig in
ah o
ĠSt age
ier ra
ounc ill
ĠMin or
st ad
rop y
ĠVictor ian
Ġ els
Ġdef ence
}\ \
ĠUr ban
}} (
n an
{ }
P P
Ġtrans formation
text tt
ĠStud y
ic ular
ĠU se
Ġdisc ip
Ġl oyal
an ne
cel and
Ġg iant
sh aped
Ġcred its
Ġinteg ration
L in
Ġd rew
roll ing
Ġg olf
opy right
ikip edia
Ġmed als
Ġdem ocracy
B undle
ĠIndust ry
ĠM ans
ĠB ron
Ġre un
Ġminor ity
Ġcollect ive
ac o
duc er
oper atorn
Ġp m
Ġben ch
Ġlic ensed
ĠS E
n otes
Ġtra il
d rop
born e
ĠS aints
Ġess entially
St r
te enth
ĠV el
ĠM S
187 7
F R
Ġfriend ly
Ġact ed
Ġap artment
ed a
ĠZ one
V P
ĠComm ons
mon th
Ġleg acy
ĠRe ad
Ġd ub
Ġnorm ally
own ed
ĠW as
ĠĠĠĠĠĠĠĠĠĠĠĠĠĠĠĠ ĠĠĠĠĠĠĠĠĠĠĠĠĠĠĠĠĠĠĠ
} |
Ġres id
Ġpart ially
> >
Ġs aved
Ġintro duce
ĠSt re
ĠIs a
Ġread ers
ĠRang ers
Ġimm igrants
ĉĉ Ċ
Ġend emic
Ġpres erved
Ġus age
ĠD iam
186 8
Ġcalc ulated
ed u
D ay
iff s
Person nel
Ġst ake
ĠFran ces
Ġtherap y
ĠCirc uit
Ġin formed
Ġg all
ap l
Ġtru ly
Ġreported ly
187 2
ĠI van
ĠN BC
M ag
ĠTurn er
ĠB ranch
cast le
ĠR ic
S l
Ġbu ffer
Ġob lig
Ġpurs ue
ĠIn n
os ph
Ġposs ess
ick er
ĠNich olas
er ior
ĠSev en
187 4
( _
ĠB aptist
ĠK os
Ġw earing
ir k
Ġfind ings
Ġbeaut y
Ġdet ect
ER T
ĠMov ie
ĠNov a
Ġc ul
k it
act s
U C
Ġpass age
Ġ& \
10 5
Ġresc ue
ĠPhoen ix
ĠI ce
Ġgalax ies
oph one
Ġreve als
Ġcon version
ot ation
ĠAl bum
J ack
Ġrel ating
ĠClass ic
Ġaware ness
m em
Ġtax es
S ign
operatorn ame
sequ ently
Ġk it
G O
Ġnomin ations
Ġmar ks
R ight
math sf
field s
av an
ann on
ĠNeb raska
en ia
Ġtrib e
ast rop
Ġunder ground
f olk
val ues
keep er
Ġelig ible
T ypes
mod al
g i
Ġclaim ing
ĠPrim ary
Ġattract ed
e ch
Ġinc idents
Ġclos ing
fl oat
E ast
E very
Ġinter actions
ĠF ile
ĠG P
o ons
ĠP ath
Ġsurv iving
Ġj ury
ĠLiter ature
ĠEnvironment al
Ġpeak ed
P ass
Ġconstitution al
187 3
Medal ists
Ġdis put
ynam ic
Ġem ission
Ġindust ries
Ġdes ert
Ġswim ming
Ġr anks
F ilter
H C
Ġor chestra
Ġfunction al
Ġfrequ ent
ĠMan ager
D el
arian t
Ġre ven
CO L
empt y
Ġas c
d ocument
Ġdon ated
Ġdet ection
ĠRoman ian
Ġdynam ic
Ġcolumn s
ĠC os
a uth
l ights
ĠC hel
Ġl ie
m akers
F OR
rem ove
iz z
c over
Ġfall ing
ĠC old
ĠH MS
Ġcas ual
M edia
ster dam
ĠSh a
Ġart illery
List ener
Ġpros ecut
Ġbelong ing
Ġc up
ancell or
sc r
sett ings
Ġwh ilst
ĠVin cent
ack ed
Ġcustom er
D O
18 00
Ġconvers ation
Ġc ounsel
UR L
Ġdomin ant
Ġdescrib ing
Ġrespond ed
Ġscient ist
id ad
q l
ĠHar rison
ip er
Ġlab our
Ġco inc
Ġsurv iv
Ġb orders
Ġmet ric
end ers
Ġed ges
ĠL ook
ĠBar cel
Ġcol ors
s v
Ġnob le
H en
Ġproced ures
Ġamong st
Ġatmosp here
rap per
Ġcomm une
Ġobserv ation
ĠL ie
Ġfra ud
ix on
Ġe ighth
l ater
Add ress
ĠH unt
Tax a
ig o
Rec ip
Ġdynam ics
Ġcoal ition
ĠS R
osp el
Ġvacc ine
ey er
A E
d x
ĠJ oy
Ġtrib es
Ġphys ician
Ġadj ust
T ur
f ast
m atch
th rough
Ġarchitect ural
M ont
Ġmom ents
S ur
Ġacqu isition
Ġre ducing
Ġbir d
ĠKir k
ort s
ĠS id
ĠW ang
Hon ours
t im
Ġwalk ing
ĠBuff alo
' $
Ġcontrol s
ĠGh ana
ĠS S
fortun ately
Ġch amber
Ġoccasion ally
Ġnecess arily
f n
St ep
Ġven ue
Ġinterview s
Ġlast ed
ĠB uild
Ġterm inal
b ow
m el
Re lease
I ST
O K
z ym
ĠUnivers al
as ant
ĠC ase
Ġremain der
Ġpot entially
Ch ild
. $
uss ia
er as
en umer
Ġr id
Ġs itting
Ġmar ry
st ore
hel m
ine e
Ġcond em
cont rol
ĠM yst
ĠJ ava
Ġatt ending
Ġdepart ure
Ġmanag ing
ĠM erc
hol m
Ġf antasy
Ġh at
Ġyoung est
bl ack
Ġp y
Ġcab inet
ĠH ad
Ġamount s
Ġdi agram
Ġneut ral
if ting
ĠG ot
D D
Ġdis order
ĠB ristol
ab ric
Col umn
ut er
Ġs essions
b ie
omet imes
Ġsurv ive
' ),
Ġam ateur
ĠL iga
off set
it ol
18 40
it ely
Ġcou ples
Ġpet ition
Ġtravel ed
G S
Ġpartic le
Se ason
1 14
Ġgrad ually
Ġeas ier
ro se
186 6
Ġfl oat
ĠS r
ĠP ra
Ã ¦
ac cess
Ġinvestig ate
ĠOl iver
ĠE li
Char les
Flor a
ĠV lad
Ġinstrument al
clus ive
) /
% ;
Ġwh atever
Ġex port
ĠB ert
r age
ĠCh ange
ist ani
Pl ace
] $
Ġdis k
Ġnam ely
Ġopp onents
in stance
M O
Ġle af
z ant
Ġarrang ement
ĠTr inity
Ð ´
amp a
Ġst ead
M ac
al is
ĠSt ein
ĠEth iop
ĠSym phony
Ġcrit eria
Ġdisp ute
ĠS che
Ġw ww
Ġsquad ron
ĠJ e
Ġisol ated
ĠTerrit ory
Ġels ewhere
T ra
P os
yn om
Ġchar ity
=" ../../
Ġp lease
Ġ ur
aj a
Ġfact s
b us
min ute
ter ior
ĠM ason
& =
Ġ! ==
ĠJ ess
W eek
z es
ĠD ays
Ġ[ ]
Ġanal yt
Ġg allery
ist ing
âĢ¦ âĢ¦
ĠF if
Ĩ Ĵ
tern oon
ym met
Ġf aster
9 00
Ġestablish ing
Ġph arm
ag ar
ĠC ON
g un
Ġr ide
form s
Ġmix ing
Ġcous in
Ġpred omin
ĠT ib
ĠB und
styles he
ĠK ap
ĠCra ig
st ep
v ia
W S
s ing
Ġimpro vement
ĠArab ia
Î ¿
R oyal
Ġconsequ ences
Ġident ical
Ġs ax
ĠB ass
Ġout break
ĠCan al
Ġ ),
Ġview ers
Up date
Ġhon our
row ser
b one
O b
10 2
Ġal ter
ĠCo al
ĠEconom ics
ĠF ellows
ĠMar vel
Ġwatch ing
Ġab und
Ġinvest ors
Ġread er
Ab out
ĠC ry
Ġsus pect
Ġ( '
ĠV as
ĠRel ations
ĠTre as
Ġmathemat ics
Ġelev en
Ġal ive
Ġconvent ional
ĠBarcel ona
ir acy
ĠJ erry
ĠSpe ed
Ġpar ks
Ġr ational
os ity
Ġstat ue
onom ous
ĠOper ations
B R
ĠH udson
Ġrestrict ed
B en
Ġconsum ption
P resident
ĠPro p
Acc ess
ach i
or o
12 8
AL L
_ .
Ġth read
che ster
oth ic
ĠP ast
ĠDe ep
Ġcharacter istic
Sh ort
Ġf aces
^ +
b as
ops is
Ġvari ation
ip t
Ġfl ed
ĠP ract
Ġcom ics
ur ring
Ġimm igration
186 9
um i
ĠV a
Ġco aching
ĠEn cyclop
Ġelect rical
ĠLl oyd
ĠArt ist
Ġnegoti ations
d ates
Disc ography
Ġstrateg ies
igr ant
Ġm anga
ĠU EFA
Ġdiam eter
form ing
ef ined
Ġsac r
Ġmill ions
re ck
ĠKen ya
e a
ro c
Ġrep air
Ġc able
Ev ents
`` `
ĠS ad
Ġinn ings
at ible
Ġhon ors
st able
ĠT u
Ġcl ock
Ġab stract
Ġmagn itude
ater al
Ġpres c
Ġpres ents
ĠJeff erson
ĠSpr ings
Ġpart ly
Ġf ighter
ĠG arc
r ates
Ñ ı
Ġten ure
Ġpre ferred
ĠAnd re
ĠRet urn
ĠIndust rial
C ap
ĠL is
ĠCl are
Ġunivers al
Ġrest oration
ĠAthe ns
Ġqual ify
et he
Ġst ability
ĠAr g
k ar
Ġoccas ions
ic ons
Ġlab els
ĠC ob
iv ic
at hered
Ġcancell ed
K ing
ĠInd ex
at che
ĠShe l
Jew ish
il ia
ograp hers
ĠBer keley
Ġsil ent
S ched
Ġh ospitals
Ġsign ature
Ġev il
Ġsh ore
ĠW atch
Ġpred ecess
Ġreg ulation
ri um
M ode
Ġmay be
ĠPer formance
Ġb io
Ġas ks
ĠL P
Sc ript
T om
h l
Ġn ut
Ġprom oting
ĠP A
st ack
Academ ic
ĠFl ight
ĠTh or
ĠLem ma
Ġjourn als
IG N
Ġdeploy ed
ĠN HL
p ay
it ual
s d
ĠEd itor
Ġwarn ing
en h
ash a
we ek
N ames
Ġare n
ĠCost a
Ġsl a
Ġh ole
Ġst ored
Ġw ider
Afric an
t ar
ab e
ĠL ost
arri ors
An y
Ġh orses
est on
ĠP ack
ĠAnt ar
ĠSh ang
ĠInt elligence
sh ould
Ġtrad itions
ĠS ay
Ġsit uations
on ies
Ġreal ized
ĠH ann
Ġprep are
i ors
Ġanim ation
Ġa ims
ĠStud ents
ĠRepresent ative
Ġcons cious
ab out
ent le
Ġrequire ment
ĠStev en
ĠGerman s
Rich ard
i u
e lected
ĠF am
= {
ĠQu est
ĠSerb ian
m ill
ol en
Ġcoll apse
ela ide
ag ers
i ology
uck land
. ;
Ġg od
ĠS ultan
ĠMun ich
ber ry
ĠEx p
ĠTr ack
ĠAr ray
ĠJ a
writ ten
ĠS eb
ĠP el
Ġleg it
Ġsuper ior
Ġpe oples
d epend
Ġprem iere
al id
$ (
I E
Ġmuseum s
le e
ĠD raft
ĠRepublican s
Ġun cle
ers et
Ġmerg er
ent ity
ĠA S
Ġfest ivals
ic ing
Ġl ieutenant
ĠPhilipp ine
Ġcivil ian
Ġdeal ing
ov en
Ġtr uck
sh ift
ĠNep al
ur ities
ĠD og
F ore
i ya
m ag
O ld
ĠB ath
greg ation
Ġpost s
t ree
Ġreason able
ĠCont emporary
O h
Ġsett lements
ĠM asters
th y
Un ivers
idel ines
Ġconnect ing
ĠS now
Ġmeasure ments
vious ly
ĠPer ry
G overnment
ĠPalest inian
ex ample
ĠB our
ĠG ate
Ġt ies
Ġatt ribute
ĠV iol
Ġconf irm
x x
ĠCh apter
ĠDel aware
3 50
Ġautom atically
ĠR u
ĠY ank
ĠVenezuel a
ig rated
ble m
D en
ĠGon z
Ġbo ats
P eter
ĠR ot
ĠW es
ĠL ov
ĠComput er
ĠSt ill
ĠF u
ĠB rew
let ter
ĠR ing
Ġper cussion
Ġgro ss
Ġrad iation
Ġeval uation
Ġval uable
Ġfe els
Ġunder lying
ĠCons erv
us k
st d
Ġrecip ient
ig ion
Or iginal
Ġess ay
ĠArab ic
em a
ĠLe ader
Ġdep ression
or ient
L ength
Ġlocomot ives
ĠL en
ens ively
Ġent ries
ath on
Def unct
or ious
Ġass emb
Ġen abled
Ġrep orter
Ġres emb
Ġj unction
ew ay
Ġfl ux
Ġscholars hip
() :
Ġdem olished
14 0
ĠCl ay
ĠL ate
Ġwrest ling
Q L
s ystem
Ġre ward
rupt ed
G old
Lay out
ĠCh and
ĠMont ana
Ġw et
Ġris ks
ĠZ e
ell ion
Ġdou bles
Ġplay offs
Ġag es
10 3
Ġrestaur ants
ï¿½ ï¿½
B P
Ġbi ological
Ġmin imal
Ġmer chant
ĠL arry
P i
ĠC incinnati
ĠPr ivate
T arget
point s
Ġt el
ĠC atherine
ĠAl ger
r us
Ġcolle agues
ip per
ush ing
Recip ients
is an
Ġbo ost
Ġdem ands
Ġbound ed
ĠW alt
b ane
ĠAm sterdam
ĠB ird
ĠM D
Ġexclus ively
p ine
ĠT on
ĠRes ources
Ġdou b
am o
Ġcl othing
atern al
pe are
18 48
Ur l
ĠK un
ĠLu is
Ġl ap
ent e
ĠG round
Ġafter wards
oot st
Ġpre fer
yth on
Ġillust rated
um ps
G reen
Ġencour age
TY PE
ĠY ang
Ġpriv ile
comm unic
med ia
ĠDen ver
m other
Ġrad ius
oun ce
Ġparticip ating
yl er
ĠB ris
ar an
ĠO il
10 4
Ġt orn
Ġw ick
ĠG rey
ĠHol land
Ġprepar ation
Ġdo ors
Ġexclus ive
Ġhealth care
ot ions
à ¦
Ġeng age
Ġdoct ors
Ġdef ending
p ol
s end
an ion
Ġbatter y
Ġa maz
com plete
AN D
z ed
ro le
ĠH ope
Ġx ml
Ã¡ s
ĠRob in
qu arter
it ative
ĠBl ock
ĠY am
Ġrecogn ize
Ġconcept s
Ġinsp iration
im ages
Ġgu idance
Ġthan k
g om
Ġdismiss ed
ĠD h
Ġim perial
Ġinf antry
Ġtheoret ical
Ġw edding
Ġcre ates
="../../../../ ../
akes peare
Ġeconom ics
Ġcor ruption
fol io
Oper ation
Ġl ib
S y
f iles
A thlet
Ġpat rol
Com mon
ĠI celand
Ġover l
Ġhy brid
D ocument
Ġgrand father
ict ions
in ite
Ġc a
Ġb anned
ĠSt ra
185 9
ig s
ĠC urt
Ġmechan ical
Ġdisestabl ished
Ġf raction
Ġmach ines
Ġaccord ance
Ġdisapp oint
st e
}} {\
( {\
Ġm os
âĢ ¢
Ġs in
Ġd ire
ij i
Ġindic ating
ĠVo iv
& #
t ains
ĠS ide
Ġcontract s
rec ord
ĠTechn ical
ah l
12 3
ĠAnn ual
Mus ical
M I
F S
ĠT erry
m usic
sc reen
ã Ģ
H ung
g g
ne q
Profess ional
Ġs ick
Ġmart ial
is p
ar as
Ġs ending
g raph
th lete
Ġcampaign s
Ġcol ony
isc al
Ġprofession als
Ġre act
. âĢĻ
ĠMean while
item ize
ĠRog ers
en os
Ġdev oted
Ġs av
ĠFor um
Ġmanufact urer
Ġlay ers
ĠM end
ri en
ok er
re ts
ĠE ff
in ternal
Ġdis aster
Ġra ising
Ġproper ly
Ġre vers
ĠEd wards
ĠKe ith
ĠSy rian
Ġs we
ĠAb u
T ree
Ġan ime
f ull
Ġdiscrim ination
esign ated
pl ant
Ġn eck
Wh ite
ĠMad ison
à ¥
par se
Ġg ard
ES S
iz on
amb urg
ĠB uch
Ġsw it
Ġsimultane ously
uc lear
ĠM ust
ai ro
Ġmin i
Ġslow ly
Ġm oth
ĠD ate
ĠM aced
og an
Ġpresent ation
Ġmoment um
Ġinst ruction
au er
ort ed
Ġeng agement
Ġinc red
Ġhel ic
C ache
ig ate
st ead
Ġrare ly
ĠY u
ĠVerm ont
Ġsol ve
ĠMat hemat
Ġport rait
it i
Ġadd ressed
J o
ĠPun jab
ĠG ay
Ġaffili ated
Ġex it
ĠP le
hem atic
Ġbi ography
Ġaccom p
S ir
Ġdu o
Ġcons ent
b order
Ġant icip
Ġst em
ant i
Ġsec ured
b efore
ĠHer z
li er
Ġcomment ed
G P
enumer ate
au kee
odes hip
c oll
Ch inese
o j
ut ely
âĢĻ ,
ĠO cc
L and
ĠAm endment
Scott ish
ĠC ustom
apt ers
G E
Ġper m
Ġem issions
: "
ĠMur phy
et ta
ĠHeb rew
Ġre aches
Ġb om
r h
reg ular
G R
ĉĉĉĉ ĉĉĉ
Ġbel ongs
Ġsubsidi ary
ĠD ocument
Ġdr ag
Ġconcert s
Ġcitiz en
Ġrece ives
ĠL uke
od ore
ĠM oz
ĠD est
ĠM ann
ur se
Ġsign als
18 30
ĠMunicip al
Ġremov al
Ġb ridges
Ġg ram
Ġengine ers
Ġd uration
Ġo verseas
Ġper mitted
ĠSocial ist
Ġcamp s
Ġvis its
1 16
ĠV ersion
ĠUs ing
ol ition
re ference
t urb
ĠStan ford
r ise
t or
b ing
og ene
f am
Ġleg s
Ġall iance
Pro cess
ĠAng lo
i eg
n eg
ĠLeban on
re v
Ġev ac
S earch
Wh y
Ġcont ested
as ia
sect s
ĠB es
ĠStud ent
ĠB iden
D T
ĠCamp aign
ĠFriend s
Ġne arest
Ġdepend ent
Ġde emed
CO DE
writ ing
ootst rap
h n
ĠH erman
Ġopt ical
ĠPers ian
f ers
Ġord inary
ĠAzerbai jan
ĠP rice
-- -
Ġent hus
Ġinter act
Ġinnov ation
ĠS z
ĠR ank
Ġdial ogue
ĠL ions
Ġfew er
Ġsur prise
ĠP oll
Ġspons ored
ĠHis panic
Ġt unnel
Ġmanufact urers
Rad io
ich i
++ )
M ass
ĠT ogether
S en
ĠS outheast
ĠArch ives
ĠPar alymp
Is rael
185 7
ĠRo om
N R
} -\
ĠL ion
mar ks
Ġelev ation
Ġdevelop ments
E conom
ĠAg reement
ĠSus an
ĠL ink
Ġcruc ial
Ġfl ights
ĠN at
ĠMach ine
ab ul
ĠR ivers
Ġstruct ural
Ġenc l
Ġb inary
\ "
Ġhol iday
Ġorgan ised
Ġcan on
ĠDr ive
ĠK ur
Ġup grad
Ġmain stream
Ġd imensions
ull ivan
ĠS ah
Ġgu y
iss a
ĠVoiv odeship
H am
Ġarrang ements
math scr
ĠP i
Ġun like
ĠQu arter
eth yl
Ġexplan ation
agon al
Ġmurder ed
ĠSh aw
ĠAnt i
25 5
Ġwould n
Ġacc um
ĠInd ependence
ĠAcc ount
Ġsustain able
viron ments
T ask
Ġs alt
ĠHer bert
R ob
Ġcomplet ing
Ġor bit
olic y
leg iate
Ġmin istry
Ġax is
ro oms
Ġconsider ation
mult icol
ir th
Ġtreat y
ĠGuard ian
Ġp ushed
ĠCon struction
M T
St and
pr im
ĠAv iation
Ġrefuge es
AP I
h aw
Ġserious ly
Ġwor se
Ġbe am
Ġpers u
Ġto x
Ġdis ag
as hes
P O
on ial
Ġear ning
Ġaut hent
ĠH ugh
ĠAd elaide
Writ e
ĠPol y
B razil
Ġpro ud
Ġinequ ality
b uffer
ĠDemocr at
ĠBroad casting
w aukee
ĠB right
h space
ch ildren
Ġmult ipl
multicol umn
ĠPen insula
os exual
Ġdest ination
Ġdatas et
Ġt um
! !
Ġf old
Ġra w
Ġdecre ase
ĠNor folk
ĠPeters burg
Ġcontribut ing
ĠIn v
Ġspe aker
Ġphot ographer
11 1
) |
ut ils
Ġcons olid
Ġr anging
Cont rol
Ġreg istration
Ġinternational ly
S al
ra pped
Ġsc al
ator ial
( [
Ġbl ind
Ġac oustic
ĠCh ap
og ram
op ic
ĠL ar
} +\
ingu ished
Ġpull ed
Ġl ingu
Ġ\ |
Ġdisc ontin
Ġbrand s
Ġconstra ints
C apt
L ab
Ġsh opping
10 6
Ġdepart ments
Ġ- \
Ġdifficult ies
ĠArt illery
ĠAbb ey
ĠL an
Ġmeasure ment
3 60
M el
ĠCh apel
Ġvent ure
u er
ann i
w al
Sw ed
ĠS alt
Ġcomp iled
ĠSing les
e or
ĠGr ace
sp ring
Ġsub div
Ġbirth day
Ġman ip
mod els
ĠA uckland
Ġb ases
ec raft
Ġexhib it
ĠY ale
ĠP ic
Ġed itions
Ġorig ins
Ġdifficult y
) }{
Ġinaug ural
Ġjud gment
Ġfocus ing
Ġdis ch
on al
F rame
ĠMag ic
Ġpre st
ĠAngl ican
C I
ĠL ux
ĠA ug
Ġr um
ĠPolit ics
Ġinflu ences
Le ft
Ġl en
ĠHor se
Ġimpro vements
Ġpol ynom
ĠC ad
Ġdesc ript
Ġer ected
l ined
Ġcomp are
c raft
ond a
ĠS um
Ġfeel ings
c est
Ġiniti ated
P rior
Ã¶ n
ĠHit ler
ĠCroat ia
Ġclos ure
ĠWith in
cy cle
Christ ian
ist ence
Ġpl ain
sh ort
Ġdeep ly
Ent ity
Th rough
Ġs oph
ĠForm ula
ir s
ĠChe ck
Ġassum ption
ĠP av
Ġg rey
Ġs isters
ric ulum
ĠÂ §
Ġf irms
ĠB ald
Ġgu ests
C ity
Ġbroadcast ing
Ġapplic able
w ait
Ġaf ternoon
Ġpe er
ĠW W
L ike
Ġo xy
ĠDr agon
ĠNew ton
P e
B as
Ġt ribute
ĠN an
Ġannounc ement
r ators
bul let
att ice
Ġcommand ed
art ifact
Ġh al
Ġrot ation
Ġre verse
atur ally
ins ky
Ġt ons
ĠD ennis
Ġout come
ol ars
Ġs overe
$ }
Film ography
ap ing
ĠSh akespeare
ĠR ou
185 4
Ġgener ations
ĠBut ler
Ġgrow s
dev ice
quir y
f eld
ĠT her
pro duct
Ġsubstit ute
ĠJ ar
1 21
ĠK le
ro ot
ĠCom merce
F ound
G N
Ġb ott
W ar
Ġch apel
ĠDi ocese
the orem
l ass
ĠA ber
ĠT oy
Ġsp ac
ĠM ort
Ġadvent ure
im ated
Ġpat ent
Ġsl ave
M ale
L aw
ĠBy zant
ic ism
Ġhealth y
Ġsculpt ure
ĠHel en
ic us
] \
ĠR AF
h aus
v et
ĠCh i
Ġfun eral
ĠM ol
u in
Ġph rase
ac les
att r
v space
Ġequ ality
Ġmer ely
Ġelement ary
Ġkind s
ĠK rist
ĠSt uart
Ġdet ected
Ġchalleng ing
gom ery
st op
Ġsequ el
Config uration
ĠBulg aria
Ã± a
ap y
Ġinf o
ĠArgent ine
T our
Ġstat istical
ĠG as
Ġsp an
Ġb old
ĠT ask
Ġcan cel
ĠArmen ian
Ġrequ ests
Ġimpro ving
B usiness
Ġm ines
10 7
wind ow
Ġdec ay
en burg
ĠS eg
ĠEag les
Ġprom ise
Ġb ars
ces ter
Ġstret ch
ĠM ix
re ens
ena issance
upload s
ĠB ond
Ġsepar ation
ĠRet urns
ĠPalest ine
inc eton
ĠS ox
c z
ĠGl en
ĠH ous
Ġattempt ing
erv es
Ġprov inces
185 8
Ã ī
Ġveter an
om p
ĠO pt
G allery
ring ton
ĠWork ers
Ġwealth y
az i
Ġtrad ed
â ĪĴ
is ch
Ġpat ron
Ġind epend
ĠCru z
ĠSud an
Ġb ath
ĠMoroc co
Ġ( ).
ĠT as
Th ree
Ġmount ed
le w
ĠP ul
ĠK ay
ĠHe avy
Ġcou p
ĠAl ong
Ġalgorith ms
oc ent
Ġcross ed
C am
Ġrel ocated
ĠS D
Ġdist urb
ĠLat ino
ĠO scar
On ly
ĠAcc ess
Ġinf ection
Ġf ib
Ġlay out
Ġmolec ular
L ondon
Z E
os itory
ĠGr ade
Ġinstall ation
M ad
ĠWat son
Ġu int
ĠMar x
Ġsim ulation
V er
ĠF ro
S ym
Ġf itted
Ġcut s
Ġcal endar
ĠS or
Ġpal ace
Ġprior ity
Ġn inth
ĠJ oint
ĠC row
Ġpred icted
Ġarg ue
Book s
F rank
Ġf ault
Ġen zym
P res
U se
R ound
Ġprov ider
ov ich
ĠH ence
ĠA round
Ġlif etime
iment al
Ġdes ired
om o
Ġmake up
ra h
ĠD od
Ġconsum ers
Ġkeyboard s
count ry
doc s
por ter
ĠH av
ĠS yn
ap pe
Ġform ations
Ġexc av
Ġcompens ation
ĠP od
os hi
former ly
Ġover t
ĠT ang
ĠD E
**************** ****************
C ritical
ĠPhil osophy
Post ed
Ġm o
Football ers
iz a
Ġstrong er
Ġto ler
á º
Ġgovern ing
Ġc ogn
P osition
ĠH ob
185 5
Ġup coming
Ġin clusion
Ġb ull
ĠT ree
uck er
ĠCons ervation
ct x
om es
Ġemphas is
\ '
Ġstri p
i ative
Ġcap s
Ġtick et
Ġdep icted
Ġopp onent
Al so
ĠFlore nce
Ġdr ink
s ince
all ing
ĠNash ville
Ġconsequ ence
Ġe igen
Ġdemonstr ate
Ent ry
m ode
ĠS umm
pl us
Ġprote ins
w ill
ĠBuddh ist
Ġbelief s
E st
ĠPro cess
ĠS ak
t emplate
Inter face
}} }
Ġvert ex
Ġdiscuss ions
irt ual
Ġplay off
Ä Ł
Ġv ital
Ġm ock
Ġend ors
Ġcarri er
Ġm arch
ĠPar am
iat ric
ent o
on ing
Ġinter vention
N T
it ivity
Ġc argo
act ic
Ġpl astic
ĠInd ies
Param eter
ĠPh oto
ark ed
ĠB og
Ġsequ ences
ĠSaf ety
M B
ĠR at
Ġt ribut
ĠAct or
Ġfair ly
Ġcounter part
W idth
Ġdiplom atic
ĠHig her
ĠFil ip
te am
Ġj et
Ġthr one
ĠBe aut
align ed
il ib
ĠF err
C AR
et o
ut o
Ġland ed
H A
ĠR esp
ĠS oph
ĠHug hes
Ġcl im
Ġâ Ĥ¬
Ġto m
ĠFor mer
ĠW u
ĠHar old
ĠAb raham
ĠArch bishop
Ġem igrants
ĠHen ri
Ġdram atic
ĠM ick
Ġmonth ly
Ġreb uilt
Ġelect ro
Prov ider
Ġsk i
Ġassist ed
Ġplay wright
ĠPro ductions
ĠScient ific
Ġpark ing
S il
() ->
Ġqu iet
Ġrecogn ised
Ġregard less
om i
ub a
Ġsup plement
ress es
ĠR i
ĠW ells
for ced
Ġmod es
Ġp ole
Ġr itual
Ġhand ling
ĠP in
f our
er i
no indent
M em
Ġopt imal
Ġflu id
Par ams
om eters
re leased
ĠArt ists
Ġr anges
our g
Ġop ens
Ġs oc
ĠUn like
ag i
) }$
Ġh ier
ĠM ake
Ġg ymn
ĠObs erv
b ool
ul ator
g ov
Ġt anks
ĠD ou
Ġdec ides
Ġart ificial
Ã¼ n
Ġdis abled
Ġtour ism
ac a
ĠS Ã£o
pro file
ĠR idge
d ict
ĠCl in
Ġdelay ed
ĠS ett
Ġvari ations
Ġthreat s
ĠHar vey
W al
Ġfe es
it ro
Ġe le
ĠNe il
Ġinnov ative
Ġnot ion
Ġhop es
AG E
Ġtourn aments
Ġident ification
ĠSe an
Ġpay ing
Ġinher ited
Ġcelebr ate
Ġg athered
ĠHe in
ĠD elta
Ġev olved
ĠArch ive
Ġcon fess
S em
Ġdecl ar
Ġmag ic
ie v
re ction
h al
vel t
Ġhard ware
t ml
Ġsup plied
ĠCong o
L ive
Ġth ir
Ġdr ummer
Ġass ists
ot he
Ġmain taining
ĠG ust
ĠT ed
Ġrequ iring
Ġsc ales
Un it
u ador
Ġall ies
ĠBob by
is ons
d ays
Ġsong writer
) +
st own
Ġac res
Util s
ĠNAS A
ĠO wn
Ġlaws uit
ĠDr ag
ĠL A
ail ability
P rim
\ ,\
Ġnumer ical
ĠR alph
Ch ange
ĠPro file
Ġemer ging
ĠWith out
ĠTransport ation
y ou
Ġc emetery
Ġco ins
ip her
Ġb are
ĠAgric ulture
R ivers
ĠPro duction
ĠR ac
Ġref lected
Ġkey s
Ġcontain er
Ġpres erve
Ġbelong ed
Ġinst ances
iz ers
Ġtw in
S pe
Dist ribution
ĠS ierra
ric ks
Ġsc iences
ĠPhill ips
ĠWall ace
ord inary
ĠN ear
ĠProtest ant
10 8
S aint
Ġw ard
all ow
Ġsynd rome
Ġdefend ers
Ġpr ay
Ġdraft ed
Ġdist inction
Ġb at
Ġret reat
cl osed
ĠN athan
ĠB eth
185 6
Ġorgan ic
Ġdem ocratic
Ġcut ting
sup port
ĠPr iv
ĠFilm s
ĠS ask
oid s
ig g
Ġb oss
th an
Ġcomplex ity
Ġcopy right
ane ous
Ġinteg er
ĠLeon ard
qu is
new s
ĠG or
osoph ical
ff ield
Ġ ion
ov an
Ġcert ified
st at
ĠThe ory
c ott
spe ed
for ward
Ser ver
Ġme at
Ġobserv e
S ett
COL OR
et e
Ġearthqu ake
Ġact ively
ĠD ictionary
ĠC R
Ġl iv
ID S
185 2
styleshe et
ĠConfeder ate
ĠÃ ģ
ĠE C
ĠV ari
un ning
Ġtro uble
ah an
Â ½
ĠOver all
Ġtarget ed
B re
Ġchar ter
Ġb orrow
Ġappro ached
Ġw elfare
d im
end um
ĠLe o
ĠC itiz
Ġfriend ship
ĠV ent
view s
Ġcoordin ates
ic ious
min ster
Ġcult ures
raz y
Ġsoci eties
10 9
}} _
prot otype
Ġcompet itors
ĠV ict
aps ed
Ġthr iller
Ġm ail
AT O
Ġres on
ĠR aw
ĠLe eds
Ġtherm al
Ġpriv acy
Ġ* *
ĠS uz
Ġle agues
comp onent
ig ger
ab we
Death s
Ġrev ised
Wind ow
agon ist
ĠUnivers e
R ange
Ġpay ments
B ro
AC T
ĠCam eron
ĠDiv is
ĠVen ice
R ock
âĢĻ .
ĠC elt
f ilm
Ġn a
Ġarr ive
He ad
ĠOtt awa
Ġdis band
Ġp ale
Ġalleg ations
Ġcont rad
Ġrob ust
ĠR ange
key s
ĠM ig
ap est
Ġarg s
Ġprodu ctions
Ġce ased
Ġto uring
Ġm amm
ili ary
Ġlog ic
Ġsymmet ry
Ġcarri es
P M
Ġsett lers
c aster
ĠLe ft
Ġc ov
Ġpan els
C oll
185 1
Ġhon est
Ġcrick eter
Ġoxy gen
Ġcorrespond s
u int
ï ¼
M ex
Ġbe ating
m ay
ĠM uch
ĠS earch
Ġsens itive
Ġt one
ĠGil bert
Ġ( -
Ġint ensity
Ġreve al
Ġch ron
ĠLa ura
Ġa qu
ov ing
ĠS ic
Ġmonitor ing
ĠArchitect ure
Ġcon sole
Ġim posed
v y
ew idth
Ġrefer ring
Ġwithd rew
Ġrow span
] );
Ġchem istry
Ġaccomp any
Ġr ated
ind a
Ġcomp lement
ut ton
N AME
Ġcorre lation
ĠO g
ran o
He ader
Ġun employ
Ġhonor ary
Ġover w
Ġd iet
ĠIn g
Ġc ir
ĠAn cient
uss els
ĠAir lines
ed e
ro e
Ġst eep
Ġde als
Ġmanufact ured
ĠEd die
ry s
ĠB it
Ġperson ally
Ġco ffee
Ġret ro
ĠC ore
Ġarg ues
En c
Ġfight ers
f i
W here
25 6
artifact Id
m ake
ĠV eter
Ġdel iber
Ġ{ }
ĠA I
el ia
Ġproceed ings
Ġd ust
Ġn inet
ĠP att
Ġsh arp
Ġatt ributes
imb abwe
ĠJ en
" ))
m un
Ġspecial ized
Ġmem or
Ġper pet
ĠLiber ty
Ġatt ractions
Ġlegisl ature
ĠA er
Ġn ep
Ġto ken
Ġreform s
ĠA x
st age
arm s
ĠM Ã©
iz ard
own er
Ġvolunte ers
F ree
l at
ĠMan uel
ĠD ra
lik ely
S ocial
if iers
Ġro ster
ert on
Ġth reshold
Ġadvoc ate
Ġvulner able
Ġcomp ound
Ġprogress ive
Ch arts
Ġceleb ration
T oday
ĠSt ories
ĠW onder
K ar
ĠA ra
Ġsp atial
Ġbre ast
Ġsumm it
Ġb orough
at ra
is ely
Ġh unting
Ġgr ants
ĠH az
D at
ov sky
Ġsub urb
Sh ow
ĠPed ro
ĠY et
ĠP ent
ĠBris bane
B ecause
G rand
Ġscen ario
M or
ĠWars aw
it udes
Ġto urs
Ġexhib itions
ĠL ess
Ġcl usters
Ġmult ip
Re v
Ã ½
ug ins
Re qu
oot s
Ġsk ill
ĠT ake
ul ous
Ġnav igation
Ġdr inking
Ġorig inated
F in
ĠArn old
Ġtem plate
M er
Ġprov iders
Ġthere by
Ġfil ename
b n
Ġse gments
ol ving
ple ments
F ar
Ġunder graduate
Ġc odes
ic ia
ĠAll ied
al ities
ir ical
is i
ĠM ut
Ġsimilar ly
Ġb ay
Ġstr ings
Ġor th
Ġres erved
Ġsurv ival
Ġb ishops
el ing
Ġd anger
ĠTh ai
AC E
ĠH im
Ġspe akers
S eries
ĠE SP
c od
ĠDiam ond
isc opal
Ġexam ination
ĠB av
ys ical
iffer ent
ens ing
h is
K n
Ġfarm ing
18 49
Ġret ain
Ġen act
Ġto ured
Ġconf ident
Ġanal og
\ }$
ĠS oon
Ġtradition ally
ĠC ant
Ġrun ners
Ġmat hematic
Ġautom atic
Fig ure
F ont
ĠEm ploy
min us
Ġbul k
ĠE sc
Ġp or
itte es
Ġkid n
ver age
Ġsl aves
f ocus
Ġc od
ĠIm age
Ġcomput ing
Ð ¼
Ġge ometry
Ġmechan isms
ĠTra vel
ĠM orning
k an
Ġtr ace
ĠEr nest
Ġsing ular
ix el
Ġfail ing
Ġwrit ings
f old
ĠR oche
Ġem peror
Ġcry pt
Ġwind s
Ġyour self
Ġaltern ate
Ġbl ow
ĠS elf
z one
ĠBl oom
g rim
Ġread s
Ġmatch ing
it ars
art et
ic it
He ight
ch anged
Ġob j
ĠCh an
ar ity
ĠMont gomery
im p
ĠI C
out heastern
Ġdesign ation
ĠH IV
b ek
th al
ĠAl t
L oc
Ġint ense
Tit le
Ġgl ob
Ġsh ots
Ġbank rupt
b est
Ġm asc
Ġexpl oration
param eter
ĠIn nov
Over view
Ġc yl
Ġpsych ological
ĠB G
Ġcall back
Sup er
C amp
ĠS O
m ount
ĠD ol
Ġco ord
M a
ĠS oci
Ù Ħ
Ġrec alled
Ġaddress es
Ġreview ed
ose velt
Ġro cks
N one
w he
ĠBab y
Ġen vironments
ĠHar bor
ĠC reate
Te am
Em pty
eli hood
Ġequ ally
Ġexhib ited
Ġconflict s
h istor
ill es
ia o
Ġattend ance
ph ant
Ġext ensively
W in
Ġspect ral
Ġpart ition
Ġun ions
K ind
ĠE N
r ity
Ġj ew
Ġhistor ically
qu al
m aterial
ĠRh ode
art a
ĠG host
Ġfif teen
{ $
Ġneigh b
Ġc attle
ĠW orth
Ġbe et
ĠRe ading
Ġimpress ive
anc ement
Ġap plies
Ġent ities
Ġstand ings
ĠCard inals
} '
. -
t n
Ġj ail
Ġapp lying
ĠJust in
ĠColumb us
sw ick
H ash
ĠR av
Ġtravel ing
ĠP R
cont in
Ġf ur
ĠCo ach
group Id
ir ts
ĠWell ington
Ġphenomen on
unc redited
A rm
Ġh orn
Ġinc umbent
ic as
ĠJ erem
urs or
Ġexc ited
Ġvol leyball
185 3
ĠN y
Ġfl ash
Austral ia
ĠAd miral
Ġfast est
ĠR us
P T
Ġt ill
Ġunsuccess ful
ĠK ash
j ud
uc c
Ġper mit
Ġ ib
Ġdefin itely
am y
struct or
18 47
Ġh ook
ra ble
ĠL ot
ĠL ett
Ġvert ices
he ro
Ġfoot age
ĠFran Ã§
ĠH amburg
At l
Ġinvol ve
l ate
ĠD rama
ĠR uth
be ing
F our
ĠB ear
ĠGro ve
ĠNew castle
ĠÅ ł
Ġad equ
lin ary
ĠBel arus
ic ated
c lear
ĠS U
M ary
d al
ĠM az
m ut
Ġin g
c ases
Ġm igration
ro us
Ġh ung
Ġ Ø
Ġthought s
edd ed
Ġ ::
ĠLear ning
Ġinter val
Ġlabor atory
F rance
Ġel dest
Ġinter cept
Ġexpand ing
ĠC C
Ġhas h
Ġthere after
- $
Ġcoron avirus
I rish
o ft
ĠWil helm
Ġf ert
Ġcom plicated
found er
b olic
Ġcan n
Ġcomput ers
P ORT
Ġfilm ing
Ġfrag ment
ĠG az
Ġch rom
Ġa thlete
Ġcap abilities
Ġgard ens
Ġgalax y
D utch
w oman
z ing
ĠGreg ory
ĠC S
ĠT H
song writer
Ġrepeated ly
b ind
ac co
ĠF un
ĠEncyclop edia
Ġrespons es
ish a
z ig
Ġs ad
r ays
Ġsh ops
Ġb achelor
Ġbon us
Ġover ride
Ġaud iences
Ġpsych ology
f urt
Ï Ħ
Ġs izes
oca ust
ĠIraq i
Ġp ub
Ġburn ed
Ġbut ton
Ġd iver
Ġr iding
ĠAm bassador
Ġeg gs
m ina
ĠB ased
ĠE ld
im ony
ĠH at
Ġnovel ist
ĠJ in
Ġfor wards
Ġ rib
V A
m ade
ĠT alk
Ġsurpr ising
ĠRev ival
ad ows
ĠKaz akh
ĠLabor atory
á ¹
, '
Ġout door
AT A
ĠS M
iz able
ĠLeg al
ĠRon ald
Ġs ang
b oys
ĠR enaissance
The ta
ĠÂ »
ĠM ul
ĠM ills
L ove
ĠS ony
iv ial
Ġindepend ently
Ġdef ended
Ġjud icial
l ia
am pton
arg in
Ġb inding
Play ers
. ).
ĠS ang
her ic
Ġtempor arily
Ġp ump
Ġarbit rary
ĠAl tern
H ol
Ġper ceived
H as
13 5
ĠCor p
he ld
ĠP S
ĠF BI
Ġexplicit ly
t oken
Ġenem ies
T or
if inals
ĠTun is
ĠSoft ware
Ġsust ained
ec a
Ġst ops
Ġav iation
ĠRay mond
pr us
Ġcur ves
it us
Ġra bb
ĠNot able
Ġcl an
B etween
ĠShang hai
over ed
Ġen rolled
Ġprogram mes
names e
Î ¹
Ġsymbol s
land o
Ġvo ices
ĠR ams
Ġreserv es
ch annel
ut ical
Spec ial
ĠG olf
Ġprom ised
z ero
Ġinter mediate
pl ane
ett i
am ic
ĠR ah
Ch ina
Ġresign ation
c ache
h ome
ĠM ik
res ource
ĠSt ef
ĠI F
Ġproport ion
ĠA aron
ĠNap ole
ĠF oster
Ġhous ed
ĠB ach
Ġpower ed
Sing les
Ġhydro gen
Ġapprox imation
ĠTib et
Ġequ ity
ĠK id
Ġprov en
Ġanth rop
ĠLeg isl
rib le
FF FF
Ġcho ices
ĠId aho
ĠWeek ly
G ood
ĠAr med
Ġnot ing
Ġcomp ute
ĠC ox
Ġmem oir
J im
av ier
Ġpat ri
Ġagre ements
ĠT ab
Col lege
ĠAr c
ur as
Ġ å
Ġp adding
ĠPhys ics
Ġadd s
h ash
ĠBro s
eng ths
c ustom
w ent
ĠF ighter
ov ina
ran ger
Q ual
Ġre nder
und a
ĠN O
ĠKer ala
g eneral
il o
J ud
l arge
Ġl ights
Ġst ellar
="../../../../ ../../
Ġbreak s
H ttp
Ġh aven
S port
ĠR af
iv o
Ġaggreg ate
t z
Ġpit cher
W R
Comp anies
Ġc ust
b ank
ĠG ang
Pro perties
ĠH em
ĠH D
Off set
Ġs weet
Ġquarter back
ĠD ame
Ġorient ation
ĠK ill
Ġf er
A ud
ĠM C
ĠRh odes
ae us
Ġassoci ations
Ġtim ber
Ġd ogs
Ġbank ing
D om
ĠMil waukee
co in
ĠN ott
Ġal tit
p in
re b
ff bb
ĠJo an
Ġterror ist
ĠT R
Ġcent res
ĠK i
h arm
h agen
et al
Ġut ility
Ġprot ocol
ĠW ag
A z
ĠCh ang
ĠAn alysis
~ $\
d ouble
Ġtrav elled
u um
pro d
om pass
oc ate
Ġconvinc ed
Ġvol unt
int ers
om ed
ĠR aid
C ore
S oviet
Ġviol ation
ll a
return s
Ġcompos itions
st ock
Ġbig ger
r ors
Ġuncertain ty
im o
hab ilit
i ast
al in
R oute
Ġto ll
Ġcor poration
l iga
Ġs ectors
ĠRe form
ĠOut standing
Ġhypothes is
ro d
inem at
ok o
18 46
ĠTh under
Ġconstant ly
Ġdocument ed
ĠM obile
V AL
Ġal ien
Ġsubmar ine
ĠNorth west
ĠPal mer
il ateral
Ġmet ropolitan
L ittle
ĠF ish
ĠC ec
ĠP eng
Ġm ilk
Ġre organ
ol ves
ic ht
Ġden otes
atche wan
in ery
by ter
book s
Ġpl acing
ens en
ĠP rest
ĠW ald
Ġdro ve
Î ½
h alf
ĠĠĠĠ ĠĠĊ
Ġtele phone
Ġs ugar
ĠRo osevelt
o op
ĠV illa
s u
ĠPro duct
Ġg ran
amb ers
Ġbut ter
Ġalleged ly
Ġl ibraries
ull ah
Ġarr iving
D es
Ġtrans formed
ĠJ ur
Ġex empt
p res
Ġliter ally
Ã© r
7 50
ve ill
bor o
Ġfoss il
ĠDe uts
ĠGu ild
ĠCl imate
Ġiniti atives
}} _{
K O
d ebug
Ġsudden ly
ick en
In c
B ill
Ġmyst ery
ĠMal ay
ux iliary
h all
Ġmanif est
Ġtr ump
eng ine
ĠBulg arian
ar se
ĠD ouble
leg raph
Ġlog o
ĠWild life
s ession
Ġin tern
jo in
R est
Ġchalleng ed
ut a
Ġpre lim
Ġfr ust
Ġmass es
Ġsusp ension
Ġcompl iance
def inition
ĠBenn ett
ĠT ong
ĠN ak
yl um
ĠH aving
Ġbatt alion
c ano
aur us
ĠFour th
eg al
ĠSc ar
Ġch ronic
ĠSt ore
E ven
ack ing
An n
Ġcivil ians
Ġtrans it
inter face
Ġex ha
Ġdire ctions
Ġpod cast
ĠFried rich
V ER
Ġcur rency
ĠCab inet
Ġrel ax
ĠGab riel
rom ise
umb ai
Ġb one
ĠK ate
Ġdispl ays
Ġconduct or
Ġcoordin ate
ĠC inema
T reat
ĠEs sex
Ġel abor
Ġauthor ized
oy age
ĠOak land
Ġev ident
Ġart work
ĠB oe
Ġrest ore
Ġpropos als
ĠTom my
ĠPl anning
ĠPaul o
Ġt ip
Ġtour ist
et own
ĠDomin ican
Ġgraph ic
ern ess
R ugby
IC E
ĠCap itol
ĠD id
ĠClark e
Ġel ite
b org
ĠBen ed
ĠIsa ac
ĠMc L
am ation
ĠC ert
================ ================
ĠĠĠĠĠĠĠĠĠĠĠĠĠĠĠĠ ĠĠĠĠĠ
ĠT O
pr ises
Ġtri ple
w art
ĠD aw
Ġf abric
Ñ Į
ĠF at
P D
Ġob st
ĠBrun swick
oc ene
ĠY ellow
alt ies
Ġn ice
Sm ith
ty pes
ĠMe chan
bl ue
Ġopt ional
Ġthro wn
ĠA my
ĠMethod ist
br ace
ĠChe ster
ĠRey n
Ġcop per
F ictional
th ree
uc he
ĠKn ights
ĠF eb
Ġj u
Ġsumm ar
ĠT odd
Ġdev ast
ĠLeg end
15 00
Ġ> =
text rm
Ġpath s
Ġaff air
Ġachie vement
: (
ok u
Ġs ailed
O pt
ĠC le
ĠP ick
Cont ainer
Ġmut ual
cl ip
ĠÃ ł
W estern
ĠCar r
uck et
ĠFran co
Ġbl ues
em e
Ġn aturally
bro ok
Ġcert ificate
is che
R h
Ġep id
orn e
s elling
veill ance
4 50
Ġre nown
Ġf ro
A uthor
ĠG amb
ĠAh med
ĠY es
am med
ĠScot ia
ĠE ight
Ġab ilities
sh ore
Ġâ ĨĴ
enti eth
ĠA ires
Ġ( âĢľ
Mod ule
ace utical
equ al
ĠJ ak
Ġun p
Lou is
ĠSp encer
Ġpo ison
ĠVir t
lin ewidth
Ġc oc
ĠRe ed
anth rop
ĠAgain st
ĠD im
ĠF ly
Ġrecommend ations
Ġcons ensus
Ġrece iver
Ġdistribut ions
ia z
ĠK ra
Ġent ers
Ġhuman ity
Ñ ĭ
appe ared
$ _
Ġlist ening
L im
Ġsp ots
ĠE in
Ġor n
ĠO w
ing en
ĠM ade
Re ference
f lix
Ġsim ulations
Ġsh orter
ERR OR
er ious
ou p
Ġreal ize
Ġdecor ated
Ġres ort
Ġpubl ish
ĠHar per
def ined
Ġg host
ĠInd igenous
p iece
ĠIndones ian
OC K
Th read
Ġmoder ate
M ur
S ong
Ġed itors
ĠCirc le
Ġor che
Ġbi as
ĠN g
ON E
ĠAct ress
Ġth orough
the re
Ġrem ind
ly ph
c p
Ġamaz ing
ĠMon ey
ĠEngine ers
if ice
Ġt issue
ĠLe vel
ĠM s
under line
Ġcart oon
Ġthe sis
}} ,
ĠFa ith
Ġal ert
l ag
ĠSc reen
Ġm apping
ĠW inn
Ġdepart ed
ĠInd eed
ret ion
intend o
D L
ĠInt eg
cos ystem
Ġmer ch
ans k
Ġdisestabl ishments
h im
ĠUg anda
Ġesc aped
Ġd ens
Ġw atched
ĠC u
ers hire
ĠMer it
on omic
ĠEag le
j or
ST R
ĠPr ague
Sp ace
ĠU ser
Hen ry
L iter
ĠBaron et
ut ing
part y
ĠB ent
ul er
ĠRevolution ary
be at
Ġgra ve
w hen
text sc
Writ ers
str ument
ĠB ears
n ell
Ġregul atory
Ġgu ys
Cent ral
ĠMag n
Ġemp ire
Ġdec k
ac hers
Ġrec all
Ġanal yst
clus ions
ibl ical
F ull
Ġvary ing
ial ize
sub figure
sen al
Ġfor cing
av ia
Ġbus es
b oth
Ġto ugh
ĠCl oud
Ġboard s
Ġachie vements
v ector
ĠMon th
ĠPlay ers
ust ain
ĠC ork
D esign
Ġas p
Ġsurviv ors
iet ies
f ive
f ight
Ġh unt
ĠN ancy
Ġman ual
Ġmiss ile
ogg le
Ġatt itude
er en
ac ional
i ens
ĠP aper
Ġsuggest ing
Ġan chor
ĠH ale
Ġfall en
Ġinduct ed
ĠK il
b ian
ĠV II
Ġ( $\
ĠS old
ĠG and
ĠE lection
Ġdebut s
Ġc ow
ĠCh a
look ing
Ġknow ing
foot note
Ġpro x
foot er
ĠL isa
ĠPar ks
ĠEc uador
ĠF lying
Ġrat ings
Ġcomment ary
Ġl akes
Ġenc ompass
ĠP rison
Ġl ad
os lov
Ġvolunte er
a ude
~~ ~~
Ġl ux
As ync
ic z
Jos eph
Ġmon arch
ĠMan it
Ġtrans actions
ilib rium
cl ick
ie u
ĠCrim inal
unc an
Ġens emble
Ġclos est
Ġmarg inal
Ġmon astery
Sched ule
ord ered
Ġ* )
sh a
Ġpione er
Ġless ons
ĠA ub
ĠE le
Ã© g
ĠT all
Ġhappen ing
ĠV oice
uch i
Ġphys ic
Ġlimit ations
vert ed
ĠS A
ess a
Ġrel ay
wid get
ĠTas man
ĠShe ffield
OR D
at em
Ġbro w
Ġrecon struction
ĠCroat ian
Ġfollow ers
in as
Ġgold en
sp ective
He alth
ar is
ĠBos nia
Ġsusp ected
de lete
ĠMus ical
Ġfle w
M R
te chn
ĠVal ent
Ġcount s
subset eq
Ġadmin istered
Cl ick
hand le
Ġab ortion
18 45
ĠD anny
ĠZ imbabwe
Ġc iting
ook ie
ĠDist inguished
I reland
Ġcollabor ated
s n
Ġl obby
it ational
Ġdistinct ive
att a
ĠK as
Ġinvestig ated
Ġfeed back
ie ve
Ġpar ad
ĠSeb ast
/ .
Pre vious
ĠB ag
st ration
New s
ĠLi u
Col lection
ak u
Ġhead er
lev ard
ĠAdv anced
Ġinst ructions
Ġspecial ist
ol ics
Comm unes
Ġgu ess
ĠMont e
W ho
ot on
Ġprint ing
Ġout comes
Ġun expected
Ġeval uate
P ac
Ġt ables
H ost
Ġstream ing
Ġre actions
k et
Ġmidfield er
ĠAng els
Ġoverw hel
em in
On ce
}^{ -
Ġann ex
Ġbomb ing
Ġh yd
et ics
U k
ĠAdvis ory
Ġpredecess or
=" _
ĠMot ors
Ð¾Ð ²
ĠT rain
Ġconn ects
ĠNever theless
ar ians
i ago
Ġhand ed
' >
ĠHol mes
Ġeditor ial
Ġc ache
Ġrul er
ĠEX P
Ġpri ests
c ock
ĠVal ue
iv ities
ĠRod rig
Ġinterpret ed
Ġsole ly
Ġf iscal
Ġext ending
M ill
ort heastern
Ġr ice
ĠVlad imir
Ġh ub
umber land
ill iant
Ġam bassador
or um
Ġp ill
J son
ĠCy cl
ĠPear l
ĠG ene
18 39
( :
Ġneighbor ing
or p
Ar gent
b ootstrap
ĠC ancer
ĠA w
Ġcan al
V I
ul ates
Ġc m
Ġreli able
Ġemploy er
ĠH ave
Public ations
ĠLeg ion
ĠPr inceton
ĠHer o
Ġcirc ular
Ġhor izontal
=" /
Ġin hib
Ġfor ty
ĠGard ens
Ġdirect ory
ĠSp ect
Ġab oard
Ġshift ed
Ġdevelop ers
ĠA j
ĠJ ung
end ix
ur bs
el o
H ouses
b uilt
Ġpro l
Ġpract ition
uan ian
c ity
ĠC ele
ĠInstit ution
Ã Ĺ
b uilding
St ore
Ġvers e
ĠAg es
ĠJenn ifer
Ġconstitu encies
ĠLuc as
Ġ ..
ĠO wen
re q
Ġg ear
ĠSh ir
ĠJama ica
I X
ot er
") );
ĠStat istics
Ġdifferent ial
ĠJac ques
Ġs iege
al yt
Ġrec ruit
ist le
Ġ ell
qu et
Ġcomp ounds
ffic ients
M att
ĠR T
Ġmix ture
Ġprom in
ut ter
G reat
ĠMal ta
ĠC lear
Transport ation
Ġarchae ological
ĠW als
Ġbrig ade
ĠC raw
Ġas ide
ĠCom edy
Ġcatal og
d istance
u ania
Ġcont ents
Ġremark able
Ġhar ass
ĠByzant ine
Ġsub set
l ive
ĠStock holm
ĠL ac
Ġsc andal
Call back
Ġres iding
Ġres olve
ĠOr d
C ities
Ġ ).
ĠB rid
gl obal
Ġpun ishment
Ġsatisf y
ĠD in
ĠD j
Ġelev ated
ĠS N
Ġgrad uation
T ER
Ġfif ty
M atch
ĠP owell
Ġpian ist
Ġacadem y
ĠF oot
1 18
Ġcitizens hip
ex ports
ĠTh ings
ĠPan ama
Ġexpert ise
Ġre ly
ĠDes ert
lim its
IT Y
ĠHop kins
ĠS ullivan
ĠO ber
Ġwel come
ĠPro perty
2 20
ĠL ex
ĠL amb
ell ers
Ġstreng the
Ġw ake
Ġ" [
ĠZh ang
ĠP icture
il ian
ĠJul ian
ath a
ĠComp etition
Ġpil ots
ourn ey
Ġst ick
18 44
Ġv e
Ġsh ipping
ph ib
Ġshe et
w ords
h op
ad ier
man uel
rit ion
Ġte a
h s
} "
Ġl attice
18 37
12 7
el ly
Ġair line
ij a
found ed
ĠK ol
US A
ĠCy prus
ĠSom erset
al us
abl ing
ĠDav ies
Ġse eds
spec ific
Ġvar iants
ĠPer th
Ġrad ar
ĠYugoslav ia
b ird
Ġfound ers
om atic
Ġb ell
ond o
Ġexecut ives
it ic
ĠS ul
ĠK rish
ĠBr ussels
im mer
Ġattack ing
Ġdis orders
ĠBu enos
Col umb
Ġadopt ion
Ġathlet ics
g overnment
ard i
Ġcons iders
Ġsub stance
B oth
em por
Ġexpect ations
h ot
ĠBrook s
S yn
V ari
Ġrhyth m
ĠWood s
ĠOriginal ly
ang ered
ĠF iction
are a
c am
Ġs ung
v als
ĠL or
P arent
ĠÃ Ĺ
Ġcompris es
ard ed
Ġt ale
ĠESP N
Conn ection
sh ops
Ġinh ab
Ġremember ed
ĠE state
Ġcur riculum
om ar
Ġreserv oir
w yn
Ġentreprene ur
M ah
Ind ia
Ġwebs ites
ĠEx cell
ab i
ĠH ass
ber y
Ġor al
W ater
Ġas h
Ġconduct ing
Ġterm inus
ĠSw an
Ġpr ayer
ĠL if
Ġdivor ce
Ġrevolution ary
Sett ings
ĠGram my
Ġsp ell
ĠH ait
H R
ar in
e u
ÅĤ aw
Ġdistingu ish
Ġd ense
ĠL akes
Ġpar ams
Ġgu idelines
stan bul
en v
es a
Ġw orn
ĠS ig
im m
ĠCub an
Ġob sc
ĠMarc us
S everal
Ġstud ios
Ġhead ing
intend ent
ĠC F
F ort
Ġc avalry
n ut
Ġgen es
O G
Ġun likely
ĠHer ald
l ies
ow der
ĠSalv ador
open hagen
ĠL az
ĠE g
Ġinvest ments
N orthern
anc el
Ġacknowled ged
__ (
: \
iss ues
ĠH us
Å Ļ
ĠC ann
AT H
Ġsup p
S ession
spec ies
erv ing
Ġconclud e
ĠWrit ing
Ġaccommod ate
Ġco at
ĠK umar
ĠPet e
Bl ue
ĠG iven
ĠDur ham
B i
Ġrefer endum
ĠM om
Re al
18 12
Ġmed ic
< \
res ults
Ġfl our
Ġsur faces
ĠL oc
Ġj av
Ġsport ing
Ġf ame
reg ion
Ġqual ification
Un incorporated
Ġvar ied
ri er
Ġl os
ern ame
U D
Ġh ills
er ie
en eg
ra its
ĠBl ake
Ġtravel s
Ġgraph ics
ĠNob el
ĠV ern
enc ia
isc her
ĠH um
olog ically
> ,
Ġfail s
rep resent
g ra
Ġacqu ire
Ġsla very
Ġsc r
ĠAnd rÃ©
ĠCom plex
em ann
Ġr ally
Ġpop ulated
ĠWest minster
Ġdevelop er
Ð ¹
Ġl ots
is ers
Ġhe ter
k t
18 36
ol utions
Ġch apters
Ġart ifact
ĠM umbai
Ġpar agraph
ĠSask atchewan
ĠA chie
Ġlo ans
ĠM ull
ĠS ey
| ^
ri ke
Ġ\ ;
ĠF olk
ĠSus sex
sc ill
18 41
g ary
Ġwar fare
pl an
ĠEm ily
ph is
m ith
Ġdescend ants
ĠR ice
Ġext inct
Ġh ide
Ġtro ubl
Ġde lete
on so
) ).
RO M
W ashington
ol ine
Ġprepar ing
stit u
C r
h ou
ĠLegisl ature
ĠR N
ĠH ir
ĠApp ro
ĠS uff
ish i
Ġun incorporated
he ws
Men u
Nav Bar
Ġswit ched
Ġcat hedral
ath y
Ġch a
Ġdepend ence
Ġgrav ity
ĠG row
ĠO S
Ġgener ic
ĠEll is
ĠMaur ice
= (
Ġc ave
int o
play er
power ed
ĠW ord
Ġconv ey
Ġun anim
ĠNiger ian
t ask
Ġt ab
ĠArmen ia
ĠMar io
Ġc ub
oc hem
add y
f il
u id
Int eger
Ġpregn ant
Ġsub sc
ĠS ource
Ġl ung
Ġdr um
eg ovina
Ġarchitect s
Ġmathemat ical
Ġh az
em ail
Ġres umed
ĠHe ights
ĠFran z
s outh
Ġkil ometers
Ġfle e
ĠE is
Ġd ra
on ne
Ġgu itars
ĠSecond ary
Ġnick name
ig ue
oy a
ĠConc ert
Ġtot ally
Ġprevent ed
Ġt enth
ath i
web pack
as ma
Ġvirt ually
de velop
Ġabsol utely
ĠFellows hip
Ġmem ories
ĠGrand e
Ġpredomin antly
Ġfor get
Ġsh ield
Ġcasual ties
Ġpros per
ĠS I
ĠGl ass
Ġjournal ism
ĠAbd ul
Te chn
h orn
ĠV e
ref ix
ll er
Ġf atal
ost ic
Ġcou pling
ov anni
ĠProv incial
ĠRe ich
cl osure
Ġb read
Ġde ce
int eg
Ġlist ings
at z
ĠT i
m ology
Ġdiss olved
Ġh ang
Ġrem ix
ĠAp oll
ĠN as
ĠH erm
ec ca
ĠI gn
UL T
ĠMig uel
ĠJohann es
× Ļ
c ategory
Ġyield s
ĠB od
ĠK or
p adding
Ġnation wide
ĠCamp us
Ġtra ff
P arser
Ġcompar able
Ġy ard
cent ral
Ġbi ology
Ġrenown ed
Ġresearc her
ĠN ATO
Ġcross es
ĠSh in
Ġr ifle
Ð½ Ð¸
o fficial
Ġinstit ute
d agger
ĠF ind
play ing
Ã ¯
ĠDec ision
Ġsatisf ied
h over
Ġth rew
anc ers
uls ion
Ġa est
Ġphilos opher
ĠIndian apolis
arch ive
24 0
g rid
Ġfor b
ym pt
Ġover come
gorith m
ĠP ep
pan el
Gl obal
ac ular
bl og
P ool
Ġdef ines
ĠTest ament
Ġprelim inary
ed o
ĠD ig
av ior
ĠDirect ors
ah u
g ood
Ġgovern ance
ĠArch ae
Ġte eth
ĠBr as
he art
ĠTw enty
Ġprec isely
Ġassign ment
ĠDivis iÃ³n
18 20
M F
% ),
Ġdemand ed
Ġk ings
Ġput s
T ab
C ur
ĠD y
Ġgrad es
Swed ish
o que
ĠS H
Ġimpact s
Ġrenew ed
art icle
up lic
ĠHol ocaust
ĠBG COLOR
ilt ers
Ġt ape
ĠStev ens
Ġexplos ion
att ribute
ĠBre ak
Ġstream s
Ñģ ÑĤ
Ġconf used
Ġdis ability
Ġup dates
Ġ$\ {
Ġbel t
Ġcomput ed
ĠP resent
Ġimprison ed
emb ourg
ĠPar ad
Ġcolon ies
W ell
im en
Ġdef ender
erg us
18 43
us p
Ġ[ '
ĠSimilar ly
Ġdocument ation
ĠD ise
Ġany where
ĠSch olars
Ġind irect
Ø ±
ĠE t
18 38
ĠĠĠĠĠĠĠĠĠĠĠĠĠĠĠĠ ĠĠĠĠ
ĠHe aven
ari os
Ġdefend ant
ĠC B
ĠHT ML
Ġ à¤
Ġst range
Ġa uction
c ia
iff e
ir gin
Ġrecip ients
Ġport folio
Ġf ate
Ġf isher
Ġcho ir
f red
Ġf iring
ĠOtt o
Ġfl ags
ĠNott ingham
ĠPak istani
ĠPlan et
Ġconsist ently
Ġst olen
Ġret riev
Ï ģ
ph an
Ġprest igious
Ġcl ergy
Ġsatisf ies
T w
and ro
aw i
uch y
Ġconsp iracy
ator ies
Ch ildren
ĠA F
ĠE ve
ĠVol unte
Exp ression
Ġco in
ene ath
ĠEm ma
col on
Ġto mb
ast ics
Ġencounter ed
Ġinter change
ĠSp ider
Dev ice
atin um
ill on
17 0
AN T
Ġanal ys
Pr ivate
ĠB M
ĠI R
Ġcomm enced
Ġinvestig ations
Ġenh anced
Ġper turb
s ized
Ge org
Ġst eal
Ġtor ped
Dan iel
ĠS ter
Ġun ve
ĠR achel
Ġman ages
Ġbas in
Ġown s
Ġsub mit
ap a
Ġhop ed
Ġinv alid
Ġst yl
Ġdo zen
EN D
Ġmidfield ers
ĠMan ila
Ġvocal ist
= -
Spec ies
T otal
ĠH aven
Ġreleg ated
ash ire
ĠViet namese
rit e
Ġball ot
Ġlight ing
Ġexc iting
ond uct
D ue
U RE
am ine
ĠB iography
ĠRes ource
ĠEx ped
p aren
ĠC NN
Ġhon ored
Ġsee ks
v or
rag ment
Ġcor ps
ion ed
Ġab olished
ĠAn a
T ags
Ġb ind
ĠW ant
spe aking
Ġveter ans
Ġign ored
h uman
Ġprot otype
Ġres olved
Ġprison er
g ender
Ġnational ly
18 35
Ġmax im
M s
ĠA B
v m
Ġarr ives
at um
ĠT yler
Ġqu oted
M o
ere k
ĠCo hen
l oss
Ġant ib
Ġcon ferences
ĠS ep
Tax onomy
ĠB ark
ex port
Ġenh ance
Ġd ying
ĠM idd
ĠS weet
Ġdoct rine
T ex
Ġt rick
ap ur
Dem ocratic
Ġc ouncill
Res earch
Ġv ow
Ġguarant ee
Ġbr ut
ĠAh mad
ĠWork ing
any on
ĠL ak
Ġpro sec
ĠS ent
ĠManit oba
s uccess
Ġhand led
e als
ĠSing le
ol and
Polit icians
18 32
ĠGe off
Ġb otan
Ġathlet ic
set minus
Ġor ange
Ġd ancing
Ġm emb
Ġcoe fficients
om al
Ġquant ity
Ġcro ps
ĠO pp
ĠJ unction
Ġbre ath
ĠP ain
Ġrev ival
Pol ish
Ġp unk
Ġam plit
W el
Ġspe aks
Ġp ace
od or
ĠD as
^{ -\
ol ver
Ġun w
Ġam id
un al
Ġreflect s
Ġperform ers
Ġpred iction
E ducational
ĠAp ost
H D
Ġint r
byter ian
Ġconsult ant
Wind ows
Ġaccount ing
ĠK in
Ġshel ter
Rep ublican
ĠP and
Ġsepar ately
Ġcul min
h art
ĠL LC
Ġgl ac
ibl ings
S ET
Ġqu een
arri ers
ĠPr int
J ean
ĠHind i
Ġcont roller
s eries
est amp
ĠA ur
Ġn an
Ġaccompl ished
Ġt ensor
Ġphys ically
ĠM is
to String
Ġport s
) ),
ĠL ok
Ġg aining
ĠN ine
Ġabs ent
ĠGen eva
lar ation
ĠLou ise
Ġfacilit ate
ĠUr ugu
Ġk ernel
Ġhol es
Ġaut ob
Im pl
ĠG y
N etwork
p olit
ĠPro f
ĠHerz egovina
Ġt ube
Ġden omin
## #
Ġrock et
ber ger
ĠSher iff
Ġl umin
conn ect
es ome
Ġp ist
ĠPro position
18 42
st ed
i ott
ĠOr lando
Ġcon ce
ĠF ul
ant astic
od ia
Ġsh aped
Ġwid ow
Ġtra ject
ĠDev on
omorph ism
Ġtheat rical
Ġaver aged
ĠT ir
mont on
Ġm es
Can ada
Ġst abil
Ġoff ense
Ġb onds
U LE
Ġ$ {
Ass ert
B ad
a que
b old
ĠF inals
Ġobject ives
s ome
yl an
ĠCa uc
ĠM atch
Pl ayer
Ġpr ince
ĠC openhagen
ur ated
ĠRes ults
ĠK eep
× ķ
per t
f r
Ġs le
Ġpre val
ct uary
Ġconj unction
ax y
ms g
ari us
ĠShort ly
Ġburn ing
ĠT iger
Ġb ills
ĠEx hibition
script ions
Ġnovel ists
ĠS of
Ġdial ect
ĠL iv
ĠO z
Ġnot iced
Ġd ancer
Ġind uced
omorph ic
ĠC redit
ĠD eg
oy le
ĠC ome
B ody
al og
Ġrel atives
F red
ĠH il
un i
ĠWy oming
L ight
Param eters
aj i
add ress
Ġqu ad
Ġport ions
J ul
ĠB elf
Ġsever ely
M aster
Ġmain tains
es ian
Ġset up
Ġperman ently
ter bury
ot yp
Ġare na
Ġopin ions
ĠAssoci ate
ĠC ategory
arri or
Ch ief
D oc
zh ou
Ġen orm
D ir
p her
P G
ĠV il
Ġs hed
Ġaffili ate
ĠC ort
Class es
ĠSol omon
Ġrecru ited
W id
un ing
ats u
Ġtrend s
Ġst roke
Ġsufficient ly
Ä ĩ
Ã¤ r
Ġdeclar ation
Ġl iver
ĠB ody
Th us
Final ly
ch ief
ar u
Ġload ed
Ġstri king
ĠPo etry
ĠJul ia
Ġmus cle
Ġob l
H ouse
m itt
t ry
ĠS ex
ĠAnd roid
Ġe cosystem
ĠFif th
L iber
ĠKenn eth
op ened
Ġcent ered
ĠSc out
Sing le
y c
Ġprotect ing
ond e
ĠM TV
ĠD uncan
S ummary
ĠSh ield
ĠBou levard
ax is
en i
ĠGl obe
c opy
f ramework
ĠG othic
ed itor
ph abet
Am ong
angel ical
Ġpoll ution
; /
T T
Ġund efined
Ġvict ories
o il
ĠL ords
Leg acy
W il
T erm
Ġt ier
Ġcompl aint
sl o
inn ed
Ġtra ct
Ġc ad
us a
ĠCh ase
ik es
' ],
Acc ount
Ġperform s
X T
Ġsec ular
Ġl ying
ĠT otal
ĠLith uania
Ġcommun ist
Ġdeterm ination
Ġche ss
ĠBl u
Ġdisband ed
Ġhost ing
ĠCorn wall
ĠCard inal
is dom
Ar thur
pl ugin
h ad
Hel per
> .
oy e
ĠD oll
Ġschem es
Ġfe ud
up le
Ġpit ched
ar r
Ġunc lear
Ġ{ {
ch air
ĠR ush
ĠEd mund
Ġh ate
O B
Ġbre eding
ĠAndrew s
ĠEthiop ia
ĠP ink
Ġpost p
or rect
Ġgu ards
ĠM old
ĠTit le
u ity
t ri
m ass
ĠĠĠĠĠĠĠĠĠĠĠĠĠĠĠĠĠĠĠĠĠĠĠĠĠĠĠĠĠĠĠĠ ĠĠĠĠĠĠĠ
Ġo w
As ian
Ġd il
ev al
Ġrespons ibilities
y ch
Ġro ws
Ġexp enses
ĠRail ways
ĠCommunic ation
Ġtack le
op ing
Ġph ases
S chema
c ross
I ter
Ġche st
Ġimprison ment
m n
S N
ou x
Ġsyn onym
ĠGer ald
Ġcomput ational
ne apolis
en o
Ġaccess ed
Ġfl ank
Ġhigh lights
ĠBe ing
ĠD ynam
od ot
Ġvar ies
Ġcap ita
ĠEvent ually
ack er
Ġsculpt or
Ġ$ .
Ġwar rant
L ook
F ac
P ers
Ġsuccess ion
Ġlik ed
he ll
O l
Ġe ating
th row
B road
Ġm erc
Ġmag net
ĠU ntil
f ony
ĠArm strong
Ġb rew
F alse
ĠM ang
ĠR ut
Ġremov ing
Ġpres idency
Ġch ore
v ideo
ĠG ren
qu in
ĠPal m
Ġass et
ib an
Ġgener ating
group s
B er
R ay
Ġgather ing
ĠCol in
Ġo scill
Ġrob ot
Ġwalk ed
ĠT ampa
ĠRichard son
Ġcomed ian
ĠNet flix
Ġnep hew
Ġin fer
Ġprec ise
ĠGl ou
ro sc
P tr
Ġgrand son
din and
S n
Ġra pe
Ġpra ise
ĠIns urance
Ġav ailability
sh ape
Ġgovern ed
Ġoccur ring
Ġcon qu
ĠPresident ial
ra id
B ul
Ġenter prise
er ver
Ġra id
Ġback ed
Ġen roll
ym ph
p ot
Eng ine
Ġp ap
ĠIs le
Ġmur ders
D IR
Mod ern
Ġd inner
M ean
Ġbe ars
Ġm il
Ġcl othes
let te
Ġm m
Def inition
Å Ľ
J ac
Ġcollect ing
ĠP os
F oot
Ġcompris ing
s ay
Ġconf usion
ĠCol lect
ĠD O
Ġj oy
S u
Ã© m
ĠAl bums
G ET
Brazil ian
Us ing
ĠCor por
in ology
Ġour selves
im er
av ian
Ġm ild
ĠEx ception
L uc
Ġkeep s
Ġreb ounds
ĠAb original
) {\
ĠBat man
ĠForm ation
Ġconcent rated
-- >
uis ine
ĠS ept
ĠPlay Station
ed it
ĠB anks
ĠR ule
æ ľ
ĠG Ã¶
Ġmain land
ĠMet al
ear ance
Ġwe aken
Ġjo ins
Ġam endment
Ġnot ation
B rien
ĠMed ic
Ġtest imony
ÑĢ Ð°
ĠHous ing
Ġtick ets
art en
Ġlegend ary
ĠYank ees
Ġdesign ers
2 30
orient ed
Ġse ized
Ġinf inite
H F
Ġ$ |
Ġfre ight
Ġw ore
Ġdiscip line
Ġnom inee
Ġrap per
Ġl ar
Ġbeat en
Ġs a
ik ing
Ġterror ism
ub ble
ĠY an
Ġind oor
F re
ĠBrad ley
Ġproject ed
cl oud
Ġhighlight ed
Ã© l
Ġpar se
ĠPsych ology
Ġt ension
\ }
ĠNe ed
ĠBa iley
ĠReyn olds
Ġun ity
Ġhom osexual
ĠPop ular
Ġadvis or
ĠF ed
equ als
Ġbrow ser
ĠO st
ĠK arn
Ġmyst erious
ĠInter view
Ġh alt
ew ise
Ġcir cles
Ġinstitution al
ĠMem phis
el ong
ĠN urs
Ap plication
B ob
Pat tern
\ _
D ialog
ĠTh an
ĠSpe aker
ĠD ale
á ¸
Ġimp ression
Ġbe er
rand ed
in v
as is
le z
N Y
ĠK ids
ĠC yr
17 5
Ġcare fully
ĠW arriors
1 19
ĠGib son
P RE
Ġobvious ly
ĠSh adow
? :
um ption
ĠS aw
che l
Ġe ase
Ġt ut
ĠB order
P ak
Ġsh r
ĠM iles
C ert
ĠK w
t ool
Ġer upt
col m
ethe less
Ġrepresent ations
ĠLanc ashire
ĠBey ond
Ġ} )
Ġfavour ite
Ġsal ary
ĠSant iago
h m
ĠK ab
ĠAn at
ĠR ib
n ai
ĠK urt
ĠR ules
Ġtouchdown s
A re
Ġo k
ĠSl av
Ġco ached
Ġm oon
ĠC rist
Ġdis appeared
Ġst ack
ig i
Ġph osph
ĠReg ulations
Ġinv ented
ĠCar lo
e i
Ġmeas uring
Ġstrict ly
Ġfl uct
C rit
Ġbacter ia
C ategory
Ġbus y
Ph oto
Ed itor
Ġang ular
Ġso ap
Ġtalk ed
I sl
ici ary
Ġf inger
ĠH arm
C ath
el in
Ġarch ive
Î µ
Ġhe m
Ð ·
ĠGl enn
ĠAmer icas
Ġint ens
ĠT ennis
ĠDat abase
ĠM ine
pl ugins
Ġmir ror
Ġf ake
Ġvot er
Writ er
ener gy
Ġexpl ored
Polit ics
N um
ĠG T
ĠBir th
Ġhousehold er
Ġdiagn osis
ĠGu ards
ĠC IA
ĠChel sea
bo at
at ile
ĠU RL
ĠRoll ing
Ġgrad ient
ĠDev il
an mar
Ġuns igned
Ġup set
Ġleg ally
Ġstri kes
ĠU tt
ĠK ind
Ġsyn chron
Ġ( *
Ġob taining
Ġb ag
ĠM ob
hel p
Ġaccept ance
ĠRe id
op hers
Ġdecre ased
Ġeffect iveness
Ġemploy ers
ĠAcadem ic
Ġansw ers
Ġbroad er
is le
] :
Ġdies el
Ġcl ick
ĠC avalry
Ġcreat or
Ġbar rel
ĠInit ially
Ġproject ion
P rop
v s
ĠF ras
ĠTreas ury
O bs
Ġinter im
Ġinter fer
Ġwal let
Ġsystem atic
S eg
ĠHend erson
ĠD esc
w alk
Ġch lor
w atch
esc ope
Ġsurpr ised
ĠLead ership
ĠC av
C ro
Ġret iring
ĠAll an
d ing
ĠL oss
R oad
ĠD ob
struct ed
Ġadv ised
Ġcust ody
g ie
Ġwarn ed
Ġexam ined
n Ã©e
B ased
l ived
k l
Ġreb els
Ġ _{
Ġal tered
ĠP orter
* {
W C
sub subsection
ĠPublic ations
Ġins ight
Ġevent ual
ĠHur ricane
ĠCath olics
Ġcomp atible
O wn
ĠP iano
ĠBry an
Ġrele asing
am as
Ġle ase
Ġdist ant
ĠLett ers
ĠInter ior
' \
Ġm ature
Ġcirc ulation
Ġep ic
ĠA ch
aut o
Ġtribut ary
Ġstrugg led
C itations
Ġtrans mit
Ġ$ [
ed uc
Ġag enda
ĠMy anmar
Ġne ur
ĠÃ ĸ
Ġvo iced
\! \!
is or
Ġp ounds
Ġquant ities
Ġfarm s
L at
Ġscreen ing
G reek
ĠS ons
Ġr iders
ĠWrit ers
im an
Ġtrack ing
cc cc
d an
L ead
G overn
____ ____
ib a
M ember
k w
Ġlik es
Ġib n
arg ument
Ġwild life
ol in
ĠD raw
Ġmolec ules
Ġrac ism
ĠN intendo
Ġpres ervation
ĠExped ition
Ġassum ptions
ĠR overs
ĠEm my
ĠP lease
le en
Ġens uring
Ġcorrespond ence
nd ez
Ġag gressive
Ġad vers
Ġkn ee
oot ing
ĠFe ature
ĠCelt ic
Ġsculpt ures
V ector
com ment
Ġtre as
ĠPh arm
p icture
Ġneighbour hood
Ġachie ving
Ġstrugg ling
C ond
Hand le
Ġing red
hand ed
Ġh ind
ĠC ut
Ġn est
Ġdiplom at
Pr int
De velopment
fam ilies
Ġaltit ude
Ġdiagn osed
Ġreb ellion
Ġsp ir
Ġne ural
M OD
Ġtem ples
Ġcalc ulate
m ma
ĠA ri
ur an
ĠE RA
Ġdraw ings
Ġkit chen
le ys
ĠPl ate
Ġbox ing
S equ
ĠContin ental
pro duction
Ġeduc ator
ĠIS O
Ġs ear
Ġa ster
ex cept
che m
ĠFrank furt
Ġadminist rator
id y
ĠCh oice
Ù ħ
D M
Ġman s
ĠCr us
ĠTrans it
Ġgirl friend
it an
umb ers
mid t
ĠV ers
Ġbur ial
ĠI de
Athlet es
ol ith
Ġster e
ig m
ol an
ĠW ikipedia
orm an
Det ails
ĠLuther an
IM E
Ġlocomot ive
ĠCurt is
Ġb icy
Ġch ains
Ġment ions
12 4
Ġgraph s
Ġex ports
Ġmet ab
M icro
Ġn g
conn ected
kins on
18 34
Ġrom ance
ĠHe ath
pro duced
Ġthin ks
T emplate
Ġmin eral
co q
Ġpip eline
Ġcongress ional
Ġd ock
ĠN atal
Ġextra ordinary
Ġlif estyle
ch ard
en ian
Ġt rem
Ġh itting
Ġnumber ed
ĠSim pson
V C
s ocial
bre aking
let ion
l ift
ett es
Ġall ocated
Ġb its
ĠNad u
Ù Ĩ
Ġf rames
as se
ĠLes lie
ĠCh ad
par ison
Ch annel
n st
ĠTr in
mod ules
G ER
eg u
Ġphil anthrop
abl o
Ġkil omet
ĠChem ical
ĠCom b
$ ^{-
block List
Ġdig it
Ġd rain
an z
Ġin cent
ĠEug ene
Ġcalc ulation
Ġpurs ued
ĠF eder
Ġb ats
ĠGener ation
N G
er als
ĠBened ict
ili ation
ential s
Ġt aste
Ġprec ip
% %
ĠFern ando
Ġhop ing
Ġinfl ation
Ġcont rary
C y
ĠK aren
ĠTh r
Ġs iblings
ĠGrad uate
Ġdiscontin ued
Ġf iber
ĠA A
> ();
Ġunder went
ak ov
Ġmodel ing
CL A
sup er
h in
Ġsett le
ĠCh in
ĠM ail
ch ing
Ġs id
atter y
aged y
L ock
_{ -
Ġfre ed
Ġliter acy
ĠLind a
Ġst ones
Ġm ad
Ġpl ates
end or
Ġsac red
oll ary
heim er
ĠMc Donald
Ġintro ducing
In valid
opl us
ĠF OR
ĠEston ia
ard ing
Ġatt raction
ĠTr uth
; ->
ĠN R
Ġwonder ful
fl oor
t ail
Ġrecon c
ellig ent
Ġf ung
ĠG ael
ĠAut o
Ġim plications
ĠC anyon
18 15
ĠP ir
Ġdeterm ining
et ter
Ġpre vention
Ġcam eras
ĠCoal ition
Ġinst ant
ild a
ip linary
ĠUp date
ins ert
Ġconver gence
ĠH ab
Base ball
Ġp in
ĠN A
-------------------------------- --------------------------------
ĠF ut
mult i
cf c
Ġinterview ed
Ġrend ered
g rand
ound ing
Ġbu ying
Ġo ct
ĠCarol ine
Ġwithdraw al
ĠCont est
Ġpolynom ial
h urst
Ġinv ariant
omin ated
ĠF ergus
dis abled
K S
Ġinteg rity
am ination
Ñ ĩ
Ġdeploy ment
Ġshould er
ĠF actory
ĠM aterial
est e
Ġdepos its
ĠIn ternal
Ġdr ives
Ġult imate
ĠH alf
ĠInsp ector
web kit
Ġserv ant
atern ity
il ion
Ġsur render
Ġcalc ulations
v ari
ad min
enn ium
ĠSt akes
Ġexpress ions
V ictor
Ġir regular
AS E
Ġvar ieties
ric ia
P ay
do i
Ġenc oding
Ġoptim ization
ĠParalymp ics
ĠKazakh stan
ĠHe at
Ġâ ĪĴ
H uman
_ +
Ġtri ps
Ġderiv ative
ĠNew port
Ġem otion
ul ent
Ġex ile
ĠFilip ino
mun ition
ĠCl if
Ġhom etown
B al
Ġbroadcast s
Ġinher it
Ġtr am
12 2
ur red
og o
Ġz ones
ĠC SS
ĠJ al
ĠY emen
m argin
Ġf ires
3 000
Ġprom ising
t ons
ĠGu itar
En vironment
ĠCh ancellor
ĠAdvent ures
Ġtow ers
Ġg rain
eg an
Ġtrav elling
k u
Ġe uro
th ird
Ġen listed
Ġident ifying
ĠDem ocracy
G iven
ato es
ĠChar ter
Ġexam ine
ĠP am
ur able
b ey
Ġ âĢĻ
Con f
ĠAr ctic
air y
rec ated
r ass
Ġv ectors
Ġen ables
ograph ies
Ġpos it
ul ative
ĠQ atar
Ġwhen ever
d ig
dom ain
Go ogle
_{ {\
sk a
ĠTan z
ogene ous
Ġex terior
E Q
Ï ĥ
ĠC opyright
ĠNot re
ch ain
Ġrepe at
Ġfl av
Ġed iting
Ġs its
Ġvol t
ĠB ec
ub er
ĠEnter prise
th ood
Ġdes per
â Ĩ
ĠAssoci ated
Ġtrans parent
bre v
ien ne
Ġwal ks
Ġbur st
ay ette
ĠWe ather
ar ag
Ġ" \
Ġagre es
Ġtrib al
ĠSac ram
i ary
Ġbound s
Ġdraw s
ĠF unction
ĠZ ion
ĠR iv
ĠGu atem
ĠCurrent ly
! âĢĿ
Ġo s
ĠD w
ĠEp isode
ĠM ales
T ests
en um
Ġsp okes
ĠLore n
ĠCh o
ĠApp eals
ĠD um
å ı
ĠI stanbul
Ġlect ures
ĠH ost
ĠCzech oslov
m ons
Ġhon ours
habilit ation
S F
re ational
ag le
ys ics
t ures
18 33
Ġs aving
ĠH off
ĠTh anks
r r
Ġafter math
A pi
ĠH od
ĠLiber ation
Ġbr illiant
es ar
K e
ĠMar in
à ®
Ġeng aging
um en
ĠM BA
Ġc ock
Ġn aming
ch anges
Ġg ains
Ġimp ressed
ĠLaw s
ĠIm ages
depend ency
at ics
En ter
ĠBel grade
col span
ot ypes
Ġmat rices
ĠCal gary
arg ed
A mer
ĠL t
cha ft
Ġ{ };
ĠDr ug
ĠStr ong
n ational
Ġl aser
C ustom
ĠG DP
Ġprot agonist
Ġtour ists
Ġb le
ĠL ay
Ġs ailing
Ġmyth ology
ĠEd ge
Ġcateg or
Ġstation ed
Ġw age
ri o
Ġh urt
Music ians
Ġkill s
Ser ial
Ġspect ra
om ical
ĠV ision
FOR M
s un
P ower
ĠB il
ĠEngine er
EX T
er os
Ġcorrect ly
C ross
Ġconscious ness
Ġthir teen
Ġprohib ited
mark et
ian e
n one
Ġli ability
Ġph on
Ġto uc
St ack
Ġper ception
Ġt ent
Ġover view
Ġhead quarter
in ks
Ġpl aint
ĠV at
rad ius
Ġcou pled
ĠW end
Ġam end
ist ically
w ild
Ġtri o
ĠPres byterian
Ġv ig
Ġflood ing
ç ļ
ĠB ever
Bel g
ĠE ye
st ud
ĠW ake
l ane
_ *
Ġsw ord
ĠMathemat ics
ĠS ou
he nd
ĠJerem y
ĠCl aud
Ġpurs uit
p it
Ġm ic
ĠLuc y
put er
trans form
Ġimag ine
m c
ĠInnov ation
ĠO slo
Ġdeep er
l g
ĠCreat ive
Ġkill er
Ġg amb
Ġattract ive
ĠEp iscopal
K A
Ġstep ped
I con
ĠOther s
Ġwe igh
ev ille
u ating
ĠM uk
ĠClass ical
Ġshall ow
Ġpup ils
enz ie
ĠTri ple
R oot
big g
Ġcoll ision
Ġflo ors
) _{
ĠI sh
m art
ĠEmer gency
ĠAgric ultural
Ġsur veillance
ĠGu ang
flu ence
ĠG ospel
ĠLyn n
Ġhelic opter
IV E
Ġelim inate
ĠChief s
Ġexhib its
Ġ| \
ĠMin neapolis
Ġf ru
Car l
Ġm aid
ĠCar roll
Art icles
ĠPrincip al
ĠAchie vement
Ġ< =
Ġtack les
Ġe leg
ĠK yle
Ġconv iction
ĠG ir
ĠF ast
ĠSc hed
Ġcorpor ations
ĠT rent
ĠJ SON
Ġb out
Ġacc us
HT ML
Ġin scription
p atch
k ok
ĠD oc
ĠEn s
Ġhe ir
ĠF alse
ap plication
Ġgener als
Ġdecl are
by te
Ġla ugh
Ġfre estyle
ĠCons ult
ĠW ool
M ot
ĠB urns
Ġthe or
Ġhum or
ĠSm art
Ġspec imens
ĠL odge
Ġim per
S ound
Ġm all
ĠZ amb
Ġrel uct
In s
Ġdisc overs
ĠR ican
ĠChe ss
xi ety
Ġterrit orial
Ġsp here
,\ ,
Ġsurn ames
ern er
Mart in
ĠSh ore
Ġwitness es
ĠFight ing
ĠBar r
Int roduction
Pro gram
Ġunemploy ment
Ġassum ing
Ġwork shops
ly mouth
s che
ĠLux embourg
Ġline up
M unicip
ĠCan terbury
ĠF ont
Val ues
S ar
ĠKing ston
Ġbankrupt cy
E q
l ab
Ã© d
um ble
rid or
Ġprompt ed
Ġblock ed
ĠInter state
ĠBur ton
ĠProgram me
Ġdim in
ĠThrough out
w ald
if ax
ĠF emale
ĠLiter ary
ip eg
Ġpre fix
ĠImp act
ĠRoberts on
ĠG R
ĠFer dinand
que z
Ġl ens
Ġb eneath
s chool
ĠN u
un ter
if les
P olicy
Ġland mark
ĠI O
AR Y
Ġcommunic ate
c ert
Ġm igr
Ġtr adem
Ġfar mer
ipl oma
uk u
int ro
Ġlearn s
Pro file
Ġre duces
ĠPl aza
et z
ĠH oll
Ġpolit ically
Ġin line
Ġinv oke
ĠInit iative
Ġmen u
Ġsh adow
ious ly
ĠEXP ECT
ĠT ales
ect ing
ĠBoe ing
P I
in yl
Ġd ish
ĠBas in
Ġche cks
Tur k
Ġper former
f oo
Ġstre ak
ĠMos es
ĠPop ulation
Ġnurs ing
re ach
Arch itect
Ġadvoc acy
Ġcons erv
Ġequ ilibrium
Ġcare ers
J on
Th ird
ĠL enn
( *
mod ern
Ġgrand mother
k n
ĠCom mercial
Ġcap ability
ric a
ab is
ĠMor rison
ĠP or
Ġre ass
ĠRel igion
Ï Ĥ
Ġs ew
Ġtransport ed
="../../ ../
Ġconv ex
12 6
S erb
In f
Ġb arrier
Ġmon uments
ĠS qu
ĠAnd ers
F ellows
ĠStaff ord
Ġcl ause
Ġfurn iture
L es
Ġbas ically
Ġb atch
ri ans
Ch ris
Ġexp ense
on ica
Ġprevent ing
Ġprec ision
communic ations
ĠH ood
ĠR as
Ġdub bed
m atrix
ĠInvest ment
g ine
Ġdis pos
Ġsam pling
ĠF antasy
ĠP ere
Ġcr ashed
ĠP irates
oun s
Ã± o
ĠPerson al
ĠCour se
ĠDub ai
Ġbe aring
Ġinc orrect
Ġcompl aints
ĠAst ron
Ġthe ology
ĠB ran
Ġviol ations
Ġcondem ned
Ġmet all
ĠSol ar
Ġpoor ly
Ġcomfort able
ĠA G
Ġexclud ed
Ġfour teen
You ng
H y
im ming
ash ing
or ic
ouri er
Ã °
Ġsup ern
Ġlegit imate
D est
Ġadvert is
S end
c ats
ĠIll ust
Ġbuild er
Ġtrig ger
ĠWag ner
pl ot
n umer
ester day
Ġver b
C opy
ĠH ern
ĠN uclear
ĠPro gress
Ġemb edded
ĠK iss
ĠZ ag
C ulture
Ġat omic
Ġevery day
asc ular
Ġby tes
ĠJ ob
ne um
ĠBarn es
B asketball
M arc
Ġdef ining
ĠAss ert
18 31
Re ader
ĠColon ial
ad al
Ġad mission
ĠĠĠĠĠĠĠĠĠĠĠĠĠĠĠĠ ĠĠ
im ity
Ġcustom s
ĠCor on
ĠBas il
re place
ĠSp art
amm ad
Ġcomp anion
Ġscal ar
am az
Ġproceed s
Ġdist ances
I ts
Ġc otton
ra f
Ġsmall est
erg ies
ĠHug o
ad ors
F K
ht ra
Ġpreced ing
Act ive
Ġpro c
ĠC T
Ġtrig g
Ġfemin ist
ä º
Ġmanuscript s
Ġf Ã¼r
Ġpropag anda
Ġcl ay
ad h
oc o
ip zig
N OT
ĠConstant in
s al
m ind
tt o
ĠH es
ĠAlexand ria
ĠA FC
st ation
y on
all a
ĠAl pha
}} (\
ĠR out
Ġprem ises
Ġreven ge
in ia
ag ic
ĠGeorg ian
ĠCons ider
ĠCal c
ord e
ĠEll en
Nov els
Ġbox es
Ġm ouse
ĠM ing
H a
Ġfa una
ĠSlov akia
E A
Ġcon form
Ġwe ights
Ġro ok
3 20
Ġb apt
D ele
P rom
Ġ Âł
ĠJo el
Ġw are
ap shot
anc a
_{ (
Ġneighbour ing
H or
Ġw reck
Ġsax ophone
ig nt
Ġ" "
ĠLud wig
Ġstead y
` .
Ġess ays
Ġdam ages
f und
ĠCh uck
Ġpriv ately
ĠI g
ĠW i
14 4
Ġref lection
ĠHead quarters
Ġpar as
ĠDisc overy
L R
ist o
Ġaut umn
j in
Ġon wards
Ġland sc
ĠDep ression
pen ame
Ġdivor ced
Ġarg uing
ĠExcell ence
g io
P ier
Ġcoll apsed
Ġcomm ittees
ĠAd rian
acc ount
L os
Ġa ug
ĠPhys ical
Ġver ify
ĠGi ovanni
Ġc er
rac use
in stall
un ar
Ġrain fall
ĠL av
ĠJohn s
Hung arian
) ^{\
ĠM IT
d ependent
ĠPubl ished
Ġc um
Ġun con
Ġtorn ado
H aw
18 28
ĠHigh land
Met adata
utt le
io let
t re
ar ound
ĠSur rey
Ġaut onomous
Pac ific
Ġc ant
Ġin cl
Ġp icks
ĠO N
ĠMon roe
t otal
Ġn urse
Ġcle ared
Ġinter ference
Ġam ended
C zech
i ership
G od
pe z
Ġam pl
Ġim aging
ar re
ĠU C
17 75
ĠLe op
__ _
ĠRich ards
ĠAlb ania
Nor wegian
Ġcont rolling
Ġs ke
ĠI BM
Ġhuman itarian
Ġpl enty
Ġp uzz
S un
Ġped est
Ġcho osing
Ġmod est
ĠTri p
V E
Ġenorm ous
ac iÃ³n
ir ie
ĠH ull
Â »
Ġt ens
Ġsur f
Ġhom eless
ĠA way
g ang
W ood
stad t
Ġsix teen
Ġ æ
ĠM aid
)\ ,
Ġbad ly
ĠT roy
ĠK ang
unn ers
ĠBelf ast
ĠC risis
Ġaer ial
^ -
r ust
d esignated
r ina
Ġundert aken
Ġdream s
O k
ĠP ret
Ġg ods
Ġcontinu ously
Ġhold er
Ġcommand s
Ġsymmet ric
rest rial
ĠL ives
Ġf ol
Ġdes k
Ġjoint ly
Ġr ivals
Ã¸ r
Ġoppos ing
Ġsuperv ision
Ġw ishes
Ġmet aph
Ġcogn itive
pro to
Id ent
he y
Ġconstra int
ĠEll iott
Ġassemb led
=" @
v irtual
found land
T ri
18 25
Ġstrugg les
Ġen v
Ġt ar
vent ions
Ġ+ +
Ġconsider ably
ĠAn imal
Ġpen et
Ã¡ r
le ading
k ers
ĠCom bat
Ã¨ s
ĠBed ford
ĠRoche ster
Ġp atch
pent er
Ġmod ules
sec urity
ordin ate
ĠUn fortunately
Ġbe ings
Ġbl ank
id ity
Ġr amp
Ġsup porter
ĠSe oul
ĠJ i
Ġsl ot
A uth
Ġf ract
Ġd war
m os
en ary
w ave
A li
he ng
ip ur
rit z
Ġeg g
ĠUnd erg
es y
Ġplan ets
E th
Ġl oves
ĠIn side
Pro duct
Ġdo i
Bur ials
ĠSumm it
om eter
Ġoccas ional
ed ar
Ġdon ations
ĠAdvent ure
aint ed
ĠB A
Ġpresent er
Ġdom ains
ĠSand ers
ĠEd monton
ĠAlger ia
V O
P resent
Ob j
J ECT
Ġ\ (
ĠInd ividual
Bo olean
Ġch orus
Ġwrest ler
Ġpregn ancy
Ġmechan ics
Ġphys icians
Ġsup pl
ĠL omb
ĠM ale
En abled
prop ri
20 2
ĠML B
it ems
Ġinvest ed
ach ine
ĠInter est
Ġmist ake
Ġp ending
ĠPubl ishers
Ġelder ly
l it
ag ne
ig ator
oc ide
Ġshe ep
am ous
Ġep it
em on
Ġassass ination
Dist rict
ar ium
g age
T ok
Ġgoal keeper
ĠAr senal
ĠMar ion
ĠParliament ary
ĠS isters
Reg ular
Dele te
c amp
18 14
en stein
Ġst rain
Ġfell ows
Cl imate
ev ents
Ġin comp
pass word
Ġst aged
Ġimm une
14 5
ĠAdd itional
pr ising
in st
ĠH ash
ĠN acional
Ġcompris ed
Ġsw ing
Ġinf ected
ĠBud apest
Ġb er
Ġinter ven
Ġsynthes is
Ġpro pose
ĠV III
ĠAntar ctic
T er
Trans action
Ġurg ed
Ġt iny
asc ar
ĠNAS CAR
}} ^
å ¤
Ġin ches
ĠA ircraft
Ġquestion ed
Ġform ats
Ġac claimed
M il
ug a
b eck
Ġmand ate
ĠEr ror
ĠCov id
h ra
ĠW aters
t oggle
Ġaff ects
H ER
Ġhot els
Ġbeet le
ĠT error
Cal ifornia
ship s
Ġas ympt
Ġr ings
Ġin quiry
çļ Ħ
Ġsk etch
Ġign ore
ĠSlov enia
Ġcol ours
######## ########
ĠD ir
ĠHamilton ian
if a
ĠK end
Ġdoll ar
Ġf usion
th ouse
ĠG em
ĠB io
ĠMe eting
KE Y
Ġfin ancing
Ġc uisine
Ġal umin
ript or
az ar
ĠMin isters
v iv
; <
ĠAlb anian
Ġpract iced
Ġsc ar
is ive
00 1
Ġeval uated
ĠFras er
Ġg ates
Ġwrest lers
Ġs or
Ġcontin ent
ĠMil ton
Ġupgrad ed
ĠH iro
), \
par a
Ġrout ine
Ġcon gregation
L o
W F
Ġlect urer
st roke
Ġscatter ed
Ġninet eenth
Ġprof its
ĠNapole on
io x
Ġwhe els
Ġseem ingly
ĠAlb any
V M
Ġgen res
k al
Ġenzym e
w edge
ong o
Ġsearch ing
ch in
ĠD ylan
Ġdefin itions
f ar
Ġplan es
Ġapp rent
ight ed
s man
oid es
=" ${
ĠP Ã©
Ġby pass
. *
z ens
ĠB Y
Ġ' /
lim ited
ĠEd gar
Ind ividual
ĠVis ual
ĠR oc
Ġde alt
conn ection
ĠD ow
he v
ĠBC E
Pop ulation
c pp
H ot
Sup port
Ġw ond
Ġsur pass
Ġmission ary
Ġcoe fficient
Ġam munition
ĠNik ol
Ġp ink
Ġap olog
Ġacadem ics
Ġstay ing
Ġt ends
12 9
s quare
Ġprotest ers
ĠS uccess
Ġv oyage
ĠCom ment
Ġcomb ine
leg ate
Ġtechn ological
Ġcour age
Ġlocal ities
track s
ĠUS S
w rap
met ic
load ed
ass ets
n ership
ĠInst agram
st o
Ġdisput es
ĠV iv
Ġg ray
Ġd ivid
Ġexcept ional
ĠCorn ell
Ġadequ ate
ĠC M
Ġsocial ist
M id
ass y
Ġm a
ĠS EC
ĠLet ter
ĠR ica
Ġneighb ors
ĠJes se
Ġdisc rete
ĠGa ussian
ĠTe h
ĠPract ice
I ran
ĠConstitution al
per p
Ġlast ing
ro b
Ġby te
Ġmot ivated
Ġwithd rawn
L ee
Ġt err
ĠY a
Ġdoctor ate
ĉĉĉ Ċ
ĠMont eneg
in is
ĠK urd
OD O
ĠC ly
2 10
hard t
u ine
Ġh tml
ĠMc N
Ġview ing
ĠX I
ĠUS SR
È Ľ
op a
ĠSt ream
Ġswe ep
Ġil leg
ii i
ĠLy on
j iang
em ia
Ġpresent ing
Ġlux ury
ad vant
ĠC i
Ġar ise
Sim ilar
head ed
Ġopen ly
Ġcab in
Ġin sects
Ġtact ics
c ass
ĠK ot
im edia
Ġscreen writer
ĠFl oyd
l ore
Ä Ľ
Ġpost hum
ĠCard iff
ĠA sp
ĠPl us
Ġex ecute
m ile
{ $\
M eta
_ (
Port ug
na issance
Ġt et
ĠBar b
Ġmilit ia
e ach
Ġdemon stration
Wid get
ard e
Ġaffect ing
ĠWes ley
Ġsens itivity
rem ark
h idden
ĠSe lect
Econom y
Ġv it
Ġimport ed
D er
ĠF an
Ġhur ricane
vol ume
Ġb tn
ĠU z
iz ational
Ġreal istic
ĠPrest on
sh i
ĠB ot
g it
ĠJam ie
sing le
B ir
13 2
Ġdisc ipl
ov ic
ĠFl ag
Ġmob il
Ġaddress ing
ĠRom ans
Ġdepict s
Ġrem n
ĠBur ke
.. ."
ĠG mina
N atural
Ch icago
ĠSant os
Ġg entle
histor ic
ĠD ock
ĠMar tha
Car thy
Ġaband on
Ġmark ing
ĠNew man
let in
Ġsl ope
ateg ories
Ġproceed ed
Ġsubstant ially
ball o
ced es
me an
role um
ĠH els
ĠObserv atory
Ġl ob
Ġpredict ions
= >
=" "
ĠTre k
ĠNe uro
Part icip
Ġd ign
y u
ĠRos a
ĠStep han
Ġl ady
odd ess
ĠW ick
Ch anged
Ġfund ra
Ġtreat ments
com b
ĠX X
ĠBeat les
t ik
Ġt ang
ĠCom plete
Ġen abling
13 3
Ġconstit ute
C ultural
o qu
ĠSer ie
ev o
ĠB ronze
Ġsent ences
Ġfin anc
a ft
Ġord ained
at isf
ur ations
ne z
ĠL ip
ĠLanc aster
Ġproport ional
Ġm arri
for all
Ġprosec ution
ant le
ag netic
Ġmer ge
F lo
B rown
M useum
ĠJ ourney
] ]
C ard
âĢĿ )
Ġcommission er
Ġg est
ĠR oth
Ġf unny
ĠC ool
ĠR esponse
Ġ ul
Ġc ens
erv ous
ex pl
ĠD iana
ĠSuper ior
on n
Ġaccommod ation
Ġre n
ignt y
Ġun ited
Ġdeg rad
Ġtraff icking
! ,
Ġen larg
ov i
Ġmanufact ure
ĠC airo
ĠMal colm
L D
ĠJul ie
Ġru ins
ĠL it
ĠAnd rea
Ġcount ed
ĠPer iod
I ll
Ġin herent
ĠBund es
ĠT ropical
Ġtr im
13 6
Ġtw entieth
Ġf erry
Ġpeace ful
Ġinhab ited
G raph
Ġmass acre
th read
ent er
Ġoblig ations
id an
g al
Ġat oms
Ġdis abilities
Ġexpl oring
ĠLouis ville
ĠFranÃ§ ois
ĠA sc
ĠE ducational
ĠSw ift
Ġs ends
Ġl engths
Ġrul ers
ĠPro gressive
ĠC ord
act ers
Con struction
Ġdet erior
P erm
Ġm ood
Ġless er
path y
ĠNap les
Ġwitness ed
Ġn ose
J S
' _
Ġeth ics
ev e
ain es
Ġsen ators
15 5
Ġstreng then
Field s
ĠMar l
W alk
uc ci
Ġpersonal ities
ĠE k
ast ed
ty p
S ymbol
um ing
en ic
ant o
Ġperfect ly
Ġneighborhood s
Ġharm ony
ĠPot ter
ĠK re
Ġserv ants
ĠS F
ĠD ew
osp ace
C red
ĠD ong
ĠL il
sm outh
Ġgener ator
Ġfavor able
Ġhe ll
ĠJ ake
le igh
ĠSpring field
Ġj son
Ġtra iler
g ae
18 21
Ġmand atory
Ġin ev
ĠH ook
Ġcor rel
Ġinter active
r ar
Arg ument
T rad
Ġscatter ing
ĠBrad ford
Ġroll ing
ĠFor bes
ac cept
Ġm aj
ĠRos en
ices ter
st ats
ĠC el
h ave
op rano
Ġend ings
l is
st orm
And rew
pen gine
add le
ĠM otion
ĠF L
Â ·
ins k
en es
Ġs ulf
ĠP ars
id ation
18 24
18 29
Ġb ore
ĠSerge ant
w pengine
Ġoverwhel ming
ĠSh ould
Ġfinal e
ĠP RO
ay e
Ġadv ances
Add itional
ge ons
Ġpe ers
S W
E ff
ĠW id
ĠC ounsel
amb a
Ġsur rend
n etwork
ĠG ov
um ann
Ġentreprene urs
Ġheadquarter ed
Ġm oll
Ġwork shop
ĠIm pro
ĠB alk
ath am
paren cy
ĠS W
ep age
Ã§ a
18 26
Ġisol ation
Ġfilm maker
ĠArch ived
Ġaccompany ing
ĠN othing
J oe
ĠN otes
Ġincred ible
on ce
car ballo
s ix
im i
Ġbusiness people
ĠBright on
Ġpron ounced
R ender
ĠKash mir
Ġem otions
Ġl oud
Ġnon profit
Ġto b
Ġfound ations
ĠN ixon
Que en
Ġacc idents
ĠSing er
b u
cm d
cont roller
Ġf ier
ĠIndust ries
ĠBor is
, âĢĻ
eg ie
ĠChurch ill
l ord
Sec urity
Char acter
Ġartifact s
R a
Ġinv ention
aras htra
Ġ( #
==== ==
h om
Ġgu ided
ĠAp ache
S a
ĠHun ting
J ava
it ary
ĠB end
ĠCam er
Ġt une
Ġinvestig ating
v ens
amp ire
ĠN ass
ann ah
ĠChron icle
Ġw ages
ĠBal let
au f
ĠLyn ch
By tes
Ġy es
ĠMax im
Ġim plements
Ġto pped
ĠUtt ar
Ġprof iles
il ogy
ĠP lymouth
import ant
Ġv ibr
ex per
ĠCry stal
ĠB R
Ġdepict ing
So ft
Ġbur den
Ġtal ented
T ool
Ġl ip
16 5
ĠÂ «
M ike
Ġdeleg ation
IN D
ĠRh ine
ĠEconom y
ĠS ustain
abet es
Ġpl ural
Ġcomb ining
5 000
P rem
ĠQ ing
cest ershire
Ġang ry
G al
less ly
ĠMar ian
spec ial
F ix
ĠR az
Comp et
Ġcomput ation
Ġfrequ encies
ĠT at
Ġout lets
Ġan ch
c ref
ĠS ap
em per
Ġsurvey s
s ime
id ays
iss on
Ġunder go
ĠLog an
ĠPart ners
ĠC ell
Ġdirect ing
Ġter rain
Ġm isc
P ublished
can ic
Ġvolunt ary
Ġcar ved
ĠNew foundland
Ġpro spect
gener ated
Ġvic inity
es ch
MA X
ĠChem istry
C ivil
Ġal phabet
ount ain
Ġexha ust
dep th
D eb
ad ic
ĠAr d
dist rict
ile e
Ġsan ctions
Ġw eren
Ġcomp ly
Ġb ones
dr iven
l oy
St an
C M
sime q
@ "
18 10
ĠG ates
Ġcontact s
e ur
sp ot
S hips
ĠS ed
r ift
Ġport raits
Ã¼ ller
St orage
ĠMar ÃŃa
ĠSh i
ier i
or ers
m us
Ġrecept or
ĠD awn
or ate
Ġpl asma
Ġencour aging
Ġtri angle
ES CO
... ]
Ġprop ri
us ers
ĠK ad
lo op
Ġhe ating
Ġtr ucks
Ġw at
Ġresp ected
ĠIS BN
Ġf ram
Ġconv oy
ĠL ed
Up on
ĠK oh
Ġactiv ated
Ġs unk
ĠP ine
Ġ} \
ĠTour ism
ĠRe agan
R R
Ġf ran
ĠNS W
Ġprox imity
Û Į
ĠC ou
UT C
ĠSab ha
_ ;
Ed it
Ġcomp aring
Ġn ights
Ġglob ally
Ġrem arks
Ġf itting
Ġnames pace
ĠMalays ian
Ġcritic ised
be it
Ġmathematic ian
ighth ouse
ĠG ross
In formation
Ġqu it
Ġrecommend ation
18 13
ĠDay ton
Ġsc aling
an an
Ġesc ort
×ķ ×
ĠD und
Ġinv erse
Histor ic
Ġdi ocese
ufact uring
ð Ł
ĠTh ir
Ġvacc ines
r ants
ox y
ĠSouth west
G rad
ĠL ey
Ġsm oke
Ġabsor bed
the y
ĠLin ux
atri ates
ĠBald win
v ae
ĠHar bour
Ġarm ies
Ġevery body
ĠGre ens
ĠSil va
' ))
h ouses
com ed
ĠWind sor
P ackage
ĉ ĠĠĠĠĠ
Ġg re
ant um
ĠMar ri
Ġd ressed
ĠMax well
$ ).
- (
Ġthe olog
ou rable
Ð ¿
Con st
ĠS ales
Ġcorre ction
ĠM oss
Ġadvis ory
Ġfore cast
rac ed
ĠMichel le
ĠB rent
ĠD ud
Ġpre y
Ġspons or
Ġg arn
Ġim plied
j et
ĠM O
Ġdemand ing
ĠK aw
ia e
ĠAr ms
Ġmar sh
de en
ĠCrit ics
prim ary
Y es
d ad
Th ough
ĠT ell
amp ed
Ġcert ification
ĠB O
il io
ĠPl at
Ġvac uum
Ġalign ment
bo olean
Ġdece ased
Ġlong time
l iter
ĠS ever
ĠB agh
S om
T F
Ġsomew here
whe el
ĠB E
ĠW ings
en za
Ġh ull
Act ivity
Ġbatt ing
Ġscen arios
Ġjav ax
ĠApoll o
ĠMar cel
it Ã©
ĠRem ix
Ġfeed ing
ERS ION
Ġstory line
âĢ ĭ
Ġte ch
Ġcontin ental
ĠF R
iÄ į
O ption
ĠLe ipzig
Ġs outheastern
ĠDor othy
Ġicon ic
ĠB ac
igh bor
uc l
ace ous
17 90
sq l
' }
ĠPro s
Ġsal v
ru ce
ll i
ĠGreat est
Ġhar sh
fl at
in ar
av ailable
Ġcycl ing
}$ -
fl ies
D ouble
In ternal
ess ment
Ġder ive
et ric
man ager
ĠPal omar
å ®
Ġp our
ag ascar
bass adors
mission ed
Ġspec ify
Ġgradu ates
A rab
ĠB j
Ġsatisf ying
ĠD ynasty
K h
MOD ULE
ĠZ ero
27 0
ĠKn ox
Ġunve iled
ĠMerc ury
ry ing
ĠL af
and i
ĠU FC
j query
Ġclass room
ract ed
ĠHonor ary
) }(
ĠC od
Ġgl obe
Ġmotor cycle
ĠP red
ĠBl air
ĠStr at
Ġfore ver
Ġhas n
F ire
Ġfrag ments
ul in
ĠBas ic
ĠJud a
Ġt u
Ġpubl ishers
13 1
ĠT ow
ik er
go og
Ġconven ient
Ġse al
ĠHay es
ĠLith uanian
cer pt
Ñģ Ðº
) ^{-
ign ment
ĠC anton
ut ory
St age
Ġhero es
Treat ies
c ro
st en
ĠRab bi
ĠJohn ston
Ġ+ \
ĠN orton
ĠRe in
u ant
oc ols
bass y
P AR
ĠAr ist
Ġple asure
Ġsoph istic
ort ium
Ġpush ing
ant es
ro ve
b uf
Ù Ī
ĠI L
Ġadvoc ates
ĠA FL
Ġdiscuss ing
Ã¡ ndez
Ġpl acement
End emic
Town s
da ughter
ant om
ann ot
Ġh ab
ĠH ert
z el
Israel i
ĠC lement
ĠBer ry
Ġdeleg ate
ĠCraw ford
ĠH ond
ĠJess ica
arri e
Ġrec reational
ĠR ever
Ġtransl ate
13 7
Ġsen ator
ĠGal axy
Ġveget ation
ĠPr ide
Re view
ĠC areer
ĠMon ument
Ġb alls
ĠD M
EC K
Ġtox ic
g row
reg ister
Ġc rop
Ġinc ons
% ).
Ġsup ers
}^ *
Ext ension
ĠR ifle
con v
Âł Âł
ĠJul ius
ĠStrateg ic
ĠV all
J eff
13 8
ak o
ĠV isc
Ġpar ishes
Ġsacr ifice
ĠRaid ers
Ġevery where
Serv ices
ĠCitiz ens
ĠRe ference
ch urch
ĠPant hers
ĠHal ifax
ep pe
I l
Ġsp ite
ĠLib ya
ĠH appy
Ġbre ed
P et
Ġphil osophical
ĠEston ian
F i
Ġqu arters
Ġinput s
ĠNE AT
be h
ĠAnn ie
Ġcontest ants
Ġt ap
ĠG ur
ĠWinn ipeg
cl ub
ĠR he
Ġdo zens
Ġexcept ions
I ce
ron ics
ĠShe n
fe at
il is
ĠC ash
elect ric
ĠL ah
Ġbom bs
G rid
Ġend angered
Ġsub section
Ġcool ing
Ġtorped o
13 4
Ġd ancers
prot ected
Ġp ig
L i
ĠG ol
Ġbass ist
F il
unt ed
Ġmission aries
Ġmos que
Ġexpl aining
ĠVirt ual
L en
} %
Ġload ing
ĠChile an
R ole
yl on
Ġtim ing
Ġad mir
ĠU P
ĠT ank
Ġsur geon
k el
Ġan xiety
M ENT
ĠM eyer
S at
Ġe q
ĠEm irates
Ġf ed
ĠMaced onia
Ġguarant eed
Ġrenov ation
Ġv ault
An th
j oint
ĠBra ves
Ġrival ry
ymmet ric
Ġis ot
ĠDe al
ar am
U ntil
qu ality
Ġinstruct or
Ä Ļ
Ġun n
Ġun pre
Ġtransl ator
Ġdec ent
w ang
ĠIss ue
Ġbatter ies
ĠS ometimes
ib ration
Ġexp atriates
pl er
ĠK och
ĠSh im
Ġprocess ed
18 18
Ġdram at
Ġval ued
ĠField s
ars ity
ĠĠĠĠĠĠĠĠĠĠĠĠĠĠĠĠĠĠĠĠĠĠĠĠĠĠĠĠĠĠĠĠ ĠĠĠĠĠĠĠĠĠĠĠĠĠĠĠĠĠĠĠĠĠĠĠĠĠĠĠĠĠĠĠĠ
Ġcare ful
Fl ags
ĠDo es
R ule
or get
ob uf
Ġund ers
m ove
Ġc ere
I ES
d iff
ĠRec ording
ĠV ale
Ġhigh ways
EE E
ĠW on
Ġg oddess
ĠMar ines
Cl ose
å ħ
Ġdet ention
Ġspread ing
Ġ$ $
al ions
opter a
/ "
Ġimm igrant
Ġrank ings
Ġpure ly
ĠFred er
E c
Ġv inyl
Sc ience
Ġconc urrent
ĠAm b
Ġreport ers
ĠCl ara
esc ue
at aka
ĠZ en
Fe ature
Ġr idge
3 30
ĠĠĠĠĠĠĠĠĠĠĠĠĠĠĠĠ ĠĠĠĠĠĠĠĠĠ
ĠRequ est
ace y
Ġsol ving
Ġ$ -
re lease
C at
.~ (\
Î »
Y our
Cath olic
m inton
âĢ ł
Un ion
ry ption
Columb ia
Ġpro found
S outhern
Ġpast or
ĠBes ides
ĠMar co
Ch art
ĠGreen e
Ġtob acco
ĠRec on
Ġce ase
ĠDod gers
ĠCom pos
Ġmiss iles
ĠWals h
Ġwick ets
ĠV ij
se at
ĠBra h
Ġac claim
oper ation
stand ard
g h
ĠK om
p resident
ĠI z
ate ful
im pl
Ġdiv ide
Play ing
Ġcl ip
ĠBuddh ism
Ġest ates
Ġfood s
Ġloc als
Ġelect rons
Ġg ig
Ġdevelop s
vel ation
ĠBang kok
Ġf action
In v
iling ual
Ġ' '
ĠTrib une
Ġge ographical
Ġtransl ations
Ġm sg
lim it
ĠR id
L T
B attle
oh an
ĠJ ets
ĠThe odore
ĠC ul
Ġper f
Ġpen alties
Ġcast ing
ĠGarc ia
Ġback up
Ġsynt hetic
c ourt
Ġeng ra
ĠJane iro
re view
ent on
German y
ĠGriff in
ĠA part
ĠR up
var iant
ĠDar win
Ġlock ed
ĠTal iban
display style
sc roll
ĠLeban ese
um ably
Ġn ortheastern
180 1
ĠW inners
ĠMoh ammed
on o
ian i
Ġk iss
Ġmemb rane
ĠR ole
ĠP iet
ĠM am
Com ment
ĠCl aude
type of
n orth
o ine
ail ure
ĠBe a
Ġp orn
Ġre print
ant is
Ġup grade
Ġhard er
bra him
as an
it ated
Ġarch ives
Ġboard ing
Ġkilomet res
ĠG an
Ġsh apes
ĠInd o
ak k
Ġswim mers
ĠG ul
ĠP itt
Ġtra p
Stat istics
Ġcolon el
Ġden oted
Ad minist
Ġrec urring
Ġimplement ing
Ġinf ections
ĠN in
se lected
ĠFergus on
Ġrefer ee
Ġr ises
Ph ot
ĠJosh ua
ĠD iet
) }{\
od ium
Ġround ed
Ġide ology
Ġpil grim
ĠM Äģ
ĠMar qu
ĠMan or
Ġapprox imate
Ġstat ute
)\ \
ĠVict ory
S uccess
andid ates
ĠMes a
ĠSacram ento
bm atrix
u o
Ġpeak s
Sp ring
Ġdr unk
ĠJeff rey
rit ies
ĠGust av
Ġmat ched
Ġmans ion
c b
Ed ward
p us
Ġorgan ize
pro perties
b ard
other apy
Ġadv ancing
drop down
ĠB har
ian ces
Ġfre ely
ink i
ĠAp plied
Ġan at
Ġlo ose
Ġvolt age
ĠS ag
Ġb oot
if est
run ning
Ġanticip ated
E V
Ġorgan izing
ĠEv ents
ul ing
18 22
ĠP ione
Ġsol ved
ĠBav aria
h ole
ĠW inner
Ġref uses
h istory
ĠS leep
Ġb arriers
ĠU m
ĠRel igious
Que ue
Ġed it
Ġaccept able
Ġl ig
âĢ ħ
Ġaug ment
ell ation
ĠMur der
Ġthrow ing
Ġcook ing
ins ic
Ġinv itation
ĠPar agu
eff ect
) [
f ixed
ĠBul ld
R en
ĠE aster
establ ished
Ġins isted
Ġtr aces
ĠVeter ans
Ġcl erk
6 50
ĠPh ase
Ð ³
Ar gs
ĠV id
op ol
C F
ĠMidd les
Ġd ent
Ġreal m
Ġam bit
) },
ĠCharl eston
I mp
Ġexp elled
Ġlabel ed
ĠMar itime
s ave
Ġrenew able
................ ................
Ġs ab
ĠS ylv
ĠL on
Aut o
OR E
ĠBol ivia
Amer ica
o ided
ĠL ep
g art
alth ough
ur rection
Rep ort
B eh
Ġf ights
p u
ĠBet ty
e ah
Ste ve
ĠG ut
Init ial
at ro
Ġart ic
ĠApp eal
ĠAnn iversary
Ġlic ence
L M
Ġfl own
Ġthe aters
ĠL arge
Ġsub str
J SON
ĠB ound
ĠRock y
Ġsub urbs
ĠT yp
Ep isode
Ġp ension
ĠC and
ĠF est
ĠCh al
ĠStrateg y
22 5
aff e
ari at
, $
Ġeduc ators
ĠCl aire
M ic
pos ing
14 3
Ġcoordin ator
Ġfe as
Ġhelp ful
Ġan ger
Ġcrit ically
Ġreb el
Ġorb ital
Ġab brev
ĠAct s
n ick
ĠKos ovo
ec onomic
rict ion
ĠElect ronic
Ġqu adr
ĠS tern
Ġgar rison
Ġdeliver ing
F iles
est ock
ĠBar ack
Ġcons ec
w i
ĠK erry
m ac
in line
Ġent ert
Ġcy cles
Ar ts
cles iast
ĠVat ican
ĠK ann
tik z
ars et
Ġsk ull
Argent ine
ed ged
Ġf itness
ĠV ery
ĠGael ic
Ġbre ach
Ġcon ceived
Ġr ic
ess ages
Ġwork force
Ġd ir
Ġreven ues
ric ing
oph on
. ]
ĠSem inary
18 27
ĠTh ames
ï »
ec o
E astern
pl atform
Ġd ys
Ġb undle
ĠDef ault
Ġillust rations
ol ute
ĠS uk
ocol ate
Ġa rose
an ium
Ġprom otional
E s
f ootball
ĠSc ript
Ġf u
ĠStef an
5 50
ann otation
IT E
Ġcarri ers
Ġrev olt
ell ites
C B
aus es
Ġmo ist
Ġrel at
Ġdifferent ly
Ġlift ed
LE CT
Ġflo ating
Ġcon quest
vent h
Ġm ere
Ġac ute
} </
ud ed
Ġteam mate
Var id
te ch
Ġup ris
}} ^{
ĠĠĠĠĠĠĠĠĠĠĠĠĠĠĠĠ ĠĠĠĠĠĠ
Ġh i
por a
J ob
ĠB in
V an
ine es
Ġp ars
Ġsaf ely
Ġm aternal
ĠD rew
b ur
ĠL ub
ven ile
hor izontal
ĠH i
any a
n ar
ĠHard y
oc c
ograph s
Ġspe eds
Ġestim ation
ĠP apers
Ġav oided
duct ive
Ġamplit ude
ĠAl leg
Ġrad ial
ĠPort smouth
Ġabsor ption
ogn ition
ĠAp plication
ĠBi ology
ĠSebast ian
en ue
Ġnob ility
ĠM ats
fe ature
S ide
Ġscreen play
Ġprom ises
Ġbar r
9 78
Ġsimilar ity
Ġanth ology
ver b
Ġcomm od
W he
L anguage
ĠBet ter
g rav
iod iversity
Ġb ip
r int
Ġdet ective
Ġexp end
By te
ĠIm port
Ġst uck
ĠV oc
N ative
Ġb ail
Ġte lev
ad ia
ĠTo o
Ġdatas ets
ct ica
ĠB rain
Y PE
er ion
ing ers
ĠKenn y
N a
se par
Ġcom merce
18 16
ĠOr t
is ure
Sym fony
as ive
ĠE yes
Ġdeleg ates
Ġcelebr ity
he ars
Ġbal let
ĠGuatem ala
Ġa uxiliary
Pan el
C ycl
Ġsl opes
Mean while
G reg
AR E
ĠGriff ith
ĠEr nst
Ġmeaning ful
l ayer
Ġtrans mitted
ĠV it
A h
) --
art e
ec hes
ap o
Turk ish
ĠBrand on
Ġelabor ate
ĠUrugu ay
s em
Ġap pl
is odes
ron es
ĠG av
K en
ĠHer oes
M iddle
N P
Ġadv ocated
Ġmar itime
Ġsail ors
Sc ope
` ,
B us
ment ioned
Ġpre ference
Ġdec ree
ĠFl ash
Ġbow l
Ġsim plic
Ġaccept ing
ĠM aking
Ġm ath
Ġag gress
ĠChe ng
'' '
Ph one
ĠO DI
ĠAl g
ĠCow boys
merc ially
ĠKle in
ĠMark eting
ĠComp anies
x it
ĠH ack
Ġpar ade
Ġrad i
ĠEd win
Ġd ose
af a
The refore
) _
Ġreg ards
Ġflex ible
et les
ĠM illion
h ang
ĠBrown s
S Y
Ġneg lig
ĠCro s
Ġlect ure
abul ary
ĠSuff olk
Ġal arm
Ġc ig
19 2
ĠGram mar
ĠDe velop
ĠN iel
ĠH our
Ġpen insula
z on
Ġb eds
Ġsuccess ive
Ġtra ils
Ġdeterm in
ig ins
ĠMah arashtra
Ġtra uma
ĠHein rich
ur ai
ĠP rec
ĠÐ ¿
Ġcommand ing
Ġce iling
o os
ĠS ara
pm atrix
n is
Ġfort une
FI LE
Ã ®
18 23
Ġend e
rop ic
ĠGr ass
Ġcancell ation
Ġaf raid
? )
ĠSt op
Ġad op
Ġcy ber
Ġenact ed
n il
ĠC ay
', '
Ġadvant ages
M ir
ĠP all
ĠD erek
Ġcontract ed
ĠMad agascar
oc cup
Ġbelie ving
Reg ion
u ctor
Ġabund ance
pher d
ecess ary
im als
ĠCast ro
Ġcom plications
Ġwel comed
Ġm eter
Ġc ivic
Ġ&= &
al an
Ġmod ification
Ġconsult ing
18 19
ĠS it
ĠBalt ic
ĠTe legraph
F ind
Ġte aches
i ad
Ġsp y
Ġad mit
Ġrep airs
ĠDra ke
Ġant iqu
ĠBut ter
uns igned
[ $
Ġplant ed
ĠS L
Ġinsp ection
ik k
m ock
Ġrel ate
Ġimm un
Ġorgan isms
Ġ[ [
Uk rainian
ag ogue
IN FO
ĠTasman ia
and in
ĠB ren
Ġhe ct
ĠLad ies
Ġmort ality
M sg
Ġst ats
ST AT
az y
ĠCol ony
ĠAg ent
Ġins u
Sw iss
Fran c
ĠY uk
Ġd b
inn ings
ĠCub s
Ġpr ide
ĠCD P
and an
ĠR ather
Ġendors ed
Ġf ears
ĠR C
Ġinaug urated
cl air
Ġrev ived
Ġrestrict ion
Ġpro xy
B eg
E lements
Ġir r
ĠF ur
ring e
Ġtort ure
Ġelim ination
Ġconvers ations
ĠL ap
ĠCamb odia
ĠW WE
les h
Ġdestroy ing
ĠSpec ies
Ġhabit ats
Ġrun way
Ġn ervous
ub ern
Ġnick named
ĠG M
Ġsem ifinals
uc a
Ġexerc ises
v card
ĠW it
ott i
fl ags
op us
Ġpurs uing
ject ion
Ġext ensions
Ġw avel
Ġphenomen a
ĠPr ussia
Ġh anging
Ġaw ait
R ect
Ġcollabor ative
Ġfulf ill
ob o
vis ible
um my
pro b
ĠSt atus
tit led
Ġincorpor ate
ĠCal vin
ĠTanz ania
Ġb ike
Ġmod ifications
Ġsouth western
å Ń
Ġp uls
Ġdiv ine
Fore ign
ĠQu artet
ced ented
K im
L ists
Ġp ic
By Id
ĠCop a
Ġrefuge e
Ġly ric
Ġstopp ing
ĠPatri ots
Ġd iving
ĠC raft
as aki
ard y
an ions
oc es
Ġelectron ics
ĠBas el
est y
ogen ic
ic ion
ul o
ess ing
ĠEn c
Ġmot if
ĠV AL
ĠC ities
ix els
ĠAm ateur
Ġs ep
ĠB erm
ĠF alk
Ġspac ecraft
ut z
cept ions
Ġvol cano
ĠN ames
h p
Ġhol y
L ear
g irl
ĠPart nership
Ġfort ress
ĠBre nd
ĠS ister
il us
ĠBel le
ur ally
ĠMarsh al
Ġsovere ignty
D oug
Ġg ifts
Ġtempor al
ĠV A
det ails
ĠP om
Ġovers ee
Ġmet a
Ġbu ff
Ġsup press
r ÃŃ
180 6
Ġrook ie
ps y
V ERSION
Ġpreced ed
e cho
Ġl aps
15 2
S V
Ġsub scription
Ġrepl ied
Direct ory
ct rine
Ġfor um
21 1
man s
20 5
Ġinstance of
$ ~
16 00
Rel ated
Ġen force
ĠK Ã¶
Ġk een
P ark
Ġrec ycl
ĠQu int
M u
ĠT ru
mar ine
olec ular
ĠB ash
Ġstrong est
he res
Ġ ^
ew ater
ĠH its
Ġafford able
W inners
ĠSof ia
W ild
ĠM ell
Ġflag ship
Ġbroad caster
ĠDise ase
Im port
Ġcrim inals
} )$.
param eters
ide a
Ġsav ings
Ġl on
S lov
ud er
Ġair ing
Ġbas ement
Ġham let
Ġreg iments
ĠBel t
Ġl over
Ġnational ist
ĠEst abl
ĠH ed
ĠE y
sv g
b its
)) )
Ġmod ify
ĠGard ner
18 17
Ġambit ious
ĠAtl as
ĠGu jar
ĠCarn egie
ograp hed
us hes
Dis play
Ġfact ories
Ġbare ly
Ġrec ount
Ġsk illed
ĠNic ol
st ates
ac ies
ott age
Ġf are
Ġdisput ed
ĠSc ots
Ġcomp ass
ĠMc Carthy
Ġgame play
ĠWhe ther
Ġhon ey
ĠWin ston
im eter
ĠWeb b
ĠC ounter
ĠSh ak
14 1
ĠFre eman
Ġtri umph
() {
Ġmamm als
as ium
art ime
Ġphysic ist
il in
ĠWill ie
Ġdis advant
ut ers
overs et
Ne ill
14 6
ĠSpeed way
Ġexperi encing
Ġsub urban
un ion
ĠCon fig
ĠN um
harm onic
Ġrel ie
Ġple ased
14 7
Ġap i
Ġlog ical
ĠB rom
L y
ĠY ah
H om
h ide
Ġp el
ev es
ĠS Ã©
Ġdis par
Ġsit com
Ġknock ed
Ġpartnership s
ĠG aza
ĠSand y
a un
Ġp ipe
ĠV eh
M ock
add r
ĠCas ey
Ġharass ment
ram id
Ġpoint ing
Ġl ac
Ġperiod ic
ecut or
Cont in
Ġexcell ence
Ġrenov ated
ĠLat via
Ġpractition ers
ĠI X
v iol
in qu
P H
it he
sh all
Ġclimb ing
Ġf oster
Ġeth n
um per
ĠÂ ©
Ġtra pped
Ġgr ace
ĠSt alin
ĠSh op
N AS
) ",
ĠS ugar
Ġcerem onies
op ed
ros se
ĠC over
ĠC ock
ip el
Ġh iding
ĠM ey
ĠBrun o
k ed
ĠSett lement
ĠSy racuse
P ER
Alex ander
Ġeconom ist
ĠWe i
Ġd ump
Ġcanon ical
Mex ican
ĠL ines
Ġj e
in her
ĠM essage
26 0
180 3
Ġdisp ers
Ġhard ly
Ġsubmar ines
Ġt ong
ĠG ian
ha o
ĠUl ster
ĠN ortheast
Ġd ip
Ġenc oded
head s
ope z
ĠRe act
Ġcry stal
R oy
ap or
ĠĠĠĠĠĠĠĠĠĠĠĠĠĠĠĠ ĠĠĠĠĠĠĠĠ
ĠStand ards
! <
key word
Ġeth ical
Ġhier archy
Ġc oh
Ġanaly ze
Ġm ud
og ical
Ġge ometric
stitution al
ass is
ĠElect oral
Ġk e
ĠPro ducer
ĠMyst ery
ĠA bs
ri que
nt on
O UT
Ġout s
cont rolled
ĠRoman ized
ph ones
Ġinform al
Tex as
am ar
13 9
Ġdro pping
b ug
Ġun iqu
Ġ% }
O s
ĠS K
ĠR iley
p arser
ray ed
ĠSen ators
Ġaccident ally
ort ex
et us
c ost
Time out
TE ST
ĠEuro vision
ĠTerm inal
eck er
Ġwire less
Ġex cit
ĠE ra
E lections
ĠTim othy
Ø ¯
×Ļ ×
Ġobl igation
Ġwant ing
board s
am oto
Ġh o
Ġorder ing
n n
ĠMer cedes
Ġjew el
Ï Ģ
sw orth
Ġlik elihood
uv ian
Ġn avy
ĠBo hem
ä »
ex ists
Ġexpl ores
ĠProv idence
plement ation
ĠM B
Te ams
G er
om ers
E ll
oc os
Ġch ances
ĠB ast
Ġlaunch ing
B ay
t ip
in ians
Ġinject ion
ĠP arent
Ġexcess ive
ĠL al
ugg ed
Ġlim iting
ĠHam pton
Ġd ors
om ore
ĠHeavy weight
ĠConstantin ople
Ġdescript ions
ç Ķ
S ix
Ġhand ler
ĠPre vention
sw itch
log ger
Ġread ily
us ive
ĠH BO
180 9
Ġsubdiv ision
Ġreve aling
Ġbox er
ĠE du
B a
Cons ider
Ġmar ble
ĠI TV
Ġgen uine
de velopment
L ord
p oly
à ´
ĠSher man
Ġvar iance
Ġreg ulated
ĠChap man
p red
ĠLe icester
udd y
ĠIn clud
Ġcancel ed
Ġcons c
Ġcre am
m ud
ĠM E
ĠSt yle
Ġadm its
q q
ĠEx amples
28 0
") ]
Ġmind s
ĠBoy d
AA F
an ch
ĠV ick
Ġent ropy
ce ive
ION S
Ġguitar ists
ĠM ets
ĠHaw ks
16 8
al ong
v ine
ĠQu inn
N ick
d p
ĠC hern
im ar
Ġgrav itational
ĠP erm
ĠD art
Ġcan vas
Ġhar vest
Ġflower ing
ĠW ire
Ġweak ness
Ġc ord
ow itz
Ġsimilar ities
Ġan onymous
ĠD R
ĠInt roduction
ul ine
aut s
i ade
Ġb is
config uration
orget own
Ġfl ora
el ic
ĠJen kins
Ġpostp oned
Ġqu ote
ĠChe v
) }_{
Ġrail ways
40 4
c in
Ġg aming
ens itive
An not
Ġutil ized
ex ternal
ï» ¿
Ad apter
Ġd orm
æ ĸ
Ġang les
Ġeight een
Ġactiv ation
Ġir re
ĠU TC
ep er
ĠBl og
Ġcontribut or
ĠNeg ro
. <
ĠHait i
is en
Ġhost ile
cl iffe
Ġind ie
ĠRe lease
Ġam big
m ask
Ġd ella
Ñ ħ
Ġar ist
Ġs aint
the m
on ey
21 3
it as
Ġval ign
aw k
Ġrelig ions
F ederal
14 9
ĠRed s
ĠD escription
Ġmed all
p aper
ĠWol ver
ig raph
Ġat om
Ġcollect or
J ones
ĠB attery
)$ -
Ġauth ored
Ġen ergies
Ab stract
rit ic
ĠDec laration
Conn or
Be etles
out ing
att i
St op
Ġhand ful
he alth
let cher
Ġc ater
Ġb ab
Ġposs ibilities
Ġappro aching
Ġ umb
pro gram
Ġcorrespond ent
Foot notes
14 8
os o
ĠCon sequently
Ġ\ &
ĠSch olar
Ġdemonstr ates
Ġres ist
Count ry
Ġconv ince
Ġprem ium
17 58
ass ic
Ġpost erior
Ġextract ed
U nd
z burg
Ġsustain ability
[ :
Ġinter vals
sh ine
ĠLis bon
on ential
par agraph
Ġapart ments
ĠT ah
U ID
ĠLe one
Ġdispl aced
B it
hor se
Ġtend ency
are l
15 1
Ġm asks
Ġassert Equals
P lease
IP T
p ark
Ġint elligent
S B
comp onents
Ġd uplic
16 6
Ġter rible
D uration
Ġint act
hes is
Ġw ound
Ġmet rics
p ublished
s ymbol
ĠP ale
ob ic
by e
he ed
ass o
D ebug
ĠM ile
Ġdeterm ines
ĠCong reg
ĠJuda ism
Ġcl er
Ġport al
ĠPat ricia
Sc ient
Ġsome how
ĠW ilm
Ġqual ities
Ġtr agedy
Ġde pr
Ġche ap
ĠX V
ĠB ess
ĠClin ical
ĠPap ua
Ġin complete
Ġcon clusions
ĠStre ets
$ $\
Ġlar vae
ĠH ank
Ġcru ise
is se
Ġspons orship
ĠOcc up
call back
B ern
ĠIs abel
Ġf o
ĠHann ah
F uture
s an
IM PORT
ĠT ucker
rac es
ĠR ise
14 2
Ġem power
P y
Ġpoll s
Ġancest ry
ĠG raph
keep ers
ard ment
18 11
ĠG ets
15 6
ĠTeh ran
Ġenroll ment
ĠF ra
te br
Ġspec imen
Qu est
Ġmob ility
od ic
H ub
Ġmet eor
Ġalign ed
uche ss
f ried
all i
ap propri
D iv
os ion
} &
ĠÄ Į
j ob
ĠAg u
Ġcheck ed
Ġd ed
Ġmark er
//////////////// ////////////////
ĠOffic ers
t ok
Ġn erve
Ġnorth western
Ġas ylum
Ġpl ots
ok esp
Ġautom obile
Ġh ire
ĠSac red
ĠP owers
Ġterm inated
que ue
am on
"> &
Ġspr int
ĠC ir
Ġtrain er
ĠBeg inning
ĠF o
H aving
Ġc av
ĠH undred
ĠEm bassy
Ġv iral
Ġancest ors
ĠGarc ÃŃa
Ġmon ster
R ank
Ġqu ot
Ġf ut
33 33
f c
ĠY uan
A I
ĠL ing
C lear
ĠGaz ette
itor ium
Ġcom mercially
ce ph
Ġrec reation
Ù Ĭ
)) );
ĠA IDS
A sh
ir able
Ġlack ing
ar th
ĠWhit ney
Ġdisch arge
ĠMem ory
he e
Ð ±
ĠLank an
H ong
Ġvac ant
. (
? ?
J ournal
M ut
ros so
ĠF ear
Ġpack ages
Ġdoctor al
\| _{
ĠSax ony
Ġt ensions
Ġfaith ful
ĠBro ck
Ġm eth
erm o
clesiast ical
ï¿½ï¿½ ï¿½ï¿½
al and
Ġst air
ins ki
ĠKu wait
ĠSp ot
St ructure
resp ons
Ġtarget ing
The orem
ĠO K
Ġsoc io
Ġinf ant
Ġsub mission
Ġdisc ount
Ġair ports
Ġsy ll
15 3
the l
Ġinn ocent
assert Equals
ST AR
M arg
Ġsh ar
ĠFel ix
Ġanalys es
Ġab olition
ĠCongress ional
Ġun t
ĠG ymn
Ġnom inal
Ġment or
Ġsub group
c ong
s ol
bour g
ĠSic ily
ĠAv iv
get s
Hel p
ado op
di ocese
Ġalt ar
keep ing
Ġwork place
ĠVern on
Ġf illing
row span
Ġfac ade
Ġdi agonal
ih ad
C amb
Ġcrown ed
L ow
It ems
Ġmon ks
Ġlisten ers
w ings
Ġ( +
ĠTe en
Ġsuper hero
X ml
Ġlit igation
B ank
ĠMar athon
ĠMid lands
B oston
17 89
16 3
ip age
ĠF iji
ĠUN ESCO
ĠB org
ih ar
ĠC lem
fin ite
_ ->
17 98
Ġcatal ogue
Ġl unch
Ġa u
ĠN ode
Ġvalid ation
V irgin
r g
Ġim plicit
Ġpass word
cl ine
Ġint im
ĠP DF
ĠS V
Ġdiam ond
inet ic
Ġcouncil s
ĠSal em
ĠK ane
Ġanaly zed
ĠF erry
w iki
od i
neg ative
her ical
Ġpro claimed
Ġunpre cedented
b rand
Ġcr ack
Ġtrump et
Ġdiscuss es
Ġexp onent
ĠA ve
Ġhe aven
Ġdram atically
Ġenthus i
ĠG A
art on
{ |
Ġst ip
F P
School s
ĠThom son
Ġp av
Ġemb arked
ĠPl ains
Ġrevers ed
âĢ ī
und ers
R on
ĠGeorg es
ra red
Ġsub species
ĠS ard
Ġph ones
ĠP omer
ut ic
Ġconsolid ated
ĠDrag ons
Ġp enn
b rowser
own ers
ah i
Point s
ĠK ais
Ġdecom position
Vol ume
ĠUnderg round
ĠSupport ing
ĠB un
ĠN ut
Ġcur v
map sto
ĠL und
Ġnew er
ĠCar son
ĠLa ur
Ġinsu fficient
Ġreleg ation
Ġw it
Ġhe x
Ġman or
180 8
ĠOri ental
Ġsacr ific
Ġac ids
Flo at
Ġresc ued
Ġaccur ately
ĠSh an
Ġgeneral ized
Ġsh rub
rew s
ĠReb ecca
l oo
ĠCole man
Ġemp irical
ĠL ik
th rows
ount ers
olog ne
ĠGand hi
Ġchar itable
Ġsym bolic
init ial
Ġphilos ophers
Ġsec urities
Ġtro phy
Art ists
Ġten or
Ġpur ple
ĠAd ult
Ġf ever
se in
$ ;
ra pe
Ġell ipt
F E
Ġmet re
Ġinvent or
ook s
clip se
ĠR andy
Ġlack ed
an us
ĠTunis ia
c u
Ġr ushing
Ġmerch ants
O x
p rom
ikh ail
The ir
ĠF ri
Ġsh oes
Ġsp otted
Ġque ue
ĠReport s
ĠH ast
Ġle ather
Ġatmosp heric
et ches
ry n
Ġintro duces
ĠMov ies
ĠF uj
eff ective
Ġsup pose
ĠK rak
ĠKrish na
ĠAud io
g ement
stit ute
erv ille
ĠStart ing
led on
Through out
Ġd ictionary
Ġbl ame
b p
Ġlater al
b is
Ġaest hetic
ĠV ander
ĠHe y
ĠAber deen
50 1
de ep
Ġansw ered
Ġd Ã©
Ġdel ays
Ġcreat ures
Ġpartner ed
fl ag
U ST
Ġtrem end
Ġd ining
Ġany way
ĠN H
Ġlink ing
T ake
ĠCon vers
Ġp ine
21 5
ĠP ool
1 200
w hat
Ġ" '
Ġst int
cont ains
AN G
Art icle
ĠK ok
Pier re
g reat
ert ation
ĠP ray
Ġhand ball
b ay
ĠEvery thing
cl amation
}\ ;\
Ġcapt uring
U B
Ġ Ø§
Ġmach inery
it ism
Ġsens or
ĠÄ Ĳ
ST ATE
Ġrev ision
unn els
Ġins urg
Ġsuggest ion
G h
om ent
ov sk
ĠTechn ologies
Ġb ol
j ani
b age
Ġcontest ant
Ġcolle ague
s ample
ĠP L
Ġthreat ening
Ġacknow ledge
Ġpar a
Ġcon cess
Ġsh ifts
Ġteen ager
ex ception
Ġgovern ors
ĠToy ota
h ydro
j ah
ĠT arget
ak ala
Ġun rest
v ian
ast on
Ġdiff ers
Ġcont ing
Ġcost ume
ĠY ar
man y
Ġind ices
Ġfil ing
Ġra ids
Ġsol ic
ack ets
load ing
Ġappeal ed
ed ly
ĠA id
p ull
Ġgall eries
Ġp ose
ĠM ilit
ell es
Ġloyal ty
ĠCom ic
ĠEv olution
ĠM orton
ĠJan et
Ġo ak
ĠUlt imate
Ġreflect ing
ab ella
Ġwor ried
Ġsophistic ated
z an
B rowser
sup ported
ĠDocument ary
Ġspokes man
og h
Ġtra its
Ġdest inations
p ub
pro position
Ġsubs id
Ġevolution ary
ĠR ao
Key s
ĠU CLA
ath lon
ote chn
tx t
Ex pr
ĠÅ ģ
Ġc anton
sh an
Ġelect r
gu ard
ĠD ul
ĠJ ag
Ġsc reens
Ġrel ates
arian ce
Histor ical
G a
os i
N BC
ĠT D
Ġcivil ization
ĠS ach
Ġenc ounters
ĠParad ise
Ġen velop
ĠR NA
Ġcoord ination
ore n
ĠC ave
Sequ ence
Ġstraight forward
p rec
Ġc af
ĠM ental
j ee
ĠBry ant
ĠChrist ine
Ã¡ l
Log ger
ĠH umph
Ġge ographic
ĠBur ma
ĠW ong
ĠCamer oon
[ -
ĠW AR
B rian
ue bl
ost a
Ġall ocation
Ġconcept ual
Ġincorpor ating
cond ition
Ġtradem ark
T y
Ġhe aling
Ġan arch
ĠF ork
Ġdeg ener
Ġapp s
Ġrep ly
Ġmot ivation
Ġpresc ribed
Ġl ith
ade qu
r ath
anth a
Ã©t ico
Ġm ari
Ġsn ake
tab s
h bar
Ġlim estone
ĠMon ica
Ġodd s
al ore
Ġsm oking
p end
ĠBo at
ĠLeg acy
ĠLe af
Ġcontinu ity
Ġdecre ases
Ġreason ing
^{ +
Ġs ued
Ġdro wn
it ate
Mar ie
r ases
og l
ĠKarn ataka
Mount ains
b etween
Ġre q
ĠS ale
ĠC yp
Ġexpect ation
ĠRaj a
prot obuf
f bb
Ġf unc
ĠJoh an
ict s
N ET
Ġc ement
ut f
ĠE V
ĠPl ain
Ġderiv atives
D ar
Ġpol o
ĠTrin idad
sh aw
Ġbal anced
Ġsuperv ised
Ġm igrants
Ġcycl ists
ĠG am
Ġparticip ant
Ġwh it
Ġcap ac
ist on
min ipage
ĠE z
Ġceleb rities
Ġ[ ];
Ġcount ing
Sc reen
ĠSh aron
elf th
Ġes cal
ot ta
Ġdiscipl ines
urg ical
Mem ory
ĠAn imation
build er
Ġdesign ing
Ġr het
Ġsil ence
ĠPhot ography
Ġc ass
ĠÂ ·
e astern
ĠHam mer
E lection
ĠPet erson
ill i
Ġ[ ...]
Ġinvest or
Eng land
BP ACK
ĠM VP
l ower
Ġatt itudes
Ġhol idays
l ated
Tour ist
urn ed
inn aeus
17 93
och astic
21 2
à¤ ¾
ĠM oor
17 94
ĠSt rait
Ġh ist
ud i
Ġmother s
âĢ¦âĢ¦ âĢ¦âĢ¦
ĠS ib
ĠR oma
Ex per
Ã¨ ne
Ġassess ed
g ins
p al
ĠX box
at u
ĠT rial
Ġbreak down
val uation
play ed
S QL
ĠL Ã©
ĠMay a
ĠA TP
Ġpharm aceutical
ir atory
ĠPan el
D id
Gener ated
Ġrect angular
Ġb arg
Ġemb assy
Ġbet a
ĠPatri arch
A gent
ales e
Ġcomp ression
Ġapprec iate
ĠTh ing
ĠSch midt
ĠDream s
Ġkick ed
Ġgar age
Ġsurrend ered
ge x
17 4
17 95
P ress
w on
okesp erson
circ le
Ġprivile ge
Ġst ance
ĠInd oor
Ġany more
m and
Cent er
Ġin land
f eed
ĠH ul
Ġacc redited
init ely
ĠF ashion
ĠVar ious
O F
S on
ĠR ag
rom agnetic
Ġfunction ing
Ġp ier
Ġtop ological
Ġtop ology
Ġpro be
ĠĠĠĠĠĠĠĠĠĠĠĠĠĠĠĠĠĠĠĠĠĠĠĠĠĠĠĠĠĠĠĠ ĠĠĠĠĠĠĠĠĠĠĠ
Part y
ĠOl iv
L em
Ġbehavi ors
n ian
ĠR ising
ĠCont ract
ĠWor cester
ĠH ers
ĠB uk
Ġfru its
Ġdon ation
Sc ot
Äģ n
Al tern
Ġr ider
ĠA u
un ique
ĠCl ose
L iga
AR D
d eb
180 5
Ġb ure
Ġfe ather
Ġsk ating
is o
F ish
ber ra
ĠL uck
iol a
( !
C orn
F a
Ġt ender
Ġb ush
ĠJoy ce
Ġtrigg ered
b red
ĠHels inki
erv oir
Ã³ pez
Ġconsult ation
Week ly
Ġearn ings
Ġ! !
ma jor
Ġdis hes
Ã¢ te
15 4
C reat
16 7
Ġtreat ing
Ġsovere ign
if iable
ib ia
ĠPl atform
Ã ²
ĠN J
Ġiter ation
Ġb ot
Ġal pha
ral tar
ĠO le
ĠW A
ĠAntar ctica
ĠM are
ident ified
Ġweight ed
ĠAlex andra
ov Ã¡
g iving
Pl an
ansk rit
A st
20 3
Original ly
Ġall ied
Ġdem o
180 4
Ġsh aft
Ġvis itor
ef ully
Ġboy friend
17 96
cle an
ĠSant o
ĠM W
ort e
Ġaut onomy
S ER
ĠStat istical
Ġfresh man
Ġvirt ue
oint ed
A x
oz o
Ġdedic ation
17 99
Ġins ights
ip es
Ġscholar ly
d ialog
ov al
Ġpres idents
oc aml
ft en
Ġcontact ed
t ailed
Ġp neum
Ġcol ored
Ġident ities
ĠSub sequently
up iter
Ġappe als
Ġpromin ence
Ġbenef icial
\ {\
ĠS ind
ist ries
al bum
ow ing
Cl oud
Ġg rap
Ġw isdom
ob serv
ts d
Ġdiff usion
ĠKy iv
N ever
ĠIr ving
ĠAsh ley
Ġsu ite
Ġaccept s
Ġprim itive
h of
Ġun ified
P aint
ĠC ult
ĠD ry
od o
Ġmac ro
ĠL iz
struct ure
Ġ( _
Ġwarm ing
ĠT ick
Ġsex ually
Ġre per
AD D
w omen
ET H
m atic
ĠB ug
ĠCauc as
s chema
ure n
ĠSl am
ĠH utch
15 7
ĠY ard
ĠMaur it
180 2
utt gart
Ġmet adata
ĠBeaut y
B ang
ĠK um
ĠSid ney
Ä ħ
Ġl ang
ĠW ander
Direct or
Ġconclud es
ĠW ade
Ġstar ter
O H
Ġtr ivial
Ġrecon naissance
ĠBudd ha
ĠW ords
gener ation
Ġal ly
ĠM orm
Ġbul let
ĠJ orge
X ML
Ġnurs es
in formation
ant ed
ĠQual ity
W atch
Ġo v
br as
) -\
Ġt ales
Ġde an
rell a
af i
B T
pl ain
y en
15 8
Ġsp elling
Ġorg ans
arn a
icult ural
, .
Ġob server
ph oon
et ed
b led
Ġw ished
Ġre opened
ĠWrit er
ĠYe ah
S G
i ov
ĠH uss
Ġpsych iat
Ġbom ber
ĠDeuts che
ĠCont ent
ĠDen is
Ġtraject ory
S i
id ian
Ġad verse
Ġd iox
rac ing
re pe
Ġsupposed ly
ĠBulld ogs
Ġcelebr ating
Ġforg otten
Ġconst ants
> [
ĠS ue
ig el
Med ical
olith ic
ĠT ul
Iter ator
M atrix
ĠD re
Ġde leted
ĠMad h
ĠBron cos
Ġdel ta
hand ler
Ġmort gage
ĠCour ts
Ġtim eline
ĠVik ings
Load er
ok i
ĠMin i
T am
Ġgram mar
el ines
Ġdro ught
Ġe y
Ġpost ing
[ (
ch art
Ġbo om
udd in
act ivity
P enn
ex ecute
ĠSch war
ĠPer haps
Ġf its
ĠN HS
ĠHawai ian
Ġsc roll
Ġcor rupt
L I
le af
ĠSol id
l ain
Ġbreak through
ĠDet ective
ĠCount ies
anc o
c reated
Ġviol ated
Ġcelebr ations
at ibility
Ġcomb ines
180 7
Ġcard inal
ĠH ear
ĠRaf ael
rop olis
() ));
ĠD res
ĠL ima
Ġemer ge
ĠRef uge
ĠBu ilt
H ard
U t
land ers
Ġprocess or
ivid ually
ĠEld er
Î ¼
Ġch ip
ib us
Ġinv aded
} }$,
inc ome
ĠPat rol
k ill
ek a
M ake
ĠT ale
ĠR ip
Ġapp ar
ĠW itt
Î ·
Ġvers es
Ġ= ========
son ian
ĠW ins
F ive
Ġenter prises
G irl
ĠC G
Ġfin est
Ġdef icit
Ġapp end
ĠEv il
ĠVa ugh
Ġcomp romise
Ġdecre asing
od ied
ĠAugust us
: }
Ġann ounce
r b
Ġsat ellites
u ates
al one
Ġaud ition
Ġthe ft
() ).
ĠRober to
ĠCh ambers
Ġj s
Ġcyl ind
Ġdec iding
Lab els
b ons
Ġsec uring
20 8
Ġpurs uant
Ġdemonstr ations
t el
ĠVolunte er
ĠJ as
B ottom
ae a
aint ies
Ġconcent rations
ĠColomb ian
Ġn itro
ot i
Ġinf ect
ĠSch w
as et
ius eppe
ĠMic he
ĠMonteneg ro
ĠCatal ina
ĠConf ederation
Ġtransc ript
Ġteen age
15 9
Ġge ography
ent ric
ĠL uk
ĠO ce
Ġchemical s
sp ects
Ġimp ose
ĠS unn
m are
ht on
haus en
Ġprotect ive
E U
yt es
es que
ĠK ob
ĠReg ulation
Ġp iv
Ġh alls
Ġro d
}( {\
ali as
ĠC lean
ĠEin stein
Ġingred ients
Ġs el
sc ribed
Ġcompos ite
Ġlumin osity
end e
c ole
ĠCons umer
ĠMoh ammad
r ino
Ã¼ ck
ĠN ou
ph ase
It aly
ĠUS C
Sm all
he id
Ġar ising
K ore
ĉ ĠĠĠĠĠĠĠ
Ġspec ification
w ear
Ġrep ublic
osp here
ĠPier ce
ks and
Ġvol canic
Ġsecret ly
Ġjump ing
ĠP O
Ġcounterpart s
Ġd w
ĠM I
ĠH ip
ĠAdminist rative
ĠF resh
ons hire
ĠB le
++ ;
re cht
Ġh urd
Ġrub ber
ĠAngel a
ĠMad onna
Ġtrust ees
Ġemphas ized
Ġm akers
}$ )
ĠNorth western
ĠT yr
16 1
Ġfl ies
Com plete
ĠConc erto
Ġ" /
Ġpay load
Count y
ĠB udget
Ġex empl
Ġlog ging
C ong
Ġnever theless
Ġkid ney
ĠA ce
Ġover time
ag ent
ĠBad en
Ġrel ied
ĠSouth ampton
Ġc arn
ĠV ish
Ġreview er
ĠPro ceed
ĠB oss
ĠY osh
ĠCon rad
f act
B ol
Ġh orm
ĠF i
ju ana
Serb ian
ĠExper ience
R os
ĠHol ly
Ch urch
Ġor phan
Ġpr incess
Ġlist ener
T ABLE
iform es
ĠS QL
Ġl anes
ĠF DA
ĠG O
Ġpoly mer
or ah
ĠBe au
and ez
ĠTh ink
Ġt weet
ĠM und
", "
f lex
Ġactiv ism
Ġconf ined
Ã¨ res
NavBar Cell
ynam ics
ĠPrim era
ear ly
err ill
ĠPri est
ĠOs aka
ĠY ok
Ġposs essed
Ġsl ide
R ace
ĠH ours
ĠRes olution
Ġext inction
ĠBrad y
Ġs her
friend ly
Stud io
Ġoff shore
ĠR w
Ġem bar
ĠShe ikh
Ġseason al
un ed
ĠJack ie
R ussia
ĠGl ac
ĠGl ad
Ġemer gence
jo ined
ĠK ub
Ġpo inter
Ġident ifies
Pl aces
unc iation
s ets
ĠT aj
iv ism
Ġprofession ally
L ib
ic ides
ffbb bb
Ġdead line
ĠSlov ak
ĠRuss ians
Ġl uck
Ġmet als
Ġhold ers
ĠTor res
Ġshare holders
ĠSoph ie
ĠRodrig uez
Ġbl amed
Har vard
Ġper ipher
Ġshell s
ĠPear son
Ġin ception
Ġdeb ates
Ġhar bour
Ġsm ugg
ĠHy de
Ġwor ry
rel im
Ġbicy cle
Ġre ver
ĠCon v
A k
ĠC rom
Pro gress
Ġterm inology
sh adow
Ex ample
ĠT ODO
rand om
Ġlo os
Ġcontin uation
ĠHam mond
k ens
h ig
u en
ĠH omer
b irds
Ġbackground s
ĠH ok
ĠN AME
Ġob s
Ġ ì
Ġw artime
Ġpro ps
Ġdet ector
ĠMon ter
Ġem igrated
Ġcre ws
un ist
Ġle an
ĠR ally
16 9
ĠPo ems
17 92
" `
Ġ Ñģ
Ġunsuccess fully
ip eline
Ġs ake
ĠTh ought
Ġmag ical
ĠD olph
ĠK ick
d one
ĠP ablo
Ġminor ities
Ġst om
ĠL opez
ĠG ott
ĠAd olf
ĠMong ol
A U
'] )
Ad v
ĠH ew
ĠJ et
ty mology
Â ²
ĠZ ach
Date Time
olk ata
ĠD ee
ĠS ession
ĠN em
com fort
Ġd imensional
Ġrein forced
ou ter
ĠHel p
t frac
ĠSec urities
B on
T urn
H op
en heim
Ġb os
ĠAr lington
ĠT unnel
Organ izations
Ġnon linear
n m
17 76
work ing
ĠIm ag
Ġbar on
pl aced
Ġcann abis
ĠR B
F IG
Ġconsum ed
serv ices
) +\
ĠD B
Q U
o ise
ĠCol lections
Ġmarket ed
] }
Aust rian
Ġextra ction
Cro at
Aud io
Ġl od
Ġst rang
Ġtrans fers
ĠCele br
stra int
ba um
olog ic
Ġtask ed
ĠRev enue
ĠGet ty
N D
$ ),
ĠZ ar
Ġvill ain
Ġlength y
ĠJackson ville
r ade
ĠSh am
w ana
Ġsc orer
Ġsuff ix
cl ock
ĠEven ing
anc ies
Ġdi abetes
Ġri ot
h adoop
Ġ[ \
ĠF ol
print f
Ġl ord
ĠI CC
ĠD up
Prim ary
an ic
Ġqu asi
ĠH M
Ġadv iser
Ġautob iography
ĠR oland
N I
ĠD unn
Ġpubl ishes
3 80
N iger
Ġas ync
Ġprot ocols
ĠBeaut iful
B AR
Ġ= \
y ards
el ian
Ġautom ated
ĠK ul
Ġconsider ations
ĠWeb ster
ĠB irds
L ic
R oll
nd on
Ġt a
ur ia
Dat abase
ĠNaz is
ĠApp endix
F unc
Ġher b
ĠEuro pa
Ġut ter
ĠN GO
nav List
Ġimag ery
Ġdispl acement
Ġp ent
Col lections
Ġdwar f
Ġscreen ed
Ġvacc ination
sequ ence
Y P
Ġmot iv
h aul
} }$.
he rence
Ġcommand ers
K K
ĠT oul
ĠL uz
ĠF act
B BC
ĠImm igration
17 00
Ġmanif old
Ġupris ing
Ġteach ings
w ara
n at
pp ers
cont rib
Ġencl osed
ĠA CT
Ġsubject ed
inem atic
Ġbatt alions
Ġorche str
Ġal ike
ĠRecord ings
Ġconqu ered
ank ar
ĠW ave
D a
ĠEl is
ĠCh arg
ĠCh am
C as
Pro ps
ĠS iber
Ġg ospel
Mult i
ĠH err
D anish
Ġun e
ĠHon ey
Ġw rapped
em y
Ġ" ...
s yn
33 3
Ġv est
ĠB ard
ĠP ag
assert Equal
ĠLeop old
Â ©
Ġtrans itions
Ġdet ained
Ġrest ra
Ġrac ist
ĠAut om
ĠH R
Stand ard
port ion
Ġse ating
Ġnot orious
Ġconsist ency
ÅĦ ski
l ace
H ind
Ġpoly g
ĠPart icip
ĠCzechoslov akia
Ġinter rupted
opt ers
ĠHale akala
Ġred shift
P ATH
ram er
Ġsus cept
Ġvalid ity
ĠP eg
Ġdis gu
Ġun re
17 6
Ġbl ast
ĠTel ugu
ĠHerman n
ĠGu adal
ĠShe ll
ĠMay be
Ġmin erals
Ġd well
' (
f ac
ĠA th
Ant i
Desc riptor
Ġv ine
Ġap ost
Ġres ided
17 80
Ġnucle us
el ius
Ġconstruct or
SI ZE
d ong
Ġcloud s
On line
5 12
M ov
Ġstat ues
sc ience
* )
ib ald
ĠInvest igation
d ue
ĠOrgan isation
. __
Ġre habilitation
D igital
m g
ĠT ian
Ġswitch ing
Ġdep ot
ĠSim ple
Ġw itch
Ġord in
ĠChen nai
ĠInt el
ĠAltern ative
ĠT ry
ĠNurs ing
Ġform ulation
ĠM t
iss ued
S ave
Ġst amp
ĠE rik
ĠJ ah
16 2
ĠCon st
ĠUnivers ities
Ġnar rator
L ower
Ġm aker
ĠReg ular
Ġscript s
ap os
P od
Ġg astrop
ĠPoint s
Ġoverl ap
Pr ince
P ad
ribut ions
N BA
Ġlin er
tr igger
ar ith
ĠPriv acy
ĠD ixon
ĠHuman ities
requ ired
Ġres ides
ĠL ands
Ġri ots
Ġm im
Te ch
disc iplinary
yn a
Ðµ Ð½
Ġb itter
ĠHol iday
Ġcal m
ĠBerg en
p id
ĠMe h
Ġcond itional
or ian
ĠNew ark
Ġref use
å Ĳ
Ġ" ,
ĠL E
L GBT
Ġclin ic
Ġd ad
Ġpost er
ow l
ĠZ ur
Not Null
Ġliber ty
Atl antic
Pro xy
Ġimpact ed
ĠGeoff rey
esc u
ĠEv an
erm ark
Ġs ect
Ġspir its
ĠV and
Ġw ounds
ĠA us
ĠTw in
ĠW an
=" ">
Ï ħ
ĠTe achers
Ġstat utory
Ġbr ass
p ubl
ĠP ole
sh ared
ĠBuck ingham
an ese
ĠSav age
ĠSch ne
Ġprecip itation
ĠC e
ĠBrit t
od us
ĠRoad s
ĠHart ford
Ġfl ute
ĠTe ams
I AL
L atin
Ġm asters
ĠNov el
ĠNic arag
Ġconstit uted
c yl
Ġb arn
R og
M os
c op
Ġcomb inations
Rep ository
ĠCec il
ĠUz bek
ĠS ikh
Ġcontract or
Ġliv estock
ĠM iy
ĠHel ena
Ġl oses
ee le
F ailed
Ġrel ies
ĠEd en
if inal
Ġtem p
Ġad s
Ġin duction
et es
Ġnational ism
18 3
ival ent
Ġcos m
requ ency
ĠVen us
Ġl as
ĠFrances co
D epend
f d
ir ate
Ðµ ÑĢ
ĠMatt hews
Ġsome body
ĠB oh
erc ul
Ġ ip
in sp
ĠPar ade
Ġdead ly
ĠK atherine
urg ery
Ġf el
ĠBar oque
Ġl ane
Ġdestroy er
ble ms
t ools
com be
Ġfe ared
ai res
Ġant is
ĠM atter
air d
Ġdiox ide
WE BPACK
ĠU V
re port
Ġf ores
Ġprint s
ep p
ĠCare y
Ġpres umably
Ġrandom ly
Ġout lined
ĠF letcher
ag ara
ĠReview s
ĠBull s
it ud
Ġtrans parency
Ġnarrow ly
S K
Ġp ocket
22 2
ĠB uc
Ġsw orn
Ġin clusive
ĠCom ments
Ġbas eline
Sim ple
ĠH ydro
w rapper
Ġwhe at
Ġsomet ime
Ġperm its
Ġincred ibly
ÃŃ s
in ement
ĠChrist ie
ĠHass an
LO G
d ock
ĠW en
head ers
Ġco q
Ġpri zes
Ġphot ographers
Ġjust ify
m ine
ĠKnow ledge
d n
ĠB L
ĠGib raltar
âĨ ĳ
i ency
Ġbe aches
S und
Ġtrans gender
en ko
Ġadj usted
Ġt ips
ĠS erg
y i
ĠB ee
app ly
Ġgen ocide
Ġp owder
ro kee
Ġsp are
Ġsp anning
ĠSc andin
ris k
ans on
Ġshould n
17 8
Ġdro ps
ĠS ave
Ġconsequ ently
ĠBron x
ĠS ally
ul se
fore st
Ġindic ation
ĠCh urches
c ies
Ġcrow ds
Ġr ush
Ġint rig
30 1
ĠMc D
UT F
y ar
ĠD ust
ĠD owntown
S us
Ġcha os
ĠE T
ĠMc Cl
Ġcub ic
ert ainties
ĠAct ive
Ġinsert ed
Ġpre jud
Select or
ĠVisc ount
Ġterm ed
Sp ain
D ivision
at io
ol er
Ġl ighter
imb ledon
IMPORT ED
itt ers
ĠR ig
ec urity
int age
Step hen
20 24
ĠMÄģ ori
ĠN ormal
Ġs aints
ĠRec reation
ĠAm anda
ĠCorpor ate
ĠMon ster
ĠY ak
ĠInit ial
ĠM ons
E ST
ĠG C
as ures
ac io
ĠBomb ay
Ġsan ction
rad io
ĠD uff
ĠCh amp
hent ication
ĠL Ã³pez
Ġrem ake
rol ogy
s z
17 7
Ġre ef
,\ ,\
Ġb anner
Ġbox ers
Ġlandsc apes
lean or
b il
ri ka
Ġalgebra ic
Ġy esterday
ott ing
M ath
ĠJ ub
IG HT
H M
ĠT act
ĠCa esar
ĠH os
ĠM add
ĠC umberland
Ġdist ribute
sur face
m itting
á Ģ
Ġc inemat
Ġ{ '
ĠC ivic
} )$,
ĠD ag
ĠCan on
ĠProt ocol
ull a
Ġconvent ions
Ġdeliber ately
ight y
ff ff
r il
ĠN PR
Ġh aul
Ġle x
Ġposition ed
he ma
Ġcyl inder
T a
ĠPhilip pe
20 6
ĠPatt erson
L java
t ec
Ġmon etary
ĠNo ah
ĠMad ras
ĠAir ways
Ġaver aging
ĠÐ ²
Ġenlarg ed
ĠBar rett
Ġdiss olution
coll apse
Ġsup erc
Ad am
Ġm ate
Ġse as
ir ling
Ġproduct ive
Ġavoid ing
amaz on
Par is
ak is
ĠSt range
ĠBer ks
Ġf ilters
Ġm i
ĠP ill
AR S
Rec ent
Ġin sect
Ġ" -
ĠNic olas
Ġsp elled
y ang
Ġp ixel
Ġdestroy ers
Ġpseud onym
ob ia
ĠT ate
Ġmar ched
ĠWe in
Ġder ives
script size
met adata
ĠA pr
Ġcomment ator
Ġwood s
ĠPr ussian
P ut
à ¹
17 97
ĠE R
Ġin mates
Ġpurch asing
ĠN om
ew ard
Ġess ence
d frac
ĠEth ics
ĠM anning
Ġres et
ĠLiber t
Prot ected
Ġh iring
Ġpassion ate
ĠWill is
ĠD A
pro ps
Ġexplo itation
et ian
ĠH ollow
det erm
y cle
Ġinstall ations
n l
ĠT ay
Ġch aired
ĠSy nd
Ġp ond
Ġn as
Ġdoub led
ĠH ak
ĠK ant
ens ation
AM P
Ġadvent ures
Start ing
Ġinter rog
deg ree
Ġfunction ality
ĠL ars
lyn n
% "
Ġhor izon
al om
18 2
B rad
Ġst ems
Ġfail ures
R od
ĠD ion
Ġres ume
William s
S elf
T en
erman ent
Ġver dict
w ik
Ġski ing
ĠArab ian
Conn ect
Ġmari juana
ey n
ĠY i
Ã¶ m
ĠTra vis
Ġcountry side
ipe i
Ġint ensive
Ġbes ides
A round
E tymology
ĠDiv ine
ĠTit ans
ĠT ill
or is
Ġunder way
Ġec ological
Ġp ec
ĠSt uttgart
Ġsw ept
Ġtum or
$ _{
P a
Ġpers ecution
ĠPut in
ĠT ud
ĠT racy
" ].
Ġhect ares
ĠC ologne
ah ar
ĠCan berra
Ġtr aced
ĠAtt ack
Ġmist aken
Ġm eg
Ã¡ lez
P DF
ĠSup erman
mer e
ĠR ex
Ġdis asters
pre v
P N
c orn
ĠI st
_ ,
Ġbutter fly
.. .,
Ġshe ets
B Y
op oly
nt ax
ch at
Ġsubt le
I ss
sl ide
tt i
ad os
Ġorgan izational
ĠEnt ry
Ñ Ĩ
Ġstruct ured
Ġ/* !<
j ack
ĠC it
Ġrend ering
ĠC ritical
Gener ic
Ġden y
Ġbomb ers
M ixed
b id
ĠM iz
Ġreal izes
Ġcharg ing
Ġaffili ation
ĠQuest ion
el man
b ins
ĠR escue
Ã§ Ã£o
ors et
Ġsent iment
B D
Ġf antastic
Ġcon ject
ĠFl ower
ĠFal con
if ference
Ch urches
ĠMult i
ol ades
Ġam alg
Ġbes ide
ĠK ai
Ġperspect ives
av ers
year s
ĠPhill ip
Ġin adequ
ĠCol leges
ĠZag reb
Ġspec ulation
Ġb ust
Ġfluct uations
S ax
c reat
ĠI brahim
17 3
t v
ĠSw itch
ĠBul letin
ĠS ki
Ġcru el
ĠK err
ul atory
C AC
ĠPer forming
ĠPort rait
Ġswim mer
Ġhaz ard
Ġv ir
ĠT in
od ont
is ot
Ġexpress ing
Belg ian
i ota
ĠLind say
Ġorient ed
re lation
ĠSup erv
Ġprol ific
Ġ io
ĠB enson
Ġdis rupt
Ġmon archy
Ġconfig urations
With in
sim ple
Ġillust rate
B all
ĠR ough
ĠSt rike
Ġb urg
Ġnob ody
Ex amples
Ġmedal ist
Gold en
ress ive
Ġm ont
Ġnorm s
ĠBon n
ĠD uchy
ab ar
Ġsem ic
Ġflow ing
Ġlock down
Ġfinanc ially
23 5
Ġinfl amm
Ġfinal ist
ĠEx eter
Ġd ot
ip ation
Ġmax imal
Ġknock out
Ġe cc
) }}
ul as
R NA
ĠLe igh
ru z
Ġrest art
ary a
f u
ĠBeng ali
Ġcl ust
h box
Ġo ath
ĠConc ord
ĠC otton
Ġover look
ĠC ran
ĠL ily
now led
Ġimportant ly
ford shire
RE AD
F inn
ĠCorn er
Ġpione ering
ĠTe aching
ĠMoroc can
Ġca ution
Ġcreat ure
ĠSol o
Ê »
ab ases
Ġstr at
Ġxml ns
ot ics
Ġfol ks
Par se
ĠDaw son
Ġexp ired
K it
ĠTon ight
27 5
pat tern
Ġprom otes
To String
Ġmemor able
at as
oph yll
Ġbroad ly
ĠBah rain
Ġdef unct
st re
ĠBol ton
Ġepid emic
Ġcorn ers
ĠPhil harmonic
ĠG unn
">< !--
ĠGen esis
aj ax
u ce
> :
ĠBe ast
Pl ugin
Ġreun ited
Å ĳ
Ġv isc
ĠEx tra
ĠCher ry
ham pton
ĠBeh ind
ĠInvest ig
Ġme al
Ġle ased
ĠHe arts
ĠK ens
acc ur
Ġnecess ity
ĠH E
ĠDavid son
Ġcell o
Ġcont empor
Ġc and
ĠI E
Ġout line
function s
Ġc ats
ĠV inc
s am
Ġoccur rence
t mp
ĠW C
Ġkn ife
get Name
Ġabund ant
ĠAssoci ates
C opyright
Ġc razy
M apping
Ġtext ure
Ġliber ation
Ġto y
ĠS utton
ĠD uck
Ġcycl ist
ĠV ert
Ġin ning
Ġbure auc
ĠW yn
Ġpseud o
' "
Ġpath way
< !
ri ot
Ġet ern
ĠPer cy
a ic
Ġsh irt
20 4
Ġmist akes
N ULL
Ġhead ers
Ġoccup y
ĠMah ar
ĠE M
Ġsub family
ĠMy ers
Ġt ags
ĠHand book
ty ped
Ġcollect ively
c ery
}\ |
Ġtal ents
Ġpl aque
Ġpul se
Ġlingu istic
ij k
ev iÄĩ
ĠZ oo
os ome
Ġcompet itor
Ġdeal er
Ġsed iment
Å ¼
Ġche ese
Ġtong ue
Cont act
ĠNob le
res et
Ġim pl
Ġaccus ations
ĠHy der
Architect ure
Ġro de
OR Y
Ġgen ome
w itz
H al
s il
en able
ĠBagh dad
ĠSh ane
Ġsexual ity
Ġtransmit ter
ĠY as
Ġbel oved
ĠAbb as
Ġinst ability
Ġflex ibility
oper ative
å Ī
ĠC oul
ĠD uchess
Ġunc ons
ĠTre vor
. ",
G T
Ġreg ression
Ġt ear
C over
Ġannounc es
check ed
Ġret aining
ĠSt ro
Vari able
ĠZ el
Ġr g
ĠK ras
ĠAll ah
36 5
yth m
ĠLaure n
e ous
ĠW itch
ĠEurope ans
Ġfoss ils
Ġimag ination
Ġsp ark
Ġcompl ained
ĠÅ ½
ĠHond uras
ĠClay ton
f an
Ġsimplic ity
B rand
al ism
ent in
Ġneg lect
Ġsix ty
ger ald
up ta
ass embly
g em
B and
Ġch at
Ġag ing
Ġposthum ously
Ġsh ipped
ĠF ry
ĠCh rys
Ġinf ring
ĠSi eg
Ġal ias
ĠProgram s
Ġdepos it
Ġinstruct ed
Ġf t
ous and
Ġj ersey
ĠR ost
ĠW elfare
ĠV on
ib i
/ (
Ġs s
Ġworld s
ĠC BC
af ia
isp here
Ġamend ments
-> _
ĠHold ings
unning ham
Don nell
Ġre hears
Ġatt ain
Ġsup rem
AL SE
ĠAbd ullah
ĠId ent
ĠIn ner
Ġstake holders
Ġmethod ology
Ġdr agon
F ace
ch us
Ġb iblical
ĠCar penter
ĠWilliam son
st eps
Ġdepict ions
ĠX avier
ff cc
Ġatt ained
strument al
ĠGl ory
Ġles bian
Ġle mma
16 4
ĠO sw
gr ass
en abled
Ġover head
parent s
d ark
Ã©n Ã©
Ġne o
ĠR Ã©
if i
res a
ĠG os
Ġtub es
L ayer
Ġg reet
ĠWin chester
l ifting
ĠS eth
ĠW IT
Ġeconom ies
ĠGe orgetown
Ġgovernment al
Ä ĵ
ĠL ocated
Ġcell ular
Ġdescend ant
ob i
Ġsp okesperson
Ġint imate
Ġman eu
ĠCo ch
its u
IS E
ĠSer ver
Ġdefend ants
ĠAlber to
Ġjust ified
ĠParam ount
ĠI bn
Ġresid ual
l ich
More over
b atch
Ġp unct
Ġcontribut es
ar at
Ġam phib
Ġs our
ĠR isk
Tr ace
Ġfold ed
Municip alities
oz a
Ġunc ertainties
Ġdis m
k le
as ants
ĠM ikhail
Ġattorney s
) ||
w rote
Ġgl ad
Ġprov es
Ġtact ical
H arry
Ġm ills
Ġopt ed
Ð° Ð½
all classes
Ġ= ======
comp iler
run ner
n om
ĠB rett
3 40
Ġton nes
att ed
Ġtall est
Ġde er
ant as
ĠMap le
ĠPre viously
us ually
ĠSt ad
ĠAl ps
Rem ove
l ining
Ġalt ogether
ĠÄ °
Ġvis ibility
yl ogen
Ġin coming
J es
ĠF en
Ġsoc ially
ĠWh ich
Portug uese
F H
t ed
Ġdesc ended
Com mercial
Ġgot ten
R ural
t ier
ust rial
ne ath
ĠCl aim
ch arge
ĠClass ics
Ġcl oth
ĠKun st
L ost
ĠG rav
AN CE
ĠCly de
St ats
ĠLam bert
Ġgener ates
t ags
S ync
T ony
Ġo re
Ġle v
ĠKh al
Ġadd iction
sc al
Ġpal m
V R
new command
Ġfire arms
Ġteam mates
ĠCar bon
Ġpos ed
Ġfre el
direct or
a qu
ĠMed ieval
in ator
p icker
M obile
ĠR oh
17 2
Ġshort age
Ġsurg ical
E gypt
ĠWe ap
Ġ Ã©
Ġimpro v
ĠĠĠĠĠĠĠĠĠĠĠĠĠĠĠĠ Ċ
Ġunanim ous
ĠAct ing
ĠNic ole
Ġretriev e
B ind
18 4
Ġtoler ance
ent a
ĠLe ave
Com pos
Ġdev iation
ĠS equ
ĠThe ological
Ġdec isive
Ġwh olly
Ġy acht
ĠRes istance
ut ral
ric anes
ood y
s ym
is y
Ġserv ers
ĠM oll
orth y
Ġmet ro
ĠW er
Ġsleep ing
A rea
ĠEns emble
ol ation
Ġoffer ings
ĠG Ã¼
Ġ" <
Ġo wing
es i
ĠS v
Ġimp ly
ĠUn ity
S ummer
Ġs ink
ĠK olkata
Ġconj ug
Ġpres erving
Roman ian
Ġcouncill ors
Ġrent al
ĠG ender
Ġse iz
ĠL ig
ĠTibet an
ĠCom par
eb ack
larg est
ĠF ischer
Ġun stable
ĠAng ola
ĠB ates
30 4
ert s
ĠSh arp
Ġassum es
ĠG entle
Ġgr ateful
ram s
Ġinvent ory
is eries
Ã¤ t
ĠCy ber
ast ro
TE GER
ĠH onda
Ġnational ity
ĠChar acter
CO MP
Stat ement
ĠWe ber
Ġancest or
m our
Ġstory t
Ġunf air
wer p
ĠÃ ĩ
ĠPoly techn
c ourse
ĠNew sp
Ġv iable
Ġoff ence
Ġemploy s
cd n
i ator
l ip
ĠM use
ĠD ial
Ġsens ors
ĠR ust
Ġcons on
Ġcar b
ĠHol t
Ġveget ables
Ġsub stances
st orage
iz za
Ġpublic ity
Ġclean ing
n or
Const ants
4 80
d or
Ġdecl ining
Ġter restrial
P red
N ic
ĠS end
ID E
ĠR andom
Ġfav ored
ĠConstant ine
Ġcomp elling
Ġcur ved
ĠT err
ĠDev ils
in z
ĠCh ak
Ġphys i
Ġdial og
Ġse aled
8 50
ul ata
Ġpl at
Ġtest ified
Ġdemonstr ating
f actory
Ġreason ably
ĠAub urn
ac ion
Ġst ab
b ling
ĠR ash
her ty
at l
ut on
uc le
ĠAdd ress
ang les
c as
ĠMart ine
Ġreli ability
Ġacc ent
Ġreson ance
ĠMan ual
ĠRoy als
Ġproduct ivity
ĠParagu ay
b illion
Ġfin ishes
][ ]{
Ġaster oid
ra ve
}{ |
col lect
ĠF O
Ġcontinu um
out ube
ĠRom ance
ĠMong olia
Ð¾Ð »
ĠFront ier
Ġsp ont
Ne il
Ġscr ut
bl ank
ĠI k
ter a
Ġdisc retion
ĠJournal ism
In stall
17 91
S ample
ĠP f
cc ffcc
17 1
Ġdrain age
ĠLe Ã³n
Ġam ino
37 5
ĠValent ine
y led
Ġauthent ic
Ġtremend ous
Ġintent ions
Ġr ay
red itation
Ġc ref
ĠT uc
Ġref urb
Ġcourt esy
Ġnav ig
Ġprosecut or
Ġst ressed
ĠO mar
Ġind ividually
ĠSix th
M Hz
ge e
ĠGovernor ate
Ġ ðŁ
Ġover night
Ġdec oration
= .
Ġgarn ered
W ay
Ġdecor ations
ĠMalay alam
cut ta
g uez
lev ant
ĠSt ones
col Last
L ake
with out
ĠSom alia
ipel ago
ĠF ROM
Ġall oc
Ġembar rass
roll ers
B ound
Ġres il
Ġapprec iation
b ecause
st ral
qual ified
ĠE lev
ĠNord ic
ĠFl at
Ġ? >
Ġacceler ation
Ġ" ",
Ġ> >
iz ards
Ġind ef
ĠAnd hra
Ġsk ept
Ġred ist
ire ment
An cient
ĠS aid
Sim on
v c
erg arten
ĠM k
ĠF erm
20 7
Pl ants
ĠMid land
ĠTur ks
per iod
sw arm
T unes
ugg ing
Se lection
ĠSuper intendent
ĠIss ues
Ã µ
Ġhapp iness
ĠSteel ers
m or
ĠEl ite
ĠB otan
an alysis
Ġgrand children
ĠBow ie
rib es
tw itter
Ġf us
Ġcl ips
Ġres emble
ĠHast ings
arn ation
Ġundert ook
ĠInt eger
Ġpersu aded
ĠTol edo
ĠB Ã©
ÃŁ e
ĠW is
Â ®
Ġal beit
Ġdecor ative
Ã³ d
Ġplant ation
t emp
ĠW ey
Ġmot ors
ĠP ied
ĠAndre as
}[ \
ĠRever end
B s
ĠL ump
se q
Ġresemb les
ĠChe shire
ot ive
ams ung
m iddle
Ġk g
ĠPhill ies
A K
Ġsett ling
ould er
Ġrat ios
Ġnegot iate
en ov
bul ance
Ġra ises
od on
Ġinvest ing
Ġincorpor ates
t an
ĠH ess
Ġexplos ive
T x
d ag
ĠH ag
Ġthick ness
ĠP ond
H ill
Ġn it
l ibrary
st ick
ĠN est
b gcolor
ĠRou ge
Î º
ĠFor ward
ĠP ython
Ġpress ures
Ġpress ed
Ġcooper ative
Ġvis a
Ġvac ation
ĠS ail
Ġlic ensing
ĠAss essment
ul ia
ĠGonz Ã¡lez
) )$
b c
Ġpro long
Ġhe s
Qu arter
ĠRivers ide
Ġ{ $
ateg y
Ġtr unc
pro ducer
ĠF uk
ung en
Ġ ],
ĠÐ ¸
ĠEmploy ment
Ġfilm makers
ĠVenezuel an
Con c
ĠM ist
ĠT ouch
ĠShir ley
Ġannounc ing
Ġdecl aring
Ġrid ic
ĠK od
Ġvol atile
Ġreb uild
Ġw ives
ĠF Ã©
Ġcycl one
Ġep och
le ague
oci ated
ĠAnth rop
P it
h on
Ġf erm
ĠSc outs
He art
clud e
stitu ency
x html
Ġpers istent
ar cer
uther land
am ph
ĠD ro
Ġ| ___
Capt ain
âĢ ²
Ġmodel ed
ib e
Ġassoci ates
Ġinteg rate
Ġdr ift
w ikipedia
Ġspons ors
Ġcru iser
Ġecc entric
Ġemb edding
Ä Ĺ
ĠPra irie
ĠE lections
A BC
rÃŃ guez
rypt ed
Mal ays
K al
R o
Ġbatt ed
Ġcurv ature
Ġst ocks
d rama
Ġgener ators
ĠSev enth
G ar
ar ial
Ġle ak
Ġgr at
og i
Ġcreat ivity
ans en
IN S
Ġgamb ling
{ %
ĠF ow
T HE
ĠM ud
Ġenj oys
ĠĠĠĠĠĠĠĠĠĠĠĠĠĠĠĠ ĠĠĠĠĠĠĠĠĠĠ
ĠCom ing
Ġspl itting
40 1
Ġnegot iated
Ġapplic ant
Ġmar athon
ĠIO Exception
Ġide als
ap is
Ġd os
and ed
Ġillust ration
ĠSat urn
f ax
ys et
col lection
T M
ĠNY C
ur us
ol om
ĠAb stract
Ġdevast ating
ĠS anskrit
Ġfasc inating
Ġconven ience
ĠZ hu
Ġch assis
long rightarrow
ĠSt ark
21 6
Ġappoint ments
ĠH ors
Ġhad n
Ġillust rator
Ġinvestig ators
e er
end ors
ident ial
uls a
ĠViol ence
up p
ĠWrit e
H all
ĠArt icles
Ġassert ed
Ġpot tery
ĠSh annon
Ġon set
s ar
ĠW are
Ġwhere by
Ġreject ion
ĠEN D
pe on
Att ributes
ĠSte am
Leg al
ĠG iant
Ġch im
am en
Ġto ile
red uc
ember g
R om
ĠBar ber
Ham ilton
st a
Ġ\ !
Ġshock ed
c ounter
al ach
ĠVer de
j un
ym e
Ġsim ulated
Ġmolec ule
ir ming
her ry
ĠBart on
R esp
Ġsuccess es
Ġnormal ized
iter ator
Ġcommemor ate
Ġch icken
Ġp aired
le arning
Ġ$ |\
ĠAbb ott
ĠOl ive
Ġrecogn izes
Act resses
ĠBl ind
Ġa fore
Ġarm or
ĠJer ome
ĠRud olf
cl er
ĠÅ Į
wild fly
v ance
ĠMick ey
f el
Ġfact o
Ġspect ators
Ġor ch
ĠNor wich
ĠD ang
Ġportray al
ĠBundes liga
ĠF lem
Ġrefer enced
Ġfront ier
ĠHans en
Ġtel escope
L ith
ith metic
\ ;
co e
Ġf als
Ġtr ilogy
Ġb ug
Ġl ibr
res ources
col First
ĠMoh amed
ĠAr row
ĠMe et
ĠHT TP
ĠEv angelical
ĠAd mir
Ġremark ed
Ġpro se
det ail
vert ical
Ġsu ited
Ġaccount ed
ĠSim mons
Writ ing
E ric
anc ock
ĠNe o
l ance
FORM AT
is ans
ĠN W
ĠX ML
Ġdynam ical
." );
as o
Ġlack s
Ġg aps
ĠO C
amb o
ĠK amp
Ġcirc uits
Ġr ushed
ĠB ram
Ġsan ctuary
t ake
ĠVal encia
ĠEv a
Ġcampus es
ĠK C
st ones
ĠR F
Rel igious
F ood
D omin
m obile
pl ays
ĠCh oir
ĠTh ank
Ġspec ially
ĠX in
ĠGe ographic
or io
Ġsuspect s
ĠDres den
Ġdr inks
D ou
Ġdisc ourse
ĠJ upiter
og onal
Ġfix ture
I gn
Ġsp iral
ĠMir ror
Ġrig id
Fl ag
ep per
Flor ida
Ġutil ize
Ġann ot
Ġt urt
ĠA in
Ġtri angular
21 4
Ġm ice
Ġsp ur
Ġcolumn ist
ĠSh awn
ĠSign al
ĠVol ks
ĠTa ipei
Ġcon e
ĠFore ver
ĠD il
Ġoper as
Ð¾ ÑĢ
V en
q i
ĠP GA
ow ment
Ġobserv ers
Ġanalyt ical
Ġorigin ating
ĠC ret
olog na
Ġs oprano
ĠI ber
Ġst up
ĠSpec ifically
Ġterror ists
ĠBever ly
Pr ime
Ġmin ers
Ġsize of
ill ian
at an
ĠPer kins
Ġens ures
pat hetic
Ġline back
A le
Ġpar ody
Ġl ucky
Ġdis closure
] $.
sub ject
ar f
ĠL oad
Ġforb idden
ĠN ed
Ġsh rine
Ġview er
itud inal
N L
Ġteam ed
T ro
ical s
dr iver
18 1
Ġcomp uls
pro gress
err ors
bb ffbb
un ts
Ġbow ling
ĠMoz amb
H o
fil ename
ĠS ob
Ġl ag
(' #
Ġmel ody
ĠDeg ree
Ġsupp ressed
rad or
Ġdial ects
$ /
Ġpract icing
ĠBre xit
ĠReb ellion
Ġremn ants
re asing
B order
ĠMar ina
Ġrep ository
umm ing
Ġspect rosc
$ };
ran es
inter pret
ĠAv engers
ra ul
att ing
bb ed
Ġapplic ants
Ġdiss ertation
ĠRand olph
ĠG ould
ad ays
ĠSt a
ĠV or
ĠWhe eler
\ )
Ġn ic
ĠR ide
Ġph rases
ush i
Ġlif elong
apl ain
Ġtr agic
26 5
W rapper
Ġsk ip
ĠEsp a
Ġspe eches
ercul osis
ĠW H
ĠC ould
Ġsupern atural
S and
Ġs aves
Ġe ager
24 5
Ġcor ridor
L ew
x s
so lete
ac ements
Ġprofess ors
Ġprogress ed
OW N
ĠFl int
asc ade
Ġposit ively
}{ (
Gen us
b et
old ing
fl ight
is ible
Ġdown stream
ĠMiddles ex
S hip
arm ed
ĠS iege
ĠG el
20 9
ex pect
J P
peon ato
ĠB ooth
log in
Ġf rog
bro ther
ĠAg nes
ĠRest aur
t rad
Ġreg ener
Ġa unt
$ :
Ġs ank
Ġh int
idd ing
C a
j ournal
Ġexp onential
30 3
K eep
ĠD S
ĠCh u
ĠOm aha
ĠPr att
Ġshort ened
Ġdepend encies
ĠÎ ±
est ead
l ake
Ġin scriptions
Ġadd itions
ĠGod d
Un like
Arch ae
Ġequ als
cal c
Ġsquad rons
ĠScholars hip
Ġdeb ris
ĠArchitect s
ual a
R am
ĠCal ed
y y
Ġre lying
ĉĉĉĉ ĉĉĉĉĉ
AS H
Ġat he
nest y
ĠJ enny
Ġnetwork ing
Ġequival ence
An imation
Ġaltern atives
ä ½
L ibrary
] $,
S ol
ĠL ect
end ra
fl ower
Ġb ubble
Ġmid night
ĠD oyle
ĠCert ificate
ir ut
Ġf n
ĠM ining
Sc ale
Ġweaken ed
ĠRel ief
Ġprior ities
ĠPalest inians
Ġconfirm ation
Ġstri pped
b ilt
ĠDem on
Ġbe ats
Ġgran ite
ĠH arri
ĠChe rokee
m aven
sp ons
as pora
Ġbuild s
Ġevac uated
ĠP ok
ON G
ĠV ia
ĠPro perties
ĠH aus
Ġphot on
ĠProduct s
do ctor
Ġrecon structed
22 4
Ġprogress ion
Ġrock y
Phil ip
Ġpreval ent
Ġin ability
Ġsqu ares
ĠK oz
Ind ones
b inding
Ġpro position
Ġto oth
ĠEx ample
ĠG E
Ġair lines
ĠT et
Ġad ul
Ġlin ed
Ġrot ating
Ġmasc uline
We ight
Ġclass rooms
ĠGu est
ĠSal is
Ġacqu iring
ĠLoren zo
v re
ĠSh ot
ns ic
prov ider
r ne
Ġliter al
Ġopp ose
ĠMid west
Ġm ourn
ĠRain bow
ĠResp ons
wart z
Ġo mitted
char acter
Ġcapital ism
Ġb rak
ĠGreen land
ĠU I
act ivated
ĠRap ids
Ġfemin ine
ĠM ant
Ġg ly
ĠJ agu
Ġreg ulate
um ont
Ġtax ation
Rec ords
ĠFitz gerald
G i
ĠP BS
ĠRes ervoir
oul os
Ġex cerpt
Em ail
ĠL och
CH ECK
Ġ ĉ
Ã¡ z
Ġref usal
Ġw ards
ĠX i
Ġsp ans
ĠCent ers
ĠGab ri
n c
St ruct
ĠZ am
Ġpick ing
ide an
Pro of
ĠProceed ings
b d
b undle
Ġpl atinum
ĠRec ent
CO M
Ġaccompl ishments
ĠJose f
od el
ĠHealth care
Ġlog ger
number ed
ĠP aint
Ġatt ach
ĠHaw k
ĠD oming
Ġafore mentioned
Ġcoord inated
Ġa wa
Ġmer it
yst er
ĠAlb ion
t le
ĠD ana
Ġsc an
trans ition
Ind ependent
ĠHy per
3 70
ĠM ate
us ername
ĠTe acher
ĠRub y
ri ent
() </
est a
Ġc tx
ĠEmp ress
b g
ĠT ort
ĠSh o
ĠH aj
ĠIllust rated
ĠTw ins
ĠM alt
19 1
Ġar ises
17 9
Ġext ant
in valid
id ia
Ġpit chers
Ġf ence
g ren
ĠSc ulpt
Ġb unch
ĠC yn
ĠMay o
Ġsl ower
Ġr ifles
Ġlad ies
le et
Ġpre ferences
Ġcontext s
Ġpass ive
Us ers
Ġfresh water
Ġastron omer
roph ic
Ø ª
ĠP osition
ĠRes ort
develop ed
Ġhe ated
3 25
ĠPack ers
Ġdisag re
el age
ĠT ut
auth ored
M ove
id x
Ġ- --
oon ey
Ġuniform s
an as
ĠE rie
Ġobst acles
ĠW o
Ġspr ings
c ript
ĠCal der
ĠEm manuel
Pl atform
pr iv
Ġdepend ency
m ese
ĠH ang
Ġpat ents
Bas ic
Ġair field
ĠHon ours
Ġsign atures
ĠRan ch
f its
ĠHill ary
ĠF ocus
Ġmed ication
aster ies
Ġcomplex es
ĠJes uit
esp ecially
Ġfundra ising
ĠM Ã¼n
ĠS print
Ġid ol
ĠK ell
American s
Ġpod ium
aw ks
Ġex clusion
ĠMon itor
h ak
Ġl ov
Ġrest ruct
tr im
ĠGujar at
D IS
ĠSt rip
ey e
og ie
Ġen umer
Ġadminist rators
Ġshoot er
ĠPort o
Ġobserv ing
rosso ver
Ġcom eback
Ġneur ons
ou bt
Ġun official
ĠTh ur
Ġcheck ing
Profess or
less sim
Ġsk iers
Ġdefe ats
is chen
ĠGl oria
ĠClare nce
ct ors
Ġaccording ly
Ġdens ities
isl av
Er r
ĠAra bs
otechn ology
B es
ĠO v
rub y
Ġbott le
Res ources
ĠBen ef
> \
it on
Ġnitro gen
en b
Ġcorre ctions
ĠGree ks
Ġcan oe
Ġp ays
miss ible
Ġ( [
ĠCol legiate
ĠSmith sonian
Ġdispos al
Ġty pename
omot ive
Ġroll ed
O rd
Ġcook ies
s burg
D ave
rib ers
ĠF ix
ĠGrow th
Ġemb ry
Ġencour ages
ĠCooper ation
Academ ics
art y
Ġcomm issions
if def
Ġdiv ert
Or igin
osa urs
ĠNorm andy
ĠIceland ic
ĠGlou cester
Ġcult ivation
d og
Ġt rom
ĠCar men
ĠStand ing
ĠE arn
17 88
Ġsp o
Ġar row
U lt
Ġab d
ĠAugust ine
F riend
os aurus
ĠMaterial s
ĠDud ley
ĠUn known
or igin
ĠD uk
ĠG le
ĠSu ite
at en
Ġspect acular
Ġ$ ,
side bar
Ġtext ile
Ġar che
ĠPers pect
ĠCal cutta
Ġr ides
ĠBuch arest
ffic iency
4 40
ĠL ights
eb ox
Ġla ure
D ark
Ġo ught
ĠL akers
fig ures
Ġefficient ly
light en
ĠD epend
ĠFro st
Ġbrut al
Ġc it
Ġre plic
Ġ' <
ĠT C
Ġl ymph
ĠS exual
ĠT ap
ĠTrad itional
K evin
if olia
ĠAr cher
Ġsucceed ing
b rief
p refix
er d
ĠCanad ians
Ġmag ist
Ġassign ments
Ġsh ifting
ĠNiel sen
et i
ĠM its
ach y
ighbor hood
ĠB rem
aw ar
numer us
ĠHyder abad
Conn ell
ĠBark er
ĠR A
ĠCl iff
Ġfac ial
ĠT ou
ĠRod rÃŃguez
Ġem brace
ge bras
Ġsn ail
Ġminim ize
G astrop
j as
th irds
23 2
Char acters
Ġchart ed
Ġla und
numerus form
Ġstri ker
S EC
ĠLeg ends
ol esc
res cent
US E
l b
on el
empt ion
let es
spring framework
Ġstate wide
Mic hel
d k
op ath
log o
Ġel ong
(' .
Ġblock ing
Ġreg ret
Ġmetab ol
ĠP uebl
t body
Ġd ances
Ġovers aw
ÃŃ o
aj o
sim ilar
Ġarc ade
Ġche er
Ġref using
The me
aw an
F emale
Ġa ided
ĠS idd
Ġpack et
Ġgra ves
ĠS yl
oss ibly
ymmet ry
c ov
Ġrecru iting
ï¼ Į
Ġconsec rated
Ġsong writing
( __
Phil adelphia
an u
Ġde ity
ias m
Ġun lock
ĠAugust a
ĠEv idence
ĠMos que
Ġlett ing
j ango
Man agement
ĠJ ian
S cal
ĠL L
Ġunn ecessary
Ġim ports
Ġrepro ductive
Ġ ions
ĠW imbledon
Ġthe rape
ex isting
us z
Ġdisappoint ed
Ġind uc
ĠShe pherd
ĠW ine
Ù ĩ
ĠAnt werp
ĠNot ice
ong a
eal ous
ĠR um
$- $
17 83
ank a
Ġpop ul
In ternet
Ex pl
ĠFerr ari
N ight
Ê ¼
sp in
Ġout let
Ġrepro duction
t iny
ĠBo olean
j unit
ĠIn tern
ĠCam den
ĠHan over
ĠW E
}} }\
Ġtouc hed
oh a
ĠStev enson
ĠB ri
ĠBar th
ĠAre as
ons on
29 0
ĠAd vert
ox ide
Ġprosper ity
T imes
17 87
Ġworth y
Ġn aked
ec es
ĠNetwork s
ĠP T
Ġst ays
Ġrecruit ment
al on
ĠC hes
er oy
ĠÃ ĵ
ĠSin clair
Ġdet ain
Ġvacc inated
Bul g
Museum s
ĠH ague
ĠU AE
ĠMon astery
Ġinter pol
AT ED
Ġback s
Ġgastrop od
-------- ----
Ġde af
ĠP oz
^* $
Ġqual ifier
Ġharm ful
r ug
Ã¤ n
UR I
Ġt ended
Ġdisc our
ĠG ore
ĠH C
ĠJo ey
ĠPer uvian
yr s
Ġthe ological
ont e
Common wealth
f g
ĠFort une
ĠV y
Ġval ve
l ings
Ġc ure
C ref
aut ical
En um
J am
Ġl unar
Ġthere of
2 17
ĠC ouncill
ĠM ald
Ġyear ly
j ord
ĠG iuseppe
Ġsoph omore
Ġex changes
Ġphilanthrop ist
Mex ico
ĠM oy
ĠF ourier
ĠMac Donald
ĠD iane
ĠZ ak
Ġtrad ers
ĠC unningham
ĠDep uties
fin ity
se p
sl ash
F inals
Al ong
edd ings
B uff
ĠC able
Ġten ants
ĠAll ies
Ġtax i
s b
ĠAut onomous
Ant on
Ġentert aining
O cc
sc hed
Ġdem olition
ĠEthiop ian
C irc
ĠT urb
ĠSt ructure
ert iary
Ġpar alle
Ġuncons cious
Requ ired
ar ine
ĠE asy
OM E
orn o
ĠSup ply
ĠE D
Comm unity
Ġinherit ance
ĠCl aus
op ening
Ġco ined
ĠGood man
Ġgreen house
ĠDr iver
Ġc ris
Ġhar bor
s ys
Ġtrans verse
Ġd ome
ĠC aval
s igned
ĠM og
Ġste ering
Ġdign ity
ĠĠĠĠĠĠĠĠĠĠĠĠĠĠĠĠ ĠĠĠĠĠĠĠĠĠĠĠĠĠ
Ġacceler ated
Ġd in
Ġ\ ]
Ġcol legiate
Ġretail ers
Ġqu eries
ac i
r l
P ast
f re
ĠT il
Phil ipp
ĠBM W
T el
ĠW ait
ĠBh ut
ĠMy th
Ġaffili ates
T ele
cl uster
Ġeconom ists
Ġw orm
Ġb ordered
ĠRem ember
Ġp ixels
Ġso ils
Th ose
ĠQuarter ly
Ġle ver
ĠSh u
Ġcour ty
ĠP ub
Com b
Ġtrust ee
up per
Ġthr ust
Ġign or
un ks
Prot ocol
ĠE leanor
ĠMethod s
ac ritic
Sc roll
s ometimes
Ġmarri ages
Ġhe d
Sk ip
Ġasp ir
w y
ĠJ ing
m ov
Ġprov ing
Ġresp iratory
m eter
Ġfro zen
ĠSam oa
Ġrein forc
ĠD ifferent
Ġcr ust
ow o
ĠTom orrow
Sh are
ĠAl most
Ġtw ist
p ag
ĠTh orn
Ġdomin ance
ĠDirector ate
ĠX ia
T IME
ought on
ĠCitiz en
ĠHu ang
Ġimm unity
ĠCov entry
ĠPars ons
a eda
22 3
Ġloc ate
Ã¨ ge
Ñ ĸ
ĠLaure nt
Ġindic ator
ĠF res
Ġcon greg
ear chers
ie le
ÃŃ k
Ġult ra
Ġexceed ed
ĠA V
Ġloan ed
ĠA uth
Ġm igrated
ĠP emb
Ġch ase
ĠBerm uda
? >
ĠInter active
print ln
il and
ĠL ug
Ġsatisf action
Ġo g
ĠElect rical
Ġstom ach
Ġp ac
Ġsc hema
Ġun h
Fe atures
yt ic
S in
ĠAll ison
Ġmaster ing
Ġplaint iff
| }{
Ġcomp rom
Le on
n h
its ch
ĠChar ity
u ins
ĠF ors
th or
ut i
Ġp arser
ĠW ife
Ġbl end
ass er
Ġstation ary
Ch apter
Dep artment
H ig
ĠMer cy
Ġuniform ly
ĠTra ffic
Ġstorm s
ĠHor ror
Ġpack ed
ĠTreat ment
Ġal pine
ĠF rem
Ġo st
Ġcirc a
Ġre formed
m oz
ĠRe formed
Ġprop he
P refix
55 5
ĠVari ety
on er
ĠConserv atory
Ġconstit utes
ĠGib bs
Ġsc rap
ĠH of
Ġspecial ty
Ġroll er
i ating
Ġinter ventions
c Ã©
EE EE
Ġres ide
Ġsort s
ific ates
Pass word
at ore
Ġsupport ive
mill an
icular ly
After math
ĠPay ne
os ures
... </
Ġs ings
ĠC ertain
Ã ¬
Ġintr insic
ĠTrust ees
n ear
ĠE vel
Ġan them
rid es
Ġdiagn ostic
ĠLev i
Ġhi atus
ĠH yd
ib les
ĠBeh avior
26 4
Ġcos mic
Text ure
ĠT ac
ocr at
bo ats
Ġlegit im
ĠM R
Ġmon k
multi row
asc us
ĠGo es
ĠVer lag
ĠMorm on
' ',
im on
pop ular
at omic
Ġoutput s
ĠEl vis
ĠCont ext
Ġant enna
ar ro
ĠMid night
ĠB om
att ributes
PO ST
Ġcr ater
Ġpost al
d ash
\ }$.
ĠR otten
Ġun changed
hold ing
Ġm ast
ĠWork shop
Ġhelic opters
st ars
ĠP seud
ĠSport ing
Ġprivile ges
ĠS iles
Ġsal mon
j oy
Ġjewel ry
TE XT
r ud
ĠMon aco
Ġfolk lore
Ġsp herical
oll ah
Ġrem inis
[...]
