{
  "version": "1.0",
  "truncation": null,
  "padding": null,
  "added_tokens": [
    {
      "id": 0,
      "content": "[UNK]",
      "single_word": false,
      "lstrip": false,
      "rstrip": false,
      "normalized": false,
      "special": true
    }
  ],
  "normalizer": null,
  "pre_tokenizer": {
    "type": "Sequence",
    "pretokenizers": [
      {
        "type": "Digits",
        "individual_digits": false
      },
      {
        "type": "ByteLevel",
        "add_prefix_space": false,
        "trim_offsets": true,
        "use_regex": true
      }
    ]
  },
  "post_processor": null,
  "decoder": null,
  "model": {
    "type": "BPE",
    "dropout": null,
    "unk_token": "[UNK]",
    "continuing_subword_prefix": null,
    "end_of_word_suffix": null,
    "fuse_unk": false,
    "byte_fallback": false,
    "vocab": {
      "[UNK]": 0,
      "!": 1,
      "\"": 2,
      "#": 3,
      "$": 4,
      "%": 5,
      "&": 6,
      "'": 7,
      "(": 8,
      ")": 9,
      "*": 10,
      "+": 11,
      ",": 12,
      "-": 13,
      ".": 14,
      "/": 15,
      "0": 16,
      "1": 17,
      "2": 18,
      "3": 19,
      "4": 20,
      "5": 21,
      "6": 22,
      "7": 23,
      "8": 24,
      "9": 25,
      ":": 26,
      ";": 27,
      "<": 28,
      "=": 29,
      ">": 30,
      "?": 31,
      "@": 32,
      "A": 33,
      "B": 34,
      "C": 35,
      "D": 36,
      "E": 37,
      "F": 38,
      "G": 39,
      "H": 40,
      "I": 41,
      "J": 42,
      "K": 43,
      "L": 44,
      "M": 45,
      "N": 46,
      "O": 47,
      "P": 48,
      "Q": 49,
      "R": 50,
      "S": 51,
      "T": 52,
      "U": 53,
      "V": 54,
      "W": 55,
      "X": 56,
      "Y": 57,
      "Z": 58,
      "[": 59,
      "\\": 60,
      "]": 61,
      "^": 62,
      "_": 63,
      "`": 64,
      "a": 65,
      "b": 66,
      "c": 67,
      "d": 68,
      "e": 69,
      "f": 70,
      "g": 71,
      "h": 72,
      "i": 73,
      "j": 74,
      "k": 75,
      "l": 76,
      "m": 77,
      "n": 78,
      "o": 79,
      "p": 80,
      "q": 81,
      "r": 82,
      "s": 83,
      "t": 84,
      "u": 85,
      "v": 86,
      "w": 87,
      "x": 88,
      "y": 89,
      "z": 90,
      "{": 91,
      "|": 92,
      "}": 93,
      "~": 94,
      "¡": 95,
      "¢": 96,
      "£": 97,
      "¤": 98,
      "¥": 99,
      "¦": 100,
      "§": 101,
      "¨": 102,
      "©": 103,
      "ª": 104,
      "«": 105,
      "¬": 106,
      "®": 107,
      "¯": 108,
      "°": 109,
      "±": 110,
      "²": 111,
      "³": 112,
      "´": 113,
      "µ": 114,
      "¶": 115,
      "·": 116,
      "¸": 117,
      "¹": 118,
      "º": 119,
      "»": 120,
      "¼": 121,
      "½": 122,
      "¾": 123,
      "¿": 124,
      "Â": 125,
      "Ã": 126,
      "Ä": 127,
      "Å": 128,
      "Æ": 129,
      "Ç": 130,
      "È": 131,
      "É": 132,
      "Ê": 133,
      "Ë": 134,
      "Ì": 135,
      "Í": 136,
      "Î": 137,
      "Ï": 138,
      "Ð": 139,
      "Ñ": 140,
      "Ò": 141,
      "Ó": 142,
      "Ô": 143,
      "Õ": 144,
      "Ö": 145,
      "×": 146,
      "Ø": 147,
      "Ù": 148,
      "Ú": 149,
      "Û": 150,
      "Ü": 151,
      "Ý": 152,
      "Þ": 153,
      "ß": 154,
      "à": 155,
      "á": 156,
      "â": 157,
      "ã": 158,
      "ä": 159,
      "å": 160,
      "æ": 161,
      "ç": 162,
      "è": 163,
      "é": 164,
      "ê": 165,
      "ë": 166,
      "ì": 167,
      "í": 168,
      "î": 169,
      "ï": 170,
      "ð": 171,
      "ñ": 172,
      "ò": 173,
      "ó": 174,
      "ô": 175,
      "Ā": 176,
      "ā": 177,
      "Ă": 178,
      "ă": 179,
      "Ą": 180,
      "ą": 181,
      "Ć": 182,
      "ć": 183,
      "Ĉ": 184,
      "ĉ": 185,
      "Ċ": 186,
      "ċ": 187,
      "Č": 188,
      "č": 189,
      "Ď": 190,
      "ď": 191,
      "Đ": 192,
      "đ": 193,
      "Ē": 194,
      "ē": 195,
      "Ĕ": 196,
      "ĕ": 197,
      "Ė": 198,
      "ė": 199,
      "Ę": 200,
      "ę": 201,
      "Ě": 202,
      "ě": 203,
      "Ĝ": 204,
      "ĝ": 205,
      "Ğ": 206,
      "ğ": 207,
      "Ġ": 208,
      "ġ": 209,
      "Ģ": 210,
      "ģ": 211,
      "Ĥ": 212,
      "ĥ": 213,
      "Ħ": 214,
      "ħ": 215,
      "Ĩ": 216,
      "ĩ": 217,
      "Ī": 218,
      "ī": 219,
      "Ĭ": 220,
      "ĭ": 221,
      "Į": 222,
      "į": 223,
      "İ": 224,
      "ı": 225,
      "Ĳ": 226,
      "ĳ": 227,
      "Ĵ": 228,
      "ĵ": 229,
      "Ķ": 230,
      "ķ": 231,
      "ĸ": 232,
      "Ĺ": 233,
      "ĺ": 234,
      "Ļ": 235,
      "ļ": 236,
      "Ľ": 237,
      "ľ": 238,
      "Ŀ": 239,
      "ŀ": 240,
      "Ł": 241,
      "ł": 242,
      "Ń": 243,
      "Ġt": 244,
      "he": 245,
      "in": 246,
      "Ġa": 247,
      "er": 248,
      "on": 249,
      "ĠĠ": 250,
      "Ġthe": 251,
      "re": 252,
      "at": 253,
      "or": 254,
      "en": 255,
      "an": 256,
      "Ġs": 257,
      "Ġo": 258,
      "is": 259,
      "ed": 260,
      "es": 261,
      "al": 262,
      "Ġw": 263,
      "it": 264,
      "ar": 265,
      "Ġc": 266,
      "Ġof": 267,
      "Ġf": 268,
      "nd": 269,
      "Ġin": 270,
      "Ġp": 271,
      "Ġb": 272,
      "ic": 273,
      "ing": 274,
      "as": 275,
      "ion": 276,
      "Ġand": 277,
      "ro": 278,
      "le": 279,
      "ĠĠĠĠ": 280,
      "Ġto": 281,
      "Ġm": 282,
      "Ġd": 283,
      "ou": 284,
      "ĠS": 285,
      "ent": 286,
      "il": 287,
      "Ġh": 288,
      "ĠC": 289,
      "ĠA": 290,
      "st": 291,
      "el": 292,
      "ĠT": 293,
      "om": 294,
      "ct": 295,
      "am": 296,
      "Ġre": 297,
      "ol": 298,
      "et": 299,
      "Ġl": 300,
      "ĠM": 301,
      "Ġth": 302,
      "Ġn": 303,
      "Ġ(": 304,
      "ur": 305,
      "ation": 306,
      "ad": 307,
      "id": 308,
      "iv": 309,
      "ig": 310,
      "ac": 311,
      "Ġe": 312,
      "ot": 313,
      "ĠB": 314,
      "im": 315,
      "ĠP": 316,
      "ĠI": 317,
      "ers": 318,
      "ut": 319,
      "us": 320,
      "âĢ": 321,
      "19": 322,
      "Ġfor": 323,
      "ly": 324,
      "Ġis": 325,
      "20": 326,
      "Ġon": 327,
      "ir": 328,
      "ay": 329,
      "Ġg": 330,
      "ĠH": 331,
      "ch": 332,
      "em": 333,
      "Ġwas": 334,
      "ow": 335,
      "ter": 336,
      "ĠR": 337,
      "ĠD": 338,
      "ce": 339,
      "Ġbe": 340,
      "un": 341,
      "Ġas": 342,
      "ul": 343,
      "ist": 344,
      "ith": 345,
      "Ġst": 346,
      "ĠL": 347,
      "ĠF": 348,
      "th": 349,
      "ag": 350,
      "her": 351,
      "ĠN": 352,
      "ĠThe": 353,
      "ĠG": 354,
      "ĠW": 355,
      "Ġwith": 356,
      "and": 357,
      "um": 358,
      "ra": 359,
      "ĠĠĠ": 360,
      "ver": 361,
      "os": 362,
      "Ġal": 363,
      "Ġthat": 364,
      "ĠE": 365,
      "op": 366,
      "Ġby": 367,
      "est": 368,
      "ĠĠĠĠĠĠĠĠ": 369,
      "if": 370,
      "Ġcon": 371,
      "od": 372,
      "rom": 373,
      "ĠJ": 374,
      "Ġan": 375,
      "ri": 376,
      "Ġwh": 377,
      "ab": 378,
      "ec": 379,
      "Ġat": 380,
      "oc": 381,
      "Ġv": 382,
      "ate": 383,
      "av": 384,
      "res": 385,
      "ity": 386,
      "Ġpro": 387,
      "Ġhe": 388,
      "ew": 389,
      "ĠO": 390,
      "up": 391,
      "qu": 392,
      "Ġfrom": 393,
      "ain": 394,
      "Ġit": 395,
      "Ġcom": 396,
      "'s": 397,
      "ill": 398,
      "ies": 399,
      "art": 400,
      "ort": 401,
      "se": 402,
      "all": 403,
      "ht": 404,
      "ap": 405,
      "ub": 406,
      "ess": 407,
      "Ġde": 408,
      "ian": 409,
      "Ġ\"": 410,
      "ect": 411,
      "ĠU": 412,
      "ber": 413,
      "ud": 414,
      "ore": 415,
      "ak": 416,
      "end": 417,
      "ĠK": 418,
      "Ġor": 419,
      "ld": 420,
      "Ġr": 421,
      "ia": 422,
      "ard": 423,
      "âĢĵ": 424,
      "our": 425,
      "nt": 426,
      "ment": 427,
      "Ġex": 428,
      "ant": 429,
      "Ġare": 430,
      "ip": 431,
      "Ġ\\": 432,
      "ĠĊ": 433,
      "Ġ$": 434,
      "ive": 435,
      "ĠSt": 436,
      "ial": 437,
      "Ġpl": 438,
      "201": 439,
      "ich": 440,
      "ear": 441,
      "ov": 442,
      "ge": 443,
      "ated": 444,
      "og": 445,
      "The": 446,
      "ary": 447,
      "Ġy": 448,
      "ame": 449,
      "ine": 450,
      "Ġhis": 451,
      "Ġch": 452,
      "ure": 453,
      "ep": 454,
      "ight": 455,
      "und": 456,
      "ust": 457,
      "200": 458,
      "ĠIn": 459,
      "ass": 460,
      "ction": 461,
      "ug": 462,
      "fer": 463,
      "ell": 464,
      "ong": 465,
      "ast": 466,
      "ue": 467,
      "ack": 468,
      "ĠCh": 469,
      "Ġse": 470,
      "ran": 471,
      "ĠV": 472,
      "age": 473,
      "Ġle": 474,
      "mer": 475,
      "ish": 476,
      "ical": 477,
      "ire": 478,
      "ord": 479,
      "ost": 480,
      "pl": 481,
      "Ġsh": 482,
      "ĠĠĠĠĠĠĠ": 483,
      "ere": 484,
      "Ġcl": 485,
      "ex": 486,
      "18": 487,
      "are": 488,
      "uc": 489,
      "port": 490,
      "ork": 491,
      "enc": 492,
      "iz": 493,
      "ign": 494,
      "so": 495,
      "âĢĻ": 496,
      "Ġnot": 497,
      "Ġk": 498,
      "cl": 499,
      "ave": 500,
      "Ġ=": 501,
      "pt": 502,
      "),": 503,
      "ff": 504,
      "Ġwhich": 505,
      "ther": 506,
      "Ġ|": 507,
      "00": 508,
      "ath": 509,
      "Ġwere": 510,
      "ult": 511,
      "ions": 512,
      "Ġsp": 513,
      "Ġcomp": 514,
      "eg": 515,
      "ok": 516,
      "per": 517,
      "ry": 518,
      "=\"": 519,
      "Ġthis": 520,
      "ie": 521,
      "ric": 522,
      "Ġalso": 523,
      "tern": 524,
      "ph": 525,
      "ous": 526,
      "Ġhas": 527,
      "Ġus": 528,
      "rit": 529,
      "Ġun": 530,
      "ide": 531,
      "ations": 532,
      "ĉĉ": 533,
      "out": 534,
      "erv": 535,
      "ount": 536,
      "orm": 537,
      "</": 538,
      "ice": 539,
      "ĠUn": 540,
      "ĠHe": 541,
      "pp": 542,
      "ome": 543,
      "Ġwhe": 544,
      "Ġcont": 545,
      "Ġar": 546,
      "ence": 547,
      "irst": 548,
      "Ġres": 549,
      "ond": 550,
      "Ġwe": 551,
      "Ġint": 552,
      "Ġ||": 553,
      "ib": 554,
      "ory": 555,
      "ime": 556,
      "Ġhave": 557,
      "ace": 558,
      "ens": 559,
      "Ġj": 560,
      "ang": 561,
      "ey": 562,
      "Ġad": 563,
      "ition": 564,
      "Ġab": 565,
      "ould": 566,
      "Ġplay": 567,
      "Ġhad": 568,
      "int": 569,
      "In": 570,
      ").": 571,
      ");": 572,
      "hed": 573,
      "ite": 574,
      "own": 575,
      "ember": 576,
      "ĠTh": 577,
      "199": 578,
      "ational": 579,
      "ĠY": 580,
      "ach": 581,
      "able": 582,
      "ubl": 583,
      "Ġtheir": 584,
      "Ġ-": 585,
      "ĠIt": 586,
      "ĠâĢĵ": 587,
      "pe": 588,
      "{\\": 589,
      "urn": 590,
      "act": 591,
      "cc": 592,
      "Ġpart": 593,
      "ks": 594,
      "ile": 595,
      "ild": 596,
      "Ġro": 597,
      "ind": 598,
      "Ġall": 599,
      "ik": 600,
      "Ġfirst": 601,
      "Ġwho": 602,
      "over": 603,
      "ru": 604,
      "ĠâĢ": 605,
      "ree": 606,
      "ates": 607,
      "ng": 608,
      "Ġbut": 609,
      "ase": 610,
      "fter": 611,
      "wo": 612,
      "Ġte": 613,
      "Ġ<": 614,
      "ents": 615,
      "ound": 616,
      "Ġits": 617,
      "ater": 618,
      "Ġone": 619,
      "amp": 620,
      "Re": 621,
      "Ġ&": 622,
      "man": 623,
      "ors": 624,
      "orn": 625,
      "Ġim": 626,
      "ress": 627,
      "ican": 628,
      "ont": 629,
      "land": 630,
      "aw": 631,
      "ences": 632,
      "ual": 633,
      "čĊ": 634,
      "ople": 635,
      "Ġ{": 636,
      "oll": 637,
      "--": 638,
      "clud": 639,
      "Ġper": 640,
      "ft": 641,
      "Ġyear": 642,
      "ob": 643,
      "ance": 644,
      "Ġcan": 645,
      "ĠAl": 646,
      "Ġher": 647,
      "..": 648,
      "ool": 649,
      "old": 650,
      "Ġdis": 651,
      "Ġag": 652,
      "ark": 653,
      "Ġsc": 654,
      "Ġman": 655,
      "ail": 656,
      "form": 657,
      "Ġrec": 658,
      "inal": 659,
      "ext": 660,
      "ited": 661,
      "vel": 662,
      "eople": 663,
      "//": 664,
      "Ġapp": 665,
      "ss": 666,
      "te": 667,
      "ivers": 668,
      "Ġwork": 669,
      "ĠAr": 670,
      "uch": 671,
      "Ġother": 672,
      "ons": 673,
      "iss": 674,
      "Ġout": 675,
      "ely": 676,
      "Ġbeen": 677,
      "ings": 678,
      "ĠĠĠĠĠĠĠĠĠĠĠ": 679,
      "Ġbec": 680,
      "Ġnew": 681,
      "198": 682,
      "Ġen": 683,
      "10": 684,
      "Ġthey": 685,
      "ade": 686,
      "Ġup": 687,
      "ilm": 688,
      "one": 689,
      "rans": 690,
      "Ġtwo": 691,
      "ferences": 692,
      "les": 693,
      "we": 694,
      "oy": 695,
      "wn": 696,
      "Ġev": 697,
      "merican": 698,
      "Ġcomm": 699,
      "Ġpre": 700,
      "Ġdes": 701,
      "rib": 702,
      "ied": 703,
      "Ġinclud": 704,
      "ose": 705,
      "ook": 706,
      "ĠNew": 707,
      "igh": 708,
      "ics": 709,
      "ward": 710,
      "ased": 711,
      "uring": 712,
      "sp": 713,
      "io": 714,
      "hip": 715,
      "Ġover": 716,
      "oot": 717,
      "ood": 718,
      "References": 719,
      "Ġ*": 720,
      "ĠCom": 721,
      "ĠMar": 722,
      "ugh": 723,
      "ake": 724,
      "Ġme": 725,
      "_{": 726,
      "ject": 727,
      "lect": 728,
      "Ġmore": 729,
      "Ġtr": 730,
      "Ġoff": 731,
      "oug": 732,
      "Ġret": 733,
      "Ġund": 734,
      "ict": 735,
      "197": 736,
      "Ġyou": 737,
      "chool": 738,
      "ock": 739,
      "ener": 740,
      "âĢĿ": 741,
      "Ġtime": 742,
      "Ġpeople": 743,
      "17": 744,
      "Ġafter": 745,
      "ram": 746,
      "ef": 747,
      "ball": 748,
      "ren": 749,
      "ublic": 750,
      "orld": 751,
      "du": 752,
      "ev": 753,
      "Ġinto": 754,
      "anc": 755,
      "ans": 756,
      "Ġdo": 757,
      "ert": 758,
      "Ġgro": 759,
      "Ġ}": 760,
      "ee": 761,
      "use": 762,
      "Ġclass": 763,
      "olog": 764,
      "ll": 765,
      "Ġqu": 766,
      "Ġshe": 767,
      "red": 768,
      "iel": 769,
      "Ġact": 770,
      "ring": 771,
      "Ġserv": 772,
      "\">": 773,
      "oint": 774,
      "Ġwill": 775,
      "21": 776,
      "Ġabout": 777,
      "Ġkn": 778,
      "ious": 779,
      "Ġwould": 780,
      "Ġind": 781,
      "ished": 782,
      "way": 783,
      "Ġatt": 784,
      "ick": 785,
      "Ġwhen": 786,
      "ral": 787,
      "Ġ$\\": 788,
      "Ġfilm": 789,
      "li": 790,
      "Ġpr": 791,
      "Ġif": 792,
      "ref": 793,
      "gan": 794,
      "Ex": 795,
      "oh": 796,
      "iversity": 797,
      "Ġcons": 798,
      "16": 799,
      "Ġunder": 800,
      "196": 801,
      "Ġreg": 802,
      "ah": 803,
      "15": 804,
      "reat": 805,
      "ision": 806,
      "ident": 807,
      "ts": 808,
      "Ġbet": 809,
      "ty": 810,
      "Ġass": 811,
      "ities": 812,
      "Ġpol": 813,
      "ix": 814,
      "get": 815,
      "cent": 816,
      "Ġso": 817,
      "12": 818,
      "ĠAmerican": 819,
      "ames": 820,
      "als": 821,
      "ever": 822,
      "ists": 823,
      "Ġsup": 824,
      "ury": 825,
      "Ġloc": 826,
      "ale": 827,
      "Ġlin": 828,
      "Ġsec": 829,
      "ode": 830,
      "ement": 831,
      "ular": 832,
      "ne": 833,
      "Ġacc": 834,
      "Ġ'": 835,
      "ative": 836,
      "yst": 837,
      "Ġinter": 838,
      "ily": 839,
      "iew": 840,
      "outh": 841,
      "math": 842,
      "ason": 843,
      "ton": 844,
      "Ġbu": 845,
      "St": 846,
      "eb": 847,
      "Ġsub": 848,
      "pr": 849,
      "ata": 850,
      "ĠâĢľ": 851,
      "cess": 852,
      "ĠĠĠĠĠĠĠĠĠĠĠĠĠĠĠĠ": 853,
      "Ġwhere": 854,
      "ince": 855,
      "ollow": 856,
      "oth": 857,
      "Ġrel": 858,
      "Ġonly": 859,
      "Ġdef": 860,
      "ve": 861,
      "Ġthro": 862,
      "Ġthere": 863,
      "ific": 864,
      "ield": 865,
      "duc": 866,
      "ife": 867,
      "Ġcol": 868,
      "ĠPro": 869,
      "Ġthan": 870,
      "very": 871,
      "Ġyears": 872,
      "che": 873,
      "att": 874,
      "orth": 875,
      "ins": 876,
      "ma": 877,
      "oun": 878,
      "ĠSh": 879,
      "com": 880,
      "Ġset": 881,
      "oci": 882,
      "Ġthem": 883,
      "Ġstud": 884,
      "raph": 885,
      "eth": 886,
      "resent": 887,
      "ween": 888,
      "Ġco": 889,
      "Ġhim": 890,
      "pro": 891,
      "round": 892,
      "Ġdec": 893,
      "ann": 894,
      "elf": 895,
      "sh": 896,
      "Ġform": 897,
      "ĠĠĠĠĠ": 898,
      "ating": 899,
      "ĠLe": 900,
      "let": 901,
      "erm": 902,
      "overn": 903,
      "ull": 904,
      "ĠInd": 905,
      "Ġsome": 906,
      "Ġexp": 907,
      "Ġmost": 908,
      "ike": 909,
      "irect": 910,
      "aid": 911,
      "Ġfl": 912,
      "\",": 913,
      "194": 914,
      "ĠUnited": 915,
      "der": 916,
      "ĠZ": 917,
      "Ġinv": 918,
      "ĠThis": 919,
      "Ġnum": 920,
      "air": 921,
      "ternal": 922,
      "Ġagain": 923,
      "ĠUniversity": 924,
      "ution": 925,
      "emb": 926,
      "az": 927,
      "Ġsuch": 928,
      "195": 929,
      "Ġbetween": 930,
      "the": 931,
      "ally": 932,
      "14": 933,
      "inn": 934,
      "13": 935,
      "Ġreturn": 936,
      "Ġtrans": 937,
      "any": 938,
      "Ġac": 939,
      "ax": 940,
      "Ġend": 941,
      "Ġcent": 942,
      "Ġrem": 943,
      "Ġprov": 944,
      "ough": 945,
      "ystem": 946,
      "son": 947,
      "abl": 948,
      "Ġspec": 949,
      "Ġthrough": 950,
      "ouse": 951,
      "Ġfe": 952,
      "Ġest": 953,
      "Ġfollow": 954,
      "aj": 955,
      "ĠSp": 956,
      "ĠCol": 957,
      "Ã©": 958,
      "ash": 959,
      "ower": 960,
      "Ġam": 961,
      "Ġthen": 962,
      "ise": 963,
      "oss": 964,
      "Ġteam": 965,
      "Ġob": 966,
      "Ġdist": 967,
      "Ġmod": 968,
      "pen": 969,
      "ures": 970,
      "ays": 971,
      "ĠAn": 972,
      "22": 973,
      "Ġfound": 974,
      "Ġduring": 975,
      "cept": 976,
      "con": 977,
      "}\\": 978,
      "Ġtra": 979,
      "Ġph": 980,
      "ootball": 981,
      "itt": 982,
      "**": 983,
      "arg": 984,
      "velop": 985,
      "ina": 986,
      "ĠCl": 987,
      "erson": 988,
      "ĠSc": 989,
      "ern": 990,
      "eries": 991,
      "Ġear": 992,
      "Ġadd": 993,
      "ments": 994,
      "Ġfam": 995,
      "Ġed": 996,
      "ism": 997,
      "Ġent": 998,
      "}$": 999,
      "Âł": 1000,
      "Ġused": 1001,
      "its": 1002,
      "ret": 1003,
      "ars": 1004,
      "Ġany": 1005,
      "Ġbl": 1006,
      "Ġmov": 1007,
      "ier": 1008,
      "Ġno": 1009,
      "Ġart": 1010,
      "ute": 1011,
      "Ġgo": 1012,
      "iving": 1013,
      "Ġem": 1014,
      "usic": 1015,
      "right": 1016,
      "lection": 1017,
      "uss": 1018,
      "ober": 1019,
      "sc": 1020,
      "Ġinc": 1021,
      "^{": 1022,
      "Ġne": 1023,
      "ined": 1024,
      "Ġmade": 1025,
      "30": 1026,
      "Ġthree": 1027,
      "==": 1028,
      "Ġpublic": 1029,
      "11": 1030,
      "ps": 1031,
      "Ġwrit": 1032,
      "ys": 1033,
      "ues": 1034,
      "ĠEng": 1035,
      "ohn": 1036,
      "Ġmay": 1037,
      "ank": 1038,
      "ient": 1039,
      "ta": 1040,
      "Ġmon": 1041,
      "Ġname": 1042,
      "Ġdif": 1043,
      "Ġrele": 1044,
      "ĠShe": 1045,
      "Ġ[": 1046,
      "Ġra": 1047,
      "Ġwell": 1048,
      "Ġcount": 1049,
      "ature": 1050,
      "istory": 1051,
      "enn": 1052,
      "Ġcall": 1053,
      "Ġinst": 1054,
      "ym": 1055,
      "ĠStates": 1056,
      "Ġvar": 1057,
      "ines": 1058,
      "imes": 1059,
      "ĠQ": 1060,
      "Ġconst": 1061,
      "Ġlinks": 1062,
      "other": 1063,
      "iver": 1064,
      "rict": 1065,
      "unction": 1066,
      "hen": 1067,
      ".\"": 1068,
      "Ġshow": 1069,
      "Ġplayers": 1070,
      "rad": 1071,
      "ause": 1072,
      "Ġ.": 1073,
      "ional": 1074,
      "ten": 1075,
      "ived": 1076,
      "Ġbeing": 1077,
      "ract": 1078,
      "ley": 1079,
      "Ġmed": 1080,
      "ron": 1081,
      "----": 1082,
      "Ġlead": 1083,
      "ather": 1084,
      "els": 1085,
      "Ġsecond": 1086,
      "ĠIs": 1087,
      "eng": 1088,
      "External": 1089,
      "ype": 1090,
      "omen": 1091,
      "25": 1092,
      "ĠComm": 1093,
      "uth": 1094,
      "bum": 1095,
      "Ġsing": 1096,
      "ility": 1097,
      "Ġbro": 1098,
      "Ġgener": 1099,
      "ounc": 1100,
      "()": 1101,
      "Ġpop": 1102,
      "Ġback": 1103,
      "ept": 1104,
      "ize": 1105,
      "ruct": 1106,
      "Ġmany": 1107,
      "Ġgroup": 1108,
      "erman": 1109,
      "ĠCon": 1110,
      "ives": 1111,
      "ox": 1112,
      "fore": 1113,
      "ĠFor": 1114,
      "tt": 1115,
      "Ġschool": 1116,
      "Ġval": 1117,
      "ĠAs": 1118,
      "ural": 1119,
      "ink": 1120,
      "Ġsaid": 1121,
      "ized": 1122,
      "uro": 1123,
      "ĠCount": 1124,
      "Ġsur": 1125,
      "une": 1126,
      "000": 1127,
      "Ġsign": 1128,
      "Ġlater": 1129,
      "Ġrecord": 1130,
      "ible": 1131,
      "ague": 1132,
      "ple": 1133,
      "ĠPh": 1134,
      "ths": 1135,
      "ograph": 1136,
      "Ġthese": 1137,
      "\".": 1138,
      "Ġdirect": 1139,
      "Ġresult": 1140,
      "ange": 1141,
      "Ġseason": 1142,
      "Ġdevelop": 1143,
      "Ġnumber": 1144,
      "fl": 1145,
      "ired": 1146,
      "Ġbefore": 1147,
      "arn": 1148,
      "Ġrep": 1149,
      "ets": 1150,
      "ices": 1151,
      "ove": 1152,
      "}}": 1153,
      "ĠBl": 1154,
      "atch": 1155,
      "Ġwhile": 1156,
      "amb": 1157,
      "ĠFran": 1158,
      "ĠJohn": 1159,
      "Ġresp": 1160,
      "Ġincluding": 1161,
      "Ġhigh": 1162,
      "yn": 1163,
      "Ġown": 1164,
      "ĠJan": 1165,
      "ternational": 1166,
      "pos": 1167,
      "rid": 1168,
      "Ġbir": 1169,
      "ology": 1170,
      "Ġknown": 1171,
      "ĠAd": 1172,
      "overnment": 1173,
      "ĠMay": 1174,
      "Ġchar": 1175,
      "rent": 1176,
      "Ġmin": 1177,
      "ister": 1178,
      "193": 1179,
      "ages": 1180,
      "Ġext": 1181,
      "Ġsystem": 1182,
      "Ġfootball": 1183,
      "ator": 1184,
      "Ġoper": 1185,
      "ĠNational": 1186,
      "Ġboth": 1187,
      "Ġagainst": 1188,
      "apt": 1189,
      "ource": 1190,
      "ĠWorld": 1191,
      "rac": 1192,
      "ider": 1193,
      "Ġfour": 1194,
      "gram": 1195,
      "owever": 1196,
      "Ġcre": 1197,
      "ection": 1198,
      "col": 1199,
      "ĠWh": 1200,
      "Ġalbum": 1201,
      "ces": 1202,
      "ĠOn": 1203,
      "Th": 1204,
      "arri": 1205,
      "line": 1206,
      "urch": 1207,
      "(\\": 1208,
      "by": 1209,
      "Ġeff": 1210,
      "Ġstart": 1211,
      "Ch": 1212,
      "ĠAust": 1213,
      "ript": 1214,
      "vent": 1215,
      "ants": 1216,
      "Ġcur": 1217,
      "to": 1218,
      "Ġsm": 1219,
      "Ġbecame": 1220,
      "Ġstate": 1221,
      "24": 1222,
      "ery": 1223,
      "atic": 1224,
      "Ġlong": 1225,
      "Ġcare": 1226,
      "ĠYork": 1227,
      "ĠPl": 1228,
      "Ġestabl": 1229,
      "ful": 1230,
      "rist": 1231,
      "Ġdr": 1232,
      "til": 1233,
      "row": 1234,
      "Ġuse": 1235,
      "Ġbuild": 1236,
      "Ġsame": 1237,
      "Ġseries": 1238,
      "ai": 1239,
      "aking": 1240,
      "Ġmain": 1241,
      "ĠCar": 1242,
      "Ġpar": 1243,
      "ĠĠĠĠĠĠĠĠĠĠĠĠĠĠĠ": 1244,
      "egin": 1245,
      "ital": 1246,
      "min": 1247,
      "23": 1248,
      "ission": 1249,
      "ĠBrit": 1250,
      "text": 1251,
      "ians": 1252,
      "Ġpolit": 1253,
      "ross": 1254,
      "ott": 1255,
      "led": 1256,
      "lev": 1257,
      "->": 1258,
      "Ġgu": 1259,
      "Ġdisc": 1260,
      "Ġsim": 1261,
      "begin": 1262,
      "ĠCan": 1263,
      "Ġ+": 1264,
      "ray": 1265,
      "ĠWar": 1266,
      "ĠCounty": 1267,
      "alth": 1268,
      "ared": 1269,
      "ved": 1270,
      "ke": 1271,
      "ained": 1272,
      "uary": 1273,
      "my": 1274,
      "ually": 1275,
      "Ġlike": 1276,
      "ĠDec": 1277,
      "Ġget": 1278,
      "ĠSchool": 1279,
      "Ġsupport": 1280,
      "Ġjust": 1281,
      "Ġ/": 1282,
      "ience": 1283,
      "Ġorig": 1284,
      "ĠNov": 1285,
      "Ġour": 1286,
      "Ġwhat": 1287,
      "ck": 1288,
      "abel": 1289,
      "Ġdep": 1290,
      "Ġpoint": 1291,
      "Ġfamily": 1292,
      "rand": 1293,
      "Ġcould": 1294,
      "ĠJu": 1295,
      "ble": 1296,
      "ulation": 1297,
      "mp": 1298,
      "Ġprodu": 1299,
      "ĠOr": 1300,
      "Ġperform": 1301,
      "ĠSouth": 1302,
      "Ġbel": 1303,
      "Ġrequ": 1304,
      "Ġlife": 1305,
      "iam": 1306,
      "ris": 1307,
      "ĠâĢĶ": 1308,
      "Ġdeath": 1309,
      "ĠAnd": 1310,
      "Ġcommun": 1311,
      "Ġdesc": 1312,
      "view": 1313,
      "Ġdiffer": 1314,
      "Ġdid": 1315,
      "Ġeach": 1316,
      "Ġsong": 1317,
      "embers": 1318,
      "ĠCent": 1319,
      "fess": 1320,
      "ugust": 1321,
      "ica": 1322,
      "ety": 1323,
      "Ġdet": 1324,
      "Ġstr": 1325,
      "erg": 1326,
      "Ġann": 1327,
      "Ġcontin": 1328,
      "ek": 1329,
      "resident": 1330,
      "amed": 1331,
      "of": 1332,
      "ior": 1333,
      "Ġright": 1334,
      "Ġrun": 1335,
      "Ġpartic": 1336,
      "chn": 1337,
      "eptember": 1338,
      "Ġfinal": 1339,
      "af": 1340,
      "ĠGerman": 1341,
      "ically": 1342,
      "Ġchild": 1343,
      "Ġrece": 1344,
      "au": 1345,
      "arch": 1346,
      "equ": 1347,
      "por": 1348,
      "ium": 1349,
      "Ġoffic": 1350,
      "Ġline": 1351,
      "ctober": 1352,
      "Ġmusic": 1353,
      "Ġworld": 1354,
      "Ġuntil": 1355,
      "Ġsever": 1356,
      "hes": 1357,
      "fig": 1358,
      "_{\\": 1359,
      "ask": 1360,
      "ected": 1361,
      "Ġopen": 1362,
      "ĠAss": 1363,
      "ially": 1364,
      "ĠPar": 1365,
      "isc": 1366,
      "Ġdesign": 1367,
      "val": 1368,
      ".,": 1369,
      "Ġorgan": 1370,
      "iness": 1371,
      "oad": 1372,
      "50": 1373,
      "ĠMarch": 1374,
      "ajor": 1375,
      "Ġlist": 1376,
      "Ġfin": 1377,
      "arm": 1378,
      "yle": 1379,
      "Ġfollowing": 1380,
      "put": 1381,
      "|-": 1382,
      "rop": 1383,
      ")$": 1384,
      "Ġ</": 1385,
      "Ġfunction": 1386,
      "ĠEuro": 1387,
      "pril": 1388,
      "ĠAugust": 1389,
      "Ġbook": 1390,
      "ampions": 1391,
      "ĠEx": 1392,
      "Ġnow": 1393,
      "lege": 1394,
      "ains": 1395,
      "Ġbecause": 1396,
      "Ġsince": 1397,
      "ven": 1398,
      "2010": 1399,
      "oard": 1400,
      "ĠSeptember": 1401,
      "wards": 1402,
      "err": 1403,
      "istor": 1404,
      "app": 1405,
      "ĠAt": 1406,
      "oman": 1407,
      "ĠJanuary": 1408,
      "On": 1409,
      "ĉĉĉĉ": 1410,
      "inc": 1411,
      "ird": 1412,
      "vers": 1413,
      "Ġlaw": 1414,
      "Ġpos": 1415,
      "ĠRe": 1416,
      "ĠPr": 1417,
      "eter": 1418,
      "ality": 1419,
      "26": 1420,
      "ĠGe": 1421,
      "ĠDe": 1422,
      "Ġprogram": 1423,
      "cal": 1424,
      "ĠOctober": 1425,
      "ĠTe": 1426,
      "28": 1427,
      "Ġelect": 1428,
      "},": 1429,
      "Ġ//": 1430,
      "Ġgame": 1431,
      "ĠJune": 1432,
      "born": 1433,
      "Ġcalled": 1434,
      "day": 1435,
      "ports": 1436,
      "duced": 1437,
      "iven": 1438,
      "irc": 1439,
      "Ġsuc": 1440,
      "27": 1441,
      "ĠWe": 1442,
      "../": 1443,
      "Ġcor": 1444,
      "lish": 1445,
      "}{": 1446,
      "reen": 1447,
      "Ġarea": 1448,
      "itions": 1449,
      "ided": 1450,
      "ĠJuly": 1451,
      "ization": 1452,
      "ĠAll": 1453,
      "illion": 1454,
      "ĠRep": 1455,
      "ĠPol": 1456,
      "Ġhel": 1457,
      "urg": 1458,
      "Ġperson": 1459,
      "ĠApril": 1460,
      "ĠState": 1461,
      "ised": 1462,
      "ĠAustral": 1463,
      "ting": 1464,
      "rem": 1465,
      "Ġpass": 1466,
      "usiness": 1467,
      "read": 1468,
      "Ġformer": 1469,
      "yl": 1470,
      "ae": 1471,
      "ats": 1472,
      "ote": 1473,
      "ĠThey": 1474,
      "ency": 1475,
      "2020": 1476,
      "Ġgovernment": 1477,
      "Ġap": 1478,
      "ĠAf": 1479,
      "ament": 1480,
      "ĠCity": 1481,
      "ĠNorth": 1482,
      "ument": 1483,
      "ilit": 1484,
      "Ġdata": 1485,
      "aces": 1486,
      "par": 1487,
      "2016": 1488,
      "::": 1489,
      "ĠNovember": 1490,
      "Ġterm": 1491,
      "Ġplayed": 1492,
      "2015": 1493,
      "Ġlast": 1494,
      "ified": 1495,
      "ole": 1496,
      "set": 1497,
      "ĠGu": 1498,
      "2011": 1499,
      "Ġcity": 1500,
      "ĠDecember": 1501,
      "Ġthose": 1502,
      "Ġseveral": 1503,
      "Ġcour": 1504,
      "Ġreleased": 1505,
      "Ġplace": 1506,
      "Ġdifferent": 1507,
      "ilt": 1508,
      "med": 1509,
      "Ġwon": 1510,
      "Ġhead": 1511,
      "Ġel": 1512,
      "2014": 1513,
      "ĠMan": 1514,
      "29": 1515,
      "Ġneed": 1516,
      "2012": 1517,
      "ĠEurope": 1518,
      "Ġmet": 1519,
      "ales": 1520,
      "Ġtit": 1521,
      "Ġsmall": 1522,
      "Ġequ": 1523,
      "ĠCal": 1524,
      "ĠUS": 1525,
      "Ġpubl": 1526,
      "ĠBritish": 1527,
      "ĠEd": 1528,
      "ration": 1529,
      "ended": 1530,
      "2018": 1531,
      "rm": 1532,
      "ner": 1533,
      "angu": 1534,
      "Ġwomen": 1535,
      "Pro": 1536,
      "Ġappro": 1537,
      "2017": 1538,
      "uthor": 1539,
      "Ġexper": 1540,
      "ourn": 1541,
      "Ġvery": 1542,
      "Ġbased": 1543,
      "Ġearly": 1544,
      "left": 1545,
      "He": 1546,
      "ml": 1547,
      "ung": 1548,
      "Ġnear": 1549,
      "2013": 1550,
      "yp": 1551,
      "Ġ@": 1552,
      "Ġsl": 1553,
      "essage": 1554,
      "ane": 1555,
      "Ġorder": 1556,
      "ued": 1557,
      "ival": 1558,
      "work": 1559,
      "formation": 1560,
      "bs": 1561,
      "ĠBro": 1562,
      "2019": 1563,
      "Ġmake": 1564,
      "Ġevery": 1565,
      "ĠBe": 1566,
      "ebru": 1567,
      "que": 1568,
      "ebruary": 1569,
      "Ġoriginal": 1570,
      "org": 1571,
      "rol": 1572,
      "Ġcharact": 1573,
      "Ġprom": 1574,
      "Ġleg": 1575,
      "ody": 1576,
      "ĠReg": 1577,
      "ĠWill": 1578,
      "It": 1579,
      "arge": 1580,
      "ases": 1581,
      "Ġeven": 1582,
      "span": 1583,
      "Ġmembers": 1584,
      "oid": 1585,
      "ining": 1586,
      "Ġaround": 1587,
      "2008": 1588,
      "Ġmy": 1589,
      "ĠII": 1590,
      "ĠCanad": 1591,
      "190": 1592,
      "2021": 1593,
      "aving": 1594,
      "ĠFl": 1595,
      "Ġprot": 1596,
      "2009": 1597,
      "Ġland": 1598,
      "plic": 1599,
      "lex": 1600,
      "Com": 1601,
      "side": 1602,
      "ĠX": 1603,
      "Ġlocal": 1604,
      "ampionship": 1605,
      "esp": 1606,
      "frac": 1607,
      "uf": 1608,
      "Ġocc": 1609,
      "ĠTr": 1610,
      "ography": 1611,
      "ows": 1612,
      "apan": 1613,
      "uck": 1614,
      "ĠLeague": 1615,
      "ĠKing": 1616,
      "ocial": 1617,
      "Ġdescrib": 1618,
      "Ġeng": 1619,
      "Ġbirths": 1620,
      "ĠChrist": 1621,
      "for": 1622,
      "century": 1623,
      "aster": 1624,
      "alk": 1625,
      "Ġhome": 1626,
      "ense": 1627,
      "Ġ:": 1628,
      "Ġalong": 1629,
      "Ġconsider": 1630,
      "ness": 1631,
      "ording": 1632,
      "roup": 1633,
      "umn": 1634,
      "2007": 1635,
      "leg": 1636,
      "ately": 1637,
      "ham": 1638,
      "eq": 1639,
      "ethod": 1640,
      "Ġcareer": 1641,
      "Ġnon": 1642,
      "Ġrest": 1643,
      "Ġevent": 1644,
      "ĠFebruary": 1645,
      "Ġpresent": 1646,
      "bb": 1647,
      "2006": 1648,
      "ively": 1649,
      "See": 1650,
      "Ġdown": 1651,
      "akes": 1652,
      "Ġsol": 1653,
      "Ġcompet": 1654,
      "ling": 1655,
      "Ġcompany": 1656,
      "Ġstat": 1657,
      "stit": 1658,
      "40": 1659,
      "',": 1660,
      "Ġcase": 1661,
      "Ġmajor": 1662,
      "Ġfact": 1663,
      "rench": 1664,
      "tr": 1665,
      "div": 1666,
      "ĠMin": 1667,
      "ots": 1668,
      "Ġav": 1669,
      "Ġfilms": 1670,
      "Ġhow": 1671,
      "aim": 1672,
      "ĠPart": 1673,
      "Ġfield": 1674,
      "levision": 1675,
      "Ġvers": 1676,
      "ĠCo": 1677,
      "Ġcurrent": 1678,
      "Ġreport": 1679,
      "Ġread": 1680,
      "ene": 1681,
      "Ġmark": 1682,
      "Ġtown": 1683,
      "ored": 1684,
      "Ġsuccess": 1685,
      "Ġday": 1686,
      "urs": 1687,
      "Ġhelp": 1688,
      "Ġmember": 1689,
      "aced": 1690,
      "vious": 1691,
      "Ġway": 1692,
      "ffic": 1693,
      "://": 1694,
      "Ġref": 1695,
      "Ġcap": 1696,
      "Ġiss": 1697,
      "Ġshould": 1698,
      "label": 1699,
      "ĠHar": 1700,
      "Ġincre": 1701,
      "aint": 1702,
      "uman": 1703,
      "Ġ#": 1704,
      "Ġpower": 1705,
      "Ġleft": 1706,
      "Ġtop": 1707,
      "189": 1708,
      "Ġbegan": 1709,
      "Ġimport": 1710,
      "ony": 1711,
      "ĠAm": 1712,
      "ĠWest": 1713,
      "American": 1714,
      "Ġwithin": 1715,
      "Ġold": 1716,
      "iod": 1717,
      ".âĢĿ": 1718,
      "Ġmanag": 1719,
      "Ġhand": 1720,
      "ample": 1721,
      "ĠHis": 1722,
      "Ġappear": 1723,
      "self": 1724,
      "Ġadv": 1725,
      "hem": 1726,
      "ries": 1727,
      "back": 1728,
      "Ġstill": 1729,
      "conom": 1730,
      "idd": 1731,
      "ER": 1732,
      "Ġrepresent": 1733,
      "Ġheld": 1734,
      "Ġmuch": 1735,
      "adem": 1736,
      "ze": 1737,
      "raft": 1738,
      "ords": 1739,
      "ches": 1740,
      "ĠAfric": 1741,
      "Ġdem": 1742,
      "ms": 1743,
      "lement": 1744,
      "Ġmat": 1745,
      "Ġcar": 1746,
      "ribut": 1747,
      "'t": 1748,
      "ĠBar": 1749,
      "ese": 1750,
      "Ġnational": 1751,
      "Ã¡": 1752,
      "></": 1753,
      "ĠMc": 1754,
      "Ġtype": 1755,
      "ently": 1756,
      "eder": 1757,
      "Ġstand": 1758,
      "esc": 1759,
      "100": 1760,
      "Ġvis": 1761,
      "Ġnamed": 1762,
      "reg": 1763,
      "Ġrefer": 1764,
      "ler": 1765,
      "Ġtook": 1766,
      "ĠSe": 1767,
      "ĠEn": 1768,
      "uk": 1769,
      "ĠMed": 1770,
      "Ġband": 1771,
      "Ġdue": 1772,
      "rew": 1773,
      "IN": 1774,
      "Ġproject": 1775,
      "ief": 1776,
      "ĠAfter": 1777,
      "Ġpost": 1778,
      "cite": 1779,
      "iet": 1780,
      "(\"": 1781,
      "Ġsingle": 1782,
      "Ġeffect": 1783,
      "urther": 1784,
      "bf": 1785,
      "Ġprocess": 1786,
      "iter": 1787,
      "2000": 1788,
      "âĢĶ": 1789,
      "ĠEnglish": 1790,
      "><": 1791,
      "Ġhistory": 1792,
      "ondon": 1793,
      "Ar": 1794,
      "();": 1795,
      "ĠDist": 1796,
      "lation": 1797,
      "align": 1798,
      "aus": 1799,
      "ĠYou": 1800,
      "ves": 1801,
      "ĠSec": 1802,
      "eta": 1803,
      "Ġeduc": 1804,
      "ides": 1805,
      "ctions": 1806,
      "ana": 1807,
      "Ġclub": 1808,
      "Ġprofess": 1809,
      "Ġdeb": 1810,
      "Ġtest": 1811,
      "ĠSw": 1812,
      "Ġusing": 1813,
      "Al": 1814,
      "ĠJapan": 1815,
      "omin": 1816,
      "ĠHowever": 1817,
      "Ġlarge": 1818,
      "Ġbusiness": 1819,
      "ploy": 1820,
      "Ġposs": 1821,
      "Ġsee": 1822,
      "Ġcr": 1823,
      "ĠRuss": 1824,
      "ule": 1825,
      "Ġhouse": 1826,
      "ĠRes": 1827,
      "Ġestablished": 1828,
      "Ġdoes": 1829,
      "ford": 1830,
      "epend": 1831,
      "ering": 1832,
      "Ġgiven": 1833,
      "artment": 1834,
      "2005": 1835,
      "ĠNo": 1836,
      "ociation": 1837,
      "AR": 1838,
      "ino": 1839,
      "ison": 1840,
      "ster": 1841,
      "Un": 1842,
      "Ġchildren": 1843,
      "Ġla": 1844,
      "riend": 1845,
      "Ġbest": 1846,
      "Ġ,": 1847,
      "Ġpopulation": 1848,
      "Ġcamp": 1849,
      "ĠCollege": 1850,
      "raw": 1851,
      "ateg": 1852,
      "Ġvill": 1853,
      "Ġjo": 1854,
      "ille": 1855,
      "Ġpo": 1856,
      "ugg": 1857,
      "Ġshort": 1858,
      "ilitary": 1859,
      "Ġinclude": 1860,
      "Ġgl": 1861,
      "Ġreceived": 1862,
      "Ġcountry": 1863,
      "__": 1864,
      "ON": 1865,
      "co": 1866,
      "Ġlocated": 1867,
      "Ġaddition": 1868,
      "ush": 1869,
      "Ġknow": 1870,
      "anguage": 1871,
      "Ġpublished": 1872,
      "Ġanother": 1873,
      "Cl": 1874,
      "Ġexpl": 1875,
      "ivate": 1876,
      "Ġlevel": 1877,
      "ream": 1878,
      "da": 1879,
      "ĠEl": 1880,
      "osed": 1881,
      "aul": 1882,
      "Ġtri": 1883,
      "ĠLondon": 1884,
      "osp": 1885,
      "Ġgames": 1886,
      "--------": 1887,
      "Ġvalue": 1888,
      "ĠHer": 1889,
      "188": 1890,
      "ington": 1891,
      "$,": 1892,
      "ivision": 1893,
      "color": 1894,
      "ought": 1895,
      "ouncil": 1896,
      "ĠSup": 1897,
      "Ġdel": 1898,
      "Ġpat": 1899,
      "Ġtake": 1900,
      "arent": 1901,
      "ww": 1902,
      "...": 1903,
      "Ġfind": 1904,
      "Ġlarg": 1905,
      "ĠAir": 1906,
      "Ġage": 1907,
      "As": 1908,
      "ground": 1909,
      "Ġtechn": 1910,
      "field": 1911,
      "Ġborn": 1912,
      "ances": 1913,
      "ald": 1914,
      "umb": 1915,
      "vert": 1916,
      "Ġrese": 1917,
      "Ġcentury": 1918,
      "Ġserved": 1919,
      "lear": 1920,
      "$.": 1921,
      "ards": 1922,
      "2004": 1923,
      "ĠWilliam": 1924,
      "}.": 1925,
      "ured": 1926,
      "Ġcrit": 1927,
      "60": 1928,
      "Ġmen": 1929,
      "lin": 1930,
      "ify": 1931,
      "ecut": 1932,
      "Con": 1933,
      "Ġelection": 1934,
      "Ġconc": 1935,
      "Ġfive": 1936,
      "Ġimp": 1937,
      "ories": 1938,
      "Ġi": 1939,
      "ĠFrench": 1940,
      "ideo": 1941,
      "oph": 1942,
      "Ġauthor": 1943,
      "Ġsix": 1944,
      "Ġbuilt": 1945,
      "ĠRec": 1946,
      "though": 1947,
      "cont": 1948,
      "estern": 1949,
      "here": 1950,
      "Ġyour": 1951,
      "ĠThere": 1952,
      "ught": 1953,
      "Ġsk": 1954,
      "ope": 1955,
      "reet": 1956,
      "Ġperiod": 1957,
      "ones": 1958,
      "An": 1959,
      "Ġstation": 1960,
      "mathcal": 1961,
      "ered": 1962,
      "ipp": 1963,
      "ilar": 1964,
      "ĠArt": 1965,
      "ĠDav": 1966,
      "Ġfr": 1967,
      "ĠChar": 1968,
      "rick": 1969,
      ",\\": 1970,
      "====": 1971,
      "equation": 1972,
      "Ġep": 1973,
      "Ġinit": 1974,
      "):": 1975,
      "Ġservice": 1976,
      "Ġaff": 1977,
      "ĠHigh": 1978,
      "ĠHouse": 1979,
      "ĠCor": 1980,
      "bar": 1981,
      "alf": 1982,
      "html": 1983,
      "ĠAct": 1984,
      "Ġsom": 1985,
      "Ġcomplet": 1986,
      "less": 1987,
      "Ġgood": 1988,
      "ĉĉĉ": 1989,
      "})": 1990,
      "be": 1991,
      "../../": 1992,
      "iron": 1993,
      "AT": 1994,
      "sk": 1995,
      "arried": 1996,
      "Ġproper": 1997,
      "Ġwar": 1998,
      "Ġmillion": 1999,
      "etwork": 2000,
      "ception": 2001,
      "ĠComp": 2002,
      "Ġtitle": 2003,
      "rest": 2004,
      "Ġstruct": 2005,
      "ched": 2006,
      "Ġnext": 2007,
      "Ġinterest": 2008,
      "lymp": 2009,
      "Ġthird": 2010,
      "Ġinvest": 2011,
      "ĠDep": 2012,
      "Ġstyle": 2013,
      "ivid": 2014,
      "Ġbuilding": 2015,
      "ummer": 2016,
      "ĠAng": 2017,
      "Ġself": 2018,
      "Ġactiv": 2019,
      "eneral": 2020,
      "ĠChampionship": 2021,
      "ĠPark": 2022,
      "empt": 2023,
      "Ġreal": 2024,
      "aff": 2025,
      "ced": 2026,
      "Ġwater": 2027,
      "inning": 2028,
      "ĠDistrict": 2029,
      "de": 2030,
      "ST": 2031,
      "Ġrad": 2032,
      "ĠAg": 2033,
      "ault": 2034,
      "ĠInternational": 2035,
      "ID": 2036,
      "Ġinformation": 2037,
      "ĠPhil": 2038,
      "Ġfac": 2039,
      "ination": 2040,
      "Ġalign": 2041,
      "Ġair": 2042,
      "trans": 2043,
      "ĠGl": 2044,
      "Ġchang": 2045,
      "ĠAb": 2046,
      "ape": 2047,
      "Ġgreat": 2048,
      "Ġtot": 2049,
      "ĠLa": 2050,
      "Ġallow": 2051,
      "ĠItal": 2052,
      "))": 2053,
      "This": 2054,
      "Ġtelevision": 2055,
      "Ġmodel": 2056,
      "Ġcharacter": 2057,
      "ĠMe": 2058,
      "ociety": 2059,
      "Ġcult": 2060,
      "source": 2061,
      "itor": 2062,
      "Ġannounc": 2063,
      "ruction": 2064,
      "olution": 2065,
      "Ġmag": 2066,
      "bl": 2067,
      "Ġgeneral": 2068,
      "Ġ*/": 2069,
      "earch": 2070,
      "Ġbeg": 2071,
      "ĠBut": 2072,
      "iber": 2073,
      "Ġmult": 2074,
      "ĠDr": 2075,
      "unic": 2076,
      "Ġbre": 2077,
      "td": 2078,
      "Ġspecies": 2079,
      "ari": 2080,
      "Ġfore": 2081,
      "na": 2082,
      "Ġbeh": 2083,
      "iforn": 2084,
      "off": 2085,
      "Ġdescribed": 2086,
      "187": 2087,
      "add": 2088,
      "Ġoften": 2089,
      "hat": 2090,
      "âĢľ": 2091,
      "Ġturn": 2092,
      "Ġamong": 2093,
      "Ġincluded": 2094,
      "Ġdied": 2095,
      "2003": 2096,
      "Ġfew": 2097,
      "hel": 2098,
      "Ġprevious": 2099,
      "play": 2100,
      "umm": 2101,
      "ĠCup": 2102,
      "ability": 2103,
      "Ġinvol": 2104,
      "pha": 2105,
      "oon": 2106,
      "Ġpres": 2107,
      "Ġport": 2108,
      "Ġwithout": 2109,
      "~\\": 2110,
      "Ġcommunity": 2111,
      "Ġplayer": 2112,
      "ention": 2113,
      "str": 2114,
      "ifornia": 2115,
      "iles": 2116,
      "ĠAmer": 2117,
      "****": 2118,
      "Ġcond": 2119,
      "message": 2120,
      "sub": 2121,
      "Ġhref": 2122,
      "We": 2123,
      "Ġrole": 2124,
      "31": 2125,
      "}(": 2126,
      "eal": 2127,
      "Ġlim": 2128,
      "Ġtem": 2129,
      "duct": 2130,
      "Ġarch": 2131,
      "ference": 2132,
      "ĠSch": 2133,
      "List": 2134,
      "Ġwant": 2135,
      "Ġfre": 2136,
      "Ġident": 2137,
      "Ġtrad": 2138,
      "}^": 2139,
      "2001": 2140,
      "attle": 2141,
      "2022": 2142,
      "ĠEngland": 2143,
      "ĠIndian": 2144,
      "otes": 2145,
      "ridge": 2146,
      "roll": 2147,
      "Ġlook": 2148,
      "Ġkill": 2149,
      "Ġinternational": 2150,
      ",âĢĿ": 2151,
      "2002": 2152,
      "iol": 2153,
      "rap": 2154,
      "abor": 2155,
      "ger": 2156,
      "ĠBr": 2157,
      "ential": 2158,
      "orge": 2159,
      "ivil": 2160,
      "ators": 2161,
      "ournal": 2162,
      "}_": 2163,
      "cast": 2164,
      "ources": 2165,
      "ama": 2166,
      "Ã³": 2167,
      "Ġyoung": 2168,
      "lected": 2169,
      "Ġside": 2170,
      "Ġz": 2171,
      "ops": 2172,
      "idth": 2173,
      "useum": 2174,
      "acy": 2175,
      "ett": 2176,
      "ump": 2177,
      "ights": 2178,
      "('": 2179,
      "this": 2180,
      "icle": 2181,
      "33": 2182,
      "Ġopt": 2183,
      "ways": 2184,
      "Ġdevelopment": 2185,
      "ittle": 2186,
      "aining": 2187,
      "Ġmust": 2188,
      "Ġconn": 2189,
      "serv": 2190,
      "ĠĠĠĠĠĠĠĠĠ": 2191,
      "Ġnorth": 2192,
      "minist": 2193,
      "ĠMich": 2194,
      "Ġson": 2195,
      "Ġview": 2196,
      "ĠĠĠĠĠĠĠĠĠĠĠĠĠĠĠĠĠĠĠ": 2197,
      "ĠCalifornia": 2198,
      "Ġgr": 2199,
      "Ġattack": 2200,
      "Ġclaim": 2201,
      "Ġpe": 2202,
      "ead": 2203,
      "Ġinf": 2204,
      "ning": 2205,
      "ĠCour": 2206,
      "AS": 2207,
      "alse": 2208,
      "dom": 2209,
      "Ġvol": 2210,
      "Ġsit": 2211,
      "ĠSan": 2212,
      "Ġconf": 2213,
      "Ġbecome": 2214,
      "itive": 2215,
      "alt": 2216,
      "Ġcover": 2217,
      "ividual": 2218,
      "burg": 2219,
      "Ġcame": 2220,
      "Ġeconom": 2221,
      "name": 2222,
      "class": 2223,
      "Ġtotal": 2224,
      "Ġhistor": 2225,
      "iment": 2226,
      "dd": 2227,
      "Ġpolitical": 2228,
      "oyal": 2229,
      "Ġrepl": 2230,
      "186": 2231,
      "ara": 2232,
      "Ġimportant": 2233,
      "ĠPresident": 2234,
      "Ġled": 2235,
      "For": 2236,
      "ification": 2237,
      "wh": 2238,
      "ĠRiver": 2239,
      "ertain": 2240,
      "35": 2241,
      "iction": 2242,
      "Ġsocial": 2243,
      "mod": 2244,
      "ĠPer": 2245,
      "me": 2246,
      "ius": 2247,
      "Ġstory": 2248,
      "Ġop": 2249,
      "ĠAmerica": 2250,
      "olds": 2251,
      "Ġtrack": 2252,
      "Ġresearch": 2253,
      "ĠIndia": 2254,
      "ogn": 2255,
      "ĠParty": 2256,
      "ĠBy": 2257,
      "Ġspecial": 2258,
      "ĠAc": 2259,
      "45": 2260,
      "ological": 2261,
      "Ġversion": 2262,
      "ico": 2263,
      "Ġcommon": 2264,
      "Ġhealth": 2265,
      "Ġhig": 2266,
      "Ġtimes": 2267,
      "Ġmethod": 2268,
      "Ġposition": 2269,
      "ĠAustralia": 2270,
      "Name": 2271,
      "lands": 2272,
      "Ġvillage": 2273,
      "Ġfather": 2274,
      "ending": 2275,
      "aken": 2276,
      "ergy": 2277,
      "OR": 2278,
      "ours": 2279,
      "Living": 2280,
      "1990": 2281,
      "Ġfull": 2282,
      "Ġhaving": 2283,
      "Ġproble": 2284,
      "yd": 2285,
      "Ġwin": 2286,
      "Ġpract": 2287,
      "uild": 2288,
      "Ġsw": 2289,
      "ĠEast": 2290,
      "Ã¼": 2291,
      "Ġstudents": 2292,
      "avy": 2293,
      "ÃŃ": 2294,
      "Ġbas": 2295,
      "Ġsouth": 2296,
      "ij": 2297,
      "Ġant": 2298,
      "Ġgrad": 2299,
      "uel": 2300,
      "80": 2301,
      "era": 2302,
      "ĠOne": 2303,
      "ocus": 2304,
      "aper": 2305,
      "Ġparticular": 2306,
      "ĠQu": 2307,
      "stand": 2308,
      "def": 2309,
      "Ġsay": 2310,
      "Ġstarted": 2311,
      "People": 2312,
      "opt": 2313,
      "Ġsimilar": 2314,
      "Ġwent": 2315,
      "htt": 2316,
      "Ġintro": 2317,
      "Ġexample": 2318,
      "ising": 2319,
      "Ġofficial": 2320,
      "/>": 2321,
      "Ġnov": 2322,
      "Ġdon": 2323,
      "Cont": 2324,
      "Ġmoved": 2325,
      "head": 2326,
      "ift": 2327,
      "Ġsold": 2328,
      "ailable": 2329,
      "oe": 2330,
      "Ġgen": 2331,
      "Ġfeat": 2332,
      "elta": 2333,
      "Ġarg": 2334,
      "Ġwritten": 2335,
      "ibr": 2336,
      "Ġaut": 2337,
      "Ġinfl": 2338,
      "ĠEm": 2339,
      "time": 2340,
      "Pl": 2341,
      "imate": 2342,
      "olic": 2343,
      "ĠSm": 2344,
      "itte": 2345,
      "ength": 2346,
      "ĠChurch": 2347,
      "omb": 2348,
      "Ġpri": 2349,
      "viron": 2350,
      "Ġless": 2351,
      "Ġkey": 2352,
      "ĠRev": 2353,
      "Ġ=>": 2354,
      "ector": 2355,
      "alpha": 2356,
      "rain": 2357,
      "##": 2358,
      "hern": 2359,
      "ĠOlymp": 2360,
      "32": 2361,
      "Ġcreated": 2362,
      "Ġspe": 2363,
      "Ġanal": 2364,
      "Ġfeature": 2365,
      "idence": 2366,
      "Ġlate": 2367,
      "ocument": 2368,
      "hers": 2369,
      "ael": 2370,
      "Ġdistrict": 2371,
      "Ġindust": 2372,
      "Ġvarious": 2373,
      "Ġfund": 2374,
      "Ġgrow": 2375,
      "br": 2376,
      "quad": 2377,
      "ably": 2378,
      "arget": 2379,
      "part": 2380,
      "Ġprivate": 2381,
      "Ġenc": 2382,
      "ĠAward": 2383,
      "ander": 2384,
      "sequ": 2385,
      "Ġobject": 2386,
      "Ġannounced": 2387,
      "Ġsent": 2388,
      "onse": 2389,
      "var": 2390,
      "Ġsite": 2391,
      "Ġfriend": 2392,
      "Ġthink": 2393,
      "Ġstudy": 2394,
      "Sh": 2395,
      "Ġcontrol": 2396,
      "Ġemploy": 2397,
      "Ġhuman": 2398,
      "Ġfem": 2399,
      "Id": 2400,
      "Ġx": 2401,
      "face": 2402,
      "ĠEuropean": 2403,
      "Ġround": 2404,
      "ume": 2405,
      "ĠPort": 2406,
      "aut": 2407,
      "Ġindividual": 2408,
      "atter": 2409,
      "Ġworks": 2410,
      "ached": 2411,
      "ĠCouncil": 2412,
      "Ġservices": 2413,
      "Ġdays": 2414,
      "RE": 2415,
      "Ġet": 2416,
      "Ġaward": 2417,
      "ĠVal": 2418,
      "Ġestablish": 2419,
      "History": 2420,
      "1999": 2421,
      "Ġide": 2422,
      "Ġhost": 2423,
      "ĠArmy": 2424,
      "Ġopp": 2425,
      "key": 2426,
      "ĠMon": 2427,
      "error": 2428,
      "irl": 2429,
      "Ġengine": 2430,
      "Ġmale": 2431,
      "atri": 2432,
      "\"/>": 2433,
      "Ġsu": 2434,
      "Ġdeaths": 2435,
      "Ġcomb": 2436,
      "ney": 2437,
      "Ġtw": 2438,
      "ither": 2439,
      "urb": 2440,
      "Sp": 2441,
      "ĠFrance": 2442,
      "Ġweek": 2443,
      "ership": 2444,
      "Ġnever": 2445,
      "Ġprim": 2446,
      "ements": 2447,
      "order": 2448,
      "hib": 2449,
      "import": 2450,
      "ĠCanada": 2451,
      "Ġevents": 2452,
      "Ġproduced": 2453,
      "ĠWhen": 2454,
      "anish": 2455,
      "Ġrelations": 2456,
      "ega": 2457,
      "ams": 2458,
      "ĠHol": 2459,
      "Ġregion": 2460,
      "Ġresults": 2461,
      "$\\": 2462,
      "eep": 2463,
      "ĠPal": 2464,
      "Ġworking": 2465,
      "AC": 2466,
      "Ġproduction": 2467,
      "ocr": 2468,
      ",\"": 2469,
      "Ġexist": 2470,
      "ĠIf": 2471,
      "rote": 2472,
      "odes": 2473,
      "not": 2474,
      "ems": 2475,
      "Ġmilitary": 2476,
      "ĠThese": 2477,
      "ĠGr": 2478,
      "uation": 2479,
      "itar": 2480,
      "aterial": 2481,
      "iff": 2482,
      "Ġfail": 2483,
      "Ġfurther": 2484,
      "Ġworked": 2485,
      "urity": 2486,
      "year": 2487,
      "oor": 2488,
      "Ġphot": 2489,
      "Ġpresident": 2490,
      "Ġhere": 2491,
      "ique": 2492,
      "ĠJames": 2493,
      "Ġmeet": 2494,
      "ĠMal": 2495,
      "orthern": 2496,
      "BC": 2497,
      "now": 2498,
      ")\\": 2499,
      "iting": 2500,
      "Ġche": 2501,
      "Ġtyp": 2502,
      "Ġbelie": 2503,
      "Ġda": 2504,
      "ĠAnt": 2505,
      "itect": 2506,
      "ĠTo": 2507,
      "han": 2508,
      "gether": 2509,
      "Ġtogether": 2510,
      "Ġvideo": 2511,
      "Ġtrue": 2512,
      "istic": 2513,
      "Ġins": 2514,
      "Ġavailable": 2515,
      "Ġdeg": 2516,
      "ware": 2517,
      "aged": 2518,
      "iddle": 2519,
      "anies": 2520,
      "ĠSen": 2521,
      "Ġmiss": 2522,
      "1980": 2523,
      "ambda": 2524,
      "90": 2525,
      "Ġlearn": 2526,
      "Type": 2527,
      "ĠMor": 2528,
      "Ġchange": 2529,
      "code": 2530,
      "ĠBel": 2531,
      "ĠGeneral": 2532,
      "ĠĠĊ": 2533,
      "ĠRober": 2534,
      "Ġvari": 2535,
      "ĠStud": 2536,
      "ĠInstit": 2537,
      "Ġput": 2538,
      "Ġpoints": 2539,
      "Ġmeas": 2540,
      "vironment": 2541,
      "Ġappoint": 2542,
      "gcolor": 2543,
      "ĠDem": 2544,
      "aps": 2545,
      "Ġhowever": 2546,
      "Ġparticip": 2547,
      "Ġacross": 2548,
      "ĠThom": 2549,
      "70": 2550,
      "ĠCourt": 2551,
      "astern": 2552,
      "1998": 2553,
      "Ġaccess": 2554,
      "ago": 2555,
      "uture": 2556,
      "Ind": 2557,
      "36": 2558,
      "EN": 2559,
      "String": 2560,
      "Ġaver": 2561,
      "mon": 2562,
      "loc": 2563,
      "Ġproduct": 2564,
      "Col": 2565,
      "Ġstrong": 2566,
      "34": 2567,
      "Ġmaking": 2568,
      "Ġmatch": 2569,
      "ĠAcc": 2570,
      "Ġrespect": 2571,
      "Ġship": 2572,
      "Ġdebut": 2573,
      "ĠRoman": 2574,
      "ĠGeorge": 2575,
      "ashington": 2576,
      "ĠChina": 2577,
      "Ġpopular": 2578,
      "\")": 2579,
      "ĠStreet": 2580,
      "thern": 2581,
      "ĠPaul": 2582,
      "ville": 2583,
      "Ġpolitic": 2584,
      "gress": 2585,
      "Ġbase": 2586,
      "Ġdi": 2587,
      "Ġhalf": 2588,
      "action": 2589,
      "posed": 2590,
      "Ġcoll": 2591,
      "ĠWith": 2592,
      "Ġcost": 2593,
      "Ġsett": 2594,
      "ittee": 2595,
      "Res": 2596,
      "Ġ\\\\": 2597,
      "Ġoffer": 2598,
      "eh": 2599,
      "Ġlow": 2600,
      "most": 2601,
      "itted": 2602,
      "Ġepis": 2603,
      "icy": 2604,
      "resp": 2605,
      "Ġdev": 2606,
      "rang": 2607,
      "Ġeducation": 2608,
      "ĠLaw": 2609,
      "ests": 2610,
      "Ġreview": 2611,
      "ux": 2612,
      "outhern": 2613,
      "Ġsurv": 2614,
      "obal": 2615,
      "ĠDavid": 2616,
      "Ġphys": 2617,
      "ĠAssociation": 2618,
      "eters": 2619,
      "ĠQue": 2620,
      "ele": 2621,
      "ills": 2622,
      "ĠServ": 2623,
      "translation": 2624,
      "Sc": 2625,
      "Ġbgcolor": 2626,
      "Ġfree": 2627,
      "amma": 2628,
      "aign": 2629,
      "ĠRich": 2630,
      "ho": 2631,
      "Ġdest": 2632,
      "Ġgroups": 2633,
      "ĠRed": 2634,
      "ribution": 2635,
      "return": 2636,
      "Ġconsidered": 2637,
      "rel": 2638,
      "Ġwrote": 2639,
      "mu": 2640,
      "ĠCenter": 2641,
      "Ġothers": 2642,
      "Ġfocus": 2643,
      "ĠLou": 2644,
      "unicip": 2645,
      "ription": 2646,
      "_\\": 2647,
      "Ġgoing": 2648,
      "Ġcapt": 2649,
      "1996": 2650,
      "ha": 2651,
      "cer": 2652,
      "ya": 2653,
      "ĠâĢĺ": 2654,
      "type": 2655,
      "Ġproduc": 2656,
      "duction": 2657,
      "Ġhon": 2658,
      "ederal": 2659,
      "ĠDivision": 2660,
      "ida": 2661,
      "oice": 2662,
      "Ġcaus": 2663,
      "Ġbroad": 2664,
      "Ġdirector": 2665,
      "men": 2666,
      "Ġparty": 2667,
      "ania": 2668,
      "ules": 2669,
      "AN": 2670,
      "Ġmean": 2671,
      "igma": 2672,
      "Ġmarried": 2673,
      "ĠBlack": 2674,
      "Ġ)": 2675,
      "atural": 2676,
      "Ġattempt": 2677,
      "go": 2678,
      "37": 2679,
      "Ġmot": 2680,
      "bor": 2681,
      "Ġimpro": 2682,
      "ming": 2683,
      "ĠCont": 2684,
      "ude": 2685,
      "AL": 2686,
      "To": 2687,
      "Ġjoined": 2688,
      "1997": 2689,
      "ĠUnion": 2690,
      "Ã¶": 2691,
      "185": 2692,
      "Ġareas": 2693,
      "Ġlet": 2694,
      "38": 2695,
      "ĠDepartment": 2696,
      "cy": 2697,
      "Ġmass": 2698,
      "Ġnetwork": 2699,
      "Ġwebs": 2700,
      "ĠRoyal": 2701,
      "ificant": 2702,
      "hi": 2703,
      "Ġquest": 2704,
      "Val": 2705,
      "After": 2706,
      "new": 2707,
      "....": 2708,
      "By": 2709,
      "reek": 2710,
      "Ġreturned": 2711,
      "}_{": 2712,
      "Ġspace": 2713,
      "chie": 2714,
      "ĠGermany": 2715,
      "ells": 2716,
      "epar": 2717,
      "Ġshows": 2718,
      "ĠIm": 2719,
      "inter": 2720,
      "Ġable": 2721,
      "Ġrail": 2722,
      "Ġtext": 2723,
      "Ġobserv": 2724,
      "ependent": 2725,
      "ilities": 2726,
      "Ġleast": 2727,
      "Ġlive": 2728,
      "ĠWashington": 2729,
      "Ġdiv": 2730,
      "ĠMount": 2731,
      "48": 2732,
      "ava": 2733,
      "Ġmarket": 2734,
      "1970": 2735,
      "ili": 2736,
      "ĠVir": 2737,
      "Ġplan": 2738,
      "Ġroad": 2739,
      "ĠHall": 2740,
      "itz": 2741,
      "mathbb": 2742,
      "wood": 2743,
      "Ġviol": 2744,
      "ean": 2745,
      "ceed": 2746,
      "Ġreported": 2747,
      "New": 2748,
      "raz": 2749,
      "ĠFirst": 2750,
      "utes": 2751,
      "lete": 2752,
      "aur": 2753,
      "Ġabove": 2754,
      "Ġbody": 2755,
      "Ġdefe": 2756,
      "Ġlight": 2757,
      "Ġ!": 2758,
      "1995": 2759,
      "Ġchurch": 2760,
      "Ġlost": 2761,
      "Ġstar": 2762,
      "39": 2763,
      "}^{": 2764,
      "=\\": 2765,
      "center": 2766,
      "Ġinflu": 2767,
      "Ġassoci": 2768,
      "rian": 2769,
      "ĠVol": 2770,
      "Ġprofessional": 2771,
      "Ġsize": 2772,
      "oper": 2773,
      "Ġaway": 2774,
      "ression": 2775,
      "Ġblack": 2776,
      "Ġsym": 2777,
      "Ġ_": 2778,
      "ĠList": 2779,
      "oted": 2780,
      "itional": 2781,
      "Ġrecogn": 2782,
      "LE": 2783,
      "Ġpay": 2784,
      "ĠCompany": 2785,
      "ĠEar": 2786,
      "lim": 2787,
      "Ġagre": 2788,
      "ients": 2789,
      "ughter": 2790,
      "ston": 2791,
      "aries": 2792,
      "Ġpast": 2793,
      "Ġbo": 2794,
      "ĠMont": 2795,
      "berg": 2796,
      "ges": 2797,
      "Ġpot": 2798,
      "44": 2799,
      "Ġaction": 2800,
      "Ġ()": 2801,
      "atives": 2802,
      "ĠAustralian": 2803,
      "Ġmid": 2804,
      "ror": 2805,
      "Ġvict": 2806,
      "ky": 2807,
      "Ġsignificant": 2808,
      "eps": 2809,
      "param": 2810,
      "gin": 2811,
      "1994": 2812,
      "ĠMart": 2813,
      "ecutive": 2814,
      "ender": 2815,
      "Ġperformance": 2816,
      "iding": 2817,
      "Ġthough": 2818,
      "Ġseen": 2819,
      "ĠBer": 2820,
      "1992": 2821,
      "Ġground": 2822,
      "Ġbi": 2823,
      "Ġcontinued": 2824,
      "file": 2825,
      "itch": 2826,
      "ĠMary": 2827,
      "iple": 2828,
      "asons": 2829,
      "bol": 2830,
      "sel": 2831,
      "ĠGroup": 2832,
      "Ġtaken": 2833,
      "Ġ`": 2834,
      "item": 2835,
      "rab": 2836,
      "75": 2837,
      "Ġteams": 2838,
      "Ġsongs": 2839,
      "ĠMy": 2840,
      "Ġoffice": 2841,
      "umber": 2842,
      "Ġrights": 2843,
      "Ġcompanies": 2844,
      "writ": 2845,
      "ĠJos": 2846,
      "section": 2847,
      "atory": 2848,
      "Ġstates": 2849,
      "sw": 2850,
      "Ġrev": 2851,
      "Ġapplic": 2852,
      "Ġcirc": 2853,
      "ĠMex": 2854,
      "Ġprovide": 2855,
      "ulated": 2856,
      "Ġopened": 2857,
      "pi": 2858,
      "Ġcontract": 2859,
      "ĠNe": 2860,
      "ishing": 2861,
      "asc": 2862,
      "65": 2863,
      "Ġrelease": 2864,
      "aching": 2865,
      "Ġaverage": 2866,
      "Ġlanguage": 2867,
      "umni": 2868,
      "inese": 2869,
      "Ġder": 2870,
      "ĠDuring": 2871,
      "Ġbrother": 2872,
      "ends": 2873,
      "Ġpossible": 2874,
      "aker": 2875,
      "ustom": 2876,
      "ĠAcadem": 2877,
      "liament": 2878,
      "Ġser": 2879,
      "sy": 2880,
      "asket": 2881,
      "ension": 2882,
      "Ġadminist": 2883,
      "ades": 2884,
      "ĠMag": 2885,
      "icles": 2886,
      "ĠSo": 2887,
      "64": 2888,
      "Ġsepar": 2889,
      "ĠDon": 2890,
      "asing": 2891,
      "Ġtoo": 2892,
      "elling": 2893,
      "Ġdeveloped": 2894,
      "rael": 2895,
      "Ġfalse": 2896,
      "Ġmar": 2897,
      "ĠChe": 2898,
      "IT": 2899,
      "ensive": 2900,
      "Ġwebsite": 2901,
      "iers": 2902,
      "ready": 2903,
      "ĠSociety": 2904,
      "Ġmedia": 2905,
      "ĠÃ": 2906,
      "Ġmonths": 2907,
      "ĠInstitute": 2908,
      "ĠUK": 2909,
      "ala": 2910,
      "Ġaccount": 2911,
      "Ġwife": 2912,
      "tain": 2913,
      "Ġbecom": 2914,
      "hold": 2915,
      "Ġmother": 2916,
      "ples": 2917,
      "Ġtreat": 2918,
      "nder": 2919,
      "ani": 2920,
      "1993": 2921,
      "ĠMusic": 2922,
      "Ġlaun": 2923,
      "Ġmaterial": 2924,
      "ĠAfrican": 2925,
      "ply": 2926,
      "Ġarr": 2927,
      "Ġcourt": 2928,
      "Ġred": 2929,
      "uff": 2930,
      "ĠPress": 2931,
      "Ġsection": 2932,
      "Ġhom": 2933,
      "ĠNor": 2934,
      "ache": 2935,
      "Ġcome": 2936,
      "ĠAfrica": 2937,
      "Ġpress": 2938,
      "oo": 2939,
      "Ġonce": 2940,
      "Ġlik": 2941,
      "ixed": 2942,
      "Ġten": 2943,
      "imately": 2944,
      "ĠArch": 2945,
      "Ġdeterm": 2946,
      "band": 2947,
      "ĠRoad": 2948,
      "Ġtry": 2949,
      "Ġrange": 2950,
      "Ġnull": 2951,
      "Ġhard": 2952,
      "ĠCong": 2953,
      "phi": 2954,
      "Ġfar": 2955,
      "Ġcountries": 2956,
      "ota": 2957,
      "ula": 2958,
      "Ġappe": 2959,
      "Ġcross": 2960,
      "Ġdou": 2961,
      "arian": 2962,
      "ĠPe": 2963,
      "ĠHen": 2964,
      "Ġanim": 2965,
      "Ġassist": 2966,
      "rd": 2967,
      "ellow": 2968,
      "estival": 2969,
      "Ġtraining": 2970,
      "Ġsugg": 2971,
      "alls": 2972,
      "ĠÂ": 2973,
      "At": 2974,
      "unn": 2975,
      "iqu": 2976,
      "oul": 2977,
      "^{\\": 2978,
      "ĠJew": 2979,
      "ĠSl": 2980,
      "49": 2981,
      "Ġrespons": 2982,
      "arter": 2983,
      "Ġenergy": 2984,
      "roy": 2985,
      "ospital": 2986,
      "ser": 2987,
      "ĠTrans": 2988,
      "-\\": 2989,
      "clus": 2990,
      "ĠThat": 2991,
      "ĠJack": 2992,
      "nown": 2993,
      "Ġcal": 2994,
      "Ġhimself": 2995,
      "Ġ{\\": 2996,
      "ĠAngel": 2997,
      "ibrary": 2998,
      "Ġask": 2999,
      "igned": 3000,
      "ving": 3001,
      "airs": 3002,
      "Ġcompleted": 3003,
      "ĠTV": 3004,
      "load": 3005,
      "ĠSim": 3006,
      "Ġvoc": 3007,
      "ĠClub": 3008,
      "see": 3009,
      "1960": 3010,
      "Ġcampaign": 3011,
      "ores": 3012,
      "Ġ>": 3013,
      "AM": 3014,
      "cle": 3015,
      "Ġsuccessful": 3016,
      "Ġbig": 3017,
      "ĠMark": 3018,
      "ĠPri": 3019,
      "EC": 3020,
      "Ġclear": 3021,
      "ĠTex": 3022,
      "uffer": 3023,
      "ES": 3024,
      "Ġnovel": 3025,
      "Ġliving": 3026,
      "Ġcompos": 3027,
      "Ġschools": 3028,
      "Tr": 3029,
      "1991": 3030,
      "unity": 3031,
      "Ġliter": 3032,
      "ĠCath": 3033,
      "Ġmodern": 3034,
      "Ġrace": 3035,
      "Ġbetter": 3036,
      "ibility": 3037,
      "ĠCanadian": 3038,
      "ĠProv": 3039,
      "Ġeither": 3040,
      "Ġfire": 3041,
      "Ġill": 3042,
      "ayer": 3043,
      "Ġjud": 3044,
      "Ġtre": 3045,
      "pect": 3046,
      "Ġdiff": 3047,
      "includ": 3048,
      "istry": 3049,
      "Ġpur": 3050,
      "olit": 3051,
      "II": 3052,
      "ĠIsland": 3053,
      "Ġmem": 3054,
      "andid": 3055,
      "Ġsubject": 3056,
      "Ġfuture": 3057,
      "ka": 3058,
      "Ġhous": 3059,
      "Ġtax": 3060,
      "ĠMiss": 3061,
      "Ġparent": 3062,
      "ship": 3063,
      "Ġconduct": 3064,
      "mar": 3065,
      "Ġsigned": 3066,
      "Ġrecorded": 3067,
      "Ġprovided": 3068,
      "Ġhtt": 3069,
      "mathbf": 3070,
      "ĠTur": 3071,
      "Ġben": 3072,
      "sec": 3073,
      "ctor": 3074,
      "Ġdiscuss": 3075,
      "ĠKingdom": 3076,
      "ĠMuseum": 3077,
      "Ġcomput": 3078,
      "aves": 3079,
      "hood": 3080,
      "IS": 3081,
      "Ġpred": 3082,
      "ecess": 3083,
      "uments": 3084,
      "arrow": 3085,
      "plement": 3086,
      "||": 3087,
      "ĠFrom": 3088,
      "Ġcou": 3089,
      "Ġden": 3090,
      "Ġgovern": 3091,
      "Ġindic": 3092,
      "Ġ==": 3093,
      "Ġcop": 3094,
      "Ġelected": 3095,
      "Ġrelig": 3096,
      "log": 3097,
      "Ġmeans": 3098,
      "ensus": 3099,
      "ids": 3100,
      "width": 3101,
      "Ġfight": 3102,
      "board": 3103,
      "ĠRobert": 3104,
      "=#": 3105,
      "edy": 3106,
      "Ġconv": 3107,
      "ested": 3108,
      "Ġfeatures": 3109,
      "ites": 3110,
      "unt": 3111,
      "Ġhold": 3112,
      "ĠGreen": 3113,
      "net": 3114,
      "Ġsat": 3115,
      "Ġlittle": 3116,
      "ĠGames": 3117,
      "lor": 3118,
      "Ġalready": 3119,
      "47": 3120,
      "Ġdocument": 3121,
      "ĠSing": 3122,
      "acing": 3123,
      "asketball": 3124,
      "Ġfounded": 3125,
      "Ġfront": 3126,
      "ĠChristian": 3127,
      "ero": 3128,
      "ki": 3129,
      "ĠTown": 3130,
      "IC": 3131,
      "ĠHistor": 3132,
      "Ġarchitect": 3133,
      "ĠSam": 3134,
      "ĠSer": 3135,
      "Ġwind": 3136,
      "Ġentire": 3137,
      "annel": 3138,
      "ĠGod": 3139,
      "Ġcases": 3140,
      "ees": 3141,
      "Ġalways": 3142,
      "Ġclose": 3143,
      "ĠFranc": 3144,
      "lambda": 3145,
      "bert": 3146,
      "Ġelse": 3147,
      "Ġincludes": 3148,
      "Ġbound": 3149,
      "Ġappeared": 3150,
      "atal": 3151,
      "Ġdirected": 3152,
      "ĠSal": 3153,
      "Ġid": 3154,
      "ĠGreat": 3155,
      "Ġboard": 3156,
      "ĠThomas": 3157,
      "Ġprob": 3158,
      "Ġtarget": 3159,
      "ĠRussian": 3160,
      "Ġmight": 3161,
      "ĠCentral": 3162,
      "Ġsound": 3163,
      "Ġappointed": 3164,
      "used": 3165,
      "Ġaud": 3166,
      "Ġalbums": 3167,
      "medi": 3168,
      "Ġtro": 3169,
      "55": 3170,
      "ĠBest": 3171,
      "Ġrock": 3172,
      "onent": 3173,
      "Ġloss": 3174,
      "Ġcertain": 3175,
      "1989": 3176,
      "Ġcast": 3177,
      "ĠCons": 3178,
      "ona": 3179,
      "erc": 3180,
      "och": 3181,
      "ĠPat": 3182,
      "Ġkeep": 3183,
      "unk": 3184,
      "Ġterms": 3185,
      "ĠMinister": 3186,
      "value": 3187,
      "ĠInter": 3188,
      "ĠAlex": 3189,
      "All": 3190,
      "Ġachie": 3191,
      "Ġplaying": 3192,
      "AA": 3193,
      "Ġregular": 3194,
      "ria": 3195,
      "box": 3196,
      "Ġconsist": 3197,
      "Or": 3198,
      "\"><": 3199,
      "Ġneg": 3200,
      "Ġgot": 3201,
      "Ġkm": 3202,
      "Ġpolice": 3203,
      "rey": 3204,
      "Ġcollection": 3205,
      "rim": 3206,
      "ĠJapanese": 3207,
      "with": 3208,
      "ilon": 3209,
      "ĠLeg": 3210,
      "Ġstage": 3211,
      "Ġsays": 3212,
      "ĠBen": 3213,
      "enced": 3214,
      "ged": 3215,
      "ĠMr": 3216,
      "iences": 3217,
      "ĠYear": 3218,
      "Ġreally": 3219,
      "rup": 3220,
      "ĠMad": 3221,
      "ĠWestern": 3222,
      "There": 3223,
      "ĠApp": 3224,
      "Ġinstit": 3225,
      "ails": 3226,
      "Ġaccept": 3227,
      "ĠTexas": 3228,
      "Ġbr": 3229,
      "ties": 3230,
      "Ġbirth": 3231,
      "Ġformed": 3232,
      "ranch": 3233,
      "ĠBay": 3234,
      "oz": 3235,
      "Ġbooks": 3236,
      "ĠAcademy": 3237,
      "ĠWhite": 3238,
      "ysis": 3239,
      "idents": 3240,
      "udd": 3241,
      "Ġcreate": 3242,
      ".)": 3243,
      "Ġqual": 3244,
      "Le": 3245,
      "Ġdecl": 3246,
      "ĠScott": 3247,
      "Ġleading": 3248,
      "based": 3249,
      "ĠHam": 3250,
      "aches": 3251,
      "Ġadded": 3252,
      "arc": 3253,
      "eph": 3254,
      "99": 3255,
      "ini": 3256,
      "ressed": 3257,
      "Ġfig": 3258,
      "ĠMet": 3259,
      "Ġpers": 3260,
      "ĠFilm": 3261,
      "met": 3262,
      "ĠLouis": 3263,
      "Ġeight": 3264,
      "Ġvoid": 3265,
      "Ġcivil": 3266,
      "ĠĠĠĠĠĠĠĠĠĠĠĠĠĠĠĠĠĠĠĠĠĠĠĠĠĠĠĠĠĠĠĠ": 3267,
      "ancial": 3268,
      "1988": 3269,
      "Ġcommand": 3270,
      "Ġalthough": 3271,
      "Ġproperty": 3272,
      "ĠGrand": 3273,
      "ĠRecords": 3274,
      "ĠDirect": 3275,
      "lements": 3276,
      "ĠCarol": 3277,
      "ĠTra": 3278,
      "ĠVirgin": 3279,
      "Ġconstruction": 3280,
      "gy": 3281,
      "utions": 3282,
      "Ġclos": 3283,
      "ĠIsrael": 3284,
      "Ġleague": 3285,
      "ĠChinese": 3286,
      "Ġacqu": 3287,
      "ĠKore": 3288,
      "Ġinteg": 3289,
      "ires": 3290,
      "Ġinvestig": 3291,
      "ĠMichael": 3292,
      "list": 3293,
      "embly": 3294,
      "ĠZeal": 3295,
      "Ġaccording": 3296,
      "Ġeffort": 3297,
      "ĠDi": 3298,
      "Ġstring": 3299,
      "Ġbreak": 3300,
      "Ġter": 3301,
      "rated": 3302,
      "quest": 3303,
      "uz": 3304,
      "CO": 3305,
      "thlet": 3306,
      "ĠItalian": 3307,
      "ducation": 3308,
      "Ġcreat": 3309,
      "ĠIr": 3310,
      "thing": 3311,
      "unc": 3312,
      "ĠMac": 3313,
      "ĠZealand": 3314,
      "Ġgave": 3315,
      "Ġgoal": 3316,
      "fo": 3317,
      "ilies": 3318,
      "ĠCharles": 3319,
      "Film": 3320,
      "ething": 3321,
      "Ġthought": 3322,
      "Ġrequired": 3323,
      "Ġsex": 3324,
      "ĠRepublic": 3325,
      "Ġupon": 3326,
      "rec": 3327,
      "Ġinvolved": 3328,
      "Ġwhite": 3329,
      "no": 3330,
      "ictor": 3331,
      "Ġcy": 3332,
      "azine": 3333,
      "down": 3334,
      "Ġsystems": 3335,
      "46": 3336,
      "ises": 3337,
      "eck": 3338,
      "ena": 3339,
      "Ġconcern": 3340,
      "isl": 3341,
      "Ġrequire": 3342,
      "ĠĠĠĠĠĠĠĠĠĠĠĠĠ": 3343,
      "istics": 3344,
      "Ġdaughter": 3345,
      "Ġlargest": 3346,
      "ĠDemocr": 3347,
      "Ġgradu": 3348,
      "Ġdeal": 3349,
      "reland": 3350,
      "ĠJust": 3351,
      "string": 3352,
      "Ġradio": 3353,
      "Ġthroughout": 3354,
      "ĠCO": 3355,
      "ormal": 3356,
      "cd": 3357,
      "inary": 3358,
      "icult": 3359,
      "Ġconstit": 3360,
      "ĠMus": 3361,
      "Ġfootballers": 3362,
      "Ġjob": 3363,
      "ĠRail": 3364,
      "pm": 3365,
      "Ġsports": 3366,
      "ĠBook": 3367,
      "ĠFlor": 3368,
      "Ġlog": 3369,
      "ĠGo": 3370,
      "iation": 3371,
      "ada": 3372,
      "Ġperformed": 3373,
      "Ġsem": 3374,
      "ĠDay": 3375,
      "Ġeast": 3376,
      "Ġrather": 3377,
      "Ġtour": 3378,
      "irt": 3379,
      "Ġfav": 3380,
      "âĢ¦": 3381,
      "Ġvia": 3382,
      "Ġenvironment": 3383,
      "ado": 3384,
      "oke": 3385,
      "ĠGold": 3386,
      "dis": 3387,
      "US": 3388,
      "Ġfollowed": 3389,
      "istan": 3390,
      "Ġrelationship": 3391,
      "ĠBill": 3392,
      "ĠTom": 3393,
      "west": 3394,
      "Ġever": 3395,
      "Ġindustry": 3396,
      "ĠCommission": 3397,
      "Ġlo": 3398,
      "ecially": 3399,
      "erous": 3400,
      "Ph": 3401,
      "Ġcourse": 3402,
      "date": 3403,
      "ĠDo": 3404,
      "Ġinj": 3405,
      "Ġjournal": 3406,
      "ĠWil": 3407,
      "www": 3408,
      "Ġalumni": 3409,
      "elt": 3410,
      "Ġearli": 3411,
      "uit": 3412,
      "1987": 3413,
      "inner": 3414,
      "shire": 3415,
      "ounter": 3416,
      "Ġlower": 3417,
      "ĠUp": 3418,
      "Ġgive": 3419,
      "Ġcurrently": 3420,
      "Ġwest": 3421,
      "atre": 3422,
      "Par": 3423,
      "Bl": 3424,
      "Ġguitar": 3425,
      "merc": 3426,
      "Ġmus": 3427,
      "ager": 3428,
      "Ġnight": 3429,
      "Ġstre": 3430,
      "Ġmoney": 3431,
      "ĠSummer": 3432,
      "Ġalmost": 3433,
      "Acc": 3434,
      "Ã¤": 3435,
      "Wh": 3436,
      "Ġdam": 3437,
      "bject": 3438,
      "Ġdegree": 3439,
      "Ġesp": 3440,
      "Ġdesigned": 3441,
      "Ġens": 3442,
      "With": 3443,
      "Ġcandid": 3444,
      "ĠOlympics": 3445,
      "icro": 3446,
      "oms": 3447,
      "Ġpercent": 3448,
      "pose": 3449,
      "Ġapprox": 3450,
      "Ġthings": 3451,
      "Ġstructure": 3452,
      "irm": 3453,
      "Ġrank": 3454,
      "Ġwhose": 3455,
      "Ġissues": 3456,
      "ircraft": 3457,
      "Ġcoach": 3458,
      "Ġkilled": 3459,
      "Ġdram": 3460,
      "Ġpain": 3461,
      "Ġregard": 3462,
      "olf": 3463,
      "ĠÐ": 3464,
      "ĠDan": 3465,
      "ĠRad": 3466,
      "Ġcontribut": 3467,
      "AP": 3468,
      "Ġbuildings": 3469,
      "ession": 3470,
      "1986": 3471,
      "refore": 3472,
      "beta": 3473,
      "anks": 3474,
      "500": 3475,
      "Ġtravel": 3476,
      "ein": 3477,
      "ĠLat": 3478,
      "Ġcomplex": 3479,
      "urrent": 3480,
      "top": 3481,
      "Ġhigher": 3482,
      "Ġcentral": 3483,
      "Ġwhether": 3484,
      "sych": 3485,
      "\\\\": 3486,
      "Ġbar": 3487,
      "Ġdiscover": 3488,
      "state": 3489,
      "Ġforces": 3490,
      "ilde": 3491,
      "arily": 3492,
      "Ġartists": 3493,
      "ED": 3494,
      "Ġabs": 3495,
      "ĠFootball": 3496,
      "respond": 3497,
      "ĠOff": 3498,
      "sigma": 3499,
      "1984": 3500,
      "Ġplaces": 3501,
      "Ġstri": 3502,
      "ĠWhile": 3503,
      "Ġseven": 3504,
      "Ġproblem": 3505,
      "Ġfemale": 3506,
      "Ġlove": 3507,
      "ĠCatholic": 3508,
      "ĠFrank": 3509,
      "Ġparam": 3510,
      "script": 3511,
      "ait": 3512,
      "ĠHistory": 3513,
      "Ġpersonal": 3514,
      "imum": 3515,
      "ĠFore": 3516,
      "Ġimm": 3517,
      "bour": 3518,
      "Ġpath": 3519,
      "Ġoccur": 3520,
      "acc": 3521,
      "icago": 3522,
      "----------------": 3523,
      "]{": 3524,
      "gen": 3525,
      "Ġtoday": 3526,
      "Ġsen": 3527,
      "ĠTor": 3528,
      "Comp": 3529,
      "chan": 3530,
      "ĠMod": 3531,
      "ribute": 3532,
      "cell": 3533,
      "Ġstaff": 3534,
      "Ġcenter": 3535,
      "Ġsaf": 3536,
      "ĠSur": 3537,
      "Ġresponse": 3538,
      "^{-": 3539,
      "Ġkind": 3540,
      "Ġexperience": 3541,
      "lying": 3542,
      "opp": 3543,
      "ĠSystem": 3544,
      "1985": 3545,
      "ĠParis": 3546,
      "ĠSmith": 3547,
      "isk": 3548,
      "atus": 3549,
      "Ġinstead": 3550,
      "ufact": 3551,
      "Ġsil": 3552,
      "array": 3553,
      "sl": 3554,
      "Ġepisode": 3555,
      "Ġchall": 3556,
      "Ġtransfer": 3557,
      "Ġshown": 3558,
      "data": 3559,
      "Ġcapital": 3560,
      "ĠLos": 3561,
      "Ġ(\\": 3562,
      "42": 3563,
      "isions": 3564,
      "Ġsource": 3565,
      "bit": 3566,
      "ĠĠĠĠĠĠ": 3567,
      "Eng": 3568,
      "En": 3569,
      "Ġaccom": 3570,
      "66": 3571,
      "Ġtourn": 3572,
      "ummary": 3573,
      "road": 3574,
      "retary": 3575,
      "Ġpolicy": 3576,
      "standing": 3577,
      "ano": 3578,
      "comp": 3579,
      "Ġtaking": 3580,
      "Ġsaw": 3581,
      "incip": 3582,
      "Ġcut": 3583,
      "Ge": 3584,
      "1950": 3585,
      "Se": 3586,
      "Ġge": 3587,
      "')": 3588,
      "Ġeas": 3589,
      "Ġintroduced": 3590,
      "aring": 3591,
      "ios": 3592,
      "mark": 3593,
      "hest": 3594,
      "ĠRichard": 3595,
      "Ġlot": 3596,
      "ĠPeter": 3597,
      "ĠCro": 3598,
      "Ġdate": 3599,
      "Ear": 3600,
      "Ġmunicip": 3601,
      "sum": 3602,
      "Ġreb": 3603,
      "}{\\": 3604,
      "alled": 3605,
      "ulations": 3606,
      "ĠWomen": 3607,
      "ĠInt": 3608,
      "erve": 3609,
      "Ġbelow": 3610,
      "Ġforce": 3611,
      "ands": 3612,
      "aval": 3613,
      "ĠCommittee": 3614,
      "location": 3615,
      "omet": 3616,
      "oma": 3617,
      "rial": 3618,
      "Ass": 3619,
      "CC": 3620,
      "ables": 3621,
      "ĠSome": 3622,
      "ura": 3623,
      "Ġdone": 3624,
      "ĠHealth": 3625,
      "Ġrelated": 3626,
      "izing": 3627,
      "ils": 3628,
      "Ġdom": 3629,
      "Ġscient": 3630,
      "Ġwid": 3631,
      "Ġbehind": 3632,
      "Ġrate": 3633,
      "Ġoutside": 3634,
      "anta": 3635,
      "Ġfall": 3636,
      "Ġsomething": 3637,
      "Ġreason": 3638,
      "tained": 3639,
      "FA": 3640,
      "Ġstations": 3641,
      "ĠPublic": 3642,
      "Ġnatural": 3643,
      "Ġsuper": 3644,
      "Ġfood": 3645,
      "oviet": 3646,
      "Ġfeel": 3647,
      "Ġespecially": 3648,
      "Ġcontent": 3649,
      "mercial": 3650,
      "Ġdecision": 3651,
      "Ġneigh": 3652,
      "mathrm": 3653,
      "known": 3654,
      "Ġfrequ": 3655,
      "ĠLake": 3656,
      "Ġitself": 3657,
      "ĠClass": 3658,
      "ĠFound": 3659,
      "ĠSpanish": 3660,
      "nb": 3661,
      "ĠScience": 3662,
      "ET": 3663,
      "Ġwriting": 3664,
      "Ġprior": 3665,
      "ĠGovernment": 3666,
      "uration": 3667,
      "ĠIreland": 3668,
      "Ġinsp": 3669,
      "Ġexam": 3670,
      "ĠDel": 3671,
      "ĠPenn": 3672,
      "agon": 3673,
      "ii": 3674,
      "atform": 3675,
      "Ġfinished": 3676,
      "figure": 3677,
      "Ġissue": 3678,
      "Ġmedal": 3679,
      "reme": 3680,
      "*}": 3681,
      "1983": 3682,
      "wide": 3683,
      "ĠDef": 3684,
      "anced": 3685,
      "Ġcred": 3686,
      "ults": 3687,
      "book": 3688,
      "ĠCongress": 3689,
      "quare": 3690,
      "ipl": 3691,
      "ental": 3692,
      "ĠFlorida": 3693,
      "Ġcollege": 3694,
      "lem": 3695,
      "ĠGeorg": 3696,
      "ned": 3697,
      "Ġplant": 3698,
      "Ġmount": 3699,
      "ĠMass": 3700,
      "Man": 3701,
      "oring": 3702,
      "ĠRock": 3703,
      "Ad": 3704,
      "ĠMel": 3705,
      "Ġmonth": 3706,
      "ĠCamp": 3707,
      "antic": 3708,
      "orial": 3709,
      "ĠHow": 3710,
      "ĠHill": 3711,
      "Ġartist": 3712,
      "Ġnews": 3713,
      "ĠNot": 3714,
      "ĠDes": 3715,
      "FL": 3716,
      "Ġamount": 3717,
      "41": 3718,
      "amily": 3719,
      "And": 3720,
      "Ġdifficult": 3721,
      "Ġstated": 3722,
      "Ġmove": 3723,
      "Ġculture": 3724,
      "ita": 3725,
      "porary": 3726,
      "Im": 3727,
      "Ġadditional": 3728,
      "big": 3729,
      "ĠNews": 3730,
      "Data": 3731,
      "ĠRob": 3732,
      "Ġstandard": 3733,
      "Ġactive": 3734,
      "Ġwriter": 3735,
      "95": 3736,
      "Ġchanges": 3737,
      "1982": 3738,
      "like": 3739,
      "ockey": 3740,
      "Ġparts": 3741,
      "ĠForce": 3742,
      "Ġplann": 3743,
      "Ġfil": 3744,
      "Er": 3745,
      "izations": 3746,
      "oved": 3747,
      "ĠOffic": 3748,
      "Ġoriginally": 3749,
      "ylv": 3750,
      "Ġusually": 3751,
      "Ġmax": 3752,
      "uty": 3753,
      "////": 3754,
      "Ġexhib": 3755,
      "igital": 3756,
      "Ġdraw": 3757,
      "roid": 3758,
      "ĠVictor": 3759,
      "aud": 3760,
      "Rec": 3761,
      "px": 3762,
      "Ġassociated": 3763,
      "ĠHenry": 3764,
      "Ġsus": 3765,
      "itiz": 3766,
      "igan": 3767,
      "Ġsch": 3768,
      "ĠVirginia": 3769,
      "********": 3770,
      "],": 3771,
      "emic": 3772,
      "Te": 3773,
      "ishop": 3774,
      "ella": 3775,
      "========": 3776,
      "razil": 3777,
      "Value": 3778,
      "Ġreve": 3779,
      "Ġremained": 3780,
      "Ġeventually": 3781,
      "where": 3782,
      "mission": 3783,
      "43": 3784,
      "ĠService": 3785,
      "\");": 3786,
      "ĠBoard": 3787,
      "Ġsubsequ": 3788,
      "Ġcharacters": 3789,
      "1979": 3790,
      "Ġawarded": 3791,
      "idae": 3792,
      "Ġeconomic": 3793,
      "ĠChicago": 3794,
      "Ġcritic": 3795,
      "ĠĠĠĠĠĠĠĠĠĠĠĠĠĠĠĠĠĠĠĠĠĠĠ": 3796,
      "eff": 3797,
      "change": 3798,
      "nov": 3799,
      "selves": 3800,
      "Ġbenef": 3801,
      "ĠWork": 3802,
      "ĠSuper": 3803,
      "ĠSeries": 3804,
      "Ġtold": 3805,
      "ĠArts": 3806,
      "Ġenough": 3807,
      "Ġfamilies": 3808,
      "Ġhor": 3809,
      "Ġnecess": 3810,
      "eds": 3811,
      "Ġstudies": 3812,
      "ĠAccording": 3813,
      "inals": 3814,
      "Ġmovement": 3815,
      "people": 3816,
      "plied": 3817,
      "ĠResearch": 3818,
      "SS": 3819,
      "Ġvalues": 3820,
      "From": 3821,
      "ĠAngeles": 3822,
      "ĠEv": 3823,
      "utch": 3824,
      "Ġindependent": 3825,
      "rative": 3826,
      "nel": 3827,
      "Ġblock": 3828,
      "ĠAtl": 3829,
      "olk": 3830,
      "ublican": 3831,
      "Ġdecided": 3832,
      "Ġquestion": 3833,
      "ĠRussia": 3834,
      "180": 3835,
      "^\\": 3836,
      "ledge": 3837,
      "Ġlegal": 3838,
      "oys": 3839,
      "ĠTechn": 3840,
      "Ġbrought": 3841,
      "rupt": 3842,
      "ns": 3843,
      "78": 3844,
      "ĠInc": 3845,
      "erry": 3846,
      "iance": 3847,
      "Ġsequ": 3848,
      "Ġestim": 3849,
      "ui": 3850,
      "arts": 3851,
      "Ġevidence": 3852,
      "oud": 3853,
      "ĠMexico": 3854,
      "yr": 3855,
      "Ġgold": 3856,
      "Ġconditions": 3857,
      "ario": 3858,
      "Ġemer": 3859,
      "ĠEmp": 3860,
      "ye": 3861,
      "Ġpolitician": 3862,
      "ynam": 3863,
      "well": 3864,
      "Ġfeatured": 3865,
      "Ġmakes": 3866,
      "Ġallowed": 3867,
      "ĠAnn": 3868,
      "cher": 3869,
      "Ġaddress": 3870,
      "Ġhit": 3871,
      "Ġunits": 3872,
      "Ġleader": 3873,
      "1981": 3874,
      "Ġimpact": 3875,
      "pre": 3876,
      "Ġscience": 3877,
      "la": 3878,
      "ivity": 3879,
      "ĠSecond": 3880,
      "orpor": 3881,
      "Ġorganization": 3882,
      "Ġbank": 3883,
      "Ġcorrespond": 3884,
      "ront": 3885,
      "BA": 3886,
      "+\\": 3887,
      "lam": 3888,
      "ether": 3889,
      "ĠMore": 3890,
      "gamma": 3891,
      "Ġaircraft": 3892,
      "Ġmultiple": 3893,
      "Ġnames": 3894,
      "Ġspecific": 3895,
      "Ġconstruct": 3896,
      "owers": 3897,
      "Ġwoman": 3898,
      "Ġcustom": 3899,
      "Ġprem": 3900,
      "http": 3901,
      "plit": 3902,
      "Ġmur": 3903,
      "delta": 3904,
      "light": 3905,
      "Ġcompetition": 3906,
      "sm": 3907,
      "ĠBrown": 3908,
      "ĠAp": 3909,
      "size": 3910,
      "Ġlength": 3911,
      "rho": 3912,
      "rast": 3913,
      "Ġreached": 3914,
      "umer": 3915,
      "vention": 3916,
      "oral": 3917,
      "1972": 3918,
      "ĠBur": 3919,
      "Ġpreviously": 3920,
      "Ġreplaced": 3921,
      "Ġtheory": 3922,
      "za": 3923,
      "Ġrecent": 3924,
      "58": 3925,
      "ĠEr": 3926,
      "test": 3927,
      "leq": 3928,
      "het": 3929,
      "ĠKh": 3930,
      "Ġlisted": 3931,
      "Ġcele": 3932,
      "Ġpotential": 3933,
      "Ġprimary": 3934,
      "Ġbur": 3935,
      "ections": 3936,
      "Ġincrease": 3937,
      "ensity": 3938,
      "Is": 3939,
      "bon": 3940,
      "ĠOrder": 3941,
      "Ġgirl": 3942,
      "1976": 3943,
      "ĠSwed": 3944,
      "Ġpaint": 3945,
      "Ġfourth": 3946,
      "ĠItaly": 3947,
      "Ġsinger": 3948,
      "Ġmanagement": 3949,
      ")}": 3950,
      "rav": 3951,
      "RO": 3952,
      "Mod": 3953,
      "ola": 3954,
      "1978": 3955,
      "ĠIll": 3956,
      "ien": 3957,
      "iant": 3958,
      "Ġgrand": 3959,
      "ĠLand": 3960,
      "ua": 3961,
      "Ġinitial": 3962,
      "bre": 3963,
      "Ġmom": 3964,
      "ĠCast": 3965,
      "Ġthus": 3966,
      "Ġtowards": 3967,
      "Ġoperations": 3968,
      "FF": 3969,
      "ulture": 3970,
      "ares": 3971,
      "Ġpurch": 3972,
      "itors": 3973,
      "Ġchanged": 3974,
      "Not": 3975,
      "Ġfarm": 3976,
      "nbsp": 3977,
      "aging": 3978,
      "aled": 3979,
      "uge": 3980,
      "($": 3981,
      "Ġfinancial": 3982,
      "Ġmedical": 3983,
      "ĠPan": 3984,
      "ĠFin": 3985,
      "Ġmodels": 3986,
      "bers": 3987,
      "Ġreading": 3988,
      "theta": 3989,
      "ĠOther": 3990,
      "ĠScot": 3991,
      "Ġsoft": 3992,
      "Ġbeginning": 3993,
      "1974": 3994,
      "Ġbring": 3995,
      "LL": 3996,
      "Ġoccup": 3997,
      "rak": 3998,
      "encies": 3999,
      "Ð°": 4000,
      "TV": 4001,
      "lo": 4002,
      "Ġlines": 4003,
      "ened": 4004,
      "Ġpractice": 4005,
      "Ġsoon": 4006,
      "pan": 4007,
      "Ġpaper": 4008,
      "Early": 4009,
      "Ġinterview": 4010,
      "point": 4011,
      "1975": 4012,
      "Ġclosed": 4013,
      "https": 4014,
      "Ġgun": 4015,
      "Ġfile": 4016,
      "De": 4017,
      "ĠOut": 4018,
      "times": 4019,
      "Ġlikely": 4020,
      "Ġmanufact": 4021,
      "ĠSy": 4022,
      "Ġbackground": 4023,
      "Ġglobal": 4024,
      "ingu": 4025,
      "Ġscored": 4026,
      "Ġtechnology": 4027,
      "Äģ": 4028,
      "Ġstatus": 4029,
      "uke": 4030,
      "Ġveh": 4031,
      "ĠFestival": 4032,
      "Ġplaced": 4033,
      "iger": 4034,
      "1977": 4035,
      "Ġopport": 4036,
      "ogle": 4037,
      "Ġestablishments": 4038,
      "Ġtournament": 4039,
      "1968": 4040,
      "ĠRet": 4041,
      "ĠKar": 4042,
      "ĠMil": 4043,
      "urt": 4044,
      "velopment": 4045,
      "Ġstrateg": 4046,
      "ĠStar": 4047,
      "areer": 4048,
      "igr": 4049,
      "DE": 4050,
      "appen": 4051,
      "Ġcontinue": 4052,
      "ailed": 4053,
      "Ġstudent": 4054,
      "Ġcomplete": 4055,
      "ĠMa": 4056,
      "overs": 4057,
      "inated": 4058,
      "Ã¨": 4059,
      "Ġbasketball": 4060,
      "ĠCarolina": 4061,
      "Ġprison": 4062,
      "Ġacadem": 4063,
      "Ġ(\"": 4064,
      "agement": 4065,
      "nu": 4066,
      "88": 4067,
      "iro": 4068,
      "pped": 4069,
      "iana": 4070,
      "Ġsomet": 4071,
      "km": 4072,
      "ĠParliament": 4073,
      "Ġimplement": 4074,
      "itation": 4075,
      "Ġlocation": 4076,
      "Ġcontains": 4077,
      "Ġ&&": 4078,
      "Ġoppos": 4079,
      "Ġbox": 4080,
      "ĠString": 4081,
      "Ġtrade": 4082,
      "Ġdestroy": 4083,
      "path": 4084,
      "mitted": 4085,
      "ĠMer": 4086,
      "stra": 4087,
      "Ġtransport": 4088,
      "ĠNavy": 4089,
      "Ġball": 4090,
      "space": 4091,
      "den": 4092,
      "Ġrunning": 4093,
      "1973": 4094,
      "Ġ%": 4095,
      "ĠOl": 4096,
      "ugby": 4097,
      "$-": 4098,
      "Ġexpected": 4099,
      "77": 4100,
      "If": 4101,
      "imal": 4102,
      "Ġpark": 4103,
      "Ġlack": 4104,
      "}(\\": 4105,
      "irit": 4106,
      "mit": 4107,
      "Ġstatic": 4108,
      "Ġthreat": 4109,
      "Ġnomin": 4110,
      "azz": 4111,
      "FC": 4112,
      "Ġunit": 4113,
      "itting": 4114,
      "Ġcode": 4115,
      "Ġapproach": 4116,
      "position": 4117,
      "Qu": 4118,
      "Trans": 4119,
      "ĠTw": 4120,
      "];": 4121,
      "Ġscreen": 4122,
      "stant": 4123,
      "].": 4124,
      "MS": 4125,
      "ĠChampionships": 4126,
      "Ġdro": 4127,
      "ĠBo": 4128,
      "Ġanc": 4129,
      "eqref": 4130,
      "aught": 4131,
      "ĠSaint": 4132,
      "Ġspent": 4133,
      "Ġtable": 4134,
      "ĠProfess": 4135,
      "iano": 4136,
      "Ġdeep": 4137,
      "rice": 4138,
      "tau": 4139,
      "rief": 4140,
      "Ġbroadcast": 4141,
      "ĠIts": 4142,
      "ĠOh": 4143,
      "cel": 4144,
      "Ġfederal": 4145,
      "Ġearlier": 4146,
      "Ġfollows": 4147,
      "Ġwhole": 4148,
      "Ġwriters": 4149,
      "}$,": 4150,
      "ĠKn": 4151,
      "Ġmissing": 4152,
      "Ġess": 4153,
      "Ġonline": 4154,
      "edic": 4155,
      "lt": 4156,
      "ocal": 4157,
      "Ġtakes": 4158,
      "ĠSpec": 4159,
      "ĠStev": 4160,
      "ĠOper": 4161,
      "ĠTimes": 4162,
      "abit": 4163,
      "When": 4164,
      "anda": 4165,
      "Ġyet": 4166,
      "ĠSub": 4167,
      "Ġcolor": 4168,
      "01": 4169,
      "05": 4170,
      "ĠSince": 4171,
      "ĠMur": 4172,
      "Key": 4173,
      "gor": 4174,
      "Ġdefined": 4175,
      "Ġ/**": 4176,
      "1971": 4177,
      "Ġtalk": 4178,
      "ĠEducation": 4179,
      "Ġprograms": 4180,
      "Ġfif": 4181,
      "1940": 4182,
      "\";": 4183,
      "Ġhours": 4184,
      "ĠAv": 4185,
      "Ġactivities": 4186,
      "1969": 4187,
      "ato": 4188,
      "irection": 4189,
      "Ã³n": 4190,
      "style": 4191,
      "Class": 4192,
      "ylvania": 4193,
      "gent": 4194,
      "ĠDen": 4195,
      "));": 4196,
      "Ġpage": 4197,
      "Ġactress": 4198,
      "ĠSk": 4199,
      "Ð¾": 4200,
      "}$.": 4201,
      "xi": 4202,
      "Ġimage": 4203,
      "Ġprint": 4204,
      "Ġimmedi": 4205,
      "She": 4206,
      "Ġarticle": 4207,
      "ansas": 4208,
      "inet": 4209,
      "Ġproposed": 4210,
      "Ġtemper": 4211,
      "ĠAwards": 4212,
      "Ġthemselves": 4213,
      "Int": 4214,
      "table": 4215,
      "Ġanalysis": 4216,
      "url": 4217,
      "adium": 4218,
      "function": 4219,
      "1945": 4220,
      "ĠSoviet": 4221,
      "tit": 4222,
      "omm": 4223,
      "Notes": 4224,
      "Ġprovides": 4225,
      "Ġborder": 4226,
      "ĠBank": 4227,
      ";\"": 4228,
      "Ġlonger": 4229,
      "ottom": 4230,
      "Ġdise": 4231,
      "Get": 4232,
      "ken": 4233,
      "ĠArab": 4234,
      "ollowing": 4235,
      "Ġdistribution": 4236,
      "Ġshare": 4237,
      "Ġcell": 4238,
      "Ġpoet": 4239,
      "ĠLiber": 4240,
      "Ġ--": 4241,
      "98": 4242,
      "isation": 4243,
      "Ġplays": 4244,
      "ĠDis": 4245,
      "Ġword": 4246,
      "ĠCap": 4247,
      "Ġwhom": 4248,
      "lang": 4249,
      "reate": 4250,
      "illa": 4251,
      "Ġphil": 4252,
      "Ġwords": 4253,
      "Ġincreased": 4254,
      "Ġdeliver": 4255,
      "iller": 4256,
      "Ġsy": 4257,
      "Ġhighest": 4258,
      "Ġdivision": 4259,
      "rc": 4260,
      "ersey": 4261,
      "AD": 4262,
      "Ġshot": 4263,
      "Ġste": 4264,
      "Ġsecurity": 4265,
      "Ġactor": 4266,
      "ady": 4267,
      "OS": 4268,
      "Ġruns": 4269,
      "ption": 4270,
      "Ġschol": 4271,
      "enth": 4272,
      "Ġexpand": 4273,
      "Ġtraditional": 4274,
      "level": 4275,
      "Ġproblems": 4276,
      "Ġlimited": 4277,
      "Ġminor": 4278,
      "1930": 4279,
      "ĠDirector": 4280,
      "Ġface": 4281,
      "ĠTwo": 4282,
      "Ġrepresented": 4283,
      "oto": 4284,
      "Ġemb": 4285,
      "ĠPac": 4286,
      "68": 4287,
      "Ġuses": 4288,
      "Ġprop": 4289,
      "Ġgrant": 4290,
      "Ġcommercial": 4291,
      "Ġmovie": 4292,
      "ĠLife": 4293,
      "Ġstep": 4294,
      "Ġended": 4295,
      "group": 4296,
      "Exception": 4297,
      "eek": 4298,
      "Ġorg": 4299,
      "ĠPet": 4300,
      "1967": 4301,
      "Def": 4302,
      "reater": 4303,
      "ĠMartin": 4304,
      "ali": 4305,
      "Ġselected": 4306,
      "Ġhappen": 4307,
      "Ġsummer": 4308,
      "ĠColumb": 4309,
      "rough": 4310,
      "Ġmeeting": 4311,
      "Ġmention": 4312,
      "cm": 4313,
      "Ġquick": 4314,
      "Ġpositive": 4315,
      "ully": 4316,
      "Ġcorre": 4317,
      "Ġconcept": 4318,
      "Ġnoted": 4319,
      "ĠOld": 4320,
      "icon": 4321,
      "struct": 4322,
      "sim": 4323,
      "Ġspect": 4324,
      "inct": 4325,
      "ĠAssembly": 4326,
      "ĠIran": 4327,
      "ĠWales": 4328,
      "ader": 4329,
      "partial": 4330,
      "ny": 4331,
      "ĠMos": 4332,
      "Ġdemon": 4333,
      "duce": 4334,
      "ĠSil": 4335,
      "Ġattended": 4336,
      "ĠSocial": 4337,
      "Ġactually": 4338,
      "ĠBrazil": 4339,
      "venue": 4340,
      "Ġcontext": 4341,
      "ĠChief": 4342,
      "Ġcateg": 4343,
      "Ġgoals": 4344,
      "heast": 4345,
      "Ġelements": 4346,
      "Ġbehav": 4347,
      "asion": 4348,
      "Ġshall": 4349,
      "Ġmer": 4350,
      "Ġsuffer": 4351,
      "ĠMo": 4352,
      "Ġsometimes": 4353,
      "link": 4354,
      "Ġanti": 4355,
      "ĠOf": 4356,
      "Ġord": 4357,
      "mm": 4358,
      "eks": 4359,
      "ĠRos": 4360,
      "uled": 4361,
      "isco": 4362,
      "ĠFort": 4363,
      "Ġwinning": 4364,
      "''": 4365,
      "Ġver": 4366,
      "Ġpassed": 4367,
      "Ġlarger": 4368,
      "ette": 4369,
      "vis": 4370,
      "Ġforeign": 4371,
      "Ġpresented": 4372,
      "usband": 4373,
      "Ġlink": 4374,
      "Ġcoast": 4375,
      "Ġcho": 4376,
      "Ġidea": 4377,
      "English": 4378,
      "allery": 4379,
      "ĠJoseph": 4380,
      "Ġstudio": 4381,
      "Ġseasons": 4382,
      "1964": 4383,
      "Ġremains": 4384,
      "onents": 4385,
      "ao": 4386,
      "Ġadopt": 4387,
      "ultural": 4388,
      "Ġteac": 4389,
      "from": 4390,
      "ĠHon": 4391,
      "07": 4392,
      "track": 4393,
      "Object": 4394,
      "Ġang": 4395,
      "more": 4396,
      "otion": 4397,
      "Ġmusical": 4398,
      "Ġgenerally": 4399,
      "ĠGovern": 4400,
      "ĠWood": 4401,
      "ags": 4402,
      "Ġhot": 4403,
      "sylvania": 4404,
      "Ġparticularly": 4405,
      "Ġerror": 4406,
      "67": 4407,
      "Ġvocals": 4408,
      "Ġstay": 4409,
      "Over": 4410,
      "Ġedition": 4411,
      "Ġdu": 4412,
      "ora": 4413,
      "util": 4414,
      "Ġadapt": 4415,
      "flict": 4416,
      "body": 4417,
      "ĠĠĠĠĊ": 4418,
      "ĠMem": 4419,
      "Ġlives": 4420,
      "public": 4421,
      "Ġking": 4422,
      "Ġsociety": 4423,
      "ĠIrish": 4424,
      "ĠTour": 4425,
      "ĠMost": 4426,
      "edia": 4427,
      "ĠFre": 4428,
      "verse": 4429,
      "Ġmajority": 4430,
      "Ġu": 4431,
      "ĠHistoric": 4432,
      "ying": 4433,
      "Ġcollabor": 4434,
      "nav": 4435,
      "ĠJournal": 4436,
      "ros": 4437,
      "ĠEmpire": 4438,
      "ĠAre": 4439,
      "iÄ": 4440,
      "yan": 4441,
      "John": 4442,
      "Ġdefin": 4443,
      "57": 4444,
      "Ps": 4445,
      "index": 4446,
      "Ġcomes": 4447,
      "cit": 4448,
      "ĠProvince": 4449,
      "Ġcommission": 4450,
      "Ġcommunic": 4451,
      "ION": 4452,
      "Ġcontinu": 4453,
      "Ġmission": 4454,
      "ih": 4455,
      "Ġofficer": 4456,
      "ĠNorthern": 4457,
      "Ġnewsp": 4458,
      "Ġwanted": 4459,
      "Ġmeasure": 4460,
      "js": 4461,
      "Ġpen": 4462,
      "imb": 4463,
      "Ġcannot": 4464,
      "Ġcommunities": 4465,
      "08": 4466,
      "atriate": 4467,
      "Ġterrit": 4468,
      "But": 4469,
      "Ġrequest": 4470,
      "ging": 4471,
      "fty": 4472,
      "IM": 4473,
      "acity": 4474,
      "Ġforward": 4475,
      "language": 4476,
      "Ġapproximately": 4477,
      "ously": 4478,
      "Ġriver": 4479,
      "Ġfa": 4480,
      "ĠBig": 4481,
      "Ġplatform": 4482,
      "Ġmanager": 4483,
      "Ġasked": 4484,
      "Ġwhy": 4485,
      "Ġparents": 4486,
      "nes": 4487,
      "Ġchampionship": 4488,
      "ĠRepublican": 4489,
      "ras": 4490,
      "rt": 4491,
      "Career": 4492,
      "ervation": 4493,
      "Ġesc": 4494,
      "Ġlic": 4495,
      "ĠSol": 4496,
      "Ġcharg": 4497,
      "ĠSun": 4498,
      "Ġsupported": 4499,
      "aily": 4500,
      "Ġlived": 4501,
      "Ġaltern": 4502,
      "1965": 4503,
      "atively": 4504,
      "atur": 4505,
      "ĠOpen": 4506,
      "97": 4507,
      "aven": 4508,
      "house": 4509,
      "During": 4510,
      "ĠHaw": 4511,
      "Set": 4512,
      "fin": 4513,
      "ongs": 4514,
      "Am": 4515,
      "range": 4516,
      "Ġlaunched": 4517,
      "OT": 4518,
      "astic": 4519,
      "Ġproducts": 4520,
      "Can": 4521,
      "Ġremain": 4522,
      "ĠSir": 4523,
      "Ġweeks": 4524,
      "orph": 4525,
      "Ġproducer": 4526,
      "Ġ!=": 4527,
      "Ġscore": 4528,
      "Ġreligious": 4529,
      "ĠPost": 4530,
      "ĠAlthough": 4531,
      "ĠCD": 4532,
      "wan": 4533,
      "Ġnature": 4534,
      "ects": 4535,
      "Ġcaused": 4536,
      "Ġrailway": 4537,
      "BS": 4538,
      "Ġsurface": 4539,
      "Ġrap": 4540,
      "ĠPeople": 4541,
      "ube": 4542,
      "Ġassum": 4543,
      "Ġcollect": 4544,
      "96": 4545,
      "ws": 4546,
      "omega": 4547,
      "Ġsouthern": 4548,
      "1920": 4549,
      "ĠLove": 4550,
      "Ġwide": 4551,
      "Ġdisplay": 4552,
      "ĠLee": 4553,
      "().": 4554,
      "Ġelement": 4555,
      "ifying": 4556,
      "rep": 4557,
      "ĠSpain": 4558,
      "Ġcitiz": 4559,
      "lease": 4560,
      "Ġsurround": 4561,
      "ĠOffice": 4562,
      "airman": 4563,
      "Ġgraph": 4564,
      "efore": 4565,
      "Ġchief": 4566,
      "Åį": 4567,
      "Ġunivers": 4568,
      "1966": 4569,
      "Ġopening": 4570,
      "Ġnorthern": 4571,
      "ca": 4572,
      "arriage": 4573,
      "ati": 4574,
      "Test": 4575,
      "Ġdidn": 4576,
      "ĠFoundation": 4577,
      "Ġisland": 4578,
      "ĠJud": 4579,
      "eed": 4580,
      "esh": 4581,
      "Ġcomment": 4582,
      "ĠEngine": 4583,
      "Ġer": 4584,
      "ĠRh": 4585,
      "Ġincreasing": 4586,
      "Ġlabel": 4587,
      "Ġmap": 4588,
      "Ġquarter": 4589,
      "Ġexcept": 4590,
      "ĠHel": 4591,
      "ampion": 4592,
      "ĠYoung": 4593,
      "Ġwood": 4594,
      "Ġmeaning": 4595,
      "ĠPennsylvania": 4596,
      "Ġsenior": 4597,
      "ds": 4598,
      "ĠPak": 4599,
      "ĠJim": 4600,
      "iring": 4601,
      "ackage": 4602,
      "ĠBre": 4603,
      "Ġbattle": 4604,
      "VID": 4605,
      "Ġprincip": 4606,
      "Ġneeded": 4607,
      "ĠOver": 4608,
      "ĠBritain": 4609,
      "Pr": 4610,
      "Ġcensus": 4611,
      "isf": 4612,
      "ĠLord": 4613,
      "iece": 4614,
      "Ġunc": 4615,
      "56": 4616,
      "ulf": 4617,
      "ips": 4618,
      "Ġpan": 4619,
      "Ġgrowth": 4620,
      "Ġgas": 4621,
      "ĠFig": 4622,
      "Ġtrain": 4623,
      "Ġeditor": 4624,
      "ĠWeb": 4625,
      "View": 4626,
      "Ġ///": 4627,
      "ĠJo": 4628,
      "Ġeffects": 4629,
      "iginal": 4630,
      "Ġmechan": 4631,
      "oken": 4632,
      "Ġtransl": 4633,
      "infty": 4634,
      "Mar": 4635,
      "igen": 4636,
      "Ġhusband": 4637,
      "Ġannual": 4638,
      "oston": 4639,
      "Ġhum": 4640,
      "ĠGreek": 4641,
      "edd": 4642,
      "ĠCivil": 4643,
      "Ġdirectly": 4644,
      "Ġcause": 4645,
      "Ġdesp": 4646,
      "akers": 4647,
      "Ġincome": 4648,
      "Ġdrug": 4649,
      "Ġprogress": 4650,
      "Ġran": 4651,
      "Films": 4652,
      "Ġroom": 4653,
      "Ġadj": 4654,
      "ĠCam": 4655,
      "gl": 4656,
      "enge": 4657,
      "Ġmurder": 4658,
      "ocks": 4659,
      "One": 4660,
      "Ġcalc": 4661,
      "exp": 4662,
      "Ġprevent": 4663,
      "ĠAsia": 4664,
      "emporary": 4665,
      "vement": 4666,
      "aine": 4667,
      "ols": 4668,
      "Delta": 4669,
      "illed": 4670,
      "Ġminutes": 4671,
      "ĠLin": 4672,
      "sq": 4673,
      "ĠValley": 4674,
      "ĠHot": 4675,
      "ĠRegister": 4676,
      "Ġmagazine": 4677,
      "Ġmach": 4678,
      "Person": 4679,
      "orem": 4680,
      "ĠLong": 4681,
      "Ġindividuals": 4682,
      "Ġdouble": 4683,
      "Ġ$(": 4684,
      "inners": 4685,
      "Ġfailed": 4686,
      "Ġstories": 4687,
      "agn": 4688,
      "Comm": 4689,
      "Ġstudied": 4690,
      "ĠUk": 4691,
      "=\"+": 4692,
      "ĠRo": 4693,
      "Ġdefeated": 4694,
      "ĠDemocratic": 4695,
      "izes": 4696,
      "\":": 4697,
      "Ġstructures": 4698,
      "mond": 4699,
      "Ġmiddle": 4700,
      "Ġoperation": 4701,
      "Ġbasis": 4702,
      "Ġowned": 4703,
      "Time": 4704,
      "ĠJewish": 4705,
      "());": 4706,
      "Ġoverall": 4707,
      "Ġcounty": 4708,
      "ĠGen": 4709,
      "arden": 4710,
      "ĠFred": 4711,
      "een": 4712,
      "TR": 4713,
      "Ġmatches": 4714,
      "Ġinstr": 4715,
      "kins": 4716,
      "ĠCross": 4717,
      "No": 4718,
      "awa": 4719,
      "Ġquant": 4720,
      "Ġcheck": 4721,
      "ĠTeam": 4722,
      "ĠTer": 4723,
      "Ġbecoming": 4724,
      "ĠCr": 4725,
      "ĠOx": 4726,
      "ĠSar": 4727,
      "Ġarrest": 4728,
      "ĠBattle": 4729,
      "Ðµ": 4730,
      "ims": 4731,
      "Ð¸": 4732,
      "Ġarmy": 4733,
      "Ġuser": 4734,
      "Ġroute": 4735,
      "ĠDev": 4736,
      "ĠWhat": 4737,
      "ĠSouthern": 4738,
      "ymbol": 4739,
      "Ġlaws": 4740,
      "\"></": 4741,
      "Ġlevels": 4742,
      "enty": 4743,
      "ĠIslam": 4744,
      "Ġeth": 4745,
      "obile": 4746,
      "Ġrule": 4747,
      "yt": 4748,
      "ĉĉĉĉĉ": 4749,
      "Ġdoing": 4750,
      "gr": 4751,
      "unior": 4752,
      "Ã§": 4753,
      "isher": 4754,
      "Ġsearch": 4755,
      "comm": 4756,
      "Ġnumbers": 4757,
      "Ġvote": 4758,
      "59": 4759,
      "ulty": 4760,
      "ums": 4761,
      "etts": 4762,
      "Ġuniversity": 4763,
      "Ġ/>": 4764,
      "omy": 4765,
      "ĠIII": 4766,
      "ĠPlay": 4767,
      "Ġmatter": 4768,
      "Ed": 4769,
      "51": 4770,
      "ĠGal": 4771,
      "ĠAdd": 4772,
      "Add": 4773,
      "Ġstarting": 4774,
      "Ġpsych": 4775,
      "background": 4776,
      "iography": 4777,
      "igation": 4778,
      "Ġappears": 4779,
      "Ġalleg": 4780,
      "Ġsched": 4781,
      "perty": 4782,
      "ennis": 4783,
      "Ġrecords": 4784,
      "ĠSund": 4785,
      "Ġcontact": 4786,
      "Ġnation": 4787,
      "apter": 4788,
      "Ġrespectively": 4789,
      "Ġnearly": 4790,
      "war": 4791,
      "ĠStep": 4792,
      "52": 4793,
      "fit": 4794,
      "Build": 4795,
      "\\,": 4796,
      "chi": 4797,
      "ĠTime": 4798,
      ".</": 4799,
      "1963": 4800,
      "Ġsaying": 4801,
      "wise": 4802,
      "ĠVer": 4803,
      "bo": 4804,
      "Ġfriends": 4805,
      "edom": 4806,
      "Ġolder": 4807,
      "');": 4808,
      "osoph": 4809,
      "ĠCamb": 4810,
      "inois": 4811,
      "erem": 4812,
      "Ġheart": 4813,
      "Ġdepartment": 4814,
      "ĠCarl": 4815,
      "State": 4816,
      "Ġplans": 4817,
      "abled": 4818,
      "UT": 4819,
      "gypt": 4820,
      "icted": 4821,
      "Ġhelped": 4822,
      "Ġnumerous": 4823,
      "Ġcrick": 4824,
      "Ġunion": 4825,
      "Ġassert": 4826,
      "inem": 4827,
      "stance": 4828,
      "ellig": 4829,
      "1962": 4830,
      "UR": 4831,
      "ĠTest": 4832,
      "Rep": 4833,
      "ĠUnder": 4834,
      "Ġdrama": 4835,
      "}[": 4836,
      "Ġcondition": 4837,
      "escription": 4838,
      "Ġbus": 4839,
      "Ġneeds": 4840,
      "Ġrisk": 4841,
      "Error": 4842,
      "SP": 4843,
      "Ġworkers": 4844,
      "Ġelections": 4845,
      "Ġorganizations": 4846,
      "Ġautom": 4847,
      "Ġshoot": 4848,
      "Ġexpect": 4849,
      "53": 4850,
      "Ġsens": 4851,
      "stein": 4852,
      "Ġsources": 4853,
      "Ġmethods": 4854,
      "Ġerr": 4855,
      "aters": 4856,
      "Ġcoming": 4857,
      "ima": 4858,
      "Ġtreatment": 4859,
      "sup": 4860,
      "Ġentered": 4861,
      "Ġraised": 4862,
      "Ġforms": 4863,
      "1944": 4864,
      "alle": 4865,
      "Ġprojects": 4866,
      "['": 4867,
      "Ġsingles": 4868,
      "Ġcentre": 4869,
      "ĠBas": 4870,
      "ias": 4871,
      "gorith": 4872,
      "MA": 4873,
      "adel": 4874,
      "ĠLibrary": 4875,
      "Ġbrand": 4876,
      "Ġforced": 4877,
      "06": 4878,
      "Ġhospital": 4879,
      "vey": 4880,
      "tilde": 4881,
      "ĠRel": 4882,
      "Ġrecently": 4883,
      "Ġtypes": 4884,
      "fort": 4885,
      "ĠMiddle": 4886,
      "Ġrules": 4887,
      "ĠMatt": 4888,
      "Ġleave": 4889,
      "Ġappearance": 4890,
      "ĠAsian": 4891,
      "ĠMat": 4892,
      "Ġprec": 4893,
      "apers": 4894,
      "ĠJersey": 4895,
      "ĠOhio": 4896,
      "isters": 4897,
      "win": 4898,
      "ĠSecretary": 4899,
      "Ġobtained": 4900,
      "Other": 4901,
      "ounds": 4902,
      "ordin": 4903,
      "ba": 4904,
      "ĠBob": 4905,
      "bury": 4906,
      "IP": 4907,
      "achus": 4908,
      "ĠJohnson": 4909,
      "pret": 4910,
      "imens": 4911,
      "Ġvictory": 4912,
      "ĠTro": 4913,
      "|\\": 4914,
      "lean": 4915,
      "Ġcelebr": 4916,
      "ĠMichigan": 4917,
      "Ġsusp": 4918,
      "Ġparties": 4919,
      "Ġbad": 4920,
      "ador": 4921,
      "54": 4922,
      "Ġpick": 4923,
      "NA": 4924,
      "ĠPacific": 4925,
      "tab": 4926,
      "Ġofficers": 4927,
      "gu": 4928,
      "version": 4929,
      "undred": 4930,
      "1961": 4931,
      "ributed": 4932,
      "named": 4933,
      "Ġphysical": 4934,
      "ancy": 4935,
      "Ġnuc": 4936,
      "Ġchem": 4937,
      "iga": 4938,
      "ĠConference": 4939,
      "You": 4940,
      "Ġleaders": 4941,
      "Ġstars": 4942,
      "ronic": 4943,
      "ĠTim": 4944,
      "nam": 4945,
      "Ġhistorical": 4946,
      "Ġdead": 4947,
      "ĠAtt": 4948,
      "Ġrat": 4949,
      "Ġcompared": 4950,
      "osing": 4951,
      "miss": 4952,
      "ĠThen": 4953,
      "ildren": 4954,
      "ko": 4955,
      "Ġquality": 4956,
      "Ġsense": 4957,
      "ĠConn": 4958,
      "Ġseem": 4959,
      "Ġlearning": 4960,
      "rich": 4961,
      "Ġinfluence": 4962,
      "ĠJones": 4963,
      "Ġcolon": 4964,
      "ira": 4965,
      "ĠDevelopment": 4966,
      "ĠBase": 4967,
      "ternet": 4968,
      "aria": 4969,
      "Ġinput": 4970,
      "};": 4971,
      "hand": 4972,
      "dt": 4973,
      "ĠWilliams": 4974,
      "Ġsea": 4975,
      "300": 4976,
      "burgh": 4977,
      "Ġpartn": 4978,
      "Ġbatt": 4979,
      "Ġmostly": 4980,
      "ĠTri": 4981,
      "ĠMen": 4982,
      "ograp": 4983,
      "ĠProgram": 4984,
      "Ġhttps": 4985,
      "Ġprobably": 4986,
      "riz": 4987,
      "Ġâ": 4988,
      "Ġresponsible": 4989,
      "Ġcities": 4990,
      "Ġfinally": 4991,
      "Ġturned": 4992,
      "ĠScotland": 4993,
      "Ġdirection": 4994,
      "Ġvariety": 4995,
      "Ġpoor": 4996,
      "ĠGood": 4997,
      "Ġthing": 4998,
      "!--": 4999,
      "Ġtherefore": 5000,
      "ĠJul": 5001,
      "Ġinstance": 5002,
      "Ġletter": 5003,
      "print": 5004,
      "Ġmaster": 5005,
      "CT": 5006,
      "ĠDet": 5007,
      "eqn": 5008,
      "Aust": 5009,
      "vest": 5010,
      "Ġnine": 5011,
      "achusetts": 5012,
      "ĠFrancisco": 5013,
      "espite": 5014,
      "ĠStr": 5015,
      "Ġchalleng": 5016,
      "03": 5017,
      "resh": 5018,
      "opy": 5019,
      "ĠKent": 5020,
      "Ġlay": 5021,
      "ĠQueen": 5022,
      "ĠBul": 5023,
      "1942": 5024,
      "Ġult": 5025,
      "ĠEdward": 5026,
      "Ġbelieve": 5027,
      "Ġknowledge": 5028,
      "'re": 5029,
      "Ġserve": 5030,
      "Ġwalk": 5031,
      "ĠIllinois": 5032,
      "eline": 5033,
      "Ġconflict": 5034,
      "Ġcolumn": 5035,
      "urban": 5036,
      "Ġfoot": 5037,
      "ĠLem": 5038,
      "elled": 5039,
      "uan": 5040,
      "CH": 5041,
      "ĠMah": 5042,
      "itter": 5043,
      "abeth": 5044,
      "ulate": 5045,
      "capt": 5046,
      "Ġfamous": 5047,
      "Ġinitially": 5048,
      "ja": 5049,
      "Ġstop": 5050,
      "Ġstreng": 5051,
      "ĠWal": 5052,
      "Ġdomin": 5053,
      "rics": 5054,
      "Ġrecover": 5055,
      "._": 5056,
      "ĠGeorgia": 5057,
      "Ġmix": 5058,
      "do": 5059,
      "icine": 5060,
      "ĠCOVID": 5061,
      "mas": 5062,
      "09": 5063,
      "Serv": 5064,
      "non": 5065,
      "aka": 5066,
      "Up": 5067,
      "quot": 5068,
      "draw": 5069,
      "ening": 5070,
      "Ġcultural": 5071,
      "Ġforest": 5072,
      "Ġdat": 5073,
      "Ġagreement": 5074,
      "ĠBoston": 5075,
      "poration": 5076,
      "which": 5077,
      "Ġmind": 5078,
      "Ġtal": 5079,
      "Ġclaimed": 5080,
      "Ġdensity": 5081,
      "ĠCE": 5082,
      "ĠJes": 5083,
      "Ġprofessor": 5084,
      "ĠField": 5085,
      "ĠCentre": 5086,
      "Ġmoment": 5087,
      "Ġserving": 5088,
      "Ġreferred": 5089,
      "grad": 5090,
      "Ġcarry": 5091,
      "1948": 5092,
      "Ġattention": 5093,
      "ĠSenate": 5094,
      "ears": 5095,
      "ĠPo": 5096,
      "ĠRadio": 5097,
      "UN": 5098,
      "Ġsn": 5099,
      "1956": 5100,
      "Ġbrief": 5101,
      "ĠOk": 5102,
      "Ġdedic": 5103,
      "Ġability": 5104,
      "Ġactors": 5105,
      "aya": 5106,
      "Ġseparate": 5107,
      "ĠEarth": 5108,
      "iders": 5109,
      "Ġoil": 5110,
      "Ġnormal": 5111,
      "1958": 5112,
      "ĠTop": 5113,
      "cdot": 5114,
      "Ġelectric": 5115,
      "1959": 5116,
      "ĠPrem": 5117,
      "iy": 5118,
      "Ġdespite": 5119,
      "Ġapplication": 5120,
      "76": 5121,
      "Reg": 5122,
      "Ġpoliticians": 5123,
      "ried": 5124,
      "Ġnecessary": 5125,
      "Ġlimit": 5126,
      "Ġefforts": 5127,
      "ework": 5128,
      "Ġlatter": 5129,
      "jo": 5130,
      "orning": 5131,
      "Ġfunctions": 5132,
      "ĠDutch": 5133,
      "inent": 5134,
      "1939": 5135,
      "Ġcarried": 5136,
      "ĠPhilipp": 5137,
      "Ġcritical": 5138,
      "ped": 5139,
      "onic": 5140,
      "Ġsquad": 5141,
      "ĠGovernor": 5142,
      "ĠTre": 5143,
      "bt": 5144,
      "ĠLuc": 5145,
      "Ġexc": 5146,
      "inger": 5147,
      "Ġseat": 5148,
      "Ġspeed": 5149,
      "Ġarrang": 5150,
      "Ġinside": 5151,
      "Ġpil": 5152,
      "gs": 5153,
      "Ġcouncil": 5154,
      "arters": 5155,
      "Ġbass": 5156,
      "National": 5157,
      "Ġbecomes": 5158,
      "fect": 5159,
      "Ġremaining": 5160,
      "Ġprotect": 5161,
      "rison": 5162,
      "ĠFe": 5163,
      "ĠPoland": 5164,
      "ĠLine": 5165,
      "Ġoffered": 5166,
      "fficient": 5167,
      "400": 5168,
      "Ġdark": 5169,
      "Ġfootballer": 5170,
      "Om": 5171,
      "ĠPortug": 5172,
      "bm": 5173,
      "uries": 5174,
      "Ġbelieved": 5175,
      "Ġadministration": 5176,
      "riev": 5177,
      "Ġunique": 5178,
      "stitution": 5179,
      "']": 5180,
      "ĠBow": 5181,
      "oting": 5182,
      "SE": 5183,
      "AF": 5184,
      "ogue": 5185,
      "02": 5186,
      "iform": 5187,
      "1941": 5188,
      "length": 5189,
      "../../../../": 5190,
      "ĠLab": 5191,
      "ila": 5192,
      "Text": 5193,
      "Ġdistance": 5194,
      "Pop": 5195,
      "mann": 5196,
      "ĠElect": 5197,
      "Ġrac": 5198,
      "Ġbillion": 5199,
      "Exp": 5200,
      "Ġmuseum": 5201,
      "####": 5202,
      "Ġsimple": 5203,
      "According": 5204,
      "ĠEgypt": 5205,
      "1943": 5206,
      "04": 5207,
      "ĠEastern": 5208,
      "Ġsister": 5209,
      "Ġproperties": 5210,
      "Ġarm": 5211,
      "Ġwestern": 5212,
      "1957": 5213,
      "iÄĩ": 5214,
      "Brit": 5215,
      "Ġdiss": 5216,
      "ĠHung": 5217,
      "Ġactivity": 5218,
      "under": 5219,
      "Ġconstant": 5220,
      "ĠMassachusetts": 5221,
      "Ġspread": 5222,
      "ĠTheatre": 5223,
      "ĠJr": 5224,
      "Ġrow": 5225,
      "Ġdemonstr": 5226,
      "ĠRepresent": 5227,
      "itage": 5228,
      "ĠTheir": 5229,
      "istance": 5230,
      "Don": 5231,
      "ĠWind": 5232,
      "Ġpurs": 5233,
      "Ġleaving": 5234,
      "ĠKong": 5235,
      "What": 5236,
      "hing": 5237,
      "oration": 5238,
      "Out": 5239,
      "Ġretired": 5240,
      "Ġfirm": 5241,
      "ĠSand": 5242,
      "ĠCoast": 5243,
      "plies": 5244,
      "Ġships": 5245,
      "va": 5246,
      "ĠÂ£": 5247,
      "Ġ-->": 5248,
      "Ġlab": 5249,
      "ĠAlb": 5250,
      "Ġsimply": 5251,
      "ĠEconom": 5252,
      "Ġhop": 5253,
      "Ġpeak": 5254,
      "Back": 5255,
      "Bar": 5256,
      "formed": 5257,
      "Ġ?": 5258,
      "Dec": 5259,
      "estic": 5260,
      "ĠUr": 5261,
      "itude": 5262,
      "85": 5263,
      "Ġheavy": 5264,
      "Car": 5265,
      "amm": 5266,
      "can": 5267,
      "ĠOtt": 5268,
      "Ġenj": 5269,
      "ĠFinal": 5270,
      "}}\\": 5271,
      "yer": 5272,
      "Ġneighbor": 5273,
      "Ġfle": 5274,
      "Ġhighly": 5275,
      "ĠJac": 5276,
      "Ġexecutive": 5277,
      "Ġice": 5278,
      "ĠHuman": 5279,
      "File": 5280,
      "1946": 5281,
      "icture": 5282,
      "Ġeffective": 5283,
      "Ġgives": 5284,
      "actions": 5285,
      "Ġcounter": 5286,
      "ĠJustice": 5287,
      "Ġfavor": 5288,
      "Ġregional": 5289,
      "ĠLatin": 5290,
      "summary": 5291,
      "enant": 5292,
      "Ġwrite": 5293,
      "ilton": 5294,
      "ĠUnivers": 5295,
      "Ġissued": 5296,
      "ouri": 5297,
      "ecause": 5298,
      "orney": 5299,
      "but": 5300,
      "ĠPre": 5301,
      "Att": 5302,
      "ĠAz": 5303,
      "ĠMov": 5304,
      "Ġiniti": 5305,
      "IG": 5306,
      "Ġcomedy": 5307,
      "uate": 5308,
      "ĠMax": 5309,
      "Ġstream": 5310,
      "Ġrecording": 5311,
      "max": 5312,
      "ĠCharl": 5313,
      "Ġgenus": 5314,
      "yth": 5315,
      "ĠFC": 5316,
      ")$.": 5317,
      "Ġearned": 5318,
      "ela": 5319,
      "ici": 5320,
      "Ġnative": 5321,
      "Ġscen": 5322,
      "86": 5323,
      "Ġrestrict": 5324,
      "Ġextended": 5325,
      "Ġconcert": 5326,
      "ĠColumbia": 5327,
      "ĠRam": 5328,
      "cean": 5329,
      "raphics": 5330,
      "ĠShow": 5331,
      "Ġcontain": 5332,
      "ĠMany": 5333,
      "à¤": 5334,
      "Ġrecomm": 5335,
      "anguages": 5336,
      "ĠTem": 5337,
      "uster": 5338,
      "icks": 5339,
      "Sports": 5340,
      "Ġelev": 5341,
      "Ġsituation": 5342,
      "Ġthr": 5343,
      "Ġorigin": 5344,
      "Ġweight": 5345,
      "Ġrepe": 5346,
      "greg": 5347,
      "pass": 5348,
      "ĠOxford": 5349,
      "Ġchannel": 5350,
      "ĠBet": 5351,
      "Ġtim": 5352,
      "Ġoperated": 5353,
      "Ġreach": 5354,
      "ĠGet": 5355,
      "ĠMid": 5356,
      "Ġserious": 5357,
      "ĠPrince": 5358,
      "Ġhar": 5359,
      "ĠStan": 5360,
      "AB": 5361,
      "1947": 5362,
      "1955": 5363,
      "1952": 5364,
      "active": 5365,
      "iled": 5366,
      "Ġexperiment": 5367,
      "Ġcandidate": 5368,
      "Ġscene": 5369,
      "93": 5370,
      "Ġcharge": 5371,
      "Ġmarriage": 5372,
      "Ġdemand": 5373,
      "ĠWay": 5374,
      "IR": 5375,
      "Ġresidents": 5376,
      "Ġdisease": 5377,
      "Ġresources": 5378,
      "ĠProject": 5379,
      "Ġsmaller": 5380,
      "ĠRailway": 5381,
      "user": 5382,
      "textbf": 5383,
      "ĠEll": 5384,
      "92": 5385,
      "Ġvisit": 5386,
      "ĠUN": 5387,
      "struction": 5388,
      "ĠSupreme": 5389,
      "sen": 5390,
      "ML": 5391,
      "onto": 5392,
      "oute": 5393,
      "Inter": 5394,
      "ĠBusiness": 5395,
      "ĠEnter": 5396,
      "Ġ...": 5397,
      "Ġvoice": 5398,
      "Ġsal": 5399,
      "Ġmessage": 5400,
      "Ġsyn": 5401,
      "ulpt": 5402,
      "Ġcomputer": 5403,
      "Ġreference": 5404,
      "First": 5405,
      "host": 5406,
      "Ġclubs": 5407,
      "/*": 5408,
      "Ġregister": 5409,
      "ĠWater": 5410,
      "ĠGar": 5411,
      "Ġways": 5412,
      "rance": 5413,
      "Request": 5414,
      "Ġhttp": 5415,
      "Co": 5416,
      "epsilon": 5417,
      "........": 5418,
      "ĠWall": 5419,
      "Ġpeace": 5420,
      "ĠKorea": 5421,
      "ĠMuslim": 5422,
      "bra": 5423,
      "occer": 5424,
      "Ġproduce": 5425,
      "ĠBC": 5426,
      "irmed": 5427,
      "Ġfigure": 5428,
      "content": 5429,
      "ĠHead": 5430,
      "SC": 5431,
      "Ġsoftware": 5432,
      ":#": 5433,
      "itness": 5434,
      "phy": 5435,
      "Ġillust": 5436,
      "Ġquickly": 5437,
      "IV": 5438,
      "Ã±": 5439,
      "Ġcorn": 5440,
      "ĠTrump": 5441,
      "Ġcard": 5442,
      "Ġyouth": 5443,
      "mir": 5444,
      "ibly": 5445,
      "ĠSpecial": 5446,
      "Ġmerg": 5447,
      "Form": 5448,
      "Sec": 5449,
      "Ġpersonnel": 5450,
      "ĠBlue": 5451,
      "Ġclimate": 5452,
      "ING": 5453,
      "}_{\\": 5454,
      "irus": 5455,
      "Ġconsists": 5456,
      "ĠVan": 5457,
      "72": 5458,
      "Ġcitizens": 5459,
      "Ġcompl": 5460,
      "Ġdraft": 5461,
      "ĠBang": 5462,
      "uated": 5463,
      "antry": 5464,
      "Ġhol": 5465,
      "andom": 5466,
      "ĠAff": 5467,
      "ĠSea": 5468,
      "ĠBern": 5469,
      "ydro": 5470,
      "usion": 5471,
      "run": 5472,
      "Ġmoving": 5473,
      "har": 5474,
      "Ġdoesn": 5475,
      "ĠFederal": 5476,
      "rolled": 5477,
      "1954": 5478,
      "Ġcapacity": 5479,
      "ĠEnd": 5480,
      "ĠHome": 5481,
      "ĠJackson": 5482,
      "Be": 5483,
      "come": 5484,
      "Ġvirt": 5485,
      "ĠGra": 5486,
      "Ġbal": 5487,
      "ĠScottish": 5488,
      "Ġdepend": 5489,
      "found": 5490,
      "(),": 5491,
      "Ġstra": 5492,
      "Char": 5493,
      "uct": 5494,
      "chen": 5495,
      "ĠOb": 5496,
      "Ġstatement": 5497,
      "ibli": 5498,
      "orporated": 5499,
      "rum": 5500,
      "Ġunderstand": 5501,
      "ĠKe": 5502,
      "Ġupper": 5503,
      "raq": 5504,
      "Ġindex": 5505,
      "ĠPolice": 5506,
      "onym": 5507,
      "Ð½": 5508,
      "1953": 5509,
      "Ġtrial": 5510,
      "Ġir": 5511,
      "Ġimmediately": 5512,
      "Ġextra": 5513,
      "Ġgreen": 5514,
      "oned": 5515,
      "Ġencour": 5516,
      "Ġpurpose": 5517,
      "Ġdigital": 5518,
      "Ġstore": 5519,
      "las": 5520,
      "ĠMu": 5521,
      "phia": 5522,
      "caption": 5523,
      "ologist": 5524,
      "Å¡": 5525,
      "Ġphase": 5526,
      "Of": 5527,
      "ĠMajor": 5528,
      "Ġreceive": 5529,
      "Ġpattern": 5530,
      "izabeth": 5531,
      "Ġprep": 5532,
      "Ġfort": 5533,
      "United": 5534,
      "anche": 5535,
      "ĠBerlin": 5536,
      "Further": 5537,
      "1949": 5538,
      "names": 5539,
      "Ġfields": 5540,
      "Ġawards": 5541,
      "Ġofficials": 5542,
      "Ġexact": 5543,
      "ucky": 5544,
      "Ġgiving": 5545,
      "ĠHospital": 5546,
      "ĠLu": 5547,
      "$$": 5548,
      "Ġwor": 5549,
      "British": 5550,
      "wer": 5551,
      "real": 5552,
      "Ġtroops": 5553,
      "Ġinternal": 5554,
      "ĠHa": 5555,
      "Ġconfig": 5556,
      "ependence": 5557,
      "Ġweap": 5558,
      "87": 5559,
      "wa": 5560,
      "teen": 5561,
      "Ġallows": 5562,
      "ĠKenn": 5563,
      "onia": 5564,
      "91": 5565,
      "Ġpresence": 5566,
      "weight": 5567,
      "Ġdepart": 5568,
      "94": 5569,
      "ramework": 5570,
      "ĠBroad": 5571,
      "Ġmarg": 5572,
      "ĠIS": 5573,
      "Ġconclud": 5574,
      "Ġthous": 5575,
      "Ġsets": 5576,
      "Ġvert": 5577,
      "Ġhapp": 5578,
      "ĉĊ": 5579,
      "rovers": 5580,
      "Ġtrying": 5581,
      "ova": 5582,
      "Ġsatisf": 5583,
      "ĠRem": 5584,
      "maz": 5585,
      "Ġuns": 5586,
      "':": 5587,
      "AG": 5588,
      "Year": 5589,
      "Ġliterature": 5590,
      "ishes": 5591,
      "Ġchart": 5592,
      "Sub": 5593,
      "Ġcompar": 5594,
      "Ġtrib": 5595,
      "Ġhockey": 5596,
      "erb": 5597,
      "Ġenter": 5598,
      "adelphia": 5599,
      "Ġscale": 5600,
      "Ġcovered": 5601,
      "ĠLittle": 5602,
      "MP": 5603,
      "Ġdiscovered": 5604,
      "ĠJean": 5605,
      "press": 5606,
      "Omega": 5607,
      "Ġbit": 5608,
      "Ġformat": 5609,
      "ride": 5610,
      "Ġfelt": 5611,
      "Ġacademic": 5612,
      "ĠCard": 5613,
      "ĠAndrew": 5614,
      "ipment": 5615,
      "clusion": 5616,
      "ĠPlaces": 5617,
      "ĠHong": 5618,
      "Ġfast": 5619,
      "Ġacquired": 5620,
      "rag": 5621,
      "Ġmainly": 5622,
      "Group": 5623,
      "Ġhundred": 5624,
      "Ġexisting": 5625,
      "Ġsubsequently": 5626,
      "ĠProfessor": 5627,
      "ancing": 5628,
      "Ġmanaged": 5629,
      "Ġhouses": 5630,
      "Ġago": 5631,
      "Ġblood": 5632,
      "oir": 5633,
      "ĠNow": 5634,
      "Ġleadership": 5635,
      "nce": 5636,
      "ĠWild": 5637,
      "Ġdetails": 5638,
      "gn": 5639,
      "ĠLet": 5640,
      "ez": 5641,
      "ĠReview": 5642,
      "Ġcouple": 5643,
      "achel": 5644,
      "Ġsucceed": 5645,
      "Ġquite": 5646,
      "aylor": 5647,
      "orter": 5648,
      "ĠCorps": 5649,
      "Ġgetting": 5650,
      "Ġfully": 5651,
      "ĠNight": 5652,
      "ĠBrook": 5653,
      "Ġsolution": 5654,
      "63": 5655,
      "orship": 5656,
      "vare": 5657,
      "ĠBal": 5658,
      "emet": 5659,
      "orage": 5660,
      "Ġavoid": 5661,
      "Ġlooking": 5662,
      "oday": 5663,
      "Members": 5664,
      "1951": 5665,
      "ĠUs": 5666,
      "Ġlif": 5667,
      "Ġstrugg": 5668,
      "Ġgreater": 5669,
      "ĠEp": 5670,
      "subsection": 5671,
      "TE": 5672,
      "ĠPolish": 5673,
      "ieut": 5674,
      "ructure": 5675,
      "Ġpressure": 5676,
      "thur": 5677,
      "una": 5678,
      "Ġpatients": 5679,
      "using": 5680,
      "node": 5681,
      "ĠKen": 5682,
      "ocation": 5683,
      "ĠBelg": 5684,
      "ĠPop": 5685,
      "61": 5686,
      "rown": 5687,
      "Big": 5688,
      "ione": 5689,
      "Sw": 5690,
      "Ġdefault": 5691,
      "ĠForm": 5692,
      "ĠMot": 5693,
      "Art": 5694,
      "Ġtracks": 5695,
      "Ġremoved": 5696,
      "ĠHor": 5697,
      "ĠJeff": 5698,
      "ederation": 5699,
      "Ġconducted": 5700,
      "Ġproviding": 5701,
      "Writ": 5702,
      "Ġsexual": 5703,
      "Ġseek": 5704,
      "OC": 5705,
      "Event": 5706,
      "illy": 5707,
      "rence": 5708,
      "psilon": 5709,
      "Ġjoin": 5710,
      "uts": 5711,
      "Ġapplied": 5712,
      "ĠFar": 5713,
      "map": 5714,
      "1918": 5715,
      "Ġseems": 5716,
      "gment": 5717,
      "olean": 5718,
      "ĠJoe": 5719,
      "ĠStation": 5720,
      "ansion": 5721,
      "cles": 5722,
      "Ab": 5723,
      "nic": 5724,
      "Ġsomeone": 5725,
      "App": 5726,
      "Ġcomposed": 5727,
      "Ġansw": 5728,
      "ĠInf": 5729,
      "Ġexpress": 5730,
      "ydney": 5731,
      "ĠColor": 5732,
      "Ġsure": 5733,
      "ĠUSA": 5734,
      "Ġheight": 5735,
      "Ġoutput": 5736,
      "ĠTechnology": 5737,
      "orough": 5738,
      "62": 5739,
      "enger": 5740,
      "Ġentry": 5741,
      "ĠCommon": 5742,
      "ersion": 5743,
      "ĠPres": 5744,
      "innes": 5745,
      "Ġenjoy": 5746,
      "hemat": 5747,
      "ĠViet": 5748,
      "acter": 5749,
      "Ġvalid": 5750,
      "ĠAlexander": 5751,
      "ĠCreek": 5752,
      "word": 5753,
      "aling": 5754,
      "IL": 5755,
      "Ġhonor": 5756,
      "Ġdisp": 5757,
      "Ġarchitecture": 5758,
      "ĠGame": 5759,
      "ective": 5760,
      "Ġfair": 5761,
      "Ġarrived": 5762,
      "Ġholds": 5763,
      "Ġwatch": 5764,
      "Ġestimated": 5765,
      "ĠNetwork": 5766,
      "olved": 5767,
      "Ġmunicipality": 5768,
      "1936": 5769,
      "cho": 5770,
      "eller": 5771,
      "Ġjoint": 5772,
      "Ġinstitutions": 5773,
      "ĠRay": 5774,
      "ĠAut": 5775,
      "Ġsport": 5776,
      "Ġlat": 5777,
      "stream": 5778,
      "ĠPrime": 5779,
      "Ġancient": 5780,
      "ÑĢ": 5781,
      "ĠDaniel": 5782,
      "HE": 5783,
      "Ġpartner": 5784,
      "Ġwinner": 5785,
      "Let": 5786,
      "Ġreports": 5787,
      "Sup": 5788,
      "Ġrecon": 5789,
      "elligence": 5790,
      "Ġeastern": 5791,
      "pace": 5792,
      "gt": 5793,
      "Ġsites": 5794,
      "Ġbridge": 5795,
      "Ġpoll": 5796,
      "Ġrespond": 5797,
      "Ġbaseball": 5798,
      "Ġpaid": 5799,
      "``": 5800,
      "ĠOlympic": 5801,
      "sqrt": 5802,
      "ĠFour": 5803,
      "uilding": 5804,
      "Ġliber": 5805,
      "Path": 5806,
      "stone": 5807,
      "Ġsuggest": 5808,
      "Ġrevealed": 5809,
      "CL": 5810,
      "rix": 5811,
      "=\"#": 5812,
      "Ġoffers": 5813,
      "Ġsoldiers": 5814,
      "Med": 5815,
      "Ġfell": 5816,
      "foot": 5817,
      "yes": 5818,
      "Ġ);": 5819,
      "ĠPakistan": 5820,
      "Ġsumm": 5821,
      "innesota": 5822,
      "osen": 5823,
      "Ġobserved": 5824,
      "Ġpolic": 5825,
      "Ġpair": 5826,
      "ntario": 5827,
      "ricts": 5828,
      "spec": 5829,
      "ker": 5830,
      "Ġdescent": 5831,
      "Ġcompeted": 5832,
      "Ġsales": 5833,
      "ĠGirl": 5834,
      "Node": 5835,
      "Ġtouch": 5836,
      "ĠColl": 5837,
      "Ġcancer": 5838,
      "ĠCommunity": 5839,
      "bass": 5840,
      "Ġgoes": 5841,
      "ĠÅ": 5842,
      "Ġbomb": 5843,
      "Ġclaims": 5844,
      "ais": 5845,
      "Ġnewspaper": 5846,
      "Ġcam": 5847,
      "Ġvan": 5848,
      "Ġmentioned": 5849,
      "igration": 5850,
      "Ġmill": 5851,
      "Ġsetting": 5852,
      "ĠAmericans": 5853,
      "Ġsurvey": 5854,
      "place": 5855,
      "IA": 5856,
      "urance": 5857,
      "Ġeconomy": 5858,
      "ĠBir": 5859,
      "89": 5860,
      "Ġhy": 5861,
      "Ġgrowing": 5862,
      "Ġsquare": 5863,
      "Ġequal": 5864,
      "Equ": 5865,
      "ĠVictoria": 5866,
      "Ġappearances": 5867,
      "asy": 5868,
      "Fl": 5869,
      "long": 5870,
      "ĠNations": 5871,
      "Ġvon": 5872,
      "psi": 5873,
      "Ġcrim": 5874,
      "inson": 5875,
      "ĠDar": 5876,
      "fe": 5877,
      "Ġcopy": 5878,
      "1938": 5879,
      "Count": 5880,
      "Ġtask": 5881,
      "ooth": 5882,
      "Ġpolitics": 5883,
      "Ġsafety": 5884,
      "true": 5885,
      "Ġminister": 5886,
      "Ġetc": 5887,
      "lers": 5888,
      "ighter": 5889,
      "erved": 5890,
      "Info": 5891,
      "ĠArgent": 5892,
      "Ġtradition": 5893,
      "Ġgrew": 5894,
      "writer": 5895,
      "Map": 5896,
      "Field": 5897,
      "zech": 5898,
      "api": 5899,
      "Ġconstructed": 5900,
      "Ġcat": 5901,
      "ĠLater": 5902,
      ")(": 5903,
      "ennes": 5904,
      "atures": 5905,
      "Ġpropos": 5906,
      "Ġdedicated": 5907,
      ")$,": 5908,
      "PS": 5909,
      "ĠAk": 5910,
      "Ġagreed": 5911,
      "Ġspirit": 5912,
      "Ġexecut": 5913,
      "ervative": 5914,
      "Ġarray": 5915,
      "amples": 5916,
      "ographic": 5917,
      "ĠOrgan": 5918,
      "ĠMinistry": 5919,
      "Ġtrust": 5920,
      "uls": 5921,
      "ĠIN": 5922,
      "Ġidentified": 5923,
      "andemic": 5924,
      "aped": 5925,
      "Ġmicro": 5926,
      "uccess": 5927,
      "Ġintended": 5928,
      "Ġbeaut": 5929,
      "ÅĤ": 5930,
      "German": 5931,
      "ĠCat": 5932,
      "Ġoptions": 5933,
      "usc": 5934,
      "ĠBBC": 5935,
      "ĠCy": 5936,
      "idden": 5937,
      "Ġload": 5938,
      "risis": 5939,
      "Ġowner": 5940,
      "Ġmis": 5941,
      "^*": 5942,
      "ĠRod": 5943,
      "Ġconnection": 5944,
      "Ġfacilities": 5945,
      "Ã¡n": 5946,
      "/**": 5947,
      "Ġattend": 5948,
      "ĠBoy": 5949,
      "Act": 5950,
      "Ġbey": 5951,
      "Ġprimarily": 5952,
      "Ġtree": 5953,
      "Ġathlet": 5954,
      "ĠBoth": 5955,
      "ĠStudies": 5956,
      "Ġeval": 5957,
      "Ġfifth": 5958,
      "ĠPubl": 5959,
      "ĠIraq": 5960,
      "ĠPrize": 5961,
      "Ġpositions": 5962,
      "amber": 5963,
      "yo": 5964,
      "GB": 5965,
      "Ġ($": 5966,
      "82": 5967,
      "udget": 5968,
      "cos": 5969,
      "TS": 5970,
      "'m": 5971,
      "room": 5972,
      "ieutenant": 5973,
      "Ġactions": 5974,
      "Ġprovince": 5975,
      "Ġassistant": 5976,
      "Spec": 5977,
      "Ġpp": 5978,
      "Ġconnected": 5979,
      "title": 5980,
      "ĠAirport": 5981,
      "Ġregions": 5982,
      "Ġfun": 5983,
      "ĠKorean": 5984,
      "ĠGuard": 5985,
      "ĠMedia": 5986,
      "Ġconcent": 5987,
      "eld": 5988,
      "Ġlabor": 5989,
      "Ġinterpret": 5990,
      "Ġpra": 5991,
      "Ġbill": 5992,
      "dr": 5993,
      "const": 5994,
      "Ġepisodes": 5995,
      "Ġpet": 5996,
      "Ġconference": 5997,
      "ĠLi": 5998,
      "Ġjourn": 5999,
      "term": 6000,
      "Em": 6001,
      "ĠIslands": 6002,
      "ĠJon": 6003,
      "Ġalgorith": 6004,
      "Ġera": 6005,
      "ĠTam": 6006,
      "sky": 6007,
      "Ġoperating": 6008,
      "Ġgraduated": 6009,
      "Ġbeyond": 6010,
      "Ġarticles": 6011,
      "odies": 6012,
      "Ġbranch": 6013,
      "ĠSciences": 6014,
      "ĠCorn": 6015,
      "ĠElizabeth": 6016,
      "ĠBi": 6017,
      "Ġdefend": 6018,
      "block": 6019,
      "rical": 6020,
      "Ġunknown": 6021,
      "Ġresulting": 6022,
      "Ġopportunity": 6023,
      "ĠLim": 6024,
      "Ġslow": 6025,
      "Ġrare": 6026,
      "ĠSpe": 6027,
      "Ġcrime": 6028,
      "Ġattract": 6029,
      "1937": 6030,
      "OD": 6031,
      "Ġconvert": 6032,
      "iny": 6033,
      "web": 6034,
      "Ġflow": 6035,
      "iced": 6036,
      "Ġimages": 6037,
      "yles": 6038,
      "Ġalongside": 6039,
      "ÑĤ": 6040,
      "RA": 6041,
      "Ġaspect": 6042,
      "etherlands": 6043,
      "ĠSom": 6044,
      "Since": 6045,
      "Ġpromoted": 6046,
      "Ġordered": 6047,
      "Ġnearby": 6048,
      "emph": 6049,
      "count": 6050,
      "Ġclasses": 6051,
      "law": 6052,
      "aks": 6053,
      "df": 6054,
      "ĠVill": 6055,
      "ĠSports": 6056,
      "includeg": 6057,
      "includegraphics": 6058,
      "Ġreduced": 6059,
      "ĠLew": 6060,
      "Ġpriv": 6061,
      "itzer": 6062,
      "Ġprotected": 6063,
      "Ġproceed": 6064,
      "Track": 6065,
      "Ġaccepted": 6066,
      "Ġharm": 6067,
      "83": 6068,
      "base": 6069,
      "ading": 6070,
      "81": 6071,
      "Ġrural": 6072,
      "Ġscholars": 6073,
      "raine": 6074,
      "config": 6075,
      "University": 6076,
      "related": 6077,
      "Ġnothing": 6078,
      "El": 6079,
      "iec": 6080,
      "ĠCapt": 6081,
      "Index": 6082,
      "84": 6083,
      "ĠRome": 6084,
      "Ġequipment": 6085,
      "ĠToronto": 6086,
      "Ġnode": 6087,
      "iate": 6088,
      "Ġbelong": 6089,
      "Ġtemperature": 6090,
      "ĠAlso": 6091,
      "Ġ/*": 6092,
      "rong": 6093,
      "ji": 6094,
      "Ġcompletely": 6095,
      "ĠOntario": 6096,
      "ĠMcC": 6097,
      "Ġschem": 6098,
      "End": 6099,
      "Part": 6100,
      "iques": 6101,
      "ĠAdminist": 6102,
      "71": 6103,
      "Ġstreet": 6104,
      "())": 6105,
      "Ġinh": 6106,
      "Ġmiles": 6107,
      "rate": 6108,
      "eqnarray": 6109,
      "empl": 6110,
      "ĠCorporation": 6111,
      "ĠPower": 6112,
      "xy": 6113,
      "Ġshowed": 6114,
      "islative": 6115,
      "bi": 6116,
      "ĠOfficial": 6117,
      "73": 6118,
      "abase": 6119,
      "peror": 6120,
      "ĠSydney": 6121,
      "EE": 6122,
      "Ne": 6123,
      "itable": 6124,
      "ĠBab": 6125,
      "74": 6126,
      "Ġselection": 6127,
      "Will": 6128,
      "Ġblue": 6129,
      "Ġcontinues": 6130,
      "Ġwild": 6131,
      "Ġlanguages": 6132,
      "ĠRevolution": 6133,
      "ĠPhiladelphia": 6134,
      "Ġaim": 6135,
      "onsin": 6136,
      "Austral": 6137,
      "acement": 6138,
      "unct": 6139,
      "Ġvs": 6140,
      "Pre": 6141,
      "haps": 6142,
      "athan": 6143,
      "osa": 6144,
      "oat": 6145,
      "ĠMedical": 6146,
      "ifier": 6147,
      "Ġdynam": 6148,
      "isconsin": 6149,
      "Ġcampus": 6150,
      "Ġmixed": 6151,
      "Gamma": 6152,
      "CA": 6153,
      "69": 6154,
      "Ġviolence": 6155,
      "iments": 6156,
      "ĠOp": 6157,
      "unch": 6158,
      "Ġtransferred": 6159,
      "Ġfloor": 6160,
      "Ġple": 6161,
      "Ġfeaturing": 6162,
      "Context": 6163,
      "ĠId": 6164,
      "racy": 6165,
      "Ġalone": 6166,
      "Ġmaximum": 6167,
      "eech": 6168,
      "Ġrob": 6169,
      "Ġreject": 6170,
      "ĠĠĠĠĠĠĠĠĠĠĠĠĠĠĠĠĠĠĠĠĠĠĠĠĠĠĠ": 6171,
      "ĠLy": 6172,
      "ĠOur": 6173,
      "Ġmemory": 6174,
      "Ġhousing": 6175,
      "Ġcombined": 6176,
      "vant": 6177,
      "unte": 6178,
      "otic": 6179,
      "Ġcrew": 6180,
      "Ġcert": 6181,
      "Ġsymbol": 6182,
      "Work": 6183,
      "ronze": 6184,
      "';": 6185,
      "inity": 6186,
      "CD": 6187,
      "Ġplanned": 6188,
      "ĠRegiment": 6189,
      "Ġreform": 6190,
      "varepsilon": 6191,
      "Music": 6192,
      "Ġven": 6193,
      "ĠManagement": 6194,
      "ĠWilson": 6195,
      "anth": 6196,
      "ĠBa": 6197,
      "amin": 6198,
      "Ac": 6199,
      "Ġsupply": 6200,
      "While": 6201,
      "Ġadopted": 6202,
      "Ġdetermined": 6203,
      "ĠAP": 6204,
      "Ġtypically": 6205,
      "init": 6206,
      "ĠEst": 6207,
      "Ġobtain": 6208,
      "Ġsector": 6209,
      "Ġsculpt": 6210,
      "core": 6211,
      "ĠSa": 6212,
      "ĠBatt": 6213,
      "Dem": 6214,
      "ĠLes": 6215,
      "}^{\\": 6216,
      "perial": 6217,
      "ĠSant": 6218,
      "osophy": 6219,
      "akh": 6220,
      "ĠRog": 6221,
      "Ġshared": 6222,
      "input": 6223,
      "Ġcorrect": 6224,
      "ĠAvenue": 6225,
      "ĠSection": 6226,
      "holds": 6227,
      "ĠPen": 6228,
      "ĠPers": 6229,
      "ĠRaj": 6230,
      "arp": 6231,
      "ĠMaster": 6232,
      "Ġadministrative": 6233,
      "aph": 6234,
      "owa": 6235,
      "1935": 6236,
      "Ġproced": 6237,
      "ĠBell": 6238,
      "utt": 6239,
      "Service": 6240,
      "roller": 6241,
      "Ġthrow": 6242,
      "Ġsolid": 6243,
      "ipped": 6244,
      "Ġagric": 6245,
      "osh": 6246,
      "eman": 6247,
      "79": 6248,
      "Ġmetal": 6249,
      "\"|": 6250,
      "Ġinstall": 6251,
      "ashion": 6252,
      "Ġensure": 6253,
      "Ġauth": 6254,
      "claim": 6255,
      "Ġbehavior": 6256,
      "Ġexpatriate": 6257,
      "Ret": 6258,
      "fully": 6259,
      "Ġdifference": 6260,
      "Ġsust": 6261,
      "quarters": 6262,
      "ĠMinnesota": 6263,
      "bec": 6264,
      "ĠArm": 6265,
      "His": 6266,
      "1914": 6267,
      "Polit": 6268,
      "ĠWin": 6269,
      "chestra": 6270,
      "ĠBrig": 6271,
      "Ġaccur": 6272,
      "bourne": 6273,
      "ĠMike": 6274,
      "ocated": 6275,
      "Ġsecret": 6276,
      "ĠBand": 6277,
      "Ñģ": 6278,
      "ĠBrad": 6279,
      "Ġ\\,": 6280,
      "Ġmaterials": 6281,
      "weg": 6282,
      "emetery": 6283,
      "requ": 6284,
      "World": 6285,
      "Ġassociation": 6286,
      "Ġassess": 6287,
      "ifically": 6288,
      "Ġequival": 6289,
      "Ġpandemic": 6290,
      "Ġrul": 6291,
      "1919": 6292,
      "Element": 6293,
      "ĠLight": 6294,
      "ĠPolit": 6295,
      "TD": 6296,
      "Ġfans": 6297,
      "Ġcommittee": 6298,
      "La": 6299,
      "ĠCambridge": 6300,
      "Ġcreating": 6301,
      "Ġchoice": 6302,
      ".[": 6303,
      "Ġanything": 6304,
      "Ġplants": 6305,
      "Ġsort": 6306,
      "ĠRen": 6307,
      "Ġconfirmed": 6308,
      "ĠSher": 6309,
      "ropri": 6310,
      "Ġslight": 6311,
      "ĠStephen": 6312,
      "pton": 6313,
      "ĠIndust": 6314,
      "ĠSunday": 6315,
      "Ġpit": 6316,
      "%)": 6317,
      "rawn": 6318,
      "Ġteacher": 6319,
      "ls": 6320,
      "alion": 6321,
      "Ġsilver": 6322,
      "Ġcontrovers": 6323,
      "Ġmusicians": 6324,
      "ĠServices": 6325,
      "bolds": 6326,
      "Ġkept": 6327,
      "prot": 6328,
      "Ġnote": 6329,
      "ĠCas": 6330,
      "Ġhands": 6331,
      "ĠThree": 6332,
      "boldsymbol": 6333,
      "1933": 6334,
      "iler": 6335,
      "Ġrot": 6336,
      "ĠBu": 6337,
      "Ġcells": 6338,
      "Ġhistoric": 6339,
      "urer": 6340,
      "Ġroles": 6341,
      "ilter": 6342,
      "ĠChris": 6343,
      "ussian": 6344,
      "Ġlargely": 6345,
      "olitan": 6346,
      "Ġbegin": 6347,
      "1917": 6348,
      "ĠFire": 6349,
      "Ġcreation": 6350,
      "bro": 6351,
      "void": 6352,
      "ĠBon": 6353,
      "Ġidentity": 6354,
      "van": 6355,
      "Ġestate": 6356,
      "++": 6357,
      "Ġsolo": 6358,
      "lines": 6359,
      "ropical": 6360,
      "aret": 6361,
      "Config": 6362,
      "Ġprotection": 6363,
      "Ġobjects": 6364,
      "Ġdivided": 6365,
      "Ġdoc": 6366,
      "oster": 6367,
      "Ġclassical": 6368,
      "olis": 6369,
      "Ġassigned": 6370,
      "Ġfellow": 6371,
      "Ġtried": 6372,
      "Ġprote": 6373,
      "Ġquestions": 6374,
      "Personal": 6375,
      "heim": 6376,
      "Ġoccurred": 6377,
      "ois": 6378,
      "Ġlaunch": 6379,
      "anning": 6380,
      "vin": 6381,
      "Ġdistinct": 6382,
      "Ġofficially": 6383,
      "Ġcars": 6384,
      "Ġauthority": 6385,
      "ĠStand": 6386,
      "Gu": 6387,
      "ĠBol": 6388,
      "ĠAnton": 6389,
      "Ġlies": 6390,
      "ĠCub": 6391,
      "Ġflight": 6392,
      "Hand": 6393,
      "gest": 6394,
      "Ġprominent": 6395,
      "Ġauthorities": 6396,
      "Ġperman": 6397,
      "ĠNetherlands": 6398,
      "adian": 6399,
      "^{(": 6400,
      "Ġwidely": 6401,
      "Ġ(!": 6402,
      "1929": 6403,
      "Ġattacks": 6404,
      "Ġsequence": 6405,
      "acks": 6406,
      "Ġboy": 6407,
      "Ġsubs": 6408,
      "rees": 6409,
      "Ġgeneration": 6410,
      "Ġselect": 6411,
      "onder": 6412,
      "Ġfactor": 6413,
      "ĠQueens": 6414,
      "Ġly": 6415,
      "Ġwinners": 6416,
      "Ġenem": 6417,
      "ĠStadium": 6418,
      "iling": 6419,
      "ĠMir": 6420,
      "urches": 6421,
      "Ġscientific": 6422,
      "Ġelim": 6423,
      "lay": 6424,
      "Ġindustrial": 6425,
      "So": 6426,
      "Ġorganized": 6427,
      "Ġacting": 6428,
      "Ġworth": 6429,
      "Ġbeat": 6430,
      "Ġ${\\": 6431,
      "Ã¸": 6432,
      "Ġdial": 6433,
      "ĠSanta": 6434,
      "lav": 6435,
      "alo": 6436,
      "Ġparameters": 6437,
      "Ġformation": 6438,
      "aska": 6439,
      "}=": 6440,
      "Ġengineering": 6441,
      "Ġresident": 6442,
      "bed": 6443,
      "Ġcoal": 6444,
      "water": 6445,
      "Ġwa": 6446,
      "Per": 6447,
      "Ġimprove": 6448,
      "ĠTaylor": 6449,
      "ĠAsh": 6450,
      "sex": 6451,
      "ogs": 6452,
      "Ġmunicipal": 6453,
      "Ġreasons": 6454,
      "ĠRom": 6455,
      "ĠTok": 6456,
      "Ġlibrary": 6457,
      "South": 6458,
      "Ġvolume": 6459,
      "raction": 6460,
      "ĠTurk": 6461,
      "Ã£": 6462,
      "ĠRegion": 6463,
      "ĠSus": 6464,
      "mes": 6465,
      "Ġvotes": 6466,
      "rame": 6467,
      "lyn": 6468,
      "Ġscript": 6469,
      "Ġdamage": 6470,
      "Ġbasic": 6471,
      "Ġ});": 6472,
      "Ġsettlement": 6473,
      "1934": 6474,
      "ĠDuke": 6475,
      "Ġmulti": 6476,
      "Ġparticipated": 6477,
      "ĠSong": 6478,
      "ĠWisconsin": 6479,
      "ĠFamily": 6480,
      "ĠFair": 6481,
      "sey": 6482,
      "Ġraces": 6483,
      "ĠBra": 6484,
      "eler": 6485,
      "rightarrow": 6486,
      "Ġ},": 6487,
      "Ġrecognized": 6488,
      "ĠWrit": 6489,
      "ĠNC": 6490,
      "Ġearth": 6491,
      "car": 6492,
      "Ġgra": 6493,
      "inton": 6494,
      "Ġprice": 6495,
      "md": 6496,
      "1928": 6497,
      "hew": 6498,
      "etic": 6499,
      "ĠMain": 6500,
      "Ġwidth": 6501,
      "kin": 6502,
      "Ġdeclared": 6503,
      "Ġpiece": 6504,
      "ori": 6505,
      "osis": 6506,
      "illing": 6507,
      "ĠYour": 6508,
      "case": 6509,
      "Ġdestroyed": 6510,
      "Ġchampion": 6511,
      "Ġconstitu": 6512,
      "mult": 6513,
      "ĠCirc": 6514,
      "izer": 6515,
      "iplom": 6516,
      "Ġconsum": 6517,
      "Ġteaching": 6518,
      "Ġedge": 6519,
      "rig": 6520,
      "Ġsemi": 6521,
      "hire": 6522,
      "Ġeverything": 6523,
      "ologies": 6524,
      "aug": 6525,
      "Ġagent": 6526,
      "ĠHind": 6527,
      "regon": 6528,
      "ĠAnth": 6529,
      "OM": 6530,
      "proof": 6531,
      "ĠHy": 6532,
      "Ġconnect": 6533,
      "Ġhousehold": 6534,
      "Ġdance": 6535,
      "Ġpal": 6536,
      "May": 6537,
      "Ġcerem": 6538,
      "Ġurban": 6539,
      "ĠWalk": 6540,
      "Ġserves": 6541,
      "ĠNaz": 6542,
      "ĠPoint": 6543,
      "rete": 6544,
      "Ġones": 6545,
      "ĠWeek": 6546,
      "Ġflag": 6547,
      "ĠAN": 6548,
      "Ġexchange": 6549,
      "ĠSet": 6550,
      "1900": 6551,
      "igrants": 6552,
      "enna": 6553,
      "ĠSecurity": 6554,
      "ĠStat": 6555,
      "opher": 6556,
      "ĠčĊ": 6557,
      "rizona": 6558,
      "urd": 6559,
      "Conn": 6560,
      "life": 6561,
      "Item": 6562,
      "ĠBad": 6563,
      "Ġopin": 6564,
      "Ġusers": 6565,
      "Ġmeant": 6566,
      "ifications": 6567,
      "Ġrapid": 6568,
      "Ġfaculty": 6569,
      "ĠForest": 6570,
      "My": 6571,
      "OP": 6572,
      "Ġmut": 6573,
      "Ġaudience": 6574,
      "cor": 6575,
      "1932": 6576,
      "////////": 6577,
      "ĠVen": 6578,
      "rangle": 6579,
      "esponse": 6580,
      "bul": 6581,
      "uing": 6582,
      "Ġreviews": 6583,
      "iat": 6584,
      "1910": 6585,
      "ĠSpring": 6586,
      "ĠMedal": 6587,
      "rs": 6588,
      "Ġemployees": 6589,
      "Ġleaves": 6590,
      "Association": 6591,
      "Ġfunding": 6592,
      "actory": 6593,
      "ĠAthlet": 6594,
      "Ġ:=": 6595,
      "Ġstock": 6596,
      "ĠSte": 6597,
      "Ġcaptured": 6598,
      "Ġroll": 6599,
      "Ġweb": 6600,
      "Ġcommonly": 6601,
      "\").": 6602,
      "inder": 6603,
      "Post": 6604,
      "Ġfeed": 6605,
      "Ġnuclear": 6606,
      "ĠBeach": 6607,
      "ibliography": 6608,
      "olec": 6609,
      ".~\\": 6610,
      "ĠJews": 6611,
      "Ġreflect": 6612,
      "mat": 6613,
      "ĠMember": 6614,
      "ĠBh": 6615,
      "Ġclin": 6616,
      "ĠHere": 6617,
      "ipe": 6618,
      "ĠKansas": 6619,
      "='": 6620,
      "next": 6621,
      "ĠPremier": 6622,
      "ĠDoug": 6623,
      "ĠKim": 6624,
      "unities": 6625,
      "entially": 6626,
      "Ġheard": 6627,
      "aki": 6628,
      "150": 6629,
      "wid": 6630,
      "Ġinstrument": 6631,
      "atrix": 6632,
      ";&": 6633,
      "Ġhouseholds": 6634,
      "Ġchosen": 6635,
      "prise": 6636,
      "ĠTal": 6637,
      "Ġdomestic": 6638,
      "object": 6639,
      "Ġterritory": 6640,
      "Ġcosts": 6641,
      "ented": 6642,
      "Ġmotor": 6643,
      "Ġenvironmental": 6644,
      "ĠClark": 6645,
      "ĠTrust": 6646,
      "parent": 6647,
      "Ð¾Ð": 6648,
      "Ġtitles": 6649,
      "Us": 6650,
      "\"),": 6651,
      "forc": 6652,
      "Ġ__": 6653,
      "ync": 6654,
      "Dr": 6655,
      "Ġwall": 6656,
      "anger": 6657,
      "ĠLady": 6658,
      "ĠGree": 6659,
      "star": 6660,
      "Ġdecre": 6661,
      "Ġnotes": 6662,
      "aga": 6663,
      "Ġstraight": 6664,
      "Ġtell": 6665,
      "ĠCa": 6666,
      "International": 6667,
      "pty": 6668,
      "Ġnar": 6669,
      "Ġnotable": 6670,
      "ĠSwedish": 6671,
      "Ã©e": 6672,
      "Ġdrive": 6673,
      "Ġarts": 6674,
      ".}": 6675,
      "ĠAh": 6676,
      "Ġgranted": 6677,
      "ĠSab": 6678,
      "leep": 6679,
      "ĠProt": 6680,
      "apping": 6681,
      "Ġdefeat": 6682,
      "apore": 6683,
      "Ġsplit": 6684,
      "Ġrenamed": 6685,
      "isms": 6686,
      "Ġast": 6687,
      "lan": 6688,
      "omic": 6689,
      "site": 6690,
      "aren": 6691,
      "omer": 6692,
      "ĠDisc": 6693,
      "General": 6694,
      "eral": 6695,
      "establ": 6696,
      "Ä±": 6697,
      "CE": 6698,
      "apache": 6699,
      "Ġmountain": 6700,
      "Ġsuggested": 6701,
      "info": 6702,
      "arks": 6703,
      "'ve": 6704,
      "1924": 6705,
      "Ġexpansion": 6706,
      "ami": 6707,
      "Ġpowerful": 6708,
      "ĠNic": 6709,
      "ĠWars": 6710,
      "Array": 6711,
      "ĠFollowing": 6712,
      "1922": 6713,
      "Ġcontemporary": 6714,
      "ĠKir": 6715,
      "efe": 6716,
      "Ġconsult": 6717,
      "ego": 6718,
      "Ġrandom": 6719,
      "netic": 6720,
      "di": 6721,
      "Ġappropri": 6722,
      "Ġtransition": 6723,
      "ĠSee": 6724,
      "ĠHay": 6725,
      "ĠBridge": 6726,
      "Ġvacc": 6727,
      "lic": 6728,
      "former": 6729,
      "1931": 6730,
      "Ġparish": 6731,
      "Ġrestaur": 6732,
      "Che": 6733,
      "Ġconsequ": 6734,
      "ĠSev": 6735,
      "DA": 6736,
      "Color": 6737,
      "Ġfigures": 6738,
      ")=": 6739,
      "\"\"": 6740,
      "Ġdecades": 6741,
      "Ġrelatively": 6742,
      "Ġnegative": 6743,
      "Ġmorning": 6744,
      "ĠFox": 6745,
      "ĠColorado": 6746,
      "worth": 6747,
      "wegian": 6748,
      "pool": 6749,
      "Ġfounder": 6750,
      "vec": 6751,
      "Ġfeet": 6752,
      "ocol": 6753,
      "uri": 6754,
      "Ġrugby": 6755,
      "Ġspeech": 6756,
      "ĠCommand": 6757,
      "Ġparliament": 6758,
      "Ġaffili": 6759,
      "erto": 6760,
      "Ġprogramming": 6761,
      "Ġhosted": 6762,
      "poses": 6763,
      "Ġsuffered": 6764,
      "lections": 6765,
      "ictures": 6766,
      "rie": 6767,
      "Ġfiction": 6768,
      "yard": 6769,
      "ĠÎ": 6770,
      "Ġwarn": 6771,
      "Ġactual": 6772,
      "ĠTurkey": 6773,
      "Ġcry": 6774,
      "ĠMarsh": 6775,
      "while": 6776,
      "Ġq": 6777,
      "ĠGro": 6778,
      "Ġlisting": 6779,
      "1921": 6780,
      "Ġpack": 6781,
      "1927": 6782,
      "Ġbegins": 6783,
      "Ġrise": 6784,
      "Ġfocused": 6785,
      "yal": 6786,
      "ĠMarg": 6787,
      "Ġcategory": 6788,
      "Ġexists": 6789,
      "Ġadvant": 6790,
      "Ġcarri": 6791,
      "ruit": 6792,
      "PE": 6793,
      "Ġextrem": 6794,
      "iful": 6795,
      "ĠDespite": 6796,
      "Ġlett": 6797,
      "=\"../../../../": 6798,
      "ĠGolden": 6799,
      "Ġtowns": 6800,
      "Ġcycl": 6801,
      "Ġnovels": 6802,
      "OL": 6803,
      "ĠIndiana": 6804,
      "Ġdocumentary": 6805,
      "anga": 6806,
      "ĠDavis": 6807,
      "note": 6808,
      "ĠMilitary": 6809,
      "Ġfixed": 6810,
      "ĠBudd": 6811,
      "Ġvehicle": 6812,
      "ĠBishop": 6813,
      "Men": 6814,
      "Ġdaily": 6815,
      "ĠEach": 6816,
      "earing": 6817,
      "Ġunderstanding": 6818,
      "Ser": 6819,
      "Ġcalls": 6820,
      "ĠInst": 6821,
      "ĠKel": 6822,
      "ĠSu": 6823,
      "ennessee": 6824,
      "Ġexpanded": 6825,
      "ester": 6826,
      "Ġreduce": 6827,
      "Ġmeasures": 6828,
      "Ġinvestigation": 6829,
      "ĠRoute": 6830,
      "asty": 6831,
      "Cast": 6832,
      "ĠSteve": 6833,
      "ician": 6834,
      "aver": 6835,
      "Women": 6836,
      "ĠNY": 6837,
      "ĠDam": 6838,
      "ULL": 6839,
      "Ġmachine": 6840,
      "Ġfactors": 6841,
      "lywood": 6842,
      "finished": 6843,
      "plicit": 6844,
      "ĠReport": 6845,
      "create": 6846,
      "ĠEngineering": 6847,
      "ĠAtlantic": 6848,
      "Ġapplications": 6849,
      "rank": 6850,
      "weet": 6851,
      "anna": 6852,
      "cow": 6853,
      "ENT": 6854,
      "ĠDer": 6855,
      "outheast": 6856,
      "Ġhyp": 6857,
      "ĠHamilton": 6858,
      "ĠCur": 6859,
      "âĢĿ.": 6860,
      "ĠSweden": 6861,
      "Ġtaught": 6862,
      "anges": 6863,
      "Ġpurchased": 6864,
      "ĠWinter": 6865,
      "ĠThus": 6866,
      "ĠUt": 6867,
      "Ġpiano": 6868,
      "ĠMissouri": 6869,
      "Ġcontaining": 6870,
      "Ġaband": 6871,
      "circ": 6872,
      "ĠMexican": 6873,
      "Nov": 6874,
      "Biography": 6875,
      "ropolitan": 6876,
      "Code": 6877,
      ">&": 6878,
      "Ġcontest": 6879,
      "Ġcorresponding": 6880,
      "Ġregarding": 6881,
      "Ent": 6882,
      "Ġgained": 6883,
      "ĠWell": 6884,
      "phas": 6885,
      "Ġjudge": 6886,
      "coming": 6887,
      "Ġsurn": 6888,
      "mad": 6889,
      "Ġshape": 6890,
      "Ġallowing": 6891,
      "ĠFree": 6892,
      "scale": 6893,
      "ĠFrancis": 6894,
      "Ġtwice": 6895,
      "Ġgal": 6896,
      "Ġretire": 6897,
      "Olymp": 6898,
      "ĠIndones": 6899,
      "Ġfacility": 6900,
      "Ġcontrast": 6901,
      "asters": 6902,
      "conn": 6903,
      "Ġplanning": 6904,
      "ĠNiger": 6905,
      "INE": 6906,
      "Ġresulted": 6907,
      "1912": 6908,
      "ĠChristmas": 6909,
      "Ġotherwise": 6910,
      "Ġtitled": 6911,
      "Ġbul": 6912,
      "Ġinspired": 6913,
      "itled": 6914,
      "ĠPass": 6915,
      "vard": 6916,
      "ĠRon": 6917,
      "po": 6918,
      "Ġcatch": 6919,
      "1925": 6920,
      "ĠConf": 6921,
      "Ġmedian": 6922,
      "Ġparameter": 6923,
      "DP": 6924,
      "SA": 6925,
      "page": 6926,
      "Ġinjury": 6927,
      "ĠWel": 6928,
      "Ġspons": 6929,
      "Ġvisual": 6930,
      "'.": 6931,
      "Ġideas": 6932,
      "Ġprofile": 6933,
      "ĠAnother": 6934,
      "Ġlinear": 6935,
      "ĠSon": 6936,
      "gency": 6937,
      "ĠDiv": 6938,
      "adow": 6939,
      "Ġdoctor": 6940,
      "****************": 6941,
      "hips": 6942,
      "Ġapply": 6943,
      "Ġdeveloping": 6944,
      "ĠSquad": 6945,
      "Oper": 6946,
      "ĠMoh": 6947,
      "1926": 6948,
      "oom": 6949,
      "Ġnewly": 6950,
      "ĠOregon": 6951,
      "Ġcomponent": 6952,
      "French": 6953,
      "Ġtells": 6954,
      "aly": 6955,
      "Ġsecondary": 6956,
      "IF": 6957,
      "has": 6958,
      "enses": 6959,
      "Ġcomposer": 6960,
      "ika": 6961,
      "ĠDown": 6962,
      "Ġfunds": 6963,
      "Ġstone": 6964,
      "Ã£o": 6965,
      "Size": 6966,
      "Ġvehicles": 6967,
      "ĠPu": 6968,
      "Ġtheme": 6969,
      "Ġsrc": 6970,
      "Ġtraffic": 6971,
      "Ġsurrounding": 6972,
      "ainer": 6973,
      "Log": 6974,
      "ĠMemorial": 6975,
      "VD": 6976,
      "hol": 6977,
      "isa": 6978,
      "ogen": 6979,
      "Ġinvestment": 6980,
      "Ġut": 6981,
      "ĠFund": 6982,
      "Ġdevice": 6983,
      "Ġperformances": 6984,
      "uns": 6985,
      "idi": 6986,
      "1915": 6987,
      "Ġfailure": 6988,
      "wealth": 6989,
      "ĠPlan": 6990,
      "ĠCzech": 6991,
      "Ġalternative": 6992,
      "Ġversions": 6993,
      "ĠInformation": 6994,
      "Ġinnov": 6995,
      "ĠRights": 6996,
      "}).": 6997,
      "Ġresearc": 6998,
      "arant": 6999,
      "lock": 7000,
      "SR": 7001,
      "Ġseats": 7002,
      "How": 7003,
      "ĠConc": 7004,
      "1923": 7005,
      "ĠGallery": 7006,
      "Ġrates": 7007,
      "Ġcore": 7008,
      "assert": 7009,
      "jan": 7010,
      "dated": 7011,
      "Ġdescription": 7012,
      "Ġign": 7013,
      "Ġreality": 7014,
      "Ġcriminal": 7015,
      "Ġtoward": 7016,
      "Ġpull": 7017,
      "ghan": 7018,
      "ga": 7019,
      "ĠAffairs": 7020,
      "Ġaware": 7021,
      "Ġfighting": 7022,
      "ĠGlobal": 7023,
      "1916": 7024,
      "ĠMill": 7025,
      "ĠForeign": 7026,
      "Ġappeal": 7027,
      "Ġmarked": 7028,
      "Ġadvert": 7029,
      "Ġnegot": 7030,
      "Ġdim": 7031,
      "ĠâĢł": 7032,
      "Ġeveryone": 7033,
      "Ġyounger": 7034,
      "ĠAuthor": 7035,
      "ĠPeak": 7036,
      "Ġapproved": 7037,
      "pet": 7038,
      "orders": 7039,
      "Ġspring": 7040,
      "aturday": 7041,
      "Ġanimals": 7042,
      "Ġopposition": 7043,
      "ĠGh": 7044,
      "Â°": 7045,
      "Ġengineer": 7046,
      "Ġvess": 7047,
      "after": 7048,
      "Ġachieved": 7049,
      "Ġnorm": 7050,
      "ĠColon": 7051,
      "ĠBall": 7052,
      "ĠSerb": 7053,
      "ilation": 7054,
      "start": 7055,
      "iants": 7056,
      "check": 7057,
      "Ġcorpor": 7058,
      "ĠLind": 7059,
      "Ġstatistics": 7060,
      "HL": 7061,
      "Ġdetermine": 7062,
      "frak": 7063,
      "Ġwrest": 7064,
      "ito": 7065,
      "ferred": 7066,
      "Play": 7067,
      "ĠJoh": 7068,
      "Results": 7069,
      "pson": 7070,
      "[]": 7071,
      "otype": 7072,
      "Ġcandidates": 7073,
      "ĠCountry": 7074,
      "Ġ;": 7075,
      "ĠBooks": 7076,
      "ĠHal": 7077,
      "strong": 7078,
      "Ġsample": 7079,
      "Ġfish": 7080,
      "evin": 7081,
      "tra": 7082,
      "ĠSpace": 7083,
      "ĠLewis": 7084,
      "ĠAbb": 7085,
      "geq": 7086,
      "Ġcoordin": 7087,
      "=\"../": 7088,
      "ĠArthur": 7089,
      "ĠAst": 7090,
      "Ġproof": 7091,
      "PA": 7092,
      "default": 7093,
      "Ġrom": 7094,
      "Ġarrested": 7095,
      "allel": 7096,
      "Ġgets": 7097,
      "ĠGreg": 7098,
      "ĠCastle": 7099,
      "Ġjournalist": 7100,
      "varphi": 7101,
      "Ġadvanced": 7102,
      "Ġgovernor": 7103,
      "Ġpolicies": 7104,
      "ĠConstitution": 7105,
      "Ġrelative": 7106,
      "Ġimportance": 7107,
      "Ġterror": 7108,
      "prop": 7109,
      "ĠEven": 7110,
      "Ġapparent": 7111,
      "ighth": 7112,
      "ĠMic": 7113,
      "citep": 7114,
      "unes": 7115,
      "That": 7116,
      "Mon": 7117,
      "Ġviews": 7118,
      "css": 7119,
      "going": 7120,
      "Ġlosing": 7121,
      "ieces": 7122,
      "Ġil": 7123,
      "Message": 7124,
      "ĠLive": 7125,
      "Ġfreedom": 7126,
      "Ġexpression": 7127,
      "otal": 7128,
      "ĠArizona": 7129,
      "ĠOs": 7130,
      "Ġfaith": 7131,
      "Ġstrategy": 7132,
      "Ġexpressed": 7133,
      "Ġhabit": 7134,
      "Ġclean": 7135,
      "Ġtechnical": 7136,
      "Ġexperi": 7137,
      "ĠCaptain": 7138,
      "Ġmatrix": 7139,
      "tes": 7140,
      "ĠJer": 7141,
      "odd": 7142,
      "Some": 7143,
      "ĠEth": 7144,
      "&\\": 7145,
      "resents": 7146,
      "Ġneighborhood": 7147,
      "len": 7148,
      "PC": 7149,
      "abilities": 7150,
      "ĠPalest": 7151,
      "Ãº": 7152,
      "Ġdefense": 7153,
      "Ġsevent": 7154,
      "etime": 7155,
      "rog": 7156,
      "ĠMaria": 7157,
      "Disc": 7158,
      "Ġdistricts": 7159,
      "Ġeasy": 7160,
      "ĠHan": 7161,
      "Ġcab": 7162,
      "hedral": 7163,
      "Ġsides": 7164,
      "omot": 7165,
      "Ġrequires": 7166,
      "overline": 7167,
      "Ġdefinition": 7168,
      "ĠSav": 7169,
      "Awards": 7170,
      "ĠPhilippines": 7171,
      "Ġfinish": 7172,
      "ĠDesign": 7173,
      "ĠLo": 7174,
      "lah": 7175,
      "Ġitems": 7176,
      "ĠMaryland": 7177,
      "andy": 7178,
      "ĠWat": 7179,
      "Ġpainting": 7180,
      "Ġtele": 7181,
      "ĠAlf": 7182,
      "Ġpartnership": 7183,
      "dev": 7184,
      "Ġcrisis": 7185,
      "ecution": 7186,
      "hline": 7187,
      "ounded": 7188,
      "scape": 7189,
      "ptions": 7190,
      "ĠArea": 7191,
      "Ġexerc": 7192,
      "aints": 7193,
      "umin": 7194,
      "ĠTownship": 7195,
      "Param": 7196,
      "open": 7197,
      "Ġpublication": 7198,
      "Ġbudget": 7199,
      "ĠStock": 7200,
      "Ġfemales": 7201,
      "tainment": 7202,
      "ĠMountain": 7203,
      "ĠTennessee": 7204,
      "Ġexistence": 7205,
      "appa": 7206,
      "Ġaccident": 7207,
      "organ": 7208,
      "first": 7209,
      "rant": 7210,
      "Ġbusinesses": 7211,
      "plication": 7212,
      "EL": 7213,
      "post": 7214,
      "Ġnone": 7215,
      "[\\": 7216,
      "ĠLabor": 7217,
      "Ġnob": 7218,
      "Ġleads": 7219,
      "Ġ===": 7220,
      "Ġsynt": 7221,
      "power": 7222,
      "Ġwindow": 7223,
      "hu": 7224,
      "Ġcommit": 7225,
      "oli": 7226,
      "present": 7227,
      "living": 7228,
      "Ġstandards": 7229,
      "model": 7230,
      "Ġchairman": 7231,
      "esign": 7232,
      "Ġtwenty": 7233,
      "Ġheav": 7234,
      "2023": 7235,
      "SU": 7236,
      "urns": 7237,
      "Ġinn": 7238,
      "TC": 7239,
      "Ġhope": 7240,
      "Ġeasily": 7241,
      "ĠLog": 7242,
      "gar": 7243,
      "imation": 7244,
      "ĠBrother": 7245,
      "Ġyards": 7246,
      "ĠRepresentatives": 7247,
      "inding": 7248,
      "ĠTa": 7249,
      "Ġimag": 7250,
      "rastructure": 7251,
      "ĠPit": 7252,
      "onds": 7253,
      "igenous": 7254,
      "PR": 7255,
      "Ġswim": 7256,
      "Ġsession": 7257,
      "Ġemphas": 7258,
      "},\\": 7259,
      "iki": 7260,
      "Ġwing": 7261,
      "Ġagency": 7262,
      "ĠUkraine": 7263,
      "Ġsignal": 7264,
      "ĠFederation": 7265,
      "define": 7266,
      "Table": 7267,
      "Ġjava": 7268,
      "uties": 7269,
      "Olympic": 7270,
      "zen": 7271,
      "Ġcomponents": 7272,
      "ĠGer": 7273,
      "pat": 7274,
      "Ġce": 7275,
      "ensis": 7276,
      "ĠLeon": 7277,
      "zo": 7278,
      "ĠBaron": 7279,
      "wing": 7280,
      "ĠRoss": 7281,
      "Ġmedalists": 7282,
      "lient": 7283,
      "Ġinstitution": 7284,
      "ĠBecause": 7285,
      "Ġhero": 7286,
      "Manager": 7287,
      "Ġinters": 7288,
      "agram": 7289,
      "Ġderived": 7290,
      "Ġburied": 7291,
      "agan": 7292,
      "Ġacts": 7293,
      "Ġreturns": 7294,
      "ĠBack": 7295,
      "irty": 7296,
      "ographer": 7297,
      "ĠKey": 7298,
      "western": 7299,
      "asks": 7300,
      "illery": 7301,
      "Ġshift": 7302,
      "ĠVietnam": 7303,
      "ordan": 7304,
      "ĠBru": 7305,
      "hr": 7306,
      "ĠPrim": 7307,
      "uted": 7308,
      "rome": 7309,
      "ĠSem": 7310,
      "Ġloan": 7311,
      "Ġtend": 7312,
      "rices": 7313,
      "Ġdriver": 7314,
      "Ġonto": 7315,
      "Ġranked": 7316,
      "Ġinterests": 7317,
      "ĠHo": 7318,
      "Ġprincipal": 7319,
      "anchester": 7320,
      "Sing": 7321,
      "Ġconstitution": 7322,
      "ĠSri": 7323,
      "Ġdistingu": 7324,
      "ĠVi": 7325,
      "anging": 7326,
      "ĠHun": 7327,
      "Ã¢": 7328,
      "erick": 7329,
      "osure": 7330,
      "Ġtheatre": 7331,
      "ĠKal": 7332,
      "--------------------------------": 7333,
      "riday": 7334,
      "uv": 7335,
      "Ġevolution": 7336,
      "result": 7337,
      "cons": 7338,
      "Ġalleged": 7339,
      "Ġprepar": 7340,
      "Ġperfect": 7341,
      "HS": 7342,
      "arry": 7343,
      "coln": 7344,
      "rator": 7345,
      "ban": 7346,
      "Ġstopp": 7347,
      "ĠJesus": 7348,
      "ĠAD": 7349,
      "ĠBat": 7350,
      "Ġweak": 7351,
      "Ġlocations": 7352,
      "ĠEs": 7353,
      "Background": 7354,
      "ĠArk": 7355,
      "final": 7356,
      "Ġportion": 7357,
      "uese": 7358,
      "java": 7359,
      "valid": 7360,
      "Ġexamples": 7361,
      "achelor": 7362,
      "Pol": 7363,
      "ĠNorm": 7364,
      "Ġwrong": 7365,
      "ĠHighway": 7366,
      "outs": 7367,
      "Ġfestival": 7368,
      "Ġoption": 7369,
      "Ġremember": 7370,
      "stances": 7371,
      "ĠHard": 7372,
      "fficial": 7373,
      "ĠFurther": 7374,
      "Ġsupporting": 7375,
      "ĠExecutive": 7376,
      "rell": 7377,
      "1913": 7378,
      "Public": 7379,
      "Ġwealth": 7380,
      "keep": 7381,
      "ĠSingapore": 7382,
      "Ġreligion": 7383,
      "Ġgirls": 7384,
      "iang": 7385,
      "ĠMun": 7386,
      "Ġnarrow": 7387,
      "ello": 7388,
      "ĠMalays": 7389,
      "Ġadvoc": 7390,
      "Final": 7391,
      "aved": 7392,
      "ĠMunicip": 7393,
      "Ġreceiving": 7394,
      "incial": 7395,
      "ĠLike": 7396,
      "Ġnominated": 7397,
      "NS": 7398,
      "iser": 7399,
      "Canadian": 7400,
      "rene": 7401,
      "Dist": 7402,
      "Ġaffected": 7403,
      "ĠMoscow": 7404,
      "120": 7405,
      "context": 7406,
      "Ġcart": 7407,
      "Ġpurposes": 7408,
      "ĠInternet": 7409,
      "ĠEU": 7410,
      "ĠPier": 7411,
      "abama": 7412,
      "Ġvac": 7413,
      "Ġbottom": 7414,
      "Model": 7415,
      "Ġrepresents": 7416,
      "ĠNorway": 7417,
      "Port": 7418,
      "aming": 7419,
      "Ġcircum": 7420,
      "Ġsan": 7421,
      "Ġcrow": 7422,
      "uther": 7423,
      "idel": 7424,
      "Ġjustice": 7425,
      "Ġrecip": 7426,
      "ãĥ": 7427,
      "Ġflood": 7428,
      "ĠHou": 7429,
      "Ã¼r": 7430,
      "ivals": 7431,
      "dl": 7432,
      "Ġchallenge": 7433,
      "ureau": 7434,
      "Ġstorm": 7435,
      "ĠFace": 7436,
      "Ġends": 7437,
      "Ġincident": 7438,
      "Ġzero": 7439,
      "Ġdeploy": 7440,
      "Ġwave": 7441,
      "eful": 7442,
      "Ġunable": 7443,
      "Ġrepresentation": 7444,
      "Ġfine": 7445,
      "Ġslightly": 7446,
      "Rel": 7447,
      "ski": 7448,
      "ĠMiller": 7449,
      "rieved": 7450,
      "ĠMond": 7451,
      "mathfrak": 7452,
      "================": 7453,
      "ĠSlov": 7454,
      "ĠChildren": 7455,
      "rip": 7456,
      "break": 7457,
      "ĠHart": 7458,
      "Ġinterested": 7459,
      "Ġmotion": 7460,
      "ĠĠĠĠĠĠĠĠĠĠĠĠ": 7461,
      "Description": 7462,
      "Ġformal": 7463,
      "ASS": 7464,
      "Top": 7465,
      "ĠTai": 7466,
      "ĠAud": 7467,
      "ĠPhys": 7468,
      "Ġarms": 7469,
      "Ġfuel": 7470,
      "Ġcommitted": 7471,
      "Ġoperator": 7472,
      "Ġpret": 7473,
      "Ġtrees": 7474,
      "ectors": 7475,
      "apel": 7476,
      "Sim": 7477,
      "1911": 7478,
      "Ġprotest": 7479,
      "Bibliography": 7480,
      "ĠSurvey": 7481,
      "Ġhall": 7482,
      "Fig": 7483,
      "ĠIss": 7484,
      "Ġchance": 7485,
      "ĠHand": 7486,
      "iversary": 7487,
      "Source": 7488,
      "Ġbow": 7489,
      "ĠĠĠĠĠĠĠĠĠĠ": 7490,
      "Ġscoring": 7491,
      "Ġrough": 7492,
      "âĢĿ,": 7493,
      "Ġreturning": 7494,
      "kes": 7495,
      "Ġdivers": 7496,
      "asure": 7497,
      "}}$": 7498,
      "Ġknew": 7499,
      "Ġrepresenting": 7500,
      "Ġultimately": 7501,
      "engers": 7502,
      "ĠAnderson": 7503,
      "cap": 7504,
      "Ġinteresting": 7505,
      "obe": 7506,
      "Ġchain": 7507,
      "Sportspeople": 7508,
      "Ġresource": 7509,
      "ocracy": 7510,
      "textit": 7511,
      "Ġdoll": 7512,
      "Ġgenerated": 7513,
      "bell": 7514,
      "Ġtesting": 7515,
      "Call": 7516,
      "itzerland": 7517,
      "Ġcooper": 7518,
      "ĠHoly": 7519,
      "season": 7520,
      "Ġdocuments": 7521,
      "ses": 7522,
      "ĠPhilip": 7523,
      "lig": 7524,
      "umes": 7525,
      "ÃŃa": 7526,
      "ĠVis": 7527,
      "ĠTit": 7528,
      "doc": 7529,
      "Ġsubsequent": 7530,
      "small": 7531,
      "ĠReal": 7532,
      "Ġhydro": 7533,
      "Ġextension": 7534,
      "Ref": 7535,
      "Ġbelief": 7536,
      "Ġahead": 7537,
      "gers": 7538,
      ")^": 7539,
      "ĠIowa": 7540,
      "ĠAM": 7541,
      "Ġjur": 7542,
      "Ġweapons": 7543,
      "Ġrecognition": 7544,
      "Ġvent": 7545,
      "Ġhappened": 7546,
      "soft": 7547,
      "ads": 7548,
      "Result": 7549,
      "ĠCEO": 7550,
      "Ġdiplom": 7551,
      "Ġdesignated": 7552,
      "Ġskills": 7553,
      "Ġfrequently": 7554,
      "rait": 7555,
      "current": 7556,
      "Ġentitled": 7557,
      "ĠShort": 7558,
      "islation": 7559,
      "agues": 7560,
      "ĠDor": 7561,
      "Ġdistributed": 7562,
      "ĠFord": 7563,
      "ĠRun": 7564,
      "ĉĉĉĉĉĉ": 7565,
      "Ġcritics": 7566,
      "ĠEntertainment": 7567,
      "Ġvisited": 7568,
      "php": 7569,
      "image": 7570,
      "Ġclient": 7571,
      "ordon": 7572,
      "Min": 7573,
      "ĠAbout": 7574,
      "ĠHarry": 7575,
      "sort": 7576,
      "Dis": 7577,
      "Ġoccasion": 7578,
      "ĠStaff": 7579,
      "ĠGreece": 7580,
      "ĠLev": 7581,
      "Ġstrength": 7582,
      "Date": 7583,
      "ĠKentucky": 7584,
      "Ġpowers": 7585,
      "Method": 7586,
      "lahoma": 7587,
      "Japan": 7588,
      "ĠMelbourne": 7589,
      "Ġregistered": 7590,
      "Ġitem": 7591,
      "det": 7592,
      "ĠIV": 7593,
      "Ġportray": 7594,
      "Ġequivalent": 7595,
      "ĠBaseball": 7596,
      "ĠBalt": 7597,
      "Ġequation": 7598,
      "ouble": 7599,
      "white": 7600,
      "Ġmand": 7601,
      "ducing": 7602,
      "Ġbronze": 7603,
      "rine": 7604,
      "Ġattempts": 7605,
      "sf": 7606,
      "][": 7607,
      "ĠGa": 7608,
      "Lambda": 7609,
      "Dav": 7610,
      "Ġrelation": 7611,
      "ĠAdam": 7612,
      "ĠIslamic": 7613,
      "Ġpremier": 7614,
      "plete": 7615,
      "Ġnav": 7616,
      "Ġrepresentative": 7617,
      "ĠSym": 7618,
      "Ġperforming": 7619,
      "Ġeducated": 7620,
      "hens": 7621,
      "Base": 7622,
      "ĠModern": 7623,
      "Ġoccurs": 7624,
      "ĠJunior": 7625,
      "Ġending": 7626,
      "lets": 7627,
      "William": 7628,
      "Ġrequirements": 7629,
      "Ġsubstant": 7630,
      "lov": 7631,
      "ĠAfghan": 7632,
      "friend": 7633,
      "~~": 7634,
      "ambig": 7635,
      "Ġinform": 7636,
      "DF": 7637,
      "oes": 7638,
      "false": 7639,
      "undle": 7640,
      "Ġvillages": 7641,
      "also": 7642,
      "Ġmode": 7643,
      "ictional": 7644,
      "Ġrefused": 7645,
      "Ġchemical": 7646,
      "ĠCommun": 7647,
      "fef": 7648,
      "ĠCab": 7649,
      "Jan": 7650,
      "Ġholding": 7651,
      "Ġargument": 7652,
      "600": 7653,
      "icip": 7654,
      "Ġeducational": 7655,
      "ĠVice": 7656,
      "Ġplot": 7657,
      "Ġcontained": 7658,
      "Ġvocal": 7659,
      "ĠBarn": 7660,
      "Ġshowing": 7661,
      "ĠKhan": 7662,
      "Ġmental": 7663,
      "EM": 7664,
      "stan": 7665,
      "Ap": 7666,
      "unfinished": 7667,
      "Populated": 7668,
      "Ġlearned": 7669,
      "1908": 7670,
      "ĠData": 7671,
      "Ġspot": 7672,
      "Ġtransform": 7673,
      "ĠGil": 7674,
      "othing": 7675,
      "ĠFI": 7676,
      "yers": 7677,
      "Ġsuccessfully": 7678,
      "Ġstarring": 7679,
      "gener": 7680,
      "à¸": 7681,
      "cha": 7682,
      "Äį": 7683,
      "ologists": 7684,
      "icians": 7685,
      "legal": 7686,
      "Ġwitness": 7687,
      "ci": 7688,
      "uma": 7689,
      "Ġring": 7690,
      "Ġhomes": 7691,
      "everal": 7692,
      "ynasty": 7693,
      "Ġnet": 7694,
      "Ġvice": 7695,
      "Ġsac": 7696,
      "TA": 7697,
      "Ġprocesses": 7698,
      "ĠOfficer": 7699,
      "Ġsave": 7700,
      "Ġenh": 7701,
      "Ġ};": 7702,
      "ippi": 7703,
      "stract": 7704,
      "Ġ``": 7705,
      "Ġmargin": 7706,
      "Ġscheduled": 7707,
      "Ġwins": 7708,
      "roit": 7709,
      "Geography": 7710,
      "rish": 7711,
      "Ġexhibition": 7712,
      "ĠAdministration": 7713,
      "eless": 7714,
      "West": 7715,
      "agh": 7716,
      "ĠMP": 7717,
      "User": 7718,
      "iated": 7719,
      "Ġextensive": 7720,
      "ĠJacob": 7721,
      "Ġspecifically": 7722,
      "ĠNev": 7723,
      "ĠConnect": 7724,
      "Ġcontributions": 7725,
      "Ġbought": 7726,
      "Ġax": 7727,
      "ĠDu": 7728,
      "inus": 7729,
      "ĠSi": 7730,
      "Ġpun": 7731,
      "Ġscheme": 7732,
      "inema": 7733,
      "then": 7734,
      "Ġcollected": 7735,
      "Ġexclus": 7736,
      "ĠAlbert": 7737,
      "zy": 7738,
      "Ġcombination": 7739,
      "acew": 7740,
      "250": 7741,
      "Ġcommunication": 7742,
      "oret": 7743,
      "google": 7744,
      "ĠLank": 7745,
      "Ġraise": 7746,
      "Ġracing": 7747,
      "fefefe": 7748,
      "Ġherself": 7749,
      "Ġminimum": 7750,
      "Ġwinter": 7751,
      "\\%": 7752,
      "Ġfashion": 7753,
      "Ġletters": 7754,
      "Ġboundary": 7755,
      "Ġcorner": 7756,
      "Ġroyal": 7757,
      "Ġprofession": 7758,
      "ortheast": 7759,
      "Ġorders": 7760,
      "ĠNFL": 7761,
      "atically": 7762,
      "Ġpresidential": 7763,
      "angle": 7764,
      "ĠStory": 7765,
      "seud": 7766,
      "Ġmess": 7767,
      "Ġsignificantly": 7768,
      "Ġcombat": 7769,
      "Ġdefine": 7770,
      "Tax": 7771,
      "Ġperhaps": 7772,
      "Ġpages": 7773,
      "anged": 7774,
      "ĠLiter": 7775,
      "oles": 7776,
      "ĠMagazine": 7777,
      "](": 7778,
      "ĠTransport": 7779,
      "Ġrain": 7780,
      "ogy": 7781,
      "Ġoldest": 7782,
      "ĠAustria": 7783,
      "ĠLtd": 7784,
      "Ġpanel": 7785,
      "Ġpieces": 7786,
      "bal": 7787,
      "ithub": 7788,
      "include": 7789,
      "Ġbrothers": 7790,
      "dec": 7791,
      ";</": 7792,
      "Ġemployed": 7793,
      "ĠRoy": 7794,
      "je": 7795,
      "Christ": 7796,
      "Ġwasn": 7797,
      "Ġopposed": 7798,
      "Ġdropped": 7799,
      "abla": 7800,
      "ouses": 7801,
      "Ġalgorithm": 7802,
      "istant": 7803,
      "atern": 7804,
      "ĠTony": 7805,
      "Ġdomain": 7806,
      "ĠOcean": 7807,
      "Ġanyone": 7808,
      "ĠJane": 7809,
      "ĠMicro": 7810,
      "Ġguard": 7811,
      "abs": 7812,
      "ĠFront": 7813,
      "TH": 7814,
      "ĠSaturday": 7815,
      "ĠBos": 7816,
      "ĠNick": 7817,
      "apes": 7818,
      "Sm": 7819,
      "Ġgain": 7820,
      "Ġaid": 7821,
      "build": 7822,
      "Ġfresh": 7823,
      "Ġvot": 7824,
      "Ġbenefit": 7825,
      "Ġstarts": 7826,
      "ĠBeng": 7827,
      "Ġnor": 7828,
      "ĠAlabama": 7829,
      "Ġcopies": 7830,
      "know": 7831,
      "Response": 7832,
      "Ġcalling": 7833,
      "ymn": 7834,
      "Ġremov": 7835,
      "1000": 7836,
      "ĠBah": 7837,
      "Ġuniform": 7838,
      "ĠFle": 7839,
      "icide": 7840,
      "icut": 7841,
      "ĠInit": 7842,
      "ĠWho": 7843,
      "Ġmyst": 7844,
      "ingham": 7845,
      "ĠGall": 7846,
      "ques": 7847,
      "ni": 7848,
      "ĠSat": 7849,
      "olas": 7850,
      "night": 7851,
      "othes": 7852,
      "package": 7853,
      "Ġrh": 7854,
      "ĠMas": 7855,
      "ĠEnvironment": 7856,
      "ĠAdv": 7857,
      "vements": 7858,
      "agu": 7859,
      "Ġcommander": 7860,
      "Ġlect": 7861,
      "Ġadvance": 7862,
      "Ġcoaches": 7863,
      "Ġexpert": 7864,
      "Ġhuge": 7865,
      "Ġpromote": 7866,
      "Ġburn": 7867,
      "ategory": 7868,
      "ĠManchester": 7869,
      "Ġcredit": 7870,
      "Ġheadquarters": 7871,
      "ĠTurn": 7872,
      "uses": 7873,
      "Best": 7874,
      "Ġsufficient": 7875,
      "fall": 7876,
      "ocese": 7877,
      "offs": 7878,
      "System": 7879,
      "pling": 7880,
      "ownt": 7881,
      "Ġformerly": 7882,
      "ĠInvest": 7883,
      "Ġguest": 7884,
      "bles": 7885,
      "Ġauthors": 7886,
      "ancer": 7887,
      "Ġframe": 7888,
      "Death": 7889,
      ".\\": 7890,
      "Ġtechniques": 7891,
      "ĠLast": 7892,
      "ĠCape": 7893,
      "ĠLincoln": 7894,
      "Ġcaptain": 7895,
      "Ġflu": 7896,
      "Ġvector": 7897,
      "ĠFer": 7898,
      "Ġnil": 7899,
      "ĠSimon": 7900,
      "Ġpros": 7901,
      "Ġsons": 7902,
      "ĠDomin": 7903,
      "ĠChannel": 7904,
      "pur": 7905,
      "Ġcarbon": 7906,
      "Ġbrain": 7907,
      "ĠRa": 7908,
      "Sources": 7909,
      "Ġcovers": 7910,
      "ĠSix": 7911,
      "rainian": 7912,
      "Ġlock": 7913,
      "Ġpermanent": 7914,
      "Ġbenefits": 7915,
      "mid": 7916,
      "imensional": 7917,
      "ĠBuilding": 7918,
      "icial": 7919,
      "Cal": 7920,
      "Ġandroid": 7921,
      "ĠEric": 7922,
      "Ġbroke": 7923,
      "static": 7924,
      "Ġsale": 7925,
      "ĠFame": 7926,
      "awn": 7927,
      "Ġsixth": 7928,
      "Ġsought": 7929,
      "Ġaffect": 7930,
      "Ġworldwide": 7931,
      "Ġaged": 7932,
      "issippi": 7933,
      "iami": 7934,
      "enez": 7935,
      "ocratic": 7936,
      "Ġmayor": 7937,
      "Australian": 7938,
      "ĠIsraeli": 7939,
      "Ġadvantage": 7940,
      "SI": 7941,
      "Ġattempted": 7942,
      "ĠMarine": 7943,
      "Ġtrains": 7944,
      "ĠTokyo": 7945,
      "ifer": 7946,
      "iley": 7947,
      "ĠToday": 7948,
      "Ġsend": 7949,
      "Ġtrained": 7950,
      "Ġhour": 7951,
      "Ġcauses": 7952,
      "Ġdescribe": 7953,
      "ĠSoc": 7954,
      "Ġentirely": 7955,
      "orrow": 7956,
      "Ġdrums": 7957,
      "inth": 7958,
      "Ġfrag": 7959,
      "ĠOF": 7960,
      "rÃ©": 7961,
      "ĠNap": 7962,
      "ĠLic": 7963,
      "ĠOnly": 7964,
      "ĠJam": 7965,
      "Ġconcerns": 7966,
      "ailing": 7967,
      "that": 7968,
      "RC": 7969,
      "Ġinvolving": 7970,
      "Ġbiggest": 7971,
      "Euro": 7972,
      "osition": 7973,
      "ĠSwitzerland": 7974,
      "ĠCall": 7975,
      "ĠSenior": 7976,
      "Met": 7977,
      "oured": 7978,
      "Ġkilling": 7979,
      "OW": 7980,
      "Ġthousands": 7981,
      "adi": 7982,
      "Ġabsol": 7983,
      "ĠHur": 7984,
      "Ġresc": 7985,
      "Ġneut": 7986,
      "Life": 7987,
      "Ġaf": 7988,
      "Ġmist": 7989,
      "Ġpassing": 7990,
      "hetic": 7991,
      ")</": 7992,
      "ĠEvery": 7993,
      "Hon": 7994,
      "ĠLeb": 7995,
      "ĠSquadron": 7996,
      "Ġsolutions": 7997,
      "Ġiron": 7998,
      "800": 7999,
      "Ġdirectors": 8000,
      "ints": 8001,
      "Ġproved": 8002,
      "Ġment": 8003,
      "look": 8004,
      "Point": 8005,
      "idge": 8006,
      "Ġcharges": 8007,
      "Ġdelay": 8008,
      "Ġpredict": 8009,
      "Ġtower": 8010,
      "Although": 8011,
      "Ġtruth": 8012,
      "ĠGi": 8013,
      "ashed": 8014,
      "ĠAge": 8015,
      "Following": 8016,
      "Ġsucceeded": 8017,
      "rett": 8018,
      "Ġanimal": 8019,
      "Ġrevolution": 8020,
      "Ġfinds": 8021,
      "Ġdoct": 8022,
      "Ġvolunte": 8023,
      "care": 8024,
      "agen": 8025,
      "ĠTemple": 8026,
      "height": 8027,
      "ĠForces": 8028,
      "usal": 8029,
      "Ġgender": 8030,
      "Ġhotel": 8031,
      "Ġfaced": 8032,
      "Ġachieve": 8033,
      "Ġbodies": 8034,
      "Ġrelevant": 8035,
      "github": 8036,
      "Ġfought": 8037,
      "1890": 8038,
      "ublin": 8039,
      "last": 8040,
      "Ġcontributed": 8041,
      "ĠEqu": 8042,
      "ĠCommonwealth": 8043,
      "method": 8044,
      "ĠThrough": 8045,
      "ĠKat": 8046,
      "Ġpromotion": 8047,
      "spe": 8048,
      "Ġpainter": 8049,
      "ĠEnergy": 8050,
      "Ġjobs": 8051,
      "pa": 8052,
      "Cons": 8053,
      "Ġsafe": 8054,
      "Ġdoor": 8055,
      "ĠNative": 8056,
      "otional": 8057,
      "forcement": 8058,
      "Ġlegislation": 8059,
      "oding": 8060,
      "Ġpersons": 8061,
      "ambiguation": 8062,
      "Ġhorse": 8063,
      "Det": 8064,
      "Ġchoose": 8065,
      "}),": 8066,
      "low": 8067,
      "Ġpicture": 8068,
      "Ġgreatest": 8069,
      "ĠStone": 8070,
      "Ġtests": 8071,
      "langle": 8072,
      "ĠHoward": 8073,
      "ĠQueensland": 8074,
      "){": 8075,
      "<!--": 8076,
      "eger": 8077,
      "EX": 8078,
      "Last": 8079,
      "Ġindependence": 8080,
      "Ġmaintain": 8081,
      "ĠBrian": 8082,
      "ĠDa": 8083,
      "acent": 8084,
      "LA": 8085,
      "eria": 8086,
      "Ġglass": 8087,
      "Ġmagn": 8088,
      "anes": 8089,
      "Ġsum": 8090,
      "Ġdig": 8091,
      "Ġsoci": 8092,
      "Ġprogramme": 8093,
      "ĠLow": 8094,
      "Ġisn": 8095,
      "Ġmanagers": 8096,
      "ĠDeb": 8097,
      "Ġphen": 8098,
      "BI": 8099,
      "Ġmales": 8100,
      "Ġsettled": 8101,
      "ikh": 8102,
      "Ġcompris": 8103,
      "ĠKitt": 8104,
      "amental": 8105,
      "FI": 8106,
      "elve": 8107,
      ">(": 8108,
      "nabla": 8109,
      "Ġdiagn": 8110,
      "incess": 8111,
      "Ġcatal": 8112,
      "Ġliterary": 8113,
      "zh": 8114,
      "ials": 8115,
      "Ġscope": 8116,
      "Ġopinion": 8117,
      "Af": 8118,
      "aby": 8119,
      "ĠEarl": 8120,
      "aza": 8121,
      "oa": 8122,
      "Ġpoly": 8123,
      "anned": 8124,
      "Ġsell": 8125,
      "ĠRegional": 8126,
      "atin": 8127,
      "Ġlawyer": 8128,
      "ĠColomb": 8129,
      "ĠBillboard": 8130,
      "Ġflat": 8131,
      "Ġnotice": 8132,
      "They": 8133,
      "ĠDiego": 8134,
      "However": 8135,
      "Ġdecade": 8136,
      "Ġmusician": 8137,
      "Property": 8138,
      "Ġfit": 8139,
      "Ġfolk": 8140,
      "Ġremove": 8141,
      "elle": 8142,
      "Ġsomew": 8143,
      "Ġconver": 8144,
      "Ġhistorian": 8145,
      "hard": 8146,
      "ĠNorwegian": 8147,
      "alty": 8148,
      "ĠAbd": 8149,
      "inking": 8150,
      "ĠWalter": 8151,
      "Ġframework": 8152,
      "eting": 8153,
      "ĠFa": 8154,
      "wick": 8155,
      "aux": 8156,
      "ĠGoogle": 8157,
      "ĠFriday": 8158,
      "jav": 8159,
      "Ġyellow": 8160,
      "mbox": 8161,
      "Ġrich": 8162,
      "force": 8163,
      "ĠTurkish": 8164,
      "Ġbands": 8165,
      "Ġfix": 8166,
      "TP": 8167,
      "ĠCost": 8168,
      "ĠMedicine": 8169,
      "ĠDC": 8170,
      "ĠRoll": 8171,
      "Ġexternal": 8172,
      "Ġspin": 8173,
      "ĠHig": 8174,
      "These": 8175,
      "Ġqualified": 8176,
      "ĠVo": 8177,
      "ensure": 8178,
      "Ġhear": 8179,
      "Ġjourney": 8180,
      "ĠHans": 8181,
      "Ġgalax": 8182,
      "ĠOklahoma": 8183,
      "Ġoffices": 8184,
      "bin": 8185,
      "0000": 8186,
      "ĠTy": 8187,
      "annels": 8188,
      "endment": 8189,
      "Ġutil": 8190,
      "ĠRose": 8191,
      "Phi": 8192,
      "ardo": 8193,
      "Ġisol": 8194,
      "Ġ(,": 8195,
      "ypes": 8196,
      "alian": 8197,
      "Ġdescribes": 8198,
      "Ġdriving": 8199,
      "1909": 8200,
      "itionally": 8201,
      "mont": 8202,
      "ĠLabour": 8203,
      "Ġovers": 8204,
      "Ġethnic": 8205,
      "Ġcenturies": 8206,
      "ldots": 8207,
      "encing": 8208,
      "Ġec": 8209,
      "ĠDoctor": 8210,
      "UE": 8211,
      "Ġrein": 8212,
      "Ġopportunities": 8213,
      "Ġjump": 8214,
      "1905": 8215,
      "Ġyield": 8216,
      "Ġpilot": 8217,
      "ĠPolicy": 8218,
      "Ġappropriate": 8219,
      "Ġphotograph": 8220,
      "null": 8221,
      "vo": 8222,
      "ĠDun": 8223,
      "Ġpractices": 8224,
      "arner": 8225,
      "North": 8226,
      "Ġlatest": 8227,
      "ĠRef": 8228,
      "Ġlyrics": 8229,
      "Ġprof": 8230,
      "ĠChile": 8231,
      "Ġcharged": 8232,
      "ĠEmperor": 8233,
      "Ġdifferences": 8234,
      "ĠSound": 8235,
      "pop": 8236,
      "Ġclosely": 8237,
      "ieval": 8238,
      "ĠAllen": 8239,
      "Ġ(;": 8240,
      "ĠCommunic": 8241,
      "Ġmolec": 8242,
      "Ġintelligence": 8243,
      "Ġfounding": 8244,
      "ĠDonald": 8245,
      "Gl": 8246,
      "iÃ³n": 8247,
      "Ġsuperv": 8248,
      "Ġretirement": 8249,
      "Ġresolution": 8250,
      "Ġattacked": 8251,
      "oyd": 8252,
      "Ġairport": 8253,
      "ĠAli": 8254,
      "Ġconverted": 8255,
      "})$": 8256,
      "char": 8257,
      "ceived": 8258,
      "Ġcycle": 8259,
      "Image": 8260,
      "ĠGib": 8261,
      "Ġcas": 8262,
      "namespace": 8263,
      "Ġadult": 8264,
      "Television": 8265,
      "ĠInfantry": 8266,
      "ocket": 8267,
      "ributes": 8268,
      "ĠBrand": 8269,
      "ĠHouston": 8270,
      "mic": 8271,
      "ĠMarc": 8272,
      "Ġconvers": 8273,
      "ĠBattalion": 8274,
      "Ev": 8275,
      "ĠCatal": 8276,
      "Cent": 8277,
      "enny": 8278,
      "1906": 8279,
      "Ġresponsibility": 8280,
      "ĠBureau": 8281,
      "Å«": 8282,
      "Ġrefers": 8283,
      "Ġimproved": 8284,
      "ushed": 8285,
      "Ġoptim": 8286,
      "ĠNULL": 8287,
      "wich": 8288,
      "Ġsteps": 8289,
      "Wind": 8290,
      "%.": 8291,
      "emble": 8292,
      "Ġdiscussed": 8293,
      "Ġstrike": 8294,
      "Ġchurches": 8295,
      "sect": 8296,
      "Ġnetworks": 8297,
      "Ġargued": 8298,
      "ateur": 8299,
      "ĠGener": 8300,
      "ĠHeart": 8301,
      "aded": 8302,
      "Ġinstalled": 8303,
      "edge": 8304,
      "cks": 8305,
      "ĠCare": 8306,
      "ication": 8307,
      "Current": 8308,
      "Ġtick": 8309,
      "utation": 8310,
      "Ġprove": 8311,
      "1907": 8312,
      "Ġweather": 8313,
      "olid": 8314,
      "ĠJay": 8315,
      "ĠBefore": 8316,
      "UL": 8317,
      "Ġratio": 8318,
      "ĠNich": 8319,
      "ĠDream": 8320,
      "ĠID": 8321,
      "only": 8322,
      "Go": 8323,
      "Ġlake": 8324,
      "Ġoccupied": 8325,
      "Ġenemy": 8326,
      "ĠEP": 8327,
      "Ġpossibly": 8328,
      "ĠTel": 8329,
      "atters": 8330,
      "ĠTen": 8331,
      "ĠTelevision": 8332,
      "Ġapart": 8333,
      "ĠTs": 8334,
      "Ġexplained": 8335,
      "Ġrepeated": 8336,
      "overty": 8337,
      "ture": 8338,
      "ĠWolf": 8339,
      "Ġgoods": 8340,
      "Ġnom": 8341,
      "ante": 8342,
      "ĠCemetery": 8343,
      "Ġveter": 8344,
      "Ðº": 8345,
      "Ġkil": 8346,
      "Ġrefuge": 8347,
      "lades": 8348,
      "((": 8349,
      "mosp": 8350,
      "ĠMach": 8351,
      "zer": 8352,
      "disambiguation": 8353,
      "Ġrenew": 8354,
      "entry": 8355,
      "Ġperspect": 8356,
      "ĠMit": 8357,
      "ĠEnt": 8358,
      "lib": 8359,
      "Ġmel": 8360,
      "ensed": 8361,
      "Ġdevices": 8362,
      "ridges": 8363,
      "Ġengaged": 8364,
      "odox": 8365,
      "Ġkick": 8366,
      "oths": 8367,
      "ĠPot": 8368,
      "Ġdie": 8369,
      "db": 8370,
      "mb": 8371,
      "event": 8372,
      "Ġdecor": 8373,
      "Ġuseful": 8374,
      "Ġfinding": 8375,
      "Ġdisapp": 8376,
      "ĠSaf": 8377,
      "Ġvel": 8378,
      "ĠAssoci": 8379,
      "ĠNaval": 8380,
      "GL": 8381,
      "Ġsituated": 8382,
      "ĠSquare": 8383,
      "Ġescape": 8384,
      "ĠHollywood": 8385,
      "Ġtranslation": 8386,
      "Phil": 8387,
      "Ġanswer": 8388,
      "Ġmort": 8389,
      "Rail": 8390,
      "ĠArmen": 8391,
      "ĠMethod": 8392,
      "appro": 8393,
      "\\|": 8394,
      "Ġban": 8395,
      "ĠJordan": 8396,
      "Ġdegrees": 8397,
      "ĠBerg": 8398,
      "ĠPatrick": 8399,
      "ĠĠĠĠĠĠĠĠĠĠĠĠĠĠĠĠĠĠĠĠĠĠĠĠĠĠĠĠĠĠĠ": 8400,
      "Ġestablishment": 8401,
      "Ġfranch": 8402,
      "Pat": 8403,
      "ĠWhit": 8404,
      "phone": 8405,
      "Ġconstra": 8406,
      "Ġheat": 8407,
      "Ġclearly": 8408,
      "rat": 8409,
      "Ġidentify": 8410,
      "Hel": 8411,
      "acewatch": 8412,
      "Ġentertain": 8413,
      "olished": 8414,
      "igious": 8415,
      "olve": 8416,
      "Ġshortly": 8417,
      "Ġtrip": 8418,
      "endar": 8419,
      "including": 8420,
      "Ġroof": 8421,
      "dist": 8422,
      "mi": 8423,
      "Ġvide": 8424,
      "Ġexperienced": 8425,
      "Ġcollaboration": 8426,
      "aro": 8427,
      "itals": 8428,
      "MC": 8429,
      "ĠReb": 8430,
      "Ġsingers": 8431,
      "Ġexception": 8432,
      "Ant": 8433,
      "Ġcharts": 8434,
      "ĠEc": 8435,
      "Ġvictims": 8436,
      "Ġextremely": 8437,
      "display": 8438,
      "Ġscientists": 8439,
      "ĠTan": 8440,
      "ĠHamp": 8441,
      "free": 8442,
      "antasy": 8443,
      "ĠAmong": 8444,
      "Ġcook": 8445,
      "coh": 8446,
      "Ġtypical": 8447,
      "Ġplane": 8448,
      "uilt": 8449,
      "Client": 8450,
      "])": 8451,
      "GBT": 8452,
      "ĠFac": 8453,
      "ĠGab": 8454,
      "Ġdiscussion": 8455,
      "Ġfrequency": 8456,
      "Ġjazz": 8457,
      "inian": 8458,
      "ĠCL": 8459,
      "ribe": 8460,
      "Ġtemple": 8461,
      "Ġguns": 8462,
      "Ġgraduate": 8463,
      "More": 8464,
      "apped": 8465,
      "Ġmathemat": 8466,
      "Ġcommissioned": 8467,
      "Ġtor": 8468,
      "Ġsurname": 8469,
      "Ġdiam": 8470,
      "pdf": 8471,
      "dam": 8472,
      "ĠLemmon": 8473,
      "ĠMrs": 8474,
      "ĠAmaz": 8475,
      "RS": 8476,
      "ĠConnecticut": 8477,
      "Ġintroduction": 8478,
      "hor": 8479,
      "Ġadvent": 8480,
      "plications": 8481,
      "Book": 8482,
      "Off": 8483,
      "flow": 8484,
      "ĠSpacewatch": 8485,
      "ĠMississippi": 8486,
      "ĠSky": 8487,
      "ĠPortuguese": 8488,
      "Ġexcell": 8489,
      "Ġextends": 8490,
      "ĠZh": 8491,
      "Ġscenes": 8492,
      "Ġreserv": 8493,
      "Ġaired": 8494,
      "Ġstorage": 8495,
      "Ġcoverage": 8496,
      "ĠMoore": 8497,
      "hent": 8498,
      "ĠDur": 8499,
      "Me": 8500,
      "1904": 8501,
      "Ġfan": 8502,
      "Ġupdate": 8503,
      "essions": 8504,
      "Ġfiled": 8505,
      "Ġcontribution": 8506,
      "query": 8507,
      "Ġwalls": 8508,
      "Ġrear": 8509,
      "ĠGard": 8510,
      "ãģ": 8511,
      "ĠTherefore": 8512,
      "Ġvoted": 8513,
      "angel": 8514,
      "Ġinvited": 8515,
      "Ġsuggests": 8516,
      "Ġchallenges": 8517,
      "Ġwants": 8518,
      "ĠHu": 8519,
      "Ġexactly": 8520,
      "burn": 8521,
      "Ġcool": 8522,
      "Ġtools": 8523,
      "ĠGram": 8524,
      "Born": 8525,
      "iva": 8526,
      "hab": 8527,
      "ĠMoon": 8528,
      "Ġfoundation": 8529,
      "DS": 8530,
      "'ll": 8531,
      "Ġsections": 8532,
      "bums": 8533,
      "Ġconcluded": 8534,
      "ĠGre": 8535,
      "ĠDisney": 8536,
      "ĠAnne": 8537,
      "ĠIl": 8538,
      "Ġsurg": 8539,
      "leges": 8540,
      "Arch": 8541,
      "Ġmanner": 8542,
      "Ġpoetry": 8543,
      "Ġcomposition": 8544,
      "pack": 8545,
      "ĠLouisiana": 8546,
      "Ġinfrastructure": 8547,
      "cf": 8548,
      "ifact": 8549,
      "bottom": 8550,
      "Ġseconds": 8551,
      "ugu": 8552,
      "uations": 8553,
      "Ġcru": 8554,
      "Ġcompetitions": 8555,
      "Ġceremony": 8556,
      "Ġelectronic": 8557,
      "Ext": 8558,
      "1901": 8559,
      "Ġaspects": 8560,
      "Ġmedium": 8561,
      "Ġgar": 8562,
      "uous": 8563,
      "Ġspecified": 8564,
      "ĠAnthony": 8565,
      "Ġdeleg": 8566,
      "ĠBush": 8567,
      "Ġaccused": 8568,
      "rehens": 8569,
      "ĠNa": 8570,
      "edding": 8571,
      "chant": 8572,
      "Ġconsecutive": 8573,
      "lad": 8574,
      "Ġpurchase": 8575,
      "Override": 8576,
      "Ġvo": 8577,
      "ãĤ": 8578,
      "elson": 8579,
      "Indian": 8580,
      "Ġassistance": 8581,
      "Ġexperiences": 8582,
      "allas": 8583,
      "ĠHarris": 8584,
      "Ġ(),": 8585,
      "subset": 8586,
      "Ġeye": 8587,
      "centering": 8588,
      "ista": 8589,
      "ĠFinn": 8590,
      "ĠSilver": 8591,
      "Ġsymmet": 8592,
      "Ur": 8593,
      "Ġpool": 8594,
      "Ġzone": 8595,
      "III": 8596,
      "Ġattorney": 8597,
      "font": 8598,
      "Leg": 8599,
      "Ġdispl": 8600,
      "tered": 8601,
      "Gener": 8602,
      "ĠAgency": 8603,
      "Ġsun": 8604,
      "gebra": 8605,
      "ĠThird": 8606,
      "omorph": 8607,
      "aron": 8608,
      "ĠObama": 8609,
      "Ġdates": 8610,
      "iden": 8611,
      "ĠWy": 8612,
      "Ġspeak": 8613,
      "Ġvirtual": 8614,
      "1903": 8615,
      "option": 8616,
      "oming": 8617,
      "ported": 8618,
      "rons": 8619,
      "Ġreaction": 8620,
      "ĠHawai": 8621,
      "ĠHeritage": 8622,
      "ĠQuebec": 8623,
      "ĠYouth": 8624,
      "oly": 8625,
      "taining": 8626,
      "Dep": 8627,
      "Ġassumed": 8628,
      "wind": 8629,
      "ĠLocal": 8630,
      "func": 8631,
      "Ġagencies": 8632,
      "exual": 8633,
      "kh": 8634,
      "Ġeffic": 8635,
      "Notable": 8636,
      "Ġadding": 8637,
      "Ġsoccer": 8638,
      "Ġjoining": 8639,
      "ĠDark": 8640,
      "olt": 8641,
      "orro": 8642,
      "Ġinhabit": 8643,
      "Ġalt": 8644,
      "ĠCooper": 8645,
      "ĠWhe": 8646,
      "Ġvision": 8647,
      "Ġreplace": 8648,
      "Ġfiles": 8649,
      "ĠNet": 8650,
      "opter": 8651,
      "cious": 8652,
      "ingly": 8653,
      "adding": 8654,
      "ĠNS": 8655,
      "ĠHarvard": 8656,
      "ĠNCAA": 8657,
      "ĠLas": 8658,
      "Ġhair": 8659,
      "Ġvary": 8660,
      "png": 8661,
      "otte": 8662,
      "Ġdisestabl": 8663,
      "Ġcapture": 8664,
      "Äĥ": 8665,
      "Ġcausing": 8666,
      "ĠHonor": 8667,
      "ĠCook": 8668,
      "Ġdrawn": 8669,
      "Education": 8670,
      "Ġopera": 8671,
      "ellect": 8672,
      "ĠGrant": 8673,
      "ATE": 8674,
      "Ġsand": 8675,
      "apse": 8676,
      "Ġsustain": 8677,
      "ogether": 8678,
      "Ġrecommend": 8679,
      "ĠCre": 8680,
      "rin": 8681,
      "ĠArgentina": 8682,
      "Ġcourts": 8683,
      "Ġimplementation": 8684,
      "Ġstrict": 8685,
      "Ġsportspeople": 8686,
      "profit": 8687,
      "Ġtennis": 8688,
      "Ġhumans": 8689,
      "Ġheavily": 8690,
      "Ġsole": 8691,
      "ĠKy": 8692,
      "olo": 8693,
      "ĠChall": 8694,
      "merce": 8695,
      "Sch": 8696,
      "ĠPsych": 8697,
      "ĠBor": 8698,
      "Ġstanding": 8699,
      "Ġlaid": 8700,
      "Prov": 8701,
      "andra": 8702,
      "Ġcontrolled": 8703,
      "ifies": 8704,
      "Ġresistance": 8705,
      "Her": 8706,
      "Har": 8707,
      "Ġdepict": 8708,
      "ĠBrigade": 8709,
      "Ġeyes": 8710,
      "ĠBry": 8711,
      "Ġprime": 8712,
      "Ġcustomers": 8713,
      "Ġdream": 8714,
      "Ġclassification": 8715,
      "oen": 8716,
      "inations": 8717,
      "dir": 8718,
      "Ġready": 8719,
      "imore": 8720,
      "Util": 8721,
      "ĠHotel": 8722,
      "Ġdismiss": 8723,
      "target": 8724,
      "1880": 8725,
      "Ġped": 8726,
      "Ġmetres": 8727,
      "ĠTaiwan": 8728,
      "ĠMap": 8729,
      "ĠOak": 8730,
      "Ġbatter": 8731,
      "Ġsteel": 8732,
      "Ġassault": 8733,
      "Football": 8734,
      "rot": 8735,
      "grade": 8736,
      "rane": 8737,
      "Ġmobile": 8738,
      "ĠGordon": 8739,
      "ĠDetroit": 8740,
      "ĠType": 8741,
      "ĠPope": 8742,
      "ĠDouglas": 8743,
      "Ġ<<": 8744,
      "ictionary": 8745,
      "ĠTreat": 8746,
      "1902": 8747,
      "ĠFriend": 8748,
      "ĠObject": 8749,
      "sole": 8750,
      "call": 8751,
      "ensuremath": 8752,
      "Ġstd": 8753,
      "LC": 8754,
      "Ġparticipate": 8755,
      "ensions": 8756,
      "issance": 8757,
      "Ġopposite": 8758,
      "Rem": 8759,
      "ruption": 8760,
      "ĠCroat": 8761,
      "110": 8762,
      "emen": 8763,
      "Ġpush": 8764,
      "Ġproducing": 8765,
      "Ġmarkets": 8766,
      "cup": 8767,
      "zi": 8768,
      "Ġfactory": 8769,
      "Ġprepared": 8770,
      "ĠBulg": 8771,
      "ĠPas": 8772,
      "ellite": 8773,
      "Box": 8774,
      "leveland": 8775,
      "dale": 8776,
      "Start": 8777,
      "Ġinfluenced": 8778,
      "Ġassign": 8779,
      "Ġmaintained": 8780,
      "MM": 8781,
      "Ġowners": 8782,
      "Ġsqu": 8783,
      "ographical": 8784,
      "Sigma": 8785,
      "main": 8786,
      "Ã©s": 8787,
      "ĠAgain": 8788,
      "Ġbroken": 8789,
      "Ġconsisted": 8790,
      "Ġtrav": 8791,
      "inition": 8792,
      "eland": 8793,
      "Ġinaug": 8794,
      "Ġmassive": 8795,
      "ĠMiami": 8796,
      "ĠMand": 8797,
      "ĠNAS": 8798,
      "ĠChampions": 8799,
      "owntown": 8800,
      "Ġduty": 8801,
      "Ġbool": 8802,
      "agg": 8803,
      "search": 8804,
      "Ġdebate": 8805,
      "ĠKaz": 8806,
      "Ġstands": 8807,
      "android": 8808,
      "Ġpaintings": 8809,
      "iner": 8810,
      "ĠRey": 8811,
      "ĠNon": 8812,
      "nonumber": 8813,
      "ĠCode": 8814,
      "ĠSwiss": 8815,
      "bot": 8816,
      "ECT": 8817,
      "Status": 8818,
      "Ã©t": 8819,
      "oded": 8820,
      "Ġacknow": 8821,
      "don": 8822,
      "ners": 8823,
      "Ġinjured": 8824,
      "ĠBrun": 8825,
      "Action": 8826,
      "Ġkid": 8827,
      "Ġprobability": 8828,
      "Ġhelping": 8829,
      "Note": 8830,
      "eron": 8831,
      "ishment": 8832,
      "bound": 8833,
      "Ġbuy": 8834,
      "oses": 8835,
      "inces": 8836,
      "Ġtrend": 8837,
      "Military": 8838,
      "aked": 8839,
      "Mark": 8840,
      "Ġtall": 8841,
      "Line": 8842,
      "anton": 8843,
      "Ġdelivered": 8844,
      "ĠDal": 8845,
      "thodox": 8846,
      "Ġconvent": 8847,
      "Ġshooting": 8848,
      "inburgh": 8849,
      "ĠDefense": 8850,
      "Ġstadium": 8851,
      "Most": 8852,
      "card": 8853,
      "Ġreaching": 8854,
      "Ġteachers": 8855,
      "Aut": 8856,
      "arser": 8857,
      "Ġarmed": 8858,
      "Ġphilosophy": 8859,
      "Ġli": 8860,
      "ĠSin": 8861,
      "ĠRyan": 8862,
      "actor": 8863,
      "ĠEag": 8864,
      "Query": 8865,
      "ĠBelgium": 8866,
      "ĠPrix": 8867,
      "ĠRecord": 8868,
      "isted": 8869,
      "Ġphone": 8870,
      "ellows": 8871,
      "Ġquantum": 8872,
      "ods": 8873,
      "Ġuniversities": 8874,
      "chell": 8875,
      "Ġoperate": 8876,
      "HT": 8877,
      "Ġbringing": 8878,
      "ĠMcG": 8879,
      "Ġdrop": 8880,
      "oslav": 8881,
      "ĠPhill": 8882,
      "etch": 8883,
      "Ġundert": 8884,
      "tsburgh": 8885,
      "antly": 8886,
      "Ġwarm": 8887,
      "/\\": 8888,
      "Ġshell": 8889,
      "ĠNik": 8890,
      "CP": 8891,
      "udes": 8892,
      "Ġrival": 8893,
      "Ġagree": 8894,
      "Ġpublications": 8895,
      "ĠDak": 8896,
      "Ste": 8897,
      "Component": 8898,
      "Ġabandoned": 8899,
      "ĠNag": 8900,
      "ĠTerrit": 8901,
      "ĠRab": 8902,
      "ĠLiberal": 8903,
      "Ġbed": 8904,
      "Ġthinking": 8905,
      "Ġassume": 8906,
      "Plot": 8907,
      "ometry": 8908,
      "ĠMayor": 8909,
      "Ġpasses": 8910,
      "Ġsecretary": 8911,
      "ĠIns": 8912,
      "ĠHom": 8913,
      "Ag": 8914,
      "ĠSud": 8915,
      "Ġspaces": 8916,
      "iciency": 8917,
      "Vill": 8918,
      "ĠNone": 8919,
      "rows": 8920,
      "Ġchanging": 8921,
      "Ġresearchers": 8922,
      "Ġdecisions": 8923,
      "ĠHockey": 8924,
      "otimes": 8925,
      "Ġfinite": 8926,
      "Ġreign": 8927,
      "apolis": 8928,
      "Club": 8929,
      "father": 8930,
      "ĠVillage": 8931,
      "ĠCulture": 8932,
      "inciple": 8933,
      "Ġregime": 8934,
      ")\"": 8935,
      "BL": 8936,
      ";\\": 8937,
      "olar": 8938,
      "Ġswitch": 8939,
      "fa": 8940,
      "Ġturns": 8941,
      "ONT": 8942,
      "ĠPortugal": 8943,
      "CR": 8944,
      "ĠGarden": 8945,
      "Ġsuff": 8946,
      "David": 8947,
      "ĠÄ": 8948,
      "ĠRoberts": 8949,
      "Ð»": 8950,
      "Ġaccompl": 8951,
      "Nav": 8952,
      "ĠAtlanta": 8953,
      "opping": 8954,
      "Ġparallel": 8955,
      "ĠDenmark": 8956,
      "Ġfear": 8957,
      "alysis": 8958,
      "Builder": 8959,
      "Ġplanet": 8960,
      "Ġdepth": 8961,
      "essed": 8962,
      "Mich": 8963,
      "dest": 8964,
      "Ġsupposed": 8965,
      "mouth": 8966,
      "ossible": 8967,
      "Ġsegment": 8968,
      "ĠKam": 8969,
      "Ġretail": 8970,
      "ĠAlber": 8971,
      "Two": 8972,
      "Ġpione": 8973,
      "ĠFacebook": 8974,
      "ĠAntonio": 8975,
      "Ġwel": 8976,
      "ĠPuerto": 8977,
      "Do": 8978,
      "ivation": 8979,
      "Ġmedicine": 8980,
      "Ġmilit": 8981,
      "Ġgrav": 8982,
      "ailand": 8983,
      "Ġobvious": 8984,
      "rary": 8985,
      "Ġpatient": 8986,
      "ĠVin": 8987,
      "ĠDick": 8988,
      "ĠCru": 8989,
      "Ġbehavi": 8990,
      "called": 8991,
      "ounsel": 8992,
      "Ġgone": 8993,
      "Ġfavour": 8994,
      "oust": 8995,
      "redited": 8996,
      "ĠDeath": 8997,
      "ĠRetrieved": 8998,
      "rik": 8999,
      "ĠExpress": 9000,
      "high": 9001,
      "Ġaw": 9002,
      "({": 9003,
      "Ġboolean": 9004,
      "ĠHop": 9005,
      "elli": 9006,
      "Ġeg": 9007,
      "Red": 9008,
      "Ġprocessing": 9009,
      "formance": 9010,
      "Ġoffering": 9011,
      "Ġthick": 9012,
      "Ġauto": 9013,
      "Ġstress": 9014,
      "Ġboat": 9015,
      "oca": 9016,
      "Ġdetailed": 9017,
      "Input": 9018,
      "Ġcricket": 9019,
      "Ġchose": 9020,
      "Stream": 9021,
      "Next": 9022,
      "Now": 9023,
      "isd": 9024,
      ";\"|": 9025,
      "header": 9026,
      "Ġpreced": 9027,
      "ussion": 9028,
      "inate": 9029,
      "Ġmagnetic": 9030,
      "Ġchair": 9031,
      "Ġconsisting": 9032,
      "ĠArkansas": 9033,
      "abad": 9034,
      "Ġvirus": 9035,
      "Ġruled": 9036,
      "Ġconcerned": 9037,
      "ĠBowl": 9038,
      "ĠNob": 9039,
      "ĠBan": 9040,
      "aware": 9041,
      "ĠStudios": 9042,
      "ĠDVD": 9043,
      "ocity": 9044,
      "BO": 9045,
      "perties": 9046,
      "Ġessential": 9047,
      "ĠPa": 9048,
      "ĠEarly": 9049,
      "AME": 9050,
      "kappa": 9051,
      "auge": 9052,
      "Ġtouchdown": 9053,
      "ĠSport": 9054,
      "Ġstores": 9055,
      "Video": 9056,
      "Ø§": 9057,
      "client": 9058,
      "unnel": 9059,
      "ĠLyn": 9060,
      "Fe": 9061,
      "ĠSel": 9062,
      "Ġemergency": 9063,
      "lie": 9064,
      "ĠAR": 9065,
      "ĠOriginal": 9066,
      "Ġchapter": 9067,
      "ĠStew": 9068,
      "Ġhired": 9069,
      "dot": 9070,
      "Ġinterior": 9071,
      "pg": 9072,
      "gence": 9073,
      "nest": 9074,
      "Bel": 9075,
      "Ġvariable": 9076,
      "ucks": 9077,
      "Ġshares": 9078,
      "Ġindicate": 9079,
      "Ġacid": 9080,
      "ĠPeace": 9081,
      "ĠFarm": 9082,
      "ĠTable": 9083,
      "rect": 9084,
      "Ġinner": 9085,
      "Ġnations": 9086,
      "ritical": 9087,
      "Ġregularly": 9088,
      "ogg": 9089,
      "ĠIndonesia": 9090,
      "ĠAle": 9091,
      "uj": 9092,
      "Ġhearing": 9093,
      "Command": 9094,
      "Ġentrance": 9095,
      "reprene": 9096,
      "Star": 9097,
      "Ġcourses": 9098,
      "asi": 9099,
      "Ġaccommod": 9100,
      "acher": 9101,
      "Ġprotein": 9102,
      "LO": 9103,
      "Ġstrongly": 9104,
      "ĠLINE": 9105,
      "Ġinvasion": 9106,
      "finals": 9107,
      "Ġmerged": 9108,
      "Ġcompete": 9109,
      "child": 9110,
      "ĠFall": 9111,
      "Ġsevere": 9112,
      "High": 9113,
      "button": 9114,
      "ĠOrchestra": 9115,
      "Ġdang": 9116,
      "Ġscholar": 9117,
      "dots": 9118,
      "ĠBanglades": 9119,
      "rama": 9120,
      "NN": 9121,
      "ĠĠĠĠĠĠĠĠĠĠĠĠĠĠĠĠĠ": 9122,
      "ĠRow": 9123,
      "number": 9124,
      "Ġstating": 9125,
      "ĠWalker": 9126,
      "ĠArchitect": 9127,
      "Ġdry": 9128,
      "Ġroot": 9129,
      "Ġcold": 9130,
      "Ġteen": 9131,
      "TY": 9132,
      "eli": 9133,
      "Ju": 9134,
      "UK": 9135,
      "Ġlocomot": 9136,
      "died": 9137,
      "Ã¥": 9138,
      "ĠIndependent": 9139,
      "istical": 9140,
      "ĠModel": 9141,
      "ĠNote": 9142,
      "rena": 9143,
      "ĠComput": 9144,
      "${": 9145,
      "dep": 9146,
      "ĠMcK": 9147,
      "Ġbanks": 9148,
      "Ġregarded": 9149,
      "ĠDublin": 9150,
      "ping": 9151,
      "Ġanth": 9152,
      "ĠEconomic": 9153,
      "close": 9154,
      "uscript": 9155,
      "ĠPed": 9156,
      "Ġhighway": 9157,
      "ĠAlan": 9158,
      "roke": 9159,
      "ĠMonday": 9160,
      "1898": 9161,
      "CS": 9162,
      "author": 9163,
      "ulating": 9164,
      "Ġorient": 9165,
      "Black": 9166,
      "ĠKennedy": 9167,
      "atherine": 9168,
      "ĠBuck": 9169,
      "Ġbeautiful": 9170,
      "Ġunless": 9171,
      "pping": 9172,
      "Ġinher": 9173,
      "ename": 9174,
      "ĠDead": 9175,
      "ĠHistorical": 9176,
      "ĠDigital": 9177,
      "Run": 9178,
      "Ġclassic": 9179,
      "argo": 9180,
      "ĠUtah": 9181,
      "ĠSamuel": 9182,
      "pes": 9183,
      "Ġincorporated": 9184,
      "Transport": 9185,
      "master": 9186,
      "}}{": 9187,
      "oni": 9188,
      "Ġpassenger": 9189,
      "Ġlayer": 9190,
      "dat": 9191,
      "ĠHug": 9192,
      "enezuel": 9193,
      "ĠLieutenant": 9194,
      "ĠLawrence": 9195,
      "Ġrejected": 9196,
      "Ġemployment": 9197,
      "king": 9198,
      "wen": 9199,
      "\\!": 9200,
      "Ġgrounds": 9201,
      "Ġaccounts": 9202,
      "options": 9203,
      "ivated": 9204,
      "Ġkeyboard": 9205,
      "eget": 9206,
      "Ġdrivers": 9207,
      "issions": 9208,
      "Ġcamera": 9209,
      "okes": 9210,
      "Ġadvis": 9211,
      "Ġremark": 9212,
      "leton": 9213,
      "Ġcomic": 9214,
      "ĠGuide": 9215,
      "ĠBrazilian": 9216,
      "ĠDanish": 9217,
      "Ġstopped": 9218,
      "Ġstreets": 9219,
      "ando": 9220,
      "Ġlicense": 9221,
      "Ġactresses": 9222,
      "Reception": 9223,
      "ĠChairman": 9224,
      "iveness": 9225,
      "Ġanniversary": 9226,
      "ĠSn": 9227,
      "args": 9228,
      "Ġliqu": 9229,
      "request": 9230,
      "ĠKer": 9231,
      "ĠReserve": 9232,
      "ĠKevin": 9233,
      "ĠObs": 9234,
      "Web": 9235,
      "Ep": 9236,
      "AV": 9237,
      "audi": 9238,
      "udden": 9239,
      "izont": 9240,
      "Ġrepro": 9241,
      "Rober": 9242,
      ".'": 9243,
      "append": 9244,
      "ĠJuan": 9245,
      "nie": 9246,
      "Ġchampions": 9247,
      "ĠCow": 9248,
      "Ġcaught": 9249,
      "ĠPap": 9250,
      "ĠKl": 9251,
      "Ġboys": 9252,
      "ĠEdinburgh": 9253,
      "ĠSocorro": 9254,
      "member": 9255,
      "bassador": 9256,
      "leans": 9257,
      "ĠHills": 9258,
      "ĠFood": 9259,
      "Ġrelationships": 9260,
      "ĠSingh": 9261,
      "Rad": 9262,
      "ĠST": 9263,
      "tabular": 9264,
      "áĥ": 9265,
      "ĠDave": 9266,
      "Ġinterface": 9267,
      "ĠWed": 9268,
      "ĠLINEAR": 9269,
      "ĠChild": 9270,
      "disc": 9271,
      "Ġfleet": 9272,
      "chers": 9273,
      "project": 9274,
      "Ġlinked": 9275,
      "Ġlands": 9276,
      "Ġracial": 9277,
      "eding": 9278,
      "Ġthin": 9279,
      "Europe": 9280,
      "rea": 9281,
      "{-": 9282,
      "Ġbrown": 9283,
      "EP": 9284,
      "ĠOd": 9285,
      "ĠLegislative": 9286,
      "Roman": 9287,
      "Ġoccas": 9288,
      "Ġinsurance": 9289,
      "Ġatmosp": 9290,
      "iot": 9291,
      "emplate": 9292,
      "Ġrent": 9293,
      "Ġattached": 9294,
      "Ġpup": 9295,
      "enz": 9296,
      "irds": 9297,
      "Ġtack": 9298,
      "Ġtranslated": 9299,
      "Ġextent": 9300,
      "Ġlegend": 9301,
      "ribed": 9302,
      "Ġbriefly": 9303,
      "oda": 9304,
      "Ġjunior": 9305,
      "Ġagents": 9306,
      "ĠFrederick": 9307,
      "Our": 9308,
      "Ġabuse": 9309,
      "1899": 9310,
      "ĠDeputy": 9311,
      "estyle": 9312,
      "Ġtreated": 9313,
      "ĠJun": 9314,
      "ibl": 9315,
      "Ġselling": 9316,
      "widet": 9317,
      "Ġplus": 9318,
      "Former": 9319,
      "Ġhighlight": 9320,
      "Ġaccompan": 9321,
      "acle": 9322,
      "ensor": 9323,
      "ĠCollection": 9324,
      "uy": 9325,
      "ĠMaur": 9326,
      "ĠMalaysia": 9327,
      "ĠLaure": 9328,
      "ĠRest": 9329,
      "aire": 9330,
      "Ġmidfield": 9331,
      "azines": 9332,
      "Expatriate": 9333,
      "Mus": 9334,
      "Ġcancell": 9335,
      "Link": 9336,
      "Ġmovies": 9337,
      "Ġcomparison": 9338,
      "Ġ->": 9339,
      "Ġcrowd": 9340,
      ")]": 9341,
      "Academ": 9342,
      "ĠAfghanistan": 9343,
      "Ġgene": 9344,
      "Ġmodule": 9345,
      "Ġmanif": 9346,
      "xml": 9347,
      "Ġreferences": 9348,
      "ĠCensus": 9349,
      "tenance": 9350,
      "Ġcro": 9351,
      "Ġancest": 9352,
      "1870": 9353,
      "Ġlegisl": 9354,
      "ĠImperial": 9355,
      "Ġchannels": 9356,
      "olly": 9357,
      "intend": 9358,
      "Ġlit": 9359,
      "onom": 9360,
      "ĠPlace": 9361,
      "server": 9362,
      "ctic": 9363,
      "Ġislands": 9364,
      "ĠĠĠĠĠĠĠĠĊ": 9365,
      "Ġexplicit": 9366,
      "Ġvideos": 9367,
      "arest": 9368,
      "Ġincreasingly": 9369,
      "Ġadapted": 9370,
      "ĠBuddh": 9371,
      "Ġhyper": 9372,
      "die": 9373,
      "ĠLam": 9374,
      "Ġhits": 9375,
      "Ġpoverty": 9376,
      "atar": 9377,
      "Ġmonitor": 9378,
      "wall": 9379,
      "ĠBou": 9380,
      "Instance": 9381,
      "ĠMorgan": 9382,
      "Direct": 9383,
      "Ġresidence": 9384,
      "Ġreserve": 9385,
      "heastern": 9386,
      "Ġadmitted": 9387,
      "oria": 9388,
      "ĠFigure": 9389,
      "bean": 9390,
      "borough": 9391,
      "rypt": 9392,
      "vi": 9393,
      "ĠSupport": 9394,
      "ĠOnce": 9395,
      "navbar": 9396,
      "ĠTar": 9397,
      "ĠRub": 9398,
      "ĠFern": 9399,
      "Ġvisible": 9400,
      "Ġcomments": 9401,
      "Ġfinishing": 9402,
      "Que": 9403,
      "ĠDue": 9404,
      "iday": 9405,
      "Ġstages": 9406,
      "Ã´": 9407,
      "Ġguarant": 9408,
      "inch": 9409,
      "ĠFA": 9410,
      "LS": 9411,
      "*/": 9412,
      "ĠSign": 9413,
      "iration": 9414,
      "Ġsurpr": 9415,
      "Ġabsor": 9416,
      "Ġfly": 9417,
      "aired": 9418,
      "ĠLanc": 9419,
      "ĠUl": 9420,
      "Ġbirds": 9421,
      "Ġengines": 9422,
      "ĠTrade": 9423,
      "Ġpapers": 9424,
      "Ġbalance": 9425,
      "otted": 9426,
      "dy": 9427,
      "Ġagricultural": 9428,
      "Ġresigned": 9429,
      "plex": 9430,
      "ĠAction": 9431,
      "itory": 9432,
      "Ġinhabitants": 9433,
      "Ġexperimental": 9434,
      "ugin": 9435,
      "scription": 9436,
      "iverpool": 9437,
      "Ġsecure": 9438,
      "Ġgather": 9439,
      "Ġshut": 9440,
      "Ġtool": 9441,
      "Tube": 9442,
[...]
