#version: 0.2
Ġ Ġ
ĠĠ ĠĠ
i n
Ġ t
o n
e r
a t
r e
h e
Ġ a
e n
ĠĠ Ġ
o r
ĠĠĠĠ ĠĠĠĠ
s t
a l
Ġt he
i on
l e
i t
Ġ c
a r
s e
a n
i s
Ġ f
d e
Ġ o
c t
r o
Ġ s
m e
Ġ p
in g
i c
Ġ \
Ġ w
Ġ $
Ġ b
Ġ in
e d
en t
e s
ĠĠĠĠ ĠĠĠ
n d
Ġo f
Ġ =
u r
e t
a s
Ġ n
i g
ĉ ĉ
Ġ re
u t
Ġ (
a c
Ġt h
Ġ m
Ġt o
e l
at ion
Ġ {
i l
) ;
Ġa nd
Ġ d
e x
o l
m p
o t
u l
u n
i f
r a
Ġ <
i d
l o
Ġ h
- -
č Ċ
Ġ *
i v
Ġ is
c e
_ {
q u
a b
Ġ v
t h
ĠĠĠĠĠĠĠĠ ĠĠĠ
= "
p e
/ /
ct ion
Ġ T
a g
at e
a me
u m
< /
Ġ }
Ġ S
Ġf or
a d
t r
Ġ g
t er
Ġ st
Ġ e
Ġ l
u s
c h
en d
a m
Ġc on
c o
i m
at h
{ \
p t
h t
s s
l y
Ġ C
v er
Ġ de
it h
as s
Ġ A
Ġc o
u e
i st
u b
Ġb e
Ġ &
ex t
I n
Ġ se
Ġ$ \
ĠĠĠĠ Ġ
r i
ĠĠĠĠĠĠĠĠ ĠĠĠĠĠĠĠĠ
Ġ on
a p
o w
t a
* *
e m
u p
Ġth at
ur n
Ġ "
( )
s p
e ct
" >
e w
e st
a v
m ath
i r
o d
l ass
re f
a y
u re
Ġp ro
in e
t urn
ag e
o de
Ġth is
y pe
or t
Ġw ith
an d
= =
e g
i z
ig ht
p h
Ġ Ċ
m a
a se
Ġa n
Ġ M
m ent
Ġ if
ab le
l i
ul t
c al
} \
Ġ P
Ġa l
t o
er s
Ġ '
in t
-- --
^ {
} $
0 0
c on
it y
ar t
Ġ F
Ġ I
p er
it e
Ġ ex
Ġ R
Ġa s
Ġw e
un ction
g et
ac k
er e
Ġw h
Ġ D
Ġ B
i al
ro m
i me
ĠĠĠĠĠĠĠĠ ĠĠĠĠĠĠĠ
pt ion
an g
o ur
Ġb y
ĠT he
l ic
o re
Ġ or
u nd
k e
Ġ L
Ġ it
at a
i le
Ġa re
. .
c k
Ġ -
Ġ //
o m
or m
p ro
Ġ N
Ġc lass
t ext
f t
Ġ E
} }
iv e
al ue
( \
â Ģ
Ġre turn
Ġ H
Ġ me
i mp
Ġ r
Ġ +
f f
u se
j ect
Ġ G
ac e
2 0
eg in
ĉĉ ĉĉ
Ġ W
an t
an s
b egin
re s
o s
Ġ @
e qu
i es
- >
Ġ at
es s
i b
al l
it ion
st r
p s
se t
Ġt r
_{ \
) $
) ,
l u
Ġf rom
Ġf unction
h o
: :
a re
ig n
C on
) .
} ,
v e
b o
e q
o p
b er
ar y
f ig
Ġn ot
il l
p ar
o c
Ġ [
lo w
in d
s c
f r
} {
ab el
Ġ O
Ġ y
at ed
a ct
Ġre s
" ,
i de
Ġ< /
Ġ /
fr ac
i re
iz e
en s
av e
ra y
or d
( );
T he
ro w
Ġc an
Ġco mp
s er
r ight
our ce
Ġ le
( "
' ,
Ġc h
o g
Ġ* /
ic al
S t
en er
c ite
n t
b ject
f orm
Ġn ew
ub lic
a st
g e
i p
ul l
Ġv ar
ic h
o me
l abel
ation s
de f
el l
en ce
er r
Ġ :
Ġn ame
.. /
---- ----
l f
t he
le ment
p ut
Ġ lo
** **
an ce
n ame
d d
t e
tr ing
th is
Ġst r
er t
i el
ĉĉ ĉ
u g
m l
Ġ In
ic e
E x
Ġs h
Ġ U
Ġ un
at or
iel d
d i
N ame
d u
v ent
) )
math b
ode l
$ .
c c
o ut
$ ,
r m
Ġde f
l ine
p p
ta in
( '
== ==
, \
le ft
or k
ac h
p l
ĠĠĠĠĠĠĠĠ ĠĠĠĠĠĠĠĠĠĠĠ
Ġ _
Ġa r
t y
ĠĠĠĠĠĠĠĠ Ġ
1 0
} )
on g
Ġh ave
a k
equ ation
Ġ j
ar d
Ġse t
et a
f er
il d
Ġ use
pe ct
R e
imp ort
a mp
p ort
} .
Ġ .
v ar
d iv
P ro
Ġ he
o st
math cal
Ġ |
Ġwh ich
or y
re turn
y st
Ġin t
s o
ĠT h
u st
co m
o id
on e
1 9
> </
sp an
un t
ul d
E R
de x
Ġ k
Ġ us
o k
Ġd o
Ġ i
} (
l l
par am
re ss
c ol
Ġp ublic
Ġv alue
T ype
Ġ J
yst em
o f
Ġ V
Ġw as
um ber
le ct
c lu
e c
d a
ke y
} ^
Ġh as
i x
th er
s um
> <
o int
~ \
ph a
le s
} _
i ew
Ġ !
ut ion
en g
ow n
Ġal l
Ġb o
w e
sc ri
al se
Ġt ype
20 1
al pha
m b
g a
v al
Ġ qu
de d
he n
re e
ol d
id th
Ġg et
I N
S tring
âĢ Ļ
t ype
O N
Ġd ata
ap p
ro up
ss age
s ub
i o
am b
Ġm a
ent s
m o
Ġcon st
d ot
Ġw ill
c he
f o
in k
o u
in al
s h
../ ../
se d
Ġin ter
u ct
Ġres ult
C o
co de
c re
u al
Ġ #
ht ml
pe c
p i
) \
amb da
I d
at ch
er y
e f
Ġs u
$ \
Ġp ar
Ġo b
Ġa ss
Ġd is
at es
y n
Ġ err
Ġ `
Ġo ut
ic s
r iv
t il
ir st
Ġ el
Ġon e
Ġh ref
Ġcon t
am ma
Ġ K
ar g
R E
Ġt ime
a ult
at ic
c es
ang e
Ġs p
in ed
S T
Ġp l
v el
b ar
' s
er m
e mp
lo ck
e p
m u
Ġco m
1 2
ac he
_ \
eng th
Ġp art
ption s
l ation
Ġc ase
t d
ut e
tr ans
Ġ x
ar k
= \
th od
R es
Ġ= >
s ource
v ice
ul ar
Ġse lf
Ġ\ \
me ssage
Ġ= =
le d
t ime
T h
Ġ en
Ġn e
Ġc ol
clu de
Ġ >
ame ter
ot h
Ġp re
Ġn ull
se s
w o
ad d
Ġ up
r r
ur re
Ġl ine
} _{
} ^{
_ _
ig ma
Ġm odel
o ver
Ġv al
u le
ra ph
mathb b
it em
ion s
sp ace
or s
- \
L ist
f or
A T
ph i
Ġs o
str ing
at ure
ce ption
c a
n e
n ot
Ġfor m
^ {\
Ġv oid
tr ib
u d
Ġre qu
T o
2 00
Ġ )
Ġtr ue
b ack
Ġ id
u es
d er
sp on
at ive
t t
. _
Ġ{ \
l ambda
el y
ol low
ĠW e
se ction
if ic
y s
Ġ ro
c lass
ĠTh is
Ġs ub
Ġf alse
Ġ& &
/ >
) );
: //
Ġstr ing
# #
A r
if i
ter n
C h
os ition
i a
b f
ar ray
L E
Ġb ut
Ġp er
m in
ĠĠĠĠĠĠĠĠĠĠĠĠĠĠĠĠ ĠĠĠĠĠĠĠĠĠĠĠĠĠĠĠĠ
le t
**** ****
ig h
Ġel se
c ent
Ġd if
o b
O R
Ġo ver
d ata
Ġal so
urre nt
i se
le m
Ġan y
Ġ âĢ
r y
u ild
ad er
a il
Ġy ou
co mp
um ent
h at
W e
V alue
ar ch
Ġtr ans
" />
D ata
// //
Ġ imp
Ġs up
A R
o se
] ;
r it
id er
I D
Ġex p
Ġt wo
-------- --------
Ġw hen
on t
or re
Ġf ollow
Ġa dd
ing s
ĠĠĠĠ ĠĠ
ro und
w ork
v alue
p art
Ġon ly
l a
y le
Ġg ener
re ad
1 6
ug h
E N
Ġth ere
Ġ end
il on
t on
A L
" );
o le
) :
Ġe qu
al ign
ps ilon
de l
i e
Ġo ther
Ġ/ **
as k
se lf
it s
Ġm ore
Ġo ur
w h
ht t
per ty
Ġa p
b eta
lo g
Ġre g
Ġt est
res ent
c ess
ĠĠĠĠĠĠĠĠĠĠĠĠĠĠĠĠ ĠĠĠĠĠĠĠ
\ \
mathb f
f ile
s igma
Ġa pp
Ġ( \
amp le
w idth
Ġn o
Ġin st
1 1
riv ate
ang le
Ġa bo
i an
lo c
f unction
^{ -
==== ====
E rr
ĠĠĠĠĠĠĠĠ ĠĠĠĠĠ
le ction
ra me
ib le
und er
Ġwh ere
il ity
ar get
S et
Ġn umber
S er
Ġme thod
T r
til de
Ġ ext
Ġo bject
Ġd ist
} {\
s ion
p re
v ed
C ol
Ġs ome
Ġthe n
d ate
E n
p end
Ġf irst
Ġsu ch
it le
s on
trans lation
S S
' )
bo x
"> <
a x
Ġs er
O bject
e y
Ġg iv
3 2
n ew
Ġb et
( $
en c
ho uld
p r
li ent
Ġf ield
con d
] ,
Ġcon s
ic k
Ġ| |
Ġ! =
Ġuse d
g amma
d ing
fig ure
Ġdif fer
c l
+ \
m ary
um n
" )
at ing
an n
al s
* }
p x
un c
Ġe ach
del ta
as h
ire ct
Ġth an
u ff
} ;
Ġa d
S e
m s
Ex ception
Ġsh ow
Ġc orre
Co mp
math rm
Ġst ate
o und
b r
iz ed
str uct
s ize
Ġs pec
' );
^ \
c ri
the ta
ol ution
ag es
Ġ --
Ġthe ir
Ġw ork
iz ation
f ace
he ck
in clude
Ġ Y
] {
1 5
f ter
Ġit s
r ho
re qu
are nt
ta u
a ction
P ar
Ġus ing
y p
Ġ key
Err or
T est
Ġp oint
in s
cc ess
od ule
Ġp h
) }
I t
D E
ĠS t
Ġf ile
I T
Ġm at
we en
av a
m on
l d
Ġ %
Ġm o
re am
t est
G et
$ -
u i
tr y
Ġm an
S E
in ce
Ġre l
Ġor g
b e
Ġ X
Ġin to
Ġs ystem
ut h
ot e
C T
time s
ic es
Ġst atic
Ġ// /
dot s
re ate
2 5
f ore
le q
pl ay
Ġbe en
at us
Ġch ar
F or
Ġ im
ff ect
il ter
e ar
d is
ĉĉĉĉ ĉ
N ode
m all
sum mary
}$ ,
con t
on ent
ra ct
}$ .
m and
n ing
ase d
1 8
D el
() .
Ġ z
Ġ ra
b ig
B y
ro ll
is h
E lement
l ength
Ġn on
g er
Ġre p
ĠS tring
} (\
t able
n g
n u
scri pt
Ġar g
Con t
() );
od y
u me
ar row
Ġbet ween
Ġgiv en
if y
Ġf inal
io us
Ġthe y
Ġthe se
E vent
Ġpar ameter
Ġpro b
Ġo per
U n
or g
A t
Ġ u
Ġm ay
n b
Ġ under
v iew
ind ow
Ġb ack
ers ion
part ial
/ **
F ile
ens ion
it ies
K ey
Ġerr or
o us
l er
in ter
Ġe lement
r ite
Ġc all
c ed
Ġc al
1 00
ĠR e
ĠC on
ord er
1 3
eq n
Ġ Q
p m
in dex
Ġpro v
r c
T ime
1 4
A N
g y
n er
m ber
Ġg o
Ġw ere
he d
le te
ome ga
ĠI t
a w
eq ref
ĠC h
Ġt ra
g o
ay s
Ġ= ==
to p
cal e
Ġa b
ĠF or
re d
Ġn ode
Ġl i
M E
ri b
ver t
Ġl ist
Ġ: =
ri x
nb sp
D e
r t
] .
g ra
Ġ ?
Ġdiffer ent
ur l
n o
ect or
Ġ );
Ġe vent
l ink
l ate
n ode
ft y
ĠI f
n et
Ġp rivate
ifi ed
ĠP ro
R equ
im it
Del ta
Ġ ent
Ġs hould
y mb
in fty
d ition
ĠS e
Ġe v
[ '
it ial
Ġa ct
ĠC o
.. .
Ġ} ,
p y
Ġh igh
ymb ol
a in
oc ument
U L
Ġ/ *
ĠĠĠĠĠĠĠĠ ĠĠĠĠ
ut il
se c
Ġp o
" ;
C lass
Ġ$ (
In dex
L o
\ ,
a ke
i ent
at er
co unt
loc ation
con st
Ġor der
w w
Ġap pro
t ot
() ,
Ġs ame
uff er
Ġar ray
p en
y m
ma in
l ist
al ly
C O
" :
ur ation
form ation
| \
ment s
s q
âĢ Ŀ
/ *
St ate
Ġf e
lo ad
ra w
p ath
6 4
Ġcon tain
g round
Ġex pect
j s
ro l
Ġs ign
. </
Ġs ize
s ign
ro id
ol og
V iew
re ak
Ġvar i
lo b
ire d
per t
c le
Ar ray
$ $
ical ly
cent er
t ing
qu ad
R O
ĠĠ Ċ
ĠE x
Ġa c
b y
P E
f ield
Ġp r
Ġval ues
ver y
x i
Ġc urrent
Ġstr uct
P I
H e
Ġh is
' ]
Ġt erm
um er
t ab
A s
Ġw o
ole an
Ġ( !
Ġresult s
a ir
ction s
an ag
v oid
p o
Ġf act
T E
in es
re g
Ġs im
In t
Ġabo ut
cri pt
on s
htt p
g roup
Ġst art
m it
Ġof f
Ġfollow ing
P ath
wh ere
Ġm in
in st
m ap
eqn array
p ublic
Ġs c
x im
trib ute
} }\
' :
Ġg roup
g raph
Ġass ert
Ġp ol
A n
Ġ} );
D ef
Ġh and
p ack
enc y
ent ial
E qu
en se
Ġob ser
} [
Ġpart ic
3 0
T ext
Ġwo uld
c dot
l ay
def ine
)$ .
Requ est
Ġ/ >
In fo
old s
e ver
ist s
us h
col or
ri de
Q u
ore m
Ġob tain
1 7
S h
T R
M et
I ON
P h
Ġse e
ra p
c m
Ġcons ider
ce pt
+ +
"> </
orm al
h er
g or
ab ility
ut ton
' ;
res ult
u ch
Ġth row
ect ed
Ġe st
S ystem
cal l
5 0
du ct
Ġ} ;
A C
ps i
e psilon
W ith
as ure
M ap
` `
Con text
iv ely
se e
qu e
if t
ress ion
Ġt e
ation al
A dd
() )
Ġn il
m er
lo se
ĠU n
d o
C ode
w ard
It em
s ing
le x
st er
me mber
F ield
Ġin v
are d
} _{\
Con fig
C om
Ġk n
me ga
Ġm ap
n av
Ġt emp
L A
il y
Th is
Ġdo es
2 4
ff ic
et work
f ra
//// ////
ĠĠĠĠĠĠĠĠĠĠĠĠĠĠĠĠ ĠĠĠĠĠĠĠĠĠĠĠ
Ġe ffect
pert ies
ap i
Ġdist rib
I C
o v
Ġa cc
Ġb oth
Ġ Z
O mega
em ent
******** ********
Ġwh ile
Ġ čĊ
^ *
Ġ low
Ġa fter
Ġde scri
Ġl ong
Ġprov ide
Ġp ath
Ġan al
Ġdef ault
Ġrequ est
G amma
ma x
s im
er n
to m
ar ge
o bject
w ide
" "
an k
Ġw ell
in put
us er
spon se
Ġ_ _
mo ve
Ġy our
l ing
ĠF ig
O f
ar s
Ġin put
r on
S ize
Ġin dex
Ġlo cal
sq rt
in ition
Ġne ed
Ġh ow
)$ ,
p oint
Ġr ight
r id
Ġ import
f ul
val id
tern al
def ault
f in
U R
Ġm ult
Ġcon dition
Ser vice
as ses
Ġm ost
s k
Ġbo und
' t
Ġf ind
tr ue
Ġ ed
O n
port s
H and
Ġm od
Ġo ptions
ow er
at t
ĠG et
te mp
B o
n on
tt p
Ġt arget
r al
l ag
ro ugh
cre ate
2 1
A l
ener gy
Ġo pt
Ġco de
ca ption
is hed
ĠâĢ ľ
text bf
se arch
sub section
et urn
a f
O ver
Ġre ad
V al
F orm
ess age
w ord
u mp
Ġthe m
fer ence
ut o
s up
yn c
Ġc heck
! --
con fig
Ġinst ance
Ġ$ {\
w ith
b m
uild er
co pe
Ġt ext
} =
Ġ ,
lic ation
le ss
M A
L O
[ ]
p d
Ġs ur
^{ (
Ġsp ace
ap ache
=" ../../
2 2
og le
ĠA s
f rom
g in
19 9
m odel
3 3
er o
v are
oc i
able d
Ġcorre spon
c ord
f unc
p ri
Ġs mall
Ġn ow
p on
vare psilon
Ġp e
an e
ass ert
U T
me d
tot ype
tain er
is ion
os it
is m
Ġrep resent
Ġr un
Ġd irect
p osition
lo at
00 0
Ġs ing
oth er
Ġpro cess
anag er
O r
Ġ\ ,
Ġto p
err or
ir c
I m
ic on
ist er
graph ics
ific ation
Ġme asure
}^ {\
st yle
l ang
al ity
i k
o ptions
g g
Ġdef ined
. ,
ĠA n
h od
Ġm ust
st ate
v es
Res ult
Ġse cond
r angle
tr ic
ĠĠĠĠ Ċ
Ġs imp
ĉĉĉĉ ĉĉ
right arrow
gor ith
ch o
st art
Ġprob lem
o ugh
Ġcon fig
N ot
M odel
it er
Ġcon text
Ġs ource
en u
) =
ut es
Ġus er
de pend
Ġint eg
e vent
Ġb ase
c ul
m ark
Ġt itle
ĉ ĠĠĠ
Ġle t
Ġh ad
Ġf ound
Ġres pect
ex p
il ar
4 0
Ġst ud
v ious
Ġli ke
lob al
M L
ant s
ann el
m od
ix ed
L e
re n
am s
ĠT r
Ġd i
A D
In st
ur ing
htt ps
an c
Ġy ear
ff set
o o
m is
Ġin formation
yn am
b l
ver sion
Ġal low
Ġe very
it or
include graphics
D es
co re
E D
it u
F F
Ġ( $
Qu ery
o ck
Ġde pend
Ġm ass
def ined
Ġc ur
ro ss
b lock
t en
ust om
Ġsup port
ĠA l
Ġma ke
M essage
ĠD e
o per
m m
======== ========
d t
Ġl ast
en ces
Ġs olution
Ġc l
In ter
Ġth rough
ure s
var phi
ne ction
M P
b it
Ġwh o
ca use
I S
Ġp resent
=" +
Ġt yp
' '
Ġdis c
Ġs ol
b ase
C H
Ġre f
Ġid ent
se lect
~ ~
Ġ energy
UL L
um ents
b ody
ta il
Ġb el
t ings
n ext
O ut
. ~\
I G
Ġc ent
Ġc a
= '
end s
u f
im ension
Ġbe cause
me thod
pro totype
Ġin itial
I s
Ġj ust
Ġb reak
Ġcont in
---------------- ----------------
che ck
Ġcont ent
) (
ve c
G roup
t s
Ġle ft
ub le
we b
t itle
c ur
g eq
b ug
emp h
me s
s i
Pro perty
B ig
Ġdistrib ution
m ult
w it
} ).
m d
L og
s l
Ġin d
ac es
Ġabo ve
E T
Ġf in
qu ot
ot tom
ch i
Ġb lock
U p
Ġper form
able s
8 0
and om
ĠA r
pon se
IN G
nd er
F rom
in ing
over line
roll er
Ġm y
l p
Ġl imit
A pp
var i
ens ure
Ġit em
Ġ q
e lement
ase s
Ġest im
Ġpo ss
Ġc reate
## ##
mp ty
[ \
ĠH e
Ġparameter s
. }
Ġbe fore
l ight
a pe
le ar
Ġex ample
t al
Ġco uld
A B
Ġn ext
Ġs ince
our ces
act er
t es
Ġlo g
a u
2 3
ĠS et
uth or
r u
ir t
C all
Ġin cre
Ġh er
Ġl arge
ok en
at rix
ĠĠĠĠĠĠĠĠ ĠĠ
Ġj ava
R eg
in fo
& \
Ġh ere
Ġex per
Ġ-- >
pro of
he ad
Ġp osition
an y
Ġle vel
Co unt
Ġback ground
N ew
Ġfe ature
ut ed
ens ity
i er
Ġgener al
Ġre al
ator s
) {
U N
k en
C lient
D O
f alse
Ġw idth
6 0
}, \
me di
Ġs he
ifi er
Ġth ree
du ction
h as
ile d
s ide
Ġn etwork
Ġde c
d oc
] )
Ar g
ime s
Ġbo ol
T able
Ġ( )
Ġd at
con text
) ^
Tr ans
h line
ĉ Ċ
w n
iv ity
id d
D is
ym me
Ġqu ant
M anager
cont ent
Ġd en
E S
Ġv ersion
Ġr ange
t ected
t ed
an sp
or ld
Ġev en
o ption
Ġmodel s
and ard
ĠN ew
c urrent
t n
Ġwh at
L ambda
ys is
Ġs at
Ġse lect
Ġv ery
In put
Ġma in
Met hod
as on
a z
A S
du ced
Ġs pect
ra g
Ġor ig
b olds
Col or
a id
Res ponse
l angle
Ġsup er
Ġat t
Ġv iew
Ġout put
ul ation
bolds ymbol
at ter
( (
Ġa g
d s
Ġs rc
Ġc re
} }$
Ġbe ing
] (
fra k
gorith m
id get
ar n
ow ever
ĠâĢ ĵ
9 9
Ġl ength
di o
. \
app a
im age
ĠG L
ĠS ystem
Ġsh own
Ġv is
Ġrequ ire
Ġg ra
r ation
Ġ et
a it
e ps
l t
g t
ĠT o
EN T
m an
ail able
L et
Ph i
m box
id ent
Ġim age
k appa
Ġm on
us ing
Ġ` `
Ġex ist
Ġt ak
m odule
ay er
ter m
ur al
vel op
b ed
Ex p
an el
at s
ar i
Ġfollow s
en ame
Ġb l
G L
Ġa ga
i or
Ġman y
} ),
T oken
b utton
x y
l dots
F act
rit er
Ġse ction
Ġw ay
T H
U ser
Ġb ased
u les
Ġ< <
st atic
E nd
le g
Ġm ag
d b
Ġme ssage
Over ride
Ġcal cul
ith ub
iv er
pack age
at tern
ra int
( {
irt ual
St atus
c ap
A ll
Ġpro perty
Ġtr y
St ream
n ess
olog y
O ptions
j o
e e
Ġcol or
ur ther
ic y
im al
E X
in ation
qu ery
U til
ro p
Ġs um
ap er
end er
00 00
> (
Ġfunction s
Ġval id
I f
du ce
lic k
Ġst d
C ell
or ph
ri ct
v ing
2 7
i que
um b
Ġa v
4 5
Ġimp lement
o pt
is f
l im
Ġm ode
c ss
Ġin clude
ath er
ww w
math frak
he ight
n ab
amp les
arg in
op le
li b
Ġle ad
name space
in ary
; &
Ġ+ =
ol ume
qu ence
S ub
ual ly
g ithub
Ġin clu
Ġ! ==
Ġsing le
Re f
Ġadd ition
O T
> &
cite p
rame work
h and
str u
c or
val u
ate g
i j
ref er
I P
Ġmat rix
ch n
I L
Ġexpect ed
n ull
Ġsim ilar
g ener
iv ed
Ġm atch
ĠS h
Ġa ction
7 5
u age
ĠN ULL
nab la
w are
le ase
Ġterm s
U S
it ed
m un
v ices
s f
non umber
t x
go ogle
Ġb r
B uilder
Ġc ho
re at
. $
Im age
che s
text it
Ġre sponse
j ava
Ġre st
iv ers
ar ning
iv al
D ate
ot imes
pl ace
Ġd er
Ġbo olean
Ġc lo
* /
Ġd ocument
Ġt able
C E
A ME
sub set
en e
n s
Ġth ose
Ġlo c
d ir
s pec
et s
ĠA ss
T D
Ġst yle
} )$
scri ption
Ġmult ip
2 8
ver s
dis play
Ġo pen
Ġkn ow
us s
Ġv ert
0 1
Ġs che
is s
20 20
ĠĠĠĠĠĠĠĠĠĠĠĠĠĠĠĠ Ġ
ĠCo mp
Inst ance
ĠĠĠĠĠĠĠĠĠĠĠĠĠĠĠĠ ĠĠĠĠĠĠĠĠĠĠĠĠĠĠĠ
Ġcal led
A nd
Ġstruct ure
="../../ ../../
ĠO n
/ \
requ est
B ase
Ġpartic ular
Y PE
N S
h av
v en
I mp
l at
ĉ Ġ
Par ameter
read y
ch ild
N ull
Ġwith out
c lient
6 6
Ġch ild
in c
p ush
ot ential
s w
ir on
ĠR es
ers on
Ġcall back
ĠTh ere
p age
ac y
b ra
9 0
e k
re t
Ġposs ible
in it
t ic
r ic
\ %
Hand ler
w ay
arg s
B lock
m y
lu ster
Ġf il
ic ro
S igma
d ay
Ġg raph
Ġass oci
Ġch ang
f low
ĠThe n
p ose
Ġm odule
t arget
c ase
ith er
Ġpoint s
Ġs cal
Ġe lect
or age
Ġs aid
F unction
d raw
Ġwith in
s ol
O b
O O
S tr
Ġsat isf
A A
At tribute
e ad
and roid
s mall
\ [
return s
app end
lo cal
sign ed
Ġp res
Ġp ass
lo y
} );
c i
A d
}} {
l in
S ource
B uffer
add ing
Ġd ue
Ġch ange
\ |
Def ault
itu de
oc us
Ġpro perties
3 5
Ġpre vious
fo ot
i od
ĠT est
iv es
Equ al
Comp onent
Ġh ttp
2 6
Ġa ut
Ġmethod s
; </
L ine
p arent
t ag
Res ource
pr int
ĠR eturn
Ġpro ject
G ener
row s
Cont ent
St yle
an ces
Ġd own
Ġcorrespon ding
ver age
Ġto tal
Ġcol umn
p tr
ic ense
Ġl ink
ĠĠĠĠĠĠĠĠ ĠĠĠĠĠĠ
Se lect
w ise
d own
act ive
trib utes
Ġlo ok
Ġco unt
on ents
ad ata
ist ic
ensure math
ab ase
Ġm ark
Ġass ume
am ily
D I
p c
Ġl abel
Ġline ar
Ġconst ant
n ect
r l
ĠO bject
Ð °
p ng
Ġo cc
Ex t
Ġ url
ĠC ol
Ġchar acter
ver se
=" #
S p
3 4
re l
Ġp ower
Ġd ensity
l it
Ch ild
Ġb uild
Ġb order
Ġdef ine
0 5
ex pect
ob j
gra m
Ġp arent
lu gin
F ilter
ĠC om
Ġshow s
o ot
op y
Ġt ask
=" ../
Ġcont rol
H T
depend ent
wit ch
li es
ens or
D o
Ġobtain ed
v iron
un ter
E d
S P
ay out
i i
O per
Ġ( (
re en
ch ar
Ġequ ation
V ersion
so ft
O P
c it
res h
c irc
Ġexper im
at ely
Ð ¾
\ !
wide tilde
Ġd uring
o ve
B e
p ol
end if
old er
Ġpl ay
} -
Ġw rit
ib ility
ffic ient
{ -
iz er
2 9
Ġind ic
Ġrequ ired
Ġpe ople
Ġelement s
Ġn ormal
B ar
pri me
St art
A ct
A ss
C K
pro perty
se mb
Ġobser v
w rite
w ays
ĠH owever
und le
di ct
ph p
pro p
] );
] [
b tn
F ig
mis sion
Ġde velop
l en
l ast
Ġme an
Ġma xim
stru ction
g n
em ber
I M
c ast
Ġinter n
j son
Ġm uch
Ġp ost
201 7
f ilter
c er
Ġv ector
Ġw ant
ateg ory
U E
Ġf lu
he ader
Ġap pe
at tr
Ġ" ""
sk ip
AT E
li ed
ser ver
ig ger
) </
lic it
Ġp otential
Ġp air
cl us
s or
ON T
ĠL et
H E
F I
center ing
he s
s rc
Ġp op
O S
r ary
Equ als
Ġt ake
; \
Ġst ates
Ġav ailable
5 5
ra m
f e
Ġreg ion
he ther
20 19
Ġcomp ut
s cale
th ing
N umber
ĠL ist
Ġr andom
v i
ser t
Ġst ill
\ ]
R ow
Ġ& =
re move
Ġ- >
tab ular
Ġ{ @
A P
Fact ory
++ )
f irst
Ġg u
W indow
201 8
Ġma x
ot s
ef ore
ĠS er
c an
s u
lag s
Col lection
A ction
Ġre ce
r un
Ġcon struct
f ind
Ġstud y
Ġcon f
Ġthe ory
Ġc ell
S pec
Ġhe ight
n umber
ord in
to col
is on
Ġdis play
p os
col umn
l ish
c ell
Ġph ase
ĠB y
ĠE q
s g
eg er
Ġint ro
} +
Ġappro xim
ER T
Ġand roid
v ider
u ck
ire ction
P oint
Ġh o
7 0
b ottom
co me
Ġp aper
che d
Ġf ull
Ġc lear
Ġex ec
P RO
Ġspec ified
Ð µ
op en
ol s
Ġstr ong
k n
Re ad
Ġb as
Ġl arg
Ġoper ator
Ġfield s
) ]
L ength
C reate
N o
x ml
Ġw indow
osit ive
Ġanal ysis
ref ix
g ress
[ "
Ġcomp lex
A G
Ġa m
ho st
ĉ ĠĠĠĠĠĠĠ
T ask
P r
Ġt ri
Con st
P o
ĠI N
s m
< !--
al k
Ġco mb
P re
Ġf a
b s
//////// ////////
IN T
H el
er ature
\ {
Ġf ilter
Ġs cale
T ag
E E
ĠB o
Ġz ero
v is
p rivate
201 6
Ġde tail
Ġ Ð
ĠĠĠĠĠĠĠĠ Ċ
c y
Ġst andard
ial og
Ġhe lp
Ġob j
al th
Ġup date
Ġ[ ]
( _
ĠA dd
Ġinter est
P art
up date
4 8
Ġal ready
Ġs k
Ġa ccess
Ġex ists
Ġd ynam
Ġqu ery
3 9
Ġs ide
ens ions
Ġc ar
l and
Ġ ]
z eta
Ġcontin u
use d
Ġorig inal
row ser
Ġr ate
Ġgo od
Ġma de
com mand
Ġc lose
unt ime
Ġrespect ively
E L
u int
str ong
A M
S C
if e
m t
Ġc lient
Ġthrow s
b uild
st atus
Ġpro duct
3 6
Ġm ak
) =\
po sed
S up
201 5
end ing
g es
g est
ER R
Form at
( &
Ġcomp onent
Ġit er
Ġw ord
sp lit
Tr ue
$ )
Ġappro ach
Ġyear s
C ache
Ġte chn
} =\
Ġsu ccess
Com mand
im ary
Ġan g
requ ire
Ġe ither
li p
Ġf ree
C heck
ss ion
Ġl en
par ameter
We b
Ġlow er
Ġal gorithm
a h
Ġd on
Ġco up
Ġw rite
Ġp age
Ġa round
port ed
f ont
ut ure
j e
ide o
Ġser vice
. /
ĠA pp
Ġd id
Ġpro of
ent al
Ġen co
Ġs ymme
app ing
viron ment
em ma
ur ity
{ }
Ġu int
{ (
L abel
de scription
_ .
Ġassoci ated
Ġre d
Ġo ption
par se
W idth
) }\
Ġbe st
List ener
L ink
ial ly
Ġf our
Ġra di
Ġp ack
con tainer
i ct
yp es
ĠThe orem
or th
S ON
on d
wh ich
ent ion
ĠA nd
P si
Ġdi ag
. "
) ^{
Ġ ke
n um
C C
UR L
Ġcondition s
Ġo wn
Ġpro tected
: "
3 8
Ġdef inition
b uf
ist ory
N av
ser v
Ġext ends
he et
on y
param s
Ġse quence
om orph
Ġp ri
Ġe as
Ġsimp le
Ġperform ance
201 4
4 4
Ġbe hav
al ax
p ost
Ġh im
M ode
Ġkn own
" ]
o ffset
Ġg e
ch ange
ist ent
ord ing
form at
Ġl ang
ly ing
Val id
Ġadd ress
Ġde term
Out put
} ]
Ġal ong
Ġbel ow
th m
T O
AB LE
P age
d at
le vel
T YPE
c dots
if f
Ġcase s
Ġarg uments
Ġfin ite
bo ok
m at
P ol
j av
me ta
l ong
Ġg ame
Ġwe ight
un ded
al le
oper ator
d l
l ap
{ {\
Ġco py
3 1
F A
Ġcom mand
ot o
. ~
ĠD ef
ĠSe ction
}_ \
so le
Ġcon trib
$ {
Ġo p
Ġe mp
> >
D ec
Ġl ines
oc ation
ĠĠĠĠĠĠĠĠĠĠĠĠ Ċ
Ġimport ant
3 7
ar m
Ġg r
y les
Ã ©
} |
mo unt
Ġcontain s
V ER
Cont roller
m enu
8 8
Ġinclu ding
ess ion
Ġle ast
st ream
un k
ge bra
ma il
ore d
g l
Ġun defined
Ġarg s
Ġdif f
Ġf ail
fin ished
^ +
ump t
Ġsign ific
I I
co s
ur b
Ġres ource
M O
U I
Ġse arch
pro cess
st ract
ĠY ou
ex ports
Ġfact or
ap pro
Ġw hether
Ġt ag
Ġan other
( -
ĠE X
Ġmin im
B utton
Ġac count
Con tainer
ĠN one
F e
ind ent
ĠS o
Ġle ss
equ iv
Ġcomp ar
Ġg lobal
q l
Ġme di
u k
Ġe ar
Ġh y
ĠP ar
idd en
Ġse ver
Ġsystem s
imension al
Ġb ro
} /
Col umn
un it
Ġf ixed
ĉĉĉĉ ĉĉĉĉ
Ġn eg
" ),
Ġse par
ast er
}) \
Ġtrans ition
re sponse
Ġ es
Ġch annel
Ġtemp erature
}^ \
Ġph ys
en ded
}\ ,
ol ve
n ow
C ON
0 4
le v
Ġcomp let
Ġhigh er
k it
ex ample
C ase
T P
ĠIn t
Ġf rame
F rame
ĠE n
R eturn
LA SS
Up date
" ).
Ġp ort
Ġe valu
c lose
as ing
Ġl ight
Ġhe ad
Ġintern al
expect ed
kn own
r ing
C D
e v
Ġimp ro
un g
wide hat
el se
Ġre t
st d
J son
0 2
S I
Ġf urther
Ġinter face
Ġevent s
& =
ĠA PI
ap ter
Ġ ide
ĠL o
Ġp ositive
Ġobject s
Ġoff set
q quad
action s
Ġset s
, -
d ist
ĠR eg
B U
ĠA d
b b
am il
or iz
S che
im g
ĠA ll
V ert
**************** ****************
n ormal
c lo
pro ject
ĠC O
D ep
Ġo ld
pd f
RE F
c s
C L
m atch
emp ty
o ff
N O
Ġtime s
or ies
lem ma
Ġv ia
Ġcom mun
Ġsh ort
id ual
Ġprovide d
Bo x
an ch
M M
Ġal ways
Ġd iv
il er
O ffset
net ic
Ġanal y
Ġst ep
' ).
text width
al f
ĠAr ray
Ġser ver
Ġform at
Ġme ans
it al
ĠJ o
( [
U rl
lic e
âĢ ľ
Ð ¸
i res
Ġv er
c ache
al e
0 7
Ġmo ment
b ind
ac ity
Ġne ar
Ġm argin
at io
ta ct
0 8
Ġin f
Ġ row
rap per
out put
or n
un finished
Ġex pl
F irst
f loat
Ġper iod
Ġspec ific
ent ry
D B
g en
Ġc ap
Ġequ ival
Ġs ample
Ġs pe
r um
c at
temp late
Ġw orld
ĠP h
Ġme m
Ġa uto
Ġreturn s
w indow
Ġm ot
R em
st ack
Inter face
R un
Ġfeature s
ĠL icense
re p
ĠA t
Ġc atch
// /
av ing
sh ow
Ġlo ad
u c
Ġ\ {
ug ht
ĠFig ure
M od
ĠL e
S ec
mer ic
ct x
Ġro ot
o od
0 6
Ġobser ved
ry pt
g r
not e
( {\
ĠReturn s
201 3
val ues
Ñ Ĥ
f rame
nav bar
S to
f ill
Call back
Ġequ al
9 5
Ġf requ
T emp
s cope
ĠD o
s in
}^{ (
pl ac
Ser ver
Ġconst raint
ser vice
M S
Ġtr ansp
cle ar
ug gest
Ġde p
Ġcol lection
L ayout
. âĢĿ
m id
R ange
S c
Ġtrans form
not ation
im ation
Ġre cord
t ra
Ġprob ability
com mon
Ġd one
ro ot
inst ance
Ġn umer
N ext
Ġst atus
ase t
T arget
sc he
Ġun it
iz ing
I O
Ġpl ace
ec ess
Ġsignific ant
vari ant
T ypes
6 7
Ġth us
Ġgener ated
Ġdisc us
j or
ĠThe se
d ro
He ight
l n
Re p
a ut
Ġt urn
res sed
ĠW h
ar r
ix el
ir d
if orm
ul a
Ġquant um
Ġtyp es
p ed
a ded
S U
Ġg alax
Ġc ache
iz es
Ġf low
ig ation
' ),
ol l
Ġre fer
Ġex act
Ġst ream
ĠI D
h ip
} :
Ġp erm
A PI
Ġh ost
ch an
el oc
Ġv irtual
Ġf it
Ġser ies
s hould
du c
n ected
ĠH T
b ased
c up
ex ec
< ?
N AME
on ly
ra di
Ġcan not
Ġtra ining
ig en
Ġ$ (\
Ġc ross
Ġdist ance
6 5
âĢ ĵ
Ġdo uble
Ġc luster
a i
riv er
Ġinv est
Pro vider
Ch ar
th at
M ax
i um
la im
Ġf ont
i ents
et y
Ġl ib
}\ \
F ONT
Ġde g
line ar
19 8
lay out
r s
y mp
Ġc ustom
ĠT ype
P er
m ut
C l
d f
P O
af e
Ġbet ter
de v
Ġf ew
L ast
olog ical
e V
, "
Ġoper ation
ĉ ĠĠĠĠĠĠĠĠĠĠĠ
cri ption
Ġaga inst
on al
0 3
p es
& &
ic le
ĠO r
Ġb uffer
W rite
Ð ½
Ġn one
Ġ> =
P l
T ree
ivers ity
l ished
}} (
Ġsp in
ome try
t ree
set s
Ġinst ead
om in
{ {
t ect
ĠN o
pro to
? :
He ader
Ġde l
Ġb ody
it es
En try
for med
D i
ĠL emma
P C
h space
Th ere
st ro
t le
Ġ& \
ĉĉĉĉ ĉĉĉ
Ġro t
201 2
V is
cit et
Ġ* *
im ages
over n
as cript
ed ge
imp le
Ġsever al
Ġs ay
b uffer
semb ly
en umer
Ġre cent
Ġre move
Ġqu est
Q L
Config uration
lu g
T op
M odule
ĠN ote
P osition
7 7
ta x
Ġ ~
Ġl aw
Ġm ight
R L
bo ol
Ġj o
ab ly
Ġ{ }
ĠS ince
refer ence
F T
st and
ra ction
Ġc y
re m
Ġsur face
' $
| ^
Ġrepresent ation
f a
Ġbound ary
Ġpro posed
Ġconsider ed
al t
b reak
Ġre ference
fo o
Ġp ur
Ġs s
Ġrel ative
0 9
B ack
u dio
Ġin dependent
Ġpr int
e ded
util s
m ode
ang ed
Ġvari able
icro soft
Ġopt im
Ġmultip le
Ġf ore
ic ation
ĠAss ert
se cond
] $
i ence
Ġaddition al
S D
Ġconfig uration
Ġa verage
o use
) -
st ar
ct or
ter s
je ction
Ġarg ument
Ġequ ations
Ġ ...
ĠW hen
201 1
Ġcent er
Add ress
Ġvari ables
: (
Ġdescri bed
Ġg ive
s ystem
li ke
at ist
d ocument
H ash
og raph
M in
Ġis s
x is
`` `
iv en
A ccess
ft ware
x space
Ġpro p
sc r
Ġtr ack
}} {\
and s
Ġexp ression
nt ity
Ġed ge
u x
Ġse m
ĠĠĠĠĠĠĠĠĠĠĠĠĠĠĠĠ ĠĠĠĠĠĠĠĠĠĠĠĠĠĠĠĠĠĠĠ
W h
ul ations
ic ol
if act
Ġ< !--
in ess
h n
Ġapp lication
Ġre co
Ġcontrib ution
Un it
} +\
Ġspec ial
S O
er ial
Ġnode s
() ->
Ġcom mon
Ġto o
Ġv eloc
get her
Ġrel ated
ĠF ile
bo und
ĠI s
N D
math sf
ab il
UL T
ĠE rr
Ġd ate
o ke
Ġse en
g ment
W idget
Ġa pi
\ "
out h
Ġcorre ct
sh ift
Ġman ag
20 10
l s
4 9
m ost
ĉ ĠĠĠĠĠ
Ġaga in
Ġ- \
no indent
Ġp ut
Ġt ree
Util s
ch ie
M atch
S A
in ner
pl it
PE CT
ĠT able
D at
D ocument
AR T
Ġm is
Ġro le
back ground
Ġl a
Ġph ot
Ġre lation
n eq
Ġden ote
ĠS up
ern el
rom ise
Ġco ordin
ad o
Ġre nder
Ġre ason
Ġ{ };
Ġn ecess
ĠN ot
Ġb it
Ġacc ur
ĠG ener
r ule
ĠO F
cho ol
Ġst ar
er a
O pen
tain s
c r
ĠM ore
Ġle arning
Ġchang es
m ar
ate gy
Ġde sign
ter min
p atch
Ġm er
Ġcon nection
Ġnot e
Ġdetail s
er tain
b in
CO L
P P
ĠC reate
Ġe mpty
ĠC heck
ist ry
} -\
Ġrel ations
Ġlarg er
Ġc or
4 7
Ġsup p
Ġmaxim um
Par ams
a uthor
Ġf loat
ĠTh us
b a
c d
g ing
6 8
Ġcomp onents
V E
$ (
Ġ ;
Ġtemp late
N et
O ption
ward s
Le vel
P ack
ĠB ut
z e
\ ,\
K E
res ource
Exp ression
ST R
Ġpar ams
Ġe mb
V AL
ĠD ata
Ġfile s
un try
de p
jav ascript
ĠA meric
k s
ĠF e
di ent
in o
ass word
Ġmo ve
Ġn at
E mpty
Ġb i
d ag
20 21
t ml
om ial
struct or
S H
P tr
Ġco ur
f inal
m ore
Ġre mo
Cont rol
Ġare a
Ġp erson
f l
umb ers
ast ic
) }{
enc ies
co py
Ġf l
Ñ Ģ
B undle
Ġc r
Ġim ages
Ġx ml
Ġs uggest
ĠC LASS
Ġhand le
O ne
Ġl ater
Ġco e
D F
ction ary
u ary
ĠS p
Ġco st
Ġcomp lete
it ive
f s
E Q
pt ure
Ġin it
Ġbl ack
Ġf amily
Ġgiv es
Id ent
lay er
ol t
ab s
i ed
enumer ate
t ex
t ask
il t
by te
Ġcre ated
Se arch
% %
" .
operator name
re st
Th read
item ize
ĠĠĠĠĠĠĠĠĠĠĠĠĠĠĠĠ ĠĠĠĠĠ
Ġent ry
a int
ri es
ur s
Ġh ard
ph er
Ġloc ation
Ġa chie
de bug
me m
al y
CO DE
ĠM et
4 2
ĠSe e
v as
yn tax
Ġth ink
Ġd oc
Ġat tribute
ent ly
s v
v space
================ ================
AT ION
] \
Ġcon ver
om ic
Ġwe ak
D ir
th ough
the orem
trans form
Ġ* )
Ġlo ss
ĠR o
Ġp attern
ol ved
type of
" ))
g ed
M em
Lo cal
P i
ĠH REF
Ġy ield
jo in
Ġreg ular
T I
Ser ial
) }$
h ash
Ġd ay
: </
t adata
Ġapp lic
$ }
Ob j
co mes
Ġimp lies
L I
Ġun ique
H ttp
bo ard
C R
Ġdo main
OR T
se qu
file s
ĠC lass
inc ip
Ġh ome
8 5
ir cle
ĠI nd
Ġapp ly
Ġl ayer
d imensional
Ġden ot
D irect
R ight
Ġin s
Con nection
Z E
te ction
Ġto ken
rit ical
Ġh app
Ġdescri ption
Le ft
ĠThe y
Ġset ting
ed ia
Ġpro gram
Pro cess
Ġad ded
Ġun til
a use
umpt ion
I ter
ĠG o
Ġselect ed
om en
n ce
Ġsolution s
Ġerr ors
Ġt re
Ġli k
Ex ec
Ġd irection
Ð¾ Ð
A c
r ange
Ġp adding
p op
id ence
ĠC an
Ġup d
tt ps
ĠEX PECT
ĠD is
C opy
mo oth
C ore
c el
pp ed
Ġcontain er
ac ing
Ġpre c
in a
U M
u id
et ch
equ al
al let
web kit
igh b
mult icol
) +
Ġg l
Ġname space
Ġin div
Ġover ride
i ps
Sto re
multicol umn
the n
con f
Ch ange
im er
re nder
to ken
ĠD es
Ġ _{
Ġal ign
Ġb us
call back
i qu
ĠIn st
ar ies
appro x
am l
av es
ĠN ame
K ind
ĠW ith
Ġhas h
ĠT e
de s
() :
cont rol
R ender
mp l
Ġsign al
N N
f n
as sed
Ġpl an
Set tings
ms g
Ġeffect ive
Ġd imension
um an
Ġpar se
Ġthere fore
Ġf uture
Ġexp licit
ĠS ub
at form
W ork
Ġass ign
Ġh ttps
#### ####
idd le
b efore
Ġen ough
\ '
F O
) /
> ,
P R
Ġsol id
v ector
Ġc ref
Ġcon v
ã ģ
ĠR em
st yles
Ġeffect s
P T
n ap
^ -
ub e
ĉĉ Ċ
Lo ad
l us
qu are
Ġd r
d im
Ġal gebra
L ocation
" ));
ĠC ont
Ġbo x
ater ial
A b
O p
4 3
S cript
ĠN S
Ġg row
Ġv olume
~~ ~~
Ġp ay
Ġbo ok
Pro perties
f il
R el
ri ef
Ġdiffer ence
Hand le
il li
re q
u di
de lete
eng ine
ĠM ar
Ġlang uage
Ġh olds
M ult
P ort
Q ue
AL L
Ġst ore
Oper ation
c orre
Ġa mount
4 6
C an
Ġbehav ior
he nt
Ġappe ar
s d
E ntity
ar p
Ġpre dict
Ġar t
âĢ ¦
x x
sol ute
9 8
Ġst rict
N ote
c f
Ġab le
\ }$
Ġpri or
Parameter s
oc ial
( *
AC K
= {
Ġc irc
Ġo pp
Ġveloc ity
Ġvar ious
o ps
}} }
S ince
Ġdirect ly
Ġre spon
Ġke ep
Ġmag netic
N one
Ġp anel
IG N
-- -
ent er
9 6
sup er
Ġs cope
C urrent
Ġapp lied
a a
Ġqu e
re ed
ad ow
M eta
a uto
ro s
Ġad v
ĠT O
Ġb u
Ġpro ve
mb ers
inal ly
Re cord
Ġbe gin
C P
b order
alle l
Ġgroup s
9 7
, âĢĿ
osit ory
Ġto gether
oriz ont
g s
Ġ[ '
Ġst ars
is ing
i sed
ma ke
cre en
Ġacc ording
}} _
200 9
Ġw ave
ir m
H ost
H O
Ġspect rum
Ġmem ory
F ont
G ET
` .
% ;
w ait
se l
The n
Ġhow ever
I R
Ġc ertain
in ternal
n a
Ġme chan
Ġcontin ue
th on
Ġsupport ed
Ġf ar
Ñ ģ
S L
S ession
leg ate
Ġsh ift
Ġpro m
ĠQ u
ERR OR
he l
ick er
Ġindiv idual
cl asses
re place
Ġallow s
our s
st amp
Ġact ive
Ġp at
Ġwrit ten
hand le
ĠB e
Ġ[ ];
Ġ$ .
The ta
AN D
Ġre search
Ġwe ek
Ġe igen
Ġon ce
Ġac ross
Ġreturn ed
EX T
By tes
c p
j ust
In valid
yn ch
ag ing
d r
ĠĠĠĠĠĠĠĠĠĠĠĠĠĠĠĠ ĠĠĠĠ
bo olean
Ġup per
f act
ĠO R
a fter
Ġse lection
le an
or ig
} '
us ic
Ġcomp ared
ĠThere fore
to String
en um
Ġne ut
f ree
~ $
tr ies
Ġprovide s
ic ons
Ġclo sed
d x
Ġwh ose
Ġestim ate
Ġen vironment
Ass ert
As ync
d om
le y
__ (
D D
as ic
ĠâĢ ĺ
Hel per
pro d
P os
Ġorg an
ĠM ath
Ġtak en
ĠĠĠ Ċ
Ġk ind
ĠO ne
Ġex cept
ma ins
_ ;
Ġ\ ;
Ġf ig
Ġme tric
ty pes
orizont al
ĠEx ception
Ġd raw
Re ference
Ġs ent
Imp l
Ġwork s
inter face
Re ader
up le
ide s
Ġev olution
model s
Ġa uthor
at al
Ġ ::
ĠL og
R ect
and id
Ġn av
uss ian
ĠErr or
{ $
Ġp ub
ach ine
25 5
Ġr atio
K e
Ġh om
Pro ject
Name s
Ġ il
clus ion
g ence
ĠU p
B ody
co der
Ġ\ |
< \
Int eger
M enu
5 7
S ign
ĠC al
at ively
Ġne ver
C S
Ġn um
Ġsatisf y
ĠTr ans
8 7
=" _
R out
st rap
du ces
Ġchild ren
Ġmon th
def inition
ĠD E
Ġequival ent
ĠC ar
w idget
ĠUn iversity
Ġb en
Sche ma
Ġst op
Ġde vice
text tt
n orm
ind ing
Ġs witch
under line
' ],
St ack
Ġmat ter
Ġs ure
Val ues
) |
pre c
ang es
Ġne eded
Ġcl asses
Ġdat aset
Arg s
dis abled
Ġ ign
ĠE ng
ĠU S
Ġb and
}} ,
}^{ -
l ines
math scr
we ight
Ġmat erial
ra in
OR D
ul ated
Ġp ract
yn omial
= (
un e
en v
il s
Ġset tings
ĠR ef
Pol icy
resh old
pd own
Ġin fo
P arent
Ġext ension
use s
u ro
min us
Ġder iv
Ġexp lo
Ġother wise
Ġinter val
st ep
ĠâĢ Ķ
Ġg as
Ġ$ |
foot note
5 00
Ġre main
Ġar ch
R A
Ġr ather
` ,
E CT
app ly
X X
P L
D own
200 8
Time out
im ate
bo ot
z z
Ġcol l
ho ver
Ġbas is
Ġj ob
g rid
Ġst ack
ĠS T
Ġl ife
co ding
a j
V ector
Ġact ual
cond ition
gg le
w s
St orage
Ġ( '
N ow
Or der
ag n
Ġby tes
an ced
Ġde lete
de tail
g lobal
comp onent
Ġinteg er
5 6
C A
$ _
Ġ< =
Ġemb ed
h igh
de vice
="../../../../ ../
P RE
Ġ$\ {
Ġac cept
tr m
b ul
it tle
res ents
P S
A ut
ĠM on
I F
Ġfrequ ency
Ġunder stand
Ġ+ +
Ġflu x
Des cription
M on
ĠIn ter
ache d
li er
ĠC l
ho od
Ġby te
Ġinteg r
Ġs ort
Ġle g
Ġitem s
ache s
Bo olean
Ġex ception
c lick
Ġuse s
ĠI m
au ge
Ġdescri be
Temp late
lug ins
Par ser
Ġpresent ed
Ġsmall er
att ice
Ġp assed
pi ct
a uth
Ġco ver
100 0
Ġ( *
Ġword s
ide d
L S
tex trm
_ +
E ach
ur y
id s
id ing
s cal
Ġsh ape
re mark
Ġp os
ce ed
ynam ic
Ġma jor
art ifact
Ġ" \
Ġpro ces
f ocus
set tings
ion al
Ġdeg ree
Ġexp ress
^{ -\
Ġs ymbol
SE T
Pro p
ot a
Ġs ens
Ġhe ader
Ġof ten
Ġ( $\
Ġaut om
200 6
Ġgo ing
g ent
Def inition
Ġ$ {
8 6
e ach
d irect
de ed
subset eq
= -
ĠS k
=" -
Ġcontinu ous
Ġs l
Ġh old
D oc
Ġ} )
Ġb ar
Ġinstance of
ĠP r
Ġn umbers
IN E
em s
Ġre port
Ġvert ex
Ġr ule
( :
Ġthe orem
U s
Ġf und
Ġreg ister
li de
Ġde termin
Ġde cre
ĠJ an
Ġmak es
h r
Ġam ong
ĠM ay
Ġexist ing
Ġf ix
Ġs ources
He ad
T ER
200 7
COL OR
Ġoper ators
ĠD ate
Ġsub ject
ature s
Ġs ite
r ist
De lete
b le
ul ly
Ġgener ate
W riter
Ġpre di
4 1
ĠC ON
ew idth
: \
Ġa mpl
ĠR E
Ġg round
ĠP ol
Ġl iter
s ort
Ġh aving
" `
et ime
ĠP l
Ġg overn
A fter
ĠSt ate
Ġnat ural
Ġassert Equals
on es
dag ger
ĠM ap
ta int
ĠS ec
al low
result s
Ġrun ning
W hen
Ġdoes n
Ġn u
O M
c ard
A SS
mit ted
Ġbe come
Ġe lem
_{ (
st ore
key s
in f
ynch ron
Ġest ab
Ġphys ical
ul er
ĠĠĠĠĠĠĠĠĠĠĠĠĠĠĠĠĠĠĠĠĠĠĠĠĠĠĠĠĠĠĠĠ ĠĠĠĠĠĠĠĠĠĠĠĠĠĠĠĠĠĠĠĠĠĠĠĠĠĠĠĠĠĠĠĠ
se ssion
Ġsc en
web pack
Ġcho ice
ar io
lim its
p g
con s
200 0
com m
Ġg reat
ĠE nd
AT A
Ġbe comes
Ġst re
Arg ument
z ero
\ }
Ġs ho
Ġf ramework
Ġin fin
Ġc are
V ari
um in
S cope
Ġan t
led ge
Ġname s
Ġpl ot
S k
F alse
cre te
Ġcomp ute
st o
ck et
U RE
s end
Ġneed s
Met adata
Ġ( -
ar ing
Ġcon vert
Ġmult i
Ġsymme try
R oot
Ġcontain ing
Ġcur ve
equ als
Ġkey s
ĠWe b
ru pt
Ġinst all
al ysis
ĠĠĠĠĠĠĠĠĠĠĠĠĠĠĠĠ ĠĠ
ans ion
G raph
Ġinter action
G E
TE ST
ä ¸
Ġno ise
_ ,
ĠP o
* {
ĠG a
} %
Ġemp loy
t ical
L L
Ġdat abase
Ġne ighb
C al
}} _{
Ġtype of
M D
Ġth read
Ġtak es
' ))
Ġse ssion
Ġneg ative
doc s
co ver
ĠI S
.. ..
5 9
Ġf ac
Ġproblem s
Ġpol icy
in sert
Ġcon nected
5 8
is k
ill ion
Th at
amil ton
ra ft
ed it
Ġnecess ary
Ġst atist
Ġcomp act
J S
Ġte am
ss ages
op lus
J o
Ġg auge
By te
bl ack
Ġp ert
ang ular
w edge
Ġgalax ies
add ress
Ġdeterm ined
Ġ$ -
m atrix
er ing
ĠJ SON
R I
Ġfil ename
Ġinclu ded
ad a
Ġy et
Ġs amples
ff ff
Ġd im
ĠT ime
ut or
Ġc he
Ġre view
p k
-------------------------------- --------------------------------
L P
Ġimplement ation
ber t
Ġle arn
Ġs end
Ġradi us
Ġun signed
p lugin
Ġre ally
re c
reg ister
U B
Ġquest ion
Des cript
os en
Ġcons istent
point s
200 5
Ġminim um
I nd
Ġre plac
Ġs mooth
ã ĥ
stro y
omorph ism
Ġ$ [
set minus
Ġincre ase
7 8
De vice
Ġf unc
F unc
DI R
B ound
S u
un ch
mod al
Ġf ocus
Ġobserv ations
Ġt w
h ib
in itial
ut ing
am era
S ymbol
ind er
ate gor
Ġar bit
nap sh
us ion
Ġb inary
Ġpartic le
iv ing
Ġg re
ĠE vent
lin ewidth
Ġs plit
Ġpol ynomial
ĠF r
Ġhand ler
E l
ac cess
Ġhy per
medi a
Ġde st
ĠV alue
h a
k et
Ġgra v
Ġfor ce
Ġco me
p anel
En abled
i ol
Ġe mission
âĢ Ķ
Ġcent ral
G B
OR M
Ġmedi a
ced ure
ut able
) ">
Ġ Â
Ġc ut
if ies
Ġch ain
ĠR ep
Ġrequ ires
Ġr ank
ip el
Ġform ula
Ġs ays
Ġth ird
con nect
ĠA ct
A V
Ġsche me
Ġg ot
Ġmap s
sc roll
Ġlo op
Ġelect ron
Ġde mon
field s
> .
artifact Id
to ol
ic ult
HT ML
", "
a de
ab or
Ġa ffect
Ġm ix
Ġpartic les
ur i
let ed
f ramework
' \
Ġme mbers
v m
Ġpart s
Ġallow ed
Ġp ress
E M
Ġear ly
Ġde cl
Ġun cer
Ġc ritical
A pi
* )
Ġh alf
Ġco re
Ġreg ions
ul ate
Ġun iform
ĠS te
Ġent ire
lev ant
it ect
Ġbut ton
lu str
ro py
Tr ack
Ġw ait
Ġsc atter
ell ar
is sion
Ġar r
ic ate
Ġdistrib uted
L ong
ut er
Ġsu fficient
Ġfa iled
Ġin side
Ġt ensor
Ġus ers
7 6
Ġal most
Ġsuccess ful
E q
Ġm sg
H as
sh ort
TE X
ĠF rom
Ġhe nce
f it
ĠF unction
b all
T ra
lo or
S o
Ġf r
ĠG r
Select or
Ġcompar ison
rag ment
Ġ ),
Ġs w
y l
f ull
ect ors
ĠS he
ĠM in
Ġapproxim ation
Ġl ate
Ġscal ar
. __
De bug
Ġuse ful
M ock
B C
A p
ĠU RL
sub figure
ansp ort
Ġdirect ory
N etwork
align ed
re es
ĠS c
ĠT ra
Ġdeterm ine
su ccess
V er
Ġin line
al es
Ġb ottom
ĠM o
ann er
im its
Par am
Ġder ived
cre t
Ġit self
,\ ,
Ġpr incip
Result s
ro me
ĠC or
st ers
Ġa xis
N on
Ġa uth
y nt
o sed
X ml
ex port
Ġa void
c ustom
h s
Ġcoup ling
th ers
Ġext ra
p or
f aces
Ġpro file
er ved
do uble
Dec l
Que ue
Ġcol lect
Ġper formed
group Id
ĠI O
sq l
item s
P od
Ġv ideo
em ents
ĠG e
EN D
), \
Ġbo unded
Ġcomp are
Ġde s
b its
Field s
V ar
ĠH ere
ã Ĥ
ĠHT ML
p adding
Ġpro per
P H
Ġth ough
R ule
Ġcon nect
Ġext ract
medi ate
ĠĠĠĠĠĠĠĠĠĠĠĠĠĠĠĠĠĠĠĠĠĠĠĠĠĠĠĠĠĠĠĠ ĠĠĠĠĠĠĠ
U P
O D
_ *
& #
Ġo s
Ġmak ing
re cord
Ġh istory
Ġwe b
ex ception
T itle
Ġmoment um
Ġ' /
ĠTr ue
Ġ| \
M ark
> ();
App lication
P attern
)\ ,
at ically
m ic
Ġlead ing
Ġw on
in v
B uild
Ġsimp ly
N G
se quence
imp l
. )
Ġ} \
Ġconstraint s
to ggle
Ġpart ition
iv ial
U se
D ialog
Ġb ig
Ġdemon str
at tribute
N um
styles heet
Ġde ep
Ġhe alth
ĠN OT
i ke
as hed
spec ial
av en
Ġdisc uss
) {\
Ġd ays
sh ape
Ġresult ing
In it
ĠP art
Ġman if
Ġatt ack
Ġv ers
S ION
ĠN e
Ġtest s
s ive
Ġrep resents
ar ily
ĠM ark
ĠG u
act ers
M ore
Ext ension
ffic ients
at ial
ĠO ur
Ġp ers
type def
ĠP er
ĠO b
Ġso ftware
Ġpe ak
M C
Ġact iv
D eta
Ġinter pre
k er
CT ION
m argin
ĠTh at
Ġj son
Ġampl itude
Ġro b
l imit
_{ {\
Ġinvest ig
in line
Ch annel
ch annel
5 4
Ġoper ations
radi us
Ġv an
k ing
ĠE d
V olume
ĠF irst
Dat abase
g u
Ġt reat
ĠA b
="../../../../ ../../
k ind
Ġdiscus sed
7 2
ado op
Ġnumer ical
Nav Bar
T C
de g
col on
P ost
oll ary
ĠB G
_{ -
o om
Ġg rid
struct ure
ser ial
Ġs m
AT H
Act ive
ĠU se
ĠDef ault
Test s
Ġ( "
On ly
} "
)) )
O K
5 1
Ġ" /
7 9
_ ->
Ġincre asing
## #
Ġtak ing
Ġorig in
Ġs ense
ist ration
H ere
F ound
J SON
ĠM e
IT Y
Ġc laim
uck et
event s
he lp
anag ement
8 9
com ment
Window s
ist ing
Ġsome thing
Ġdynam ics
Ġs itu
tr igger
A re
' >
Ġact ually
lang uage
Ġco unter
Ġcon struction
4 00
Ġf ri
ĠL O
ag ed
ert ific
ĠS pec
ym f
Y ou
Ġmot ion
Ġ ir
ymf ony
Ġin ner
pr imary
Ed it
c ategory
Ġcont ra
Iter ator
ĠB l
ad min
ĠV al
ĠN ode
Ġsatisf ies
v ision
select ed
G e
Ġspe ed
ator y
' _
st op
Descript or
Ġdepend s
-> _
ock et
re al
Ġpro duction
abil ities
KE Y
ve y
) ),
) }(
Ġdis k
or ing
Ġ ensure
Ġ&= &
Ġsim ulations
C lo
big g
os ite
un signed
Ġsh all
Ġl ittle
ĠR equ
Ġdiff icult
F R
ĠPro position
ify ing
Ġuncer taint
que ue
C re
Ġexperim ents
Ġa way
ĠT HE
Ġw ide
ipel ine
ri p
M B
Ġs cript
gorith ms
Ġopt imal
cm d
Ġcorrespon ds
app lication
Ġp ixel
5 2
] ]
n eg
Ġat tr
Lo ck
C lick
Ġd omin
v a
Ġj av
end ar
3 00
dro pdown
Ġc tx
ĠR ec
\! \!
Ġf all
M e
Ġh uman
anc el
Ġspect ral
gg reg
Ġlink s
ap s
Ġcomp uted
r ate
C ustom
Ġ ^
Ġinclude s
Ġvert ices
Ġl attice
_ (
Ġ\ (
an a
mo ck
Ġf raction
Ġcho ose
25 6
}} (\
Ġchar ge
Ġpert urb
Ġcalcul ated
b i
Ġat temp
ĉ ĠĠĠĠ
Ġg en
CH E
ul y
Item s
ĠJo hn
Sec urity
In itial
Ġang le
AC E
a ff
[ $
Trans form
200 4
sup port
ĠRe ad
her it
Ð° Ð
S end
ĠF orm
ĠĠĠĠĠĠĠĠĠĠĠĠĠĠĠĠ ĠĠĠĠĠĠĠĠĠ
Ġdec ay
G o
se ct
M sg
ol ver
Ġp ast
Ġme mber
Ġra ise
ome tric
lap se
c ame
col lection
Ch anged
Ġ+ \
ĠM y
w rap
ĠI mp
Ġpr imary
da pt
ĠS ch
Ġwh ole
5 3
Ġmeasure d
bl ue
Ġre ported
Ġintro duced
Ġin variant
Ġch all
Ġclass ical
f ix
de st
pro ps
b old
C ur
; ->
Ke ys
h ere
ĠGet s
Dis play
ic a
Ġmag n
FA ULT
Ġe cho
Ġres olution
c ar
W E
w ar
ie ve
urre n
Ġtrans fer
Ġh tml
Ġcour se
N E
equ ality
6 9
Ġwork ing
y ear
Ġstate ment
M atrix
ard s
) _{
Ġn et
Ġd b
Ġcurrent ly
ort un
new command
J ob
w ner
Ġar tic
Ġmo v
Ġrece ived
Ġpack age
pe at
bul let
Ġf n
ax is
//////////////// ////////////////
.~ (\
Ġab solute
ĠC opy
' re
ĠC re
Ġd ig
Ġw ater
Cl asses
s ime
ĠS tr
s ur
av or
h y
Ġde tection
Ġh yp
Ġcon c
Ġf ace
h older
h adoop
s pect
Ġsub st
Ġpop ulation
sime q
per p
an notation
Ġaccur acy
en ing
ĠP y
ĠH amilton
Ġdevelop ment
Ġlik ely
ĠH ence
Ġal tern
TE D
T ab
{ $\
mult i
ĠAmeric an
ay ers
sh ip
Ġpol ar
In ternal
}$ -
Ġpo inter
Ġex amples
D raw
Ġstud ies
TR Y
reg ion
ĠS D
Ġat tributes
Ġimp act
ĠS im
ult ure
ri ed
t mp
for ce
Event s
S R
ĠĠĠĠĠĠĠĠĠĠĠĠĠĠĠĠ ĠĠĠĠĠĠ
Ġth erm
Ġed ges
Str uct
B l
ous ly
"" "
FI LE
wh ite
( !
Ġiss ue
Ġcorrespon d
napsh ot
Ġser ial
Ġapp end
r ices
Ġpart ial
sub subsection
Ġ ess
$ ^{-
Ġm ention
in ct
Ġpl ane
el li
) _
++ ;
Ġk ernel
iter ator
as er
est ed
cont in
Ġc ategory
AG E
pro b
the me
clo ud
Ġcoe fficients
ĠBG COLOR
Ġe q
7 4
ĠD ep
c ases
Ġn orm
k a
Name space
c ut
ĠN ov
at ives
Ġth ings
Ġde comp
ymp tot
Ex ternal
V ID
Ġil lustr
Not Null
' }
assert Equals
parameter s
[ :
de sc
Ġ util
ly ph
N e
Ġf ive
ot t
Element s
Pro xy
s ider
w rit
ck er
o ung
Ġre m
for all
Pro ps
Ġeas y
lic ity
i ans
Ġappro pri
) ^{\
Ġinterest ing
F ail
Ġr ules
et ing
Ġcorre lation
Ġc andid
ma z
text sc
Se ction
Ġv ac
g an
h am
I B
Ġf un
in y
O ur
Ġexact ly
p ing
R ed
row n
ĠO pen
Ġst eps
or ter
child ren
con nection
ec ause
) ).
com ing
Ġinteg ral
l or
p ub
Ġse qu
on ic
R untime
Ġlong er
ĠUn ited
import ant
ĠM odel
Ġm ask
Ġtrans action
L ib
Ġlead s
boot strap
8 2
add r
d en
ĠO ut
Ġexp onent
Ġwh y
Ġoff ic
F loat
Const raint
e in
8 4
Ġident ity
$ ).
Ġs amp
v s
Ġse gment
Ġexp ansion
dep th
Ġme ta
Ġnetwork s
Ġa ge
if fer
il ation
Ġproces ses
Ġof fer
Ġarbit rary
Ġbas ic
à ¤
Ġass umption
ĠV AL
Ġch osen
C a
ĠĠĠĠĠĠĠĠĠĠĠĠĠĠĠĠ ĠĠĠĠĠĠĠĠ
is ation
M ember
el er
) ^{-
ĠN ational
W S
="../../ ../
e h
se ss
ing le
Ġdep th
Po inter
Ġor bit
Ġ" "
an ded
un defined
ĠTO DO
Ġpair s
Ġcon sole
Ġstart ing
ord s
ĠA fter
Ġfig ure
ca de
tr ics
foot er
p ic
D C
Ġf lag
Ġde al
12 8
S QL
Ġpres ence
h om
At tributes
Â ł
by tes
B efore
Ġcomp any
ag raph
Ġang ular
Ġeas ily
Ġh ar
Ġexperim ental
B it
ĠD i
Fig ure
Ġchang ed
( __
C lose
se ud
A uth
Ġa ff
Ġ$ $
mis s
6 3
arg ument
al i
mod ules
Ġtr igger
Ġs co
Ġ( _
c b
D S
is ms
; <
S im
Ġde tect
do main
p a
Ac count
Se cond
ĠN ow
Ġi o
F lags
M o
Ġmeasure ments
one y
SI ZE
Ġre levant
Lo ader
Par se
Ġex ternal
index Of
Ġremo ved
Ġapplic ations
Ġw in
I con
Ġthe ore
Ġc lu
Ġpro cedure
Ġwh ite
om s
^{ +
o ught
Ġf ully
ĠMet hod
Ġre duced
tr ack
Ġdistribution s
Ġsp aces
ĠB ase
Ġlo ck
udi ed
con struct
wit ter
P AR
m i
Ġcon tact
-- >
() {
ĠS ome
D ist
Ġenco ding
form s
f lags
Ġsim ulation
MA X
Ġcom ment
)) );
rib ution
=" "
co in
p are
en n
L ayer
To ol
Ġsu ff
em ail
ex ists
od ot
p ress
o ch
~ $\
6 2
Ġcon duct
R et
Ġin equality
Ġet c
Ġtyp ename
ro duction
hent ication
urther more
tot al
L in
Sc roll
U ID
s ave
Ġstr ategy
Ġinv oke
tx t
wh ile
Ġcoordin ates
7 3
Reg ister
ĠO ct
T S
agn ost
J ECT
depend ency
Ġre lease
Ġor d
ĠB OO
pro duct
ĠN O
200 1
G S
Ġbus iness
print f
ĠĠĠĠĠĠ Ċ
At tr
Ġfor ward
al o
p id
on ical
Ġn g
Ġmode s
Ġe ff
Ġfil m
$ $\
Ġref lect
Ġwrit ing
Ġal t
Con dition
ng th
' .
S Y
th read
Ġmo ck
pp ing
Ġan sw
Ġexperim ent
sche ma
Ġchar acters
S um
M icrosoft
B R
Sh ow
net work
= >
9 4
re ement
H owever
tr i
p assword
o x
Ġtransp ort
e ff
p lugins
9 3
B A
Node s
Ġs ocial
Ġal loc
Ġfe el
L IC
ch art
9 1
S cale
Ġo thers
LO G
de c
Ġbound s
ĠMore over
lo op
Ġin valid
ĠW orld
Ġdepend ence
D U
ĠA ug
pro perties
Ġlevel s
Ġc lean
Ġcur ves
Ġmatch ing
Ġset up
p icker
\ _
aw s
ok ie
Ġd ual
Ġprop ag
Ġ= \
Ġser vices
a iled
n one
pict ure
C luster
A uto
200 3
Ġon es
ĠM an
r f
Ġd ark
il ib
ant ic
Ġh idden
") ]
I E
m aterial
or ity
Ġm usic
ĠU ser
ad s
ĠP re
ut f
ok s
Ġpl atform
Ġf ill
s ure
=" /
ĉ ĠĠĠĠĠĠĠĠĠĠĠĠĠĠĠ
hand ler
t ure
Ġon line
T e
b rief
Ġvis it
F N
ĉ ĠĠĠĠĠĠĠĠ
Pack age
b and
Ġpro tocol
Ġbu ilt
res ses
B r
mult ip
de cl
al loc
en ers
ĠA rt
ri se
Ġdenot es
cont roller
m as
) }{\
og ene
En g
An y
ik i
Ġstring s
w in
ĠA p
are a
Ġs low
Ġd riv
Ġcommun ity
s witch
ro t
9 2
Ġre q
Ġtask s
scri be
b on
de t
ĠW ork
uro pe
ĠJan uary
Ġs ix
}} ^
Ġext ended
Ġout side
hes is
| |
per im
ĠR ed
W rapper
P ORT
comp lete
Ã ¡
re me
u str
@ "
Ġmagn itude
Ġspect ra
sum er
G R
i os
Ġj Query
Ġse cur
. *
Ġper cent
{ "
Gener ic
bo ost
iz ations
Trans action
pl ot
b es
Ġstruct ures
M edia
ĠGo ogle
duc ing
Ex pect
Ġal gorithms
f ail
; /
D R
12 3
e ffect
Ġqu as
Ġs creen
p ers
or al
ad r
P lugin
ategor ies
Ġres ources
un ty
m ask
Ġv iol
M ENT
ar ant
Ġ engine
Ġsymme tric
Ġpre vent
VER SION
ĠA N
s ince
Ġqu ality
Ġprec ise
Po ol
ac ed
M y
Ġst udied
v irtual
Ġc ity
I X
gener ate
)$ -
Ġre le
Ġ[ ],
Ġqu ark
a ined
$ ~
Log ger
Ġl and
Ġbl ue
P erm
Ġsing ular
ĠCh ar
Ġfe ed
Ġra d
ob ile
() ));
} )$.
Ġh ist
Ġco mes
ct u
ĠK ey
Ġf ast
ok up
not ations
Ġde sc
Ġlib rary
Ġfact ors
n umer
Ġbe h
C F
Ġp ul
Ġst orage
P refix
R est
pm atrix
Ġgovern ment
A rr
ent ity
In v
Ġbel ong
Th us
Ġupd ated
key word
ertific ate
ĠRe act
ç ļ
Rem ove
trans ition
Ġd ir
16 0
çļ Ħ
IT E
at ible
7 1
Direct ory
ame s
Ġvert ical
Ġas k
Pro tocol
sv g
s afe
p refix
_ -
me tadata
Ġbro ad
State ment
Ġque ue
D A
z er
Ġre ct
ub y
R R
Collection s
Ġt ell
h idden
Ġide a
er ed
Ġarch itect
ĠC all
f ect
F ramework
() ).
Ġcall s
par a
Ġ er
Ġintro duce
cc ording
Ġsub set
Ġre mains
Ġa ir
Ġst ory
Ġs chool
En um
ure d
Ġform ation
To String
CHE CK
ier arch
ĠT ext
)\ \
m c
Ġp refix
av y
Ġcomput ation
a res
h box
Ġreg ard
ĠI P
proto buf
Ġre ach
Ġreco gn
map sto
s heet
G rid
d iff
Imp ort
Ġ Ã
Ġst ellar
Ġst age
EN TRY
Ed itor
Ġmat rices
at tributes
Ġto ol
6 1
Ġconstruct or
Re ce
leg al
assert Equal
Ġoption al
h bar
y es
r ong
iz able
Ġcon cept
Fe ature
[ (
gra dient
ex pr
Style ID
ĠS ci
AR Y
Ġknow ledge
Ġtransp arent
co ded
Ġp od
for ward
A v
ang uage
Ġinf lu
Ġsh ared
ĠW est
N ULL
Ġca pture
' ));
Des c
Ġappropri ate
Ġright s
Ġincre ases
ĠIn itial
Ġfinal ly
ĠO ption
Di ctionary
ĠSer vice
O F
Ġl ot
Ġsecur ity
b ut
' (
ĠCh rist
con tains
Ġstart ed
Ġup on
ight s
}^ *
Ġa dapt
Ġsp atial
Ġas ync
ak ing
Pro file
U sing
ĠA pr
Ġth reshold
Ġtrans formation
sp ir
8 3
L en
it ution
Ġclo ud
th rows
ĠI I
ĠF alse
Ġrest rict
Ġqu ite
\| _{
d y
ot al
Ġ' <
Ġfr ont
Pr int
urren cy
ch ain
z one
"> &
du le
Ġtest ing
ĠT H
Ġl atter
E C
ext end
Ġdevelop ed
let ion
P anel
Ġe p
Ġimplement s
Se lection
Ġex ports
ĠC ode
Ġjav ax
Ad apter
ĠGa ussian
ta iled
inst all
O wn
S M
im um
) },
ĠG roup
M ar
A tt
Ġform s
j oint
w hen
b ers
r andom
id ers
b um
UT F
omorph ic
olt ip
if def
AA AA
urn al
Ġpro gress
The orem
\ {\
h ing
ole c
Ġyield s
ĠS O
Ġpol it
X ML
pec ially
Ġst ra
Ġre duce
ĠEx t
Ġco untry
O pt
Ġm apping
id x
] :
ĠO ther
Ġch arg
i ency
S ocket
ĠUp date
Mem ory
ĠV ersion
Ġess ential
ber g
li as
ill s
ed itor
Ġs light
n il
ĉĉĉ Ċ
Ġde t
iver se
Ident ifier
b al
ĠW indow
riter ia
re set
Ġca use
er ve
ho ut
Ġmod ified
Ġb al
ul k
Ġse ason
$ ;
Ġname d
W A
h ide
S ER
Ġr ates
Ġf oot
Ġindic ates
G r
Ġcorre l
Ġcontra st
ne y
Ġus ually
ĠHamilton ian
Ġmeasure ment
ed er
Ġopt s
er ies
al g
Ġ icon
Ġb uilder
s lice
ab br
d ash
Ġinter actions
Ġv ectors
Ġexper ience
Ġas ymptot
S ync
sc ill
ĠSt ates
ĠIO Exception
g le
ĠM c
sh adow
a ins
pro position
con trib
it able
li br
sp ring
ilib ri
Ġme t
TEX T
Ġde bug
ne ctions
R AN
St ep
ific ations
ann ing
Ġgre ater
Ġdiag ram
Ġhe l
Comp ar
Ġiss ues
Ġst able
s ite
F ix
ĠY ork
l ers
loy ment
a e
g ments
ST AT
, $
sec urity
a o
}} ^{
o ber
&= &
W hat
Ġcont roller
iqu es
Ġbr anch
ST ATE
ĠP ublic
om an
ase ts
> ::
Ġcon clude
M ain
Ġsignificant ly
block List
ĠA L
Ġdim ensions
la x
di ag
8 1
Ġun its
Ġm ut
G lobal
now led
ON E
'] )
red ential
n def
Ġobser ve
ar ation
Ġblock s
ens ive
ĠB r
Ġremain ing
con v
F ull
ĠIn tern
anc y
t wo
to ols
Ġt mp
Ġform er
Ġappro aches
pre v
RO M
Ġscatter ing
Ġexist ence
T erm
Ð »
Ġestim ates
Ġ Î
Ġpro duced
co very
Ġgalax y
Ġent ity
m anager
display style
Ġro und
st able
Ġn ative
pro file
rid ge
ho me
Ġ> >>
Ġ[ [
Ġlimit ed
Ġad opt
(' .
200 2
Ġpress ure
u it
Ġvis ible
n i
um ing
s ymbol
el i
Head ers
av ed
Ġre tr
ile s
Ġa ctions
Ġc amp
Ġestim ated
Ġb rowser
Ġgo al
Ġm asses
Ġen abled
Ġw alk
comp onents
Ġt ab
Ġe fficient
Ġe mail
Ġocc ur
Ġassume d
Ġme d
Name d
f i
Ġb ad
En umer
f d
Se e
ra d
ĠE qu
Ġd rop
ma ster
il i
Ġbuild ing
ĠH igh
Ġinv ol
Con f
AL SE
Ġm icro
D et
n ers
Ġth ought
medi ately
Ġor ient
Error f
Ġco sm
ĠA ND
Ġ_ .
Ġra dio
> \
Ġge ometry
ĠAl so
) [
A X
ang er
Ġb its
N R
he st
re sp
By Id
Ġlist ener
Do uble
clu ster
F IG
b ur
Ġ ],
select or
app ed
ĠO ver
s ys
Ġver ify
sc reen
not es
O UT
R ad
al led
script or
mo use
File s
B OO
Ġcalcul ate
Ġex port
BU G
iss ions
Ġrot ation
d p
ca pe
ĠT ask
Event Listener
Ġpro ps
Ġs ave
ang o
ĠA R
ce mber
vari ance
B rowser
cc cc
it ute
is ions
en abled
Ġpl ayer
RE AD
Ġp ick
k ens
Ġcons ists
c rypt
P U
Ġstre ngth
p ass
err ors
Ġme ssages
pro tocol
Ġme tadata
ï ¼
ĠWh ile
d rop
m ix
Ġf mt
Ġso und
Ġappe ars
if ndef
ĠM arch
Act ivity
en ed
ish ing
Ġin sert
__ __
P A
Ġpro duce
Ġanal og
fil ename
The se
Ġpath s
Ġpro gra
f g
ymme tric
r or
G C
b rowser
Ġben ef
Do main
F LA
Ġcolumn s
$ /
Ġconst ants
Ġmat ches
ĠReg ister
Ġpartic ip
S l
n n
Ġin du
im in
f ixed
Ġs quare
m ma
test ing
T ABLE
un n
} &
s ome
Ġo scill
Ġdiscus sion
ĠĠĠĠĠĠĠĠĠĠĠĠĠĠĠĠ ĠĠĠĠĠĠĠĠĠĠ
=" @
Ġre ader
os ity
Ġre c
M apping
ident ifier
Pro to
D L
Ġconver gence
Ġnot ation
Ġrequest s
Ġf ib
ro ug
il it
ol ic
ĠC ity
S eg
i et
st ats
-------- ----
ĠS U
Ñ ĥ
HT TP
P ATH
}{ |
Ġgrow th
ĠW hat
Ġcontribution s
ĠCon fig
Ġm ar
ĠH and
roug hout
ĠE urope
Ġen able
l arge
Ġqu al
D uration
t w
Ġent ries
Ġgra dient
v o
Ġrecent ly
%% %%
res olve
Ġc ame
B E
l g
Ġun less
pro gress
Ġab stract
om y
ilibri um
f amily
Ġo k
ĠĠĠĠĠĠĠĠĠĠĠĠĠĠĠĠ ĠĠĠĠĠĠĠĠĠĠĠĠĠ
Ġclass ification
IN S
un ique
Ġes pecially
Ġatt ention
I ST
199 9
el f
am ent
u ed
mo z
ĠCopy right
Ġnot hing
enc ed
Ġdynam ic
Dep end
C ap
D est
t ik
ĠB ar
bs ite
f lu
w rapper
Ġdifferent ial
Ġp ure
ac count
atal og
m ass
p attern
Ġra w
S yntax
Ġunder lying
Ġd ro
Ġm iddle
B P
Ġun known
ĉĉĉĉ ĉĉĉĉĉ
Ġto wards
Ġauth ors
Ġvis ual
Ġ_ ,
Ġse ems
pt ember
UR I
es ian
Ġf lat
iter al
time out
} </
ĠH el
IN D
Ġl ayers
Ġr g
O B
Ġl ive
N V
Ġext end
ĠO per
Ġproduct s
Ġlabel s
ĠM od
Ġoptim ization
pk g
j query
ip age
Ġopt ical
Ġm illion
Ġl at
Ġde lay
Ġde vi
j ob
: =
Ġmechan ism
Ġf lags
) }_{
ict ure
ĠV er
Ġclu sters
k w
Ġprom ise
Ġb in
v c
ĠD r
ing er
Ġcalcul ation
Ġsc roll
min ipage
get Name
M an
ur ch
} }$,
fer ences
c pp
Ġpar allel
Const ants
Ġw or
) +\
Gener ator
Ġw atch
Ġprevious ly
Ġc lick
Ġag ent
u ge
ĠU sing
f lag
O L
Ġv ol
e lem
Ġsk ip
Ġselect or
L imit
am ental
- $
s ample
Ġgener ation
head ers
Ø §
el low
ir al
ĠF ield
Ġre place
}$ )
Ġst ation
} }$.
ustr al
e le
$ ),
l ates
Ġl umin
} )$,
a ul
il le
Ġr isk
st orage
e cho
H z
Ġg ap
i us
end ix
j pg
Ġover all
Ġqu ick
Ġ{ {
I MP
Ġpredi ction
g it
ĠInt eger
v olume
Ġcalcul ations
ĠN umber
H R
Ġmis sing
}( {\
n es
Ġn ature
p ay
P op
TR UE
ifi ers
Ġen h
Child ren
s y
Ġtime out
Ġe ffic
Ġcomb ination
| _{
lo ader
Ġm orph
Ġm achine
ĠE ach
Ġde tailed
Ġcell s
I V
', '
ic les
Ġneut r
F ailed
New ton
Ġtr ace
Ġm olec
name s
) "
Ġinst ances
Ġcoordin ate
N T
Ġartic le
ĠV iew
ĠS outh
VAL UE
ĠE l
M R
Ġ rows
ib ly
! <
sel ves
199 8
en able
Ġres on
P e
re et
Inter val
Ã ³
Ġimpro ve
Ġign ore
Ġre ve
arg uments
Int roduction
Ġfail ure
is hes
ĠS to
Ġmark et
Ġbehav i
ĠNew s
u a
W R
Ġident ify
Ġcont ract
Ġcomplet ely
y g
Sp ace
ac ro
Ġk in
ĠL a
Sh ared
Ġget s
b el
Ġsh are
c ial
Ġab sor
F S
re w
LO CK
d one
) ->
: }
Ġident ified
maz on
Ġin c
] }
Ġscal ing
le ge
Ġsp an
M ath
Ġal though
E V
tik z
ĠJ une
ĠM icrosoft
S cal
con g
g reen
F n
A uthor
equ ence
Ġprocess ing
Ġred shift
Ġw aves
Ġt alk
S V
Rout e
Ġ ];
b ad
Ġstud ents
Ġloc ated
ĠI E
Ġ" ,
r b
Ġqu adr
ur ations
ĠĠĠĠĠĠĠĠĠĠĠĠĠĠĠĠĠĠĠĠĠĠĠĠĠĠĠĠĠĠĠĠ ĠĠĠĠĠĠĠĠĠĠĠ
ĠS chool
b ing
Ġ% }
Ġsize of
il ing
M at
Ġstra ight
P romise
c ircle
Ġim mediately
ue st
Ġre comm
Com ment
ĠP res
Ġh ot
. '
Ġindic ate
) -\
h i
le ep
Ġme tal
Ġsitu ation
Ġag reement
in valid
Ab stract
Ġgu arant
cal led
group s
s he
Ġgener ally
ex tern
Ġ$ |\
) )$
ĠD ec
==== ==
ĠApr il
Ġpar am
Ġhead ers
ĠĠĠĠĠĠĠĠĠĠĠĠĠĠĠĠ ĠĠĠĠĠĠĠĠĠĠĠĠ
prec ated
Tr ace
Com mon
Ġ" -
Reg istry
ass ign
Ġdist inct
TI ME
}{ (
Ġ ui
! [
con structor
PRO C
erm an
Ġact ivity
config uration
Ġe ver
Ġs us
Ġe con
N OT
: [
Ġ> >
Ġth ing
Ġlo ve
tag s
A CT
Ġtrans late
ĠF ound
Ġan no
s at
Ġch art
Ġocc urs
Ġinfin ite
Ġnot ice
M T
ĠEx p
U ri
L INE
ub er
con n
Ġ{ '
let on
ank s
s pe
S imple
ĠS QL
Ġe m
J ava
ĠW ar
Ġfact ory
am a
Pro gress
log ger
Ġv ary
F low
Ġev idence
Ex pr
Ġhyp ot
L oc
Ġrece ive
ogene ous
br id
if ically
B inary
A gent
Ġ" <
et er
tab s
Ġp ush
U SE
Ġh ole
ĠJ ava
ph ys
d ialog
Ġexplicit ly
ou ch
ĠD ist
Ġto ok
an o
ition al
en ses
R ole
Ġc ircle
Ġ[ \
F C
check box
Ġto day
Ġex it
Ġpro f
Su ccess
DO M
Ġnew s
Ġad min
ĠH ash
m ag
P air
ĠN orth
ĠA SS
ĠJ uly
Ġflu ctu
Ġform al
r ift
Ġr ing
Ġen um
Ġobserv ation
Ġp refer
ĠOct ober
et ic
Ġs core
S ymfony
ĠDe cember
ch or
en ch
ograph y
( @
Ġre ject
End point
Ġb uf
f x
Ġtechn iques
serv able
Ġmin imal
Ġed itor
sh al
ĠRes ult
F UN
Ġxml ns
fo und
Ġb tn
Ġp y
Ġ ).
pro tected
sequ ently
Ġrepresent ed
ynt he
Ġcomp et
b t
Ġgener ic
F E
ill a
N A
Ġh ours
Ġde ath
Ġw allet
Ġf ire
Ġin duced
r ics
Ġimplement ed
H o
p u
ot ion
There fore
th row
ant i
EN SE
S ingle
exec ute
Ġ[ "
Ġdes ired
Ġpass word
li ct
Or ig
detail s
sp aces
RE G
ro ad
Ġ' ';
par ser
ing u
ode s
ig hest
ĠAug ust
ph an
Ġp lugin
Ġho use
Ġc la
r d
CE SS
Ġcomp an
Ġgame s
F inally
con tain
Ġdid n
gra d
F L
Ġreg ime
ĠPro ject
Ġbe y
Ġstrong ly
Ġ" $
Ġlarg est
Ġmean ing
em bed
ad ing
Ġcom mit
less sim
en ess
check ed
Ġ\ &
De legate
view s
Ġbey ond
ĠHT TP
ext ension
Ġdo ing
const ant
Ġde tected
Ġvalid ation
pe ated
el s
$ _{
Res ources
L java
Ġ ener
j unit
Ġrest ri
Ġautom atically
ore st
######## ########
node s
ĠNov ember
vent ion
\ ;
Ġpro jection
Ġin verse
Ġevalu ate
Ġweight s
u ous
ĠU I
p air
Ġv s
^* $
ig gs
Ser vices
pro xy
co unter
Eng ine
C or
Pro duct
ic ator
Ġscen ario
ĠS w
al gorithm
om b
Ġtreat ment
ty pen
Mult i
Rep ository
15 0
Ġ ion
Ġres olve
Ġgraph s
ĠSe ptember
b uilder
Ġfore ach
Ġv o
Ġf o
" /
Ġre duction
ĠM ed
Ġd uration
c ref
Ġpro xy
Date Time
ĠIn dex
Ġf amil
Ġdec ision
t c
big l
33 33
ĠC ent
P UT
CO MP
z ure
Ġpub lished
option al
opt s
Ġscal es
ri a
Ġsign ature
Ġ' \
ĠD irect
,\ ,\
IC E
Ġtra in
C I
ex ternal
Ġb undle
Ġcontain ed
ĠP ath
pl atform
i ef
ĠM ax
Ġo dd
Ġpro to
os ing
Ġlook ing
/ (
ivers al
c us
Ġch unk
ra ms
Vari able
Sh ape
Vert ex
Ġexec ution
ĠSt art
typen ame
Ġc m
IP T
iss ues
Ġe mer
O ff
ĠR un
ã Ģ
libr ary
Ġa wait
$ :
Ġ( [
IT ION
Ġtheore tical
v an
tr ace
Ġare as
ĠM a
ĠL ib
H ER
Ġmeasure s
Ġmention ed
Ġpar ser
s uch
ick et
Ġon to
ĠBo olean
Deta ils
W ORD
Ð º
Ġex hib
ĠF inally
ri e
h orizontal
ĠD OM
gener ated
em on
Ġclear ly
Ġear lier
Ġl imits
Ġex cit
Select ed
M ouse
P assword
W ord
> :
in i
Ġp hen
as ons
I LE
Ġnu cle
RE S
) }}
ĠM essage
S ort
Ġbe am
sh all
ĠIm age
lat form
Ġtra ject
Ġc li
D T
Ġrele ased
t ty
ĠW AR
1 20
g ies
Ġslight ly
ĠCon st
ĠI d
Ġcon cent
Ġp seud
Ġs ong
Ġfunction al
a ign
act iv
D b
Ġex am
pl us
Ġf oc
ĠB rit
)) \
Ġcoe fficient
Ġtra dition
Ġent ropy
Ġevalu ation
D M
Ġh it
Ġdepend ing
Ġjo in
ĠB uild
Ġse ctions
ĠH ow
P y
! !
Ġm enu
requ ired
imit ive
Ġtri p
ss ible
[ -
w ell
I VE
Ġchall eng
Ġliter ature
ĠP e
Ġst ored
Reg ion
Ġexec ute
Ġconc ern
V M
ra se
big r
r untime
po ol
b c
Ġrun s
. ");
Ġ{ $
D P
en sed
Ġre set
Ġhigh ly
Ġrelations hip
ĠVal id
Ġper fect
Ġth ick
Ġqu ot
j ango
co q
Ġm ixed
t or
Ġre mark
H igh
Ġuncertaint y
P ri
S w
orig inal
ĠRequ est
sing le
Ġconstruct ed
Ġt or
ĠP ost
ho p
r is
Method s
Ã ¤
M ask
i pher
as ync
ab e
ach ing
umpt ions
ĠA c
Ġle mma
{ %
T T
N ative
LE CT
Ġdat asets
lo aded
;\ ;\
int eg
Ġdecomp osition
Ġeff ort
i ses
Ġdis crete
ag r
******************************** ********************************
gra de
ĠASS ERT
Ġide al
Ġb all
P ER
ĠCol lection
ri er
function s
def er
int elli
Ġcomplex ity
ĠH o
ĠCo unty
ut ation
SS L
NavBar Cell
Ġfollow ed
Ġw omen
Ġtherm al
Ġrel atively
Ġs af
}} )
F ORM
Text ure
Ġprob ably
ollow ing
Ġrespon s
Ġ ut
intelli j
IN FO
B S
Ġconv ex
Ġadd ing
Sp an
ĠB it
G en
ic o
av id
ri al
Ġab s
Ġcan cel
Ġext reme
b p
Ġdiffer ences
L a
ĠBOO ST
Ġtyp ical
Ġb os
An imation
Ñ ı
Ġa rm
word s
br uary
Ġbo ost
con sole
B ut
AD D
Ġpur pose
ĠA ustral
ce ptions
Ġc md
il ities
en ge
Ġexp and
St ats
the mes
$ {\
li a
__ )
rel ated
m ann
for Each
L ower
ic ode
Ġw ays
Ġpro port
Ġdenot ed
p od
Ġl ayout
Ġf erm
}\ ,\
vi sed
pro v
b u
ĠAN Y
W N
r ons
h ref
gg ing
Ġgr ant
u um
P ay
re act
ilar ly
Ġ{ },
b ot
Ġpract ice
z y
Ġex change
Ġde signed
ĠS an
s imple
side bar
so cket
br ace
ĠRe search
as sets
Ġad just
IG HT
U pd
RE E
Ġcy cle
Ġt x
Ġb ind
Ġis n
ĠH ttp
v ement
Wh ile
. ",
Ġsimp l
clus ions
mp t
y ing
it z
Ġa im
RE Q
Ġme trics
FN GL
Ġd ot
Ġtype def
al gebra
ĠI R
m ical
Ġchannel s
Ġ\ ]
=" ">
Ġind ices
tr im
Ġm en
Ġsol ve
ro le
Ġro ute
Ġsche ma
em it
C M
Ġhigh light
Newton soft
Ġno vel
up load
B ind
Ġadv ant
Ġhar mon
Î ¿
ME TH
Ġ ^{
Ġinteg ration
, {\
Ġd a
ph one
Ġd x
B O
ul ator
u el
low er
Ġconsider ing
h ave
de stroy
res ize
Ġcomb ined
Ġo l
par agraph
p ag
" ],
Ġquest ions
Oper ator
pl an
Ġplay ers
sup ported
ser vices
att le
ĠIn c
s n
/** */
ill ing
ach ment
cl one
Ġin ject
' ];
Ġso ft
FF FF
clu ded
Ġgrav it
I gn
set up
Ġexpl ain
bo ut
Ġpro ved
j Query
sp in
C ategory
Ġbeh ind
long rightarrow
oc r
Ġspec ify
S ome
Ġst e
and ra
e ch
ut ive
av el
at omic
ar c
å ı
ub ble
pro vider
ĠP ark
g ers
Ġm id
ser ies
Ġre call
clus ive
c lip
ĠLO G
j ac
ĠM ult
F ind
or ary
C RE
ĠM ake
C lear
li ance
Ġrob ust
Ġsum mary
str ument
R T
() </
it ing
d river
Test Case
] $.
ra dio
Ġsatisfy ing
ĠD et
) }_
Ġany thing
h ar
Ġacc eler
\ }$.
element s
Ġmonth s
ot ing
ĠX ML
Ġpop ular
Ġfund amental
el astic
sh ared
ĠWindow s
Ġsup ports
Ġy oung
Ġas pect
Ġrg ba
h an
T x
H ow
Ġcre ating
b d
M I
ck nowled
lo od
Ġcur sor
Vis ible
up lic
Ġvari ety
Ġj oint
- (
Ġmanag er
reed om
str y
Ġansw er
et ween
,\ \
cle an
ĠF urthermore
Ġmod ules
\ )
p ull
Ġse c
ĠH ar
T otal
tain ed
t ensor
Ex ample
Ġp riv
res ources
Ġst and
Ġd river
Ġexp ressed
Ġsepar ate
math op
P ers
oth ing
m n
Ġposition s
k o
}[ \
Ġestab lished
ph ase
ĠIn put
mon th
INT ER
Ġeffic iency
@ {
R o
Ġread ing
sc ss
d frac
Ġed uc
Lin q
Ġtyp ically
Ġa x
Ġshow ed
ĠN etwork
se par
ver b
Ġcon figure
ick s
Ġ/* !<
ate way
Ġ' '
Ġget ting
Re ferences
k in
Ġ" ",
Ġn ight
Ġgo es
Ġ und
ymme try
ag ue
Ã Ń
Ġrepresent ations
art icle
ra b
ĠP H
PO ST
form ance
Back ground
ĠN AME
anc ial
resent ation
Ġmanag ement
ĠRem ove
Ġinterpre t
Ġm ind
! \
Ġde v
ok ed
test s
ack et
}) }
Ġdis abled
h l
ak es
Ġs ynchron
S K
e es
com mit
Ġneighb or
Ġsecond s
Ġcan onical
ĠH ouse
Ġcon ven
in n
Ġinv olved
Ġmass ive
ak er
Ġreplac ed
Ġvalid ate
Ġob vious
Ġl if
form al
G N
Ġh ighest
Î ±
ond on
Ġlog ger
m k
Ġbe came
ist ed
Con structor
y e
S equence
Ġachie ve
M ove
Ġphen omen
st at
z ip
N ormal
ĠK e
g i
# {
Ġus ual
Ġphys ics
G u
ĠFound ation
DE FAULT
id a
H S
us iness
Ġshow ing
ig ration
fe ature
Null able
Ġpo ol
Ad min
hel per
ĠL android
Ġop acity
ĠĠĠĠĠĠĠĠĠĠĠĠĠĠĠĠ ĠĠĠĠĠĠĠĠĠĠĠĠĠĠ
art ment
ĠC a
Ġpre d
it ivity
Ġcon j
D river
Re v
Ġv eh
Ġelect ric
w p
Ġlo aded
l legal
d ere
Ġs ql
Tag s
vel oper
arn ings
: `
i ota
MO DE
ĠGener al
ĠL ong
k i
Ġpat ients
Ġf lex
w arning
oci ation
ed s
se q
Ġestim ation
ĠOn ly
D iv
Ġsamp ling
F lag
METH OD
ĠCon vert
C G
Ġw rong
an de
Ġre li
Ġout er
Ġre cur
col lapse
; }
d uration
w t
Ġrefer ences
f c
Own Property
w hat
P rivate
empty set
(' #
it ch
Ġval ign
y r
qu ant
M er
ĠR el
(' /
Ġde stroy
con nected
Ġb atch
ĠRes ource
Ġestab lish
ĠHe alth
Di agnost
ist ics
al ed
} ~
aj ax
Ġp ull
C ar
fact ory
Ġw all
] $,
T A
ĠF our
ĠEx ec
ĠC R
d ig
y a
Ġexpress ions
v ature
Ġg reen
Ġim ag
Ġal bum
ing ton
B IT
redential s
P ub
Ġpre v
Ġs izes
re ct
ĠSci ence
ĠS I
ĠT R
ĠK ing
Requ ired
Ident ity
Ġcap acity
ir th
r g
Ġac qu
00 1
_ );
Ġl icense
Ġne ural
Ġan imation
corre ct
}} .
Ġbegin ning
ic ies
Ġbi as
e lect
Ġth roughout
M ess
Ġa go
j ar
( /
f mt
G LE
}} _{\
() ))
as sembly
ĠM em
OR TED
Ġn or
A xis
$ };
Y ear
Ġwe bsite
}_{ -
Ġr untime
pt o
ĠAn y
ĠP RO
Ġto uch
Ġw riter
Ġinput s
ur able
Ġm aster
Ġincre ased
ĠO f
an imation
ĠEng lish
Ġtra ined
user name
Ġread y
comp are
j i
ir ing
}) =
Ġ â
Ġro om
ist ence
Ġen v
H istory
r ank
> ;
t k
Ġab ility
in herit
Ġl ack
s ig
F in
um my
par allel
Ġcom ments
ir ror
ĠS che
v ideo
tr ivial
Ġapp lying
ĠA ction
up d
ĠC lo
Ġs il
DE F
clu ding
s a
l ings
Ġ eng
ĠApp endix
Ġmo ving
ation Token
s b
g lyph
y y
re spon
script size
ro ute
Ġsum mar
ĠE ar
? >
k m
ĠI sl
gener al
t iny
ĠA ir
Sum mary
Ġde vices
tri angle
class Name
en a
Ġvari ation
Ġcom ing
valid ate
stru ctions
ĠFe bruary
Requ ire
Al ign
CH AR
Ġaltern ative
on ce
ASS ERT
he mat
Ġh ol
C ALL
**** **
s ync
Ġdeg rees
F l
ĠEx ample
end or
Ġto ols
Ġmod ul
á ĥ
Ġpr ice
Ġequ ilibrium
Jo in
Are a
'] ['
Ġfri end
display Name
Ġdiag onal
ct r
ĠAr g
Ġhy dro
=" ${
" },
tr ansp
ip p
ens ities
ĠC our
Ġstatist ical
Ġex c
Ġsufficient ly
ve e
Ġbr ing
Ġ? >
Ġapplic able
B asic
Ġb ulk
Ġre pro
ac le
S ch
Ġgener ator
unc ed
ic ated
iffer ent
ĠS m
Id s
create Element
Ġbel ieve
mer ge
Ġc ru
Ġpredict ed
ĠO ff
Ġant i
Ġassert That
Valid ation
Ġopp ortun
t frac
ol ar
tr l
ap is
}) ^
Ġ ..
Ġw ar
Ġrem ote
log in
ir med
Ġb right
Ġs qu
| }{
Serial izer
W ait
S ql
Ġle ave
Ġcomplet ed
Ġcon version
br as
ĠĠĠĠĠĠĠĠĠĠĠĠĠĠĠĠ Ċ
Ġcont ents
se lection
t body
sl ash
olog ies
Ġin tr
N C
ĠSet s
ĠLo cal
ss l
Sup port
P ublic
j et
Ġd ust
ĠJ ust
Ġa ggreg
ĠG reen
Q U
ie ce
(" /
Ġspec ies
f ord
Pro of
second s
Ġus age
Ġir re
Ġcommun ication
Ġcall ing
Ġsub group
M ake
$ &
ĠW rite
Ġperson al
Ġn p
Ġf ine
n p
Ġo wner
lic ations
' ll
ph ere
\ /
Ġmanif old
bm atrix
Ġan im
E ffect
ch anged
P Y
f lat
us ers
Ġcandid ate
DE BUG
Ġarchitect ure
AN T
her ited
du cer
18 0
Ġp i
Ġc ast
ĠS M
z a
Ġhe avy
Ġtechn ology
ĠH is
ver ter
ap es
Ġmer ge
Ġmaxim al
ĠOption al
Ġrecord s
urre d
L R
Ġtrans lation
serv ation
Ġsequ ences
, ...
orig in
ĉ ĠĠ
D ATA
Ġprec ision
Ġ ip
et h
Ġtechn ique
Ġsem i
ĠL ie
Ġw ind
Ġasymptot ic
Ġs afe
Ġvers ions
comp iler
Ġ= ========
Ġhe ld
ĠC enter
sp here
act or
me t
Ġpredi ctions
Ġembed ding
p ower
O ther
ph ot
am az
Ġ{ "
no v
Return s
A g
Str ategy
Ġc ard
s quare
ĠU K
ĠD el
ĠA S
Ġparticular ly
qu ote
Ġener gies
ĠSo ftware
vert ical
vis ible
ic ip
Ġderiv ative
Render er
Tr ansport
red it
ĠCO VID
m ing
ts d
ĠC he
Ġ' ',
b g
LO C
199 7
Ġachie ved
spring framework
< !
d c
Ġdis p
MO DU
do cker
L anguage
ĠD im
MODU LE
Ġlate st
Ġnormal ized
Ġs ys
Ġf ragment
+ (
Ġw ent
ĠD O
up s
VAL ID
f ire
f old
~~~~ ~~~~
Ġlo st
ĠM at
Ġt en
Ġtr ivial
ĠD ir
Ġcomp osition
a el
Ġprincip le
C ho
P layer
re v
Ġass umptions
Lib rary
ra pped
Ġk m
Ġin deed
sl ant
ge bras
Ġsatisf ied
un ce
ir us
S G
Ġab und
Sh ort
] ))
Ph ys
th ere
Ġis ol
(' ./
Con n
Ġtra vel
om ite
et te
Ġapproxim ately
Ġ ul
Ġrepresent ing
oriz on
ĠA re
object s
Re c
ur a
ĠV is
u v
ĠD on
; ">
Ġst ability
Go ogle
8 00
Argument Exception
multi row
get Value
A udio
Ġ-- -
Not ification
go ing
c line
Add r
Ġunderstand ing
Ġlocal ly
Ġmod ify
Ġm oney
ĠCre ates
1 10
B B
Ġevery thing
STR ING
ers hip
Ġsho ck
}} ^{\
An alysis
cor ded
dis able
} ))
Ġst ri
ĠA fr
ĠH er
Ġwhere as
Con vert
> '
Re port
Ġoffic ial
| }
lement ation
Ï Ħ
neg ative
Ġf air
ĠP ort
Ġw idget
man if
ĠB ay
comp ile
w atch
omite mpty
con vert
v ol
Ġse ctor
Ġend point
Ġco p
ĠG iven
= [
Sh arp
Ġ ×
ĠArray List
ĠPar ameter
Ġattemp t
se m
il led
Ġlumin osity
D IS
Ġchar set
P ass
script style
Ġiter ation
mut able
ĠV ector
load ing
ang ian
ne ut
ĠG eV
oper ation
Ġcy c
ĠP romise
ĠS V
Ġde mand
Un known
ful ly
ĠPro perty
own er
unc il
Ġname ly
ĠBl ack
Ġnav igation
Ġradi ation
Ġphot on
Ġcon sequence
Ġder ive
ition s
Ġra pid
Ġstatist ics
Ġstart s
vari able
Ġrad ial
\ }\
Ġto wn
cor por
Ġho pe
k y
Al low
RA Y
Ġ\ (\
Comp lete
Ġreco ver
ang ing
F ragment
Ġcharacter istic
L emma
dere q
ĠB lock
Ġt ax
b asic
pol icy
Ġp ages
Fail ure
Ġb rief
B Y
Ġprov ider
Ġmin utes
let s
ĠM ock
Ġc amera
figure s
w orld
S hould
ĠT emp
Ġf ood
Ġd ialog
cri be
ĠTr ump
Ġa udio
FF ER
ĠA ccording
Hel p
mo ment
py thon
oci ety
ho ok
M IN
}} }\
h old
Ġel li
net es
U D
ĠD at
Ġpattern s
uber netes
Ġsu itable
. <
U ES
Ġ} }
Ġnon linear
Ġdocument ation
k es
Ġtry ing
Ġ( {\
Ed ge
Sk ip
B order
Ġco un
add Class
C B
Ġle d
=" $
j a
ĠM ich
N ET
get Element
Th row
ic ensed
col Last
Ġ$ ,
AN CE
ist r
G ER
199 6
et o
AT TR
fin ite
Ġassign ed
^{ *
Ġa mb
][ ]{
Ġbehavi our
Ġindu stry
B atch
Ġvari ance
he ta
Ġcomput er
w d
Ġd iver
y cle
Ġshe ll
}} =
ĠH iggs
' ve
amaz on
B inding
Ġdef ines
ĠL ine
H tml
ra ined
Ġe mit
sc ape
column width
Ġben ch
Exec ution
ierarch y
f ly
Ġgrav ity
Ġhe art
Ġsur vey
st andard
Ġdynam ical
^{ (\
INS ERT
Ġprov iding
Ġs pher
vert ex
AT CH
Ġco inc
C ONT
ac cept
Ġaccur ate
as y
Ġiter ator
ist ency
T wo
Ġa ver
G iven
Ġ@ "
x s
Ġw orth
S he
co pic
is Empty
Ġread only
Gener ated
pt ic
12 5
Ġen umer
Ġpro ceed
t i
col First
Ġr at
ĠL ondon
ĠZ end
ext ra
l ated
it o
> )
Ġent er
ĠPro cess
sign ature
ĠM ag
or ation
Ðµ Ð
Ġ- =
Ġdo ub
AR B
Row s
Ġ\ !
c are
po ses
Ã ¼
me an
d k
Ġ} {
NS String
Ġsp read
Ġcon nections
Ġt ail
Ġd imensional
% ,
Ġor th
v art
25 0
pect ive
Ġinter section
b ib
App end
cur sor
Ġco ol
V ideo
Ġre lax
ID TH
act ic
ĠIn deed
ace book
Ġ' .
ĠL L
Ġres erved
ĉ čĊ
H ence
T F
Ġb inding
plac ement
Ġse em
ĠTe chn
Ġ" %
Ġdi ct
= .
an aly
sk i
Ġcomput ing
Ġca used
Ġcorre ctions
ac c
En v
Ġ" ";
ãĢ Ĥ
Ġtop ological
Ġhe at
'] );
pe ar
Ġdis cover
Comp iler
Ġto ld
m aven
f ast
Ġmo use
ali as
Ġdist ingu
ĠAmeric a
) &
Ġso on
An notation
method s
st ates
h ol
ĠD em
Ġfind ing
Ġd ashed
ire ctions
con cat
avel ength
En ter
Ġsuccessful ly
mun ity
Ġgeneral ized
eli hood
w ill
ĠT op
l an
\ }$,
Ġthem selves
Ġp lease
mem ory
LO W
ar ith
} |\
Ġpart y
Input Stream
it ative
Ġd ense
US ER
å Ī
Ġj s
velop ment
S ample
OR Y
Ġ' %
R aw
Lo op
ĠE ast
Ġsc ene
can vas
exp and
Ġj ump
ro y
Ob server
Ġinflu ence
Ġinterest ed
F ree
ĠF ROM
Ġc b
Ġflu id
( .
rop ic
de ep
S ave
Ġquas i
Ġn ational
ĠPres ident
ĠE lement
p res
H ome
po ch
0000 00
ĠJ ap
s ass
ĠWAR RAN
ĠIntern ational
Con sider
Id x
] {\
mo b
rel ative
ann ed
/ {
ĠAl though
Cur sor
AT ED
ĠB ig
Ġdest ination
Ġs ync
Ġnear ly
Ġcode s
Ġupd ates
L Y
f lex
">< !--
ĠU N
) })
t an
ĠC H
Arg uments
Ġevalu ated
Ġpixel s
requ ency
C md
Ġhapp en
ĠA g
Be an
Ġme et
me asure
m f
Group Name
I AL
s amp
) --
CT YPE
S ur
l as
av ailable
ĠP FNGL
MA P
Ġp icture
rypt o
ĠL aw
con struction
is set
M is
Mult ip
l ig
high light
sub sec
Ass ign
ĠB ack
ok ing
Ġde scriptor
Ġen code
ar a
En vironment
go og
Ġcur vature
Ġj et
ON G
agr angian
Inst all
Ġthan k
\% $
ĠS ource
re lease
Err ors
b atch
ĠA m
Ġcheck ed
bl ank
] +
Object s
A cc
int eger
Ġb ur
Ġd t
B AR
Ġcre ation
Ġp en
ult ane
Ġf reedom
Pl an
Ġprecise ly
Ġtop ic
' m
d irection
Rem ote
Ġpro pose
ot ed
e ven
bold math
ĠAp ache
p f
am ing
or ient
Ġequ ality
Ñ Į
ĉĉ ĠĠĠ
ĠS E
ĠC SS
ĠI mm
Ġre sp
to uch
ren ch
F ocus
ari os
Ġstr ateg
Ġgu ide
Ġfor med
g ame
ĠW IT
Ġis omorphism
C LASS
Not Found
Ġperiod ic
vart heta
Ġmon itor
Ġmot iv
) >
c atch
p b
}$ }
anch or
n ative
Ġplay ed
fr ont
Ġcomp atible
P lay
ĠO p
Ġcomput ational
S ame
c li
re port
" ].
Ġs ites
EL D
Ġrequire ments
og onal
Ġtag s
D om
Ġ\ "
cont ents
spec ific
ĠĠ čĊ
r uby
la w
Ġ| =
bo se
Ġ rise
ex it
Char acter
ĠĠĠĠĠĠĠĠĠĠĠĠĠĠĠĠĠĠĠĠĠĠĠĠĠĠĠĠĠĠĠĠ Ġ
ĠSt ud
Ġs lo
med skip
t f
Ġan n
ĠH AL
Ġ= ======
ĠL ink
Ġconv olution
Co unter
Ġs ymp
Ġm d
r an
Enumer able
local host
T imer
Ġst at
Ġg ain
int ro
S F
un ct
exp ression
ĠP age
li k
co up
Ġnull ptr
ud get
ĠT V
Ġfluctu ations
Ġsign als
pl ane
Ġ ult
Ġquant ity
equ ations
Ġobject ive
cal cul
Ġinst alled
ĠC ustom
ĠS ur
Ġquant ities
Ġthe ories
ry ption
Ġtra de
F older
Valid ator
: =\
Ġconfig urations
k t
» ¿
anag ed
Ñ ĭ
Ġz one
Ġapproxim ate
Clo ud
print ln
err y
Ġdepend ent
abe led
po inter
Ġ' "
fer red
A SE
EE EE
duc ible
ĠJ S
ĠC lient
ï »¿
ĠPh il
r v
ĠA ut
string s
Ġst och
Ġdefinition s
pend ing
Res olver
iv ery
ĠI ter
Bound s
M s
it a
Map per
anc ell
Ġ\ ,\
Const ant
c ancel
ch unk
Ġar riv
Î µ
uff ers
Ġident ifier
ä »
ctr ine
Con nect
Ġgiv ing
SE LECT
Group s
Mem bers
= }
6 00
Î ¹
B L
IO Exception
DO CTYPE
as is
E mail
Ġs b
Ġexpl an
Ġconf irm
Ġdescri bes
Ġequ ip
ĠF ind
Ġw ire
B al
ĠSh ow
semb le
d ynamic
ordin ate
ĠD ocument
ĠSt atus
Ðµ Ð½
r ated
ĠP oint
pop up
Ġinvestig ate
ĠS uch
Ġass uming
W atch
Ġpri me
St atic
Ġd ie
ĠP ri
Ġid x
Ġre ached
lip se
el t
inter val
Ġh orizontal
10 1
ag netic
se p
ĠS um
Expect ed
w all
Ġident ical
B egin
re peat
199 5
BU FFER
V AR
Ġpol y
Ġdet ector
() ),
Ġsp ac
Bo ok
ro ke
Ġcon n
ĠSe lect
ad v
Ġlist ed
to Be
her ent
Ġb ug
Ġcorre ction
W arning
Ġcom mut
Ġview s
math it
z en
S creen
Sup pose
ĠA mazon
const raint
ĠP aul
Ġcan cell
gra v
Ġas sembly
c ross
SC R
Ġro ugh
Ġw arning
Ġsur v
Ġinter act
ĠG od
m ac
S top
E mit
Ġperm issions
En coding
Met rics
Ġde ad
199 4
Ar ch
= $
Ġdel ta
Z one
Ġd am
DE X
y al
il bert
lo ss
col lect
Ġhypot hesis
ð Ł
; )
Us age
nav List
ign ore
ast e
h aps
ĠY our
h pp
re ce
text color
ï¼ Į
tikz picture
ail y
ag ent
Ġcomb in
part s
Ġmedi um
OP T
assert True
. $$
Ġhist or
Act iv
un ing
~ (\
Ġc lock
an i
rt l
X i
ĠD ay
^* (
Ġequival ence
Ġf i
Ġpl us
Ġpolit ical
h ard
e val
The lia
Ġcl one
W IN
Ġst ay
Ġadvant age
Ġ" .
dis patch
\ |\
P M
per iod
Depend ency
In sert
EX PORT
ĠM edia
Ġrequest ed
Con tains
Ġt d
g oto
Al loc
Ġ ens
os er
f ol
ser ve
Ġterm in
Mess ages
phan tom
N d
ĠIN TO
Ġcompan ies
ins ic
}{ *
sequ ent
Ġnu clear
ĠW illi
Ġ ,\
Re al
Ġocc up
ĠCol or
Mon th
anc er
o ph
out er
art esian
Ġd ise
Bo ol
Ġint ensity
w ild
ĠP DF
Ġexpl ained
ĠA T
Ġvac uum
all classes
dat abase
ri end
Ġperturb ation
wo od
is ot
ri an
face book
UN D
tool bar
ĠP at
P ixel
Ġh alo
as m
map s
Ġg lu
dist ribution
Ġgravit ational
ii i
HE AD
w ave
Ġ ----------------------------------------------------------------
Ġneutr ino
A ng
FLA G
du led
Ġc ategories
Ġpro files
ĠSI ZE
Ġdepend encies
Ġre asons
ĠCh ina
Ġ` ``
ĠU til
ĠB er
ĠG R
u ages
Ġnot ed
N UM
Ġmag net
Ġde sp
Ġ" '
Ġun ion
in ject
/ "
B its
Ġstoch astic
og ram
CON FIG
Ġto kens
a ver
Ġfor ces
t ics
ga in
Ġf rag
Pro gram
Ġso cket
Ġtre nd
_ )
remark s
de cor
R ate
Ġres id
. """
down load
ĠM er
Ġmod ern
Ġcal ib
uf act
I A
=\ "
al og
play er
M anagement
Ġinter mediate
g re
L android
B ottom
as c
Ġph ases
en code
Ġext ensions
ab c
G P
Ġen jo
is son
pre vious
com b
Ġeigen values
al so
Î ½
ĠM or
Ġimpro ved
i em
ag er
Ġchang ing
ĠÐ ¿
ĠSe cond
Time stamp
comp ute
ĠL eg
ff f
Ġproject s
Ġmix ing
Ġ$\ {\
Ġexponent ial
riter ion
ĠD B
Ch unk
Seg ment
Column s
Ġload ing
in ity
Ġe lection
has OwnProperty
PH P
Ġgener ating
Ġcommand s
hav ior
ĠDe lete
comp lex
! ]
RES ULT
Ch ain
Ġph oto
More over
im ing
ĠR et
Ġbase line
lo ating
g ather
valid ation
V irtual
ĠCol lege
T Y
ĠF OR
Ġcar ry
H C
(" %
Ð ²
M ix
. \\
Ġbe gan
Ġpack et
Ġ ĉ
ĠAb stract
ĠH ol
i ar
ĠC EL
20 22
ĠPh ys
if orn
D ay
th rift
Ġfeed back
A UT
Ġp atch
ĠS at
EEEE FF
Ġpay load
IN ST
foot notes
Ġtr uth
Ġinitial ize
ĠAs sembly
al ert
Ġdoc uments
n y
ro om
Ġindic ating
ĠPar se
am o
) ^\
, .
Ġcorrect ly
FI X
Ġord ers
Ġse cret
ĠVAL UES
In formation
Ġsol ar
ĠInd ia
ĠN ext
ĠF ix
Ġlog ic
ĠDef inition
( -\
ĠU s
ot ic
f ake
not ag
Ġorder ed
^* \
^ ^
ut down
Ġpar ame
ĠO N
Us ers
ass andra
Ã §
A ST
ĠE ND
Vis ual
Ġmo ved
Ġimp licit
Ġposs ibility
stack rel
Ġtradition al
Ġfail s
Ġsuggest s
Ca pture
ĠD avid
x html
Ġst ress
ĠG ra
F ALSE
a ur
al actic
kw args
Ġfamil ies
Ġhapp ens
ĠBrit ish
de sign
me ssages
Ġcamp aign
th ick
Decl aration
sub mit
Point s
M F
ap ers
Ġmaterial s
Ġr ational
ĠSt reet
t p
sp her
Ġover flow
S W
Ġf avor
================================ ================================
ynthe tic
ç Ķ
Ġse x
down arrow
del ay
b lob
ĠS imple
ĠDep artment
Can vas
Ġdel iver
ĠB ecause
Ġdiag n
, '
Ġcol ors
Ġche mical
ORD ER
C ancel
G a
mo us
Con tact
D ynamic
column s
ĠS ign
he el
ce il
reg ular
anc ing
in variant
Ġturn s
T ouch
ra ise
rag ma
... </
ĠAnd roid
M any
Ġcar ried
IL D
Ġas sess
re ader
Re lease
12 7
Ġs n
Ġ$ _
m its
footnotes ize
ĠPro gram
w arn
ur ally
ĠCom mand
ong o
au dio
cal endar
U nder
Ġep is
m apping
ĠCon sider
Ġclass Name
es h
AR N
) }.
ĠP O
Ġtr ust
Ġpar sed
Ġatt ract
F il
at ibility
Ġobserv able
f b
Ġim g
Ġquick ly
Cont ents
Ã ¶
Ġplan et
az y
r ich
Ġpo or
or ge
ĠOut put
prob lem
ĉĉĉĉĉĉ Ċ
Ġmark ed
iforn ia
u zz
' _{
G eV
&= &\
Ġinter pol
k l
< <
Ġask ed
Ġtime stamp
AR D
| $
> "
act ual
miss ions
Ġed it
S N
we ak
Ġh on
clo sed
Dep th
NavBar Font
st ein
t ract
co gn
an alysis
ar ded
' d
Ġpub lish
ĠCont rol
ĠM ain
ar ter
: @"
Ġac comp
ĠQ ue
Ġp iece
Ġpr im
fl ush
Ġtop ology
cf g
Sign ature
M ed
P latform
p ace
Ġframe s
Diagnost ics
æ ľ
Ġmain tain
å ®
AT OR
Ġd om
ĠU nder
transp arent
AN G
Ġex pert
Ġbo ard
ĠS en
ro b
Ġp aint
D iff
/ .
lic ated
Ġin corpor
ĠW il
h ang
W allet
Ġcoup led
Ġlow est
V ICE
p aper
Ġsome times
Ġretr ie
Ġpseud o
Ġst aff
Ġproper ly
Re set
cor ollary
ID E
et al
atist ics
> $
$. }
Ġdis able
$ '
Ġtransition s
Ġsim ultane
to oltip
/* !
Ġpl aced
Ġregister ed
66 66
"/ ></
Ġl iving
F OR
ow ers
up per
Ġsign ed
ĠT wo
ĠAr ch
p an
label s
ĠQu ery
AR RAY
Ġloc ations
Ex ists
L T
iv il
cre d
10 24
Ġbal ance
ack son
F r
ar se
(' <
ĠM ac
R GB
er c
en coding
Trans ition
}\ |
Ġanaly z
ist ers
Ġd ip
ĠG overn
Ġlimit ations
org an
) (\
ĠP lease
lic ense
Nav igation
ĠR ad
Ġan om
ĠA ng
top ic
ov a
ĉ ĠĠĠĠĠĠĠĠĠĠĠĠ
p romise
ĠF in
Ġ' -
Ġf ake
p erson
ĠSup pose
E ST
Ġrestri ction
h u
ub ic
)} (\
p ages
R andom
pro pto
Ġsymbol s
Ġre v
de precated
: '
w riter
Ġtemperature s
she ll
ĠC G
b log
v let
Ġimport ance
Ġin fra
ĠSup er
qu est
Ġat oms
ime d
Ġel if
ynam ics
Ġf em
Ġneighbor hood
came l
cre ated
ĠP ub
Task s
ra ble
ĠS u
Ġv m
ĠT ho
Label s
ag o
direct ory
$- $
P D
s ch
ĠE V
Ġf aster
} /\
Ġres olved
ĠRes ponse
ĠCom mon
fe ed
A E
Ġre duces
h ips
PRO JECT
R C
Ġpolar ization
Dis patch
f etch
Ġre peated
m al
Ġallow ing
p riv
ĠRem ark
Ġ _{\
Ġfin ished
Ġsome one
Ġnecess arily
D ig
d ensity
Process or
ĠA nt
/ _
part icle
ĠSe arch
Ġm anner
Ġh or
ok ies
ĠAL IGN
ĠĠĠĠĠĠĠĠĠĠĠĠĠĠĠĠĠĠĠĠĠĠĠĠĠĠĠĠĠĠĠĠ ĠĠĠĠĠĠĠĠĠĠĠĠĠĠĠ
fore ach
Serial ization
IL ITY
Ġfin ancial
Ġsche d
Ġst yles
ĠC lear
c ert
Ġr ig
A F
Ġcache d
IM IT
ex amples
ĠSt ream
Ġre ports
Re act
ĠBy te
Ġpre tty
Ext ensions
Ġl ies
Ġst ated
D rag
Ġrot ate
NO DE
S plit
over view
Ver ify
h fill
ext ensions
Ġse ll
eder al
U ST
back slash
numer us
sub ject
LI ST
ĠĠĠĠĠĠĠĠĠĠĠĠĠĠĠĠĠĠĠĠĠĠĠĠĠĠĠĠĠĠĠĠ ĠĠ
numerus form
in cre
S em
Pro v
Ġdevi ation
ilit ary
S pe
C ast
aw a
Ġtre ated
Ġcontinu um
ĠI llegal
Ġexper i
Ġuniform ly
% "
ĠIn v
b undle
Ġs aw
C enter
es ome
cd n
Ġf s
L i
ĠEurope an
b lem
Ġd ra
Ġsaf ety
Ġexpect ation
Ġ' _
Ġfilter s
G ame
Ġcharg ed
ĠSt andard
ic an
Ġsup pose
' ].
ĠA tt
Ġp ipeline
I Z
Nd Ex
at o
Ġrespons ible
ĠP si
Ġact s
Ġd ensities
\! \
L ight
{ |
Ġcan vas
ĠS H
it ation
Ġprogra ms
Del ay
Ġmod al
RE D
Con verter
Ġmain ly
Ġprior ity
Sup ported
ĠL agrangian
Ġd irections
Ġequ als
un iform
ĠF acebook
Ġprof ession
ĠConfig uration
Ġign ored
ser ved
me tric
decl are
comp ar
M aterial
lo cale
EN ABLE
n ol
Con sole
Ġmat ched
v ect
Ġcre ates
St andard
b re
Run ner
Graph ics
Ġcoun tries
r int
Ġlook s
ĠCont ent
te e
Ġm obile
{ (\
ĠFour ier
ject ure
ĠN or
LIC ENSE
Ġabsor ption
char acter
Ġuncertaint ies
N a
r ations
å Ĳ
H ub
Ġnot ion
Scal ar
Ġadd resses
TI ES
igh ter
dist ance
ru les
W rit
Ġes cape
at ar
ĠB el
est ing
* \
fact or
e a
S napshot
sp acing
Ġimp lied
ĠSte p
ag g
Ġconj ug
Ġ< -
Ġtext ure
Ġenco ded
Sh ader
ab out
Compar ison
ĠC ase
Ġwant ed
Ġaffect ed
Ġc riteria
Ġ' ./
ĠM r
Ġtest ed
it ely
Up load
Read y
Ġc atalog
Ġtre es
Ġqu eries
BP ACK
ele br
Ġe poch
j ax
cl s
ĠTh read
Ġis ot
ĠRep ublic
ri ses
Ġun iversal
Ġag reed
Ï ĥ
Ġdemonstr ate
In f
Ġplay ing
$ ^
ist ance
up arrow
Ġthe me
sp ital
199 0
act ivity
ir it
ĠSer ver
Ġopp osite
| ^{
ĠB oth
Ġtrans mission
t l
Ġtrans verse
ĠA rm
Ġoff ers
ĠWARRAN TIES
Ġw avelength
" ];
Ġorient ation
Ġpl as
ĉĉĉĉ ĉĉĉĉĉĉ
W orld
trans action
P G
Ex port
cho ols
} >
Ġdisplay ed
Ġapp arent
) ",
O C
Ñģ ÑĤ
cus sion
t witter
On ce
Ġscen arios
_{ +
tr ansport
Ġg lob
We ight
pro c
L SP
R ules
cy cle
append Child
& &\
U V
ex perim
um ul
i ation
Ġb ands
Ġ\ [
bur g
Ġa lias
ĠG lobal
lic enses
d ark
Ġsubst ant
Ġt ro
ĠB ro
we et
Ġcandid ates
spir it
text normal
serial ize
Ġag ree
con tact
ĠM ost
Ġlet ter
od ay
f p
Ġproport ional
k ernel
HER E
B lob
Ġquadr atic
STAT US
p ixel
Ġbench mark
AC H
Ġbreak ing
Ġsens itive
{ },
ĠH ome
ĠB uffer
er v
Perm ission
al d
yg on
par k
con duct
Ġe ase
] ->
Ġindic ated
Ġregard ing
Named Cell
Ġre verse
R PC
ĠCan ada
Ġdr ive
uplic ate
ĠInst itute
Ġs on
Y Y
ĠN et
Ġcomplet ion
Pack et
Ġdecre ase
B uf
ar ity
L D
is Array
ĠPl an
jac ent
Ġsuggest ed
c urrency
C ref
Ġag ents
B M
w est
im ated
Ġpass ing
Ġconf idence
Ġ" ${
S witch
BOO L
Ġre ma
Ġj ud
E P
time stamp
Ġw rapper
ĠC ap
Ġd st
Lo okup
left arrow
ref s
Ġdisp ersion
D rop
199 3
] =
ap os
c mp
As sembly
iv istic
Pri ority
*} [
ens us
ĠCon text
ĠCo uncil
common s
Ġc rit
Ġin ser
Ġmo unt
Ġar c
ic ular
ĠF ree
ĠDes cription
sw arm
Ġde legate
e b
H older
ĠN on
LE TE
iven ess
Part ition
ĠHand le
p resent
ĠE RR
Ġassert True
col l
Ġp ending
ĠG raph
T uple
Ġc lip
ĠPH P
Ġstraight forward
Ġge ometric
Ġat omic
0000 0000
o pe
Ġpur poses
Ġd u
En able
Ġres idual
Ġcontrol s
Ġanaly tic
ĠIn formation
CO MM
Ġposs ibly
L iteral
Ġf oo
Ð° Ð½
Filter Database
ĠApp lication
ĠV ari
F ixed
H AL
ĠB ra
Ġlo gging
Ġal one
Ġpro tect
ir ical
Ġextract ed
Ġcr yst
Ġfit ting
Ġpl aces
in er
st one
Ġcoll abor
Ġintern ational
AR G
SP ACE
ĠP ack
rec ated
C N
Ġdefault s
getElement ById
ld s
F uture
iz ers
C tx
Ġh orizon
all ery
Ġro ad
A ggreg
b inary
ĠWh ite
SCR IPT
& =\
$\ \
ro te
s un
k ubernetes
Ġs ending
ret ch
ĠI L
Ġcomp lement
ĠDE FAULT
ug ment
G LA
Ġessential ly
Z ero
Option al
ched uler
Ġsens itivity
Type Def
attr s
Ġelect rons
p ad
ĠP R
Ð ¼
Ġst ats
Ġleg al
Ġorbit al
depend ence
Ġsepar ation
Ġcon vent
ĠGL int
Ġocc urred
A zure
( ['
k g
ell ig
ĠA ccess
Ġanno unced
Ġform ulation
ER S
Ġhom ogeneous
Ġsecond ary
Ġme as
elastic search
Ġcoup le
pre d
ĠB u
Ġdiff usion
Ġoff ice
Ac cept
FI ELD
bound s
Q ual
$\ ,
= %
ĠP al
ill er
list ener
nav igation
Con tain
ĠL i
Ġfrequ encies
Fe atures
Ġmost ly
writ ten
S pr
Ġdown load
Ġtr unc
Ġsc ient
ĠCal ifornia
Lower Case
CO UN
Ġcl ub
E st
ĠR ich
Ġembed ded
æ ĸ
Ġoutput s
Ġg ave
Ġsub sequent
Ġevent ually
inst ein
T ok
text sf
Set ting
Ġent ang
Ġintegr ated
Ġdi ctionary
ob s
pl ain
Av ailable
l int
om as
Ġapp lies
=\ {
ot es
Ġtemp oral
Ġcho ices
Ġdig ital
Ġt end
Ġrecomm end
] ^
Ġt ang
Ġsol ving
Ġte ach
Ġstrict ly
mm ing
ĠB en
Ġpolynomial s
Ġcost s
Ġhim self
math tt
Ġ ~\
ĠOther wise
ĠD M
B ased
urre nce
> ()
t ar
Ġcoll ision
ĠU V
Line ar
m iddle
in os
Ġinter rupt
corre spon
Se par
Ġcondition al
ĠM AX
UR CE
get Instance
Ġbro ken
c hen
ĠO S
ten ded
Ġdiag rams
Ġin struction
Ġ$ ^{
l r
and er
ĠOr der
mat ches
PRO P
Ġcop ies
Ġh op
(" #
Ġconf lict
condition s
text ure
M a
Ġla unch
Ġexec uted
Ġsc ience
h d
ĠR est
}. }
Ġpol ice
pro t
Ġh ide
Ñ ĩ
are st
Ġlearn ed
st ra
Ġsk y
Ġsup ers
j d
Ġobser ver
{ .
Ġco verage
Deta il
s r
Ġro ll
5 12
ĠC ore
Constraint s
Ġread s
ĠOr ig
Ø ±
An aly
Ġdecre ases
rem ote
fa iled
LE MENT
Ġs aved
ograph ic
n ail
amp ion
Ign ore
Lo cale
$ ^{
ag ram
WE BPACK
Ġco q
L at
set Attribute
Ġs lice
Ġsepar ated
RE CT
m ay
}^{ +
Ġm arg
ĠE ven
ĠS un
p n
am i
co ur
$ }}
re ason
contain ers
sup p
Ġweight ed
Ġexplo re
parent Node
Ġtarget s
Ġpost er
bind ing
Ġderiv atives
ret ion
get Type
,... ,
) *
Ġg ir
g ray
**************************************************************** ********
du al
T X
ver ify
u uid
et c
K it
Ġal ert
ĠS N
}^ +
c v
Ġcare er
Con sumer
Ġn s
var rho
Ġorth ogonal
n m
new line
ens itive
ĠH all
Ġun iqu
Aut hentication
}$ \
ĠP op
Ġvary ing
T ile
mult line
Ġalgebra ic
Ġr ace
Ġprincip al
Ch art
}) ^{
C ertificate
Ġvari ations
Ġenh ance
G EN
Ġex ceed
ock er
Ġcorrel ations
ĠAl gorithm
Ġal pha
****** /
R ot
Ġ' #
Pre v
ĠC r
H om
Ġexplan ation
ĉ ĠĠĠĠĠĠĠĠĠ
Ġdis patch
Ġat mo
Ġperm ission
Ġe ight
ident ity
ce eded
The me
Ph aser
tr ight
Ġenco unter
Ġchall enge
ĠBo ok
Ġwork ed
Ġt uple
se y
Ġf ol
Ġferm ion
L icense
ĠB Y
Ġwork ers
ig ate
ĠC P
Ġext ent
Log in
s ip
T AG
Ġhand ling
b etween
ell ing
X Y
ĠD en
alle st
.... ....
Ġinterpret ation
Ġbelong s
Ġcent ury
Ġinteg ers
S ite
erm i
al ing
on a
Ġf etch
at ural
y er
.* ;
ge o
Ġbe g
Ġc ulture
wild fly
ĠA v
ä ½
iem ann
ron ic
g if
Ar t
Ġw ish
r ink
Ï ģ
contin ue
ĠAustral ia
Tr igger
C V
Ġmajor ity
Ġn arrow
ĠN AV
M aster
ĠL in
Ġstud ent
umb nail
lo okup
ĠComp onent
D irection
Ġopen ed
ĠClo ud
Ġbe aut
N umer
A I
St at
Ġ} ).
Ġtechn ical
Ġs phere
Ġd s
Ġmat hemat
E O
ĠCh ild
order ed
ĠPro v
Ġsim ulated
small skip
text up
ist or
ĠImm utable
st rip
upd ated
Ġcheck s
Ġopen ing
Ġover lap
ed u
Ġmolec ular
Ġsh ip
Ġreg ression
Form atter
RE SS
ĠR ob
Ġinvol ving
s lide
ĠC urrent
Ġca pt
Ġend s
ĠJ ames
199 2
s ym
Ġt ables
Ġeduc ation
rom agnetic
Ġcollect ed
h istory
mid rule
v ille
Ġ' $
Ġemp has
Ġacc retion
ĠM O
Ġanaly ze
ĠPy thon
EV ENT
Ġw rap
Ġturn ed
Ġv ict
ref resh
st ood
d ings
link s
stand ing
ĠĠĠĠĠĠĠĠĠĠĠĠĠĠĠĠĠĠĠĠĠĠĠĠĠĠĠĠĠĠĠĠ ĠĠĠĠ
are n
Ġreason able
Ġadopt ed
Output Stream
Ġin clusion
Mis sing
Ġcon clusion
Ġfri ends
n ob
( []
Ġcomp iler
: #
Dec imal
Ġn orth
Ġre corded
e ction
ig ator
Ġrece iver
In ner
Ġph one
ĠEar th
Ġb irth
ib ling
ĠLo ad
Ġmed ical
Ġliter al
Ġpro pos
go od
Cont ract
Ġde part
tright arrow
Ġimpro vement
ĠS y
= &
="../../../../../../ ../
s olution
Ġrestrict ed
us r
C SS
Ġre action
Ph one
ĠCor ollary
ĠW hether
head ing
Ġ{ *}
Ġeffect ively
Ġre normal
Ġrefer red
Ġneut ral
valu ation
i able
Ġhel per
Ġsub space
b ro
C UR
mob ile
fe atures
Ġdisc r
an notations
Ġro ck
qu id
Ġorgan ization
Ġcon d
p ragma
sk y
b x
/ ">
Ġser ve
Ġdo mains
ĠPol icy
\ },
d m
Ġsche mes
HO UT
Ġ& $
t imer
in dependent
L eg
Ġstate ments
Ġfoc used
ĠM art
int s
ch a
Ġstrateg ies
' +
Ġf its
d rag
ĠF l
l m
in vert
co untry
ĠB i
od d
\ [\
Ġperform ing
Ġattr s
ony mous
D r
Ġweek s
å ħ
Ġmo ments
Ġbook s
B ucket
ĠW IDTH
inter pre
Copy right
P ut
Pro position
Ġg oto
Re ason
get Id
Ġtra ffic
Ġtransform ations
L IN
Ġg over
Ġsur faces
d st
The y
bin om
Ġs al
unn el
Ġwait ing
Ġevery one
to LowerCase
oc aml
Ġrandom ly
Hash Map
Ġenjo y
ĠDe bug
rep ository
Ġpol icies
Ġdef ining
Ġmin or
gener ator
uff ix
At trib
Ġse ed
Ġ ill
Ġactiv ities
Ġindividual s
* ,
O wner
Ġre member
Ġ uri
A meric
run ner
if ference
ĠSup port
g z
Sec ret
Ġch iral
ail ability
ĠInd ian
xy gen
Ġd rag
C ard
Ġcom m
Ġf ight
Ġat om
an es
lap sed
Ġde leted
Mark er
Ġide as
F P
Ġf light
ĠSec urity
E Y
Ġperm it
p at
Gener al
ro uter
fra g
ĉ ĠĠĠĠĠĠĠĠĠĠĠĠĠĠĠĠĠĠĠ
U Int
ĠĠĠĠĠĠĠĠĠĠĠĠĠĠĠĠĠĠĠĠĠĠĠĠĠĠĠĠĠĠĠĠ ĠĠĠĠĠ
script scriptstyle
CD ATA
}{ }
Array List
Ġinitial ly
ĠCour t
Ġiter ations
F amily
ĠSer ial
ĠSer vices
IMP ORTED
ash ington
ĠM al
w a
sche me
. (\
ys ql
ĠM anagement
de code
Ġan chor
Ġpur ch
; "
l ab
medi um
Ġs yn
Ġh our
BA SE
Ġrat ios
D im
a us
Ġf ather
Ġvers us
Ġs it
log ging
ec es
b us
ig u
ĠA lex
000 1
Ġs parse
ash ion
ĠF rench
ap h
Ġconvert ed
_ [
phys ical
De v
neut ral
cc c
id en
exec ution
EN V
GLA PI
A bout
S ta
Ġcharacter istics
Ġca uses
ine se
pri se
Ġl ie
In struction
\, {\
Con s
Ġmanag ed
ĠJ son
Ġcosm ological
log o
def n
Ġca ref
TR AN
Data Type
ĠCol umn
di ents
Ġdef er
Ġ' ,
ĠD an
c ryption
Ġdomin ant
ile vel
w er
h ow
cite alt
Big g
Ġextreme ly
Ġall Classes
%%%% %%%%
Ġdirect ed
leq slant
Ġparent s
ĠDo uble
trans late
ĠQ CD
Ġmon ot
res pect
ĠL ife
ĠT ABLE
ho use
Ġ\ {\
Ġto t
c n
Ġr anges
Ġsystem atic
t b
Ġgener ates
Ġinst ant
sub string
Ġb re
sur face
w ik
Ġinit i
ct ors
\| _
\ }.
ĠM odule
Un iform
att ed
ĠEq s
Ġdist ances
C CESS
ĠallClasses Link
ĠVer ify
Ġside s
urb ul
D ITION
re po
Ġplace holder
ph rase
viron ments
view port
ol f
LO AD
Ġcomp liance
== =
Ġw rote
Per iod
Ġl ives
Ġabs ence
Ġcap ital
Com b
Co untry
Ġh um
ĠA uthor
ĠP M
Ġch ance
ĠB usiness
ĠC A
pol y
Ġw est
ĠG ame
B ad
ag ger
Ġcontrol led
ĠU sed
Ġsimilar ly
ĠNAV BAR
Ġref lection
Ġbound aries
s lds
An other
g iven
De ep
G IN
hy per
Ġm s
ill is
lic a
P a
Ġw ild
UE ST
re duce
ĠC HE
Ġin ference
T w
A ctions
Second s
gle w
Ġrel at
Ġsupp lied
ĠH ilbert
th ree
} ",
) }$.
Ġcover ed
Ġm ac
ult ural
) _{\
el ian
Ġirre ducible
ap l
(" \
ĠF ilter
Ġslo pe
S m
s z
am er
Ġsp ot
ac ob
Ġin strument
ortun ately
Ġm or
Ġin herit
Ġt ick
Ġmodel ing
Ġbel ie
;\ ;
Ġtraject ory
d imension
x ff
mer cial
ab ove
Ġde pict
t ures
ĠV irtual
ĠEng land
ĠIn valid
Ġfin ish
b or
Match er
S elf
Ġamplitude s
ĉĉĉĉ Ċ
Load ing
e per
Ġdr ug
Ġup load
CO M
Ġre peat
Ġex cess
Ġro ut
Sche me
H AND
fra gment
... )
il ine
lement ed
B bb
comp act
Ġth in
Ġlist s
L ite
es cape
i pe
Ġmay be
D MA
lib s
c x
Ġenco ur
MP L
Ð ´
ĠMich ael
ĠB E
Ġrep ository
d jango
Ġcoup lings
remove Class
Ġra re
Ġsp ent
the less
d ashed
ĠU RI
Ġser ious
vel ope
D ATE
c ing
Ġatt ached
Ġinterval s
Ġdepend ency
ĠSim ilarly
og en
ĠN av
uc lide
land s
Cont in
Ġimp ly
ĠY ear
Exec utor
sp ired
ĠStr uct
op acity
ho le
default s
}[ !
au x
Ġlog arith
11 1
Ġpro duces
Ġto ward
F ore
ĠE mp
refer red
. ',
ym er
Ġc as
Ä ±
ord ers
Ġcon to
Ġcon tribute
Ġsu c
Ġr ich
date picker
p ared
Ġun iverse
Ġestim ator
99 99
Ġpanel s
}\ ;
ad apter
w as
Ġpower ful
Ġvis ibility
nol imits
se gment
}{ {\
Ġin vert
lear ning
FA IL
Ġsimp licity
Ġ{ $\
Ġarray s
ab ric
Ġconf irmed
Ġval u
Ġal gebras
Ġl ens
ĠRe ference
big cup
ĠEng ine
on o
Al though
i ra
Ġto ur
Ġ# {
av our
ĠH y
end point
æ ķ
Form s
Col lect
Ġcon vers
Ð¾Ð ²
Ge ometry
Ġassign ment
pro duction
}) =\
Ġke pt
sub equations
File Name
Bit map
ge ometry
du mp
Ġdiv is
Ġad vers
ĠC F
ĠEqu ation
second ary
Ġsco res
Ġmov ement
Ġi i
Com mit
Ġl ift
ĠÐ ²
Ġpro ton
A lias
Ġsol ved
Ġse ven
ĠĠĠĠĠĠĠĠ ĠĠĊ
Ġmorph ism
Ġlik elihood
Ġdesp ite
ĠSV G
D id
Ġgo og
// !
ĠN E
Ġconven ient
Met ric
uclide an
| -
Ġwhen ever
Sup er
ĠA uto
Mod ified
ĠCh ange
ĠT OP
Ġse gments
Ġgener ators
frame s
Ġexp anded
Status Code
Ġpract ical
Ġcirc uit
Ġind ent
gg ed
Ġde m
ac o
Ġfun ctor
B D
L ike
ĠT witter
t bl
T IM
und red
i ro
ĠS yntax
T V
ĠL icensed
C trl
ig er
ĠS hould
bel ow
ĠDe ep
opt im
Ġol der
Ġf older
A U
Orig in
f ac
ĠGL enum
Ġcol lapse
C s
ĠG old
Class Name
ma xim
ress ions
Ġcompar ing
ĠS SL
Ġ} ),
Ġm us
ĠĠĠĠĠĠĠĠĠĠĠĠĠĠĠĠ ĠĠĠĠĊ
ĠB est
s ame
D en
er g
ĠR iver
ĠVAL IGN
Qu ant
name d
v in
Ġopportun ity
Ġmov ie
Ġgrow ing
l b
Ġ\ }
p in
st age
Ġs yntax
O FF
Ġcon formal
p otential
U AL
q q
Can not
j k
Ġdriv ing
c assandra
Ġcru cial
Û Į
B reak
Ġreson ance
Ġin j
Ġlo s
Ġb ank
y an
Pre vious
ang les
Ref lection
s core
form ing
ĠWIT HOUT
Ġcli ents
ĠF ALSE
St ub
P erson
f older
Ġ ðŁ
l ations
form er
-------- --
Draw ing
Valid ate
Ġphot ons
Ġb ary
Ġsc an
Ġemploy ed
glyph icon
Over view
phot on
}) (
process ing
ĠR ender
scal a
ugh ter
Ġrequire ment
Ġ Ø
Ġs outh
ĠRe view
ane se
ead y
Ġgover ning
a ui
Ġcour t
100 00
W ill
Ġle aves
Ser ies
Ġ! !
iv ari
Ġpl ays
Ġcopy right
ĠR untime
get Attribute
Ġdraw n
iss ue
Ġattack s
button Element
app ings
Ġspe ak
la in
de legate
us al
P red
I ME
de comp
ide os
( ()
Ġveh icle
Ġ ray
not ify
A mount
\ }_{
get String
Ġcor ner
P OS
Ġd y
ĠW rit
be an
ĠS W
ĠP ress
ĠDem ocr
Ġdise ase
K S
un known
____ ____
d n
Dis k
ĠIt s
ĠCh annel
ic ates
size i
1 12
p et
Ġnat urally
Ġw oman
Ġn ested
Ġsm art
G ui
ĠA M
is o
ĠDef ine
Wh ere
Ġproces sed
F inal
Ġcontinu ed
use um
Ġpro position
Ġb ucket
[ ]{
pre pare
Ġdescri bing
Ġacc um
Ġfind s
DE D
SH A
Ġel imin
ĠLog ger
Ġkin etic
od ies
Ġv ort
Dist ance
Ġc elebr
ĠP lay
P ush
define Property
ĠF il
bo unded
Ġorder ing
Ġmedi an
Ġcons isting
over flow
duc ation
| _
__ ,
Ġunder stood
Path s
ab stract
ĠT ag
ĠS end
LA Y
Ġalign ment
ĠH istory
Ġlook up
her n
ĠC ho
el come
Ġpre par
Ġspec ifically
d ers
Ġinc ident
ul ing
Cre ated
n of
ĠB rown
II I
ĠC ur
ĠInst ead
) }$,
Ġfour th
/ ******/
ä º
199 1
rib uted
ĠSer ies
or a
ĠD CHECK
amo unt
F etch
Ġ utils
Ġsub section
Dep recated
Ġinvestig ated
aw iki
Ġpers pective
ĠR out
U int
ĠCHE CK
Ġf ul
13 0
Ġdemonstr ated
Ġstation ary
M achine
Ġfil led
in x
ĠK EY
": "
} ~\
v able
Al so
S afe
CRE ATE
R S
"> (
D one
}} ,\
medi awiki
Ġsay ing
ĠUn it
Ġeigen value
ĠA GN
Ġmo ves
Ġwon der
Ġsort ed
Ġc ss
Ġ\ |\
ext ends
Ġeas ier
qu ark
sh arp
Ġp m
Ġpotential ly
Ġbo ot
Ġsem antic
ind u
Ġcount s
Model s
ĠAss ume
Ġme eting
B ACK
lev ision
A ccording
ul ating
Ġtrans actions
le f
ud it
T L
50 9
Ġnormal ization
ĠE very
appro xim
SO URCE
Ġb g
Ġexp r
Ġp ng
ĠNS String
Error Code
Ġgra du
Ġ( %
c u
Ġneut ron
ĠSt ar
è ¿
Ġoper ating
AP P
M ay
Ġsur round
ĠI II
air s
Ġs ensor
Ġsm allest
HO ME
ĠSh ort
ites pace
ub b
r atio
sc an
ĠO P
Ġang les
' =>
Ï Ģ
Ġcl in
Re call
Ġthan ks
Ġbro ught
Down load
Ġaspect s
Control s
ĠL com
ĠH as
R UN
Ġbroad cast
ĠL and
}{* }{
Ġim m
Ġan isot
al a
BU ILD
Ġint ended
it t
ĠĠĠĠĠ Ċ
is er
Ġsp irit
ĠC S
ĠT erm
ĠS ol
D em
b ucket
Ġcompar able
sub scribe
ĠP et
ĠGu ide
Ġplas ma
Ġ{ %
Ġrespect ive
grad le
Ġman ufact
Ġsco ped
Ġpres er
Ã £
over ride
with out
h ot
Ġ' ''
add EventListener
M ac
sol id
Ġ(! (
und les
Ġre construction
C la
gener ic
Ġcl s
Ġ" >
H D
sub str
` )
ound s
Ġ ing
F ake
cons istent
WA RE
ar ia
ĠAct ive
Ġpropag ation
M utable
And roid
Ġcluster ing
on ed
ist an
Ġap ilevel
tom ic
T ick
Ġ' ')
Ġecon omic
a pt
7 00
ĠĠĠĠĠĠĠĠĠĠĠĠĠĠĠĠĠĠĠĠĠĠĠĠĠĠĠĠĠĠĠĠ ĠĠĠĠĠĠ
With out
s amples
IN IT
Ext ra
IN VALID
L ines
)-- (
Ġbenef it
Ġimp o
^+ $
Ġp p
Ġsche dule
Ġunit ary
Ġn a
Ã³ n
Mo unt
Ob servable
Ġconver ges
\, ,
Ġdomin ated
Ġtw ice
me mbers
ande mic
ĠM usic
ĠZ e
sd k
Ġrough ly
RE T
incip al
Lo aded
ĠK IND
. ');
am in
V ec
ĠN ull
Ġprob abilities
S printf
filter s
sc hed
Ġenco der
dat etime
w iki
Ser vlet
omorph isms
m en
MA GE
ec ycle
ke ep
N ONE
Ġp a
C orre
Ġpl ans
pre vent
Ġan notation
sp i
ĠRe port
Ġthrow n
API ENTRY
Ġmark er
Ġsimilar ity
^* _
li e
con current
ĠU SA
ic ations
Ġv ill
Ġ ig
P lease
Ġwide ly
Ġadd s
Ġgeneral ization
Ġt sd
ĠL y
F urthermore
ist ant
lin ux
Ġq q
att ach
Ġdiv ided
ig gers
Big l
Ġt imer
Ġm m
_{ -\
Ġin duction
UR N
= -\
| _{\
Ġm other
ĠG erman
Work er
Ġcomp licated
T ex
ĠS C
path s
Be en
Code c
Ġplot ted
Ch anges
Un mar
code c
Ġpart ners
ĉĉ Ġ
re lation
Dis abled
Ġsplit ting
Ġpart ially
ĠL I
Ġaccept ed
os h
T yp
illi seconds
on av
v dots
} ],
Ġs napshot
Ġlink ed
ay lor
scri ber
Ġappear ance
out hern
Ġdef ect
ther n
ĠT oken
Ġinvol ves
ĠL ast
in ction
valu ed
st or
GL enum
me tic
B T
Ġsh adow
Ġneg lect
Ġtrack ing
ac ement
ĠThe ir
sh are
f ort
get Message
ĠSpec ial
Ġcent re
Ġmanif est
Ġdetermin es
refer ences
Ġpres ident
LA B
è ¯
Pers istent
ĠP ower
Ġwork er
ĠT YPE
Rad ius
ĠOff ice
con c
Ġsl ot
u er
Ġro ots
ĠExp ression
it ar
Ġuser name
Ġs in
Ġdep loy
Exec ute
} <
Ġretr ieve
Ġsimultane ously
Ġor bits
ĠD uring
Ġact ing
' $.
Ġjo urnal
Ġp in
th rough
Ġwas n
AT URE
M ov
Ġe ast
__ .
Ex perim
Ġident ification
and box
ĠB uilder
Ġge odes
re ject
Ġharmon ic
A MP
Ġho les
ĠO C
S ide
Ġelectron ic
ĠT ex
Ġte ams
ĠD iv
P ipeline
Ġc at
per cent
MM ARY
_{ [
Ġillustr ated
ane ous
Ġlo ader
ĠW ashington
Ġchalleng es
Ġposter ior
Mer ge
Al gorithm
ec lipse
ĠM IT
on omy
d v
Frame s
ĠF oot
Ġper haps
ĠDir ac
Ġvo ice
ĠS ize
çĶ ¨
Ġt ight
D er
ĠW ill
ĠPo isson
' },
[ _
List eners
Ġflow s
TH ER
Ġad jacent
Su ite
r aries
ĠCom mit
AAAA AAAA
dat aset
Ġstrong er
B u
co st
ĠJ ul
Comp leted
roll ers
S ol
Ġnav bar
B I
Ho ok
\| ^
G ra
k ern
st e
Ġw ants
H ave
se ll
Ġme sh
ret val
Ġf ra
Ġdecre asing
E lem
Ġinv oked
ear ning
f all
Ġra ised
H M
Ġle ader
Ġinitial ized
ĠL java
Ġcirc ular
P adding
P ower
re ci
ĠArg ument
erm any
s co
pay load
Big r
ĠS pr
ĠAdd ress
Ġshe et
Ġst ories
Ġexc ited
ĠÂ £
~ (
W rap
Run ning
Ġspher ical
Ġpriv acy
C r
ĠF ermi
IN DEX
ĠRe al
× ķ
not ification
ĠD own
ST M
P ending
S cheduler
Ġclo sure
ĠLe ague
aw n
de scribe
res olution
f requency
. (
Ġpro be
GL uint
d riv
ĠT ree
math ds
B g
Ġdec ided
ĠT om
ĠPr int
d z
ven ue
ref lect
}} =\
he x
P ress
cache d
UB LIC
m ime
[ ],
Ġdiagn ost
Comp are
Ġdec ays
Ġrespon ses
G O
ent ries
C ut
ĠComp any
c laim
Ġst abil
ĠM il
ĠL ore
Ġser ved
Ġ. =
Ġpres ents
m r
Ap J
ition ally
Ġf an
ĠC C
onal d
19 80
Ġ" _
Ġinter ior
Ġ" #
ĠRo ad
G T
Set s
S rc
j q
Ġcharacter ized
ĠS i
Ġgo ogle
process or
ĠAss ociation
Ġspac etime
Ġl abeled
Ġmod ification
IC ATION
, (
File Path
Ġcomp ression
F at
Ġcons istency
Ġvan ishes
Ġde d
ĠG rid
Ġle pt
Ġfore ign
Ġdirect or
v id
Ġp ref
h alf
vers al
Ġdiscuss ions
b one
F ac
v g
A cknowled
lu x
Ġw arn
pro gram
Pr imary
Ġclaim s
G M
Ġclo ser
Ġa ware
Ġex cell
Ġim mediate
ST ART
cp u
ĠLib rary
Ġclose ly
Ġbu y
Ġtraject ories
Ġcol our
? âĢĿ
ĠEn able
reg istry
Ġsat ell
b ench
pub lish
ic ity
Ġman ip
Ġcomp ile
Ġintr insic
Ġa ux
ĠC NN
th an
Link ed
Pro totype
F ill
ĠS P
me trics
] *
ĠR iemann
En coded
ant ics
Ġth ous
14 0
à ¸
onav irus
as ible
Ġconcent ration
; |
Ġp le
ĠG ood
im a
rid ay
At A
Ġconfigure d
Ġcharg es
os ure
oci ated
v ements
Ġb old
Ġcirc um
Ġh uge
MA SK
B H
Ġabund ance
not in
Ġtrack s
Ġany one
Ã£ o
get Class
Ġjob s
ĠV ir
Ġemp irical
Ġa ugment
M ut
Ġinvest igation
Ġis omorphic
C amera
ree k
s ources
De coder
B est
S lice
Mon itor
Ġappe ared
Ġpro te
T ry
A K
sw ing
19 2
Ġfil ms
ĠRo bert
Ġhe x
ĠW ed
Int eg
ĠUn ion
$ _{\
ent y
sl ider
Ġvari ant
Ġlo cale
{ })
radi ction
k ins
z oom
Sup press
Ġm u
Ġb orn
l am
Ġp osit
Oper ations
ĠS pe
so ck
t ically
lement s
est ival
3 60
ĠG en
Ġlist eners
Re place
es ides
st ic
Ġt s
Ġcheck ing
In to
Ġg old
a ug
rupt ed
Un expected
now ledge
at ched
W in
r pc
Ġout come
Ġaut orest
oid al
Table Row
the ory
] ).
und ay
Î ·
Found ation
con figure
Mix in
] ['
place holder
N ECT
link ed
b olic
qu al
it ors
hom ology
Ġ$ <
Ġco variance
Ġperform s
Ġfoot ball
G RO
dis k
ext ract
ĠR ow
Ġ Ñģ
ĠDes ign
ĠM ov
Upd ated
ĠS ymbol
ul as
S ig
U sed
Ġnot ification
m ust
h al
hel lo
im ent
Ġpl ots
U psilon
ĠN a
Ġparame tr
set ting
ĠInitial ize
Ġlang uages
olt age
Vis itor
ol a
Comp letion
Ġm ilitary
Ġinter sect
Rel ative
Fe ed
< >();
] ),
Ġl aser
ĠParameter s
Ġt er
t uple
ar ial
v olution
Ġkin em
Ġcoll isions
temp erature
ĠPro f
Ġlocal ized
ĠS ing
in cluding
Col l
ĠDate Time
v endor
H AS
aa aa
Al pha
)} _{\
ĠPro p
WR ITE
Spec ial
Ġhard ware
ut ors
B ER
Ġc old
N I
M LE
Ġc ubic
road cast
M ust
Ġhel ps
nt z
ĠA li
Ġperturb ations
Ġw x
Key word
ex cept
Function s
SS ION
ĠGe orge
Ġre construct
Ġcomp osed
Ġincre ment
N eg
ens ors
Fact or
d ifferent
Ġintro duction
Ġp apers
ĠF lor
Ġdistingu ish
I SE
Ð° ÑĤ
Ġpat ient
Ġrecogn ition
un lock
Ġp owers
Ġen semble
F oo
Ġs chools
h ist
Ġmechan isms
Ġh undred
start s
En code
Ġcustom ers
pr ising
re hen
Ġaff ine
st eps
}} )$
Ġsome what
Ass ume
AB ILITY
SU PP
m atic
ĠA cc
ĠOn ce
Ġb ra
Ñ ĸ
D TD
App ly
FORM AT
uto ff
V O
Track er
ic ed
ri ent
er os
ĠD A
ĠL at
Ġa ria
Ġf irm
å ¤
v skip
As set
Ġpl anning
Ġeffort s
v p
Ġcol span
ater n
chart s
Ġvac c
part ition
Ġb udget
ter rit
ER N
, ~
Ġt urbul
ĠMon te
æ ĺ
Ð ¿
Ġreturn ing
Ġfig ures
Ġme son
ĠC ache
ancell ationToken
Ġcover ing
ĠS ymfony
ĠP erson
| =
Ġtri angle
fol io
ĠSU MMARY
10 2
to kens
ĠR O
sign al
Ġst ock
pi pe
Ġred irect
Ġlaw s
ĠMark ov
& $
ĠM C
late st
Ġto String
-------------------------------- ----------------
ab y
Ġb log
in verse
ĠĠĠĠĠĠĠĠĠĠĠĠĠĠĠĠĠĠĠĠĠĠĠĠĠĠĠĠĠĠĠĠ ĠĠĠĠĠĠĠĠ
Dest roy
Ġtr im
gr pc
B F
Ġhy brid
St yles
Ġdecl are
Ġut ility
n c
Ġelect ro
render er
Up per
t ile
ME M
Ex it
flu id
Ġde b
? (
Ġ ur
% "><
Pl ace
Ġa w
BY TE
ĠIn ternal
sub stack
Rece ived
K ernel
var s
Ġtri al
>< !--
L U
Ġsegment ation
fin ement
Mod ifier
Ġadd r
f un
ex clude
ĠT or
Ġst uff
amazon aws
Ġc riterion
spe ed
P s
if ul
Ġoriginal ly
ĠCh inese
get s
ĠB asic
lig ible
on om
vent ory
. },
ffff ff
ĠAn other
E nt
OR K
Ġpul se
Set up
territ ory
Ġis su
shall er
Cal endar
ct ree
ĠGener ate
temp t
Ġentire ly
ĠResult s
Ġcon e
ĠE ner
in to
s ent
Ġc e
Ġinterpre ted
l ined
Ġ* ,
ĠL anguage
' )$
ĠM S
XX XX
ĠC D
Ġnew ly
d ra
Ġ' </
value Of
script s
~ {\
ch anges
ĠF act
ĠâĢ ¦
ĠCon sole
ĠTR UE
ĠGL uint
rint f
Ġli quid
Object Meta
ĠO ptions
od o
Ġrel ig
Ġsec ure
vel oc
ct rl
T M
ind ices
Ġc it
Ġv ec
Ġindependent ly
Ġpl ant
st rict
. }\
Ġal ter
Trans fer
Ġm ath
Ġsh arp
ĠL u
ĠAd min
C redentials
ĠCar lo
> `
g ate
10 5
B us
ĠSp ace
am ond
(" .
b est
ros copic
Ġconvent ional
allow ed
ni h
b oth
NG TH
p ite
: -
serv ative
Ġaut hentication
at ile
ĠIt em
sp ark
Des cribe
ĠWilli am
COUN T
Ġconduct ed
Ġn ice
File System
Ġveloc ities
> %
ĠDe velopment
In line
ĠST ART
P resent
P ane
initial ize
Ġpred icate
res olved
o un
Ġinitial ization
Ġguarant ee
R M
ĠFr ance
ĠCl asses
Ġcommon ly
;| &
') ->
Ġ" )
' ',
an ches
Ġcon sumer
ter ms
Ġsepar ately
Access or
ĠF ILE
Ġrepresent ative
% )
Ġrob ot
F it
FUN CTION
c lock
f ortunately
n l
Ġa udi
sequ ences
Ġfib er
ĠĠĠĠĠĠĠĠĠĠĠĠĠĠĠĠĠĠĠĠĠĠĠĠĠĠĠĠĠĠĠĠ ĠĠĠĠĠĠĠĠĠĠĠĠĠĠĠĠĠĠĠ
mb ed
grav ity
alt Color
ĠPart y
ĠM atch
Ġex clude
Ġop in
sy ch
Ġcont radiction
Ġdriv en
d ays
Ġg ate
g p
ĠDist rict
TEXT URE
S PE
multip le
am ous
bu ilt
H y
ĠS ocial
Ġbenef its
s yn
Sub scription
arch ive
ĠSm ith
OB JECT
no ise
EE E
ĠAfr ica
Ġiter ate
Ġis instance
ĠMethod s
ĠS af
ĠÐ ½
Ġle aving
Ġcustom er
ĠM atrix
L C
ĠT ry
Ġdist rict
Ġpro totype
n own
ĠCon tainer
arg v
Ġ' [
FT WARE
w allet
S i
er al
ĠR ight
ĠS al
to Equal
ordin ates
}) _{
F i
h skip
ynchron ous
Ġspe ech
' $,
= (\
Ġspec ifies
A VE
Ġprefer red
Right arrow
Ġc ertificate
B i
ĠIn it
Ġcon cat
Ġc ert
Ġ-- ></
Ġweak ly
Ġc av
Ġen ables
ĠCh urch
In s
new s
O ld
() [
Ġfl ush
en ario
S uch
ĠP rivate
Ġrect angle
)= (
Ġa li
mut ex
Ġdi ed
) |^
st on
ĠC amp
In jection
Ġcyc les
d anger
ur er
Pro c
Ù Ĩ
Ġnon zero
B LOCK
ĠX ml
P aint
st s
Ġdis joint
' }\
fil led
Menu Item
jav ax
Ġstruct ural
task s
ol o
Part s
r and
/ )
ili ary
Y P
le ave
re verse
Ġk w
center line
Ġgr and
-- ;
Ġ} {\
sp lice
Ġactiv ation
over lay
Ġs un
de termin
Ġref ers
) |\
I p
Ġepis ode
Ġre ward
Rece ive
at on
Ġen vironments
ĠUn less
SU CCESS
equ ival
agnost ic
An chor
m aml
Ġsent ence
Ġdiscover ed
ex act
D ict
âĢĿ .
Ġjo ined
pack et
Ph ase
Ġa part
ĠCon dition
time line
Array s
C ulture
N ON
an imate
je ctions
Ġs en
Ġin nov
E OF
ĠFor ce
Block s
Ġassoci ation
Fix ture
T ensor
19 70
To ols
\ -
ate ver
Ġge ome
Ġde precated
Ġkeep ing
Ġd raft
St d
Ù Ħ
est ure
10 4
Comp at
ĠB ur
st ud
Ġdiscr imin
Ġb lob
Ġsupp ly
>( <
Ġref resh
ĠGovern ment
Ġterm inal
Block ly
Ġf ru
Ġlo gin
Ġchalleng ing
class ic
e ed
SS AGE
in ite
Ðµ ÑĢ
//////////////////////////////// ////////////////////////////////
Ġ& #
ĠP ass
Ġreplac ement
198 9
* >(
Ġ' @
PAR AM
pag ination
Ġm apped
! =
Ġlinear ly
Ġg i
Pop up
SD L
andid ate
Ġpe er
Top ic
n os
re y
le e
Ġanaly tical
ĠD MA
Ġth reat
emp l
Back end
ib ilities
run ning
atter y
{ [
Ġp andemic
G A
ch rome
co okie
ĠB AS
Ġend if
C lean
Ġlength s
$ --
est er
Ġsh ot
Ġ} .
() `
An im
Ġtri ed
g ot
mathbb m
Z oom
include s
Ġsub sets
D a
me ter
S eq
de scriptor
Ġse a
Ġal location
Ġin correct
1 16
ac er
ust ain
P B
Ġm acro
Im mutable
ĠĠĠĠ čĊ
nt il
Ġcell padding
ĠF urther
STR U
Ġa rise
Ġcorrespond ence
ĠCon structor
00 5
ĠE ducation
Ġd war
Ġtrans mit
Ġla un
ĠTechn ology
à ¥
ĠOrig inal
r ical
}) -
IC Ag
ĠAt tribute
f uture
separ ator
Ġcontin ues
Ġt ile
Hel lo
ĠS ty
Def ined
ĠN GC
] ^{
at i
over set
ic ing
og gle
P DF
Sup p
t ick
Ġconst rained
Ġen crypt
Do ctrine
prec ision
Sur face
ĠD ig
APIENTRY P
ac l
ind icator
st ri
Event Args
cept or
ĠSto re
Ġd aily
Ġuint ptr
Ġanalog ous
ĠP ut
Ġadv ance
LE V
sol r
Ġr c
F W
ĠS am
Ġs y
RE AM
red irect
Tra its
SER VER
pack ages
ĠD eta
ĠCl ub
ad oc
code s
Ġport ion
ot ent
He alth
Ret ry
N il
Ġreco very
W ARN
im s
en vironment
ĠIllegal ArgumentException
Ġ ^{\
Ġpeak s
if er
Fat alf
" }
F IL
ĠB ob
ĠT imes
æ Ī
Ġbos on
×ķ ×
CH AN
Ġ å
Ġhand led
and o
Ġcommun ities
Meta Data
ĠC PU
R atio
2 13
Ġpre pare
PO INT
Comp onents
p us
+ $
ad ded
ĠEner gy
s mooth
ĠBo ard
Ġset t
Ġn ation
Ġinfin ity
Test ing
Ġremo ving
M ag
R IGHT
ĠJo urnal
pro tect
Ġsub scription
æķ °
Th reshold
View s
Ġhom ot
S can
> [
00 2
Ġs leep
ta ke
ess or
ĠV ol
Ġintegr als
ĠGL sizei
FR AME
Ġpar a
AR GET
re cur
ĠCon struct
ĠJ er
An notations
lect ic
ĠAl low
Multip le
Ġdis sip
inv oke
p ref
LO B
Ġ[ {
Ġun stable
her ence
}_{ (
b ecause
sat isf
Ġs ender
ty p
ĠJava Script
Ġpay ment
ĠEx pect
Ġprint f
O k
Ġst eady
Ġparticip ants
Ġab ort
ic ient
Trans lation
Ġfe e
p ur
]( #
ĠE ntity
lf loor
¿ ½
Ġperiod s
std err
Ġad vert
Ġent ities
Ġc fg
ĠN ever
Me asure
RO OT
Ġ$ [\
Separ ator
Ġcapture d
Ġaccount s
tra in
Sl ot
Ġreve aled
Rel ated
(" ./
REQ UEST
L ang
mark er
ad ian
Z end
Ġ" );
rot ate
S el
ail s
t re
pri ority
ĠB ank
ĠL abel
ant ly
ĠG ermany
I ES
Ġat trib
Ġb on
Ġexhib it
Ġcomb ine
Ġord inary
ĠCom mission
Ġcalib ration
ĠHash Map
ab et
Ġx hr
Ġne ither
ate st
DE C
LE NGTH
ierarch ical
ynt hesis
__ ["
Ġv ote
En tries
& -
String Builder
Ġlo ops
Ġ{ {\
Co okie
ĠCo unt
rf loor
> .</
i NdEx
n pm
Ġscal ed
bound ary
Ġm al
ĠAd v
se cret
Ġelli ptic
Ġhand s
ag ation
'] ))
Fil ename
rg b
Ġprofession al
ĠE uclidean
ĠS il
Ġdot ted
( --
f loor
Ġfor ced
Ġpoint ed
ĠA D
Ġens ures
ĠĠĠĠĠĠĠĠĠĠĠĠĠĠĠĠĠĠĠĠĠĠĠĠĠĠĠĠĠĠĠĠ ĠĠĠĠĠĠĠĠĠ
vari ants
x f
Ġbrief ly
Ġpack ages
Emit ter
ĠMa jor
ap ps
Ġs ynthetic
ĠS ociety
Ġh ierarchy
Ġb lood
Ġproject ive
st ub
gu ide
Ġrece iving
Ġ= ================================================================
ĠU SE
vari ables
Ġf ans
ĠIsl and
ĠAd ded
help ers
mu x
}} }{
Ġgr pc
ver al
40 4
ĠEn ter
Ġorgan ized
Ġde coder
ĠM eV
ume d
Ġf elt
ï ¿½
ĠAre a
ĠChrist ian
Ġquot ient
ĠGener ated
\' {
go v
Ġm it
\, .
E LEMENT
Ġcertain ly
O cc
ĠH ill
project s
Ġg ather
ĠM ary
SQL ite
Ġt it
r ating
A li
ĠC ong
we ek
Ġpercent age
Ġanalyz ed
Ġl in
text area
K L
sim ilar
le ading
scal ar
. ;
Ġrender ed
ur day
Jo hn
Ġc ri
ĠW ell
Ġ$\ |
Ġdis covery
ĠA WS
l iteral
F s
Ġdis cret
Un ique
Ġcho osing
display math
}. \
Ġc redit
Ġentang lement
if rame
In ject
Ġreplac ing
al ty
Ġb ars
cons ider
ĠTe am
MS G
Ġn om
Ġ( `
super vised
e z
let ter
" ?>
u an
Att achment
Ġw ife
ĠCON DITION
CON ST
reate st
ĠSc ott
Ġre ality
ĠImp ort
â Ķ
)} =
ĠJap an
}, {\
enc ing
Ġre ly
Ġse ar
az ure
cy c
Ġl abor
Ġde formation
ĠHe ad
R ob
br anch
Ġho ok
IE W
ĠA ward
Re cent
Ġ/** <
Ġinter ference
Ġout line
tra ining
( `
! (
ĠTh omas
Ġexcell ent
C ss
ore s
en ance
ĠM any
) '
. ")
Ġsub mit
Ġthread s
ĠW ord
} &\
ĠA C
w ho
Ġpr imitive
n ight
Ġw it
ĠFlor ida
br and
respect ively
ĠN othing
dir name
en o
Ġin structions
is y
ok es
vis it
F D
$ (\
ĠM us
ress ive
14 4
h w
C ity
ĠU pd
}_{ {\
pear ance
Ġb illion
String s
Ġsuper conduct
SU B
@ {}
ĠY oung
P icker
at able
Ġde duce
Sub ject
ĠW ay
V S
ss ue
Ġcon servation
Ġnot es
Ġmarg inal
w alk
Ġprogra mming
Ġc p
Ġne ur
con ver
Ġisol ated
ĠF I
m v
ĠRec ord
Ġcirc les
sh a
Gener ate
Ġ/ ><
ĠD IS
id al
ERT Y
] </
ouse l
P N
Ġs pl
In clude
Ġbr and
Ġg it
> {
Ġle af
G G
ĠB H
Dep loyment
erm it
Ang le
ĠC ast
Ġf ashion
ĠI gn
Ġobserv ables
c raft
ĠF ull
Ġcy l
ap ed
Ġsee k
set Text
db c
ĠM L
Ġcosm ic
ent ric
Ġel astic
ack s
ell er
o ice
to ctree
ĠT arget
ow ski
PRE FIX
ĠE lect
EN C
ĠMult i
Struct ure
Ġsuff ices
L ow
Check ed
ĠSO FTWARE
) <
Ġcomp osite
x sd
Ġm ach
198 7
Ġig et
Ġcombin ations
df s
ĠDet erm
B ro
Cal led
er ate
size of
Ġ[ #
i en
ĠIs ra
o ved
Ġwh om
Ġcell spacing
}$ ).
ĠF und
å Ĭ
Ġcorrel ated
Ġent ered
ĠCONDITION S
, ,
V C
: %
Ġinst itution
Ġadv anced
Ð ·
ion e
Ġpar sing
Ġnumer ically
p ositive
Ġhe ter
Ġreal istic
or row
Ġr u
Ġset Timeout
OR S
Cal cul
Ġpro tection
Ġinter view
Ġ" ;
19 88
az ine
M esh
Sh adow
Mod ules
Ġr hs
ĠSche ma
veloc ity
Ġe ye
ĠP C
ĉĉĉĉĉĉĉĉ ĉĉĉ
}| ^
Ġparse Int
he ap
," ./
Ġcom mercial
row se
Ġst ands
ch er
/ #
back end
deg ree
c as
ĠÂ ©
T LS
24 0
Ġe yes
ĠL ou
! "
Ġtherm od
Ġhapp ened
Ġrelax ation
ot i
type param
Sim ilarly
ĠCh rome
^- $
us hed
ĠAn n
ĠM A
w ater
AUT H
Î »
Ġmis sion
Ġrecomm ended
Ġcool ing
if est
t v
or bit
string ify
on line
In tern
ĠBAS IS
INST ANCE
ch itz
com ments
Ġf d
ced ures
En coder
' =
les cope
Ġg lyph
do es
under set
Ġs ales
ĠTex as
) )$.
Ġderiv ation
l arg
Ġre tain
Pe er
Ġin coming
Ġlat ent
Ġin duces
ĠB et
ĠR ights
ĠI V
Ġc ivil
Ðµ ÑĤ
B ecause
h h
alax y
imit er
D ot
ĠCent ral
Ġstore s
Conn ector
Pay load
ĠApp le
Ġw rapped
spher ic
RE NT
r x
li des
inter op
Ġsum mer
Ġrelations hips
scri ptions
is en
Ġpol l
ut ter
ellig ence
Ġgu ess
Ġth er
M illis
Ġinf lation
HAND LE
ĠO pt
TO M
ul p
ĠTH REE
Ġw arm
un tain
Ġar row
Ġenh anced
table block
ĠEn vironment
block s
cer ning
// ----------------------------------------------------------------
ĠP en
N Unit
S co
Ġst ages
Ġexcit ation
depend encies
Al ert
ĠAn alysis
Des ign
reg ex
Ġf loor
ĠG C
Ġcall er
Ġillustr ate
f our
( |
S ender
Ġcon jecture
? ?
cur ve
2 20
open api
LO AT
W arnings
M ost
Request s
l ife
ĠJ ob
Ġhand les
Ġ" [
Ġhe ard
ĠR andom
as i
Ġch ains
OPT ION
Ġconsider ation
Ġreg ex
list eners
Ġinser ted
Ġne arest
Ġp an
Ġfact s
F ace
ç »
an im
F M
Ġ\ #
---- ---
è ®
11 5
Ġacceler ation
leg end
0000 000
Ġpres erve
Ġins pect
View Controller
Z Z
ic ine
Res pon
be ans
ĠG reat
google apis
LEV EL
ĠO ffic
Ġte le
ent a
eng er
Ġin set
e fficient
ĠAc count
Ġ@ {
Ġin fer
Ġformal ism
ĠF riday
Ġhand lers
Ġappear ing
Ġreg istry
ch arge
G ateway
Ġ// !
Ġf aces
' }$
O G
Americ an
US Y
ĠPro perties
C laim
hav i
ak a
Ġpotential s
os is
ĠValid ate
c ritical
sc atter
Ġ} $
}= (
ad y
pert urb
Ġdi ameter
P ages
g h
Ġexam ine
Ġpart ner
Ġbeg ins
Ġco herent
Ġde code
Ġcar bon
Ġwindow s
Ġk illed
Ġman age
de veloper
TableRow Color
Ġdro pped
Ġa head
}} }$
ĠForm at
Ġattemp ts
d w
__ _
last ic
Ġ(! $
Ġfilter ed
ith metic
Reg istration
re lax
ĠW HERE
l ator
Co in
D on
ĠT IM
ĠF ixed
IT LE
is ons
Ġare n
de mo
Red u
âĢ ĺ
non atomic
Ġout per
Ġme ant
p mb
r n
co ordinate
ĠOb servable
mix in
ĠType Error
G it
Ġremo ves
Ġs an
ĠJ ew
f iler
Tag Name
lef trightarrow
Ġint ent
ca des
Ġpi eces
Ġ$ $\
ĠP eter
form ula
ĠEd itor
s en
Ġc c
In spect
}} +
Ġz oom
or i
Ġcut s
=" {{
ces sed
Ġpresent ation
ĠF i
Per cent
Ġd il
Ġsc r
Ġclass ifier
N ested
prevent Default
ol ving
ĠCal cul
Ġco vers
at ches
ĠS Y
ĠC L
Ġn an
ĠP osition
Ġcallback s
() ">
force ment
Co uld
O ps
Ġ$- $
Ġshe ar
N orm
ick y
Ġview ed
Orig inal
= {\
Ġcomp ilation
ĠDirect or
Po jo
=- =-
Ġfind ings
Ġh al
Ġreject ed
serv let
Ġregard less
---- -
}( -
ĠIntern et
Ġhe ar
Ġtell s
t ol
^ +\
AME TER
Ġ[ -
Ġhe av
Ġch apter
ĠE C
! </
Ġ\ :
qu ality
ĠC luster
Ù ħ
Ġro les
). }
get Time
~~ ~
ines ses
Ġb ul
valu ate
P riv
Ġsymme tries
J ust
Ġm ig
B ag
Part ial
* >
Allow ed
Ġsitu ations
De code
ĠLore ntz
Ġdetermin istic
ICAg ICAg
Ġvan ishing
Ġin variance
let es
ĠString Builder
ex isting
erc ise
Ġfunction ality
dest ination
Ġre try
Ġreal ized
d td
lo ok
ĠJ ose
Ġnear by
Ġtrans formed
Ġst roke
rep resent
ĠM ass
mer ce
ĠB ound
at om
Ġsynchron ized
Ġinst anti
vers ions
pos able
B ridge
}\ }$
P ASS
nes day
iline ar
Ġ\, ,
Ġdep loyment
manif est
ĠR ock
Ġimpo ssible
Ġin fe
E very
Ã ¨
: &
ol ate
H idden
Ġin come
ĠA cade
o ss
Ġaver aged
)\ ,\
Over flow
Ġsh apes
Ġad mits
l st
ĠRe set
ME SSAGE
Co ord
s qu
Ġreg istration
Ġd og
ul ner
Ġmultip lication
Ġmathemat ical
Ġth r
Ġlist en
ĠS ta
Rout er
U ses
Ġwor st
Ġreli able
ĠS unday
Ġsamp led
F IN
Ġs ch
c py
Ġoptim ized
ĠDi ctionary
Ġrestri ctions
################ ################
x e
un ed
C ert
Ġv ision
Ġart ifact
Data Source
Ġ$ ('#
Ġver ified
] ];
:: $
att en
U UID
PI O
Ġ ri
Def ine
Ġpart ies
interpre t
der iv
her its
po i
ĠV ideo
Ġsh aring
ĠRet rie
Ġqu arter
ĠT ur
Ġdevelop ing
ĠRe call
scri bed
M ail
cho ice
M AN
ADD ING
Ġl ic
Ġlocal ization
Ġsur ve
ĉĉ čĊ
ĠE instein
l ating
Ġo il
Ġcomb ining
Ġspec ification
m anagement
RO W
Y our
Ġatt ach
ĠF T
Ġtang ent
Ġcomp atibility
Ġcenter ed
Ġproject ed
Ġ} ));
di ction
S core
radi ent
ĠH ot
Ï ħ
+ "
x c
mod ified
Ġc ipher
ĠG ET
ĠJ acob
D uring
sub scription
Ġaccess ible
Ġf if
Ġobtain ing
× Ļ
A nt
Ġb low
ips chitz
A m
g lob
Ġsurround ing
Ġartic les
f v
l ive
Ġanom al
app le
ĠF ire
pr ice
Ġc row
Ġro uter
lik ely
fra ction
Ġhyper bolic
Ġelement ary
Ġs ig
Ġsched uler
', \
as ion
Ġp c
ĠD ue
Ġrender ing
ĠH E
By Name
Ġ" --
ĠC are
T OO
Ġ ].
Ġrender er
x FF
ca pture
Ġf ault
ĠI C
L ONG
i h
Ġ ice
ĠOper ation
ĠT aylor
Ġsupport ing
Ġgener ality
ĠNO TE
Oper and
R F
Ġse p
) !
AC ING
s id
Ġrapid ly
li ers
moment um
A ff
EN CE
ĠM P
b as
m any
Rout ing
\| _{\
sw ap
5 000
ĠR oman
Ġin form
ust ed
Filter s
Ġrep ly
Ġapp oint
Ġb id
ip edia
Ġlog ical
pro j
), (
ues day
Int ent
correspon ding
ĠT w
Ġdecl ared
Ġ! (
Ġg uest
uss ia
Ġrespon d
P res
For ce
++ ]
av icon
ĠPe ople
Ġc le
ator ial
ĠFr ank
Ġdam age
AS C
sl ot
We ek
Ġp ump
ĠH D
ic ago
Ġlook ed
Ġg un
Ġfit ted
Ġt f
Ġsubstant ial
For ward
valid ator
ĠR ange
H ex
s izing
h our
Na N
Ġ( ((
}} -
Ġlist ing
Ġa cknowled
' )\
m x
Ġ à¤
ru ption
Ġamount s
big gr
> ${
mb r
ĠB re
Ġdist ort
Comp ilation
mis sing
Ġf resh
err ing
ab it
big gl
Ġgo als
E MP
S heet
Ġfa ith
F atal
Ġpre ced
m ms
v ia
Ġneg ligible
` :
cho ose
ĠL IC
urs day
R X
anc is
' (\
at re
Ġexp osure
Ġv ideos
ir ation
m g
ĠCheck s
Record s
Ġconnect ing
LE N
Ġex ceptions
ap y
Ġp t
agg reg
to c
U C
Ġsu ite
fail ure
c amera
ĠSt orage
nob r
d AtA
g ap
Ġembed dings
ol ves
Ġst rip
ĠCon nection
T i
ab solute
p ick
Det ector
Ġhelp ful
C lip
Ġtemp orary
R eq
Ġpul s
Ġcomplet es
A H
p ipeline
w ire
CT RL
big skip
Ġded icated
p al
Sc ene
Rel ation
Ġcould n
im inal
123 45
ĠB ill
ĠNot ice
Write Line
ĠF uture
S n
CL I
no va
S ing
m icro
ĠWil son
Ġconcern s
: **
Pred icate
at ivity
sub float
inner HTML
g ency
Ġf re
Ġm ur
read only
Ġcan cer
us age
care t
PT ION
Ġconst expr
Ġf usion
rows ers
({ },
Ġs ociety
pol ar
ĠBl ue
St age
Ġsub str
c la
> ';
Bl ack
imp lementation
S mall
Ġnot ify
S ent
Ġalloc ated
Ġp aid
the ad
? "
Ġd ump
Dest ination
stro ke
Ġinst ability
Part y
S IGN
Ġv ot
ĠV an
Ġcompet ition
ĠT EST
55 5
dis c
Ġte levision
numer ic
ĠSpec ifically
ĠM el
Dispatch er
10 3
ĠCom mun
ĠF rame
CR IPT
Ġform ulas
interop Require
ĠT re
Ref resh
vis ibility
ĠA bout
ĠReg Exp
trans fer
BOO ST
ĠO THER
Ġk new
Ġcomp ens
ict or
f ollow
Ġco okie
A W
ro tt
Ġpre pared
Ġfem ale
}^{ (\
Ġb ridge
Ġrest ore
ev t
ĠUS B
Ġprim arily
Ġse ss
equal ities
Sh ift
Mat ches
Ġc redentials
ĠS ET
state ment
Ġco homology
s ho
f ar
channel s
ĠNew ton
ĠSh ared
ac cur
auto ref
Ġcross ing
ĠPro duct
mark s
ad just
B el
Ġrepro duce
pr ule
ĠĠĠĠĠĠĠ Ċ
ĠE D
lic as
H ide
init ely
Ġv oltage
sol ut
y c
or se
ip art
m ation
Ġferm ions
Ġprov es
l c
Ġlet ters
in et
it ud
are t
quest ion
ide l
ĠM ad
Ġlarg ely
ĠA ws
Ġad apter
ĠSec ret
Be havior
AR CH
z ier
Ġpl ate
ĠTH IS
G reen
at ype
11 8
ĠP ay
Ġun able
Ã ¢
v v
ĠCor por
v ectors
() ]
Im g
Th an
<? >
ph y
cre ment
mod ifier
Ġleg end
f m
Ġconven ience
Ġb urn
IN TE
ĠRich ard
------------ -
Ġex tern
T ables
Ġbound ing
ĠO K
Ġre ducing
Ġap ps
ĠDe vice
rest ore
L arge
ard ing
ĠWe ek
Ġre aches
3 50
Ġa rises
lic es
uck ets
Ġmodul i
D ash
Ġpure ly
ĠD u
lu eto
control s
ĠE st
Ext ract
F B
Not ice
Ġfac ilit
D imension
Inst ances
lueto oth
Ġart ist
Ġimag inary
H H
ma jor
get Text
Ġindu st
Type Name
IT ER
ĠM ember
}} ^{(
gg able
M AC
s is
ĠF R
198 6
cent ral
enc il
Elements By
i y
N P
Ġperm utation
) ~
al go
il ot
Ex cel
Aut om
I BU
Ġ" ")
STRU CT
Name Link
Ġrelat ivistic
ĠâĢ ¢
../../ ../
ĠERR OR
sec utive
Ġdel ivery
h yp
å ľ
10 7
ĠW in
compar ison
ĠV AR
' -
V T
(" <
od al
Ġr id
bib li
ST REAM
ĠD C
. ";
ĠT ab
Ġfl avor
Ġdec or
Ð¾Ð »
b orn
Ġdiv ision
make box
hash Code
un safe
Ġsong s
r ish
Mod al
Ġcon clusions
Ġear th
Ġquark s
Ġcon crete
war ded
Mar shal
Ġsign s
pi ed
ĠA uth
ĠAustral ian
[ ];
Pub lish
const ants
Ġoffer ed
im ately
ĠIN T
comp atible
1 32
vis or
Ġcyc lic
ĠMin ister
ĠM ex
ĠL apl
10 8
Re vision
198 5
' ):
at im
Ġin spired
af ka
Text View
Ï Ĥ
Ġ" :
ig uous
ĠK ore
Ġ\\ [
ĠCo q
Ġ' )
Un lock
S at
Ġfraction al
section s
and a
Î ¼
\\ \
ĠMon day
Ġman ually
irc raft
S ys
Cl one
he ets
Ġsequ ential
T y
O rient
Ġcl imate
Ġab elian
P atch
to prule
ĠLIC ENSE
Ġa ws
13 5
Ġe c
> ');
ĠE N
æ Ĺ
w ind
ĠSp an
w i
Pr ice
ĠB ased
R TC
Ġhol omorphic
g c
ul se
Ġdo or
st mt
Ġl ambda
do or
9 00
ĠO UT
Ġrece ives
ĠÐ ´
ĠComp ute
button s
ĠB ORDER
\ }}
UN K
19 0
contin u
Ġ{ })
Ġr s
Initial ize
iz z
node Name
coup ling
part y
p q
ĠP NG
itect ure
Ġp asses
Pr imitive
Ġsche duled
ĠR ule
ce an
ĠS l
Im ages
Ġcond ens
Ġad ult
ĠCar ol
ref ox
Ġcap able
Ġsingular ity
Ġs we
ĠN Y
DE LETE
}$ $
Res ize
ĠĠĠĠĠĠĠĠĠĠĠĠĠĠĠĠĠĠĠĠĠĠĠĠĠĠĠĠĠĠĠĠ ĠĠĠĠĠĠĠĠĠĠ
Ġwrit es
Ġch a
Rep ly
ĠP UBLIC
ĠBOO L
le af
ch at
ĠCom munity
Ġdirect ive
Ġdetermin ing
not ated
Å ¡
ĠM iss
U A
27 0
par s
Ġhistor ical
Ġt ip
ĠH en
Ġun ity
B s
ĠMem ory
Ġho spital
Ġcryst al
ĠT own
Ex change
Ġp or
he ses
v t
12 34
nof rame
H orizontal
contin uous
ĠM ust
Ġf arm
Ġle ak
in formation
se en
input s
ĠT F
Ġnumer ous
Ġdiver gence
ĠAfr ican
Ñ Ĩ
ĠL ee
Ġim aging
j ackson
st ellar
Ġ[] *
ĠCon nect
Ġ um
ĠJo e
Ġs lide
Ġd anger
Ġfund ing
el d
Ġp tr
Ġmor ning
Ġplatform s
Ġfe asible
AR K
ĠC up
text style
comp ress
Ġindic ator
g ements
Con version
it ter
pre dict
table s
Ġdec ide
/ $
ĠS em
OT TOM
Ġband width
Ġs ends
SY S
Ġcancell ationToken
Wh y
Stack Trace
Ġassert ion
Ġf ederal
Ġas set
ĠRo yal
Ø ¯
N AL
Ġintro ducing
node Type
Ġsuff ix
] _{
Ġsql ite
ĠJap anese
ht bp
ke leton
Ġstr ug
iv ot
ĠÐ ¸
Ġes cap
ĠD est
Read Only
r k
command s
Ġpop ulations
Ġcap abilities
ac i
Ġassume s
ĠTh row
Ġdec isions
Ġnumer ic
V A
i q
h int
Get ter
g ol
Ġlimit ing
fin ish
Ġ' {
ip ient
un its
Ġco s
198 4
Ġveh icles
Ġfin itely
sche mas
Ġcor por
ab i
cre p
Ġalign ed
Con figure
window s
Ġfore cast
Ġconcept s
Ġt err
par sed
requ ires
ĠS ession
LE D
Vis ibility
Ġc f
Ġgeodes ic
è ¡
A mazon
> ',
V IS
az z
s leep
o on
Ġlaun ched
Ġwor se
p le
ur bed
ĠR am
Ġoscill ations
ific ial
ĠD raw
ĠRequ ired
ir ms
ĠE uler
ĠCent re
ĠD I
Ġext ensive
Has Been
Ġknow s
Ġcomp rehen
e very
f riend
ĠD er
Ġviol ation
^{ [
Align ment
Ġregular ization
) /\
H int
" ])
ĠO h
Ġcomput ations
ĠInitial izes
ĠL ight
F ROM
IN CL
TR ACT
ne ighb
Al t
Ġradi i
B in
opt imal
ne ar
Ġm ale
+ |
ĠG it
Ġ( {
ment ion
) ?
Ġemploy ees
ĠIter ator
re mo
os cal
oid s
Ġs ight
unit Pattern
ĠE v
Ġf loating
ĠDat abase
âĶ Ģ
Ġo mitted
IN LINE
log ic
Ġlif etime
ĠA I
y aml
K EN
id ential
DI RECT
CP U
n el
11 4
Ġstop ped
G H
ifi able
Ġcollection s
Ġsur prising
J s
Ġtemp lates
ĠM D
temp orary
External Task
Ġs ports
E ar
Ġ< ?
Ġmer ged
ĠD WORD
IBU TE
c ategories
et ies
ĠF A
ĠC artesian
Ġt ends
sh ire
W ORK
cs v
ĠTest s
C ross
Ġto ler
Reg ex
ard en
ĠDis play
quant um
urn ey
Dat aset
10 9
oc used
Ġd jango
D ro
ILE D
Ġf old
}}\ \
Ġmetal licity
Default s
Ġm irror
O RE
ĠAPI ENTRY
Que st
10 6
Ġs ink
Ġma il
Ġenvironment al
Ġbus inesses
est im
Arch ive
U ntil
d ue
br acket
uff icient
Ad v
F ollowing
Ġc red
Ġp ose
ver sed
/ '
ĠB rowser
S PI
Ġb ins
it an
sche dule
He ap
}$ ;
Ġsk ills
Volume Source
Ġ" ./
St ar
alle y
Ġprocess or
Ġvan ish
Event Handler
Ġinteract ing
Ġover view
is is
M N
Ġphenomen on
Spe ed
& +
ĠR ay
get Key
work er
Ġp al
Ġcons umption
g tr
Ġso ck
Ġext raction
Ġbe coming
ĠR ussian
se ed
Ġsee ing
erv ation
Ġnormal ize
Ġhydro gen
ĠComp ar
Ġcon vention
pl aces
Ġpropos al
ĠInst ance
ĠH ost
Ġclass ified
Ġefficient ly
ism atch
Ġin equalities
ExternalTask Pojo
STAT IC
Ġ) {
}\ !
Ġacc es
Ġ/// <
M obile
Ġc utoff
ĠL IMIT
field set
C lock
y ou
S ink
solut ely
ĠE ns
Ġexp ensive
Ġz ip
LIN K
ĠE con
Sign al
HO ST
Ġs old
Ġsup posed
Ġthink ing
ĠC lose
H W
p is
TR A
Ġyour self
Ġconcern ed
Ġrig id
Ġclose st
t m
Over lay
ĠDe v
ĠA V
ĠG al
âĢĿ ,
ĠCommit tee
Ġmolec ules
Ġmonitor ing
Ġto ggle
tr as
Ġtot ally
Ġb rain
[ [
ĠH uman
---- --
ermit ian
NotFound Exception
ur t
utor ial
Inv oke
or ange
Ġr m
E ven
ĠC ross
system s
orient ation
Ġ======= =
* {-
Ġ" +
Ġp et
Q A
Ġaut hent
Ġproof s
Ù Ī
ĠI ll
ĠAdd s
Ġstudy ing
x a
m icrosoft
Ġk ill
Ġoper ate
Ġcloud s
bra ins
respon d
ut s
stream ing
Are Equal
HasBeen Set
Ġs i
ver bose
Ġinterpol ation
Ġresearch ers
Ġt unnel
ĠB efore
Ġback end
s ender
Pl ot
Comp ute
Pe ople
ĠC orre
ĠO O
s ymmetric
ĠA UT
ĠP ers
Ġj ets
C AL
NE W
Ind icator
ĠGr ant
Ġda ughter
Ġaux iliary
Ġen ded
ur ance
}} +\
it uting
Ġneighb ors
sing ular
ĠS ingle
MLE lement
+ }
ĠSat urday
Ġcount ing
Ġserial ized
ĠN ative
99 9
root Scope
OL D
ask et
LE S
mb f
ĠBo x
pl er
ac on
os oph
Ġann ual
c ient
Ġpr ices
interopRequire Default
Ġprov en
Operation Exception
ĠMart in
TO DO
Ġver ification
Log ging
ĠLe vel
Ġcla use
ĠÐ º
Ġinfra structure
ĠQ String
Ġb ed
Ġc ros
Ġ iron
ĠF loat
Ġanaly ses
Ġdefer red
w br
ĠL os
Vert ical
min imum
em y
Ġuniqu ely
at ics
Ġc s
ĠFr ancis
ĠI F
pre view
Ġx si
] _
Re view
ĠWh y
the se
T ARGET
ob server
Ġsignific ance
Ġ )$
v r
P K
Ġbreak s
Thread ing
ynthe size
tensor flow
ĠB S
ff ee
Ġtop ics
ĠLe ft
\!\! \!\!
Ġdecl aration
Ġpro cedures
(' ../
mm ar
Ġro utes
Ġact or
Ġneighb our
G AN
Equal To
ri ction
Th rows
Ġal leg
con j
Cre ation
ĠM ur
ai ses
ĠÃ ł
ĠL ive
Ġre start
Ġb are
Ġ' ');
Ġhapp y
w x
Cap acity
Ġecon omy
C MD
P ACK
ĠCEL LP
T oggle
Time s
ĠSD L
ĠWest ern
ĠCELLP ADDING
ĠInter face
get Property
sp h
x rightarrow
Res olve
ro zen
Ġtor us
Ġarg ue
icip ant
ä¸ Ń
Ġinv olve
mat ched
respon sive
driv en
M c
end region
}] $
ĠCEL LSP
ĠCELLSP ACING
Ġf ear
Ġbl ank
ack ets
Ġle s
Ġlead ers
UM ENT
}{ $
ecess ary
Ġclin ical
MA IN
DI O
NAME SPACE
pe g
Ġrep o
ĠO ld
Ġexp osed
miss ible
ĠGL float
ig an
Ġobserv ational
Ġg amma
Ġvalid ity
T ube
Ġwe ather
Ġd amp
ĠC as
Ġpre m
ip es
ĠJ un
Q t
Ġ/ ></
Ġhelp ed
cur r
ĠRout e
St atistics
" </
IN PUT
): =\
Ġcrit ic
Ġqu bit
FLA GS
s imp
re ens
jet brains
Ġshift s
seud o
Ġcons ult
temp lates
bottom rule
M argin
b eq
Ġhold ing
Ġinter faces
indu ced
W IT
Ġco okies
Ġclo sing
Ġex cluded
v et
Ġp lugins
}}\ ,
ors ion
or ough
ong s
t ip
est imate
V IEW
Un able
ĠN N
Ġvari ability
ĠL ike
Author ization
12 4
Ġminim ize
T ip
="@ +
Ġbeaut iful
ord an
Th m
aw t
Ġst ub
ho u
Ġcla imed
Ġguarant eed
qu o
Ġde cades
Ġra il
Ġser vers
Ġmix ture
ipp et
11 3
V ERR
Ġa cade
F LOAT
Ġun expected
AC HE
B oth
in em
Ġtrip le
b az
Ġpost s
x ffff
Ġlos ses
al ian
Ġp ain
Ġg fx
ome ter
Ġbox es
sec ure
in herited
) ~\
Ġout comes
AS A
gan ization
Con v
Ġb ill
P df
Ġimpro vements
qu ick
ap id
Clo sed
ĠF ollowing
ĠCol l
C ost
Ġautom atic
ter ior
conv ex
ĠS cal
ĠAdd itionally
th reshold
Ġe val
GLE W
Comp lex
S B
rest rict
Con struct
Ġf amous
Ġan tic
High light
Ġequip ment
or er
Ġfac ilities
\ @
Ġkind s
iffer ential
Ġg one
work s
ĠWh ere
Ġmanif olds
activ ate
g ui
rypto JS
w ing
Ġreview s
Java Script
å ¯
U TE
{ };
. #
ĠS top
å Ń
de term
Ġ\ }$
ĠF re
Ġ ì
up les
d on
ri age
Sub mit
Ġdis ap
) }^
; ,
col ors
ĠMe an
Ġinvest ment
ĠI MP
Ġph on
Ġart ists
] ));
Ġre write
draw able
ĠG W
Ġpar agraph
ust ic
fig s
conf irm
cred ential
Hand lers
ĠCO MP
ĠDi agnostic
Ġfrequ ently
w so
ir y
( $\
cap s
ĠId ent
Ġfilter ing
gtr sim
bal ance
I MAGE
ĠExt ension
Ġdetermin ation
ul omb
Ġwh atever
ĠP od
SV G
Fig ures
Ġsub tract
V ol
ĠK o
roll ing
St ud
Ġcur r
inter action
^{ {\
ro unded
Ġclass ic
Ġc ars
Wh ite
Ġan ce
[ {\
OUT PUT
Ġl ab
Ġan nih
Ġcav ity
C he
Ġgrant ed
ĠU int
Ġachie ves
ame l
] }\
ĠAs ync
="# "
Ġpl ain
ces ses
un def
com mut
ĠP an
R ST
Ġdo cker
Ġtrigger ed
Ġcon ference
ĠS ort
L M
Ġ# #
==== =
ĠRec ords
Ġk ids
te le
> /
ar b
Ġout flow
document ation
ĠW ait
11 7
Ġcomp iled
Ġbar rier
atern ion
ĠĠĠĠĠĠĠĠĠĠĠĠĠĠĠĠĠĠĠĠĠĠĠĠĠĠĠĠĠĠĠĠ ĠĠĠĠĠĠĠĠĠĠĠĠ
var pi
Ġpy thon
G uid
Ġm iss
tr ip
DO WN
ĠB inary
ĠL ock
Ġp ole
ĠH op
Ġspe aking
is l
rel and
re view
Ġdifficult y
aut om
Ġmin ute
sched uler
Ġadvers arial
Ġ( <
Ġrecur sive
g ery
co sh
ĠCon f
ãĢĤ </
ING S
Ġa stro
Ġconver ge
ad ic
Conf irm
ser vers
ĠCO MM
sin h
* (
Ġsimpl ified
n io
pe er
q a
ĠSet tings
ore l
Check er
ĠB ad
Ġt al
In deed
Tok ens
Ġdat etime
ict ures
Ġg ray
as hes
ĠS ave
Ġ( #
Ġde gener
H ist
e eq
ol ation
Ġlist ening
Ġmot or
OP EN
ĠWed nesday
Ġso le
Ġkey word
direct ive
Direct ive
Con clusion
Ġrest aur
ĠH a
é Ģ
sp ot
aw esome
Ġapp reci
fin ity
ĠF amily
Ġb odies
Ġsqu ares
Ġpro min
Ġaudi ence
h m
LI B
Ġscient ific
ĠW H
Ġorgan izations
Ġopportun ities
Ġdr ink
uch y
Ġcol lege
ĠCon sequently
PAR AMETER
ĠV ar
12 2
ĠM B
Ġstream s
h c
cour se
') ).
ĠM IN
Ġ} (
$ =
L ER
N U
olt z
is a
sk top
P al
Ġhomot opy
3 000
Ġdr ift
ĠD R
ĠVir gin
dd en
Ġdip ole
Ġsuc ceed
Dis able
{ }{
ĠPro of
Ab solute
pi e
ĠB an
k k
ĠE m
m acro
rep ly
b an
Me an
ĠB al
Ġcit iz
ada pt
it atively
am ber
sc ene
Ad ded
V D
Ġsupp ressed
ĠG alactic
decor ation
Ð¾ ÑĢ
Ġreve al
Opt s
Ġa ck
ĠPro blem
- {\
Code Analysis
Red irect
Ġd ram
ĠTemp late
lu a
ĠS NR
as p
Ġ* _
Ġmoment a
D ump
Ġas sets
ar ound
Ġsk in
Ġin herited
ĠĠĠĠĠĠĠĠĠĠĠĠĠĠĠĠĠĠĠĠĠĠĠĠĠĠĠĠĠĠĠĠĠĠĠĠĠĠĠĠĠĠĠĠĠĠĠĠĠĠĠĠĠĠĠĠĠĠĠĠĠĠĠĠ ĠĠĠĠĠĠĠĠĠĠĠĠĠĠĠĠĠĠĠĠĠĠĠĠĠĠĠĠĠĠĠĠĠĠĠĠĠĠĠĠĠĠĠĠĠĠĠĠĠĠĠĠĠĠĠĠĠĠĠĠĠĠĠĠ
Ġb ond
Ġph il
char At
1 19
Ġkw args
load s
** *
ĠCong ress
Attr s
ĠA DC
198 3
Sh are
ĠT ake
Ġr an
Ġax es
re lat
set length
Ġcon secutive
Vari ables
Ġsp ins
Ġ( );
Vari ant
Ġult ra
param ref
Att ach
in ery
Pro blem
D X
Ġr ac
}) }\
J an
C at
Ġpro ducing
par ame
Ġ$ -\
}] \
ĠT ensor
ge les
col head
Byte Array
ĠS TR
ĠS TD
itud inal
Ġb attle
18 43
Ġsatell ite
ĠCon s
" =>
PROP ERTY
g b
Ġdestroy ed
ĠRE G
}, {"
ĠC M
Ġe mitted
ĠM anager
od a
Y es
ĠW atch
Ġb ot
Ġnorm ally
ĠS R
ĠM useum
x d
cr umb
W ords
Ġfac ility
m anaged
Ġde generate
ht b
ern ate
Ġconjug ate
n r
do jo
F ire
is Function
Ġw ww
y arn
ĠHe ader
CON NECT
Ġa ward
brid ge
Ġscript s
urb an
Ġn ine
ĠM E
_{ (\
MA G
Ġcon sum
="# ">
ers ions
ĠA B
ĠE val
f w
ĠS ite
ject ive
stats models
row Color
ĠGe org
post s
add le
Ġend points
Ġflux es
Ġfamil iar
ĠBay esian
Ġnucle i
h olds
' })
Ġb ubble
\\ [
Ġdepict ed
normal ize
Ġarr ive
\ ":
Ġequip ped
Ind ices
ĠM ont
}; \
ot or
Ġpartition s
spec ified
Ġk not
ex ist
de tect
ations hip
Ġtalk ing
Ġ\, .
11 11
ĠRe lease
Ġopin ion
umul ative
}. $
Ġfall s
Cla use
ĠP S
at ers
ĠL imit
Ġbright ness
ĠS ER
Ø ª
Ġb igger
id ay
ĠL earning
Ġhash Code
S ibling
Ġis set
Ġs cre
Ġs a
ĠL ake
Ġm ist
Ġpro g
ul us
ell a
ĠGener ic
ĠCan adian
C ent
M anaged
n v
z o
Pay ment
Tw ig
User name
tra ined
Ġsummar ized
> ()</
ĠA udio
Ġ* */
}{ $\
ĠO k
ĠT uesday
me sh
Ġarch ive
Ġadapt ed
ĠF ramework
ĠA zure
Ġb ag
ĠB a
Ġstre et
std out
Ġbr anches
ĠOn line
re newcommand
ĠTr ack
Ġident ifying
d yn
copy right
Fl ush
Ġpro mpt
Ġexpl oration
Ind ent
Ġcor onavirus
elect ron
Ġrema inder
] /
ous ing
Ġbutton s
l attice
Assign ment
] ^{\
Http Request
Ap pro
aw are
Ġslow ly
r ig
Ġglu on
Ġv ib
GRO UP
Ġarg v
}$ ),
ĠSum mary
17 0
Ġser ves
Ġguarant ees
ĠI T
Ġrecord ing
Ġthous ands
oc ab
Ġsymp lectic
uff le
ĠSet up
ĠW ater
Ġgi ant
Spr ite
Ġshift ed
ID ENT
Ġend ing
Ġstandard s
ĠMod al
USE D
ivari ate
ĠReg ion
ak i
h base
Ġin ferred
effect ive
ĠA P
Ġer g
query Selector
Ġissu ed
Ġfe et
t cp
D ao
| {\
Ph oto
Ġid s
ĠCh icago
Ġpar ity
Ġgra dients
G D
Ar tic
=" '
ne ed
Ġcontinu ity
per formance
x n
ĠJ ones
)$ $
Des erial
iz ard
rep resentation
Ġc ities
yst yle
Hel pers
cos ity
Debug ger
ĠL ove
Opt im
F Sharp
char set
x l
Ġv ulner
Ġg lass
im b
> }
ct l
Ġconcat en
ĠLo op
r ick
x b
lock ed
Bo ot
-------- -
Ġlogarith mic
}_ +
% .
Ġwin ning
ĠD ATA
ĠPub lished
ĠGr and
flu x
V s
Ġman ual
Ġatmo sphere
corre lation
198 2
3 20
ĠR GB
ĠA gain
ĠH ard
IT S
P ad
Ġsh orter
å Ľ
")) );
s napshot
Ġdetect ors
Ġthick ness
ĠDo es
? </
i per
VER TEX
f ollowing
Command s
Ġdec imal
ĠEvent s
a que
Ġperturb ative
ĠRes erved
G s
[ <
ĠM aster
Ġfund s
ĠMult ip
l brace
hl js
s il
ing ly
ĠT yp
Ġ"- //
Ġpers istent
Ñ ħ
ĠH O
A IN
R ank
Ġdef e
Ġhom omorphism
) ',
j u
ĠH am
Ġa gg
Ġl l
k ip
en coded
Ġbig gest
Ġofficial s
P t
Ġas ymmetry
MA KE
Â ©
W alk
napsh ots
car bon
Ġequ ally
Ġsk ew
r ant
Ġy es
per mission
FFFF FF
en coder
H L
Ġradi ative
te ch
Un defined
ĠW ho
f aster
Ġcon cerning
ãģ ®
aut orest
Ġup grade
ab ling
Ġlib raries
ElementsBy TagName
eq q
ly mp
++ ++
le et
Ġse q
end ant
ĠĠĠĠĠĠĠĠ čĊ
resize box
Reg Exp
ĠF ore
ĠFe ature
Ġdual ity
{ ``
ĠP L
T ri
child node
ĠS A
ĠG P
12 1
ĠDis able
x hr
Ġelect romagnetic
lim inary
he ast
ĠQu ant
Contain ers
all enge
lay ers
k ube
ĠB ody
Ġ/ ^
ĠTh ursday
Ġd ream
- ">
ĠA ust
b ow
Str ip
L if
SD K
Ġdis crep
ov es
bibli ograph
Ġvill age
M ULT
ĠPack age
ĠDes cribe
Ġint u
ĠCont in
}) :
bar s
] \\
Ġdis order
Ġwo od
}} }{\
Ġhost s
vis ual
Ġm ob
Ġ )\
Ġar ithmetic
un te
rot ation
Ġimplement ations
Ġb rowsers
Ġrequ iring
ĠAn geles
DIS ABLE
Ġrout ine
DE P
Ġmod ular
Ġen cryption
00 000
Ġcommut ative
Ġa u
US H
Ġcom fort
ĠVis ual
ere f
Ġown ed
ic ian
bibliograph ystyle
ĠS L
Ġvar ies
Ġf ired
RO P
Ġan notations
F urther
ĠCON FIG
qu et
w an
Ġd w
Ġ* =
o ses
al tern
inn ed
( ",
b ell
Ġdraw ing
ĠM is
ĠĠĠĠĠĠĠĠĠĠĠĠĠĠĠĠĠĠĠĠĠĠĠĠĠĠĠĠĠĠĠĠ ĠĠĠĠĠĠĠĠĠĠĠĠĠĠĠĠĠĠĠĠĠĠĠ
Ġbg color
Ġre lies
ĠJ im
Br anch
r at
]{ ./
ak ed
ĠCh ampion
NO WN
ss on
Prop agation
cat alog
is Valid
> ("
Ġst im
){ $
Ġpoint ing
: /
ĠJ e
^^ ^^
VERR IDE
U INT
av g
manif old
Ġorient ed
L ive
Ġsimpl ify
ĠA ff
b n
ĠW ood
Ġvari ants
Ġbel ief
Ex amples
e igen
Orient ation
Ġremo val
Ġvolume s
Json Property
pi res
Ġsimple st
C our
Serial izable
ĠUn iverse
R ew
, }
Ġtr uly
Ge o
Ġindex ed
ĠK ar
ad or
Ġexplo red
A bs
ib er
M IT
big oplus
ut ch
ĠA rab
Callback s
}\ )
ENT ER
ĠInst all
Ġisot ropic
(" [
s ible
Ġke V
I EEE
inal ity
n an
s ocial
New s
Ġ{ !
Ġreport ing
Ġdisplay s
Symbol s
W ell
d omin
* .
Ġsimp ler
ĠSim ilar
Ġaggreg ate
Ġindex es
Dependency Injection
Ĥ ¬
t icket
Ġaccess key
on to
Ġr v
ĠRad io
}} )\
il de
enc rypt
ĠB iden
CO PY
ĠS cript
z i
}$ :
ame d
ĠInv est
sh ader
op ens
graph s
2 24
ĠValue Error
$& $
hold ers
us band
Util ities
Ġcon sequences
Ġan ten
ĠR TC
Ġsubject s
Ġdeal ing
Ġmechan ics
ĠChrist mas
( <
Ġsp end
ride s
diag onal
j it
ä¸ Ģ
ĠArt s
Ġcoinc ides
ack nowled
M ass
ĠB C
33 3
ĠTh ree
Pro b
Ġneutr inos
co p
le ases
Ġapproxim ations
ed ges
es is
Ġde coding
Ġharmon y
ĠOC aml
ĠIsra el
C AP
t ls
ic ial
Ġis o
Ke ep
E mp
Perm issions
l apping
Ġtransform s
Ġexponent ially
Ġch ief
ĠKing dom
ĠStruct ure
ĠS PI
R D
k ers
Ġg rows
Ġresid ents
Ġeffect iveness
. &
Ġ æ
ok er
-------- ---
]] ></
Sw ift
tr ary
ĠM aterial
AD DR
) },\
ĠJ ack
Ġbe at
th in
ĠE T
Ġadapt ive
sub Nav
me l
ĠB utton
Ġab solutely
Ġpro ducer
Y S
com mod
F rag
let ing
ĠR ussia
Ġins ight
RET URN
Ġev ident
Numer ic
ops is
Ġobvious ly
ĠP riv
Start ed
/ %
p ix
Ch ars
Ġsingular ities
Ġa ircraft
Not ify
W M
Ġd oll
ĠF ar
get Data
'' .
ĠM I
Ġch rome
pen ded
maxim um
Ġcap ability
ar di
ĠW alk
Ġrenormal ization
ac ific
Ġfew er
Ġlo se
CL K
cut s
Ġaim s
el ist
Ð¸ ÑĤ
Ġleg acy
ig roup
ĠEx amples
WARN ING
ĠT im
ĠC ard
EX P
Sche dule
et ary
Ġad mit
ch arg
Cache d
h it
}) ^{-
assert False
Ġ. /
sup ports
Ġpost ed
s yntax
ut y
k ar
ipher al
F oot
c nt
( ',
al ter
Ġ' ../
}, \\
ĠS mall
"> &#
UP DATE
n oc
Ġhe ating
Ġd iverse
ĠCal led
Ġch urch
ath an
S ources
c url
Work flow
Res olution
ĠVal ues
Work space
s us
b id
Rece iver
Ġarbit r
clo sure
Ġis land
'=> '
"> '
Ġcancell ation
ĠC ell
Exp licit
Ġre sc
ĠNever theless
cent ury
oper ations
Ġput s
Ġme ss
Ġle x
su ite
ri ers
ĠW omen
Ġobtain s
match er
war z
RE ST
ĠM ove
V oid
Ġbr ings
ĠArm y
Ġread ers
St ates
member Of
UD ING
ac cord
d ynamics
n am
or ters
Ġdesc ent
Ġin jection
ĠV alley
Ġfor get
00 3
ĠG PU
Inter op
ĠDefault s
Ġepoch s
LE FT
^* (\
Ġp itch
Ġreg arded
Ġar ising
ĠF all
Ġar rest
g ems
+ {\
Ġcontain ers
resource GroupName
gu ard
Ġhe ap
å ¼
Ġm ill
Ġupd ating
w ang
; %
Ġ) );
Ġ\| _{
R a
Ġoffset s
. (*
ID s
ĠD ocker
Art ifact
ĠR PC
ĠSt ack
BIT S
Ġrecogn ized
ĠP A
Ġgu id
as set
om er
Ġexpl ains
^{ *}
ĠG T
AT IVE
We ak
Imp lementation
Back up
). $$
sw er
phys ics
local s
abil istic
âĢ ¢
Ġco res
La unch
F ast
Ġaccur ately
ĠJohn son
OFF SET
W H
ĠP ART
Ġmechan ical
B N
ph oto
ĠM ET
"> {
Ġs wit
Ġmod ifications
Ġm igration
the y
ĠT i
Ġz eros
Ä į
diag ram
ĠAcade my
Ġs ustain
| }{\
mon itor
cell color
Ġour selves
Ġdevelop ers
v dash
Ġback ward
FO RE
ĠM i
Ġp s
( @"
Ġd iversity
Ġconto ur
ĠÂ »
Alloc ator
nos cript
y o
ab ases
Ġspec ifying
a verage
bad ge
re ach
ĠCom b
^ *}
Ġmeas uring
r p
Ġa st
Ġres ize
$ }\
m ysql
ĠM iddle
) ];
read crumb
å® ļ
de velop
A CTION
ĠCall back
Ġdivis or
ĠĠĠĠ ĉ
ant ed
er gy
Ġoptim ize
h p
ĠI reland
12 6
P at
ext ype
Ġengine ering
al and
Comp osite
tag Name
' "
ĠJ on
ĠK en
ĠD oc
k ov
Ġe arn
[] )
× ª
Ġen velope
Ġaffect s
Ġbelie ved
ĠV M
u da
ĠTr ansport
-- )
Ġw ra
Ġto oltip
P in
Ġc url
Re cur
Ġphenomen a
{- }
ĠP latform
ci pher
] ",
ĠL E
P ref
Ġm and
sh ake
Ġmultip lic
Ġimp osed
Ġexperi ences
Instance Of
Ġm k
ĠLin ux
View port
Ġsp ring
WIN DO
Ġem ot
car ousel
Ġanim als
DE VICE
ich let
vert ices
_{ {
Ġm ic
Ġcalcul ating
Ġb undles
um ann
Fin ished
N OS
s an
x ym
ime di
Ġbro ther
Ġproport ion
al ways
Ġcaref ul
" ):
Ġn m
16 8
c id
hom ogeneous
% );
ĠĠĠĠĠĠĠĠĠĠĠĠĠĠĠĠĠĠĠĠĠĠĠĠĠĠĠĠĠĠĠĠ ĠĠĠĠĠĠĠĠĠĠĠĠĠ
xx xx
ĠE ffect
sql ite
N EXT
ĠL ord
iv idual
cor r
Ġstream ing
Ġh int
Typ ed
pend icular
un ion
- $\
Ġ ----------------
Ġb ath
T ho
i ator
Ġimpro ves
Initial ized
Ġin variants
S lide
ĠSD K
ç ±
Ġad vice
20 2
ĠT one
verb atim
Col ors
Ġad joint
n ed
exp onent
=' #
q ed
al one
ĠF L
os a
Ġquant ization
ATTR IBUTE
Ar row
Ġsurve ys
Ġn ic
Ġsh ares
Ġin cl
Dist ribution
Ġadmin istration
HEAD ER
ch ars
ĠTr ust
LA S
Ġd ates
h ad
Ġs pi
Link s
M X
ĠS ql
Ġdis ks
lo v
FA ILED
add itional
Ġdoc s
Ġassess ment
m ixed
ĠPar is
Inspect or
ĠL ab
Ġexpand ing
ap on
TIME OUT
y ield
Ġv i
Ġw arnings
Collect or
> =
Import s
' }(
he alth
p ow
ĠM en
il a
17 5
Ð¾Ð ´
r brace
ĠT eV
Ġgen us
)} =\
Ġrot ating
, </
Ġbranch ing
i pt
ĠSci ences
constraint s
Ġvari ational
K nown
Ġ[ (
Custom er
Rad io
ĠC OP
ĠTo ol
Ġform ally
Dec or
Ġquant itative
Ġh air
th ird
Bl ue
d type
ĠY es
ĠP P
Ġrobust ness
es sel
exp anded
Al tern
Ġp sych
op am
Ġed ition
Ġv ice
pol l
AP PL
GEN ER
omin ator
Suppress Warnings
">( </
it on
Ġh its
Ġmass less
il ly
}{ !
Ġv on
Ġd f
Pl us
ĠT our
Ġ\ '
E val
v y
Ġreve als
Ga ussian
Ġpar k
S an
Ġind irect
Ġoffer ing
ĠAp pro
ĠA tomic
Ġ" (
max cdn
Exp ressions
sp it
M r
L F
Ġtechn ologies
qu es
har mon
de m
ĠB ell
Ġadd ressed
------------ --
Ġform ats
Ġcollabor ation
Content Type
im ination
Ġsp acing
ĠL ow
Ġt iming
ĠR ic
r ational
DEF IN
Ġe V
O W
): =
Head ing
ĉĉĉĉĉ Ċ
Ġst rain
v b
Ġc orn
c ity
0 10
fix r
Ġown ership
{ |\
ĠF inal
ç± »
Th ree
Ġconvolution al
li x
Ġb eta
Ġequival ently
Ġfair ly
Fore ign
Ġform ing
Get Type
Ġsem antics
Ġdevi ations
2 11
ar ian
ĠP lugin
pp ers
Ġkey board
Ġbos ons
man ual
sp l
ĠSet ting
xym atrix
to ms
te am
Max imum
Ġmur der
D ue
D AT
Ġgir l
}= -
Ġpair ing
NR AS
ĠC EO
Ġplan ets
Man ifest
UL AR
gra ded
}$ ~
19 60
Ġrun ner
Ġm iles
(" -
se g
GR AM
ur ies
k h
ol i
Ġclean up
FE ATURE
ir l
' </
Key board
Ġprov iders
ãĥ ¼
Ġmar ried
DB LP
ent ropy
Ġse es
Ġ" ");
ĠV ictor
> )</
sp read
ĠTr igger
av is
ov y
Ġarchitect ures
mention ed
Ġc er
ĠPo inter
u z
li ament
Ġacc ord
com mun
ĠCh ief
Ġqu ote
d ns
Ġif f
================ ========
ĠS eg
and y
Ġca usal
du ctions
x t
Ġg a
Ġp ag
ĠB OTTOM
198 1
Ġrema ined
o auth
M ATCH
custom er
al gebras
Ġco ding
ĠC ath
ĠEns ure
Ch rome
Bal ancer
T ITLE
Ġcom mitted
ĠChar les
Ġw a
get Default
ost on
Ġfl ash
I o
check er
Ġfactor ization
Ġacqu ired
ĠN ormal
NUM BER
="../ _
}. $$
å º
Ġd type
dec ay
Is Null
ĠCre ated
Ġident ities
t z
Ġe le
ĠEV ENT
d g
Ġsum s
Pol y
os c
s lf
incre ment
ĠAr gs
LOC AL
Ġpurch ase
f avicon
Ġext ending
d id
Ġlog s
de ps
ab b
* }\
Ġsim ulate
Ġ era
sat z
}} ;
ĠPh ot
Ġl azy
Ġf ish
Ġsummar ize
o y
Ġm illiseconds
\" {
sh ips
att ices
2 30
Ġex clusive
m achine
u u
ĠA DD
Ġsol ver
Å Ĥ
ĠD S
Input s
d h
ÐµÐ½ Ð¸
' ^
b en
19 79
SE CON
b et
Ġpro mis
ĠM enu
- }
$ ^{\
Ġimp l
be am
Q UE
ĠWith out
ĠQ t
} "/>
Ġreflect ed
(' \
ertific ates
S ound
Ġp ad
Ġprote in
Ġcal endar
is ition
Fr ont
ĠDig ital
Ġacc ident
Ġh ero
Ġst ations
for ge
Ġassoci ate
ĠSup p
Ġin duct
list en
g mail
ĠM obile
}} }}
2 10
ĠQ uest
ĠInt eg
n ested
Ġteach er
le w
)$ }
Ġf uel
b idden
\ .
ĠB ern
ĠL P
B G
tr unc
ĠP erm
book s
PI X
s uggest
ĠCorpor ation
}) ^{\
Input Widget
g uid
be at
weight ed
z il
C atalog
ĠCo ulomb
CON F
s ynthesize
Ġca using
B AD
Ġpl acement
pe ction
ext ended
Ġf er
Ġnon trivial
sc reens
Ġun like
ĠBit coin
F inder
C li
ul s
pre tty
UT C
Ġfall back
ĠW all
IS H
Ġpres erved
Ġmode led
ĠF estival
). $
S uffix
ĠFig s
N ING
ĠF low
cc entric
Ġmag ic
V R
Null Exception
ER Y
Ġrot ational
Ġfavor ite
dig est
Ġc ategor
ĠS F
q t
âĶĢ âĶĢ
C LE
ĠTrans action
colon eqq
Ġk ing
host name
K K
I FT
ĠL ocation
Sub st
] <
Ġset Up
L com
Ġd ummy
Ġco arse
out line
Ġmy self
Cur ve
Ġenhance ment
Ġvort ex
Ġ= &
G ood
Ġ* (
@{ }}
Ġco ins
ĠF oo
ON LY
ĠLou is
b os
Ġcent ers
writ ing
Ġrecover ed
Ġco pied
Ġcr isis
with in
( %
Ġsex ual
ost er
TH READ
ĠS witch
calcul ate
D ry
W D
po ssible
geq slant
ĠT urn
Ġanom aly
Ġno isy
olog ically
es Module
Act or
Ġmach ines
ĠIP v
N s
Ġe lev
initial ized
She ll
Ġpe ace
)) =
ian a
mon d
ly n
serv ations
UM N
Ġansw ers
Ġasymptot ically
ä¸ ª
Ġwall s
F our
ĠO l
Ch at
Ġapproxim ated
ĠR ect
Ġregular ity
s aved
Ġin str
Ġresource GroupName
sp arse
Ġsqu ared
ab ort
Ġlimit ation
samp ling
Ñ İ
Ġfore st
Imp lemented
ĠMed ical
M iddle
ĠCh ris
4 000
Ġmultip licity
ĠM ode
Ġarr ang
Ġdemonstr ates
ĠJose ph
Get String
en ant
Ġ( .
lement ary
Ġpract ices
Qu ota
spect rum
Process ing
ution s
Ġphot ometric
Ġprom ote
Ġbase s
Ġover rid
u j
Per formance
p aint
t one
Ñ Ī
append ix
Un its
æĺ ¯
Ġcoinc ide
Ġthere by
Ġarm s
can onical
Ġbuild ings
p referred
FIL TER
i as
ĠPro tocol
verse ly
set Value
de generate
Ġo ct
ab atic
str ategy
co v
(( (
read able
Add itional
effect s
Ġpack ets
Ġsens ors
ĠLink ed
Rot ation
R pc
16 9
Ġswitch ing
Ġ{ (
P reference
Ġs sl
th umb
ĠIt aly
16 5
Î ¯
Ġobser ving
a head
Ġt a
ĠCollection s
member NameLink
Ġenumer able
Ġr ings
Ġcorrect ed
Cre ator
ĠH RESULT
Ġcr ash
c am
Ġon going
Ġt ack
Ġabund ances
re ater
Ġover head
p rom
u pt
un icip
Reg ular
ĠL ipschitz
Ġperm an
ĠD NS
AL LOW
Ġ\\ \
ab olic
Ġg ender
Exp and
algorithm ic
Ġcomprehen sive
ĠRemark s
14 7
ĠAl tern
ĠĠĠĠĠĠĠĠĠĠĠĠĠĠĠĠĠĠĠĠĠĠĠĠĠĠĠĠĠĠĠĠ ĠĠĠĠĠĠĠĠĠĠĠĠĠĠ
N EL
Ġhe ur
Ġnot ing
inherit doc
Ġpi pe
× Ķ
ĠL HC
S ym
[ ^
first row
Ġa xi
ĠG ro
url s
\, $
ian o
Post ed
ĠU TF
ub es
AT T
ĠPro file
Ġmotiv ated
E mbed
ow l
T W
ĠS K
Ġf avour
Ġretrie ved
Ġexhib its
Loc ator
Ġcho se
Ġpers ons
ex ceptions
H it
Ġsu it
E scape
Ġa z
un a
ish er
Ġv irus
ĠD a
ĠSpan ish
T ON
LOB AL
Th rough
dep loy
L ayers
col s
ÑĢ Ð°Ð
Ġcol on
ck s
ĠN um
ĠÐ ·
| ,
Ġ// -->
Ġdiagnost ic
d ummy
ĠRes ources
Ġmark s
">< ![
Ġgra ded
ST EM
ĠH aw
Ġboot strap
p v
Ġt body
sub st
Ġke eps
Ġdiv ide
ach er
Ġca ught
bur st
C NN
Ġc ultural
Ġsw ap
Ġadmin istr
ĠT ri
g em
Ġ* **
Ġb lo
"> "
Ġanno unce
Ġdiff ers
Ġopp osed
; "><
Ġent ertain
ĠSystem s
ĠB on
c rit
> ../
Mut ex
Ġdeliver ed
Ġh aven
Ġco ast
Ġdef ense
20 4
. ]
ĠUtil s
to gether
Ġqu bits
class ical
Ġdwar f
Ġon click
H ard
I J
re try
I Enumerable
Ġres istance
Ġh usband
Any Ref
Ġviol ence
ĠConst ant
maz ing
D ER
R x
Ġcollect ive
} ',
ag on
ĠG ames
im ag
OP ER
pol ymer
pred icate
ĠS us
Ġcircum st
ĠV ert
D ocker
Ġpop up
F ollow
e u
Ġexpert s
p ot
Ġcon servative
s ively
}\, ,
Ġsubst itution
Ġdeath s
_{ |
Ġin ert
oc he
Ġun set
ĠHel p
ct ype
). \
Or d
~~~~~~~~ ~~~~~~~~
ĠF IX
font s
Î º
ce q
st ation
Ġt ension
Ġd ash
mem Item
Ġglob ally
Ġprov ing
map per
int ent
ĠRE AD
ĠH on
Pre view
Ġvis cosity
}) }{
sh ot
Ġm yst
Ġprotocol s
Ġv en
Ġtri es
Ġev t
Ġreal ization
su it
ri z
FAIL URE
ir ds
ĠSh ape
scale box
Cho ice
gl s
ĠZe aland
Ġre in
OD Y
Ġcharacter ization
Ġp un
request s
Ġevalu ating
Index Of
ENABLE D
sort ed
B IN
period ic
us ive
th umbnail
Ġvalu able
mo v
Con clusions
me ss
inherit Doc
P lain
14 3
El se
ĠJ eff
Ġsen ior
if ting
Ġun safe
Ġro uting
G radient
Ġext rem
Equ ation
æ ī
AC CE
O ct
Ð¾ ÑĤ
Target s
ĠD ark
ĠAd am
Ġevery where
T CP
ctx t
primary Key
Render ing
out ube
inter faces
> -
M eV
fa de
ĠB lo
Ġbo y
get Parent
Ġintro duces
Ġing re
frame d
Ġexperi enced
Le ave
h dr
faster xml
B ra
fl ash
file Name
Ġexpect ations
normal ized
S olution
co ut
form atter
4 50
/ ************************************************************************
Ġcomplet eness
CONT RO
Ġpro jections
over rightarrow
al ink
Å ¾
ap im
ĠFil m
ĠH arr
Ġencrypt ed
R ound
tr ical
Ġdefault Value
H ar
Ġg ene
Part icle
}} _\
Ġtrans ient
ad i
if old
hand lers
IF Y
" +
P F
has Class
aw ay
N L
ĠC T
under brace
Ġinstall ation
() }
Ġvis ited
sup set
T l
TH E
Ġauthor ity
Ġpass phrase
Ġsus pect
Ġun ivers
cell s
Com ments
hen e
Ġput ting
l tr
Ġa f
Doc s
SC A
Ġ( +
te en
Ġres er
00 4
Ġre act
ĠL ayout
Ġimp lications
ĠQ ual
C art
d or
ro ut
Ġarbitr arily
ĠF ast
ĠHel per
Ġse g
te chn
Tool bar
Ġext inction
ĠKe ep
r w
om ics
Ġre actions
y ellow
Inv ocation
^* _{
ĠSpec ifies
I llegal
Ġdig its
record s
B inder
Pr incipal
Log ical
Ġwould n
ĠC y
M NRAS
) )$,
St mt
Ġpat ches
ĠRuntime Exception
go al
Ġsear ches
Com bo
Ġform atted
do i
integ ration
16 4
B tn
ĠB SD
Ġk ube
ĠC lean
vious ly
get Current
ĉĉĉĉĉĉĉĉ ĉĉĉĉ
b is
ĠM ike
Ġpl anned
m istry
Ġ' &
; -
ĠApp ly
od b
Ġcon g
Ġp ion
cap acity
ic ians
Ġmut ual
Ġsh ut
AC CESS
Ġav ailability
host s
Ġs mo
ist ribution
C urrency
EN ER
13 4
C LO
ul ates
Ġin dependence
dd ot
Ġget ter
] }$
Ġcomp ressed
Ġperfect ly
> ";
ĠSty le
ĠD ar
[ @
Ġlead ership
Ġfeel ing
Ġview port
Ġco ach
Ġo mit
Ġmark ets
G F
Ġk ick
Ġ ions
Ġmus ical
comp uted
Pod s
Ġadd itive
TO KEN
ĠF ont
Ġrefer enced
Ã ¥
limit ed
umin ate
CLI ENT
}} ^\
Ġcomp ress
M AT
Ġarg c
thread s
et her
Ġsub mitted
in ations
Ġk id
RE C
Ġmagnitude s
le ad
Ġselect ing
Ġmer ger
d up
Ġinfra red
U i
Ġst retch
Sta mp
ĠI Enumerable
Ġdef initely
Ġsu dden
Ġdis placement
n or
Ġmeta v
Ġv ast
Ġun changed
Ġpr ison
ĠN C
ĠB oot
=" //
dot ted
o ol
ĠI o
Ġpublic ation
Ġ nd
Ġillustr ates
R oom
| }\
Ġ/ .
/ ,
ĠM eta
Ġlong itudinal
ĠO lymp
Ġkernel s
call s
Ġpreser ves
Ġcomp la
Ġan onymous
N Log
d am
mode s
Ġoffic er
Ġpromis ing
Ġfe at
Ġ================================================================= ========
ex c
Ġb t
ĠIt alian
Ġcons ist
Key Value
user Agent
Ġd ots
us ual
SER VICE
ĠE U
^+ _
Ġcontinuous ly
Ġfor th
REQ UI
ĠFe b
Ġa mp
Ġg reatest
ĠS aint
ad ium
Ġprov ision
ĠSk ip
ĠRe v
comp iled
ĠAl loc
C AN
w b
Ġh ierarchical
Ġshould n
T ax
Ġturn ing
B en
Ġse l
To oltip
ag a
Ġex ercise
W est
}, $
Ġred und
Ġin spir
ĠDE BUG
ĠL abor
: ]
ĠP AR
St roke
ĠO B
NE SS
R aises
Act ual
ĠSk y
Ġt ear
19 77
Ġinter net
ĠTrans itional
Ġcompar isons
ĠE num
al ph
Ġc ro
2 25
S yn
Ġphot os
Ġarg ued
ĠA lice
ĠRe ce
g row
Ġs ale
Ġa de
FUN C
p ause
Ġme mo
sm art
Ġreach ing
F ACE
G UI
Ġ ))
Ġm ental
Ġmeas urable
ĠR ES
mix ins
cor ner
Ġimpro ving
Ġ ]);
di e
Ġcontra dict
Vis it
Part icipant
Ġful fill
Ġgu ard
gener ation
pay ment
C riteria
V ersions
Ġqual itative
14 5
Ġhum ans
B er
Ġdef inite
EMP TY
æ ł
Ġa id
13 6
Ġac commod
Min imum
he at
PRO TO
Ġexperiment ally
Ġy ellow
AR GS
Ġsearch ing
f link
no align
amp l
ĠAn aly
ĠCo untry
get Context
Ġun a
raise box
Ù ĩ
dim ensions
Compar ator
Serial ize
Ġconsistent ly
Ġ Ã©
Ġbin aries
Ġreconstruct ed
19 78
Ġre ci
eg o
sh own
Re po
Ġgreat ly
ĠCon tact
Ġfeature d
Ġy oun
Ġtrend s
ga uge
ĠAd S
bo ss
Ġdebug ging
z h
b asis
m q
Pro jection
Ġdetermin ant
Ġc ult
reed y
Ġmicro s
Phys ics
cal c
ç ½
Ġh ack
u de
ĠSpr ing
inter pol
Ġoper and
Rem ark
F un
Ġext rap
Ġincreasing ly
Z ip
å °
Ġprincip les
Ġcri me
ĠWe yl
M icro
Ġdynam ically
Ġinit With
S olver
Ġcons iders
AD C
ĠCont roller
ĠDiv ision
P ur
Ġsever e
F G
Ġr is
ital ic
W W
Ġsub sequently
Depend encies
P ull
Ġch ampion
Ġaver aging
ĠP ur
Ġencounter ed
Ġcharacter ize
Imp licit
imit ives
hook rightarrow
Ġhist ogram
Ġadjust ed
-- \
list s
Ġweak er
et ype
Ġ' :
ĠIn fo
($ _
Ġsh allow
}}{ (
se x
ch apter
CONT ENT
g as
Ġsign atures
"/> .
ĠRes pon
Ġp reference
d ifference
Ġ( @
ĠCOP Y
Ġb uffers
DE CL
pro gra
List s
Tool Group
Ġ( __
ey ond
ĠMark et
BE GIN
A RE
equ ilibrium
weight s
æ ŀ
ĠIn sert
Ġthermod ynamic
WIT H
ĠB UT
crypt o
Ġappend ix
Ġtrunc ated
Ġas ynchronous
Dis cussion
MPL ATE
) _\
EN UM
Aut hent
Ġlept on
Ġh a
J O
Ġpair wise
15 2
Code s
" ][
pe ating
Spec ific
styles heets
ĠPhys ics
Ġ" </
Ma jor
PO SE
ge om
Ġinteg rable
ex change
Ġse at
æ İ
st retch
ĠC la
on i
ent ed
ĠJ ud
Py thon
ah ler
re vision
ĠMex ico
Ġd uplicate
Ġcr iminal
id ents
Ġcontext s
Ġmatch er
Ġelse if
Ġun likely
Ġintegr ating
Enumer ator
inger print
Err s
Ġmeaning ful
| .
Ġstr m
m cite
av atar
ab eth
Ġt uning
t ap
Ġpro c
bi as
ry p
Ex act
Ġexcit ations
Ġmark eting
Lin ux
in son
ĠF ood
Ġcaref ully
C Sharp
Ġo xygen
ĠM ess
le in
Vertex Attrib
Ġob st
dis p
Ġnull able
H A
Ġsus cept
Ġtrans it
sing leton
> ",
ĠR ail
inst ances
Ġflex ible
' }),
Ġgu itar
)$ )
Ġqual ified
il lo
condition al
get ElementsByTagName
Int Ptr
Ġcl ar
Ġlock ed
la unch
Ġfile Name
Ġscen es
( (\
M irror
ĠW ild
Ġult imately
Ġperform ances
LI ED
Ġ' ;
so und
ass ociated
rec v
it age
other wise
s uffix
ĠS ample
Ġhom ology
credential s
r ceil
ĠL ead
serial ized
< >(
ĠC ost
list ing
ĠSen ate
Ġi OS
2 64
S amp
XML Schema
Throw able
NOS CRIPT
Ġgr ate
B a
get Logger
ĠEx perim
ut r
Ġconstruct ing
s ymmetry
Ġpropag ator
Ġpen alty
En crypt
ĠD rag
ij k
de velopment
ch ant
DEF INE
ag ement
at trib
ul um
ĠM id
Track ing
Ex ist
! ");
] >
' /
prob ability
Sim ilar
ar ations
gy pt
en h
tt ify
Ġn arr
) `
Ġbary on
ĠG LE
Ġconvers ation
az el
Ġsee med
×Ļ ×
Clo sure
$\ %
Ġd ome
Ġar rows
Ġif rame
ĠY ES
Ġredshift s
Ġsh a
lect ric
Ġwatch ing
UB LE
** :
or ney
Ġtransfer red
n at
Ġper pendicular
ĠS S
ĠSur vey
or med
lic ial
in ate
å Į
b la
re main
Ġ" __
Ex tended
or ous
Ġlat ency
d ense
Ġo ps
IL L
US B
Ġp our
imp ro
tr on
Ġjo urney
it ro
ile ge
ĠVirgin ia
dim en
Ġbelong ing
Ġre lying
S us
Ġho oks
ĠN ight
ĠF ac
Ġet h
St e
nu cle
IS O
ĠPol ice
ass umption
min ute
15 5
widget s
Ġc trl
}} /
Ã º
to u
At tempt
ĠP arent
Ġpod s
Ġs z
Ġreal ize
U DE
=" <?
ĠW E
Ġser ving
åľ ¨
ĠL td
Ġposs ibilities
the ore
Sort ed
P TR
integ ral
SUPP ORTED
T ake
Ġpromin ent
DI F
Ġland scape
^* ,
ĠDocument ation
Ġhyp ers
Ñ Ħ
Ġrelig ious
Ġs alt
Prop Types
Do es
ĠC ulture
ĠValid ation
Map s
Ġsuggest ing
( /\
}) +
Ġhas n
Ġvis itor
V ote
Ġtrans lated
Ġgu y
prov ided
V ars
C od
Request ed
pro jection
member of
Ġport s
Ġover come
INTER NAL
E v
Ġconsider ations
scal ing
ĠSc ot
Ġstart up
Out Of
First Name
el ly
n ecessary
o e
ĠA F
Ġb la
Ġphys ically
Ġsupp ress
asm ine
ĠE mpty
\ `
Ġserial ize
Ġaccept s
Î ³
ĠAs ia
bl ur
Ġanisot ropy
res olver
dis pose
Ġexceed s
Ġplan ar
: @
idel ity
ĠCon ference
Ġco unty
Te am
= _
ĠS ports
co verage
us cript
R G
Ġca ption
Ġcurrent s
Ġtw ist
ĠC ONT
Ġg rap
), \\
Ġtri angles
ĠF S
ord on
Sl ider
Ġl p
Ġfill ing
DE V
K M
ĠA pi
Ġdepart ment
it ize
Ġproto buf
Ġimplement ing
Ġart ificial
or acle
amilton ian
Ġsound s
Ġ" {
vo ir
Ġab use
be havior
Ġdif fe
Ġfrag ments
callback s
ĠT otal
Upd ates
Ġimp ose
Ġl ived
Ġf ly
Ġqu iet
ĠB reak
Field Value
Ġhelp ing
ĠS ar
Ġre new
exp licit
Ġt c
I ssue
Ġde cade
Ġtr iggers
80 80
Ġequal To
Ġ ĉĉ
ORM AL
ult y
ĠP attern
Ġreg isters
ĠDes pite
O m
ot iv
EX CE
$ ~\
? )
Ġcompan ion
Â °
ĠDan iel
AS K
ĠSt atic
ĠC E
:: ~
Q CD
un used
filter ed
Ġturbul ence
Ġco variant
ĠPlan ck
add on
Ġmodel ling
equival ent
Ġoscill ation
ĠB log
Ġre tail
DE SC
Q R
Ġr anging
ob served
ĠCom ment
! âĢĿ
30 4
tra its
am ination
20 8
ĠĠĠĠĠĠĠĠĠĠĠĠĠĠ Ċ
Ġresult ed
as List
dis crete
19 76
Ġremark s
EN S
ir k
ĠEn try
US ART
ot er
m otion
Ġstop ping
ĠUS ART
ĠV olume
sign ific
Comp ile
Ġread ily
Ġbehavi ors
ĠPol it
dir ty
Ġun iversity
ĠA ST
Ġfix ture
ĠDeta ils
pt s
y ml
}} -\
ash i
struct ures
M id
tr insic
W ire
Ġanomal ous
Ġcitiz ens
Ġex ha
Ġback up
Ġpro fit
Ġas king
ĠĠĠĠĠĠĠĠĠĠĠĠĠĠĠĠĠĠĠĠĠĠĠĠĠĠĠĠĠĠĠĠ ĠĠĠĠĠĠĠĠĠĠĠĠĠĠĠĠ
ĠRef s
Id le
ad joint
Ġan imal
ĠR T
Ġadapt ation
og rams
imp lies
Ġarriv al
S uggest
Ġ$\ |\
Ġacces sed
it ory
Ġclu mp
Ġ& -
rece ive
P lugins
Ġag ency
n atural
ev olution
ump y
%%%%%%%% %%%%%%%%
Ġalloc ate
Ġoscill ator
ĠÂ ·
Ġt iny
is ations
Ġm ent
ĠGo String
Ġdriv ers
ĠA wards
expect s
ĠAss umption
Ġindust rial
id o
current Time
l ceil
Ġfra ctions
AS H
n ik
ĠB orel
Ð ¹
ĠD ynamic
no ck
Ġbuild s
b v
2 80
ĠL uc
MO VE
13 1
Index es
\% ,
L IMIT
ĠWilli ams
Rect angle
ĠF C
With Error
ens ively
Ġmin i
ut ations
comp letion
uck y
Pro ducer
Ġ'/ '
product s
} `
rom ium
ear n
Ġver bose
Ġu uid
l on
ater al
Ġminim izing
Ġpolit ics
T OP
Ġdissip ation
ĠClear ly
has Next
B ODY
ĠS elf
Number Of
Activ ities
Ġsurv ival
Un icode
Ġg ates
Ġre vision
? }
Ġtw isted
Ap pearance
urn e
Ġag rees
R ich
am d
hed ral
ex e
feed back
DO CK
G Hz
} '$
l ot
Ð¾Ð ¼
Ġintegr ate
ĠF ort
g ateway
ĠN P
Ġown ers
Ġp ot
semb les
ĠE S
assert Raises
. [
Ġ' \\
Ā Ā
ĠCol umb
Ġ iv
oper ative
_{\ {
R ay
Ġ$ ^
Ġdesign s
Ġpermit ted
ac ian
)$ ;
Ġ' --
ob tained
.\ ]
ĠEngine ering
Ġremark able
Bound ing
cy cl
bit coin
Ġm p
ĠY ang
Ġtri als
)) {
12 9
Ġhundred s
op ic
So ft
L ie
q r
Ġack nowledge
Ġsent ences
int enance
Ġprepar ation
ĠCa uchy
Ġsh rink
xim ity
Ġthere in
et t
Ġmod ulation
xx x
Ø ³
to Array
ĠAmeric ans
ject ed
end ers
urn ament
ĠP E
la zy
r hs
le c
ic i
Cor ollary
L ng
ro uting
Ġtra iling
ynam ically
Ġop ens
Artic le
s lug
Ä ĩ
Ġstand ing
at ially
ĠB P
RA W
br ane
Table Name
Ġt y
Ġsepar ator
Ġconst rain
Ġtr acing
Co ins
E valuation
Ġde eper
lu c
Transform er
mo ving
| <
ĠSyntax Kind
ĠSaf ari
Ġde but
ĠF ederal
ĠCarol ina
Ġd ry
n able
um a
ĠC hen
tri ang
Ġinvert ible
Ã ±
Ġbur st
Ġre form
e ast
od ge
Ġocc urrence
{ }\
ĠM achine
Ġk pc
Ġfix es
ĠLIMIT ED
ĠU ART
Trans late
Ġd ol
Ġreason ing
m orph
00 7
ĠL ittle
Unmar shal
Ġoper ated
@ {\
ĠTrans form
eg a
Ġatt end
plac ed
Spr ing
tra ction
38 4
' }{
ĠMay be
Ġtr aces
2 60
.\ ,\
Ġdimension less
Ġappro ved
A verage
Ġrespons ibility
g ro
um s
Ġvacc ine
ĠP a
Ġregion al
aut hentication
ĠP layer
ĠIsl am
Ġwe alth
ĠD ES
Ġcheck sum
Ġil legal
Ġm i
Ġint ention
Ġag es
P an
Ġtensor flow
fer m
ul f
ĠLine ar
-> {
l x
Ġa co
or ial
Ġch air
Ġcompet itive
}= -\
Ġ ÑĤ
prov ide
ion ic
ĠE M
Ġcon trary
Ġs ake
ĠStud ies
K B
Dis pose
Ġheav ily
reg istration
start ed
STR A
ĠPub lish
ant e
Ġy outh
Ġmat ters
B uffers
ma king
ll a
Ġform ulated
il o
Con nected
the o
ĠR en
att achment
ĠB U
/* .
Writ able
Ġreflect s
ert s
ens ing
ĠB egin
Ġvo cal
Ġdoub t
ĠS ect
ke V
Ġdig it
e valuate
Ġf abric
art z
Ġad vent
C OR
ĠW i
pers istence
Ġe ccentric
= </
ĠCont ract
l vert
Ġaggreg ation
ĠT oday
>: ]<
pe ople
De leted
ĠSt an
job s
C LA
ee ded
N ever
EQ UAL
Ġmodul o
Ġre written
M or
m agn
}} </
ans wer
ĠH or
the ir
itude s
? ,
Ð¾Ð ±
}: \
Ġme s
N ov
Ġsess ions
Sh ard
C ACHE
fit ting
vi ation
Ġconnect ivity
)} }\
ĠR a
R W
Ġ- &
Ġ\ %
experim ental
ĠF LA
ci i
Ġ\ )
n k
Ġ$ %
ĠJust ice
R P
ĠE ric
ĠSe a
pro port
ĉĉĉ ĠĠĠ
col lapsed
Ġg aps
Sem antic
Component Model
h or
C amp
{ #
ups ilon
}), \
H I
Ġrele ases
s ink
æ Į
A O
st re
Ġsuper ior
ĠSD SS
Neg ative
Ġh ousing
iz abeth
Ġarriv ed
Ġbr acket
ro g
Ġgovern ed
Ġuniqu eness
Ġmain tained
ynam ical
M al
aren cy
Ġsp rintf
Ġrank ing
Ġexec utive
first Child
Ġadv oc
Ġl icensed
ser if
Contin ue
w heel
iv o
ĠModel s
ĠN u
Sub scriber
40 1
lev ance
Ġt et
align ment
exp lo
L em
Ġ{ });
T s
D NS
sk in
Ar n
Ġtyp ed
Ġtrans f
un es
val s
term inal
Ġconsider able
Ġref id
Mod ify
Ġerr no
Ġent ering
, +
Ġplan es
Ġc ash
pe ak
Ġg ift
ĠHen ry
ĠM ic
Ġm ort
Con nections
Ġfif th
} ")
div ider
Ġconst itu
ĠS eq
end a
APPL ICATION
tr an
Ġform atter
Ġaccept able
)- (
ï¿½ ï¿½
T or
Last Name
In crement
') [
ĠR F
Quest ion
æ į
ä¸ º
Pre c
Ġattract ive
Ġt idal
see k
LE ASE
ĠJ ackson
ĠG alaxy
B etween
ĠU INT
Ġad missible
Ġdro ps
ĠIm Gui
Ġhealth y
b ower
ĠC MB
ĠDec l
ho oks
comp uter
, &
re ements
ĠG i
Re peat
ĠL ang
}\, .
ĠC ra
Ġphot ograph
m ig
Ġnucle us
Ġinject ive
Tr im
ĠC I
| \,
=" ./
]{ $
n as
si rable
ĠPl ace
20 3
li ps
19 75
Ġpreced ing
f an
Gener ation
Ġde form
ĠB and
ĠAPI s
Ġconto urs
ĠHo spital
B K
ĠHash Set
Ġ rom
Dis posable
R anges
Ġdro pdown
yn man
ĠCO L
Op acity
Ġmov ies
Ġscr atch
S amples
Ġinterest s
Ġst ops
nd o
ĠM ix
. ')
Ġch at
pan ic
] ],
ĠG l
Ġ/ \
Ġsat ur
ç Ľ
Ġinject ed
Ġcircumst ances
Ġ$ ("#
ADD RESS
Ġl t
j j
ĠL ayer
Ġmin us
collection s
conf irmed
L ess
Ġconfig urable
ĠChild ren
Ġantic ip
em an
H er
sw ift
ĠJ ordan
Ġf ellow
Ġin version
ĠW R
Ġfo unded
ĠDemocr atic
End points
Ġexam ined
ay a
App Compat
eder ation
ĠM ER
Dir ty
Ġelse where
t odo
we ets
orient ed
ĠRiemann ian
'' $
Ġcre ative
Ġassert False
Ġmethod ology
il st
Ġnot ations
Ġcon current
short cut
Ġf lip
ĠG ib
] ',
g d
Ġt ensors
CA SE
ib ration
ĠK im
13 7
ĠGLE W
B IND
ew ise
ĠCh apter
ty ped
pres erve
ab a
EN SION
pub lished
Ġn ur
Inter faces
Ġf ract
Ġb attery
co cos
ĠA U
ĠH istor
Ġcom mission
Ġadvant ages
ir r
Ġphil osoph
........ ........
Ġb an
0 100
p ure
ĠS FR
Ġade qu
}} %
le ased
aut hent
in fra
eng ers
ĠST AT
c z
Ġstr ange
n f
Ġsh utdown
Definition s
00 6
te k
ĠJ es
de coder
O h
Ġmot ions
G W
ED IT
ĠIN CL
analy tics
Ġf lo
empl ar
Ġneglect ed
Ġse ctors
App endix
Ġdig est
Ġaltern ate
ĠS olution
k top
ĠS pect
ĠF ake
app y
IC AL
me th
Ġ[ `
DI V
ä¸ į
Ġinj ury
sv c
)) ^
Ġhon est
scroll Top
me tal
Ġfi ction
Ġins ights
ĠWIT H
Ġt orsion
For Key
)\ |_{
Ġany way
Ġwidth s
Ġestim ating
Ġvalid ator
L ANG
Ġmon omial
er ation
19 74
Ġvol atile
oper ators
Ġgeneral ize
ul i
Value Type
Ĩ Ĵ
Ġ" \"
M SE
de scr
U K
P IN
Ġpreser ving
ĠTra its
ĠF ail
ĠR ot
Ġstructure d
Ġbus y
be ing
ĠTra ining
_+ $
k r
w rapped
| $.
Ġ` $
7 68
Ġv ic
INTE GER
Rep lication
ĠP ak
St udio
Ġt ar
sp y
Hash Code
coup led
Button s
Ġnew Value
Ġw ider
check mark
TR ACE
VAR I
ĠCO M
Ġelect ed
ĠC art
ins pect
Ġcon served
Ġexpect s
., ][]{
ri ends
SO CK
;\;\ ;\;\
cover ed
( ?:
Ä ģ
13 8
SE SSION
eloc ity
-> ]
Ġpol ygon
D ifference
ĠExec ute
UNK NOWN
Ġelli ps
Ġcontinu ation
min imal
at z
im uth
STRA INT
Re cogn
Ġre use
it led
Ġmembers hip
key Code
Ġdistrib ute
ĠS and
ĠL ess
Ġinter fer
determ ined
am m
CON TEXT
Diagnost ic
I FI
Ġaut omorphism
Im mediate
. ][]{
D K
Ġcal c
ĠNor thern
ĠA sh
get C
Ġbr ane
Ġ( []
}{ .
g m
Ġ ------------------------------------------------
ĠU P
AL TER
script ors
ev in
}$ &
Draw able
Ġoutper forms
Match ing
Get Value
Ġsubstant ially
resh olds
Ġan cient
Ġres cal
W IDTH
ĠS outhern
LE X
Str ict
Ġmer ely
Ġacade mic
de cre
CC CC
Ġw heel
ĠG PIO
20 5
g lu
ro vers
Ġin clusive
Ġutil ize
pl ots
o z
et he
13 3
) ");
") ).
ers core
Event Type
Rem oved
Te X
, $$
CO RE
ĠAss ign
Ġj unction
Ġfix ing
pro mpt
Ġc urrency
se mi
00 8
pare n
ĠI M
f und
ine q
ach inery
sess ment
sq cup
Ġpro spect
Ġa mazing
Ġfore ground
Ho oks
15 1
M W
"> ,</
(" ../
S pect
n othing
g res
ĠD NA
ĠSTD METHOD
Ġh arm
SS M
LSP AN
ĠCO LSPAN
Ġs port
ĠPO ST
he t
ĠThe ore
Ġmod erate
Ġtra p
- .
19 73
ili ation
] -->
Ġco herence
Ġweek end
ĠC laim
ĠU TC
ann a
relat ivistic
serial izer
Ġa apt
che ster
G esture
Pro filer
D s
Ad just
re cogn
Ġ( ;
ĠTho se
L and
ĠO VERRIDE
uk awa
Ġsp ont
Ġcre w
æ ³
ĉ ĠĠĠĠĠĠĠĠĠĠĠĠĠĠĠĠĠĠĠĠĠĠĠ
exp ansion
G LOBAL
ĠE GL
Ġc ube
Ã§ Ã£o
u ing
Ġgir ls
Ġto u
Dim ensions
back up
Hand ling
ynt hes
am on
Ġde co
approxim ation
Ġp b
! }
M Q
ĠP anel
Ġrel ate
Ġh r
Ġwork flow
Ġt rib
Sp acing
Ġiter ative
Ġl it
ĠD onald
io let
}$ \\
C AT
ost ream
Ch apter
Ġs and
ĠSm art
Ġattrib uted
ly wood
F old
b ank
ĠT LS
Ġlens ing
Sp in
ĠQue en
re ports
Ġcorn ers
n od
ĠFact ory
et ition
Ġ< ![
Ġwh itespace
Not es
Ġmodul us
Ġphot ometry
y d
ĠG ar
Un supported
SE C
urn als
Util ity
u its
Ġneur ons
j b
Ġpo les
mk ern
perturb ative
z hang
Ġ{ :
ĠS ho
ĠP rep
ĠRem ote
ĠPriv acy
writ el
ĠDir ichlet
Ġinter active
Conf lict
Text Field
è ¦
ra st
Ġelimin ate
ĠVari able
Ġtemp or
U uid
Ġl ots
Ġtranslate X
ĠAm ong
par er
Ġfoot er
Ġocc asion
o ct
IC S
Co ordinate
En ergy
i ate
Int ro
Ġes c
ind s
Ġtrans mitted
Ġfoc using
Ġwork space
mk dir
al p
Ġ" *
F ault
A ge
Out er
ĠEd ge
r ans
et ched
Ġi NdEx
Analy zer
b uffers
ant asy
Match ers
Ġhot el
Ġdiscrep ancy
ĠI ran
Ġrecogn ize
part icles
Ġprob abilistic
Ġexec uting
^ -\
Ġdifferent ly
. {
Ġp id
Ġa di
o les
Ġc line
Ġpl ants
Tr ansp
Project s
arg o
UR POSE
status Code
ä» ¶
de leted
match ing
lo s
Ġg od
ĠF E
Ġ... ,
re load
Ġpublic ly
To Array
Ġcommun ications
f lip
ĠWork s
cont ract
IC K
ĠP aper
Ġsp iral
Token Type
PRE C
Ġconsum ers
Ġquot ed
Ä ĥ
ĠM ask
- "
Ġs outhern
Ð°Ð »
R oll
Ġf at
d og
Ġ Ø§
osit ories
ĠOb ama
r as
Ġdelay ed
on ically
Ġcounter part
arb age
Ġfor t
Ġdescri ptions
ĠM icro
ãģ Ļ
b rowse
Ġle ague
Ġoffic ers
Ġconduct ivity
P icture
ular ity
ra it
r vert
ER O
Ġl hs
Index ed
min or
PRE SS
ap ore
Ġse aled
el if
ious ly
Ġun f
er en
ĠI SO
auth ors
Ġemphas ize
arc sec
ĠX XX
Ġsupp ression
L uc
is p
6 55
ve ction
CL R
P references
Ġp kg
Ġpre liminary
Ch rist
block quote
P ART
Ġ[ _
PE G
ac ion
Ġ ../
Ġun e
ĠSe lection
Ġr iver
Ġreg imes
A Y
m irror
Ġcons ensus
Ġincre d
Ġs ynthesis
var sigma
s ymp
æ Ń
Ġfor cing
}^{ *
act ing
tt ing
ĠB oston
Ġfermion ic
Ġadd EventListener
Initial izer
P AGE
sub title
FO UND
At Index
An swer
con cept
Ġch rom
Ass ociation
ĠN ASA
ug ar
class List
Ġc d
n x
ĠP rem
ÑĢ Ð¸
^* $.
math ord
Ġ urban
æĸ ĩ
ĠP acific
k u
") ),
ag ain
loy ee
Cap ability
c riteria
B ug
é ĩ
Ġover lay
Ġany where
ĠCON TRACT
r ates
Ġbas ically
h ill
Handle TypeDef
im m
b ash
Ġh align
Ġdamp ing
} --\
ps frag
Ġformat ting
$ ]
net ty
Ġsub graph
Ġte ch
ĠRem oves
Ġlo gged
13 9
po ss
Ġmod ifier
Ġsub groups
ĠEx change
Ġgr an
lo ut
ĠC amb
Ġs ac
Ġmorph isms
j sp
ĠB la
Ġher self
off s
al most
Ġsaf ely
ĠUn supported
cm id
S CHE
to ur
E m
Ġimplicit ly
Ignore Case
Ġout going
Ġvari ed
med y
fix ture
ĠBo oks
me ans
14 2
Ġinfin itely
Ġ) :
ãĤ Ĵ
ams ung
ĠE P
} ')
un expected
Ġac id
Ad S
Ġpredict s
Ġmotiv ation
Un ion
ĠFrancis co
F ar
Ġemer gency
_ ('./
Ġs av
Ġexec utor
amil ies
ĠF unc
Ġcons ume
const rained
co ords
\ ).
ign ite
ĠSte ve
Ġfall ing
pro cessed
ĠP K
22 2
12345 67
Ġan satz
ĠD L
D ra
in tern
con e
>> >
dis cussion
COM PI
g pu
base line
Ġspect roscopic
log ical
lim in
Ġp ictures
ENT S
D ays
light s
Ġlo ved
Ġsat uration
Ġsem igroup
ap sed
en kins
ĠIn clude
V V
ĠUn fortunately
ĠE gypt
Ġalong side
B ur
^+ (
With in
' ')
Ġbal anced
Ġatt achment
Ġexplo it
Fin ish
ĠĠĠĠĠĠĠĠ ĠĊ
Ġc v
15 4
aw ait
ĠC u
per form
Ġmis sed
Ġwire less
Ġhighlight ed
P ag
Ġas c
we ather
ĠED IT
get File
Ġr ating
ĠGeorg ia
multip ut
Bu ilt
Ġc rypt
ans as
ĠU ri
] ])
get User
Ġbring ing
ĠChar acter
Ġcancel led
Ġun lock
Un ary
ol is
Ġion ization
Ġnor thern
min im
(' -
Ġblock ing
Ġscreen ing
qu ire
Ġreson ances
ĠT E
ins ide
Ġinv ocation
Ġc us
Ġe at
________ ________
Ġresc ue
ĠH AVE
ĠW IN
end l
clo sing
ĠSu ccess
un s
Position s
ĠH H
ĠCan vas
ogene ity
comp ressed
Ġfoc uses
ĠAc cept
E t
p w
str m
Ġpolar ized
ĠCath olic
Ġno op
ĠUn icode
() "
ph ony
+ -
he art
inc ar
list item
sup ers
F requency
ĠS ep
ĠThe ory
$ _\
un icode
NO TE
z illa
Qu ick
Ġge o
ĠD aily
pl orer
CHAN NEL
ĠA LL
Ġvol unte
cmid rule
an z
Ġident ifies
on ym
../../ ../../
Ġin duce
IP S
len ium
Ġc ards
Ġk it
ur is
van ishing
Ġanaly tically
AR M
ĠMus lim
) ";
E F
ĠH ubble
mag netic
ĠC V
'] [
f ee
ĠO ffset
Ġst y
en ix
}} }(
Dig est
k b
tr ation
ĠMet adata
rupted Exception
Ġg ro
co ordinates
19 50
ĠNot es
IST ER
ĠÐ ¼
Ġm appings
ĠPar ser
oltz mann
L azy
H a
loc ations
clean up
ĠPri me
gol ang
Ġsee king
design er
Prov ince
ph abet
starts With
Ġbit map
Ġpredict ive
W ave
Ġprogram me
R U
17 6
c amp
Ġs now
Gr ant
Ġchunk s
ss h
Ġsum mation
ĠPh oto
Ġchar s
clu sters
á »
tr uth
edit able
æľ ī
) }^{
nes ses
lic ate
Ġint elligence
c g
Ġconsider ably
to k
TE MPLATE
Ġoccup ied
Ġsing let
As String
ĠProf essor
Ġstr len
Ġhome s
b j
Bind ings
ĠEx press
4 80
atist ical
^* $,
can not
ĠBe ach
w orth
Ġ' __
col og
Î ®
ĠE mail
ĠSt ory
W T
}) }{\
ĠJ O
ex istence
ĠG ENER
Image View
* {\
: ",
Ġtri ang
Ġo x
ĠDep end
ĠCo ast
Ġun used
D lg
A x
child Nodes
Ro les
ipart ite
A ug
Ġmer ging
C op
g ue
P ositive
IP v
Ġgre y
Ġepis odes
. }.
] _{\
oci ate
Ġt on
Ġexception al
Ġapparent ly
Ġwrit ers
amer as
B usiness
Ġs vg
Ġmark up
parse Int
bal ena
< '
15 7
dash board
ĠS co
Ġco al
Ġreson ant
tt s
ÏĦ Î¿
Ġth orough
> *
ffect ed
Ġinstitution s
Ġpack ed
Bound ary
19 72
add All
Ġh over
Ġman uscript
Ġnucle on
st ock
Ġl ying
ME DI
Ġco ord
ĠAut om
play back
h uman
ac cel
14 9
Ġvari eties
ĠRepublic an
ent ities
unt u
SH ORT
n umbers
ĠFoot ball
access or
ha us
Ġr b
key frames
progress ive
b ury
ĠC ome
Ġt il
Ġst ick
AL LOC
Ġeven ing
li um
cre ation
æ Ķ
**************** ********
; ]
Ġco in
ĠR aw
event Name
ĠBuild ing
ĠT itle
igh th
r us
triangle q
tab End
moz illa
b h
Ġen for
. \,
O Auth
per m
ert y
ĠFig ures
c art
rott le
Ġ[ ])
mbr ane
H F
ĠC e
Ġwill ing
ĠAdd itional
M acro
Ġhe aring
16 6
ĠBrit ain
BO X
as ide
BU F
Ġfrequ ent
Open Tl
Ġtarget ed
C irc
ĠN eg
ASC II
ĠC atalog
' }}
}: =\
Ġdeb ate
Ġor b
ĠE mber
b w
j boss
Ġsp atially
}) ();
2 32
Ġf ell
Ġse d
onom ous
ĠR oot
get Node
ĠV ER
ain ing
De vices
ĠMich igan
br ack
V P
14 6
/ ',
Port s
Ġprior i
Ġ utf
Ġsuper vised
n th
. }}
j dbc
å ĩ
ar o
xffff ffff
Ġw ake
fold ing
Da emon
Ġw elcome
ray s
sh int
Ġb ubb
Ġinter cept
ĠT ypes
be zier
Persistent Volume
Ġtheore ms
s al
H ol
m ong
ĠC ryptoJS
ĠName space
asket ball
I CT
ĠInt el
Ġw inter
Pr inter
Rep resentation
Ġll vm
Ġc umulative
v ac
key board
Ġcapt ures
Ġspl its
D eg
ASS IGN
; =
F all
Eng lish
f h
å Ĩ
l if
Ġcor ollary
H P
Ġde als
ĠPro gress
ĠF air
ĠArray s
get Path
ench mark
Ġcarry ing
is Object
Ġgraph ics
Ġabs ent
q s
d ifferential
14 1
set Name
ĠObject s
$ ^\
Ġnot iced
pt ical
. âĢĻ
Ġc ra
HE LP
State Exception
ĠC AN
Ġbr ackets
am an
DEFIN ED
C hen
e asy
or ry
Ġp ushed
ĠFunction s
8 000
Ġuse Capture
Ġv ent
p ane
Ġprom ises
Ġt error
Ġfac et
] "
Ġdev oted
Or Empty
Ġf p
ro utes
keyword s
Ġdanger ous
Ġbos onic
ĠUs age
Coll ision
Ġannih ilation
A sc
elect ric
Print f
ĠDown load
i u
Ġsole ly
å į
Res erved
ur face
o h
Ph ot
CH ANT
ĠS UB
Ġw inner
=\ ,
log s
Ġor ange
Ġstrug g
or ne
Ġkinem atic
ĠP URPOSE
Ġtit les
). </
Re search
lear n
< >
ĠA SC
ĠAnd rew
Off ice
Ġwalk ing
ĠStud y
ĠIMP LIED
P NG
ens itivity
ic ast
Ġpo et
symbol s
andid ates
Ġins urance
Ġgrap hene
pro f
Cap abilities
ad ig
ann y
remain ing
Rep orter
x ref
' _{\
ĠMed icine
m art
ĠF IT
st reet
Ġexp onents
Cho ose
ĠDeep Copy
}\ |\
ul ary
ĠLeg end
ex emplar
ient ific
p ressed
small er
j ump
tabular newline
level s
urch ase
ĠP D
Ġtranslate Y
c M
ĠG URL
Ġdifferent iable
Ġte aching
MO D
De ferred
Phys ical
print StackTrace
bul k
Prototype Of
W ISE
Ġre actor
ĠK ind
pop over
Ġp ilot
Inf os
ĠC at
ome d
ch astic
Ġinsert ion
M art
end ants
LE AN
ak en
Ġfluctu ation
=" {
ĠK ong
ĠD ub
)+ (
Re corded
erm al
v l
st ars
jo urnal
Res p
Ġte lescope
]{ @{}
3 75
sub menu
M igration
ĠConvert s
Ġde leg
14 8
Ġcon sequently
ATTR IB
W ang
Ġsp ons
Ġinfe ction
ring tone
CA ST
Ġatmo spheric
ĠB ug
ĠD rop
el a
default Value
ri k
apim achinery
g ulp
ĠR us
R CC
Ġas ymmetric
Ed m
B and
exec utor
Read Write
Pol ygon
Ġ"/ "
\ ;\
Start ing
ĠDirect ory
Ġpre view
C ipher
Ġturbul ent
ĠPer formance
harmon ic
. -
Ġh older
ĠI rish
user Id
ĠRE ST
HAS H
Ġdegener acy
Add resses
Ġmon op
Ġdistingu ished
âĢĻ ,
v n
ĠS ys
u y
SET T
Ġoper ational
experim ent
Ġs aving
conver gence
... ,
N ORMAL
ĠM W
}{ -
Ġsk etch
Ġsign ing
i at
ĠG Hz
Ġl d
Ġslow er
Ent ities
ST D
M ime
ial ect
struct ive
Ġtri angular
Ġho spit
Ġattemp ted
ĠComp are
F ee
un ix
Ġp name
Ġfail ures
G lob
Ã ł
assert Same
structure d
Aggreg ate
f ish
co uld
n orth
Ġpick ed
Ġsched uling
å Ģ
ke eper
N LS
Ġcomp utes
View Model
Ġpe ers
Ġt ill
e en
Ġhead ing
De ad
author ization
ĠLo ok
track er
Ġcomp ound
Ġsuggest ions
Ġs ister
ĠW idget
tr ically
ak ai
Hash Set
h ub
Ġincorpor ate
Ġb is
}) );
DO C
G I
Ġso ph
http Request
ch k
cri bed
DA Y
}\ {
ĠC lick
Ġpos sess
L u
Ġco ords
Ġaccord ance
So ftware
od ic
Ġa fore
Ġv tk
Ġgra in
Descript ors
ĠS a
ob e
Ab ort
S il
ul o
add er
ĠField s
t u
" \
(_ .
ar on
Ġtime scale
depend s
J NI
Q T
ĠY et
ag s
] ,\
Ð½ Ð¾
ĠS ide
as pect
sh iv
ĠCo vid
Ġcyl inder
Ġin complete
Ġl ay
En c
ĠOpt im
m atter
Ġbre ath
Ġmar riage
Ġass ist
Ġstat istic
con sumer
ĠB as
ent h
Ð Ł
L ex
\% .
Ġ ath
Ġhad ronic
Ġprint ed
Ġanisot ropic
Ġst udio
output s
Ġp index
ĠS on
Assert ion
y our
Ġver b
Fl ash
P en
ĠR om
ĠN iger
Ġax ial
V ED
sp atial
< -
Ġcont raction
Ġim mun
ĠSw ed
Loc ations
ĠLat in
v x
(' :
ĠImp ro
Ġhelp ers
2 16
ma ker
Ġto m
Ġs me
(' _
ĠSQL Exception
wik ipedia
ĠG NU
Ob serve
break ing
T icks
ĠAUT H
ĠM u
ren ce
A gain
comp ilation
Ġestim ators
res on
burg h
M ongo
l iter
15 8
Ñ ī
ia o
Dis covery
g ar
Ġt ube
Ġ@ }
Linear Layout
Y ES
Ġhead s
Ġra in
bit map
Ġs oc
com merce
ĠÐ ±
)$ :
V I
ĠMin istry
Ġaco ustic
P rom
Ġvict ory
Ex isting
en ium
av ors
O s
Ġo prot
Ġp df
Ġ$ ('.
å¯ ¹
D ie
end o
ile y
Ġsuper nova
Ġhad ron
C ircle
ener ated
QU ERY
ĠD ialog
ĠPh ase
ĠP red
Ġf id
ig g
}^ -
Ġdir ty
f ocused
Ġma intenance
23 4
ans ions
Ġaccording ly
ĠT ro
30 3
yl van
im ers
RO WS
erm ark
ĠR x
ĠMar shal
Condition al
z ing
Ġc raft
ĠEx ternal
count s
^* )
ink owski
att ention
Ġfeel s
ĠJ r
ĠEx pr
ĠTh rough
ĠNe ed
im ap
ĠP ush
Ġpar abolic
E u
ĠT y
Ġfa int
Ġ} _{
J Token
ich ael
Ġmolec ule
Ġ' *
Ġamb igu
Ġgu ys
Phys Rev
% ">
N u
Ġd ance
)} ]
dist ributed
ĠL ag
Ġj e
ros copy
A wait
ĠT X
Ġvar s
i ot
}\ |_{
' ",
SY NC
vent ions
A tomic
wo uld
Ext ent
ĠR L
Ð½ Ñĭ
Ġacqu isition
- %
un i
In variant
ĠAct iv
User Agent
ĠID s
Rest ore
AN Y
Ġsuff er
b readcrumb
. %
Ġint ra
W rong
M gr
ĠĠĠĠĠĠĠĠĠĠĠĠĠĠĠĠĠĠĠĠĠĠĠĠĠĠĠĠĠĠĠĠ ĠĠĠĠĠĠĠĠĠĠĠĠĠĠĠĠĠ
IC ULAR
sh utdown
duc ers
Ex ceptions
Ġfa de
ul atory
Thread s
)) }
Ġget Name
Ġimag ine
rece ived
Ġqu ota
Ġstre ng
h ort
T rip
luc ene
Ġauthor ities
it utes
ĠSp ain
Ġcomplement ary
hand led
Ġparame tric
Ġwavelength s
RE L
Ġserial izer
N F
Ġm ild
ap ons
30 1
AB C
ĠKore a
nt ario
F em
Experim ental
re dis
Ġsupers ymmetry
ĠE mit
AC L
E valu
Ġstr at
Ġrec ru
ĠF lag
{- .
Ġgood s
Ġrecur sion
ĠThe atre
Ġjo ining
um or
ther mal
In c
set Property
U X
j p
åı ĸ
C ycle
Ã© s
M ON
12 00
th anks
Ġre nt
fil ing
3333 3333
iv ially
Intern ational
Ġal le
work ing
Ġdirect ories
spe ction
in ated
ac ies
Ġsupers ymmetric
Ġcommit tee
Ġdiagnost ics
Ġed iting
ĠD id
18 8
EX EC
(' [
UB E
Ġtoler ance
publish er
A tom
"> @
}^{ [
Ġhypot heses
Ġany more
Buffer ed
Ġ' +
min i
Ġp x
Ġjust ice
Ġexcit ing
ĠRespon d
æĹ ¶
ĠCalcul ate
CHANT ABILITY
lo ose
Ġg ains
est s
ĠH art
Ġevolution ary
Aggreg ation
Ġquant ify
la res
st udio
online cite
A WS
Ġh all
ÐµÐ ´
ĠS ED
Ġmap per
:: _
conn ector
W ild
k ra
Non Null
w esome
der ived
ac les
all Errs
MAG ES
Ä ħ
SR C
Ġ* );
Ġp ause
md c
ma de
Ġre venue
Respon der
ĠS ync
ĠCol lect
ĠB esides
ad os
ĠOb serv
Ġnon negative
class ification
Ġmaxim ize
Ġg host
Ġ\ ,\,
Element Type
function al
quot ed
w en
Ġmask s
Sh utdown
Ġev olve
vet ica
b rew
Ġn ob
isen berg
l hs
ĠBan ach
Ġass istance
C andidate
math ring
v ary
Ġf urn
Ġnew sp
On line
de scribed
Ġsol di
comp osition
> ");
ACT IVE
Sm art
ĠY O
EXT ERN
Ġutil ized
Ġw arr
Ġres ume
dep loyment
Ġa warded
am ents
ĠOper ator
t iming
LA ST
Ġs addle
ĠUn like
Ġsur gery
Ġstd out
Ġl attices
ST OP
Ġph rase
rol led
Ġaff ord
in el
Ġt icket
urren ces
ĠExt ract
Ġmagnet ization
Condition s
)) :
AD ER
Ġclo ses
l ift
Ġj q
Ġ( &
ĠD b
ig e
ok emon
ĠIm ages
ĠJew ish
e se
} &=&
Br and
C ategories
Ġdistort ion
? .
get Item
Ġre interpret
ĠS ound
ĠBra zil
com munity
Ġsub class
F X
n z
Ġguid ance
ro bot
ser ving
Ġaccept ance
A ds
L ife
sp rintf
AL IGN
dec imal
tikz cd
ĠMax imum
S al
Ġguide lines
Ġcon tributes
IF AR
St eps
\ ),
ĠĠ ĉ
Re comm
math rel
ĠAR M
Ġg alactic
ĠG reek
)}\ \
ĠMem bers
17 2
Ġprefer ences
Ġre finement
R en
ect ive
19 68
h ls
dim s
Ġde veloper
"> #
ĠT ok
}$ };
R AM
Ġv node
IAL IZ
ĠYou Tube
Ġest ate
ĠComp lex
ĠC ategory
alloc ate
ĠAlex ander
SP AN
d ip
= ${
n P
Ġcontrib uted
SA MP
d B
type Name
}} |
IM ARY
ĠIsl ands
), $
di ctionary
to o
ĠG uid
Ġd op
ch r
az or
ĠK on
( ["
Ġal ive
ĠB L
ĠN umer
ino is
Ġres olver
) ]{
esting ly
Ġn umpy
author ized
ĠB ang
ĠState ment
Ġray s
Un iversity
Ġfacilit ate
ĠC ivil
spec ies
> ]
P ID
Ġamb ient
ĠExpect ed
q tek
Check box
sc or
2 12
Ġf acing
Ġminim ization
PR INT
ç½ ®
19 71
ik a
re nd
d if
bi ased
R B
Ġco gn
j l
Ġin hib
Ġwe ar
ĠW al
,\,\ ,\,\
ĠR CC
15 9
ĠA ge
ĠStep hen
work space
D u
Ġround s
j an
Ġsur jective
assert That
ver ity
g f
Temp lates
Ġoccur ring
P b
ĠF ox
Lo ok
ĠTr ace
ĠConst ants
Ġhost name
d al
18 5
}{* }{\
Ġlo sing
COL UMN
Ġ ~~
ĠTh ird
ph on
{ -\
ĠSe ason
ĠGe o
Pa ired
C u
v irt
Ġparticip ate
Ġtr ick
Call s
ĠEl izabeth
Field Name
SE L
aph it
ĠOh io
C as
ro gate
mathb in
}{ (\
Ã ª
C U
ro les
Serial ized
hy dro
Ġm art
reg ions
C redential
24 5
D avid
Ġgrow n
so lete
G al
ĠT uple
Ġintern ally
Ġlong est
Ã ¸
ĠPART ICULAR
aphit pc
G ray
Ġaccomp any
z c
Ġun icode
Ġact ors
0 25
Ġmaintain ing
ĠFi refox
Acknowled gements
Ġw ins
Ġcopy ing
ĠR od
Ġb ij
Ġyoun ger
big cap
row e
Ġend l
Ġris ks
Tree Node
Ġstrength s
ten ant
Ġcrow d
Ġfeat uring
Ġs park
19 69
Ġneighb oring
0 75
COMM AND
D LL
6666 66
w al
Ġpay ments
Ġcard inality
From String
ester day
Ġ) (
Ġanalyz ing
Ġse ats
log ue
a ac
Ġdefect s
: $
Ġst ride
ĠCh ern
8 75
Ġpass ion
cons istency
Par allel
Al g
Ġsh ader
pro g
Ġcol ored
Watch er
Ġsepar able
Comp atible
Sh ip
Des pite
to s
19 5
ĠH W
Stream s
//////////////////////////////////////////////////////////////// ////////
s lo
Å Ł
PRO CESS
Account s
as io
Ġanalog ue
ast ers
ĠM att
ĠA lf
ĠMER CHANTABILITY
Ġthrough put
Ġsho p
as ymptot
C nt
T eV
Ġshort est
ĠV ill
Ġa pert
m or
Ġmetal lic
ocab ulary
r q
Ġauthor ization
!! !!
Ġinstr uments
ĠG reg
30 2
iter ate
ĠR os
Ġmonot onic
Ġt ract
re nt
AAAAAAAA AAAAAAAA
ĠRep resents
Ġmicros copic
Ġout lined
Ġdeploy ed
b ol
Ġaccomp an
icon Element
Ġemer ging
prov iders
ĠT a
âĢĻ .
Ġemploy ee
Ġpro test
Ġpop ulated
B ot
ĠThrow able
pie ce
G l
A ws
â ĸ
Ġv otes
Ġcar rier
ĠSch r
Ġm ime
Ġdem ocr
N M
ä ¿
Bal ance
uzz y
kn ow
Ġcombin atorial
Ġnow rap
AUT O
}^{ {\
Ġsuperconduct ing
' ></
Ġf printf
ang el
Pub lished
Ġanim ated
of ill
IT EM
label Element
ro se
ĠAct ivity
ĠVis it
Ġcon form
ĠL ew
rel ations
be havi
Ġ ])
ĠM ah
rob ust
he tic
v k
Ġafore mentioned
ne ur
Ġpr ono
g host
Ġload s
G lyph
C redit
N orth
may be
) }}{
}=\ {
ĠC lin
s ight
Ġc pu
on ing
me as
+ =
Ġf atal
ĠN A
G PU
ĠR S
Ġgra de
Property Name
Ġt ur
Ġmu on
h dfs
Ġsk ill
Ġescap ed
Ġc up
Ġde coded
commut ative
7 50
B son
spect ral
Ġwire Type
Ġp ow
LE T
S IG
Dem o
=" .
Ġu id
w m
pre sto
M g
ĠMod ern
l abeled
Ġsp ending
Ġsymp toms
Ġhost ed
Ġillustr ation
Ġsp anning
ĠH an
Ġnot ifications
Â Ģ
Ġspe aker
Place holder
AM D
Al ready
sp ro
ĠLI ABILITY
ylvan ia
Ġrel ating
ĠAdmin istration
S af
contain ing
Ġdown stream
Ġcontinu ing
Clean up
] =\
Qual ified
Le af
Term s
ĠUpd ates
ĠW o
Ġacqu ire
ĠSt ation
re name
H over
Ġsuc ceeded
register ed
ĠB O
Ġt abs
Ã ½
Ï Į
ĠPh one
taint y
is EqualTo
me try
ĠL ength
Ġb b
Ġret Val
ĠFe atures
dd dd
ustr y
l k
Ġen abling
b urn
s ites
Perm alink
Ġadvert ising
gr p
o ured
ĠProp Types
Ġmanag ing
y outube
ial s
Ġfound ation
parent s
h us
Ġ" #{
Full Name
in herits
Ġd yn
Ġrecur sively
l ighter
Ġup coming
pg f
red shift
ĠHe art
h anded
36 5
Ġd rum
Det ection
accur acy
>{ @
pt on
nav Bar
Ã© e
Ġrel ay
k ill
ub ect
Ġp ray
be en
'' '
Ġjust ify
)\ ;
el le
15 00
ĠT CP
SY STEM
Ġen force
){ $\
F lat
ĠL arge
15 6
Med iator
Ġ` --
pro cedure
g al
int on
J y
LAB EL
Ġgrate ful
( |\
Ġpointer s
)} +
CD M
Ġeigen states
Ġm ismatch
Ġab and
clus ively
re start
Ġlo ose
S parse
DE SCRIPT
Ġmultiplic ative
ĠH ong
ĠCOMM AND
remove Child
(" ")]
Ġsuper Class
Ġpul ses
Ġthought s
con nections
border ed
tain ment
Comp uted
ĠRes Net
ĠJer sey
Ġtab index
art icles
Ġcont rovers
Ġmark ers
Ġs q
Ġb io
ĠN atural
Set ter
ÂĢ Â
Ret rie
ll ll
Ġtrans lations
Ġph p
Ġob ey
Ġtool bar
ĠC irc
Ġs ad
te ctions
En cryption
ĠS yn
back s
Ġ$( {\
Byte Buffer
Ġv oting
Ġreal m
B LE
on ia
ig a
**** *
st atistics
Ġg ained
Ġlif ecycle
Unexpected EOF
ime ter
Ġscal ars
Ġtrip let
tw ig
Corre ct
Ġes lint
Ġover lapping
PR I
ĠQue ue
> @
C Y
T urn
Pi pe
ĠVAL UE
RE PL
ĠN UM
Ġbase lines
id ad
co us
W ho
ĠM ouse
op eng
P FNGL
Proto s
ĠDe ad
Ġs pars
Ġyield ing
Ġm ile
im ir
Ġdat abases
Ġm outh
cc i
ubect l
def s
N ay
ĠE E
Ġle tting
ap k
de ad
Ġbe ar
60 1
Ġmount ed
ĠH ave
M ARK
position s
\% )
co ins
' |
TRAN S
x sl
s child
m h
T aking
V tbl
W ER
Ġprevent s
ì Ŀ
Ġg ateway
PRO GRAM
Result Set
H alf
'' (
pm od
then Return
Ġper ce
EX PECT
Ġcomplex es
re leases
ĠU UID
ĠAir port
part icular
H ours
Ġtrack er
source forge
^* $-
et ics
Ġsure ly
ĠS ocket
Ġconj unction
sc ious
for um
az e
Ġb ump
Ġtra ding
Ðµ Ð»
âĢ ī
Ġut ter
Ġaz imuth
H ierarchy
Ġl n
CUR RENT
il ers
class path
Ġimport ed
Ġanalog y
DO UBLE
= #
g allery
k pc
Ġan imate
Ġm ysql
Te chn
Ï ī
ĉĉĉ Ġ
s ized
Ġh abit
A rm
CALL TYPE
lap sible
ĠWrit es
l Vert
unt ing
co ord
}, \,
ĠK al
success ful
ow ed
app oint
/ ?
Ġst orm
ĠF UN
Ġ> ::
ot ype
ell s
P AT
er un
S ING
per missions
Ġr ising
ber ry
H i
ĠD om
o pher
ĠT aking
ist a
Ġknow ing
Ġimp er
Ġmag azine
ht m
imp licit
V B
Col s
Err UnexpectedEOF
ĠFIX ME
D TO
T abs
Ġsort ing
Ġdecre ased
b box
è¦ ģ
ĠSt ill
)^{ -\
ĠFIT NESS
ĠPy Object
Ġencour age
ĠM ail
ĠC ro
Ġalleg ed
}) \\
Ġext ensively
P referred
(" ",
, %
ĠG OO
19 3
Ð°Ð º
ĠSw ift
rop ical
) ](
ĠTest Class
friend ly
b at
Ġe u
P LAY
m ul
Ġb ol
G old
Qu ote
Ġsl ots
fore ign
Ġlink ing
ĠO x
Stream ing
ur ious
Comb ining
In strument
ĠE r
up pet
Ġbeh ave
ĠNe umann
Î ¬
arr Index
continu ity
Ġw aste
ud o
Const itu
ĠTh anks
Ġag reements
uck s
L atest
Ġr t
lat ex
Ġworld wide
ĠM R
comp ression
Ġcar ries
high er
Bl ur
ĠL S
SPE C
ĠT er
Ġstatist ically
k j
ĠST ATE
S ep
× ľ
Ġw p
19 67
Ġent ers
reat ment
User Id
Seg ments
Ġs igma
Ġback wards
Ġens uring
ĠC redit
comb ination
E r
det ach
ĠAdv anced
Th ird
ival ent
}= {\
45 6
comp let
exemplar City
B UT
lo be
Char Field
C artesian
Rep licas
rece iver
Ġre levance
ĠR ole
Ġm im
Ġretrie val
int roduction
ĠN V
ĠC LI
ann o
Ġbi ological
Ġcheck point
wall paper
ĠPro xy
ĠCh art
ĠMET HO
+ |\
RO C
Ġmin ing
Block Index
][ <
Ġscatter ed
pair s
ĠC os
Ġcyl ind
ĠT ax
ĠF O
port folio
Ġconf usion
Ġv endor
ref lection
ĠCurrent ly
Ġwit ness
Ġdist urb
Bl ank
Ġp as
ĠMe asure
name spaces
Ġlet s
ses sed
Ġsimp licial
;& #
Ġgre w
U tf
ĠC over
Ġfight ing
ĠBrown ian
Ġadi abatic
Ġincorpor ated
writel n
Ġget Default
Ġsing er
Ġbackground s
ĠE dd
"] :
Ġphon on
- {
ol er
Ġassert NotNull
o cal
bo unce
ĠM os
ĠW is
vi ct
ĠInd icates
ĠL oc
-\ !
Ġhard er
Ġparameter ized
ĠSE LECT
S izes
f ork
ut ility
Quant ity
s With
Ġdifficult ies
Ġjud ge
}^{ -\
ĠS ame
Ġisol ate
Ġ- (
Compar er
Ġgl ad
s low
Ġmonot one
ĠR og
REF ER
F lu
Service Model
scal ed
SE PAR
ĠJo in
b k
Ġv irt
neighb or
Ġt t
u in
m ol
Ġrecommend ation
ĠY ukawa
target s
re cent
init With
e ah
out s
N ational
s ensitive
Ġcap ac
M usic
23 5
Ġfriend ly
ĠSecret ary
D N
t oday
Ġb rown
set counter
wik imedi
Ġinnov ation
G ap
N eeded
c rc
ann on
Ġdiff use
ĠRe place
Ġ$ +
Ġm utable
li u
os ities
ST AMP
Ġe missions
Sec ure
Ġho uses
Ġartifact s
DOCK ED
ĠE nt
ĠR G
Ġme mbrane
15 3
)\, ,
an iter
au di
qu is
ĠW allet
Ġreser voir
Ġ$( -
er ving
Ġd z
get All
ĠS PE
Ġdrug s
D ummy
ĠCon trib
I ll
ser ted
Is Valid
ĠURL s
Ġmill ions
ĠN LO
=\ !
l ishes
w g
std lib
Ġwor ry
Sc anner
ĠPRO VID
et aphitpc
k ed
å ½
Ġser v
Ġgradu ally
Ġappoint ed
},{" ./
f req
found ation
ĠDeterm ine
is i
Ġle ver
ĠNot ification
F lex
D H
Assert ions
h alo
Sco ped
Ġrep orter
ĠConst raint
S un
c C
Ġun ified
ĠPri ority
enta ho
Inter pol
ĉĉ ĠĠĠĠĠĠĠ
ĠG B
N i
Ġa str
is olate
me chan
s af
ĠCon figure
Ġd p
comp at
Tra ining
ĠGit Hub
Ġas semb
stud y
eg et
Upper Case
temp ts
insert Before
Ġper ipheral
Ġg enu
st ory
ĠE dition
ĠK a
æĪ Ĳ
ĠD ifferent
Project Path
D ynamically
bs ites
ĠHand ler
ĠDen ote
r ss
× ¨
ĠDo main
de vices
Ù Ĭ
Ġdome stic
A ware
M appings
X HR
upload s
D uplicate
M Search
Ġfru it
W P
ur acy
CT OR
Clear ly
iv a
Ġcla zz
or o
ar ab
B IG
Ġcheck box
Ġâ ĨĴ
OB J
Ġminim a
is c
Aff inity
}) /
assign ment
Ġb link
err no
k v
it i
ir q
Or g
Ġpro hib
ĠP assword
é ¡
tr ac
K w
Comp act
char Code
ĠArt icle
Ġm as
Ġgra ins
16 2
ĠC WE
co hol
ft p
Ġcol s
rowe ak
ĠGener ator
top ology
re pre
dat ab
H ot
Ġsol ves
0 11
Dro pdown
work flow
ee per
S outh
t pl
ĠCh air
ĠT S
est imated
3 30
m alloc
U ART
y u
Ġover write
st ors
w ere
| ^{\
ĠL A
Ġdomin ates
IS ING
Con current
Lock ed
Ġsurv ive
R ing
Ġpul led
Ġpar adig
Ġserial ization
ĠB rian
Ġste ep
ĠExec ution
se lenium
SCHE MA
ĠS USY
Ġport folio
l ene
ĠF ord
Fix tures
ĠAg ency
16 7
Ġret val
ap ex
ĠB ind
Ġdetect ing
D ifferent
Ġvisit ors
P et
Ġ& =\
Ġev olved
Ġcorpor ate
enn es
ĠB ul
Par cel
Ĺ ãģ
Ġperman ent
ĠL em
Pack ages
enn is
ĠH ermitian
ĠCal endar
B roadcast
jav ase
ep och
y z
L ab
"> Â
pack ed
Ġcon cluded
Ġval ued
PHP Excel
ĠColumb ia
serial ization
Ġrepeated ly
Node Type
scatter ing
(' ');
Ġ' );
per ience
ĠD P
ig ible
pis ode
Channel s
ential ly
B ay
ar ters
Ġon Click
Ġexha ust
Requ ires
Ġdisc ip
ĠCan not
re peated
,\ ;
w l
Ġsh ard
spec s
Ġgeome tries
Ġcon ce
)}{ (
Ġme l
x r
Ġle ct
no op
ĠFile s
Ġoff line
ĠPar am
mar shal
Ġcode c
set State
ĠAv ailable
\ #
ĠBo ol
Pl ane
ĠMer ge
Ġhal os
To o
18 7
ns ylvania
c rop
ĠLapl acian
Ġc ab
unit test
Ġdemand s
Ġrev olution
ĠTe ch
X Path
Ġsub tle
Ġappro val
remo ved
e ither
ĠTra it
; ",
Ġport ions
ĠEd it
] -
h b
Ġcon temporary
ĠCh ain
ÐµÐ ¼
S ynchron
Ġcom ma
\, $\
phi a
Ġlabel led
Require ment
ĠSing apore
cord ova
Ġcamp us
W I
id ity
ĠB R
ĠH ad
Ġad res
ure au
get Int
Ġins pection
ĠÎ ¼
Boot strap
Ġance stor
Ġs ans
sp rite
ĠW at
hen ce
Ġvisual ization
Ġsub spaces
ĠV en
pol ynomial
L G
un ov
Ġcontract s
Foot er
/ :
l lustr
au er
mid t
ĠA PP
ĠD ra
Supp lier
ĠHarr is
V elocity
de sktop
Ġi prot
qu bit
bo lev
xy z
UN IF
ill ation
Ġdis ag
ĠApp end
ĠC op
nu mp
activ ation
Wait For
Ġpl astic
ĠSh are
) &=&
Ġch ip
@ @
A cl
Ġv a
Recent ly
Ġda emon
ĠFr ont
ĠP rom
F V
ĠB ru
Ġint el
P TED
ĠS quare
Ġanten na
Ø ¨
SS ING
raw ler
i ph
$\ {
Ġther apy
ĠW ales
50 1
Ar c
Command Line
Ġlocal s
Work ing
Ġrestaur ant
ide al
Ġcosm ology
Ġtunnel ing
Ġb ott
sh im
mock ito
ĠB us
ne eds
Test er
Ġhealth care
ul sion
Y ea
In side
Ġsur prise
Ġmut ation
ĠW ik
ĠAs ian
Ú ©
Ġaddition ally
' ><
Ġdist ant
Ġrep lica
Ġhapp ening
screens aver
C atch
t uning
Î Ń
)/ (
account s
}{ %
u ation
Iter able
Ġpro ud
ĠI MF
ĠProv ides
al ong
Ġm unicip
"> )</
Ġreli ability
comp atibility
pro fit
ĠF un
B V
ATION S
ffic iency
EN O
B on
="@ {
ĠC ru
build ing
ĠR ound
A pr
ĠSe veral
Ġbe an
0 12
un ge
in finite
navBar Cell
Ġnot able
h on
w ant
pro files
ST ER
END ING
q i
bre ve
ĠSta ff
ĠAnd re
azel cast
Ġactiv ated
Ġcounter parts
re duced
H u
elf are
o ft
Ġbind ings
ãĥ ³
arn ess
ĠRetrie ve
Constitu ency
Ġp ix
ĠId entity
Ġhighlight s
Ġelect rical
è §
im ath
ĠF M
vis ited
; ;
W arn
"> {{
Ġ[ $
orth and
ĠL ater
^{- (
AL PH
Job s
cess ion
ĠPro gra
)} +\
Ġreview ed
ĠTho ugh
Ġin formed
append To
Ġsl ave
ĠAng ular
Ġbeaut y
ĠTest ing
fac et
ath y
)\ )
Q Name
20 6
ordin ator
Ġsmooth ing
es ium
') ),
Ġloc us
hib ernate
trans lated
è¡ ¨
ref ptr
ĠF lo
Ġm g
Integ ration
- )
Ġt p
T B
D ark
J oint
ah n
) ],
ĠP ot
q view
Ġ# ##
Sc enario
Ġfile d
am ar
Ġf lood
thon ormal
m os
ĠR yan
Ġautom ated
f loating
Acc eler
Ġs que
Document ation
st ability
ĠP ra
Ġsome where
Ġeigen vectors
64 0
c andidate
)) ]
Ġoper ates
ĠLL C
Mark up
ĠB ridge
ust on
ĠK ent
ĠZ one
is Null
Ġsco red
su cc
Ġcontrib uting
D G
p seudo
ĠP ract
ĠO t
OO P
C fg
ĠĠĠĠĠĠĠĠĠĠĠĠĠĠĠĠĠĠĠĠĠĠĠĠĠĠĠĠĠĠĠĠ ĠĠĠĠĠĠĠĠĠĠĠĠĠĠĠĠĠĠ
Ġ\ ;\;
Ġnom inal
c ation
Ġst em
SA FE
Ġf t
ä½ ¿
ip ients
Ġde sirable
Numer ical
Rest art
ĠSTDMETHOD CALLTYPE
ĠP in
Con trib
40 3
ag ues
reg exp
ĠAn th
track ing
Ġconcent rated
Ġl as
Al location
f lix
er ase
ak ov
Ġrandom ized
Ġsymbol ic
ME TA
Icon Error
ĠN orm
}: =
aci Ã³n
Ġme ets
Ðµ Ñģ
Display Name
0 30
Ġtell ing
( ...
Ġth resholds
] ):
open ssl
Ġnorm s
Ġcheck er
)= -
o S
Ġf rozen
Ġclass ify
key down
Ġbl ur
b io
recur sive
Recorded Vote
Ġsubstr ate
Der ived
Ġc ameras
ĠB attle
cell designer
Scal ing
Ġful filled
2 33
mem item
Ġcomputation ally
g dx
as cii
ud son
Ġwind s
Ġvic inity
\ &
DE s
m ad
Ġacknowled ges
Ġneighbour hood
Ġb anks
Ġattemp ting
T K
Offset s
b right
)$ \
mm ode
Ġconf ined
Ġun usual
(' %
In herited
Ġneg oti
Comp any
Ġon set
Ġjump s
f box
ul iar
> #
norm als
ĠCa pt
coll ision
====== =
Ġjoint ly
Ġhistor ic
] |
Sche duled
Ġexplo sion
Ġb aby
ĠK r
RI X
Effect s
Unmar shaller
sor ption
Ġscient ists
Ġcontrib utors
Ġpass age
Ð½ Ð¸
ĠC OR
$ |
Ġ` _.
raph ic
Ġqual itatively
v d
LO T
Ġconver ter
Ġ ride
Ġdialog ue
Ä Ļ
side d
ĠPhil ipp
av ail
g log
': '
)= -\
Ġcomp ares
ĠTra de
s outh
Ġdep osit
Ġpat ent
Ġpropag ate
Y LE
v iolet
adv anced
Ġd uplic
U OG
ĠH R
SE D
ren a
ĠMajor ana
Linked Library
ACCE PTED
Ġpres cription
Dynamically LinkedLibrary
Ġ($ (
if mmode
cur ves
Log s
}) _
RE SET
s ynchron
T oday
ĠS park
Ġrecommend ations
Ġc rop
th us
SP H
i est
Ġreason ably
ĠL STM
con clusion
Ġformula e
US BC
Th anks
ho o
Ġm ine
Ġteach ers
ch anging
f ib
Sw ap
Ġcondens ate
Ġde bt
Ġent r
Ġfru str
con version
L B
ĠName d
ĠMultip le
æį ®
remove EventListener
Ġt uples
D Y
In ventory
pre ceq
Ġshe af
Ġ' .'
Ġel abor
Di agram
Lif ecycle
l umin
Ġh ub
Ġnot ions
Or ganization
Ġcor pus
Ġarm y
Ġmeson s
Ġdevelop ments
Ġf ed
lim sup
ĠI sing
libr aries
Ġst ake
analy tic
Ġde mo
oc key
small matrix
- '
20 7
Pub Key
I ZE
ĠExec utive
F ULL
h size
Ġso ught
Ġexp ose
k le
Ġb ilinear
{$ {\
ar x
c ot
eg u
Ġvot ers
A jax
J av
S dk
ĠL ower
_* $
X T
li est
h ive
c ube
æ Ģ
Ġsl ider
C rypto
{ +
Ġpert urbed
Ġten ant
Ca pt
}$. }
in ator
A ir
is lation
ĠVAR CHAR
Ġdec line
Ġirre levant
Ġlabor atory
ĠPr ince
Ġag ric
Ġfre ely
Ġheur istic
Ð ±
32 5
Ġrec ipient
Ref s
Ġaccount ing
IconError Encoded
id ge
ĠS plit
ire ment
EM ENT
ĠCh anges
ĠB all
æ Ŀ
Y M
ow nt
() (
Ġpl enty
Ġwest ern
z end
ĠC UR
Cl s
Ġbe ams
ob servable
IG H
comp leted
writ able
> {{
p entaho
} <\
Ġpart on
Object Type
Ġlo go
Ġappe al
! ');
l antic
}}{ {\
Leg acy
Ġor thonormal
iner gi
ĠM iller
Browser Detector
C PP
}\ ]
}} ]
id ually
cast le
et imes
PT S
fix tures
M otion
Ġd uty
organ ization
â Ĥ¬
Ġp ec
ĠĠĠĠĠĠĠĠĠĠĠĠĠĠĠĠĠĠĠĠĠĠĠĠĠĠĠĠĠĠĠĠ ĠĠĠĠĠĠĠĠĠĠĠĠĠĠĠĠĠĠĠĠĠĠĠĠĠĠĠ
real m
ĠS Ne
17 1
Ġconn ector
Ġnav igate
ĠOpen SSL
MEM ORY
Ġsit ting
>& #
Ġdes ire
Ġres ort
ĠM N
Ġcommun icate
per f
sc enario
Click Listener
Ġun bounded
`` .
ĠOr gan
ĠS equence
19 64
Ġb unch
Ġde ps
ĠS n
ĠAss uming
Ġs weet
Ġflex ibility
AT FORM
id i
=-=- =-=-
p ension
M sk
E A
n ic
Ġsoph istic
ast y
\ ",
K P
ast s
Config s
Call able
Ġelection s
on Error
st y
experim ents
ĠN avy
ink s
field Layout
unc er
re duction
Ġcommit ment
ĠFl ash
UN IT
Ġdisap pe
ĠPl ant
Inter pre
OPTION S
Ġro oms
nes ota
Ġc art
be a
17 7
C tor
v f
ge ometric
' <
Ġtable Name
ĠA CTION
ign er
Ġw s
du ate
lem an
Data Set
Pre pare
Ġwalk s
ag onal
CHAN GE
Ġsc oring
G i
Ġide als
Ġalbum s
}} },
ĠA gent
DE S
SO L
Ġmo untain
ĠHop f
e fficients
); \
ĠU lt
ĠCON STRAINT
Ġappropri ately
Ġinflu enced
tan h
Ġmanufact uring
N umbers
ĠDe veloper
e i
ul ators
R azor
ĠE W
Ġcont rolling
Ġachie ving
Ġdis connected
ä ¹
Ġtrunc ation
* -
cont rollers
scor lib
TH ON
"> .</
Ġout standing
Ġtra pped
ä ¼
ĠL ind
eqn o
D an
TYPE S
press ure
j unction
th ur
}/ {
N an
Ġl y
Ġvalid ated
\ (
a ud
r ace
ĠB BC
scri bers
Cell s
Ġne uro
G ate
ethe less
ĠT I
the w
class name
ĠTe le
Ġhor se
un checked
------------ ---
Ġpartners hip
un set
Ġconclude s
List View
R ename
Ġtext area
Up grade
separ ated
Ġlic enses
Print ln
S ensor
* ="
ĠNot Implemented
ĠInter rupt
Ġc t
ag en
Ġfib ers
May be
subscription Id
emph asis
17 4
Ġb ow
ST ORE
Foreign Key
set Timeout
CT L
Word Array
Ġd Ã©
T OT
ĠW ang
List en
an other
Ð¾Ð º
ĠChampion ship
P aul
erm ost
AC C
ĠIll inois
D J
Ġa jax
limin aries
: {
par ity
ĠMon th
Ġ ic
Re fer
Ġadult s
de tection
** /
ĠH ay
Se ek
Ġsimultane ous
ĠScot land
ĠBoot strap
, [
col sep
n ie
ĠF o
sh aped
Mar shaller
ĠM T
)( (
Ġc aching
66 6
per mal
UT ION
ĠBr and
l ater
start ing
D WORD
Â ·
Gu ide
Hy per
" <
}) +\
vers ible
h ind
Ġto ugh
View er
ee a
Ġrank ed
Ġblock ed
ĠComp lete
Ġisol ation
ĠComp uter
Ġcy cl
Ġ; ;
A lex
unt il
... "
Wh itespace
V iol
Ch an
RE SOURCE
Ġ? ?
ĠI de
Prop el
G uest
Byte String
W ar
@ \
Ġparse Float
ĠEast ern
up grade
20 9
Ġ{} ",
Tra it
x ies
Ġ" ]
anc ies
_+ (
oper ating
External ProjectPath
b ay
= */
el m
Ġmob ility
t ro
ĠRed u
em ission
u art
ex pl
ve al
Ġag encies
Ġcut ting
bal anced
Ġd d
Ġres ist
A u
w ifi
up al
apid ata
Inter action
No Error
it les
de cess
19 65
Second ary
P ic
ĠE R
Ġrelax ed
Ap is
Ġz ones
ĠSup reme
Ġp ic
Ġst amp
28 8
ĠS cale
A gg
t ow
}} [
Ġaugment ed
XXXX XXXX
br anes
Qu eries
Ġemot ional
ast ro
Token izer
17 8
ĠC K
w ich
ĠE ither
ig o
Re peated
19 6
Ġexec utable
SH IFT
M vc
y ers
ĠH u
"> :
Ġincl ination
ed mo
Ġbro ker
ĠI NS
hand les
sco ped
Ġperm utations
Ġinvestig ations
Un ited
pe ek
Q C
Ġsp y
)\, .
Ġp lu
Bo ost
b ec
Ġb ipartite
Ġinvest ors
ĠP ER
17 9
wikimedi aui
A dapt
ĠN FL
ens en
Ġpop ulate
Dr ive
Ġde letion
ĠN ick
ĠPo incar
ĠT imer
ĠC MD
ĠM AC
PR IV
C ENTER
w r
Ġse asons
ĠDist ribution
un stable
ĠC ancel
ĠD uration
16 1
close st
Ġcontact s
: _
n ick
ĠA venue
ĠHot el
lu sters
ask a
hed ron
ax es
W ater
CI AL
ĠImp lement
)} -
go als
Ġw el
View ById
Ġref ined
ĠMat hemat
ĠD avis
ĠTor onto
linked ExternalProjectPath
Ġm b
sh rink
5 50
ĠRe ader
Ġsynchron ization
Qual ity
Redu ce
Ġco uncil
built in
Ġview ing
Load Balancer
Ġhol iday
enn y
ĠWith in
T om
Ġf unded
Ġre name
ĠG er
Ġrem n
Ġmultip lier
render ed
Or Update
Ġpol ymer
f ine
ĠC ancellationToken
Ġr pc
Ġregular ly
Ġan notated
E urope
ĠS afe
get ter
Ġdomin ate
$ [
com bo
ĠAnd erson
g ement
Leg end
if ur
os able
rg ba
LAB LE
V ERT
Ġapp ended
r h
Ġunder go
cccc cc
ĠPar liament
ĠEn umer
ĠQuant um
P ix
| $,
Ġra m
Feed back
Ġ< >
CONTRO L
Ġb s
Ġset ter
ys i
Ġmanip ulation
on load
19 1
Ġden ominator
Ġeng ines
ĠPak istan
Ġis Array
Ġe g
Ġdo ctor
\, (
ĠFin ancial
Tr ust
aaaa aaaa
RE SP
ĠH al
Ġdata Type
Sel enium
ĠImmutable List
Ġfl are
ĠDo ug
ĠO Auth
ng doc
Ġa pt
H is
Ex ports
order ing
ĠMo on
iter ation
ĠA MD
Â ®
pri or
N ER
he m
el led
ĠUs ers
Ġre versed
re pr
Ġs f
19 66
att ack
x si
Ġbeh alf
lik elihood
Ġiterate e
ra ises
Ġsho oting
tain ing
Inter ceptor
Install ation
up iter
ä ¾
ion ization
Ġkey words
Ġg c
stream s
Ġuncer tain
Ġball s
qu asi
0 15
:: __
}) ]
ST AR
Pre parer
Ġbi ased
S equ
Ġar cs
dist inct
n om
Ġcl im
se a
Ġse cre
ĠSH ALL
Ear ly
f re
Ġthe ad
uit ively
x z
ol ated
Recur sive
un iversal
Ġgra b
Ġfri ction
ĠINCL UDING
g overn
ha o
Ġcons ent
y ll
à¤ ¾
) <\
ĠW ars
Ġin n
Ġar ts
27 5
ĠDat aset
19 4
ĠT al
IN X
Ġsw im
network s
o ma
Ġqu art
st raction
ĠM ill
Runtime Exception
Ġp lug
Ġspin or
Real m
ĠP T
dir s
Ġsub mission
ĠFoot notes
en ius
lo on
Par sing
s andbox
ĠPerson al
ĠAuth ors
ĠP atch
(\ {
Ġdec rypt
x path
eps fig
ites imal
q p
ĠN L
Ġk il
j peg
ãĤ ĭ
d ll
ĠBy tes
] &
st ab
ĠÎ ±
ĠDis ney
ps y
ĠN i
Ġk illing
Ġnode Name
su c
E W
W it
ĠZ ero
hard ware
tele phony
ent ang
un tains
ĠMo unt
Ġtermin ate
P ing
m ine
pp le
{( -
Ġstart Time
FI RST
SH OT
Ġtrust ed
M en
Ġcap s
p ip
ĠWAR NING
Ġund o
permal ink
Ġas ks
Return Type
ĠRed istribution
18 9
Hist ogram
ĠS ong
Ġ} }</
K ube
Ġrep air
nav igator
Decl ared
ĠUn known
Ġspect roscopy
Ġfil tration
olog ist
Comp osition
Con ver
Ġstri ke
es lint
ĠPROVID ED
vers ation
} ~~
arg c
C ritical
pro logue
ĠCap ital
Ġwonder ful
Http Servlet
Ġsubst itute
Doc uments
H op
Ġ` <
ĠDA MAGES
lo ys
Ġresidual s
ci ence
Ġsell ing
Ġrad ical
Ġimp ressive
ĠFe ynman
23 7
E s
on der
NN s
Ġpuls ar
ĠH lo
ĠCon tains
F LOW
SN AP
pattern s
Con d
her o
0 22
Start up
Z hang
em ark
ĠR FC
ĠD ream
Par sed
Ð¾Ð ³
Rout es
d ma
prop ag
B ubble
Ġal phabet
Ġsub algebra
ffic ial
pro ton
ĠSt at
qu eries
ĠWh it
b ian
new page
S ock
Ġrep lication
Ġlogarith m
(" {
Ġequ ivari
equiv ari
Order ed
ĠDemocr ats
pers istent
A ES
Ġg ar
ang ent
Prov iders
ĠF W
g am
comp any
ĠSch warz
mp son
ak s
Min utes
ĠPr ice
Ġt ap
ĠK n
Ġblock chain
inter sect
SECON DS
ĠH om
Read able
Ġtalk s
Ġcour ses
to UpperCase
con sin
Ġi e
Ġdist inction
Ġprepar ing
ĠF ellow
N othing
Ġ*/ ,
Inst ead
Can onical
Ġtw enty
Ġactiv ate
Ġcont rollers
Ðº Ð°
cyc les
ĠCom ments
Ġoverrid den
ĠS ov
Ġenumer ate
Ġ$< $
ed y
Block ing
ET HER
} ";
Ġf asc
ĠĠĠĠĠĠĠĠĠĠĠĠĠĠĠĠ ĠĠĠĠĠĠĠĠĊ
Fac et
Ġ" ."
ĠF F
Ġtro uble
| (
M ig
ç ¤
_ '
Con cept
Ġsu cc
S py
Pol icies
Ġu v
Ġre load
Sing leton
Ġle verage
ĠB atch
E lect
Ġid le
ĠIN TE
} ">
Pixel s
Ġc rypto
Ġ" &
Group Version
Ġsens ing
Ġalloc ator
. :
å ¾
ĠDr ive
jac ency
R N
RE EN
40 5
mis c
Ġobser vers
Date Format
H am
convert ed
\ >
Ġ? ></
ĠA CT
quad r
Ġintegr ity
ĠRep resent
Ġjav adoc
SL S
Ġmand atory
ALPH A
alloc ator
ĠÐ½ Ð°
M u
Ġ" ../
Ġdiscret ization
ĠI ce
ä½¿ çĶ¨
ĠP RE
Ġrest ored
Activ ation
C e
Ġc ensus
Ġv eter
ĠCo unter
Ġener get
P ATCH
XX X
ĠOffic ial
Ġa imed
ENT IAL
im als
ĠTra vel
K er
ro oms
alth ough
WA IT
Acknowled gments
! )
P ick
ĠPen nsylvania
~ ,
ĠMark eting
ĠSum mer
Q Q
_* (
S leep
o led
t rees
N ear
TR IG
ivers ary
defer red
Ġc u
Ġthis Arg
Ġtest Get
M ixed
}) _{\
Ġwrit able
flag ged
(' $
ĠCOPY RIGHT
TER N
ĠL ar
ĠOb serve
Ġread able
K HR
ĠSto ck
b uff
Ġd ans
Ġint ense
G reater
ma kers
Ġpl aus
ĠF orest
lp Vtbl
vis ions
Ġ$ ('
Ġpro gen
ract ive
it is
ĠM inkowski
Âł Âł
ĠSt age
pixel s
b roadcast
Trans actions
As pect
ĠE ss
Ġaugment ation
B log
oc c
dot sc
Top ology
Writ ten
Ġcomb ines
encrypt ed
rm k
Mode s
Ne ed
ĉ ĠĠĠĠĠĠ
Ġ Ïĥ
ĠAll en
Error Message
ĠInst agram
multip ly
é Ĺ
Con sequently
Com munity
ĠEar ly
ĠH z
Ġarrang ement
ĠD am
ĠI ra
get Content
> ")
ic ious
ĠMag azine
ĠH tml
Ġtext s
show s
ĠS EC
ub a
null able
ĉĉ ĠĠ
ĠE th
ĠIgn ore
ĠR h
'] :
in fin
Ġm il
und o
Interop Services
ĠS ir
ĠM it
V L
get Bytes
ord ova
or able
ĠPol y
Ġenjoy ed
æİ ¥
Ġsub sequence
n ice
ï¼ ļ
Ġt uned
(" ");
who se
ĠLapl ace
ru id
Ed ges
document Element
Ġant ib
ĠRo ss
M Hz
lim ate
Fin ite
Ġsp oke
}| $
Ġentertain ment
v ity
Ġimpact s
W o
18 2
ĠĠĠĠĠĠĠĠĠĠĠĠ čĊ
Publish er
READ Y
19 7
ĠG M
MA IL
Ð°Ð ´
Ġbij ection
Ġin vent
-> ,
}) -\
Ġsol o
ret ty
Bro ker
A ck
Ġat tended
Ġexp ansions
Ġbehav es
im odal
4 32
ĠOffic er
ch ip
H our
ĠM UST
List Item
Ġmore over
: .
Ġgr ants
Access ibility
Ġso ul
ĠSt udio
Ġhouse hold
cho ices
res ume
ĠEmp ire
co vers
inst alled
SEPAR ATOR
T a
un shift
Ġpr inter
Ġstd err
render ing
Pol l
O VER
Ġcoup les
alo is
ow a
Ġen c
}^* $
ĠPRO P
Ġpass ive
isting u
numer ical
ess ions
Ġte en
ĠDo ctrine
mark down
Ġrelig ion
__ );
Form ats
decomp osition
Ġc x
ICAgICAg ICAgICAg
Ġpredict ing
le ter
SUPP ORT
) &=
Ġpur su
Ġsub div
Ġaccompan ied
Ġform ulate
ĠTerm s
Ġaccompany ing
re comm
Ġoccup ation
ĠSpe ed
ĠWe bsite
Ġlumin osities
}{ {
_* \
contains Key
Ġst mt
Ġsem ic
Ġcont amination
Ġaff ili
control led
Ġex terior
us b
Un less
Ġcirc uits
ĠEd ward
Ġsh ips
sim ulation
st an
Rep lica
ĠUpd ated
Ġn b
Ġgroup ed
err er
s izes
ĠP I
ĠTest Case
soft ware
Ġemploy ing
Ġquot es
find er
sur vey
Ġimp lying
Ġnumber Of
c ertificate
um ar
S ho
version ed
ĠCompar ison
Ġrel ates
Ġg aug
al ic
Ġ" @
Ġsp rite
read s
Ġlearn s
Ġso il
Ġde struction
ta ken
her lands
Ġbo ught
Ġsome how
Ġdeep ly
Ġp d
Ġgener ations
Ġdo se
Ġre ar
ĠC MS
App lying
Ġcha otic
ĠM ach
ho ma
Ġad vis
Ġs lices
ĠD river
cred it
(" _
ok ia
Ġde scriptors
t ens
appro ach
Ġsub traction
0 33
20 48
Ġf idelity
}} ^{-
Ġinter vention
uc ial
Ġeduc ational
ĠAt tributes
graph ic
P W
i ated
Edit able
ÑĨ Ð¸
Ġex clusively
di ctions
Ġloc ate
($ (
WE B
ĠA k
Co ordinates
2 90
) ^*
sp inner
li us
17 3
Ġcount able
Ġindiv idually
ĠS oc
ĠUnsupported OperationException
ĠS olar
r Vert
Ġident ically
Ġexpl oring
own ed
Ġgen etic
Ġh ate
Ġ+ (
s lick
t ier
ĠĠĠ čĊ
text Content
Spec ification
get Column
W il
Start Time
Ġmem cpy
ancell ation
rect angle
Ġapert ure
Ġtransport ation
D ll
return Value
re tr
ĠR ET
corre lated
ĠTrans fer
lo re
ĠR uby
Ġres erve
ND ER
yst al
incre asing
G rad
Ġu k
Ġd ress
Log ic
Ġsuccess ive
Non null
" })
ĠR C
Ġcomm ute
Ġor acle
r ust
s ensor
Ġsp anned
Ġmultip ly
L ag
Ġval ence
ĠĠĠĠĠĠĠĠĠĠĠĠĠĠĠĠĠĠĠĠĠĠĠĠĠĠĠĠĠĠĠĠ ĠĠĠĠĠĠĠĠĠĠĠĠĠĠĠĠĠĠĠĠĠ
Ġpres sed
id le
Ġobject ives
Ġspecial ized
Te ch
Ġsch olar
+ {
form ats
U IT
ta king
in struction
ile ged
RE LEASE
Ġt ied
Ġbe er
ĠA mb
o val
map red
rob enius
Ġabsor bed
INTER FACE
Prec ision
Ġbon ds
C XX
Ġh ur
Ġassign ments
bad logic
Ġde e
Code Attribute
NS Mutable
de co
EX PR
parame tric
ir s
Ġcle ared
Ġt ex
Th rift
Ġb acter
Ġ// $
df n
Ġf av
Ġvar char
Ġt iles
ob servation
poss ibly
Ġpart ly
Ġaccess or
bes gue
m gr
il inx
ĠEX PRESS
Ġbro ader
de e
X iv
Ġw ine
Ġfe es
Ġna ive
^ (
end ment
table Name
Ġvict im
Adv anced
iss a
/ ${
ĠPerm ission
With Context
initial izer
B ank
G edmo
Pl acement
b our
Xml Element
Git Hub
ĠThe me
ST ACK
\/ }
acknowled gments
IC ES
$/ .
"> =</
mat rices
ĠB oltzmann
di amond
[ -\
Co verage
lo dash
Ġshort ly
Ġelect roweak
Ġpec uliar
i am
IR Q
)( -
ur ers
el o
Res ume
plus plus
Ġacceler ated
Ġb one
}= (\
Ġre wards
$. \
S en
Ġsing leton
he v
ĠE L
An ce
Ġ&= &\
ĠGENER ATED
ĠFore ign
rr rr
PE D
ĠMov ie
d ney
ist ically
Ġecon om
ĠCustom er
Ġdra ma
L y
\ },\
est yle
Ġhydro dynamic
Ġcol le
be it
Ġindic ation
Ġconduct ance
Ġbo ys
alax ies
ig s
bo ve
Des ktop
Ġp k
assembly data
Ġpropos als
restrict ed
ĠLimit ed
ic ating
ta stic
O H
URI Component
F ER
cit ation
REG ISTER
b anner
ĠK now
Ġs oci
Ġrank s
Ord inal
ĠTh ank
}{ |\
v node
di jit
æĸ ¹
pre pend
Sto pped
Ġthous and
ĠK it
Ġsp ans
Ġth re
Ġpoor ly
ymme tries
ag le
x p
us hes
date Format
Ġvis its
ro ck
Ġn pm
ĠB ow
block ing
Ġcell ular
C ID
ur ities
Co ords
ĠDe ath
Ġv ir
ĠI ssue
+ (\
P V
r anges
tr ust
mon ot
Web Kit
Ġwh ilst
Ġmix in
eh icle
ĠSt one
Ġo c
file path
Ġdis count
Or Default
Re verse
ĠSan ta
is String
Ġdef late
Ġoverride s
l ane
Class Loader
pos al
uby te
ĠC amera
Ġ@ @
out heast
OR IZ
ĠGL boolean
_ "
Ġ( -\
Ġr and
ĠSim on
Ġcame l
adv ance
Ġh olog
Ġfit ness
w c
Ð°Ð½ Ð¸
ĠT IME
l ad
Ġtr ivially
- |
r isk
SE QU
reg on
Ð½ Ð°
Ġtermin ated
rib le
GL int
BUT TON
ĠG re
ĠInt ent
W heel
solution s
Sub scribe
ĠM pc
}} ({\
) ")
ar ma
pres erving
Ġimportant ly
Author ity
Ġrare ly
L earning
er ver
Ġcol ours
ĠWh ich
j ud
ass o
ĠM Hz
ĠGe ometry
ĠEl se
3 45
Con vention
ĠL es
ber ta
Ġun def
Ġdis connect
Ġsp o
Ġa udit
Ġentang led
A IL
D to
Mod ifiers
decor ate
y ang
Ġval ley
[] {\
ĠLand au
ing roup
ĠD T
pag er
Ġextrem al
ç¤ º
up port
ĠColor ado
R V
ar ct
sc ience
, {
ĠSH A
Den ote
Ġget Value
From Range
++ ){
AT I
INT EN
Return Value
Ġspeed s
Ġm useum
ĠB ol
ĠPro tection
Ġfail ing
Ï Ĩ
ort ex
Ġmultip lied
ĠSe ctions
Ġoption ally
}) (\
Ġste el
k afka
larg er
Buffer Size
Ġsil ver
è¡ Į
net t
Ġestablish ing
) ::
dr ive
is ible
ib lings
Ġi Phone
ĠAl ways
ĠIS M
Ð» Ð¸
res izable
Ġcomb at
ap ing
Ġbuffer ed
Type Info
che l
Ġp ed
R ating
C y
c ms
Ġ ë
an imated
ĠO ntario
dd ots
ĠR EQ
Ġnav igator
Ġqu ad
if ace
Of Type
v ard
Ġthe mes
ĠT en
add plot
Ġlat itude
amb igu
Ġpay ing
ĠMc C
Ġh i
ĠDeterm ines
N Y
rest riction
ĠRec ently
Ġst one
Ġweek ly
Ġaffect ing
ĠGovern or
) &\
c A
})- (\
Ġsophistic ated
Ġr aces
Ġen emy
ĠStud ent
ĠComp ile
Ġdecomp osed
. ).
r df
it elist
ĠH ER
bo urne
Ġterm ination
magn itude
ul sive
Ġwe apons
Rel ationship
æ³ ķ
eg as
Ġtal ent
In Progress
Ġdel ays
not ice
ĠPer form
H K
h ours
Ġvalu ation
d R
http Response
ĠB lu
uk i
, -\
Ġiniti ated
Ġdef ic
ĠAR ISING
ĠR R
Ġreg ulations
ron o
Ġl ane
Ġk o
Ġed ited
Ġemploy ment
ĥ ½
ĠIllegal StateException
Ġkinem atics
+ '
Ġst oring
k an
definition s
Ġresid ue
ĠLa ure
T ilde
Ġa wards
or ce
Ġde tections
Ġtransform er
Ġrg b
ang ers
T riv
Ġob sc
ĠIn nov
f name
se ls
PI C
mark ed
Ġrot ations
I ss
ĠOper a
Ġarrest ed
Ġdeform ations
Ġre tained
Ġgen es
ĠOx ford
Ġ` .
Ġskip ped
Ġconst itute
Ġurl s
vi ction
ĠGR B
ĠLI ABLE
f k
ãĤ ¹
Ġspars ity
e o
ap or
Ġru led
H PP
E lastic
Ġadequ ate
d ac
Ġs ym
ĠTime out
or b
enc er
Be havi
Ġconfirm ation
Deep Copy
Z ERO
un bind
DF S
imp lemented
String Utils
new Value
#### #
) ])
Ġt issue
ĠH ur
B luetooth
00 9
YY YY
aggreg ate
S y
} ''
="../../../../../../ ../../
IB LE
L ef
Ġ ÏĢ
Ġassert ions
ĠAut hentication
Ġfra ud
ic ide
Ġinf late
Ġco vari
Ġ& (
ĠR ank
al ready
Ġsub scribe
gre y
tern oon
Ġredund ant
:// $
Ġmin ister
ITER AL
}_{ +
J ar
h ab
ard own
Analy tics
¦ Ĥ
Ġre nd
ber ger
\ :
ĠC FT
Ġhouse holds
ĠPaul i
ĠE lastic
N at
Type Error
Ġcatalog ue
W as
ĠM M
ord inary
Ġw ing
ot hed
is NaN
Ġsur pri
Ġco ffee
in ch
temp oral
Ġstack ed
Ġ&& \
P ause
Ġ\ }$.
sp ort
Ġch amber
dor ff
\, ,\
f ive
ul li
el ve
Option Widget
c O
ĠW as
B ERT
re ll
Ġsub system
Binary Tree
B ulk
bas ename
he ll
ap ro
Ġambigu ity
Ġcon structions
Ġro l
y ard
Ġf lying
Ġst ere
ĠR unn
ĠMo ore
Ġingre dients
d ynamical
Ġchart s
Ġconcent rations
ĠV iet
Qu ad
ul ous
&& &&
S andbox
ĠPr imary
18 4
Ġf irms
cur s
C ube
RO LE
Ġair port
Ġreli ef
Extract or
25 4
upd ates
Ġsatell ites
ĠM g
ach use
Ġ Ñĥ
re search
ĠF a
2 14
ĠB lob
ĠB B
ĠGa uss
åı ¯
Ġro of
OR ITY
ub les
Ġserious ly
ĠG AN
yn olds
i ors
fl are
Ġswe ep
ĠVictor ia
Ġtra its
Ġign oring
Ġv it
\\ \\
Ġopp osition
stop Propagation
}\ }_{
field Name
ĠAssert ion
se gments
S ocial
ĠN ash
3 10
Ġv el
Ġmut ually
Ap ache
] },
Ġ} ^{
ĠR ose
Ġvisit ing
ĠSaf ety
l ng
ne e
ĠFe ed
pod s
ĠJe an
Ġframework s
man age
Ġlight s
topic data
Ġab bre
Ġto wer
Ġpro ximity
Ġoptim izer
Ġtor que
Ġstre ets
COMP RESS
In verse
Ġcros sed
Ġre put
ĠD ro
create Class
ellig ent
l w
inv ocation
ĠQuest ion
umn i
Ġproceed s
Del ivery
Ġclick ed
M EN
Ġb ass
---------------------------------------------------------------- ----------
E ast
ĠB M
Ġmorph ology
oth ers
Heading Color
inter section
Compiler Services
8 90
ing ham
CT X
s nap
Ġra ises
ĠB or
mark up
ĠF ailed
ĠK er
Ġtra il
CR YP
ĠCl one
Ġfac ed
Work Item
Ġdwar fs
if s
Ġme ters
net s
An n
Ġr ural
Ð» Ñı
Ġre current
Ġmac roscopic
t id
Ð¸ Ñģ
Ġsequ el
Ġp f
Ġi ps
ĠT W
pr imitive
Ġsuper gravity
invalid Params
WINDO W
ob serve
spect ra
$ },
ĠNav igation
achuse tts
Ġd up
Ġav o
Ġ ist
Ġvulner able
ĠT ony
Ã µ
Ġw atched
End ian
ĠJes us
] '
Ġbelie ves
16 3
Ġdel imiter
ĠDi ego
Ġbirth s
ĠRic ci
` ](
è ±
S chool
map reduce
Ver b
ĠInput Stream
j as
Ġdesign ated
LT IP
ĠA BC
Count s
C amel
lect ual
ĠHol lywood
Ġde leting
Ġas ide
Over load
Ġquas ars
ĠL ists
sh ard
AR S
C b
ĠG row
Ġtra ins
Ġelli ptical
aver aged
gra ined
å ¹
Ġre dd
ĠR ate
Ġop am
M ATH
M utation
å ī
leg acy
ĠBu dd
â Ħ
Syntax Kind
it uted
Ġp it
ĠP ick
un ces
Ġconnect s
Dig it
Ġ ub
ĠT x
Ġsp ots
ĠD og
ĉĉĉ čĊ
Ġnumer us
Ġcas cade
w y
Default Value
P aste
Ġs d
S NR
TH REE
OP TS
in tr
_{ *
ĠNetwork s
Http Client
im o
Ġref erring
Call ing
Ver ification
Ġspher es
Ġcall able
Sp ot
ĠOr ganization
el son
ID S
co herent
ĠA bb
Gu ard
Ġmac ros
Ġv ital
Ġl ag
s ay
v est
Trans lator
Ġselect s
ãĥ Ī
/ {\
ĠSil ver
ĠL D
ĠE mer
c xx
0 13
$. \\
New Error
Ġgoogle api
Ġdesign er
åĲ į
Ġguest s
Ġdoll ars
Work s
yn e
ll l
ĠK evin
Ġhon or
in ating
ĠP lus
Ġwarr ant
H aving
de serialize
ĠDes cript
com bin
inem a
Ġ[ :
Ġsh aded
t g
ac a
Ġ ----------
ĠS ales
IB ILITY
us ually
Ġs ynthes
ãģ «
ĠC IFAR
Rec order
ĠSy dney
c plusplus
Ġre n
ĠMin nesota
ent e
Ġdis pers
_ +\
C ERT
J ul
pop ulate
r te
ĠRep ository
Al ive
az ard
Ġmov ements
r times
ĠF ill
method Name
aint ext
m ont
r ising
{\ "
Not Supported
un ning
Comp ression
Spec ify
LOC ATION
{\ '
ĠCho ose
il ateral
ĠM as
VO ID
ME T
b ag
file system
H amiltonian
M ichael
) };
RAN GE
Ġleg islation
g fx
up on
G ro
Ġre jection
Ġf iring
Ġparticip ation
o ul
Ġreg exp
Fem to
ĠE ll
Ġconvert s
;\;\ ;
Ġen forcement
g w
sub scriptions
FR AG
ĠV ec
/ </
ĠO wn
ĠMap s
Ġcontext ual
th ink
IST S
Ġparametr ization
I OS
Ġ' ?
ĠRe views
ĠWH ETHER
O Data
v ue
Ġcomp eting
18 3
Ġshort cut
$ "
7 20
Ġinnov ative
ĠRect angle
T ail
an th
ĠM ongo
Ġc tor
gl Get
l bl
ĠS creen
Ġco medy
Ġinduct ive
8 50
quant ity
Ġy r
order By
" '
}- {\
bra ket
Ġscre ens
Ġl aid
On Search
calcul ated
ĠB T
ĠL ik
Ġgener ative
li ber
str cmp
Ġcent roid
Ġup stream
Time line
Access Token
adv ant
q w
al gorithms
est ab
Field Location
bind ings
Ġcross over
ĠO wner
ĠA verage
ĠS in
Ġ*/ ;
Get s
Cre ating
y ii
$ }.
Ġdimension ality
ĠTh er
Ġcl arity
Ġol dest
d V
Ġstrateg ic
deriv ative
s ix
Ġp g
Nav igator
ic z
Ġsuper position
L aw
se ason
Ġf estival
Ġg ear
Ġbefore Each
\| _\
cat Desc
ĠTheore ms
ut ational
ĠName s
E sc
accord ion
ĠS ix
TA IL
ĠPer iod
Ġenumer ation
è± ¡
Ġta ught
ĠO cc
Ġin consistent
pd b
Ġgeome trical
Ġd c
Ġcomp oser
ĠOTHER WISE
ç §
Ġrepresent atives
Ġbenchmark s
Ġcros ses
Ġpro mp
Ðµ Ðº
æķ° æį®
Ġswit ches
W ay
y i
Ġfor Each
ĠRef lect
bro ken
ograph ical
mask FromRange
SPH INX
Ġc ry
dis connect
âĢ¦ .
Ph p
Ġelectric ity
T one
Check Box
Ġst iff
W F
Version UID
LI BR
fall back
g un
ĠU rl
ession al
embed ded
19 20
Ġvers a
flagged Element
ler ight
ĠGL double
s ap
co ol
6 25
; (
Ġev il
m apped
ac s
ĠUp per
Pers istence
2 15
Ġh ints
ĠO cean
30 8
co sm
æĸ °
Ġproton s
ĠCamb ridge
number Of
}' \
comp ose
Se veral
3 80
ra ses
Ġord inal
ĠT ORT
triang leright
F acebook
t utorial
Check sum
AIN ER
Glob als
)} )$
ct est
ĠI ss
Ġun clear
get Mock
UR ATION
start Time
en berg
Cent ral
Ġ$ *
Ġro unded
Ġimp urity
UT IL
col group
Ġdis put
= $(
Ġreg ret
Ã¡ n
Pointer Exception
Ġaware ness
ee ee
Ġintu ition
ĠC le
Ġ& +
ext ent
Register ed
åĽ ŀ
ĠM atter
ĠPro vider
Ġreal izations
distribution s
Ġrob ots
ĠS IL
Ġwe bsites
riz ona
ĠSeg ment
U ndo
ĠP SF
ĠU AV
Ġfile system
Ġfragment ation
Est im
ĠD utch
18 1
Å Ľ
Type Symbol
Dep loy
yy yy
ĠPo ssible
Ġsuscept ibility
dis covery
nump y
at ility
ĠLew is
3 40
å ±
Jan uary
f usion
uth er
ĠBo ost
, ``
M i
ĠM AP
ĠĠĠĠĠĠĠĠĠĠĠĠĠĠĠĠĠĠĠĠĠĠĠĠĠĠĠĠĠĠĠĠ ĠĠĠĠĠĠĠĠĠĠĠĠĠĠĠĠĠĠĠĠ
ĠRo om
ãģ Ĺãģ
Ġb orrow
Ġcur ved
ĠHe isenberg
ĠB urn
Ġfl att
}[ (
signific ant
Ġ ib
Ġimport s
quot a
shall ing
Ġconflict s
u ver
)) (
Ġtransp ose
Ġun w
ynch ro
Ġa ster
IFI ER
ĠObserv atory
ro ots
Decor ator
l v
ĠI con
)}\ ,
Fetch er
DEP TH
Ġst ays
pro filer
so ap
d an
Ã ¦
Ġjust ified
ä» ¥
Ġe gg
ĠF riend
oper and
ca pt
not ate
equivari ant
ĠSub st
Ġeng agement
Al ways
Ġconc ert
ĠBE GIN
). __
22 6
ĠL ady
ST OR
Ġcr ack
Ġattack er
ĠSerial izable
P resentation
ĠS imp
ch romium
Ġaver ages
Ġun necessary
ĠLog in
Ġconvent ions
b usiness
Ġ& $\
Ġback ing
A mb
Co ver
ĠCall ing
Ġcomm utes
ĠPro b
Ġtag ged
ĠF IR
"> [
A udit
Wh ich
Class ification
Bl end
D EN
Ġspont aneous
Ġbi ases
? ",
M pc
({ '
prov ides
ĠM ut
Ġclass ifiers
++ ];
li pped
ĠAn imation
ĠTe lescope
Ġto x
ĠS av
get Resource
Ġpool ing
E sb
é Ļ
sp aced
li ant
} ");
ĠSov iet
ĠTrans former
Ġtheore tically
ĠE ver
valid ators
ĠG UI
)) =\
charCode At
ad j
ä¸ Ĭ
B rit
ĠDef ines
> ?
Ġwe aring
SIGN ED
S pl
Ġarr anged
Ġmeet ings
SNAP SHOT
comp oser
Ġcompens ation
Ġtack le
6 50
appro pri
4 20
] []
z A
ĠB road
KEY WORD
ĠWis consin
m illi
ĠByte Buffer
w hel
Ġfile path
col our
. ">
cos ystem
ĠJO IN
ĠOper ations
ĠRunn able
26 2
Build ing
Ð Ĵ
card s
Ġoffic ially
zer os
Ġhe lium
it zer
ing ale
Event Emitter
Ġcol lapsed
H uman
è ¾
Ġr x
)\ |
>: <
Ġvict ims
Ġsystem atically
Ġch ained
Track s
COMP ON
k al
ide a
Ġir regular
ri me
del ivery
fl avor
Ġphenomen ological
sem antic
Ġgl Get
et cd
ĠN at
3 64
ĠH it
inv est
Ī Ĵ
ĠCo uld
def i
Ġbenef icial
Ġdiagn osis
Ġintersect s
Ġparticip ant
Th roughout
Ġprof essor
ĠMax well
cli ents
L STM
ĠAl ert
aus dorff
Ġdirect ives
ĠBlock ly
Ġp ip
ĠG O
ferm ion
W all
Ġle gs
ĠCH AR
ield s
ĠWork er
Ġdise ases
ĠA str
Ġpre gn
Ġv iable
ad vert
S phere
ĉĉ ĠĠĠĠĠ
B eta
C MAKE
Ð ³
Text Box
do mains
EXT PROC
"=> "
ĠH I
meta v
ĠMo untain
ĠBro ok
ĠSc roll
)\ }$
Ġmer gers
D ual
clo ak
Ġfun ctors
Com mun
b ubble
c D
it ol
}\ }
Ġaccess ing
ĠM F
ne ver
ĠIN TER
Ġmiddle ware
dig it
r ator
ord ial
Ġle mm
="../ ..
Action Bar
{ }^
Check point
r if
Ġtx t
Ġpublish er
iel ded
Out line
EXT ENSION
0 16
Ġavoid ing
Animation Frame
as ymp
ĠHar ry
Ġsil ent
ampl itude
ĠMETHO D
ĠK illing
Dist ributed
ĠR X
Ġmon o
Aut ow
ter y
BYTE S
0000 0001
sub script
Ġtransf ers
BUILD DIR
}$ \,
Ġcalcul us
ĠStr ategy
Ġdocument ed
enumer ation
ĠBel ow
G U
get Child
Function al
PRE V
Ġsc anning
Ġcomput ers
Ġgr ace
Ġadjust ment
ĠD or
Pro be
25 2
get Object
p otent
Ġp uzz
Ġroot ed
0 14
Ġ// !<
W illi
Le e
:" -
Comb ine
19 63
18 6
list ed
Ġrig orous
mcite default
44 3
Ġsuff ered
s impl
Ġlabel ing
Ġ(! _
Ġla ugh
C ancellationToken
t own
ĠF P
measure d
s sec
get Parameter
TOO LTIP
ĠC ab
S ect
s lides
ĠComp osite
ĠPart ners
// #
av al
null ptr
Sc r
Ġleg it
Ġback bone
Lo ss
co w
Ġtra verse
ĠCON NECT
Ġelem s
b R
Ï ĩ
:: -
ort heast
25 7
30 6
plan es
Ġto urnament
Name spaces
Ġcons umed
Ġo cean
Ġprov ince
Plan ck
Ġparadig m
B attle
Ġname spaces
mag ic
Ġrepro duced
Ġcapt uring
ĠT ables
ap unov
RGB A
rout ine
Ġdis appoint
uch i
olo ad
R SA
Ġsear ched
end points
ĠArgument NullException
ass er
Global ization
follow s
Ġpod cast
Re actor
Ġavo ided
Ġassoci ative
Clo sing
Ġplanet ary
L ater
as ibility
Ġnew er
Al arm
Ġauto Convert
Ġglyph icon
INST ALL
Ð¾ Ð½
>. <
mb l
ĠH ess
del phia
Ġph arm
Web Contents
ĠJ Query
ĠSto kes
TE MP
Ġt ens
mod ify
Access ible
Ġbug s
prec ation
che ll
ĠArg uments
Ġanim ations
ĠB is
ĠP IX
ĠF isher
åĪ °
Ġali ases
}$ }\
De leg
Ġl ua
åŃ Ĺ
ĠJ av
AS P
Ġde x
Ġcogn itive
li me
ĠPro to
ĠA stro
Ġnarr ative
Ġ rib
19 62
)] \
~ .
ĠS her
Ġearn ed
on z
23 1
Ġassoci ations
D onald
st ride
pl ate
Pro vision
pr im
Ġperson nel
AV A
ĠName ly
ĠAn notation
Ġbl ind
ł ģ
ak h
min utes
Ġeng aged
& )
he mer
Ġstri king
Ġpurch ased
udi os
Ġe ject
ĠR ome
ON SE
Ġwith draw
Li u
30 5
ĠPort ug
Ġuser Id
Ġdiscus sing
ĠWARRAN TY
M arch
p assed
re li
ĠC B
ak ers
ĠT EXT
pro cesses
PIX I
A ustral
at op
Re covery
Configure Await
an tom
le igh
some thing
de sh
Out come
str len
ho enix
Ġne ck
cond ensed
S CO
Th umbnail
currentTime Millis
EXCE PTION
ĠDist ance
ĠI DE
(( *
d q
comp ass
Ġgroup ing
22 3
Ġburn ing
Ġel s
b z
ĠD omin
Ġflight s
' =\
Ġprono unced
orre nt
ĠA ggreg
Ġev olving
Î ¸
ĠD iff
pro be
OP S
d S
Ġun supervised
Key words
Ð ¡
Ġse eds
ĠM arg
Combo Box
re ts
IF ICATION
Experim ent
PREC ATED
T witter
amp ed
Ġhop ping
Pro f
FT ER
Ġvort ices
F raction
Ġsum mand
draw er
0 20
b undles
Ġscroll ing
ĠD ave
ĠLe besgue
Ġ\ [\
19 40
Let ter
Public Key
Ð ¶
[] ):
insert ion
general ized
HT MLElement
Q P
Ġinstrument al
\ }^
ĠText ure
data Type
Ġm v
ĠTo ols
ol ling
Ġadvers ary
se to
Ġ\ ;\
Ġn omin
Ġ} ^{\
Ġst ood
Ġme th
Code Dom
Level s
B ul
Ġcon ject
Ġmonth ly
Ġtet ra
Ġv e
UNIF ORM
Ġal cohol
in ja
less ly
Inter rupt
Web API
Ġneur on
ĠG A
Ġcy ber
r st
ĠFor ward
center ed
ĠT alk
ck o
ä¸Ģ ä¸ª
Ġa met
Ġshe l
V m
out il
tab len
Te le
Ġsp ell
av oid
Ġaltern atives
Det erm
C rypt
Ġsy nd
% =
S a
Spec ifically
| >
[] }
comp utation
mux er
Ù ģ
AS N
vi ol
ĠSO CK
Ġtick ets
Ġplay list
bus y
Equ ality
ĠN ON
ĠP i
22 8
Char acters
og enerated
mark et
3 15
inter acting
G OO
exp ress
full screen
measure ment
$ ^{+
k el
rom atic
str ut
ĠQ R
Ġlong itude
Ġsl iding
ĠG allery
ĠCl ark
Spe ech
Ġdiv iding
dd d
b end
GLAPI ENTRY
Ġphilosoph y
Ġf m
ĠS B
D st
ĠB order
ĠW inter
âĢĵ âĢĵ
ĠS el
ctu ation
comb ined
M V
w u
ang a
NS Array
c ue
w ick
Ġshock s
dispatch er
ĠP ear
26 5
Ġden ied
ĠIgn ite
100 0000
Ġ ^{-
ĠPl ot
ĠEnd point
ĠC riteria
P iece
Ġt weet
ĠS IG
ĠIN DEX
Ġfor k
ĠP G
Ġintu itive
P ressed
b ula
Ġal arm
Ġbro ke
re ma
ph ones
set ter
Ġt une
ĠL iter
Ġside bar
ĠGold en
arab ic
P aper
ĠF etch
Ġmod ifiers
K T
e valuation
Ġclip board
ĠImp lementation
ile ges
Ġfaith ful
ynchron ously
vo ice
Ġlock down
:"- "`
\!\! \!
able View
ĠB ush
ud p
T ap
Ġb uckets
rib ute
Dat um
ad m
cre st
ĠI PC
Format ting
Ġaltern ating
allow s
Ġpred omin
ĠUn ivers
ĠE asy
ĠV ice
ĠQu ick
Bit coin
K o
Î ´
`` ,
ĠJ ay
Ġpre mi
unn y
mid i
Ġfore ver
Ġatt enu
Ġg allery
irection al
cr imin
ĠT ai
Ġy esterday
ĠInd ustry
sequ ential
Ġlik es
year s
å ·
Ġg ithub
sh apes
}^{ *}
Web View
PO INTER
Ġmanag ers
T iming
Ï į
act ory
trans formation
Visual Studio
ĠF it
ĠSQL ITE
Comp uter
OO L
Rot ate
Ġb asketball
ĠIn f
inf late
def group
Ġ` '
W elcome
As sets
38 6
Ġprofession als
op enc
"> $
Ġvirtual ly
ĠRo y
Ġb att
ĠEcon omic
ĠP ier
++ ,
j ack
od rom
2 99
ce led
NS Dictionary
Ġconstant ly
Ca ption
ĠCONT ENT
Ġant is
Ġg em
Ġis Valid
Ġpar king
An onymous
Group Id
× ©
Ġra ising
Ġaut onomous
l ar
ol ine
ĠÎ µ
; :
c X
ĠW el
SG IX
bo y
row sing
Ġob s
Ġaccum ulated
Ġcor rupt
Ġfo under
ic he
({ "
ĠNet herlands
g ender
clip se
Ġide mp
S aved
ĠImp lements
assign ed
Inf of
b ach
UN T
Ġpiece wise
Ġdram atic
Ġs ick
big wedge
Run nable
Ġsoldi ers
PO M
Ġdecl arations
Contain ing
) })\
add Child
; .
Ġs napshots
åħ ¥
Ġthe ta
ag u
doc utils
Ġtermin ology
Ġr ub
ĠMon itor
26 3
all as
ĠWrit ing
B RE
var nothing
sub tract
ysi html
N B
el lo
K im
IM O
Ġconf irms
Ġacc re
Ġselect ors
ĠSh im
iz en
Comp ressed
dat as
Ġemer ge
fl atten
Ġdriv es
Ġcomp ounds
open ed
ĠÐ¿ ÑĢ
}}$ -
^- (
Ġbo at
Ġevalu ations
ãĢ ģ
Rem aining
ĠBuffer ed
ĠHy per
55 55
ant on
ĠTh ings
CO ORD
Ġb orders
ĠC am
Wait ing
ĠV ery
Ġfree ze
Volume s
Ġorbit als
State ments
inter est
ĠRe vision
ĠApp lying
Ġ" \\
mo lec
Ġstrug gle
ĠIn cre
Ġtra v
Ġpri mes
exponent ial
b abel
i ang
Ġamong st
Ġpen et
ĠEnter tainment
E B
Tra de
t ion
Re ach
EDIT OR
A ML
Ġmod ifying
Ġcryst als
Å ¼
Ġcount ed
Ġse vent
Ġemit ter
H iggs
Ġs nap
ĠB io
ĠMean while
Ġa val
and al
class v
Property Changed
Ġocc as
>< ![
Ġgra mmar
normals ize
j vm
Ġper ception
Ġno va
ĠSpec ify
ĠBig Decimal
Ġeng age
| ^{-
Ġ= =====
file Path
Ġdisc lo
Ġsynchron ous
Ġd B
dat asets
anch ise
ĠS ab
ib li
location Name
s am
Ġcol lap
Autow ired
0 24
Ġro ads
contrib s
Ġdead line
Ġ< \
Ġh at
ĠRe member
BIN ARY
23 8
material ize
Ġfid ucial
å Ŀ
User Name
Ġfib re
ĠB inding
Ġaxi om
d os
Ġg y
pers ist
div er
Se ed
Ġspecific ations
In spection
Ġth umb
ĠS G
che v
ĠF ried
40 8
Ġswit ched
im od
ĠN an
Op code
ĠL ev
Add ing
Bo ard
ownt own
Ġw ed
radi ation
Ġslo pes
F req
model Version
ĠWork ing
row ave
Ġt ort
col lapsible
Ġ% (
")) )
Char set
R m
sp er
tab colsep
c ro
Ġin cent
Ġy aml
mut ation
æ ģ
DO MAIN
ze ch
indicator Element
Edit ing
Ġbl end
Ġle ar
ov ing
ATE G
Ġpropag ating
c ke
è ¨
44 4
ĠUS ER
}( (
Ġinfin itesimal
time zone
Ġquant ized
Ġip ut
I so
C ES
Ġcollect ing
Ġw et
Ġco operation
ee k
N ATIVE
Ġpush ing
UST OM
W L
em q
Ġex ported
Bel ow
RO ID
INCL UDE
v u
Instance State
imit ed
Ġdenot ing
For Testing
conv olution
cccc cccc
E p
Ġt i
] )$
en et
ĠP resent
request ed
DB C
Min or
* );
e er
dition al
Ġconstruct ors
Ġsho ot
Ġt witter
ennes see
re call
ĠTime stamp
Ġt ank
L ittle
c F
ĠB run
De veloper
( #
ĠAnt on
^- _
Ġterr itory
Book mark
Ġq view
ĠPsi Element
* [
it ure
ear ly
Ġdecomp ose
S Q
ĠJo h
_ ("./
19 00
Ġimp osing
Ġctx t
at ermark
o ad
ĠF ollow
)) ))
LA RE
/ (\
Ġinvert ed
ĠM otor
J P
es cap
Ġconvert ing
Form ula
loy d
ĠP it
ard o
Ġderiv ing
Ġinc idence
ĠL F
Ill uminate
U AGE
Ġin herent
s gn
/ ",
Ġevent Name
Ġdisc laim
Ġroll ing
is In
at in
Ġ= ================================
Ġgraph ic
Ġra mp
Click ed
C MS
G overn
z k
Ġcompar ator
all ax
Ġequivari ant
Ġcont est
Ġy ards
" ]);
22 7
K V
ad ers
anc etype
contrib ution
b ands
index es
Ġstrong est
ateg ies
Po ssible
itution al
v h
ĠR AM
Ġcan celed
umb le
Ġsho pping
Middle ware
ĠBer lin
Ġhypers urface
Q String
Ġconf ident
Ġsus pended
reach able
è ½
ĠW ard
hen g
}) )$
C ases
FILE S
le ast
to pe
Ġgra d
sm ash
Ġexplain ing
D ROP
Ġ$ >
it ational
dev tools
I de
Ġbr ands
ĠD al
wait For
ĠST M
ĠHo uston
ĠP has
Ġcontrib utor
Upd ater
domin ated
W ARD
p refs
Ġlo an
po on
ĠGL ubyte
igen ous
en viron
Ġavoid s
Ġpublic ations
Ġpublish ing
Ġ× Ķ
c H
ĉ ĠĊ
Ġsur rounded
Ġn ick
ĠB F
reg ression
r ants
)& =\
St ation
Pl umb
: ',
Code d
Ġinv olution
Add itionally
Ġd l
Type Of
File Widget
Pro tection
An imated
Auto Fit
ĠCo oper
ĠZ hang
Ver bose
Av g
ĠFin ance
Ġst uck
get Next
Ġitem Members
, ~\
ĠRead Only
Rec v
parame tr
ĠR M
ĠByte Array
en es
ĠG ene
ĠĠĠĠĠĠĠĠĠĠĠĠĠĠĠĠĠĠĠĠĠĠĠĠĠĠĠĠĠĠĠĠ ĠĠĠĠĠĠĠĠĠĠĠĠĠĠĠĠĠĠĠĠĠĠ
ĠTo gether
Ġsub sid
@ -
S qu
á º
mp p
Ġserial VersionUID
ARG UMENT
ĠJ am
exp ressions
T icket
ir ty
Ġorgan ic
Ġeast ern
name of
par box
}+ {\
,- .
Ġemphas is
' }(\
Ġre min
od inger
{} ],
Mouse Event
Ġh ang
ĠC ancer
Ġde sktop
to Have
Ġtrans lates
. ),
ĠC hat
ĠD FT
t im
p unct
23 9
Ġdown loaded
Ġ[ &
Av ailability
ç ī
Ġhe licity
Test Utils
Ġche ap
en z
Ġvis cous
property Name
C ause
Ġsin on
H N
Ġass ault
Ġopt ically
Base line
AI LABLE
ĠS ymp
Sim ulation
lo de
Ġfin ishes
DIRECT ORY
Ġastro physical
Un ix
[...]
